#version: 0.2
a n
e n
e r
Ġ .
Ġ d
Ġ ,
i n
Ġ s
Ġ a
Ġ t
a r
Ġ p
Ġ m
e s
Ġ n
Ġ k
o n
a t
a l
e l
o r
Ġ b
i s
Ġ l
e t
Ġ c
a s
i t
Ġ h
Ġ v
Ġ o
i l
u n
Ġ -
r e
Ġ e
a m
Ġ f
Ġ S
Ġ 1
o s
Ġ 2
Ġ A
a k
a d
Ġd e
o m
Ġ i
Ġ g
Ġ M
á »
o l
u r
t i
Ġ :
Ã ¡
c h
â Ģ
e m
Ġ P
u s
i k
Ã ©
Ġ w
Ġ âĢ
Ã «
t e
u l
Ġ B
e d
r o
Ġ T
Ġ Î
Ġ C
É Ļ
i d
Ä ±
Ġ j
i e
i r
Ġ D
in g
Ġ y
Ġ Ã
t a
Ġ in
i m
i c
i a
r a
Ġ K
Ã ¤
en t
an g
u t
á º
Ġ E
a g
Ġ (
e k
Ã Ń
u m
Ġ L
ï ¿
ï¿ ½
Ġ r
o t
l e
Ġ )
Ġ N
i g
Ġ2 0
Ġ H
an d
Î ±
Ġ q
Ġ I
Ġ z
Ï Ħ
Ġ 0
h e
a h
Ã ³
Ġ R
Î ¿
a b
a p
Î ¹
Ġ en
Ġ /
Ġ F
Ġ G
c i
Ã ¼
o d
a y
Ä ģ
Ġs e
Ġ un
Ġ 3
Ġ V
o k
s t
Ġ O
Ã ¶
u k
Ġn a
ï¿½ ï¿½
e g
u d
o v
Ġl a
Ġ '
Î µ
Ġa l
Ġ20 1
Ġq u
r i
Î ½
Ġ "
es t
Ġ Â
l a
n g
á» į
i z
Ġ J
i on
. .
t er
Ġ Ä
Ġ re
i v
en d
o g
is t
Ġ 4
o p
Ã ¥
Ġ 5
Å Ł
Ġs a
Ï ĥ
Ġd i
Ï ģ
er s
Ġ W
Ġ u
Ġl e
ar a
l i
Ġk a
Å ¡
a c
a i
e c
Ġt o
Ġp ro
Ġc om
Ġ U
Ġ el
Ġt h
Ġ an
Ġp r
e b
Ġc on
0 0
Ġa t
Ï Ģ
Ġ on
ĠâĢ Ļ
Ã ł
w a
en g
Ê »
o u
s e
a z
d e
Ġ et
l ar
Ġc h
Ġs t
a v
i b
áº ¹
o b
Ġ ?
Ġ es
Ä ĥ
an t
Ã §
Ġqu e
Ġm a
u b
Ġ is
g a
Ï Ĥ
u p
Î ·
e z
Ï ħ
d a
an a
Ġt he
o w
n e
Ġf or
i y
i p
Ġt r
in e
ar i
Ġp er
Ä± n
j a
Ġd o
Ġ 6
Ġ er
Ġs i
e v
e p
Ġa r
s a
q u
Ġn g
ĠÄ ĳ
Ġm e
k a
el l
Ġo f
un g
ar e
h o
Ä «
in d
ar t
Ġ ÏĦ
Ġ !
or t
o c
y a
Ġd a
Ġ and
er e
s i
ad a
Î »
il l
Ġh o
os t
Ġ 7
Ġn i
h a
s k
Ġ 8
Ä ĵ
Ġ. ..
n a
Å ¾
Ġ 9
Ġt i
c e
m a
Ġn o
i o
Ġy a
u g
Ã ½
Î º
Î ¯
Ġt e
Ġ ;
Ġ |
Ġ or
Ġa m
Ã© s
n i
Ã º
Ġ il
Ġb a
on g
Ã ¸
el e
es s
t r
t o
Î ¼
Ġs p
ĠI n
Ġa s
d i
ĠâĢ ľ
Ġ1 0
Ä Ł
at e
Ġt Ã«
Ġ1 9
Ï Į
Ġp ar
in a
Î ¬
in i
u a
al l
m e
Ġa k
as t
en s
is h
Ġd ie
Ã³ n
al e
Ġo g
Õ ¡
Ġd el
r u
Ġo p
i j
Ä į
Ġw a
o h
ï¿½ï¿½ ï¿½ï¿½
at a
Ġ Y
ĠâĢ ĵ
Æ °
Ġk u
Ġa p
ÉĻ r
Ġ Z
Ġo l
Ġj a
Ġk e
v er
Ġ x
ĠâĢ Ŀ
Å Ĥ
á»į n
al a
Ġn e
b a
d er
k e
Ġs h
Î¿ Ïħ
t t
an s
Ġa d
Ġp o
at i
er i
al i
Ä Ľ
Ġd es
at ion
Ã« r
ĠA n
t u
Ġa v
Ġh a
un d
p l
Ã µ
am a
Ġ1 2
ik a
Ġb e
Ã ¢
ĠA l
Ġ ï¿½
Ã £
an i
f or
Ġd u
Ġ %
z a
Ã¡ n
Ġa c
Ġv an
Ġm en
h i
em b
p r
j e
Ġi m
Ġm ed
Ġv er
el a
Ø §
Ã¶ r
Ã ª
Ġ Õ
Õ¡ Õ
ar d
Ã ¦
v e
Ġ ÏĢ
or e
Ġ1 1
l o
t s
u c
en te
ĠÎ º
or d
k o
Ġ it
er a
Ġt er
k an
Ġp ara
Ġk an
Ã ´
Ġ Ïĥ
Ġd an
il e
Ġy ang
Ġe m
it a
Ġe x
id e
Ġm o
l er
ĠÎ ±
Ġp l
Î Ń
s h
Ġv i
z i
Å ĳ
ĠâĢ ĺ
n y
us t
z e
it e
il i
Ġo m
Ġs o
Ġb er
Ġ #
Ġd et
f f
Ġv a
Ġv e
on a
Å Ļ
n ing
Ï ī
Ġp re
Ġ20 0
u i
u h
Ġg r
Ġ1 5
Ġp or
m i
v a
Ã¡ s
Ä Ļ
on t
Ġ Ã©
as s
as i
k i
Ġ ro
Ġk o
Ġs om
Ã¡ l
Ġ =
w á»įn
Ġa b
en a
ti c
Î± Î¹
Ġs k
t or
ĠC h
k s
á ¹
ic a
Ġ Ð
n o
as h
g e
w e
ti on
Ġb o
Ġp Ã¥
Ġ ra
Ġj e
Ġ &
Ġ est
ad o
g r
Ġ â
o a
Ä ħ
Æ° á»
l ik
Î ®
Ġt il
y s
Ã£ o
Ġ1 8
ad e
Ġ Q
Î ³
b e
Ġe d
Ġs er
Ù Ħ
Ï ĩ
á¹ £
l u
k u
Ġb y
n h
er t
Ġp h
at u
ĠÎ µ
Ġs u
A N
ci Ã³n
Ġ0 0
ÉĻ n
r an
am p
on d
Ġh ar
Ġ ang
ĠÎ ¼
in t
ĠS t
en e
r es
j i
Ã¼ n
Ġa f
g an
Ã ¨
áº ¡
Ġd en
id a
Ġn Ã«
Ġt a
2 0
Ġ1 3
or i
áº ¿
b i
Ġv o
Ġd er
Ġk om
Ġ1 4
Ġ Å
Ġk i
Ġ1 6
s o
Ã¤ r
ad i
Ġp e
ĠS e
ĠA r
t en
Ġo b
o ur
i ch
u z
em p
y n
Ġa z
Ġl es
an o
ur a
ĠÃ ®
ul t
i er
ĠD e
ol o
Ã¤ n
Ġh e
Ġs z
r y
p a
Ġp a
n ÃŃ
p e
Ġb ir
ĠÂ »
on s
on e
á» ĩ
Ġ X
E R
Ð °
Ġm et
Ġ1 7
ĠM ar
Ġe g
Ġa wá»įn
Ö Ģ
Ġn h
ĠE n
ak o
Î¹ Îº
Ġo s
ak a
Ġ us
l y
Î¹ Î±
f t
c k
c a
Ä± r
ĠÃ ¼
Ġh et
m er
ic i
an e
Ġ [
Ï į
Ġm in
Ġl i
Ġ ]
as a
z y
Ġz a
it h
Ġm u
Ġ) .
Å «
Ġd is
o j
Ġr es
Ġk h
is i
Ġ Ê»
e h
áº £
l ig
ti v
et t
Ġ um
Ġm an
Ġp Ã«r
el s
Ġf r
Ġm ar
ĠP ro
et e
Ġa u
Ġ3 0
ĠÃ® n
in o
ĠM a
Ã ±
Ġb u
ic e
t h
.. ..
Ġ ut
ent o
Ġin ter
l an
ĠU n
Ã¡ r
Ã¼ r
Ġ) ,
Îµ Î¹
Ġp ol
A R
g i
z en
Î ´
em a
ĠÃ §
Ġg o
Ġi k
it u
/ /
am b
tt p
Ġ Ø
Ġc he
Å ¼
Ġ ï¿½ï¿½ï¿½ï¿½
ĠÃ ¶
Ġun a
Ġm i
ĠE l
b l
m o
Ġv ar
h t
ĠL a
Ġb i
u e
Ġ +
Ġ: //
Õ ¸
at o
á» Ļ
ĠT h
r it
Ï Ĩ
y e
am i
Ġh ttp
u j
Ġn ie
ĠÃ ł
en i
Ġet a
il a
Ġk on
Ġ2 5
Ġ201 7
Ġ2 1
ch e
c ia
m an
m ent
y d
I N
end e
Ġl o
et s
un t
ay a
ik e
k y
Ġo ch
l Ä±
È Ľ
b er
E N
Ġp ag
ol l
áº ¥
Ġ" :
et a
Ã ¬
Ġt ak
Ġc u
Ġ2 2
p ort
Ġ >
a u
Ġm ak
is e
is s
ÏĦ Î±
at s
em ent
Ġp od
f er
p er
Ãª n
b o
Ġc o
Ġd he
Ġg i
ĠS h
Ã ²
Ġi z
Ġa y
Ġb l
Ġm at
Ġ201 9
for m
Ġp os
Ġ Ù
Î ¸
d en
or a
Ġb il
j u
ur i
Å Ľ
ĠâĢ ¦
el i
Ġm od
Ġm as
ĠT he
al am
r at
Ġp ers
er n
á» ĳ
Ã© r
Ġa g
Ġo d
c o
Ã¡ t
v en
is ta
Ġi r
e w
Å ¥
v i
Ġ201 8
Ġ Ã©s
Ġt ra
an y
Ġ2 4
ol a
ir i
Ã¼ l
u ar
Ġe a
ĠP r
Ġm er
as e
Õ ¥
o z
Ġk at
Ï İ
Ġun d
un a
Ã« s
es e
s p
ir a
ÏĦ Îµ
ĠC om
it y
Ġw e
ĠÏĦ Î·
ol e
Ġ2 3
m in
ag e
Ġ ent
is a
f a
ul a
Ġb r
it o
Ġn u
ĠL e
h et
O N
Ã¤ l
Ġ ÅŁ
Ġf un
it i
ĠÃ ¥
in n
ÉĻ l
Ã« n
ĠT r
Ġa ut
Õ ¶
Ġt u
Ġp i
us e
È Ļ
el d
Ã¸ r
l ine
Ġpro d
es i
Ġd at
b u
ÏĦ Î¿
ÉĻ t
ol og
ĠÎ ´
É Ľ
iv e
Ġm ga
Ġd in
qu e
Ġp as
ik i
Ð ¸
Ð ¾
Ġat t
Ġ" ,
y o
Ù Ĭ
k l
Ġj u
y t
im e
k t
m en
Ïģ Î¿
Ġv al
A L
Ã¡ c
Ġs el
n Ã©
es ti
Å ¯
A T
r et
ion e
ĠÎº Î±Î¹
Ġe en
d an
m as
Ġin d
E S
Ġ201 6
Ġ. .
Ġk wa
w w
y l
ĠÂ Ń
ul l
re d
e a
ĠÃ ¤
on i
es te
k en
j o
Ġc a
Õ «
ek s
k er
ĠR e
i i
an te
and o
Ġb at
ci on
Ġb ar
j Ã«
ci Ã³
c t
ar en
Ø§ ÙĦ
á» ģ
Ġm eng
Ã´ ng
- -
Ã¢ n
s s
el t
it t
i x
Ġs on
Ã¥ r
n ya
Ġs am
ap a
Æ ¡
l es
el o
á» ĥ
n et
Ġâ Ĥ
a w
Ġre c
t uk
ci al
u re
ĠÏĦ Î¿
im a
Ġm ai
g o
ch t
ÃŃ t
ic k
in s
al ar
im i
p p
Ä ĩ
Ã© g
Ã© n
ĠA d
u te
y m
ÏĦ Î·
ed e
ag i
Ġ0 1
Ïģ Î±
âĢ Ŀ
te d
ĠÂ «
ĠÄ °
en ti
Ġd it
n ie
A S
O R
Ã§ Ã£o
á» §
ot o
ĠE s
ti k
ur s
eg o
al d
i h
ak an
Ġ5 0
e j
es ta
Ġw ww
is k
i f
ig a
ĠÎ ½
g en
ÃŃ a
or s
ĠO n
Ġ0 9
áº Ń
ĠâĤ ¬
Ġcom p
y r
Ġcon t
Ġ0 00
it s
r as
ĠP ar
om e
Ġ2 6
Ġ $
Ð µ
Ġm ag
ĠÄ į
eng an
il m
w o
ig e
am e
or m
Ġ ul
u y
Ġ2 7
Ö Ĥ
ah a
Ġ *
Ġam b
Ġy ou
ĠÃ º
ÏĢ Î¿
Ġv Ãł
Ġre g
Ġf Ã¶r
Ġm eg
Ġ2 8
ic o
Ġw ith
b en
ĠN a
Ġf a
v al
Ġ á»į
Ġj o
b an
ĠN o
1 1
Å Ĩ
á» ĭ
av e
ek o
Ġl os
Ġm il
at t
ĠA m
Ġ ur
Ġa ti
i re
Ġ201 5
Ġs al
ĠS p
d u
Ġg a
Ġk l
Ã¶ n
ak e
Ġv ÉĻ
Ġ1 00
r en
k et
al iz
ĠC on
5 0
an ya
z t
Ã¡ m
É Ķ
l et
Ġse g
Ġg j
Ġf in
Ïĥ Î·
er o
and a
al o
Ġw at
Ġ Å¡
ol d
Ä± ÅŁ
Ġ \
ĠÎ ³
Ġ0 8
v o
Ġk un
in k
Ïģ Î¹
i en
ot el
r os
áº §
Ä± m
Ù Ĩ
Ġth at
en n
ĠÏĦ Î¿Ïħ
Ġal l
Ġd engan
v el
ch a
Ġun tuk
ti r
t Ã«
1 0
Ġ2 9
Î¼ Î±
Ġk ar
p o
l and
ok o
g er
Ġi d
Î½ Î±
ak i
Ġh u
Ġn Äģ
Ġe k
c es
Ġin i
ÉĻ s
Ã³ w
ag a
Ġpr es
Ġu z
Ġn y
l am
Ġa i
ĠH o
er v
Ġn d
Ġin c
ti m
Ġ ï¿½ï¿½
ing s
á» Ľ
ik o
Ġ Ø§ÙĦ
E L
Ġw as
Ã½ ch
ent ru
Ġt y
Ġ0 7
ak t
Ġa re
k in
Ġcon s
Ġ201 4
_ _
Ø ±
em e
Ù ħ
Ġl Ãł
or es
ar s
Ñ Ģ
Ġ0 2
Ġg e
h at
Õ¸ ÖĤ
Å £
Ã¤ Ã¤
Ġ201 3
ch i
Ġb et
Ġv ol
Ð ½
en er
Ġl as
Ġa j
Ã ¹
Ġse b
Ġh er
Ñ Ĥ
Ġs in
Ġ0 5
el le
ac k
ec t
Ġp ri
in en
l ÉĻr
Ġ0 6
ov a
al t
ĠS o
Ġc an
Ġp ÅĻ
u v
gr am
Ġt id
c z
Ġs em
I S
f i
Ġm y
Ġ0 3
Ġy o
Ġs up
p os
v is
Ġd ar
um a
iv ers
U R
Ġ á¹£
f ic
ub l
Ġk r
ah i
ĠS a
n er
Ġu p
Ġ0 4
Äģ s
ĠA z
Ġs c
Ġk as
Ġ Å¾
il le
Ġ4 0
Ġk w
Ġ201 2
u al
ĠO r
Ġde m
Ġm it
Ġd os
Ġq Ã«
Ã¦ r
on o
l as
u ta
ad os
Ġs ur
om a
ĠP er
ĠÎ ¿
Î¯ Î±
á» ±
Ġt re
ang an
x t
s z
Æ°á» Ŀ
ĠÎ½ Î±
emb er
ab a
Ġs y
Õ¡Õ ¶
Ġv ir
Ġb el
iy a
Ä± l
an k
ĠV i
ĠD et
Ġk er
ĠE r
ak s
O S
d ÉĻ
Ïī Î½
Ã« sh
Ġt ot
Ġb es
ti g
an ia
Ġvo or
p ar
Ġ ist
Ġst r
al s
us h
Ġv is
es a
Ā Ā
Ġn jÃ«
ĠG r
at iv
Ġt ur
E T
ÉĻ k
Ġn on
Ġn ga
ek t
Ä ¼
Ġho Ê»
Ġp u
ĠA s
Ä °
Ġp ot
y i
A M
ĠÎ¼ Îµ
en ta
Ġe i
ra c
1 2
Ġc Ã³
f r
al it
Ġe z
d o
lar Ä±n
at ur
ot t
Ġn em
ĠÂ ·
Ä ¾
ĠK a
ĠT e
áº¥ t
Ä± z
m et
in in
Ġd as
Ġc ol
Æ°á» £
Ġ ud
Ġp al
Ã¶ z
Ġs ig
ĠâĢ ŀ
Ġpers on
h l
el la
Ġm al
ol i
ra v
ĠB ar
Ġa le
ÃŃ n
p h
Ġm Ã¼
ĠâĢ ¢
Äģ k
Ġo ver
u f
Ġ3 1
Ġh i
I T
o i
Ġs v
áº¡ i
ad es
ed er
us i
Ġv y
Ġn ov
Ġt s
Ġ20 20
ĠQ u
ĠSe x
Ø§ Ø
ur o
Ġs l
s te
ed i
Ã© m
id o
Ġe in
Ġc e
Äģ r
il d
.... ....
w i
Î ²
Ġcom o
Ġc ar
al an
Ġm em
á»Ľ i
Ġt ar
ÏĦ Î¹Îº
ig ht
z o
Ġpro f
ĠB u
or n
Ġv ide
ap at
as ta
and e
3 0
? ?
j et
Ù Ī
Ġs ek
b r
Î½ Î¿
h r
Ġf ac
ÃŃ m
ĠÃ¤ r
Ã© t
O M
p t
am ent
Ġ", "
ik an
uk s
p i
ek a
un i
ĠB a
Ġc l
j er
ĠD i
Ġc á»§
Ġs Ã¥
Ġf i
er k
ok a
Ġ @
ĠI s
Ñ ģ
un e
u an
ĠM e
I C
ĠÄ Ĳ
us s
Ġcá»§ a
y k
Ġon line
ow n
Ġde c
Ġs ta
l at
et i
ĠH a
Ġes te
Ġl eg
Ġse x
ĠP h
Ġt el
Ġa an
ĠÎ± ÏĢ
ĠÎ Ń
á» ©
Ġs ch
Ġt se
Ġk ur
Ã¤ t
il o
Ġp en
Ġh el
Ġin form
Ġf ra
Ä±n da
ie w
an n
id en
Ġl ati
Ġn os
á» ¥
Ġin f
c on
Ġs en
ar an
o f
Ġ201 1
w an
u x
Ġk Äģ
Ġf e
h er
ĠP re
uk a
Ġin s
Ġi a
ik u
d z
at or
f e
j on
ĠÃ ¨
ĠA c
Ã¡ v
at is
ie k
Ġo u
ĠT o
Ġs et
ul ar
á» ¯
g y
t re
Ġs ol
Ġb ol
ud i
ĠH e
Ġc or
l en
ĠB r
Ġin st
Ġe v
Îµ Î¯
Ġt sa
Ġl ang
Ġil e
os e
Ġt ill
h an
Ġfor m
am o
am an
p or
ch en
Ġm ul
ĠD ie
ĠI t
Ġk or
j en
ĠF or
al ah
Ġ19 9
Ġt od
Ġor gan
lar Ä±
ag o
ent s
ra f
im o
Ġh ab
re e
ÉĻ m
ĠB o
Ġc are
Ð »
ĠÎº Î±
Ġp at
Ġt al
og y
Ġd ur
Ġo ut
ĠC ar
ĠM an
Ġc as
Ġm ay
Ġc i
Ġch o
h en
Ġp un
Ġes c
Ġ <
Î ¾
ĠÂ °
Ġ ing
od e
Ġtr ans
v ar
Ġt emp
Ġh an
Ġs ob
6 0
8 0
ez a
Ġv Ãµ
Ġn ot
I L
ĠAn d
Õ¥ Õ
i ro
ab le
Ã¼ k
Ġn ag
um u
l d
es h
Ġm ot
d ir
ĠK e
id i
Ġm el
ĠV er
Ġw eb
ud e
Ġse c
Ġt an
Å į
Ġik ke
1 5
A D
ab i
Ġk ut
id ade
Ġi g
es k
ed en
ĠP a
Ġs m
Ã¡ g
al is
Ġd r
ar k
ĠS ch
Ġpo ur
ÏĦ Î¹
Ġth is
Ġd ari
b y
ÃŃ s
1 4
os h
or k
Ġ3 5
Ġw ord
g et
ĠP ol
ul i
ĠIn ter
O L
at an
Ġm on
eb o
Ġv ers
Ġk am
ig n
b as
Ã¬ nh
ab il
Ġp ost
ĠN e
am ente
Ġel s
áº ¯
Ġa ta
ÖĢ Õ
y on
ĠâĢĿ ,
Ġo le
2 2
Ġm Ã¡
Ġm es
n en
n ÄĽ
Ġme a
ĠU S
Ġt ek
ĠÎ ĳ
Ġz u
ĠB e
Ġh al
Ġeg y
Å¡ an
r is
b ar
ig h
E D
im in
ul e
at er
Ġc re
Ġf l
Îµ ÏĤ
l ah
Ġd alam
á» ĵ
áº¿ t
Ġun e
Ġin v
os a
eg a
Ġch i
Ġ201 0
Ġ áº¹
Ġp entru
I A
y ch
ed a
Ġ": "
Ġm us
Ġm emb
an c
p ro
1 9
Õ¸ÖĤ Õ
ĠB er
Ġs im
ĠC o
ĠâĢ Ķ
Ġdi re
Ã³ l
ĠT er
Ġ ÈĻ
s ta
1 7
Ġm Ã«
ul ui
om b
Ã¶ v
ð Ł
t ar
1 3
Ã¡ k
Ġsi ÄĻ
j as
Ġy our
á»ĩ n
ĠI l
ĠM o
j es
Ġk ap
Î¯ Î½
Ġfr om
ĠP l
it ion
Ġd ia
uk o
2 4
Ġm is
Ġl ib
Î¼ Îµ
ac e
uk an
er en
m u
ĠE x
1 6
Ġ, "
! !
ra g
Ġk ul
Ġk m
ĠD es
Ġ3 6
ĠP or
p en
Ġh as
l ÉĻ
Ø ©
iz i
a j
ĠA b
ĠÏĦÎ· Î½
Ġ4 5
Ġv on
in u
h ar
Î» Î¿
n es
Ã¡ z
Äģ m
Ġh and
Ġs it
um i
ĠS an
g u
Ġd ig
Ġpro bl
ti f
ĠÎ³ Î¹Î±
id er
ĠJ e
Ġp art
Ġb en
Ġin t
Ġn et
Ġs ub
Ġel ler
ay s
st r
Ġa qu
Ġl oc
I D
o te
Ã© p
Ã¶ l
8 8
n os
al m
Ġt en
Ġe f
end a
ing en
Ġa ra
Å ±
v at
Ã¤ m
ud a
Ġm ah
Ġ3 2
Ġp la
ĠA k
ĠR es
Ġt ro
el en
Ġc ap
Ġ6 0
k at
it ar
áº¿ n
ul d
Ġy e
il la
ur op
is te
Ê» o
4 0
it z
ĠF ran
Ġd ir
Ġkat ika
Ġl u
ĠÎ±ÏĢ ÏĮ
et o
ĠM at
Ġ3 3
00 0
Æ°á»£ c
Ġf o
Ã¼ m
Ġ ÏĮ
Ġac c
Ġtid ak
Ġt ut
Ġcon c
n d
ĠG o
ion i
Î ¶
g ar
an ce
Ġp op
Ġu ch
um s
Ġd om
Ã© l
Î± Î½
Ġh ogy
ĠÃ ·
Ġf am
Ø ª
Ġb ez
et te
Ġh am
ad or
ĠA ng
ĠA t
Ġg ro
im it
on y
c ar
Ġh ave
Ġma is
Ġar t
Ġb ak
Ġ ï
ĠÈĻ i
Ġet t
re m
Ġro z
Ġt op
ÉĻ y
el y
Ġn ak
ĠE m
Ġo t
Ġal le
Ġser v
Ã© k
lar i
ti d
ol u
ĠK om
ut o
Ġi f
Ġg er
l ad
el se
ra z
Ġf il
end o
ĠÏĦÎ· ÏĤ
ĠÎ ł
A K
Ġi Ã§
ri p
b at
ĠC as
Ġd ag
an ie
Ġc ent
j d
Ġ Ïĩ
A C
Ġq il
it al
ĠÎ ķ
U N
Ġv Ã½
ul o
st er
em i
Ã¡ ch
ij n
Ġm ol
Ġ }
a f
oc k
Ġc er
it et
Ġres p
Ġ200 9
Ã« t
Ãł n
Ġ= "
U S
Ġï¿½ï¿½ï¿½ï¿½ ï¿½ï¿½
ÄŁ Ä±
ÏĦ Î¬
Ġr i
c tion
Ġ3 4
Ġp el
Ġo k
or g
E M
ĠW e
ĠÃ ĸ
r ia
ar y
l ed
in de
ĠI m
pr es
Ġv il
7 0
Ġg b
Ġs Äĥ
am ento
ari o
ĠE d
al es
ap i
ĠIn d
ak u
Ġf el
Ġt am
ĠâĢĿ .
Ġm ad
Ġ Ã«sh
ĠÂ ¬
Ġo h
9 0
ÉĻ d
ĠÃ«sh tÃ«
Æ°á» Ľ
Ġc el
Ġc Ã¡c
ĠS u
á»Ļ t
ev e
Ġhttp s
Ġm b
ĠÎ ļ
Ġpro gram
Ġd on
Ġent re
Ġz e
Ġt em
ad as
j t
Ġi de
Ġt á»
ov e
n u
1 8
Ġr el
ĠS er
n Ã½
ang e
Ġk el
ul u
Ġt im
it en
d y
ĠM as
Ġas s
Î¿ Ïį
Ġb al
ĠÎ ¸
Ġin te
* *
Ġu it
Ġpr z
p re
Ãł y
Ã¤ h
Ġal t
Ġkh Ã´ng
un k
ĠM in
á» Ł
p s
Ġa o
Ġd al
Ø ¯
ubl ic
le g
Î ĳ
Ġn um
á¹£ áº¹
ĠÃ ĩ
Ä±n Ä±
ĠM od
or o
ĠH otel
Ġit u
ĠD E
3 3
Ġg en
k ar
2 5
Ê» i
Ġal s
um ent
b il
O T
ĠD a
Å Ī
ĠC l
m at
Ġc at
Å Ħ
ĠÎ ¤
av a
Ġb on
os i
ĠP o
id ad
Ġsp e
ul le
Ġl et
Æ ı
ĠÏĢ Î¿Ïħ
Ġc s
k on
c s
ĠH er
ind i
c u
n ak
âĢ ¦
ĠM en
ah an
Ġn uk
Å¡ ÃŃ
iz a
Ġï¿½ï¿½ï¿½ï¿½ ï¿½ï¿½ï¿½ï¿½
Ġn as
Ġh y
Ïİ Î½
om o
ĠÅ¾ e
ĠR o
7 7
Ġb as
Ġex p
is ha
áº ·
b le
Ġpar ti
Ġp an
l ag
Ġb est
z er
ÈĽ i
ÎŃ ÏĤ
Ġes ta
Ġo c
tic a
am s
ĠÄĳ Æ°á»£c
Ã§ a
j s
ĠN ew
en ce
9 9
Ġp ada
Ġá¹£ e
ĠH ar
ot s
Ġp ak
ed ia
Ġw ill
it at
ir m
Ïģ Î¬
ĠE st
Ġk al
k el
c an
ĠJ a
Ġak an
Ġb iz
Ġh at
Ġ. âĢĿ
Ã« m
ist r
Ġch a
n ik
Ġo a
Ġv ed
l h
t on
Äĵ r
Ã Ł
ation s
ĠK ar
Ġm Ã¥
ent es
Ġh v
Ġa w
Ġr et
ĠÄĳ i
Ð¾ Ð
Ġ9 0
Ġg Ã¶r
Ġk ol
v an
Ġba ÅŁ
Ġw y
c el
I M
ay o
Ġj ed
Ġ uk
t es
ÃŃ c
um e
Ġpr in
Ġn eg
Ġak u
Ù ĩ
en y
u er
it er
u je
ĠÎ Ķ
á»ģ u
Æ° Æ¡
or ia
Ġa h
Ġ8 0
p on
ĠB l
Ġs us
Ġ3 8
Ġs ist
Ġpro c
Ã¤ Ã¤n
Ã© ny
ant s
Å¡ e
is ter
Ġd ÉĻ
Ġ3 7
in Äģ
áº§ n
ish i
n s
in ing
g un
eb ru
Ã©s z
Ġ3 9
Ġan a
Ġh or
Ã© c
Ġ Ã¡
os s
ok s
ell o
ĠÅŁ i
ĠK r
d ag
c er
Ġ {
ov Ã¡
Ê» a
t ur
Ã© ho
ã Ģ
ĠÎ ·
on es
ĠS i
ĠÏĦ Î±
4 5
b et
us k
Ġdel la
ĠA g
Ġ5 5
Ġh ist
ov er
Ġp eng
Ġi ÅŁ
j ek
en ÃŃ
Ġsob re
ant o
-- --
qu es
Ġv ia
à ¸
i es
Ġtr ong
ind ÉĻ
m un
ar r
ti e
ac ute
I R
Ġj an
Ġp ass
Ä± k
ĠK o
Ġb eg
ĠÎ £
Ġis h
Î¹ Ïĥ
6 6
Æ°á»Ŀ i
an z
ci o
á» Ŀ
Ġ. ,
im ul
Ġm w
Ù İ
Ġ4 8
Ġm und
b ay
ac a
Î» Î»
Ġprod uc
Ġ200 8
ar m
Ð º
ĠÎµ ÏĢ
ĠS k
Ġf Ã¼r
ĠM ag
Ġ ðŁ
Ġb ur
Ġm or
ĠR a
E C
ĠM al
v ol
il s
o on
Ġr is
e e
Ä±n a
ÉĻ h
en ye
Ñ ĥ
are a
Ġj ak
Ġs ab
Ã¡ d
ĠÏĥ ÏĦÎ¿
Ġw i
ÅĽ ci
ĠÃ ī
am os
l us
Ġk es
Ġf al
f in
ÏĦ Î±Î¹
Ġbl og
I K
Ġs Ãº
Ġqu i
ĠO s
3 5
Ġpro p
Ġprod uk
um b
og o
Ġes p
Ġ" .
ĠA wá»įn
ĠD o
ĠR eg
m es
Ġma j
ĠÏĥ Ïħ
Ġt om
Ġen d
ci p
Ġb an
Ġl ab
Ġen g
Ġo li
li ch
Ġm á»Ļt
áº¡ n
et an
in ta
Ġd ans
ĠÎ ľ
Ãµ es
Ġn ap
ĠV al
Ġd iv
Ġi ch
ut s
ro d
Ġj eg
ĠM on
ĠN i
ÏĦ Î®
ĠOn line
ĠO l
Ġum a
b b
Ġv á»Ľi
Ġpol it
Ġs ing
Ġku wa
ĠP R
ĠÏĢ ÏģÎ¿
er g
ĠN ov
all y
Ġvide o
Äģ l
Ø ¹
il or
iy y
Ġg el
k om
Ġc z
Ġ `
Ġr u
ele f
Ġ9 9
ĠL es
re g
Ġr áº¹
Ġy ap
ĠC ol
us ta
Ġpro v
et er
or y
um p
b al
Ġm m
ĠA ut
ur u
ĠO p
Ø ¨
Ġak o
ĠV ide
Ġ4 4
Ġre d
er ing
ĠA p
Ġau f
7 8
Ġc m
Ġb or
Ġun der
Îµ Î½
Ä±n Ä±n
Ġc al
il er
Äĵ t
ĠÃ®n t
in h
Ġ4 2
Ïģ Î¯
Ġn am
n Ã¡
Ġb ah
Ġt it
as Ä±
ep t
Ġg l
l ing
ik s
ic s
er d
Ġm Ã¡s
ĠÙ ħ
te k
ay an
ĀĀ ĀĀ
ne j
Ïĥ ÎµÎ¹
Å¡ i
Ġt ip
Ġt un
ri b
u ti
A B
Ġk up
Ġb ut
Ġn Ã¤
U L
ĠF r
Ġ ÏĨ
c ie
it as
y st
Ġt ul
ĠA v
Ġa us
ĠÎ ²
Ġb ul
ĠD en
Ġ7 0
Ġk Ã¤
ro w
ĠK at
Ġj áº¹
ĠI I
A G
á» ķ
Î¹ Î¿
Ġk ir
ĠR ep
Ġw o
Ġw h
ĠE urop
Î¿Ïħ Î½
áº£ i
o x
ab r
l eri
Æ°á»Ŀ ng
Å¡ a
p le
Ġn ev
d f
Æ°Æ¡ ng
ĠÅ ŀ
c y
Ġk ung
l in
ec e
Ġm om
ĠÅ ¼
Ġf ot
Ġw ak
ion al
ur t
Äĥ r
Ö ģ
at ed
est o
ÉĻ b
v ers
Ġv ai
Î Ł
Ġh ot
ÏĦ ÏĮ
Ġpl an
j ar
Ġgr atis
ub lik
Ġde p
Ġna v
Ãł ng
ta g
ĠÃ®nt Ã¢
Ġf ilm
ĠJ an
Ġh ad
Ã¶ k
Õ¸ Õ
Ã¼ ÅŁ
Ġ4 3
Ïģ ÏĮ
sk e
Ġc r
Ġs or
ĠD r
ĠI N
Ġt ah
Ġp ap
Äģ d
Ġm ind
Ġs il
Ã ģ
Ġche ck
os ta
Î Ļ
ĠP e
y g
Ġt as
ĠÃ ľ
re k
is o
ĠN g
u ch
Ãł nh
Ġg y
ĠG e
Ġï¿½ï¿½ ï¿½
is en
an h
áº£ n
2 6
ĠÊ» O
d r
Ġg et
Ġbil an
id an
Ġ Ô
A P
ev a
Ġk op
Ġq o
y or
Ġy n
r al
ÅĤ a
ĠT ur
Ġd ok
ess o
4 4
Ġa da
am u
ri j
Ġs te
Ġof f
7 5
Ä« t
Ġk oh
.. .
Ġk ep
Ä« bas
u w
Ġs Ã«
2 3
tr ol
Ġv end
et h
ĠÃ¥ r
) .
Ġg od
Ġg es
d el
y ar
la v
ĠS al
ad ing
iz e
á»¯ ng
ĠÏĥ Îµ
Ġg Ã¶
Ġc Äĥ
ÅĻ ÃŃ
Ġj s
Ġng Æ°á»Ŀi
us a
un da
Ġi b
iv er
ur g
Ġb ed
Ì £
Ġo ok
Î¼ ÎŃ
ĠM er
ar o
Ġl in
Ġb ot
Ġ4 6
om i
az ione
k ov
Ġl ike
iy o
ob il
W W
ÅŁ Ä±
Ġad alah
ĠC or
Ġ4 9
Ġk g
ĠÃ®ntÃ¢ l
ic al
Ġl Ã¤
Ġin n
ig t
d Ä±r
Ġv it
z n
Ã± a
d Ä±
er ia
ri o
Ġv Ã¦
Ġl ok
Ã³ d
Ġk Ã«
Î± ÏĤ
ĠS up
ÃŃ v
m m
Ġp ra
Ġd ik
ĠM ay
Ġw an
ĠA M
t y
r in
Ġuch un
Ġg ener
Ġn hi
__ __
ek e
Ġd z
for ma
ĠC ent
Ġk ont
j em
Ġre v
l em
Ġl ik
Ġpl us
n olog
es u
o ut
it or
Ġc am
Ġata u
Î¼ Î¿
ĠM il
Ġm ana
Ġs ay
Ã¼ z
ĠS el
Â µ
at en
Ġsa u
ĠM ed
Ġj est
ĠM ad
Î¬ Î½
Ã Ħ
m al
ir d
Ã¡l l
l ov
Ãł i
Ġn og
Ø ³
Ġpar te
Ð° Ð
áº§ u
ĠT a
m l
ib le
os o
Ġb ij
Ġst ud
Ġg u
id ent
ti es
lo ad
ĠC at
t al
ist en
ĠK on
ay e
Ġju ga
Ġbe h
tion s
Ġd ata
Î¯Î½ Î±Î¹
ik k
uk e
ĠF l
Ġh ore
ar ia
Ġf er
k r
T A
Ġi p
Ġâ Ĩ
ĠP os
ter i
ĠG i
Ġm un
Ã© e
est er
k ur
Ġn t
is Ã«
n ia
ug u
Äĵ j
Ġse u
Ġon s
Ġg ar
y en
Ġt ab
ĠH ome
2 9
Ġne w
Ġd av
ri v
Ġt la
al ia
f o
ĠF ac
Ġz ijn
end er
y an
Ġk t
Ġv Ã¤
Ġb ek
2 8
Ġn ec
Ġnh Æ°
ĠÂ £
Ù ĥ
ch er
ĠÏĥ ÏĦÎ·
ĠT i
Ù Ĥ
Ġs an
ĠiÃ§ in
ch o
is m
g j
ĠÏĢ Î±
od a
ĠS z
Ã¶ s
Ġl ig
Äĥ m
Ġ4 7
ant es
ĠT ra
y le
az i
r on
al u
Ã¢ y
Æ°á»Ľ c
Ġb ud
Ġm ill
Ġal la
ÅĤ o
Ġf ol
he id
Ġgr up
Ġd ob
Ġi h
p et
imul yo
en o
Ġp ort
mi ÅŁ
is ti
Ġj ag
á» £
at ie
ĠUn ivers
Ġh ay
Ġk et
ez i
Ġim port
Ġis ang
l l
ut en
ion s
Ïģ Îµ
al la
Ġv et
Ġk ad
Ġh is
ow s
Î¿ Î»
ĠB el
Ġl ak
ap e
ĠÎ± Î½
Ġap r
f at
Ġp ie
la ck
le x
3 6
t et
ĠÙ Ī
in er
Ġpr im
k or
ib il
uk u
ag ai
ro p
Ġh ier
ĠÎ »
Ġl ag
w er
il ik
ĠP ost
own load
Ġt ag
b el
Ã¼ t
Ġ5 00
Ã¨ s
Ġcom pl
j Äħ
m ar
ad an
Ġand a
Õ µ
Ġ ÉĻ
áºŃ n
a a
Ġn Ã£o
es z
ĠD an
ut ta
t el
á»± c
á»© c
5 5
Ġor g
ĠÄĳ á»Ļ
id as
Ġk ita
in y
á» Ń
T R
Ġv el
Ġer e
ir an
us tr
E K
Ġ200 7
ek tr
Ġng ud
Ġngud imulyo
h u
el ij
o o
Î ķ
at ing
ny ch
f u
Ã± o
ĠD u
ĠA N
Å ©
ĠD er
az a
q ip
ĠP ers
Ã´ i
b ek
Ã½ m
Ö Ħ
ell er
il ar
Ġan y
áº¹ lu
ĠÎµ Î¯Î½Î±Î¹
Ġh otel
ĠJ oh
ob er
im iz
ip a
as an
Ġ5 9
Ġmen y
Ġsk al
Ġpor no
Ġg an
Ġn or
iv o
Ã¡n y
b ol
ĠÅ ł
U M
as ti
ĠJ o
Ġï¿½ï¿½ï¿½ï¿½ ï¿½
it Ãł
2 7
Ġb us
Ġv or
Ġr om
g es
Ġmen j
Ġe ff
Ã¡n ÃŃ
Ġm ore
Ġpo z
I G
ag y
Ġ5 6
Ġ5 4
ĠAl l
Ġdo c
am at
Ïĥ Îµ
ebo ok
Ã ĥ
Õ¥ ÖĢ
Ġm Ã©s
Ïī ÏĤ
Ã© d
ap p
Ġnh á»¯ng
ĠÊ» o
Ġh ak
ĠÎ± Ïħ
Ġb uh
A H
Ġh l
Ì ģ
ĠG u
ang o
at es
Îº Îµ
iy e
ap an
Ġl áº¹
ĠC a
Ġm end
á»ĩ t
Ã¥ n
Õ¡Õ ¯
li y
Ġ... .
n Ã«
Ġd apat
Ġut il
un u
Ġf ar
Ġg re
op p
Ġy er
U T
en cia
iv a
Ä± s
Ġp df
Ġh on
ro v
i an
ÄŁ i
Ġ Ïħ
els er
up a
ÃŃ nh
Ã¡ p
Ġv id
à ²
at ik
in ÉĻ
........ ........
Ġ5 8
Å¾ e
Î¿ Î½
ult ur
Ġv u
ĠS tr
im ent
ĠG al
ĠO b
Ġim p
ĠR om
l Ã¤
ĠR ed
Ġan t
áºŃ t
x x
Ġn ep
ĠS te
Ã³ r
ter n
ĠÄ Į
Ġn ad
Ġh om
ĠÃ ¸
re a
Ġcon st
ĠD is
Î £
cion es
Ġk tor
ÉĻr bay
m it
Ã§ Ãµes
Ġs ar
Ã ľ
Ġk ama
ti ve
Ġb in
Ïģ Î³
Ġ Æı
Ġh av
z eko
ich a
Ã³ s
Ġk ab
Ġcon d
un n
v et
ĠPro d
n ek
Î» Î±
n ic
am m
Ġon t
in al
Ġv Ã¤l
im u
Ġma ar
k il
Î» Îµ
Î» Î·
en c
Ġs aya
Ġg al
et r
Ġprobl em
Ġde v
em o
ĠE ng
á»ģ n
Ġk il
Ġt Ã¶
Ġz o
Ġs ang
Ġm ir
Ġz i
v es
Ġcon ta
ĠA mer
s er
Ġtr ad
ur an
Ġn ing
ĠA f
ÉĻl ÉĻr
ĠL at
l ash
Ġd ol
Ġb le
Ġd un
ai re
b all
Ġn at
Ġk Ã¶
Ġh em
Ġer a
ow er
ĠL o
ĠÄĳ Ã£
ÃŃ ch
g g
Ġol an
O D
Ġse e
Ġ? ?
il y
Ġw al
bi h
in es
ĠT ag
Ġr ad
Ġt ri
Ġ5 3
Ġd ist
Ġon e
ÉĻ si
s en
ĠA S
k ol
Ġ. )
Ġl iv
s Ã¥
Õ¡Õ µ
ation al
7 6
Î½ Î·
Ġed he
IN G
Ġp in
Ġg Ã¼n
O P
w á»į
ĠP ort
it es
Ġt ÉĻ
ud ah
Ġp áº¹lu
Ġd ira
ig en
Ġf Ã¥
Ġe ks
ĠM et
Ù ģ
ar ch
ĠÄĳ á»ĥ
om en
ek in
Ġ4 1
og le
iy at
um an
is er
ur r
Ġh ana
ĠP entru
Ġd re
Ġen s
E G
Ġil ÉĻ
x e
Ġ7 5
el f
Ġpos s
og raf
eb a
Ġs ed
mas Ä±
ĠM art
Ġn orm
e f
q i
ĠN or
Ġg ra
ĠP M
Ġor ang
on te
2 1
Ġl l
Ġl ar
4 8
ĠK u
Ġap p
ĠH ot
Ġpro j
h od
Ġk hi
Ġth u
ĠG re
Ġh ol
in c
ĠE t
Ġl it
el er
ĠL i
ĠÃ Ń
Äĥ ng
ĠÎ Ł
h am
pr ess
ow e
w ar
os p
á»Ŀ i
ĠÃ ģ
á» Į
Ã į
Ġt eg
ĠA pr
ĠO d
Ã ī
e i
Ã¤ tt
Ġdi b
Ġk ek
ub a
ĠÃ¶ n
Ġl at
Ã ĸ
ĠAz ÉĻrbay
Ġt ime
ĠC an
Ġr end
Ġun ha
Ġs ul
Ġde i
ĠT V
Ä± lÄ±
ĠU r
ak at
Ġt est
p g
n is
ĠB en
ok u
Õ ¿
ĠE UR
m ak
ub e
ĠA L
ĠS ie
Ġinter net
Ġth á»ĥ
ĠP al
Ġwa ar
Ġk n
Ġk Ã¶z
m ek
EN T
emb re
ci as
ĠÏĢ Îµ
ĠM i
3 8
Ġdel s
ĠCas ino
Ã¼ s
Ġvo us
as te
Ã ĵ
u es
Ġp ou
Ġl im
ĠS c
ov an
ish t
j al
am in
os ti
Ġ. "
od i
Ã¼r k
ĠØ§ÙĦ Ø
ah r
ok i
ĠB i
Ġna j
ĠV o
Ġt Ã¤
Ġt l
ing er
Ġmat eri
elef on
Ġni et
b in
v in
Ġw er
ĠD ec
Ġb ag
f ik
cion al
Ã¨ n
ĠÕ °
ib i
á»ĳ ng
Ġy ar
ĠS am
Ġl um
Ġm ost
Ġd ah
ĠÏĦ ÏīÎ½
Ġni cht
Ġk ter
á»ĳ i
q a
h or
y w
th er
Ġmer eka
Ġter m
Ġl eng
Ġ5 7
in ter
Ġre aliz
Ä« g
id ades
ment s
I V
an ti
Ġo ur
ud en
ad y
ĠW eb
od y
h al
ĠÎ¸ Î±
ĠAn da
am is
ob a
ĠA fr
Ġcom e
ĠY ou
Ġy an
r im
Ġog sÃ¥
ow i
Ġpr zy
Å« s
ĠN E
Ġf ut
Ġle bih
ã ĥ
is sa
3 9
Å¡ o
Ġma u
Ġ19 8
ev er
áº ©
r Ã¡
ĠC H
im b
Ġa ir
ĠÎ ¬
C H
Ġc amp
I ON
Ġcon f
Õ¡ ÖĢ
Ġp om
¡ Â
Ġfor ma
d ek
ĠÏĦ Î¹
in iz
Ġole h
Äĵ l
Ġw ar
Ġ: )
I P
3 4
it Ã©
ed s
Ä ·
Ġbuh ok
r ar
ĠÃ¼ Ã§
ap o
t ra
Ġt v
en ie
A Y
es sa
Ġf ir
ĠJ ul
áº ½
Ġol d
ĠM or
Ġac tiv
Ġn el
Ġqu al
pl ic
ĠE k
Ġe h
ĠD on
n al
Ġol du
Ġp ul
j ak
Ï Ī
is u
an ta
Æ¡ n
ĠV ol
h ur
ov Ã©
ad er
Ġsy st
es c
em os
Ġsup er
Ä £
Ð ¼
ok e
Ġan n
Ġb este
) ;
Ã ĩ
Â ¬
Ġn atur
Ã¹ ng
b or
Ġl ap
Ġg ore
Ġj ul
Ġs ak
l ay
á» ħ
ad s
ind en
om at
Ġa ug
Ġku i
ar te
Ġw á»įn
á» ı
Ġsz er
Â º
Ġop er
eb ut
z at
Ġt ik
a ch
Ã ¯
Ġf et
Ġan i
h ol
Ġt ers
Ã¸ l
ĠN am
it ate
Ġm ig
ed z
6 5
ĠA ir
Ġ5 2
ÉĻ c
an za
Ġ6 5
ter s
Ġb isa
op e
Ġp ok
z u
Ġs n
Ġso ci
r ist
el u
Ġav ec
Äģ ci
Ġk us
m is
Ġc il
á» ī
Ġc Ã´ng
Ġe u
iy an
ĠÃ© r
Åĳ l
O K
at h
ĠÃ¶ z
ig i
r id
any ak
Ġpr os
Ġk Ãµ
ĠI S
v u
Ġsi ch
Ġk ah
Ġ ãĢ
Ġl ek
et en
Ġb it
ang a
l im
y in
ĠN u
sk i
ut er
ĠM u
ung en
Ġdes c
ci ons
Ġi á¹£áº¹
Ġp ublic
ĠE S
Ġs ie
ĠB ak
ĠP ara
Ġb áº¡n
Î® ÏĤ
Ġt in
Ġ! !!
Ġd Ã©
op o
ĠM us
Ġz d
7 4
Ġst art
Ġq ar
p u
Ġj ou
ie c
ra w
Ġde g
us te
v Ã¤
Õ¸ÖĤÕ ´
Ġl ip
Ġs ah
Ġad min
ĠB ir
Ġu a
Ġen c
I I
Ġd il
un ta
ig o
Ġc ara
ÄĽ t
Ġv ari
ĠL u
á»Ļ i
Ġl and
it an
Ġper o
Ïģ Î·
Î¿Ïħ ÏĤ
Ġp Äģr
Ġre m
t at
ĠÏĦÎ¿ Î½
on om
Ġs itu
O V
Ġi y
ri z
ĠB as
Ïģ Ïī
id s
et u
ĠVide o
ij as
ĠB al
tu re
j at
st en
Ġso cial
ÉĻ z
á»į c
g el
7 9
am es
c tor
in as
ĠO m
ÅĽ Äĩ
Ġn ed
Ä« dz
Ñ ı
Ġe qu
Ã ®
le y
ur es
Ä±n dan
Ġs at
am ba
k á»į
l os
ĠT op
Ġth i
Ġon der
pl o
k ez
Ġorgan iz
6 8
Ġk v
Ã¡ ng
Ġ) ;
ĠÃ µ
Ġs ho
Ġan s
us u
ĠC OM
h in
Ġcom un
ÏĥÎ· ÏĤ
w are
Ġ ~
Ġ9 5
Ġn in
Ġpre d
Ġe ine
f ar
ĠA B
Î¸ Îµ
Ġsh um
Ġn Ãły
Ġn om
Ġin de
Ġk it
Ġex c
Ġm áº¹
rat is
ÃŃ r
li p
ĠM ak
or ld
Ġte ch
ĠC ons
Ġkt Ã³
Ġl ah
ĠP i
ê ŀ
Ġ5 1
Ġtá» «
ĠÅ¼ e
Ġk os
Ġab out
ot h
g al
h d
Ġl an
Ġf ree
Ġl is
ĠF il
Ġda ar
Ġthe ir
ĠD om
Õ¥Õ ¬
Ġz en
Ġ) :
Ġ3 00
ic as
a il
Õ« Õ¶
ĠA ug
ĠTh is
Ġw ana
Ġn Ã¡
ĠG er
Ġpri v
Ġs es
Ġs ind
ĠÃ ³
Ġf und
Ġm Ãł
6 9
Ġau ch
6 4
l is
li j
Ġm ell
Ġ! !
e y
Ġs ite
Ã ĭ
Ġt ing
al Ä±
er y
Å¡an as
as sa
R E
x i
Ġn ou
Ġd im
tic o
ek i
w n
ĠA pp
ĠS il
Ġp es
T E
eg i
Äģ t
d ÉĻn
Ġan o
Ġ200 6
á»ĵ ng
eb er
ab u
z ie
Ġt amb
Ð ´
el ik
Õ« Õ
ta a
Ġb ere
Ġest Ã¡
Ġs w
in da
Ġthe y
Äģk ou
ĠW h
Ġr as
w y
ĠÂ ´
ĠS ol
Ġal g
ĠK os
p an
Ġk ry
ĠÎ´ Î¹Î±
emp re
Ġf re
á»ĳ c
r á»į
Ġst ar
Ġa si
z ione
ĠÃ¼Ã§ Ã¼n
Å¡ t
Ġ( "
og ra
ĠÏĥÏĦÎ· Î½
at ive
it os
Ġiz an
ĠI ng
ĠvÃ¦ re
Ġm os
Ġm ik
ĠE N
iv i
ĠN h
in an
ĠD ep
p at
Ã¡ i
ĠT el
ĠØ ¨
c as
Ġ å
s m
ĠS m
Ġ' ,
j an
ti a
ĠM y
ĠÎ ®
d or
Ġre f
ÈĻ te
ĠB y
Ã¤ ng
ist on
sk ap
ent er
Ġm ang
Ġde b
Ã« ve
end i
h as
Ġp ed
ĠP res
ĠB on
Ġs ka
at Äĥ
Ġor d
Ä ı
Ġz Ã¡
al og
Ġm p
g t
Ġper f
Ġan ti
Ġson o
Ġdi es
ÎŁ Î
Ġl ori
Ġl id
y tt
im ento
re z
L E
Ġ- -
ĠÂ ¿
ad u
Ġp ut
Ġp rac
ĠS P
ĠI r
Ġre p
ĠAr t
Ã¨ re
ĠÅ Ľ
3 2
Ġm am
ĠR ec
Ġh indi
Õ¡ ÖĢÕ
f s
ĠÄĳ áº¿n
Å£ i
ra b
ĠS im
ĠAzÉĻrbay can
ĠI k
ĠB il
om s
ib u
ĠÂ ²
Ġel ektr
ĠK i
Ġsa at
el et
er es
id os
ut at
Ġkep ada
l áº¹
Î¹ Î¬
Ġt ai
h m
Î´ Î¿
Ġv ot
Ġw ork
in Ã«
Ġk em
Ġa Ã§
Ġt et
im al
Ġv en
or r
O C
ma il
Äģ j
ag es
ĠE v
ĠS on
O G
Ê» e
Ġn ang
êŀ Į
Ġp m
n as
Ġk ay
r am
Ġj ust
Ġs is
og a
Ġe p
c ol
Ġp am
Ġp s
Ġl ug
Ġpre z
om m
d et
Ġsist em
Ġar Ä«
áºŃ p
ÅĤ y
ic ia
Ġe ur
Ġd est
Ġd aha
ĠG ro
Ì Ģ
ĠP at
Ġg ia
Ġk Å«
Ġo lar
Ġa ur
Ġk ons
ĠT ak
in ya
og bo
ik t
Ġï¿½ï¿½ï¿½ï¿½ï¿½ï¿½ ï¿½
Ġit s
ĠD it
Ġm ap
Ġpr ost
ĠK an
Ġv ez
Ġt ari
Ġv á»ģ
f el
Ġop p
Ġl oa
Ġett Ã¤
Ã¥ l
es p
Ġsp r
ir s
k al
g b
Å© ng
Ġdi ff
az io
ow o
ĠV e
Ġj y
m eld
ĠÎ± ÏĢÎ¿
Ġaut or
Ġb ers
ĠI B
lig t
ĠAl lah
ÏģÎ¹ Ïĥ
pe cial
ĠlÃł m
iyy ÉĻt
Ġb ra
Ġ15 0
Ġd ell
Ġh eb
Ġb re
Ġk im
Ġre z
Ġor ig
Ġm ass
Ġk um
Ġha u
ir t
x a
v ed
oh l
g ang
Ġo or
x s
Ġd y
ie f
ĠPro f
lÉĻ ri
er ne
ur n
o ti
Äĵ m
o ol
Ġn ost
ĠW ind
ĠÏĦÎ¿Ïħ ÏĤ
ut u
Ãº bl
z ia
ĠJ os
ĠD el
Ġpi Ã¹
ez e
ut h
AN G
Ġp et
Ġal so
Ġst and
un s
Ġk ami
ĠF ree
c is
Ġes s
is ke
Ġl og
I E
Ġkw enye
ic es
Ġit o
en u
alm ente
áº¥ y
hi ch
Ã¶ t
Ġb ad
Ã¢ m
Ġ á»Ł
Ġr ak
im et
Ïĩ Îµ
Ġk ahi
ĠÃ¼ z
Ġpro te
atu re
l ia
Ġm ua
Ä« bu
c ul
Ġ8 5
ĠFac ebook
Ġp ay
ed d
in te
Ġme er
4 9
Ġc áº£
il t
el ig
Ġdat ing
op a
á»ĩ u
Ġprof ess
ĠG l
ĠS en
st ra
Ġs iz
un ci
ell en
Î¹Îº ÏĮ
ã ģ
Ġv l
Äį nÃŃ
ĠS et
ĠV a
ÏĥÎµÎ¹ ÏĤ
Ġar tic
Ġt áº¡i
ĠGo ogle
ab e
ent ar
um at
iy or
ut t
y at
Ġt ash
ĠS E
ing i
, "
Ġs ik
ĠÐ ł
Ġl ist
ĠH et
ad ores
Ġdo or
ĠN et
ÉĻ ri
ow y
is mo
ber g
Ġm l
Ġcom pr
Ġn inu
d s
ig an
c m
Ġb ona
ĠT Ã¼rk
il gan
iv id
ĠS em
u en
Ãº s
Ġk Ã¼l
Ġoh un
ĠG ar
y cz
id ir
ĠC al
ĠA R
st an
m Ä±ÅŁ
Ġg eb
Ġfal se
ativ a
ĠD av
Ġf Ã¸r
ĠpÅĻ ÃŃ
ĠÃ İ
Ġb is
A A
Ġre al
ĠK h
Ãª u
en ia
Ġa ga
Å« t
j uk
ĠS ec
v ad
ĠD ar
Ġs unt
Õ ¨
d d
Ġo ma
Ġr ela
Ġh ai
Ġmak s
Ġd ara
n ost
ard s
Îº Î±
Ġk ok
Ù ī
Ġg eh
Ġc ir
p á»į
ĠÕ §
i em
I B
ĠTr ans
ĠL ib
ĠÂ ³
iz o
áº ±
Ġqu an
ĠP as
Ġ ×
Ġn Ã¥
Ġa di
Ġmas k
ĠF a
h te
Ġs ana
Ġpr om
ung an
Ġb ang
el or
Ġs áº½
ob ile
it Ã¤
Ġs atu
Ġan al
r um
ic os
Î ¤
Ġd á»¥
ĠPor no
Ġm ÉĻ
tu al
Ġg ay
ug h
ĠPos ted
ag er
ip as
Ġ á»Į
am er
Ġu Å¾
m y
à ¤
ici Ã³n
Ġ, âĢĿ
il ia
Ġr en
Ġd id
ĠH al
Ġef ter
ir es
Ġw hich
Ġp Ã¤
it ter
ĠP S
la ÅŁ
nos ti
Ġs ou
ĠÄĳ Ã³
Ġprof es
Ġyo o
Ġgi Ã¡
Ġh ou
ind er
ĠH ol
I n
Ġn ull
and er
m ay
ĠR ev
ĠÎ´ ÎµÎ½
un an
elij k
á»ĥ n
3 7
ri bu
ro om
Ġnh Ãł
Î¸ Î·
Ġk uk
Ġ. -
Ġaqu est
Ġan ak
ĠA D
el is
r ie
Ñ ĭ
ĠP art
ning s
Å¡ u
k k
t Ã©
Ġya ÅŁ
ĠS T
A V
Ġl á»į
ĠV is
g l
ĠK ur
uh an
Ġd h
Ġm ula
Ġ Ñ
ĠS eg
Ġap a
ong o
Ġi á¹£
as jon
Ġshum Ã«
am en
Ġh alam
ud o
ist o
Ġm Ãµ
Ġm ab
ning en
at zen
ib a
Ġt ap
Ġl ing
ĠU l
Ġspe ci
ĠS erv
Ġb ay
Ġb un
I F
Ġh od
Ġma il
ĠK l
le c
Ġfin an
Ã² ng
Ġv agy
Ġdi fer
Ġtel ah
Ġt or
A Z
Ġ6 4
Ġg az
Ġc op
lar ni
Î Ĺ
Ïĥ ÏĦÎµ
ĠÂ §
Ġh t
ov at
ĠÕ ´
ĠM ah
I O
Ġad d
8 5
Ġe con
oc a
Ġp il
ĠC re
in ess
it el
ĠP od
Ġr Ã©
ĠU m
Ġse p
ou g
Ġc os
m á»į
ĠJ ak
n Ä«
e x
Ġ? ??
Ġf oi
u el
f Ã¶r
Ġm ur
Ġs ua
Ä ©
Ġth em
Ġdis c
Ã Ĳ
Ġbe i
z Äħ
Ġc Å©ng
Ġw el
Ãº c
Ġcon tr
Ġp ad
z ar
m on
Ġed il
Ġar g
Ġh ele
Ġc li
Õ¸ÖĤÕ ©
ĠÎ ĵ
lÄ± k
Ġjan Ã«
Ġde f
Ġku f
Ġb ack
v ik
Ïĥ Î±
Ġfr Ã¥n
áº¹ n
Ġj ar
ro id
od o
ĠP D
ĠH y
Ġin forma
Ġ ÙĦ
ĠS port
Ġw ie
Ġg ev
ĀĀĀĀ ĀĀĀĀ
w at
Ġp on
Ø Ń
n at
ĠC u
n Ã½ch
Ġf oto
Ã¡ b
9 5
Ġp em
Ġs ag
w ai
ã Ĥ
Â »
Ġq e
ĠC ap
Ġu pp
lar da
Ġs uc
ĠS ur
Ġt ent
j el
Ġne i
Î½ Îµ
âĢ¦ âĢ¦
Ġp ens
áº «
Ġbe har
Ġb ab
ol g
ĠG od
ĠB lack
Ã² n
Ġh Ãłng
p ap
per ti
Ġc ur
ĠvÃł o
Ġt um
st o
Ã¶ d
ung u
ĠC he
is c
Ġseb agai
Ġam p
l ab
Å¡ ana
ĠÄĳ á»ĭ
Ġres ult
Ġy il
Ġh iyo
Ġn ar
Ġl en
Ġ ill
v ÃŃ
Ð ³
Ãº n
ĠA ss
Ã¦ l
Ġm ong
Ġm ani
Ġtod o
Ġj et
Ġ _
id agi
Ġra p
st and
Ġs um
ĠÃ ĺ
Ġde y
ĠO f
Ġl agi
yd d
u at
x im
Ġun ivers
Ġk ed
l á»į
ĠH D
Ġf ran
ĠB at
ĠÎ Ĺ
Ġnhi á»ģu
Ġd ro
Ġsp ort
Äģ Ê»
Ã¤ s
ÏĦÎ± Î½
ĠU N
6 7
Ã´ n
Ġn ui
Ġqu y
ĠA C
Ġf em
Ġp ili
Äĵ c
et ta
ĠIn st
Ġng hi
p ad
ĠB ur
Ġil i
ĠO ff
q ar
Ġfun ction
Ġpl at
b ir
es se
Åĳ s
Ġrev iew
Ġg ew
Ġb osh
Ä« v
Ġgr an
Ġb os
Ġtr Ãªn
ĠL as
Ġcont ra
Ïģ Ïİ
ec a
ĠM ot
it us
Ġ200 5
ro k
om p
Ġl áº¡i
ĠL eg
Ïģ ÎŃ
Ġk ell
Ã³ g
Ġna ch
ĠS ta
is et
Ġoldu ÄŁ
z k
Ġf ost
il eng
Ġmenj adi
ĠT R
ĠS w
ir k
ciÃ³n s
er ta
Ä« j
Ġ ÉĶ
ost o
it za
op h
ĠNE W
ĠÙ ģ
on der
ip e
Ġvide os
Ġv Å¡
ĠvÃµ i
Ġw hen
re f
Ġmo et
Ġdel le
áº »
Ġd ivers
Ġv ÃŃ
ult ura
ĠF i
Ġup ang
end en
áº· t
Ã¼ y
Ġm ÄĽ
Ġd la
f ica
Ġla in
ĠP et
ÉĻ f
w ay
ÅŁ a
en en
Äĥ n
Ġmed ia
Ġst at
ek u
Ġv z
AN D
Ð° Ð½
ĠS eb
Ġt abi
Ġj ob
Ġh ari
Ġz am
y c
Ġr in
00 00
e ft
Î¯Î± ÏĤ
Ïĩ ÎµÎ¹
Ġng h
em u
ond o
ĠB lu
Î Ŀ
Ġres ta
ia p
ing iz
Ġh art
ĠN Ã«
Ġmom ent
ud io
l k
r Ã«
Ã± os
Ã Ĭ
Ġr um
Ġb az
Ġn un
ĠÎ Ŀ
Ã©r t
tiv o
ÏĨ Î¿
Ê» ole
ĠK as
Ġf Ã¥r
Ġa gr
áº¥ p
ist Ã¤
Ġm ens
Ġt elefon
ak se
Ïĥ Î¹
Ġas p
Ġseg u
ĠÎ¼ ÎŃ
ĠInter net
Ġn Ã³
x o
Ġed o
w s
r il
3 1
Ġ Ö
ĠS ep
Ġinc l
Ġun s
Ġc um
á» «
c ak
ĠF re
Ġsing aw
Ġor i
Ġj pg
ĠD ire
ung s
ĠS l
ir en
Ġters ebut
io us
á ĥ
Ġo v
b ul
Ġg am
ĠP an
Ġs á»ĳ
Ġb anyak
ĠCom p
Ġen er
ĠC amp
Ġpro gr
ĠÄĳ áº§u
j ad
Ġolar ak
Ġf az
Ġa sk
is me
Ġi P
âĢ ľ
id es
ti ge
ĠR us
ĠN y
Ġke h
ĠM ic
Ġj en
P R
ĠG a
ti ma
r er
á» Ĺ
ze a
ĠÏĦÎ¹ ÏĤ
Ġse h
Ä« b
Ġpre v
Ġp ang
P S
oc ia
Ġper i
Ġmin ut
Ġs yn
at ud
Ġy az
ĠM el
Ġla v
Ġn eb
n iri
Ġap ar
ĠØ ¹
ÉĻ dÉĻ
ĠU s
Ġt ay
at ori
Ġ20 00
an an
en as
ch es
Ġb agi
Ġh ulle
op le
Ñ Į
Ġk amp
Ġh id
O W
Õ¡Õ ´
Ġhv or
á»ĩ c
Äĵ ia
ĠU t
Ġs ama
ov i
ek en
ones ia
Ġm emp
Ġsel v
» ¿
Ġprin cip
ĠØ ª
Ġh ang
our s
U D
Î ¡
Ġhalam ang
Ġn j
Ġha q
Ġc ada
Ġo der
Ġla i
w ala
eg u
b ang
Ġb id
Ġ9 8
Ġak tiv
Ġs Ã¼
d ar
Ð ²
Ġsi is
Ġte h
Ġa ff
ind ÉĻn
Ġeg in
u u
Ġke Ã§
w as
em s
k ing
r ad
is che
ĠÎµ Î½
ĠT or
c ed
Ġd op
ĠP ra
Ġkom mer
Ġ> <
Ġs eks
Ġob j
asi h
ÃŃ as
Ġz ap
Ġtod os
Ġs end
Ãł o
Ġvol t
es tiv
l ara
ĠT ar
Ġh un
Ġm obil
Ġn ÄĽ
Ġu w
r t
Ġbi en
Ġs he
Ġr est
P art
ĠR ob
im p
r ik
ĠÃ ļ
Ġh os
Ġmak e
uk i
ĠB us
ch od
Ġsh k
Î¼ Î¬
Ġu y
n ess
Ġmod el
il li
Ġk ra
Ġd ost
s el
Ġap ro
in ar
s ite
ir l
Ġmo Å¼
Ġan che
d ie
áº£ o
k az
em m
Ã Ģ
Ġna ar
S T
áº¿ u
ĠWind ows
Ġm um
Ġab s
Ø ¬
ĠV an
Ġs ent
f ul
ĠÕ ¯
ad em
ĠC am
Ġdes ign
av or
Ä± q
j á»į
Ġk Äĵia
l ic
p as
Ġk j
ap t
Ġn ab
---- ----
Ġfin al
z et
) ,
Ġel ec
ĠW a
á»¥ c
ĠÃ®ntÃ¢l niri
il an
Ġo la
Ã¸ d
d at
Ġj ako
Ãª m
ĠP ublic
b on
Ġus e
ÏĦ Î¯
Ġw ho
Ġ6 9
it ed
Ġk ind
Ġc asa
Ã¢n d
ik at
b ra
ĠP en
Ġk apa
Ġh iki
Ġf ak
u ÅŁ
ie i
r Ã¥
ill er
is ka
Ġb á»ĭ
ol t
Ġm az
Ã¶ g
Ġc ost
ĠS H
Ġind ivid
ĠC ity
Ġs á»±
Ġt av
ĠB iz
ro j
ĠmÃ¡ is
ĠØ £
Ġmed i
Ġk ho
ec k
r or
Ã§ o
el m
Ġs udah
Õ¸ÖĤÕ© Õµ
ĠK am
I Z
ĠE sp
Ġ\ /
Õ ¾
Ġv iz
ĠL A
ri f
lik e
Ġb ro
Å ŀ
y un
Ġch á»ī
ĠM ai
Ø§Ø ª
ta j
Ġf u
ĠJ eg
Ġw hat
ag en
ĠÎŃ Î½Î±
et y
ĠB or
ell es
amp ai
Ġper c
Ġma a
ak in
Ġn Äĥm
O B
Ġti j
Ä± ÄŁ
Ġh um
á»ĭ ch
ĠS M
Ġnh áº¥t
Ġo ther
ĠÕ ¸
o e
Ã¨n cia
sk ie
Ä± b
Ġf at
m ÉĻ
Ã¡ ra
ĠA T
us es
ok at
et ar
Ġh az
ĠB an
Ġh Åį
ĠK al
s l
Ġt eng
ich t
Ê» ia
Ġ8 8
ĠF er
Ġp ob
ĠM ac
ĠF e
ĠF oto
A F
Ġpa ano
ĠB est
Ġin a
ĠÕ ¥
Ãº ng
as Ä±nda
w ah
it ori
Ġt á»įn
Ã³ k
Ġre fer
Ġth ere
ot os
cel ona
ĠO ct
ĠP ag
Ġar r
ing an
ĠG en
ĠRes p
els en
Ġdá»¥ ng
Ġne ed
Ã¼n k
v y
Ġsh qip
ip o
m ÉĻk
it ud
Ġver d
Ġt lh
Ġpr ÃŃ
Ġk le
ĠCh ina
w al
ala u
Ġaut o
Ġwer den
u o
en za
uk t
el as
Î± Ïĥ
ĠÎµ Îº
Î¹Îº Î®
Ġ4 00
Ġhi á»ĩn
Ã »
ĠL os
c c
l ak
Ġnd Ã«r
Ã¡ ri
ut as
ĠM ul
á»ķ i
ust ri
Ġj i
ol ar
is in
ĠT w
ro t
l Ã¡
h old
Ġl le
Ġng Ãły
Ġ12 0
ĠC ont
Ġ æ
ab or
ĠÄĳá»Ļ ng
Ġu 00
ĠÂ ®
ari os
ma q
Ġ6 8
Ê» ana
Ġx u
Ġv ec
ĠEs c
uc a
Ġpro ces
ĠT y
ik ut
eg en
T ER
Ġpro t
ĠÂ ©
ĠM os
U K
Ġsa v
ist as
Ġn r
Ġse perti
us ti
Ġh ah
Ġna a
ĠÃ ¢
ri end
Ġl ui
Ġ Ñģ
Ġv as
Ġb ev
Ã¡n h
ez o
y er
ĠÃ Ĺ
Ø§ ÙĨ
Ġg ol
b es
ĠâĢ º
Ġdet te
Ãªn cia
Ġy ake
Ġp ela
im m
Ġb ill
Ġs ens
Î¿ Î¹
ĠZ e
Ã¢ u
Æ°á»£ ng
Ġp ov
ek et
Ã¸ n
Ġm ov
us ed
Î¼ ÏĮ
Ġl ong
Ġp ele
Ġd Ã¼ÅŁ
á»ħ n
ist an
Î¬ Ïģ
Ã¼ ks
r d
k em
ĠS ant
ĠÎ± Î½Î±
Ġar te
sk Ã©
ĠIn n
Ġhel p
Ġ7 8
ĠE z
ris ti
ara q
f l
áº¯ c
ip s
Ġm asa
Ġbon us
Ġgj ith
Ġde fin
Ġv ida
ur as
Ġson ra
un ya
Ġpre mi
Ġpar as
Ġn od
ĠÃ§ Ä±
Ġsom e
Ġm ie
Ġar be
ici al
ĠÎ¿ Î¹
Ġt Å¡
et sa
Ġ> >
ĠS ek
Ġm ata
ig er
ĠÎµÏĢ Î¹
ĠÃ Ħ
d as
Ġp emb
ad en
Ġht ml
Ġp oc
eg or
ement s
ĠÂ ¹
g io
s at
Ġi Äģ
ĠÂ ±
Ġs empre
Ġp ia
ĠS ing
Ġdi p
ĠÎ ¹
ĠSup er
Ġden ne
7 3
ĠT H
h and
d al
ĠO g
ar ak
ĠHo Ê»
Ġm ÃŃ
ob i
c at
Ġz bek
áº· c
h ir
ĠÂ ½
Ġt Äģ
ic z
is ch
Ġa ch
b ud
Ġv oc
z ak
Ġi acute
iv yo
Ġd uke
r up
ĠY a
Î¹Îº Î¬
Ãº t
Ġï »¿
Ã¤ k
ar be
Ġx e
al Ä±ÅŁ
ĠAfr ika
ĠF in
Ù Ĳ
Ġle v
c zy
á¹£ e
k ap
Ġst or
Ġde ur
Ġp ic
Ġst rat
Ġcas ino
ĠpÅĻ ed
ĠB ol
v Äĵ
ic ion
Ġen erg
Ġ6 6
v ir
ĠP C
g n
Ġv ast
ĠÃ ħ
Ġvi á»ĩc
Ġv Ã¡l
Ġt on
U B
G B
Ġf ig
Ġ200 4
Ġd ownload
un un
Ġbol eh
Ġm ent
ĠÏħ ÏĢ
Ġph áº£i
ĠB ay
ost en
ut an
n it
Ġt at
Ġc in
ĠÎº Î¬
Ġm ont
Ġth Ãłnh
Ġexp eri
Ġth an
Ġal a
ing ga
ĠI f
Ġba ÄŁ
ä ¸
et as
el li
Ġsang at
ĠI A
Ġz aman
b ara
Ġs Ã³
re c
ip p
Ġk art
ny m
Ġtah un
Î¼ ÏĢ
9 8
Ġl ive
om as
Ġra h
Ġe ven
y b
Ġr ic
iti es
7 2
Ġg ba
ĠE L
Ġsh ow
d in
sh me
ĠG ener
ĠL ED
ĠÃ¼ ber
un de
Ġinter es
ĠÎ ¾
w ang
h ad
Ġab y
ĠAn t
5 8
Ġm Ã¡r
Ġe ver
ir il
ĠÃ§ ok
Ġth Ã¬
Ġre qu
Ġpr et
Ġsa j
Äį ÃŃ
m p
Ġse us
Ġh ome
áº± ng
Ġv az
nÃ© ho
pr esa
t an
4 6
ĠIn form
m ed
Ġl ink
Ð° ÑĢ
Ġh á»įc
Ġbe en
Ġseb el
al ik
s ch
Ġm id
iv el
n ou
Ġbak eng
Ġo st
ĠW i
g am
r ak
ĠP la
amb o
U P
Ġp Ãºbl
Ġ/ /
Å¼ y
Ġmum kin
ud z
f un
Ġkon tr
Ã¡ ban
Ġe uro
Æ¡ i
Ġt ud
ĠW at
os sa
Ġm uk
Ġn ow
j ÄĻ
Ð ·
Ġc zy
Õ¸ÖĤ Õ¶
A d
et ti
ĠN eg
m os
Ġh ur
ĠS ar
ĠâĨ Ĵ
Ã¡ sa
Ġb ank
ĠâĢ İ
Ġw il
b it
ul an
ere a
Ġp oh
Ġm me
T C
id ente
Ġh ow
W A
zen ia
ic an
Ã³ p
ta c
ĠR ad
Ġs ont
k as
Ġconst ru
Ġkek ahi
Ġw atu
ak ukan
l Ã¼
ĠG ratis
h ed
Ġar tik
ik ip
ĠH an
ĠH ab
ading in
ie g
en z
Ġai adingin
iv at
Ġn ek
ter e
Ġt art
b re
Ġja ar
at si
Ïĥ ÏĦ
Ġw ere
ĠR E
Ã¶ tt
ĠkÃ« tÃ«
\ "
Ġin sp
kl ad
Ġgb ogbo
Ġm ac
Ġw erk
ĠN A
áº¡ o
Ġan meld
Ġte xt
Ġdes de
ĠV ir
ĠN av
Ã Ĵ
Ġinf o
ĠL is
op er
oh et
Ġj ur
ĠB re
av ad
ic ip
ĠA qu
Ġï ¼
Ġb ok
Å¾ i
Ġd ay
ab o
Ġr ol
d om
d im
Ġp end
ÅĨ u
n t
Ġh ac
ĠJ u
ĠR os
Ġch uy
ĠA y
ĠM ari
ho z
c r
Ġl uc
as y
Ġutil iz
Ġs j
Ã¡ st
Ã¡ j
ÏĦÎ¹Îº ÏĮ
Ġp ast
áº¹ r
at ura
Ġkan Ã«
ĠR am
Ã¸ re
g ra
il áº¹
Ġd or
ĠÐ ¿
Ġam er
Ġtemp o
Ġol m
m Ã«
ĠS ept
** **
ĠD em
r z
Ã ļ
4 2
ĠM ir
ning er
Ġand re
ĠÂ µ
Äĵ s
us an
Å¾ ÃŃ
Ġq ay
al q
Ġo kt
à ¦
Õ¡Õ ¿
n ot
Ġpers o
ĠS ub
Ġg ebru
Ġse v
ĠB ud
ĠU p
ĠO ut
Ġj Ã¤r
Ġresp ons
Ġ9 6
Ġpl ay
ĠÃ Ĳ
Ġf inn
Î» Î¬
Ġs á»į
and i
Ġpr ime
ov Ã½
Ġcon v
ĠD ownload
Ġm á»į
Ġ25 0
ĠApr il
Ġh ul
ĠÐ ¡
Ġpod er
ĠK ol
z z
ĠT u
Ã¡ o
Ġap o
4 3
ort h
ĠK ap
Ġword en
ab b
ĠBar celona
ab ar
um o
x y
Ġis e
c ess
Ġe y
Ġk en
Ã© se
Ġn im
ing o
ver t
Ġl Ä«dz
ĠBl og
ah u
U A
da j
Ġi ki
ĠLat v
Ġp Ã¤Ã¤
Ġne j
ĠI D
li o
Ġk ata
Ġ8 9
á»ĥ m
r om
Ġt ie
Ġel Åĳ
Ġm uh
Äį ky
b urg
E A
Ġl ed
Ġ7 9
ĠÃ§ ox
Ġg ed
un o
âĢ Ķ
il is
Ġv iew
ers te
ĠM A
red it
{ "
Ġku ch
q t
Ġdu te
Ä« ba
Ġn ah
ĠÃ© v
ĠB ea
as on
ĠNEW Part
ĠIB _
Ġper t
ĠâĢ ĭ
Ġz ak
Ġal d
Ġinv esti
ov o
Äģ v
ti va
âĢ Ļ
ĠK or
Ġcl ass
Ġde ze
ar ta
lig e
h one
ĠH or
uj Äħ
Ġl ot
ĠG ra
Ġp Ãµ
ĠL oc
Ġno us
ĠP L
Ġm ange
le p
Õ ½
____ ____
m ark
Ä¼ u
ĠL ond
j ud
ac t
ĠP op
Ġpol ÃŃ
ko a
aliz a
Ġf ind
Ġn Æ°á»Ľc
ĠS om
pa Ã±
Ġk re
Ġf it
Ê» ike
Ġz n
am ine
Ġre k
tr es
ag an
ĠV en
iku wa
Ġve el
Î¼Î± ÏĦÎ±
Ġu b
Ġm ere
Ġmar k
Ġb ene
Ġtot al
ĠS in
ub wa
ĠT im
j or
2 00
Ġqil ish
Ġp le
Ġga an
ĠInd onesia
Ã Ķ
ord an
n ed
Ġm s
d es
ĠD at
el ing
Ġw ir
Ġs ug
ĠC D
ĠC ast
Î»Î¿ Î³
ĠÃ ´
Ġs enti
Ġsyst em
ud u
Ġl ub
Ġgr atu
Å º
Ġmot or
Ġd Ã¼
al de
Ġkw amba
zy st
ti b
ĠÃ ª
Ġ" >
Ġwak ati
áº¯ t
Ġm og
ĠJoh n
ĠÂ ¡Â
eg ori
Ġi den
ÉĻ ti
Î»Î» Î¬
et se
Ġte en
s on
f en
as z
Ġk is
Ġd ra
ĠC i
ĠA P
Ġal tern
b ur
Ġor a
ÙĬ Ø©
ci es
ti fic
Ġt ep
ĠI z
Ġna z
Ã Ĥ
4 7
áº¡ t
ĠÃ§ alÄ±ÅŁ
Ġal k
d ib
ĠW WW
Ġm oh
is on
y y
lig a
ang u
od u
Ġm ant
ĠÃº l
Ġch at
r ess
Ġa ce
ÅĻ e
Ã¶ m
B A
ib li
al er
ĠM un
Ġn ÉĻ
c Ä±
omb re
h ang
ek si
re b
Ġg li
Ġb ig
Ġfac e
Ġno i
Ä±m Ä±z
Ġti áº¿
Ġn Ã¥r
Ġins an
ec ek
ĠN ie
Ġs ot
Ġa ma
ol la
ĠW est
R O
Ġm aka
Ġj am
á»£ p
us o
Ġinter n
á»© ng
Õ¡Õ ½
Ð° ÑĤ
Ġ' '
ĠD as
ĠB et
Ã¥ ng
al en
Ġin to
Ġber b
Ġg ag
ic Äĥ
Ġs ell
ion a
ĠK ir
Ġle het
Ġs olo
Ġh en
ĠF ebru
ur en
Ġba ik
Ġsem ua
z on
Ġs eri
áº© m
ro und
ku u
ĠM w
v or
Ġpro pos
Ġn er
ro b
Ġkan n
ĠÏĮ ÏĦÎ¹
ÎŃ Ïģ
Ġz ar
tor i
ĠC ON
g at
um Äģ
ĠH and
Ġk Ã¶n
Ġob s
ĠÏĥ Î±ÏĤ
Ġsec ara
Ġm k
ung e
it se
Ġ8 7
ĠÎµ Î¯
ÈĽ ii
al th
ĠD ur
Ġd ou
Ġk uko
y al
Ġim m
ev o
Î¼ Î·
un to
Ġk ali
ĠJ es
et es
Ġy et
Ã¤ v
ion ale
Ġk ish
el es
as c
er b
Äį ka
d ur
Ġw ai
Îº Î¿
ĠG es
Õ¶ Õ¥ÖĢ
Ø§ Ø±
Îº ÏĮ
Ġl ine
Ġs áº£n
Ġbat ho
und o
ĠÂ» .
Ġb and
ĠM it
Ġz ab
ĠÂ£ Â¬
Ġsz Ã¡m
Ã¶ y
Ġkom un
ĠC C
Ġk ak
ol s
ĠC er
ĠF o
ÏĢ Î±
ÏĦÎµ ÏĤ
ĠH i
ĠØ§ÙĦ Ùħ
S t
Ġs Ãµ
ĠS and
el n
oj nÃ«
o ft
ĠA li
or an
ÏĦÎ¹Îº Î®
Ġku j
lar ini
Ġh j
Ġau x
Ġk val
ĠW A
Ã¡l nÃŃ
Ù Ĵ
Ã³ m
ĠM ont
Äį i
ĠV ar
v ent
is ia
ic io
al le
Ġf oll
z em
áº¥ n
h y
ta in
j Äģ
j Ãº
ang g
Ġ200 3
un ÈĽ
á»Ļ c
Ġi di
Ġnec ess
ĠB es
ĠPar k
Ġt Ã´i
Ïĥ Î¿
ĠMa x
Ġg Ã¼
ĠSt ar
ob o
Ġet c
ik ali
Ġch ÃŃnh
áº« n
Ð ±
ov ern
ÅĨ a
t te
Ġwo uld
Ġc it
ÄĻ d
Ġk in
ĠSh qip
Ġ9 7
Ġon a
Ġm ult
á¹ ¢
Î» ÎŃ
un y
S A
Ġh igh
ug e
ro u
ĠT re
ĠE uro
Ġt w
Õ ´
ĠÂ ¼
Ġn ebo
T I
d h
Ġt Ãµ
in st
Ġfir st
Ã¡ rio
Ġb ude
ĠV ers
Ġcon trol
Ġm ash
anz ania
E O
ic ar
Ġf akt
ĠÊ» a
Ġv ya
ĠS ab
ot en
Ġspe cial
et ik
Åĳ k
Ġgo od
Ġnh Ã¢n
pl ay
Ġpe ople
Ã¤ Ã¤r
Ġber k
ĠS A
ĠA h
Ġa jo
end ele
Ġan os
Ġl ast
Ġg ad
ir os
ĠF ilm
ĠW o
Ġto ut
tu ar
ĠPl us
Ġse pt
d ig
Ġâ Ħ
ĠNew s
Ġf an
ĠK Äį
Ġs iy
ĠM ol
ag u
Å¡ ie
Ġol un
Ġserv ice
Ġc and
l ang
m ir
ÃŃ d
aw ai
Ġh á»£p
Ġel e
Ġb ase
Ġver y
Ġm art
d ay
ard o
et so
Ã Ī
Ġt ad
ĠEurop e
Ġf avor
r s
Ġf ull
alar Ä±
on n
g ed
ia ÅĤ
ĠÎ¤ Î¿
ec to
Ġ( '
ĠUS A
il iki
Ġh ii
Ġt ec
ov en
Ã¼ d
ĠhoÊ» ok
ist rat
ah l
si es
ot ta
ĠMar ia
Ġte x
Ġro ku
Ġ< /
Ġd am
ac ji
ri an
L A
tir ish
ft ware
Ġcas o
Ġ ÉĻs
ind o
Ġd ass
Ġk ort
ĠTe ch
Ġun i
Ġ7 6
Ġb Ã¥
lÄ± q
ĠD ia
b ed
ÏĦÎ± ÏĤ
is an
tic as
el k
Ġm Äģ
Ġb Ã«
ĠT ot
ĠD ig
ul es
E B
Ġn ya
ing a
Ġv eg
Ġpor n
ĠÕ ¶
Ġh anya
Ġde z
Ġ á¹¢
ang kan
Ġs ad
D A
ĠY A
il di
ar kan
li f
Ġv ra
4 1
Ġv ad
ĠVi á»ĩt
Ġper m
ĠI P
Ġev ent
mo q
ip ada
Ġca o
ĠBa ÅŁ
Ġprz ez
Ġp ono
Ġph p
ĠCon c
Ġf og
Æ° a
Ġtr at
âĢ ĭ
Ġan im
en ci
em at
ĠB ah
Ġ, ,
Ġbl ir
Ġe di
Ġkom mun
ĠH on
ĠPl ay
Ġ8 6
ne y
ĠRe al
od en
ĠE g
Ġkom p
Ġ Äģ
Ð½ Ð¸
Ġy i
Ġresta ur
Ġinte gr
Ġp ier
Ġaut om
ok ing
al y
Ġh ÉĻr
Ġsin h
Ġfam ili
Ã³ b
em en
Ġw ant
Ġinform ation
ĠQ ue
ĠE ur
T S
n ud
Ġto im
Ġis hl
ik ka
ĠAug ust
Ġp ubl
Ġ, -
Ġfun k
ang er
Ġvot re
Ġt ub
Ġ6 00
or ang
ac y
Ġesc ort
Ġku h
Ġwe ek
Ġb ai
Ġal b
ĠE U
ĠT an
Î» Î®
ĠÄĳá»ĭ nh
Ġmen c
ÏĦÎ¹Îº Î¬
Ġm Ã´
Ä±n Ä±z
Ã¡l y
Ġp ow
ĠC e
Õ¡Õ ¾
Ã¼ h
Ġkar ena
Ġh elt
Ġt we
Ġt Ã©
Î ļ
ĠCh ar
Ġpod e
Ġp ublik
Ġf ant
ed y
ĠS ams
Ġmu ch
Ġd itu
Ġes pecial
ph one
Å¡t ÄĽ
Ġh Æ¡n
ĠÏĢ Î¿Î»
Ġf ik
is ion
Ġn ur
ri es
Ġt Ã¶r
ĠS K
ĠEs te
Ġcont in
Ġ19 0
r ing
áº£ ng
Ġsa id
Ġm 2
Ġhe eft
Ñ Ī
Ġ\ "
Ġt ema
Ġj uh
Ġt ir
s al
Ġon ly
l ie
C I
ĠKos ov
5 9
ĠZ a
Ġf rem
Ġmy Ã¶s
us to
emb ro
Ġd ot
Ġs un
Ġf ill
= =
Ġweb site
ĠsÃº a
Îµ ÏĦÎ±Î¹
Î´ Î±
Ġw id
ĠSt re
Ġcom m
Ġle b
ĠP u
ash k
Ġkom pl
Ġthe o
Ġr un
ĠÂ ¸
wa Äĩ
Ġh ard
ko z
Ġar m
Ġsel ec
g on
Ġre pres
ob al
ĠÎ¼ Î¹Î±
Ġd od
dz ie
t os
N E
Ġal gun
v as
ig b
v ez
Ġd Ã©c
Ġ3 D
Ġpres ent
Ġ: :
f an
ĠN r
Ġd ic
S I
ĠT ek
er m
ĠÎµ Î¾
ĠPro gram
Ġw ell
ĠP ak
Ġpolit ik
v r
j ÃŃ
oj u
ĠL et
ĠÎ Ĵ
no ÅĽci
ĠP lan
ust om
ĠÄ «
?? ??
Ġde d
Ġv ill
Ġdis p
Ġnghi á»ĩ
Ġm Ã¬nh
Ä±s Ä±
it Äĥ
Ġv in
Ġi j
Ġgebru ik
ÏĦÎ¹Îº ÎŃÏĤ
Ġn Ã¤r
Ġf Ã¸l
ĠP ri
Ġs ti
M A
sk Ã¡
z el
ar on
Ġmar ket
Ã© es
ÄŁ er
ĠC hi
ta b
Ù ı
Ġcons ider
ĠÃ £
h us
Ġw on
Ġgr and
Ä¼ a
Ġnec es
Ġkul lan
Ġdoc ument
ĠâĢ ļ
Ġf irm
or en
ros s
ĠÏĢÏģÎ¿ Ïĥ
g ende
ia u
ĠB ro
Ġ ^
Ġy ak
lig i
lar dan
ĠAnd roid
l ass
di en
er c
ĠÎ Ļ
ÏĦÎ¿ ÏĤ
ĠInter n
ar es
Ġloc al
ro f
Ġal i
ĠT om
Ġcs ak
at r
ĠN d
ĠB ank
Ġt x
Ñģ ÑĤ
Ġ7 7
Ġ7 2
Ïģ Î®
Ê» u
Ġn Ã©
ĠÎĶ E
ĠNov ember
Ġh Ã¸
on u
ji em
ĠD ev
Î¿Ïħ Î¼Îµ
Ġn ipa
Ġm est
Ġs ok
ĠO ne
Ġh ap
ou p
l ama
Ġw ird
at os
ĠÃ© l
ĠCh rist
or te
Ġdis pon
ĠS v
ĠII I
Ġma in
Ġqu a
Ġt j
Ġjs em
Ġ8 2
ĠÐ ²
Ġale bo
Ġdib dib
Ġw ake
um ia
ĠH am
Ġtr as
Ġv s
ĠL in
5 6
zen ie
Ġzbek iston
ĠÄĳ á»ĵng
Â ª
ĠEurop a
Ġm Ã¶
Ġz um
Ġno te
Ġbar u
Ġm and
ĠT ab
Ġs Ã¶
at Ã«
Ġa x
K A
á»ĳ t
Ä± ÄŁÄ±
ĠE in
áº ¸
ÏĦ ÎŃ
ĠC el
Ñ ĩ
ĠM ur
ĠN ap
ĠD I
Ġr am
Ġvi en
1 00
Ġcom ent
H A
Ġ8 3
Ġinde x
Ġa in
ĠÂ» ,
á»¯ a
Ġu00 3
Ġl ie
R A
Ġk ez
Ġecon om
ĠT am
ĠN on
l iv
Ġg as
ĠSept ember
Ġsist ema
az ioni
S E
ĠM es
Ġn je
ĠP eng
Õ¥ ÖĢÕ
Ġy Ä±l
Ġim pl
Ġper Ã²
ĠÔ ±
Ġt sh
tic k
Ġn á»į
ĠF ar
Ġy eni
Å¾ d
Ġ100 0
Ġ6 7
n am
Ġha ar
I d
Ġm g
Ġ. [
al ak
Ġp ur
Ġf ung
q at
ĠK er
Ġn ik
Ġm ok
Ġe urop
Ġ6 3
ĠhoÊ» oh
ĠÏĥ ÏĦÎ±
Ġy in
Ġh il
yst em
ĠU k
Ġle o
ĠA us
Äĥ ri
f ort
ĠIn c
ill Ã¤
Ġkn ow
ĠÃ Ģ
s ka
Ã³ t
Ã¤l l
Ġd iz
au x
C C
Ġp elo
ow ych
ĠÙ Ĭ
ens ion
Ġk li
Ġty re
Ã ı
ri ve
ES T
Ġt ÉĻr
Ġor az
ĠÃ ĵ
á»ĵ i
ĠÐ º
ĠL and
Ġperson al
Ġ8 4
Ġy ol
Ġza idi
ih an
Ġl iter
qu er
s c
at as
Ġgo ed
unÈĽ uri
Ġc Ã²n
Ġinv est
il ÉĻr
Ã¡ ci
ets eng
ĠC ha
on ia
ĠP ok
as yon
Ġha o
Ġï¿½ï¿½ï¿½ï¿½ï¿½ï¿½ï¿½ï¿½ ï¿½ï¿½
Ø ·
Æ Ĵ
uc k
Ġl ov
ĠP Ã«r
ĠU na
Ġa iz
Ġ8 00
ĠProd uc
ĠW ar
Ġe inen
Äģl Äģ
Ã© ri
Ġv ara
Ġm á»Ľi
f ol
Ġm ic
Ġed ir
ãĢ Ĳ
oug h
Ġos ob
m el
larÄ±n Ä±
E Z
ara f
Ġpar tic
ĠPers on
Ġac est
Ġq ur
ĠØ Į
ul la
á»ĳ n
Ã© ben
Ġex tra
ĠB ras
ĠãĢ ĳ
z an
d iy
z es
uks en
Ġv Ã¦r
Ġp olo
or de
Ġv os
Ġm int
N G
Ġm ÉĻn
Ġz v
ich e
Ġm ek
ĠJan uar
Ġn aman
Ġul ar
Ã ħ
Ġ Ã¡l
it te
Ġn ame
Ġn Ãªn
Ġsa ÄŁ
á»ĥ u
ĠI T
ch ten
Ġs á»Ń
Ġmund o
Ġab er
Ġpla ce
Ġd v
ÅŁ i
Ġn ÉĽ
Ġh ere
Ġm Ã©g
Ġg ame
Ġo vat
pl y
Ïį Î½
Å¯ j
y la
eber apa
Æ°á» Ł
estiv al
Ġek onom
Ġd á»±
for d
f ter
Ġmod if
Ġr at
j nÃ«
Ġde k
Ġzu en
Ġdu het
Ġc Ã¡ch
Ġk ans
Ġj Ã¡
Ġop en
is ed
ĠS he
ĠB ab
y ang
st s
ĠB ra
ar in
Ä± lan
ĠO k
Ð ¹
ÉĻs indÉĻ
ĠH u
ĠE usk
ÄĽ l
ar ing
Ġpop ul
Ø µ
Ġb em
Ġcel eb
Ġpr is
Ġin tr
Ã«n d
Ġth áº¿
ĠH el
Ġro b
Ġ6 2
ĠC r
ĠG ol
Ø ´
ĠV ic
Ä« gi
Ġj el
al ing
ti mo
Ġ11 0
t ak
us ia
Ġh Ã¤r
d am
Ġiz m
Ġish te
Ġsh p
Ġc Æ¡
il en
ĠOr gan
k ou
Ġvo i
ul ta
Ġn ako
AR A
i el
Ä± yor
Ġty pe
Ġge Ã§
Ġn es
Ã«n Ã«
ÃŃt Ã¡s
ĠÎºÎ± ÏĦÎ±
Ġm iss
Ġgr ande
Ġ( )
6 2
em ente
Ġinst itu
Ġar v
Ġpen y
Ġfor t
Ġa acute
w ie
oj Ã«
Ġorgan is
Ġjs ou
Ġmo Å¾
ĠJ esu
ĠÂ ¶
il ir
Ġpro jek
Ġc ab
Ġh ud
................ ................
Ġet sa
Ġr áº¥t
Ġye ar
ĠL iv
Ġse o
Ġag o
Î ł
Ġl y
Ġfor sk
Î³ Î¿
ang k
Ġsp ot
ĠS y
Ġl Ãµ
ĠF orm
ÄŁ a
Ġproc ess
ĠE le
Ġe o
Ã¦ k
up un
c om
it iv
B N
ov Ã¡nÃŃ
ĠB ut
Ä¾ a
r ic
ĠL E
lÉĻr in
as un
Ġker ak
ik si
ur ile
Ġv ah
Ġc ad
Ġy g
áº¹r áº¹
art o
Ġkut oka
6 3
ĠBon us
Ġc y
Å¾ it
Õ¡Õ¯ Õ¡Õ¶
Æ°á»Ł ng
ĠE esti
Ð¾Ð ²
Ġth á»Ŀi
Ġmul ti
ĠS lov
Ġs ort
Ġmol t
Ġk imi
Ġv Ã¤r
Ġpor que
Ġm are
ÏĮ ÏĦÎµ
ĠN ord
Ġp are
Ġa st
á» ¹
Ġth Ã´ng
ĠG R
Ġb ila
Õ ¯
ĠHot els
p end
lar ga
Ġs op
ÃŃ z
ĠÏĢ Î¿
Ġk ush
ĠS tor
l og
Ġcol or
is chen
k us
Ġge en
ikip edia
Ġk ot
c ut
m Ã©ny
Ġ ç
ĠMad rid
az o
Ġr iv
Ġof fer
it ta
áº¡ nh
Ġle i
Ġf eb
Ġh Ã¬nh
ĠA le
Ġ200 2
ica ciÃ³n
ĠI d
or u
Î± Î»
el ang
ul as
Ġn ok
Ïĥ ÏĦÎ·
Ġe e
ĠJ ag
Ġh us
Ġd ate
q s
ag ement
am ing
ĠO t
l ish
t Ä±r
Ġtr Æ°á»Ŀng
Ã ķ
el Åĳ
c ter
teri or
Ġth á»±c
n ego
ĠH ist
AR I
ĠT rip
Ġdur ante
ĠAl b
ĠT s
ch u
ss Ã¤
ec te
Ġf um
ĠA lex
Ġt ym
ig ur
ĠF am
larÄ±n Ä±n
Ġth ro
Ġe b
Ġk y
Ãº p
Ġol la
Ġk und
Ġx a
sk Ã½
Ġal c
ap os
up akan
Ġgro ot
Ġy oki
Ġ? âĢĿ
om et
Ġpre c
ĠIs lam
Å¡an u
Ã¡ va
f uta
v Ã¤n
ĠÏĥÏħ Î½
un ga
ĠP ed
Ġ. :
Ġsex o
Ġg Ã¥r
ĠJ ac
id enti
ba ar
Ġword t
sz er
Ġdis pos
S S
Ġg aran
Ġl Ã¸
T M
ut ako
Ġg uz
Ġmod ern
v ia
Ġos s
ah o
en Ã©
av i
Ġd zi
ĠC R
ÏĮ Î½
Ġet ter
ĠÕ «
ĠM P
v id
ĠResp ublik
ÉĻy ÉĻ
Ã© ly
Ġvoc Ãª
Ġprod u
ri pt
Ġya x
Ġm utta
Ġ Ã¡ll
Ġz ÅĤ
ÅĤ ad
ĠK wa
ha u
ep e
Ġtra v
ĠPh il
Ġm ali
Ġal um
ĠT anzania
Ġz ur
em in
Ġo tr
f ici
eca use
ĠF ra
eng o
Ġm Äģkou
G A
Ġest ar
ir as
inÄģ t
Ġg Ã¶z
ĠH om
Ġs Äħ
Ġk esk
ĠÎ¼ Î±
n om
Ġfam il
ar b
ra p
ung kin
Ġn ye
h im
g ot
Ġd iri
ĠK it
ĠG j
w ana
n ah
one y
is ema
Ġ7 4
Ġa os
Ġst re
Ġod p
Õ¥ Õ¶
ĠUS D
Ã Ĩ
ab at
Ġs ir
Ġpa ÃŃs
Ì£ n
as k
ĠN Äģ
ate ur
eg y
Ġd ru
Ġt og
Î³ ÏģÎ±
ĠÄĳi á»ģu
Ġo z
Ġc ul
ĠK im
Ġf ok
m ente
ih in
az Äĥ
Ġd Ã¶n
ĠA ustr
ant u
ĠIt alia
Î¼ Î²
8 9
u q
Ġ9 4
ak it
ĠÐ ¾
tr y
Ġsa ja
Ġv ic
ra y
5 4
ÏĢÎ¿ Î¹
Ã« z
ĠPD F
ĠA F
r ig
ĠÃ Ķ
Ġk Ã¶r
ch ine
ĠÊ» ia
Ġhot ell
5 3
al ari
Äĵ ja
w ak
ĠH igh
ĠCl ub
ist es
Î¬ Î»
Ġye ars
st yr
Ġs ter
Ġno ch
g in
Ïģ ÎµÎ¯
Ġtr es
Ġad res
Ġka zi
z Åĳ
Ġba o
Ġ18 0
ĠPa ul
Ġhar ga
ogra ph
Ġse va
Ġcont ent
ĠAr ch
ill o
g eb
Ġf ond
p is
Ð» Ð¸
Ġp us
Ġg ibi
Ġqu esto
Ã« l
Ã§ Ä±
Ã¶v l
ĠCh at
ika Ê»i
el ek
ord in
ĠPar is
Ġp ati
Ġtim bang
ing e
c os
p es
in os
ho a
ova Å¥
ĠF un
ĠM ore
ast ur
ist ra
ĠB R
ĠÃ ¦
ĠgÃ¶r ÉĻ
Ġdes en
ek er
it ur
Ġur te
Î´ Î¹Î±
ite it
ĠV il
Ġal ler
ĠH ow
eng e
Ġk od
Ġpre j
ĠA K
Ã¼l t
es ha
Ġa ast
Ġl gan
k am
ĠÎ±Ïħ ÏĦÏĮ
N A
lar ning
s ti
T O
Q U
Ġsu ur
Ġmer c
Äį as
ĠA j
ĠM eg
an u
Ä« m
Ġaf ter
Ġpag e
ĠW orld
Ġl Ã¤h
Ã³ ÅĤ
Ġproj ekt
Ã¦ g
ĠI g
Ġse Ã§
s Ã©g
Î· Î½
ĠM ik
tig t
ni re
ch ini
Ġac tu
Ġv ik
nÃŃ ch
Ġsam t
ĠiP hone
ĠÃ į
Ġi c
ĠSams ung
Ġs Ã¸
Ã ĺ
Ġw ay
Ġs id
iv il
ĠÎ¼ Î±ÏĤ
ĠK ab
ĠB rit
Ġmo ja
Ġb og
x ico
up e
re v
Ġmo o
isi Ã³n
IN E
or um
Îµ Ïģ
Ġj in
Ġ: -
Î Ľ
Ġw ind
Ġk rit
Ġ ÅĻ
Ġo wo
Ġlak ini
ĠAn unÈĽuri
ĠÎ ¶
Ġat as
et ako
Î¹ Î½
Ã¡ si
Ġá¹£ i
ri ver
ĠR od
n Äħ
ent al
Ġbo ok
tic os
Ġk end
is se
Ġel ement
ki em
n ut
C D
Ġmateri al
r un
Ġba ie
Ġz ona
Ġfr am
ob e
Ġs Ã¶z
ter a
Ġt lo
n ica
ĠMart in
sh ir
ĠÏĥ ÏĦÎ¹
k ie
w erk
Ġh ref
ĠN em
ĠJ un
Ġex pl
ĠN ot
ĠS at
Ġm Ãª
ĠCat al
is esti
Ġdire ctor
Ġpag gam
Ġmed ic
Ġb lack
ec tor
Ġin im
C E
Ã§ i
Ġtrans port
en si
Ġ8 1
Ġle h
Î± Ïģ
ĠÃ ĥ
Ġmu y
Ġc oa
Ġ$ (
Ġde ix
ze j
ib er
ĠO h
Ġein er
for e
Ġun o
Ġak i
te a
Ġtit le
ick Ã©
Ã¼l et
l ut
Ġdo ÄŁ
ÏģÎ¹ Î¿
Ġs asa
ĠAd min
Ġtel ev
Ð ¿
Ġ7 3
Ġkl ub
Ġparti ci
mu ÅŁ
ĠD ani
ĠL ab
ĠP ap
ate a
r g
Ġhier die
âĢ¦ ]
ĠL uc
er te
id ay
Ġmu ut
Ġba ada
bo x
Ġhar us
7 1
ass en
ad igan
Ġni i
Ġl itt
w eza
Ġma ak
p la
ĠÏĢÎ± ÏģÎ±
Ġb Ã©
Ġs Ã¤
sk o
ĠÄ ĵ
Ġwe er
Ä« s
ay ot
Ġg ang
em as
m s
ĠCa ut
Ã¼ ck
ĠY ork
Ġbr and
Ġv iv
op s
Ġb od
ĠÎ¼ ÏĢÎ¿
Ġever y
Ġ9 2
ĠR i
áº¡ ng
Ñ ħ
up an
Ġh ivyo
Ã¢ t
ĠK un
b ild
ros oft
ativ o
ell Ã¤
Ġb ukan
ed o
Ġi we
Ġk eb
Ġka ik
Ġk ik
Ġand er
st Ã¤
ug o
ĠSan ta
Ã¼t Ã¼n
Ġc all
het er
Ġ[ âĢ¦]
Ġp it
v end
ĠbÃ¥ de
Å¡an Äģs
iy et
Ġtemp er
ac ÃŃ
Ġlab or
ĠMod imo
AN A
Ġig b
Ġt wo
ĠEs pa
k im
Ġlug ar
j ut
Ġm ember
Ġ6 1
Ġp uh
ĠS pe
Ã¡l is
ĠÂ ¾
Ġcont inu
Ġb eberapa
Ġl ÃŃ
Ġf ly
Ġg ÉĻl
ĠT al
ipas áº¹
Ġn ez
as zt
Ġz iren
ĠktÃ³ re
ro z
Ġdo en
Â £
ĠI M
Ġan h
Ġp ub
Ġv ak
ĠS eks
eg e
vis or
Ġt ok
D R
k un
ĠH awai
n em
Ã© re
ol it
Ġf ont
ia h
ĠU a
ĠN O
Ã ĳ
Ġz w
ĠGal icia
ul os
Ġmes mo
Ġmemb uat
uss en
m b
Ġvi Ãªn
l al
ĠA G
n k
Ġs eda
Ġz m
t il
Ġv Ã¥r
Îµ Ïħ
Ġx xx
Ġc áº¥p
ent ro
ĠL ev
Ã© si
Ġl Ã½
Ġs ett
ĠP ot
Ġn ella
ĠK A
ĠE gy
og u
Ġv Ã¤h
Ġar k
ĠãĢĳ ãĢĲ
ti me
ad ora
z in
ays ia
Ġman y
Ã¶vl ÉĻt
Ġein em
ĠF Ã¶r
ad Ä±r
Ġmind en
Ġber t
5 2
Ġl un
Ġc our
Ġproduc t
Ġka u
ot er
ov ed
und an
ĠðŁ ĺ
Ġanmeld elser
ÎµÎ¹ ÏĤ
Ġf on
ĠÃ Ī
ĠDav id
Ġprogr ama
Ġk ec
um us
Ġ200 1
ĠÃ Ĭ
Ġo tt
ag s
Ġto e
6 1
Ġartic le
ĠÃİ n
j est
) )
ĠIn f
Ġproc ed
Ġmu jer
Ġpa a
j Ã¤
Ġk ila
Ġp Å«
Ġkh Ã¡ch
Ġl am
Ġa ang
Ġs ap
Ġmer upakan
ĠÃ ½
Ġle ver
Ġb Ã¶l
Ġd ÃŃa
Ð ł
ĠÃ¶ ss
Ġsit ua
ĠB ed
Ġil k
Ġm asih
Ġpr ima
he z
Ġg est
lam ent
ĠMar ch
it ats
d em
ĠI h
Ġ| |
ĠG az
Ġz in
rim oni
ĠY e
ĠPre mi
Ġbu y
ol at
ot te
b eg
Ġwat er
Ã¡ le
Ġp Äĵc
ĠTag s
Ġn ipasáº¹
ba o
Ġl ic
d ate
ĠÐ ½
Ġchi q
ĠM uh
Ġe mail
ĠL eb
Ġex ist
Ġma x
Ġje ho
S h
Ø§ Ùħ
rip tion
Ġ] .
Ġhist or
Ġh ori
in ci
Ġsol u
n an
ĠO R
Ġk Ã©p
ĠPre z
Ê» ai
Ġn en
ĠP ER
Ġj ika
ĠÐ ¸
Ġk Ã«r
ov al
Ġparti cip
ol as
iz z
oh le
Ġâ ĺ
Ġá»į má»į
Ġch ar
Ġconta ct
Õ¡ Öģ
ĠB B
at ia
Ġb ard
ĠÃ Ĵ
Ġex t
á»į ng
Ġc ui
Ġg ut
Ġv ys
Ġv á»¥
X X
k ak
Äģ ka
id u
Ġmem iliki
Ġd á»į
Ġem pres
Ġst ore
j ang
Ġf iz
ĠR as
Ġï¿½ï¿½ï¿½ï¿½ï¿½ï¿½ï¿½ï¿½ ï¿½
g il
ĠM B
Ġc Ã¹ng
Ġw eng
Ġb ola
ĠJ er
ĠT il
ĠÄį i
Ġr r
amo ja
ler in
Ġt ua
Ġj Äģ
ĠAl le
ĠJ une
Ġt ant
Ġr ang
Ġ7 1
ĠT as
Ġfor s
p ert
Ġj oka
ÄĻ p
ny t
Ġa Å¾
so ci
Ġpar tir
Ġd ago
Ġme hr
ard en
Ġv es
ĠY ang
iz m
ig ba
l ÉĻn
Ã¦ s
Ġpag pap
Îµ Î»
Ġsk ulle
ĠA ra
Ã İ
Ġ9 3
Ġsend iri
Ġj our
Ġph áº©m
Ġsig ni
ĠC um
ĠB and
Å¼ e
ru z
ay Ä±
ĠU z
ĠÎ ¦
Ġiz ango
Ã©n t
D E
Ġam bi
Ġsel le
ĠâĨ ĳ
Ġh ip
s zyst
5 7
Ġc uk
ess Ã¤
er de
ĠAr g
ĠN at
Ġta o
ul is
ut y
im an
Ġtr ue
ĠD in
Ġs Ã£o
Ġi be
ĠÂ ¡
Ġa á¹£
v il
Ġl ay
ĠK ung
u ur
ti da
con tr
Ġble v
Ġpr est
T V
Ġus h
ĠÙħ ÙĨ
ÙĬ ÙĨ
is z
Ġn Ã¦r
Ġb li
Ä±m Ä±
ar ang
um mer
ep a
Ġth ese
Ġem p
Ġv ig
ĠSe e
Ġku in
Ġrum ah
ĠT ri
est ra
ĠÕ ¿
Ġj um
Ġl ove
Ġb uk
Ġs lu
Ġg em
Ġnatur al
ir ma
Ġtr Ã¬nh
ning ar
n Ãº
h el
an se
Ã© st
Ġj as
ĠR u
unt za
ĠC O
om ba
Ãº l
Ġg Ã¥
Äģci jas
Ġkad ar
Ġv ur
ĠE R
ĠO N
Ġk ost
ĠDes ign
ĠnhÆ° ng
Ġhu o
ĠM ich
ow ie
Ġk lar
m az
Ïį ÏĦÎµ
ĠJe ho
Ġbes ar
Ġr os
Ġfl ere
ne h
im at
g s
Ġn il
h s
Ġmom ento
ĠC L
ĠÐ ±
Ø ²
et Åĳ
ĠG b
z ik
k ara
id ing
ĠB ad
Ġelec tr
Ġk ona
Ġv ac
Ġn ut
Å« k
Ġcom mun
Ġr us
Ġse in
f il
Ġa ix
ĠH ier
Î³ Îº
áº¥ u
eb e
Ã¡ Å¡
r ada
ĠÎ §
ĠI V
ĠÐ ¼
Ġb ecause
Ġh op
ĠÅ¡ t
Ġn iya
Ġng o
Ġl Äģkou
Ġpa u
Ġpers ona
ys z
or ta
p li
Ġnorm al
Ġl Ãªn
olog ia
Ġdire c
Ġi ba
ĠnÃ³ i
r Ãł
ĠhoÊ» ol
ĠT emp
Ġe usk
Ġkh Ã¡c
Ġ. +
Ġs ia
Ġelektr on
Ġt anto
Ð¾ ÑĢ
het en
ĠM AR
ĠC op
ĠP Ã¥
ĠIn t
Ġbu at
Ġkl as
Ġw ala
ĠB L
Y A
ĠÃª tre
Ġh ij
Ġk urs
in ti
ĠÄĳ ang
ĠK ont
art en
Ġpro b
Ġmin im
il ig
Ġsam men
Ġd us
Î¸ ÎµÎ¯
ÏĦ Ïħ
ta an
nos Å¥
Ġst ra
Ġen iyan
Ġheb ben
Ġpr v
Ġm ara
gun akan
ĠA i
Ġaqu esta
Ġgod t
Ġbi áº¿t
k Ã¶
itate a
Ġk lo
Ġim ag
ho ut
et si
nÃŃ m
Î´ Î¹
pl at
Ġf ebru
Ġes a
C O
ĠÎ¿ ÏĢÎ¿
0 1
m ÉĻt
ĠD V
es en
ĠAr tik
Û Į
Ġhab en
z im
m iss
Ġsa a
Ġh Ãłnh
Ġjul á»į
ĠUn ited
tic s
Ġte j
Ġind ustri
ik Äģ
ĠIs ra
Ġfot os
Ġk ultur
ĠÊ» ana
ĠApp le
s ung
ĠUn tuk
ĠmÃ¡ y
Ġess ere
ĠEl s
ĠM edia
ÏĦ ÏģÎ¿
ff e
Ġz al
ij k
ĠktÃ³ ry
Ġf abr
Ġch Ãºng
Ġdok ument
Ġur l
Î¯ Î¶
Ã§ e
oc o
f Ã¸r
Ġr ig
Ġmw aka
Î ľ
ÉĻ li
un der
iv es
Ġre ci
k od
Ġj og
ÏĢ Î¿Ïħ
Ġer re
ĠN az
Ù ĳ
inn er
ĠH en
Î´ Î·
Ġf ast
ut us
iy as
Ġj av
Ġs r
uj Ãº
ord s
Ġth en
H O
en zi
Ġm ade
ÄŁ u
Ġd og
Ġet te
j Å¡ÃŃ
ĠAnd re
ĠA w
co unt
Ġr Ã©s
ĠS n
ĠÃ¶ ver
Ïģ Î¹Î±
Ġbus iness
k m
il ib
Ġd ua
Ġg ada
ĠM ungu
ar n
5 1
is es
Ã¥ nd
Ġw it
D I
Ġb are
ĠÎ¼ Î¿Ïħ
Ġt ol
Ã¡s ok
di an
f Ã¼
c am
und en
ĠÃ®ntÃ¢l nire
Ġw ÉĶ
ch Ã©
ĠM b
Ġs ym
ĠE M
ĠB A
ÅĨ as
Ġd Ã¤r
Ġpag b
Ïİ ÏĤ
Î¼ÎŃ Î½
Ġa ri
Ġ! âĢĿ
or ge
ĠÄį as
ĠSo cial
vi en
all er
ĠâĦ ¢
ĠU K
v od
Ã¡ ciÃ³
Ġp ik
Ã¼n Ã¼
Ġdu e
ec er
ve is
ab an
ĠJanuar y
Äĥ s
Ã¥ d
Ġl Ã¡
Ġbil dir
Ġal m
ĠP el
Ġk una
ĠâĢİ #
Ġá»į na
ar Ã¡
ĠB ig
le ction
Ġb ara
ĠM ill
ÃŃc ÃŃ
Ã¦ ng
E F
Ġw orld
ĠÎ¾ Îµ
ĠÎ Ľ
AN T
á»ĩ nh
Ġt yd
Ġin ici
ec tiv
az on
Ġl Æ°á»£ng
ĠB it
Ġbeh and
ĠGre en
ĠK en
Ġho e
Ø ®
ÅĻ ed
g est
ĠW al
ell s
Ġ16 0
Ġdit uz
Ġcap ac
Ġmu ito
Ġver k
Â ¡Â
ÅĨ em
Ã¤m Ã¤
Ġv ie
p un
Õ¸ÖĤÕ©Õµ Õ¸ÖĤÕ¶
áº¯ n
Ġkont akt
ar u
Ġv iss
ĠI b
on av
ai fa
t Ä±
Ã¼y Ã¼k
ĠG B
ĠÃº j
ĠNe xt
Ġh ata
Ġc le
ak ti
ĀĀĀĀĀĀĀĀ ĀĀĀĀĀĀĀĀ
ol en
Ġba ina
est en
Ġn Ãº
Ġqu ando
Ġcomp et
n Äģ
le ÅŁ
< /
id d
Ġst an
Ġs iku
r ÃŃ
ĠR esta
Ġt es
Ġimport ant
Õ¸ ÖĢ
an Ä±n
Ġgre at
Ġl á»Ľ
he im
ro g
ĠÃ ķ
Ġv Ã©g
Ġph Ã¡t
ĠM obile
ĠP ower
Ġmana wa
Ġk á»į
u ale
ĠÎŃ ÏĩÎµÎ¹
Ġinter ess
Ã¤l lÃ¤
Ġtra bal
ĠÃ§Ä± x
Ġo y
Ġabs ol
Ġkun ne
Ġh iz
or it
Ġap art
áº£ m
Ġh ob
Ġtim p
Ġm uz
Ġv asta
at ti
stan bul
Ġáº¹ rá»į
Ġhaz Ä±r
Ġ9 1
Ã¡ Å¾
Ġdi áº¹
ĠSo uth
ĠSa int
ĠÄ° n
ĠN ag
Ġk and
ĠT en
Ã³ a
Ġqu es
Ġthro ugh
Ġs Ã¼r
Ġn Ã¡s
Ġ ort
ĠB ag
ĠÅ ½
Ã¸ b
uy Ãªn
Ïĥ Ïī
Ġz em
land s
Ġje j
on to
Ġpo ate
Ġh im
Ġit ali
Ġar ch
ÉĻc ÉĻk
ar ik
ĠS un
Ġo x
o ta
ĠM em
Ġap l
ĠW ith
Ġim age
ĠPre v
ĠM c
Ġc áº§n
inn en
ay on
ĠS Ã¥
wa ju
ja an
ĠN as
Ġpar Ã«
Ġpaggam ot
ish wa
ĠSt and
Ġl oko
Ġs me
t are
ala xy
Ġpol a
Î¾ Î·
ĠT est
Ïģ Ïĩ
Õ¸Õ ¾
ch ar
Ġy al
ĠUnivers ity
ĠM eng
b ack
Ġ": {"
er na
Ġbar n
Ġbah wa
ett y
Ġpi ed
Ġop in
Ġ Ä±n
Ġk ÉĽ
on na
S H
ed es
Ġhel y
Ġal o
Ġtr Æ°á»Ľc
ĠP orn
ur y
Ġm ut
j um
Ġ14 0
ap on
os c
Ġi esp
ĠB M
Ġs ize
ĠN ik
ib ile
un ing
Ġs uk
ch te
ÉĻn in
zn Ã¡l
Ġz gj
Ġs uh
Ġdah il
ĠG ran
Ã¡n ak
ĠP in
ĠT L
p ak
ow ej
Ġn ett
Ġes per
ĠBea ch
ĠÙģ ÙĬ
Ġb ac
ĠB ul
Ġt end
Ġb lo
ĠAb d
it ti
Ġreg ul
Ġab e
ar Ä±
ow anie
Ġhah olo
ez et
Ġfac il
ĠK ad
ĠM eh
ĠD re
Ġon d
Ġnh áºŃn
ut in
P A
ĠT our
ĠS ist
ĠUS B
ĠÕ Ģ
ĠD oc
Ġh Ã¤n
o us
Ġak tu
Ġi w
Ġb Ã¸r
Ġs iya
Ġaz t
er er
Ã©r ie
av at
Ġincl ud
Ġam i
ĠA Z
ami ento
Ġbr ug
ec u
Ġgener al
ĠAp art
Ġ è
j ect
k Ã¤
Ġf ix
Ġdur ch
ĠU ni
9 1
Ġh all
u ak
ah kan
Ġp y
s an
Ġtu y
ĠIntern ational
Ġw orm
ĠÄĳ Ã¢y
Ġra z
olog i
if e
li che
za ile
Ġc ette
Ġ13 0
ĠP il
v v
Ġ Õ¡Õ
ĠGr up
er al
w ork
Ġtip o
h ak
Ġku w
l Äģ
Ġpop ular
s et
Ġs eng
s ul
Ġst yle
Ġes k
il adi
Ġt ung
ĠAl t
Ġsm art
ek tiv
ĠÃ¶ lk
Ġcom er
Ġth a
Ġn Ãło
Ġtamb Ã©
Ġcompl et
Ġc las
ru c
pl es
k es
ĠB ill
ob re
Ġper lu
ĠN atur
Ġwi ÄĻ
Ġsup port
Ġn Äĥng
c ep
Ġap plic
Ġdun ia
Ġser ta
ĠS pr
ĠMar et
Ġv ind
Ä« ga
Ġg w
ug i
Ġn yt
j m
Ġla z
Õ¸Õ ²
8 6
Ġtent ang
ĠAut or
b and
Ġtamb Ã©m
alit at
Ðµ ÑĢ
ĠV ia
e o
Ġni in
Ġeg iten
Ġdire ct
Ġro d
el ah
Ġli fe
pro d
ĠLatv ijas
Õ¥Õ ¿
ĠÂ º
em y
Ġm ust
s in
Ġsu ch
ĠÎºÎ± ÏĦÎ¬
us z
u ari
ar ekin
ab les
r Ã³
ĠÃ ĭ
am as
ov Ã½ch
Ġ% .
9 6
t Ã¤
Ġl il
em ento
à ¹
bi Ã©n
Ġp and
ĠI de
ĠE en
Ġre ad
c ze
j ed
ak er
Ġt Ã¤n
Ġt jet
Ġb aba
ĠF ore
Ġy en
Ġ Ã¡t
Ġtemp s
it ut
Ġz or
Ġpr ess
Ġp is
ĠK ul
9 3
ĠÙ ĥ
Ġt Æ°
urs os
Ġkter Ã©
ĠF OR
Ġt api
L I
Ġed uc
Ġ Ã¡s
Î¿ ÏĤ
Ġbi ja
ĠC ara
Ġn chi
ell ing
ĠV iew
s u
Ġem presa
ow ania
op i
en ing
Ad visor
Ġm áº·t
Ġprz ed
9 2
F F
Î¯ ÎµÏĤ
ot Äģ
ĠF t
Ðµ Ð½
amp a
ĠD ub
ci os
Ġb á»Ļ
Ġt ug
de v
Ġm bi
und ay
9 7
Ġkam u
Äģr t
G G
Ġfor um
ĠKe y
te ur
at zeko
ĠÃ© p
Ġra g
ï ¼
und u
Ġd ov
Ġbr uk
Ġis ÉĻ
ing ine
Ġter min
ab er
man n
uk tur
Ġh es
ol lo
st ad
Ġvi et
Ä±l dÄ±
ĠÎ´ Î·
ĠÊ» A
Å¯ m
Ġa ÄŁ
Ġ ÉĻm
ĠF R
Ġil g
Ġg ab
Ġamb ayo
ĠP s
Ġp amoja
nÃ½ m
Ġand ere
am ise
Ġop tim
Ã§ ek
Ġmeg et
is ho
ant al
Ġq ol
em an
eb i
Ġï¿½ï¿½ï¿½ï¿½ï¿½ï¿½ï¿½ï¿½ ï¿½ï¿½ï¿½ï¿½
Ġpa ci
Ġg ara
ĠA uto
ij i
Ġal an
ĠA na
Ġch áº¥t
Ø ¶
Ġun g
Ġm uka
j ekt
ĠÕ ¤
ot u
Ã¡ val
c in
ĠtÃ¶ Ã¶
Ġdu en
ĠbaÄŁ lÄ±
ĠJ am
ÏĦ Ïī
ur de
li chen
Ġl em
n sk
Ġdes ta
le v
ĠP P
Ġimport ante
ĠMic rosoft
ch an
ck et
Ġktor Ã©
ĠS ev
iz ione
y abr
ĠL ight
Ã¼ b
ĠFran ce
ÏĦÎ· ÏĦÎ±
ĠC ho
áº¹ p
ba ik
Ġdesen vol
Ġwh ere
Ġnghiá»ĩ p
Ġm tu
ĠS av
ie j
Ġo so
Ġmeng gunakan
ĠK ing
Ġwe es
ĠP ad
ĠI ch
h av
ĠRep ly
b org
Ġpart ner
at Ã³
Ġpr Ã¡
Ġma ikaÊ»i
Ġis te
Ġd ak
Ġap lik
Ġso os
Ġmend apat
f all
Ġt áº¹
ĠTw itter
K K
l Ã©
un oa
ek om
ĠAn n
ff er
ĠM use
Ġp ush
ar na
Ġt á»±
all o
ĠS C
ag b
ĠÕ º
Ġsho uld
Ġap pro
Ġxu áº¥t
iy le
Ġtod as
Ġd Ã¢n
ĠMal aysia
it zen
Ġg ir
ob b
Ġsa i
ĠL ong
in ts
Ġmun icip
B O
Ġk dy
Ġshqip tar
Ġm t
Õ¸ ÖĢÕ
r Ã©
Ġva ir
Ġd ere
end re
ĠVide os
ĠO kt
J A
Ġr ight
IS T
ĠÃº Äį
ĠÃ© ta
Ġsp an
il de
Ġst op
Õ ¤
g ing
Ġv r
Ġj os
Ġm Å±
s g
Ġmo tiv
Ġkon trol
Ġ ÑĤ
Ġprofess ion
ĠF ot
ad ÉĻ
ĠJul y
Õ¡Õ ®
ib ar
Ġpr Ã³
eri or
Ðº Ð¸
l op
w ays
Ġh osp
Ġvi es
Ġno ti
am y
Ġest at
Ġequ ip
Ġen a
Ġmo i
ĠR em
Ġac t
ä º
Ġmen ing
ak as
Ġso ftware
Ġal les
Ġw iki
ĠM icha
Ġk Ã¼
H z
Ġvet Ã«m
j os
ah ar
l elo
Ġc Ã´
ĠOct ober
w eg
Ġt uk
Ġju u
f est
Æ°á»Ľ ng
ĠâĢ¦ .
eb b
al im
Ġmin ist
Ġke y
Ġdis se
ĠD ol
ou w
Ġh ilo
Ġf ile
Ġak s
ri ft
Ġp asi
v it
ĠO ver
ĠA u
an as
ers on
Ġen n
Ġ Ã¡n
Ġas ÃŃ
Ġc rit
vel op
ĠV it
l ement
Ġnag y
ĠGr and
l ek
Ġv Äĵl
atu ur
Ġdis a
ĠJ ah
ĠÅ į
ta ble
il ÉĻ
ch ilar
c ent
Ïĥ ÏĦÎ¿
ÏĢ Îµ
ĠAn ton
ĠK ui
Ġn ivel
ĠU d
Ġ Þ
ĠÎµ Ïħ
Ġcomp ar
ĠÎ± Î»Î»Î¬
Ġn l
and en
ĠY o
Ġve Ä¾
iss Ã¤
ĠF C
Ġorig inal
Ġn al
sh Ã«m
ĠÃ© n
ĠDec ember
Ġs as
ĠD O
Äĵ tu
Ġz na
Ġon de
Ġo ct
EN D
Ġf aire
pl an
men ta
U C
Ġguz ti
Ã³ j
Ġj ug
z Ã©s
l or
o ch
Ġad ol
im en
is ie
Ġt araf
ĠFebru ary
Ġfinn s
Ġst ad
ĠC asa
ĠG ay
Ġb Ã¡n
ĠMas k
w id
Ġv Ã¬
ĠE D
áºŃ y
Ġp uj
áº¡ ch
ir us
Ġar ri
lÄ± ÄŁÄ±
ce j
Ġm ez
ul s
ĠU R
ĠT od
Ġser Ã¡
ĠM S
Ġlo ok
Ġs ov
d agi
Å£ ii
ie b
ĠS es
Ġsal ah
ch ts
oma in
Ġm ate
we i
Ġc ou
ĠH P
ant z
8 7
Ġdi f
Ġtra ba
Ġo Ê»
ĠN ike
ĠA uf
ÈĽ ie
ĠP H
Ġkan yang
Ġtak e
om an
z d
da ÅŁ
Ïħ Î½
Ġker ana
Ġj Ã¤l
Î¸ ÎŃ
h j
E P
Ġa ye
ai an
ri ed
Ġt Å¡a
ĠCon st
Ġd int
ir ik
Ġy hte
× Ļ
Ġr y
Ġag ar
oj en
ĠgÃ¶ st
Ġco uld
iv al
ob s
ĠÏĢ ÏģÏĮ
ĠÐ ´
Ġis ti
ah am
Ġgi an
áº¯ ng
Ġ' ).
OR T
og en
ĠTÃ¼rk iye
Äĥ t
z ÄĻ
Ġse arch
Ġbes k
Ġ] [
Î ©
~ ~
Ġdes pre
Ġvi el
Ġmuk ha
Ġj adi
Å ĭ
Ġpr ice
Ġh ir
9 4
g as
I X
Ġf ins
Ġ] ,
Ġprobl ema
Ġc ele
Ġmen er
Ġpl as
Ġhist ori
Ġh jem
Ġm ari
ak ter
Ġli ik
ĠMar k
Ġst ill
ĠÏĥÏĦÎ¿ Î½
nÃŃ k
Ġkun i
ĠV el
Ġh uk
ĠK el
Ġvi ol
v est
Ġtik ai
il ang
on ta
p al
Ġc art
sk y
Ġw ale
Ġc oll
ĠProd uk
n in
Ġpag ka
ÈĽ Äĥ
r Ã¼n
is el
ti u
Ġh uman
ĠJeho fa
Ġy ay
Ġim g
ĠEng lish
Ġte am
iz io
Ġt iek
Ġm Ã©
wo od
Ġv ent
Ġ- ,
en se
Ġal ap
ĠIn sta
ÅĤ Äħ
Ġger ek
or at
z al
Ġk inh
ung i
ĠCom o
Ġcom me
ĠA tt
ep at
Ġ9 00
\ /
Ġw szyst
ĠS ampai
ĠÎ¸ ÎŃ
igh ts
vo or
8 4
Ġz er
Ġvi ÅĨ
Ġf ur
ĠtÃ¶ bb
Ġam al
ĠS eri
ord en
um en
ĠL og
Ġkun nen
ĠR ap
Ġfot ograf
ĠN ad
Ġt Ã¡c
Ġus o
n olo
Ġy ii
Ġo se
ĠÏĥÏĦÎ¹ ÏĤ
Ġ î
ĠQ U
ow any
um ba
ĠÎļ Î±
Ġ12 5
ĠÃł s
Ġcom ment
Å ł
ĠF ern
ta v
ĠÄ ĥ
Ġsa an
ĠN ak
Ġc ustom
ĠÎ Ī
Ġd own
Ã¸ k
Ġq iy
8 3
Ġm ys
Ġel l
Ġmen os
Ġen k
Ġh vis
Ġin ten
ÅĤ u
h v
ĠP our
ĠÄĳi á»ĥm
ĠN ic
Ġ% ,
it Äģ
ĠÅŁ ÉĻ
Ġp unt
Ġn chini
Ġmir Ã«
Ġeur os
ĠMa j
Ġor e
r ol
m ad
n ad
Ġl imit
ĠAmer ika
Ġv Å¡e
ot y
ĠC ur
Ġstrat eg
p Ã¤
ĠN Ã¤
ac Äĥ
ĠO S
Ï Ĭ
ish ga
Ġo ju
Ġsebel um
nÃŃ ho
for man
ĠR et
Ġc lar
ing u
ong an
ĠÕ £
Ġd uten
imi ento
on as
Ġy at
ĠP lat
Ġg ur
Ġek stra
Ġti á»ģn
ak k
Ġm av
ĠÄį o
Ġk áº¿t
ĠM Ã¼
à ³
x _
ĠM uj
ĠN um
Ġak á»į
Ġval or
Ġn ay
Ġaut omat
s il
ir in
Ġret urn
ĠM is
l ou
Ġc ase
ĠS S
Ġfe ela
w in
Ġac ord
z io
Ġs emb
Ġpr omo
amb ar
Ġt áº¿
Ġ199 9
Ã§ os
Ġo wn
ĠâĢĭ âĢĭ
de z
ĠO K
p x
Ïħ Ïĥ
ĠWh ite
ĠBak Ä±
ert y
Ġh ost
umi em
im ana
il iz
Ġt Ã¢m
ĠD ata
ob ili
Ġstand ard
ĠÎ ĺ
áº£ nh
Ġgjith Ã«
ibli ote
sa j
Äį nÃ©
ĠS pa
EL L
el in
Ġas os
Ġes im
Ġf ed
ĠØ ³
Ġdem ok
p m
Ġdar ipada
ĠB all
ist s
Ġh uy
ĠV or
ĠF eder
st up
Ġam ely
Ġter rit
Ġb ata
ĠF eb
ĠE xt
ĠA V
and ay
Ġv re
Ġl Ã¶
Ġsv ar
Ġph ÃŃ
Ġprim er
Ġ7 00
ER S
áº¡ c
ĠIt ali
ÙĦ Ùī
Ġb ug
ĠZ o
Ġt Å¡e
Ġind ic
f it
ĠHo use
ÏĪ Î·
Ġl ite
Ġy ana
ĠkÃ¶n nen
Ġthi áº¿t
Ġide a
Ġmel akukan
aw i
jÄħ c
ak si
ort s
q q
ĠÄ° ÅŁ
Ġv ÄĽ
Ġpol e
ĠD A
p in
ĠR el
Ġth áº¥y
ac ja
Ġf as
unoa ÈĻte
Ġad v
ĠFore x
f al
Ġacc ess
Ïģ ÎµÏĤ
ia go
Ġd um
er et
b are
aku wa
Ġg or
Ġja u
ĠT all
â ĸ
Ġm ess
Ġvl ast
Ġb áº±ng
ĠB ib
Ġv Ã¥
id upan
Ġq ad
Ġ" ]
Ġz as
Ġd ÃŃ
oh ol
h it
Ġr ich
f ac
Ġg at
Ġel eg
Ġw ali
r el
g em
Ġet s
Ġfa it
Ġz it
st u
Ġdire k
Î ¥
ac ak
Ġto Ãłn
Ġse orang
ah ala
AR T
l ÃŃ
ap s
Ġare a
ĠA si
ĠL ip
Ġph Ã²ng
ak ah
Ġk ro
ĠR oma
Ġat Ã«
Ġs ide
ici Ã³
f on
ent os
ĠH ay
ik as
ĠBlu e
Ã¡s z
Ġn ahi
ĠvÅ¡ et
ar ri
Ġm ud
Ġw ys
Ġch á»§
ĠÎŃ Ïĩ
Ã¦ re
ĠÄĳ á»ĳi
Ġp Ã¤r
Ġc ultur
Ġb áº£o
Ġt á»ĳt
u we
Ġtiáº¿ p
Ġp ig
Ġa uk
Ġm uda
Ġi gen
Ġc _
ĠW ir
Ġer o
ar se
Ġc la
Ġfo yd
lij k
Ġkel uar
Ã¡ri os
ĠÄĳ Æ°á»Ŀng
Ġg ez
Ġem as
Ġm ij
Ġkom m
Ġcon te
ĠS ay
ik us
al at
Ġz Ã¡k
Ġy r
lÉĻ ÅŁ
z ek
Ġpre par
Ġd k
bo ok
Ã½ mi
is ko
Ġhi á»ĩu
ĠPr im
H ot
sk u
Ġw yk
Ġsek Ã¤
elis oa
il es
ent en
ec tion
Ġt ÄĽ
Ġab i
Ñ ĳ
Â ·
ĠRa is
ĠJ i
Ġvis it
Ġr ona
Ġm ÉĻl
em me
ĠF ol
p art
ĠJ eh
Ġg Ã¬
Ġe c
Ġh ver
ĠL an
mo ja
ĠSo ci
Äĵt Äģ
u it
Ġd up
ĠS ho
k op
Ġun ter
Ġl una
iek Å¡
ant en
Ġex emp
ai o
Ġk Ã©
j te
Ġth á»ĭ
Ġt ez
Å«s u
Ġy Ã¼ks
Ïģ Î¿Ïħ
Ġch u
Ġa Ã±os
Ġt so
Ġleng th
pr Ã©s
ore a
ar ra
Ä« k
v ille
Ġtá» ķ
Ġfor ex
ĠI ni
Ġ áº¸
v Ãµ
ĠTrip Advisor
ation en
Ġfil es
ĠEs ta
Ġt ÃŃnh
Ġst Ã¸r
Ġper d
s ob
ent ing
Ġtr Ã¨s
ec ts
Ġs oll
ÅĻ i
Î¼ÎŃ Î½Î¿
risti an
Ġ... ..
Ġme u
Ġfac ebook
ĠP eter
ĠM oh
l ess
Ġd uk
ati f
ĠÃ Ļ
Ġt Ã¤h
ĠAn ti
ĠS or
g ens
ama an
ĠhoÊ» om
ar is
st ar
Ġm ini
ĠM kuu
ĠÄ ¾
Ġo e
Ġem o
d ik
ani u
Ġn ÃŃ
ĠR ich
av en
l ap
er im
Ġj Ã³
Ġg eni
it im
Ġb eb
ĠK et
or no
Ã¦ t
Ġar asÄ±nda
ĠL ink
j Ã¡k
ot to
IN A
al in
ia i
larÄ±n a
Ġg iz
ĠResta ur
ĠÄ ¼
ĠSt ud
ĠCent er
Ġlo áº¡i
Ġinst all
h ib
Ġv ille
ĠK le
ck er
Ġr ip
Ġsp or
Ġhist oria
Ġd ugu
r ÉĻ
Ġh ayo
w et
Ġh á»į
ult at
P L
8 2
ĠFl or
Ġdel a
ĠLond on
Ġro k
U G
Ġh Ã¡
ĠDet te
Ġtemp at
Ġat Ã©
Å¡ Ä·
ĠR oz
u is
m am
n ice
ĠPol it
ad hi
ĠV ill
ĠT id
Ġdir en
Ġh á»Ļi
j Ã¸
Ġh Ã¼
ik al
ĠÃ ¬
ĠB E
Ġs ampai
ĠN eder
at ro
Ġval ue
ĠK ah
ÏģÎ¹ ÏĦÎ¹ÎºÎŃÏĤ
Ġan ys
Ġreg istr
w he
ĠÕ ¢
Ġm ch
T T
Ġl Äģ
ition s
ish ed
Ġn it
ĠOr ig
Ġbo y
cha ft
Ġt elef
w u
Ġv eri
il ah
Ġak t
ke y
in at
urr ent
s as
Ã¡r t
et to
Ġal ta
ut z
ti in
ag ue
Ġus ed
Ġest r
s am
endele a
eme i
f as
ent u
el ine
ut or
ami i
ĠL it
ra h
ra ft
Ġt Ã¬nh
al Äĥ
ĠÏħ ÏĢÎ¿
tor s
ok oa
Ġc ast
Ġv á»ĭ
Ġp apa
Ġk jo
Ã¨ me
Ġinter na
Ġkon f
Ġbir i
Ġc áº§u
yl l
ol Ã³g
Ġs ha
Ġdi en
ors z
un j
H E
C A
Ġh ali
Ġver b
Ġk alau
Ġbeg in
ÉĻs inin
Ġa ina
Ġed ib
il u
ag em
I m
alam an
ÏĢ ÎµÎ¹
Ì ī
Ġl ogo
ew ele
Ġha e
ĠK U
w ard
ug b
Ġpam am
Ġan ni
Ġqar ÅŁÄ±
Ġdeg li
ĠÎ´ Î¹
ĠkÃ¤ ytt
Ġk ij
Ġb Ã¼tÃ¼n
j am
Ïĥ ÏĦÎ±
Ġst udi
app y
Ġy ung
w ij
ĠO pen
eg as
d zi
Ġreg ist
Ġtet api
Ġset iap
ke en
az ar
ĠV y
m ist
an ne
ÏĮ ÏĤ
pp en
Ġf riend
Ġgag we
qu i
Ġsp o
Ġav ail
ĠvÃ¤l ja
Ġsp ec
et at
ÎŁÎ ¥
st re
ĠfÃ¸r ste
á»Ń a
st at
ES S
nie c
Ġe erste
Ã³ ng
on de
Ġt yl
Ã¸ j
ĠO P
Ġ/ >
Ġs os
Ġs Ã³n
Ġch ild
ĠL eh
ĠN ar
Ġh ans
Ġbil ÉĻr
Î¼ Î®
Ġinst al
ĠW il
ĠAc c
L C
ĠT O
M S
Ġi ar
Ġw r
Ġde ÄŁ
at ar
ol ah
Ġr ik
Ġpr ze
Ġmar rÃ«
om me
Ġk ub
Ġk ond
ĠW hat
Ġâ ĸ
Ġr Ã©sz
ĠT ro
Ġf ej
Ġr ast
Ġs esu
Ġn eng
Ġk umu
x es
oh n
Ġbe fore
Ã Į
ĠH il
Ġtab let
ĠD iv
ara z
Ġg overn
Ġu ur
Ġt ush
Ġp Å¯j
Ġka Å¾d
Ġa ka
ing ton
v Ã¦r
Ġk Ã¶v
ate Ä¾
est r
Ġnew s
ĠS car
Ġro om
Ġw am
ĠSex o
nie j
Ġt áº¡o
art u
Ġal u
re di
Ġm Å¯
Ġcil vÄĵ
al di
Î½ Ïī
Ê»o e
ĠPrev ious
Ġt ego
Äģ la
ĠtÉĻr ÉĻf
ib t
Ġp av
Ġk ip
Ġdre j
ĠBras il
Ġh apa
ĠB os
Ġpu ede
Ġco ok
ĠS ala
Âµ ÃĦ
qi q
el em
Ġd ut
Ġlah at
Ġs Ã©
Ġd ub
for me
ĠInsta gram
Ġj ard
er min
Ġp up
ÅĪ a
ĠvÃµ ib
Ġdal la
Ã¶ Ã¶
m od
Ġor der
ĠE X
if i
ma in
Ġf all
us us
et et
te z
et in
Ġp asa
ĠÃ´ ng
ul ts
á»Ĺ i
ol is
Ġtam Ã©n
Ġproduk t
Ã©m u
ij u
ca q
Ġk ong
al aki
Ġw p
it ia
gb áº¹
ĠÄĥ n
Ġsta bil
Ġqu áº£
Ġb lu
ĠG el
OS T
ÉĻl ÉĻ
us sa
c ji
ib áº¹
Ġs iden
Ġre kl
ĠW illi
q in
Ġb oh
n el
Ġg eld
Ġl Ã©
ĠF el
Ġw áº¹
Ġr adi
Ġs ans
Ġol ish
ed ing
Ġ} ,
Ä ŀ
l Ã¡n
y re
ĠMar ket
j in
Ġdo es
d un
ĠÃ© tÃ©
Ġen contr
Ġcir c
Ġâ Ī
Ġp ont
ĠUn der
Ġj al
ta h
á»ĵ n
Ġtil b
Ġsch ool
ĠFor um
Ġg rav
ĠL ive
IC A
Ġc es
Î³ Î³
Ġel le
Ġs og
ke it
ĠÎ Į
ne a
av al
ok ol
ĠT ari
Ġtom on
Ġhid up
ĠPar ti
ĠN ational
Ġmen se
Ġiy ong
Å¾ u
en ne
Ġkuf anya
mer o
ĠG y
lÄ± ÄŁ
Ġv Ã©
ĠOn s
ĠG old
ĠD ay
ru ar
Ġpros es
t d
Ġcz as
Ġv ij
ĠolduÄŁ u
Ġm ungkin
bar u
ĠSm art
á»« a
ĠÂ ¤
Ġfoll ow
j n
Ø °
Ġty p
Ä±l masÄ±
Ġar b
Ġm ich
Ġle p
ĠD ok
ĠØ ¥
Ġm obile
na ewele
Ġmod o
ĠÃ¤ n
ion es
at kan
Ġtut ti
Ġra v
Ä± cÄ±
Ġmil li
ment ar
Ġb áº£n
hat Ã³
P r
IN I
Ġp rav
O F
Ġpr iser
f g
ene an
uts ch
la va
Ġgi Ãºp
h h
ament os
Ġa ud
ÉĻl ÉĻri
ow ego
Ġpos ta
Ġj ud
ĠB ot
ĠÄĳ o
ĠS ite
ah al
re en
A l
ĠG alaxy
ÄģÊ» ani
iy i
Ġcent ro
Ġer abil
ĠAr m
ĠAr tic
Ã¬ m
ĠStre et
ĠCon ta
Ġmem ang
ti er
ic t
ĠÅ¾ iv
Ã¡l t
Ġn na
ĠAl s
Ġcent r
Ġv om
iy alar
Ã§ ar
Ġing in
ĠÎ¼Îµ Î³
l yn
Ġmot ho
ĠA rab
Ġwak tu
ĠIn s
un try
ĠM Ã¡
am ina
E V
Ġd á»ĭch
× ķ
j Ã¤r
Ġk asi
Ġs ale
ĠK em
amb il
Î» Î¯
OT O
ĠM ost
ĠJes us
ust us
Ġp ir
Ġ Ò
Ġbel ang
Ġener gi
irs iniz
i or
Ġmer k
Ġj on
it Ã«
Äį en
Ġsh op
Ġhu u
Ġnt le
Ġb ashk
ic y
S K
Ġh ope
Ġ Ã¡r
Î¸Î· ÎºÎµ
Ġb om
ĠhoÊ»oh ana
oh en
ĠX X
Ġu h
est Ã¤
Ġm ÉĻh
Ġd ess
ov anie
Ġn ova
Ġinter v
Ġc ena
ĠL ang
ĠCl ass
ĠÃ¼ h
Ġdar b
al ui
Ġon un
ÏĦ ÏīÎ½
Ġb lan
Ġj uni
Ġk aya
ĠB lan
c Äĥ
Ġnov ember
Ġin di
ks om
ĠÅĽ wi
Ġhor as
ĠS ed
Ġ ÉĻn
k Ã¡
ĠRed ir
á»Ļ ng
ĠP ero
Ġp ek
Ġtre bu
ĠkÄģ lÄģ
ĠS iz
Ġpr Ã©
ĠÎľ Îµ
Ġan tes
ik ai
Ġszer int
Ġpre fer
Ļ Ĥ
ati i
Äį ek
U Z
Ġti ene
Ġh ÉĻ
Ġk id
v ek
Ġde velop
eku wa
Ġinsp ir
ĠÃ¶ ÄŁ
Ġti jd
Ġof er
Ġk Ã©sz
Ġ" ).
at ok
Ġal isema
Ġs and
bu ah
Ġs ÃŃ
ot her
ĠÎ® ÏĦÎ±Î½
Ġabe uk
Ê ¼
Æ° u
o in
Ãª s
ĠN G
Ġc un
" >
Ġs le
on da
AL L
ĠK Äģ
ĠK op
co in
Ġing en
Ġf en
Ã« tar
Ġh lav
Ġak oko
ĠW y
Ã«r Ã«
Ġdig ital
Ġh ati
Ġob ra
is oa
Î² Î±
ĠÄĳ áº¹p
ĠBus iness
Ġtwe e
Ġ" )
Î¹Îº Î¿
Ġya o
Ġtrav Ã©s
Ġet m
ak ar
Ġpos it
E X
Ã¸ g
r Ã¡s
Ġh á»ĩ
Ġph áº§n
ĠF ull
Ġ) {
Ġhan no
pá»į lá»į
ĠÃ Į
Ġcl ub
ac z
ĠK es
Â «
Ġs ala
Ġth Ã¡ng
Ġtam biÃ©n
ĠM O
Ġde di
yn n
ayot gan
Ġx alq
ĠKosov Ã«s
Ġg all
ĠM ass
ĠMa ar
Ġo vers
Ġcom ments
p el
moq da
inÄģ j
Ġes pa
ĠTh ere
ĠN orth
ĠD alam
Ġth ink
Ġser ie
B o
ĠW ord
l it
ab ila
Õ¡Õ £
Î¼ Î¹
ĠmÃª me
ĠM T
Ġb ohl
ÄŁ ini
ilm ÉĻsi
un akan
Ġj az
Ġo ts
Ġjo alo
ks Ã¥
Ġï¿½ ?
Ġb ile
Ġi ho
Ġvair Äģk
l ha
f te
ĠE ti
ĠvÃµ imal
Ġam bao
Ġsp esi
ĠD ip
ĠP A
id el
Ġgro up
as se
Ġp ower
at z
ĠL ar
Ġop era
Ġ? "
Ġm ida
Ġl or
w r
Ã« si
ĠInd ia
Ð° Ð»
Ġtech nolog
v Ã¡
g iv
ĠH indi
Ġh ÉĻy
Ġse buah
qt is
h em
Ġve ya
Ġto ur
Ġh asta
ob r
Ġtash kil
ĠI st
Ġm ond
ĠG ab
Â ¹
ash ion
Î» ÏĮ
Ġd Ã¥
Ġa er
Ġb ec
Ġsi fat
Ġ Äģr
ta z
abil ir
Ġar d
Â ´
t as
Ġinter pr
Ġal Ä±n
Ãºs ica
te en
Ġp jes
ela in
f ÉĻ
Ġkar ÅŁÄ±
ĠGro up
ĠpÃ¤ iv
Ġn ada
ĠÏĢÎµ ÏģÎ¹
Ġg ive
e an
ĠC N
en ces
Ġol ur
Ġseh ingga
j de
Ġneg ara
Ã¸ y
0 2
Ġtan pa
Ġorig in
Ġoc ksÃ¥
Ġn jer
Ġac qu
Ä° N
m us
lec tr
Ã¦ nd
Ġme et
si o
is y
ĠM ini
Ã¸ m
d ra
Ġ* **
ak oso
Ġperi od
Ġb Ã½
Ġj un
ers e
ul at
emp o
Ġus ers
Ġoli b
eng er
Ġw enn
Ġsus o
Ġse hr
Ġt ang
ĠMar c
ÃŁ e
ol es
Ġf ie
Ġdi per
Î³ÏģÎ± ÏĨ
up i
AT A
Ġm ing
Ġme jor
ĠB in
Äį e
ĠZ i
ĠW az
Ġkeh idupan
Þ ¦
ak Ä±
Ġibe x_
Ġb ob
ĠÃ Ĥ
Ġdis k
ĠE T
ĠtÉĻ ÅŁ
Ġ199 8
ĠP ass
C lass
ĠÎºÎ± Î¸
Ġrom an
ot Ã«
le ge
f und
ĠM ov
ĠJ ust
ĠÄĳi á»ĩn
h n
Ġhac er
ig ing
Ġm Ã¤Ã¤r
Ġch ang
il ing
f anya
Ġc ode
ab ol
Ġtyl ko
ĠT it
Ð¾ ÑĤ
had ap
Ïĩ Î±
Ġm ÉĻs
Ġu c
Ġk oko
Ġa e
Ġr ing
Ġest Ã¡n
Ġbe ing
g ia
Ïĥ ÎºÎµ
av o
Ø £
Ġdiff er
ĠV Ã½
ĠGer man
ir ia
ĠE A
re i
ĠC S
id et
ĠR ah
Ä«b Äģ
ÙĪ ÙĨ
Ġl el
Ġkh u
Ġdan n
Ġ, +
ĠM ig
ÃŃ p
fa q
ĠÄĳ á»ģ
Ġi me
ĠL ou
Ġs f
Ġs ud
ĠC unoaÈĻte
ung o
row n
p ut
om u
iz ed
al et
ĠT ah
ĠS aya
w ad
Ġtr y
ĠpÅĻ i
Ġfam ily
Ġaus si
ĠTr ump
ev i
Ġinc lus
Ġt á»Ľi
ĠIS BN
Å¡ et
ĠC ab
k ent
Ġth Æ°á»Ŀng
Ġj Ã¤Ã¤
Ġm esa
wo ord
ĠÎµÏĢ Î¯
Ġm f
ĠÎ¼Îµ ÏĦÎ±
ho ud
Ġl uk
Ġi eg
ĠÄĳ áº¡i
Ġts ela
ĠMicha el
ts Ã©g
q an
ĠRad io
ĠD EL
ĠÃ¼ zer
up er
un ter
ĠA st
Ã¬ n
Ġho áº·c
ĠgÃ¶st ÉĻr
Ġe ga
Ġb all
x an
ĠÅŁ ek
Ġt orn
Ġv Ã¡r
ik ia
Ġz b
lar e
er ek
á» ³
Ã©n ek
Ġgj it
Ġtra ball
Ġmat eria
Ġk de
Ã§ as
Ġpo int
x on
Ġn is
Ġg ek
id or
alm az
Ġmag yar
ÄŁ lu
Ġea ch
ĠFran cis
á»ı i
ĠJ uan
Ġq al
M T
Ġdi pl
Õ¡Õ °
Ġz ad
ĠSt yle
Ġman era
ÏĦ ÏİÎ½
Ġá»į ká»į
at y
Ġ Æ
eng a
d aki
Ġ é
0 5
âĢ¦âĢ¦ âĢ¦âĢ¦
Ã¤n n
Ġda udz
Ġid Åĳ
Ġb ran
ĠL en
á»Ł i
Ġb ent
lig ht
ÉĻb ÉĻr
Ġk ou
Ġlig ger
Ġim ages
Ġla ikÄģ
Ġket ika
Ġtr ang
Ġp Ã©
olg Ã¡l
art s
Ġch á»©c
Ġb ody
ĠP ul
ĠP red
ĠÙ Ĩ
Ġem an
ja w
at her
Ġay r
Ġpl ant
Ġh ub
Ġwa o
Ġloa Ê»a
Ġh ora
ati es
á»ĩ m
Ġavail able
uz ione
AN I
Ġtip s
os it
beg be
ĠC Ã´ng
Ġn Ãµ
Ġu v
Ġsen se
h eden
0 4
Ġl er
Ġapr il
ĠH all
ik it
Ġy icha
ÎµÎ¯ Î¿
Ġz uten
Ä Ģ
er ie
Ð ¡
Ġmet od
id ia
Ġindivid u
F OR
ion go
ĠK ong
Â ¿
Ġpr Ã©s
Ã¢ ng
AL A
ĠÕ ½
O A
Ġeg un
Ġnum ber
Ðµ ÑĤ
ang i
Ġle f
ÙĪ ÙĦ
ie v
0 3
Ġf est
ĠP es
Ġprin ci
ol le
ah ana
ĠS um
ĠEspa Ã±a
ĠolduÄŁ unu
qu Ã¨
Ġr it
ĠDes c
Ġperson as
alit Ãł
Ġsit es
Ġcomp any
ind u
Ġsec tor
Ġgi á»Ľi
Ġfinan ci
Ġprop ri
ĠSh op
at ge
Ġq anday
ĠQ ual
ĠG Ã¼n
ĠRev iew
ĠÃ§ a
Ġá»į já»į
Ġf are
so e
Ġgi áº£i
Ã³ c
ak am
8 1
Ġdav lat
k Ã©
Ġke er
ÏģÎ¿ ÏĤ
Ġo yun
ÈĽ ia
Ġl v
Ġc red
Ġnt se
ol et
Ġm Ã©d
ĠG ame
Îº Î·
l angan
at re
ĠÃ¼ le
eli hat
Ġdest in
Ġ ust
h Ã«
uks et
m alar
Ġnd ry
j adi
Ġar ti
ĠH at
Ġl ets
Ġc az
Ø§Ø ¨
Ġs ila
Â ¼
Ġq yt
esi Ã³n
ĠP ay
Ġr und
oku wa
!! !!
Ġz uz
Ġb á»ĩnh
Î¼ ÏĨ
ff en
ta ge
ĠM are
Ġg eg
ĠR ub
et ter
Ã¡c ie
Ġdoc um
Ġpres idente
Ġk áº¿
ĠL ak
Ġw sp
l ub
n ico
w ys
Ġb Äĵr
ĠK n
c il
ĠT un
Ġg raf
áº§ m
Ġqu el
Ġder es
Ïĩ Î½
ĠØ Ń
Ġk ant
Ġadmin istrat
ĠJ uli
ed r
en sa
Ïģ Î¯Î±
im os
Ġdet ermin
ĠOd p
Ġsh ort
ÄĻ dzie
l ere
Ġpe ut
ĠÎĳ Ïħ
Ġmy cket
ĠM r
UN G
Ġh ala
ĠJos Ã©
ÃŃt Ã©s
Â ²
Ġku ul
itt el
ĠT em
lu it
ĠÃ¶ l
Ġs osi
Ġcand id
Ã¡l ne
ĠF ort
ĠAm azon
ti mi
Ġh ui
ak or
Ġlá»Ľ n
Ġl ilo
ĠB ez
Î» Î¹
Ġcom mer
Ġil a
ĠFran k
Ġth o
Ġak kor
Î¿Ïį Î½
b ide
ac o
ĠB eg
Ġd eri
Ġh in
ÏĦÎ¿ Ïį
Ġtak Ã©
et tu
Ġn Ä±n
Ġc osa
Õ £
er an
ĠÃ ĳ
ell t
w el
ĠCatal unya
Ġt ÉĻs
Ġh old
aga imana
ori es
Ġw ij
Â ¨
Ġpres enta
ĠUn ter
ÉĻn c
Ġbot h
Ġjet Ã«
Ġ% )
ÉĻ ÅŁ
Äĵr t
ĠM erk
ic at
Ġkon kur
ĠÕ ¾
Ġq ÉĻd
Ġc od
áº© n
ih ana
Ġg irl
h ov
ro c
Ġdol lar
ĠEusk al
Ġno en
ust en
v Ã©
R I
Ġsab abu
Ġm ama
ĠH ak
ec z
ĠM az
iv u
Ġalb um
ĠC la
Ġex per
at te
d á»į
Ġpr on
ĠL ie
Ä«g as
Ġph Ã¡p
Ġtra ck
ĠH az
Ġu yg
Ġh uj
ok om
D S
Ã³ i
wa ÅĤ
l om
Ġg enn
Ġd Ã¹ng
ĠT at
Ì ĥ
le ich
Ġh Ã¤
av y
ĠgÃ¶ re
ĠM ga
ĠP T
ÅĽ wi
Ġn di
Ð¾Ð ¼
ab ad
Ġfo arte
Þ¦ Þ
os Å¥
Ġpat aki
Ġy Ã¶n
ĠJ en
Ã¤n d
ĠSt ock
on ga
Ġb ana
Ġap lic
ar Äĥ
Ġk og
ĠAn na
ill s
Õ¡Õ ¬
ĠJ uni
ĠP em
Ġza Äį
ĠR M
ald o
Ġant ara
ĠÎ´ Îµ
Ġrepres ent
Ġcat eg
ĠhoÊ» op
ÅĽ cie
Ġinst r
ĠÏĥ Î·
Ġsp re
ur al
Ġdig it
Ġkas ut
Ġfe ed
ĠEn t
Ġam or
ĠV I
ĠdÃ¼ ny
ĠV id
olu tion
ell ik
Ġserv ices
Ġpre m
Ġho a
ĠQu á»ĳc
ia c
Ä±l Ä±r
ÉĻd ÉĻn
Ġe yi
Ġsec ond
Ġl Ã¡t
Ġcheck ed
Ä Į
p il
ÎĻ Îĳ
0 6
Ġto o
ĠM ens
h ileng
ĠmoÅ¼ e
Ġer ak
ĠP oz
Ġo sa
iza ciÃ³n
er at
ĠÄ« pa
tu ur
or gan
ÉĶ ÉĶ
ib les
ĠÎł Î±
ĠÃ© t
sk Ã©ho
et ek
Ġmill ion
Ġk iv
ĠSh ow
Ġx em
Ġproj ect
w ing
h ana
Ġf oc
Ġ3 50
ĠÎº Î¬Î½
ĠServ ice
ĠÎ± Î³
ĠP ubl
E E
Ġpal ing
ep as
ek ana
Ġsa ab
Ġsi er
Ġag bara
el uj
ĠGener al
ert as
ev en
Ġgj enn
v ang
Ġsp el
Ġd ing
Ġus u
ĠT A
Ġ10 5
Ġch á»įn
Ġb um
ÅĨ Äĵm
ĠCom ments
Ġal go
ng a
Ġtr á»ĭ
Ġs oh
d Ã¼
ib e
Ġv ita
Ġkish te
Ġ ÉĻl
Ġtr an
Ġkl ass
Ġm Ã¤r
ĠÏĦ Îµ
Ġv Ã¡s
ĠS ig
el Ã©s
con om
Ġkter Ã½
Ġh lah
ĠA gen
ĠÐ °
Î»Îµ Ïħ
ĠÙ ĩ
s un
Ġsam e
owi ed
ĠÃ¼ l
ĠS ci
ĠK y
Ġga in
Ġh ack
ĠD R
ler ini
Ġrec ord
Ġesp ec
enn is
ĠP age
ĠvÅ¡ ak
ÈĻ ti
h os
Ġj us
Ġhak k
ri ch
WW WW
P H
ĠM am
Ã¡ tor
Ġz p
Ġpa ar
Ġp ula
Ä± t
ess ion
AL I
Ġint ens
Ġcáº£ m
Î´ Îµ
Ġc Ã¡i
Õ ¬
Ġw or
ĠAd ol
ļ Ħ
ĠPublic ado
ĠPa ulo
ĠE i
y z
ett ing
ers h
w ag
ani i
Ġsa c
ari i
Ġal im
Ġsz em
Ġju Å¼
Î½Î¿ Î´Î¿
ĠB O
itt Ã¤
Ġtemp or
Ġben ar
ĠF ir
Ġseg ur
ĠJ ika
os an
in ho
jo y
ib o
Ġg ema
Ø§Ø ³
ÉĻr k
Ġj uli
ru ct
ar ren
Ġol yan
Õ¥Õ ½
Ġmus ic
ĠM obil
ĠPers o
Ġv and
Îº Î¹
Ġt Ã¡r
Ġg ot
ĠvÃ¤ ga
ĠGr atu
Ð¾ Ð»
ij Äģ
ĠS ER
olog y
Ġtod a
ĠT ut
ĠL ast
he it
Ġbers ama
Ġab ril
Ġper ts
Ġind ustr
ci u
Ġfol k
eri i
Ġ2 20
Ġsel f
Ġnhi Ãªn
Î¿ Ïģ
os ter
Ġs ci
Ġl li
Ġn igb
Ġk rij
Ġba x
Ġ Åĳ
Æ° ng
S el
Ġsa o
Ġber ri
ĠL ed
Ġ2 F
áº ³
A n
Ġper man
Ġa de
Ġel o
ĠS ystem
ĠÙ Ĥ
Ġartik el
zy m
ĠC y
elij ke
H T
ĠM and
p ot
iy asi
amp u
n ika
ow ane
Ġyar at
Ġvies nÄ«
Ġob lig
ĠMin ist
ov ÄĽ
n od
ĠMin ister
at akan
Ġchi qar
ĠNor ge
_ gr
Ġq an
Ġout ros
ÈĽ a
Ġan vÃ¤n
Îº ÏģÎ¹
Ã¼ g
Ģ â
ĠO L
Ġprov in
ÏĢ ÏīÏĤ
op ort
Ġprincip al
ĠS ul
we en
ĠB ern
sh ip
Ġla at
æ ľ
ard an
Ġv ores
ĠCom un
tor ia
Ġmujer es
ob y
Ġl alu
ĠH Ãł
ĠD un
ÏĦ Î¿Ïħ
ugb á»įn
b ert
Å¡ ÃŃm
liy ev
Ġdo anh
ĠB uc
Ġac tual
ĠS ver
ect os
Ãº a
Å¡an ai
ĠV as
Ġc en
Ġ ÉĽ
ĠÎº Î¹
Ġqu Ã¡
ĠDi es
ari an
Ġa sa
Ġ199 0
Ġra c
Ġz ich
Å£ Äĥ
Ġf arm
ra it
ung um
Ġth ose
ĠAr be
ar et
Ġplat form
xs hi
Ġ áº£nh
d Ã©s
Ġal tres
ĠNa j
Ã¶y Ã¼k
Ġtrebu ie
Ġting gi
Ġre ally
Ġpom oc
Ġcu ando
Ãĵ N
lar la
am et
Ġmul te
Ġl Ã¥
Ġl ama
ĠR en
l ant
Ġmar s
Ġfo und
ĠT hi
Ġim á»į
Ã¢ r
og i
w eng
Ġn ombre
t em
eb etsi
ÉĻh ÉĻr
por te
ar at
Ġs od
Ġil m
Ġex tre
Ġb asi
Ġis a
Ġth á»©c
um in
Ġposs ible
Ġhv ordan
ĠD engan
Ġno e
Ġn ic
ĠW as
ĠH ans
ĠÃ¤ ven
Ġem pa
ĠS ky
ier en
ĠC le
on en
la c
ĠÕ¸ ÖĤ
Ġom rÃ¥
Ã °
ĠØ§ÙĦ Øª
sh op
Ġkon k
ull ah
Ġaqu ÃŃ
ĠF it
Äĵ ju
udi an
ĠMag yar
pá»įlá»į pá»į
-------- --------
ug al
Ġp irm
Ġmar ca
ĠH O
Ġex pos
ĠUn d
ĠL ig
y ks
ĠP om
á»£ i
Ð¸ Ð½
Ġk lik
Ġh iss
á¹£ u
Ġf áº¹
ĠEn d
ĠSch ool
iy on
Ġgj atÃ«
ĠEl ektr
Ġpo ol
Ġpas ti
Ġn ado
Ġm udah
Ġdz ie
Ġ( );
Ġhis ob
ĠW ak
ov nÃŃ
ĠMod el
ĠM iss
ÙĬ Ø±
h je
uj ÃŃ
Ġoc c
Ġg ast
y pe
us en
r Äģ
l Ã³
Ġd ays
Ġon ze
Ġbard zo
an chi
Ġhand el
mal Ä±
Ġk unt
Ġn ama
EN G
ĠCol or
j ie
ĠF u
ÄŁ un
_gr id
Ġdia g
Ġinc re
ĠðŁ ĻĤ
Ġform at
Ġer ed
qu q
ot ti
j ern
Ġr id
ĠMat rimoni
iongo zi
b Ã³l
Äħ z
Ġan no
ĠIsra el
to o
Ġsk ol
Ã³ ria
Ġver m
AD A
ĠO ri
Ġktor Ã½
ĠMot or
Ġs era
Ġ ÑĢ
no ÅĽÄĩ
Ġc ard
zen ÃŃ
Ġde pos
ad t
ĠÃ Ĩ
Ġsi i
w or
ip i
Ġt ib
Ġg ul
Ġ199 7
Ġr ub
ĠÅ¡ o
ĠDa ar
Ïĥ Î¯Î±
ÅŁ ti
Ġsing le
Ġbosh qa
Î³ Î¼Î±
Äĵ d
ĠÎ±Ïħ ÏĦÎ®
uf u
20 17
Ġsol id
Ġp ng
Ġex plic
Ġe j
as in
Ġy ako
Ïħ Î½Î±
Ġnd ani
ÏģÎ¿ Ïį
Ġt áºŃp
Ġon i
Ġm oc
Î¸ Î®
lo ud
Ġl ow
Ġe igen
h ou
ĠUk ra
ĠBo ok
de j
Ð°Ð ¼
Ġrad io
Ã© b
pe ci
Ġku z
ĠJ um
c Ã¼
an ing
Ġg be
Ġf ue
ĠV illa
al p
Ġtjet Ã«r
ĠM t
Äį u
Ġv ro
Ġper met
Ð¾ Ð½
ai x
ÉĻs inÉĻ
ĠÏĢÎ¿Î» Ïį
Ġcon ten
ata an
ĠmÃ¥ l
ĠP ier
o q
Ġs Ä±
b s
is it
ide o
ĠAn al
Ġsta v
Ġw ah
ĠTr ung
ar am
ĠâĨ Ĳ
Ġna f
ĠDire ctor
Å¡ en
ĠP ir
larÄ±n da
ik in
room _grid
el ige
ĠRob ert
ĠT I
lar iga
t it
eta an
b ie
ÃŃ o
ab ile
Ġyo x
Ġ È
Ġcor re
Ä«t Äģ
ver n
Ġlang is
Ġb Ã«rÃ«
ud ia
Ġmaj or
er os
Ġto ho
Ġsh t
ĠG on
ĠÎ ¥
Ġh it
ĠC P
ka an
Ġc á»©
j ah
Ã¢n Äĥ
eluj ara
ĠJ ed
p ie
ĠÃ¼ ks
Ã³ z
Ġb Ã¶r
im ba
Ġh ale
ÙĪ Ø±
t á»į
Ġdo ar
ĠSt art
ĠK ami
res p
ĠC s
ĠB ek
Ġâ Ļ
Ġgrand es
Ġk ubwa
Ġen f
ÏĢ Î¹
amis eks
Ġac este
Ġle c
Ġi po
at ore
Ġby g
rod uc
} ,"
ĠI le
ut ar
og n
Ġt ussen
ĠÐ Ł
Ġter hadap
ĠPr in
m ag
Ġad ap
Ġ= >
Ð¾ Ñģ
ut os
av er
Ġy Ãªu
Ġv áº«n
E _
Ġob jet
ĠH vis
Ðº Ð°
st vÃŃ
Ġprim era
Ġmak an
ĠS Ã£o
Ġbes ch
og at
Ġpr akt
us al
Ġgrup o
Ġgr und
ÏĢ ÏĮ
ĠP le
ĠF und
ik er
Ġï¼ Į
Ġá»į rá»į
z or
ĠÏĢ Î±Î¹
ĠÄ° s
Ġmeng h
ĠN I
Ġro h
Ġmel alui
up u
Ġf eta
Ġmie js
so eng
ro q
Ġur m
iv en
Ġle hen
lig en
ition al
Ġt all
Ġm ert
uks ia
Ġle ur
ht Ã«
Ġis tif
em and
Ġsim ple
ĠF ut
Ġqu esta
Ã¶ ld
Ġet o
ĠO F
Ġw eg
Ġtel jes
ĠR ay
Ġw ikipedia
Ġal am
Ġand ra
ĠConta ct
Â ¸
ci ona
leg g
Ġb ate
ĠM ap
ab ili
Ġg ob
Ġaw on
ÎŃ Î½
us se
Ã³n s
Ġbe a
Ġs ena
Ġper quÃ¨
Ġide al
ĠW ill
ĠK il
ent r
Ġj at
Ġac um
ij o
ĠVo or
ĠF al
Ġs ko
val t
Ø «
Ġde ux
Ġc ant
uk si
ĠIs land
Ê» ano
j alan
Ġus ing
di al
Ġ": [
Ïĥ Î¿ÏħÎ½
Å¡ te
Ġre ce
il angan
Ġso ur
Äį et
Ġl adi
AM A
0 7
Ġt Ã½
Ġi yi
Ġp ale
ĠAn h
im s
end es
Ġv Äĵ
A ll
Ġf ÉĻ
ĠB eh
Ġa inda
i et
ĠMat eri
Å¾ ete
ĠÉĻs as
Ġ9 78
ens ka
Ġg ep
ĠD ek
sk ej
lig ere
Ġpo is
Ġj eden
Ġd ÉĻr
ĠC V
ĠkeÃ§ iril
ĠC are
Ġma ana
Ġmarket ing
Ġth am
Ġtah u
va il
Ġt Äĥng
Õ¶Õ¥ÖĢ Õ«
ÃŁ en
Ġleg al
st Ã¥
Ġth á»§
uny ai
Ã© z
Ġdes te
as ed
w on
Õ¸ÖĤÕ©Õµ Õ¡Õ¶
à ¥
ĠB ang
ĠJ apan
ĠkÃµ ik
Ġum um
Ġv áºŃy
Ġv ag
ĠD C
ĠA ur
Ġre j
Ġe ch
Ġa ika
g od
ĠD al
br and
ĠS D
ĠÃŃ gy
Ġcont ribu
Ã¡n d
n or
Ġser ver
Ġcat al
Ġmol to
ĠDV D
lo Å¾
Ġmember ikan
opp ing
Ġh izo
b ev
á»« ng
Ġred uc
li es
l ers
0 8
ĠÃ¸ nsk
Ġcara cter
ĠK ry
Ġf ire
ĠP ili
ti ka
Ġped ig
Ġni ch
Ġe acute
Ġmana Ê»o
Ġ10 1
Ġnu est
Ġa asta
ft ar
ĠMa e
Ġdon de
ĠJ ames
te ch
o y
ise en
Ġvis u
Ġcons um
ĠC our
C h
Ġva in
ass er
Ġgr ad
ĠV ed
Ġsa f
Ġy Ã¼z
ri er
ĠP ie
ĠI a
ob ra
ĠL ine
v Ã©ny
ĠC in
Ġm wan
Ġd ÃŃas
ĠÎĳ Î½
Ġbl iver
Ġa ÅŁ
st ÉĻ
Ġs la
Ġes et
IL L
Ġâ ľ
Ġver di
Ã³ Å¼
Ġsh are
ik on
Ġdint re
and an
Ġy ÉĽ
ik or
Ġger Ã§ek
olog ie
Ġl ett
Ġpi em
Ġmu á»ĳn
d Ã¼r
Ġm ug
Ġmac am
Ġl ista
Ġav o
Ġh ÉĻm
i ÅŁ
ĠF L
Ġp ÄģÊ»ani
Ġn ini
Ġw in
ĠP ic
ÄĽ r
ĠAn o
Ġsept ember
Ġwh ile
Ġtar k
ÅĤ em
ĠÃ¼z rÉĻ
ON G
Ġn k
ĠH ard
á¹£ i
Ã¤ ev
Ġk ena
Ġm usi
Ġm ec
ĠP av
Ùĩ Ø§
Ġmi iran
Ġli h
Ġun ing
Ġreg ion
Ġinter ven
ff ee
Ġfam ilia
Ġest Ãł
Ä« st
ĠÅ ļ
Ġqu ed
bo ard
Ġst o
Ġh Ã´
Â ½
n n
orsz Ã¡g
Ġsp raw
Ġhe ad
ĠS ud
Ġter ra
Ġm ine
ÃŃ an
si Ã³
Ġt Ãłi
ĠK Ã¶
ÏĦ ÎŃÏĤ
Ġtaraf Ä±ndan
Ġs á»ĳng
Ġya xshi
ĠDani el
ÅĽ li
ha a
F A
Ġmate ix
Ġha in
ĠR io
ĠK amp
Ġes o
ĠÕ¥ Õ¶
ĠqÉĻd ÉĻr
ÅĤ Ã³w
Ġha ir
Ġt Ã¼
Ġcre am
Ġhaq q
el ete
Ġpor ta
Ġeg it
áºŃ u
Ġsol ic
we et
Ġn ego
} ,
Ġal iment
un ch
Ġis so
Ġh ant
ar g
ĠÎ¼ ÏĮ
Ġbul an
ĠBer lin
Ġhu is
ÏĢ Î·
ent ina
el eri
Ġn daj
l end
Ġfor ts
j ell
Ġdis play
z uk
ĠF estival
Ġng oe
Ġter us
si oon
ĠpÃ«r gj
Ġmeng en
ĠNa cional
Ġn eden
k ah
AT O
Ġsigni fic
Ġac ces
IK A
Ġtri á»ĥn
Ġto ate
ĠÃ ±
ĠCent ro
Ġlok ela
as is
an ces
Ã± as
Ġl ight
se p
Ġroz hod
ĠL ik
Ġmas uk
Ġg eme
ĠH av
ĠM id
Åĳs Ã©g
g ev
Ġen am
Ġan c
Ġst il
Ġter ug
Ġut an
agi an
Ġhu yo
Ġd entro
Ġn ito
Ġbal at
ĠðŁ Ĵ
Ġkr on
Ġx ar
Ġli Ãªn
he j
Ġn Ã¡m
Ġn ici
Ġk Ã©r
Ġfut bol
Ġad am
Î Ķ
Ġda Å¾
Ġa aye
Î¼ Î¿Ïį
Ġsek ali
Äģci ja
Ġj ot
ĠC A
Ïİ ÏģÎ±
Ġqu er
ĠMas ter
Ġk la
Ġb Ãłi
ĠH els
Ġtot s
Ġb ine
ĠOff ice
Ġg in
ĠJ on
ĠI C
am it
un di
Ġ>< /
is isa
f ico
at Ä±
Ġet mÉĻk
Ä Ĳ
Ġp esso
Ġy ur
Ġt Å¡o
un ud
ek tor
S P
Ġsh u
Ġcu al
kan Ä±
Ġj ij
Ġinf lu
Ġgen om
j áº¹
Ġw ote
Ġta x
Ġnjer Ã«z
Îµ ÏĦÎµ
le h
Ġd Ã¶vlÉĻt
ÙĦ ÙĬ
Ġbet ween
j us
el it
ĠJe an
ĠEn tre
ĠK au
ĠC AS
at us
ad il
Ġvers ion
Ġinforma ciÃ³n
Ġth Æ°Æ¡ng
ĠS R
ud es
k ul
Ġr asa
Ġa round
Ġfoyd alan
Ġn ila
Ã© ge
Ġty Ã¶
Ġper nah
ĠNa ch
ĠMa is
Ġn Åį
ĠÕ¸ ÖĢ
b ro
ĠÏĩ Î±
Ġz osta
Ġiden tif
Ġan te
r end
Ġjs me
Ġ/ ">
f ra
ub re
Ġn oc
Ġg ure
ĠA pl
ĠkÃ¼l Ã¶n
Ġmat la
ĠL ag
Ġ á
Ġvir us
Ġs ays
áº¡ m
m ine
ill as
Ġpro x
ĠJ ose
ill ing
Ġp id
Ġsen za
Ġsu o
sta v
Ġsh tet
Ġsul la
Ġi ka
he a
Ġd all
ĠK v
iv os
it to
ane iro
Ġcon n
eb elisoa
Ġo il
ĠHar ga
Ä±l mÄ±ÅŁ
t op
Ó Ļ
f ah
ard ia
Ġ3 60
Ġdiffer ent
Ġn an
Z A
Ġma jd
Ġc est
Ġcom b
rit o
Ġmemp unyai
Ġj Ã¤
Ġf ih
Ġp Ã¡r
t om
Ġo ike
Ġho zz
Ġyo ut
Ġkans sa
er ca
ĠÏĥ Ïĩ
Ġfum ana
Ġt amp
Ġma xim
Ġinn ov
v Ã¡n
im es
Ġr Ã©g
ĠØ ±
as ema
Ġsak it
Ġwal ang
ĠX V
ak eta
Ġview s
Ġtrans form
Ġres erv
Ġla w
ĠW all
on c
ada ÅŁ
Å£ ie
ĠS L
Ġmai or
Ġku id
zen i
ua j
ill es
Ġloc ation
ĠT ok
Ġ11 5
Ġst ato
Ġsam me
Ġs ted
Ġm Ã¤ng
ori al
atu ta
Ġhaq ida
ĠM E
Ġpres ident
Ġdist ribu
ĠC up
Ġz elf
Ġs ÉĻ
Ä±z Ä±
ti ques
Õ º
Ġsem ana
Ġmak en
Ġinc lu
i ed
Ġh ed
Ġm n
ĠL ap
ÃŃ l
ar ti
Ġk red
N O
0 9
Ġh yd
Ġgjit ha
bl es
Ġseb ab
Ġme h
art h
N I
Ġindivid ual
Äģ p
Ġh d
Ġe der
ĠSan ti
Ä° L
Ġt Ã¬m
Ġne ch
m id
ĠD eb
Ġb ÄĻdzie
Ġra yon
Ġh ingga
Ġmass as
ĠE u
Ġtr uy
Õ¡Õ¶ Õ«
ĠT Ã¤
Ð¸ Ð»
ĠC os
in et
ĠÎ¼ÏĢÎ¿ ÏģÎµÎ¯
Ġq en
Ã¨ res
ĠR um
o it
eh ir
Ġam e
ut om
am ini
Ġre alit
ĠIn tel
un ea
o ek
Ġfo od
Ġu003 e
Ġtari x
Ġ' .
ĠNeder land
Ġts ama
Ġj Ãµ
ÈĻ i
Ġp ari
Ġhas znÃ¡l
Ġay elujara
ĠAmer ican
ĠKr ist
Ġs ic
ĠPro bl
Ġdil akukan
Ġm ala
Ġbl and
S O
ut es
dr ess
Ġt oll
b iy
ĠThe y
Ġel ev
g or
Ġkap cs
ul ia
d oll
N D
Ġm unk
Ġfun cion
Ġ! "
de a
Ġi es
Ġl oro
ĠE ro
Ġseg undo
ie z
f ani
Ġob r
Ġed ÉĻn
ĠE c
ĠB ild
Ġperf ect
ĠD omain
Ġne xt
ĠM K
iv ad
Ġi ke
ĠD od
Ġtrans fer
Ġ à²
ĠTe am
ĠRes ort
Ä« ts
Ã¤l t
se en
Ġparas ito
ji ch
ta i
a is
Ġn Ã¶v
ĠÂ ¨
Ġmul ig
ÃŃ me
á»į ju
Ġ& #
zy ch
Ġeg en
iz en
end s
Ġm alam
nÃ© e
ard Ä±m
Ġost at
Ġto us
Ġop tion
AR D
Ġmon itor
Ġser ikali
kon om
ĠPr ess
ĠC it
ĠC ali
ig u
te ko
er as
Ġa it
C om
ĠnÃº mero
m g
ĠEx p
yar akat
Ġtr á»įng
n ar
Ġs ÉĽ
Ġpagka wala
Ġf Åĳ
ĠC ultura
ĠA ku
Ġg ode
ĠN ow
Ġnov o
Ġs Ãª
ĠD ist
Ä Ĥ
ti que
Ġsex y
et ak
Ġim pos
te an
Ġp aha
Ġfaz er
Ã¶l t
b ia
Ġter ror
Ã¼n ya
Ġselec ted
pr ise
ĠA an
Ġne Å¾
Ġsz ak
Õ ¢
ti j
g una
Ġprote c
Ġprobl Ã©m
ĠRe ad
ĠRo ad
ĠShqip Ã«r
v Ã¡r
ze it
li yi
Ġt ÉĻd
Ġtre ball
ÅŁ tir
Ġhe alth
Ġk ri
l ast
ĠW hen
Ġfa cial
ĠÐ ļ
ĠPro te
ĠR ak
ĠfÃ¶r s
Ġf ine
ĠdÃ¼ÅŁ Ã¼n
Ġtr en
ĠT elefon
Å£ a
os k
Ġp ac
b ind
Ġol ub
Ġcl ick
ing in
Ġstud ent
ur at
j ne
Ġil u
ok ana
Î½Î¿ Î½
z w
ĠSlov en
la q
Äħ c
ĠV Ãµ
ĠN ou
Ġy áº¹
Ġrec om
Ġc ultura
Î² Î¬
Ġpartic ular
Ġi hr
Ġmet al
Ġf our
Ġsr c
ĠW el
ĠC rist
Ġt Ã©c
Ġgjenn om
Ġi e
Ġb Ã¼yÃ¼k
ĠH A
E x
Ġtut to
Ġn ome
Ġfa ol
ĠHawai i
Ġqu v
Ġil iy
Ġid ent
Ġh adi
us aha
sk ab
Ġbu ild
Ġbo Ê»
ĠA gr
Ã¶ net
ovan Ã©
Ġy ok
Ġpun to
Ġ3 A
Ġrec ep
pr im
forman ce
Ġwi eder
ĠU P
Ġpers p
Ġaz on
ĠX xx
sk at
it ch
eng en
ĠDig ital
ĠfÃ¸l ger
Ġposs ibil
sp ot
Ġbas ed
ĠDep art
Ġo w
ĠR p
ted ir
Ġis m
ĠÃĸ z
Ġes e
ada u
Ġm Äĵ
Ð¾Ð ´
Ã¡ gi
Ġh orm
uy or
im eve
Ġg h
Ġest ado
th ing
oh ta
ĠV ID
ĠÃ ı
ĠR un
s áº¹
oc uk
Ġel k
Î»Î¿ ÏĤ
Ġt Ãº
as ie
IT A
ĠÏĥ ÏĦ
ĠÃ¼ n
Ġir in
Ġfund it
l s
c le
ĠB ug
ĠÐ¿ ÑĢ
ĠÄĲ i
h ani
Ġk Ã©t
Ġfr ont
in ak
ban k
eb ab
Ġkund Ã«r
r ul
Ġm Ã¸
Ġf ark
ĠJ ack
ĠR on
Ġpro pi
ĠP ada
Ġmil le
Î¿Î½ ÏĦÎ±Î¹
inn ya
ÅĤ am
Ġn ord
Ġka z
Ġja un
es o
Ġim mer
Ġm Ã³d
Ġf lu
ep o
is ki
fi ed
Ġcon oc
ÏģÎ¹Ïĥ Ïĥ
Â£ Â¬
Ġse par
ĠD ag
Ġv Äĥ
ĠJos ep
Î´ Î®
Ġconst itu
Äģ li
el and
Ġol en
at so
Ġl áº§n
Ġr Ã³w
Ġk Ã¤n
ek ti
T e
Ġl ater
ĠE lectr
ĠAm b
Ġs ini
ĠÃ© c
lig ini
Ġh ind
ĠL Ã¦s
Ġut Ã¡n
C M
Ġw urde
Ġgl obal
ĠG Ã¶
Ġbi á»ĩt
Õ¡Õ Ń
Ã¶r t
f y
Ġ199 6
ĠSer ikali
Ã¸ p
Ġv ep
Ġr an
Ġle ft
uli wa
Ġkuh usu
Ġat en
ĠvÅ¡e ch
Ġh asi
es ema
w yd
er ik
Ġel len
Ġv Ã´
Ġki ÅŁ
Ġf os
ĠD ate
L AR
Ġkoh ta
áº³ ng
Ġsuc cess
Ġker ja
tor y
Ġpar k
ĠgÃ¶r Ã¼n
po is
Ġk ang
ry f
ÏģÎ¹ÏĥÏĥ ÏĮÏĦÎµ
U t
Ġtal Ã¡l
Ġbe f
Îº Î±Î½
en os
ĠT osh
Ġhe he
Ã¤ d
ort un
Ġsm all
Îº Î¬
Ġsch on
Ġin kl
Ġ199 5
M I
Ġprof il
Ġcam bi
am iz
Ġp ant
ti jd
ra i
eld ig
ĠÆı liyev
q e
ĠmÉĻl umat
Ġm ambo
ĠWaz iri
Ġmind re
skie go
j ur
ÏĦÎ· ÏĥÎ·
Ġv Ã¡m
Ġara w
Ġka up
Ġver g
Ġsig ur
ĠT P
Ġde jt
l Äĵ
et it
EM A
Ġmendapat kan
amb ia
ĠÃ®n tre
Ġun de
Ä° R
ĠpolÃŃ tica
ick Ã½
Ġpa Å¡
ĠC ir
Ġpres ente
akt adÄ±r
Ġba ino
H I
Ġon dor
Ġaug ust
eza ji
Ġvol ta
Ġv ista
Ġt is
Ġr Ã¡
m Ã©
ik ini
Ġmad h
ĠE ta
Äģd Äģ
ĠS au
Ġx o
Ġj uda
ÏĨ Î±
Ġser ve
Ġb rit
z ent
Ġhv il
f Ã©
Ġqe yd
igh ed
et ah
H otel
Ġb Ã¡o
Ġen e
Ġc res
ĠT ha
ok ea
Ã¡ ÅĻ
ek te
Ġ- --
f áº¹
ud as
Ġas h
any ika
Ġyout ube
Ġi qtis
Ġex em
om rÃ¥
Ġth Ãªm
Ð°Ð ²
Ġas ta
ĠMus ic
ÏģÎ¹ Î½
ĠÏĥ Î¿Ïħ
Ġv ard
Ġsp ill
k n
hol m
Ġun ui
ĠG or
Ġs ina
Ġm ijn
ash ara
Ġspr Ã¡v
ov Ã©ho
Ġl op
Ġk yl
Ġinde pend
Ġad at
Ġ à¤
ogra fi
ik oa
Ġg ust
h ets
Ġpre cis
Å£ ia
iy ÉĻ
Ġw enye
Ġol araq
Ġm ort
ĠY an
ĠT ul
Ġ ÅĻÃŃ
Î¹Îº Î®ÏĤ
l oc
c ore
ĠR ic
um is
Ġgia o
ĠE p
g han
ĠH ad
re j
Ġk itu
ĠD im
Ġc oc
Ġby l
Î´ Î¹Î¿
Ġr sat
ĠgÃ¶r Ã¼ÅŁ
ĠW ater
ett es
be eld
al as
Ġu plo
ET A
Ġhad de
Ġat o
ĠEn er
ĠD or
Ġjel ent
ĠP ÅĻ
ĠHa ir
ĠÃī s
ec ted
ka a
Ġc Ã©l
ie ve
Ġth á»ĳng
Ġs abi
ĠK ep
ĠÃ§ Ä±k
Ġques tion
Ġhab er
ĠMe xico
Ġ12 3
Ã¡ cia
ĠCent ral
ĠCC M
Ġqu ali
ema in
Ġvers ch
Ġdec ember
Ġpri or
ĠN ga
Ġsa vu
ĠN Y
tif ul
ĠÎº ÏĮ
Ġt ÃŃch
sk Ã½ch
Ġlin da
Ġngh Ä©
Ġcon fer
Ġsab er
Ġbo x
ĠL ok
v n
ol f
Ġs tim
Ġd ÄĽ
ĠT et
Î¼Î± ÏĦÎ¿ÏĤ
Ġk emb
ĠBud ap
itet er
Ġb anda
uk á»į
Ġd ab
ud ar
m ÉĻn
Ã¡r ia
Ġkw anza
ish ni
Õ¥ÖĢÕ ¨
vir on
ut styr
Ġs lik
ĠC E
Ġp hi
ĠOn t
uar en
Ġz av
ĠÃ®ntÃ¢l ne
ĠT x
Ġne u
Äį enÃŃ
ĠM p
Ġlu ft
Ġcap ital
Ġsec ret
ĠL ove
re ko
k it
Ġm elihat
Ġm ane
Ġr á»ĵi
Ġvia c
Ġmi aka
Ã© vel
ĠU M
ec tive
Ġl á»±c
Ġes hte
ĠV in
ĠR uss
ci jas
as Ä±nÄ±n
ĠÄĳ áº¥t
ak ing
ĠÎ´ Î¹Î¬
Ġgratu it
Ġara b
ĠE sk
áº§ y
z za
Ġsp Ã¸r
Ġh Ã³a
ah iki
Ïĩ Î®
k Å¯
as tr
Ġinc ont
ĠN jÃ«
an na
Ġc ili
Ġo j
ti ga
Ġx ÉĻbÉĻr
Ġ Õ¡Õ¶
Ġz on
ĠY our
ĠSex y
ĠE ss
lÉĻr inin
ĠÎ¬ Î»Î»
Äĥ tor
ĠMuh amm
ĠHe alth
Îµ Ïį
Ġpol i
AL E
Ġu003 c
Ġi ek
ys zer
Ġjo y
Ġdis s
est re
Ġdet a
uk k
en es
b ah
ar ma
ĠkÃ¤ yt
ol y
int en
em ake
Ġcuk up
ĠÃ© let
Ġcon se
Ø§Ø ¡
ul ik
Ġf lo
Ġu ta
ÃŃ vel
Ġp Ã¡
Ġz mi
Ġho i
od er
Ġb ou
Ġ( +
ation er
ari as
ĠâĢ ³
ĠÄ ı
alit Ã©
Ġf ul
ĠE ver
b ij
Ġn ÉĶ
on se
Ġj ut
Ġis s
Ð¸ ÑĤ
TM L
Ġv at
p ara
ĠØ ¬
Î¹Îº Î¿Ïį
ra j
hv ill
Ġtr ading
n ers
Ġvil Ã¡g
Ġti Ãªu
Ġj alan
Ġver ir
Ġtr ung
ess en
Ġn hau
c are
Ġproduk tu
Ġk ina
ab ul
Ġb ord
ĠDis c
Õ¸ Õ¶
uz ko
Þ °
Â °
is p
Ġá»į kan
Ġkan aka
Ġst ran
Ã² ria
Ġor ta
ar ie
ĠÎŁ Î¹
Ġter d
Ġwe et
Ġv alam
Ġke Äı
ĠC ond
Ġ Õ¡Õµ
_ P
ĠA da
Ġg uer
res h
Ġtek nolog
ĠA la
Ġlum ot
Ġs eni
Ġ10 4
Ġwit hout
Ø§Ø ¯
Ġtr ÃŃ
ĠTe x
ĠR ock
ĠGo od
Î» ÎµÎ¹
emb rie
Ġk ole
ĠNo te
Ġz eh
U F
Ġqu ery
d ia
ĠCh amp
Ġpro jet
Ġc av
Ġmag az
Ġel kar
Ġaix Ã²
ĠO ur
×Ļ ×
olo i
ib en
eb el
ĠAnton io
Ġqu anto
Ġe de
y u
Ġs est
c ast
azio a
Äħ Å¼
Ġtiáº¿ ng
Ġer r
Ġdis e
ĠT Ã«
Ġz at
Ġag en
Ġ? !
inter net
Ġbil ang
Ġas soci
at el
ĠH osp
atur es
ĠnÃ« n
ka u
Ġm im
Ġl ider
bi an
Ġgi á»Ŀ
els es
Ġbir lik
¸ ı
on omi
ĠK E
Ġst atis
ĠmÃ« ny
Ġ É
Ġr ata
ĠLe ague
Ñ Ĩ
A r
ĠÄĳ Æ¡n
ĠÏĥ Ïį
Äį nÃ½
Ġz im
on ic
Ġfir ma
mas Ä±na
ili h
U V
Ġ10 2
x imo
ti ce
Ġwan anchi
v ie
ĠEst ado
yn d
Y W
tag on
ens en
Ġd ine
Î¯Î½ ÎµÎ¹
p rav
Å« tu
Ġg Ã¶n
end ar
c ka
Ġem ber
Ġrel ev
Ġh aya
Ġt kaz
Ġpro to
ver k
uk ou
ĠF ak
ur uh
ig os
ĠÎºÎ± Î»
al k
Ġd ash
ib at
Ġserv ici
ÉĻn d
Ġrec on
Ġm no
ÅĤ os
Ä± y
ur ch
k áº¹
Õ¡Õ º
Ġnote ik
Ġmas alah
Ġins c
Ġto h
Ġstr Ã¡n
Ġe est
ĠC AR
Ġt ov
Ġprez ent
Ġtr á»Ł
Ġse i
ĠÎº Ïħ
Ġnd od
Ġnag u
Ġf elt
Ġc up
ĠO x
Ġh Ã¶
ĠCh in
er ah
Ġn Ã¡v
or io
Ġtomon idan
ĠA gar
ers i
Ġsig ui
ĠAd d
ĠG et
unt y
es is
au tiful
aca q
ĠN ai
or ie
Å¡ÃŃ ch
onav irus
eni u
J I
Ġg ond
Äģci ju
it ude
Ġta u
Ġles z
las ti
Ġkra j
Ġzgj ed
Ġsu re
Ġho áº¡t
ji es
ar de
Ġv og
Ġmat ch
end u
Ġb ep
ÏĮ Î¼Îµ
ja a
Ġle vel
Äĥri i
y et
ĠÃ¼ st
an cia
ĠG all
Ġcent re
II I
Ïī ÏĥÎ·
Ġmo z
Ġnag yon
Ġch á»ĭ
uv chi
Æ°á»Ľ i
ell y
ĠR ek
iz mat
Ġk ati
g Ã¥r
ĠÂ¡Â £
Ġc ivil
ĠO per
Ġob jek
d n
Ġeg o
áº¯ m
Ġm Ã£
Ġdok tor
Ġag osto
ÏĥÎµ ÏĦÎµ
Ġr ret
ĠM ess
po ol
al ne
Ġwind ow
Ġishl ab
Ġeng ine
il ishi
________ ________
Ġmar zo
ist u
K O
Ġh r
amb io
q dim
Ġi i
ĠA x
Ã Ĺ
ik asi
Ġs wo
Ġlar g
Ġli et
s it
Ġk emi
ĠC Ã¡c
ras tr
Ġpub bl
ĠC Ã³
Ġke ep
ĠK re
Ġy osh
Ġpu Ã²
ĠpÅ« naewele
ĠTH E
Ġv jet
Ġpoc o
as o
ĠÏĢ ÏģÏİ
Ġsp ir
Ġe ona
ĠZe it
b st
g round
Ġnot re
j it
ed or
ĠNg uy
ĠL ai
ol an
Ġb oph
ic one
ĠÎ ¡
Ġ ÅĤ
Ġlib ro
ĠD ating
Ä¾ ad
Ġslu Å¾
Ġmi á»ħn
ÃŃ te
Ġl int
ĠkÃ¶v et
ĠP O
Ġtá» ī
ĠL td
Ġt Ã¼m
Ġsta at
in Äĥ
ad Ã¡s
ĠCl ick
Ġpol ic
ĠâĢ ²
Ġv ere
Ġre port
Ġdire kt
t am
Ġokt ober
Ġp ute
Ġempres as
ĠD ir
Ġmic ro
Ġpo Ê»e
ĠU ne
ĠTech nolog
in na
Ġzd rav
Ġhab e
ĠP AS
ti i
Ġ| --
ĠI L
ĠM esa
ie ke
Ġm ia
Ġ17 0
Ġf is
ett Ã¤
uf ac
iden ce
k g
Ġmit te
ĠSt ate
ĠTra vel
bu at
Ġnost ra
w ili
Ġpre g
ÃŃt ott
do or
ch y
Ġstat us
Ġesta ble
Ġdey il
ĠÃ¶n em
z ioni
to h
it is
fi eld
y v
r Ã¤
ung g
H D
Ġhe Ã§
ĠN ur
Ġhas il
ĠS I
Ġc ie
Ġbel ÉĻ
ko op
Ġa q
Ġá»į ja
Ġon g
es ar
uv ent
ĠCar los
Ã« ri
Ġi ran
Ġem b
Ġprime iro
Ġim pro
ĠE qu
Ġud en
Ġrez erv
ov u
ĠH as
12 3
Ġm Ã©r
ĠH ale
ol Ã³
ĠÃº gy
Ġv Äĥn
Ġmay or
il io
ica ciÃ³
Ġso ov
Ġm Ã³n
Ġc Ã¡
Ä± lar
ub u
ie ct
ic ul
eg os
ag gio
ç ļĦ
Ġw rit
ĠsÃ¶ yl
Ġsz cz
il im
B R
Ġest udi
li q
ĠÐ Ĳ
Ġtlo ha
ĠâĢĻ ,
Ġmed lem
AT I
Ġgl ob
ro Å¡
av u
Ġexperi ence
Ġb Å«s
Ġat mos
k ami
Ġwat ch
al ta
ĠX L
Ä«g s
m Ã¤
ĠÎł ÏģÎ¿
ĠTh omas
st vo
ad ors
Ġo sh
Ġc ro
Ġpriv ate
Ġj uba
Ġch c
Ġ] ]
ĠI R
Õ¥Õ ²
Ġp ah
in Ã¤
ĠOs lo
Ġ Ñĥ
K S
ĠE C
Ðµ Ð»
ed ot
Ġy oz
Ġtj era
U I
Ġ ì
Ġf ew
ĠA ÄŁ
press ion
Ġsu ure
Ġde el
ap kan
am me
Ø º
Ġ= \"
est s
ara an
Ġre is
ac ia
Ġb Ãªn
ĠIn te
am enti
Ġb Ã¶yÃ¼k
ĠSanti ago
Ġ- >
ck y
Ġph Æ°Æ¡ng
Ġperson es
ĠE conom
er ti
at ta
ap ala
Ġle er
ÏģÎŃ ÏĢÎµÎ¹
Äĵ ta
Ġvi er
Ġd ala
as ida
Ġkan ilang
st Äģ
Ġtem pl
Ġc et
Ġti empo
Ġqu á»ĳc
ĠØ§ÙĦØ £
Ġer ag
ĠB ratis
Â ±
Ġvo z
Ġm moja
er to
Ġpr int
Ġet x
ada an
ĠP AR
yo ta
ĠÃ®ntÃ¢lne ÈĻte
ĠCent re
ĠkÅ« Ê»ai
ĠÃ§ ev
it utas
ald Ä±r
" ,"
Ġm ili
ĠSh k
Ġti et
Ġ' :
ff a
Ġker es
Ġsp ole
Ġdru h
ĠP V
ĠL ux
Ġv áº¥n
Ġp ala
ĠSt ra
ÄŁ an
Ġt ÉĻk
Ġmen u
Ġd áº«n
Ġmemp er
paÃ± ol
... ]
ch ester
Ġng ay
Ã© gi
Ġpod en
Ġmemb antu
Ġmed io
ĠT in
ĠCom ment
Ġfok us
z ed
ĠC ong
Ġs ido
ag t
ĠS ad
ĠJ ur
Ġ12 8
ĠL ife
ÎĻ Îļ
re ich
Ġmp 3
ĠÙĪ Ø§ÙĦ
ti y
ĠE ks
Ġ199 2
p ack
Ġass ist
K E
Ïĥ Î±Î½
ĠB lo
ĠMun icip
ÃŃt Ã³
egor ie
ÅĦ st
ĠV Ã¤
ĠÄ¼ oti
Ġg ambar
_ M
ÉĻc ÉĻ
j Ã¡n
ĠF all
Ġto eg
Ġdifer entes
Ġbel um
Ġaj ili
ĠRom Ã¢n
w ia
Ġel a
ĠS ir
Ġmi q
ÃŃ k
ov ers
ĠB este
Å¾ en
ĠN ej
ic amente
EC T
Ġprod us
Ġpert ama
ĠS us
ĠA W
ograph y
em ia
Ġing ur
Ġadmin istr
Ġhiz met
Ġby Äĩ
Ġah al
ĠY esu
am ar
ab el
ĠpÃºbl ico
ĠK in
Ġweng i
ĠgÃ¶ ster
Õ ¹
ĠfÉĻ al
Ġter baik
Ġhab ari
Ġcons ult
f ts
ĠY eni
Õ ©
Ġexp and
ĠÃ¡l tal
ĠK ay
ra ve
at in
ĠHoÊ» ol
Ġ= =
Ġd opo
Ġll oc
Ġc 9
t Ã¼r
Ġ199 4
j ia
Ġkom bin
Ġhot eller
ĠA A
er ar
Ġkar akter
eg n
ĠÕ Ħ
ot as
Ġpr an
Ġst ate
Ġs ine
Ġï ¸ı
ÏĨ Î®
art Ã«
Ġc ity
ed ad
ĠAzÉĻrbay c
Ä± p
ON T
ĠMe i
Î¹Îº ÎŃÏĤ
Ķ Ģâ
ac je
ĠA ti
ĠÎļ ÏģÎ¹ÏĦÎ¹ÎºÎŃÏĤ
Ġg Ã¼z
ĠÎ±Î½ Î¬
Ġp enting
Ġne ur
Ġn ÉĻz
ick Ã¡
Ġy m
Ġog ni
ĠB og
ativ as
id ed
Ġi ets
ï Ģ
ÄŁ Ä±nÄ±
Ġs qu
Ġm Ãºsica
Ġjo ale
ĠDub ai
Õ¡Õ ¼
p y
era ciÃ³n
Ġbul ate
ive au
Ġ24 0
s led
Ġr á»į
Ġl Ãºc
ĠB uk
Ġk eng
v on
Ġinter ior
is as
c al
ana f
Ġes ka
Ġde ve
Ġcu á»Ļc
ĠK Ã¼
Ġels Åĳ
ĠW ash
Ġed uca
ĠK ut
m ÄĽ
l on
Ġw en
Ġg ibt
ĠÄĳ á»ģu
Ġrela cion
Ġh á»Ļ
al jer
ĠD um
Ġn este
Ġh ast
×ķ ×
un kt
Ġn z
ĠF ord
ti em
Ġsl ot
ĠD ES
Ġse a
Ġkat egori
Ġdup Äĥ
H L
Ġtech n
Ġse zon
er is
Ġch or
Ġb uc
f ung
Ġkir j
ti en
ĠØ ¯
Ġmuka an
ĠN ev
Ġk ev
Ġch Æ°a
it are
der n
Ġlok al
Ġak hir
Ġ10 8
ort en
at ul
ĠT E
str uk
Ġva j
Ġa ba
ä »
Â ¶
uz u
Ġho use
Ġdre jt
ri que
ĠÊ»o e
aj Äģ
vo ir
Ġsig n
Î· ÏĥÎ·
ĠtÉĻÅŁ kil
á»į wá»į
Ġs ust
Ġr h
Ġlive internet
Ġkw eli
ov ej
Ġde j
ĠÄĳá»ĭ a
ĠpÃ«r dor
Ġcond uc
ĠP on
ke j
Ġtek nik
Ġpri vat
Ġm ohl
eb y
AT E
ĠL av
ad Ã³
Ġit em
ÅĽ my
in ek
Ġm ele
Ġc Ã¢
Â ³
Ġobs erv
p ri
ĠW ars
Ã Ŀ
Ġâ Ĺ
Ġp ils
Ġd ito
Ġc ic
Ġ[ ...]
ma inan
l uk
Ġvy b
or er
f og
b est
Ġi ep
ĠTr ong
P T
Ġd l
ĠE V
Ä¼ as
v ÄĽ
Ġt ovÃ¡
uj u
Ġ uri
ie cie
Ġb Å«t
ĠÎ± Î¾
Ġs ong
un es
Ġy Ã©
Ġ10 3
Ù Ģ
ver pg
ix en
ĠK ind
Ġ; &
Ġdi ese
ĠPerso ane
Îµ ÏĢ
Ã³ Ì£n
ad r
Ġser vi
iv Ã¤t
T ube
ĠHot ell
ĠT ol
Ñ İ
e arch
rag on
uf en
Ġro t
ĠTr ad
Ð Ĳ
h b
ĠÅŁ ey
r oll
ĠN orm
us el
Ġá»į pá»įlá»įpá»į
el de
ĠÐ ľ
Ġte Å¼
Ġh Ã¥
ur ity
ĠB ij
p us
Ġt ule
v Ã¤r
ĠÃ§ do
Ġb ahan
ĠÏĢ Î¬Î½
Ġku u
Ġenerg ia
ĠN á»Ļi
fa at
ĠÅ¼ y
ĠÃ¶n ce
Ġm Ã¶v
eri cht
ĠM ele
ĠBr and
ĠCh r
Î ĵ
os es
ek an
Ġd itt
in ud
ĠkÄģ u
Ġmak ahiki
Ġpod ob
Ġpartici pa
Ġlitt le
ĠØ§ÙĦ Ø¹
Ġsek arang
ĠP apa
Ġ, .
Ġex erc
emb le
Ġc ik
ĠÃ®n tr
ĠH em
al om
Ġj Å«s
Ġhant le
Ġet ti
Ġa te
Ġ7 50
Ġst ort
Ġt Ã¡
Ġnd io
Ġal tre
ĠTh u
ap ar
aki wa
Ġut en
Ġdep art
Ġpla c
Ġit se
Äĥr Äĥ
ie go
Ġn n
Ä« ta
ĠÎ ¯
Ã¸r er
ho use
ĠÄ° stanbul
ĠØ ´
Ġqen Ã«
Ġop l
Ġsed ang
Ġdi as
am eni
Ġchi ar
Ġgi Ãł
Ġal ways
be h
Î¿Î¹ Î½
ĠV all
Ġded ic
ĠQ ar
Þ ¬
Ð¸ ÑĢ
Ġpre ven
Ġnog et
Ġb one
ujÄħ c
agu zi
ĠmoÅ¼ na
p Ã«r
g ro
Ġmas yarakat
ĠAmer ica
Ġsp a
Ġsek tor
Ġpot reb
ĠaÃ§ Ä±
Ġdag en
uv u
Ġs ki
Ġs itt
Äĵl Äģ
ĠB ack
itu re
Ġaut res
Ġk áº¹
ĠD S
ĠCon f
Ġges ch
li ÄŁi
AS A
Ġol uÅŁ
Ġd ai
ĠDon na
ji an
Ġe ar
ĠInst itu
und s
Ġhe el
Ġb ast
y el
z as
ys te
ĠRe fer
Å¾ a
Ġde ÄŁi
Ã² a
il kan
Ġop ortun
io a
Ġpr iekÅ¡
Ġb áº¥t
Ġamb aye
Åĳ r
Ġs vo
it ing
Ġsm Ã¥
Ġcz ÄĻ
g h
ativ es
Ġke ia
Ġdur ant
Î³ Ïī
R o
ĠN os
ĠÎ½ ÎŃ
Ġho Ãłn
ĠTur k
Ġpun k
ki ÅŁ
Ġcon vers
Ġc urs
r ir
h ot
Ġpar lament
Ġan terior
por ta
ĠÅ¾iv ot
ĠðŁ İ
Ġel se
Ġst ock
Ġsp Äĵ
Ġq on
ÏģÎ¯ Î¿Ïħ
in to
ad el
Ġmah doll
Ġmw enye
ER T
Ġkom b
ĠSM S
ĠN uk
Ġo yn
Ġtek st
Ġproduc ts
Ã Ļ
ĠS ign
ĠM me
ĠC od
Ġsel ama
ĠãĢ ģ
Ġmis mo
ĠL id
ĠA U
ĠM edi
ki ch
ĠR ez
Ġw ag
ĠO c
ĠÅ¡ kol
l ana
Ġal ue
Ġkon fer
Ã¦ n
ĠN Ã¥r
Ġ$( '
Ġat ti
áº¥ m
ul li
Ġuk u
Ġnie uwe
ĠM ok
Ġh ili
ĠU ng
Ġstr ess
st ell
id ge
aha wa
ĠÎ¸ Îµ
Ġve h
Ġh ade
Ġgo ing
ÉĽ ÉĽ
Ġ10 6
P N
Ġilg ili
Ġbat la
Ġprime ira
Ġd Ã©p
ĠS it
Ġ10 9
Ġtun n
kat apos
Ġs ÉĻn
zÄħ d
et z
Ġit a
Ġh Ã£
Ġfran c
el ta
ay d
Äį nosti
wa Å¼
er va
ĠH ong
Ġa ja
ĠÎ´ Ïį
y h
ud ad
ed ig
Ġs int
ĠhÅį Ê»ike
Ġdur um
Ġc over
ĠB un
Ġ Ā
Ġgo ogle
Ġb la
ez Ã©s
uh kan
Ġil alim
isi in
f ace
Ġa Ã±o
as ter
ĠH ere
Î¯ Î¿Ïħ
ek k
ĠÏĢ Î¹Î¿
ÏģÎ¿ Î½
Ġtul eb
Ġsu as
Ġgeh iago
Ġdig unakan
Ġs Ã¡ng
iz lik
ĠÏĢ ÏĮ
imit ed
Ġph oto
ĠDe utsch
Ġ11 2
Ġop s
c ell
Ġva xt
ĠÎ± Ïĥ
Ġk osten
Ġsa am
ĠT ru
Ġ Ø§
áº¿ p
ĠSec ret
Ġqual ity
Ġy acute
Ġistif adÉĻ
ĠGe orge
Ġ; )
Ġfor hold
EN S
Ġsp ol
isu us
Ġprofes ion
Î¼ÎŃ Î½Î·
ot sa
Ġv yt
j Äģm
Ġpi hak
Ġpers one
Ġin om
ir ika
Ġza o
Ġtil f
Ġli q
Ġ4 50
ograf ia
Ġr im
Ġqu ot
Ã¤m Ã¤n
Ġ199 1
ĠGes ch
Ġpro ti
alit ate
ĠkÃ« to
Ġdet ta
Äģ di
is ing
Ð°Ð ¹
o ho
ced es
Ġsoci ale
Ġfun c
AN O
ĠÏĦ ÎŃ
ora ciÃ³n
m edi
ur so
ond en
ĠW omen
ĠU b
ĠP riv
Å¡ as
h on
ed ade
Ġyang i
Ġrap port
Äħ d
Ġb Ã¶
Ġst Ã¥r
Ġc ri
Ġan aliz
lar ida
Ġpesso as
ur ut
ĠtÉĻrÉĻf indÉĻn
Ġer i
ĠLe on
t Ã©k
b sp
Ġï¿½ï¿½ï¿½ï¿½ï¿½ï¿½ï¿½ï¿½ï¿½ï¿½ ï¿½
ĠF ire
in ik
at akse
ag ne
Ġwan ne
Ġsub st
ha us
Ġko Ê»
Î³ Î®
in chi
Î¯ Î¿
ÅĻ ej
s Ã¤
Ġe zt
Ġa ver
ĠT ub
ĠPort ugal
Ġre pre
m ond
Ġlang sung
Ġg un
Ġz hvill
Ġid ag
w áº¹
Ġkter Ã¡
Ġbet ter
ĠAut hor
pos ta
ĠÄĳ á»ķi
ÉĻt ÉĻn
in f
ĠC ro
val u
c ÃŃ
Ġmig li
Ä« d
y ak
miss ion
Ġc ell
het Åĳ
ĠÏĩ ÏģÏĮ
ĠÕ ©
Ġr uh
ÅŁ ik
Ã¤l le
Ġver t
Ġins ta
Ġbos hl
ch os
ĠS W
Ġr Ã«nd
ĠE f
ig us
_ C
ak te
Ġya itu
ĠU hr
yo te
va a
ĠA pa
Ã©l Ã©
Ġth ree
ĠE ast
ĠBo x
Îº Î¿Î»
F or
Ġse ver
Ġad ik
ir di
Ġoh ne
Ġob at
Ġjen is
ĠEx press
Ġ ÏīÏĤ
r era
m aya
AT ION
Ġr Ãµ
Ġp se
Ġl sa
Åĳ t
Ã¡ vel
i ja
Ġn ast
Ġc urrent
Ġarte an
Ñ ĸ
us ha
ĠÖ ĩ
Ġli á»ĩu
Ġdu y
il ÉĻn
Ġp Ã´
Ġa Ê»e
v ald
imb ali
Ġaká»į ká»į
Ġko os
ent lig
as es
ĠÎ¤ Î±
Ġfr Ã¥
ĠMan uel
ĠH ur
Ġblog spot
Ġber l
Ġ000 0
Ġth Ã¢n
Ġt unt
Ġm use
Ø± ÙĬ
ter ing
Äĵ jo
Ã¤ hr
B C
ac ie
5 00
b w
ant il
yt y
sm Ã¥l
ou ch
3 00
Ġv ul
ĠIn v
Ġmes es
ÎĹ Î£
ĠJak arta
ĠF A
m Ã¤r
Â ¤
M E
nÃ© es
Ġet ish
ĠL iga
ĠCan ada
ĠRom an
Ġi ra
Ġcons id
Ġtil bud
Ġs á»Ł
Ġi er
Ġmais ha
ĠH v
Ġm ye
Ġla ila
Ġvy u
ĠTid ak
B S
Ġpr eto
Ġm z
Ġbate an
Ġáº¹ gbáº¹
Ġv ib
Ġparas ites
Ġfor d
ĠV ÃŃ
Ġexc lus
ĠS OS
re an
Ġsj Ã¤l
Ġl emb
Ġngo Ãłi
Ġtre g
ĠPro t
iy ati
Ġz il
Ġil dÉĻ
ĠAN D
Ġpal ju
Ġp ip
v s
ĠG Ã¼
Ġp az
Ġeg Ã©sz
ĠBer g
Ġg um
Ġ á»©ng
Ã¡d za
Ġtec nolog
ĠhoÊ» o
Ġfor n
mal ink
Ġrespons abil
ĠF otos
em ale
iss en
â Ĥ
ĠÏĮ ÏĢÏīÏĤ
emp el
N S
ĠP OL
Ġth ings
Ġsep se
Ġold id
Ġdur ing
Ġchuy Ãªn
or ar
em es
B L
Ġs uka
Ġf ase
d Ã¶
tic al
Ġk Ã¸
T ype
Ġod am
Ġkup ata
Ġfiles _
ĠProf ess
ĠHab er
h es
Ġbr as
Äĵ ts
v iz
Ġuz un
Ġst yr
Î¬ Î¶
Ġmi x
Ġmak emake
ov ali
ic ation
Ġtr áº»
ci pl
Ġk redit
Ġs ÉĻr
Ġkontr oll
ve j
Ġfet isisa
Ġe fe
ir im
Ġe er
Ġped ag
Ġnov embre
ĠC ard
ÈĻ o
Ġw z
Ġpos ible
Ġfal ta
ĠA br
Ġsp i
Ġcer ca
ĠAs ia
th ers
lan adi
hl ah
Ġhv ad
ĠP E
Ġr ib
ĠK Å«
Ġset elah
ĠK jo
is ation
ch ilik
Ġx Ã£
Ġas em
ĠH ua
Ġta as
Ġd w
erb itz
kiÅŁ af
Ø§Ø ¹
ĠTe en
r r
na u
Ġtim es
up p
st ru
Ġfun ks
ĠW ikipedia
ÃŃ lia
iy esi
Ġtal de
ur ilor
om in
ĠR O
ÉĻr ÉĻk
abil ity
ĶĢâ ĶĢâ
Äį nÄĽ
fi q
ĠMer c
ĠK az
Ġma and
Ġk eny
Ġak ti
ĠK R
Ġmb al
ĠbÃ½ t
Ġbiz nes
Ġsl im
Ġr isk
Ġq or
Ġq az
Ġcam era
Pr ice
AS T
Ġt ÉĻl
Ġt iz
f ia
Ġr Ã¥d
Ġb io
ĠRespublik asi
Ġv od
k um
Ġj oh
Ġc Ã¢nd
Ġr and
ĠScar pe
Ġu g
Ġm áº¯t
ĠJ our
eth ing
Ġva id
Ġpig ment
Ġin ner
ÎŁ Î£
Ġqu Ã¨
ka ch
Ġpro por
Ġmil ion
P E
Ġil s
yr ight
ĠÐ ĵ
Ġbil m
j ade
Ġm oney
oc ol
ĠEd uca
le i
is ine
Ġmont h
Ġdiff ic
ĠT ER
Ġq iz
Ġmel hor
Ġj Ãº
Z W
Ġsosi al
om es
nie Å¼
at on
ĠA bu
Ġcent ral
Ġar s
ĠStand ard
m aks
Ġpro y
Ġc idade
ss on
ĠP ia
Ġom dat
em al
le b
Ġe us
Ġbel iau
n oc
Ġmbal imbali
Ġcon ver
ik kel
L ER
Ġtal ab
Ġdem on
ĠH ost
ar nya
Ġy rit
Ġda it
Ġ* *
as to
amp le
Ð° Ñģ
am ist
Ġr áº±ng
ĠH oll
Ãł s
ge w
ĠDen ne
Ġsk at
lÉĻr ÉĻ
ĠÃ§ at
Ġig ba
Ġdat ang
Ġar ra
Ġki f
ĠG overn
ol ong
Ġha wa
ama a
EN A
Ġli el
ĠP ert
ah at
j eve
ĠP ut
ari fa
Ġt ÃŃm
Ġsegu ir
ĠJ A
Ġt ev
Ġku v
ĠW ork
ĠSver ige
ĠM h
Ġw yn
Ġter t
ĠP emb
ĠT amb
ĠÄĳ Ã¡nh
Ġmog elijk
ĠhoÊ» i
Ġd Ã¡
let es
B I
Ġt ento
Ġs atis
u ela
on ne
j ons
Ġt uz
Ġk oll
ĠA ta
je j
Ġmod er
Ġby la
ĠK ons
Ġko ho
Õ¡Õ ²
b ÄĽ
ĠGre at
ill ende
Ġt ena
Ġel ke
ĠK W
ĠÃ¼ m
Ġkaik ki
ĠA re
um ento
ul ette
N C
Ġth á»©
ĠFil ip
Ġna Å¡
i q
Ġg ap
Ġh ivi
Ġac count
ĠSE O
ĠP end
r ze
ĠI sh
R e
Ġd j
q am
Ġm ampu
ĠR ot
ĠAn kara
Ã¶g lich
Ġpos ibil
ĠmÃ¥ nga
Ġrec ent
Ġper k
Ġka Å¼
Ġ199 3
Ġr ÉĻ
Ġp ack
Ġbed re
Å¥ a
inta ge
Ġx izmat
Ġch Æ¡i
Ġb á»į
ĠG ir
ÃŃs tica
im bo
ĠÅ¡ k
ĠM L
Ġmass age
ĠM M
Ġl ige
fa a
ĠÃ¥r s
Ġf ana
Õµ Õ¡Õ¶
Ġdav om
ĠUR L
um os
Ġtak Å¼e
Ġla innya
ĠTh at
um as
ĠPro vin
Ġt atu
Ġkom pet
nie js
f et
ak ers
Ġl ux
Ġsed an
zie j
Ġsit ten
Ġmur ah
ĠÕ Ń
ĠE b
Ġdituz te
ĠFrancis co
ow ym
Ġkdy Å¾
vv ÉĻl
ĠÃºl tim
ita ji
ĠTot al
ess Ã©g
Ġw ap
ĠE h
Ã¦r t
tion en
c ja
Ġform ul
Ġ, ...
Î² Î¿Î»
us ay
E n
ĠÎ±Î½ ÏĦÎ¹
Ã³ ri
ĠÅŁek ilde
Å« ras
ĠW ie
k ÄĻ
ay di
Ġv ost
Ġh apo
ĠS ony
Ġt us
Ġberk ata
Ġberb agai
áº¹ g
_ id
y p
f ten
ra va
Ġperso as
ĠÄĮ esk
Ġibex_ room_grid
G R
r h
Ġmam l
å ı
er on
ĠV u
our ce
Ġto ol
Ġekstra utstyr
ĠB ac
Ġki Ê»i
itu en
her Ã«
o en
az u
ĠP ub
ĠR A
ĠO ly
et l
Ġd aca
ĠM s
ich o
Ġpres yo
ĠNam un
ĠD eze
Ġm j
Ġh ace
l um
b ere
ĠK us
l Åĳ
IL I
Ġw ahi
Ġnam un
Ġm wa
Ġkit ab
Ġ6 50
y am
ĠÎľ Î±
Ġch áº¿
Ġb izi
ĠP onte
ch ez
ĠV ik
Ġnj oh
Ã¡t Ã©k
Ġg ent
F L
Ġth otÃ«
Ġc ung
ĠM AN
Ġga at
Ġche ats
ĠD ou
ĀĀĀĀĀĀĀĀĀĀĀĀĀĀĀĀ ĀĀĀĀĀĀĀĀĀĀĀĀĀĀĀĀ
ÏĦÎ· ÏĤ
ÅĨ i
ĠÂ ¢
ĠH ai
unt ament
j Ã¼k
Ġweng ine
Ġman usia
l Ã¸
Ġber g
Ġh olo
Ġd Ã¶v
Ø§Ø ¦
d ens
Ġsv oj
Ġi bi
id mÉĻt
ĠO ld
om be
Ġspeci fic
Ġin den
Ġaw ay
iecie Å¡
Ġpe a
Ġb ie
ho f
Ġg ente
Ġk ni
Ġe kan
w od
mi er
Ġtu o
Ġ. /
c za
b ÉĻ
ĠT ip
Ãº de
der ing
ĠM á»¹
Ġlar ge
ufac tur
ep s
at uko
Ġsu v
Ġa yn
Ġtod ay
ÉĻf ÉĻr
l Ã¦g
Ġval g
Ġh itz
ĠN Ã£o
Ġr ate
ĠC osta
r Ã¡n
Ġr rit
Ġmali it
ĠS ong
ĠM D
Ġnum ero
ec ta
Ġd Ã´
ĠO ch
áº¯ p
ed el
ĠtÃ¶r t
ĠÅŁÉĻ xs
ĠÃĸ n
Ġqil ib
ĠT ec
Ïĥ ÏĦÎ¬
il ine
am ad
Ġbiz tos
áº· ng
Ġme j
ĠT ay
Ġth ÃŃch
Ġsin u
Ġma ail
Ġlib er
Ġkon c
k ek
ij e
L e
Ġti es
Ġsex ual
Ġmerc ado
Ġj ong
Ġcon j
Ġ1 x
Ġ) -
ho i
ÏĩÎµ Î¯Î±
z ec
Ġpro tagon
Ġizm ant
ĠgÃ¶ ra
âĢ ĵ
Ġso us
Ġest rat
Ġad op
t Ã¶
Ġf ru
Ġcom bin
Â ¾
ĠÃ©ta it
Ġz ile
Ġfak tor
o ord
ĠF OTO
ite Ä¾
Ġn Ã¼
mas uk
il and
Ġd acÄĥ
ĠG ew
Ġre ac
Ġ10 7
alar ni
Ġur Äį
Ġminut es
Î¼ÎŃ Î½Î±
ĠDan mark
is l
Ġwan ita
Ġtom u
k si
ĠÐ Ķ
Ġdun ha
at eko
Ġer g
Î» Ïħ
Ãĥ O
ar di
ĠÎŃÏĩ Î¿ÏħÎ½
Ġwh ite
Ġhab ita
Ġbul un
Ã¤r t
ell ig
k Ã¶d
ah on
ĠK L
Ġkat ta
Ġal te
Æ°á»£ t
Ġtay yor
Ġchuy á»ĥn
fa ch
Ġn atuur
Ġin iti
ĠB la
Ġw Äģ
Ġsz erv
Ġha j
Ġdec lar
Ġa ya
ĠA ko
k Ã¼n
Ġh ela
ĠI p
Ġl ir
od s
Ġpe u
F C
Ġk ura
ĠM emb
p ass
Ġhav de
ĠÃ¸nsk er
Ġb ash
am inen
Ġl ess
Ġcon he
v all
ert en
Ġw edi
Ġq ÉĻb
Ġ, âĢľ
c ÉĻ
ĠEn ter
ĠE P
ĠÊ» Åį
Ġhav ia
ĠR S
oj o
Ġd ad
Ġph otos
ĠM ent
aw in
Ġr Äĥ
Ġr ych
Ġinclud ing
is ir
Ġbab y
ĠT um
m ana
ĠR ew
ĠMatrimoni ale
ĠÃ¶ r
Ġu ud
j our
Ġpri x
Ġn áº¿u
áº¿ m
Ġb amb
Ġ3 20
im is
Ġcomp lex
ÏĥÎµ ÏīÎ½
Ã¼ tt
Ġi ru
Ġhor ret
ĠIn de
Ġal aye
ĠG irl
Ġstr ong
Ġme ie
ĠâĢĻ .
Äģ ri
t v
ation ale
Ġkomun ik
Ġs Äģk
Ġn x
Ġgi áº£m
Ġho og
Ġav a
zi en
Ġwanne er
ĠnÃ« se
Ġi bu
o ja
M AN
Ġval Ã³
Ġmil j
Ġf id
ER E
ens ch
ĠL ow
ay ÉĻt
Ġ ÖĦ
ĠO pp
ov ou
l ok
enti al
n jÃ«
Ġprofes ional
Ġb aka
r Ä«
Ġst ory
ĠnÉĻ tic
Ġdá»± ng
ĠS O
Ġol lut
ÅĤ ug
Ġsit Ã¤
p ont
ol id
Ġd Å¯
ĠC ore
Ġse is
Ġdec is
Ã© v
ĠâĢ ¬
Ġel imin
IN D
w eb
Ġegit eko
il miÅŁ
Ġquy áº¿t
ster dam
Ġlav oro
Ġkec il
l ingen
el sk
ĠAd am
end ing
ĠÎ¼Îµ ÏĦÎ¬
Ġc ru
Ġm itt
j ai
ish da
OR D
Ġba wah
Ġy ks
Ġm ob
ĠB ob
Ġn ell
Ġd Ã«sh
Ġob chod
ĠGl obal
Ġiden tific
ich er
Ã¡n o
Ġmet er
ĠM AS
ĠG T
ash tÃ«
and ang
Ġo ud
Ġkemb ali
ĠB ew
ĠvÃ½ rob
Ġpers oon
Ġdet ail
ĠT api
an eng
Ġv isi
Ġsal g
d ÄĽ
Ġsebel isa
Ġpod em
Ġto ta
Ġkun st
ĠF ig
Ïĩ Î¹
orm Ã¡ny
Õ¡Õ½ Õ¿
ÏģÎ¯ Î¶
Ġune i
Ġrestaur ant
Ġcontin ua
Ġb ela
end as
Ġpagpap alaki
Ġag begbe
ĠMuhamm ad
ĠC over
ann es
in ig
Ġd Ãº
ĠJ ar
Ä«g Äģ
Ã¤ ti
Ã¡ tica
Ġo shir
ĠM asa
Ġ} );
Ġtu á»ķi
end ed
at ment
Ġon u
ĠR oss
ĠB uy
Ġy ord
á»± a
inta h
ĠÏĢÎ± ÏģÎ¬
Ġt ÅĻ
Ġma e
Ġj oc
omb res
ĠO y
ad amu
Ġdom in
Ġdev am
g anda
val g
f re
Ġt ind
Ġre gi
ĠG uar
ĠÏĥÏħ Î½Îµ
Ġmas kin
Ġez ag
Ã© f
us ega
s b
f att
Ġfor di
ÅĨ Å¡
Ġl á»Ŀi
Ġf Ã¼
iza Ã§Ã£o
Ġout ras
Ġmod e
ĠdÉĻ fÉĻ
ĠÕ° Õ¡Õ´
Ġk ult
au ti
Sel ector
ĠPrez ident
ĠP Ã©
áº· p
Ġm ola
Ġf ai
ur ing
mo us
ĠKat ika
em t
ak eng
war z
ik en
eb il
ĠF inan
alit as
Ġah ol
ĠEn s
os te
Ġá¹£i á¹£áº¹
ĠT eh
å ¤
Ïĥ Î¹Î±
li cht
ĠhoÊ» on
ĠYou Tube
ug an
ĠK ultur
Ġdes prÃ©s
Ġja w
ĠG ames
Ġber d
Ġap res
un que
d Åĳ
Ġh ov
ÄģÊ» awi
sz Ã¡g
Ġti áº¿t
Ġt Ã©r
ĠÂ ¥
ĠT ai
Äĵt as
Ġf ic
ĠØ¹ ÙĦÙī
Ġh Æ°á»Ľng
ab et
Ġl uar
Ġig az
ĠR is
ti p
Ġbay i
al ama
v ing
ER A
E l
ĠB raz
Ġf estival
Ġ[ /
ĠL ek
gy an
Ġ ă
Ġj wa
Ö ĩ
Ġfant ast
Ġz g
Ġl ys
Ġad ip
ĠJ ud
w eli
b n
ĠâĢľ ,
Ġá¹£ ugbá»įn
Ġc v
Ġag ora
Ut ama
ĠÏĢÎµ ÏģÎ¯
Ġsz Ã¡ll
Ġwe we
Ġol ika
Ġma Ê»
Ġg eli
Ġdivers e
Ġby Å¥
f ilm
ĠDomain Utama
ĠB C
Ġviel Ã¤
ĠpÃ¤ ev
Ġark adaÅŁ
Ġa zi
ĠLe i
Ð½ Ñĭ
un ak
mi en
ali an
iz za
Ġhaqq Ä±nda
skie j
d it
ĠZ A
Ġtar get
ĠC ode
ĠB á»Ļ
Ġperson er
Ġem plo
Ġo ta
Ġamb apo
w alan
Ġg id
f ast
Ġvir ksom
ĠB AR
em ek
Ġpro q
ĠÃ£ ÆĴ
ĠM usta
l Ã©s
Ġem pre
ĠB und
ch at
Ġent r
Ġani q
h eder
Ġent ry
Ġinstr ument
Ġder for
ĠPro gr
u in
oll en
Ġm Äģl
Ġj w
Ġh ok
ist y
Ġbi ed
ĠÃº t
ĠK up
ak ai
Ġma ch
Ġfamil ie
Ġen kel
Ġpagb aba
Ġmar c
ĠHo e
Ġn á»Ļi
ĠVi et
Ġn enÃŃ
Ġb ib
Ġl á»ĭch
qu et
ĠU TC
Ġk ud
Ġg ig
ĠpÅĻ es
or di
at k
ĠCh ristian
ĠA hm
az z
áº± m
ci i
m 2
ĠÎ± ÏģÏĩ
Ġpas ar
ĠM Ã«
ĠM Ã©
lip uri
Ġsz olgÃ¡l
Ġmin u
Ġm ora
ĠK B
ĠÎ Ĩ
Ġv á»«a
ĠM ÉĻn
ĠL l
ĠEn erg
ant ar
ĠT ime
ĠF emei
T o
Ġth áºŃt
ĠC lar
ĠArtik el
ÏĢ Î¯
Ġs Ä±r
Õ¥ Öģ
Ġho op
Ġamal ga
ĠK Ãµ
Ġ11 1
r Ã³l
ĠÄ° l
Ġce i
Ãª r
in ed
Ġest as
Ġa ÅŁa
n ap
b us
Ġjob b
Ġag ent
ĠW an
ĠVo us
Ġpr ak
AC I
Ġpap er
Ġn la
j aya
Ġus er
Ġg á»į
Ġa il
Ġ ãĥ
Ġch er
ĠR ac
Ġpr Ã¡v
Ġenk elt
Y S
ay u
Ġcompr ar
ĠSing ap
atu ak
ĠM AT
Î¾ Îµ
r iko
itz eko
Ġá»į dun
Ġat ta
dag an
Ġn iv
ĠGol f
ul ah
Ġnod ig
Ġber ada
ang iz
Ġprost itutas
Ġt are
Ġpod le
Ġfil me
ĠÄĳ áº·c
Ġik us
Ġl Ã¤m
Ġf y
Î¼Î± Î½
us ko
m ur
Ġkut oa
Ġnep iecieÅ¡
Ġc ine
Ð ¶
Ġpal vel
ĠF M
ĠlÃ¤ ng
ĠrÃ³w nieÅ¼
Ġo o
Ġal iy
ick Ã½ch
Ġ3 000
ak ia
ĠÕ ¹
Ġin ne
Ġbr on
Ġb olo
Ġ à¸
Ġme i
m Å±
Ġd d
ĠiP ad
Ġf jal
dek lar
ĠÏĢ ÏģÎŃÏĢÎµÎ¹
Ġsta y
ĠW in
ub i
ĠU sh
ani an
ze ch
Ġâ ģ
Ġva qt
Ġb Ã¤
ĠRe f
Ġ{ "
verpg bel
Ġhy vÃ¤
w h
Ġf uer
Ġv Ã«r
Ġv yd
Ð¸ Ñı
ro pa
Ġmin ister
Ġb ort
ÉĻs ini
Ä±ÄŁ Ä±nÄ±
ĠLu is
Ġs uks
is ang
Ġn ende
Ġ11 6
Ġt able
Ġsh ar
ele a
ĠÅ ī
t in
Ġmani fest
ĠFr om
ÄŁ itim
Ġna cional
Ġl ief
ĠPR O
Ġriv oj
ĠÎĵ Î¹Î±
Ġteg en
Ġnom Ã©s
Ġ} }
Ġes an
ok ia
le j
Ġw az
Ġ. âĢĻ
diy i
ier bin
Ġda x
ĠP ack
å ħ
Ġsel alu
Ġop ini
Ġc itt
Ġtet ap
Ġdek lar
Ġb Ã¬nh
oh i
ass o
ĠÅŁ e
Ġde ÄŁer
ĠSer ver
ĠB ai
ĠBM W
Ãł m
Ġth anh
ĠK áº¹
Ð°Ð ´
Ġte ht
Ġl leg
AS I
Ġre form
ig ner
ĠÄĳ áº·t
Ġdz iaÅĤ
ÉĻ zi
port un
ĠOkt ober
Ġ23 0
Ġlib re
Ġvol gende
Ġm ans
Õ´ Õ¡Õ¶
_ R
ĠNo us
ap ter
al Ä±k
Ġng ata
Ġmaa aring
k ed
P ress
Ġs á»©c
ĠS yn
ĠMil ano
ov ala
ha uri
_ S
ĠM all
al áº¹
Ġjed nak
ĠPed ro
ÉĻ ni
Ġmo e
Ġalt ri
ĠK O
Ġpag katapos
ĠB ok
Ġ12 2
ĠB od
Ġ11 4
ÅŁa q
Ġbr ing
ma a
Ġh uku
Ġap enas
ut ul
IN O
Ġtá»ī nh
Ġor den
c ont
Ġman ip
Ġquery Selector
ĠG eb
ri cht
Ġn á»¯
Ġp t
AR E
Ġs ip
Ġby lo
ĠJ av
ĠB ru
ĠÄį lÃ¡n
Ġont w
Ġlu Ã´n
Ġe es
ĠA udi
ob us
Ġx Ã¢y
esh me
at eg
Ġd ati
Ġ. âĢľ
Ġconstru c
est is
Ġj Ã¤t
m esi
Ġinc or
ent zia
al and
Ġ13 5
Ġnev er
Ġhes ab
ĠÎ¼ÏĮ Î½Î¿
Ġl amp
l ot
ik un
ĠAustr alia
ik ana
lad Ä±
Ġsom ething
Ġdat os
Ġall t
ĠE ra
aga wa
áº« u
Ġth ata
Ġlets atsi
ia al
Ġom i
Ġbene fici
ÃŃc ulo
it Ã©s
et ag
ang s
Ġh ig
Ä¼ i
ĠÎ± ÎºÏĮ
Ġ' );
Ġent rada
ab led
ĠÄį er
Ġts eba
ĠF ant
on os
ĠNguy á»ħn
âĤ ¬
Ġka f
w ch
Ġpied Äģv
ĠCon trol
ĠB is
eng ah
Ġkom pon
Ġb lij
Ä±lÄ± b
arak ter
ĠK is
ĠB Äĥr
at al
ĠÏĩ Ïī
is kt
Ġvik tig
Ġvast u
Ġ ÏĪ
ÏĦ Ïİ
z ion
ĠM att
ï¿½ï¿½ ï¿½
Ġaz ken
Ðµ Ñģ
or ra
Ġz iy
Ġpos ition
Ġhj Ã¦l
Ġcon ven
Ġz ast
Ġw all
ĠmÃł u
Ġkom ent
Ġe ÅŁ
ĠSeri es
ĠÃ© qu
Ġest ud
ĠR h
he o
Ġl ima
ĠG Ã¶r
ĠAn ne
r ast
row ser
ĠP etr
il ish
alam u
Ġra port
ĠC and
aa aa
Ġhj Ã¤l
y áº¹
int za
ĠÃ§ ÉĻk
Ġam an
ĠN ig
ÏĮ ÏĦÎ·
ent ra
ĠÏħÏĢ Î¬Ïģ
Ġkab isa
ĠMul ti
ir iki
ÏĦÎµ Î¯
N Y
Ġhot els
ga an
Ġchild ren
Ġb áº¯t
ĠF S
Ġcomer cial
Ġsah ip
Ġd b
Ġav ant
Ġaj al
ĠE K
ica Ã§Ã£o
ell ige
ĠÃ¶ÄŁ ren
Ġz wi
ĠdeÄŁ il
te in
egu ir
ag n
Ġg ames
st el
ĠÕ ¨
Ġaga in
Ù ĭ
p f
ess er
ï¿½ï¿½ï¿½ï¿½ ï¿½ï¿½ï¿½ï¿½
Ã¥ ende
ap en
ann el
Ġuz ÅĨÄĵm
Ġtra vel
Õ Ń
ĠC F
ĠC ena
ĠâĢľ .
ĠÕ Ŀ
Ġps ych
Ġp ep
Ġco untry
Ġn itori
ĠBit coin
t ter
lar ining
Ġl uz
Ġanc ora
ĠMa in
w end
f Ã¸l
Ġwith in
Ġbez ala
anc er
Ġsa x
Ġgar ant
l Ã¼k
Ġre h
Ġmell om
å ľ
Ã¼ kl
Ġnos a
l ist
ab ang
ud d
el eza
Ġrez ult
Ġb j
ell ow
am t
Ġk s
lÉĻr ini
at lan
Ġn ikan
Ġch ange
Ġ ÈĽ
Ġseg unda
es or
Ġd ini
Ġlam ang
Ġb ua
eto oth
Ġnj ia
Ġl ad
Ġb ado
Ġsp olo
Ġalgun s
ĠEurope an
Ġ11 9
Ã«s isht
ald ia
Ġdan Ä±ÅŁ
" "
el ako
Ġw erd
ĠvÃ¦r t
Ġor q
Ġáº¹ ya
ĠIn sp
ÃŃt ulo
d b
Ġvaz hd
Ġo q
Ġay t
ĠSp iel
ĠA th
Ġter masuk
ĠT ap
l t
Ġg ele
Ġalle en
e ur
ON A
Ġper mit
å ®
m ai
Ġmik ro
== ==
Ġig ual
ĠS ac
Ã¼ c
ten i
Õ¡Õ ¦
di q
ĠvÃŃ de
Ġn ale
Ġc iv
ic ally
Ġsour ce
Ġdz Ä«v
ĠI K
ĠBab y
Ġsta an
Ġdok on
Ġam at
rib un
ont on
ĠMw eny
lo a
Ġtá» Ń
Ġmá»į i
ĠF ed
Ġ Ë
ww w
I AL
Ġma q
Ġhart u
ist ro
ĠquerySelector All
ĠiÅŁ tir
Ġfe el
ĠS V
ĠB ere
el ike
ĠÎµ ÏģÎ³
te g
Ġláº¹ hin
ÃŃt ett
un ut
Ġexc ep
Ġch ini
Ġadol esc
Ġst yl
Ġsi en
Ġne ar
ĠkÃ¶z Ã¶tt
ĠÊ» i
Ġmil yon
ĠSt udio
om os
im as
Ġsesu ai
Ġin kiÅŁaf
Ġdem oc
ĠS ale
ot an
lag en
Ġyord am
om bo
Ġt ort
Ġf isc
Ġdec or
ĠMil an
Ġst em
Ġsl ut
ny mi
ar l
Ġil ma
Ġalt ra
ĠI sa
ĠC ase
il in
11 0
Ġwid th
ĠAr k
uts che
Ġe asy
ad ar
ĠÎºÎ¬ Î¸Îµ
Ġlab an
f ahr
H e
deklar asjon
ĠÏĥ ÏĩÎµ
Ġk ys
ĠW ed
Ġ) "
is tik
ik ke
Ġz Ã¡p
Ġaut hor
ĠO M
iyy ÉĻti
Ġb ada
ĠD y
Ġbre ak
Ġge e
ĠP ang
z na
_ m
Ġph á»ĳ
Ġdesc ription
ĠAfr ica
Ġ ula
ret o
L INE
endele o
Ġthu áºŃt
Ġc ea
est as
ers en
Ġbat en
ĠÏĢ ÏģÏī
ĠD ari
b ÉĻr
Ġwai wai
Ġu ÄŁ
Ġu te
Ġkur ang
Ġg ero
Ġfin ans
U E
ĠB oh
Ġh und
Ġd ni
ĠT ir
og e
Ïģ Ïħ
Ã©r ia
Ġham da
O O
Ġy orum
Ġro ck
Ġp ana
Ġm r
Õ¡Õµ Õ«Õ¶
ĠInd ustri
Ġsh ak
Ġmin ute
Ġconta c
Ġt ani
Ġhon etan
Ð ĺ
id h
ĠØ ®
Ġp Ã©n
ole wa
ine a
id ikan
1 20
Ġci utat
ĠSt ore
ĠL ind
ers ch
Ġkam er
z am
ol ta
F i
ĠJ y
Ġb ic
ĠK ik
c ov
Ã«s isÃ«
Ġk ino
d ater
Ġla we
Ġka um
Î´ ÎµÏĤ
m áº¹
z s
ĠÄ Ģ
Ġin u
Ġfe ira
UL T
Ġed it
Ġch od
Ã¡v Ã¡
ĠQ ui
ĠÅŁ ÉĻhÉĻr
Ġph ot
Ġb ru
ĠSp i
ir u
Ġtro p
Ġt Äģs
Ġs ant
Ġmen nes
ĠS ah
ĠH um
ĠA sh
Ġt una
ĠCom mun
en k
b ec
Ġmenc ari
ĠL ug
Ã¡c s
Ġg Ã©n
Ġav is
Õ« Öģ
Ġcur so
á»ķ ng
Ġb ahawa
ĠIn fo
Ġw w
ÙĬ Ø¯
ier no
ĠkÃµ r
enn es
oc e
ĠÃ¤ ra
Ġop tions
Ġb uz
al on
Ġva jad
Ġper mainan
Ġres earch
Ġex tr
ĠS ne
ä ½
Ġw aren
Ġcas os
Ġtrabal ho
ÅĻ enÃŃ
Ġt rip
Ġpl ata
Ġip in
Î½Î¿ Î¼
ch il
Ġra j
ĠB ER
ÏĦÎ¹ Ïĥ
Ġs isi
ĠnÃ¤ it
ĠH un
Ġkom en
orn ada
ong eza
Ġsin ce
Ãł ria
Ġg ere
Ġan at
ĠÎ² Î±
Ġpl ek
Â ¢
ĠnÄĽ k
Ġn elle
Ġ21 0
ÈĽ e
este d
Ġap abila
uj eme
ern es
Ġstr uktur
Ġbill ig
ĠS ht
ony mous
ch io
ĠÎµÏĢ Î¹Ïĥ
ĠÃ¼ t
d on
am men
Ġlo oking
at l
Ġshqip tare
ĠL ist
ĠB ara
Ã¼n de
ĠReg ion
Ġp ese
Ġmas ing
w ani
Ġtr or
Ġt Ã¡m
Ġdep ut
ĠM AK
j lig
Ġph á»¥
y es
ol are
Ġnh á»ı
Ġh ona
ĠMer cedes
ah t
Ġshk ak
ĠDi am
ĠMil li
Ġtr am
ĠSport s
ĠSe arch
g ers
C o
Ġt ÉĻh
ĠE li
ĠBudap est
j wa
fa ult
Ġhy vin
Ġmol emo
Ġl ort
and ra
ett el
ĠÏĢ Î»Î·
ĠD Ã¶vlÉĻt
Ġ... ...
Î³ Îµ
Ġinform atie
Ġwá»įn yi
Ġs aha
niec Ä«bas
Ġtro u
Ġmet a
Ġmah al
ĠJo an
ÅŁ te
Ã ¾
ak ap
Ġn ka
Ġkam era
Ġw onder
Ġes ku
Ġdar k
Ġan other
ĠQ ur
ĠO á¹£u
ĠKom m
ĠÄ ·
Ġp este
ĠF ors
u as
Ġor o
ĠA ud
ni er
erv ice
Ġiesp Äĵj
Ġen vi
Ġik as
ĠS ti
ra in
c l
Ġsup erior
Ġsim pl
Ġpro ble
ens o
Ġngh á»ĩ
it in
Ġal ikuwa
v d
Ġord in
Ð½ Ð¾
Å¡ enÃŃ
k ovÃ¡
Ġpart y
i ad
aham eng
Ġn ilo
Ð¾Ð ±
V A
Ġp ec
Ġm ati
Ġca usa
ÎµÎ¯ ÏĤ
ĠS pecial
ĠIm p
Þ ª
Ê»o he
am á»į
Ġp eg
Ġmus ik
Ġt ale
Ġhat ua
Ġbashk Ã«
ig r
Ġotr os
Ġkil om
Ġet á»įn
Ġdo ch
or et
ĠG ob
k Ã¼l
isk Äģs
Ġen joy
Ġju al
ĠCom m
y ÉĻn
Ġj ang
Ġund ers
Ġch ama
ke a
Ġkh et
Î»Î¿ Î½
ĠMon te
ĠÏĢÎµ ÏģÎ¹ÏĥÏĥÏĮÏĦÎµ
Ġz ote
Ġku iten
mas Ä±nÄ±
b io
Ġmak anan
Ġpos ky
or so
ĠM ond
ĠNaz ir
ag itan
ane j
Ġcomp uter
ĠPra ha
ĠðŁİ ģ
ĠÕ į
ĠÄĳ áº¡o
Ġter b
Ġrret h
Ġng ÉĽ
Ġn ight
Ġar qu
Ġkval it
hav n
Ġt esti
Ġlid t
and s
Ġdi am
Ġcomp os
w anda
Ġb ry
ĠSo ftware
od d
W E
L O
Ġy uz
Ġpartici par
tur es
am n
ĠÎµ Î¹
ĠÎ¾Îµ Î½Î¿Î´Î¿
Ġol eks
ĠC M
ÅĤ e
et her
ab as
Ġb anc
ĠS ak
ĠL ih
ĠC OL
Ġpos led
ĠSa at
ĠNatur al
qu ier
Ġl Ä«
Ġked ua
ur ia
U U
ig ay
ad Ä±
ÏĢ Î¬
Ġcom en
ĠMin h
á¹£ á»į
Ã¤k si
Ġot ro
Ġes i
Ġak ar
Ġac tion
S M
ĠÎ± Ïģ
Ġsek olah
Ġpjes Ã«
Ġcamp o
ĠK ed
Ġk ini
on ie
ish ing
Ġs endo
Ġj angan
ler de
al ang
Ġha f
Ġbed rij
ar ning
Ġg egen
ĠRo yal
ð Ŀ
áº¹ áº¹
k lar
Ġj ego
Ġm ela
Ġop g
Ġer ine
Ġg ec
Ġy ash
ÄĻ Å¼
UN D
Ġpo ch
ebab kan
Ġvar ia
Ġr ess
Ġpo i
ĠN ah
ens ioni
Ġk á»³
no ut
Ġel ekt
Ġw arm
ur ance
Ġy etu
Ġmengen ai
Ġbil der
ĠF red
Ġfin de
Ġef ekt
ed ere
Ġv n
Ġme e
ak ik
Ġle we
ĠCont in
Ġsp ille
Ġnh Ã¬n
Ġc au
ĠT av
Ġv ler
g os
Ġf ag
Ġsa ada
Ġh ua
ĠLe e
Ġf iyat
Ġbe w
ĠSt an
ĠRestaur ant
isk Äģ
ĠÏĢ ÏģÎ±
Ġp int
ÉĻr ÉĻ
Ġph á»¥c
Ġmens en
Ġg abe
Ä° Y
av yo
ĠÎ¼ Î·
Ġv orm
Ġl ud
h Ã¡
Ġun ser
Ġl its
Ġkom me
Ġi ga
Ġ Ê
w _
Ġout ro
ĠSu id
ĠB ran
Ġ( -
æ ĸ
Ġv áºŃt
eg ur
Ġ198 9
jon er
Ġma f
iv an
Ġcli ent
l ela
i Ã³n
ĠmÃ¼ ÅŁ
Ġbl ive
áº¡ y
ÏĥÎ¹ Î¼Î¿
Ġroh kem
á» ¡
ĠD iy
Ä« ja
op ol
Ġho of
ĠMar ek
ig li
ĠH R
ÅĻ eb
Ġter jadi
Ġnh anh
ĠK ok
Îº ÎŃ
Ġvit amin
ĠZ d
ui re
me ye
Ġpe qu
Ġ11 8
Ð°Ð ·
Äĵ jas
IV E
Ġrequ ire
Ġkul it
Ġesc rit
Ġes tim
Ġat tiv
far Ã«
ets ang
us ion
ĠdÉĻ yi
ĠVID EO
Î¿Ïį Î¼Îµ
Ġkle in
Ġpag s
Ġjot ka
Ġh Ã¥r
ĠV ai
Ġs ano
Ġch ia
ĠN ova
ĠMar ÃŃa
min en
Ġd ona
Ġb eta
ĠKont akt
ĠF ete
D e
Ġquy á»ģn
Ġaqu i
il et
Ġn Æ¡i
Ġh va
ĠTosh kent
ĠGr ande
Ġr ond
Ġpra w
Ġl ent
Ġka a
ĠB ou
ol eh
AD O
Ġyax ÅŁÄ±
Ġpup á»į
Ġkh Ã³
Ġgr am
oug ht
elet so
ĠÃ®n c
lan ish
ene a
ĠzÃ¡ klad
Ġvend os
av iy
Ġma at
ĠMan agement
ĠÎº Î¿
Ġf lex
ĠB Ã¶l
oz it
er ende
Ġtr end
Ġt á»¥c
Ġdre pt
ĠL G
ig es
at ic
UR A
Ġc ando
Ġak ing
Ġen ige
Ġdit Ã«
Ġdefin it
Ġa udio
ĠP un
Ġm áº¡nh
Ġavo ir
ĠJ adi
ĠÎĳ Î½Î±
Ġna o
Ġmani f
ĠL y
Äį nost
P G
Ġth ay
Ġp um
Ġk rav
Ġan fani
si an
et len
Ġter l
Ġori ent
ĠAm sterdam
Ġn de
Ã«m ij
Ġp si
Ġin tre
ĠF at
ĠÊ» ike
Ġob ten
Ġb ali
p it
Ġv je
Ġpamam agitan
Ġb adan
ĠSu ites
ĠG ul
ÄĽ st
Ġa a
ĠT uy
id at
Ġme ille
Ġbi asa
Ġy ardÄ±m
Ġcour se
ĠP EN
Ä±ÅŁ Ä±
ill et
B B
Ġwat oto
Ġke ine
ĠN el
vel se
Ġrec omm
Ġrec ursos
Ġbil g
ĠSt udi
ĠÊ»a Ê»ole
Ġz ahr
Ġco Ã±
ĠLoc al
ĠFir st
Ä« gu
Ġbar ÉĻdÉĻ
Ġh áº¿t
ĠPr ice
á ½
Ġn da
ĠM ED
Ġte ha
ĠAng el
em Ã¡s
ĠMar ie
et Ãł
er ve
Ġpas ado
Ġdig ÉĻr
Ġdesenvol v
Ġat tr
ĠSex ual
ĠD ans
Ġis lam
Ġher ri
ĠC ash
ĠPat r
ĠAc adem
ÏĦÎ¿ Î½
il ie
Ġdi jo
on k
Ġd nes
Ġbat h
Ġap os
hl ed
ak tor
Ġt ener
Î» Î¿Ïħ
re y
esz cze
Ġl ÉĽ
Ġen cu
ĠF abr
ĠAf ter
p ia
p ed
enta ciÃ³n
Î¹Îº ÏİÎ½
el ess
Ġkut okana
ĠA ma
p ing
h ona
Ġtid ligere
ĠInter na
Ġber ikut
Ġ... ....
un uz
Ġmulti ple
Ġx Ã¼s
Ġobj ec
s os
Ġg usto
Ġf f
ut ano
U H
Ġrund t
Ġph Ã¢n
Ġdes e
ĠH eb
an nya
Ġgen o
larÄ±n dan
oj as
IN T
Õ¡Õ ·
ĠMic ro
ÃŃt Åĳ
Ġcre a
ĠjÃ¤l keen
Ġconc ep
Ġs emp
Î»Î¿ Î¹
ĠÎł Îµ
ĠCom e
Ġdir ig
ĠE iro
Ġb á»Łi
Ġb ora
Ġl ado
Ġk uri
Ġerabil t
ĠZ u
ĠS qu
tt u
Ġm nie
Ġar riv
ĠAl f
it taa
Ġb ÄĻd
ow Äħ
kov Ã©
Ġanal ys
Ġal at
k ÉĻm
Ġnaf asi
Ġh eld
Ġed ad
ĠMunicip al
Õ«Õ ¯
uc u
p ol
Ġf red
Ġr ent
Ġpod Ä¾a
Ġb ont
ĠGab ri
Ġv all
ĠnÃ¥ got
ĠC li
im ar
Ġt jer
ic ato
Ġproc ent
Ġcomp on
ĠV et
ĠB Ã¬nh
Ġ! )
Ġsam en
Ġke yin
Ġ[ "
ĠH is
ĠCh ic
Ġm ba
uk ua
ot l
Ġapr Ã¨s
ĠC ym
Ġaw al
Ġval sts
Ġgre en
Ġdal Å¡ÃŃ
ĠMarket ing
Ïĩ Î±Î½
Ġcer tific
Ġk ump
Ġi dan
ÏĦ Î¹Î±
ku ar
iy ang
i ÃŁ
Ġrap id
Ġm ight
Ġbal ik
Ġnun ca
Ġ11 3
Ġy uq
Ġtung kol
Ġqu ello
Ġpeny akit
ĠH ari
ĠA ga
la ce
ud s
Ġkem udian
Ġfed ha
Ð° Ðº
un juk
an j
Ġtraba jo
ĠOrig inal
ĠJ ap
ĠC all
Ġo ke
ĠAl la
Ã¦ ld
itu al
cz as
ĠÃ©r dek
Ġtid en
Ġrr ug
ĠÉĻ vvÉĻl
Ġho urs
ĠGratu it
ÏĥÎºÎµ Ïħ
p ono
Ġabsol ut
ĠMan chester
ĠG PS
Ġktor Ã¡
Ġte a
z ul
ĠV ent
Ġrel ativ
Ġe ma
ĠÊ» ole
Ġbl ock
Ġng u
Ġlang u
Ġhe y
ĠPer f
Ġdr ug
Äį ku
Ïĩ Î¿
Æ°á» ¡
Äĵ Ä¼
ro te
iz ar
et atik
Ġchi áº¿n
Ġq at
Ġnog le
ĠC ov
anz ibar
Ġtr á»£
_ n
Ġs ÉĻb
ĠL ut
es inde
Ġs ino
Ġill et
ub ro
lÉĻn dir
Ġz ob
Ġd ont
Ġb Ãłn
ot ho
k eta
ĠÎĶ Î¹Î±
Ġim pr
Ġf Ã¸
ĠT S
ise er
Ġn ature
ĠRew ards
Îĳ Î£
may di
Ġen viron
is ip
and u
Ġng ayon
Ġc n
Ã¨n cies
ok rat
Ġpok er
Z I
Ġl Ã¦
Ġpar c
Ġg áº§n
ĠT iran
b ok
Ġ[ [
Ġz Ã¡v
D C
Ġcli ents
Ġbi áº¿n
Ã©t Ã©
Ġs ito
Ġj Ã¡r
ĠÄĳ Ã¬nh
ĠpÃµ hj
Ġpou Å¾
Ġmemb eri
an Ä±
ac Ä±
Ġes se
j Ã¡r
ĠprÃ¡ ce
Ġaur kez
ĠK oh
r Åĳl
Ġbat zuk
ĠMuj eres
owi edz
iv as
ĠvÃ¦ ret
Ġte hd
Ġet i
Ġein es
Ġb ibliote
org es
Ġt inh
Ġka Ê»
Ġann unci
EL A
Ġpag l
Ġha ft
ĠTrans port
ĠÐ Ĵ
ĠÙĦ ÙĦ
Ġam esema
ĠConc ello
Ġl ishi
ĠiÃ§ inde
ĠA sp
egori es
Ġk Ã¡
Ġin oa
Ġb innen
ĠÅį lelo
Ġtoll deklarasjon
Ġfaz la
Ġ12 7
ald u
ĠjÃ¤r jest
ĠM ama
Å¾ enÃŃ
P O
ĠA ri
Î´ Î¯
ap as
Ġman agement
d ob
Ġus a
ot so
ic ky
al kan
Ġgenn em
Ġ& &
Ãº Äį
Ġol masÄ±
Ġdies er
ĠP ur
ĠZ apat
Åį k
v ec
Ġoc cas
ert ura
K I
Ġt angan
Õ¥Õ ¯
os os
h un
Ġprov ide
Ġpirm s
ĠEsc ort
ĠD os
ÉĻlÉĻr in
et Ã©s
Ġcr Ã©
ĠT ips
Ġâĺ ı
ĠÃ ²
ĠEd uc
ĠA ber
Ġd ulu
vi et
Ġch icas
lan an
ĠDom ni
Ġter az
Ġseb aka
v gr
Ġp c
Ġcent er
mo et
igh eder
Ġacc ord
× ¨
h Ã¡z
Ġpremi er
Ġp Å¯
Ġby t
ĠWash ington
ĠM I
ĠAn s
ch et
ĠB I
ag ar
Ġop le
g ets
\ \
ist or
ani em
ĠC ad
z are
to z
lÉĻr inÉĻ
era jaan
ĠI o
ti min
Ġst Ã¸
ĠTe xt
Ġza j
Ġza ch
ece ÄŁ
Ġso y
Ġda w
Ġet di
Ã©r ica
ks am
k untza
_ s
ĠÏĢ ÏīÏĤ
Ġall tid
w agen
oc z
Ġs Ã©c
Ġpou co
st al
res te
Ġn Ã¼m
Ġd á»ħ
Ġ(" :
áº¿ c
zy Äĩ
Ġbiz im
m ba
ion g
fr ont
Ùĳ Ùİ
Ãºbl ica
Ġta on
Ġt ell
Ġi o
Ġi alah
c ome
ar Ãł
Ġyo te
Ġr ug
Ġde be
ĠR og
ch as
ve y
ament s
Ġf ela
Ġinf rastr
n us
Ġsho q
Ġho z
Ġb esta
ĠÕ ¬
ĠdÃ¼ zen
is ata
and ing
Ġá¹£i á¹£e
Ġtlo a
Î»Î» Î·Î½
ĠJeh ov
ĠD Ã¼
Ġ. âĢĶ
Ã«sh t
Ġr Ã©p
ĠL iter
ĠC amb
ua is
Ġdz Ä«
Ġ12 4
Î½Î¿ ÏĤ
ÅŁ im
ĠPremi um
ĠP am
m il
Ġstud y
Ġid ar
k oh
ch ing
Ġy le
Ġam o
ĠR ober
Ġ19 80
Ġth ough
Ġj ap
Å¾ dy
Ã¤n der
gr up
et ari
Ġv ist
Ġpili han
Ġtv Ã¥
k amer
Ġn ol
ĠM W
eta il
al g
Ġak ik
atso ek
Ġper chÃ©
Ġf Ã¶l
imm Ã¤
Îķ ÎĻ
ic ina
ĠS ara
Ġ16 4
Ġse ja
ĠM ate
ĠÅ¡ Ä·
Ġx ml
Ġok ol
Ġl áºŃp
Ġje Å¡tÄĽ
Ġje jich
ĠM ana
ali i
Ġsa q
Ġas c
áº¹g áº¹
Ġt udo
Ġsi o
Ġkon uÅŁ
Ġas o
ĠD am
sk ar
i red
Ġqu Ã©
ad h
Ġny ingi
Ġd ato
ĠL im
op á»į
eb ilir
atsi oon
Ġw ako
Ġmell em
Ġlap s
Ġe ig
ĠH id
ese arch
b bi
Ġl ind
ĠF Ã¼r
ale j
Ðµ Ð½Ð¸
Îº Î®
Äģl s
u ga
ez ko
as una
Ġcor r
ĠI ran
AS S
Ġsi empre
Ġs Ã¡ch
ĠkÃ« saj
á Ģ
Î»Î¿ Ïį
Ġper io
Ġc ila
b Åĳl
Ġs old
Ġmil itar
ĠA ce
per c
Ġt Ã¼r
Ġ ä¸
Ġvi áº¿t
Ġdirector y
ĠAl c
Î· Î³
Ġstud io
Ġman u
Ġcap it
ĠK Ã¶z
h ab
Ġsob ie
Ġab le
ĠM ind
l ings
b c
Ġyap t
Ġnie k
Ġg omme
Ġbar cha
Ġseh emu
Ġm kuu
Ġ17 5
ez Åĳ
Ġper ÃŃ
Ġdi alog
Ġc epat
ĠÃ¼ rÃ¼n
Ġgj ort
Ġequ ipo
Ġb ide
ĠPres ident
ĠG h
Ġh inn
ĠH uman
x alq
ru an
r Ã³d
Ġmod erne
ĠÕ ·
ĠC oll
ÃŃ tica
Ġve ure
Ġte ad
Ã¥ s
ha f
at zea
Ġp ena
Ġof erta
ĠK ama
ĠComp any
h ely
h ah
Ġre b
ing ia
Ġprofess ional
Ġes sa
ĠÉĻ laq
ĠV E
ĠV end
ler ine
ĠpÃ¤r ast
Ġbel ir
v iew
Ġma al
Ġher Ã«
Ġuyg ul
Ġoct ubre
Ġer b
Ġdes a
ĠT v
il eri
Ġm Äĵs
Ġdi á»ĩn
ÄĽ nÃŃ
raz ie
ens Ã¤
ĠÄ«pa Å¡
Ġtri á»ĩu
Ġ7 20
ta il
Ġprop rio
Ġenc ore
Ġ15 00
er u
AC K
Ġy as
Ġsit em
ĠfÃ¥ tt
Ġag gi
en ze
Ġcil at
ĠG as
Ġj ad
Ġde kor
l Ã¡d
Ġot ra
Ġg Ã¢y
ĠO ok
ĠÃ¡ rea
Ġmod elo
Ġfund ament
Äĵ Å¡anas
Ġk ua
ÏĦ ÏģÎ±
ĠM ut
ĠD ah
Ïģ Î¸
es ia
20 16
ĠsÃ¼ re
ut to
qu ia
it ura
oj mÃ«
Ġj ums
Ġfut uro
ĠO lu
ĠY er
ĠM k
ah id
Ñ Ħ
Ġz ÃŃ
Ġk Ã½
i as
Ġgj Ã¸r
Ġbar ang
Ġpun kt
Ġmu cho
Ġl alo
ĠY out
ĠqÉĻb ul
Ġlin ks
ĠD il
ÃŃn da
Ġvir tu
Ġsim ilar
Ġpal Ä«dz
Ġi han
ÉĻr dÉĻ
Ã¼n d
f ri
eri an
ĠTer m
pro gram
am bi
Ġpal jon
Ġd ove
yn am
emb e
Ġpa in
ff ici
Ġpol iti
in z
ĠK alau
en cial
Ġpos ted
an ik
ĠÅ «
Ġpol is
Ð¾Ð ³
unta in
at ua
ĠF arm
Ġ" ;
n itt
ĠT OP
ĠR T
ĠKo ta
j mÃ«
ert es
ĠÃ ¯
Ġy hd
Ġqu ant
Ġpag ina
hol der
Ġáº¹ n
ĠF ond
k is
Ġle ad
Ġbah asa
z il
un ki
iy ot
J E
Ġarbe jd
s iz
Ġser ing
Ġca us
ĠMa il
á»ģ m
Ġf eder
ĠÄĳ Ã¡
Ġx ÉĻ
Ġv ilo
Ã¦r lig
em Ã©ny
Ġnor ma
Ġem ak
Ġi pa
Ġbes z
ĠK od
lá»į wá»į
ak ka
ĠmÃ«ny rÃ«
Ġdi et
Ġdr ie
Å¡ Å¥
Ġel es
Äį ne
Ã¡l Ã³
Ġnh áºŃp
Ġg ai
ÄĽ ÅĻ
ost at
áº£ y
Äĥ se
kr ing
ĠI stanbul
Ãªn cias
ind eki
Ġit t
ĠN t
ĠK Ã¤
ig heid
ari ak
Ġmad he
Ġku ji
ĠN áº¿u
Ä© nh
Ġste eds
ĠJ O
ĠAd idas
Ä«b Äģm
on in
Ġresult at
Ġla arin
Ġcs al
q et
ov es
Ġl Ã«
ĠP K
Ġn Ã¦
Ġk ÄĵlÄģ
Õ« ÖĢ
end ak
ĠÏĦ ÏĮ
Ġgb á»į
Ġch á»©ng
Ġb ÉĽ
Ġbohl okoa
Ġa id
Ġ12 6
Ġtule e
Ġt aba
Ġsta ff
t Ã¼
art ement
Ġv esti
ĠV igo
ĠS B
ĠDire c
ÎµÎ¯ ÏĦÎµ
or ni
ĠvÃµ t
Ġsk up
ĠMa chine
P M
Ġpla ats
Ġdi á»ħn
Ä° M
j Ã¤n
ĠT lh
Ïĥ ÏĦÎ®
j ana
Ġv est
Ġs oc
Ġn á»¯a
Ġhob ane
Ġhi Ã§
ĠO st
r ans
om er
enn er
Ġ,, ,
om men
Ġih m
Ġal der
el uar
Ġinvesti ga
Ġp ÅĤ
Ġh Ã¥nd
ĠZ ap
ind ing
Ġpu ol
Ã¶ ver
ag gi
Ġk all
ĠC Ã³d
C R
Ġro v
lu q
ayan an
al ami
Ġs ÅĤ
Ġkw ani
utta a
el eng
be f
Ġv á»±c
Ġs amb
ĠMan ager
ĠK Ã¸
Æı R
s elf
m or
Ġwork ing
Ġnet ts
Ġsaha ja
Ġcultur al
ĠM á»Ļt
en cias
Ġpi ano
ĠAd v
ĠB io
ub ah
ak tiv
Ġcre ate
Ġ, '
ÏĨ ÎŃ
Ġmas ter
is tic
Ġt Ãªn
Ġexemp le
ĠK omb
ĠEd ition
Ġegy ik
Ġdisc uss
ĠS EK
ĠAir port
Ġreg ular
Ġm oto
ĠIS O
OR E
Ġex cel
esti Ã³n
Ġcook ies
à §
nÄĽ jÅ¡ÃŃ
me e
Ġib ang
ĠC OV
Ġno ho
w aga
iy ada
ĠveÄ¾ mi
Ġqu en
Ġpar tid
ĠRich ard
Î¼ÏĮ ÏĤ
ent y
C L
ĠSe h
Ġ:- )
Ã©t el
n te
Ġsed ikit
Õ«Õ ½
Ġenerg ie
Ġclas si
ĠK orea
Ġse al
Ġk ala
ĠD ik
Ġprot est
Ġdia bet
Î¾ Î¹
Â Ń
S c
ĠM ang
any o
Ġvit in
Ġfat to
á»į na
Ġencontr ar
Ã¨ c
Ġtal aga
Ġku idas
Ġsp os
ĠN ab
j ul
ierbin te
g ere
Ġrec ept
Ġhab it
Ġs ipas
ĠR osa
ler inin
Ġsom mer
Ġsc ript
ĠPar lament
ç Ķ
ub ali
li b
00 1
ĠL CD
im á»į
eri es
ĠSu omen
æ Ĺ
w art
ta y
ĠÄĳ á»ĵ
Ġsz ÃŃn
Ġil ana
Ġger ne
iz in
ĠÏĢ Î¬
Ġwe iter
Ġik ki
Ġest o
ĠmÄģl ama
ĠR ou
ÙĬ ÙĦ
Â §
ec uti
Ġdon c
ĠSl ot
Ġtrack ing
ĠkeÃ§ ir
Ġinv ol
Ġc ari
ĠChin ese
m ing
Ġt ika
Ġsyst Ã©m
op en
kez Åĳ
il it
Ġng uyÃªn
ast Äĥ
Ġt oto
Ġ) )
B E
ĠH ana
Ä±n daki
nk fg
ĠJ ahr
Ġh aki
Ġav ea
Î½ Î®
Î¯ Ïĥ
ok an
Ġm ondo
Ġatti ec
Î»Î» Î±
ĠÃ§ ek
Ġt uh
Ġo Ã¹
Ġg dy
Ġen da
ĠK inder
Ġaltern ativ
ĠL ake
d os
Ġvel mi
Ġpre oc
ĠS le
Ġgaran ti
Ġdi y
Ġbeh ov
Ġbagi an
ĠD z
Ġmening kat
Ġrel ig
gi fter
Ġr ÉĻh
Ġno ta
Ġges tion
Ġaast al
Ġz od
Ġdav am
om on
uj em
iv y
Ġg elen
ĠL uk
ĠCar ol
Ġiz v
Ġactiv idades
uss y
ĠÃºl tima
Ġsc ar
Ġkata wan
oj ums
ĠAc tu
pl ats
ene o
Ġtur n
ĠU ch
ĠG O
Ġtr im
Ġszer et
Ġk p
Ã« se
kom men
iyy at
d ot
ĠA H
ÏĦ Ïģ
iler in
g ina
ad ura
Ġw ipe
yn ÉĻl
Ġdi o
ÉĻt in
ĠÏĨ Î¿
Ġtro v
Ġcateg ory
Ġc ort
ov it
ar as
Ġv ale
ĠS elain
ĠB ell
Ġass im
Ġain ult
ĠEng ine
k ir
fÃ¼ hr
Ġr ele
uj ÃŃcÃŃ
ĠmÃ´ Å¾e
emp or
G V
................................ ................................
Ġs Ä©
Ġpap el
Ġap par
ĠB uh
Ġf Ã«mij
Ġdiag nos
Ġall ow
rat t
G E
**** ****
Ġnu evo
ÏĦÎ® ÏĥÎµÎ¹ÏĤ
Ġsel uruh
ĠM end
ad un
I i
Ġproduk ter
Ð ĵ
iec are
Ġvo y
Þ ¨
Ġz erbitz
Ġmav jud
ĠJehov ah
Õ¡Õ ¤
Ġnost re
Ġk ib
Ġfo is
ĠM aks
ĠG arden
ĠEst ados
Ġ ë
ot or
Ġp og
Ġde bat
ĠWord Press
ost ÃŃ
id in
ĠØ§ÙĦ ÙĦ
Ġb á»ı
Ġ. ).
Ð´ Ð°
Ãª re
Ġsem akin
Ġp ill
Ġb Ã³ng
ĠR AM
Ġl á»£i
Ġhand lers
ĠÉĻm ÉĻk
Ġnav ig
Ġhar akat
ĠgÃ¼z el
Ġat unci
ett et
Ġti Ãªn
Ġkap it
Ġinterpr et
Ġmen arik
Ġev ento
ĠÄĳ Æ°a
Ġconf irm
Ġch ung
Ġbok ep
ĠH E
Ġz ah
Ġsmart phone
Ġd oma
ytt Ã¤
am ia
ĠNd Ã«r
ĠCh ris
ĠM ash
j ik
ĠPh one
Ġmen o
ĠR ose
amp ak
Ġre du
Ġgad Äģ
Ġb alan
ĠD h
ĠD KK
ol elo
ori i
n iki
Ġc ali
Ġhe ight
Ä« ties
Ġx idmÉĻt
Äĵj Äģ
Ġr Ã³Å¼
Ġyang u
w yr
Ġh amp
Ġy or
Ġsz ab
Ġsu ite
Ġstar p
Ġo ameni
Ò Ľ
Ġed ilm
x ima
Ġt Ã½m
m agan
iz er
ena u
ĠvÃŃ ce
Ġarch it
ĠThe o
Ġop portun
Ġal att
ĠH I
ĠB akan
ĠA o
re u
nÄ« cas
L ist
Ġvis ita
Ġmi esz
Ġenc ara
Ġand roid
eng ar
45 6
Ġex iste
Ġep is
x u
ĠS Ã¼
k ot
Ġtot es
Ġn kan
ĠKar l
M a
Ġne h
á»¯ u
AN S
Ġup date
ĠG L
ÅĽ nie
Ġmuh imu
Ġg au
ĠSala am
u zi
ĠnÃ¥ gon
Ġcompr om
Ġat ten
Ġ11 7
ĠF ly
Ġpr Ã¸
Ġpr imo
Ġki ch
ĠcÄĥ n
ĠL un
ÏĦÎ¹Îº Î®ÏĤ
Ã´ t
Ġminim um
Ġjed not
ĠAL L
Î¯Î½ Î·
Ãª ng
Ġt Æ°á»£ng
Ġki á»ĩn
Ġki áº¿n
Ġzo als
ĠNh á»¯ng
ĠNEWPart 9
Ãªr eld
g ol
Ġra y
Ġb oli
Ä± la
20 15
ĠWilli am
Õ¶ Õ¥ÖĢÕ¨
ador as
Ġproblem as
Ġo bi
op ha
Ġz ou
ĠmÉĻ kt
ĠHosp ital
resp ond
Ġts ohle
Ġn ani
Ġdes arr
ĠR ol
Ġout ra
ÏĨÎ¿ ÏģÎ¬
as iya
ans ka
ĠÃ¶nem li
b ak
IT E
Ġp uk
Ġin ch
Ġhud uma
ĠZ anzibar
Ġbus ca
Ġber main
Ġauk era
ĠBratis lava
min ister
li ÄŁ
Ġkhi áº¿n
Ġj udi
Ġbl oc
Ġal ip
ĠSa f
ĠR ES
ĠMuse um
as Äĥ
Ġv oll
Ġi bil
Ġas te
Ġak adem
uv ad
l ukan
Ġt uli
is yon
d re
Ġf ara
Ġdejt ing
Ġde ber
ĠZ ar
Ã¹ a
io z
Ġhel u
x ual
ent zat
IN S
Ġob raz
Ġj eszcze
Ġal to
ĠWe ek
Ġ!!! !
ĠS ag
ĠBel ed
ÃŃ na
ubl ika
g ie
ĠÂ ª
Ġcom port
ĠØ§ÙĦ Ø³
Ġo ko
ĠChe ck
ynÉĻl xalq
Ġconte xt
ike yi
ĠS is
u ja
r Ã¼
Ġkont ak
ĠT ing
ien ia
Ġg ani
Ġber p
ĠChar les
Ġdi ÄŁer
ĠM AG
u cht
r ero
ĠpÃºbl ica
Ġgeni ÅŁ
ĠMar s
ĠD ob
Îµ Îº
te c
iyy ÉĻ
g ani
Ġnghiá»ĩ m
ĠiÅŁtir ak
ĠT ran
ÑĢ Ð°
Î´ Î¹Î¬
Å ģ
Ã«s uar
sp ÄĽ
ri va
Ġ3 d
Äĵ ji
is brand
Ġtar v
Ġsk in
Ġs iv
Ġdes sa
ĠÎ ŀ
Ġjed no
Ġette vÃµ
une an
ĠpÅĻ ip
Ġm ÃŃt
Ġbeg itu
ĠW er
qu el
Ġbent uk
w ers
F R
Ġc_ isbrand
w ic
w asan
Ġg Ã¥ng
Ġy ig
Ġre par
Ġpas ur
ÏĥÏĦ Î¹Î±
iek tu
asc Äĥ
Ġil mu
Ġconv oc
ĠAs soci
Ã¼n as
ik es
Ġin j
Ġc eny
ud an
Ġl ung
Ðµ Ðº
Ġtub uh
Ġn ike
Ġapplic ation
ĠX unta
Ġse ura
Ġpag es
ĠV lad
ĠSist em
ber ry
Ġu gyan
Ġper formance
Ġoff ice
Ġf yl
ĠHon da
em ist
ĠÐ ·
Ġsz Ã¼ks
Ġg jÃ«
Ø ¸
up t
em is
ch ter
Ġv ite
Ġm imi
C l
Ġor as
ĠV isa
ĠÃ©r tÃ©k
Ġt os
Ġodp owied
at to
Ġsar Ãł
he ad
etah ui
ed on
Ġna u
Ġmat h
Ġbl ok
s ol
ĠÄĳ a
Ġd uro
Ġex press
Ġcont ro
el os
ĠÎĿ Î¿
Ġndi hm
Ġn esta
Ġleb aka
Ġf ev
Ġal dÄ±
IC E
ts z
kel ig
Ġye o
Ġpass ar
Ġdemok rat
Ã¡r om
t l
Ġeg ingo
ĠK lik
Îĳ ÎĻ
wai wai
Ġluc r
Ġcos Ã¬
Ġbuh ay
ĠEti qu
Î¿Ïħ ÏģÎ³
ar ab
D B
AM P
ĠfÉĻal iyyÉĻt
ĠK art
Ġpr w_
Ġh yn
Ġaut re
ĠSex uale
ĠF ace
ĠÄı al
tor es
ĠÎĶ ÎµÎ½
Ġm ÃŃn
Ġul i
Ġ\" :
oll ow
Ġh jel
Ġfoll ando
et ud
edi akan
ĠØ µ
ĠmÅ¯ Å¾e
Ġmel y
Ġhen kil
at utako
Ġv á»ĩ
Ġsi itÃ¤
z ako
j az
Ġt ama
Ġinst it
Ġz ag
Ġdes car
ĠPok er
Äĥs Äĥr
ba wa
Ġexp ert
Ġcomun ic
for nia
Ġszem Ã©ly
Ġd ne
ĠS Äĥ
Ġl on
Ġg ri
Ã¡ ba
m end
Ġhosp ital
lar Ä±mÄ±z
ek iti
b our
ĠÃ¼ ret
Ġn Ã¸d
Ġan net
ĠAl ber
itt y
iko ak
Ġrend el
Ġrela x
Ġl Ã²ng
Ġkoh Ã«
ÃŃ cia
ik h
bl r
4 00
ĠÕ¡Õ ¼
Ġki i
Ġd upa
ĠS ot
ĠS U
Ġtá» ·
Ġpier ws
Ġes peci
ĠÄĳ á»§
Ġver de
Ġl aki
ĠjÃ¤r g
Ġi da
Ġac om
ĠA sk
ro bi
Ġq ism
vik ling
Ġv Äģr
Ġbe autiful
yd en
Ġfac er
ÃŃc ula
u Ã±a
m ÉĻd
ĠP ast
y se
x h
Ġr oll
Ġkon kr
Ä± sa
and Ä±r
ĠÏĩ ÏģÎ·
Ġse ben
Ġfi ind
Ã² m
Ġu us
b os
ĠÄĳ Äĥng
Ġy li
Ġkab la
Ġcer ta
ĠS eni
ĠK ort
j tÃ«
ess age
ba it
ate urs
ĠL ot
el ingen
Ġom dÃ¶
Ġem bar
Ġq abul
Ġal ak
s st
ĠÎ£ Ïħ
Î¼ ÏīÏĤ
Ġsh pre
Ġpre cio
Ġconta iner
ed ir
ĠÃ¶ss ze
Ġek onomi
Ġber h
Ġb ia
ur ren
Ġkon ts
Ġdar ba
ĠR est
v ens
qu en
Ġambi ente
Ġy un
Ġre ag
Ġi ro
Ġ? .
Î¼ Î¼Î±
Ġb Ã¡r
st va
Ġr Ã¡p
ĠlÃ¶ yt
Ġ9 99
el wa
Ġpet it
Ġn Ã¡z
Ġg ym
ĠRom ania
Ã¡s Ã¡t
Ã ¿
Ġj Å«
à³ į
Õ¾ Õ¡Õ®
Î» ÎµÎ¯
Å¡o ant
ull en
Ġse f
eb ben
ak hir
P o
ĠL ati
Î´ Ïħ
Ġpr ins
Ġbo ek
ĠD zi
Ð» Ð°ÑĢ
Ãº r
Â ¯
Ġvi ene
Ġtraball o
p ers
Ġtse o
Ġlap top
ev ad
Q L
Ġsk r
Ġnam in
ĠmÃ¥ n
Ġmont hs
Ġkup itia
Ã¦ tt
b li
Ġtra c
Ġpute a
Ġb unu
Ã¼m Ã¼
iz ia
ĠÏĩ ÏģÎ®
Ġvari ant
Ġqil adi
ĠM wan
ish er
Ġand eren
i O
T h
ĠsÃº as
Ġmit Ã¤
our ces
iz ioni
an Ã©
Ġs amp
Ġkh usus
Äĵr am
A pp
Ġl ona
Ġat ing
Ġarg ument
ÄĻ k
angg ap
ħ ÖĢ
ĠÅ ģ
Ġtá»« ng
Ġmp ya
Ġmak ing
ĠIn di
Ġv iongozi
ĠsjÃ¤l v
ĠY az
ĠV Äĥn
Ã¢n t
IS H
ĠI lu
l ayan
Ġmet si
Ġb itar
ĠB ert
ys Ã©g
iki wa
Ġprz ep
Ġol isi
ĠProduc ts
ĠO u
Å¡ Äģ
al os
Ġin nen
it si
Ġorq ali
Ġnor sk
Ġrealiz ar
Ġk Ã¼s
Ġk ia
Ġest Ã£o
Ġb una
ĠD ra
ĠB N
Ġqu em
Ġkon st
m aktadÄ±r
Ġby ÅĤ
ÏĦ ÏĥÎ¹
Î³ Î¹
ĠÎ» ÏĮ
Ġback ground
Ġ28 0
tion al
Äį o
Ġre Ä£
Ġb ald
ĠI hr
ĠD ic
Ġtari h
Ġby gg
Ġa urr
Ġstud ents
Ġf od
ĠL Ã¤s
d ÃŃ
Ġtar de
Ġis o
Ġc ÃŃm
ru ck
pu Ã©s
Ġlak ou
Ġkut umia
ĠR oc
Ê»a o
hlah isoa
ĠÏĮ Î»
Ġwh y
Ġw yd
Ġvec es
Ġsik ker
Ġch y
Ã¡ll al
Ġth Ã«nÃ«
Ġnd on
Ġmunicip al
Ä« ti
Ġval mist
Ġtel ep
Ġh Ã¶g
Ġfol y
ĠF inn
ĠãĢ Ĥ
Ġn Ã©l
f um
dan n
Ġf ib
Ġw et
Ġph im
ĠM ake
ĠH iz
ik Ã¤
elf de
Ġobs ah
Ġc ry
Ġz ien
Ġtw itter
Ġrekl am
Ġpin akam
Ġndry sh
Ġfik ir
ĠL T
ÄŁ Ä±n
eb en
Ġn iveau
ÏĨ ÎŃÏģ
j ob
Ġg iver
Ġdom u
Ġcu enta
Ġch am
k os
i at
ĠSil ver
Ġnu we
ĠN ame
n Ä±z
l ong
Ġincl ude
Ġecon Ã³m
Ġbek er
Ġu j
ĠndÃ«r sa
Ġm ÉĻr
Ġba adhi
ĠVen ez
ĠArg entina
on io
ativ os
ĠÐ ĺ
Ġw omen
Ġma ji
tion er
Ġof icial
Ġbo j
Ġforsk ellige
Ġfi eld
ĠCop yright
ĠBe i
ĠA Q
Ð¸ Ð¼
Ġf apt
ĠV ad
ens ive
ati an
ĠÄ £
Ġsh Ã«r
Ġmok hoa
Ġkom mentar
Ġhe a
Ġtag asi
neh men
Ġm Äĥ
ovan Ã½
ink el
art zen
Ġish in
Ġan ul
ĠU E
ĠP ant
ĠL O
acy j
ud uk
Ġey iti
ĠN ut
abil irsiniz
Ġth ai
Ġk abi
ĠTo yota
ĠR and
ĠMod ern
v us
Ġh appy
âĢ ¢
ze an
qu ez
arr ak
ĠB art
IC O
Ġgad Ä«j
Ð¾Ð ¹
ki en
B y
Ġsh Ã«n
Ġiz l
ĠH it
Ġand ers
ĠRomÃ¢n ia
ĠNh Ãł
ĠtÃ¶rt Ã©n
ÄĽ k
å Ĳ
nÃ© l
Ġc uc
Ø§Ø Ń
ur us
t ing
akt Ä±r
Ãª t
Ġn ice
Ġbet er
Ġbe im
Ġalt ro
Ġed en
ĠHua wei
Ġsu atu
q f
Ġsam arbe
Ġb ly
o or
ile a
Ġv oks
Ïĩ Î·
ĠÐ ¢
ĠgiÃ¡ o
ÉĻ ss
Äĵj Äģs
n ell
Ġgj Ã¸re
ĠS ha
Ġ??? ?
ri ak
Ġvia gra
get to
ĠF em
ig ar
bo y
ĠvÃ«r tet
any ch
Ġm á»Ĺi
ÅĨ Äģ
oj umu
Ġw ÅĤa
Ġnor ske
Ġ5 000
Ġnak ong
H S
Ġs ocia
Ġj ade
ĠES T
Ġfabr ic
ĠL amp
Ġkok ku
Ġja ut
ÏĦÎ¹Îº Î¿Ïį
Ã¼n Ã¼n
tu u
ch s
Ġans var
oc lipuri
bay e
Ġur ban
Ġsh tÃ«
Ġpr Ã¡c
Ġact ua
ap ia
Ġol sun
Ġiá¹£ owo
Ġ. (
Ġment re
Ġk asih
Ġist ÉĻy
Ġden na
Ġc ob
Ġb ele
in ki
amb ah
ĠS Z
Ã¡b Ã³l
ter y
j Ã¸r
Ġl Ã©g
Ġl eka
ĠgÃ¼ ven
ci ja
ĠÂ ¯
Ġsit us
Ġm ina
Ġkam ay
Ġan unci
ĠbÃ¸r n
o ie
Ġk W
ĠDo or
Ã² g
Ġstr ing
Ġcent rum
um enta
ĠPh oto
Ġ2 x
p Äĵc
et us
ĠØ§ÙĦØ Ń
Ġprac y
Ġe ye
ĠAc tiv
Ġm ano
Ġmaml akat
ĠhÃ¸ j
Ġbed ste
Ġ ult
h um
Ġincont ri
Ġf Äĥ
Ġ... "
ts Ã¥
Ġcommun ity
ĠSt ates
ĠK ore
ap ali
Ġy Ã¶net
Ġph one
Ġd nia
ĠS ens
Ġem aten
Ġ14 5
Ã©s ek
edi at
Ġtut te
Ġto uch
Ġm ist
esh imi
Ġace asta
Ô ±
over no
as ia
Ġof te
Ġlaz Ä±m
ĠUn ion
ĠC ustom
im ine
Ġis i
ĠU V
ĠJ ava
ĠCo unty
l id
bra him
Ġs ui
Ġj ulle
ĠMa q
Æ°á»¡ ng
te urs
Ġts ena
ï ½
he q
Ġp ilik
Ġey ikeyi
ĠB rown
k ab
Ġvo it
Ġmul ai
ĠG il
Ð ŀ
c Ã³w
Ġtam am
- |
Ġqu ien
Ġp isc
Ġg ene
Ġek z
Ġa and
ĠMa atsoek
ÙĪ Ùħ
Ã¡ ja
Ġunder stand
Ġta j
Ã«t are
ra ci
Ġav st
ĠSal v
ĠS AN
ĠClass ic
te e
kom st
ia g
Ġmas sa
Ġed uk
Õ ·
ĠW ik
O n
1 50
Ġput as
Ġnu ovo
Ġk si
Å¼ s
ĠS ym
u Ã§
Ġma qs
Ġj ossa
Ġcon form
Ġad ult
ĠC av
Ã¥ k
ter o
ĠPr os
Ġ15 5
ur d
Ġpro per
Äģd as
Ġq ÉĻr
Ġdol g
bi amo
an Ã§a
ĠÐ ŀ
uning dek
mek tedir
C T
Ø§ Ùģ
ju al
Ġst ars
N H
Ġn bsp
Ġme futa
Ġg uru
ĠGr und
Ġu ang
Ġsek itar
ĠW inter
ĠW ild
ur er
in ut
Ïĩ ÎµÎ¯
ÅĤ aw
f ir
Ġten ir
Ġby ÅĤo
Ġap pe
it Ã¤t
ĠtÃ¤ i
Ġnou ve
ĠPr omo
land Ä±r
Ġles bi
Î½Î± Î½
ungg uh
e u
ĠÔ µ
Ġe ket
ĠF ren
Ã§a is
Ġpe w
Ġf esta
ĠV oc
ĠPro ject
ĠKh Ã´ng
lÉĻÅŁ dir
ĠW ell
ĠÃ§ ocuk
Ġst ol
Ġmag ing
Ġkom and
ĠC ry
Ġ22 5
11 1
Ġcol le
ĠAd res
Ġ ÉĻh
p ir
im mer
Ġnas Ä±l
ĠC Z
ä ¼
Ġp ai
Ġgal ego
ĠE G
ro gram
it eti
Ġm apa
Ġj ambo
ĠPle ase
w ez
h ti
el ia
Ġv anaf
Ġpl ante
ÃŃs ticas
d akÄ±
ĠÕ« Õ¶
lan tirish
Ì Ī
up o
cion ar
AD E
Ġask o
ĠE pis
ĠgerÃ§ek leÅŁ
ÄŁ Ã¼
M od
Ġminut os
Ġast fel
ik baar
M ar
fat sa
Ġprez ident
Ġen de
Ġsa ad
Ġph ahameng
Ġsu is
Ġhad is
ĠT Äģ
ĠFran ces
he b
Ġtr Ã¤
Ġsz Ã¡z
Ġj er
Ġd ug
apa a
ĠSt ation
ĠB ibliote
iz u
Z X
Ġm d
Ġc á»Ńa
r l
[ ]
Ġcer tain
Ġaf r
Å¾ as
j and
Ġhi á»ĥu
Ġdo is
Ġnj eri
Ġh icho
H N
E lement
Ġkas v
Ðµ Ð¼
Ġmod a
Ġhem en
Ġb eli
ĠR ama
h ttp
Ġun ge
Ġm uss
isi Ã¤
ĠÎºÎ±Î» ÏįÏĦÎµ
Ġtruy á»ģn
Ġpla as
Ġvis er
ÄĥsÄĥr icÄĥ
Ġve Ã§
re me
on im
Ġja oks
Ġb ap
re ad
ĠMet al
ĠH ip
ra ak
ĠÃº s
Ġintern ational
Ġfl ash
Ġchuy á»ĩn
Þ¬ Þ
Ġt Ã©m
Ġpl ug
ĠWh ats
ĠO ng
uh u
j ib
ĠK urs
iti f
Ġsay Ä±
ĠF RE
ĠÄį esk
Ġlas er
ĠLin ks
Ġte at
Ġj alo
Ġcáº£ nh
Ġre de
Ġmind er
ĠDon ald
w ier
se y
Ġhod not
Ġent er
Ġch Ã¢n
ec tu
ĠS ize
ur lar
ag ang
f ly
Ġs ess
ay ar
ald eko
Ġcon fi
Î½ Î¹Î±
ĠTh an
Ġmes in
sp unkt
Y L
ĠÅŁ ÉĻk
Ġperson ale
ĠkÃ« tij
ĠS AL
uj o
n ov
h id
for s
Ġmen n
ĠT og
ĠS ell
Ġt aka
Ġf ÃŃs
ix er
Ġj ep
Ġz us
Ġcon e
e ie
Ġye ye
Ġik k
Ġcol lection
Ġe ing
å Ī
us c
ĠwiÄĻ cej
ĠaÃ§Ä± kl
Ġtr á»±c
Ġpel u
Ġd Ãłi
Ġam it
ĠInst itut
ĠD ez
Ġrel ation
Ġba ita
ĠSt at
l age
Ġs ya
Ġfl or
Ġ ÉĻr
any ol
Ġle fat
ĠL ike
Ġsk lad
Ġimpl ement
Ġcons erv
b 3
Ġsv Ã©
Ġdzie ci
ĠCÃ³d igo
ÃŃ th
k Ã³w
an ut
ĠÎµ Î³
Ġmot s
ĠâĢ ª
Ġv ile
Ïĥ ÏĦÏĮ
Ġs Ã¡t
ie u
ay ah
G o
br uk
ba ch
Ġw etu
to a
Ġz ake
Ġl ith
Ġkh ai
ĠT on
Ã¡g ina
ti h
ĠM ans
k v
et zt
Ġim kon
oj ot
Ġpi en
Ġacc ep
ÅŁ dÄ±r
c em
ĠÂµ ÃĦ
Ġvi ime
usaha an
r ari
ap it
ĠN ep
ungum za
ati que
ah ah
Ġk ana
Ġdon ne
Ġbol ela
ĠL ac
zt at
et eng
ĠÄį ÃŃs
Ġpes o
Ġdeta ils
ĠO G
ber o
Ġl upa
Ġfor am
ĠA udio
tid ig
el v
ay ev
Ġqu áº£n
Ã«m b
M P
Ġtsh wan
Ġillet ve
Ġcá»© u
Äĵ ri
or da
M O
eshimi wa
Ġche g
Ġche at
ĠT es
Þª Þ
Ġperm ite
Ġmani er
ĠS yst
ĠIn forma
it ive
ĠÃģ l
Ġtua j
Ġaix ÃŃ
ĠD J
nie g
Ã´ m
iy asÄ±
ĠM Ã¡s
um l
ch ange
Ġra b
Ġdep uis
ĠG MT
Ġle x
ĠTh ese
Y D
Ġdo i
Ġdi ye
Ġaga inst
ĠB ola
Ġmell an
ĠExt ra
Ġthu á»Ļc
Ġcer c
ĠWat ch
ĠPhil ipp
Ġ12 00
ĠÏĨ Ïī
Ġpara an
Ġc á»ķ
ĠKom mun
Ġ12 1
z cz
v ista
ri x
ĠF an
Äį nÃ¡
port s
Ġinvesti g
Ġgam ot
Ã³ ra
z us
ĠA X
ali wa
Ġr if
Ġmet ro
ĠJ ob
ĠÃ© gal
Ġul tim
Ġc id
Õ¡ ÖĦ
Ġw Ã¡
Ġkap ag
ĠS ou
ĠMig uel
er ako
ĠÄ¾ ud
Ġr eng
Ġd ry
ÃŃ cio
un it
ce an
Ġinform asi
Ġes qu
Ġbil d
ĠH ub
est in
Ġz gar
ĠP olo
Ġuplo ads
Ġont vang
ĠK OM
ev el
ap un
Ġseri es
Ġex ter
er az
ĠÎµÎº ÎµÎ¯
Ġprofess or
Ġm Ã¤
Ġ19 70
j Ã¡t
Ġf ino
ang en
ĠÎ¼ÎŃ ÏĥÎ±
Ã¡s sal
jer om
Ġq is
Ġf Ã¶
te v
AA AA
ĠmÃ¼ m
el ar
ĠY or
ĠH us
d is
Ġdi fic
Ġh áº¹n
ĠSh are
ĠMag az
ĠAn onymous
og an
ent emente
eb u
Ġk ula
bl ad
Ġest os
por ter
EL E
Ġmemb ers
Ġkol m
Ġko ta
Ġgr ond
Ġb ako
Ġadmin istra
v Ã¡ny
ran k
emin ist
b uru
Ġsu unn
Ġr ar
Ġlih ts
itza ciÃ³
ï¼ Į
Äĥse ÈĻte
sul ot
Ġt ele
Ġg ago
ĠÄĳá»Ļ i
Ġal ong
Ġac onte
ĠE tik
Ġex act
Ġcar te
Ä° K
ys ta
ult an
r us
Ġet miÅŁ
ĠN Ã¤r
ĠFran c
ĠC zy
ĠAqu est
os of
ger y
ĠÃ¼ ld
Ġman ual
Ġkek ere
Â ¡
ĠvÃµimal ik
ĠmÉĻs ÉĻl
Ġkeluar ga
Î³ ÏģÎ¬
all es
Ġcompl ete
x it
ĠÏĩ Ïİ
Ġsp er
Ġne id
Ġk Ã«sh
Ġfark lÄ±
ĠC ru
Îķ Î£
Ġun it
Ġl ors
Ġhl ok
Ġb ott
ĠY ap
ĠB D
ĠÎ±Ïħ ÏĦÎ¿
Ġn ts
ic ional
sa an
Ġr t
ini um
ĠÐ ĳ
ĠAN G
b und
Ġn s
Ġm ezi
ĠAn ak
ar p
Ġv Ã¤n
Ġl ol
Ġki er
Ġcomp te
n ummer
Ġus ta
Ġnin cs
ĠkÃµ ige
Ġdem and
Ġbe oord
ĠRo om
ĠAzÉĻrbayc anda
Ġ12 9
ĠEn tr
ÏĦÎ¹Îº ÏİÎ½
ec ciÃ³n
Ġviet Äģ
ĠiÄģ Ê»oe
Ġg uar
Ġdep an
Ġb agaimana
Ġf av
Ġamer ikan
ĠV ila
ok er
Ġr Ã¤Ã¤
Ġpor te
Ġp lo
Ġez in
Ġbirlik te
Ġmet s
og ia
ek to
ON D
Ġper form
Ġpeng guna
ans en
raz ione
Ġse z
Ġmong we
ÏĨ Îµ
d t
ĠÎ¼ Î·Î½
Ġt ÉĻm
Ġkah it
Ġalk ohol
ĠL or
ĠF unda
ĠC ivil
Ġ... ]
v ah
ur it
tim it
el te
Ġp emain
ĠTh anh
ĠR ela
ĠCom pl
aliza ciÃ³n
ĠÃ¶ t
ĠmÃ¼ Ã¼k
Ġgall ery
ay n
as hi
alar da
Ġl od
ĠT ill
ÄĽ Å¾
ĠÐ½ Ð°
ĠDomni ÈĻo
Ġmo ins
Ġdepos it
Ġan ar
um ul
Ġt eda
ĠmÉĻ ÅŁ
Ġd ung
ik ul
Ġok res
ĠOr d
les zt
ĠÄĳ á»Ŀi
Ä« tu
ien er
Ġsus p
ĠÐ ³
Ġc ub
rit t
OL A
ĠÄĲ áº¡i
Ġcl ose
ĠKosov Ã«
Ġq a
Ġc eva
Ġb Ãł
ĠUn idos
im li
an uar
Ġq et
Ġdipl om
Ġah ora
am il
Ġrak yat
ĠV es
ĠL oa
ĠD AN
alis te
Ġkli ent
ĠT T
Õ ²
Ġph ong
Ġpas ta
Ġh á»ıi
Ġpar em
ĠÐ Ŀ
Ġibex_room_grid _
ĠV A
Ġre cher
Ġmon de
Ġbu tik
ĠDe f
k Äģr
ag ing
20 14
Ġproces o
Ġag b
ĠN R
ÏģÎ¯ ÎµÏĤ
v Ã¡l
ple x
ĠÐ¡ Ð
Ġchi áº¿c
ĠB T
r ato
iyor um
ãģ ®
Ġqil in
Ġpl ast
Ġon larÄ±n
ug ht
ed et
Ġver den
Ġnat in
ant in
Ġam en
ĠMa a
Ã«s it
nut ÃŃ
aca ÄŁ
Ġh ÄģÊ»awi
ĠS IM
isi es
il as
ar al
Ġze uden
ĠC ross
wan ja
Ġta arifa
Ġlig ne
ĠF ab
Ġmennes ker
Ġ à
ak ut
Ġyo ung
ĠU T
ĠAc cess
Ġ16 5
Ġol mak
Ġhain bat
w yl
er intah
Ġple ase
Ã¼ st
t áº¹
Ġth usa
ĠBaÅŁ kanÄ±
ĠA ff
ĠÕ« ÖĢ
ĠF ashion
ny v
em on
Ġular ning
Ġu cz
Ġpot om
ĠC ost
Ġein fach
ĠUl tra
ĠK ita
ĠCor uÃ±a
Ġh uko
Ġe ka
Ġdifer ents
Ġd one
ĠÂ ¦
Ġr uk
Ġpen is
Ġol muÅŁ
ĠT eg
Ã§ ÉĻ
ro on
M M
v oj
ug ur
lar idan
anc y
Ġra pp
Ġpop ull
ĠfÃ¶r sta
ĠW enn
ĠCOV ID
ĠAzÉĻrbaycan Ä±n
ina ciÃ³n
Ġved ere
Ġp p
Ġeks empel
Õ¾ Õ¥Õ¬
ont re
Ġut s
Ġ: "
Äģ ni
ry d
ĠÎļ Î±Î¹
Ġayn Ä±
ĠZ ak
Ġk aka
Ġb ago
ĠO i
ti z
Ġroz p
ĠR ab
N T
F E
AK A
Ġnet work
ĠPili waiwai
ĠL um
Ġweb s
Ġn asa
Ġb ant
Ġak Äģ
om bi
esti g
Ġver der
Î³ Î±
j Ãł
ĠServ ices
Ġko ul
Ã«s inÃ«
Ġvet Ã«
ĠN in
ol er
Ġwe it
ĠtovÃ¡ bb
ĠM ab
ĠL ad
ĠD DR
Ġz Ã¡s
Ġq ever
Ġit h
Ġf urn
ĠV est
ash tu
Ġkj Ã¸
Ã³s Ã¡g
ce a
ĠmÃ¼m kÃ¼n
ĠlÃ¤ bi
Ġgi á»¯a
ĠT aifa
ĠB az
_ p
Ġtad bir
Ġkr ist
Ġav tom
¥ ¤
u he
int zen
il ta
et ur
ĠÄ° z
Ġd Ã¼z
Ġ. ;
w est
tim et
li que
Ã¹ n
Ġl Ã£
ĠV ER
ĠR ome
ĠH ind
Î» Ïī
Ġt uj
iki an
Ġval d
Ġpe aks
r ate
ĠÑ ħ
ĠTechnolog y
Ġkho áº£ng
Ġain si
Ġst y
Ġinter est
Ġfo ot
zn am
om Ã¡ny
del ing
ĠtÉĻd bir
Ġs und
Ġevent u
ĠC art
ars hi
ĠÎºÎ¬ ÏĢÎ¿
Ġte e
ĠKen ya
ĠH Ã¼
ĠC ruz
ĠAB S
ÏģÎ¯ ÏĤ
ak oa
ĠÊ» e
od es
ĠÅ ĭ
Ġan lam
Ġal de
r Ã¡t
k Ã©nt
edd ing
ĠÃ©gal ement
Ġagr ad
ĠY Ä±l
w en
Ġl ij
Ġh oved
ĠW it
ĠPro jekt
ĠDev el
oc ar
em ba
Ġkoh t
Ã¤l la
g end
Ġbud get
ĠY ah
ĠO ther
ĠEn c
ni es
Ġum o
us er
N ew
Ġstar ted
Ġhal v
ĠE ff
ultur al
Ġl ut
Ġkl in
Ġbil en
Ġal ab
ĠK Ã«
ÅĪ uje
ic ol
G Hz
Ġ5 50
Ġvys ok
Ġm á»©c
s ia
ĠÄ° Ã§
Ġtra ining
ĠP ep
malÄ± dÄ±r
Ġmeng ambil
ĠkÅ« pono
Ãµ l
Ġnod roÅ¡
is tir
P C
ĠSing ure
Å¡oant Å¡o
v ist
ĠÖ ĥ
Ġg Ã¸r
ul kan
eri en
AS H
ĠDet aljer
ĠB ull
ala is
Ġm Å«su
Ġa ument
Ġmi att
Ġbas is
ĠT wo
ĠL Ã¤
~~ ~~
ta va
ĠðŁĴ µ
Ġpres entar
Ġpol y
Ġo thers
Ġab il
ĠT amp
Ġr Ã¤tt
Ġm io
Ġk ov
ÉĻy yÉĻn
ĠS to
Ġwal io
Ġku at
Ġce ea
IS S
ĠÎ±ÏĢÎ¿ ÏĦÎµ
Ġresult ados
Ġf inden
w ydd
d rag
ĠAk tu
ĠAbd ul
ats iya
Ġma chine
Ġb ayan
ĠK risti
ĠHo od
Ġy og
Ġe Å¡te
Ġhak una
Ġb áº¹ráº¹
ĠBlu etooth
qu is
IL E
Ġa antal
ersh ip
Ġpl ot
Ġfor me
ĠC B
es an
ĠRas ul
th an
Ġfor te
ĠPart y
ĠK um
Ø± Ø¨
ran e
Ġz ituen
Ġnum er
Ġalo ha
ĠA 3
or f
ay i
L a
Ġextre m
emp ion
amb ut
Ġing redi
gr und
ema al
Ġdis cipl
ĠHar ry
Ê» eki
ĠÃ¡ p
Ġinst ala
Ġg anz
Ġal isin
ĠZ Ã¡
ĠAl tern
sz ak
es it
Ġve ci
Ġprop erty
ÉĻm iyyÉĻt
yn ek
Ġn ational
Ġm á»¥c
Ġber ish
Ġkom pan
imm ing
EM B
Ġmeg fel
Ã¼d Ã¼r
Ã± en
00 000
Ġr ie
Ġm ev
ĠszÃ¼ks Ã©g
ĠMer eka
ar ako
ĠÎµÎ½ Ïİ
ĠP ink
ik ir
ia o
Ġh Ã¡z
Ġgr unn
Ġf iecare
Ġayr Ä±
ĠL V
Î¯ Îº
s ÉĻ
oa o
el ez
ĠX u
ĠSK U
ÄĻ t
Ġv hod
ĠP eny
Ä±r Ä±m
Ġpr as
Ġof re
ĠM om
Ġga ur
Ġf Ã©l
ĠWilli ams
ĠÎ¼ ÏĢ
Ġc ot
Ġjo oks
Ã© is
h eng
Ġpas se
Ġim pres
Ġhu quq
Ġc redit
ĠTy pe
ĠMet ro
ocia ciÃ³n
Ġdevelop ment
ĠLa w
or der
ell os
Ġyar ad
Ġter baru
Ġpu eden
Ġk to
Ġf apan
ĠProd ukt
ĠBo y
ĠÎ¶ Ïī
Ġp Äģ
Ġno z
Ġt iga
Ġesc ol
ĠaÃ§ Ä±q
Ġn Ã¶
Ġn Ã¤t
Ġh ez
Ġfirm y
Ġsiy as
Ġn ina
Ġmp aka
Ġj elen
Ġash tu
ir ts
Ġtar j
ĠEx pl
ĠA ks
Ġide as
áº¹ wo
IF A
Ġmeng atakan
ĠJ E
ĠH au
ĠAn im
ĠA er
ober no
Ġá¹¢ e
ĠF ind
ĠAlb ert
h ai
ĠHv ordan
hal ten
cy j
Ġkuiten kin
Ġer st
Ġpar ece
Ġf ÉĻr
im me
amb re
Ġtout es
Ġpl ats
Ġer f
in ky
ic ana
Ġfac t
ĠAl o
ci ale
ĠJ ard
âĢ ĺ
ÄĻ ki
r ado
H R
v eg
n av
ĠÏĮ ÏĦÎ±Î½
Ġy uk
Ġut ama
Ġso it
Ġsha xs
ĠCo ok
Õ¸ÖĤÕ µ
Ġt eks
Ġq ala
ĠpÅĻÃŃ pad
Ġhand ler
N ame
Ġkval itet
Ġj Ã¡tÃ©k
Ġg mail
Ġb Ã«n
Ġad dress
e en
Ġkor ral
Ġen eo
ĠdoÄŁ ru
Ġhop ena
ÏĮ ÏĦÎ·ÏĦÎ±
ap te
ĠÏĮ Î»Î±
Ġm ats
ĠlÃ¸ s
ĠMuj er
Ġ19 88
ÏĦÎµ Ïģ
Ã¡r Ã³l
ud et
ograf ie
al ash
Ġr Ã´
Ġpolit ike
Ġl ish
ĠS ide
ĠG em
us lik
ow ski
Ġh ut
á»į pá»į
ti gen
li ed
is ce
ĠÎ» Î¯
br ug
Ġw Ãł
ĠD ib
we ise
to i
Ïĩ Î¿ÏħÎ½
ÅŁ Ä±n
Ġso ft
Ġof ici
Ġn imi
Ġl inn
Ġa ha
ĠLe o
ĠðŁ ĳ
ĠK uv
uy á»ĩn
dag en
c ur
am ed
OL O
Ġweek end
Ġmeg j
Ġeg yszer
Ġp ud
Ġk ira
Ġbek end
ĠP ARA
Îĳ Î¤
Äį a
Äģt Äģ
ĠÎ´Î· Î¼Î¿
Ġv isto
Ġatt Ä«st
ĠN om
ĠH ang
ers o
c imento
ĠMe er
Ġv enta
Ġgj end
Ġg it
ĠN Ã¡
ik ki
ens es
Ġt iba
Ġmost ra
Ġmil it
Ġj ana
ly wood
l eme
ci ju
IT Y
Ġvid ere
Ġpos itiv
Ġg old
Ġd istr
ÅĤ od
l n
Ġz an
Ġny tt
Ġmi el
Ġlo od
Ġl Ã¥ng
Ġa udi
ĠAut om
e it
Ġmov ie
ĠJ obs
ĠFeder al
ux e
ENT O
Ġwa u
ĠmÃ¥ ste
Ġf ick
Ġ3 30
n ung
ica ÈĽii
Ġá¹£ áº¹
Ġse Ã±
Ġdies el
Ġberl aku
Ã¼ Ã¼
Ġv old
Ġob ras
et le
Ġtog ether
Ġdh idi
n ete
m ento
ir it
b art
ĠÃ¼ gy
Ġs Ã¤tt
ĠM OD
ĠÃºl timo
Ġke iki
Ġdam it
Ġac id
ĠA ix
h ere
ĠÊ»A Ê»ole
ul er
el ua
ĠAl p
Ġ( $
ingiz ni
ara wan
Ġfon ction
Ġcond ition
ka it
Ġk inn
ati u
za j
ĠWeb site
Ã¡b ado
r ang
et ara
Ġproc esso
ĠgÃ¼ c
k omb
Ġir ak
ĠI na
ĠH Ã¤r
P ar
Ġvar m
Ġl ille
Ġchu áº©n
ĠRep ublik
s che
WWWW WWWW
ĠF lo
pp o
Ġm astur
Ġm all
ĠCom pr
is ini
ik ko
Ġc Ã¼
ä ¹
Îº Î»Î·
ĠÃľ n
Ġsh i
ĠKom un
ro ve
EN C
Ġk Ãº
Ġf ri
ĠE va
Ġle ct
Ġj usti
Ġbat era
ĠO B
ĠJour nal
ĠÏĢÎµ ÏģÎ¹Î¿
ĠGro ot
Ãª te
lij ke
ib ili
ĠV ista
ĠR ing
Ġtempl ate
Ġse ad
Ġresp ect
Ġedil miÅŁ
Ġ36 5
Äį ov
Ġhe ch
ent in
ĠâĻ ¥
ĠÎ» ÎŃ
ch ia
am ne
Ġt áº¥t
Ġd ilo
Ġbet yd
ĠLou is
Ġ4 80
ap er
ĠÎ´ ÏħÎ½Î±
Ġp Ã¢nÄĥ
Î»Î» Î·
ul ing
Ġlan ak
Ġch ÃŃ
Ġber adi
ĠB áº¡n
rit ur
ale a
ĠÄį len
Ġru im
ĠG am
ĠEx cel
ãĥ ¼
ycz ne
Ġor szÃ¡g
Ġmil ioni
Ġdr uk
Ġcompl eto
k Ã½
Ġt und
Ġkonf lik
n ici
Ġt ÃŃn
Ġsam o
Ġpo Äįas
Ã¢ ni
ĠszÃ¡m Ã¡ra
Ġrag az
Ġkur u
Ġha ut
ĠL ady
á»Ń i
li wo
Ġja uh
Ġcom paÃ±
Ġ14 9
Ġn á»ķi
h il
Ġegy Ã¼tt
ĠK WA
ĠJ Ã¡
Ġs áº¯c
Ġrez ultat
Ġr Ã¡m
ĠL iver
ĠKomm une
ac ks
Ġw ash
Ġha eba
ĠMar y
ĠD ark
and al
Ġst ata
Ġny ingine
Ġmin h
ĠTall inn
ĠH ij
ĠF ri
is ku
Ġsay t
Ġpos i
x at
Ġb ong
ĠSm ith
ĠIN TER
ĠAR T
Ð½ Ð°
Ġsp ace
ĠnÃ¥ gra
ĠW ag
ĠA 2
Ġcle an
ĠU omo
ĠSp or
ĠG uer
Äģl Äģs
ol in
ap ai
Ġqu est
ĠhoÊ»ol ÄģlÄģ
ĠP Ã¤r
Î¼Î¬ ÏĦÏīÎ½
Îº Î¿Ïį
Ê»eki Ê»e
Ä° D
Ã¤r ke
yn t
iv s
LC J
Ġv Ä«
Ġr Å¯
Ġel em
Ġmant en
Ġm idagi
Ġaf ect
n ul
Ġm Äĵr
il ona
Ġparti do
Ġpar ad
Ġfapan eng
ĠC ou
Ġyax Ä±n
Ġmah u
Ġest an
Ġnga ahi
Ġj elas
Ġbon olo
ĠJeh ova
icion es
Ġref lex
Ġjet zt
Ġad apt
ĠmÃŃ st
Ġe cht
Ġc uma
Ġbaba e
ul lo
Ġcl os
Ġkw enda
Ġbe ho
ĠWest ern
ĠSp an
ro du
Ġsel bst
Ġfaol iyat
Ġaki wa
ĠM old
Ã¶ ss
l oss
Ġm áº¡ng
Ġd rag
Å¡ ka
ipp ing
6 00
Ġdo us
Ġ2 C
Ġc ez
ĠD op
Ġï¿½ ,
Ġprod utos
Ġol nud
ĠStock holm
ur ak
Ġs owie
Ġi et
l Äħ
ad ara
Ġtem at
Ġf els
ĠPr int
ĠJ ug
Ã¶ st
r uk
Ġn igba
Ġjan v
Ġi OS
Ġve id
Ġsad ece
ĠC ul
Î¹Î¿ ÏĤ
il at
ck les
ĠL itt
od im
ĠE ven
adi um
Ġsab ab
Ġproble em
x ar
Ġtran qu
Ġos lo
ez d
ant an
Ġguer ra
ĠH Åį
ÄŁ ul
osp od
an os
ĠN go
z un
sta w
ela ars
al ist
Y E
Ġiki wa
ĠEr mÉĻn
wer p
ĠPr is
Î´ Î¹Îº
on tr
Ġprojek tu
ĠSu om
ÅŁ ehir
ema is
Ġke adaan
Ġf ÄĥrÄĥ
Ġnhi á»ĩm
Ġnek Äģ
ĠmÃ¼ ÉĻyyÉĻn
ĠV Ã¤l
ese en
Ġrob ot
Ġs are
Ġkun der
Ð¸ Ð·
q il
g ÉĻr
Ġu f
Ġsesu atu
ĠT AN
Ġa ÃŃnda
l ede
Ġsv ÄĽt
Ġh Ã©t
Ġh aha
Ġg ona
ti q
aya an
Ġq verpgbel
Ġprobl eme
Ġkor r
Ġf res
Ġnost ro
Ġn ne
lak ase
ĠÙĪ Ùİ
Ġst res
Ġrak st
Ġdies em
ĠReg ist
f auti
Ġh ombre
Ġ20 21
Õ¡Õ ¢
Î¹Î± ÏĤ
Ġpod por
ĠUnivers itet
k st
Ġres ults
Ġmassas jerom
Ġkompl eks
Ġev olu
ĠOly mp
nic t
il ai
Ġv eter
Ġu its
Ġarr ang
ju ta
Ġme ji
Ġem er
Ġy enye
ĠF atÄĥ
n r
Ġvalam int
Ġto ute
Ġthu á»ĳc
Ġsel epas
Ġe ko
Ġdes p
Ġbud ou
ens ione
Ġqo y
n Ã¡v
az ing
ay Ä±n
Ġof in
aw eza
ĠÎķ Ïħ
Ġyap Ä±lan
Ä º
f ers
Ġve j
Ġpi es
Ġnigb ati
ĠHa eba
Õ¸ÖĤÕ ½
Î¼ Î¿Ïħ
ÅĤÄħ cz
f li
c ÃŃa
Ġz org
Ġun til
Ġne eds
Ġk ing
Ġarti go
äº º
ĠÏĢÏģÎ± Î³Î¼Î±
Ġz ij
Ġv inc
Ġlo op
Ġcop ii
Bo ok
ĠÎ´ Ïī
Ġbehand ling
ĠaÅŁa ÄŁÄ±
ĠB ard
ta p
M B
Ġwai hona
Ġna wet
Ġil yen
ĠP OR
Â¡Â £
z eg
Ġt ac
Ðµ Ð´
Ã¢n cia
as anya
alis mo
ĠÎ¿ Î¹ÎºÎ¿
ĠÎºÎ± Î½
Ġth Æ°
Î»ÎµÏħ ÏĦÎ±
on ym
ag ua
Ġmais on
Ġcont re
ĠLa ur
v ere
f era
Ġk ete
Ġg áº·p
ĠB aw
Ġprof it
Ġj eb
Ġe ie
Ġdal le
Ġd orm
ĠV ac
ĠK hi
Ã¸ de
ĠVol ks
vel le
r Å¾
ia ÅĤa
in ce
di ÄŁ
Ġszcz eg
Ġm Ã©t
ĠWo od
ator io
Ġg lad
Ġesta bl
Ġbe y
ĠH ung
ĠD aha
ta han
ni edz
Ġc Ãł
ĠSci ence
Äģ tu
ĠÃľ ber
Ġt ank
Ġd Ã©l
ĠL ing
el eg
c d
Ġti áº¿n
Ġo ukou
Ġik ast
ĠS id
Ġob y
Ġch á»ĳng
um ine
Ġtit un
Ġn anti
Ġ- ****
in form
Ġp oko
ĠR y
Ã¨ r
enn us
Ġva an
Ġnh u
ĠJ im
u ff
Ġng uvu
Ġna am
Ġint roduc
Ġdisp oz
ĠB aba
Ġ Ä±
iyan Ä±n
ang at
ĠÎ±Î¾ Î¹Î¿
Ġf estiv
Ġdeix ar
ic ks
ĠS atur
itt Ã¤Ã¤
ale an
OR A
Ġcamp a
ĠH ill
ĠCh er
Ġ à¦
qu Ã©
pr ia
ez en
and ishi
Ġhay at
ĠÅ £
Ġtloa ele
Ġ Ïİ
d igt
b yt
Ġu ÅŁaq
Ġpo ints
Ġcontra ct
ĠD og
Ġtr Ã¦
Ġk ÃŃv
Ġk ha
ia z
IC H
Ġl Ã¦r
Ġexper iment
ĠP are
un ti
b ab
Ġji Å¾
Ġd Æ°á»Ľi
ĠS ter
nost ÃŃ
Ġnov Ã©
Ġlo ob
Ġco unt
w ali
iv it
D D
Ġpan el
Ġm Ã¬
Ġcoll abor
Ùĩ Ùħ
ap or
ĠCali fornia
r and
lar g
ĠÎ´Ïį Î¿
Ġfor a
ĠP U
Ã© ra
par k
Ġv isa
Ġkh ÃŃ
Ġad il
ĠF ur
Î §
liy yat
Ġob ec
Ġesp eri
Ú ©
re as
Õ¥ÖĢ Õ«
elet sa
ben havn
Ġram ai
Ġpl Äģ
Ġperso ane
Ġk uro
Ġi phone
Ġar dh
ĠPort o
ik et
Ġn ola
Ġil ang
Ġay eke
ĠAdol esc
ĠÎ± ÏĨ
Ġv Å¾dy
ĠTer ra
Ġques tions
Ġluc ru
ĠkÃ¤ s
ĠIn dian
was se
Ġm ale
Ġjan uari
Ïį ÏĢ
I s
Ġqil gan
Î¯Î½ ÎµÏĦÎ±Î¹
oc s
ama is
Ġpass er
Ġnie uw
Ġav ut
ĠGon z
ÏĦÏĮ ÏĤ
Ġw ame
Ġins on
p iec
l eng
ab al
' '
Ġal es
Ġd rive
ĠR ib
Ïģ ÎµÎ¹
Ġp Åį
Ġgu ide
á»© a
ci er
Ġso und
Ġmo Ê»
Ġak ong
ĠR Ä«gas
w ango
ent ÃŃ
an ang
ĠS zer
it ung
Ġk Ä¼
ÏĢÎ¿ Î¯
ĠÎ¼ÎµÎ³ Î¬
ĠM U
ĠCas ual
ĠEiro pas
Ġz ir
Ġr ange
Ġc ambio
Ġb eri
ĠAj untament
la ub
ell as
Ġmb ali
Ġaquest s
w ek
c ing
Ġprogram ma
Ġp ali
ĠIn vest
Ã¤r g
Ġbid ez
Ġap oi
ĠP las
ÉĽ n
Ġdan sk
Ġc Ã¢u
ĠS ug
Å«k Å«
Ġro dz
ĠX P
ĠDeutsch land
w ake
Ġs ese
ĠE y
Ö ĥ
yor um
jum be
ina a
in ha
ĠR ud
lÉĻr dÉĻ
Ġsp ots
Ġqu indi
ĠhÉĻy ata
Ġr ii
ĠBB C
ec tivo
Ġbo a
ĠP ow
ĠH yd
ĠCast ell
ro gen
b oll
Ġlang e
Ġko ost
Ġf ina
Ġche gar
ĠD U
c ular
an ak
Ġter k
Ġpag kak
Ġg og
Ġcor po
ĠM ara
Ã¡ tico
ys ninger
Ġpi ir
Ġgá»į i
ĠT own
Ġseg ÃŃ
ĠgÃ¼n Ã¼
ĠR C
ĠBea uty
ra ad
h aba
ID A
iss ance
al nya
Y X
Ġel i
ĠRep ort
ĠL eng
og un
j id
Ġre cht
ĠmÉĻ qs
Ġmod ule
ĠPo int
ol ari
nÃ½ mi
m ise
ab ab
Ġvis ual
ĠN U
ot es
ĠØ ·
Ġre prod
Å¡i em
Ġperf ekt
Ġc ours
ba ÈĽi
Ġre ading
Ġpe que
w ezi
or ter
ng we
em er
Ġre gr
Ġmess age
ĠI to
ast us
Ġpass at
Ġmed zi
à³į à²
Ġn áº¹
Ġho y
Ġpe ale
Ġhor iek
we ar
gi an
Ġw ata
Ġula ÅŁ
Ġtim u
Ġpu is
Ġmin er
ÉĻ di
t art
S L
Ġy l
Ġh á»ĵ
Ġdin s
ĠOrgan iz
ĠN ob
any i
Ġutil is
Ġh á»¯u
Ã¡n s
Ġsm s
Ġm áº¥t
Ġih ned
laÅŁ dÄ±r
Ġbi ashara
ik m
Ġpak et
Ġinforma ciÃ³
ĠTh er
ĠD Ã©
at ter
Ġn ima
Ġa ire
ker ing
as u
Ġle bo
Ġg iri
Ġkir jo
Ġe au
Ġt ed
Ġse ves
Ġport al
Ġmb ili
Ġdituz ten
Ġch r
ĠNg h
j aran
Ġre dz
ĠR Ã©sz
Î³ Î·
g it
Ġper kara
Ġik ut
Ġexem plo
Ġ14 4
Ġle urs
Ġl ata
Ġc ut
ĠSe a
ĠLatv ijÄģ
ĠDa ily
ag al
Ġ18 5
Î½Î¿ Ïį
Î´ ÎŃ
Ġvi enu
Ġqiy mÉĻt
Ġbit amina
ĠFo od
ast re
Ġï¿½ .
Ġy ah
Ġpriv ind
Ġper gi
ÙĨ Ø§
qu era
Ġacord o
ĠVers ion
Ġ... ........
Ã¦k ke
f Ã©r
Ġlang s
Ġb Å«tu
Ġb ina
ĠV egas
ĠM C
Ġol tre
ĠHe ad
ĠBen z
ot se
lin es
Ġsh eria
Ġof ere
Ġmodif ic
Ġl yk
Ã¤t Ã¤
Ġpr u
Ġmaqs ad
Ġdon na
ĠInte gr
ĠCom ent
uz ten
un en
ĠT C
Ġseb etsa
Ġsag t
Ġc ela
ĠW M
ĠT X
Ġ áº¥y
à² ¿
s yn
Ġka wa
Ġcoment arios
fun zi
Ġv ÄĽt
Ġtemper atur
Ġs ulle
Ġl ua
Ġfem in
Ġbildir ib
ĠU yg
ĠU dal
ĠÎ´ Î¹Îº
Ġrend szer
Ġk Ã¶l
ĠOb ama
ĠEr n
Ġ" );
???? ????
ĠJan uari
ish me
Ġhak im
Ñģ ÐºÐ¸
ulu ÅŁ
Ġch ir
ĠAt lan
ĠW ala
Õ¸ÖĢÕ ®
ÃŃ da
ON E
ĠÕ° Õ¥Õ¿
ĠÎ¿ÏĢÎ¿ Î¯Î±
Ġsc en
ĠgÃ©n Ã©r
ĠW ij
re iro
Ġmod al
Ġf ry
Ġk ust
Ġch em
be er
Ġv Äĵrt
Ġpal ab
Ġg and
ĠS TR
ĠMat h
ze ÅĦ
bor ot
V ER
k Ã½ch
G I
Ġmil es
Ġjur id
Õ¡ÖĢÕ ¤
Ñ ī
ot ing
Ġst und
ĠPremi er
ĠP ublik
Ð°ÑĤ ÑĮ
c ad
ap ata
ĠtÉĻ qdim
Ġr enc
ĠM ER
Ã¼nas ib
ĠâĢĿ, âĢĿ
Ġide e
Ê» ili
nod uch
Ġy ona
Ġsitua ciÃ³n
ĠmoÅ¾ nÃ©
ele wa
ab eth
10 1
ĠCre am
it ation
G T
Ġth ing
Ġl lam
Ġges Ãª
Ġbe ach
Ġa str
owany ch
b Ã©
it uto
Ġpo e
Ġil in
ĠInform ation
itz ak
Ġpre ced
Ġek ip
ĠÔ± Õµ
ĠÃ¶z el
else a
alar ini
ĠktÃ³ ra
Ġbat zu
Ġ??? ??
re p
emp uan
Ġl oj
ĠPok ud
ĠD IS
Ġqyt etar
ad ir
Ġko op
ĠG an
á» ·
or ed
e ch
Ġn ud
Ġa ans
b orn
Ġne ut
Ġol ema
Ð¼ Ð¾ÑĤ
ier z
ĠÎĳ ÏĢ
Ġto ti
Ġp ays
Ġor iláº¹
Ġmen ang
Ġkom t
Ġid Ã©
ÉĻm mÉĻd
ĠJosep h
Ã¤s ti
em us
ant ung
ĠÙħ Ø¹
Î¿Î½ ÏĦÎ±ÏĤ
Ã¤ hl
ar ÃŃa
Ġnu ev
Ġlaz ima
Ġjaut Äģj
Ġcr ush
ĠP Å«
ÏĦÎ® ÏĤ
ĠÎ¼ Î¹Îº
Ġme chan
Ġlay ih
Ġla u
Ġfa qat
Ġcle ar
ĠC anc
Å¡ ego
eh atan
Ġqual quer
Ġjav ob
Ġso zi
Ġarb ets
y ne
IM E
AC H
Ġva at
Ġp ane
Ġne em
Ġ19 20
Ġle ha
Ġev itar
uks essa
omm od
om ag
b ou
ĠÃ® m
Ġtempor ada
Ġsaj Ã¡t
Ġjuh t
Ġdob re
Ġaw á»į
Ġe ens
Ġap e
ĠÃ¥ t
Ġx Ã¡c
Ġt apa
ĠnÄģ nÄģ
Ġnuest ro
Ê»o ihana
or in
he el
Ġu u
Ġili ÅŁ
ĠPublic at
ĠJ ual
Ġjum lah
Ġdiff Ã©r
ĠM oz
uk at
C OM
Ġz yr
ak ang
ad ili
Ġsist emi
Ġkind ers
Ġki ÅŁi
× ľ
× Ķ
Ã¼s Ã¼
emm Ã¤n
Ġu omo
Ġke ch
ĠArch ives
y ka
sk om
re ff
Ġel la
Ġbu ah
Ġas njÃ«
ĠG A
ĠC oc
Ġ4 20
Ġnt ho
Ġadi re
ĠÎ½ Î¿
ĠÎ² Î¿
Ġh itt
ĠS kin
Ġ20 5
Ġre vis
Ġme ans
Ġdi Ã©
Ġd nÃŃ
Î© ÎĿ
d ÄĽl
Ġzam anda
Ġpost o
s ak
ĠSh u
ul ong
ĠÏĥÏĦ Î¿ÏħÏĤ
Ġres ol
Ġr uta
Ġd Ã¹
ĠP N
ĠK la
xs us
sk ich
ĠÄĳ áº§y
Ġser ia
Ġoc up
Ġi ma
Ġka i
ĠOr t
ĠLak ini
ĠI ra
ĠA jo
li er
F O
Ġt ahan
Ġma eneo
Ġm oka
Ġh áº¡n
Ġc f
ÏģÎ± Îº
uer to
re ady
ol ik
Ġci udad
l la
ick Ã©ho
Ġd Ä±ÅŁ
y j
Ġvit it
Ġk ara
ĠK ids
Î½Î± ÏĤ
Ä±lÄ± k
Ã¸p nin
Ã¡n dez
Ġta ong
Ġog gi
ĠhoÊ»om aka
tiv i
Ġres ist
ĠmÃ¼ s
Ġj ok
Ġhav ing
ĠInterna cional
ĠA ch
Ġ26 0
Ġhal f
ĠC OR
Ġpic c
ze ug
ad z
S e
Ġmai o
Ġbela jar
ĠS ind
ĠPh ot
ĠAmer ik
ost as
Ġvar it
Ġi kan
T U
ĠÎµÎ¯ ÏĩÎµ
aks an
Ġsn el
Ġmej ores
Ġace astÄĥ
ĠL ov
á»į á»į
un os
Ġvel oc
Ġk ald
Ġd ende
ĠR ena
ĠEuro opa
ÃŃt Ã¡sa
Ġsenti do
Ġc enu
t ons
IC I
Ġz ure
Ġki á»ĥm
Ġen ti
Ġel m
Ġdivers os
lh am
ent ras
ak ati
Ġda ir
ir ket
ant za
Ġst Ã¶r
Ġlek ker
Ġhol at
yl ash
hl opha
ĠÃŃ t
Ġf isk
ni ques
hl Ã¼k
ĠÅ¾ Ã¡d
Ġtre atment
Ġprac tic
ĠhÉĻy at
Ġest amos
ĠOb s
Ń Ĳ
Ġblu e
ĠPr et
ĠA ven
Ġc Ã¢y
Ġb elle
ĠN ATO
ĠAk adem
ÏĨÎ¿ Ïģ
rij k
US D
Ġdel eg
ĠView s
ĠP oh
Ġprzy pad
Ġi wá»įn
ĠU A
w il
b ut
ar ul
Ġus ar
Ġse ine
Ġet was
ĠIN D
w ord
Ġpropos ta
Ġ á»
l imited
Ġmo oi
Ġgro te
Õ« Õ¿
p ora
orn al
Ġbi olog
Ġby ch
Ġbah ay
Äį nÃ½ch
Ġsh opping
Ġand et
Ġa ter
si waju
ab ase
Ġplan ta
Ġhist ory
rim onio
os as
led ge
T B
Ġmah sulot
Ġh ava
Ġfamili ar
ĠLas er
Ġ25 5
Ðµ Ð²
Ġpuj cky
Ġm á»Ł
ges ch
Ġz eg
Ġm araq
Ġjar ra
Ġamb azo
ĠZ en
og rÃ¡
Ġtr áº£
Ġprovin cia
ĠFa ir
ĠÈ ĺ
ĠÄĳ Ãºng
Ġy ub
Ġtra va
Ġter ve
Ġditu en
Ġinterna cional
ĠhÉĻ min
Ġbel ow
Ġab and
ond s
ici i
Ġt á»į
Ġr Ã©c
Ġj ashtÃ«
ĠT rav
ord u
is un
ic ka
ak es
Ġnat ura
Ġ3 10
l eta
Ġesta va
Ġattiv itÃł
ĠT ang
uk sa
WW W
ĠÖ ī
id ar
ĠÏĮ Î¼ÏīÏĤ
Ġgy er
Ġc Ã¡o
ĠM ix
Î²Î¿Î» Î®
hi en
11 2
Ġvol unt
Ġa eg
r ary
Ġhav er
Ġer h
Ġd ina
Ġboph elo
ĠZ am
it oa
Ġverd ade
Ġpan ahon
Ġpak alp
Äģ ti
Ã¡n os
w is
tid ade
h eds
Ġtrad ition
Ġconc ern
Ġble vet
Ġal tijd
ch is
ĠÕ¨ Õ¶
ĠvÃ½ sled
ĠN ight
Î¹ Î»
ol oh
Ġper malink
Ġel abor
Ġcin co
ĠDies el
te xt
ich en
Q u
Ġun ga
ĠTr ang
ÏĨ Î·
h las
Ġu zt
Ġq arshi
Ġam ikor
w ed
c ode
Ġw ol
Ġoff ers
k te
Ġvi im
ĠgÃ¶r Ã¼l
ĠHier die
pl ik
Ġdif ÃŃc
Ġam igos
ĠP us
ĠO ra
by gg
Ġmad uras
Ġimp act
Ġc á»±c
Ġc Æ°
ĠD amen
nÄĽ nÃŃ
lag et
iss ion
Ġse ason
Ġrealiz a
Ã¤v Ã¤t
Ġpag i
Ð³ Ð°
Ġro kov
Ġon ts
ĠL abor
ni em
g Ã¥ng
an al
H TML
Ġhab ÃŃa
Ġgr os
ĠY O
ĠAs ÃŃ
l ane
asa an
ĠMP 3
Ġs alam
ĠQ o
ĠM ET
ĠG I
ÎŃ ÏģÎ±
r ost
inn u
ind wa
as ini
Ġb uku
Ġkat anya
Ġfut ure
Ġf Ã©r
Ġb ja
ĠMh eshimiwa
ĠLa ura
ap u
Ġdro g
ĠstÃ¸r re
Ġesta ba
Ġesc ola
Î½ Î¬
led ning
AY A
ĠvÃ¡l aszt
Ġth er
Ġre ken
Ġpro va
Ġd ele
Ġ19 60
uk ur
ĠbaÅŁ lay
yáº¹ whe
ez pe
b ers
Ġef ek
Ġdin am
Ġbur uzko
ĠPro v
ul ine
at ÃŃv
ĠB ash
ved ra
v ÄĽt
k Ã¶z
Ġmet hod
end ab
Ġmill or
ĠStor y
ĠS amu
Äĵ Å¡ana
ut ers
n io
ma ÄŁa
es in
ator ia
Ġpo Äį
ĠPil ip
era is
Ġterd apat
Ġ198 7
Äģd es
uz z
Ø§Ø ¬
kon omi
Äģ lu
2 20
Ġp amat
Ġfriend s
Ġa ge
ĠL ew
Ġ+ "
ĠØ¨ Ø§ÙĦ
Ġn Ã³s
Ġmil f
ot si
ĠtÉĻl ÉĻb
Ġser vis
Ġor in
Ġok un
Ġgi orno
Ġg adu
ĠPre is
Ġm ier
Ġcol lec
ĠB au
x ÃŃa
ĠâĢ¦ âĢĿ
Ġqu ella
Ġgi orni
Ġge f
ĠX alq
ĠPr zy
ĠH ack
Ã« le
Ġp Äĥ
Ġac ons
usi Ã³n
ĠÄĳ áº¥u
Ġty ch
Ġpuj cka
Ġobj ekt
Ġm Ã¼nasib
Ġach ter
Ġac ab
ĠU L
ĠIm age
iz k
elt Ã¤
ang aza
ĠpÃ«r f
Ġdec lara
ĠO il
ĠE fter
Ġ4 x
áº ¢
ĠtÉĻ min
Äģ ts
G S
Ġmar ang
Ġkr imin
Ġc ita
âĢĶ âĢĶ
s ide
jt ur
ON S
Ġsuc ces
Ġs Ã©rie
Ġki Ê»ekiÊ»e
ĠF inal
ier o
Ġno oit
Ġl artÃ«
ĠR eb
w ell
ĠPla za
Ġperts on
Ġk aks
Ġber at
ĠM aka
ĠH os
V ies
Ġy ng
em ukan
by g
ĠpÅ¯j Äįka
ĠprÃŃ p
Ġcompl eta
Ġbun un
ny i
iz ara
Ġuni que
Ġhan em
Ġd ÉĻn
on ti
Ġmil jo
Ġf ek
alar Ä±n
ĠÏĢÎ¿Î» Î¹
Ġvol ume
Ġh Ã¡t
ĠKo Å¡
ĠC ra
Ġ19 5
ri be
Ã³w i
le Å¾it
Ġszer ep
ĠhoÊ»ok Å«kÅ«
ĠIt em
all en
Ġs iti
Ġ1 B
Ġyal nÄ±z
Ġontw ikkel
Ġkar olo
Ġh izi
l ust
ENT E
Ġh á»Ĺ
ĠK ub
ĠG ÄĥseÈĻte
ri re
aliz ado
Ġke u
Ġhe art
ĠM ong
Ġh ek
Ġcont rac
ĠCol lection
Ġv eldig
Ġun ik
ĠSing le
ĠS ko
ĠyÃ¼ks ek
ĠviÅĨ Å¡
Ġres id
Ġpun ya
uv at
Ġya ÄŁ
Ġsiy asi
Ö ¼
is jon
ĠU it
Ã¡ te
ĠA UT
ri en
ev ens
Ġes paÃ±ol
us un
ts m
end ada
ell em
ek kel
Ġk esi
ĠTh ai
ĠD istr
Ġviz uri
Ġcir ca
Ġbe ha
ĠH amb
ler inde
eri al
IM A
Ġsym bol
voor beeld
ement ara
Ġkt Ã³r
Ġbene f
ĠR iver
ĠF ahr
ra cht
in ou
at at
US T
Ġw Ãªreld
ĠnÄĽ jak
Ġcor respond
emb ang
as ing
Ġw ed
ĠPort al
ĠC AN
og ar
Ġfin anc
ÏĦ ÎµÎ¹
len ÃŃ
iment os
ar ca
Ġop rav
ĠfÃ¸r st
Ġed iciÃ³n
ĠTim es
ĠP ere
ol ak
l ate
Ġceleb ra
ĠEx c
or un
onom ia
iv ed
Ġarbe ids
or me
av as
ag am
Ġx in
Ġpop ula
ĠM ann
Ġg il
Ġcal cul
Ġun Ã«
Ġsk river
Ã¡l u
Ġ/ ?
or ca
j ÃŃcÃŃ
aliz z
Ġmus ÃŃ
Ġmuh im
Ġg Ã¸re
ĠJ est
le en
Ġweb cam
Ġpros ent
Ġd imin
ĠFr iday
ul ang
ĠÏĢÏģÎ¿ ÏĤ
Ġmos ebetsi
U X
Ġu Ã§
Ġterm Ã©k
vo ud
im us
ĠÃ¶z ellik
Ġmk ubwa
Ġmin ha
Ġkil omet
ĠM ario
ĠE mail
Åįk ua
Ã¥ t
m ÉĻsi
ji en
ĠP I
Ã© ken
ong eng
ĠGi Ã¡
Ġp ha
ĠY en
ĠW 6
ĠA pro
ðŁ ĺ
Ġush bu
Ġl la
ĠCon n
ĠB ody
Ã¤l ler
a ut
ĠâĪ Ĵ
ĠØ§ÙĦ ÙĨ
Ġop sies
Ġlel aki
Ġish ti
ĠViet nam
Ġen fer
Ġaiz s
ĠQU E
a ja
Ġs ara
Ġpod emos
Ġgol f
ĠR oll
z eda
U n
Ġsz Ã³l
Ġr ena
Ġaf s
ĠAr te
Ġze in
Ġz s
Ġs ona
Ġh asa
Ġdi ber
ĠL EG
ĠKun st
ÙĬ Ùħ
Î» Ïİ
Ã§ ka
ne v
b d
Ġcor por
ig lia
Ġk endi
Ġche z
Ġap pr
ĠFr ont
ĠF ru
av es
Ġx at
Y T
Ġet dir
ĠK ost
ĠØ£ ÙĨ
Ġob ser
Ġob lasti
q lar
l Ã¡s
Ġs Ä±n
ĠiÅŁ lem
Ġfin ne
Ġb ala
ĠB ashk
ĠAnd ers
Ġ13 6
Î¸ Î¿ÏįÎ½
Ġi ye
Ġch ce
Ġam pl
Ġal tid
Ã¡ ni
el ev
ĠÎ¹ ÏĥÏĦÎ¿
ĠS yd
ĠCol lege
ĠA ct
v Ã¤l
Ġm ums
Ġl uf
Ġfre ckles
Ġfol os
Ġdax il
ĠS AM
ĠD isk
pi an
iss ement
Ġbet ul
ĠF ast
Ïĥ Ïĩ
ani es
Ġor ice
Ġhozz Ã¡
ĠEUR O
ĠÄį lov
Ġq ul
ĠbÃ¤ sta
ĠW ay
nie ku
Ġi emand
Äģ da
Ã¤n Ã¤
ur un
pet to
ĠMweny ekiti
ÅŁ it
ig il
ĠÎº Î¿Î½
Ġw arto
Ġqil di
Ġn p
Ġenc ont
ĠNo ti
ĠB unun
Ġsh pe
Ġpi el
Ġcall ed
ĠNg Æ°á»Ŀi
OT E
Ġposs ibile
Ġk ru
s d
ĠÃ Ŀ
Ġpi x
Ġb ub
ĠN H
Ġ% -
c 3
ad ra
OG R
ĠszolgÃ¡l tat
Ġse jak
Ġnu estra
Ġen qu
ĠN D
ĠD he
ĠÎ¬ Î»
Ġco ol
ĠW ah
Äģ ju
ou v
Ġto fauti
Ġab b
ĠMarek ani
Øª Ø±
lÃ¤ gg
ir r
ĠpÃµ h
Ġk á»¹
ĠR esearch
Õ¸Õ ½
ĠB undan
Å¾ ad
ĠÃ¤ nd
Ġris iko
Ġg ert
Ġan imal
Ġak in
ĠM R
ĠG un
ĠD rag
ier ung
ĠN ero
Ġ' )
ie urs
ic ions
arr ik
Ġimá»į ran
te il
m ani
Ġcli entes
ĠboÊ» l
ĠMus lim
Î¶ Î¯
st ill
ĠÎºÏĮ Ïĥ
Ġpie ej
ĠInd ustr
ra gen
Ġsitem ap
Ġbir inchi
ĠT Ã´i
ĠK una
ĠAn tal
emb ra
Ġprob ab
Ġp els
Ġmem ilih
Ġmedi ante
ĠK ec
st y
ita ciÃ³n
Ġtex to
Ġposky t
Ġf ata
Ä±r dÄ±
Î¯Î¶ ÎµÎ¹
l oh
ĠkÃ¼ Ã§
Ġka e
Ġde al
Ġbl itt
ĠS uk
ĠArtic le
ÃŃ do
ĠMagyar orszÃ¡g
ju ar
c n
ĠÅĽ rod
ĠPart ener
ĠH ob
Ġm eb
Ġalg una
ĠV á»Ľi
ĠS os
ul in
q al
Ġto uj
Ġsp Äĵl
Ġann on
ĠIh re
ĠH ata
em ong
Ġm áº«u
ĠTe il
ĠNet work
ĠMar ina
ibil ity
dd ÉĻt
Ġtop ic
Ġbak al
ĠA E
Ġki asi
Ġka ut
ven sk
\/ \/
w ort
le a
l od
ator y
S a
Ġqu ick
Ġproj ecte
ĠQ uy
ĠC T
vo er
Ġm Ã¡m
Ġizm anto
ĠJi whe
ĠJiwhe yáº¹whe
Ġ198 6
Î¿Î¹Î½ ÏīÎ½
zo ek
im ov
ile y
ht et
hi re
Ġte ÅŁ
Ġm ona
ĠSeb asti
Ġt Æ°Æ¡ng
Ġconc ert
Ġbehar ko
Ġz iliz
Ġunivers itet
Ġtouj ours
Ê» olu
vec kl
ĠLis Ã¤ti
Î¼ Î±Î¹
Ġvers k
ĠsÃ¤ ger
Ġlis Ã¤Ã¤
Ġfinan si
ĠMar co
g ado
der en
c en
Ġut l
Ġorgan iza
Ġi zen
Ġen car
Ġem i
Ġdar ah
Ġan um
ĠF ont
Ġ2 D
Hot ell
Ġtho áº¡i
Ġá»Į lá»į
Ġh ape
Ġb áº¹
Ġ36 00
Ïĥ Î¼Î±
imiz in
Ġfoc us
Ġo ku
Ġk eni
Ġex pres
Ġdan h
Ġ27 0
eve el
Ġx av
Ġek st
Ġava it
Ġ10 80
ÉĻy in
re vet
ĠH ii
ĠGol den
Î½Î¿ Î¹
t k
all ik
Ġx abar
Ġlok ale
Ġk iz
land i
er it
ER I
Ġz ac
ĠO la
yg g
n ÄĻ
g us
der a
Ġsist Äĵ
Ġs Ä±k
Ġis ol
f eld
b ad
Ġwid get
Ġv Ã¡
Ġs iste
ĠT ib
ĠP ab
ĠMa ch
ĠJ angan
Ïĥ Î¯
Ġhat te
Ġdar adara
Ġan tig
ĠM ine
ura ciÃ³n
unjuk kan
land e
2 10
Ġs ilm
Ġarte ko
ĠCat eg
Ġ ers
Ġvil ket
Ġre uni
ĠpaÃŃs es
Ġbez pe
ĠS ent
Æ°Æ¡ i
_ 0
20 19
Ġv enda
Ġmod ul
Ä« na
bo ut
78 9
Ġc asi
ĠS lim
ĠA J
Î¾ ÎµÎ¹
Ġrec uper
ĠCh elsea
Ġ[ +
ĠDe us
Å¡ it
h om
end us
Ġn erv
Ġdec ir
ĠS oc
Ġj amii
ĠPr om
ĠPr ime
ĠkÄģ na
nik Ã³w
ciona is
Ġst ret
ĠE du
ĠÅŁ irk
Ġun or
Ġu Å¼
Ġser b
Ġr áº»
ĠmÅ± kÃ¶d
Ġgeh t
Ġef ici
ĠVic toria
ĠFil me
olo ji
Ġlag er
Ġfil tr
Ġ13 3
has ilkan
dr ig
Ġtra j
Ã¡n t
mat ch
im enti
ih en
Ġq Ä±z
Ġih re
Ġi ev
Ġch ara
ĠR OM
Ġmag gi
ĠTag ged
ĠProduc t
v ide
r Ã©s
Ġl eder
Ġker Ã¼l
Ġfra g
Ġemak ume
ĠMil f
m iz
and Ä±
ni ÄĻ
d ha
chi ed
_ c
Ġzit uzten
ĠnÃ¼m ay
Ġl Æ°u
Ġf ashion
Ġal ready
ĠP f
ĠMÃ© xico
Ġ13 9
ol Ã¡s
at ges
Ġz ina
Ġmemb eli
Ġcons eg
Ġb era
ĠJ apon
ĠHist oria
Ġ13 4
ok on
ap á»į
Y O
Ġk ent
Ġamp li
ĠCar l
ĠB Ã¼yÃ¼k
s y
ena ar
Ġtar ko
ĠP az
agb ogbo
ag anda
É ĸ
Ã¡ci u
12 5
Ġlu áºŃt
Ġart Ä±q
ĠTr ading
ĠP it
| |
us ch
tif ik
has znÃ¡l
Ġn der
ĠFo und
ĠB ath
Ġperts ona
at ors
ĠÎĶ Î·
Ġkali an
ĠL az
ĠC ant
ÙĦ Ùħ
ÏĥÏĦÎ¹Î± ÏĦÏĮ
is im
ere i
Ġno ong
Ġkr Ã¡s
ĠPier re
á»ĵ m
Ã³ Ì£
he en
ah in
Ġind ir
ĠFre der
sk je
ev ap
Ġra ya
Ġprofes or
Î½ ÎµÏĤ
Å¯ sob
Ġv ui
Ġd ello
ĠK ali
ĠF Ã¥
Ġves el
Ġtr Æ°á»Łng
Ġl ur
Ġd astur
á»į kan
Î¡ ÎĻ
Ġna il
Ġmat at
Ġavst Ã¸pnin
ĠN it
ĠE yi
Ġsec ondo
Ġlet ter
Ġf ler
ig be
ĠK AT
Ġt ayo
Ġsal t
Ġlo om
Ġber tan
ĠKos ova
Ø§ ÙĤ
v esh
Ġuw ezo
ĠPe ople
leg es
Ã¤t ta
v os
ul te
m oni
Ġvajad z
Ġom kring
Ġback pack
ĠVer g
Ġpri est
Ġm Ã³
Ġiw adi
Ġaj Ã¡n
ĠK H
ĠBar n
pon der
ent ly
ba u
Ġmes ma
Ġc ade
id del
g v
ela ar
Ġuy gun
Ġtom to
Ġl áº¥y
Ġer ror
ĠM Ã¤r
men ti
ĠÄĳ áº£m
Ġpe ab
Ġdu Å¼
Ġ" ),
Ã» t
ma is
Ġvi ÅĨa
ĠFl ash
Ġveh ic
Ġrela ciÃ³n
Ġpol isi
Ġad Ä±
ĠN Ãº
ĠI á¹£
ĠAhm ad
Ġwai ho
Ġkh áº£
os z
in em
ag et
Ġtr anh
Ġt Ãºl
Äģ lo
ribun al
Ġg ak
Ġaan bi
Ġa ici
Ġ198 4
tt et
or ti
ĠÄ° lham
Ġsitu ation
Ġresp ectiv
Ġng he
Ġc á»¥
á»į rá»į
Ñ ŀ
Ã§ u
Ã¤ re
ai ent
G F
Ġotr as
Ġmell ett
Ġasos iy
ĠBa ch
j ibu
ĠPost Ã©
ÅĤo Å¼
Ġk ats
Ġgi áº£
Ġav i
Ġann at
ĠWars za
ĠGen el
ĠCov id
Ðµ Ð³
ov ic
ari um
UL L
14 0
ĠÃ Ł
Ġpro g
Ġpat r
Ġmb Ã«sh
Ġcon di
Ġcan vi
re cht
own ik
ent lich
Ġmanif esta
Ġkat eg
Ġ00 1
Ã¡ Äį
ed u
b od
Ġv ri
Ġgro w
Ġdi h
Ġam et
ĠSim on
] ,"
ĠyaÅŁ am
ĠvÉĻ z
Ġsp une
Ġof ten
Ġkw al
Ġim per
Ġand en
Ġ Ã¡g
b Å«t
Ġdiff eren
Ġbras ile
ĠFRE E
us ter
ĠPop ular
Ġprinci pi
Ġb ete
ĠEm pa
un cia
land Ä±
kor lik
Ġguzti ak
ÄĻ ks
re ira
ets iz
Ġrich i
Ġg ÉĻ
y ong
ĠÏĩÏī ÏģÎ¯ÏĤ
id Ã¤n
Ġvol na
Ġh ib
ĠM ih
ĠFren ch
est ar
egi atan
and el
Äģ ku
he iro
es si
emp i
Ġmw isho
ĠPr isht
Ġ198 5
Ġto ch
Ġhol da
Ġedil ib
ĠUr ban
ĠU i
ĠN okia
um er
Ġmar ta
Ġde kat
in ie
ĠÎ½ Îµ
Ġz one
ĠsÃ³ lo
unt os
on an
Ġts ona
Ġes it
h Ä¾ad
atu z
al li
ah idi
ĠÎ£ Îµ
Ġlangu age
Ġinforma Ã§Ãµes
Ġf Ã¡c
ĠBe y
in ka
Ġw ÅĤ
ĠMateri al
ÉĻn dÉĻ
Ġik ka
Ġc ross
Ġalk almaz
ĠK eb
Ġ15 9
Ġb red
ĠL od
lo oho
Ġsa va
Ġpro kur
Ġprac ov
Ġlint ho
Ġkad Ä±n
ÏĦÎ¿ Î¹
ne o
_ col
ĠÔ ¿
Ġtul ad
Ġj oten
ĠB Äĥ
ist Ã¶
ĠÃ Ľ
ĠEr ik
b t
b f
ĠP ÅĻÃŃ
Ïĩ Ïī
tu an
ĠL am
ĠK las
Ġmb ele
Ġgj orde
Ġb ÃŃ
ĠEs per
Þ° Þ
v ara
a ir
Ġout ubro
tir ilgan
ia omi
ek ul
aliz ar
Ġmu ud
Ġmo is
Ġjan uar
ĠFam ily
ĠD own
ide a
Ġs Ã¦
Ġs co
Ġon ce
Ġdou ble
ĠPonte vedra
ĠCon fer
ĠAk tiv
ru ction
ec ko
Ġz wei
ĠnÃ¡s led
Ġn ete
Ġmak es
ĠWi Fi
Ġvo ir
Ġto te
Ġsa ÅĨem
Ġs Ã¤Ã¤
Ġq Ã¼
Ġp eli
ĠEv rop
ĠAB Åŀ
8 00
ĠwiÄĻ c
Ġt Ã©lÃ©
Ġliv ing
Ġexc ell
Ġeh k
Ġd va
ĠSte ph
ĠH á»Ļi
ĠâĢ ł
Ġmeng alami
ĠH ombre
m Äĵr
esi en
ck en
Ġse be
Ġolm ad
Ġo uv
Ġkay sa
Ġin izi
ĠN AB
abil is
S D
Ġv ÉĻtÉĻn
Ġsu fici
Ġol may
Ġjon ka
ĠH old
ĠGe org
Ġ Ã¡m
da je
Ġk ere
Ġig jen
ĠSil icone
ĠH oa
ok si
it ie
Ġndry shme
Ġd Ã©s
ĠMa xim
Ġorgan isme
ĠS end
kun rin
Ġáº¹ ni
ĠÎ» Î±
Ġtex nolog
Ġtep at
Ġsh ume
Ġkun na
Ġkom o
ĠHab ari
ĠAr c
ot in
Ġbeker ja
ĠCh ÃŃnh
itat ud
ir at
im ini
Ġyil da
Ġl di
Ġd lou
ĠS UP
Ãº j
ra is
Ġsig er
Ġan ima
Ã¡ me
ti mas
m Ã¼ÅŁ
isten cia
er in
Ġpens ion
Ġeusk al
Ġac tive
fic ation
Ġton Ã«
Ġteng ah
Ġr gan
Ġqu ale
ĠLes eli
Ð°Ð ±
qu in
P ro
Ġsh irt
Ġcomp ra
ĠT ema
Ã¼ ne
Ġs ekt
Ġp etr
ÏĥÏĦÎ± ÏĥÎ·
Ġol up
ĠV ari
ĠO leh
ĠÎºÎ±Î¸ ÏİÏĤ
ĠtÃ¡m ogat
Ġti enen
Ġsifat ida
Ġs na
Ġeg on
Ġal ors
Ġt áº£i
Ġra w
Ġinter ac
Ġexp ect
ĠMart ÃŃn
Õ¡Õ¾ Õ¸ÖĢ
la at
bet so
ER O
Ġti ed
Ġjo ylash
Ġd Ã¼nya
Ġcateg oria
ĠW ol
ĠL ars
ĠG ip
Ð ķ
s or
Ġvu oden
Ġpr ia
Ġk erajaan
ĠI van
ÉĻ lif
iz es
Ġvas it
Ġtem an
Ġquel ques
Ġpot rz
Ġdep end
B ay
ĠÎ¼ Î¿
Ġv dek
Ġp icha
Ġat rav
ĠW elt
ĠV N
ÉĻrk ÉĻz
Ã¸ res
f ang
ĠvÃŃde o
Ġo ia
Ġmet r
Ġdispon ibil
ec tiva
Ġt Ã¼rk
Ġpr esta
Ġ$( "
ÖĢ Õ¡Õ¶
K T
ĠÎ¼ÎµÎ³ Î±Î»
ĠÎ³ Îµ
Ġfil ter
Ġener get
ĠPla ce
ĠAl eks
Ġáº¹ ká»į
ĠÎķ ÏĢÎ¹
Ġt adi
Ġsl oven
az e
Ġva ig
Ġste j
tie f
ind ako
att le
Ġku alitas
Ġkh olo
Ġe ivÃ¤t
Þ¨ Þ
Å ½
uj emy
ĠO bat
ĠAnd rea
áº© u
ari ad
Ġpr en
Ġseg ala
Ġbel gil
Ġ48 5
ET E
Ġgra ag
Ġfr ente
ĠS op
Î´ Ïİ
Äĵ ties
u anya
P P
Ġl ena
Ġapro xim
ĠMan ufactur
Ð Ŀ
Ã¸ ger
Ã¤ ch
ilo eng
ĠÕ Ĩ
Ġtelev iz
Ġleg e
Ġj Ã³l
Ġgu ard
Ġro ce
Ġmil io
Ġinform asjon
Ġa tiv
ĠEl iz
Ñĥ ÑĢ
ev es
at aka
Ġtre k
li ance
is cher
h alt
ĠÏĦÎ¹ Î¼
Ġme este
Ġg eri
Ġun os
Ġma walan
ĠS hi
Ġ21 5
Y R
O ut
ĠzÃŃ sk
Ġuit g
Ġka Ê»a
Ġhang gang
ĠPerson al
tr on
as tic
Ġsh kr
Ġdou Äĥ
Ġb á»ĳ
ĠF le
j ua
el ela
OR I
Ġvar at
Ġdes puÃ©s
ĠYo ung
ĠS olo
Ġut k
Ġl abi
Ġj ah
Ġfor bind
ĠP ac
ĠEng land
uc tion
2 50
Ġber m
ĠaÄŁ Ä±r
ĠY es
Î ĺ
ent zi
ĠÏĢÏģÎ¿Ïĥ Ïī
Ġvy Å¡
Ġsc op
Ġfog lal
Ġen nen
Ġbul unan
lÉĻ y
Ġve i
ĠH ona
ÉĻlÉĻr inin
_ L
Ġprv nÃŃ
Ġcual quier
zer w
yd Ä±n
I j
Ġpat h
Ġch amp
ĠMens chen
z ne
k Ä±
F S
Ġh umb
an at
Ġs illÃ¤
Ġma Ã±
Ġf ili
Ġen ne
ĠL ud
ag in
Ġn Åĳ
Ġl ank
Ġc ra
ĠO D
Î½Î· ÏĤ
Å« p
im er
g re
Ġqu esti
Ġmod ell
Ġhu v
Ġer ab
ĠOp era
ĠDes de
uss ion
er ra
ast ing
ali fik
Ġest ilo
ĠDevel op
is lam
Ġt alo
Ġolun ur
Ġbec ome
ĠE th
olo Ä£
alah an
Ġt ong
Ġre Å¾
Ġl á»±a
à¸ ²
pr Ã¡v
M e
ĠÃºltim os
Ġot Ã¡z
Ġcal idad
ĠÏĦ ÏģÏĮ
Ġdom ic
Ġcat egor
ke er
ĠÎµ Î¼ÏĢ
ĠrÃ«nd Ã«s
el igt
Ġv ele
Ġsv et
Ġim kan
Ġcer ita
ĠO z
ĠN Ã©
ĠK m
vi ja
is la
ilm ente
b id
ĠBu ild
uc oup
Ġto Ã¡n
w ick
ig are
ĠÅ »
Ġentre pr
Ġdin k
Ġd ice
Ġc Ãłng
Ġc c
ĠIn icio
Ġfl este
Ġah li
ĠH ud
Ġve ic
ĠH á»ĵ
ĠH ac
ĠF I
ĠBund es
Ġqu Ã½
ĠpÅ¯j Äįky
ĠD ost
Ġv inden
Ġne ue
Ġ13 8
Å« ra
Ã¶ Ã¶r
ĠvÃ¥ ra
Ġel et
Ġdik en
ĠC las
Ã¶n t
st elling
ĠvÃ½ kon
Ġprec um
Ġfa ut
ĠMor ena
ĠF et
m ez
ĠÃ¥ ret
Ġof t
Ġh eller
Ġg áº¹gáº¹
Ġen pres
ut ub
ie kt
fÃ¸r t
ad al
Ġp ing
Ġli f
Ġl al
ĠCom er
Ïĩ ÏģÎ¹
ast ro
Ġol maq
Ġing l
Ġag ama
ĠD up
an ud
ĠØ§ÙĦ Ø¨
Ġtie Å¾
ĠpÃ«r b
Ġol u
Ġaf g
b ag
Ġprz ek
Ġdu zu
ĠCons ult
Ê»a ilona
ÅĤo ÅĽci
Ġins er
ur os
imp in
Ġtra vail
Ġstim ul
Ġst Ã¡le
Ġmet abol
Ġkole j
T 00
ĠÃ§ i
Ġper h
Ġket Ã«
ok ra
gr ad
Ġig Ã©ny
Ġespec ÃŃ
Ġb omb
ĠN Ã¥
ĠG ÉĻnc
Ġteknolog i
Ġit ems
Ġevery thing
Ġered mÃ©ny
ĠB ali
Äį it
ze y
ss en
V I
ig s
Ġt Ä«
n Ã¡l
el ong
ĠnghÄ© a
Ã¼m Ã¼z
om ini
ida an
b iz
ĠÃ§Ä± kar
Ġul tr
Ġt á»ĳi
Ġpu ud
Ġlang t
Ġapl ica
ĠE H
Ġsp Ã©
Ġk ogu
Ġf eh
ev in
Ġresult ado
_ T
Ġme est
Ġh ra
ĠQar aba
ĠK Ã«sh
te ÅĻÃŃ
le o
Ġgew oon
ĠW ohn
Ġ( @
ÙĪ Ø¯
Î¹ÎºÏĮ ÏĤ
v io
m ere
Ġvar Äĵtu
ĠP oli
ĠOn der
ĠG ym
po int
ast ra
Ġres ulta
man Ä±n
k end
Ġmak in
Ġka zan
Ġinter no
Ġg arr
ĠTh Ãłnh
ĠRe is
ĠMel ayu
Î» Î¹Î±
vy Å¡
Ġred es
Ġposs ono
Ġl ich
Ġap re
ĠP rac
ĠLes bi
ĠÐł Âµ
ĠÏħÏĢ ÏĮ
Ġrepre zent
Ġh inta
Ġf Ã¡
Ġca ÅĤ
ĠFr ans
ĠDon osti
s Ã¡g
Ġva ja
Ġv Äĵr
ĠhÃ¸ y
fic ar
Q uer
Ġsuks es
Ġsi Ã§
Ġma chen
Ġl ini
Ġg las
ĠG U
Ġâ Ŀ
Ġleg j
ĠE ins
ecuti ve
ci Äħ
Ġwar na
Ġk yk
Ã´ sob
ĠÃº pl
Ġko he
Ġex ec
Ġdu es
ĠSo und
ĠE ine
ĠBo oking
Ġy áº¿u
IR A
ĠR at
ĠE di
ĠE a
Ġondor en
Ġkan ak
Ġk ela
A h
ĠÎŃ Îº
Ġhe cho
ĠG EN
Õ¡ÖĢÕ ¯
el da
Ġpr akti
Ġbes lut
ĠPer Ã²
ĠH iki
à¸ Ļ
Ġti á»ĩn
Ġpa is
Ġinter esse
Ġd yr
ĠMed ic
Ġ16 8
er ak
Ġter me
Ġos Ã³b
Ġin k
ur Äĥ
r ade
oh u
IS I
Ġva ikka
Ġla o
ĠkÃ¤ytt Ã¶
ĠUn it
Ãµ t
Ã¨ m
ony esha
Ġmo eten
Ġasem enea
ĠH ÉĻr
ĠG jer
ĠBu ch
ĠAng eles
ĠÎ¼ Î¯Î±
ĠsaÄŁ lam
Ġess ay
ĠG D
á»ĩ p
_ d
Ġa ia
ĠEd it
Ãĩ ÃĥO
ers ey
19 0
Ġwa ch
Ġdou a
Ġdet al
Ġap ply
ĠW H
ĠM ala
go ta
am ua
S Z
M C
ION E
ĠÃ¥ ter
Ġgovern ment
Ġal drig
ĠProgr ama
ĠA in
yt k
Ġzaman Ä±
Ġbet eg
Ġa se
ĠS alam
ĠEm p
nal ist
eb ele
Ġd ys
xt ÉĻlif
as al
IL A
Ġvaz ir
ĠV on
ikut lo
Ġsa w
ĠpÃ«r fund
ĠJoh ns
ĠElektr on
up ra
Ġqad Ä±n
Ġn ation
Ġim plic
ĠAm bi
Ġ25 6
Î½ Ïİ
ÃŃm av
em alt
d ing
ĠâĹ ı
ĠÉĻ raz
ĠyÃ¼ks ÉĻk
ĠG ard
ĠmÃ¼ ÉĻl
Ġcitt Ãł
est ro
er ad
as ca
F T
Ġlib ert
Ġat ra
iss an
Ġret ro
Ġor al
ĠT UR
ĠD id
Ġsup ort
Ġsp ok
Ġis mer
ĠSet elah
v and
or ama
m ot
ĠtÉĻh sil
Ġh Æ°á»Łng
Ġch elete
Ġ":" ","
Îĳ ÎĿ
Ġar as
ĠSo ft
ĠShqip Ã«ri
ĠRa fa
ĠA 4
Ã¸ s
uri i
ĠÃ§ farÃ«
Ġsh art
Ġel imu
Ã¼n ki
Ġvu onna
Ġs org
Ġr reg
ĠH od
Ġvje Ã§
Ġtit ul
Ġrel igi
ĠkÃ¼l l
ĠkÃ¶r ny
Ġk po
r ys
Ġorta ya
Ġlo ad
Ġdr ess
ĠShqipÃ«r isÃ«
Ġ15 3
Ãł u
em ine
Ġdat or
Ġbus car
ĠDes car
tr yk
ĠÃ¢ m
Ġy ena
Ġn uc
ĠK esk
ĠBa ina
Ò ĳ
Î³ Î¿Ïħ
itar ia
ĠÃ§ Ã«sht
Ġpag ar
Ġni Å¼
ĠPr ost
ĠM oto
Ø³ Øª
Îµ Î²
P I
Ġ: (
Îº ÎµÎ¹
ap ie
ag ens
ĠZ w
ĠX em
ĠÕĢ Õ¡Õµ
ĠN V
ĠM Ã¡r
ĠC AP
l le
N ING
ĠÎº ÏģÎ¹
Ġosob y
Ġexpl ica
Ġaut on
ĠKr isto
ĠKar ena
ti ver
Ġmch ezo
Ġki ir
il ise
et ten
Ġw ent
Ġt jen
Ġi est
ĠDie go
Ġ15 8
Ġ13 2
od ik
Ġnaj lep
Ġj ack
_ A
Ġsell est
Ġjo an
Ġk one
Ġil o
ĠC X
ug enzi
p ost
ci one
ĠÎ²Î± Î¸
ĠÎ² Î¬
ĠÄĳ áº¡t
Ġuch aguzi
Ġsur gery
Ġq ish
ĠprÃ³ ximo
Ġclar o
ĠK w
ĠE tt
ter t
Quer y
ĠÎ¼ Î¬
Ġprogr ess
Ġma ja
ĠThan ks
Ġpas o
Ġc itas
ĠHol iday
Î ¦
Ãľ R
ik ita
M L
Ġt iti
Ġkan ya
Ġdel iver
Ġa Ê»o
ĠP ov
ĠJ as
Ġ15 2
Ġsp ons
Ġj ina
ĠM Äģ
áº¹ hin
er ver
Ġup d
Ġpr Ã©c
Ġj amo
Ġcil Ã«t
ters om
Ġtrans par
Ġarab era
ch em
Ġg ov
Ġd ili
ĠGre y
ĠA UD
zeni u
ic ulas
ĠÑ į
Ġpi et
ĠcÄĥ tre
ĠW C
es ed
elo of
ai h
Ġp rag
ĠkaÅ¾d Ã½
ĠAl g
z ett
Ġe cc
Ġá¹¢ i
Ġ13 7
liy inin
N o
ĠÃ¼ les
Ġter r
ip u
for table
Ġperc ent
Ġper usahaan
Ġme wn
ĠO ber
ĠJer usal
ur ah
Ġtay ari
ĠF est
f c
Ġinst rum
Ġart ist
ĠZ er
ĠV ien
ĠS ob
ol ul
n im
Ġoch ran
Ġkir it
Ġc ert
ĠN eb
ĠLe ave
Ġ15 7
ĠÃ¶ ld
Ġsup aya
Ġle ast
Õ¡ÖĢÕ ¿
is pi
ho wa
Ġversch illende
Ġl Ã¦ng
Ġg iga
ĠSt ad
ĠK ris
ÅŁ tÄ±r
ys l
ir lÉĻr
Ġst ation
Ġia itu
Ġazon ban
ĠRep ublic
ĠP oc
ĠAr sen
is elt
int es
Ġpo olt
Ðł Âµ
Ïĩ ÎµÎ¯Î¿
Ġlun as
Ġhud ud
Ġh uh
Ġh ep
ĠC orn
qu ina
ens te
Ġshak l
Ġhakk Ä±nda
Ġco ffee
Ã¡ri as
ub le
k ning
ig id
Ġf t
oko Ê»a
od ob
ĠØ§ÙĦØ ¬
ĠÏĥÏħ Î³
ĠRa il
inn an
ik ker
is ar
IS A
Hot els
Ġve ik
Ġme io
ĠT ea
Ã¼nk Ã¼
Ã¶ h
Ġtr up
Ġab ord
Ġprof iss
Ġfe ito
Ġat bild
ĠV AL
ĠCh icas
er no
Ġst k
Ġl Ã©t
Ġf eme
ĠK ina
ĠE konom
uma a
Ġqu ad
Ġav alia
ĠD rive
Ïĥ Î¿ÏħÎ¼Îµ
Î´ ÎµÎ¹
ÃŃt ÄĽ
r inger
p ra
ĠÐł Ñĳ
ĠÄĳ Ã¢u
ĠÃ© ves
Ġk ob
Ġan ci
Î¸ ÏħÎ½
v ast
iona is
ec om
bl og
ak ula
Ġz ie
Ġyo q
Ġw ym
Ġtur li
ĠR aj
ek l
Ġnov embro
Ġhom es
Ġdan ske
Ġca use
ĠK aw
y ÉĽ
Ġkab el
ĠCan on
u atan
ki es
Ġil áº¹
ĠVic tor
ĠNeg ro
sa uks
ET R
Ġsh ahar
Ġpro ts
ĠD ÃŃ
ĠA rea
Ġt ara
Ġp ener
Ġola caq
Ġma upun
ĠOh un
ist us
ele e
TR A
Ġnu eva
Ġaw oran
Ġab it
Ġa ikana
Ã¤ ssÃ¤
en h
ĠÊ»Åį lelo
Ġwind ows
Ġtr att
Ġpost s
Ġbi á»ĥu
ag ed
Ġr ost
Ġent rar
Ġd ici
Õ¥Õ ´
ÏĦÎ¿Ïħ ÏģÎ³
Ä° Z
ta f
l ud
Ġleg ge
Ġc ier
ĠUsh bu
nÃ© m
Ġqu atre
Ã¡ roz
ub er
for dr
an ja
ĠÃº nica
Ġterl alu
Ġint el
Ġdo od
ÏģÎ¿ ÏįÎ½
ĠÄĳo Ãłn
Ġo i
ĠmÅ¯ Å¾ete
Ġgi á»¯
Ġce Ä¼
Ġbuild ing
ĠS Ã¡n
ĠD NA
ĠAm or
ue il
b agai
ĠØ¹ ÙĨ
Ġp Äĵ
Ġnun ha
Ġdom ingo
ĠT Ã¤mÃ¤
ĠKle in
ĠGar cÃŃa
ĠAm ma
Ä ĳ
Ġty pu
Ġg á»ĵm
ĠAlex and
um enti
Ġenviron ment
us unda
so ho
or re
ap ot
IR I
Ø§ Ùĩ
ov y
k Äģrt
b ora
ĠÎ±Î½ ÏĦÎ¯
Ġr esto
Ġhe wa
Ġcar ta
Ġk ast
te i
ec o
Ġviss za
Ġpas sa
Ġp ess
Ġhum or
Ġfa ci
ĠSl ots
ĠR ug
Ġ... </
ad at
ĠÎµÏĢ Î±
Ġpost up
Ġj ours
Ġf ikk
Ġdon ar
Ġbeh Ã¶ver
ĠCh ild
Û ķ
ol or
Ġpreg unt
ovan Ã¡
ad ala
ÉĻr in
Ġman at
Ġm Äģj
ĠFern ando
ĠES P
Ê» z
sk ou
Ġt ula
Ġma endeleo
ĠG E
ĠD ij
Ġv wo
Ġch ip
Ġbus c
ĠL ah
ĠH vor
Ġ198 2
pr om
Ġset embro
Ġs ib
Ġc ore
ĠD j
ÏĢ Î¹Ïĥ
Ġt ard
Ġspe ed
Ġn ars
Ġishti rok
Ġfam ÃŃlia
Ġdes con
ĠCam era
ĠC af
it ario
Ġoff re
ĠB osh
Ã¤m Ã¤Ã¤n
ti us
edz Ä«v
ĠÎ³ Î½Ïī
Ġkawa ida
ĠTel ev
r ut
Ġperson nes
Ġle es
Ġkho a
Ġer far
Ġdit ugu
ĠK j
ĠD river
pr is
m Äģ
Ġmul ler
ĠH Ã¤n
Ġ+ +
Ġ() {
Äģk Äģ
ĠÎ¬ Î½
Ġto x
Ġnd o
Ġl iste
Ġdes tac
Ġcav ab
ust os
ost on
g p
er itud
ap y
Ġkand id
Ġe 3
Ġcel or
ĠG P
y ki
ario us
any ag
C oin
Ġen ough
Ġci alis
Ġch all
ÃŃc ulos
k ut
b m
Ġsal on
Ġclas se
ĠÎ±Ïħ ÏĦÎ¬
Ġst el
Ġr ett
Ġpunt os
Ġizv Äĵl
ÏĥÎ¹Î¼Î¿ ÏĢÎ¿Î¹
Ġlehet ÅĳsÃ©g
Â ©
Ġpl ans
Ġag baye
ĠT artu
ĠL L
ro h
Ġk ig
ĠM AL
Ġ14 6
Ġop t
ĠP and
Ġ- .
IC S
AC T
Ġf us
ĠLu ft
ĠCon tr
Ä«j umu
Ã¡ ga
UL A
Ġp ani
Ġerb jud
il os
ch tig
ĠpÃ© ld
Ġpou ze
Ġgro ep
Ġ] ;
Ġfinn er
lo op
it ul
es cu
Ġch an
ĠW EB
ĠQu ando
ĠD k
ĠD N
k ia
ilm esi
ap Ã¤ev
Ġseben arnya
Ġs ut
Ġpas Äģk
Ġkyl lÃ¤
Ġb aca
ĠJ ones
ĠCum hur
Äĥ to
uk ka
ma an
hu is
ĠH op
s Ä±z
is eksi
UR E
ĠvÃµ im
ĠPro jek
ĠJ el
ĠDe fin
ÄŁ raf
lav ÉĻ
all as
Ġt and
Ġs iap
Ġprov oc
Ġcre ar
Ġ[+ ]
ĠSer ie
ĠK ai
Äĵ ti
Ġtá»ķ ng
Ġoff ici
Ġn asta
Ġkam ar
Ġfe atures
Ġdago en
ÄŁ in
w ards
ee ee
X L
Ġwor ks
Ġsk or
Ġmell or
Ġd raw
ĠT ube
ĠH ala
ix e
Ġprox ecto
Ġob x
ĠnÃ©l kÃ¼l
Äģ ta
et ul
da fi
Ġyox dur
Ġt Ã¤mÃ¤
Ġmt oto
Ġit an
ĠMur ah
Ð¾Ñģ Ð¼Ð¾ÑĤ
um am
rop ol
r ash
ov Ã½m
j un
Ġk oke
Ġg av
Ġba jar
ĠTah un
Ġw Ã¼r
ĠJoh annes
ĠH appy
ĠB ry
Ġso f
Ġfih lela
Ġc ump
ĠCh á»§
Å¾ el
Ã¡ hoz
ulo y
ow ana
T ime
Ġv am
Ġtra g
ĠsÉĻb ÉĻb
Ġl t
Ġet ab
ĠNor sk
Ã³n ica
m ie
eny ane
Ġsk ute
Ġneg eri
Ġl iten
Ġex ample
ĠY am
Ãµ h
Ġli qu
Ġalt Ä±nda
ĠP Ã¡
ÄĻd zy
kl es
Ġpart n
ĠomdÃ¶ men
Î¼ Î¯
Ġtil by
Ġng j
Ġm imo
Ġk ÃŃn
Ġint elig
Ġd Ã©m
ĠSant os
ĠAr ti
âĸ Ī
u ara
id ores
Ġtal ent
Ġk Ã¤r
ĠgÉĻ tir
ĠO tt
Ã«r ore
ĠÄĲ á»©c
Ġz de
Ġproduc tion
ĠS uz
áºŃ m
Ġp ne
ks on
as ining
ar asÄ±
Ġtra fik
ĠgÃ¼ Ã§
Ġgyer mek
ĠR EG
ĠM ug
Òĳ Ðł
ill ik
BO OK
Ġra Å¾
Ä«b ai
ante d
Ġsp oj
Ġin tim
Ġesim erk
Ġdirek te
ĠCo ffee
p ok
Ġs Ã¡bado
Ġ= '
ut ada
ma ak
lig h
lan k
ĠÐ¡Ð Ĭ
Ġlag unt
Ġbah kan
Ġart Ä±r
ĠMod a
ug as
IT I
ĠstÃ¸r ste
Ġprost ÅĻed
Ġmaj Äħ
Ġho o
Ġc ash
ĠV ie
ĠBraz il
is em
Ġsu y
Ġsi waju
Ġho je
Ġg t
ĠAl um
Ö ¸
uni ani
og r
Ġn ÉĻfÉĻr
Ġmind ig
ĠÃ© Ã©n
Ġy um
Ġus aha
Ġens immÃ¤
Ġel los
Ġdi qq
Ġch ance
w adi
oh ana
eni i
Ġth ek
Ġs ung
ĠS OL
ite a
Ġvi ens
Ġha ur
Ġfebru ari
ĠProf es
ĠH S
te j
am atan
ĠÎµÏĢÎ¯ ÏĥÎ·ÏĤ
Ġy Ã¼r
Ġup ande
Ġcu á»ĳi
ĠKat egori
Ġ' ;
ia is
ĠÏĦ ÏģÎ±
Ġp eker
Ìģ c
utat ud
jo i
enta Ã§Ã£o
77 7
Ġv rij
Ġstad ig
Ġsoh bet
Ġp une
Ġgirl s
ĠMa ur
â ķ
ÄĻ cz
ĠÑ ĩ
Ġvo ord
ĠNg Ãły
ĠM EN
m Ã¡n
Ġthe pa
Ġg lo
Ġcustom er
ĠR iv
ĠBre ak
Ġ êŀĮ
Ļ Ł
Ġs ow
Ġs att
Ã¼y Ã¼
j ent
as p
Ġre ja
Ġa uz
ĠK ot
st Ã¥r
eni em
Ġz onder
Ġf if
ĠA po
led es
ak en
FOR M
Ġro bi
Ġperi ode
Ġn Ã¡d
Ġkut s
Ġkom ment
ĠJ usti
ut ad
ill ah
Ġtak Å¾e
Ġlu áºŃn
Ġfum ane
ĠSh ar
ĠFo ot
Ġiz le
Ġgi f
ĠU y
ĠM uk
k Äħ
it ik
ista a
cha in
4 50
Ġti eto
Ġnum ai
Ġfik r
Ġaf irm
ĠL ugo
ID E
ĠÏĥÏħ Î¼ÏĢ
Ġtem os
ĠlÄ«dz ek
Ġjed noduch
ĠPa ci
ĠK AR
ĠB ien
k Äģ
Ġs á»įn
Ġcom es
Ġber o
ĠAdmin istra
k ungan
ili an
het her
amis el
ĠÎµ Î½Î·
Ġro ad
Ġinner HTML
Ġg iv
te x
ni enia
ati h
Ġtemp le
ĠS uc
AN E
ĠÅ ĵ
Ġt edy
Ġch Æ°Æ¡ng
ĠT á»«
Å¡an os
q li
omb ia
ed al
ĠN C
ÉĻl ÉĻn
Ġr rez
Ġad idas
ĠY orum
ĠOdp ov
ĠH AB
g az
ay ang
aliza Ã§Ã£o
D W
Ġtra in
Ġo si
Ġl aten
Ġdist rib
Ġc ai
ĠO yun
ĠKet ua
Ã¨ ne
w m
uw en
r ete
ir kan
ĠÕ ¦
ĠÐł ÒĳÐł
Ġyuq ori
Ġtimp ul
Ġkommun ik
ĠelÅĳ tt
Ġdis abled
Ġcom mon
Ġaller ede
ĠY ak
qu ir
oke o
ir ÉĻ
Ġl s
Ġbast ante
ĠSpe ed
ĠEur Ã³p
un ie
ond ere
Ġliv et
Ġl iga
Ġkan al
Ġindustri al
Ġb Ä±r
å ¹
Ġt eb
Ġsu e
Ġh ond
Ġg dzie
Ġdait eke
Ġaquest es
ĠM ali
o oni
Ġmer r
Ġmener ima
ĠÅŁÉĻk il
Ġin ay
Ġh ores
AT U
ĠÐłÑĳ Ð¡
Ġt Æ°á»Łng
Ġt up
Ġpro wad
Ġlit lh
Ġl om
Ġdo el
uran ter
ji et
Ġsigni fica
Ġs ast
Ġhorret an
Ġ23 5
ĠÒ Ľ
Ġinform azioni
ĠdifÃŃc il
Ðµ Ð¹
ÉĻt lÉĻr
j av
isk as
c je
Ġy mp
Ġre un
Ġpaci ent
Ġon gel
ĠTall inna
ĠApl icaÈĽii
ĠÊ» ano
Ġqu eda
Ġnov as
Ġla c
Ġka wasan
ĠMov ie
G P
Ġin Äģ
ĠA uch
y si
ol os
ch isi
Ġsa Ãºde
Ġn est
ĠT elef
ĠLin ux
ub at
ici os
ĠÃ®n cep
Ġpens ar
Ġmeg sz
Ġcontin ue
ĠM astur
Ġth áº§n
ĠbaÅŁ qa
ĠT ry
im um
ik Ã«
fic io
ap ati
Ġï Ĥ
Ġy on
Ġvur der
Ġsu iv
Ġmed idas
Ġit i
ĠG iz
Ġ Ç
Ġex terior
ĠSt adt
ĠS ipas
Ġ198 3
ut usan
Ġn ngwe
Ġgb áº¹
Ġcons ci
l ation
ke iten
iciÃ³n s
ĠÃ§a ÄŁ
Ġxu á»ĳng
Ġhorm on
ĠT á»ķng
ra ag
Ġdir ela
ĠOrig in
Ġ1 A
ise x
Ġmun os
Ġjan u
Ġh Ä±z
ĠS ok
yt Ã«
int ele
AN C
ĠWa ar
ĠR adi
ĠPred iksi
ĠM H
Ã© ro
ve id
l ÉĽ
Ġvra ag
Ġg ard
Ġc ura
ĠVlad im
Ãº z
Ġs ÉĻh
Ġng Ãłnh
Ġkar ar
ĠK ata
ab en
Ġr s
Ġkon struk
ĠgÃ¶ rev
Ġay ol
ĠX XX
ĠHa us
up aten
Ġts oa
Ġth umb
Ġra hat
Ġke q
Ġcad rul
Ġbre ast
nis se
ĠM ON
Ġreg el
Ġi u
ĠO T
ut ter
ul p
ep i
Ġgel di
Ġf ogy
Ġb rowser
ĠP ont
ĠNÃ« se
ĠBel gi
ut ama
l ets
jalan an
Ġx il
Ġre ak
Ġm Ã«s
Ġdis co
Ġca ut
Ġ8 50
r b
Ġsa ist
Ġndon jÃ«
Ġall en
ĠSpr ing
Ġ? ,
ti de
p erson
Ġvi ele
Ġse ul
ĠnÃ¼ Ã¼d
Ġle arn
Ġgo eie
ĠW ai
ĠH ulle
Ä« va
on op
h ong
et Å¡e
er oll
aa ju
G O
Ġw angu
Ġtemper atura
Ġt Ã¡v
Ġjij ini
Ġi rit
ĠB ers
ĠÐłÂµ ÐłÂµ
ĠPol y
ĠOnt moet
Ä« n
us est
Ġde pois
ÅŁ am
z it
f n
ĠDi os
ĠCor por
os en
Ġris ult
Ġol um
Ġfollow ing
Ġb Ã¡s
ĠH oz
Î¸ Ïħ
ta ger
aksan akan
Ġiro yin
ĠV iv
Ġ3 80
Ġ13 1
æ Ī
Ġword s
Ġkos ka
ĠS AR
ĠMol imo
ĠD Ã¼nya
re iz
ilm ek
enn en
at la
ar it
ĠÄ° ns
Ġreview s
Ġdit er
Ġb und
Ġa unque
ĠV intage
ĠC 3
us kan
ed uro
ĠÄį inn
Ġold al
Ġer antz
Ġak Ã¡r
ĠC loud
Ġkol ay
Ġha Ê»
Ġ21 2
ko Ä¾
as ure
ĠâĤ¬ /
Ġprogram u
Ġa up
ÏĮ Ïģ
ĠfÃ¶r etag
ĠTer min
Ġterm Ã©sz
Ġol id
Ġment al
Ġda erah
Ġac ross
ĠIm m
ic ano
ĠÕ° Õ¡Õµ
Ġub yt
Ġs ede
Ġnil ai
Ġn op
Ġjin si
Ġdr am
p pe
AD I
Ġv Ã«sh
Ġobjet ivo
ĠK M
ĠH ez
ĠD PH
ik y
f d
ang el
anc ed
Ġserv ir
Ġsa ve
Ġsa il
Ġmag net
ĠB U
Î¸Îµ ÏĥÎ·
p ek
j k
Ġg iven
o wa
d ul
ats he
ĠÎºÎ¬Î½ ÎµÎ¹
Ġvis z
ĠInstitu te
âĢ İ
Ġpo zi
Ġp ÃŃs
Ġc yn
ĠO ro
ĠL op
f ig
am ista
Ġkus ema
Ġiqtis od
Ġconv eni
Ġap i
sk er
ĠÎ³Î¹Î± ÏĦÎ¯
Ġr á»Ļng
Ġkle ine
Ġker k
Ġex plo
ys s
bl ed
Ġsj ell
Ġku anz
ĠDun ia
Ġ4 000
r ets
c zenie
al ie
Ġp ick
Ġe w
ĠU ma
Ã«n dr
zim mer
Ġkn own
Ġj ro
Ġan teri
ĠTod os
Ïģ ÏİÎ½
Ìģ n
y im
Ġvilo yat
Ġd ers
Ġc uri
Ġ. âĢĵ
Ã«s ia
en in
ak nya
V E
Ġartic les
ĠK ara
ÏģÎ¿ ÏĨÎ¿
Å£ iei
si Ã¤
pun kt
os ha
Ġzdrav ot
Ġx á»Ń
ĠviesnÄ« cas
Ġting gal
Ġsh im
Ġcha êŀĮ
Ġbo oks
ĠIt aly
kt op
iy ah
ien ie
AP A
Ġul u
Ġre ady
Ġfig ura
Ġcon ti
it on
for mer
end om
11 3
Ġb epa
ĠN agy
r Ã«n
k Ã©p
in ot
Ġur b
Ġt umb
Ġma ila
Ġc Ã¢t
Ġbl ant
Ġbea ucoup
ĠO le
re ch
Ġv Å¯
Ġs ost
Ġdo ing
Ġd Ã«
ÃĪ Ãĭ
Ġâĺ ħ
Ġtan ul
Ġsah ib
Ġric erca
Ġle j
Ġf le
ĠO br
zi cht
tik k
or ation
Ġsl ots
ĠAssoci ation
lik u
ent uk
Ġbel irt
Ã¼n ÉĻ
ĠÎĿ Î±
Ġteg ev
Ġg ord
Ġeks per
ĠLiver pool
k ort
is ma
ACI ÃĵN
Ġt ube
Ġle pas
ĠhÅį Ê»ailona
Ġeurop e
Ġag ua
áĥ Ĳ
Õ¸Õ ¬
ito are
ita an
ĠCym ru
et ler
at lar
ĠÎº ÏģÎ¹ÏĦÎ¹ÎºÎŃÏĤ
Ġreg ister
Ġpob la
Ġn ip
Ġmet ode
Ġc áº¡nh
ras se
Ġc iti
ĠÅŁ ÉĻr
Ġsv Ã¦rt
Ġmegfel elÅĳ
Ġk b
ĠHow ever
ĠÅŁ Ã¶
Ġver w
ĠdÉĻyi ÅŁ
Ġde fault
Ġcli ente
ĠT U
ĠKÃ¸ benhavn
at ang
F I
Ġth ought
Ġstre aming
Ġgrup os
Ġd ll
Ġbang we
ÏģÎ± ÏĤ
ang kat
Ġre kom
Ġg ÉĻnc
ĠL una
Ã¶ ff
ha al
era Ã§Ã£o
K L
Ġz az
Ġst ro
Ġkapcs ol
Ġfin ale
ĠJ Äģ
ÉĻs ÉĻn
wan ie
s v
ivers it
Ġp amp
Ġmor gen
Ġk ili
ĠYe howa
ĠGerman y
Ã¡ bb
r k
id ler
ĠÎ³ ÏģÎ±
z ig
jaw ab
Ð° n
uk seen
ier on
Ġ3 40
Ã¤h kÃ¶
Ġsk u
Ġan nÃ©e
ĠSa ÄŁ
ĠOr ange
ĠM ej
ĠAl man
Ùħ Ø§
tic ia
ĠnÃ¸d vend
Ġhuj jat
ĠdÃ¶n em
Ġav an
Ġ14 3
ÄĽ n
at ely
ĠÄģr st
Ġgev al
ĠP alm
ĠLoc ale
ip un
Ġb ind
æ ĺ
Å¡ ia
sio oni
ik il
ar ele
ĠÏĥÏħ Î¼Î²
Ġwe ight
Ġun ul
Ġcol abor
Ġai he
Ð¾Ð º
ith er
fica ciÃ³n
Ġplas tic
Ġim i
yr Ã«
ol ia
c zenia
Ġprote in
Ġk Åįkua
Ġin m
ĠS anto
ĠEl le
olu ciÃ³n
Ġpro iect
Ġg ÅĤÃ³w
Ġda ude
ĠO H
Ġ14 7
uer do
Ġsá»į gan
Ġse it
Ġk isha
Ġinf ek
ĠX e
Ġw eten
ĠvÃ¥ re
Ġbag us
ĠSe o
ĠO FF
ĠGb Ã¨
r ant
Ġî ĻŁ
Ġtari xi
Ġmen a
ĠTh á»§
ĠF unk
ĠAd ri
y der
jon en
f j
P re
Ġmon ta
ĠÄĳá»Ļ c
Ġtim er
Ġro oms
Ġri Ãªng
ĠPar lam
u ah
Ġv ip
Ġduk et
Ġav ent
ĠT ud
ĠK Ã¼l
ĠDiam ond
ul ation
dr uk
das arkan
ĠB urg
umb ani
l ung
he er
el ep
N r
Ġpedag og
Ġda u
ĠRuss ia
ĠM IN
uk ku
ad ow
ĠÎ² ÏģÎ¯
Ġtr ata
Ġst esso
Ġra is
Ġho xe
Ġd ul
Ġbackpack ing
ĠDou ble
si ÄĻ
esh in
Ġd Æ°á»¡ng
an ze
Ġmus lim
Ġek sk
Ġche ap
Ġb ost
n um
j mu
ir ing
ĠÏĢ Î¯
Ġtill s
Ġsz yb
Ġmin st
Ġmem bawa
Ġm lad
Ġkv inn
ĠiespÄĵj ams
ĠgÃ¶n der
Ġgam le
Ġde vi
Ġat bil
Ġab us
itÄģ tes
er man
Ġsor te
Ġsever al
ĠH va
ĠAl so
pt om
ada j
Ġp Ã³
Ġond erste
Ġde ja
Ġd river
Ġd lh
r ÃŃa
amn Äĥ
alit atea
ver o
or p
Ġpa ik
ĠBar u
ora Ã§Ã£o
la is
Ġbosh qar
Ġ19 78
Ã¤n s
z ania
oh un
ĠÐ »
Ġm Ä±
Ġdá»¥ c
Ġcent ra
Ġat u
ĠB le
Ùħ ÙĦ
w ater
Ġveg et
Ġp iek
Ġb aza
ĠYout ube
ĠChrist mas
ĠC es
ĠBaÅŁ kan
angg ung
ĠÎł Î¿Î»
Ġv riend
Ġhub ungan
Ġbag ay
ĠAB D
k ins
Ġinn an
Ġbat ang
hr ad
ĠvÅ¡ech ny
Ġnjoh ur
Ġ/> ...
ov is
ari at
RO OM
( ?
ĠÏĢÏģÎ¿ÏĥÏī ÏĢ
Ġx x
ĠoluÅŁ tur
ĠT B
ĠAN T
k ong
ir on
elm Ã¤
Ġtre i
Ġik inci
Ġ/"> </
Ê» au
um uz
rove ÅĪ
oo oo
Ġpan jang
Ġhand le
Ġedil ir
Ġcaz ul
Ġbu re
Ġsi x
ĠRÃ©sz letes
ti den
lov en
ib ara
ft et
S p
OC K
Ġá ¼
Ġv ende
Ġr iz
Ġkapcs olat
Ġho ja
Ġhip ert
Ġp Äĥr
Ġmen unjukkan
Ġmateri ale
Ġed ÉĻ
ĠV eri
_ 1
Ġul asan
Ġm obi
Ġbat ek
ĠT ie
ĠPro p
ta ciÃ³n
sa f
iyan ju
el ezo
Ġv itu
Ġk iko
Ġgo ede
Ġfr onte
ĠK ro
pos e
IT O
Ġreg j
Ġprak tik
Ġnec ÉĻ
ĠL ic
ĠGir ona
ĠC AD
Ö °
ÏĦÎ¿ Î³ÏģÎ±ÏĨ
Ã© li
ar olo
Ġmesa j
Ġ":[ "
ÈĽ iei
Ã³p ez
re de
k ili
ci ar
ĠÃŃ r
Ġem pat
Ġe he
Ġav ere
ĠAn meld
Ã¼ ber
Ãº ra
tim ai
Ġtechnolog y
ĠEr ic
ĠDo amne
Ã«s ore
he p
L L
Ġtie Å¡
Ġsport s
ĠSist ema
ĠOr ang
ĠBel ÉĻ
ung ano
ĠÃµ ig
Ġh ank
ĠT sh
ĠR az
Ġlav or
Ġfa il
ĠbÃ« het
Ġ$(' #
sk rif
os lav
ene j
Ġs all
Ġkun di
Ġh las
oss Ã¡g
Ġpal apala
ĠmÃ¼ xtÉĻlif
Ġmeningkat kan
ĠG raf
or ing
le z
de el
ĠtÃ« r
Ġtunt un
Ġsim u
Ġmat em
ĠZ ub
ĠFor ma
Ġ15 6
ĠÕº Õ¡Õ¿
Ġst up
Ġpar ents
ĠTh á»ĭ
ÉĶ n
un cio
Ġsese orang
Ġr z
Ġpi eni
Ġolm ayan
Ġna ik
ĠmbÃ«sh tet
Ġg etting
Ġ14 8
Ġâģ ´
Ġtre b
Ġp azi
Ġhist Ã³r
ĠAv r
Ġ16 00
Ġ( {
j aga
ĠvÃ¦ l
Ġmul i
Ġcan cer
ĠT we
ĠConst itu
ĠA zi
ire a
ĠpÃ«r sh
Ġol unan
Ġngu á»ĵn
Ġfit ness
Ġf ans
Ġdavom ida
ĠA yr
Õ«Õ ´
ist ent
Ġarbe jde
ðŁ ĩ
ur ri
l uss
anta i
ĠÔ ³
ĠÅ ĺ
Ġle id
ĠD ank
Ġspeci f
Ġbis nis
ĠP ek
ĠDis ney
ĠB ila
Ã¼ yor
pa q
b z
Ġst uk
Ġpri js
Ġor du
Ġkron er
Ġfor mas
ĠM ade
ĠF emme
Ġ15 4
Ã¡z at
E UR
Ġzin az
Ġtek n
Ġexperi encia
Ġalap jÃ¡n
ĠAlex ander
ick et
es ch
ĠÏĮ ÏĩÎ¹
ĠÄĲ Ã´ng
Ġbr enda
ĠN il
Ã¥r d
H H
Ġtar jo
Ġqu Ã¢n
Ġnos so
Ġkan ske
Ġinici ativa
ĠNum ber
ÏĬ ÏĮÎ½
Î¼Î¿ ÏĤ
y tu
ete a
ĠÃµ pp
Ġud hÃ«
Ġe el
ĠV IP
ĠRum ah
iss imo
ab oraciÃ³n
ĠÏĢ ÏģÎ¬
Ġlá»Ľ p
Ġgj uh
ĠBas ket
ad amente
ĠvÅ¡et ky
Ġs ema
onn ement
itz ar
Ġrendel kez
Ġmus ical
Ġk ÉĻs
Ġj emi
ĠAc tion
Å¾i Å¥
Ä« ju
or ik
Ġj em
Ġdoc tor
ĠF en
ri i
st Ã¤ll
al ani
Ġter li
Ġiran lá»įwá»į
Ġfid io
Ġf ab
Ġan nak
Ġ.) ,
ar Ä±m
Ġvar s
Ġsup pl
ĠM Ã¼n
ĠF riend
Ġter c
Ġtav s
Ġsom m
Ġl opp
Ġaast at
ĠK aya
ov ania
ima an
Ġch arakter
Ġc d
ĠN S
j ate
Ġb ibli
ĠGrup o
ĠCast ro
ÃŃt ani
Ã¡s ra
Ġtai fa
Ġpar lam
ĠmÄĽ s
Ġl uni
Ġf inder
åľ ¨
en Ã½
Ġparti e
Ġev ents
ĠNh Æ°ng
ÎŁÎ Ŀ
it ali
ĠL ogo
le ct
int on
Ġl ans
ĠI gb
ĠCh ip
us tu
j der
eti es
ĠÃ¡ o
Ġv esz
Ġpro dej
Ġmaa ari
Ġcer to
ĠP Äĵc
ĠMos k
ĠJ ab
ĠÕ´ Õ¡Õ½
riv it
op opo
av an
ĠzÃ¡k az
Ġvend ita
Ġnu ova
Ġmet ros
Ġk alo
Ġcos as
ĠL le
ĠAv ropa
jÄħ cy
0000 0000
Ġren ov
ĠgÃ¶ tÃ¼r
ĠAr ts
ĠA O
p ul
Ġpiem Äĵ
Ø ¦
isi Ã³
ir me
12 8
11 11
ĠðŁĺ ī
Ġsh ule
Ġma emo
Ġl Ã©p
es zt
Ġsel emo
Ġre ason
Ġnov os
Ġab ans
ĠMaatsoek ery
ĠM ÉĻh
ĠM ing
Å¡ wa
mas Ä±nÄ±n
ler den
ec ido
Ġma inten
Ġlos s
Î½ ÎµÎ¹
is zt
Ġph Ã¹
Ġm ira
ĠK g
wa ar
ĠÄ° lk
Ġph ÃŃa
Ġmon na
Ġmek an
Ġjar ri
et je
Class es
Ġâ ī
ĠÊ» oku
Ġsc reen
Ġproto Å¾e
Ġob dob
Ġmat apos
Ġeff ektiv
ĠRespublik asÄ±nÄ±n
ĠK ini
Ġ19 75
y q
j ast
h Ã¡ny
Ġqay d
Ġpar am
Ġp Ãł
Ġhuy á»ĩn
ĠVal ley
ĠQue en
ĠH art
è ¯
à¸ £
z era
Ġr ij
Ġpl ani
Ġmor al
Ġmemb aca
Ġh Ã¥l
Ġcat alog
ĠN abi
Ä¼ iem
lop edia
en ek
Ġke Ê»ano
ĠK eh
ĠFam ili
Ġ16 9
Î¼Î¹ Î¿ÏħÏģÎ³
Ġka Ã§
Ġfre qu
ĠT Ã¤n
ĠPost s
ĠMusta fa
ev at
O f
22 2
Ġy h
Ġod st
Ġg leich
ĠV eg
ĠUnivers idade
ĠT D
Ġist o
Ġb Äĥ
ĠGu est
å Ľ
Ġperm ett
Ġg Ã¼l
Ġel t
ĠU h
ĠFran cia
áº µ
t ÄĽ
ĠÕ¶ Õ¡ÕŃ
Ġuz man
Ġson der
ĠperÃŃ odo
Ġcid di
uk umu
maks as
in ia
Ġzd arma
Ġste p
Ġl up
Ġka as
Ġed iyor
Ã§ ilÉĻr
ug no
ta x
ed ik
Ġv Ã¹ng
Ġk Äģrt
ĠSte el
Ġ17 9
Õ¡ÖĢÕ £
z ij
at av
Z O
ĠÐ µ
ĠvÃ½ ro
Ġg Ã¡i
ĠLitt le
un ts
ok kal
c ement
J O
ĠÅ¡ Ä«
Ġmeny ebabkan
Ġinkl ud
Ġam ar
ĠK I
re kt
ne e
ig ua
ĠÕ¥ ÖĤ
Ġt ÃŃp
Ġof ert
ĠkÃ¶z el
ĠS Y
ĠE AN
ĠD F
à ·
y ra
lag s
ason ic
10 3
Ġliter atura
Ġg one
Ġc ame
on ekana
ent as
Ġpen uh
Ġná»į mba
Ġmeng i
Ġkind eren
iv ia
at asi
T he
Ġtent u
Ġsus u
Ġloc ated
Ġh rÃ¡
ĠF eme
ĠBur sa
f Ã¼r
E s
Ġseg ment
Ġjo al
Ġcon na
Ġa im
ĠL Ã³pez
ĠFin land
Ġ19 50
Ġ19 45
ven ir
uss ures
Ġl ana
Ã¡l nÄĽ
ver ten
over y
Ġth áº¥t
Ġsu om
Ġdi eta
ĠRo ulette
Ã¶ ssÃ¤
Ġre ma
Ġgra ve
Ġdav ant
Ġbun ga
Ġaur re
Ġal mal
Î¼Îµ ÏģÎ±
Ã¡ h
le ps
ick ets
cr etsiz
Ġpok ud
Ġhir u
Ġfoydalan ish
ĠAdmin istrat
ah ami
ĠvÃ¥r t
Ġqil ingan
Ġplay er
Ġht m
ĠPrez identi
isu uden
Ġjo in
Ġindustr y
ĠaÃ§ Ä±k
ÅĻ Ã¡d
Ġv áºŃn
Ġmen or
Ġgy da
ĠFebru ari
ew el
ed om
an no
Ġnam na
ĠO na
ĠNh áºŃt
ĠC AM
uh et
ag ra
ĠcÃ³ mo
Ġcomp at
Ġaut oma
ĠS N
ent ukan
ar da
ĠÏĩÏģÏĮ Î½Î¹Î±
Ġtid ur
ĠomrÃ¥ det
Ġol elo
Ġle arning
Ġdez vol
Ġaá¹£ a
ç ī
st ellen
ok ka
ato are
Ġos p
Ġhuk um
Ġd ada
ĠS ov
ĠProbl em
ĠN ET
ut ch
anda o
Ġpro iektu
Ġpar al
Ġk aki
Î¶ ÎµÎ¹
Ġvard Ä±r
Ġv ente
ĠmÃ¼ ddÉĻt
Ġam ba
ĠL ÃŃ
Ã¸k ken
q v
ah usay
ĠÎ¼ÎµÎ³Î±Î» ÏįÏĦÎµ
Ġling ua
Ġart ista
ĠJ aneiro
Ãº jt
i ak
W I
ĠÄĳ Ã´
Ġsi in
Ġc ep
ĠPhil ip
Ġ198 1
ÎµÎ¹ ÏĦÎ¿ÏħÏģÎ³
va Å¥
os is
og ram
iy im
eta ils
ĠÉĻmÉĻk daÅŁ
Ġkip indi
Ġforbind else
ĠPres idente
Ġtari f
Ġt rib
Ġlis ebelisoa
Ġheb t
ĠS EM
Ġ! .
á»ı e
ac s
ac es
Ġsub s
Ġon lar
Ġeg indako
Ġav t
ĠU pp
Ġthu Ãª
Ġsor un
ĠRÃ©szletes ebben
ĠLa j
ĠK ek
og os
m Ã©r
f am
ĠÃº nico
Ġsocia is
Ġobj ed
Ġkos met
Ġim pre
Ġcook ie
ĠEt x
ĠB id
ur den
op ita
ĠM ec
ĠJah ren
yk ke
perc aya
ion y
ĠÄįer ven
Ġs aran
Ġo inar
Ġf ete
Ġcond itions
Ġc ris
ÐµÐ½ ÑĤ
ete ik
Ġx an
Ġs ÉĻd
Ġpay laÅŁ
Ġko ÅĦ
Ġfig ur
Ġcor res
Ġcon toh
Ġ24 5
Ã¡ dz
part ner
Ġr n
Ġnum mer
ĠS EL
Ġ" "
Ġvij ana
Ġjooks ul
Ġb atu
Ġaur k
Î¹Î½ Î®
Ã¶t Ã¤
Ġvy p
Ġl á»ĩ
Ġbu en
ĠAg ent
Å ĵ
eb r
ap ag
ĠÃ¼z v
Ġtat too
Ġj Å«su
Ġiss ue
Ġgema akt
Ġex ecu
Ġbi á»ĥn
ĠB agi
Ä ļ
it uz
M D
ĠÄ° ng
Ġacc ept
ĠV inc
ĠPri x
Ã¼ p
Ġold uk
Ġhor ren
Ġh ombres
Ġd ÄĽt
Ġcheck F
ĠB ase
Ìģ t
Ġy w
Ġs Ã¼n
Ġr Ä«
Ġn m
ĠT Ã¼r
ĠProfess ional
sg Ã¡l
ing ut
b im
Ġl isten
ĠM G
gl Ä«t
ĠV ert
ĠS alah
ĠEsc ola
Äĥr ile
Ãłn cia
P a
Ġj ord
Ġh vert
Ġg adi
ĠTer baru
ĠM US
ga cha
etti in
Ġaplik asi
áº§ ng
Ã§ inin
us as
r Ã«s
Ġw oon
Ġl ake
Ġgy akor
Ġd ÉĻy
ĠTiran Ã«
ĠL angu
ĠCon se
ĠBrit ish
Ġ" -
Ġrel ated
Ġr ole
Ġka ilangan
Ġacc omp
ĠWe ight
ĠL ub
emp er
bas oke
at aifa
Ġac omp
ust ada
ing ira
Ġrep ublik
Ġpou Å¾it
Ġn asi
ĠJ amii
ÙĢ ÙĢ
ÅĨ iem
sp raak
o el
Ġr oma
Ġe valu
Ġvi á»ĩn
Ġdr ama
Ġbeg yn
ÅĽwi ad
uf uli
r Ä±
pos a
Ġvent il
Ġten en
Ġhotell et
ĠPr ima
ÃŃs lu
men o
iz ÉĻ
ģ µ
Ġsa ud
Ġreg ler
Ġn ia
Ġmw ana
Ġl ob
Ġgond ol
Ġgeh ad
Ġbum ili
Ã¨ le
tick Ã©
iz os
ĠÎķ Î¯Î½Î±Î¹
ĠK ra
l ock
enta i
Ġsp us
Ġs wan
Ġi x
Ġde ci
ĠLe f
at ra
ĠÃ§ Ã¶z
Ġsal es
Ġolun ub
Ġnor ge
Ġhl oka
Ġh are
ran o
Ġtr áºŃn
Ġper empuan
Ġond ers
Ġgev en
Ġdash ur
Ġcons eguir
ÉĻss is
vis ning
oz Ã³
jÄħ ce
g is
Ġq izi
ug en
IK I
Ġpl ane
Ġor an
ĠT ep
ĠH vad
Ġ; -
â Ī
Ġsta ge
Ġsid ste
Ġmw ingine
ĠB ian
ĠÔ ²
Ġatt rav
ps on
od zi
Ġv illa
Ġpag p
Ġne a
Ġben z
Ġserv izio
ĠO v
Î»Î¿Î³ Î¯Î±
Äģka is
itori al
ed zi
an es
Ġx usus
ĠnÃ« pÃ«r
Ġh Ã¶r
Ġag li
ĠS Ã¸r
ĠE str
Ġ. Â»
g Ã¥
ag as
Ġsa wa
Ġpen si
Ġlo y
Ġh Ã¶k
Ġf asc
Ïģ Ïį
Ġvir kelig
Ġvari os
Ġtan ah
Ġon do
Ġmed ida
Ġc á»ĳ
ĠV Ã¡m
ĠDom in
sh tÃ«
Ġokt Ã³
Ġn Ã¢ng
Ġdiv Classes
Î´ Î±ÏĤ
Äį il
ah etseng
Ġm ung
ĠbÃ¶l g
end ere
Ġta Äįu
Ġqu and
Ġor de
Ġ19 79
Ã¥r lig
iti an
Ġsz Ã³
Ġkel ib
ĠW N
ĠG ig
Ê»o ia
Ġg esti
ĠS j
ĠR ip
ĠCh Æ°Æ¡ng
iz ado
Ġwa ena
ĠvÃł ng
Ġtak ip
Ġsv il
Ġno in
Ġhl okom
Ġcr Ã©d
ĠS uj
ri ff
nic as
la f
Ġsuc c
Ġreg ard
Ġp owi
Ġm ese
Ġab ove
á¹£i á¹£áº¹
Ð°Ð½ Ð¸
ÉĻl idir
¥¤ î
ĠÃ¼ he
Ġwyk on
Ġsyn es
Ġst ories
Ġat rod
Ġarri bar
ĠT ouch
Ã¤t te
lan mÄ±ÅŁ
ĠÄĲi á»ģu
Ġpe ÅĤ
Ġkonk ret
Ġinc om
Ġibex_room_grid_ row
Ġad j
ĠSup port
ĠRus iya
ĠN ed
ĠG mb
ac jÄĻ
ĠÎĳÏħ ÏĦÏĮ
ĠV W
ĠHoll and
ĠEpis ode
ĠDiy os
ÏĥÏĦÎ· Î¼Î±
Å¡ ej
ir am
ide ak
Ġrespons able
ze e
eg ang
Ġv rou
ĠOs car
Õ §
Ã¡ci i
io ak
int as
g ba
R es
Ġliv re
yr ics
em pl
Ġfil osof
Ġdev ice
ĠSil va
ĠEn k
Ġ19 2
Ġ14 2
à² ¾
Ä° T
se z
ĠÄģ ina
Ġny om
Ġkr Ã¡t
ĠX box
Î´ ÏĮ
Äģ ko
Ġgra cias
ĠOdpov edz
ĠE arth
Ã¥ ll
s em
g smÃ¥l
Ġman faat
ĠM Ã¼dÃ¼r
ĠE B
us ika
se e
ĠÐŁ ÑĢ
Ġdat ings
ĠPol isi
ĠFac tory
ĠBo ard
tiv os
ted y
sk im
o ire
ler le
am ata
24 0
Ġval id
Ġl ongo
Ġinter nas
ĠIng en
ĠG li
ic on
hand el
ah iso
ĠÎº Î¿Ïħ
ĠÄĲ á»ĥ
Ġkan skje
Ġfor mer
ĠR oh
Ġ Ø§ÙĨ
c ere
ĠsÃ¥ dan
Ġg overno
ag na
ĠÎĳ ÏĢÏĮ
Ġver en
Ġi ya
ĠSel v
gg io
Ġsur at
Ġkop en
Ġkond isi
ĠH L
ĠA bout
Ġ29 0
Õ¸ÖĤÕ©ÕµÕ¸ÖĤÕ¶ Õ¨
es tion
Ġwah ine
Ġuv eden
Ġst Ã¡t
Ġpr at
Ġforma ciÃ³n
Ġde ep
ĠM ike
ĠIh nen
ĠAl an
ed ar
ĠtÉĻ hlÃ¼k
Ġmul her
Ġk teÅĻÃŃ
ur re
Ġko ordin
Ġh agy
Ġa ura
ĠH TML
ĠBer ita
se vol
Ġmar aming
Ġkat egor
Ġh its
Ġbr uge
Ġaltern ative
ĠDet ta
Î´ ÏģÎ¿
Ġass ess
Õ¥Õ¬ Õ¸ÖĤ
rac u
pla ce
ed in
ĠØ§ÙĦØ ´
Ġtil legg
Ġrend ez
Ġpar king
ĠmÄģ ks
Ġmb ro
ĠS as
ĠPol ic
ĠEduc ation
Ġmj ini
Ġma ig
Ġasp ect
ĠPV C
ĠAs li
Ġy u
Ġhvil ket
Ġan ay
ĠJ ordi
ĠG ep
Ø¨ ÙĬ
r f
ity ks
Ġn ob
Ġha w
Ġbol eng
Ġbak it
ĠâĢĿ âĢĶ
Ġol in
ĠJ et
ĠH d
tr ica
n Äĵ
j ack
ak ta
Ġnab ÃŃd
Ġme yd
Ġkosten los
Ġkom entar
ĠfÃ¡c il
ĠE asy
Ġ Ïī
amp oo
Ġkop i
Ġder ni
Ġas ia
l il
Ġv inn
ĠnÄĽ kol
ĠmÃ´ Å¾ete
Ġge hien
Ġw rote
Ġsvo je
Ġpun Ã«
Ġhehe he
ĠS ource
ĠJah re
ene i
Ġnev oie
Ġmar gin
Ġfl era
Ġeff ici
ĠTh ank
ĠFern Ã¡ndez
å °
et zen
88 8
Ġpr Å¯
Ġan e
ĠSingap ore
ĠN yt
ĠM áº¹
ĠÔ±Õµ Õ½
ĠÏĥÏħÎ½ ÎŃ
ĠÄĲ á»ĵng
Ġg awin
ĠL D
ĠØ§ÙĦ ÙĤ
Ġdu ela
Ġam in
ÉĻ ng
it á»į
ĠÏĩÏģÎ· ÏĥÎ¹Î¼Î¿ÏĢÎ¿Î¹
ĠwÅĤ as
Ġps ic
Ġpeng ar
Ġnos o
Ġh Ã¡rom
Ã© o
AC ION
Ġl áº¡nh
Ġezag ut
Ġeks pert
Ġeh tiy
ĠG om
Ġ áĥ
ill on
ak kan
Ġz ost
Ġm ingi
Ġka wan
ĠW or
ĠU se
ĠR an
st il
ja u
ens er
AN K
Ġá¹£e e
Ġpre a
Ġm Å«
Ġer var
Ġchar ge
ĠB our
ÏģÏī ÏĥÎ·
yc le
v ur
uran Ã§a
qu iler
Ġvir tual
Ġult ra
Ġpart s
Ġm Ã´i
Ġel u
Ġaus tr
Ġaktiv itet
ĠF az
Ġ18 00
Ġ, âĢ¦
w ale
ĠÎ¿ Î¼Î¬
Ġst os
ĠnÃ¤ ytt
Ġm Ãºl
Ġjak in
ĠN L
ĠK li
ĠB S
G C
ĠÄĳ Ã¡ng
Ġv lo
Ġv ivo
Ġsolu tion
ĠLib er
Ã¸r ende
Ġpo zy
Ġmed ical
Ġdak ika
Ġcom entar
Ġav ons
ĠMen urut
Ã¡ Å¾e
Ġroz wi
Ġc inta
ĠEtiqu etas
ÅĤ ow
ÅĤ at
Ã¤ iv
w yn
_ IN
Ġun es
Ġsam ar
Ġs Ã¢n
Ġmin imal
Ġloc ale
Ġkh Ã¡
Ġkh ut
Ġimp uls
Ġed in
ĠY us
ĠS ort
ĠPa ano
ĠJuni or
ÄģÊ» au
it ivo
ĠO len
ĠMo untain
} }
[ "
1 000
Ġwszyst kie
Ġte u
Ġst ati
Ġlag u
Ġci entÃŃ
Ġarr est
Ġ ÅĻe
ven tion
uren se
Ġtak ie
Ġmin ta
Ġesc olar
ĠAn y
Ä« vi
red o
lo q
OT A
Ġt Äģd
Ġshp Ã«r
Ġpr esti
Ġny umba
Ġgi orn
ĠBr on
ÅĦ ski
um es
it ari
do ÄŁan
A nd
Ġwi ele
Ġproc ur
ĠD esa
ÅĻÃŃ zenÃŃ
_ con
Ġdob r
ĠH in
ĠH ann
ĠCo untry
Î¼ÎŃÎ½ ÎµÏĤ
ilim ia
elik ult
Ġpre ci
Ġk ag
Ġgut x
ĠAm ateur
Ä±r lar
Ġts wa
Ġr f
Ġkun de
Ġb s
ĠS ez
ĠMus ik
Õ¡Õ »
tid ad
Ġtut ta
Ġsab e
Ġret ur
Ġk ayo
ter en
ov un
ĠÏĨ Î±
Ġam ong
ĠI X
us et
indu zi
ema an
AG E
ĠÎºÎ¬ ÏĦÎ¹
ĠÄĳ Ã´ng
Ġna Ê»e
Ġmog Äħ
Ġill ustr
Ġdies es
ĠK P
ĠCap ital
ut Ã©
Ġzv Ã½
Ġn aha
Ġhap pen
ÅŁ e
ch in
Ġv ÃŃc
Ġterrit orio
Ġl ekin
Ġab biamo
ĠAfrika ans
sp ev
olog ical
f ull
ar iki
Ġsal ud
Ġhu ahana
Ġapro ve
ĠR ag
Ġ19 69
j uh
Ġvis as
Ġpit Ã¤Ã¤
Ġkor rup
ĠI y
Ġ3 B
Ġ Í
á»į lu
ĠÃ¼z ere
ĠrÉĻh bÉĻr
Ġnz uri
Ġnum urs
Ġd Ã³
ĠQaraba ÄŁ
ĠAss ocia
ÏĦÎµ Ïħ
Å¡an Äģ
or is
ol ine
k und
im izi
any wa
aka Ê»i
Cl ick
Ġle ven
Ġk ilo
Ġis u
ĠhÃ£ y
Ġet apa
ĠLisÃ¤ti edot
ĠJ udi
ĠI v
Ġmor te
Ġm ja
ĠMent eri
ĠB amb
Ġax borot
ĠEst at
enda ji
ar si
Ġsep ti
Ġl ant
Ġhos sz
ĠG ur
ÏĢÎ¿ ÏĤ
Å¡ s
Ä Ĺ
Ã©rie ur
ine an
ang ka
ĠÅ¡ ajÄģ
Ġv em
Ġto imin
Ġpr endre
ÖĢÕ ¯
Ô± Õ
ts Ã¡g
oh ong
ild ir
f si
eb ra
as iga
ĠktÃ³ry ch
Ġfung us
Ġactiv itats
ĠPL N
Ġ":[ ],"
Ãģ N
r iekÅ¡
le Å¾
20 18
Ġre almente
Ġpol os
Ġmid del
Ġd ust
ĠR W
ĠF our
Ãł c
Ã¸ v
G U
Ġt á»©c
Ġpod á»į
Ġminut ter
Ġkon sep
ĠR EC
ĠErmÉĻn istan
ĠD aw
ĠBe it
inÄģ Å¡anas
eb be
Ġvai h
Ġus ul
Ġri es
Ġnom in
Ġimp ac
Ġaf ikun
Ã¡ u
z h
la an
amu zi
S ON
ĠN OK
w ane
ors an
ĠÎ¼ÎŃ ÏĩÏģÎ¹
Ġs Ã¨
Î¸ ÏģÏī
r Ã¦
Ġpr el
Ġnd iyo
ĠmÃ¼ q
Ġkut en
Ġkop Äģ
Ġin an
Ġhans Ä±
Ġeff et
Ġ9 90
et ro
ad d
Ġuna weza
Ġsen y
Ġr ut
Ġmassas je
Ġgob ern
Ġaten ciÃ³n
ĠSne akers
ĠHoÊ»ol ÄģlÄģ
ff el
Ġplus ieurs
Ġka ufen
Ġf im
Ġdu as
ĠT ÉĻ
ĠL ep
Ö ·
Äį er
ÃŃ Å¡
ĠÎķ Î»Î»Î¬
Ġre a
Ġmik Ã¤
Ġho áº¡ch
ĠDi ese
w ara
chi eden
Ġá»į wá»į
Ġny ÉĽ
Ð½ Ð³
i u
ĠmÃ¼ h
ĠTr as
ĠTh Ã¡ng
ĠK Ã¶r
ĠC Ã´
Î¼Î¿ Ïģ
rid ge
b ard
ET T
Ġsig nal
Ġq rup
Ġk th
Ġd ita
Ġaan lyn
ĠN OV
Ġ14 1
pr ice
Ġbat ter
ĠTari x
ĠR end
ĠE la
ĠAk ua
Î· ÏĤ
Î³Î³ ÎµÎ»
alar ga
I H
Ġqu alitÃ©
Ġmin eral
Ġkh á»ıe
áº¡ p
Ġfot ografi
Ġd Ã¶
Ġbur uz
ĠF ev
ĠAn th
v Åĳ
fic os
Im age
Ġsel ect
Ġpoz em
Ġktor ÃŃ
Ġest es
Ġb umi
Ġant ol
à¤ ¾
z b
vi es
ul uk
Ġstr and
Ġs ott
Ġmil jÃ¸
Ġlil emo
ĠPab lo
ies z
Ġyay Ä±n
Ġt Å±
Ġpend ek
Ġmaj ÃŃ
ar ÉĻt
ĠÃ© d
Ġkan e
Ġe ikÃ¤
ĠG eld
Ġ" },"
ÏĨ Î¬
vi Ã¤
ues it
ĠÅŁÉĻkil dÉĻ
Ġv ou
Ġular ni
Ġsk j
Ġk Ã¸b
Ġi v
Ġay at
ĠTr en
ĠMag ic
Ġ) (
Ð¸ Ñģ
iz ation
ĠÄ¾ud ÃŃ
Ġsebelum nya
Ġkry es
Ġk ile
Ġincor por
ĠS ome
Ġpre cios
ĠBa x
wa ard
te de
ar ap
Ġre ach
Ġp una
Ġhuy u
ĠfÄĥ cut
Ġconf lic
Ġactu ally
ĠPres iden
ul y
timo iy
etar ako
en Ã§a
d elen
am ma
Ġwana wake
Ġte ach
Ġspos Ã³b
Ã£ i
ir Ã¡
id enta
g le
Ġwer eld
ĠS ki
s om
Ġph áº¡m
Ġf emei
Ġalc alde
ĠTra ck
Ã¸n n
Ġya qin
Ġse en
Ġbas ket
ĠPh otos
Ġv las
Ġserv izi
Ġprod otti
Ġmus ta
Ġki edy
Ġbil gi
ĠW ana
ĠAl m
w ego
a e
Ġster k
Ġan bef
Ġ] "
ĠSeb el
ĠP Äģr
ci b
Ġtr áº¡ng
Ġl Ã¥n
Ġl lo
Ġd ana
ĠM X
ĠJe ans
ĠG ia
Þ §
Ã«r isht
un as
ed Ã©s
amp uan
ĠÉ ĸ
Ġmu ze
Ġhar mon
Ġf rac
Ġcar go
ĠMag ufuli
Õ »
Î¡ Îĳ
Ġwaar de
Ġsted et
Ã± e
in is
ab y
Ġvers o
Ġser veis
Ġra ha
Ġbesz Ã©l
ĠVal ent
f yl
Ġul tima
Ġs ahi
Ġmer asa
ĠTex as
ĠS unday
ĠJ ep
ÉĻr indÉĻ
ÄįÃŃ ta
Ä ª
und ai
ell ement
an ter
ag ini
AN IA
ĠÎ± Î³Î¿
ĠvÉĻ zi
Ġsenti r
Ġs Æ¡
Ġprinci pa
Ġmem as
ĠT Ã¢n
ĠBo ot
Ã¢ ne
Ã¡m ara
Ġy eke
ĠvÃ¡r os
Ġsam ma
Ġrend ah
Ġmi re
Ġcy f
up s
Ġsit io
Ġdos ta
ĠN un
ĠIk ke
ĠDr ess
Ġ4 K
Ð°Ð ³
tik as
ez ia
ĠÎ±ÎºÏĮ Î¼Î±
Ġzwi Äħz
Ġter Ã¼let
Ġm esi
ĠR eh
Ġol sa
ant woord
EL O
Ġw ich
Ġur ma
Ġtot ale
Ġsort u
Ġkonk urs
Ġbi asanya
ĠSt atis
ĠAl ta
ur esti
ott on
any ang
all ah
Ġmno Å¾
ĠTha iland
ĠN T
ĠwiÄĻ ks
Ġm eld
Ġil ikuwa
ĠF E
zec zy
itz at
fik asi
Ġtem as
Ġin nych
Ġb ell
ĠMe x
ĠÃ¼zer inde
Ġnos sa
Ġish on
Ġacc ommod
ĠW erk
koz Ã³
Ġl amb
Ġhu id
Ġd riv
ĠH es
Ã¼ ler
w ert
k unt
c ido
ĠÎµ Î¼ÏĨ
ĠxÃ¼s usi
Ġw azi
Ġtur ut
Ġps yk
Ġi ci
Ġho ok
ĠN ya
ĠH ÉĻ
r ub
pa a
f ond
, ,
Ġmij Ã«
Ġdu id
Ġdost ÄĻp
Ġc ÃŃ
ĠV od
ĠGmb H
Î¼ÎŃÎ½ ÏīÎ½
tor a
da u
asjon er
ĠÄ° ran
Ġr osa
Ġli hlahisoa
ĠkÃ¶n ny
Ġindepend ent
Ġgy fer
Ġfem me
ĠVer de
os u
eg al
ĠÉĻ lavÉĻ
ĠpÅĻ ij
Ġofere ix
Ġjo ang
ÏĦ Ïĥ
pli er
ĠÔ ´
Ġk ika
ĠKom mentar
ĠA id
ti o
st v
eh en
and ik
Ġrem ove
Ġl ate
ĠHo Ãłng
ĠB Ã¡n
ĠA ve
Ð» Ñı
olog iya
Ġz ÉĻr
iku u
Ġter akhir
Ġreh abil
Ġke in
Ġkan na
ĠU D
ĠG Ã¼l
let ter
l Äĥ
kur ugenzi
Ġnost res
Ġmana o
Ġm ica
Ġi bar
Ø ¥
emb angan
Ġserv icio
Ġde u
Ġcontin uar
ĠH áº£i
Æ ¯
alit za
ĠnÃ¤it eks
Ġmag as
ĠQu Ã©
Äĥt Äĥ
ĠâĢ ¹
Ġwh ole
ĠvÄĵ st
Ġe ind
Ġdid ara
Ġc abo
ĠM ea
Äįi Å¥
ri ere
q l
AC E
Ġsv enska
Ġin ver
Ġear ly
ĠE co
ĠC uba
ĠBil der
ĠB ible
fik ia
Ġent ra
ĠD aten
Ð¾ ÑģÑĤ
am Äģ
Ġr Ã½ch
Ġj ai
Ġcomp anies
ĠC AT
Î¹ Ïİ
ib el
av ar
_ B
Ġh ero
Ġav ez
ĠM ega
ĠLe es
Ùİ ÙĦ
ot lar
is Ã©g
Ġju ta
ĠhoÊ» oma
ÏĦÎ¿ ÏįÎ½
ko j
Ġsis se
Ġha ig
ĠAbr il
Ø¯ Ùħ
ud ir
ov acÃŃ
ich te
iber ts
dek i
Y P
Ġsec urity
Ġkal uar
Ġdec Ã¢t
ig ne
ch aba
ap pen
Ġadol ang
Ö ħÖĢ
res a
mer ce
elle en
Ġpul s
Ġal Ã©m
ĠQu an
ĠK ant
Åį na
ing kat
ĠÎ£ ÏĦÎ·
ĠÄ°s lam
Ġtáº¹ láº¹
Ġmw ezi
Ġchá»ĭ u
ĠUn ha
tr u
ĠÎ± Îº
Ġmus im
Ġap ps
ĠSalv ador
ĠNeg ru
ĠE E
Äħ t
ic tion
D ate
Ġr up
Ġpr esso
Ġi yan
Ġaz Ã©rt
ĠM F
Ã§ on
ta is
Ġt age
Ġsek ret
ĠS pl
Ã¡r os
ys ka
fall s
Z E
Ġneg ro
Ġkez d
z ut
v iv
ĠviesnÄ« cu
Ġserve i
Ġrecher che
Ġl Ã¢u
Ġk ÉĻnd
Ġcop il
Î»Î· ÏĤ
ud er
ta ut
ov ia
ov ani
el an
Ġsu f
Ġkar ibu
Ġinsan lar
Ġch áº¯c
ĠTh ink
ĠKom p
ÏĦÎµ Ïį
z te
q ari
ot ros
or na
and ar
Ġpod nik
Ġkasut ada
Ġibe ere
Ġet diyi
ĠO urense
xt ar
A I
ĠÎĺ Îµ
Ġt anda
Ġsu ala
Ġres posta
Ġqu asi
Ġmet all
Ġhol de
Ġcir cu
ĠK ak
um izi
ĠØ§ÙĦ Ùģ
Ġvi ÅĨu
Ġtat izo
Ġsor Ã¡n
Ġsh uningdek
Ġnov i
Ġh ÉĻl
z v
ys ÅĤ
n aka
ing ar
Vies nÄ«cas
Ġp Ã¡ly
Ġaurr era
ĠKon st
ĠB ond
Ġsim ples
Ġpo Å¡
Ġlist op
Ġhom me
Ġe ÄŁitim
ĠI ts
ĠF as
ÖĦ Õ«
Ġtl ase
Ġb uka
ĠKa ap
ĠH ir
Ã¤ der
le up
jÄĻ cia
gb á»įn
AR R
ĠÏĦÏĮ ÏĥÎ¿
Ġk ids
Ġinterv iew
Ġi yo
Ġdik g
Ġd Ãłnh
Ġb undan
ĠAn aly
Ġ18 9
Ã¼ ste
lus ive
Ġn ime
Ġg uma
Ġfoly amat
Ġel Ã©g
Ġar bet
Ã´ r
Ã¯ n
in fo
Ġyak Ä±n
Ġw ang
Ġpa j
Ġna cion
ĠEl kar
ĠB eb
z one
jen zi
im pi
eg ia
ann en
ame ha
Ġáº¹ á¹£á»į
Ġvo ort
Ġs juk
x ia
ass is
ĠrÃ© alis
Ġpou Å¾ÃŃ
Ġn jo
ĠkÃ¼lÃ¶n b
Ġh á»ĵi
Ġed ilmÉĻsi
Ġe be
ĠTe atro
as Ä±na
ĠÏĦ ÎµÎ»
ĠÎ¼ Î®
Ġwsp Ã³ÅĤ
Ġpiem Äĵram
Ġdel ic
ĠbÄĻd Äħ
Ġad lÄ±
ĠS OC
Ġlab el
Ġgema ak
Ġber riz
ĠL ay
Ġ3 70
w eka
um ente
tu i
esh Ã«m
Ġwo ord
Ġser Ãł
Ġkan nat
Ġka ug
Ġf ys
ĠVir gin
ĠFlor ida
Ġ Ì
ÅĤu Å¼
EN I
Ġt oko
Ġlá»į wá»į
ĠlÃŃ der
Ġksi ÄħÅ¼
ĠP ou
Ġ' ))
ĀĀĀĀĀĀĀĀĀĀĀĀĀĀĀĀĀĀĀĀĀĀĀĀĀĀĀĀĀĀĀĀ ĀĀĀĀĀĀĀĀĀĀĀĀĀĀĀĀĀĀĀĀĀĀĀĀĀĀĀĀĀĀĀĀ
ÈĽ in
ÅĽ l
Ġinf antil
Ġek ran
Ġd ens
ĠM koa
ĠEver y
ĠD acÄĥ
Ġng uy
ÖĢÕ ¤
ut ing
on ly
el b
Ġr ish
Ġne cha
Ġfriend ly
Ġdem ost
Ġb Äĥr
ĠX iaomi
ĠVÃŃ ce
ç ½
ek ben
am ah
Ġsum ber
Ġoshir ish
ĠI brahim
ĠD B
Ġto ot
Ġs iri
Ġrec up
Ġoh jel
Ġher rit
ĠM m
ĠA I
å ½
p ena
is ert
Ġth áº¯ng
Ġa umento
ĠD D
ĠContact os
ho od
gu ez
Ġtu otte
Ġtwe ede
Ġprez zo
Ġbud Ãº
Ġab ai
IK E
17 0
Ġzar ar
Ġpr osp
Ġhau ek
Ġas et
Ġ], [
ko Ê»o
Ġze er
Ġt red
ĠsÄ± ra
Ġmul ighed
Ġinsta gram
Ġer an
ĠI ru
ĠH Ã¤
ĠA Ã§
li Å¡
let i
f ie
bi er
ĠâĢ¦ ..
Ġna is
Ġkomp uter
Ġisti qam
Ġint ellig
u esta
ig as
be hand
Ġpo zn
Ġko ol
Ġfl ow
ĠM eta
Ġcam ere
Ġbr ut
Ġaf in
Ġ* ,
g eme
ama u
Ġq l
Ġpra zo
Ġl assen
ĠPre m
ĠOn un
Ã¤l let
ra ga
Ġver z
Ġt Ã¤rke
Ġishl at
Ġint Ã©r
Ġhon ua
Ġgev olg
ĠP utin
ĠN ec
ĠCour t
z Ã³
Ġsp lit
Ġsl ag
Ġqu alitÃł
Ġ Ø§Ø
len en
inÄģ tu
Ġp alo
Ġm utat
ĠJ in
× Ĳ
O E
M eta
Ġet mek
ane o
Ġwa f
Ġkeres zt
Ġj unto
Ġcoment ari
ĠSh irt
ĠK uk
ĠCo ol
à²¾ à²
wa a
lich er
Ġn Ã©g
Ġm ove
Ġener gy
ĠPol s
ĠF lu
ui Ã§Ã£o
Ġs ola
Ġgod z
Ġbruk er
ĠW IB
ĠBuh ok
a Å¾
Ġzw ischen
Ġkun n
Ġfunk tion
Ġconc ept
Ġbel g
ĠC ette
Ä ĺ
wá»į le
vers e
ospod ar
in ad
h uri
ĠÃ¦ nd
Ġsp Ã´sob
Ġsam az
Ġl ego
Ġ" /
Ġtloaele hileng
Ġstrat egi
Ġsk yl
Ġcomm ander
ĠChic ago
w ig
re al
Ġout let
Ġki áº¿m
ĠV S
Ġ4 30
an jut
al b
Ġval uta
Ġnouve au
Ġna Å¡e
Ġmaskin overs
Ġcont empor
Ġb une
sauks mes
es ie
Ġwaar in
Ġvers i
Ġtur un
Ġt indo
Ġsh all
à¸ Ń
Ã¤m p
il der
h ing
ĠÎ» ÎµÎ¹ÏĦÎ¿ÏħÏģÎ³
Ġkl imat
Ġg esk
Ġf ug
Ġcsal Ã¡d
ka is
ind ik
ic u
7 00
Ġland et
Ġkomm une
Ġjar ayon
Ġj ste
Ġfo onu
ĠJes Ãºs
oz o
m ÃŃn
jak ul
c ita
ab Ä±
ĠÑ Ħ
Ġmap up
ĠBar at
ime a
ĠâĦ ĸ
Ġpres c
ĠZ us
ĠX IX
ÃĦ Ãª
ur ufu
erim ine
ĠÏĥ Î®
Ġqu ar
Ġlihts alt
Ġklar t
Ġb esti
ĠG ed
ff et
AM I
ĠÎ´Î· Î¼Î¹Î¿ÏħÏģÎ³
Ġspr zeda
ĠmÄĵr Ä·
Ġgjith ashtu
Ġan tal
Ġab ung
ĠD uke
Ġ16 3
ill y
et ic
ER N
Ġtrad uc
Ġmuch os
Ġle uk
ĠS itu
ĠEd he
Ñĥ Ñģ
Ã¤tt re
Ġm Ã¤nn
Ġay á»į
Ġ] :
ĠS ultan
si Ã³n
p om
oz at
gr is
Ġse con
Ġs Ã¦r
Ġmo tivo
Ġmaj Ãº
Ġlag un
Ġdes tek
ĠDevelop ment
Ä±yor um
m und
ela we
Ġw á»į
Ġtil a
Ġdet i
Ġac esta
id z
ci endo
Ġsn ad
Ġmeng hasilkan
Ġi fr
Ġcorres pon
ĠY n
ĠO cean
Ã¼l Ã©s
ĠÄĲ Ã¢y
Ġsp l
Ġsi ja
Ġre js
Ġbe ynÉĻlxalq
ĠE F
ĠDis play
ĠCh urch
Ġt aga
Ġgy erek
op u
St ore
Ġtrou ver
Ġtehd Ã¤
Ġt Ã¤mÃ¤n
Ġma ikutlo
Ġki inn
Ġcorre ct
Ġar c
ĠÅ ¥
Ġqo Ê»
Ġes kur
ĠHer ren
ĠC AL
Îµ Î¹Î±
Ġdaar van
ĠB áº¯c
ĠHen ry
iz mi
Ġset mana
Ġk uku
Ġiss ues
Ġambi ent
ĠMesa je
Ã¶s en
ard ie
ang alia
Ġyaz Ä±
Ġsat Ä±ÅŁ
Ġ5 20
asti kan
Ġcent ros
mer k
itz er
av era
ĠÎ¿ÏĢÎ¿ Î¯Î¿
Ġt á»ĳ
Ġr ank
Ġni Ã±os
Ġma wala
Ġca el
ĠVoc Ãª
ÏĢ ÎŃ
z Ã¡m
ombe a
la i
ĠtÅĻ eba
Ġpl ass
Ġpe e
Ġmem oria
ĠZ ona
ĠP eri
ĠG ros
ĠDom n
Ġtr et
Ġn esk
Ġmen sa
Ġhor iz
ĠL P
amo o
Ġnh áºŃt
ĠmÄģ c
Ġmn oh
Ġhol der
ĠI j
re fu
ĠÎµ ÏĨ
Ġna i
ĠKon tr
ĠHer bal
an ol
Ġ{ {
Ġpic ture
Ġl ul
Ġdá»į má»į
ĠF lex
ĠB angk
u Å¡
ny dd
enc ana
am asÄ±
Ġzgjed h
Ġto c
Ġno ite
Ġm Ã³wi
Ġlid hje
Ġf int
Ġdah ulu
ĠKoÅ¡ ice
un á¹£e
per ia
ish Ã«m
Ġsel fs
Ġkamp uni
ĠT ad
ĠS we
Ġ19 76
Î´Î· Î³
Ġpel os
Ġpar amet
Ġik usi
Ġbere its
Ġa ega
et ate
ap ac
(? :
Ġwala upun
Ġut r
Ġto ok
Ġst ora
Ġc áºŃp
ÉĻlÉĻr dÉĻ
Ġs osten
Ġpol ok
ĠT ac
ĠN ek
ĠBakÄ± da
ĠAg begbe
ass an
ĠxÉĻ stÉĻ
Ġwe he
Ġprec isa
Ġph ys
Ġms ingi
Ġmo od
ĠPs ych
ren o
od ien
ak al
Ġn Âº
Ġmi esi
Ġh Ãª
Ġfin ance
Ġfa ir
Ġcl ic
ĠSc ott
ĠJ N
ke et
ĠC ine
ĠB alan
m iy
gun ta
ĠÎķ Îº
Ġz h
Ġgel ede
ĠAlo ha
ĠAan lyn
Ïĥ Î®
ula ciÃ³n
ono ho
ili ano
ahal ang
Ġu á»ĳng
Ġtreb ui
Ġpuk ul
Ġinn eb
Ġhu wa
Ġel ÉĻ
Ġdigit ale
Ġdav r
Ġcor az
ĠF ierbinte
Õ¸ÖĤ ÖĢ
G H
Ġpen c
Ġconc ret
ĠR av
ungu za
lÉĻr lÉĻ
id ÉĻn
get ti
ĠÎµÏĢ Î¹Îº
Ġk egiatan
Ġbet i
ĠVolks wagen
ĠIr ak
ĠGabri el
Ïħ Ïĩ
ÏĦ ÏģÎŃ
uy u
Ġva ik
Ġposit ive
Ġpolit ika
Ġp itÃ¤
Ġb t
ĠL amb
te ak
prod uk
ĠsluÅ¾ by
ĠV R
ĠT able
ĠGu ide
ĠAl am
ens ions
ĠÏĦÎµ Î»ÎµÏħÏĦÎ±
Ġpre f
Ġneg ativ
Ġk ule
Ġdes pois
Ġco ordin
Ġaut ob
Ġaj an
ĠD Æ°Æ¡ng
ĠBew ert
j Ã«s
is ana
Ġen se
Ġd ent
ĠRober to
Ġ19 77
me er
hi f
Ġn ibi
Ġmo ito
Ġam ateur
ĠDomniÈĻo are
di ena
ĠÄĳ Ãłn
Ġter Ã¡
Ġp esa
Ġbo ard
Ġbid ang
ĠSh ah
ĠH IV
ĠFound ation
ĠFit ness
ku uta
W id
Ġtash qari
Ġnis b
Ġle hl
Ġkh áº©u
Ġimport antes
Ġh ik
Ġfakt isk
Ġap Ã³s
ĠVide oclipuri
tsm Ä«t
m Äĵ
Ġsil icone
Ġagr ic
ĠMeh met
ĠDur ante
ĠArsen al
Ð Ľ
ĠÎľ Î±Ïģ
Ġm uro
Ġis egi
ĠGovern ment
ĠDes ember
ÏĨ Ïħ
Ãĸ R
al oso
1 60
Ġre pet
ĠW olf
ĠChr ome
ÅŁ Ä±r
P al
ĠÎºÎ¿Î½ ÏĦÎ¬
Ġet j
Ġph á»§
Ġf ondo
ĠdÃ© jÃł
Ġat kl
Ġac ad
Ġa ip
ĠRus ia
ĠF O
ĠAl d
Ùİ Ø§
ÉĻ q
vie Å¡u
k ant
ak ama
AM B
3 60
ĠÎ´ Î¿
Ġw urden
Ġvez es
Ġf alar
ĠS tu
ĠE ia
Ã¡z ÃŃ
ci us
Ġm ÉĻt
ĠiÃ§ eris
Ġf ive
Ġbl od
ĠT ento
ĠAdol esh
Ġ ura
v eni
si eme
er ings
dÄ± ÄŁÄ±
Ġtem u
Ġs oli
Ġpuh ul
Ġng á»§
Ġm unt
Ġf lat
Ġdiv ul
Õ¸ Öģ
ÏĩÎµ ÏĦÎµ
sl ut
Ġâ Ķ
Ġt d
Ġbath room
ĠD Ã©c
ul iza
uk as
ep á»į
ĠqÃ« ll
Ġpou vez
Ġed u
ĠReg ul
ĠM ez
ĠI F
Ġ( âĢľ
ĠvÃ¤h Ã¤n
Ġstre et
Ġc rian
Ġatrav Ã©s
ĠVal encia
la ai
an sa
ĠÏĥÏĩ ÎŃ
Ġmas al
Ġeen voud
ĠG reg
yks en
Ġvol gens
Ġvan n
Ġna q
Ġmola o
Ġkon to
Ã©f ono
ion at
AS E
Ġpoz it
Ġbiz ony
Ġac abar
ĠTy p
ÙĦ Ø§
umi wa
6 50
ĠÃ§ e
Ġst oria
Ġs ider
Ġm yn
Ġlaw elawe
ĠZ um
ĠV asta
Øª Ùħ
wa ÅĤa
r n
ass as
G L
Ġveg ada
Ġling kungan
Ġb Ã¡c
Å« st
ĠwÉĶ n
Ġte or
Ġsla ap
Ġde gan
Ġc Ã¢n
Ġad emÃ¡s
ĠH ed
ĠAr s
t ok
Ġwal k
Ġpin ag
Ġpil ot
Ġorgan ism
Ġb ull
ĠRep Ãºblica
Ġsp olu
Ġsoci edade
Ġra amat
Ġk Ä±z
Ġjus qu
Ġgr adu
ĠSe ite
um ise
por ted
id em
c ra
ai ba
Ġkab ul
Ġid az
Ġat h
Ġag re
ema a
ĠÅ« dens
Ġeg ter
Ġco in
ĠDep osit
ĠDI Y
Ġ6 40
Ä« nas
yt Ã¤
te borg
av ia
akik isha
Ġtur ist
Ġot om
Ġg ou
Ġfont os
Ġbai x
ĠSuj et
ĠB om
Ġ18 4
Ġ ÉĻt
Ø± Ùĥ
b ile
Ġte ie
Ġqual sevol
Ġmu Å¾
Ġmon ate
Ġm Ã¶glich
Ġdid n
Ġberb eda
Ġbag ong
ĠV II
ĠAqu esta
ust ra
q en
Ġp ys
Ġden n
ĠPar ad
ĠÎµ Î¹Ïĥ
Ġo un
Ġk oloi
Ġfut ur
ĠS ang
ler inden
emb en
ay lÄ±
ĠÃ¼zer ine
Ġe esti
ĠV at
ĠF irma
y sh
and in
OL OG
Ġprodu its
ĠA ni
Î³ ÎµÎ¹
Ä±lÄ± m
k Ã¡ch
iku ti
end id
Ġming gu
Ġanmeld else
ĠA str
Ä« l
ib ex
f b
alis m
Ġche f
Ð ¢
ve Ã§
le ver
c jon
atu an
Ġvar je
Ġsk ole
Ġsec tion
Ġq ÉĻz
Ġis ter
Ġentre ga
Ġdik kat
Ġamb as
wa ch
if anya
ente d
ekk Ã¼r
ĠÏĢÏģÏĮ Ïĥ
Ġtijd ens
Ġcont rib
Ġapo io
ĠRena ult
ĠM ant
ĠG aran
à ¶
to het
Ġtak lif
Ġstud ie
Ġqay ta
Ġmin ul
Ġh áº¯n
ĠR ON
ĠCH F
ĠB EN
te der
Ġg ave
ap ur
Ġtuy áº¿n
Ġresp ond
ĠkaÅ¼ d
Ġe Bay
Ġdoes n
ĠTr ade
ĠS ri
ĠMos c
Z S
ĠâĢ¦ âĢ¦âĢ¦âĢ¦âĢ¦
Ġd atu
Ġcustom ers
Ġad ott
ĠB P
ÉĻc ÉĻy
uj te
m adan
alis me
Ġtut ul
Ġspe el
Ġh ÃŃ
ĠP ix
Ġumo Å¾
Ġnigb agbogbo
ĠCh ap
ĠBro ad
Õ¡Õ¶ Õ¡Õ¯
Ã¶ p
ag amit
C he
Ġku ta
Ġj ub
Ġgl ass
Ġd áº¡ng
ĠCa fe
ĠB Ã©
ĠA ran
ï »
om br
im ist
d ating
ci ch
Ġve ilig
Ġngh á»ĭ
Ġn att
Ġk Ã©s
Ġedil di
ĠM Ã¥
Ġ Ĉ
lÉĻr dÉĻn
at io
Ġzp Å¯sob
Ġjed n
Ġc osta
Ġbea uty
Äį enie
UN T
9 00
2 000
Ġum e
Ġsa av
Ġcons ul
Ġchiqar ish
ĠE yl
ĠD K
Äį nosÅ¥
ip er
ibex _
36 5
Ġwer ken
Ġproduc tos
Ġen emmÃ¤n
ĠL ord
ĠJac ob
ir se
Ġva ak
Ġinstitu cion
Ġg razie
Ġap áº¹ráº¹
oon u
itt ing
att ing
al ag
ĠÕ ®
Ġul o
Ġpro ve
Ġk ennis
ĠE ye
ĠA gu
à ®
zy ma
Ġpela jar
Ġoc upa
Ġimm obili
Ġbur ada
ĠP G
ular es
ong e
it ets
id hi
gev ing
K a
Ġrequ ired
Ġper jalanan
Ġman ager
Ġl lan
Ġeg et
Ġdab ei
ĠM he
Ã¹ i
uj ud
ĠÏĢ Î¹
Ġst Ã¥
Ġg on
Ġcha que
Ġas upra
Ġacces o
ĠHol lywood
ĠGall ery
ĠG ud
ĠBÄĥr baÈĽi
Ãģ R
v Äĥ
u ji
im ents
Ġy d
Ġvan lig
Ġmay o
Ġint Ã©
Ã¥ g
ra Äį
ok wa
ing k
et he
ĠÎº ÏģÎ±
Ġti ada
Ġmus ica
Ġmf ano
Ġf j
Ġelec tor
ĠOs man
ĠNe ed
ĠC ik
Ġvit am
Ġservici os
Ġdiber ikan
Ġaband on
ĠSeg undo
v am
ov ice
kl ÉĻr
bes ar
ĠÃĭ shtÃ«
Ġseni or
Ġmeng etahui
Ġfor ce
Ġdiqq ÉĻt
ĠUp date
ĠJohns on
ĠÎ¤ Î¹
Ġir Ã¡ny
Ġfor Ã§a
Ġcin ema
Ġadd itional
Ġab ad
ĠM und
n ame
lu j
ion it
ich i
ali f
Ġpl ak
Ġlang kah
Ġbol oka
ĠAl em
lo ok
Ġte il
Ġmill ones
Ġm sh
Ġes paÃ±
Ġbu iten
Ġa á¹£áº¹
ĠS ummer
ĠNo ir
ÑĤ Ð¸
u ce
Ġsiz in
Ġsil ah
Ġceleb rar
ĠMon itor
ĠD kt
Ġ Õ¡Õ´
us in
el der
b ase
Ġsia pa
Ġrenc ontre
ĠhÉĻr ÉĻk
Ġconsid era
Äħ ce
uj ete
Ġy ÃŃ
Ġdiabet es
Ġcor so
Ġapr end
ĠS ic
ĠK unden
Î»Îµ Îº
Î¸Î· ÎºÎ±Î½
z ung
k le
Ġu usi
Ġn ig
Ġ! ,
è ¿
ÏĥÏĦÎµ Î¯
Äģ du
st rat
k re
id ez
am ai
ĠÔ »
Ġpak ai
ĠS ena
ĠN issan
ĠAfrika anse
ti ment
amp e
Ġâĸ º
ĠÏĢ ÏģÎ¹Î½
Ġy am
Ġte ori
Ġs nak
Ġpar edz
Ġmul igt
Ġeff ect
ĠJo e
ÏĦÎ¹ Î¿
Ġw oj
Ġtut kim
Ġo ÄŁ
Ġla ul
Ġaf ya
ĠM uz
Å¡Ä· ir
s pr
reg istr
Ġpre p
Ġola cak
Ġjou w
Ġfac tor
ĠA ar
Ã¡ll ÃŃtÃ¡s
rit i
f urt
er ede
Ġzna j
Ġprez identi
Ð° r
Î» Î¼
r ont
na q
l ade
am oto
ĠNor te
Äį an
ul ie
or iy
in it
eli an
elek ea
Ġs mer
Ġqar or
Ġpre zen
Ġp ho
Ġd gn
× ª
Ġgas tr
ĠS obre
Ã¸r s
orr ent
ast en
New s
Ġ20 3
nie ks
and ika
ĠØ§ÙĦ Ø±
Ġtuj uan
Ġrek ord
Ġl arawan
Ġim mun
Ġhab ang
ĠEk im
Ġ20 8
Ġ20 2
Ġ- /
ob ec
Ġf Ãł
Ġez er
ĠP ÅĻed
ĠMeh r
ĠAl ban
te p
og li
ert os
Ġhod in
ĠQu esto
ĠM ÉĻmmÉĻd
Ġ19 68
uk um
ers hor
eda an
Ġv Ã¡llal
Ġc loud
ĠPart ner
Ã© ment
ou te
k w
Ġseb anyak
Ġop pos
ĠTr end
ĠK uh
ĠG eme
Ġ5 C
ÏĥÏĦÎ· ÎºÎµ
ru h
r are
on so
j amin
Ġw inter
ĠsaÄŁ lÄ±k
Ġof fic
Ġnh Ã©
ĠC ai
ÙĪ Ø§
Î»ÎŃ Î¿Î½
iz ungumza
Ġuk weli
Ġprov ided
Ġpap ier
Ġdesenvol up
Ġcommer cial
Ġat op
Ġakhir nya
Ġ"] ,"
ÏĨ Î±Î»
ora ciÃ³
m est
l Ã©k
ald ab
Ġp ist
Ġmit en
Ġez Ã©rt
Ġd ast
ĠS IA
ĠAr qu
tag es
h ia
ĠsÉĻ v
Ġd Ã²ng
Ġa ole
ĠM Ãµ
Î¸ Î±
Ä« vo
ord o
Ġinform Ã¡ciÃ³
ĠKab upaten
ĠJ ordan
ul Ã¡s
nÄĻ tr
nÃŃ ci
V al
Ġ* %
ÅĤ ÄĻ
ph oto
Ġ? )
um ents
ĠÏĥ Î±Î½
Ġwszyst ko
Ġsz int
Ġs lip
Ġdop rav
ĠQ uran
ĠM IL
n eze
ii ii
f ej
Ġtoti Å¾
Ġsch imb
ĠprÃ©s ent
O r
Ġpont os
Ġmk utano
Ġhy v
ĠdÃº as
ĠY ar
ĠS Æ¡n
ĠG usta
Ã¡l ny
t un
os zt
ord on
om etr
la ve
Ġmul tim
Ġd ades
Ġaso ci
ĠW anne
ĠTh en
ĠL inda
ut ura
p Äģr
Ġpot ensi
Ġespeci ally
Ġanti bio
ĠR F
ĠB ors
Ġ19 74
in Ã¡
ec en
Ġaug st
ĠSpa in
ĠSh er
ĠC oa
ĠBe at
Ġ15 1
z ug
jÃ¤r jest
Y N
Ġvan nak
Ġuns ere
Ġf unt
Ġc urr
Ġbr uke
Ġb d
ĠV iz
á»į láº¹
ets Ã©g
Ġzn Ã¡m
Ġoc asi
Ġjednot liv
Ġacc ident
uk ti
gi ft
ak ir
ah as
IR E
Ġseg ons
Ġres urs
Ġkul iko
Ġk á»ĥ
Ġil man
Ġen orme
Ġel Ã©r
Ġbil ik
Ġbaz Ä±
ĠWhats App
ĠD M
h all
ez ett
ĠÐ £
Ġvend it
Ġli eto
Ġj ac
ĠReg ional
ĠC ell
v asti
R ep
Ġyan var
Ġs leg
ĠpÃ¤ eva
Ġn ami
ĠEsp anya
ĠA 1
te va
il ya
et xe
at zaile
Ġw isata
Ġon ibara
Ġmapup uksa
Ġla ika
Ġkish in
Ġh imo
Ġgiz arte
Ġem pr
ĠD IN
áº© y
uh ay
Ġst ruct
Ġsoll te
Ġso on
Ġol gan
Ġk Ä±s
Ġdom Ã¡c
ĠBe ib
ĠBL OG
Ïĥ ÏĥÎ±
Ã ·
tid ades
j egy
at Ã«s
at sa
Ġp Ã¡gina
Ġinv ent
Ġg isa
Ġa je
ÙĪ ÙĤ
b angan
Ġlak ukan
ĠN ice
ĠKl ub
Ã¡ ul
ie we
ĠÎ³ ÎµÎ½
Ġmak tab
Ġcon fr
ĠItali an
å į
Î½ ÏĮ
ut el
aka an
ab ara
Ġá»į dá»į
Ġpl Ã¡n
ĠkÃ© o
Ġi ub
Ġgeno eg
Ġcon du
ĠWak ati
ĠS co
ĠF ix
Ð Ķ
Ë Ĩ
m jet
lÉĻr indÉĻ
l ando
at ike
all et
Ġvo idaan
Ġof urufu
Ġcompl ic
ĠEr d
uj en
il ua
ier ra
Ġtilb ake
Ġrec enz
Ġlib ros
Ġd ados
ĠSup erior
ĠL em
ev iew
ĠhoÊ»ol oli
Ġg Ã¤ller
Ġc ip
ĠRasul ullah
Ã¼l Åĳ
is he
C on
ĠÎ ĸ
Ġz elen
Ġpeng alaman
Ġmaxim um
Ġal tsÃ¥
ĠYe ar
ĠS yr
as Ä±nÄ±
Ġtom ar
Ġtecnolog ia
Ġs b
Ġpla cer
Ġe jem
ĠAd vent
h ede
f ox
ed ores
Ġv ody
Ġba jo
ĠM ola
Ġ17 4
Ġ00 5
oks en
ĠÏĢÎ¬Î½ Ïī
Ġsz abad
Ġseg era
ĠPort ugu
ĠFran co
Ð¸ Ð´
onop ono
ĠyaÅŁ ay
Ġli hat
ĠSev illa
ort es
Ġsh unday
Ġpor ad
Ġh att
Ġalgun os
Ġabi ant
Ġz ako
Ġsub sc
Ġkur Å¡
Ġgr ado
Ġbat ez
igh eden
ell inen
Ġs ele
Ġreken ing
Ġn eli
Ġm alo
Ġbo ÅŁ
Ġ29 9
el oa
am ke
ag un
Ġter p
Ġet en
Ġbul undu
ĠL I
ĠCO 2
ÏĮÏĦÎ· ÏĦÎµÏĤ
ur ik
ĠÎŃÎ½Î± Î½
ĠvÃŃ z
Ġpi an
Ġn Ã¤h
Ġn ude
Ġla iku
ĠY ANG
ĠS Ãº
ĠI da
Ïī Î½Î±
ÅĤ ugi
Ġy ksi
Ġs ole
Ġmil liy
Ġka asa
Ġb Å«
Ġare as
Ġalt yd
ĠP AN
ĠHo ch
ĠF ox
Äį nÃ©ho
st ro
n ader
ĠÊ» E
Ġparte a
Ġor da
Ġj apon
Ġh Ã©
Ġel les
Ġd uniani
à²¿ à²
× ĳ
unn an
as ar
Ġuy ÄŁun
Ġterrit ori
Ġt áº§ng
Ġris ida
Ġma oli
Ġde mi
Ġc Æ°á»£c
ĠP ÄĥsÄĥricÄĥ
ĠL if
ec ie
ad io
ĠÎºÏģÎ¹ ÏĦÎ¹ÎºÎ®
ĠÃ§Ä±x Ä±ÅŁ
Ġm v
Ġeduc ation
Ġconoc er
Ġcl im
Ġbon ts
ĠEner gy
h Ãµes
atsi ooni
UN A
Ġá»į kunrin
Ġnag ing
Ġmah ala
Ġith uta
Ġf uck
Ġc ami
Ġadd ed
ĠKom is
ĠD AR
ost ela
ER R
3 D
Ġt iks
Ġpap ahana
Ġm Ã¨
Ġdv oj
áĥĲ áĥ
ĠâĤ¬ .
Ġv ital
Ġtej to
Ġtal k
Ġseg uro
Ġr il
Ġh ash
Ġent ren
Ġem ple
Ġass ocia
ĠTh Ã´ng
ĠJe ff
ĠC ultural
Ġ??? ????
l isi
Ġs Æ°
Ġmas cul
Ġla ve
Ġer sten
is mer
ĠÄĳ au
Ġz bo
Ġv á»ĳn
Ġqual che
Ġpie ce
Ġlip apali
ĠC opa
Ġ19 73
op ak
it ez
Ġ× Ĳ
Ġne at
Ġdi enas
ĠSe Ã§
ÄĽ jÅ¡ÃŃ
yn ku
h Ã¦ng
em iz
26 4
ĠÃŃ ch
Ġtro bar
Ġtis zt
Ġs oke
ĠT Ã¢y
ĠN im
ĠMÃ¡ y
ĠF irm
Å Ĳ
ng e
lag t
it ada
ĠÄĳ Ã´i
Ġtra i
Ġdo it
Ġd c
Ġat p
ĠS ogn
Îº ÏģÎ±
y ari
r ana
ff ic
ĠÃ®n s
ĠrÃ¡m ci
Ġhis zen
Ġbet eken
ĠJac kson
ĠJ ih
Ä« go
jÄħc ych
ats te
ĶĢâĶĢâ ĶĢâĶĢâ
Ġmen te
Ġkoh te
ĠSem ua
inh os
Ġle va
Ġe jer
Ġd rop
Ġbir th
Ġart isti
Ġ- ----
Ã³n ico
fah ren
AK E
Ġvi is
Ġmel h
ĠIn Äģ
Ġ20 6
Ġ19 00
ak on
ĠtÅ¡e o
Ġprodu ce
Ġdi buat
ĠM undo
ĠF iyat
ÅŁik lik
jo it
g eg
ĠtÄģ pÄĵc
Ġsu oi
Ġad an
ĠB iro
Ġ18 8
ow an
Ġpremi Ã¨re
Ġf las
Ġbel ieve
Ġar tif
ĠV ald
ĠL Ã¤h
Ïĥ Î¹Î¿
Ã¯ t
ul eh
ne ws
iri i
Ġtip us
Ġku ona
Ġhay ot
Â ¥
si en
jal ik
ari es
Ġson dern
Ġpag t
Ġin put
Ġdire ction
Ġd ena
Ġaz ok
ond ers
2 12
ĠØ§ÙĦØ ¥
ĠvÉĻz iyyÉĻt
Ġverd ad
Ġkpo or
Ġh Äģ
Ġdh Ã«nÃ«
ĠY un
ne ho
W O
ĠÏĦÎ± Î¾Î¹
Ġti en
Ġkle ur
Ġi era
Ġag enda
Ġ19 72
vol v
ito y
ha j
el ho
Ġz ip
Ġs ull
Ġnap r
Ġn imet
Ġind onesia
Ġd ang
Ġbet al
b este
Ġspeci ale
Ġpla ces
ĠSec urity
ĠM ode
ampa ikan
Ġma akt
Ġfebru ar
ĠDre am
en skap
ĠÄĳo áº¡n
Ġqu art
Ġq end
Ġkur Äģ
Ġg om
Ġcre ated
ĠS f
ĠF IN
ws ze
ill en
atie f
Ġty Ã¶n
Ġmen i
ĠW izara
ĠOl imp
ĠJ uvent
ĠHawai ian
ro i
ko ani
ite iten
ch ang
Ġva ad
Ġush q
Ġle var
Ġkel as
Ġka v
Ġesimerk iksi
Ġer kek
ĠG ad
ĠF Ã¸r
z aren
st on
m ete
am end
ĠÏħÏĢÎ¬Ïģ ÏĩÎµÎ¹
Ġsim bol
Ġnag usi
ĠfÃ¸l ge
Ġdal Ä«b
ĠTh Ã¡i
ĠG ang
Ġ17 6
ab ela
20 13
ĠÃ¶n c
Ġbl om
ĠV az
ĠK end
ĠG S
Ġ3 90
Ġ16 6
iz ing
it ect
Ġts eb
Ġre in
Ġprojet o
Ġex ig
Ġconstru ction
v chi
Ġzo ek
Ġu ut
Ġthi á»ĩn
Ġsu ami
Ġg oba
Ġfen om
uv chilar
ri aren
er tu
Ġw ish
Ġsome one
Ġperman ent
Ġmol ts
Ġmin istr
ĠJoh an
Ã¤ ck
amb ul
Ġver ib
ĠtÃ© to
Ġseb akeng
Ġsc u
Ġpos ti
Ġinv ece
Ġil an
Ġc Ä±
Ġc ien
ĠAM D
us ele
11 5
Ġprze ci
Ġne Ã§ÉĻ
Ġcatal Ãł
ĠWh y
ĠM itt
g gi
cont ent
bi i
Ġnast ÄĻp
Ġfr iday
ĠPolit ik
ĠDem okrat
um n
st ers
Ġspol up
Ġsa voir
Ġrá»į run
Ġris c
Ġna zar
Ġcul ture
Äģk Äģs
eler in
Ġtilb age
ĠbaÅŁ ka
Ġalc uni
ĠGb ogbo
Ø¹ Ø©
l m
ĠâĢ¦ âĢ¦
Ġnh á»Ľ
ĠmÃ¼nasib ÉĻt
Ġminist ri
Ġba wat
Ġb Ã¤ttre
u ci
n ads
inn ers
ette k
c ara
and ingan
Ġom o
Ġm op
Ġkit ob
Ġch áº¿t
ĠS F
p Äģ
m alarÄ±
ak h
OS S
Ġt Äģl
Ġnale Å¼y
Ġker eta
Ġet h
ĠN an
ĠF ile
Õ¥Õ ¼
ka ar
az an
ar lar
ĠÃ °
Ġzuz end
Ġno od
ĠTab let
Ã¡ tu
al tres
Ġtr Ã²
Ġin forme
Ġcl in
ĠEng els
ĠB Y
x ona
ĠÎ¤ Îµ
Ġto imit
Ġs ets
Ġenf ants
ĠUs ed
ĠU Å¾
Ġ% ),
ari al
am era
Ġseg ue
Ġkor da
ĠB ene
Ġ16 2
Î½Î¿Î½ ÏĦÎ±Î¹
ÃŃ st
um ist
oth ing
Ġsiy ang
Ġag ter
ĠSta v
ĠKat ibu
ĠD ien
á»į s
un ii
rÃŃ guez
es ine
az ki
Ġva q
Ġthan ks
Ġmar Ã§
Ġer am
Ġbet on
ĠPr inc
ĠL isa
ĠAQ Sh
eng k
d c
Ġyo yote
Ġtr z
Ġmora o
Ġj es
Ġba j
ĠT EM
ĠSh opping
Ã¼g yi
et Ã¤Ã¤n
AK O
ĠÏĥ Îº
Ġv esh
Ġplata forma
ĠmÃ¼ ssen
Ġmo futa
Ġentre prise
Ġcom a
ĠB bw
Ø¯ Ø©
Ã¤tt ning
Ã ŀ
mar ket
is eks
Y 2
In fo
ĠØ§ÙĦ Ø¯
Ġod s
Ġn aka
Ġkon z
Ġg á»Ńi
Ġex am
Ġc ursos
ĠSu ite
ĠQu ote
ĠDirector y
Ġ16 7
ran ce
ind re
ele i
al ic
C ont
ĠÄįas to
Ġperson n
Ġman n
Ġkur as
Ġjw alo
Ġcon qu
Ġras mi
Ġpagl ago
ĠkÃ«sh tu
Ġca fÃ©
Ġabeuk re
Ġabeukre uling
à¦ ¾
ins on
er ingen
el im
at ele
ĠÅļ wi
Ġresp ecto
Ġreg ional
ĠpÃ«rgj ig
Ġor isun
Ġken ya
Ġda ju
ĠWanne er
ÏĦÎ¿ ÏĢÎ¿Î¹
pal vel
kan ie
f unk
Ġprop io
Ġh ing
Ġf Ã©ny
Ġban sa
Ġb Æ°á»Ľc
ĠMar gar
ÏĥÏĦÎ¹Î±ÏĦÏĮ ÏģÎ¹Î±
kon na
id la
ĠÕ°Õ¡Õ´ Õ¡ÖĢ
Ġrun ning
Ġqual idade
Ġmeg old
Ġer ity
ĠNa far
ĠFa x
ÃŃt Ã©se
ir ÉĻm
Sc ript
Ġzi ÅĨas
Ġm esti
Ġit at
ĠY oga
ĠS unt
sp an
l he
gu es
Ġvien kÄģr
Ġh Ã³n
ĠY ol
ĠM ani
ĠGaz eta
ĠDig it
Ġ5 x
Ġ") }
ĠÅŁ irket
Ġtr Ã¡i
Ġs áº»
ĠmÃ© di
Ġl ia
Ġkl ok
Ġeconom ia
Ġba ju
Ġav g
ĠN este
ĠAfr ican
14 5
Ġat z
Ã¤t ter
om io
Ġn eve
Ġmua j
Ġing a
Ġdec id
Ġch Ãº
ĠV ig
ĠMond ay
r ati
p ild
Ġps ik
Ġol emas
Ġk iri
Ġj oko
Ġinclus o
Ġb ik
ĠTamb Ã©
ĠRus sian
ĠMan ual
ĠDistr ict
m Ã¡ny
h le
ap ak
ĠÏĦ Î¯
Ġsch Ã¶n
Ġnd esh
Ġmu ita
Ġmane ira
Ġl enn
to j
ci oni
IP A
ĠÎ¿ÏĢÎ¿ Î¯
Ġt ine
ĠmÉĻqs ÉĻd
Ġattrav erso
Ġad ul
ĠO C
ĠMed ical
Ã¡k at
els el
ag dagan
ĠzÃ¡k on
Ġxe ito
Ġsub ject
Ġse y
Ġph at
Ġm Ã´n
Ġdo ck
Îµ Î½Î¿Î´Î¿
ez wa
= >
Ġp uso
Ġmod u
Ġl g
Ġinst itut
Ġdr ink
ut he
ĠÄ°ns an
Ġnov el
Ġne jak
Ġlect ura
Ġip iláº¹
Ġhe er
Ġcou ple
Ġap akah
ĠH K
emp atan
N e
ĠÎĺ Î±
Ġelectr ic
Ġb ego
Ġav e
Ġarbe id
ĠVol wasse
ĠM ek
Ùĥ ÙĨ
m ang
ka itan
Ġolun muÅŁ
ĠmoÅ¼ liwo
Ġitali ano
Ġh áº¹
Ġesk ub
Ġbel akang
ĠT emm
ĠSm all
ĠK ho
ĠChar l
at im
Ġperio ada
Ġp ab
Ġfun 88
Ġexemp el
Ġet ilgan
Ġel as
Ġcar b
r ina
mit ted
akt an
ĠÏĥÏĦÎ¿ Î¹
Ġtjer Ã«
Ġt ÉĻt
Ġh eg
Ġal kal
ĠT odo
Ġ. ]
ud zi
in ks
1 30
Ġt oka
Ġsar ili
ĠH Ã¶
ÃŃ g
it ys
H o
ĠÅ¾ ivo
ĠsÉĻv iyy
ĠqarÅŁÄ± s
Ġm jek
Ġk ie
Ġh led
å ¸
ÏĦÏī ÏĥÎ·
Î¯ Î´Î¹
Ã¸d t
st one
Ġchi á»ģu
ĠN igb
ĠK dy
ĠK and
EC H
Ġw ad
Ġtar tib
Ġjak ie
Ġaz ad
ĠV Ã¡s
Ġwy p
Ġsal v
ĠnÄĽ co
Ġkompl et
Ġikas le
Ġconc lus
Ġbon ne
ĠP ati
ĠBibliote ca
ust y
t z
en ingen
Ġz eker
Ġre pa
Ġop ple
ĠF B
id ik
Ġle y
Ġl ou
ĠkÄģ naka
ĠkÃ©r dÃ©s
Ġkonc ert
Ġ9 50
Õ¡Õ¶ Õ¸ÖĤÕ´
il oju
fi que
ant zi
Z D
ĠvÃ«rtet Ã«
Ġrap pres
Ġmat rimoni
Ġadmin ist
ĠS G
ĠEst ate
ĠB ott
Ġlabor al
Ġara Ã§
ĠSeg ur
ĠC ic
r imin
ol ang
ib igay
Ġv arious
Ġpot ÅĻeb
ĠSn ow
ĠS var
Ġ20 4
Ä¼ Äģ
Z T
ĠtÃ¶r vÃ©ny
ĠprÃŃp ade
Ġpr Ã³b
Ġplas tik
Ġmohl ala
Ġmk ono
Ġet xe
Ġc uba
ĠA Y
â ĺ
Î» Î¹Îº
ras Ä±
ion en
el ele
Ġor uká»į
Ġnt lha
Ġdv s
ĠT SE
ĠM V
us nya
um ika
Ġsp un
Ġsot to
ĠshÃ«n det
Ġres te
Ġpur ch
Ġos u
ĠkÃ¶ sz
Ġk var
Ġj ih
Ġfer ie
Ġc oup
ĠS elle
ĠQ ad
od or
g ad
an ele
ali en
!! !
Ġsum mer
Ġqon un
Ġbak arrik
Ġan alog
ĠEm ir
ĠDur ch
Ġ23 4
met i
Ġper ub
Ġm iz
Ġgen era
ĠSim ba
ÉĻs indÉĻn
yn ie
olit ik
iv amente
f iz
d ana
ar Ã«
Ġtr Ãªs
Ġsh ows
Ġgal ega
Ġdes f
tt es
er ÃŃa
emm el
Ġ× ŀ
Ġsz ÃŃv
Ġnou velle
Ġknow ledge
Ġki wango
ĠhÃ´ m
Ġhjem mes
Ġgi ft
Ġap ost
ĠV Ã¬
ĠBaw o
Ġ17 8
Ġ ãĤ
ole i
kov Ã½
ion in
Ġw est
Ġrab att
Ġm abilis
Ġkap as
ĠOff icial
ĠH OT
Ġ5 10
il adigan
Ġmar r
Ġma wa
Ġas ilimia
ĠB X
Ñ Ĭ
Ïģ Îº
Ġtak ing
Ġt m
Ġsabi edr
Ġf la
ĠKing dom
uta ciÃ³n
unt ungan
fÃ¼ g
Ġst oj
Ġsik er
Ġnego ci
Ġkol or
Ġeng elsk
ĠMun dial
ÏĪ Îµ
Î³ Ïĩ
Ã¡t um
olog ÃŃa
ĠÏĥ ÎºÎ¿
ĠÎ» ÎµÏĢ
Ġprod uto
Ġmab api
ĠhjÃ¦l p
ĠV and
ĠT l
ĠSp ace
}, {"
u za
Ġri ig
Ġph Ãºt
Ġe et
ĠRod rÃŃguez
ĠN hi
ĠÂ Ĵ
Ġt uman
Ġopin iones
Ġei ro
ĠK ON
Ê» ele
pr os
le e
M essage
IG HT
Ġsil áº¹
Ġinform at
ĠMo on
ĠKu ala
y li
erb ai
Ġt ona
Ġsp ra
Ġsp il
Ġsek und
Ġpar ap
Ġinclud es
Ġh ran
Ġadi eraz
ĠCh ile
ÃŁ er
p te
ĠzÃ¡k ona
Ġut veckl
Ġsk on
Ġcan lÄ±
Ġbo is
Ġbeoord elingen
ĠTek nik
Îķ ÎĿ
Ġur g
Ġse ek
Ġsab ihin
Ġrepres enta
Ġpagb ab
ĠndÃ«r komb
Ã® n
Ġval u
Ġtak en
Ġov qat
Ġhon en
Ġco oper
ĠStr ateg
ĠSqu are
Ã© tica
ys el
Ġy áº¹n
Ġtre cut
Ġpr imul
Ġnev ar
Ġi etek
ĠV ib
á»ĭ p
ÅŁ in
ÅĦst wa
Ã© hez
Ã¡le z
mo ho
l ÉĻm
Ġsem ula
Ġp ez
ĠTur key
ĠRe ac
ĠP y
ĠF lam
ĠAss ist
Î¬ Î²
us ht
ĠÎŃ Î½
Ġsp ar
ĠlÃŃ nea
ĠNo ord
ĠC U
Ġ26 5
al ara
Ġst Äģv
Ġp ista
Ġed asi
ĠNig eria
ÑģÑĤ Ð²
ut up
iyas Ä±nÄ±n
am ana
ĠÏĢÏģÎ¿ Î²
Ġsiy os
Ġsch op
ĠArtik ulli
ÙĲ ÙĬ
ta ÅĤ
ri u
re kin
ba ÅŁ
AH A
ĠÃ® i
Ġo da
Ġmun cul
Ġju urde
Ġfu q
Ġ17 3
ko i
gen er
an ni
Ġroz s
Ġmo j
Ġkap ac
Ġhist Ã³ria
Ġerak unde
Ġad ang
Ġ4 G
Ø° Ø§
ul en
Ġmet e
Ġf onte
Ġent ret
ĠB erk
ta ÅŁ
ĠÃļ j
Ġter re
Ġs ali
Ġpu tih
Ġmedi os
Ġl inh
Ġje ÅĽli
Ġd eng
ĠÕ´ Õ«
Ġvo el
Ġst jern
Ġloa a
Ġil mo
ĠV ere
ve i
reb be
od ia
li Ã©
ĠyÃ¼z de
Ġv eden
Ġt t
Ġn cha
ĠmÃ¶ jlig
ĠTo e
ĠSte ve
ĠJ P
ĠApart ment
r ite
ez piec
ĠÏĥ Ïī
ĠÉĻl dÉĻ
Ġtu ot
Ġt ÃŃtulo
Ġprogram me
Ġposs ÃŃvel
Ġbu ena
Ġapro ape
ĠQ e
ĠL ite
ĠJ orge
ĠH U
ĠD aca
ĠCON S
us id
ste ad
l ir
b ord
ang nya
ĠÃľ rÃ¼n
Ġs Ã«m
Ġbis og
ĠR I
ĠG las
un cil
s tig
eh Ã¶r
OW N
Ġtiz im
Ġs ke
Ġora in
Ġn aye
Ġin tu
Ġg usta
Ġdi al
Ġdag dagan
ĠN P
ĠM ater
ĠJ ana
asi es
an ÃŃ
1 80
Ġsam tidig
ĠMet all
Î¿ Î³
im tar
ill ig
Ġn ope
ĠlÃµ p
Ġcast ell
ĠZ s
ĠW ww
ĠPet ers
l aka
em d
ĠmÃ¼ t
Ġdiffic ult
Ġan lat
Ġab ban
ĠArbe it
Ġ27 5
Ãģ S
is yo
go ed
Ġservi Ã§os
Ġme hl
Ġinst ant
Ġhart zen
Ġautom atis
ĠRac ing
ust in
usi ano
u ala
os hi
ni os
D i
ĠÎ´ÏħÎ½Î± ÏĦÏĮ
Ġvu os
Ġv akan
Ġe ÄŁ
Ġam azing
ĠMuse o
Ġ4 10
Î¼ ÏĢÎ¿
gj eng
f iki
Ġpe uvent
Ġembar go
Ġbai xo
Ġb op
ĠSpe ci
ĠL U
ĠD L
Ã³ ry
OL L
Ġt iyan
Ġne uen
Ġch á»¯a
Ġak tual
ĠPers oon
w edd
tain ment
ard z
Ġvend in
Ġpremi um
Ġm aha
Ġib ig
Ġh oney
ĠLe x
Äģ ks
f ur
f old
Ġpart it
Ġh Ã²a
ĠTemm uz
ĠComp uter
Ø± Ø©
n Ã¶
in um
Ġmost rar
ĠZ ob
ĠL ima
Î· ÏģÎµ
Î±Ïĥ Î¯Î±
il isha
icz ne
an Äĥ
Ġpilik ia
Ġn ibáº¹
Ġkommentar er
Ġjet Ã«n
ĠV PN
ĠJ Å«s
à¹ Ģ
z ten
lag an
if ic
Ġtu áº§n
Ġth ib
Ġprov ides
Ġkes ehatan
Ġhac ia
Ġat iláº¹
Ġal ter
ĠS ib
ĠN ina
ĠE estis
ĠBr ug
alt ung
Ġvz nik
Ġr ul
Ġl ÄģÊ»au
Ġl Ã¤Ã¤
Ġk alit
Ġca f
Ġal can
Ġag ak
ĠNo i
Å¡ oao
Ã©r Åĳl
Ġv Ã²ng
Ġris petto
Ġnost ri
Ġmor ago
Ġe ich
Ġbamb ini
ÈĽi ile
ko ut
ittÃ¤ in
ad Äĥ
+ []
Ġz da
Ġx anh
Ġt ita
Ġt ala
ĠspÃ¸r gsmÃ¥l
Ġsh if
Ġmenc apai
Ġh Ä¾
ĠSt op
ĠS ono
ĠN ick
ĠBr un
Ã¡ di
Ã Ľ
t he
ling er
ĠØ§ÙĦØ ®
ĠÎĳ ÏĢÎ¿
Ġsub ven
Ġam oh
ĠS ON
kel ijk
ish ini
Ġw ab
Ġpar ang
Ġkid ogo
Î»Î± Î¼Î²
aca ÄŁÄ±
Ġw asi
Ġman eno
Ġi wá»į
ĠegÃ©sz sÃ©g
Ġcr imin
ĠM Ã¼s
ĠEduca ciÃ³n
ĠD H
Õ¥ ÖĦ
im n
em ad
ĠH aw
st of
ou re
ĠÎµ ÏĦÎ±Î¹
Ġto et
Ġkit chen
Ġip ele
Ġbor der
ĠPH P
ĠEspa ini
ĠB ikini
ion ali
f Ã¸re
ĠÄįÃŃs lo
ĠtÃ¶ Ã¶t
Ġprom ov
Ġhaf ta
Ġf sh
Ġdis fr
Ġal lo
Ġ( ...
ÅĻ en
st ri
Ġdop l
Ġblog ger
ĠLe ha
ĠJ Ã¤r
ĠBos ch
ĠB AT
y ing
wid gets
uk kan
ĠÃ® mp
Ġrec ensioni
Ġmeny ediakan
Ġk ug
ĠZ ah
ĠNeg eri
ĠNap oli
ĠDepart ment
ĠAvr upa
um á»į
rin kles
ok ban
man Ä±
ES CO
ER G
ĠÏĢÎ±Î¹ ÏĩÎ½
Ġn Ãłng
Ġmit Ã¤Ã¤n
Ġjen Ã«
Ġindustr ia
Ġfjal Ã«
Ġbut un
ĠWeb cam
ĠC ada
å Ĭ
ot ud
ch ov
ĠÉĻ ks
Ġvis itar
Ġparte cip
Ġij timoiy
ĠM ats
ka w
ish ia
ar ah
QU E
ĠÃº daj
Ġkom fort
Ġk ull
Ġis ip
Ġia Ê»u
Ġacom paÃ±
ĠVenez uela
ĠPal ace
ĠO cak
w alo
v Ã©sz
il ist
esk us
ĠÏĢ Î±Î½
Ġx Ã©t
Ġr ÉĻs
Ġmo ont
Ġb eni
ĠB AL
Ġ/ -
it ati
ber din
ĠÄ¼ a
Ġval ores
Ġkrit ik
Ġe betso
Ġav ui
â Ħ
ÉĽ m
uks esta
r ats
oh t
ev eria
Ġmeng g
Ġb h
nie ki
ht Ã¤
al Ã©k
ĠÄį Ã¡st
Ġvra gen
Ġud vik
Ġpinakam ahusay
Ġn áº±m
Ġl uv
Ġka art
ĠT Å¡
nÃº Å¥
ic ken
at it
Ġnorm ale
Ġees mÃ¤r
ĠbÃ¶l Ã¼m
Åĳ bb
um inen
tag li
b 2
ĠÏĮ ÏĥÎ¿
Ġy olu
Ġseg Ãºn
Ġde mo
Ġb ikini
Ġad imul
ĠY Ã¼ks
ĠV M
ĠNoti cias
ĠMes si
Ġ5 90
Ġ... )
et em
er mo
Ġwar ga
Ġter ce
ĠpiedÄģv Äģj
ĠJ ess
ĠyÄ±l Ä±nda
Ġpr widgets
Ġpan as
Ġit log
Ġcon osc
Ġbil im
ĠB ala
skap et
lik lar
P ORT
Ġo jo
Ġmateri als
Ġkep ala
Ġc á»Ļng
ĠV O
ĠHom me
than eteng
raw d
owied zi
isten za
Ġpod czas
Ġm Ã¹a
Ġle z
Ġla ut
Ġdol ar
Ġ: .
ib an
!!!! !!!!
Ġpar ent
Ġj ende
ĠK urt
ĠCat egories
á»Į N
Ã©r ation
omo ÅĽci
iz un
ami ÄĻ
Ġng unit
ĠktÃ³r zy
Ġexcell ent
ĠT AS
Ì£ c
ix o
ĠÅ¡ Ä«s
Ġs ambil
Ġp w
Ġnag s
Ġmun ic
Ġdo z
ĠCol ombia
ÃĬ Ãĩ
Ġwr ite
Ġvol g
Ġpess oa
Ġi rab
ĠSar ah
ĠÎ²Î¿ Î·
Ġz Ã¡r
Ġpi Ã¨
ĠbashkÃ« pun
Ġaer oport
ĠH ul
Ġ32 5
ic ie
ĠÏĮ ÏĢÎ¿Ïħ
ĠÄĳ á»įc
Ġz Äģ
ĠsegÃŃ tsÃ©g
Ġo ven
Ġmening gal
Ġit á»įju
ĠW V
ĠQual ity
op ia
T H
Ġrecomm end
Ġkes el
Ġfa iz
Ġbl ow
ĠHist ory
ĠCom par
Ġ25 00
Ġ":" (
Õ½ Õ¿
Ã¡n ÃŃm
ch ed
ĠÏĢÏģÎ¿ ÏĬÏĮÎ½
Ġvi etas
Ġsi ihen
Ġpr oss
Ġph Ã©p
Ġiá¹£ eduro
ĠSS D
ĠAl ba
Î¬Î» Î¹
szer Å±
ow aniu
ovan Ã½ch
# #
Ġdir et
ĠP AL
ĠH ern
l ob
Ġob st
ĠmÃ¥ de
Ġmi est
Ġes zk
ĠU moja
ĠR ok
ĠN J
Î¼ Î¼
ro ta
ig lio
abab isha
ĠÃĦ r
Ġprobl emi
ĠkÃµ rg
Ġje jÃŃ
Ġaf gel
ĠR EL
Ġ) ?
Ùħ ÙĨ
Ä± da
ĠÃĸ ÄŁ
ĠÃ¼ y
Ġme je
Ġhard core
Ġgeb eur
ĠSp o
ĠKom pl
ast u
Ġp ure
Ġol ay
Ġno a
Ġch in
Ġber jalan
Ġak ad
ĠBiz ka
Ê» okoÊ»a
zia ÅĤ
ycz nych
it ekt
IC K
ĠÏĥÏĦÎ¹ Î³
Ġsn art
Ġres mi
Ġmf umo
Ġdocum ento
Ġd Ã«r
ĠK D
Ġ- %
hs x
Ġdey ib
Ġcun ha
Ġconf ort
Ġbu wan
ĠbaÅŁ ladÄ±
Ġal ati
pl ant
lay di
cr q
am ano
Ġzur Ã¼ck
Ġwi el
Ġtag ad
Ġch áº¡y
ĠM kurugenzi
Õ °
Î¿Ïħ Î»
f eh
ament ul
am on
Ġfundament al
Ġc Ã©g
Ġan ual
Ġamb alo
ĠO fer
ĠB unge
Äĵ Ä·
may Ä±
ia pa
Ġul ike
Ġpl ano
Ġkel gan
Ġh endak
ĠM og
ĠD apat
Ġ4 70
Ġ1 st
ÆĴ e
es l
B r
ĠmÉĻl um
Ġj im
Ġhigh est
Ġespecial mente
Ġbut ton
Î¸ ÏģÏİ
Ġvaz if
ĠpaÅ¡ vald
ĠoÊ» z
Ġlat est
ĠkÅ« lana
Ġkas uta
Ġk eg
Ġes quer
Ġaan v
ĠChamp ions
Ã¡t y
v ate
or b
IT H
Ġben im
ĠRo y
ĠRes ult
to jnÃ«
m Ã¤n
ino y
30 4
ĠvÃ¤l digt
Ġperson en
Ġilm iy
Ġf icar
Ġdar bu
ĠDo ÄŁ
Ġ4 90
ja ar
D is
A t
Ġâ ĩ
Ġret ir
ĠT EL
ĠB j
ikk ert
f ot
eg li
d iv
U rl
Ġn Ã©p
Ġmas se
Ġcu id
ĠV Ã¥r
ĠTrans fer
ĠP ob
ĠG est
ĠAdmin istr
Ġ( #
il ige
ĠÄĮ R
Ġvr Ã¡t
Ġsek er
Ġg una
ĠSyst ems
ĠHe yd
ol ina
k up
is os
ing at
ils on
ell etsa
b oa
Ġw irk
[...]
