{"%": 0, "h": 1, "?": 2, "\u00e2": 3, "Z": 4, "\u00c2": 5, "\u00ef": 6, "a": 7, "\u0102": 8, "\u00fd": 9, "+": 10, "0": 11, "\u0137": 12, "g": 13, "\u00c7": 14, "\u00de": 15, ",": 16, "\u0107": 17, "\u0124": 18, "\u0108": 19, "\u0140": 20, "\u00f3": 21, "\u013e": 22, "Q": 23, "x": 24, "!": 25, "\u011c": 26, "f": 27, "\\": 28, "\u00d6": 29, "\u00b3": 30, "`": 31, "\u0101": 32, "\u0127": 33, "3": 34, "n": 35, "v": 36, "\u012c": 37, "\u010a": 38, "j": 39, "\u012b": 40, "\u00cd": 41, "\u00a7": 42, ")": 43, "\u00ac": 44, "\u013c": 45, "L": 46, "-": 47, "\u012a": 48, "\u00e3": 49, "\u0138": 50, "\u010b": 51, "\u00d0": 52, "\u00b5": 53, "\u00f8": 54, "\u00e4": 55, "8": 56, "\u010c": 57, "@": 58, "\u00bd": 59, "\u0104": 60, "\u00e1": 61, "7": 62, "\u0109": 63, "\u012d": 64, "\u0134": 65, "4": 66, "A": 67, "K": 68, "\u00b7": 69, "\u00ec": 70, "C": 71, "\u00ee": 72, "\u00db": 73, "e": 74, "\u00a3": 75, "u": 76, "\u00b9": 77, "\u011d": 78, "P": 79, "\u00b2": 80, "\u00cf": 81, "\u0129": 82, "\u0113": 83, "\u00a5": 84, "W": 85, "\u00c8": 86, "2": 87, "\u0106": 88, "6": 89, "r": 90, "E": 91, "\u00ea": 92, "G": 93, "\u0128": 94, "\u0123": 95, "\u00c0": 96, "B": 97, "I": 98, "\u00d9": 99, "O": 100, "q": 101, "#": 102, "V": 103, ".": 104, "\u0118": 105, "c": 106, "\u00ce": 107, "/": 108, "5": 109, "d": 110, "\u00dd": 111, "p": 112, "\u0100": 113, "\u011e": 114, "\u00be": 115, "R": 116, "\u00dc": 117, "\u00ca": 118, "s": 119, "\u00ed": 120, "\u00e5": 121, ":": 122, "\u00da": 123, "$": 124, "\u0132": 125, "z": 126, "T": 127, "9": 128, "\u012e": 129, "\u0112": 130, "Y": 131, "\u00e6": 132, "\u00f4": 133, "\u00eb": 134, "M": 135, "H": 136, "\u0126": 137, "&": 138, "\u00fc": 139, "\u0110": 140, "\u011b": 141, "\u0121": 142, "\u0142": 143, "\u00d5": 144, "*": 145, "\u00bb": 146, "<": 147, "\u00ba": 148, "\u00c3": 149, "\u00fe": 150, "\u0114": 151, "\u0116": 152, "\u00a1": 153, "\u00bc": 154, "\u00e9": 155, "\u00ab": 156, "\u00f6": 157, "{": 158, "l": 159, "\u0141": 160, "\u00aa": 161, "~": 162, "\u00ae": 163, "\u00c9": 164, "S": 165, "\u010d": 166, "\u010f": 167, "\u00a2": 168, "\u0105": 169, "F": 170, "\u0103": 171, "J": 172, "b": 173, "\u00a8": 174, "\u00e8": 175, "w": 176, "\u0115": 177, "\u00b0": 178, "t": 179, "\u0131": 180, "\u00cb": 181, "\u00e0": 182, "\u00f5": 183, "\u013b": 184, "\u0135": 185, "\u0111": 186, "\u00b6": 187, "\u00d8": 188, "\u00bf": 189, "\u011f": 190, "\u013f": 191, "}": 192, "\u00c1": 193, "D": 194, "\u012f": 195, "\u013d": 196, "\u00a4": 197, "\u00a6": 198, "m": 199, "\u0120": 200, "\u00cc": 201, "\u00c5": 202, "\u0125": 203, "\u0119": 204, "1": 205, "\u00f0": 206, "\u00d3": 207, "\u00b4": 208, "U": 209, "\u00b8": 210, "'": 211, "\u00c6": 212, "N": 213, "\u00b1": 214, "\u00f1": 215, "k": 216, "\u00af": 217, "\u00e7": 218, "\u00ff": 219, "=": 220, "\u0139": 221, "\u00d4": 222, "i": 223, "\u013a": 224, "]": 225, "\u0133": 226, "\"": 227, "\u010e": 228, "\u00fb": 229, "\u00fa": 230, "\u00d7": 231, "\u00df": 232, "\u00d1": 233, "\u00f9": 234, "\u011a": 235, "\u0136": 236, "[": 237, "(": 238, "\u00f2": 239, "|": 240, "\u0117": 241, "X": 242, "^": 243, "y": 244, "\u00d2": 245, "_": 246, ">": 247, "o": 248, "\u0143": 249, "\u0122": 250, "\u00f7": 251, ";": 252, "\u00a9": 253, "\u00c4": 254, "\u0130": 255, "an": 256, "en": 257, "er": 258, "\u0120.": 259, "\u0120d": 260, "\u0120,": 261, "in": 262, "\u0120s": 263, "\u0120a": 264, "\u0120t": 265, "ar": 266, "\u0120p": 267, "\u0120m": 268, "es": 269, "\u0120n": 270, "\u0120k": 271, "on": 272, "at": 273, "al": 274, "el": 275, "or": 276, "\u0120b": 277, "is": 278, "\u0120l": 279, "et": 280, "\u0120c": 281, "as": 282, "it": 283, "\u0120h": 284, "\u0120v": 285, "\u0120o": 286, "il": 287, "un": 288, "\u0120-": 289, "re": 290, "\u0120e": 291, "am": 292, "\u0120f": 293, "\u0120S": 294, "\u01201": 295, "os": 296, "\u01202": 297, "\u0120A": 298, "ak": 299, "ad": 300, "\u0120de": 301, "om": 302, "\u0120i": 303, "\u0120g": 304, "\u0120M": 305, "\u00e1\u00bb": 306, "ol": 307, "ur": 308, "ti": 309, "\u0120:": 310, "\u00c3\u00a1": 311, "ch": 312, "\u00e2\u0122": 313, "em": 314, "\u0120P": 315, "us": 316, "ik": 317, "\u00c3\u00a9": 318, "\u0120w": 319, "\u0120\u00e2\u0122": 320, "\u00c3\u00ab": 321, "te": 322, "ul": 323, "\u0120B": 324, "ed": 325, "ro": 326, "\u0120T": 327, "\u0120\u00ce": 328, "\u0120C": 329, "\u00c9\u013b": 330, "id": 331, "\u00c4\u00b1": 332, "\u0120j": 333, "ie": 334, "ir": 335, "\u0120D": 336, "ing": 337, "\u0120y": 338, "\u0120\u00c3": 339, "ta": 340, "\u0120in": 341, "im": 342, "ic": 343, "ia": 344, "ra": 345, "\u0120K": 346, "\u00c3\u00a4": 347, "ent": 348, "ang": 349, "ut": 350, "\u00e1\u00ba": 351, "\u0120E": 352, "ag": 353, "\u0120(": 354, "ek": 355, "\u00c3\u0143": 356, "um": 357, "\u0120L": 358, "\u00ef\u00bf": 359, "\u00ef\u00bf\u00bd": 360, "\u0120r": 361, "ot": 362, "le": 363, "\u0120)": 364, "\u0120N": 365, "ig": 366, "\u012020": 367, "\u0120H": 368, "and": 369, "\u00ce\u00b1": 370, "\u0120q": 371, "\u0120I": 372, "\u0120z": 373, "\u00cf\u0126": 374, "\u01200": 375, "he": 376, "ah": 377, "\u00c3\u00b3": 378, "\u0120R": 379, "\u00ce\u00bf": 380, "ab": 381, "ap": 382, "\u00ce\u00b9": 383, "\u0120en": 384, "\u0120/": 385, "\u0120F": 386, "\u0120G": 387, "ci": 388, "\u00c3\u00bc": 389, "od": 390, "ay": 391, "\u00c4\u0123": 392, "\u0120se": 393, "\u0120un": 394, "\u01203": 395, "\u0120V": 396, "ok": 397, "st": 398, "\u0120O": 399, "\u00c3\u00b6": 400, "uk": 401, "\u0120na": 402, "\u00ef\u00bf\u00bd\u00ef\u00bf\u00bd": 403, "eg": 404, "ud": 405, "ov": 406, "\u0120la": 407, "\u0120'": 408, "\u00ce\u00b5": 409, "\u0120al": 410, "\u0120201": 411, "\u0120qu": 412, "ri": 413, "\u00ce\u00bd": 414, "\u0120\"": 415, "est": 416, "\u0120\u00c2": 417, "la": 418, "ng": 419, "\u00e1\u00bb\u012f": 420, "iz": 421, "\u0120J": 422, "ion": 423, "..": 424, "ter": 425, "\u0120\u00c4": 426, "\u0120re": 427, "iv": 428, "end": 429, "og": 430, "ist": 431, "\u01204": 432, "op": 433, "\u00c3\u00a5": 434, "\u01205": 435, "\u00c5\u0141": 436, "\u0120sa": 437, "\u00cf\u0125": 438, "\u0120di": 439, "\u00cf\u0123": 440, "ers": 441, "\u0120W": 442, "\u0120u": 443, "\u0120le": 444, "ara": 445, "li": 446, "\u0120ka": 447, "\u00c5\u00a1": 448, "ac": 449, "ai": 450, "ec": 451, "\u0120to": 452, "\u0120pro": 453, "\u0120com": 454, "\u0120U": 455, "\u0120el": 456, "\u0120th": 457, "\u0120an": 458, "\u0120pr": 459, "eb": 460, "\u0120con": 461, "00": 462, "\u0120at": 463, "\u00cf\u0122": 464, "\u0120on": 465, "\u0120\u00e2\u0122\u013b": 466, "\u00c3\u0142": 467, "wa": 468, "eng": 469, "\u00ca\u00bb": 470, "ou": 471, "se": 472, "az": 473, "de": 474, "\u0120et": 475, "lar": 476, "\u0120ch": 477, "\u0120st": 478, "av": 479, "ib": 480, "\u00e1\u00ba\u00b9": 481, "ob": 482, "\u0120?": 483, "\u0120es": 484, "\u00c4\u0125": 485, "ant": 486, "\u00c3\u00a7": 487, "\u0120que": 488, "\u0120ma": 489, "ub": 490, "\u0120is": 491, "ga": 492, "\u00cf\u0124": 493, "up": 494, "\u00ce\u00b7": 495, "ez": 496, "\u00cf\u0127": 497, "da": 498, "ana": 499, "\u0120the": 500, "ow": 501, "ne": 502, "\u0120for": 503, "iy": 504, "ip": 505, "\u0120tr": 506, "ine": 507, "ari": 508, "\u0120per": 509, "\u00c4\u00b1n": 510, "ja": 511, "\u0120do": 512, "\u01206": 513, "\u0120er": 514, "\u0120si": 515, "ev": 516, "ep": 517, "\u0120ar": 518, "sa": 519, "qu": 520, "\u0120ng": 521, "\u0120\u00c4\u0133": 522, "\u0120me": 523, "ka": 524, "ell": 525, "\u0120of": 526, "ung": 527, "are": 528, "ho": 529, "\u00c4\u00ab": 530, "ind": 531, "art": 532, "\u0120\u00cf\u0126": 533, "\u0120!": 534, "ort": 535, "oc": 536, "ya": 537, "\u0120da": 538, "\u0120and": 539, "ere": 540, "si": 541, "ada": 542, "\u00ce\u00bb": 543, "ill": 544, "\u0120ho": 545, "ost": 546, "\u01207": 547, "\u0120ni": 548, "ha": 549, "sk": 550, "\u01208": 551, "\u00c4\u0135": 552, "\u0120...": 553, "na": 554, "\u00c5\u00be": 555, "\u01209": 556, "\u0120ti": 557, "ce": 558, "ma": 559, "\u0120no": 560, "io": 561, "\u0120ya": 562, "ug": 563, "\u00c3\u00bd": 564, "\u00ce\u00ba": 565, "\u00ce\u00af": 566, "\u0120te": 567, "\u0120;": 568, "\u0120|": 569, "\u0120or": 570, "\u0120am": 571, "\u00c3\u00a9s": 572, "ni": 573, "\u00c3\u00ba": 574, "\u0120il": 575, "\u0120ba": 576, "ong": 577, "\u00c3\u00b8": 578, "ele": 579, "ess": 580, "tr": 581, "to": 582, "\u00ce\u00bc": 583, "\u0120sp": 584, "\u0120In": 585, "\u0120as": 586, "di": 587, "\u0120\u00e2\u0122\u013e": 588, "\u012010": 589, "\u00c4\u0141": 590, "ate": 591, "\u0120t\u00c3\u00ab": 592, "\u012019": 593, "\u00cf\u012e": 594, "\u0120par": 595, "ina": 596, "\u00ce\u00ac": 597, "ini": 598, "ua": 599, "all": 600, "me": 601, "\u0120ak": 602, "ast": 603, "ens": 604, "ish": 605, "\u0120die": 606, "\u00c3\u00b3n": 607, "ale": 608, "\u0120og": 609, "\u00d5\u00a1": 610, "\u0120del": 611, "ru": 612, "\u0120op": 613, "ij": 614, "\u00c4\u012f": 615, "\u0120wa": 616, "oh": 617, "\u00ef\u00bf\u00bd\u00ef\u00bf\u00bd\u00ef\u00bf\u00bd\u00ef\u00bf\u00bd": 618, "ata": 619, "\u0120Y": 620, "\u0120\u00e2\u0122\u0135": 621, "\u00c6\u00b0": 622, "\u0120ku": 623, "\u0120ap": 624, "\u00c9\u013br": 625, "\u0120Z": 626, "\u0120ol": 627, "\u0120ja": 628, "\u0120ke": 629, "ver": 630, "\u0120x": 631, "\u0120\u00e2\u0122\u013f": 632, "\u00c5\u0124": 633, "\u00e1\u00bb\u012fn": 634, "ala": 635, "\u0120ne": 636, "ba": 637, "der": 638, "ke": 639, "\u0120sh": 640, "\u00ce\u00bf\u00cf\u0127": 641, "tt": 642, "ans": 643, "\u0120ad": 644, "\u0120po": 645, "ati": 646, "eri": 647, "ali": 648, "\u00c4\u013d": 649, "\u0120des": 650, "ation": 651, "\u00c3\u00abr": 652, "\u0120An": 653, "tu": 654, "\u0120av": 655, "\u0120ha": 656, "und": 657, "pl": 658, "\u00c3\u00b5": 659, "ama": 660, "\u012012": 661, "ika": 662, "\u0120be": 663, "\u00c3\u00a2": 664, "\u0120Al": 665, "\u0120\u00ef\u00bf\u00bd": 666, "\u00c3\u00a3": 667, "ani": 668, "for": 669, "\u0120du": 670, "\u0120%": 671, "za": 672, "\u00c3\u00a1n": 673, "\u0120ac": 674, "\u0120van": 675, "\u0120men": 676, "hi": 677, "emb": 678, "pr": 679, "je": 680, "\u0120im": 681, "\u0120med": 682, "\u0120ver": 683, "ela": 684, "\u00d8\u00a7": 685, "\u00c3\u00b6r": 686, "\u00c3\u00aa": 687, "\u0120\u00d5": 688, "\u00d5\u00a1\u00d5": 689, "ard": 690, "\u00c3\u00a6": 691, "ve": 692, "\u0120\u00cf\u0122": 693, "ore": 694, "\u012011": 695, "lo": 696, "ts": 697, "uc": 698, "ente": 699, "\u0120\u00ce\u00ba": 700, "ord": 701, "ko": 702, "\u0120it": 703, "era": 704, "\u0120ter": 705, "kan": 706, "\u0120para": 707, "\u0120kan": 708, "\u00c3\u00b4": 709, "\u0120\u00cf\u0125": 710, "\u0120dan": 711, "ile": 712, "\u0120yang": 713, "\u0120em": 714, "ita": 715, "\u0120ex": 716, "ide": 717, "\u0120mo": 718, "ler": 719, "\u0120\u00ce\u00b1": 720, "\u0120pl": 721, "\u00ce\u0143": 722, "sh": 723, "\u0120vi": 724, "zi": 725, "\u00c5\u0133": 726, "\u0120\u00e2\u0122\u013a": 727, "ny": 728, "ust": 729, "ze": 730, "ite": 731, "ili": 732, "\u0120om": 733, "\u0120so": 734, "\u0120ber": 735, "\u0120#": 736, "\u0120det": 737, "ff": 738, "\u0120va": 739, "\u0120ve": 740, "ona": 741, "\u00c5\u013b": 742, "ning": 743, "\u00cf\u012b": 744, "\u0120pre": 745, "\u0120200": 746, "ui": 747, "uh": 748, "\u0120gr": 749, "\u012015": 750, "\u0120por": 751, "mi": 752, "va": 753, "\u00c3\u00a1s": 754, "\u00c4\u013b": 755, "ont": 756, "\u0120\u00c3\u00a9": 757, "ass": 758, "asi": 759, "ki": 760, "\u0120ro": 761, "\u0120ko": 762, "\u0120som": 763, "\u00c3\u00a1l": 764, "\u0120=": 765, "w\u00e1\u00bb\u012fn": 766, "\u0120ab": 767, "ena": 768, "tic": 769, "\u00ce\u00b1\u00ce\u00b9": 770, "\u0120sk": 771, "tor": 772, "\u0120Ch": 773, "ks": 774, "\u00e1\u00b9": 775, "ica": 776, "\u0120\u00d0": 777, "no": 778, "ash": 779, "ge": 780, "we": 781, "tion": 782, "\u0120bo": 783, "\u0120p\u00c3\u00a5": 784, "\u0120ra": 785, "\u0120je": 786, "\u0120&": 787, "\u0120est": 788, "ado": 789, "gr": 790, "\u0120\u00e2": 791, "oa": 792, "\u00c4\u0127": 793, "\u00c6\u00b0\u00e1\u00bb": 794, "lik": 795, "\u00ce\u00ae": 796, "\u0120til": 797, "ys": 798, "\u00c3\u00a3o": 799, "\u012018": 800, "ade": 801, "\u0120Q": 802, "\u00ce\u00b3": 803, "be": 804, "\u0120ed": 805, "\u0120ser": 806, "\u00d9\u0126": 807, "\u00cf\u0129": 808, "\u00e1\u00b9\u00a3": 809, "lu": 810, "ku": 811, "\u0120by": 812, "nh": 813, "ert": 814, "\u0120ph": 815, "atu": 816, "\u0120\u00ce\u00b5": 817, "\u0120su": 818, "AN": 819, "ci\u00c3\u00b3n": 820, "\u012000": 821, "\u00c9\u013bn": 822, "ran": 823, "amp": 824, "ond": 825, "\u0120har": 826, "\u0120ang": 827, "\u0120\u00ce\u00bc": 828, "int": 829, "\u0120St": 830, "ene": 831, "res": 832, "ji": 833, "\u00c3\u00bcn": 834, "\u0120af": 835, "gan": 836, "\u00c3\u00a8": 837, "\u00e1\u00ba\u00a1": 838, "\u0120den": 839, "ida": 840, "\u0120n\u00c3\u00ab": 841, "\u0120ta": 842, "20": 843, "\u012013": 844, "ori": 845, "\u00e1\u00ba\u00bf": 846, "bi": 847, "\u0120vo": 848, "\u0120der": 849, "\u0120kom": 850, "\u012014": 851, "\u0120\u00c5": 852, "\u0120ki": 853, "\u012016": 854, "so": 855, "\u00c3\u00a4r": 856, "adi": 857, "\u0120pe": 858, "\u0120Se": 859, "\u0120Ar": 860, "ten": 861, "\u0120ob": 862, "our": 863, "ich": 864, "uz": 865, "emp": 866, "yn": 867, "\u0120az": 868, "\u0120les": 869, "ano": 870, "ura": 871, "\u0120\u00c3\u00ae": 872, "ult": 873, "ier": 874, "\u0120De": 875, "olo": 876, "\u00c3\u00a4n": 877, "\u0120he": 878, "\u0120sz": 879, "ry": 880, "pa": 881, "\u0120pa": 882, "n\u00c3\u0143": 883, "pe": 884, "\u0120bir": 885, "\u0120\u00c2\u00bb": 886, "ons": 887, "one": 888, "\u00e1\u00bb\u0129": 889, "\u0120X": 890, "ER": 891, "\u00d0\u00b0": 892, "\u0120met": 893, "\u012017": 894, "\u0120Mar": 895, "\u0120eg": 896, "\u0120aw\u00e1\u00bb\u012fn": 897, "\u00d6\u0122": 898, "\u0120nh": 899, "\u0120En": 900, "ako": 901, "\u00ce\u00b9\u00ce\u00ba": 902, "\u0120os": 903, "aka": 904, "\u0120us": 905, "ly": 906, "\u00ce\u00b9\u00ce\u00b1": 907, "ft": 908, "ck": 909, "ca": 910, "\u00c4\u00b1r": 911, "\u0120\u00c3\u00bc": 912, "\u0120het": 913, "mer": 914, "ici": 915, "ane": 916, "\u0120[": 917, "\u00cf\u012f": 918, "\u0120min": 919, "\u0120li": 920, "\u0120]": 921, "asa": 922, "zy": 923, "\u0120za": 924, "ith": 925, "\u0120mu": 926, "\u0120).": 927, "\u00c5\u00ab": 928, "\u0120dis": 929, "oj": 930, "\u0120res": 931, "\u0120kh": 932, "isi": 933, "\u0120\u00ca\u00bb": 934, "eh": 935, "\u00e1\u00ba\u00a3": 936, "lig": 937, "tiv": 938, "ett": 939, "\u0120um": 940, "\u0120man": 941, "\u0120p\u00c3\u00abr": 942, "els": 943, "\u0120fr": 944, "\u0120mar": 945, "\u0120Pro": 946, "ete": 947, "\u0120au": 948, "\u012030": 949, "\u0120\u00c3\u00aen": 950, "ino": 951, "\u0120Ma": 952, "\u00c3\u00b1": 953, "\u0120bu": 954, "ice": 955, "th": 956, "....": 957, "\u0120ut": 958, "ento": 959, "\u0120inter": 960, "lan": 961, "\u0120Un": 962, "\u00c3\u00a1r": 963, "\u00c3\u00bcr": 964, "\u0120),": 965, "\u00ce\u00b5\u00ce\u00b9": 966, "\u0120pol": 967, "AR": 968, "gi": 969, "zen": 970, "\u00ce\u00b4": 971, "ema": 972, "\u0120\u00c3\u00a7": 973, "\u0120go": 974, "\u0120ik": 975, "itu": 976, "//": 977, "amb": 978, "ttp": 979, "\u0120\u00d8": 980, "\u0120che": 981, "\u00c5\u00bc": 982, "\u0120\u00ef\u00bf\u00bd\u00ef\u00bf\u00bd\u00ef\u00bf\u00bd\u00ef\u00bf\u00bd": 983, "\u0120\u00c3\u00b6": 984, "\u0120una": 985, "\u0120mi": 986, "\u0120El": 987, "bl": 988, "mo": 989, "\u0120var": 990, "ht": 991, "\u0120La": 992, "\u0120bi": 993, "ue": 994, "\u0120+": 995, "\u0120://": 996, "\u00d5\u00b8": 997, "ato": 998, "\u00e1\u00bb\u013b": 999, "\u0120Th": 1000, "rit": 1001, "\u00cf\u0128": 1002, "ye": 1003, "ami": 1004, "\u0120http": 1005, "uj": 1006, "\u0120nie": 1007, "\u0120\u00c3\u0142": 1008, "eni": 1009, "\u0120eta": 1010, "ila": 1011, "\u0120kon": 1012, "\u012025": 1013, "\u01202017": 1014, "\u012021": 1015, "che": 1016, "cia": 1017, "man": 1018, "ment": 1019, "yd": 1020, "IN": 1021, "ende": 1022, "\u0120lo": 1023, "ets": 1024, "unt": 1025, "aya": 1026, "ike": 1027, "ky": 1028, "\u0120och": 1029, "l\u00c4\u00b1": 1030, "\u00c8\u013d": 1031, "ber": 1032, "EN": 1033, "\u0120pag": 1034, "oll": 1035, "\u00e1\u00ba\u00a5": 1036, "\u0120\":": 1037, "eta": 1038, "\u00c3\u00ac": 1039, "\u0120tak": 1040, "\u0120cu": 1041, "\u012022": 1042, "port": 1043, "\u0120>": 1044, "au": 1045, "\u0120mak": 1046, "ise": 1047, "iss": 1048, "\u00cf\u0126\u00ce\u00b1": 1049, "ats": 1050, "ement": 1051, "\u0120pod": 1052, "fer": 1053, "per": 1054, "\u00c3\u00aan": 1055, "bo": 1056, "\u0120co": 1057, "\u0120dhe": 1058, "\u0120gi": 1059, "\u0120Sh": 1060, "\u00c3\u00b2": 1061, "\u0120iz": 1062, "\u0120ay": 1063, "\u0120bl": 1064, "\u0120mat": 1065, "\u01202019": 1066, "form": 1067, "\u0120pos": 1068, "\u0120\u00d9": 1069, "\u00ce\u00b8": 1070, "den": 1071, "ora": 1072, "\u0120bil": 1073, "ju": 1074, "uri": 1075, "\u00c5\u013d": 1076, "\u0120\u00e2\u0122\u00a6": 1077, "eli": 1078, "\u0120mod": 1079, "\u0120mas": 1080, "\u0120The": 1081, "alam": 1082, "rat": 1083, "\u0120pers": 1084, "ern": 1085, "\u00e1\u00bb\u0133": 1086, "\u00c3\u00a9r": 1087, "\u0120ag": 1088, "\u0120od": 1089, "co": 1090, "\u00c3\u00a1t": 1091, "ven": 1092, "ista": 1093, "\u0120ir": 1094, "ew": 1095, "\u00c5\u00a5": 1096, "vi": 1097, "\u01202018": 1098, "\u0120\u00c3\u00a9s": 1099, "\u0120tra": 1100, "any": 1101, "\u012024": 1102, "ola": 1103, "iri": 1104, "\u00c3\u00bcl": 1105, "uar": 1106, "\u0120ea": 1107, "\u0120Pr": 1108, "\u0120mer": 1109, "ase": 1110, "\u00d5\u00a5": 1111, "oz": 1112, "\u0120kat": 1113, "\u00cf\u0130": 1114, "\u0120und": 1115, "una": 1116, "\u00c3\u00abs": 1117, "ese": 1118, "sp": 1119, "ira": 1120, "\u00cf\u0126\u00ce\u00b5": 1121, "\u0120Com": 1122, "ity": 1123, "\u0120we": 1124, "\u0120\u00cf\u0126\u00ce\u00b7": 1125, "ole": 1126, "\u012023": 1127, "min": 1128, "age": 1129, "\u0120ent": 1130, "isa": 1131, "fa": 1132, "ula": 1133, "\u0120br": 1134, "ito": 1135, "\u0120nu": 1136, "\u0120Le": 1137, "het": 1138, "ON": 1139, "\u00c3\u00a4l": 1140, "\u0120\u00c5\u0141": 1141, "\u0120fun": 1142, "iti": 1143, "\u0120\u00c3\u00a5": 1144, "inn": 1145, "\u00c9\u013bl": 1146, "\u00c3\u00abn": 1147, "\u0120Tr": 1148, "\u0120aut": 1149, "\u00d5\u00b6": 1150, "\u0120tu": 1151, "\u0120pi": 1152, "use": 1153, "\u00c8\u013b": 1154, "eld": 1155, "\u00c3\u00b8r": 1156, "line": 1157, "\u0120prod": 1158, "esi": 1159, "\u0120dat": 1160, "bu": 1161, "\u00cf\u0126\u00ce\u00bf": 1162, "\u00c9\u013bt": 1163, "olog": 1164, "\u0120\u00ce\u00b4": 1165, "\u00c9\u013d": 1166, "ive": 1167, "\u0120mga": 1168, "\u0120din": 1169, "que": 1170, "\u0120pas": 1171, "iki": 1172, "\u00d0\u00b8": 1173, "\u00d0\u00be": 1174, "\u0120att": 1175, "\u0120\",": 1176, "yo": 1177, "\u00d9\u012c": 1178, "kl": 1179, "\u0120ju": 1180, "yt": 1181, "ime": 1182, "kt": 1183, "men": 1184, "\u00cf\u0123\u00ce\u00bf": 1185, "\u0120val": 1186, "AL": 1187, "\u00c3\u00a1c": 1188, "\u0120sel": 1189, "n\u00c3\u00a9": 1190, "esti": 1191, "\u00c5\u00af": 1192, "AT": 1193, "ret": 1194, "ione": 1195, "\u0120\u00ce\u00ba\u00ce\u00b1\u00ce\u00b9": 1196, "\u0120een": 1197, "dan": 1198, "mas": 1199, "\u0120ind": 1200, "ES": 1201, "\u01202016": 1202, "\u0120..": 1203, "\u0120kwa": 1204, "ww": 1205, "yl": 1206, "\u0120\u00c2\u0143": 1207, "ull": 1208, "red": 1209, "ea": 1210, "\u0120\u00c3\u00a4": 1211, "oni": 1212, "este": 1213, "ken": 1214, "jo": 1215, "\u0120ca": 1216, "\u00d5\u00ab": 1217, "eks": 1218, "ker": 1219, "\u0120Re": 1220, "ii": 1221, "ante": 1222, "ando": 1223, "\u0120bat": 1224, "cion": 1225, "\u0120bar": 1226, "j\u00c3\u00ab": 1227, "ci\u00c3\u00b3": 1228, "ct": 1229, "aren": 1230, "\u00d8\u00a7\u00d9\u0126": 1231, "\u00e1\u00bb\u0123": 1232, "\u0120meng": 1233, "\u00c3\u00b4ng": 1234, "--": 1235, "\u00c3\u00a2n": 1236, "ss": 1237, "elt": 1238, "itt": 1239, "ix": 1240, "\u0120son": 1241, "\u00c3\u00a5r": 1242, "nya": 1243, "\u0120sam": 1244, "apa": 1245, "\u00c6\u00a1": 1246, "les": 1247, "elo": 1248, "\u00e1\u00bb\u0125": 1249, "net": 1250, "\u0120\u00e2\u0124": 1251, "aw": 1252, "\u0120rec": 1253, "tuk": 1254, "cial": 1255, "ure": 1256, "\u0120\u00cf\u0126\u00ce\u00bf": 1257, "ima": 1258, "\u0120mai": 1259, "go": 1260, "cht": 1261, "\u00c3\u0143t": 1262, "ick": 1263, "ins": 1264, "alar": 1265, "imi": 1266, "pp": 1267, "\u00c4\u0129": 1268, "\u00c3\u00a9g": 1269, "\u00c3\u00a9n": 1270, "\u0120Ad": 1271, "ute": 1272, "ym": 1273, "\u00cf\u0126\u00ce\u00b7": 1274, "ede": 1275, "agi": 1276, "\u012001": 1277, "\u00cf\u0123\u00ce\u00b1": 1278, "\u00e2\u0122\u013f": 1279, "ted": 1280, "\u0120\u00c2\u00ab": 1281, "\u0120\u00c4\u00b0": 1282, "enti": 1283, "\u0120dit": 1284, "nie": 1285, "AS": 1286, "OR": 1287, "\u00c3\u00a7\u00c3\u00a3o": 1288, "\u00e1\u00bb\u00a7": 1289, "oto": 1290, "\u0120Es": 1291, "tik": 1292, "urs": 1293, "ego": 1294, "ald": 1295, "ih": 1296, "akan": 1297, "\u012050": 1298, "ej": 1299, "esta": 1300, "\u0120www": 1301, "isk": 1302, "if": 1303, "iga": 1304, "\u0120\u00ce\u00bd": 1305, "gen": 1306, "\u00c3\u0143a": 1307, "ors": 1308, "\u0120On": 1309, "\u012009": 1310, "\u00e1\u00ba\u0143": 1311, "\u0120\u00e2\u0124\u00ac": 1312, "\u0120comp": 1313, "yr": 1314, "\u0120cont": 1315, "\u0120000": 1316, "its": 1317, "ras": 1318, "\u0120Par": 1319, "ome": 1320, "\u012026": 1321, "\u0120$": 1322, "\u00d0\u00b5": 1323, "\u0120mag": 1324, "\u0120\u00c4\u012f": 1325, "engan": 1326, "ilm": 1327, "wo": 1328, "ige": 1329, "ame": 1330, "orm": 1331, "\u0120ul": 1332, "uy": 1333, "\u012027": 1334, "\u00d6\u0124": 1335, "aha": 1336, "\u0120*": 1337, "\u0120amb": 1338, "\u0120you": 1339, "\u0120\u00c3\u00ba": 1340, "\u00cf\u0122\u00ce\u00bf": 1341, "\u0120v\u00c3\u0142": 1342, "\u0120reg": 1343, "\u0120f\u00c3\u00b6r": 1344, "\u0120meg": 1345, "\u012028": 1346, "ico": 1347, "\u0120with": 1348, "ben": 1349, "\u0120Na": 1350, "\u0120fa": 1351, "val": 1352, "\u0120\u00e1\u00bb\u012f": 1353, "\u0120jo": 1354, "ban": 1355, "\u0120No": 1356, "11": 1357, "\u00c5\u0128": 1358, "\u00e1\u00bb\u012d": 1359, "ave": 1360, "eko": 1361, "\u0120los": 1362, "\u0120mil": 1363, "att": 1364, "\u0120Am": 1365, "\u0120ur": 1366, "\u0120ati": 1367, "ire": 1368, "\u01202015": 1369, "\u0120sal": 1370, "\u0120Sp": 1371, "du": 1372, "\u0120ga": 1373, "\u0120kl": 1374, "\u00c3\u00b6n": 1375, "ake": 1376, "\u0120v\u00c9\u013b": 1377, "\u0120100": 1378, "ren": 1379, "ket": 1380, "aliz": 1381, "\u0120Con": 1382, "50": 1383, "anya": 1384, "zt": 1385, "\u00c3\u00a1m": 1386, "\u00c9\u0136": 1387, "let": 1388, "\u0120seg": 1389, "\u0120gj": 1390, "\u0120fin": 1391, "\u00cf\u0125\u00ce\u00b7": 1392, "ero": 1393, "anda": 1394, "alo": 1395, "\u0120wat": 1396, "\u0120\u00c5\u00a1": 1397, "old": 1398, "\u00c4\u00b1\u00c5\u0141": 1399, "\u0120\\": 1400, "\u0120\u00ce\u00b3": 1401, "\u012008": 1402, "vo": 1403, "\u0120kun": 1404, "ink": 1405, "\u00cf\u0123\u00ce\u00b9": 1406, "ien": 1407, "otel": 1408, "ros": 1409, "\u00e1\u00ba\u00a7": 1410, "\u00c4\u00b1m": 1411, "\u00d9\u0128": 1412, "\u0120that": 1413, "enn": 1414, "\u0120\u00cf\u0126\u00ce\u00bf\u00cf\u0127": 1415, "\u0120all": 1416, "\u0120dengan": 1417, "vel": 1418, "cha": 1419, "\u0120untuk": 1420, "tir": 1421, "t\u00c3\u00ab": 1422, "10": 1423, "\u012029": 1424, "\u00ce\u00bc\u00ce\u00b1": 1425, "\u0120kar": 1426, "po": 1427, "land": 1428, "oko": 1429, "ger": 1430, "\u0120id": 1431, "\u00ce\u00bd\u00ce\u00b1": 1432, "aki": 1433, "\u0120hu": 1434, "\u0120n\u00c4\u0123": 1435, "\u0120ek": 1436, "ces": 1437, "\u0120ini": 1438, "\u00c9\u013bs": 1439, "\u00c3\u00b3w": 1440, "aga": 1441, "\u0120pres": 1442, "\u0120uz": 1443, "\u0120ny": 1444, "lam": 1445, "\u0120ai": 1446, "\u0120Ho": 1447, "erv": 1448, "\u0120nd": 1449, "\u0120inc": 1450, "tim": 1451, "\u0120\u00ef\u00bf\u00bd\u00ef\u00bf\u00bd": 1452, "ings": 1453, "\u00e1\u00bb\u013d": 1454, "iko": 1455, "\u0120\u00d8\u00a7\u00d9\u0126": 1456, "EL": 1457, "\u0120was": 1458, "\u00c3\u00bdch": 1459, "entru": 1460, "\u0120ty": 1461, "\u012007": 1462, "akt": 1463, "\u0120are": 1464, "kin": 1465, "\u0120cons": 1466, "\u01202014": 1467, "__": 1468, "\u00d8\u00b1": 1469, "eme": 1470, "\u00d9\u0127": 1471, "\u0120l\u00c3\u0142": 1472, "ores": 1473, "ars": 1474, "\u00d1\u0122": 1475, "\u012002": 1476, "\u0120ge": 1477, "hat": 1478, "\u00d5\u00b8\u00d6\u0124": 1479, "\u00c5\u00a3": 1480, "\u00c3\u00a4\u00c3\u00a4": 1481, "\u01202013": 1482, "chi": 1483, "\u0120bet": 1484, "\u0120vol": 1485, "\u00d0\u00bd": 1486, "ener": 1487, "\u0120las": 1488, "\u0120aj": 1489, "\u00c3\u00b9": 1490, "\u0120seb": 1491, "\u0120her": 1492, "\u00d1\u0124": 1493, "\u0120sin": 1494, "\u012005": 1495, "elle": 1496, "ack": 1497, "ect": 1498, "\u0120pri": 1499, "inen": 1500, "l\u00c9\u013br": 1501, "\u012006": 1502, "ova": 1503, "alt": 1504, "\u0120So": 1505, "\u0120can": 1506, "\u0120p\u00c5\u013b": 1507, "uv": 1508, "gram": 1509, "\u0120tid": 1510, "cz": 1511, "\u0120sem": 1512, "IS": 1513, "fi": 1514, "\u0120my": 1515, "\u012003": 1516, "\u0120yo": 1517, "\u0120sup": 1518, "pos": 1519, "vis": 1520, "\u0120dar": 1521, "uma": 1522, "ivers": 1523, "UR": 1524, "\u0120\u00e1\u00b9\u00a3": 1525, "fic": 1526, "ubl": 1527, "\u0120kr": 1528, "ahi": 1529, "\u0120Sa": 1530, "ner": 1531, "\u0120up": 1532, "\u012004": 1533, "\u00c4\u0123s": 1534, "\u0120Az": 1535, "\u0120sc": 1536, "\u0120kas": 1537, "\u0120\u00c5\u00be": 1538, "ille": 1539, "\u012040": 1540, "\u0120kw": 1541, "\u01202012": 1542, "ual": 1543, "\u0120Or": 1544, "\u0120dem": 1545, "\u0120mit": 1546, "\u0120dos": 1547, "\u0120q\u00c3\u00ab": 1548, "\u00c3\u00a6r": 1549, "ono": 1550, "las": 1551, "uta": 1552, "ados": 1553, "\u0120sur": 1554, "oma": 1555, "\u0120Per": 1556, "\u0120\u00ce\u00bf": 1557, "\u00ce\u00af\u00ce\u00b1": 1558, "\u00e1\u00bb\u00b1": 1559, "\u0120tre": 1560, "angan": 1561, "xt": 1562, "sz": 1563, "\u00c6\u00b0\u00e1\u00bb\u013f": 1564, "\u0120\u00ce\u00bd\u00ce\u00b1": 1565, "ember": 1566, "aba": 1567, "\u0120sy": 1568, "\u00d5\u00a1\u00d5\u00b6": 1569, "\u0120vir": 1570, "\u0120bel": 1571, "iya": 1572, "\u00c4\u00b1l": 1573, "ank": 1574, "\u0120Vi": 1575, "\u0120Det": 1576, "\u0120ker": 1577, "\u0120Er": 1578, "aks": 1579, "OS": 1580, "d\u00c9\u013b": 1581, "\u00cf\u012b\u00ce\u00bd": 1582, "\u00c3\u00absh": 1583, "\u0120tot": 1584, "\u0120bes": 1585, "tig": 1586, "ania": 1587, "\u0120voor": 1588, "par": 1589, "\u0120ist": 1590, "\u0120str": 1591, "als": 1592, "ush": 1593, "\u0120vis": 1594, "esa": 1595, "\u0100\u0100": 1596, "\u0120nj\u00c3\u00ab": 1597, "\u0120Gr": 1598, "ativ": 1599, "\u0120tur": 1600, "ET": 1601, "\u00c9\u013bk": 1602, "\u0120non": 1603, "\u0120nga": 1604, "ekt": 1605, "\u00c4\u00bc": 1606, "\u0120ho\u00ca\u00bb": 1607, "\u0120pu": 1608, "\u0120As": 1609, "\u00c4\u00b0": 1610, "\u0120pot": 1611, "yi": 1612, "AM": 1613, "\u0120\u00ce\u00bc\u00ce\u00b5": 1614, "enta": 1615, "\u0120ei": 1616, "rac": 1617, "12": 1618, "\u0120c\u00c3\u00b3": 1619, "fr": 1620, "alit": 1621, "\u0120ez": 1622, "do": 1623, "lar\u00c4\u00b1n": 1624, "atur": 1625, "ott": 1626, "\u0120nem": 1627, "\u0120\u00c2\u00b7": 1628, "\u00c4\u00be": 1629, "\u0120Ka": 1630, "\u0120Te": 1631, "\u00e1\u00ba\u00a5t": 1632, "\u00c4\u00b1z": 1633, "met": 1634, "inin": 1635, "\u0120das": 1636, "\u0120col": 1637, "\u00c6\u00b0\u00e1\u00bb\u00a3": 1638, "\u0120ud": 1639, "\u0120pal": 1640, "\u00c3\u00b6z": 1641, "\u0120sig": 1642, "\u0120\u00e2\u0122\u0140": 1643, "\u0120person": 1644, "hl": 1645, "ella": 1646, "\u0120mal": 1647, "oli": 1648, "rav": 1649, "\u0120Bar": 1650, "\u0120ale": 1651, "\u00c3\u0143n": 1652, "ph": 1653, "\u0120m\u00c3\u00bc": 1654, "\u0120\u00e2\u0122\u00a2": 1655, "\u00c4\u0123k": 1656, "\u0120over": 1657, "uf": 1658, "\u012031": 1659, "\u0120hi": 1660, "IT": 1661, "oi": 1662, "\u0120sv": 1663, "\u00e1\u00ba\u00a1i": 1664, "ades": 1665, "eder": 1666, "usi": 1667, "\u0120vy": 1668, "\u0120nov": 1669, "\u0120ts": 1670, "\u01202020": 1671, "\u0120Qu": 1672, "\u0120Sex": 1673, "\u00d8\u00a7\u00d8": 1674, "uro": 1675, "\u0120sl": 1676, "ste": 1677, "edi": 1678, "\u00c3\u00a9m": 1679, "ido": 1680, "\u0120ein": 1681, "\u0120ce": 1682, "\u00c4\u0123r": 1683, "ild": 1684, "........": 1685, "wi": 1686, "\u00ce\u00b2": 1687, "\u0120como": 1688, "\u0120car": 1689, "alan": 1690, "\u0120mem": 1691, "\u00e1\u00bb\u013di": 1692, "\u0120tar": 1693, "\u00cf\u0126\u00ce\u00b9\u00ce\u00ba": 1694, "ight": 1695, "zo": 1696, "\u0120prof": 1697, "\u0120Bu": 1698, "orn": 1699, "\u0120vide": 1700, "apat": 1701, "asta": 1702, "ande": 1703, "30": 1704, "??": 1705, "jet": 1706, "\u00d9\u012a": 1707, "\u0120sek": 1708, "br": 1709, "\u00ce\u00bd\u00ce\u00bf": 1710, "hr": 1711, "\u0120fac": 1712, "\u00c3\u0143m": 1713, "\u0120\u00c3\u00a4r": 1714, "\u00c3\u00a9t": 1715, "OM": 1716, "pt": 1717, "ament": 1718, "\u0120\",\"": 1719, "ikan": 1720, "uks": 1721, "pi": 1722, "eka": 1723, "uni": 1724, "\u0120Ba": 1725, "\u0120cl": 1726, "jer": 1727, "\u0120Di": 1728, "\u0120c\u00e1\u00bb\u00a7": 1729, "\u0120s\u00c3\u00a5": 1730, "\u0120fi": 1731, "erk": 1732, "oka": 1733, "\u0120@": 1734, "\u0120Is": 1735, "\u00d1\u0123": 1736, "une": 1737, "uan": 1738, "\u0120Me": 1739, "IC": 1740, "\u0120\u00c4\u0132": 1741, "uss": 1742, "\u0120c\u00e1\u00bb\u00a7a": 1743, "yk": 1744, "\u0120online": 1745, "own": 1746, "\u0120dec": 1747, "\u0120sta": 1748, "lat": 1749, "eti": 1750, "\u0120Ha": 1751, "\u0120este": 1752, "\u0120leg": 1753, "\u0120sex": 1754, "\u0120Ph": 1755, "\u0120tel": 1756, "\u0120aan": 1757, "\u0120\u00ce\u00b1\u00cf\u0122": 1758, "\u0120\u00ce\u0143": 1759, "\u00e1\u00bb\u00a9": 1760, "\u0120sch": 1761, "\u0120tse": 1762, "\u0120kur": 1763, "\u00c3\u00a4t": 1764, "ilo": 1765, "\u0120pen": 1766, "\u0120hel": 1767, "\u0120inform": 1768, "\u0120fra": 1769, "\u00c4\u00b1nda": 1770, "iew": 1771, "ann": 1772, "iden": 1773, "\u0120lati": 1774, "\u0120nos": 1775, "\u00e1\u00bb\u00a5": 1776, "\u0120inf": 1777, "con": 1778, "\u0120sen": 1779, "aran": 1780, "of": 1781, "\u01202011": 1782, "wan": 1783, "ux": 1784, "\u0120k\u00c4\u0123": 1785, "\u0120fe": 1786, "her": 1787, "\u0120Pre": 1788, "uka": 1789, "\u0120ins": 1790, "\u0120ia": 1791, "iku": 1792, "dz": 1793, "ator": 1794, "fe": 1795, "jon": 1796, "\u0120\u00c3\u00a8": 1797, "\u0120Ac": 1798, "\u00c3\u00a1v": 1799, "atis": 1800, "iek": 1801, "\u0120ou": 1802, "\u0120To": 1803, "\u0120set": 1804, "ular": 1805, "\u00e1\u00bb\u00af": 1806, "gy": 1807, "tre": 1808, "\u0120sol": 1809, "\u0120bol": 1810, "udi": 1811, "\u0120He": 1812, "\u0120cor": 1813, "len": 1814, "\u0120Br": 1815, "\u0120inst": 1816, "\u0120ev": 1817, "\u00ce\u00b5\u00ce\u00af": 1818, "\u0120tsa": 1819, "\u0120lang": 1820, "\u0120ile": 1821, "ose": 1822, "\u0120till": 1823, "han": 1824, "\u0120form": 1825, "amo": 1826, "aman": 1827, "por": 1828, "chen": 1829, "\u0120mul": 1830, "\u0120Die": 1831, "\u0120It": 1832, "\u0120kor": 1833, "jen": 1834, "\u0120For": 1835, "alah": 1836, "\u0120199": 1837, "\u0120tod": 1838, "\u0120organ": 1839, "lar\u00c4\u00b1": 1840, "ago": 1841, "ents": 1842, "raf": 1843, "imo": 1844, "\u0120hab": 1845, "ree": 1846, "\u00c9\u013bm": 1847, "\u0120Bo": 1848, "\u0120care": 1849, "\u00d0\u00bb": 1850, "\u0120\u00ce\u00ba\u00ce\u00b1": 1851, "\u0120pat": 1852, "\u0120tal": 1853, "ogy": 1854, "\u0120dur": 1855, "\u0120out": 1856, "\u0120Car": 1857, "\u0120Man": 1858, "\u0120cas": 1859, "\u0120may": 1860, "\u0120ci": 1861, "\u0120cho": 1862, "hen": 1863, "\u0120pun": 1864, "\u0120esc": 1865, "\u0120<": 1866, "\u00ce\u00be": 1867, "\u0120\u00c2\u00b0": 1868, "\u0120ing": 1869, "ode": 1870, "\u0120trans": 1871, "var": 1872, "\u0120temp": 1873, "\u0120han": 1874, "\u0120sob": 1875, "60": 1876, "80": 1877, "eza": 1878, "\u0120v\u00c3\u00b5": 1879, "\u0120not": 1880, "IL": 1881, "\u0120And": 1882, "\u00d5\u00a5\u00d5": 1883, "iro": 1884, "able": 1885, "\u00c3\u00bck": 1886, "\u0120nag": 1887, "umu": 1888, "ld": 1889, "esh": 1890, "\u0120mot": 1891, "dir": 1892, "\u0120Ke": 1893, "idi": 1894, "\u0120mel": 1895, "\u0120Ver": 1896, "\u0120web": 1897, "ude": 1898, "\u0120sec": 1899, "\u0120tan": 1900, "\u00c5\u012f": 1901, "\u0120ikke": 1902, "15": 1903, "AD": 1904, "abi": 1905, "\u0120kut": 1906, "idade": 1907, "\u0120ig": 1908, "esk": 1909, "eden": 1910, "\u0120Pa": 1911, "\u0120sm": 1912, "\u00c3\u00a1g": 1913, "alis": 1914, "\u0120dr": 1915, "ark": 1916, "\u0120Sch": 1917, "\u0120pour": 1918, "\u00cf\u0126\u00ce\u00b9": 1919, "\u0120this": 1920, "\u0120dari": 1921, "by": 1922, "\u00c3\u0143s": 1923, "14": 1924, "osh": 1925, "ork": 1926, "\u012035": 1927, "\u0120word": 1928, "get": 1929, "\u0120Pol": 1930, "uli": 1931, "\u0120Inter": 1932, "OL": 1933, "atan": 1934, "\u0120mon": 1935, "ebo": 1936, "\u0120vers": 1937, "\u0120kam": 1938, "ign": 1939, "bas": 1940, "\u00c3\u00acnh": 1941, "abil": 1942, "\u0120post": 1943, "\u0120Ne": 1944, "amente": 1945, "\u0120els": 1946, "\u00e1\u00ba\u00af": 1947, "\u0120ata": 1948, "\u00d6\u0122\u00d5": 1949, "yon": 1950, "\u0120\u00e2\u0122\u013f,": 1951, "\u0120ole": 1952, "22": 1953, "\u0120m\u00c3\u00a1": 1954, "\u0120mes": 1955, "nen": 1956, "n\u00c4\u013d": 1957, "\u0120mea": 1958, "\u0120US": 1959, "\u0120tek": 1960, "\u0120\u00ce\u0133": 1961, "\u0120zu": 1962, "\u0120Be": 1963, "\u0120hal": 1964, "\u0120egy": 1965, "\u00c5\u00a1an": 1966, "ris": 1967, "bar": 1968, "igh": 1969, "ED": 1970, "imin": 1971, "ule": 1972, "ater": 1973, "\u0120cre": 1974, "\u0120fl": 1975, "\u00ce\u00b5\u00cf\u0124": 1976, "lah": 1977, "\u0120dalam": 1978, "\u00e1\u00bb\u0135": 1979, "\u00e1\u00ba\u00bft": 1980, "\u0120une": 1981, "\u0120inv": 1982, "osa": 1983, "ega": 1984, "\u0120chi": 1985, "\u01202010": 1986, "\u0120\u00e1\u00ba\u00b9": 1987, "\u0120pentru": 1988, "IA": 1989, "ych": 1990, "eda": 1991, "\u0120\":\"": 1992, "\u0120mus": 1993, "\u0120memb": 1994, "anc": 1995, "pro": 1996, "19": 1997, "\u00d5\u00b8\u00d6\u0124\u00d5": 1998, "\u0120Ber": 1999, "\u0120sim": 2000, "\u0120Co": 2001, "\u0120\u00e2\u0122\u0136": 2002, "\u0120dire": 2003, "\u00c3\u00b3l": 2004, "\u0120Ter": 2005, "\u0120\u00c8\u013b": 2006, "sta": 2007, "17": 2008, "\u0120m\u00c3\u00ab": 2009, "ului": 2010, "omb": 2011, "\u00c3\u00b6v": 2012, "\u00f0\u0141": 2013, "tar": 2014, "13": 2015, "\u00c3\u00a1k": 2016, "\u0120si\u00c4\u013b": 2017, "jas": 2018, "\u0120your": 2019, "\u00e1\u00bb\u0129n": 2020, "\u0120Il": 2021, "\u0120Mo": 2022, "jes": 2023, "\u0120kap": 2024, "\u00ce\u00af\u00ce\u00bd": 2025, "\u0120from": 2026, "\u0120Pl": 2027, "ition": 2028, "\u0120dia": 2029, "uko": 2030, "24": 2031, "\u0120mis": 2032, "\u0120lib": 2033, "\u00ce\u00bc\u00ce\u00b5": 2034, "ace": 2035, "ukan": 2036, "eren": 2037, "mu": 2038, "\u0120Ex": 2039, "16": 2040, "\u0120,\"": 2041, "!!": 2042, "rag": 2043, "\u0120kul": 2044, "\u0120km": 2045, "\u0120Des": 2046, "\u012036": 2047, "\u0120Por": 2048, "pen": 2049, "\u0120has": 2050, "l\u00c9\u013b": 2051, "\u00d8\u00a9": 2052, "izi": 2053, "aj": 2054, "\u0120Ab": 2055, "\u0120\u00cf\u0126\u00ce\u00b7\u00ce\u00bd": 2056, "\u012045": 2057, "\u0120von": 2058, "inu": 2059, "har": 2060, "\u00ce\u00bb\u00ce\u00bf": 2061, "nes": 2062, "\u00c3\u00a1z": 2063, "\u00c4\u0123m": 2064, "\u0120hand": 2065, "\u0120sit": 2066, "umi": 2067, "\u0120San": 2068, "gu": 2069, "\u0120dig": 2070, "\u0120probl": 2071, "tif": 2072, "\u0120\u00ce\u00b3\u00ce\u00b9\u00ce\u00b1": 2073, "ider": 2074, "\u0120Je": 2075, "\u0120part": 2076, "\u0120ben": 2077, "\u0120int": 2078, "\u0120net": 2079, "\u0120sub": 2080, "\u0120eller": 2081, "ays": 2082, "str": 2083, "\u0120aqu": 2084, "\u0120loc": 2085, "ID": 2086, "ote": 2087, "\u00c3\u00a9p": 2088, "\u00c3\u00b6l": 2089, "88": 2090, "nos": 2091, "alm": 2092, "\u0120ten": 2093, "\u0120ef": 2094, "enda": 2095, "ingen": 2096, "\u0120ara": 2097, "\u00c5\u00b1": 2098, "vat": 2099, "\u00c3\u00a4m": 2100, "uda": 2101, "\u0120mah": 2102, "\u012032": 2103, "\u0120pla": 2104, "\u0120Ak": 2105, "\u0120Res": 2106, "\u0120tro": 2107, "elen": 2108, "\u0120cap": 2109, "\u012060": 2110, "kat": 2111, "itar": 2112, "\u00e1\u00ba\u00bfn": 2113, "uld": 2114, "\u0120ye": 2115, "illa": 2116, "urop": 2117, "iste": 2118, "\u00ca\u00bbo": 2119, "40": 2120, "itz": 2121, "\u0120Fran": 2122, "\u0120dir": 2123, "\u0120katika": 2124, "\u0120lu": 2125, "\u0120\u00ce\u00b1\u00cf\u0122\u00cf\u012e": 2126, "eto": 2127, "\u0120Mat": 2128, "\u012033": 2129, "000": 2130, "\u00c6\u00b0\u00e1\u00bb\u00a3c": 2131, "\u0120fo": 2132, "\u00c3\u00bcm": 2133, "\u0120\u00cf\u012e": 2134, "\u0120acc": 2135, "\u0120tidak": 2136, "\u0120tut": 2137, "\u0120conc": 2138, "nd": 2139, "\u0120Go": 2140, "ioni": 2141, "\u00ce\u00b6": 2142, "gar": 2143, "ance": 2144, "\u0120pop": 2145, "\u0120uch": 2146, "ums": 2147, "\u0120dom": 2148, "\u00c3\u00a9l": 2149, "\u00ce\u00b1\u00ce\u00bd": 2150, "\u0120hogy": 2151, "\u0120\u00c3\u00b7": 2152, "\u0120fam": 2153, "\u00d8\u00aa": 2154, "\u0120bez": 2155, "ette": 2156, "\u0120ham": 2157, "ador": 2158, "\u0120Ang": 2159, "\u0120At": 2160, "\u0120gro": 2161, "imit": 2162, "ony": 2163, "car": 2164, "\u0120have": 2165, "\u0120mais": 2166, "\u0120art": 2167, "\u0120bak": 2168, "\u0120\u00ef": 2169, "\u0120\u00c8\u013bi": 2170, "\u0120ett": 2171, "rem": 2172, "\u0120roz": 2173, "\u0120top": 2174, "\u00c9\u013by": 2175, "ely": 2176, "\u0120nak": 2177, "\u0120Em": 2178, "\u0120ot": 2179, "\u0120alle": 2180, "\u0120serv": 2181, "\u00c3\u00a9k": 2182, "lari": 2183, "tid": 2184, "olu": 2185, "\u0120Kom": 2186, "uto": 2187, "\u0120if": 2188, "\u0120ger": 2189, "lad": 2190, "else": 2191, "raz": 2192, "\u0120fil": 2193, "endo": 2194, "\u0120\u00cf\u0126\u00ce\u00b7\u00cf\u0124": 2195, "\u0120\u00ce\u0142": 2196, "AK": 2197, "\u0120i\u00c3\u00a7": 2198, "rip": 2199, "bat": 2200, "\u0120Cas": 2201, "\u0120dag": 2202, "anie": 2203, "\u0120cent": 2204, "jd": 2205, "\u0120\u00cf\u0129": 2206, "AC": 2207, "\u0120qil": 2208, "ital": 2209, "\u0120\u00ce\u0137": 2210, "UN": 2211, "\u0120v\u00c3\u00bd": 2212, "ulo": 2213, "ster": 2214, "emi": 2215, "\u00c3\u00a1ch": 2216, "ijn": 2217, "\u0120mol": 2218, "\u0120}": 2219, "af": 2220, "ock": 2221, "\u0120cer": 2222, "itet": 2223, "\u0120resp": 2224, "\u01202009": 2225, "\u00c3\u00abt": 2226, "\u00c3\u0142n": 2227, "\u0120=\"": 2228, "US": 2229, "\u0120\u00ef\u00bf\u00bd\u00ef\u00bf\u00bd\u00ef\u00bf\u00bd\u00ef\u00bf\u00bd\u00ef\u00bf\u00bd\u00ef\u00bf\u00bd": 2230, "\u00c4\u0141\u00c4\u00b1": 2231, "\u00cf\u0126\u00ce\u00ac": 2232, "\u0120ri": 2233, "ction": 2234, "\u012034": 2235, "\u0120pel": 2236, "\u0120ok": 2237, "org": 2238, "EM": 2239, "\u0120We": 2240, "\u0120\u00c3\u0138": 2241, "ria": 2242, "ary": 2243, "led": 2244, "inde": 2245, "\u0120Im": 2246, "pres": 2247, "\u0120vil": 2248, "70": 2249, "\u0120gb": 2250, "\u0120s\u00c4\u0125": 2251, "amento": 2252, "ario": 2253, "\u0120Ed": 2254, "ales": 2255, "api": 2256, "\u0120Ind": 2257, "aku": 2258, "\u0120fel": 2259, "\u0120tam": 2260, "\u0120\u00e2\u0122\u013f.": 2261, "\u0120mad": 2262, "\u0120\u00c3\u00absh": 2263, "\u0120\u00c2\u00ac": 2264, "\u0120oh": 2265, "90": 2266, "\u00c9\u013bd": 2267, "\u0120\u00c3\u00absht\u00c3\u00ab": 2268, "\u00c6\u00b0\u00e1\u00bb\u013d": 2269, "\u0120cel": 2270, "\u0120c\u00c3\u00a1c": 2271, "\u0120Su": 2272, "\u00e1\u00bb\u013bt": 2273, "eve": 2274, "\u0120https": 2275, "\u0120mb": 2276, "\u0120\u00ce\u013c": 2277, "\u0120program": 2278, "\u0120don": 2279, "\u0120entre": 2280, "\u0120ze": 2281, "\u0120tem": 2282, "adas": 2283, "jt": 2284, "\u0120ide": 2285, "\u0120t\u00e1\u00bb": 2286, "ove": 2287, "nu": 2288, "18": 2289, "\u0120rel": 2290, "\u0120Ser": 2291, "n\u00c3\u00bd": 2292, "ange": 2293, "\u0120kel": 2294, "ulu": 2295, "\u0120tim": 2296, "iten": 2297, "dy": 2298, "\u0120Mas": 2299, "\u0120ass": 2300, "\u00ce\u00bf\u00cf\u012f": 2301, "\u0120bal": 2302, "\u0120\u00ce\u00b8": 2303, "\u0120inte": 2304, "**": 2305, "\u0120uit": 2306, "\u0120prz": 2307, "pre": 2308, "\u00c3\u0142y": 2309, "\u00c3\u00a4h": 2310, "\u0120alt": 2311, "\u0120kh\u00c3\u00b4ng": 2312, "unk": 2313, "\u0120Min": 2314, "\u00e1\u00bb\u0141": 2315, "ps": 2316, "\u0120ao": 2317, "\u0120dal": 2318, "\u00d8\u00af": 2319, "ublic": 2320, "leg": 2321, "\u00ce\u0133": 2322, "\u0120num": 2323, "\u00e1\u00b9\u00a3\u00e1\u00ba\u00b9": 2324, "\u0120\u00c3\u0129": 2325, "\u00c4\u00b1n\u00c4\u00b1": 2326, "\u0120Mod": 2327, "oro": 2328, "\u0120Hotel": 2329, "\u0120itu": 2330, "\u0120DE": 2331, "33": 2332, "\u0120gen": 2333, "kar": 2334, "25": 2335, "\u00ca\u00bbi": 2336, "\u0120als": 2337, "ument": 2338, "bil": 2339, "OT": 2340, "\u0120Da": 2341, "\u00c5\u012a": 2342, "\u0120Cl": 2343, "mat": 2344, "\u0120cat": 2345, "\u00c5\u0126": 2346, "\u0120\u00ce\u00a4": 2347, "ava": 2348, "\u0120bon": 2349, "osi": 2350, "\u0120Po": 2351, "idad": 2352, "\u0120spe": 2353, "ulle": 2354, "\u0120let": 2355, "\u00c6\u0131": 2356, "\u0120\u00cf\u0122\u00ce\u00bf\u00cf\u0127": 2357, "\u0120cs": 2358, "kon": 2359, "cs": 2360, "\u0120Her": 2361, "indi": 2362, "cu": 2363, "nak": 2364, "\u00e2\u0122\u00a6": 2365, "\u0120Men": 2366, "ahan": 2367, "\u0120nuk": 2368, "\u00c5\u00a1\u00c3\u0143": 2369, "iza": 2370, "\u0120\u00ef\u00bf\u00bd\u00ef\u00bf\u00bd\u00ef\u00bf\u00bd\u00ef\u00bf\u00bd\u00ef\u00bf\u00bd\u00ef\u00bf\u00bd\u00ef\u00bf\u00bd\u00ef\u00bf\u00bd": 2371, "\u0120nas": 2372, "\u0120hy": 2373, "\u00cf\u0130\u00ce\u00bd": 2374, "omo": 2375, "\u0120\u00c5\u00bee": 2376, "\u0120Ro": 2377, "77": 2378, "\u0120bas": 2379, "\u0120exp": 2380, "isha": 2381, "\u00e1\u00ba\u00b7": 2382, "ble": 2383, "\u0120parti": 2384, "\u0120pan": 2385, "lag": 2386, "\u0120best": 2387, "zer": 2388, "\u00c8\u013di": 2389, "\u00ce\u0143\u00cf\u0124": 2390, "\u0120esta": 2391, "\u0120oc": 2392, "tica": 2393, "ams": 2394, "\u0120\u00c4\u0133\u00c6\u00b0\u00e1\u00bb\u00a3c": 2395, "\u00c3\u00a7a": 2396, "js": 2397, "\u0120New": 2398, "ence": 2399, "99": 2400, "\u0120pada": 2401, "\u0120\u00e1\u00b9\u00a3e": 2402, "\u0120Har": 2403, "ots": 2404, "\u0120pak": 2405, "edia": 2406, "\u0120will": 2407, "itat": 2408, "irm": 2409, "\u00cf\u0123\u00ce\u00ac": 2410, "\u0120Est": 2411, "\u0120kal": 2412, "kel": 2413, "can": 2414, "\u0120Ja": 2415, "\u0120akan": 2416, "\u0120biz": 2417, "\u0120hat": 2418, "\u0120.\u00e2\u0122\u013f": 2419, "\u00c3\u00abm": 2420, "istr": 2421, "\u0120cha": 2422, "nik": 2423, "\u0120oa": 2424, "\u0120ved": 2425, "lh": 2426, "ton": 2427, "\u00c4\u0135r": 2428, "\u00c3\u0141": 2429, "ations": 2430, "\u0120Kar": 2431, "\u0120m\u00c3\u00a5": 2432, "entes": 2433, "\u0120hv": 2434, "\u0120aw": 2435, "\u0120ret": 2436, "\u0120\u00c4\u0133i": 2437, "\u00d0\u00be\u00d0": 2438, "\u012090": 2439, "\u0120g\u00c3\u00b6r": 2440, "\u0120kol": 2441, "van": 2442, "\u0120ba\u00c5\u0141": 2443, "\u0120wy": 2444, "cel": 2445, "IM": 2446, "ayo": 2447, "\u0120jed": 2448, "\u0120uk": 2449, "tes": 2450, "\u00c3\u0143c": 2451, "ume": 2452, "\u0120prin": 2453, "\u0120neg": 2454, "\u0120aku": 2455, "\u00d9\u0129": 2456, "eny": 2457, "uer": 2458, "iter": 2459, "uje": 2460, "\u0120\u00ce\u0136": 2461, "\u00e1\u00bb\u0123u": 2462, "\u00c6\u00b0\u00c6\u00a1": 2463, "oria": 2464, "\u0120ah": 2465, "\u012080": 2466, "pon": 2467, "\u0120Bl": 2468, "\u0120sus": 2469, "\u012038": 2470, "\u0120sist": 2471, "\u0120proc": 2472, "\u00c3\u00a4\u00c3\u00a4n": 2473, "\u00c3\u00a9ny": 2474, "ants": 2475, "\u00c5\u00a1e": 2476, "ister": 2477, "\u0120d\u00c9\u013b": 2478, "\u012037": 2479, "in\u00c4\u0123": 2480, "\u00e1\u00ba\u00a7n": 2481, "ishi": 2482, "ns": 2483, "ining": 2484, "gun": 2485, "ebru": 2486, "\u00c3\u00a9sz": 2487, "\u012039": 2488, "\u0120ana": 2489, "\u0120hor": 2490, "\u00c3\u00a9c": 2491, "\u0120\u00c3\u00a1": 2492, "oss": 2493, "oks": 2494, "ello": 2495, "\u0120\u00c5\u0141i": 2496, "\u0120Kr": 2497, "dag": 2498, "cer": 2499, "\u0120{": 2500, "ov\u00c3\u00a1": 2501, "\u00ca\u00bba": 2502, "tur": 2503, "\u00c3\u00a9ho": 2504, "\u00e3\u0122": 2505, "\u0120\u00ce\u00b7": 2506, "ones": 2507, "\u0120Si": 2508, "\u0120\u00cf\u0126\u00ce\u00b1": 2509, "45": 2510, "bet": 2511, "usk": 2512, "\u0120della": 2513, "\u0120Ag": 2514, "\u012055": 2515, "\u0120hist": 2516, "over": 2517, "\u0120peng": 2518, "\u0120i\u00c5\u0141": 2519, "jek": 2520, "en\u00c3\u0143": 2521, "\u0120sobre": 2522, "anto": 2523, "----": 2524, "ques": 2525, "\u0120via": 2526, "\u00e0\u00b8": 2527, "ies": 2528, "\u0120trong": 2529, "ind\u00c9\u013b": 2530, "mun": 2531, "arr": 2532, "tie": 2533, "acute": 2534, "IR": 2535, "\u0120jan": 2536, "\u0120pass": 2537, "\u00c4\u00b1k": 2538, "\u0120Ko": 2539, "\u0120beg": 2540, "\u0120\u00ce\u00a3": 2541, "\u0120ish": 2542, "\u00ce\u00b9\u00cf\u0125": 2543, "66": 2544, "\u00c6\u00b0\u00e1\u00bb\u013fi": 2545, "anz": 2546, "cio": 2547, "\u00e1\u00bb\u013f": 2548, "\u0120.,": 2549, "imul": 2550, "\u0120mw": 2551, "\u00d9\u0130": 2552, "\u012048": 2553, "\u0120mund": 2554, "bay": 2555, "aca": 2556, "\u00ce\u00bb\u00ce\u00bb": 2557, "\u0120produc": 2558, "\u01202008": 2559, "arm": 2560, "\u00d0\u00ba": 2561, "\u0120\u00ce\u00b5\u00cf\u0122": 2562, "\u0120Sk": 2563, "\u0120f\u00c3\u00bcr": 2564, "\u0120Mag": 2565, "\u0120\u00f0\u0141": 2566, "\u0120bur": 2567, "\u0120mor": 2568, "\u0120Ra": 2569, "EC": 2570, "\u0120Mal": 2571, "vol": 2572, "ils": 2573, "oon": 2574, "\u0120ris": 2575, "ee": 2576, "\u00c4\u00b1na": 2577, "\u00c9\u013bh": 2578, "enye": 2579, "\u00d1\u0125": 2580, "area": 2581, "\u0120jak": 2582, "\u0120sab": 2583, "\u00c3\u00a1d": 2584, "\u0120\u00cf\u0125\u00cf\u0126\u00ce\u00bf": 2585, "\u0120wi": 2586, "\u00c5\u013dci": 2587, "\u0120\u00c3\u012b": 2588, "amos": 2589, "lus": 2590, "\u0120kes": 2591, "\u0120fal": 2592, "fin": 2593, "\u00cf\u0126\u00ce\u00b1\u00ce\u00b9": 2594, "\u0120blog": 2595, "IK": 2596, "\u0120s\u00c3\u00ba": 2597, "\u0120qui": 2598, "\u0120Os": 2599, "35": 2600, "\u0120prop": 2601, "\u0120produk": 2602, "umb": 2603, "ogo": 2604, "\u0120esp": 2605, "\u0120\".": 2606, "\u0120Aw\u00e1\u00bb\u012fn": 2607, "\u0120Do": 2608, "\u0120Reg": 2609, "mes": 2610, "\u0120maj": 2611, "\u0120\u00cf\u0125\u00cf\u0127": 2612, "\u0120tom": 2613, "\u0120end": 2614, "cip": 2615, "\u0120ban": 2616, "\u0120lab": 2617, "\u0120eng": 2618, "\u0120oli": 2619, "lich": 2620, "\u0120m\u00e1\u00bb\u013bt": 2621, "\u00e1\u00ba\u00a1n": 2622, "etan": 2623, "inta": 2624, "\u0120dans": 2625, "\u0120\u00ce\u013e": 2626, "\u00c3\u00b5es": 2627, "\u0120nap": 2628, "\u0120Val": 2629, "\u0120div": 2630, "\u0120ich": 2631, "uts": 2632, "rod": 2633, "\u0120jeg": 2634, "\u0120Mon": 2635, "\u0120Ni": 2636, "\u00cf\u0126\u00ce\u00ae": 2637, "\u0120Online": 2638, "\u0120Ol": 2639, "\u0120uma": 2640, "bb": 2641, "\u0120v\u00e1\u00bb\u013di": 2642, "\u0120polit": 2643, "\u0120sing": 2644, "\u0120kuwa": 2645, "\u0120PR": 2646, "\u0120\u00cf\u0122\u00cf\u0123\u00ce\u00bf": 2647, "erg": 2648, "\u0120Nov": 2649, "ally": 2650, "\u0120video": 2651, "\u00c4\u0123l": 2652, "\u00d8\u00b9": 2653, "ilor": 2654, "iyy": 2655, "\u0120gel": 2656, "kom": 2657, "\u0120cz": 2658, "\u0120`": 2659, "\u0120ru": 2660, "elef": 2661, "\u012099": 2662, "\u0120Les": 2663, "reg": 2664, "\u0120r\u00e1\u00ba\u00b9": 2665, "\u0120yap": 2666, "\u0120Col": 2667, "usta": 2668, "\u0120prov": 2669, "eter": 2670, "ory": 2671, "ump": 2672, "bal": 2673, "\u0120mm": 2674, "\u0120Aut": 2675, "uru": 2676, "\u0120Op": 2677, "\u00d8\u00a8": 2678, "\u0120ako": 2679, "\u0120Vide": 2680, "\u012044": 2681, "\u0120red": 2682, "ering": 2683, "\u0120Ap": 2684, "\u0120auf": 2685, "78": 2686, "\u0120cm": 2687, "\u0120bor": 2688, "\u0120under": 2689, "\u00ce\u00b5\u00ce\u00bd": 2690, "\u00c4\u00b1n\u00c4\u00b1n": 2691, "\u0120cal": 2692, "iler": 2693, "\u00c4\u0135t": 2694, "\u0120\u00c3\u00aent": 2695, "inh": 2696, "\u012042": 2697, "\u00cf\u0123\u00ce\u00af": 2698, "\u0120nam": 2699, "n\u00c3\u00a1": 2700, "\u0120bah": 2701, "\u0120tit": 2702, "as\u00c4\u00b1": 2703, "ept": 2704, "\u0120gl": 2705, "ling": 2706, "iks": 2707, "ics": 2708, "erd": 2709, "\u0120m\u00c3\u00a1s": 2710, "\u0120\u00d9\u0127": 2711, "tek": 2712, "ayan": 2713, "\u0100\u0100\u0100\u0100": 2714, "nej": 2715, "\u00cf\u0125\u00ce\u00b5\u00ce\u00b9": 2716, "\u00c5\u00a1i": 2717, "\u0120tip": 2718, "\u0120tun": 2719, "rib": 2720, "uti": 2721, "AB": 2722, "\u0120kup": 2723, "\u0120but": 2724, "\u0120n\u00c3\u00a4": 2725, "UL": 2726, "\u0120Fr": 2727, "\u0120\u00cf\u0128": 2728, "cie": 2729, "itas": 2730, "yst": 2731, "\u0120tul": 2732, "\u0120Av": 2733, "\u0120aus": 2734, "\u0120\u00ce\u00b2": 2735, "\u0120bul": 2736, "\u0120Den": 2737, "\u012070": 2738, "\u0120k\u00c3\u00a4": 2739, "row": 2740, "\u0120Kat": 2741, "\u0120j\u00e1\u00ba\u00b9": 2742, "\u0120II": 2743, "AG": 2744, "\u00e1\u00bb\u0137": 2745, "\u00ce\u00b9\u00ce\u00bf": 2746, "\u0120kir": 2747, "\u0120Rep": 2748, "\u0120wo": 2749, "\u0120wh": 2750, "\u0120Europ": 2751, "\u00ce\u00bf\u00cf\u0127\u00ce\u00bd": 2752, "\u00e1\u00ba\u00a3i": 2753, "ox": 2754, "abr": 2755, "leri": 2756, "\u00c6\u00b0\u00e1\u00bb\u013fng": 2757, "\u00c5\u00a1a": 2758, "ple": 2759, "\u0120nev": 2760, "df": 2761, "\u00c6\u00b0\u00c6\u00a1ng": 2762, "\u0120\u00c5\u0140": 2763, "cy": 2764, "\u0120kung": 2765, "lin": 2766, "ece": 2767, "\u0120mom": 2768, "\u0120\u00c5\u00bc": 2769, "\u0120fot": 2770, "\u0120wak": 2771, "ional": 2772, "urt": 2773, "\u00c4\u0125r": 2774, "\u00d6\u0123": 2775, "ated": 2776, "esto": 2777, "\u00c9\u013bb": 2778, "vers": 2779, "\u0120vai": 2780, "\u00ce\u0141": 2781, "\u0120hot": 2782, "\u00cf\u0126\u00cf\u012e": 2783, "\u0120plan": 2784, "jar": 2785, "\u0120gratis": 2786, "ublik": 2787, "\u0120dep": 2788, "\u0120nav": 2789, "\u00c3\u0142ng": 2790, "tag": 2791, "\u0120\u00c3\u00aent\u00c3\u00a2": 2792, "\u0120film": 2793, "\u0120Jan": 2794, "\u0120had": 2795, "\u00c3\u00b6k": 2796, "\u00d5\u00b8\u00d5": 2797, "\u00c3\u00bc\u00c5\u0141": 2798, "\u012043": 2799, "\u00cf\u0123\u00cf\u012e": 2800, "ske": 2801, "\u0120cr": 2802, "\u0120sor": 2803, "\u0120Dr": 2804, "\u0120IN": 2805, "\u0120tah": 2806, "\u0120pap": 2807, "\u00c4\u0123d": 2808, "\u0120mind": 2809, "\u0120sil": 2810, "\u00c3\u0123": 2811, "\u0120check": 2812, "osta": 2813, "\u00ce\u013b": 2814, "\u0120Pe": 2815, "yg": 2816, "\u0120tas": 2817, "\u0120\u00c3\u013e": 2818, "rek": 2819, "iso": 2820, "\u0120Ng": 2821, "uch": 2822, "\u00c3\u0142nh": 2823, "\u0120gy": 2824, "\u0120Ge": 2825, "\u0120\u00ef\u00bf\u00bd\u00ef\u00bf\u00bd\u00ef\u00bf\u00bd": 2826, "isen": 2827, "anh": 2828, "\u00e1\u00ba\u00a3n": 2829, "26": 2830, "\u0120\u00ca\u00bbO": 2831, "dr": 2832, "\u0120get": 2833, "\u0120bilan": 2834, "idan": 2835, "\u0120\u00d4": 2836, "AP": 2837, "eva": 2838, "\u0120kop": 2839, "\u0120qo": 2840, "yor": 2841, "\u0120yn": 2842, "ral": 2843, "\u00c5\u0124a": 2844, "\u0120Tur": 2845, "\u0120dok": 2846, "esso": 2847, "44": 2848, "\u0120ada": 2849, "amu": 2850, "rij": 2851, "\u0120ste": 2852, "\u0120off": 2853, "75": 2854, "\u00c4\u00abt": 2855, "\u0120koh": 2856, "...": 2857, "\u0120kep": 2858, "\u00c4\u00abbas": 2859, "uw": 2860, "\u0120s\u00c3\u00ab": 2861, "23": 2862, "trol": 2863, "\u0120vend": 2864, "eth": 2865, "\u0120\u00c3\u00a5r": 2866, ").": 2867, "\u0120god": 2868, "\u0120ges": 2869, "del": 2870, "yar": 2871, "lav": 2872, "\u0120Sal": 2873, "ading": 2874, "ize": 2875, "\u00e1\u00bb\u00afng": 2876, "\u0120\u00cf\u0125\u00ce\u00b5": 2877, "\u0120g\u00c3\u00b6": 2878, "\u0120c\u00c4\u0125": 2879, "\u00c5\u013b\u00c3\u0143": 2880, "\u0120js": 2881, "\u0120ng\u00c6\u00b0\u00e1\u00bb\u013fi": 2882, "usa": 2883, "unda": 2884, "\u0120ib": 2885, "iver": 2886, "urg": 2887, "\u0120bed": 2888, "\u00cc\u00a3": 2889, "\u0120ook": 2890, "\u00ce\u00bc\u00ce\u0143": 2891, "\u0120Mer": 2892, "aro": 2893, "\u0120lin": 2894, "\u0120bot": 2895, "\u012046": 2896, "omi": 2897, "azione": 2898, "kov": 2899, "\u0120like": 2900, "iyo": 2901, "obil": 2902, "WW": 2903, "\u00c5\u0141\u00c4\u00b1": 2904, "\u0120adalah": 2905, "\u0120Cor": 2906, "\u012049": 2907, "\u0120kg": 2908, "\u0120\u00c3\u00aent\u00c3\u00a2l": 2909, "ical": 2910, "\u0120l\u00c3\u00a4": 2911, "\u0120inn": 2912, "igt": 2913, "d\u00c4\u00b1r": 2914, "\u0120vit": 2915, "zn": 2916, "\u00c3\u00b1a": 2917, "d\u00c4\u00b1": 2918, "eria": 2919, "rio": 2920, "\u0120v\u00c3\u00a6": 2921, "\u0120lok": 2922, "\u00c3\u00b3d": 2923, "\u0120k\u00c3\u00ab": 2924, "\u00ce\u00b1\u00cf\u0124": 2925, "\u0120Sup": 2926, "\u00c3\u0143v": 2927, "mm": 2928, "\u0120pra": 2929, "\u0120dik": 2930, "\u0120May": 2931, "\u0120wan": 2932, "\u0120AM": 2933, "ty": 2934, "rin": 2935, "\u0120uchun": 2936, "\u0120gener": 2937, "\u0120nhi": 2938, "____": 2939, "eke": 2940, "\u0120dz": 2941, "forma": 2942, "\u0120Cent": 2943, "\u0120kont": 2944, "jem": 2945, "\u0120rev": 2946, "lem": 2947, "\u0120lik": 2948, "\u0120plus": 2949, "nolog": 2950, "esu": 2951, "out": 2952, "itor": 2953, "\u0120cam": 2954, "\u0120atau": 2955, "\u00ce\u00bc\u00ce\u00bf": 2956, "\u0120Mil": 2957, "\u0120mana": 2958, "\u0120say": 2959, "\u00c3\u00bcz": 2960, "\u0120Sel": 2961, "\u00c2\u00b5": 2962, "aten": 2963, "\u0120sau": 2964, "\u0120Med": 2965, "\u0120jest": 2966, "\u0120Mad": 2967, "\u00ce\u00ac\u00ce\u00bd": 2968, "\u00c3\u0126": 2969, "mal": 2970, "ird": 2971, "\u00c3\u00a1ll": 2972, "lov": 2973, "\u00c3\u0142i": 2974, "\u0120nog": 2975, "\u00d8\u00b3": 2976, "\u0120parte": 2977, "\u00d0\u00b0\u00d0": 2978, "\u00e1\u00ba\u00a7u": 2979, "\u0120Ta": 2980, "ml": 2981, "ible": 2982, "oso": 2983, "\u0120bij": 2984, "\u0120stud": 2985, "\u0120gu": 2986, "ident": 2987, "ties": 2988, "load": 2989, "\u0120Cat": 2990, "tal": 2991, "isten": 2992, "\u0120Kon": 2993, "aye": 2994, "\u0120juga": 2995, "\u0120beh": 2996, "tions": 2997, "\u0120data": 2998, "\u00ce\u00af\u00ce\u00bd\u00ce\u00b1\u00ce\u00b9": 2999, "ikk": 3000, "uke": 3001, "\u0120Fl": 3002, "\u0120hore": 3003, "aria": 3004, "\u0120fer": 3005, "kr": 3006, "TA": 3007, "\u0120ip": 3008, "\u0120\u00e2\u0128": 3009, "\u0120Pos": 3010, "teri": 3011, "\u0120Gi": 3012, "\u0120mun": 3013, "\u00c3\u00a9e": 3014, "ester": 3015, "kur": 3016, "\u0120nt": 3017, "is\u00c3\u00ab": 3018, "nia": 3019, "ugu": 3020, "\u00c4\u0135j": 3021, "\u0120seu": 3022, "\u0120ons": 3023, "\u0120gar": 3024, "yen": 3025, "\u0120tab": 3026, "\u0120Home": 3027, "29": 3028, "\u0120new": 3029, "\u0120dav": 3030, "riv": 3031, "\u0120tla": 3032, "alia": 3033, "fo": 3034, "\u0120Fac": 3035, "\u0120zijn": 3036, "ender": 3037, "yan": 3038, "\u0120kt": 3039, "\u0120v\u00c3\u00a4": 3040, "\u0120bek": 3041, "28": 3042, "\u0120nec": 3043, "\u0120nh\u00c6\u00b0": 3044, "\u0120\u00c2\u00a3": 3045, "\u00d9\u0125": 3046, "cher": 3047, "\u0120\u00cf\u0125\u00cf\u0126\u00ce\u00b7": 3048, "\u0120Ti": 3049, "\u00d9\u0124": 3050, "\u0120san": 3051, "\u0120i\u00c3\u00a7in": 3052, "cho": 3053, "ism": 3054, "gj": 3055, "\u0120\u00cf\u0122\u00ce\u00b1": 3056, "oda": 3057, "\u0120Sz": 3058, "\u00c3\u00b6s": 3059, "\u0120lig": 3060, "\u00c4\u0125m": 3061, "\u012047": 3062, "antes": 3063, "\u0120Tra": 3064, "yle": 3065, "azi": 3066, "ron": 3067, "alu": 3068, "\u00c3\u00a2y": 3069, "\u00c6\u00b0\u00e1\u00bb\u013dc": 3070, "\u0120bud": 3071, "\u0120mill": 3072, "\u0120alla": 3073, "\u00c5\u0124o": 3074, "\u0120fol": 3075, "heid": 3076, "\u0120grup": 3077, "\u0120dob": 3078, "\u0120ih": 3079, "pet": 3080, "imulyo": 3081, "eno": 3082, "\u0120port": 3083, "mi\u00c5\u0141": 3084, "isti": 3085, "\u0120jag": 3086, "\u00e1\u00bb\u00a3": 3087, "atie": 3088, "\u0120Univers": 3089, "\u0120hay": 3090, "\u0120ket": 3091, "ezi": 3092, "\u0120import": 3093, "\u0120isang": 3094, "ll": 3095, "uten": 3096, "ions": 3097, "\u00cf\u0123\u00ce\u00b5": 3098, "alla": 3099, "\u0120vet": 3100, "\u0120kad": 3101, "\u0120his": 3102, "ows": 3103, "\u00ce\u00bf\u00ce\u00bb": 3104, "\u0120Bel": 3105, "\u0120lak": 3106, "ape": 3107, "\u0120\u00ce\u00b1\u00ce\u00bd": 3108, "\u0120apr": 3109, "fat": 3110, "\u0120pie": 3111, "lack": 3112, "lex": 3113, "36": 3114, "tet": 3115, "\u0120\u00d9\u012a": 3116, "iner": 3117, "\u0120prim": 3118, "kor": 3119, "ibil": 3120, "uku": 3121, "agai": 3122, "rop": 3123, "\u0120hier": 3124, "\u0120\u00ce\u00bb": 3125, "\u0120lag": 3126, "wer": 3127, "ilik": 3128, "\u0120Post": 3129, "ownload": 3130, "\u0120tag": 3131, "bel": 3132, "\u00c3\u00bct": 3133, "\u0120500": 3134, "\u00c3\u00a8s": 3135, "\u0120compl": 3136, "j\u00c4\u0127": 3137, "mar": 3138, "adan": 3139, "\u0120anda": 3140, "\u00d5\u00b5": 3141, "\u0120\u00c9\u013b": 3142, "\u00e1\u00ba\u0143n": 3143, "aa": 3144, "\u0120n\u00c3\u00a3o": 3145, "esz": 3146, "\u0120Dan": 3147, "utta": 3148, "tel": 3149, "\u00e1\u00bb\u00b1c": 3150, "\u00e1\u00bb\u00a9c": 3151, "55": 3152, "\u0120org": 3153, "\u0120\u00c4\u0133\u00e1\u00bb\u013b": 3154, "idas": 3155, "\u0120kita": 3156, "iny": 3157, "\u00e1\u00bb\u0143": 3158, "TR": 3159, "\u0120vel": 3160, "\u0120ere": 3161, "iran": 3162, "ustr": 3163, "EK": 3164, "\u01202007": 3165, "ektr": 3166, "\u0120ngud": 3167, "\u0120ngudimulyo": 3168, "hu": 3169, "elij": 3170, "oo": 3171, "\u00ce\u0137": 3172, "ating": 3173, "nych": 3174, "fu": 3175, "\u00c3\u00b1o": 3176, "\u0120Du": 3177, "\u0120AN": 3178, "\u00c5\u00a9": 3179, "\u0120Der": 3180, "aza": 3181, "qip": 3182, "\u0120Pers": 3183, "\u00c3\u00b4i": 3184, "bek": 3185, "\u00c3\u00bdm": 3186, "\u00d6\u0126": 3187, "eller": 3188, "ilar": 3189, "\u0120any": 3190, "\u00e1\u00ba\u00b9lu": 3191, "\u0120\u00ce\u00b5\u00ce\u00af\u00ce\u00bd\u00ce\u00b1\u00ce\u00b9": 3192, "\u0120hotel": 3193, "\u0120Joh": 3194, "ober": 3195, "imiz": 3196, "ipa": 3197, "asan": 3198, "\u012059": 3199, "\u0120meny": 3200, "\u0120skal": 3201, "\u0120porno": 3202, "\u0120gan": 3203, "\u0120nor": 3204, "ivo": 3205, "\u00c3\u00a1ny": 3206, "bol": 3207, "\u0120\u00c5\u0142": 3208, "UM": 3209, "asti": 3210, "\u0120Jo": 3211, "\u0120\u00ef\u00bf\u00bd\u00ef\u00bf\u00bd\u00ef\u00bf\u00bd\u00ef\u00bf\u00bd\u00ef\u00bf\u00bd": 3212, "it\u00c3\u0142": 3213, "27": 3214, "\u0120bus": 3215, "\u0120vor": 3216, "\u0120rom": 3217, "ges": 3218, "\u0120menj": 3219, "\u0120eff": 3220, "\u00c3\u00a1n\u00c3\u0143": 3221, "\u0120more": 3222, "\u0120poz": 3223, "IG": 3224, "agy": 3225, "\u012056": 3226, "\u012054": 3227, "\u0120All": 3228, "\u0120doc": 3229, "amat": 3230, "\u00cf\u0125\u00ce\u00b5": 3231, "ebook": 3232, "\u00c3\u0125": 3233, "\u00d5\u00a5\u00d6\u0122": 3234, "\u0120m\u00c3\u00a9s": 3235, "\u00cf\u012b\u00cf\u0124": 3236, "\u00c3\u00a9d": 3237, "app": 3238, "\u0120nh\u00e1\u00bb\u00afng": 3239, "\u0120\u00ca\u00bbo": 3240, "\u0120hak": 3241, "\u0120\u00ce\u00b1\u00cf\u0127": 3242, "\u0120buh": 3243, "AH": 3244, "\u0120hl": 3245, "\u00cc\u0123": 3246, "\u0120Gu": 3247, "ango": 3248, "ates": 3249, "\u00ce\u00ba\u00ce\u00b5": 3250, "iye": 3251, "apan": 3252, "\u0120l\u00e1\u00ba\u00b9": 3253, "\u0120Ca": 3254, "\u0120mend": 3255, "\u00e1\u00bb\u0129t": 3256, "\u00c3\u00a5n": 3257, "\u00d5\u00a1\u00d5\u00af": 3258, "liy": 3259, "\u0120....": 3260, "n\u00c3\u00ab": 3261, "\u0120dapat": 3262, "\u0120util": 3263, "unu": 3264, "\u0120far": 3265, "\u0120gre": 3266, "opp": 3267, "\u0120yer": 3268, "UT": 3269, "encia": 3270, "iva": 3271, "\u00c4\u00b1s": 3272, "\u0120pdf": 3273, "\u0120hon": 3274, "rov": 3275, "ian": 3276, "\u00c4\u0141i": 3277, "\u0120\u00cf\u0127": 3278, "elser": 3279, "upa": 3280, "\u00c3\u0143nh": 3281, "\u00c3\u00a1p": 3282, "\u0120vid": 3283, "\u00e0\u00b2": 3284, "atik": 3285, "in\u00c9\u013b": 3286, "................": 3287, "\u012058": 3288, "\u00c5\u00bee": 3289, "\u00ce\u00bf\u00ce\u00bd": 3290, "ultur": 3291, "\u0120vu": 3292, "\u0120Str": 3293, "iment": 3294, "\u0120Gal": 3295, "\u0120Ob": 3296, "\u0120imp": 3297, "\u0120Rom": 3298, "l\u00c3\u00a4": 3299, "\u0120Red": 3300, "\u0120ant": 3301, "\u00e1\u00ba\u0143t": 3302, "xx": 3303, "\u0120nep": 3304, "\u0120Ste": 3305, "\u00c3\u00b3r": 3306, "tern": 3307, "\u0120\u00c4\u012e": 3308, "\u0120nad": 3309, "\u0120hom": 3310, "\u0120\u00c3\u00b8": 3311, "rea": 3312, "\u0120const": 3313, "\u0120Dis": 3314, "\u00ce\u00a3": 3315, "ciones": 3316, "\u0120ktor": 3317, "\u00c9\u013brbay": 3318, "mit": 3319, "\u00c3\u00a7\u00c3\u00b5es": 3320, "\u0120sar": 3321, "\u00c3\u013e": 3322, "\u0120kama": 3323, "tive": 3324, "\u0120bin": 3325, "\u00cf\u0123\u00ce\u00b3": 3326, "\u0120\u00c6\u0131": 3327, "\u0120hav": 3328, "zeko": 3329, "icha": 3330, "\u00c3\u00b3s": 3331, "\u0120kab": 3332, "\u0120cond": 3333, "unn": 3334, "vet": 3335, "\u0120Prod": 3336, "nek": 3337, "\u00ce\u00bb\u00ce\u00b1": 3338, "nic": 3339, "amm": 3340, "\u0120ont": 3341, "inal": 3342, "\u0120v\u00c3\u00a4l": 3343, "imu": 3344, "\u0120maar": 3345, "kil": 3346, "\u00ce\u00bb\u00ce\u00b5": 3347, "\u00ce\u00bb\u00ce\u00b7": 3348, "enc": 3349, "\u0120saya": 3350, "\u0120gal": 3351, "etr": 3352, "\u0120problem": 3353, "\u0120dev": 3354, "emo": 3355, "\u0120Eng": 3356, "\u00e1\u00bb\u0123n": 3357, "\u0120kil": 3358, "\u0120t\u00c3\u00b6": 3359, "\u0120zo": 3360, "\u0120sang": 3361, "\u0120mir": 3362, "\u0120zi": 3363, "ves": 3364, "\u0120conta": 3365, "\u0120Amer": 3366, "ser": 3367, "\u0120trad": 3368, "uran": 3369, "\u0120ning": 3370, "\u0120Af": 3371, "\u00c9\u013bl\u00c9\u013br": 3372, "\u0120Lat": 3373, "lash": 3374, "\u0120dol": 3375, "\u0120ble": 3376, "\u0120dun": 3377, "aire": 3378, "ball": 3379, "\u0120nat": 3380, "\u0120k\u00c3\u00b6": 3381, "\u0120hem": 3382, "\u0120era": 3383, "ower": 3384, "\u0120Lo": 3385, "\u0120\u00c4\u0133\u00c3\u00a3": 3386, "\u00c3\u0143ch": 3387, "gg": 3388, "\u0120olan": 3389, "OD": 3390, "\u0120see": 3391, "\u0120??": 3392, "ily": 3393, "\u0120wal": 3394, "bih": 3395, "ines": 3396, "\u0120Tag": 3397, "\u0120rad": 3398, "\u0120tri": 3399, "\u012053": 3400, "\u0120dist": 3401, "\u0120one": 3402, "\u00c9\u013bsi": 3403, "sen": 3404, "\u0120AS": 3405, "kol": 3406, "\u0120.)": 3407, "\u0120liv": 3408, "s\u00c3\u00a5": 3409, "\u00d5\u00a1\u00d5\u00b5": 3410, "ational": 3411, "76": 3412, "\u00ce\u00bd\u00ce\u00b7": 3413, "\u0120edhe": 3414, "ING": 3415, "\u0120pin": 3416, "\u0120g\u00c3\u00bcn": 3417, "OP": 3418, "w\u00e1\u00bb\u012f": 3419, "\u0120Port": 3420, "ites": 3421, "\u0120t\u00c9\u013b": 3422, "udah": 3423, "\u0120p\u00e1\u00ba\u00b9lu": 3424, "\u0120dira": 3425, "igen": 3426, "\u0120f\u00c3\u00a5": 3427, "\u0120eks": 3428, "\u0120Met": 3429, "\u00d9\u0123": 3430, "arch": 3431, "\u0120\u00c4\u0133\u00e1\u00bb\u0125": 3432, "omen": 3433, "ekin": 3434, "\u012041": 3435, "ogle": 3436, "iyat": 3437, "uman": 3438, "iser": 3439, "urr": 3440, "\u0120hana": 3441, "\u0120Pentru": 3442, "\u0120dre": 3443, "\u0120ens": 3444, "EG": 3445, "\u0120il\u00c9\u013b": 3446, "xe": 3447, "\u012075": 3448, "elf": 3449, "\u0120poss": 3450, "ograf": 3451, "eba": 3452, "\u0120sed": 3453, "mas\u00c4\u00b1": 3454, "\u0120Mart": 3455, "\u0120norm": 3456, "ef": 3457, "qi": 3458, "\u0120Nor": 3459, "\u0120gra": 3460, "\u0120PM": 3461, "\u0120orang": 3462, "onte": 3463, "21": 3464, "\u0120ll": 3465, "\u0120lar": 3466, "48": 3467, "\u0120Ku": 3468, "\u0120app": 3469, "\u0120Hot": 3470, "\u0120proj": 3471, "hod": 3472, "\u0120khi": 3473, "\u0120thu": 3474, "\u0120Gre": 3475, "\u0120hol": 3476, "inc": 3477, "\u0120Et": 3478, "\u0120lit": 3479, "eler": 3480, "\u0120Li": 3481, "\u0120\u00c3\u0143": 3482, "\u00c4\u0125ng": 3483, "\u0120\u00ce\u0141": 3484, "ham": 3485, "press": 3486, "owe": 3487, "war": 3488, "osp": 3489, "\u00e1\u00bb\u013fi": 3490, "\u0120\u00c3\u0123": 3491, "\u00e1\u00bb\u012e": 3492, "\u00c3\u012f": 3493, "\u0120teg": 3494, "\u0120Apr": 3495, "\u0120Od": 3496, "\u00c3\u012b": 3497, "ei": 3498, "\u00c3\u00a4tt": 3499, "\u0120dib": 3500, "\u0120kek": 3501, "uba": 3502, "\u0120\u00c3\u00b6n": 3503, "\u0120lat": 3504, "\u00c3\u0138": 3505, "\u0120Az\u00c9\u013brbay": 3506, "\u0120time": 3507, "\u0120Can": 3508, "\u0120rend": 3509, "\u0120unha": 3510, "\u0120sul": 3511, "\u0120dei": 3512, "\u0120TV": 3513, "\u00c4\u00b1l\u00c4\u00b1": 3514, "\u0120Ur": 3515, "akat": 3516, "\u0120test": 3517, "pg": 3518, "nis": 3519, "\u0120Ben": 3520, "oku": 3521, "\u00d5\u00bf": 3522, "\u0120EUR": 3523, "mak": 3524, "ube": 3525, "\u0120AL": 3526, "\u0120Sie": 3527, "\u0120internet": 3528, "\u0120th\u00e1\u00bb\u0125": 3529, "\u0120Pal": 3530, "\u0120waar": 3531, "\u0120kn": 3532, "\u0120k\u00c3\u00b6z": 3533, "mek": 3534, "ENT": 3535, "embre": 3536, "cias": 3537, "\u0120\u00cf\u0122\u00ce\u00b5": 3538, "\u0120Mi": 3539, "38": 3540, "\u0120dels": 3541, "\u0120Casino": 3542, "\u00c3\u00bcs": 3543, "\u0120vous": 3544, "aste": 3545, "\u00c3\u0135": 3546, "ues": 3547, "\u0120pou": 3548, "\u0120lim": 3549, "\u0120Sc": 3550, "ovan": 3551, "isht": 3552, "jal": 3553, "amin": 3554, "osti": 3555, "\u0120.\"": 3556, "odi": 3557, "\u00c3\u00bcrk": 3558, "\u0120\u00d8\u00a7\u00d9\u0126\u00d8": 3559, "ahr": 3560, "oki": 3561, "\u0120Bi": 3562, "\u0120naj": 3563, "\u0120Vo": 3564, "\u0120t\u00c3\u00a4": 3565, "\u0120tl": 3566, "inger": 3567, "\u0120materi": 3568, "elefon": 3569, "\u0120niet": 3570, "bin": 3571, "vin": 3572, "\u0120wer": 3573, "\u0120Dec": 3574, "\u0120bag": 3575, "fik": 3576, "cional": 3577, "\u00c3\u00a8n": 3578, "\u0120\u00d5\u00b0": 3579, "ibi": 3580, "\u00e1\u00bb\u0133ng": 3581, "\u0120yar": 3582, "\u0120Sam": 3583, "\u0120lum": 3584, "\u0120most": 3585, "\u0120dah": 3586, "\u0120\u00cf\u0126\u00cf\u012b\u00ce\u00bd": 3587, "\u0120nicht": 3588, "\u0120kter": 3589, "\u00e1\u00bb\u0133i": 3590, "qa": 3591, "hor": 3592, "yw": 3593, "ther": 3594, "\u0120mereka": 3595, "\u0120term": 3596, "\u0120leng": 3597, "\u012057": 3598, "inter": 3599, "\u0120realiz": 3600, "\u00c4\u00abg": 3601, "idades": 3602, "ments": 3603, "IV": 3604, "anti": 3605, "\u0120our": 3606, "uden": 3607, "ady": 3608, "\u0120Web": 3609, "ody": 3610, "hal": 3611, "\u0120\u00ce\u00b8\u00ce\u00b1": 3612, "\u0120Anda": 3613, "amis": 3614, "oba": 3615, "\u0120Afr": 3616, "\u0120come": 3617, "\u0120You": 3618, "\u0120yan": 3619, "rim": 3620, "\u0120ogs\u00c3\u00a5": 3621, "owi": 3622, "\u0120przy": 3623, "\u00c5\u00abs": 3624, "\u0120NE": 3625, "\u0120fut": 3626, "\u0120lebih": 3627, "\u00e3\u0125": 3628, "issa": 3629, "39": 3630, "\u00c5\u00a1o": 3631, "\u0120mau": 3632, "\u0120198": 3633, "ever": 3634, "\u00e1\u00ba\u00a9": 3635, "r\u00c3\u00a1": 3636, "\u0120CH": 3637, "imb": 3638, "\u0120air": 3639, "\u0120\u00ce\u00ac": 3640, "CH": 3641, "\u0120camp": 3642, "ION": 3643, "\u0120conf": 3644, "\u00d5\u00a1\u00d6\u0122": 3645, "\u0120pom": 3646, "\u00a1\u00c2": 3647, "\u0120forma": 3648, "dek": 3649, "\u0120\u00cf\u0126\u00ce\u00b9": 3650, "iniz": 3651, "\u0120oleh": 3652, "\u00c4\u0135l": 3653, "\u0120war": 3654, "\u0120:)": 3655, "IP": 3656, "34": 3657, "it\u00c3\u00a9": 3658, "eds": 3659, "\u00c4\u00b7": 3660, "\u0120buhok": 3661, "rar": 3662, "\u0120\u00c3\u00bc\u00c3\u00a7": 3663, "apo": 3664, "tra": 3665, "\u0120tv": 3666, "enie": 3667, "AY": 3668, "essa": 3669, "\u0120fir": 3670, "\u0120Jul": 3671, "\u00e1\u00ba\u00bd": 3672, "\u0120old": 3673, "\u0120Mor": 3674, "\u0120activ": 3675, "\u0120nel": 3676, "\u0120qual": 3677, "plic": 3678, "\u0120Ek": 3679, "\u0120eh": 3680, "\u0120Don": 3681, "nal": 3682, "\u0120oldu": 3683, "\u0120pul": 3684, "jak": 3685, "\u00cf\u012a": 3686, "isu": 3687, "anta": 3688, "\u00c6\u00a1n": 3689, "\u0120Vol": 3690, "hur": 3691, "ov\u00c3\u00a9": 3692, "ader": 3693, "\u0120syst": 3694, "esc": 3695, "emos": 3696, "\u0120super": 3697, "\u00c4\u00a3": 3698, "\u00d0\u00bc": 3699, "oke": 3700, "\u0120ann": 3701, "\u0120beste": 3702, ");": 3703, "\u00c3\u0129": 3704, "\u00c2\u00ac": 3705, "\u0120natur": 3706, "\u00c3\u00b9ng": 3707, "bor": 3708, "\u0120lap": 3709, "\u0120gore": 3710, "\u0120jul": 3711, "\u0120sak": 3712, "lay": 3713, "\u00e1\u00bb\u0127": 3714, "ads": 3715, "inden": 3716, "omat": 3717, "\u0120aug": 3718, "\u0120kui": 3719, "arte": 3720, "\u0120w\u00e1\u00bb\u012fn": 3721, "\u00e1\u00bb\u0131": 3722, "\u0120szer": 3723, "\u00c2\u00ba": 3724, "\u0120oper": 3725, "ebut": 3726, "zat": 3727, "\u0120tik": 3728, "ach": 3729, "\u00c3\u00af": 3730, "\u0120fet": 3731, "\u0120ani": 3732, "hol": 3733, "\u0120ters": 3734, "\u00c3\u00b8l": 3735, "\u0120Nam": 3736, "itate": 3737, "\u0120mig": 3738, "edz": 3739, "65": 3740, "\u0120Air": 3741, "\u012052": 3742, "\u00c9\u013bc": 3743, "anza": 3744, "\u012065": 3745, "ters": 3746, "\u0120bisa": 3747, "ope": 3748, "\u0120pok": 3749, "zu": 3750, "\u0120sn": 3751, "\u0120soci": 3752, "rist": 3753, "elu": 3754, "\u0120avec": 3755, "\u00c4\u0123ci": 3756, "\u0120kus": 3757, "mis": 3758, "\u0120cil": 3759, "\u00e1\u00bb\u012b": 3760, "\u0120c\u00c3\u00b4ng": 3761, "\u0120eu": 3762, "iyan": 3763, "\u0120\u00c3\u00a9r": 3764, "\u00c5\u0133l": 3765, "OK": 3766, "ath": 3767, "\u0120\u00c3\u00b6z": 3768, "igi": 3769, "rid": 3770, "anyak": 3771, "\u0120pros": 3772, "\u0120k\u00c3\u00b5": 3773, "\u0120IS": 3774, "vu": 3775, "\u0120sich": 3776, "\u0120kah": 3777, "\u0120\u00e3\u0122": 3778, "\u0120lek": 3779, "eten": 3780, "\u0120bit": 3781, "anga": 3782, "lim": 3783, "yin": 3784, "\u0120Nu": 3785, "ski": 3786, "uter": 3787, "\u0120Mu": 3788, "ungen": 3789, "\u0120desc": 3790, "cions": 3791, "\u0120i\u00e1\u00b9\u00a3\u00e1\u00ba\u00b9": 3792, "\u0120public": 3793, "\u0120ES": 3794, "\u0120sie": 3795, "\u0120Bak": 3796, "\u0120Para": 3797, "\u0120b\u00e1\u00ba\u00a1n": 3798, "\u00ce\u00ae\u00cf\u0124": 3799, "\u0120tin": 3800, "\u0120!!!": 3801, "\u0120d\u00c3\u00a9": 3802, "opo": 3803, "\u0120Mus": 3804, "\u0120zd": 3805, "74": 3806, "\u0120start": 3807, "\u0120qar": 3808, "pu": 3809, "\u0120jou": 3810, "iec": 3811, "raw": 3812, "\u0120deg": 3813, "uste": 3814, "v\u00c3\u00a4": 3815, "\u00d5\u00b8\u00d6\u0124\u00d5\u00b4": 3816, "\u0120lip": 3817, "\u0120sah": 3818, "\u0120admin": 3819, "\u0120Bir": 3820, "\u0120ua": 3821, "\u0120enc": 3822, "II": 3823, "\u0120dil": 3824, "unta": 3825, "igo": 3826, "\u0120cara": 3827, "\u00c4\u013dt": 3828, "\u0120vari": 3829, "\u0120Lu": 3830, "\u00e1\u00bb\u013bi": 3831, "\u0120land": 3832, "itan": 3833, "\u0120pero": 3834, "\u00cf\u0123\u00ce\u00b7": 3835, "\u00ce\u00bf\u00cf\u0127\u00cf\u0124": 3836, "\u0120p\u00c4\u0123r": 3837, "\u0120rem": 3838, "tat": 3839, "\u0120\u00cf\u0126\u00ce\u00bf\u00ce\u00bd": 3840, "onom": 3841, "\u0120situ": 3842, "OV": 3843, "\u0120iy": 3844, "riz": 3845, "\u0120Bas": 3846, "\u00cf\u0123\u00cf\u012b": 3847, "ids": 3848, "etu": 3849, "\u0120Video": 3850, "ijas": 3851, "\u0120Bal": 3852, "ture": 3853, "jat": 3854, "sten": 3855, "\u0120social": 3856, "\u00c9\u013bz": 3857, "\u00e1\u00bb\u012fc": 3858, "gel": 3859, "79": 3860, "ames": 3861, "ctor": 3862, "inas": 3863, "\u0120Om": 3864, "\u00c5\u013d\u00c4\u0129": 3865, "\u0120ned": 3866, "\u00c4\u00abdz": 3867, "\u00d1\u0131": 3868, "\u0120equ": 3869, "\u00c3\u00ae": 3870, "ley": 3871, "ures": 3872, "\u00c4\u00b1ndan": 3873, "\u0120sat": 3874, "amba": 3875, "k\u00e1\u00bb\u012f": 3876, "los": 3877, "\u0120Top": 3878, "\u0120thi": 3879, "\u0120onder": 3880, "plo": 3881, "kez": 3882, "\u0120organiz": 3883, "68": 3884, "\u0120kv": 3885, "\u00c3\u00a1ng": 3886, "\u0120);": 3887, "\u0120\u00c3\u00b5": 3888, "\u0120sho": 3889, "\u0120ans": 3890, "usu": 3891, "\u0120COM": 3892, "hin": 3893, "\u0120comun": 3894, "\u00cf\u0125\u00ce\u00b7\u00cf\u0124": 3895, "ware": 3896, "\u0120~": 3897, "\u012095": 3898, "\u0120nin": 3899, "\u0120pred": 3900, "\u0120eine": 3901, "far": 3902, "\u0120AB": 3903, "\u00ce\u00b8\u00ce\u00b5": 3904, "\u0120shum": 3905, "\u0120n\u00c3\u0142y": 3906, "\u0120nom": 3907, "\u0120inde": 3908, "\u0120kit": 3909, "\u0120exc": 3910, "\u0120m\u00e1\u00ba\u00b9": 3911, "ratis": 3912, "\u00c3\u0143r": 3913, "lip": 3914, "\u0120Mak": 3915, "orld": 3916, "\u0120tech": 3917, "\u0120Cons": 3918, "\u0120kt\u00c3\u00b3": 3919, "\u0120lah": 3920, "\u0120Pi": 3921, "\u00ea\u0140": 3922, "\u012051": 3923, "\u0120t\u00e1\u00bb\u00ab": 3924, "\u0120\u00c5\u00bce": 3925, "\u0120kos": 3926, "\u0120about": 3927, "oth": 3928, "gal": 3929, "hd": 3930, "\u0120lan": 3931, "\u0120free": 3932, "\u0120lis": 3933, "\u0120Fil": 3934, "\u0120daar": 3935, "\u0120their": 3936, "\u0120Dom": 3937, "\u00d5\u00a5\u00d5\u00ac": 3938, "\u0120zen": 3939, "\u0120):": 3940, "\u0120300": 3941, "icas": 3942, "ail": 3943, "\u00d5\u00ab\u00d5\u00b6": 3944, "\u0120Aug": 3945, "\u0120This": 3946, "\u0120wana": 3947, "\u0120n\u00c3\u00a1": 3948, "\u0120Ger": 3949, "\u0120priv": 3950, "\u0120ses": 3951, "\u0120sind": 3952, "\u0120\u00c3\u00b3": 3953, "\u0120fund": 3954, "\u0120m\u00c3\u0142": 3955, "69": 3956, "\u0120auch": 3957, "64": 3958, "lis": 3959, "lij": 3960, "\u0120mell": 3961, "\u0120!!": 3962, "ey": 3963, "\u0120site": 3964, "\u00c3\u012d": 3965, "\u0120ting": 3966, "al\u00c4\u00b1": 3967, "ery": 3968, "\u00c5\u00a1anas": 3969, "assa": 3970, "RE": 3971, "xi": 3972, "\u0120nou": 3973, "\u0120dim": 3974, "tico": 3975, "eki": 3976, "wn": 3977, "\u0120App": 3978, "\u0120Sil": 3979, "\u0120pes": 3980, "TE": 3981, "egi": 3982, "\u00c4\u0123t": 3983, "d\u00c9\u013bn": 3984, "\u0120ano": 3985, "\u01202006": 3986, "\u00e1\u00bb\u0135ng": 3987, "eber": 3988, "abu": 3989, "zie": 3990, "\u0120tamb": 3991, "\u00d0\u00b4": 3992, "elik": 3993, "\u00d5\u00ab\u00d5": 3994, "taa": 3995, "\u0120bere": 3996, "\u0120est\u00c3\u00a1": 3997, "\u0120sw": 3998, "inda": 3999, "\u0120they": 4000, "\u00c4\u0123kou": 4001, "\u0120Wh": 4002, "\u0120ras": 4003, "wy": 4004, "\u0120\u00c2\u00b4": 4005, "\u0120Sol": 4006, "\u0120alg": 4007, "\u0120Kos": 4008, "pan": 4009, "\u0120kry": 4010, "\u0120\u00ce\u00b4\u00ce\u00b9\u00ce\u00b1": 4011, "empre": 4012, "\u0120fre": 4013, "\u00e1\u00bb\u0133c": 4014, "r\u00e1\u00bb\u012f": 4015, "\u0120star": 4016, "\u0120asi": 4017, "zione": 4018, "\u0120\u00c3\u00bc\u00c3\u00a7\u00c3\u00bcn": 4019, "\u00c5\u00a1t": 4020, "\u0120(\"": 4021, "ogra": 4022, "\u0120\u00cf\u0125\u00cf\u0126\u00ce\u00b7\u00ce\u00bd": 4023, "ative": 4024, "itos": 4025, "\u0120izan": 4026, "\u0120Ing": 4027, "\u0120v\u00c3\u00a6re": 4028, "\u0120mos": 4029, "\u0120mik": 4030, "\u0120EN": 4031, "ivi": 4032, "\u0120Nh": 4033, "inan": 4034, "\u0120Dep": 4035, "pat": 4036, "\u00c3\u00a1i": 4037, "\u0120Tel": 4038, "\u0120\u00d8\u00a8": 4039, "cas": 4040, "\u0120\u00e5": 4041, "sm": 4042, "\u0120Sm": 4043, "\u0120',": 4044, "jan": 4045, "tia": 4046, "\u0120My": 4047, "\u0120\u00ce\u00ae": 4048, "dor": 4049, "\u0120ref": 4050, "\u00c8\u013bte": 4051, "\u0120By": 4052, "\u00c3\u00a4ng": 4053, "iston": 4054, "skap": 4055, "enter": 4056, "\u0120mang": 4057, "\u0120deb": 4058, "\u00c3\u00abve": 4059, "endi": 4060, "has": 4061, "\u0120ped": 4062, "\u0120Pres": 4063, "\u0120Bon": 4064, "\u0120ska": 4065, "at\u00c4\u0125": 4066, "\u0120ord": 4067, "\u00c4\u0131": 4068, "\u0120z\u00c3\u00a1": 4069, "alog": 4070, "\u0120mp": 4071, "gt": 4072, "\u0120perf": 4073, "\u0120anti": 4074, "\u0120sono": 4075, "\u0120dies": 4076, "\u00ce\u0141\u00ce": 4077, "\u0120lori": 4078, "\u0120lid": 4079, "ytt": 4080, "imento": 4081, "rez": 4082, "LE": 4083, "\u0120--": 4084, "\u0120\u00c2\u00bf": 4085, "adu": 4086, "\u0120put": 4087, "\u0120prac": 4088, "\u0120SP": 4089, "\u0120Ir": 4090, "\u0120rep": 4091, "\u0120Art": 4092, "\u00c3\u00a8re": 4093, "\u0120\u00c5\u013d": 4094, "32": 4095, "\u0120mam": 4096, "\u0120Rec": 4097, "\u0120hindi": 4098, "\u00d5\u00a1\u00d6\u0122\u00d5": 4099, "fs": 4100, "\u0120\u00c4\u0133\u00e1\u00ba\u00bfn": 4101, "\u00c5\u00a3i": 4102, "rab": 4103, "\u0120Sim": 4104, "\u0120Az\u00c9\u013brbaycan": 4105, "\u0120Ik": 4106, "\u0120Bil": 4107, "oms": 4108, "ibu": 4109, "\u0120\u00c2\u00b2": 4110, "\u0120elektr": 4111, "\u0120Ki": 4112, "\u0120saat": 4113, "elet": 4114, "eres": 4115, "idos": 4116, "utat": 4117, "\u0120kepada": 4118, "l\u00e1\u00ba\u00b9": 4119, "\u00ce\u00b9\u00ce\u00ac": 4120, "\u0120tai": 4121, "hm": 4122, "\u00ce\u00b4\u00ce\u00bf": 4123, "\u0120vot": 4124, "\u0120work": 4125, "in\u00c3\u00ab": 4126, "\u0120kem": 4127, "\u0120a\u00c3\u00a7": 4128, "\u0120tet": 4129, "imal": 4130, "\u0120ven": 4131, "orr": 4132, "OC": 4133, "mail": 4134, "\u00c4\u0123j": 4135, "ages": 4136, "\u0120Ev": 4137, "\u0120Son": 4138, "OG": 4139, "\u00ca\u00bbe": 4140, "\u0120nang": 4141, "\u00ea\u0140\u012e": 4142, "\u0120pm": 4143, "nas": 4144, "\u0120kay": 4145, "ram": 4146, "\u0120just": 4147, "\u0120sis": 4148, "oga": 4149, "\u0120ep": 4150, "col": 4151, "\u0120pam": 4152, "\u0120ps": 4153, "\u0120lug": 4154, "\u0120prez": 4155, "omm": 4156, "det": 4157, "\u0120sistem": 4158, "\u0120ar\u00c4\u00ab": 4159, "\u00e1\u00ba\u0143p": 4160, "\u00c5\u0124y": 4161, "icia": 4162, "\u0120eur": 4163, "\u0120dest": 4164, "\u0120daha": 4165, "\u0120Gro": 4166, "\u00cc\u0122": 4167, "\u0120Pat": 4168, "\u0120gia": 4169, "\u0120k\u00c5\u00ab": 4170, "\u0120olar": 4171, "\u0120aur": 4172, "\u0120kons": 4173, "\u0120Tak": 4174, "inya": 4175, "ogbo": 4176, "ikt": 4177, "\u0120\u00ef\u00bf\u00bd\u00ef\u00bf\u00bd\u00ef\u00bf\u00bd\u00ef\u00bf\u00bd\u00ef\u00bf\u00bd\u00ef\u00bf\u00bd\u00ef\u00bf\u00bd": 4178, "\u0120its": 4179, "\u0120Dit": 4180, "\u0120map": 4181, "\u0120prost": 4182, "\u0120Kan": 4183, "\u0120vez": 4184, "\u0120tari": 4185, "\u0120v\u00e1\u00bb\u0123": 4186, "fel": 4187, "\u0120opp": 4188, "\u0120loa": 4189, "\u0120ett\u00c3\u00a4": 4190, "\u00c3\u00a5l": 4191, "esp": 4192, "\u0120spr": 4193, "irs": 4194, "kal": 4195, "gb": 4196, "\u00c5\u00a9ng": 4197, "\u0120diff": 4198, "azio": 4199, "owo": 4200, "\u0120Ve": 4201, "\u0120jy": 4202, "meld": 4203, "\u0120\u00ce\u00b1\u00cf\u0122\u00ce\u00bf": 4204, "\u0120autor": 4205, "\u0120bers": 4206, "\u0120IB": 4207, "ligt": 4208, "\u0120Allah": 4209, "\u00cf\u0123\u00ce\u00b9\u00cf\u0125": 4210, "pecial": 4211, "\u0120l\u00c3\u0142m": 4212, "iyy\u00c9\u013bt": 4213, "\u0120bra": 4214, "\u0120150": 4215, "\u0120dell": 4216, "\u0120heb": 4217, "\u0120bre": 4218, "\u0120kim": 4219, "\u0120rez": 4220, "\u0120orig": 4221, "\u0120mass": 4222, "\u0120kum": 4223, "\u0120hau": 4224, "irt": 4225, "xa": 4226, "ved": 4227, "ohl": 4228, "gang": 4229, "\u0120oor": 4230, "xs": 4231, "\u0120dy": 4232, "ief": 4233, "\u0120Prof": 4234, "l\u00c9\u013bri": 4235, "erne": 4236, "urn": 4237, "oti": 4238, "\u00c4\u0135m": 4239, "ool": 4240, "\u0120nost": 4241, "\u0120Wind": 4242, "\u0120\u00cf\u0126\u00ce\u00bf\u00cf\u0127\u00cf\u0124": 4243, "utu": 4244, "\u00c3\u00babl": 4245, "zia": 4246, "\u0120Jos": 4247, "\u0120Del": 4248, "\u0120pi\u00c3\u00b9": 4249, "eze": 4250, "uth": 4251, "ANG": 4252, "\u0120pet": 4253, "\u0120also": 4254, "\u0120stand": 4255, "uns": 4256, "\u0120kami": 4257, "\u0120Free": 4258, "cis": 4259, "\u0120ess": 4260, "iske": 4261, "\u0120log": 4262, "IE": 4263, "\u0120kwenye": 4264, "ices": 4265, "\u0120ito": 4266, "enu": 4267, "almente": 4268, "\u00e1\u00ba\u00a5y": 4269, "hich": 4270, "\u00c3\u00b6t": 4271, "\u0120bad": 4272, "\u00c3\u00a2m": 4273, "\u0120\u00e1\u00bb\u0141": 4274, "\u0120rak": 4275, "imet": 4276, "\u00cf\u0129\u00ce\u00b5": 4277, "\u0120kahi": 4278, "\u0120\u00c3\u00bcz": 4279, "\u0120prote": 4280, "ature": 4281, "lia": 4282, "\u0120mua": 4283, "\u00c4\u00abbu": 4284, "cul": 4285, "\u012085": 4286, "\u0120Facebook": 4287, "\u0120pay": 4288, "edd": 4289, "inte": 4290, "\u0120meer": 4291, "49": 4292, "\u0120c\u00e1\u00ba\u00a3": 4293, "ilt": 4294, "elig": 4295, "\u0120dating": 4296, "opa": 4297, "\u00e1\u00bb\u0129u": 4298, "\u0120profess": 4299, "\u0120Gl": 4300, "\u0120Sen": 4301, "stra": 4302, "\u0120siz": 4303, "unci": 4304, "ellen": 4305, "\u00ce\u00b9\u00ce\u00ba\u00cf\u012e": 4306, "\u00e3\u0123": 4307, "\u0120vl": 4308, "\u00c4\u012fn\u00c3\u0143": 4309, "\u0120Set": 4310, "\u0120Va": 4311, "\u00cf\u0125\u00ce\u00b5\u00ce\u00b9\u00cf\u0124": 4312, "\u0120artic": 4313, "\u0120t\u00e1\u00ba\u00a1i": 4314, "\u0120Google": 4315, "abe": 4316, "entar": 4317, "umat": 4318, "iyor": 4319, "utt": 4320, "yat": 4321, "\u0120tash": 4322, "\u0120SE": 4323, "ingi": 4324, ",\"": 4325, "\u0120sik": 4326, "\u0120\u00d0\u0142": 4327, "\u0120list": 4328, "\u0120Het": 4329, "adores": 4330, "\u0120door": 4331, "\u0120Net": 4332, "\u00c9\u013bri": 4333, "owy": 4334, "ismo": 4335, "berg": 4336, "\u0120ml": 4337, "\u0120compr": 4338, "\u0120ninu": 4339, "ds": 4340, "igan": 4341, "cm": 4342, "\u0120bona": 4343, "\u0120T\u00c3\u00bcrk": 4344, "ilgan": 4345, "ivid": 4346, "\u0120Sem": 4347, "uen": 4348, "\u00c3\u00bas": 4349, "\u0120k\u00c3\u00bcl": 4350, "\u0120ohun": 4351, "\u0120Gar": 4352, "ycz": 4353, "idir": 4354, "\u0120Cal": 4355, "\u0120AR": 4356, "stan": 4357, "m\u00c4\u00b1\u00c5\u0141": 4358, "\u0120geb": 4359, "\u0120false": 4360, "ativa": 4361, "\u0120Dav": 4362, "\u0120f\u00c3\u00b8r": 4363, "\u0120p\u00c5\u013b\u00c3\u0143": 4364, "\u0120\u00c3\u0130": 4365, "\u0120bis": 4366, "AA": 4367, "\u0120real": 4368, "\u0120Kh": 4369, "\u00c3\u00aau": 4370, "enia": 4371, "\u0120aga": 4372, "\u00c5\u00abt": 4373, "juk": 4374, "\u0120Sec": 4375, "vad": 4376, "\u0120Dar": 4377, "\u0120sunt": 4378, "\u00d5\u00a8": 4379, "dd": 4380, "\u0120oma": 4381, "\u0120rela": 4382, "\u0120hai": 4383, "\u0120maks": 4384, "\u0120dara": 4385, "nost": 4386, "ards": 4387, "\u00ce\u00ba\u00ce\u00b1": 4388, "\u0120kok": 4389, "\u00d9\u012b": 4390, "\u0120geh": 4391, "\u0120cir": 4392, "p\u00e1\u00bb\u012f": 4393, "\u0120\u00d5\u00a7": 4394, "iem": 4395, "IB": 4396, "\u0120Trans": 4397, "\u0120Lib": 4398, "\u0120\u00c2\u00b3": 4399, "izo": 4400, "\u00e1\u00ba\u00b1": 4401, "\u0120quan": 4402, "\u0120Pas": 4403, "\u0120\u00d7": 4404, "\u0120n\u00c3\u00a5": 4405, "\u0120adi": 4406, "\u0120mask": 4407, "\u0120Fa": 4408, "hte": 4409, "\u0120sana": 4410, "\u0120prom": 4411, "ungan": 4412, "\u0120bang": 4413, "elor": 4414, "\u0120s\u00e1\u00ba\u00bd": 4415, "obile": 4416, "it\u00c3\u00a4": 4417, "\u0120satu": 4418, "\u0120anal": 4419, "rum": 4420, "icos": 4421, "\u00ce\u00a4": 4422, "\u0120d\u00e1\u00bb\u00a5": 4423, "\u0120Porno": 4424, "\u0120m\u00c9\u013b": 4425, "tual": 4426, "\u0120gay": 4427, "ugh": 4428, "\u0120Posted": 4429, "ager": 4430, "ipas": 4431, "\u0120\u00e1\u00bb\u012e": 4432, "amer": 4433, "\u0120u\u00c5\u00be": 4434, "my": 4435, "\u00e0\u00a4": 4436, "ici\u00c3\u00b3n": 4437, "\u0120,\u00e2\u0122\u013f": 4438, "ilia": 4439, "\u0120ren": 4440, "\u0120did": 4441, "\u0120Hal": 4442, "\u0120efter": 4443, "ires": 4444, "\u0120which": 4445, "\u0120p\u00c3\u00a4": 4446, "itter": 4447, "\u0120PS": 4448, "la\u00c5\u0141": 4449, "nosti": 4450, "\u0120sou": 4451, "\u0120\u00c4\u0133\u00c3\u00b3": 4452, "\u0120profes": 4453, "\u0120yoo": 4454, "\u0120gi\u00c3\u00a1": 4455, "\u0120hou": 4456, "inder": 4457, "\u0120Hol": 4458, "In": 4459, "\u0120null": 4460, "ander": 4461, "may": 4462, "\u0120Rev": 4463, "\u0120\u00ce\u00b4\u00ce\u00b5\u00ce\u00bd": 4464, "unan": 4465, "elijk": 4466, "\u00e1\u00bb\u0125n": 4467, "37": 4468, "ribu": 4469, "room": 4470, "\u0120nh\u00c3\u0142": 4471, "\u00ce\u00b8\u00ce\u00b7": 4472, "\u0120kuk": 4473, "\u0120.-": 4474, "\u0120aquest": 4475, "\u0120anak": 4476, "\u0120AD": 4477, "elis": 4478, "rie": 4479, "\u00d1\u012d": 4480, "\u0120Part": 4481, "nings": 4482, "\u00c5\u00a1u": 4483, "kk": 4484, "t\u00c3\u00a9": 4485, "\u0120ya\u00c5\u0141": 4486, "\u0120ST": 4487, "AV": 4488, "\u0120l\u00e1\u00bb\u012f": 4489, "\u0120Vis": 4490, "gl": 4491, "\u0120Kur": 4492, "uhan": 4493, "\u0120dh": 4494, "\u0120mula": 4495, "\u0120\u00d1": 4496, "\u0120Seg": 4497, "\u0120apa": 4498, "ongo": 4499, "\u0120i\u00e1\u00b9\u00a3": 4500, "asjon": 4501, "\u0120shum\u00c3\u00ab": 4502, "amen": 4503, "\u0120halam": 4504, "udo": 4505, "isto": 4506, "\u0120m\u00c3\u00b5": 4507, "\u0120mab": 4508, "ningen": 4509, "atzen": 4510, "iba": 4511, "\u0120tap": 4512, "\u0120ling": 4513, "\u0120Ul": 4514, "\u0120speci": 4515, "\u0120Serv": 4516, "\u0120bay": 4517, "\u0120bun": 4518, "IF": 4519, "\u0120hod": 4520, "\u0120mail": 4521, "\u0120Kl": 4522, "lec": 4523, "\u0120finan": 4524, "\u00c3\u00b2ng": 4525, "\u0120vagy": 4526, "\u0120difer": 4527, "\u0120telah": 4528, "\u0120tor": 4529, "AZ": 4530, "\u012064": 4531, "\u0120gaz": 4532, "\u0120cop": 4533, "larni": 4534, "\u00ce\u0139": 4535, "\u00cf\u0125\u00cf\u0126\u00ce\u00b5": 4536, "\u0120\u00c2\u00a7": 4537, "\u0120ht": 4538, "ovat": 4539, "\u0120\u00d5\u00b4": 4540, "\u0120Mah": 4541, "IO": 4542, "\u0120add": 4543, "85": 4544, "\u0120econ": 4545, "oca": 4546, "\u0120pil": 4547, "\u0120Cre": 4548, "iness": 4549, "itel": 4550, "\u0120Pod": 4551, "\u0120r\u00c3\u00a9": 4552, "\u0120Um": 4553, "\u0120sep": 4554, "oug": 4555, "\u0120cos": 4556, "m\u00e1\u00bb\u012f": 4557, "\u0120Jak": 4558, "n\u00c4\u00ab": 4559, "ex": 4560, "\u0120???": 4561, "\u0120foi": 4562, "uel": 4563, "f\u00c3\u00b6r": 4564, "\u0120mur": 4565, "\u0120sua": 4566, "\u00c4\u00a9": 4567, "\u0120them": 4568, "\u0120disc": 4569, "\u00c3\u0132": 4570, "\u0120bei": 4571, "z\u00c4\u0127": 4572, "\u0120c\u00c5\u00a9ng": 4573, "\u0120wel": 4574, "\u00c3\u00bac": 4575, "\u0120contr": 4576, "\u0120pad": 4577, "zar": 4578, "mon": 4579, "\u0120edil": 4580, "\u0120arg": 4581, "\u0120hele": 4582, "\u0120cli": 4583, "\u00d5\u00b8\u00d6\u0124\u00d5\u00a9": 4584, "\u0120\u00ce\u0135": 4585, "l\u00c4\u00b1k": 4586, "\u0120jan\u00c3\u00ab": 4587, "\u0120def": 4588, "\u0120kuf": 4589, "\u0120back": 4590, "vik": 4591, "\u00cf\u0125\u00ce\u00b1": 4592, "\u0120fr\u00c3\u00a5n": 4593, "\u00e1\u00ba\u00b9n": 4594, "\u0120jar": 4595, "roid": 4596, "odo": 4597, "\u0120PD": 4598, "\u0120Hy": 4599, "\u0120informa": 4600, "\u0120\u00d9\u0126": 4601, "\u0120Sport": 4602, "\u0120wie": 4603, "\u0120gev": 4604, "\u0100\u0100\u0100\u0100\u0100\u0100\u0100\u0100": 4605, "wat": 4606, "\u0120pon": 4607, "\u00d8\u0143": 4608, "nat": 4609, "\u0120Cu": 4610, "n\u00c3\u00bdch": 4611, "\u0120foto": 4612, "\u00c3\u00a1b": 4613, "95": 4614, "\u0120pem": 4615, "\u0120sag": 4616, "wai": 4617, "\u00e3\u0124": 4618, "\u00c2\u00bb": 4619, "\u0120qe": 4620, "\u0120Cap": 4621, "\u0120upp": 4622, "larda": 4623, "\u0120suc": 4624, "\u0120Sur": 4625, "\u0120tent": 4626, "jel": 4627, "\u0120nei": 4628, "\u00ce\u00bd\u00ce\u00b5": 4629, "\u00e2\u0122\u00a6\u00e2\u0122\u00a6": 4630, "\u0120pens": 4631, "\u00e1\u00ba\u00ab": 4632, "\u0120behar": 4633, "\u0120bab": 4634, "olg": 4635, "\u0120God": 4636, "\u0120Black": 4637, "\u00c3\u00b2n": 4638, "\u0120h\u00c3\u0142ng": 4639, "pap": 4640, "perti": 4641, "\u0120cur": 4642, "\u0120v\u00c3\u0142o": 4643, "\u0120tum": 4644, "sto": 4645, "\u00c3\u00b6d": 4646, "ungu": 4647, "\u0120Che": 4648, "isc": 4649, "\u0120sebagai": 4650, "\u0120amp": 4651, "lab": 4652, "\u00c5\u00a1ana": 4653, "\u0120\u00c4\u0133\u00e1\u00bb\u012d": 4654, "\u0120result": 4655, "\u0120yil": 4656, "\u0120hiyo": 4657, "\u0120nar": 4658, "\u0120len": 4659, "\u0120ill": 4660, "v\u00c3\u0143": 4661, "\u00d0\u00b3": 4662, "\u00c3\u00ban": 4663, "\u0120Ass": 4664, "\u00c3\u00a6l": 4665, "\u0120mong": 4666, "\u0120mani": 4667, "\u0120todo": 4668, "\u0120jet": 4669, "\u0120_": 4670, "idagi": 4671, "\u0120rap": 4672, "stand": 4673, "\u0120sum": 4674, "\u0120\u00c3\u013a": 4675, "\u0120dey": 4676, "\u0120Of": 4677, "\u0120lagi": 4678, "ydd": 4679, "uat": 4680, "xim": 4681, "\u0120univers": 4682, "\u0120ked": 4683, "l\u00e1\u00bb\u012f": 4684, "\u0120HD": 4685, "\u0120fran": 4686, "\u0120Bat": 4687, "\u0120\u00ce\u0139": 4688, "\u0120nhi\u00e1\u00bb\u0123u": 4689, "\u0120dro": 4690, "\u0120sport": 4691, "\u00c4\u0123\u00ca\u00bb": 4692, "\u00c3\u00a4s": 4693, "\u00cf\u0126\u00ce\u00b1\u00ce\u00bd": 4694, "\u0120UN": 4695, "67": 4696, "\u00c3\u00b4n": 4697, "\u0120nui": 4698, "\u0120quy": 4699, "\u0120AC": 4700, "\u0120fem": 4701, "\u0120pili": 4702, "\u00c4\u0135c": 4703, "etta": 4704, "\u0120Inst": 4705, "\u0120nghi": 4706, "pad": 4707, "\u0120Bur": 4708, "\u0120ili": 4709, "\u0120Off": 4710, "qar": 4711, "\u0120function": 4712, "\u0120plat": 4713, "bir": 4714, "esse": 4715, "\u00c5\u0133s": 4716, "\u0120review": 4717, "\u0120gew": 4718, "\u0120bosh": 4719, "\u00c4\u00abv": 4720, "\u0120gran": 4721, "\u0120bos": 4722, "\u0120tr\u00c3\u00aan": 4723, "\u0120Las": 4724, "\u0120contra": 4725, "\u00cf\u0123\u00cf\u0130": 4726, "eca": 4727, "\u0120Mot": 4728, "itus": 4729, "\u01202005": 4730, "rok": 4731, "omp": 4732, "\u0120l\u00e1\u00ba\u00a1i": 4733, "\u0120Leg": 4734, "\u00cf\u0123\u00ce\u0143": 4735, "\u0120kell": 4736, "\u00c3\u00b3g": 4737, "\u0120nach": 4738, "\u0120Sta": 4739, "iset": 4740, "\u0120oldu\u00c4\u0141": 4741, "zk": 4742, "\u0120fost": 4743, "ileng": 4744, "\u0120menjadi": 4745, "\u0120TR": 4746, "\u0120Sw": 4747, "irk": 4748, "ci\u00c3\u00b3ns": 4749, "erta": 4750, "\u00c4\u00abj": 4751, "\u0120\u00c9\u0136": 4752, "osto": 4753, "itza": 4754, "oph": 4755, "\u0120NEW": 4756, "\u0120\u00d9\u0123": 4757, "onder": 4758, "ipe": 4759, "\u0120videos": 4760, "\u0120v\u00c5\u00a1": 4761, "\u0120v\u00c3\u00b5i": 4762, "\u0120when": 4763, "ref": 4764, "\u0120moet": 4765, "\u0120delle": 4766, "\u00e1\u00ba\u00bb": 4767, "\u0120divers": 4768, "\u0120v\u00c3\u0143": 4769, "ultura": 4770, "\u0120Fi": 4771, "\u0120upang": 4772, "enden": 4773, "\u00e1\u00ba\u00b7t": 4774, "\u00c3\u00bcy": 4775, "\u0120m\u00c4\u013d": 4776, "\u0120dla": 4777, "fica": 4778, "\u0120lain": 4779, "\u0120Pet": 4780, "\u00c9\u013bf": 4781, "way": 4782, "\u00c5\u0141a": 4783, "enen": 4784, "\u00c4\u0125n": 4785, "\u0120media": 4786, "\u0120stat": 4787, "eku": 4788, "\u0120vz": 4789, "AND": 4790, "\u00d0\u00b0\u00d0\u00bd": 4791, "\u0120Seb": 4792, "\u0120tabi": 4793, "\u0120job": 4794, "\u0120hari": 4795, "\u0120zam": 4796, "yc": 4797, "\u0120rin": 4798, "0000": 4799, "eft": 4800, "\u00ce\u00af\u00ce\u00b1\u00cf\u0124": 4801, "\u00cf\u0129\u00ce\u00b5\u00ce\u00b9": 4802, "\u0120ngh": 4803, "emu": 4804, "ondo": 4805, "\u0120Blu": 4806, "\u00ce\u013f": 4807, "\u0120resta": 4808, "iap": 4809, "ingiz": 4810, "\u0120hart": 4811, "\u0120N\u00c3\u00ab": 4812, "\u0120moment": 4813, "udio": 4814, "lk": 4815, "r\u00c3\u00ab": 4816, "\u00c3\u00b1os": 4817, "\u00c3\u012c": 4818, "\u0120rum": 4819, "\u0120baz": 4820, "\u0120nun": 4821, "\u0120\u00ce\u013f": 4822, "\u00c3\u00a9rt": 4823, "tivo": 4824, "\u00cf\u0128\u00ce\u00bf": 4825, "\u00ca\u00bbole": 4826, "\u0120Kas": 4827, "\u0120f\u00c3\u00a5r": 4828, "\u0120agr": 4829, "\u00e1\u00ba\u00a5p": 4830, "ist\u00c3\u00a4": 4831, "\u0120mens": 4832, "\u0120telefon": 4833, "akse": 4834, "\u00cf\u0125\u00ce\u00b9": 4835, "\u0120asp": 4836, "\u0120segu": 4837, "\u0120\u00ce\u00bc\u00ce\u0143": 4838, "\u0120Internet": 4839, "\u0120n\u00c3\u00b3": 4840, "xo": 4841, "\u0120edo": 4842, "ws": 4843, "ril": 4844, "31": 4845, "\u0120\u00d6": 4846, "\u0120Sep": 4847, "\u0120incl": 4848, "\u0120uns": 4849, "\u0120cum": 4850, "\u00e1\u00bb\u00ab": 4851, "cak": 4852, "\u0120Fre": 4853, "\u0120singaw": 4854, "\u0120ori": 4855, "\u0120jpg": 4856, "\u0120Dire": 4857, "ungs": 4858, "\u0120Sl": 4859, "iren": 4860, "\u0120tersebut": 4861, "ious": 4862, "\u00e1\u0125": 4863, "\u0120ov": 4864, "bul": 4865, "\u0120gam": 4866, "\u0120Pan": 4867, "\u0120s\u00e1\u00bb\u0133": 4868, "\u0120banyak": 4869, "\u0120Comp": 4870, "\u0120ener": 4871, "\u0120Camp": 4872, "\u0120progr": 4873, "\u0120\u00c4\u0133\u00e1\u00ba\u00a7u": 4874, "jad": 4875, "\u0120olarak": 4876, "\u0120faz": 4877, "\u0120ask": 4878, "isme": 4879, "\u0120iP": 4880, "\u00e2\u0122\u013e": 4881, "ides": 4882, "tige": 4883, "\u0120Rus": 4884, "\u0120Ny": 4885, "\u0120keh": 4886, "\u0120Mic": 4887, "\u0120jen": 4888, "PR": 4889, "\u0120Ga": 4890, "tima": 4891, "rer": 4892, "\u00e1\u00bb\u0139": 4893, "zea": 4894, "\u0120\u00cf\u0126\u00ce\u00b9\u00cf\u0124": 4895, "\u0120seh": 4896, "\u00c4\u00abb": 4897, "\u0120prev": 4898, "\u0120pang": 4899, "PS": 4900, "ocia": 4901, "\u0120peri": 4902, "\u0120minut": 4903, "\u0120syn": 4904, "atud": 4905, "\u0120yaz": 4906, "\u0120Mel": 4907, "\u0120lav": 4908, "\u0120neb": 4909, "niri": 4910, "\u0120apar": 4911, "\u0120\u00d8\u00b9": 4912, "\u00c9\u013bd\u00c9\u013b": 4913, "\u0120Us": 4914, "\u0120tay": 4915, "atori": 4916, "\u01202000": 4917, "anan": 4918, "enas": 4919, "ches": 4920, "\u0120bagi": 4921, "\u0120hulle": 4922, "ople": 4923, "\u00d1\u012e": 4924, "\u0120kamp": 4925, "\u0120hid": 4926, "OW": 4927, "\u00d5\u00a1\u00d5\u00b4": 4928, "\u0120hvor": 4929, "\u00e1\u00bb\u0129c": 4930, "\u00c4\u0135ia": 4931, "\u0120Ut": 4932, "\u0120sama": 4933, "ovi": 4934, "eken": 4935, "onesia": 4936, "\u0120memp": 4937, "\u0120selv": 4938, "\u00bb\u00bf": 4939, "\u0120princip": 4940, "\u0120\u00d8\u00aa": 4941, "\u0120hang": 4942, "ours": 4943, "UD": 4944, "\u00ce\u00a1": 4945, "\u0120halamang": 4946, "\u0120nj": 4947, "\u0120haq": 4948, "\u0120cada": 4949, "\u0120oder": 4950, "\u0120lai": 4951, "wala": 4952, "egu": 4953, "bang": 4954, "\u0120bid": 4955, "\u012098": 4956, "\u0120aktiv": 4957, "\u0120s\u00c3\u00bc": 4958, "dar": 4959, "\u00d0\u00b2": 4960, "\u0120siis": 4961, "\u0120teh": 4962, "\u0120aff": 4963, "ind\u00c9\u013bn": 4964, "\u0120egin": 4965, "uu": 4966, "\u0120ke\u00c3\u00a7": 4967, "was": 4968, "ems": 4969, "king": 4970, "rad": 4971, "ische": 4972, "\u0120\u00ce\u00b5\u00ce\u00bd": 4973, "\u0120Tor": 4974, "ced": 4975, "\u0120dop": 4976, "\u0120Pra": 4977, "\u0120kommer": 4978, "\u0120><": 4979, "\u0120seks": 4980, "\u0120obj": 4981, "asih": 4982, "\u00c3\u0143as": 4983, "\u0120zap": 4984, "\u0120todos": 4985, "\u0120send": 4986, "\u00c3\u0142o": 4987, "\u0120volt": 4988, "estiv": 4989, "lara": 4990, "\u0120Tar": 4991, "\u0120hun": 4992, "\u0120mobil": 4993, "\u0120n\u00c4\u013d": 4994, "\u0120uw": 4995, "rt": 4996, "\u0120bien": 4997, "\u0120she": 4998, "\u0120rest": 4999, "Part": 5000, "\u0120Rob": 5001, "imp": 5002, "rik": 5003, "\u0120\u00c3\u013c": 5004, "\u0120hos": 5005, "\u0120make": 5006, "uki": 5007, "\u0120Bus": 5008, "chod": 5009, "\u0120shk": 5010, "\u00ce\u00bc\u00ce\u00ac": 5011, "\u0120uy": 5012, "ness": 5013, "\u0120model": 5014, "illi": 5015, "\u0120kra": 5016, "\u0120dost": 5017, "sel": 5018, "\u0120apro": 5019, "inar": 5020, "site": 5021, "irl": 5022, "\u0120mo\u00c5\u00bc": 5023, "\u0120anche": 5024, "die": 5025, "\u00e1\u00ba\u00a3o": 5026, "kaz": 5027, "emm": 5028, "\u00c3\u0122": 5029, "\u0120naar": 5030, "ST": 5031, "\u00e1\u00ba\u00bfu": 5032, "\u0120Windows": 5033, "\u0120mum": 5034, "\u0120abs": 5035, "\u00d8\u00ac": 5036, "\u0120Van": 5037, "\u0120sent": 5038, "ful": 5039, "\u0120\u00d5\u00af": 5040, "adem": 5041, "\u0120Cam": 5042, "\u0120design": 5043, "avor": 5044, "\u00c4\u00b1q": 5045, "j\u00e1\u00bb\u012f": 5046, "\u0120k\u00c4\u0135ia": 5047, "lic": 5048, "pas": 5049, "\u0120kj": 5050, "apt": 5051, "\u0120nab": 5052, "--------": 5053, "\u0120final": 5054, "zet": 5055, "),": 5056, "\u0120elec": 5057, "\u0120Wa": 5058, "\u00e1\u00bb\u00a5c": 5059, "\u0120\u00c3\u00aent\u00c3\u00a2lniri": 5060, "ilan": 5061, "\u0120ola": 5062, "\u00c3\u00b8d": 5063, "dat": 5064, "\u0120jako": 5065, "\u00c3\u00aam": 5066, "\u0120Public": 5067, "bon": 5068, "\u0120use": 5069, "\u00cf\u0126\u00ce\u00af": 5070, "\u0120who": 5071, "\u012069": 5072, "ited": 5073, "\u0120kind": 5074, "\u0120casa": 5075, "\u00c3\u00a2nd": 5076, "ikat": 5077, "bra": 5078, "\u0120Pen": 5079, "\u0120kapa": 5080, "\u0120hiki": 5081, "\u0120fak": 5082, "u\u00c5\u0141": 5083, "iei": 5084, "r\u00c3\u00a5": 5085, "iller": 5086, "iska": 5087, "\u0120b\u00e1\u00bb\u012d": 5088, "olt": 5089, "\u0120maz": 5090, "\u00c3\u00b6g": 5091, "\u0120cost": 5092, "\u0120SH": 5093, "\u0120individ": 5094, "\u0120City": 5095, "\u0120s\u00e1\u00bb\u00b1": 5096, "\u0120tav": 5097, "\u0120Biz": 5098, "roj": 5099, "\u0120m\u00c3\u00a1is": 5100, "\u0120\u00d8\u00a3": 5101, "\u0120medi": 5102, "\u0120kho": 5103, "eck": 5104, "ror": 5105, "\u00c3\u00a7o": 5106, "elm": 5107, "\u0120sudah": 5108, "\u00d5\u00b8\u00d6\u0124\u00d5\u00a9\u00d5\u00b5": 5109, "\u0120Kam": 5110, "IZ": 5111, "\u0120Esp": 5112, "\u0120\\/": 5113, "\u00d5\u00be": 5114, "\u0120viz": 5115, "\u0120LA": 5116, "rif": 5117, "like": 5118, "\u0120bro": 5119, "\u00c5\u0140": 5120, "yun": 5121, "\u0120ch\u00e1\u00bb\u012b": 5122, "\u0120Mai": 5123, "\u00d8\u00a7\u00d8\u00aa": 5124, "taj": 5125, "\u0120fu": 5126, "\u0120Jeg": 5127, "\u0120what": 5128, "agen": 5129, "\u0120\u00ce\u0143\u00ce\u00bd\u00ce\u00b1": 5130, "ety": 5131, "\u0120Bor": 5132, "elles": 5133, "ampai": 5134, "\u0120perc": 5135, "\u0120maa": 5136, "akin": 5137, "\u0120n\u00c4\u0125m": 5138, "OB": 5139, "\u0120tij": 5140, "\u00c4\u00b1\u00c4\u0141": 5141, "\u0120hum": 5142, "\u00e1\u00bb\u012dch": 5143, "\u0120SM": 5144, "\u0120nh\u00e1\u00ba\u00a5t": 5145, "\u0120other": 5146, "\u0120\u00d5\u00b8": 5147, "oe": 5148, "\u00c3\u00a8ncia": 5149, "skie": 5150, "\u00c4\u00b1b": 5151, "\u0120fat": 5152, "m\u00c9\u013b": 5153, "\u00c3\u00a1ra": 5154, "\u0120AT": 5155, "uses": 5156, "okat": 5157, "etar": 5158, "\u0120haz": 5159, "\u0120Ban": 5160, "\u0120h\u00c5\u012f": 5161, "\u0120Kal": 5162, "sl": 5163, "\u0120teng": 5164, "icht": 5165, "\u00ca\u00bbia": 5166, "\u012088": 5167, "\u0120Fer": 5168, "\u0120pob": 5169, "\u0120Mac": 5170, "\u0120Fe": 5171, "\u0120Foto": 5172, "AF": 5173, "\u0120paano": 5174, "\u0120Best": 5175, "\u0120ina": 5176, "\u0120\u00d5\u00a5": 5177, "\u00c3\u00bang": 5178, "as\u00c4\u00b1nda": 5179, "wah": 5180, "itori": 5181, "\u0120t\u00e1\u00bb\u012fn": 5182, "\u00c3\u00b3k": 5183, "\u0120refer": 5184, "\u0120there": 5185, "otos": 5186, "celona": 5187, "\u0120Oct": 5188, "\u0120Pag": 5189, "\u0120arr": 5190, "ingan": 5191, "\u0120Gen": 5192, "\u0120Resp": 5193, "elsen": 5194, "\u0120d\u00e1\u00bb\u00a5ng": 5195, "\u0120need": 5196, "\u00c3\u00bcnk": 5197, "vy": 5198, "\u0120shqip": 5199, "ipo": 5200, "m\u00c9\u013bk": 5201, "itud": 5202, "\u0120verd": 5203, "\u0120tlh": 5204, "\u0120pr\u00c3\u0143": 5205, "\u0120kle": 5206, "\u0120China": 5207, "wal": 5208, "alau": 5209, "\u0120auto": 5210, "\u0120werden": 5211, "uo": 5212, "enza": 5213, "ukt": 5214, "elas": 5215, "\u00ce\u00b1\u00cf\u0125": 5216, "\u0120\u00ce\u00b5\u00ce\u00ba": 5217, "\u00ce\u00b9\u00ce\u00ba\u00ce\u00ae": 5218, "\u0120400": 5219, "\u0120hi\u00e1\u00bb\u0129n": 5220, "\u00c3\u00bb": 5221, "\u0120Los": 5222, "cc": 5223, "lak": 5224, "\u0120nd\u00c3\u00abr": 5225, "\u00c3\u00a1ri": 5226, "utas": 5227, "\u0120Mul": 5228, "\u00e1\u00bb\u0137i": 5229, "ustri": 5230, "\u0120ji": 5231, "olar": 5232, "isin": 5233, "\u0120Tw": 5234, "rot": 5235, "l\u00c3\u00a1": 5236, "hold": 5237, "\u0120lle": 5238, "\u0120ng\u00c3\u0142y": 5239, "\u0120120": 5240, "\u0120Cont": 5241, "\u0120\u00e6": 5242, "abor": 5243, "\u0120\u00c4\u0133\u00e1\u00bb\u013bng": 5244, "\u0120u00": 5245, "\u0120\u00c2\u00ae": 5246, "arios": 5247, "maq": 5248, "\u012068": 5249, "\u00ca\u00bbana": 5250, "\u0120xu": 5251, "\u0120vec": 5252, "\u0120Esc": 5253, "uca": 5254, "\u0120proces": 5255, "\u0120Ty": 5256, "ikut": 5257, "egen": 5258, "TER": 5259, "\u0120prot": 5260, "\u0120\u00c2\u00a9": 5261, "\u0120Mos": 5262, "UK": 5263, "\u0120sav": 5264, "istas": 5265, "\u0120nr": 5266, "\u0120seperti": 5267, "usti": 5268, "\u0120hah": 5269, "\u0120naa": 5270, "\u0120\u00c3\u00a2": 5271, "riend": 5272, "\u0120lui": 5273, "\u0120\u00d1\u0123": 5274, "\u0120vas": 5275, "\u0120bev": 5276, "\u00c3\u00a1nh": 5277, "ezo": 5278, "yer": 5279, "\u0120\u00c3\u0139": 5280, "\u00d8\u00a7\u00d9\u0128": 5281, "\u0120gol": 5282, "bes": 5283, "\u0120\u00e2\u0122\u00ba": 5284, "\u0120dette": 5285, "\u00c3\u00aancia": 5286, "\u0120yake": 5287, "\u0120pela": 5288, "imm": 5289, "\u0120bill": 5290, "\u0120sens": 5291, "\u00ce\u00bf\u00ce\u00b9": 5292, "\u0120Ze": 5293, "\u00c3\u00a2u": 5294, "\u00c6\u00b0\u00e1\u00bb\u00a3ng": 5295, "\u0120pov": 5296, "eket": 5297, "\u00c3\u00b8n": 5298, "\u0120mov": 5299, "used": 5300, "\u00ce\u00bc\u00cf\u012e": 5301, "\u0120long": 5302, "\u0120pele": 5303, "\u0120d\u00c3\u00bc\u00c5\u0141": 5304, "\u00e1\u00bb\u0127n": 5305, "istan": 5306, "\u00ce\u00ac\u00cf\u0123": 5307, "\u00c3\u00bcks": 5308, "rd": 5309, "kem": 5310, "\u0120Sant": 5311, "\u0120\u00ce\u00b1\u00ce\u00bd\u00ce\u00b1": 5312, "\u0120arte": 5313, "sk\u00c3\u00a9": 5314, "\u0120Inn": 5315, "\u0120help": 5316, "\u012078": 5317, "\u0120Ez": 5318, "risti": 5319, "araq": 5320, "fl": 5321, "\u00e1\u00ba\u00afc": 5322, "ips": 5323, "\u0120masa": 5324, "\u0120bonus": 5325, "\u0120gjith": 5326, "\u0120defin": 5327, "\u0120vida": 5328, "uras": 5329, "\u0120sonra": 5330, "unya": 5331, "\u0120premi": 5332, "\u0120paras": 5333, "\u0120nod": 5334, "\u0120\u00c3\u00a7\u00c4\u00b1": 5335, "\u0120some": 5336, "\u0120mie": 5337, "\u0120arbe": 5338, "icial": 5339, "\u0120\u00ce\u00bf\u00ce\u00b9": 5340, "\u0120t\u00c5\u00a1": 5341, "etsa": 5342, "\u0120>>": 5343, "\u0120Sek": 5344, "\u0120mata": 5345, "iger": 5346, "\u0120\u00ce\u00b5\u00cf\u0122\u00ce\u00b9": 5347, "\u0120\u00c3\u0126": 5348, "das": 5349, "\u0120pemb": 5350, "aden": 5351, "\u0120html": 5352, "\u0120poc": 5353, "egor": 5354, "ements": 5355, "\u0120\u00c2\u00b9": 5356, "gio": 5357, "sat": 5358, "\u0120i\u00c4\u0123": 5359, "\u0120\u00c2\u00b1": 5360, "\u0120sempre": 5361, "\u0120pia": 5362, "\u0120Sing": 5363, "\u0120dip": 5364, "\u0120\u00ce\u00b9": 5365, "\u0120Super": 5366, "\u0120denne": 5367, "73": 5368, "\u0120TH": 5369, "hand": 5370, "dal": 5371, "\u0120Og": 5372, "arak": 5373, "\u0120Ho\u00ca\u00bb": 5374, "\u0120m\u00c3\u0143": 5375, "obi": 5376, "cat": 5377, "\u0120zbek": 5378, "\u00e1\u00ba\u00b7c": 5379, "hir": 5380, "\u0120\u00c2\u00bd": 5381, "\u0120t\u00c4\u0123": 5382, "icz": 5383, "isch": 5384, "\u0120ach": 5385, "bud": 5386, "\u0120voc": 5387, "zak": 5388, "\u0120iacute": 5389, "ivyo": 5390, "\u0120duke": 5391, "rup": 5392, "\u0120Ya": 5393, "\u00ce\u00b9\u00ce\u00ba\u00ce\u00ac": 5394, "\u00c3\u00bat": 5395, "\u0120\u00ef\u00bb\u00bf": 5396, "\u00c3\u00a4k": 5397, "arbe": 5398, "\u0120xe": 5399, "al\u00c4\u00b1\u00c5\u0141": 5400, "\u0120Afrika": 5401, "\u0120Fin": 5402, "\u00d9\u0132": 5403, "\u0120lev": 5404, "czy": 5405, "\u00e1\u00b9\u00a3e": 5406, "kap": 5407, "\u0120stor": 5408, "\u0120deur": 5409, "\u0120pic": 5410, "\u0120strat": 5411, "\u0120casino": 5412, "\u0120p\u00c5\u013bed": 5413, "\u0120Bol": 5414, "v\u00c4\u0135": 5415, "icion": 5416, "\u0120energ": 5417, "\u012066": 5418, "vir": 5419, "\u0120PC": 5420, "gn": 5421, "\u0120vast": 5422, "\u0120\u00c3\u0127": 5423, "\u0120vi\u00e1\u00bb\u0129c": 5424, "\u0120v\u00c3\u00a1l": 5425, "\u0120ton": 5426, "UB": 5427, "GB": 5428, "\u0120fig": 5429, "\u01202004": 5430, "\u0120download": 5431, "unun": 5432, "\u0120boleh": 5433, "\u0120ment": 5434, "\u0120\u00cf\u0127\u00cf\u0122": 5435, "\u0120ph\u00e1\u00ba\u00a3i": 5436, "\u0120Bay": 5437, "osten": 5438, "utan": 5439, "nit": 5440, "\u0120tat": 5441, "\u0120cin": 5442, "\u0120\u00ce\u00ba\u00ce\u00ac": 5443, "\u0120mont": 5444, "\u0120th\u00c3\u0142nh": 5445, "\u0120experi": 5446, "\u0120than": 5447, "\u0120ala": 5448, "ingga": 5449, "\u0120If": 5450, "\u0120ba\u00c4\u0141": 5451, "\u00e4\u00b8": 5452, "etas": 5453, "elli": 5454, "\u0120sangat": 5455, "\u0120IA": 5456, "\u0120zaman": 5457, "bara": 5458, "\u0120s\u00c3\u00b3": 5459, "rec": 5460, "ipp": 5461, "\u0120kart": 5462, "nym": 5463, "\u0120tahun": 5464, "\u00ce\u00bc\u00cf\u0122": 5465, "98": 5466, "\u0120live": 5467, "omas": 5468, "\u0120rah": 5469, "\u0120even": 5470, "yb": 5471, "\u0120ric": 5472, "ities": 5473, "72": 5474, "\u0120gba": 5475, "\u0120EL": 5476, "\u0120show": 5477, "din": 5478, "shme": 5479, "\u0120Gener": 5480, "\u0120LED": 5481, "\u0120\u00c3\u00bcber": 5482, "unde": 5483, "\u0120interes": 5484, "\u0120\u00ce\u00be": 5485, "wang": 5486, "had": 5487, "\u0120aby": 5488, "\u0120Ant": 5489, "58": 5490, "\u0120m\u00c3\u00a1r": 5491, "\u0120ever": 5492, "iril": 5493, "\u0120\u00c3\u00a7ok": 5494, "\u0120th\u00c3\u00ac": 5495, "\u0120requ": 5496, "\u0120pret": 5497, "\u0120saj": 5498, "\u00c4\u012f\u00c3\u0143": 5499, "mp": 5500, "\u0120seus": 5501, "\u0120home": 5502, "\u00e1\u00ba\u00b1ng": 5503, "\u0120vaz": 5504, "n\u00c3\u00a9ho": 5505, "presa": 5506, "tan": 5507, "46": 5508, "\u0120Inform": 5509, "med": 5510, "\u0120link": 5511, "\u00d0\u00b0\u00d1\u0122": 5512, "\u0120h\u00e1\u00bb\u012fc": 5513, "\u0120been": 5514, "\u0120sebel": 5515, "alik": 5516, "sch": 5517, "\u0120mid": 5518, "ivel": 5519, "nou": 5520, "\u0120bakeng": 5521, "\u0120ost": 5522, "\u0120Wi": 5523, "gam": 5524, "rak": 5525, "\u0120Pla": 5526, "ambo": 5527, "UP": 5528, "\u0120p\u00c3\u00babl": 5529, "\u0120//": 5530, "\u00c5\u00bcy": 5531, "\u0120mumkin": 5532, "udz": 5533, "fun": 5534, "\u0120kontr": 5535, "\u00c3\u00a1ban": 5536, "\u0120euro": 5537, "\u00c6\u00a1i": 5538, "\u0120tud": 5539, "\u0120Wat": 5540, "ossa": 5541, "\u0120muk": 5542, "\u0120now": 5543, "j\u00c4\u013b": 5544, "\u00d0\u00b7": 5545, "\u0120czy": 5546, "\u00d5\u00b8\u00d6\u0124\u00d5\u00b6": 5547, "Ad": 5548, "etti": 5549, "\u0120Neg": 5550, "mos": 5551, "\u0120hur": 5552, "\u0120Sar": 5553, "\u0120\u00e2\u0128\u0134": 5554, "\u00c3\u00a1sa": 5555, "\u0120bank": 5556, "\u0120\u00e2\u0122\u0130": 5557, "\u0120wil": 5558, "bit": 5559, "ulan": 5560, "erea": 5561, "\u0120poh": 5562, "\u0120mme": 5563, "TC": 5564, "idente": 5565, "\u0120how": 5566, "WA": 5567, "zenia": 5568, "ican": 5569, "\u00c3\u00b3p": 5570, "tac": 5571, "\u0120Rad": 5572, "\u0120sont": 5573, "kas": 5574, "\u0120constru": 5575, "\u0120kekahi": 5576, "\u0120watu": 5577, "akukan": 5578, "l\u00c3\u00bc": 5579, "\u0120Gratis": 5580, "hed": 5581, "\u0120artik": 5582, "ikip": 5583, "\u0120Han": 5584, "\u0120Hab": 5585, "adingin": 5586, "ieg": 5587, "enz": 5588, "\u0120aiadingin": 5589, "ivat": 5590, "\u0120nek": 5591, "tere": 5592, "\u0120tart": 5593, "bre": 5594, "\u0120jaar": 5595, "atsi": 5596, "\u00cf\u0125\u00cf\u0126": 5597, "\u0120were": 5598, "\u0120RE": 5599, "\u00c3\u00b6tt": 5600, "\u0120k\u00c3\u00abt\u00c3\u00ab": 5601, "\\\"": 5602, "\u0120insp": 5603, "klad": 5604, "\u0120gbogbo": 5605, "\u0120mac": 5606, "\u0120werk": 5607, "\u0120NA": 5608, "\u00e1\u00ba\u00a1o": 5609, "\u0120anmeld": 5610, "\u0120text": 5611, "\u0120desde": 5612, "\u0120Vir": 5613, "\u0120Nav": 5614, "\u00c3\u0134": 5615, "\u0120info": 5616, "\u0120Lis": 5617, "oper": 5618, "ohet": 5619, "\u0120jur": 5620, "\u0120Bre": 5621, "avad": 5622, "icip": 5623, "\u0120Aqu": 5624, "\u0120\u00ef\u00bc": 5625, "\u0120bok": 5626, "\u00c5\u00bei": 5627, "\u0120day": 5628, "abo": 5629, "\u0120rol": 5630, "dom": 5631, "dim": 5632, "\u0120pend": 5633, "\u00c5\u0128u": 5634, "nt": 5635, "\u0120hac": 5636, "\u0120Ju": 5637, "\u0120Ros": 5638, "\u0120chuy": 5639, "\u0120Ay": 5640, "\u0120Mari": 5641, "hoz": 5642, "cr": 5643, "\u0120luc": 5644, "asy": 5645, "\u0120utiliz": 5646, "\u0120sj": 5647, "\u00c3\u00a1st": 5648, "\u00c3\u00a1j": 5649, "\u00cf\u0126\u00ce\u00b9\u00ce\u00ba\u00cf\u012e": 5650, "\u0120past": 5651, "\u00e1\u00ba\u00b9r": 5652, "atura": 5653, "\u0120kan\u00c3\u00ab": 5654, "\u0120Ram": 5655, "\u00c3\u00b8re": 5656, "gra": 5657, "il\u00e1\u00ba\u00b9": 5658, "\u0120dor": 5659, "\u0120\u00d0\u00bf": 5660, "\u0120amer": 5661, "\u0120tempo": 5662, "\u0120olm": 5663, "m\u00c3\u00ab": 5664, "\u0120Sept": 5665, "****": 5666, "\u0120Dem": 5667, "rz": 5668, "\u00c3\u013c": 5669, "42": 5670, "\u0120Mir": 5671, "ninger": 5672, "\u0120andre": 5673, "\u0120\u00c2\u00b5": 5674, "\u00c4\u0135s": 5675, "usan": 5676, "\u00c5\u00be\u00c3\u0143": 5677, "\u0120qay": 5678, "alq": 5679, "\u0120okt": 5680, "\u00e0\u00a6": 5681, "\u00d5\u00a1\u00d5\u00bf": 5682, "not": 5683, "\u0120perso": 5684, "\u0120Sub": 5685, "\u0120gebru": 5686, "\u0120sev": 5687, "\u0120Bud": 5688, "\u0120Up": 5689, "\u0120Out": 5690, "\u0120j\u00c3\u00a4r": 5691, "\u0120respons": 5692, "\u012096": 5693, "\u0120play": 5694, "\u0120\u00c3\u0132": 5695, "\u0120finn": 5696, "\u00ce\u00bb\u00ce\u00ac": 5697, "\u0120s\u00e1\u00bb\u012f": 5698, "andi": 5699, "\u0120prime": 5700, "ov\u00c3\u00bd": 5701, "\u0120conv": 5702, "\u0120Download": 5703, "\u0120m\u00e1\u00bb\u012f": 5704, "\u0120250": 5705, "\u0120April": 5706, "\u0120hul": 5707, "\u0120\u00d0\u00a1": 5708, "\u0120poder": 5709, "\u0120Kol": 5710, "zz": 5711, "\u0120Tu": 5712, "\u00c3\u00a1o": 5713, "\u0120apo": 5714, "43": 5715, "orth": 5716, "\u0120Kap": 5717, "\u0120worden": 5718, "abb": 5719, "\u0120Barcelona": 5720, "abar": 5721, "umo": 5722, "xy": 5723, "\u0120ise": 5724, "cess": 5725, "\u0120ey": 5726, "\u0120ken": 5727, "\u00c3\u00a9se": 5728, "\u0120nim": 5729, "ingo": 5730, "vert": 5731, "\u0120l\u00c4\u00abdz": 5732, "\u0120Blog": 5733, "ahu": 5734, "UA": 5735, "daj": 5736, "\u0120iki": 5737, "\u0120Latv": 5738, "\u0120p\u00c3\u00a4\u00c3\u00a4": 5739, "\u0120nej": 5740, "\u0120ID": 5741, "lio": 5742, "\u0120kata": 5743, "\u012089": 5744, "\u00e1\u00bb\u0125m": 5745, "rom": 5746, "\u0120tie": 5747, "\u0120el\u00c5\u0133": 5748, "\u0120muh": 5749, "\u00c4\u012fky": 5750, "burg": 5751, "EA": 5752, "\u0120led": 5753, "\u012079": 5754, "\u0120\u00c3\u00a7ox": 5755, "\u0120ged": 5756, "uno": 5757, "\u00e2\u0122\u0136": 5758, "ilis": 5759, "\u0120view": 5760, "erste": 5761, "\u0120MA": 5762, "redit": 5763, "{\"": 5764, "\u0120kuch": 5765, "qt": 5766, "\u0120dute": 5767, "\u00c4\u00abba": 5768, "\u0120nah": 5769, "\u0120\u00c3\u00a9v": 5770, "\u0120Bea": 5771, "ason": 5772, "\u0120NEWPart": 5773, "\u0120IB_": 5774, "\u0120pert": 5775, "\u0120\u00e2\u0122\u012d": 5776, "\u0120zak": 5777, "\u0120ald": 5778, "\u0120investi": 5779, "ovo": 5780, "\u00c4\u0123v": 5781, "tiva": 5782, "\u00e2\u0122\u013b": 5783, "\u0120Kor": 5784, "\u0120class": 5785, "\u0120deze": 5786, "arta": 5787, "lige": 5788, "hone": 5789, "\u0120Hor": 5790, "uj\u00c4\u0127": 5791, "\u0120lot": 5792, "\u0120Gra": 5793, "\u0120p\u00c3\u00b5": 5794, "\u0120Loc": 5795, "\u0120nous": 5796, "\u0120PL": 5797, "\u0120mange": 5798, "lep": 5799, "\u00d5\u00bd": 5800, "________": 5801, "mark": 5802, "\u00c4\u00bcu": 5803, "\u0120Lond": 5804, "jud": 5805, "act": 5806, "\u0120Pop": 5807, "\u0120pol\u00c3\u0143": 5808, "koa": 5809, "aliza": 5810, "\u0120find": 5811, "\u0120n\u00c6\u00b0\u00e1\u00bb\u013dc": 5812, "\u0120Som": 5813, "pa\u00c3\u00b1": 5814, "\u0120kre": 5815, "\u0120fit": 5816, "\u00ca\u00bbike": 5817, "\u0120zn": 5818, "amine": 5819, "\u0120rek": 5820, "tres": 5821, "agan": 5822, "\u0120Ven": 5823, "ikuwa": 5824, "\u0120veel": 5825, "\u00ce\u00bc\u00ce\u00b1\u00cf\u0126\u00ce\u00b1": 5826, "\u0120ub": 5827, "\u0120mere": 5828, "\u0120mark": 5829, "\u0120bene": 5830, "\u0120total": 5831, "\u0120Sin": 5832, "ubwa": 5833, "\u0120Tim": 5834, "jor": 5835, "200": 5836, "\u0120qilish": 5837, "\u0120ple": 5838, "\u0120gaan": 5839, "\u0120Indonesia": 5840, "\u00c3\u0136": 5841, "ordan": 5842, "ned": 5843, "\u0120ms": 5844, "des": 5845, "\u0120Dat": 5846, "eling": 5847, "\u0120wir": 5848, "\u0120sug": 5849, "\u0120CD": 5850, "\u0120Cast": 5851, "\u00ce\u00bb\u00ce\u00bf\u00ce\u00b3": 5852, "\u0120\u00c3\u00b4": 5853, "\u0120senti": 5854, "\u0120system": 5855, "udu": 5856, "\u0120lub": 5857, "\u0120gratu": 5858, "\u00c5\u00ba": 5859, "\u0120motor": 5860, "\u0120d\u00c3\u00bc": 5861, "alde": 5862, "\u0120kwamba": 5863, "zyst": 5864, "tib": 5865, "\u0120\u00c3\u00aa": 5866, "\u0120\">": 5867, "\u0120wakati": 5868, "\u00e1\u00ba\u00aft": 5869, "\u0120mog": 5870, "\u0120John": 5871, "\u0120\u00c2\u00a1\u00c2": 5872, "egori": 5873, "\u0120iden": 5874, "\u00c9\u013bti": 5875, "\u00ce\u00bb\u00ce\u00bb\u00ce\u00ac": 5876, "etse": 5877, "\u0120teen": 5878, "son": 5879, "fen": 5880, "asz": 5881, "\u0120kis": 5882, "\u0120dra": 5883, "\u0120Ci": 5884, "\u0120AP": 5885, "\u0120altern": 5886, "bur": 5887, "\u0120ora": 5888, "\u00d9\u012c\u00d8\u00a9": 5889, "cies": 5890, "tific": 5891, "\u0120tep": 5892, "\u0120Iz": 5893, "\u0120naz": 5894, "\u00c3\u0124": 5895, "47": 5896, "\u00e1\u00ba\u00a1t": 5897, "\u0120\u00c3\u00a7al\u00c4\u00b1\u00c5\u0141": 5898, "\u0120alk": 5899, "dib": 5900, "\u0120WWW": 5901, "\u0120moh": 5902, "ison": 5903, "yy": 5904, "liga": 5905, "angu": 5906, "odu": 5907, "\u0120mant": 5908, "\u0120\u00c3\u00bal": 5909, "\u0120chat": 5910, "ress": 5911, "\u0120ace": 5912, "\u00c5\u013be": 5913, "\u00c3\u00b6m": 5914, "BA": 5915, "ibli": 5916, "aler": 5917, "\u0120Mun": 5918, "\u0120n\u00c9\u013b": 5919, "c\u00c4\u00b1": 5920, "ombre": 5921, "hang": 5922, "eksi": 5923, "reb": 5924, "\u0120gli": 5925, "\u0120big": 5926, "\u0120face": 5927, "\u0120noi": 5928, "\u00c4\u00b1m\u00c4\u00b1z": 5929, "\u0120ti\u00e1\u00ba\u00bf": 5930, "\u0120n\u00c3\u00a5r": 5931, "\u0120insan": 5932, "ecek": 5933, "\u0120Nie": 5934, "\u0120sot": 5935, "\u0120ama": 5936, "olla": 5937, "\u0120West": 5938, "RO": 5939, "\u0120maka": 5940, "\u0120jam": 5941, "\u00e1\u00bb\u00a3p": 5942, "uso": 5943, "\u0120intern": 5944, "\u00e1\u00bb\u00a9ng": 5945, "\u00d5\u00a1\u00d5\u00bd": 5946, "\u00d0\u00b0\u00d1\u0124": 5947, "\u0120''": 5948, "\u0120Das": 5949, "\u0120Bet": 5950, "\u00c3\u00a5ng": 5951, "alen": 5952, "\u0120into": 5953, "\u0120berb": 5954, "\u0120gag": 5955, "ic\u00c4\u0125": 5956, "\u0120sell": 5957, "iona": 5958, "\u0120Kir": 5959, "\u0120lehet": 5960, "\u0120solo": 5961, "\u0120hen": 5962, "\u0120Febru": 5963, "uren": 5964, "\u0120baik": 5965, "\u0120semua": 5966, "zon": 5967, "\u0120seri": 5968, "\u00e1\u00ba\u00a9m": 5969, "round": 5970, "kuu": 5971, "\u0120Mw": 5972, "vor": 5973, "\u0120propos": 5974, "\u0120ner": 5975, "rob": 5976, "\u0120kann": 5977, "\u0120\u00cf\u012e\u00cf\u0126\u00ce\u00b9": 5978, "\u00ce\u0143\u00cf\u0123": 5979, "\u0120zar": 5980, "tori": 5981, "\u0120CON": 5982, "gat": 5983, "um\u00c4\u0123": 5984, "\u0120Hand": 5985, "\u0120k\u00c3\u00b6n": 5986, "\u0120obs": 5987, "\u0120\u00cf\u0125\u00ce\u00b1\u00cf\u0124": 5988, "\u0120secara": 5989, "\u0120mk": 5990, "unge": 5991, "itse": 5992, "\u012087": 5993, "\u0120\u00ce\u00b5\u00ce\u00af": 5994, "\u00c8\u013dii": 5995, "alth": 5996, "\u0120Dur": 5997, "\u0120dou": 5998, "\u0120kuko": 5999, "yal": 6000, "\u0120imm": 6001, "evo": 6002, "\u00ce\u00bc\u00ce\u00b7": 6003, "unto": 6004, "\u0120kali": 6005, "\u0120Jes": 6006, "etes": 6007, "\u0120yet": 6008, "\u00c3\u00a4v": 6009, "ionale": 6010, "\u0120kish": 6011, "eles": 6012, "asc": 6013, "erb": 6014, "\u00c4\u012fka": 6015, "dur": 6016, "\u0120wai": 6017, "\u00ce\u00ba\u00ce\u00bf": 6018, "\u0120Ges": 6019, "\u00d5\u00b6\u00d5\u00a5\u00d6\u0122": 6020, "\u00d8\u00a7\u00d8\u00b1": 6021, "\u00ce\u00ba\u00cf\u012e": 6022, "\u0120line": 6023, "\u0120s\u00e1\u00ba\u00a3n": 6024, "\u0120batho": 6025, "undo": 6026, "\u0120\u00c2\u00bb.": 6027, "\u0120band": 6028, "\u0120Mit": 6029, "\u0120zab": 6030, "\u0120\u00c2\u00a3\u00c2\u00ac": 6031, "\u0120sz\u00c3\u00a1m": 6032, "\u00c3\u00b6y": 6033, "\u0120komun": 6034, "\u0120CC": 6035, "\u0120kak": 6036, "ols": 6037, "\u0120Cer": 6038, "\u0120Fo": 6039, "\u00cf\u0122\u00ce\u00b1": 6040, "\u00cf\u0126\u00ce\u00b5\u00cf\u0124": 6041, "\u0120Hi": 6042, "\u0120\u00d8\u00a7\u00d9\u0126\u00d9\u0127": 6043, "St": 6044, "\u0120s\u00c3\u00b5": 6045, "\u0120Sand": 6046, "eln": 6047, "ojn\u00c3\u00ab": 6048, "oft": 6049, "\u0120Ali": 6050, "oran": 6051, "\u00cf\u0126\u00ce\u00b9\u00ce\u00ba\u00ce\u00ae": 6052, "\u0120kuj": 6053, "larini": 6054, "\u0120hj": 6055, "\u0120aux": 6056, "\u0120kval": 6057, "\u0120WA": 6058, "\u00c3\u00a1ln\u00c3\u0143": 6059, "\u00d9\u0134": 6060, "\u00c3\u00b3m": 6061, "\u0120Mont": 6062, "\u00c4\u012fi": 6063, "\u0120Var": 6064, "vent": 6065, "isia": 6066, "icio": 6067, "alle": 6068, "\u0120foll": 6069, "zem": 6070, "\u00e1\u00ba\u00a5n": 6071, "hy": 6072, "tain": 6073, "j\u00c4\u0123": 6074, "j\u00c3\u00ba": 6075, "angg": 6076, "\u01202003": 6077, "un\u00c8\u013d": 6078, "\u00e1\u00bb\u013bc": 6079, "\u0120idi": 6080, "\u0120necess": 6081, "\u0120Bes": 6082, "\u0120Park": 6083, "\u0120t\u00c3\u00b4i": 6084, "\u00cf\u0125\u00ce\u00bf": 6085, "\u0120Max": 6086, "\u0120g\u00c3\u00bc": 6087, "\u0120Star": 6088, "obo": 6089, "\u0120etc": 6090, "ikali": 6091, "\u0120ch\u00c3\u0143nh": 6092, "\u00e1\u00ba\u00abn": 6093, "\u00d0\u00b1": 6094, "overn": 6095, "\u00c5\u0128a": 6096, "tte": 6097, "\u0120would": 6098, "\u0120cit": 6099, "\u00c4\u013bd": 6100, "\u0120kin": 6101, "\u0120Shqip": 6102, "\u012097": 6103, "\u0120ona": 6104, "\u0120mult": 6105, "\u00e1\u00b9\u00a2": 6106, "\u00ce\u00bb\u00ce\u0143": 6107, "uny": 6108, "SA": 6109, "\u0120high": 6110, "uge": 6111, "rou": 6112, "\u0120Tre": 6113, "\u0120Euro": 6114, "\u0120tw": 6115, "\u00d5\u00b4": 6116, "\u0120\u00c2\u00bc": 6117, "\u0120nebo": 6118, "TI": 6119, "dh": 6120, "\u0120t\u00c3\u00b5": 6121, "inst": 6122, "\u0120first": 6123, "\u00c3\u00a1rio": 6124, "\u0120bude": 6125, "\u0120Vers": 6126, "\u0120control": 6127, "\u0120mash": 6128, "anzania": 6129, "EO": 6130, "icar": 6131, "\u0120fakt": 6132, "\u0120\u00ca\u00bba": 6133, "\u0120vya": 6134, "\u0120Sab": 6135, "oten": 6136, "\u0120special": 6137, "etik": 6138, "\u00c5\u0133k": 6139, "\u0120good": 6140, "\u0120nh\u00c3\u00a2n": 6141, "play": 6142, "\u0120people": 6143, "\u00c3\u00a4\u00c3\u00a4r": 6144, "\u0120berk": 6145, "\u0120SA": 6146, "\u0120Ah": 6147, "\u0120ajo": 6148, "endele": 6149, "\u0120anos": 6150, "\u0120last": 6151, "\u0120gad": 6152, "iros": 6153, "\u0120Film": 6154, "\u0120Wo": 6155, "\u0120tout": 6156, "tuar": 6157, "\u0120Plus": 6158, "\u0120sept": 6159, "dig": 6160, "\u0120\u00e2\u0126": 6161, "\u0120News": 6162, "\u0120fan": 6163, "\u0120K\u00c4\u012f": 6164, "\u0120siy": 6165, "\u0120Mol": 6166, "agu": 6167, "\u00c5\u00a1ie": 6168, "\u0120olun": 6169, "\u0120service": 6170, "\u0120cand": 6171, "lang": 6172, "mir": 6173, "\u00c3\u0143d": 6174, "awai": 6175, "\u0120h\u00e1\u00bb\u00a3p": 6176, "\u0120ele": 6177, "\u0120base": 6178, "\u0120very": 6179, "\u0120mart": 6180, "day": 6181, "ardo": 6182, "etso": 6183, "\u00c3\u012a": 6184, "\u0120tad": 6185, "\u0120Europe": 6186, "\u0120favor": 6187, "rs": 6188, "\u0120full": 6189, "alar\u00c4\u00b1": 6190, "onn": 6191, "ged": 6192, "ia\u00c5\u0124": 6193, "\u0120\u00ce\u00a4\u00ce\u00bf": 6194, "ecto": 6195, "\u0120('": 6196, "\u0120USA": 6197, "iliki": 6198, "\u0120hii": 6199, "\u0120tec": 6200, "oven": 6201, "\u00c3\u00bcd": 6202, "\u0120ho\u00ca\u00bbok": 6203, "istrat": 6204, "ahl": 6205, "sies": 6206, "otta": 6207, "\u0120Maria": 6208, "\u0120tex": 6209, "\u0120roku": 6210, "\u0120</": 6211, "\u0120dam": 6212, "acji": 6213, "rian": 6214, "LA": 6215, "tirish": 6216, "ftware": 6217, "\u0120caso": 6218, "\u0120\u00c9\u013bs": 6219, "indo": 6220, "\u0120dass": 6221, "\u0120kort": 6222, "\u0120Tech": 6223, "\u0120uni": 6224, "\u012076": 6225, "\u0120b\u00c3\u00a5": 6226, "l\u00c4\u00b1q": 6227, "\u0120Dia": 6228, "bed": 6229, "\u00cf\u0126\u00ce\u00b1\u00cf\u0124": 6230, "isan": 6231, "ticas": 6232, "elk": 6233, "\u0120m\u00c4\u0123": 6234, "\u0120b\u00c3\u00ab": 6235, "\u0120Tot": 6236, "\u0120Dig": 6237, "ules": 6238, "EB": 6239, "\u0120nya": 6240, "inga": 6241, "\u0120veg": 6242, "\u0120porn": 6243, "\u0120\u00d5\u00b6": 6244, "\u0120hanya": 6245, "\u0120dez": 6246, "\u0120\u00e1\u00b9\u00a2": 6247, "angkan": 6248, "\u0120sad": 6249, "DA": 6250, "\u0120YA": 6251, "ildi": 6252, "arkan": 6253, "lif": 6254, "\u0120vra": 6255, "41": 6256, "\u0120vad": 6257, "\u0120Vi\u00e1\u00bb\u0129t": 6258, "\u0120perm": 6259, "\u0120IP": 6260, "\u0120event": 6261, "moq": 6262, "ipada": 6263, "\u0120cao": 6264, "\u0120Ba\u00c5\u0141": 6265, "\u0120przez": 6266, "\u0120pono": 6267, "\u0120php": 6268, "\u0120Conc": 6269, "\u0120fog": 6270, "\u00c6\u00b0a": 6271, "\u0120trat": 6272, "\u00e2\u0122\u012d": 6273, "\u0120anim": 6274, "enci": 6275, "emat": 6276, "\u0120Bah": 6277, "\u0120,,": 6278, "\u0120blir": 6279, "\u0120edi": 6280, "\u0120kommun": 6281, "\u0120Hon": 6282, "\u0120Play": 6283, "\u012086": 6284, "ney": 6285, "\u0120Real": 6286, "oden": 6287, "\u0120Eg": 6288, "\u0120komp": 6289, "\u0120\u00c4\u0123": 6290, "\u00d0\u00bd\u00d0\u00b8": 6291, "\u0120yi": 6292, "\u0120restaur": 6293, "\u0120integr": 6294, "\u0120pier": 6295, "\u0120autom": 6296, "oking": 6297, "aly": 6298, "\u0120h\u00c9\u013br": 6299, "\u0120sinh": 6300, "\u0120famili": 6301, "\u00c3\u00b3b": 6302, "emen": 6303, "\u0120want": 6304, "\u0120information": 6305, "\u0120Que": 6306, "\u0120Eur": 6307, "TS": 6308, "nud": 6309, "\u0120toim": 6310, "\u0120ishl": 6311, "ikka": 6312, "\u0120August": 6313, "\u0120publ": 6314, "\u0120,-": 6315, "\u0120funk": 6316, "anger": 6317, "\u0120votre": 6318, "\u0120tub": 6319, "\u0120600": 6320, "orang": 6321, "acy": 6322, "\u0120escort": 6323, "\u0120kuh": 6324, "\u0120week": 6325, "\u0120bai": 6326, "\u0120alb": 6327, "\u0120EU": 6328, "\u0120Tan": 6329, "\u00ce\u00bb\u00ce\u00ae": 6330, "\u0120\u00c4\u0133\u00e1\u00bb\u012dnh": 6331, "\u0120menc": 6332, "\u00cf\u0126\u00ce\u00b9\u00ce\u00ba\u00ce\u00ac": 6333, "\u0120m\u00c3\u00b4": 6334, "\u00c4\u00b1n\u00c4\u00b1z": 6335, "\u00c3\u00a1ly": 6336, "\u0120pow": 6337, "\u0120Ce": 6338, "\u00d5\u00a1\u00d5\u00be": 6339, "\u00c3\u00bch": 6340, "\u0120karena": 6341, "\u0120helt": 6342, "\u0120twe": 6343, "\u0120t\u00c3\u00a9": 6344, "\u00ce\u013c": 6345, "\u0120Char": 6346, "\u0120pode": 6347, "\u0120publik": 6348, "\u0120fant": 6349, "edy": 6350, "\u0120Sams": 6351, "\u0120much": 6352, "\u0120ditu": 6353, "\u0120especial": 6354, "phone": 6355, "\u00c5\u00a1t\u00c4\u013d": 6356, "\u0120h\u00c6\u00a1n": 6357, "\u0120\u00cf\u0122\u00ce\u00bf\u00ce\u00bb": 6358, "\u0120fik": 6359, "ision": 6360, "\u0120nur": 6361, "ries": 6362, "\u0120t\u00c3\u00b6r": 6363, "\u0120SK": 6364, "\u0120Este": 6365, "\u0120contin": 6366, "\u0120190": 6367, "ring": 6368, "\u00e1\u00ba\u00a3ng": 6369, "\u0120said": 6370, "\u0120m2": 6371, "\u0120heeft": 6372, "\u00d1\u012a": 6373, "\u0120\\\"": 6374, "\u0120tema": 6375, "\u0120juh": 6376, "\u0120tir": 6377, "sal": 6378, "\u0120only": 6379, "lie": 6380, "CI": 6381, "\u0120Kosov": 6382, "59": 6383, "\u0120Za": 6384, "\u0120frem": 6385, "\u0120my\u00c3\u00b6s": 6386, "usto": 6387, "embro": 6388, "\u0120dot": 6389, "\u0120sun": 6390, "\u0120fill": 6391, "==": 6392, "\u0120website": 6393, "\u0120s\u00c3\u00baa": 6394, "\u00ce\u00b5\u00cf\u0126\u00ce\u00b1\u00ce\u00b9": 6395, "\u00ce\u00b4\u00ce\u00b1": 6396, "\u0120wid": 6397, "\u0120Stre": 6398, "\u0120comm": 6399, "\u0120leb": 6400, "\u0120Pu": 6401, "ashk": 6402, "\u0120kompl": 6403, "\u0120theo": 6404, "\u0120run": 6405, "\u0120\u00c2\u00b8": 6406, "wa\u00c4\u0129": 6407, "\u0120hard": 6408, "koz": 6409, "\u0120arm": 6410, "\u0120selec": 6411, "gon": 6412, "\u0120repres": 6413, "obal": 6414, "\u0120\u00ce\u00bc\u00ce\u00b9\u00ce\u00b1": 6415, "\u0120dod": 6416, "dzie": 6417, "tos": 6418, "NE": 6419, "\u0120algun": 6420, "vas": 6421, "igb": 6422, "vez": 6423, "\u0120d\u00c3\u00a9c": 6424, "\u01203D": 6425, "\u0120present": 6426, "\u0120::": 6427, "fan": 6428, "\u0120Nr": 6429, "\u0120dic": 6430, "SI": 6431, "\u0120Tek": 6432, "erm": 6433, "\u0120\u00ce\u00b5\u00ce\u00be": 6434, "\u0120Program": 6435, "\u0120well": 6436, "\u0120Pak": 6437, "\u0120politik": 6438, "vr": 6439, "j\u00c3\u0143": 6440, "oju": 6441, "\u0120Let": 6442, "\u0120\u00ce\u0134": 6443, "no\u00c5\u013dci": 6444, "\u0120Plan": 6445, "ustom": 6446, "\u0120\u00c4\u00ab": 6447, "????": 6448, "\u0120ded": 6449, "\u0120vill": 6450, "\u0120disp": 6451, "\u0120nghi\u00e1\u00bb\u0129": 6452, "\u0120m\u00c3\u00acnh": 6453, "\u00c4\u00b1s\u00c4\u00b1": 6454, "it\u00c4\u0125": 6455, "\u0120vin": 6456, "\u0120ij": 6457, "\u0120gebruik": 6458, "\u00cf\u0126\u00ce\u00b9\u00ce\u00ba\u00ce\u0143\u00cf\u0124": 6459, "\u0120n\u00c3\u00a4r": 6460, "\u0120f\u00c3\u00b8l": 6461, "\u0120Pri": 6462, "\u0120sti": 6463, "MA": 6464, "sk\u00c3\u00a1": 6465, "zel": 6466, "aron": 6467, "\u0120market": 6468, "\u00c3\u00a9es": 6469, "\u00c4\u0141er": 6470, "\u0120Chi": 6471, "tab": 6472, "\u00d9\u0131": 6473, "\u0120consider": 6474, "\u0120\u00c3\u00a3": 6475, "hus": 6476, "\u0120won": 6477, "\u0120grand": 6478, "\u00c4\u00bca": 6479, "\u0120neces": 6480, "\u0120kullan": 6481, "\u0120document": 6482, "\u0120\u00e2\u0122\u013c": 6483, "\u0120firm": 6484, "oren": 6485, "ross": 6486, "\u0120\u00cf\u0122\u00cf\u0123\u00ce\u00bf\u00cf\u0125": 6487, "gende": 6488, "iau": 6489, "\u0120Bro": 6490, "\u0120^": 6491, "\u0120yak": 6492, "ligi": 6493, "lardan": 6494, "\u0120Android": 6495, "lass": 6496, "dien": 6497, "erc": 6498, "\u0120\u00ce\u013b": 6499, "\u00cf\u0126\u00ce\u00bf\u00cf\u0124": 6500, "\u0120Intern": 6501, "ares": 6502, "\u0120local": 6503, "rof": 6504, "\u0120ali": 6505, "\u0120Tom": 6506, "\u0120csak": 6507, "atr": 6508, "\u0120Nd": 6509, "\u0120Bank": 6510, "\u0120tx": 6511, "\u00d1\u0123\u00d1\u0124": 6512, "\u012077": 6513, "\u012072": 6514, "\u00cf\u0123\u00ce\u00ae": 6515, "\u00ca\u00bbu": 6516, "\u0120n\u00c3\u00a9": 6517, "\u0120\u00ce\u0136E": 6518, "\u0120November": 6519, "\u0120h\u00c3\u00b8": 6520, "onu": 6521, "jiem": 6522, "\u0120Dev": 6523, "\u00ce\u00bf\u00cf\u0127\u00ce\u00bc\u00ce\u00b5": 6524, "\u0120nipa": 6525, "\u0120mest": 6526, "\u0120sok": 6527, "\u0120One": 6528, "\u0120hap": 6529, "oup": 6530, "lama": 6531, "\u0120wird": 6532, "atos": 6533, "\u0120\u00c3\u00a9l": 6534, "\u0120Christ": 6535, "orte": 6536, "\u0120dispon": 6537, "\u0120Sv": 6538, "\u0120III": 6539, "\u0120main": 6540, "\u0120qua": 6541, "\u0120tj": 6542, "\u0120jsem": 6543, "\u012082": 6544, "\u0120\u00d0\u00b2": 6545, "\u0120alebo": 6546, "\u0120dibdib": 6547, "\u0120wake": 6548, "umia": 6549, "\u0120Ham": 6550, "\u0120tras": 6551, "\u0120vs": 6552, "\u0120Lin": 6553, "56": 6554, "zenie": 6555, "\u0120zbekiston": 6556, "\u0120\u00c4\u0133\u00e1\u00bb\u0135ng": 6557, "\u00c2\u00aa": 6558, "\u0120Europa": 6559, "\u0120m\u00c3\u00b6": 6560, "\u0120zum": 6561, "\u0120note": 6562, "\u0120baru": 6563, "\u0120mand": 6564, "\u0120Tab": 6565, "\u0120s\u00c3\u00b6": 6566, "at\u00c3\u00ab": 6567, "\u0120ax": 6568, "KA": 6569, "\u00e1\u00bb\u0133t": 6570, "\u00c4\u00b1\u00c4\u0141\u00c4\u00b1": 6571, "\u0120Ein": 6572, "\u00e1\u00ba\u00b8": 6573, "\u00cf\u0126\u00ce\u0143": 6574, "\u0120Cel": 6575, "\u00d1\u0129": 6576, "\u0120Mur": 6577, "\u0120Nap": 6578, "\u0120DI": 6579, "\u0120ram": 6580, "\u0120vien": 6581, "100": 6582, "\u0120coment": 6583, "HA": 6584, "\u012083": 6585, "\u0120index": 6586, "\u0120ain": 6587, "\u0120\u00c2\u00bb,": 6588, "\u00e1\u00bb\u00afa": 6589, "\u0120u003": 6590, "\u0120lie": 6591, "RA": 6592, "\u0120kez": 6593, "\u0120econom": 6594, "\u0120Tam": 6595, "\u0120Non": 6596, "liv": 6597, "\u0120gas": 6598, "\u0120September": 6599, "\u0120sistema": 6600, "azioni": 6601, "SE": 6602, "\u0120Mes": 6603, "\u0120nje": 6604, "\u0120Peng": 6605, "\u00d5\u00a5\u00d6\u0122\u00d5": 6606, "\u0120y\u00c4\u00b1l": 6607, "\u0120impl": 6608, "\u0120per\u00c3\u00b2": 6609, "\u0120\u00d4\u00b1": 6610, "\u0120tsh": 6611, "tick": 6612, "\u0120n\u00e1\u00bb\u012f": 6613, "\u0120Far": 6614, "\u0120yeni": 6615, "\u00c5\u00bed": 6616, "\u01201000": 6617, "\u012067": 6618, "nam": 6619, "\u0120haar": 6620, "Id": 6621, "\u0120mg": 6622, "\u0120.[": 6623, "alak": 6624, "\u0120pur": 6625, "\u0120fung": 6626, "qat": 6627, "\u0120Ker": 6628, "\u0120nik": 6629, "\u0120mok": 6630, "\u0120europ": 6631, "\u012063": 6632, "\u0120ho\u00ca\u00bboh": 6633, "\u0120\u00cf\u0125\u00cf\u0126\u00ce\u00b1": 6634, "\u0120yin": 6635, "\u0120hil": 6636, "ystem": 6637, "\u0120Uk": 6638, "\u0120leo": 6639, "\u0120Aus": 6640, "\u00c4\u0125ri": 6641, "fort": 6642, "\u0120Inc": 6643, "ill\u00c3\u00a4": 6644, "\u0120know": 6645, "\u0120\u00c3\u0122": 6646, "ska": 6647, "\u00c3\u00b3t": 6648, "\u00c3\u00a4ll": 6649, "\u0120diz": 6650, "aux": 6651, "CC": 6652, "\u0120pelo": 6653, "owych": 6654, "\u0120\u00d9\u012c": 6655, "ension": 6656, "\u0120kli": 6657, "\u0120tyre": 6658, "\u00c3\u0131": 6659, "rive": 6660, "EST": 6661, "\u0120t\u00c9\u013br": 6662, "\u0120oraz": 6663, "\u0120\u00c3\u0135": 6664, "\u00e1\u00bb\u0135i": 6665, "\u0120\u00d0\u00ba": 6666, "\u0120Land": 6667, "\u0120personal": 6668, "\u012084": 6669, "\u0120yol": 6670, "\u0120zaidi": 6671, "ihan": 6672, "\u0120liter": 6673, "quer": 6674, "sc": 6675, "atas": 6676, "\u0120goed": 6677, "un\u00c8\u013duri": 6678, "\u0120c\u00c3\u00b2n": 6679, "\u0120invest": 6680, "il\u00c9\u013br": 6681, "\u00c3\u00a1ci": 6682, "etseng": 6683, "\u0120Cha": 6684, "onia": 6685, "\u0120Pok": 6686, "asyon": 6687, "\u0120hao": 6688, "\u0120\u00ef\u00bf\u00bd\u00ef\u00bf\u00bd\u00ef\u00bf\u00bd\u00ef\u00bf\u00bd\u00ef\u00bf\u00bd\u00ef\u00bf\u00bd\u00ef\u00bf\u00bd\u00ef\u00bf\u00bd\u00ef\u00bf\u00bd\u00ef\u00bf\u00bd": 6689, "\u00d8\u00b7": 6690, "\u00c6\u0134": 6691, "uck": 6692, "\u0120lov": 6693, "\u0120P\u00c3\u00abr": 6694, "\u0120Una": 6695, "\u0120aiz": 6696, "\u0120800": 6697, "\u0120Produc": 6698, "\u0120War": 6699, "\u0120einen": 6700, "\u00c4\u0123l\u00c4\u0123": 6701, "\u00c3\u00a9ri": 6702, "\u0120vara": 6703, "\u0120m\u00e1\u00bb\u013di": 6704, "fol": 6705, "\u0120mic": 6706, "\u0120edir": 6707, "\u00e3\u0122\u0132": 6708, "ough": 6709, "\u0120osob": 6710, "mel": 6711, "lar\u00c4\u00b1n\u00c4\u00b1": 6712, "EZ": 6713, "araf": 6714, "\u0120partic": 6715, "\u0120Person": 6716, "\u0120acest": 6717, "\u0120qur": 6718, "\u0120\u00d8\u012e": 6719, "ulla": 6720, "\u00e1\u00bb\u0133n": 6721, "\u00c3\u00a9ben": 6722, "\u0120extra": 6723, "\u0120Bras": 6724, "\u0120\u00e3\u0122\u0133": 6725, "zan": 6726, "diy": 6727, "zes": 6728, "uksen": 6729, "\u0120v\u00c3\u00a6r": 6730, "\u0120polo": 6731, "orde": 6732, "\u0120vos": 6733, "\u0120mint": 6734, "NG": 6735, "\u0120m\u00c9\u013bn": 6736, "\u0120zv": 6737, "iche": 6738, "\u0120mek": 6739, "\u0120Januar": 6740, "\u0120naman": 6741, "\u0120ular": 6742, "\u00c3\u0127": 6743, "\u0120\u00c3\u00a1l": 6744, "itte": 6745, "\u0120name": 6746, "\u0120n\u00c3\u00aan": 6747, "\u0120sa\u00c4\u0141": 6748, "\u00e1\u00bb\u0125u": 6749, "\u0120IT": 6750, "chten": 6751, "\u0120s\u00e1\u00bb\u0143": 6752, "\u0120mundo": 6753, "\u0120aber": 6754, "\u0120place": 6755, "\u0120dv": 6756, "\u00c5\u0141i": 6757, "\u0120n\u00c9\u013d": 6758, "\u0120here": 6759, "\u0120m\u00c3\u00a9g": 6760, "\u0120game": 6761, "\u0120ovat": 6762, "ply": 6763, "\u00cf\u012f\u00ce\u00bd": 6764, "\u00c5\u00afj": 6765, "yla": 6766, "eberapa": 6767, "\u00c6\u00b0\u00e1\u00bb\u0141": 6768, "estival": 6769, "\u0120ekonom": 6770, "\u0120d\u00e1\u00bb\u00b1": 6771, "ford": 6772, "fter": 6773, "\u0120modif": 6774, "\u0120rat": 6775, "jn\u00c3\u00ab": 6776, "\u0120dek": 6777, "\u0120zuen": 6778, "\u0120duhet": 6779, "\u0120c\u00c3\u00a1ch": 6780, "\u0120kans": 6781, "\u0120j\u00c3\u00a1": 6782, "\u0120open": 6783, "ised": 6784, "\u0120She": 6785, "\u0120Bab": 6786, "yang": 6787, "sts": 6788, "\u0120Bra": 6789, "arin": 6790, "\u00c4\u00b1lan": 6791, "\u0120Ok": 6792, "\u00d0\u00b9": 6793, "\u00c9\u013bsind\u00c9\u013b": 6794, "\u0120Hu": 6795, "\u0120Eusk": 6796, "\u00c4\u013dl": 6797, "aring": 6798, "\u0120popul": 6799, "\u00d8\u00b5": 6800, "\u0120bem": 6801, "\u0120celeb": 6802, "\u0120pris": 6803, "\u0120intr": 6804, "\u00c3\u00abnd": 6805, "\u0120th\u00e1\u00ba\u00bf": 6806, "\u0120Hel": 6807, "\u0120rob": 6808, "\u012062": 6809, "\u0120Cr": 6810, "\u0120Gol": 6811, "\u00d8\u00b4": 6812, "\u0120Vic": 6813, "\u00c4\u00abgi": 6814, "\u0120jel": 6815, "aling": 6816, "timo": 6817, "\u0120110": 6818, "tak": 6819, "usia": 6820, "\u0120h\u00c3\u00a4r": 6821, "dam": 6822, "\u0120izm": 6823, "\u0120ishte": 6824, "\u0120shp": 6825, "\u0120c\u00c6\u00a1": 6826, "ilen": 6827, "\u0120Organ": 6828, "kou": 6829, "\u0120voi": 6830, "ulta": 6831, "\u0120nako": 6832, "ARA": 6833, "iel": 6834, "\u00c4\u00b1yor": 6835, "\u0120type": 6836, "\u0120ge\u00c3\u00a7": 6837, "\u0120nes": 6838, "\u00c3\u00abn\u00c3\u00ab": 6839, "\u00c3\u0143t\u00c3\u00a1s": 6840, "\u0120\u00ce\u00ba\u00ce\u00b1\u00cf\u0126\u00ce\u00b1": 6841, "\u0120miss": 6842, "\u0120grande": 6843, "\u0120()": 6844, "62": 6845, "emente": 6846, "\u0120institu": 6847, "\u0120arv": 6848, "\u0120peny": 6849, "\u0120fort": 6850, "\u0120aacute": 6851, "wie": 6852, "oj\u00c3\u00ab": 6853, "\u0120organis": 6854, "\u0120jsou": 6855, "\u0120mo\u00c5\u00be": 6856, "\u0120Jesu": 6857, "\u0120\u00c2\u00b6": 6858, "ilir": 6859, "\u0120projek": 6860, "\u0120cab": 6861, "\u0120hud": 6862, "................................": 6863, "\u0120etsa": 6864, "\u0120r\u00e1\u00ba\u00a5t": 6865, "\u0120year": 6866, "\u0120Liv": 6867, "\u0120seo": 6868, "\u0120ago": 6869, "\u00ce\u0142": 6870, "\u0120ly": 6871, "\u0120forsk": 6872, "\u00ce\u00b3\u00ce\u00bf": 6873, "angk": 6874, "\u0120spot": 6875, "\u0120Sy": 6876, "\u0120l\u00c3\u00b5": 6877, "\u0120Form": 6878, "\u00c4\u0141a": 6879, "\u0120process": 6880, "\u0120Ele": 6881, "\u0120eo": 6882, "\u00c3\u00a6k": 6883, "upun": 6884, "com": 6885, "itiv": 6886, "BN": 6887, "ov\u00c3\u00a1n\u00c3\u0143": 6888, "\u0120But": 6889, "\u00c4\u00bea": 6890, "ric": 6891, "\u0120LE": 6892, "l\u00c9\u013brin": 6893, "asun": 6894, "\u0120kerak": 6895, "iksi": 6896, "urile": 6897, "\u0120vah": 6898, "\u0120cad": 6899, "\u0120yg": 6900, "\u00e1\u00ba\u00b9r\u00e1\u00ba\u00b9": 6901, "arto": 6902, "\u0120kutoka": 6903, "63": 6904, "\u0120Bonus": 6905, "\u0120cy": 6906, "\u00c5\u00beit": 6907, "\u00d5\u00a1\u00d5\u00af\u00d5\u00a1\u00d5\u00b6": 6908, "\u00c6\u00b0\u00e1\u00bb\u0141ng": 6909, "\u0120Eesti": 6910, "\u00d0\u00be\u00d0\u00b2": 6911, "\u0120th\u00e1\u00bb\u013fi": 6912, "\u0120multi": 6913, "\u0120Slov": 6914, "\u0120sort": 6915, "\u0120molt": 6916, "\u0120kimi": 6917, "\u0120v\u00c3\u00a4r": 6918, "\u0120porque": 6919, "\u0120mare": 6920, "\u00cf\u012e\u00cf\u0126\u00ce\u00b5": 6921, "\u0120Nord": 6922, "\u0120pare": 6923, "\u0120ast": 6924, "\u00e1\u00bb\u00b9": 6925, "\u0120th\u00c3\u00b4ng": 6926, "\u0120GR": 6927, "\u0120bila": 6928, "\u00d5\u00af": 6929, "\u0120Hotels": 6930, "pend": 6931, "larga": 6932, "\u0120sop": 6933, "\u00c3\u0143z": 6934, "\u0120\u00cf\u0122\u00ce\u00bf": 6935, "\u0120kush": 6936, "\u0120Stor": 6937, "log": 6938, "\u0120color": 6939, "ischen": 6940, "kus": 6941, "\u0120geen": 6942, "ikipedia": 6943, "\u0120kot": 6944, "cut": 6945, "m\u00c3\u00a9ny": 6946, "\u0120\u00e7": 6947, "\u0120Madrid": 6948, "azo": 6949, "\u0120riv": 6950, "\u0120offer": 6951, "itta": 6952, "\u00e1\u00ba\u00a1nh": 6953, "\u0120lei": 6954, "\u0120feb": 6955, "\u0120h\u00c3\u00acnh": 6956, "\u0120Ale": 6957, "\u01202002": 6958, "icaci\u00c3\u00b3n": 6959, "\u0120Id": 6960, "oru": 6961, "\u00ce\u00b1\u00ce\u00bb": 6962, "elang": 6963, "ulas": 6964, "\u0120nok": 6965, "\u00cf\u0125\u00cf\u0126\u00ce\u00b7": 6966, "\u0120ee": 6967, "\u0120Jag": 6968, "\u0120hus": 6969, "\u0120date": 6970, "qs": 6971, "agement": 6972, "aming": 6973, "\u0120Ot": 6974, "lish": 6975, "t\u00c4\u00b1r": 6976, "\u0120tr\u00c6\u00b0\u00e1\u00bb\u013fng": 6977, "\u00c3\u0137": 6978, "el\u00c5\u0133": 6979, "cter": 6980, "terior": 6981, "\u0120th\u00e1\u00bb\u00b1c": 6982, "nego": 6983, "\u0120Hist": 6984, "ARI": 6985, "\u0120Trip": 6986, "\u0120durante": 6987, "\u0120Alb": 6988, "\u0120Ts": 6989, "chu": 6990, "ss\u00c3\u00a4": 6991, "ecte": 6992, "\u0120fum": 6993, "\u0120Alex": 6994, "\u0120tym": 6995, "igur": 6996, "\u0120Fam": 6997, "lar\u00c4\u00b1n\u00c4\u00b1n": 6998, "\u0120thro": 6999, "\u0120eb": 7000, "\u0120ky": 7001, "\u00c3\u00bap": 7002, "\u0120olla": 7003, "\u0120kund": 7004, "\u0120xa": 7005, "sk\u00c3\u00bd": 7006, "\u0120alc": 7007, "apos": 7008, "upakan": 7009, "\u0120groot": 7010, "\u0120yoki": 7011, "\u0120?\u00e2\u0122\u013f": 7012, "omet": 7013, "\u0120prec": 7014, "\u0120Islam": 7015, "\u00c5\u00a1anu": 7016, "\u00c3\u00a1va": 7017, "futa": 7018, "v\u00c3\u00a4n": 7019, "\u0120\u00cf\u0125\u00cf\u0127\u00ce\u00bd": 7020, "unga": 7021, "\u0120Ped": 7022, "\u0120.:": 7023, "\u0120sexo": 7024, "\u0120g\u00c3\u00a5r": 7025, "\u0120Jac": 7026, "identi": 7027, "baar": 7028, "\u0120wordt": 7029, "szer": 7030, "\u0120dispos": 7031, "SS": 7032, "\u0120garan": 7033, "\u0120l\u00c3\u00b8": 7034, "TM": 7035, "utako": 7036, "\u0120guz": 7037, "\u0120modern": 7038, "via": 7039, "\u0120oss": 7040, "aho": 7041, "en\u00c3\u00a9": 7042, "avi": 7043, "\u0120dzi": 7044, "\u0120CR": 7045, "\u00cf\u012e\u00ce\u00bd": 7046, "\u0120etter": 7047, "\u0120\u00d5\u00ab": 7048, "\u0120MP": 7049, "vid": 7050, "\u0120Respublik": 7051, "\u00c9\u013by\u00c9\u013b": 7052, "\u00c3\u00a9ly": 7053, "\u0120voc\u00c3\u00aa": 7054, "\u0120produ": 7055, "ript": 7056, "\u0120yax": 7057, "\u0120mutta": 7058, "\u0120\u00c3\u00a1ll": 7059, "\u0120z\u00c5\u0124": 7060, "\u00c5\u0124ad": 7061, "\u0120Kwa": 7062, "hau": 7063, "epe": 7064, "\u0120trav": 7065, "\u0120Phil": 7066, "\u0120mali": 7067, "\u0120alum": 7068, "\u0120Tanzania": 7069, "\u0120zur": 7070, "emin": 7071, "\u0120otr": 7072, "fici": 7073, "ecause": 7074, "\u0120Fra": 7075, "engo": 7076, "\u0120m\u00c4\u0123kou": 7077, "GA": 7078, "\u0120estar": 7079, "iras": 7080, "in\u00c4\u0123t": 7081, "\u0120g\u00c3\u00b6z": 7082, "\u0120Hom": 7083, "\u0120s\u00c4\u0127": 7084, "\u0120kesk": 7085, "\u0120\u00ce\u00bc\u00ce\u00b1": 7086, "nom": 7087, "\u0120famil": 7088, "arb": 7089, "rap": 7090, "ungkin": 7091, "\u0120nye": 7092, "him": 7093, "got": 7094, "\u0120diri": 7095, "\u0120Kit": 7096, "\u0120Gj": 7097, "wana": 7098, "nah": 7099, "oney": 7100, "isema": 7101, "\u012074": 7102, "\u0120aos": 7103, "\u0120stre": 7104, "\u0120odp": 7105, "\u00d5\u00a5\u00d5\u00b6": 7106, "\u0120USD": 7107, "\u00c3\u0128": 7108, "abat": 7109, "\u0120sir": 7110, "\u0120pa\u00c3\u0143s": 7111, "\u00cc\u00a3n": 7112, "ask": 7113, "\u0120N\u00c4\u0123": 7114, "ateur": 7115, "egy": 7116, "\u0120dru": 7117, "\u0120tog": 7118, "\u00ce\u00b3\u00cf\u0123\u00ce\u00b1": 7119, "\u0120\u00c4\u0133i\u00e1\u00bb\u0123u": 7120, "\u0120oz": 7121, "\u0120cul": 7122, "\u0120Kim": 7123, "\u0120fok": 7124, "mente": 7125, "ihin": 7126, "az\u00c4\u0125": 7127, "\u0120d\u00c3\u00b6n": 7128, "\u0120Austr": 7129, "antu": 7130, "\u0120Italia": 7131, "\u00ce\u00bc\u00ce\u00b2": 7132, "89": 7133, "uq": 7134, "\u012094": 7135, "akit": 7136, "\u0120\u00d0\u00be": 7137, "try": 7138, "\u0120saja": 7139, "\u0120vic": 7140, "ray": 7141, "54": 7142, "\u00cf\u0122\u00ce\u00bf\u00ce\u00b9": 7143, "\u00c3\u00abz": 7144, "\u0120PDF": 7145, "\u0120AF": 7146, "rig": 7147, "\u0120\u00c3\u0136": 7148, "\u0120k\u00c3\u00b6r": 7149, "chine": 7150, "\u0120\u00ca\u00bbia": 7151, "\u0120hotell": 7152, "53": 7153, "alari": 7154, "\u00c4\u0135ja": 7155, "wak": 7156, "\u0120High": 7157, "\u0120Club": 7158, "istes": 7159, "\u00ce\u00ac\u00ce\u00bb": 7160, "\u0120years": 7161, "styr": 7162, "\u0120ster": 7163, "\u0120noch": 7164, "gin": 7165, "\u00cf\u0123\u00ce\u00b5\u00ce\u00af": 7166, "\u0120tres": 7167, "\u0120adres": 7168, "\u0120kazi": 7169, "z\u00c5\u0133": 7170, "\u0120bao": 7171, "\u0120180": 7172, "\u0120Paul": 7173, "\u0120harga": 7174, "ograph": 7175, "\u0120seva": 7176, "\u0120content": 7177, "\u0120Arch": 7178, "illo": 7179, "geb": 7180, "\u0120fond": 7181, "pis": 7182, "\u00d0\u00bb\u00d0\u00b8": 7183, "\u0120pus": 7184, "\u0120gibi": 7185, "\u0120questo": 7186, "\u00c3\u00abl": 7187, "\u00c3\u00a7\u00c4\u00b1": 7188, "\u00c3\u00b6vl": 7189, "\u0120Chat": 7190, "ika\u00ca\u00bbi": 7191, "elek": 7192, "ordin": 7193, "\u0120Paris": 7194, "\u0120pati": 7195, "\u0120timbang": 7196, "inge": 7197, "cos": 7198, "pes": 7199, "inos": 7200, "hoa": 7201, "ova\u00c5\u00a5": 7202, "\u0120Fun": 7203, "\u0120More": 7204, "astur": 7205, "istra": 7206, "\u0120BR": 7207, "\u0120\u00c3\u00a6": 7208, "\u0120g\u00c3\u00b6r\u00c9\u013b": 7209, "\u0120desen": 7210, "eker": 7211, "itur": 7212, "\u0120urte": 7213, "\u00ce\u00b4\u00ce\u00b9\u00ce\u00b1": 7214, "iteit": 7215, "\u0120Vil": 7216, "\u0120aller": 7217, "\u0120How": 7218, "enge": 7219, "\u0120kod": 7220, "\u0120prej": 7221, "\u0120AK": 7222, "\u00c3\u00bclt": 7223, "esha": 7224, "\u0120aast": 7225, "\u0120lgan": 7226, "kam": 7227, "\u0120\u00ce\u00b1\u00cf\u0127\u00cf\u0126\u00cf\u012e": 7228, "NA": 7229, "larning": 7230, "sti": 7231, "TO": 7232, "QU": 7233, "\u0120suur": 7234, "\u0120merc": 7235, "\u00c4\u012fas": 7236, "\u0120Aj": 7237, "\u0120Meg": 7238, "anu": 7239, "\u00c4\u00abm": 7240, "\u0120after": 7241, "\u0120page": 7242, "\u0120World": 7243, "\u0120l\u00c3\u00a4h": 7244, "\u00c3\u00b3\u00c5\u0124": 7245, "\u0120projekt": 7246, "\u00c3\u00a6g": 7247, "\u0120Ig": 7248, "\u0120se\u00c3\u00a7": 7249, "s\u00c3\u00a9g": 7250, "\u00ce\u00b7\u00ce\u00bd": 7251, "\u0120Mik": 7252, "tigt": 7253, "nire": 7254, "chini": 7255, "\u0120actu": 7256, "\u0120vik": 7257, "n\u00c3\u0143ch": 7258, "\u0120samt": 7259, "\u0120iPhone": 7260, "\u0120\u00c3\u012f": 7261, "\u0120ic": 7262, "\u0120Samsung": 7263, "\u0120s\u00c3\u00b8": 7264, "\u00c3\u013a": 7265, "\u0120way": 7266, "\u0120sid": 7267, "ivil": 7268, "\u0120\u00ce\u00bc\u00ce\u00b1\u00cf\u0124": 7269, "\u0120Kab": 7270, "\u0120Brit": 7271, "\u0120moja": 7272, "\u0120bog": 7273, "xico": 7274, "upe": 7275, "rev": 7276, "\u0120moo": 7277, "isi\u00c3\u00b3n": 7278, "INE": 7279, "orum": 7280, "\u00ce\u00b5\u00cf\u0123": 7281, "\u0120jin": 7282, "\u0120:-": 7283, "\u00ce\u013d": 7284, "\u0120wind": 7285, "\u0120krit": 7286, "\u0120\u00c5\u013b": 7287, "\u0120owo": 7288, "\u0120lakini": 7289, "\u0120Anun\u00c8\u013duri": 7290, "\u0120\u00ce\u00b6": 7291, "\u0120atas": 7292, "etako": 7293, "\u00ce\u00b9\u00ce\u00bd": 7294, "\u00c3\u00a1si": 7295, "\u0120\u00e1\u00b9\u00a3i": 7296, "river": 7297, "\u0120Rod": 7298, "n\u00c4\u0127": 7299, "ental": 7300, "\u0120book": 7301, "ticos": 7302, "\u0120kend": 7303, "isse": 7304, "\u0120element": 7305, "kiem": 7306, "nut": 7307, "CD": 7308, "\u0120material": 7309, "run": 7310, "\u0120baie": 7311, "\u0120zona": 7312, "\u0120fram": 7313, "obe": 7314, "\u0120s\u00c3\u00b6z": 7315, "tera": 7316, "\u0120tlo": 7317, "nica": 7318, "\u0120Martin": 7319, "shir": 7320, "\u0120\u00cf\u0125\u00cf\u0126\u00ce\u00b9": 7321, "kie": 7322, "werk": 7323, "\u0120href": 7324, "\u0120Nem": 7325, "\u0120Jun": 7326, "\u0120expl": 7327, "\u0120Not": 7328, "\u0120Sat": 7329, "\u0120m\u00c3\u00aa": 7330, "\u0120Catal": 7331, "isesti": 7332, "\u0120director": 7333, "\u0120paggam": 7334, "\u0120medic": 7335, "\u0120black": 7336, "ector": 7337, "\u0120inim": 7338, "CE": 7339, "\u00c3\u00a7i": 7340, "\u0120transport": 7341, "ensi": 7342, "\u012081": 7343, "\u0120leh": 7344, "\u00ce\u00b1\u00cf\u0123": 7345, "\u0120\u00c3\u0125": 7346, "\u0120muy": 7347, "\u0120coa": 7348, "\u0120$(": 7349, "\u0120deix": 7350, "zej": 7351, "iber": 7352, "\u0120Oh": 7353, "\u0120einer": 7354, "fore": 7355, "\u0120uno": 7356, "\u0120aki": 7357, "tea": 7358, "\u0120title": 7359, "ick\u00c3\u00a9": 7360, "\u00c3\u00bclet": 7361, "lut": 7362, "\u0120do\u00c4\u0141": 7363, "\u00cf\u0123\u00ce\u00b9\u00ce\u00bf": 7364, "\u0120sasa": 7365, "\u0120Admin": 7366, "\u0120telev": 7367, "\u00d0\u00bf": 7368, "\u012073": 7369, "\u0120klub": 7370, "\u0120partici": 7371, "mu\u00c5\u0141": 7372, "\u0120Dani": 7373, "\u0120Lab": 7374, "\u0120Pap": 7375, "atea": 7376, "rg": 7377, "\u0120hierdie": 7378, "\u00e2\u0122\u00a6]": 7379, "\u0120Luc": 7380, "erte": 7381, "iday": 7382, "\u0120muut": 7383, "\u0120baada": 7384, "box": 7385, "\u0120harus": 7386, "71": 7387, "assen": 7388, "adigan": 7389, "\u0120nii": 7390, "\u0120litt": 7391, "weza": 7392, "\u0120maak": 7393, "pla": 7394, "\u0120\u00cf\u0122\u00ce\u00b1\u00cf\u0123\u00ce\u00b1": 7395, "\u0120b\u00c3\u00a9": 7396, "\u0120s\u00c3\u00a4": 7397, "sko": 7398, "\u0120\u00c4\u0135": 7399, "\u0120weer": 7400, "\u00c4\u00abs": 7401, "ayot": 7402, "\u0120gang": 7403, "emas": 7404, "ms": 7405, "\u0120Caut": 7406, "\u00c3\u00bcck": 7407, "\u0120York": 7408, "\u0120brand": 7409, "\u0120viv": 7410, "ops": 7411, "\u0120bod": 7412, "\u0120\u00ce\u00bc\u00cf\u0122\u00ce\u00bf": 7413, "\u0120every": 7414, "\u012092": 7415, "\u0120Ri": 7416, "\u00e1\u00ba\u00a1ng": 7417, "\u00d1\u0127": 7418, "upan": 7419, "\u0120hivyo": 7420, "\u00c3\u00a2t": 7421, "\u0120Kun": 7422, "bild": 7423, "rosoft": 7424, "ativo": 7425, "ell\u00c3\u00a4": 7426, "\u0120bukan": 7427, "edo": 7428, "\u0120iwe": 7429, "\u0120keb": 7430, "\u0120kaik": 7431, "\u0120kik": 7432, "\u0120ander": 7433, "st\u00c3\u00a4": 7434, "ugo": 7435, "\u0120Santa": 7436, "\u00c3\u00bct\u00c3\u00bcn": 7437, "\u0120call": 7438, "heter": 7439, "\u0120[\u00e2\u0122\u00a6]": 7440, "\u0120pit": 7441, "vend": 7442, "\u0120b\u00c3\u00a5de": 7443, "\u00c5\u00a1an\u00c4\u0123s": 7444, "iyet": 7445, "\u0120temper": 7446, "ac\u00c3\u0143": 7447, "\u0120labor": 7448, "\u0120Modimo": 7449, "ANA": 7450, "\u0120igb": 7451, "\u0120two": 7452, "\u0120Espa": 7453, "kim": 7454, "\u0120lugar": 7455, "jut": 7456, "\u0120member": 7457, "\u012061": 7458, "\u0120puh": 7459, "\u0120Spe": 7460, "\u00c3\u00a1lis": 7461, "\u0120\u00c2\u00be": 7462, "\u0120continu": 7463, "\u0120beberapa": 7464, "\u0120l\u00c3\u0143": 7465, "\u0120fly": 7466, "\u0120g\u00c9\u013bl": 7467, "\u0120Tal": 7468, "ipas\u00e1\u00ba\u00b9": 7469, "\u0120nez": 7470, "aszt": 7471, "\u0120ziren": 7472, "\u0120kt\u00c3\u00b3re": 7473, "roz": 7474, "\u0120doen": 7475, "\u00c2\u00a3": 7476, "\u0120IM": 7477, "\u0120anh": 7478, "\u0120pub": 7479, "\u0120vak": 7480, "\u0120Seks": 7481, "ege": 7482, "visor": 7483, "\u0120tok": 7484, "DR": 7485, "kun": 7486, "\u0120Hawai": 7487, "nem": 7488, "\u00c3\u00a9re": 7489, "olit": 7490, "\u0120font": 7491, "iah": 7492, "\u0120Ua": 7493, "\u0120NO": 7494, "\u00c3\u0133": 7495, "\u0120zw": 7496, "\u0120Galicia": 7497, "ulos": 7498, "\u0120mesmo": 7499, "\u0120membuat": 7500, "ussen": 7501, "mb": 7502, "\u0120vi\u00c3\u00aan": 7503, "lal": 7504, "\u0120AG": 7505, "nk": 7506, "\u0120seda": 7507, "\u0120zm": 7508, "til": 7509, "\u0120v\u00c3\u00a5r": 7510, "\u00ce\u00b5\u00cf\u0127": 7511, "\u0120xxx": 7512, "\u0120c\u00e1\u00ba\u00a5p": 7513, "entro": 7514, "\u0120Lev": 7515, "\u00c3\u00a9si": 7516, "\u0120l\u00c3\u00bd": 7517, "\u0120sett": 7518, "\u0120Pot": 7519, "\u0120nella": 7520, "\u0120KA": 7521, "\u0120Egy": 7522, "ogu": 7523, "\u0120v\u00c3\u00a4h": 7524, "\u0120ark": 7525, "\u0120\u00e3\u0122\u0133\u00e3\u0122\u0132": 7526, "time": 7527, "adora": 7528, "zin": 7529, "aysia": 7530, "\u0120many": 7531, "\u00c3\u00b6vl\u00c9\u013bt": 7532, "\u0120einem": 7533, "\u0120F\u00c3\u00b6r": 7534, "ad\u00c4\u00b1r": 7535, "\u0120minden": 7536, "\u0120bert": 7537, "52": 7538, "\u0120lun": 7539, "\u0120cour": 7540, "\u0120product": 7541, "\u0120kau": 7542, "oter": 7543, "oved": 7544, "undan": 7545, "\u0120\u00f0\u0141\u013a": 7546, "\u0120anmeldelser": 7547, "\u00ce\u00b5\u00ce\u00b9\u00cf\u0124": 7548, "\u0120fon": 7549, "\u0120\u00c3\u012a": 7550, "\u0120David": 7551, "\u0120programa": 7552, "\u0120kec": 7553, "umus": 7554, "\u01202001": 7555, "\u0120\u00c3\u012c": 7556, "\u0120ott": 7557, "ags": 7558, "\u0120toe": 7559, "61": 7560, "\u0120article": 7561, "\u0120\u00c3\u0130n": 7562, "jest": 7563, "))": 7564, "\u0120Inf": 7565, "\u0120proced": 7566, "\u0120mujer": 7567, "\u0120paa": 7568, "j\u00c3\u00a4": 7569, "\u0120kila": 7570, "\u0120p\u00c5\u00ab": 7571, "\u0120kh\u00c3\u00a1ch": 7572, "\u0120lam": 7573, "\u0120aang": 7574, "\u0120sap": 7575, "\u0120merupakan": 7576, "\u0120\u00c3\u00bd": 7577, "\u0120lever": 7578, "\u0120b\u00c3\u00b6l": 7579, "\u0120d\u00c3\u0143a": 7580, "\u00d0\u0142": 7581, "\u0120\u00c3\u00b6ss": 7582, "\u0120situa": 7583, "\u0120Bed": 7584, "\u0120ilk": 7585, "\u0120masih": 7586, "\u0120prima": 7587, "hez": 7588, "\u0120gest": 7589, "lament": 7590, "\u0120March": 7591, "itats": 7592, "dem": 7593, "\u0120Ih": 7594, "\u0120||": 7595, "\u0120Gaz": 7596, "\u0120zin": 7597, "rimoni": 7598, "\u0120Ye": 7599, "\u0120Premi": 7600, "\u0120buy": 7601, "olat": 7602, "otte": 7603, "beg": 7604, "\u0120water": 7605, "\u00c3\u00a1le": 7606, "\u0120p\u00c4\u0135c": 7607, "\u0120Tags": 7608, "\u0120nipas\u00e1\u00ba\u00b9": 7609, "bao": 7610, "\u0120lic": 7611, "date": 7612, "\u0120\u00d0\u00bd": 7613, "\u0120chiq": 7614, "\u0120Muh": 7615, "\u0120email": 7616, "\u0120Leb": 7617, "\u0120exist": 7618, "\u0120max": 7619, "\u0120jeho": 7620, "Sh": 7621, "\u00d8\u00a7\u00d9\u0127": 7622, "ription": 7623, "\u0120].": 7624, "\u0120histor": 7625, "\u0120hori": 7626, "inci": 7627, "\u0120solu": 7628, "nan": 7629, "\u0120OR": 7630, "\u0120k\u00c3\u00a9p": 7631, "\u0120Prez": 7632, "\u00ca\u00bbai": 7633, "\u0120nen": 7634, "\u0120PER": 7635, "\u0120jika": 7636, "\u0120\u00d0\u00b8": 7637, "\u0120k\u00c3\u00abr": 7638, "oval": 7639, "\u0120particip": 7640, "olas": 7641, "izz": 7642, "ohle": 7643, "\u0120\u00e2\u013a": 7644, "\u0120\u00e1\u00bb\u012fm\u00e1\u00bb\u012f": 7645, "\u0120char": 7646, "\u0120contact": 7647, "\u00d5\u00a1\u00d6\u0123": 7648, "\u0120BB": 7649, "atia": 7650, "\u0120bard": 7651, "\u0120\u00c3\u0134": 7652, "\u0120ext": 7653, "\u00e1\u00bb\u012fng": 7654, "\u0120cui": 7655, "\u0120gut": 7656, "\u0120vys": 7657, "\u0120v\u00e1\u00bb\u00a5": 7658, "XX": 7659, "kak": 7660, "\u00c4\u0123ka": 7661, "idu": 7662, "\u0120memiliki": 7663, "\u0120d\u00e1\u00bb\u012f": 7664, "\u0120empres": 7665, "\u0120store": 7666, "jang": 7667, "\u0120fiz": 7668, "\u0120Ras": 7669, "\u0120\u00ef\u00bf\u00bd\u00ef\u00bf\u00bd\u00ef\u00bf\u00bd\u00ef\u00bf\u00bd\u00ef\u00bf\u00bd\u00ef\u00bf\u00bd\u00ef\u00bf\u00bd\u00ef\u00bf\u00bd\u00ef\u00bf\u00bd": 7670, "gil": 7671, "\u0120MB": 7672, "\u0120c\u00c3\u00b9ng": 7673, "\u0120weng": 7674, "\u0120bola": 7675, "\u0120Jer": 7676, "\u0120Til": 7677, "\u0120\u00c4\u012fi": 7678, "\u0120rr": 7679, "amoja": 7680, "lerin": 7681, "\u0120tua": 7682, "\u0120j\u00c4\u0123": 7683, "\u0120Alle": 7684, "\u0120June": 7685, "\u0120tant": 7686, "\u0120rang": 7687, "\u012071": 7688, "\u0120Tas": 7689, "\u0120fors": 7690, "pert": 7691, "\u0120joka": 7692, "\u00c4\u013bp": 7693, "nyt": 7694, "\u0120a\u00c5\u00be": 7695, "soci": 7696, "\u0120partir": 7697, "\u0120dago": 7698, "\u0120mehr": 7699, "arden": 7700, "\u0120ves": 7701, "\u0120Yang": 7702, "izm": 7703, "igba": 7704, "l\u00c9\u013bn": 7705, "\u00c3\u00a6s": 7706, "\u0120pagpap": 7707, "\u00ce\u00b5\u00ce\u00bb": 7708, "\u0120skulle": 7709, "\u0120Ara": 7710, "\u00c3\u0130": 7711, "\u012093": 7712, "\u0120sendiri": 7713, "\u0120jour": 7714, "\u0120ph\u00e1\u00ba\u00a9m": 7715, "\u0120signi": 7716, "\u0120Cum": 7717, "\u0120Band": 7718, "\u00c5\u00bce": 7719, "ruz": 7720, "ay\u00c4\u00b1": 7721, "\u0120Uz": 7722, "\u0120\u00ce\u00a6": 7723, "\u0120izango": 7724, "\u00c3\u00a9nt": 7725, "DE": 7726, "\u0120ambi": 7727, "\u0120selle": 7728, "\u0120\u00e2\u0128\u0133": 7729, "\u0120hip": 7730, "szyst": 7731, "57": 7732, "\u0120cuk": 7733, "ess\u00c3\u00a4": 7734, "erde": 7735, "\u0120Arg": 7736, "\u0120Nat": 7737, "\u0120tao": 7738, "ulis": 7739, "uty": 7740, "iman": 7741, "\u0120true": 7742, "\u0120Din": 7743, "\u0120s\u00c3\u00a3o": 7744, "\u0120ibe": 7745, "\u0120\u00c2\u00a1": 7746, "\u0120a\u00e1\u00b9\u00a3": 7747, "vil": 7748, "\u0120lay": 7749, "\u0120Kung": 7750, "uur": 7751, "tida": 7752, "contr": 7753, "\u0120blev": 7754, "\u0120prest": 7755, "TV": 7756, "\u0120ush": 7757, "\u0120\u00d9\u0127\u00d9\u0128": 7758, "\u00d9\u012c\u00d9\u0128": 7759, "isz": 7760, "\u0120n\u00c3\u00a6r": 7761, "\u0120bli": 7762, "\u00c4\u00b1m\u00c4\u00b1": 7763, "arang": 7764, "ummer": 7765, "epa": 7766, "\u0120these": 7767, "\u0120emp": 7768, "\u0120vig": 7769, "\u0120See": 7770, "\u0120kuin": 7771, "\u0120rumah": 7772, "\u0120Tri": 7773, "estra": 7774, "\u0120\u00d5\u00bf": 7775, "\u0120jum": 7776, "\u0120love": 7777, "\u0120buk": 7778, "\u0120slu": 7779, "\u0120gem": 7780, "\u0120natural": 7781, "irma": 7782, "\u0120tr\u00c3\u00acnh": 7783, "ningar": 7784, "n\u00c3\u00ba": 7785, "hel": 7786, "anse": 7787, "\u00c3\u00a9st": 7788, "\u0120jas": 7789, "\u0120Ru": 7790, "untza": 7791, "\u0120CO": 7792, "omba": 7793, "\u00c3\u00bal": 7794, "\u0120g\u00c3\u00a5": 7795, "\u00c4\u0123cijas": 7796, "\u0120kadar": 7797, "\u0120vur": 7798, "\u0120ER": 7799, "\u0120ON": 7800, "\u0120kost": 7801, "\u0120Design": 7802, "\u0120nh\u00c6\u00b0ng": 7803, "\u0120huo": 7804, "\u0120Mich": 7805, "owie": 7806, "\u0120klar": 7807, "maz": 7808, "\u00cf\u012f\u00cf\u0126\u00ce\u00b5": 7809, "\u0120Jeho": 7810, "\u0120besar": 7811, "\u0120ros": 7812, "\u0120flere": 7813, "neh": 7814, "imat": 7815, "gs": 7816, "\u0120nil": 7817, "hs": 7818, "\u0120momento": 7819, "\u0120CL": 7820, "\u0120\u00d0\u00b1": 7821, "\u00d8\u00b2": 7822, "et\u00c5\u0133": 7823, "\u0120Gb": 7824, "zik": 7825, "kara": 7826, "iding": 7827, "\u0120Bad": 7828, "\u0120electr": 7829, "\u0120kona": 7830, "\u0120vac": 7831, "\u0120nut": 7832, "\u00c5\u00abk": 7833, "\u0120commun": 7834, "\u0120rus": 7835, "\u0120sein": 7836, "fil": 7837, "\u0120aix": 7838, "\u0120Hier": 7839, "\u00ce\u00b3\u00ce\u00ba": 7840, "\u00e1\u00ba\u00a5u": 7841, "ebe": 7842, "\u00c3\u00a1\u00c5\u00a1": 7843, "rada": 7844, "\u0120\u00ce\u00a7": 7845, "\u0120IV": 7846, "\u0120\u00d0\u00bc": 7847, "\u0120because": 7848, "\u0120hop": 7849, "\u0120\u00c5\u00a1t": 7850, "\u0120niya": 7851, "\u0120ngo": 7852, "\u0120l\u00c4\u0123kou": 7853, "\u0120pau": 7854, "\u0120persona": 7855, "ysz": 7856, "orta": 7857, "pli": 7858, "\u0120normal": 7859, "\u0120l\u00c3\u00aan": 7860, "ologia": 7861, "\u0120direc": 7862, "\u0120iba": 7863, "\u0120n\u00c3\u00b3i": 7864, "r\u00c3\u0142": 7865, "\u0120ho\u00ca\u00bbol": 7866, "\u0120Temp": 7867, "\u0120eusk": 7868, "\u0120kh\u00c3\u00a1c": 7869, "\u0120.+": 7870, "\u0120sia": 7871, "\u0120elektron": 7872, "\u0120tanto": 7873, "\u00d0\u00be\u00d1\u0122": 7874, "heten": 7875, "\u0120MAR": 7876, "\u0120Cop": 7877, "\u0120P\u00c3\u00a5": 7878, "\u0120Int": 7879, "\u0120buat": 7880, "\u0120klas": 7881, "\u0120wala": 7882, "\u0120BL": 7883, "YA": 7884, "\u0120\u00c3\u00aatre": 7885, "\u0120hij": 7886, "\u0120kurs": 7887, "inti": 7888, "\u0120\u00c4\u0133ang": 7889, "\u0120Kont": 7890, "arten": 7891, "\u0120prob": 7892, "\u0120minim": 7893, "ilig": 7894, "\u0120sammen": 7895, "\u0120dus": 7896, "\u00ce\u00b8\u00ce\u00b5\u00ce\u00af": 7897, "\u00cf\u0126\u00cf\u0127": 7898, "taan": 7899, "nos\u00c5\u00a5": 7900, "\u0120stra": 7901, "\u0120eniyan": 7902, "\u0120hebben": 7903, "\u0120prv": 7904, "\u0120mara": 7905, "gunakan": 7906, "\u0120Ai": 7907, "\u0120aquesta": 7908, "\u0120godt": 7909, "\u0120bi\u00e1\u00ba\u00bft": 7910, "k\u00c3\u00b6": 7911, "itatea": 7912, "\u0120klo": 7913, "\u0120imag": 7914, "hout": 7915, "etsi": 7916, "n\u00c3\u0143m": 7917, "\u00ce\u00b4\u00ce\u00b9": 7918, "plat": 7919, "\u0120febru": 7920, "\u0120esa": 7921, "CO": 7922, "\u0120\u00ce\u00bf\u00cf\u0122\u00ce\u00bf": 7923, "01": 7924, "m\u00c9\u013bt": 7925, "\u0120DV": 7926, "esen": 7927, "\u0120Artik": 7928, "\u00db\u012e": 7929, "\u0120haben": 7930, "zim": 7931, "miss": 7932, "\u0120saa": 7933, "\u0120h\u00c3\u0142nh": 7934, "\u0120jul\u00e1\u00bb\u012f": 7935, "\u0120United": 7936, "tics": 7937, "\u0120tej": 7938, "\u0120industri": 7939, "ik\u00c4\u0123": 7940, "\u0120Isra": 7941, "\u0120fotos": 7942, "\u0120kultur": 7943, "\u0120\u00ca\u00bbana": 7944, "\u0120Apple": 7945, "sung": 7946, "\u0120Untuk": 7947, "\u0120m\u00c3\u00a1y": 7948, "\u0120essere": 7949, "\u0120Els": 7950, "\u0120Media": 7951, "\u00cf\u0126\u00cf\u0123\u00ce\u00bf": 7952, "ffe": 7953, "\u0120zal": 7954, "ijk": 7955, "\u0120kt\u00c3\u00b3ry": 7956, "\u0120fabr": 7957, "\u0120ch\u00c3\u00bang": 7958, "\u0120dokument": 7959, "\u0120url": 7960, "\u00ce\u00af\u00ce\u00b6": 7961, "\u00c3\u00a7e": 7962, "oco": 7963, "f\u00c3\u00b8r": 7964, "\u0120rig": 7965, "\u0120mwaka": 7966, "\u00ce\u013e": 7967, "\u00c9\u013bli": 7968, "under": 7969, "ives": 7970, "\u0120reci": 7971, "kod": 7972, "\u0120jog": 7973, "\u00cf\u0122\u00ce\u00bf\u00cf\u0127": 7974, "\u0120erre": 7975, "\u0120Naz": 7976, "\u00d9\u0133": 7977, "inner": 7978, "\u0120Hen": 7979, "\u00ce\u00b4\u00ce\u00b7": 7980, "\u0120fast": 7981, "utus": 7982, "iyas": 7983, "\u0120jav": 7984, "\u0120sr": 7985, "uj\u00c3\u00ba": 7986, "ords": 7987, "\u0120then": 7988, "HO": 7989, "enzi": 7990, "\u0120made": 7991, "\u00c4\u0141u": 7992, "\u0120dog": 7993, "\u0120ette": 7994, "j\u00c5\u00a1\u00c3\u0143": 7995, "\u0120Andre": 7996, "\u0120Aw": 7997, "count": 7998, "\u0120r\u00c3\u00a9s": 7999, "\u0120Sn": 8000, "\u0120\u00c3\u00b6ver": 8001, "\u00cf\u0123\u00ce\u00b9\u00ce\u00b1": 8002, "\u0120business": 8003, "km": 8004, "ilib": 8005, "\u0120dua": 8006, "\u0120gada": 8007, "\u0120Mungu": 8008, "arn": 8009, "51": 8010, "ises": 8011, "\u00c3\u00a5nd": 8012, "\u0120wit": 8013, "DI": 8014, "\u0120bare": 8015, "\u0120\u00ce\u00bc\u00ce\u00bf\u00cf\u0127": 8016, "\u0120tol": 8017, "\u00c3\u00a1sok": 8018, "dian": 8019, "f\u00c3\u00bc": 8020, "cam": 8021, "unden": 8022, "\u0120\u00c3\u00aent\u00c3\u00a2lnire": 8023, "\u0120w\u00c9\u0136": 8024, "ch\u00c3\u00a9": 8025, "\u0120Mb": 8026, "\u0120sym": 8027, "\u0120EM": 8028, "\u0120BA": 8029, "\u00c5\u0128as": 8030, "\u0120d\u00c3\u00a4r": 8031, "\u0120pagb": 8032, "\u00cf\u0130\u00cf\u0124": 8033, "\u00ce\u00bc\u00ce\u0143\u00ce\u00bd": 8034, "\u0120ari": 8035, "\u0120!\u00e2\u0122\u013f": 8036, "orge": 8037, "\u0120\u00c4\u012fas": 8038, "\u0120Social": 8039, "vien": 8040, "aller": 8041, "\u0120\u00e2\u0126\u00a2": 8042, "\u0120UK": 8043, "vod": 8044, "\u00c3\u00a1ci\u00c3\u00b3": 8045, "\u0120pik": 8046, "\u00c3\u00bcn\u00c3\u00bc": 8047, "\u0120due": 8048, "ecer": 8049, "veis": 8050, "aban": 8051, "\u0120January": 8052, "\u00c4\u0125s": 8053, "\u00c3\u00a5d": 8054, "\u0120l\u00c3\u00a1": 8055, "\u0120bildir": 8056, "\u0120alm": 8057, "\u0120Pel": 8058, "\u0120kuna": 8059, "\u0120\u00e2\u0122\u0130#": 8060, "\u0120\u00e1\u00bb\u012fna": 8061, "ar\u00c3\u00a1": 8062, "\u0120Big": 8063, "lection": 8064, "\u0120bara": 8065, "\u0120Mill": 8066, "\u00c3\u0143c\u00c3\u0143": 8067, "\u00c3\u00a6ng": 8068, "EF": 8069, "\u0120world": 8070, "\u0120\u00ce\u00be\u00ce\u00b5": 8071, "\u0120\u00ce\u013d": 8072, "ANT": 8073, "\u00e1\u00bb\u0129nh": 8074, "\u0120tyd": 8075, "\u0120inici": 8076, "ectiv": 8077, "azon": 8078, "\u0120l\u00c6\u00b0\u00e1\u00bb\u00a3ng": 8079, "\u0120Bit": 8080, "\u0120behand": 8081, "\u0120Green": 8082, "\u0120Ken": 8083, "\u0120hoe": 8084, "\u00d8\u00ae": 8085, "\u00c5\u013bed": 8086, "gest": 8087, "\u0120Wal": 8088, "ells": 8089, "\u0120160": 8090, "\u0120dituz": 8091, "\u0120capac": 8092, "\u0120muito": 8093, "\u0120verk": 8094, "\u00c2\u00a1\u00c2": 8095, "\u00c5\u0128em": 8096, "\u00c3\u00a4m\u00c3\u00a4": 8097, "\u0120vie": 8098, "pun": 8099, "\u00d5\u00b8\u00d6\u0124\u00d5\u00a9\u00d5\u00b5\u00d5\u00b8\u00d6\u0124\u00d5\u00b6": 8100, "\u00e1\u00ba\u00afn": 8101, "\u0120kontakt": 8102, "aru": 8103, "\u0120viss": 8104, "\u0120Ib": 8105, "onav": 8106, "aifa": 8107, "t\u00c4\u00b1": 8108, "\u00c3\u00bcy\u00c3\u00bck": 8109, "\u0120GB": 8110, "\u0120\u00c3\u00baj": 8111, "\u0120Next": 8112, "\u0120hata": 8113, "\u0120cle": 8114, "akti": 8115, "\u0100\u0100\u0100\u0100\u0100\u0100\u0100\u0100\u0100\u0100\u0100\u0100\u0100\u0100\u0100\u0100": 8116, "olen": 8117, "\u0120baina": 8118, "esten": 8119, "\u0120n\u00c3\u00ba": 8120, "\u0120quando": 8121, "\u0120compet": 8122, "n\u00c4\u0123": 8123, "le\u00c5\u0141": 8124, "</": 8125, "idd": 8126, "\u0120stan": 8127, "\u0120siku": 8128, "r\u00c3\u0143": 8129, "\u0120Resta": 8130, "\u0120tes": 8131, "\u0120important": 8132, "\u00d5\u00b8\u00d6\u0122": 8133, "an\u00c4\u00b1n": 8134, "\u0120great": 8135, "\u0120l\u00e1\u00bb\u013d": 8136, "heim": 8137, "rog": 8138, "\u0120\u00c3\u0137": 8139, "\u0120v\u00c3\u00a9g": 8140, "\u0120ph\u00c3\u00a1t": 8141, "\u0120Mobile": 8142, "\u0120Power": 8143, "\u0120manawa": 8144, "\u0120k\u00e1\u00bb\u012f": 8145, "uale": 8146, "\u0120\u00ce\u0143\u00cf\u0129\u00ce\u00b5\u00ce\u00b9": 8147, "\u0120interess": 8148, "\u00c3\u00a4ll\u00c3\u00a4": 8149, "\u0120trabal": 8150, "\u0120\u00c3\u00a7\u00c4\u00b1x": 8151, "\u0120oy": 8152, "\u0120absol": 8153, "\u0120kunne": 8154, "\u0120hiz": 8155, "orit": 8156, "\u0120apart": 8157, "\u00e1\u00ba\u00a3m": 8158, "\u0120hob": 8159, "\u0120timp": 8160, "\u0120muz": 8161, "\u0120vasta": 8162, "atti": 8163, "stanbul": 8164, "\u0120\u00e1\u00ba\u00b9r\u00e1\u00bb\u012f": 8165, "\u0120haz\u00c4\u00b1r": 8166, "\u012091": 8167, "\u00c3\u00a1\u00c5\u00be": 8168, "\u0120di\u00e1\u00ba\u00b9": 8169, "\u0120South": 8170, "\u0120Saint": 8171, "\u0120\u00c4\u00b0n": 8172, "\u0120Nag": 8173, "\u0120kand": 8174, "\u0120Ten": 8175, "\u00c3\u00b3a": 8176, "\u0120ques": 8177, "\u0120through": 8178, "\u0120s\u00c3\u00bcr": 8179, "\u0120n\u00c3\u00a1s": 8180, "\u0120ort": 8181, "\u0120Bag": 8182, "\u0120\u00c5\u00bd": 8183, "\u00c3\u00b8b": 8184, "uy\u00c3\u00aan": 8185, "\u00cf\u0125\u00cf\u012b": 8186, "\u0120zem": 8187, "lands": 8188, "\u0120jej": 8189, "onto": 8190, "\u0120poate": 8191, "\u0120him": 8192, "\u0120itali": 8193, "\u0120arch": 8194, "\u00c9\u013bc\u00c9\u013bk": 8195, "arik": 8196, "\u0120Sun": 8197, "\u0120ox": 8198, "ota": 8199, "\u0120Mem": 8200, "\u0120apl": 8201, "\u0120With": 8202, "\u0120image": 8203, "\u0120Prev": 8204, "\u0120Mc": 8205, "\u0120c\u00e1\u00ba\u00a7n": 8206, "innen": 8207, "ayon": 8208, "\u0120S\u00c3\u00a5": 8209, "waju": 8210, "jaan": 8211, "\u0120Nas": 8212, "\u0120par\u00c3\u00ab": 8213, "\u0120paggamot": 8214, "ishwa": 8215, "\u0120Stand": 8216, "\u0120loko": 8217, "\u0120sme": 8218, "tare": 8219, "alaxy": 8220, "\u0120pola": 8221, "\u00ce\u00be\u00ce\u00b7": 8222, "\u0120Test": 8223, "\u00cf\u0123\u00cf\u0129": 8224, "\u00d5\u00b8\u00d5\u00be": 8225, "char": 8226, "\u0120yal": 8227, "\u0120University": 8228, "\u0120Meng": 8229, "back": 8230, "\u0120\":{\"": 8231, "erna": 8232, "\u0120barn": 8233, "\u0120bahwa": 8234, "etty": 8235, "\u0120pied": 8236, "\u0120opin": 8237, "\u0120\u00c4\u00b1n": 8238, "\u0120k\u00c9\u013d": 8239, "onna": 8240, "SH": 8241, "edes": 8242, "\u0120hely": 8243, "\u0120alo": 8244, "\u0120tr\u00c6\u00b0\u00e1\u00bb\u013dc": 8245, "\u0120Porn": 8246, "ury": 8247, "\u0120mut": 8248, "jum": 8249, "\u0120140": 8250, "apon": 8251, "osc": 8252, "\u0120iesp": 8253, "\u0120BM": 8254, "\u0120size": 8255, "\u0120Nik": 8256, "ibile": 8257, "uning": 8258, "\u0120suk": 8259, "chte": 8260, "\u00c9\u013bnin": 8261, "zn\u00c3\u00a1l": 8262, "\u0120zgj": 8263, "\u0120suh": 8264, "\u0120dahil": 8265, "\u0120Gran": 8266, "\u00c3\u00a1nak": 8267, "\u0120Pin": 8268, "\u0120TL": 8269, "pak": 8270, "owej": 8271, "\u0120nett": 8272, "\u0120esper": 8273, "\u0120Beach": 8274, "\u0120\u00d9\u0123\u00d9\u012c": 8275, "\u0120bac": 8276, "\u0120Bul": 8277, "\u0120tend": 8278, "\u0120blo": 8279, "\u0120Abd": 8280, "itti": 8281, "\u0120regul": 8282, "\u0120abe": 8283, "ar\u00c4\u00b1": 8284, "owanie": 8285, "\u0120haholo": 8286, "ezet": 8287, "\u0120facil": 8288, "\u0120Kad": 8289, "\u0120Meh": 8290, "\u0120Dre": 8291, "\u0120ond": 8292, "\u0120nh\u00e1\u00ba\u0143n": 8293, "utin": 8294, "PA": 8295, "\u0120Tour": 8296, "\u0120Sist": 8297, "\u0120USB": 8298, "\u0120\u00d5\u0122": 8299, "\u0120Doc": 8300, "\u0120h\u00c3\u00a4n": 8301, "ous": 8302, "\u0120aktu": 8303, "\u0120iw": 8304, "\u0120b\u00c3\u00b8r": 8305, "\u0120siya": 8306, "\u0120azt": 8307, "erer": 8308, "\u00c3\u00a9rie": 8309, "avat": 8310, "\u0120includ": 8311, "\u0120ami": 8312, "\u0120AZ": 8313, "amiento": 8314, "\u0120brug": 8315, "ecu": 8316, "\u0120general": 8317, "\u0120Apart": 8318, "\u0120\u00e8": 8319, "ject": 8320, "k\u00c3\u00a4": 8321, "\u0120fix": 8322, "\u0120durch": 8323, "\u0120Uni": 8324, "91": 8325, "\u0120hall": 8326, "uak": 8327, "ahkan": 8328, "\u0120py": 8329, "san": 8330, "\u0120tuy": 8331, "\u0120International": 8332, "\u0120worm": 8333, "\u0120\u00c4\u0133\u00c3\u00a2y": 8334, "\u0120raz": 8335, "ologi": 8336, "ife": 8337, "liche": 8338, "zaile": 8339, "\u0120cette": 8340, "\u0120130": 8341, "\u0120Pil": 8342, "vv": 8343, "\u0120\u00d5\u00a1\u00d5": 8344, "\u0120Grup": 8345, "eral": 8346, "work": 8347, "\u0120tipo": 8348, "hak": 8349, "\u0120kuw": 8350, "l\u00c4\u0123": 8351, "\u0120popular": 8352, "set": 8353, "\u0120seng": 8354, "sul": 8355, "\u0120style": 8356, "\u0120esk": 8357, "iladi": 8358, "\u0120tung": 8359, "\u0120Alt": 8360, "\u0120smart": 8361, "ektiv": 8362, "\u0120\u00c3\u00b6lk": 8363, "\u0120comer": 8364, "\u0120tha": 8365, "\u0120n\u00c3\u0142o": 8366, "\u0120tamb\u00c3\u00a9": 8367, "\u0120complet": 8368, "\u0120clas": 8369, "ruc": 8370, "ples": 8371, "kes": 8372, "\u0120Bill": 8373, "obre": 8374, "\u0120perlu": 8375, "\u0120Natur": 8376, "\u0120wi\u00c4\u013b": 8377, "\u0120support": 8378, "\u0120n\u00c4\u0125ng": 8379, "cep": 8380, "\u0120applic": 8381, "\u0120dunia": 8382, "\u0120serta": 8383, "\u0120Spr": 8384, "\u0120Maret": 8385, "\u0120vind": 8386, "\u00c4\u00abga": 8387, "\u0120gw": 8388, "ugi": 8389, "\u0120nyt": 8390, "jm": 8391, "\u0120laz": 8392, "\u00d5\u00b8\u00d5\u00b2": 8393, "86": 8394, "\u0120tentang": 8395, "\u0120Autor": 8396, "band": 8397, "\u0120tamb\u00c3\u00a9m": 8398, "alitat": 8399, "\u00d0\u00b5\u00d1\u0122": 8400, "\u0120Via": 8401, "eo": 8402, "\u0120niin": 8403, "\u0120egiten": 8404, "\u0120direct": 8405, "\u0120rod": 8406, "elah": 8407, "\u0120life": 8408, "prod": 8409, "\u0120Latvijas": 8410, "\u00d5\u00a5\u00d5\u00bf": 8411, "\u0120\u00c2\u00ba": 8412, "emy": 8413, "\u0120must": 8414, "sin": 8415, "\u0120such": 8416, "\u0120\u00ce\u00ba\u00ce\u00b1\u00cf\u0126\u00ce\u00ac": 8417, "usz": 8418, "uari": 8419, "arekin": 8420, "ables": 8421, "r\u00c3\u00b3": 8422, "\u0120\u00c3\u012d": 8423, "amas": 8424, "ov\u00c3\u00bdch": 8425, "\u0120%.": 8426, "96": 8427, "t\u00c3\u00a4": 8428, "\u0120lil": 8429, "emento": 8430, "\u00e0\u00b9": 8431, "bi\u00c3\u00a9n": 8432, "\u0120pand": 8433, "\u0120Ide": 8434, "\u0120Een": 8435, "\u0120read": 8436, "cze": 8437, "jed": 8438, "aker": 8439, "\u0120t\u00c3\u00a4n": 8440, "\u0120tjet": 8441, "\u0120baba": 8442, "\u0120Fore": 8443, "\u0120yen": 8444, "\u0120\u00c3\u00a1t": 8445, "\u0120temps": 8446, "itut": 8447, "\u0120zor": 8448, "\u0120press": 8449, "\u0120pis": 8450, "\u0120Kul": 8451, "93": 8452, "\u0120\u00d9\u0125": 8453, "\u0120t\u00c6\u00b0": 8454, "ursos": 8455, "\u0120kter\u00c3\u00a9": 8456, "\u0120FOR": 8457, "\u0120tapi": 8458, "LI": 8459, "\u0120educ": 8460, "\u0120\u00c3\u00a1s": 8461, "\u00ce\u00bf\u00cf\u0124": 8462, "\u0120bija": 8463, "\u0120Cara": 8464, "\u0120nchi": 8465, "elling": 8466, "\u0120View": 8467, "su": 8468, "\u0120empresa": 8469, "owania": 8470, "opi": 8471, "ening": 8472, "Advisor": 8473, "\u0120m\u00e1\u00ba\u00b7t": 8474, "\u0120przed": 8475, "92": 8476, "FF": 8477, "\u00ce\u00af\u00ce\u00b5\u00cf\u0124": 8478, "ot\u00c4\u0123": 8479, "\u0120Ft": 8480, "\u00d0\u00b5\u00d0\u00bd": 8481, "ampa": 8482, "\u0120Dub": 8483, "cios": 8484, "\u0120b\u00e1\u00bb\u013b": 8485, "\u0120tug": 8486, "dev": 8487, "\u0120mbi": 8488, "unday": 8489, "97": 8490, "\u0120kamu": 8491, "\u00c4\u0123rt": 8492, "GG": 8493, "\u0120forum": 8494, "\u0120Key": 8495, "teur": 8496, "atzeko": 8497, "\u0120\u00c3\u00a9p": 8498, "\u0120rag": 8499, "\u00ef\u00bc": 8500, "undu": 8501, "\u0120dov": 8502, "\u0120bruk": 8503, "\u0120is\u00c9\u013b": 8504, "ingine": 8505, "\u0120termin": 8506, "aber": 8507, "mann": 8508, "uktur": 8509, "\u0120hes": 8510, "ollo": 8511, "stad": 8512, "\u0120viet": 8513, "\u00c4\u00b1ld\u00c4\u00b1": 8514, "\u0120\u00ce\u00b4\u00ce\u00b7": 8515, "\u0120\u00ca\u00bbA": 8516, "\u00c5\u00afm": 8517, "\u0120a\u00c4\u0141": 8518, "\u0120\u00c9\u013bm": 8519, "\u0120FR": 8520, "\u0120ilg": 8521, "\u0120gab": 8522, "\u0120ambayo": 8523, "\u0120Ps": 8524, "\u0120pamoja": 8525, "n\u00c3\u00bdm": 8526, "\u0120andere": 8527, "amise": 8528, "\u0120optim": 8529, "\u00c3\u00a7ek": 8530, "\u0120meget": 8531, "isho": 8532, "antal": 8533, "\u0120qol": 8534, "eman": 8535, "ebi": 8536, "\u0120\u00ef\u00bf\u00bd\u00ef\u00bf\u00bd\u00ef\u00bf\u00bd\u00ef\u00bf\u00bd\u00ef\u00bf\u00bd\u00ef\u00bf\u00bd\u00ef\u00bf\u00bd\u00ef\u00bf\u00bd\u00ef\u00bf\u00bd\u00ef\u00bf\u00bd\u00ef\u00bf\u00bd\u00ef\u00bf\u00bd": 8537, "\u0120paci": 8538, "\u0120gara": 8539, "\u0120Auto": 8540, "iji": 8541, "\u0120alan": 8542, "\u0120Ana": 8543, "\u0120ch\u00e1\u00ba\u00a5t": 8544, "\u00d8\u00b6": 8545, "\u0120ung": 8546, "\u0120muka": 8547, "jekt": 8548, "\u0120\u00d5\u00a4": 8549, "otu": 8550, "\u00c3\u00a1val": 8551, "cin": 8552, "\u0120t\u00c3\u00b6\u00c3\u00b6": 8553, "\u0120duen": 8554, "\u0120ba\u00c4\u0141l\u00c4\u00b1": 8555, "\u0120Jam": 8556, "\u00cf\u0126\u00cf\u012b": 8557, "urde": 8558, "lichen": 8559, "\u0120lem": 8560, "nsk": 8561, "\u0120desta": 8562, "lev": 8563, "\u0120PP": 8564, "\u0120importante": 8565, "\u0120Microsoft": 8566, "chan": 8567, "cket": 8568, "\u0120ktor\u00c3\u00a9": 8569, "\u0120Sev": 8570, "izione": 8571, "yabr": 8572, "\u0120Light": 8573, "\u00c3\u00bcb": 8574, "\u0120France": 8575, "\u00cf\u0126\u00ce\u00b7\u00cf\u0126\u00ce\u00b1": 8576, "\u0120Cho": 8577, "\u00e1\u00ba\u00b9p": 8578, "baik": 8579, "\u0120desenvol": 8580, "\u0120where": 8581, "\u0120nghi\u00e1\u00bb\u0129p": 8582, "\u0120mtu": 8583, "\u0120Sav": 8584, "iej": 8585, "\u0120oso": 8586, "\u0120menggunakan": 8587, "\u0120King": 8588, "\u0120wees": 8589, "\u0120Pad": 8590, "\u0120Ich": 8591, "hav": 8592, "\u0120Reply": 8593, "borg": 8594, "\u0120partner": 8595, "at\u00c3\u00b3": 8596, "\u0120pr\u00c3\u00a1": 8597, "\u0120maika\u00ca\u00bbi": 8598, "\u0120iste": 8599, "\u0120dak": 8600, "\u0120aplik": 8601, "\u0120soos": 8602, "\u0120mendapat": 8603, "fall": 8604, "\u0120t\u00e1\u00ba\u00b9": 8605, "\u0120Twitter": 8606, "KK": 8607, "l\u00c3\u00a9": 8608, "unoa": 8609, "ekom": 8610, "\u0120Ann": 8611, "ffer": 8612, "\u0120Muse": 8613, "\u0120push": 8614, "arna": 8615, "\u0120t\u00e1\u00bb\u00b1": 8616, "allo": 8617, "\u0120SC": 8618, "agb": 8619, "\u0120\u00d5\u00ba": 8620, "\u0120should": 8621, "\u0120appro": 8622, "\u0120xu\u00e1\u00ba\u00a5t": 8623, "iyle": 8624, "\u0120todas": 8625, "\u0120d\u00c3\u00a2n": 8626, "\u0120Malaysia": 8627, "itzen": 8628, "\u0120gir": 8629, "obb": 8630, "\u0120sai": 8631, "\u0120Long": 8632, "ints": 8633, "\u0120municip": 8634, "BO": 8635, "\u0120kdy": 8636, "\u0120shqiptar": 8637, "\u0120mt": 8638, "\u00d5\u00b8\u00d6\u0122\u00d5": 8639, "r\u00c3\u00a9": 8640, "\u0120vair": 8641, "\u0120dere": 8642, "endre": 8643, "\u0120Videos": 8644, "\u0120Okt": 8645, "JA": 8646, "\u0120right": 8647, "IST": 8648, "\u0120\u00c3\u00ba\u00c4\u012f": 8649, "\u0120\u00c3\u00a9ta": 8650, "\u0120span": 8651, "ilde": 8652, "\u0120stop": 8653, "\u00d5\u00a4": 8654, "ging": 8655, "\u0120vr": 8656, "\u0120jos": 8657, "\u0120m\u00c5\u00b1": 8658, "sg": 8659, "\u0120motiv": 8660, "\u0120kontrol": 8661, "\u0120\u00d1\u0124": 8662, "\u0120profession": 8663, "\u0120Fot": 8664, "ad\u00c9\u013b": 8665, "\u0120July": 8666, "\u00d5\u00a1\u00d5\u00ae": 8667, "ibar": 8668, "\u0120pr\u00c3\u00b3": 8669, "erior": 8670, "\u00d0\u00ba\u00d0\u00b8": 8671, "lop": 8672, "ways": 8673, "\u0120hosp": 8674, "\u0120vies": 8675, "\u0120noti": 8676, "amy": 8677, "\u0120estat": 8678, "\u0120equip": 8679, "\u0120ena": 8680, "\u0120moi": 8681, "\u0120Rem": 8682, "\u0120act": 8683, "\u00e4\u00ba": 8684, "\u0120mening": 8685, "akas": 8686, "\u0120software": 8687, "\u0120alles": 8688, "\u0120wiki": 8689, "\u0120Micha": 8690, "\u0120k\u00c3\u00bc": 8691, "Hz": 8692, "\u0120vet\u00c3\u00abm": 8693, "jos": 8694, "ahar": 8695, "lelo": 8696, "\u0120c\u00c3\u00b4": 8697, "\u0120October": 8698, "weg": 8699, "\u0120tuk": 8700, "\u0120juu": 8701, "fest": 8702, "\u00c6\u00b0\u00e1\u00bb\u013dng": 8703, "\u0120\u00e2\u0122\u00a6.": 8704, "ebb": 8705, "alim": 8706, "\u0120minist": 8707, "\u0120key": 8708, "\u0120disse": 8709, "\u0120Dol": 8710, "ouw": 8711, "\u0120hilo": 8712, "\u0120file": 8713, "\u0120aks": 8714, "rift": 8715, "\u0120pasi": 8716, "vit": 8717, "\u0120Over": 8718, "\u0120Au": 8719, "anas": 8720, "erson": 8721, "\u0120enn": 8722, "\u0120\u00c3\u00a1n": 8723, "\u0120as\u00c3\u0143": 8724, "\u0120crit": 8725, "velop": 8726, "\u0120Vit": 8727, "lement": 8728, "\u0120nagy": 8729, "\u0120Grand": 8730, "lek": 8731, "\u0120v\u00c4\u0135l": 8732, "atuur": 8733, "\u0120disa": 8734, "\u0120Jah": 8735, "\u0120\u00c5\u012f": 8736, "table": 8737, "il\u00c9\u013b": 8738, "chilar": 8739, "cent": 8740, "\u00cf\u0125\u00cf\u0126\u00ce\u00bf": 8741, "\u00cf\u0122\u00ce\u00b5": 8742, "\u0120Anton": 8743, "\u0120Kui": 8744, "\u0120nivel": 8745, "\u0120Ud": 8746, "\u0120\u00de": 8747, "\u0120\u00ce\u00b5\u00cf\u0127": 8748, "\u0120compar": 8749, "\u0120\u00ce\u00b1\u00ce\u00bb\u00ce\u00bb\u00ce\u00ac": 8750, "\u0120nl": 8751, "anden": 8752, "\u0120Yo": 8753, "\u0120ve\u00c4\u00be": 8754, "iss\u00c3\u00a4": 8755, "\u0120FC": 8756, "\u0120original": 8757, "\u0120nal": 8758, "sh\u00c3\u00abm": 8759, "\u0120\u00c3\u00a9n": 8760, "\u0120December": 8761, "\u0120sas": 8762, "\u0120DO": 8763, "\u00c4\u0135tu": 8764, "\u0120zna": 8765, "\u0120onde": 8766, "\u0120oct": 8767, "END": 8768, "\u0120faire": 8769, "plan": 8770, "menta": 8771, "UC": 8772, "\u0120guzti": 8773, "\u00c3\u00b3j": 8774, "\u0120jug": 8775, "z\u00c3\u00a9s": 8776, "lor": 8777, "och": 8778, "\u0120adol": 8779, "imen": 8780, "isie": 8781, "\u0120taraf": 8782, "\u0120February": 8783, "\u0120finns": 8784, "\u0120stad": 8785, "\u0120Casa": 8786, "\u0120Gay": 8787, "\u0120b\u00c3\u00a1n": 8788, "\u0120Mask": 8789, "wid": 8790, "\u0120v\u00c3\u00ac": 8791, "\u0120ED": 8792, "\u00e1\u00ba\u0143y": 8793, "\u0120puj": 8794, "\u00e1\u00ba\u00a1ch": 8795, "irus": 8796, "\u0120arri": 8797, "l\u00c4\u00b1\u00c4\u0141\u00c4\u00b1": 8798, "cej": 8799, "\u0120mez": 8800, "uls": 8801, "\u0120UR": 8802, "\u0120Tod": 8803, "\u0120ser\u00c3\u00a1": 8804, "\u0120MS": 8805, "\u0120look": 8806, "\u0120sov": 8807, "dagi": 8808, "\u00c5\u00a3ii": 8809, "ieb": 8810, "\u0120Ses": 8811, "\u0120salah": 8812, "chts": 8813, "omain": 8814, "\u0120mate": 8815, "wei": 8816, "\u0120cou": 8817, "\u0120HP": 8818, "antz": 8819, "87": 8820, "\u0120dif": 8821, "\u0120traba": 8822, "\u0120o\u00ca\u00bb": 8823, "\u0120Nike": 8824, "\u0120Auf": 8825, "\u00c8\u013die": 8826, "\u0120PH": 8827, "\u0120kanyang": 8828, "\u0120take": 8829, "oman": 8830, "zd": 8831, "da\u00c5\u0141": 8832, "\u00cf\u0127\u00ce\u00bd": 8833, "\u0120kerana": 8834, "\u0120j\u00c3\u00a4l": 8835, "\u00ce\u00b8\u00ce\u0143": 8836, "hj": 8837, "EP": 8838, "\u0120aye": 8839, "aian": 8840, "ried": 8841, "\u0120t\u00c5\u00a1a": 8842, "\u0120Const": 8843, "\u0120dint": 8844, "irik": 8845, "\u0120yhte": 8846, "\u00d7\u013b": 8847, "\u0120ry": 8848, "\u0120agar": 8849, "ojen": 8850, "\u0120g\u00c3\u00b6st": 8851, "\u0120could": 8852, "ival": 8853, "obs": 8854, "\u0120\u00cf\u0122\u00cf\u0123\u00cf\u012e": 8855, "\u0120\u00d0\u00b4": 8856, "\u0120isti": 8857, "aham": 8858, "\u0120gian": 8859, "\u00e1\u00ba\u00afng": 8860, "\u0120').": 8861, "ORT": 8862, "ogen": 8863, "\u0120T\u00c3\u00bcrkiye": 8864, "\u00c4\u0125t": 8865, "z\u00c4\u013b": 8866, "\u0120search": 8867, "\u0120besk": 8868, "\u0120][": 8869, "\u00ce\u00a9": 8870, "~~": 8871, "\u0120despre": 8872, "\u0120viel": 8873, "\u0120mukha": 8874, "\u0120jadi": 8875, "\u00c5\u012d": 8876, "\u0120price": 8877, "\u0120hir": 8878, "94": 8879, "gas": 8880, "IX": 8881, "\u0120fins": 8882, "\u0120],": 8883, "\u0120problema": 8884, "\u0120cele": 8885, "\u0120mener": 8886, "\u0120plas": 8887, "\u0120histori": 8888, "\u0120hjem": 8889, "\u0120mari": 8890, "akter": 8891, "\u0120liik": 8892, "\u0120Mark": 8893, "\u0120still": 8894, "\u0120\u00cf\u0125\u00cf\u0126\u00ce\u00bf\u00ce\u00bd": 8895, "n\u00c3\u0143k": 8896, "\u0120kuni": 8897, "\u0120Vel": 8898, "\u0120huk": 8899, "\u0120Kel": 8900, "\u0120viol": 8901, "vest": 8902, "\u0120tikai": 8903, "ilang": 8904, "onta": 8905, "pal": 8906, "\u0120cart": 8907, "sky": 8908, "\u0120wale": 8909, "\u0120coll": 8910, "\u0120Produk": 8911, "nin": 8912, "\u0120pagka": 8913, "\u00c8\u013d\u00c4\u0125": 8914, "r\u00c3\u00bcn": 8915, "isel": 8916, "tiu": 8917, "\u0120human": 8918, "\u0120Jehofa": 8919, "\u0120yay": 8920, "\u0120img": 8921, "\u0120English": 8922, "\u0120team": 8923, "izio": 8924, "\u0120tiek": 8925, "\u0120m\u00c3\u00a9": 8926, "wood": 8927, "\u0120vent": 8928, "\u0120-,": 8929, "ense": 8930, "\u0120alap": 8931, "\u0120Insta": 8932, "\u00c5\u0124\u00c4\u0127": 8933, "\u0120gerek": 8934, "orat": 8935, "zal": 8936, "\u0120kinh": 8937, "ungi": 8938, "\u0120Como": 8939, "\u0120comme": 8940, "\u0120Att": 8941, "epat": 8942, "\u0120900": 8943, "\\/": 8944, "\u0120wszyst": 8945, "\u0120Sampai": 8946, "\u0120\u00ce\u00b8\u00ce\u0143": 8947, "ights": 8948, "voor": 8949, "84": 8950, "\u0120zer": 8951, "\u0120vi\u00c5\u0128": 8952, "\u0120fur": 8953, "\u0120t\u00c3\u00b6bb": 8954, "\u0120amal": 8955, "\u0120Seri": 8956, "orden": 8957, "umen": 8958, "\u0120Log": 8959, "\u0120kunnen": 8960, "\u0120Rap": 8961, "\u0120fotograf": 8962, "\u0120Nad": 8963, "\u0120t\u00c3\u00a1c": 8964, "\u0120uso": 8965, "nolo": 8966, "\u0120yii": 8967, "\u0120ose": 8968, "\u0120\u00cf\u0125\u00cf\u0126\u00ce\u00b9\u00cf\u0124": 8969, "\u0120\u00ee": 8970, "\u0120QU": 8971, "owany": 8972, "umba": 8973, "\u0120\u00ce\u013c\u00ce\u00b1": 8974, "\u0120125": 8975, "\u0120\u00c3\u0142s": 8976, "\u0120comment": 8977, "\u00c5\u0142": 8978, "\u0120Fern": 8979, "tav": 8980, "\u0120\u00c4\u0125": 8981, "\u0120saan": 8982, "\u0120Nak": 8983, "\u0120custom": 8984, "\u0120\u00ce\u012a": 8985, "\u0120down": 8986, "\u00c3\u00b8k": 8987, "\u0120qiy": 8988, "83": 8989, "\u0120mys": 8990, "\u0120ell": 8991, "\u0120menos": 8992, "\u0120enk": 8993, "\u0120hvis": 8994, "\u0120inten": 8995, "\u00c5\u0124u": 8996, "hv": 8997, "\u0120Pour": 8998, "\u0120\u00c4\u0133i\u00e1\u00bb\u0125m": 8999, "\u0120Nic": 9000, "\u0120%,": 9001, "it\u00c4\u0123": 9002, "\u0120\u00c5\u0141\u00c9\u013b": 9003, "\u0120punt": 9004, "\u0120nchini": 9005, "\u0120mir\u00c3\u00ab": 9006, "\u0120euros": 9007, "\u0120Maj": 9008, "\u0120ore": 9009, "rol": 9010, "mad": 9011, "nad": 9012, "\u0120limit": 9013, "\u0120Amerika": 9014, "\u0120v\u00c5\u00a1e": 9015, "oty": 9016, "\u0120Cur": 9017, "\u0120strateg": 9018, "p\u00c3\u00a4": 9019, "\u0120N\u00c3\u00a4": 9020, "ac\u00c4\u0125": 9021, "\u0120OS": 9022, "\u00cf\u012c": 9023, "ishga": 9024, "\u0120oju": 9025, "\u0120sebelum": 9026, "n\u00c3\u0143ho": 9027, "forman": 9028, "\u0120Ret": 9029, "\u0120clar": 9030, "ingu": 9031, "ongan": 9032, "\u0120\u00d5\u00a3": 9033, "\u0120duten": 9034, "imiento": 9035, "onas": 9036, "\u0120yat": 9037, "\u0120Plat": 9038, "\u0120gur": 9039, "\u0120ekstra": 9040, "\u0120ti\u00e1\u00bb\u0123n": 9041, "akk": 9042, "\u0120mav": 9043, "\u0120\u00c4\u012fo": 9044, "\u0120k\u00e1\u00ba\u00bft": 9045, "\u0120M\u00c3\u00bc": 9046, "\u00e0\u00b3": 9047, "x_": 9048, "\u0120Muj": 9049, "\u0120Num": 9050, "\u0120ak\u00e1\u00bb\u012f": 9051, "\u0120valor": 9052, "\u0120nay": 9053, "\u0120automat": 9054, "sil": 9055, "irin": 9056, "\u0120return": 9057, "\u0120Mis": 9058, "lou": 9059, "\u0120case": 9060, "\u0120SS": 9061, "\u0120feela": 9062, "win": 9063, "\u0120acord": 9064, "zio": 9065, "\u0120semb": 9066, "\u0120promo": 9067, "ambar": 9068, "\u0120t\u00e1\u00ba\u00bf": 9069, "\u01201999": 9070, "\u00c3\u00a7os": 9071, "\u0120own": 9072, "\u0120\u00e2\u0122\u012d\u00e2\u0122\u012d": 9073, "dez": 9074, "\u0120OK": 9075, "px": 9076, "\u00cf\u0127\u00cf\u0125": 9077, "\u0120White": 9078, "\u0120Bak\u00c4\u00b1": 9079, "erty": 9080, "\u0120host": 9081, "umiem": 9082, "imana": 9083, "iliz": 9084, "\u0120t\u00c3\u00a2m": 9085, "\u0120Data": 9086, "obili": 9087, "\u0120standard": 9088, "\u0120\u00ce\u013a": 9089, "\u00e1\u00ba\u00a3nh": 9090, "\u0120gjith\u00c3\u00ab": 9091, "ibliote": 9092, "saj": 9093, "\u00c4\u012fn\u00c3\u00a9": 9094, "\u0120Spa": 9095, "ELL": 9096, "elin": 9097, "\u0120asos": 9098, "\u0120esim": 9099, "\u0120fed": 9100, "\u0120\u00d8\u00b3": 9101, "\u0120demok": 9102, "pm": 9103, "\u0120daripada": 9104, "\u0120Ball": 9105, "ists": 9106, "\u0120huy": 9107, "\u0120Vor": 9108, "\u0120Feder": 9109, "stup": 9110, "\u0120amely": 9111, "\u0120territ": 9112, "\u0120bata": 9113, "\u0120Feb": 9114, "\u0120Ext": 9115, "\u0120AV": 9116, "anday": 9117, "\u0120vre": 9118, "\u0120l\u00c3\u00b6": 9119, "\u0120svar": 9120, "\u0120ph\u00c3\u0143": 9121, "\u0120primer": 9122, "\u0120700": 9123, "ERS": 9124, "\u00e1\u00ba\u00a1c": 9125, "\u0120Itali": 9126, "\u00d9\u0126\u00d9\u012b": 9127, "\u0120bug": 9128, "\u0120Zo": 9129, "\u0120t\u00c5\u00a1e": 9130, "\u0120indic": 9131, "fit": 9132, "\u0120House": 9133, "\u00cf\u012a\u00ce\u00b7": 9134, "\u0120lite": 9135, "\u0120yana": 9136, "\u0120k\u00c3\u00b6nnen": 9137, "\u0120thi\u00e1\u00ba\u00bft": 9138, "\u0120idea": 9139, "\u0120melakukan": 9140, "awi": 9141, "j\u00c4\u0127c": 9142, "aksi": 9143, "orts": 9144, "qq": 9145, "\u0120\u00c4\u00b0\u00c5\u0141": 9146, "\u0120v\u00c4\u013d": 9147, "\u0120pole": 9148, "\u0120DA": 9149, "pin": 9150, "\u0120Rel": 9151, "\u0120th\u00e1\u00ba\u00a5y": 9152, "acja": 9153, "\u0120fas": 9154, "unoa\u00c8\u013bte": 9155, "\u0120adv": 9156, "\u0120Forex": 9157, "fal": 9158, "\u0120access": 9159, "\u00cf\u0123\u00ce\u00b5\u00cf\u0124": 9160, "iago": 9161, "\u0120dum": 9162, "eret": 9163, "bare": 9164, "akuwa": 9165, "\u0120gor": 9166, "\u0120jau": 9167, "\u0120Tall": 9168, "\u00e2\u0138": 9169, "\u0120mess": 9170, "\u0120vlast": 9171, "\u0120b\u00e1\u00ba\u00b1ng": 9172, "\u0120Bib": 9173, "\u0120v\u00c3\u00a5": 9174, "idupan": 9175, "\u0120qad": 9176, "\u0120\"]": 9177, "\u0120zas": 9178, "\u0120d\u00c3\u0143": 9179, "ohol": 9180, "hit": 9181, "\u0120rich": 9182, "fac": 9183, "\u0120gat": 9184, "\u0120eleg": 9185, "\u0120wali": 9186, "rel": 9187, "gem": 9188, "\u0120ets": 9189, "\u0120fait": 9190, "\u0120zit": 9191, "stu": 9192, "\u0120direk": 9193, "\u00ce\u00a5": 9194, "acak": 9195, "\u0120to\u00c3\u0142n": 9196, "\u0120seorang": 9197, "ahala": 9198, "ART": 9199, "l\u00c3\u0143": 9200, "aps": 9201, "\u0120area": 9202, "\u0120Asi": 9203, "\u0120Lip": 9204, "\u0120ph\u00c3\u00b2ng": 9205, "akah": 9206, "\u0120kro": 9207, "\u0120Roma": 9208, "\u0120at\u00c3\u00ab": 9209, "\u0120side": 9210, "ici\u00c3\u00b3": 9211, "fon": 9212, "entos": 9213, "\u0120Hay": 9214, "ikas": 9215, "\u0120Blue": 9216, "\u00c3\u00a1sz": 9217, "\u0120nahi": 9218, "\u0120v\u00c5\u00a1et": 9219, "arri": 9220, "\u0120mud": 9221, "\u0120wys": 9222, "\u0120ch\u00e1\u00bb\u00a7": 9223, "\u0120\u00ce\u0143\u00cf\u0129": 9224, "\u00c3\u00a6re": 9225, "\u0120\u00c4\u0133\u00e1\u00bb\u0133i": 9226, "\u0120p\u00c3\u00a4r": 9227, "\u0120cultur": 9228, "\u0120b\u00e1\u00ba\u00a3o": 9229, "\u0120t\u00e1\u00bb\u0133t": 9230, "uwe": 9231, "\u0120ti\u00e1\u00ba\u00bfp": 9232, "\u0120pig": 9233, "\u0120auk": 9234, "\u0120muda": 9235, "\u0120igen": 9236, "\u0120c_": 9237, "\u0120Wir": 9238, "\u0120ero": 9239, "arse": 9240, "\u0120cla": 9241, "\u0120foyd": 9242, "lijk": 9243, "\u0120keluar": 9244, "\u00c3\u00a1rios": 9245, "\u0120\u00c4\u0133\u00c6\u00b0\u00e1\u00bb\u013fng": 9246, "\u0120gez": 9247, "\u0120emas": 9248, "\u0120mij": 9249, "\u0120komm": 9250, "\u0120conte": 9251, "\u0120Say": 9252, "ikus": 9253, "alat": 9254, "\u0120z\u00c3\u00a1k": 9255, "\u0120yr": 9256, "l\u00c9\u013b\u00c5\u0141": 9257, "zek": 9258, "\u0120prepar": 9259, "\u0120dk": 9260, "book": 9261, "\u00c3\u00bdmi": 9262, "isko": 9263, "\u0120hi\u00e1\u00bb\u0129u": 9264, "\u0120Prim": 9265, "Hot": 9266, "sku": 9267, "\u0120wyk": 9268, "\u0120sek\u00c3\u00a4": 9269, "elisoa": 9270, "iles": 9271, "enten": 9272, "ection": 9273, "\u0120t\u00c4\u013d": 9274, "\u0120abi": 9275, "\u00d1\u0133": 9276, "\u00c2\u00b7": 9277, "\u0120Rais": 9278, "\u0120Ji": 9279, "\u0120visit": 9280, "\u0120rona": 9281, "\u0120m\u00c9\u013bl": 9282, "emme": 9283, "\u0120Fol": 9284, "part": 9285, "\u0120Jeh": 9286, "\u0120g\u00c3\u00ac": 9287, "\u0120ec": 9288, "\u0120hver": 9289, "\u0120Lan": 9290, "moja": 9291, "\u0120Soci": 9292, "\u00c4\u0135t\u00c4\u0123": 9293, "uit": 9294, "\u0120dup": 9295, "\u0120Sho": 9296, "kop": 9297, "\u0120unter": 9298, "\u0120luna": 9299, "iek\u00c5\u00a1": 9300, "anten": 9301, "\u0120exemp": 9302, "aio": 9303, "\u0120k\u00c3\u00a9": 9304, "jte": 9305, "\u0120th\u00e1\u00bb\u012d": 9306, "\u0120tez": 9307, "\u00c5\u00absu": 9308, "\u0120y\u00c3\u00bcks": 9309, "\u00cf\u0123\u00ce\u00bf\u00cf\u0127": 9310, "\u0120chu": 9311, "\u0120a\u00c3\u00b1os": 9312, "\u0120tso": 9313, "\u0120length": 9314, "pr\u00c3\u00a9s": 9315, "orea": 9316, "arra": 9317, "\u00c4\u00abk": 9318, "ville": 9319, "\u0120t\u00e1\u00bb\u0137": 9320, "\u0120forex": 9321, "\u0120Ini": 9322, "\u0120\u00e1\u00ba\u00b8": 9323, "v\u00c3\u00b5": 9324, "\u0120TripAdvisor": 9325, "ationen": 9326, "\u0120files": 9327, "\u0120Esta": 9328, "\u0120t\u00c3\u0143nh": 9329, "\u0120st\u00c3\u00b8r": 9330, "\u0120perd": 9331, "sob": 9332, "enting": 9333, "\u0120tr\u00c3\u00a8s": 9334, "ects": 9335, "\u0120soll": 9336, "\u00c5\u013bi": 9337, "\u00ce\u00bc\u00ce\u0143\u00ce\u00bd\u00ce\u00bf": 9338, "ristian": 9339, "\u0120.....": 9340, "\u0120meu": 9341, "\u0120facebook": 9342, "\u0120Peter": 9343, "\u0120Moh": 9344, "less": 9345, "\u0120duk": 9346, "atif": 9347, "\u0120\u00c3\u013b": 9348, "\u0120t\u00c3\u00a4h": 9349, "\u0120Anti": 9350, "\u0120Sor": 9351, "gens": 9352, "amaan": 9353, "\u0120ho\u00ca\u00bbom": 9354, "aris": 9355, "star": 9356, "\u0120mini": 9357, "\u0120Mkuu": 9358, "\u0120\u00c4\u00be": 9359, "\u0120oe": 9360, "\u0120emo": 9361, "dik": 9362, "aniu": 9363, "\u0120n\u00c3\u0143": 9364, "\u0120Rich": 9365, "aven": 9366, "lap": 9367, "erim": 9368, "\u0120j\u00c3\u00b3": 9369, "\u0120geni": 9370, "itim": 9371, "\u0120beb": 9372, "\u0120Ket": 9373, "orno": 9374, "\u00c3\u00a6t": 9375, "\u0120aras\u00c4\u00b1nda": 9376, "\u0120Link": 9377, "j\u00c3\u00a1k": 9378, "otto": 9379, "INA": 9380, "alin": 9381, "iai": 9382, "lar\u00c4\u00b1na": 9383, "\u0120giz": 9384, "\u0120Restaur": 9385, "\u0120\u00c4\u00bc": 9386, "\u0120Stud": 9387, "\u0120Center": 9388, "\u0120lo\u00e1\u00ba\u00a1i": 9389, "\u0120install": 9390, "hib": 9391, "\u0120ville": 9392, "\u0120Kle": 9393, "cker": 9394, "\u0120rip": 9395, "\u0120spor": 9396, "\u0120historia": 9397, "\u0120dugu": 9398, "r\u00c9\u013b": 9399, "\u0120hayo": 9400, "wet": 9401, "\u0120h\u00e1\u00bb\u012f": 9402, "ultat": 9403, "PL": 9404, "82": 9405, "\u0120Flor": 9406, "\u0120dela": 9407, "\u0120London": 9408, "\u0120rok": 9409, "UG": 9410, "\u0120h\u00c3\u00a1": 9411, "\u0120Dette": 9412, "\u0120tempat": 9413, "\u0120at\u00c3\u00a9": 9414, "\u00c5\u00a1\u00c4\u00b7": 9415, "\u0120Roz": 9416, "uis": 9417, "mam": 9418, "nice": 9419, "\u0120Polit": 9420, "adhi": 9421, "\u0120Vill": 9422, "\u0120Tid": 9423, "\u0120diren": 9424, "\u0120h\u00e1\u00bb\u013bi": 9425, "j\u00c3\u00b8": 9426, "\u0120h\u00c3\u00bc": 9427, "ikal": 9428, "\u0120\u00c3\u00ac": 9429, "\u0120BE": 9430, "\u0120sampai": 9431, "\u0120Neder": 9432, "atro": 9433, "\u0120value": 9434, "\u0120Kah": 9435, "\u00cf\u0123\u00ce\u00b9\u00cf\u0126\u00ce\u00b9\u00ce\u00ba\u00ce\u0143\u00cf\u0124": 9436, "\u0120anys": 9437, "\u0120registr": 9438, "whe": 9439, "\u0120\u00d5\u00a2": 9440, "\u0120mch": 9441, "TT": 9442, "\u0120l\u00c4\u0123": 9443, "itions": 9444, "ished": 9445, "\u0120nit": 9446, "\u0120Orig": 9447, "\u0120boy": 9448, "chaft": 9449, "\u0120telef": 9450, "wu": 9451, "\u0120veri": 9452, "ilah": 9453, "\u0120akt": 9454, "key": 9455, "inat": 9456, "urrent": 9457, "sas": 9458, "\u00c3\u00a1rt": 9459, "etto": 9460, "\u0120alta": 9461, "utz": 9462, "tiin": 9463, "ague": 9464, "\u0120used": 9465, "\u0120estr": 9466, "sam": 9467, "endelea": 9468, "emei": 9469, "fas": 9470, "entu": 9471, "eline": 9472, "utor": 9473, "amii": 9474, "\u0120Lit": 9475, "rah": 9476, "raft": 9477, "\u0120t\u00c3\u00acnh": 9478, "al\u00c4\u0125": 9479, "\u0120\u00cf\u0127\u00cf\u0122\u00ce\u00bf": 9480, "tors": 9481, "okoa": 9482, "\u0120cast": 9483, "\u0120v\u00e1\u00bb\u012d": 9484, "\u0120papa": 9485, "\u0120kjo": 9486, "\u00c3\u00a8me": 9487, "\u0120interna": 9488, "\u0120konf": 9489, "\u0120biri": 9490, "\u0120c\u00e1\u00ba\u00a7u": 9491, "yll": 9492, "ol\u00c3\u00b3g": 9493, "\u0120sha": 9494, "\u0120dien": 9495, "orsz": 9496, "unj": 9497, "HE": 9498, "CA": 9499, "\u0120hali": 9500, "\u0120verb": 9501, "\u0120kalau": 9502, "\u0120begin": 9503, "\u00c9\u013bsinin": 9504, "\u0120aina": 9505, "\u0120edib": 9506, "ilu": 9507, "agem": 9508, "Im": 9509, "alaman": 9510, "\u00cf\u0122\u00ce\u00b5\u00ce\u00b9": 9511, "\u00cc\u012b": 9512, "\u0120logo": 9513, "ewele": 9514, "\u0120hae": 9515, "\u0120KU": 9516, "ward": 9517, "ugb": 9518, "\u0120pamam": 9519, "\u0120anni": 9520, "\u0120qar\u00c5\u0141\u00c4\u00b1": 9521, "\u0120degli": 9522, "\u0120\u00ce\u00b4\u00ce\u00b9": 9523, "\u0120k\u00c3\u00a4ytt": 9524, "\u0120kij": 9525, "\u0120b\u00c3\u00bct\u00c3\u00bcn": 9526, "jam": 9527, "\u00cf\u0125\u00cf\u0126\u00ce\u00b1": 9528, "\u0120studi": 9529, "appy": 9530, "\u0120yung": 9531, "wij": 9532, "\u0120Open": 9533, "egas": 9534, "dzi": 9535, "\u0120regist": 9536, "\u0120tetapi": 9537, "\u0120setiap": 9538, "keen": 9539, "azar": 9540, "\u0120Vy": 9541, "mist": 9542, "anne": 9543, "\u00cf\u012e\u00cf\u0124": 9544, "ppen": 9545, "\u0120friend": 9546, "\u0120gagwe": 9547, "qui": 9548, "\u0120spo": 9549, "\u0120avail": 9550, "\u0120v\u00c3\u00a4lja": 9551, "\u0120spec": 9552, "etat": 9553, "\u00ce\u0141\u00ce\u00a5": 9554, "stre": 9555, "\u0120f\u00c3\u00b8rste": 9556, "\u00e1\u00bb\u0143a": 9557, "stat": 9558, "ESS": 9559, "niec": 9560, "\u0120eerste": 9561, "\u00c3\u00b3ng": 9562, "onde": 9563, "\u0120tyl": 9564, "\u00c3\u00b8j": 9565, "\u0120OP": 9566, "\u0120/>": 9567, "\u0120sos": 9568, "\u0120s\u00c3\u00b3n": 9569, "\u0120child": 9570, "\u0120Leh": 9571, "\u0120Nar": 9572, "\u0120hans": 9573, "\u0120bil\u00c9\u013br": 9574, "\u00ce\u00bc\u00ce\u00ae": 9575, "\u0120instal": 9576, "\u0120Wil": 9577, "\u0120Acc": 9578, "LC": 9579, "\u0120TO": 9580, "MS": 9581, "\u0120iar": 9582, "\u0120wr": 9583, "\u0120de\u00c4\u0141": 9584, "atar": 9585, "olah": 9586, "\u0120rik": 9587, "\u0120prze": 9588, "\u0120marr\u00c3\u00ab": 9589, "omme": 9590, "\u0120kub": 9591, "\u0120kond": 9592, "\u0120What": 9593, "\u0120\u00e2\u0138": 9594, "\u0120r\u00c3\u00a9sz": 9595, "\u0120Tro": 9596, "\u0120fej": 9597, "\u0120rast": 9598, "\u0120sesu": 9599, "\u0120neng": 9600, "\u0120kumu": 9601, "xes": 9602, "ohn": 9603, "\u0120before": 9604, "\u00c3\u012e": 9605, "\u0120Hil": 9606, "\u0120tablet": 9607, "\u0120Div": 9608, "araz": 9609, "\u0120govern": 9610, "\u0120uur": 9611, "\u0120tush": 9612, "\u0120p\u00c5\u00afj": 9613, "\u0120ka\u00c5\u00bed": 9614, "\u0120aka": 9615, "ington": 9616, "v\u00c3\u00a6r": 9617, "\u0120k\u00c3\u00b6v": 9618, "ate\u00c4\u00be": 9619, "estr": 9620, "\u0120news": 9621, "\u0120Scar": 9622, "\u0120room": 9623, "\u0120wam": 9624, "\u0120Sexo": 9625, "niej": 9626, "\u0120t\u00e1\u00ba\u00a1o": 9627, "artu": 9628, "\u0120alu": 9629, "redi": 9630, "\u0120m\u00c5\u00af": 9631, "\u0120cilv\u00c4\u0135": 9632, "aldi": 9633, "\u00ce\u00bd\u00cf\u012b": 9634, "\u00ca\u00bboe": 9635, "\u0120Previous": 9636, "\u0120tego": 9637, "\u00c4\u0123la": 9638, "\u0120t\u00c9\u013br\u00c9\u013bf": 9639, "ibt": 9640, "\u0120pav": 9641, "\u0120kip": 9642, "\u0120drej": 9643, "\u0120Brasil": 9644, "\u0120hapa": 9645, "\u0120Bos": 9646, "\u0120puede": 9647, "\u0120cook": 9648, "\u0120Sala": 9649, "\u00c2\u00b5\u00c3\u0126": 9650, "qiq": 9651, "elem": 9652, "\u0120dut": 9653, "\u0120lahat": 9654, "\u0120s\u00c3\u00a9": 9655, "\u0120dub": 9656, "forme": 9657, "\u0120Instagram": 9658, "\u0120jard": 9659, "ermin": 9660, "\u0120pup": 9661, "\u00c5\u012aa": 9662, "\u0120v\u00c3\u00b5ib": 9663, "\u0120dalla": 9664, "\u00c3\u00b6\u00c3\u00b6": 9665, "mod": 9666, "\u0120order": 9667, "\u0120EX": 9668, "ifi": 9669, "main": 9670, "\u0120fall": 9671, "usus": 9672, "etet": 9673, "tez": 9674, "etin": 9675, "\u0120pasa": 9676, "\u0120\u00c3\u00b4ng": 9677, "ults": 9678, "\u00e1\u00bb\u0139i": 9679, "olis": 9680, "\u0120tam\u00c3\u00a9n": 9681, "\u0120produkt": 9682, "\u00c3\u00a9mu": 9683, "iju": 9684, "caq": 9685, "\u0120kong": 9686, "alaki": 9687, "\u0120wp": 9688, "itia": 9689, "gb\u00e1\u00ba\u00b9": 9690, "\u0120\u00c4\u0125n": 9691, "\u0120stabil": 9692, "\u0120qu\u00e1\u00ba\u00a3": 9693, "\u0120blu": 9694, "\u0120Gel": 9695, "OST": 9696, "\u00c9\u013bl\u00c9\u013b": 9697, "ussa": 9698, "cji": 9699, "ib\u00e1\u00ba\u00b9": 9700, "\u0120siden": 9701, "\u0120rekl": 9702, "\u0120Willi": 9703, "qin": 9704, "\u0120boh": 9705, "nel": 9706, "\u0120geld": 9707, "\u0120l\u00c3\u00a9": 9708, "\u0120Fel": 9709, "\u0120w\u00e1\u00ba\u00b9": 9710, "\u0120radi": 9711, "\u0120sans": 9712, "\u0120olish": 9713, "eding": 9714, "\u0120},": 9715, "\u00c4\u0140": 9716, "l\u00c3\u00a1n": 9717, "yre": 9718, "\u0120Market": 9719, "jin": 9720, "\u0120does": 9721, "dun": 9722, "\u0120\u00c3\u00a9t\u00c3\u00a9": 9723, "\u0120encontr": 9724, "\u0120circ": 9725, "\u0120\u00e2\u012a": 9726, "\u0120pont": 9727, "\u0120Under": 9728, "\u0120jal": 9729, "tah": 9730, "\u00e1\u00bb\u0135n": 9731, "\u0120tilb": 9732, "\u0120school": 9733, "\u0120Forum": 9734, "\u0120grav": 9735, "\u0120Live": 9736, "ICA": 9737, "\u0120ces": 9738, "\u00ce\u00b3\u00ce\u00b3": 9739, "\u0120elle": 9740, "\u0120sog": 9741, "keit": 9742, "\u0120\u00ce\u012e": 9743, "nea": 9744, "aval": 9745, "okol": 9746, "\u0120Tari": 9747, "\u0120tomon": 9748, "\u0120hidup": 9749, "\u0120Parti": 9750, "\u0120National": 9751, "\u0120mense": 9752, "\u0120iyong": 9753, "\u00c5\u00beu": 9754, "enne": 9755, "\u0120kufanya": 9756, "mero": 9757, "\u0120Gy": 9758, "l\u00c4\u00b1\u00c4\u0141": 9759, "\u0120v\u00c3\u00a9": 9760, "\u0120Ons": 9761, "\u0120Gold": 9762, "\u0120Day": 9763, "ruar": 9764, "\u0120proses": 9765, "td": 9766, "\u0120czas": 9767, "\u0120vij": 9768, "\u0120oldu\u00c4\u0141u": 9769, "\u0120mungkin": 9770, "baru": 9771, "\u0120Smart": 9772, "\u00e1\u00bb\u00aba": 9773, "\u0120\u00c2\u00a4": 9774, "\u0120follow": 9775, "jn": 9776, "\u00d8\u00b0": 9777, "\u0120typ": 9778, "\u00c4\u00b1lmas\u00c4\u00b1": 9779, "\u0120arb": 9780, "\u0120mich": 9781, "\u0120lep": 9782, "\u0120Dok": 9783, "\u0120\u00d8\u00a5": 9784, "\u0120mobile": 9785, "naewele": 9786, "\u0120modo": 9787, "\u0120\u00c3\u00a4n": 9788, "iones": 9789, "atkan": 9790, "\u0120tutti": 9791, "\u0120rav": 9792, "\u00c4\u00b1c\u00c4\u00b1": 9793, "\u0120milli": 9794, "mentar": 9795, "\u0120b\u00e1\u00ba\u00a3n": 9796, "hat\u00c3\u00b3": 9797, "Pr": 9798, "INI": 9799, "\u0120prav": 9800, "OF": 9801, "\u0120priser": 9802, "fg": 9803, "enean": 9804, "utsch": 9805, "lava": 9806, "\u0120gi\u00c3\u00bap": 9807, "hh": 9808, "amentos": 9809, "\u0120aud": 9810, "\u00c9\u013bl\u00c9\u013bri": 9811, "owego": 9812, "\u0120posta": 9813, "\u0120jud": 9814, "\u0120Bot": 9815, "\u0120\u00c4\u0133o": 9816, "\u0120Site": 9817, "ahal": 9818, "reen": 9819, "Al": 9820, "\u0120Galaxy": 9821, "\u00c4\u0123\u00ca\u00bbani": 9822, "iyi": 9823, "\u0120centro": 9824, "\u0120erabil": 9825, "\u0120Arm": 9826, "\u0120Artic": 9827, "\u00c3\u00acm": 9828, "\u0120Street": 9829, "\u0120Conta": 9830, "\u0120memang": 9831, "tier": 9832, "ict": 9833, "\u0120\u00c5\u00beiv": 9834, "\u00c3\u00a1lt": 9835, "\u0120nna": 9836, "\u0120Als": 9837, "\u0120centr": 9838, "\u0120vom": 9839, "iyalar": 9840, "\u00c3\u00a7ar": 9841, "\u0120ingin": 9842, "\u0120\u00ce\u00bc\u00ce\u00b5\u00ce\u00b3": 9843, "lyn": 9844, "\u0120motho": 9845, "\u0120Arab": 9846, "\u0120waktu": 9847, "\u0120Ins": 9848, "untry": 9849, "\u0120M\u00c3\u00a1": 9850, "amina": 9851, "EV": 9852, "\u0120d\u00e1\u00bb\u012dch": 9853, "\u00d7\u0137": 9854, "j\u00c3\u00a4r": 9855, "\u0120kasi": 9856, "\u0120sale": 9857, "\u0120Kem": 9858, "ambil": 9859, "\u00ce\u00bb\u00ce\u00af": 9860, "OTO": 9861, "\u0120Most": 9862, "\u0120Jesus": 9863, "ustus": 9864, "\u0120pir": 9865, "\u0120\u00d2": 9866, "\u0120belang": 9867, "\u0120energi": 9868, "irsiniz": 9869, "ior": 9870, "\u0120merk": 9871, "\u0120jon": 9872, "it\u00c3\u00ab": 9873, "\u00c4\u012fen": 9874, "\u0120shop": 9875, "\u0120huu": 9876, "\u0120ntle": 9877, "\u0120bashk": 9878, "icy": 9879, "SK": 9880, "\u0120hope": 9881, "\u0120\u00c3\u00a1r": 9882, "\u00ce\u00b8\u00ce\u00b7\u00ce\u00ba\u00ce\u00b5": 9883, "\u0120bom": 9884, "\u0120ho\u00ca\u00bbohana": 9885, "ohen": 9886, "\u0120XX": 9887, "\u0120uh": 9888, "est\u00c3\u00a4": 9889, "\u0120m\u00c9\u013bh": 9890, "\u0120dess": 9891, "ovanie": 9892, "\u0120nova": 9893, "\u0120interv": 9894, "\u0120cena": 9895, "\u0120Lang": 9896, "\u0120Class": 9897, "\u0120\u00c3\u00bch": 9898, "\u0120darb": 9899, "alui": 9900, "\u0120onun": 9901, "\u00cf\u0126\u00cf\u012b\u00ce\u00bd": 9902, "\u0120blan": 9903, "\u0120juni": 9904, "\u0120kaya": 9905, "\u0120Blan": 9906, "c\u00c4\u0125": 9907, "\u0120november": 9908, "\u0120indi": 9909, "ksom": 9910, "\u0120\u00c5\u013dwi": 9911, "\u0120horas": 9912, "\u0120Sed": 9913, "\u0120\u00c9\u013bn": 9914, "k\u00c3\u00a1": 9915, "\u0120Redir": 9916, "\u00e1\u00bb\u013bng": 9917, "\u0120Pero": 9918, "\u0120pek": 9919, "\u0120trebu": 9920, "\u0120k\u00c4\u0123l\u00c4\u0123": 9921, "\u0120Siz": 9922, "\u0120pr\u00c3\u00a9": 9923, "\u0120\u00ce\u013e\u00ce\u00b5": 9924, "\u0120antes": 9925, "ikai": 9926, "\u0120szerint": 9927, "\u0120prefer": 9928, "\u013b\u0124": 9929, "atii": 9930, "\u00c4\u012fek": 9931, "UZ": 9932, "\u0120tiene": 9933, "\u0120h\u00c9\u013b": 9934, "\u0120kid": 9935, "vek": 9936, "\u0120develop": 9937, "ekuwa": 9938, "\u0120inspir": 9939, "\u0120\u00c3\u00b6\u00c4\u0141": 9940, "\u0120tijd": 9941, "\u0120ofer": 9942, "\u0120k\u00c3\u00a9sz": 9943, "\u0120\").": 9944, "atok": 9945, "\u0120alisema": 9946, "\u0120sand": 9947, "buah": 9948, "\u0120s\u00c3\u0143": 9949, "other": 9950, "\u0120\u00ce\u00ae\u00cf\u0126\u00ce\u00b1\u00ce\u00bd": 9951, "\u0120abeuk": 9952, "\u00ca\u00bc": 9953, "\u00c6\u00b0u": 9954, "oin": 9955, "\u00c3\u00aas": 9956, "\u0120NG": 9957, "\u0120cun": 9958, "\">": 9959, "\u0120sle": 9960, "onda": 9961, "ALL": 9962, "\u0120K\u00c4\u0123": 9963, "\u0120Kop": 9964, "coin": 9965, "\u0120ingen": 9966, "\u0120fen": 9967, "\u00c3\u00abtar": 9968, "\u0120hlav": 9969, "\u0120akoko": 9970, "\u0120Wy": 9971, "\u00c3\u00abr\u00c3\u00ab": 9972, "\u0120digital": 9973, "\u0120hati": 9974, "\u0120obra": 9975, "isoa": 9976, "\u00ce\u00b2\u00ce\u00b1": 9977, "\u0120\u00c4\u0133\u00e1\u00ba\u00b9p": 9978, "\u0120Business": 9979, "\u0120twee": 9980, "\u0120\")": 9981, "\u00ce\u00b9\u00ce\u00ba\u00ce\u00bf": 9982, "\u0120yao": 9983, "\u0120trav\u00c3\u00a9s": 9984, "\u0120etm": 9985, "akar": 9986, "\u0120posit": 9987, "EX": 9988, "\u00c3\u00b8g": 9989, "r\u00c3\u00a1s": 9990, "\u0120h\u00e1\u00bb\u0129": 9991, "\u0120ph\u00e1\u00ba\u00a7n": 9992, "\u0120Full": 9993, "\u0120){": 9994, "\u0120hanno": 9995, "p\u00e1\u00bb\u012fl\u00e1\u00bb\u012f": 9996, "\u0120\u00c3\u012e": 9997, "\u0120club": 9998, "acz": 9999, "\u0120Kes": 10000, "\u00c2\u00ab": 10001, "\u0120sala": 10002, "\u0120th\u00c3\u00a1ng": 10003, "\u0120tambi\u00c3\u00a9n": 10004, "\u0120MO": 10005, "\u0120dedi": 10006, "ynn": 10007, "ayotgan": 10008, "\u0120xalq": 10009, "\u0120Kosov\u00c3\u00abs": 10010, "\u0120gall": 10011, "\u0120Mass": 10012, "\u0120Maar": 10013, "\u0120overs": 10014, "\u0120comments": 10015, "pel": 10016, "moqda": 10017, "in\u00c4\u0123j": 10018, "\u0120espa": 10019, "\u0120There": 10020, "\u0120North": 10021, "\u0120Dalam": 10022, "\u0120think": 10023, "\u0120serie": 10024, "Bo": 10025, "\u0120Word": 10026, "lit": 10027, "abila": 10028, "\u00d5\u00a1\u00d5\u00a3": 10029, "\u00ce\u00bc\u00ce\u00b9": 10030, "\u0120m\u00c3\u00aame": 10031, "\u0120MT": 10032, "\u0120bohl": 10033, "\u00c4\u0141ini": 10034, "ilm\u00c9\u013bsi": 10035, "unakan": 10036, "\u0120jaz": 10037, "\u0120ots": 10038, "\u0120joalo": 10039, "ks\u00c3\u00a5": 10040, "\u0120\u00ef\u00bf\u00bd?": 10041, "\u0120bile": 10042, "\u0120iho": 10043, "\u0120vair\u00c4\u0123k": 10044, "lha": 10045, "fte": 10046, "\u0120Eti": 10047, "\u0120v\u00c3\u00b5imal": 10048, "\u0120ambao": 10049, "\u0120spesi": 10050, "\u0120Dip": 10051, "\u0120PA": 10052, "idel": 10053, "\u0120group": 10054, "asse": 10055, "\u0120power": 10056, "atz": 10057, "\u0120Lar": 10058, "\u0120opera": 10059, "\u0120?\"": 10060, "\u0120mida": 10061, "\u0120lor": 10062, "wr": 10063, "\u00c3\u00absi": 10064, "\u0120India": 10065, "\u00d0\u00b0\u00d0\u00bb": 10066, "\u0120technolog": 10067, "v\u00c3\u00a1": 10068, "giv": 10069, "\u0120Hindi": 10070, "\u0120h\u00c9\u013by": 10071, "\u0120sebuah": 10072, "qtis": 10073, "hem": 10074, "\u0120veya": 10075, "\u0120tour": 10076, "\u0120hasta": 10077, "obr": 10078, "\u0120tashkil": 10079, "\u0120Ist": 10080, "\u0120mond": 10081, "\u0120Gab": 10082, "\u00c2\u00b9": 10083, "ashion": 10084, "\u00ce\u00bb\u00cf\u012e": 10085, "\u0120d\u00c3\u00a5": 10086, "\u0120aer": 10087, "\u0120bec": 10088, "\u0120sifat": 10089, "\u0120\u00c4\u0123r": 10090, "taz": 10091, "abilir": 10092, "\u0120ard": 10093, "\u00c2\u00b4": 10094, "tas": 10095, "\u0120interpr": 10096, "\u0120al\u00c4\u00b1n": 10097, "\u00c3\u00basica": 10098, "teen": 10099, "\u0120pjes": 10100, "elain": 10101, "f\u00c9\u013b": 10102, "\u0120kar\u00c5\u0141\u00c4\u00b1": 10103, "\u0120Group": 10104, "\u0120p\u00c3\u00a4iv": 10105, "\u0120nada": 10106, "\u0120\u00cf\u0122\u00ce\u00b5\u00cf\u0123\u00ce\u00b9": 10107, "\u0120give": 10108, "ean": 10109, "\u0120CN": 10110, "ences": 10111, "\u0120olur": 10112,
[...]
