#version: 0.2
á Ģ
à ®
à ´
á ĥ
à ¸
à °
à ¤
à ¦
à ª
à ¯
à µ
áĢ ¹
Ġ áĢ
áĢ¹ áĢ
áĢ ¬
áĢ º
Ġ Î
à¯ į
àµ į
áĢ ¸
Ð °
Î ±
à ±
áĢ ¯
áĥ Ĳ
à ¹
à ¥
Ġ à®
áĢ Ń
Ï Ħ
Ġ à´
à §
Ġ Ð
áĢ Ģ
Ġ áĥ
à «
Î ¿
± áĢ
áĢ Ħ
à¯į à®
àµį à´
Ġ à°
Ð° Ð
à¸ ²
á ģ
Î ¹
Ġ à¤
áĢ¸ áĢ
Ð ¾
Ġ à¦
áĥĲ áĥ
à¸ Ļ
Î ½
à¯ ģ
áĢ Ĳ
Ġ Ø
Ġ Ñ
áĢŃ áĢ¯
à´ ¿
Ġ àª
à± į
à¸ £
Î µ
áĢ ķ
à® ¿
Ġ .
ä ¸
à¤ ¾
áĥ ĺ
áĢ ¼
Ð° Ñ
à¸ Ń
Û Į
à´¿ à´
à¦ ¾
Ï ģ
áĢ Ļ
Ð µ
à±į à°
à¹ Ģ
á Ĥ
áĢ Ķ
à®¿ à®
Ï ĥ
àµ ģ
à¹ Ī
Ð ½
áĢĦ áĢ¹áĢ
áĢ ±áĢ
ã Ģ
Ġ å
ä º
ï ¼
Ġ ï¼
à¤¾ à¤
à° ¿
Ø §
áĥ Ķ
Ġ áģ
à§ ĩ
Ï Ģ
àª ¾
áĢ ½
à¯ģ à®
Ñ ĭ
Ġ à¸
à´ ¾
à¸² à¸
áĢ ·
Ï Ĥ
Ġ Ù
Ð ¸
Ġ ãĢ
å ı
Ġ c
à¥ į
Ñ ĸ
à° ¾
à¦¾ à¦
àµģ à´
áĢ ²
à® ¾
à¸£ à¸
áĢ ħ
áĥĶ áĥ
Î ·
àª¾ àª
áĢ Ľ
Ñ Ģ
à¹Ģ à¸
à®¾ à®
Ú ©
â Ģ
Ï ħ
à´¾ à´
áĢ ®
à± ģ
à§ į
à¥į à¤
áĢ Ĭ
Ñ Ĥ
à¹ ī
à¯įà® ķ
Î »
àµ Ĩ
áĥĺ áĥ
à« ĩ
áĢ ±
Ð º
Ø ±
à¸Ļ à¸
Ġ ÏĦ
à® °
à¥ ĩ
à°¾ à°
àµį âĢ
¨ àµįà´
Ð »
à§į à¦
áĢ ļ
Î º
Ġ ×
áĢ ŀ
à¯ Ī
à¸Ń à¸
à´ ¤
Ñ ı
à« į
Ù Ī
Î ¯
áĥ Ŀ
à°¿ à°
áĢ ľ
àµįâĢ į
à® ¤
á »
ķ àµįà´
Ġà¤ ķ
Ñ ĥ
ģ à¸
ĠáĢ ¡
à¦ ¿
Î ¼
à´ °
áĢ¬ áĢ¸áĢ
à¯įà® ¤
Ñ ģ
à«į àª
Û ģ
âĢ ĭ
ķàµįà´ ķ
Ġï¼ Į
o m
å ®
w w
æ ľ
Ġc om
ç ļ
å Ī
çļ Ħ
Ġ æ
Ħ à¸
ĩ à¸
å ¤
å ħ
ç ½
à¥ Ģ
Ĥ à°
áĥĿ áĥ
Ï Į
Ñ Ĩ
áĢĦ áĢº
Ù Ħ
à® ©
¨àµįà´ ¨
® à¯į
Î ¬
ĠÐ ¿
à¤ ¿
Ġà´ ª
à¦ °
à« Ģ
£ áĥ
á º
à±ģ à°
à´ ¯
à® Ł
áĢ ģ
Î¿ Ïħ
Ñ Į
à¸ µ
Ð ´
àµįà´ ¤
± à¸
à ¨
äº ļ
å ½
Ġ ç
ç½ ĳ
å Ľ
ä »
a g
à¹Ī à¸
æ Ĺ
Ġ 2
áĢ «
æ Ī
ä ¹
à¤ °
Û Ĵ
Ġà® ª
Ġ ÏĢ
áĥĺáĥ ¡
áĢ ¶
à° ¨
à´ Ĥ
É Ļ
× Ļ
àª ¨
à¦¿ à¦
Ġ ,
áĢ »
Ù Ĩ
àµ ĭ
à® ³
Ï ī
Ð ²
n g
åı ĳ
æ ĸ
Ĥ à¤
à° Ĥà°
Ġà´ ķ
ĠÎ º
Ð ¼
áĢ °
áĥĶáĥ ĳ
Ġà® ķ
à´ Ł
à¸ ´
áĢĢ áĢ¹áĢ
Ġáģ ĭ
á» į
à« ĭ
à§ĩ à¦
Î Ń
Ġ d
ã ģ
Ñ į
Ġ è
ww w
Ġ ag
Ġ www
å ľ
ĠãĢ Ĥ
åĪ Ĩ
å½ ©
ãĢ Ĳ
Ġ 1
æ ¸
à¥įà¤ ¯
à± ĩ
áĢĦáĢ¹áĢ ¸
áĢ ¡
Ġ âĢĭ
àµ ĩ
Ù Ĭ
Ð°Ñ Ģ
¡ à¸
à¯įà® ª
à¤¿ à¤
Ù ĩ
Ġ Ïĥ
ł áĥ
áĢĶ áĢ¹áĢ
à´¿à´ ²
ĠáĢ ±áĢ
áĢ² áĢ·
¥ à¸
Ġ t
Ġ Ú©
à° °
áĤ Ķ
áĢ ¾
Ġ ì
Ð ·
à¦ ¨
àµįà´ Ł
ķ à¯įà®ķ
àª °
ĠÎ ±
à¹ Ħà¸
Ġáĥ Ľ
à´ ®
e s
ĠÑ ģ
× ķ
à¥ ĭ
à® ²
à¹ ģà¸
à¦¾à¦ °
à± ĭ
Î ³
Ð°Ð ´
à´ ³
áĢĢ áĢº
áĥ ķ
Ġ a
à¯Ī à®
Ġà´ µ
ª à¸
Î ®
ĠÐ ½
àª ¿
Ġ Ä
à§ ģ
à° ²
áº ¹
ĠØ §
à¥ĩ à¤
àµģà´ Ĥ
à¹ī à¸
Ð ³
áĥ £áĥ
áĢ± áĢ¬
Ã «
Î± Î¹
à¯įà® Ł
Ð°Ð ½
à´ ¨
à§ Ł
à± Ģ
¢ à¸
Ã ©
à« ģ
Ï ĩ
Ġà´ ¸
Ġ ë
Ġáĥ ¡
Ä ±
n h
Ġà® µ
à¤ ¨
Ġà¦ ķ
à° ķ
Ø ª
Ð°Ð »
l e
áĢ ĸ
à´¤ àµįà´¤
§ à¸
à«ĩ àª
ĠÎ µ
áĥĲáĥ ľ
Ġà® ®
ĠáĢ Ģ
Ò Ľ
Ð°Ñ ģ
Ġ n
à´ µ
Ġà¦ ¸
Ġà° ª
Ġà¤ ¸
ĠáĢ Ļ
e r
à¹ Į
×ķ ×
Î¹ Îº
ĠÐ ·
ĠáĢ ŀ
àª Ĥ
Ġáĥ ĵ
Ù ħ
Ġà´ ®
à¯ ĩ
ĠÄ ĳ
à¸´ à¸
à± Ĩ
ì Ŀ
Ġà¦ ¬
áĢĬ áĢ¹áĢ
áĢħ áĢ¹áĢ
áĢ¬ áĢ¸
Ò ³
è ½
ĳ ãĢĲ
ä ½
å ¹
å Ĭ
æ ī
å Ĳ
ç Ķ
æ¸ ¸
Ġ -
ĠãĢ ĳãĢĲ
å į
æ ĺ
å® ĺ
è ¿
Ġ âĢ
è µ
è ®
å ¿
İ ¯
Ġ :
ĠÎ ¼
Ġå ¤
à¹ ĥ
ä¸ ĭ
æĹ ¶
İ¯ äºļ
ä¸ Ģ
äº º
Ġ é
§ åıĳ
ç «
ç »
ç ī
Ķ à¸
ĠãĢ ģ
å ¼
ļ à¸
à¤ ¤
àµįà´ °
Ġ i
Ġà® ħ
Ñ ĩ
Ġà° ķ
àª ¤
Ĳ áĢ¬
áĢĢ áĢŃáĢ¯
áĥ ¡
Ï į
à´ ²
Ġ o
Ð°Ð ¼
ĠÙ ħ
à¦ ²
áĤ ı
ĠáĢ ľ
Ġà® ¤
Ã ł
à±įà° °
ä ¼
Ĺ à¸µ
å °
° à¸
à¤ ²
ĠáĢ Ĳ
Ġà´ ¨
e n
Ð°Ð ²
áĥ ł
Î ´
Ġàª ķ
áĢ® áĢ¸áĢ
à¦ ķ
Ġà® ļ
Ã ¼
Ġ ê
Ġà´ ħ
à°¾à° °
Ġ b
Ĳ áĢ¼
áĢĲ áĢ¹áĢ
¾ áĢĢ
áĢ¯ áĢŃ
áĢ Ĩ
Ġà¤ ¹
Ð ¿
Îµ Î¹
Ú º
áĢķ áĢ«
Ġ áĥĲáĥ
à® µ
à´ £
Ġà¦ ª
ĠÐ ´
àª ķ
Ġà° µ
é Ģ
åĽ ½
è ¯
æľ º
è½ ½
Ġ 0
Ġå¤ §åıĳ
é Ļ
ä¸ĭ è½½
è §
ä¸ Ń
å¿ «
æĺ ¯
á ŀ
å Ĩ
å ·
å¤ §
Ī à¸
å®ĺ ç½ĳ
à¤ ķ
Î¹ Î±
áĢĶ áĢº
í ķ
ĠÐ ³
à´¿à´ ¯
Ġd e
áĥ ļ
à¯ģà® ®à¯į
Ã ¡
à±ĩ à°
×Ļ ×
Ï Ĩ
Ġ k
Ø ¯
Ñ ŀ
à§ĩ à¦°
ĠÐ ²
à´ ¨àµįà´¨
Ĺ à¸
æī ĭ
å İ
å º
à¹ĥ à¸
å ¸
é ĩ
Ĥ à¸
æ Ŀ
åľ ¨
ç ¥
å Ń
à¥ ģ
àª ®
áĢĦ áĢ¹
ĠáĢ ķ
Î ¸
Ġáĥ Ĵ
à´ ±
Ġà° ®
à®¿à® ²
áģ ¾áĢĢ
áĢķ áĢ¹áĢ
áĢļ áĢ¹áĢ
áĢļ áĢ¹
Ġáģ Ĭ
ÉĻ r
« à¸
æľ ī
å ¥
æ Ĭ
æ ³
äºļ æ¸¸
Ġ à¨
¸ à¸
Ġ 3
à¸µ à¸
Ġà¤ Ĩ
à§ ĭ
Ä ĥ
ë ĭ
Ø ³
áĢĬ áĢº
ĠÏĦ Î·
ĠÑ ĸ
o n
à´ ¸
Ðµ Ð½
áĥĶáĥ ļ
àª µ
Ġà° ħ
à®¿à® ¯
l a
Ï İ
ĠÐ ±
Æ °
àµįà´ ¯
à¦ ¤
ç ľ
p p
ç º
8 8
å¹ ³
Ġà¤ ª
áĥĲáĥ Ľ
i e
Ġà° ¸
ÏĦ Î±
Ġ Ûģ
ì ŀ
Ñ ħ
àµįà´ ª
Ġà® ĩ
Ġàª ª
áĥ ĵ
áĢ ³
ĠáĢ Ľ
å ¾
à¥įà¤¯ à¤¾à¤
ì Ĺ
à¦ ¬
á»į n
Ġt h
Ïģ Î¿
Ð°Ñ ŀ
Ġà¤ ®
Ð ¹
áĢ ĳ
à´ ª
à° Ĥ
à¯ Ĩ
Ġ e
áĥ Ľ
» áĢķ
áĢ® áĢ¸
Ġàª ¸
ĠÎ ´
Ġt i
Ġ p
Ñ Ī
áĢĻ áĢº
àµ Ģ
Ġ í
à§įà¦ °
Ø§ Ø
à±įà° ¨
× Ķ
¨ à¯įà®¤
ĠáĢ ħ
à¥ Ī
áĥ ľ
àµįà´ ļ
ÏĦ Î¿
Ñģ ÑĤ
áĢ½ áĢ¬
i n
à° ®
áĤ ķ
ķ áĢ«
Ġ à¹Ģà¸
à¤ £
áĢĻ áĢ¹áĢ
ìĿ ´
áĢħ áĢº
à´ ķàµįà´ķ
ã Ĥ
àª¾àª Ĥ
Ġ v
ģ à¸²
Ġà® ¨
à¦ ®
a n
ĠÐ º
áĥ ¢
ÛĮ Úº
ĠÎº Î±Î¹
Ġà° ļ
àµģà´ ¨àµįà´¨
Ïģ Î±
ìŀ ¥
w á»įn
à¥ĭ à¤
ĠÐ ¼
áĥĲáĥ ĵ
ëĭ ¤
à¸£à¸ µ
ª à¯įà®ª
ĠØ§ ÙĦ
à¥ ¤
ŀ à¸
Ġàª ®
à° ¤
áĢĶáĢ¹áĢ ¸
áĢļ áĢº
Ġ w
ÏĦ Î·
ĠØ ¨
× ¨
à´ ķ
h o
ÑĢ Ñĭ
à¹ Ĥà¸
áĢĢ áĢ¹
áģ Ģ
áĥĲáĥ łáĥ
æĸ ¹
ä¸ į
0 1
å ĩ
è ¡
æīĭ æľº
åı °
é Ľ
a pp
Ġï¼ ļ
Ġ 5
áģ ¿
áĢĦáĢº áĢ¸áĢ
å Į
à ©
ç Ľ
W W
äº Ĩ
à¤ ¸
âĢ Į
à® £
ÏĦ Îµ
ê ³
Ġ à¥¤
àª¾àª °
t i
à°¾à° ²
Ġ l
ķ à¸
Ļ àµįà´
Ð½ Ñĭ
Ġáĥ ł
ĠØ ³
ì §
à® ®
¿ ½
ï ¿½
ÏĢ Î¿
à¹Ī à¸²à¸
áĢ¯ áĢ¶
à¥įà¤ °
à§įà¦ ¯
Ġà° ¨
Ðº Ñĸ
Ð¾ Ð²
áĥĶáĥ ľ
à´¾à´ ¯
à«ĭ àª
Å Ĥ
ë Ĭ
Ð¸ Ð½
Ġ Ã
à® ±
Ġ h
áĢĦáĢ¹áĢ ·
áĢĢ áĢ¼
Ïĥ Î·
à¸Ńà¸ ĩà¸
à°¿à° Ĥà°
Ġç İ¯äºļ
Ġ C
è ´
å Ŀ
æ Ģ
à¤¾à¤ °
áĥĲáĥ ķ
Ð ±
Ġà´ ¤
ĠÏĦ Î¿
Ú ¾
Ġàª ľ
Ġ× Ķ
Ġà¦ Ĩ
à¹ ĩ
áĢŃáĢ¯ áĤĶ
áĢĬ áĢ¹
áĢ±áĢ Ķ
áĢ¬ áĢĢáĢ¹áĢ
áĢĬáĢ¹áĢ ¸
áĢ¬ áĢĦáĢ¹áĢ¸
ĠáĢ Ĩ
Ð°Ñ Ĩ
ì Ħ
à´¿à´ ķàµįà´ķ
à±įà° ¯
áĢĲ áĢļáĢ¹
áĢ±áĢ Ľ
Ïī Î½
áĥĲáĥ ¡
Ġ s
á ł
ä¸ ī
å¹³ åı°
Ġc n
à¤ Ĥà¤
áĢ¶ áĢ¯
áĢĲ áĢº
à¯įà® ±
à¸Ńà¸ ĩ
Ð¸ Ð»
ĠÑ ŀ
à¦¾à¦ ¨
ê °
Î¯ Î±
Ġàª ¤
Ĺà¸µ à¹Īà¸
ļ àµįà´ļ
Ð¾ Ð½
Ú ¯
à° µ
ļ áĥĺ
Õ ¡
Å Ł
å ±
ç İ
Ġà¤ ¤
áĢ· áĢº
ëĬ Ķ
ĠÏĦ Î¿Ïħ
Ġà´ İ
Ġ m
Ð°Ð ³
à§ Ģ
Ġà® İ
à¹Į à¸
à° ¸
Ġáĥ ĺ
à´ Ļàµįà´
ĠÐ ¸
Î¼ Î±
à«įàª ¯
Ø ©
à¹ ĩà¸
Ä ģ
ĠÙ ¾
à¤ ¹
Ð°Ð ¹
à¯ ĭ
o w
¶ ľ
à° Ł
ì ł
i á»
Ġà¦ ®
à¸£ à¸²à¸
ĠÎ ½
àµ Ĥ
× ľ
Ġáĥ ¨
Ł à¸£à¸µ
ģà¸² à¸£à¸
ĠÑ Ĥ
c h
ĠáĢ ģ
Ġàª Ĩ
ì ķ
o s
0 0
è Ģ
ç Ļ
å¼ Ģ
ä¸ Ĭ
æ ŀ
ï¼ Į
ä¹ Ĳ
ĥ ½
æ ķ
é Ĺ
å ¯
å Ĵ
Ġ äºļæ¸¸
ç« Ļ
ç İ¯äºļ
ä ¿
Ġà¤ µ
à° ¦
Ġà¦ ı
à¯įà®ķ à®³
Î½ Î±
ĠÙ Ĩ
àµįà´ ±
áĢķ áĢº
Ġ à¹ģà¸
Ġì Ŀ
áĥĲáĥ ł
Ð°Ð º
Ġn i
´ à¸
Ġ Õ
Õ¡ Õ
Ä± n
ĠÎ ¿
àª¿ àª
Ġ Â
Ġt r
à° ª
Ø ¨
éĽ Ĩ
æ µ
çī Ī
Ġ |
Ġà¤ ħ
u n
áĢ ĺ
áĥ ®
à®¤ à¯įà®¤
à´° àµįâĢį
Ľ à¸
à´¾à´ £
¶ľ ìŀ¥
ë §
ĠáĢ Ķ
ĠÐ ¾
ã ĥ
Ġà¦ ¨
Ïģ Î¹
Ġ le
Ð½ Ñĸ
à±įà° ²
Ġ â
ì§ Ģ
¹ à¸
á ¹
à´ ¨àµįà´
Ġ (
ĠáĢ Ĵ
áĥĿáĥ Ľ
Ġà¤ ¬
ĠÚ© ÛĮ
Ġàª ħ
Ġ z
Ġc h
áĤ Ī
áĢ Ŀ
à®¿à® °
± à¸Ļà¸
ìĹ Ĳ
Ð°Ñ Ĥ
ĠÎ ³
à´¿à´ °
à¦ ¸
à±įà° ¤
áĢĲ áĢ¬
áĢĻáĢ¹áĢ ¸
áĢ± áĢ¸áĢ
ŀ ×
á¹ £
Ĭ à¸
ĠØ ¯
à´¿à´ ¨
Ġáĥĵ áĥĲ
à¤ µ
Î ²
· à¹Ī
ĠÑ Ģ
i r
à® ®à¯į
à° ¡
Æ° á»
Ġà¦ ¹
áĢŃáĢ¯ áĢ·
g b
à«įàª °
íķ ĺ
ï¿½ ï¿½
Î ĳ
ĠÎ ĳ
r e
à´¾à´ °
³ à¸
Ġáĥ¡ áĥĲáĥ
ÑĨ ÑĮ
à®¿à®² à¯į
Ġà¤¹ à¥Ī
ĠÎ¼ Îµ
Ã ¤
à´¾à´ ¨
ç §
æ ´
æ Ķ
åĽ ¢
à¥įà¤¯ à¤¾
Ä Ļ
Ð½ Ð¾
à¸£à¸ ±à¸
Ġà° ¤
ĠØ ª
Ġà¦ ¦
áĥĺáĥ Ĺ
Ġ )
áĢŃáĢ¯ áĢĦáĢ¹áĢ
áĢĸ áĢħáĢ¹áĢ
áĢ½ áĢŃ
áĢ² áĤĶ
áĢĲ áĢ²áĢ·
áĢ±áĢ ĲáĢ¬
ĠáĢ ĳ
Ã ³
Î½ Î¿
Ĥ ¬
à´Ļàµįà´ Ļ
áĢ±áĢ ĲáĢ¼
áĢŃ áĢ³
áĢŃáĢ¯ áĢ¸áĢ
Ð» Ð¸
ÉĻ n
t s
à¸£à¸ °à¸
ĠÑ ı
à® ķ
àª¨ à«ĩ
à°¿à° ¨
ÏĦ Î¹Îº
áĤı áĢ½
áĢķ áĢ¼
Ġáĥ Ļ
Ġ à§
ë ¡
à¹ī à¸²à¸
à´¿à´² àµįâĢį
àµįà´ ²
à§įà¦ ¤
Ġà¤ķ à¥ĩ
Ð» Ð°ÑĢ
Ð´ Ð°
ĠÎ½ Î±
æ İ
åĴ Į
å¹ ´
æĪ ·
Ġ 4
æ °
ä¸ º
à¤ ®
× ª
t e
ÙĪ Ø±
à°¾à° ¨
áĥĿáĥ ĳ
Ð°Ð ±
à¹Ī à¸²
Ġ nh
à®¤ à¯ģ
Ġà´ ĩ
áģ¿ áĢķ
áĢĻ áĢ¾
Ġàª µ
ìĿ ĺ
Ġ y
ĠÎ ķ
Ø ¹
Ġà¦ķ à¦°
Ġà´ ļ
à¹Ħà¸ Ķ
ĠÎ ł
o u
áĥĲáĥ ļ
Î Ł
Î ¾
Ð ¶
æ ĭ
ç Ĳ
é ¢
é Ŀ
ç½ĳ ç«Ļ
æ ł
æ Ń
æĪ ı
å ĳ
éĽĨ åĽ¢
æ¸¸ æĪı
éĻ ħ
O M
åĿ Ģ
à¤¾à¤ Ĥà¤
Ã© s
à° ¯
Ð¸ ÑĢ
Ä «
Ġt Ã«
áĢĶ áĢ¹
áĢģ áĢº
áĢĽ áĢ¬
à¹ī à¸²
àµģà´ Ł
ì ĭ
Î Ļ
Î¼ Îµ
à¯ Ĭ
áĥ Ĺ
Ġa wá»įn
áº ¡
áĢ Ł
Ġ A
Ġà¦ ¤
Ħ à¸£à¸
Ġàª Ľ
Ñ İ
ĠÎ Ń
Ĺà¸µ à¹Ī
à°¿à° ķ
Ġì ŀ
a r
à´¿à´ ļàµįà´ļ
Ð¾ ÑĢ
ĠâĢ Ŀ
å®ĺ æĸ¹
ĠC OM
ä¼ ļ
ä¸ ª
æĸ °
æĹ¶ å½©
åħ ¬
åĪĨ å½©
çľ Ł
å½© ç¥
çĶ ¨
æ ¬
Ġà¤ ¨
Ø§ ÙĨ
áĢŃáĢ¯ áĢĦáĢº
Ġ×Ķ ×
Ġ f
Ġáĥ Ĺ
à®¿à® ©
àµģà´ ķ
ÏĢ ÏĮ
à¦ ¦
ľ à¸
ĠÐ¿ ÑĢ
æĹ¶ æĹ¶å½©
2 0
åľ °
åĽ½ éĻħ
ĠâĢ ľ
à¤¾à¤ ¤
Ä ħ
ìĿ Ħ
à¸Ń à¸Ļ
à±įà° Ł
àª¾àª ¨
áĥĶáĥ ¡
ĠáĢ »
áĢ» áĢķ
áº ¿
Î» Î¿
áĢĲ áĢ½
± à¸Ļ
Ġ I
Ġà¦ ħ
Ð» Ñĸ
Ġ ÒĽ
ĠÚ© ÛĴ
r i
àµ ½
ģà¸² à¸£
à± Ĥà°
à®¾à® °
ĠÙ Ī
ÏĦ Î¹
i l
Ġ Ò³
1 0
å ¨
Ġ2 01
ä» ¥
å ĵ
äº ¬
å¿« 3
ä¸ ļ
è¡ Į
9 9
è Ī
çĻ »
¦ ģ
à¤ ļ
áĥ łáĥ
Ġ j
ê ¸
Ð» ÑĮ
ļ à¸Ńà¸
° à¹Ģà¸
à«ģ àªĤ
ĠáĢ ĺ
ĠÎº Î±
à±ģà° ²
à¥ĩà¤ Ĥ
à§ĩà¦ ¨
áĢ¬ áĢĦáĢ¹áĢ
áĢ¯ áĢķáĢ¹áĢ
áĢ Ĵ
l u
´ ë
à¯Īà® ¯
áĥĺáĥ ľ
¡ à¸²à¸
å® ¶
çº ¿
è½ ¦
à¥ Ĥà¤
Ð¸ ÑĪ
Ã ´
áĢ±áĢ¬ áĢĦáĢº
Ġa ti
Ðµ ÑĢ
Ġ la
ĠÏĦÎ· ÏĤ
Ġ× ľ
Ġà° °
Ġ á»į
à¦ ª
Ġàª ¹
ĸ à¸
Ù Ĥ
¨ áĥĺ
àµ ¼
ãģ ®
áĢ±áĢ ľ
ì ¶ľìŀ¥
ì Ĭ
Ö Ģ
la r
áĢĻ áĢ½áĢ¬
áĢĲ áĢ¼
áĢľ áĢŃáĢ¯
Ð°Ð ·
Îµ Î¯
å¤ ©
6 6
è Ĥ
Ġà¤ ¯
à¯ģà® ķà¯įà®ķ
à± Ī
Ġ T
áĢ¸áĢ ±áĢ
áĤ Ģ
áĢĻ áĢ»
à¹Ħà¸ ¡
Å ĳ
à¦ Ł
Ġs i
ĠÑ ĥ
Îµ ÏĤ
Ġà¸ ªà¸
l o
çĶ Ł
Ġ /
Ľ à¹ĩ
å® ¢
ç ¾
å¿« ä¸ī
2 2
åİ ħ
è ¾
çĶ µ
è® ¡
æĿ ¥
é ģ
é Ĵ
± ä¹Ĳ
à¤° à¥įà¤
Ġáĥ Ķ
Ġ g
Ġàª ¨
à® ¯
íķ ľ
Ġ á¹£
à°Ĥà° ¦
Ø ²
Ð°Ð µ
ĠÎ £
§ à¸²à¸
Ġ O
áĥĶáĥ ł
Ð´ Ð¸
Î¿ Ïį
Ġà´ Ĩ
Ġ N
à±į âĢĮ
Ġì ł
Ġ× ĳ
Ġà¦ ľ
ĠáĢ ĸ
Ð» Ñı
Ġag çİ¯äºļ
è ĩ
éĢ Ł
à¤ ª
à¸Ļà¸ µ
Ġ M
à¯ģà® ¤
à«Ģ àª
Ġ r
áĥĶáĥĳ áĥĺáĥ¡
à±ģà° ¨
ĠÎ ļ
Ð³ Ð°
Ð¸Ð½ Ð³
ĠØ ¬
Ð³ Ð°Ð½
Ñĥ Ð½
áĤĢ áĢĢ
ĠáĢŀ áĢ°
à´Ł àµįà´Ł
ĠÏĦÎ· Î½
à¸Ļ à¹Ģà¸
áĢĦ áĢ·áĢº
ì ļ
Ġà° Ĩ
p a
èµ Ľ
æ³ ¨
æ ²
ä½ ľ
åį ķ
è ĥ½
Ġà¤ ¦
à¦¿à¦ ķ
Ð¾ Ð´
ar a
Î £
Î ¶
àµ Ĭ
à®Ł à¯įà®Ł
Ã ¶
à¹ĥà¸ «
Ġ gb
ĠàªĽ à«ĩ
Ġáĥ ŀ
ë ı
à± Ĭ
Ù ĥ
à´ª àµįà´ª
Ð½ Ñı
à¹ Ĥ
c z
Ã ª
åĽ ¾
åĪ °
ãĢ Ĥ
ç ł
å¨ ±ä¹Ĳ
Ġ ;
Ïİ Î½
å Ł
æ Į
åĩ º
è ¦ģ
å½ ķ
çĲ Ĩ
èµ °
WW W
æľ Ģ
Ġ WWW
ä ¾
å½©ç¥ ¨
é ¡
ç½ĳ åĿĢ
åĬ ¿
Ġå ħ
Ġå °
ä½ ĵ
æĹ ¥
ç« ¯
Ġå ĩ
Ġå ½
æ ĥ
ç Ń
æĪ Ĳ
Ġå ı
è ī
« ĺ
Ġ 6
Ġ 7
5 5
Ĺ äº¬
å ī
Ġè ¿
Ġà¤ ľ
ÑĤ Ð¸
à¦¾à¦ ²
Ġla ti
ĩ à¹Ģà¸
Ġ S
ë¡ ľ
áĥĲáĥ ª
Ñģ Ðº
Ø§ Ø±
y e
Î± Î½
à®¾à® ©
±áĢ ĲáĢ¬
ģ áĢº
áĢ±áĢ ŀ
Ġw a
àµĩ à´
Ð°Ñ ı
Ġà¦ª à§įà¦°
Ġà¸ ª
à±ģà° Ĥà°
ģ à¸£à¸
j u
áĢ¸áĢ Ļ
d i
Ġ× Ĳ
ĠÐ² Ð°
áĥĺáĥ ļ
Ġàª ¬
ä¹ ĭ
. .
åĲ Ī
æ ±
å® ī
å®¢ æĪ·
æ³ ķ
å Ģ
é ĺ
åħ ¨
à¤ ¦
Ġ áº¹
à¹Ħà¸Ķ à¹ī
Ð¾ Ñŀ
ĠÎ ¤
ê³ ł
áº £
áĢ±áĢ ķ
à´¿à´ ķ
áĢ¬ áĢ¹áĢ
±áĢ Ķ
áĢĻ áĢ½
áĢ±áĢ¬ áĢĢáĢº
à±ģà° ķ
ĩà¸ ´
à¦¿à¦ ¨
Ħà¸ §à¸²à¸
Î¯ Î½
Ġ B
Û Ķ
Ġ Ð°Ð´
à® Ļ
t o
áĥĶáĥĳ áĥĲ
çľŁ äºº
æ ¯
çĻ» å½ķ
å¤ ļ
à¥ĩà¤ ²
Ñĥ ÑĢ
Ġn a
ê° Ģ
à¹ĥ à¸Ļà¸
Ġà°ª à±įà°°
à´³ àµįâĢį
i s
à´¾à´£ àµį
àªĤ àª
à¦ Ĺ
b a
áĢŀ áĢĬáĢ¹
áĢĸ áĢ¼
Ø ´
Î ķ
ĠÎ ľ
áĥ Ĵ
t a
Ð°Ð ¿
Ġ ÏĮ
à´ ¦
r a
ê ²
Ð°Ñ Ī
ãģ Ħ
åŃ Ĳ
å¸ Ĥ
åĬ ¨
Ġå Ī
à¤¾à¤ ²
à® ¨à¯įà®¤
à¹Ī à¸Ļ
ģ áģ
Ġk h
Ġà¦ °
Ĺ à°¾
Ķ à¸´à¸
Ĳ áĢ²áĢ·
àª ²
áĢ ¥
ĠáĢĢ áĢŃáĢ¯
ĠÎ³ Î¹Î±
· à¸Ńà¸
Ñģ Ð¸
Ġf un
ë ¦
Ġà´ °
Ġáģ ı
ĠÐ Ĳ
× ĳ
áĥĶáĥ Ľ
b i
Ġæ Ī
å®¢æĪ· ç«¯
åĪ Ĵ
Ġ 8
é ĥ
è ģ
èµ° åĬ¿
Ġï¼ ī
ç ®
ç ¨
ç¥ ŀ
ç Ĥ
å· ¥
çİ °
à¤ ¯
à¦¾à¦ ®
à®¾à® ķ
Î» Î»
r o
Ġà´ª àµįà´°
¡ à¸µà¸
ÑĤ Ñĭ
d e
Ġà¦ ¶
Ġáĥ ¬
ĠÎ± ÏĢÏĮ
Ġ Ò
Ġ ÛĶ
áĢ² áĤķ
áĢ±áĢ¬ áĢº
à°¿à°Ĥà° ļ
Ġ P
Ġ 9
åı ¯
æ´ ²
à¨ ¾
Ġå Į
à¸Ńà¸ ¢
1 1
é «ĺ
äº İ
æľ ¬
à¹Īà¸ ĩà¸
å ģ
Ġï¼ Ī
è ·
ä¹ Ī
à¤¾à¤ ¨
ì ĥ
ĠÐ² Ñĭ
y i
Ù ģ
Ġàª °
Ġá¹£ e
àµģà´ ¤
Ġê °
k o
à¦° à§įà¦
Ġ ng
áĢ¼ áĢ¬áĢ¸áĢ
l ÉĻr
áĥĿáĥ ¡
Ġl o
Ġ Ïĩ
à®¿à® ±
áĢŀ áĢĬáĢº
ÑĤ Ð¾
á¹£ áº¹
à´£ àµįà´Ł
& #
å° ı
à¹ Ĩ
æīĭæľº çīĪ
à¤¾à¤ ¹
à°¾à°° à±ģ
w o
Ī ëĭ¤
Ġt o
Ñ Ħ
áĥĶáĥĳ áĥĺ
ĠÎ ·
àª £
àµĨ à´¯
à¦¾ à§Ł
Ġ E
ãĥ ¼
× Ĳ
à°¨ à°¿
æ Ħ
åľ º
åı Į
åŃ ¦
7 7
æľ Ī
è®¡ åĪĴ
éĥ ¨
á Ł
ä¸ »
æ Ļ
Ġ2 0
à¤¾à¤ µ
Ġ K
ĠÐ ĵ
à¯ Ģ
d a
Ġ à¹Ĥà¸
Ø§ ÛĮ
ĠÎ ¸
Ġà¦ ¯
l áº¹
ĠÐ Ł
Ġáĥ £áĥ
ļ à¸²à¸
å¯ ¹
ä¹ Ł
åĨ Į
à¤¾à¤ ļ
ļà¸Ńà¸ ¥
¥à¸ °à¸
àµģà´ ®
Ġà° ¬
Ð½ Ðµ
á» Ļ
q u
ĠØ§ÙĦ Ø
ÏĦ Î¬
àª ¹
Ð½ Ð¸
Ġ G
áĥĿáĥ ľ
àµįâĢ Į
à®° à¯į
ĭ à¸
ĠÐ½ Ðµ
ï¿½ï¿½ ï¿½ï¿½
k á»į
ë ¥
à°° à±įà°
é ¾
Ġà¤ °
Ð¸ Ð·
ĠÙħ ÛĮÚº
Ïģ Î¬
à´¤ àµį
áĢģ áĢ²áĢ·
ĠÑ Ī
à¦ ¼
±à¸ ĩà¸
e l
Ġàª ı
áĥ£áĥ ł
m á»į
¯ åıĳ
èµĽ è½¦
é ľ
e t
Ġ ä»
Ġà¤Ĩ à¤¹
ĠÏĥ Ïħ
à¯įà® ļ
Ġà° ¦
à´ ķàµįà´
ãģ §
áĢ Ĥ
Ī à¸²à¸
Ġk i
u l
Ġ L
×ķ× ª
Ġà¤ ²
ìĿ ¼
w a
ĠÏĢ Î¿Ïħ
áĢ¬ áĢĽ
áĥ §
ĠA wá»įn
Ġr áº¹
Ù ¹
ĠÐ½ Ð°
à´¿à´ Ł
ì ľ
à® ªà¯įà®ª
à¸£à¸ ´à¸
àª ª
Ġ J
±áĢ ĲáĢ¼
±áĢ Ľ
áĢ¸áĢ ŀ
ĠÑ į
d o
Ġj áº¹
Ġà° ĩ
ĠÑ ħ
Ø³ Øª
à¹ī à¸Ńà¸
àµįà´ ³
Î¹ Ïĥ
áĢ¸ áĢĢ
Õ ¸
d ÉĻ
áĥĺáĥ ĵ
p á»į
åľ¨ çº¿
¶ à¸
Ġå½ ©
æĹ Ĺ
èµ°åĬ¿ åĽ¾
ģà¸ ±à¸
æ³¨ åĨĮ
3 3
ç ¤
Ġå ľ
Ġ; &#
è§ Ĩ
¡ à¸²
à¥Ĥà¤ ¨
Ġë °
áĢ¯ áĢķáĢº
Ġk o
àª ¸
ÎŃ ÏĤ
ÑĨ Ð°
Ġ F
² à±ĭ
Ġà¤® à¥ĩà¤Ĥ
áº ¥
Ġà®İ à®©
à´ Ĺ
Ġ D
é £
é ķ
é¾ Ļ
ä¿ ¡
p k
äºļ æ´²
å¥ ½
à¤¿à¤ ķ
Ø§ ÙĦ
Ġáĥ ķ
Ð´ Ð°Ð½
p o
à¦¿à¦ ¤
s i
n i
ê¸ °
ģ áĢ²áĢ·
Ġáĥ ĳ
Ïģ Î¯
à® ļ
k e
Ġà° ī
ãģ Ĺ
k an
ĠáĢ »áĢķ
áĢĨ áĢŃáĢ¯
Ġà´ Ĵ
Ð¾ Ð¸
Ð½ Ð°
Ġàªķ àª°
¥ à¸²à¸
áĤı áĢŃáĢ¯áĢĦáĢ¹áĢ
áĢ±áĢĲáĢ¬ áĢ·
ĠáĢ ±
áĢ¬áĢ¸áĢ Ļ
à¦¿ à§Ł
èĪ °
ä» ¶
à¹Ģà¸ Ľà¹ĩ
éĩ ĳ
Ġåĩ ¯åıĳ
å® ŀ
ä» £
Ġà¤ ¶
ĠáĥĲáĥ ł
o o
ĠÎ Ķ
Ġì ķ
Ġk an
ÏĦ Î±Î¹
ĠÐ¿ Ð¾
Ä ĵ
à¯ģà® ķ
Ġp h
gb a
áĢĽ áĢ¾
à¦ ¹
ĠÃ ®
áĥĶáĥ ķ
áº¹ lu
h un
Ð°Ð³ Ð°
×Ļ× Ŀ
à´¾à´ ¤
w á»į
Ú Ĩ
æŀ ľ
äº §
åĲ İ
åħ ¥
è¿ Ľ
à¤ ¡
Ľ à¸£à¸°à¸
Ġà° Ĺ
Î¹ Î¿
ìĦ ľ
Ø Ń
àª® àª¾àªĤ
à¦¾à¦ ķ
Ġp e
Ð°Ð» Ñĸ
âĢĭ âĢĭ
àµģà´Ł àµĨ
áĥĶáĥ Ĺ
l i
· à¸Ń
Ġb a
ÎŁ Î
ĠÏĢ ÏģÎ¿
áĢŀ áĢ°
Ðµ ÑĤ
Ġ R
è ¶
Ġ ä½
ģ éĢŁ
æĹĹ èĪ°
éĿ ¢
æĬ Ģ
à¹ī à¸Ļà¸
åĬ Ľ
é ¦
å ¦
è °
è§ Ħ
æ ı
äº ĭ
åħ ĭ
ç» ı
å° ±
å¥ ĸ
à¹īà¸ §à¸
åº ¦
Ġå Ľ
åįķ åıĮ
å »
à¥įà¤ ¤
w e
à±įà° ª
Ġà® ī
Ġl áº¹
Ġà´ ¬
Ġà¦ Ĺ
áĢ¬áĢ¸áĢ ŀ
Ġt a
Ġ "
áĥĺ áĥĲ
j a
Îµ Î½
Ġb i
Ñĩ Ñĭ
o r
ì Ľ
in u
áĥĲáĥ ®
Ġ ?
y a
Ã ¢
ĠÎµ ÏĢ
Ð° Ò³
àª¨ àª¾
Ġp a
æĪ ĳ
è Ĳ
åĮ ĸ
èĩ ª
à¥įà¤ ¹
Ð· Ðµ
± àµĨ
ĠØ ±
Ġp áº¹lu
ĠN i
Į Ģ
à°¨ à±įà°¨
gb o
Ľ à§ĩ
Ġ W
áĥ£áĥ ļ
Ġáģ Ĥ
à¸£à¸µ à¸
er e
Ïģ ÏĮ
Ð³ Ð¾
áĢĬáĢ¹áĢ ·
áģ¿áĢķ áĢ®áĢ¸
áĢħ áĢ¹
áĢĲ áĢļáĢº
àµ »
á» Į
à¯ Ĥ
ĠáĢĴ áĢ®
áĢŃáĢ¯ áĢĦáĢ¹áĢ¸
áĢľ áĢ¬
r in
à§ģ à¦
§ à¸´à¸
à¤ Ĥ
ê µ
á» ĳ
à° Ĺ
Ñ ĳ
Ã Ń
ãģ «
áĢ° áĢ¸áĢ
ĠåĮ Ĺäº¬
è¿ ĩ
à¥ģ à¤
Î® ÏĤ
ĵ à¸
Ġáĥł áĥĿáĥĽ
àª¨ à«Ģ
áĢĲ áĢ¹
ĠáĢľ áĢ°
ĠÙ Ħ
en t
à¦¾à¦ ¦
ì ĸ
ĠÏĥ ÏĦÎ¿
áĢ¬áĢ¸áĢ ľ
± à¹īà¸
Ġà° İ
Ñĭ Ñı
å® ļ
æ Ľ
å §
æĸ ĩ
è £
Ġà¤ Ĺ
áĢ± áģ¾áĢĢ
áĢĽ áĢ½áĢŃ
áĢĶáĢ¹áĢ Ļ
ĠáĢ±áĢ Ľ
áĢģ áĢ»
à®¿à® Ł
Ġà¦ ļ
Å ¼
áĥĲáĥ Ĺ
à¹ĥà¸ Ĭ
Î Ĺ
Î¿Ïħ Î½
ÐµÐ½ Ð¸
Ġ× ©
ĠØ¯ Ø±
à°ķ à±įà°
ĠÐ ¡
à´ ´
ë Ĥ
è¿ Ĳ
Ġå ®
Ĥ à¸Ńà¸ĩà¸
å ĸ
ä¸Ń åĽ½
ä» ¬
æ į
Ġà¤ª à¥įà¤°
à§įà¦ Ł
àª¾àª ®
Ð°Ñ ĩ
áĢķáĢ« áĢĲáĢļáĢ¹
»áĢķ áĢ¬
áĢŃáĢ¯ áĢĢáĢ¹áĢ
áĢ ı
à®¾à® ²
áĥĲáĥ ¢
à´¿ àµ½
Ð¸ Ð¼
áĢģ áĢ¼
Õ ¥
m a
ì Ĥ¬
ĠÚ© Ø±
Ïģ Î³
iá» ĩ
ł à¸²à¸
à°¾à° ¯
Ð¾ Ð»
ĠÙ ģ
ì ²
Î¼ Î¿
pk 10
à¹ī à¸Ļ
åĵ ģ
Ġå ¹
ĠA G
ä¸ İ
Ġ1 0
åĬ ł
é Ĥ
¬ ¬
ç¾ İ
Ġå į
ç ķ
à¥ĩà¤ ¤
áĥ£áĥ ļáĥĺ
¯ à¦¼
ĠÐ »
ĠáĢ ļ
à« Ĥ
ë ĵ
u r
à®© à¯į
Ïĥ ÎµÎ¹
Ħ áĢ¶
ĠáĢķ áĢ¼
Ġà¤ħ à¤¸
ĠÐ ĳ
Ã ¬
Ġà° ľ
à¸Ń à¸²à¸
áĥ ĳ
Ðº Ð°
Îĳ Î
ĠÏĦ Î±
s z
ĠÐ ľ
áĢĶ áĢ²áĤĶ
áĢ° áĢ¸
áĢ±áĢ Ļ
¦ à°¿
à¸Ń à¸£
à¯įà® ²
áĢ¯ áĢĲáĢ¹áĢ
Ġà´ ī
» áĢģ
áĢľ áĢĬáĢ¹áĢ¸
áĢ¯áĢŃ áĢĦáĢ¹áĢ
áĢģ áĢ¯
Ñį Ð½
áĥĶáĥ łáĥ
ìĿ Ģ
Õ ¶
Ä Ł
Ġàª ¦
Ãª n
Ð¾ Ð¼
à¸² à¸Ļà¸
ÙĪ Úº
Ġ '
áĤ Ĳ
áĢ¸áĢ Ľ
ĠÎ ²
Ġæ ī
å¿ ĥ
åı ¸
Ġ %
éĩ į
è§ £
Ġå½© ç¥ŀ
åī į
Ł ¥
Ġäºļæ¸¸ éĽĨåĽ¢
Ġå Ĳ
è¿ Ļ
éĴ Ł
èĢ ħ
è ĭ
à¤¿à¤ ¤
áĢ±áĢ «
áĥĲáĥłáĥ Ĺ
¨ à¸
ÛĮ ÙĨ
ĠØ £
Ġà´ ľ
Ð¸Ð½ Ð¸
à°Ĥà° Ł
× ©
ĠÏĥ ÏĦÎ·
Ġáĥ ľ
à® ´
Ò ĵ
àª° à«įàª
Ð°Ñ ħ
r z
åħ ³
Ġ Ĉ
Ġ ä¸Ģ
Ġåľ ¨
ãĢ ĳãĢĲ
åĬ ¡
Ġ ï¿½
à¤ §
ĠáĢ±áĢ Ķ
áĢģ áĢ¶
Ġà¦¬ à¦¿à¦
Ġà¸ Ħ
m ÉĻ
Ã´ ng
g y
à´¾à´ ²
ĩà¸´ à¸Ļà¸
ãģ ¦
Ħà¸ ¸à¸
áĢ» áĢĸáĢħáĢ¹áĢ
áĢķ áĢ²
áģ ļ
áĢĻáĢº áĢ¬áĢ¸
ķ áĢ¼
Î» Î·
£ ¼
i t
Ó £
Ġà¤ķ à¥Ģ
áĥĶáĥ ĵ
àµ ¾
à¸Ļ à¹Į
Ģ áĢŃáĢ¯
áĢ¬áĢ¸áĢ ¡
Ł à¸
à±ģà°¨ à±įà°¨
Ġ ÏĨ
ĠÑ ĩ
Ġà¸ ŀ
ìĬ ¤
à® ķà¯įà®ķ
à¦¾à¦ ¤
Ġà¸ Ĺà¸
Ġà°ļ à±ĩà°
« à¸Ļ
áĢ¸áĢ Ĳ
Æ ¡
ĸ áĥĶ
Ġàª ²
à¹ī à¸Ńà¸ĩà¸
ĠÃ® n
Î± ÏĤ
ĠÐ ļ
l ÉĻ
Ġà¤Ĩà¤¹ à¥ĩ
ĠÙ ĩ
» áĢĻ
Ļ áĢº
ĠáĢĢ áĢº
áĢĶ áĢ¾
Ġê ²
à§įà¦ ¬
i a
à¹Ħà¸ ¥
ĠÛģ ÛĴ
Ĺà¸ ¢
à®¿à® ķ
à¥ĭà¤ Ĥ
à±įà° µ
ĠÏĢ Î±
Ġà¸ ķ
Ġ un
Ð°ÑĨ ÑĮ
à¸Ļ à¸²à¸
áĥ ª
Ġ ãĥ
Ġàª ¶
ģ à¹Ģà¸
à¨¾ à¨
2 01
Ġà¤ķ à¤°
ĠÎ Ł
áĢķ áĢ¹
ĠáĢ¡ áĢŀ
à¦¿ à¦°
à°¿à° ¤
Ġì Ĺ
á» §
Ġs z
ÑĨ Ñĸ
× ł
±à¸ ģà¸
áĥĿáĥ ķ
±áĢ ķ
ĠáĢ» áĢĻ
ķáĢ« áĢĲáĢļáĢ¹
áĢ¸áĢ ¡
Ġà´ ²
Ã §
ĠØ ´
áĢŃ áĢĲáĢ¹áĢ
áĢĦ áĢ·
ĠáĢ Ł
Î¼ ÎŃ
Ðº Ð¸
¸ à±įà°¤
Ð· Ñĸ
à¯ģà® µ
à¹ĥà¸« à¹īà¸
ĠáĢ» áĢĸáĢħáĢ¹áĢ
áĢĦáĢº áĢ¸
Ã ½
Ġàª Ĺ
Ġà´µ à´¿à´
à¦ ľ
ĠÐ¼ Ñĥ
ë§ Ī
s t
ĠæĪ ĳ
2 8
Ġç Ķ
çŃ ī
Īà¸ °à¸
æĹĹèĪ° åİħ
ç ³
å¾ Ĺ
å ķ
åĮ º
åĲ Į
çĤ ¹
çľ ĭ
å± ķ
çł ģ
7 0
äº Į
à¤¾à¤ ¸
áĥ Ļ
ìĿ ¸
Î½ Î·
ĠØ ¹
¡ à±ģ
ĠáĢ ¥
ÑĨ ÑĨÐ°
àµģà´ ³
áĢ¸áĢ ľ
Ã« r
à«ģ àª
áº Ń
ãģ ¨
áĥ ¥
ĠÏĥ Îµ
à¦ ĩ
Ð¸ Ñı
Ġáģ ģáģ
à¸£à¸±à¸ ļà¸
Ŀ ¼
Ã¡ s
Å Ľ
áĢ± áĢĢ
à¯įà®ķà®³ à¯į
à°Ĥà° ¤
±áĢ ľ
áĢ¬ áĢŀ
æ° ĳ
äº Ķ
Ġæ ŀ
æľ Ł
å¤ ĸ
éĢ ļ
æ ¶
éĩ ı
éģ ĵ
æĬ ķ
Ġag åĽ½éĻħ
æŃ £
Ġæ ĸ
« à¸Ļà¸
åĪĨ éĴŁ
åĳ ĺ
éķ ¿
à¹Ħà¸Ķ à¹īà¸
å· ŀ
éĹ ¨
Ġçİ¯äºļ ag
§ à¹Īà¸²
æĢ §
å ¢
app ä¸ĭè½½
Ġ ä¸
å¼ ı
æķ °
ä¿ Ŀ
åĪ ¶
à¹Ħà¸¡ à¹Īà¸
åĪĨ å¿«3
ķà¸ ±à¸
Ġ à¥
ti on
Ð°Ð´ Ð¸
Ġ ho
ĠÐ± Ð¾
à´± àµįà´±
Ġ çļĦ
§ à¹Īà¸²à¸
Ġà¤¤ à¥įà¤¯à¤¾à¤
Î¿ Î»
áĢĽáĢ¾ áĢŃ
à¦¾à¦ ¬
áĥĺáĥ ł
Ī ĺ
¥ à«Ģ
ĠØ Į
Ġà°µ à°¿à°
Ð°Ð» ÑĮ
Ġ q
à¤¿à¤ ¯
Å ¡
Ġ Ïħ
Ġun d
ĠÄĳ á»
à° ļ
ĠÑģ ÑĤ
Ġe t
Ġà® Ĩ
à¦¾à¦ ¸
Ġ× ŀ×
ĠÎ »
áĥĿáĥ ĵ
à´¾à´¯ à´¿
Ð»Ð°ÑĢ Ð¸
Ġì ĺ
Ð¸ Ð±
áĢ¬ áĢĦáĢ¹
áĢ¬áĢ¸áĢ Ľ
èĤ ²
å¤ §åıĳ
Ġå ¾
æ ģ
èµ Ħ
Ġà¤ ļ
àª¾àª µ
a re
ĠÑ Ħ
ŀ áĢ°
áĢ¸áĢ ħ
d z
ĠÎ± Î½
à±ģà° ¤
Ã¡ l
áĢ¯áĢŃ áĤĶ
áĢ±áĢ¬ áĢĦáĢºáĢ¸áĢ
Ġà¦ ī
ë¦ ¬
Ġáĥ ®
àµĨ à´¨àµįà´¨
ĠÐ Ĵ
4 4
ĠãĢ ĭ
å» º
Ĥ à¸Ńà¸ĩ
Ġæ ĺ
éĹ ´
è¡ ¨
ģ à¹ĩà¸
à¥Ģ à¤²
p e
Ø ¦
b o
Ð¼ Ñĸ
Ġv Ãł
Ïī ÏĤ
Ġàªħ àª¨à«ĩ
u ng
Ġà° ²
à´¨ àµįâĢį
k a
Ġà´İ à´¨àµįà´¨
Ð½ Ð¸Ð½Ð³
ĠÐ´ Ð°ÑĢ
à®£ à¯įà®Ł
Ġ wá»įn
áĥ ¨áĥĺ
áĤ Ĭ
áĢ¬ áĢĢáĢ¹
áĢ±áĢ ·
ou r
à¦ Ĥ
Ð¸ ÑĤ
ëı Ħ
Ðº Ñĥ
ÏĦ Î®
n a
è® ¯
ç³ »
Ġè¿ Ļ
à¤ Ĺ
à´¿à´ ¨àµįà´
Ġ H
Ġd i
ÙĨ Ø¯
ãģ ª
k i
áĢ±áĢ ¡
à°¨ à±ģ
Ġáĥ ¥
à¤ ¶
Î¬ Î½
Ñģ Ñı
h e
á¹£ e
áĤıáĢ½ áĢĦáĢ¹áĢ·
Ļ áĢ½áĢ¬
áĢ» áĢĸ
áĢ¬ áĢľ
ì ĺ
à®¿à® ¤
Ġi á¹£áº¹
àª ¯
à¹ĩ à¸Ńà¸
à¸Ń à¸Ńà¸Ļ
ľà¸ ¹
y an
Ļ áĢ½
Ġà´ ¯
áĢļáĢ¹áĢ ľ
ĠáĢ Ħ
l á»į
Ù ī
ë ħ
áĥĺáĥ ª
Ïģ Îµ
ĠØ§ ÙĪØ±
r á»į
ĠÐ Ŀ
Ġ201 9
è® ¾
é ĥ½
ç ©
åħ¬ åı¸
à¤¾à¤ ¯
È Ľ
àµģà´¨àµįà´¨ àµģ
à¸Ńà¸Ńà¸Ļ à¹Ħà¸¥
× ĵ
ªà¸ ¸à¸
à®¿à®© à¯į
Ġë §
Ġf i
à°ķ à±ģ
ĠáĢ Ŀ
à¦¾à¦ ĩ
Õ «
Ö Ĥ
Ġv ÉĻ
à¸² à¸£
Ñį ÑĤ
àª Ĺ
ĠâĢ Ļ
áĢŁ áĢ¬
ĠáĢ¡ áĢħ
ÏĦ ÏĮ
áĥķ áĥĶáĥļ
à¤ ľ
b e
Ħà¸§à¸²à¸ ¡à¸
ĸ áĢ¼
ĠÐ± Ñŀ
Ð°Ð½ Ð´
Ġni pa
m i
Ġv á»
Ġy i
àµ Ī
ŀ Į
t á»į
Ġà¦ ĵ
áĥĿáĥ ļ
à±Ĩ à°²
à¹Ī à¸Ļà¸
gb e
ĠÏĦ ÏīÎ½
Ġe in
ãģ Ł
Ġlo ri
à«įàª Ł
j á»į
ÑĨ Ñĭ
à¹Īà¸ ĩ
Ø§Ø ¦
Ġà¦ Ń
å®ĺæĸ¹ ç½ĳç«Ļ
æ° ´
æı Ĳ
æ £
å¼Ģ å¥ĸ
é Ķ
ç¨ ĭ
à¹Ħà¸¡ à¹Ī
åĪ ©
Ġ1 1
à¥ Ĥ
ê ±
» áĢĸ
áĢ¥ áĢ¹áĢ
ĠáĢĢ áĢ¼
à±įà° ļ
à®¿à® ķà¯įà®ķ
Ðµ Ð¼
Ïĥ Îµ
Ì £
ìĭ ľ
Ġ Ãł
Ġáĥ ¤
à´¿à´ ¤
ĠáĢŀ áĢŃ
ĠØ¨ Ùĩ
áĢĻáĢ¾ áĢ¯
à°ª à±įà°ª
áº §
Ġà¤ ī
ĠÐ¿ ÑĢÑĭ
Ľ à¸£à¸
à´¨àµįà´ ¤
Ġì ĭ
à¦ £
àª¾àª ¯
Ġáĥ ©
Ġa z
Î¯Î½ Î±Î¹
Ġà´ ¶
à¸Ļà¸µ à¹ī
à¯įà® ³
à°² à±ģ
Ø ¬
d d
c i
Ðµ Ð´
× ¢
Ġà¤ Ń
áĢĽ áĢ½
ª à¸´
áĥĿáĥ ł
ìķ Ī
à´² àµįà´²
t en
áĢĻ áĢ¼
l Ä±
àª ¦
Î» Îµ
ë °
à°² à±ĭ
Ġ qu
à¹Īà¸ §à¸
à§ĩà¦ ķ
ĠÐ £
áĥ ¬
Ĭ é¾Ļ
åĨ ħ
ä½ į
à¸µà¸ ¢à¸
æĬ ¥
èī ²
æĥ ħ
åĲ Ĺ
á Ī
åı £
è Ĭ
é ©
ç Ŀ
ĳ åħĭ
à© Ģ
ĠåĮĹäº¬ èµĽè½¦
Ġæŀ ģéĢŁ
é ļ
äº ¤
à¸Ńà¸ ¢à¸
é ª
Ġé ĩ
å° Ĩ
äº ī
åħ ĥ
ä¸ ĩ
Ġå Ĭ
æ¬ ¡
ç® ¡
æ ¡
âĢ ľ
åı Ĭ
çĽ ´
åı ·
Ġ ä¸į
æ Ĵ
æ¬ ¢
ç ´
æīĭæľº å®¢æĪ·ç«¯
é »
è ¢
ãĢ ģ
æĪ ĺ
à¸Ń à¸Ļà¸
æľ į
Ġ1 2
ç Ī
é ĵ
Ġ áł
à¤ Ł
ÎĻ Î
Î» Î±
àµįà´ ŀ
ĠáĢĴ áĢ«
Ġì Ħ
áĢ¬ áĢĶ
Ð° ÒĽ
à®¾à® ¤
áĢĴ áĢ®
Ñĥ Ñģ
àª ¡
ĠáĢ¡ áĢľ
Ä Ľ
ĠÑ Ĩ
Î¿ Î½
Ã¼ n
à°¿à°ķ à°¿
àµģà´³ àµįà´³
áĥĶáĥĳ áĥ¡
áĢ» áĢģ
áĢĸáĢ¼ áĢħáĢº
à§ ľ
Ġ Ú¯
s h
Ġå¤§åıĳ å¿«ä¸ī
Ġæ Ĺ
è¯ ´
èµ ·
à© ĩ
ç¾ ¤
æ¯ Ķ
æ ¼
¡ à¸µ
à¸£à¸±à¸ ļ
à¸Ńà¸¢ à¹Īà¸²à¸
Ġà¤¹ à¥ĭ
Ñ ī
a s
í Ĭ
à® ª
àª ľ
Ġ x
Ð°Ñģ Ð¸
à¦¿à¦ ²
Ñ ĵ
ĠâĢ Ķ
Ð°Ñ Ĭ
Îº Îµ
ë¥ ¼
Ø§ Øª
Ġp o
ĠáĥĲáĥ Ľ
Ð°Ñģ ÑĤ
çİ ©
å¼Ģ æĪ·
Ġ ć
æĶ ¿
æĺ İ
éĩ Į
å Ļ
åŁ İ
åĲ į
à¤¿à¤ ²
à°¿à° ¯
±áĢ ŀ
áĢĢ áĢ»
ŀ àµįà´ŀ
t t
à«ĩàª ²
× Ĺ
ĠÏĢ Îµ
áĥĿáĥ Ĵ
ç ±
ª à¸²à¸
à¨ ¿
à¸Ļà¸ ±
Ġï¼ Ł
à¤¾à¤ ®
Ã¡ c
à¯įà® µ
ĠÐ ¶
àµįà´ ®
áģ ¼
áĢķáĢ« áĢĲáĢļáĢº
áĤıáĢ½ áĢħáĢ¹áĢ
áĢĻáĢ¾ áĢ¬
ÑĢ Ñį
à§ģ à¦²
Ġ en
àµįà´ µ
ì ¹
áĢ±áĢ¬ áĢ·
áĥĿáĥ łáĥ
Ġàª Ń
ÑģÑĤ Ð²
à¥įà¤ Ł
ĠÎµ Î¯Î½Î±Î¹
áĢŃ áĢĻáĢ¹áĢ
áĢ¯ áĢĲáĢº
Ġm i
r an
Ð°Ñ İ
à¯ģà® ®
íķ ´
ª àµįà´ª
Ð°Ð ¸
Ġo hun
ãģ Ļ
à°Ĥà° ¡
Ã¡ r
áĥĺáĥ ¢
Å «
Ġàªª à«įàª°
Ġd er
r u
Î ¡
Î¯Î± ÏĤ
ĠØ ¢
Ġl Ãł
Ð°Ð¼ Ñĸ
à§ĩà¦ ²
à´ ¶
ÙĬ Ø©
Ġ. ..
é¢ ĺ
ç ²
ç Ħ
¥à¸ °
ĠAG çİ¯äºļ
ç» ĵ
à¤¾à¤ ľ
áĢ¬áĢ¸áĢ Ĳ
Ġ á»Į
Ä ĩ
Õ¸ ÖĤ
ÉĻ t
áĥĵ áĥĲ
f i
à°¿à° ª
à®² à¯į
Ï Ī
Ġê ³
à¹Ģà¸ Ĥ
à¹Ģà¸Ľà¹ĩ à¸Ļà¸
¥ ¿
è£ ħ
èĢ ĥ
å¤ ĩ
åº Ķ
å £
è· ¯
åĪĨ åĪĨå½©
æ º
à¤¾à¤ Ĺ
áĢľ áĢ²
ĠÂ «
Ġn inu
ĠáĢĸ áĢ¼
à§ĩà¦ ¶
áº¹ n
k un
j i
Ġ× ķ
àµģà´ µ
à±įà° ¸
Ġáĥĵ áĥĲáĥ
ê ŀĮ
Ġa la
àª¾àª ¤
Ġ ï¿½ï¿½ï¿½ï¿½
a l
Ðµ Ð»
m u
Î¿Ïħ ÏĤ
áĢĻ áĤĪ
áĢĲáĢ¼ áĢĢáĢ¹
ĠáĢĢ áĢ»
à¥įà¤ µ
Ġm a
ë ³
ĠÑĪ ÑĤÐ¾
§ à§
à´² àµįâĢį
Ġà®ļ à¯Ĩ
à´Ļàµįà´Ļ à´³
Æ°á» Ŀ
à§ģ à¦°
áĤĢáĢĢ áĢ®áĢ¸áĢ
ĠáĢĨ áĢŃáĢ¯
ë ¶
ĠÎ ĵ
±áĢ Ĩ
áĢ½ áĢĶáĢº
àª ³
ĠáĥĴ áĥĲáĥĽ
à± Ĥ
Ñĥ Ð¼
Ġd a
Ù ¾
Ġm áº¹
Ġà¤ķ à¥ĭ
ĠÎ± Ïħ
à¸µà¸ ¢
Ð¾ Ð¹
à° ¹
à§įà¦ ·
Ġi le
±à¸ ĩ
æİ ¥
à¥įà¤ ·
e g
à´ ¹
ì £¼
ar i
ÏĥÎ· ÏĤ
ĠáĢķ áĢ«
d u
à±įà° ®
Ġl á»į
áĥĺáĥ Ļ
¥ à¹ĩà¸Ńà¸
à®¾à® Ł
«à¸ ¥à¸
Ġàª¹ àª¤
ĠØ§ÙĦ Ùħ
Ġ. .
áĢĻ áĢŃ
àµģà´ £
í Ļ
Ġd es
áĢ ĩ
à° ľ
ĠÐ ¢
Î ¤
Ïģ Î·
à¤ ³
× §
à¦ ¶
à¹ ģ
ĠáĢĲ áĢħáĢ¹áĢ
áģ ½
áĢŃáĢ¯ áĢĢáĢº
t u
Ġáĥ Ŀ
ĠØ ®
íĬ ¸
Ġth á»
Ġi n
Ð»Ð¸ Ðº
à´ ·
Ò ·
ãĥ ³
ķ à¸´à¸
s áº¹
Ð¾ ÑĤ
à±ģà°² à±ģ
Ġ Ð°Ð±
à¯įà® ©
Ġgb a
ĠÎ ¬
ë ł
ĠáĢĻ áĢŃ
Ġàª ¥
Ã¡ n
à¹Ģ à¸£à¸
à¹ģà¸ ¥
Ġå ¥
çī ©
à¤¾à¤¹ à¥Ģ
áĢ¸ áĢĢáĢŃáĢ¯
à¦¾à¦ ľ
Ġà´Ĵ à´°
áĥłáĥ Ĺ
à ¶
Ġà¤¸ à¥ĩ
à°¿à° ²
±áĢĲáĢ¬ áĢ·
áĢĽ áĢŃ
à¯ģà®¤ à¯įà®¤
Ñĥ Ð´
Ġà¦ª à¦°
Ïģ Ïī
ĠáĢ Ĺ
Ġy oo
s e
çĲ ĥ
Ġà¤Ĩ à¤£
Ġì §
áĥĺáĥ ķ
Ø§ Ùħ
àª ¥à«Ģ
áĢ¬áĢ¸ áĢĢáĢŃáĢ¯
à°¾à° Ĥà°
Ġ Y
Ķ à¹Ģà¸
Ġs o
Î Ŀ
Î¹ Î¬
ĠÐ Ķ
Ġa ye
Ġgb o
à¸£ à¸£à¸
Ġà´ Ł
à¯ģà® Ł
Ġt á»įn
Ġd ara
ĠÐ¿ Ð°Ð´
Å ¾
Ġa ra
Ľ i
Ð¾ Ð±
áĥĶáĥ ¢
Ġà¦ı à¦ķ
ĠÏĦ Î¹
e m
ĠìĿ ´
ĠÃ ·
w y
a m
à´¾à´ µ
áĢ±áĢ Ĩ
à°¾à° ¤
an i
à«įàª ¤
à¸² à¸Ļ
in i
Ġáģ į
Ġà¤ ĩ
× ¤
c k
Ġi á¹£
ĠÎ¸ Î±
Ġa n
ĠØ³ ÛĴ
Ġ U
Ġgbo gbo
ãģ Į
áĥĺáĥ Ľ
Ĺ à¸²à¸
ÙĪ Ø¯
à®² à¯įà®²
ĠÂ »
ĠâĢĭ âĢĭâĢĭ
à´¿à´¨àµįà´ ±àµĨ
á»įn a
k u
áĢ ´
áĤı áĢ¯áĢŃáĢĦáĢ¹áĢ
áĢ¬ áĢ¡
Ð°ÑĤ ÑĮ
Ġta bi
r áº¹
ĠáĢ±áĢ »áĢķáĢ¬
áĢŃáĢ¯áĢ¸áĢ Ľ
à°Ł à±įà°Ł
à¦¤ à§ĩ
Ġë Ĥ
ĠÏĦÎ¿ Î½
áĤıáĢŃáĢ¯áĢĦáĢ¹áĢ ĦáĢ¶
ĠâĢ ¦
ľ áĢ¬
áĢĲ áĢŃ
Ġna a
àª ¶
áĥķ áĥĺáĥ¡
b áº¹
à´¿à´² àµįà´²
à°¿à° °
áĢĦáĢº áĢ·
Ñĭ Ñħ
áĢŃáĢ³ áĤķ
áĢĬ áĢ·áĢº
à¹ĥ à¸Ļ
æµ ·
ä¼ ł
à¤² à¤¾
Ġt á»
Ã© g
a t
y in
Ġà®ĩ à®°
ëĭ Īëĭ¤
b ara
ĠÏĥÏĦÎ· Î½
à´ ¬
es e
à¤¨ à¥ĩ
Ð¾ Ñģ
Ġe yi
áĥĶáĥ Ĵ
Ø ·
Ġo ri
à¹Ħà¸ Ĺà¸¢
à¸Ńà¸Ńà¸Ļà¹Ħà¸¥ à¸Ļà¹Į
ģ à¸²à¸
àª¿ àªķ
Ġà¦ ¥
Ġs á»į
à° ¬
çī Į
à¤¾à¤Ĥà¤ ļ
Ð½ Ð°Ð¹
ĠÎ Ĺ
Ġd o
à´ ļàµįà´ļ
á¹ ¢
n u
à¹ģà¸ ¥à¸°à¸
Ġáĥ ¢
Ðµ Ð¹
Ġn u
ĠM o
j e
u y
æī Ģ
åį ļ
åĸ ľ
æĦ ı
à¹Ħà¸ Ľà¸
ç ĥ
Ġag äºļæ´²
è´ ¹
æĢ İ
à¤Ĥà¤ ¤
à´¾à´ ķàµįà´ķ
à®Ļ à¯įà®ķ
Î± Ïĥ
Ġ á¹¢
h in
Ġm u
à°Ĥà° ²à±ĭ
j o
Ġà¦ ²
Ð¸ Ð¹
Ð¸ Ðº
Ð°ÑĢ Ñĭ
× ŀ×
Ġàª ļ
d un
ĠT i
Î¸ Î·
Ġo lu
Ã ¨
Ð¾ Ò³
áĥĶáĥļ áĥĺ
à´ Ń
áĢ Ĺ
Ĭà¸ ±
à¦ ļ
Ġag çľŁäºº
è¯ ķ
à¹Ħà¸ Ľ
åĻ ¨
Ġå° Ĭé¾Ļ
Ġ2 22
çī ¹
é ħ
ģà¸±à¸ ļà¸
æµ ģ
Ķ à¹īà¸§à¸
ķ à¹Ī
ĠåĪ Ĩ
éĢ ī
à¨ °
çĽ ¸
æĢ »
Ġè Ģ
ç ¼
Ġ á
åķ Ĩ
è¯ ·
Ġà¤ ı
Ð½ Ñĥ
à°¾à° ®
ĠÚ© ÙĪ
à®± à¯įà®±
Ġàª® àª¾àª
Ļ áĤĪ
áĢĺ áĢ°áĢ¸
áĢĬáĢº áĢ¸
ĠÏĦÎ¿Ïħ ÏĤ
Ġà° Ī
ìŀ Ĳ
áĥ ¨
àµĨ à´Ł
Ø µ
áº¥ t
Õ¡Õ ¶
d Ä±
áĢ¼ áĢĢáĢ¹áĢ
Ĩ áĢŃáĢ¯
à¦ Ń
Ð½Ñĭ Ñħ
ãĤ ĭ
áĢ±áģ¾áĢĢ áĢ¬áĢĦáĢ¹áĢ¸
áĢ¯áĢ¶ áĢ¸áĢ
Ġ Ã©s
ĠÎ´ Î¹Î±
à°¾à° Ł
Ð¸ ÒĽ
ìľ ¼
Ġï¼ ģ
ä» ĸ
å½ ±
ä¸Ģ ä¸ª
æµ ĭ
æ ¢
ĠâĢ ķ
çĽ ®
é¡ µ
ç» Ł
Ġà¤µ à¤¿à¤
Ġà´ ¦
ĠáĥĴ áĥĲáĥľ
ĠÐ± Ð°
Ġy n
àª Ł
ĠáĢ Ĥ
Ðµ Ð»Ð°ÑĢ
ĠÐ± Ñĭ
à°¾à° ķ
à´ķàµįà´ ·
áĥĲáĥ Ĵ
Î¹Îº ÏĮ
Ć Ĉ
æĺ Ł
å± Ģ
Ġà¤ ĺ
à¦¨ à§įà¦
Æ°á» £
áĢ¬áĢ¸áĢ ħ
·à¹Ī à¸Ńà¸
Ġd ie
ÉĻ s
Ø§ Ø¯
à° £
Ð· Ñı
ĠàªĨ àªµ
Ġë ĭ
à´¾à´¨ àµįâĢį
àµģà´ ±
áĥĺáĥ Ŀ
ÏģÎ¹ Ïĥ
È Ļ
Ġ× ¢
ģ áĢ¼
Ġl es
Ġn Ã«
à¦ §
Ġà® Ĵ
µ à¸
Ġè ¯
æľĢ æĸ°
1 2
é¦ ĸ
Ġà¤Ĩà¤£ à¤¿
Ġá¹£ i
Ã³ w
r un
à ·
Ġà¤ Ķ
a y
Ã º
Ñĭ Ð¼
Å Ĩ
áĢ±áĢ ħ
Î¸ Îµ
áĥĺ áĥĲáĥľ
±áĢĲáĢ¬ áĢ¹áĢ
áĢ¯ áĢĽ
Ġà´ħ à´µ
ĠÐ¾ ÑĤ
à°ķà±įà° ķ
àª §
à¹ĥà¸Ĭ à¹īà¸
ĠáĢ»áĢĻ áĢĶáĢ¹áĢĻ
áĢ±áĢ ķáĢ«
ìĽ Ĳ
Ġà¦¸ à¦®
ĠÎ Ŀ
áĢ¬ áĢĦáĢ¹áĢ·
áĢ±áĢŀ áĢ¬
áģ ĭ
ģ áĢ¶
© à¸
áĢŀ áĢŃ
Ð½Ñĭ Ñı
Î¿ ÏĤ
ë Ŀ¼
áĥ ŀ
áĢ½ áĢ²
ĠÙ Ĭ
Ã© n
ĠÒ³ Ð°Ð¼
àµģà´¤ àµįà´¤
Ðµ Ðº
Îº Î±
¡ à¹Ģà¸
Ġàª «
ÛĮ Ø¯
à®³ à¯į
d ir
Ġà° Ń
Ġp rz
à´ ¡
ĠÑı Ðº
è į
è ĥ
ç ģ
åį ģ
æ ·
âĢ Ŀ
à¤¾à¤Ĥà¤ ¨
áĥĺáĥ ļáĥĺ
Ġê ·
z i
Ġà¦¹ à§Ł
ĠáĢ¡ áĢ²
Ķ áĢ²áĤĶ
áĢĲ áĢ±áĢ¬áĢº
ÏĥÎµÎ¹ ÏĤ
Ġà¸ ģà¸
c e
Ð¾ Ð¶
ĠØ§ Ø³
Ġà¤Ķ à¤°
ĠáĢ¡ áĢĽ
à¸£à¸²à¸ Ħ
Ġà° ¶
¡à¸ ŀà¸
áº¡ i
Ġa u
× ŀ
Ġà¸ Ħà¸
Î¿ Î¹
ĠáĢ ·
Ġáģ ¿
áĢ± áĢ¸
áĥ £
ãģ ¯
Ġàªķ à«ĩ
Ġæĸ °
3 6
Ġ20 20
åĽ ŀ
Ġà¤¹à¥ĭ à¤¤
à¹Ĥ à¸£à¸
à¦¾à¦ ¹
àµģà´£ àµįà´Ł
áĢ³ áĢŃ
áĢĶ áĢŃáĢ¯áĢĦáĢº
ĠÎ± ÏĢÎ¿
à±ģà° °
ie m
Ħà¸£à¸ Ķà¸´à¸
à¹Ģà¸ ¥
à®¿à® µ
áĥ ¦
Ġì Ĥ¬
Ð¾ ÑģÑĤ
à§ĩà¦ Ľà§ĩ
à´¿à´ µ
¥à¸ ĩà¸
e k
è¢ «
ç ¬¬
à¹ĥà¸« à¹ī
Ġç »
ķ à¹Īà¸
åº Ĩ
å ŀ
ç§ į
ĠãĢ Ĭ
ç¤ º
åľ° åĿĢ
å¾ Ī
çĿ Ģ
à¥įà¤¯à¤¾à¤ ļ
à°° à±į
ĠÐ ł
Î¹Îº Î®
Ġg i
Ġàªª àª°
Õ¥ Õ
d ÉĻn
Ø ®
Ð°Ð² Ð°Ð½
Ġáĥ ª
Ð°ÑĤ Ð¸
à¯ģà® ±
ĠáĢĻ áĢ¼
Ġà¦ ĩ
Ïģ Ïĩ
à´ķàµįà´ķ àµį
à°Ĥà° Ĺà°¾
Ĥ °
èµ Į
åħ ¶
å¦ Ĥ
è Ļ
åĸľ æ¬¢
Ġ0 2
äº Ľ
æĽ ´
à¤¾à¤ £
Ħ à¸£
áĢĶ áĢ¬
ĠÑģ Ð²
ì Ĩ
t Ã«
áĢĶáĢ¹ áĤĶ
» áĢĸáĢħáĢ¹áĢ
áĢĲ áĢŃáĢ¯áĢ·
d er
ÏĢ Î±
Ġ à¸Ńà¸
áĥĲáĥ ĺ
à§ ¦
Ġ es
Īà¸ ±à¸
à«ĩàª ®
Ġk a
Ġc á»§
Ñ Ĭ
ĠÂ ¬
y n
ĠÐ¿ ÐµÑĢ
áĢĲ áĢ®
ĠÎ ®
áĢ» áĢĻ
Ġà¤ķ à¤¾
áĢĳ áĢ¬áĢ¸áĢ
Ġë ª
Ġà¦ «
ÛĮ Ú©
¥à¹ĩà¸Ńà¸ ķ
¢ à¸²à¸
æł ·
Ġ2 5
à¹Ģ à¸£
å¯ ¼
è ¥¿
æİ Ĵ
åĪ Ĺ
éĿ ŀ
æĢİ ä¹Ī
æī ĳåħĭ
å¾ ĭ
éľ ¸
è Ħ
1 8
Ġ2 2
åİ »
ç§ ĳ
à¤¾à¤ ł
àµįà´ ¥
áĥļ áĥĺáĥ¡
ĠáĢ±áĢ Ļ
áĢĢ áĢ¯áĢŃ
ĠáĢ±áĢ ľ
ĠáĢ± áĢĢáĢº
áĢķáĢ¼ áĢ®áĢ¸
Ġà®ª à¯ĭ
× Ľ
à°¾à°² à±ģ
ÖĢ Õ
Õ¸ÖĤ Õ
Ġt ÉĻ
Ð¾ Ð»ÑĮ
Î¼ ÏĮ
Ġàª ĸ
ì² ľ
Ġà§ ¨
Ð°ÑĢ Ð¸
y ch
Ã© r
Ġê ¸
ĠÂ Ń
áĥĺáĥ £áĥ
Ĭ à¸²à¸
ĠÙģ ÙĬ
à§ ĥ
ĠáĢľ áĢĢáĢ¹áĢ
ĠáģĤ áģĢ
à´¸ àµį
Ġà° ¹
à®¾à®° à¯į
áĢĻ áĢ¬
« à¸£à¸
æĭ ¿
Ł ³
èģ Ķ
å¸ ¸
« à¸²à¸
Ġ1 9
à¸Ńà¸¢à¸ ¹
Īà¸²à¸ ģà¸
ä¸ ľ
à¸Ńà¸ ļà¸
èĢ ģ
Ġæ Ŀ
7 8
åĪĨ æĹ¶æĹ¶å½©
Ġ1 3
áĢģ áĢ«
Ġ222 70
è½ ¯
à¹īà¸ §
Ġè ®
æĮ ģ
æ´ »
«à¸ ¡à¸
à¹Ģà¸ ¥à¸
æ ¨
æĴ Ń
åĢ ¼
éĹ ®
ä½ĵ èĤ²
å¸ Ī
äºī éľ¸
æķ Ļ
à¥Ģ à¤ļ
ÏĢ Îµ
Ġde l
? ?
t un
ĠÑģ Ð¿
Ġ ri
ĠáĢģ áĢº
áĢ¯ áĢĶáĢº
Ġà¤ª à¤°
Ð¾Ð½ Ð¸
Ġàª¤ à«ĩ
Ġo f
i yan
u s
áĥĲáĥ ¨áĥĺ
à´¿à´Ł àµįà´Ł
Ġcá»§ a
à°ļ à±įà°ļ
ĠÎ´ ÎµÎ½
à§ Ĥ
ë ©
Ġm o
d á»į
Ð°Ð² Ñĸ
Ġà®ħ à®µ
Ġáģ ¾áĢĢ
áĢ¼ áĢ¸áĢ
áĢŃáĢ¯ áĢĦáĢºáĢ¸áĢ
Ġt un
à´¾à´° àµįâĢį
ĠÐ¾ Ð±
à´¾à´ ¸
ĠÎµ Î½
p in
t áº¹
ĠÚ© Ø§
Ġe l
Ġm Ã¼
à°¾à° µ
ĠØ§ Ø²
áº ¸
Ġáĥ §
æº Ĳ
å· §
é¢ ĳ
Ġä½ Ĩ
æĹ ł
ç ¡
å¼ º
ĠãĢ ĳ
åŁ º
éĴ ±
º «
çĦ ¶
Ġé Ģ
éĻ ¢
è® º
ä» ·
å½© åĸľæ¬¢
à¸µ à¹Īà¸
ĠCOM å½©åĸľæ¬¢
çº §
5 0
ä½ ¿
ģ à¹ĩ
Ġ ä¸Ń
æľ ¯
å½©ç¥ ŀ
Ĵ áŀ
çĻ ¾
ä» »
Īà¸ °
æ »
Ġà¤ ĸ
ÑĢ Ñĥ
t Äģ
Ġn á»į
Ã ²
àª¿àª ¯
Ġà¦ ĸ
áĢļáĢ¹áĢ ·
áĢ¼ áĢĶáĢ¹áĢ
áĢ½ áĢº
áĢŀ áĢ¬
Ġà´¨ à´¿à´
à¯ģà® ³
Ġì ¹
Ïĥ Î±
Ä į
h r
à±ģà° µ
ĠáĢ±áĢ Ĩ
ŀ áĢĬáĢ¹
Ġáģ ģ
ĠÐ ¹
ĠÒĽ Ð¸Ð»
Ñĥ Ð»
v e
áĥĲáĥ Ļ
Ġáģ Ģ
Ð½Ñĸ Ðº
Ġë ³
ĠáĢ±áĢ ĲáĢ¼
áģ¿ áĢĻ
áĢĲ áĢ°
× Ŀ
88 8
ç» Ħ
ä¼ ģ
å° ĳ
201 9
¦ Ĥ
è ±
æį ®
Ġà¤¸ à¤Ĥà¤
ĠÎµ Îº
à¦Ł à¦¿
Ð¸ Ð´
ĠÃ §
Ġáģ ĥ
ÑĨ Ðµ
áĢĲ áĢŃáĢ¯áĤĶ
áĢĲ áĢħáĢ¹áĢ
ĠáĢ»áĢĻáĢĶáĢ¹áĢĻ áĢ¬
áĢĢ áĢ¬
Ġz a
à®¿à®¤ à¯įà®¤
Ġáĥŀ áĥł
Ġ =
o l
ĠÎ¿ Î¹
ÑģÑĤ Ð¾Ð½
Ġà´¸ à´Ĥ
Ġàª ī
ĠÚ© Ûģ
æĶ ¶
Ġk 8
åĲ ĳ
ģà¸ ±à¸Ļ
æĬĢ å·§
Ķ à¸µ
à¤² à¥ĩ
Ó ¯
à° ³
áĢ ī
ĠÙħ ÙĨ
Ġáĥĺ áĥ¡
ë ¬
Ġc Ã³
ou s
ĠÐ Ĺ
à®¾à®© à¯į
Ġà´ ±
ĠÎ Ĵ
à®© à¯įà®±
à±Ī à°¨
Î´ Î¿
Ðµ Ð»ÑĮ
Ġ1 8
å§ Ķ
ä½ ł
Ġå¤ §
à¤¿à¤ µ
Ġì Īĺ
àªµ àª¾
à´¿à´² àµĨ
Ñģ ÐºÑĸ
áĢĢ áģ
áĢ¼ áĢ¬
áĢĲ áĢ±áĢ¬áĢ·
Ġn o
áĥ£áĥł áĥĺ
Ľ áĢ½áĢŃ
áĢĢáĢ¹áĢ Ģ
ĠÏĦÎ¹ ÏĤ
áĢĳ áĢŃ
Ġw y
ÉĻ k
à¤ ¬
Ġ Ã©
à§ĩà¦ ĩ
à®¾à®² à¯į
áĢĲáĢ¼ áĢĦáĢ¹
áĢĦáĢ· áĢ¹
ģ áĢ»
ĠÐ´ Ð°
ch t
Ġ ãĤ
Ð¸ Ðµ
áĥĽ áĥĲ
Ïģ ÎŃ
à´¿à´ķàµįà´ķ àµģà´¨àµįà´¨
Ġc u
ÛĮ Ø§
Ġâ ķ
Ð² Ñĸ
Ġà¦Ĩ à¦®
è¿ ĺ
à¥įà¤¯à¤¾à¤ ¤
à° §
áĢľ áĢ¯áĢķáĢ¹áĢ
ĠáĢľ áĢ¯áĢķáĢ¹áĢ
± áģ¾áĢĢ
áĢĽ áĢ²áĤķ
áĢ¯ áĢĶáĢ¹áĢ¸
áĤĢáĢĢ áĢ®áĢ¸
ĠáĢģ áĢ¯
ĠÎŃ Ïĩ
ÏĦÎ± Î½
Ïĥ ÏĦÎµ
Ïģ Ïİ
ĠÂ °
Ġ &
ĠÎ¼ ÎŃ
Î¼ Î¬
Ġa r
à¦¾à¦ ª
ì Ĥ°
áĢĻáĢº áĢŃáĢ³
áĢ¡ áĢħ
ĠÄ Ĳ
ĠâĢ ĵ
Ð°ÑĨ Ñĭ
Ġê µ
Ġ à«
Ġàªª àª£
ĠáĥĽ áĥĿáĥ
Ġ× Ľ
Ġà®ķ à¯Ĭ
áĢ±áĢ« áĢº
åį Ĺ
Ġå ¯
Ġ !
æł ĩ
à¸Ń à¸Ńà¸
è® °
ĠåĬ ł
ä» Ģ
ķà¸±à¸ §
Ġà¤ķ à¥ĩà¤²
Ð¾ Ð³
Ġà´ Ń
à°¿à°Ĥà° ¦à°¿
Ð Ĳ
Ð¾ ÒĽ
ow o
Ġm eg
à¤ ¼
Ġs e
àª¨ à«įàª
Ġà¦ Ľ
Ã £
ÙĬ ÙĨ
ÑĢ Ð¸
ÉĻ l
ĠØ¨ Ø±
Ġáĥ ļ
í Ķ
Ðµ Ñģ
n ie
Ķ áĢ¾
à¤² à¥Ģ
à¯ģà® ¨à¯įà®¤
à° Ń
àµĭ à´Ł
áĥĲáĥ ļáĥĺ
ãģ ¾
Ġì ¶ľìŀ¥
ìĸ ´
à§įà¦ ª
Ð» Ð°Ð´
Ġ re
Ġà¸ Łà¸£à¸µ
ļà¸²à¸ Ĺ
Ľ à¸£
Ġà´ Ĺ
å ²
Ġï¼ Ľ
æł ¼
à¹Īà¸ §
éĻ Ĳ
ç ĸ
à¹ĥà¸ «à¸
áŁ Ĵáŀ
6 8
Ġå¤§åıĳ æĹ¶æĹ¶å½©
ķ à¸²à¸
è½¯ ä»¶
å ł
æĥ ³
åı¯ ä»¥
å¥ ³
ç ¦
é¢ Ħ
Ġà¤¯ à¤¾
à±ģà° Ĺ
Ġ V
àª ¬
Ġa ko
ĠÐº Ð¸
w on
áĥĶáĥ ¥
Ð°Ð ¶
à°¨ à±į
çľ ģ
å½ ĵ
å·¥ ä½ľ
Ĥà¸ ¶
4 5
æİ ¨
à¹ī à¸Ńà¸ĩ
ç¤ ¾
å¸ ĥ
åı ª
Ġ æľī
åŀ ĭ
å¤ Ħ
±à¹īà¸ ĩà¸
ä¸ ¤
æģ ¯
Ġå¤ ©
/ /
Ġéĩ į
å¾ ·
ä½ ķ
ĸà¸ ¶à¸
çī ĩ
à¹ģà¸ ļà¸
è´ ¨
æ° Ķ
Ġå Ĩ
ä¾ Ľ
Ġ à¸Ļ
è º«
à¥ĩà¤ µ
ĠáĢĲ áĢĽ
à´¾à´ Ł
Ã¡ t
ĠÛģ ÙĪ
Ġ Ã¼
áĥĺáĥ łáĥ
à¯Īà® ķ
áĢ¬ áĢ¹
áģ µ
áĢĦ áĢ¶
à§įà¦ ¥
¹ Ħ
à´¿à´ ªàµįà´ª
Ġo n
ĠÐ³ ÑįÑĤ
àª¾àª® àª¾àªĤ
Ġi d
in e
Ġi f
Ġå ¼
èĢ Į
è ¨
Ġå ¿
à¸² à¸£à¸
à¤° à¥Ģ
Ġw i
×ķ× ¨
t er
ul á»į
Ġi s
áĢ¶áĢ¯ áĢ¸áĢ
áĢ¶áĢ¯ áĢ¸
áĢļ áĢ°
ÐµÐ½Ð¸ Ñı
áĥĶáĥĳ áĥ£áĥļáĥĺ
ÛĮ Ø±
Ġa a
ir an
à´ §
ë§ Į
à°° à°¿à°
b u
ĠÑı ÐºÑĸ
ĠÏĥÏħ Î½
Ġj u
ĠáĢ±áĢ ĲáĢ¬
ĠáĢĻ áĢº
áĢī áĢº
Ø ¶
á» ĭ
j áº¹
Ġà¦ Ł
æĭ¿ å¤§
åĳ Ĭ
æĪ ĸ
æĸ ¯
å· ²
Ġ2 3
å± ±
à¸Ļà¸µ à¹īà¸
ç ĭ
å Ķ
Ġ1 5
Ġ +
æ Ł¥
à¤¾à¤ ª
ÏĦ Î¯
t h
à¯ģà®ķà¯įà®ķ à¯ģ
í ĸ
à°¾à° ¦
Ġá»į má»į
à´¾à´ Ĥ
Ð¸ Ð¸
Ð½ Ð°Ð³Ð°
áĥĶáĥĳ áĥĺáĥĹ
àª¨ à«ĭ
ir i
Ġà¦¬ à¦²
ĠÎ± Î½Î±
Ġnipa sáº¹
h an
ĠáĢ Ĭ
Ã ¹
Ġà° ı
Ñĥ Ð¿
áĤ ĩ
áĢĲáĢ½ áĢĦáĢº
à´® àµįà´®
Ġp Ã«r
ÅĤ a
Ħà¸¸à¸ ĵà¸
ç² ¾
Ġà¤ Ŀ
à¦¿à§Ł à§ĩ
Ġà®İà®© à¯įà®±
Ïĥ Î¹
ĠÑĤ Ð°Ðº
Ġà´Ĵà´° àµģ
Ġà° Ł
áĥ£áĥ łáĥ
Ġà§ §à§
àª¾àª ¸
Ä ¼
ç« ĭ
æī ĵ
æĶ ¾
Ġh g
¾ ³
éĤ Ģ
Ġæ Ń
à¨¿ à¨
Ġ ]
Ġ0 1
áŀ ¶
èĤ ¡
±à¹īà¸ ĩ
Ġ2 1
çķ Į
æ² ¡
Ļ Ģ
åĨ Ľ
Ġç İ
Ġç ľ
æ± Ĥ
ä¸ ĸ
å ĭ
Ĺà¸ ³
à¹Ģà¸ ģà¸
Ĥ à¸²à¸
è° ĥ
à¤¾à¤ł à¥Ģ
Ġà¦ħ à¦¨
ĠÎ Ļ
ÙĦ Ùī
b b
Ñį ÑĢ
Ñ Ĺ
à®¾à® µ
áĥĶáĥľ áĥ¢
ĠÙħ ÛĮ
a u
Ġo l
á ½
Î»Î¿ Î³
ĠÐ ŀ
à°¿à° µ
Å ¥
Î Ľ
Î ł
Ġáĥ¡ áĥĲáĥĽ
t y
Ð» Ð°
ĠÎ ¹
s ch
¯ ¸
Ã¬ nh
× ĺ
é£ ŀ
tt p
Ġ0 0
Ľà¹ĩ à¸Ļà¸
Ġç §
Ġà¤ «
Ġà° Ĵ
àµĩ à´°
Ġà®ħ à®¤
à«įàª µ
à¦¿à¦ ¬
Ð½ Ð°Ñģ
áĥĲáĥ ¨
áĢŃáĢ¯ áĤķ
áĢ¬áĢ¸ áĢĢ
Ð½Ñĭ Ðµ
ĠÐº Ñŀ
Ð¾ Ð·
m e
ÏĨ Î¿
àµ ĥ
Ġìŀ Ī
ĠØ Ń
áĢĲáĢ½ áĢĢáĢº
áĥĲáĥ ĸ
la n
à¦ ¥
é¡ ¹
į à¸
Ġå¾ ·
åģ ļ
ä»Ģ ä¹Ī
çİ ĩ
åĮ Ĺäº¬
åıĳ å±ķ
Ġ0 4
åĬ ©
æ Ĥ
å¤ ´
åħ ī
éĤĢ è¯·
à¤ Ń
à´¾à´ ®
ĠÎµÏĢ Î¹
ĠÑĢ Ð°Ð·
áº ¯
Ġn ie
Ġà®ļà¯Ĩ à®¯
·à¹Ī à¸Ń
æŃ ¤
ç Ł¥
åį İ
Ġ: //
ĠåĽ ½
±à¸ ļà¸
èģ Į
åĪ Ľ
å¢ ŀ
§à¸ ±à¸
ä¸ ĵ
ĠagåĽ½éĻħ äºļæ¸¸
é£ İ
20 20
à¹Ģ à¸£à¸²à¸
à¥ĩà¤ ļ
Ġà°ļ à±Ĩ
áĥĲáĥ ¥
àª¿ àª¤
on e
Ð°Ñ Ħ
à´¾à´ ±
áĢģáĢº áĢŃ
áĢŀ áĢ±áĢ¬
Î´ Î±
ag y
y f
t an
Ġà°¸ à°Ĥà°
à¦ ¯à¦¼
v i
il áº¹
Ġo wo
Ġà¤ı à¤ķ
áĥ® áĥķ
Ġm e
Î»Î» Î¬
Ð½ Ð°Ñı
ĠÙ¾ Ø±
Ġo ju
gb á»įn
à¯įà® ®
Ġj ulá»į
Î· ÏĤ
Ġk u
Ñ ĺ
Ġb o
à´Ļàµįà´ ķ
Ġh e
m o
àª° à«Ģ
Ġë ĮĢ
ĠÐ Ľ
ÏĦ ÎŃ
áº¿ t
Ì£ n
à°¾à° Ĺ
Ð ĵ
ĠâĢ ļ
ĠÐ ¯
Ġm á»į
Å £
ent ru
Î ľ
ÏĢ Î¿Ïħ
à®¾à® ¯
à¤¿à¤ Ĥà¤
áĥ ĸáĥĶ
ĠÑ ĳ
¡ à°¾
Ġd ÉĻ
ĠÐ µ
on u
Îµ ÏĦÎ±Î¹
Ġì ĥ
w u
Ġà´ļ àµĨà´¯
Ġen iyan
ĳ áĢ¬áĢ¸áĢ
gb áº¹
àª ļ
Ġ× Ļ
à®Ļ à¯įà®ķà®³
d en
áĢŃ áĢĻáĢº
Ù İ
Ġp our
à±ĩà° ¦
ĠÙ ĥ
ĠÑĸ Ð½
ÏĦÎ¹Îº ÏĮ
á» ¯
a a
áĥĶáĥ Ŀ
ĠÐ¸ Ð½
a k
Ġáº¹ rá»į
ĠI n
ë ĮĢ
áģ ¥
áĢ¬ áĢĻ
áº¹ ráº¹
Ġi we
Ġæĺ ¯
è¿ ĳ
æĮ ĩ
à¤¾à¤ ¦
Ġàªı àªķ
Ġo ni
Î¼Î± ÏĦÎ±
Ġà´ħ à´¤
Ú Ī
a d
ĠÐ¿ Ð°
Ġ Û
ĠØ§ Ø³Øª
Ġy in
Ġk á»į
áģ¿áĢķ áĢ®áĢ¸áĢ
áĢ»áĢģ áĢĦáĢ¹áĢ¸
ĠáĢĸáĢ¼ áĢħáĢº
Ñĩ Ðµ
c a
à®¾à® ³
à±įà° ¦
à§ĩà¦ Ľ
ë ª
áĥĺáĥ ĸ
Îº Î¿
à¥ģ à¤°
ÐµÐ»Ð°ÑĢ ÑĥÑģ
ĠÑĢ Ñį
s o
Ð ĺ
ĠÐ± Ð¸Ð»
Ð³ Ð¸
Ġ á»įna
g un
à´¾à´¯ à´¿à´°
áģ ¢
áĢ¾ áĢŃ
Ð» Ð°Ð½
Ġà®ª à¯Ĩ
à«ĩàª µ
Î¼ Î²
à°Ĥà°¦ à°¿
ê± ¸
Ġ Ð°Ð·
ìł ķ
Ġp ar
áĥĿáĥ ¤
Ġà¤¹à¥Ī à¤Ĥ
Ķà¸ ¢
Ć ć
ĠèĢ Į
Ġç Ľ
Ġ ą
Ġ >
Ġà¹ģà¸ ¥à¸°à¸
ģà¸±à¸ ļ
·à¹Ī à¸Ńà¸ĩà¸
è§ ģ
åĬ ŀ
Ġ1 6
éĢ ł
æ Ł
1 5
è İ
3 0
åħ ±
Ġ2 4
éľ Ģ
Ġ ä¸ŃåĽ½
Ġç ¬¬
Ġ1 7
à¤ķ à¥įà¤·
Ġdi áº¹
Ġi di
Ñĸ Ð´
f áº¹
Ġà´ª à´±
Î ¥
ĠÎŃ Î½Î±
Æ ı
ê² Į
ĠáĢ ĩ
Ġ om
à±Ĥà° °
c u
Ã¢ n
Ġk Ã¶
Ġà´ª àµĭ
áĥĺáĥ ¨
Ľ áĢ¬
áĢ±áĢĽ áĢ¸
áĢŃáĢ¯ áĢľ
åı Ĺ
3 8
à¥ ī
Ð½Ñĭ Ð¼
à¦¬ à§ĩ
× ¡
Ġà® °
ĠØ ¥
àªĤàª Ĺ
n e
ÏĦÎ¹Îº Î®
à°¾à° ľ
áĢ¼ áĢ²
áĢĲ áĢĦáĢ¹áĢ¸
áĢ±áĢ Ĵ
k áº¹
ãĤ Ĵ
lar Ä±n
ĠáĢ±áĢ ŀ
áĢĶáĢ¹áĢ Ģ
ĠáĢ±áĢ Ĵ
»áĢģ áĢĦáĢ¹áĢ¸
áĢ¸áĢ±áĢ ĲáĢ¼
ĠáĢĽ áĢ½áĢŃ
áĢĦáĢ· áĢ¹áĢ
áĢ¾ áĢ¬
Ġ u
wa ju
ĠB a
Ġt áº¹
Ġà°¤ à±Ĩà°²
à´ ŀàµįà´ŀ
Îº ÏĮ
í ĺ
à®¿à®Ł à¯įà®Ł
áĥķ áĥĶáĥľ
Ñģ Ñĸ
à ²
á¹£ i
à¦ķ à§ĩ
il o
es i
Ġà°ħ à°¨
ĠØ§ ÙĨ
Ġd á»į
Ð½Ñĭ Ð¹
Ġi gb
Ġj i
áĢŃ áĢĶáĢº
Ł à«ĩ
ĠB i
Ġyi i
Ġi gba
à´¾à´ ³
á» ±
Ġáĥ¡áĥĲáĥ ¥
ĠÐ Ĩ
à®¾à® ®
v a
ìķĪ ë§Ī
Ġë ¶
ĠÏĮ ÏĦÎ¹
éĤĢè¯· çłģ
ç ı
æĦ Ł
ľà¸¹ à¹īà¸
Ġ ä»¥
æĶ ¹
æ¡ Ī
à¥ĩà¤ ¶
áĥĲáĥł áĥĺ
os o
ĠT o
Ġa ká»į
àµĤ à´Ł
is i
Ġà¦ķà¦° à§ĩ
Ġb e
Ãł n
Ð½Ð¾ Ð¹
Ġà®Ĵ à®°
áĥ ĸ
ÑĤ Ñĥ
áĢ¯áĢ¶ áĢ¸
Ġà°ķ à±Ĭ
Ð°Ð³ Ð¸
Î» ÎŃ
Ò³ Ð¾Ð¸
Ø§ Ùĩ
Ñı ÑĢ
ģ áĢ«
áĢ±áĢĲáĢ¬ áĢ¹áĢ
Ĳ áĢļáĢ¹
ĠáĢ»áĢķ áĢĬáĢ¹áĢ
áĢĳ áĢ²
Ġê· ¸
åİ ¿
Ķ à¸µà¸
åºĨ æĹ¶æĹ¶å½©
Ġ1 4
à¥ĩà¤ ķ
ĳ áĢ²
ÙĨ ÛĴ
Î¹Îº Î¬
Ġàª¸ àª¾àª
à´Ļàµįà´Ļ à´³àµįâĢį
áĢĬ áĢ¬
Ġà´¨ à´Ł
ĠáĢ¥ áĢ®áĢ¸áĢ
áģ ģáģ
à¦¿à¦ ¸
áĢĲáĢ½ áĢ±
ÑĢ Ðµ
Ľ áĢ½
à¹Īà¸ ĩà¹Ģà¸
ĠáĢ±áĢ ķ
ĲáĢ¼ áĢĦáĢ¹
áĢ ĵ
ĠáĥĶ áĥłáĥĹ
à±įà°² à±ĭ
Ð» Ðµ
àµģà´ ķàµįà´ķ
áĢ±áĢĢ áĢ¬áĢĦáĢ¹áĢ¸
ĠáĢ ¦
ÏĦÎ¿ ÏĤ
ĠáĢ±áĢ ¡
áģ ¤
áĢĲáĢ¼ áĢĦáĢ¹áĢ¸
áĢŃ áĢĲáĢº
× Ĵ
§ à¹ĩà¸
à¹ ģà¸£à¸
Ð´ Ð·Ðµ
àª¾àª ²
Ã¼ l
à°¾à°¨ à°¿à°ķà°¿
ĠT h
t re
Î· Î½
Ġà®µ à®°
Ġj a
ÙĬ Ø±
g a
Ġà´ ¹
Ġáĥ¨ áĥĶáĥĽ
à¦ ĸ
åı ĺ
ģà¸ ¥à¸
è§Ĩ è®¯
è§ Ĥ
á ī
ī à¸
æ ®
ä¼ ĺ
Ħà¸§à¸²à¸ ¡
åĵ ª
åħ Ī
9 8
ä¼ģ ä¸ļ
ï¼Į ãĢĳãĢĲ
è® ®
è¾ ¾
Ġ0 8
ç ª
èĩ ³
åį ĵ
áŀ¶ áŀ
ä»£ çĲĨ
à¸´ à¸Ļà¸
ä¹ ¦
à¸£à¸ §à¸
åİ Ł
Ġå ¦Ĥ
ç ħ
à¥įà¤ ¥
ĠL a
Î» Î¬
áĢľ áĢ¯áĢķáĢº
y á»į
í Ĩ
ĠÄ °
w he
Ġpa ta
ĠÐ´ Ð»Ñı
on i
Ø§Ø ²
Ġ áº¸
Î ©
ÏĦÎ± ÏĤ
àª¾àª ľ
áº¿ n
y áº¹
à´ ľ
ê³ ¼
à®³ à¯įà®³
Ð» ÐµÐ½
Î» Î®
áĥ ¤
Ġ ï¿½ï¿½
pá»į lá»į
Ġp u
Ļ à§įà¦
ģ áĢ¯
il i
ĠM a
Ġàªµ àª¿àª
±áĢ ¡
áĢĽ áĢĦáĢ¹
áĢĻáĢ» áĢ¬áĢ¸
è¯ ģ
è Į
åĲ Ħ
ç© º
à¥ ĥ
Ġako ko
Ġni gba
à° ·
Ġy a
ĠÎ §
h i
à´£ à´Ĥ
Ð¸ Ñģ
áĥĺ áĥĺáĥ¡
ÑĪ Ñĭ
à§ĩà¦ ĸ
Ġi pa
Ġa á¹£
b er
ìĹĲ ìĦľ
g o
ĠÎº Î¬
a ck
Ġw áº¹
g i
à°¿à° ®
Ñĥ Ðº
Ġy e
Ġt e
Ġw on
é¢ Ĩ
Ġå ·
æ² »
à¹Īà¸ ¡à¸
Ġag æĹĹèĪ°åİħ
¢ à¸Ļ
à¤§ à¥įà¤¯
àµįà´± àµįà´±
áĢħ áģ¥
áĢ¯áĢŃ áĢĢáĢ¹áĢ
áĢ¯áĢŃ áĢĦáĢ¹áĢ¸
Ł áĢ¬
ĠáĢ¡áĢ² áĢĴáĢ®
à°¿à° ¸à±įà°¤
áĢ±áĢ¬áĢĦáĢº áĢ¸
ÑĤ Ð°ÑĢ
ĠØ§ ÛĮÙĨ
Ġàª Ł
à®¿à® ªà¯įà®ª
£áĥ ļ
ÎŁÎ ¥
Ïĩ Îµ
ĠÙĨ ÛĴ
à¦ ĵ
m áº¹
Ñģ Ð¿
á¹£ u
h a
on a
ĠØ§ÙĦ Øª
Ġf áº¹
áĢĬ áĢ·
áĢħ áĢ¯
à¤¿à¤ ı
ur u
Ð ł
à±Ģ à°¸
ÑĤ ÑĮ
Ð°Ð» Ðµ
Ġá»į já»į
Ġes t
Ġáĥ ĸ
Ïį Î½
Ġà´ «
ŀ áĢ¼áĢ¬áĢ¸áĢ
áĢ±áĢ ĺ
Å¡ an
áĢ±áĢ ĳ
Ġag be
Ġ× ŀ
Æ°á»£ c
Ġpata ki
à«ĩàª ¶
Ġá»į ká»į
áĢĬ áĢ®
Ġà®µ à¯ĩ
ãģ ĭ
Ġà°ª à±Ĩ
ĠÐ· Ð°
ìĦ ±
áĢ±áĢ Ĳ
à¦¨ à§įà¦¤
pá»įlá»į pá»į
Ġf a
à±ģà° ¡à±ģ
Ïĥ Î¿
an a
Ú¾ ÛĮ
àµįà´ ¸
Ġk e
« áĥļ
åħ į
åĩ Ĩ
ä» İ
æĪ ¿
åı Ĥ
à¹Ģà¸ Ķ
¸ è¿Ĳ
Ġä» ĸ
å® ¹
à¹īà¸² à¸Ļà¸
ĻĢ â
Ħ à¸Ļà¸
ĠãĢĳãĢĲ ï¼ĮãĢĳãĢĲ
00 0
ķ à¹īà¸Ńà¸ĩà¸
ç± »
é© ¬
±à¸ ļ
Ľà¸ ¥
èĲ ¥
Ġæ Ĭ
Ġh ttp
åĪ «
Ġà¨ ¦
æķ Ī
åħ ļ
ç« ŀ
è¶ ³
à¹Ģ à¸£à¸µà¸
¡à¸²à¸ ģà¸
Ġ [
b et
Ġåı ¯
Ĺà¸ ³à¸
6 0
æĭ Ľ
à¸£à¸ ¹
¥ à¸´à¸
æľį åĬ¡
Ġag å¹³åı°
è ª
ĠãĢĤ ãĢĤ
å¥ ĩ
à¤¤ à¤¾
áĢĦáĢ¹áĢ ľ
áĢĶáĢ¹áĢ Ĳ
Ġà¦ľ à¦¨
re e
Ġgb e
± áĢĢ
ĠáģĤ áģ
ÑĤ Ð¸ÑĢ
ëĵ ¤
Ð» Ð°Ñģ
à¯ģà® ªà¯įà®ª
ĠÙ Ĥ
ĠN a
áĢħ áĢ¬
Ġag bara
u gbá»įn
to ri
ĠÏĢ Î¿Î»
Ġàª° àª¹
à°Ĥà° Ĺ
ÐºÐ¸ ÑģÑĤÐ¾Ð½
Ġi p
ĠÐ ĺ
áĢĸ áĢ½
f a
Ġà´ª à´°
Ì Ģ
Ð² Ð°
à°¾à° ¡à±ģ
ç Į
Ġæ ¯
Ġå ¸
Ġà¤® à¤¹
Î± Ïģ
áĢ¡ áĢĲáĢ¼áĢĢáĢ¹
áĢľ áĢĬáĢºáĢ¸
ĠÐ³ Ñĵ
Ñĥ Ð»ÑĮ
áĥĲáĥłáĥĹ áĥķáĥĶáĥļ
àªµ àª¾àª¨
æŃ ¥
à¹ĥà¸ Ī
Ĭ à¹Īà¸§à¸
æķ ´
à¤¾à¤ ³
ĠáĥĶ áĥ¡
Äģ s
Ġz u
à´¿à´¨ àµį
Ġà®ĩ à®¨à¯įà®¤
ÃŃ t
Îµ Ïħ
à°¾à° ¸
ĠÐ±Ñŀ Ð»
Ð¾ Ð»Ð¸
o ng
à§ĭ à¦¨
áĢ¸áĢ ķ
ÑĢ Ð°Ð¼
Ïĥ ÏĦ
y m
áĥĲáĥ ¤
ĠáĢĻ áĢ½
é» ĳ
å¸ ¦
Ġà¤ Ł
ĠáĢ¡ áĢĨ
ª à¯į
à°¾à°¯ à°¿
Ġáģ Ħ
Ġ íķ
ĠØ¨ Ø§
×Ļ× ª
áĢľ áĢ½
ĠÎµ Î¾
Ġd u
ÑĤ Ð°
Ġà´ķ àµĬ
Ġàª®àª¾àª Łà«ĩ
Ġà¦¬ à§įà¦¯
áĥĺáĥ¡ áĥ¢
ĠáĢĦ áĢ«
ĠáĢ± áĢĢ
áĢļ áĢ¬
Ġe gy
Ġà¤Ŀ à¤¾à¤²
Å Ļ
à´¿à´ļàµįà´ļ àµģ
Ð°Ñ ĸ
Ð°Ðµ ÑĤ
áĢĢáĢ¼ áĢ®áĢ¸áĢ
ÎµÎ¹ Î±
áĥĲáĥ ĳ
in in
Ø °
à¯ĩ à®°
à´¿à´ ¸
¡à¸² à¸£à¸
æ£ ĭ
Ġ #
çº ¢
à¸Ńà¸ µà¸
¹à¸ ģà¸
à¤¿à¤ ¸
Ġáģ Į
áĥĿáĥ ª
Î¿Ïħ Î¼Îµ
ĠÐ» Ñĸ
Ġà° «
á» ©
ÑĢ Ð¾
à§ģ à¦¨
Î¬ Î»
áĢŀ áĢ½
ÈĽ i
ìľ¼ ë¡ľ
Ġsi ÄĻ
ãģ £
áĥĲáĥ ĸáĥĶ
Ø± ÛĮ
Ã¼ r
Ġi r
ĠÎ ¦
à«ĭ àªķ
an s
Ġà´ ¡
Ġà¦¨ à¦¾
ÎŃ Ïģ
ł à¸
Ġå ĳ
Ġ0 9
Ġ 99
á ĭ
³à¸ «
Ġ3 0
ç½ ®
è§Ĩ é¢ĳ
æĸ Ļ
éĺ Ł
Ġà¤ķà¤° à¤£
à¯Īà® ķà¯įà®ķ
ÑĨ Ñı
áĢı áĢ¹áĢ
à°ķà±įà° ·
áģ¿áĢĻ áĢŃáĢ³áĤķ
áĢĲ áĢħáĢº
Ð½Ð¾ Ð³Ð¾
Å ±
à´¯ àµģà´Ĥ
Ð· ÐµÐ½
Ïģ Î®
áĥĹ áĥĲáĥľ
Ġà¦¬ à¦¾à¦
Ġs h
á» ¥
Ñĥ ÑĤ
à±ĩà° ¶
à§Ģ à¦°
àª¾àª £
ÏĦÎ¹Îº Î¬
Ø £
à¤¿à¤¯ à¤¾
ìķ Ħ
li ch
à¯ģà®³ à¯įà®³
ĠáĢ¡ áĢģáĢ¯
áĢľ áĢ°
×ķ× ľ
Ġb ir
ĠáĥĲáĥ ĵ
áĢħ áĢ¬áĢ¸áĢ
Ñĸ ÑĢ
ĠÎ Ľ
àµĨ à´Łàµįà´Ł
Ġà¦ ¡
±áĢŀ áĢ¬
áĢĢáĢ¹áĢ ŀ
áĢŃáĢ¯ áĢ¸
qu e
æ ¹
æĺ ĵ
ĠãĢ Ĳ
çł ´
à¹ģà¸¥ à¹īà¸§
á Ĭ
å¹ ¿
Ġag è§Ĩè®¯
ç® Ĺ
Ġn et
åħ ·
å® Į
æŀ ģéĢŁ
æ¢ ¦
5 8
éĻ Ĩ
åı ĸ
à¹Ģà¸Ľà¹ĩ à¸Ļ
å Ħ
Ġ0 7
Ġà¤® à¥įà¤¹
ĠÎµ Î¯
Ġ ÚĨ
Ġà°ļà±ĩà° ¸
áĢŃáĢ¯ áĢĦáĢ¹
áĢ³ áĢķáĢ¹áĢ
ĠáĢĽ áĢ½
y d
àª Ń
Ġho gy
±áĢ ħ
áĢĢáĢ¹áĢ ľ
áĢŃ áĢĻáĢ¹áĢ¸
ķáĢ¼ áĢ²
áĢº áĢ¬
áģ¿áĢķ áĢ®
áĢŀ áĢ¼áĢ¬áĢ¸áĢ
áĢŃ áĢķáĢ¹áĢ
Ġ Ð°
ĠáĢĶ áĢ¾
Ġc Ã¡c
à§įà¦ ²
à®¿à® ´
eg o
íĻ Ķ
à´µ àµģà´Ĥ
áĥĿáĥĳ áĥĺáĥ¡
o v
ĠÐ¼ Ðµ
ãĥ¼ ãĥ
¸à¸ ģà¸
åį ĩ
Ġå¯ ¹
ç Ĺ
åĽ Ľ
åĪĨéĴŁ å¿«ä¸ī
Ġ ä¸º
çĪ ±
§à¸ ±à¸Ļà¸
Ġ ä¹Ł
çł Ķ
æ¶ Ī
åĬ Ł
ĭà¸ ¶
¾³ éĹ¨
æ¨ ¡
à¹Ģà¸ ª
è ı
æ Ĳ
åİ Ĩ
1 9
å®ī åįĵ
Īà¸²à¸ ģ
æľ ª
èĬ Ĥ
Ġà¤¨ à¤¾à¤¹à¥Ģ
Î» Î¯
à®¤à¯įà®¤ à®¿à®²à¯į
àª¾àª ¦
à± ĥ
Ð³ Ñĵ
Ð°Ñĩ Ñĭ
à§ĩà¦ķ à§ĩ
Ġà¤ĩ à¤¸
ë ŀ
Î¼ Î·
ÙĪ ÙĦ
Ġáĥ «
áĢ±áĢ »áĢķáĢ¬
Į áĢ¬áĢĶ
áĤıáĢ¯áĢŃáĢĦáĢ¹áĢ ĦáĢ¶
Ġáģ ħ
à«ĩàª Ł
ä¹ °
ģà¸ ¥
1 6
æŀ Ĳ
è½ ¬
Ġà¨ ķ
åŃ ĺ
äºº æ°ĳ
å· ±
ļ à¸£à¸´à¸
à¥įà¤¯à¤¾à¤ Ĥà¤
áĢ¸áĢ Ĩ
à´¦ àµįà´
Ġd as
Ġc on
Ġi z
Ñĥ Ñİ
Ġà° ¯
áĢ±áģ¾áĢĢ áĢ¬áĢĦáĢ¹áĢ·
áĢĶ áĢ²áĢ·
ĠÎ ĺ
à®ªà¯įà®ª à®Ł
ĻáĢº áĢ¬áĢ¸
ļ áĢ°
Ã© k
áĢķ áĢ±áĢ¸áĢ
Ġáĥ¨ áĥĶáĥ
Î¹ Î½
á»Ļ t
Ã¤ Ã¤
Ġà¦¤ à¦¾à¦°
Ñĥ Ð±
Ġ201 8
æ¸ ħ
åĮ ħ
åĪĨ pk10
ĩ à¸²à¸Ļà¸
ç»ĵ æŀľ
åĽ ł
¥ à¸²
æ£ĭ çīĮ
æĿ ¡
à¤¾à¤ ķ
Ġì ľ
Ġà´ Ī
ĠÑģ Ðº
j Äħ
Ġg Ã¶
áĢ±áĢĲáĢ¼ áĢĢáĢŃáĢ¯
áĢĲáĢ¹áĢ ŀ
áĢ±áĢ »áĢģ
áĢľ áĢŃáĢ¯áĢ·
áĢħ áĢ®
Î¼ ÏĢ
áĥ£áĥ ľ
àª¤ àª¾
Ń ¦
à¤¿à¤ ¨
áĢĶáĢ¹áĢ ľ
ĠáĢħ áĢħáĢ¹áĢ
áĢŁ áĢ¯
à®° à¯įà®ķà®³
b an
Ñĸ Ð½
Ä ¾
Ġ×© ×ľ
àµĩà´ ·
à±įà°² à±ģ
à¦ķ à§įà¦·
j Ã«
ĠÏĢÏģÎ¿ Ïĥ
Ġd in
Ð½Ð¾ ÑģÑĤ
m ent
ĠáĥĹ áĥĲáĥķ
ĠáĢ ĲáĢ¬
Ð» Ð¾
ĠÚ© Ùĩ
áĢ¼ áĢļáĢ¹áĢ
áĢĽ áĢ±áĢ¸áĢ
Ġæ ²
ç» Ļ
æ¼ ı
à¤¤ à¥Ģ
Ġm it
Ġá ¼
ÎĻÎ ļ
ĠÏĥ ÏĦÎ±
Ġ ÛĮ
ĠÎ ¾
ĠÏĥ Î±ÏĤ
ÏĦÎµ ÏĤ
ĠÎ¤ Î¿
Ġ <
et h
à´ķ à´°
à®® à¯įà®ª
ĠàªĨ àªª
ĠÐĳ ÐµÐ»Ð°ÑĢÑĥÑģ
Ð°Ð» Ð°
ĠÙĪ Ø§ÙĦ
ja s
± áĢĢáĢº
áģ¼ áĢº
ĠáĢĢ áģ½
áĢ±áĢķ áģļ
áĢĦáĢ¹áĢ Ĳ
áĢŃáĢ¯áĢĦáĢº áĢĦáĢ¶
Ġáĥĺ áĥľ
à°¤ à±įà°¤
Ġ ÅŁ
Ġê° Ģ
Ļà§įà¦ Ĺ
Ñĥ Ñĩ
Ġ áŀ
æ¬ ¾
Ķà¹īà¸§à¸ ¢à¸
ĠåĬł æĭ¿å¤§
ä¹ ł
çĥ Ń
å®ī è£ħ
æµ İ
æ± Ł
Ġæ ķ
à¸Ńà¸ ļ
åı ²
æĶ ¯
åĳ ¨
· à¥įà¤Ł
à´® à´¾à´¯
à«ĩ àª°
ļ áĢ¬áĢĢáĢ¹áĢ
áĢĦáĢ¹áĢ Ģ
áĢĲáĢ²áĢ· áĢ¡
ĠáĢĢ áĢ¯
à®° à¯įà®ķà®³à¯į
ĠáĢĺ áĢ¯áĢĽ
à¦ Ľ
Ġáĥĺ áĥĽ
Ġà° ¡
Ð¸ Ð´Ð°
ÑĢÑĭ Ð¼
g e
áĢ¸áĢ ķáĢ«
ãĤ Ĭ
áĢ½ áĢ±
á» ĩ
ĠáĢ±áĢĶ áĢ¬áĢĢáĢ¹áĢ
ĠáĢĺ áĢ¬
Ð¾ Ñı
áĢŃ áĢĻ
Ã©s z
à§įà¦ ®
z y
è§Ħ å¾ĭ
Ġag èµĮ
éĢ ģ
æ ¥
Ġ0 5
è ĳ
ç½ĳ ä¸Ĭ
éª Į
è¶ ħ
å·ŀ æīĳåħĭ
à¹īà¸Ńà¸ ¡à¸
¢ à¸Ļà¸
è¯ Ŀ
æĢ ģ
à¤¾à¤° à¥Ģ
ĠáĢħ áĢ¬
Ð°ÑĤ Ñĭ
à±ģà°Ĥà° ¦à°¿
ir e
áĢ½ áĢĦáĢº
àª¾àª° à«ĩ
à®¾à® ®à¯į
Ø «
Äģ r
áĥĶáĥł áĥĺ
ì ½
éĹ® é¢ĺ
Ġà¨ ¸
å½ ¢
´à¸ Ķà¸
1 3
è¿Ľ è¡Į
2 3
æİ §
Ġ2 8
Ġ0 6
Ġ0 3
æĹ¶ éĹ´
æ ĵ
Ġ ä¸Ĭ
ç¥ ¨
à¤¾à¤Ĥà¤¨ à¥Ģ
Ñĸ Ñı
à´¤àµįà´¤ à´¿à´²àµįâĢį
Ġc ho
à´¾à´ ķ
à§ĩà¦ Ł
y y
ë ²
Ġj e
ĠáĥĴ áĥĲáĥĵ
Ð¸Ð½ Ð¸Ð½Ð³
ĠÐ± Ð°ÑĢ
à¯ģà® °
ĠÎ¼ Î¹Î±
ÏĦÎ¹Îº ÎŃÏĤ
Â µ
y dd
Ġc a
æł ¡
Ġå½©ç¥ŀ äºīéľ¸
à© °
à¤°à¥įà¤ µ
ÑģÐº Ð°Ð¹
àµģà´ °
Ġà¦ı à¦¬
ÑĪ Ñĩ
ìĥ µ
ë¶ Ģ
ĠÐ¸ Ð·
Ġv on
à«įàª¯ àª¾
Ġà°® à±Ģ
áĥĿáĥĳ áĥĲ
à´¿à´ ®
à¤¹ à¥Ģ
Ġà® ı
Ñĸ Ð²
s a
× ¦
áĢĻ áĢļáĢ¹
áĢĻáĢº áĢ¬áĢ¸áĢ
áĤ Ĩ
áĢĽ áĢ²áĢ·
ĠáģĤáģĢ áģģáģ
áĢ¼ áĢĶáĢ¹áĢ¸
Ġ áĤıáĢ½áĢħáĢ¹áĢ
ĠáĢ¡ áĢĶ
Ð² Ñı
Ã© l
Ġkh Ã´ng
áĥĲáĥ ¦
à´¿à´² àµģà´Ĥ
Ø§Ø ¨
ĠÎ¼ Î±ÏĤ
Ñĸ Ñģ
lu i
ĠÏĢ Î¿
à«įàª ²
áĢŃ áĢĶáĢ¹áĢ¸
áģĢ áģĢ
ìĥ ģ
ĠÐ± ÑĥÐ´
à®¾à®Ł à¯įà®Ł
à¹īà¸² à¸Ļ
å ĥ
Ġå İ
åĨ ³
à¹ĥà¸ Īà¸
P P
à¥įà¤¯à¤¾à¤ ¸
ĠáĢ¡ áĢĳ
Ġà¤¨ à¥ĩ
Ġ áĥĲáĥľ
w i
Ġun e
Ġ ÉĻ
à±įà° ķ
m s
ĠÏĥ ÏĦÎ¹
áĢ¶ áĢ·
Ð°Ñİ ÑĨÑĮ
àµģà´ķ à´³
ĠÑĩ ÑĤÐ¾
Ġàª ¡
Ãł y
áĢĿ áĢĦáĢº
ĠÏĢÎµ ÏģÎ¹
ìł ľ
Ġà®µ à¯Ĩ
Ġs a
ĠÛģ ÛĮÚº
b en
ĠÐ± Ð¸ÑĢ
Ð» Ð°ÑĪ
Ñĥ Ð²
ĠáĥĲáĥ ¡
Ġ Ð°Ñģ
Ġp er
Ġàª¤ à«ĭ
Ġà°ķ à±ĭ
à¤¨ à¤¾
Ġ" :
ìł Ħ
ÎµÎ¹ ÏĤ
à¦¿à¦ ¶
áĢľ áĢŃáĢ¯áĤĶ
áĢ¡ áĢŀ
Ġ× ł
Å¼ e
Ð ĥ
Ð°Ñ ĳ
Î³ Îº
à«ĩàª ķ
áĢľ áĢ¬áĢ¸
áĢ±áĢ ĸ
1 4
ģ à¹Ī
å°± æĺ¯
çĶ ±
à© ĭ
à¸Ńà¸£ à¹Į
èī ĩ
¹ æŀľ
ģ à¸£à¸°à¸
Ġåħ ¶
çĶµ æ¸¸
ç ¬
æĿ ĥ
Ħ à¸£à¸±à¸ļ
ŀ à¸´
Ġà¤¤à¥įà¤¯à¤¾à¤ Ĥà¤
áĢĽ áĢ®áĢ¸áĢ
àµģà´ ª
à®¿à® ļ
ÙĪ ÙĨ
Ġáĥ¨ áĥĶáĥ¡
Ġà°® à°°
Ð°Ð» Ð°ÑĢ
ĠÐ İ
ĠÐ¸ ÑĪ
ĠÐ³ÑįÑĤ Ð°
ëĤ ĺ
Ġn em
Ñĩ Ð¸
ĠÐ±Ð¸Ð» Ð°Ð½
Ð¾ ÑĪ
Ġd he
à¦ķ à§įà¦¤
n ÃŃ
áĢŁ áĢ¯áĢĲáĢ¹áĢ
áĢĻ áĢ®áĢ¸áĢ
Ġà´ ķàµįà´
áĢ» áĢ¾
ãĤ ¹
ĠÎļ Î±
ĠS e
à«įàª¯ à«ĭ
Ġp entru
iá» ģ
à¤§à¥įà¤¯ à¥ĩ
à®Ł à¯ģà®¤à¯įà®¤
ĠâĢ ŀ
ĠÐ½ Ñı
Î³ ÏģÎ±
ĠÃ ¶
à´¤àµįà´¤ àµĨ
Ġà¤ ¥
áĢ±áĢ¬ áĢĦáĢ·áĢº
Ð² Ñĭ
ĠÏĢÎ± ÏģÎ±
à§ĭ à¦Ĺ
àª¿ àªµ
í ĥ
g en
áĥĲáĥ ¬
ÐµÐ½Ð¸ Ðµ
Ð°Ðµ ÑĨÑĨÐ°
t Ã©
Ġà®Ĵà®° à¯ģ
ĠÎ ¶
ÛĮ Ùħ
Ġ \
ĠÎºÎ± ÏĦÎ±
Ïĥ ÏĦÎ·
ĠÎ± ÏĢ
ÏĮ ÏĦÎµ
Î´ Î¹Î±
Ïģ ÎµÎ¯
ÏĢÎ¿ Î¹
ĠÎ¼ Î±
ĠÎ±Ïħ ÏĦÏĮ
Ïģ Î¹Î±
Î³ Î¿
ĠÎ¼ ÏĢÎ¿
f f
à´¾ àµ»
ĠáĢħ áĢŃáĢĲáĢ¹áĢ
ĸ áĢŃáĢ¯áĤĶ
áĢ»áĢĸ áĢħáĢ¹
ĠáĢĳ áĢŃáĢ¯
Å Ħ
á» Ł
áĥł áĥĿ
k s
ĠÐ½ Ð°Ð²
à¦¾à¦ Ĺ
Ġàª¸ àª®
áĢ±áĢĽ áĢ¬
Ð¾ Ð³Ð¾
ëħ ¸
à±įà°¨ à°¿
Ġì¹ ´
Ġqu e
Ġ× Ĺ
ë į
in dÉĻ
ĠÑĥ Ñĩ
Ð¾ÑĢ Ð¸
ĠØ± Ø§
áĢŀ áĢĬáĢ¹áĢ·
ĠáĢĲ áĢħáĢº
ĠÐ¿ÑĢ Ð°ÑĨ
Ã³ l
ÏĢ Î¬
Î¼ÎŃ Î½
Ïį ÏĦÎµ
ÏĦ Ïħ
ĠÎ¿ ÏĢÎ¿
Î´ Î¹
ÏĦ ÏģÎ¿
ĠÎ¾ Îµ
Î¸ ÎµÎ¯
ÏĮ Î½
y s
ÈĻ i
áĥķ áĥļ
Ķà¸´à¸ ¡à¸ŀà¸
§à¸ ±à¸Ļ
Ùĩ Ø§
ĠÑĤ Ñį
Ġa l
à¦¦ à§ĩà¦°
çī Ľ
éĽĨåĽ¢ å®ĺç½ĳ
Ġç ¾
6 5
Ĉ Ĉ
çĽ´ æĴŃ
ł áł
à¥įà¤ ķ
ãĤ Ĥ
í ı
à°¾à° ¡
Ġv i
ĠÐ ¨
Ķà¸ ¥
à®© à¯įà®©
ĺ à¸
Ġàª¤ àª®
áĤ ī
ĠáĢŁ áĢ¯
Ġáĥ ¯
Ġà¸ ļà¸Ńà¸¥
ŀ à¸Ļà¸
Ķà¸´à¸¡à¸ŀà¸ ±à¸Ļà¸
à¹Ĥà¸ ¡à¸
ĠÐ´ Ð·Ðµ
Ġë ı
áĢ¯ áĢķáĢ¹
ĠáĢĨ áĢĽáĢ¬
±áģ¾áĢĢ áĢ¬áĢĦáĢ¹áĢ¸
áĢĢáĢ¹áĢ Ĳ
áĢĦáĢ¹áĢ Ļ
ĠáĢ¡ áĢģ
Ġà®¨ à®Ł
ªà¸¸à¸ Ķ
ĠÒ ·
à´¾à´ §
Ġà¦¸ à¦Ĥ
à±įà° ¥
Ðµ Ð·
ĠáĥĲáĥ ¦
å® Ŀ
Ġéĩį åºĨæĹ¶æĹ¶å½©
Ġæ ±
æĸ ½
à¨ ¤
Ġæ µ
ä¼ Ĺ
Ġà¸ Ĺà¸µà¹Īà¸
à¥įà¤ ª
Ġp re
áĢĢáĢ¹áĢ ¡
áĢģáĢ» áĢĢáĢº
à¯Īà®¯ à®¿à®²à¯į
¸à¸ ķà¸
à¸Ńà¸£ à¹Įà¸
ÅĽ ci
Ð°ÑĨ ÑĭÑı
ĠÎ¼ Î¿Ïħ
Ïİ ÏĤ
Ïħ Î½
w n
Ļàµįà´ Ļ
à«įàª¯ à«ģàªĤ
Ã¡ g
d an
Ġà¦ı à¦ĩ
Ġà¤Ń à¥Ģ
áº ·
Ľà¸£à¸ °à¹Ģà¸
Ġ Ð°ÑĢ
×Ļ× ¨
Ø¦ ÛĴ
áĥĹ áĥķáĥĺáĥ¡
à®ªà¯įà®ª à®Łà¯įà®Ł
ĠØ§ÙĦØ £
Ġà°¸ à°®
à¹ī à¸Ń
è ħ
ãĢ Ĭ
Īà¸ °à¹Ģà¸
Ġé Ļ
åĮ Ĺ
à¹Ģà¸£ à¸²
à© ±
ç İ¯
à¸Ńà¸¢à¹Īà¸²à¸ ĩà¸
ķ à¸£à¸
Ĥ à¹īà¸²à¸
Ġé Ĥ
Ġà¤®à¥įà¤¹ à¤£
Ħ áĢ¼
áĢ¾ áĢ¯
Ã« n
Ġìķ Ħ
Ðº Ð°Ð½
Ð¸ÑĤ ÑĮ
Ġd en
Ñį ÑĤÑĭ
àª¿àª ²
Ġu z
à¦ «
Ġà´ ı
ĠáĥĲáĥ łáĥ
à ¬
Ġà¤ķ à¤¿
æ ĳ
Ġå¹ ¶
·à¹Ī à¸Ńà¸ĩ
è¾ ĵ
åŃ Ĺ
å¹ ²
à¥įà¤° à¥Ģ
Ð¾ Ðº
Ġi má»į
Ġa i
Ġi bi
±áĢĽ áĢ¸
Ġ áĤıáĢŃáĢ¯áĢĦáĢ¹áĢĦáĢ¶
»áĢķ áĢ³
áĢĶ áĢļáĢº
àª¾àª ³
Ġ ãģ
na k
à° ¶
Ñĭ ÑĤ
áĢ± áĢĢáĢº
áĢĢáĢ¹áĢ ħ
Ĳ áĢŃáĢ¯áĤĶ
ĳ áĢ¬áĢĦáĢ¹áĢ
áĢŀ áĢĬáĢ¹áĢ
áĢ ¦
Ġà¦¥ à§ĩà¦ķà§ĩ
¡ °
à¯Ī à®¤à¯įà®¤
Ġáĥ£áĥ ľ
Ð°Ð¼ Ñĥ
d ara
Ġg a
2 4
æ¸¸æĪı å¹³åı°
åİ ĭ
Ġà¹ģà¸ ¥à¸°
Ġ ä¸ī
Ī à¸£à¸´à¸
9 6
æľī éĻĲ
Ġ 88
è´ Ń
à¥ģ à¤ķ
áĢ»áĢķ áĢ³
áĢļáĢ¹áĢľ áĢŃáĢ¯áĤĶ
áĢĶáĢ¾ áĢħáĢº
ag ba
Ġw h
Ġ201 4
Ġá»į rá»į
à° Ĺà°¾
k y
ĠÐ¿ Ð¾Ð´
Ġna do
Ġa won
ÅĤ o
Ġà´ ĵ
Ä± r
Ð°Ð´ Ñĭ
Ġà®¤ à¯Ĭ
Ġê¸ °
ĠÄĳ Æ°á»£c
à«įàª ¸
Ġáĥ¡áĥĲáĥ ®
Ú ĳ
å¾ ®
Ġà¹ģà¸ ķà¹Īà¸
Ġç º
èĩª å·±
à¹Ģ à¸Ļà¸
Ġ ï
å¢ ĥ
ŀ à¸£à¸²à¸
Ġè ĩ
éĤ £
ģà¸ ±à¸Ļà¸
«à¸ ¥
Ć ą
à¤Ĥà¤ ¦
ch en
ĠÑĢ Ð°Ñģ
áĢĻáĢ» áĢŃáĢ¯áĢ¸áĢ
Ġà¦Ĩ à¦°
à°° à±ģ
ĠÏĦ Îµ
Ïĥ Ïī
ĠÎºÎ± ÏĦÎ¬
Î¯ Î¶
Î± Î»
it h
j ara
ĠáĥłáĥĿáĥĽ áĥĶáĥļ
Ġch e
g h
Ġmi iran
ĠO lu
i ng
ĠâĢĭ âĢĭ
àµĭ à´Ĺ
É Ľ
Ġth e
b á»į
Ð ¡
× Ł
Ð¾Ð² Ñĭ
ä¹ĭ æĺŁ
è® ¤
ä¹ ħ
Ĺ à¹Īà¸²
çĶµ åŃĲ
ªà¸²à¸ ¡à¸²à¸£à¸
Ġà¤Ĩ à¤ª
ĠáĢķ áĢŃáĢ¯
Ġï¿½ï¿½ï¿½ï¿½ ï¿½ï¿½ï¿½ï¿½
Ġy áº¹
à§ĩ à§Ł
t Ã¤
à«ĭàª ²
Ġaa ye
Ġe lo
lu jara
Ø¯ Ùĩ
Ġi po
Ġsi i
Ñĸ ÑģÑĤ
à® ¸
ĠÒ ļ
ÙĦ ÙĬ
ar d
ë Ł
Ġ ere
ĠáĢ ĵ
Ð°ÑĤ Ð°
Ö ģ
Õ¸ Õ
ÉĻ m
Ġè µ
9 0
ç®¡ çĲĨ
Ġæ İ
ç» Ń
ä¿¡ æģ¯
ĩ à¸²à¸Ļ
æŀ Ħ
åı ĭ
ä¹ ī
Ġäºļæ¸¸ å®ĺç½ĳ
à¸Ļ à¹īà¸
ĠâĢ ĺ
à¦¾à¦ ¶
Ġ 66
à¥įà¤ ¸
Ġe to
áĢ»áĢķ áĢĬáĢ¹áĢ
±áĢĨ áĢ¬áĢĦáĢ¹áĢ
áĢĢ áĢ±áĢĲáĢ¬áĢ·
áĢ¯ áĢĴ
v o
Ñĩ Ð°
Ð¸ÑĪ Ð¸
s an
Ġï¿½ï¿½ï¿½ï¿½ ï¿½ï¿½
Ġi rin
áĢ±áĢķ áĢĻ
áĢĲ áģ
áĢĦáĢ¹áĢ ŀ
áĢħáĢ¹áĢ ħ
à±įà° ¡
Ġáĥ¨ áĥĶ
àµĨà´¨àµįà´¨ àµį
Ġa pa
Ðµ Ð²
z t
ĠÐº Ð°Ð½
Ġáº¹ ni
Ø§ Ûģ
àª Ī
ī áģ
ow a
ho va
Ġw o
ãĥ ĥ
Ġà®ķ à¯Ĥ
à¦² à§ĩ
Ġi ba
Ñĥ Ð·
Ġl i
bo gbo
à°¿à° Ĺ
Ġi la
áĢ¬áĢ¸áĢĻ áĢº
ĠáĢ±áĢ ħ
áĢĲáĢ¹áĢ ľ
ĠáĢ±áĢ ĸ
áĢ¬ áĢ·
àµįà´ ķàµįà´ķ
Ġáº¹ gbáº¹
ìĨ Į
ĠÎ´ Î·
Î´ Î·
Î¬ Ïģ
ĠÎµ Ïħ
ÏĦÎ· ÏĦÎ±
ÏĦ Ïī
ĠÎ± Î»Î»Î¬
ĠÎŃÏĩ ÎµÎ¹
l y
Ð°Ð» Ñı
áĢĺ áĢ²
Ġáĥ¡áĥĲáĥ¥ áĥĲáĥłáĥĹáĥķáĥĶáĥļ
Ġáĥĺ áĥ§
áĢ½ áĢĢáĢº
àª¾àª Ĺ
ĠÑį ÑĤÐ¾
à¦¾à¦¦ à§ĩà¦°
ĠI le
àµĩà´ ¶
ÑĢ Ð°
ĠJ i
Ġá»į kan
w áº¹
æ· ±
à¥ ¦
Ġaye lujara
o k
Ġìł Ħ
Ø§Ø ¡
z ÉĻr
ĠÐ ¥
Ġp i
Ġa p
áĢĢáĢ¼ áĢ±áĢ¬áĢĦáĢºáĢ¸
à®Ļ à¯įà®ķà®³à¯į
ĠN I
ar in
w r
Ġag ba
Ñĸ Ðº
×ķ× ĵ
es u
±à¸ ģ
åĽ½ å®¶
Ġè ´
ç§ °
Ġà¤ ¡
er o
s un
ĠáĥĽ áĥĺáĥ¡
à°¿à° ¸
Æ° Æ¡
ĠÙĨ Ûģ
fi han
ĠF un
à§ĩà¦ ¤
ĠáĢĢáĢŃáĢ¯ áĢļáĢ¹áĢ
ĠáĢľ áĢŃáĢ¯
Ġà´¸ àµįà´µ
Ø§Ø ´
dÄ± r
ĠÃ ¬
Ð² Ð°Ð½
Ġs ur
Ġàªķàª° à«Ģ
le n
ĠÑŀ Ð·
ĠÒ ²
áĢĨ áĢ±áĢ¬áĢĦáĢº
ãģ Ĩ
ë Ĳ
§à¸ ¥à¸²
å£ «
å¹ ¶
Ġæ ³
æ²¡ æľī
à¸Ńà¸¢à¹Īà¸²à¸ ĩ
äº ĳ
èĭ ¹æŀľ
à¥ ħ
áĥł áĥĺ
Ġà´® àµģà´
Ð°Ð² Ð°ÑĨÑĮ
Ġà°ķ à±Ĥà°
Ã« s
à´ ļ
Ġà¦ªà§įà¦° à¦¤
Ð¿ ÑĢ
áº§ n
àª¾àª Ī
ĠÐ±Ð¾ ÑĪ
áĥĲáĥ £áĥ
áĤı áģ
áĢĻ áĢĬáĢº
Ġ Ô
s Ä±n
à®± à¯įà®ķ
Ġà° ²à±ĭ
Ø§ Ú©
ĠÐ» Ñİ
Ġà´ ŀ
Ġn e
es t
ĠØ§ÙĦ Ø¹
à´ «
àª¾àª° à«Ģ
ĠÐ´ Ð°Ð²
Ġà¦ §
Ġ× ª
ĠáĥĲáĥ ®
ÙĦ ÛĮ
Ñĥ ÒĽ
ĠÐ¿ Ð°Ñģ
áĢĶáĢ¾ áĢĦáĢ·áĢº
à±ĩà° ¸
à¥ Į
ĠÐ¿ÑĢ Ð¾
à´¿à´ķ à´³
Ġ er
àªĤ àª¤
ľ ê±¸
í ħ
Æ°á» Ľ
Ò³ Ð¾
áĥĲáĥ Ŀ
à¯Īà® µ
à°Ĥà° ļ
ķ à¸£
ķ à¸´
åģ ĩ
Ħ à¸Ļ
æĬĢ æľ¯
ä½ İ
à¸Ńà¸¢à¸¹ à¹Ī
à¨ ¨
åı į
å¿ ħ
æĢ Ŀ
Ġå° ±
1 7
Ġ2 6
2 5
è¿ ŀ
åĪ Ļ
åº Ĺ
à¤¿ à¤°
ÑģÐº Ð°Ð³Ð°
Ġà¦¨ à¦¿à¦
Ġë ¬
Ġd Ã©
Ġ Q
Ġ Ð°Ð¿
à´¾à´¤ àµįà´°
c y
ÑĩÐµ ÑģÐº
ĠÑģ Ñı
Ø± ÙĬ
c s
áĥĺáĥĵ áĥĲáĥľ
à«įàª ·
éħ į
¶à¸ ģà¸
±à¸ įà¸
Ġà¨ ¹
åĪĨ æŀĲ
«à¸£à¸ ·à¸Ń
å¤ į
à¹Ģà¸ ŀà¸
à¤¾à¤ Ł
à®¿à® ®
ĠÑĩ Ð°Ñģ
s Ä±
ĠØ µ
Ġà¦ ĺ
áĢ» áĢĢáĢº
à°¾à° ª
Ġp r
Ġà´¸ à´®
A PP
Ġå¿ «
é¦ĸ é¡µ
ªà¸ ¡à¸
Ķà¸ ¹à¸
é Ł³
åĨ į
Ġç¾ İ
Ġæ ¾³éĹ¨
áł łáł
4 0
- -
ç Ĭ
Ħà¸¸à¸ ĵ
å¤§ å°ı
å®ī åħ¨
æĪĳ ä»¬
Ġà¸ ¡à¸
«à¸ ¥à¸²à¸
Ġå¥ ½
Ķà¹īà¸§à¸ ¢
Ĺà¸µ à¸
¡à¸²à¸ ģ
à¸Ļà¸± à¹īà¸Ļ
łà¸²à¸ ŀà¸
æİĴ åĪĹ
èĻ İ
à¤ļ à¥įà¤¯à¤¾
Ġ íķĺ
Ġc are
×ķ× Ł
Ġq Ã«
ÑĢ Ð°Ð½
áĥĿáĥ Ĺ
ĠáĢĴ áĢ¯
Ä« ba
iá»ĩ n
Ġm in
Ġà®ħ à®°
àª «
Ġà°µ à±Ĩ
áĢĽ áĢĦáĢº
Ø¦ ÛĮ
Ġà¦ıà¦¬ à¦Ĥ
Ġà¤² à¤¿à¤ı
e i
áĢ¬áĢ¸áĢ ±áĢĲáĢ¼
ĠáĢ¡ áĢ±áĢĻ
áĢĢ áĢ¯
ãĤ Į
áĢ® áĢľ
à´± à´¿à´¯
Ġprz e
lÉĻr i
Ð°Ð¼ Ð°
Ġáĥ§ áĥķáĥĶáĥļ
æ ļ
æ ħ
Ġà¸ Ĥ
ç¡ ®
æĬ ¤
äº ¿
é£ŀ èīĩ
à¥įà¤ ²
Ġà®® à¯ģà®
Ã³ n
áĢ»áĢĸ áĢĦáĢ¹áĢ·
áĢ¡ áĢ±áĢĶ
áĢ½ áĢ±áĢ¸áĢ
à°¤ à±ĭ
Î¸ ÎŃ
ĠÏĢ ÏģÏĮ
Ïĥ ÏĦÎ¿
Ġe i
Ñ Ķ
Ð°ÑĨÑĭ Ñĸ
ìł ģ
àª¨ à«ģàªĤ
áĢĤ áĢ«
áĥļ áĥĶáĥĳ
ÑĨ ÑĭÑı
àµįà´ £
ĠØ¨ Ú¾ÛĮ
áĢĦáĢºáĢ¸áĢ Ļ
Ġtr ong
Ð¾Ð² Ð°Ð½
Ð½ Ð°Ðµ
à¹ Ĭà¸
åĦ ¿
ç»ı æµİ
à¥ģà¤ ³
Ã© p
Ġà°Ĵ à°ķ
ĠØ¹ ÙĦÙī
Ļ à¯įà®ķ
Ġi st
ĠØ ²
à´¿à´ ±
Å ¯
áĥĶáĥĳ áĥ£áĥļ
n Ã©
ĠÑı Ð³Ð¾
×ķ× ĳ
Ġo d
Ġàª ¯
Ġm ÉĻ
Ð± Ðµ
à¯įà® £
Ġå¤© å¤©
Ħ à¹Īà¸
æī į
åħį è´¹
Ġåħ ¨
Ġå¤§åıĳ å¿«3
åĽ Ń
äº§ åĵģ
Ġà¤ ł
ĠÑĤ Ñŀ
ĠÐİ Ð·
Ð¸Ð» Ð³Ð°Ð½
ĠÒĽ Ñŀ
ĠÑį ÑĤ
ĠÐ¹ Ð¸Ð»
Ð¸ Ñĳ
áĢĸáĢ½ áĢ²áĢ·
t ta
àµįà´¯ à´Ĥ
áĥ£áĥ Ľ
j Äģ
à¯Ĩ à®°
Ġc e
ĠÐ² Ñı
êµ Ń
Ð¸ Ñħ
áĢĴ áĢ«
ĠÐ² Ð¾
áĢ¬áĢ¸áĢ Ķ
Ġn jÃ«
à¤¾à¤ ¬
àµįà´¯ à´®
Ã© t
Ġàª §
à°¾à° ¬
à¤ ĸ
ĠáĢŀáĢŃ áĢĽ
ĠáĥĲáĥ ¥
ĠáĢĢáĢº áĢ±áĢĶ
ĸáĢ¼ áĢħáĢº
ĠÐ¿ Ð°ÑĢ
ÉĻ b
à´¾ àµ¼
à°¦ à±įà°¦
Ġf Ã¼r
à¦ ¡
à¯įà®¤ à¯įà®¤
êµ ¬
ĠÑ İ
Ġp ro
Ð´ Ð°Ð³Ð¸
áĥĺáĥļ áĥĺáĥ¡
Ñĥ ÑĪ
Øª Ø±
Æ°á»Ŀ i
Ġà®ª à®Ł
ĠÐ´ Ð·Ñı
áĥĺáĥ Ĵ
Ġ5 5
Ġç Ļ
« à¹ĩ
Ġé ĺ
ç» ľ
æĿ ¿
à¹ĥà¸«à¸ ¡
å®ĺç½ĳ ä¸ĭè½½
à¤² à¥ĩà¤²
Ġàª ĺ
e dd
à¥ĭà¤ Ĺ
ÑĢÑĭ Ñı
ĠÐ¾ Ð»
Ġ× ¨
Ġà°ī à°¨à±įà°¨
Ġì ļ
Ð» Ð°ÑĤ
z et
ģáģ ļ
áĢ¡ áĢĽ
ĠÑĤ Ð°ÑĢ
Ġi da
Ġ Z
à¦¦ à§įà¦
£áĥ ļáĥĺ
ĠáĢŀ áĢĲáĢĦáĢ¹áĢ¸
áĢģ áĢĦáĢº
à®¾à® £
Ã¤ n
Ġ2 00
áĢ¸áĢ±áĢ Ķ
áĤıáĢ½ áĢħáĢ¹
áĢŃ áĢĢ
Ġá»į pá»įlá»įpá»į
Ġr á»į
ĠÐ¿ÑĢ Ð°Ð²
ĠÛĮ Ûģ
Ġan d
Ġh ack
Ġgb i
ĠK o
ĠÐ± ÐµÑĢ
pa da
g u
áĢľáĢŃáĢ¯ áĢĢáĢ¹áĢ
áĢĲ áĢļáĢ¹áĢ
áĢ¸áĢ Ķ
Ġe de
Ġ Ð°Ðº
à´ªàµįà´ª àµĭ
Ã³ Ì£n
Ġd ans
áĥĲáĥľ áĥĺ
Ġàª¤ à«ĩàª®
áĢĶ áĢ·áĢº
Ġì ĸ
Ġb u
Ñĭ Ð²
· à§įà¦Ł
el i
à¤¹à¥Ģ à¤Ĥ
Ġaká»į ká»į
Ġà¤ §
à¯įà® ¯
Ġi lu
ĠÑĤ Ð°ÑĬ
Ø º
Ġà°ª à±ĭ
ãĤ ¤
U N
Ġá»į ja
Ġh a
Ñģ ÑĮ
Ġi wa
áĥķ áĥĶáĥ
Ġà´ĩ à´¤
ĠR e
T I
s á»į
áĢĦáĢ¹áĢ ¡
áĢ® áĢĻ
ĠÐ¼ Ð¾Ð¶
áģ ¸
áĢĦáĢ¹áĢ ±áĢ
ĠáĢ» áĢĸ
Ġ áĤĲ
áĢ¬áĢĽ áĢ®
ĠÐ´ Ðµ
Ġà°µ à±įà°¯
Ð¸ ÑĦ
Ġ ÈĻi
æľīéĻĲ åħ¬åı¸
é¢Ħ æµĭ
Ġc c
à¤¾à¤ļ à¥įà¤¯à¤¾
Ġb á»į
à´¨àµįà´ ¦
áĢĦ áĢļáĢ¹áĢ
áĢĲ áĢĦáĢº
à«ĭàª ¡
ĠA n
à¦ķ à¦¾à¦°
u m
Ġà®İà®©à¯įà®± à¯ģ
v er
ĠJ e
du ro
d s
Ġi ran
in a
ļ Į
c o
Ġy Ã©
àµģà´£àµįà´Ł àµį
Ġi ru
ĠA ti
Øª ÛĴ
É Ķ
Ġs u
ĠÑģ Ð»
×Ļ× ł
à±ĩ à°ķ
Ì ģ
áĢĲ áĢŃáĢ¯áĢĦáĢ¹áĢ¸
áĢĻ áģ¼
áĢ®áĢ¸áĢ ķ
ÙĪ Ø²
áĥĲáĥĵ áĥĴ
ë³ ´
Ġáģ Ĩ
á» ĵ
Ñĭ Ð½
à¤¤ à¥ĩ
àª ĸ
à¦¨ à§ĩ
Ħ áĢĶáĢ¹áĢ¸
áĢ¥ áĢ¹
»áĢķ áĢ¬áĢĦáĢ¹áĢ¸
ĠáĢķáĢ¼ áĢ±áĢ¬
ĠÐ± Ñĥ
Ġà® Ł
ÎĹ Î£
Ïģ Î¿Ïħ
Ġìĭ ľ
à´¾à´¯à´¿à´° àµģà´¨àµįà´¨àµģ
Ġf el
ĠÑıÐºÑĸ Ñı
c ie
ľ áĢĬáĢ¹áĢ¸
áĢĲáĢ¹áĢ Ĳ
Ġà§¨ à§¦
Î ļ
à°¿à° Ł
ĠÎł Î±
ĠáĢĺ áĢļáĢ¹áĢ
áĢŀ áĢŃáĢ¯áĢ·
Ñģ Ðµ
à¦¿à¦ Ł
áº¡ n
àª¾àª° àª¾
ĠáĥĽ áĥĲáĥĴ
ãĤ ī
Ġà´ªàµįà´° à´¤
ĠÑĤ Ð°ÑĪ
Îĳ Î£
ÎŁ Î£
Îµ Ïģ
Ùĩ Ø§ÛĮ
è Ľ
æķ° æį®
Ġä½ ł
Ġç ī
å¼ ķ
çħ §
ä¸ ¾
ä¾ ¿
åħ Ń
Ġå¹ ¸è¿Ĳ
çİ ĭ
ĠagåĽ½éĻħ åİħ
è¶ Ĭ
çĻ» éĻĨ
Ġé Ŀ
Ġæ Ķ
Ġà¤¤ à¤°
Ġáĥł áĥĿáĥĴ
Ðĺ Ð
Ð³ Ð°ÑĢ
Ġà®ļ à¯Ĭ
ĠÙĦ ÙĦ
Ġa t
à°¾à°¨ à±įà°¨à°¿
ĠÐ¿ÑĢ Ð°Ð´
Î¹Îº Î¿
à®¤ à¯į
à´¾à´² àµįâĢį
Ġå¤§åıĳ å½©ç¥ŀ
èĬ ±
Ġà¤¹ à¥ĩ
Ġà´¨à´¿à´ ¨àµįà´¨
Ð¾ Ñĩ
ìļ Ķ
àª¶ à«ĩ
à¦¨ à§ĩà¦°
ĠáĢ¡ áĢ¬
áĥĶáĥ¥ áĥ¢
Ä± ÅŁ
Ķà¸¥ à¸Ńà¸ĩ
Ġà¸ ģà¸²à¸£à¸
ĠÐ ¤
le t
Ġ áĤı
áĢŀ áĢĬáĢ·áĢº
Ï Ĭ
áĥĲáĥłáĥ Ľ
ow an
à«ĩàª ¸
Ð Ĩ
Ð³ Ñĸ
Ġà¹Ĥà¸ Ľà¸£
¥à¸ĩà¸ Ĺà¸
Î¾ Î·
à§įà¦ ¨
´ Ģ
à´¾à´ ª
Ġà¹Ģà¸ Ķà¸´à¸¡à¸ŀà¸±à¸Ļà¸
Łà¸ ¸à¸ķà¸
°à¹Ģà¸ ļ
à°¦ à°¿
Ġà¤° à¤¹
Ġc s
Ġm á»Ļt
à¹Ĥ à¸Ļ
ÛĮ Ø³
à®¾à® ±
Ħà¸£à¸Ķà¸´à¸ ķ
à¸µà¸¢ à¸Ļà¸
ÐµÐ½ ÑĤ
Ġà¹Ģà¸ ¥
Ïħ Ïĥ
ä¾ ĭ
Ġà¨ ¨
å° Ķ
æŃ£ è§Ħ
Ĥà¸¶ à¹īà¸Ļ
ĠåĽ ł
å¤§åıĳ å¿«ä¸ī
à¥Ģ à¤¤
Ã½ ch
¥ à«ĩ
Ġà´µ à´°
áĥ£áĥ Ĺ
×ķ× ł
Õ µ
Ö Ħ
lar Ä±
Ð±Ðµ ÐºÐ¸ÑģÑĤÐ¾Ð½
ĠÐ¾ Ð½
Ø§Ø ¹
ĠÐ¼ Ñĸ
à¦¾à¦ Ł
åĵ į
èĪ ª
à©± à¨
å¤ ª
å¸Ĥ åľº
à¹Ģ à¸Ń
éĺ ²
ć ć
æĭ ī
Ł ©
æĺ ¾
éĺ ³
¾ è®¯
ä» Ĭ
Ġäºļæ¸¸ åĽ½éĻħ
æĬ Ĭ
à¥ĭ à¤ķ
ĠÏĥÏĦÎ¹ ÏĤ
ìĹ ħ
Î¯ ÎµÏĤ
Îµ ÏĦÎµ
ĠÏĥÏĦÎ¿ Î½
ĠÎ¸ ÎŃ
ĠÎ Ī
Ïģ ÎµÏĤ
o d
à´ªàµįà´ª àµĨà´Ł
s Ã©g
a i
Ġà®ķ à®Ł
áĥł áĥĲáĥĽ
, "
ì§Ģ ëħ¸
Ġì§ Ģ
Ġau f
Ĭà¸± à¹Īà¸Ļ
Ġà¸Ĺà¸ Ķà¸¥à¸Ńà¸ĩ
Ġà¸ Ľ
àª¾àª ķ
à°¸ à±įà°¤
r es
áĥĲáĥłáĥ ĵ
Ð¾Ð² Ð°
Ġà¤ħ à¤ª
à¦¾à¦ ļ
ĠÑĢ Ðµ
ĩà¸´ à¸Ļ
Ġr o
ļà¸Ńà¸ ¥à¸
Ġà¹Ģà¸ §à¹ĩà¸
à±ĩà° µ
Ġà¹Ģà¸Ķà¸´à¸¡à¸ŀà¸±à¸Ļà¸ Łà¸£à¸µ
Ġ à¸£
ĠÐ¿ Ð°Ðº
ģà¸ ¡à¸
áĥĶáĥ ª
Ġà´ķ àµĭ
à¹Īà¸ĩà¹Ģà¸ ĩà¸´à¸Ļà¸
ļà¸²à¸Ĺ à¹Ħà¸Ĺà¸¢
Ġà¸ª à¹Īà¸ĩà¹Ģà¸ĩà¸´à¸Ļà¸
¥à¸ĩà¸Ĺà¸ °à¹Ģà¸ļ
Ġà¸ Īà¸
à¦¾ à§ľ
à¯Īà®¯ à¯ģà®®à¯į
Ġ äºļæ´²
ĻĢâ ĻĢâ
Ķà¸ ¹
Ġæ Ģ
Ġåĳ ¨
å§ ĭ
Ġà¤¸ à¤®
ÑĢ Ð°Ð²
ba y
Õ¥ ÖĢ
bay c
ĠØ ·
Õ¡Õ ¯
Ġ Æı
áĢ¬áĢŀ áĢ¬
à±ģà° ª
áĥĶáĥĳ áĥļ
Ġà¦ľ à¦¾à¦¨
Ġàª¹ à«ĭàª
à´¿à´¨ àµĨ
Ġà¸ ŀà¸
bayc an
ĠA zÉĻr
Õ¡Õ µ
Ã¶ v
Ð ŀ
ĠÐ³ ÑįÑĤÑĭ
ÑĤ Ðµ
in en
ìļ ©
an t
Ħà¸£à¸ ·à¹Īà¸Ńà¸ĩà¸
Ġáģ¿ áĢķ
áĢ±áĢĨ áĢ¬áĢĦáĢ¹áĢ
áĢ±áĢĶ áĤĶ
áĤĢáĢĢ áĢŃáĢ³
ĠáĢľ áĢ½
Ġà¦ª à¦¾à¦°
àµģà´¨àµįà´¨ à´¤
Ã¡ k
Ġà®ĩ à®¤
Ã« sh
à±ģà°Ĥà° Ł
Ù Ģ
ĠÐ³ Ð¾Ð´
Ġ2 7
¢ à¸Ńà¸
Ġæ Ľ
Ĺà¸²à¸ ĩà¸
à¥įà¤ ¨
ķ áĢ²
áĢĦáĢ¹áĢ¸ áĢŀ
áĢĿ áĢº
ĠáĢľ áĢĢáĢº
ĠØ§ÙĦ Ø³
ãĥ Ī
áĥĶáĥĿ áĥĳ
Ġp ie
à±ģà° ¡
k ie
ÑĢ Ð°Ñŀ
à¯Īà® ªà¯įà®ª
Ġvá» Ľi
y ÉĻ
Ã Ł
áĤ ĥ
áĢĢáģ ł
áĢģáĢ¼ áĢĦáĢºáĢ¸
åĩ ł
ç½ĳ ç»ľ
à¤¾à¤² à¤¾
Ġí ĺ
àª¾àª¨ à«Ģ
ĠÐ¿ÑĢ Ð¸
à°® à±įà°®
ĠÐº Ð°Ð¼
áĥĶáĥĳ áĥĲáĥ¡
×Ļ× Ķ
à´¾à´ ľ
Ġà°ķà±Ĥà° ¡à°¾
áĢĽ áĢĶáĢº
Î» ÏĮ
Î¼ÎŃ Î½Î¿
ÏģÎ¹ ÏĦÎ¹ÎºÎŃÏĤ
er s
Ġà¦ī à¦ª
Ïĥ ÏĦÎ±
ĠÏħ ÏĢÎ¿
Î¼ Î®
ÏĢ ÎµÎ¹
ĠÎ´ Î¹
Î½ Ïī
e d
Ð¾Ð»ÑĮ ÐºÑĸ
Ġà®ħ à®®
ķ à¹Īà¸²à¸
¢à¸ §à¸
è® ©
ĠãĢĤ ï¼Į
ä½¿ çĶ¨
à¤¤ à¥įà¤¤
Ġà°¨ à°¿à°°
Ġáĥ¡áĥĲáĥ Ļ
ĠÐº Ð°Ðº
ĠÑĥÑĩ ÑĥÐ½
ĠÐ± Ð¾ÑĢ
ĠØª Ú¾
àª¾àª ĩ
à´¾à´ Ĺ
l Ã¤
d y
¤ ĳ
Ġi lÉĻ
v Äĵ
Ñģ Ð°
iá»ģ u
l es
Ð½Ñĥ Ñİ
ÙĬ Ø¯
Ġáĥ ¦
ÐĲ Ð
ĠÐº Ð°ÑĢ
à¨ Ĥ
à¸Ńà¸²à¸ «
çİ° éĩĳ
ĸà¸¶à¸ ĩà¸
à¤¦ à¥įà¤
à®¿à®± à®¤à¯ģ
Ùģ Øª
à°¡ à°Ĥ
Ã¡ z
à¦¾à¦ §
ãĤ ĵ
à´¿à´ļàµįà´ļ àµį
Ġng a
Ġáĥ łáĥ
áĢĢáĢ¹áĢ ±áĢĶ
ĶáĢ¾ áĢĦáĢ·áĢº
à«įàª ®
à¤ Ī
ëı Ļ
t Ã³
ç³» ç»Ł
Ĺà¸ ±à¹īà¸ĩà¸
åº ľ
Ġà¤® à¥ģ
áĥ ¯
ĠÐ¿ÑĢ Ð°
Ġi l
Ġàª¶ àªķ
ĠÎľ Îµ
Ġa c
à´¿à´ ¨àµįà´¨
Ðº Ð°Ð¹
Ġi m
Ġ2 9
Ġà¸ ĭà¸¶
é ¥
Ġè §
Ġæ °
èĲ Ħ
å®¢æĪ·ç«¯ ä¸ĭè½½
à¤ķ à¤¾à¤°
à¦¿à¦¤ à§ĩ
Ġ": "
Ġí Ļ
áº£ i
à®® à®¾à®ķ
à°ķ à°¿
àµģà´¨àµįà´¨ à´¤àµį
Ñī Ðµ
ĠáĥĹ áĥ£
Ñģ Ñĳ
Ġ× ¤
ĠÙĩ Ùħ
ç¨ ³
Ġà¹Ĥà¸ Ķà¸¢
Ġ äºº
Ġ5 0
à¤Ĥà¤ Ĺ
ĠØ§ ÛĮÚ©
Ġà°ħ à°µ
ĠÐ² ÑĸÐ´
ì Īĺ
in Äģ
Ġà´µ àµĢ
Ã¡n y
áĥĲáĥĽ áĥĵ
à¦¿à¦ ®
áĢĬáĢ· áĢ¹áĢ
áĢĺ áĢ¬
ĠØ£ ÙĨ
áĢĻáĢ» áĢ¬áĢ¸áĢ
àµĨ à´Ļàµįà´ķ
is ta
ĠÐ ¦
ãģ ı
Ð°Ð¼ Ð¸
àªĤàª ¦
ªà¸ ¹à¸
å¤ ±
«à¸Ļ à¹īà¸²à¸
ç© ¶
ç ¢
à¸£ à¹īà¸²à¸
ä¸ĸ çķĮ
à¹Ģà¸ ¡à¸
Ġä» İ
à¸£à¸¹ à¹īà¸
à¸´à¸ Ķà¸
åł Ĥ
Ġ3 3
Ġå° ı
ä» ½
à¥ĩà¤ £
Ñĥ Ñħ
in ÉĻ
te l
Ġ íķľ
Æ°á»Ŀ ng
ĠÄ į
Ġà®ª à®¿à®°
ÑįÐ½ ÑĤ
Ġm Ã«
Ð¼ Ð¸
Ġà¤¨ à¤¹à¥Ģà¤Ĥ
à¦ Ļà§įà¦Ĺ
áĥĲáĥķ áĥ¡
Ġa m
à°² à±įà°²
à«ĭàª Ł
ÑĢ Ð°Ð±
à§ĩà¦ ĵ
Ø± Ø¯
Ġë ĵ
è¾ ĥ
à¹Ģà¸ ķ
ç± ³
à¥ĩà¤ Ĥà¤
Ġà°¨ à±ģà°Ĥà°
n o
ĠÐº ÑĢ
ĠSe x
Ġma i
à´³ àµįà´³
áĥĲáĥķ áĥļ
ĠÎ ¥
Ġà® ľ
ĠáĢľ áĢ¯áĢķáĢº
Ġà¦ķà¦° à¦¾
Î¹Îº Î®ÏĤ
Ġìł ľ
Ð¸Ð» Ð°ÑĢ
ĠÐİÐ· Ð±ÐµÐºÐ¸ÑģÑĤÐ¾Ð½
Ð»Ð°ÑĢ Ð½Ð¸
ĠÒĽ Ð°ÑĢ
t Ä«
mÉĻ k
à«ĭ àª¤
à¸Ļà¸ ´à¸
åĩ ¡
åŁ Ł
Ġå½ ĵ
çģ «
åĩ »
åĮ »
åį ı
èĲ ½
Ķà¸ ¢à¸
A G
à¹ģà¸¥ à¹īà¸§à¸
ä¸Ń å¿ĥ
Ġæī ĭ
6 7
çĽ ĳ
å ¡
à¥įà¤ ®
áĢĦáĢ¹áĢ Ĩ
áĢĶ áĢĬáĢ¹áĢ¸
áĢķáĢ¹áĢ Ļ
áĢ±áĢĽ áĢ¸áĢ
áģ¾áĢĢ áĢ®áĢ¸áĢ
áĢ» áĢ¬áĢ¸
Î¯ Îº
ĠS ch
Ġ×Ĳ ×ª
à´¤àµįà´¤ àµį
Ð¾ Ò·
Ñĸ Ñĩ
Ðº Ð¾
Æ°Æ¡ ng
ÑĤ Ð³Ð°Ð½
ÑĤÐ¸ Ð±
à±ģà°ķ à±ĭ
ÏĦ ÏīÎ½
áĥĺ áĥĶáĥł
è´ £
çº ¦
æĬķ æ³¨
Ġäºļæ¸¸ ag
èµ ¢
èĭ ±
è ŀ
à¨ ¹
Ġà¥ §
ĠS z
ĠÐ¼ Ð°ÑĢ
Ġàª¸àª¾àª ¥à«ĩ
à®ª à¯į
Ø ¸
í Ħ
ĠÐ¿ Ð°Ð²
ow e
ag e
ĠkÃ¶ z
ÏĮ ÏĤ
Ġe a
Ġg o
Ġt se
ģáĢ« áĢĦáĢ¹áĢ¸
áĢĿ áĢĶáĢº
ç ¯
ç» ´
åĨ µ
åĳ ½
Ġà¤ķ à¤¾à¤°
àµĨà´¯ àµģà´Ĥ
à§ĩà¦ ®
ci Ã³n
áĥĺáĥ£áĥ ł
Ĳ áĢħáĢ¹áĢ
áĢŁ áĢ¯áĢĲáĢº
ĠÑĪ Ñĥ
à°¿à°¨ à°¿
ĠÐ¿ÑĢ ÐµÐ´
iá» ĥ
ÎŃ Î½
Ġg e
Ð´ Ñĭ
Ġ Å¡
àªµ àª¾àª®àª¾àªĤ
Ġà®µ à®¾à®
ë© ´
à¦¾à¦ ģ
Ġpa s
ĠØ§ Ù
à´¿à´² àµĩ
4 8
æ£ Ģ
Ĵ éĢŁ
âĢ ¦
Ġà¸ Ĺà¸µà¹Ī
èī º
à¤¾à¤Ĥà¤¨ à¤¾
Ġáĥ£áĥľ áĥĵáĥĲ
Ø§ Ø³
Î¼ Î¹
Ġt Ã¶
s Ã¤
Ġà®ª à®¾à®°
Õ ¿
Ġv er
Ð Ĥ
ĠÑĸ Ñħ
c Äĥ
à°¾à° £
Ġáĥĵ áĥĲáĥĽ
à¦¾à¦ ĵ
dz ie
Ġ Ð°Ð¼
Î³ Î³
ãĥ «
àµįà´° àµĢ
éĿ Ĵ
ªà¸ ³à¸«
à¹Īà¸²à¸ ¢
æ¸ ¯
ä½ ı
à¹Ħà¸ §
ģà¸ §à¹Īà¸²
å ©
2 7
à¹Ĩ à¸
è¯ Ħ
ä¿ ®
å¼Ģå¥ĸ ç»ĵæŀľ
ĠåĲ Į
ç Ł
Ġè ħ
Ġagçİ¯äºļ éĽĨåĽ¢
· à¹īà¸Ńà¸
å Ĥ
Ġà¤ħ à¤¨
ĠÎ Į
ÏĢ Î·
ĠÎ¼Îµ Î³
ĠÎ® ÏĦÎ±Î½
Î¸Î· ÎºÎµ
Î³ÏģÎ± ÏĨ
Î» Î¹
l l
Ġà®ĩà®° à¯ģà®ķà¯įà®ķ
ĠìĿ ´ë
Ł áĢ¯
ÑĨ Ð¸
× ĸ
áĢĸ áĢŃáĢ¯áĢ·
ÐµÐ»Ð°ÑĢ Ñĥ
ĠÐ §
à´¨àµįà´ ±àµĨ
Ġáģı áģĭ
»áĢķ áĢ®áĢ¸
áĢĨ áĢ¯áĢŃ
áĢ¼ áĢĦáĢ¹áĢ¸
áĢĻáĢº áĢ³áĢŃ
áĢĢáģ ¡
áĢ»áĢķ áĢ®áĢ¸
ĠáĢ¡ áĢŃáĢĻáĢ¹áĢ
ĠáĢģ áĢ¶
Øª ÛĮ
ĠÕ °
ĠAzÉĻr baycan
Õ¡ ÖĢ
Ġb il
àª¾àª ¹
ĠáĥĽ áĥĺáĥ
on t
à±ģà°Ĥà° ¦
áĢĢáĢ¹áĢ Ĩ
±áĢĽ áĢ¬áĢĢáĢ¹áĢ
áĢĲ áĢĽ
r Äģ
â ķ
Ð¾Ð´ Ð·Ñĸ
áģ Ĥ
Ġà´ķ à´´
Ãł ng
à¦¿à¦ ¦
áĢ¼ áĢ¬áĢ¸
áĢĢáĢ¼ áĢ®áĢ¸
ĠÐº ÑĥÐ½
Ð¾ ÑĤÐ¾
à±Ģ à°°
ĠáĥĲáĥł áĥĺáĥ¡
à«įàª ķ
to r
ĠØ§ÙĦØ Ń
Ġà®ª à¯Ĭ
áĢ±áĢľ áĢ¸
áĢ±áĢĲáĢ¬ áĢ¹
áĢ¥ áĢ®áĢ¸áĢ
áĢģáĢ» áĢŃáĢĶáĢº
à¸Ńà¸¢à¸¹ à¹Īà¸
ç¦ ı
äº Ĵ
ĠçĶ µ
çĻ ½
æīĭæľºå®¢æĪ·ç«¯ ä¸ĭè½½
è¯ »
ĠæĪĳ ä»¬
å¤ĩ çĶ¨
µ à¤°
à§ĩà¦ ¬
à¤¸ à¥ĩ
à°¾à° §
Ð» Ñİ
Ïĩ Î½
re f
ìĺ ¤
à´¿à´ ŀàµįà´ŀ
Ġj est
d h
Ð»Ð¸ Ð±
Ð´ Ð¸ÑĢ
Ð°Ð½ Ð¸
áĥĲáĥłáĥ Ĵ
ÏĪ Î·
ÏĦ ÏİÎ½
Ïĩ Î±
da u
áĢ¬ áĢĲáĢ¹áĢ
áĢĦáĢ¹áĢ Ľ
.. ..
ĠáĢ¡áĢħ áĢŃáĢ¯áĢ¸áĢĽ
ĠÐ²Ñĭ Ðº
ko r
áĤĬ áĢĲáĢ¹áĢ
áģ¾áĢĢ áĢ¬áĢ¸áĢ
áĢľ áĢ¯áĢŃ
áĢĶáĢ¹áĢ ¡
áĢ±áĢĲáĢ¼ áĢĢ
áĢĸ áĢŃáĢ¯áĤĶ
ĠáĢ¥ áĢķ
Ãł nh
«à¸ ¡à¸²à¸
éļ ¾
åħ «
Ġå¤§åıĳ æŀģéĢŁ
«à¸£à¸ ·à¸Ńà¸
à¤¾à¤µ à¤°
áĢķ áĢ±áĢ«áĢº
à§įà¦ ķ
¶ Ķ
à´¾à´ ¦
Ġà®ķ à¯ģà®±
Ġáĥĵ áĥ¦
r ÉĻ
Ġà°ħ à°Ĥà°¦
Ñĸ Ð¼
u x
Ġà´¨ à´¿à´°
ëĭ Ī
ĠÙĨÛģ ÛĮÚº
Ð°Ð» Ð¸
p Äĵ
ĠÙĩ Ø§ÛĮ
à«Ģ àª¤
ĠÐºÑŀ ÑĢ
Ðº Ð°Ð·
Ġp or
ĠáĥĽ áĥ®
Ù ĳ
Ðº Ð°Ñŀ
Ð» Ð°Ð±
à¤ķ à¥ĩ
Ð¸Ñı ÑĤ
à±Ģ à°µ
Ø§Ø± ÛĮ
Ġsz er
×Ļ× ľ
ĠáĢ± áģ¾áĢĢ
ĠáĢĻáĢ¼ áĢĶáĢº
éĩ ĩ
éª Ĺ
à¹ģ à¸Ļà¸
à© ģ
åİĨ åı²
Ġå Ń
ĠåĬłæĭ¿å¤§ 28
ģà¸ ³à¸
Ġà¤Ĩà¤¹ à¥ĩà¤¤
áĢĽ áĢ²
Ġà´ķ àµĩ
áĢ¼ áĢĻáĢ¹áĢ¸
áĢĦáĢ¹áĢ ħ
áĢŃáĢ¯áĢ¸áĢ Ĳ
u o
Ġ Ð°Ð¹
±áĢĲáĢ¬ áĢ¹
ĠáĢ¡ áĢĻ
ÑģÑĤÐ² Ð°
Ġìĺ ¤
Ðµ ÑĪ
n y
Ġs Äĥ
à±įà°¸ à±į
à´¾à´ ¹
Õ¸ÖĤÕ ´
c ÉĻ
ĠáĥĹ áĥ¥
m en
áĢķ áĢ±áĢ«
Ð» ÐµÑĤ
à§įà¦ ļ
áº£ n
à®¿à®° à¯ģà®¨à¯įà®¤
Ñĸ Ð·
à«Ģàª ı
à¤ ı
ãģ į
à´¯ à´¿à´²àµįâĢį
Ġà´ļàµĨà´¯ àµįà´¯
áĢº áĢ¬áĢ¹áĢ
ĠáĢķáĢ¼ áĢĬáĢº
ë ¹Ħ
áĢ¸áĢĻ áĢº
áĢ±áĢķáĢ« áĢ·
áĢ±áĢ¡ áĢ¬áĢĦáĢ¹áĢ
áĢĤ áģ¤
ĠáĢ±áĢĢáĢº áĢ¬áĢĦáĢ¹áĢ¸
Ġáģ ĩ
Ġ äºĶ
ĠãĢĤ âĢĿ
à¥ĩà¤ ¨
áĢķáĢ« áĢĺáĢ°áĢ¸
áĥĲáĥłáĥ ¢
áĢĢáĢ¼ áĢ±áĢ¬áĢĦáĢ·áĢº
Ñĥ ÑĨÑĮ
Ġàª ĵ
à±ģà°ķ à±ģ
Ø± ÙĪ
Ġc z
à§ĩà¦Ľ à§ĩà¦¨
Ġáĥ °
Ã©n y
ìĿ´ íĬ¸
Ġng Æ°á»Ŀi
Ä«ba s
à±ģà° ¦
ĠÐ¹ Ñŀ
Ð»Ð¸ Ð³Ð¸
Ð¼ Ð¾Ð½
ch e
Ġn ÉĻ
à®ļ à¯įà®ļ
Ġëª ¨
à¦°à§įà¦ ¬
ĠÎ¼Îµ ÏĦÎ±
ĠÎºÎ± Î¸
os t
Ð½ Ð°Ñĩ
Ġ Ã«sh
¢à¸ ±à¸ĩà¸
é ĸ
ķà¸±à¸ §à¸
à¹ģà¸ļà¸ ļ
d 88
æĻ ¯
à¤¾à¤ Ī
Ïĥ ÎºÎµ
Î¿Ïį Î½
Ïģ Î¯Î±
ÏģÎ¿ ÏĤ
Î¼ ÏĨ
ĠÎ´ Îµ
ÏĦÎ¿ Ïį
ĠÎµÏĢ Î¯
Î² Î±
ĠÎº Î¬Î½
Ġw e
áĢ¸áĢ ĳ
Ġà´¤ à´¿à´°
Ġqu i
i k
Ð¾ ÑĤÐ¸
áĢĶ áĢ±áĢ·
áĥķ áĥĲ
à°¨ à±ĩ
Ð² Ð°ÑĢ
æľ Ľ
Ġè ĭ
èĮ ĥ
Ħà¸ ¡
å®¶ ä¹Ĳ
Ġæ ł
à¥įà¤¯à¤¾à¤ ¨
à§ °
Ġà¦¤ à¦¿à¦¨
à¯įà® ¨à¯įà®¤
Ġà´ªà´± à´ŀàµįà´ŀ
Ġìł ķ
à«įàª ¥
à°¿à°Ĥà° Ĺ
Ð°Ñģ ÑĨÑĸ
ÙĪ Ø§ÙĨ
±áĢ ļáĢ¬áĢĢáĢ¹áĢ
ĠáĢŀáĢ° áĤĶ
ĠáĢľ áĢ¬
ta l
Ġ× §
áĤı áģµ
áĢĢ áĢ°
Ðµ ÑģÑĤ
áĥ® áĥĿáĥķ
à´°àµįâĢį à´¤àµįà´¤
à¦° à¦¾
à´Ļàµįà´Ļ àµ¾
áĢ¡ áĢ¬áĢ¸
Å¾ e
ĠØ± Ûģ
åĮĹäº¬ èµĽè½¦
å¿« ä¹Ĳ
é¦ Ļ
Ġà¨ µ
ĠåĪĨ åĪĨå½©
Ġ æľ¬
ć Ĉ
2 9
èĩ ´
ļ áŀ
ª à¹Īà¸§
à¹ģà¸ ¥à¸°
à¥ĭ à¤²
Ġà®¨ à¯Ģ
Ġê² ĥ
ĠáĢ¡ áĢĲ
ÙĬ ÙĦ
ĠÃ¼ Ã§
Ð½Ð°Ñģ ÑĨÑĸ
áĢķáĢ¼ áĢ¯
Ġà¦ľà¦¨ à§įà¦¯
ts a
Ġáĥ© áĥķáĥĶáĥľ
Ð½Ð¾ Ðµ
Ã¡ m
Ġà°ħ à°¯
Ġáĥ£áĥ ¤
u f
cz y
Ð¾ Ðµ
v Ã¤
Ġàªķ à«ĭàª
l Äģ
Ġl os
ĠâĢĿ ï¼Į
ç¤¾ ä¼ļ
à¥ģ à¤¨
b le
Ð² Ð¾ÑĢ
ĠØª ÙĪ
á»¯ ng
± áĤı
áĢ±áĢ¸áĢ Ļ
ĠÐº Ð°Ð»Ñĸ
à°² à±į
Ð»Ð¸ ÑĪ
áĥĿáĥłáĥ ª
ĠÒ³ Ð°ÑĢ
te k
ĠÃ«sh tÃ«
Ġà®¤ à®®
Îµ Ïį
wy d
àª ¥
à®£ à¯įà®£
åĥ ı
å»º è®¾
è§£ æ¢¦
Ġà¤° à¤¾à¤ľ
s en
ĠáĢĢáĢºáĢ±áĢĶ áĢ¬áĢ¹áĢ
ĲáĢ²áĢ· áĢ¡
áģ¾áĢĢ áĢĬáĢ¹áĢ·
±áĢ ĳáĢ¬áĢĦáĢ¹áĢ
áĢ±áĢĽ áĢ¬áĢĢáĢ¹áĢ
áĢĲáĢ¬ áĢĢáĢŃáĢ¯
áĢĻáĢ¾ áĢĲáĢº
Ġà´¤ àµģà´Ł
áĥľ áĥĺáĥ¡
Ã© e
ãĤ ¯
Ùħ Ø§ÙĨ
ÑģÐº Ð°Ñı
à¦¨ à¦¾
à®¿à®² à¯įà®²
2 6
èİ ·
æĸ Ń
c om
çĽ ĺ
Ć ï¼Į
Ġag äºļæ¸¸
Ġå ±
à¹ĥà¸Ĭ à¹ī
èĲĦ äº¬
è± ¡
2 1
Ġ2 55
è¡ Ģ
Ġ201 7
áł ¢
8 0
à¹ Ħà¸£
æ² ³
è¯ Ģ
åı Ī
à¨ ¦
Ġ à¹Ĩ
à¤¾à¤¨ à¥ĩ
_ _
Ð¼ Ð°ÑĤ
à±ģà°¨à±įà°¨ à°¾à°°à±ģ
ëĤ ¨
ì °
ÙĨ ÛĮ
Å¼ y
ĠÐº Ð¾Ð¼
Ġà°ļ à±Ĥà°
ÅŁ a
ħ áĢ¯
Ð´ Ð·Ñĸ
à¦¬ à¦¾à¦°
ĠáĢĽ áĢ¾áĢŃ
Ġ× Ĵ
áĥ «
Ð°Ð» Ð°ÑĢÐ¸
Ð»Ð°ÑĢ Ð½Ð¸Ð½Ð³
ĠÑĩ Ð¸ÒĽ
ÑĢ Ð´
à´¯ àµģà´ŁàµĨ
Ð¼ Ð°Ñģ
t Äĥ
ĠÐ¼ Ð°ÑĬ
Ġk Äģ
à¹Īà¸ ¡
Ġé «ĺ
à¹Ģà¸ Ī
à¨ ¸
éĻ į
éĹ »
åĽ ´
æ¯ ı
«à¸Ļà¸ ¶
ªà¸ ±à¸
æŀ Ĺ
à¥ĩà¤ ¸
Ù ĭ
Ð¾ Ð´Ð¸
ĠA z
à¯ĩ à®©à¯į
à°Ĥà°¤ à±ĭ
à§ Ī
n en
ìĬ µ
Ġà®¤ à®¿à®°
áĢ¬áĢ¸áĢħ áĢ¯
Ġà´µ àµĨ
Ð½ ÐµÐ½
Ġà°ķ à°²
áĥĲáĥķ áĥ¨
è ³
Ġå º
Ġä» Ĭ
æĿ ĳ
é£ Ł
à¥ģà¤³ à¥ĩ
ÐµÐ½ ÑĮ
h et
ĠáĢĢáģ½ áĢ¼áĢĶáĢ¹áĢ
±áĢ Ļ
ĠáĢģ áĢ»
ÅŁ Ä±
lu s
àª¾àª¨ àª¾
à®¿à®© à¯įà®±
Ġà¤ī à¤¨
Ð½ Ð³
ĠÎĳ Ïħ
Ġ= "
ĠÎ± Î³
ĠÏĥ Î·
Îº ÏģÎ¹
Î»Îµ Ïħ
Î¿ Ïģ
ÏĢ ÏīÏĤ
Ïĩ ÎµÎ¯
ĠÎº Î¹
Ġr u
Îº Î¹
Ïħ Î½Î±
Î½Î¿ Î´Î¿
Î³ Î¼Î±
ÏģÎ¿ Ïį
ĠÏĢÎ¿Î» Ïį
Î¸ Î®
Ïĥ Î¯Î±
ĠÎĳ Î½
ÏĦ Î¿Ïħ
ÏĢ Î¹
ĠÏĢ Î±Î¹
Î¯ Î¿
Ïĥ Î¿ÏħÎ½
ÏģÎ¹ Î¿
ÏĨ Î±
Ġy r
à´¾à´¤ àµįà´¤
Ð»Ð°ÑĢ Ð¸Ð½Ð¸
ĠÑĤ ÑĥÑĢ
Ã¡ ch
ĠÑŀ ÑĤ
ĠÐ¾ ÑĢ
áĥł áĥĺáĥ¡
r y
ĠÑŀ ÑĢ
Ð¾ ÑģÐ¸
à¦¸ à§įà¦¥
áĢŃáĢ¯ áĢĢáĢ¹
áĢ±áĢĺ áĢ¬
áĢĦáĢ¹áĢ ĺ
Ġáģ İ
Ġj o
à± Į
àµĩ à´£àµįà´Ł
è¾ ¹
à¸£à¸£à¸ ¡à¸
Ĭ à¸µà¸
èĽ ĭ
è¯ ¥
à¹ģà¸ ķà¹Īà¸
Ġå°Ĭé¾Ļ d88
ĠéĤ £
Ġà¤¤ à¥ĩ
Ùħ ÛĮ
Ð¸ Ð³Ð°
ÑģÐ¸ Ñı
Ñĸ ÑĨÑĮ
Ġàªķ àª¾àª°
Ġt sa
Ġà®ĩà®° à¯ģà®¨à¯įà®¤
ĠáĥĽ áĥĹ
Ġs ch
o x
zi one
à´¿à´ ª
ĠÐ Ń
m Äģ
Ġ×ľ ×Ķ
Ġv y
å°ı æ¸¸æĪı
Ġà¤¯ à¤¹
à´® àµįà´ª
áĥĿáĥ Ļ
Ðº Ð¸Ð»
à¦¾à¦¬ à§ĩ
à±įà° ³
Ġ Ð°Ð»Ðµ
æ® µ
æ² ¹
Ġ æľĢ
éĻ ©
å® ¤
å®ĺç½ĳ çĻ»å½ķ
Ġ à¸£à¸
çİ© æ³ķ
è¨ Ģ
Ġå Ĵ
å¼ ł
à¤Ĥà¤ ¡
ĠV er
Ġà®® à¯ĩ
Ãł i
en ia
Ġáĥ® áĥĶáĥļ
ĠÐ´ Ñĭ
ĠÑģ Ñŀ
ĠÐº Ð¾ÑĢ
àµĢ à´µ
n ek
ĠØ§ Ù¾
Ġo u
à°¾à°° à°Ĥ
Ð¼ Ð°
à« ĥ
æ¸ ©
æŀ ģ
çŃ ĸ
èĭ ı
è Ń¦
çĽ Ĭ
Ġè ¡
å ª
æıĲ ä¾Ľ
à¸Ļà¸± à¹īà¸Ļà¸
u p
3 5
à¹Ģà¸ Ĭ
à¤¾à¤ļ à¤¾
áĢĲáĢ¬ áĢķáĢ«
áĢ¥áĢ¹áĢ ¸
áĢ®áĢ¸áĢ Ľ
Äĵ r
Ð°ÑĢ Ð¾Ð´
Ð¸ ÐºÐ¸ÑģÑĤÐ¾Ð½
Ð¸Ð¼ Ð¸Ð·
Ð´ Ð¾ÑĢ
Ġáĥ¡ áĥ¢
à´£àµįà´Ł àµį
à°Ĥà° ª
c ia
Ġáģ Ī
ĠØ§ Ùħ
t z
Ñģ Ð°Ð¼Ð°
áĢĸáĢ¼ áĢ²áĤķ
ĠáĢŀ áĢ¶
ÉĻ h
à§ĩà¦ ¸
ĠáĢ ¤
» ¿
Ġì Ĩ
Ðµ Ñĩ
à¤¾à¤ §
Ġà®ķà¯Ĭ à®£à¯įà®Ł
Ġà°ļà±ĩà° ¯
Ó Ļ
Ð°Ð³ Ð°Ð½
ĠÐº ÐµÐ»
Ð¼ Ð¾ÒĽ
ĠÐ¢ Ð¾Ò·
Ġ Ð°Ð»
áĥĲáĥ ŀ
áº§ u
à´¤àµįà´¤ à´¿à´¨àµįà´±àµĨ
Ã« t
à«ģ àª°
ãĥ ©
è¯ Ĩ
Ġ à¸Ļà¸
ä¾ Ŀ
à¥ĩà¤ Ł
ĠÑĪ Ð°Ò³
à¦¤ à¦¿
ĠÎ¼ ÏĮ
Î» ÎµÎ¹
Ïİ ÏģÎ±
ÏĦ ÎŃÏĤ
ĠÏĩ Î±
Î¼ Î¿Ïį
Ïĩ Î®
ĠÎ¼ÏĢÎ¿ ÏģÎµÎ¯
Î´ Îµ
Î· ÏĥÎ·
Ġp ost
Ġh ref
n et
ÏģÎ¹Ïĥ Ïĥ
Î½Î¿ Î½
ÏģÎ¹ÏĥÏĥ ÏĮÏĦÎµ
Î² Î¬
Î»Î¿ ÏĤ
Î¿Î½ ÏĦÎ±Î¹
Îº Î¬
Î´ Î®
ĠMa e
áĢŀ áĢĻ
ĠÐ±Ð¾ Ð»ÑĮ
ta s
ĠáĢĽ áĢ¬
Ġàªħ àª®
Ġ× ĵ
Ð°Ñĳ ÑĤÐ³Ð°Ð½
ÐµÑģ Ð¿
ĠÑĢ Ð´
ĠÐ² Ð°Ð·
z Åĳ
Ġv o
ëĵ ľ
Õ« Õ¶
Õ¥Õ ¬
ÄŁ Ä±
rz e
ÙĦ Ø§
ĠáĢŀ áĢ¼áĢ¬áĢ¸áĢ
áĢ¡ áĢĶ
áĥĿáĥłáĥ Ľ
à´¨ à´Ĥ
ĠÐ½ Ð°Ð¼
à¯ģà® ª
à§ĭ à¦°
à«įàª ª
ĠáĢĽ áĢ²
ĠÃ®n t
à±įà° Ĺ
áĢĿ áĢ«
à´ªàµįà´ª àµĨà´Łàµįà´Ł
Ġsi ch
ľ áĢ¯áĢķáĢ¹áĢ
áĢĶáĢ¹áĢĢ áĢ¯
áĢĽ áĢĦáĢ¹áĢ
áĢ³ áĢķáĢ¹
áĢĻ áĢŃáĢ¯
ÙĪ ÛĮ
z a
ĠáĥĽ áĥĲáĥĹ
áł ¤
à¥Ģ à¤¨
ĠÐ² ÑģÐµ
ĠÑģ Ð°Ð¼
áĢŀ áĢŃáĢ¯áĤĶ
ĠáĢĢáĢ» áĢ½áĢĶáĢº
Åĳ l
ì½ ľê±¸
íĦ °
ti es
Ġi ta
à±ģà°² à±ĭ
Ġà®µ à®¿à®
te d
ĠJ esu
ak oso
Ġnh Æ°
Ġf or
ĠT I
ĠD i
in o
di a
à¦ Ľà§ĩ
±áĢķ áģļ
áĢ°áĢ¸áĢ ľ
Ġà¹Ģà¸ ¡à¸
à¸Ńà¸ ģà¸
ç½ĳ æĬķ
ç½ĳ é¡µ
å£ °
é º
à¹ģà¸ ¡
Ĺà¸ ¸à¸ģà¸
Ġè¿ ĺ
éĵ ¶
ª à¸´à¸
à¨ ķ
à¸Ńà¸Ńà¸ ģà¸
Ġ à¹ĥà¸Ļà¸
à¸´ à¸Ļ
æĹ ħ
à¥ĩà¤ ³
à´° à´Ĥ
áĢĲáĢŃ áĢļ
Ð°ÑĢ Ð¾
à«Ģàª ĵ
Ġa wo
Ñĸ ÑĤ
à±įà°° à±Ģ
A N
Ġala ye
áĥĵ áĥĶáĥĳáĥĲ
l ine
Ġm ÃŃ
áĢ±áĢ¸áĢ Ĳ
»áĢķ áĢĬáĢ¹áĢ
áĢĻáĢº áĢ¸áĢ
ÙĪ Ùħ
à¦¾à¦ķ à§ĩ
Ð½Ñı Ñŀ
ÑĤ ÐµÑĢ
ë ¯¸
à´¨àµįà´¤ àµįà´°
à±ĩ à°°
áĥĵ áĥĶáĥĴ
à¤¡ à¤¼
Ġ×Ķ× ŀ×
áĢļ áĢ·áĢº
f ani
Ġà®ī à®³à¯įà®³
éĤĢè¯·çłģ _
Ġà¨ ª
Ġèħ ¾è®¯
Ġæī Ģ
à¹Ģà¸ Ħà¸
è ²
à¤¾à¤ļ à¥Ģ
Ġni kan
Ġk áº¹
Ð°Ð½ Ñĭ
à´® à´¾à´¯à´¿
yy ÉĻt
y Ã¶
Ġa ve
áĢĨ áĢ¯áĢ¶
Ġëĭ ¤
ĠÐ ĸ
ÐµÑģÐ¿ ÑĥÐ±
Ð°Ð½ Ð³
Ġp ri
Ġprz y
Ġá¹£i á¹£áº¹
w s
ĠAG äºļæ¸¸
Ġçľ Ł
Ġåħ ¬
à¥ĭ à¤¨
ka t
f un
à±Ģ à°
Ð¶ Ðµ
Ġti n
Ġ. âĢĿ
Ġáĥ¡áĥĲáĥ¥áĥĲáĥłáĥĹáĥķáĥĶáĥļ áĥĿáĥ¡
ĠáĥĻ áĥĿáĥĽ
Ġàªľ à«ĩ
áĢ° áĢ¸áĢ±áĢ
áĢģáĢº áĢĦáĢ¹áĢ¸
ĠáĢĻáĢŃ áĢĻáĢŃ
ĠáĢ±áĢĴ áģļ
áģ Ĭ
à±ģà° ®
à§Ģ à§Ł
ÑĨÑĭ Ñĸ
ĠáĢĶ áĢŃáĢ¯áĢĦáĢºáĢĦáĢ¶
ĠA la
ãģ ĵ
Ġ201 6
Ġh un
Ġagbe gbe
à´ķ à´³
Ġá¹£ a
Ġo lo
ÙĦ Ûģ
ÑĤÐ¸ÑĢ Ð¸ÑĪ
ĠÒ³ Ð°ÒĽ
g an
Ð½Ñĸ ÑĨ
Ġni tori
áĥĺáĥľ áĥĲ
Ð»Ð°ÑĢ Ð³Ð°
Ñħ Ð¾Ð½
Æ°á»Ľ c
æĶ¿ åºľ
à¥ģ à¤®
Ġáº¹ ya
ĠK áº¹
Ġà°¸ à°¿à°¨
Ġà¦ı à¦°
Ġw u
Ġà°ķ à°¾à°°
Õ« Õ
Õ¡ ÖĢÕ
ĠÃ¼Ã§ Ã¼n
ĠØ¢ ÙĨ
Ù Ĳ
Ġi ya
ĠáĢŀ áĢĦáĢº
ar t
Ġf o
Ñĳ Ð½
Ġ *
Ġá¹£ ugbá»įn
Ġt u
Ġà´ķ àµĤà´Ł
áĥĶáĥ Ļ
Ð°Ð´ Ð°
Ùĩ Ùħ
Ġà® ¯
ìĽ Ķ
Ġw ir
l Äĵ
Ġi á¹£e
á»į wá»į
à±ĭ à°ľ
ĠS i
ĠÑģ Ðµ
w an
kun rin
hova h
a êŀĮ
Ġláº¹ hin
Ġi ro
áĥķ áĥĺáĥĹ
á¹£ á»į
Ġà®® à¯ģà®Ł
ow n
à¤¾à¤ ¥
ĠÐ¢Ð¾Ò· Ð¸ÐºÐ¸ÑģÑĤÐ¾Ð½
Ð»Ð¸ Ð¼
Ġn la
ê ·
Ð Ł
ĠÐ±Ð¾Ð»ÑĮ ÑĪ
Ø§Ø¦ ÛĮ
Ġpu pá»į
Ġet á»įn
Ġ? ??
Ġa jo
à§įà¦ ¡
n Ã½
Ġà°° à±Ĩ
ĠO á¹£u
Ġwá»įn yi
ĠI s
ĠáĥĻ áĥĺ
ĠáĢŀáĢ° áĢĲáĢŃáĢ¯áĤĶ
áĢĻ áĢ°
ĠÑ ī
Ġan fani
ĠÒĽÐ¸Ð» Ð¸ÑĪ
ĠÐ±ÑŀÐ» Ð³Ð°Ð½
ĠÑĤ Ð¾
àªµ à«Ģ
Ġá»į dun
ĠP ro
ĠD a
ĠáĢ §
Ġ X
Ġni lo
Ġi pin
à®³ à¯Ī
ĠL o
à¨¾à¨ Ĥ
è ¦
à¤£ à¤¾à¤°
áĢģáĢº áĢĢáĢ¹áĢ
áĤıáĢ½ áĢĦáĢ·áĢ¹
ĠáĢĲ áĢĢ
u ba
Ġá¹£i á¹£e
y en
f e
Ġr a
áĢĦáĢºáĢ¸áĢ ŀ
à´¨àµįà´¨ àµį
s iláº¹
ĠN e
Ġ×ľ ×Ĳ
Ġì Ĭ
ĠáĥĽ áĥĲáĥ¡
Ġde er
u e
Ġla arin
Ġà°® à±Ĭ
Ġhun ter
Ġaá¹£ a
Ġ Ā
I N
m ba
ĠØ¨ Ø§ÙĦ
ĠÐº Ð°Ð±
Ġom i
Ġàª® àª¹
Ġæī ĳåħĭ
å¤§ æĪĺ
Ġà¸ ľà¸
ĠagèµĮ åľº
èģĮ ä¸ļ
à¹ĥà¸«à¸ į
Ľà¸£à¸°à¹Ģà¸ Ĺà¸
Ġà¸ ļ
åį ¡
à¤¾à¤Ĥà¤ļ à¥įà¤¯à¤¾
à´¸ àµįà´¥
Ðº Ð¸Ð½
Ġ à¶
à¤¾à¤ ĩ
Ġà¦ķ à¦¾à¦°
ĠÐ¼ Ð°Ñģ
ĠáĢĽ áĢ¾
ĠáĥĽ áĥĿáĥĽ
Ġàªµ àª§
Ġà®¤à®® à®¿à®´
Ġà®µà¯ĩ à®£à¯įà®Ł
Ð ¢
ĠÐ´Ð°Ð² Ð»Ð°ÑĤ
p u
Ð°Ð ¾
Ġà°ļà±Ĩ à°ªà±įà°ª
àµ Ĺ
áĢĽáĢŃ áĢĢ
í ļĮ
g áº¹
áĥĲáĥ «
ĠÐ¼ Ð¸Ð»
áĢ¡ áĢľ
ĠÐĳÐµÐ»Ð°ÑĢÑĥÑģ Ñĸ
ĠÑĸ Ð¼
Ġà°µ à°¾à°°
ĠáĥĲáĥ ķ
ÙĨ Ø§
ke yi
ĠìĿ ¸
à¯ĩ à®ļ
y o
Äģ m
ĠÐ¼ Ñı
ŀ à¸£
Ġå¤§åıĳ ä¸Ģ
æĻ º
å¿ Ĺ
èŀ į
36 5
ç§ ¯
à¹Ĥà¸ ¥à¸
ç« ł
Ġà¤® à¥ĭà¤
áĢ¯ áĢĲáĢ¹
áģ ¶
ĠáĢĢ áĢ¯áĢŃ
áģ »
áĢĸáĢ¼ áĢ²áĤĶ
áĢķáĢ¼ áĢ®áĢ¸áĢ
lá»į wá»į
à§ģà¦ ·
Ġgb á»į
m in
ĠÐ¸ Ð»
Ġà´µ àµįà´¯
Ġá¹¢ i
Ġl ilo
Ġi tá»į
ag be
ĠR a
ĠA l
Ġáĥ¡ áĥĲáĥ¡
Ð°Ñİ ÑĤ
Ð°Ñģ Ñı
Ġá¹¢ e
à«Ģ àªķ
ĠÑĤÐ°ÑĪ ÐºÐ¸Ð»
áº¹ gáº¹
er i
åĢ Ļ
æ¼ Ķ
à¸Ńà¸ °
à¤¸ à¥įà¤¤
à°¡ à±įà°¡
ĠáĢĢ áĢ¬
à¯ģà®® à¯įà®ª
Ġà¦Ĩ à¦²
di o
ĠÐ¸ ÑģÑĤ
Ġï¿½ï¿½ï¿½ï¿½ ï¿½
ĠM e
×Ļ× Ł
ĠC h
ãģ¾ ãģĻ
áĢĳ áĢĻ
ĠØ¨Ø± Ø§ÛĮ
áĥĺáĥ¨ áĥķ
Ġt á»į
Ð°Ð³ Ð¾
ìĹ ¬
Å Ī
dz i
à±ĭ à°Ĺ
Ġà¸ ĸ
ŀ à¸´à¸
æĿ Ĳ
Īà¸£à¸´à¸ ĩ
æķĻ èĤ²
Ġï¼ļ âĢľ
ľà¸¹ à¹ī
ä¼ł å¥ĩ
99 9
åº ķ
Ġà¤¦ à¤¿à¤²
Ġeyi keyi
Ġp in
àµģà´ķ à´¯
Ġv ous
Ġw Ã¡
áĥĲáĥª áĥĺ
Ø¨ ÙĬ
Ĥ à¦²
Ġà§¨à§¦ à§
ĠáĢ±áĢ »áĢĻ
ĠáĢĻ áĢ½áĢ¬
ĠáĢ¡ áĢĵ
Ġà¤¹ à¥Ģ
à¦Ł à¦¾
z Ã©s
Ġàª¸ àªĤàª
ļ áĢ¬
Øª Ø§
áĥ£áĥ ¡
áĢ±áĢķ áĢ¸áĢ
ģáĢº áĢ³áĢķáĢ¹áĢ
áĢ¬áĢ¸áĢŀ áĢĬáĢ¹
áģ ħ
à§ Į
ìĤ¬ ì§Ģ
í Į
Ã¢ y
¥ áĢ®áĢ¸áĢ
áĢŃáĢ¯áĢĦáĢº áĢ¸
à´¤àµįà´¤ à´¿à´¨
ĠC o
Ð°Ð¹ Ð´Ð¸
Ð¼ Ð¾
Ġn kan
Ð» Ñĭ
k Ã¶
Ġæ ĭ
Ġè ¦ģ
éģ Ĺ
à¤Ĥà¤ ¬
à±ĩà° Ł
¬ áĥ§
à®ķ à¯į
Ġï¿½ï¿½ ï¿½
os i
s u
Ġp ÅĻ
à¦¦à§įà¦ §
à´¯ àµįà´ķàµįà´ķ
Ðµ ÑĨÑĨÐ°
íķĺ ëĬĶ
Ġb áº¹
ĠáĢļ áĢ°
Ġ× ¡
áĥłáĥ «
Ù ı
¤ à¸
áł ¡
Ġç ¥
åı¯ èĥ½
à¹Ģà¸ Ľ
å± ŀ
åĶ ®
à¹Ģà¸£à¸ ·à¹Īà¸Ńà¸ĩ
ļ à¥įà¤¯à¤¾
áĢĶáĢº áĢ¸áĢĻ
à¤¯ à¤¾
Ġni cht
ts e
à«ĩ àª¨
Ġg j
ÑĪ Ð¸ÑĢ
Ð Ŀ
ko v
Ð°ÑģÐ¸ Ð´Ð°
c ji
Äģ k
à´£ àµįà´£
ĠÑģ Ð¾
f u
Ġà°® à°¾à°°
áĢķ áĢ¯áĢ¶
Ġi ÅŁ
Ð°Ð½ Ð½Ðµ
Ġp ese
Ġi se
Ã¡l l
à®± à¯įà®ª
áºŃ n
Ġà¦¬à¦¿à¦ ¶
ĠÐ´ Ð¾
Ġáĥ¡ áĥ®áĥķ
on s
Ø³ ÛĮ
à´¿à´¯ àµģà´ŁàµĨ
ĠT he
Ġf ree
ĠS a
Ð°Ð» Ð°Ð²
ĠM i
st er
Ġeyi ti
áĢ® áĢļ
Ġila na
Ġm on
Ġwi pe
Ġi ye
Ġà´ħ à´¨
Ð°ÑĨ ÑĨÐ°
Ġàªķ àª¹
à°¿à° ²à±ĭ
à¤ «
Ġìŀ Ĳ
as ino
Ġ $
ĠI lu
Ġi tan
is e
Ø§ Ùģ
Ġn áº¹
c t
ĠáĥĽ áĥĿ
Ð¹ Ð¸
ĠÐ°Ð¼ Ð°Ð»
Ġiá¹£ owo
Ġin u
à¯įà® °
Ġà¦¬à¦¾à¦ Ĥà¦²
à§įà¦ ¸
áĢĶ áĢ±
k ÉĻ
Ġ) .
ĠJe hovah
gb on
áĢĦáĢ¹áĢ¸ áĢķ
ĠáĢ¡áĢľ áĢ¯áĢķáĢ¹áĢ
ĠáĢ»áĢķ áĢ³
áĢģáĢº áĢĦáĢ¹áĢ
±áĢ¡ áĢ¬áĢĦáĢ¹
ĠáĢ¡ áĢĻáĢ½
±áĢ ķáĢ«
áĢŃáĢ¯áĢľ áĢ¹áĢ
áĢ¡ áĢĲáĢ½áĢĢáĢº
ĠÐĳ Ñĥ
Ġ Ð°ÑģÑĤ
om e
Ġja de
à«ĭàª Ĺ
ĠD e
à´£ àµįâĢį
ng o
Ġb áº¹ráº¹
ç½ĳ _
âĢ į
Ġi do
ŀ àµįà´ļ
ĠP a
Ġpa da
à°° à±įâĢĮ
os e
Ġà¤ķ à¤¹
Ġla i
Ġk tÃ³
Ġà°® à°¨
Ġnu k
Ð½Ð¸ Ðº
Ġk tor
ek ere
Ñı ÑĤ
áĥĺáĥ ¥
ĠÄĳ á»Ļ
ĠO n
¸à¸ Ķà¸
Ġ3 5
ç ¿
Ġæ ¸
Ġæ ı
Ġæ ¬
Ġ3 8
à¤¾à¤Ĥà¤ Ĺ
á»į lu
Ġs inu
à¦¨à§įà¦ ¦
an u
Ġki i
ĠF i
×ĳ ×¨
ĠF a
Ġê² ½
Ġti tun
Ġo rin
ĠáĢ¡ áĢĨáĢŃáĢ¯
ĠÐ¶ Ñĭ
Ã©r t
à±ĭ à°¯
Ġme ji
ĠÎ± Ïĥ
ĠÏĥ ÏĦ
< /
ĠÏĥ Ïĩ
Î¼Î± ÏĦÎ¿ÏĤ
Ïĩ ÎµÎ¹
Îº Î±Î½
ÏĦÎ· ÏĥÎ·
ter net
ÏģÎ¹ Î½
Î¯Î½ ÎµÎ¹
Î´ Î¹Î¿
ĠÎ¬ Î»Î»
Î¹Îº Î¿Ïį
ĠÏĥ Î¿Ïħ
ĠÎº ÏĮ
Ġ us
ĠÎ´ Î¹Î¬
Ġ/ "
ĠÏĥ Ïį
Ïī ÏĥÎ·
ÏĥÎµ ÏĦÎµ
ĠÎł ÏģÎ¿
Ġ/" >
ĠÎŁ Î¹
ĠÎº Ïħ
ĠÎ±Ïħ ÏĦÎ®
ĠÏĢ ÏģÏİ
ĠÎ ¡
Ġli ve
Î¹Îº ÎŃÏĤ
Î¯ Î¿Ïħ
ÏģÎŃ ÏĢÎµÎ¹
ÏĨ Î®
ĠÎºÎ± Î»
ĠÎ±Î½ Î¬
ĠÎļ ÏģÎ¹ÏĦÎ¹ÎºÎŃÏĤ
Ïĥ Î±Î½
ÏģÎ¯ Î¿Ïħ
Îµ Î»
Îµ ÏĢ
in ternet
Ġg yf
Ġà®ļà¯Ĩà®¯ à¯įà®¤
k Ãłn
áĢķáĢ¹áĢ ħ
áĢ¸áĢĢ áĢ»
Ġáĥ£áĥ Ļ
Ġà´¤ à´¨àµįà´¨
ĠÑĳ Ð½
Ġàª¨ àª¥à«Ģ
æ´ ŀ
çı Ń
å± Ĥ
éĶ Ģ
çĹ ħ
Ġ4 0
Ġag åľ¨çº¿
·à¸Ń à¸Ļà¸
Ġà¤¸ à¥įà¤µ
à´Ĥ à´Ĺ
Ġà¦® à¦¾à¦¨
Ġà°ħ à°¨à±įà°¨
ir a
áĢŃ áĢķáĢº
áĥĶáĥ ĸ
à®¿à®° à¯ģà®ķà¯įà®ķ
Ġof in
Ġ ero
Ø§Ø Ń
ĠÑĤ Ð¾Ð»ÑĮÐºÑĸ
ĠÐ¿Ð¾ Ð»
Ġau s
àµģà´® àµįà´ª
à°¤ à°¿
ĠÐł ÐµÑģÐ¿ÑĥÐ±
ÑĢ Ð°ÑĤ
Ġ ă
si waju
Ġa yi
Ġà¤¤ à¥ĭ
Ã¹ n
te t
à¦ĸ à¦¨
Ð Ľ
Ð± Ð°ÑĤ
si ya
áĥł áĥĿáĥ¡
Ġàª¹à«ĭàª ¯
íħ Ķ
áĢŃ áĢħáģ¥
áĢĻáĢºáĢŃáĢ³ áĢ¸áĢŀ
áĢĻáĢ» áĢ¬áĢ¸áĢĢáĢŃáĢ¯
à®¤à¯įà®¤ à¯Ī
à°Ĥà°¦ à±įà°°
ÐµÐ½ Ð½Ñı
Ġì °
ãĥ ª
Ñĥ Ò³
çķ ¥
éľĢ è¦ģ
é¡¹ çĽ®
å®ĺæĸ¹ ä¸ĭè½½
Ġ4 4
éĩį è¦ģ
æĺ¯ çľŁ
äº¤ æµģ
é¦ Ĩ
§à¸±à¸Ļà¸ Ĺà¸µà¹Ī
çīĪ ä¸ĭè½½
æĻ ®
ä» ĭ
«à¸ ±à¸
Ġæ ·
åħ »
çł´ è§£
à¨ ²
à© Ī
ć ï¼Į
Ġé ¦
ç ¶
à¹Īà¸²à¸ ¢à¸
Ľà¹ĩ à¸Ļ
å ³
ç» Ĩ
9 7
à¤¾à¤ ¡
à°¿à°Ĥà°ļ à°¿
Ġ Ð°Ð²
à´ ¥
± Û
Ùĩ âĢĮ
áĥĲáĥļ áĥ£áĥłáĥĺ
ÑĢ Ð°Ð·
×ł ×Ļ
Ġng h
åĨ ľ
Ġèĩ ª
ç¬¬ ä¸Ģ
ä¸ Ķ
ķ à¹īà¸Ńà¸ĩ
åĢ į
à© Ĥ
Ĺà¸²à¸ ĩ
à¤² à¥įà¤¯à¤¾
Ä±n da
tion s
à´¨àµįà´ ±
ĠÚ©ÛĮ Ø§
Ġà¤ķ à¤¿à¤¯à¤¾
Ä ·
Ġlive internet
ĠÎ± Î¾
Ġy m
ĠÃ º
Ð¼ Ðµ
Ġà¦Ĩ à¦ª
à°® à±Ĩ
áĥ£áĥ ¨
à¯įà®ķ à¯įà®ķ
Ġí ı
ĠÅŁ i
ta te
Ġè ½
¢à¸ ±à¸ĩ
äº ²
ģà¸ ´à¸
æł ¸
Ġá Ĭ
Ġé »
à¹Ģ à¸Ńà¸ĩ
äº «
æ´» åĬ¨
æ» ¡
åŃ £
æľ ĥ
à¤ ¥
àª¿àª ¸
ĠØ§ÙĦØ ¬
b y
Ð°Ò³ Ð¾Ð¸
à°¾à°¤ à±įà°°
áĥĿáĥ ¢
ĠÐ½ Ð°ÑĪ
Ġà´ħ à´Ł
Ã¤Ã¤ n
Ð² Ð°Ðµ
Ġà®ħ à®©
Ã´ i
ĠS ie
Ġe z
áĢľáĢŃáĢ¯ áĢĢáĢº
ur s
Ġn d
Ġo ke
ĠÃ ¨
à°¿à°Ĥà° ¦
ĠÑĤÐ°Ðº ÑģÐ°Ð¼Ð°
Ġë° Ķ
Ġàª¹àª¤ à«Ģ
à´°àµįâĢį à´ķàµįà´ķ
à´ķàµįà´ ¤
Ġà¤® à¤¿à¤
Å ŀ
ĠáĥĹ áĥĲáĥľ
Ġi e
Ġ ÚĪ
Ġà¦¨ à¦¿
à±ģà° Ĺà°¾
ĠÑĤ Ð°
áĢļáĢ¹áĢ ĨáĢŃáĢ¯
ĠáĢĽ áĢĶáĢ¹áĢĢáĢ¯
áĢĳ áĢ¬áĢ¸
Ñĸ Ñĸ
á» ķ
es z
áģ Ī
à®¾à® ķà¯įà®ķ
Ġà¤¹ à¥ģà¤
ÑģÑĤÐ² ÐµÐ½
Ġáĥĺáĥ§ áĥĿ
áĢĻ áĢļáĢº
ģáĢº áĢĢáĢ¹áĢ
ĠáĢ¡ áĢķ
ìĸ ĳ
ĵ áŀ
ĠæĹ ¥
éĿ ©
Ġà¹Ģà¸ ŀà¸
æĭ į
ç´ ł
Ġà¤¸ à¤°à¥įà¤µ
Ġp ara
Ġ×¢ ×ľ
Ä °
à´¤ àµįà´°
li k
ĠÐĲ Ð´
Ġà¦Ĩ à¦¸
áĢ½ áĢļáĢº
Ġp lus
à«Ģàª ¯
Å£ i
Ġes te
ĠØ§ÙĦ ÙĤ
ìĭ ł
Ġ Ð°ÑĤ
Ġà´ ķàµįà´ķ
àµģà´ķ à´³àµįâĢį
à´¤àµįà´¤ à´¿à´¯
à§įà¦¯ à¦¾à¦¨
ĠáĥĴ áĥķ
áĢĻáĢº áĢ¸
Ġà°¸à°¿à°¨ à°¿à°®
ĠÐ¼ Ð°Ð½
à°Ĥà°Ł à±ĩ
ÑĤÐ¾ Ð¼
Î¿Î¹ Î½
y l
Ã¡ ra
er t
áĥĲáĥľ áĥ¡
Ġà´ķ à´¾à´°
ĠÙĪ Ûģ
Ľ Ħ
à¤¨ à¥Ģ
à®©à¯įà®± à¯ģ
ÙĨ Ú¯
áĢĶ áĢ²áĤķ
±áĢķ áĢ¸áĢ
áĢ±áĢ¸áĢ Ľ
á» ģ
àª Ľ
v at
z Ä«
áĢľ áĢĬáĢº
Ðº Ð¾ÑĢ
Ð¾ ÑĢÑĭ
è¡¨ ç¤º
Ġæ Į
à¹Īà¸² à¸Ļà¸
å° ¼
Ġ à¹Ħà¸¡à¹Īà¸
æ ¿
åĲĪ ä½ľ
çĶ ³
Ķ à¸²à¸
åı ¤
èĦ ĳ
çļĦ ä¸Ģ
æĮ Ĥ
à¤¾à¤¤ à¥Ģà¤²
ts o
áĥĿáĥł áĥĺáĥ¡
ÑĪ Ð¸
Ġe d
à±ĩà° ·
ĠÑĤ Ð¾Ð¼
Ð¸Ð» Ð°Ð´Ð¸
ĠÐĶ Ð°ÑĢ
Ġì ²
j Ãº
Ġà®İà®© à¯įà®©
Ġein e
ĠÏĢ Î¬Î½
ĠÎ ¯
ĠÎ½ ÎŃ
Î³ Ïī
ĠÏĦ ÎŃ
ĠÎ´ Ïį
ĠÏĢ Î¹Î¿
Ġus ers
ÏģÎ¿ Î½
ÏĦÎµ Î¯
ĠÏĢ ÏĮ
ĠÎ¤ Î±
ĠÎ¸ Îµ
ĠÏĩ ÏģÏĮ
Î³ Î®
Ġ ÏīÏĤ
Î¶ ÎµÎ¹
ĠÏĮ ÏĢÏīÏĤ
w ch
Ġà´ķ àµģà´±
áĢ±áĢ¡ áĢ¬áĢĦáĢ¹
ĠáĢľ áĢĻáĢ¹áĢ¸
ĠáĢ ¸
ģáĢ²áĢ· áĢĲáĢ²áĢ·
áĢĨ áĢ¶áĢ¯
áĢ¡ áĢ±áĢ¬áĢĦáĢº
ĠÑĨ Ñı
à®¿à® ¨à¯įà®¤
ĠÐº Ð¾Ð½
Ġ Å¼e
Ġà¦¹ à¦¬à§ĩ
áĥĺáĥ ¤
Ùħ Ø§
ķ áĢŃáĢ¯áĢĦáĢ¹áĢ¸
ĠáĢĺáĢ¯áĢĽ áĢ¬áĢ¸áĢŀ
áĢ¼ áĢĲáĢ¹áĢ
ĠáĢļ áĢģáĢ¯
à¥ģ à¤²
à°¿à°Ĥà°ļ à°¿à°¨
il le
r t
à« ¦
à«Ģ àª¨à«ĩ
áĢ½ áĢĦáĢ·áĢº
ĠÐ½ Ð°Ñģ
Ġnh á»¯ng
áĥł áĥĺáĥķ
ãģĹ ãģ¦
Ġ" ,"
ëħ Ħ
da d
ĠÐĵ Ð
Ð»Ñĸ Ðº
× ļ
åĲ §
Ġ äºĮ
Ġ4 8
å¥ Ĺ
à¸£à¸±à¸ ģà¸
6 9
æį ¢
éĵ ¾
å¤§ åŃ¦
«à¸Ļ à¹īà¸²
à¤¾à¤ļ à¥ĩ
à¦§ à§įà¦¯
Ġà®¤ à¯Ĩà®°
ĠÃ®nt Ã¢
à´± àµĨ
à°Ĥà° ķ
ĠÚ© ÙĨ
à«ĭ àª°
Ġs Ã«
ĠÐ¼ Ð°Ò³
Ġà¤¸ à¤¾à¤¥
áĢŀ áĢľáĢŃáĢ¯
lo r
ÑģÑĤ Ñĭ
A A
Î¼ÎŃ Î½Î·
wy dd
áĢ¬ áĢķ
Ġà´ļàµĨà´¯ àµįà´¤
Ġv agy
Ä £
à¯Īà® ªà¯į
à¹ģà¸ļà¸ ļà¸
çłĶ ç©¶
Ġçİ¯äºļ æ¸¸æĪı
Ġåı ĳ
¥à¸ °à¹Ģà¸
ķà¹Ī à¸Ńà¸
åħ ħ
à¤ķ à¤°
ģáĢº áĢĦáĢ¹áĢ¸
ĠáĢķ áĢ¯
on o
áĥ® áĥĲáĥĵ
áĢ®áĢ¸ áĢĢ
Ð± Ð°
áĢĦáĢºáĢ¸áĢ Ĳ
ÉĻ d
Ð½Ð¾ÑģÑĤ ÑĮ
t es
å¥ ¹
à¤¾à¤ ĸ
à´¨àµįà´ §
ìĬµ ëĭĪëĭ¤
àª¾àª ĵ
ĠÐ±Ð°ÑĢ Ð¾Ð¸
Ñį Ð¹
Ħà¹Īà¸ °
Īà¸±à¸ Ķà¸
åĴĮ åĢ¼
Ġå ģ
é ¤
łà¸²à¸ ŀ
åħ ´
ĠæĹ ¶
Ġà¤ķ à¤¾à¤¹à¥Ģ
áĥĶáĥĳ áĥ¨áĥĺ
áĢ µ
áĢĶáĢº áĢ¸áĢ
Ġà§¨ à§
Ġà°¤ à°¨
à¦ ł
ÅĤ y
ĠÙħ Ø¹
Ð½Ð¾ÑģÑĤ Ð¸
Ġo a
Ġt la
à°¿à°² à±įà°²
Ġà´ £
Ġà´® à´¨
Ñĸ Ð¹
Ġà®ķ à¯ĭ
ĠáĢ¡ áĢ±áĢ»áĢģ
áĢ¼áĢ¸áĢ ±áĤı
ĠáĢ±áĢĢ áĢ¬áĢĦáĢ¹áĢ¸
áĢķ áĢ½áĢ²
n ÄĽ
à±įà° §
ĠáĥĻ áĥĿáĥľ
Ġave c
in d
à´¤ à´¿
ç» ĩ
ķ à¹Į
Ġæīĭ æľº
ĠåĪ ©
æĸ¹ éĿ¢
Ġ äºļ
çº ª
çĶ ·
ç¦ »
à¹ĥà¸«à¸¡ à¹Ī
à¹ģà¸ ģ
· à¹īà¸Ń
¸ à¹Īà¸Ļ
66 6
ĠãĢ į
3 7
Ġà¥ ¨
Ġà¤ª à¤¹
à¦° à§ĩ
ĠÐ¼ Ñĭ
Õ ¨
lÉĻr in
el y
àµģà´Ł àµįà´Ł
ÑįÐ½ Ð½Ðµ
Ġa le
Ġg an
Ñģ Ð»
Å ©
áĥķ áĥĲáĥļ
±áĢĲáĢ¼ áĢĢáĢŃáĢ¯
áĢģ áĢĶáĢ¹áĢ¸
ĠáĢħ áĢĢ
ĠS h
Ġ× ĸ
åģ ¥
åº ı
Ġè ģ
æīĭæľº app
å¯ Ĩ
èµ ļ
æīĭæľºçīĪ ä¸ĭè½½
à¸Ńà¸ Ķà¸
à¹ģ à¸Ļ
é ²
Ġå ī
Ġà¹Ģà¸ ŀà¸£à¸²à¸
4 9
à¹ĩà¸ ģ
è§ ī
éĿ ł
çĽ Ł
ç§ĳ æĬĢ
Ġà¹Ģà¸ §à¸¥à¸²
ķà¸²à¸ ¡à¸
éħ Ĵ
Ġà¸ ¡à¸µà¸
à¤£ à¥Ģ
Ġà®ķ à¯ĩ
Ġà´¸ àµįà´¥
Ã ¥
ĠÛ ±Û
Ø§ÙĨ ÛĮ
ĺ áĢ°áĢ¸
Ģ áĢº
ĠáĢ»áĢĸáĢħáĢ¹áĢ ķáĢ«áĢĲáĢļáĢ¹
áĢŃ áĢĲáĢ¹
ĠáĢĻ áĢ¾
ĠÐ±Ð¾ÑĪ ÒĽ
Ð¾ ÑĦ
àª ı
ĠáĥłáĥĿáĥĽáĥĶáĥļ áĥĺáĥª
Ð°Ð´ Ð·Ñĸ
à®¿à®¯ à®¿à®²à¯į
Ġe x
à°® à±Īà°¨
åĪĨéĴŁ pk10
à¤µ à¤°
q i
ie k
Ð½Ð¾ Ð¼
Ø¨ Ø±
à§įà¦ ¦
Ð¿ ÐµÑĢ
áĢ® áĢĢ
Ġk Ã«
á» Ń
Ð»Ñĸ ÐºÑĸ
à´® à´¾à´£àµį
áĢĶáĢº áĢ¸
Ġf e
Ġà¤ķà¤° à¤¨à¥ĩ
àª¾àª ĸ
ĠÑģÑĤ Ð°ÑĢ
Ġk ekere
Ġà®µ à®¨à¯įà®¤
ĠD ie
k si
áĥĹ áĥĲ
f t
Ġaye ke
lo ad
Ġs t
O N
Ġá¹£ áº¹
áĢĻáĢº áĢ¬áĢ¸áĢ¡
áĢ¸áĢ±áĢ Ľ
ĠáĢĽ áĢĢáĢº
Ð ļ
à¦¨à§įà¦¤ à§įà¦°
æŃ »
łà¸ ±à¸
Ġå¤§åıĳ äºĶ
å¾ Ģ
è´ ¢
à¹ī à¸Ļà¹Ģà¸
Ġk8 å¨±ä¹Ĳ
à¥į âĢį
ĠÑĸÐ½ ÑĪ
ĠÐ¸ Ð¼
ĠL e
E R
ĠâĢĿ ,
o ro
áĢķáĢ¼ áĢĦáĢº
Ġà®ª à®²
Ġà¦¸ à§įà¦¬
å¦Ĥ ä½ķ
Ġå¾· å·ŀæīĳåħĭ
å¤ ®
§ à¸Ļà¸
åıª ä¸º
55 5
ä¾ Ĩ
ç µ
è®¾ è®¡
è® ¸
çļĦ åĲĹ
¢ à¹Į
Ġæ į
è® ²
à¸£à¸ ¹à¸
à¤¤ à¤¾à¤¤
Ġo un
£áĥ ¡
Ġà´ ¨àµįà´¨
à´¯ à´Ĥ
Ġid an
Ġi wá»įn
yáº¹ whe
ĠNi gba
sz er
àª¾àª ¡
ĠB e
Ð¶ Ñĭ
Ġi mu
Ġa fi
Ġáĥ¬ áĥļáĥĺáĥ¡
pe le
ĠÕ §
Ä± z
Ġà°ļà±ĩà° ¸à±įà°¤
ĠÒ ¶
Ġiwa di
ja de
ĠØ¯ Ø§ÙĨ
ĠJi whe
ĠJiwhe yáº¹whe
Ġw Ãł
Ġáģģáģ īáģ
Ġà¦® à§ĭ
áºŃ t
ÙĦ Ùĥ
Ġï »¿
Ġì £¼
ÑĢ ÐµÐ¼
ĠÙ ¹
Ġà¦¦ à§ĩà¦ĸ
à´¨ àµĨ
×ķ× Ŀ
ÑĨ Ñĳ
Ġáĥĺ áĥ¥
»áĢĸ áĢĦáĢ¹áĢ·
ĠáĢ¡ áĢĢáĢº
à°¸ à±į
ĠÑĤ Ñĭ
ĠÙħ ÙĪ
áĢĬáĢ· áĢ¹
áģ¾áĢĢ áĢ¬
áĢħ áĢ¥áĢ¹áĢ
áĢļáĢ¹áĢ ħ
ĠáĢ¡ áĢ±áĢĽ
±áĢ »áĢĻ
áĢħ áĢ¬áĢ¸
à«ģ àªķ
Ã¶ n
is h
Ġ Ð°Ð½
à¯Īà® ļ
m ar
áĢĻáĢºáĢ¬áĢ¸ áĢĢáĢŃáĢ¯
áĢ· áĢ¡
à´ ĺ
à¤¾à¤ ı
Ġk as
ĠáĢĳ áĢ¯áĢĲáĢ¹áĢ
áĢľ áĢĢáĢ¹áĢ
áģ ĩ
ĠÃ®ntÃ¢ l
ni a
ĠÐłÐµÑģÐ¿ÑĥÐ± Ð»Ð¸Ðº
ĠÒ³ Ð¸Ñģ
Ľ áĢ¼áĢĢáĢ¹áĢ
áĢ¬áĢ¸áĢ ķ
à¦° à§įà¦¤
Ġáĥĵ áĥĲáĥ¡
Ġc Äĥ
àµĨà´¨àµįà´¨ àµģà´Ĥ
Ġà°µ à°ļà±įà°ļ
ĠÐ¼ Ð°Ð³
Ð¾Ñı ÑĤ
à®µ à¯ģà®®à¯į
áĢ² áĢ¼
ĠáĢĴáĢ® áĢľáĢŃáĢ¯
à´¦àµįà´ ¦
áĢĢ áĢ¯áĢĶáĢº
Ġë³ ´
Ð± Ð¾ÑĢ
Ġni bi
Ãº n
c es
à«ĩàª ¤
y r
ĠáĢĤ áĢº
áģĢ áĢĦáĢ¹áĢ
áĢ¬áĢĽ áĢ½
áģ¾áĢĢ áĢĬáĢ¹áĢ
Ġáģ¿ áĢĻ
ĠáĢ¡áĢ±áĢĻ áĢĽáĢŃáĢĢ
áĢĽ áĢ±áĢ¬áĢĢáĢº
Ð°Ð½ Ð½Ñı
Ġ ÛĮÚ©
à°¾à°¨ à±ģ
ĠÒ³ Ð¾Ð»
à§ĩà¦ ·
Ġ1 åĪĨå¿«3
77 7
ĸà¸¶à¸ ĩ
Ġæīĳåħĭ ä¹ĭæĺŁ
åį ³
à¤°à¥įà¤ ®
mi ÅŁ
Ġg y
á» £
Ġáĥ¬ áĥĲáĥłáĥĽ
ÅĽ Äĩ
Ñĥ Ð¶
Ā Ā
ãģ ķ
à°² à°¾
ĠáĢĶ áĢĬáĢ¹áĢ¸
áĢĨ áĢŃáĢ¯áĢĦáĢº
Ñĩ Ð¸Ð»
ĠÐ½ Ð°Ð·
Ġàªī àªª
à´¸ àµįà´±àµįà´±
Ġo b
à°¿à°Ĥà°ļ à°¾à°°à±ģ
ko z
Ġà¦Ĩ à¦Ĺ
×ķ× Ĳ
Ġà®µ à®´
åľ ĭ
æĥħ åĨµ
éĻ ¤
³ à¸Ļà¸
Ġà¤¹à¥ĭà¤¤ à¥ĩ
Ġdel la
ì ĻĢ
ĠáĢĻ áĢ°
à´¤àµįà´¤ à´¿àµ½
ĠÕ ´
Õ¸ÖĤÕ ©
ma q
áĥĶáĥłáĥ ¡
ĠÄĳ Ã£
ĠØ§ÙĦ Ø´
à°¾à° ³
Ð°Ð½ Ð°
áĢĶáĢ¹áĢ ĳ
áĢĶ áĢħáĢ¹áĢ
ĠáĢĻ áĢĽáĢ½áĢŃ
ĠáĢ»áĢķáĢĬáĢ¹áĢ ŀáĢ°
ĠáĢĶáĢ¾ áĢħáĢº
Ð°Ð¹ Ð´
Ã¤ y
Ä« dz
à¦¾à¦ ¯à¦¼
è§Ĥ çľĭ
Ġà¤¸ à¤ķ
à°¨ à±įâĢĮ
em ent
áĥ£áĥ ¤
Ġt er
àª£ à«ĩ
ĠØ§Ù ĵ
ĠØ¬ ÙĪ
ĠÐ¿ Ð°Ñĩ
Ð¸ Ð²
áĥĺáĥĲáĥľ áĥĺ
à¤£ à¥ĩ
áĢĽáĢ½ áĢĢáĢº
à°¿à° ¦
ĠÑģ Ð¾Ð»Ð¸
áĢĤ áģ¢
áĢķáĢ« áĢŀáĢĬáĢ¹
áĢŃáĢĻ áĢ¹
ĠáĢĴáĢ« áĢ±áĢķáĢĻ
ĠáĢ¡ áĢģáĢ¼
Ġau ch
ĠÐ ķ
Ġà®® à®±à¯įà®±
es h
Îµ ÏģÎ³
ÏĢÎ¬ ÏģÏĩ
Ïĥ ÏĦÎ¬
Î² Î¿Î»
Î¼ÎŃ Î½Î±
ĠÎ± ÏģÏĩ
ÏĦÎ· ÏĤ
Î¼Îµ Î½Î¿
Ġc yf
ĠÑĨ Ñĸ
áĥĲáĥľ áĥĵ
Ġt Å¡
t ho
Ã ±
áĢ¬áĢ¸áĢ ĳ
Ã¶ l
à±ģà° Ł
àµĭ à´Łàµįà´Ł
ĠØ§ÙĦ ÙĨ
r Ä«
Ġa j
áĢĲáĢ½áĢ± áĢĢáĢŃáĢ¯
ĠÒ ĵ
áĢ± áĢ¸áĢĢ
Ġàªħ àª¨
ÛĮ Øª
ì¶ľìŀ¥ ìĥµ
µ ľ
Ã¨ s
Ġà°Ĺ à±ģà°°
ĠáĥĽ áĥĺáĥĽ
åº ĵ
æīĭæľº çĻ»å½ķ
ä¸į æĺ¯
3 åĪĨå½©
çĤ º
Ġà¤µ à¤°à¥įà¤
ĠâĢļ Â
Ð½Ð°Ñģ ÑĨÑĮ
áĢļáĢ¹áĢľ áĢŃáĢ¯
ĠáĢ¡ áĢ»áĢķ
áĢ¸áĢĻ áĢ½áĢ¬
áĢĢáĢ¹áĢ Ľ
áĢ¬áĢ¸áĢŀ áĢĬáĢº
Ġbe i
à´¾à´ ·
n ych
Ġba ÅŁ
×Ļ ×ķ×ª
Ġê³ ł
Ð¸Ð» ÑĮ
Ñĥ ÑĦ
Ġ Ð°Ñŀ
áĥĿáĥĳ áĥ¡
s sz
Ġà¤¹ à¤®
Ġun a
Ġà°ħ à°¨à°¿
à¦® à¦¾à¦¨
m Ã¤
ÃŃ nh
ãģ£ ãģ¦
æĸ¹ æ³ķ
æī ¿
Ġà¤ħ à¤¶
en ÃŃ
Ð½Ñĸ ÐºÑĸ
d Äĵ
ĠÐ¼ Ð°ÒĽ
Ġà´¨ àµĩ
ÛĮ Ø´
áĥĺáĥ §
ĠÑĢ Ð°Ð±
m it
àª¤ à«Ģ
à¦¾à¦ ĸ
do l
ì¹ ´
Ø§Ø ¬
Òĵ ÑĢÐ¸
Ó¯ Ð·
æī ¹
ä¸Ń çļĦ
ä¸» è¦ģ
Ġåı ª
à¥ĭà¤ ¡
ÑģÑĤ Ð°Ñŀ
Ġáĥ© áĥĶáĥĽ
ļ à°¿
Ġt ou
ĠÐ¸ Ð»Ð¸
Ã§ Ä±
áĥķ áĥ¡
ë¬ ¸
Ð°Ñ Ķ
re a
Ġà´ ·
la t
Ñŀ Ð»Ñı
à§ĥ à¦¤
Ġà¤¥ à¤¾
à°¾à° ·
áĥĺáĥ ŀ
àµĬ à´°
Ġàª® àª³
re i
äºº åĳĺ
à¤¾à¤ ¶
n Ã¡
ĠÄĳá» ĥ
à´ ŀàµįà´ļ
ĠØ§ÙĦØ ¥
w ie
Ġà° ĵ
à¸£à¸²à¸Ħ à¸²
Ġh ÉĻ
àª¿ àª¨
ĠáĢķ áĢĳáĢĻ
Ġà¸ ¥à¸ĩà¸Ĺà¸°à¹Ģà¸ļ
Ġà¸ ¥
Ð´Ð°Ð½ Ð¸
ĠáĥĽáĥĲáĥĴ áĥłáĥĲáĥĽ
Ġa k
ĠìĹ ¬
Ġà¹Ĥà¸Ľà¸£ à¹Ĥà¸¡à¸
à¹Ĥà¸£à¸ ĩ
a ts
ri s
à¦¿à¦ Ĥ
B A
Ĥà¸¶ à¹īà¸Ļà¸
à¥ĭ à¤°
ĠV i
u ro
ĠÂ ®
Ð± Ñĭ
ĠáĥĽ áĥĶ
ĠáĢ¡ áĢ¬áĢ¸áĢľ
à°¸ à±įà°Ł
Ġáģģ áģĢ
gb ag
ag a
G G
Ġpa a
Ġnigba ti
ĠáĢĢáĢŃáĢ¯ áĢļáĢº
à´¿à´¤ àµįà´°
ĠÙħ ÙĦ
áĥĿáĥł áĥĺ
own load
Ġba yi
ãģ Ĥ
bi le
w h
ko ko
Ġori láº¹
o ju
Ġa wá»į
ĠK a
àª¾àª ª
Ð¾ Ð³Ð°
áĢ±áĢĶ áĢ²áĢ·
in di
áģ¿ áĢĸ
ĠáĢĻ áĢŁáĢ¯áĢĲáĢ¹áĢ
áĢĻáĢ¼ áĢŃáĢ¯áĢ·
ĠM ar
Ġ? ?
Ġimá»į ran
so ke
f in
åª Ĵ
æĿ Ģ
è®¡åĪĴ _
ªà¸ Ķà¸
ĠæĹ ł
ĠãĢĳãĢĲ ãĢĤ
u u
Ġ ä¸ĭ
Ġç Ī
à¹Ģà¸£ à¹ĩà¸
Ġå ĵ
Ġå® ī
æĸĩ åĮĸ
èį ¯
æ¬ §
å· ´
Ĭ à¸´à¸
± ¼
å¯ Ł
ä¸Ń å½©ç¥¨
ĠæŃ ¤
åĲ ĥ
è¿Ļ ä¸ª
åħ¬ è§£æ¢¦
«à¸ §à¸
à¹Ģà¸£à¸ ·à¹Īà¸Ńà¸ĩà¸
æ± ½
è´ Ł
ä¹ Ŀ
Ġåĳ¨ åħ¬è§£æ¢¦
é»ĳ å¤§æĪĺ
Ġå° Ĩ
à¸²à¸ ģà¸
Ġà¸ ķà¸
¡ à¸´à¸
à¥įà¤¯ à¤ķ
Ġà®ħ à®±
à´¿à´± àµįà´±
Ġà¦ħ à¦¬
áĥłáĥ £áĥļ
ĠÙħÛĮ âĢĮ
Ġà°° à°¾à°ľ
áĤı áĤĪ
ĠáĢ¡ áĢģáĢºáĢŃ
áĢĲ áĢĦáĢ¹áĢ
áĢ±áĢķáĢ« áĢĦáĢ¹áĢ¸
áĢ¹áĢ Ĥ
×Ļ× §
ĠÐ±Ñĭ Ð»Ð¾
Î» Ïħ
ĠÎ±Î½ ÏĦÎ¹
ĠÎŃÏĩ Î¿ÏħÎ½
Î¼Î± Î½
Ïĩ Î¹
! !
ÏĥÎµ ÏīÎ½
Ġb r
Ġv ol
Ġáĥ¡ áĥĲ
à±ĩà° ®
Ġá»Į lá»į
Ġo po
ì§ Ħ
áĢľ áĢ¯áĢ¶
ĠØ§ÙĦ Ø¯
Ð½Ð¸ Ñħ
ĠÎľ Î±
Ïĥ Î¹Î±
ĠÎ¼Îµ ÏĦÎ¬
Ġwe di
Ø§Ø¦ ÛĴ
Ġku ro
Ð¼ Ñĥ
Ã¨ re
à±Ĩ à°Ł
Ġà´ªà´± à´¯
à«ģ àª²
Ġh áº¹n
ĠJ o
áĥĶáĥ ®
áĢ½ áĤķ
áĢ¡ áĢķáĢ¹áĢ
ķ áĢ¶áĢ¯
áĢĽ áĢĶáĢ¹
áĢŀ áĢĢáĢº
Ð ľ
ĠE yi
ĠG b
ĠB u
à´¿à´ķ à´³àµįâĢį
Ŀ i
Ġà´ªàµįà´° à´µ
à®¿à®ķ à®³à¯į
p áº¹
Ð» ÑĥÐ¼
à§Ł à¦¾à¦°
Ð· ÑĮ
Ġæ Ļ
ĠåĴ Į
Ħ à¹īà¸²à¸
èĢĥ è¯ķ
ķà¹Ī à¸Ń
äºĨ ä¸Ģ
åĨ ł
Ġç Ħ
Ġà¨ ¤
éĢļ è¿ĩ
x x
å¤§ çļĦ
E T
å¤ Ł
ĠAGçİ¯äºļ éĽĨåĽ¢
å¯ Į
à¸µà¸¢à¸ ĩ
æĻ Ĥ
çĻ» åħ¥
ªà¸¸à¸ Ķà¸
ĠæĪ Ĳ
Ġà¹Ģà¸ Ľà¹ĩà¸Ļà¸
à¤Ĥà¤¤ à¤°
ĠÐ¾ Ð´
Ġáĥŀ áĥĺáĥłáĥ
Ġb y
Ġâ Ĥ¬
Å ĭ
Ġáº¹ ká»į
ĠA u
ĠÛģ Ùħ
Ð¾ Ð´Ð°
àª¾àª ¬
Ġwh en
Ġi gbe
áĢ±áĢ Ŀ
íı ¬
is o
h at
áĢ¶ áĢ³
ĠáĢĶ áĢ¬áĢĽáĢ®
Ġsh ay
Ġo ru
àµĤ à´Łàµįà´Ł
à°¯ à±įà°¯
Ġ. +
to rin
ĠLa ti
ÑĢ Ð¶
Ù Ĵ
Ġi láº¹
áĢ®áĢ¸áĢ ŀ
ĠP entru
Ø± Ø¨
ĠáĥĲáĥĵ áĥĲáĥĽ
Ð¼ ÐµÐ½
à§ĩà¦ ¦
Ġà°ª à°°à°¿à°
ĠÃ®ntÃ¢l n
u ri
áĢĦáĢºáĢ¸áĢ ¡
Ġàªµ àª°à«įàª
d Ä«
ĠëĤ ĺ
à´¾à´± àµįà´±
å¨ ģ
Ġà¸ Ī
å± ħ
èĳ Ĺ
èª ī
åĢ ĭ
æł ¹
åħ¥ åı£
3 4
Ġ5 8
åį °
Ġæ ¢
é ł
åĿ ĩ
ä½ ³
åį Ĭ
ª à¸Ļ
ª à¸£à¹īà¸²à¸
¥à¸ ĩ
Ħ à¸²à¸£
à¥ĭà¤ Ł
à§ İ
ĠÐ· Ð°Ðº
Õ¡Õ ´
ÉĻr ÉĻ
ts i
Ġà®İà®© à¯įà®ª
qu es
le r
Ġáĥł áĥĲ
ĠÙĦ ÛĮ
Äĥ ng
ĠÐ± ÐµÐ»Ð°ÑĢÑĥ
Ðº Ð°Ð¼
v al
áĥľ áĥĶáĥľ
áĢħ áĢ¶
à°¤ à±įà°¯
×Ļ× ĳ
Ñģ Ð°ÑĤ
Ġà¦¤à¦¿à¦¨ à¦¿
Ð°Ð» ÒĽ
un d
Ð¸Ð» Ð´Ð¸
ĠÑħ ÑĥÐ´
Ġl u
Ġà¤² à¤¾à¤Ĺ
Ġë ²
ĠÂ» .
áĢ±áĢľ áĢ¸áĢ±áĢĲáĢ¼
áĢķáĢ¼ áĢĬáĢº
an d
ir in
Ġa tun
ĠL i
p i
à« Ī
à´µ à´°
à§ģ à¦®
ÙĬ Ùħ
æ ½
à¹Ģà¸Ĥ à¹īà¸²à¸
ç Ł³
æŃ ¢
à¸£ à¹Įà¸
Ġà¤ī à¤ª
áĢķ áĢĬáĢ¬
Ġi be
ĠáĥĴáĥĲáĥĽ áĥĿáĥ
Ø³Øª Ø§ÙĨ
Ġagba ye
áĢĢáĢ¹áĢ ģ
ta t
à°¿à° ·
àµĩà´ ¹
ĠK i
e de
à®¾à® ļ
Ú¯ Ø±
áĢĽ áĢ®
Ġche ats
c ts
aa ju
en e
Ġw á»į
Ġ ĆĈ
âĢ Ķ
Ġæ± Ł
ļà¸ ±à¸
ç½ Ĺ
¥à¸ ±à¸ĩà¸
st ar
à¤¿à¤ ®
ĠÐ±ÑĥÐ´ Ð·Ðµ
Ġàª ĩ
áĢħ áĢĢ
Ġke Ã§
à®µ à¯ĩ
Ġà¦¹à§Ł à§ĩà¦Ľà§ĩ
àµĢ à´°
áĥĿáĥĵ áĥĲ
ĠÐ±Ñĭ Ñŀ
ci Ã³
Ð± Ñĥ
Ð¾Ð½ ÑĥÐ½
à§įà¦ ľ
ĠÏĢÎ± ÏģÎ¬
ĠÎ Ĩ
Ġ) ,
ĠØ§ÙĦ Ùģ
Ġì ¤ĳ
à±Ģ à°¯
ĠH o
ĠÏĥ Îº
ĠÏĢÎµ ÏģÎ¯
ĠÎĵ Î¹Î±
Ïģ Îº
ÏĩÎµ Î¯Î±
ĠÎ¼ÏĮ Î½Î¿
ĠÎ± ÎºÏĮ
Îº Î¿Î»
ĠÏĢ ÏģÎŃÏĢÎµÎ¹
ĠÎºÎ¬ Î¸Îµ
Ġg w
à´¾à´ ´
Ð°ÑĨ Ð¸Ð¸
Ġ äºĨ
Ġb et
å·² ç»ı
Ġè ¶
Ġ4 5
ĠéĢ ļ
Ġà¨ ®
à¸Ńà¸Ńà¸ ģ
_ app
åº ·
¡à¸ ±à¸Ļà¸
è¯ Ń
à¹ Ħà¸£à¸
æ³ ¢
0 8
è »
Ġé Ľ
Ġçİ¯äºļ éĽĨåĽ¢
Ġé ģ
© à¸²à¸
9 5
Ġå »
Ġç¥ ŀ
åľ Ī
ç¼ ĸ
ľà¸ ¥à¸
« à¸²
5 åĪĨå½©
Ġçİ °
ĠçĶ ¨
2 00
é ±¼
Ġà¤®à¤¿à¤ ³
áĥł áĥĶ
áĢ±áĢĴ áĢŀ
áĢĻ áĢĬáĢ¹
±áĢ »áĢķáĢ¬
ĠáĢĶ áĢ²áĤĶ
áĢĲ áĢ¯áĢŃáĤĶ
áĢ±áĢĶ áĢĽáĢ¬
áĢĨáĢŃáĢ¯ áĢĲáĢ¬
áĢħ áĢĬáĢ¹áĢ¸
ĠáĢĺáĢ¯áĢĽáĢ¬áĢ¸áĢŀ áĢģáĢĦáĢº
áĢŀ áĢ¬áĢ¸
à®¿à®± à¯įà®ķ
áĢĶáĢ¹áĢ ŀ
ĠáĢ±áĢ ķáĢ«
áģĢ áĢ«
áĢĻáĢ» áĢ¬áĢ¸áĢ¡
ÑĤÐ¸ Ð¼
ĠÑģ Ñĥ
Ġv Ã½
Ġà¤² à¤Ĺ
en d
à°¾à° ¹
a nh
Ġà§¨à§¦à§ §à§
Ġà¦ķ à§ĭà¦¨
×Ļ× ©
à´¦àµįà´ §
ĠÕ ¯
Ġ Ö
lÄ± q
Ðº ÑĢ
ĠÙ¾ Ø§Ú©
å¿ µ
Ĺ à¸£à¸
Ħ à¹īà¸²
¨ à¥Ģ
ĠÑĦ Ð°ÑĢ
ĠØªÚ¾ Ø§
Ġáĥ¨áĥĶáĥĽ áĥĵáĥĶáĥĴ
àª ĩ
Ġp Äģr
ĠÑģ ÑĥÐ¿
à°ķ à±įà°¤
d Ã©s
ìķ ¼
à«Ģ àªµ
ÑģÑĤ ÑĢ
à´¨àµįà´¨ àµģ
ĠØ¹ ÙĨ
é» Ħ
à¥Ĥ à¤°
Ġthá» ĥ
Ġà´¤ àµįà´¤
àµģà´ ªàµįà´ª
Ġà®ħ à®Ł
b ÉĻ
v el
ĠáĥĽ áĥĺ
ĠÐĿ Ð°
Ġ áĤıáĢ¯áĢŃáĢĦáĢ¹áĢĦáĢ¶
áĢĿ áĢĦáĢ¹áĢ
áĤı áĢ½áĢ¬
áĢĶáĢ¹áĢĻ áĢ½áĢ¬
áĢĻ áĢŁáĢ¯áĢĲáĢº
ÅĤ u
v an
à§įà¦ ł
Ð¼ Ð°Ð½
àµĢ à´ķà´°
æ¼ı æ´ŀ
çľ ¼
æ ©
ç Ĩ
è´ §
è¿ ľ
à¸Ļà¸ °à¸
ĠÂ ·
åıªä¸º éĿŀ
à¸Ńà¸µà¸ ģà¸
à¨ ®
Ġà¥§ à¥
Ġàª² à«ĭàªķ
à°µ à°°
Ġm Ã¬
ĠÑĤ Ð°Ð½
Ġy an
ĠÐ· Ð´
Ġà°µ à±Ī
áĥĺáĥ «
Ġv wo
ĠM ay
ĠG bogbo
à¤¾à¤ ¢
ê³ Ħ
el l
Ġà´ķ à´¾à´£
Ġà¦ķà¦° à¦¤à§ĩ
Ù¹ ÛĮ
or un
áĥĶáĥłáĥ Ĺ
Å¡an as
Ġdara dara
ĠÃ Į
Ø§ ÙĤ
Ġà®µ à¯Ģ
Ðµ Ð»Ð¸
à¤¿à¤¯ à¥ĭà¤Ĥ
Ġá ĭ
ªà¸²à¸¡à¸²à¸£à¸ ĸà¸
© à¸²
ĠæĿ ¥
Ġ3 1
åŃ ©
Ġæı Ĳ
Ġäºļæ¸¸éĽĨåĽ¢ å®ĺç½ĳ
¥à¸ ¹à¸ģà¸
Ġà¤¯ à¤¾à¤Ĥà¤¨à¥Ģ
Ð¿ Ð°Ð´
ĠÐ±Ñŀ Ð¹Ð¸
ĠÐ¼Ñĥ Ò³
Ġn on
Ġà°² à±ĩà°¦
Ġde m
×Ļ× ĵ
Ġàª¤ à«įàª¯
ÃŃ v
Ð°Ðº Ð°ÑĤ
Ġà´ªàµĭ à´²
æĺ ¥
äºº çļĦ
åĪ Ŀ
åĿ Ľ
à¤¿à¤¤ à¥Ģ
ĠáĥĴáĥĲáĥĽ áĥĿ
à®² à¯Ī
Ã¼ ÅŁ
Ġë¶ Ģ
ÐµÑĤ ÑģÑı
ĠÑĪ Ð°ÑĢ
ĠÏĢ ÏģÏī
ĠÏĩ Ïī
ÏĢ Î¯
ÏĮ ÏĦÎ·
ĠÏĥ ÏĩÎµ
ĠÎµÏĢ Î¹Ïĥ
Ġ ÏĪ
ĠÎµ ÏģÎ³
Ïģ Ïħ
Î½Î¿ Î¼
ÏĦ Ïİ
Î´ ÎµÏĤ
ĠÏĢÎµ ÏģÎ¹ÏĥÏĥÏĮÏĦÎµ
Ïĩ Î¿
ÏĦÎ¹ Ïĥ
ĠÏĢ Î»Î·
ĠÎ¾Îµ Î½Î¿Î´Î¿
Î» ÎµÎ¯
Ġma e
c ja
ÑįÑĤ Ð°
c tion
Ñĸ Ð»ÑĮ
t la
Ġar Ä«
Ġch aêŀĮ
áº¹ áº¹
áģ ģ
e a
Ð¸ Ò³
Ġà¤¸ à¥ģà¤°
à¦¾à¦¦ à§ĩà¦¶
Ġà¦ıà¦ķ à¦Łà¦¿
ĠáĢ¡ áĢģáĢº
áĢĽ áĢĲáĢ²áĢ·
ĠáĢŀ áĢĻ
ĠO hun
àµģà´® à´¾à´¯à´¿
n os
Ġgb áº¹
ĠáĥĽ áĥ¡
s in
àªķ à«įàª·
Ġe g
à®¾à®° à¯įà®ķà®³à¯į
ĠáĢ¡ áĢĢ
Ġr Ã©
ĠØ§ÙĦ ÙĦ
ĠÐ±ÑŀÐ¹Ð¸ ÑĩÐ°
Ð» Ð¾Ò³
ê° Ħ
Ġshay ari
Ġs á»įn
Ġp á»į
Ð¸Ð´ Ð°Ð³Ð¸
ÑģÐ¸ Ð·
ĠÐ¼ Ð°Ð²
Ñŀ ÑģÑı
Ú© Ú¾
áł¡ áł
ĠĈ Ĉ
à¤¾à¤ ·à¥įà¤Ł
ĠÐ¾ Ñģ
Ġla s
à´µ à´¿à´
Ġkh i
Ġi fi
Ġiro yin
Ġawo ran
Ġma a
ĠáĢŀáĢ° áĢĻ
en ie
g li
Ķ áĢļáĢ¹áĢ
áĢŃáĢ¯áĢ¸áĢ Ļ
Ġà°Ĩ à°¯
m er
æķ ħ
éªĹ å±Ģ
Ġ3 6
è¿ İ
æĵ į
à¤ļ à¥ĩ
ĠA f
Ø¹ Ø¯
à´¾à´Ł àµįà´Ł
à°¿à° ľ
áĥłáĥ Ĵ
ĠÐ¼ Ð°Ð»
ar y
Ġi b
Ġà¤Ĺ à¤¯à¤¾
j ÃŃ
Ġà®ħà®° à®ļ
àªĤàª §
àµĭ à´¦
il or
áĢ®áĢ¸áĢ Ļ
áĥķ áĥĲáĥľ
ĠÐ· Ð°Ð¿
Ġê ±
Ġ×Ķ× Ĳ
à¸µà¹Īà¸ ¢à¸
à¥įà¤¯à¤¾à¤ļ à¥Ģ
à´¨àµįà´¤ àµįà´¯
à®¿à®ķ à®³
b re
ĠáĥĽ áĥĿáĥ¡
ĠÑĤÑŀ ÒĵÑĢÐ¸
Ð»Ð°Ð½ Ð³Ð°Ð½
Ð»Ð°ÑĢ Ð´Ð°
ĠÑģ Ð°ÑĢ
ĠC asino
ir o
à°¾à°² à°¿
Ġg áº¹gáº¹
y esi
Õ ¾
Õ¸ÖĤÕ© Õµ
ĠÕ ¸
ĠÕ ¥
Ã¼ k
ÑįÐ½ Ð½Ñı
àµįà´ §
ĠP áº¹lu
áĢı áĢº
Ġa f
ung en
á»į kan
ĠW a
Ġê ŀĮ
p h
Ġh i
Ġa pe
Ġ201 5
Ġsi waju
ĠT a
Ġmon ster
Ġiran lá»įwá»į
Ġï¿½ï¿½ï¿½ï¿½ï¿½ï¿½ ï¿½
l á»įn
Ġáº¹ á¹£á»į
Ġon line
Ġle gen
Ġk in
àªķ àª¾àª°
Ġgi ga
ÑĤ Ð¾ÑĢ
áĥĶáĥĹ áĥĺáĥ¡
Ġda ju
Ġa s
à±Ģ à°ª
3 d
åģ ľ
ĠâĢĿ ãĢĤ
Ġå¦Ĥ æŀľ
Ġæ ĥ
å¤ ľ
Ĺà¸µà¹Īà¸ ªà¸¸à¸Ķ
è§ Ĵ
è´ µ
à¤¾à¤Ĥà¤ ¤
Ĥ áĢº
áĢĦ áĢŃáĢĻáĢ¹áĢ¸
áģ ĥ
y ara
agba soke
Ð°Ñģ ÑĨÑĮ
i d
O R
Ġgi di
gbag bogbo
ĠU S
Ġlegen ds
Ġh an
áĢķáĢ¼ áĢ²
áĢĶáĢ¾ áĢĦáĢºáĢ·
áĢħ áĢħáĢ¹áĢ
ĠáĢ±áĢĽ áĢ¬áĢĢáĢ¹áĢ
áĢĶáĢŃáĢ¯áĢĦáĢº áĢĦáĢ¶
Ġá»į wá»į
Ġà§ ©
à°¿à° ļ
à´¿à´ Ĥ
Ġà®¤à¯Ĭ à®Ł
Ġda ta
Ġa mi
Ð¸ ÑģÑĤ
un a
Ġàª¸ à«ģàª
ÙĢ ÙĢ
Ùħ ÙĦ
Ġà¤ķ à¤¿à¤¸
Ġo r
à¦¾à¦ķ à¦¾
áĥ Ń
ë £
çĶŁ æ´»
¨ à¤¾
ãģ§ ãģĻ
á»ĳ i
Ð½ÑĸÐº Ð°Ñŀ
à¦¾à¦¤ à§ĩ
Ġt Äģ
Ð¼Ð¾ÒĽ Ð´Ð°
ÑĨ Ð¸Ñı
ĠÐ´ Ð°ÑģÑĤ
áĢ¬áĢ¸áĢĻ áĢ½áĢ¬
áĢ¡ áĢĲáĢ°
áĥłáĥ £áĥ
le ng
Ġà° §
Ġà¤ī à¤¸
æĮ ī
m l
æī ¾
à¸²à¸ ģ
è¦ģ æ±Ĥ
åĪ ĩ
Ġ à¹Ħà¸¡à¹Ī
ĠçĻ ¾
æĬķ èµĦ
á Į
ç» Ī
å¤ļ å°ĳ
à¸£à¸²à¸ ¢à¸
è Ĺ
åħ µ
¹à¸ ģ
Ġà¹ģà¸ ¥
Ġà¤¹ à¤¾
Ġs p
Ġê³ µ
ĠáĢĴáĢ¯ áĢĲáĢŃáĢļ
Ø§ Úº
Ħ ĸ
Ð ¥
ĠÐ· Ð½
Ġà« §
à«įàª° à«Ģ
áĢĦáĢºáĢ¸áĢ ķ
à°°à±įà° µ
Ġà®® à®©
à´¾à´ ¶
à§Ł à¦¾
Ġtáº¹ láº¹
A R
Ġk Ã¡
áĥĿáĥ ŀ
Ġà®® à¯ģà®¤
Ġàª¸ àª°
Ð» ÐµÐº
Ø° Ø§
k in
Ġu 0
Ġà¤ Ľ
¡ à°¿
m an
Ġà´ª àµĬ
áĢŃáĢĻáĢ¹áĢ ·
áĢ±áĢľ áĢ¬áĢĢáĢ¹áĢ
áĢ¡ áĢĨ
ĠÐ½ Ð¾Ð¼
à¦¿à¦ ľ
ÑģÑĤÐ² Ð¾
ĠØ¨ Ø§Ø²
ĠìĿ ¼
Ġpo dá»į
ĠT e
Ġa so
á¹£i á¹£áº¹
t á»įn
ĠN A
Ġná»į mba
Ġe he
ĠS o
h u
×ķ× ¤
Ġà´Ĩ à´°
e b
ĠA gbe
un nu
Ġche at
wa re
Ġfi dio
ĠáĢĻ áĢĦáĢ¹áĢ¸
áĢķ áĢĦáĢº
àª¿ àª°
ĠO lo
la y
Ù¹ Ø±
áº ©
z e
ĠP i
Ð°Ð² Ð°
ç¾İ åĽ½
Ġà¤ª à¤£
à®© à®°à¯į
ÃŃ n
Ġáĥĵ áĥĺáĥĵ
à´¾à´ ¨àµįà´
ĠÐ³ Ðĥ
Ð² Ð°ÑĨÑĮ
ĠÑĤ Ðµ
à¥ĭà¤ ľ
à¦¾à¦¨ à§ĩ
Ð £
ĠÒ³Ð¸Ñģ Ð¾Ð±
ĠáĢĨ áĢ¯áĢŃ
ĠáĢĽ áĢģ
áĢĲáĢ¹áĢ ħ
áĢ¬áĢ¹áĢ Ļ
Ĩ áĢ¯áĢŃ
ĠáĢķáĢ¼ áĢĶáĢº
ĠÐº Ð¸ÑĢ
ĠÐłÐµÑģÐ¿ÑĥÐ±Ð»Ð¸Ðº Ð°ÑģÐ¸
Ð´Ð¸ Ð¼
Ð¾Ð½ Ð°
áĥĺáĥ¨ áĥľ
ĠØ§ÙĦ Ø¨
à´¸ àµįà´¸
à«ĭàª ľ
áĢĽ áĢ±áĢ¸
Ð°ÑĤ Ñį
à¯ģà®Ł à®©à¯į
à¹ģà¸ «
à¥įà¤° à¤®
j et
áĢ¬ áĢĢ
ÙĪ Ø´
à° «
r Ã©
Æ¡ n
áĢķáĢ¹áĢ Ģ
áĢķáĢ¼ áĢĶáĢº
Ġà´ī à´ª
ĠÐ´Ðµ Ð±
Ð»Ð°ÑĢÐ¸ Ð³Ð°
ĠÐ¶ Ð°Ð¼
ĠÐ¼ ÐµÐº
ãģ ł
à¦ľ à¦¨
en i
Ð°Ð² Ñĭ
ê ¹
áĥĺáĥ ¦
Î» Î¿Ïħ
Î»Î¿ Î½
ĠÎº Î¿
ĠÎ¼ Î·
Ġg r
à¤ ł
à«ĩàª² àª¾
Ð°ÐµÑĤ ÑģÑı
áĢ½áĢº áĢĦáĢ¹
áĢŃáĢ¯ áĢ¯
Ĩ áĢĶáĢ¹áĢ¸
ĠáĢĢáģ½áĢ¼áĢĶáĢ¹áĢ ±áĢĲáĢ¬áĢ¹áĢ
ĠáĢĶ áĢ±áĢ¬áĢĢáĢº
ĠÐ¿ Ð°Ð¼
Ïģ Î¸
ÏĥÎ¹ Î¼Î¿
Î¹Îº ÏİÎ½
ĠÎµ Î¹
ĠÏĢ ÏģÎ±
ĠÎł Îµ
Ġ ~
Ïĩ Î±Î½
wy r
ĠÚ© Ø§Ø±
à°¿à°¤ à±įà°°
áĥłáĥ ĵ
ĠÐŁ ÑĢ
Ġà®ª à®¤
Ġq a
èģ ĺ
æĭ ©
áł¢ áł
çļĦ æĺ¯
Ġå¹ ¿
Ġà¨ ľ
Ġ5 åĪĨå¿«3
ĸà¸ ¹à¸ģà¸
è¯ ¾
çķ Ļ
Ġå¤§åıĳ pk10
Ġå Ł
æĸ° éĹ»
áŀ Ģ
Ġè® ©
åŁİ å¸Ĥ
¼ åĲĪ
«à¸¥à¸ ±à¸ĩà¸
è¾ ħ
à¸Ńà¸ Ķ
Ġ3 2
áĢķáĢ« áĢŀáĢĬáĢº
1 00
Ġagäºļæ´² åĽ½éĻħ
éĥ¨ åĪĨ
à¹Ģà¸£à¸µà¸ ¢à¸
à¤°à¥įà¤ £
Ðµ ÑĨ
si on
à±Ģ à°²
ì¹ ĺ
in t
ĠÑĩ Ð°Ð»Ð°Ð²
Ġl ie
m y
áĥĺáĥĿ áĥľ
à¦¿à¦ ¯à¦¼
Ġàª¨ àª¹
Ġà´¤ àµĨ
Ġà®ķ à®°
ĠØ¥ ÙĦÙī
ŀà¸ §à¸
à¤¤ à¥ĭ
ÑĤ Ð²Ð°
ãģĹ ãģŁ
ĠØ¯ Ø§Ø±
Ð¾ÑĢ Ð¼
Ã¹ ng
à°³ à±įà°²
à¤ķ à¥Ģ
à´¿à´¯ àµģà´Ĥ
Ð» ÐµÐ´
Ġafi kun
ĠØ¨ Ú¾
ĠU ni
Ġàªª àª¹
×ķ× ©
Ġc o
in rin
á»Į N
Ġs an
gh t
ĠF ree
f o
áĥ£áĥ ®
ag bara
Ġa d
Ġà°ª à°¾à°°
Ð°ÑĤ ÐµÐ»ÑĮ
Ġà® ²
ĠÒĽ Ð¾Ð»
Òĵ Ð¸
áĥĿáĥķ áĥľ
à´±àµįà´± àµį
ĠÑı Ð½
s k
ĠÙħ ØŃ
Ñı Ð½
Ġâ ĺ
Ġë§ Ī
Ġsá»į gan
Ġri i
ĠJ u
ĠA TI
Ġdá»į má»į
Ġa yá»į
ĠS u
ĠM u
á¹£ a
à· Ĭ
Ġu0 9
à¥ ľ
Ġà°ħ à°§
Ġo ti
àª¿àª Ł
Ġdi dara
Ġá¹£e e
Ġa v
ti ng
ng a
mu lo
Ġst art
Ġd ownload
er a
Ġpaa pa
Ð»Ð¸ Ð³
ĠÐ² Ð¸Ð»
Ð°Ñħ Ñģ
us u
bo ju
ĠÂ £
Ð»Ð°Ñģ Ñı
Ġibe ere
yi pada
Ġa fáº¹
áĥĲ áĥĲ
ä¹ħ ä¹ħ
à¤¾à¤¯ à¤¾
ĠÚ©Ø± ÙĨÛĴ
à°Ł à°¿
ĠB o
à®° à®¿à®¯
ĠÑĪ ÑĥÐ½
ĠÐ² Ð¾Ð·
Ð¼ Ð¸Ð½
Ġ1 00
h wo
da y
Ġa á¹£áº¹
Ġ" >
Ġá»į dá»į
ĠA W
Ġd ur
Ġtun tun
iá»ĩ t
à¸Ļà¹īà¸ ³à¸
à¹Ģà¸Ĥ à¹īà¸²
à¤ ĥ
ĠÐ½ Ð°Ð¿
Ġy ÃŃ
Ã¡s a
áĥĿáĥ ¨áĥĺ
ì¶ľìŀ¥ ìķĪë§Ī
Ġìĥ ģ
ĠÐ¼ Ð¾Ð´
Ġà´ªà´° à´¿à´
Ġàª¬ àª¨
Ð°Ð» Ð°Ð±
é ¸
à¸Ńà¸ĩ à¹Ģà¸
Ġè °
Ġå¥½ è¿Ĳ
æĤ ¨
à¸£à¸°à¸ ļà¸
Ġà¤¯ à¥ĩà¤
Ñĸ ÑĹ
à¤ļ à¥įà¤
ie l
ĠáĥłáĥĿáĥĴ áĥĿáĥłáĥª
ÐºÑĸ Ñħ
à°· à±įà°Ł
Ġth u
Ä± l
×Ļ× Ĳ
Ò³ ÑĥÑĢ
Ġà´¸ àµĨ
Ġv ai
à¯ģà® £
à§ģ à¦ķà§įà¦¤
Ġan ti
P A
ĠK á»į
Ġni gbagbogbo
ĠM an
Ð± Ð°ÑĢ
ĠJ a
íĶ Ħ
Ġàªľ à«ĭ
Ġd ard
t ra
Ġis a
Ġh áº¹
Ġs iláº¹
Ġo kun
ÑĮ Ð½Ðµ
Ðº Ñģ
áĥĶáĥĹ áĥĺ
à° ¥
Ġn agy
Ġà´¤à´¨àµįà´¨ àµĨ
Ġdu ro
ä½ľ ä¸º
Ġ4 9
à¥įà¤¯à¤¾à¤¸ à¤¾à¤łà¥Ģ
Ġá»į kunrin
Ġá»Į má»į
Ġti ti
Ġi na
ÑĪ ÑĩÑĭ
à¯ģà®ķ à¯į
Ġfo onu
j n
Ġrá»į run
Ġbe ere
Ġà´ ³
à´²àµįâĢį à´ķ
ti c
Ġà¤¬ à¤¨
ĠÐº Ð¾ÑĤÐ¾
à´¿à´ķàµįà´ķ àµģà´Ĥ
à°ªà±įà°ª à±ģà°¡à±ģ
Ġye ke
Ġy áº¹n
Ñħ Ð¾Ð´
ĠK e
Øª Ùħ
áĥĺáĥĹ áĥ®
ĠGb Ã¨
k ini
Ġr an
Ò³ Ð¸
ìŀ Ħ
à¦ª à¦°
ĠáĥĵáĥĲáĥ ĺ
oo k
l in
Ġs in
ĠØ¯ ÛĮ
ĠA r
ë§Ī ìĤ¬ì§Ģ
Ġâ Ļ
te m
Ġ }
ìļ °
Ġà®¤ à¯ĩ
Ñĸ Ð»
àµģà´ ¦
Ġf á»į
áĢľ áĢĢáĢº
ĠPro du
Ġoni bara
Ġiá¹£e duro
il l
L E
Ġtin do
Ġori sun
à«ĭ àª°à«įàª
il ÉĻr
ĠOlu wa
ilo ju
ĠR o
à¦¾à¦ ¥
áĥĶáĥļ áĥ¡
Ġà¤ľ à¤¾à¤¤
ÑĤÑĭ Ñĩ
k oso
Ġgb á»įn
D I
wá»į le
láº¹ yin
ki yesi
Ġc Ã´ng
á»į rá»į
a ye
Ġá»Įlá»į run
Ġlá»į wá»į
Ġe mi
à±įà° ·
Ġáº¹ n
ĠÂ» ,
ĠAgbe gbe
uru fu
Ø± Ø©
ĠáĢĽ áĢĢáĢ¹áĢ±áĢĶ
áĢ ĭ
ÑĥÒĽ ÑĥÒĽ
ĠW i
áĢĻáĢ»áĢŃáĢ¯áĢ¸áĢ ŀ
ar á»į
w ari
am áº¹
a di
Ġisa láº¹
Ã³ Ì£
ÛĮ ÙĦ
à´¾à´¤ àµĨ
ĶáĢ¾ áĢĦáĢºáĢ·
ĠÑħ Ð¸Ð·
ĠáĢŀ áĢŃáĢ¯áĢ·
à®¿à®²à¯įà®² à¯Ī
×¨ ×Ĳ
Ġk er
Ġàª¹àª¤ à«ĭ
Ð» Ð¾Ð²
Ð¸ÑĢ Ð¸
ĠáĥĹáĥ¥ áĥķáĥĶáĥľ
à°¿à°¤ à±ĩ
ĠìĿ ĺ
ĠÐĲ Ð»Ðµ
Ġ Å¾e
Ð½Ð¾ Ñŀ
iyan ju
Ðº Ðµ
Ġap áº¹ráº¹
Ġi ho
Ġa po
ĠE le
Ġitá»į ju
Ġid agbasoke
Ġh indi
Ġgbi gbe
Ġp ari
Ġom o
Ġb áº¡n
cz e
Ġà®®à¯ģà® ©
Ġà¦Ĺ à§įà¦°
Ġni báº¹
si a
Ð»Ð¸ Ð¹
ĠÑŀ ÒĽ
ĠÐ´ Ð¸
ÑĤ Ð°Ð¼
Ġà´® àµĤ
ĠH ome
e e
is z
Ġà°¤ à±Ģà°¸
Ġà¤® à¥Ī
Ġi pele
áĥķ áĥł
ye le
Ġoru ká»į
a bo
lar a
Ġto bi
ÑĤÑĮ ÑģÑı
Ġá¹¢ ugbá»įn
Ġso ke
ĠI á¹£
à´£ à´®
ĠC a
à¥ĩà¤ ĸ
ĠØ¯ ÙĪ
ĠR un
ĠÑı Ðµ
Ġìľ Ħ
à«Ģàª ľ
m p
ĠY or
ĠO ri
Ñĺ Ð°
áº¹n u
E N
Ġir iri
ĠáĥĹáĥĲáĥķ áĥĺáĥ¡
Ġà°ī à°Ĥà°¡
à´¤ à´¿à´°
Ð ķ
Ġaa bo
w in
Ð¾Ð»ÑĮ ÐºÐ¾
Ġn wá»įn
ĠBa wo
lan d
Ġà¦ķ à¦®
ĠØ§ÙĦØ ®
Ġà®ħ à®¨à¯įà®¤
Ġãĥ »
Ġà´° à´¾à´ľ
Ð¶ Ð¾
Ġolu mulo
ĠA m
à¤¾à¤ Ĥ
áĥĲáĥłáĥ ¡
Ð Ķ
ĠÐ² ÐµÑĢ
×ķ× §
Ġà¤² à¥ĩà¤ķ
Ġà¸¥à¸ĩà¸Ĺà¸°à¹Ģà¸ļ à¸µà¸¢à¸Ļà¸
Ġà¸¥à¸ĩà¸Ĺà¸°à¹Ģà¸ļà¸µà¸¢à¸Ļà¸ Łà¸£à¸µ
Ġà¸ªà¹Īà¸ĩà¹Ģà¸ĩà¸´à¸Ļà¸ ļà¸²à¸Ĺà¹Ħà¸Ĺà¸¢
à¸£à¸²à¸Ħ à¸²à¸
êŀĮ o
á»į pá»į
Ġof urufu
Ñĳ ÑĢ
ĠL áº¹
Ġàªª àª¡
à¦¨ à¦¿
un k
ŀà¸Ļà¸ ±à¸Ļà¸
à¹ĥà¸Ĭà¹īà¸ Łà¸£à¸µ
Ġà¸Ĺà¸Ķà¸¥à¸Ńà¸ĩ à¹ĥà¸Ĭà¹īà¸Łà¸£à¸µ
Łà¸¸à¸ķà¸ ļà¸Ńà¸¥
Ġà¹Ĥà¸Ľà¸£à¹Ĥà¸¡à¸ Ĭà¸±à¹Īà¸Ļ
Ġà¸ªà¸ ¥à¹ĩà¸Ńà¸ķ
Ġ à¸Ń
áģ¾áĢĢ áĢ®áĢ¸
áĢ¶ áĢĢ
ĻáĢ½ áĢĲáĢ¹áĢ
ĠáĢĲ áĢ½
Ġo j
à¯Īà®ķ à¯į
Ġi wá»į
Ġi tu
áĥķ áĥĶ
à¸²à¸ ªà¸´
Ġme je
¡à¸ ±à¸
si báº¹
báº¹ sibáº¹
ĠE n
Ð°ÑĢÑĭ ÑģÑĤ
ju we
Ġ6 up
Ġé ļ
Ġç Ń
çĬ ¶
å¥½ çļĦ
çĶ »
æĸ¹ å¼ı
à¹ĩà¸ ģà¸
éĵ ģ
er star
Ġå¤§åıĳ äºĮ
Ġéĩ ĳ
åĪĨ æİĴåĪĹ
Ľ à¸µ
Ġå® ŀ
å® ĥ
Ġ5 4
Ġala ba
¹ à¹Īà¸
è¡Į ä¸ļ
ĠãĢĳãĢĲãĢĤ ãĢĳãĢĲ
Ġ3 7
ĠC om
Ġ à²
tu u
G B
Ġido go
à¸Ńà¸²à¸« à¸²à¸£
æľĢæĸ° çĻ»å½ķ
«à¹ĩ à¸Ļà¸
ª à¸Ļà¸
Ġæ¯ ı
à¤¾à¤Ĥà¤ļ à¥Ģ
Ġidi yele
ĠR i
Ġ201 3
Ġa wu
g le
Ġgbá»į dá»į
Ġv is
Õ¸ÖĤ Õ¶
Ġol un
Ú¯ Ø§Ùĩ
Ġip iláº¹
Ġe gbe
Ġáĥĵ áĥĲáĥķ
Ø³ ÙĦ
il á»į
áĥĺáĥ¡ áĥĲ
Ľ áĢ²áĤķ
áģ Ħ
à°¿à° Ĺà°¾
èı ľ
ŀ à¸²à¸
æŁ Ĳ
ä¸į åĲĮ
Ġå¼ Ģ
çĻ¾ å®¶ä¹Ĳ
33 3
çĶµ å½±
µ à¹Īà¸
Ħ à¹Ī
Ġà¤¶ à¤ķ
Ð¸Ñı ÑĤÐ¸
à´¿à´¯ à´¿à´²àµįâĢį
à´¤àµįà´¤ à´¿à´²
Ġv wáº¹
i má»į
ĠL u
ĠI á¹£áº¹
àª° à«Ĥ
ng ine
Ġi ja
Ð² ÐµÑĤ
Ġo ja
áĢ±áĢķ áĢ¼
Ġmáº¹ he
re en
Ġv wá»į
yáº¹ wo
ĠNi torin
á¹£e pá»į
ÑģÑĤ Ð°Ð²
it y
Ø§Øª Ú¾
Ġel Åĳ
Ġti ta
Ġo gun
Ġà¤ħà¤ª à¤¨à¥ĩ
ow y
íķĺ ê³ł
Ġà¦¸à¦® à§įà¦ª
Ð¸Ð» Ð¸
ÙĬ Ø³
áĥĺáĥ ĳ
lo v
àµĭ à´ķ
à°¾à° ¶
Ġs á»ĳ
áĢĻ áĢĬáĢ¹áĢ
áģ Ĩ
ÑĪÑĩ Ñį
t to
Ġho re
ÒĽ ÑĤÐ¸
Ġif áº¹
ĠG ba
báº¹ ráº¹
Ġk ere
Ġà®® à¯Ĥ
Ġcom p
Ġa ba
Õ¡Õ ¿
Ġ Åŀ
±áĢĢ áĢ¬áĢĦáĢ¹áĢ¸
áĢŃ áĢĶáĢ¹áĢ
âĢĮ âĢĮ
ta a
à°¯ à°Ĥ
ne j
Ú ĺ
áĥķáĥĶáĥ §
ĠE uro
áĢĽáĢ¾ áĢĦáĢº
Ã« m
Ġo ye
à¤¿à¤ ¶
Ä« g
ĠÐ¼Ð°ÑĬ Ð»ÑĥÐ¼
Ġag b
à«ģàª ľ
Ġà´ĩ à´¨àµįà´¤àµįà´¯
Ð² Ðµ
Ġà¦¬à¦¾à¦Ĥà¦² à¦¾à¦¦à§ĩà¦¶
Ġà¦¸ à¦¬
Ġv an
Ġà´® à´¾à´¤àµįà´°
áĢĲ áĢĶáĢº
mÉĻ t
ìĦ ¸
ĠÐºÐ°ÑĢ Ð´Ð°
àª£ à«Ģ
×ķ× ¢
Ø± Ùĥ
ĠÐĴ Ñĭ
ĠØ¬ Ø³
Ġà°ªà±įà°° à°Ń
ĠÐ¿ Ð°ÑĤ
ãģ ĳ
ĠáĥĽ áĥĶáĥ¢
áĢĲ áĢ²áĤĶ
ĠáĢ»áĢķ áĢĶáĢ¹áĢ
áĢĢáĢ¼ áĢ±áĢ¬áĢĦáĢºáĢ¸áĢ
ŀ à¯įà®ļ
ĠÐºÐ¾ÑĤÐ¾ ÑĢÑĭ
Ġà´ķ à´£àµįà´Ł
à±ĭ à°¤
Ä± m
à¦ ·
el le
ĠÑī Ð¾
ĠI gb
Ġà¤Ń à¤¾à¤°
ĠT ra
ĠD uba
iran á¹£áº¹
ĠDuba i
wan re
Ġto ol
Ġs un
d Äģ
à¥ĭà¤ Ĥà¤
ĸ à±įà°¯
ĠBi b
Ġe e
ìľ Ħ
ĠØ® ÙĪØ¯
Ġ ÅĽ
Ġà®ĩ à®Ł
á»Ļ i
l Ã¡
Ð½Ñĭ Ð¼Ñĸ
à´¿à´° àµģà´¨àµįà´¨àµģ
Ġàª° àª¾àªľ
ma sÄ±
ĠáĥĽáĥĺáĥ¡ áĥĺ
Ġà¦¯ à§ĩ
et te
áĢ¬ áĢĲáĢº
à´¾à´¨ à´Ĥ
à°Ĥà° §
ÑĤ ÑĢ
Ġàª® àª¾àªĤ
áº ½
ĠØ§ÙĦ Ùĥ
Ġí Į
Ġi ch
káº¹ láº¹
Ġbi i
Ġw ie
ĠÛģ ÛĮ
Ð¸ÑĤ Ðµ
ÏĦ Î®ÏĤ
* *
ÏĦÎ¿ Î½
ĠÎĳ Î½Î±
Î Ķ
Î³ Îµ
ÏĥÎºÎµ Ïħ
Îµ Îº
Ġ0 00
áĢĻáģ¼ áĢĲ
áĢ¬ áĢĢáĢŃáĢ¯
Ġ Ď
Ġá»į lá»į
ĠÏħ ÏĢÎ¬ÏģÏĩ
ÎĻ Îĳ
ĠÎĶ Î¹Î±
Î»Î¿ Î¹
ÏĦ Î¹Î±
ĠÎ² Î±
Î¼ÏĮ ÏĤ
ĠC ym
áĥĲáĥ¨ áĥķ
ĠÐ´ Ñį
Î· Î³
ĠÏĢ ÏīÏĤ
ÏĦ ÏģÎ±
Î»Î¿ Ïį
Î¼Îµ Î½
ĠÏĢ Î¬
Î¾ Î¹
ÏĦ Ïģ
Îº Î®
ĠÏĦ ÏĮ
ÏĨ ÎŃÏģ
Î¯ Ïĥ
Î»Î» Î±
Î¾ Îµ
ÏĥÏĦ Î¹Î±
Î¬ Î¶
Î ĵ
Î½ Î®
ÏĦÎ¹Îº Î®ÏĤ
ÎĻ Î£
ÏĦÎ® ÏĥÎµÎ¹ÏĤ
Î´ Î¹Î¬
ĠÎĶ ÎµÎ½
.. .
Ïģ ÎµÎ¹
ÏĨÎ¿ ÏģÎ¬
Î¼ Î¼Î±
ĠÏĨ Î¿
ĠÏĩ ÏģÎ·
Î¼ ÏīÏĤ
ĠÎ ŀ
Ġf f
jn Ã«
a v
Ġà¤ľ à¥ĭ
Ġáĥł áĥĲáĥª
ĠáĢŀ áĢ®
Ñģ Ð¾Ð½
ĠL es
áĢĻ áĢļáĢ¹áĢ·
áĢĲáĢ½ áĢ±áĢ·
Ġà´¨ à´¿à´²
Ġn y
oo gle
x i
ĠâĢ ¢
Ġoti tá»į
ft ware
Ġa wa
ĠÐ· ÑĮ
Ð»Ñĸ Ð²
lu we
Ġáº¹ láº¹
ªà¸ §à¸
Ġä¸ ľ
è· Ł
è® Ń
ģà¸ ¥à¸²à¸
ĠĈ ą
å¦ Ī
åĸ Ħ
ĠæĽ ´
çİ¯ å¢ĥ
¥à¸ ·à¸Ńà¸
Ħà¸£à¸ ±à¹īà¸ĩ
çļĦ äºº
ä» ħ
Ġà¸ ģà¸²à¸£
ç ĵ
åŁ ¹
åĪĨéĴŁ æĹ¶æĹ¶å½©
åī ¯
ç® Ģ
Ġå¤§åıĳ ä¸ī
à¹ģà¸ Ĺ
à¹ģà¸ Ĥ
´ à¸Ļà¸
¡à¸ ±à¸Ļ
åĩ °
ªà¹Īà¸§ à¸Ļà¸
Ġà¤¨ à¤µ
ĠÑŀÑĤ ÐºÐ°Ð·
Ñĩ Ð¸Ð»Ð°ÑĢ
ĠÑģ Ð¾Ò³
Õ ½
ĠÃ§ ox
à±ĩà° ¤
à®© à¯Ī
Ġn el
Ġwhen ue
Ġkan na
Ġayá»į káº¹láº¹
ĠS ho
Ġká»į ja
Ġy en
Ġigb esi
Ġy ou
Ġy et
K O
ĠI má»į
ĠC hin
Ð°Ñİ ÑĨÑĨÐ°
×ķ× Ĺ
Ġi já»į
ĠOn line
Ġm bi
Ġiá¹£ akoso
y áº¹n
Ġàªª à«ĭàª¤
Ġvi en
Ñģ Ð»Ð¸
Ġy á»į
ĠÐ¼Ñĥ Ð¼
Ġáĥ¨ áĥĶáĥľ
Ġ àµ½
Ġì¹´ ì§Ģëħ¸
äº§ ä¸ļ
è¶³ çĲĥ
Ġï¼Į âĢľ
ªà¸³à¸« à¸£à¸±à¸ļà¸
å¸ ģ
à¨¾à¨ °
åħ °
Ġà¸ §à¸±à¸Ļà¸Ĺà¸µà¹Ī
åį «
ä¸ ¥
è®¾ å¤ĩ
çº¿ ä¸Ĭ
çĶŁ äº§
åĨħ å®¹
ª à¹Į
å® £
¤ åĩ°
Ĺà¸ ĺ
é Ń
åº §
è® ¿
ģ à¸£
à¤¡ à¥ĩ
áĢľ áĢ¾
ĠìĦ ľ
à°¿à°¯ à±ģ
Ø§Ø¯ Ùĩ
à®® à®¾à®©
Ùħ ÙĨ
áĥĶáĥĳ áĥĶáĥļáĥĺ
ĠÐº Ð¸ÑĪ
Ġi yan
Ġayi ka
Ġap áº¹
ĠB uy
ĠProdu cts
l d
is t
Ġo o
L A
Ġde ede
Ġd ona
Ġ, +
f or
áĢĻ áĢ®
Ġyet á»įn
Ġki kun
Ġi j
à¦¤ à¦¾
§ à«Ģ
Ġaso pá»į
Ã² Ì£
Ġà´µà´¿à´ µ
Ø§ÙĨ ÛĴ
ÑĨÑĭ Ð¹
áĥ§ áĥķ
ãĥ³ ãĥ
Ð¸ÑĤ ÐµÐ»ÑĮ
å¸ Ń
à¤Ĥà¤ ļ
à´ª àµįà´°
Ġê ¹
Ġv a
Ø ¥
áĥĲáĥ Ķ
áĢĻ áĢĽáĢ½áĢŃ
ĠáĢ¡ áĢ±áĢĶ
áĢľ áĢ¹áĢ
áĢģáĢ» áĢ¯áĢķáĢº
ĠÑĪ Ðº
p á»įn
í Ĵ
Ġo s
ĠT r
·à¹Ī à¸Ļ
Ġà¤® à¥Ģ
Ã¨ Ì£
ÑĥÐ² ÑĩÐ¸
ĠÐ½ Ð°ÑĦ
à´¿à´ķàµįà´ķ àµį
à«įàª ¨
å·¥ ç¨ĭ
Ġ7 7
áĢ»áĢĸáĢħáĢ¹áĢ ķáĢ«áĢĲáĢļáĢ¹
ĠáĢ»áĢķ áĢĶáĢ¹áĢľ
ĠáĢ¡ áĢĻáĢºáĢŃáĢ³áĢ¸áĢŀ
áĢĦáĢºáĢ¸áĢ Ľ
¯ à§ĭà¦Ĺ
¢ à¹Ģà¸
Ĭà¸ ·à¹Īà¸Ńà¸
ç´ ¢
à¹ī à¸Ńà¸¢
à¥ģà¤ ĸ
ĠÐº ÑĢÑĭ
Ġáĥ¡áĥĲáĥ® áĥĶáĥļ
Ġ Ã©r
ìķ ½
is a
Ġs k
Ġà´¨ à´²àµįâĢįà´ķ
Ġà´ľ à´¨
Ð² ÐµÑĢ
ĠÙ¾ Ûģ
à¤¿à¤Ĥà¤ Ĺ
áĥĺáĥ «áĥļ
ĠÙģ Ø±
áĢĲ áĢĲáĢ¹áĢ
ľ áĢ½
Ð¾ÑĢ ÑĤ
Ð´Ð°Ð½ Ð´
à«Ģàª ¸
ĠáĢŀáĢ° áĢĲáĢŃáĢ¯áĢ·
ì ¡°
á» ī
áĢĶáĢ¹áĢ ±áĢĲáĢ¬áĢ¹áĢ
áĢ°áĢ¸áĢ Ĳ
à§ģ à¦¬
áĢķ áĢ¶áĢ¯
ķ áĢº
áĢı áĢ®
Ġà®İ à®¤
gu a
ĠÃ Ģ
×ķ× ¡
à´¤àµįà´¤ à´¿à´¨àµį
ti g
ê³ µ
Ð½ Ñİ
Ġta k
áĢ° áĢ¸áĢŀ
l Åĳ
Ġàª® à«ĩàª
ĠáĢĳ áĢŃ
ÙĬ Ø§
áĥ£áĥ ĵ
Ð°Ð´ Ð·Ðµ
Ð³ ÑĢ
ĠáĢŀ áĢĲáĢŃ
ĠÎ» ÏĮ
Ġs y
Ġà®ļ à®¿à®±
Ġm Ã¡r
áĢľ áĢº
à¥įà¤ ¦
Ġà¦¸ à¦°
Ùĩ Ø±
àµįà´ ķ
e ng
ĠÐ± ÐµÐ»Ð°ÑĢÑĥÑģ
ĠÐ³ Ð°Ð´
il ÉĻ
áĥĶáĥ¡ áĥĺ
Ġw er
Ã¡ ban
àª¾àª¨ à«ĩ
¡ Â
Ġn Ãły
· à¸Ńà¸Ļ
å® ¾
å¾· å·ŀæīĳåħĭ
ç ĩ
Ġà¤² à¥ĭà¤ķ
Ġs Ãº
Ġë į
Ð¾ Ð¿
áĢĻáĢ½ áĢº
áĢļáĢ¹áĢ Ĳ
áĢ¼ áĢĢáĢ¹
áĢŃáĢ¯áĢĦáĢ¹áĢ ĽáĢ¬
áĢģáĢº áĢĻáĢ¹áĢ¸
áĢĻáĢº áĢ¸áĢĻ
Ġà¤® à¤¿à¤²
Ġs ont
Ġà¦ħ à¦Ń
ĠØ º
is en
áĥĲáĥ® áĥļ
ãĤ ¢
Å¡ ÃŃ
ĠÐ°ÑĤ ÑĢÑĭÐ¼
à« Į
Ġà®Ĩ à®©
Ġà´ļ àµĨ
à¥ĩ à¤°
Ðµ Ðµ
ĠáĢĲ áĢŃáĢ¯áĢĦáĢ¹áĢ¸
áĢĲ áĢĬáĢ¹áĢ¸
áĢĽ áĢĦáĢ¹áĢ¸
áĢ®áĢ¸áĢ ļ
an o
n Ä«
à¦¿à¦ ª
à±įà° ¬
Ġká»į á»įkan
ĠP o
__ __
Ġ Ð°Ò³
ĠA ra
ĠØ¨ ÙĨ
áĥĺáĥ£áĥł áĥĺ
d ro
Ġá¹£ aaju
Ġ??? ??
ir isi
s á»įna
ĠKáº¹ wa
i di
ÉĻn i
ĠÐ¾ ÑĪÐ¸ÑĢ
ĠÒ³ ÑĥÒĽÑĥÒĽ
Ġapáº¹ áº¹ráº¹
ĠÐľ Ñĸ
ĠI la
ris ti
ĠO á¹£
ĠNI PA
á»įn u
e ji
Ġs ara
Ġatun á¹£e
un e
la ck
am e
ĠÑĤ ÑĥÑĪ
ÑĪ Ð°Ð²
yan mar
ĠáĢ±áĢĽ áĤĬ
ľ áĢŃáĢ¯áĤĶ
áĤ ĲáĢ¼
áĢĶ áĢ®
Ġï¿½ï¿½ï¿½ï¿½ï¿½ï¿½ï¿½ï¿½ ï¿½ï¿½
káº¹ ká»į
ÑĮ Ð½Ñı
Ð´ Ð¶
Ġà¤ķ à¥ĭà¤
Ġo ko
à±ģà°ķ à±ģà°¨à±įà°¨
ĠàªĹ àª¯
à®¿à® ª
Ġle g
Ġ× ¦
ê ´Ģ
à´¿à´ķàµįà´ķ àµģà´¨àµįà´¨àµģ
Ġà¦¦ à§ĩà¦¶
Ġa b
áĥĲáĥł áĥĶ
ĠÙĩ Ø§
h lo
ĠáĢĻ áĢ»
ĠØ¨ ÛĮ
Ð°Ð» Ð°ÑģÑı
à±ģà°¤ à±ģà°¨à±įà°¨
l owo
Ġo pin
ĠY i
p an
Ġàªľ à«ĭàª
Ġh u
ÃŃt á»įn
táº¹ táº¹
Ġp áº¹
ÑĤÐ¸ Ð²
áĢĳ áĢ¯
Å¡ i
ĠáĢ¡ áĢ²áĢ·
ê¸ Ī
Ļ áĢŃ
»áĢĸ áĢħáĢ¹
ĠáĢĢáĢ¼ áģ½
áĢĲ áĢĬáĢº
Ðº ÑĤ
à±ģà°ķ à±ģà°Ĥà°Ł
ow ie
à¤ķ à¤¾
ÙĦ ÛĴ
Ġo lan
à®Ł à®¿
ĠÐ³ ÑĢÐ°Ð¼
Øª Ùĩ
à¦¨à§įà¦ §
à±įà° £
Ġì Ľ
Ñı Ð³
ĠA D
ÎŃ Ïĩ
ÏĦÎ¹Îº Î¿Ïį
ÎµÎ¯ ÏĦÎµ
ÏĨ ÎŃ
Î´ Ïħ
ĠÎ¬ Î½
Ġr h
ĠáĥĽ áĥĿáĥľ
Ġtá» «
éĢ Ĥ
åį ĥ
ć ą
å¼Ģ å§ĭ
åĳ ³
à¤ļ à¤¾
àª¾àª ¶
ĠáĢħ áĢħáĢº
Ġà°Ń à°¾à°°
à´¿à´ ·
à®£à¯įà®Ł à¯ģ
ti t
à¦¿à¦ Ľ
Ġà°ķ à°¾à°¨
áĥĲáĥł áĥĺáĥ¡
ĠÑģ Ð¼
ci on
w ia
Ġ×Ķ× ©
ĠÃ Ń
áĢŃ áĢ½
áĢķáĢ¼ áĢ±áĢ¬
ĠÑį ÑĬ
ĠÐ· Ð°Ñħ
é¤ Ĳ
æĹ¶ åĢĻ
æĻ ļ
Ġä½ ¿
Ġà¤ªà¥įà¤° à¤¤
Ġàªķà«ĭàª Ī
Ġa pp
ĠÐ½ Ð¾
áĢļ áĢ·
áĢĽ áĢĲáĢ¬
áĢ¬áĢ¸áĢ ķáĢ«
ĠÙ¾Ø§Ú© Ø³ØªØ§ÙĨ
à±ģà°ķà±ĭ à°µ
Ġà®ĩ à®²à¯įà®²
ÙĦ Ø§Ùħ
íĶ ¼
i le
ĠáĥĶáĥłáĥĹ áĥĺ
ka l
àµĭ à´³
ãĥ³ ãĤ
ĠØ¨ Ûģ
Ä± b
ĠÐ´Ð·Ñı ÑĢÐ¶
ĠÑģ Ð¾Ð»
Ġo der
ĠáĢħ áĢ®áĢ¸áĢķ
æī §
Ġà¸ ¡à¸µ
æ ĩ
åĩ ı
¢ à¸´
åľ Ł
Ġåį ģ
æĹ ©
áŀ Ħ
Ġ ä¼
ĵ à¹Įà¸
ä¸Ĭ çļĦ
è¿ °
¶à¸ ĩà¸
è½ »
Ġå¤§åıĳ åĪĨåĪĨå½©
c c
ĠçĶ Ł
Ġà¤ħà¤¸ à¥ĩ
ĠÐ· Ð°Ð±
ì ¶Ķ
Ġati láº¹yin
yá»į ri
ar u
Ġita táº¹táº¹
Ã¬ n
áĢĶ áĢ±áĢ
Ġìķ Ī
Ġàª¥ àª¯
ĠÃ¶ z
Ġà®® à¯Ģ
à· Ĵ
Ġà¤ķà¤¹ à¤¾
Ġà¦® à¦§à§įà¦¯
v u
ĠØ§ÙĦØ µ
Ġáĥŀ áĥĺáĥł
àµģà´ ²
Ð½Ñĸ ÐºÐ°
à±įà°¯ à°Ĥ
ĠÐ´ Ð°Ð¿
Ðµ Ð¶
áĢĢáĢ¼ áĢļáĢ¹áĢ
áĢĹ áĢºáĢ¬
áĢķáĢ« áĢķáĢ²
áĢħ áĢīáĢº
íĸ ī
æĶ »
§à¸´à¸ ĺ
ķà¹Īà¸²à¸ ĩ
Ġçİ¯äºļag 88
Ġå¥ ¹
à¸£à¸µà¸ §à¸´à¸
b s
APP ä¸ĭè½½
ŀ à¸£à¸
å®īåįĵ çīĪ
çĽ¸ åħ³
Ġ Ć
ĠçĶ ±
à¹Ģà¸£à¸ ´
Ġç» ı
à¥ģ à¤¸
Ø§ÛĮ ÛĮ
à´¿à´ķàµįà´ķàµģà´¨àµįà´¨ à´¤àµį
ye k
Ã¤ h
te ur
áĥĺáĥľ áĥĺáĥ¡áĥ¢
Ð¾ÑĤ ÑĢ
ĠÑĤ Ð°Ð´
Ð´ Ð°Ð¹
ĠÎĿ Î¿
ĠHo tel
ÏĢ ÎŃ
ĠÏĩ ÏģÎ®
ÏĦ ÏĥÎ¹
Î»Î» Î·Î½
ĠÏĮ Î»
Î½Î± Î½
ĠÎµ Î³
Ġc yn
ĠÐ¼ÑĥÐ¼ ÐºÐ¸Ð½
à¯ģà® ²
áĥĲáĥ §
ÈĻ te
àª¸ à«įàª¤
Ġ Ð°Ð³
Ġ ent
à°¾à°Ĥà° ¤
qi p
×Ļ ×Ļ×Ŀ
j en
àµģà´ķ à´¯àµģà´Ĥ
Õ¡Õ ½
Ä±n a
Ġp ra
Ã¡ i
à¤¾à¤¨ à¥Ģ
Ùħ Ø©
ĠØ§ Ø¨
Ð½Ñĸ Ñĩ
ĠáĢħ áĢ¯
áĥĲáĥ¥ áĥ¢
ĠÐĲ Ð»
ĠáĢ¡ áĢ±áģ¾áĢĢáĢ¬áĢĦáĢ¹áĢ¸
áĢ¾ áĢĲáĢº
å¤§ åİħ
Ŀ à¸
å² ģ
Ġè ¾
è Ĵ
® à¥ģà¤³à¥ĩ
à¦¾à¦¨ à§įà¦¤
Ðº Ð¾Ð²
à¯ģà®µ à®¤
en a
ÑģÐ¸ Ð´Ð°
ĠÐ±Ñŀ Ð»Ð¸Ð±
ÐµÐ½ Ð³
ĠÑį Ð´Ð¸
ĠÒĽ Ð°Ð¹
ĠÑĤÐ¾Ð¼ Ð¾Ð½Ð¸
ÐĲ Ðł
ĠÐĺ Ð½
áģ ¾
ĠáĢģ áĢ¼
áĥĽ áĥĺáĥ¡
íķ Ļ
ĠØ¢ Ù¾
àª¾àª° à«ĭ
Äĥ r
Ġà°Ĺ à±įà°°
Õ ´
Õ¶ Õ¥ÖĢ
Ġs on
ĠáĢ¡áĢĨáĢŃáĢ¯ áĢķáĢ«
áĢ»áĢķ áĢĦáĢ¹
ĠáĢģ áĢĽáĢ®áĢ¸áĢ
ĠÐ ģ
Ġh t
çļ ĩ
Ġà¤Ĩ à¤®
Ã¼n k
Ð°Ñ ī
Ġh á»į
à¦¾à¦ Ĥ
Ġj ak
Ĭà¸µà¸ §à¸´à¸
à¹Ģà¸¥à¸ ¢
Ġà¸ĭà¸¶ à¹Īà¸ĩà¸
à¤¤ à¥įà¤°
ie t
ĠÐ¸ Ð¶
ĠÐ¾ Ð¼
ĠáĥĴ áĥĲ
ê² ½
Ñĥ ÑĩÑĭ
Ġà°®à°° à°¿à°¯à±ģ
àµĤ à´ª
Ã¡ b
Ġed he
àªĤ àªķ
Ġhttp s
Ïĥ ÏĦÏĮ
ĠÎºÎ±Î» ÏįÏĦÎµ
ÎĳÎ ¤
ÏģÎ¬ ÏĨ
Î½ Î¹Î±
ĠÏĨ Ïī
ĠÎ± ÏĨ
Ġe u
Ľ áĢĦáĢ¹
Ġ áĤĢáĢĢáĢŃáĢ³
áĤ ģ
áĢģ áĢ²
ÙĤ Ø©
ãĤ Ī
Ġà¨ ħ
à¹Īà¸² à¸Ļ
ãĢ Į
à¥įà¤¹ à¤¾
áĥĲáĥª áĥĺáĥĲ
Ð² Ð¸
Ġà´ľ àµĢà´µ
Ġd al
Ġà¤² à¥ĭà¤Ĺ
à§ģ à¦ķ
ëª ħ
Ð· Ñĭ
ĠÚ©Ø± Ø¯
áĢĶáĢ¹ áĤĢáĢĢáĢ®áĢ¸áĢ
áĢ¯áĢŃ áĢĦáĢ¹
áĢĢ áĢ±áĢĶ
ŀ áĢ¬
ĠáĢĳ áĢ¼áĢĢáĢ¹áĢ
ĠáĢĲ áĢŃáĢ¯áĢĢáĢ¹áĢ
áĢĲáĢħáĢ¹áĢ ģáĢ¯
áĢ¬áĢ¹áĢ »áĢķ
ĠáĢ¡áĢĵ áĢŃáĢĢ
à®¿à®¤à¯įà®¤ à¯ģ
a te
ĠÐł Ñį
à´¯ à´¾à´³
Ġd z
ÉĻ ti
ĠÐ¼ ÐµÐ½
h la
er en
m es
áĥĲáĥķ áĥĺ
áĢĶ áĢļáĢ¹áĢ
áĢ¬áĢ¸áĢ ģáĢ²áĢ·
Ġàªı àª®
àµģà´ ¨
à¯ģà®ķ à®³
à§ĩà¦ ľ
j es
Ġáĥ¥ áĥĲáĥłáĥĹ
áĥĶáĥ ¤
Ġ àµ¼
Ġà´ §
×Ļ× ¢
à«ĭ àª¨
éģĹ æ¼ı
å ĺ
Ġà¤ķ à¤¾à¤¯
Ñĥ Ð»Ñı
à¦¾à¦¤ à§įà¦°
ĠØª Ø¹
àµĩà´ ĸ
Ġá¹£e to
Ġen áº¹
ka ti
Ġnu he
R I
Ð½ Ð°ÑĤ
pa má»į
rz y
Ġma is
ari ju
Ġya tá»į
Ġoni we
Ġipin nu
à ³
ese ku
c al
ĠÑĥ Ð¼
ariju ana
ar un
Ġà¤ķ à¤®
áĢ¸áĢĻ áĤĪ
áĢ¸áĢĻ áĢ½
áĢ¡ áĢĲáĢ¼áĢĦáĢ¹áĢ¸
áĢ±áĢĽ áĢ¸áĢ¡
ĠáĢ¡ áĢ»áĢĻ
áĢľ áĢĦáĢ¹áĢ¸
ķáĢ« áĢŀáĢĬáĢ¹
ĠáĢħ áĢŃáĢĲáĢº
Å¾ i
Ġá»į kÃłn
Ã© re
ĠN h
Ġí Ķ
áĥĺáĥ£áĥ ļáĥĺ
Ġsu gbon
ĠâĢĭâĢĭâĢĭ âĢĭ
à´ķàµįà´ķ àµĨ
ĠÐº ÑĸÑĢ
Ġo dun
ĠÐ¶ Ð¾Ð¹
ĠÐº Ðµ
Ð¸ÑĪ Ð³Ð°
ĠÐ´ Ð¾ÑĢ
ĠáĢĻ áĢĽ
àµĥ à´¤
Ä±n Ä±n
Ġm ÃŃtá»įn
Ġidan iloju
Ġa kiyesi
ŀ áĢĬáĢ¹áĢ·
±áĢ¡ áĢ¬áĢĦáĢ¹áĢ
áĢ¡ áĢĽáĢ¬
Ġàª¸ àª¾àª®
ĠG oogle
Ġo á¹£u
l la
Ġiba mu
Ġako onu
Ġa táº¹
Ú¾ Ø±
ĠÑĤ ÑĢÑį
ĠT ur
Ġáĥ¥ áĥĲáĥļ
om i
ÑģÐº Ð¸Ð¹
Ġw ith
Ġi bara
Ġgáº¹gáº¹ bi
ĠNi pa
âĢ İ
Ġá»įmá»į de
ĠE mi
Ġaá¹£a yan
Ġa da
ÙĤ Ø¯
ĠVi to
ĠK ini
Ġso ftware
Ġanti gua
ĠOá¹£ Ã¹
à¦¨ à¦¾à¦°
es ch
âĢİ âĢİ
gu st
ĠP lus
ĠNA B
ï ½
el á»įpá»į
Ġpi pe
Ġe le
h á»įlu
d ari
Ġi bu
Ġá¹£áº¹ da
ĠÃ ±
Ġla báº¹
ti ri
om a
ÑĤÑĭ Ñŀ
Ġpaapa a
Ġo h
Ġav wanre
ĠG e
Ġà´ ¨àµįà´
l is
Ġt owe
Ġaj eseku
ĠMo bile
Ġbo ya
à¹Ģà¸¥à¸ ·à¸Ńà¸
Ġ4 7
à¹Ħà¸Ķà¹ī à¸£à¸±à¸ļà¸
åĿ ļ
åıĤ èĢĥ
å¤Ħ çĲĨ
ĠâĢ¦ âĢ¦
Ġà¸ «à¸£à¸·à¸Ń
æĹ ı
åİ Ĥ
åĪ° äºĨ
ç»Ħ ç»ĩ
æĪĲ ä¸º
à¹ĥà¸ ª
å½± åĵį
Ġç «
¸à¸ Ķ
à¸£ à¹Į
à¤ļ à¥Ģ
áĢķ áĢĲáĢº
la ye
ar o
ÑģÐº Ð¾Ð¹
áĥĲáĥ ©
Ġo do
Ġláº¹ po
ĠNigba ti
Ġí Ĩ
ĠE to
Ġg un
Ġà®ķ à®²
Ð°ÑĢ Ð°Ð´
Ġà¤¬ à¤¾à¤¦
ĠG bi
es s
Ð°Ñ Ĺ
U R
Ġo ro
ĠØŃ Ú©
à´¾ àµ½
áĥĲáĥª áĥĺáĥĺáĥ¡
Ġile ra
á¹£i pa
á¹£e yá»įri
tá»į ju
ng ba
Ð°ÑĢ Ð¼
Ġàª¹àª¤ àª¾
æ² Ļ
à¤¦à¥įà¤ §
ÑĤ Ð¾Ð²
B I
Ġip ese
Ġi P
ĠG i
ĠÚ¯ ÛĮØ§
Ġwa ye
Ġ× ĺ
Ġn da
ar s
O S
i j
d áº¹
ÑĬ ÑĢ
z z
à¯ģà®ķ à®³à¯į
Ġà¦¨ à¦¿à§Łà§ĩ
ĠÐºÑĢ Ð°Ñĸ
Ġáĥ¡áĥĲáĥ ĳ
áĢŃáĢ¯áĢľ áĢº
Äĥ m
íķ ł
ĠÐºÐ¾Ð¼ Ð¿
Ø§ÙĨ Ùĩ
Ġd un
Ġ201 2
á¹£ipa ará»į
Ġy Ã¬
Ġáĥķ áĥĶáĥł
Ġà¦Ľ à¦¿à¦²
0 6
ĠçĦ ¶
áł¤ áł
3 9
ç§ »
à¹Ģà¸ ĭ
Ġæ Ħ
åĬŁ èĥ½
4 7
é¢ Ŀ
¡ à¸Ļà¸
æ¹ ¾
Ħà¸ ·à¸Ń
å® ģ
Ġé ĵ
à¹ĥ à¸Ļà¹Ģà¸
è ©
å® ³
Ġà¤¸ à¤°
ĠáĢŀ áĢ±áĢĺáĢ¬
áĢĦ áĢļáĢº
ÃŃ a
Ð½ Ð¾Ð²
Ġáĥŀáĥĺáĥłáĥ ķ
r Ã¡
ĠØ§ÙĦ Ø±
lÉĻ t
Ġć Ĉ
ĵ à¹Į
çĶ¨ æĪ·
«à¸Ļà¸ ±à¸ĩà¸
¢ à¹Įà¸
Ġåħ ³
å° Ĭé¾Ļ
ĠãĢ Į
à¤¦ à¤¾à¤°
ĠÒĽ Ð°Ð±
Ġàª Ī
sz y
ĠÎ¼ÎŃ ÏĥÎ±
ĠÏĩ Ïİ
Ïĥ Ïĩ
ĠÎ¼ Î·Î½
Ïĥ ÏĦÎ®
ĠÎļ Î±Î¹
ĠÎ± Ïģ
Ġ/ >
ĠÃ ¢
Ġs au
ca q
à°¿à°Ĥà°Ĺ à±į
Ġd 88
ç§ ģ
à¹Ģà¸¥à¸ ¢à¸
áĬ ķ
æŃ ¦
Ĺà¸µà¹Īà¸ ¡à¸µà¸
åıĳ å¸ĥ
å· ®
éĿŀ å¸¸
å¹ ķ
ªà¸ ĸ
æ¹ ĸ
Ġçİ ĭ
à¸²à¸ ¡à¸
æīĢ æľī
å¾ ħ
å® ¡
æİ§ åĪ¶
Ġ3 åĪĨå¿«3
Ġ5 7
· à¹īà¸Ļà¸
4 6
ľ à¸´à¸
Ġçľ ĭ
Ġå¤©å¤© ä¸Ńå½©ç¥¨
Ġæĸ° èĲĦäº¬
à¤ ĺ
to k
Ð°ÑĨ Ð¸
ĠÐ³ Ð¾Ð´Ð°
Ø² Ø§Ø±
áĥľ áĥĲ
Ġk un
Ð½ Ð°Ð»ÑĮ
ĸáĢ¼ áĢĦáĢ·áĢº
in s
Ġà®¨ à®¿à®²
Ġgbi gba
Ġg u
àªµàª¾àª¨ à«Ģ
p s
ÙĪ Ø¨
àµ º
Ġà¤¤ à¤ķ
h áº¹
ĠM áº¹
ng an
Ð± Ð¸ÑĢ
Ġá»Į já»į
ĠÐ¸ Ðº
Ð°Ð» Ð°Ð½
Ľà¸£à¸°à¹Ģà¸Ĺà¸ ¨
Ħà¸ §
Ħà¸ °
Ġå½©ç¥ŀäºīéľ¸ 8
à¹Ī à¸Ńà¸
åįķ ä½į
å¤© å¤©
ä¿¡ èªī
Ġk8 å½©ç¥¨
Ġ5 6
Ġgi ge
m b
à¥ģ à¤ª
×ķ× ŀ
ĠÐ¿ ÐµÑĪ
k á»įn
à§įà¦ Ľà§ĩ
Ġa ya
ĠáĥĴ áĥĲáĥĺ
t ini
Ġyi o
Ðº Ð»Ð°Ð´
Ġgb iyanju
h ari
Ġta tuu
ĠI wá»įn
st an
g er
à¹ĥà¸Ļà¸ ģà¸²à¸£à¸
éĵ¶ è¡Į
ä¹ ¡
è®º åĿĽ
à¹Īà¸²à¸ ĩà¸
Ġà¤¨ à¤¿
al l
à¦¿à¦ķ à§įà¦·
ĠêŀĮ in
Ġi t
Ġba ba
Ġa fihan
Ð°Ñģ ÑĮ
Ðº Ð¾Ñŀ
Ġy o
ĠÑĢ Ð¾Ð·
ĠN inu
b ook
Ġpa á¹£ipaará»į
Ġiá¹£ oro
ĠW á»įn
áĥĲáĥĿ áĥĳ
ÅĻ e
ĠØ§Ù¾ ÙĨÛĴ
ĠEuro pe
à°¾à°° à°¿
ê² ©
u ar
ĠàªĨàªµ à«Ģ
h en
Ġag æīĭæľº
èµĦ æºĲ
æ¸¸æĪı å®ĺç½ĳ
¸à¸ ģ
Ġæĸ ĩ
çĮ ľ
Ġ5 åĪĨå½©
ç» ¼åĲĪ
Ġå½©ç¥ŀ 8
ç¨ İ
_ å¤§åıĳ
à¥įà¤¹ à¥Ģ
Ġid ara
à¦¸ à§įà¦¤
Ġi yipada
ĠI da
d in
Ġà®ļà¯Ĩà®¯ à¯įà®¯
Ġs áº¹
ĠÐ¾ Ð¿
Å¡ u
à°¸ à°Ĥ
ke ng
to tt
Ġd la
áĥľ áĥĿáĥĳ
ĠÐĳÐµÐ»Ð°ÑĢÑĥÑģ ÑĮ
Ð¼ Ñı
Ġêµ ¬
Ġà´ī à´£àµįà´Ł
àªµ à«ģàªĤ
Ð°Ð´Ð¸ Ð³Ð°Ð½
ĠÐ±Ð¾ Ð·
q a
ĠÙħ Ø¯
Ð´ ÐµÐ»
Ġla isi
Ġaz o
ĠNe w
áĢĦáĢ¹ áĤĶ
áĢģáĢ¼ áĢĦáĢ¹áĢ·
áĢľ áĢĻáĢ¹áĢ¸
áĢħ áĢĽáĢ¬
ĠÑĤ ÑĭÐ¼
Ġpr ÃŃ
à¤Ń à¥Ģ
à°Ĥà°¤ à±įà°°
ay áº¹
ĠU n
ĠH a
Ðµ Ð³
b irin
Ġà¦¬à§įà¦¯ à¦¬
Ġti táº¹
ĠP e
áĢ¡ áĢĳáĢŃ
ĠMo re
ĠIs la
Ġàª¤ à«ĩàª
ĠI rin
ol le
à¯Īà®ķ à®³à¯į
Ġa je
à¸£ à¹Īà¸§à¸
ĠU U
æĭ ¬
à¸Ńà¸ ģ
Ġé ķ
à¥Ģà¤ļ à¥įà¤¯à¤¾
ĠLáº¹ hin
Ġkan êŀĮ
Ġidara ya
Ġe ngine
g á»į
áĥľ áĥĶáĥļ
à°°à±įà° ¶
Ġd ar
Ø¹ Ø©
j ÄĻ
ĠØ³ Ú©
Ģ áĢ¯áĢŃ
±áĢĽ áĢ¸áĢ
áĢ±áĢ »áĢĻ
ļ áĢ¬áĢĢáĢ¹
ĠáĢľáĢ° áĢŀ
ÑĥÐ¼ Ò³ÑĥÑĢ
Ð¼ Ð°Ð³Ð°Ð½
ĠÑģ Ð°Ð½
áĢ¡ áĢ¬áĢ¸áĢ
ĠØ¢ Ùħ
Ġi w
zi oni
Ġ×Ķ ×ª
Ġë Ĳ
wa di
ir ia
Ð³Ð°Ð½ ÑĸÐ·
ĠN u
b un
Ġà´ª à´¿à´¨àµįà´¨
Ġmáº¹ de
Ġj in
Ġáĥłáĥ £áĥ¡
Ġi táº¹
Ġape juwe
h á»į
R E
Ġl agbara
Ġi lá»į
Ġgbáº¹ tá»į
ĠO ni
ĠKáº¹ san
is á»įrá»į
gb in
Ġláº¹hin na
Ġch a
Ġy u
Ġo na
© áĥĶáĥķ
ĠáĢĽáĢĢáĢ¹áĢ±áĢĶ áĤĶ
ĠáĢ»áĢĻáĢĶáĢ¹áĢĻáĢ¬ áĤıáĢŃáĢ¯áĢĦáĢ¹áĢĦáĢ¶
áĢĲ áĢ¯
Ã¡ ng
Ð¸Ð½ Ð°
agy ar
à´¿à´¨ àµįâĢį
Ġv ar
Ġà¤µ à¤¾à¤²
l Ã³
à°® à±ĩ
ĠÑĤ Ð°Ò³
Ġä¸ ¤
Ġ à¹Ħà¸
s s
ĠåĪ °
è° Ī
çİ° åľº
à¥ĩà¤ ¹
Ġne ws
Ġà´ķ àµĨ
Ð¾Ð² Ð°ÑĤÑĮ
ĠÑı Ð½Ñĭ
±áĢ ĸ
ĳáĢ¬áĢ¸áĢ ĲáĢ²áĢ·
ĠáĢ±áĢĨ áĢ¬áĢĦáĢ¹áĢ
ĠáĢĢáĢŃáĢ¯ áĢļáĢ¹áĢ·
áĢ¼ áĢĦáĢ¹
áĢŀ áĢ¬áĢ¸áĢħáĢ¯
ĠáĥĴ áĥĲáĥķ
ãĥ¼ ãĤ
à§ĭ à¦²
àµģà´®àµįà´ª àµĭ
ĠáĢ±áĢ ĦáĢ¼
áĢħáģ¥ áĢĬáĢ¹áĢ¸
áĢº áĢ¸
à¯ģà® ļ
ĠØ´ Ø¯
áĥĿáĥ ĸ
Ġpo d
ÑĤÐ¾ Ð±
àª¤ à«ĭ
Ġà¤ķ à¤¾à¤®
áĥĿáĥłáĥ ¢
Ġà°¨ à±ĩ
Ġ Ã¡l
Ġiá¹£ elá»įpá»į
Ġfa ili
ayáº¹ wo
ĠH i
ĠG a
áĢĻ áĢĦáĢ¹áĢ¸
áĢ¡ áĢģáĢ«
ÑģÐº Ñĥ
ëŁ ¬
g ra
Ġk Ã²
ÑĨ ÑĨÑı
ĠÑĤÐ¾Ð¼Ð¾Ð½Ð¸ Ð´Ð°Ð½
ĠÑĦ Ð°Ð¾
ĠÑĪÑĥ Ð´Ð°
Ð´ Ðµ
Ġà®µà¯Ĩ à®³
Ġ ÉĻs
à¦¾à¦ľ à¦¾à¦°
Ġåİ Ł
Ġà¹ģà¸ ķà¹Ī
à¤¾à¤ ±
à´¡ àµį
à°°à°¿à° Ĺ
ØŃ Ø¯
àª¿ àªĤàªĹ
Ġáĥŀ áĥĿáĥļ
Ðº Ð°Ð¼Ñĸ
Ġà¦¥ à¦¾à¦ķ
ĠÐ¿ÐµÑĢ ÑĪ
»áĢķ áĢĶáĢ¹áĢ
ĠáĢ±áĢĲáĢ¼ áĤĶ
ĠáĢ±áĢ¡ áĢ¬áĢĢáĢ¹áĢ
áĢĶáĢ¹áĢ¸ áĢĻáĢ¬
ĠáĢ±áĢ¡ áĢ¬áĢĦáĢ¹áĢ
áĢģáĢ¼ áĢĦáĢºáĢ¸áĢ
à±ģà° ¸
a ng
ĠáĥĽ áĥĵ
×Ĺ ×¨
ĠÐ´ ÑĢÑĥ
Ġà®ª à®¯
ĠØ· Ø±
ir es
an Ã«
ìŀ ħ
ãĥ ¬
z za
à´ķàµįà´ķ àµģà´Ĥ
Ä¾ a
Ġm ul
Ġà°ī à°Ĥà°Ł
à¦ ŀ
sz t
áĢ¬áĢ¸áĢĻ áĤĪ
áĢ¯áĢ¶ áĢ¸áĢŀ
ÉĻ lÉĻ
Ñĸ Ð»Ñĸ
ģà¸ §à¹Īà¸²à¸
å¤© åłĤ
Ħà¸ ¥
Ħà¸ ³à¸
Ġå¤ ļ
ĠåĽ½ éĻħ
à¸Ļà¸ ³
Ġæ ¶
çľŁäºº æ¸¸æĪı
çĭ ¬
æ¿ Ģ
æĸ Ĺ
ĠæĿ İ
Ġà¸ ¥à¸
à¹īà¸²à¸ ĩ
à¤¿à¤ ·
à«ĩ àª¨à«įàª
Ð°Ð± Ð°ÑĢ
ÏĦÎ¹Îº ÏİÎ½
Îķ Î£
ĠÎ±Ïħ ÏĦÎ¿
ÏģÎ¯ ÎµÏĤ
ÏģÎ¯ Î¶
Î´ Î¯
ĠÎµÎº ÎµÎ¯
ĠÎºÎ¬ ÏĢÎ¿
ÏģÎ¯ ÏĤ
ĠÏĢÎµÏģÎ¹ Î¿
ĠÎºÎ± Î½
ĠÏĮ Î»Î±
Î³ Î±
ĠÎ¶ Ïī
Î» Ïī
ĠÎ» Î¯
ÏĦÎµ Ïģ
ĠÎ±ÏĢÎ¿ ÏĦÎµ
ĠÎµÎ½ Ïİ
ĠÎ´Î· Î¼Î¿
ĠÏĥÏħ Î¼
Î¹ Î»
ĠÎ´ ÏħÎ½Î±
ÏĮ ÏĦÎ·ÏĦÎ±
Î¼Î¬ ÏĦÏīÎ½
Î¼ Î¿Ïħ
Î½Î¿ ÏĤ
ÏĢÎ¿ Î¯
Î¯Î½ Î·
ĠÎķ Ïħ
ĠÎ¿ Î¹ÎºÎ¿
Î»Î» Î·
Ġh yn
Ġi es
áĥ¡ áĥ¢
ÐºÑĥ Ñİ
Ġe wá»į
ĠS E
ĠBib lu
v ie
Ġt an
Ġà´ª à´¿
áĢĨ áĢ®
ĠÒĽÑŀ Ð¹
ĠÐº ÐµÑĤ
Ð°Ð² Ð¾Ð½
«à¸Ļà¸ ±à¸ĩ
à¥įà¤¯à¤¾à¤ļ à¥ĩ
Ġà´İ à´¨àµįà´¤
Ø ¤
á»ĳ c
áģ¿áĢķáĢ®áĢ¸áĢ ±áĢĲáĢ¬áĢ·
áĢĢ áĢľáĢĬáĢ¹áĢ¸
áĤı áĢ¯
ĠáĢ±áĢ ģáĢ«áĢĦáĢ¹áĢ¸
ĠáĢĢáĢ¼ áĢº
ģ áĢĲáĢ¹áĢ
Ľ áĢĶáĢ¹
Ġ.. áģĭ
ĠáĢ±áĢĲáĢ¼ áĤķ
áĤıáĤĪ áĢĶáĢ¹áĢ¸
áĢĲáģ ±
áĢĻáĢ¼ áĢĦáĢº
Ġke ji
Ġà¦ķ à§ĭ
ÑĤ ÑģÑı
Ð½Ð¸ Ð¹
à¥ĩà¤ ľ
Ġa w
Ġpe u
ĠF o
s irisi
ĠÙ¾ ÛĮ
om áº¹
anu ary
Ġo orun
Ġà´µà´¿à´ ¶
áĥľ áĥĶáĥĳáĥĲ
Ġid in
ĠA b
Ġ ^
on us
Ġá»į fáº¹
Ġi jo
c ÃŃ
ya t
Ġro z
ĠÐ¼ ÐµÑģ
Ġaa mi
ĠAu gust
z á»įn
Ġidan wo
Ġori sirisi
Ġijá»į ba
Ġbá»į á»įlu
ĠYor uba
Ġmáº¹ ta
Ġt s
ĠK an
ĠJ anuary
ĠH e
à¦ ī
Ġáĥ¥ áĥķáĥĶáĥ§
ĠA p
á¹£ iri
ben i
ag o
Ġà´¨ àµĢ
ĠÃ© v
àª¤ àª¾àªĤ
Ġáģ ī
Ú© Ûģ
Ø§Ø ®
ĠW A
ow s
k ara
Ġï¿½ï¿½ï¿½ï¿½ï¿½ï¿½ï¿½ï¿½ ï¿½
Ġmo bile
lo po
Ġet tÃ¤
men to
N U
ĠA gb
Ġm und
áĢĢáĢ¹áĢ Ļ
ĠáĢŁ áĢ¬
ªà¸²à¸¡à¸²à¸£à¸ ĸ
ä» ¤
à¸Ńà¸ ±à¸
å¾® ä¿¡
0 7
ļà¸²à¸ Ħà¸²à¸£
Ġà¸ Ĭ
Ġçİ¯äºļ AG
Ġag äºļ
åħŃ åĲĪ
ä» ĺ
à¥ĭà¤ ª
Ġo jo
áĢĳ áĢ¬áĢ¸áĢŀ
Ġì ¡°
à´¨àµįà´¦ àµįà´°
Ġà®¤ à®²
Ġka adi
Ġi re
Ġà¦¬à¦² à§ĩà¦¨
Ġi ko
Ġi fihan
Ġfi la
ÉĽ n
Ġy ara
Ġne êŀĮ
ĠNi tori
ÑĤ ÐµÐ»ÑĮ
ĠIla na
li a
à¦¿à¦ķ à§ĩ
ÑĨ Ñİ
Ġ×ŀ ×Ķ
Ġpa to
z an
Ġàª¹àª¤ à«ģàªĤ
ĠáĥĲáĥĵáĥĲáĥĽ áĥĺáĥĲáĥľ
ti wá»į
h one
à´ķ à´³àµįâĢį
à´¿à´²àµĩ à´ķàµįà´ķàµį
ce book
H E
Ġy Ã¨
Ġla aye
Ġi ni
Ġà°® à°¹
Ġa li
Ġà®ĩ à®µ
dan u
D E
á¹£iri á¹£i
p er
Ġà°µà°¿à° ·
h am
Ø§Ø µ
à® ¨
ĵ à¤Ĥ
Ġá¹¢i á¹£e
Ġku e
Ġj á»į
ĠåĽ Ľ
ï¼ Ī
è´¨ éĩı
· à¸
§ à¸Ļ
çª ģ
åºĶ çĶ¨
§à¸ ĩà¸
ĠæŃ £
ç ĳ
åħ¨ åĽ½
«à¸ ¡
2 åĪĨå½©
å®ŀ çİ°
à¨ £
é Ł©
çĶµ èĦĳ
«à¸ ķà¸
ħ è¯»
è¯ ¢
åħ³ ç³»
Ġht ml
à¸´à¸ ĩà¸
åįķ èģĮä¸ļ
Ġåĩ ¤åĩ°
Ġà¤ħ à¤§
ĠÐµ Ð³Ð¾
Ñģ ÑĥÐ»
Ġle het
áĢ±áĢ¸áĢ ŀ
Ġà°ª à°°
ĠÑģÐº Ð»Ð°Ð´
ĠÑĥ Ð½
Ġako já»į
ĠI ro
ĠChin a
Ð¸Ð½Ð³ Ð¸Ð·
Ð°ÑĢ Ð´
ì ¦
r om
is an
Ġwa kati
Ġigb es
Ġà®®à®±à¯įà®± à¯ģà®®à¯į
ar áº¹
ĠáĥĹ áĥĳ
Ġá¹£ ie
Ġko o
áĥĿáĥļ áĥĿ
Ġes i
Ġaá¹£ á»į
Å¡an a
ĠÄĳ áº¿n
áĢĶáĢ¹áĢ ħ
áĢķáĢ« áĢ¡
ĠI tan
ĠB lack
Ã¨ Ì£n
un i
t Ãłn
à´¿à´Ł àµĨ
ãģ Ĭ
áĢĽáĢŃ áĢŀ
áĢĢáĢ¹áĢ ĲáĢ¬
áĢľ áĢ»áĢ¾
c ho
Ġà¦ķ à¦¿à¦¨
ki ng
ĠÐ¿ Ð°Ð»Ñĸ
à«Ģ àª¨
A L
Ġâ Ĥ
Ġp Ã«
ĠpÃ« pe
Ġ... ]
áº¹ li
ka le
h ia
Ġpin nu
ÐµÐ½Ð¸ Ð¸
à°ķà±įà°ķ à°¡
áĥĶáĥĳ áĥĸáĥĶ
ĠÐ¿ ÑĸÐ´
Ġpe lu
à´¿à´¯ àµĨ
ĠÐºÑŀÑĢ ÑģÐ°ÑĤ
ĠÐĲ Ð¼
Ġì¶ľìŀ¥ ìķĪë§Ī
ìĹ Ń
Ġæ¯ Ķ
Ġ3 4
ä»ĸ ä»¬
ªà¸´ à¸Ļà¸
Ġå¿« 3
éļ ľ
å¤§ åħ¨
ĠåĪ© æĿ¥
äº ®
Ġçº ¢
Ġæ¢ ¦
à¹ģà¸ ķ
Ġà¤ĺ à¥ĩà¤¤
ĠÐļ Ð°Ð»Ñĸ
à°³ à±įà°³
Ġigba siláº¹
Ġa lu
à´¦ àµįà´¯
ka s
ĠÕ ¶
mÉĻ si
áĢĺ áĢ¯áĢĽ
ĠØ³ Ø±
ĠK risti
b ul
Ġá»Į pá»įlá»įpá»į
Ġla koko
Ġi yara
ol d
R O
Ġa si
áĢķ áĢĬ
ĠM arijuana
ĠE x
wo ran
Ġà¦ı à¦¸
Ġàª¸ à«įàªµ
Ġori á¹£iriá¹£i
ĠÑģ Ð°Ð±
Ġe yin
Ġapa kan
ĠY a
Ġ×ŀ× ©
p le
ir u
Ġso ri
ãģª ãģĦ
Ġ3 9
áŁ ĭ
Ġæµ ·
Ġà¤ķà¥ĩà¤² à¥Ģ
m m
gb á»į
ÙĦ Ø©
Ġsz Ã¡m
ĠÐ¿Ð¾ Ñģ
áĥ¡ áĥĲáĥ®
ĠáĢ±áĢĶ áĢĽáĢ¬
±áĢĶ áĢĲáĢ²áĢ·
áĢĻ áģ»
ĠáĢĺ áĢļáĢ¹áĢľáĢŃáĢ¯
áĤĬáĢĲáĢ¹áĢ ±áĢĲáĢ¬áĢ¹áĢ
áĢĶ áĢļáĢ¹
áĢģáĢ²áĢ· áĢĽ
Ġà¦Ĩ à¦¬
Ġà°ķ à°¨
Ġà´¨ à´¿
te a
Ġvo tre
à«ĩàª ¡
ĠÏĮ ÏĦÎ±Î½
ĠÎ¼ Î¹Îº
Î¹Î¿ ÏĤ
ĠÎ¼ÎµÎ³ Î¬
Ġ Ïİ
ĠÏĢÏģÎ± Î³Î¼Î±
Î»ÎµÏħ ÏĦÎ±
ĠÎ½ Î¿
ĠÎ± Îº
Î´ Î¹Îº
ĠÎ±Î¾ Î¹Î¿
ĠÎ´Ïį Î¿
u d
ĠáĥĲáĥł áĥĲ
áĢ¼ áĢ¸
Ġáģģáģ Ĥ
áĥļ áĥĺ
ĠØ¬ ÙĨ
ĠáĢ±áĢĴ áĢ«
áĢĳ áĢ¼áĢĢáĢ¹áĢ
áĢģáĢ¶ áĢĽ
ĠÐ¼ÐµÐº ÑĥÐ½
ç´ §
à¤¾à¤¤ à¥įà¤°
Ġà¦ķà¦° à§ĩà¦¨
Ġì ½
ra z
Ð¿ Ð¾Ð»
Ġáĥ¡ áĥ¬
tu re
áĤ Ĵ
áĢģáĢ²áĢ· áĢĲáĢ²áĢ·
ĠáĢŀáĢ° áĢĢ
Ġæ· ±
6 1
¸à¸ ¡à¸
à¸Ńà¸²à¸ Īà¸
Ġ5 1
² à¤¾
ĠÐ³ ÑĸÑģÑĤ
áĢĻáĢ¾ áĢĶáĢº
Åĳ k
Ġka vi
ĠJi hova
t áº¹n
Ġiá¹£ a
ĠA ye
áº¹n isá»įrá»į
p ese
Ġy Ã¢
ĠN o
ĠI we
Ġà¦° à¦¾à¦ľ
Ġëĵ ±
Ġà´İ à´²àµįà´²
Ġà° ·
áº¹ kan
p ona
láº¹ n
Ġi mo
ĠÑĤ ÑĢ
á»ģ n
ãģ£ ãģŁ
t ti
) ;
) .
Ġàª¦ àª°
Ġgan do
Ġen i
Å« s
áĥª áĥĲ
Ġa ni
Ġ×Ķ× Ĺ
tion al
Ġà¦ªà§įà¦° à¦ķ
à±Ģ à°¨
Ġï¿½ï¿½ï¿½ï¿½ï¿½ï¿½ï¿½ï¿½ ï¿½ï¿½ï¿½ï¿½
Ġiá¹£áº¹ láº¹
ĠÙħ Ø§
Ġi rá»į
ĠTo p
ver si
ff ee
eg e
íĴ Ī
å± Ĭ
éĥ¨ éĹ¨
æĢ» ä»£
ä»· æł¼
Ġà¸ª à¸²à¸
à¹Ĥà¸ Ķà¸¢
ä¸Ń æĸĩ
ĠE 0
à©Ģ à¨
ms c
ä½ Ļ
æ¥ Ń
Ġè ·
Ġà¸ ģà¹ĩà¸
éĢ Ģ
¨ à¸²à¸
Ġà¨ ĩ
Ġà¤Ĺ à¥ĩà¤²
ĠÑı ÑĪÑĩÑį
sz e
C D
Ġá»į pa
Ġz o
Ġmeje eji
Ġilá»į siwaju
Ġa yáº¹wo
Ġa de
ĠY ou
a mi
Õ¡Õ ¾
Ġe dir
à´° à´£
K E
A M
Ġi waju
Ġa o
ĠA de
mi ted
Ġv áº¹
Ġc f
ri si
Y E
W O
Ġta idi
Ġn lo
Ġi boju
ĠNa ij
á¹£ in
ÚĨ Ú¾
om u
áĢ¸áĢĲ áĢļáĢ¹
áĢķ áĢ»
ri c
ng ana
Ġi gbo
Ġâ Ĩ
í ģ
Ġfi han
ĠSho w
ĠNitorin a
ĠI D
ĠH D
ĠG áº¹gáº¹
Ġp Ã©
ĠØ´ Ø¯Ùĩ
Ġà¦¦ à§ģ
Ġà¤¸ à¥Ģ
Ġgo re
Ġt l
áĢ±áĢ¸áĢ ¡
àª¿àª¯ àª¾
à±įà°° à°®
àµģà´ķ àµ¾
ļ Ðµ
ĠÐ± ÐµÐ·
ĠÃ¼ ber
ĠáĥĲáĥłáĥ ¡
Ġvol t
Ã ¦
ĠÐ± ÑĥÐ½
ĠÑĤ Ð°ÒĽ
Ġv Äĵ
is Ã«
ķáĢ¼ áĢ¯
Î¯Î½ ÎµÏĦÎ±Î¹
ÏĦÏĮ ÏĤ
ĠÎ¿ÏĢÎ¿ Î¯Î±
Î½Î¿ Ïį
Ġ @
Î¿Î½ ÏĦÎ±ÏĤ
ĠÎ´ Ïī
I d
Î½Î· ÏĤ
ĠÎ² Î¿
Î²Î¿Î» Î®
ÏģÎ± Îº
Ġd di
Ġä½Ĩ æĺ¯
Ġà¹Ĥà¸ Ķà¸¢à¸
äºº çĶŁ
ķà¸ ±à¹īà¸ĩ
ĠèĢ ģ
Ġ ä¸İ
Ġà¸ Ĭà¸
ä¸ĵ ä¸ļ
Ġag æīĭæľºå®¢æĪ·ç«¯
Ġæį ®
à¸Ļ à¹Įà¸
± à¹Īà¸ĩà¸
åħ¶ ä»ĸ
ªà¸´ à¹Īà¸ĩà¸
åĬł æĭ¿å¤§
à¥įà¤¯à¤¾à¤ µà¤°
à°ª à±Ī
ÐµÐ»ÑĮ Ð¼Ñĸ
Ð¾ÑģÑĤ Ð¸
Ġà§ «
Ġàªµ à«įàª¯
à§ĩà¦Ľ à¦¿à¦²
our s
áĥĲáĥ® áĥĶáĥĳ
á»© c
ìĺ ģ
Ġh ÉĻr
Ð· Ð½
Ġ à¹
å¾ ģ
à¹Ģà¸ §à¸
ç¯ ĩ
à¸µà¸¢à¸ §à¸
3 1
Ġè Ĥ
à¤¸ à¥įà¤¥
en te
Ð½Ð¾ ÑĹ
ni k
Ġà°Ĩà°¯ à°¨
ĠØ °
ĠÐ¾ Ð»Ð¸Ð±
ĠÐ¾ Ð»Ð¸ÑĪ
ĠÐºÑŀ Ð¿
ĠÑħ Ð°Ð»ÒĽ
ĠÑĤ Ð°Ñģ
Ġ×ĳ ×Ĳ
à±įà°Ł à±įà°°
ë° Ķ
ĠÐ¸ ÑģÐ¿
Ò Ĳ
ĠÐ¿ÑĢ Ñį
àªĽ à«Ģ
Ġcs ak
áĥ® áĥĽ
à Ń
Ġà¤¬ à¤¾à¤°
à±ģà°¨ à°¿
ĠS er
ĠD o
á¹£i á¹£e
stan bul
d ani
Ġtáº¹ le
Ġki ka
Ġip ari
Ġba si
ĠI ta
Ð°Ð²Ð°Ð½ Ð½Ñı
áĢ¬áĢ¸áĢľ áĢ½
ĠáĢ±áĢĴ áĢŀ
áĢĳáĢ² áĢĻáĢ½áĢ¬
ĠáĢŀ áĢŃáĢ¯áĤĶ
±áĢĢ áĢ¬áĢĢáĢ¹áĢ
áĢ¬áĢ¹áĢ ľáĢĬáĢ¹áĢ¸
áĢħ áĢħáĢº
à¯įà®ļ à®¿
á»į mu
ri ka
ar an
ãģĻ ãĤĭ
ĠìĬ ¤
Ð°ÑĨ Ð¸Ñı
Ñı ÑĤÐ¸
Ġda bi
à±ĭ à°Ł
ĠLo ri
Ġita ja
Ġif ara
1 åĪĨå½©
â ²
à¸£à¸§à¸ ¡à¸
3 D
ç £
à¤¿à¤ £
ĠB lu
Ã »
da ju
as e
Ġáº¹ mi
Ġ1 99
em ber
L O
Ġf u
áĢľ áĢ®
ĠØ§ Ø±
ĠÑİ ÑĢ
ĠÐº Ð°Ñģ
áĥ£áĥ ĳ
ÒĽ Ð¸
ĠNaij iria
c to
T A
Ġt ene
Ġo su
Ð¾ ÑĹ
ĠØª Ø±
ĠÏĮ Î¼ÏīÏĤ
Î³ Î·
ĠÎ¼ ÏĢ
ĠÎ´ Î¹Îº
ĠÎµÎ¯ ÏĩÎµ
f n
ĠÐ± Ñı
Ġv ei
Å º
àªŁ àª²
Ġko ko
Ã¡ si
à®¾à®³ à¯į
Ð»Ð°ÑĢ Ð´Ð°Ð½
ĠÑĥ Ð¹
Ð» Ð°Ð¼
Ð°Ð´ Ð°Ð½
v ÄĽ
Ġáĥ¬ áĥĺáĥľ
ĠO wo
ĠL E
ĠI gba
ĠH ack
ĠF or
káº¹ le
Ġn ÃŃ
Ķ áĢ²áĢ·
ĠáĢŀ áĢĬáĢ¹
ĠáĢľ áĢŃáĢ¯áĤĶ
ĠáĢķ áĢº
áĢĻ áĢ²áĢ·
Ġsh um
´ à¸Ļ
Ġé ¢
éĢī æĭ©
ä¼ļ è®®
¨ å¤©
Ġà¨ ²
è¯ ī
ķà¸´à¸ Ķà¸
æĽ ¾
Ġ à¹Ģà¸£à¸²à¸
çļ ®
à¤¿à¤µ à¤¸
ĠÑį ÑģÐ°
Ñĥ ÑģÑĤ
áĢ®áĢ¸áĢ Ĳ
à¯įà®ª à¯įà®ª
à±Ĥà° ª
Ġà¤īà¤¨ à¥įà¤¹
àª¾àª ¥à«Ģ
ĠáĥĽ áĥĲáĥľ
áĢ¬áĢ¸áĢ Ĩ
Ġs om
Ã© ho
áºŃ p
ĠÐĲ Ð±
ĠÐ°Ñģ Ð¾ÑģÐ¸
Ġâ Ķ
Ġâ ĸ
Ġìŀ Īëĭ¤
¹ à¹Ī
Ġç§ ĴéĢŁ
ç§ Ĵ
Ġà¨ ¬
Ķ à¹īà¸²à¸Ļà¸
Ġà¤ĩ à¤¤
ĠÔ ±
ÉĻr i
on n
ĠÐ¿ÑĢ Ð¾Ð´
áĢ»áĢķ áĢĶáĢ¹áĢ
ķáĢ¼ áĢ®áĢ¸
Ġà°¨à±ģà°Ĥà° ļà°¿
ho lo
Ø§ Ùĭ
en de
Ð°Ð» Ð¸Ðº
Ð°ÑĢ Ð´Ð¸
are a
à¯ģà® ´
Ñģ ÑĨÑĸ
ow i
Ð Ĵ
Ð» ÐµÐ½Ð¸Ñı
Ļàµįà´ ķ
à±ĩà° ª
i ta
Ġàª¨ à«ĩ
áĢļ áĢ±áĢ¬áĢĢáĢº
Ġu m
ĠÑĳ ÐºÐ¸
Ð¸ Ð´Ð°Ð½
ĠÏĢÎ¿Î» Î¹
ÎµÎ¯ ÏĤ
ĠÏĥÏĦ Î¿ÏħÏĤ
ĠÎ£ Ïħ
Ïį ÏĢ
Â ¬
Î» Ïİ
Î½Î± ÏĤ
ÏĦ ÎµÎ¹
Ïĥ Îº
Î¿Î½ ÏĦÎ¬
ĠÏĢÏģÎ¿ ÏĤ
ÏĨÎ¿ Ïģ
ĠÎ¬ Î»
Ġ> <
Î¿Î¹Î½ ÏīÎ½
ĠÎ£ Îµ
ÏĥÏĦÎ¹Î± ÏĦÏĮ
Ïĥ Î¼Î±
Î¸ Î¿ÏįÎ½
ÎĳÎ Ŀ
ĠÎĶ Î·
ri f
Ðµ Ò³
Ġà°ħ à°Ĥà°¤
v et
áĢĦ áĢ½
ĠL at
ci jas
Ú¯ ÛĮ
ĠáĥĶ áĥĻ
Õ¥ ÖĢÕ
ÉĻ lÉĻr
×ķ× ¦
ĠÑĢ Ð°Ñĳ
æİ ¢
æ¯ į
à¹īà¸ ĩ
à¥ĩà¤ ®
áĢ½ áĢĻáĢº
àµĢ à´¸àµį
ÑĪ Ðµ
Ġn ous
Ġde i
Ġàªµàª°à«įàª ·
Ðµ Ð¿
áĥĲáĥļ áĥ£áĥł
àµĨà´Ł àµģà´¤àµįà´¤
ĠÑį ÑĢ
ÑĥÐ¼ Ð°Ð½
ĠÐ± Ð¾Ð»
à¯įà® ¸
Ġà°¸ à±įà°µ
it Ã©
ëĲ ĺ
à´¸ àµįâĢĮ
åĨ Ļ
Ġé Ĺ
Ġçİ¯äºļ å®ĺç½ĳ
áŀ ĺ
à© į
è¡ ¥
éģ ĩ
æłĩ åĩĨ
æĺ¯ ä»Ģä¹Ī
åĲ ¦
Ġçī ¹
çº ³
à¤® à¤§à¥įà¤¯à¥ĩ
Ġg iá»
Ġà¦¸à¦® à§Ł
ĠÐ¹Ñŀ Ð»
ĠÐ¼Ðµ ÑĪÐ°Ð²
jÄħ c
z Äĥ
Î¾ ÎµÎ¹
ĠÎĳ ÏĢ
Î¶ Î¯
ĠÎ¹ ÏĥÏĦÎ¿
Î½ Î¬
ÏĨ Îµ
ÏĦÎ¿ Î¹
ĠÎºÏĮ Ïĥ
Ïĩ Ïī
Ïĥ Î¯
ĠÎ¼ Î¿
ÏģÎ± ÏĤ
Î¼ Î±Î¹
ĠÎ½ Îµ
ĠÎ² Î¬
ĠÏĩÏī ÏģÎ¯ÏĤ
ĠÏħ ÏĢÏĮ
ÏĥÏĦÎ± ÏĥÎ·
ĠÏĦ ÏģÏĮ
ĠÎºÎ±Î¸ ÏİÏĤ
Î» Î¹Î±
ĠÎķ ÏĢÎ¹
ĠÏĢÏģÎ¿Ïĥ Ïī
ĠÎ» ÎŃ
Ïģ ÏīÎ½
ÎµÎ¯ Î¿
Î´ Ïİ
ĠÎº ÏģÎ¹
Î¹ÎºÏĮ ÏĤ
ĠÎ³ Îµ
Î½ Ïİ
Îķ Î¡
Î´ ÎµÎ¹
Ġbo d
Ġg Ã¼n
Ä« bu
ĳáĢ² áĢĻáĢ½áĢ¬
¡ áĢħ
ĠÐ¡ Ð¿
Ã¡ la
ĠÐ³ÑĢÐ°Ð¼ Ð°Ð´
áĥ®áĥĿáĥķ áĥł
ĠØ³ Ø§ØªÚ¾
à´¯ àµĨ
àªµ à«ĩ
Ð°ÑĨÑĭ Ð¹
à¤¾à¤° à¤¾
áĢĳ áĢ±áĢ¬áĢĦáĢº
Ġv e
ĠÐ½Ðµ Ðº
à¦¿à¦ ·
Ġà°ħ à°²
Ġà´ª àµģà´±
i te
Ġàªµ àª¾àª¤
áĥĺáĥ ®
ģáĢ¼ áĢĦáĢ¹áĢ·
áĢ¸áĢ±áĢ ľ
ĠáĢĲ áĢŃáĢ¯áĤĶ
áĢĶ áĢ²
áĢĲ áĢŃáĢ¯
à«ĩàª² à«Ģ
ĠÃ¶ l
áĥĲáĥļáĥĺ áĥĲáĥľ
m Ã«
à¯Īà®¯ à¯Ī
ĠÑģ ÑĬ
di g
ĠáĢĻ áĢŀáĢŃ
Ġ×ķ ×Ķ
Ġà´ĩ à´Ł
áĢĢáĢ¹ áĤıáĢ½áĢ¬
ķáĢ« áĢĺáĢ°áĢ¸
ĠáĢ±áĢ ĺ
Ġáģ¿áĢĻ áĢŃáĢ³áĤķ
ĠáĢģáĢº áĢħáĢ¹áĢ
áĢĳáĢ¬áĢ¸áĢ ĲáĢ²áĢ·
à°¾à°² à°¨à±ģ
Ġà§ ¦
Ġà¤°à¤¹ à¥ĩ
áĢĨ áĢĽáĢ¬
da s
Ò ļ
ĠÑħÐ¸Ð· Ð¼Ð°ÑĤ
Ġau x
ÑģÑĤ Ð°Ð½
Ġà¦ķ à¦¥
áĢ± áģĢ
ĺ áĢ²
áĢ¡ áĢĳ
ĠÙĦÛĮ ÛĴ
ĠáĥĽáĥĹ áĥĲáĥķ
ia ÅĤ
Ðµ ÑĢÑĭ
èĥ ľ
æĺ¯ ä¸Ģ
à¤¾à¤·à¥įà¤Ł à¥įà¤°
ĠÒĽ Ð°ÑĤ
à´ķ à´¾à´°
e la
t Ãł
ĠáĢķ áĢ¶áĢ¯
áĢķ áĢŃáĢ¯
ãģ ©
ĠàªŃ àª¾àª°
Ĥ à¹īà¸²
5 6
à©° à¨
éķ ĩ
ľà¸ ¡à¸
Ġé ©
Ġ áĪ
à¤¾à¤¨ à¤¾
à¦¤ à§įà¦¤
áĥĲáĥłáĥĹ áĥļ
ë Ħ
ĠE r
à¯Īà®ķ à®³
ÐºÑĢ Ð°ÑĹ
Ñ ķ
Ð¾Ð¼ Ñĥ
Ġm Ã©g
áĢĻáĢ¹áĢ Ļ
Ð¾ÑĢ Ð°ÑĤ
à«Ģ àªĤ
is sa
àµĭ à´²
Ġáĥ¨áĥĶáĥ¡ áĥĲáĥ®áĥĶáĥĳ
ĠÐ°Ð± Ð¾
áĢĽáĢ½ áĢĦáĢ¹áĢ¸
áĢ¬áĢ¸áĢĻáĢº áĢ¬áĢ¸
áĢĻ áĢĽ
ĠØ± ÙĪ
Ä ı
áĢĸáĢ¼ áĢĦáĢ·áĢº
ĠÐ» Ð¸
ĠÒ³Ð°Ð¼ Ð´Ð°
Ñĥ Ð´Ð°
r Ã«
Ġg ia
Ġc zy
Ä±n Ä±
Ġàªª à«Ĥ
Ġà´® à´²
ĠáĥĽ áĥĲáĥĺ
Ġà°ī à°Ĥà°¦à°¿
h h
Ĺà¸µà¹Ī à¹Ģà¸
Ġà¸ Ľà¸£à¸°à¸
i os
å¢ŀ éķ¿
¡à¸ ·à¸Ńà¸
ĠæīĢ ä»¥
Ġ5 9
åĽ½éĻħ åİħ
åĪĽ æĸ°
Ġà¸ Ľà¸
Ġà¤µà¤°à¥įà¤ ·
v Ã©
Ð¾ÑģÑĤ Ð°Ð²
à´¸ àµįà´¤
ĠÚ©Ûģ Ø§
Ġáĥ¨ áĥĶáĥĵ
ĠìĨ Į
b ie
Ġb ona
Ġà¦¬à¦¿à¦¶ à§įà¦¬
ĠÐ³ Ð¾ÑĢ
à«įàª §
×ķ× Ĵ
Û °
ĠØ¨ ÙĪØ¯
v Äģ
Ð¸Ð½Ð³ Ð°Ð½
Ð¾Ð¼ Ð¸
u lui
Ã¶ k
å¤ «
Ġag 88
æľ Ŀ
å½© äºīéľ¸
3 2
Ġà¤¸ à¤¾à¤Ĥà¤Ĺ
à®¿à®¯ à®¾à®ķ
au x
Ġqu es
Ġs ind
à°¾à°² à°¨à°¿
áĢĦáĢ¹áĢ ĲáĢ¬
ĠM yanmar
áĢ¬ áĢĦáĢ·áĢ¹
áĢ° áĢĬáĢ®
à¥Ĥà¤ ª
ĠØ§ ÛĮ
ie j
áĢĢáĢ¼ áĢĬáĢº
ĠÃ¼ z
Ġáĥĺáĥľ áĥ¤
ìĥ Ŀ
g j
Ð°Ð² Ð°Ñŀ
ĠÒĽ ÑĥÑĢ
ãģ Ī
ĠÑŀ Ð¹
ĠÐµ ÑĤ
Ð¼ Ð°Ð¹Ð´Ð¸
Ð´ Ð¸Ð½
à±ģà°¤ à±įà°µ
ĠÐº ÐµÑĢ
ĠÐ· Ð°ÑĢ
ÙĬ Ùģ
à§ĩà¦² à¦¾
ĠáĢ±áĢ ĳ
ģáĢ¶ áĢĽ
áĥĵ áĥĺ
ķàµįà´ ·
ĠáĢ±áĢĲáĢ¬ áĢ¹áĢ
áĢĢ áĢ±áĢ¬áĢĦáĢºáĢ¸áĢ
te tt
le ment
Ġà°µ à°°
à§įà¦¯ à¦¾à¦²
Ġed il
Ġse x
Ġàª²à«ĭàªķ à«ĭ
Ġsun t
à¯Īà® ¨à¯įà®¤
Ð»Ñı Ð´
áĥĿáĥļ áĥĿáĥĵ
ĠÑĤÐ¾ Ð¿
ĠÑį ÐºÐ°Ð½
Ð»Ð°ÑĢÐ¸ Ð´Ð°
Ð³ Ð¸ÑĢ
çª į
ªà¸ ¡
åĬ¡ åĳĺ
Ĺ à¹īà¸²à¸
åľ° åĮº
à¥įà¤¯à¤¾à¤¨ à¥ĩ
Ġvá» ģ
àµįà´ ¨
b el
Ġìľ ł
ĠÎ» Î±
ĠÎµ ÏĨ
ĠÎ¼ Î¯Î±
ĠÎµÏĢ Î±
Î¸ ÏħÎ½
ar ch
ĠáĢĨ áĢĢáĢº
d os
ĠÐ² ÑĢÐµÐ¼
h le
Ð» Ð°Ñŀ
ĠØª Ú©
ÑĢ Ð¾Ð´
Ä¼ u
Ġà°ħ à°Ń
Ġà§ ª
11 éĢī
æĭ ħ
Ġé ĥ½
Ġæ³ ķ
åħ ¸
µà¹Īà¸ ¢à¸§à¸
Ġà¸Ĺà¸ ³
åĿ Ĺ
å¼Ģ å±ķ
åħ³ æ³¨
åĢ ĳ
app _
ĠçĽ ®
è± ¹
åĪĨ å¿«ä¸ī
ä¿Ŀ æĬ¤
Ġè ¥¿
Ġå» º
çŁ¥ éģĵ
åĨ ·
éĵ¾ æİ¥
èĥ½ åĬĽ
erstar s
Ġå¼ ł
Ħ à¸Ńà¸
èĪ ¬
æĶ¿ çŃĸ
ĠæĪ ĸ
à¥įà¤¯à¤¾à¤ļ à¤¾
ĠÙĦ Ø§
ĠÏĦÎ¹ Î¼
ĠÏĥÏħ Î³
ĠÎ¼ÎµÎ³ Î±Î»
Ġme wn
Ġà¤ Ĳ
ĠáĥĵáĥĲáĥ Ļ
à´¿à´ļàµįà´ļ à´¤àµį
r Ã³
×Ļ× ĺ
Ġà¦ı à¦®
Ġs ono
ĠÐ¼Ð¾Ð¶ Ð½Ð°
áĢĲ áĢļáĢ¹áĢľáĢŃáĢ¯áĤĶ
Ġáģ¿áĢķ áĢ®áĢ¸áĢ
ĠáĢķ áĢ²
ĠáĢĲ áĢĦáĢ¹áĢ
áģ¾áĢĢ áĢķáĢ«áĢĲáĢļáĢ¹
áĢĦáĢºáĢ¸áĢ ľ
àµĩà´° à´³
Ġà´ĩ à´µ
k Ã«
Ã½ m
àªĤàª ¡
Ġà°° à±ĭà°ľ
ta an
Ð³ ÑĥÐ½
à´ķàµįà´ °
Ġà®µ à®¿à®Ł
áĢ¸áĢ ĩ
áĢħ áĢŃáĢĲáĢ¹áĢ
áĢĶ áĢħáĢº
Ġáĥ¡ áĥĲáĥĵ
en n
àª¾àªµ à«Ģ
Ġà°ļ à°¾à°²
ÑĢÐµ Ð·
à¶ ±
Ġà¤¥ à¥Ģ
à¦§ à¦¾à¦¨
ju mu
Ð¸Ð» Ð¸ÑĪÐ¸
ĠÐ· Ð°Ð¼
Ùĥ ÙĨ
x t
àµĬà´° àµģ
à«įàª ļ
0 9
ĠagåĽ½éĻħäºļæ¸¸ å®ĺç½ĳ
Ġ2 åĪĨå¿«3
à¹Ī à¸Ļà¹Ģà¸
à¸µà¸¢à¸ §
éĶ Ļ
æ ¤
è´ ¦
æĹ¶ ä»£
Ġè¯ ¥
ï¼ ļ
à¸² à¹Ģà¸
Ġà¨¦ à©ĩ
ķà¸ ¥
èī ¯
æĭĽ èģĺ
è» Ĭ
æĿ¥ çļĦ
ç» į
æī ĳ
åıªä¸ºéĿŀ åĩ¡
æŀ ¶
22 2
à¸Ļ à¹Īà¸²à¸
æľº æŀĦ
è¿ĳ å¹³
çŁ Ń
ä»£ è¡¨
åį ´
ģà¹Ī à¸Ńà¸Ļ
Ġçİ¯äºļ å¨±ä¹Ĳ
ä¼ ¤
Ġà¤Ĩ à¤ľ
ĠÑĢÐ°Ð± Ð¾ÑĤ
ÃŃt Ã¡s
áĢŀáĢ° áĢ±áĢĲáĢ¼
áĢĨ áĢĦáĢº
ĠØ§ ÛĮØ³
Ġm á»
Ġà¦ķ à¦¾à¦ľ
ê° ķ
áĥĿáĥĳ áĥĲáĥ¡
c at
ÑĢÑį Ð´
àµĭ à´§
Ġà® ĵ
íĨ ¡
ì Ļ
c on
ĠÑģ Ð°Ð²
ĠáĢľáĢ¯áĢķáĢ¹áĢ ĦáĢĶáĢ¹áĢ¸
áĢĻáĢ» áĢ¾
ri t
åĲ «
ļ à¸Ļà¸
201 8
ģà¸²à¸£ à¹Ģà¸
Ħà¸ ´à¸
ä¸ª äºº
Ħà¸§à¸²à¸ ¡à¹Ģà¸
Ġà¤¤à¥įà¤¯à¤¾à¤ ļ
ĠÐº Ð¾ÑĤ
áĥĲáĥĵáĥĴ áĥĶáĥľ
ĠÑĳ ÑĪ
ĠÐ±Ñŀ Ð»Ð¸ÑĪ
Ð»Ð¸Ð³ Ð¸Ð½Ð¸
Ð¸Ð½ ÑĩÐ¸
ĠÐºÐµÑĢ Ð°Ðº
Ñħ ÑĤ
os ta
Ġà¦ķ à¦¾à¦
Ġà´¶ àµįà´°
áĢĲáĢ½ áĢĦáĢºáĢ¸
la s
ìĭ ¤
ho z
ĠÙĨ ÛĮ
ÑģÐºÑĸ Ñħ
Å¡ o
tse ng
à¯ĭ à®¤à¯ģ
×© ×¨
Å© ng
Ġ$ (
àªķ à«ĭ
ÐºÑĸ Ð²
Ġà¦¨ à¦¾à¦®
ìĦ ł
à¥ĩà¤ Ĺ
Ð· Ð¸
àµģà´ķ àµĬ
ÉĻ si
ti que
áĢ¡ áĢķáĢº
à°Ĥà°¡ à°¿
Ñı Ð´
Ġh at
Ġáĥ§áĥķáĥĶáĥļ áĥĲ
à´¯ à´¿àµ½
ìĿ´ ëĭ¤
à¦¾à¦° à¦¾
Ïĩ Î·
ÏĢ Î®
ĠÎ¼ Î¬
ia d
ĠÐ½ Ð°Ð´
Ġà®ī à®Ł
Ġà« ¨
àª° àª¾àª¤
er Ã«
à¤¸ à¥Ģ
Ġàª¨ àª¾
Ġf ost
ĠØ§ÙĦ ÙĦÛģ
ĠÙĦ ÙĪ
ãĤ ģ
b Äģ
áĥĺáĥª áĥĺ
ow ych
ĠI l
à°¾à°² à±ĭ
ÐºÑĸ Ñı
Ġn Ã¡
mi z
ĠP h
Ġáĥ« áĥĲáĥļáĥĺáĥĲáĥľ
æĿ İ
å° Ħ
Ľà¸¥ à¸µà¹Īà¸
§ à¸´
«à¸¥à¸²à¸ ¢à¸
Ġag ç½ĳæĬķ
åĪĨ é£ŀèīĩ
äº¤æµģ ç¾¤
Ġ5 3
çŃ ¾
à¹ĥà¸«à¸į à¹Ī
Ġ5 2
Ġà¸ «
à¥ĭà¤ ¬
ĠáĢķ áĢ¯áĢ¶
m Ä±ÅŁ
ĠØ§ÙĦ ÙĪ
ĠÐ½ Ñĸ
Ġà®İ à®´
ĠÃ ī
ÑĨ Ð¸Ð¸
Ġà¤µ à¤¹
áĥĿáĥľ áĥĺ
Ġë ¹Ħ
g at
k Ã¤
ĠÑįÑĤ Ð¸ÑĪ
ĠÒĽÑŀ Ð»
ĠÑģ Ð¾Ð½
àª¤ àª¿
ĠÙħ Ø´
Ð ĳ
ĠÒĽ Ð¾Ð½ÑĥÐ½
ĠÐł Ð°Ñģ
à®¸ à¯į
ĠÎ±Ïħ ÏĦÎ¬
ĠÎ²Î± Î¸
ĠÎŃ Îº
Î³ Î¿Ïħ
ÏĢ Î¹Ïĥ
Î¯Î¶ ÎµÎ¹
y w
ĠlÃł m
à¦¾à¦² à§ĩ
à°Ĥà° ¬
ĠÐ¼Ð¾Ð¶ Ð°
ĠE s
áĥļ áĥĶáĥĳáĥĺáĥ¡
åį ĸ
¥à¸ ±à¸
12 3
p c
çĻ ¼
ļ à¹īà¸²à¸Ļ
Ġ4 6
Ġ ā
è¾ħ åĬ©
ä»¥ åıĬ
à¹Ģà¸Ĥ à¸²à¸
åĪ »
Īà¸ ³à¸
åī §
à¥ĭà¤ §
ĠáĢĻáĢ¼áĢĶáĢº áĢĻ
áĢľ áĢ¶áĢ¯
ĲáĢ¼ áĢĦáĢ¹áĢ¸
áĢ±áĢ¬áĢĦáĢº áĢĽáĢ½áĢĢáĢº
Ġà´¨à´¿à´° àµįâĢį
Ġprze z
ĠÐ±Ð¾ÑĪÒĽ Ð°
ÑĩÐ¸Ð» Ð¸Ðº
Ð°ÑģÐ¸ Ð³Ð°
Ð°Ð¼ Ð»
Ġà´µ à´¿
áĢĺ áĢ±áĢ¬
k Äģ
Ð¼ Ð°ÑĤÐ¸
ĠgÃ¶ r
Ġà´ªà´±à´ŀàµįà´ŀ àµģ
ĠÐ¼Ð¾Ð¶ ÐµÑĤ
à±įâĢĮ à°²à±ĭ
Ġáĥ¡áĥĲáĥ £áĥ
×Ļ× ŀ
Ġya ng
a j
ĠÑĤ Ð°Ð»Ð°Ð±
Ð´ Ð·Ñı
à«Ģàª ²
áĢķ áĢ±áĢĻ
Ġà®ķ à®¾à®²
Ġ á»Ł
±áĢĳáĢ¬áĢĦáĢ¹áĢ ħáĢ¯
áĢĲáĢ¬ áĢĢ
áĢ¼ áĢĶáĢ¹áĢĻ
áĢĻáĢ¹áĢ ĺ
Ġç Ĥ
Ġà¤° à¤¾à¤¹
à§ģà¦° à§ģ
Ġà¤¬ à¤¹
Ġe ta
ĠÃ ª
Ø§Ø± Ùĩ
an e
àµ¼ à´¤àµįà´¤
Ð°Ñĩ Ð°
Ð¸Ð¼ Ð¸
ë© °
Ġwer den
le g
Ð³ Ðĥ
ĠÑį Ðº
ĠáĥĴ áĥĲáĥł
à°¾à°Ĥà° Ł
Õ¡Õ¯ Õ¡Õ¶
Ä± x
Ġàª° à«Ģàª¤
ĠÎ³ Î½Ïī
Î¿Ïħ ÏģÎ³
Îĳ ÎĻ
ÏĩÎµÎ¯ Î¿
ÏģÎ¿ ÏįÎ½
ĠÎµ Î½Î·
G H
ĠÏĦ ÏģÎ±
Î© ÎĿ
ĠÂ §
ĠÎ±Î½ ÏĦÎ¯
Î¼ Î¯
ĠÂ µ
ĠÐł Âµ
ĠÏĥÏħÎ½ Îµ
Ïĥ Î¿ÏħÎ¼Îµ
ĠÐłÂµ Ðł
ÏĥÎ¹Î¼Î¿ ÏĢÎ¿Î¹
Ġ... </
Î¸ Ïħ
Îµ Î²
ĠÐ¡ Ð
Ïģ ÏİÎ½
ĠÐł Ñĳ
Ò ĳ
ĠÏĢ ÎŃ
ÏĦÎ¿Ïħ ÏģÎ³
ĠÏĥÏħ Î¼Î²
Òĳ Ðł
ĠÐ¡Ð Ĭ
ĠÎµÏĢÎ¯ ÏĥÎ·ÏĤ
ĠÐł ÒĳÐł
ĠÏĢ ÏģÎ¬
Î¸Îµ ÏĥÎ·
ĠÎº ÏģÎ¹ÏĦÎ¹ÎºÎŃÏĤ
ĠÎºÎ¬Î½ ÎµÎ¹
ĠÐłÑĳ Ð¡
Ġne u
Ð°Ñİ ÑĩÑĭ
ĠÐ½ Ð°ÑĢ
ÅĻ ÃŃ
ĠÙĦ Ø¦ÛĴ
ĠÙĪ Øª
Ð°Ð± Ð¸
áĥĶáĥ¡ áĥ¢
à¦¿à¦ ļ
h te
cion es
Ġà¤ķ à¥ģà¤
va Å¥
ĠØ§ Ùģ
à±ģà°¨ à±ģ
Ä« t
áĢ¯áĢŃ áĤķ
áĢŃáĢ¯áĢ¸áĢ ŀ
ãģĭ ãĤī
à®¤ à®¿
Ð¼ Ñĭ
Ġfo g
Õ ¯
ĠkeÃ§ ir
áĢĶáĢ¹áĢ¸ áĢĢ
ĠáĢĺ áĢļáĢº
Ð°Ñ ļÐµ
Ð°Ñħ Ð¾Ð´
áĢĽáĢŃ áĢ½
ĠáĢŀáĢŃáĢĽ áĢŀáĢĬáĢ¹
áĢĶ áĢĢáĢº
ar Ã«
ĠÑĤ Ð°Ð²
Ġáĥ¡áĥĲáĥ¥ áĥĽ
ä¸ ½
à¸µà¸¢à¸ ĩà¸
à¤²à¥ĩà¤² à¥įà¤¯à¤¾
Ġà¦¤ à¦¾à¦¦à§ĩà¦°
×ł ×ķ
Ġà´¸ à´¿
Ġà´¸ à´¹
ĠáĥĲáĥ ļ
à¯Ģ à®°
Ġje d
Ã© ra
à°¡ à°¾à°¨à°¿à°ķà°¿
ÑĬ Ð»
Ø§Ø ·
ti i
Ġy er
ĠÃ®ntÃ¢ln iri
t ul
Ġàª¦ àª¿àªµ
Ġà´ķ àµĩà´°à´³
ÅĨ u
àµĨà´Ļàµįà´ķ à´¿à´²àµģà´Ĥ
ĠáĢģáĢ¯ áĢĶáĢ¾áĢħáĢº
Ã¶ tt
Ġáĥ¡áĥ®áĥķ áĥĲ
à®¤ à¯Ī
íķ ©
ĠÐĵ ÑįÑĤÐ°
Ġà¤¸ à¤¬
Ġal s
Ġàª¤àª® à«ĩ
Ġv et
ĠÑ Ķ
ĠÐ¼Ð¾Ð¶ Ð½Ð¾
×Ļ× ¤
Î¹ Ïİ
ĠCym ru
ĠÐłÂµÐł Âµ
ĠÎ³ ÏģÎ±
ĠÏĢÏģÎ¿ÏĥÏī ÏĢ
ĠÎĿ Î±
Î¿Ïį Î¼Îµ
b l
ĠE l
à¦Ļà§įà¦Ĺ à§ĩ
«à¸¡à¸ ·à¸Ńà¸Ļà¸
ģ à¸£à¸£à¸¡à¸
Ġ à¸Ļà¸²à¸
åıĳ çİ°
ä» ª
Ġà¤¤ à¥ģà¤®
p ra
Ġà®¨ à®¿à®±
ĠÑĥ Ð½Ð¸Ð½Ð³
ĠÑĦÐ°Ð¾ Ð»Ð¸
ĠÐ¾Ð´ Ð°Ð¼
àµĤ à´°
ĠáĢ¡ áĢĽáĢ¬
Å¡ a
Ġh lo
ĠÐ°ÑĢ Ð³Ð°Ð½ÑĸÐ·
ĠÙħ Ø±
à¦¾à¦ £
ĠáĥĹáĥĳ áĥĺáĥļáĥĺáĥ¡
Ġáĥĵ áĥĲáĥľ
ÑĢ ÐµÐ´
±áĢľ áĢ¬áĢĢáĢ¹áĢ
ģáĢ¼ áĢĦáĢºáĢ¸
áº¥ y
m is
Ġà´ħ à´Ń
ĠÐ¢ Ð°Ðº
áĥĺáĥĻ áĥ£áĥłáĥĺ
ì¶ľìŀ¥ ë§ĪìĤ¬ì§Ģ
Ġì ¢
d Åĳ
ĠÒ³Ð°ÒĽ Ð¸Ð´Ð°
ĠÐŁ ÑĢÐµÐ·
Ð¾ÑĢ Ð¾
on y
ãĤ Ħ
Ð·ÐµÐ½ ÑĮ
men te
à®ķà¯įà®ķ à¯ģ
àµģà´¤ à´¿à´¯
à¤Ĥà¤ ķ
áĥĶáĥķ áĥĶ
áĢģáĢ²áĢ· áĢŀáĢĬáĢº
ĠàªŃàª¾àª° àª¤
ĠÐ² ÐµÐ»ÑĮÐ¼Ñĸ
ÙĤ ÙĬ
ÑģÐº Ð¾Ð³Ð¾
à«Ģ àª°
à´ķàµįà´ķ à´¾à´°
Ġà¦¬à¦¿à¦ Ń
ĠØ¨ Ø§Ø´
Ã© es
Ġshum Ã«
ĠÐº ÑĥÐ»ÑĮ
à¯ģà® ªà¯į
Ġàª¥ àªĪ
Ġà°ª à±Ĭ
ĠÎł Î¿Î»
f er
Ġà¤¦ à¤¿à¤¯à¤¾
Ã¡ o
Ġ×Ķ× ¢
ÙĤ Øª
ĠÐ½ Ð¾Ð²
Ġà´ª àµĨ
ĠÕ «
Ã¶ y
ĠáĥĲáĥĵ áĥĴ
da l
ê± °
àµĭà´Ł àµĨ
t lo
ĠÐ¿ Ð°Ð¿
Ġà¦¸ à¦¹
Ð´ ÐµÐº
ĠÑĤÐ°ÑĬ Ð¼Ð¸Ð½
Ðº ÑĥÑĢ
Ġp rin
Ġigb imá»į
Ġibara áº¹nisá»įrá»į
Ġc olle
Ġai le
Ġ Å
ĠI stanbul
Ġob inrin
Ġki ká»į
ĠW o
ka láº¹
Ġà®ļ à®®
à´¿à´ķàµįà´ķàµģà´¨àµįà´¨ à´¤
ĠÑģ Ð¸
à¹īà¸Ńà¸ ¢à¸
à¸Ļà¹īà¸ ³
é ¼
Ġåı¯ ä»¥
ĠâĢĶ âĢĶ
ç§ ĴéĢŁ
¨à¸ ¶à¸ģà¸
à¹īà¸ ¡à¸
Ġ à¹Ħà¸Ķà¹ī
æľ Ĺ
æľ ¨
à¤¾à¤Ĥà¤ļ à¤¾
à±Ĥà° ²
Ð°Ð½ Ð¸Ñı
Ġàªµàª¿àª ¶
s Åĳ
d on
Ġe ti
ĠBa yi
Ġa se
Ð°Ð» Ñİ
à¤ ¢
s ki
ĠW or
ĠA d
tu tu
po pe
Ġwáº¹ áº¹
Ġwu lo
Ġe en
Ġnu de
Ġhi áº¹
ag un
Ð°Ð»Ñĸ ÑģÑı
Ùħ Ø¯
à¦¤ à§įà¦¯
Ġà®ļà¯Ĭ à®²à¯įà®²
Ġáº¹ da
Ġoun jáº¹
ĠØ¬ Ø¨
ĠO f
ĠáĢ±áĢĽ áĢ¼áĢ¸áĢ
áĢ® áĢĴáĢ®
ĠÑģ ÑĤÐ¾
ĠAn dro
ng u
ki ta
Ġmi má»į
Ġlo êŀĮo
Ġd agba
tiwá»į ki
F A
ĠÃĮ tÃłn
Ġsi se
Ġà®ħà®¤ à®¿à®ķ
áĥĺáĥľ áĥĺ
t l
Ġk pa
Ġis in
ĠP u
¯ ¼
áĢ±áĢĲáĢ¼ áĤķ
áĢ¡ áĢģáĢºáĢŃ
áĢ¸áĢ±áĢ ķ
Ŀ áĢ«
ĠI ru
Ġà¤ľ à¤¿à¤¸
áĢ°áĢ¸áĢ ħ
Ġiá¹£ an
à±ģà°Ĥà° ¡à°¾
Ġc ru
Ġala koso
Ġ201 0
res s
pu ta
à¦¸ à¦²
ĠÑıÐº Ð°Ñı
to v
ju má»į
am ba
Ġiá¹£ iro
Ġe ja
ĠS I
ĠM O
ĠJ áº¹
u a
ow er
Ġsá»į rá»į
Ġi wu
Ġaá¹£ oju
Ġawo á¹£e
Ġa á¹£eyá»įri
à§Ģ à¦¨
ĠO ju
c ÉĻk
ĠAndro id
ĠA M
Ġ201 1
li mited
Ġw an
Ð¾Ñģ ÑģÐ¸
Ã¶ r
Ġo g
ĠÐ¼ Ð°Ðº
à«ģàª ¦
áĢĬáĢº áĢ¸áĢ
×Ļ× ¡
Ġà´µ àµĪ
ÐµÐ½Ð¸ Ð¹
´ë Ŀ¼
Ġaba jade
Ø¹ ÙĦ
Ġå® ĥ
Ġà¤ħà¤¸ à¤²
Ġa yen
ĠO r
Ðº Ð°Ñħ
Ġd is
ãĥ ķ
Ġëı Ļ
ĠÐ½ Ð°Ð¼Ñĥ
ĠJ une
versi ty
du ra
Ġá»į sáº¹
Ġs ho
Ġnu kun
Ġi hwo
Ġe we
Ġati já»į
ĠSi báº¹sibáº¹
Ã© Ì£
ĠáĥĻ áĥķ
à°Ĥà°¦ à±ģà°ķà±ģ
ĠLat vi
Ġl Ä«dz
Ġà´ķ à´°
ĠáĢķ áĢĲáĢ¹áĢŀ
áĢ´ áĢ¸
áĢ±áĢ ģáģļ
ľ áĢŃáĢ¯áĢĢáĢ¹áĢ
áĢĦáĢºáĢ¸áĢ ħ
Ġà°ļà±ĩà° ¶
Ġc áº£
ĠÙĨ Ùħ
es sa
áĥĴ áĥĲáĥľ
ĠÐ°Ð´ Ð·Ñĸ
ĠÎ³Î¹Î± ÏĦÎ¯
Î¼ÏĨ ÏīÎ½
Î´Î· Î³
Î½ Îµ
Ġd d
en s
à¦° à§ĩà¦°
Ġà®ª à®°
³à¸ Ħà¸
Ġà¤® à¤¾à¤
à«ĩàª ĸ
Ġà´¨ à´¿à´¯
áĢķ áĢ¯
Ð¾ Ñİ
ÃŃt Ã©s
à°° à°£
áĢŁáĢ¯ áĢĲáĢ¹
ĠáĢļ áĢ¬
Ġt so
ĠÑĥ ÑģÑĤ
ä¹ł è¿ĳå¹³
· à¸Ńà¸ĩ
ĠagçľŁäºº æ¸¸æĪı
è´ ¸
11éĢī 5
10 åĪĨå½©
ģà¹Ī à¸Ńà¸Ļà¸
Ġæ ´
é¡ »
åĲ ¯
à¹īà¸ ³à¸
à¸£à¸µà¸§à¸´à¸ §
à¥ĥ à¤¤
nie j
ie i
ĠÑĤ Ñĥ
Ð»Ð¸ ÒĽ
ĠÐ¹Ñŀ ÒĽ
ĠÐŁÑĢÐµÐ· Ð¸Ð´
Ñ ļ
Ð Ĺ
Ð ¨
ÑĥÐ¼Ò³ÑĥÑĢ Ð¸Ð¸
ĠÐ°Ð¼Ð°Ð» Ð³Ð°
Ñĥ Ð´Ð¸
Ø§ÛĮ Ø§
ÙĦ ÙĪØ¯
v y
ĠgÃ¶ rÉĻ
ĠáĢĻ áĢ®áĢ¸áĢ
ĠØª Ø§
Ġàªª àªĽà«Ģ
m ir
Ġtáº¹ siwaju
Ġre Ì£
ĠI pele
ĠA á¹£a
á»į láº¹
y á»įn
ro ad
p hi
ng i
áĢĢáĢŃáĢ¯ áĢļáĢº
ci d
Ġá»į ráº¹
Ġáº¹ tá»į
Ġlo di
à®° à¯ģà®®à¯į
Ġd á»įna
ĠJ Ã©
ĠI ya
Ġm iran
ĠÑĩ Ðµ
Ġr Ã©sz
áĥ§ áĥĿáĥ¤
ĠE ng
ĠØ§ÙĦØª ÙĬ
ĠÐ± Ð°Ð»
ĠB ur
ĠB onus
ng e
ìĭ Ŀ
n Ã«
f á»įwá»į
àµĩ à´¾
àµĭà´Ł àµį
amáº¹ ra
abo bo
B O
Ġá¹£a fihan
ĠDa vi
à¦¾à¦° à§ĩà¦°
ke ji
åĲ ¸
éĥ½ æĺ¯
Ġæ±Ł èĭı
ä¸Ģ æŃ¥
Ġ ä¸»
ä¸į èĥ½
è¿ ·
Ġd88 å°Ĭé¾Ļ
æī ĺ
æ¶ ¨
å² Ľ
Ġà¹Ģà¸ŀà¸£à¸²à¸ °à¸
Ġ2019 å¹´
à¹Īà¸²à¸ §à¸
è¿ Ŀ
5 7
ä¿ ĥ
è¡ £
éĢ ı
çĸ Ĺ
Ġè ī
Ġç¾İ åĽ½
Ġå¤§åıĳ å½©ç¥¨
Ġ Ćć
Ġag88 çİ¯äºļ
Ġäºļæ¸¸ app
Ġà¤¹à¥ĭà¤¤ à¥Ģ
±áĢķ áĢ¸
áģ¾áĢĢ áĢĻáĢ¹áĢ¸
áĢ±áĢķ áĢ¸
áĢ±áĢ¸áĢ ľ
à°® à±ģ
Ġigba dun
Ġi gi
à±ĭ à°Ĥà°¦à°¿
Ġjo a
Ð½ÑĭÐ¼ Ð¸
Ġba keng
ĠIs ra
ĠEle yi
áĥĶáĥĳ áĥĶáĥļ
à°¾à°² à±įà°²à±ĭ
ĠÑĤÐ°Ð´ Ð±Ð¸ÑĢ
ĠÐ¼Ðµ Ò³
Ġ" .
ag i
Ø§Ø± ÛĴ
ag bá»į
Ġà´İ à´Ĥ
Ġá¹¢i gba
Ġo p
Ġipa má»į
Ġfo ju
Ġà®µà¯ĩà®£à¯įà®Ł à¯ģà®®à¯į
Ġdu du
à«ĩàª ľ
ĠA s
à´° àµĨ
êŀĮ a
à² °
sh i
po r
ĠÃ ²
ĠÐ¿ Ð°Ñŀ
¡ áĢĲáĢ¼áĢĦáĢ¹áĢ¸
ĠáĢħ áĢ®
ãģĵ ãģ¨
è ĵ
Ġá ī
Ġpo k
à¸´à¸ Ķ
é¾Ļ èĻİ
à¹īà¸Ńà¸¡à¸ ¹à¸
Ġè ¢
éļ ı
ľà¸ ¥à¸´à¸
Ġagçİ¯äºļ å®ĺç½ĳ
åĩº çİ°
Ġà¤¯ à¥ĩà¤¤
à§ģà¦ ĩ
ĠÒĽÐ¸Ð» Ð¸Ð½
ĠÑģ Ð°Ð¹
áĢĦáĢŃáĢĻáĢ¹áĢ¸ áĢģáĢºáĢĻáĢ¹áĢ¸
áĢ½áĢ± áĢĢáĢŃáĢ¯
Ġà°® à°¾à°Ł
áĤĪ áĢķáĢ¹áĢ
áĢ¬áĢ¸áĢ ±áĢ
Ġáģģáģ ħ
iá»ĩ u
Ú© ÛĮ
àª¾àª¨ à«ĭ
Ġáĥ¡áĥĲáĥ ¨
áĢĤ áĢº
Ġ×ĳ ×¢
à¥ĩà¤ ¦
à®¿à®ķ à¯į
à¦°à§įà¦ ¥
ĠáĢ¡ áĢĲáĢ¼áĢĢáĢ¹
ĠáĢķáĢ« áĢĲáĢ®
Ġìĭ ł
Õ¥ Õ¶
Ġq ar
Ġà´ķ à´Ł
ĠáĢ¥áĢķ áĢ±áĢĴ
ĠáĢ¡áĢľ áĢ¯áĢķáĢº
Ġt ar
Ġà°ªà±įà°°à°Ń à±ģà°¤à±įà°µ
ĠÐ¡ ÑĤ
ľ áĢ²
è¿ ½
åŃ¦ çĶŁ
n s
à¹īà¸ ĩà¸
ª à¸µà¸
Ġåľ °
Ĺà¸ ĩà¸
Ġå Ŀ
Ġà¤ķà¥ĩà¤² à¥ĩ
t le
à°Ł à±įà°²à±ģ
ĠÑı ÑŀÐ»Ñı
Ġáĥ¡ áĥŀ
st Äģ
Ð°Ñ ĺ
ĠØ³ Ø§ÙĦ
áĢ½ áĢ¬áĢ¸áĢĽ
Ġt áº¡i
Ð»Ð°ÑĢ Ð¸Ð½Ð¸Ð½Ð³
ĠÐ¢ Ð¾ÑĪ
ĠÐ¿ Ð°Ð¹
åľ¨çº¿ è§Ĥçľĭ
à¤¾à¤ ĵà¤Ĥ
Ġà´° à´£àµįà´Ł
àªĤàª ļ
vo ir
ê° ľ
Ġáĥ£áĥ¤ áĥłáĥĿ
Ġv Å¡
Ġà°ªà±Ĩ à°Łà±įà°Ł
ĠÐ¾ Ð·
à´¦àµįà´¦ àµĩà´¹
à¦ª à§ģà¦°
Ø§Ø ¶
à®¾à®¤ à¯ģ
à§įà¦ Ľ
Ġc i
à±Ĩ à°ķ
Ð± ÐµÐº
ĠÑĤ Ð°Ð¹
ĠàªĨ àªľ
Îº Î·
ÏĦÎ¿ Î³ÏģÎ±ÏĨ
ĠÏĮ ÏĩÎ¹
Îº ÎµÎ¹
ĠÏĢ Î¯
Î´ ÏĮ
Ġ/> ...
ÏģÎ¿ ÏĨÎ¿
Ġgy da
áĢ¹áĢ Ļ
¥ áĢ®áĢ¸
ĠáĢĳ áĢ¯áĢĲáĢº
ĠÑĢ Ð¸Ð²
Ð°Ð¼Ð» Ð°ÐºÐ°ÑĤ
ĠÑĩÐ¸ÒĽ Ð°ÑĢ
ĠÐ´Ð¸ Ð³Ð°ÑĢ
æ© Ł
å¹ ¸è¿Ĳ
ç» Ŀ
ãĢ İ
à¹Ģ à¸Ńà¸
ľ à¹Īà¸²à¸Ļà¸
ç» §
«à¸¡à¸ Ķ
ä¹¦ è®°
æ± ī
Ġç ¦
å¾Ī å¤ļ
Ġè ĥ½
é Ĩ
æĻº èĥ½
į à¸²à¸
Ġà¸ «à¸£à¸·à¸Ńà¸
à¹Ģà¸Ĥ à¸²
Ĭ à¤¨
Ġk ell
Ġà® ¸
à°Ł à±įà°²
à«ĩàªŁ àª²
Ġìĺ ģ
ĠÐ¿ÑĢ Ð°Ð³
Ð¾Ð²Ð°Ð½ Ð¸Ñı
Ġà¦ķ à¦¿à¦Ľ
áĢģ áĢĦáĢ¹áĢ¸
áĢ¬áĢ¸áĢĻ áĢ»
Ġà¤ĩ à¤¨
Ġv or
ĠÐ£ ÐºÑĢÐ°ÑĹ
ÐºÐ¸ Ð¹
à´Ļàµįà´Ļà´³ àµģà´Ĥ
Ġna j
Ġáĥĵáĥĺáĥĵ áĥĺ
ç»ı å½©ç¥¨
Ġà¸ ¢
ç§ Ģ
à¸£à¸£à¸ ¡
Ġag å®ĺæĸ¹
å§Ķ åĳĺ
è½ ®
è§Ħ åĪĻ
Ĺà¸µà¹Īà¸ Īà¸°à¸
Ĺà¸³ à¹ĥà¸«à¹īà¸
Ġà¤¤ à¥įà¤¯à¤¾
Ġ×© ×Ķ
Ġ/"> </
ĠÎ² ÏģÎ¯
Î½ ÏĮ
ÏĬ ÏĮÎ½
Ïĩ ÏģÎ¹
ÎŁÎ Ŀ
Îº Î»Î·
Î¼Î¹ Î¿ÏħÏģÎ³
ÏĢÎ· ÏģÎµ
ĠÎķ Î¯Î½Î±Î¹
Î §
Î¼Î¿ ÏĤ
Î¼Îµ ÏģÎ±
ÏĥÏĦÎ· Î¼Î±
Ġ< /
Î´ ÎŃ
ĠÏĩÏģÏĮ Î½Î¹Î±
wy n
Ġà°¨ à±Ģ
m Äĵ
ÑĬ ÑĤ
ĠÑŀ Ð²
á» ı
ĠØ§ÙĦØ °
Ġent re
ks en
la ng
Ġki mi
Ġt Ã¡
ÙĤ ÛĮ
ĠÐ´ Ð¾Ð»
Ġà¤°à¤¹ à¤¾
Ġà°ħ à°¦
ĠáĥłáĥĿáĥĴ áĥĿáĥł
ëį °
Ġåĩ¤åĩ° å¤§
èĥ Į
Ġåĩ¤åĩ°å¤§ åıĤèĢĥ
åĪ ·
Ġçİ¯äºļ æīĭæľº
p j
èĤ ī
Ħà¸ ´à¸Ķà¸
à¤¾à¤£ à¥Ģ
Ġà®ī à®£
Ġà´Ĩ à´µ
re j
ĠÒ¶ ÑĥÐ¼Ò³ÑĥÑĢÐ¸Ð¸
Ġàª² àª¾àªĹ
Ð¼ Ð¸Ð¹
ĠÑĩ Ð¾ÑĢ
ĠÐ¯ Ðº
Ã¡n ÃŃ
Ġà¤ľ à¥Ģ
áĥĲáĥ «áĥļ
Ġtr a
à°¾à°Ł à±ģ
ŀ áĢĬáĢ¹áĢ
áĢĦáĢ¹áĢ ±áĢĲáĢ¼
±áĢľ áĢ¸
áĢĢáĢ¹áĢ ĻáĤĪ
Ķ áĢļáĢ¹
ĠáĢĶ áĢ¶
ĠÑŀ ÑģÑĳ
Ġàª¸àª® àª¯
à§ĭ à¦ķ
Ð± ÑĢ
ĠáĢ¡ áĢĻáĢ»áĢŃáĢ¯áĢ¸áĢŀ
Ġì¹´ íĨ¡
Ġë§ Į
Ķ áĢŃáĢ¯áĢĦáĢº
ÙĪØ± ÛĮ
à¤¿à¤ Ł
ĠÑĢ Ð°Ò³
h n
à°¿à°¨ à±įà°¨
ĠÑģ Ð¾Ð±
k ka
Ġv ie
n ego
ÉĻ li
ĠÒĽ Ð¸Ñģ
Ġà´¤àµģà´Ł à´Ļàµįà´Ļ
à®¾à®± à¯įà®±
Ġmin den
ĠÐ´Ð°Ð¿ Ð°Ð¼
ÙĬ Ø§Øª
es te
áĥĶáĥ ŀ
áĤ ĳ
áĢŃáĢ¯áĢ¸áĢ ħ
ĠáĥĶ áĥ¥
Ġà¦®à¦§à§įà¦¯ à§ĩ
ĠÎºÎ¬ ÏĦÎ¹
ĠÎº Î¿Ïħ
Î¹Î½ Î®
Î¼ÎŃÎ½ ÎµÏĤ
Î»Î¿Î³ Î¯Î±
ĠÎ¼ÎµÎ³Î±Î» ÏįÏĦÎµ
ÏĦ Ïĥ
ÎµÎ¹ ÏĦÎ¿ÏħÏģÎ³
ia u
Ġj anÃ«
Ġà´Ĩ à´¯
Ġë ħ
Ġà«§ à«
Ġàª¦ à«įàªµ
Ġn Ã©
áĢĩ áĢ¬
ÑĨ Ð°Ñŀ
ĠÑĥ Ð·
Ġm me
áĢ¡ áĢ¬áĢ¸áĢľ
ĠÑı Ñħ
Ġfi fi
Ġpi Ã¹
áº ±
Ġe po
ÐµÑĢ Ð¶
ĠÑĪÐ°Ò³ ÑĢÐ¸
à¥ģ à¤¤
×ľ ×Ķ
Ġáĥ¡áĥĲáĥ Ķ
Äĥ ri
lu gu
à°° à°¿à°ķ
ĠáĢĲáĢħáĢ¹áĢ ģáĢ¯
áĢ±áĢĲáĢ¼ áĢĶáĢ²áĤĶ
áĢ±áĢ ģáĢº
-- --
áĢĻáĢ¹áĢ¸ áĢĨ
ĠáĢĻ áĢ²
ĠÛģÙĪ Ø¦ÛĴ
ĠØ£ ÙĪ
ãĥ Ń
Ġbá»į tini
ĠS t
Ġë ¯¸
±áĢĽ áĢ¬
áģ ī
ĠÐ¿ Ð¾Ð²
à®µ à¯ģ
ĠÒ³ ÑĥÐ¶
ĠÑį Ð¼Ð°Ñģ
ĠÒĽÑŀ ÑĪ
ÑĪ Ð±Ñĥ
ĠÑĦ Ð¾Ð¹
ĠÐµ ÑĢ
Ð¾Ð½ Ó£
ĠG reen
ÄŁ a
ĠBi o
ĠáĥĽáĥ® áĥĿáĥļáĥĿáĥĵ
r en
àµĨà´¯ à´¾à´£àµį
oni c
f á»į
ÙĪØ± Ø¯
di ng
áĢ¸áĢ ģáĢº
ĠáĢĻáĢ¼áĢĶáĢº áĢĻáĢ¬
áĢķáĢ¹áĢ Ĳ
Ġ áĤıáĢ½
Ĺ áĢº
áĢŀ áĢ®
Ġk iri
à±Ĩ à°¨
Ġag æ³¨åĨĮ
Ġæĺ ¨å¤©
è´ «
à¸Ļà¸ ±à¸ģà¸
à¹ģà¸ ķà¹Ī
ï¼ ¿
è¿ĩ ç¨ĭ
åĵ ¥
ä¿ Ħ
à¹Ģà¸ģà¸ ´à¸Ķà¸
æł· çļĦ
Ġé £
Ġé ¡
Ġj s
à¤² à¤Ĥ
n Ã½ch
Ġcolle ction
ĠNe ws
Ġà´µà´¿à´ ¦
ĠI ho
ĠEn áº¹
la i
b ili
Ġre d
ĠÐ¿ Ð°Ð·
Ġi ká»į
Ġæ² ¡
Ġé Ł©
æĿ ¯
Ġè¿ Ľ
Ġé ĥ
è ĸ
à¸²à¸ ¡
Ġ1 11
ĠæŀģéĢŁ å¿«3
à¸Ļà¸µ à¹Ī
ªà¸£à¹īà¸²à¸ ĩà¸
åħ¬ åĬ¡åĳĺ
ķà¸²à¸ ¡
åĭ ķ
è Ń
Ġç¥ŀ å½©äºīéľ¸
Ġà¤ª à¤¾à¤¹
ĠáĢ»áĢĸ áĢħáĢ¹
ŀ áĢĻ
ĠáĢ¡áĢħ áĢ®
Ġ( '
àª¿ àª®
à§Ģ à¦¬
Ġtou t
Ġdo po
ĠP M
ĠA won
Ġà¤ķà¥ģà¤ Ľ
Ġáĥ¡áĥĲáĥ ĸ
Ġ áĤıáĢ½áĢĦáĢ¹áĢ·
áĢķ áĢ°
Ñħ Ð¾Ð´Ð¸
Ð»Ñĸ ÑģÑı
à´® à´¾à´ķàµįà´ķ
Ġtu d
Ġp Äĵ
ĠÚ¯ Ø§
s kie
ĠÐ¼Ð°ÒĽ Ñģ
áģ¾áĢĢ áĢ¬áĢ¸
áĢĲáĢħáĢº áĢģáĢ¯
Ġt Ã¤
wa y
ĠÑħ Ð°Ð±Ð°ÑĢ
à¦ª à§įà¦°
Ġê¹ Ģ
ì ħ
Ġà®¤ à®©
kan na
Ġáĥ £
ch a
b inrin
K U
ĠÂ ³
Ġyi pada
Ġr ere
ÉĻ dÉĻ
ĵà¸ ĳ
æĺ¾ ç¤º
å³ °
à¹Ĥ à¸Ńà¸
à¸µ à¹Ī
6 åĲĪ
Ĥ à¸²
éĢ Ļ
áł ¦
ªà¸ ĩà¸
à¥ģ à¤£
Ġo á¹£iá¹£áº¹
Ġn de
Ġme dia
Ġib ere
Ġa sá»į
à°¾à°° à°¾
ĠAgb ara
S I
ĠA ma
à² ¿
om o
ÑĢ Ð¾Ð²
c tor
9 20
Ġáº¹ ri
Ġáº¸ rá»į
Ġopo pona
Ġni torin
Ġen ia
Ġd an
Ð² Ð°Ð»
ĠS an
Ġà´ļ à´¿à´¤àµįà´°
âĢĮ ÙĩØ§ÛĮ
Ķà¸ ³
Ġà¸ªà¸ ³à¸«
æŃ Į
åį Ī
å¼Ģå¥ĸ åİĨåı²
Ħà¸ ·à¸Ńà¸
Ġà¤® à¤¾à¤°
áĥĲáĥķáĥ¨ áĥĺáĥł
gi di
Ġai gba
or u
×Ļ× Ľ
Ð»ÐµÑĤ ÐºÑĸ
ur es
à´· àµįà´Ł
Ûģ Ø±
do po
Ġl oni
ĠÐ±Ñĭ Ð»Ñĸ
ĠW eb
tre et
si ng
oo d
a wá»įn
G Q
Ġwu tu
Ġw in
Ġor g
Ġ ur
á¹£ an
u t
Ġà¦¬ à¦Ľ
lo g
li c
let te
ku ro
Ġy á»įn
Ġo tutu
· à«įàªŁ
ê¹ Į
Ġm beni
Ġa ri
ĠÐ² Ð¸Ð´
ĠUni versity
ĠT un
ĠL A
il li
áĢ¥ áĢķ
Ġif e
Ġi gbáº¹
ĠT u
à±Ģ à°¡
Ġà´® à´±àµįà´±
áĢ¹áĢ Ģ
Ġà®Ĩ à®ķ
ĠP ar
áĥĺáĥłáĥ ĵ
ÐµÐ½ ÑĤÐ¸
táº¹ láº¹
ĠáĢĢ áĢ±áĢľ
áĢħ áĢ¬áĢ¸áĢĽ
do ju
at un
Ġiya tá»į
âĢ Ļ
za pa
t in
Ð°Ñģ Ð¸Ð½Ð¸
ĠÐ³ ÑĥÑĦ
Ġoo gun
Ġkoo du
ĠBi kini
Ġ6 0
Ã© Ì£n
ju mo
éĽ »
åĪ ¤
à¹Ħà¸§ à¹ī
¢à¸ §
áŀ Ł
Ġà¸ŀ à¸£
Ġæİ ¨
uu å¿«3
åı£ è¯Ģ
à¹Ģà¸£à¸µà¸ ¢à¸Ļ
à¨¿à¨ Ĩ
æ¥ ¼
ķ à¹Įà¸
ĠåĲĮ æĹ¶
çº¢ é»ĳå¤§æĪĺ
æĹħ æ¸¸
åĲ ¬
å¤§åıĳ å½©ç¥ŀ
Ġ7 8
ç¤ ¼
æĸĩ ä»¶
Ġåĩ º
Ġå· ¥
æ±½ è½¦
q q
¸ à¸Ļ
Ġà¤Ĩ à¤¯
et ro
ĠáĢ¡ áĢĺ
Ġà¦Ĩà¦® à¦¿
ca st
Ġwáº¹áº¹ bu
Ġn do
Ġa já»į
ĠRa il
ĠMan ia
ĠAla koso
áģĢ áĢĦáĢ¹
os ted
áĢ±áĢ »áĢķ
áĢĲáĢ½ áĢ±áĢĢ
Ġà°¸ à±įà°¥
ĠA gba
ķ áĢ¼áĢ¬áĢ¸áĢ
Ã ¯
Ġibi ti
Ġcru ci
ĠT it
ĠÐ³Ð¾Ð´ Ð·Ðµ
à¦¿à§Ł à¦¾
ĠáĢħ áĢ®áĢĻ
ĠP or
ĠI N
Ì ±
Å¡ áº¹
Ã² Ì£n
à«ģ àª¨
ĠáĢ¡áĢŀ áĢŃ
Ġìļ °
àµĭ à´°àµįâĢį
à´¿à´ķàµįà´ķ à´¾à´¨àµįâĢį
w er
Ġà´® à´¤
k uru
j láº¹
cia l
ĠtÃ« nÃ«
Ġrá»į yen
Ġidi je
ĠáĢķ áĢĬáĢ¬
áĢĢáĢ¼ áĢ¬
áĥĶáĥĳ áĥĶáĥľ
Ù °
Ġd Ã¨
Ð°Ñİ Ñī
Ð³ ÑĥÐ·
à¦Ĺ à§įà¦°
é© °
ç½ĳé¡µ çīĪ
æīĭæľº çĻ»éĻĨ
Ġåı °
ĆĈ ą
èĹ ı
è®° èĢħ
å· Ŀ
ä¸ °
Ġà¤¨ à¤¿à¤µ
Ġafáº¹ fáº¹
ĠO gun
ĠÐ² Ð¸
Ġ9 0
z on
me eli
Ġolo ri
Ġoju la
Ġláº¹ áº¹kan
Ġf in
Ġcruci ble
ĠI po
tra s
mi i
ká»į siláº¹
ak ia
Ġs áº½
D A
Ġibu do
Ġgidi gidi
ĠØ¨ ÙĦ
ĠT O
ĠAW á»ĮN
Ã² g
os á»į
ind ows
fá»įwá»į yi
Ġáº¹ni ti
Ġapo ti
ĠK lis
ĠKlis ti
ĠI yan
Ġ. "
ou lette
lo ri
kÃłn lÃ¡
áĢ»áĢķ áĢ®
áĢĶ áĢ±áĢŀ
ĠÐ¿ Ð°ÑģÑĤ
à§ĩà¦¨ à§įà¦Ł
Ġpa de
Ġi wo
Ġà¤¦ à¥ĩà¤ĸ
ĠÐºÐ°Ð¼ Ð¿
ĠE yin
tá»įn is
ng g
Ġti to
Ġob irin
ĠKá»į kÃłnlÃ¡
ĠA i
l s
in k
en u
áĥĶáĥĳ áĥĿáĥĵáĥĲ
R á»Į
R A
Ġn fun
Ġh ia
Ġa lá»į
ĠT V
ĠJÃ© hovah
ĠG GQ
Ġ Åĭ
tá»įnis á»įna
ili onu
de o
Ġom áº¹
Ġiba tan
ĠC ar
ĠA pp
Ġta ara
Ġsi san
Ġaz Ã³Ì£n
ĠN zapa
ĠA máº¹
ĠØ¨ Úĳ
ãĢ ĳ
w it
CD D
Ġre luwe
Ġo ku
Ġij in
Ġi báº¹ráº¹
Ġfá»į á»įmu
Ġda li
ĠT áº¹
ĠO mo
Ġ??? ?
á»įn á»į
ri l
ra l
ke de
ĠÐ´ Ð°Ð´
ĠÑģ Ð¾Ð²
Ġsun má»į
Ġd ia
ĠT CDD
f ul
Ġï¼ ı
Ġn di
Ġif owo
ĠS ta
ĠÒĽ Ð°Ð´
ĠÙĪ Ø£
ĠOlo run
ĠO s
ĠI di
ĠI bi
áĥ£áĥ ¥
ĠG u
ĠA ir
Ġà¤¸ à¥įà¤¥
Ġà¦¹ à¦²
Ġ2018 å¹´
os an
S A
Ń Ĳ
Ġwi wa
Ġà´İà´¨àµįà´¨ àµį
Ġoke ere
Ġo gb
Ġj amba
Ġf ara
ÑĢ Ð°ÑĨ
ĠÐ± Ð¸Ð·
Ñĥ ÐºÑĥ
áĥł áĥĲ
ĠMe dia
je Ì£
Ġá»į ba
ĠÐºÐ¾ÑĤ Ð¾ÑĢ
Ùħ Ûģ
ĠÒĽÐ¸Ð» Ð³Ð°Ð½
ÒĽÑĤÐ¸ Ñģ
ĠI f
ĠÐ³ÑįÑĤÑĭ Ð¼
ĠI P
ko hun
I D
Ġá»į run
Ġá¹£ ayáº¹wo
Ġto ngana
Ġki akia
ĠIro yin
ĠAmáº¹ rika
Ġ8 0
Ġ5 00
Ġ. âĢĶ
ti ve
t on
la si
ĠáĢ¡áĢ² áĢĴáĢ«
áĢħ áĢ¬áĢ¸áĢŀ
Ðº Ð¾Ð½
l Ã©
Ø¨ Ø©
Ġáĥ Ń
à®¾à®¯ à¯į
Ð°ÑĤ Ð¾
Ġà´ķà´´ à´¿à´ŀàµįà´ŀ
Ġâ ĩ
íĸ Īëĭ¤
ĠáĥĽ áĥĿáĥķ
Ġàª°à«Ģàª¤ à«ĩ
ĠØ¯ ÛĮØ§
à®¿à®¯ à¯ģà®®à¯į
áĢĢáĢ¼ áĢ±áĢ¬áĢĦáĢº
áĥ ©
à°°à±įà° ļ
Ġà´° àµĤà´ª
ĠÐ¼ ÑĥÑĢ
Ð°Ð¶ Ñĭ
áĢ±áĢĶ áĢĲáĢ²áĢ·
áĢĽ áĢķáĢ«áĢĲáĢļáĢ¹
ĠâĢ¦ .
ĠáĢľ áĢŃáĢ¯áĢĢáĢ¹áĢ
ģ áĢĶáĢ¹áĢ¸
áĢ±áĢĳ áĢ¬áĢĢáĢ¹áĢ
ĠáĢģ áĢ²áĢ·
áĢ¾ áĢĦáĢº
àµģà´ ·
Ġà¦¹ à¦¯à¦¼
Ġáĥ¬ áĥ§
agbe ka
Ġá¹£i gba
Ġo k
à· Ģ
à¥įà¤ ¡
ĠØ¨ Ø¹Ø¯
×Ļ ×ķ
ĠÐ¸Ð½ ÑģÐ¾Ð½
à±ģà°² à°ķà±ģ
Ġeja jeÌ£
Ġa yan
ĠI pa
ĠDi áº¹
ĠAn kara
ca tion
ĠÐľ ÑĸÐ½
ĠÑģÑĤ Ð°Ð½
à´ ĸ
ĠÒĽ Ð¸Ð·
ĠÑĤÐ°ÑĢ ÑĤÐ¸Ð±
T E
L U
Ġá¹£e un
Ġtu tu
ãģ ¤
ĻáĢº áĢ¬áĢ¸áĢĢáĢŃáĢ¯
áĢĺ áĢ°áĢ¸áĢ
áĤıáģ ²
áĢ¯áĢĶáĢ¹áĢ¸ áĢĢ
áĢ¡ áĢĲ
à® ŀà¯įà®ļ
Ġn pe
Ġidi bo
ĠFa cebook
ĠF ran
ĠÐ¶Ð°Ð¼ Ð¾
Ð± Ð¸Ð¹
Ð¾Ñı ÑĤÐ¸
Ñĥ Ð»Ð¸
z o
p to
l ish
da i
Ġá»į ran
Ġisin mi
Ġd agbe
Ġbi kini
ĠTo Ì£n
ĠA há»įlu
Ġ03 æľĪ
Ġ) ãĢĳ
á»įn i
Ê Į
wu tu
Ġsi báº¹sibáº¹
Ġitan na
Ġdin ku
ĠGáº¹gáº¹ bi
ĠG en
Ġà¤ķ à¥Ī
ye wo
p ti
om an
aêŀĮ an
11 T
Ġá»į tun
Ġo kan
Ð°Ð² Ð¸Ð¹
ĠÒĽÐ°Ð± ÑĥÐ»
áĢķ áĢŃáĢ¯áĢĦáĢºáĢ¸áĢ
ĠNi báº¹
ĠIn ter
Ġ. )
Ġd á»¥
êŀĮ i
® ï¼
ch i
Ġáº¹ni kan
ĠyÃ¨ dá»į
Ġr in
ĠìŀĪ ëĬĶ
à±įà°Ł à±Ģ
ĠÐ³ ÑĥÐ»ÑĮ
Ġà´ª àµĤ
ĠÐ°Ð¹ ÑĤ
ĠÐºÑĥÐ½ Ð¸
Ð°Ñģ Ð¸Ð½Ð¸Ð½Ð³
ĠÐ± ÐµÐ»
ĠÐ¸ÑĪ ÑĤÐ¸ÑĢ
Ġohun kohun
ĠT ag
ĠMi c
áº¹n áº¹
to o
iri ka
Ġáĥ£áĥ Ľ
am es
Ġàªľ àª¾àª£
Ġà®µà®¾à® ´
I K
Ġwi wo
à±ĭ à°¦
Ðº ÐµÐ½ÑĤ
ĠÐ¼ Ð¾
Ġsi le
Ġr es
ÑģÐº Ð¸
Ġi run
Ġb hari
ĠUni ted
Ġà´ħ à´±à´¿à´¯
ve y
v en
ļà¸²à¸ ĩà¸
à¤¿à¤¤ à¥įà¤°
m puta
i wá»įn
M X
Ġè ĳ
Ġpá»į ju
Ġa ja
Ġa bu
ĠI mu
Ġ200 9
u ra
g n
Ġnáº¹ tiwá»įki
Ġigbes áº¹
Ġi pe
ĠSE O
ĠAf irika
Ġà®¨ à®¾à®©à¯į
Ġz i
Ġnu gbo
Ġke te
Ġipin le
Ġade hun
ĠB road
men ts
ir áº¹
Ġpi pa
Ġk amáº¹ra
Ġfun fun
à¯ģà®ķà¯įà®ķ à¯ģà®®à¯į
Ø± ÛĮÚ©
Ġf rom
ĠI tá»į
à² ¾
co in
boju to
E S
Ùħ ÙĬ
ÑĮ Ñİ
Ð°Ð¼ Ð¸Ð·
ĠÑĪ Ð°ÑħÑģ
Ġèĳ Ĺ
Ġá»į á¹£á»į
Ġá¹£a laye
Ġbáº¹ áº¹
Ġà°İ à°¨à±įà°¨
Ġara kunrin
Ġaká»į á»įláº¹
ĠAm eri
Ġàª Ŀ
Ġà´µ à´²
ÑģÐºÑĸ Ð¼
Ġà¤¹à¥ģà¤ ı
Ġà°ķà±ĭ à°¸à°Ĥ
ĠÑĳ Ð·
Ġagäºļæ´²åĽ½éĻħ æ¸¸æĪı
áŀ Ķ
éĴ ¢
ç³» åĪĹ
à¤°à¥įà¤ ¥
Ð³Ð¾ Ò³
Ĩ áĢ¶áĢ¯
áĢŃ áĢķ
ĠáĢģ áĢĽ
Å¡ e
ti s
ou t
a mu
Ġwá»į le
Ġà®ķ à®Łà¯įà®Ł
Ġwh áº¹
Ġn yin
Ġgo do
Ġe wu
ĠØ§ ÛĮØ±
ÑģÑĤ ÑĮ
Ġáĥł áĥĶ
Ġala bara
Ġal agbeka
Ġa á¹£iá¹£e
ĠM Ã¬
ĠF S
w Ãł
ĠØ¯ Ø³Øª
áĢĿ áĢĦáĢ¹
áĢĢ áĢ±áĢĽ
áĢ±áĢ »áĢķáĢ¬áĢĦáĢ¹áĢ¸
ĠáĢŀáĢ° áĢ·
ĠÐ±Ñĭ Ð»Ð°
ĠáĢĹ áĢŃáĢ¯áĢľáĢ¹áĢ
áĢķ áĢŃáĢ¯áĢĦáĢ¹áĢ¸
áĢĽ áĢķáĢº
ts Ã©g
à´ªàµįà´ªàµĭ à´³àµįâĢį
Ġà´µ àµĩ
à§įà¦¤ à§ģ
áĥĶáĥ £áĥļ
Ãª u
Ġà°ķ à°¾à°²
± à¹īà¸Ļà¸
Ġï¼ī ï¼Į
Ġà¤¹à¥ĭà¤¤ à¤¾
ke y
ìĹ °
ĠÐŁ ÑĢÑĭ
Ġàª° à«Ĥ
Ð°Ñģ Ñģ
f ia
áĢĳ áĢ¬áĢ¸áĢĽ
ĠÙĪ Ø²
Ġvis unnu
Ġid ani
Ġb osá»į
Ġalaba á¹£epá»į
Ġa mo
un u
ãģ ¡
×¤ ×¨
ë¶ Ħ
wo r
doju iwá»įn
Ġá¹£áº¹ láº¹
Ġáĥ¡áĥĲáĥ ĺ
Ġà¦¹à§Ł à§ĩ
ĠØªÚ¾ ÛĴ
ĠÑģÐ¿ ÑĢÐ°Ð²
ĠáĢĲ áĢķáĢ¹áĢĻ
áĢŃáĢ³ áĢ¸
áĢĢ áĢ²áĢ·
Ġp Ã³Ì£n
Ġp lá»įn
Ġo y
Ã ģ
Ã¡s ok
Ġà´® àµĨ
ĠàªĨàªµ à«ĩ
Ġh lan
Ġfá»į to
ĠG ra
ĠG er
Ùħ Ø±
ĠáĥĻ áĥĲáĥłáĥĴ
ÐµÑĤ ÑĮ
à®¿à®² à¯ģà®®à¯į
Ġo raz
áĢº áĢ¬áĢĢáĢ¹áĢ
ĠáĢķ áĢĬ
Ñģ ÑĨÑĮ
ä¼ļ ç¤¾
láº¹ nu
Ġà´¯ à´¿
àµĢ à´¸
Ð° Ò·
ji á¹£áº¹
h á»įn
bi a
Ġke de
Ġiá¹£áº¹ ju
Ġd il
Ġa ng
ĠMa ch
ĠM I
t ro
áĢ¸áĢŀ áĢ°
di ti
NU MX
K A
I 920
Ġz e
Ġw or
Ġl ilá»į
Ġi káº¹ká»į
Ġa re
yan ju
ng s
Ġodo do
Ġk ini
ĠiP ad
Ġi tá»įnisá»įna
ĠW indows
ĠKe je
à±ģà°Ĥà° ¡
ĠK ÃŃn
ĠáĢĶ áĢ¬
ĠN g
ĠKÃŃn nÃŃ
Ġ ul
à³ į
c ar
Ġáĥ¨áĥĶ áĥĺáĥ«áĥļ
à¤Ĥà¤¤ à¥įà¤°
Ġá»į pá»įlá»į
ĠÑ Ĺ
ĻáĢº áĢ¬áĢ¸áĢ
áĢĦáĢ¹áĢľ áĢĬáĢ¹áĢ¸
áĢĲ áĢĦáĢ¹
ĠáĢĢ áĢľ
à±ĩ à°²
Ġsin s
Ġgba ngba
ĠÑĩ Ð°ÑģÑĤ
à¦¸ à§įà¦¯
Ġc an
ĠR E
ĠBlu e
oo l
leng e
j in
J á»Į
Ġy Ã³Ì£n
Ġon iru
Ġla ini
Ġif iraná¹£áº¹
Ġfi fun
ĠRe luwe
ĠI se
à´¤àµįà´¤ à´¿
ĠBa ba
ă Â
âĢİâĢİ âĢİâĢİ
lo ngo
Ġâ ģ
Ġori le
à«ģàªľ àª°àª¾àª¤
Ġàª¹ à«ĭ
ĠÐ½ Ð¸Ð·
³ Û
Ø§Ùħ Ùĩ
·à¹Ī à¸Ńà¸Ļ
ŀà¸ ±à¸
ĠçĽ ¸
æ¶Ī è´¹
5 9
44 4
áĢ½áĢº áĢ¬áĢĢáĢ¹áĢ
ĠáĢĲáĢĽ áĢ¬áĢ¸áĢ
Ġåī į
è ¼
æľĢ ä½³
è¿Ľ åħ¥
Ġç ²
Ġå ¨
Ķà¸ ±à¸ļà¸
ä¸ ´
à¹Ģà¸¥ à¹Īà¸Ļà¸
Ġäºļ ç¾İ
å¨±ä¹Ĳ å¹³åı°
åıĳ çĶŁ
æĶ¯ æĮģ
é ½
èĭ¹æŀľ çīĪ
Ġagçİ¯äºļ çĶµæ¸¸
äº¿ åħĥ
Ľà¸ ±à¸įà¸
à¸Ļà¸µ à¹Īà¸
Ġçİ¯äºļ çĶµæ¸¸
Ġà¤ ĳ
iso a
Ġka pa
Ġdi de
Ġ3 D
Ġ* **
p áº¹lu
c an
à´¾à´¨ àµģà´Ĥ
Ġâģ ´
Ġy our
Ġtu má»į
Ġo w
à¯ģà®³à¯įà®³ à®¤à¯ģ
s Ã¡g
ìĿ Į
áĢķáĢ« áĢĢ
ĠÑĪ ÑĥÐ´
it Ã¤
Ġà¦¬à¦¿à¦ ·
ĠÄĳ Ã³
à°¾à°· à±įà°Łà±įà°°
Ġáĥ§ áĥĿáĥķ
à°° à°Ĥ
ĠØ§ÙĨ Ûģ
Ð¾Ð³ Ð´Ð°
Øª ÙĬ
ĠÚ© Ø´
Ġo bi
Ġng u
Ġitá»į sá»įna
Ġgba dun
Ġg á»į
Ġapa pá»į
ĠT an
ĠÑĤ Ð°Ð³Ð¾
ĠO ru
ĠIn dia
áĥĿáĥľ áĥĺáĥ¡
Ġs po
ÉĶ n
ran s
Ġà´ Ĳ
ki ti
Ġmáº¹ rin
Ġga ngan
ĠM in
ĠI p
Ġ×ĳ ×ŀ×
Ġ. ,
Ġáº¹ sáº¹
à¹Ī à¸Ńà¸¢
® à¸
Ġå¾ Ī
Ġéķ ¿
ļà¸²à¸Ħà¸²à¸£ à¹Īà¸²
Ġç ®
Ġå Ģ
à¹Ĥà¸ Ķà¸¢à¸
ĠæŀģéĢŁ æĹ¶æĹ¶å½©
é «
ç¡ Ģ
å®Į æĪĲ
åĵģ çīĮ
ä¸ ĥ
à¤ ·
áĢĨ áĢĢáĢº
Ġàª¥ àª¾àª¯
à§ĭ à¦®
ÅĨ a
Ġáº¹ nu
êµ Ĳ
à´¦ àµĩà´¶
Ġá¹£a wari
Ġun limited
Ġth at
Ġni ngg
Ġl owo
Ġis o
Ġi ban
à¯įà® ¨
Ġg ame
Ġa yo
ĠUS B
ĠU K
ĠN or
Ġ Ð°Ñħ
ĠÐ¨ ÑĥÐ½
ÑĥÐ½ Ñĳ
ĠL á»į
Ġ ÛĮØ§
Ð¾ Ñĺ
ĠI W
ĠC on
Ġ4 3
val s
di de
cto ber
F UN
Ġá»Į na
Ġá¹£ akoso
Ġwi we
Ġn ini
ĠX NUMX
ĠP re
ĠIá¹£ owo
ĠH u
ĠEng lish
ĠE re
áĢģáĢ» áĢĦáĢº
ĠÐ¸ Ñĩ
ĠÑĥ Ð½Ð¸
ï¼ ¯
á»į vo
si c
ra m
káº¹ ni
g in
ĠÐ¼ ÐµÑĤ
Ġs treet
Ġolu dari
áĥĺáĥ¢ áĥĶáĥ¢
Ġm Ã»
Ġirá»į run
Ġi sáº¹
l t
é¢Ĩ å¯¼
¸ à¸Ļà¸
è±¹ åŃĲ
æĦ ¿
¢à¸ ¸à¸
æ¨¡ å¼ı
«à¸Ļà¸¶ à¹Īà¸ĩ
åĶ ¯
Ĭ à¸Ļà¸
æĶ¹ éĿ©
Ġà¤Ĩ à¤µ
áĢĻ áĢŁáĢ¯áĢĲáĢ¹áĢ
áĢķáĢº áĢĻ
à®¤à¯įà®¤ à®¿à®©à¯į
Ġgbi gbá»į
Ġb ra
ĠW e
já»į pá»į
áģ¾áĢĢ áĢŀáĢĬáĢ¹
ĠáĢ±áĢĶ áĤĶ
áĢĢáĢ¹áĢ ĢáĢŃáĢ¯
áĢĶáĢ¹áĢ Ĵ
eg i
Ġá¹£i i
Ġá¹¢i á¹£áº¹
Ġs usu
Ġitu má»į
ĠI b
ãĤ ·
Ġà°¨à±ģà°Ĥà° ¡à°¿
ĠA ba
th er
ĠØ¹ ÙĦÙĬ
àª¤ à«įàª¤
ri d
ng _
àµģà´ ¸
Ġà¦¦ à¦¿à¦¨
om ina
I V
Ġá»Į dun
Ġn ch
Ġm arun
Ġgba jumo
áĥĶáĥĳ áĥĹ
Ġee yan
ĠìĦ ł
ĠD ownload
ĠA tun
áº¹ si
w Ã²
áĢ¬áĢĶ áĢŃáĢ¯áĢĦáĢºáĢĦáĢ¶
ĠáĢ±áĢ ģáģļ
áĢģáĢ²áĢ· áĢķáĢ«áĢĲáĢļáĢ¹
ĠáĢ±áĢ »áĢģ
Ġ' '
áĢ±áĢĲáĢ¬ áĤĶ
ĠP osted
ģáĢ²áĢ· áĢķáĢ«áĢĲáĢļáĢ¹
áĢĽ áĢĦáĢ¹áĢ¸áĢŀ
áĢ¼ áĢļáĢ¹
ĠáĢ±áĢĨ áĢ¼áĢ¸áĢ±áĤı
£ áĢº
ĠáĢĢáĢº áĢĶáĢ¹áĢ¸áĢĻáĢ¬
áĢŃáĢ³ áĢĦáĢ¹áĢ
ĠáĢĺ áĢ¬áĢŀáĢ¬
Ð ħ
ĠÑĢ Ð¾
à§ĭ à¦Ł
áĢ¬áĢ¸áĢĻ áĢ½
áĢĢáĢ±áĢĽ áĢħáĢ®
áĢ¬áĢ¡ áĢ¯áĢķáĢ¹áĢ
ĠáĢľ áĢĬáĢ¹áĢ¸
áĢ±áĢĲáĢ¼ áĢĻáĢ½áĢ¬
ĠáĢĲ áĢĬáĢ¹áĢ
áģ £áĢº
áĢ¸áĢ±áĢ ĲáĢ¬
áĢŀ áĢ¶
ĠÑĤ Ð¾Ð»ÑĮÐºÐ¾
Ġà´ķàµįà´ °
il la
ĠáĥĻáĥĿáĥĽ áĥŀ
ÙĨ Øª
áĢĺ áĢĢáĢº
Ġà¤ļ à¤¾à¤¹
Ġk on
ĠÐŁ ÐµÑĢ
áĥĲáĥłáĥ Ļ
çŃ Ķ
æ± ĩ
à¸£à¸µà¸ ¢à¸
ŀà¸£ à¹īà¸Ńà¸¡à¸
æĢ ¥
à¥ģ à¤µ
ĠÑģ Ð°
Ã© ben
Ġà´ķ à´¾à´²
Ġê ´Ģ
Ġbi en
Ġà®ħ à®´
Ð¸Ñģ ÑĮ
Ã¼ m
à«Ģ àª®
ĠáĢŀ áĢ¬
×ŀ ×Ķ
ãĤ ¿
áĢĢáĢ¹ áģ¿áĢķáĢ®áĢ¸
áĢĦ áĢ»
ĠáĢ±áĢĻ áĢ¬áĢĦáĢ¹áĢ
áĢĽ áĢ¯áĢ¶
Ġà´¤ àµĭ
ĠÐ½ Ð°ÑģÑĤ
Ł áĢ¬áĢĦáĢ¹áĢ¸
áĢ¬áĢĽ áĢĦáĢ¹áĢ¸
ĠáģĤáģĢ áģĢ
ĠçľŁ äºº
ä¸Ń å¤®
4 3
Ġ9 8
æľĢæĸ° ç½ĳåĿĢ
ģà¸³à¸ ¥à¸±à¸ĩà¸
å¼Ģ åıĳ
ķà¹Īà¸²à¸ ĩà¸
à¹Ģà¸ ¢
à¹ģà¸Ļà¸ °
ŀà¸ ¹à¸
Ĥ à¸Ļà¸²à¸
ï¼ Ľ
é ¹
Ġåį ³
éĶ ®
æĬ¥ éģĵ
åº Ń
ä¸Ģ äºĽ
ç²¾ ç¥ŀ
éģ İ
è¯ķ çİ©
èį Ĳ
ä¸» ä¹ī
æĭ ¾
áŀ Ľ
èį ī
è° ±
Ġé¦ ĸ
æľ ĭ
åº Ħ
Ġagäºļæ´² æ¸¸æĪı
ç«ŀ çĮľ
çīĽ çīĽ
å¤ĩçĶ¨ ç½ĳåĿĢ
Ġà¸ ļà¸
Ġà¤¦ à¥ĭà¤¨
Î´ Î±ÏĤ
ĠÎµ Î¼ÏĢ
ĠÎ¿ Î¼Î¬
Î½ ÎµÎ¹
ĠÎ¼ÎŃ ÏĩÏģÎ¹
ĠÎ£ ÏĦÎ·
ÏĦÎ¿ ÏįÎ½
ÏĢÎ¿ ÏĤ
ĠÏĩÏģÎ· ÏĥÎ¹Î¼Î¿ÏĢÎ¿Î¹
Î» Î¹ÎºÎ¬
ĠÎĳÏħ ÏĦÏĮ
Î´ ÏģÎ¿
ĠÏĨ Î±
ÏĦÎµ Ïħ
Î¼Î¿ Ïģ
Î¸ ÏģÏī
201 7
ĠÎĳ ÏĢÏĮ
ÎĳÎ ¡
ĠÎ±ÎºÏĮ Î¼Î±
ÏĦÎµ Ïį
ÏģÏī ÏĥÎ·
Î» Î¼
ĠÎķ Î»Î»Î¬
Î¼ÎŃÎ½ ÏīÎ½
ĠÎ¼ Î®
Î»Î· ÏĤ
ĠÏĦÏĮ ÏĥÎ¿
ĠÎµ Î¼ÏĨ
d di
n Ã¡l
Ġs Äħ
ĠÐ±Ñĭ ÑĨÑĮ
à°Ĺ à±įà°Ĺ
à¦¾à¦® à§Ģ
ĠÃª tre
àªķ à«įàª¤
áĥĵ áĥĶáĥ¡
à´Ĺ àµįà´°
Ùĥ ÙĦ
Ġà¦¶ à¦¿à¦ķà§įà¦·
ma s
un t
ul i
ta tion
m ini
le a
ger ia
ĠáĢ±áĢ »áĢĸ
áĢĻ áĢ®áĢ¸
áĢŃ áĢ°
ĠáĢĶ áĢ¬áĢĻ
Ġá»Į kan
Ġká»į mputa
Ġi meeli
Ġgi gun
Ġnh Ãł
Ġa y
Ġla ng_
Ġà´ħ à´¦àµįà´¦àµĩà´¹
à¤¿à¤ ¦
ĠÐ¸Ð½ ÑĤÐµÑĢ
Ġh la
Ġà°Ĩ à°°
Ð°ÑĪ Ñĭ
ĠáĢĴáĢ® áĢ¡
áĢ¯ áĢĲ
à¯ģà®ķ à®¿à®±
ĠáĥĲáĥķ áĥ¢
ĠÐ¼ Ð°Ð·
ÙĪ Ø¬
Ġà¦ķà¦° à§įà¦®
ĠÐ¿Ð¾Ð» ÑĥÑĩ
áĢģ áĢĦáĢ¹áĢ
ĠáĢĢ áĢĻáģ»
ĠáĢ±áĢ »áĢķáĢ¬áĢĦáĢ¹áĢ¸
áĢ· áĢľáĢ¬
áĢĳ áĢ¯áĢĲáĢº
í ĽĦ
ÑģÑĮ Ðº
Ð» Ñĥ
áĥĹ áĥ®áĥķ
à±ģà° ļ
Ġà¦Ĩà¦® à¦¾à¦°
ĠPáº¹lu páº¹lu
ĠE lo
pa ta
Ġi sh
in ira
ĠÃ¶ ssz
M A
Ġá»įmá»į birin
Ġáº¹ hin
Ġiyan u
Ġi kun
Ġi ku
à¯Ĩ à®¯
Ġa we
ĠJu da
à¦°à§įà¦ ®
Ġàªķàª° àªµàª¾àª®àª¾àªĤ
Ġà¤¸ à¤¹
ĠIsla eli
ĠB á»į
ĠB it
i mu
bo ard
v Ã¡
Ġri vals
Ġolu gbe
áĢ±áĢĲáĢ¼ áĤĶ
áĢ±áĢĲáĢ¬ áĢĦáĢ¹
áĢ® áĢ¡
ĠY e
ĠG od
ĠD an
Ð²Ñĸ Ñĩ
Ð½ Ð°Ðº
ë² ķ
ĠB ar
Ġà´® à´°
Ġ4 2
Ġ3 00
Ġ200 8
áĢŀ áĢ±áĢ¬áĢº
ki ki
go do
?? ??
ĠâĢĿ, âĢĿ
Ġtr ans
Ġoá¹£u wá»įn
Ġo di
à±Ĥà° ¨
ĠÙħ Øª
Ġnd Ã¶
Ġaile wu
ĠN á»į
ĠC he
ĠAla ye
o Ì£
ka si
N i
Ġbi á»į
ĠS p
ĠS am
ph y
m on
k wi
dir áº¹si
Ġá»Į ká»į
Ġà´² à´Ń
×ķ× Ľ
à¥Į à¤°
Ġáº¹ ru
ye v
l ÉĻn
áĥĲáĥĵ áĥĺ
Ġáº¹ jáº¹
Ġv u
Ġu0 6
Ġso ro
Ġni ke
Ġe ko
Ġayi pada
Ġaká»į le
Ġagb ese
ĠTur key
Ġà¦ķà¦¿à¦¨ à§įà¦¤à§ģ
Ġà®® à®ķà¯įà®ķ
ra u
ĠS ou
Ð² ÑıÑĢ
à¹Ģ à¸Ļ
éľ ²
ä» į
èµ· æĿ¥
Ġæ¢¦ è§ģ
Ġå¸ Ĥ
Ī à¸´à¸
Ġçİ¯äºļ å¹³åı°
à¹Ģà¸Ľà¹ĩ à¸Ļà¹Ģà¸
Ĉ ï¼Į
åĨ ²
à¤¾à¤Ĥà¤ļ à¥ĩ
ĠÑģ ÐµÑĢ
à°¿à° ¡
áĥĲáĥĽáĥĵ áĥĶ
ĠS al
gh áº¹náº¹
Ġm be
Ġke ke
ìŀ ¬
Ġj lo
Ġiya wo
Ġg h
Ġa ma
b uru
at er
ar ia
Ġă Â
Ġá»į gbá»įn
Ġt ÃŃ
à±ģà°² à°¨à±ģ
ĠÑģ ÑĥÑĢ
Ð» Ð°Ð²
ĀĀ ĀĀ
ãĥ Ĺ
Ġàªķàª° à«ĩ
ĠãĢ ı
ĠB 8
à¹Ģ à¸Ńà¸ĩà¸
à¤¿à¤ §
Ġà¦¸à¦° à¦ķà¦¾à¦°
Ġà´ħ à´§
Ġz Ã¡
sÄ±n da
Ġà®¤ à®¾à®©à¯į
k t
áĢ±áĢ¬ áĢĤáĢ«
à¦¾à¦¨ à§ĩà¦°
ng we
à®Ł à¯ģ
Ð°Ð²Ð°Ð½ Ð½Ðµ
ĠáĥĲáĥ® áĥĲáĥļáĥĺ
Ð¾Ð»ÑĮ Ð·
Ã² ng
íĺ ¸
ĠØ¬ Ø§ÙĨ
à´°àµįâĢį à´·
áĢĦ áĢ«
à´¤àµįà´¤ à´¿à´²àµĨ
Ġà®ª à¯ĩ
ĠÎ´ Î¿
ĠÎ± Î³Î¿
ĠÎĺ Îµ
Ïģ Ïį
Ġd r
Ġ áĤĢáĢĢ
áĢľ áĢ±áĢ¬áĢĢáĢº
Ðł Ñķ
Ñĥ ÑĶ
ĠÐ¼Ñĥ Ð²
no ÅĽci
å¹ ħ
ľà¸ ¡
Ġà¸ ģà¸£à¸
Ġà¤ħà¤§ à¤¿à¤ķ
ĠáĥĶ áĥļ
±áĢĢáĢº áĢ¬áĢ¹áĢ
»áĢĸ áĢĲáĢ¹áĢ
¡ áĢŀ
áĢ¸ áĢ¸
áĢ¬áĢ¸áĢŀ áĢ°
à°° à°¿
Ġê° ľ
áĢĲ áĢķáĢ¹áĢ
áĢħ áĢ¥áĢ¹
ĠáĢŀ áĢ¶áĢ¯
áĢķáĢ¼ áĢ®
à®¿à® ³
ĠÐ³ Ð°Ð»
Ġsz em
áģ¾áĢĢ áĢĬáĢ¹
ĠáĢ±áĢ»áĢķáĢ¬ áĢķáĢ«áĢĲáĢļáĢ¹
ĠáĢ¡ áĢĸ
ĠÒĽÐ°ÑĢ Ð¾ÑĢ
àµĢ à´¯
en ts
Ġà¦ķ à§įà¦·
áĥĺáĥĵ áĥĲ
ãģ Ľ
áĢ¾áĢĲáĢº áĢĲáĢ±áĢ¬áĢº
à±Ĩ à°Ĥà°Ł
Ġm Ãł
ĠáĢ¥ áĢ®áĢ¸
áĢĲ áĢŃáĢ¯áĢĦáĢº
Ġde y
ÐµÐ½ Ð°
Ġàªı àªŁàª²
Ã³ ÅĤ
j Ã¤
Ġna ko
ĠÄ ģ
×ľ ×Ĳ
ĠáĥĹ áĥĲáĥĽ
à®¿à®¯ à¯Ī
ÑĢ Ð¾Ð½
Ã¡ st
ĠÚ©Ø± ØªÛĴ
m et
ÙĨ ÙĬ
à´¸ à´Ĥ
Ñĸ Ñŀ
áĢ½ áĢ¾
Ġol du
áĥĶáĥľ áĥĺ
ĠÏĥ Î®
Ġy w
Ġí ĥ
Ġàªķ àª¾àª®
à´± à´¿
ĠÑĢ Ð¾Ò³
ĠÐº Ð°Ð»
ĠÐ¾ Ñĩ
j j
Ġåį ļ
Ġà¸ ģ
à¹ī à¸Ńà¸Ļ
à¹Ģà¸£à¸´ à¹Īà¸¡à¸
à¸Ļà¸ ³à¸
à¨¾à¨ ²
ªà¸ ³à¸Ħà¸
ĠåĨ į
Ġà¤¤à¥įà¤¯à¤¾à¤Ĥà¤ ļ
Ġpre d
Ġtr e
Ð¾Ñģ ÑĮ
à§ĩà¦ ¡
áĥĿáĥĳ áĥĺáĥĹ
áĢ¬áĢ¸áĢ ±áĢĶ
ĠáĢŀ áĢĲáĢ¹áĢ
áĢĢáĢ¹áĢ Ķ
ĠáĢŀ áĢĲ
à°¾à°ķ à±ģ
à«ģ àª®
Ġc Å©ng
Ð°ÑĤ Ð°ÑĢ
é«ĺ æ¸ħ
à¤¿à¤ ĸ
Ġà´µ à´³
à®° à¯Ī
os z
áĢĿ áĢĶáĢ¹áĢ
ĠáĢŀ áĢĻáģ¼áĢĲ
áĢ¯áĢŃ áĢ¸áĢĽ
±áĢĲáĢ¼ áĢĢ
áĢ®áĢļ áĢ¶
ĠÐ ®
Ġà°¸ à±įà°Ł
Ġj au
Ð°Ñŀ Ð»ÐµÐ½
áĥĶáĥ ¨
Ùĥ Ø±
ou ve
Ġàª¶àªķ à«ĩ
ĠØ¯Ø§ÙĨ ÙĦÙĪØ¯
¹ Û
Ø¯ ÛĮØ¯
áĢĳ áĢ¯áĢĲáĢ¹áĢ
áĢ¼ áĢĶáĢ¹
áĢĢáĢ¼ áĢŀáĢĬáĢº
tt Ã¤
Ġna v
Ġq e
à¯ĭ à®®à¯į
Ñĩ Ð°Ð¹
à¥įà¤¯à¤¾à¤ ª
ĠN Ã«
Ġà¦¨à¦¿à¦ ľ
×ł ×Ķ
áĥĿáĥĳ áĥļ
ľ Ðµ
à¯ģà®ķ à®¿à®±à®¤à¯ģ
Ġà´ķ àµĪ
Ġs er
à¤¢ à¤¼
íĨ ł
ĠÚ©ÙĪ Ø¦ÛĮ
n ym
ĠØ§ÙĦØ ·
Ñĳ Ñŀ
à°¾à° ļ
ãĤ £
ÑĦ Ð¾ÑĢÐ¼
Ã Ħ
ĠÄĳá» ĭ
à´ªàµįà´ªàµĨà´Ł àµģà´¤àµįà´¤
Ġt lo
à¦¿à¦ ī
ĠÛ ²
ĠØ´ Ø±
r ie
Ñı Ð¼
áĥĿáĥ ¥
áĢĦ áĢĶáĢº
ì Ī
ta m
Ġv Ã©g
à¤¾à¤ ģ
ĠÐ²Ð°Ð· Ð¸ÑĢ
ĠÑį Ð½Ð³
ĠÑĦÐ¾Ð¹ Ð´
ĠÐľ Ð°ÑĢ
à±ģà°Ĺ à±ģ
Ġà¦ ¢
Ġs ou
áĢ¡ áĢĬáĢ®
ĠÒĽÐ¸Ð» Ð¸Ð±
Ð´Ð¸ Ðº
Ġà´ª àµĩà´°
Ġàª° àª¾àªĸ
ä¼ Ł
èµĮ åľº
à¤¾à¤¸ à¥Ĥà¤¨
áĢĻáĢºáĢ³áĢŃ áĢ¸áĢŀ
ĠáĢĲáĢ½ áĢ±áĢ·
Ġà¦®à¦¾à¦¨ à§ģà¦·
à°°à±įà° ª
ĠA C
ĠØ ¶
Ïĥ Î®
ĠÎ´Î· Î¼Î¹Î¿ÏħÏģÎ³
Î³ ÎµÎ¹
g ol
áĥĹ áĥĲáĥķ
Ġm ÉĻn
ĠÐ¶ Ðµ
Ð¸Ðº ÑĢ
ÑĤ ÑįÑĢ
ye l
ĠÐ² ÑĬ
Ġê° ķ
Ġà´¨à´¿à´ Ļàµįà´Ļ
Ġà°¨ à°¾
Ð¾Ð¸ Ð¹
ĠÑĤÑŀÒĵÑĢÐ¸ ÑģÐ¸Ð´Ð°
ĠÐ¼ Ð°Ð¼Ð»Ð°ÐºÐ°ÑĤ
sz a
i den
ere a
Ð½ Ð°Ð»
áĢģáĢº áĢ¬
ĠáĢĲ áĢŃáĢ¯áĢĢáĢº
à±ģà°ķ à±Ĭ
áĥĹáĥ®áĥķ áĥĶáĥķ
Ġale bo
ta re
Ġ×Ļ ×©
à¦Ĺ à§ģà¦²
ĠÑĤÐ°ÑĬ Ð»Ð¸Ð¼
Ġà® Ĭ
ÑĥÐ² Ð°Ð½Ð½Ñı
ĠÐ¿ÑĢ Ð¾Ð²
ĠÑĪ ÑĥÐ¼
Ġà°ħ à°¤
Ã¶v lÉĻt
Ġìĺ Ī
ka i
ÙĨØ¯ Ùĩ
àª¿àª ¶
n Äħ
Ġe tsa
ĠÑģÐ² Ð°Ñĸ
Õ¡ Öģ
ĠÕ ¿
ĠâĢ İ
Ã¼ t
ĠáĢħáĢ®áĢ¸áĢķ áĢ¼áĢ¬áĢ¸áĢ
áĢĲ áĢĢáĢ¬
Ú© Ø±
tu ar
Î»Îµ Îº
Îº ÎŃ
Ġca el
Ġà® ¹
Ġcom o
ĠáĢŀ áĢĺáĢ¬
Ðº Ð°Ð³Ð°
ĠáĥĴ áĥĲáĥ¡
Ġc ette
ãĤ ı
åħ¨ çĲĥ
à¹Ħà¸ Łà¸
Ī à¹īà¸²à¸
Ġçİ¯äºļ çľŁäºº
Ġà¤ķà¤°à¤£ à¥įà¤¯à¤¾à¤¤
áĢ¶ áĤķ
áĢ¬áĢ¸áĢħ áĢ¼áĢ¬
ĠáĢŀáĢ° áĤķ
ĠáĢĴáĢ® áĢĩ
ĠÐ´ ÐµÐ»
áĢŃáĢ¯áĢĦáĢ¹áĢ ĦáĢ¶
áĢĳáĢ² áĢĢ
áĢĨ áĢ¯áĢ¶áĢ¸
ĠÐ² ÐµÐ´
Ġl á»
Ġna ch
ĠÃ© ta
ÑĨ ÐµÐ¹
ĠáĢŀ áĢĢáĢº
ĠÚ© Ú¾
áĥłáĥ£áĥ ľ
Ġba ÄŁ
ëª ¨
Ġà¤¹ à¥ĭà¤
Å« t
à«įàª¯ àª¾àªĤ
ĠW y
Ġà°® à±ģà°Ĥà°¦
Ġ×Ľ ×ľ
´ ĳ
ÐµÐ½ Ñĭ
à¤¿à¤ ª
Ø® Ø±
Ð°ÑĨ ÑĸÑĹ
Ġdz ie
Ġis ti
p re
ĠÐ´ Ð¾Ð±
ĠáĥĴ áĥĲáĥ®
di mo
áģ¾áĢĢ áĢĲáĢļáĢ¹
áĢĦáĢ¹áĢ ķ
áĢ¸áĢĻ áĢ»
à®¤ à®¾à®ķ
Ġta i
Ð² Ð°Ñŀ
Ġàª® àª¾àª°
à±ĩà° ¯
àµĭ à´·
Ø§ÛĮ Øª
ìļ ´
Ġje len
à´Ł à´¿
Ð» ÐµÐ¼
¨ à¥ĩ
Ġk ter
áĥĶáĥłáĥ ĵ
Ġk om
à´¿à´¨ àµģ
ãĤ ³
ĠdÃ© c
ĠÐ± Ð°Ð¹
Ġolu pese
Ġirin á¹£áº¹
Ġà´ª à´²
Ġàªµàª§ à«ģ
Ú© ÙĨ
áº «
Ġif oju
Ġi duro
ĠT rans
áĥ¬ áĥ§
ĠOlu dari
ĠE táº¹
á¹£ akoso
y u
w Ã©
à°¾à° Ĥ
çĪ Ĩ
Ġà¤ķà¥ĩà¤² à¤¾
tu ri
Ġà¤ľ à¤¾
Ġpe le
à±ĭ à°¡
Ġm Ã¡s
ĠÐ² Ð¸Ðº
ĠÐ³Ð°Ð´ Ð¾Ñŀ
Ġt ym
ĠìĹ °
Ð»Ñİ Ñĩ
ĳ áĢ¬áĢ¸
ģáĢ²áĢ· áĢŀáĢĬáĢ¹
ĠáĢĢáĢº áĢĻ
áĢ³áĢŃ áĤķ
ĠáĢĨáĢŃáĢ¯ áĢĲáĢ¬
áĢĲáĢ²áĢ·áĢ¡ áĢģáĢ«
áĢ½áĢ±áĢ¸áĢ Ķ
ch er
áĥĲáĥ¬ áĥĺáĥļ
ĠÐ³ Ð¸ÑĢ
Ø§Ø± Ø©
Ġ×Ķ ×¨
áĤ Ĥ
áģĢ áĢĶáĢ¹áĢ
áĤı áĢŃáĢ¯áĢĦáĢ¹
áĢŃ áĢļ
Å¡ ie
à°¾à°¨ à°¿
ĠáĢĢáĢº áĢĦáĢ¹áĢ¸áĢķ
áĢģáĢ¼ áĢ²
ĠáĢĻáĢŃ áĢŀáĢ¬áĢ¸áĢħáĢ¯
ish t
à®² à®¾à®®à¯į
à´¯ àµįà´¯
áĢĤáģ¤ áĢľ
ĠáĢĶ áĢ²áĢ·
ĠáĢĢáĢ»áĢ½áĢĶáĢº áĢĲáĢ±áĢ¬áĢº
ĠØ¯ ÙĨ
çĭ Ĥ
æ¶ ²
Ġæī ĵ
Ġà¨ °
łà¸²à¸ ¢
èĦ ±
åĵª éĩĮ
à¹Ĥà¸ ¢à¸
ĠçŃ ī
ĠP ok
ä»ĭ ç»į
à¤ª à¥įà¤°
ĠÎ¿ÏĢÎ¿ Î¯Î¿
GH z
Î¹ ÏİÎ½
ĠÎº Î¿Î½ÏĦÎ¬
ÏĨ Ïħ
Î¸ Î±
Ġgyf er
Ġdel l
Ġáĥ¨áĥĶáĥĺáĥ«áĥļ áĥĶáĥĳáĥĲ
se d
áĢģáĢº áĢ³áĢķáĢ¹áĢ
ĨáĢŃáĢ¯ áĢĲáĢ¬
áĢ¸áĢ »áĢĻ
ĠáĢķ áĢĽáĢŃáĢŀ
pa pá»į
ĠÐ¿ Ð°Ð²Ñĸ
áĢĨ áĢ¶áĢ¯áĢ¸
áĢħ áĢ¼áĢ¬
ĠáĢŁ áĢŃáĢ¯
Ð°Ñ ĥ
c Ä«
à´Ļàµįà´Ļà´³ àµģà´ŁàµĨ
ÉĻs indÉĻ
Ġmo Å¼
Ġs ie
áĢĦáĢ¹áĢ ±áĢĶ
áĢ±áĢĶ áĢ¬áĢ¹
ĠáĢĲ áĢ²áĢ·
ĠáĢģáĢ¯ áĤıáĢ½áĢħáĢ¹
ĠáĢĢáģ½ áĢ¼áĢĶáĢ¹áĢĻ
áĢ¡ áĢģ
me ji
au lu
Ġá»Į gháº¹náº¹
Ġwi wá»įle
Ġwhen u
Ġsur vey
Ġs et
Ġmi mu
à¤ķ à¥ĭ
Ġàª¦àª¿àªµ àª¸
ĠvÃł o
Ġk Ãº
«à¸ į
Ħ à¹Įà¸
Ġà¤Ĩ à¤°
í İ
ãģĦ ãĤĭ
ĠáĢĻáĢ¼áĢĶáĢºáĢĻ áĢ¬áĢĶáĢŃáĢ¯áĢĦáĢºáĢĦáĢ¶
áĢ¡áĢħ áĢĬáĢ¹áĢ¸
ĠáĢķáĢ¼ áĢ¯
Ġà°ī à°¦
ĠâĢĿ .
ÑĢ Ð°Ñģ
Ġà¦Ĩ à¦ĩ
Ġc ou
ĠØ³ Ø¨
Ġà´¸ à´¾à´§
ĠÑĢ ÑĥÐ±
Ġo le
Ðº Ð¾Ð¹
Ġàª¸à«ģàª §à«Ģ
Ð°ÑĤ ÑĥÑĢ
Ã¢n d
Ġà°ªà±įà°° à°ķ
ĠáĥĲáĥ¥ áĥķáĥ¡
à®¾à® ľ
Ġero ja
Ġde vi
ĠR áº¸
ĠP ri
Ñĩ Ð°Ñģ
ĠI fi
ĠBroad cast
p lá»įn
má»į ra
P C
ĠåĲ İ
Ġè® °
çĶ³ è¯·
æĸ ¼
ç¬ ĳ
Ġà¹Ģà¸ Ĭ
Ġ4 1
çĸ ĳ
à¸Ļà¸µ à¸
à¨ µ
Ġà¤¤ à¥Ģ
Ġta bili
Ġo whe
Ġnibi ti
Ġku kuru
Ġire ti
Ġipin láº¹
ĠM A
ĠI z
ĠA ng
ĠA na
åł ±
tras onic
s ÃŃ
Ġà®ķà¯Ĥ à®±
ëł ¥
la ÅŁ
ĠáĢĽ áĢĢáĢ¹
áĢķ áĢŃáĢ¯áĢĦáĢº
à¦¡ à¦¼
Ð¸ ÑĩÐµÑģÐº
ĠáĥĴáĥĲáĥľ áĥ¡
Ø³ ÙĬ
Ġ×Ķ× ŀ
ĠÎķ Îº
ĠY n
Ġfa it
æĺ¯çľŁ çļĦåĲĹ
Ĺ à¸´à¸
Ġà¨ ī
åħ¬ åĳĬ
Ġ% ï¼Į
è¯Ģ çªį
à¹ģà¸ ¥à¸°à¹Ģà¸
Ġà¤¦ à¥ĩà¤£
Ġà°µà°¿à° µ
ÑģÐ¿ ÑĥÐ±
Ð¸ ÑĤÐ¸
ĠÐ¿ÑĢ Ð°Ð·
Ġnd Ã«r
ĠØ§ Ø¯
ĠÐ²Ð° ÒĽ
Ġà°ļ à°¿à°¤à±įà°°
ĠáĢĽ áĢĶáĢº
Ġàªķàª° àªµàª¾
Ġà¤ľ à¤¬
le mo
áĢĲáĢ¼ áĢĢáĢ¹áĢ
ĠáĢľ áĢ¼
áĢĶ áĢ±áĢ¬áĢº
áĢĶ áĢ®áĢ¸áĢ
Äĵ s
àµĭ à´ķàµįà´ķ
à±Ģ à°ķ
Ġà®ª à®£
Ø¯ Ø©
Ø® Øª
ti f
or t
Y IN
ŃĲ â
Ġiya sá»į
Ġawu já»į
Ġatáº¹ le
ĠR oulette
ĠP lay
ĠGbi gba
b Ã¢
M I
B C
Ġipa lara
Ġi kede
Ġáĥĵáĥ¦ áĥĶáĥ¡
à¸Ńà¸²à¸« à¸²à¸£à¸
Ġà¤®à¥įà¤¹à¤£ à¥Ĥà¤¨
Ġa isan
ĠIgb imá»į
ĠGer man
Ð¿ Ð°Ð²
Ġk Ã¼l
ì¹´ ì§Ģëħ¸
ķ Į
áĢĨáĢŃáĢ¯ áĢĽáĢĦáĢº
áĢŀ áĢĦáĢº
Ġol ma
en to
ĠC am
Ð¸Ð· Ð²
ĠB áº¹áº¹
Ġà´¨ àµĩà´°
ĠA ko
ĠA da
ĠA are
Ġ7 0
Y A
Ġá»įjá»į gbá»įn
ĠÃł wá»įn
à¯ģà® ©
áĥķ áĥĶáĥķ
à±ģà° ¸à±įà°¤
ĠÐ³ ÑĢ
Ġm yÃ¶
áģµ áĢº
áĢħ áĢ¯áĢ¶
Ġk ur
Ñģ Ñĥ
Ġà¦ĺ à¦Ł
Ġp os
ĠàªĹ à«ģàªľàª°àª¾àª¤
Ġàª¦à«įàªµ àª¾àª°àª¾
à´¿à´ ³
Ġà¤ķà¤° à¥Ĥà¤¨
ĠáĢ¡áĢ¬ áĢı
à°¾à°Ĥà° Ĺ
Ġà¤²à¥ĩà¤ķ à¤¿à¤¨
áĥª áĥĺ
Ð» Ð¾ÒĽ
ĠÑĪ Ð¼Ð°ÑĤ
à®¾à®® à®²à¯į
ĠÐ³ ÑĥÐ·
Ġà´Ĵ à´¨àµįà´¨
ĠáĢ±áĢĢáĢº áĢ¬áĢ¹áĢ
ĠáĢĹ áĢ¯áĢĴ
Ø´ ÙĨ
ĠÏĥÏĩ ÎŃ
ĠÏĦÎµ Î»ÎµÏħÏĦÎ±
00 3
ĠD D
ĠÎµÏĢ Î¹Îº
ĠÎ» ÎµÎ¹ÏĦÎ¿ÏħÏģÎ³
ÏĥÏĦÎ· ÎºÎµ
ĠÎºÏģÎ¹ ÏĦÎ¹ÎºÎ®
Ïĥ Î¹Î¿
ĠÏĦÎ± Î¾Î¹
Ġc y
áĢŃ áĤĪ
áĢħ áĢ½áĢ¬
Ã³ k
Ġ ä¹
éĽ Ħ
éĺ ¿
åį ł
áŀ ĵ
è® ¨
ªà¸ °à¸
à¹Īà¸ ¡à¹Ģà¸
k k
Ġà¤®à¤¾à¤ Ŀ
Ð¼ Ð¾Ð¶
Ġà°¤ à°°
Ġag æĹĹèĪ°
ä¹ĭ åĲİ
à¹Ħà¸¡à¹Ī à¹Ħà¸Ķà¹ī
Ĭà¹Īà¸§à¸ ¢à¸
æ¯Ķ åĪĨ
ä½ľ çĶ¨
ĺà¸ ¸
å¹´ çļĦ
åĳ ¢
æĥ ł
Ġå¹ ´
æķ ĳ
å¸ ®
Ġåĩ¯åıĳ ä½ĵèĤ²
å¼ Ĥ
åŃ¦ ä¹ł
¸ à¹Īà¸¡à¸
Ġè Ī
çĽ Ľ
ŀà¸ ·à¹īà¸Ļà¸
ĠåĽł ä¸º
ç§ Ł
à¸£à¸±à¸ Ĳ
Ġà¤¯à¥ĩà¤ ¥
Ġb ÄĻ
Ġun s
áĥł áĥĿáĥĽ
Ã¼ z
Ġà¦ª à§ľ
Ġà®® à®°
à´¯ à´¿à´²àµĨ
e le
Ðº ÑĢÑĭ
ung s
áĥłáĥĺáĥķ áĥĺ
Ġh Ãłng
Ġ×ŀ× Ĳ
ÛĮÚ© ÙĨ
à¹Ģ à¸Ńà¸²à¸
Ġp k
æ ¦Ĥ
Ĺà¸²à¸ ĩà¹Ģà¸
Ġà¤µ à¤¾à¤Ł
ĠáĢ±áĢĸ áĢ¬áĢ¹áĢ»áĢķ
áĢĻ áģ¸
ĠáĢ¡áĢŀ áĢĢáĢ¹
áĢĻáĢºáĢŃáĢ³ áĢ¸
ĠáĢĦ áĢº
Ġà¦¸ à¦Ļà§įà¦Ĺà§ĩ
Ġâ Ħĸ
ĠÐĲ Ð»Ñı
Ã© ri
ì ¡
ĠÑĤ Ð¾Ðµ
Ġàª¬ àª¹
d ni
à¯ĭ à®¤
Ġ3 80
Ð»Ð¸ Ð²
à§įà¦ ŀ
à¥Ĥà¤ ²
ĠáĥĲáĥ Ĵ
ke j
sÄ±n Ä±n
ÏĦÎ¹ Î¿
wy s
Ġg ad
Ø° Ùĩ
Ð°Ð¼ Ð¿
à´¿à´ ľ
ĠK oso
Ġti j
ãģ ¿
t os
ĠÑĤÑĢÑį Ð±Ð°
áĥĲáĥĵ áĥĿ
ĠÐ¢Ð¾ÑĪ ÐºÐµÐ½ÑĤ
ĠÑİ Ð·
ĠÐ¹ Ð¸
ĠÑħ Ð¾Ð½
Ġà´ª àµĩ
Ġdi es
èĥ½ å¤Ł
Ġä¸ ĩ
à¥ §
ĠÐļ Ð°Ðº
Ġba tho
Ġáĥ¨áĥĶáĥĽ áĥĹáĥ®áĥķáĥĶáĥķ
àª°à«įàª µ
Ġæ¾³éĹ¨ ag
ç Ĵ
å¤ ı
åŁº ç¡Ģ
Ġà¹ģà¸¥ à¹īà¸§à¸
é¡ º
èĩªå·± çļĦ
ģà¸¥à¸ ±à¸ļà¸
å°±æĺ¯ åįļ
à¹ģà¸ ªà¸Ķà¸
ĺ à¸£à¸£à¸¡à¸
Ī à¸Ļà¸
åĤ ¨
Ġè Ļ
à¥Ģ à¤°
ar en
Ġs ÉĻ
Ð¶ Ð´
à´¯ àµĭà´Ĺ
ĠÐº ÐµÐ¹
ĠÐĳ Ð°ÑĢ
te le
ĠÙĪØ² ÛĮØ±
Ġà°¤ à°®
Ġnh iá»ģu
Ġp la
Ġà®ª à®¾à®¤
Ð°Ðµ Ð¼
ĠØ¬ Ø§Øª
ÑĨ ÑĨÑĳ
à¦° à¦£
Ġçİ¯äºļ åĽ½éĻħ
Ĥ à¹īà¸Ńà¸¡à¸¹à¸
å¾ Į
Ġæĺ İ
Ġp c
«à¸¥à¸²à¸ ¢
åªĴ ä½ĵ
ģà¸´à¸ Īà¸
Ġå¤ ĸ
ķ à¸Ńà¸Ļ
Ġà¸ ¡
æĿ ¾
ï¼ ģ
è´£ ä»»
Ġà¨¹ à©Ī
à¸µ à¹īà¸
«à¹ĩ à¸Ļ
11 1
Ġ ç½ĳ
ç¬ Ķ
Ġà¸ Īà¸°à¸
åĽ °
_ å®ĺæĸ¹
Ġć ą
ï º
äº¤ éĢļ
«à¸ ¢à¸
Ġå°Ĭé¾Ļ äººçĶŁ
è§£ åĨ³
å§ Ĳ
«à¸Ļà¸¶ à¹Īà¸ĩà¸
à¥įà¤¯ à¤Ĥà¤¤
ì² ´
Ú© Øª
Ġto i
it Ãł
à°¿à°Ĥà°ļ à±ĩ
Ġes ta
ĠÐ³ÑįÑĤ Ð°Ð³Ð°
Ġáĥĺ áĥĴ
ĠÑĢ Ñŀ
Ñģ Ð¸Ð½
ĠÐĳ Ð¸ÑĢ
Ð¼ Ð°Ð´
Ġg wa
ĠÑģ Ð¸Ñĳ
ĠÙĥ ÙĦ
Ġpr Ã©
Ġà¤¥ à¥ĩ
ÑģÐ¸ ÑĤ
szy st
Ġàª¬ àª§
Ñĥ Ð²Ð°
Ġv Ã¡l
Ġdu ke
ÒĽ Ð¸Ð½
å¥ ¥
Ġè¯ ´
äº¤ æĺĵ
Ķ é©°
å® Ī
à¹Ħà¸ ĭà¸
æľĢæĸ°çĻ»å½ķ åľ°åĿĢ
à¹ģà¸ Ľà¸
µ à¤¾
ĠÐ¼ Ð°ÑĪ
ĠáĥĲáĥ¡ áĥĶáĥķáĥĶ
à±ĩà° ľ
Ġ×Ķ× ĳ
Ġà®İà®¤ à®¿à®°
Ġj Ã¤
Å¥ a
Ð°Ñħ Ð¾Ð´Ð·Ñĸ
Ð½Ð¾ÑģÑĤ Ñĸ
ĠâĢİ #
ĠÃ§ Ä±x
Ġa ce
à´¤ àµįà´¥
àª¨à«įàª ¸
à§ģà¦ ĸ
ÑĥÐ½ Ð¸Ð½
ÙĪ Ø¹
ĳ Ĳ
ty cz
Ġà° ĸ
Ġcom me
ĠÐ½ Ð°Ñĩ
Ġdas s
Ġm Äģ
ĠpÅĻ ÃŃ
ÐºÐ¾ ÑĹ
Ġl áº¡i
ĠáĥĲáĥ® áĥļ
Ġy s
Ã©n t
Ġà®ī à®°
Ġà¦¬à¦² à§ĩ
nos Å¥
Ġsh qip
sh me
gi o
ĠÐ»Ñİ Ð±
áĢĲáĢļáĢº áĢľáĢŃáĢ¯áĢ·
ĸ áĢŃáĢ¯áĢ·
owe j
à±ĩ à°Ĥà°¦à±įà°°
Õ¸ ÖĢ
di yi
Ġà¤° à¤¹à¥Ģ
áĥĲáĥľ áĥ¢
ĠáĢľáĢĢáĢ¹áĢ ĽáĢ½áĢŃ
Ļ áĢļáĢ¹
Ģ áĢ¬
áĢ¡ áĢĸáĢ½áĢ²áĢ·
be le
Ġàª¸ à«įàªŁ
ãĥĥ ãĥĪ
Ġà´¦ à´¿à´µ
ra s
Ġà¦ķà¦¿à¦Ľ à§ģ
Ġà°® à±Ĩ
ĠØ§ÙĦÙĦ Ùĩ
ĠÐ¸ Ñħ
Ùģ ÙĬ
Ķ áĢĬáĢ¹áĢ¸
áĢķáĢ« áĢľ
Ġà¤Ńà¤¾à¤° à¤¤
lu l
Ð¿ Ð¾Ð²
Ġà¤¦ à¥Ģ
à´¿à´¨ à´¿à´®
ĠÚ¯ Ø±
u re
ĠáĥĽ áĥĺáĥĸ
Ðµ ÑĤÐ¾
áĢ°áĢ¸áĢ±áĢ ķáĢ«
áģ¿áĢĸ áĢŃáĢ³
áĢĶ áĢ¶
ĠÐ¿ ÑĭÑĤ
áĢ±áĢ¡áĢ¬áĢĦáĢ¹áĢ ĨáĢĶáĢ¹áĢ¸
ĳáĢ¬áĢ¸áĢ ĲáĢ¬
Ġáģģáģ ĥ
àµĢ à´ķàµįà´·
áĢ Į
ĳ ľ
Ð°Ð²Ð°Ð½ Ñĭ
à¤¾à¤ «
Ġà°° à°¾à°·à±įà°Łà±įà°°
ĠtÅ¡ e
he lo
Ġà®ķ à®¾à®°
ĠáĢ¡ áĢĦáĢº
à°¿à°ª à±ĭà°¯
ĠÑģÑŀ Ð·
Ð¸Ñı Ð¸
Ġm ag
Ġ×¢ ×Ŀ
ĠÑĨ Ðµ
áĥ£ áĥĲáĥļ
Ð°Ð½ Ð½Ñĸ
Ġà´®àµģà´ ĸ
c je
ba ka
Ġtr Ãªn
Ġà´Ĩ à´¶
la d
Ġàª¸ à«įàª¥
ĠÑĤ ÐµÑĢ
Ð» Ð°ÑĤÐ¸
à°¿à°ķ à°¾à°°
ĠÙĦ Ùħ
ĠÐ¼ Ð°ÑģÑĤ
Ġãģ Ŀ
Ġë Ķ
áĢĢ áĢ¬áĢ¸
áĤĲ áĢ¶áĢ¯
ĠáĢħ áĢ¬áĢ¸áĢ
ĠáĢģáĢ¯ áĤıáĢ½áĢħáĢ¹áĢ
ĠáĢĿ áĢĶáĢº
Õ¸ÖĤÕ©Õµ Õ¸ÖĤÕ¶
lÉĻ ÅŁ
ĠÑĤÐµ Ñħ
ĠÐ¼Ð°ÑĢ ÐºÐ°Ð·
Ġo li
Ð½ÑĸÑĨ ÑĤÐ²Ð°
ĠáĥĻ áĥĺáĥĵ
Ġà¤¯ à¥ĩ
à´¸àµįà´¥ à´¾à´¨
ÈĽi i
Ġz na
Ġfa ire
r os
Ò ²
ĠÐ¼Ñĥ Ð½Ð¾
Ð· Ð½Ð°Ñĩ
à¦ ·à§įà¦Ł
ĠáĥĽ áĥĲáĥĽ
à´¿à´° àµģà´¨àµįà´¨
Ðµ ÑĬ
áĢ® áĢĲ
Ġà®¤à¯Ĭà®Ł à®°
à°¿à°¯ à°¾
áĥĲáĥ Ń
å¤§ å®¶
Ġç Ĳ
6 2
ä¹Ł æĺ¯
à¹ģà¸ ľ
æµ ª
ļ à¹Ģà¸
Ġ6 8
åľ° æĸ¹
Ġà¤ķ à¤¿à¤Ĥà¤
ĠÐ±ÑĥÐ´ ÐµÑĤ
ĠÅ ł
Ġà¤ħ à¤¬
Ñı Ð·
ĠkÃ« tÃ«
.... ....
áĢ±áĢĢáĢº áĢ¬áĢĦáĢ¹áĢ¸
áĢĲáĢ¹áĢ Ľ
áĢ±áĢĳ áĢ¼
ĠáĢĨáĢŃáĢ¯ áĢĲáĢ²áĢ·
áĢ¸áĢ ĶáĢ²áĤĶ
Ġáģģáģ ģ
la h
Ġmin t
Ø§Ø± Ø¯
ĠáĢļ áĢĦáĢ¹áĢ¸
ĠáĢ»áĢķáĢĬáĢ¹áĢ ±áĢĳáĢ¬áĢĦáĢ¹áĢħáĢ¯
áĢģáĢ» áĢŃáĢ¯áĢ·
h l
áĥĽ áĥĶáĥĵ
Ġà¤¬ à¥Ī
ĠÐ´ Ð°Ð»
Ġon t
ĠØ³ ÙĪ
à¦¿à¦ ¡
Ġà´¸à´Ĥ à´ĺ
Ð¸Ð» Ð¸ÑĪ
ĠÐºÐ°ÑĢ Ð´
à°°à±įà° ®
Ñį Ñŀ
Ġkan Ã«
Ġìķ Ĭ
àµĭ à´¯
áĥĲáĥ¡ áĥĺ
Ġs ul
Ġà®µ à®¿à®°
Ð¾Ð² Ð¾ÑĢ
Ġàª® à«ĭàªŁ
j er
Ġà¤¦ à¤¿à¤¨
× £
Ġà¦¬ à§ĩà¦¶
Ġà´ķ àµĭà´Ł
p ie
Ġth i
ĠØª ØŃ
Î»ÎŃ Î¿Î½
ĠÎµ Î¹Ïĥ
ÏĨ Î¬Î»
ĠÎº ÏģÎ±
ÏĦ ÏģÎŃ
Ġ Ïī
Î¶ ÏĮ
ĠÏĢ Î¹
ÏĥÏĦÎ¹Î±ÏĦÏĮ ÏģÎ¹Î±
ĠÏĥ Î±Î½
ÏĮÏĦÎ· ÏĦÎµÏĤ
Ïħ Ïĩ
ĠÎ³ ÎµÎ½
f yd
à´ İ
ĠáĥĽáĥĿáĥ ®
ĠÐĲ Ð½
Ġà°ľ à°¨
ħ áĢ®áĢ¸áĢ
ÑĤ ÑĥÑĢ
Ä± q
ĠáĢĴáĢ® áĢĢ
Ġsz a
ģáĢ» áĢ¯áĢķáĢº
ãĥĥ ãĤ¯
à´¤ àµįà´¯
te Ä¾
ĠØ§Ù¾ ÙĨÛĮ
c er
Ġà¤ķà¤° à¤¤à¥ĩ
ĠÑģÑĤ ÑĥÐ´
ģáĢº áĢ³áĢķáĢ¹
áĢ±áĢĨ áĢ¬áĢĦáĢ¹
ĠáĢĽáĢĶáĢ¹áĢĢáĢ¯ áĢĶáĢ¹
áĢĺ áĢ¬áĢŀáĢ¬
à±įà°° à±Ĩ
ĠÐ³ ÑĥÑĢ
Ġo ch
Ġà®¨ à¯ĩà®°
v ÃŃ
Ð¸ÑĢ Ð¾
ÑĦ Ð°ÑĢÐ¼
Ġáĥ¡áĥĲáĥ®áĥĶáĥļ áĥĽ
t k
ÐµÑģ ÑĮ
Ġai z
àª° à«ĩ
áº· t
Ġà°¸à°¿à°¨à°¿à°® à°¾
Ġà° Ĳ
ĠáĥĹ áĥ£áĥĽ
lu ng
Ġk Ã©p
áĢĢáģł áĢŀ
áĢ¡ áĢŃáĢĻáĢ¹áĢ
ĠáĢĨ áĢĢáĢ¹áĢľ
Ġ áĤıáĢ½áĢħáĢ¹
áĢĦáĢºáĢ¸áĢ Ĩ
Õ¸Õ ¾
Ġ Õ¡Õ
s ÉĻ
un ÈĽ
Ð°Ñİ ÑĤÑĮ
ĠÐº Ð¾Ð¶
à´¿à´¤ àµįà´¤
áĢ±áĢ »áĢĸ
ĠáĢ¡áĢŀ áĢ¯áĢ¶áĢ¸áĢ
sh t
ĠÙĩ Ø°Ø§
ĠÙħ Ø·
ãĥ Ĩ
ĠÃ İ
ÑģÐºÑĸ Ñı
Ġvo i
Ġ {
Ġì Ļ
Ġg ra
Ġà´ı à´±àµįà´±
Ġàª¹ à«ģàªĤ
Ð» ÐµÐ½Ð¸Ðµ
à¤Ĥà¤ Ł
àª¾àª¤ à«įàª°
Ġà°ħ à°Ĥà°Ł
Ġà¦ħà¦¨ à§ĩà¦ķ
Ġwir d
Ġw s
ĠÐ²ÑĭÐº Ð°ÑĢÑĭÑģÑĤ
Ġe o
ci o
×ĳ ×ľ
áĥĺáĥ¡ áĥĹáĥķáĥĺáĥ¡
zi k
Ø§ÛĮ Ø¯
j s
Î¿ Î³
ĠÎ¿ÏĢÎ¿ Î¯
ĠÎ¤ Î¹
Ïĥ ÏĥÎ±
Î½Î¿Î½ ÏĦÎ±Î¹
ĠÎľ Î±Ïģ
Î» Î¹Îº
Î½Î¿ Î¹
Î¸Î· ÎºÎ±Î½
ĠÎ ĸ
ĠÎ¤ Îµ
ĠÏĥÏĦÎ¿ Î¹
ĠÏĢ ÏģÎ¹Î½
ÎĻÎ Ŀ
ĠÏĢÎ¬Î½ Ïī
ĠÎĺ Î±
ĠÏĮ ÏĢÎ¿Ïħ
ĠÏĦ Î¯
Î¯ ÏĦÎµ
w m
Ġà°ļà°¾à°² à°¾
áĢ±áĢ ĦáĢ¼
ĠáĢĽáĢ½áĢŃ áĢ±áĢĶ
ĠáĢ±áĢĨáĢ¬áĢĦáĢ¹áĢ ĽáĢ¼áĢĢáĢ¹áĢ
ĠáĢĻáĢ¼ áĢŃáĢ¯áĢ·
ĠÑĤ ÐµÐ¼
Ġà®ĩ à®¯
Ð± Ð¾Ð»
ĠÕ Ģ
Õ¸Õ ²
Ġya x
ĠÐ¸Ðº ÐºÐ¸
Ð³ Ð¸Ð»
Ð¸Ð¼ Ð°
Ġnu u
Ġli le
Ġper s
Ġipa de
Ġi dun
Ġali ho
ĠNitorin aa
ĠE ni
Ġáº¹ já»į
Ð°Ð² Ð¾Ð±
ĠÚ© Ø§Ùħ
Ġtá»į ju
Ġo á¹£
ĠÐ°Ñģ Ð¾Ñģ
nos ti
Ø¨ ÙĦ
ÑĤ Ð°Ñŀ
ĠÑĥ Ð´
á»ĳ ng
èģ ļ
å° į
Ġå½© ç»ıå½©ç¥¨
èĢģ èĻİ
åĪ ļ
à¹ Ĭ
Ġå ķ
è Ĩ
ç» ĥ
Į æľĽ
æĸ¹ æ¡Ī
ä¸¾ è¡Į
Ġà¤ħ à¤Ń
áĢ±áĢ¬áĢº áĢĻ
Ġ íķ´
à®¾à®² à¯ģà®®à¯į
Ð± Ð¾ÑĪ
Ġàª® à«ĭàª
áĥ¬ áĥĺáĥ¤
Ġà´ķ àµģà´Ł
Ġiyasá»į tá»į
Ġfun ni
ĠR ay
ĠI BI
ĠA S
ul l
li ng
ĠáĢ±áĢ »áĢķ
áĢħ áĢ¬áĢ¸áĢľ
E L
A D
Ġá¹¢ a
Ġiw osan
à§Ł à§ĩ
à«Ģàª Ł
ĠZ a
Ġi kan
Ġa rin
Ġà¤ª à¥Ģ
ĠáĢĽ áĢ²áĤķ
áĢĽáĢ®áĢ¸áĢ ļ
ĠÑī Ðµ
áĢľáĢŃáĢ¯ áĤķ
áĢ¶ áĢĲ
ĠR áº¹
ĠP er
áĥĶáĥĽ áĥĳ
Ð¿ÑĢ Ð°Ð²
ĠP C
ĠJo han
à¦¤ à§ĭ
ĠAma zon
v es
pin le
ag bo
X L
Ġá»Įlá»į hun
Ġá¹£ o
èģĶ ç½ĳ
Ġè Ĭ
à¹Ģà¸ ¨à¸
ç§ĳ åŃ¦
à¹ ĭ
_ å½©ç¥¨
Ħ à¹Į
Ġà¤¦ à¥ĩà¤¶
áĢķ áĢĦáĢ¹
áĢģáĢ²áĢ· áĢĲáĢ¬
Ġáģģáģ Ī
tz en
Ġb ar
Ð² Ð°Ð»Ñĸ
Ġ×ľ ×ŀ×
Ġà´® à´±
Ġth is
Ġija bá»į
Ġi lo
Ġapa jláº¹
ĠY an
ĠR us
áĥĲáĥłáĥ ©
ĠáĢĽ áĢ½áĢ¬
à«įàª ¡
áĢĨáĢŃáĢ¯áĢĦáĢº áĢĽáĢ¬
ĠÑ ĺ
Ġà´¨à´¿à´¨àµįà´¨ àµį
ĠIsra eli
ol l
ke le
k iri
Ã¡l y
ÑĩÑĭ Ð½
ĠÐ¾ÑĢ Ð³Ð°Ð½
ĠÐĿ Ðµ
ĸ áĢ¯áĢŃáĤĶ
ĠáĢ»áĢķáĢ³ áĢľáĢ¯áĢķáĢ¹áĢ
ĠáĢ¡ áĢ»áĢģ
áĢ¯ áĢıáĢ¹áĢ
±áĢĽ áĢ¬áĢĢáĢ¹
ĠáĢ±áĢķ áģļ
áģ¾áĢĢ áĢĲáĢ¬
ĻáĢº áĢ¬áĢ¸áĢ¡
ĠáĢ¡ áĢĢáĢ¼
Ġz ÅĤ
ĠØ® Ø§ÙĨ
i êŀĮ
en ce
at h
K I
Ġm an
Ġláº¹ n
ãĤ «
ĠS pe
Ġâķ §
ĠÐ¼Ð°Ð³ ÑĩÑĭ
¦ ¬
ÄĻ k
ĠI ba
ĠC O
Ġ ese
Ø¹ Ø±
Ġp Ã¤Ã¤
r on
Ġ... .
áĢ¬áĢ¸áĢ ĲáĢ²áĢ·
ĠáĢĽáĢĢáĢº áĢĶáĢ±áĢ·
Ġáĥĺáĥľ áĥ¢
ke ti
du ta
ER E
Ġw áº¹n
Ġon Ãº
Ġo se
Ġà°ļà±ĩà°¸ à°¿à°¨
Ġlá»įwá»į lá»įwá»į
Ġle ro
Ġida duro
Ġbu buru
Ġa run
Ġa na
ĠG o
Ġà¦ķà¦¥ à¦¾
Å¡an u
Ġà®ļ à®¿à®²
ĠØ³ ÛĮ
ĠáĢ¦ áĢ¸áĢ
hun sa
Ġáº¸ gbáº¹
Ð¾Ð²Ñĭ Ðµ
è®¤ ä¸º
à¸£à¸ ´
à¤¦à¥įà¤ ¦
Ġàªľ à«Ģàªµ
Ġy ise
Ġw un
Ġsi sá»į
Ġoj láº¹
Ġo re
Ġn du
Ġis an
áĢ±áĢ« áĢĢáĢº
Ġida já»į
Ġi k
ĠÐ¿ÐµÑĢ Ð°Ð´
ĠáĥĽ áĥĻ
Ð² Ð»Ñı
ĠY Ã©
ĠMar ch
ĠMach ine
ĠM á»į
Ġ7 5
à² ķ
d ÃŃ
Õ¥Õ ¿
Ġson ra
Ġà´Ł àµĨ
Ġà¦® à¦¹
àª¨ à«įàªŁ
ì¹ ´ëĿ¼
ê± ´
Ġà°ª à°¦
áĥĶáĥłáĥ ķ
Ġà¤ľ à¤¾à¤¨
áº »
ÙĪ Ø§
Ġu t
ÑĤ Ñį
Ġf il
áĢĶáĢ¹áĢ¸ áĢĢáĢº
áĢ±áĢĢ áĢ¬áĢĦáĢ¹áĢ
áĢ±áĢ¡áĢ¬áĢĦáĢ¹áĢĨáĢĶáĢ¹áĢ¸ áĢħáĢ¯
ĠáĢ±áĢĢáĢº áĢ¬áĢĢáĢ¹áĢ
áģ¾áĢĢ áĢķáĢ«
áĢŃáĢ¯áĢĦáĢºáĢ¸áĢ Ľ
à§įà¦¬ à¦°
Ġà´ĩ à´°
Ġl it
Å į
Ġse o
áĥ¥ áĥĿáĥľ
Ġï¼Į ãĢĬ
à¥įà¤¯à¤¾à¤ ¯
±áģ¾áĢĢ áĢ¬áĢĦáĢ¹áĢ·
áĢ¯áĢ¶ áĢ¸áĢħ
ĠÐ£ÐºÑĢÐ°ÑĹ Ð½Ð¸
ÐºÐ¸ Ñħ
ĠÑĤ Ð°Ð¼Ñĥ
Ġ×ĸ ×Ķ
ë° ©
ĠÏĢ Î±Î½
6 4
Î¼Î± ÏĥÏĦÎµ
Î³ Ïĩ
ĠÏħ ÏĢÎµ
Îº ÏģÎ±
ĠÎĳ ÏĢÎ¿
ĠÏĥ ÎºÎ¿
ĠÏħÏĢÎ¬ÏģÏĩ ÎµÎ¹
Î³Î³ ÎµÎ»
ĠÎ± ÏĢÎ±
ĠÎŃÎ½Î± Î½
Ġg we
Ãª me
ĳáĢ² áĢĢ
áĢĻ áĢľáĢ²
áĢĢ áĢ½áĢļáĢº
¸ à±įà°¥
ĠÐĶ Ð°Ð²
à¦¾à¦° à§ĩ
Ġà´® àµĭ
ov an
ĠÑģ Ð¸ÑĦ
Ġåį İ
à¤ķ à¥įà¤ķ
ĠMo dimo
ta k
ĠÐ² Ð°Ðº
ĠÙħ Ø³
Ġha e
ãĥ £
ĠÐ¼Ð¸Ð» Ð»Ð¸
bu láº¹
bo l
Ġla ra
Ð½Ð¸ ÑĤÐµ
±áĢĢáĢº áĢ¬áĢĦáĢ¹áĢ¸
ĠáĢĲ áĤĲ
ĠáĢ¡ áĢĲáĢ¼áĢĦáĢ¹áĢ¸
áĢĶáĢ¹áĢ Ĩ
áĢ¸áĢľ áĢŃáĢ¯áĢĢáĢ¹áĢ
áĢ¸áĢ±áĢ Ĩ
áĢ±áĢĻ áĢ¾áĢ¬
Ġkpa hen
Ġehe láº¹
Ġde láº¹
Ġayan fáº¹
Ġa sa
ĠNi geria
ĠNi bi
ĠM etro
Ġàª¤à«įàª¯ àª¾àª°à«ĩ
Ġà¤µà¤¿à¤ ¶
ĠK ing
áĢ± áĢĢáĢ¼
ĠIyan jáº¹
ĠItá»į sá»įna
ĠI ká»į
ĠF UN
ĠC or
Ġáĥ¡áĥĲáĥ ¤
ĠC ha
á¹£ o
ĳ áĢ¯áĢĲáĢ¹áĢ
áĢĶáĢ¹áĢĳ áĢĻáĢ¹áĢ¸
áĢĶáĢ¹áĢ¸ áĢĻ
áĢĳ áĢĢáĢ¹
áĢ¡áĢ±áĢĶ áĢĶáĢ²áĤĶ
ê ¨
áĢĽ áĢŀáĢĬáĢ¹
áĢĶáĢ¹ áĤķ
áĢŀáĢĬáĢº áĢ·
à´« àµį
ŀ Ī
áĢĲ áĢĲáĢº
Ġà®ª à®¿à®±
ul Ãº
sá»į rá»į
ay en
ĠÐŁ Ð°Ð´
à§Ĥ à¦²
à°°à±įà° ¥
W A
N I
Ġn z
Ġimá»į láº¹
Ġb uru
Ġa to
ĠN di
ĠK O
ĠEnáº¹ wutu
ĠA wo
Ġ2 F
tic le
s Ã¡n
tate a
r ÃŃ
áĢĻ áĢ¹
ľ áĢŃáĢ¯
ĠÐ±ÑŀÐ» ÑģÐ°
ĠÐ³ Ð°Ð¿
Ġh ÉĻm
Ġp ir
ĠáĢĵ áĢ¬áĢĲáĢ¹áĢ
ĠáĢĶáĢ¾ áĢĦáĢ·áĢº
ĠQ u
Ġà´¸à´Ĥ à´Ń
Ð¶ Ð°ÑĤ
ĠÐ± Ð°Ò³
ĠÐĲ ÑĢ
st Ã¤
àª¾àª ı
Î»ÏĮ Î³
Ġu 003
ĠÏĥ Ïī
ĠÏĢÏģÎ¿ Î²
ÏĦÎ¿ ÏĢÎ¿Î¹
ÏĨ Î·
Î±Ïĥ Î¯Î±
Î¯ Î´Î¹
Ġf od
ÑģÑĸ Ñħ
ĠÙĥ Ø§ÙĨ
×ª ×Ļ
áĥĵ áĥĿáĥĽ
Ø¬ Ûģ
Ġà´ħ à´¤àµį
å «
ĠåĮ ħ
æīĳåħĭ ä¹ĭæĺŁ
ç§ ĺ
à©Ĥ à©°
Ġå¾ ®
à¸£à¸ ĸà¸
Ġà¤® à¤¨
ÐµÐ» ÐµÐ¹
ag es
i ch
Ġà®ĩà®¨à¯įà®¤ à®¿à®¯
Ġà°¸ à±įà°ª
Ð°ÑĨÑĭÑı Ð½Ð°Ð»ÑĮ
è´ ´
à¥įà¤ §
áº¥ p
Ġbe z
lo ng
à«Ģàª §
à®¾à® Ļà¯įà®ķ
áĥ£áĥłáĥ ¡
ÑĥÐ² Ð°ÑĤÐ¸
Ñģ ÑĨ
à¦¾à¦ «
ÑĦ Ð¸
áĥĶáĥĳ áĥĶáĥĳáĥĺ
Ġì µľ
ãĥ ¡
m os
áĤĨ áĢĶáĢ¬
áĢĢ áĢĲáĢ±áĢ¬áĢ·
b il
ĠáĢ¡áĢŀ áĢĢáĢº
Ø² ÛĮ
ka an
áĥķ áĥĺáĥļ
Ġà°¦ à±ĩà°¶
àª¾àª Ł
Ġaz t
Ġà´İà´¨àµįà´¨ à´¿à´µ
à¯ģà®³ à¯į
t res
ĠÐ¿ÑĢ Ð°Ð¿
Ð»Ð¸ Ñĩ
Ð¾ÑĪ ÑĤ
Ġà¤¬ à¤¾à¤¤
ĠáĢĲáĢĽ áĢ¯áĢĲáĢº
Ġà¦¬ à¦¾
Ġp l
Ġ×ŀ× ª
owan ie
un un
ĠáĥĽ áĥĿáĥĴ
ĠçĪ ±
ç¨ĭ åºı
ŀà¸´ à¹Īà¸¡à¸
à¹īà¸Ńà¸ ¡
Ġé Ĵ
à¸Ńà¸µà¸ ģ
à¤¾à¤¸ à¥įà¤¤
de os
ĠáĢ»áĢĸáĢħáĢ¹áĢ ŀáĢĬáĢ¹
ĠáĢĻ áĢĽáĢ¾áĢŃ
àª¾àª£ à«Ģ
Ã± o
Ġà®ķà¯Ĥ à®Ł
Ġìĥ Ŀ
ĠÐĴ Ñı
ĠÚ© Ùħ
Ð°ÑĤÑĮ ÑģÑı
Ġf um
Ġà´ŀ à´¾à´¨àµįâĢį
àµģà´¦ àµįà´§
áĢĻáĢ½ áĢĲáĢ¹áĢ
áĢ±áģ¾áĢĢ áĢ¬áĢĦáĢ·áĢ¹
ĠáĢĲ áĢĢáĢ¹áĢ
ĠáĢ»áĢķáĢĶáĢ¹áĢľ áĢĬáĢ¹áĢ
ĠáĢ¡ áĢĳáĢŃ
owa Äĩ
di k
ĠD as
Ð°Ñ į
ãģ¾ ãģĹãģŁ
áĢ»áĢĸáĢħáĢ¹áĢ ŀáĢĬáĢ¹
áĢĻáĢ½áĢ¬ áĢķáĢ«
áĢĢáĢŃáĢ¯ áĢĦáĢº
Ð²Ð°Ð½ Ð½Ñı
àª¾àª ī
ĠÄĳ áº§u
ÙĪ ÙĬ
Ļ áĢ»
d ÄĽ
Ġ à¬
Ġà¤ķ à¥įà¤¯à¤¾
áĥĲáĥĹ áĥĲ
ti v
ÑģÐº Ð°
Ġà°ªà±įà°° à°ľ
Ġà¤° à¥Ĥà¤ª
à®¿à®© à¯įà®©
ÐºÑĸ Ð¼
j iem
ĠìĹ Ĩ
ÏĨ ÏĮ
Î½ ÎµÏĤ
Î»Î± Î¼Î²
ĠÎ´ÏħÎ½Î± ÏĦÏĮ
ĠÏĥÏĦÎ¹ Î³
ÏĦÏī ÏĥÎ·
ÏĪ Îµ
Î¬ Î²
ĠÏĢÎ±Î¹ ÏĩÎ½
b r
ma an
ĠáĥĽáĥĺáĥĽ áĥĲáĥłáĥĹ
ĠÐº Ð°ÑĤ
à´¨ à´¿
àª Ŀ
Ġåº Ķ
åĽ¾ çīĩ
åı ³
©à¸ ±à¸
è¿ĺ æĺ¯
à¥ĩà¤Ĥà¤ ¦
ĠÎ» ÎµÏĢ
ĠÎŃ Î½
Îķ ÎĿ
ĠÏĮ ÏĥÎ¿
ĠÎµ ÏĦÎ±Î¹
Î» Î¹Ïĥ
ÏĢÎ¿Ïħ ÏģÎ³
Îķ ÎĻ
Îº Î¹Î±
ĠÏĩ Î»Î¼
Îº Î¿Ïį
Î¹ Î²
Ġei ch
iráº¹ diti
GG GG
A E
Ġsins Ã¨Ì£n
Ġpa danu
ĠiP hone
Ġala wá»į
ĠÐ´ Ð°Ðº
ĠÐ¸ ÒĽÑĤÐ¸Ñģ
Ġa ten
owan ia
ĠN wá»įn
ĠM on
ĠBur sa
ĠB an
Ġ ÅĦ
ĠtÃ¶ bb
Ġà°® à±ģà°
Ġ×Ķ× ¤
nÃ© ho
Ð¾Ð· Ð¸Ð¼
Ñĥ ÐµÑĤ
è¿Ļ äºĽ
áŀ ı
ª à¹Īà¸ĩà¸
Ġçİ¯äºļag å¹³åı°
æİ ª
ķ à¸²
ĠåĽ ¾
ä¸ĩ åħĥ
Ġåħ¶ ä¸Ń
à¹Ģà¸Ń à¸²
ĠåĲ Ħ
æ´ ¾
éĽ ¶
ĸà¸ ·à¸Ń
Ġå ¢
å° ģ
Ķà¸ ±à¸ļ
ĠãĢĤ âĢľ
çĿ £
å¼ ¹
Ĺà¸ ±à¸
éľĢ æ±Ĥ
à¸²à¸£ à¹Įà¸
Ķ à¹Į
ç« ¥
åĶ¯ ä¸Ģ
à¤Ĥà¤ §
ĠÐĴ Ñĸ
áĥĲáĥĹ áĥķáĥĺáĥ¡
Ø¯ ÙĬ
ÑĤ ÑĢÑĭÐ¼
áĢ¬ áĢı
v re
Ð½Ð¸ Ð¼
ĠáĥĹáĥ£áĥĽ áĥªáĥĲ
±áĢĽ áĢ¸áĢ¡
ĠáĢ¡ áĢŃáĢķáĢ¹áĢ
Ķ áĢ¬
Ġàª¹ àªµà«ĩ
Ġà´ļ à´¿à´²
Ġà®ķ à®µ
ģáĢº áĢĢáĢ¹
ĠáĢĸ áĢ¯áĢĶáĢ¹áĢ¸
ĠáĢ±áĢ»áĢķáĢ¬ áĢŀáĢĬáĢ¹
áĢģáĢ²áĢ· áĢŀáĢĬáĢ¹
áĢĽ áĢĢáĢº
à±ģà° ¬
ĠÐ¼ÐµÑĪÐ°Ð² Ð°Ð´
ÅĨ em
al es
Ø§ÛĮ Ø´
Ġd y
ĠÐº Ð°Ð·
Ġjoa lo
àª ł
Ġm or
ĠÐ² Ð°ÑĢ
ĠØ±Ûģ ÛĴ
Ġí ĸ
à¦¾à¦° à¦£
à°¾à°¦ à±ģ
Ġd on
Ġàª¬ à«Ģàªľ
åĵª ä¸ª
Ġå¹ ³
Ġå± ±
æĽ´ å¤ļ
æĭ Ł
Ġà¤Ĺ à¥ĭà¤
ĠktÃ³ re
Ð¾ Ð»Ñĸ
Ġà®ķ à¯ģà®Ł
áĢĤ áĢ»
hr en
Ġs ta
Ġth a
à°¬ à±įà°¬
Ġva la
Ã µ
Ø§Ø¯ ÛĮ
áĥľ áĥĺáĥ¨áĥķ
ĠÐŁ Ð¾
Ġis ÉĻ
ð Ł
w láº¹
ul y
lu mi
Ġà°µ à°¸à±įà°¤
la tion
ba l
al á»įna
R UN
Ġter Ãª
Ġolo kiki
Ġoku ta
Ġni ra
Ġláº¹áº¹kan si
ĠTe ch
ĠSou th
ĠØ§ÙĦØ «
l le
Ð´ Ñĥ
åĪ ¸
ä¼ ¼
¶à¸ ģ
à¹ĥà¸ ģà¸¥
åŃ© åŃĲ
Ĺà¸ ±
æ´ ĭ
Ġà¸ §à¸±à¸Ļ
Ġà¤µà¤¿à¤ ¦
ĠL O
ĠI fihan
ĠB en
ran d
à°µ à±įà°µ
is áº¹
H I
Ġá»Į ja
Ġigb ese
Ġg old
Ġfáº¹ ran
Ġb lo
Ġáĥĳ áĥł
Ġa há»įlu
Ġa bojuto
ĠU p
ĠL ine
ĠB A
Ġ? âĢĿ
ry pto
ri ng
er in
Ġï¿½ï¿½ï¿½ï¿½ï¿½ï¿½ï¿½ï¿½ï¿½ï¿½ ï¿½
Ġáº¹ bi
Ġye ars
Ġwá»į pá»į
Ġu p
Ġigbe ga
Ġgá»į alá»įna
Ġawu jo
Ãł o
ĠKáº¹ sÃ¡n
ĠC hi
à´ ł
ĠÐ¿ Ð°Ð»
Ġàªľ àª£
Ġà°® à±Ĥà°
ĠA mi
ĠA k
z un
po rt
T i
Ġr un
à®° à¯įà®µ
åľ ³
åĪĨ å¿«ä¹Ĳ
Ġåħ ±
é¡ ¶
à¸£à¹Īà¸§à¸ ¡à¸
Ġ2 66
ĵà¸ °à¸
Ġ 888
èĪ ĩ
æ¯ Ĵ
ä¸ļ åĬ¡
à¸Ļ à¸²
ãĢ į
Ġé ľ
Ġà¸ Ħà¸§à¸²à¸¡à¸
åħ¨ å¤©
áī µ
ä¸Ģ æ¬¡
åŁº æľ¬
áŁ Ĩ
à¹ĩà¸ Ķà¸
Ġà¤¤ à¤¸
à§ģ à¦¦à§įà¦§
Ġláº¹ sáº¹
Ġifoju si
Ġif a
Ġido ko
Ġiba se
×Ļ× ¦
Ø¬ Ú¾
ìĤ¬ ìĿ´íĬ¸
Ġbi ba
Ġb Ã¢
Ġai ye
Ġag a
ĠNa wáº¹
ĠIn st
ĠI wadi
ĠC D
ĠAW IK
ĠAWIK ON
ĠAWIKON KO
phi yá»į
o ri
ĠÐ¼Ðµ ÑģÑĤ
áĢ¸áĢĲ áĢħáĢ¹áĢ
áĢ¡ áĢ±áĢķáģļ
ĠáĢľ áĢ¾
m ÃŃ
ĠÐ¾Ð½ Ò³Ð¾
à«ĩàªµ àª¾
ĠìĦ ¸
à°¬ à°¡
ĠÑŀ Ð¶Ð¾
ĠØª Ú¾ÛĮ
Ġáĥ¢ áĥł
Øµ Ø±
ĠÐ½ Ð°Ð¹
Ġà¤¹ à¥ĭà¤Ĺ
à´¯ à´¿à´²
áŁ ģ
ļà¸£à¸´à¸ ģà¸²à¸£à¸
å®ŀ æĸ½
åħ· æľī
Ġè¢ «
å° ļ
áŁĴáŀ ļáŀ
Ġâ ĻĢâĻĢâ
1 88
Īà¸ ³
±à¸ ĩà¹Ģà¸
īà¸ ±à¸Ļà¸
Ġà¸ ľà¸¹à¹īà¸
é² ľ
à¹Ģà¸ ŀ
ĠçĽ® åīį
æĵį ä½ľ
Ġà¸ «à¸²à¸
æ¯ Ľ
è§ Ī
Ġé© ¬
æľĭ åıĭ
æĹ¥ æľ¬
å© ļ
Ġà¤ ĵ
Ã¡l is
ĠÙħ Ø¬
áĤıáĢ½ áĢ¶
ĠáĢĨ áĢ±áĢ¬áĢĦáĢºáĢĽáĢ½áĢĢáĢº
áĢĶáĢº áĢ·
Ġà¦¸ à¦¾à¦®
di c
ĠÑı Ð½Ð°
as o
Ġáº¹gbáº¹ run
Ġwu te
Ġolu di
Ġnigba mii
Ġlo ke
Ġigbáº¹ káº¹le
Ġidi le
ĠM al
ĠI á¹£e
ĠGbogbo gbo
Ġ9 7
Ġ1 x
t Ã²
à®¿à®Ł à®®à¯į
Ġà´® à´¾
ĠÕ ¤
Õ¡Õ ®
f ÉĻ
à´¨àµįà´ ®
ĠÄ «
áĥĿáĥĳ áĥĲáĥ¨áĥĺ
Ġsh k
ĠÑĤ ÑĥÑĤ
àª¤ à«įàª¯
Ġs vo
à®² à®ķ
áĤĲ áĢ¯áĢ¶
ĠáĢĢ áĢĻáĢ¹áĢĺ
Ġà¦ļ à¦²
es ti
ĠÃº j
å¢ŀ åĬł
Ĺà¸ ±à¹īà¸ĩ
ç¬¬ äºĮ
ä½ĵ ç³»
à¤¶ à¥Ģ
Ġà´ļ àµĭà´¦
ÙĪ ÙĤ
Ð´Ð·Ðµ Ð¹
×Ļ× Ĺ
à´¿à´Ĥ à´Ĺ
Ð¼ Ð¾ÑĤÑĢ
an do
tan t
áĥĲáĥķ áĥĲáĥĵ
Ïģ Î¿ÏħÏĤ
Î³ Î¬
ĠÏĢÏģÏĮ Ïĥ
Ġch i
ĭà¸ ·à¹īà¸Ń
æĬ Ĺ
à¥įà¤ ļ
ĠB ak
ĠÕ º
Ä± lÄ±
Ø¨ Ùĩ
àª¨à«įàª ¡
Ġà¦¯ à¦¾à§Ł
íĥ Ģ
osi le
ĠÐł Ð¾ÑģÑģÐ¸
o i
S T
M o
GGGG Q
Ġy lan
Ġpin pin
Ġpi páº¹
Ġpa pa
Ġp ho
Ð°Ð¹ Ð½
Ġke z
Ġom inira
Ġl ulÃº
Ġiba lopo
Ġh á»įn
Ġde vo
Ġaten e
Ġa mu
ĠT á»įn
ĠS ys
ĠR u
ar z
ĠM at
ĠG be
ĠEtáº¹ wáº¹
ĠA pe
Ġ, âĢĿ
Ġj Äģ
Ð°Ñĩ Ðµ
à²¾ à²
wh áº¹
ri ca
l agba
de d
Ġá»Į Já»Į
Ġáº¹ ran
ĠÐ¿Ð°Ñģ Ð»Ñı
ĠÙģ ÛĮ
ĠÑĢ Ð¾Ð±
ÉĻ x
áĢģáĢ¶ áĢ³
áĢŃáĢ¯áĢ¸áĢ ¡
Ġà°ªà°¾à°° à±įà°Łà±Ģ
Ġs ese
çīĪ æľ¬
¥à¸ ¢à¸
Ġå· ²
ï¼ Ł
à¥įà¤¯ à¤®
Ð°Ð½Ð´ Ð°Ð¹
ÑĤ Ð°Ð±
Ġo hwo
Ġng wa
Ġmon om
Ġipo longo
Ġijo ba
Ð¸ Ñĩ
Ã¡ ciÃ³
Ġà®ª à®ķ
Ġà°®à±Ĭ à°¦
ĠáĥĻ áĥĲáĥľ
Ġi yá»į
áĢ ĮáĢ¬áĢĶ
Ġaje ji
ªà¸¡à¸ ±à¸
æ° ¸
Ĭà¸²à¸ ķà¸´
Ġå¤§åıĳä¸Ģ åĪĨéĴŁå¿«ä¸ī
Ġà¨ Ĺ
åħŃåĲĪ å½©
æŁ ĵ
ªà¸¹à¸ ĩà¸
åŃĺ åľ¨
Ġç ģ
Ġå¾· æīĳ
à¹Ī à¸Ń
Ġç ĸ
Ġagçİ¯äºļ æīĭæľºå®¢æĪ·ç«¯
æį ķ
äºĨ è§£
Ġpok erstars
Ġåı Ī
Ġ3 65
å· ¨
åģ¥ åº·
ç¼ ©
æĬ¥ åĳĬ
à¸£à¸ ĸ
à¨ Ł
é¢Ĩ åŁŁ
ĭà¸ ·à¹īà¸Ńà¸
Ġç ĥ
è· Į
è¡ Ĺ
ļ à¹īà¸²à¸Ļà¸
Ġèĭ ±
Ġà¸ Ħà¸¸à¸ĵà¸
§à¸´à¸ĺ à¸µà¸
Ġ à¹ĥà¸Ļ
à¤¾à¤ª à¤°
Ġafáº¹ sáº¹
ĠU l
ĠImá»į láº¹
ĠFS X
Ã³ kun
ulá»į á»į
ani wá»įle
Ġpata pata
Ġnda li
Ġiran ti
Ġifara han
Ġh omáº¹
Ġg ir
Ġar ticle
ĠI d
ĠH indi
±áĢĶ áĢĲáĢ¬
ĠáĢĴáĢ® áĢĻáĢŃáĢ¯
áĢķ áĢĲáĢ¹áĢŀ
áĢĶ áĢĢáĢ¹
áĢĦáĢļáĢ¹áĢ ģáĢºáĢĦáĢ¹áĢ¸
áĢĲ áĢŃáĢ¯áĤķ
Ġáģģáģ Ħ
ĠBa tiri
ta in
et Ã«
s ho
p el
à«įàª ¦
lo gy
isi yi
isi ta
inu wa
gra phy
d Ã¹
Ø³ Ùħ
àµĤà´Ł àµĨ
ĠÑıÐ½ Ð³Ð¸
ĠÐ¼Ð°ÑĬÐ»ÑĥÐ¼ Ð¾ÑĤ
d agbe
c ember
Ġáº¹ ka
ĠáĢķ áĢĶáĢ¹áĢ¸
áĢĻ áĢŁáĢ¯áĢĲáĢ¹
ħ áĢ¥áĢ¹áĢ
áĤĥ áĤĪ
áĢº áĢĢáĢ¹áĢ
áĢ¸áĢľ áĢ¯áĢķáĢ¹áĢ
áĢ¬áĢ¸áĢĲ áĢ½áĢĦáĢº
t ÄĽ
ë§Į ëĤ¨
ìĺ Ī
Ġy um
Ġw hi
Ġso pá»į
à§įà¦° à¦®
Ġ×Ķ× ł
Ð¼ Ð°Ð¹
ĠÙĨ Ø¸
Ð¾Ð² Ð°ÑĢ
Ġlo do
Ġl in
Ġba tiri
Ġba ta
Ġêµ Ń
Ġb ere
áĥĶáĥ¥ áĥ¡
Ġlu b
ĠÐŀ Ð±
Ġàªľ à«ĩàª®
n Ãº
ĠÐ´ Ð¾Ð¼
Ġa ÌĢ
Ġáĥŀ áĥĲáĥ¢
unÈĽ uri
Ġs em
Äģ ku
Õ ¤
g ÉĻr
Ġà°® à°¾à°¤à±įà°°
Ð½Ðµ Ð¹
à´¿à´ ¦
ĠØ± ÙĪØ²
áĥ£áĥłáĥ ľ
le la
he z
à® ·
à¤¿à¤ ľ
áĥĶáĥłáĥ Ľ
o a
ĠÐ²Ñĭ Ð´
ÑģÐ» Ð¾Ð¼
en ta
ĠÐºÐ¸ ÑĤÐ¾Ð±
ĠÐ½Ð°ÑĦ Ð°ÑĢ
Ð½Ñĸ ÑģÑĤÑĮ
à´® à´¾à´£
à®² à¯įà®µ
ir Ã«
ĠÐŀ ÑĤ
Ġà°ľ à°°à°¿à°Ĺ
Ġm Å±
Ð¸ÑĢ Ð¾Ð²Ð°Ð½
Äį i
Ð°ÑĪ ÑįÐ½
ĠP our
m pa
Ð´Ð·Ðµ Ð»ÑĮ
Ġàªķ à«ĭ
Ġà´µàµįà´¯ à´ķàµįà´¤
Ġë° ©
jÄģ m
ĠÐ¾ Ð¹
ĠÐ· Ð¸Ñĳ
Ġin ter
ĠÐĲÐ»Ñı ÐºÑģ
áĥĺáĥĻ áĥĲ
Ġç ĭ
Ġà¤Ĩ à¤¤à¤¾
àªĤàª¤ à«ģ
ĠÐļ Ð°ÑĢ
Ø´ Ø±
Ġà®® à¯ģà®±
Ġk Ã¤y
×¨ ×Ļ×Ŀ
áĥĿáĥĵ áĥĶáĥ¡
áº¿ u
æīĭæľºçīĪ å®ĺç½ĳ
à¥įà¤ ŀ
áĢŁ áĢŃáĢ¯
à¦¬ à¦¾à¦¦
Ġà°µà°¿à° ľ
Õ¸ ÖĢÕ
Ġg ÉĻl
ĠÙĤ Ø±
ÅĤ e
ĠÑģ ÑĮ
ĠÑĪÐº Ð¾Ð»
Ġein en
ģáĢº áĢĦáĢ¹áĢ
ĠáĢĻ áĢĬáĢ¹áĢ
áĢĺ áĢ°áĢ¸áĢľ
à´µ à´°àµįâĢį
à´Ļàµįà´Ļà´³ à´¿à´²àµįâĢį
j Ã¡t
áĢħ áĢŃ
Ð°ÑĩÑĭ ÑĨÑĮ
ÐµÐ» Ð¾Ð²
àµĢ à´¤
Ġa ir
ĠK u
ĠJ os
ĠE gi
ĠD I
ĠCo ffee
ĠB er
Ġáģ¾áĢĢ áĢĬáĢ¹áĢ·
ĠáĢ±áĢĴáģļ áĢ±áĢ¡áĢ¬áĢĦáĢ¹áĢĨáĢĶáĢ¹áĢ¸áĢħáĢ¯
ĠáĢ¡áĢ±áĢ»áĢģ áĢ¡áĢ±áĢĶ
áĢļáĢ· áĢ¹
áĢĽáĢĦáĢ¹áĢ ±áĢĲáĢ¬áĢ·
áĢĸ áĢĢáĢº
à¦ ı
Ġà°ħà°¯ à°¿à°¤à±ĩ
ĠB I
Ġ200 7
Ġ' ,
Ġom a
Ġo e
Ġn an
Ġmonom ono
Ġi ra
Ġgb agbá»į
ÑĨÑĸ ÑĹ
à®¿à®ļ à¯įà®ļ
Ġb oo
à¦¿à¦ Ń
Ġa ini
ĠWor ld
áĢ±áĢŀ áĢ¸áĢ
áĢĦáĢ¹áĢ ĢáĢŃáĢ¯
áĢ¸áĢŀ áĢ¼áĢ¬áĢ¸áĢ
Ĳ áĢ¯áĢŃáĤĶ
ħ áĢ¬
ĠO fin
ĠO ctober
ĠNe xt
ĠA woran
ĠáĢĸáĢ¼áĢħáĢº áĢķáĢ«áĢĲáĢļáĢº
ĠA po
wit ter
pe dia
ing a
Ľ áĢķáĢ¹áĢ
áĢ±áĢľ áĢ¬áĢĢáĢ¹
áĢ±áĢĲáĢ¬ áĢĦáĢ¹áĢ¸
±áĢĢáĢ¬áĢĢáĢ¹áĢ ķáĢ¼áĢ²
áĢ¡áĢħ áĢŃáĢ¯áĢ¸áĢĽ
ha la
à« ī
c m
c le
ĠáĢ¡ áĢ¬áĢ¸áĢ
C r
AR A
Ġr he
Ġolu wadi
Ġnuk á»įn
Ġkáº¹ ta
áĢħ áĢ¶áĢ¯
ķáĢ¼ áĢĬáĢº
ÑģÑĤÐ°Ð½ Ð¾Ð²
Ġç ł
à¥įà¤¯ à¤µ
an ia
áĥĵ áĥľáĥĶáĥľ
ĠÚ© Ø³ÛĮ
Ġif un
Ġidani má»į
Ġiban u
ĠÑĩ Ñĭ
Ġf iraná¹£áº¹
Ġal agbara
à´¿à´Łàµįà´Ł àµģà´£àµįà´Łàµį
ĠÐº ÑĥÑĩ
ĠT Ã³kun
ĠS M
ĠP aa
ĠC ity
ĠÐ¼ Ð°ÑĤ
ĠAp ril
ĠA bu
ĠáĢĢáĢºáĢ±áĢĶáĢ¬áĢ¹áĢ ĲáĢŃáĢ¯áĤĶ
ĠáĢ¡ áĢĲáĢ°
Ġ" ,
Ìģ n
à®¿à®Łà¯įà®Ł à¯ģ
ĠáĢĬ áĢ®
Ķ áĢ²áĤķ
ģáĢ» áĢĢáĢº
Äį nÃŃ
Ġà®İ à®²à¯įà®²
ãģ® ãģ§
ent es
à±ĩ à°¨
Ġm Ã´
ĠØ «
at Äĥ
ĠÒ³ ÑĥÐ´
ĠÐ±ÑŀÐ» Ð°Ð´Ð¸
Ð¸Ð» Ð¸Ðº
ĠÐ¢ ÑĥÑĢ
Ã¡ nak
à§ĩà¦ ª
Ġë¬ ¸
áĢľ áĢ¯áĢŃáĢĢáĢ¹áĢ
Ġáģĥ áģĢ
Ġ à¹Ħà¸Ķà¹īà¸
åħ¬ å¼ı
Ġà¤ķà¤° à¤¤
Ġt ÉĻrÉĻ
ĠÒ³ Ð¾Ðº
ĠÐ¸ÑĪ Ð»Ð°Ð±
ĠÐĲ Ð·
áĢģ áĢ½áĢĦáĢ·áĢº
cz a
Ġà®® à®Łà¯įà®Ł
ĠæĹ¥ æľ¬
à· ı
à¤°à¥įà¤ ¤
Ġex p
ĠÐ°Ñģ Ð°Ð±
àµĩ à´±àµįà´±
Ġà°ľ à°°
ĠáĥĴ áĥĲáĥ£áĥ
Ġm ar
à¦ ¯
Ġà¤Ĺ à¤Ī
ĠÐ³ Ð¾
±áĢ ļáĢ¬áĢĢáĢ¹
áĢ· áĢ²
áĢļáĢ¹áĢľ áĢ¯áĢŃáĤĶ
áĢĶáĢ¹áĢ Ľ
ĠáĢĲ áĢ¼áĢĦáĢ¹
áĢĽáĢ½ áĢļáĢº
ĠÐĳ ÑĥÐ½
ĠÑŀÑĢ Ð¸Ð½
ĠÐ²Ð¸Ð» Ð¾ÑıÑĤ
Ð¾Ð· Ð¸ÑĢ
áĥłáĥĴ áĥĲáĥľ
ĠÐ½Ð°Ð² Ð°ÑĤ
à±ĩà°¦ à±ģ
ĠØ´ ÙĪØ¯
à«ĭàª ª
ĠÒ³ Ð°Ñĳ
Ã ¸
ĠÎ²Î¿ Î·
Îµ Î½Î¿Î´Î¿
ÏĨÎŃÏģ ÎµÎ¹
Î³ Î½Ïī
Î¾ Î·ÏĤ
ĠÎ£ ÏħÎ½
Î» Î¯Î±
ĠÏĢÏģÎ¿ ÏĬÏĮÎ½
Î¼ Î¼
Î ¦
ĠÎµÎº ÏĢ
ĠÎµ Î»Î»Î·Î½
Î±Î¹ ÏģÎµ
Î¸ Î½
Ïĥ Î¯Î±ÏĤ
ĠÏĢ Î¹Ïĥ
Î»Î¿Î³ Î®
ÏĦ Î¶
Î»Îµ ÏĥÎ¼Î±
ĠÏĥÎ· Î¼Îµ
ÏģÎ± ÏĥÏĦÎ·
ÎºÎµ ÎºÏģÎ¹
ĠÏĨ ÏħÏĥ
ĠÎ±ÏĢ Î±Î½
Î¼ÎŃÎ½ Î¿Ïħ
na u
Ø§Ø± Ø§Øª
à´¿à´ķ àµ¾
×Ļ× ļ
ãĥ ŀ
ĠÑĢÐ¸Ð² Ð¾Ð¶
ĠÐ´ Ð¾Ð´
ÉĻn in
Ġn Ã³
Ġà®Ĩà®© à®¾à®²à¯į
ĠÄ Į
ĠÃ ģ
Ġáĥĳ áĥĲáĥķáĥ¨
ÑĥÐ¿ Ð¸ÑĤÑĮ
Ġà¦¹ à¦¾à¦¸
Ġà¤ªà¥įà¤° à¤¦
ģáĢ²áĢ· áĢĲáĢ¬
ĠÐ¿ÑĢ Ð¾ÑģÑĤ
à±įà°¯ à±Ĥà°
Ġëı Ħ
ĠáĢĻ áĢŀ
Ġà§¦ à§
Ġà¦ķà¦° à¦¾à¦°
Ġkan n
áĤĶ áĢ¡
áĢŃáĢĻ áĢ·áĢº
ĠtÅ¡ a
Ġna ng
×¨ ×Ľ
Ġa tt
Ð°Ð³ Ð¾Ð´
ĠáĥĽ áĥĺáĥĶáĥł
ÅĤ Äħ
di t
ÑĨÐ¸ Ð°Ð»ÑĮ
ju k
ĠÙħ ÙĤ
Ġda ha
ĠPor no
c ul
à«ĩàªµ à«Ģ
Ħà¸ ¥à¸
åįģ åĪĨ
Ġå Ķ
Ġà¹ģà¸ ¡
Ġ ä¼ļ
Ġ ä¿Ŀ
Ĭà¹Īà¸§à¸ ¢
Ġä¸Ĭ æµ·
éĶ ĭ
éĩį åºĨæĹ¶æĹ¶å½©
Ġäºļæ¸¸ å®ĺæĸ¹
çĽ´ æİ¥
æį Ł
Ĥà¸²à¸ ¢à¸
ĠåĲ Ī
Ġà¸ Ĥà¸Ńà¸ĩ
æ´ ¥
æ°´ å¹³
æ ¦
à¸£à¸¹ à¹ī
§à¹ĩà¸ ļ
Ġè¿ ĳ
à¸Ńà¸ ·à¹Īà¸Ļ
ľà¸ ¥
Ġà¤µ à¤¾à¤¢
Ġm ÄĽ
ÑģÐ¸ Ñģ
Ġà°ķ à±įà°°
Ð½ Ð°ÑĤÐ°
áĢĽ áĢ½áĢ¬
áĢļáĢ¹áĢ Ģ
áĢĹ áĢº
ÐµÐ½Ð¸ Ñİ
ĠÐ´Ðµ Ð³Ð°Ð½
ÑĤÐ¸ ÒĽ
Ġà¤ķà¥ĭà¤ Ī
áĢĳ áĢ¶
Ð´ Ð¾Ð¼
Ġáĥ¨áĥĶáĥ £áĥ
Ġà®ĩ à®¤à¯ģ
Ġtr Ã¨s
ga z
ć ãĢĤ
å¤§ å¸Ī
·à¹Ī à¸Ļà¸
çĬ ¯
Ġå® ¶
Ġà¸ª à¹Īà¸§
Ġà¤®à¥ĭà¤ ł
vÃ¤ t
ĠE in
áĢħ áĢ®áĢ¸áĢ
tÃ« s
Î» Î¹Î¿
Î³ÏģÎ± Î¼Î¼Î±
ĠÏĩÎ± ÏģÎ±Îº
ĠÎ² Î±Ïĥ
ÏĦ Ïį
ÏĪ ÎµÎ¹
Î³ ÏīÎ½
ĠÏĢ Î»Î±
ÏģÎ¹ Î¸
ĠÎµ Î´Ïİ
Î¾ Ïį
Î ĺ
Î¼ ÏĢÎ¿
ĠÎŃÎ½Î± ÏĤ
ĠÏĥ ÏįÎ½
A F
ÏĢ Ïī
Î¾ ÎµÎ¹ÏĤ
Î´ ÎµÏħ
Îµ Î¾
AA AA
ne ud
Ġu Å¾
Ġse bel
ho a
Ġng o
ĠÐ´Ð°Ð² Ð¾Ð¼
àª¾àª ļ
ĠN ie
Ð°Ð» Ð»
Ø¨ Ø¯
v as
à°¾à° Ĺà°¾
ĠáĢĴáĢ«áĢ±áĢķáĢĻ áĢļáĢ¹áĢ·
áĢľ áĢ¯áĢķáĢ¹
áĢĳáĢ¬áĢ¸áĢ ĲáĢ¬
áĢĲ áĢĢáĢº
ÑĤ Ñı
ìľ ł
Ġà´µ à´¿à´²
Ġh au
áĥ£áĥ ¢
Ð°Ð½ ÑĭÑı
à¤Ĺ à¤°
Ġà¦ªà§įà¦° à¦§à¦¾à¦¨
t Ã©s
p owie
ĠC au
áĥĵ áĥĶáĥľ
áĢĢáĢ¼ áĢĬáĢ·áĢº
ĠAn unÈĽuri
in te
ÐµÐ½ Ð½Ð¾
à°Ĥà° ľ
Ð°Ð² Ð°Ð»Ñĸ
Ġà¦Ń à¦¾à¦°
Ġà¤¤ à¤¿à¤
àµįâĢĮ à´¸
ko a
tso e
ag we
Ġse be
ãģ¨ ãģĦ
ĠÐ¼ Ð¸Ð½
àª¿àª ª
j Äģs
Ġw szyst
Ð°ÑĨ Ðµ
Ġm Ã¡
Ø§Ø± ÙĬ
à¤ļà¥įà¤ ļ
à°§ à±įà°¯
mi ento
à®±à¯įà®ķ à¯ģ
à§ĭ à¦¸
ëĭ ¨
à´ļàµįà´ļ àµį
h re
ĠáĥĶáĥłáĥĹ áĥĲáĥĵ
ĠÑĤ Ð²Ð¾ÑĢ
Äĥ s
ĠÐ¼ Ð°Ðµ
ĠáĢĢ áĢ°áĢĬáĢ®
Ġr Ã©s
Ã©n ek
Ġ×ķ ×Ĳ
ĠÐ¼Ñĥ ÑĤ
æ¯Ķ è¾ĥ
å° ½
à¤¾à¤¸ à¤¾à¤łà¥Ģ
áĢĤ áĢ¹áĢĤ
Ñĸ ÑĪ
ĠÐ¾Ð± ÑĬ
ĠÏİ ÏĥÏĦÎµ
ÏĦÎ· Î³Î¿
Î½Î¿ Î¼Î±
ĠÎŃ ÏĦÏĥÎ¹
ĠÎµÎ¹ Î´
ÏĢÎ¿ ÏĦÎµ
ĠÏĨÏī ÏĦÎ¿Î³ÏģÎ±ÏĨ
Î¸ ÏģÏİ
Î»Î· Î¼Î±
ĠI I
ĠÎ¼Î± Î¶Î¯
Î» Ïį
ĠÏĢÎ¬Î½ ÏĦÎ±
Î»Î¯ Î¿Ïħ
ĠÎ£ ÏĦÎ¿
Î±Î½ Î¬
Î¸ÏħÎ½ ÏĥÎ·
ĠÎ¼ Î¿Î½
ĠÏĢÎ»Î· ÏģÎ¿ÏĨÎ¿
ĠÎļ Î¬
ÎĹ ÎĿ
ĠÏĦ ÏİÏģÎ±
ĠÎ¶ Î·
Î³ ÏģÎ¬ÏĨ
ÏĦÎ¹ Î¬
ri p
Ø ¢
ĠÏĦÎ±Î¾Î¹ Î´Î¹
ĠÏĢÏģÏİ ÏĦÎ·
ĠÎ± ÏĢÎµ
Î¸ ÎµÎ¹Î±
ĠÏĨÎ¿ ÏģÎ¬
ÎĳÎ Ľ
ĠâĢ º
ĠÏĥÎ· Î¼Î±Î½
Î½Î¿Î½ ÏĦÎ±ÏĤ
Ġl le
Ġb Ã«
di b
Ġàª¬ à«ĩàª
er w
Ġà¤ªà¤¹ à¤²à¥ĩ
áĢĸáĢ¼áĢħáĢº áĢķáĢ«áĢĲáĢļáĢº
ĠáĢħ áĢĢáĢº
Ġáĥ¡áĥĲáĥĶ áĥłáĥĹ
Ġà°ħ à°¸
ĠÐ¸ Ò·
ĠÕ £
am an
Ġà¦¹ à¦ļ
ëĲ ľ
à´¯àµįà´ķàµįà´ķ àµį
áĢ± áĢ¸áĢĢáĢŃáĢ¯
Ðº Ð°Ñı
ĠÃİ n
ĠØ¨ Ø§Øª
à«ģàª ĸ
éĻ Ħ
éĸ ĭ
ä¸ Ŀ
æıĲ åįĩ
ä¸Ģ å®ļ
à¥įà¤¯à¤¾à¤ļ à¥įà¤¯à¤¾
áĢĲ áĢŃáĢ¯áĢĢáĢº
j em
ĠÙĪ Ùħ
Ñĥ Ðµ
Ġà¦Ĩ à¦ľ
áĥĶáĥĳ áĥĲáĥ¨áĥĺ
Ġr ende
Ġktor Ã©
ĠÐ±ÐµÐ» Ð³Ð¸Ð»
ĠÑĤ ÑĥÐ¼Ð°Ð½
ĠÐºÐ¸ÑĪ Ð²Ð°ÑĢ
Ð°ÑĨ Ñĸ
ĠÐ¸ÑģÐ¿ Ð¾Ð»ÑĮÐ·
Ġà´µ àµĩà´£àµįà´Ł
Ġà°ª à±Ī
Ġs es
Ġv al
Ġáĥ¨ áĥĿáĥłáĥĺáĥ¡
Ġà¦Ĩà¦® à¦¾à¦¦à§ĩà¦°
Ġàªīàªª àª°
à®¾à® ª
ĠØ§ ØŃ
ĠÐº Ð°ÑĤÐ¾
Ġà´® àµģà´¨àµįà´¨
áĢĻáģ¸ áĢıáĢ®
áĢ±áĢŀ áĢ¬áĢ¹áĢľáĢĬáĢ¹áĢ¸
áĢľ áĢ¯áĢŃáĤĶ
áĢĢáĢ¹áĢ ķ
ķáĢ« áĢĲáĢļáĢº
ĠáĢ±áĢ ģáĢº
ĠáĢŀ áĢħáĢ¹áĢ
±áĢķáĢ« áĢĦáĢ¹áĢ¸
ĠáĢĽáĢģ áĢŃáĢ¯áĢĦáĢ¹áĢ
±áĢ Ĵ
ĠáģĤ áĢĿ
áĢĶ áĢ½
Ġ×ĳ ×©
ĠáĢ±áĢĳ áĢ¬áĢĢáĢ¹áĢ
áĢ¥ áĢ®áĢ¸
áĢ ĥ
ĠáĢķ áĢĲáĢº
ĠSh qip
Ġt y
Ð² Ð°ÑİÑĨÑĮ
Ġà´¨à´¿à´¨àµįà´¨ àµģà´Ĥ
Ġãģ ĵ
Ġà¦ĩ à¦ī
Ġà¤ľà¤¾à¤¤ à¤¾
ĠáĢ¡áĢ±áĢ»áĢģ áĢģáĢ¶
áĢĽ áĢŃáĢ¯
áĥĲáĥ« áĥĶ
ĠáĥĽ áĥª
r ag
Ð½ ÑĮ
Ġb er
åı ¬
Ġà¤µ à¤¿à¤ķ
ĠØ§ Ø¹
à®© à¯įà®ª
Ġà°µà°¿à° ¦
Ġha holo
áº£ o
àµįà´ ¦
ĠÐ½ Ð¸
ĠÐ¼ Ð¾Ð³
d ur
Ġàªªàª° àªĤàª¤à«ģ
ĠÃ© tÃ©
Ġn ÄĽ
c as
ĠìĦ ±
ÙĦ Ø§ÙĦ
à´¶ àµįà´¯
åŃ ¸
Ġéļ ı
à¥ĩà¤ ¡
ĠáĢ¡ áĢŃáĢĻáĢº
Ġà¦ªà¦° à¦¿à¦¬
ĠØ± Ú©Ú¾
Ġ Ó¯
Ġzu m
à±įà°Ł à±į
áĥĶáĥ ¨áĥĺ
áĢħ áĢŃáĢĲáĢº
Ġgj ith
ĠÃ ĩ
ĠE z
cy j
do r
Ġì§ Ħ
Ġal la
áĢķáĢ¹áĢ ŀ
ĠáĢĲ áĢħáĢ¹
ĠáĢĻáĢ½ áĢĲáĢ¹áĢ
ĠáĢĲ áĢĦáĢº
ar te
ÑĤÑĥ ÑĢÑĭ
Ġàª¬àª¨ àª¾àªµ
Ñĸ Ð±
Ġà´¸ à´¿à´¨à´¿à´®
à®¿à®±à¯įà®ķ à¯ģ
àµĤ à´°àµįâĢį
Ġà´ļ àµĩ
ÃŃ m
ĠÐ· Ð°Ñŀ
áĢ±áĢ¸áĢ ħ
ĠÑ ľÐµ
à§įà¦¯ à¦®
áĥĶáĥĳ áĥĽáĥĲ
ëĭ ¹
á ¿
ĠÏĥÏħ Î³Îº
ĠÎ±ÏĢÎ¿ ÏĨ
ĠÎŀ ÎµÎ½Î¿Î´Î¿
ÎºÎ¿Î» Î¿Ïħ
Îº Î¯Î½Î·
Ïĩ Ïİ
Î´ Î¬
Î¸ Î¿
r h
Ġs am
Ġ×Ĳ ×ľ
Ġà´ªàµįà´° à´¸
ĠØ§ÛĮØ± Ø§ÙĨ
iá»ĩ c
Ø¬ Ùĩ
à°² à±įà°²à±ĭ
Ġå Ń¦
à¥ģà¤ ¢
Ð»Ð°ÑĢÐ¸ Ð´Ð°Ð½
ÐĲÐ Ŀ
ĠÐ²Ð°ÒĽ ÑĤ
Å¡an Äģs
z ÉĻ
ĠØ¬ Ø§Ø¦ÛĴ
ÑģÐº Ð°Ðµ
à´ķàµįà´ Ł
ĠáĢĻáĢŃ áĢĺ
ĠáĢģ áĢĦáĢ¹áĢ
ĠáĢ±áĢ ľáĢ¬
ĠáĢŀ áĢĦáĢ¹áĢ·
ĠáĢĽ áĢĽáĢ½áĢŃ
áĢľ áĢ¬áĢ¸áĢ
ĠáĢĶ áĢ¬áĢ¸áĢľ
Ġà°Ĩ à°®à±Ĩ
Ġàª¸ à«Į
Ġáĥ¡áĥĲáĥ®áĥĶáĥļáĥĽ áĥ¬áĥĺáĥ¤
es c
ĠÂ ©
ĠÐº Ð½Ñĸ
Ã¼ ck
à°¿à°¸à±įà°¤ à±ģà°¨à±įà°¨
áģ¿áĢĻáĢŃáĢ³áĤķ áĢĶáĢļáĢ¹
áĢĳ áĢĢáĢº
Ġà¦¨à¦¿ à¦°à§įà¦¬
Ð½Ð°Ñģ ÑĮ
ĠÐ½ Ð°ÑĢÐ¾Ð´
Ġç ´
ĠæĬ Ĭ
Ġà¤®à¤¹ à¤¾à¤°
Ħ à¸£à¸²à¸
Ġà¤ªà¥įà¤° à¤¶
ĠáĥĲáĥ® áĥĲáĥļ
à´Łàµįà´Ł àµį
Ø¯ ÙĬØ¯
Ð½Ñĸ Ð¹
à§ĭ à¦§
çŃ ĳ
à¹Ģà¸ŀà¸ ·à¹Īà¸Ńà¸
Ć ãĢĤ
Ġåį Ĺ
ç© ¿
à¸µà¸¢ à¸Ļ
æ¶ ī
äºĶ åĪĨå½©
±à¸ Ķà¸
Ġå¤§åıĳ ç§ĴéĢŁ
åĽ º
äºĭ ä¸ļ
ķ à¹īà¸Ļ
Ġà¸ ģà¹ĩ
ç¿ »
ç ·
ĸà¸ ¹à¸ģ
Ġè¡ Į
Ġà¤µ à¥ĩà¤³
an ie
ĠÐ°Ð´Ð·Ñĸ Ð½
te xt
ÏĩÎ± ÏģÎ¹Ïĥ
Î³ Î¹
ĠÎ±ÎºÏĮ Î¼Î·
Ġd de
Ġs us
ĠØŃÚ© ÙĪÙħ
Ġáĥĵ áĥłáĥĿáĥ¡
à®Łà¯įà®Ł à¯ģ
Ð¸Ð» Ð°
ĠÛ±Û ³Û
ÙĪ Ø§Ùĩ
Ġt sh
Ġâ Ĺ
í ŀĪ
áĢ»áĢĸ áĢĦáĢ·áĢ¹
±áĢĨ áĢ¬áĢĢáĢ¹áĢ
ĲáĢ²áĢ·áĢ¡ áĢģáĢ«
áĢ¡ áĢĢáĢ¼
Ð¾ Òĵ
ĠÙĦÙĪ Ú¯
à°² à°ķà±ģ
ci ja
Ġà®ķ à®£
ĠÐ²Ð¸Ð» Ð¾ÑıÑĤÐ¸
Ñĥ Ò·
Ġà¦¸ à§ģ
Ġà´¨ à´®àµįà´®
ĠÆı li
ro v
Ġs ay
ow ego
p Ã«r
ere k
Ġdel le
àµįà´ ľ
Ð ģ
ĠÑħ ÑĤÐ¾
à«ĩàª ª
Ã¤ i
çĶµ ç«ŀ
ç ¹
à¸£à¸±à¸ ģ
à¤¾à¤² à¥Ģ
ĠáĢ¡áĢľ áĢ½
Ġc re
ĠA us
ĠáĢ¡áĢ±áĢĻáĢĽáĢŃáĢĢ áĢĶáĢ¹
áĢĲ áĢ±áĢ¬áĢĦáĢº
ÐµÐ¹ ÑģÑĤÐ²
Ġ×ŀ× Ĺ
à¦°à§įà¦ £
à±ĭ à°µ
ĠÐ´ Ð·Ñĸ
Ġáĥ¡ áĥĺáĥĽ
ÑĢÑĭ ÐµÐ¼
áĢģáĢº áĢħáĢ¹áĢ
áĢĢáĢ¹áĢ ĻáĢ½áĢ¬
ĠáĢĨ áĤıáģµ
áĢ±áĢľ áĢ¬
Ġà® Ĳ
±áĢĨ áĢ¬áĢĦáĢ¹
áĢ»áĢķ áĢ®áĢ¸áĢ
áĢĻáĢº áĢ¸áĢĲ
Ġsp an
Ġl t
ĠÂ ¤
ĠÐ¿ÑĢÐ°Ð´ ÑģÑĤÐ°Ñŀ
b les
Ùĥ Øª
à´¿à´ ¡
à«Ģ àª¨àª¾
ĠÐ¿ÑĢ Ð¸Ð½
Ġà¤¦ à¥įà¤µ
Ġta s
Ġs á»±
ili b
ÄĻ p
ĠÐ²Ñĭ Ñģ
ti a
áĥĶáĥĳáĥ£áĥļáĥĺ áĥĲ
ÑĥÐ² Ð°ÑļÐµ
áĢģáĢº áĢĢáĢ¹
ĠáĢĲ áĢļáĢ¹
ĠáĢ¡ áĢ¯áĢķáĢ¹áĢ
ĠáĢŀ áĢĬáĢº
sz Ã¡g
cu m
it en
us a
Ġë ¨
è¡Į ä¸º
ç½ ²
æĽ ²
à¤Ĥà¤¬ à¤Ī
tal k
r ou
Ġï¼ ®ï¼
Ġá»į ti
0 5
à¸£à¸¹à¸ Ľ
« à¸£
¥ à¹Īà¸²à¸
4 2
Ġå°Ĭé¾ĻäººçĶŁ å°±æĺ¯åįļ
å· ¦
å¯¼ èĪª
ä¼ ¦
ĠãĢĳ ,
å» ¶
à¹Ĥà¸¥à¸ ģ
à¸£à¸¹à¹īà¸ ªà¸
ä¹ İ
à¤¡ à¥Ĥà¤¨
ĠØ§ÙĨ Øª
Ġà°ªà±ĭ à°²
Ġw ill
Ġo de
Ġni won
Ġni fáº¹
Ġikan ni
Ġigb iyanju
Ġi ti
ĠU AE
ĠTÃ³kun oÌ£
ĠP ower
ĠLA TI
ĠI jo
ĠF eb
ĠC an
Ġà´µ à´¨àµįà´¨
æĥħ åł±
á¹£ owo
° ï¼¯
z ed
u bu
to ju
Ġg t
ĠÐ² Ð°Ð¹
fi kun
fe fe
er y
ag ram
Ġáº¹ bun
Ġnitorin a
Ġni waju
Ġl Ã¡
à´¾à´° à´Ĥ
ÄŁ u
Ġàª² àªĹ
Ġáĥľ áĥĲáĥ®
Ġà®® à®¿à®ķ
ĠÑģÐº Ð°Ð·
Ġí Ĭ
1 68
æľª æĿ¥
æĶ¿ æ²»
çľĭ åĪ°
ç» ©
à¹ģà¸£à¸ ĩà¸
à¤ ·à¥įà¤Ł
à¦¤ à§įà¦°
Î» ÏİÎ½
Ġy ng
Ġà°ķà°¾à°¨ à±Ģ
Ã¨ me
Ø§ÙĦ ÛĮ
Ð°ÑĬ Ð·
ĠÐ³ ÑĢÑĥ
ĠÙĪ Ùĩ
×Ľ ×ľ
Ġáĥ¨áĥĶáĥ¡ áĥĲáĥ«áĥļ
ĠâĢĭâĢĭâĢĭ âĢĭâĢĭ
Ġà´® àµģà´¤
Ġf ie
Ġs pÄĵ
ĠÐ½ Ð°ÑĤÐ¸
à§Ģ à¦¦à§ĩà¦°
ĠÐ´ Ð·
qu i
Ġd rej
Ġ) ;
àª°à«įàª ®
k Ã³w
ĠáĢ¡ áĢŃ
áĢ¶áĢ¯áĢ¸áĢ »áĢķáĢ³
ĠáĢ±áĢĽ áĢ¬
ĠáĢľáĢŃáĢ¯ áĢ¡áĢķáĢ¹áĢ
áĢĽ áĢĲáĢļáĢ¹
áĢķ áĢ½
Ã¡ ci
ÙĪØ± Øª
Ð²Ð°Ð½ Ðµ
Ġà´² àµĭà´ķ
Ð»Ð°ÑĪ ÑĤÐ¸ÑĢÐ¸ÑĪ
Ð°Ñħ ÑĤ
à±Ĥà°° à±įà°¤
Ġà¤¸ à¤¾à¤®
l ha
Ð² Ð°ÐµÑĨÑĨÐ°
ĠpÅĻ i
ĠÐ²ÑĢÐµÐ¼ Ñı
al q
ãģĦ ãģ¾ãģĻ
áĢ±áĢŀáĢ¬ áĢ¹
ķ áĢ¯áĢ¶
Ġli k
Ġk g
Î±Î¹ Î¿
it hi
Ġ Ã¡ll
t ri
Ð°Ð½ Ð¸Ð½Ð³
ĠÐ´ ÐµÐ¹
Ð¾Ð» Ð°ÑĤ
áĢĶ áĢ±áĢĽáĢ¬
à±ģà°¤ à±ģà°Ĥà°¦à°¿
ĠÐ¿ Ð°Ð³
Ġà¦¸ à§įà¦¥
ĠÑĪÐ°ÑĢ ÑĤ
ĠØ§ÙĦÙħ Øª
áĥľáĥĺáĥ¨áĥķ áĥľáĥĶáĥļ
ĠìĹ Ĳ
ĠÐºÑŀ ÑĢÐ°
ĠÒ³ÑĥÐ¶ Ð¶Ð°ÑĤ
ĠÐº ÐµÐ½Ð³
Ð¸Ð½ Ð¾
l lÃ¤
Ðł Âµ
ÑģÑĮÐº Ð¾Ð³Ð¾
b li
Ġà´¸ àµįà´±àµįà´±
ĠÒĽ Ð°Ð½Ð´Ð°Ð¹
ĠÑĤ Ð°Ð¼
à®µ à¯Ī
ĠØª Ùħ
larÄ±n Ä±n
à¶ º
Ġà¤ľ à¤¾à¤ı
Ġno ch
c are
à«ĭ àª®àª¾àªĤ
Ġ×ŀ× ¢
ĠáĥĲáĥĽ áĥĳ
ÑĤÑĭ Ð¼
Ġb á»ĭ
t ar
ĠÐ¼ ÑĸÑģ
ªà¸ ³
Ġçİ¯äºļ app
æĹ §
æıĲ é«ĺ
à¸Ńà¸° à¹Ħà¸£
ļà¸£à¸´à¸ ©à¸±à¸
áŀ ·
Ġà¤® à¤¾à¤¤à¥įà¤°
Ġáĥķ áĥĺáĥľ
Ð°ÑĤ Ñĥ
Ġm Ãªme
es nÄ«
à°² à°¨à±ģ
ho d
à¸² à¸Ļà¹Ģà¸
ĠéĢļ è¿ĩ
«à¸ķà¸ ¸à¸
ĠåĪĨ åĪĨæĹ¶æĹ¶å½©
èį £
ĠãĢĳ, ãĢĲ
Ġà¤Ĩ à¤²à¥ĩ
ĠÑĨ ÑįÐ½ÑĤ
m Ã©ny
áĢģ áĢĦáĢ¹
Ĵ áĢ±áĢŀ
ĠÐ´Ð¾ Ð¸ÑĢ
Ġà¤ħà¤ª à¤¨à¥Ģ
Ġáģ ¾
ĠáĢ¡ áĢĸáĢ¼áĢ²áĤķ
áĢ±áĢ¬áĢº áĢķáĢ¼
z u
Ġìŀ ¥
ĠÑĦÐ¾Ð¹Ð´ Ð°Ð»Ð°Ð½
ĠÐĲÐ» Ð»Ð¾Ò³
ĠÑĤ Ð¸Ð·
ĠÐĴ Ð°Ð·
Ð² Ð°ÑĤ
áĥĺáĥĽ áĥĶ
cu t
Ġpor no
Ã± os
is tÃ¤
Ð¾ ÑģÐº
h Ã«
Ġs ka
ĠÐµ ÑģÐ»Ð¸
ĠÙĪØ§ÙĦ ÛĴ
áĢ¬áĢ¹áĢĻ áĢĲáĢ®
áĢ¬áĢ¸áĢĻ áĢ¾áĢ¯
ĠÐ¸Ð¼ ÐºÐ¾Ð½
à´¿à´ķàµįà´ķ àµģà´ķà´¯
ma t
¯ à§
ĠÎ¼ÎŃ ÏģÎ¿ÏĤ
Ġl l
å®Ŀ é©¬
à¤°à¥įà¤ ľ
àª¨ àª¾àªĤ
ĠÐ°Ð´ Ð½Ð¾
Ġáĥł áĥĲáĥĽáĥĵ
Ã ī
z Ã³
Û ķ
Ø¨ ÛĮ
à¦Ń à¦¾à¦¬à§ĩ
ĠÑĤÐ°Ðº Ð¶Ðµ
Ġà®µ à¯Īà®¤à¯įà®¤
Ġu ti
ĠÐ´Ðµ ÐºÐ°
Ð°ÑĤÐ¸ Ð´Ð°
Ð°Ð»Ð°ÑĢ Ð½Ð¸
Ð³ Ð°ÑĩÐ°
ĠÐĲÐ± Ð´
ĠÑĦ ÑĥÒĽ
ĠÑĤÐ°Ð¹ ÑĳÑĢ
à´¾à´¯à´¿à´° àµģà´¨àµįà´¨
áĢĲ áĢĶáĢ¹áĢ¸
ģáĢº áĢŃ
áĢĢ áĢ¬áĢľ
íģ ¬
ĠÐľ Ð°Ò³
ÒĽ Ð°
Ð°Ð¼ Ð°Ð½
ĠÐ¼Ñĥ Ð´
áĢ¬áĢŀ áĢ®
Ġqar ÅŁÄ±
ĠÐ´Ð·ÑıÑĢÐ¶ Ð°Ñŀ
ĠD er
àªµàª¾àª¨ à«ģàªĤ
Ġà°ª à°¡
d es
à´Ł àµģà´¤àµįà´¤
×ĵ ×Ļ
Ġp j
à¤° à¥ĩ
ia c
Ð°Ð»Ñĸ Ð·
Ġà®ħà®µ à®°
ªà¸³à¸« à¸£à¸±à¸ļ
Ġæ ¹
ķ à¹īà¸Ļà¸
Ġæ Ĥ
æİ¨ èįĲ
Ġà¸ Ĥà¸
à¥ĩà¤ ¬
Ġk wa
àµĩà´· à´Ĥ
ĠÑĨÑı Ð¿ÐµÑĢ
ĠáĥĽ áĥĶáĥĿ
Ġm oo
ĠÐ¸ÑĪÑĤÐ¸ÑĢ Ð¾Ðº
áĢĻáĢº áĢ¸áĢŀ
ĠÐ» Ñı
à®¾à® ªà¯įà®ª
à«Ĥ àª°
à°°à±įà° ¸
ĠÐ± ÐµÑĪ
z Ã¡s
ĠÐ· Ð°Ð´
cz ne
ĠÏĢÎ± ÏģÎ¿Ïħ
ĠÎ£ Î¤
ĠÎº Ïį
ĠDD R
ĠA B
ĠÎ¿ Î´Î·Î³
ĠÎ±Î³Î¿ ÏģÎ¬
ĠÎ¾ÎµÎ½Î¿Î´Î¿ ÏĩÎµÎ¯Î¿
Î´ Ïī
ÏĢ ÏĦÏīÏĥÎ·
Î¬Ïģ ÏĦÎ·
Ġ! !!
ÎŁÎ Ľ
Î² Îµ
Ġcon text
Ġo edd
Ġp il
ĠéĿ Ĵ
ŀà¸´ à¹Ģà¸¨à¸
ä¹ĭ éĹ´
¸ à¹Īà¸¡
«à¸¡à¸²à¸ ¢à¸
Ġà¤ķà¥ĭ à¤£
ĠÚ¯ ÙģØª
Ġlu i
ÙĦ Ùħ
Ļ áĢĬáĢ¹áĢ
ĠáĢĺ áĢĿ
ĠÑģÐ² Ð°Ñĳ
áĢĲ áĢŃáĢ¯áĢĢáĢ¹áĢ
ĠáĢĸ áĢŃ
Ġà´ķàµįà´ ·
à±ĭ à°°
Ġcom e
Ġà®ħà®µ à®°à¯į
ĠáĥĽ áĥĲáĥłáĥ¢
áĢºáĢ¬ áĢ·
Ġáģĭ âĢĿ
Ġbu de
Ġ) áģĬ
ÑģÑĮ ÐºÐ¾ÑĹ
áĤĲ áĢ½áĢŃ
áĢ¸áĢħ áĢ®áĢ¸áĢ
áĢ ¿
ĠKoso v
Ġg ja
ĠÐ°Ñģ Ð¾Ð±
Ġch á»ī
ĠÑĩ ÐµÑĢ
ë¹Ħ ìĬ¤
ãĥ ¥
Ġà¦Ĩ à¦¹
àªĹ àª°
Ġà¦ı à¦ĸà¦¨
ĠÃ ³
el ÉĻ
àµĢ à´·
k ÅĤa
Ġaus si
ĠáĥĶ áĥķáĥł
àª¤ à«įàª°
Ð¾ Ð¸Ð·
ëŀ ĺ
áĢĲ áĢŃáĢ¯áĢĦáĢºáĢ¸áĢ
ĠÐ¿ÑĢÐ°ÑĨ ÑıÐ³
ari o
ĠÐ¾Ð± ÑĢÐ°Ð·
ĠÑģ Ð°Ð»
çģ µ
ķà¸ ģà¸
Ġç¦ ı
ĠåĽ½ å®¶
Ġà¸ ¡à¸²à¸
Ġæ Ĳ
ç¼ º
å® ĩ
è· ĳ
è§ ¦
åĽŀ è¡Ģ
è®° å½ķ
åĬ ³
Ġæķ °
çı ¾
ç® ±
à¹ĥà¸Ĭ à¹Ī
ĠåĽł æŃ¤
ç½ ª
åŁ¹ è®Ń
à¤¾à¤¯ à¤²à¤¾
à°¾à°¨ à±ĩ
Øµ ÙĦ
ĠÃ®ntÃ¢ln ire
Ġs me
ĠJe ho
hi leng
Ð± Ð¸
àª¾àª ¥
end re
áĥĲáĥĽ áĥĶáĥľáĥ¢
vi en
so ane
Ġà®® à®ķ
à°¿à°Ĥà°ļ à°¿à°Ĥà°¦à°¿
Ġà¦¦ à¦²
Ð «
ĠÐ°Ð´ ÐºÐ°Ð·
Ġà¤ľ à¤¨
áĥĲáĥĽ áĥĺáĥ¡
m ÄĽ
Ġà´¨àµĩ à´¤
áĢĨ áĢ¯áĢ¶áĢ¸áĢ
ÅĪ a
Ñİ ÑĨÑĮ
f en
à´¾à´´ àµįà´ļ
Ġà®ķ à¯ģà®´
Ġà¦Ń à¦¾à¦²
Ġt ego
ĳ áĢ¼áĢĢáĢ¹áĢ
ĠáĢľ áĤĬáĢĲáĢ¹áĢ±áĢĲáĢ¬áĢ¹áĢ
ĠáĢľ áĢŃáĢ¯áĢ·
Ġtre bu
Ð¾ÑģÑĤ ÑĮ
Ã± a
ĠáĢ¡áĢģáĢ¯ áĢľáĢŃáĢ¯
áĤıáģ ¶
áĢĶáĢ¹áĢ Ķ
áĢļ áĢŃáĢ¯
oo r
ĠÑĤÐ°ÑĪÐºÐ¸Ð» Ð¾ÑĤ
à«ĩàª ¬
Ġà¤ķà¤¿à¤¸ à¥Ģ
ªà¸ ļà¸
Ġ6up æīĳåħĭä¹ĭæĺŁ
èīº æľ¯
åħ³ äºİ
¶à¸ ĩ
Ġà¤®à¥įà¤¹à¤£ à¤ľ
ĠáĥĿ áĥłáĥĴáĥĲáĥľ
Ð» Ð¾Ð½
áĢ±áĢŀ áĢĬáĢº
ì Ķ
hat Ã³
à±Ģ à°ľ
ĠÙĪ ÛĮ
Ġà´ķ àµģà´Łàµįà´Ł
ĠÏĨ Î¿Ïģ
ĠÎ¼ÏĢÎ¿ ÏģÎ¿Ïį
Î» ÎµÏĤ
Î¶ Î·
ĠÎµ Ïĥ
ĠW M
Ïĥ Î¹Î¬
ÏģÎ¹ Î¬
ÏģÎ± Î½
Î¸ Î¿ÏĤ
ĠÎ¯ Î´Î¹Î¿
ĠÏĥÎ® Î¼ÎµÏģÎ±
ĠÎº Îµ
Ġ Ïį
ÎŃ ÏģÎ³
Î¼Îµ Î½Î±
Î¼ Î¯Î±
ÏĨ Î¹
ÏģÎ· ÏĥÎ·
ĠW N
Ġb ydd
ĠBak Ä±
Ġm ÉĻs
ĠÐ¼Ð°Ñģ ÑĬ
à§Ģ à¦¤
ĠÄĳá» ĵ
Ġve Ä¾
Ġíı ¬
Ġm Ã©
Ø³ Ø¨
Ġcz as
ĠÐ· ÑĢÐ°Ð±
ĠÐ± Ð°Ð½
áĢĶ áĢ±áĢĽ
ÑĢÐ¸ ÑĦ
áĥĴ áĥĿáĥĽ
àµĨà´Ł àµģà´ķàµįà´ķ
Ġty re
Ġà¤Ĩà¤ª à¤²à¥įà¤¯à¤¾
er n
Ġà°ĩ à°Ĥà°Ł
n es
= =
Ġàªª à«ĭàª²
Ġà®ħ à®³
ÐĨ Ðĵ
ĠÐºÑĸÑĢ Ð°Ñŀ
ÑĥÑİ Ñī
Ð´ Ð°ÑĤ
à¤¾à¤° à¥ĩ
Ġk go
Ð½Ð¾Ð¼ Ñĥ
c ciÃ³n
ĠÐ±ÑŀÐ» Ð´Ð¸
ĠÑĢ Ó¯Ð·
Ġan che
ĠÎĶ E
da ÅŁ
ĠÐ¿Ð°Ð´ Ð»ÐµÑĤ
ĠÑıÑŀÐ»Ñı ÐµÑĨÑĨÐ°
Ġíĺ ¸
áĢ±áĢ ģáĢ»
g Äģ
Ġcu m
×¨ ×Ķ
Ġà¦° à¦¾à¦ĸ
Ġàª¸ àª¹
Ġà´¨à´Ł à´¤àµįà´¤
Ġà°² à°ķà±įà°·
Ġh y
di m
Ġáĥ¡áĥĲáĥ Ĵ
m Ã©n
Ġpo ate
ãĥ ī
ĠáĢĳ áĢ°áĢ¸áĢ
it u
Ġà¤° à¤ĸ
Ġà´ķàµĤà´Ł àµģà´¤
dz o
Ġà°¨à±ĩ à°¨à±ģ
Ã Ĳ
Ä ©
áĢĺ áĢ¬áĢľ
à°ķà±įà°ķ à±ģà°µ
ĠØ¯ Ø§Ø´
te urs
ÐµÐº Ð¸Ð½
áĥ£áĥłáĥ Ĺ
à®® à¯ģà®®à¯į
Ġàª¨àª¹ à«ĢàªĤ
¡ áĢĽ
Ġs wo
Ð»Ð°Ð½ Ð°Ð´Ð¸
ĠÐº Ð¸Ð¼
Ð¸ÑĪ Ð´Ð°
Ñĥ Ð¹
ci os
Ó¯ Ò³
Ġê² Į
Ġz aman
âĢ ĺ
ĠÙĦ ÛĮÚ©ÙĨ
à¦¿à¦ ĵ
ĠáĢĽáĢ¬ áĢģ
Ð°Ð½ Ð¸Ðµ
ĠÐ¶ Ð°Ð½
»áĢķ áĢ®áĢ¸áĢ
ĠáĢķáĢŃáĢ¯ áĢĻáĢŃáĢ¯
Ġà®µà®¿à® ³
Ð»Ñĸ Ñĩ
n ost
Ã¼l t
áĥĲáĥł áĥĲ
Ùĭ Ø§
ë¥ ´
ĠJeho fa
Ġj wa
Ïħ ÏĦÏĮ
33 N
ĠÎŁ Îº
ĠÎ±Î½ Î¸ÏģÏİ
Î¼Î² ÏģÎ¯Î¿Ïħ
ÎĹ Îľ
A X
ÏĦÎ¹Îº Î¿
Î¼ÎŃÎ½Î¿ ÏĤ
ĠÏĥÏħÎ³ ÎºÎµÎºÏģÎ¹
ĠÎĶ ÎµÎ¯ÏĦÎµ
ÏģÎ±ÏĥÏĦÎ· ÏģÎ¹
Î¹Ïĥ Îµ
Î³ Î¿Î½
ĠÏĢÎ± ÏģÎŃ
ĠÎµÎ¼ÏĨ Î±Î½
ĠÎ³ Î¯Î½ÎµÎ¹
ĠÎ» Î¹
ĠÎ´Î¹Î± Î¸ÎŃ
ÏģÎ³ Î±Î½
ĠÎļ Ïħ
ĠÎķÎ»Î»Î¬ Î´Î±
Î¸ ÎµÎ¹
ĠÎŃ ÏģÎ³
ĠÎºÎ¹ Î½Î·
Ġs ydd
Ġein er
à¹ģà¸« à¹Īà¸ĩà¸
¸ à¹Īà¸Ļà¸
±à¸ Ķ
ç¶ ²
ä¸į ä¼ļ
éĽ ¨
æ¯ ķ
Ġåĩ¯åıĳ å®ĺç½ĳ
Ġä¸ ĵ
Ġ ä¸ª
Ĉ ą
éĽ ª
æĸ° çļĦ
ç¾İ åħĥ
åĪĨæİĴåĪĹ 3
à¥Ģà¤ļ à¥ĩ
Ð¾ÑģÑĤ Ñĸ
Ġàª¨ à«Ģ
en ti
ĠÐ· Ð°Ð²
ĠáĢ»áĢĻáĢĶáĢ¹áĢĻáĢ¬ áĢ·
áĢĦáĢ¹áĢĲ áĢĶáĢ¹áĢ¸
áĢĢáĢº áĢĦáĢ¹áĢ·
áĢĨáĢŃáĢ¯ áĢĽáĢĦáĢ¹
ĠáĢ¡ áĢĸáĢ½áĢ²áĢ·
áĥĲáĥľ áĥĴ
cia s
yl ko
ĠÑĳ ÑģÑĨÑĮ
ĠáĢ±áĢ»áĢĻ áĢ¬áĢĢáĢ¹áĢ
áĢ¸áĢĽ áĢ¬
áĢ¸áĢĻáĢº áĢ¬áĢ¸
ĠáĢĸáĢ¼áĢħáĢº áĢŀáĢĬáĢº
al Äĥ
Ġà¤ª à¥Ĥ
Ð¾Ñı Ð´
à´¨àµįà´¤àµįà´° à´¿
Ã«n Ã«
à´² à´Ĥ
ĠÄį o
el Ã©s
Ġ×Ķ ×ķ×Ĳ
ĠÐ´Ð·Ðµ Ð¹
ĠØ Ł
Ġgi Ã¡
Ġàªª àª¾àª¸
te i
ĠÐ³ Ð¸
Ġr en
ĠÚ¯ ÛĴ
ÑģÑĤ ÑĥÐ¿
Ġà´Ĩ à´£
Ġà®ĩ à®²
Ġy eni
Ġpo z
à¦¿à¦ Ĺ
ĠáĢĻ áĢĬáĢº
Ñģ Ñĭ
Ġa ki
ãĤ µ
áĥĲáĥłáĥ ¯
ĠÑĤ Ð¾Ð²Ð°
Ïĩ Î¹Ïĥ
ĠÎ¹ ÏĥÏĩ
ÏģÎµ Ïħ
ĠÏħÏĢÎ¬ÏģÏĩ Î¿ÏħÎ½
ĠÎ¸ÎŃ ÏĥÎ·
ĠÎ´ Ïħ
ĠÏĢ Î»Î®
Ïĥ Î±Î¹
ÎŃ Î²
ĠÏĢ Î¿Î¹
ÎµÎ¯ ÏĦÎ±Î¹
ĠÏĦ ÏģÎ¿
ĠÎµ Ïį
ĠÏĢÎ±Î¹ Î´Î¹Î¬
f r
ç²¾ åĵģ
Ġà¤ħ à¤²
à®µ à®¿à®²à¯įà®²à¯Ī
Ð°ÑĨÑĭ Ñİ
g ji
à«ĭàª ¸
ĠØ´ ÙħØ§
Ġde c
Ġcon s
Ġà°¤ à±Ĩ
Ġnh áº¥t
ĠØ¹ ÙĦÛĮ
st u
áĢ±áĢĢáĢº áĢ¬áĢ¹áĢ
áĢ¬áĢ¸áĢľ áĢ¬
ĠÑģ ÑĢÐµÐ´
Ġà´¸ à´°àµįâĢįà´ķàµįà´ķ
Ġà´¸ àµģà´
Ú© ÛĴ
Ð»ÐµÐ½ Ð½Ñı
à°ªà±įà°ª à°Ł
ĠÕ ¢
ĠmÉĻ h
Ð°Ò³ Ð¾
ĠáĥĲáĥ ĺ
ĠÎ±Ïħ ÏĦÎ¿Ïį
ÏĢÎ¿Î¯ Î·ÏĥÎ·
ÏĨ ÏīÎ½
Ïĥ ÏīÏĤ
ĠÎ· Î¼ÎŃ
ĠÎ¶Ïī Î®
Îµ ÏģÎ¿
yn n
Ġà´Ł àµįà´Ł
à´Ļàµįà´Ļà´³ àµĨ
Ġsp ra
ÑģÐ» ÐµÐ´
ëł ¤
áĢ±áĢ ģáĢ¶
Ùĥ ÙĪÙĨ
Ķà¸ ±à¸ĩ
Ġæ ģ
à¹Ħà¸§ à¹īà¸
à¥Ģà¤ļ à¤¾
à¦¿à¦¨ à§įà¦¨
ol g
Ġà®ı à®±à¯įà®ª
ĠP Ã«r
Ġel le
ĠáĥĽ áĥ¨
Ġm en
Ġàªļ àª¾àª²
ĠÙĦ Ú¯
Ġà´İ à´¨àµįà´±àµĨ
ĠáĢľ áĢ¯áĢ¶
Ðł Ñĳ
ĠÐ· Ð°Ñģ
Ġà´ħ à´ª
Ġbil ÉĻr
ĠÙĩ Ø±
áĥĲáĥ£áĥ ł
à¹Ĥà¸ Ľà¸£
à¹Ĥà¸ ķ
Ġe m
Ĺà¸³ à¹ĥà¸«à¹ī
Ĺ à¹Ī
èİ· å¾Ĺ
ag æĹĹèĪ°åİħ
ĩ à¹Īà¸²à¸¢
ä¼ ´
Ķ à¸Ļà¸
æĪĲ åĬŁ
ĠåĪĨ åĪĨå¿«3
ä¸ĭè½½ _
ļà¸£à¸´à¸ ģà¸²à¸£
Ġå½© ç¥¨
Ġag ä½ĵèĤ²
çļĦ å¤§
å°ı æĹ¶
¡à¸µà¸ Ħà¸§à¸²à¸¡à¸
Ġæ° ´
å¹³åı° _
à¥įà¤ £
ĠáĢĻ áĢ¯
ĠáĢ¡ áĢģáĢ»áĢŃáĢĶáĢº
ÅĽ cie
ĠÂ ±
ĠÐ² Ð¾Ð±
ĠÐ´ ÐµÑĤ
àªķ à«ĩ
Ð»Ñĸ Ð·
ÅĻ i
ĠkÃ¶ n
Ġà®ī à®¯
à±ĭ à°¨
ĠmyÃ¶ s
Ġà¦® à¦¾à¦°
Ġpeu t
à¨ ª
ĠåĨ ħ
·à¹Ī à¸Ńà¸Ļà¸
pk æĭ¾
Ġæ¬ §
Ġ à¸Ńà¸²à¸
5 3
ŀà¸±à¸ Ĵ
Ľà¸ ģà¸
èĩª åĬ¨
Ġäºļæ´² æ¸¸æĪı
à¹Ģà¸£à¸µà¸ ¢à¸Ļà¸
Ġ5 åĪĨæĹ¶æĹ¶å½©
Ġà¤ħà¤¨ à¥ĩà¤ķ
p ha
Ð¸ÑģÑĤ ÐµÐ¼
ĠÙħÙĦ Ú©
Ä¼ a
Ġ×ŀ× ¡
ĠÏĢÏģÎ¿ Î·Î³
ĠÏĢÎµÏģÎ¹ÏĥÏĥÏĮÏĦÎµ ÏģÎ±
ĠÎµÎ½ ÏĮÏĤ
Î¬Î½ ÎµÎ¹
ĠÏĨ Î¯
Ġon d
Ġà´¨à´¿à´¯ à´®
z ia
ĲáĢħáĢ¹áĢ ģáĢ¯
áĢĲ áĢĻáĢ¹áĢ¸
áĢ±áĢ ĸáĢ¼
áĢ¬áĢ¸áĢĻ áĢ¾áĢ¬
à±Ī à°¤
ãĥ Ĳ
Ð°ÑĶ ÑĤÑĮÑģÑı
Ġà°¶ à±įà°°à±Ģ
à°¨ à°Ĥ
ĠáĥĻ áĥļ
Ġr re
ÐµÑĢ Ð°
à¥Ĥà¤ ¸
Ġì Ĥ
ce j
à¦¾à¦ ¡
à®Ļà¯įà®ķà®³ à¯Ī
Ġper o
ĠÐ°Ð´ Ð½
áĢ±áĢŀ áĢ¸áĢĲáĢļáĢ¹
ĠáĢĺáĢļáĢ¹áĢ ŀáĢ°
ĠáĢĹáĢ¯áĢĴ áģ¶
ĠáĢĴáĢ¯ áĢĢáģ¡
ĠáĢ±áĢĲáĢ¬ áĢ·
áĢħ áĢĻáĢ¹áĢ¸
ĠáĢĲ áĢķáĢ¹áĢ
áĢ¯áĢķáĢ¹áĢ ĽáĢ½
áĢŃ áĢħáĢ¹áĢħ
Ð± ÑĥÑĢ
âĢĮ ÙĩØ§
Ġà°ªà±įà°° à°¯
ko lo
Ã©l y
Ġà´® à´¾à´±àµįà´±
ÛĮØ§ Úº
àª° àª£
í ĭ
áĢ±áĢĶ áĢĲáĢ¬
±áĢ »áĢķ
ĠáĢĽáĢ½ áĢĦáĢ¹áĢ¸
áĢĿ áĢĲáĢ®
Ļ áĢ°
ĠáĢ¡ áĢĻáĢºáĢ³áĢŃáĢ¸áĢŀ
áĢĲ áĢģáĢ¯
d nÃŃ
ku u
ĠáĥĲáĥ Ļ
tu lui
áĢĢáĢ» áĢ±áĢ¬áĢº
ÐµÑĢ Ð¸
Ġk asino
Ġida hun
Ġi bo
Ġn Äĥm
Ġes o
Ġb ulá»įá»į
Ġag un
ĠSu gbon
ĠO ti
ĠM ose
ĠJ es
ĠH ia
ĠD u
ĠÐºÐ¾ÑĤÐ¾ÑĢÑĭ Ðµ
ÑĢ Ð°ÑĨÑĮ
Ġpr Ã©s
ki ch
ĠAu st
ĠmÉĻ lu
áĥĶáĥ £áĥļáĥĺ
Ùĥ Ùħ
Ġà®¨ à®¾à®Ł
ĠAgba ye
áĢĢ áĢľ
Ġà´Ł àµįà´°
ĠA le
to re
ãĥ ģ
ĠÑĩÐ°Ð»Ð°Ð² ÐµÐº
Ġàªķ àª²
Ġ200 6
æ³ķ äºº
up er
li an
à¹Īà¸ °
è§Ħ å®ļ
ç² ī
à¹Ģà¸¥ à¹Īà¸Ļ
Ġç ¼
Ġç ¡
Ġà¤® à¤¾à¤¹
ÙĪ Ù¹
l ÉĽ
et á»į
do pá»į
at es
X W
Ġoj lo
Ġo yin
Ġh Ã¹
Ġdo hia
Ġale jo
ĠÐº ÑĬ
Ø§ÙĨ ÙĬ
ĠSa mu
ĠS á»į
ĠP A
ĠO p
ĠO kun
ke z
áĢĶ áĢĬáĢº
Ð¼ Ð¸Ð·
ÑĢ Ð°ÑĪ
Ð½ Ð´
ĠO k
ĠO WO
ĠI ran
ĠáĥŀáĥĿáĥļ áĥĺáĥ¢
Ðµ Ñ
ĠGGQ E
ĠF e
ĠC H
Ġ48 XW
Ġ OM
áº¹n do
Ã Ī
ya wo
t Ãºn
Ġga da
Ġà¤¸à¤ķ à¤¤à¥ĩ
Ġáĥ¬ áĥĶáĥļáĥ¡
on es
ĠíĨ µ
ĠÑĥ ÑģÐ»
ĠÉĻs as
èĤ ĸ
īà¸ ±à¸Ļ
à¤¿à¤ķ à¥įà¤·
Ġfe ela
Ð°ÑĢ ÑĤ
re x
l Ãº
à°¾à°° à±į
à´¾à´¨ àµģà´³àµįà´³
Ġà¦¦ à¦¿à§Łà§ĩ
à«ĩàª ¦
ĠáĢĴáĢ«áĢ±áĢķáĢĻ áĢ²áĢ·
ĠáĢŀ áĢ½
t te
Ð¾Ð² Ñĸ
ĠØ§ÙĦ ÙĬ
Ã¢ t
Ġà¹Ģà¸ ª
Ġag çİ°éĩĳ
æĿ¡ ä»¶
à¹ ĭà¸
ä½ĵ éªĮ
è®¡åĪĴ ç½ĳ
Ġà¹Ģà¸ŀà¸ ·à¹Īà¸Ńà¸
ĠH G
è¾ĵ éĴ±
åĲ ī
Ġà¸Ľ à¸µ
à¤Ĥà¤ ª
à«Ģàª ¡
Ġle n
à°¡à±įà°¡ à°¿
ĠTe lugu
à±Ĭ à°ķà±įà°ķ
Ġà¦Ĩà¦® à¦°à¦¾
ÏĦÎ· ÏĦÎ±ÏĤ
ĠÎ½ ÏĮ
ĠÏħ ÏĢÎ·ÏģÎµ
ÏģÎ· ÏĤ
ĠÎ´ ÎµÎ¯
Î¼ÏĨÏīÎ½ Î±
Î¼ ÎµÎ¹
Î¼Î± ÏĦÎ¿
Î¹Î½ Îµ
ĠÎ¼Î· ÏĩÎ±Î½
ĠÎ£ Î¥
Î³Ïī Î³
Î¬Î½ Ïī
ĠÎµ ÎºÎ±
ĠÏĥ ÏĦÎµ
ĠÎ¼ÎµÏĦÎ± Î¾Ïį
ĠÎ±ÏĢÎ¿ Îº
Î¿Ïħ Î»
ĠÎł Î¿
f an
àµįà´ ¡
ĠÑĤ ÐµÐ»
Ġà®ļ à¯ĩà®°
ãģĤ ãĤĭ
ĠpÄĵ c
Ġ×Ķ× §
ĠÑĢÐ°Ð· Ð²Ñĸ
ĠáĢĻ áĢŁáĢ¬
áĢ½ áĢĦáĢºáĢ·
ĠáĢ±áĢĢáĢº áĢ¸áĢĩ
±áĢĶ áĤĶ
áĢ±áĢĽ áĤĬ
Ġáģģáģ Ĩ
ĠáĥĲáĥ £áĥ
à¦¾à¦¨ à¦¾
Ġp ow
Ġà´ħ à´±
v Ã½
ĠÑĩ ÑĭÐ¼
Ġí ģ
áĤ ħ
áĢĻáĢ¼ áĢ±áĢ¬áĢĢáĢº
ts ch
ĠØŃÚ©ÙĪÙħ Øª
k Ä±
Ġc _
Ġr end
Ġáĥĺáĥľáĥ¤ áĥĿáĥłáĥĽ
à¦¾à¦¥ à§ĩ
à«Ģàª ª
à¯ģà® Ļà¯įà®ķ
ad os
Ġè Ĳ
ĠéĻ ¤
Ġé¦ Ļ
4 1
Ġà¤µ à¥įà¤¹
ĠÐµ ÑģÑĤÑĮ
Ġdu het
Ø§Ø¯ Ûģ
ÐµÐº ÑĤ
ØŃ Ø©
ĠÐºÐ¸ÑĢ Ð¸ÑĤ
Ð»Ð°Ð½ ÑĤÐ¸ÑĢÐ¸ÑĪ
Ð¸ÑĪ Ð½Ð¸
ĠÐ¾ Òĵ
en za
Ġà´µ à´´
áĢĨ áĢ¯
Ġt ylko
Ġn na
ĠáĥĶ áĥł
ĠáĢķáĢ¼ áĢĦáĢº
ÐłÑķ Ðł
ĠÐ¹ Ð¾Ð³Ð¾
se m
Ġà®¤ à®°
c ov
Ð» Ñĳ
à«ĩàª¶ àª¨
Ġam b
b t
Ã ®
Ġen a
áĥĲáĥł áĥĶáĥĳáĥĺáĥ¡
Ð¸Ð½Ð³ Ð´ÐµÐº
ĠÐ½Ð°Ð· Ð°ÑĢ
à´¿à´ļàµįà´ļ à´¤
Ġdá»¥ ng
ë¬ ´
Ø§Ø ©
ĠÐłÑį ÑģÐ¿ÑĥÐ±
Ġ Ã¡t
ĠÐ³ ÐĤ
Ð°Ð¼Ð¿ Ð°Ð²Ð°ÑĨÑĮ
ĠÐ¿ÑĢ Ð°Ð±
èĮ ¶
åı «
à¹ĥà¸«à¸į à¹Īà¸
à¸Ńà¸ ±à¸Ļà¸
à¥ĩà¤² à¥įà¤¯à¤¾
ĠÏĢÎ¿ Î»Î»Î¬
ĠÎ· Î»ÎµÎº
ĠÎ¬Î½ Î¸ÏģÏī
ÎµÏį Î¸ÏħÎ½ÏĥÎ·
ĠÎ½ÎŃ Î±
ĠÎł ÏģÏĮ
ĠÏĢ Î¬Ïģ
ĠÏĨ Î¹
ĠÏĦÏģÏĮ ÏĢÎ¿
Î¸ÎŃ Î±
ÏĢ Î±Î½
ĠÎ¬Î» Î»Î¿
Ïĥ Î¼Î±ÏĦÎ±
ĠÏĥÏħÎ½ ÎµÏģÎ³
ĠÏĥÏħÎ¼ Î¼Îµ
ĠÎµÎ½ Î´Î¹Î±
ÎŁÎ ļ
ĠÎ¬Î»Î» Î±
ĠÎ» Î¿Î³
ÎĳÎ ļ
ĠÎ£ ÎµÏĢ
r th
Ã¡l nÃŃ
Ġáĥª áĥ®áĥĿáĥķáĥł
ĠÑĩÑĤÐ¾ Ð±Ñĭ
Ġk es
Ø¹ Ùĩ
ĠgÃ¶ st
ĠÅ¡ o
áĢĨ áĢ²
Ġprze d
à®Ł à¯įà®ļ
Ġpro p
Ġà´ª à´¿à´Ł
ĠáĢĳ áĢŃáĢ¯áĢĦáĢ¹áĢ¸
áĢ½áĢ±áĢ¸áĢĶ áĢ½áĢ±áĢ¸áĢ
áĢĲ áĢķáĢº
Ġn j
áĥľ áĥĺ
à®¨à¯įà®¤ à¯ģ
Ġì ¶Ķ
Ġ Å¾
Ġà´µ à´¾à´¯
±à¸ģà¸ ©à¸
Īà¸ ¸à¸
¢à¸ ĩ
Ġ à¸£à¸µà¸§à¸´à¸§
ļ à¤¾à¤°
ÑģÐ¸ Ð¹
ĠÐ¶ Ð°ÑĢ
Ġàªķ àªĤàª
Ġ Ð°ÑĦ
g ne
Ġso bre
áĥĲáĥĵ áĥĲáĥ¡
Ġà´İ à´´
áĢ±áĢķáĢĻ áĢļáĢ¹áĢ·
ĠáĢ±áĢĲáĢ¬ áĢĦáĢ¹áĢ¸
áĢħ áĢĬáĢº
ĠÙ¾ ÛĮØ´
Ġter m
à¦¿à¦ ĸ
ĠP ol
Ġ×ľ ×¢
Ġà¤¹à¥ĭ à¤¨à¥ĩ
Ġà´¬ à´¨àµįà´§
Ð¿Ð¾Ð² ÑĸÐ´
ĠØ§ÙĦÙħ ÙĪ
w Ã³
tsa tsi
Ġà®®à¯ĩ à®²
ĠÎµ ÏģÏī
ÏĦÎ® ÏĥÎµÎ¹
Ïĥ ÏĮ
ĠÎ£ Ïį
Î´ Î¿ÏĤ
ÏģÎµÎ¯ ÏĦÎµ
ĠÏĩ ÎµÎ¹
Ġ _
ĠÎµÏħ ÏģÏİ
ĠA E
Î»Îµ Ïį
Î¶ Î®
eth au
à«įàª ¬
ĠÐ¿Ð°Ð²Ñĸ Ð½
ĠM it
Ġà¸ ĭ
äºĴ èģĶç½ĳ
è®¡ ç®Ĺ
Ġà¤® à¤°
r Ã¨s
Ġva ir
es ta
Ã¡ val
Ġà¦ľ à¦¾à¦¤
ìļ ¸
Ġish te
Ð»Ð°Ð½ Ð´Ð¸
ÑĨÑĸ Ð¹
ãĥ ĭ
áĢĺ áĢĿ
Ġà°Ĺà±įà°° à°¾à°®
áĢģáĢº áĢŃáĢ³áĤķ
ĠáĢķáĢ¼áĢĬáĢº áĢŀáĢ°
Ãº ng
ĠÐĲÐ»ÑıÐºÑģ Ð°Ð½Ð´
ĠáĢĻ áĢŁáĢ¯áĢĲáĢº
Ġà°Ńà°¾à°° à°¤
Ġe dib
æ´ Ĺ
à¸Ńà¸° à¹Ħà¸£à¸
Ġà¤ª à¥ģ
ĠÑģ ÑĥÐ¼
iej s
áĥ£áĥł áĥĺáĥ¡
ĠÑĢ Ð°ÒĽ
ĠÐ¿ÑĢ Ð°Ðµ
Ġà´² à´ķàµįà´·
ĠáĢ±áĢ ĳáĢ¬áĢĦáĢ¹áĢ
áĢĬáĢ¹áĢ ¡
ĠáĢĨ áĢ¯
y yat
Ġ à¹ĥà¸«à¹īà¸
ä»» ä½ķ
à¹Ģà¸Ķ à¸´à¸Ļà¸
ĠèĢĮ ä¸Ķ
æĪĳ çļĦ
à¥Ĥà¤ ķ
Ġs c
à°¨à±įà°¨ à°¿
Ø¨ Ø§Ø±
Ġà¦ķ à§ĩà¦¨
áĢĻáĢºáĢ¬áĢ¸ áĢĢ
áģĢ áĢĦáĢ¹áĢ¸
áĢĳ áĢŃáĢ¯áĢĦáĢ¹áĢ
áĢ±áĢĶ áĢ¬áĢĢáĢ¹áĢ
áĢ±áĢ¸áĢ ķ
ĠF t
Ġta l
k on
Ñı ÑĨÑĮ
´ Ī
Ġg agwe
ha ng
Ġàª°àª¹ à«Ģ
ÑĢ Ð¾Ð±
Ġà´ħ à´®
ÐĺÐ Ŀ
ĠÑĤ Ð¸Ð»
ĠÎļ ÎĳÎĻ
ÏĨ Î±Î»
ĠÎºÎ± Î»Î¬
ÏģÎ¿ Î¹
ÏĢ Î¿ÏħÏĤ
ÏĦÎ¹ÎºÏĮ ÏĤ
Î¸ Î±Î½
ĠÎ¼ÎŃ ÏĥÏī
ĠÎº Î¿Î¹Î½ÏīÎ½
Ġ ÏİÏģÎ±
Î¹Î± Ïĥ
ĠÎĶ Î¹
Î¼Î¿Ïį ÏĤ
ĠÏĥÏħÎ½Îµ Ïĩ
ĠÎĶÎ· Î¼Î¿
ĠÎ¼Î± ÎºÏģÎ¹
ĠÎł Î¡
ĠÎĻ Î±Î½
Îķ ÎĽ
ÏĦ Î¿ÏħÏĤ
ĠÎľ ÏĢÎ¿
ĠA F
ĠÎºÎ±ÏĦÎ± ÏĥÎºÎµÏħ
Ġc ym
Ġein em
Ð¾Ð· Ð¸
Ġà¤¸à¤° à¤ķà¤¾à¤°
áĢ±áĢ ŁáĢ¬
ĠáĢ±áĢĴáĢ« áĢĢáĢ¹áĢĲáĢ¬
áĢģ áĢ¼áĢ¬áĢ¸áĢ
Ñĺ Ð°ÑĤÐ°
z Ä±r
Ġà¦¤ à¦¬à§ĩ
ĠÑģÐ² Ñı
Ġàªľà«ĭàª Ī
Ġáĥ§áĥķáĥĶáĥļ áĥĲáĥĸáĥĶ
à¯ģà®ķ à®¿à®©à¯įà®±
Ð°Ð»Ðµ Ð¶
ĠÙĩ Ø³Øª
æĹł çłģ
æĴŃ æĶ¾
Ĺ à¥ĩ
Ġà´ķàµĬ à´£àµįà´Ł
m Äĥ
Ġs eg
Ø¯ Ùħ
à¤° à¤¾à¤¤
Ñŀ Ð¶
ĠÐ´ ÑĥÐ½Ñĳ
Ĩ áĢ¶áĢ¯áĢ¸
ĠáĢ§ áĢĽáĢ¬
ĠáĢĢáĢ¯ áĢľ
ĠÐ¸ Ð³
Ġë ©
áĢŀ áĢħáĢº
ĠvÅ¡ et
Ð´ Ð¾
Ġ×ĳ ×ª
Ġà´ĩ à´¤àµį
le ri
ÑĢÑĭ Ñĩ
à°¿à°¨ à°¾
v ent
Ġé» Ħ
Ġà¨¦ à©Ģ
Ġà¤¤à¥įà¤¯à¤¾à¤ ®à¥ģà¤³à¥ĩ
Ð»Ð¸ ÑĦ
ĠÎ¿Î¹ÎºÎ¿ Î½Î¿Î¼
ĠÎ±Î³ Î±
ÏĨ ÏģÎ¬
ĠÏĢÏģÎ¿ÏĥÏīÏĢ Î¹ÎºÏĮ
ĠÎºÎ± ÏĦÎ·Î³Î¿
ĠÎ± ÏģÎ¹Î¸
ĠÏĦ ÏĮÏĦÎµ
ÏĢÏĮ Î½
Î´ ÏīÎ½
ĠÎ´Î¹Î± Î´Î¹Îº
ÏĦÎ® Î¸Î·ÎºÎµ
ÏĦÏħ Ïĩ
ĠÎ´ Î¹Î¿
Î» Î¿ÏħÏĤ
Î¼Îµ Î¯
Î¯Î½ Î¿ÏħÎ½
ĠÎ²Î±Î¸ Î¼Î¿
Î±Î¹ Î½
ĠÏĥ ÏĦÏĮ
ĠÏĩ ÏİÏģÎ±
ĠÏĥ Î¿
ĠÎ² Î»ÎŃ
ĠÎ± Î¹
Î³ÏģÎ±ÏĨ Î®
we dd
v ÉĻ
àªµ à«ĭ
à±Ģ à°Ł
Ð°ÒĽ Ð°ÑĤ
Ñŀ ÑĢ
Ð» Ð°Ð³Ð°Ð½
ĠÑģÐ°Ð± Ð°Ð±
Ġmo Å¼e
p il
çĶµåŃĲ æ¸¸æĪı
å¦ ĩ
äºº çīĽçīĽ
ä¸Ĭ æµ·
åĪ¶ åº¦
ä¼ł ç»Ł
® à¤§à¥įà¤¯à¥ĩ
ĠÐ´ Ð°Ð½
Ġh iá»ĩn
ĠáĢ¡ áĢĢáĢ»
Ð°Ð¸ ÑģÐ¸
áĥĲáĥł áĥĶáĥĿáĥĳ
Ġne ng
ÑĢ Ð¸Ð¼
Ġà¤¬ à¥Ģ
Ġà¦ķà¦¾à¦° à¦£
ÃŃ r
Ġë ķĮ
Ð³ÑĥÐ· Ð¾ÑĢ
ãģ Ŀ
ÐºÑĢ Ð°Ñĸ
ĠÐ¿ÑĢ Ð°ÑĦ
ĠÚĨ Ø§Ûģ
v nÃŃ
ĠÑģÑı Ð±Ðµ
Ġv Ã¤
ĠáĢħ áĢĬáĢ¹áĢ¸
áĢŃ áĢĲáĢŃ
ĠÐº Ð¾Ð¸
à±įà° ľ
Ġàªľ àª¾àª¯
ÑĤÐ¸ ÑĩÐµÑģÐº
à®ļ à¯į
Ùĳ Ùİ
Ġti l
Ġà¤µà¤¾à¤² à¥ĩ
áĢĻáĢ½áĢ¬ áĢ±áĢĲáĢ¬áĢ·
ĠáĢ»áĢĸáĢħáĢ¹áĢ ±áĢĶ
áĢĶáĢ¹áĢ ĸ
áĤ Ħ
ĠáĢ»áĢĻáĢĶáĢ¹áĢĻáĢ¬ áĤıáĢ¯áĢŃáĢĦáĢ¹áĢĦáĢ¶
ĠáĢ±áĢĶ áĢ¬áĢĢáĢ¹
áĢ¼ áĢŃáĢĻáĢº
Ġc am
ĠÐ½ÐµÐº Ð°Ð»ÑĮ
Ð¾Ð» Ð¾Ð³
st y
tso eng
th a
Ġ×Ķ× ¡
ĠØ¥ ÙĨ
Ġv end
Ġà´ķ àµģà´
ĠÐ³Ð¸ÑĢ Ð¸ÑĦ
Ġz ur
i b
ĠáĢĲ áĢ±áĢ¬áĢĦáĢº
V C
T O
S ho
S O
L I
F or
D O
Ġáº¹ni káº¹ni
Ġá¹£i á¹£an
Ġyin yin
Ġàª¨ à«ĭ
ĠáĥĲáĥ¦ áĥĽ
Ġt Ã²
ĠÎ±Ïģ ÎºÎµ
Î¶ Îµ
ĠÎ¸Îµ Ïī
ĠÎĳ Îł
Î¼Îµ Î½Î·
ĠÎĿ ÎŃ
ĠÎ£ÏĦÎ· Î½
ÏĦ Î¯Î±
ĠÎŃ Î³
ĠÎº Î¿Î¹
ĠÎµÏĨ Î±Ïģ
ÎŁÎ ¡
ĠÎłÏģÎ¿ Ïĥ
ĠÎłÎ± ÏģÎ±
ĠÎ¦ ÎµÎ²
ĠC y
p Äģ
Ġpu g
Ġidi wá»į
Ġgb ese
Ġalaba pin
ĠW in
ĠNdi ose
ĠJ er
ĠÉĻ la
ĠÐ¿ÑĢÐ¾ Ð¸Ð·Ð²
ÑıÑĢ Ð¾Ð´
Ġà´ª àµģà´¤à´¿à´¯
r Äĥ
Ġ????? ?
te li
pp ort
p y
es ter
buláº¹ ti
T u
Ġá»Į rá»į
ĠØ§Ø³ ÙĦØ§Ùħ
ĠÂ ²
Ġwa hala
Ġta buláº¹ti
Ġr onu
Ġo run
Ġà°ª à°¾à°²
ĠØ¯ ÙĪØ±
ĠÎºÏħ Î²
ĠÎ¬ ÏģÎ¸
Ġ1 B
ĠÎ¼ÏĢÎ¿ÏģÎµÎ¯ ÏĦÎµ
ĠÎº ÏģÎ¬
ÏĥÎºÎµ ÏĦÎ±Î¹
B f
Ġag o
Ð°ÑİÑĤ ÑģÑı
à¦¨à§įà¦ ¨
ÏģÎµ Î¯Î±
Î¬Î» Î»Î¿Î½
ĠÏĥÏĦÎ¹Î³ Î¼Î®
ĠÎ ©
ĠÏĩ ÏģÎµÎ¹
Î¿Ïģ Ïħ
d v
ĠÎµÏĢ ÎµÎ¹
ÏİÎ½ ÏĦÎ±ÏĤ
Î¼Î¿ Î½
Ïģ Î¯Î±ÏĤ
Î³ Î¼Î±ÏĦÎ±
ĠÏĥ ÎµÎ¹
Ġga el
ãģ °
à®® à¯įà®®
Ġmi ngi
Ġiro ra
Ġà´ķ àµĤà´Łàµįà´Ł
Ġdaju daju
ĠS un
ĠO un
el ye
ĠM aa
ĠInter na
ĠBáº¹áº¹ ni
Ġà®® à®¾à®¤
Ñĥ ÑĤÑĮ
ĠA wá»į
ĠA c
êŀĮ in
°ï¼¯ æ³ķäºº
r ere
owa ya
oo jumá»į
o ke
ĠÐ¿ÑĢ Ð°Ðº
áĤĪáĢķáĢ¹áĢ ĽáĢ½
áĢĶ áĢ±áĢĲ
le y
je ct
il owaya
e gbá»įn
Ġp Ãł
áĢ¯áĢ¶ áĢ¸áĢ¡
ĠÑĦÐ°Ð¾Ð»Ð¸ ÑıÑĤ
ĠÐ¼Ð°ÑĢ Ð´
Ġáĥ¨áĥĶáĥ ®
ÅĨ as
Ġà´¤ àµĢà´°
ti k
àªµàª¾àª¨ à«ĭ
Ġé Ķ
Ġè¿Ļ æĺ¯
åŃ¦ éĻ¢
æİ¨ è¿Ľ
ä¼ Ļ
Ġà¤® à¤¾à¤¨
à°¾à°¬ à±ģ
à±ģà° £
Ġà¦¸ à§ĩà¦ĩ
Ġáģģáģ ī
tso a
Ġmo k
ĠÐ°Ð½ Ð¸ÒĽ
ÐµÑĤ Ð°
áĥĽ áĥĺ
ĠÐ¶ ÑĭÐ²
áĢģ áĢ½áĢ²
ĠÐ¨ Ñĥ
ĠÑģ Ð°ÑĦ
j or
àµĭ à´ª
à°¾à°¨ à±į
ĠÄĳá»Ļ ng
ëł Ī
à¯įà®¨à¯įà®¤ à¯ģ
Ø§Ø¯ Ø©
Ùģ Ø±
áĢ°áĢ¸áĢ±áĢķáĢ« áĢĦáĢ¹áĢ¸
Ġáģģáģ ĩ
Ġr ona
Ð°Ð³ ÑĸÑĩ
tu ra
à¥ĩà¤ ª
Ġh et
áĥĿáĥļ áĥĿáĥĴ
Ġmo tho
áģ¾áĢĢ áĢĬáĢ·áĢ¹áĢ
áĢ¸áĢĲ áĢŃáĢ¯áĢ·
à§Ģ à¦Ĺ
à¦¿à¦ ı
ĠC yf
ĠÐĲ Ð²
Ġáĥŀáĥł áĥĿáĥª
ÏĦ ÏīÏĤ
Î¾ Ïī
ĠÏĢ Î®
ĠC R
ÏĢÎ¿ Ïį
w l
i ts
Ġà®ª à¯ģà®¤
Ð°ÑĤ ÐºÑĥ
Ġà¦¤ à¦¾
×ķ× ĺ
Äį ÃŃ
wi Äħ
Ġàª¤à«ĩ àª¨à«ĩ
àµĢ à´ª
Ġies pÄĵ
ĠåĪ Ľ
Ġå¤§åıĳ 2åĪĨå½©
Ġä»ĸ ä»¬
à¹īà¸ ¡
à¸Ńà¸¢à¹Īà¸²à¸ ĩà¹Ģà¸
ĠagçľŁäºº åľ¨çº¿
ç»ĵ æŀĦ
åĪ© çĶ¨
åħ¨ éĿ¢
æĭĽ åķĨ
ĠçĽ ´
Ġåĩ¯åıĳ app
Ġag ç½ĳä¸Ĭ
æ¶Ī æģ¯
7 6
5 2
Ġ ä½ľ
è ¸
· à¸Ļà¸
éĺ ¶
à¹ĥà¸«à¸¡ à¹Īà¸
5 00
èĲ ¨
è´ ·
æľī åħ³
ª à¸µ
à¨ ¼
Ī à¸µ
ĠĈ ï¼Į
Ġçİ ©
Ġ= '
à¤¿à¤ ¹
Ġáĥ§áĥĿáĥķ áĥĶáĥļ
ĠÐ³Ñĵ Ñĺ
Ð½ Ð°Ñŀ
Ã¼ let
on ne
Ġle ge
Ġka ka
Ġif á»įwá»į
Ġal l
Ġagba lagba
Ġafáº¹sáº¹ gba
ĠS pa
ë Ķ
ĠÑı ÑĪ
Ñģ Ð°Ð±
ĠÐ¿ Ð¾ÑĢ
ĠÐľ Ñĭ
à®µ à®°à¯į
à°¸ à±įâĢĮ
à°¾à° ¸à±įà°¤
ĠP D
ĠM ÃŃ
ĠI ye
ĠÐ±ÐµÐ»Ð°ÑĢÑĥ ÑģÐºÐ°Ð¹
ÑĢÐ°ÑĨ Ð¾Ñŀ
ĠI tá»įju
ĠI káº¹ká»į
ĠApp le
êŀĮ u
wer an
to ld
ri st
po pada
mini omu
lu san
ku áº¹
ju ká»į
áŀ ĵáŀ
Ġå¤§åıĳ 1åĪĨå½©
Ġà¸ Ĥà¸Ńà¸ĩà¸
Ġà¤¤à¥įà¤¯à¤¾à¤Ĥà¤ ¨à¥Ģ
is s
áĥĵ áĥĶ
ĠÐ³ Ð°ÑĢÐ´Ð¸
d Ã¡
à¦² à§įà¦ª
àªµ àª¾àª°
ĠÑĥ Ð¶Ðµ
ÑĢ Ð°Ð´
ĠØ³ Ø§Ø²
r ye
à®µ à®°
ĠÐ»Ñĸ ÑĤÐ°ÑĢ
la ya
Ġà´¤àµįà´¤ à´¿
Ġà´ħ à´²àµįà´²
Ġmo ng
ĠÙħ ÛĮØ±
ĠëĤ ¨
ti tu
ĠÐ½Ð°Ð² ÑĥÐº
àª°à«įàª £
áĥĿáĥ¤ áĥļ
çĽ Ī
çĶ °
à¹ĥà¸Ļà¸ ģà¸²à¸£
à¥įà¤¯à¤¾à¤Ĥà¤ ļ
ĠÑĩ ÐµÐ»Ð¾Ð²
Ġà¤¬à¤¹ à¥ģà¤¤
Ġpro du
Ġà°ĩ à°¦à°¿
ĠÙħ Ø³ÙĦ
Î´ Î¿Ïħ
Ïĥ ÎºÎ¿
ÏģÎµ Ïį
ĠÏĥÏĩ Î¿Î»
ĠÏĨ ÏĮ
ĠÏĦ Î¬
ĠÎļ Î¿
ĠÎ¾ÎµÎ½Î¿Î´Î¿ ÏĩÎµÎ¯Î±
ĠÎ» Î¿Î¹
ÏĦÎ¹ÎºÏĮ ÏĦÎ·ÏĦÎ±
Îº Î¿Ïħ
Î³ ÏģÎ¬
ÏģÎ± ÏĥÎ·
Î´Î® ÏĢÎ¿ÏĦÎµ
f od
Ð±Ð¾ÑĢ Ð¾ÑĤ
Ð°ÑģÐ¸ Ð´Ð°Ð½
Ø³ Ø±
ve j
Ġwi ÄĻ
ĠÐ¸ Ñİ
ÐµÑĤ Ðµ
Ġpa l
ãģĦ ãģŁ
ĠÐĵÐ ģ
ĠÑģÐ¿ Ðµ
lo a
Ġn tle
ĠÑĪÐ°Ò³ ÑĢ
Ġid Åĳ
b ur
à§Ł à§ĩà¦°
Ġta un
Ġp lay
Ġo bo
Ġmi ta
Ð¾Ð»ÑĮ Ðº
Ġko li
Ġipiláº¹ á¹£áº¹
Ġimu dojuiwá»įn
Ġbulá»įá»į gi
ĠT ai
à®² à®¿à®²à¯į
ĠOf fi
ĠO ro
Ú© Ùĩ
ĠL oni
ĠFa cts
san ma
ri a
ilo pin
ag er
Z O
H O
Ġz an
Ġwa s
Ġiyan jáº¹
Ġiran á¹£áº¹
ĠW oo
ĠG báº¹
ĠAá¹£a yan
Ġ6 7
Ġ4 39
áº¹áº¹ si
yo ri
Ġáĥ¡ áĥĻ
ĠáĢĽáĢĶáĢº áĢĢáĢ¯áĢĶáĢº
ĠáĢĢáĢ¼áģ½ áĢĶáĢ¹áĢ±áĢĲáĢ¬áĢ¹áĢ
áĢĦáĢ¹áĢĺ áĢ¬
±áĢ ģáĢº
ĠáĢľ áĢ¶áĢ¯
áĢ±áĢ ĩ
tor y
ri es
Ġàª¦ à«ĩàª¶
áĢĶáĢ¹áĢ ķ
Ľ áĢĦáĢ¹áĢ¸
ĠáĢĽ áĢ²áĢ·
ĠáĢķáĢ« áĢĿáĢĦáĢº
one y
ká»įn i
i gb
esi waju
d Ãł
ë§ ¤
Ġng Ãły
à¦¾à¦ ī
Ġà¤Ĺ à¥įà¤°
Ġë Ħ
ĠáĥĲáĥłáĥ ª
ĠÑĪÐ°Ò³ Ð°ÑĢ
ĠÐºÐµÐ¹ Ð¸Ð½
ĠÐº ÑĥÑĢ
y or
Ġk ri
ĠÐ½ ÑĥÐ¶
ĠÐ Ļ
ÑĥÑĤ Ð±Ð¾Ð»
Ð¾Ñģ ÑģÐ¸Ñı
áĥĺáĥĻ áĥĺáĥ¡
à´¿à´¯ à´¤àµį
ĠÐĶÐ°Ð² Ð»Ð°ÑĤ
Ð¸Ñĳ ÑĤ
ĠÃ¶l kÉĻ
p Äĥ
Ġtse la
ĠÚĨ Ú¾
ĠÐ³ÑĥÑĦ ÑĤ
à®µ à®°à¯įà®ķà®³
à´¾à´· àµįà´Ł
ĠáĢĤáĢº áĢķ
áĢ¬áĢ¸áĢĲ áĢļáĢ¹
áĢĸ áĢ°áĢ¸áĢ
ĠáĢĺ áĢ¬áĢľ
ĠÐ»Ñİ Ð´Ð·ÐµÐ¹
Äĵ t
à§ģà¦ §
Ġ×Ķ× Ľ
áĢĲ áĢ¶
ãĥ¼ ãĤ¹
é« Ķ
å¤§åıĳ å¿«3
Ġäºļæ¸¸éĽĨåĽ¢ æīĭæľº
æĿĲ æĸĻ
è° ģ
çľŁ åģĩ
çļĦ æĹ¶åĢĻ
å¹² éĥ¨
ļà¸ ¸à¸
Ġé ħ
Ġè ĥ
é¡ ¾
áł¦ áł
à¹ģà¸ ŀà¸
Ġà¤ī à¤¤
áĢľáĢ»áĢ¾ áĢĦáĢº
k Ã¡
Ð¾ÑĢÐ¸ ÑģÑĤ
owan e
Ġà´¸ àµįâĢĮ
Ð´Ð¸ Ò³
ĠÐ¾Ñĩ ÐµÐ½ÑĮ
ĠÙĩ Ø°Ùĩ
ka a
Ġin s
Ġà´µà´¿à´ ľ
Ġà¦ı à¦²
la l
ÏĥÎ± Î¼Îµ
AF 8
ĠÎµÎ³ ÎºÎ±
ĠÎµÏģÎ³ Î±Ïĥ
Ġl la
ĠáĥĽáĥĿáĥ ¥
Ġi tem
Ġìĸ ´ë
ĠÑĸÐ½ ÑĦÐ°ÑĢÐ¼
Ġv z
ĠØ¨Ø§Ø´ Ø¯
Ġn ur
Ġáģ¿ áĢĦáĢŃáĢĻáĢ¹áĢ¸áĢģáĢºáĢĻáĢ¹áĢ¸
áĢ±áĢĽ áĢŃáĢĢ
Ġm b
Ġs ans
Æ°á»£ ng
Ġà¦¶ à§ģà¦°à§ģ
à¥ĭà¤Ĥà¤ ¨à¥ĩ
Ġàª¤à«ĩ àª¨àª¾
Äĵ mu
ĠÐ» ÐµÑĤ
Ġà®İà®© à¯į
à´Ļàµįà´Ļ à´¨àµĨ
Ġà®ķ à®¿à®Ł
ĠáĥĲáĥĵáĥĴ áĥĺáĥļ
Ġà°ª à°¨
Ġin san
ãĤĪ ãģĨ
Ġà´®à´² à´¯à´¾à´³
Ġà´Ĺ àµįà´°
åħ¨ éĥ¨
à¹Īà¸²à¸ §
ª à¸Ńà¸ĩà¸
Ġè¯ Ħ
Ġà¨ ļ
Ġ ä¸ĭè½½
ï »
łà¸±à¸ ĵà¸ĳ
æĮģ ç»Ń
à¥ģà¤ ·
Ġph a
ĠÐĳ ÐµÐ»Ð°ÑĢÑĥ
ĠÐŁ Ð°Ñģ
Ġ Å¼y
Ġà®ħ à®ªà¯įà®ª
ĠÐºÐ¾Ð¸ ÑĤÐ¾
tu s
Ø§Ø¨ ÙĤ
ĠÐł Ñķ
ĠÑı Ð·
ĠÃ± a
Ġo ta
Ġo si
Ġj á»įwá»į
Ġfi imu
Ġdi po
Ġå¤§åıĳ å¤§åıĳå½©ç¥ŀ
Ġå ĸ
èĽĭ èĽĭ
¥à¸ ¢
Ġåį ķ
å² ¸
Ġç§ Ĵ
Ġpk 10
çĶ ²
å½ Ĵ
éĻ Ī
ä¹ ±
Ġà¹Ģà¸ Ľ
Ĥà¸Ńà¸ĩ à¹Ģà¸
Ġà¤ª à¤¡
ĠáĢĳ áĢĦáĢ¹áĢ
áĤıáĢŃáĢ¯áĢĦáĢ¹áĢ ķáĢ«áĢĲáĢļáĢ¹
áĢĲ áĢ¯áĢŃáĢĦáĢ¹áĢ¸
áĢ¼ áĢŃáĢ¯áĢ·
Ġdi dun
Ġawá»į sanma
Ġa hun
ĠP an
ĠOru ká»į
ĠI wá»į
ĠI M
Ġ????? ??
Ġ- %
wh Ãłn
r oso
S E
Ġp ye
Ġko ja
à¯Ĥ à®°
ĠáĢĻ áĢŃáĢ¯áĢ¸áĢ
li tÃ©
áĢĢáĢŃáĢ¯ áĢľáĢĬáĢ¹áĢ¸
áĢ±áĢĲáĢ¼ áĢŁáĢ¬
ĠáĢ¡áĢħáĢ® áĢ¡áĢħ
Ġis oro
Ġà¦ªà¦° à§įà¦¯
te g
Ġàª¬ à«ĩ
ĠÐ´Ð¾Ð» Ð¶
Ġifi we
Ġga ju
Ġdi le
Ġaká»į siláº¹
Ġa ta
ĠWeb talk
ĠP aulu
ĠJa pan
áĢŃáĢ¯áĢĦáĢº áĢĽáĢ¬
àµĩà´ ľ
Ð¿ Ñĭ
à±Ģà° İ
à±Ģ à°¤
ĠInterna tional
ĠBa i
Ã¡r ÃŃ
Ġà¤¸à¤® à¤¯
ĠÛģÙĪ ÙĨÛĴ
Ġ×ĳ ×Ķ
ĠÄį i
ĠÐ¾ ÑĪ
Ġle ur
Ġë° ľ
à®¿à®¯ à¯ĩ
ÙĬØ± Ø©
m ul
h t
ĠÐ¼Ð°Ò³ ÑģÑĥÐ»
ĠÐ¼ ÐµÑĢ
ªà¸´à¸ Ĺà¸ĺ
Ġà¸ Īà¸²à¸ģ
Ġà¨¨ à©Ĥà©°
æĲ ı
Ġç ©
à¤µ à¤£
àª¾àª¨ à«ģàªĤ
Ġk Ã©sz
Ġt ie
à°¾à°Ĥà°Ł à°¿
yin ti
weran á¹£áº¹
si le
áĥł áĥĿáĥĳ
o ple
lay sia
i ye
C O
ĠêŀĮ a
Ġá»įlá»į pa
Ġnz oni
Ġni do
Ġn ten
ĠPi ta
ĠO l
áĢĻ áĢĢ
à´ķàµįà´ķ àµģà´¨àµįà´¨
Ñĥ Ð»Ñĸ
áĤı áĢ¼
áĢ¸áĢĽ áĢ½
áĢĲáĢĬáĢ¹áĢ¸ áĢĢ
áĢĢáĢ¹áĢ ±áĢĲáĢ¼
ĠáĢĺáĢ¬ áĢĻáĢ½
áĢĶ áĢ±áĢ¬áĢĢáĢº
Ã«n d
Ġ ÉĻn
Ġju Å¼
Ð´ Ñį
Ñī Ð¾
Ð½ Ñĳ
ĠIá¹£ akoso
ĠI RO
ĠG re
áĥ£áĥł áĥĲáĥĵ
Ġà´İ à´¸àµį
áĢĢ áĢŃáĢħáģ¥
ĠáĢķ áĢ»
Ġà°¦ à±įà°µ
ĠØ§ Ø¬
aro lo
Ġà´¶ à´°
Ġj Ã³
Ġà®ī à®±
Ġà¦® à§ģ
ĠG B
ĠF I
ĠBit coin
ĠAtun wo
ĠA koko
Ġ, "
wa tá»į
vi ng
ung o
p ress
kanna a
ji ji
b Ã¡
l Äħ
ĠàªŁ à«įàª°
ĠáĢ¡ áĢ¬áĢ¸
áº¯ c
g ar
ĠáĢ±áĢĽ áĢ¬áĢĦáĢ¹áĢ¸
Ġcom ments
ĠáĢĳ áĢŃáĢĶáĢ¹áĢ¸
áĤĥ áĤĩ
áĢĻáĢº áĢ¸áĢĽ
Ġà¦ª à§ģà¦²
ĠE gy
Ġà¤ª à¥ģà¤°
ĠÛ °
ĠÛ±Û³Û ¹Û
Ùģ ÛĮ
un oa
ĠÐľ ÐµÐ½
à´¾à´ Ļàµįà´ķ
à§ĩà¦² à§ĩ
ĠÐ¼Ñı Ð½Ðµ
áĢ¡ áĢ±áģ¾áĢĢáĢ¬áĢĦáĢ¹áĢ¸
¡ áĢ¬áĢ¸
ÅĽ li
Ġun ter
Ã©r ie
áĥł áĥĲáĥ¤
Ð² ÐµÐ´
ĠáĢ¡ áĢĻáĤĪ
áĢĶáĢ¹ áĤĢáĢĢáĢ®áĢ¸
ĠáĢĸ áĢĻáĢ¹áĢ¸áĢĨ
ĠáĢĲ áĢ°
to are
ĠÑĪ Ð°Ðº
ĠÏĢÎµ Ïģ
ĠÎ¼Î±ÎºÏģÎ¹ Î¬
fn yd
×ķ ×Ļ
Ġëį Ķ
Ø· Ø©
s ts
ÐµÐ½Ð¸ ÐµÐ¼
àµģà´µ à´°
ĠÐ¾ Ð²
áĢľ áĢ»
åĽ½ äº§
Ġà¤¸ à¥įà¤Ł
ãĥ¼ãĥ «
à¯Īà® ®
J I
Ġï¼®ï¼ °ï¼¯æ³ķäºº
Ġti êŀĮ
Ġn se
Ġm illi
ĠÄ ¾
Ð¾Ð² Ð°Ð¹
Ġà¦¹ à¦¿à¦¸
Ùĩ ÙĨÚ¯
Ġgb Ã³
ĠÑħ Ð¾Ð´Ð¸
ĠÐ¼Ñĥ Ñģ
yan e
ĠÐ² Ð¸ÑĢ
a st
Ġfi fá»į
Ġdan dan
k ur
s sÃ¤
áĥĲáĥ¡ áĥĹáĥĲáĥľ
Ġa diráº¹si
ĠS uper
ĠOri láº¹
ĠNi ke
ĠM ini
ĠIRO YIN
ĠHi gh
ĠG Q
ĠE li
ĠDavi d
Ġàª¶ à«ģàªĤ
ĠA t
ĠÐģ Ð½
à±Ĩ à°Łà±įà°Ł
à´¿à´ İ
à«Ģ àª¨à«Ģ
Ģ áĢ¯
ĠáĢĿ áĢ«
ĠA li
Ð¸ÑĤ ÐµÐ»
Ġà®ħ à®²à¯įà®²
ĠØ³ Ùħ
ya êŀĮ
wan na
tÃ³ Ì£
ÑģÑĮ ÐºÐ¸Ð¹
is tan
àµĩà´ ¦
Ġà°ī à°ª
ĠáĢľáĢ° áĢĻáĤĪ
ĠáĢĳ áĢŃáĢ¯áĢ·
e mu
der i
ck s
V I
Ġáº¹ sun
ĠÃł w
áĥĲáĥľ áĥĲ
ĠÑģÐ² Ð¾Ð¸
Ġp an
ĠÐ± Ðµ
Ġn in
Ġlo o
Ġkáº¹ káº¹
Ġitáº¹ we
Ġda hun
Ġd ari
ĠÙĪ ÙĬ
ĠÐ³ Ð°ÑĢ
Ġà´¨ à´²àµįà´²
áĢľ áĢ½áĢºáĢĦáĢ¹
áĢħáĢ¹áĢ Ļ
áĢ°áĢ¸áĢ ļ
ĠàªĨ àªĹ
Ġb Ãª
Ġala i
Ġagbe kaláº¹
ĠS m
ĠM art
ĠJohan u
r ar
ĠI sa
Ġ8 1
Ġ. âĢĻ
ĠØ± Ø³
á»į ki
w un
owo po
ow os
m ara
aêŀĮ a
atun ká»į
Ġy inuwa
Ġw and
Ġra ce
Ġpi p
Ġph i
Ġng ba
Ġna sá»į
Ġme ta
Ġáĥ¨ áĥĶáĥķ
èģĶ ç³»
æ¼ «
ä¼ ĳ
éĩĳ èŀį
à¤¾à¤± à¥įà¤¯à¤¾
áĢ±áĢ ļáĢ¬áĢĢáĢ¹áĢ
±áĢ»áĢĻ áĢ¬áĢĢáĢ¹áĢ
ĠáĢĢáĢ¬ áĢĢáĢ¼áĢļáĢ¹áĢ
áĢĭ áĢ¹áĢ
Ġkáº¹ dáº¹
Ġb an
Ġ×Ķ× Ĵ
ĠUn told
ĠRe al
ĠPo dá»į
ĠO mi
áĢĢáĢ¹áĢĨ áĢ¶
»áĢĻ áĢĦáĢ¹áĢ
áĢħáĢ¹áĢħ áĢĬáĢº
à´ķ àµ¾
ĠN kan
ĠÐ¼ Ð°ÑĤÑį
à¤°à¥įà¤ Ł
ĠN is
ĠInst agram
ĠI pinle
ĠE ro
ĠB ra
ĠA bi
Ã²g Ã¬
v is
le bu
H a
Ġya nga
Ġy aa
Ġul trasonic
Ġos ise
áĥĲáĥľ áĥĺáĥĲ
Ġm y
Ġm as
Ġla t
ĠÐ³ÑĸÑģÑĤ Ð¾ÑĢÑĭ
Ġitu ra
à¦ķ à§ĩà¦°
Ð¡ ÐĤ
ĠÑĢÐ¾ ÐºÑĥ
Ġim or
Ġgb agbe
ĠTit un
ĠT ool
ĠRail way
ĠLi ve
ĠA lu
ãĤ ¦
íĨ µ
ĠA ká»į
Ġ1 sho
Ġ1sho rt
yá»įn áº¹n
o pu
di an
Ġàª® à«Ĥ
ĠÐŁ ÑĢÐ¸
de de
Ñİ ÑĤ
S S
Ġáº¸ ka
Ġs egi
Ġnkan kan
Ġni yanju
Ġlai lai
Ġido juká»į
ĠgbÃ³ Ã²gÃ¬
Ġgb Ã©
áĢĢáĢ¹áĢ ĳ
ĠáĢĦáĢ« áĢ·
ĠáĢ¡áĢ²áĢ· áĢĴáĢ®
áĢ¸áĢĢ áĢ¯áĢŃ
Ŀ áĢĶáĢº
ĠáĥĽ áĥľáĥĺáĥ¨áĥķáĥľáĥĶáĥļ
ĠÑĤ Ð¾Ð¹
ĠØ¨ ÙĬÙĨ
ĠÑĤ Ð¾Ò·
Ð¾ÑĢ Ð°ÑĤÐ¸
áĢľáĢ¬ áĢĲáĢ²áĢ·
áĢħ áĢ±
Ġà¦¤à¦¾à¦° à¦¾
à¤° à¤¾
ĠØ§ Ú¯Ø±
Ġb ÉĻ
ĠLatvi jas
Ä« s
zet t
áĢ½ áĢĲáĢº
Ð´Ð¸ ÒĽ
Ġáĥ©áĥĶáĥĽ áĥĺ
Ġà°¤ à°ªà±įà°ª
Ġa ber
ĠáĥĴáĥĲáĥľ áĥĽ
ti ke
ĠÐºÐ°Ðº Ð¾
Ġgb ona
Ġàª¤ à«įàª°
Ġfi pamá»į
Ġf esi
Ġco ffee
ĠW ar
ÐµÐ½ Ñı
Ġf on
ĠT at
ĠS tu
ĠRe d
Ð»Ð°Ñģ ÑĤÐ¸
Ð°Ò³ Ð¾Ð½
ÐµÑĢ Ñĸ
ĠO po
í Ĥ
ĠF aran
Ð°Ð· Ð²
ĠáģĤáģ ħ
Ġà¤²à¥ĭà¤Ĺ à¥ĭà¤Ĥ
áĢĢáĢ¹áĢ ĻáĢ½
ĠáĢ¡ áĢĸáĢ¼áĢ²áĤĶ
áĢ® áĢĲáĢ¬
ĠBio graphy
Ġ6 9
Ġ19 8
yáº¹ yáº¹
Ġà°¸ à°°
Ġne bo
ĠáĢŀáĢŃáĢ¯áĢ· áĢĻáĢŁáĢ¯áĢĲáĢº
áĥĺáĥ ¬
ÅĤ em
v áº¹
r Ãłn
á»± c
Ġàªķàª¹ à«įàª¯à«ģàªĤ
æ° Ĺ
àµĬ à´ķàµįà´ķàµĨ
ÅĤ am
Ġbar dzo
em ei
ĠÑģ Ð¸ÑģÑĤÐµÐ¼
dad es
Ġti mp
Î» Î±Î½
Î¸ ÎµÎ½
AX w
ĠÎºÎ± Î»ÏĮ
Î¼Îµ ÏĤ
Î¯ ÏīÎ½
ĠÏĩ Î¬
ĠÏĦÎ¿ ÏĢ
Îķ Î¤
ĠÎ´ Ïİ
Ġg al
Ġà´Ł à´¿
à´Ĥ à´¬
ĠØ³ ÙĬ
ĠtÅ¡ o
Ġk ho
w ana
Ġà¦¨ à§ĩà¦¤
Ġo vat
j t
Ð» Ð°Ð´Ð¸
Ġde ux
ĠÑĦ Ð°ÑĬ
a li
ĠÐ´ ÑĥÐ¼
¨à¸ ±à¸
Ġ äººæ°ĳ
à¹īà¸²à¸ ĩà¸
± à¹Īà¸Ļ
Ġà¤¸à¤Ĥà¤ ª
à°¿à°Ĥà° ª
à¦¨à§įà¦¤à§įà¦° à§Ģ
Ġáĥ© áĥĲáĥĽ
ni ka
ĠÚ¯ Ø¦ÛĮ
Ð³ Ð»ÑıÐ´
à¦ŀ à§įà¦ľ
ĠØ¯ Ùĩ
à´§ à´¾à´¨
ÑģÐº Ð¸Ðµ
Ġ×ľ ×©
Ġi Ã§
à«Ģ àª®àª¾àªĤ
Ġà®ļ à®¨à¯įà®¤
ĠÑħ Ð°ÑĢ
Ġà¦¹à¦ļ à§įà¦Ľà§ĩ
cz Äħ
Ġha ben
j d
Ð¾Ð» Ð¾Ð²
ĠÐ°Ð´ ÑĥÐº
ãģ« ãģª
Ġâķ ķ
ĠÐ²Ð°Ð· Ð¸ÑĦ
Ġà¦¸ à¦¾à¦¥à§ĩ
ĠáĥĵáĥĲáĥ £áĥ
ĠÒ³Ð¾Ð» Ð°ÑĤ
Ġ5 åĪĨ
Ġ25 9
ç» ¿
«à¸±à¸ §
ĠæĢ »
Ġagçİ¯äºļ æīĭæľºçĻ»å½ķ
à¤ ±
Ġà°ª à°Łà±įà°Ł
ÑĢ Ð¾Ñŀ
à¥ĭà¤¡ à¤¼
àª° àª®àª¾àªĤ
owos owopo
ja ck
igb aniwá»įle
ĠâĢĿ âĢĶ
Ġz ia
Ġtáº¹ táº¹
Ġt Ã³
ë¡ Ŀ
ĠÑģÑĤ ÑĢÐ°Ð½
Ġà®ª à¯ĩà®ļ
van ie
ĠÐ¼Ñĥ ÑĪ
Õ¡Õ £
lÉĻr inin
z s
Ġpar t
àµĬ à´´
Ð² Ð°ÑĤÐ¸
Ø´ Øª
Ġáĥĺ áĥķ
âĢĮ à°°
à°ª à±ģ
Ġri s
ĠÐ½Ðµ Ð°Ð±
à«ģ àª¸
à´¨ àµģà´Ĥ
Ã« ve
ĠáĥĵáĥĲáĥ ĳ
fu ta
Ġà®Ĩ à®°
Ġà´ ĸ
78 9
Ħà¸£à¸ ĩà¸
ªà¸ĸ à¸²à¸Ļà¸
Ķé©° å®Ŀé©¬
Ħ à¹Īà¸²
åĩº äºĨ
äº Ī
Ġà¸ Īà¸²à¸ģà¸
à¸Ńà¸¢ à¸²à¸ģà¸
à¥Ģà¤² à¤¾
ĠØ§ÙĦØ° ÙĬ
Ġgra tis
en do
ĠØ§ Ûģ
Ã¡ sz
àµĨà´Ļàµįà´ķ à´¿à´²àµįâĢį
Ġm iejs
à¤® à¥ĩà¤Ĥ
à´¿à´¯ à´¿àµ½
Ġvi deos
Ġlu c
ĠÑĤÐ°Ðº Ñĸ
c os
ik Äģ
Ġå® Į
Ġä¸ ĸ
Ġà¥¨ à¥¦
Ã¼t Ã¼n
r Ã³l
Ġ×© ×Ĳ
à¤ķ à¥įà¤¤
Ġse in
à¯Ĭ à®°
ĠÐ´ Ð°Ñģ
ĠS lov
ĠáĥĲáĥ ŀ
Äį as
Ġtsa ma
à°ļà±įà°ļ à±ģ
Ġp un
ĠÑĥ ÑĪÐ±Ñĥ
ĠÐ°Ð² Ð²Ð°Ð»
ĠÏĢÎµÏģÎ¹Î¿ ÏĩÎ®
ĠÏĩÏģÏĮ Î½Î¿
ĠÎ¿ ÏįÏĦÎµ
ĠÏĥ Î±
ĠÏĥÏħ Î½Î¿
ĠÎ´Î¹Î± ÏĨÎ¿
ĠÎ³ Î½Ïİ
Ïĥ ÎµÏĤ
ÏĢÎ¿ Î¸Îµ
ĠÏħ ÏĪÎ·
Î»Î¿ ÏįÎ½
ĠÏĨ Ïħ
ĠÏĦÎ± Î¾
Î³ ÏĮ
ĠÏĦÎ· Î»Îµ
ĠÎķ Î¯
ÎŃ ÏģÎ±
ĠÎ±ÏĨ Î¿Ïį
ĠÎ ī
ĠÏĥ Ïİ
Î½Î· ÏĥÎ·
Ġr ha
is on
ÑĢÑĭ Ñĸ
ĠØ¬ Ùĩ
Ġt el
áĥĿ áĥĲ
ÑĤ Ñĸ
Ù¹ Ú¾
Ã¡ nh
Ðµ Ð»Ñı
àª°à«įàª ¸
íķ Ń
Ġà§ §
áĢŀáĢŃ áĢĻáĢ¹áĢ¸
áĢĬáĢ¹áĢ ķ
áĢĸáĢ¼áĢħáĢº áĢŀáĢĬáĢº
el la
ÑĤ Ð°ÑĢÑĭ
ĠbaÄŁ lÄ±
Ġà¦¸ à¦¦
Ĭà¸ ·à¹Īà¸Ń
Ġèħ¾è®¯ åĪĨåĪĨå½©
Ġäºļæ¸¸éĽĨåĽ¢ ag
Ġà¤®à¥ģ à¤Ĥà¤¬à¤Ī
ç©º éĹ´
æł ĳ
ä¸Ģ èµ·
Ġè½ ¬
Ġà¥ ©
ĠÙ¾ Úĳ
ÑĢÐµ Ð±
Ġà¦ªà§įà¦° à¦¶
j Ã¡k
à´¾à´£ àµįâĢĮ
ĠÐ· Ð±
Õ¡Õ °
ĠtÉĻ ÅŁ
ë ¯¼
Ġk Ã«r
Å¡ tÄĽ
Ġàª¨ àª¾àª®
Ġà¤¤à¤° à¤¹
tz e
z na
Ġ×Ĳ ×ķ
Ġà¤ľ à¤¾à¤£
ĠÙĩ ÙĪ
Ġà®¤ à¯ĭ
ĠÐ¿ÑĢ Ð°ÑĨÑĭ
Ġáĥ¡ áĥ£áĥļ
Ġbi ja
ĠÐ½ Ð°Ðº
Å£i i
ĠCau t
ĠC u
ĠáĥłáĥĲáĥĽáĥĵ áĥĶáĥľ
Ġà´ķ à´³
à¦¥ à¦®
Ġn om
ãģ¨ãģĦ ãģĨ
àª° àª¸
ÐºÐ¾ÑĢ Ð»Ð¸Ðº
ĠÑŀÐ· Ð³Ð°ÑĢ
ÒĽ Ð°ÑĤ
ĠÑĩÐ°Ð»Ð°Ð² Ðµ
Ġâ ľ
Ġë° ı
Ð°Ð½ Ñĸ
ĠÐ¼ Ð°Ð±
ĠÑįÑĤÐ¾ Ð¼
Ġn tse
à®¿à®¯ à®¿à®©à¯į
Ġar t
¦ à«įàª°
Ã³ b
Ġà´ªàµģà´± à´¤àµįà´¤
ĠÐ¿ÑĢ Ð¾Ð³
ĠØ¨ Ø¯
Ġà°µ à±ĩà°
Ð°Ð»Ð°ÑĢ Ð¸Ð½Ð¸
ĠÑıÑħ ÑĪÐ¸
ĠÐ¸ÒĽÑĤÐ¸Ñģ Ð¾Ð´Ð¸
áĢĶáĢ¾ áĢ¯áĢĶáĢº
ĠÒ² Ð°Ð¼
Ã² n
ĠÑĤÑį Ñħ
il lÃ¤
Ġáĥ£áĥĻ áĥķáĥĶ
à¤¸ à¤¾
Ð¿ÑĢ Ð¾Ñģ
ĠÐ°Ñŀ ÑĤÐ°Ð¼
àª¾àªĤ àªļ
à´ķàµįà´ķ àµģ
Ġà´ ļàµįà´ļ
à´ªàµįà´ªàµĭ à´´
ÈĽ Äĥ
ÐµÐ¼ Ñĥ
in Ã«
à¦¾à¦° à§įà¦¥
áĥĶáĥł áĥĶáĥ¡
Ġàª® àª¨
ĠÐ±Ð°ÑĢ ÑĩÐ°
ĠÐ½ Ð¸Ñģ
ĠÃ ¤
Ð¸ÑĢ Ð¾Ð²
ÏģÏĮ ÏĤ
Î¯Îº Î·
AXw Bf
ĠÎĳ ÎĿ
Ïĥ Î¼
ĠÎ»Î¯ Î³Î¿
Î´Î¿ ÏĥÎ·
ĠÎ±ÏĢÎ¿ ÏĦÎŃ
ĠÎºÏĮÏĥ Î¼Î¿
Î¬Î» Î¹
ĠÏĥÏĩ ÏĮ
ĠÎ¼ÎµÎ³Î¬ Î»Î·
ĠÎµÎ½Î· Î¼Îµ
Ïĩ ÏĮ
Âµ Î±
ĠÏĨ Ïį
ÎŃÎ½ ÏĦÏģÎ¿
ĠÎŃ ÏīÏĤ
ĠÎ»ÏĮ Î³
ĠÎķ Î½
ÏĮÏĦÎ· ÏĦÎ±ÏĤ
ĠÏĢÎ¿Î» Ïħ
ĠÎ¿Î¼Î¬ Î´Î±
ĠIn tel
Ïĩ ÏģÎ¿
ÏİÎ½ ÎµÎ¹
Î± Î½Î±
ĠA A
ÏĪ ÎµÎ¹ÏĤ
ĠÏĥÏĦ ÏģÎ±
l yn
ĠìĽ Ĳ
ca do
Ġáĥ Ł
ĠØ¨Ûģ Øª
ĠÕ ½
ini z
Ġà¤¶ à¥ĩà¤¤
æļ ´
Ġ5 55
Ĺà¹Īà¸² à¸Ļà¸
Ġå¤§åıĳäºĶ åĪĨéĴŁå¿«ä¸ī
Ġè ı
Ġåİ »
éĸ ĵ
éĿ Ļ
à¤Ĺ à¥įà¤°
ĠÐ³ Ð°Ñģ
Ġ' ).
à«įàª¯ àª¾àª°à«ĩ
Ġha sz
Ġli pa
la o
áĢħáĢ¬áĢ¸áĢŀ áĢĻ
à¦¾à¦ Ń
ĠáĥĻáĥĺáĥĵ áĥĶáĥķ
ļ à¸£
Ħà¸£à¸ ±à¹īà¸ĩà¸
Ġà¤® à¤¾à¤Ĺ
Ġà®ļ à®°
ÃŃ s
ÑĮ Ð½Ñĸ
ĠÐĶ Ð·Ñı
k ÄĻ
à¤Ĥà¤¤ à¥įà¤°à¥Ģ
áĥ¦ áĥķ
áĢ¡ áĢ±áĢ»áĢģ
áĢŀ áĢ¼áĢ¬áĢ¸
áĢĳáĢ±áĢ¬áĢĦáĢº áĢħáĢ¯
ÑģÐ¸ Ñĩ
Ġà¤® à¥Į
ti co
ÑĤÐ¸ Ñĩ
ĠÐĳ ÐµÐ»
Ġj our
à°Ĥà° ¡à±ģ
ÑĩÑĭ ÑĨÑĮ
Ùģ Ø©
tÃ« n
Ġd zi
Ġme hr
Ġà´ª à´¤
ĠÏĢÎµÏģÎ¯ ÏĢÏĦÏīÏĥÎ·
ĠÎĻ Î¿ÏħÎ½
ĠÎ¼ ÏĢÎ±
Î¹Î¿ Î½
Î³Î³ÎµÎ» Î¼Î±
Î³ Î¿Ïį
Ġh wn
Ã¢ u
Ø® Øµ
Ĺ áĢºáĢ¬
ĠáĢ¡áĢŀ áĢ¶
ĠÑħ Ð¾Ò³
à¯Īà®ķà¯įà®ķ à¯ģ
ĠÑģ Ñĩ
æ §
åĩ Ģ
ç¬ ¦
æĮ ¥
ä¿Ŀ éļľ
Ġç Ŀ
Ġæ² ³
Ħà¸£à¸ ·à¹Īà¸Ńà¸ĩ
Ġå¤§åıĳ 5åĪĨå½©
à¥ĩà¤ ·
áĢ¡ áĢĢáĢº
Ġà¦ªà§ģà¦² à¦¿à¦¶
Ġko r
ĠÑĹ Ñħ
Ġáĥ©áĥķáĥĶáĥľ áĥĺ
ÑĩÑĭ Ð½Ñĭ
N o
ì² Ń
à°¦ à±ģ
áĥĶáĥĳáĥĺáĥ¡ áĥĲ
Ġt em
ĠÑĺ Ð°
ĸáĢ¼ áĢ²áĤķ
ĠáĢķáĢ¼ áĢ²
ĠáĢĲáĢķáĢ¹áĢĻ áĢ±áĢĲáĢ¬áĢ¹áĢ
áĢĽ áĢĻ
ÑĨÐ¸ Ð¾Ð½
à®Ł à¯į
Ġà¦¸ à¦Ń
Ġàªķ à«ĩàªŁàª²
à´¿à´¨àµįà´ ¤
áĢĲ áĢĢ
Ð°ÑĩÑĭ Ð½
Ġê± °
ĠÑĤ Ð¸Ð±
à¦² à¦¾
45 6
Ġèģ Ķ
æİ Ī
¡à¸²à¸ģà¸ ¡à¸²à¸
è¾ ĳ
Ġåı ¦
æĹ¥ æĬ¥
Ġéĺ ħè¯»
çİ° åľ¨
à¹īà¸ ³
Ķà¸ §à¸
Ġè®° èĢħ
Ġà¹Ģà¸ Ķ
åģ ·
½ çĦ¶
Ġà¤¦ à¤¿à¤µà¤¸
áĢ»áĢĻ áĢĦáĢ¹áĢ·
ģ áĢ²áĤĶ
áĢŀ áĢľáĢ²
áĢģ áĢŃáĢ¯áĢĢáĢº
ÑīÐµ ÑģÑĤÐ²
áĥĲáĥ¡ áĥ£áĥ®
cz enia
Ġba tla
Ð¾ÑĦ Ð¸ÒĽ
ĠÐ¿ ÑĸÑģ
åķ ª
à¥ĭà¤ ¸
ci ju
ti ck
Ã¶ z
ĠÐ· Ð°ÑģÑĤ
Ø§Ø® Øª
áĥ¡ áĥĲáĥª
à±Ĩ à°¡
Ġà´® àµĩ
h al
Ġà¦¬ à¦¿à¦°
×ŀ ×¨
Î¯ Ïī
Î»Î¬ ÏĩÎ¹Ïĥ
Îº ÎµÏĤ
ĠÏĩ Î¬ÏģÏĦÎ·
ĠÎ» Î¬
ĠC A
ĠÎĵ Î¹
Î»Î± Ïĥ
ĠÎ¼ Ïħ
Î»Î¿Î³ Î¹Ïĥ
ĠÏĦÎ¹Î¼ ÏİÎ½
ĠÎµÎ¾ Îµ
Î»Î¬ Î²
Î´Î¹Î± Î¯ÏĦÎµ
ÏĢ ÏĦÏħ
ĠÎŃÏĩ Ïī
ĠÎºÎ± Ïģ
ÎŁÎ ľ
ĠÎµ ÏĢÎ¿
ÏĦÎ¿Ïį Î¼Îµ
AXwBf AF8
ĠÏĥ ÏĦÎ¬
ĠÂ¬ ~
ĠÏĥÏħÎ½ ÎŃÏĩ
ĠÎ´Ïī Î¼Î¬
Ġse arch
Î® ÏĥÎµÎ¹
ĠÎµÏĢÎ¹ ÏĩÎµÎ¹
ĠÎ³ Ïħ
Ġw rth
ÑĢ Ð¾ÒĽ
Ġs aa
Ġà´¤ à´¿
Ġà´µà´¿à´¦ àµįà´¯
ĠÑģ Ð°Ò³
ÒĲ Ðĵ
ĠÐ¿ÑĢÐ°Ð³ ÑĢÐ°Ð¼
Ġs Ã©
à¯ĩ à®¯
ĠÐ±Ð¾ Òĵ
Ġro ku
ĠáĥĵáĥĲáĥ Ĵ
áĢ¬áĢ¸áĢĽ áĢ½áĢŃ
áĢ¡ áĢĲáĢ½áĢĦáĢºáĢ¸
ĠÐ½Ðµ Ð¾Ð±
ju ms
Ġà§§à§ ¦
à°¾à°Ĥà° ¡
Ð¼ ÑĥÐ½
Ġàª¤à«ĩ àª¨à«Ģ
à´³ àµģà´ŁàµĨ
Ġb ja
Ġd ira
Ð°ÑĦ ÑĤ
ÉĻr a
Ġ' >
æ¸¸æĪı ä¸ĭè½½
à¹Ĥà¸£à¸ĩ à¹ģà¸£à¸
Ġé» ĳ
Ġè¿Ļ ä¸ª
ä½į ç½®
Ĺà¸ ¢à¸
ç½ĳç«Ļ _
à¥ĩà¤Ĥà¤¦ à¥įà¤°
Ġba sh
á» ĥ
Ġà¦¸ à¦ķ
c ou
ĠÑģ Ñĸ
nga ta
ĠØ§ ÙĨØ¯
ì° ¨
ĠÑı Ð²Ð»Ñı
ĠagèµĮ åŁİ
é¦Ļ æ¸¯
ķà¸ ģ
æŃ£ åľ¨
åĿ Ĳ
å§Ķåĳĺ ä¼ļ
7 9
åĨ °
ç½ĳåĿĢ _
ä¼ Ĭ
ä¸į æĸŃ
à¤°à¥įà¤ ļ
à®Ļà¯įà®ķà®³ à®¿à®²à¯į
t Äĵ
si one
ĠáĥĽ áĥĺáĥľ
Ġp Ã¥
ĠÑģ ÑĥÐ´
mÉĻ s
ĠÏĥÎ· Î¼Î±
ĠÎĳ ÏģÏĩ
ĠÎ´Î¹Î¬ ÏģÎº
ĠÏĢÎ¿ Î»Î»
ĠÃ ´
ÈĽ ie
Ġt ous
à¦¤ à¦¾à¦°
ĠØ¢Ùħ ÙĪØ²
Ġpre j
st en
Ð½Ñı Ð¹
áĥĶáĥł áĥĲ
áĢ ¢
ĠáĢĦ áĢ½
ŀ à¸£à¸°à¸
Ĥ à¹īà¸Ńà¸
à¤¾à¤µ à¥ĩ
Ø£ ÙĨ
Ð½Ð¸ Ñı
ĠkÃ¶ r
ÙĦ Ùĩ
áĢ±áĢĽ áĢ¬áĢĦáĢ¹áĢ
ĠáĢŀ áĢĽ
ĠÐº Ð°Ð»Ñı
Ġà¤® à¥ģà¤
Ġn os
áĢľ áĢ¼
áĢ±áĢĲ áĢº
àµĨ à´²àµįà´²
ĠÑĸ Ð·
àª° à«ĭ
Ġáĥĳ áĥĶáĥķ
ªà¸ ¡à¸²à¸
Ġ266 96
åĽ½éĻħ å®ĺç½ĳ
à¨ Ĺ
Ġçİ¯äºļag æĹĹèĪ°åİħ
Ġæł ¹
ç ¦ģ
īà¸ ŀà¸²à¸
B ET
Ġåı Į
Ġà¸ ¡à¸²
Ġà¤ķà¤¿à¤Ĥà¤ µà¤¾
ĠØ·Ø± ØŃ
Ġc es
ãģķ ãĤĮ
Ġà´¸ àµĤ
Ġd Ã¼ÅŁ
ì§Ģ ë§Į
ĠÑħ Ð¾ÑĢÐ¸
Ñ ľ
Ġà¦ªà§įà¦° à¦¥à¦®
jer es
à¤ļà¥įà¤ Ľ
ĠO d
Ð¶ Ð½
ct os
am o
áĢ±áĢ¸áĢ ģáĢ»
Ġà°µà°¿à° §
ĠÚ©Ø´ ÙĪØ±
à®¿à®ķà¯įà®ķ à¯ģ
ĠÐ¾ ÒĽ
Ġda u
z ar
ĠÐľ Ð¸ÑĢ
Ð´ Ð¸Ð»Ð°ÑĢ
ĠÐ¼ Ð°Ð¶
Ñħ Ð¸
ĠàªĨàªľ à«ĩ
ĠbÄĻ dzie
ĠÐ¼Ð°ÑģÑĤ Ð°ÑĨ
Ġg li
×ŀ× ª
nÃ© e
Ġà´ķ à´¥
áĥĺáĥľ áĥĴ
ĠÐ· Ð°Ð³
Ġà´ª àµįà´ª
Ġà´ª à´ķàµįà´·
ĠáĢĲáĢ¬ áĢĿáĢĶáĢº
ÛĮÚ© Ú¾
os sa
Åĳ sÃ©g
ĠÐ²Ð¾ ÑģÐ¸ÑĤ
Ġpo li
Ġàª¬ à«ĭàª²
áĢľáĢŃáĢ¯ áĢĢáĢ¹
áĢķáĢ±áĢ« áĢ·
Ø§Ø «
áĢıáĢ¹áĢ į
ĠÐ³ÑįÑĤ Ð°Ð¹
Ġw ar
Ġæ¬§ ç¾İ
è ķ
Ġà¤ľ à¥Ī
ĠÑģÑĤ ÑĢ
Ġà®ħà®µ à®°à¯įà®ķà®³
Ġà°®à±Ģ à°¦
ĠÒ³Ð¾Ðº Ð¸Ð¼
Ð¶ Ð¾Ð½
ĠÑĥ Ð»Ð°ÑĢÐ½Ð¸Ð½Ð³
ĠÒ³ Ð°Ð»
Ġà¦Ĩ à¦Ľà§ĩ
Ġc il
Ġà´İà´¨àµįà´¨ à´¾à´²àµįâĢį
Ġà´īà´ª à´¯àµĭà´Ĺ
áĢ¯áĢ¶ áĢ¸áĢĻ
ĠÐºÐ°ÑĤ ÑĤÐ°
ĠÐ´ Ñĥ
Ġàª° àª®
ku s
Ġi ar
cz nie
áĥĲáĥļ áĥĲáĥ¥
ĠL os
Ġà°ľ à°¿à°²à±įà°²
Ð¾ ÑĤÑĭ
à¯Īà®¯ à®¾à®ķ
Ġà°¹ à±Ī
uy Ãªn
à§ģà¦ ľ
Ð°ÑĨÐ¸ Ð¾Ð½
isa tion
áĢ¥áĢķ áĢ±áĢĴ
±áĢ ĳ
áĢĻáĢº áĢ¸áĢ¡
ĠáĥĲáĥ ĸ
×ĳ ×¢
Ñħ Ð¸ÑĢ
Î¹ÎºÎ¿Ïį ÏĤ
ÎµÎ¹ Î±ÏĤ
Î²Î¬ ÏĥÏĦÎµ
201 6
ĠÎ±Î½ ÏĦÎ¹Îº
Ġi a
ĠØ¯Ø§ÙĨ Ø´
à«įàª¯ à«ģàª
à±Ģà° Ĩ
à°ª à°¡
b ÃŃ
Ġìĭ ¤
à¶ »
Ġà¤¹à¥ģà¤ Ĩ
Ã³ d
à¦¬ à¦°
ĠáĢĲ áĢŃáĢ¯áĢ·
ÄŁ i
Ã« si
ĠØ§Ù ı
ĠÐ´ ÐµÐ½ÑĮ
Ø§ Ø³Øª
áĥĶáĥĹ áĥĲ
Ġe dÉĻ
ĠÑĤ ÑĢÑĭ
Ñĥ Ð½Ð¾
Ġqu el
Ġáĥ¡áĥĲáĥĻ áĥ£áĥĹ
ĠáĢ±áĢĢáĢºáĢ¬áĢĦáĢ¹áĢ¸ áĢŀ
ĠáĢĲ áĢĬáĢº
Ġàªªà«ĭàª² à«Ģàª¸
Ġfe ta
Ġà¦īà¦ª à¦ľ
Ġà¦¬ à¦¾à§ľ
ĠÐ¿ÑĢ Ð¸Ð¼
Ðµ Ñŀ
ĠÅ ļ
Ø¹ Ùħ
à§ĩà¦¬ à§ĩ
í Ŀ
Ġà°¤ à±ĭ
Ð ¦
va li
à® ľ
ĠÐ°Ð´ ÐºÑĢÑĭ
Ġàª« àª¿àª²
Ã¡ ro
ÈĽ ia
Ġà´¸à´Ĥà´Ń à´µ
Ð°Ð½ Ðµ
ĠëĤ ´
Ġà¤ĩà¤¸ à¤ķà¥ĩ
Ġs tan
____ ____
ĠÑĪÑĥÐ¼ Ð¾
àª² à«Ģ
Ġdur ch
di ad
ĠáĥĴáĥĲáĥľ áĥª
Ġt yÃ¶
ĠÐ² ÑĥÑĩ
Ġà¦¶ à§ĩà¦·
ĠØ§Ø³Øª Ùģ
c Ã©
Ð¾Ð² Ð¸
áº· c
Ġáĥ« áĥĲáĥļ
ĠÐ´ Ð·ÐµÐ½ÑĮ
×ĵ ×¨
Ġ) (
ĠåĽ ŀ
çĥ Ī
Ćć ą
¸à¸ Ľà¸
Ġà¤¸ à¥įà¤ª
Ġà°ľ à±Ģà°µ
Ġàª¬ àª¾àª¦
áĢŀ áĢĲáĢĦáĢ¹áĢ¸
áĢĲáĢ° áĢĬáĢ®
ëĤ ´
Ð½Ð¸ ÐºÐ¸
Ġà´ªàµĭ à´¯
ĠØ£ ÙĬ
à®ªà¯įà®ªà®Ł à®¿
ĠÐ´ Ð²
Ġh ely
Ġt ÉĻs
Ġm uy
Ġà¦ªà¦¾à¦° à§ĩ
Ġk Ã¤
Ġàª® àª¾àª¨
Ġc os
áĥ¢ áĥł
Ġà´® à´£
à®¿à® ¸
Ġà°ļ à°Ĥà°¦à±įà°°
ĠÐ±Ñı ÑģÐ¿
ìĸ ´ë
Ġgj it
ĠáĢĻáĢº áĢĢáĢ¹áĤıáĢ½áĢ¬
áĢĦáĢºáĢ¸áĢ ĳ
ts he
Ġà°µà°¿à° ¶
ÑĤÑĭ ÐºÑĥ
ĠÛģ Ø±
Ġà¤Ĺ à¤ı
Ð Ħ
Ġâķ ĳ
ĠÐ¡Ð¿ Ð°Ð¼Ð¿Ð°Ð²Ð°ÑĨÑĮ
Ð½Ñĸ Ñı
ĠàªĨ àª°
áĥłáĥ ª
ĠÐ¾ÑĢÐ³Ð°Ð½ Ð¸Ð·
áĢģáĢº áĢ³áĢķáĢ¹
áĢ¶áĢĢ áĢŃáĢĶáĢ¹áĢ¸
áĢ¯áĢŃ áĢĢáĢ¹
ĠáĢĲáĢĢ áĢļáĢ¹áĢ
áĢĦáĢº áĢ¸áĢĢ
Ð½Ñı Ðµ
ĠK Äį
k Ã©
z en
Ġà¤¤ à¤°à¥Ģ
ÑģÑĤ ÑĢÑį
ki m
à°¨à±įà°¨ à°¾à°°à±ģ
Ġà´ķ à´²
is se
Ġd zÄ«
ĠÑģ Ð°Ðº
ÙĦØ§ Ùģ
Õ £
Ã§ i
ÏĢÎ¿Î¯ Î·
Î Ĵ
ĠÎ²ÏģÎ¯ ÏĥÎºÎµÏĦÎ±Î¹
ĠÎ± Î»Î»Î±
ÏģÎ±ÏĥÏĦÎ·ÏģÎ¹ ÏĮÏĦÎ·ÏĦÎµÏĤ
ĠÏĩÏİ ÏģÎ¿
ĠÎłÎµ ÏģÎ¹ÏĥÏĥÏĮÏĦÎµ
ĠW V
Î¼ ÏīÎ½
we d
áĥķ áĥĶáĥĵ
Ġc or
ŀ áĢ¬áĢ¸
áģ¾áĢĢ áĢŃáĢ³
áĢĻáĢ¹áĢ ķ
Ð¼ ÐµÑĢ
à°¿à°¤ à±ĭ
ĠÙħ Ø±Ø¯
Ġpar Ã«
Ġàªķàª° à«ĭ
ĠÐ½Ðµ Ð·
ãĥ ĸ
áĥĶáĥł áĥĺáĥ¡
à´ķàµįà´ķ àµģà´±
Ġà®ªà®¾à®° à¯įà®¤à¯įà®¤
ĠáĢŀ áĢĶáĢ¹áĢ¸
áĢķáĢ¼ áĢ±áĢ¬áĢĦáĢºáĢ¸áĢ
Ġmu tta
Ġm agyar
Ġja ko
Ã¼ le
à®± à¯ģ
ÙĪ Ø§Ùħ
Ġ×ľ ×¤
ä¸Ń å¥ĸ
à¹ģ à¸Ńà¸
Ġà¸ªà¸ ¡à¸±à¸
è «
æ¯Ķ èµĽ
Ġà¨ Ĩ
· à¸Ńà¸ĩà¸
Ġç ¤
Ġà¤Ŀà¤¾à¤² à¥Ģ
ĠÐľ Ð¾ÑģÐº
Ð¾Ð²Ñĭ Ð¹
Ð³ Ñĥ
il ÉĻn
Ġà°ħ à°¡
ta ire
os Å¥
áĥĲáĥ¢ áĥĺ
ĠØ® Ø±
ĠÑģÑŀ Ð½Ð³
ĠÐ¼Ñĥ ÑģÑĤ
Ġàª¤à«ĩàª ĵ
áĥĶáĥĳ áĥĹáĥĲáĥľ
à´¨àµįà´± àµį
ĠÑĢÐµ ÑĪ
Ġpro f
áĢĶ áĢħáĢ¹
áĢĨ áĢ±áĢ¸áĢ
ĠÐĨ Ð½
ÙĨ Ø©
Ġel s
Ġvi ÅĨ
Ġà°ªà±Ĩ à°¦à±įà°¦
Ġë§ Ĳ
Ġà¤¦à¥įà¤µ à¤¾à¤°à¤¾
Ġme jor
ĠØ§Ø³ØªÙģ Ø§Ø¯Ùĩ
æĬ ĵ
Īà¸°à¹Ģà¸ Ľà¹ĩà¸Ļà¸
Ġà¸ ļà¸²à¸Ĺ
æĮ ĳ
â ĸ
à¥ĩà¤ķ à¥įà¤·
áĢŃáĢĲáĢ¹áĢ Ĩ
áĢĢáĢ¼áĢ±áĢ¬áĢĦáĢº áĢ·
ĠFran ce
ĠÐŃ ÑĤÐ¾
ĠÑĥÐ¼ ÑĥÐ¼
áģļ áĢº
ĠáĢĲáĢħáĢ¹áĢ ±áĢļáĢ¬áĢĢáĢ¹áĢ
ĠáĢľ áĢ»áĢ¾
Î¶ Î±
Ïĩ Î®ÏĤ
Î¶ Î¿ÏħÎ½
ithi o
it er
pa d
en Ã«
à´¾à´ķàµįà´ķ à´¿
Ð¾Ð² Ðµ
áĤ ĤáĢº
ĠáĢĢ áĢŃáĢħáģ¥
áĢ±áĢĽáĢŃáĢĢ áĢĶáĢº
ĠÐł Ð¾ÑģÑģÐ¸Ñı
Õ¡Õ ¬
ÉĻb ÉĻr
ĠÐĲÐ¼ Ð¼Ð¾
Ġà§© à§
ta do
ĠØ¬ Ùħ
Ļ à¯įà®ķà®³à¯į
Ġà¦Ĺ à¦¤
Ġpre mi
Ġà°¸ à°¾à°§
áĥĶáĥĳáĥļ áĥĲáĥĵ
Ġv Ã¡r
ri le
à´¯ à´¾à´£àµį
ÑģÑĸ Ð¼
ĠØ² ÛĮ
ĠÐ± ÑĥÐ·
is et
Ġp m
Ġoludi je
Ġolu wa
Ġolo gun
Ġifowo pamá»į
Ġifi jiá¹£áº¹
Ġi yáº¹
sch en
Ġi ri
Ġgb Ã¨
Ġpr es
ĠáĢŀáĢ° áĢĲáĢ¯áĢŃáĤĶ
áĢĻáĢ¾áĢ¯ áĢĢáĢŃáĢ¯
ĠÕ ¾
ĠM Ã¼
ĠÑĨ ÑĮ
Ð°Ð´ Ð»ÐµÑĤÐºÑĸ
ĠÑħ ÑĥÑĤ
Ġfi fa
ĠL ilo
ĠIsla m
ĠH ar
Ġà´ħà´µ à´¸
ĠØ§ÙĦÙħ ÙĨ
Ġà¦¸ à§ĩ
Ð½Ð¸Ðº Ð¾Ð²
ĠFo rex
ĠBai bol
Ġ6 4
ä¼ģ æ¥Ń
âĢ¦ âĢ¦
yi ng
vie w
v ir
sÃŃ láº¹
Ġà¤¹ à¤°
ìĹ Ī
\ "
Ġr Ã³w
àªª à«įàª°
Ġà®ªà¯ĭ à®²
ĠÐ¼Ð°Ñģ Ð°Ð»
ĠÐ¿ ÑĥÐ»
Ġáĥ¨ áĥĶáĥĴ
ru ary
roso ft
p tem
×ł ×Ļ×Ŀ
om á»į
n kan
ki pedia
Ġwh áº¹ndo
Ġw oo
Ġw ara
Ġo wh
Ġlo ju
ĠÐŁ Ð¾Ð´
Ġkh a
Ġå® ĺ
åķ Ĭ
ä¸Ģ ä¸ĭ
ķà¹Īà¸²à¸ĩ à¹Ĩ
Ġà¤Ĩà¤ª à¤£
ban e
ãģĤ ãĤĬ
ĠÐºÑŀ Ð·
ĠÐ¼ÐµÐºÑĥÐ½ Ð°Ð´
Ġis akoso
Ġi yáº¹n
Ġda a
Ġase yori
à¶ Ń
A V
Ġà¤¨ à¤¾à¤®
ÑĢÐµ Ð´Ð¸
g je
à´¿à´ §
Ã¡ p
lÉĻr ÉĻ
Ġà¦ªà§įà¦°à¦ķ à¦¾à¦¶
ĠÐ· Ð½Ð°Ñĩ
Ġáĥĵ áĥĶáĥĵ
ĠàªĹ à«įàª°
s ka
es en
Ġà´ª à´ł
áĢ¡ áĢĸáĢ¼áĢħáĢº
Ġà¦ķ à¦²
ÏĦÎ· ÎºÎµ
ĠÃ´ l
à°¾à°° à°¨à°¿
Ġt jet
Ġà®®à¯ģà®© à¯įà®©
Ġapa po
Ġa bo
ĠLa i
Ġè¯ ·
Ġà¤®à¥įà¤¹à¤£à¤ľ à¥ĩ
Ġle ng
ĠJ á»įwá»į
ĠI T
ĠG lo
Ġà¤īà¤¨à¥įà¤¹ à¥ĭà¤Ĥà¤¨à¥ĩ
ĠÐŁ ÑĢÐ¾
ĠFaran se
ĠEgi pti
Ġ200 5
Ġ) :
un á»į
p up
n er
la m
i c
eri es
eg un
Ġà°ļà±ĩà°¶ à°¾à°°à±ģ
Ø§ÙĦ ÙĬ
Ġà¦¨ à¦¿à§Ł
a lá»į
78 T
ŃĲâ ŃĲâ
Ġur du
Ġsá»į gbe
Ġs Ã¨
Ð½Ð¸ Ð¼Ð¸
ĠáĥĽáĥĺáĥ ¦
it Äĥ
Ñį Ðº
ĠáĢ±áĢĲáĢ¬ áĢĦáĢ¹áĢ
ĠáĢĩ áĢ°
ĠÐķ ÑģÐ»Ð¸
Ú¯ Ø§ÙĨ
áģ¾áĢĢ áĢĲáĢ²áĢ·
áĢĲáĢ¹áĢ Ĩ
áĤĪ áĢŃ
áĢĳ áĢ½áĢĢáĢº
Ġg ÅĤ
ĠÑıÐºÑĸ Ñħ
Ġo vi
Ġo oru
Ġà°ķà°¾à°° à±įà°¯
Ġà´ķà´¾à´° àµįà´¯
Ñŀ Ð·
Ð°Ð½ Ð´Ð°
ĠmÃ¬ tá»įn
Ġkáº¹ hin
Ġk po
Ġiá¹£e to
Ġg reen
Ġe gb
çĽ® æłĩ
å¤ĸ æĮĤ
Ġäºļæ¸¸ ä¼ļ
Ġg 22
à¥Ģà¤ļ à¥Ģ
Ġbe e
ĠÐ²ÑĬ Ð·
à« §
Ġàªľàª£ àª¾àªµ
Ġawa ká»į
à¦°à§įà¦ ķ
Ġol yan
ĠRay Ha
ĠRayHa ber
ĠM usu
ĠIda abobo
ĠFeb ruary
ĠF il
ĠAf rica
Ġà¤¸à¤ķ à¤¤à¤¾
ĠáĥĴ áĥĸ
Ġà®ĩ à®±
v or
w áº¹n
r Ã¨
Ġà°ķ à°¿
ks et
ĠÂ ¿
no ÅĽÄĩ
ĠÐ²Ð¾Ð· Ð¼Ð¾Ð¶
Ġnu e
àµģà´®àµįà´ªàµĭ à´³àµįâĢį
áĢķáĢ¼áĢĬáĢº áĢĶáĢļáĢº
àµĩ à´µ
Ġå¯¹ äºİ
Ġà¸ªà¸ ¹à¸
à¹Ģà¸ģà¸ µà¹Īà¸¢à¸§à¸
ĠæŀģéĢŁ pk10
Ġà¤ľ à¤¿à¤²
le rin
Ġàª¬ àª¾àª³
ĠÐĳ Ð°
Ġv iá»ĩc
à¸£à¸²à¸ Ĭà¸
Ġà¤Ń à¤¾à¤ľ
áĢĴ áĢ¹áĢ
áĢĻ áĢĽáĢ¾áĢŃ
Ġåħ³ äºİ
Ġà¤µà¤¿à¤ ļà¤¾à¤°
ÑĳÐ½ Ð½Ñı
Ã ĭ
Ġd it
ìŀ ĳ
Ġà°ķ à°°
ptem ber
Ã¶y Ã¼k
pin s
oo ro
la te
káº¹ sáº¹
kwi êŀĮ
iláº¹ gbáº¹
hi te
Ġáĥ§áĥķáĥĶáĥļ áĥĲáĥ¤
ÐµÑĢÐ¶ Ð°Ð²
fa ili
en á»į
BA RA
ĠâĤ ¨
ĠÃ Ī
à±Īà°¨ à°¾
à®Ł à¯ģà®ķà¯įà®ķ
áĥĲáĥłáĥ ļ
à«ĭàª §
à´¤à´¿à´° àµĨ
Ġm is
Ø§Ø¦ ÙĨ
ÑįÐ½ Ð½Ñĸ
Ø§ÙĨ Ø¯
Ġ380 9
ĠÐ± ÑĥÐ»
ĠÑĢ ÐµÐ·
áĥ®áĥķ áĥĲ
Ġà´Ń à´¾à´Ĺ
Ġ×ĳ ×¨
is Ã¤
Ã¡l ne
à¥Ģ à¤¸
ĠÐ± Ð°ÑĬ
Ð°Ð´ Ñĥ
er z
à¦¬ à§ĩà¦¨
à¯įà®ļ à¯įà®ļ
jo t
ĠáĢĽ áĢŁ
Ģ áĢŃáĢ¯áĢĦáĢ¹áĢ
ĠáĢĽáĢ½ áĢĻáĢ¹áĢ¸
áĢħáĢ¹áĢ Ĳ
áĢģáĢ²áĢ· áĢķáĢ«áĢĲáĢļáĢº
Ġpu po
Ġj sem
ĠáĢĲ áĢ®
j mÃ«
Å¯ j
ÏģÎµ Î¬Î½
ĠÏĥ ÏĢÎ¯
ĠÎ´Î¹Î±ÏĨÎ¿ ÏģÎµ
Ġh yd
Ġà°® à°Ĥà°ļ
ĠáĢ¡ áĢĻáĢºáĢ¬áĢ¸
áĢ»áĢĸáĢħáĢ¹ áģ¿áĢķáĢ®áĢ¸
áĢ¬áĢĽ áĢ½áĢŃ
ĠáĢĻáĢº áĢ¬áĢ¸
ĠáĢĶ áĢ½
Ġak kor
â Ħĸ
Ð¶Ð½ Ð°ÑĢÐ¾Ð´
Ġin t
ê· ¸
Ġpo ka
Ġng e
Ġmáº¹de vo
Ġláº¹ wa
Ġipo lowo
Ġå §
è¯ į
åį ±
Ġà¤ł à¥ĩà¤µ
Ġa arin
¬ áĥĽ
mÉĻ li
ĠpÅĻ ed
ĠS tate
Ġà¤ķà¤° à¤¨à¤¾
ĠN ÃŃ
lu t
ĠáĢĢáĢ¼áĢº áĢĶáĢ¹áĢ±áĢĲáĢ¬áĢ¹áĢ
ĠáĢ¡áĢĽ áĢĻáĢ¹áĢ¸
±áĢľ áĢ¸áĢ±áĢĲáĢ¼
áĢ±áĢĶ áĢĽ
Ġáģ¾ áĢŀ
ĠáĢ±áĢĽ áĢ½áĤķ
ĠáĢĻ áĢ¾áĢ¬
Ġà¦¤ à¦¾à¦ģ
áĢŀáĢĬáĢ¹áĢ ŁáĢ¯
ĠáĢ»áĢķáĢĬáĢ¹áĢ ĲáĢ¼áĢĦáĢ¹áĢ¸
áĢĶáĢ¹áĢĻ áĢ¬
ĠáĢŀ áĢ¯
ĠáĢĢáĢ» áĢ±áĢ¬áĢĦáĢºáĢ¸áĢ
à´¾à´ ¬
ĠÐ¿Ð¾ Ð·
ku ar
Ø§ÙĦ Ùħ
Ð°Ñŀ ÑģÑı
Ð²Ñı Ð·
z at
Ġàªħ àª¹
ê¸ ī
Ġsex o
à®¿à®¯ à®²à¯į
an te
Ġáĥ¨áĥĶáĥĵ áĥĶáĥĴ
Ã¡c ie
àµĭ à´£
ĠÐĲ Ð¿
Ġdis p
Ġti kai
ĠA uf
çĶµ è¯Ŀ
«à¸ §
Ġà¸ ¢à¸
é£İ éĻ©
ç¡ ¬
à¤¿à¤² à¤¾
ĠáĢ¡ áĢ±áĢ¬áĢĦáĢº
ÄĻ dz
ĠÐ±Ñĭ ÑĤÑĮ
à°¾à°¨ à°Ĥ
àª¾àªĤ àª¤
ĠÑĪÑĥÐ´Ð° Ð°ÑģÑĤ
ĠÐ½Ð°Ð² ÑĥÑĩ
Ġszer int
ÑĬÐ» Ð³Ð°ÑĢ
Ð½Ð¾ ÑĤÐ¾
Ġà¦ķ à¦¿
ĠÕ¸ ÖĤ
Õ ¬
Ġq o
Ġv oor
Ġs ek
0 4
Ĺà¸µà¸ ¡à¸
ĠéĻ Ī
ŀà¸ ¢à¸²à¸
Ġu u
æĿ Ł
æ¤ į
Ħ à¸£à¸±à¸
Ġåģ ļ
ĠAGçİ¯äºļ å®ĺç½ĳ
éĩĩ çĶ¨
è¾ Ĩ
åĵ Ī
ª à¹Įà¸
ľà¸¥à¸´à¸ ķà¸
ļ à¸£à¸£à¸
Ġäºļæ¸¸å®ĺç½ĳ çĻ»å½ķ
éģ Ń
à¹Ħà¸¡à¹Ī à¹Ħà¸Ķà¹īà¸
Ġà¤Ŀà¤¾à¤² à¥ĩ
Ġà°²à±ĩà°¦ à±ģ
Ġph áº£i
à§ģ à¦Ł
Ġà®® à®¤
ĠÐ¶ Ð°
ĠáĢĢ áĢ¯áĢĶáĢº
Ġd ire
×ľ ×Ļ
Ġáĥ¡áĥĲáĥĸ áĥĿáĥĴ
Ġà° Ĺà°¾
èķ ī
Ġà¤ª à¥Ī
Î´ Î±Î½
ĠÎĿÎ¿ Îµ
ĠÎµÎ¾ Î±
ĠÎ³ Î¯Î½ÎµÏĦÎ±Î¹
ĠT rip
ĠÎºÎ¬ ÏĦÏī
Î¹Îº Î·
ĠÎŃÏĩ Î¿ÏħÎ¼Îµ
ÏĨ Î±Î½
ÏģÎ¹ ÏİÎ½
ĠÎł Î±Î½
ÏĨ Î±Î¹
ĠÏĮÎ» ÎµÏĤ
ÏĨÎŃ ÏģÎ¿Î½
ĠA X
ĠÎ³ Î¹
Ïĩ ÎŃÏĤ
Î¶ ÎµÏĦÎ±Î¹
ĠÏĥÏħ Î¼ÏĢ
ÏĥÏĦÎ¿ Î¹
ĠÎ³ Ïį
Î¼ÎŃÎ½Î¿ Î¹
ĠÏĩÎ±ÏģÎ±Îº ÏĦÎ·
ĠÎłÎµ ÏģÎ¹
ĠÎ±Î¾Î¹Î¿ Î¸ÎŃÎ±
ĠÎŀÎµÎ½Î¿Î´Î¿ ÏĩÎµÎ¯Î±
Ġy d
Ġáĥ¡áĥĲáĥ¨ áĥ£áĥĲáĥļ
ë¬ ¼
ÑĤ Ð¾Ñŀ
u je
àµĪ à´µ
is chen
Ġno tre
Ġà¦ĩ à¦¸à¦²
Ð°Ð´ Ñį
ĠØ¯Ø§Ø± Ø¯
ÙĤ ÙĦ
Ġà¦Ĩ à¦¦
àª£ àª¾
ĠáĢ¦ áĢ¸
±áĢĢ áĢ¬áĢĦáĢ¹áĢ
ĠáĢŁ áĢ¯áĢĲáĢ¹áĢ
ĠáĢĶ áĢļáĢ¹áĢ
ŀ áĢ¼áĢ¬áĢ¸
ĠáĢľ áĢŃ
Ð»Ñı Ñħ
Ã¨ res
ĠÐ±ÐµÑĢ Ð¸ÑĪ
ĠÑĦÑĥÒĽ Ð°ÑĢÐ¾
ĠÒ³Ð°ÑĢ Ð°ÐºÐ°ÑĤ
áĢ¬áĢĽ áĢ±áĢ¸áĢ
Ġà°ķ à±ĩà°Ĥà°¦à±įà°°
ÃŃt Ã³
Ġà´ªàµįà´°à´µ à´°àµįâĢįà´¤àµįà´¤
à¦ ĥ
à´® àµģà´³àµįà´³
ĠÑģÐ» ÑĥÑĩ
Îº ÏİÎ½
ĠÎ¼ÏĢÎ¿ ÏģÎ¿ÏįÎ½
ĠÎ»ÏĮ Î³Ïī
ÏĦÎ® ÏģÎ¹Î¿
Î¯Î¶ Î¿ÏħÎ½
ĠÎľ ÎŃ
ĠÎ£ ÏĦÎ±
ĠÎ£ Î±
ĠÏĩ ÏģÎ¿Î½
** **
is or
ĠÎ¿ Î»Î¿
ĠÎ¸ÎŃ Î¼Î±
dv isor
ĠÎŃÏĩ ÎµÏĦÎµ
ĠÎ¯ Î´Î¹Î±
da eth
man to
Ġz osta
áĢ¬áĢ¸áĢ ĲáĢ¬
ĠáĢŀ áĢĻáĢ®áĢ¸áĢ
ĠáĢħ áĢĲ
à®¿à®ķà¯įà®ķ à¯ģà®®à¯į
Ð°ÑĢ Ð°
Ġà¤ª à¤¾à¤°
Ġà°ķ à°¥
áĥķ áĥĺ
à¦¾à¦ ł
Ġce le
ris Ã«
Õ¥Õ ½
Ġbil dir
Ġà°ªà±įà°° à°¤
ĠMusu lumi
ĠK ur
ĠI láº¹
Ð°Ñģ ÑģÐ¸Ñģ
Ġc ar
ĠÛģ ÙĪÚº
ĠÐ²Ñĭ Ð¿Ð°Ð´
m Ã¡ny
áĥľ áĥĺáĥ¨áĥľ
ĠÑĤ Ð°Ð±
ĠC ent
ĠA pa
Ġà¦¬à¦Ľ à¦°
É ¨
wa si
u k
tor s
lar u
h ir
g s
Ġá»į gá»į
ĠáĢ±áĢķ áĢºáĢ¬áĢ¹áĢ
áĢ³ áĢ¶
±áĢķáĢ« áĢ·
ĠáĢ¡ áĢĻáĢ¼
Ð¾ÑĢ Ð¾ÑĪ
ĠI ST
Ġàª® àª¨à«ĩ
à´ķ à´Ĥ
Ġa by
èĮĥ åĽ´
à¸£à¸§à¸ Īà¸
Ġà¤ħà¤¸ à¥Ĥà¤¨
ĠÐ¼ Ð¸Ð½Ð³
ĠÐ» Ð¾Ð¹
Ġs ÃŃ
ĠÑħ Ð°Ð²
ĠàªıàªŁàª² à«ĩ
ĠÐĿ Ð°Ð²
ãĥ ĩ
Ġà¤® à¤²à¤¾
Ġà¤ħ à¤®
à®¿à®°à¯ģà®¨à¯įà®¤ à¯ģ
ĠÙĪØ§ÙĦ Ùħ
tt u
Ġà°ħ à°®à±įà°®
Ð¾Ð± Ñī
z h
ĠÙĪ ÙĤØª
¥ ¼
Ġà°ķ à±ĩà°¸
àª¡ à«Ģ
pu bli
Ġà´ªàµįà´° à´§à´¾à´¨
ĠÑĢ Ð°Ð²
ħ n
Ġà§ ¬
Ð½Ð¸ Ð¾ÑĤ
à±Ĩà°² à±įà°²
r s
Ġàªļ à«Ĥ
×ķ×ł ×Ķ
Ġt ari
Ġà¦¬ à¦¾à¦¸
ĠáĢ±áĢľ áĢ·áĢľáĢ¬
áĢĬáĢ¹áĢ Ľ
áĢ¦ áĢ¸
ĠáĥĴáĥĲáĥľ áĥķáĥĺáĥĹ
Ġàª¥ àªĩ
áĢ¡ áĢģáĢ»áĢŃáĢĶáĢº
ĠÏĩÏģÎ® ÏĥÎ·
Î½ Î¹
ĠÎ´Îµ ÏįÏĦÎµ
ĠÎ±Î½ ÎŃ
ĠÎ²Î¿Î· Î¸Î®
ĠÎº Î¿Î¹Î½
Ïİ Î½Î±
ÏĦÏģÎ¿ ÏĨÎ®
Îº ÏĦÎ·
A dvisor
ĠÎ¹ Î´Î¹Î±Î¯ÏĦÎµ
Î¼ Î¹Ïĥ
Î» Î¹ÎºÏĮ
ĠÎºÎ± Î¸Î·
ĠÎ´ Î¿Ïħ
ĠW U
Ġ ÏĪÎ·
Ġr han
Ð½Ð¾ Ñİ
Ġà°¨à°¿à°° à±įà°®
ĠÑģÐ» ÐµÐ´
Ġáĥĺáĥ¥ áĥľáĥĶáĥĳáĥĲ
¶ àª¨
ĠÑĨ Ñĭ
ĠN em
be tsi
åł ´
Ġà¤¨ à¤¸
ĠÑħ ÑĥÑģ
ª áĥ®
l Äĥ
Ġth Ãłnh
à¤¯ à¥ĭà¤Ĺ
ĠÐ¿ÑĢÐ°Ð¿ Ð°Ð½
±áĢŀ áĢ¬áĢĢáĢ¹áĢ
ĠáĢĳ áĢ¯áĢŃ
ĠáĢ¡ áĢ±áĢĢáĢ¬áĢĦáĢ¹áĢ¸
áĢĶáĢ±áĢ ĲáĢ²áĢ·
áĢħáĢ¹áĢ Ģ
ĠáĢĳ áĢŃáĢ¯áĤĶ
áĢĻáĢº áĢ¸áĢĨ
tta a
Ġàªķàª¾àª° à«įàª¯
à´® àµĩ
lara q
Ġà¦¨à¦¿à¦°à§įà¦¬ à¦¾à¦ļ
i o
Ġes et
à°¿à° ³
ĠÐº ÐµÑĩ
ĠÐº Ó¯
Ġe mpa
Ġà°ķ à°¾à°µ
ĠÐ¿ Ð¾Ð½
Ġà¦ª à§Ĥ
ĠáĢķáĢ¼áĢĶáĢº áĢľáĢĬáĢº
me ve
Ġws p
Ø¦ ÙĬØ³
Ø±ÙĪ Ø´
Ø§Ø ¤
à· Ķ
Ġà¤ķà¤° à¥ĩà¤Ĥ
ĠÐ² Ñĳ
ti ca
áĥĺáĥļáĥĺ áĥĲ
ÛĮØ± ÛĮ
Ġàª Ĭ
Ðº Ð°Ð²
ì ¸
ÄĻ t
l ÃŃ
àµģà´Ĥ à´¬
à±ģà°Ł à±įà°Ł
ĠÄ° n
éĽ ·
èĪ ŀ
à¤¿à¤ķ à¤¾
áĢĽáĢ½áĢŃ áĢĲáĢ²áĢ·
áĢĻáĢ¬ áģ»
áĢĨ áĢĦáĢ¹áĢ¸
áĢķáĢ±áĢĻ áĢļáĢ·áĢº
ĠÐ¿ÑĢÐµÐ´ ÑģÑĤÐ°Ð²
ÑĸÑģÑĤ Ñį
Ã¼ g
áĢŀáĢ½ áĢļáĢº
Ġà¦ħà¦Ń à¦¿à¦
Ġv os
Ġà¸ Ķ
Ġå¤§åıĳ 3åĪĨå½©
Ġà¤¦ à¤¿à¤¸
tz a
Ġà´¸ àµįà´¤
ÙĪ Ø³
×© ×Ķ
Ġà´İ à´¨
à°¤ à±įà°°
ÑĸÐ»ÑĮ ÑĪ
ĠC e
áĥĶáĥľ áĥĲ
Å¼ a
Ġà®¤ à¯ĩà®°
Ð¿ Ñĥ
à´ªàµįà´ª à´Ĥ
Ġt uo
íĻĶ ìĿ´íĬ¸
íĶĦ íĻĶìĿ´íĬ¸
Ġíĺ Ħ
Ġet mÉĻk
Ġàªħ àªŃ
áĢ±áĢĽáĢ¸áĢ ļáĢ°
ĠáĢĵ áĢ«
Ĳ áĢļáĢ¹áĢľáĢŃáĢ¯áĤĶ
ĠáĢĲ áĢ»áĢģ
»áĢĸáĢħáĢ¹áĢ ŀáĢĬáĢ¹
¡áĢħ áĢŃáĢ¯áĢ¸áĢĽ
ĠáĢŀáĢĺáĢ¬ áĢĿ
Ġà¦ıà¦® à¦¨
à¤¾à¤ Ĭ
di en
ĠáĢĸ áĢ½
sh Ã«m
à°ķ à°°
Ġjs ou
Ð¾Ð»ÑĮ ÑĪ
m Ã¤n
el Åĳ
± c
Ġtl ha
Ġc as
àªļ à«įàªļ
à®µ à®°à¯įà®ķà®³à¯į
ĠÄį as
à¤Ĥà¤ ¸
Ġáĥ¡áĥĲáĥĸáĥĿáĥĴ áĥĲáĥĵáĥĿ
ĠiÃ§ in
h men
ĠÑģ Ð°ÒĽ
ĠÐ¼Ðµ Ð±Ð¾ÑĪ
ĠáĢ¡ áĢĲáĢ½áĢĢáĢº
Ġz d
ĠÐµ Ð´
ĠÐ¿ÑĢÑĭ Ñģ
áĥĲáĥľ áĥĺáĥ¡
Ġà´¸à´Ĥ à´¸àµįà´¥à´¾à´¨
Ġà´®à´¨ à´¸àµįà´¸
áĢĳáĢ¬áĢ¸áĢ ķáĢ«áĢĲáĢļáĢ¹
áĢ±áĢ ģáĢ«áĢĦáĢ¹áĢ¸
áĢ¬áĢ¸áĢ ĸ
me la
Ð°Ð½ ÑĤ
à±ģà°ķ à±ģà°¨à°¿
k er
áĢ¡ áĢĸáĢ¼áĢ²áĤķ
ĠáĢľáĢĢáĢ¹áĢ Ķ
áĢ±áĢ ļáĢ¬
Ġà®ªà¯Ĩ à®°
Î¯Î¶ ÎµÏĦÎ±Î¹
ĠTrip Advisor
ĠC X
Ïħ ÏĥÎ·
Îº Î±Î¹
Î³ ÎŃÎ½
0 01
ĠÏĢÎ¿ ÏĦÎŃ
ÏģÎ¯ Î¶ÎµÎ¹
ÏģÎ® Î³Î¿
Â »
Î» Î®ÏĤ
Î³ÏīÎ½ Î¹Ïĥ
Î³ ÎµÎ½
ĠÎµ Î¹ÎºÏĮ
ĠÎ´ ÏģÏĮ
ĠÎĶ Îµ
ĠÎµÎ¼ÏĢ ÎµÎ¹
Î½ Î¿Ïħ
Î¯ ÏĦÎ·
Î¬Î½ Î¹
Î»Î» Î¹
ĠÏĦÎ¹ Î¼Î®
ĠÏĢÎµÏģÎ¹ÏĥÏĥÏĮÏĦÎµ ÏģÎ¿
ĠÏĢ Î»ÎŃÎ¿Î½
Î Ĳ
ĠÎ±ÏĢÎ¿ÏĦÎŃ Î»ÎµÏĥÎ¼Î±
ĠB X
ÏģÎ± Ïĥ
ĠÎ´ Î¯
ĠÎķ ÏĢÎ¯
ĠÎµÎ½Î· Î¼ÎŃ
ĠÎ´Î¹ ÎµÏįÎ¸ÏħÎ½ÏĥÎ·
Ġhe fyd
à°°à±įà°µ à°¾à°¤
à¤Ĥà¤ ľ
ĠP ara
et to
Ø¬ Ùħ
te ment
Ġàªľ à«įàª¯àª¾àª°à«ĩ
w ar
Ð İ
Ð°ÑĢ Ð¾Ñŀ
Ġí ĽĦ
Ġà´µà´¿à´ ³
ĠáĢĴ áĢ±áĢ«áĢº
ĠáĢ»áĢĻáĢĶáĢ¹áĢĻáĢ¬ áĢ»áĢķáĢĬáĢ¹áĢ
áĢĻ áĢļáĢ¹áĢ
Ĩ áĢŃáĢ¯áĢĦáĢ¹áĢ
áĢĲáĢ¹áĢľ áĢķáĢ¹áĢ
¡ áĢĲáĢ¼áĢĢáĢ¹
ĠáĢľáĢ° áĢĳáĢ¯
ĠáĢļ áĢ¯áĢ¶
Ġvet Ã«m
Ġà¦¬ à§ĥ
inÄģ t
ari os
Ġel len
Ġà°µà°¿à°· à°¯
m Ã©
æ± ł
Ġæĥ ³
è± ª
äºĭ ä»¶
Ġ% ãĢĤ
ç»§ ç»Ń
ç¨³ å®ļ
ª à¸²à¸£à¸
ĠéĿ ¢
ĠäºĶ åĪĨå½©
à¥ĩà¤ļ à¥įà¤¯à¤¾
Ð°Ð» Ð¸Ð·
áĥ¢ áĥĺ
unoa ÈĻte
ÉĻd ÉĻr
le j
Ð ¯
ĠÐ¿ÑĢ Ð°Ð²Ñĸ
Ġà¤¸ à¤¾à¤²
×ķ× ŀ×
ãĤ į
Ġà°¬ à±įà°°
à´¾à´Ł àµį
ĠáĢĻ áĢ»áĢĢáĢº
Ġm are
s sa
Ð ¤
Ð¾Ñģ Ð¾Ð±
Ġà¦Ł à§įà¦°
tsa ng
ÙĦ Ø¨
áĥĶáĥĳáĥĺáĥ¡ áĥĹáĥķáĥĺáĥ¡
Ġà´Ĩ à´¦
Ġç§Ĵ ç§Ĵ
à¹Ĥ à¸Ń
à¹ģà¸ Ķà¸
çģ ¯
æµĭ è¯ķ
å® ľ
éĿł è°±
à¹Ģà¸ ĩà¸´à¸Ļà¸
à¸Ļ à¹īà¸Ńà¸¢
çĶµ è§Ĩ
Ĭà¸²à¸ ¢à¸
å°¼ æĸ¯
à¹ī à¸Ńà¸Ļà¸
Ħ à¸Ļà¹Ģà¸
Ġè¿ ĩ
è´Ł è´£
çĶµèĦĳ çīĪ
ľ à¸´à¸Ķà¸
Ġè į
Ġà¤ªà¥įà¤° à¤ķ
Äħ c
lich en
Ġto do
fi ca
áĢĲáĢº áĢĻáĢ¾áĢĲáĢº
ĠÐ· Ð¼
ĠShqip Ã«
Ġm irÃ«
u se
à°Ĥà°Ĺ à°¾à°£
à±ĭ à°ª
Ġï ½
ì ¤ĳ
àµĤ à´¹
Ġàª¤ àª°
Ä« gi
Î¬Î½ ÏĦÎ·ÏĥÎ·
ĠÎ» Îµ
ĠÎ Ħ
ÏĦÎ¯ Î¿Ïħ
Î¬Î¶ ÎµÏĦÎ±Î¹
ĠÎ² Î¹Î²
y ll
ĠÐ± ÑĬ
ÑĨ Ñį
Ġ àµ»
Ġà´µà´² à´¿à´¯
ĠáĢĢáĢ¯ áĢŀ
áĢ¡ áĢģáĢ¼
ÛĶ ÛĶ
ĠÙĨ Ø§Ùħ
ÑģÐº Ð¸Ñħ
Ġan s
à¤¤ à¥įà¤¨
à¯ģà®¤ à¯į
Ġth Ã¬
Ð³ Ð¾Ð´
d ul
§ áĥķ
Ġà¦¦ à§ĩà§Ł
ãĤ Ń
áĥĵ áĥĺáĥľ
ow ym
Ġktor Ã½
ĠáĢĢáĢ»áĢ½áĢĶáĢº áĢĻ
Ġbo hlo
ĠáĢĲ áĢŃáĢ¯áĢ¸áĢĲ
Ġm et
Ġë°Ķ ì¹´ëĿ¼
ì µľ
ta ko
à«ĭàª°à«įàª Ł
Ġà´ª à´Ļàµįà´ķ
Ġà¦¬à¦¿à¦ ¦
ĠáĢĲ áĢĶ
Ġagçİ¯äºļ ç½ĳç«Ļ
¹ à¹īà¸
èı ²
ç¶ ĵ
áŀ ¾
ĠåĪ ĺ
Ġà¤ħà¤¶ à¥Ģ
ÙĦ Ø³
mu ÅŁ
ìĻ ¸
Ġla r
à¯įà®¸ à¯į
ÑģÑĮ ÐºÐ°
Ġka ik
áĢĽ áĢ®áĢľ
Ġt iek
Ġhá»į c
Ġà¤ķ à¥įà¤·
Ġ×Ķ ×Ķ
Ġà°¦ à±Ģ
ĠÐ» ÐµÐ¿
áĢĸ áĢ¯áĢŃáĤĶ
áĢĨ áĢ¶áĢ¯áĢ¸áĢ
áģ¿ áĢĸáĢħáĢ¹áĢ
áĢĦáĢ¹áĢ±áĢ »áĢķ
áĢ¸áĢŀ áĢĬáĢ¹
±áĢĲáĢ¬ áĢĦáĢ¹
áĢķáĢºáĢĻ áĢĲáĢ±áĢ¬áĢº
Ġmul t
Ġtel jes
ìĨ į
ĠáĢ¡áĢ²áĢĴáĢ® áĢľáĢŃáĢ¯
ĠáģĤáģĢáģģáģ Ī
áĢĢáĢ° áĢ¡áĢĬáĢ®
Ġà´¸ à´¾à´®
Ġau tres
àª¯ à«ĭàªĹ
ani u
ĠÏĥÎº ÎŃ
ĠÏĢÏģÏİ ÏĦÎ¿
ĠÏĢ Ïħ
ÏĦ ÏĤ
ĠÏĨ Î¬
ĠÎµ ÏĢÏĮ
ĠÎ¬Î»Î» Î·
ĠA Z
ĠÏĦ Ïį
Ïĩ Ïį
ĠÎ¿ Ïħ
ĠÎ´ Î®
ĠÃ· -
Î½Î¿ Î¯
ĠÎ±ÏĢ Î±Î¹
ĠR h
¥ áĢķ
áĥĸ áĥĲáĥĵ
ĠÐ¾Ñģ Ð¾Ð±
à¦¾à¦² à§ĩà¦°
Ùģ Ø³
áĢľ áĢŃ
lich e
z ir
áĢĦ áĢļáĢ¹
áģ º
áĢĨ áĢĦáĢ¹áĢ·
áĢ¡ áĢĻ
zz o
ÑĢ Ð°ÑĦ
Ġnu est
Ġà´¨ àµĭà´ķàµįà´ķ
v v
Ġbi zt
Ġme d
áĥĵ áĥĺáĥ¡
ĠØ¬ Ø§
ÅĤ at
ĠáĢ±áĢ Ŀ
áĢĲáĢħáĢ¹áĢ ±áĢļáĢ¬áĢĢáĢ¹áĢ
áĢ¼ áĢĶáĢ¹áĤĶ
áĢĢáģł áĤĴ
ĠáĢĴ áĢ±áĢŀ
bi Ã©n
à°¦ à±ĩà°¶
Ġk en
ĠÐ¼ÑĥÐ² Ð¾ÑĦÐ¸ÒĽ
Ġà¦ķà§ĭà¦¨ à§ĭ
Ġà´°à´¾à´ľ àµįà´¯
lu ar
ĠéĢ Ļ
Ġà¹Ģà¸ Ľà¹ĩà¸Ļ
Ġ äºĳ
è°ĥ æŁ¥
æĽ °
æĳ Ħ
åī Ĥ
ä¸¤ ä¸ª
Ġà¤¨à¤¿à¤µ à¤¡
Î¼Îµ ÏĥÎ±
ĠÎ»Î¿Î¹ ÏĢÏĮÎ½
ÏĦÎ± ÏĥÎ·
ĠÏĨ Î±Î½
ĠÏĢÎ¯ ÏĥÏī
ĠÎ±Ïħ ÏĦÎŃÏĤ
Î© Î£
ĠÎķ Î¾
ĠÎ³Îµ Î³Î¿Î½
o g
ĠÐ½ Ð°Ñĺ
Ð½Ð¸ ÐºÑĸÐ²
ãģĦ ãģ¦
Ð½Ñĥ ÑĨÑĮ
¶ Į
à®ķ à®°
Ġdes pre
ĠÒĽÐ¸Ð» Ð¸Ð½Ð³Ð°Ð½
Ð°Ð» Ó£
± à¹īà¸Ļ
ªà¸¸à¸ Ĥà¸
6 3
Ġè¶ ħ
Ġà¤ķ à¤¾à¤³
à¦¬ à§įà¦¯
áĥĲáĥ Ł
Ġv ÄĽ
ĠktÃ³ r
ĠÎ¤ Î·Î½
ĠA H
Ġ1 A
ĠÏĦÎŃ Î»Î¿ÏĤ
ĠÎ¾Îµ Îº
ĠÎ¤ ÎŁÎ¥
Ġ. Â¬
ĠÏĮÎ» ÏīÎ½
Ïĥ Î¿Î½
ĠÎ¼Î¿ Î½Î±
ĠÏĥÏħÎ½ÎŃÏĩ ÎµÎ¹Î±
ĠÎ¸ Ïħ
ĠÎ´Î¹Î¬ÏģÎº ÎµÎ¹Î±
ĠÎ¼ ÎµÎ¹
ÎºÏģÎ¹ Î²
ĠÎ¼ÎµÎ³Î±Î»ÏįÏĦÎµ ÏģÎ·
ĠÎµ ÏĥÏĦÎ¹Î±ÏĦÏĮÏģÎ¹Î±
ĠÏĥÏĦÎ¿Î¹ ÏĩÎµÎ¯Î±
ÏĦÎ¿ Î¼Î±
ĠÎ± ÏĨÎ®
Ġ00 9
Î¼ ÏİÎ½
Ïģ ÏĦÎ®Î¸Î·ÎºÎµ
Î»Î¯ Î´Î±
ĠÏĥÏħ ÏĥÎºÎµÏħ
ĠÎ³ ÏħÎ½Î±
Î»Î± Î´Î®
ĠÎµÎ¯ ÏĦÎµ
Îł Îĳ
ĠÎºÎ¬ÏĢÎ¿ Î¹Î±
ÎŃ Î»
ĠÎ´Îµ Î´Î¿
Ġy ma
Ø¯ Ø±
Ġha o
Ġà¤®à¥Ī à¤Ĥ
Ġk ir
Ðµ ÑĩÐµ
ĠÐ¾ Ð¸Ð´
ÏĢÎ¿ Î½
Îº Î®ÏĤ
x y
ÏĦ ÏĥÎ±
Ïĥ Î¿Ïħ
Î¶Î® ÏĦÎ·ÏĥÎ·
ĠÎµÏĢÎ¹ Î²
Î¿ ÏĢ
ĠÏĢÏģÎ¿Ïĥ ÏĦÎ±
Ïģ Î¹Îº
ĠÏĢÎ± ÏģÏĮ
Ïĥ Î¯ÎµÏĤ
ÏĢÎµ ÏģÎ¹
ÏĢ ÏīÎ½
Î¯ Î´Î¹Î±
ĠÎ± Î¹Ïĥ
y g
Ġà¤¸à¤¬ à¤¸à¥ĩ
Ġà°® à°§à±įà°¯
ĠÑĢ Ñĭ
áĢŀ áĢĬáĢ·áĢ¹
áĢĬáĢº áĢ·
ĠáĢĳ áĢ²
»áĢķáĢĬáĢ¹áĢ ĶáĢļáĢ¹áĢ
áĢĦáĢ¹áĢ¸ áĢĢ
áĢ¶ áĤĶ
áĢľ áĢ±áĢ¸áĢĲ
Ġ Å¾i
Å« su
à«ģ àªµ
ĠáĢĲ áĢ¯áĢŃáĢĦáĢ¹áĢ¸
ĠáĢ¡ áĢ±áĢ¬áĢĢáĢº
×ķ× Ķ
Ġn je
Ġt j
Ġà¦ħ à¦¸
Ġal le
ĠáĥĴ áĥĲáĥłáĥĵ
Ġac est
ĠÐ±Ð¾ÑĢ Ð°Ð¸
ĠÐ±Ð¾Ð» ÐµÐµ
ĠÐł Ðħ
Ð°ÑĨ ÑĸÑı
ÑĤ ÑįÑĤ
Ġë Ĭ
Ġr Ã©p
ti vo
ĠáĢŀ áĢĢáĢ¹áĢ
ĠáĢĻ áĢ¬
Ð°Ð¿ ÑĢÐ°Ñŀ
æķ £
Ġà¤¡ à¥ī
ÈĻ ti
Ä£ i
ar Ä±
ĠàªĽ à«ĭ
Ġv il
áº± ng
ĠÐ»Ñİ Ð´
ĠáĥłáĥĿáĥĽ áĥļáĥĶáĥĳ
ĠáĢ¡ áĢĻáĢŃ
ĠÎµÎ¯ ÏĩÎ±Î½
Ïĩ Î¿ÏĤ
Î±Î¹ Î±
ĠÎ¼ Î¹
Î¹ÎºÎ¿ Î¯
Ïģ Î¹ÎºÎ¬
ĠÏĢÎ± Î¯
ÏĥÏĦÎ¬ ÏĥÎµÎ¹ÏĤ
ĠÏĥÏĩÎµ ÏĦÎ¹ÎºÎ¬
ĠÎŃÎ³ Î¹Î½Îµ
ĠIn n
Îº Î»Î¿
ĠÎ²Î±Î¸Î¼Î¿ Î»Î¿Î³Î¯Î±
ĠÎµÎ¾ Î±Î¹ÏģÎµ
ĠÎĳÎ½Î± ÏģÏĦÎ®Î¸Î·ÎºÎµ
ĠÎ±ÏĢÎ±Î½ ÏĦÎ®ÏĥÎµÎ¹ÏĤ
ĠÎ±Î½ ÏĦÎ±
ÎĻÎ ¤
Î¼Î¿Ïģ ÏĨ
ĠÏĥÎµÎ¹ ÏģÎ¬
Î¹Ïĥ ÏĦÎ±
ĠÎºÎ¬Î½ Î¿ÏħÎ½
ĠÎĿ Î±Î¹
ĠÎ·Î»ÎµÎº ÏĦÏģÎ¿
Ïħ Î¼Î±
wi d
à´¾à´³ àµįâĢį
Ġà´¬ à´¿
å¯ ¦
Ġà¤ª à¥ģà¤¢
ĠÛģÙĪ Ø§
à´° àµģà´ŁàµĨ
áĢŀ áĢĦáĢ¹áĢ·
áĢħ áĢķáĢº
à°Ĥà°Ł à°¿
Ð¿ Ð¸
ĠÅ¡ t
à¦°à§įà¦ ·
ma tion
Ġjo ka
è¦ ĭ
Ġol á»įn
Ġo go
Ġno t
Ġir Ãº
dz in
Ð¿ Ð»
Ġe ff
ĠÙĪ Ø¨
Ġà®ªà¯Ĩ à®±à¯įà®±
ĠáĢŁ áĢ°
Ġi y
çĪ ¶
Ġà¤®à¥ģ à¤²
Ð°Ñĳ Ð»
Ġde pope
Ġas ara
ĠY áº¹n
ĠS at
ĠÐ¸ÑģÑĤ Ð¸ÑĦ
ĠPaa pa
ĠP ay
ĠK aa
ĠJ Ã©s
ĠG ar
áĢĻáĢ»áĢ¬áĢ¸áĢ ĶáĢ¾áĢĦáĢ·áĢº
ĠC ho
ĠA á¹£
Ġ6 5
yá»įn nu
lo lo
ire gbe
do ko
G UN
F I
Ġyáº¹ whe
Ġr ira
Ġolu á¹£e
Ġoju ami
Ġn yen
Ġle he
Ġise da
Ġimor iri
Ġatáº¹ gun
Ġasá»į táº¹láº¹
Ġapa má»į
ĠT witter
ĠOri sun
ĠN jáº¹
ĠKlisti ani
ĠEle ct
ĠAhá»įlu duta
Ġ3 44
oo t
ir st
fi c
Ð°ÑĤÑĭ Ñĩ
Ġ×ŀ× §
es ia
áĥĺáĥ Ń
Ġm os
ĠÙĨ ÙĪ
ì¶Ķ ì²ľ
ê° ģ
à°¾à°Ĥà° ķ
Ġàª¸àª¾àª® à«ĩ
d ar
ĠÐ°Ð¿ Ð¾ÑĪ
à¦ ģ
i f
àµįà´¯ à´¾à´ª
b us
C C
Ġáº¸ ká»į
Ġá¹£ee á¹£e
Ġw lea
Ġt Ã³Ì£n
Ġsan wo
Ġpa á¹£áº¹
Ġn ana
Ġláº¹ do
Ġjin láº¹
Ġiá¹£ á»į
Ġi ka
ĠE t
à¯Ĩ à®²à¯įà®²
Ġi ha
an ce
áĥĲáĥł áĥĿ
ĠÏĥÏħ Î½Î±
ĠÎĳ Î³
ĠB C
çī¹ èī²
æī ©
åŃ¦ æł¡
à©ĭ à¨Ĥ
æħ ¢
æ± ¡
Ġï¼ī ãĢĤ
Ġag æīĭæľºçīĪ
¥à¸²à¸ ¢à¸
3 æľĪ
Ġā ą
Ġà¤¦ à¤°
Î» Î¹Î¬
ĠÎľ Î¬
ĠÎºÎ±Î¸ Î±
ĠÎµÎ³ Ïİ
ĠÎ³ ÏģÎ¬ÏĨ
ĠB B
ĠÎľ ÏĢ
Ġ00 5
Ġ ÏģÎµ
ĠÎķ ÏĢÎ¹Ïĥ
ÏģÏī ÏĢÎ±
t b
ÑĪ Ð¾Ñŀ
âĢĮâĢĮ âĢĮâĢĮ
Ġà°¤à±Ĩà°² à°Ĥà°Ĺà°¾à°£
Ġà°µà°¿à°¦ à±įà°¯
Ġdara pá»į
àªĤàª Ł
ĠØ¨ ÚĨ
ĠáĥĲáĥĽ áĥĺáĥ¡
Ġà´ªàµĭ à´ķ
ÙĤ Ø±
Ġda ho
ĠZ i
Ġà®® à®±
ĠVi deo
ĠRE ZO
ĠNa egbá»įn
ĠMic rosoft
ĠC ol
Ð°ÑĨ ÑĸÐ¹
ĠB y
Ġ ãģ®
å¼ı ä¼ļç¤¾
ª å¼ıä¼ļç¤¾
w le
ris to
ĠÐ¼ Ð½Ð¾Ð³Ð¾
Ġàªī àª¤
Ġáĥĵ áĥłáĥĿ
ká»į sÃŃláº¹
ĠÐĲ Ðº
Ġà¤Ĩà¤ª à¤ķà¥ĭ
Ã¡ j
ĠÎĴ Î±
ĠÎµÏģÎ³ Î±
Ïĥ Ïį
ĠB D
ĠÏĥ Î¹
ĠÎµÎ¯ ÏĩÎ±
ĠÎ±Î½Î¬ Î³Îº
ÎŃ Î½Î±
ĠÏĦ ÏģÎ¯
ĠÏĨÎ¿Ïģ ÎŃÏĤ
ĠÎĮ Î»Î±
ĠÎ³ ÏģÎ®Î³Î¿
Ġx 64
I n
ĠÎł ÏģÏİ
Î¯ Î³Î¿Ïħ
ĠÎŃ ÏĢ
ĠÎ±Ïħ ÏĦÎ®ÏĤ
ĠÏĢÎ±Î¹ÏĩÎ½ Î¯Î´Î¹
ĠÎµÏĢÎ¹Ïĥ ÎºÎŃ
ÎµÎ¯ Î¿Ïħ
Å µ
p ri
kun nu
da ho
c el
éĩ İ
éĢ ²
ä¸Ģ ç¯ĩ
å®ĺç½ĳ _
Ġ äºİ
éĴ Ī
åº Ĭ
ä¸Ģ çĽ´
Ġæ±Łèĭı å¿«3
å¦ ¹
åĪ ĺ
å¡ Ķ
áŀ Ļ
à¹ģà¸Ļ à¹Īà¸Ļ
à¥įà¤ Ĺ
aru to
ĠÃ¬ má»į
ĠÑĤ Ð¸
ÙĪÙĦ Ø©
Ġà¦¦ à§ģà¦ĩ
Ġà°µ à°¿à°¨
ë ŀĮ
à®¾à®£ à¯įà®Ł
Ġàª°à«Ĥ àªª
à´µà´¿à´ §
à§ģ à¦¦
à°¿à°² à±į
Ġyá»įn nu
Ġran á¹£áº¹
Ġr ar
Ġnitorin aa
Ġiru gbin
Ġho do
Ġh Ã¹n
Ġc rypto
ĠIn c
ĠI t
ĠH ow
ĠáĥĶ áĥľ
Ġsa j
ĠH ol
ĠØ¨ Ø®
ĠG ames
ĠBu hari
Ã²g Ã¹n
wa ys
um p
ti ful
ta ble
t he
sun nu
p ro
máº¹ sunnu
lo pin
laru ge
ju to
ĠÐº Ð°Ð¶
· à«įàª
GG G
G O
ĠâĤ ¦
Ġá»į vo
Ġtá»į ka
Ġoun je
Ġdey il
Ġ×ľ ×ĳ
Ġà´ľàµĢà´µ à´¿à´¤
ĠÐ¹Ð¸ Òĵ
ÑĢ Ð¸Ð±
ĠÚ© ÚĨÚ¾
Ð³ ÐĤ
Ð²Ñĭ ÑĩÐ°Ð¹
Ġka p
Ġni t
Ġn á¹£e
Ġk ÃŃ
áĢ¡ áĢ»áĢĸáĢħáĢ¹
Ļ áĢ¾áĢ¬
Ġà´¤ à´²
ĠáĢ±áĢĻ áĢ¬áĢ¹áĢ
áģ¢ áĢº
ĠáĢĶ áĢĬáĢº
en cia
Ġques to
Ġà°¤ à°¿à°°
à¦Ľ à§ĩà¦¨
ĠÐ´ Ñĸ
Ġpers onn
ĠÐ± Ð¸Ð´
b rie
Ĭà¸µà¸§à¸´à¸ ķà¸
à¹Ī à¸Ńà¸Ļ
à¥ģ à¤¦à¥įà¤§
ti in
áĢĢáĢ¹áĢ ľáĢ¬
L D
áĢĨ áĢĶáĢº
Ġà¦ķ à§įà¦°
àµĬ à´¨àµįà´¨
sch e
à«įàª° àª®
c jÄĻ
lÉĻr ini
Ġf ol
tu k
ĠÐº Ð°ÑĩÐµ
ĠÏĢÎ»Î·ÏģÎ¿ÏĨÎ¿ ÏģÎ¯ÎµÏĤ
AXwBfAF8 AXwBfAF8
ĠÎłÎµÏģÎ¹ÏĥÏĥÏĮÏĦÎµ ÏģÎ±
ĠÎ¹ Î´Î¹
ĠW illi
Îł ÏģÎ¿
Îķ Î¥
Î¯ Î½Î±
ÏĦÎ® ÏģÎ¹Î±
n od
Ð»Ð°Ð´ Ð·Ñĸ
Ġm Ã©s
áĢĻáĢ½áĢ¬ áĢľáĢĬáĢ¹áĢ¸
±áĢĶ áĢĽáĢ¬
ĠáĢĲ áĢ½áĢĦáĢº
áĥ£áĥ Ļ
Ð²Ñĸ ÑĤ
Ð°Ñŀ Ð»Ñı
ãĤ ¸
b ÄĽ
Ø² Ø´
Ġáĥª áĥĶáĥľáĥ¢
Ð¿ÑĢ ÐµÐ´
à´¿à´¯ à´¾à´£àµį
Ġgjit ha
Ġà¤ļ à¤²
Ġà®ħ à®¤à¯ģ
Ð²Ð°Ð½ Ð½Ðµ
men ti
à´¿à´¸ àµįà´±àµįà´±
Å¾ ÃŃ
Ġ×Ķ× ĵ
ch es
Ġs ena
Ġà°ĩ à°ļà±įà°ļ
ĠÙĦ Øª
ĠæĮ ī
çº ¸
è¡Į åĬ¨
áŀ ¸
à¥ĩà¤² à¤¾
à¦¾à¦§ à§įà¦¯à¦®
ĠÐ´ Ð¾ÑģÑĤ
ĠÚ¯ ÛĮ
áĥ£áĥ ª
ĠÄĳ i
àª¾àª Ń
ÅĦ st
ĠD E
cion al
Ð¸Ð» Ð¸Ð±
ĠÐĲ Ð³Ð°ÑĢ
ĠÑĦ Ð°Ðº
Ã³ s
à°ª à±įà°°
ĠÏĦÎµÎ»ÎµÏħÏĦÎ± Î¯Î±
ĠÎ±Î½ÏĦÎ¹ Î¼Îµ
ÏģÏħ Î¸
Î¿Ïį ÏĤ
ĠÏĦ Î±Î¹Î½
ĠÏĥÏĢÎ¯ ÏĦÎ¹
Ġg wy
Ġáĥł áĥĶáĥĴ
áĢ¼áĢĶáĢ¹áĢ ľ
áĢ¡ áĢĸáĢ¼áĢ²áĤĶ
Ĭ áĢ®
áĢħ áĢŃáĢ¯áĢ¸áĢĽ
ĠÐ²Ñı Ð´Ð¾Ð¼
d he
áĢ¬áĢ¸áĢĲ áĢ½
ĠáĢĲáĢĽ áĢ¬áĢ¸áĢħ
ÉĻn c
ĠÙĨ Ø´
Ġtr o
à´¿à´ ¶
ĠáĢ¡áĢĻ áĢ±áĢĽáĢŃáĢĢáĢĶáĢº
à¯Īà®ļ à¯į
Ġà¤¸ à¤Ńà¥Ģ
à°¾à°³ à±įà°³
à¤¾à¤ Ń
í Ĺ
Ð¾ÑĢ Ð¸Ð¹
ÑĪ Ð°
Ġà¦Ĩà¦Ĺ à§ĩ
ĠÐºÐ¾ÑĢ ÑħÐ¾Ð½
à«ĩàª¨ à«įàªŁ
Ġà°ħ à°®
ĠÐ´Ð°Ð² Ð»Ð°ÑĤÐ¸
çĮ ®
é» ŀ
«à¸ §à¹Īà¸²à¸
ĠçĻ ½
çĶŁ æĢģ
å½©ç¥¨ å¹³åı°
å¨±ä¹Ĳ å®ĺç½ĳ
à¨ Ī
äº§ çĶŁ
à¤¦ à¤¾
àµĤ à´±
ĠÐ²ÑĸÐ´ Ð¿Ð¾Ð²ÑĸÐ´
áĥķ áĥĺáĥĵ
ĠÐ¼Ð°Ðº ÑĤÐ°Ð±
fa dÉĻ
Ġya p
Ġma tla
v in
ĠktÃ³ ry
ĠáĢ¡ áĢ®
à°¾à°² à°ķà±ģ
ĠÑģÑĤ Ð²Ð°ÑĢ
Ġta m
Åĳ s
Ð° Ð°ÑĤ
ĠÐ½ Ð¾Ò³
ĠØ¯ ÛĮÚ©Ú¾
ĠÐĿ Ð¾
r Ã¤
ÐµÐ½ Ñĸ
à§ĭ à¦°à§įà¦
c or
Ð» Ð°Ð¹Ð½
Ġba t
çĦ ¡
Ø« Ø±
ĠÐ± ÐµÑģÐ¿
áĢĽ áĢ¯
ar Äĥ
Ġ Ð°Ð¶
ÑģÑĤ Ð¸ÑĤ
Ġáĥĺ áĥª
Ġà®ħ à®£
Ð¸Ð· Ð¸
áĢĻ áĢļáĢ¹áĢĨáĢŃáĢ¯
ħ áĢĽáĢ¬
ĠáĢĲ áĢ¯áĢŃáĢĢáĢ¹áĢ
áĢļáĢ· áĢ¹áĢ
ĠáĢħáĢħáĢ¹áĢ ±áĢĨ
áĢľ áĢ±áĢ¬
ĠÐ² Ñģ
Ġk una
Ġiko le
Ġigbe yewo
Ġida ji
Ġaz Ã¡n
Ġa di
ĠW on
×¨ ×ª
ãģ ĺ
ĠàªŃ àª¾àªĹ
k om
¦ à¥Ģ
Î± ÏģÎ¯Î¿Ïħ
ĠÎĪ Î½Î±
Ïĩ Î½Î¿
ÏĢÎµ Î´Î¿
ĠÎĮ ÏĦÎ±Î½
Ïĩ Î¬
ĠÎŃ ÎºÎ±Î½
Î¸ Î¬
ĠÎļÎ± ÏĦÎ±
ĠÎ§ Î±
Î¼Î¿ Î¹
ĠW D
Î¿Î½ ÏĦÎ¹
Î² Î¿
ÎĻÎ Ķ
7 5
ĠÎµÎ¾ Ïī
ĠWilli am
ÎĻÎļ ÎĹ
ĠÎļ Î¹
ĠÎ½ÎŃ Î¿
Ġf y
Ġj us
áĢĽ áĢ±áĢ¬
Ð°Ð²Ñĸ ÐºÐ°
à¤¤ à¤¿
Ġáĥ¡ áĥĺáĥ¢
Ġà°¤ à°°à±įà°µà°¾à°¤
Ġà¦ħ à¦°à§įà¦¥
ĠÐ½ÐµÐ°Ð± ÑħÐ¾Ð´
ĠTag s
ĠP in
ĠO jo
ĠO S
ĠKo lopin
ĠK I
ĠF u
àµ½ à´ķ
Ñģ Ð¾Ð²
ĠE ngine
Ġ8 9
Ġ8 5
êŀĮ we
æł ªå¼ıä¼ļç¤¾
ÉĶ r
wan yi
vi ce
us in
uro opu
re d
Ð¹ Ñħ
le e
l om
gbon á»į
g Ã¡n
fi isi
Ġì ¶
Ġà¸Ħ à¸²
æľĢ é«ĺ
æľ «
ļ èĩ³
à¤° à¤£
ani ng
Y I
C T
Ġâķ Ľ
ĠÒĽÐ°ÑĢ ÑĪÐ¸
ĠÐ¶ Ð°Ð²Ð¾Ð±
Ð´Ð¸ Ð¹
ÒĽ Ð°ÑĢ
A T
İ n
Ġá¹¢ áº¹
Ġte en
Ġta yá»į
Ġsi m
Ġr orun
Ġo v
Ġng oi
Ġng be
Ġm una
Ġlai fá»įwá»įyi
Ġjo ko
Ġiká»į ká»į
Ġiba jáº¹
Ġgb Ã©Ì£
Ġg ege
Ġà°² à±ĩà°ķ
Ã Ĭ
Ãº c
ĠáĥĻ áĥł
ĠÐ¸ Ð¼Ðµ
áĢ±áĢķáĢ« áĢĲáĢļáĢº
áĢ¬áĢ¸áĢħ áĢ½áĢ¬
ĠÐ· Ð°Ñı
Î» ÏĢ
Îº Î·ÏĤ
Î¹Î½ ÏĮ
ĠÎ¼Î¹Î± ÏĤ
Ïģ ÎŃÏĤ
ĠÎµÏĨÎ±Ïģ Î¼Î¿
ĠÎ±Î³ ÏīÎ½
Îķ ÎĻÎ£
Î² Î´Î¿
ĠÎ± ÎµÏģÎ¿
ÏĦÎŃ ÏģÎ±
Ïģ Î¹ÎºÎ®
Î»Î¹ ÏĤ
ĠÎ³ Î»Ïİ
ÏĮÏĦÎµ ÏģÎ±
Î»ÏĮÎ³ Î·ÏĥÎ·
Î¸ ÏĮ
ĠÎĳÏħ ÏĦÎ®
ĠAD E
ÏĦ Î¯Î±ÏĤ
ÎºÎµÎ¹ ÏĦÎ±Î¹
ĠÎĶÎ¹Î± Î²Î¬ÏĥÏĦÎµ
Ġd da
Ġaf á»į
ÙĪ Øª
ul li
¤ Ģ
ĠÐ¼Ð°Ð± Ð»Ð°
ĠN U
ĠMay or
ĠI bu
ĠCh ar
ĠáĥĽ áĥĶáĥł
iek Å¡
¢à¸ ¡
Ġåħ¬ åı¸
æİ ī
ä»¥ æĿ¥
Ħ à¸²à¸
Ġå¤§åıĳ 10åĪĨå½©
Ġà¤® à¥ģà¤ĸ
à®² à®®à¯į
eni u
Ġ8 3
Ġ200 3
à³į à²
Ç İn
z er
Ġáĥ¡áĥĲáĥ¥áĥĲáĥłáĥĹáĥķáĥĶáĥļ áĥĿáĥ¨áĥĺ
áĥĺáĥ£áĥ ļ
ĠÐ·Ð°ÑĢ ÑĥÑĢ
wi m
ka li
L C
Ġá»Į Rá»Į
Ġwa li
Ġti láº¹
à§įà¦ §
Ġsh are
Ġs unnu
Ġo we
Ġnáº¹ r
Ġk Ãºn
Ð Ń
is te
ĠÐ½Ñı Ð¼Ð°
Ġ×ľ ×Ĺ
à±ĩà° ¦à°¿
Ð»Ð°ÑĢ Ð¸Ð¼Ð¸Ð·
ĠÑĤÐ¾Ò· Ð¸Ðº
Ð¾Ð½ Ð¸ÑĪ
ts we
Ġàªħ àªª
Ġidin ku
Ġe bi
ĠÃŃ gy
é ŀ
èµĦ éĩĳ
áĪ Ń
à¤¾à¤¤ à¥Ĥà¤¨
Ġasi ko
Ġand ro
Ġan de
Ġafi we
ĠS te
ãĥ³ãĤ °
áĥĺáĥľ áĥĺáĥ¡
à´¨ àµį
ĠN aruto
ĠKa vi
ĠG áº¹áº¹si
Ðº Ð¾Ð²Ð°
ĠA ni
êŀĮ ni
á»į yen
y un
t d
p ar
Ġà´¯ àµģ
à¦¾à¦¨ à§ĭ
ng aso
ke ja
k ia
gb Ãł
Ġë¶ Ħ
áĢŃáĢ³ áĢ¸áĢ
Ĩ áĢ¯áĢ¶áĢ¸
à®¾à®¤ à¯įà®¤
Ġàª«àª¿àª² à«įàª®
à´°àµįâĢį à´¶
Ġáĥľ áĥĲáĥĻ
àµģà´® à´¾à´¯
à¤°à¥įà¤ ¶
Ðł Ðħ
ĠÑĤÐ°Ðº Ð¾Ð¶
Õ¶Õ¥ÖĢ Õ«
publi ka
Ð· Ð¾Ð´
ĠÚ¯ Ø¦ÛĴ
Ġ$( '
àª¥ àª¾
ĠÑŀÑĢ ÑĤ
ĠÐ¾Ð» Ð³Ð°Ð½
ĠÐ´Ð¾ÑĢ Ð°Ð´
ĠgÃ¶ z
ĠÑĢ Ñĥ
Æ¡ i
áĢĲáĢº áĢľ
Ġna p
Ġes s
sch a
Ġàª« àª°
ÙģØª Ùĩ
à¯Ĩ à®©
Ð½Ñĸ ÐºÑĥ
ĠÑģ Ð¾Ð·
Ġà¦Ł à¦¾à¦ķà¦¾
Ġà¦¹ à¦¾à¦ľà¦¾à¦°
ãģ Ķ
Ĭà¸ ¡à¸
èª ª
çĸ «
äº ¡
à¸£à¸²à¸ ¢
Ĥà¸²à¸ ¢
8 9
Ġæķ Ļ
åĮħ æĭ¬
· à¸Ļ
Ġ/ /
åŁº éĩĳ
éĢ Ĳ
çĨ Ł
Ľà¸£à¸°à¹Ģà¸Ĺà¸ ¨à¸
æľº åĪ¶
å ´
à¤¾à¤Ĥà¤ ¸
v ant
áĥ£áĥļ áĥĲáĥĵ
àµįà´µ à´¾à´¸
Å¡ Ä·
ĠÐ¼Ð¾Ð¶ Ðµ
Ġà°®à±ģà° ĸà±įà°¯
ĠÏĥÏĩÎŃ ÏĥÎ·
ĠÎµÎ½ ÎŃÏģÎ³
ĠÂµ Îµ
ÏĥÏĦÎµ Î¯
Î´ Ïį
ĠÎ¼Î¹Îº ÏģÏĮ
Ïĥ ÏĦÎ¹
ÎĳÎ ľ
Î¼ÎµÎ½ Î¿ÏħÏĤ
ĠÏĢ ÎµÎ¹
ĠÎµÏħ ÏĩÎ±ÏģÎ¹Ïĥ
Î¸ Î»Î·
ĠE R
Ġ ÏģÎ¿
ĠÎł Î¬
Î´ Î¯Î±
ĠÎµÎ½ ÎµÏģÎ³
ÎŁÎ ¤
Î¸ Î¹Ïĥ
ĠÎķ Îł
ĠÎĳ Î¸Î®
Î ŀ
C OM
ĠÎ· Î¼Îµ
ho l
Ġí İ
áĢĢáĢ¹áĢŀ áĢ¼áĢļáĢ¹áĢ
Ĳ áĢ½
ĠÃ¼z rÉĻ
áĢļáĢº áĢľáĢŃáĢ¯áĢ·
áĢķ áĢ±
Ġà´® àµģ
ÙĬ Øª
Ġà¦ħà¦¨ à§įà¦¯
Ġàªª àª¾àª
Ġ×Ĵ ×Ŀ
áĥĲáĥļ áĥ®
ĠáĢĿ áĢĦáĢº
Ð°Ð¶ Ðµ
d dÉĻ
Ø¨ Ø§Ø¯
mon ia
Ġfa ce
Äħ d
ĠÐ¼Ð°ÑĤÑį ÑĢÑĭÑı
Ġgjith Ã«
ĠSex o
l os
à°°à±įà° ķ
ÑģÐº ÑĥÑİ
áĥĶáĥļ áĥĺáĥ¡
ÙĦØ§ ÙĤ
Ïĥ ÏĨÎ±Î¹
el d
à¤µ à¤¾à¤°
áĢĽ áĢĬáĢº
àªĤàªĹ à«įàª°
Ġà´° àµģ
à´¾à´¨àµįà´ ¤
nÃ© es
ĠÑŀ ÑģÐµ
ÐµÑĢ Ð¾
ĠM agyar
® áĥĶáĥĵ
ĠÃ ĸ
sh tÃ«
ĠãĤ ¹
ĠáĢĽ áĢ¯áĢķáĢº
jÃŃ cÃŃ
àªľ à«Ģ
à´¿à´¨àµįà´ ±
Ġe mp
à¥ĩà¤Ĥà¤ Ł
Ġêµ Ĳ
à¯įà®ķ à®¿à®±
à¦¨à§įà¦ ¡
ÙĪ Ùĩ
r Åĳl
le p
ĠÐ» Ñĳ
cu ri
ĠÎ»ÎµÏĢ ÏĦÎ¬
ĠÎ¸ ÎµÏģ
ÏĨÎ¿Ïģ ÎŃÏĤ
rh yw
Ġà°ħà°¨ à±ĩ
Ġn Ã¤
r Äĵ
Ġo so
Ġ×¤ ×¨
ĠáĢģ áĢĶáĢ¹áĤĶ
Ġ áĤĶ
áĢĸ áĢĲáĢ¹áĢ
ĠáģĤáģ ģ
Ġsz ere
à®¿à®µ à¯ģ
Ġàª¨ àª¿
áĢ®áĢ¸áĢ Ķ
ĠÑĩ ÐµÐ¼
Ġà¦° à¦¹
Ġest Ã¡
Ø§Ø± Øª
ĠÐĽ ÑĥÐº
ĠÐº Ð»Ð°Ñģ
Ġà¦¬à¦¿à¦Ń à¦¿à¦¨à§įà¦¨
ĠÕ¥ Õ¶
ÉĻh ÉĻr
ëĬ ¥
Ð»Ð¸ Ñģ
Ġs pe
à±ĥ à°·
ĠÐ²Ñı Ð»ÑĸÐºÑĸ
Ġà´ħà´¦àµįà´¦àµĩà´¹ à´Ĥ
ĠÐ´Ð¾ Ð¿
ãĥ ł
à°Ĥà° Ń
Ġles z
§à¸´à¸ Ĺà¸¢
é½ Ĳ
çī Ļ
Ġæ° ĳ
çľŁ éĴ±
æ£ ®
Ġà¸ŀà¸£ à¹īà¸Ńà¸¡à¸
èģĶ åĲĪ
à¹ĥà¸ Ħà¸£à¸
Ĺ à¹Į
à¨¿ à©±à¨
Ġà¤Ŀà¤¾à¤² à¤¾
Ġáĥŀáĥĺáĥłáĥķ áĥĶáĥļáĥĺ
á»ĭ ch
ÙĪ Ø§Øª
áĢ¬áĢ¸áĢ ķáĢ¼
ĠÐł Ð°Ò³
ĠÑĪ Ð°Ð²
ĠÐ²Ñĭ Ð±Ð°ÑĢ
ĠV or
Ġt ek
à®¾à®µ à®¤à¯ģ
à«ĩàª Ĥ
Ð³Ñĵ Ñĺ
ĠÐ³Ð°Ð» Ð¾Ñŀ
ÏģÎ¯ ÏīÎ½
Î´ Î¹ÎºÏĮ
ĠÎ¤ ÎŁ
Ïĥ Ïħ
Î· Î¸ÎµÎ¯
ĠÏĦÎ¿ ÏĢÎ¿Î¸Îµ
ĠÎ± ÎºÏģÎ¹Î²
ÏĦÎ¹ÎºÎ¿Ïį ÏĤ
ĠÏĢ Ïī
Ġun i
ØªØ± ÛĮÙĨ
Ġà¤ª à¥ģà¤²
à¦¾à¦° à§Ģ
Ä« ga
áĢ¬áĢ¸áĢĻ áĢŃ
ĠÐ² ÑģÐ¸Ñĩ
ĠÐ¾ Ð½Ð¸
Ġa tÃ«
ĠáĢĻ áĢĶ
ĠáĢĢ áĢ¶
ÑĥÑİ ÑĤÑĮ
áĤı áĢ½áĢŃ
áĢŀ áĢ¯áĢ¶áĢ¸áĢ
Ġpar ti
Ġà¤« à¤¿à¤²
Ġáĥ£áĥ ¡
Ð½ Ð°Ð²
à§ģà¦· à§įà¦ł
Ġà´° à´¿
à´¾à´² àµģà´Ĥ
Ġà°İà°¨à±įà°¨ à°¿à°ķ
Ġà¤¬ à¤¤
Ġso k
Ġby Äĩ
ì½ Ķ
ĠØ±Ûģ Ø§
Ġà¤®à¤¹à¤¾à¤° à¤¾à¤·à¥įà¤Łà¥įà¤°
åĭ Ļ
Ġà¸£à¸ ¸à¹Īà¸Ļ
åĩº çļĦ
à¤¾à¤µ à¤¾
Ġà°°à±Ĩ à°Ĥà°¡à±ģ
ÙĪØ± Ø©
k en
Ġàª¤àª® àª¾àª°àª¾
Ġà®ķ à®¿à®°
áĥĺ áĥĶáĥłáĥĹ
ĠáĢľáĢ¯áĢķáĢ¹áĢ ±áĢĨáĢ¬áĢĦáĢ¹áĢ
ĠáĢľ áĢ¯áĢķáĢ¹
ĠáĢĢ áĢ¬áĢľ
áĢĢáĢŃáĢ¯ áĢļáĢ¹áĢ
ĠâĢ¦ áģĭ
áĢ¬áĢ¸áĢĲ áĢħáĢ¹áĢ
ĠáĢŀáĢ° áĢĦáĢļáĢ¹áĢģáĢºáĢĦáĢ¹áĢ¸
áĢĨ áĢ¶
Ġ×Ľ ×Ļ
bel isoa
Ġfum ana
di dá»į
P E
A wá»įn
Ġá¹¢ E
Ġsi ta
Ġpu pa
Ġn wa
Ġn nkan
n om
±áĢķ áĢ¸áĢĽ
áĢŃáĢ¯áĢ¸áĢ ľ
Ġk iráº¹diti
Ġgu á»įná»į
Ġf Ãºn
Ġà¦¨ à§ĩà¦ĩ
ĠÑģÐ² ÐµÑĤ
Ġy ox
ľà¸´à¸ §à¸
Ġà¸ Ĺ
à¹Ģà¸ Ķà¸
ĠåĨ Ľ
åĽ½ åĨħ
à¥ģà¤ Ĺ
ÙĦ Ø¦ÛĴ
áĢ¸áĢ ģáĢ¼
à°¿à° §
ĠÄ ¼
Ġku in
ou vel
Ġp jes
c co
íĺ ķ
ĠÐĲ Ñģ
áĢĻáĢ¼áĢŃáĢ¯áĢ· áĢĶáĢļáĢº
áĢ±áĢĽ áĢ¬áĢĢáĢ¹
áĢĲ áĢĶáĢ¬
áĢĦáĢ¹áĢ ĳ
áĢĻáĢ» áĢ¬áĢ¸áĢĢ
Ġàª¬ à«įàª°
Ġà´ħ à´®àµįà´®
k 8
ç« Ł
æľī æķĪ
Ġà¤Ń à¤¾à¤Ĺ
àµ¼ à´ķàµįà´ķ
ĠÚĨ Ùĩ
for ma
Ġà¦¬ à¦¿à¦ķ
Ð¾Ð½Ð¸ Ð¸
Ñİ ÑĨÑĨÐ°
k Ã©nt
ĠØ§ÙĦ Ùĩ
áĥĺáĥ¢ áĥĿáĥĽ
ãĥ §
Ïħ ÏĢ
ĠB ydd
Ġv Ãµ
Ġà¦Ĩà¦ª à¦¨à¦¾à¦°
ĠÐ¿ÐµÑĢ Ðµ
ĠáĥĹáĥĲáĥľ áĥĲáĥĽ
en er
Ġsi te
Äħ Å¼
te ng
æľ¬ éģĵ
à¥ĩà¤Ĺ à¤¾
à¯Īà® ª
à± ĸ
ĠÑģÐ¿Ðµ ÑĨÑĭÑı
ĠE UR
da j
ĠØª ÙĪØ§ÙĨ
y ÉĻn
àª¾àªĤ àª§
Ð¾Ð²Ð°Ð½ Ð¸Ðµ
Ġà°¤ à±Ĭ
Ġ×ķ ×ŀ×
ìĶ ¨
Ġcom m
Ðº Ð°ÑĤÐ°
áĥłáĥ £áĥļáĥĺ
ì ¶
Ġdau dz
ĠmÃ´ Å¾e
Ð°Ð½ Ð±Ðµ
ĠÐ¿ÑĢÐ°Ð± Ð»ÐµÐ¼
ĠÎ±ÏĢ ÎŃ
ÏģÎ¹ ÏĥÎ·
a ch
áĢ¸áĢĽ áĢ¼áĢ¬
ĠáĢĻ áĢ±áĢľ
Ġàªµ àª¾àª°
ĠD om
à´Ł àµģà´ķàµįà´ķ
à±ģà°¤ à±Ĥ
ĠáĢĳ áĢĬáĢ¹áĢ·
ĠáĢħ áĢ¥áĢ¹áĢ¸
áĢģáĢºáĢŃ áĢĶáĢ¹áĢĻáĢ½áĢ¬
áĢ¾ áĢĦáĢ·áĢº
Ġc el
Ġ3 åĪĨæĹ¶æĹ¶å½©
«à¸¥à¸ ±à¸ģà¸
ä¸» å¸Ń
ªà¹Īà¸§ à¸Ļ
Ġ ç½ĳä¸Ĭ
Ľà¹ĩ à¸Ļà¹Ģà¸
Ġà¤¸à¤Ĥà¤ ¸
Äĥ n
Ġpe dig
Ñı Ð²
g es
ĠØª Øµ
ĠáĥĴáĥĲáĥĽ áĥĿáĥª
ĠÐ Ħ
ĠÏĥÏį ÏĥÏĦÎ·Î¼Î±
Ïģ Î½
la en
ãĤ °
ë° ľ
à´¿à´ £
le le
ĠÑį Ð³Ð°
Ġ Ð°ÑĬÐ·
Ã³ Å¼
Ñĥ ÑģÐ¸Ñı
à°° à±įà°²
Ġà´ Ļàµįà´Ļ
à´°àµįâĢį à´ļàµįà´ļ
à¯ĭ à®ķ
Õ¸ÖĤÕ©Õµ Õ¡Õ¶
Ã¼n ya
Ġà´ĩ à´²àµįà´²
ĠáĢĢáĢŃáĢ¯áĢļáĢ¹áĢ ħ
áĢ¶ áĢģ
i ke
Ð¾Ð´ Ð¸ÑĢ
ĠÐ½ Ð°Ð±
ta tÃ³
ĠáĥĽáĥ¡ áĥĿáĥ¤áĥļ
ĠáģĤáģĢáģģáģ ī
áĢĽ áĢķáĢ¹áĢ
áĢļáĢ¹áĢħ áĢ¬áĢ¸áĢľáĢ½
áĢ¸áĢĢáĢ» áĢĦáĢº
Ġ×Ĳ ×ķ×ª
Ġà¦ķà¦° à§ĩà¦Ľà§ĩ
k ou
Ġtra ba
Ġà¤¸ à¤¿à¤Ĥà¤
Ġà®ļ à¯Ĥ
en dan
Ġàªĺ àªŁ
à· ĥ
Ġ ä¹ħä¹ħ
Ġà¤ķ à¤Ī
à´Ł à´¿à´¯
Ġmar rÃ«
zi o
Ðº Ð¾Ð¼
Ġngo e
Ġloke la
Ġu003 e
ĠD y
ÛĮÙħ Øª
áĢĶáĢ¹áĤĢáĢĢáĢ®áĢ¸áĢ ĮáĢ¬áĢĶ
áģ¢ áĤĨ
áĢŀ áĢĶ
Ð´ Ð¾ÑĪ
yi k
íĥ Ŀ
áĢľ áĢ¬áĢĽ
Ġag ç½ĳç«Ļ
çĽ ĸ
Ĺà¸µà¹Īà¸ Ķà¸µà¸
è¶ £
Ġä»Ĭ å¹´
Ġà¹ģà¸ ¥à¸°à¹Ģà¸
Ġà¹Ģà¸¡à¸ ·à¹Īà¸Ńà¸
Ġà¸Ħà¸ ·à¸Ń
Ġå¤§åıĳä¸ī åĪĨéĴŁå¿«ä¸ī
Ġà¨ķ à¨°
æĪĺ çķ¥
à¸Ļà¸ °
ķà¸±à¸ Ķà¸
æ³ °
Ġå¤§åıĳ uuå¿«3
æĶ¶ åħ¥
åĲĪ æ³ķ
à¸£à¸°à¸ļà¸ ļà¸
2019 å¹´
Ħ à¹Īà¸²à¸
ĠéĿ ŀ
Ġà¤ļ à¤¾à¤²
à±ģà°² à±įà°²à±ĭ
ĠØ£ Ùħ
ÃŃ as
ĠØ¢ÙħÙĪØ² Ø´
Ø± Ùģ
ja m
ĠkÃ¶n nen
áº¡ o
Ð°Ð»ÑĮ Ð½Ñĭ
Ð¿ ÑĤÐ¸
ĠÐĲ Ð¹
Ġà¦ī à¦¦
ÅĽ my
Ġà´ıà´±àµįà´± à´µàµģà´Ĥ
mÉĻ yÉĻ
ĠÑģ Ð´ÐµÐ»
à°Ĥà°¤à±įà°° à°¿
ĠÐ¾ÑĢ ÒĽ
ĠÒ³ Ð¸Ð¼
ĠÒ Ĵ
áĢĽ áĢŃáĢ¯áĢĢáĢº
ĠáĥĽ áĥĲáĥ¨
à°¿à°ķ à±į
Ã© m
as ta
Ðº ÑĥÐ½
ĠãĤ ¢
ëį ĺ
Ð½ÑĸÐº Ð°Ð¼
Ġàªª àª¾àª°
×ĳ ×Ķ
cz enie
ÑģÑĮ ÐºÑĸ
zi ona
áĥł áĥĶáĥĳáĥĺ
v ar
ĠÐľ Ð°Ðº
Ġdi k
ĠÑĤÐ¾ Ð°
áŁ Ħ
¨à¸²à¸ ªà¸
Ġâ Ħ
Ġ Ćą
éĶĢ åĶ®
è¿ Ķ
à¨ ľ
Ġà¤ħà¤¸ à¤¤
à§ĩà§Ł à§ĩ
à®±à¯įà®± à®¿
ĠÐ¸ Ð³ÑĢ
Ð³ ÑĸÑı
Îķ Îļ
ĠÎķ ÎĽ
Ġdr os
ĠáĥĲáĥ¡ áĥĶ
ĠáĢĴáĢ« áĢ±áģ¾áĢĢáĢ¬áĢĦáĢ¹áĢ·
áĢ¬áĢ¸áĢĻ áĢ¾
ĠØ¯ Ø§Ø¯
áĥ£áĥļ áĥ¢
Ø§ÙĨ Ûģ
ĠmoÅ¼ na
ĠÐ¿Ð¾Ñģ Ð»Ðµ
Ġp ou
ire a
Ġàª¸ à«įàªª
je k
à§ĭ à¦ļ
ÙĬ Ø«
Ġà®®à¯ģà®Ł à®¿à®¯
ĠÐ¿Ð¾ Ñĩ
Ġë ¦¬
ĠUU å¿«ä¸ī
Ġ1 åĪĨæĹ¶æĹ¶å½©
ĺà¸¸ à¸£à¸
æĿ Ĥ
æī ¶
å± ı
æ¡ ¥
ä¹ĭ ä¸Ģ
Ġå¿ ĥ
å¼Ģ æĶ¾
Ġ ä¹Ĳ
æĤ £
Ĺà¸ĩà¸ ļà¸Ńà¸¥
ĠåŁ º
Ġagäºļ å®ĺç½ĳ
Ħ à¸Ń
Ġå¤§åıĳ åįģ
èĴ Ļ
à¹ģà¸£à¸ ģ
ļ à¸Ļ
Ġå¥ ³
Ġà¤Ĩ à¤²à¥Ģ
ÐµÐ» Ð°
Ġà¤« à¤¿à¤°
áĥĶáĥĽ áĥĲ
Ġà¦° à§Ł
Ġà°ª à±ĩ
Ġa va
Ġtal Ã¡l
áĢĻáĢ¹áĢ¸ áĢŀáĢ¬
±áĢĲáĢ¼ áĢĶáĢ²áĤĶ
±áĢ ģáģļ
ĠáĢ±áĢĴáĢŀ áĢģáĢ¶
áĢĲáĢ½ áĢ±áĢ¡
ĠáĢķ áĢ°
ĠÐ· Ð°Ð½
à´¡ à´¿à´¯
áĥĲáĥª áĥ®áĥĲáĥĵ
à¯Īà®ļ à¯įà®ļ
ĠØ· ÙĪØ±
Ġnel la
æ¡ £
à¹Ĥà¸Ńà¸ ģà¸²à¸
Ġäºļæ¸¸éĽĨåĽ¢ ç½ĳç«Ļ
çĽ® åīį
åĬ ±
ä¸» ç®¡
åĲĮ æĹ¶
¡à¸ ·à¸Ń
ŀ à¸Ńà¸
áĪ Ŀ
èĤ¡ ä»½
æ¶ ¦
ªà¸¹à¸ ĩ
è® ¢
åĩ ¯åıĳ
à¤§ à¥Ģ
áĤĲ áĢ½
áģ¿áĢĻáĢŃáĢ³áĤķ áĢĶáĢļáĢ¹áĢ
ĠáĢĽ áĢ±áĢ¬áĢĢáĢº
ĠC unoaÈĻte
ĠR om
Ġà®ªà¯Ĭ à®°
×ł ×ķ×ª
íķľ ëĭ¤
li ca
Ġq ÉĻdÉĻr
à«ĭ àª®
Ġw ur
Ġmu u
Ġqu y
b yn
Ġk jo
à°µ à°¿
ĠOlu á¹£akoso
ĠEurope an
ĠD ia
ĠAn d
ï¿½ï¿½ ï¿½
Ã ľ
we ar
om en
ÑĬ ÑĢÐ¶
à¶ ¸
à¤¾à¤ ī
ĠÐ¿ÐµÑĢ Ð°Ðº
àµįà´¯ à´¤
áĢģ áĢı
der s
atun á¹£e
ar th
am b
OR I
Ġá»į gbin
Ġá»į gba
à¦ĵ à§Ł
ĠÅ¡ i
Ġyi yan
Ġs hi
Ġm ilionu
Ġj w
Ġir onu
Ġigbo hunsa
Ġhu gan
Ġha ve
[...]
