#version: 0.2
à ®
á ĥ
à ¸
à °
à ¤
à ¦
à ¯
Ġ Î
à¯ į
Î ±
à ±
áĥ Ĳ
à ¹
à ¥
Ġ Ð
Ġ à®
Ï Ħ
à §
Ġ áĥ
Î ¿
Ð ¾
à¯į à®
Ġ à°
à¸ ²
Î ¹
Ġ à¤
Ð µ
Ġ à¦
áĥĲ áĥ
à¸ Ļ
Î ½
à¯ ģ
Ð °
à± į
à¸ £
Î µ
Ġ Ø
à® ¿
Ġ .
ä ¸
à¤ ¾
áĥ ĺ
à¸ Ń
Ð ¸
à¦ ¾
à±į à°
à¹ Ģ
Ñ Ĥ
à¹ Ī
Ø §
à° ¿
áĥ Ķ
à§ ĩ
Ð ½
à¥ ĩ
à° ¾
à¦¾ à¦
Û Į
áĥĶ áĥ
à¤ °
à§ į
Ø ±
à¥ į
Ù Ħ
Ġà¤ ķ
Ġ ×
á »
Ġ Ù
à¤¾ à¤
à¥ Ģ
Ù Ĩ
á º
ã ģ
à¤ ¿
Ù ĩ
n g
É Ļ
× Ļ
Ġ d
Ġ t
Ù Ĭ
e s
Ġ ì
Ġ c
× ķ
Ã ©
ĠØ §
Ġ Ä
e n
Ä ±
ã Ĥ
n h
Ġ ë
ĠØ§ ÙĦ
o n
×ķ ×
Ġ l
i n
ì Ŀ
Ù ħ
Ã ¼
à®¿ à®
áĥĺ áĥ
Ġ à¸
à± ģ
ã Ģ
à§į à¦
à¯ģ à®
Ï ģ
à® ¾
Ï ĥ
à°¾ à°
áĥ Ŀ
ä º
Ġ å
Ñ Ģ
à®¾ à®
Ï Ģ
à¦ ¿
áĥĿ áĥ
Ï Ĥ
Ñ ģ
à¯įà® ķ
à°¿ à°
à¸² à¸
Î ·
ï ¼
Ð¾ Ð
à¦ °
£ áĥ
à¸£ à¸
Ï ħ
à® °
Ð »
Ĥ à°
à¹Ģ à¸
Î »
Ø ¯
à¯ Ī
Ġ ï¼
Ġ ãĢ
å ı
áĥĺáĥ ¡
à¹ ī
Ð º
à¦¿ à¦
à±ģ à°
à¸Ļ à¸
Ñ ĥ
à¸Ń à¸
Ù Ī
à° ¨
áĥĶáĥ ĳ
à§ĩ à¦
Ñ ı
à¥į à¤
à° Ĥà°
à¦ ¨
Ø ª
ł áĥ
à¤ Ĥ
à¦¾à¦ °
Ġd e
à¤¿ à¤
i e
à¥ ĭ
ĠØ ¨
ĠÄ ĳ
Ġ ê
à ´
à¤ ¨
ÉĻ r
Ã ł
e r
Ġà¤ ¸
×Ļ ×
Ã ¡
í ķ
Ġ p
Ú ©
Æ °
a r
ë ĭ
Ġ w
Ġ ,
Ø ³
Õ ¡
a n
Ġt h
ì ŀ
ã ĥ
ì Ĺ
Ġ v
ĠÙ ħ
Å Ł
Å Ĥ
Ġ í
× Ķ
o u
Ġ s
ìĿ ´
Õ¡ Õ
à® ¤
Ġáĥ Ľ
ģ à¸
à± ĩ
Ġï¼ Į
à§ ģ
à¯įà® ¤
Ġ ÏĦ
à® ©
Î º
à° °
áĥ ķ
å ®
æ ľ
Ñ ĭ
à® Ł
Î ¯
à§ Ł
áĥ £áĥ
Î ¼
Ð° Ð
® à¯į
à± ĭ
ĩ à¸
Ï Į
o m
Ðµ Ð
Ġà¦ ķ
Ġáĥ ¡
Ħ à¸
Î ¬
Ġà® ª
Ñ Į
à° ²
à¸ µ
Î¿ Ïħ
ĠØ ¯
à® ³
Ġc om
ç ļ
çļ Ħ
áĥĲáĥ ľ
± à¸
ĠÐ ¿
Ġà¦ ¸
à± Ģ
à¹Ī à¸
Ñģ ÑĤ
à¸ ´
Ġ Õ
à° ķ
Ġáĥ ĵ
Ġà¦ ¬
Ð ²
Ġà¤ ¹
Ġà° ª
à¦ ²
Ġ a
áĥ ¡
à¤ ķ
à¦ ķ
× ¨
Ġà¤ ®
Ø ²
à¤ ¤
o w
Ġ h
Ġ â
Ġà¤ ª
à¥ Ī
i l
Ġ Ã
Ø§ ÙĨ
à¤ ¸
Ġ z
Ġc h
ìŀ ¥
ãģ ®
c h
Ġ m
Ġ× Ķ
ëĭ ¤
Ø ´
Ġ b
ãģ Ħ
o s
Ø ¨
i á»
ê ³
i r
ì §
Ġ k
ĠãĢ ģ
t o
i s
ë Ĭ
× ľ
ĠÙ Ī
ãĥ ¼
ì Ħ
r e
Ġà® ķ
áĥ ł
¡ à¸
à± Ĩ
å Ī
Ġà¦ ª
à¯įà® ª
Ġ ÏĢ
ķ à¯įà®ķ
Ï ī
Ġà° ķ
Ġ áĥĲáĥ
Ġ æ
ç ½
ĠÐ ²
à® ²
ĠÎ º
à§ĩ à¦°
áĥ ļ
Ġ Ïĥ
Ñ ĩ
à¯Ī à®
à±įà° °
¥ à¸
Î Ń
å ¤
Ðµ Ð½
à§ ĭ
Ġáĥ Ĵ
à¹ Ħà¸
ĠÎ ±
à¯įà® Ł
Ġ Ñģ
à°¾à° °
à¹ ģà¸
Î ³
Ø§ ÛĮ
Ġà® µ
äº ļ
å ħ
å ½
áĥĶáĥ ļ
ª à¸
Ð ¼
à¦ ¤
Ġà° µ
à¹ī à¸
ĠÐ ½
¢ à¸
Ä± n
à±ĩ à°
áĥĲáĥ Ľ
à¦ ¬
Ð¾Ð ²
à¥ ģ
Ġà° ®
à§įà¦ °
Ġ n
áĥ ĵ
à¤ ¹
à¥ ¤
t i
à¤ ²
Ä Ļ
à¥ĩ à¤Ĥ
ãģ §
Ġ Â
ê °
à¤ ®
à¥į à¤°
ŀ ×
Ġt r
Ø ©
à¤¾ à¤°
Ø§ Ø±
Ġ nh
ëĬ Ķ
ÉĻ n
Ġ S
Æ° á»
ãģ Ĺ
¶ ľ
q u
Ġ Ú©
Ä ħ
u n
áº ¡
ãģ «
ì ł
× ª
ì ķ
i t
Ö Ģ
i y
Ú ¯
Ġì Ŀ
c z
áº ¿
i ch
¶ľ ìŀ¥
Ø ¹
Ġà® ®
áĥ Ľ
§ à¸
Ġà° ħ
ç½ ĳ
à¦ ®
à¯ ĩ
Î ®
Ġà® ħ
Î± Î¹
Ġà° ¸
áĥ ľ
Ġ ç
å Ľ
ĠÐ ¸
Ġà® ¤
Ï ĩ
Ġ à¥¤
áĥ ¢
ĠÎ µ
Ð ´
Ġà® ļ
à° Ĥ
à¹ Į
Î¹ Îº
à ¨
ĠÐ ¾
à§įà¦ ¯
áĥĲáĥ ĵ
à¸´ à¸
ĠÎ ¼
à® µ
Ñ ħ
à±įà° ¨
Ķ à¸
Ï į
a s
à¯ģà® ®à¯į
ä »
æ Ĺ
æ Ī
áĥĲáĥ łáĥ
à¹ ĥ
ĠÐ º
Ġà¦ Ĩ
à° ®
Ĺ à¸
Ðµ ÑĢ
ļ à¸
l l
â Ģ
Ġáĥ ł
à¦¾à¦ ¨
Ð° Ð½
Ġà¤ ¬
Ġà° ļ
à§ Ģ
Ġ×Ķ ×
áĥĶáĥ ľ
Ġà¤¹ à¥Ī
Ġà¦ ®
Ã ´
Ġà¤ķ à¥ĩ
l ÉĻr
à µ
Ã ³
e t
ë §
Ġà¤ ľ
Ġà¤ ¨
ãģ ¦
Ù Ĥ
en t
à¤ Ĺ
d ÉĻ
Ġ ãĥ
ì§ Ģ
Ġ T
Å ¼
Ġd i
Ġ g
ìĹ Ĳ
ãģ ¨
Ġ× ľ
t e
Ã ª
Ù ĥ
ãģ ª
íķ ĺ
Õ ¸
Ĥ ¬
a l
ĠØ ª
Ġk h
Ġ× ĳ
ë ¡
Ã Ń
r z
ĠãĢ Ĥ
ìĿ ĺ
Ġ -
à®¿à® ²
áĥĲáĥ ķ
Ġ à¹Ģà¸
à° ¤
Ġ 2
Ġà¦ ı
à®¿à® ¯
Î ´
Ġà® ĩ
Îµ Î¹
à°¾à° ²
áĥĲáĥ ¡
ä ¹
Ġa g
Ðµ ÑĤ
à¯ Ĩ
Î¹ Î±
Ġà¦ ¨
ļ áĥĺ
Ï Ĩ
ĠÐ ´
¨ à¯įà®¤
âĢ Į
° à¸
Î ¸
æ ¸
Ð ¿
à¦ ¸
Ġáĥ ĺ
à¹ Ĥ
ĠÏĦ Î·
Ġà® ¨
Ð¾ ÑĢ
Ġà° ¨
Ĺ à¸µ
Ï İ
ï ¿
ª à¯įà®ª
æ ĸ
w w
Ġ è
Ġáĥ ¨
¸ à¸
Ð° ÑĤ
Ġà¦ ¹
à°¿à° Ĥà°
ģ à¸²
Ð¾Ð »
à¸µ à¸
ï¿ ½
à±įà° ¯
áĥĲáĥ ł
Ġà¦ ¦
ĠÐ¿ ÑĢ
à¤ ª
à° µ
Ġ à§
u r
áĥ ®
Ġà¤ ħ
à§įà¦ ¤
e in
Ġà¤ ¦
d a
Ġà¤ µ
Ġ '
áº £
ì ĭ
Ġà¤ ²
Ġà¤® à¥ĩà¤Ĥ
i a
ãģ Ł
Ù ģ
Ġà¤ °
a y
Ġ A
Ġì ŀ
Ġ× Ĳ
Ġ o
Ġ ng
ãģ Ļ
ìĿ Ħ
Ġ f
Ġ un
Ø³ Øª
Å Ľ
á» Ļ
Ø Ń
ê ¸
ÉĻ s
´ ë
l ar
× ĳ
Ġ B
ãĥ ³
Ġ 1
Ġâ Ģ
Ġ D
r a
ì Ĭ
ãģ Į
à® £
áĥĿáĥ Ľ
Ī à¸
à° ¸
å½ ©
Ġà¦ķ à¦°
à® ®
ÏĦ Î±
à® ±
Ïģ Î¿
à° Ł
Ġáĥĵ áĥĲ
å ľ
Ġw ww
Ð¾Ð ¼
à¯įà® ±
ÏĦ Î¿
Ġà¦ ¤
Ġáĥ¡ áĥĲáĥ
ĠÎ ´
Ñ İ
Ġà® İ
à° ¦
à¹ĥ à¸
ĠÎº Î±Î¹
ãĢ Ĳ
Ð¸ ÑĤ
à¦ ¦
áĥĺáĥ Ĺ
« à¸
Ïģ Î±
à¯ ĭ
Ð½ Ñĭ
à° ª
à¸£à¸ µ
ÏĦ Î·
ĠØ ±
à¯įà®ķ à®³
åı ĳ
åĪ Ĩ
å ¹
áĥĿáĥ ĳ
ŀ à¸
Ð¾Ð ´
Ġà¦ ħ
à±įà° ¤
à¹Ĥ à¸
ĠÐ ¼
ķ à¸
áº ¥
à±įà° ²
Ġáĥ Ļ
à§ĩà¦ ¨
Ðµ Ð»
à¥ Ĥ
Ġà° ¤
à¦ ª
ti on
áĥĲáĥ ļ
à¤ ¦
à¦ Ł
Ġ y
à¤¾à¤ ¨
Ø§ ÙĦ
à¤ µ
× Ĳ
d z
ì ¶ľìŀ¥
à¥įà¤ ¯
à¥ĭ à¤Ĥ
u ng
Ä Ľ
Ġl a
Ġà¤ķ à¥Ģ
Ġp h
Ġn a
íķ ľ
ãĤ ĭ
Õ ¥
Ã ¶
ĠØ§ÙĦ Ø
Ġì ł
ĠÙ Ĩ
Ġ e
Ã ¢
×ķ× ª
Ã ¤
Ġ j
ì ļ
á» ĳ
ë ı
Ġ C
ãģ ¯
ĠØ¯ Ø±
Ġ et
ë¡ ľ
r o
Õ ¶
ÉĻ t
ê³ ł
t a
à®¿à® °
áĥ Ĺ
à¹Ī à¸²à¸
à° ¡
ĳ ãĢĲ
Ġà¦ ľ
à®¤ à¯įà®¤
ÏĦ Îµ
à® ®à¯į
ÏĢ Î¿
à°¿à° ¨
Ġáĥ Ĺ
è ½
ä ½
Ð ±
à®¿à®² à¯į
Ïĥ Î·
à¦¿à¦ ķ
áĥĶáĥ ¡
Ïī Î½
Ð° Ð»
à® ķ
à°¾à° ¨
à¸Ńà¸ ĩà¸
ĠÏĦ Î¿
æ¸ ¸
Ñ Ĩ
à¦¾à¦ ²
áĥ łáĥ
à¹ ĩ
Î¯ Î±
à®¤ à¯ģ
Ġ ÑĤ
à°¿à° ķ
à¸Ńà¸ ĩ
ĠÏĦ Î¿Ïħ
Ø§ Ø
à¯ Ĭ
å Ĭ
æ ī
å Ĳ
¨ áĥĺ
Ĺà¸µ à¹Īà¸
Ñ Ī
Ġà¦ª à§įà¦°
à° ¯
à¹Į à¸
Ġ ÑĢ
à¹ ĩà¸
Ġ M
à±įà° Ł
áĥĺáĥ ľ
à¦¿à¦ ¨
Ð ·
Ġà¤ Ĩ
à± Ĥà°
à¦ Ĺ
iá» ĩ
Ġáĥ Ķ
à¥ĩ à¤
Ġà¦ °
Ġp o
à¤¿à¤ ¯
Ġun d
àµ į
×Ļ× Ŀ
Ä Ł
ê° Ģ
à¤° à¥įà¤
à¤ ¯
ou r
ÛĮ ÙĨ
Ã ¬
Ġà¤ķ à¥ĭ
Ġ i
Ġ ÙĦ
ê ²
Ġ ãĤ
Ãª n
l e
u s
ë ¦
ãģ ¾
ĠØ ³
Ã §
Ã´ ng
Ġ in
i ÄĻ
Ġê °
Ġ N
ì ĥ
ĠÙ ģ
ĠâĢ Ļ
Ġ× ©
Æ ¡
Ī ëĭ¤
Ġ q
o r
ãĤ Ĵ
ìĿ ¼
ĠÙ ĩ
à®¿à® ©
áĥĶáĥ ł
à¸£ à¸²à¸
à±ģà° ²
ç Ķ
à¦¾à¦ ®
à®¾à® °
Î¼ Î±
à¯Īà® ¯
ĠÎ ½
Ġà° °
áĥĶáĥĳ áĥĺáĥ¡
ĠãĢ ĳãĢĲ
å® ĺ
Ð½ Ð¾
à¯ģà® ķà¯įà®ķ
Î½ Î±
Ġà¦ ¶
Ġáĥ ŀ
ĠÎ ¿
Ð¾Ð ³
à® ¯
à± Ī
Ł à¸£à¸µ
Ïģ Î¹
å į
Ð ¹
à¦° à§įà¦
áĥĲáĥ ª
ģà¸² à¸£à¸
ĠÎ ³
à¯ģà® ¤
Ñģ Ðº
à°Ĥà° ¦
Ġ à¹ģà¸
Î ²
ĠÄĳ á»
à®Ł à¯įà®Ł
æ ĺ
è ¿
è µ
áĥĺáĥ ļ
´ à¸
Ð ³
à¦¾ à§Ł
à±į âĢĮ
Ľ à¸
Ð¾ ÑĤ
¹ à¸
t en
Ġà° Ĩ
áĥĶáĥĳ áĥĲ
Ġà¦ ¯
Ð¸ Ñı
à¤¨ à¥ĩ
à±ģà° ¨
à¦ ¼
Ġ P
áĥ Ĵ
Ġà¤ ¤
à¦¿à¦ ¤
Ä ĩ
á Ģ
ĠØ ´
Ġà¤¸ à¥ĩ
Ġ Ãł
Õ «
ë ¥
Ġà¤ Ĺ
Ġà¤ķ à¤°
ÉĻ l
i c
áº Ń
à¤ ¬
ĠØ £
× ©
Ġ (
Ġv á»
ãģ ĭ
k a
Ġl e
ì ľ
ÙĨ Ø¯
Ġ ein
Ġ :
Ö Ĥ
ï¿½ ï¿½
Ã¼ n
Ġë °
Å Ļ
ê¸ °
i on
ãģ £
á» §
g o
Ġì ķ
ãĥ¼ ãĥ
Ġv ÉĻ
Ġ L
Ġ "
a k
à®¾à® ©
áĥĶáĥ Ľ
± à¸Ļà¸
à± Ĭ
è ®
à¦¿ à§Ł
à® Ļ
Î ĳ
à® ¨à¯įà®¤
ĠÎ ĳ
à±ģà° Ĥà°
Ġáĥ ¬
İ ¯
å ¿
Ð¾Ð ¹
à®¾à® ķ
ĠÎ¼ Îµ
à¦ ¹
áĥĿáĥ ¡
Î½ Î¿
ĠÐ ±
à®¿à® ±
à±ģà° ķ
Ĭ à¸
ÏĦ Î¹Îº
ä¸ ĭ
ÐµÐ ¼
à¦¾à¦ ķ
áĥĶáĥĳ áĥĺ
· à¹Ī
ĠÎ½ Î±
à¯ Ģ
ĠÐ½ Ð°
Ġà°ª à±įà°°
³ à¸
ĠÎ ķ
Ġ en
à®° à¯į
æĹ ¶
Ġå ¤
ç «
Ġáĥ £áĥ
à¸£à¸ ±à¸
Ð° Ðº
Ġà¦ Ĺ
Ĺ à°¾
à¸£à¸ °à¸
Ð¾ Ð½
à¹ī à¸²à¸
ĠØ¨ Ùĩ
à°¿à°Ĥà° ļ
áĥĿáĥ ľ
Ľ à§ĩ
Ð¸ Ð½
Ġà¤ ī
à°¾à°° à±ģ
à§ģ à¦
Ġv Ãł
áĥ£áĥ ł
Ġà¤ Ń
à¦¾à¦ ¦
× ł
à ¶
z y
à¤ ľ
e l
ãĤ Ĭ
ìĦ ľ
Ġà¤ ĩ
à¤ ¡
ĠØ ¹
i o
Ġde r
à¤ Ł
Ã³ w
áº §
ì Ľ
ÉĻ k
ãĤ ¹
ĠØ ¢
Ġ qu
Į Ģ
Å ¾
rz e
Ù ī
o l
ãĤ Ĥ
Ġ× ŀ×
ê µ
Ġ F
ì ĸ
ĠØ Į
Õ¸ ÖĤ
a q
Ġ ãģ
ë Ĥ
Ġ x
m ent
k i
ì Ĥ¬
Ġ E
à¯įà® ļ
áĥ §
à¹Ī à¸²
à°¨ à°¿
İ¯ äºļ
Ġà¦ ļ
à® ªà¯įà®ª
ĠÎ ł
à® ļ
Î ¾
à°° à±įà°
áĥĺáĥ ĵ
ä¸ Ģ
äº º
ÐµÐ ´
Ġà®İ à®©
Î Ł
à§įà¦ Ł
Ġáĥ ķ
Î¼ Îµ
Ð° ÑĢ
à¯ģà® ķ
Ġà° ¬
à¹Ħà¸ Ķ
Î Ļ
Ġ é
ĠÐ ·
¯ à¦¼
Ġáĥ ĳ
à¹ī à¸²
ĠÎ Ń
Ġà® ī
Ġ Ñĥ
Ġà° ¦
Ħ à¸£à¸
ÏĢ ÏĮ
Ġd o
à¯ Ĥ
ç »
ç ī
å ¼
ĠáĥĲáĥ ł
Ĺà¸µ à¹Ī
Ñ Ħ
Ġà¦¬ à¦¿à¦
Ġà° ĩ
ľ à¸
Ñ ī
à¸Ń à¸Ļ
i áº¿
² à±ĭ
áĥĶáĥ ķ
à¦¾à¦ ¤
Ð°Ð ²
à ·
Ġà° ī
à§įà¦ ¬
r i
áĥĶáĥ Ĺ
à¤¿à¤ ķ
à¦¿ à¦°
Ġ K
àµį à´
ĠØ ®
Ġà¤ Ķ
Ġd es
× ĵ
ì ²
Ġ à´
Ġà¤Ķ à¤°
n e
ãģ Ĩ
d Ä±
Ġà¤ ¯
z ion
Ġl Ãł
ë ĵ
ÙĪ Ø¯
Ġd ie
ãĥ ĥ
n ÃŃ
ìĿ Ģ
Ġ W
a t
Ø ¬
ãĤ Į
Ã¡ c
Ġp er
£ ¼
Õ¡Õ ¶
Ġ )
ÉĻ m
y ch
Ã ¨
d o
ìĬ ¤
× ¢
i m
ãĤ ¤
Ġê ²
Ġ H
à®¿à® Ł
áĥĺ áĥĲ
± à¸Ļ
Ġà° Ĺ
ä ¼
à¦ ľ
à®¾à® ²
Î» Î¿
à®© à¯į
ÏĦ Î¹
à±įà° ª
áĥĲáĥ ®
åĽ ½
§ åıĳ
Ð°Ð ¼
à¯įà® ²
ĠÎº Î±
à¦ ĩ
áĥ£áĥ ļ
ĠÏĦÎ· ÏĤ
Ð¸ Ðµ
à® ´
à°¨ à±įà°¨
ģà¸² à¸£
Îµ Î¯
å °
Ð°Ð ·
à¦¾à¦ ¬
Ġáĥł áĥĿáĥĽ
ļ à¸Ńà¸
Îµ ÏĤ
à® ķà¯įà®ķ
Ñģ Ñı
à° Ĺ
° à¹Ģà¸
ĠÎ £
Ø§ Øª
à®¿à® ķ
é Ģ
æľ º
é Ļ
áĥĲáĥ Ĺ
¡ à¸²à¸
Ð ¶
à¦¾à¦ ¸
Ġà° İ
ĸ à¸
Ð» Ð¸
à¹Ħà¸ ¡
Æ°á» Ŀ
à°ķ à±įà°
áĥĲáĥ ¢
à¦¾à¦ ĩ
ĠÐ ³
à¤¾à¤ ²
à°¾à° ¯
à¦ Ĥ
a m
áĥ£áĥ ļáĥĺ
ç º
Ġà¦ ī
Ġl es
è §
y m
Ġà¤ ı
Ø§ Ùħ
Ġo l
Ġì Ĺ
à¥ģ à¤
Ġà¤ķ à¤¾
Ġc on
× Ĺ
Ġth á»
Ġà¤ª à¤°
Ġ G
ãĤ ī
ë§ Ī
Ã ½
n i
ÙĪ Ø±
d ir
ìĿ ¸
d er
ãĥ Ī
r Ã©
c i
u y
ĠØ§ÙĦ Ùħ
Ŀ ¼
ãĤ ĵ
Ī ĺ
ĠØ¨ Ø§
i z
Ġ× ķ
n ie
Ġì ĺ
ãģ ı
h r
Ġt á»
ë¦ ¬
ll a
à¯įà®ķà®³ à¯į
áĥ ĳ
Ġà¸ ªà¸
¦ à°¿
è ¯
Ġà¦ ĵ
à¯ģà® µ
ĠÎ ļ
Ġà® Ĩ
Î¿ Ïį
Ġà° ľ
áĥĲáĥłáĥ Ĺ
Ġ 0
è½ ½
Ð¾ Ñģ
à®£ à¯įà®Ł
ĠÏĦÎ· Î½
Ġà¦ Ń
áĥĶáĥ łáĥ
Î £
Ð¸ Ðº
à®¿à® ¤
à°Ĥà° Ł
Ľ à¹ĩ
Î ¶
ä¸ĭ è½½
Ġ Ñĩ
à¦ £
áĥĶáĥ ĵ
§ à¸²à¸
Ïİ Î½
à®¿à®© à¯į
Ð¸ Ð¼
à±ģà°¨ à±įà°¨
à¸Ļà¸ µ
Î± Î½
l Ä±
à®¿à® ķà¯įà®ķ
á ŀ
ä¸ Ń
Ġå¤ §åıĳ
Ġáĥ ľ
à¸Ļ à¹Ģà¸
ĠÐ Ł
à§ĩà¦ ķ
Ġà°ļ à±ĩà°
à¹ĥà¸ «
ÑģÑĤ Ð²
ĩ à¹Ģà¸
an t
à°¿à° ¤
ĸ áĥĶ
à§ ľ
Ð¾Ð ±
à¤ ļ
à±įà° µ
à¦¿à¦ ²
ãĥ «
áĥĿáĥ ķ
Ġà¤ª à¥įà¤°
à§ģ à¦²
ĠÙ ¾
Ġà¤ ļ
c j
à¥įà¤ ¤
Ľ i
ÉĻ y
ëı Ħ
à¤ ¼
t er
× §
ÙĬ Ø©
ãģ į
c e
áº¥ t
u f
ì ĺ
Ġ il
Ø§ Ø¯
Ġn ie
ãĤ ¯
Ġë §
Ġ es
Ä į
Ġà¤ ¶
Æ°á» £
ãĥ ©
d i
ë ħ
Ġw y
ê ±
Ġ /
ãģ ĵ
ÛĮ Ø¯
à¤¾à¤ ¤
ìĭ ľ
× ¤
e it
d ÉĻn
Ġì ĭ
Ġz a
à¯įà® ³
áĥ ª
Ġà¸ ª
¸ à±įà°¤
äºļ æ¸¸
à§ĩà¦ ²
à®¾à® ¤
ĠÎ ¤
à® ª
Î¯ Î½
¡ à±ģ
áĥ Ļ
å Ĩ
ç ¥
ĠÐ ¡
à¯įà® µ
Î ķ
à§ĩà¦ ¶
áĥ ¥
Ġ ÏĮ
Ð¾Ð³ Ð¾
à¯ģà® ®
à°Ĥà° ¤
ģ à¸£à¸
ĠÎ³ Î¹Î±
æĺ ¯
ĠÐ Ĵ
§ à§
áĥĺáĥ ł
à¹Ħà¸Ķ à¹ī
ĠÎ ľ
Ġà®ļ à¯Ĩ
Ð» Ñı
Ġà°µ à°¿à°
ĩà¸ ´
Î» Î»
áº¡ i
à®² à¯į
å®ĺ ç½ĳ
å İ
å¿ «
áĥĿáĥ ĵ
Ĥ à¸
ÐµÐ ¹
à§ģ à¦°
à° ļ
Ħà¸ §à¸²à¸
Ð° Ñı
à¹ĥ à¸Ļà¸
v e
à±ģà° ¤
Ġáĥ ®
à§įà¦ ·
Ñ į
Ø ·
Ġà° ²
à¦¾à¦ ľ
à¤¿à¤ ²
áĥ ¨áĥĺ
ÅĤ a
à¦ ¶
ãģ¾ ãģĻ
s ch
Ġqu e
Ä ĥ
Õ¥ Õ
l i
ë °
à¤¿à¤ ¤
Ġ Ã©
d en
ÖĢ Õ
a ÅŁ
Ø ®
Ġg i
ãĥ ª
ìķ Ī
× ŀ×
Å ¡
t y
Ġà¤¹ à¥ĭ
í Ĭ
Ġ I
ãģĹ ãģ¦
Õ¸ÖĤ Õ
Ġc á»§
ar e
Ġ2 0
Ġì Ħ
n a
ë¥ ¼
åľ ¨
çº ¿
à¤¤ à¤¾
ĠØ§ Ø²
ì ¹
ãģ ķ
Ġe l
ĠÃ §
íķ ´
Ġs iÄĻ
à®¾à® Ł
Ġáĥ ¥
à¹Ī à¸Ļ
à°¨ à±ģ
æī ĭ
Ġà¦ª à¦°
à¯įà® ©
ĠÎ± ÏĢÏĮ
à¯ģà®¤ à¯įà®¤
ĠÎ ·
à°ķ à±ģ
áĥķ áĥĶáĥļ
å º
å ·
ĠÐ °
à¯ģà® Ł
ĠÎ ¸
Ġà¦ı à¦ķ
áĥĺáĥ ª
Ġ Ïĩ
Ð¸ Ð¸
à®² à¯įà®²
à±Ĩ à°²
Ķ à¸´à¸
ÏĦ Î¬
å¤ §
Ðµ Ðº
à¦¤ à§ĩ
Ġáĥ ¤
¡ à¸µà¸
Ïģ Î¬
Ġà®ĩ à®°
Ð¾ ÑģÑĤ
à±įà° ļ
· à¸Ńà¸
ĠÏĥ Ïħ
ou s
à®Ļ à¯įà®ķ
æ Ŀ
å ¸
é ĩ
áĥĿáĥ ļ
Ġ à¹Ĥà¸
Ð°ÑĤ ÑĮ
Ġà¦ ²
Ġ. .
à¹ī à¸Ńà¸
Ð° Ñģ
ļà¸Ńà¸ ¥
Ġ R
à°ª à±įà°ª
Ġáĥ ©
Ġà¦ ¥
Ð¾Ð º
Ø µ
à°² à±ģ
à¦ ļ
Ġà¤¹à¥Ī à¤Ĥ
áĥĿáĥ ł
Ġc Ã³
à¦ Ń
Ġ× ¢
Ġch e
g e
Ġ u
Ġm Ã¼
ÉĻ h
Ġê ³
à¥įà¤ Ł
Ġa u
Ã º
ĠÙ Ĭ
a z
o v
ĠØ¨ Ø±
o ÅĽ
ë ³
à¤¿à¤ ı
Ġcá»§ a
× ŀ
ÉĻ b
ë ¶
g en
ãģ£ ãģ¦
a u
zion e
Ã³ n
ãģ Ĥ
ì £¼
e m
í Ļ
à¤¿à¤¯ à¤¾
Ġ Ã¼
j Äħ
an s
íĬ ¸
ĠÙħ ÛĮ
ĠÙģ ÙĬ
Ġd a
ë ł
ãģ§ ãģĻ
à®± à¯įà®±
áĥ ¬
à¹Īà¸ ĩà¸
à°² à±ĭ
å Ń
à¦¨ à§įà¦
Ġà® Ĵ
ĠÏĢ Î¿Ïħ
à®³ à¯į
Î¹ Ïĥ
à°¿à°ķ à°¿
áĥĶáĥĳ áĥ¡
æ Ĭ
æ ³
Ð¾Ð ¶
à®¿à® µ
ÎŃ ÏĤ
à¦ §
ĠáĥĲáĥ Ľ
Ïģ Î¯
ĠÐ ļ
à¯ģà® ±
à°¿à° ¯
Ġ 3
ĠÎ Ķ
ç ľ
ĠÐ »
Ġà¦¸ à¦®
áĥĿáĥ Ĵ
ļ à¸²à¸
ÏĦ Î±Î¹
à¤¹ à¥Ģ
Ð¸ Ð»
à°¿à° ª
¥à¸ °à¸
Î¹ Î¿
ĠÄ Ĳ
Ġà®ª à¯ĭ
å¹ ³
æľ ī
å ¥
áĥĵ áĥĲ
ĭ à¸
ĠÐ¾ ÑĤ
Ġà¦¹ à§Ł
à°Ĥà° ¡
±à¸ ĩà¸
ÑĤ Ð¾
à¸£à¸ ´à¸
× Ľ
à±įà° ¸
áĥĿáĥ łáĥ
à¦¾à¦ ¹
ĠÐ½ Ðµ
à¤¿à¤ ¸
à±įà° ®
à§ĩà¦ Ľà§ĩ
Ġh á»
áĥĺáĥ ¢
Ġp our
Ġà¦ ĩ
Ġ r
à®¾à®° à¯į
Ġs e
rz y
Ġà¤ĩ à¤¸
b er
Ġì §
ÛĮ Ø±
in in
ĠÙħ ÙĨ
ãģ ł
e j
Ġs u
Ġà¤¨ à¥ĩ
Ã £
ĠìĿ ´
Ġb ir
ãģĹ ãģŁ
Ġ V
× Ŀ
Ġë Ĥ
Ġp ar
à¤¾à¤ ®
w a
Ġ Ú¯
e i
à¤¾à¤ Ĥ
ëĭ Īëĭ¤
qu e
ìŀ Ĳ
o ng
Ġp rze
Æ ı
z a
ìľ ¼
Ġãĥ »
à¤¨ à¤¾
Ã¼ r
Ġë ĭ
ÙĬ ÙĨ
Ġà®ħ à®µ
Ġáĥĵ áĥĲáĥ
Ī à¸²à¸
à± Ĥ
Ġ à¨
Ġà¦ «
à®¾à®© à¯į
ÎŁ Î
à®¿à®¤ à¯įà®¤
ĠÏĢ ÏģÎ¿
à° ¹
áĥĺáĥ Ļ
æĸ ¹
åı °
Ð¸ Ð¹
à®© à¯įà®±
Îµ Î½
à§ ¦
ĠáĥĴ áĥĲáĥĽ
ĠÎµ ÏĢ
ÑĢ Ñĥ
à¯ģà® ³
à° ľ
¥ à¸²à¸
Ïģ ÏĮ
8 8
Ð¸ Ð²
Ġà§ ¨
Ġáĥ Ŀ
Ľ à¸£à¸°à¸
Î® ÏĤ
Ø§ Ùĩ
Ġ Ñį
à±ģà°² à±ģ
· à¸Ń
ĠÏĥ ÏĦÎ¿
Å ¯
à®¾à®² à¯į
ä¸ į
å ĩ
é Ľ
áĥłáĥ Ĺ
ģà¸ ±à¸
ĠÐ¾ Ð±
à§ ĥ
à°¾à° Ĥà°
à¸£à¸µ à¸
ÐµÐ» ÑĮ
¶ à¸
m e
à°¿à° ²
áĥĺáĥ ķ
Ġà¦ ĸ
Ðµ Ñģ
e y
à°¾à° ¤
à§ Ĥ
á» ĭ
áĥĶáĥ ¢
à¤¾à¤ ¯
à§ĩà¦ ĩ
k u
al e
Ġà®ķ à¯Ĭ
Ġ× Ľ
l ich
iy y
ìĽ Ĳ
à´ ¿
à¤ §
ĠØ ¬
ãģ ĳ
ĠT h
es s
ci Ã³n
Å¼ e
ë Ŀ¼
Ã¬ nh
ĠÄ °
ãĥ³ ãĥ
åľ¨ çº¿
Ġê ·
Ġes t
Ġà¤ «
Ġg Ã¶
d e
áº ¯
ĠØ§ Ø³Øª
Ġì Ĥ¬
es t
ì Ĩ
é ¢
ãĤ ¢
Ġde l
×ķ× ¨
Ĥ °
d an
Ġà¤ı à¤ķ
Ø ¶
ë ŀ
Ã¢ n
à¯ģà® ¨à¯įà®¤
áĥĺáĥ Ľ
¡ à¸²
à°¿à° °
å ¾
à¦Ł à¦¿
à¯Īà® ķ
Î Ĺ
à¯ģà®ķà¯įà®ķ à¯ģ
Î¿Ïħ Î½
à°Ł à±įà°Ł
áĥķ áĥĺáĥ¡
p p
è ¡
Ġ ÑģÑĤ
Å Ħ
Ïģ Î³
Ġà¦Ĩ à¦®
Ġáĥ ¢
Î¼ Î¿
Ð¸ Ñĩ
Ġz u
à° ¬
à¹ī à¸Ļà¸
Ïĥ ÎµÎ¹
à¤ £
Ð°Ð ´
à¦¾à¦ ª
áĥĶáĥ Ĵ
§ à¸´à¸
Îĳ Î
h o
ÐµÐ ²
à°¾à° ®
ĵ à¸
ĠÏĦ Î±
i b
iá» ģ
æīĭ æľº
Ġï¼ ļ
ç Ľ
áĥĶáĥļ áĥĺ
± à¹īà¸
Ð¾Ð» ÑĮ
Ġà¦ Ľ
à°Ĥà° ²à±ĭ
à¹ĥà¸ Ĭ
ĠÐ¿ Ð¾
ł à¸²à¸
Ġà®İà®© à¯įà®±
Ġà° Ī
áĥ ¨
à§įà¦ ª
ÐµÐ ³
ow an
à°¾à° Ł
à§įà¦ ¥
Ġ ÅŁ
ĠáĥĴ áĥĲáĥľ
Ġà¤ ¥
Ġà¦¬ à¦²
ÙĦ Ùī
t re
à®¾à® µ
á» ¯
k o
Ġ Û
Ġë ª
Ø± Ø¯
ãĥ³ ãĤ
ĠÃ ¨
a ng
Ġà®ħ à®¤
in dÉĻ
Ġ× Ļ
Ġp ÅĻ
ë ©
à¤¿à¤ ¨
d y
Ġd u
ãĤ Ī
Ġê ¸
Ġpo r
s t
Ġà®ļà¯Ĩ à®¯
Ġà¤ ĸ
ãĥ¼ ãĤ
Ú Ĩ
ì² ľ
ie r
Ġì ¹
ĠÃ ¶
Ġa l
Ù İ
ãĥ ¬
Ġë ³
ĠÙ ĥ
Ġ |
é Ĺ
Ġì Īĺ
Ã ²
à¯įà® ®
áĥĲáĥ Ĵ
à¸Ń à¸²à¸
à°¾à° ķ
å Į
Ġà¦ Ł
è§ Ĩ
ĠÎ ²
à¤¾à¤ ¦
ĠÏĥ ÏĦÎ·
à° £
áĥĺáĥ Ŀ
Ġ 5
à ©
ĠÐ Ŀ
a tion
Î» Î·
à¦¿à§Ł à§ĩ
áĥĺ áĥĲáĥľ
Ġ ÏĨ
Ð¸ ÑĢ
× ĺ
à°ķà±įà° ķ
à¸Ń à¸£
ĠÏĢ Î±
äº Ĩ
ĠÐ ł
Ġà¦ħ à¦¨
áĥ ŀ
Ĥ à¸Ńà¸ĩà¸
Î± ÏĤ
à®¾à® ¯
ĠÐ ľ
Ġà° Ń
à¸² à¸Ļà¸
ĠÎ Ł
á» ±
æĹ ¥
è ´
a pp
å¹³ åı°
áĥ ¦
à¸Ńà¸ ¢
ÐµÐ½ Ð¸Ñı
Ġà§ §à§
Ġà° ¶
¨ à¸
Ð¸ÑĤ ÑĮ
à¹ī à¸Ļ
ow a
à±ģà° °
áĥĺáĥ ļáĥĺ
à¦¿à¦ ¬
Ð¸ Ð·
ĠØ Ń
à°Ĥà° Ĺà°¾
à¦ ¯à¦¼
a b
áĥ £
à®Ļ à¯įà®ķà®³
Ā Ā
ãģ Ĭ
à¥įà¤ µ
ir e
i ÅŁ
j e
m a
ë ¬
Æ°á»£ c
è ¨
à¦ ¥
à®¾à® ³
à ¬
é¢ ĳ
is t
ĠØ§ ÛĮÙĨ
ì Ĥ°
à¤¤ à¥ĩ
Ġà®ª à¯Ĩ
Ġun e
ãģª ãģĦ
Ġê µ
k ie
c o
ĠØ ¥
Ä± r
ãģ£ ãģŁ
à´¿ à´
0 0
á» ¥
ìĸ ´
Ġ ï¿½
Ġ ï¿½ï¿½
å ±
è ¦
í Ķ
Ġà® °
ich t
× ¡
Ġì ¶ľìŀ¥
Ġo d
Ġ an
Ġáĥ ª
Ľà¹ĩ à¸Ļà¸
à°° à±į
å Ŀ
à§ĩà¦ Ľ
Ġà¤Ń à¥Ģ
Î¼ ÎŃ
ĠÙ Ĥ
Î½ Î·
à°¾à°² à±ģ
áĥĲáĥ ĺ
á ł
Ġç İ¯äºļ
ĠÐ ŀ
à®¿à®Ł à¯įà®Ł
ĠÏĥ Îµ
à¦¬ à§ĩ
áĥĺáĥ £áĥ
Î¿ Î»
Ð¾Ð ·
à¤ ¶
Ġà° ¹
Ġà¸ Ħ
Ġ Ïħ
æ Ģ
Ð°Ð» ÑĮ
z ÉĻr
áĥļ áĥĺáĥ¡
à¹ Ĩ
ĠÎ »
á» ©
ĠÐ² Ñĭ
à°ļ à±įà°ļ
ĩà¸´ à¸Ļà¸
ĠÎ± Î½
Ġj e
ÉĻ d
Ġ äºļæ¸¸
ä¸ ī
2 0
áĥĲáĥ ¨áĥĺ
à¸Ļ à¹Į
Ðº Ð¸
à®¾à® ®
à°¾à° µ
Ħà¸ ¸à¸
Ðº Ð°
Ġà¸ ŀ
ll e
à±ģà° µ
ĠÂ Ń
Ġà¦ķà¦° à§ĩ
Ð°Ð ±
Ġà®Ĵ à®°
à° ³
Ġl os
ï ½
Ġáĥ §
Ġc Ã¡c
é ĸ
ĠÚ© Ùĩ
Ġà¤ķ à¤¿
Ġ20 1
Ö ģ
Õ¸ Õ
i k
¹ Ħ
Ġ re
à¦¿à¦ ¸
å® ¶
Ġ O
à¤ Ī
ãģĻ ãĤĭ
× Ĵ
ä¹ Ĳ
ë§ Į
Ġà®µ à®°
ä¸ Ĭ
l a
à¦ķ à§ĩ
í ĸ
à¤¾à¤ ¸
á»Ļ t
Ġp ro
ÙĬ Ø±
à®³ à¯įà®³
à¦ ĸ
Ġìŀ Ī
ç İ
¯ ¸
Ġt o
Ġd as
à¥ Į
ä ¿
Ġë ĮĢ
Ļ à§įà¦
n o
a h
Ġì ĥ
ÛĮ Ùħ
Ġd Ã©
áĥĲáĥ Ļ
Ł à¸
à±Ī à°¨
å¼ Ģ
ãģ ©
à¦ ĵ
Ïī ÏĤ
à®¿à® ªà¯įà®ª
ÏĦ Î®
à° §
Ġáĥŀ áĥł
ç« Ļ
ç Ļ
Ð½Ñĭ Ðµ
è§Ĩ é¢ĳ
Î¬ Î½
Ġà¤² à¤¿à¤ı
Ġáĥĺ áĥ¡
Îµ Ïħ
ĠÐ µ
Ġ Z
à°¿à°Ĥà° ¦à°¿
Ġà¸ Ĺà¸
ÏĦ ÏĮ
è Ģ
Ð½Ñĭ Ñħ
Ø§ Ø¨
áĥ£áĥł áĥĺ
à¹ī à¸Ńà¸ĩà¸
ĠÏĦ ÏīÎ½
c a
Ð¾Ð ¿
à° Ń
à¹Ħà¸ ¥
Ïĥ Îµ
Ġch o
Ġ× ŀ
Ġc n
ï¼ Į
ĥ ½
áĥĽ áĥĲ
à¸Ļ à¸²à¸
Ð¸ Ñħ
Ġà®µ à¯ĩ
à±ģà° Ĺ
ģ à¹Ģà¸
Ð°Ð ¹
Ĺà¸ ¢
on t
à°° à°¿à°
ĠáĥĽ áĥĿáĥ
à§ĩà¦ ĸ
ÐµÐ ·
dÄ± r
à°¾à° ¦
à¤ Ń
Ġs p
Ġáĥ ļ
ÙĪ ÙĨ
Ġkh Ã´ng
à¯ģà® ªà¯įà®ª
à¦¨ à§įà¦¤
lar Ä±n
c k
ãģ Ī
Ġ ro
ë ª
à¤° à¥Ģ
Ġà¦ľ à¦¨
g g
Ġà®ĩ à®¨à¯įà®¤
i nh
ãģĭ ãĤī
ÙĦ ÛĮ
Ġm it
ë ĮĢ
Ġs ur
æ °
Ġk i
à¥ĩà¤ ¶
ê± ¸
à¯ĩ à®°
c y
Ãł y
à§ĭ à¦¨
×Ļ× ª
éĹ ¨
ìł ķ
Ä± ÅŁ
í ĺ
è Ĥ
ic a
6 5
æ µ
í Ĩ
Ġv on
ª à¯į
à¤Ĥ à¤Ĺ
ê² Į
s z
t Ã©
áĥĲáĥ ļáĥĺ
Ġà¸ ķ
à°¨ à±į
æ ķ
Ġà¦¬ à§įà¦¯
ĠØ§ÙĦ Øª
Î¯Î½ Î±Î¹
Ġ Ô
ÎĻ Î
Ġà° ı
áĥĶáĥ ¥
éĽ Ĩ
æ ŀ
Ð½Ñĭ Ð¹
l ÉĻ
Î» Î±
ĠØ± Ø§
áĥĺáĥ łáĥ
Î¿ Î½
ÑĢ Ð°
an o
Ġà° Ł
« à¸Ļ
ĠÎµ Î¯Î½Î±Î¹
å Ĵ
Ð¸ Ñģ
á» Ł
áĥĶáĥĳ áĥ£áĥļáĥĺ
Ġ 4
ĠÏĢ Îµ
å° ı
Ð½ Ð¾Ð¹
à°¿à° µ
±à¸ ģà¸
Ïģ Îµ
à¤¾à¤ ľ
à¯Īà® ķà¯įà®ķ
æ ´
å ¯
ç İ¯äºļ
áĥĶáĥĳ áĥĺáĥĹ
à¹ĥà¸« à¹īà¸
ĠÐ Ĳ
k an
Ġà° Ĵ
à¸Ń à¸Ńà¸Ļ
ĠÐ Ķ
à¸£à¸±à¸ ļà¸
Ġpar a
Ġà°ļ à±Ĩ
áĥĶáĥľ áĥ¢
Ġà¦¨ à¦¾
Ġ ÑĦ
ÅĤ o
Ġà°¸ à°Ĥà°
ä¹ ħ
à¥ ī
áĥ£áĥ łáĥ
i j
Ġd en
Ġ Q
à§ģ à¦¨
a is
k y
à®¿à® ´
a x
ê³ ¼
à§įà¦ ²
×ķ× ľ
Ø °
on o
à¯ģà®³ à¯įà®³
à¤ķ à¥įà¤
Ġd ans
u e
Ġë ¶
c ie
ãĤ ģ
Ġà¦¬ à¦¾à¦
iá»ĩ n
ìķĪ ë§Ī
Ġà¦ ¡
n ÄĽ
ĠâĢ Ŀ
Ġd ÉĻ
à®ªà¯įà®ª à®Ł
u t
Ġê· ¸
à§Ģ à¦°
ìĦ ±
Ġ ÛĮ
à¤¹à¥Ģ à¤Ĥ
ãĤ Ħ
an d
ìĹĲ ìĦľ
à®¤à¯įà®¤ à®¿à®²à¯į
Ø £
Ã ¹
ëĵ ¤
à¤ķ à¥ĩ
da d
Ġáĥ¡ áĥĲáĥĽ
ľà¸ ¹
à°¾à° Ĺ
æĪ ·
Ġà¦¤ à¦¾à¦°
Ġm o
Î ¡
é ģ
Î¯Î± ÏĤ
¡ à°¾
áĥĲáĥ ¨
åĽ ¢
ç½ĳ ç«Ļ
Ð° ÐµÑĤ
as Ä±n
Ï Ī
à®° à¯įà®ķà®³
áĥ® áĥķ
Î¿Ïħ ÏĤ
Ð½Ð¾ ÑģÑĤ
Ġ×© ×ľ
à±ĩà° ¦
à¸Ńà¸Ńà¸Ļ à¹Ħà¸¥
ĠÎ ĵ
ç Ĳ
ĠÐ¸ Ð·
Ġ U
áĥĲáĥ ¥
à¹ĩ à¸Ńà¸
ĠÎ± Ïħ
à¤¡ à¤¼
ÐµÐ½ ÑĤ
à±įà° ¦
à¹īà¸ §à¸
ÏĥÎ· ÏĤ
áº ·
à®® à¯įà®ª
æ Ķ
à ª
ç §
áĥĲáĥ ĸ
à¹Ħà¸¡ à¹Īà¸
Ð½ Ð¾Ð³Ð¾
ÙĪ ÙĦ
à°Ĥà°¦ à°¿
ªà¸ ¸à¸
ÐµÐ½ Ð¸Ðµ
Ħà¸§à¸²à¸ ¡à¸
w o
Ġà°¤ à±Ĩà°²
áĥ ĸáĥĶ
à§ĩà¦ķ à§ĩ
ĠÐ´ Ð»Ñı
u l
à°¾à° ľ
Ġà¤µ à¤¿à¤
à®° à¯įà®ķà®³à¯į
áĥĶáĥ Ŀ
in i
Ġn e
à¤¾à¤ ¹
à¦ķ à§įà¦·
Ġ er
ãĥ ķ
dz ie
ĠÄĳ Æ°á»£c
Ġ íķ
Ļà§įà¦ Ĺ
à®¾à® ®à¯į
Ø± ÛĮ
ãģĵ ãģ¨
æĪ ı
à¤¸ à¥ĩ
ÉĻ lÉĻr
a d
ìľ¼ ë¡ľ
à¯ģà® °
s e
à¦ Ľ
ĠÙĪ Ø§ÙĦ
ìķ Ħ
à§įà¦ ®
cz y
× ¦
Ġp l
Ġà® ı
Ġï¼ ī
Ġê° Ģ
à§ĩà¦ Ł
íĻ Ķ
ch en
àµ ģ
i Ãªn
ĠØ ²
Ġì ľ
à®¾à®Ł à¯įà®Ł
Ġ J
ãĥ Ń
ì ½
æ¸¸ æĪı
ĠâĢ ľ
áĥĺáĥ ĸ
à¹Ī à¸Ļà¸
à±Ĥà° °
æ İ
Ġà¦ı à¦¬
Õ µ
Î ¤
as Ä±
Ïģ Î·
Ġà°ħ à°¨
áĥĺáĥ ¨
åĴ Į
à¥įà¤¯ à¤¾
Ñĥ ÑĤ
Ùĩ Ø§
ĠÎ ¬
i en
áĥĿáĥ ¤
Ïģ Ïī
Ð°Ð ¶
Ġà®µ à¯Ĩ
Ġà°ķ à±Ĭ
à¸² à¸£
Î Ŀ
å¹ ´
Ñĥ Ð´
c an
Ġáĥ¡áĥĲáĥ ¥
Ĥ à¸Ńà¸ĩ
ĠÏĦ Î¹
çľ ĭ
Ñİ ÑĤ
à±įà°² à±ĭ
à¹Īà¸ ĩ
ĠÎ¸ Î±
en ÃŃ
e go
å½© ç¥
éĻ ħ
ä¸ º
áĥķ áĥĶáĥľ
Ľ à¸£à¸
ĠÐ ¢
Ġ× ł
à°¾à°¨ à°¿à°ķà°¿
à¹Īà¸ §à¸
ÑĨ Ð¸
Ķ à¹Ģà¸
Æ° Æ¡
à°¿à° ®
áĥĲáĥł áĥĺ
à®Ł à¯ģà®¤à¯įà®¤
Ð¾ Ñĩ
in ÉĻ
à° ·
à¤ ı
Ġs i
áĥ ĸ
Ö Ħ
Ġà¦¨ à¦¿à¦
Ġà¤° à¤¹
r y
Ġï¼ Ī
Ø «
áº§ n
Ġ rÃ©
ë ²
Ġà®Ĵà®° à¯ģ
y a
ĠãĢ į
à¦ķ à§įà¦¤
Ġà¤ħ à¤ª
Ġà¤¸ à¤®
b ay
ĠÄ į
ìĥ µ
Ġ ist
Ã ±
Ġj est
Ġde lla
ì Ļ
ãģ ¤
Ġv an
Æ°á» Ľ
à§ĭ à¦Ĺ
Ġp as
os t
ë¶ Ģ
à®¿à® ļ
ìł ľ
ãĤ ·
à¤¾à¤ µ
Ġ× Ĺ
Ġf Ã¼r
ìĥ ģ
Ø§ Ø²
à¦¾à¦ Ĺ
Ġl as
ìł Ħ
à¤¤ à¥Ģ
bay can
ĠáĥĶ áĥłáĥĹ
ª à¸´
à°¿à° ¸à±įà°¤
çī Ī
it Ã©
Õ¥ ÖĢ
Î¹ Î¬
Õ¡Õ ¯
ĠÏĦÎ¿ Î½
à±Ģ à°¸
Ġáĥ¨ áĥĶáĥĽ
é Ŀ
éĽĨ åĽ¢
Ð° ÑģÑĤ
n y
ĠÏĥÏĦÎ· Î½
Ġtr ong
áĥ ¤
Îº Îµ
ĠÐ ¶
à®© à¯įà®©
à°¾à°¯ à°¿
à¹Ħà¸Ķ à¹īà¸
ĠÎ Ĺ
æ ł
ĠÂ »
u m
£áĥ ļ
à¸Ļà¸µ à¹ī
Î± Ïĥ
ĠØ§ÙĦØ £
Ð¸ Ð´
Ġà°ª à±Ĩ
Īà¸ °à¸
Î¸ Î·
Ġà®¨ à®Ł
ãģ ¡
æ ĭ
æ Ń
å ĳ
áĥĺ áĥĺáĥ¡
«à¸ ¥à¸
Ðµ ÑģÑĤ
Ġà¤ ¡
à±ģà° ¡à±ģ
à¸µà¸ ¢
ĠÐ ĺ
¡ à¹Ģà¸
à¦¦ à§ĩà¦°
à°¾à° ¡à±ģ
« áĥļ
Å¼ y
Ð¸ ÑģÑĤ
ÉĻs i
à°Ĥà° Ĺ
al i
Ġà®¤ à¯Ĭ
Ġáĥ ĸ
zÉĻr baycan
Ġa uf
Ġà¤¨ à¤¹à¥Ģà¤Ĥ
Ġà¦¸ à¦Ĥ
×Ļ× ¨
Ã© e
Å¾ e
Æ°á»Ŀ i
ëĤ ĺ
m o
Ø± ÙĪ
à¯Īà®¯ à®¿à®²à¯į
à´ ¾
Ġà¤¸ à¤Ĥ
Ġà¦ı à¦ĩ
a ÄŁ
Ġun a
í ĥ
Ġs t
à®ªà¯įà®ª à®Łà¯įà®Ł
ãĤ ¿
Ã Ł
Ġ" :
f f
à¦ «
Ø´ Øª
ãĥ Ĺ
Ġà¤ Ł
Ġj ak
ëħ ¸
áº¡ n
ë į
Ġà¦¥ à§ĩà¦ķà§ĩ
Ġy ang
ãģ Ľ
ÙĦ ÙĬ
Ġì¹ ´
r es
à¯Ī à®¤à¯įà®¤
× Ł
Ġë ı
Ġà¤Ĩ à¤ª
Ġ Æı
áĥĲáĥłáĥĹ áĥķáĥĶáĥļ
ķà¸ ±à¸
à°¾à° ¸
å®ĺ æĸ¹
t Ã³
Ġb u
ĠÎ´ Î¹Î±
il m
Î» Îµ
à°ķà±įà° ·
ĠáĥĶ áĥ¡
åĿ Ģ
åĽ½ éĻħ
Ðµ ÑģÐº
à® ¸
ĠÏĦÎ¿Ïħ ÏĤ
Ġà¦Ĩ à¦°
áĥĲáĥ ¤
Î¹Îº ÏĮ
ĠÑĩ ÑĤÐ¾
ãĤ £
Ġà° «
à¹ ģ
ĠÂ «
a g
Ñĥ Ñİ
Ã¶ v
áĥĺáĥ¡ áĥ¢
à¸µà¸ ¢à¸
ÏģÎ¹ Ïĥ
à¦¾à¦ ¶
ĠÐ¿ Ð¾Ð´
à±įà°² à±ģ
¥ à¹ĩà¸Ńà¸
Î¿ ÏĤ
Ġg e
à¥įà¤ ®
ä¼ ļ
çľ Ł
æĸ °
áĥĲáĥ ĳ
à¸Ń à¸Ļà¸
Ñı ÑĤ
Ġà®ķ à¯Ĥ
Ġà° ¯
¥à¸ °
Ñĥ ÑĢ
ª à¸²à¸
Ġm á»Ļt
à± ĥ
áĥĿáĥ ª
Ø§Ø ¡
Ð°Ð ¿
Õ¡Õ µ
Ġà°ļà±ĩà° ¸
à¥ĭ à¤Ĺ
à§ĩ à§Ł
áĥĹ áĥĲáĥľ
Ġil ÉĻ
ĠãĢ Į
Ù ¾
Ġqu i
à®Ļ à¯įà®ķà®³à¯į
à¦² à§ĩ
ãĤ ı
×ķ× ĵ
í ı
Ġv er
w ie
n Ã©
è´ ¹
å¤ ©
Ġà¤¸ à¤¾à¤
u b
à¦¾à¦¦ à§ĩà¦°
Ġìķ Ħ
ãĤ ³
ĠØ§ÙĦ Ø¹
c ion
en to
Ġê¸ °
Ùĩ Ø§ÛĮ
à§ĩà¦ ¤
ãģĦ ãĤĭ
à®± à¯įà®ķ
à¤¨ à¥Ģ
Ġvá» Ľi
¡ °
Ġp rzy
ë Ł
v a
ĠS ch
Ġ× ª
Ġà¦ªà§įà¦° à¦¤
ìĨ Į
å ł
Ø± ÙĬ
à®¿à® ®
Ġìł Ħ
Ġà¤ī à¤¨
ĠA zÉĻrbaycan
áĥĲáĥ ĸáĥĶ
ķ à¸´à¸
à±ĩà° ¶
åħ ¬
Ġng h
Õ ¿
ĠÎ Ŀ
ĠÕ °
Î¸ Îµ
à°¤ à±įà°¤
ĠáĥĲáĥ ĵ
ä¸ ª
çĶ ¨
Ðµ Ñĩ
oÅĽ ci
Îº Î±
Ġà¦ §
Ġáĥ «
Î¿ Î¹
ĠÑĢ Ð°Ð·
u x
à±ģà°Ĥà° ¦à°¿
à¸£ à¸£à¸
ÏĥÎµÎ¹ ÏĤ
å ¨
Ð¾Ð² Ð°Ð½
Õ¡ ÖĢ
áĥĿáĥĳ áĥĺáĥ¡
à¸² à¸Ļ
á ½
Ġi m
Ñĥ Ñĩ
Ġà° ¡
§ à¹Īà¸²
ĠÎ± ÏĢÎ¿
ÅĻ e
į è´¹
æĹ¶ å½©
åľ °
è Ī
Ġáĥ¨ áĥĶáĥ
« à¸Ļà¸
ĠÐ ĳ
Ġà®ħ à®°
Ġà°® à±Ģ
¡ à¸µ
Ð½ Ð¸Ðº
Ĺ à¸²à¸
Ġn o
Ġà°ķ à±ĭ
áĥ£áĥ ľ
iá» ĥ
ĠÑģ Ð²
ÉĻ z
à±įà° ķ
à¥ģ à¤°
à¦¿à¦ ¶
ĠáĥĹ áĥĲáĥķ
e Ã§
à¯Īà® µ
er e
×ķ× Ł
w i
ĠØ¹ ÙĦÙī
Ġà¦ ĺ
i g
ë Ĳ
Ùģ Øª
Ġà®® à¯ģà®
Ġv y
à´¾ à´
Ġ ?
àµģ à´
Ġ Y
Ġc z
í ħ
Ġ ou
Ġà¦ıà¦¬ à¦Ĥ
ÃŃ a
ãģ ¿
ľ ê±¸
iá»ģ u
Ļ à¯įà®ķ
å ĵ
an n
è ī
×ķ× ĳ
Ġ íķĺ
Ġn on
êµ Ń
o b
à¯įà® £
Ø§ Ø³
ãĥĥ ãĥĪ
ìł ģ
u k
it e
à¯įà®¤ à¯įà®¤
êµ ¬
Ġà¤¯ à¤¹
Ġ is
Ġáĥĺ áĥľ
à¹ĥ à¸Ļ
Ġà°® à°°
çĻ »
Ġãģ Ŀ
iy a
Î¹Îº Î®
lÉĻr i
Ïģ Ïĩ
à±įà°¨ à°¿
Ġáĥĺ áĥĽ
å½©ç¥ ¨
O M
Ð°Ð ³
áº£ i
ÏĢ Î±
à¯Ĩ à®°
ĠáĥĴ áĥĲáĥĵ
ĠÎ ®
ĠÐ± Ñĭ
u re
à°¾à° ¡
à¹Ħà¸ Ĺà¸¢
Î¼ ÏĮ
ä» ¥
Ð½ Ð°Ñı
il ÉĻr
áĥĶáĥł áĥĺ
§ à¹Īà¸²à¸
ĠÎ´ ÎµÎ½
a ch
ĠÐ¿ÑĢ Ð¾
à±įà° ¥
à¸Ńà¸Ńà¸Ļà¹Ħà¸¥ à¸Ļà¹Į
ĠÎµ Î½
Ø¯ Ùĩ
å°ı æ¸¸æĪı
1 0
æĹ¶ æĹ¶å½©
äº ¬
áĥĿáĥĳ áĥĲ
·à¹Ī à¸Ńà¸
ÐµÐ ±
r Ã¡
Ġà°¸ à°®
à¹ģà¸ ¥à¸°à¸
Ġ Ñħ
à¸£à¸±à¸ ļ
à®¾à® £
à° ¶
áĥĲáĥ ¦
c c
ĠÐ² Ñģ
Ġ #
à° Ĺà°¾
çī ĩ
ÅĤ y
Ġ áĥĲáĥľ
Õ¸ÖĤÕ ´
Ø§Ø ¦
Ļ Ĥ
ĠC h
Ġ× ¨
Ã¡ s
à¦ ¡
ĠV er
Ġë ¬
Ġà®ª à®Ł
å ĭ
it Ãł
âĢ į
à¤ «
à¥įà¤ ²
o x
Æ°á»Ŀ ng
Ġì ļ
in e
à¯įà® ¯
à¦¦ à§įà¦
Ġs ch
Ġí Ļ
Ø º
Ġk tÃ³
e ng
æľ ¬
à¤² à¥ĩ
Ġf a
Ġì ĸ
o d
ç ´
Ġà®İà®©à¯įà®± à¯ģ
· à§įà¦Ł
c ia
Æ°Æ¡ ng
Ġb e
ļ Į
×Ļ× ł
Ġ ÚĨ
ãĥĥ ãĤ¯
à¤ ĸ
i d
ĠáĥĲáĥ ¡
ģ à¸²à¸
à°¿à° Ĺ
ä¸ ļ
Ġà® Ł
Ġ on
Ïĥ Î±
ĠÃ¼ Ã§
ĠÎµ Îº
à±įà° ¡
Ġáĥ¨ áĥĶáĥ¡
åİ ħ
è¡ Į
ĠÐ¿ ÐµÑĢ
à¦¨ à§ĩ
ĠÎ¿ Î¹
ë³ ´
ĠâĢ ŀ
ĠÎ Ĵ
ÑĢ Ð°Ð½
á» į
à°° à±ģ
Ĭà¸ ±
Î´ Î¿
æ ¬
ĠÐŁ ÑĢ
lar Ä±
áĥĲáĥ ¬
ķ à¹Ī
ĠÏĦÎ¹ ÏĤ
Ġ =
Ð¸Ñĩ ÐµÑģÐº
Ġà° ²à±ĭ
à¹ĥà¸Ĭ à¹īà¸
ĠÏĥÏħ Î½
à¦ķ à¦¾à¦°
Ġ à¶
ĠC OM
åĪĨ å½©
à¤¾à¤ ļ
áĥł áĥĿ
Ġ à¸Ńà¸
Ð½ Ð°
Ġa ve
Ġà°ķ à±Ĥà°
ģ à¹ĩà¸
Ð½Ñĭ Ð¼
© à¸
ĠÙĦ ÙĦ
à°¿à° ¸
ĠáĥĲáĥ ¦
ol o
Ð ŀ
Ġ !
à±ĩà° ¸
à¥įà¤° à¥Ģ
Ġà®ļ à¯Ĭ
áĥķ áĥļ
ĠØ± ÙĪ
Ä± l
à®¤ à¯į
æľ Ī
à¦¿à¦ Ł
Ġl o
ãĥ Ĩ
Ġn icht
´ Ģ
Ġv ous
Å¡ ÃŃ
Õ« Õ¶
Ġà¤¹ à¥Ģ
å½ ±
à¤¾à¤° à¥Ģ
Õ¥Õ ¬
Ãł ng
Ġìĭ ľ
à®¾à® ±
Ġà§¨ à§¦
à¦¨ à§ĩà¦°
n en
ìļ Ķ
ĠÙĩ Ùħ
e c
×ķ× ł
è ª
à¤¯ à¤¾
v o
Ø§ Ø¹
á» ĩ
à¦¾à¦ ļ
Ġà®ķ à®Ł
ìĹ ħ
à§įà¦ ¨
a to
Ãł nh
Ġì§ Ģ
b en
cj i
ãĢ ĳãĢĲ
Ġà¤¤ à¥ĭ
ĠgÃ¶ r
Ġáĥ ¯
Ġà¸ ģà¸
à°Ĥà° ļ
è½ ¦
Ġà®ĩ à®¤
Ġi ÅŁ
Î¼ Î¬
Ã¼ k
Ïģ ÎŃ
Ġà°µ à±Ĩ
ĠáĥĲáĥ łáĥ
å® ¢
9 9
ĠÐ ĵ
ur s
Ïģ Ïİ
Ġd an
áĥĹ áĥķáĥĺáĥ¡
ĠÎŃ Ïĩ
Ðµ ÑģÑĤÐ²
ĠãĢ ĳ
à°¾à° ª
¡à¸ ŀà¸
ÏĢ Îµ
ç ¾
Ð¿ ÑĢ
Ġà¦ª à¦¾à¦°
Ġáĥ£áĥ ľ
Ġ à¹Ģ
ĠÎ± Î½Î±
Ù Ģ
ĠÑĤ Ð°Ðº
Ġà°Ĵ à°ķ
à¸£à¸²à¸ Ħ
ÏĦ Î¯
Ġh a
åħ įè´¹
æĿ ¥
± ä¹Ĳ
æ³ ¨
ĠâĢ ĵ
Ġà¸ Ħà¸
ĠÐ¿ Ð¾Ð»
ĠØ§ÙĦ Ø³
à°¤ à±ĭ
Ħà¸£à¸ Ķà¸´à¸
ÐµÐ ¿
à¹Ħà¸¡ à¹Ī
à¯Īà® ªà¯įà®ª
à°¾à° ¬
Ġáĥ¡áĥĲáĥ ®
Ø§Ø± ÛĮ
Ñĭ Ðµ
è ²
Ġà°ī à°¨à±įà°¨
à¤¿ à¤°
Ġv o
Ġáĥ¡áĥĲáĥ¥ áĥĲáĥłáĥĹáĥķáĥĶáĥļ
Ġd z
, "
ì§Ģ ëħ¸
ç µ
in d
Õ« Õ
iyy ÉĻt
à¯Īà®¯ à¯ģà®®à¯į
Ġí ĺ
áº£ n
a do
s k
à¥įà¤ ¥
à¤¾à¤ ĩ
à¥ģ à¤²
Ġà¦ľ à¦¾à¦¨
ĠÙĩ Ø§ÛĮ
×Ļ× Ķ
Ġpl us
ÛĮ Øª
à¦¾à¦ Ł
ãĤ «
ìļ ©
Ġ Å¼e
à®¿à®± à®¤à¯ģ
ÙĬ Ø¯
al es
Ġà¤ķ à¤¹
Ġ ar
Ġng Æ°á»Ŀi
ä½ ĵ
Ġs ich
à¦¾ à§ľ
¾ ³
ch e
¤ ĳ
Ġå ĩ
Ä± z
æ ²
Ġà¦ī à¦ª
ĠØ§ ÙĨ
Ġà¤² à¥ĩ
n ych
Ġáĥ¨ áĥĶ
à¹Ĥ à¸£à¸
à°¦ à±įà°¦
çĶ Ł
Ġà®ħ à®®
Ã½ ch
ĠÎ¼ ÎŃ
ent e
Ïĥ Î¹
Ġà°ª à±ĭ
Ġáĥĺ áĥ§
å¿« 3
çĶ µ
Ð½ Ð¸
ëı Ļ
ÏĦÎ± Î½
d u
ĠáĥłáĥĿáĥĽ áĥĶáĥļ
ĠÎ Ļ
ÑĨ Ð¸Ð¸
à¦¿à¦¤ à§ĩ
Ġà°µ à±įà°¯
à¹Ģà¸ ¥
Î Ľ
å¿« ä¸ī
Ð¾ÑĤ Ð¾ÑĢ
á»¯ ng
ĠáĥĽ áĥĺáĥ¡
¥à¸ ĩà¸
Î»Î¿ Î³
Ġà®ª à®¿à®°
ĠÐº Ð°Ðº
à±ĩ à°ķ
Ħ à¸£
Î ł
åĩ º
à¤¾à¤ Ī
è ĩ
è ¾
å¨ ±ä¹Ĳ
áĥł áĥĺ
à¸Ńà¸¢ à¹Īà¸²à¸
ĠÑį ÑĤ
ĠØ£ ÙĨ
à°¾à°¨ à±įà°¨à°¿
à¹ĥà¸« à¹ī
ĠÐ¸ Ð½
Īà¸ ±à¸
ĠØ µ
à°¿à° Ł
áĥĲáĥ £áĥ
Ġ": "
Ð°Ð¼ Ð¸
Ġ× ¤
à°¦ à°¿
Ġà¤ķ à¤¿à¤¯à¤¾
à¦¾à¦ §
ĠáĥĲáĥ ®
ment e
ì Īĺ
Ġ íķľ
Ġm en
à®® à®¾à®ķ
Ùħ Ø§ÙĨ
Ġc e
ĠÃ¼Ã§ Ã¼n
Ġw ir
s zy
æĸ Ļ
Ġë ĵ
Ġà¤¹ à¥ģà¤
à¤¾à¤¨ à¥ĩ
à¤ķà¥įà¤ ·
ãĥ £
à¦¿à¦ ®
Ġave c
ÅĻ ÃŃ
s te
il e
Øª Ø±
Ġìł ľ
ãģ¾ ãģĹãģŁ
Ġà® ľ
Ã¡ ch
à¦ Ļà§įà¦Ĺ
à¤ķ à¤°
d os
en ia
à§ĩà¦ ĵ
Ġe x
ÉĻ c
Ġ×Ĳ ×ª
s o
í Ħ
à®ª à¯į
ie l
Ġà¦ķà¦° à¦¾
Õ¡ ÖĢÕ
ÉĻ f
à¤Ĥ à¤¦
Ãł n
áĥĲáĥ Ŀ
Ĥ à¸²à¸
à°¸ à±įà°¤
Ġag çİ¯äºļ
en ti
ĠØª ÙĪ
ĠÎ ¹
Ġà®µ à®¾à®
ÏĨ Î¿
à±ĩà° µ
áĥĺáĥĵ áĥĲáĥľ
6 6
Ġ ;
Ñĭ Ð²
ë© ´
ĠÎµÏĢ Î¹
çī Į
áĥĿáĥ Ĺ
Î´ Î±
Ð ¡
æ £
à±ģà° ª
Ġ2 5
Î· ÏĤ
èµ Ľ
ÐµÐ ¶
Ġa us
áĥļ áĥĶáĥĳ
¢ à¸²à¸
Ïĥ ÏĦÎµ
ow ie
Ð ł
à±ģà°Ĥà° Ł
§à¸ ±à¸
Î»Î» Î¬
Ġo b
à¤Ĥ à¤¤
å½ ķ
è ĥ½
ä½ ľ
Ġáĥ§ áĥķáĥĶáĥļ
Ĭ à¸²à¸
Ð´ Ð°
Ġà®ª à®¾à®°
à°® à±įà°®
¥à¹ĩà¸Ńà¸ ķ
Ñħ Ð¾Ð´
Ġà¸ Łà¸£à¸µ
ÉĻ ti
à±ģà° ¡
áĥĶáĥĳ áĥ£áĥļ
Ã ¥
Ġ Ñı
ĠØ§ Ùħ
Ġà°ķà±Ĥà° ¡à°¾
è§ Ĥ
ĠìĿ ´ë
áĥ£áĥ Ľ
à¦¾à¦ ģ
Ù ĳ
Ãł i
v er
Ġà®ĩà®° à¯ģà®ķà¯įà®ķ
ãĥ ¡
à§ĩà¦ ®
× ĸ
Ġb er
l iy
ãģ® ãģ§
Ø³ ÛĮ
èī ²
à¥ĩà¤ Ł
åĽ ¾
ou t
ìĺ ¤
áº§ u
à¦¾à¦ ĵ
Ġ.. .
Ġà®ª à¯Ĭ
an Ä±n
Ġb y
Ġ ri
ãĥ ŀ
m en
¶ Ķ
à¥įà¤ ķ
ëĭ Ī
à¦¿à¦ ¦
c u
à®¿à®° à¯ģà®¨à¯įà®¤
ãģ¨ ãģĦ
ĠØ§ÙĦ ØŃ
il le
à§įà¦ ķ
Ġå ħ
Ġe d
ĠI n
Ġìĺ ¤
ĠØ¢ ÙĨ
Ġà¤¸à¤¾à¤ ¥
Ġï¼ ģ
ĠáĥĲáĥ ¥
ļà¸²à¸ Ĺ
à°ķ à°¿
è® ¡
Ġãģ ĵ
en ie
ÏĦ ÎŃ
a o
Îµ Î»
à°¡ à°Ĥ
áĥĺáĥ Ĵ
é Ĵ
ãĢ Ĥ
ĠÑģ Ð»
×Ļ× ľ
Îµ ÏĦÎ±Î¹
ĠL e
áĥĺáĥļ áĥĺáĥ¡
ÏĢ Î¿Ïħ
Ñĥ Ð¿
à®ļ à¯įà®ļ
Ġà°¨ à°¿à°°
Ľ à¸£
Î ľ
éĢ Ł
Ñĭ Ð¹
ë ¹Ħ
£áĥ ļáĥĺ
à¹Īà¸ ĩà¹Ģà¸
ÏĦÎ¹Îº ÏĮ
Ġc u
ĠÐ¿ÑĢ ÐµÐ´
Ġà°ħ à°µ
µ à¸
Î¼Î± ÏĦÎ±
es z
Ġà¤ķà¤° à¤¨à¥ĩ
å Ł
åĪ °
çĲ Ĩ
áĥķ áĥĶáĥ
« à¸²à¸
Ð Ĳ
ÙĬ ÙĦ
à°¿à°¨ à°¿
Īà¸²à¸ ģà¸
ĠÐ· Ð°
à¹Ģà¸ ģà¸
à§ĩà¦ ¬
à°² à±įà°²
áĥĲáĥľ áĥĺ
à¯įà® ¨à¯įà®¤
Ð¸ÑĤ ÐµÐ»ÑĮ
Ġëª ¨
à±ģà°Ĥà° ¦
à¤¾à¤ ķ
f t
áĥĲáĥĵ áĥĴ
Å ŀ
Ġp e
ll o
à§įà¦ ļ
Ġnh Æ°
c ÃŃ
Ġà®ķ à¯ģà®±
ìĿ´ íĬ¸
Ġb aÅŁ
cz e
s en
Ùĩ âĢĮ
Ġà¤ª à¤¹
à¤¾à¤ ı
à§ĩà¦Ľ à§ĩà¦¨
Ù ĭ
Ġìł ķ
zion i
ĠE n
ç Ħ
à¦°à§įà¦ ¬
t u
Ġ× §
á» ĵ
æ ¥
Õ ¨
ëĤ ¨
ÉĻ q
ì °
à¤¿à¤ µ
Ġà®¨ à¯Ģ
à§ °
Ġà¦¤ à¦¿à¦¨
ãģĦ ãģ¾ãģĻ
j ÃŃ
Æ°á»Ľ c
Ġs z
Ã© r
Ġt er
ìĬ µ
ĠS ie
è§Ĥ çľĭ
Ġà¤¸ à¤ķ
ĠáĥĽ áĥĲáĥĴ
à¸£à¸ §à¸
Ġà°¨ à±ģà°Ĥà°
è¦ ģ
Ä °
ĠÕ §
Îº Î¿
li k
ĠÎŃ Î½Î±
à±ģà°ķ à±ĭ
áĥĶáĥ¥ áĥ¢
åį ķ
æ Į
ÐµÐº ÑĤ
à¦° à¦¾
Î¼ Î²
ĠD e
áĥ£áĥ Ĺ
Î ¥
Ġ ÑĨ
Ġp i
à°¾à° §
« à¸£à¸
ÏĦÎ¹Îº Î®
æľ Ģ
Ñĥ Ð±
p a
Ġáĥł áĥĿáĥĴ
§ à¹ĩà¸
Îº ÏĮ
à®£ à¯įà®£
ĠÐº Ð¾ÑĤÐ¾ÑĢ
à°¾à° £
à¸Ńà¸ ¢à¸
ĠÏĮ ÏĦÎ¹
à®¿à®² à¯įà®²
ow e
é ¡
ç« ¯
ç½ĳ åĿĢ
áĥĲáĥłáĥ ĵ
į à¸
Ð½Ð¾ Ðµ
Ġà¤¹ à¤®
à±Ģ à°°
·à¹Ī à¸Ńà¸ĩà¸
Ðº Ð¾
Ķ à¸µ
à¦¨ à¦¾
Ġà°ħ à°Ĥà°¦
áĥł áĥĲáĥĽ
Ã¢ y
ĠÐº Ð¾Ð¼
an do
à±Ģ à°µ
Ã¨ s
h l
áĥĲáĥłáĥ Ľ
m ÉĻk
à¥įà¤ ¸
Ġ×ľ ×Ķ
Ġà¦ľà¦¨ à§įà¦¯
ÅĤ u
Ġà®¤ à®®
à¯ĩ à®©à¯į
Ġà®¤ à®¿à®°
ĠØ¨Ø± Ø§ÛĮ
t os
ÉĻ dÉĻ
áºŃ n
à®¿à®© à¯įà®±
ung en
il l
à§ Ī
à¤ķ à¥Ģ
l o
Ġê² ĥ
n ia
Ġà¤¥ à¤¾
ÙĪ Ùħ
Ġh o
à¦¬ à¦¾à¦°
b y
e v
ĠãĢ Ĳ
ĠÕ ´
åĵ ģ
or t
Ġà®® à¯ĩ
ãĥ ¥
Ġ× Ĵ
à¦¸ à§įà¦¥
ãĥ ī
p er
¾³ éĹ¨
ä¸ ĩ
à¤Ĺ à¤¾
Ġ ï
» ¿
Ġì Ĩ
Ġæ ¾³éĹ¨
áĥĶáĥ ª
à¹Īà¸ §
à±ģà°ķ à±ģ
æ ¯
Õ¸ÖĤÕ ©
ÉĻ ÅŁ
Î¹Îº Î¬
Ä±n da
ÏĦÎ¿ ÏĤ
à±įà°¸ à±į
áĥĶáĥĳ áĥļ
ä ¾
Ġå ½
Ðµ Ðµ
Ø§ Ùģ
Î· Î½
Ġein e
Ġáĥ ¦
á ¼
Ð» ÐµÐ½
Ã© s
à°¨ à±ĩ
à¹ ģà¸£à¸
Ġï¿½ï¿½ ï¿½ï¿½
2 2
Ð° Ñħ
à§ĩà¦ ¸
Ġáĥ¡áĥĲáĥ Ļ
±à¸ ĩ
Î ©
Ġà®ĩà®° à¯ģà®¨à¯įà®¤
ÐµÐ³ Ð¾
Ġà°ļ à±Ĥà°
à¹ģà¸ ¥
ÏĦÎ± ÏĤ
in a
Ġ \
ç ł
æ ĥ
Ġå °
áĥĶáĥĿ áĥĳ
Ķ à¹īà¸§à¸
ÐµÐ½ ÑĮ
0 9
à±ģà° ¦
ģà¸±à¸ ļà¸
Ð°Ð± Ð¾ÑĤ
à¹ī à¸Ńà¸ĩ
à¤¾à¤ ª
Ġà°ħ à°¯
áĥĶáĥĳ áĥĲáĥ¡
Ġà®ķà¯Ĭ à®£à¯įà®Ł
Ñ ĳ
ĠÄĳ á»Ļ
à°¿à°Ĥà° Ĺ
à¦¾à¦¬ à§ĩ
dz i
Ġáĥ łáĥ
al ar
ëĵ ľ
on s
Ġà¤ ĺ
p o
± Û
Ø§ÙĨ ÛĮ
Ġ×Ķ× ŀ×
Ġà® ¯
Ù Ĳ
à¯ģà® ª
i q
an ce
Ġ ]
ì½ ľê±¸
à¦ Ľà§ĩ
Ġau ch
Ø ¸
íĦ °
Ġà¤ķ à¤¾à¤°
Ã´ i
Ġpo d
à§Ģ à§Ł
Ã¨ re
æ ĻĤ
Ġm a
à®³ à¯Ī
Ä± m
áº¿ n
ĠD ie
à¦¤ à¦¿
à¥įà¤ ª
æ Ħ
in dÉĻn
ĠE l
v ÄĽ
ur a
à§ĭ à¦°
Ùħ Ø§
Ġëĭ ¤
äº ĭ
Ġà¤ħ à¤¨
Ġà®µ à®¿à®
áĥ ¯
Ķà¸´à¸ ¡à¸ŀà¸
à±ģà°¨à±įà°¨ à°¾à°°à±ģ
ç Ń
p r
ê ·
ĠÎ §
Ġ× ĵ
Î» ÎŃ
à°Ĥà°¤ à±ĭ
áĥĲáĥĽ áĥĵ
èµ °
Ġå ı
ĠÐ¿ÑĢ Ð¸
Ġm em
ĠÎº Î¬
ĠÚ© ÙĨ
ĠáĥĹ áĥ£
Î» Î¬
Ñĭ Ñħ
ãĤ µ
à°² à±į
ł à¸
ÎŁÎ ¥
æĪ Ĳ
Ñģ Ð¿
Ġà¦ı à¦°
áĥĺ áĥĶáĥł
Ħà¸¸à¸ ĵà¸
Ïį Î½
ĠA n
ĠÐ £
à±įà° ³
à¸Ńà¸ ļà¸
Ïĥ Î¿
á» ķ
Ġà®® à¯ģà®Ł
W W
« ĺ
åĬ ¿
áĥĲáĥķ áĥļ
Ġ 6
Ñĥ Ð»
Õ¡Õ ´
à± Į
ľà¸¹ à¹īà¸
Ñĥ Ð¶
§à¸ ±à¸Ļ
Ä± q
Ġà°ķ à°²
áĥĺáĥ£áĥ ł
ë ¯¸
Ñĥ Ð¼
à¥ ĥ
à°Ĥà° ª
ra z
c tion
áĥĲáĥķ áĥ¡
m er
ìĽ Ķ
Ġà®ī à®³à¯įà®³
ĠØ¨ Ø§ÙĦ
à¦¾à¦ķ à§ĩ
in o
qu es
Ġ ÅĽ
Ġk eÃ§
Ã¡ nÃŃ
à¤² à¥Ģ
ĀĀ ĀĀ
ãĥ Ĳ
Ġì Ĭ
ÙĨ Ú¯
Ġs o
Ġe en
Ġ×ľ ×Ĳ
iáº¿ t
å ī
à§įà¦ ¡
l er
í ļĮ
Ã¼ ÅŁ
Ġà¤¦ à¥ĩ
ĠE s
Ġà®µà¯ĩ à®£à¯įà®Ł
ĠìĿ ¸
Øª ÛĮ
Ø¨ ÙĬ
à¤¿à¤¯ à¥ĭà¤Ĥ
an ie
ãĥ ģ
it a
Ġnh á»¯ng
Ġà®¤à®® à®¿à®´
à¯ĩ à®ļ
Ġp r
u ch
Ġà¦ķ à¦¾à¦°
ãģĤ ãĤĭ
Ä± b
ìĹ ¬
Ġáĥ£áĥľ áĥĵáĥĲ
à¸Ļà¸ ±
à°¾à°° à°Ĥ
Ĺ äº¬
à®± à¯įà®ª
ĠÕ ¯
ĠÏĢ Î¿Î»
Ġ Ö
Î» Î®
à±ģà°² à±ĭ
Ġáĥĵ áĥĲáĥĽ
ĠW WW
Ġè ¿
ĠÑģ Ð¿
Ù ı
ĠÎµ Î¾
k t
ĠáĥĲáĥł áĥĺáĥ¡
Ïĥ ÏĦ
ĠâĢ Ķ
ç¾ İ
à±įà° Ĺ
à¹ĥà¸ «à¸
Ïĩ Îµ
çľŁ äºº
ĠÐ Ĺ
à¥įà¤ ¹
Ġáĥĵ áĥ¦
Ķà¸ ¥
Î± Ïģ
×Ļ× Ł
ĠÐ¼ Ð¾Ð¶
Ġà°ļà±ĩà° ¯
Īà¸²à¸ ģ
Î¿Ïħ Î¼Îµ
ìĤ¬ ì§Ģ
Ã¡ l
å®¢ æĪ·
çĻ» å½ķ
Ġ 7
ĠáĥĽ áĥĺáĥ
à¹Ģà¸ ¥à¸
Ġ ÑĪ
Ġ X
à±įà°° à±Ģ
à¸² à¸£à¸
Ð¾ Ðµ
ĺ à¸
Õ¸ÖĤÕ© Õµ
à±ĩ à°°
áĥĲáĥłáĥ Ĵ
à§ģà¦ ·
Ð¾ÑĢ Ð¼
í Į
à±Ģ à°
ĠÙħ ÙĪ
Ġde m
ĠáĥĽ áĥ®
ãģ Ŀ
ĠL a
Ġà¤ľ à¥ĭ
à¯ģà®® à¯įà®ª
Ġà¦Ĩ à¦²
m i
íħ Ķ
ãĥ ĭ
Õ ¾
ÙĪ ÛĮ
à¦Ł à¦¾
a nh
Ĥ à¦²
íķĺ ëĬĶ
Ġà§¨à§¦ à§
Ø§ ÙĤ
Ġ× ¡
in s
ar i
ãģ °
à¦¦à§įà¦ §
æ´ ²
Ġà¤Ĺ à¤¯à¤¾
ĠÕ ¸
à®ķ à¯į
ĠS t
Å ©
Ġìŀ Ĳ
Ġcom o
Ġt ak
s i
ãģĦ ãģŁ
à¯įà® °
et z
Ġà¤ķ à¤¿à¤¸
Ùĩ Ùħ
á» Ń
Ã ¸
ãĥ¼ ãĤ¹
Ġà¦¬à¦¿à¦ ¶
ow y
ĠB u
å¸ Ĥ
Ġáĥ °
à¸Ńà¸£ à¹Į
Ġà°ķ à°¾à°°
æ ±
Ġà¤ī à¤¸
ĠÕ ¥
ÎµÎ¹ Î±
Ã¼ m
Î¬ Î»
à±ģà° ®
ĠáĥĹ áĥ¥
åĲ Ī
é ĺ
Ðµ ÑĪ
Ġê² ½
ÎŃ Ïģ
p e
áĥĲáĥłáĥ ¢
Ïģ Î®
Ð¸ ÑĨ
ĠØ ·
Ġà°¸ à°¿à°¨
à¹Ħà¸ Ľ
ĠÎ Ľ
æ³ ķ
ĠÐ Ľ
×ĳ ×¨
áĥ® áĥĿáĥķ
«à¸ ¡à¸
ÏĦÎ¹Îº Î¬
Ġà®ļà¯Ĩà®¯ à¯įà®¤
Ñĥ Ñģ
à°¡ à±įà°¡
ķ à¸²à¸
ĠÎ ¦
ĠB e
à¤° à¥ĩ
é ĥ
å®¢æĪ· ç«¯
åħ ¨
áĥķ áĥĲ
±à¹īà¸ ĩà¸
Ðµ Ñħ
Ġol un
Ġà°µ à°¾à°°
±à¹īà¸ ĩ
ĠÑģ Ð¾
·à¹Ī à¸Ń
a v
Ġà°ļà±Ĩ à°ªà±įà°ª
Ġáĥ© áĥķáĥĶáĥľ
à§ Į
ĠÐº ÑĢ
áºŃ t
à±ĭ à°ľ
w ia
à®¿à®° à¯ģà®ķà¯įà®ķ
Ġáĥ£áĥ ¤
en d
Ġí ı
à¥Ī à¤Ĥ
Ġde i
Ġà¦¬à¦¾à¦ Ĥà¦²
à®¤à¯įà®¤ à¯Ī
ĠØ¯ Ø§ÙĨ
Ġm e
Ġa z
ĠØ§ÙĦØ ¬
à§įà¦ ¸
Ġì °
Ġà¦® à¦¾à¦¨
Ã¡ n
Ġà¦¨ à¦¿
ĠÛ ±Û
ĠÚ© Ø±Ø¯
×ł ×Ļ
à¥ģ à¤¨
et te
Ġp ra
à¯įà®ķ à¯įà®ķ
ĠÄĳ Ã£
l an
à¦ĸ à¦¨
àµ Ĩ
à¥įà¤ ¦
Ġì ²
Ġà®ħ à®©
is e
m y
ion e
i de
cion es
à¤ķ à¤¾à¤°
ãĤĪ ãģĨ
ìĸ ĳ
is s
ĠØ§ÙĦ ÙĤ
ĠâĢ ĺ
à®¾à® ķà¯įà®ķ
im i
Ġj s
áĥ «
à¹Ģà¸ Ľà¹ĩà¸Ļà¸
Ġà°® à±Ĭ
å Ģ
Ġà¤ Ľ
Õ¸ÖĤ Õ¶
ĠÎµ Î¯
lÄ± q
Î¼ Î·
Ġà°° à±Ĩ
áĥĿáĥłáĥ ª
å¤ ļ
å® ī
Ð° ÑİÑĤ
an ia
ĠÎ ĺ
Ø² ÛĮ
áĥľ áĥĺáĥ¡
Î¹ Î½
ÑĤ ÐµÑĢ
Ġë° Ķ
à±ĭ à°Ĺ
¥ à¸´à¸
ĠÏĢÏģÎ¿ Ïĥ
ç ®
ĠÐº Ð¾Ð½
Ġ×¢ ×ľ
áĥĲáĥķ áĥ¨
à¹Ħà¸ Ľà¸
Î¼ ÏĢ
Ġ ich
Ð½Ð¾ÑģÑĤ ÑĮ
Ġà°® à°¨
Ľà¹ĩ à¸Ļ
Ġ á¼
b e
Ġà¤ §
åŃ Ĳ
åĬ ¨
è ģ
áĥł áĥĺáĥ¡
Ġà¸ ļà¸Ńà¸¥
Ð° ÑĪ
m aq
à°° à±įâĢĮ
³à¸ «
Ð°ÑĢ ÑĤ
ļ à¸£à¸´à¸
Ġp rÃ©
Ġà°® à°¾à°°
ĠáĥĽ áĥĹ
à¦¨à§įà¦ ¦
Ð½ Ð¾Ð¼
ìĭ ł
à±ĩà° Ł
Ġb ei
Ġm Ã¡s
Ġáĥ® áĥĶáĥļ
Ġd la
Ġv Ã½
à®©à¯įà®± à¯ģ
Ġde y
Ġà¦Ĩ à¦ª
Äĥ ng
ĠÛĮ Ú©
Ġqu es
Ľ Ħ
ÙĨ Ø§
Ġk e
Ġu 09
Ä±n Ä±n
Ġro z
Ġà¦¹ à¦¬à§ĩ
w e
à¯Īà® ªà¯į
Ġs a
äºļ æ´²
Ġ" ,"
ìĬµ ëĭĪëĭ¤
Ġà¦Ĩ à¦¸
Ø§ ØŃ
ÃŃ nh
t es
à¤ķ à¤¾
à· Ĭ
s kie
à§įà¦¯ à¦¾à¦¨
Ġy ar
Ġs ta
× ļ
a j
ãģ« ãģª
æ Ĵ
à®¿à® ¨à¯įà®¤
t s
Ġk ter
i dad
ĠÄĳá» ĥ
ãģ¨ãģĦ ãģĨ
Õ¡Õ ¿
Ġà®İà®© à¯įà®©
áĥĿáĥ Ļ
à¹īà¸ §
à°¿à° ²à±ĭ
ä¹ ĭ
à¤¾à¤ Ĺ
Ġ Åŀ
ÏĦÎµ ÏĤ
ĠR e
ĠÏĥ ÏĦÎ±
Ġà°ħ à°¨à±įà°¨
Ġáĥ¡ áĥ¢
å· ¥
ç¥ ŀ
Ð½Ð¾ÑģÑĤ Ð¸
ĠÙħ Ø¹
ÎĻÎ ļ
Ġà®ķ à¯ĩ
áĥĲáĥ ŀ
ĠÎ¤ Î¿
Ð ĺ
Ġà§¨ à§
à°¤ à°¿
ŀ à¸Ļà¸
ĠÎ¼ Î±ÏĤ
ç ¨
Ð¸Ð» ÑĮ
à¦§ à§įà¦¯
áĥĿáĥłáĥ Ľ
Ķà¸´à¸¡à¸ŀà¸ ±à¸Ļà¸
ĠÏĢ Î¿
ĠÃ§ ox
ĠÐ¿ Ð»
à°¿à°Ĥà°ļ à°¿
à¸´ à¹Ģà¸
ĠÎ ¾
Ġa v
à¥ ľ
& #
1 1
çİ °
ĠáĥĽ áĥĲáĥĹ
à¹ģà¸ ļà¸
ÑĢ ÐµÐ¼
à®¿à®¯ à®¿à®²à¯į
à±ĭ à°¯
ķ à¹īà¸Ńà¸ĩà¸
ĠÐ ķ
à¹ī à¸Ń
Ġc zy
à°¿à°Ĥà° ¦
áĥĵ áĥĶáĥĳáĥĲ
Ġa c
Ðº Ñĥ
cz ne
à°Ĥà°¦ à±įà°°
a hr
Ġà®¤ à¯Ĩà®°
Ġáĥ¡áĥĲáĥ¥áĥĲáĥłáĥĹáĥķáĥĶáĥļ áĥĿáĥ¡
æ° Ĺ
Ŀ i
à¦ ł
Ġ× ĸ
n Ã¡
b re
Ø¨ Ø±
Ġv e
Ġà®ķ à¯ĭ
ãĤ ¦
n ym
à¤¿à¤ ¶
ëħ Ħ
à¦° à§ĩ
ĠÙħÛĮ âĢĮ
ÉĻl i
ĠS e
ãĥ¼ãĥ «
Ġà¤® à¤¹
Ġà®µ à®¨à¯įà®¤
i v
Ġh et
ĠP h
oÅĽ Äĩ
l es
ä¹ħ ä¹ħ
Ġà¤µ à¤¾à¤²
ãģķ ãĤĮ
ÙĦ Ùĥ
Ġï »¿
Ġì £¼
Ġdi es
Ġà¦¸ à§įà¦¬
áº¿ t
à¤¾à¤¯ à¤¾
à®µ à¯ģà®®à¯į
Ġs c
ÄŁ Ä±
×ķ× Ŀ
Ġà¦® à§ĭ
Ġ ent
Ġà¦¦ à§ĩà¦ĸ
à¯Īà® ļ
ĠáĥĻ áĥĿáĥĽ
¸à¸ ķà¸
à°¾à°¤ à±įà°°
ç Ĥ
äº §
z e
Î± Î»
Ġ %
Î³ Îº
à°Ĥà°Ł à±ĩ
áĥĵ áĥĶáĥĴ
Ġ 8
Ġå Ī
ĠÐ¿ Ð¾Ñģ
Ġë³ ´
ĠÏĥ ÏĦÎ¹
ng an
áĥĺáĥľ áĥĲ
ÎµÎ¹ ÏĤ
Ð¶ Ðµ
al Ä±
à°® à±Ĩ
ªà¸¸à¸ Ķ
ĠÏĢÎµ ÏģÎ¹
Ġæ Ī
ĠÐ ¤
Ġà®ª à®²
áĥķ áĥĺáĥĹ
à¸Ńà¸£ à¹Įà¸
Î³ ÏģÎ±
à¦¨à§įà¦¤ à§įà¦°
ÑĢ Ð¾Ð²
à±ģà° Ĺà°¾
Ľà¸ ¥
ĠÎ ¶
ic o
à¤¸ à¥Ģ
Ġå Į
é «ĺ
à¨ ¾
áĥĶáĥ Ļ
à¹Ģà¸ Ĥ
ĠÐ¸ Ð»Ð¸
Ġthá» ĥ
à±ĩà° ·
à¹Ĥà¸ ¡à¸
ÑĢ Ð¾
ĩ à¸²à¸Ļà¸
Ġt y
Ġà°¸à°¿à°¨ à°¿à°®
ĠáĥĻ áĥĺ
à§įà¦ ¦
Ð½ Ñı
ĠL es
à°Ĥà° ķ
ĠØ§ÙĦ Ø´
Ġol an
ĠáĥĽ áĥĲáĥ¡
Ġw ie
t ÄĽ
Ġes ta
à¦° à§įà¦¤
Ġ [
ìĻ Ģ
Ġà®® à®±à¯įà®±
Ġs ono
×ķ× Ĳ
Ġt e
Ø§Ø ¬
à¤¾à¤ ¬
h e
Ġà¦Ĩ à¦Ĺ
Ġs ont
åħ ¥
d as
Õ ½
Ġà¤² à¤Ĺ
ĠÃ¶ z
os ta
Ġw er
ĠØ§ÙĦ ÙĨ
Ġê³ ł
ĠN g
Ġà¤ª à¥Ĥ
Ġæ Ĺ
a ciÃ³n
Ġb il
ĠÃ º
g a
ãĥ ĸ
à§ĩà¦ ·
Ú¯ Ø±
à¥ĩ à¤²
á»ĳ i
ì¶ľìŀ¥ ìĥµ
ì¹ ´
c es
à¦® à¦¾à¦¨
×Ļ ×ķ×ª
à¦¾à¦ ¯à¦¼
ung s
Ġáĥ¡ áĥĲáĥ¡
à¹īà¸² à¸Ļà¸
à°¿à°Ĥà°ļ à°¿à°¨
åı ¯
à¤ļ à¥įà¤
a c
ĠÏĢÎ± ÏģÎ±
µ ľ
Î¯ Î¿Ïħ
Ġà°¤ à°¨
ĠáĥĽ áĥĿáĥĽ
äº İ
åľ º
ĠÑį ÑĤÐ¾
Ġm i
ĠÎºÎ± ÏĦÎ±
ĠØ§ÙĦØ ¥
áĥĲáĥ «
ÎĹ Î£
ĠÐ¾ Ñģ
ë¬ ¸
à±įà° §
Ľà¸£à¸ °à¹Ģà¸
ĠÎ± ÏĢ
åŃ ¦
Ð Ŀ
es ch
ĠáĥĲáĥ ķ
à¸Ńà¸ ģà¸
Ïģ Î¹Î±
Ġ Å¾e
ÐµÑĤ ÑģÑı
Ġà°ļà±ĩà° ¸à±įà°¤
à¹Ģ à¸£à¸
ĠÎ¼ Î¹Î±
Ġp re
à´ ¤
è ¶
åĪ Ĵ
åĨ Į
áĥĺáĥ¨ áĥķ
ķ à¸£
Ñİ Ñī
Ġs on
à°® à±Īà°¨
¹à¸ ģà¸
Ð°Ð½ Ð¸Ñı
à¸´ à¸Ļà¸
ĠT r
à°¿à°² à±įà°²
áĥłáĥ «
Ø² Ø§Ø±
Ð» Ñİ
w y
Ġà°µ à°ļà±įà°ļ
Ġà®µ à®´
áº ©
áĥĲáĥª áĥĺ
t uk
et to
ĠÃ¶ l
ãģĤ ãĤĬ
ĠìĹ ¬
ĠÚ© Ø§Ø±
à§ĥ à¦¤
ll en
ĠØ§ÙĦ Ø¯
Ġa pp
cj a
Ġà¤ħ à¤§
ĠN h
Å º
à®¿à®ķ à®³à¯į
ÛĮ ÙĦ
Õ¡Õ ½
Õ¶ Õ¥ÖĢ
¨ àµįà´
Ä±n Ä±
à¦¾à¦ ĸ
Ġz Ã¡
ĠëĤ ĺ
ti g
a ge
Ġà¤ľ à¤¾à¤¤
à¥Ģ à¤¨
×Ļ× §
Ù Ĵ
Ġpi Ã¹
Ø± Ø¨
ou ve
à¦¿à¦ Ĥ
Ġk o
à¤°à¥įà¤ ®
Ġ ÉĻl
Æ¡ n
ì§ Ħ
Ġg r
Ġà®İà®© à¯įà®ª
Ġà¦ħ à¦¬
ãĥ ĩ
i ng
Ġáĥ¡ áĥ®áĥķ
à¸µ à¹Īà¸
à°¸ à±į
Ġ 9
Ġ >
åł ´
Ïģ Î¿Ïħ
Ø ¦
ĠÎ´ Î·
à°¾à°¨ à±ģ
¬ áĥ§
èµ° åĬ¿
å ģ
Ð¸ Ñİ
ia ÅĤ
ÏĦ Ïħ
ĠpÅĻ e
áĥ£áĥ ¡
ÏĦ ÏģÎ¿
ĠÐ³ Ð¾Ð´
Ġs er
à°² à°¾
Ġ à¸Ļ
ĠÎ¿ ÏĢÎ¿
è ·
Ð ļ
Ġì ¤ĳ
áĥĲáĥļ áĥ£áĥłáĥĺ
ķ à¹Īà¸
Î ļ
lÉĻr in
ĠÐ¾ Ð´
à°¾à° ³
Ġà¹ģà¸ ¥à¸°à¸
ÏĮ ÏĦÎµ
à§Ł à¦¾à¦°
Ġà¤¬ à¤¨
éĥ ¨
á Ł
æĹ Ĺ
ĠáĥĽ áĥĿ
¢ à¸Ļ
Ñĥ Ðº
ĠS p
à°¿à°Ĥà°ļ à°¾à°°à±ģ
±à¸ ļà¸
Ð° Ñĩ
Ķà¸¥ à¸Ńà¸ĩ
Ġà®ħ à®±
à°¨ à±įâĢĮ
áĥĺáĥ ¥
Ã¹ ng
Ð² ÐµÑĤ
Ġc o
à°¿à° ¦
ĠØ¯ Ø§Ø±
×Ļ× ĳ
áĥł áĥĿáĥ¡
ÙĬ Ùħ
Ġm ais
Õ ´
m asÄ±
à§ İ
Ġë ²
Ġo der
ni k
à®¾à® ļ
à§ĩà¦ ¦
an te
à¥ĩà¤ ĸ
£ Â
iá»ĩ t
Ġà¦¤à¦¿à¦¨ à¦¿
r on
Ġ ÉĻs
à®µ à¯ĩ
à¤ ¥
Ùħ ÙĦ
au x
à§ģ à¦®
Ġth u
Ġ ï½
ĠpÅĻ ÃŃ
Ġà¤° à¤¾à¤ľ
à¤Ĥ à¤¡
s ki
à®¿à®± à¯įà®ķ
ãĤ į
ê³ Ħ
Ġg Ã¼n
ãĤ Ń
ĠP o
Ġà¤ħà¤ª à¤¨à¥ĩ
p os
×Ļ× ©
Ġu m
à§įà¦ ľ
Ú¯ Ø§Ùĩ
j a
Ġ ra
ĠØ¹ ÙĨ
ĠáĥĹ áĥĲáĥľ
±à¸ ļ
à°¾à° ·
ä¹ Ī
à¤Ń à¥Ģ
ìķ ¼
ÏĢÎ¿ Î¹
ãģĦ ãģ¦
Î´ Î¹Î±
Ġà°ħ à°¨à°¿
áĥĶáĥ ĸ
ä¸ »
æ³¨ åĨĮ
Ð¸ Ð»Ð¸
Ġà®µ à¯Ģ
ĠÎļ Î±
ÉĻ v
áĥĿáĥ ¢
Îµ Ïģ
ĠÑĢ Ð°Ñģ
Ġà¦¹à§Ł à§ĩà¦Ľà§ĩ
Ġà°Ĺ à±ģà°°
¡à¸ ±à¸
ÏĢ Î¬
Ġ; &#
Ð°ÑĤ ÐµÐ»ÑĮ
b i
áĥ£áĥ ¨
à¹Ģà¸ ª
Î¼ÎŃ Î½
Ġà®ħ à®Ł
Ð ķ
ļ à°¿
Ġà¸ ģà¸²à¸£à¸
ĠÎł Î±
Ġà¦ķ à§ĭà¦¨
Ġà¤Ń à¤¾à¤°
èĪ °
Ġå½ ©
æīĭæľº çīĪ
Ġáĥĺáĥ§ áĥĿ
¡à¸² à¸£à¸
ĠÑĤ ÑĢ
te ur
Ġà° ĵ
à¹Ĥ à¸Ļ
ĠÑĤ Ð¾
Ġà¹Ĥà¸ Ľà¸£
h en
Ġà°° à°¾à°ľ
Ġáĥ£áĥ Ļ
ĠØ§ÙĦ ÙĦ
Ð ¢
íı ¬
à±ģà° Ł
p ie
è¦ ĭ
áĥĺáĥ ¤
ÙĪ Ø§ÙĨ
ir es
×Ļ× ĵ
Ġs á»ĳ
ÅŁ Ä±
Ã© ho
ê° Ħ
r os
Ġà§¨à§¦à§ §à§
à®² à¯Ī
n Äħ
à¤ ł
à§įà¦ ł
Ġ ä»
Ġde ll
or m
Ø¹ Ø¯
æĢ Ŀ
à¥ģ à¤ķ
Ġà¦ķà¦° à¦¤à§ĩ
à®¾à®° à¯įà®ķà®³à¯į
Ġë¶ Ģ
i que
éĸ ĵ
Ġm ÉĻn
çł ģ
à¤¤ à¤¿
k ov
ĠÃ¼ ber
Ġc Ã´ng
ic i
Ġt out
Ġn as
Ġê ±
æĴ Ń
Ġà®ħà®° à®ļ
i Äħ
Ġo g
Ġ×Ķ× Ĳ
ĠÕ ¶
ÉĻ x
ĠÙħ ØŃ
Ġà¦ıà¦ķ à¦Łà¦¿
áĥĿáĥł áĥĺáĥ¡
¥à¸ĩà¸ Ĺà¸
à°¸ à±įà°Ł
é ľ
Ġ1 0
Ġvo tre
Ïĥ ÏĦÎ·
ãĤ ¸
Îĳ Î£
Ġà°ª à°°à°¿à°
ĠáĥĴ áĥķ
èµĽ è½¦
å¯ ¹
Ñģ Ð»
à®¿à®ķ à®³
Ïħ Î½
v ÃŃ
áĥł áĥĺáĥķ
Î³ Î¿
ĠÐ §
to r
à±ĩà° ®
à¹Ģà¸ Ķ
Î¸ ÎµÎ¯
ä¹ Ł
ĠÐ¸ Ð¼
Ġb áº¡n
áĥĲáĥľ áĥ¡
Ġà¹Ģà¸ Ķà¸´à¸¡à¸ŀà¸±à¸Ļà¸
ÎŁ Î£
our s
Ð°Ð» Ð¸
à°¤ à±įà°¯
ķà¸±à¸ §
Ïģ ÎµÎ¯
ĠØ§ÙĦ Ùģ
à¤² à¤¾
æĹĹ èĪ°
5 5
7 7
áĥ® áĥĲáĥĵ
Ġà¸ Īà¸
ÑĢÑĥ Ð³
çĦ ¡
à°¯ à±įà°¯
Ġà¸ ģ
Ð¿ Ð»
à¹Ģ à¸£
or es
à±Ĩ à°Ł
ĠáĥĻ áĥĿáĥľ
ë £
Ð°ÐµÑĤ ÑģÑı
un d
à°¿à° ·
ãĥ³ãĤ °
Ġà®¤à¯Ĭ à®Ł
£áĥ ¡
ÙĪ Ø²
. .
l Ã©
Ġh ÉĻr
t is
j er
ãģ ĺ
a p
Ġê³ µ
Ú ĺ
ĠE r
à¤ ·
Ġà®® à¯ģà®¤
ãģ Ķ
áº ½
r Ã³
à¦¾à¦¦ à§ĩà¦¶
ĠãĤ ¹
à¤¿ à¤Ĥà¤Ĺ
Ø° Ø§
Ġà§ ©
Ġa t
à§Ł à¦¾
ãĥ §
ê ¹
Ġà¤® à¤¿à¤²
ç Ī
Ġà®® à®©
×ķ× ¤
a da
Ġh ab
à¦¾à¦ķ à¦¾
à®© à®°à¯į
Ġn Ã¡
Ġà¤¦ à¥ĭ
ĠìĿ ¼
ĠÙģ Ø±
à¦¿à¦ ľ
tion s
ÙĢ ÙĢ
ÙĬ Ø§
á»Ļ i
Ġe dir
áĥĶáĥĳ áĥ¨áĥĺ
Łà¸ ¸à¸ķà¸
à°¾à° ¹
é ¾
çº §
Ġt ut
ĠÎ¼ Î±
ãĥ ł
Î¹Îº Î¿
à°ķ à±įà°¤
Ġáĥ¬ áĥļáĥĺáĥ¡
Ġà¤Ĩ à¤¹
åı Į
ĠÑĢ Ð°Ð±Ð¾ÑĤ
ĠU n
Ïĥ Îº
ow ych
áĥķ áĥĲáĥļ
Î´ Î·
ĠÐ² Ð¾Ð·
à¯ģà®Ł à®©à¯į
à±Ģ à°¯
°à¹Ģà¸ ļ
ÎŃ Î½
Ġå ľ
ÑĨ Ð¸Ñı
à¦¾à¦¨ à§ĩ
ĠáĥłáĥĿáĥĽáĥĶáĥļ áĥĺáĥª
Ĥà¸ ¶
ĠÎµ Ïħ
á» ī
ĠÐ Ń
Ġà°µ à±Ī
Ķ à¸µà¸
Ïī ÏĥÎ·
ĠØ® ÙĪØ¯
é ¦
ç ¤
è®¡ åĪĴ
Ġà¤Ĩà¤¹ à¥ĩ
áĥĹ áĥĲ
ĩ à¸²à¸Ļ
Ð¾Ð»ÑĮ ÐºÐ¾
ĠP ro
Ġà°² à±ĩà°¦
Ħà¸£à¸Ķà¸´à¸ ķ
ÑĤ Ð¾ÑĢ
ĸà¸ ¶à¸
Ġn ous
à°µ à°°
áĥĶáĥłáĥ ¡
ĠI l
Ð¸Ð½ Ð°
Ġi Ã§
Ġà°Ĩ à°¯
a ÅĤ
Ġr es
Ġáĥĺ áĥ¥
ì¹ ĺ
ãģ§ ãģį
b o
Ġà®ķ à®°
à¦ľ à¦¨
Ø± Ø©
en n
d iy
¡ Â
Ġtá» «
Ġà®ª à®¤
à¤¾à¤¨ à¥Ģ
å £
×ķ× ©
c er
Ø§Ø¯ Ùĩ
Ġë§ Ī
à¦¾à¦¤ à§ĩ
à¥ĩ à¤¸
à¯ģà®ķ à¯į
Ġprze z
ĠãĤ ¢
Ġs ind
m p
Õ¡Õ ¾
Ġà¤² à¥ĭà¤Ĺ
à· Ĵ
Ä±n a
v Ã¡
à¦¿à¦ ¯à¦¼
à®° à®¿à®¯
Ġn el
Ġìĥ ģ
ĠØ§ÙĦ Ø¨
Ġà¤¬ à¤¾à¤¦
è ©
Ġna j
ra tis
g u
Ùĩ Ø±
Ġq ar
Ġn Ãły
ar a
Ġáĥĵ áĥĲáĥ¡
ģà¸ ±à¸Ļ
à±Ģ à°ª
é ķ
à¥ĭ à¤ľ
Ġâ ĺ
ÏĮ Î½
Ġ }
ĠÎ¼ ÏĢÎ¿
à°¿à°¤ à±įà°°
áĥ£áĥ ¤
ä» £
éĩ ĳ
Ð¸ Ð±
íĶ Ħ
Î¾ Î·
à¯ģà® £
Ġáĥ¬ áĥĲáĥłáĥĽ
Ïİ ÏĤ
ÑĢ Ñĭ
×Ļ× Ĳ
à°¿à° ļ
à¸Ńà¸¢à¸ ¹
Ï Ĭ
å¥ ½
Ð½ Ð¾Ð²
m es
áĥĺáĥĲáĥľ áĥĺ
ģà¸ ©
ÏĮ ÏĤ
ĠÙĨ Ùħ
ĠÑģ Ð¼
à°¿à° ľ
à¸µà¸¢ à¸Ļà¸
ĠÎ ¥
n Ã½
Ġà¤ķà¤¹ à¤¾
é¾ Ļ
è¿ Ľ
èµ°åĬ¿ åĽ¾
ĠáĥĽ áĥĺáĥĽ
Ġà¹Ģà¸ ¥
Ð³ Ð¾
ien to
¡ à°¿
Ġà¸Ĺà¸ Ķà¸¥à¸Ńà¸ĩ
ĠÑģ ÑĢ
Ġà¸ ĭà¸
Ġo p
à°¾à°² à°¿
áĥĿáĥĳ áĥ¡
Ã§ Ä±
ĠÐ° Ð²
Ġh at
Ġà° §
à®¿à®²à¯įà®² à¯Ī
ì¶ľìŀ¥ ìķĪë§Ī
áĥĲáĥľ áĥĵ
ìŀ Ħ
c t
ĠÙĩ Ø§
l ÉĻn
Ø§ÙĨ Ùĩ
Ġcom p
Ġà® ²
ãĤ °
i u
er n
à§ģ à¦ķà§įà¦¤
à¤¾à¤ ĵ
Å¡ e
Ġt ÉĻr
ãĥ¼ãĥ Ī
ĠØ¥ ÙĦÙī
ë§Ī ìĤ¬ì§Ģ
Ġm á»
Ġà¤¸ à¥Ģ
Ø§ÛĮ ÛĮ
ti que
Ġà®®à¯ģà® ©
s ta
×¨ ×Ĳ
ãĤ »
Ġà¤°à¤¹ à¥ĩ
Ġà¤¤ à¤ķ
Ġp os
à¦ª à¦°
Ġl á»
Ġy er
ãģ§ ãģ¯
Ġâ Ļ
Ġà®ħ à®¨à¯įà®¤
Ġà¤ķ à¤®
ĠG e
à¦¾à¦ ¥
jÄħ c
en s
d ÄĽ
Ġà®¤ à¯ĩ
Ġhá» į
ÛĮ Ø´
Ġáĥ© áĥĶáĥĽ
à¹Īà¸ ¡à¸
à° «
à¥Ĥ à¤¨
ķ àµįà´
ìļ °
ĠÏĥÏĦÎ¹ ÏĤ
ĠìĿ ĺ
Î¯ Î¶
à±Ģ à°²
áĥĺáĥ §
å® ŀ
é £
ĠÑģ Ð°Ð¼
Ġìľ Ħ
ĠÏĢ ÏģÏĮ
o is
áĥĺáĥ ŀ
Î¯ Îº
Ð°Ð¹ ÑĤ
×ķ× ¢
à°³ à±įà°²
Ĭà¸± à¹Īà¸Ļ
Î¯ ÎµÏĤ
3 3
ĠÐ½ Ð¾
g i
áĥķ áĥ¡
ģà¸±à¸ ļ
ĠÎ Ī
Ġà¦Ĺ à§įà¦°
Ð¾ÑĢ ÑĤ
à°°à±įà° µ
Ġà¸ Ľ
ĠÎºÎ± ÏĦÎ¬
t to
Ġà¤ī à¤ª
Ġ ä½
åĲ İ
æĬ Ģ
áĥĿáĥł áĥĺ
Ġà¸ Ĥ
Ð¸ Ð³
Øª Ùħ
Ġà°ª à°¾à°°
Ĺà¸ ³
Ð´ ÐµÐ»
à¹īà¸Ńà¸ ¡à¸
Ġwer den
à°· à±įà°Ł
ĠáĥĽ áĥĶ
à¯Īà®ķ à¯į
ĠÐ± ÑĥÐ´
ĠÔ ±
Ġà°¤ à±Ģà°¸
ĠÃ¼ z
r as
ĠáĥĽáĥĲáĥĴ áĥłáĥĲáĥĽ
ìĦ ¸
r u
ãĥ Ł
Ġà¦ķ à¦®
Ø± Ùĥ
Ġau x
ãĥ³ ãĥĪ
Ġs k
Õ¥ ÖĢÕ
ĠkeÃ§ ir
Ã¡ i
à¥Ĥ à¤°
gg i
Ø± Ú©
íķĺ ê³ł
ŀ à¯įà®ļ
à¦¨ à¦¿
e k
à¤¿à¤ ®
ãģ Ń
ãĤ §
×ķ× §
Ġà®® à¯Ĥ
x o
ĠP or
Ġm ar
Ġà¤ľ à¥Ģ
Äĥ m
Äį nÃŃ
ìľ Ħ
Ġ1 9
Ġà¦¸à¦® à§įà¦ª
m ÉĻ
Ã¶ n
ĠØ§ÙĦØ ®
Ġ Å
à¥ģ à¤¤
ide os
ãĤ ¨
er o
ĠØ§ Ø³
a in
Ġà®İ à®¤
áĥłáĥ £áĥļ
à¹Ģ à¸£à¸µà¸
à°ªà±įà°ª à±ģà°¡à±ģ
ä» ¶
nie j
Ġp ue
Â µ
Ġí Į
Î¼ Î®
à±įà° ·
Ġáĥ¡ áĥĲ
ä¿ ¡
éĿ ¢
Ð» Ð¾
b le
ĠÏħ ÏĢÎ¿
Ġà¦¸ à¦¬
áĥĶáĥ ®
Î¹Îº Î®ÏĤ
ĠÐ» Ñİ
ic e
à° ¥
à¸Ńà¸ ļ
ÏĦ ÏīÎ½
åĬ Ľ
ĠÑģ Ðº
à¤¸ à¥įà¤¤
Ġáĥŀ áĥĺáĥłáĥ
ĩà¸´ à¸Ļ
Ïĥ ÏĦÎ¿
ĠÙħ Ø¯
ĠÑģÐ² Ð¾
Ġà°ī à°Ĥà°¡
à¸Ļà¸µ à¹īà¸
Î¼ Î¹
à®© à¯Ī
Ã¶ y
è °
æ ı
ç» ı
Ġáĥł áĥĲ
ģà¸ ¥
Ð¾ÑģÑĤ Ð°Ð²
ti f
à°Ł à°¿
Ġth e
ĠÑĥ Ñĩ
Ġà¸ Ķà¸
à¦ ·
Ġà°ħ à°§
ĠáĥĲáĥĵ áĥĲáĥĽ
l Ã¡
Ñĥ Ñī
í Ĵ
à°¿à°¤ à±ĩ
Ġà®ĩ à®Ł
×ķ× Ĺ
áĥľ áĥĶáĥľ
a us
à¥ĩà¤ ľ
ĠØ¢ Ùħ
ÙĬ Ø³
Ġê ¹
Ġà¦¬à¦¾à¦Ĥà¦² à¦¾à¦¦à§ĩà¦¶
Ġà¦¯ à§ĩ
on n
d n
ĠìĦ ľ
Ġa lla
Ú© ÙĨ
Ġal s
Ã¡ ng
in de
à¤° à¤¾
n ya
à®¿à® ª
ÉĻs indÉĻ
Ġ os
ê³ µ
ent es
ÙĦ Ùħ
ãĤ ª
à Ń
à¥įà¤ ¨
Ġa s
à®® à®¾à®©
à¤Ĺ à¥Ģ
ĠÃ ª
×ķ× ¡
à¦¤ à¦¾
l u
Ã¡ t
ìķ ½
ĠØ§ÙĦ Ùĥ
à¥įà¤ ·
ãģķ ãĤĵ
ãģ« ãģ¯
j ÄĻ
Ġì¹´ ì§Ģëħ¸
un un
Ġde lle
ĠáĥĴáĥĲáĥĽ áĥĿáĥ
Ĺà¸ ³à¸
à°¿à° Ĺà°¾
Ġå Ľ
u er
¯ à§ĭà¦Ĺ
ÏĦÎ· ÏĦÎ±
Ġë į
á ¿
à°¾à° ¶
áĥł áĥĶ
æŀ ľ
å §
Ð¾Ñģ Ñģ
Ġf or
ĠÎ¸ ÎŃ
ĠØ´ Ø¯
áĥĿáĥĵ áĥĲ
ĠÎ´ Î¹
Ð° ÑĨÐ¸Ð¸
ne go
à°¯ à°Ĥ
ļà¸Ńà¸ ¥à¸
Ïĥ Ïī
å ¦
Ñģ Ð»Ð¸
Ġà¤īà¤¨ à¥įà¤¹
ĠáĥĽ áĥĺ
ķ à¸£à¸
Î³ Î³
Ø ¥
ĠÐ¾ Ð½
Ġà°ªà±įà°° à°Ń
Ġ à¸£
ĠÎ±Ïħ ÏĦÏĮ
w er
Ġg ÉĻl
åº ¦
å° ±
æ Ļ
Ġáĥ¨áĥĶáĥĽ áĥĵáĥĶáĥĴ
à¹īà¸² à¸Ļ
ĠÐ´ Ð¾
à§ģ à¦¬
à±ĭ à°¤
Ħà¸§à¸²à¸ ¡
Ñ Ĭ
Ġà¹Ģà¸ §à¹ĩà¸
Ġg iá»
à±įà°¯ à°Ĥ
áĥĶáĥłáĥ Ĺ
os ti
Ð°Ð½ Ð¸Ðµ
Ġà®ļ à®¿à®±
à°¿à°¯ à±ģ
Ġna ch
ler i
áĥķ áĥĲáĥľ
ê ´Ģ
åįķ åıĮ
ar d
Ġà¦ħ à¦Ń
Ä± x
ì ¡°
Ġ× ¦
Ġo raz
Ùħ ÙĨ
ant s
à®£à¯įà®Ł à¯ģ
Ġvo or
Ġm eng
u jer
Ã± o
àµį âĢį
Ġì Ľ
à¦¿à¦ ª
c ÉĻ
am i
is ch
à®Ł à®¿
ÙĦ Ø§
ic k
à´ °
à¤¾à¤° à¤¾
Ġy ap
an a
æĭ į
Ġm on
Ġkh i
Ġà¦¸ à¦°
Ġãģ Ĭ
Ġà®ĩ à®²à¯įà®²
ç ķ
ĠÙĨ ÛĮ
à¥Ĥ à¤ª
íĸ ī
Ġ×Ķ× ©
Õ ¯
Õ¡Õ¯ Õ¡Õ¶
asÄ±n da
u est
áĥĺáĥ¨ áĥľ
Ġà¹Ģà¸Ķà¸´à¸¡à¸ŀà¸±à¸Ļà¸ Łà¸£à¸µ
à±ģà°¤ à±ģà°¨à±įà°¨
è Ĳ
Ġà¦¦ à§ĩà¦¶
Ġà®Ĩ à®©
Ïĥ ÏĦÎ±
Ġs us
Ïģ ÎµÏĤ
à±įà° ¬
ĠáĥĽ áĥ¡
è§ Ħ
ĠåĮ Ĺäº¬
Ð°Ð½ Ð¾Ð²
ĠØ§ÙĦØ µ
Î´ Î¹
u i
áĥłáĥ Ĵ
Ïħ Ïĥ
Ðº ÑĤ
Ġv or
à±ģà°ķ à±ģà°Ĥà°Ł
Ġ à¸£à¸
ĠÎŃÏĩ ÎµÎ¹
å »
Ð¾ÑĤ ÑĢ
Ġà¤® à¥ģà¤
áĥ Ń
Ī à¸£à¸´à¸
ĠÏĥÏĦÎ¿ Î½
Ã¼ s
Ð¼ Ð¸
à±ĩà° ¤
ģà¸ ¡à¸
ĠÎ± Î»Î»Î¬
Ġm ÄĽ
ne j
ģ éĢŁ
åĮ ĸ
èĩ ª
ĠáĥĽ áĥĿáĥ¡
¢ à¸Ļà¸
Ð°Ð» Ð°
Ġcom e
Ġà°Ń à°¾à°°
Ġan d
Ðº Ðµ
Ġ à¸Ń
ĠJ e
à°Ĥà° §
ĠáĥĴáĥĲáĥĽ áĥĿ
à¦¿à¦ Ľ
ÑĤ Ð¾Ð¼
on ne
Ġà°ķ à°¾à°¨
ê¸ Ī
m os
áĥłáĥ ĵ
ĠØ´ Ø¯Ùĩ
§ ç¾İ
Ġà®® à¯Ģ
ÙĤ Ø¯
m ÉĻt
ì ¶Ķ
Ġc as
á»ĳ c
Ġìķ Ī
ab le
×Ļ ×Ļ×Ŀ
ĠÕ «
ein e
ĠW y
à¯ģà® ²
Ġà¤¬ à¥Ģ
íĶ ¼
ĠÄ Į
Ġk imi
b a
à¦¨à§įà¦ §
p s
ê² ½
à¯ģà®ķ à®³
ç ²
Ġà¤¬ à¤¾à¤°
ĠiÃ§ in
à¦¾à¦¨ à§įà¦¤
à¥į âĢį
Ã© es
ÅĽ ci
ess o
Ġun s
ëª ħ
ĠC on
ĠØ§ÙĦ Ø±
à¤ ¢
Ġ Å¡
ãĥ ĳ
ĠA r
Ø§Ø ®
Ġa p
Ġà¦® à¦§à§įà¦¯
áĥĺáĥ «
±à¸ įà¸
à±ģà°ķ à±ģà°¨à±įà°¨
å® ļ
ĠÄĳ áº¿n
ÉĻy ÉĻ
Î¿Ïį Î½
Ġs ie
ÏĢ Î·
ĸ à±įà°¯
áĥĶáĥĹ áĥĺáĥ¡
Ġäºļæ¸¸ éĽĨåĽ¢
p k
ĠÐ¾ Ð¿
Ġm et
Î¼ ÏĨ
ll es
áĥłáĥ £áĥ
ÏĪ Î·
Ð¾Ð»ÑĮ ÑĪ
ÃŃ m
à°¾à°Ĥà° ¤
à¹Īà¸ĩà¹Ģà¸ ĩà¸´à¸Ļà¸
ÏģÎ¿ ÏĤ
æ Ľ
ÐµÐ» Ñı
Ġ201 9
áĥĺáĥ ¦
ļà¸²à¸Ĺ à¹Ħà¸Ĺà¸¢
ĠÎ¼ Î¿Ïħ
Ġí Ĩ
ÑģÑĤÐ² ÐµÐ½
Ġà°®à°° à°¿à°¯à±ģ
Īà¸ °
ÏĦ ÏİÎ½
ti c
s ka
è¿ ĩ
æĪ ĳ
æ į
Ġáĥĵ áĥĺáĥĵ
à¸Ļà¸ ´à¸
Ð½ ÑĥÑİ
×Ļ× ¢
Ġà®ķ à®²
Ġà¸ª à¹Īà¸ĩà¹Ģà¸ĩà¸´à¸Ļà¸
Ð¾Ð»ÑĮ Ð·
¥à¸ĩà¸Ĺà¸ °à¹Ģà¸ļ
Ġa y
ĠØ§ Ø±
áĥĿáĥķ áĥľ
Ġà°Ĺ à±įà°°
ĠÐ· Ð°Ðº
Ġcon t
à¦¾à¦ Ĥ
n oÅĽci
Ø¹ Ø©
áĥ£áĥ ®
Ġí Ķ
çĶµ å½±
à¯ģà®µ à®¤
Ã© m
Ã¤ n
k ow
à±ģà°ķà±ĭ à°µ
Õ¥ Õ¶
h a
à§ģ à¦ķ
è ³
on e
Ġgi Ã¡
Û °
ĠØ¨ ÙĪØ¯
Ġà¤¸ à¤°
íķ Ļ
à¦¨ à¦¾à¦°
Ġes te
r an
à±įà° £
æĢ §
ÙĤ Ø©
Ġ× ĺ
20 1
Ġà¤ķ à¥ģà¤
íķ ł
ĠÃ© ta
Ġà¤¥ à¥Ģ
à¯ģà®ķ à®³à¯į
Ġt il
Ġvá» ģ
as i
à§ĩà¦ ľ
ĠgÃ¶r ÉĻ
Ã© n
à¶ ±
èĢ ħ
Ġp ow
à¦¾à¦¤ à§įà¦°
Ùħ Ø©
te l
à®¿à®¤à¯įà®¤ à¯ģ
áĥĿáĥ ŀ
¢ à¹Ģà¸
Ġà°¨ à±ĩ
ä¸Ń åĽ½
Ġan che
l ÉĻt
ÏĢ ÎµÎ¹
ĠØª Ø§
Î¸Î· ÎºÎµ
à°¾à°° à°¿
áĥĺáĥĿ áĥľ
Ġå į
å¥ ĸ
ĠÐ²Ñģ Ðµ
×ķ× ŀ
ĠÎľ Îµ
s on
áĥĿáĥ ¨áĥĺ
Î¹Îº Î¿Ïį
ÑĢ Ð°Ð·
Ġà®ļà¯Ĩà®¯ à¯įà®¯
à°¿à°Ĥà°Ĺ à±į
±à¸ ģ
Î¿Î¹ Î½
Ġå ®
ÐµÑģ Ñģ
æ¸ ħ
áĥĶáĥĹ áĥĺ
Ĭ à¹Īà¸§à¸
Î»Î¿ ÏĤ
ment s
Ð¾ÑģÑĤ Ð¾
Ã³ ÅĤ
ªà¸²à¸ ¡à¸²à¸£à¸
Ïį ÏĦÎµ
ll ar
à ²
è £
ä» ¬
æĸ ĩ
ĠáĥĵáĥĲáĥ ĺ
«à¸ ¥
ÑģÐº Ð¾Ð¹
á»© c
à§įà¦ Ľà§ĩ
Ġà¸ ļ
ÑģÐº Ð¸Ð¹
à¸² à¹Ģà¸
à°Ĥà°¤ à±įà°°
ìĿ¼ 1
áĥĺáĥ¡ áĥĲ
Ġë Ĳ
Ñĥ Ð½
v nÃŃ
Ġà¦¨ à¦¿à§Łà§ĩ
à°® à±ĩ
ĠE in
áĥĺáĥĹ áĥ®
ti v
æĹ ł
ØŃ Ø¯
ie j
Ġà¦Ľ à¦¿à¦²
à¯Īà®ķ à®³à¯į
ij n
ĠØ® ÙĪ
à°¸ à°Ĥ
ĠP ar
ëŁ ¬
or s
f er
Ġn ÉĻ
áºŃ p
Ġà¤ Ĳ
o k
Ø´ Ø¯
à¦¸ à§įà¦¤
à¯ģà® ļ
à°°à±įà° ¶
Ġ×Ķ ×ª
Ø ¤
g ar
à¤¾à¤ĵ à¤Ĥ
ĠæĹ ¥
ìŀ ħ
g li
Ġà¤µ à¤¹
an Ä±
Ġ {
æ¥ Ń
Ġà®¨ à®¿à®²
Ġn ÄĽ
Ġk on
p h
å ķ
à¦¿à¦ķ à§įà¦·
Ġun tuk
ur ch
ÙĦ Ø©
un u
ar io
áĥĶáĥļ áĥ¡
Ħà¸£à¸ ·à¹Īà¸Ńà¸ĩà¸
à°°à°¿à° Ĺ
è¿ Ĳ
ation s
Å© ng
Ïģ Î¯Î±
ĠØ§ Ùģ
Î¼ Î¿Ïį
à°³ à±įà°³
ĠáĥĹáĥ¥ áĥķáĥĶáĥľ
¬ ¬
ĠA G
Ð Ĵ
Ġ us
ÏĦ Î¿Ïħ
Ġà¦¬à§įà¦¯ à¦¬
ĠáĥłáĥĿáĥĴ áĥĿáĥłáĥª
ĠÎĳ Î½
ÐµÐ» Ð¸
Ġà®ª à®¯
à°ķà±įà°ķ à°¡
Ġà¸ ŀà¸
ÏĮ Î³
å¿ ĥ
ĠÐ´ Ð²
à¤¾à¤¨ à¤¾
Ġáĥĵ áĥĲáĥķ
Ġà¹Ĥà¸ Ķà¸
ÏĢ Î¹
vo ir
ĠÐ¿ Ð¾Ðº
Ġ ãģ¨
Ĺà¸²à¸ ĩà¸
Î» Î¹
×Ĺ ×¨
ÙĦ ÙĪØ¯
Ġag åĽ½éĻħ
ä¸ İ
æĹĹèĪ° åİħ
áĥĲ áĥĲ
Ġà¸ Ĺà¸µà¹Īà¸
ÐµÑĢ Ð¶
Ġs Äħ
ĠØ§ ÛĮ
à¸£à¸²à¸ °à¸
ÑĨÐ¸ Ð¾Ð½
Ġà¸ ¥
Ġà°ª à°°
Ġêµ ¬
áĥĲáĥłáĥ ¡
Ġdas s
ĠÐ¸ Ð³
Ã¼ t
Ã± os
à±ģà° ¸
Ø§Ø µ
áĥķ áĥł
iáº¿ n
Ġà¤¬ à¤¹
à§ĭ à¦²
z o
c on
ãĥ Ĭ
Ġc i
Ġì ¡°
Ġà°ī à°Ĥà°Ł
à¦¾à¦ľ à¦¾à¦°
Å Ī
Ġtr a
ãģ§ ãĤĤ
à¦ ŀ
Ġà®µà¯Ĩ à®³
à¥ģ à¤®
Ø§Ø± Ùĩ
Ġv ar
ãĥ ĵ
u je
ÙĬ Ùģ
ê² ©
Ġpor no
ic as
Ġà¤® à¥ĩ
æĥ ħ
Ġent re
Ġà¦¥ à¦¾à¦ķ
Ġà¤¸ à¤¬
Ġ×ŀ× ©
Ġg ia
Ġà®¤ à®²
l am
ÙĨ ÛĮ
Ġa m
ìĹ Ń
Ġà¤¦ à¤¿à¤¯à¤¾
è »
Ġde ngan
a Å¼
Ġà®ĩ à®µ
ĠÙħ Ø§
Ġà®®à®±à¯įà®± à¯ģà®®à¯į
áĥķáĥĶáĥ §
à¹Īà¸² à¸Ļà¸
Ġà°µà°¿à° ·
¯ åıĳ
Ġà¦ķ à§ĭ
ĠâĢ ¦
ÏģÎ¯ Î¿Ïħ
Ġb ien
Îµ Ïĩ
Ġà° ·
ĠáĥĹáĥĲáĥķ áĥĺáĥ¡
Ġå ¹
Ġå½© ç¥ŀ
Ð Ł
h n
Ġï¿½ï¿½ï¿½ï¿½ ï¿½ï¿½
s p
áĥķ áĥĶ
Îµ Îº
ÑģÑĤÐ² Ð°
à¦ ī
à±įà°Ł à±įà°°
¥à¸ĩà¸Ĺà¸°à¹Ģà¸ļ à¸µà¸¢à¸Ļà¸
Î ĵ
åı ¸
Ð¸ÑĢ Ð¾Ð²
à¤¿à¤ Ł
ĠáĥĽ áĥĶáĥ¢
à¸Ńà¸ µà¸
ÎĻ Îĳ
ì ¦
Ðº Ð¾Ð²
Ġ×Ķ× Ĺ
ģà¸ ´à¸
ĠÏĥ Î·
Ã¶v lÉĻt
ãģ ļ
éĩ į
Ġ ä¸Ģ
Ġå Ĳ
áĥĺáĥ ĳ
ªà¸ ³à¸«
ĠÐµ Ð³Ð¾
u is
Ġa d
§à¸ ±à¸Ļà¸
Ð» Ðµ
Ġà¸ ¡à¸
Ġà°ķ à°¨
à¦¿à¦ķ à§ĩ
ĠáĥĽáĥĺáĥ¡ áĥĺ
ĠlÃł m
ÑģÑĤ Ð°Ð²
Ġt ym
ĠØ¨ ÛĮ
Ġ Å¾
ĠØ§ÙĦ ÙĪ
áĥĲáĥ¨ áĥķ
Ġì¶ľìŀ¥ ìķĪë§Ī
à¤¤ à¥įà¤¤
íĴ Ī
a ar
à°ª à±Ī
i to
ur es
Ġ á»Ł
ÉĻ ll
Ġì ½
k on
Ġo t
Ã¤ t
Ġà°® à°¹
ou v
à¥ĭ à¤Ł
Ġëĵ ±
Ġà¦ķ à¦¿à¦¨
Ġh ÉĻm
Ġ×ŀ ×Ķ
Ø± Ùħ
ãĤ ĥ
ãĤ¤ ãĥĪ
ìĿ¼ 2
éģ ĵ
Ġà¤ľ à¤¿à¤¸
ÄĻ p
Ø§ Ùĭ
à¤Ĺ à¥ĩ
u j
Ġà¦¬à¦² à§ĩà¦¨
Ġwir d
Ġà¦ı à¦¸
ĠÃª tre
ãģª ãģ©
í ģ
åľ¨çº¿ è§Ĥçľĭ
ob re
Ġa le
Ġin ter
Ġà¦ķà¦° à§ĩà¦¨
Ġ1 2
Õ¡ Öģ
áĥĺáĥ «áĥļ
ķ à¸´
à±Ģ à°¨
Ł ¥
u ÅŁ
à±įà°° à°®
ĠÎºÎ± Î¸
Ġà¦¸à¦® à§Ł
Î¼ÎŃ Î½Î¿
Ġà°Ĩà°¯ à°¨
áĥĲáĥ Ķ
å®ĺæĸ¹ ç½ĳç«Ļ
åĬ ł
Ð» Ð°
en za
Î¯ Î¿
Ġb aÄŁ
áĥĶáĥĳ áĥĶáĥļáĥĺ
ÏĦ ÎŃÏĤ
Ð¸ ÐµÐ¼
is chen
à±ģà°¨ à°¿
Ġà¹ģà¸ ¥à¸°
Î² Î±
åħ ³
ÑĥÐ» ÑĮ
à¤ķ à¥ĭ
áĥ§ áĥķ
à¹Ĥà¸£à¸ ĩ
Ïĥ Î¯Î±
ë° Ķ
ĠÐ¿ Ð¾Ð¼
Ġn ej
ķ à¹Į
Î½ Ïī
Ġ×ĳ ×Ĳ
ĠÃ ¥
è§ £
åī į
è¿ Ļ
Ġáĥł áĥĲáĥª
ī à¸
Ð¾Ð± Ñĭ
ÙĪØ± Ø¯
Ã¼ l
Ġà¹Ĥà¸Ľà¸£ à¹Ĥà¸¡à¸
Ð¾ ÑĪ
«à¸ ¡à¸²à¸
à°Ł à±įà°²
Ġà¦Ĩ à¦¬
áĥĺáĥ£áĥł áĥĺ
à® ¨
Ð» Ð°Ð´
Ġf o
áº¥ y
sz e
Ġau t
Ġáĥ¨ áĥĶáĥľ
ìĺ ģ
à¥ģ à¤¦
ĠìĬ ¤
Ġà¦° à¦¾à¦ľ
à±ĩà° ª
à¯įà®ļ à®¿
Ġp res
Ġh e
Ġol du
ĠØ³ Ø§ÙĦ
Ġâ Ĩ
à¯ģà® ´
ĠktÃ³ re
à±Ĥà° ª
Ġc áº£
à¤¿ à¤Ĥ
Ġâ ĸ
Ġà¦¦ à§ģ
é ł
Ġin i
m ÄĽ
al iz
i ent
Ġâ Ķ
Ġà¤ĩ à¤¨
à¥įà¤ §
çī ©
ĠA us
Ġ +
à¯įà®ª à¯įà®ª
Ġà¦ªà§įà¦° à¦ķ
Ø§ Ø´Øª
à§ĩà¦Ľ à¦¿à¦²
×ķ× ¦
ĠC om
Ġìŀ Īëĭ¤
Ġà¤°à¤¹ à¤¾
a dÉĻ
n ost
Ġc am
owan ie
Ġt áº¡i
à¯įà® ¸
áĥ£áĥ ĵ
Ġà¸ ¥à¸ĩà¸Ĺà¸°à¹Ģà¸ļà¸µà¸¢à¸Ļà¸
Ġà°¸ à±įà°µ
åĬ ¡
ch t
Ġà°¨à±ģà°Ĥà° ļà°¿
ÏģÎ¿ Ïį
ĠÙĦ Ø§
Î¬ Ïģ
Ġà°ħ à°Ń
Ġáĥ¡áĥĲáĥ® áĥĶáĥļ
Ġåľ ¨
à¨¾ à¨
Ð¸ÑĤ Ðµ
Ġdz ie
ĠÎ¼Îµ ÏĦÎ±
Ġr is
áĥĲáĥł áĥĶ
Î¿ Ïģ
Ñĥ ÑĪ
c ar
Ġà°ħ à°Ĥà°¤
Ġà¸ ľà¸
Î³ÏģÎ± ÏĨ
Ġ Ĉ
ĠÐ¿ÑĢ Ð°Ð²
à¤¤ à¥įà¤°
áĥĶáĥ¡ áĥĺ
à¸²à¸ ģ
ĠÎ± Î³
ëĲ ĺ
ĠÐ± ÐµÐ·
ãĤ ĩ
Ĺà¸ ¸à¸
ÏĢ ÏīÏĤ
ĠâĢ İ
m Ä±ÅŁ
Ġç Ķ
à¤¾à¤Ĥ à¤ļ
çŃ ī
áĥĲáĥ® áĥļ
Ġà¸¥à¸ĩà¸Ĺà¸°à¹Ģà¸ļà¸µà¸¢à¸Ļà¸ Łà¸£à¸µ
Ð¾Ð» Ð½
Å¾ ÃŃ
ĠD as
¡à¸²à¸ ģà¸
ÑĤ ÑĮ
Ġ0 0
à°¾à°² à°¨à±ģ
Ġmo Å¼
áĥĲáĥł áĥĺáĥ¡
ent a
ÑģÑĤ ÑĢ
Ùĥ ÙĨ
Ø§Ùħ Ùĩ
iá»ĩ u
p at
ĠáĥĽ áĥĿáĥľ
Ġ×ķ ×Ķ
Ġà¤¸ à¥įà¤µ
ant es
à®¾à®³ à¯į
à°¾à°² à°¨à°¿
ĠÕ ¿
Ġol m
ë Ħ
al is
à¯Īà®¯ à¯Ī
âĢĮ ÙĩØ§ÛĮ
ãģĹ ãģĦ
Ġz e
à±ģà°¤ à±įà°µ
h t
Ġà¤ķà¥ģà¤ Ľ
áº ±
Ġd is
ãģ¾ ãģĽ
a f
à¯Īà®ķ à®³
ĠìĨ Į
ra w
Ġa i
à¤¾à¤ ģ
Ġà¤µ à¥įà¤¯
Ã¼ ck
ĠM ar
¼ åĲĪ
à¦¿à¦ ·
en ce
m iÅŁ
Ã¡ m
×Ļ× ĺ
Ġc ette
Ġb ÄĻ
Ġ1 1
Ġì Ļ
ĠÙĪ Øª
Ġà§ «
d nÃŃ
d ur
à§ĩà¦² à¦¾
ĠáĥĶáĥłáĥĹ áĥĺ
Ĺà¸µ à¸
Ġà°ī à°Ĥà°¦à°¿
æĬ ķ
i Ã³n
Ġà°ļ à°¾à°²
ĠÏĥ ÏĦ
à®¿à®¯ à®¾à®ķ
ÏģÎ± Î³
Ġa cc
Ġáĥŀ áĥĺáĥł
ç ³
è ĭ
ĠÐ¿ÑĢ Ð¾Ð´
Ġa b
Î Ķ
Ġà¦¬à¦¿à¦¶ à§įà¦¬
áĥĺáĥľ áĥĺáĥ¡áĥ¢
ĠÎ ¡
Ð» ÐµÐ½Ð¸Ñı
cy j
à°Ĥà°¡ à°¿
Ġà¸ªà¹Īà¸ĩà¹Ģà¸ĩà¸´à¸Ļà¸ ļà¸²à¸Ĺà¹Ħà¸Ĺà¸¢
ÏĦÎ¹Îº ÎŃÏĤ
åĲ Į
Ð¸ÑĢ Ð¾Ð²Ð°Ð½
Ġà¤¯ à¤¾
áĥĲáĥ¥ áĥ¢
à¸£à¸²à¸Ħ à¸²à¸
Î² Î¬
szy st
Ð¾ÑĢ Ð¾Ð´
Ø¨ Ø©
à¸´à¸ Ķà¸
ĠÎº Ïħ
en i
Ġìľ ł
åĮ º
éĴ Ł
pk 10
áĥĲáĥ §
ģ à¸£à¸°à¸
ĠÐ² Ð¸Ð´
Ġà®µ à®¿à®Ł
à°¾à°Ĥà° Ł
ŀà¸Ļà¸ ±à¸Ļà¸
ĠÐ½ Ð¾Ð²
à¹īà¸²à¸ ĩà¸
à§įà¦¯ à¦¾à¦²
ier t
áĥĽ áĥĺáĥ¡
Ġs áº½
ĠÐ² ÑĢÐµÐ¼
ãĥ »
ãĥ¼ãĥ ī
ov Ã¡
Ġ ÉĻm
ĠáĥĴ áĥĲ
ĠN ie
Ġà¤¦ à¥ĩà¤ĸ
il er
il i
×ķ× Ĵ
Ġà°ħ à°²
à¯Īà® ¨à¯įà®¤
à¦¤ à§įà¦¤
it s
ãĥ Ķ
Ø§Ø ·
asÄ±n Ä±n
åı ĸ
Ġa an
Ġein en
Ġà¤¸ à¥įà¤¥
Ġà°° à±ĭà°ľ
t il
ìĥ Ŀ
os z
ĠB ak
s an
Ġs v
Ġc ar
åĭ ķ
à°¾à°² à±ĭ
à¤¢ à¤¼
Ġà¦ķ à¦¥
Ġm Ã©
Ġà®ī à®Ł
Ãª u
ĠØ§ ÛĮØ±
Ø¹ ÙĦ
ê° ķ
cj e
Ġà§ ¦
Ġw ar
×© ×¨
íĨ ¡
Ġà§ ª
ìĭ ¤
ķàµįà´ ķ
à· Ģ
áĥĲáĥª áĥĺáĥĲ
łà¸²à¸ ŀà¸
Ġà¤¹à¥ģà¤ ı
Ġåĩ ¯åıĳ
Ġt ien
à±įâĢĮ à°²à±ĭ
ĠÏĥ Î±ÏĤ
Ä± lÄ±
Î¸ Î®
Ġà¦ķ à¦¾à¦ľ
Ġáĥ¥ áĥĲáĥłáĥĹ
ĠæĪ ĳ
é Ĥ
Ñı Ð·
Ġp Ã¥
Î¼Î± ÏĦÎ¿ÏĤ
Ġp la
áĥĺáĥ£áĥ ļáĥĺ
ÏĦ Ïī
ĠÐ¾ ÑĢ
ĠÙħ Ø´
Ġà® ĵ
Ħà¸¸à¸ ĵ
Î¿Ïħ Î»
Ġæ ī
Ð¾Ð¿ ÑĢ
ìĦ ł
Ġáĥ¥ áĥĲáĥļ
ģà¸ ¥à¸
ĠÏĥ Ïĩ
Ġd á»¥
Ð°Ñģ Ñģ
ĠÃ§ Ä±x
à¹ĥà¸Ĭà¹īà¸ Łà¸£à¸µ
ĠÎ¼Îµ Î³
gg io
Ġl ub
çĤ ¹
å¾ Ĺ
æ¯ Ķ
áĥĶáĥ ¤
à¹Īà¸² à¸Ļ
Ð¾ÑģÑĤ Ð¸
Ġfa it
Ġà¦ı à¦®
Ġà¸Ĺà¸Ķà¸¥à¸Ńà¸ĩ à¹ĥà¸Ĭà¹īà¸Łà¸£à¸µ
ĠÐ¸ ÑģÐ¿
à¸£à¸²à¸Ħ à¸²
à±Ĥà° ²
to v
áĥĲáĥķ áĥĺ
à¤°à¥įà¤ µ
ĠÐ¼Ð¾Ð¶ Ð½Ð¾
g un
ìĿ´ ëĭ¤
à¯ĭ à®¤à¯ģ
ĠØ¯ Ø³Øª
áĥĲáĥ ©
t ure
i f
ÙĬ Øª
à¦¾à¦ £
à°¡ à°¾à°¨à°¿à°ķà°¿
Ġà¤ļ à¤¾à¤¹
il ÉĻn
Ġk ann
à¯Ģ à®°
Ġs am
ĠÄĳ Ã³
ë© °
ãĥ¼ãĥ ł
Ġcom me
Ã½ m
Ġp ri
Ø´ ÛĮ
Ġà®İ à®´
à¦¿à¦ ļ
×Ļ× ŀ
Ġzu m
à¥ģ à¤ª
è¨ Ģ
Ã¼ z
Ġp rz
ĠØ º
à¥įà¤ ¡
à®¸ à¯į
à¦¾à¦° à¦¾
Ġb ar
ãĥ³ãĥ ī
b eit
Ġà®ķ à®¾à®²
Ġd at
Ãª me
ĠâĢİ #
Õ¸ÖĤÕ©Õµ Õ¸ÖĤÕ¶
Ġnh Ãł
Ġk om
Ġë ¹Ħ
u o
à¤ķ à¥įà¤¤
ç² ¾
ĠáĥĴ áĥĲáĥĺ
à¹ĥà¸ Ī
é¦ Ļ
éĢ ļ
à°Ł à±įà°²à±ģ
ad os
Î¹Îº ÎŃÏĤ
Õ¸ ÖĢ
ÏģÎ¹ Î½
Ġm an
Ġáĥķ áĥĶáĥł
å± ķ
æľ Ł
ĠÐ¼Ð¾Ð¶ ÐµÑĤ
à§ģà¦° à§ģ
ĠÎµÏĢ Î¯
Ġp om
Ġáĥŀáĥĺáĥłáĥ ķ
Î½Î¿ Î¼
Ð» Ð°Ð²
×ł ×ķ
³ Û
à¹ĥà¸«à¸ ¡
Î´ Î®
äº Į
ĠÐ´ ÑĢÑĥÐ³
ĠØ¯ ÙĪ
áĥĲáĥª áĥĺáĥĺáĥ¡
à¸Ńà¸ ģ
Ïİ ÏģÎ±
ĠØ§ÙĦØª ÙĬ
ĠÐ ¥
l ay
à¹Ģà¸ ķ
ÏĦÎ¿ Ïį
Ġà°ļà±ĩà° ¶
Ġà®¨ à®¿à®±
Ġæ ĸ
æ° ĳ
éĩ ı
Ġáĥ¡áĥĲáĥ ĳ
à¹ģà¸¥ à¹īà¸§
Ñı Ð½
Ġz ÅĤ
Ġc ou
Łà¸¸à¸ķà¸ ļà¸Ńà¸¥
0 4
Ġ $
Ġg o
Ã² ng
áĥľ áĥĲ
à¤¿à¤ ĸ
ĠÐ´ Ð¾Ð»
ng e
Ġà°µ à°°
Ġd ari
à¦¾à¦² à§ĩ
áĥľ áĥĿáĥĳ
ra v
Ġq al
íķ ©
×Ļ× ¤
Ġ ont
¨àµįà´ ¨
z i
Ġà®ļ à®®
ĠØ¯ ÛĮ
Ġm Ãł
à±ģà°Ĥà° ¡à°¾
Ġper o
Ø§Ø ¶
Ġà¦¨ à¦¾à¦®
i cz
Ã¶ r
à®ķà¯įà®ķ à¯ģ
ia mo
ê± °
ov Ã©
p u
Ġ áĢ
Ġa ll
à°Ĥà°¦ à±ģà°ķà±ģ
Õ¸Õ ¾
Ġo lar
à¤ķ à¤¿à¤¨
à¦Ļà§įà¦Ĺ à§ĩ
Ġà°ª à±Ĭ
à®¤ à®¿
Ġc Å©ng
à¦§ à¦¾à¦¨
ãģ¾ãģĽ ãĤĵ
ĠØ§ÙĦØ °
Ġ×Ķ× ¢
Ġà¦¤ à¦¾à¦¦à§ĩà¦°
Ġy ax
Ġà®µà¯ĩà®£à¯įà®Ł à¯ģà®®à¯į
Ã£ o
ĠØ¯Ø§ÙĨ ÙĦÙĪØ¯
Ø± Ùģ
ç ĥ
Ġà¤¤ à¤°
áĥĲáĥĿ áĥĳ
¢à¸ §à¸
Ġà¤ľ à¤¬
æ ¶
ĠA l
à±ģà°¨ à±ģ
ĠÏĥ Ïį
¯ ¼
Î¹Îº ÏİÎ½
Ġbe z
ĠáĥĽ áĥĵ
äº Ķ
åĳ ĺ
ÑģÐº Ð¾Ð³Ð¾
Ú¯ ÛĮ
Ïĩ Î±
ci as
áĥľ áĥĶáĥļ
ĠÎŁ Î¹
Ñĥ Ñħ
Ġfa ire
à®° à¯ģà®®à¯į
à¸Ļ à¹īà¸
ĠÎľ Î±
å¤ ĸ
Ð¾ ÑģÐº
Ġì ¢
© áĥĶáĥķ
Ġà¹Ĥà¸Ľà¸£à¹Ĥà¸¡à¸ Ĭà¸±à¹Īà¸Ļ
Ïģ Îº
et ti
ĠÐ¾ Ñĩ
ĠpÅĻe d
à¸£à¸²à¸ ¢à¸
ÏģÎ¹ Î¿
ĠP ol
à°Ĥà° ¬
éķ ¿
Ġæ ŀ
å ĸ
ĠáĥĴ áĥĲáĥķ
à¸²à¸ ªà¸´
Ð¾Ð³ Ð´Ð°
b ie
Ġà¦ķ à¦¾à¦
Ġà¹Ģà¸ ¡à¸
Ð´ Ðµ
Ġà¸ªà¸ ¥à¹ĩà¸Ńà¸ķ
Äĥ n
à¯ģà® ªà¯į
Ġáĥłáĥ £áĥ¡
Ġ à¬
Ðµ Ñī
Ġo r
à°° à°£
×Ļ× ¡
Ġà¦¬à¦¿à¦ Ń
áĥĿáĥłáĥ ¢
g t
Ø´ ÙĨ
en cia
owa Äĩ
a ire
Ġà¤ħà¤§ à¤¿à¤ķ
ì¶ľìŀ¥ ë§ĪìĤ¬ì§Ģ
ê° ľ
Ġà®ª à®°
ç ·
à±ĭ à°Ĥà°¦à°¿
an no
à°¾à°² à±įà°²à±ĭ
ĠØ£ ÙĪ
Ġh Ãłng
à¦¸ à¦²
ĠÃ¶l k
g er
à¦° à§ĩà¦°
ãĤĮ ãĤĭ
Ø¨ ÛĮ
à¤¿à¤ ª
´ë Ŀ¼
Ġà®ħà®¤ à®¿à®ķ
à°® à±ģ
ÄŁ i
é«ĺ æ¸ħ
Ġs obre
Ġà°® à°¾à°Ł
Ġëı Ļ
Ġcon s
ar z
p l
à¦¤ à§įà¦¯
Ġne bo
ĠT e
á» ģ
ĠÕ Ģ
Ġ Õ¡Õ
lÉĻ ÅŁ
ak an
Ġà¤ľ à¤¾
Ġà¤ª à¥Ģ
Ġáĥŀ áĥĿáĥļ
ªà¸ ¹à¸
Ġà¤²à¥ĩ à¤ķà¤¿à¤¨
è® ¯
¹ Û
Ġà°ªà±įà°°à°Ń à±ģà°¤à±įà°µ
Î´ Î¹Î¿
ĠÙħ Ø±
Î· ÏĥÎ·
ãĤ¹ ãĥĪ
ĠáĥĲáĥĵáĥĲáĥĽ áĥĺáĥĲáĥľ
æŃ £
èĤ ²
Ð½ÑĭÐ¼ Ð¸
Ġà¦¸ à¦¹
ĠÎ´ Îµ
Ġw iÄĻ
áĥĿáĥ ĸ
Î¿Î½ ÏĦÎ±Î¹
Ð°ÑĤÑĮ ÑģÑı
p ar
Ġà®ļà¯Ĭ à®²à¯įà®²
à¸´à¸ ĩà¸
Î»Î» Î±
å ¢
ĠÑį Ðº
à®¤ à¯Ī
Ġáĥ¥ áĥķáĥĶáĥ§
¶ à¹Īà¸ĩà¸
ÎĻ Î£
ìĭ Ŀ
Ð Ķ
Ġs ein
à¹Ĥà¸ Ķà¸
Ïĥ Î±Î½
×Ļ× Ľ
Ġà°¨ à±Ģ
Ġ á
ä¿ Ŀ
Ġæ ĺ
áĥľ áĥĶáĥĳáĥĲ
¤ à¸
ÑĦ Ð¾ÑĢÐ¼
Ø¯ ÛĮØ¯
Ġ1 5
ªà¸ Ķà¸
Ð»Ñİ Ñĩ
ªà¸ ¥à¹ĩà¸Ńà¸ķ
Õ¸Õ ²
Õ¥Õ ¿
áĥ¡ áĥ¢
è į
Ð°Ðº ÑĤ
à¦¾à¦° à§ĩà¦°
à±Ĩ à°¨
à®¿à®ķ à¯į
es i
áĥĿáĥļ áĥĿ
ch er
ĠP our
owan ia
ut as
ĠÙħ Øª
à¤°à¥įà¤ ¤
ĠÄĳá» ĭ
à§Ģ à¦¨
en er
on d
el u
Ġìĭ ł
à°° à°¿à°ķ
et e
Ġtr Ã¨s
à®¾à®¤ à¯ģ
Ġis ÉĻ
Ġ×© ×Ķ
g l
ëį °
à¦°à§įà¦ ¥
à¥ĭ à¤²
Ġà®¤ à®©
al itÃ©
à±Ĩ à°ķ
ãĥ į
ç» ¼åĲĪ
Ġil e
Ġà°ªà±Ĩ à°Łà±įà°Ł
i da
E S
us z
Ġìĺ ģ
ĠÙħ Ø³
m ento
Ã¡l nÃŃ
as s
ey d
Ġson ra
Ġy aÅŁ
ãģ¨ æĢĿ
Ġà¤¯ à¥ĩ
Ġà¤¥ à¥ĩ
áĥļ áĥĺ
Ġ à¸Ļà¸
ãĥķ ãĤ
Ġ çļĦ
à§ģà¦ ĩ
à°¿à°¨ à±įà°¨
Î© ÎĿ
Ġà® ¸
ÎĳÎ ¤
k Ã³w
áĥ¡ áĥĲáĥ®
åħ ĭ
æķ °
ÐµÐ½ Ð°
áĢ ¹
Îº Î±Î½
Ġper son
ĠáĥĹ áĥĳ
ĠÏĢ Î±Î¹
Ð°Ð½ ÑĤ
Ã¨ me
Ã Ħ
Ľà¸£à¸°à¹Ģà¸ Ĺà¸
ĠÎ¸ Îµ
Ġçİ¯äºļ ag
ĠÐ½ Ð°Ð¿
ĠvÃł o
áĥ£áĥ ĳ
«à¸£à¸ ·à¸Ń
Î¸ ÎŃ
ÙĬ Ø§Øª
Ñī Ðµ
Ġà¦ķ à¦¿à¦Ľ
Ġà¸ ĸ
Îµ ÏĢ
Ġë§ Į
Ġà°ħ à°¦
å¼ ı
çĲ ĥ
åĪĨ éĴŁ
áĥĶáĥĳ áĥĸáĥĶ
Ġà¹Ģà¸ ĩà¸´à¸Ļà¸
ÐµÐ½ Ð¸Ð¸
r ie
ĠÕ ¤
«à¸Ļ à¹īà¸²à¸
Ñĭ ÑĪ
Ħà¸ ¡
ĠÕ º
ari x
áĥ® áĥĽ
æĶ ¾
Ð ľ
Å¡ tÄĽ
elu gu
u d
à®µ à¯ģ
áĥª áĥĲ
ĠÃ© tÃ©
Ġ×ĳ ×¢
ÙĨ Øª
ow ej
or i
à¤¾à¤ ¶
Ġê¹ Ģ
Ġë ¯¸
ÛĮ Ú©
Ġg ratis
à°¾à°Ł à±ģ
ie m
à°¾à°° à°¾
à§įà¦ Ľ
ĠD er
Ä± k
Õ¸ ÖĢÕ
k e
ãĥĥ ãĥĹ
à®¾à®± à¯įà®±
Ġr ic
Ġà¤¦ à¥Ģ
åĽ ŀ
ĠK Äį
Ġà°ªà°¾à°° à±įà°Ł
Äį ÃŃ
Ġà¤¨ à¤¿
à¦ª à§ģà¦°
à°°à±įà° ļ
ÙĬ Ø¹
à§ĭ à¦ķ
g ra
ì ħ
ĠÛ ²
Ø§ÛĮ Øª
Ġé Ģ
áº «
Õ¡Õ ®
Õ ¤
Ġda ha
ion es
à¥Į à¤°
Ġà¤° à¤¹à¥Ģ
Ġáĥ¡ áĥ¬
ŀà¸ ·à¹Īà¸Ńà¸
ĠÙĪ Ø£
èµ Ħ
Ġprze d
à±ĭ à°Ł
Ïĥ Î¿ÏħÎ½
Ġì¹´ íĨ¡
ĠÎ Į
Ġë ħ
áĥĲáĥ® áĥĶáĥĳ
Ġ à¥
åĪ ¶
Ð¿ÑĢ Ð°Ð²
Ġà¤ķ à¥Ī
Î½Î¿ Î½
×ľ ×Ķ
Ġáĥ¬ áĥĺáĥľ
ĠÎł ÏģÎ¿
Ð¸ÑĤ ÑģÑı
Ġà¦®à¦§à§įà¦¯ à§ĩ
Ġà®ī à®£
Ġà¸ ķà¸
ÏĦÎ· ÏĤ
ĠãĢ ĭ
Ð¸ Ð¿
ÙĨØ¯ Ùĩ
ĠáĥĶ áĥĻ
ģà¸²à¸£ à¹Ģà¸
Î¯ Î´
Ġg li
Ð° ÑİÑī
Ġt ou
·à¹Ī à¸Ńà¸ĩ
ÏĦÎ¹Îº Î®ÏĤ
pa Ã±
à±Ģ à°¡
æ ģ
app ä¸ĭè½½
å» º
ĠáĥĽ áĥĲáĥľ
Ĺà¸ ±à¹īà¸ĩà¸
Ð°Ð¶ Ð´
k ol
di b
³ à¸Ļà¸
Ð½Ð° Ñĩ
à¸Ńà¸¢à¹Īà¸²à¸ ĩà¸
Ġs ah
ê¹ Į
ĠáĥĲáĥł áĥĲ
Ġà¤Ńà¤¾à¤° à¤¤
ÑĢ Ð°ÑĤ
h al
à°¾à°· à±įà°Łà±įà°°
Ġt u
Ùħ Ø±
ĠáĥĲáĥłáĥ ¡
du c
ãĤ ±
or d
à®¿à®¯ à¯ģà®®à¯į
Ø¨ Ùĩ
à´ ¯
as z
ĠìŀĪ ëĬĶ
à§Ģ à¦¬
ä» ĺ
à±ģà°² à°ķà±ģ
ĠQ u
Ġà°¸ à±įà°¥
k la
ÙĤ ÛĮ
ow o
à®¾à®¯ à¯į
al q
Ġin f
Ġà¦Ĩà¦® à¦¿
×Ļ ×ķ
Ġà¤ħ à¤¬
åĨ Ĩ
Ġà¦¬ à¦Ľ
à±ģà°Ĺ à±ģ
à® ŀà¯įà®ļ
à¤® à¥ĩà¤Ĥ
æ §
Ġnh iá»ģu
Ġà°İ à°¨à±įà°¨
ÉĻc ÉĻk
al am
p Ã©
Ġv ideos
ÃŃ s
ç¤ ¾
Ġb es
ÙĨ ÙĬ
à¯ģà®ķà¯įà®ķ à¯ģà®®à¯į
an e
à¦Ĺ à§įà¦°
Ġà¤¦ à¤¿à¤¨
à¤¾à¤ ·
áĥĲáĥļ áĥ£áĥł
Īà¸£à¸´à¸ ĩ
çĽ ®
Ġà¤¤ à¥įà¤¯
ĠÛĮ Ø§
à±ĩ à°²
Ïĩ ÎµÎ¹
Ġìļ °
ĠÎĳ Ïħ
ÉĻn in
áĥĲáĥłáĥĹ áĥļ
ç³ »
åĪ ©
ĠÑģ Ð¾Ð²
Ġà®µà®¾à® ´
ÏĨ Î±
à¦ª à§įà¦°
áĥ®áĥĿáĥķ áĥł
Ïħ Î½Î±
ĠÐºÐ¾Ð¼ Ð¿
Ġâ Ĥ¬
Ġper s
à¹Īà¸²à¸ ¢à¸
Îµ Ïį
è¡ ¨
ÑģÑĤÐ² Ð¾
Å¯ j
áĥĲáĥļáĥĺ áĥĲáĥľ
à¸Ńà¸ Ķ
Î³ Î®
p is
Ð¾Ð¼ Ñĥ
Ġà®¨ à®¾à®©à¯į
Ġà¸ŀ à¸Ļà¸
Î»Î¿ Î½
ÙĤ ÙĬ
Ġà°ķà±ĭ à°¸à°Ĥ
éĹ ´
è® ¾
Ġè¿ Ļ
áĥĺáĥ ®
ģà¸ ±à¸Ļà¸
Ð¸Ðº Ð°
à¤¾à¤ §
Ġà®ķ à®Łà¯įà®Ł
Īà¸±à¸ Ķà¸
ĠÐ¾ Ðº
Ġà¹Ģà¸ Ħà¸£à¸Ķà¸´à¸ķ
il ÉĻ
p owie
ĠáĥĽáĥĹ áĥĲáĥķ
ĠpÅĻ i
Ð² Ð¾Ð´
à¦¿à§Ł à¦¾
Ġà°ķ à°¾à°²
£Â ¬
Ġtr Ãªn
ĠáĥĽ áĥĲáĥĺ
Ġno ch
íĨ ł
Ġw szyst
à¤¦ à¥Ģ
à§ĩà¦¨ à§įà¦Ł
am os
ĠdÃ© c
ut sch
Ġà¤® à¥ĭ
×¤ ×¨
íĸ Īëĭ¤
Ġm ej
ĠØ °
at y
ier en
à°Ĺ à±įà°Ĺ
Ġà®Ĩ à®ķ
il ib
ĀĀĀĀ ĀĀĀĀ
ãĥ Ģ
Ġà¦¹ à¦¯à¦¼
Ġà¤µà¤¿à¤ ¶
ÅĤa d
Ġjs em
ÄĽ t
ĠÃ ĩ
ti ca
à±ĭ à°¦
ob ie
Ġà¤¬ à¤¾à¤¤
æĦ Ł
Ġà°Ĩ à°°
ent s
Ġl áº¡i
ĠÕ £
Ġs ay
Ġein er
Ġâ ĩ
ë¶ Ħ
Ġcz as
Ġ ãģ®
E R
c io
Ġáĥ¨áĥĶáĥ¡ áĥĲáĥ®áĥĶáĥĳ
à¸£à¸ ¹
Ø§Ø± Ø¯
ç ©
à¥Ĥ à¤²
âĢĮ âĢĮ
ĠÎ±Î½ Î¬
à±Ĥà° ¨
Î¼Îµ Î½Î¿
an ti
áĥĿáĥļ áĥĿáĥĵ
å¼Ģ æĪ·
çĽ ´
Ð½ Ðµ
à¯ģà®³à¯įà®³ à®¤à¯ģ
ĠÎ´ Î¹Î¬
da ÅŁ
ĠáĥĵáĥĲáĥ Ļ
Ïĩ Î½
ĠÑģ ÐµÑĢ
×ŀ ×Ķ
ujer es
ľà¸¹ à¹ī
ÎĳÎ Ŀ
åħ¬ åı¸
ĠÐł Ð¾ÑģÑģ
r ar
áĥĵ áĥĺ
ª à¸´à¸
ĠÎ® ÏĦÎ±Î½
Ġm Ãªme
ĠÐ· Ð°Ð¿
an y
ķ à¹Īà¸²à¸
Î¼Î± Î½
ĠØ¹ ÙĦÙĬ
Ġà°¨à±ģà°Ĥà° ¡à°¿
é ĥ½
æı Ĳ
Ġé ĩ
áĥĿáĥĳ áĥĲáĥ¡
ŀ à¸´à¸
Ñĭ Ð¼
l ÃŃ
àµįà´ ¤
· à¹īà¸Ń
Ð¾ Ñī
à¸£ à¹Įà¸
Ġà¤° à¥Ĥà¤ª
in iz
Ġáĥĺáĥľ áĥ¤
áº· t
ÐµÑĤ ÑĮ
ĠÚ© Ø´
ìĿ Į
cz Äħ
à§įà¦¤ à§ģ
Ġáĥ¡ áĥĲáĥĵ
ol a
ÙĪ ÙĤ
à®¿à®² à¯ģà®®à¯į
us s
us e
b ÃŃ
k en
Ġre c
Ġà¦¹ à¦²
ìĹ °
Ġb o
ĠÙĦ Ùħ
Ġ×ĳ ×ŀ×
à¯įà® ¨
ë² ķ
Ġt ego
à¤¿à¤ ľ
à°¿à° ¡
an de
á»ĳ ng
is ta
à®¤à¯įà®¤ à®¿à®©à¯į
Ġà°¸ à±įà°Ł
ĠãĤ ·
d ar
g es
Ø¹ Ùĩ
u p
ãģł ãģĳ
Ġê ´Ģ
çĪ ±
Ġà¤ķà¤° à¤¤à¥ĩ
m an
Ġà¦¹à§Ł à§ĩ
Ġï¼ Ł
Ġãĥ ķ
Ġde t
Ġs es
Ø¯ Ø©
te m
Ø¬ Ùĩ
à°° à°Ĥ
ĠN o
Ġáĥ¨ áĥĶáĥĵ
Ķ à¸²à¸
ä½ ¿
ç¨ ĭ
Ġà¦¦ à¦¿à¦¨
à®° à¯Ī
ÏģÎ¹Ïĥ Ïĥ
Ġ1 8
ÏĥÎµ ÏīÎ½
Ġpar t
Ġáĥ« áĥĲáĥļáĥĺáĥĲáĥľ
é Ķ
æ° ´
ÑĢ Ñı
u Å¼
Îķ Î£
áº »
áĥĿáĥľ áĥĺ
Ïĩ Î®
Ð¾Ð» Ð¾Ð³
u z
à§ĭ à¦®
· à¹īà¸Ńà¸
Ġ ÏīÏĤ
å¤ §åıĳ
ÐµÑĢ Ð°
jÄħ ce
ĠáĥĴ áĥĲáĥł
à¸´ à¸Ļ
ÏģÎ¿ Î½
êµ Ĳ
ĠÐ ¯
Ġà¤ľ à¤¾à¤¨
Ġ25 6
ĠÎº ÏĮ
×ķ× Ľ
al a
2 8
åĪĨ å¿«3
æĬ ¥
áĥļ áĥĶáĥĳáĥĺáĥ¡
Ħ à¹īà¸²
Ð³ Ð°Ð½
Ġà®® à®ķà¯įà®ķ
Ø§ÛĮ Ø¯
Ġà¸ Ĺà¸µà¹Ī
ÑģÐº Ð°Ñı
Ķà¹īà¸§à¸ ¢à¸
Ġm is
ĠtÉĻr ÉĻf
Ġáĥ¡áĥĲáĥ £áĥ
ĠM it
ĠÐ± Ð¾Ð»ÑĮÑĪ
et ta
à±ģà°Ĥà° ¡
v en
Ġà´ ª
áĥĲáĥĵáĥĴ áĥĶáĥľ
Ġà¤ķà¤° à¥ĩà¤Ĥ
Ġ ãģ¾
Ġà°¨ à°¾
ĠìĦ ł
à¦¸ à§įà¦¯
Ġà®ħ à®´
à°¾à° ļ
áº¥ p
ĠØ§ÙĦØ ·
Ġm ÉĻl
Ġk Ã¶n
ro v
Ġà¤ķ à¥įà¤¯à¤¾
à±ģà° ļ
dz o
Ø¨ Øª
Ġs in
çĻ º
end re
Ġà¦¬à¦¿à¦ ·
Ġà¤® à¥Īà¤Ĥ
Ġsp o
à°° à°¿
g ÉĻr
t Ãł
íĺ ¸
à¯Ĩ à®¯
Ġl le
ÅĽ Äĩ
Ġà°ļ à°¿à°¤à±įà°°
à¤ļà¥įà¤ ļ
ier s
à¦¾à¦® à§Ģ
à· ı
à§ĭ à¦Ł
×ľ ×Ĳ
Ġê° ľ
Ø³Øª Ø§ÙĨ
áº ¹
ĠD E
e b
Ġà°ħ à°¤
Ġà®ª à¯ĩ
áĥĺáĥª áĥĺ
à¹ĥà¸ Īà¸
Ġs wo
à «
Ġr en
Ġz am
ÏģÎ¹ÏĥÏĥ ÏĮÏĦÎµ
c ul
Ïģ Î¸
h er
Ġáĥ¡áĥĲáĥ¥ áĥĽ
åĨ ħ
ä½ į
ĠÐ´ ÐµÐ»
à®Ł à¯ģ
ĠÎ Ĩ
Ì ģ
áĥĶáĥ¡ áĥ¢
Î¾ Îµ
ĠÑĤ Ð¾Ð»ÑĮÐºÐ¾
ĠÄĳ áº§u
Ø® Ø±
ª à¹Īà¸§
Î»Î» Î·Î½
4 4
ÑĢ Ð°Ð²
O N
Ġáĥ§áĥķáĥĶáĥļ áĥĲ
Ġ à¹Ħà¸¡à¹Īà¸
ĠÎĶ Î¹Î±
Ġaus si
ĠÐ² Ð¾
Ġà¤ķà¥ĭ à¤Ī
Ġà¸ §
ĠÎ¤ Î±
à¯ģà®ķ à®¿à®±
í ĽĦ
ç® ¡
à¤ ³
ĠåĮĹäº¬ èµĽè½¦
Ġáĥ¡áĥ®áĥķ áĥĲ
Ġà¸ §à¸´à¸
ÐµÐ½ Ð½Ð¾
Ġ it
Ġà¦¶ à¦¿à¦ķà§įà¦·
ģ à¹Ī
ĠÐ¸Ð½ ÑĤÐµÑĢ
à¸Ńà¸ Ķà¸
ig l
Ġe lle
ĠáĥĲáĥ ļ
l ko
Ð¸Ðº Ð¸
ÙĪØ± ÛĮ
à±ģà°ķ à±Ĭ
Ġm uy
à¤Ĥ à¤Ł
Ġáĥĵ áĥĲáĥľ
ì Ī
Ġà®¤ à®¾à®©à¯į
à±Ĩ à°Ĥà°Ł
k eit
Ġà¤Ĺ à¤Ī
l ov
Ġ×Ļ ×©
à®¿à®¯ à¯Ī
Ġà¦ķà¦¿à¦¨ à§įà¦¤à§ģ
il es
é ļ
ÅĤ Äħ
ĠBak Ä±
ÉĻs t
ëª ¨
à¤Ĥ à¤ļ
ìŀ ¬
à¦°à§įà¦ ®
ess ion
ĠL os
Ġà¤ªà¥įà¤° à¤¤
à¯ĭ à®®à¯į
Ø¨ ÙĦ
à±ĩà° ¯
iá»ĩ c
Ġjs ou
ĠP er
à®¿à® ³
st ÉĻr
Ġpo z
Ġí ĥ
ver s
Ġà¤ªà¤¹ à¤²à¥ĩ
×ł ×Ķ
Ġà¦ķà¦° à§įà¦®
à°¾à°¨ à°¿
w ar
ãģª ãģı
ĠØ³ Ø±
à¦¾à¦¨ à§ĩà¦°
as t
à°°à±įà° ª
à®² à®¾à®®à¯į
áĥĶáĥķ áĥĶ
Ġà¹Ģà¸ĩà¸´à¸Ļà¸ Łà¸£à¸µ
em os
Ġ ä¸
Ġ20 0
ĠØª Ø¹
ĠÎº Î¹
à¤¸ à¤¾
Î½Î· ÏĤ
Ġà¦Ĩà¦® à¦¾à¦°
áĥĺáĥĻ áĥ£áĥłáĥĺ
è Ĭ
åı ·
ĠÐ¿Ð¾Ð» ÑĥÑĩ
Ġz ak
ĠÎ¼ ÏĮ
Ġd al
ĠáĥĹáĥĳ áĥĺáĥļáĥĺáĥ¡
ĠÎ½ ÎŃ
Ð° ÐµÐ¼
Ġy a
Ġà¦¨à¦¿à¦ ľ
à¹ĥà¸Ĭ à¹ī
ĠÏĩ Î±
å· ŀ
ÑģÑĤ ÑĮ
Ġpe ut
ĠáĥĲáĥĵ áĥĴ
Ħ à¸Ļà¸
Îº Î¹
Ġein em
ÑĢ Ð°Ð¼
Ãł o
¥à¸ ·à¸Ńà¸
ĠÎĶ Î·
Ġu til
Ġ om
Ĭ é¾Ļ
ç Ŀ
åı £
áĥĴ áĥĲáĥľ
à¹ģà¸ ¥à¸°
Ð¸Ð¼ Ð¸
à¯ģà®ķ à®¿à®±à®¤à¯ģ
à±ģà°² à°¨à±ģ
« à¹ĩ
ĠÐ¶ Ðµ
Ġà¹ģà¸ Īà¸
Ġìĺ Ī
» Ħ
ĠáĥĻ áĥķ
Ġ×Ľ ×ľ
ÑĥÐ»ÑĮ ÑĤ
ow ego
Ġà¦ķ à§įà¦·
Ø° Ùĩ
à´ Ĥ
áĥ§ áĥĿáĥ¤
on a
Ø® Øª
Ġs ou
Ġê° ķ
å¥ ³
Ġc re
Ġà°µà°¿à° µ
Ġs y
à°¾à° Ĥ
Ġt am
áº£ o
Ġà°® à±ģà°Ĥà°¦
à¦Ĺ à§ģà¦²
Ġ &
Ġz ur
Ġ äºļæ´²
ķ Į
ãĥ ¯
Ġà® Ĭ
cz a
à¤¾à¤ «
Ġs em
ĠÙĨ Ø¸
Ġ×Ķ ×¨
Ġd on
ãĤ º
à°¾à°ķ à±ģ
Ġà®ķà¯Ĥ à®±
ĠÎĶ E
Ġm ÉĻs
z en
Ġc os
à¤ª à¥Ģ
Ġn ouve
ãģ§ãģĻ ãģĮ
à°¾à°Ĥà° Ĺ
Ġn Ã³
ĠØª Ø±
el er
s za
ĠÕ ¢
à±ĭ à°¡
el ÉĻ
áĥĺáĥľ áĥĺ
Ħ à¸²à¸£
te urs
à© Ģ
ur o
ĠãĤ ³
ĠÎ±Î½ ÏĦÎ¹
ĠæĹ¥ æľ¬
Î¯Î½ ÎµÎ¹
Ġà® ¹
áĥĶáĥĳ áĥĶáĥļ
æīĭæľº å®¢æĪ·ç«¯
äº ī
ĠÐ¿ÑĢ Ð¾Ð²
ĠØ§ÙĦÙĦ Ùĩ
Ïĥ Î¹Î±
Ùĥ Ø±
Ġ" )
Î» ÎµÎ¹
Ð°Ð½ Ð´
ĠìĹ °
ol i
«à¸ ±à¸
Îķ Î¡
é ĵ
ĠÐ¿ Ð¾Ð²
Ø§Ø¯ ÛĮ
Ġáĥ¡ áĥŀ
ª à¹Į
Ïģ Ïħ
Ġz na
Ð» Ð°ÑģÑĤ
y o
ļà¸ ±à¸
ĠÎº Î¬Î½
al ah
: :
å° Ĩ
åħ ĥ
å¼Ģ å¥ĸ
Ġáĥ¡áĥĲáĥ ¨
«à¸ ¥à¸²à¸
Ð¸ ÑĪ
Ġ1 3
à±Ģ à°ķ
ģà¸ ³à¸
Ð¸ ÑĢÑĥ
à¹Ģ à¸Ļà¸
iyy at
Ġà¤ªà¥įà¤° à¤¦
Ġáĥ£áĥ¤ áĥłáĥĿ
ess e
Ð»Ð¸ Ñĩ
Ġ×Ķ× ŀ
a ll
Ùĥ ÙĦ
à¤Ĺ à¤°
áĥĶáĥ ŀ
ĠÂ ¿
ãĤĤ ãģ®
le d
Ġ1 4
Ġæ ¬
Ġm uch
Ġà°ªà±įà°° à°ķ
í İ
Ġà°¤ à°°
à®¤ à®¾à®ķ
Ã ®
Ã¡ o
Ã³ b
ĠØ¨Ø§ Ø²
Ġun ter
Ġà¤ľà¤¾à¤¤ à¤¾
to ri
ãĤĮ ãģ¦
´ ĳ
p le
à¥ĩà¤ ¡
k Ã¡
me k
z za
Ġà¦¸à¦° à¦ķà¦¾à¦°
Ġz ijn
Ġc or
í ŀ
il ir
ĠgÃ¶ stÉĻr
Ġà°ī à°¦
Ġty lko
çĥ Ń
ĠÙĨ ÙĪ
à¦¿à¦ ī
Ã Ĳ
Ġch á»ī
à®¾à® ľ
sk Ã©
f Ã¼
Ġb ilÉĻr
Ġs Ã©
Ġ×ŀ× Ĳ
ĠáĥĶ áĥ¥
Ĥà¸¶ à¹īà¸Ļ
ãĥ Ŀ
Ġ áł
Ġà®İà®¤ à®¿à®°
Ġà¦ ¢
Î»Î» Î·
à¥ĭ à¤ķ
Î¼ÏĮ ÏĤ
à±ĩà° ľ
ĠáĥłáĥĿáĥĴ áĥĿáĥł
âĢ ľ
Ġag äºļæ´²
ĠÑģ Ð¾Ð±
Ġs om
ĠÎ± Ïĥ
ĠÙĩ Ø°Ø§
ĠáĥĽáĥ® áĥĿáĥļáĥĿáĥĵ
Î» Ïħ
Ð Ľ
w Ã³
Ġà¦®à¦¾à¦¨ à§ģà¦·
à¸£ à¹Į
ĠÎµ ÏģÎ³
æ ¡
ÐµÐ½ Ð¸Ð¹
Ġn ue
Ġáĥ¡áĥĲáĥ Ķ
¡ à¸Ļà¸
ĠÏĢ ÏģÏİ
à±ģà° ¸à±įà°¤
ĠÐĿ Ð°
Ġ *
ª à¸£
ĠÎ ¯
et s
rz Äħ
åı Ĭ
é ª
åĲ Ĺ
Ġáĥĵáĥĺáĥĵ áĥĺ
«à¸£à¸ ·à¸Ńà¸
ÐµÐ½ Ñĭ
u el
ĠÙħ Ø¬
à¹Ĥà¸£à¸ĩ à¹ģà¸£à¸
ĠÑĢ ÑĥÐ±
¢ à¹Į
à®¾à®® à®²à¯į
éĿ Ĵ
Ġáĥ¡áĥĲáĥ ĸ
Ġà¦ĺ à¦Ł
Ð¾ÑĤ Ð¾Ð²
ìļ ´
Ġà°° à°¾à°·à±įà°Łà±įà°°
im ul
à¤¬ à¤°
áĥĺáĥłáĥ ĵ
/ /
Ġh t
Ġ: //
Ġht t
åį ļ
Ġhtt p
imul yo
ĠF r
Ġà°¤ à°®
is se
Ġes s
Ġs á»±
Ġse xo
Ġà®ª à®£
ci al
Ġà¤¦ à¥įà¤µ
ĠãĤ «
Ø³ Ùħ
ÅĽ cie
à§ĩà¦ ¡
à¥ĭ à¤¨
à°¿à°Ĥà°ļ à±ĩ
Ġe dib
à¯ģà® ©
Ã¼ b
l ic
Ġn ur
ĠãģĿ ãģ®
ì ¡
ale ment
ari os
Ġjak o
Ġà¤¸ à¤¾à¤®
à±ĩ à°Ĥà°¦à±įà°°
ĠØ´ ÙĪØ¯
Ġ×Ķ× ĳ
Ġ1 6
à¯ĭ à®¤
Ġà° ĸ
ac aq
Ġà¦¸ à¦Ļà§įà¦Ĺà§ĩ
l ica
Ġa ber
áĥĲáĥ «áĥļ
à¸Ńà¸¢à¹Īà¸²à¸ ĩ
à¦° à¦£
Ġ ä¸į
ÙĪ Ø§
ali dad
ĠÎ± ÏģÏĩ
w s
ĠÏĩ ÏģÏĮ
å¾ Į
Ġáĥ £
æľ į
äº ¤
ĠÐ»Ñİ Ð±
à°¿à°¯ à°¾
ÏĦÎ· ÏĥÎ·
Ġ1 7
áĥ£áĥ ¥
Î» Î¿Ïħ
Ð¼ ÐµÑĢ
Ġar t
Ġques to
ŀ à¸´
ĠÎ¼ÏĢÎ¿ ÏģÎµÎ¯
æĪ ĺ
ÐµÐ¼ Ñĥ
Ġmo Å¼e
áĥĶáĥĳ áĥĿáĥĵáĥĲ
ģ à¸£à¸£à¸
ĠÏĢÎ± ÏģÎ¬
ëł ¥
ĠÐŀ ÑĤ
Ġà®ī à®°
Ĭà¸ ¸à¸
ĠÏĮ ÏĢÏīÏĤ
a it
Ġhab en
æ¬ ¡
é ©
ãĢ ģ
áĥĶáĥĳ áĥĶáĥľ
łà¸ ±à¸
ĠÐŀ Ð±
k Å¯
er a
à¹Ĥà¸ ¥à¸
Ġ) .
Ġ à¹Ħà¸Ķà¹ī
à§ģà¦ ĸ
à¤Ĥ à¤§
Ġáĥ Ń
Ġh aq
ĠÐĴ Ñĭ
Ġà°ª à°¦
Ġb á»ĭ
u h
à¤ķà¥įà¤ ¸
áĥł áĥĲ
Ġng ud
Ġngud imulyo
a i
ĠØ§ÛĮØ± Ø§ÙĨ
à¶ º
Ø§ÛĮ Ø´
à§įà¦ ŀ
O S
ĠØª ØŃ
ì² ´
Ġà®® à®°
à°¿à°ª à±ĭà°¯
A R
Ġn u
E N
Ġà¤ ĳ
ãĥ ¢
wi Äħ
iy e
× £
Ġà¤ľ à¤¨
ãģ ¹
Ġ ÉĻr
t ura
Ġà®ķ à®¾à®°
Ġà°ļà°¾à°² à°¾
v y
Ã© nÃ©
Ġme hr
ÉĻh s
t as
à¦¡ à¦¼
ç ĭ
ì¹´ ì§Ģëħ¸
ĳ Ĳ
kie m
az Ä±r
Ø ¢
der e
Ø§Ø± Ø©
Ġcom m
Ġo f
y or
áĥĲáĥķáĥ¨ áĥĺáĥł
Ġà¸ ¢
Ġà®ª à®¾à®¤
è ¢
ilm ÉĻsi
Ġto do
ĠÎ± Îº
å¤ ľ
ÏĦÎ¹ Ïĥ
Ġm iej
ĠáĥĽ áĥĿáĥķ
Ġag çľŁäºº
åŁ İ
ÑıÑĤ ÑĮ
Ġs ans
ĠÎ´ Ïį
ÉĻs inin
áĥĶáĥ £áĥļ
ÏģÎŃ ÏĢÎµÎ¹
ĠÐ¡ ÑĤ
Ġãģ Ĥ
Ġv z
ªà¸´ à¸Ļà¸
ĠÏĢÎµ ÏģÎ¯
Ġå ¾
ĠÐ² Ð½
is a
Ġáĥ¬ áĥ§
à¹ Ĭà¸
ĠÎŃÏĩ Î¿ÏħÎ½
ĠØ±ÙĪ Ø²
Ð¾Ð² Ð¾ÑĢ
å¯ ¾
«à¸Ļ à¹īà¸²
ĠÏĢÎµ ÏģÎ¹ÏĥÏĥÏĮÏĦÎµ
r ÉĻ
Ġd urch
Ġæŀ ģéĢŁ
æĶ ¿
è¯ ´
Ġáĥł áĥĶ
Ĭ à¸µà¸
Ðµ ÑĨ
Ġë Ķ
Ġn os
Ħà¸£à¸Ķà¸´à¸ ķà¸
Ð¿Ð» Ð°ÑĤ
à¹ģ à¸Ļà¸
Ġà¦¬à¦² à§ĩ
Ġà¤ķà¤¿à¤¸ à¥Ģ
áĥ ©
Ġ×¢ ×Ŀ
ĠÐļ Ð°Ðº
à±Ĩ à°°
Ġk ar
Ġpos s
Ġà¤ľ à¤¾à¤ı
Ġáĥ£áĥ Ľ
Ġà®¤à¯Ĭà®Ł à®°
Ãº ng
Ġà¦ª à§ľ
Ø³ ÙĬ
Ġà¤° à¤ĸ
ĠÄ° n
ÙĦ Ø§Ùħ
or ma
ãĤĬ ãģ¾ãģĻ
à°¿à°ķ à°¾à°°
à¦¿à¦ ¡
Û ķ
Ġim p
Ø§Ø® Øª
Ġn uest
à´ Ł
n er
Ġà®µ à®¿à®°
Ġà°ľ à°¨
ĳ ľ
Ġà¤ħà¤ª à¤¨à¥Ģ
a ft
d im
Ã¡ d
Ġ Å¼y
Ġà¦Ĩ à¦ĩ
ĠãĤ µ
Ø´ Ø±
à°°à±įà° ®
m ÉĻn
ti vo
Ä ©
éĻ ¢
ni ka
¦ ¬
Ġ×ľ ×ŀ×
Ã¶ z
Ġà¦ķà¦¿à¦Ľ à§ģ
ĠD o
Ġà®ĩà®¨à¯įà®¤ à®¿à®¯
ÅĻ i
ĠP ara
ĠØ§ÙĨ Øª
ĠáĥĻáĥĿáĥĽ áĥŀ
à¹īà¸²à¸ ĩ
Ġà° Ĳ
Ġ ć
ÉĻh ÉĻr
bi Ã©n
Îº Î®
ç²¾ åĵģ
ÎµÎ¯ Î¿
s er
Ġáĥ¨áĥĶ áĥĺáĥ«áĥļ
7 0
à© ĩ
Ð¸ Ð¾Ð½
Ġä» Ĭ
ÏĦÎ¹Îº ÏİÎ½
Ġà®ĩ à®¯
Ġáĥ§ áĥĿáĥķ
ÏĦ Ïģ
ĠÐ½Ð° Ñĩ
cz nie
Ä± s
Ġà¸ ģà¸²à¸£
ĠÏĢÎ¿Î» Ïį
Ġå¤§åıĳ å¿«ä¸ī
ĠÐ½Ð° ÑĪ
Ġìķ Ĭ
áĥĺáĥ¢ áĥĶáĥ¢
§à¸ ¥
ÏĢ Î¯
ãĥ Ļ
Ð¾ÑģÑĤ ÑĮ
ĠÙĥ Ø§ÙĨ
à¹Ģà¸ Ĺ
ÏĦ Ïİ
ĠH o
ĠÙĤ Ø±
å Ļ
æĺ İ
åĲ į
Ġáĥ¡áĥĲáĥ ĺ
à¹Īà¸²à¸ ¢
ĠÑģÑĢ ÐµÐ´
Ġj u
à±įà°° à±Ĩ
ģ à¹ĩ
ĠÑĥ Ð´
Ġà¸ Ī
Ġà®ª à®¿à®±
à¥įà¤¯ à¥Ĥ
áĥĵ áĥĶáĥ¡
b ÄĽ
ĠÐº Ð¾Ð»
d uk
ÃŃ as
ĠA b
àµ ĭ
ĠáĥĻ áĥĲáĥłáĥĴ
y s
Ġe ff
¸ à±įà°¥
à¦ ·à§įà¦Ł
Ġà¤¦ à¥ĩà¤¶
ĠÄĳá» ĵ
Ġ ÉĻn
Ġin c
Ġ×ĸ ×Ķ
à®¾à®² à¯ģà®®à¯į
et y
ĠÛ±Û ³Û
ĠÚ¯ ÙģØª
Ġà°ªà±įà°° à°ľ
Ġf r
Ġà¤¸à¤ķ à¤¤à¥ĩ
b l
Ġà¦¬ à§ĩà¦¶
n osti
Ġnh áº¥t
åĽ½ äº§
ë° ©
Ġà°¸à°¿à°¨à°¿à°® à°¾
u g
Ġo k
à°°à±įà° ¥
ĠÚ© Ùħ
m ak
ĠØ§ÙĦØ «
Ġle ur
C I
il la
à¤¸ à¥įà¤¥
ida k
×ĳ ×ľ
Ġw p
åº Ĺ
Ġ íķ´
Ã§ Ã£o
ll i
Ġà®¨ à¯ĩà®°
ad as
Ġãģĵ ãģ®
ĠáĥĲáĥķ áĥ¢
Ĺà¸µà¹Īà¸ ªà¸¸à¸Ķ
- -
éĩ Į
ay a
ĠA uf
Îº Î¬
àµ ĩ
Î´ Îµ
Ġje d
áĥĺáĥĵ áĥĲ
èĢ ĥ
é¢ ĺ
ĠÐ¸ Ñħ
Ġà°ļà±ĩà°¸ à°¿à°¨
ÏģÎ¯ Î¶
to re
áĥĲáĥĵ áĥĺ
ÏĦÎ¹Îº Î¿Ïį
ÐµÑģ ÑĮ
te ment
Ø¯ ÙĬ
Ġà¸ ¢à¸
ÏĦÎµ Î¯
¥ ¿
ĠÐ±ÑĥÐ´ ÐµÑĤ
à°¬ à±įà°¬
áĥĶáĥĳ áĥĹ
à¹Ģà¸ Ĭ
ĠÎºÎ± Î»
Ġp a
Ð°Ð¹ Ð½
à§Ł à§ĩ
Ħà¸ ´à¸
ĠÎ£ Ïħ
el t
ì¹ ´ëĿ¼
à¤¾à¤¹ à¥Ģ
ç ±
çİ ©
áĥĹ áĥ®áĥķ
Īà¸ °à¹Ģà¸
ĠÐ± Ð¾Ð»
Ġìĥ Ŀ
Ġà¦ħà¦¨ à§ĩà¦ķ
Ħ à¸Ļ
ÐµÐº Ñģ
Ġ à¹ĥà¸Ļà¸
Ġ×Ķ× ¤
Ġà¤Ĩ à¤ľ
áĥĿáĥľ áĥĺáĥ¡
Ġà°® à±Ĥà°
ÑĤ Ð¾Ð±Ñĭ
Ġn Äĥm
ÉĻb ÉĻr
ion s
Ġà¤ħ à¤²
ĠáĥĶ áĥļ
ri j
Ø§ÙĦ ÛĮ
à®¾à® Ļà¯įà®ķ
ti co
Ġà°¦ à±ĩà°¶
Äį ka
Ġv el
Ġj uÅ¼
Ġh ÉĻy
ê± ´
Ġà®ļ à®¿à®²
Ġn om
on y
Ùģ ÙĬ
à¦¤ à§ĭ
ĠG r
Ġà¤¹à¥ĭ à¤¨à¥ĩ
Õ¡Õ £
Ġy eni
ĠìĹ Ĩ
Ã¼t Ã¼n
Ġa lle
k ÄĻ
à¤°à¥įà¤ ·
Ġà°® à±ģà°
ÙĪ Ø¹
Ġb lo
ãĥ© ãĤ¤
Ġ×ŀ× ª
Ġn em
Ġà¦® à¦¹
Ġw sp
à°¾à°¦ à±ģ
is che
ic os
Ø§ÙĨ Ø¯
íĥ Ģ
ãģĹ ãģ¾ãģĻ
æĴŃ æĶ¾
Ġà¤¸à¤° à¤ķà¤¾à¤°
Ġal t
Ġh iá»ĩn
à¦¾à¦° à§ĩ
ĠáĥĲáĥ® áĥĲáĥļáĥĺ
Ġà¸ ¡
Ã¡ v
à¨ ¿
à¯ģà®³ à¯į
ĠbÄĻ dzie
Îµ ÏģÎ³
Ġà°ħ à°Ĥà°Ł
ĠÎ±Ïħ ÏĦÎ®
Ġb iz
áĥĿáĥĳ áĥĺáĥĹ
è· ¯
Ġà¤ħ à¤¸
Ð¸ Ð½Ñĭ
Ġde ux
Î¹Î¿ ÏĤ
ĠbaÄŁ lÄ±
áĥĲáĥłáĥ Ļ
Î³ Îµ
Ðº Ð¾Ð¹
Ġà°¸ à±įà°ª
wie t
Ġ à¹Ħà¸
ĠÏĢ ÏĮ
å¤ ĩ
ĠÑĩ Ð°ÑģÑĤ
Ġà®ķ à®µ
áĥĿáĥĳ áĥļ
à¹Ģà¸ Ľà¹ĩà¸Ļ
ÏĨ Î®
ĠD es
Ð» ÐµÐ½Ð¸Ðµ
à¥įà¤¯ à¥ĭà¤Ĥ
à¸£à¸µà¸ §à¸´à¸
ĠÎĳ Î½Î±
Ġà¦ķà¦¥ à¦¾
ĠÙĪ Ùħ
è£ ħ
æİ ¥
èµ ·
áĥĶáĥľ áĥĺ
Ĺ à¸£à¸
_ _
Ġt em
Ġì µľ
łà¸²à¸ ŀ
ĠÐº Ð»
§ à¸Ļ
Å ¥
Ġà¦¬ à¦¾
áĥĲáĥĽáĥĵ áĥĶ
à°¬ à°¡
Ð¾Ð²Ð°Ð½ Ð¸Ñı
×ª ×Ļ
lar a
à®¿à®© à¯įà®©
Ã¤ r
áĥĿáĥ ¥
p ad
ĠÙĥ ÙĦ
ĠÄĳá»Ļ ng
Ġà´ ķ
ĠN e
ãģ¾ ãģ§
ĠØ³ ÛĮ
ĠìĦ ¸
Ġt ÉĻÅŁ
Ġbar dzo
Ġc a
Ġà®ķà¯Ĥ à®Ł
ĠØ¨ ÙĨ
j i
×Ļ× ¦
ãģĹ ãĤĩ
ç ¦
Ġes c
Ġc l
is i
Ø¨ Ø¯
g lich
ĠS z
à¤¯ à¥ĭà¤Ĺ
à®° à¯įà®µ
Õ¡Õ °
Ġd Ã¼ÅŁ
Ġpe u
à±ģà° ¬
ĠÚ¯ Ø±
à¦¾à¦ «
ym i
ìĤ¬ ìĿ´íĬ¸
Ġf in
Ġà°µ à°¸à±įà°¤
ĠØ «
Ġí ĸ
×Ļ× Ĺ
à¤°à¥įà¤ Ł
Ġà¤¸ à¥įà¤Ł
Ġà°®à±Ĭ à°¦
ãģĵãģ¨ ãģĮ
Ġdá»¥ ng
áĥĶáĥ ¨
à¸£à¸°à¸ ļà¸
à®¿à®Ł à®®à¯į
æ º
el ij
k ou
ĠÏĢÎ¿Î» Î¹
à§įà¦¬ à¦°
ÏĦ ÏģÎ±
Ġb is
ĠáĥĹ áĥĲáĥĽ
åº Ķ
Ġ àª
Ñı Ð²
Ġmiej s
ĠÏĢ ÏģÏī
à®² à®ķ
áĥĶáĥłáĥ ĵ
Ïĥ Ïĩ
Ð² ÐµÑĢ
p or
à¦¾à¦° à¦£
ķà¹Ī à¸Ń
ĠÎĵ Î¹Î±
æ ¼
ÐµÐ» ÐµÐ¹
ey n
áĥĹáĥ®áĥķ áĥĶáĥķ
à¹ģ à¸Ļ
ÏĦÎ¿ Î½
ÙĦ Ø³
Ð¾Ñģ ÑĮ
Ġà¤ ĵ
à¸Ļà¸± à¹īà¸Ļ
ĠÏĦ ÎµÎ»
Ġà°® à°¾à°¤à±įà°°
Ġp en
ç» ĵ
åķ Ĩ
è¯ ķ
Ġáĥĵáĥ¦ áĥĶáĥ¡
Ġà¸ ¥à¸
ÐµÐ¶ Ð´
at z
Ġqar ÅŁÄ±
Ġà¸ Ĭ
ĠÐ¿ÑĢÐ¾ Ð¸Ð·
ŀ à¸£
ti ck
Ø§Ø± Ø§Øª
Ġáĥ¨áĥĶáĥĺáĥ«áĥļ áĥĶáĥĳáĥĲ
Ġëı Ħ
ĠÐ³Ð¾Ð´ Ð°
ĠSe xo
c ciÃ³n
×¨ ×Ļ×Ŀ
ÅĤ am
ĠáĥĴ áĥĲáĥ¡
ÃŃ ch
ĠO d
Ġà°ªà°¾à°°à±įà°Ł à±Ģ
Ġà¤¸à¤® à¤¯
sch aft
p tion
Ġà°µà°¿à° ľ
Ġme d
Ġà®ķ à¯ģà®Ł
ĠN a
t ra
ĠÕ ½
k Ä±
à§Ĥ à¦²
ÙĦ Ø§ÙĦ
Ġà°ľ à°°à°¿à°Ĺ
æ ©
Ġà¤µà¤¾à¤² à¥ĩ
iy or
pr Ã¨s
Ú© Ùĩ
ë§Į ëĤ¨
Ġêµ Ń
Ġpri mer
Ġn i
à®² à¯įà®µ
Ã¡ nh
è Ń
Ġà°ľ à°°
Ġt ÉĻs
Ġà¦¸ à¦¾à¦®
à® ·
ĠØ§ÙĦÙħ ÙĪ
h re
à°µ à±įà°µ
iÄĻ k
Ġne lla
Ġm Ã¡
Ġà®ª à®ķ
Ġ×Ķ× ł
à±įà°¯ à±Ĥà°
à§ģ à¦¦à§įà¦§
k s
ĠáĥĴ áĥĲáĥ®
ªà¸ ±à¸
ĠÙħ ÙĤ
æµ ·
Ã »
ëĭ ¨
ÎĳÎ ¡
Ġest Ã¡
ĠÎķ Ïħ
ÅĽ li
áĥłáĥ£áĥ ľ
Ġà¤Ĩ à¤£
åĪĨ åĪĨå½©
ĠÐ´ ÐµÑĤ
ĠÃ ĸ
Î¿Î¹Î½ ÏīÎ½
æĹł çłģ
áĥķ áĥĶáĥķ
Î¹ Î»
ĠÐ¼ Ñĭ
é Ł
à¥ĭà¤Ĥ à¤¨à¥ĩ
Ġà¸ Ľà¸£à¸°à¸
ĠÏĩ Ïī
æĢ İ
Ð» ÑĮ
jÃŃ cÃŃ
áĥ¬ áĥ§
à¸²à¸ªà¸´ à¹Ĥà¸Ļ
Î¼ Î¼Î±
Ġj our
ĠÐ° Ð½
ion i
Ġà¸ Īà¸²à¸ģ
Ġ ÏĪ
à±ĩ à°¨
Ġà¦ļ à¦²
æĦ ı
Ġå Ĭ
ĠAG çİ¯äºļ
ĠáĥĲáĥ¥ áĥķáĥ¡
Ġà¹Ģà¸§à¹ĩà¸ ļ
Ð» Ð°Ð³
Ġë° ©
Ġu it
Ŀ à¸²à¸ģ
ĠÐ ¨
à¹Ģà¸ ĩà¸´à¸Ļà¸
m in
Ùĥ Øª
ĠáĥĴáĥĲáĥľ áĥ¡
Æ°á»£ ng
Ð £
à®¿à®ļ à¯įà®ļ
à¤ ģ
b u
al t
áĥĹ áĥĲáĥķ
ĠØ¯ Ø§Ø´Øª
à¦ķ à§įà¦°
à±ĩà°¦ à±ģ
Ġà®® à¯ģà®±
×¨ ×Ľ
Ãº n
Ġà°ķ à±įà°°
z na
m et
ti k
Ùħ Ø¯
à®¿à®Łà¯įà®Ł à¯ģ
ĠÙĪ Ùĩ
Ġà®ĩ à®¤à¯ģ
an z
Ġà°ħà°¯ à°¿à°¤à±ĩ
Ġà¦¯ à¦¾à§Ł
Ġng Ãły
Ġpro f
ìĺ Ī
Ġro ku
à¤¾à¤Ĥ à¤Ĺ
ìľ ł
å£ ²
Ġg ra
ãģ¨ ãģĹãģ¦
à¤ķ à¤¿
lich e
à°¿à°¸à±įà°¤ à±ģà°¨à±įà°¨
Ġe dÉĻ
ĠÃ© c
ÙĪ Ø¨
Ġm in
à¦¿à¦ Ń
à°§ à±įà°¯
Ġg el
ëĲ ľ
Ġà®® à®Łà¯įà®Ł
x x
aj o
ch i
áº¯ c
×Ļ× ļ
áĥł áĥĿáĥĽ
à¹ĥà¸«à¸¡ à¹Ī
Ġà°ķà°¾à°¨ à±Ģ
æĢ »
Ġo ff
Ġï½ ŀ
ĠÏĦ ÎŃ
Ġq ÉĻd
ÏĢÎ¬ ÏģÏĩ
l ou
áĥĲáĥ¬ áĥĺáĥļ
åĻ ¨
çī ¹
ĠÐ¼ ÐµÑģÑĤ
Ġtr ab
ÏĦ Î®ÏĤ
à¦¬ à¦¾à¦¦
áĥª áĥĺ
ĠÎĺ Îµ
ĠÐº Ð¾ÑĢ
\ "
m u
à¸Ļ à¹Įà¸
Î»Î¿ Î¹
Ġå ¥
ĠÐ³ ÑĢ
Ġ×ĳ ×©
ĠÂ ·
à¸Ńà¸¢à¸¹ à¹Ī
ĠÎł Îµ
Ġà®İ à®²à¯įà®²
Ġu 04
Ġ) ,
ģ à¸£
Î¬ Î¶
Øµ Ø±
Ġ201 8
ç» Ł
çĽ ¸
é ħ
Ġáĥĺ áĥĴ
Ġà¸ §à¸±à¸Ļ
ĠÐ¿ Ð¾Ð·
Ġà¤¬à¤¹ à¥ģà¤¤
l os
Ĺà¸²à¸ ĩ
ÐµÐ» Ð¾Ð²
à¸Ńà¸²à¸ «
à¦ ı
Ġà°¨à±ĩ à°¨à±ģ
áĥĲáĥĵ áĥĿ
ĠØ´ ÙħØ§
Ð± Ð¾ÑĢ
à¦ ¯
ĠØ§ÙĦÙħ Øª
Ġà®Ĩà®© à®¾à®²à¯į
ĠkÃ¶n nen
Ġáĥ¨áĥĶáĥĽ áĥĹáĥ®áĥķáĥĶáĥķ
ce j
d or
Ġà°ħ à°¸
ĠìĦ ±
Ġess ere
ĥ n
à°¾à° Ĺà°¾
Ø§ Ú©
Ġpro du
Ġà¦Ń à¦¾à¦°
ĠD z
à¤¨ à¥ĭà¤Ĥ
Õ £
k il
ãĥ¼ãĤ ¸
à°² à±įà°²à±ĭ
ic io
di ng
au t
Ġë¬ ¸
Ġà¦¹ à¦¾à¦¸
Ġà®ķ à®£
Ġà¦ķà¦° à¦¾à¦°
am y
Ġan n
n oÅĽÄĩ
Ġkter Ã©
Ã¼r k
à±ĭ à°µ
Ġå¤ §
ĠÃ ī
âĢĮ ÙĩØ§
à¤µ à¤¾à¤°
Øª ÙĬ
i do
t Ä±
Ġ×ķ ×Ĳ
å½ ĵ
à®© à¯įà®ª
Ã² n
Ġd alam
à¤µ à¤¾
Ġpe ti
áĥĲáĥľ áĥ¢
ĸà¸¶à¸ ĩà¸
Ġà°ªà±ĭ à°²
æī Ģ
ti va
da t
ĠÎ¿ Î¹ÎºÎ¿
Ġâ Ĺ
ĠÎķ Î»Î»Î¬
ëĭ ¹
ĠáĥĲáĥ¡ áĥĶáĥķáĥĶ
Ġè Ģ
éĢ ī
ĠÐ´ Ð¾Ð¼
Ġd ÉĻr
Ïĥ ÏĦÎ¬
Ġà¤²à¥ĭà¤Ĺ à¥ĭà¤Ĥ
ĠáĥĽ áĥĺáĥĸ
Ïĩ Î±Î½
ÑĥÐ¿ Ð¸ÑĤÑĮ
A S
A N
ľà¸ ¥à¸
Î½Î¿ ÏĤ
ç ¼
ĠÐ ¦
as ta
áĥłáĥĺáĥķ áĥĺ
à¹Ģà¸¥ à¹Īà¸Ļà¸
Î» Î¯
Ġà°ª à±Ī
Ð¼ Ð¾Ð¶
Ġt ous
Ġà¹Ģà¸ ģà¸¡à¸
ÏģÎ± Îº
à§ĩà¦ ª
Ø¯ ÙĬØ¯
ä¼ ł
à¨ °
á Ī
ĠáĥĲáĥ® áĥļ
Ġà¹ģà¸ ķà¹Īà¸
ÑĥÑİ Ñī
i es
uy Ãªn
¡à¸ ·à¸Ńà¸
ĠÐ» ÐµÑĤ
¹à¸ ģ
Ġ×ŀ× Ĺ
ra m
áĥĽ áĥĶáĥĵ
à®¾à® ª
Ñı Ñī
Ġà§¦ à§
Ġà¦¨à¦¿ à¦°à§įà¦¬
Ġw z
Äį ky
áĥĲáĥ¡ áĥĺ
l en
Ġà°µà°¿à° ¦
íŀ Ī
Ġet m
Ġà¦Ĩà¦® à¦¾à¦¦à§ĩà¦°
Ġcon f
à¤¾à¤ £
ãģĭ ãģ£ãģŁ
à®Łà¯įà®Ł à¯ģ
ĠprÃ© s
Ã¡ z
Ġà¦¹ à¦ļ
Ø± Ø¶
à®µ à¯Ī
l ine
Ġs al
Ġà°ª à°¡
ï¼ Ĳ
Ġãĥ ĸ
Ġà¤¤à¤° à¤¹
Ġà¦ªà§įà¦° à¦§à¦¾à¦¨
Ġw ur
Ġw e
á»± c
ci os
ib le
Ġà¦ªà¦° à¦¿à¦¬
Õ¡Õ ¬
ĠÕ ¾
Ġt ÉĻm
à°² à°ķà±ģ
ãģĹ ãģ¾
Ġ×Ĳ ×ľ
Ġâ ķ
Ġì§ Ħ
an to
Ġolar ak
ho d
ĠÙĩ Ø³Øª
ï¼ ĳ
Ġãĥ ¬
t h
Ġë ¨
Ġáĥĺáĥľ áĥ¢
à¹Ģà¸ ¡à¸
Ùĭ Ø§
é¡ µ
à¥ģ à¤¸
Ã¶y Ã¼k
Î¸ Î½
à±ģà°¤ à±ģà°Ĥà°¦à°¿
Î §
Ġz d
ĠáĥĲáĥ Ĵ
Ġå° Ĭé¾Ļ
ç¾ ¤
Ð¸ ÑģÐº
ĠC o
Î»Î¿ Ïį
ãģ »
Ġáĥ¡áĥĲáĥ®áĥĶáĥļ áĥĽ
ĠÏĢ ÏģÎŃÏĢÎµÎ¹
ĠÐ¼ ÐµÐ½
ĠìĹ Ĳ
Ã¸ r
à¹ģà¸ļà¸ ļ
ĠÏĥ Î¿Ïħ
æ ¢
Ð¸Ð» Ð°
ti ve
áĥĲáĥ Ń
§ à¸Ļà¸
ĠÎ¼Îµ ÏĦÎ¬
Ġt idak
Ñģ ÑĮ
à®¿à®±à¯įà®ķ à¯ģ
Ķà¹īà¸§à¸ ¢
Î¼ÎŃ Î½Î·
à§ĭ à¦§
à¥ĭ à¤°
ä» ĸ
1 2
Ć Ĉ
ĠáĥĽ áĥĲáĥĽ
ļ à¸Ļà¸
ĠÐ¾ÑĢ Ð³Ð°Ð½
Ġm ol
Ġg ÅĤ
à¹Īà¸ ¡
Ð¸ Ð¶
ķà¹Ī à¸Ńà¸
Ã¢ u
ÄŁ a
áĥĺáĥ¡ áĥĹáĥķáĥĺáĥ¡
i x
ÑĨÐ¸ Ð°Ð»ÑĮ
Ġà¦Ĩ à¦ľ
×Ľ ×ľ
Ġà°Ĩ à°®à±Ĩ
Ġe m
áĥ¬ áĥĺáĥ¤
Ġà¦ĩ à¦ī
Ġb ij
à°Ĥà° ľ
Ġu Å¾
ĠÙ¾ ÛĮØ´
ou ver
Ġst ron
Ġìŀ ¥
Ġk dy
à®±à¯įà®ķ à¯ģ
à±Ģ à°ľ
Ġpue de
Ġà¤¬ à¤¤
ir lÉĻr
à¦°à§įà¦ £
ÅĤ e
Øµ ÙĦ
ãģ ³
à°¾à°¨ à±ĩ
Ġà¤¦ à¤¿à¤²
Ġdi ff
à°ªà±įà°ª à°Ł
Ġm ÉĻr
ier w
Ġà¤® à¥Į
ãģĹãĤĩ ãģĨ
lÄ± k
íģ ¬
ov at
ad or
Ġ×ŀ× ¢
ÉĻlÉĻr i
à¤° à¤£
Ã¡ p
an i
ØŃ Ø©
ĠØ³ Ø§Ø²
Ġà®ķ à¯ģà®´
à§ĭ à¦¸
ĠEs ta
ĠFr ance
à°¿à°Ĥà°ļ à°¿à°Ĥà°¦à°¿
.. ..
áĥ£ áĥĲáĥļ
Ġà¹Ģà¸ Ĭ
ĠÙĩ Ø±
æµ ģ
Ã¨ res
ĠÅ ļ
Î¼Îµ Î½
Ġà¤ķà¤¾à¤° à¥įà¤¯
ĠÏĢ Î»Î·
Ġv ol
ĠáĥĹ áĥ£áĥĽ
ä¸Ģ ä¸ª
å± Ģ
Ñĥ Ð·
Ø¯ Ùħ
Î» ÎµÎ¯
f e
ĠáĥĻ áĥĺáĥĵ
ĠÎµ Î¹
Ð¸Ð½ Ð³
Õ ¬
Ġd ÉĻy
¸ à¹Īà¸Ļ
ĠÏĥ ÏĩÎµ
ĠåĪ Ĩ
ĠÑĤ ÐµÐ¼
ì Ķ
áĥĲáĥłáĥ ©
ģà¸ §à¹Īà¸²
ĠÏĢ Î¹Î¿
ien ia
ÑĤ Ð¸
à¦¤ à§įà¦°
Ġà¸ ¡à¸µà¸
ĠÎº Î¿
Ġh od
à´ ®
èµ Į
é¦ ĸ
æµ ĭ
ĠáĥĽáĥĿáĥ ®
¥à¸ °à¹Ģà¸
Ð½ ÐµÐ¹
à¤ķ à¥įà¤Ł
Ġde ÄŁ
à¹ģà¸ļà¸ ļà¸
Ð¾Ð± ÑĢ
à¹Ī à¸Ńà¸ĩ
Ġb isa
Ġà®µ à¯Īà®¤à¯įà®¤
áĥķ áĥĺáĥļ
à±ĭ à°°
ĠÐ¼ Ð°ÑĤ
Ġí Ĭ
g el
áº· c
à§įà¦¯ à¦®
ĠáĥĽ áĥĻ
Ġà®® à®¿à®ķ
ĠG ratis
Ġm ay
Ġr Ã³w
Ġp ou
×¨ ×Ķ
om o
Ġc es
à±Ĥà°° à±įà°¤
Ġet mÉĻk
Ùĥ ÙĪÙĨ
Ġblo ck
Ġà¤ķ à¤¾à¤®
åł ±
Ġà¦ı à¦ĸà¦¨
Ġgi or
b ar
ĠÙ¾ Ø±
à°² à°¨à±ģ
cz enia
à¤¾à¤¤ à¥įà¤°
Ġnie t
Ġqu el
Ġíı ¬
Ġà¦¸ à§įà¦¥
ĠS ta
ãģŁ ãĤģ
u ll
Ġa kan
Ġza p
ra tion
Ùĩ ÙĨÚ¯
Ġíĺ ¸
ĠPor no
Ġdes de
à®¾à® ªà¯įà®ª
×ĵ ×Ļ
Ã³ l
a zione
is te
ĠØ¨Ø§ Ø´Ø¯
à°°à±įà° ¸
Ġà®® à®ķ
áĥĶáĥłáĥ ķ
à¹ī à¸Ļà¹Ģà¸
ÅĤ em
Ġæĸ °
ëŀ ĺ
n ic
Î³ ÏģÎ¬
Ġà®ħà®µ à®°
Î¼ Î¿Ïħ
Ġà°² à°ķà±įà°·
áĥĵ áĥĿáĥĽ
éĿ ŀ
ĠâĢ ķ
Ð¸ÑĤÑĮ ÑģÑı
Ġà¤¹à¥ĭ à¤¤à¤¾
ÏĮ ÏĦÎ·
ÉĻn c
áĥ¥ áĥĿáĥľ
Î¼Î¬ ÏĦÏīÎ½
Ð¸Ð· Ð½
ĠM e
Ġà¦¦ à¦²
à¹ĥà¸«à¸ į
Ïĩ Î¿
Ġà¤Ĩà¤£ à¤¿
ĠÐ²ÑĢÐµÐ¼ Ñı
t r
áĥĶáĥĳ áĥĶáĥĳáĥĺ
Ġ à¸Ńà¸Ńà¸Ļà¹Ħà¸¥à¸Ļà¹Į
Î³ Ïī
Ġà°ĩ à°Ĥà°Ł
ĠÐ¾Ð± ÑĬ
Ø¨ Ø§Ø±
¡à¸²à¸ ģ
ÎŁÎ Ľ
Ġà®ħà®µ à®°à¯į
à¦Ń à¦¾à¦¬à§ĩ
Ġè ¯
åį ģ
æ ·
Ġáĥ¡áĥĲáĥ ¤
Ĺà¸¸à¸ ģà¸
ĠÐ¸ÑģÐ¿ Ð¾Ð»ÑĮÐ·
diy i
dz in
Ĺà¸ ĺ
ÐµÐ¹ ÑģÑĤÐ²
Ġ à¹
Ġph áº£i
Ġb ul
áĥĶáĥĽ áĥĳ
ë¹Ħ ìĬ¤
ÐµÑĢ Ð¸
à±įà°Ł à±į
Ġd ire
Ġv ÃŃ
li j
ĠáĥĽ áĥĿáĥĴ
Ùĥ Ùħ
ëł ¤
Ġà®ħ à®³
Ġas s
ĠØ§ Ø¬
áĢ ¸
à¤Ĥà¤¤ à¥įà¤°à¥Ģ
lich en
à¤¸ à¥įà¤Ł
Ġno tre
m ie
ãĤĮ ãģ°
Ùĳ Ùİ
ÙĪ Øª
à°ķà±įà°ķ à±ģà°µ
Õ¥Õ ½
p ub
d es
l aÅŁ
Ġà¦¸ à§ģ
on es
an ya
Ġm ÃŃ
Ġà® Ĳ
skie go
ĠI t
Ġæ¬ §ç¾İ
ĠåĽ ½
à¶ »
à§Ģ à¦¦à§ĩà¦°
v i
á» ı
Ġ×ŀ× ¡
ĠM o
ë¥ ´
Ã ¦
Ã© d
æ Ł
ĠØ§ÙĦ ÙĬ
im iz
Ø· ÙĦ
Ġà¦Ń à¦¾à¦²
Ġcu i
Ġáĥŀ áĥĲáĥ¢
ķà¸±à¸ §à¸
Ġg es
âĢ Ŀ
Ġy ol
à®µ à®¿à®²à¯įà®²à¯Ī
Îº ÏģÎ¹
cz enie
Î½ Î¹Î±
U R
áĥĿáĥĳ áĥĲáĥ¨áĥĺ
è ĥ
åº Ĩ
ĠÑĥ ÑģÑĤ
Ġà¤µ à¥ĩ
ĠÏĢ Î¬Î½
ĠC e
áĥ£áĥłáĥ ¡
Î ĺ
ĠÐµ ÑģÐ»Ð¸
Ġà¦Ĩ à¦¹
ÛĮ Ùĩ
à¸µà¸¢à¸ ĩ
Î½Î± ÏĤ
è¢ «
ĠÑĩ ÐµÑĢ
ĠM ad
ĠáĥĽáĥĺáĥĽ áĥĲáĥłáĥĹ
à¹Ģà¸ ĭ
ĠÎ¼ Î·
Ġe mp
ĠÐ¾Ð± ÑĢÐ°Ð·
owan e
Ġ1 00
Î´ Î¹Î¬
à§Ģ à¦¤
à±Ĩ à°¡
Ġ20 20
æľĢ æĸ°
åľ° åĿĢ
ĠáĥĹáĥ£áĥĽ áĥªáĥĲ
Ħà¸£à¸Ķà¸´à¸ķà¸ Łà¸£à¸µ
Ñĥ Ð³
à®® à¯ģà®®à¯į
ĠmÉĻl um
à¹ĩà¸ ģ
ÑĥÑī ÐµÑģÑĤÐ²
ªà¸ ¡à¸
h men
ãĥ§ ãĥ³
Ġáĥĳ áĥł
ch o
ĠÑĤÐ°Ðº Ð¶Ðµ
Ġà®ı à®±à¯įà®ª
ĠÛ °
ĠØ¯ Ùĩ
Ġv iá»ĩc
áĥľ áĥĺáĥ¨áĥķ
¯ à§
Ġà°¶ à±įà°°à±Ģ
à°¨ à°Ĥ
ĠÕ¸ ÖĤ
Ġha cer
Ġå¤ ©
à´¿à´ ²
Ġo ver
Ġà¤¹à¥ģà¤ Ĩ
Ġqu al
ĠãĤ ª
Ġv os
j Å¡ÃŃ
m m
ĠR Ã©
Ġq o
à¦¿à¦ ĵ
Ġ2 2
ti ques
Ġa k
Ġà®ĩ à®²
à±ĭ à°¨
Ġê² Į
Ġa Ã±os
ãĥ Ħ
u to
è ķ
Ġà¤ľ à¥Ī
Ġà®µà®¿à® ³
à°¡à±įà°¡ à°¿
Ġà°ªà±įà°° à°¯
Ġí ģ
Ġpo l
Ġ×Ķ ×ķ×Ĳ
ĠØ¬ Ùĩ
Ġbil dir
em y
ç ¶
etz t
Ġ ans
t ur
Ø³ Ø¨
à¥Ĥ à¤¸
áĥĺáĥĻ áĥĲ
ĸà¸ ·à¸Ń
ĠAn da
ç ¬¬
ĠíĨ µ
Ġà¦° à¦¾à¦ĸ
ÎŁÎ Ŀ
t ar
Î· Î³
Ġth Ãłnh
áĥĲáĥĹ áĥķáĥĺáĥ¡
ç ģ
ĠãĢ Ĭ
Ð¸Ñģ ÑĮ
Ġser v
Îº Î»Î·
le j
áĥĶáĥ¥ áĥ¡
ĠÎ½ Î¿
Ð¾Ð½ ÑĤ
Ġà®¨ à®¾à®Ł
Ġoldu ÄŁ
Ĥ à¹īà¸²à¸
ĠÏĨ Î¿
å ŀ
ĠÑĥ ÑģÐ»
Ġp ub
áĥĲáĥķ áĥĲáĥĵ
Ġà¸ªà¸ ¡à¸±à¸
ÏĢÎ¿ Î¯
à±Ī à°¤
Ð¼ Ð°
ĠÛ±Û³Û ¹Û
¨à¸ ¶à¸
Î¼ÎŃ Î½Î±
ĠØ¨ Ø¯
Ġà°Ĺà±įà°° à°¾à°®
è Ļ
å¾ Ī
æ¬ ¢
áĥ£áĥ ¢
à¹Ģ à¸£à¸²à¸
Ð» ÐµÐ´
der n
ĠktÃ³ r
Ħ à¸£à¸²à¸°à¸
ĠÐ· Ð°Ð²
ĸà¸ ¹à¸ģà¸
Ġà¦¦ à¦¿à§Łà§ĩ
ov Ã¡nÃŃ
Ġáĥ¨áĥĶáĥ £áĥ
Ġì Ĥ
ĠÐ¿ÐµÑĢ Ð²
à¤µ à¥Ģ
ide o
Ġà¦® à¦¾à¦°
en do
Ġáĥ¢ áĥł
í ĭ
à°¾à°° à±į
à°¿à°¨ à°¾
cion al
Ġ×Ķ× §
ãģŁ ãģĦ
Ġà®ī à®¯
ħ n
et a
ãģ® ãģ¯
ÙĦ Ùĩ
ĠD Ã©
Ġà¤ĩà¤¸ à¤ķà¥ĩ
à¦¾à¦ ¡
ĠÃ© v
elij k
k Äħ
Ġaut res
eit er
ÙĪ ÙĬ
ĠgÃ¶ z
ĠT elugu
Ġm ad
i po
d ÃŃ
Ġth Ã¬
å® Ł
Ġà¤ī à¤¤
Ġà®®à¯ĩ à®²
Ġà°Ńà°¾à°° à°¤
à°¨à±įà°¨ à°¿
ĠÙĪ ÛĮ
ë¬ ´
Ġz n
a ires
ĠUn ter
Ġsu l
ãģ Ĵ
Ġi c
± c
ĠE t
à¶ Ń
Ġà¤Ĺ à¤ı
áĥĵ áĥľáĥĶáĥľ
Ġà¸ ģà¸£à¸
ÙĪØ± Øª
ç¤ º
Ġì ¶Ķ
Ġz osta
ĠÏĢ ÏīÏĤ
Ġtam biÃ©n
ĠÏĥÏħ Î¼
ut z
áĥĲáĥĹ áĥĲ
å¦ Ĥ
ç§ į
ÑĥÑĩ ÑĪ
nÃ© es
ÎĹ Îľ
ÙĦ Ùģ
áĥłáĥĴ áĥĲáĥľ
Î» Ïī
Ñĥ ÐµÑĤ
Ġin san
Ġp Å¯j
à¹ģà¸ ģ
Îº Î·
çĿ Ģ
Ð ĳ
Ġpar te
áĥĶáĥĳ áĥĲáĥ¨áĥĺ
ķà¸²à¸ ¡à¸
ĠÎ´Î· Î¼Î¿
à±Ĭ à°ķà±įà°ķ
ĠÑĤ ÐµÑħ
n ou
Ħà¸£à¸²à¸°à¸ «
ĠÎ´ Î¹Îº
Ġj us
à¦¿à¦ Ĺ
åħ ¶
äº Ľ
à¥įà¤¯ à¤¾à¤ļ
Ġáĥ¡áĥĲáĥĶ áĥłáĥĹ
Ġà¸ Ĺ
ĠÐ½ Ð°Ð·
Ġ×ľ ×¢
Ġà®ļ à¯ĩà®°
ļà¸²à¸ Ħà¸²à¸£
ĠÑı Ð²
Ħ à¹īà¸²à¸
201 9
à¤° à¥ĭ
áĥ£áĥłáĥ ľ
´ Ī
ÑĨ Ð°
Ġs te
ĠP rze
Ġz as
à¯ģà®ķ à®¿à®©à¯įà®±
áĥĵ áĥĶáĥľ
da h
ĠF o
ent os
Ġà¤¦à¥įà¤µ à¤¾à¤°à¤¾
Ø§ÙĨ ÙĬ
ãĤ¹ ãĤ¿
Ġt arix
à¦¿à¦¨ à§įà¦¨
ìļ ¸
cj ÄĻ
Ø® Øµ
Ã© lÃ©
áº± ng
b t
in es
çĦ¡ æĸĻ
è© ±
Ġë ©
ĠÆı liy
ĠB ir
Ġt ÄĽ
Ġà¤¨ à¤¾à¤®
en a
à°¾à° ¸à±įà°¤
Ġ×ĳ ×ª
d ni
Ġà¦Ĩà¦® à¦°à¦¾
à®Ļà¯įà®ķà®³ à¯Ī
ÙĪ Ø´
en e
ä¸Ń æĸĩ
Ġë ķĮ
Ġà¦ľ à¦¾à¦¤
ãĥĩ ãĤ£
tif adÉĻ
Ġin tÃ©
ĠØ§ ÙĨØ¯
t ti
à±ģà° £
im iento
ĠØ¥ ÙĨ
Ġà¤¸ à¥ĭ
ãĤ ¬
Ġáĥĳ áĥĲáĥķáĥ¨
Ħ à¸Ńà¸
à¦¾à¦¥ à§ĩ
è ¥¿
e d
à±Ģ à°Ł
ĠÂ» .
à¥ĩ à¤¨
ĠÏĦ ÏĮ
à®® à¯įà®®
áĥĿáĥĵ áĥĶáĥ¡
æł ·
éľ ¸
Ð ĵ
ĠØ¯Ø§ÙĨ Ø´
Ġ á½
er ca
Ġáĥĵ áĥłáĥĿáĥ¡
Î½Î± Î½
ĠÐ¼ Ð¸Ð½
à¯ģà® Ļà¯įà®ķ
ĠS o
Ľà¸£à¸°à¹Ģà¸Ĺà¸ ¨
ÏĨ ÎŃÏģ
è¯ ·
ÐµÑĤ Ð°
Ġ×Ķ× ¡
ĠáĥĶáĥłáĥĹ áĥĲáĥĵ
Ġà¹Ģà¸ ŀ
ĠÎ± ÎºÏĮ
Ġje dn
ĠÑģ Ð°Ð¹ÑĤ
ãģª ãĤĵ
ªà¸²à¸¡à¸²à¸£à¸ ĸà¸
ĠÎµÏĢ Î¹Ïĥ
à±Ģà° İ
Ġà°ª à°¾à°²
ä¸ ľ
æĽ ´
Ġ0 2
ĠáĥĴ áĥĲáĥ£áĥ
Ħà¸ ¥
ĠÐ¿ÑĢ Ð¸Ð½
à®µ à®°
ĠV or
à¹Ħà¸ §
ĠÐŁ Ð¾
ķ à¹īà¸Ńà¸ĩ
ÅĦ st
ãĢ Į
ĠáĥĻ áĥĲáĥľ
Ġv ÄĽ
ĠÐ½ Ð°Ð´
un e
Ùģ Ø±
ay on
Õ¶Õ¥ÖĢ Õ«
ĠáĥĽ áĥĶáĥĿ
di k
Ġà°ĩ à°¦à°¿
à¤Ĥ à¤ľ
s ten
I j
ãģĪ ãĤĭ
Ã³ r
c ri
Ġv is
à¯įà®¨à¯įà®¤ à¯ģ
Ġit em
ë§ ¤
Ġà¦¤ à¦¬à§ĩ
Ã Ĭ
ĠK h
ë Ķ
Ġp ada
ãģķ ãģĦ
èį ī
in di
an da
Ġà¤® à¤¨
à®¨à¯įà®¤ à¯ģ
t rz
j em
ig n
éĸ ¢
×ķ× ĺ
Õ¸ÖĤÕ©Õµ Õ¡Õ¶
larÄ±n Ä±n
ÙĪ Ùĩ
Ġà¤¸à¤ķ à¤¤à¤¾
Ġë Ħ
Ġen f
Ġz p
Ġà®ª à¯ģà®¤
à¦² à§įà¦ª
ĠØ ¶
Ġhá»į c
Ġch a
Ġpro duk
Ġy ox
at ie
Ġáĥ¡áĥĲáĥ®áĥĶáĥļáĥĽ áĥ¬áĥĺáĥ¤
Ħà¸§à¸²à¸ ¡à¹Ģà¸
un den
1 8
l us
g an
Î¼ ÏīÏĤ
Ġà®¤ à®°
ÏĥÎº ÎµÏħ
è ¼
Ġáĥ¡ áĥĺáĥĽ
æĢİ ä¹Ī
èģ Ķ
Ð¼ ÐµÐ½
ĠëĤ ¨
Î´ ÎµÏĤ
à°¾à°¬ à±ģ
ĠáĥĽ áĥĺáĥĶáĥł
ÏĦ Î¹Î±
ĠÐºÐ¾ÑĤÐ¾ÑĢ ÑĭÐµ
Ġà°ª à°¨
Ġà¤¹ à¤°
ªà¸³à¸« à¸£à¸±à¸ļà¸
ÏĢÎ¿Ïħ ÏģÎ³
è¶ ³
ĠÐµ ÑģÑĤÑĮ
à§Ģ à¦Ĺ
áĥĶáĥłáĥ Ľ
¶ à¹Īà¸ĩ
ÏĨÎ¿ ÏģÎ¬
Ġà¦¤ à¦¾
Ð°Ð½ Ð¸Ð¸
ĠØ§ Ø¯
) ;
ÎĻÎ Ŀ
ãĥ Ľ
Ø§Ø± ÙĬ
ç§ ĳ
Ġæ Ŀ
åĪ Ĺ
áĥĶáĥ ¨áĥĺ
§à¸ ĩà¸
Ð°ÑĤ Ð¾ÑĢ
à®Ł à¯įà®ļ
Ã³ Å¼
Ġà¸ ļà¸
ĠÐ³ Ð¾ÑĢÐ¾Ð´
ªà¹Īà¸§ à¸Ļà¸
Ġà¤ķà¤° à¤¨à¤¾
à±įà° ľ
Ġáĥ¨ áĥĿáĥłáĥĺáĥ¡
Ġà®® à®¾à®¤
ĠÐ¿ Ð¾ÑĤ
Ġde v
ĠÙħ Ø±Ø¯
Ġy az
Ġg io
ĠáĥĲáĥ® áĥĲáĥļ
ëł Ī
Ġà¦ķà¦¾à¦° à¦£
re is
ÉĻ dÉĻn
Ġv Å¡e
à®µ à®°à¯į
Ġw o
ig ne
Ġnu ov
Ãº c
p on
ĠÙĩ Ø°Ùĩ
ĠÚ©Ø´ ÙĪØ±
Ġà¤īà¤¨à¥įà¤¹ à¥ĭà¤Ĥà¤¨à¥ĩ
æ§ ĺ
à±Ĩ à°Łà±įà°Ł
Ġ×Ķ× Ľ
à®µ à®°à¯įà®ķà®³
çľ Į
à°¾à°Ĥà°Ł à°¿
ãģ« ãĤĪ
T I
al ia
Ġj en
Ġìĸ ´ë
Ġv ie
àµįà´ Ł
åķ ª
à¤¾à¤° à¥ĩ
ich e
ĠÃ¼z rÉĻ
Ġo ok
à¦¨à§įà¦ ¨
qu i
à°¾à°¨ à±į
t ir
áº¡ o
il a
à¤¾à¤ Ł
Ġà®ħ à®ªà¯įà®ª
Ø¬ Ùħ
Ġpro pos
I E
áĥĶáĥĳ áĥĽáĥĲ
ĺ à¸£à¸£à¸
ĠJ ak
æİ Ĵ
Ġby Äĩ
Ġà®İà®© à¯į
Î½ Î®
à¦¿à¦ ĸ
Î¯ Ïĥ
à®² à®¿à®²à¯į
áĥľáĥĺáĥ¨áĥķ áĥľáĥĶáĥļ
æķ Ļ
èĢ ģ
Ð° ÑĨÐ¸Ñı
Ġt ÉĻl
ÏĦÏĮ ÏĤ
ĠW ir
áĥĲáĥ« áĥĶ
Î´ Î¹Îº
ĠÑĤ ÐµÐ»
Ġs ite
à¥Ģ à¤¡
à¹ Ħà¸£
ĠÏħ ÏĢÎ¬ÏģÏĩ
åİ »
ĠÐ¾ÑĤ Ðº
Ġl i
Ġáĥł áĥĲáĥĽáĥĵ
à¸´à¹Ģà¸ Ħà¸£à¸²à¸°à¸«
Ïĩ Î¹
Ġà¦¸ à§ĩà¦ĩ
ĠÐ´ Ð°Ð½
ĠØ¢Ùħ ÙĪØ²
à¹īà¸Ńà¸¡à¸ ¹à¸
ĠÎºÎ¬ Î¸Îµ
íĨ µ
il d
å¸ ¸
è Ħ
é »
Ġáĥķ áĥĺáĥľ
à¹Ģà¸ Ľ
ĠÐ² ÐµÑĢ
Ġ×ĳ ×Ķ
O R
¥à¸ ĩ
ĠÑĩ ÑĤÐ¾Ð±Ñĭ
¥à¸ ¹à¸ģà¸
f ec
à¤ļà¥įà¤ Ľ
áĥĺáĥĽ áĥĶ
Ġà°¤ à°ªà±įà°ª
ĠÐ¿ Ð°ÑĢ
Ġf on
ĠØ§Ø³Øª Ùģ
Ø§Ø¯ Ø©
à®ļ à¯į
áĥĲáĥĽ áĥĺáĥ¡
a cji
Ġdo or
Ġà°¸ à°°
ĠH er
à¦¿à¦ ı
Ġk a
Æ¡ i
Ġc rÃ©
p re
à¦¾à¦¨ à¦¾
í Ĥ
u a
ĠW o
èķ ī
Ġà¦ªà¦° à§įà¦¯
Ġà°ª à°Łà±įà°Ł
à¯Ĥ à®°
ÅĽ my
ĠO n
à°¸ à±įâĢĮ
Ġj ej
ĠØ Ł
à±Ģ à°¤
à®¿à®¯ à¯ĩ
Ġtem ps
Ú¯ Ø§ÙĨ
Ġà´ µ
à¤ Ĩ
Ġà¤¸ à¤¾à¤²
l and
ÙĬØ± Ø©
×ķ ×Ļ
à°¿à°Ĥà° ª
Ġte Å¼
c Ä±
Ġd os
Ġà¦¶ à§ģà¦°à§ģ
ĠV o
Ġà¤ª à¤¾à¤°
Ġ201 7
Ġan ni
à¯Īà® ®
g ie
ĠáĥĲáĥĽ áĥĳ
Ġ à¹Ĩ
Ġëį Ķ
äºī éľ¸
Ġe le
Ġà°ī à°ª
ÎµÎ¯ ÏĤ
ĠØ§Ø³ØªÙģ Ø§Ø¯Ùĩ
ĠÏĢÎµÏģÎ¹ Î¿
ĠqÉĻd ÉĻr
Ġáĥľ áĥĲáĥ®
å¯ ¼
å¾ ĭ
ĠÐ½ ÐµÐ´
à§Ł à§ĩà¦°
ÏģÎ± ÏĤ
à®¿à®¯ à®¿à®©à¯į
áĥĲáĥłáĥ ¯
Î¼ÏĨ ÏīÎ½
ĠÑĢ ÐµÐ³
Ġc er
Ġà¤ħ à¤®
Ġà¸Ħ à¸²
ÏĦÎµ Ïģ
ä½ĵ èĤ²
ĠÑĥ Ð¶Ðµ
Ġ×© ×Ĳ
áĥĶáĥĳáĥ£áĥļáĥĺ áĥĲ
Ġà¸ Ľà¸
Î¼Î¿ ÏĤ
Ġdo b
ÑĢ Ð¾Ð¼
Ø· Ø©
« à¸²
Îĳ ÎĻ
Ġi hr
çĶ »
éĹ ®
çľ ģ
æ ¨
ĠáĥĽ áĥ¨
Ġà¸ŀà¸Ļà¸ ±à¸Ļ
ĠÐ½ ÑĥÐ¶
Ġà¦ķ à§ĩà¦¨
dz y
à¹Ħà¸ ĭà¸
Ð¼ Ð¾ÑĤÑĢ
ªà¸¸à¸ Ķà¸
Ġtien e
t Ä±r
áĥĲáĥĽ áĥĶáĥľáĥ¢
Ġà¤¸à¤¬ à¤¸à¥ĩ
ĠÑĩ ÐµÐ»Ð¾Ð²
Ġà¦¹ à¦¿à¦¸
Ġpers onn
l y
Ġa ta
áĥĲáĥł áĥĲ
Ø±Ú© Øª
Ġà®ķ à®¿à®Ł
Ġz w
Ġ×Ķ× Ĵ
ë¡ Ŀ
ĠØ§ÙĦ Ø§
à±ĩà° ¸à±įà°¤
Ġn ost
à¯Ĭ à®°
á»ĭ ch
ĠÉĻs as
Ġde gli
Ġp are
à°¾à°Ĥà° ¡
c el
è¨ Ī
Ø§ÙĦ Ùħ
al mente
Ġutil is
ĠØ¨Ø§ Ø²ÛĮ
ä¾ ¡
Ġp on
Ġà¦ı à¦²
à´¤ àµįà´¤
ĠB er
Ġà®ī à®±
à¥ĩà¤Ĥ à¤¦
ĠÕ¥ Õ¶
ĠR es
Ġà¤ķ à¥įà¤·
à¦¾à¦ ī
ĠÕ¸ ÖĢ
liy i
Ġf ue
ãģ ¸
ĠØ¯Ø§Ø± Ø¯
íķ Ń
c ak
Ġz o
ÉĻs inÉĻ
Ġm Å¯
ãĤĵ ãģª
ĠmoÅ¼ na
ĠáĥĿ áĥłáĥĴáĥĲáĥľ
Ġà¸ ¡à¸µ
ĠJ ahr
å§ Ķ
Ġ3 0
ĠM ais
Î¼Î± ÏĦÎ¿
à§ģà¦ §
ĠÎ¿ÏĢÎ¿ Î¯Î±
Ø¹ Ùħ
ĠáĥĽ áĥª
æĮ ģ
æľ ¯
ĠÐ± ÐµÑģ
à°ļà±įà°ļ à±ģ
Î½Î¿ Ïį
itÃ© s
áĥĴ áĥĿáĥĽ
ÏĨ Îµ
Ð¾Ð½ Ð°
Ġë° ľ
Ġà®ļ à®¨à¯įà®¤
Ĺà¸ ĩà¸
ĠÎ± Ïģ
Ġè ®
ÑĢÑĥ Ð´
Ġ×Ĳ ×ķ
Ġáĥ¨áĥĶáĥ¡ áĥĲáĥ«áĥļ
Ķà¸ ¹
Î¯ ÏīÎ½
Ġà¦® à§ģ
ÑĨÐ¸ Ñİ
g na
Ġ à¹Ħà¸¡à¹Ī
ĠÎ¼ÏĮ Î½Î¿
ta c
Ġon un
æº Ĳ
à¤¾à¤ ł
ĳ åħĭ
Ġáĥ¬ áĥĶáĥļáĥ¡
´ à¸Ļà¸
Ð» ÐµÐºÑĤ
Ġh ar
Ġà¦¤à¦¾à¦° à¦¾
¥ à¹Īà¸²à¸
Ð°Ñĩ ÐµÑģÑĤÐ²
à¸Ńà¸ °
à¤°à¥įà¤ ľ
ĠØ¨ ÙĬÙĨ
áĥĲáĥ£áĥ ł
ĠÄĳ i
Ð°Ñģ ÑĮ
Ġà®ħ à®²à¯įà®²
Ġmej or
ãģĹãģ¦ ãģĦãĤĭ
g ÅĤ
ĠáĥĲáĥ ĺ
in t
ĠÅ ł
Ġh ay
A L
iz za
Å¾ it
Ġil s
ĠI ch
à¤ķ à¥įà¤°
h eit
asÄ±n a
ĠØ¨ Ø®
ri d
ë ¯¼
ĠL as
à°ª à±ģ
Ġà¦ª à§ģà¦²
ĠT o
éĸ ĭ
ĠØ¨ Ø¹Ø¯
à§ĩà¦² à§ĩ
Ġtut ti
Ġcz ÄĻ
Ġâ ľ
Ġë° ı
Ġà´ ¸
à¤¿à¤ ¦
ab r
s ÉĻ
Ġde c
Ġtra va
Ġi k
à¦ŀ à§įà¦ľ
nÃŃ ch
p f
Ġk un
Ġà°¦ à±įà°µ
Ġpro pr
Ġãĥ Ĳ
à¦ķ à§ĩà¦°
Ġpri x
æľ¬ éģĵ
Ġà¤ª à¥Ī
Ġáĥ¡áĥĲáĥ Ĵ
Ġà¹Ģà¸ Ľà¹ĩà¸Ļà¸
Ġw enn
Ĵ áŀ
ent ro
Ø´ Ú©
Î¸ Î¿ÏįÎ½
N o
Î³ Î±
ì² Ń
ĠáĥĲáĥ £áĥ
ä» ·
Ġä½ Ĩ
ĠÐ¾Ñĩ ÐµÐ½ÑĮ
ĠV ous
ÏĮ ÏĦÎ·ÏĦÎ±
æ© Ł
ĠáĥĽ áĥĲáĥłáĥ¢
Ïĥ ÏĦÎ®
Ð¸ÑģÑĤ ÐµÐ¼
Ġc el
Ġà¦¨ à§ĩà¦¤
ŀ à¸²à¸
ĠÎķ Îº
à¥Ģ à¤²
ĠÐ½Ð° Ñģ
Ġhaq q
áĥĶáĥ £áĥļáĥĺ
Ħ à¹Īà¸
ĠÎ±ÏĢÎ¿ ÏĦÎµ
ĠìĽ Ĳ
ĠÐ² Ð·
ÙĬ Ø²
à¸£à¸±à¸ ģà¸©
ÏĢ Î®
Ġm un
×ŀ ×¨
æ´ »
åŁ º
ç ¡
ĠáĥĶ áĥķáĥł
à¹Ģà¸¥à¸ ·à¸Ńà¸
Ð»Ñı ÐµÑĤÑģÑı
Ġà¦¹à¦ļ à§įà¦Ľà§ĩ
Ġd om
Īà¸ ¸à¸
ĠÐ ĸ
§à¸¥ à¸²
Ġà®¤ à¯ĭ
Ġqu y
áĥĲáĥł áĥĶáĥĳáĥĺáĥ¡
Ġse b
Ġr u
Ġà¦¸ à¦¾à¦¥à§ĩ
Ø±ÙĪ Ø´
ĠÃ§ ok
Ġw as
ĠáĥĲáĥ Ļ
ia ÅĤa
à°¦ à±ģ
Ú¯ ÛĮØ±
Ġd Ã¶vlÉĻt
Ġda lla
à¯Īà®ķà¯įà®ķ à¯ģ
Ġf iles
ou p
ĠØ§ÙĦØ° ÙĬ
Ġcu ando
ty cz
Ġb ax
ì§Ģ ë§Į
à· Ķ
Ġà¤µ à¤¿à¤ķ
Ġà®Ĩ à®°
à°Ĥà° ¡à±ģ
ĠN ach
ĠÃ©ta it
Ġãĥ ŀ
ĠktÃ³ ry
£ p
Ġsu o
à°ª à°¡
ov a
ãģª ãĤī
Õ º
ilm iÅŁ
Ġto dos
Ġà®ļ à®°
A V
Ġà¤¸ à¤Ńà¥Ģ
ãģĤãĤĬ ãģ¾ãģĻ
co re
v od
Ġà¦¸ à¦¦
ĠØ§ÙĦÙħ ÙĨ
Ġpar ti
ĠØ® Ø±
le ich
Ġw iel
à¦¨à§įà¦¤à§įà¦° à§Ģ
Ġ×ľ ×©
áĥĲáĥľ áĥĴ
Ĳ à¸
Ġà®ª à¯ĩà®ļ
å¼ º
à¦¾à¦° à§įà¦¥
ÙģØª Ùĩ
ÎĳÎ Ľ
à¤Ĥ à¤ª
ĠÎ» Î±
âĢĮ à°°
ĠáĥĻ áĥļ
å¸ Ī
æĺ Ł
Ðµ ÑĦ
à±Ģà° Ĩ
ÏĨ Î·
Ġà°ķ à°¿
ĠáĥŀáĥĿáĥļ áĥĺáĥ¢
ĠÏĥÏĦ Î¿ÏħÏĤ
ĠÐ´Ð¾Ð» Ð¶
lÉĻr inin
as se
Ħ à¸£à¸±à¸ļ
ÏĦ ÏĥÎ¹
ä» »
ÐµÐ½ Ð´
iá»ģ n
áĥ£áĥłáĥ Ĺ
à¸Ńà¸¢à¸¹ à¹Īà¸
Ïģ ÏİÎ½
Ġà¦¸ à¦Ń
ĠÐ¾Ð± Ñī
à®Ł à¯į
ŀà¸ ·à¹Īà¸Ń
ĠÎ¶ Ïī
in y
ĠT Ã¼rk
º «
åĢ ¼
çĦ ¶
áĥ£áĥł áĥĺáĥ¡
à¹Ī à¸Ļà¹Ģà¸
ĠÑĥ Ðº
Ġê± °
Ġfor ma
ŀ à¸£à¸
ĠÐĿ Ð¾Ð²
Ġà¸§à¸´à¸ ĺ
à¦¥ à¦®
Ġà°µà°¿à° ¶
áĥĲáĥĵ áĥĲáĥ¡
rÃ© s
ĠÐĺ Ð½
Ä±n dan
ter n
ÙĤ Øª
à¤¯ à¥ĩ
Ġáĥĺáĥľáĥ¤ áĥĿáĥłáĥĽ
Ġà¤¸ à¤¹
Ġà°¹ à±Ī
Ã´ n
Ġos ob
à®¿à®ķà¯įà®ķ à¯ģ
ÃŁ e
Ġà¦¬ à¦¿à¦°
ĠS ain
Ġfiles _
Ġ2 1
×ĳ ×¢
Ġse hr
ang an
Ġà¤Ĩà¤ª à¤ķà¥ĭ
Ø§Ø³ ÛĮ
ì° ¨
Ġà°¤ à±ĭ
k Ã©
j et
ĠR o
à¦¾à¦ Ń
Ġà®ħà®µ à®°à¯įà®ķà®³
g no
à°¿à°¤ à±ĭ
ÙĨ Ø©
ro d
àµįà´ °
Ġh anno
ici Ã³n
ĠH et
Ġà¤¬ à¥Ī
Ú© Ø³
Ġe dÉĻn
Ġgr and
Ļ à¯įà®ķà®³à¯į
owa dz
Ġà§ §
Ġìĭ ¤
àµģà´ Ĥ
ĠØ§ ÙĪ
Ġd ann
Ġà¦ķ à¦²
×ŀ× ª
áĥľ áĥĺ
Ķà¸ ¹à¸
Ã¼ y
å° ĳ
g os
li w
Îķ ÎĿ
Ġà¤« à¤¿à¤²
ĠÎĿ Î¿
à°¨à±įà°¨ à°¾à°°à±ģ
Ġáĥª áĥ®áĥĿáĥķáĥł
å· §
è® º
ĠÐ¿ÑĢ Ð¾Ð³
Ġà°ķà°¾à°° à±įà°¯
Îµ ÏĦÎµ
Ġà°µà°¿à° §
ĠáĥĶ áĥł
ÎĳÎ ļ
ĠÐ¼ ÐµÑĤ
Ø£ ÙĨ
I N
¨à¸¶à¸ ģà¸©
ĠÎ ĸ
è½ ¯
ĠÑģÑĤ ÑĢÐ°Ð½
Ġà¦ªà§įà¦° à¦¶
áĥĲáĥł áĥĶáĥĿáĥĳ
à¹ģà¸ ¡
ĠÂ µ
n Ã½ch
Ð¾Ð² Ð°ÑĢ
Ã¢ m
¹ à¹Ī
ĠÎµÎ½ Ïİ
à®Ļà¯įà®ķà®³ à®¿à®²à¯į
ÃŁ en
Ġç »
åį Ĺ
áŁ Ĵáŀ
áĥĿáĥļ áĥĿáĥĴ
Ħà¸£à¸ ±à¹īà¸ĩ
ÐµÐ½ Ð¸Ñİ
t Ã³w
f ica
µ à¹Īà¸
Ð°Ð» Ð¸Ð·
à¹ģà¸ Ĥ
Ġë§ Ĳ
à°¾à°° à°¨à°¿
ĠáĥĲáĥ¦ áĥĽ
p uis
Ð°ÑĤ Ð°
Ġà§§à§ ¦
Ġà¦ªà§ģà¦² à¦¿à¦¶
ĠãĤ ¤
Ġ ä¹ħä¹ħ
Ġáĥ§áĥķáĥĶáĥļ áĥĲáĥĸáĥĶ
Ġà¤ª à¥ģà¤²
Ġà°ľ à±Ģà°µ
un a
cz ÄĻ
iá»ĥ m
j on
Ġà¦Ĩ à¦Ľà§ĩ
Ġf orm
Ġper met
ĠA u
Ø§Ø «
×ĵ ×¨
à®ªà¯įà®ªà®Ł à®¿
à¥ĩ à¤°
le Äį
Ġa da
Ġà°®à±Ģ à°¦
f ahr
ran Ã§
ìŀ ĳ
à¦¤ à¦¾à¦°
éĢ ģ
à® ľ
Ġà°ļà±ĩà°¶ à°¾à°°à±ģ
ĠØª Øµ
lar e
Ġà¤Ĺ à¥įà¤°
om b
ĠãģĿ ãĤĮ
in as
Ġà¤Ł à¥Ģ
Ġon der
nie Å¼
Ġ2 4
Ġt om
èī ¯
à¦¬ à¦°
à¯ĩ à®¯
áĢ ¬
í Ŀ
uf en
om a
ĠØ± Ø³
ĠáĥĲáĥłáĥ ª
Ġà¸ «
ê· ¸
åĲ ĳ
es e
à¦¾à¦® à¦²
ĠÏĢÏģÎ¿ ÏĤ
à´ ¨
Î¹ Ïİ
Ġà°ľ à°¿à°²à±įà°²
áĥĺáĥĻ áĥĺáĥ¡
åĪĨ æĹ¶æĹ¶å½©
åı ª
Ð°ÑĤ Ñĭ
Ġà°¸ à°¾à°§
Î» ÎµÏħ
Ġap ar
áĥĽ áĥĺ
ĠÎ± Î¾
ĠÑįÑĤ Ð¾Ð¼
Ġ×ľ ×¤
Ġs ous
ģà¸ ¥à¸²à¸
ÏĨ ÎŃ
æĶ ¶
ĠÐ¾Ð± Ð»Ð°ÑģÑĤ
à¯Īà®¯ à®¾à®ķ
Ġáĥ§áĥĿáĥķ áĥĶáĥļ
Ġ à¸Ļà¸²à¸
ĠÎķ ÏĢÎ¹
f i
ĠÑģ Ñĩ
ìĸ ´ë
Ġà¸ ļà¸²à¸Ĺ
ĠÎĶ ÎµÎ½
Ġà¦ªà§įà¦° à¦¥à¦®
u te
ä¼ ģ
å½©ç¥ ŀ
åĸ ľ
Ġáĥ¨áĥĶáĥ ®
«à¸¥à¸ ±à¸ĩà¸
ĠÐ´ Ð¾ÑģÑĤ
ĠØ£ ÙĬ
Ġn Æ°á»Ľc
łà¸²à¸ ©
ÐºÐ° Ñĩ
ĵ à¹Įà¸
Ġo fer
ĠÚĨ Ùĩ
áĥĵ áĥĶ
Ġà°ķ à±ĩà°¸
ÑģÐº Ð¸Ðµ
ere k
it ar
Ġà°ķ à°°
Ġà¤ļ à¤²
Ġáĥŀáĥł áĥĿáĥª
à¤¹ à¤°
Ó Ļ
Õ¡Õ¶ Õ«
Ġd Ã¼n
ç Ł¥
Ġà°ħ à°¡
Ġkter Ã½
g ne
Ġm as
Ġà¦ķ à§įà¦°
Ã± a
nik Ã³w
ĠØ· Ø±
à¶ ¸
Ġà®®à¯ģà®© à¯įà®©
f en
Ġà°ħ à°®à±įà°®
an za
ÉĻf ÉĻr
ĠØ² ÛĮ
em me
Ġl ui
ãģ§ãģį ãĤĭ
Ġà°ķ à±ĩà°Ĥà°¦à±įà°°
Ġk aÅ¼
Ġa ff
Ġà¤« à¤¿à¤°
Ġc ol
×ł ×Ļ×Ŀ
ìĹ Ī
à´ ³
ow ym
à§ģà¦ ľ
v al
os ten
à®± à¯ģ
ĠA v
ĠØª Ùħ
Ġà¤¸ à¥ģ
ĠF ra
à§ĩà¦¬ à§ĩ
è¨ ĺ
Ġp el
ĠáĥĽáĥĿáĥ ¥
à¸£à¸ ¹à¸
ĠSp iel
æį ®
Ġtak Å¼e
áº¯ t
Ïģ ÎµÎ¹
à¤¾à¤· à¥įà¤Ł
Î´ ÏĮ
Ġà°ªà±Ĩ à°¦à±įà°¦
Ġáĥ¡ áĥĻ
¦ Ĥ
è¿ ĺ
ÑĢÑĥ Ð¿
Ġà°ļ à°Ĥà°¦à±įà°°
Î»Î· ÏĤ
Ġà¦ªà¦¾à¦° à§ĩ
Ġ$ (
Ïį ÏĢ
Ð¾Ð± Ñī
iy ÉĻ
Ġm ujeres
Ġà¹Ģà¸¥ à¹Īà¸Ļ
Ġï¿½ï¿½ ï¿½
æł ĩ
ĠÐ¼ Ð¾Ð³
or den
áĥĿáĥ¤ áĥļ
à¸´à¸ Ķ
Î´ Ïħ
Ġen c
Ñĥ ÑģÑĤ
Ġbu de
ķà¸´à¸ Ķà¸
ĠÎł Î¿Î»
ill es
ãĥ İ
éĻ Ĳ
ç» Ħ
Ġå ¿
áĥ£áĥł áĥĲáĥĵ
Ī à¹īà¸²à¸
ĠÐ¿ Ð¾ÑĢ
Ø§Ùħ ÙĦ
Ġà®ªà®¾à®° à¯įà®¤à¯įà®¤
Īà¸ ³à¸
Ð°ÑİÑĤ ÑģÑı
à¸£à¸µà¸ ¢à¸
Ġf ir
Ġa Ã§
ĠáĥĲáĥĵáĥĴ áĥĺáĥļ
Ġà°ªà±įà°° à°¤
ĠÑĢ ÐµÑĪ
Ġ\ "
Ġw i
à±Īà°¨ à°¾
à¤¿à¤ ·
ĠáĥĴáĥĲáĥľ áĥĽ
Ġà¤ķ à¤Ī
à®¿à® ¸
i or
ov an
ÛĮÙħ Øª
Ġv a
ll t
ĠÂ °
Ġà°® à°Ĥà°ļ
Õ ¢
b ÉĻr
ĠØ® Ø¨Ø±
ĠØ¯ Ø§Ø¯
Ġa voir
al ne
Ġy an
Ã¥ r
ĠëĤ ´
áº¡ t
ĠÙĩ ÙĪ
Ġcon o
ãĢ ħ
Ġs olo
Ġ×ĳ ×¨
le p
Ġk ad
il li
Ġà®ªà¯ĭ à®²
Ġà¤Ĩ à¤µ
ëĤ ´
Ġp em
ow i
Ġà°ķ à°¥
ĠD a
à±Ĩà°² à±įà°²
Ã© tÃ©
Ġdey il
ĠF re
ãģĪ ãģ¦
ê¸ ī
Ġp uj
vÄĽ t
Ġà¦¬ à¦¾à§ľ
ĠáĥĽ áĥľáĥĺáĥ¨áĥķáĥľáĥĶáĥļ
·à¹Ī à¸Ļ
Ġà®ĩ à®±
è® °
o t
Øª Ùĩ
ĠÏĮ Î»
Ġà¦Ĺ à¦¤
ĠÂ» ,
à°¾à°¨ à°Ĥ
áĥĲáĥľ áĥĲ
Ġ ä¸Ń
à¥įà¤¯ à¤¾à¤¤
ÑĢÐ° ÑĦ
Ġà° Ĺà°¾
ÎŃ Ïĩ
Ġch i
áĥĲáĥľ áĥĺáĥĲ
ĠÏĩ ÏģÎ·
ĠÐ²Ñĭ Ð¿
ĠÃ ľ
éķ ·
¹ à¹Īà¸
Î¹ÎºÏĮ ÏĤ
æł ¼
ÑĢ Ð°Ñģ
is z
áĥł áĥĿáĥĳ
· à¹īà¸Ļà¸
Î² Î¿Î»
ĠØ®ÙĪ Ø§Ùĩ
Ð½Ð¸Ðº Ð¾Ð²
ti m
Ĭà¸ ·à¹Īà¸Ńà¸
Î® Î¼Îµ
Ġà¤Ĩ à¤¦
¥ ¼
ĠagåĽ½éĻħ äºļæ¸¸
ä½ ł
å± ±
áĥĲáĥ¡ áĥĹáĥĲáĥľ
à¹Ģ à¸Ń
ĠÐ°Ð² ÑĤÐ¾Ð¼
à®¿à®°à¯ģà®¨à¯įà®¤ à¯ģ
Ġà¦īà¦ª à¦ľ
Ķà¸ ±à¸ļ
Ð½ Ð°Ðº
Ġà¸ª à¸´
ÙĪ Ø³
à· ĥ
Ġáĥ¨ áĥĶáĥķ
Ġà°²à±ĩà°¦ à±ģ
ĠÐ¿ÑĢ Ð¸Ð¼
Ġà¤® à¥Ī
Ġà¦¨ à¦¿à§Ł
×ľ ×Ļ
Ġà°ķ à°¾à°µ
áĥł áĥĲáĥ¤
am ento
h y
Ġk ull
dzie j
Ġt ÉĻd
ĠÃ© g
im o
à¥ĩ à¤¦
à°ķ à°°
uy á»ĩ
Ġà¦¸ à§ĩ
Ġdu e
Ã¶ glich
Ġ Å¼
ãģ« ãģ¤
Ġis tifadÉĻ
ĠC ar
Ġf un
à¶ ļ
Ġu09 3
la v
Ġà¦ªà§įà¦°à¦ķ à¦¾à¦¶
ĠÙĪØ§ÙĦ Ùħ
t ÃŃ
Ġata u
ë¬ ¼
Ġà¦¤ à¦¾à¦ģ
Ġk m
à¥Ģ à¤°
ĠØ´ ÙĩØ±
Ġt iáº¿
ĠN ous
à°¿à° ³
×ķ×ł ×Ķ
Ġà°¨à°¿à°° à±įà°®
ol u
ĠãĤ ¯
à®Ł à¯ģà®ķà¯įà®ķ
el d
C J
dz iaÅĤ
Ġtr ans
Ġà§© à§
Ġáĥ©áĥĶáĥĽ áĥĺ
à¸µà¸ ģ
ÙĤ ÙĦ
88 8
i gen
ãĥ¼ãĤ º
Î³ Ïĩ
Ġà¦ĩ à¦¸à¦²
ĠÎ¬ Î½
à±ģà°ķ à±ģà°¨à°¿
Ġáĥ© áĥĲáĥĽ
Ġ2 22
å·¥ ä½ľ
ÑĥÑĢ Ñģ
Ġà°µà°¿à°· à°¯
ÏĢ ÎŃ
Ġà®® à®¤
ĠáĥĵáĥĲáĥ £áĥ
ĠÏĢ ÏģÎ±Î³
Ñĭ ÑĤ
y on
is ti
· à¸Ńà¸Ļ
ÏĥÎ¹ Î¼Î¿
å ²
Ð»Ð¸ Ð²
ì ¸
áĥĶáĥł áĥĶáĥ¡
¥à¸ ±à¸ĩà¸
ĠÎ¾ Îµ
ĠØ´ Ùĩ
ĠÐ² Ð¾Ð´
ĠU ne
à¹Ģà¸£ à¸²
ĠÎ£ ÏħÎ½
Ġà¤¸ à¤¿à¤Ĥ
Ġãĥ ¡
Ġï¼ Ľ
Ġå ¼
ç ĸ
¬ áĥĽ
¨ à¸²à¸
ĠÐ¢ Ð°Ðº
ĠC as
à§ģ à¦Ł
à¸£ à¹Īà¸§à¸
Ð ¤
¢à¸ ¸à¸
ĠA d
à¤°à¥įà¤ £
áĥ¦ áĥķ
à°°à±įà°µ à°¾à°¤
ĠÐ¾ÑĢÐ³Ð°Ð½ Ð¸Ð·
à¥ī à¤²
à¦°à§įà¦ ķ
ov Ã½
à°Ĥà°Ĺ à°¾à°£
ĠáĥĵáĥĲáĥ ĳ
ost ÄĻp
ĠÙĨ Ø´
à®¿à®¯ à®²à¯į
Ġh asta
ib ile
Ġíĺ Ħ
Ġd ÄĽ
ç ¢
à°¤ à±įà°°
Ġh azÄ±r
×ķ× Ķ
Ġd ou
ll er
à®¿à®ķà¯įà®ķ à¯ģà®®à¯į
wiÄħ z
Ġm es
Ġà¦¶ à§ĩà¦·
Ø¦ ÙĬØ³
à¥įà¤ ļ
áº© m
Ġ ÅĻe
à¤ķ à¥ĭà¤Ĥ
ĠS te
ï ¾
æ ®
Ġx ÉĻbÉĻr
ĠØ¬ Ø¯ÛĮØ¯
ri que
Ġv ia
Ġà¦ķ à¦¿
ĠØ³ ÙĬ
wia d
à±ĭ à°ª
à¦¬ à§ĩà¦¨
à°¾à°Ĥà° ķ
íĻĶ ìĿ´íĬ¸
íĶĦ íĻĶìĿ´íĬ¸
Ġë°Ķ ì¹´ëĿ¼
ìĨ į
á»ģ n
à¯įà®ļ à¯įà®ļ
h ne
ãĥª ãĥ¼
ĠáĥłáĥĲáĥĽáĥĵ áĥĶáĥľ
à¸£à¸¹ à¹īà¸
ĠÆıliy ev
æĬĢ å·§
Õ¡Õ Ń
ĠmÉĻlum at
ĠÎļ Î±Î¹
ĠÙģ ÛĮÙĦ
ĠÎ´Ïį Î¿
Ġà°® à°§à±įà°¯
áĥķ áĥļáĥĺáĥ¡
è ±
7 8
ĠÐľ Ð¾ÑģÐº
à¥įà¤ ¬
Ġï¿½ï¿½ï¿½ï¿½ ï¿½
×© ×Ķ
Ġáĥ Ł
ĠÎ±Ïħ ÏĦÎ¿
Ð» ÐµÐ¼
ins i
Ùħ ÛĮÙĨ
ĵ à¹Į
ĠÎ£ Îµ
æĥ ³
ĠÑģ ÐµÐ±
Ġà¦Ĩ à¦¦
áĥĿ áĥĲ
à¸Ļà¹īà¸ ³à¸
ĠÎ¼ÎŃ ÏĥÎ±
sk Ã¡
Ð¾Ð· Ð´
Ġà°¤à±Ĩà°² à°Ĥà°Ĺà°¾à°£
Ġà¸ªà¸ ¹à¸
ÏģÎ¯ ÏĤ
l ie
Ġà¦¨à¦¿à¦°à§įà¦¬ à¦¾à¦ļ
æİ ¨
ä» Ģ
æ »
ĠáĥĲáĥ ŀ
à¹Ģà¸£ à¹ĩà¸
Ð¾Ð¿ÑĢ Ð¾Ñģ
Ġf ÉĻ
skie j
à¹ĥà¸Ļà¸ ģà¸²à¸£à¸
ĠÐ´ ÐµÐ½ÑĮ
à¸²à¸£ à¹Įà¸
u le
Ġí ĽĦ
Ġáĥ©áĥķáĥĶáĥľ áĥĺ
à±ģà°Ł à±įà°Ł
ĠÐ¼ Ð°Ð³
Ġà¦¸ à¦ķ
Ġà®¤ à¯ĩà®°
Ġit u
Ġà°¤ à°¿à°°
Ġáĥ£áĥĻ áĥķáĥĶ
Ġ2 3
à¤¾à¤ ī
ÃŃ n
Ø§ÙĦ ÙĬ
Ġla vo
à¦¾à¦ ł
Ġk al
à®µ à®°à¯įà®ķà®³à¯į
Ġf at
un da
Ġp owie
l Ã¤
h u
é »Ħ
à¥ĩ à¤®
ĠÃ© le
à¦ ĥ
j o
Ġà®ªà¯Ĩ à®°
Ġà°® à±Ĩ
t ta
ĠÚ©ÙĨ ÛĮØ¯
Ġ0 1
¶ Į
×ķ× ŀ×
k ar
il idad
å¼ ķ
Ã¡ r
Ġà¦¬à¦¿à¦ ¦
Ġbe au
Ġwie der
à°¦ à±ĩà°¶
Ġà¦¬à¦Ľ à¦°
Ġna ar
ç« ĭ
im ento
Ġs áº£n
ì ¤ĳ
r Ã¤
il s
Äħ Å¼
ĠÙĬ Ø¹
ĠáĥĻáĥĺáĥĵ áĥĶáĥķ
ĸà¸¶à¸ ĩ
Ġolar aq
çĻ ¾
ĠRes pub
Ã¼ c
ĠÏħ ÏĢÏĮ
Ġà°µ à°¿à°¨
Îķ ÎĻ
ĠV ideos
áĥĶáĥĳáĥĺáĥ¡ áĥĲ
éĴ ±
Ġéĩ į
Ð½Ð¸Ðº Ð¸
an as
Ïģ ÎµÏħ
à¤µ à¤¨
Ġáĥ¡ áĥ£áĥļ
Î» Ïİ
ÑħÐ¾Ð´ Ð¸Ð¼
Ġv l
Ġb on
Ġà¹Ĥà¸Ķà¸ ¢à¸
ÏĦÎ¿Ïħ ÏģÎ³
å¤ Ħ
ĠÑĢÐ°Ð· Ð²
Ġà§ ¬
áĥĶáĥł áĥĲ
Ġ à¸£à¸µà¸§à¸´à¸
Ïĥ Î¯
Ġes p
ÑĮ Ñİ
Ġà°¬ à±įà°°
ķ à¹Įà¸
Î¿Ïħ ÏģÎ³
at er
Ġà¦ª à§Ĥ
åŀ ĭ
åı¯ ä»¥
è´ ¨
áĥĺáĥľ áĥĴ
Ħà¸ ¥à¸
ĠÐĿ Ð¾
åģ ·
Ġà´ ®
à¸Ń à¸Ńà¸ģà¸
Ð¾Ð² Ð°ÑĤÑĮ
ľà¸ ¥à¸´à¸
ĠâĢ ĭ
Ġt Ã´i
áĥĲáĥ¢ áĥĺ
ĠW ar
ĠÐ¿ Ð¾Ð½
Ġì ¶
ĠrÃ³w nieÅ¼
iv re
ÛĮ Ø§
Ġáĥ¡áĥĲáĥĻ áĥ£áĥĹ
os a
Ġà¤¶ à¥ģà¤°
st vÃŃ
ĠN am
Ġ×Ķ ×Ķ
Ġà¦Ł à§įà¦°
to ire
Ġà®® à®±
ìĻ ¸
Ġb Ã¼tÃ¼n
Ġh ier
Ġpri ma
ĠC z
ÙĪ Ø¬
ê° ģ
u en
à¤¾à¤ ¥
á»Ļ c
ãĥ ı
Ġse g
à¯ģà®¤ à¯į
b ur
Ġs it
Ġu Å¼y
Ġà¦ıà¦® à¦¨
à¤¡à¤¼ à¤¾
à°Ĥà°Ł à°¿
Ġsch on
k om
à¯įà®¸ à¯į
Ġs Ã¶z
nÃŃ m
ÙĨ Ø§ÙħÙĩ
ie ux
ÙĪØ± Ø©
ãģĦ ãģĦ
ĠS i
ì µľ
ãģ« ãĤĤ
Ġ×ŀ× §
à°¿à°² à±į
Ġë Ĭ
Õ¥ÖĢÕ ¨
ĠáĥĲáĥ ĸ
´ à¸Ļ
Ġ Õ¡Õ¶
ä½ ķ
Ġs ÉĻn
Ġwur de
Ġá¼ Ģ
ĠØ¨ Ø§ÛĮØ¯
ĠÏĩ Ïİ
ka z
áĥĲáĥ¡ áĥ£áĥ®
áŀ ¶
æģ ¯
ĠÐŁ Ð¾Ð´
Ġà¦ħà¦Ń à¦¿à¦
ĠÎ» ÏĮÎ³
Ġè ī
áĥĲáĥļ áĥĲáĥ¥
ĠÎ¼ÎµÎ³ Î¬
Ð¾ÑĢ Ð¾ÑĪ
Õ¸ Õ¶
Ġ Õ¡Õµ
«à¸ ¡
ĠÎµÎ¯ ÏĩÎµ
å¸ ĥ
ĠÐ· Ð´
Ġà°² à±ĩà°ķ
Ġáĥ« áĥĲáĥļ
ªà¸ ĸ
ĠÏĩ ÏģÎ®
Ġen v
ĠÐ¿ÑĢ Ð¸Ð²
Ø¯ Ø±
Ľ à¸µ
Ïĥ ÏĦÏĮ
à®ķ à®°
Ġpro duc
1 3
ä¸ ¤
Ġ æľī
ĠáĥĽ áĥĺáĥľ
ļ à¹īà¸²à¸Ļ
ĠÑĢ ÐµÐ·
à´ µ
é¦Ļ èķī
¢à¸ ±à¸ĩà¸
Ð½ ÐµÑĤ
Ķà¸ ±à¸ļà¸
åľ¨çº¿ è§Ĩé¢ĳ
Ã ľ
áĥ¡ áĥĲáĥª
ĠÃ¶ n
ĠÐ±Ñĭ Ð»Ð¾
k em
ty w
Ġne ces
Ġà¦ķà§ĭà¦¨ à§ĭ
Ġáĥĵ áĥĶáĥĵ
il itÃł
ï¼ ¿
Ġà°¦ à±Ģ
í Ĺ
sk Ã½
à¦¬ à§įà¦¯
Ì Ģ
Ġx u
Ġ×ľ ×ĳ
ĠÅŁ ÉĻx
O W
Ġ raz
ch es
ãĤ ½
b ut
it as
Ġà¤Ł à¥įà¤°
Ġk l
Ġà¦¬ à¦¾à¦¸
Ġà°ĩ à°ļà±įà°ļ
Ġb us
ess i
Ġcu al
Ø« Ø±
ãģ£ãģ¦ ãģĦãĤĭ
Ġà¤¹à¥ĭ à¤Ĺà¤¾
à°¾à°³ à±įà°³
à¯Ĩ à®²à¯įà®²
Ġpo t
à°¾à°² à°ķà±ģ
ð Ł
à¦¾à¦² à§ĩà¦°
Ġà®ªà¯Ĩ à®±à¯įà®±
Ġen s
ĠãĤ ¨
ëŀ Į
Ġ×Ķ× ĵ
on i
u al
ÛĮ Ø³
or um
Ã Ĵ
Ġq ay
ĠáĥĵáĥĲáĥ Ĵ
à¹Ģà¸ģà¸ ´à¸
Ġqu r
é¢ Ħ
Ġch ÃŃnh
os e
Î¿Î½ ÏĦÎ±ÏĤ
Ġà¦¬ à§ĥ
ĠÏĢ Î¬
p rav
ĠáĥĴáĥĲáĥľ áĥª
ä¾ Ľ
è º«
ÑĢ ÐµÐ´
Ġà°µà°¿à°¦ à±įà°¯
ÏĦÎ¿ Î¹
åł Ĥ
áĥ®áĥķ áĥĲ
ÏĥÏĦÎ± ÏĥÎ·
Ð¼ ÐµÐ½ÑĤ
Ġà®ħ à®£
Ã© g
¢ à¹Įà¸
ĠÏĮ Î¼ÏīÏĤ
6 8
ĠÐ¼ Ð½
Ġp ierw
áĥ¢ áĥł
Ŀ à¸
Î¯Î½ Î·
al Ä±ÅŁ
ĠÐ²Ð¾Ð· Ð¼Ð¾Ð¶
ur as
à¹ģà¸ «
ÏģÎ¿ ÏįÎ½
ĠW e
ĠÛ² Û
Ġå Ĩ
æĪ ĸ
æ Ł¥
ĠáĥĽ áĥĶáĥł
à¹Ģà¸ ĩà¸´à¸Ļ
ĠÑĩÐµÐ»Ð¾Ð² ÐµÐº
à´ ²
Ġà¤ªà¥ģà¤² à¤¿à¤¸
ļà¸²à¸Ħà¸²à¸£ à¹Īà¸²
ÑİÑĤ ÑģÑı
ľ à¹Īà¸²à¸Ļà¸
à¤¿à¤ Ĺ
ØªØ± ÛĮÙĨ
Ġáĥĳ áĥĶáĥķ
Ġà¦¦ à§ĩà§Ł
ĠÑģÐ» ÑĥÑĩ
Ġb Ã¶yÃ¼k
Ġh an
Ġj i
Ġà°¤ à°°à±įà°µà°¾à°¤
áĥłáĥ ª
aliz za
Ġà¤® à¤¾à¤¨
ÙĪÙĦ Ø©
à¦Ľ à§ĩà¦¨
ĠrÃ© s
Ġna d
à±ĩà° ¦à°¿
Ġso ll
Ġà¦¶ à§įà¦°
Ġh er
Ġd ir
à®¾à®£ à¯įà®Ł
áº¥ n
à¦°à§įà¦ ·
×¨ ×ª
å¤ ī
Ġà¤¹à¥ģà¤ Ī
lÉĻr ÉĻ
ĠÙħ ÙĪØ±Ø¯
Ġa prÃ¨s
z zo
ta do
p ra
ì¶Ķ ì²ľ
ëĬ ¥
åį ¡
ãĥ ļ
à¦ ģ
u jÄħ
Ġf uer
à°ª à±įà°°
ĠÙĦ Øª
ĠØ´ Ø±Ú©Øª
v r
Ġà°İà°¨à±įà°¨ à°¿à°ķ
Ġques ta
Ġ×ľ ×Ĺ
e ft
à¯Īà®ļ à¯į
Õ¡Õ º
s a
ı ¾
ĠSain t
áĥľ áĥĺáĥ¨áĥľ
Ġà¸ª à¸²à¸
Ġdon c
æ° Ķ
Ġà°ħ à°®
ĠZ eit
ĠÎķÎ»Î»Î¬ Î´Î±
áº« n
ĠÎ¼ Î¹Îº
¤ Ģ
ĠáĥĽáĥĺáĥ ¦
å· ²
è§Ĩ è®¯
ĠÐ° ÑĢ
Ġà¦¦ à§ģà¦ĩ
ĠÎ³ Îµ
à´¿à´ ¯
Ġáĥ¨ áĥĶáĥĴ
Ïĥ Î¯Î±ÏĤ
ĠÐķ ÑģÐ»Ð¸
Ø´Øª Ùĩ
it er
à¹ģà¸ Ĺ
Ïĩ Î·
Ġç İ
ĠÐ±Ñĭ ÑĤÑĮ
à±ģà°¤ à±Ĥ
ĠáĥĴ áĥĸ
§à¸±à¸Ļà¸ Ĺà¸µà¹Ī
Î¸ Ïħ
à¦¾à¦¨ à§ĭ
ĠÐĴ Ñģ
ce k
à¸Ļà¸± à¹īà¸Ļà¸
Î¾ Î·ÏĤ
li g
ÙĬ Ø«
Ġà¤ Ŀ
à¤¾à¤Ĥ à¤¨à¥Ģ
è½¯ ä»¶
áĥĶáĥĹ áĥĲ
à¸Ļà¸ ³
ĠÐº Ð²
à¤¿à¤ §
å ©
¸ à¸Ļ
ĠÐ²Ñĭ Ñģ
·à¸Ń à¸Ļà¸
à¤°à¥įà¤ ¥
ku d
áĥĶáĥĳáĥļ áĥĲáĥĵ
Ġo y
Ð¾Ð² Ð°
Ġà°¤ à±Ĭ
ci p
ĠØ¨Ø§ Ø´
ÅĤ at
ª áĥ®
Ġà®ħ à®¤à¯ģ
åŃ Ĺ
Ġí İ
Ġà°°à±Ĩ à°Ĥà°¡à±ģ
Ġà¦Ĩà¦Ĺ à§ĩ
ĠU m
Ġt en
Ġ×Ĵ ×Ŀ
à°°à±įà° ķ
ĠÂ ¹
Ġhá» £p
Ġb ilm
Ġdon de
g r
à¦¾à¦§ à§įà¦¯à¦®
à®¾à®¤ à¯įà®¤
Ġà¤ļ à¥ģà¤¨
é£ Ł
ĠÙĪ Ø¨
Äħ d
Ġêµ Ĳ
Ġ ÉĻv
Ġen core
z n
p en
Ġà´ ¨
à¯įà®ķ à®¿à®±
æĽ ¸
Ġ uy
à§ģ à¦¦
à± ĸ
ĠØ± Ø§Ùĩ
ÙĤ Ø±
à®² à®®à¯į
à°¿à° §
Ġë¶ Ħ
ĠW er
Ġ×Ľ ×Ļ
va it
ĠB ar
ãĥ ľ
Ġt iem
à§įà¦ §
Ġáĥ¡áĥĲáĥĸ áĥĿáĥĴ
à¹ģà¸ ķ
ĠS car
Ġå ¯
Ġab b
Ġnh Ã¢n
Îº ÏģÎ±
Ġpra w
Îķ ÎĽ
ÙĪ Ø§Øª
áĥĲáĥłáĥ ļ
åĳ Ĭ
è° ĥ
ĠÐ¾ ÑģÑĤ
re ich
Î® Î½
Ġà¤īà¤¨ à¤ķà¥ĩ
§ áĥķ
ĠÏĥÏħ Î¼Î²
ĠÐ¿ÑĢÐµÐ´ ÑģÑĤÐ°Ð²
à¯Ĩ à®©
en Ã©
ķà¹Īà¸²à¸ ĩ
ÏĨ Ïħ
æī ĵ
Ð¸Ð½ Ðµ
Ġmol to
áĥĶáĥĳ áĥĹáĥĲáĥľ
Ġ à¸Ńà¸²à¸
ÎĹ ÎĿ
à§ĭ à¦°à§įà¦
ĠÑĦ Ð¾ÑĢÐ¼
à±Ģ à°²à±ĭ
Ġ à¹ĥà¸Ļ
Î¸Îµ ÏĥÎ·
ĠÙģ Ø±ÙĪØ´
íĺ ķ
1 5
åĨ Ľ
æ² ¡
áĥĺáĥļáĥĺ áĥĲ
à¹ĩà¸ ģà¸
ĠÐ¿ Ð¾ÑģÑĤ
à¤ķà¥įà¤· à¤¾
à¤ Ľ
ªà¸²à¸¡à¸²à¸£à¸ ĸ
ĠÐ· Ð°Ð´
Ĥ à¹īà¸Ńà¸¡à¸¹à¸
à¤¡à¤¼ à¥ĩ
ĠÙĨÛĮ Ø²
áĥĺáĥ ¬
ĠÄ ±
ĠÐ±Ð¾Ð» ÐµÐµ
ĠD ies
Ġsam o
à°µ à°¿
t utas
Ġáĥ§áĥķáĥĶáĥļ áĥĲáĥ¤
ĠS an
à¥įà¤ ŀ
ÙĪ Ùģ
Ġ×¤ ×¨
Ġse x
Ġà¦ħ à¦¸
ien do
Ġp ay
ov ÄĽ
Ġqu an
ĠdÉĻ f
er w
u es
gl io
ìĶ ¨
Ġç §
Ġà¤®à¥ģà¤ ĸ
ì½ Ķ
à®¿à®µ à¯ģ
à°Ĥà°¤à±įà°° à°¿
b be
Ġl et
Ġà°®à±Ģ à°°à±ģ
Ġà¦ħà¦¨ à§įà¦¯
Ġh eÃ§
à´ ¸
Ġma ar
el b
y t
ik an
ãĤĮ ãģŁ
ĠÙ¾ Ø§ÛĮ
íĥ Ŀ
ĠØ£ Ùħ
à®±à¯įà®± à®¿
esz cze
ĠvÉĻ z
Ġ×ķ ×ŀ×
te k
A D
ì ¶
ch a
i an
áĥķ áĥĺ
Ġà¸ĭà¸ ¶à¹Īà¸ĩà¸
Ġà¦¹ à¦¾à¦ľà¦¾à¦°
Ġå¤§åıĳ æĹ¶æĹ¶å½©
Ġv om
à®¾à®µ à®¤à¯ģ
Î ¦
Ġsp e
Î¹ Î²
ĠÙĪ ÙĬ
ĠáĥĴáĥĲáĥľ áĥķáĥĺáĥĹ
Ġæ Ń
æ± Ĥ
Ñĥ Ð»Ñı
Õ¥Õ ²
Îµ Î´
æĪĲ äºº
Ġáĥ¡áĥĲáĥ¨ áĥ£áĥĲáĥļ
ĠÎĳ ÏĢÏĮ
ĠÐº Ð°ÑĩÐµÑģÑĤÐ²
c aq
in den
à¹Ĥà¸£à¸ĩà¹ģà¸£à¸ ¡
ÏĢ Î¹Ïĥ
4 5
Ð¸ Ð½Ð¾
Ġà¦ħ à¦°à§įà¦¥
Ġáĥĺáĥ¥ áĥľáĥĶáĥĳáĥĲ
Ġà¹Ģà¸§à¹ĩà¸ ļà¸
ĠÎ¹ ÏĥÏĦÎ¿
Ġëª¨ íħĶ
ĠÑģ Ð¸ÑģÑĤÐµÐ¼
Ġë ¦¬
ĵà¸ ĳ
ĠÎºÎ± Î½
ĠÚ© ÙĨØ¯
Ã Ģ
èĢ Į
å Ķ
à¨¿ à¨
Ġáĥ¡áĥĲáĥĸáĥĿáĥĴ áĥĲáĥĵáĥĿ
à¸£à¸ ´
ĠÑĢ Ðµ
à¤¿à¤ķ à¤¾
å½± éĻ¢
Ġà¸ Łà¸¸à¸ķà¸ļà¸Ńà¸¥
ĠÐ· Ð°Ð¼
à¹ģà¸¥ à¹īà¸§à¸
æĹ¥ æľ¬
ĠÂ ¡Â
áĥķ áĥĶáĥĵ
Ã Ķ
Ñı Ð´
Ã ĭ
ĠÄĳá»ĭ nh
ĠØ§ÙĦÙħ Ø³
Ġal gun
áĥĲáĥ Ł
et as
à¤¾à¤ ĸ
Ġt ÉĻk
z enÃŃ
ĠC am
ÄĻ d
ist as
Ġ×Ĳ ×ķ×ª
à®ķ à®®à¯į
íķľ ëĭ¤
t ro
Ġà¦Ł à¦¾à¦ķà¦¾
ĠA m
à¦¨à§įà¦ ¡
à±ģà°² à±įà°²à±ĭ
Ġà®ķ à®¿à®°
à¤¿ à¤Ĥà¤¦
d ou
ni ng
ĠØ§ÙĦÙħ ØŃ
Ġà°µà±įà°¯ à°ķà±įà°¤
ëį ĺ
ĠÙĤØ± Ø§Ø±
Ġà¦° à¦¹
Ġver s
à¤°à¥įà¤ ¸
ãģĭ ãģª
à¦¾à¦° à§Ģ
g ia
i p
Ġ×ķ ×ĳ
Ġs iy
Ġmo g
æ¥ ½
Ġà¦¨ à§ĩà¦ĩ
Ġjs me
Ġr ayon
Ġb elÉĻ
al o
tic os
I d
Ġre la
ìĦ ¤
Ġáĥ¨áĥĶáĥĵ áĥĶáĥĴ
ª à¸Ļ
Æ° a
åħ ī
à°¿à° ¶
Ġà¦Ĩà¦ª à¦¨à¦¾à¦°
ĠÎºÎ±Î¸ ÏİÏĤ
à¯Īà® ª
ĠÎļ Ïħ
in der
áĥĲáĥłáĥĵ áĥĲ
à¤¾à¤ł à¥Ģ
ä¸ ĸ
ĠÑģÐ» ÐµÐ´
ĠØ§Ùģ Ø²
Î®Î¼Îµ ÏģÎ±
à¤µ à¤Ĥ
áĥĶáĥĳáĥĺáĥ¡ áĥĹáĥķáĥĺáĥ¡
Î¯Î½ ÎµÏĦÎ±Î¹
ĠÐ¿ÑĢÐ¾ ÑĨ
Ġà°¸ à°¹
×ł ×ķ×ª
ªà¸ Ķ
ĠÎ» Î¯
çķ Į
Ð» Ð°Ð¹Ð½
Ø¬ ÙĪØ¯
áĥĵ áĥĺáĥ¡
Ĺà¸µà¹Īà¸ ¡à¸µà¸
ĠÎ¼ Î·Î½
Ġh om
Ð¼ Ñĭ
ëĵ¤ ìĿ´
à¹Ģà¸Ĥ à¹īà¸²à¸
ĠÏĥ Îº
ĠP ra
Ġmo Å¾
à¤¾à¤² à¤¾
åģ ļ
æĭ ¿
áĥĶáĥľ áĥĲ
anti p
Ð¾Ð² Ð¾Ð¹
Ġèī ²
Ġà¤«à¤¿à¤² à¥įà¤®
à¹ģà¸ ķà¹Īà¸
Ð¾Ð± ÑħÐ¾Ð´Ð¸Ð¼
µà¹Īà¸ ¢à¸§à¸
à¤¾à¤¤ à¤¾
Ġim mer
ĠáĥĶ áĥľ
j our
Ð°Ð¶ Ðµ
ĠZ a
à±ĥ à°·
Ġv ax
ĠU ni
áĥĵ áĥĺáĥľ
Ġgr an
à¥ĩà¤ ·
Ġà®ļ à¯Ĥ
à°¿à° ¬
ay Ä±
tic as
Ġh Æ¡n
Ùģ Ø³
Ġà¦¬à¦¿à¦Ń à¦¿à¦¨à§įà¦¨
hr en
el s
Ġ201 6
Ġod powie
à°Ĥà° Ń
Ġtak Ã©
Ġve z
à¤Ł à¥Ģ
Ġ×Ķ× ¦
en ne
Ġw ÅĤ
Ø ¡
à®¿à®ªà¯įà®ª à¯ģ
Ġà¦° à§Ł
Õ ©
a dÄ±
å¤© å¤©
cz as
Ġp u
ĠÙ¾ ÛĮ
Ġà°ħà°§ à°¿à°ķà°¾à°°
ë ¸
t et
Ġpor que
à¯Īà®ļ à¯įà®ļ
Ġju ga
Ãª te
Ġà®®à¯ģà®Ł à®¿à®¯
à°° à±įà°²
Ġà¦ī à¦¦
ici os
Õ ¹
ĠÕ Ħ
Ġm ÉĻh
áĥĲáĥľ áĥĺáĥ¡
à¸Ńà¸ ±à¸Ļà¸
ĠL o
é¡ ¹
Ú© ÙĦ
Ġà®¨ à®²à¯įà®²
ÏĩÎµ Î¯Î±
Ġë° °
ĠÏĮ ÏĦÎ±Î½
Ġv iel
áĥ¢ áĥĺ
P P
Ġç Ľ
ÑģÐº Ð¸Ñħ
ig li
Ïģ ÏīÎ½
Ġé Ŀ
áĥĸ áĥĲáĥĵ
ĠÎºÎ¬ ÏĢÎ¿
ĠÑģÑĤ Ð¾
Ġw ÅĤa
nÃŃ ho
Ĥà¸²à¸ ¢à¸
ÏĢÎ· ÏģÎµ
æĸ ¯
ĠÑĩ ÐµÐ¼
Ã´ tel
ĠáĥłáĥĿáĥĽ áĥļáĥĶáĥĳ
à¸£à¸§à¸ ¡à¸
Ïĥ ÎºÎµ
Ġà¦¬ à¦¿à¦ķ
ĠÐ¿ÑĢÐ¾Ð¸Ð· Ð²Ð¾Ð´
à®£ à®®à¯į
Ġà¸ «à¸£à¸·à¸Ń
ĠÎµ Î³
ĠØ§ÙĦ Ùĩ
Ġge Ã§
Ġ ą
åĮ Ĺäº¬
èĤ ¡
Ġáĥł áĥĶáĥĴ
à¹ģ à¸Ńà¸
ĠÑĥ Ð²
à¥įà¤Ł à¥Ģ
Ġà¤¸à¤¿à¤Ĥ à¤¹
Ġà¸§ à¸´à¹Ģà¸Ħà¸£à¸²à¸°à¸«
ĠÐ¾ Ð½Ð¸
Ġà¸ Ĥà¸
ç¦ ı
Ġu l
Ġáĥª áĥĶáĥľáĥ¢
Ġà°ķà±Ĭ à°¤à±įà°¤
ÐµÑģ Ð¿
×ķ× ĸ
Ġph o
Ġe v
Ġj ue
áĥĲáĥł áĥĿ
n os
à¤ķ à¤¾à¤°à¥Ģ
à§ĩà§Ł à§ĩ
ei d
è «
Ġà°ħà°¨ à±ĩ
p res
ë° ľ
Ġà®ªà¯Ĭ à®°
Ġs inh
Ġcon c
cze g
ĠÙĤ ÛĮÙħØª
Ġà¦ķà¦° à§ĩà¦Ľà§ĩ
ÙĤ Ùĩ
ki ÅŁ
à¤¡à¤¼ à¥Ģ
Ġo Ã¹
Ġà°ı à°®
Ġ} .
ãĥ ¤
ar beit
Ġc aÅĤ
ĠtÉĻÅŁ kil
Ġd ÃŃ
à¤¾à¤² à¤¯
Ġc ada
Ġad alah
×ŀ ×ķ
Ã¤ ch
Ġà°ª à±ĩ
Ġë ĺ
ãģķãĤĮ ãģ¦
à§ģà¦· à§įà¦ł
áº£ ng
ĠÙĬ Øª
nÃ© ho
Ġpr osti
y w
c as
ou l
pp o
à°¾à°µ à±ģ
áĥ£áĥ Ļ
à¹ĥ à¸Ļà¹Ģà¸
Ġà°ķ à°¾à°¦à±ģ
Ć ć
Ġentre pr
im mer
ĠÎĶÎ· Î¼Î¿
Ġà¦¨ à¦¤
Î¶ Î¯
k er
Ġáĥĵ áĥłáĥĿ
åį İ
æŃ ¤
ÑĤ Ðµ
Ġà®¤ à®µ
ĠÎ³ Î½Ïī
à¥ĥ à¤¤
ĠáĥĻ áĥł
ĠÎ± ÏĨ
Ð¿ÑĢ ÐµÐ´
ÛĮ Ùģ
Õ¡Õ ¼
à¸Ńà¸ ¸à¸
Î³ Î·
åıĳ å±ķ
Ð Ĺ
ay an
áĥĺáĥ Ń
ª à¸Ļà¸
Ġ Ïİ
Ġcont ra
ÐµÐ½ Ð½ÑĭÑħ
Ġje go
± à¹Īà¸ĩà¸
ĠÎ¿ Î¼Î¬
Ġà°ļà±Ĥà° ¸
l au
Ġag æĹĹèĪ°åİħ
èģ Į
åĪ Ľ
áĥĺáĥľ áĥĺáĥ¡
Ġà¹ģà¸Īà¸ ģ
Ð°Ð½ Ñģ
à¤¨ à¤²
Ġà¤® à¤¾à¤°
à¸Ńà¸ ±à¸
ÐµÑĤ Ñĭ
ķà¸ ±à¹īà¸ĩ
à¥įà¤² à¥Ģ
Ġf ois
Ġáĥ¡áĥĲáĥ¥áĥĲáĥłáĥĹáĥķáĥĶáĥļ áĥĿáĥ¨áĥĺ
m bre
Ð¸Ñı ÑĤ
Ġb Ã½
Ġà§ Ń
ĠIt alia
à°°à±įà° Ĺ
Ġáĥĺ áĥª
ĠÙĨ Ø§Ùħ
Ġà¤ķà¤° à¤¤à¤¾
à§ĭ à¦ļ
à®³ à¯įà®µ
Ġm Ã¶v
T O
Ġsu lla
à¦ĵ à§Ł
f orm
×© ×Ļ×Ŀ
owan y
Ġà°®à±ģà° ĸà±įà°¯
ĠØ¨ Ø¹
Ġëħ ¸
Ġà¦¬à¦¿à¦ ľ
çĶ °
à¥įà¤° à¥ĩà¤¸
åł´ åĲĪ
el n
à®µ à¯įà®µ
c en
r it
wa Å¼
ë£ Į
à°¿à°ķ à±į
Ġà¤ķ à¥įà¤°
el i
Ã ĸ
ĠÂ £Â¬
ĠV iá»ĩt
Ãª m
Ġà¦ĩà¦¸à¦² à¦¾à¦®
ĠfÉĻ al
à§İ à¦¸
ìŀħ ëĭĪëĭ¤
ĠØ§Ùħ Ø§
Ġau tre
Ġà®ĩà®²à¯įà®² à¯Ī
Ġol ub
T A
Ġsem pre
ĠÃ§ alÄ±ÅŁ
Ġw aar
áĥ£áĥ ª
Ķ à¹īà¸²à¸Ļà¸
un to
å¤ ´
p x
ãģ£ ãģ¨
ĠÎ£ Î¥
à¦° à¦¿
Î´ Î±ÏĤ
Ùĥ Ø§ÙĨ
áĥĺáĥ£áĥ ļ
ä¸ ĵ
é£ İ
Ñı Ð±
Ġà®¨ à¯ĭ
ĠÎĳ ÏĢ
à¤¿à¤² à¤¾
Ġáĥ¡ áĥĺáĥ¢
Î³Î³ ÎµÎ»
ĠÐĲ Ð½
ĠÄ° s
ĠÄĳá» ģ
Ġà¸ªà¸ ³à¸«
ÏĦ ÎµÎ¹
à¥ĩà¤ ļ
ÑģÑĤ ÑĢÑĥ
Ġtiem po
ĠáĥĲáĥĽ áĥĺáĥ¡
Ġà¹Ģà¸¥ à¹Īà¸Ļà¸
Î¾ ÎµÎ¹
ĠãĤ Ĵ
ĠÐ¸Ð¼ Ðµ
à±ģà° ·
§à¹ĩà¸ ļ
ĠÎ½ Îµ
p raw
ich er
20 20
å¢ ŀ
ä»Ģ ä¹Ī
áĥķ áĥĺáĥĵ
à¹Ģ à¸Ńà¸ĩ
ĠÑģ Ð´ÐµÐ»
áĢ º
à¤ı à¤¸
à¹Ī à¸Ńà¸
Ð¾Ð½ Ð¾Ð¼
à¹Ĩ à¸
à¥ĩà¤ ¬
Ġa Å¾
áĥ£áĥļ áĥĲáĥĵ
iyy ÉĻti
ĠÐ¿ÑĢ Ð¾ÑĤ
Ġch am
à°¾à°² à±įà°¸
ÅĽ l
Ġsta to
áĥĶáĥł áĥĺáĥ¡
eit e
Ġà´ ħ
ic ation
Ġ×Ķ× ĸ
ãĥĨ ãĤ£
Ø± Ø§ÛĮ
Ġon line
ar ge
à°Ł à°Ĥ
ar on
Ġk ur
le m
Ġà® Ī
Ġà¦¨à¦¤ à§ģà¦¨
re i
ĠE x
à¤¾à¤ ¡
Ġ0 6
Ġq eyd
Ġ×ĳ ×Ĺ
Ġà°Ĵ à°ķà±įà°ķ
Ġnom bre
è» Ĭ
c Ã³w
à¦¦ à¦¿
Ġà¤ħ à¤µ
ĠØªÙĪ Ø³
à°² à±įâĢĮ
at Ä±
Ġà°µà±įà°¯ à°µ
à¯įà®¤ à®¾à®©à¯į
Ġik ke
ess a
Ġuns er
ĠÙĬ Ùħ
Ġà®ª à¯Ĥ
ĠÅŁ ÉĻhÉĻr
ĠI m
ĠìŀĪ ìĬµëĭĪëĭ¤
Ġk il
Ġc ao
è² ·
Ġà°° à°¾à°®
Ġáĥŀáĥĺáĥłáĥķ áĥĶáĥļáĥĺ
à¸£à¸²à¸ Ĭà¸
ãģĿ ãģĨ
ç Ł
Äį e
tiv i
Î´ ÎµÎ¹
ĠØ¢ Ø¨
Ïĥ Î¿ÏħÎ¼Îµ
Ġà¦ªà¦° à¦¿à¦ļ
ĠáĥĹáĥĲáĥľ áĥĲáĥĽ
æ Ĥ
Ġ0 4
ÑĢÑĥ Ð·
Ġl ie
ĠÎ² Î±
Ġà¤ħ à¤ļà¥įà¤Ľ
® áĥĶáĥĵ
ĠÏĦ ÏģÏĮ
ĠÐ¿ Ð¾Ð¿
bi h
×Ļ× Ĵ
Ķ à¹Į
ĠÎ±Î½ ÏĦÎ¯
è¿ ĳ
Ð· ÑĭÐ²
m al
áĥĺ áĥĶáĥłáĥĹ
Ľà¹ĩ à¸Ļà¹Ģà¸
Î¯Î¶ ÎµÎ¹
Ġdal Å¡ÃŃ
Ð°ÑĢ Ð¸
Ġà°µ à°¾à°Ł
Ĥ à¹īà¸²
ĠÏĩÏģÏĮ Î½Î¹Î±
Ã µ
à¯ģà®Ł à¯Īà®¯
à¤ļ à¥įà¤¯à¤¾
Ġæĺ ¯
Ġç ľ
áĥĺáĥ¢ áĥĿáĥĽ
©à¸ ±à¸
Ð¾Ñģ Ð¾Ð±
à¤¾à¤² à¥Ģ
à¥ĩ à¤¹
«à¸ §à¸
Ġâ Ħ
à¹Ģ à¸Ļ
à¤¿à¤ ¹
Ġm ÉĻq
ĠáĥĹ áĥĺáĥĹ
ĠP os
ĠÐ¿Ð¾Ñģ Ð»Ðµ
Ġm at
à¦¾à¦¨ à¦¿
w et
à°¾à°¬ à°¾à°¦
Ġáĥľ áĥĲáĥĻ
ab a
Ġå¤© å¤©
Ġm Ã¬nh
d t
ĠØ¨ ÛĮÙĨ
Ġà®ªà¯Ĩ à®£
à®Ł à®¿à®¯
Ġb as
à±įà°² à°¾à°¡
Ġà¦¹ à¦¤à§ĩ
Ġn Ã¡s
Ġjedn ak
ĠRespub lik
czne j
Ġ×ķ ×ľ
ĠR us
à´ £
ĠÙģ Ùī
ÙĨ Ø³
em e
à°° à±įà°¯
ĠtÉĻrÉĻf indÉĻn
Ġkh o
Ġè ĩ
v at
à¥ĭ à¤§
Ġà®ªà¯ĭ à®Łà¯įà®Ł
c tor
Ġtut to
ĠÃ§ a
Ġg Ã©nÃ©
Ġm nie
Ġà°ľ à°Ĺ
Ġà°µà°¿à° ¡
à¦¦ à¦¿à¦¨
Ã¤ ng
Ġwy kon
Ġres p
Ġà¦¬ à¦¾à¦°
à¯ģà® ¨
Ġgi bi
Ġ ÅĻÃŃ
ĠÃ§ ÉĻk
áĥł áĥĶáĥĳáĥĺ
à¹īà¸ ¡à¸
Ġwy b
åĬ ŀ
ĠÙģÛĮÙĦ Ùħ
ãĥĥ ãĥī
ĠÎ´ ÏħÎ½Î±
Ġà°µ à±ĩà°
Î Ĵ
Ġre g
áĥĲáĥļ áĥ®
ĠèĢ Į
ç« ŀ
ĠÐ¸ ÑģÑĤ
Ø±Ùĥ Ø©
Î¼Î¹ Î¿ÏħÏģÎ³
Ġà¤ĺ à¤°
áĥĶáĥļ áĥĺáĥ¡
Ïħ Ïĩ
Ð°Ð½ Ð°
Ġà®¨ à®¿à®©
Ġë Ĩ
Ĭ à¸Ļà¸
Îº Î¿Ïį
Ġ ä¸ŃåĽ½
ĠÐ½Ðµ Ð¾Ð±ÑħÐ¾Ð´Ð¸Ð¼
ÙĨ Ø¬
áĥ£áĥļ áĥ¢
à¸²à¸ ģà¸
ĠÎ¬ Î»Î»
Ġ×ľ ×§
ĠÑĤ Ð¾Ð¼
à§ģ à¦¤
¢à¸ ±à¸ĩ
ÎµÎ¹ ÏĦÎ¿ÏħÏģÎ³
ÉĻn i
Ġgra tu
Ġh g
æĮ ĩ
éĢ ł
ĠáĥĴáĥĲáĥĽ áĥĿáĥª
Ĭ à¸´à¸
ĠÑĤ ÐµÑĢ
ĠNe ws
à¤Ĥà¤¤ à¥įà¤°
à¸Ńà¸Ńà¸Ļà¹Ħà¸¥ à¸Ļà¹Įà¸
ĠÐ° Ðº
à¹Ī à¸Ń
à¤ Ŀ
à¯Īà®¯ à®¾à®©
áĥł áĥĲáĥĵ
ĠrÃ© g
ĠÐłÐ¾ÑģÑģ Ð¸Ð¸
Ġa f
Ġj in
Øª ÙĪØ§ÙĨ
ìł Ĳ
Ġáĥ£áĥ ¡
ia da
Ġà¤¬ à¤ļà¥įà¤ļ
ĠM a
ĠÕ ©
ĠÖ ĩ
ac ak
Ġà¦® à¦¾à¦¸
à°ķà±įà° ¸
Ġlo ro
m as
åĳ ³
×ķ× ļ
kiÅŁ af
ĠØ¬ Ùħ
Ì £
Ġngh iá»ĩ
à¬ ¾
Ġse Ã§
Ġgi bt
i Äĩ
Ġà°ªà±įà°° à°¤à±įà°¯
Ġãģĵ ãĤĮ
à¦¾à¦ ·à§įà¦Ł
ĠíĮ Į
Ġs ÉĻr
Ġà¤Ĩ à¤¯
d Äħ
Ġcom ment
ĠvÅ¡e ch
à®¾à® ¨
Ġg ener
Ġpas s
ĠØ§ÙĦØª Ø¹
Ġà®ī à®²à®ķ
á»¥ c
Ġà°§ à°°
Ġan der
Y W
k ÅĤad
à¦¹ à¦¾à¦°
Ġc v
ri g
Ġil dÉĻ
ĠáĥĽ áĥĺáĥķ
Ġp antip
Ø§Ø± Ùĥ
Ġç ¬¬
Ġ×Ĳ ×Ĺ
à°¤ à±įà°¸
ĠÎŃ Îº
ĠëĲ ĺ
ÏĥÎµ ÏĦÎµ
d Ã¡
áĥĺáĥ¡ áĥ£áĥ¤
çİ ĩ
è§ ģ
ĠÐµ ÑīÐµ
y e
ĠÎ¼ Î¯Î±
à¤°à¥įà¤ ¶
ĠáĥĴáĥĲáĥľáĥª áĥ®áĥĲáĥĵ
ÏģÎ¯ ÎµÏĤ
ĠÐĶ Ð»Ñı
Ġz m
Ø§ Ùĥ
à¹Ħà¸Ķà¹ī à¸£à¸±à¸ļà¸
Î½ Ïİ
Ģ â
Ð¾Ð¶ Ð´
il itÃ©
ĠáĥĴ áĥ£áĥļ
à¹ į
ÎĻÎļ ÎĹ
ka t
Ð² ÐµÑģÑĤ
Ġl u
à¸µà¹Īà¸ ¢à¸
ĠÎ² Î¬
ãĤ Ģ
Ġa ch
åĬ ©
áŀ¶ áŀ
éľ Ģ
ĠáĥĽ áĥĲáĥ¨
¥à¸ ±à¸
Ð» Ð¾Ð¶
Ġà¤® à¤¾à¤®
Ġà¤¸ à¥Ĥ
Ġà¸ŀ à¸£
ĠÑĤ Ð¾Ð³Ð¾
ŀà¸ ±à¸
ĠH indi
à®ķà¯įà®ķ à®®à¯į
áĥłáĥ £áĥļáĥĺ
ĠÙĨØ¸ Ø±
ÐµÐ½ Ð¸
Ġg ar
Ġà°®à°¾à°Ł à±įà°²à°¾à°¡
b or
à¦¿à¦Ł à¦¿
Ġáĥł áĥĲáĥĽ
ìĿ´ ìĬ¤
Ġà¤¬ à¤¢à¤¼
Ġà®ī à®¤
Ġk Ã¶
Äį et
Ø¹ Ø±
Ġìł Ģ
ĠØ§ Øµ
×ĺ ×¨
ç Ĭ
ch Ã©
Ġhe b
à§įà¦ Ń
f ach
n ÄĻ
à±Ĩà°Ł à±į
Ġà¤ķ à¥įà¤¯à¥ĭà¤Ĥ
Ġs ia
Ø§ÙĦ Ø©
ĠÄĳá»ĵ ng
Ġà®¤à¯Ĩà®° à®¿à®µ
dÄ± m
kla d
Ø§Ø² ÛĮ
id ent
Ġà¤ļà¤¾à¤¹ à¤¿à¤ı
ÉĻy i
ĠPar is
ow Äħ
í ĳľ
Ġre aliz
Ġav ant
ck en
Ġà®Ĩ à®¯
ãĤĭ ãģ¨
Ä ı
à°² à°Ĥ
ĠØª ÙĪÙĦ
Ġemp res
á»ĳ t
Ġs im
Ġë ¡
ÙĢÙĢ ÙĢÙĢ
ĠáĥĽáĥ¡ áĥĿáĥ¤áĥļ
Ġ25 5
ĠÙĪ Ø³
é£ ŀ
Ġg en
jÄħc ych
Ïĥ Î¼Î±
d Ã©
Îº ÎµÎ¹
Ġà¦Ĩ à¦¶
áĥĲáĥª áĥ®áĥĲáĥĵ
Ġag å¹³åı°
åı Ĺ
Ñĥ Ð²
à±įà°¸ à±įâĢĮ
Î½ ÏĮ
äºº äºº
ĠáĥĲáĥ¡ áĥĶ
ĠÎ» ÎŃ
ÐºÐ°Ñĩ Ð°ÑĤÑĮ
ĠÙ¾ Ø³
Ġs ar
à¹Īà¸²à¸ §à¸
Î±Ïĥ Î¯Î±
åħ ±
ĠâĦ ĸ
Ġu t
áĥĶáĥĳ áĥĶáĥĳáĥĺáĥ¡
à¹Ĥà¸ ¢à¸
Î» ÏĮ
ur ante
ĠÐ¿Ð¾ Ñĩ
à¯Īà®¯ à¯ĩ
à¹īà¸ ĩ
Î» Î¹Î±
is es
Ġà°¸ à°Ĥà°¦
å¾ ·
è İ
æ¡ Ī
áĥłáĥĹ áĥ®
ĺà¸ ¸
Ð°Ð» Ð¾
ç¢ °
à¤°à¥įà¤ ¦
à¸£à¸ ĸà¸
Ġu04 3
ĭ à¸µ
Ġà¤Ĩ à¤Ī
Å¯ m
ĠáĥĽ áĥĲáĥ¦
Ġzna j
ÑĤ ÑĢ
Ġ×ŀ× ĵ
Ġà¦¸ à§įà¦Ł
k ÉĻz
Ġch er
áĥĶáĥĽ áĥĲ
ĠØ§ÙĦØ º
Ġà¤²à¥ĩ à¤ķà¤°
sch en
Ġìĺ¤ íĶĦíĻĶìĿ´íĬ¸
Ġíı ī
Ġà®ĩà®°à¯ģà®ķà¯įà®ķ à¯ģà®®à¯į
Ġ0 9
uy á»
t ant
ĠB aÅŁ
ìĹĲ ê²Į
ti ng
Ġà°ª à±Ĥà°°à±įà°¤
ab ilir
ick Ã©
l Ã¼k
à¶± à·Ĭ
Ġs obie
ĠÚ© ÙĦ
u kan
Ġme di
Ġthe o
Ġf ar
à°¿à°Ĥà° Ł
Ġdies e
à¤¬ à¥Ģ
à¦°à§įà¦ ľ
Ġl ors
sta w
çĶ £
à®¤à¯įà®¤ à®¿à®¯
co ra
ĠØ§ÙĦÙħ Ø´
it y
ì ¶ľ
is mo
ï¼ Ĵ
ãĤ ¶
Ø§ÛĮ ÙĦ
Ġ rze
× ¥
ĠM Ã¼
Ġà¦Ńà¦¾à¦° à¦¤
Ġ") .
Ħà¸ §
Ġjed no
åºĨ æĹ¶æĹ¶å½©
Ġà®İà®´ à¯ģà®¤
Ġà°ı à°°à±įà°ª
ÎµÏħ ÏĦÎ±
us t
ĠÎµ Î¹Ïĥ
Ø¯ Ø¯
áĥĶáĥĳ áĥĵáĥĲ
ä¼ ĺ
åı ĺ
ÐµÐ½ Ð¸ÐµÐ¼
à§ĩà¦ ¹
ĠÎµÏĢ Î±
à¤® à¤¾à¤¨
Ġáĥ¡áĥĲáĥ®áĥĶáĥļáĥĽáĥ¬áĥĺáĥ¤ áĥĿ
ĠÎ ŀ
ĠÐ¼ Ð¾Ð´
Ġà®ĩ à®©
ĠãĤ Ń
ģà¸£à¸£à¸ ¡à¸
ĠÎºÏĮ Ïĥ
åĸľ æ¬¢
Ð½Ð¸Ðº Ð°
ì »
Ġ áĥĲ
¸ à¸Ļà¸
ĠÎ£ ÏĦÎ·
ĠP re
ĠÐ¿ÐµÑĢ ÐµÐ´
Ġì Ī
ģà¸´à¸ Īà¸
! !
à°¿à°¨ à±į
Ġq ÉĻb
Ġ ä»¥
æĶ ¹
ĠåĬ ł
Ġáĥ¡áĥĲáĥĵ áĥĲáĥª
Ġà¸ ľà¸¹à¹īà¸
ĠÑģÐ¿ Ðµ
áĢ¹ áĢ
àµįà´ ¯
Ġà¹Ģà¸ Ħà¸£à¸·à¹Īà¸Ńà¸ĩà¸
Ð°Ð» Ð¾Ð³
ļà¸£à¸´à¸ ©à¸±à¸
Ġà¤ª à¤¾à¤¸
à¦°à§įà¦ ¶
áĥ¬ áĥĲáĥķáĥļ
Ø¨ ÙĨ
Ð¼ Ñĥ
am iento
ou w
à¯Ĭ à®´
ĠK on
ĠáĥĽáĥ¡áĥĿáĥ¤áĥļ áĥĺáĥĿ
cri ption
à¤ª à¥ģà¤°
I S
ic es
ĠØ° ÙĦÙĥ
Ġ×ŀ× Ľ
è¾ ¼
lla h
lÉĻn dir
ĠØ§ÙĨ Ø¬
Ġc our
Ġs enza
Ã į
Ġp rÃ¡
Ġà°Ĺà±ģà°° à°¿à°Ĥà°ļà°¿
ĠíĶ Ħ
à¤¾à¤ı à¤Ĥ
rÃ³ d
ĠK om
Ġà§ ·
à¦¿à¦¬ à¦¾à¦°
Ġd ÃŃa
Ġc Ã²n
à§ĩà¦® à§įà¦¬à¦°
æĸĻ çĦ¡æĸĻ
ĠåĽ½ äº§
åķ ı
Ġde puis
v Ã©
à¦¦à§įà¦ ¦
ĠDe utsch
Ġcom un
Ã¼s us
Ġà°¨à°¿à°° à±įà°µ
ra k
Ġà°¤à±Ĩà°² à±ģà°Ĺà±ģ
Ġà°¹ à±Ģà°°
Ġhab e
Ġà°®à°° à±ĭ
ĠØ®Ø± ÛĮØ¯
en iu
ĠB es
à¯Ĭ à®£à¯įà®Ł
áĥĲáĥ¨áĥķ áĥĺáĥļáĥĺ
ªà¸´à¸Ļà¸ Ħà¹īà¸²
im a
ä»£ çĲĨ
Ġà¦ķà¦° à§ĩà¦Ľà§ĩà¦¨
Ġà°īà°¨à±įà°¨ à°¾à°¯à°¿
ĠÏĥÏĩ ÎŃ
âĢ ¦
ÏĦ Ïĥ
ĠØ¯ ÙĪØ±
Ġáĥ£áĥ łáĥ
A PP
èĲ ¥
ĠÐº Ð°ÑĢÑĤ
Ġìļ° ë¦¬
ÏĨÎ¿ Ïģ
Ġà¤ľ à¤¾à¤¨à¥ĩ
áĥĺáĥľ áĥĿ
ĠÎł Î¡
Ð³ Ð¸
Ġ ãģĦ
Ġà®ĩ à®ªà¯įà®ª
ª à¹Įà¸
ĠÎµÎº ÎµÎ¯
æĭ Ľ
ÐµÐ½ Ð½ÑĭÐµ
Ġde ze
áĥĺ áĥĶáĥļ
à¹ Ħà¸£à¸
ÏĨ ÏĮ
ta to
ĠÐ¾Ñģ Ð½Ð¾Ð²
ÙĬ ÙĪ
Ķà¸ ³
ĠÏĮ Î»Î±
Ġãĥ ĳ
à§ĭ à¦·
åİ Ł
Ġag è§Ĩè®¯
Ġk 8
áĥĶáĥ £áĥ
· à¸Ńà¸ĩ
ĠÐ± ÑĢ
æ¬ §ç¾İ
áĢ ¯
Ĺà¸µà¹Ī à¹Ģà¸
ĠÐ¾Ð½ Ð»Ð°Ð¹Ð½
Ĥà¸¶ à¹īà¸Ļà¸
Ġà¤Ńà¤¾à¤° à¤¤à¥Ģ
á»ĳ n
ĠáĥĲáĥ ĳ
Ġby l
ĠÑģ Ð¾ÑģÑĤÐ°Ð²
Ġo pp
Ġà®ª à¯ĩà®°
ìĭ ¬
Õ¡Õ ²
Ġáĥ¡áĥĲáĥ£áĥ Ļ
Õµ Õ¡Õ¶
à´ ±
Ġ ÉĻ
ĠG es
Ġd ro
×ľ ×Ļ×Ŀ
Ã¶ l
orma ciÃ³n
Ġcomm un
Ġë¬ ´
Ġà®® à®£
ar t
at u
Ġà¦ ł
ĠÙĪ ÙĤ
Ġà°¸à°Ĥà° ¬
Ġà¤īà¤¨à¥įà¤¹ à¥ĩà¤Ĥ
ar ro
çķ ª
Ġby ÅĤo
Ġà¦ª à§ģà¦°
Ġn Ãªn
Ġun o
el o
ĠØ§ÙĦ Ø²
à¤¿à¤¯ à¥ĩ
Ġìĸ ĳ
à®¤ à¯ģà®®à¯į
Ġ201 5
Ġg dy
Ġà¦ļ à¦¾à¦²
aus s
Ġà°¨ à°¿à°²
Ġm ir
ĠK l
ãĤĵ ãģ§
Ġmo ins
ĠØ´ ÙĨ
ìĺĪ ìķ½
ìłģ ìĿ¸
Ġà®ª à®¾à®Ł
Ġà®ĩà®° à¯ģà®ªà¯įà®ª
×ĳ ×Ķ
Ġáĥŀáĥł áĥĿ
à¹Īà¸²à¸ ĩà¸
it el
è® ®
Ġver ir
sch ie
ÏĨ Î±Î»
Ãµ es
Î¾ Î¹
à§ĩà¦ Ĺ
Ġáĥ¥áĥĲáĥłáĥĹ áĥ£áĥļáĥĺ
ï¼Į ãĢĳãĢĲ
èĩ ³
ĠÑĥÑĩ Ð°ÑģÑĤ
âĢĮ à°¨
Ïĥ ÏĥÎ±
Ġà¤° à¥ģà¤ª
áĥĲáĥķ áĥĲáĥļ
Î¸ ÏģÏī
ĠÐŁ ÐµÑĢ
à±Ĩà°ķ à±įà°Ł
iz i
à¸Ļà¸µ à¸
Î±Î¹ Î¿
á ī
ĠÐľÐ¾ÑģÐº Ð²
i os
áĥĺáĥĵ áĥĶáĥľáĥ¢
à¹Īà¸ ¡à¹Ģà¸
Î¸ Î±
à°¸ à±įà°¸
Ð¾Ñģ ÑĥÐ´
ãĥ³ãĤ ¿
à¸£à¸§à¸ Īà¸
ÎŁÎ ľ
Ø Į
Ġprosti tutas
à¥įà¤¯ à¥ĩ
è¾ ¾
ä¼ģ ä¸ļ
Ġáĥ¡áĥĲáĥ Ń
à¸² à¸£à¸²à¸
ĠÐº Ð¾Ð³Ð´Ð°
Ġà¤¬ à¥įà¤°
Ġà¤ Ī
¥à¹ĩà¸Ńà¸ ķà¸
ĠÐ² Ð¾Ð¿ÑĢÐ¾Ñģ
Ġà¸Ĺà¸ ³
à¥ĩà¤ ¯
Ġha ce
Ġáĥ¡áĥĲáĥĻ áĥĺáĥĹáĥ®
Ġje ho
ĠÐ½Ð° ÑģÑĤ
di tion
Ġpu Ã²
ĠØ§ Ø®
à°ķ à°¾à°¶
áĥłáĥ Ľ
Ġbu en
à¬ ¿
Ġla t
Ġa ÄŁ
Ġa insi
Ġw orden
à¯ģà®® à¯ĩ
å¿ ľ
ĠÂ ½
Ġmá» Ľi
dad es
Ġà°Ł à±įà°°
ĠØª ÙĨ
Ġ×ŀ× ĳ
ĠÄį er
ĠÃ© qui
à´ ¨àµįà´¨
d f
Ġp eng
à¦¿à¦ ¹
Ġãĥ ª
Ġëĺ Ĳ
Ġmi esz
Ġv Å¡
Ġkull an
Ġà¤ ł
ĠÕ Ń
ĠÅŁ ÉĻr
Ã¤ l
iz io
Ġm al
ãĥ» ãĥ»
å ĥ
Ġc Ã¡ch
dz enia
ti tu
Ġà®ħà®± à®¿à®µ
ĠØ§ÙĦÙĬ ÙĪÙħ
ĠÙħ Ùĩ
ãģ¡ ãĤĥ
éģ ¸
ĠH e
à§ĭ à¦ª
áĥĵ áĥĺáĥļ
Ĺ à¹Į
Ġi ma
åħ Ī
ĠC zy
à°¸ à±įà°¥
ĠÎµÏĢ Î¹Îº
p rze
Î½Î¿ Î´Î¿
×ĵ ×Ļ×Ŀ
áĥĲáĥĽ áĥĲáĥłáĥĹáĥļ
Ġå ¦Ĥ
ä¹ ¦
Ñı Ð¼
t t
ĠÏĩÏī ÏģÎ¯ÏĤ
àŃ į
ĠáĥĿáĥłáĥĴáĥĲáĥľ áĥĺáĥĸ
ÏĦ Î¶
ĠÐŃ ÑĤÐ¾
tiv os
ne ment
Ġà¹Ĥà¸Ķà¸ ¢
ĠÎĳ ÎĿ
Ġ0 8
ĠÑĤ Ñĭ
ĠØ³ Ø§Ø®Øª
áĥĲáĥ¬ áĥ§áĥķ
ļà¸ ¸à¸
Ġá¼ Ĳ
ÅĻ ej
ĠÐ¸Ð½ ÑĦÐ¾ÑĢÐ¼
ki m
à¸Ńà¸²à¸« à¸²à¸£
Î³ Î¼Î±
Ġà®ķà¯Ĭà®£à¯įà®Ł à¯ģ
Ġê³ Ħ
è¯ ģ
ç ħ
åĲ Ħ
áĥĿáĥª áĥĲ
ª à¹Īà¸ĩà¸
ĠÐ»Ñİ Ð´
Ġåľ¨ çº¿
à¤¿à¤µ à¤¾à¤°
Ľà¸¥ à¸²
ĠÐ° Ð´
à¸Ń à¸Ńà¸ģ
Ġà¤¹à¥ĭ à¤¤à¥Ģ
Ø§Ùģ Ø©
§ áĥĶáĥľ
à°¡ à°Ĥà°¤à±ĭ
Ð½ ÐµÐµ
tor ia
à¦¿à¦ §
Ġm ein
Ġà°° à±Ĥà°ª
Ġáĥķ áĥĲáĥł
Ġt ÉĻq
Ġà¤¶ à¤¿à¤ķ
Ġn Ã©
ĠpÅĻ es
Ã¤ hr
Ġb el
Ġà®µ à®ķ
ra j
à°ªà±įà°ªà°Ł à°¿à°ķ
ìĹ Īëĭ¤
Ø§Ø¹ Ø©
Ġas ÃŃ
ĠÃ ´
ĠØµ ÙĪØ±Øª
Ġ×ŀ× ¦
Ġsu a
å¤© åłĤ
ãĥķãĤ ©
es ab
à¦¾à¦ĩ à¦¨
Ġar tic
ol es
ãĥ¼ ãĤ¯
Ġre p
ĠØ Ľ
Ġà¤¨ à¤¿à¤ķ
Ġk an
Ġà®ª à¯ģà®°
Ġà¦® à¦¨à§ĩ
Ġl ib
Ġsu is
Ġy Ã¼k
ranÃ§ ais
on na
Ġac qu
ar Ã¡
h led
à±Ģ à°®
ĠÙħ Ø§Ùĩ
ka ch
iá»ĥ u
hl en
Ġà®ķà¯Ĭ à®³à¯įà®³
" #
± à¹īà¸Ļà¸
Ġèĩ ª
åı Ĥ
à§įà¦² à¦¾à¦¹
ĠØ® ÙĦØ§ÙĦ
Ïĥ Î¹Î¿
à¦¾à¦·à§įà¦Ł à§įà¦°
ĠÎµ Î»Î»Î·Î½
×ķ×¨ ×Ķ
ĠáĥĿ áĥĹ
åİ ¿
æ² »
ĠÐ´ ÐµÐ¹ÑģÑĤÐ²
Ġà°® à°¾
ĠÎĿ Î±
Ġà¤® à¥ģ
ĠáĥĽ áĥĺáĥ£áĥ
Ïĩ ÏģÎ¹
Ð¾Ð» Ñı
Ġc ent
Ġp df
Ĥà¸²à¸ ¢
Î½ Î¬
åĵ ª
? ?
Ġa di
Ġáĥĺ áĥĹ
à¹īà¸ ³à¸
ĠÎĳ ÏģÏĩ
as a
Ð¾Ð²Ð°Ð½ Ð¸Ðµ
Ġà°¨ à°Ł
ªà¸³à¸« à¸£à¸±à¸ļ
ĠÏĢÎµÏģÎ¹ÏĥÏĥÏĮÏĦÎµ ÏģÎ±
à±ĥ à°¤
Ġmay or
ç© º
Ġå ·
é¢ Ĩ
áĥĶáĥłáĥ ¢
«à¹ĩ à¸Ļà¸
ÑĢÐ° Ñī
Ġà¤ķà¥įà¤· à¥ĩ
à´ ª
à¸Ńà¸µà¸ ģà¸
ĠÑįÑĤ Ð¾Ð³Ð¾
Ġà¸Ķà¸ ¹
à¥Ĥ à¤®
± ħ
Ġáĥŀáĥĺáĥłáĥķ áĥĶáĥļ
ier ung
ĠÐ» ÑĥÑĩÑĪ
Ġm er
Ġt ej
ĠâĢ ¢
Ġa by
Ġáĥ¡ áĥĲáĥľ
Ġà¦ľ à§Ģà¦¬
ĠæĪ Ĳ
íķ© ëĭĪëĭ¤
id mÉĻt
ĠØ§ÙĦÙħ Ø¹
ĠÃ©g alement
Ġo hne
ÙĪÙĨ Ùĩ
à°Łà±įà°Ł à±ģ
à¯įà®Ł à¯į
h eid
Ġà°ĩ à°Ĥà°ķ
Ġà¦¨à¦¿ à¦°à§įà¦
×Ļ×¨ ×ķ×ª
Ġs aÄŁ
zion ale
à¤ľ à¥Ģ
ĠØŃ Ø³
m it
ĠØ¢ÙħÙĪØ² Ø´
Ġs á»Ń
Ø¨ Ø§
lÉĻr ini
Ġtr as
à¯ĭ à®ķ
à¤¿à¤¯ à¥ĭ
ĠM er
ction s
ff en
Ġes pe
cz nych
à®¾à® ¨à¯įà®¤
à¦® à¦¿à¦ķ
Ġna bÃŃ
ĠK o
ĠØ¨ Øª
ĠÙħ Ø·
Ġìĺ ¨
Ġst r
Ġãĥ Ī
i tion
à¦¿à§Ł à¦¾à¦°
Ġa Ã±o
ĠáĥĽáĥĺ áĥĺáĥ¦
«à¸ §à¸±à¸
ë¥ ¸
1 9
Ġg er
szy ch
Î¼Î² ÏģÎ¯Î¿Ïħ
ĠØ¨ Ø³ÛĮ
ÏĢÎ¿ ÏĤ
Ġà¦ħ à¦§
áĥĲáĥĵáĥĴ áĥĲáĥľ
è Į
åĩ Ĩ
ÑĢ Ðµ
Ġtr at
Î» Î¹Î¿
Ġà¤¦ à¥Ĥà¤¸
áĥĶáĥł áĥĺáĥĿ
Î¼ ÏİÎ½
ĠÐ¼Ð°Ð³ Ð°Ð·
ĠCh at
Ø¯ Ø§
¢à¸ §
Ïī Î¼Î±
Ġä» ĸ
Ñĥ ÑģÐº
Ġin v
áĥĿáĥ¡ áĥ¢
Ġà¹Ģà¸ Ľ
Î¾ ÎµÎ¹ÏĤ
ÙĪ Ùī
ĠÐ¿ÑĢ Ð¾Ð±
Ö ¼
ĵà¸ °à¸
Î¼ÎŃÎ½ ÏīÎ½
×Ļ×¨ ×Ķ
à±ģà°¤ à±ĭ
ĠãĢĳãĢĲ ï¼ĮãĢĳãĢĲ
æī ĳåħĭ
æķ Ī
áĥĶáĥľ áĥĵ
Ĭ à¸µ
Ð½ Ð¸Ð¼
Ġà¤ķà¤¾à¤° à¤£
Ġà¤ľ à¤°
ĸà¸ ¹à¸ģ
ĠÐº Ð°Ð¶Ð´
à¹Ģà¸£à¸µà¸ ¢à¸Ļ
à¤¥ à¤¾
à¯Īà®¤à¯įà®¤ à¯ģ
Ġáĥł áĥĲáĥĵáĥĴáĥĲáĥľ
iá»ĥ n
ĠÐ² Ðº
z ident
d Ã¼r
Ġme ille
Ġsp ra
ĠáĥĴ áĥĺáĥĿ
ĠV y
à¥įà¤°à¥Ģ à¤¯
à°¦ à±įà°§
Ġcol or
ãģ ĸ
Ġà§ ®
pp e
Ġà¦¨ à§Ł
Ã¡ le
à®£à¯įà®Ł à¯ģà®®à¯į
é §
ing en
Ø±ÙĬ ÙĤ
am b
à¦¾à¦ Ľ
Ġv ida
à¤¾à¤¦ à¤¾
Ġd ont
Ġãĥ ©
Ġr y
lÉĻr dÉĻ
Ġà°ļ à±ĩà°°
ãĥª ãĤ¢
ĠS u
×ķ×ł ×ķ×ª
àµ Ģ
Ġà¦ĩ à¦¨
Ġa Ã§Ä±
Ġs to
Ġà®İà®©à¯įà®ª à®¤à¯ģ
ĠU hr
ĠD i
Ġperson as
Ġà°ĩ à°ªà±įà°ªà±ģà°¡à±ģ
c ch
Ġth áº¿
ue lle
à°² à±ĩà°¦à±ģ
ĠÙĪØ§ÙĦ Øª
íķĺ ìĹ¬
Ġà¦Ĩ à¦¨
m enti
Ġdz iaÅĤ
áĥĲáĥķ áĥĹ
Ġà¸£à¸µà¸§à¸´à¸ §
Ġpe w
å¹ ¿
ĠN az
is sen
ĠÎ³ ÏģÎ±
ãģı ãģł
ÏĦÎµ Ïį
ĠÙħØ¯ ÛĮØ±
Ġáĥŀáĥł áĥĿáĥĴ
ä» İ
æĪ ¿
ĠÐ±Ñĭ Ð»
Ġc li
á¿ ¦
Ġà¤Ńà¤¾à¤°à¤¤à¥Ģ à¤¯
áĥ£áĥłáĥ ķ
Î¸Î· ÎºÎ±Î½
ĠÐĲ Ð»
Ġ ÖĦ
ĠM ÉĻn
à¹ĥà¸ ª
ĠÎ£ Ïį
åħ ļ
ĠÑħ Ð¾ÑĢÐ¾ÑĪ
Ġj eszcze
ĠáĥĽ áĥ¬
¶à¸ ĩà¸
ĠÎ¼ Î¿
ĠgÃ¶ re
ĠÐ±ÐµÑģ Ð¿Ð»Ð°ÑĤ
à¦¾à§ľ à¦¾
ŀà¸Ļà¸±à¸Ļà¸ ļà¸Ńà¸¥
Î´ Ïİ
Ġd ru
ĠØ§ Øª
Ġæ Ĭ
ç Į
Ġà¨ ¦
Ġáĥĵ áĥĲáĥª
à¸´à¹Ģà¸ ¨à¸
Ð¾Ñģ Ð¿
áĢ¸ áĢ
Ġà¤ħ à¤Ń
¡ à¸´à¸
ÐµÑģÑĤÐ² Ð¾
à¸Ļà¹īà¸ ³
å¹ ķ
Ġs h
áĥĲáĥ¥ áĥķáĥ¡
j ours
Ð° Ñİ
Ġn ÉĻti
Ġf are
à°ķ à°Ĥ
Ġà¦ķà¦¾à¦ Ľà§ĩ
Ġáĥł áĥĲáĥ¡
Ġë§ İ
Ġà¤µ à¥ĭ
ra da
Ġin s
Ġà°ªà±ĭà°² à±Ģà°¸
×© ×ª
Ġà¦ħ à¦ªà¦°
Ã©r ie
Ġà°Ĺà±ģà°° à±įà°¤
ãĤ¤ ãĥ³
di g
ĠÙĪ Ø¹
Ġà®µ à®³
z ia
Ġhaqq Ä±nda
ul o
Ġà¤¸ à¥įà¤ķ
l Ã¼
à¦ ĺ
Ġes to
Æ°á» Ł
åĭ Ļ
Ġre cher
Ġw ym
ĠÄĮ es
à¥įà¤¯ à¤®
Ġpr os
ÙĬ Ùĩ
Ġà°ļà±Ĩ à°Ĥà°¦
ĠØªÙĪ Ø§ÙĨ
idad es
Ġà®ĩà®°à¯ģà®¨à¯įà®¤ à¯ģ
u jÃŃ
Ġal c
l ti
ĠéĢ ģ
c Ã©
ĠåĲ į
ou n
ãģ«ãģ¤ ãģĦãģ¦
à§įà¦¯ à¦¾
ÙĬ Ùĥ
ĠØ§ ØŃ
áĥĿáĥķ áĥĲáĥľáĥĺ
Ġà¸Ħ à¸²à¸ªà¸´à¹Ĥà¸Ļ
le h
åĪ «
×¨ ×Ĵ
Ġw eiter
Îµ Î²
Ġy Ä±l
Î¶ ÎµÎ¹
Ġà°¦ à±ĩà°µ
ĠáĥĲáĥłáĥ¡ áĥĶáĥĳ
å® ¹
Ġ222 70
ĠÐ½ ÐµÑĤ
Ġê³ ¼
ÎŁÎ ĵ
Ġà¤¬ à¤¦
áĥķ áĥĹ
ÏĦÎµ Ïħ
ĠÐ´ Ð¾Ðº
ar se
à®¿à® ªà¯į
«à¸ ķà¸
Ïĩ ÎµÎ¯
éĤ Ģ
Ð¾ Ñħ
i O
Ġáĥķ áĥĺáĥĵ
ª à¸µà¸
ĠÎ£ Î¤
Ġr Ã³Å¼
Ðµ ÑģÑı
Ġà°¦à±įà°µ à°¾à°°à°¾
Ġ à¸£à¸²à¸Ħà¸²
ĠÏĢÏģÎ¿ Î²
à¦¾à¦¦ à¦ķ
Ġc an
ç ª
ç± »
æľį åĬ¡
ĠáĥĽáĥĲáĥĹ áĥĺ
ŀà¸ ·à¹īà¸Ļà¸
ĠÐ· Ð°ÑĢ
à¥ Ŀ
à¤Ł à¤°
à¹ĥà¸«à¸į à¹Ī
ĠÐºÐ¾ÑĤÐ¾ÑĢ ÑĭÐ¹
¨à¸ ±à¸
Ġà¤ķ à¥Į
Ġà¦ħà¦¬ à¦¸à§įà¦¥
áĥ¡ áĥĺ
ta g
ĠÐµ Ðµ
Ġd á»±
Ġtout es
à®Ļà¯įà®ķ à¯ģ
Ø´ ÙĪØ¯
áĥķáĥĶáĥļ áĥĺ
Ġhe eft
à¤¿à¤¤ à¤¾
Ġge w
Ġcon tre
Ã¡ ÅĻ
à®¿à®ķà¯įà®ķ à®ªà¯įà®ªà®Łà¯įà®Ł
go d
Ġìŀ ħ
ãģĮ ãģĤãĤĭ
ĠØ£ Ùĥ
ay ÉĻt
Ġbul un
Å¯ s
à°² à°¿
Ġog ni
ce p
Ġà¤ħ à¤Ĥà¤¤
à°¾à° ĸ
×Ļ× ĸ
ãĥĥãĤ¯ ãĤ¹
Ġà¦¸ à¦¾à¦§
ÉĻt ÉĻn
Ġc Æ¡
Ġg ro
à°ķ à°¾à°²
Ġà¤µ à¤°à¥įà¤·
Ġmon de
Ġu ma
ĠãĤ Ĥ
ĠëĮĢ íķľ
Ġcont ro
Ö ĩ
v ÉĻl
Ġà®ĩ à®©à¯įà®©
Ġm y
ãĤĪãģĨ ãģª
m t
d ic
Ġà°ħ à°¦à°¿
Ġt a
Ġà®®à¯ģà®¤ à®²à¯į
Ġda pat
te il
Ġáĥĺáĥ§ áĥĿáĥ¡
ģà¸ ¤à¸
ãĤģ ãģ¦
Ġå ¸
Ġà°İ à°ķà±įà°ķà±ģà°µ
cz ny
ÎŁÎ ¡
T E
á½ ¸
R E
áĥ¯ áĥĲáĥ®
æķ ´
ĠãĢĤ ãĢĤ
ĠÐ²Ð¸Ð´ Ðµ
Ġl igne
Ïģ Ïį
è¶ ħ
Ġáĥ¢ áĥĶáĥ¥
ĠÎ¬ Î»
ÐµÑĤ Ðµ
ì ¢
Ġà¦¦ à§įà¦¬
¢ à¸´à¸ĩà¸
ĠÎ» ÎµÎ¹ÏĦÎ¿ÏħÏģÎ³
æ ¹
ÑĥÑĤ ÑĮ
ÃŃ cul
ĠáĥŀáĥłáĥĿ áĥĶáĥ¥áĥ¢
«à¸¡à¸ Ķ
ĠÏĢ ÏģÎ¬
ĠN on
ÐµÑĢ ÑĤ
ĠÙĦ Ùĩ
Ġà¸ªà¸ Ķ
ĠÎ¼ÎŃ ÏĩÏģÎ¹
Ġd nia
Ġspo leÄį
5 0
æŃ ¥
3 0
Ġáĥĺáĥ¡ áĥĶ
à¸µà¸¢ à¸Ļ
Ðº Ð¾Ð¼
àµįà´ ª
à´¾à´ ¯
Ħà¹Īà¸ °
ÑıÑĤ ÐµÐ»ÑĮ
à¹Ģà¸Ĥ à¹īà¸²
à¥ģà¤ ĸ
Ġcer ta
Ġáĥł áĥĿáĥĵáĥĶáĥ¡
et t
ÐµÑĢ Ñĭ
Ġst an
Ø§Ø± Ø§ÙĨ
ĠÕ° Õ¡Õ´
ÉĻn d
áĥĿáĥª áĥĺ
Ø¯ Ùī
à¤¬ à¤Ĥà¤§
Ġ×Ķ×ŀ× ©
ĠC u
un k
à¯ģà®± à¯Ī
il en
ĠÛ° Û
ĠØŃ Ø§ÙĦ
Õ¡Õ½ Õ¿
Ġar asÄ±nda
ëħ Ģ
Ġkter Ã¡
Ġíĺ¸ íħĶ
Ġs ol
Ġà®ħà®µ à®°à¯įà®ķà®³à¯į
Ġà¤¹ à¤¾à¤²
ÙĦ Ø¨
Ġs au
ãģ® ãģĭ
Ġë Ŀ¼
l ÉĻy
k ich
Ġãĥ Ĺ
Ġà°ĩ à°ķ
áĢ Ń
pu es
al itÃł
ĠØ¨ Ùħ
Ġ×© ×ŀ×
à° İ
éĽ »
ag es
à§ ¨
Ġà°¯ à±Ĭà°ķà±įà°ķ
Ġtem po
Ġm ÉĻk
à§ľ à§ĩ
Ġà®¤à®®à®¿à®´ à¯į
Ġà®ļ à¯ĩ
ding in
Ġ: )
Ġs zy
áĥĶáĥĵ áĥĺ
ŀà¸ ±à¸ģ
ag ai
Ġæ ¯
Ġma in
ch od
Î¿Ïį Î¼Îµ
f ol
ĠÎ³ ÎµÎ½
Ø³ Ø±
ĠáĥĲáĥ ¤
å¸ ¦
Ġåı ¯
Ð°Ð»ÑĮ Ð½ÑĭÐ¹
Ġpro p
ĠÏĥÏħ Î³
à´ ķ
ĠáĥĲáĥ¦ áĥľáĥĺáĥ¨áĥľ
ĠÎ´Î· Î¼Î¹Î¿ÏħÏģÎ³
Ð¾ÑĢ Ð¾Ð²
Ġà¦¤ à¦¾à¦ĩ
ìħ ĺ
Ľà¸¥ à¸µà¹Īà¸
Î¸ Î¿
6 0
ĠÑĢ ÐµÐº
ĠÃ ļ
Ġáĥ¤ áĥĶáĥ®
ĠTh e
ÎŁÎ ļ
à¯Īà®ķ à®³à¯Ī
ĠÑĤ Ð¾Ð²Ð°ÑĢ
lÉĻr inÉĻ
Ġ à¹ĥà¸«à¹ī
ĠÎĳ Î³
Ġà¦¦ à§ĩà¦ĵ
Ã ģ
Ġag èµĮ
é© ¬
Ġå ĳ
Ġáĥŀáĥł áĥĶáĥĸ
Ġà¸ Ķ
Ð½Ð¾Ð¼ Ñĥ
Ġà¤ī à¤¤à¥įà¤¤
Ġà¤ķà¥įà¤·à¥ĩ à¤¤à¥įà¤°
it h
ÑĮ Ñı
à¸£à¸µ à¹Ģà¸
Ġà¤¦ à¤¿à¤ĸ
Å¡ enÃŃ
Ġáĥ¥áĥĲáĥļ áĥĲáĥ¥
ĠA s
ÑĢÑĭ ÑĤ
Ø§ÙĦ ÙĬØ©
×ľ ×§
æľ ¨
Ġê²Į ìŀĦ
ĠáĥłáĥĿáĥĵáĥĶáĥ¡ áĥĲáĥª
ĠE st
Ġà¤¬à¤¾à¤° à¥ĩ
íķ ¨
ç Ĺ
Ġtr ov
ra is
le ÅŁ
à¦¿à¦· à§įà¦ł
ĠD ans
Ġm u
ĠØ³ Ø§ÛĮØª
ĠÃľ ber
Ġà®µ à®¿à®Łà¯įà®Ł
ĠØ¢ Ø²
c to
gan iz
æ¯ Ľ
Ġme er
ĠØ¨ ÙĦ
Ġà®İ à®Łà¯ģà®¤à¯įà®¤
à¦Ĺà§ģà¦² à§ĭ
Ġc it
t ÉĻb
ãĤĪãģĨ ãģ«
d ej
Ġà¤ı à¤µà¤Ĥ
Ġà®¤ à¯Ĩ
it z
Ġ5 0
end ant
ho ra
Ġthá» Ŀi
Ġq iy
Ġf ra
ĠÄį as
Ġâ ŀ
Ġìķ Į
ĠØ§ÙĦ Ø§ÙĨ
ĠP od
ri ng
Ùħ ÛĮ
ĠQ ar
ec to
ĠáĥłáĥĿáĥĽáĥļáĥĶáĥĳ áĥĺáĥª
à¹īà¸ ĩà¸
à¯ģà®³à¯įà®³ à®¾à®°à¯į
éĻ Ĩ
ĠdÉĻf ÉĻ
×ł ×ª
ĠÎºÏħ Î²
ĠwiÄĻ cej
Î´ Î¯
ĠHo tel
áĥĶáĥĳáĥĶáĥļ áĥĺáĥĲ
à¤¾à¤Ĥ à¤¨à¤¾
éĺ Ł
ĠÐĲ Ð²
Ġà®ªà¯ĭ à®°
ĠÎº Î¿Î¹Î½ÏīÎ½
à¥ģà¤ ·
ĠáĥĿ áĥłáĥĺ
ÏģÎ· ÏĤ
ĠÐ² Ð°ÑĪ
Ä±l an
à¦¾à¦ĩ à¦²
à¹Ģà¸£à¸ ·à¹Īà¸Ńà¸ĩà¸
Î¼ Î±Î¹
¸ è¿Ĳ
ĠÐļ Ð¾Ð¼
Ġn ei
áĥ£áĥłáĥľ áĥĲáĥļ
Ġà¸Ľ à¸µ
ĠÏĩ ÏİÏģÎ±
is iÃ³n
Ð» Ð¾Ð²
Ú© Ø±
Ġà¸Ķà¸ ¹à¸
ĠÎ¼ Î¬
Ø¹ Øª
äº Ī
çĽ´ æĴŃ
àª ¾
æ¢ ¦
áĥĿáĥ ļáĥĺ
à¹Ĥ à¸Ńà¸
Ð¾Ð» Ð¾Ð´
à¤ı à¤®
Ġà¤°à¤¾à¤ľ à¥įà¤¯
Ħà¸§à¸²à¸¡à¸ ªà¸
ĠÐº ÑĥÐ¿Ð¸ÑĤÑĮ
à¹Ħà¸ Łà¸
à¤¾à¤¤ à¥ĩ
Ġà°¬ à°¾à°²
áĥĶáĥĹ áĥ¨áĥĺ
ti ge
ĠÑģ Ð¾Ð·Ð´
da w
à°ķ à±ģà°Ĥà°¡à°¾
ge b
Ġà®ķà¯Ĥ à®Łà¯įà®Ł
ĠáĥĴ áĥĲáĥĴ
Ġl ong
à¤µ à¤°
s to
ist ra
Ġà¦ıà¦ķ à¦Łà¦¾
Ġì ¦
Ġà°µ à°¾à°°à±ģ
Ġb ah
Ã ĥ
Ġr áº¥t
à§ĭ à¦ľ
Ġw eb
ÉĻs s
Ø· Ø±
×¨ ×ĳ
à®¤à¯įà®¤ à¯ģ
te d
ãģĹ ãģĭ
h nen
Ġà¦ľà¦¾à¦¨ à¦¾à¦¨
ir i
Ã¼ re
Ġà¦¨ à¦¿à¦°
er s
Ġse con
Ġà¤¨ à¥Ģ
Ġda v
Ùģ Ø¶
Äį ek
à§ĩà¦² à¦¾à¦°
Ġv ideo
Ġpra c
íĭ °
Ġà®ķ à®£à¯įà®Ł
Ġà¦¹à¦¿à¦¸ à§ĩà¦¬à§ĩ
Ġd y
Ġac tu
à°¸ à±įà°¯
Ġg ut
Ġtou te
ãĥ¼ãĤ ¿
Ġpra cy
ÅĻ enÃŃ
ĠáĥĽ áĥ£áĥ¨
à¸Ļà¸ ³à¸
ĠP a
æĺ ĵ
Ø¯ ÛĮ
in cip
Î½Î¿ Î¹
ÅĽ nie
Î» ÏĮÎ³
Ġq az
áĥĺáĥ ©
ç® Ĺ
åį ĩ
ÑĨ Ñĭ
ĠG esch
Î´ ÎŃ
à¤¡ à¥Ģ
áĥĲáĥł áĥĶáĥĳáĥĲ
Î¼ Î¯
ĠÑĦ Ð¾ÑĤ
Ġà°ļ à°¿à°¨à±įà°¨
à¦¿à¦¤ à§įà¦°
à¹Ĥà¸ Ľà¸£
ĠÏĨ Ïī
åħ ·
ĠÐĿ Ðµ
ĠØ§ÙĦØ£ Ùħ
ĠáĥĴáĥĺáĥĿ áĥłáĥĴ
à¹Ģà¸ Ĺà¸µà¹Īà¸
ÎŃ ÏģÎ±
à®© à®®à¯į
Ð³ Ð¾ÑĤÐ¾Ð²
ìĹħ ìĨĮ
ļà¸£à¸´à¸ ģà¸²à¸£à¸
Î¬ Îº
ì° ½
ĠÃ Ĺ
éĤĢ è¯·
ç½ ®
Ġà¤ķà¤° à¤£
áĥ¡áĥĲáĥ® áĥ£áĥł
Ĺà¸ Ħ
Ð»ÐµÐºÑĤ ÑĢ
Ġà¤ľ à¥įà¤¯
ĠéĿ Ĵ
ľ à¸´à¸
ÐµÐ½ Ð½ÑĭÐ¹
Ġà¸ «à¸£à¸·à¸Ńà¸
Ġà¤ħ à¤Ĺà¤°
el a
Ġáĥ¡áĥĲáĥ ŀ
ÙĪ ÙĨØ¯
ÑĦ ÑĦ
do b
áº¿ u
ìĦľ ë¹ĦìĬ¤
íĸ Ī
áĥĶáĥľ áĥĺáĥ¡
ll os
Ġà¤¦à¤¿à¤² à¥įà¤²à¥Ģ
à¯ĭ à®Łà¯ģ
ne m
âĢ Ļ
×ķ×ł ×Ļ×Ŀ
Ġà®®à¯ģà® ´
Õ´ Õ¡Õ¶
ĠmÉĻs ÉĻl
elb st
à¦¾à¦ķ à¦¾à¦°
Ġw ord
Ġà°¬ à°¯
ĠÅŁÉĻx s
Ġc ie
Ġæ °
Ġà¤¶à¥ģà¤° à¥Ĥ
is ation
ÙĨ ÙĬØ©
à§ĩà§Ł à¦¾à¦°
Ġfo tos
it os
à¦¾à¦ĵ à§Łà¦¾
Ġà°ļ à°¦
à¯ģà®ļ à¯į
à¶ ½
Õ¥ Öģ
ï¿½ï¿½ ï¿½ï¿½
Ġin kiÅŁaf
Ġà¦® à¦¾à¦§à§įà¦¯à¦®
ĠdÃ© p
Ġm ie
Ä± yor
åĪ ĩ
nÄĽ jÅ¡ÃŃ
ĠØ§ ÙĪÙĦ
Ø± Ø§Ø¡
ment os
ne hmen
à±ģà° Ń
Ġè ²
Ġà¦ħà¦¨ à§ģà¦·à§įà¦ł
å± ĭ
áĥĺáĥ« áĥĶ
Ġ' )
Ġh Ã¬nh
à¤¾à¤ ³
Ġle urs
alar Ä±
Îº Î¿Î»
Ãº s
ĠÎ¿Î¹ÎºÎ¿ Î½Î¿Î¼
Ã³ j
Ġáĥ¬ áĥĶáĥķ
æĭ¿ å¤§
Ġ ä¸º
ĠÐ° ÐºÑĤ
Ġà®µà®´ à®Ļà¯įà®ķ
ĠÏĢ Î»Î±
Ġà¤¦ à¥Įà¤°
Ġáĥĸ áĥĿáĥĴ
Î¶ ÏĮ
Ð¸ÑĩÐµÑģÐº Ð¸Ðµ
d em
ĠÙĥ ÙħØ§
à¹Ĥ à¸Ļà¸
ĠÏĥ Î®Î¼ÎµÏģÎ±
à¤² à¥įà¤¯à¤¾
ĠÐ½ ÐµÐ¿
I C
ĠáĥĴáĥĲáĥľ áĥĲáĥªáĥ®áĥĲáĥĵ
à¸Ļ à¸²
ĠÏĢ Î¯
ta mento
Ð¾ Ð½Ñĭ
ĀĀĀĀĀĀĀĀ ĀĀĀĀĀĀĀĀ
à¹ģà¸ ģà¸£à¸
Ġï¿½ï¿½ï¿½ï¿½ï¿½ï¿½ ï¿½
æ ħ
à°¾à°¯ à°ķ
çł Ķ
å® Į
á ĭ
áĥĲáĥļ áĥĵ
à¸²à¸ ¡à¸
ĠÑĢÐ°Ð±Ð¾ÑĤ Ñĭ
à¤¾à¤¦ à¥Ģ
à· Ļ
· à¸
ĠÐ· Ð°Ð±
ªà¸£ à¹īà¸²à¸ĩà¸
Ġà¤ªà¤¹ à¥ģ
Ġà¦¦ à¦¿à§Ł
Ġáĥĵ áĥĲáĥ®
ĠbÃ½ t
Ð°ÑĤ Ð¸Ð²
ĠScar pe
Ġp ia
ien ie
Ġmis mo
Ġáĥł áĥĿáĥªáĥĲ
ĠÄ° l
àµįà´ ļ
ĠØ³ ÙĪ
×ŀ ×Ļ
à°¾à°ķ à±į
Ġso ci
Ġà¦¬ à¦¨à§įà¦§
b lica
Ġ ÉĻh
Ġb ou
L L
ia to
ti gen
Ġenc ont
Ġser a
s iÄĻ
Ġà¤ĸ à¤¿à¤²
Ġà¦® à§ģà¦ĸ
el en
Øª Ùī
Ġà°ķ à°¾à°Ĥà°Ĺ
Ġà®Ĩ à®¤
Ġà°¨ à°¿à°ľ
ĠØ´ Ùħ
ouve z
Ġà¤ªà¤¹à¥ģ à¤Ĥà¤ļ
Ġ ãģ¯
Ġà¦°à§Ł à§ĩà¦Ľà§ĩ
Ġpom o
Ġtr Æ°á»Ŀng
à®ªà¯įà®ªà®Ł à¯ģà®®à¯į
ar ia
c teur
à°¾à° «
Ġpla ce
ĠAr beit
f a
aÄŁ Ä±
ja di
Ġê° Ļ
×ķ×ª ×¨
è¨ Ń
iÄĻ dzy
ĠáĥĲáĥł áĥĲáĥ¡
ªà¸ ¡
mp re
Ġäºļæ¸¸ å®ĺç½ĳ
Ġà¦® à¦¨
ich tig
Î» Î¯Î±
Ġà°ªà±įà°° à°®
ĠÎľ Î±Ïģ
Ġmun do
Ġáĥ§ áĥĿáĥ¤
2 3
å¥ ĩ
Ð¾Ð» Ð¾Ð²
Ġso it
Î´ ÏģÎ¿
Ġà¤ļ à¥ģ
ĠáĥĿ áĥ¥
ĠÏĮ ÏĩÎ¹
ĠÐ¾ÑĤ Ð½Ð¾
Ġto t
Ġkad ar
à¹Ĥà¸Ķà¸ ¢
ĠÎ² ÏģÎ¯
ä¹ °
ĠÐ¼ÐµÐ½ Ñı
b ra
áĥĶáĥłáĥ Ĵ
ģà¸ ¡
ÏĢ ÏĦÏħ
I A
Ð¸ÑĤ ÐµÐ»Ñı
Ġà®ª à®¿à®©à¯įà®©
ĭà¸ ·à¹īà¸Ń
ĠÎŃ Î½
ĠÙĪ Ø±
ĠÕ Ŀ
å½© åĸľæ¬¢
á Ĭ
Ġ 99
Ġáĥ¯ áĥĶáĥł
à¹īà¸Ńà¸ ¢à¸
ÐµÐ½ÑĤ Ð¾Ð²
à¤¿à¤¸ à¥įà¤¤
à· ļ
«à¸¡à¸²à¸ ¢
ĠÐ¿ÑĢÐ¾Ð³ ÑĢÐ°Ð¼
à¹Ģà¸ §à¸
ç¦ı åĪ©
k ÉĻm
ĠâĢľ ,
à§ĩà¦¤ à§ĩ
ĠÐ¶ ÐµÐ»
es ta
Ø¬ ÙĦ
ĠÕ ¹
Ġi di
áĥ£áĥ ©
Æ°á»Ł ng
åħįè´¹ è§Ĩé¢ĳ
Ġinc ont
Ġsp raw
ìĥ ī
Ġ æľ¬
Øª Ø§Ø¨
igl io
Ġìŀ ĳ
Ã¦ r
Ġà°ķà±ĭ à°°
wer t
Ġm us
Ġà®¤à®² à¯Īà®µ
k l
æĻĤ éĸĵ
Ġà¤µà¤¿à¤ ¦
Ġà¦¸ à¦¾à¦°
Ø§Øª ÛĮ
Ã¼y Ã¼k
Ġ0 7
Ġlo c
à°Łà±įà°Ł à°¿
à®¾à® ¸
Ġà¦® à§ĥà¦¤
Ġà¤¹ à¥Ĥ
Ø±Ø¨ ÙĬØ©
p t
Ø¹ Ø¨
à¦¿à¦ķ à¦¾à¦°
Ġà°ªà±įà°° à°§
é ¨
r ÄĻ
ĠØ¯ÛĮ Ú¯Ø±
Ġdo po
íķĺ ê²Į
á»© ng
st ru
ÉĻy y
ĠB o
Ġà¦Ńà¦¾à¦² à§ĭ
Ġà®¤ à¯Ģ
ÙĪ ÙĬØ©
ĠáĥĶáĥł áĥĿáĥķáĥľ
Ľà¸ ±à¸įà¸
Ġà°Ń à°¾à°µ
è½ ¬
ãģ Ĳ
Ġda ll
ĠÎĶ Î¹
ĠÅ ģ
ĠÎ±Ïħ ÏĦÎ¬
à¦¸ à§įà¦ķ
Ġáĥ¨áĥĶáĥĽáĥĹáĥ®áĥķáĥĶáĥķ áĥĲáĥ¨áĥĺ
ĠCOM å½©åĸľæ¬¢
æ£ ĭ
Ð°Ð»ÑĮ Ð½Ð¾Ð³Ð¾
ĠãĢ ı
á½ ¶
à¥įà¤ ľ
Ġáĥ¡ áĥĿáĥ¤
Îķ Î¤
ĠÐĲ ÑĢ
ãģł ãģ£ãģŁ
Ã© ra
à¹īà¸Ńà¸ ¡
ÏĢ ÏĦ
æ¶ Ī
Ġ0 5
Ġ×Ĳ ×Ĺ×¨
Ġáĥ¬ áĥĲáĥĽ
Ħ à¹Įà¸
ÏĢÎ¿Î¹ Î®
Ġà°® à°Ĥà°¦à°¿
ĠÑĢ ÑĥÐº
Ġsp os
Ī à¸´à¸
Î¹ ÏİÎ½
Ġpro to
Ġx xx
æ¨ ¡
Ġ ä¹Ł
çº ¢
áĥĲáĥłáĥ £áĥļáĥĺ
Ĭà¸ ±à¸
Ð¸ÑĤÐµÐ»ÑĮ Ð½Ð¾
åģ· æĭį
Ġà¤¬à¤¤ à¤¾à¤¯à¤¾
à¹Ģà¸ģà¸ ¡à¸
ĠÑĢ Ñĭ
¡à¸µà¸ ¢
áĢ Ħ
Ġtr av
Ġáĥŀáĥł áĥĿáĥĳáĥļ
it Ã¤t
Ð¸ÑĩÐµÑģÐº Ð¸Ñħ
Ġword t
Ġthá» ±c
ìĺ¤ íĶ¼
íĮ Į
ĠáĥĴáĥĲáĥĵ áĥĲáĥ¬áĥ§áĥķ
at ti
à´ ķàµįà´ķ
di ÄŁ
Ø§Ùħ ÛĮ
åĵ ¡
d re
Õ Ń
Õ¡Õ ¦
Ġm Ã¼n
ÙĬÙĨ Ø©
Ġà®İ à®¨à¯įà®¤
nym i
an os
ÅŁ aq
Ġb a
ĠEn t
Ġà¤° à¤¾à¤·à¥įà¤Ł
Å¾ enÃŃ
Ġà°µà±Ĩ à°³à±įà°²
Ġalt ri
Ġç§ ģ
à¦¬ à¦¿
Ġne Å¾
im e
ang e
à¤® à¥įà¤®
ëĤ ľ
ãģ¨ ãģ¯
ĠØ¹ ÙĦ
Ġc iu
Ġà¦¤ à§ģà¦²
ĠÕ ¨
ÉĻr ÉĻk
à°¿à°¯ à±ĭ
Ġà®ĩ à®£
czy Äĩ
ach t
Ġ2 8
ou pe
Ġte k
ĠØ§ Ú¯Ø±
p i
Ġ×Ķ ×Ļ×Ĳ
áĥĽ áĥĲáĥľ
à¹Īà¸²à¸ §
Ġë§ ¤
à¥ĩ à¤¤
Ġà°ħ à°°
hal ten
ÏĢ Î±Î¹
Ġç µ
ĠÎĳ Îł
ĠÙĤ Ø¯
Ġáĥ¡ áĥĺáĥ¡áĥ¢
åį ĵ
é» ĳ
ĠÐ¾ Ð³
à¦ª à¦¿
ÏĨ Î¬Î»
Ġà¤Ĩ à¤§
Ġáĥĵáĥ¦ áĥĶ
Ïĩ Ïī
ÐµÑĢ Ð³
Ġdiff Ã©r
Ġà¦¬à¦¿à¦ ı
ŀ à¸´à¹Ģà¸¨à¸
Ïģ Î¿ÏħÏĤ
æľ ª
ĠÐ³ Ð´Ðµ
Ġà¦¬ à§įà¦°
ĠáĥĽáĥĲáĥ¨ áĥĺáĥľ
à¹Ģà¸¥ à¹Īà¸Ļ
ĠÎ¼ ÏĢ
Ġpro do
ĠÑħ Ð¾ÑĤ
m uÅŁ
¶à¸ ģà¸
ĠÎºÎ±Î» ÏįÏĦÎµ
ãĤ¤ ãĥ«
g ÃŃa
Ġà¤® à¥įà¤¹
åĽ Ľ
Ġà¤¨ à¤¾à¤¹à¥Ģ
áĥľ áĥĺáĥĶáĥł
à¹Ĥà¸£à¸ Ħà¸
ĠÐ³ Ð¾ÑĢ
à¤® à¤¾
à¥ĩà¤Ĥà¤¦ à¥įà¤°
Ġ à¸Ļà¸µà¹ī
Ð°Ð· ÑĭÐ²
Ġ à¹Ĥà¸Ļ
Ġà¤Ĺ à¤¾à¤Ĥ
Ġc al
áĥĶáĥķ áĥĲ
Ġà°ķà°¾à°Ĥà°Ĺ à±įà°°à±Ĩ
ÑĪ Ðµ
à°¡ à°¿
à®¿à®ķà¯įà®ķ à¯Ī
Ġth Ã´ng
dÄĽ l
ĠáĥĽ áĥĺáĥľáĥĺáĥ¡áĥ¢
Ġa ia
à¤ľ à¤°
Ġaia dingin
E W
Ġle bih
Ġj a
ÉĻs ini
Ġà°ķ à±ģ
Ġinf orma
Ġm ich
et tes
ĠK a
ë³ ¸
Ġt our
Ġà®ħ à®²
Ġà¦¤ à¦¥
à¤¾à¤ĩ à¤¨
Ġcom pr
ãģıãģł ãģķãģĦ
Ġd ur
Õ¡Õµ Õ«Õ¶
tir ak
ĠO r
Ø§ ÙĬ
Ø´Øª Ø±
Ġà¤« à¥Ī
Ļà§įà¦ ķ
id os
ãĤĪ ãĤĬ
ni ki
Ġà°µà°¿à°ľ à°¯
ê¹Į ì§Ģ
Ġo x
rz ym
×¨×Ĳ ×ľ
Ġd it
Ġlavo ro
×ŀ× Ł
Ġà°¬ à±įà°¯
Ġà®¤ à¯Ĥ
or so
Ġà¦¯ à¦¾
Ġh iss
áĥ® áĥĶáĥĵ
ģà¸²à¸ ¨
an cia
æ¬ ¾
Ġãĥ ı
áº¡ nh
ĠÏĢÎ± ÏģÎ¿Ïħ
ĠE uro
ĠÎ¬ ÏģÎ¸
Ġto ho
Ġáĥ¤ áĥĺáĥļ
Ġå¯ ¹
ç½ĳ ä¸Ĭ
ĠÑģÐ² ÑıÐ·
Ú© Ø§ÙĨ
ĠÎ³Î¹Î± ÏĦÎ¯
à¤ ĺ
ĠáĥĽ áĥĶáĥª
ĠÎł ÏģÏĮ
ĠÐ¼Ð°ÑĤ ÐµÑĢÐ¸
à®¿à®¯ à®¤à¯ģ
y la
à¸£à¹Īà¸§à¸ ¡à¸
Î½Î¿Î½ ÏĦÎ±Î¹
èĬ Ĥ
ĠÐ» Ð¸ÑĨ
Ġê² °
áĥĿáĥłáĥª áĥĺáĥĶáĥļ
° à¹ģà¸Ļ
ĠÎ² Î¿
à±Ģà°ª à±Ģ
Ð¼ ÐµÑģÑĤ
à°ªà±įà°ª à±ģà°¡
Ĭà¸µà¸ §à¸´à¸
Ġ2 7
v is
l ung
æ± Ł
Ģâ Ļ
Ġå½©ç¥ŀ äºīéľ¸
áĥĲáĥłáĥļ áĥĲáĥĽáĥĶáĥľáĥ¢
à¸µà¸¢à¸ ĩà¸
ÑĨ ÐµÐ½
ä¸ī çº§
Ġà¤ľ à¤¿à¤¨
à¹Ĥà¸Ķà¸ ¢à¸
Ð°Ð»ÑĮ Ð½Ð¾Ð¹
à¹īà¸Ńà¸ ¢
Ġà¤īà¤¸ à¤ķà¥ĩ
ĠØ§ÙĦØ¹ Ø§Ùħ
áĥł áĥĶáĥ¡
ãĥĥ ãĤ·
Ð½ Ð¸Ð¹
uch t
dz e
Ġà°ļà±ĩà°¸ à°¿
ç¶ ļ
Ġáĥ¥ áĥĲáĥłáĥĹáĥķáĥĶáĥļ
c co
àµģà´ ¨àµįà´¨
Ø« ÙĦ
rz ÄĻ
Ġne ll
eit en
Ġà°¸à°Ĥà°¬ à°Ĥà°§
Ġ×ķ ×¢
ad Ä±n
ĠÄĳ iá»ģu
z ÃŃ
Ġlu gar
Ġë ¹
Õ« Öģ
Ġse v
ta j
åħįè´¹ è§Ĥçľĭ
ar y
am il
Ġà®ķà¯ģà®± à®¿à®ªà¯įà®ª
ĠD Ã¶vlÉĻt
as iya
ÅĤu g
ãĥĥ ãĥģ
Ġz v
Ġà¤®à¥ģà¤ Ŀ
Ġmais on
ec n
ãĥ³ ãĤ¹
igl ia
nie r
ĠØ§ÙĦÙħ Ø±
ĠtÉĻl ÉĻb
Ġ×© ×ĳ
ÛĮ Ø²
à°° à±Ģ
Ġê° Ĳ
Ġge gen
uf f
Ġkdy Å¾
Ã ı
Ġthá» ©
ler in
áĥĿáĥľ áĥĿáĥĽ
Ġà¸ Ħà¸¸à¸ĵà¸
ier on
åŃ ĺ
Ġà°° à±Ĥ
à±ĭ à°²
ĠÏĢ ÏģÎ¹Î½
2 4
ĠÎķ ÎĽ
Å¼ a
Ġáĥ¬áĥĲáĥłáĥĽ áĥĿ
Ġn et
ç» Ļ
ĠÑĨ Ð²ÐµÑĤ
íķĺ ê¸°
Î²Î¬ ÏĥÏĦÎµ
à¥ĩà¤Ĥ à¤Ĺà¥ĩ
ĠáĥĲáĥ ¨
ĠÎł Î±Î½
ĠÐŀ Ð´
Ġà¦ī à¦¤à§įà¦¤
ĠÚ©Ø±Ø¯ Ùĩ
Ħ à¹Īà¸²à¸
ĠÎ¤ Î¹
åĬ Ł
Ð½Ð¾ÑģÑĤÑĮ Ñİ
ra i
ĠáĥĵáĥĲáĥ Ķ
§à¸ ¢à¸
ĠÏĢ Î±Î½
Ġà®¨ à®¿à®°
Ð¼ ÐµÑĤ
Ø° ÙĦÙĥ
Ĺà¸ ±
ĠÏĦÎµÎ» ÎµÏħÏĦÎ±
l Ã¨
ck y
åĽ ł
æĿ ¡
b et
ĠáĥĲáĥ Ĺ
à¹ģà¸ ľ
ÑĢÑĥ Ð¶
à¤Ĥ à¤ķ
Ġà¤µà¤¾à¤² à¥Ģ
à¹ ĭ
Ñ ĸ
à¹ģà¸ ªà¸Ķà¸
à¤°à¥įà¤ ļ
Äį enÃŃ
ĠáĥĵáĥĲáĥĻ áĥĲáĥķáĥ¨áĥĺáĥł
Ġt ener
Ð¾ÑģÑĤÐ¾ ÑıÐ½
dÉĻ t
Å ģ
Ġte ch
Ġd ar
áĥ£áĥ ŀ
à®¾à®± à¯ģ
Ġà¤ļà¥ģà¤¨ à¤¾à¤µ
Ġà°īà°¦ à±įà°¯
ie dy
Ġfon ction
Ġin d
Ġ×ĳ ×¡
à±ģà°Ĥà° ¬
Ġt ara
Ø§ÙĨ ÙĬØ©
Ġà¦¦à§ĩà¦¶ à§ĩà¦°
Ġà®ļà¯Ĩà®¯ à®²
Ġby la
ĠØ² ÙħØ§ÙĨ
Ġà° Ĭ
Ġ201 4
à¬ °
wa Äĩ
à¦¨ à¦¾à§Ł
Ġp ag
Ġà¦ Ŀ
ì¡ ±
sk ich
Ġg j
Ġdi ver
Ġà¤¬à¥Ģ à¤ļ
Ġtou jours
Ġg a
Ġà°ªà±įà°° à°¾à°°
tac tos
o p
ãĥ¼ãĤ ·
ĠØ¹ ÙĨØ¯
ra ng
à®¿à®² à®¿à®°à¯ģà®¨à¯įà®¤à¯ģ
ĠUn d
re ib
Ġot ros
Ġar ri
Ä±n Ä±z
à¦ª à§įà¦¤
Ġãĥ ĩ
ĠÙĨ Ø¯
áĥĲáĥķ áĥĶ
à¹Ģà¸ Ħà¸£à¸Ķà¸´à¸ķ
Ġ×ŀ× ł
æŀ ģéĢŁ
Ġk eine
à°¿à°Ł à±Ģ
ĠÎķ Î¯Î½Î±Î¹
Ġnas z
ÎŁÎ ¤
Ġ201 3
Ġ$( "#
å Ħ
çł ´
Ð¿ ÐµÑĢ
êµ °
ÎĻÎ ¤
à¶ §
ĠáĥĽáĥĶáĥĿ áĥłáĥĶ
Î½ Îµ
ĠÑģÐ¾ Ð¾Ð±Ñī
Ġt Ã©
Ã Ĥ
¢ à¸Ńà¸
Î¼ÏĨÏīÎ½ Î±
åĮ ħ
ĠÐ¿Ð¾Ð¼ Ð¾Ñī
ĠÃ £
ĠáĥĶáĥķáĥł áĥĿáĥŀ
Ķà¸²à¸ §
ÏģÎ· ÏĥÎ·
á»ķ i
ÐµÐ³ Ð¾Ð´
Ġt Ã©lÃ©
łà¸²à¸ ¢
Î¼Î± ÏĥÏĦÎµ
à§įà¦¦ à§įà¦°
à°Ĺ à°²
Ġæ ²
è ı
æµ İ
áĥļ áĥĶáĥĳáĥĲ
à¹Ģà¸£à¸µà¸ ¢à¸
ĠÐ¸ ÑģÐº
à¤® à¥Ģ
Ġà¤° à¥ĭ
ļà¸ Ĺà¸
ÐµÐ½ Ð½Ð¾Ð¹
į à¸²à¸
à¤Ń à¤¾à¤µ
i vo
Ġáĥ¨áĥĶáĥ¡ áĥĲáĥĳ
ĠØ¹ Ùħ
Ð¾ÑģÑĥÐ´ Ð°ÑĢ
Ġà¦¸à¦¦ à¦¸à§įà¦¯
k tu
Ġit ali
p ro
áĥļ áĥĶáĥĳáĥĺ
Ã§ ek
Ġà¤µà¤¿à¤ Ń
Ġdi gÉĻr
dz a
ë° ĺ
om e
Ġà¦¬à§ĩà¦¶ à¦¿
u ti
ĠÚ¯ Ø²Ø§Ø±
×ŀ× ł
Ġinf orm
ĠâĢ ¬
ĠØª Øª
ÅĻe d
Ġdies er
Ġk re
Ġà¤ªà¥įà¤°à¤¦ à¥ĩà¤¶
d ow
Ġp uis
ãģĦ ãģ¾ãģĹãģŁ
Ġà°¤ à±Ĩ
Ġt in
w iÄĻ
à®¯ à¯į
at os
Ġà¤¸à¥įà¤¥ à¤¿à¤¤
ĠØªÙĪÙĦ ÛĮØ¯
ĠD onna
Ġan cora
Ã¶y le
à°¤ à±įà°¨
Ġra pp
Ġre ci
Ø¹ ÛĮ
à¯Īà®¯ à®¿à®©à¯į
ìĪ ł
rÃ¡ t
ta ge
Ġà°ļà°Ĥà°¦à±įà°° à°¬
Ġà°īà°Ĥà°Ł à±ģà°Ĥà°¦à°¿
o ra
ĠÙħ Ø³Øª
à¦¤ à¦¿à¦ķ
Ġáĥĺáĥ¡ áĥ¢
Ġ à¸£à¸²à¸Ħà¸²à¸
ei ÃŁ
ä¹ ł
Ġd Ã¶v
Ġest Ã¡n
ÏģÎ³ Î±Î½
cz ki
ĠÎµ ÏĨ
ag a
áĥĲáĥ¡ áĥ¢
Ġà¨ ķ
äºº æ°ĳ
ĠÐ¡ Ð¿
Ġ0 3
á½ °
Ġà¤ħà¤¨ à¥įà¤¯
Ġáĥ¨áĥĶáĥ¡áĥĲáĥĳ áĥĲáĥĽáĥĺáĥ¡
Î» Î¹Ïĥ
ÐºÐ° Ñħ
Ġche z
ĠTÃ¼rk iye
ŀ à¸£à¸°à¸
ĠÎ¿ÏĢÎ¿ Î¯Î¿
å· ±
ĠÑĩÐµÑĢ ÐµÐ·
ë ĳĲ
áĥĲáĥĹ áĥĺ
Ġ0 00
Î¸ ÏģÏİ
bur g
ĠÑıÐ² Ð»ÑıÐµÑĤÑģÑı
ĠÙĦÙĦ Ùħ
ªà¸ ¡à¸±à¸
ÏĢÎ¿ Ïį
Ġsp Ã©
×ľ ×ķ
à¤¾à¤µ à¤°
éª Į
æĶ ¯
©áĥĶáĥķ áĥľ
® à¸
ÐµÐ½ÑĤ Ð°
Ġà¤² à¤¿à¤¯à¤¾
Ļ àµįà´
Łà¸¸à¸ķà¸ ļà¸Ńà¸¥à¸
ĠÐ» Ð¸
±à¸ĩà¸ ģà¸¤à¸
à¥ĩà¤¶ à¤¨
Ġà¦§ à¦°
Ġáĥ¬ áĥĺáĥľáĥĲ
Ġà®ª à®´
ÑĨ Ð¸Ð¹
ĠPro duk
Ġna wet
ĠiÅŁ tirak
Ġn enÃŃ
áĥĲáĥĸ áĥłáĥĵ
fÃ¼ hr
Ġà¤µà¤¿à¤¶ à¥įà¤µ
ĠÂ ³
Ġk á»
iy le
Ġul ti
dan ia
er os
Ġà¦Ĩà¦ª à¦¨à¦¿
m Ã©
ĠqÉĻb ul
Ġw el
ëĿ¼ ìĿ¸
à®ķ à¯ģ
ĠØª Ø¬
L CJ
Ġà¤ľ à¤²
Ġu cz
ãģĵ ãĤį
tiv itÃł
Ġil k
Ġç ´
Ġìŀ ¬
ĠD et
ĠC or
à¤Ĥ à¤¬
D F
o i
ÅĽ wiet
ica ciÃ³n
al en
ãģ« ãģĬ
ĠØ§ÙĦØ£ Ø³
Ġex p
ç´ Ħ
ĠM il
Ġan no
ĠíĬ ¹
v elo
Ġà®¤à¯Ĩà®° à®¿à®¯
ĠdÉĻy iÅŁ
Ġc ap
Äį as
ĠáĥĿ áĥŀ
à¹ĩà¸ Ķà¸
ÙĬ Ø¨
ä¼ Ĺ
Ġg em
Ġà¦ī à¦ł
ĠÎŃ ÏģÎ³
czne go
ÏģÏī ÏĥÎ·
Ġsp rze
Ġáĥĵ áĥĺ
æŀ Ĳ
1 6
Ð¸Ð± Ð¾
à±ĥà°· à±įà°£
ĠÎĳ ÏĢÎ¿
à¤¦ à¤¾à¤°
ĠáĥĺáĥĴ áĥĺ
Î¼ÎŃÎ½ Î¿Ïħ
ĠÐ´ Ð°Ð¶Ðµ
ĠØ±ÙĪ ÛĮ
Ġà®µ à®¿à®µ
ļà¸£à¸´à¸ ģà¸²à¸£
Î³ ÎµÎ¹
ç ı
Ð¿ÑĢÐµÐ´ ÐµÐ»
Ġà°ļà±Ĥà° ¡
áĥĶáĥķ áĥ¡
ķà¸²à¸ ¡
ĠÏħ ÏĢÎµ
Ġà¦¬à¦¿à¦· à§Ł
ÑĥÐ± Ð»Ð¸
ĠT ra
à¸£à¸±à¸ Ĳà¸
ĠÏĥÏħ Î³Îº
Ġà®® à¯ģà®ķ
ĠN EW
çĶµ æ¸¸
éĤĢè¯· çłģ
æ Ĳ
Ġáĥŀáĥł áĥĿáĥ¤
à¹Ģà¸£à¸µà¸ ¢à¸Ļà¸
ĠÑģÐ¿ Ð¾ÑģÐ¾Ð±
à¤¾à¤ª à¥įà¤¤
à¥Ģ à¤ľ
Ġà¹Ģà¸ ŀà¸·à¹Īà¸Ńà¸
Ñĭ Ð»
ª à¸Ńà¸ļà¸
P art
Ġan da
ĠáĥĹ áĥķáĥĺáĥĹ
Ġm el
Ð°Ð»ÑĮ Ð½ÑĭÐµ
×Ļ×ł ×ķ
Ġimp ort
al ny
Ġ ÅĻ
Ġáĥ£áĥ ĳ
ĠM en
Ġda x
t nÃŃ
ĠÙĪ ÙĦ
à¤¾à¤ķ à¤°
Ã Ī
ar zy
ĠÂ ´
Ã ĩ
iá» ħn
Ġà¦¦à§ĩà¦ĸ à¦¾
Ġà°ªà±įà°°à°Ńà±ģà°¤à±įà°µ à°Ĥ
à¯ģà®¤ à®¾à®©à¯į
ÄŁ er
à· Ħ
ìĦ Ŀ
à¤¿à¤¯ à¤¾à¤Ĥ
Ġby ÅĤ
Ġà°ķà°¨ à°¿à°ª
ãģĳ ãĤĭ
Ġs m
ĠØ§ÙĦØ ¢
×ł ×¡
à¯ģà® Ļà¯įà®ķà®³à¯į
ĠMad rid
Ġà¤¶ à¤¾à¤®
paÃ± a
Ġà¦¹ à¦ĵ
Ġmo i
f ic
ì¦ Ŀ
ĠÃ Ģ
Ġà°ħ à°Ĥà°Łà±ĩ
ä» ķ
Ġr ych
Ġs ÉĻb
in ter
uyá»ĩ n
Ġsz czeg
ãĥķãĤ ¡
Ġà°İ à°¦
Ġa vait
Ġe uro
Ġáĥ¤ áĥĲáĥ¥áĥ¢
à¸£à¸ ĸ
Ġà®Ĵ à®©à¯įà®±
éĹ® é¢ĺ
Ġëĭ ¹
ÙĩØ± Ø§ÙĨ
ÏĪ Îµ
ĠÚ¯ ÙĪ
ĠÎ´ Î¿
å¿ ħ
áĥª áĥĺáĥĲ
æł ¡
åĳ ¨
ÑĢ Ð¾Ñģ
ĠÙħ Øµ
ÏĦÎ¿ ÏįÎ½
Ġà¤ħ à¤Ĺ
Ġ= >
ĠÏĦ Îµ
ĠÐ½ÑĥÐ¶ Ð½Ð¾
ad ores
à°¾à°¯ à°Ĥ
Ħ à¹Į
ÏĥÏĦÎ· Î¼Î±
åĪĨéĴŁ å¿«ä¸ī
ĠÐ¿ÑĢÐ¾ ÑĦ
Ġo per
Ġáĥ¡áĥĲáĥŃ áĥĺáĥł
ªà¸´à¸ Ĺà¸ĺ
Î¼ Î¯Î±
Ġle g
ĠÐ¡ Ð
ĠÂ ¼
«à¸ į
ÎĳÎ ľ
áº¡ ng
ĠØ¨ Ø²
è¯ Ŀ
è¶³ çĲĥ
Ġ áŀ
Ġáĥ¡áĥ¬ áĥĿáĥł
à¹Ģà¸ ŀà¸
Ð¸ÑģÑĤ ÑĢÐ°
à¤Ĥ à¤¸
Ġà®İà®©à¯įà®ª à®¤
Ġà¸ ĭ
ĠÐºÑĢ Ð°Ñģ
Ĺà¸µà¹Īà¸ Īà¸°à¸
ia d
Ġn in
Ġáĥª áĥľáĥĿáĥĳ
gen d
ĠÐ´ Ð¸
Ġà¤ī à¤¸à¥ĩ
à±ģà°ķ à±ģà°¨
Ġl Ã©
ĠVer s
ĠáĥĿ áĥ¯áĥĲáĥ®
Ġtak ie
Ã «
ĠØ¨ ØŃ
×¢ ×ª
à§ «
ĠA z
q a
Ġë ¸
Ġà°¦ à±Ĥà°°
Ġein fach
à¥ģà¤ķ à¥įà¤¤
Ġà¦Ĺ à§ĩà¦Ľà§ĩ
Ġà®ªà¯Ĩ à®¯
ĠM ujeres
Ġtrab aj
ter e
Ġs or
Å¯s ob
ale Å¼y
Ġà¦¬ à¦¸
Ġà°İ à°µà°°
Ø§Ø °
ĠNEW Part
pa i
Ġëĭ ¨
em Ã¡s
åŃĹ å¹ķ
à¤ķà¥įà¤¤ à¤¿
Ġh is
à°° à°¿à°Ĥà°ļ
Ġà®ļ à¯Ģ
Ġer a
Ġà¦ħ à§įà¦¯
ĠI hr
Ġh esab
Ġa ma
âĢ¦ âĢ¦
ĠØ§ Ø·ÙĦ
ÙĤ Ø§Øª
Ġ×Ĳ ×ł×Ļ
å Ĥ
Ġv iÃªn
Ġi hre
áĥ£áĥ «
ķà¸ ¥
×Ļ×ł ×Ķ
å®ī è£ħ
Ġåħ įè´¹
à°¨ à±Ĥ
ÎĻÎ Ķ
Ġprof ession
ĠÎķ Îł
Ġà°ķà±Ĭ à°¨
áĥĲáĥ¨ áĥĿáĥłáĥĺáĥ¡
Ġæ ķ
è¿Ľ è¡Į
ĠÐ¾ Ð½Ð°
à¯ģà®µ à®¤à¯ģ
ÎµÎ¹ Î±ÏĤ
à¤°à¥įà¤ ¡
áĥĶáĥĿáĥĳ áĥĺáĥ¡
Î»Îµ Îº
ÑĨ ÐµÐ²
Ġmo is
ĠÙĩ ÙĬ
à¹Ģà¸ Ķà¸
ĠÎ± ÏĢÎ±
1 4
ĠÑĤ Ð¾ÑĢ
ĠÕ į
áĥĺáĥł áĥĶáĥĳáĥĲ
³à¸ Ħà¸
ĠÎ´ Ïħ
Ġx Ã¼sus
ĠÐŁÑĢ Ð¸
Ġj es
ª à¸µ
Î» Î¹Îº
da de
Ġ4 8
åİ Ĩ
æ¸¸æĪı å¹³åı°
ç»ĵ æŀľ
áĥĲáĥ¦ áĥĽ
à¹Ī à¸Ńà¸Ļà¸
ĠÐ£ Ðº
an iu
ìłģ ìľ¼ë¡ľ
à¹ Ĭ
ÐµÐ½ Ð¾
łà¸±à¸ ĵà¸ĳ
Ġk ap
Ġ13 9
Ġáĥŀ áĥĲáĥ¡áĥ£áĥ®
Ø§ ÙĪØ±
ĠÑģ ÑĥÐ´
à¦ŀ à§įà¦ļ
Ġà°¨ à°¾à°ķà±ģ
h et
Ġr ou
áĥĲáĥłáĥ £áĥļ
à±Ī à°Ł
ĠÚ¯ Ø°
O L
ie re
Ġpro je
p ag
à®¿à®°à¯ģà®ķà¯įà®ķ à®¿à®±
eler i
à®¿à®¤ à¯į
ĠktÃ³ ra
á» £
Ġpre m
ĠP M
Ġà¤ķ à¤ª
Å¾ en
ãģ İ
à¤µ à¤¾à¤²
ste ll
Ġque llo
Ġà®¤à¯ĩ à®µ
Ġt ÉĻh
h at
à§Ģà¦° à¦¾
ĠÙ¾ Ø±ÙĪ
Ġpa ÃŃs
ent lich
Ġà¤¬ à¤²
é¡ Į
Ġko lej
Ġquel ques
ĠÙĬÙħ ÙĥÙĨ
ti ci
Ġkh Ã¡ch
Ġà°¨ à±Ĩà°²
l in
Ġà¤ķ à¤¾à¤Ĥà¤Ĺ
ÅĤa w
ran k
Ġ×Ĳ ×ł
Ġà¦¹ à¦¾à¦°
larÄ±n Ä±
Ġà®ª à®Łà¯įà®Ł
è² ©
áĥĲáĥĻ áĥĶáĥĹ
ļ à¹īà¸²à¸Ļà¸
Ġë¶ Ī
åĨ ³
Ġà¤ĩ à¤¤
Ġà° ĺ
ÎŁÎ ł
rÃ© e
ĠÏĦ ÏģÎ¿
n it
Ġáĥŀ áĥĲáĥłáĥ¢
Ġ ä¸Ĭ
æİ §
Ð¸ÑĤ ÐµÐ»ÐµÐ¹
ĠD I
ĠÎºÎ¬Î½ ÎµÎ¹
Ġne lle
ĠáĥĽáĥĲáĥĺ áĥľ
ĠÎµÏħ ÏģÏİ
ÐµÑĢ ÑĪ
ĠÚ©ÙĨ ÙĨØ¯
çµ Ĳ
à¹ģà¸ ¥à¸°à¹Ģà¸
Î³ÏģÎ± Î¼Î¼Î±
æĹ¶ éĹ´
Ð°Ð»ÑĮ Ð½Ð¾
ĠI S
Ġáĥĺáĥ¡ áĥĺáĥľáĥĺ
à¹ģà¸Ļà¸ °
Î¯Îº Î·
à°Ł à°¨
ĠÐ¶ ÐµÐ½
Ġnie z
Ĭà¸²à¸ ķà¸´
ĠÎ¶ Î·
Ġc ro
ĠP rzy
è ĳ
Ġç ¾
å½ ¢
ĠáĥĽ áĥĶáĥĴ
Ġà¸ «à¸²à¸
ĠÐ· Ð°Ð½
Ġni Å¼
Ġà¦¤ à§ĭ
ķà¹Īà¸²à¸ ĩà¸
ĠÐ¿Ð¾Ð· Ð²
Ī à¸µ
Ġf re
Ġà¤ª à¥ģà¤°
ĠáĥĽáĥĶáĥ¢ áĥĺ
à¦Ĥ à¦¶
ĠÐ³ Ð»
ĠI hre
Ġno g
v ent
el ah
áĥĿáĥļ áĥĺáĥ¡
Ġà®ķ à®¤
ĠnÄĽ j
Ġà°¸ à±Ĩ
Ġg Ã¼
Ġà®µ à®¿à®´
á»į n
jÄħ cy
k Ã½
Ġk ein
Ġbar ÉĻdÉĻ
à¯ģà®µ à®°
ĠØ§Ø·ÙĦ Ø§Ø¹
Ġà¤Ĳ à¤¸à¥ĩ
åľ¨çº¿ æĴŃæĶ¾
Ġà°ħ à°ķà±įà°ķà°¡
Ġ×ľ ×Ľ
à¥ĥ à¤·
ÉĻ ng
ĠØ§ÙĦØ³ ÙĬ
Ġl id
Ġ":" "
Ġ6 00
ĠëĶ °
Ġà¦ĵ à¦ĩ
n et
ĠÂ ±
Ġà¤Ĩà¤ª à¤ķà¥ĩ
ĠÃ Ķ
à§ĩà¦ ¯à¦¼
Ġà°Ĩ à°¸
Ġqu ando
ĠØ ¸
Ġwy so
à¯Ĭà®° à¯ģ
Ġen cu
æĥħ åł±
Ġl Ã½
ä¸Ģ çº§
ÛĮÙĨ ÛĮ
à°¾à° Ń
ÄŁ r
di en
d Åº
áĥ® áĥļ
à¸´à¸ ĩ
a ta
æ ĵ
Ġà¤Ĩ à¤°
à°¤ à±įà°µ
Î¼Î¿ Î½
ãģĹ ãģı
ÎŃÏģ Î½Î·
c oup
áĥ¤ áĥĶáĥł
æ£ĭ çīĮ
Ġå Ń
ĠÐł Ð°Ð·
Ġz ro
ÏīÎ½ Î¹Ïĥ
Ø§Ø± Øª
áĥĲáĥľ áĥĻ
ÎµÎ¯ Î¿Ïħ
ĠÐ³Ð¾Ð´ Ñĥ
ĠÃ§ at
ĠB l
à¹Ģà¸£à¸ ·à¹Īà¸Ńà¸ĩ
ĠÏĥÏĩ Î¿Î»
à© °
ĠÐ¼ Ð¸ÑĢ
à¯Īà®ķà¯įà®ķ à¯ģà®®à¯į
ĠáĥĽáĥĿáĥľ áĥĲáĥ¬áĥĺáĥļ
ľà¸ ¥
Î»Î± Î¼Î²
Ġpay s
ĠÐ¸ Ñģ
×Ĳ ×ª
Ġà¸ Ħà¸§à¸²à¸¡à¸
ĠÏĥÎ· Î¼Îµ
à°¦ à°°
kie go
ł áł
æĢ ģ
Ġà¨ ¸
áĥ¢ áĥĶáĥłáĥĶáĥ¡
±à¸ĩà¸ «à¸§à¸±à¸
Ð¾Ð± Ð°Ð²
Ġà°ļà±ĩà°¸à±įà°¤ à±ģà°¨à±įà°¨
Ġpr incip
Ġà¸ģà¸²à¸£à¸ ŀà¸Ļà¸±à¸Ļà¸
ĠÑĥÑģÑĤ Ð°Ð½Ð¾Ð²
«à¸¥à¸²à¸ ¢à¸
Ġ æľĢ
à¥ Ľ
Ġ _
el f
ĠÐĺ Ð·
ëĵ ł
Ġà®ª à®¿à®Ł
Ġvá» ¥
ĠnÄĽ k
Ġáĥľ áĥĲáĥ¬
ar aq
f or
Ġà°ķà°¾à°° à°£
ĠØ§ÙĨØ¬ Ø§Ùħ
à¦¿à¦ «
c Äħ
à®¿à®¯ à®®à¯į
ĠÙĪ Ø¥
ĠSe x
c os
ãģĳ ãģ¦
iy at
à¥ĩà¤Ĥ à¤Ł
Ġdi fer
à±įà° ŀ
dz Äħ
ĠØ§ÙĦ Ùī
Ø® ÙĦ
Ġà§§à§ ¨
Ġà¦°à¦¹ à¦®à¦¾à¦¨
Ġà¦Ľ à¦¾à¦¤à§įà¦°
à®¿à® £
Ġà¦Ń à¦¾à¦ĩ
iz ÉĻ
Ġmo do
Ġà¦ªà¦°à§įà¦¯ à¦¨à§įà¦¤
à®¾à®³ à®°à¯į
ì² ĺ
Ġtara f
à°°à±įà° ·
is ter
×ķ× £
Ú© ÛĮ
ÙĤ Ùħ
± áĢ
Ġà¤µà¤¿à¤ §
æ¯Ľ çīĩ
à¤¦ à¤¾
Ġdzie ci
Ġka Å¾
Ġà®® à®¾à®±à¯įà®±
ãģ§ ãģĹãģŁ
h am
áĥł áĥĶáĥĳáĥĺáĥ¡
Ħà¸ ³à¸
à¦¾à¦® à§ĩà¦°
Ġå¾ ·
Ġà°µ à±ĩà°¸
Ġà´ ¤
Î¼ Î¼
ĠL and
ÏĢÎ¿Î¯ Î·ÏĥÎ·
Ġm om
Ġáĥ¡ áĥ®
éĽĨåĽ¢ å®ĺç½ĳ
à¤§ à¥įà¤¯à¥ĩ
ĠÑĢ Ð¾Ð´
ĠØ§ÙĦÙħ Ø³Øª
ĠÎļ Î¿
Ġc áº¥p
ĠáĥĽáĥĿáĥ «
ĠÎĶÎ¹Î± Î²Î¬ÏĥÏĦÎµ
ĠÐŁ Ð¾Ñģ
Ġs ÉĻh
kie j
à¹ĩà¸ Ħ
ÎĹ Î¤
åĮ Ĺ
ÑĢ Ð°Ð±Ð¾ÑĤ
ĠØª Ø§Ø±ÛĮ
áĥķ áĥĺáĥłáĥ
à¹ī à¸Ńà¸Ļ
Ïĥ Î¹Î¬
Ġà°²à±ĩà°¦ à°¾
ĠÐ³ Ð»Ð°Ð²
Ġmuch o
Ġw ith
Ïĥ Î®
Ġn ov
Ġì¢ ĭ
æĿ ĥ
Ġå İ
9 8
Ġáĥ¡áĥ®áĥķ áĥĲáĥĵáĥĲáĥ¡
Ġà¸ ¨
ĠÐ¾ÑĤ Ð²ÐµÑĤ
à¯ĭ à®°
dÄ± ÄŁÄ±
Ĺà¸ĩà¸ ļà¸Ńà¸¥
Ð¼ Ð¸Ð½
« à¹īà¸Ńà¸ĩà¸
er en
Ġà¤¬ à¥ĭ
áĥĶáĥłáĥ «
Ġ×Ķ ×Ļ
Ð¿ Ð¾Ð»
any ak
Ø§Ø±ÙĬ Ø®
ro b
Ġh or
ĠáĥĴ áĥĿáĥĴ
iÄĻ ki
ĠÙħ ÙĬ
Ø§ Ø³Øª
Ġíķľ êµŃ
Ġà¦¥ à¦¾à¦ķà§ĩ
Ġí ļĮ
ĠS er
le ur
Ġsu per
Ġà®ªà¯ĭ à®©à¯įà®±
Ġe au
Ġqu a
Ġà¤īà¤¤à¥įà¤¤ à¤°
ob a
ar Ä±
Ø¨ ØŃ
owa ÅĤ
Ġm uss
ê°Ģ ê²©
íĤ ¤
Ġd ost
à§ģ à¦¸
ĠÚ¯Ø²Ø§Ø± Ø´
Ġvo ir
es ti
qu ier
×ŀ ×Ļ×Ŀ
h Ã¶r
Ġà®¤à¯Ĭ à®´
Ġãĥ Ľ
Ġtrava il
Ġge b
Ġby lo
à¦¿à¦¯à¦¼ à§ĩ
à¤¤ à¤°
Ġà¤ī à¤¦
li que
gg ia
Ġà¤¶ à¥įà¤°à¥Ģ
éĢ £
ÛĮØ¯ Ùĩ
Ġk ay
ä¼ Ĭ
Ġáĥ® áĥĲáĥļáĥ®
à¹Ģà¸ģà¸´à¸ Ķà¸
Ġà®µà®¾à® Ļà¯įà®ķ
Ġéĩį åºĨæĹ¶æĹ¶å½©
Ġav is
à¤ ĩ
Î»Î· Î¼Î±
Ġal ors
Î¾ Ïį
Ġq an
áĥĲáĥĺ áĥľ
å°± æĺ¯
ç ¬
ÑĢ Ð°ÑĤÑĮ
n iÄĻ
ĠÎ£ ÏĦÎ¿
Ġc r
áĥĲáĥļ áĥĺáĥ¡
Î¿ Î³
ĠÐ¾Ð±Ð»Ð°ÑģÑĤ Ð¸
ĠÙĪ Ùİ
ÙĪ Ùĥ
Ħà¸ ·à¸Ń
ĠÏĦ Î¯
à© ĭ
Ð¸Ðº Ð¾Ð²
Ġà®Ĩ à®£à¯įà®Ł
Ġáĥ® áĥĿáĥļáĥĿ
¸ à¹Īà¸¡à¸
ĠÏĮ ÏĢÎ¿Ïħ
as jon
ÑĢ Ð¾Ð¿
Ġt anto
Ĺà¸ ¢à¸
Î¼Î¿ Ïģ
ko rzy
ĠíĻ ķ
æĸ ½
è´ Ń
Ġåħ ¶
Ġáĥ¡áĥĲáĥĽ áĥĺáĥľáĥĺáĥ¡áĥ¢
à¹Ī à¸Ńà¸Ļ
ĠÐ¿Ð¾Ñģ Ð»ÐµÐ´
ch te
Ġà¦® à§įà¦¯
à¹Ģà¸ª à¸Ļ
ĠÐºÐ» Ð°ÑģÑģ
¡à¸ ±à¸Ļ
ĠÙĨÙħ ÛĮ
Ġà¤¬ à¤ļ
ĠáĥĴ áĥĲáĥĹ
Ġvl ast
Ġ. ,
Ġx e
h aus
Ġs el
Ġh ak
ĠáĥĴ áĥĲáĥĶ
Ġà¦ķ à§įà¦¯
ãĥ¬ ãĤ¹
ĠÅĽ wia
Ġtrab ajo
Ö ¸
Ġ×ĳ ×§
c ka
Ġf aut
Ġsie mpre
Ġv ita
c ess
ãģ® ãģĮ
à¥įà¤ ł
ìĹĲ ëĬĶ
Õ¡Õ ·
ĠnÉĻti c
ĠØ¹ÙĦÙĬ Ùĩ
st up
ĠH aus
Ġà®ķ à®¾à®£
ĠI D
ãģĳ ãģ©
ãĥ³ ãĤ¯
iy i
ĠØ§ÙĦØ¬ Ùħ
Ġà°¬ à°¾à°§
cel ona
Ã³ lo
Ġe ing
Ġsi g
Ø± Ø³
à±ĥ à°·à±įà°Ł
ãģ¨ ãģª
Ġà¦¯ à¦¦à¦¿
èī ĩ
à¤¾à¤¸ à¥įà¤¤
Ġl ay
Ġd ni
Ġà¤ķ à¤Ĥà¤ª
à®ªà¯įà®ª à¯ģ
in n
Ġà°¦ à°°à±įà°¶
ĠÄį i
áĥĺáĥ§ áĥķ
à¹Ģà¸ ŀ
Ġà°ª à±įà°²
çĶ ±
ĠØ£ Ø³
ĠØª ÙĩØ±Ø§ÙĨ
ÏģÎ¹ Î¸
ÙĩâĢĮ ÙĩØ§ÛĮ
ĠÎŃÎ½Î± Î½
Ġ2 6
áĥĽ áĥĶ
à¨ ¤
Ĉ Ĉ
ÑĤ Ð°
tif s
Î´ Î¿ÏĤ
er d
áĥĶáĥĳáĥĺ áĥĲáĥľ
ĠÎĿ ÎŃ
Ð°Ð¹ÑĤ Ðµ
Ġsy ste
ÉĻhs il
Ĥ à¹īà¸Ńà¸
ÏĦÎ¹Îº Î¿
Ġé Ļ
ÑĢ Ð°Ð´
Ġà¤µ à¥Ī
ĠáĥłáĥĿáĥĽáĥĶáĥļ áĥ¡áĥĲáĥª
¸à¸ ¡à¸
ÏĨ ÏīÎ½
Ã¡ Å¡
ĠÑĢ Ð°Ð¹
ĠâĢĿ ,
Ĺ à¹Įà¸
Î¸ ÎµÎ¹Î±
Ġes o
Ġà°ķ à°³
Ġæ µ
åĪĨ pk10
ç İ¯
Ġ201 2
Ĥ à¹īà¸Ń
ĠÐ¿Ð» Ð°Ð½
ê ¶Į
us am
Ľà¸£à¸°à¹Ģà¸ łà¸
Ġ" ,
à¹īà¸²à¸ ¢à¸
Ġà®µ à®¾à®°
Ä±s Ä±
ĠáĥĽ áĥĿáĥĵ
Ġà°µà°¾à°° à°¿
ĠÐ²Ñģ ÐµÐ³Ð¾
a ce
Ġc Ã¹ng
Ġ×Ĳ ×Ŀ
ie urs
ĠáĥŀáĥłáĥĶáĥĸ áĥĺáĥĵáĥĶáĥľáĥ¢
Ġtr ze
à§ĩà¦Ľ à¦¿
un de
ll as
íı ī
à¦¾à¦ ·
Õ«Õ ¯
asÄ±n Ä±
ll ando
ĠØª ÙĤ
ĠìĤ¬ ëŀĮ
Ġpr vnÃŃ
ĠM on
Ġà®µ à®²
Ġcel a
Ġà¤¦à¥Įà¤° à¤¾à¤¨
ol or
s I
p od
Ġà°° à°Ĥà°Ĺ
Ġris p
çĶ º
g ang
ĠnhÆ° ng
Ġj ou
ĠéĢģ æĸĻçĦ¡æĸĻ
ĠS al
ul ta
ãĤĴ è¦ĭ
aj es
Ġà°ķà±Ĭ à°¨à±įà°¨à°¿
Õ¥Õ ¯
lÉĻÅŁ dir
å ³
Ġà¤ķà¤¾à¤Ĥà¤Ĺ à¥įà¤°à¥ĩà¤¸
×¨ ×Ļ
Ä Į
ĠV Ã½
Ġwar to
ĠØ¹ Ø§Ùħ
à¤ľ à¥ĩ
Ġà¦¬à¦¿à¦ ª
Ġà®ļà¯Ĩà®¯à¯įà®¤ à¯ģ
áĥĽ áĥľ
à¸£à¸µà¹Ģà¸ ¡à¸µà¸¢
Ġb en
è§Ħ å¾ĭ
Ġor gan
Ġprzy pad
ĠÎ± Î¹
à´¿à´ ķàµįà´ķ
ĠÏĥÏĦÎ¿ Î¹
Ġà¤®à¥ĭ à¤¦à¥Ģ
ĠáĥĴáĥĲáĥľ áĥ®
åı ²
3 8
Ð² Ð¾ÑĢ
èĩª æĭį
Î³Ïī Î³
à®¾à®Ł à¯ģ
ĠáĥĲáĥ¥ áĥ¢
Î¶ Î·
ĠÐ¿ÑĢ Ð¾ÑģÑĤÐ¾
Ġ ur
ĠmÃ¼ h
Ħà¸£à¸ ĩà¸
ĠÎļ ÎĳÎĻ
ãĢ Ĭ
Ñı Ð¶
à¤ª à¤°
ĠáĥĻ áĥķáĥļ
Ħà¸£à¸ ·à¹Īà¸Ńà¸ĩ
Îķ Î¥
Ġà¦ħ à¦ª
Ð¾ÑĢ Ð¸Ð¸
Ġch icas
«à¹ĩ à¸Ļ
ĠÎĶ Î®
Ġd ist
Ġà¦¬ à§ľ
à¥įà¤¯ à¤¾à¤¸
5 8
à¤¾à¤ļ à¥įà¤¯à¤¾
áĥĺáĥ¡ áĥĻ
¡à¸ ±à¸Ļà¸
ĠÑģ ÐµÐ¼
à¯ģà®Ł à¯įà®Ł
iy et
à¸£à¸²à¸ ¢
ĠÐ² Ð°Ð¼
Ġà¹Ģà¸¡à¸ ·à¹Īà¸Ń
Ġpod le
à§ģà¦¦à§įà¦§ à§ĩ
áĥļáĥĶáĥĳ áĥ¨áĥĺ
ĠB ei
Ñı Ñģ
×ķ×ľ ×Ŀ
Ġà®¤ à®ķ
Ġà°ªà±įà°° à°¾à°Ĥà°¤
Ġj ÃŃ
áĥ¡ áĥĲ
cj on
ĠB r
m ay
ÃŃ o
con tre
c ur
à§ĩà¦¤ à§įà¦°
ãģ® ãģĬ
áº¥ u
ÙĨ ÛĮÙĨ
Ġíķ ł
Ġd urante
ĠM i
çĬ ¶
ru ik
éŁ ³
Ġpub lic
as sen
w ier
à®¤à¯įà®¤ à®¿à®±à¯įà®ķà¯ģ
b res
ĠvÃŃ ce
Ø¹ ÙĪØ¯
Ã§ e
Ġn Ã¼m
Ġì »
ĠPos tÃ©
Ġj ours
ÙĬ Ø§ÙĨ
w as
Ġà°Ĩ à°«
cz na
ĠÅŁ ÉĻk
Ġà¦¢ à¦¾à¦ķà¦¾
ä¼ ¦
Ġ×Ľ ×Ĳ
à§Ģ à¦²
Ġm am
k ÅĤa
Ġà®®à¯ĩà®² à¯ģà®®à¯į
Ġà¤ķà¥Į à¤¨
ëĶ Ķ
Ġbe im
ĠáĥĶ áĥĽ
ªà¸ ĩà¸
ãģĭ ãĤĬ
çĶµ åŃĲ
Ġex em
Ġdo ve
Ġ Ïī
à¤¸ à¥įà¤ķ
Î´ Ïī
à¤Ń à¤¾
Ġáĥ£áĥłáĥ Ĺ
Ġé Ĥ
æľī éĻĲ
ĠÑĨ ÐµÐ½ÑĤ
ļ àµįà´ļ
ĠÏĢÏģÎ¿Ïĥ Ïī
ĠÙĨ Ø³
áĥĲáĥ¦áĥĽ áĥĵáĥĶáĥĴ
ĠÎ¤ Î¿Ïħ
ĠÐ± Ð°Ð½
ill as
ĠÃ§ Ä±k
ģà¸ §à¹Īà¸²à¸
ÏĦÎ¹ÎºÏĮ ÏĤ
æĬĢ æľ¯
ĠÐ²Ñģ ÐµÑħ
à¤°à¥įà¤ ķ
áĥĿáĥ £áĥ
ŀà¸±à¸ Ĵ
ĠÎ½ ÏĮ
à§įà¦¯ à§ĩ
ĠÑĨ ÐµÐ½
Ġph áº©m
±à¸ģà¸ ©à¸
ÏĢÎ¿Î¹ Î·
Äį nÄĽ
Ġje g
à¤¾à¤Ĥà¤ļ à¥įà¤¯à¤¾
à© ±
Ġæ ±
ĠáĥĹ áĥķáĥĲáĥļ
à¸Ńà¸ ·à¹Īà¸Ļ
ĠÐ ®
ka mi
èª ¿
Ġà¸ ¡à¸²
ÑıÐ± ÑĢÑı
Ġà¹ģà¸ ¥
Ġv i
Ùĩ Ø¯
Ġáĥ¡ áĥĺ
à°¾à°¸ à±į
ÐµÑģÑĤ Ð¸
Ġà¦¸ à¦°à§įà¦¬
ĠH and
ĠT er
Ġëª ©
Ġáĥ¢ áĥĶáĥł
Ö °
×ĳ ×ķ×ĵ
Ġdes arro
ĠÙĬ ØŃ
id Ã©
al nie
ĠÃ¶z Ã¼n
ti j
ãĥ¼ ãĥ³
à§ģà¦ ģ
ĠK inder
Ġpersonn es
Ġg erek
ones ia
Ġter se
ä¸Ńæĸĩ åŃĹå¹ķ
Ġin n
ĠØ² ÛĮØ±
×© ×ķ×ª
en y
Ġì½ ľê±¸
ìķĦ ê°Ģ
á» «
Ġà°¸ à°Ń
Ġìĥ Ī
Ġà®ķà®° à¯ģà®¤à¯įà®¤
ig er
è£ ½
ci u
à°ķ à±įà°°à°®
ill o
ĠÙĪ ØŃ
Ġà¦¤ à§Ī
v ar
Ġà¤ķ à¤²
ãģ«ãģª ãĤĭ
à¯Ī à®¤à¯į
à°¾à°° à°£
z pie
Ī ¬
à¤¾à¤µ à¤¾
p ond
is me
ª áĥĺáĥļ
ĺà¸¸ à¸£à¸
ÙĦÙĬ Ùħ
Ġå¹ ¶
Ġse gu
ĠG i
ÏģÏī ÏĢÎ±
Ġà¤¸ à¥ģà¤¨
Î¹Î½ Î®
Ġà¤īà¤¤ à¥įà¤ª
Ġáĥ¡ áĥĺáĥ¡
åİ ĭ
å® Ŀ
ĠÐ¼ ÐµÐ´
Ġi d
Î½ ÎµÎ¹
ãģ§ ãģĤãĤĭ
ĠáĥĵáĥĲáĥ ¬
Î»ÎŃ Î¿Î½
ĠÐ¿ Ð¾Ð»ÑĮÐ·
ĠW ie
ĠØªØ§Ø±ÛĮ Ø®
Ķà¸ §à¸
ĠÏĩÏģÎ· ÏĥÎ¹Î¼Î¿
Ġ 88
ĠÐ¾Ñģ Ð¾Ð±
Ġà¤² à¤¿à¤ĸ
ĠáĥĴáĥĺáĥĿáĥłáĥĴ áĥĺ
Ĺà¸ ±à¸
Î² Î¬Î»
Ġpr Å¯
Ð°Ðº ÑĤÐµÑĢ
Ġà®° à¯Ĥ
ŀà¸Ļà¸ ±à¸Ļ
ĠÎ´ Î¹Î¿
ĠÙĪ ÙĦØ§
Ġà®ļ à®Łà¯įà®Ł
Ć ą
Ġà¤®à¥įà¤¹ à¤£
Ġäºļæ¸¸ åĽ½éĻħ
ĠáĥĹáĥ¥áĥķáĥĶáĥľ áĥĺ
Ġ à¸£à¸²à¸¢à¸
ÐµÐ³Ð¾Ð´ Ð½Ñı
ab e
à¤ª à¤¾
ģà¹Ģà¸ Ħà¸£à¸Ķà¸´à¸ķà¸Łà¸£à¸µ
Ð¾ÑĤ Ð²ÐµÑĤ
ļà¸ ¸
ĠL ie
ĠF e
ĠáĥĽáĥĺáĥ ¬
Ġ×ĳ ×ł
ÑĢ Ð¾Ðº
Ġl Ãªn
pe ÅĤ
Ġp es
t ie
ĠáĥĳáĥĲáĥķáĥ¨ áĥķ
ĠO b
ĠÙĤ Ø§ÙĦ
s g
ã ħ
Ġë° ĺ
ĠÅ¡ kol
x t
Ġà¦ī à¦ļ
ĠÙĨ ÙĤ
Ġd Å¯
ist es
w is
Ġy ak
omb res
à®¿à®© à®°à¯į
Ġà¤ªà¥Ĥ à¤°à¥įà¤µ
ĠÕ ¬
ir k
Ġnue vo
r er
ãģ ¶
Ġcu enta
Ġra g
à°¿à°Ĺ à°¿
Ġpo zy
Ø§Ø¨ ÙĦ
ì§ ģ
×ĳ ×Ļ×Ŀ
Ġc ir
ĠÄĳ ang
s ter
ãĤĵ ãģł
Ġw at
Ġna p
è Ĺ
à¦¾à¦° à¦¿
au m
Ġà®¨ à®©à¯įà®±
qu er
à®Ļà¯įà®ķà®³ à¯ģà®ķà¯įà®ķà¯ģ
Ġà¤ľà¥Ī à¤¸à¥ĩ
à§ĩà¦ ·à§įà¦Ł
ĠÉĻl aq
áĥĲáĥ¡ áĥ¬
Ġà¸ Ŀà¸²à¸ģ
i i
Ġè ´
ĠØº ÙĬØ±
Ġé Ľ
ĠÎµ ÏĦÎ±Î¹
à¥ĭ à¤¡à¤¼
Î¸ ÏħÎ½
Ġè ¶
áĥ¨ áĥĺáĥł
å¹ ²
00 0
Ð¾ÑĢ Ð°
ì ¼
ĠÏħÏĢÎ¬ÏģÏĩ ÎµÎ¹
Ġje Å¡tÄĽ
Ġáĥ¡áĥ®áĥķáĥĲáĥĵáĥĲáĥ¡ áĥ®áĥķáĥĲ
ĠÎ² Î±Ïĥ
ĠÐ³ Ð¾Ð²Ð¾ÑĢ
et er
Ġ osta
Ġà¸§à¸´à¸ĺ à¸µ
Î³ Î¹
æ ĳ
ÑģÐº Ð¾Ð¼
Ġà¤ Ĭ
áĥĶáĥĿáĥĳ áĥĲ
à¹Ĥà¸¥à¸ ģ
ĠÎ´ ÎµÎ¯
Ġ2 9
ÑĥÑĢ Ñĭ
r ess
Ġà¸ªà¸¡à¸±à¸ Ħà¸£
ĠÏĥÏħÎ¼ Î¼Îµ
r en
ĠØ³ ÙĨÚ¯
Ġ ä¸ī
è ħ
Ġè µ
ĠáĥŀáĥłáĥĿáĥĴ áĥłáĥĲáĥĽ
± à¹īà¸Ļ
Ð°Ð· Ð°Ð»
Ġth is
Ġà¤¦à¥ĭ à¤¨à¥ĭà¤Ĥ
ļà¸²à¸ ĩà¸
Ð°Ð»ÑĮ Ð½ÑĭÑħ
Ľà¸ ¥à¸²à¸
Ġà¦ĩà¦ī à¦¨
à®¿à®¨à¯įà®¤ à¯ģ
áĥĲáĥĴ áĥĲáĥľ
iem bre
Ð¸ÑĩÐµÑģÐº Ð¾Ð¹
ĠN aj
Ã©m u
i as
h m
áĥł áĥĲáĥ¢
Ġtr Ã¬nh
ĠÙĩ ÛĮ
à§Ģ à¦ķà§įà¦·
íĥ ľ
Ġcas a
ãĥĶ ãĥ¼
Ġpro ble
ãĥ¼ãĥ Ħ
à®¿à®ķ à®´
ÙĪ Ø©
re z
Ġà¦® à§ģà¦ķà§įà¦¤
Ø§Ø² Ùħ
à§įà¦¯à¦¾à¦¨ à§įà¦¡
ãĤ ´
é£ŀ èīĩ
Ġpr ost
Ġà°Ĺ à±Ĭ
ĠF Ã¼r
* *
×¢ ×Ķ
Ġs ic
Ġheb ben
ĠÙĥ Ùĩ
O D
ĠwiÄĻ c
Ġjej ich
it al
ê ´ĳ
ĠØ´ Ø¨
Ġfat to
Ġein es
à°¸à±įà°Ł à±į
pu Ã©s
Ġà¤¤ à¥Ī
Ġo re
Ø¶ ÙĪØ¹
ãĥ¼ãĤ «
Ã» t
ĠnÃ³ i
Ġà¤īà¤¨ à¤ķà¥Ģ
Ø§ Ø§
ĠÙĦ ÙĬ
_ c
à¸²à¸ ¡
ci Äħ
ç®¡ çĲĨ
cc ia
ĠIn d
ÏĦÎ· Î³Î¿
à¤¶ à¥įà¤¯
Î¹Ïĥ Îµ
ĠÕ ·
áĥĲáĥ¨áĥĿáĥłáĥĺáĥ¡ áĥĿ
ĠagåĽ½éĻħ åİħ
è® ¤
Ð¸Ð» ÑģÑı
Ġi ki
ĠÎłÎµ ÏģÎ¹
ëĭ ĺ
ĠáĥĴáĥĲáĥľáĥĲáĥªáĥ®áĥĲáĥĵ áĥĲ
ĠÎº Î¿Ïħ
ĠÐ· Ð½Ð°Ñĩ
tÃ© s
Ġl in
U S
ÏĦ ÏģÎŃ
ä¹ ī
Ñĭ Ñĩ
ãĢ į
ĠáĥĲáĥ®áĥļ áĥĲ
à¸Ńà¸²à¸ Īà¸
Î© Î£
Ã ī
ĠÐ¿ÑĢ Ð¾ÑģÑĤ
Ġf am
¥à¸·à¸Ńà¸ Ķà¸
ĠÏĩÎ± ÏģÎ±Îº
Ġà°¤à±Ĩà°² à°¿à°ª
ì¦ Ī
Ġå¿ «
æŀ Ħ
Ġç º
Ġ( "
łà¸²à¸© à¸²
Ð¸Ð½ Ñĥ
ĠprÃ©s ent
ãģĿ ãģ®
Ĺà¸²à¸ ĩà¹Ģà¸
__ __
à¸Ļà¸²à¸ Ķ
ĠÅ¾ ivo
ĠÙĤ Ø¨ÙĦ
ĠáĥĴáĥĲáĥĽáĥĿáĥ §áĥĶáĥľ
Ġà®ªà¯Ĩ à®°à®¿à®¯
Ð°Ð· Ð°ÑĤÑĮ
Ġà°Ń à°¾à°Ĺ
Ġà¦ľà¦¾à¦¤ à§Ģà§Ł
Ġn Ã£o
Ġ×¨ ×Ĳ
áĥĺáĥł áĥĶáĥĳáĥ£áĥļáĥĺ
Ġà¦¸à¦Ń à¦¾à¦ª
Ġà§¨à§¦à§§à§ ¯
Ġà¦ĵ à§Ł
à¤°à¥įà¤ Ĺ
Ġe ller
sk Ã©ho
p y
Ġmen y
Ġà¦® à§Ĥà¦²
Ġd am
Ġbeau coup
y abr
éĩ İ
Ġre f
I tem
íĹ ĺ
eit s
Ġper chÃ©
ĠA y
ĠP DF
Ġà®Ĩ à®ļ
ĠP L
dz enie
à±įà°µ à°°
Ġn um
Ġ: #
ãĤ¤ ãĤº
Ġà®µ à®¾à®¯
Ġà´ İ
åĽ¾ çīĩ
Ġà¤®à¥ģà¤Ŀ à¥ĩ
Ġà°ļà±Ĥà° ª
Ġvax t
Úĺ Ùĩ
×ŀ× ©
Ø¦ Ø©
Ġkh Ã¡c
Ġj p
Ġv rai
Ġà¶ ļ
éŁ ©
z ei
Ġpr Ã¡c
áĥ£áĥł áĥĲ
Ġà¸ Ĥà¸Ńà¸ĩ
g ung
å®ī åįĵ
Ġm no
Ġà®µ à®¿à®ļ
Î¿Ïħ Ïĥ
Ġà¤ĩà¤¸ à¥ĩ
Î´ ÎµÏħ
à¦¸ à¦¹
áĥĺáĥ¢áĥĶáĥ¢ áĥĺáĥ¡
æ¼ ı
åı ĭ
ĠÐ· Ð½
ti es
ÏĨ Î¹
ĠÅŁ ek
áĥ¢ áĥĻ
ĠÏĢ Î¹
ĠÐ½Ðµ ÑģÐº
Ġann Ã©e
æŁ »
¡à¸·à¸Ńà¸ ĸà¸·à¸Ń
ĠÏĥÎ· Î¼Î±Î½
å¢ ĥ
ĠÐŁ Ð¾Ð»
Ġos Ã³b
Ġáĥ¤ áĥł
ªà¸´ à¹Īà¸ĩà¸
Î±Î½ Î¬
ĠdÃ© s
ĠÑĤÐµÑħ Ð½
Ġfa c
· à¸Ļ
ĠÎłÎ± ÏģÎ±
Ġà°¨à°¿à°°à±įà°µ à°¹
ĠØ§Ø³ ÙĦØ§Ùħ
èĩª å·±
éĤ £
Ġåħ ¨
ĠáĥĽáĥ£áĥ¨ áĥĲáĥĿáĥĳ
Īà¸ ³
Ð ¯
ĠÃ© tu
à¦¿à¦ ·à§įà¦Ł
Ġà¹Ģà¸ ĺà¸
ĠÐ¾Ð´ Ð¸Ð½
à¹Ī à¸Ńà¸ĩà¸
ĠÙĪ Ø¬ÙĪØ¯
ĠLe ben
áĥĺáĥļ áĥĶáĥĳáĥĲ
Ġà°µ à°¦à±įà°¦
ĠÑĥÑģÐ» Ð¾Ð²
ĠB us
Ġmen os
i h
à±ĭ à°®
ĠáĥłáĥĲáĥĽáĥĵáĥĶáĥľ áĥĺáĥĽáĥĶ
ĠØ§ÙĦØ¹ Ø§ÙĦÙħ
at t
ê »
Ġà¤īà¤ª à¤¯à¥ĭà¤Ĺ
Ġà®®à®ķà¯įà®ķ à®³à¯į
lÄ± ÄŁ
osten los
ow iÄħ
ĠãĢ İ
kom men
Ġpre mi
Ġãĥĸ ãĥ©
Ġà¦¸ à¦¾à¦¹
ki ng
çµ Į
ë² Ħ
c imiento
Ġt ecn
Ġt uo
Ġqu alitÃ©
k owe
Ġa x
Ġpropr io
à¯Ĥ à®°à¯į
do v
Ġà¦¹ à§ĭà¦¸
à°ķ à±Ģà°¯
Ġà¦ª à¦¦
à¤¿à¤¯ à¤®
an ych
×Ļ ×ķ×Ł
w ick
à±ģà°° à±ģ
ĠØ§ÙĦÙħ Øµ
ĠU na
Õ« ÖĢ
Ġr ÉĻh
Ø® Ø§Ø¨
Ġm ag
Ġà°ķ à°®
à¦ ¯à§ĭà¦Ĺ
à®¨à¯įà®¤ à®¿à®°
äºĶ æľĪ
áĥĶáĥ¢ áĥĺ
à¹Ģà¸ ŀà¸´
Ġà¤ı à¤¸
ç» Ń
ìł Ģ
al an
ĠÎ± Î³Î¿
d r
ĠÎµÏģÎ³ Î±Ïĥ
Ġà¤Ĳ à¤¸à¤¾
áĥ¡ áĥĶáĥľ
à¥ ¦
äº ĳ
Ġ Ñİ
pr owadz
ÏĦÎ® ÏĥÎµÎ¹ÏĤ
Ø±ÛĮ Ú©
ĠáĥĽáĥĿáĥ Ĺ
ĠÎ¿ÏĢÎ¿ Î¯
ÑĢÑĥÐ¿ Ð¿
con om
Ġà®µ à®¯
à¹Ģà¸£à¸ ´
Î³ Î¿Î½
æ· ±
ĠÐ½ Ð¸Ðº
ĠØ¨ Ø´
Ġáĥ£áĥłáĥĹ áĥĺáĥĶáĥłáĥĹ
ķà¸ ģà¸
ÏĦÎµ ÏģÎ±
Ġsit u
Ð» ÐµÐ¹
Ġa ÅŁ
Ġà¹Ģ à¸£à¸²à¸
Ġ Ïį
ì¢ ħ
Ġà°µ à°¾à°¡
Ġæ ³
äº ¿
ä¿¡ æģ¯
Ġáĥ¡áĥĲáĥĶáĥłáĥĹ áĥĲáĥ¨áĥĿáĥłáĥĺáĥ¡áĥĿ
Ġà¸ Īà¸°à¸
ĠÐ½ Ð¸
Ġ×ľ ×ª
Ġs ais
Ġ( )
Ð¾Ð² ÑĭÐµ
±à¸ĩà¸ģà¸¤à¸ ©
Ġà¤¨à¤¿ à¤°à¥įà¤®
Ġag o
áĥĲáĥł áĥĺáĥĲ
à°°à±įà° Ń
ĠÐ² ÐµÐ´
à§ĩà¦¶ à¦¨
ĠG er
ĠÅĽ rod
à¯ģà®ķ à®³à¯Ī
ĠáĥĴáĥķ áĥĶáĥłáĥĵ
lij k
Ġinf ormaciÃ³n
Æı R
Ġk de
à¤§ à¤¾à¤¨
ĠsÉĻb ÉĻb
äºº æ°Ĺ
Ġg anz
y ste
à°ª à°Ĥà°ļ
Ġdes s
Ġpot rze
Ġqu ien
Ø± Ø³ÛĮ
Ġà¤ªà¥įà¤° à¤¶
æ ¤
ber g
Ãª t
ation en
t kow
Ġb iáº¿t
ìķ ĺ
ari h
×Ĺ ×ª
à¦® à¦¨à§įà¦¤à§įà¦°à§Ģ
à¦ Ĩ
Ġpeti t
a te
Ġ3 3
kov Ã¡
en de
Ġà¦ĸ à§ģà¦¬
à®¾à®µ à®¿à®©à¯į
S I
Ġwy st
ti vnÃŃ
ĠØ§ÙĦØ§ Ø³Øª
ar ak
Ġsu iv
iz z
æĦŁ ãģĺ
à±ĩ à°Ĥà°¦à±ģà°ķà±ģ
å© ·
áĥĶáĥĽáĥĳ áĥĶáĥłáĥĺ
ªà¸¹à¸ ĩà¸
Ġà¤² à¥ĭà¤ķ
æ²¡ æľī
iyy ÉĻ
oun d
ÎºÎµ ÎºÏģÎ¹
Ġso cial
Î¼Îµ Î½Î±
Ġà¤¤ à¥Ģà¤¨
áĥĺáĥķ áĥĶ
Ġæ İ
é¦ĸ é¡µ
ĠÐ¸Ð½ÑĤÐµÑĢ Ð½ÐµÑĤ
Ø§ Ø´
Î² Îµ
âĢĮâĢĮ âĢĮâĢĮ
ĠáĥĴáĥĲáĥĵáĥĲáĥ¬áĥ§áĥķ áĥĶáĥ¢
ĠÏĥÏħÎ½ ÎµÏĩ
ĠÐ¼ Ð½Ð¾Ð³Ð¾
Ġf ranÃ§ais
ĠIS T
ģà¸ İ
ĠÎµÎ¹ Î´
è¾ ĵ
Ð¸ÑĢÐ¾Ð² Ð°ÑĤÑĮ
g ro
áĥłáĥª áĥĶáĥļ
à¹Ģà¸ Ħà¸£à¸·à¹Īà¸Ńà¸ĩà¸
Î¼ÎŃÎ½ ÎµÏĤ
p iel
ĠÐ¿ÑĢÐ¾Ð´ ÑĥÐº
Ġsu pp
ģà¸³à¸ ¥à¸±à¸ĩà¸
ĠÎ¾ ÎµÎº
Ġqu Ã©
à°¾à°¨ à°¿à°ķ
æ¯Ķ åĪĨ
Ġäºļæ¸¸ ag
ç¥ ¨
ĠáĥĵáĥĲáĥĺ áĥ¬áĥ§
¨à¸²à¸ ªà¸
Ð¾Ð´ Ð°
Ġ×Ļ ×ķ×ª×¨
ÄŁ u
à¸µà¸¢à¸ §
ĠÐ¸Ð½ÑĤÐµÑĢ ÐµÑģ
ļà¸Ļà¸ ±à¸
à¥ĩ à¤Ĺà¤¾
em ble
áĥĺáĥľ áĥĲáĥľáĥ¡
Ã§ Ãµes
ĠÑĪ ÑĤ
ĠmÅ¯ Å¾
raz ie
éļ Ľ
an k
ĠáĥĽáĥĿáĥ Ļ
ĠÙĬ ÙĤ
Ġà¦¬à¦¿à¦¶ à§ĩà¦·
Ġà®ķà¯ģà®´ à®¨à¯įà®¤
Ġ":"" ,"
Ġà¤ħà¤ª à¤¨à¤¾
Ġìļ Ķ
m iento
ĠÚ¯ Ø±Ø¯
Ġfin den
Ġpo i
ĠprÃ© c
il o
Ġch Ãºng
Ġo leh
Ġà¤¸ à¥ģà¤°
Ġà°ªà±įà°° à°¶
Ġà°®à°¾à°° à±įà°ļ
Ã¤ h
gra m
Ġà®®à®ķà¯įà®ķ à®³
Ġde j
ĠØ¹ ÙħÙĦ
ier no
owan ych
Ġà°İ à°²à°¾
åķĨ åĵģ
Ġà¦ª à¦¾à¦¶
à¯ģà®£ à¯įà®Ł
à´ Ļàµįà´
ä» Ĭ
ra it
è³ ª
dzi Äĩ
Ø§Ø¯ ÙĬ
m um
Ġc ul
f all
Ġp ak
à®¾à®µ à®¿à®²à¯į
ì ¤Ģ
Ġà¦ħ à¦¤
à±Ĩ à°¡à±įà°¡à°¿
à¤¾à¤ Ń
áĥĺáĥļ áĥ¡
à¸µà¸¢à¸ §à¸
ä¸į åį¡
å¹ ¶
ĠÉĻm ÉĻk
ÅĦ ski
Î³ Î¬
Ø« ÙĬØ±
ĠÎº ÏģÎ±
åľ¨çº¿ çİ©
áĥľ áĥĺáĥĹ
åĽ½ å®¶
áł łáł
Ð² Ð°ÑĢ
ĠØ¨ Ø§Ø±
ĠÎ±Î½ Î¸ÏģÏİ
à°¯ à°Ĥà°²à±ĭ
áĥ£áĥ¨ áĥĲáĥĿ
Ïģ Î¯Î±ÏĤ
ĠÐ¾ÑĤ Ð´
Ġq ÉĻr
Äį i
à¹ģà¸ ŀà¸
ÎĻ ÎĳÎ£
1 7
ĠÐ¼Ð¾Ð³ ÑĥÑĤ
b ile
Ġáĥ¤ áĥĿáĥłáĥĽ
ľà¸¥à¸´à¸ ķà¸
ĠÏĢÏģÏĮ Ïĥ
gl Äħ
ĠÑģÐµÐ± Ñı
li ng
Ġà¸Ńà¸ ±à¸
ĠÎº Îµ
Y n
Ġíķ Ħ
à¥ ħ
å£ «
åĩ ¡
áĥľ áĥĶáĥ¡
§à¸´à¸ Ĺà¸¢
ĠÑģÐ»ÑĥÑĩ Ð°
g s
i zione
«à¸Ļà¸ ±à¸ĩà¸
ĠÑĤÑĢ ÐµÐ±
à¹ģà¸ ¡à¸
à ¶ľ
Ġan i
Ġáĥ¨áĥĶáĥ® áĥķáĥĶáĥĵ
Ġà°¸à°Ĥà° ¸à±įà°¥
Ñĭ Ð¼Ð¸
Ġh Ãłnh
Ġex per
à§įà¦Ł à¦¾à¦°
Ġsp iel
áĥĶáĥ ĸáĥĶ
te go
we ise
ut to
Ġà®ªà®ķ à¯ģà®¤
à¤ľ à¤¼
un dan
ãĤµ ãĤ¤ãĥĪ
Ġo cc
pl at
Ø§Ø¹ Øª
Ġà°ĩ à°¦
Ġcas o
Ġk em
Ġ×ŀ× ŀ×
Ġà¤¤ à¤¥à¤¾
à±Ĥà° ¤
Ġãģ ©
bi or
Ġmo d
Ã´ t
Ġà°ħà°µ à°ķà°¾à°¶
Ġy o
Ġest u
ÅĤo Å¼
Ġ ~
ĠØ¹ Ø¨Ø¯
ĠÙĬ ÙĪÙħ
ĠD am
à¤¸ à¤°
ãĤ» ãĥĥãĥĪ
ï¼ ģ
å· Ŀ
Ġdru h
ë£ ¨
à§įà¦¤ à¦¾à¦°
Ġà°ħà°µ à°¸
auss ures
w ij
ĠM an
åıĸ ãĤĬ
à§ĭ à¦¹
ĠØ³ Ùĩ
à¶ ¯
áĥ« áĥ¦
à¹Ģà¸ Ī
à¤¾à¤ĩ à¤²
å¾ ®
Ġat ten
Ġg us
Ïĥ Ïį
ĠÃº lti
Î¶ Îµ
Ġà¤¸à¤® à¤Ŀ
áĥĴ áĥ£áĥ¤
¹ æŀľ
Ġç¾ İ
Ð¾Ñĩ Ð½Ð¾
ĠØŃ ÙĬØ«
ĠÎµ Î¼ÏĢ
á»ĩ nh
ĠáĥĶáĥĻ áĥĿáĥľáĥĿáĥĽ
ĠÏĢ Î¹Ïĥ
ĠÐ¿ÑĢÐ¾ ÐµÐºÑĤ
Ġà¦® à¦¾à¦®à¦²
is ten
ĺà¸£à¸£à¸ ¡à¸
ĠÏĨ Î±
à¨ ¨
ĠÐ²ÑĭÑģ Ð¾Ðº
à®¿à® Ļ
áĥĲáĥª áĥĶáĥĽ
à¹ģà¸ Ľà¸
ĠÎł Î¿
Ã© ri
Ð¸ÑĩÐµÑģÐº Ð¸Ð¹
ĠØ¨Ø± ÙĨØ§ÙħÙĩ
ª à¹Īà¸ĩ
ĠÎľ Î·
×¢ ×ķ×ª
Ġà§§à§ ¯à§
ç§ °
Ġå° ±
ä½ İ
áĥĶáĥłáĥ ľ
à¸£à¸´à¸ ¡à¸
ĠÑĥ Ð³
ìĺ Ģ
ĠÃ¼z er
Ġà¸Ń à¹Īà¸²à¸Ļ
Ð°Ñı Ð²
à¹īà¸²à¸ ¢
Ġ à·Ģ
owan a
áĥĶáĥĹ áĥĶáĥ¡
Õ«Õ ½
Ð¸ Ñī
Ġh Ã¼
v u
à§ĭ à¦ľà¦¨
ÙĪÙĨ ÛĮ
áĥĺáĥķ áĥĺ
j Ã¸
ĠWar sza
s ÅĤ
ĠA cc
Ġà¤ª à¥ĭ
áº¯ n
Ġà°ª à°¿à°²à±įà°²
Ġac tiv
h le
Ġst os
Ġà®ļà¯Ĩ à®²
x alq
Ø¬ Ø©
zn am
å°ıæ¸¸æĪı åľ¨çº¿çİ©
Ġt ych
ë¶ ģ
a ti
Ġin sta
åĪ ¥
Ģ ìĿ´
Ġcon se
×ĳ ×Ļ
à±Ī à°²
i al
ĠmÃ¡ y
ĠÂ ¡
dÄ± ÄŁ
Ġà¤Ĺ à¥ĭ
j es
ÃŁ er
à¦¨ à§Ģ
Ġà°¤à±Ĩà°² à±ģà°¸
Ġd ÅĤu
ĠÚ© ØªØ§Ø¨
à¯įà®ª à¯ģ
iss ance
ãģ§ ãģĹãĤĩãģĨ
ĠÅ ½
Ġb l
h an
ĠÙĪ ÙħÙĨ
à¥Ģ à¤¯
ĠáĥĽáĥĹáĥĲáĥķ áĥĲáĥłáĥĺ
à¹ģà¸ Ī
àµ ¼
å¤ į
ĠØ¹ÙĨ ÙĪØ§ÙĨ
em mes
ĠÎ´ Î®
Ġs vÄĽ
Îµ Î¾
à¤¾à¤¡ à¤¼
ĠáĥĴáĥĲáĥľáĥĽ áĥĲáĥķáĥļ
Ġà¨ ¹
éħ į
Ð´ ÐµÑĢÐ¶
u da
ÏĦ Î¯Î±
ëł ¨
áĥ¥ áĥķ
ĠÏĥÏĦÎ¹ Î³
ÐµÐ½ Ð½Ð¾Ð³Ð¾
g n
c am
§à¸±à¸Ļ à¸Ļà¸µà¹ī
ĠÎ¼ÎµÎ³ Î±Î»
åĪ Ļ
Ð¾ ÑĦ
Ġà°¨ à±ģ
Ġáĥ¨ áĥĶáĥ¥
Ġà¸ ľ
Îº ÏİÎ½
Ġv ille
ĠÐ´ Ð¾Ð¿
Ġp utas
«à¸¥à¸ ±à¸ĩ
ÏĪ ÎµÎ¹
Ġl ÃŃ
ĠÙĩ ÙĨØ§
åı į
ç» ľ
Ġ äºļ
Ġáĥ£áĥ ĸ
ļà¸£à¸´à¸©à¸±à¸ Ĺ
Ð² ÐµÐ´
Ġph Ã¡t
Ġkun nen
à¸² à¸Ļà¹Ģà¸
Ð¾Ð² ÑĭÑħ
à¹Ģà¸ ļ
Ġà¤¸ à¥įà¤ª
er i
áĥĿáĥĵ áĥĺ
Ġà®ħà®°à®ļ à¯ģ
Ð°Ð´ Ð¸
Ġl lam
Ġà®µà¯Ĩà®³ à®¿à®¯
×ľ ×ª
Ġà¦¬ à¦¿à¦¨
áĥ¢ áĥĿáĥĽ
Õ¡Õ ¤
Ġx idmÉĻt
ÚĨ Ùĩ
ien s
àµįà´ ±
Ġà¦¸ à§įà¦ķ
ĠíĻ Ķ
ta ch
Ġà®İ à®£à¯įà®£
ĠP l
ÙĤ Ø·
ĠdÃ© velo
ÉĻlÉĻr in
ĠP reis
Ġà¤¬à¥Ī à¤ł
Z I
Ġcos Ã¬
un que
Ġne z
szy m
ĠB et
ĠW enn
Ġbel ir
Ġ×ķ ×Ľ
Ġcon na
Ġà°ªà±įà°°à°¾à°° à°Ĥà°Ń
ir a
é¨ ĵ
Ġà¤Ĩ à¤¸
à¯įà®µ à¯ģ
ì£¼ ì¶ľìŀ¥
Ġìł ģ
k tor
ien e
Ġà¦¬ à§Ī
Ġt an
ĠØ§ÙĦØ¹ ÙħÙĦ
Äį it
d ÄĻ
ĠK ar
×¤ ×ª
åı ¤
éĿĴ èįī
áĥĲáĥĻ áĥ£áĥĹ
Ġà¸ ģà¹ĩà¸
Ġà¤ľà¥įà¤¯ à¤¾à¤¦à¤¾
åĨ į
Ġà®ķ à®¾à®Łà¯įà®Ł
Ġpro g
ĠÏħ ÏĢÎ·ÏģÎµ
Ġà¦ª à¦¾à¦²
Î³ÏģÎ¬ ÏĨ
Ġà¤¯à¤¹ à¤¾à¤Ĥ
ĠáĥĲáĥ¡ áĥĶáĥĹáĥĺ
æĪĳ ä»¬
çİ ĭ
ÐµÐ· Ð´
in os
ĠÎ±ÎºÏĮ Î¼Î±
eyn ÉĻl
Ġáĥĳ áĥĿáĥļ
ÏģÎ¹ Î¬
ÑĢÑĥ ÑĪ
Ġà°°à±Ĩ à°Ĥà°¡
á»ĵ i
Ġfun ction
ĠÏĦÏĮ ÏĥÎ¿
èĻ İ
ĠÑĩ Ð°Ñģ
b ei
áĥĶáĥľ áĥ¡
ŀà¸ ¢à¸²à¸
á¿ ¶
ĠØ§ÙĦÙħ Ø¬
ÐµÑĢ Ðµ
Ġnouve au
Ġ à¹Ħà¸Ķà¹īà¸
ÎŃ ÏģÎ³
Ġag gi
sz ta
àª¾ àª
çĻ» éĻĨ
è¿ ŀ
áĥĸ áĥĲáĥķ
«à¸Ļà¸ ¶à¹Īà¸ĩ
ĠÐ£Ðº ÑĢÐ°
à¦ķà§įà¦· à§ĩ
Ã¤ s
Ķà¸µà¸ Ĺà¸µà¹Īà¸ªà¸¸à¸Ķ
ĠÐº Ð°ÑĢ
Ġ à¹ĥà¸«à¹īà¸
Ġà¤ħà¤§ à¥įà¤¯
it es
Ġáĥ¢áĥĶáĥ¥ áĥľ
Ġdo ty
ÑĢ Ð¾Ð±
Ġspe ci
q tis
Ġà®ļà¯Ĭ à®©à¯įà®©
Ġl Æ°á»£ng
ĠáĥĴáĥĲáĥľáĥĽáĥĲáĥķáĥļ áĥĿáĥĳáĥĲáĥ¨áĥĺ
ĠÙĩÙħ ÚĨ
ĠT amil
à®¿à®¯ à®¾
si Ã³n
-- --
ĠI I
Ġì² Ń
ĠØ§ÙĦÙħ Ø¯
Ġdis pos
sz ej
sp ÄĽ
ĠìĤ¬ ìļ©
ĠAzÉĻrbaycan da
Ġdan Ä±ÅŁ
çĶ ·
Ġs elbst
à¦¾à¦ĩ à¦Ł
Ġsi do
à°°à±įà° ľ
j az
r ic
ey a
Ġà®® à®¾à®£
l et
Ġ×© ×ł
Ġé ģ
a ine
ĠA llah
à· Ĳ
Ġyar adÄ±
Ġmon do
Ġs owie
Ġà°ķ à°¾à°ķ
à®¿à®© à®¾à®°à¯į
Ø± ÙĤ
ue il
ĠrÃ© alis
v or
Ġdav am
ĠØ® Ø§ÙĨ
áº£ m
à±Ĩ à°Ĥà°¬
àµ ½
áĥĺáĥ¨áĥķ áĥĺáĥļáĥĺ
Ĭà¹Īà¸§à¸ ¢à¸
à¤¿à¤¸ à¥įà¤Ł
æ ļ
Ġnas t
Ġj aar
ĠÎ±ÏĢÎ¿ ÏĨ
Ġà¦¶ à¦¹
ĠÎĺ Î±
áĢ Ģ
Ġáĥ¨ áĥĺ
ç»ı æµİ
çī Ľ
Ð½ Ð¸Ðµ
ari as
ĠÎ¹ ÏĥÏĩ
Ġà°Ĩ à°¦
ĠáĥĽáĥĲáĥĺáĥľ áĥª
ÏĬ ÏĮÎ½
ĠÐ¼ ÐµÐ¶Ð´
ie le
h ra
¹ à¹īà¸
ĠÎº Ïį
æĬ ¤
Ð± Ñĭ
ĠÙĩØ³Øª ÙĨØ¯
áĥ¡ áĥŀ
Ġà¸ľà¸ ¥à¸
Î¼Î¿Ïį ÏĤ
cu er
Ð¾Ð³ Ð»
ĠgÃ©nÃ© r
Ĺà¸³ à¹ĥà¸«à¹īà¸
ĠÎķ Î½
Ġà°ª à°¾à°Ł
z zi
åģ ĩ
2 5
åĵ į
áĥ£áĥľ áĥĵ
ķà¹īà¸Ńà¸ĩà¸ Ŀà¸²à¸ģ
ĠÐ³ Ð¾ÑģÑĥÐ´Ð°ÑĢ
z u
ì ´Ī
Ħ à¸²à¸ªà¸´à¹Ĥà¸Ļ
ÑģÑĤÑĢ Ð¾Ð¹
à¹ī à¸Ńà¸Ļà¸
à¤² à¤¬
Ġla in
Ġáĥ®áĥĶáĥļ áĥĺáĥ¡áĥ£áĥ¤
Ġà°ļà±ĩà° ¤
ÑĥÑĢ Ð³
ĠØŃ ØªÙī
Ġutil iz
Ġà®µà¯Ģ à®Łà¯įà®Ł
ç¢ º
ĠáĥĽ áĥĲáĥłáĥĹ
Z W
c m
Ġqu anto
Ä± ÄŁ
àµ Ĥ
Ġ\" :
isse ment
à±ĩ à°¨à°¿
ĠÃ ½
on ych
ĠV ÃŃ
Ġà®® à®¾à®µ
ĠmÅ¯ Å¾e
Ġ4 0
Ġà¤¦à¥ĩ à¤¨à¥ĩ
Ġà¦ªà§įà¦°à¦¤ à¦¿à¦¬
Ġg esch
Ġê ´ĳ
Ġ×Ķ ×Ļ×Ķ
à®±à¯įà®± à¯ģ
ĠCom ment
Ġà°İ à°²
ĠâĢĿ .
Ġes per
Ġãģ¾ ãģŁ
ĠOn line
Ġemp lo
Õ¶ Õ¥ÖĢÕ¨
Ġà¤ľ à¥ģ
Ġq Ä±z
Ġot ro
à®µ à®¿à®²à¯į
ĠJ u
ĠÙĪ Ùĥ
Ġì° ¨
Ġf our
lan c
ĠfÉĻal iyyÉĻt
Ġda ar
Ġà¦¸à¦¾à¦§ à¦¾à¦°à¦£
ru ck
c olo
à¤® à¤¤
Ġáĥ¢ áĥĶáĥļ
Ġ, "
à¤¾à¤¯ à¤°
ç¡ ®
Ġà°®à°¾à°¤à±įà°° à°Ĥ
Ġà°ķ à±ģà°Ł
ĠÏĥ ÎºÎ¿
Ġzam an
ĠÎºÎ¬ ÏĦÎ¹
à´ ¨àµįà´
ĠáĥĴáĥĲáĥľ áĥĲáĥĹ
Ġà¤¹ à¥ĩ
å®ī åħ¨
ĠÐ¶ Ð¸Ð²
ĠÛĮÚ© ÛĮ
ÏģÎ¿ ÏĨÎ¿
Ø§ Ø©
ĠáĥĲáĥł áĥĺáĥĲáĥľ
Î¼ ÏĢÎ¿
ÑģÐ» ÐµÐ´
Ġs Ã¥
I D
ĭà¸ ·à¹īà¸Ńà¸
ÎµÎ¯ ÏĦÎ±Î¹
æľīéĻĲ åħ¬åı¸
ĠÐ¼Ð½ Ð¾Ð³
Ġt eng
Ġáĥ¡áĥĲáĥĺ áĥľ
Ġà¸ Ĥà¸Ńà¸ĩà¸
ĠÎ£ ÎµÏĢ
×ĵ ×Ķ
ÑĤÐ¾Ð¼ Ñĥ
ĠP e
ªà¸ ¥à¹ĩà¸Ńà¸ķà¸
Îº Î®ÏĤ
nÃ½ m
Ġà°µà°° à°ķà±ģ
åĪĨ æŀĲ
æī į
Ġç ī
Ġáĥĵ áĥĲáĥłáĥ
à¹Ī à¸Ńà¸¢
ĠÑĤ ÐµÐ¿
Ġj etzt
Ġg u
·à¹Ī à¸Ńà¸Ļ
ĠÐ½ ÐµÐ¼
à¹Ģà¸ ģ
ä¸Ģ æľ¬éģĵ
Ġmo et
Ġáĥ¬ áĥļ
n is
ÑĢ Ð¸
Ùģ Ø¹
ir o
Ġc áº§n
à¯ĭ à®ļ
Ġáĥ¡áĥŀ áĥĶáĥª
uf t
Ġì° ¸
ĠE N
Ġæ ĻĤ
å¤§ åħ¨
h i
Ġrecher che
Ø³ Ø©
Ġà¦ªà§įà¦°à¦¤ à¦¿à¦·à§įà¦ł
ĠØ§ ÙĬÙĨ
ĠØ§Ø³Øª Ø§ÙĨ
Ġs na
ë¡ ł
Ġre m
Ġà¤ľà¥Ģ à¤µà¤¨
×ŀ× ¦
ĠØ¢ÙĨ ÙĩØ§
Ġà°ªà±įà°° à°ªà°Ĥà°ļ
Ġz wiÄħz
å³ ¶
Ã¨ le
à§ ª
ul as
j as
Ġà®ªà®¿à®° à®¤
Ġdies em
ya ge
Ġs ax
Ġà¤¸ à¤Ĥà¤Ĺ
at ur
Ġm il
Ġà¦¬à¦¿à¦ı à¦¨
Ġà¦Ľà¦¿à¦² à§ĩà¦¨
ì¸ ł
Ġà®īà®° à¯ģà®µ
Ġqu and
Ġf er
ĠÙĪ ÙĨ
çĦ¡ ãģĹ
ä¼ļ ç¤¾
Ġà¦¯ à§ĭà¦Ĺ
Ġa nge
à¤Ĩ à¤Ī
áĥĲáĥĸ áĥĺ
à¹Ģà¸ģà¸ µà¹Īà¸¢à¸§à¸
Ġà¤ķ à¤Ńà¥Ģ
æĿ ¿
ì§ Ī
Ġà°ªà±įà°° à°¸à±įà°¤
ÏģÎ± Î½
Ø§Ùħ Ø¬
ĠÏĥÏħ Î½Î¿
Ġu09 4
Ġáĥľ áĥĲáĥĹ
ä¸ ¾
è¶ Ĭ
ĠÐ´ Ðµ
b au
ÏģÎ¿ Î¹
Ġa nh
áĥĺáĥ¡ áĥĺ
ĠÎŃÎ½Î± ÏĤ
Ñĥ ÑĢÐ°
iz ia
u ales
à¹īà¸ ³
ĠÎķ Î»Î»Î·Î½
Ġç «
ĠÐĵ Ð»Ð°Ð²
ĠQ ue
áĥ£áĥ¡ áĥ¢
Ġ( '
Î»Î¿Î³ Î¯Î±
Ġà°¸ à°¾à°®
ĠÐº Ð½Ð¸
b les
Ľà¸ ı
Î Ĳ
×Ľ ×ķ×ľ
ĠØ£ ØŃ
Ġæ Ķ
Ġ 66
æİĴ åĪĹ
Ġáĥł áĥĲáĥ¢
Ġà¸ Ĭà¸±
ÐµÐ½ÑĤ Ñĭ
z eit
Ġal go
Ġà¹ģà¸ ķà¹Ī
ĠÑĢÐµÐ· ÑĥÐ»ÑĮÑĤ
¨à¸²à¸ªà¸ ķà¸£
Ġà¤ĸ à¥ĩà¤²
Ġg dzie
Ġáĥĵ áĥĶáĥĻ
Ġà¦¯ à¦¾à¦ļ
ĠÑģÐ¾ Ð¾ÑĤÐ²ÐµÑĤ
n u
h and
Ġlá» Ľ
Ġà°Ĩ à°¡
áĥĺáĥ ¯
ier te
Ġnuov o
ĠL A
Ġà®ªà®¾à®° à¯įà®ķà¯įà®ķ
Ġà¤¹à¤® à¤¾à¤°à¥ĩ
Ġà¦² à§ĩà¦ĸ
ĠdÃ© f
Ġb r
ost ra
Ø¨ ÙĪ
Ġà¦Ĩà¦° à¦ĵ
à±ģà°Ĥà°¦ à°¨à°¿
ar ÉĻt
la ire
à¥Ģ à¤¸
Ġãĥ Ń
Ġb ag
ĠìĦ ¤
Ġà®ª à¯ģà®ķ
ĠÅ »
Ġje u
Ġjak ie
Ġpue den
Ø§Ø¨ Ø©
am o
Ġis e
Ġenv ir
Ø¨ Ø§ÙĨ
Ġà¤¯ à¥ģ
Ġà°ª à°¾à°Łà±ģ
Ġs lu
Ġfo to
ëł ¹
à®¿à®° à¯ģà®ªà¯įà®ª
usam men
ab les
cz u
ç ı¾
Ġsar Ãł
Ġi z
ĠØª Ø³
Ġë¡ ľ
Ġà¤Łà¥Ģ à¤®
áĥĶáĥĳ áĥĲáĥĸáĥĶ
à¹Ģà¸¥à¸ ¢à¸
Ġà¤¤ à¥ģà¤®
Ġé ĺ
×¨ ×ĺ
Ġbes te
ÏģÏīÏĢÎ± ÏĬ
à±ĩà° ³
ĠÎµÏĢÎ¹ ÏĩÎµÎ¹
Ġà¤ļ à¤¾à¤°
áĥĲáĥļ áĥĺáĥĸ
Ġ5 5
çħ §
Ð»Ñı ÐµÑĤ
à§ĩà¦Ľà¦¿à¦² à§ĩà¦¨
ÎµÏħ ÏĥÎ·
v ol
ĠáĥĲáĥĽ áĥĺáĥ¢áĥĿáĥĽ
ĠÏĥ ÏįÎ½
ĠÐĴÑģ Ðµ
go t
Ġto da
ŀà¸ ±à¸ģà¸
ĠÏĨ ÏħÏĥ
Ġå¥ ½
ĠÐ±Ñĭ Ð»Ð¸
Ġplus ieurs
áĥļ áĥĶáĥ¡
ªà¸ ļà¸
Î» ÏİÎ½
Ã³ a
Ð½ ÐµÐ²
Ġà°ª à°µ
§à¹ĩà¸ļ à¹Ħà¸ĭà¸
ÎĳÎ ĵ
ĠgÅĤ Ã³w
Ġà°Ĺ à°¤
èĬ ±
Ġà¤¤ à¥ĩ
Ġå¤§åıĳ å½©ç¥ŀ
áĥĺáĥļ áĥĶáĥĳáĥĺáĥ¡
Ġà¹Ģà¸ŀ à¸£à¸²à¸°à¸
ĠÑį Ð»ÐµÐºÑĤÑĢ
Ġà®µà®° à¯ģà®®à¯į
eynÉĻl xalq
à¹Ģà¸¥à¸ ¢
Ð¸ÑĩÐµÑģÐº Ð¾Ð³Ð¾
Ľà¸£à¸°à¹Ģà¸Ĺà¸ ¨à¸
à¥Ĥ à¤Ł
Ġob je
Ġáĥŀ áĥĶáĥłáĥĺáĥĿ
Ġet was
ĠÐ¾ÑĤ Ð»Ð¸Ñĩ
Ġalt ro
Ġà®µ à®¿à®¤
dzie l
Ġv eya
áĥĺáĥĹ áĥĲáĥĵ
ĠØ¨ ÛĮÙħ
Ġíķ Ļ
Õ¾ Õ¡Õ®
ÉĻn dÉĻ
Ġà¤Ĩ à¤¤
p es
ãģĹ ãģ¾ãģĹãģŁ
Ġd ostÄĻp
Øµ Ùģ
der s
Ġà°¸ à±įà°ķ
ħ ÖĢ
ĠÕ¡Õ ¼
dÄ±r Ä±l
à¤¾à¤Ĥ à¤¸
r Å¯
×Ļ× ŀ×
ĠC ette
à®© à®¾à®²à¯į
es to
Ø± Ø§
di do
Ġb et
ĠÉĻv vÉĻl
Ġc et
Ġtr Æ°á»Ľc
si ÄħÅ¼
id up
à¤¾à¤ĩ à¤Ł
Ġpo co
ĠS a
ĥ à®ª
ĠÙĦÙĦ Øª
Ġszy b
Ġave z
Ø§Ø¯ Ø±
Ġde f
v ier
Ġm Ã¥
Ġpro ces
Ġà°¨ à±ĩà°¤
à±ĩà° ¡
Ġà¤ľà¤¾à¤¨ à¤ķà¤¾à¤°à¥Ģ
ĠáĥĹáĥĳáĥĺáĥļáĥĺáĥ¡ áĥĺáĥ¡
Ġ à¸£à¸±à¸ļà¸
Ġà¤Ĺ à¤¿à¤°
Ġä½ ł
Ġë³ ´ë
ĠSch w
ĠÎ» Î¹
ku p
ĠÏĢÎ±Î¹ Î´Î¹Î¬
Ġà¤¡ à¥ī
ĠáĥĶ áĥĴ
éĺ ³
Ġà¨ ¨
ĠÑĥ ÑĤ
ĠD u
ÏĦ Î¿ÏħÏĤ
Ġzw ei
ĠáĥĴáĥĲáĥĽ áĥĿáĥķ
ĠÎ¯ Î´Î¹Î¿
ĠÐ¾ÑĤ Ð·ÑĭÐ²
Ġes e
Ġa o
ķ à¸²
Îµ ÏģÎ¿
ç½ĳ ç»ľ
ÑĢ ÑĭÐ²
Ġtr ois
áĥłáĥ« áĥĶáĥļ
ŀà¸ §à¸
Î» Ïį
Ġà¦ªà§Ĥ à¦°à§įà¦¬
Ñį ÑĤÐ¾Ð¼Ñĥ
Ġà°Ĩ à°¶
à¹Ģ à¸Ńà¸µà¸
á¿ Ĩ
Ú© Øª
ab ile
æķ° æį®
æĬķ æ³¨
äº§ åĵģ
áĥĶáĥ ¬
«à¸¥à¸ ±à¸ģà¸
ÑħÐ¾Ð´ Ð¸ÑĤ
à°¿à°¸ à±įà°Ł
Ġsv Ã©
ŀà¸ ¹à¸
ĠÑĢÐ°Ð·Ð² Ð¸ÑĤ
Ġà¹Ģà¸ ª
à¤µ à¤²
Ġyax ÅŁÄ±
áĥłáĥ ¡
Ġp ues
Ð°ÑĢ Ð°ÐºÑĤÐµÑĢ
Ġmi es
Ùĥ ÙĬ
en z
ë¶Ģ íĦ°
Ġáĥ¬áĥĲáĥłáĥĽ áĥĿáĥĽ
à¦¬ à¦¾à¦¸
ĠI N
Ġgr ande
à¦¨ à§įà¦¯
à¤¾à¤« à¥Ģ
Ġ×ľ ×Ļ
Ġb ie
ta ma
Ġmo y
à±Ĥà° ®
ĠØµ ÙĨ
ci do
×¤ ×©×¨
ĠØ¹ Ø¯Ø¯
Ġà¤ľ à¤Ĺ
ĠDeutsch land
Ġpri mo
ĠØ§ÙĨØª Ø®Ø§Ø¨
á»ĵ ng
Ã¡ st
Ġà¦¤ à¦ĸà¦¨
ne a
ass er
Ġé «ĺ
Ġà®µ à®Ł
k ty
in ci
´ Ŀ
à¤ķà¥įà¤° à¤®
Ġpart ie
ĠÙħØ±Ø¯ Ùħ
ãģķãĤĮ ãģŁ
Ġto das
Ġn Äĥng
Ùĥ Ø³
ĠìĦľ ìļ¸
Ġì ¶ľ
Ġsi to
à°ļ à°¨
iste ma
à¦ª à¦¾à¦¤
à±ĭ à°¹
Ġà¤ħà¤¨ à¥ģà¤¸
áĥł áĥĿáĥĳáĥĺáĥ¡
Ġà¸ª à¹Īà¸§
Å¡ en
å¸Ĥ åľº
ĠØ¢ ÙĩÙĨÚ¯
Ø± Ú¯
ĠÎ´Î¹Î± Î´Î¹Îº
Ø§Ø¦ ÙĬØ©
ĠÏĥÏĦ ÏģÎ±
Ġdu Å¼
ĠáĥĲáĥ£áĥ ªáĥĺáĥļ
åħ Ń
Ġç Ļ
Ð¾Ð½ Ðµ
×ĸ ×Ķ
Îº ÎŃ
ff e
Ġáĥ¡áĥĲáĥ¡ áĥĲáĥĽáĥĲáĥłáĥĹáĥļ
Î¹Î± Ïĥ
ÐµÑĢ ÑĮ
à°¿à°Ĥà° ¤
Ġprof es
à¹ĥà¸ ģà¸¥
ĠÏĥ ÏĦÏĮ
ä¾ ¿
ĠÑĢ ÐµÐ±
ìľ ¡
áĥĶáĥĳ áĥĲáĥĹ
à¹į à¸²
Î¹Îº Î·
ev r
Ð¾Ð² Ð¾Ð´
Ġà¦ļ à¦¾à¦°
à¸µ à¹īà¸
ĠÎ· Î¼ÎŃ
Ġt ipo
ort s
ć Ĉ
åĽ Ń
å¤ ª
Ġáĥ¡áĥĲáĥĽ áĥ£áĥ¨áĥĲáĥĿ
¸à¸ ģà¸
ÐµÐºÑĤ Ð¸Ð²
Ġu w
Ġà¤ľ à¤¹
à¸£à¸°à¸ļà¸ ļà¸
Ð°ÑĤ ÐµÐ»Ñı
ķ à¹īà¸Ļ
Ġnie u
Ġì½ Ķ
áĥĶáĥĳ áĥłáĥĺáĥķáĥĺ
ĠtÉĻd b
Ð· Ñĭ
ge ben
Ġà°¤à±Ĩà°² à°¿à°¸
ĠÙħØŃ ÙħØ¯
ĠÙĬ Ø¬
m l
Ġav ons
Ġn Ãło
Ġne p
Ġ×ŀ ×Ļ
j Ãł
Ġà®¨à®¿à®± à¯ģà®µ
in ya
Ġà¦¬à¦¿à¦ ¸
âĢĮ à°²
Ġà°¨à°¿à°° à±įà°£
Ġi ng
Ġk iÅŁ
w ania
en ces
Ø§ Ù¾
Ã¶ s
Ä±lÄ± b
à°¾à°° à±įà°¥
Ã½ mi
ĠNaz ir
Ġtut te
Ġà¦® à¦¤à§ĭ
Ã§ i
Ġartic le
Ġëĵ ¤
ta tion
a Äĩ
Ġp ic
Ġgeb ruik
en den
à¤¾à¤¨ à¥ĭà¤Ĥ
ãĥ³ãĤ º
Ġist ÉĻy
Ġcon cer
Ġpl an
ĠìĹ Ń
×¡ ×§
Ġà®µ à®¿à®²
Ġà°İ à°Ĥà°¤
ĠÄĳ Ã¢y
s ÃŃ
Ġà°µà°¿à° ®
Ø£ Ø³
áĥĺáĥļ áĥĽáĥĲ
à¹Ģà¸Ńà¸µà¸ ¢à¸
Ġander en
å®ĺç½ĳ ä¸ĭè½½
ĠØ¨Ø± Ú¯
Ġm Ã³w
ÎŁ ÎĻ
ãĤ¹ ãĥĨ
ĠÎľ ÎŃ
Ġà¤ľà¤¾à¤¤ à¥Ģ
áĥĺáĥł áĥĺáĥ¡
ĠåĽ ł
å° Ķ
ÐµÑĢ Ð¾Ð²
Ġest os
ÏĥÏĦÎ· ÎºÎµ
Ġor ganiz
Ġáĥ¡ áĥĶáĥ¥áĥ¢
ĠÎµ Î¼ÏĨ
ĠÑĦ Ð¸Ð»ÑĮ
end ita
is c
ģà¸ µà¸
Î´ Î¿Ïħ
åĦ ¿
ĠÐ½Ð° ÑĢ
ĠØ¨Ø¹ Ø¶
Ġáĥĺ áĥķ
¹ à¸Ļà¸
Î´ Î¬
Ġà°ĩ à°¤
ĠÐº ÑĤÐ¾
ĠnÉĻ zÉĻr
±à¸Ļà¸ ĺ
ĠÎ£ ÏĦÎ±
Ġë° Ľ
te z
Ġæ Ģ
éĺ ²
æĭ ī
Ġáĥ° áĥ¥áĥĿáĥľ
à¸£à¸¹à¸ Ľ
ĠÐ¿ÑĢÐ¾ÑĨ ÐµÑģÑģ
à¦¿à¦¤ à§įà¦¬
Ġmen jadi
Ĥ à¸²
ÑĢ ÐµÑģ
¥à¸ ¥
Ġnh áºŃn
×ķ×ł ×Ļ
áĥ£áĥľ áĥ¥
Ġà¤¦ à¤°
ĠÐ±ÐµÑģÐ¿Ð»Ð°ÑĤ Ð½Ð¾
Ġà¦ħà¦Ńà¦¿à¦ ¯à§ĭà¦Ĺ
à¯Ĩà®²à¯įà®² à®¾à®®à¯į
Ġr ich
Ġà®Ĩà®ķ à®¿à®¯
Ġáĥ¯ áĥĴáĥ£áĥ¤
Ġc ours
ĠbÄĻ dÄħ
mek te
g leich
Ġse a
Ġà¦¹ à¦²à§ĩ
ä» ĭ
Ġà¤ħà¤² à¤Ĺ
im y
à¦¤ à§įà¦¬
ite ment
ãģ¨æĢĿ ãģĦãģ¾ãģĻ
Ø¨ Ø±ÛĮ
ĠJe an
Ġ ãģĮ
cÃŃ ch
Ġk iedy
Õ ·
ti q
Ã¦ re
ĠW as
Ġ×ľ×Ķ ×ª
Ø¨ Ø§ÙĦ
ill et
ĠGe w
qu Ã©
ÅĤ Ã³w
ãĥ¼ãĥ ĳ
Ô ±
ĠÕ« Õ¶
Ġn Ã¶v
à°¾à°Ĺ à±ĩ
Ġf e
ãģķ ãģĽ
íĮ Ĳ
g ul
ĠÙħÙĨ Øª
ĠOd powie
Ġso tto
li v
l uss
éģ ķ
à¯Ĭ à®³à¯įà®³
ĠáĥĽ áĥĲáĥ¢
¢ à¸´
ĠØ§ÙĦØ¹ Ø±
ä¾ ĭ
Ã ĵ
as y
Î½Î¿Î½ ÏĦÎ±ÏĤ
Ġm áº·t
ĠÏĥÏħÎ½ ÎµÏģÎ³
ÙĪ Ø¶
áĥĶáĥľáĥ¢ áĥĺ
à©± à¨
Ġåĳ ¨
ĠÑģÑĤ Ð¾ÑĢ
Ġà¦² à¦¾à¦Ĺ
ĠÎ¼ÎµÏĦÎ± Î¾Ïį
Ġà°µ à±Ģ
Ġáĥ¡áĥ¬áĥĿáĥł áĥĶáĥĵ
ĠÎ½ÎŃ Î±
ĠÐ´ Ð¾ÑĢ
ÃŃ an
Ġko ÅĦ
à¹Ģà¸ ŀà¸·à¹Īà¸Ńà¸
ÏĦÎŃ Î»Îµ
å¤§åıĳ å¿«ä¸ī
ĠÐ¿ÑĢÐ¾ÑĤ Ð¸Ð²
Ġë¬ ´ë
ĠáĥĻáĥĿáĥľ áĥĻ
¡à¸ ŀ
ĠÎ¼Î± Î¶Î¯
g ique
Ð°Ð½ Ð¸Ð¹
r Ã¼n
Ħ à¹Īà¸²
ÏĮÏĦÎ· ÏĦÎ±ÏĤ
Ġà¦¦ à¦¿à¦¤à§ĩ
×ľ ×ķ×ª
6 9
æĬ Ĭ
å§ ĭ
Ġáĥ¡áĥĲáĥ Ĺ
Ĭ à¸Ļ
ÐµÑĩ ÐµÐ½Ð¸Ðµ
Ġgi Ãł
Ä±m Ä±z
ķà¹Īà¸²à¸ĩ à¹Ĩ
ĠÐ½ Ð°Ð»
ļ à¸£
ĠE en
à±ģà°¦ à°²
áĥĿáĥ ®
ch ten
Ð° Ñī
ĠØ§ÙĦØ¯ ÙĪÙĦ
an ces
Ġpers one
ĠÄ± n
áĥĲáĥ ¯
ĠÚĨ ÙĨØ¯
I i
à±ģà°µ à±ģ
Ġà¦¬à§įà¦¯à¦¬ à¦¹à¦¾à¦°
Ã§ a
n es
Ġíķ ¨
Ġà®ħà®²à¯įà®² à®¤à¯ģ
Ġro dz
Ġà°ªà±įà°°à°¤à±įà°¯ à±ĩà°ķ
Ġkar ena
Ù į
à´¿à´ °
Ġà¤ª à¤¦
ĠEr mÉĻn
ï º
be zpie
ĠÙģ Ø¹
Ġa ng
Ġs Ã¼r
à¤¨ à¥įà¤¦
à¤ª à¥įà¤°
Å¡ÃŃ m
Ã İ
Ġt Æ°
íİ ¸
Ġz mi
à±ĩà°· à°¨à±į
Ġe qu
ĠP f
Ġà¤¸ à¥įà¤¤
ĠØ¨Ø® Ø´
×Ļ×ľ ×Ķ
us es
Ġsi gu
ë² Ī
ĠA k
Z X
èª į
Ġà¦¦ à¦¿à¦²
Ġå° ı
Ġà¤¹à¥ĭ à¤¤à¥ĩ
Ġv al
Ġáĥ® áĥ¨áĥĺáĥł
à¹Ģà¸ķ à¸Ńà¸£à¹Į
ĠÃº Äį
åº ľ
Ġà¦¦ à¦¿à¦ķà§ĩ
Ġma jÄħ
ÏģÎ¹ Î¿ÏĤ
Ã ķ
Îł Îĳ
ĠÂ ¶
ĠáĥĲáĥĵáĥĲáĥĽ áĥĺáĥĲáĥľáĥĺ
æĺ ¾
åĩ ł
ĠÐ· Ð°ÑıÐ²
Ġch áº¥t
ÏģÏĮ ÏĤ
ĠÙĨÛĮ Ø³Øª
Ġ, ,
ĠÏĢÏģÎ¿ÏĥÏī ÏĢ
ĠÑĢÐ°Ñģ Ñģ
ĠãĢ Ĺ
Ġinter net
ķ à¹īà¸Ļà¸
ÎŃ Î²
èµ ¢
ĠÐ· Ð²
ë¦ ½
áĥĺáĥľ áĥĵ
Ĭà¸ ·à¹Īà¸Ń
ĠÎ ©
la ge
ĠÐ±Ð¾Ð»ÑĮÑĪ Ðµ
Ġpro y
Ġà¸ªà¸¡à¸±à¸ Ħà¸£à¸
ĠÎµ Î½Î·
den ti
im os
å®¢æĪ·ç«¯ ä¸ĭè½½
èĭ ¹æŀľ
6 7
ĠáĥĽáĥĵ áĥĴáĥĿáĥĽ
à¹Ģà¸¥à¸·à¸Ńà¸ ģà¸
ĠÑĥ Ð»
Ġge ht
ĠG u
łà¸ ¹à¸
ÑĨ Ðµ
à¹Ģà¸ Ħà¸
ĠE ste
Ġt ÃŃm
ĠáĥĶáĥłáĥĿáĥķáĥľ áĥ£áĥļáĥĺ
Ġà°¹à±Ī à°¦à°°
ĠÐ¾ ÑĦ
à°¿à°Ĥà°ļ à°¡à°Ĥ
ĠrÉĻh bÉĻr
s el
Ġserv ice
ĠáĥĽ áĥł
Ġ×Ĳ ×ĳ×ľ
Ġosta t
ÙĩâĢĮ Ø§ÛĮ
Ã ¯
ĠyÃ¼k s
ĠR oma
Ġc ost
Ġà¦ħ à¦Ĥà¦¶
jÄĻ cia
á»¯ a
íĺ Ħ
êµŃ ìĿ¸
Ġà¤Ĺ à¥ģ
Ġà¤µà¤¿à¤¶ à¥ĩà¤·
Ġ×ĳ ×Ĵ
ĠPra ha
cz ej
ve den
Ġa hora
ç· ļ
ìĿ´ ëĿ¼
ti mm
p ovÄĽ
j ou
ï½ Ĺ
ãĥ³ãĥ Ĩ
Ġte le
Ġpers onne
Ġb á»Ļ
Ġmom ento
ĠT ag
Ġà°ļà±Ĥà° ¸à±įà°¤
à¤¿à¤ ¡
ãĤ ®
Ġà¦¶ à¦¤
ĠP r
Ġ×Ķ× ĺ
Ġà°®à°Ĥà°ļ à°¿
ĠÃ©le ct
a cja
Ġterse but
d ores
is ir
Ġáĥ§áĥķáĥĶáĥļáĥĲáĥ¤ áĥĶáĥłáĥĺ
ĺ à¸´à¸
ĠDa ten
ç© ¶
Ġà®®à®© à®¿à®¤
Ã¼ ber
ĠÎ²Î± Î¸
íĿ ¥
ĠÎĵ Î¹
Ġà°ľà±Ģà°µ à°¿à°¤
áĥĲáĥķ áĥĺáĥ¡
Ġæ Ľ
ç³» ç»Ł
ĠÐļ Ð¾Ð½
ê° Ĳ
ÏĢ Î±Î½
ĠåĪ ©
áĥĿáĥł áĥĺáĥĲ
Âµ Î±
ĠÐ¼ Ð°Ð»
à¤°à¥įà¤ ¨
Ġla z
Ġà¸ Īà¸²à¸ģà¸
ĠÎ£ÏĦÎ· Î½
ĠãĢĤ ï¼Į
ĠÐ¼ Ð½Ðµ
Ġz ar
áĥĲáĥĻáĥ£áĥĹ áĥł
¢à¸ ¡
ĠÎļ Î¬
Ġt ij
Ð¸ÑĤ Ñĥ
Ġd ÃŃas
à¹Ħà¸¡ à¹ī
ĠÎµÏĨ Î±Ïģ
Ġà°µ à°²à±įà°²
Ġv ec
à¤ļ à¥ĩ
à¥ģà¤ ³
ä¸Ń å¿ĥ
Ġáĥ¡áĥĲáĥĳ áĥŃ
±à¸ Ķà¸
Ð¾ÑĤ Ð°
ov al
Ġtá» ±
à¹ģà¸ Ķà¸
Ð¸ÑĤ Ð°
à¹Ģ à¸Ńà¸
à¦¸ à§įà¦Ł
Ġà®ķà¯Ĭ à®Łà¯ģà®¤à¯įà®¤
áĥĺáĥľ áĥĵáĥĲ
à®µ à®¿
Ñĩ Ð°Ñģ
ĠJ a
ĠØª Ø´
Ġí Ŀ
c re
Ġáĥ¨áĥĶáĥ£áĥ «áĥļ
ÉĻt in
Ġspos Ã³b
Ġà®¨à¯Ģ à®Ļà¯įà®ķà®³à¯į
it re
ĠB ild
à¦² à§ĩà¦°
ĠC ons
Ġy e
u ta
Ġpra v
Ġà°ķ à±Ĩ
å¼ ·
Ġus ta
Ġ×ŀ× ¤
ah re
ien cia
à±ģà°² à°¤à±ĭ
Ġswo je
Ġv il
Ġxu áº¥t
s iniz
ĠØŃ Ø¶
Ġm ujer
ĠspÃ© ci
Ġcon di
à¥ģà¤ ¶
ãģ® æĸ¹
olu tion
ĠpÅ¯j Äįka
cu la
ĠpÅĻÃŃ pad
à§Ģ à¦¤à§ĩ
u he
à°¾à°² à°²à±ĭ
ĠA le
Ġp ouvez
ê» ĺ
à¥ģà¤® à¤¾à¤°
Ġbes o
Ġà¤¯ à¤¾à¤¦
Ø³Øª Ùĩ
c n
ãĥĥ ãĤ°
Ġáĥ¡áĥĺáĥ¡áĥ¢ áĥĶáĥĽ
ª à¸²à¸£à¸
is er
ć ï¼Į
c ca
al nych
Î¸ Î¿ÏĤ
ĠãĤ ¸
ĠÎµÎ½ ÏĮÏĤ
Ġil g
ĠáĥĽáĥĺáĥĽ áĥĵáĥĺáĥľ
è® ©
æīĭæľºå®¢æĪ·ç«¯ ä¸ĭè½½
ĠÐ²Ñĭ Ð±
Ġà¤¯ à¤¦
ĠÎ£ Î±
Ġf ino
áĥĺ áĥĲáĥĹ
ĠÎµÏĢÎ¯ ÏĥÎ·ÏĤ
ĠÐ¸ Ñİ
ÙĬ ÙĬÙĨ
z immer
¢à¸ ¸
Î³ ÏĮ
ä» ½
ĠÑģÑĤ Ð°ÑĢ
Ġhat te
ĠáĥłáĥĿáĥĽ áĥļáĥĺáĥ¡
Ĭà¸ ¡
Ïĩ Î®ÏĤ
Ö ·
ĠÐ¿ÑĢÐ¾Ð± Ð»ÐµÐ¼
Ġch at
¥à¸° à¹Ģà¸Ńà¸µà¸¢à¸
ĠÏĢÏģÎ±Î³ Î¼Î±
Ġ×ĳ ×¤
Ġp Ãº
ä½¿ çĶ¨
èĪ ª
à¨ Ĥ
Ġht ml
Ĺ à¸£
Ð¾ÑĤÑĢ ÐµÐ±
Ġà¦ķà¦° à§ĭà¦¨
à¦¬ à¦¿à¦¦
ģà¸£à¸£à¸ ¡
Ð «
l ub
Ġgo ed
ëŀ ĳ
áĥĲáĥļáĥ£áĥł áĥĲáĥĵ
a Ã§Ã£o
ÐµÑĢ Ð±
Øµ Ø©
ĠÚ©Ø±Ø¯ ÙĨ
à¦² à§ĩà¦¨
uj et
áĥł áĥĿáĥķ
nÄĽ nÃŃ
Ġà¦¦ à¦¾à¦¬
Ġp ens
Ġh u
à¬¿ à¬
Ġà¤ķà¥Ī à¤¸à¥ĩ
Ġpres ent
Ġdz i
Ġà¦¸ à§ĩà¦Ł
Ġà¤ªà¤¾à¤° à¥įà¤Łà¥Ģ
Ġà®¤ à®Ł
ĠMen schen
Ġk at
Ø§Øµ Ø©
Ġà¦ªà¦¾à¦° à§ĩà¦¨
lar da
Ġnghiá»ĩ p
Ġcom ent
ĠD la
ì§ ĳ
rÃ¡ n
×Ĺ ×§
Ġà°µà°ļà±įà°ļ à°¿à°¨
Ġjus qu
à¯ĩà®¯ à¯ĩ
à´¿à´ ¨
ĠT ak
ĠP lus
Û° Û°
ĠØ§ Ø´
Ġt i
Ġà¦ķà¦°à§įà¦® à¦ķ
Ġne cess
aj a
wÃ³ j
Ġsy st
Ġge en
Ġà¤¯ à¥ĭà¤ľ
ĠÙģ Ø§Ø±
Ġà¤® à¤¦
Ġà°¦ à±Ģà°¨
ĠS in
ĠØ¯Ø§Ø´Øª Ùĩ
áĥĲáĥŀ áĥĺáĥł
Ľà¸ ģà¸£à¸
Ġà®¯ à®¾à®°
æŃ£ è§Ħ
ĠìľĦ íķ´
Ġà®ķà¯ĩ à®Łà¯įà®Ł
Ïĥ ÏĦÎ¹
as ib
ĠÎ¸Îµ Ïī
u v
Ġáĥĺ áĥĲáĥľ
çĽ ĳ
ĠåĬł æĭ¿å¤§
ĠÐ¸Ð· Ð¼ÐµÐ½
ĠwÅĤ as
ĠÎº ÏģÎ¹
Ġà¤¸ à¤°à¥įà¤µ
ĠáĥĴáĥĲáĥĽ áĥĿáĥĽ
Î¼ Î¹Î±
ĠÐ¾ Ð¿ÑĢÐµÐ´ÐµÐ»
Ø¨ÙĬ Ø¹
Ġà®¤ à®¯
· à¸Ļà¸
ĠÏĥ Î¿
Ġè §
ĠÐ» ÐµÐ³
Ġ ir
ry w
ļ à¸Ļ
Î¸ ÎµÎ½
Ġãĥ Ģ
ĠÐº Ð°ÑĤ
ĠÂ ²
Ħà¸´à¸ Ķà¹Ģà¸
ÏĨÎŃÏģ ÎµÎ¹
áº¡ ch
Ġà®¨ à®®à¯įà®ª
è´ £
é¢Ħ æµĭ
ŀ å½©
Ġm ov
à¸²à¸£ à¹Į
ĠÑģÑĤ ÑĢÐ¾
Ġà¦ķ à§ĩà¦
Ġà¦Ĺ à¦£
Ġà¸ķ à¸²à¸£à¸²à¸
Ð°Ð» ÑģÑı
Ġà¸ ¡à¸²à¸
t on
ÙĪÙħ Ø©
ĠáĥĴáĥĲáĥĽ áĥĿáĥ¡
Ġà°ħà°¯ à±įà°¯
ĠÐľ Ñĭ
×ķ×¨ ×Ļ×Ŀ
Ġ ãģ¨ãģĦãģĨ
à§ĥ à¦·à§įà¦Ł
Ġprem ier
hne d
la d
à¦² à§įà¦²
ct r
à°¾à°® à°¨à°¿
à¤ľ à¤¨
à´¾à´ £
à°¡ à±ģ
ĠwiÄĻ k
ÙĦ ÙĬØ©
Ġà¤µà¤¿à¤ µ
ĠA nge
Ġof re
æ± º
Ġáĥŀ áĥĲáĥłáĥļáĥĲáĥĽáĥĶáĥľáĥ¢
¸à±įà°¥ à°¿à°¤
ĠAv ro
Ġà¦®à¦¾à¦§à§įà¦¯à¦® à§ĩ
áĥķ áĥĲáĥłáĥĺ
ti che
Ġà®¨ à®¾à®®à¯į
áĥĽ áĥĺáĥĹ
ch ts
Ġ201 1
Ġsu ite
Ġt ah
à¥ģà¤ Ń
ĠØ¯ ÙĪÙĦ
Ġpro dej
Ġà®ªà¯ĭ à®¤à¯ģ
ne k
Ãº t
Ġà°ĩ à°²à°¾
ĠSt ra
Ġà°°à°¾à°ľ à°ķà±Ģà°¯
Ġf al
lar dan
Ġp un
Ġà¤¶à¤¾à¤® à¤¿à¤²
l as
Ġêµ °
Ġà°ħà°¨à±įà°¨ à°¿
Ġà¦¸à¦Ĥ à¦¬à¦¾à¦¦
ve au
Ġáĥĳ áĥłáĥ«
à¹ģà¸£à¸ ĩà¸
Ġãģ ķ
ç¨ ³
Ø§ ÙĪ
Ġà¦® à¦¤
Î¼ ÎµÎ¹
ãģĵ ãģ®
Î»Îµ Ïį
ê² ł
áĥĺáĥ¡ áĥĽ
å ¡
åĮ »
Ð°Ð» Ð¸ÑģÑĤ
Øµ ÙĪÙĦ
Ïĥ Î¼Î±ÏĦÎ±
ess er
áĥĺáĥķ áĥĶáĥłáĥ¡
ĠÎ¿ Î´Î·
ĠÑįÐº ÑģÐ¿
Ġh Ã´tel
à¤¾à¤¹ à¤°
à¹ĩà¸ Ķ
ÏĦÎ· ÏĦÎ±ÏĤ
Ġå¹ ¸è¿Ĳ
ÐµÐ² Ð°
ib ilitÃł
Ġma chen
Ġi f
ÏĢ Ïī
ĠÃ ĵ
ĠÐ´Ð¾Ðº ÑĥÐ¼
Æ°á»Ľ ng
Ġà¸ķ à¹īà¸Ńà¸ĩ
ÏĦ Ïį
s ah
ÙĨØ¯ Ú¯ÛĮ
èĲ Ħ
à¥ĩà¤ £
åŁ Ł
ìĸ ¸
ģà¸²à¸ ¨à¸
ĠÐ¼ ÑĥÐ¶
Ġà¦¤ à¦¾à¦ķà§ĩ
à¯Ģ à®¤
à¹ģà¸« à¹Īà¸ĩà¸
ĠÑĤ ÑĢÐ°Ð½
à¹Ģà¸Ķ à¸´à¸Ļà¸
Ġ×ĳ ×ĳ
Ġà¥¤ âĢĻ
áĥĿ áĥĶáĥĳáĥĺáĥ¡
Ġà°¸à°Ĥà° ª
ĠÐ½ Ð¸Ñħ
Ġu z
Ġsta ta
à§ģà¦ £
lar es
na ge
Ġsim ple
Ġà¦Ĩ à§Ł
Ġda ting
à±Ģà°Ĩ à°°à±į
k k
ĠIn ter
à°¿à°ª à±ĭà°¤
à¯įà®ķà®³ à¯Ī
Ġk osz
ÅĻe ba
ëĭ¤ ëĬĶ
es en
Ġà¤¸à¤ķ à¤¤à¥Ģ
áĥĶ áĥĶáĥĳáĥĺ
da y
ĠA pp
à¦¾à§Ł à§Ģ
Ġáĥľ áĥĲáĥª
ĠØ¯ ÛĮØ¯
Ġv iv
ĠáĥĲáĥł áĥĲáĥ¤
Ġpe ÅĤ
ĠdÃ© jÃł
Ġme zi
áºŃ y
Ø¨ Ø¹
×ľ ×ĳ
Ġmog Äħ
n el
Ġi de
ĠTh em
Ġà°Ĩ à°§
g esch
Ø±ÙĪ Ø²
ê³ ³
Ġ antes
à¥ģà¤ £
Ġà®¨ à®¿à®ķà®´
Ġv ÄĽt
Ġê° Ħ
à°²à±įà°² à°¿
Ġà¦¬ à¦°
ĠÃ©qui pe
áĥª áĥĺáĥĺáĥ¡
±à¸ Ķ
Ġà¤¸ à¤«
ä¸ĸ çķĮ
à±Ĥà° Ł
Ġà¦¤à¦¥ à§įà¦¯
Î¯Î½ Î¿ÏħÎ½
Ġcos a
ĠÎ¶Ïī Î®
il ik
áĥĲáĥª áĥĺáĥĿ
è¾ ĥ
å¤ ±
Ð¡ Ð¢
ĠGr und
Î¼ ÏīÎ½
Ġsch ne
ĠáĥŀáĥłáĥĿáĥĳáĥļ áĥĶáĥĽ
ÎĳÎ ł
ĠÑĥÑģÐ» ÑĥÐ³
Ġenf ants
Ã³ ng
ªà¸ °à¸
ĠÎºÏħÎ² ÎŃÏģÎ½Î·
æ¸ ¯
ĠÐŀ Ñģ
Ġdo v
ĠØªÙĪØ³ Ø·
à¸Ļà¸ ±à¸ģà¸
ĠÎ±ÏĢÎ¿ Îº
Ùİ ÙĦ
ĠÐº Ð»Ð¸
ĠØ§ÙĦÙħ ÙĨØª
±à¸ ĩà¹Ģà¸
ĠÎŁ Îº
Ġ×ŀ× Ĵ
Ġà¤ĵ à¤°
A G
çº ¦
åĳ ½
Ġpo der
ĩ à¹Īà¸²à¸¢
ĠÐº Ð°Ð·
Ġà¦ľ à§ĩà¦²à¦¾
ëª ©
Ĺ à¹Īà¸²
Ð¾Ð» Ð¶
Ĭà¹Īà¸§à¸ ¢
ĠB iz
Ġà¦¤à¦¾à¦ģ à¦°
Ġáĥ¡ áĥĿáĥªáĥĺ
à±ģà°² à±į
Ð¸ÑĤ ÐµÐ»Ð¸
Ġdo ch
Ġsk al
Ġs Ã¼re
ĠØ§ÙĦØ± Ø¦ÙĬØ³
ĠS ur
b il
Õ¡ ÖĦ
Ġs at
à±Ĥà°° à±ģ
Ġsprze da
Ġà¦¸à¦®à§įà¦ª à¦¾à¦¦à¦ķ
à°¿à°ļ à±įà°ļ
Ġà¦² à§Ģà¦Ĺ
pe w
Ġm ak
Ã¤l t
ìĺ ¨
ÙĤØ¯ Ùħ
Ġáĥ¡áĥĲáĥ£áĥ ĳ
à°° à±įà°²à±ģ
Ġcha que
Ġà¦¸ à¦¾à¦Ĥ
áĥķáĥĲáĥļ áĥĺáĥ¡
qu ÃŃ
×ķ×ĳ ×Ķ
ĠáĥĹáĥĲáĥķáĥĺáĥ¡ áĥ£áĥ¤
v an
iss ion
Ġpro v
ÛĮÙĨ Ùĩ
ê¸ Ģ
8 0
Ġza w
Ġder nier
à¥ī à¤¨
ĠmÃ¼ s
Ġà°ķ à°¦
ê· ¼
à®¿à® ¨
Ġb ene
Ġk ier
ãĥĹ ãĥª
Ġd Ã¢n
Ø§Ø¦ ÙĬ
.... ....
Ġà°ħà°¨à±įà°¨ à°¾à°°à±ģ
à¦¹ à¦£
ĠS ujet
ĠáĥĴáĥĲáĥľáĥ¡ áĥĲáĥĻáĥ£áĥĹáĥł
lo t
ĠØ¨Ø± Ø®
¾ è®¯
Ġà°®à±ģà°Ĥà°¦ à±ģ
à¦¸à§įà¦¥ à¦¾
ĠÏĥ Î±Î½
Ġ×¢ ×ĵ
ĠÎµ Î´Ïİ
åı¯ èĥ½
áĥ£áĥļ áĥĺáĥ¡
Ġå½ ĵ
ĠçĶ µ
ĠÑĤÐµÐ» ÐµÑĦ
ggi or
ĠÏĦ ÎµÏĩ
ĠÔ µ
ĠáĥĵáĥĲáĥ ¤
ĠÎ² Î¹Î²
ĠÐ¿ÑĢÐ¸Ð¼ ÐµÐ½
Ġpho to
Ġv ur
à¹Ħà¸§ à¹ī
Î»Î¿ ÏįÎ½
Ġà¥ §
ĠÐ³ ÑĢÑĥÐ¿Ð¿
ï »
ÙĬ Ø¬
à¹Īà¸Ńà¸ĩ à¹Ģà¸Ĺà¸µà¹Īà¸
ĠÏĢÎ¬Î½ Ïī
Ġà¤®à¤¾à¤® à¤²à¥ĩ
Ð¾Ð¶ Ðµ
íĽĦ ê¸°
· à¸Ńà¸ĩà¸
ÏģÎµ Î¯Î±
ë©´ ìĦľ
c Ãª
èĲ ½
ç± ³
åį ı
dan ie
ģà¸´à¸ Ī
ĠÑĥ ÑĢÐ¾Ð²
Ġà¦ī à¦¨à§įà¦¨
à¬¾ à¬
Ĭà¸ ¡à¸
ĠÑģÑĤ Ð°ÑĤÑĮ
¸à¸ ĩà¹Ģà¸
Ġà¤¶ à¥įà¤°
Ã¸ y
isch er
à°¿à°¸à±įà°¤ à±ģà°Ĥà°¦à°¿
ĠÑĪ Ðº
Ġnuest ro
à¯ģà®¤à¯įà®¤ à¯ģà®µ
Ġprimer a
ĠRo z
Ġi ci
t in
Ġë Ī
Ġà¦¬à§įà¦¯ à¦ķà§įà¦¤
Ġà¤° à¤¾à¤®
Ġà¤ī à¤ł
ÉĻt ir
k re
Ùħ ÙĪ
áĥĲáĥķ áĥĲáĥļáĥĺ
Ġï¼Į ãĢĲ
o g
à®¾à® ´
Ġ×ľ ×¦
ĠktÃ³r ych
ov Ã½ch
m ment
áº¹ p
ĠL u
at ter
ĠP ero
Ġm ÉĻÅŁ
Ġa lles
au d
à®©à¯įà®© à¯Ī
Ġà°ħà°Ĥà°Ł à±Ĥ
Ġà°¦ à°Ĺà±įà°Ĺ
Ġà®¤ à®¿à®Łà¯įà®Ł
ĠáĥĹáĥĲáĥķáĥĺáĥ¡ áĥĺ
g as
Ġà¤¨ à¤Ī
Ġa llo
ler ini
Ġê²½ ìļ°
Ã© ro
ĠÙħ ØµØ±
ĠÙĪ Ø§ØŃ
Ġà¦¸à¦®à§įà¦ª à¦°à§įà¦ķ
iv el
Ġv Ã¬
ĠRe g
ĠØ§Ø± Øª
Ġsay a
Ġn r
Ġ×¢ ×¦
Ġà¹Ģà¸ Ķ
à±ģà°ķ à±įà°ķ
Ġä» İ
áĥĲáĥªáĥĺ áĥĲáĥ¡
Ġin di
Îķ Îļ
Ġna m
Î¼Îµ Î¯
à±ģà°¤ à±ĭà°Ĥà°¦à°¿
j u
èĭ ±
Ġå¤§åıĳ å¿«3
ĠÐ±Ñĭ Ð»Ð°
kov Ã©
Î´ ÏīÎ½
Ġà®ĩ à®©à¯įà®±à¯ģ
áĥĶáĥĳ áĥĺáĥĵáĥĲáĥľ
Î¼ÎŃÎ½Î¿ ÏĤ
ĠÐ½ Ð°Ð¼
Ġà°ĩ à°µà±įà°µ
ĠÕ« ÖĢ
à¹Ĥà¸£à¸ ĩà¸
ĠÏĦ Î¬
4 0
ĠÑįÑĤ Ð¾Ð¹
Ġna z
Ġprodu its
Ġà¹Ģà¸¡à¸ ·à¹Īà¸Ńà¸
ĠÏĢÏģÏİ ÏĦÎ·
Ġà¤¬ à¥ĩà¤¹
Ð´ Ð¸Ð½
iy asÄ±
§à¸ ¢
ĠÎ Ħ
ĠØ¨ÛĮ Ø´ØªØ±
Ġman era
Ġæī ĭ
çİ° éĩĳ
çĻ ½
ĠAr tik
à¹ĥà¸Ļà¸ ģà¸²à¸£
Ð¸ÑĩÐµÑģÐº Ð¸
ìķĦê°Ģ ìĶ¨
ä¼Ĭ äºº
T 00
ĠÐºÐ² Ð°ÑĢÑĤ
ĺ à¸µà¸
Ġà¤¶à¤¿à¤ķ à¥įà¤·
ë¡ ¯
à¯įà®® à¯Ī
ich te
Ð¼ Ðµ
Ġà°¤ à°²
Ġt re
ĠÙħ Ø¤
à§įà¦¯ à§ģ
Ġexem ple
Ġtr op
Ġë¬ ¼
áĥ¨ áĥłáĥĿáĥĽ
à¥Ģ à¤¤
à¤ļ à¤¾à¤°
h ou
Ġà°ĩ à°Ĥà°¡
à§Ĥ à¦°à§įà¦£
ÙĦ Øª
Ġà¤ª à¤¿à¤
Ġáĥ¥ áĥ£áĥ©
×ŀ ×ķ×ª
ĠAzÉĻrbaycan Ä±n
Ġo ÄŁ
Ġob ie
au te
ĠáĥŀáĥłáĥĿáĥª áĥĶáĥ¡
Ġtra ta
e h
Ġa ir
Ø¨ ÙĬØ±
à®Ļà¯įà®ķ à¯ĩ
Õ ²
Õ¾ Õ¥Õ¬
Ġà°ļà±Ĩà°Ĥà°¦ à°¿à°¨
ĠáĥĽáĥĶáĥĴ áĥĿáĥĳ
Ġest ar
ĠPer son
ĠãĤ »
à¥įà¤ŀ à¤¾à¤¨
áĥĽ áĥĲáĥł
Ġse ule
Ã ļ
ĠÃ Ĭ
á»į i
di ÄŁi
en ze
Ġà°¸à°Ĥà° Ĺ
ĠI k
ue go
é§ ħ
ãĥ³ãĥ Ĺ
Ġ×ľ ×Ĵ
in ie
ģà¸±à¸ Ķ
Ġà°®à±Ĭ à°¤à±įà°¤
æ£ Ģ
Ġáĥĺ áĥł
da g
ÏĢÏĦ ÏīÏĥÎ·
Ġà®ī à®Ļà¯įà®ķà®³à¯į
ĠÎ¤ ÎŁÎ¥
ĠÙĩÙħ Ùĩ
Ġann on
à¨ ¹
Ġag äºļæ¸¸
ĠÐ½ ÐµÐº
Ġp ost
Î½ Î¹
am a
áĥĺáĥłáĥĵ áĥĶáĥĳáĥĲ
ĠÎºÎ± á½¶
Ð°Ðº Ñģ
ĠM us
ti ma
«à¸±à¸ §à¸
ÏĢÎ¿ ÏĦÎµ
åĨ µ
ĠÐŀ Ð½
m ÉĻsi
ê² °
Ľà¸ ģà¸
Î ŀ
Ġà¤ĩà¤¸ à¤²
Ð° ÑĨÐ¸Ð¾Ð½
Ġà¦ķ à§ĩ
Ĥà¸Ńà¸ĩà¸ Ħà¸¸à¸ĵ
ĠÏĨ Î¿Ïģ
or y
ĠãĤ ¿
è Ľ
2 7
ç» ´
ĠØ³ Ø§Ø¹Øª
Ĺ à¸´à¸
Ðº Ð°Ð¼Ð¸
za hl
ĠÖ ĥ
§à¸ Ķà¸
Ð°Ð» Ð¸ÑģÑĮ
¡à¸ ·à¸Ń
ĠØ§ÙĦÙħ ÙĤ
Ġà¦¶ à§ĩà¦ĸ
Ġà°¤à±Ĩà°² à°¿à°¯
Ġà¤ķ à¤¿à¤¤
ĠÐ² Ð¾Ð»
Ġne ue
Ġren contre
ĠE lle
Ġin nych
ãģ¦ ãĤĤ
bi to
Ġto e
ĠáĥĽáĥĵáĥĴáĥĿáĥĽ áĥĲáĥłáĥĶáĥĿáĥĳ
à§ĭà¦°à§įà¦ Ł
ĠæĿ ±
Ġz em
Ġà¤¯à¤¦ à¤¿
Ġ| --
Ùģ Ø©
à±Ģ à°²à±ģ
ĠáĥĻáĥĲáĥłáĥĴ áĥĺ
Ġdo it
larÄ±n a
ãĤį ãģĨ
eit ere
à®¿à®° à®¿à®¯
ĠáĥĽ áĥĶáĥ¡
Ġnost ro
Ġqu indi
ĵ °
Ġà¦ıà¦ķ à¦ľà¦¨
it ab
Ġpo lÃŃ
×¨×Ĳ ×©
Ġà°¹à±Īà°¦à°° à°¾à°¬à°¾à°¦
Ġáĥł áĥĲáĥĺ
Ġà°° à°¾à°µ
Ġà®ļ à®ķ
ãģı ãģª
Ġsa voir
ĠáĥĲáĥĽ áĥĶáĥł
r icht
Ġf ÉĻr
Ġde re
ĠØ¯Ø§ÙĨØ´ Ú¯Ø§Ùĩ
Ġà¤ªà¥Ĥ à¤°à¥Ģ
un i
ØŃ ÙĬ
íĻ ©
à¯ĭ à®Ł
Ġè ¦
ur os
ĠrÃ© f
Ø± Ùĩ
Ġà¸Ħ à¸Ļ
wa ÅĤ
å¤§ å°ı
áĥĶáĥĳáĥĺ áĥĲ
Ġmej ores
Î± ÏģÎ¯Î¿Ïħ
ill er
ĠÎŃ ÏīÏĤ
Ġå ģ
Ġà¤īà¤¤à¥įà¤ª à¤¾à¤¦
ĠåĲ Į
ä¿ ®
ÑĢÑĥ Ð±
Ġà°ªà±Ĭ à°Ĥà°¦
ĠÏİ ÏĥÏĦÎµ
ìķ ł
Ġà®¤ à¯Ģà®°
ÎĳÎ Ķ
Ðº Ð¸Ð¹
Ġse gun
ĠSta dt
Ġ256 2
ĠÎº Î¿Î¹
è¯ Ħ
Ð°Ð½ Ñĭ
Ġw ij
Ġä¸Ģ æľ¬éģĵ
«à¸¡à¸²à¸ ¢à¸
ĠÎĳ Î¸Î®
ĠæĪĲ äºº
ĠÐ± Ð»
ĠÃ Ĵ
à¹Ĥ à¸Ń
ĠÎ´ÏħÎ½Î± ÏĦÏĮ
Ġgi an
Ø§ ÙĬØ©
ç ¯
èī º
è ŀ
ë ¨
à¹Ģà¸ ĺ
Ñĥ ÑİÑĤ
Ġà¦¬ à¦¾à¦¬
i Ã¨re
à¹ģà¸ ķà¹Ī
Ñĥ Ð»Ð¸
Ġà¸Ħà¸ ·à¸Ń
à§ ®
ĠØ®ÙĪØ¯ Ø±ÙĪ
Ġk to
à¤¾à¤Ĥ à¤¤
Ð¾Ð³ ÑĢÐ°ÑĦ
Ġáĥ¬áĥĲáĥłáĥĽáĥĿáĥĽ áĥĲáĥĵáĥĴáĥĶáĥľ
Ġà®® à¯ģà®ķà¯įà®ķ
Ġve el
Ġì¶ľìŀ¥ ìĥµ
Ġ/ /
ĠíĨ ł
ĠÃ ¸
wo d
à¦² à¦¾
du ca
áĥķ áĥĶáĥĹ
Ġà¤¯ à¥ĭà¤Ĺ
a ber
ĠMil ano
Ġo ra
Ø´ Ùħ
Ġb anyak
Ġà¦¸ à§Ĥ
Ġpe que
und es
Ġcomp te
K A
Ġsz ko
l is
ë¥ ĺ
Ġà°ª à±ģà°°
ĠM in
ĠÙĪ Ùģ
ĠáĥĳáĥĶáĥķ áĥłáĥĺ
Ġb Ã¶l
r ir
×¤ ×§
rie b
ãĥ¼ãĥ Ĺ
Ġb amb
Ġk inh
ck e
Ġus t
ĠØ®ÙĪØ§Ùĩ Ø¯
ĠF emme
Ġà¤¹à¥ĭ à¤Ĺà¥Ģ
O U
ĠØ¨ ÙĪ
Ġà¦ħ à¦«
à®¿à® Ļà¯įà®ķ
Ġà°ľà°° à±ģà°Ĺ
sk Ã½ch
ve z
st Ã¤n
à¹Ĥà¸£à¸ĩà¹ģà¸£à¸ ¡à¸
:: ::
ç§ Ĵ
ï¼ ĵ
ãĤ¿ ãĤ¤
ĠÎ¬Î½ Î¸ÏģÏī
ãģ¨ ãģĭ
ĠÎĳÏħ ÏĦÏĮ
à´¾à´ °
Ġà¶ ´
à¤¾à¤ļ à¤¾
2 9
ĠÐ½Ð° ÑħÐ¾Ð´
çļĦ ãģª
ĠÎ¸ÎŃ ÏĥÎ·
cj Äħ
Ġáĥĳ áĥĿáĥļáĥĿ
ĠÎ£ Ïĩ
Ð¼ Ð°ÑĤ
Ġà°¸à°® à°¸à±įà°¯
Ġà®ĩ à®³
Ġà¹Ģ à¸Ļà¸
Ïĥ Ïĥ
åĩ »
ĠÑįÑĤ Ð¾ÑĤ
×Ĳ ×Ļ
Ġà¤µ à¤¿à¤°
ªà¸ĸ à¸²à¸Ļà¸
Î¼Îµ Î½Î·
Ġà¤® à¤¤
ÐµÐ¹ ÑĩÐ°Ñģ
ĠH om
¸ à¹Īà¸¡
ĠÎ» Î¬
Ġda i
Ġà¦¹à§ĭà¦¸ à§ĩà¦¨
à¤¤ à¥ĭ
áł ¢
çģ «
Ġà¦Ĩ à¦¬à¦¾à¦°
Ġà¹Ģ à¸£à¸
ĠÐ² ÑĤÐ¾ÑĢ
ëª¨ íħĶ
Ġpart ir
Ġ à¹Ĥà¸£à¸ĩà¹ģà¸£à¸¡
ĠÑĥ Ð¿ÑĢÐ°Ð²
¡ à¸´
· °
Ã Ĩ
áº¯ ng
Ġà¤Ĩ à¤°à¥ĭ
ĠÐ¼ Ð°ÑĪ
Ġì¶ ©
ĠáĥĲáĥ®áĥĲáĥļ áĥĴ
à§ĩà¦ĸ à¦¾à¦¨à§ĩ
à®µ à®©à¯į
ÙĲ ÙĬ
Ġà®® à®¾à®¨
ÙĬ Ø´
áĥĳ áĥ£áĥłáĥĹ
ĠÛ µ
ĠØªÙĪ Ø¬Ùĩ
tiv as
on der
Ġà¤¹ à¥ĭà¤Ĥ
Ġà®¤à¯Ĩà®°à®¿à®µ à®¿à®¤à¯įà®¤
Ġáĥ¥áĥķáĥĶáĥ§ áĥľáĥĺáĥ¡
ÉĻm iyyÉĻt
ĠìĬ ¬
Ġtien en
ĠíĶ ¼
z ent
c le
à±įà°¯ à°¤
Ġs iz
Ø§ØŃ ÛĮ
áĥĿáĥ ©
b ul
Ġy Ã¶n
Ġcon os
×ĵ ×Ŀ
ĠØ¬ Ø¯ÙĬØ¯
Ġra p
Ġà°¨ à°¡
ĠÄį es
Ġvel mi
Ġà®ķ à¯ģà®°
ĠØ± ÛĮ
s Ã¥
ĠmoÅ¼ liw
ĠÃ ¤
Ġco lle
à¥Ĥ à¤¦
ê² ĥ
à®¤ à®¾à®²à¯į
ob ierno
ba ar
Ġsu dah
áĥĶáĥĳ áĥĲáĥĵ
Ġvo it
Ãªn cia
à¹ĥà¸ ķ
s ÅĤu
åħ «
ÙĨ Ùĩ
Ġà°ª à°¾à°¤à±įà°°
Ïĩ ÏģÎ¿
Â º
ÏĦÏħ Ïĩ
ĠÂ ¾
ĠÄĳ iá»ĥm
à¤¾à¤ļ à¥Ģ
ļ áŀ
Ð Ļ
ä¹ Ŀ
ĠÎ¤ Î·Î½
à¥Ī à¤¨
à±ĭ à°¸
ĠÎłÎ¿Î» Î¹
ĠÐ¼Ð¾Ð¶ÐµÑĤ Ðµ
ĠCh icas
ch os
à¹Ħà¸ Ĺà¸¢à¸
ĠÏĥ ÏĦÎµ
Ġ äºº
ÑĢ Ð¸ÑĤ
ĠdeÄŁ il
Ġwie le
«à¸¥à¸²à¸ ¢
Î® ÏĦÎ·
Ø±Ùĥ Ø²
ĠÐ¶ Ð¸Ð·
sta v
ŀà¸£à¸ °
á½ ´
ÉĻyy ÉĻn
Ġtr es
éĩ ĩ
ä½ ı
é ¥
Ġ×Ĳ ×Ļ×ļ
à¹Ģà¸ ¢
Ð¾Ð´ Ð°ÑĢ
Ġà¦¬à¦¾à¦Ĥà¦²à¦¾à¦¦à§ĩà¦¶ à§ĩà¦°
à¦¿à¦ķ à¦¾
ªà¸ ±à¹Īà¸ĩà¸
Ð¾Ð´ ÐµÑĢÐ¶
Ġ') .
ung an
Ġ×Ĳ ×ĳ
à°Ĥà°ª à±Ī
Ġdam it
Ðł Ñ
Ġnouve lle
ĠÚ© Ø¯
cz ka
ÙĨØ¯ ÛĮ
Ġcomp l
dz ia
ak t
áĥĶáĥ ¯
Ġf ilm
ë³´ ìŀ¥
ìĽ Į
ĠØ³ Øª
Ö ´
Ġ×ĳ ×Ľ
à¯ģà®¤ à¯ģ
à°Ĥà° ¶
Ġm Ã¶glich
à¦¿à¦¸ à§įà¦¤
ta ciÃ³n
Ġà¤ķà¥įà¤¯à¥ĭà¤Ĥ à¤ķà¤¿
Ġáĥ¥áĥķáĥĶáĥ§ áĥĲáĥľ
Ã¨ ne
à±ģà°µ à°¾à°¤
d io
à¯ĭ à®©
à§ĩà¦® à¦¨
en Ã¡
ĠA c
ber o
uy or
Ġot ra
Ġbir i
it t
ĠÛ ´
ĠØ³ Ø±ÛĮ
Ġdo dat
© ëĭĪëĭ¤
Ġà¦ªà¦° à§ĩ
Ġm ont
×Ĳ ×Ļ×Ŀ
ow is
áĥĺáĥł áĥĶáĥĳáĥĺáĥ¡
ĠÙĨÙħ Ø§ÛĮ
çĭ ł
à´° àµįâĢį
Ġé ¦
à¥ĩà¤¯ à¤°
Ġà®ªà¯Ĩ à®±
ion al
ķ à¸£à¸§à¸Īà¸
Ġna ture
ĠæĪĳ ä»¬
ÅĽ wiad
Ġk áº¿t
ĠÏĮ ÏĥÎ¿
el ing
Îķ ÎĻÎ£
Øª ÙĩØ§
ĠØŃ Ø¯
è¯ »
äº Ĵ
ĠÐ² Ð°Ñģ
Ġà¤Ń à¤°
Ïģ Î¹Îº
is ce
Ġji Å¾
Î¬Î½ Ïī
ĠÐ¿Ð¾Ðº ÑĥÐ¿
Õ¸ÖĤÕ µ
ĠaÃ§ Ä±q
ªà¸ ³à¸Ħà¸
Î³ Î½Ïī
éļ ¾
Ð¸ÑĨ Ð°
áĥ® áĥĶáĥļ
ĠW eb
Ġà¸£à¸ ¸à¹Īà¸Ļ
ĠÎ³ Î¯Î½ÎµÎ¹
Ã¡ g
Ñĥ ÐµÑĤÑģÑı
Ġà°¨ à°¿à°¯
Ġà¹ģà¸ ¡
ĠÎ´ Ïī
ĠáĥĹáĥĲáĥĽ áĥĲáĥ¨
ĠA Z
å¤ĩ çĶ¨
à© ģ
æľ Ľ
ĠM ÉĻr
Ġà¸ģà¸²à¸£à¸ŀà¸Ļà¸±à¸Ļà¸ Łà¸£à¸µ
Ð½ Ð¸Ñħ
Ġch ar
Ġà¤µ à¥Ģà¤¡
Ġà¸ Ķà¸µ
ÐµÐ³ Ð´Ð°
ļà¸ ±à¸Ļ
ie ra
Ġe er
schie den
b ÉĻt
ĠÐ·Ð° Ñī
Ġà°¸à°Ĥà° µ
at s
Ġà¦¬à¦¿à¦Ń à¦¾à¦Ĺ
áĥ£áĥļáĥĺ áĥĲ
f o
Ġt wo
alÄ± k
Ã§ o
ÄŁ un
×Ĳ ×¨
ON E
or to
Ġà®ļ à®¾à®¤
Ġà¦®à¦¾à¦¨à§ģà¦· à§ĩà¦°
áĥł áĥĲáĥļ
Ġh ui
ĠP ÅĻÃŃ
d ia
is k
àŃį à¬
ĠáĥĴáĥĲáĥł áĥĶáĥĽ
èª ŀ
Ġi hned
Ġs co
ut ÃŃ
Ø¨ Ø§Øª
Ġà¦¬à¦¿à¦° à§ģà¦¦à§įà¦§à§ĩ
cyj ne
ĠcÃ³ mo
ĠF ar
á» Ĺ
ÉĻl ÉĻ
n t
áĥĶáĥł áĥĲáĥ¢
uj emy
ÅĻe b
Ġwsp Ã³ÅĤ
ĠEs p
Ġà®ªà®¯ à®©à¯įà®ª
à°Ĥà°²à±ĭ à°¨à°¿
U E
r ent
Ġst ar
é º
à¥Īà¤Ĥ à¤ķ
à´¾à´ ¨
Ġà¤¬ à¥įà¤²
Ġà¦ķà¦¾à¦°à¦£ à§ĩ
Ġ) ;
¨à¸¶à¸ģà¸© à¸²
Ġin te
èĮ ĥ
Ġíķĺ ëĬĶ
ĠØ³Ø§Ø² ÙħØ§ÙĨ
Î´ ÏģÎ±
ĠU omo
ĠÏĨÎ¿ ÏģÎ¬
Ġk ita
Ġà°¨ à°Ĺ
Ġagçİ¯äºļ éĽĨåĽ¢
ç½ĳ æĬķ
ĠÐ¾Ð± Ð¾ÑĢ
à¥ĩà¤¸ à¥įà¤Ł
ĠÎ» ÎµÏĢ
Ġm igli
ni enia
ĠÎ±ÎºÏĮ Î¼Î·
ĠÑģÐ¾Ð¾ÑĤÐ²ÐµÑĤ ÑģÑĤÐ²
ĠÉĻr az
ĠWo hn
à¸Ńà¸ ¥
ĠÏĢ Î¿Î¹
æĻ ¯
Ð° ÑģÐº
áĥļ áĥĶ
le c
Ĺà¸µà¸ ¡à¸
ĠÎº Î¿Î¹Î½
ta mente
ÑĢ ÐµÐ½
ĠØ± ÙĤÙħ
¸à¸ ģ
ÏĪ ÎµÎ¹ÏĤ
Ġáĥ¡áĥĲ áĥĲáĥĹ
Ġdax il
ĠãĢĤ âĢĿ
ç¤¾ ä¼ļ
èĩ ´
×ľ ×ĺ
Ġà¸ľà¸ ¥
Ġ" .
ÄĽ k
Ġà¤®à¥ĩ à¤°à¥ĩ
¶à¸ ģ
Ñĳ ÑĤ
à¹Ĥà¸ ķ
n ku
Ġd Ã¼z
u la
ĠÙħÛĮâĢĮ Ø´ÙĪØ¯
ĠÐ¾Ð± ÑıÐ·
Ġf Ã¼
Ġà¦ķ à§Ģ
ëĵ¤ ìĿĺ
Ãº p
n Ã©e
ra Å¼
áĥĿáĥĵ áĥ£áĥ¥
Ġà¦® à¦¿à¦²
Ġà°ªà°°à°¿à° ¸à±įà°¥à°¿à°¤
ëĭ ¬
×ŀ ×ķ×ĵ
ch u
Ġà®¨ à®¾à®³
Ġs ouv
ĠáĥłáĥĲáĥ¢ áĥĿáĥĽ
ze ich
Ġà°¨ à°¿
Ġà®¨à®Ł à®¤à¯įà®¤
ĠN or
Ġà¤ĺ à¤Ł
ĠG E
à¦¾à¦¡ à¦¼
Ġog sÃ¥
ĠÂ ¸
áº£ nh
Ġë¨ ¹
Ġg ir
h b
Ġnuest ra
Ġ×Ĺ ×©
ang at
ÃŃ t
ë³ µ
áĥĿáĥĳ áĥĶáĥľ
Ġza ch
Ùİ ÙĨ
al noÅĽci
Ġgr u
ĠÙĪ ÙĦÙĥ
Ġà®¨ à®¾à®Łà¯įà®Ł
ĠEs paÃ±a
à±ģà°ķà±Ĭ à°¨à°¿
Ã³ d
à¥Ĥ à¤¤
åľ¨çº¿ çľĭ
Ġà¤ľà¤¾à¤ı à¤Ĺà¤¾
Ġà¤ľ à¤¾à¤°à¥Ģ
ek en
Ġáĥ¡áĥĲáĥĻáĥ£áĥĹ áĥĲáĥłáĥĺ
Ġ <
Ġho y
à¤ļ à¤¾
Ġ ãģŁ
Ġra cc
ĠÎ± ÏģÎ¹Î¸
c uk
ĠÏĥÏħÎ³ ÎºÎµÎºÏģÎ¹
à±Ī à°µ
Ġass ur
Ġà¤Ĩà¤¹à¥ĩ à¤¤
Ġc c
ĠÐ´ ÐµÐº
Ġà¤² à¤¡à¤¼
Îº Î¿Ïħ
Ġë ĳĲ
Ġlo k
Â »
ĠÐ°Ð²ÑĤÐ¾Ð¼ Ð¾Ð±
Ġol tre
ãģ® ä¸Ń
Ĺà¸± à¹Īà¸§
ĠÎ¼ÏĢÎ¿ ÏģÎ¿Ïį
åĮĹäº¬ èµĽè½¦
ÐµÐ´ ÐµÑĢ
Ġáĥ¡áĥĲáĥĽ áĥ¡áĥĲáĥ®
Ġcom er
Ġà¸ªà¸³à¸« à¸£à¸±à¸ļà¸
Î¿ÏħÎ» Î¯Î¿Ïħ
ĠN ej
ĠÐ¼ ÐµÑģÑı
Ġ1 99
¢à¸´à¸ĩà¸ Ľà¸¥à¸²
Î»Î» Î¹
áĥĴ áĥĶáĥľ
Ġex pÃ©
å¿« ä¹Ĳ
ĠâĢĿ ï¼Į
å»º è®¾
Ġol ur
ŀà¸´à¹Ģà¸¨à¸ ©
Ñĥ Ð¹
Ġcual quier
çļ ĩ
·à¹Ī à¸Ļà¸
Ð½ Ð¸Ñĩ
ªà¸ °à¹Ģà¸
×ķ×ľ ×Ķ
b ild
w ort
Ġvie le
ĠÐ¼ Ð°ÑĢ
Ùİ Ø§
Ø¬ Ø±
r om
à°Ĺ à±įà°°
Ġà®ħ à®Łà¯ģà®¤à¯įà®¤
Ġpeu vent
ĠáĥĽ áĥĶáĥĵ
Ġà¦Ĩ à¦Ł
ãģª ãģĮ
Ġn ar
à®¿à®°à¯ģà®ķà¯įà®ķ à¯ģà®®à¯į
Ġà°ª à±ĩà°°
Ġnue va
Ġsc ar
áĥĶáĥĴ áĥĽ
ĠÃ¶n ce
Ġn l
Ġwe er
à°¿à°¦ à±įà°§
à¥ĭ à¤°à¥įà¤Ł
ĠØ³ Ø¨
Ġ×Ļ ×Ľ×ķ×ľ
Ġáĥķ áĥĺáĥ¡
à§ Ń
Ġb áº±ng
ìĤ° ì¶ľìŀ¥
ĠìĥĿ ê°ģ
i ge
at an
Ġda lle
am iÄĻ
Ġãĥ» ãĥ»ãĥ»
æĪ ¦
ĠáĥĻ áĥ£áĥļáĥ¢
Ġà¦ļ à¦¿à¦ķ
ĠG ra
ÉĻy in
Ġbu dou
Ġin st
Ġà®ļà¯Ĩ à®©à¯įà®±
Ġà§§à§ §
Ø® Ø¯
Ġà¦² à¦ķà§įà¦·
Ġà¤¤ à¤¬
Ġà¤¤à¥Ī à¤¯
ĠåĪ© æĿ¥
Ġà¤¸à¥Ĥ à¤ļ
Ġà°ļà°Ĥà°¦à±įà°°à°¬ à°¾à°¬à±ģ
Ġà°ªà°°à°¿à° ¶
à¹ĥà¸«à¸¡ à¹Īà¸
Ġnas zy
Ć ï¼Į
Ġp al
Ġà®ļ à®®à¯įà®ª
ĠÏĢÎ± ÏģÎŃ
Ġáĥª áĥķáĥļ
Î¬Î½ ÎµÎ¹
in nen
Ġìĺ¨ ëĿ¼ìĿ¸
Ġæ ł
è§£ æ¢¦
Ð¸Ð¼ Ð¾ÑģÑĤÑĮ
à´Ļàµįà´ Ļ
Î» ÏīÎ½
Ġcz ÅĤ
âĢĮ à°®
ĠÏĦÏģÏĮ ÏĢÎ¿
ĠÐ¿ÑĢ Ð¾Ñģ
à±Ĩ à°ķà±įà°ķ
ra f
Ġà¸ Ħà¸£à¸±à¹īà¸ĩ
ĠÏĢ Î»Î®
Ġè ĭ
ĠÐ¿ÑĢÐ¾ ÑĪ
Ġà¦ªà¦° à§Ģà¦ķà§įà¦·
ì» ¤
Ĥà¹īà¸Ńà¸¡à¸¹à¸ ¥à¸
ĠÎ¾Îµ Î½Î¿Î´Î¿
un o
ĠÐ¶Ð¸Ð· Ð½Ð¸
Ġza Äį
à¹Ĥà¸ «à¸¥à¸
ÏģÎ¬ ÏĤ
Ġk obie
Ġà®µ à®ļ
ĠAG äºļæ¸¸
ĠagèµĮ åľº
Ġà¨ µ
ì²ľ ì¶ľìŀ¥
«à¸ §à¹Īà¸²à¸
ÐµÑģÑĤÐ² Ð°
Ġì¢ ħ
Ġà¤² à¤Ĺà¤¾
ļà¸ ±à¸įà¸
ĠÐ» Ð¸ÑĪ
Ġà¹Ģà¸ ĩà¸´à¸Ļ
c ere
s y
à¦¸ à¦®
Ġgrand es
Ð°Ð½ Ð¾
áĥĺáĥłáĥ ¡
etto re
Ġat tivitÃł
Ġà°Ĩ à°ķ
Ġk up
Ġdes puÃ©s
Ø³ Ø§ÙĦ
Ġt ap
Ã¡r io
Ġc iÄħ
Ġà®µà®¨à¯įà®¤ à¯ģ
à®¿à®ķ à®³à¯Ī
Ġr Å¯
Ġ×¨ ×§
Ġà¦ª à¦¾à¦ł
áĥĲáĥł áĥĲáĥĻ
à±ĭ à°§
Ġcu is
áĥ¬ áĥĺáĥľ
Ġà¤ª à¤¾à¤ķ
ÙĪ ÙĪ
Ø§Ø¦ ÙĦ
Ġge f
Ġà¦¯ à¦¾à¦¬à§ĩ
Ġcom mer
Ġï¼ ı
Ġba ck
ãĤŃ ãĥ£
as e
Ġb áº£o
t ych
ÉĻl ik
Ø§Ø º
Ġáĥ£áĥľ áĥĺáĥķáĥĶáĥłáĥ¡
à¦¨à§įà¦ ®
ĠS on
Ġà°µ à±Ĩà°²
Ã¸ l
ç´ ł
ma g
Ġà®īà®³à¯įà®³ à®¤à¯ģ
Ġdo ÄŁ
Ġre t
Ġà¤¬à¤¨ à¤¾à¤¨à¥ĩ
Ġà¤ª à¥įà¤²
Ġà¤® à¤ľ
Ġà¤ķ à¤¿à¤ı
à±ģà°¤ à±ģà°¨à±įà°¨à°¾à°°à±ģ
Ġb ÄĽ
Ħ à¸Ļà¹Ģà¸
gi i
Ġè ħ
à¦¬ à¦¾
id ente
ĠÎ¼ Î¿Î½
ĠáĥĴáĥĲáĥľáĥķáĥĺáĥĹ áĥĲáĥłáĥĶáĥĳáĥĺáĥ¡
ĠÎĻ Î±Î½
ng en
ĠáĥĽ áĥĶáĥĹ
Ġag åľ¨çº¿
æĸ Ń
ĠÐ¿Ð¾ ÑıÐ²
à¤¸ à¤Ńà¤¾
Ïħ ÏĦÏĮ
×ª ×¨
à°¿à°Ĥà°Ĺ à±įâĢĮ
ÏĦ Î¯Î±ÏĤ
Ð¾Ð² Ð°Ñı
ĠØ¨Ø§ Ø²Ø§Ø±
Ġn ich
ªà¸¹à¸ ĩ
ĠÎµ ÎºÎ±
èİ ·
ĠÐ¿ÑĢ Ð¸Ñĩ
Ġì§ ģ
Ġt áº¿
Ľà¸£à¸ ªà¸´à¸
ÎĻÎ ©
Ġs ab
ĠÑģ Ð½
Ġh um
à¹Ĥà¸ Ķ
ĠÎº Î¿Î½
ĠÙħ Ùħ
Ġáĥł áĥĶáĥ¡
åı Ī
çĽ ĺ
å·ŀ æīĳåħĭ
Ġà°¤ à±Ģ
ģà¹Ī à¸Ńà¸Ļ
ĠÐ¼Ð°ÑĤÐµÑĢÐ¸ Ð°Ð»
ĠTe il
Ġà¤ª à¤¾à¤¨à¥Ģ
Ľà¸£à¸ °
ĠÐ¿ Ð¾Ð³
ªà¸ ±à¸ĩà¸
Ġà°® à°¾à°¨
Ġnast ÄĻp
Ġg ay
Ġem bar
Ð¸Ð² Ð°ÑĤÑĮ
ĠáĥĻ áĥĲáĥļ
ti Ã¨re
ar si
Ġà¦Ĩ à¦ĵà§Ł
à¦¿à¦¤ à¦¾
à±ģà° ĸ
Ġwszyst ko
Ġmem ili
Ġhe cho
à§ ©
Ġ×§ ×¨
Ġë ł
Ġà®ķ à¯Ĩ
Ġpo li
pod ar
ĠáĥĲáĥł áĥĲáĥĽ
ĠU S
ãģ® ãģ§ãģĻãģĮ
ĠáĥĽáĥĿáĥ £áĥ
Ġà¤µà¥Ģà¤¡ à¤¿à¤¯à¥ĭ
è ĸ
Ġà¦¤ à¦¾à¦¹
Ġo rig
Ġg Ã¼c
Ø¹ Ø§Ø±
à¯ģà® ·
Ġæ ¥
à¯ģà®± à¯įà®±
Ġwer k
à°¿à° «
è² »
à§ ¬
Ġdec ir
ĠáĥĽáĥĹ áĥĶáĥļáĥĺ
Ø®Ø± Ùī
ĠE ine
Ġth áº¥y
om m
à§įà¦¯ à§ĩà¦°
ÅĤ ow
ĠãĤ ¦
ĠØ§ ÙĤØª
à°Ĥà°¤ à°¾
Ġà¤¯ à¥Ĥ
Ġ à·ĥ
Ġà¤ļ à¥Į
à¤¾à¤¤à¥įà¤° à¤¾
Ġse p
à°°à±įà°¸ à±į
Ĺà¸±à¹īà¸ĩà¸ «à¸¡à¸Ķ
Ġdes cription
Ġå¤§åıĳ æŀģéĢŁ
ĠP as
x ico
ĠÏĩ ÎµÎ¹
áĥĶáĥļ áĥĺáĥĲ
ĠÏĦ ÏģÎ±
Ã§ ilÉĻr
áĥĿáĥ ¨
æķĻ èĤ²
èĲĦ äº¬
ĠÐ´ ÐµÐ²
Ġon ze
Î³ ÎµÎ½
Ġdz iaÅĤa
ë³´ ê¸°
ĠÎ§ Î±
Ð°ÑĤÐµÐ»ÑĮ Ð½Ð¾
Ġë¨ ¸
iler i
Ġà¸ģà¸ ¡
ĠÎĽ Î±
Ġå º
ĠÐĲÐ» ÐµÐºÑģ
keit en
der land
Ġà¸£ à¸Ńà¸ĩ
Î¹Î½ Îµ
ĠCom o
Ð¸Ð¼ ÐµÑĢ
Ġencu ent
à¹Ģà¸ §
ĠÎ¿Î¼Î¬ Î´Î±
elij ke
ĠáĥĽ áĥ£áĥľ
è± ¡
æŀ ģ
éĹ »
ĠØ² ÙħÛĮÙĨ
¨à¸¶à¸ģà¸© à¸²à¸
ĠÐ·Ð°Ðº Ð¾Ð½
om i
Ġla ng
ŀà¸£ à¹īà¸Ńà¸¡à¸
ÑĢÐ° Ñħ
Ġà¸ ľà¸¹à¹ī
à°Ĥà°¡ à±įà°°
íĮ ħ
à°¾à° ¦à°¿
íİ ĺ
ĠÐ¾Ð± ÐµÑģÐ¿
áĥĶáĥķ áĥĺáĥ¡
×¤ ×Ļ
s ce
à§Ģ à¦¯à¦¼
Ġn aleÅ¼y
Ġà°Ĩ à°¨
Ġapp ar
Ġfo i
Ġlaz Ä±m
Ġt iá»ģn
Ġb Ã¼yÃ¼k
Ġt Ã½
ti o
gra ph
Ġe igen
Ġáĥ¤ áĥĿáĥ¢
åĪ Ŀ
Ġà®İà®© à®ķà¯įà®ķà¯ģ
Ġáĥ¬ áĥĶáĥ¡
ĠmÃ¼ ÉĻyyÉĻn
Ġë £
Ġà®ħ à®ķ
na tion
Ġs Ã³lo
Ġvol ta
Ġmiejs ce
Ùĩ Ùĩ
Ġpre cio
Ġph Ã²ng
Ġà°¤ à°Ĺà±įà°Ĺ
ĠØ§ÙĦØ ¶
Ġà¤ĩà¤¸à¤² à¤¿à¤ı
Ġ\ /
Ġáĥ¢áĥĶáĥł áĥĺáĥ¢
Ġ×ĳ ×Ļ×Ł
à¯Ĥ à®Ł
Ġpuj cka
Ġpo k
el ig
Ġentrepr ise
ĠìķĦ ëĭĪ
ÅĦst wa
Ġà°ħ à°®à±Ĩ
ĠØ¹ ÙĦÛĮ
Ġst ra
Ġtiáº¿ p
ĠmÃ¼ d
Ġb onne
à°¾à°ķ à±įà°Ł
ľà¸´à¸ §à¸
la ce
æŀ Ĺ
ëĦ ¤
Ġn ivel
ĠÏħ ÏĢÎ¿ÏħÏģÎ³
áĥľ áĥĶáĥĳáĥĺáĥ¡
ĠÎ¼ÎµÎ³Î±Î» ÏįÏĦÎµ
Ġaz ien
Ġáĥ¬ áĥĺáĥĴ
å¼Ģå¥ĸ ç»ĵæŀľ
çŃ ĸ
Ð°Ð»ÑĮ Ð½Ð°Ñı
Ġà¤ķ à¤¾à¤«à¥Ģ
Î» Î¼
ĠØµ Ùģ
ĠIn form
ĠÏĦ ÏİÏģÎ±
ĠÐ¼ Ð¾
Ġque lla
à®Łà¯įà®Ł à®¿
Ġ à¹Ħà¸Ĺà¸¢
ĠÎµÎ¾ Î±
æ¯ ı
Ð ¬
×Ļ×§ ×Ķ
ÛĮØ± ÛĮ
¨à¸±à¸ ŀà¸
Î¬Î½ Î¹
ĠE S
ĠÑģÐ»ÑĥÑĩÐ° Ðµ
p lo
Ľ à¹ĭ
ÎĻ ÎŁ
ĠØ£ÙĨ Ùĩ
áĥ¢áĥĻ áĥĺáĥª
åĥ ı
d 88
à¤ļ à¥Ģ
Ġf Ã©
¸à¸ ĩà¸
ĠÐºÐ¾Ð¼Ð¿ Ð°Ð½Ð¸Ð¸
tion en
Ġà°ħ à°¤à±įà°¯
Ľà¸ ±à¸
ĠÐ¡ Ð¾
Ġy ou
Ġspe cj
Ġà®ªà¯ĭ à®ķ
à¤Ĥ à¤¬à¤°
ĠP ÅĻ
ĠÑħ Ð°ÑĢÐ°ÐºÑĤÐµÑĢ
ĠáĥĻáĥĲáĥľ áĥĿáĥľ
Ġgior no
ĠG Ã¼n
Ġà®ļ à®¾à®°
Ġìĺ ¬
ho p
ĠP ri
ãģ«ãģª ãģ£ãģ¦
Øµ Ø¯
v ou
à¤µ à¤¿à¤§
Ġe k
gra ma
Ġpremi Ã¨re
æĿ Ĳ
áĥĲáĥ £áĥļ
Ġà°¸à°Ĥà°µ à°¤à±įà°¸
b el
áĥĲáĥ¡ áĥĲ
ãģ£ ãģ
ãĥ³ãĥ ģ
Ġà®° à®¾à®ľ
Ġmar s
Ġna da
Ġà¤² à¥Ģ
Ġo ggi
à®£ à¯įà®ª
Ġes paÃ±
os ial
Õ¡Õ ¢
Ġg ÉĻtir
Ġh in
Ġnue v
Ġáĥ® áĥĵáĥĶáĥĳáĥĲ
ãģ¡ ãĤī
çµ Ħ
ĠZ Ã¡
Ġt á»ĳt
ĠÚ¯ Ø±ÙĪ
.. .
Ġd ne
Ġà®ļà¯Ĩ à®²à¯įà®²
b li
Ġà¤¦ à¥ģà¤¨
u rz
ĠÅŁ ey
Ġ×Ļ×© ×¨×Ĳ×ľ
Ġdis pon
à¦¾à¦ Ļà§įà¦Ĺ
«à¸Ļà¸ ¶à¹Īà¸ĩà¸
ĠA ve
æ² ³
ìµľ ê³ł
Ġí Ĺ
ĠÎ ¨
Ġsu b
ÏĢ Î¿ÏħÏĤ
Ġ×ľ ×ķ
ĠáĥĲáĥłáĥ¡áĥĶáĥĳ áĥĿáĥĳáĥ¡
à¨ ¦
è¾ ¹
ĠÐºÐ¾Ð» Ð¸Ñĩ
Ø§ÙĤ Ø©
Î¸ Î±Î½
Å¼ Äħ
ÙĪ Øµ
Î¶ Î±
ĠÐºÐ¾Ð¼ Ð¿Ð»
ĠW elt
ĠInd onesia
à¸Ńà¸²à¸« à¸²à¸£à¸
Ïĥ ÎºÎ¿
áł ¤
ĠÐ± Ð»Ð°Ð³
ere ka
Ġb ych
à¸Ļ à¹Īà¸²à¸
Î¡ Îĵ
Ġspo t
Ð¸Ð² Ð°ÐµÑĤ
à±ĩà°· à±į
à¸£à¸²à¸ ĩà¸
ĠÏĢÏģÎ¿ ÏĬÏĮÎ½
Ġà°İ à°¨
ĠPo kud
ĠåĪĨ åĪĨå½©
éĻ ©
à¨ ¸
Ġaf in
§à¸´à¸Ĺà¸¢ à¸²à¸
Ð ¥
Ġà¦ķ à§įà¦²
ĠG ran
Ġà¹ģà¸ ļà¸
ĠÑģÐ² Ð¾Ð¹
Ĳ à¸²à¸Ļà¸
Ġà°® à°Ĥà°¡
Ġà°ªà±įà°°à°§ à°¾à°¨
×ŀ ×Ļ×ĵ
Ġyax Ä±n
ĠÐ½ Ð°Ð±
à¤¿à¤¯ à¤¨
Ġáĥ¨áĥĶáĥ ª
w anie
Ú¯ Ùĩ
ĠáĥĽáĥĶáĥł áĥĶ
Ġt Ã¢m
t res
E C
ĠÙħÛĮ ÙĦÛĮ
áĥª áĥĶáĥĽ
Ġh ij
Ġs ty
Ã³ g
é Į
Ġf u
ĠáĥĲáĥ®áĥĲáĥļáĥĴ áĥĲáĥĸáĥłáĥĵ
à§ĥ à¦·
ĠP R
ĠáĥĽ áĥĲáĥĵ
Ġk os
à® ¹
ÙĤ Ø¹
ê°ķ ì¶Ķ
ë³ Ħ
Ġà°ªà±įà°° à±ĩà°®
g ue
Ġà®µà®° à¯Ī
Ġà°µ à°¿à°ķ
Ġch á»§
Ġà¦ķà§ĩà¦¨ à§įà¦¦à§įà¦°
Ġà°ªà±įà°° à°¤à°¿
un ter
ãĤ ¡
ĠáĥĽ áĥ£áĥ®
Ġpro jet
Ġê² Ģ
ll ik
ĠÙĥØ§ÙĨ Øª
en der
×ł ×ĺ
Ġs ens
nost ÃŃ
r uk
Ġà¦¸à§įà¦¥ à¦¾à¦¨
ĠØ§ÛĮÙĨ Ú©Ùĩ
ma ÄŁa
ëį Ķ
ang er
Ġà®¨ à®¾à®©
Ġà¸§à¸´à¹Ģà¸Ħà¸£à¸²à¸°à¸« à¹Įà¸
Ġa ura
æ® µ
Ġth iáº¿t
Ġà¤ĩà¤¸ à¤¸à¥ĩ
Î²Î¿Î» Î®
ãģķãĤĮ ãĤĭ
ĠÎ» Î¿Î³
r ÃŃa
Ġáĥĵ áĥĶáĥŀ
å¼ ł
9 0
ĠÐ¿ Ð¾Ð±
st ÄĽ
ÏĦÎ± ÏĥÎ·
Ġk raj
Ġà´ ĩ
Îº Î·ÏĤ
ĠÑĢ ÑĥÑģ
Ġè¶ ħ
èµĦ æºĲ
Ľà¸ı à¸´à¸
Ïĩ Ïİ
Ġå Ĵ
ÑģÑĤÑĢÑĥ Ðº
à¥ģà¤ §
ĠA B
à¸£à¸°à¸ «à¸§à¹Īà¸²à¸
ÎĻÎ£ Î¤
la g
ĠÐ´ ÑĢ
à°¿à°ª à±Ī
Ī à¸Ļà¸
ĠÎ» Î¿Î¹
Ġà°¨ à°¿à°µ
à®® à¯ĩ
è¯ ¥
å®ĺç½ĳ çĻ»å½ķ
æıĲ ä¾Ľ
Ġv ic
Ĺ à¹Īà¸Ńà¸ĩà¹Ģà¸Ĺà¸µà¹Īà¸
ÑĥÐ»Ñı ÑĢ
ĠìĻ ¸
ĠG ar
à¹ ĭà¸
Ð¿ Ð¸Ñģ
à¸£à¸±à¸ģà¸© à¸²à¸
Ġà¤µà¤¿à¤ ľ
Ġà®ķà®Ł à®¨à¯įà®¤
Ø± Ø§Øª
Ġm Ã¶
ĠÑĢÐ°Ð· Ð»Ð¸Ñĩ
ĠCom e
ĠáĥĽ áĥĺáĥļ
ich ten
en o
áĥ¢ áĥĺáĥ¡
Ġà§§à§ «
Ġ201 0
Ġà¦¶ à¦¿à¦¶
Ġhab it
Ġáĥ¡áĥĲáĥ® áĥļ
Ġà°ķ à±įà°²
Ġthá» ĭ
à¤¾à¤® à¥Ģ
Ġà®ª à®¾à®²
Ġë° ķ
áĥĲáĥ¨áĥķ áĥĺáĥļáĥĺáĥ¡
av ab
ent Ã³w
ĠáĥĿ áĥ¤
Ø§Ø¹ Ø¯
ĠÙ¾ Ø±Ø¯
Ġ×¤ ×¢
ëĵ ±
Ġà¦¬à¦¿à¦ ļ
ĠhÃ¼ qu
ti en
ãģĶ ãģĸ
ãĥŃ ãĤ°
Ġgior ni
å¿ħ è¦ģ
ê²Į ìŀĦ
Ġìĥģ íĴĪ
cz es
Ġáĥ ĸáĥĶ
c ont
Ġw Ã¼r
Ġìĸ ´
ÙĦÛĮ ÙĦ
h em
ĠF ran
Ġà®®à®¾à®µ à®Łà¯įà®Ł
Ġf ik
Ġà®ħ à®ª
0 c
Ġà°Ĩ à°²à±ĭ
Ġres te
Ġà¦¸ à§įà¦ª
ØŃ Ø±
Ġíĸ ī
à¹Ģ à¸Ńà¸²à¸
Ġso pra
ĠéĤ £
à¯Ģ à®°à¯į
¿ Ģ
ĠÎºÎ± ÏĦÎ·Î³Î¿
Ġar ty
ĠÎ¸ÎŃ Î¼Î±
a ciones
ĠáĥĺáĥĽ áĥĺáĥ¡
ç½ĳ é¡µ
å® ¤
Ð» Ð°Ð¼
Ġis te
Î¸ ÎµÎ¹
Ġà®ĩà®¯ à®ķà¯įà®ķ
Ġà¤ĩ à¤Ĥà¤¡
ĠÎķ Î¹
ĠÑĩ Ð¸Ñģ
Ġà¤² à¤¾à¤ĸ
à¤¤ à¥įà¤µ
Īà¸²à¸ ģà¹Ģà¸
Î»Î¿Î³ Î¹Ïĥ
éª Ĺ
ĠÑģÑĤ Ð¾Ð»
Ġcont in
Ġcz erw
Ġà¸ «à¸¡à¸
ĠÏħÏĢÎ¬ÏģÏĩ Î¿ÏħÎ½
×ŀ× ĵ
ĠÑģÐ» ÑĥÐ¶
Ġà°µà±Ĩ à°³à±įà°³
«à¸ķà¸ ¸à¸
ĠÎ± Î¯
Ġve d
Ġto Ãłn
æ² ¹
æĿ ĳ
çĽ Ĭ
à®¾à®° à®£
¡à¸²à¸ Ĭà¸´à¸
ÑĢ ÐµÑĤ
Ġà¤ĸà¤¿à¤² à¤¾à¤«
Ġch w
Ĺà¸ ±à¹īà¸ĩ
ÑĥÐ· Ñĭ
à¹Ħà¸ «à¸Ļà¸
Ġz ich
Õ¸ÖĤÕ ½
l ÉĻm
l Äħ
ÑĢÐ° ÑģÑĤ
Ġf ile
ĠáĥĴ áĥł
Ġl iv
à¤¸à¥įà¤¥ à¤¾
Ġáĥ¡áĥĻ áĥĿáĥļ
ĠØ² ÙĨ
ĠP ub
ĠP are
T R
áĥķ áĥĲáĥł
ci dad
ra g
w end
Ø§ØŃ Ø©
Ø± Ø§Ùĩ
Ġwszyst kie
Ġeff et
le y
ìĨĮ ìĿ´ìĬ¤
Ġê± ´
Ġáĥĳ áĥĺáĥĸ
à±Ĥà° ¡
Ġà¦ªà§įà¦° à¦ļ
ĠáĥĹáĥĲáĥľáĥĲáĥĽ áĥ¨áĥłáĥĿáĥĽ
Ġpi Ã¨
f on
×ŀ× ¢
Ġs atu
Ġà®®à¯Ĥ à®²à®®à¯į
Ġà¤¸à¤¾à¤® à¤¨à¥ĩ
à±ĩà° ¹
Ġng o
z ie
ĠáĥĹáĥĲáĥķ áĥ¡
Ġmom ent
ĠØ¨ Ø§ÙĨ
ĠV ideo
à¦ķà¦¾à¦° à§Ģ
à±Ĩà°Ĥà°Ł à±į
Ø² Ø©
ë ·°
ë ĳ
Ġma i
p ol
ĠØ® ÛĮ
í ļ
ĠÃ© conom
Ġse u
ĠhÉĻy ata
ķà¸ ±à¹īà¸ĩà¸
ĠâĢ ª
èģĮ ä¸ļ
ĠÙĦ Ø£
Ġà¤ªà¥įà¤° à¤¾à¤ªà¥įà¤¤
ĠÏĦ ÏĮÏĦÎµ
nic t
ĠÏĥÎ· Î¼Î±
Ġan te
Ġáĥ£áĥĻ áĥĲáĥľ
èŃ ¦
à¥ģà¤³ à¥ĩ
ÐĿ Ðĺ
Ġà®ħà®® à¯įà®®
ĠÎŃ Î³
Ġà®µà¯ĩ à®²
Ġà¤°à¥ģà¤ª à¤¯à¥ĩ
ĠÎĵ Îµ
ĠÑĥ Ð·
à¥ĩ à¤ķ
Ġu ÅŁaq
§à¸ Ķ
Î½ Î¿Ïħ
Ġà¤Ŀ à¤¾à¤²
Ð §
ĠD el
ĠT y
Ġà¸ŀ à¸£à¸µà¹Ģà¸¡à¸µà¸¢
Î¹ÎºÎ¿Ïį ÏĤ
Ġ×Ļ ×Ķ
ĠÐķ Ð²
Ġà¦² à§ĭà¦ķ
ļ à¸£à¸£à¸
ÏĢÎ¿Î¯ Î·
Ġì¶Ķ ì²ľ
Ġë³ Ģ
åĽ ´
ĢâĻ ĢâĻ
± ¼
Ġric erca
ªà¸´à¸Ļà¸ Ħà¹īà¸²à¸
Ð³ Ð°
un der
Ġtem u
Ġà¹Ģà¸ ŀà¸·à¹Īà¸Ń
ÐµÐ¼ Ð¾Ð½ÑĤ
Ġà¸ŀà¸£ à¹īà¸Ńà¸¡à¸
Ġà¤ħ à¤Ńà¥Ģ
Ġ iyi
Ġà®¤à®®à®¿à®´ à®ķ
sz Äħ
ĠÐ³ Ð¾ÑĤÐ¾Ð²
ce ption
Ġáĥ¡áĥĲáĥĽ áĥĲáĥłáĥĹ
à®£ à®¿
ĠÚ¯ ÙĦ
áĥ Ł
Ġmet tre
Ġe fec
Ġencont rar
Ġun os
áĥķáĥĶáĥ £áĥļ
Ġdon na
b ili
Ġ ãģª
Ġà°ķà±ģà°Ł à±ģà°Ĥà°¬
ĠÙĪÙĩ ÙĪ
ãĤ³ ãĥŁ
Ã´ le
Ġà¤µà¤¿à¤ķ à¤¾à¤¸
Ġ×ŀ ×¨
à¯ĭ à®°à¯į
Õ¥ÖĢ Õ«
iy anÄ±n
Ġu omo
Ġtrav Ã©s
Ġg Ã¬
Ġu 0c
Ġà°µ à°¾à°³à±įà°³
Ġw en
Ø´ Ø§Ø±
Ġà¤¬ à¤¸
Ġà¦ªà§įà¦° à¦¦
ĠãĢ ľ
ãĥ¼ãĥ ĸ
Ġd onn
it to
Ġà°¨ à°®
ic ie
ëĵ¤ ìĿĢ
à¤¾à¤¯ à¤ķ
Ġà®īà®¯ à®¿à®°
ci w
gr ound
Ġ ãģ«
Ġáĥľ áĥĿ
ĠÙģØ¹ Ø§ÙĦ
à°² à°¨
Ġa mp
Ġ×Ĳ ×¨
áĥ¡áĥ¢ áĥĺáĥ¢
Īà¸ ³à¸Ļà¸
d W
è¯ Ĩ
ä¾¡ æł¼
Ġne b
ĠÎķ Îļ
Å¼ ej
Î¬Î½ ÏĦÎ·ÏĥÎ·
Ġt or
áĥĿáĥ¥ áĥĽáĥĶáĥĵ
å ª
2 6
Ð¸Ð»Ð¸ ÑģÑĮ
Ġà¤¬ à¥ī
Î³ Î¿Ïħ
ĠÄĳ á»ĳi
à¥Ĥ à¤°à¥įà¤£
Ïĩ ÎŃÏĤ
ĠÑĥ Ð±
à®¾à®° à®®à¯į
as yon
ķà¸±à¸ Ķà¸
ĠÏĥ Ïī
éĻ į
ÑĤ Ñĭ
Ã¡ Å¾
Ġs eine
¡à¸²à¸ ĵ
ĠÎĺÎµ ÏĥÏĥÎ±
Ø¶ Ø§
ĠÐ¿ÑĢ Ð°ÐºÑĤ
ÙĬÙĦ Ø©
à¹Ĥà¸ Ħà¸£à¸ĩà¸
Î¼ ÎŃÏĤ
Ġà¦® à¦¾à¦²
Ġet ter
ä¾ Ŀ
Ġè¿ ĺ
èĭ ı
Ö ĥ
¹ à¹ī
ĠÑģ Ð¾ÑĤ
ĠtÉĻq dim
Ġp age
Ľà¸£à¸°à¸ Ĭà¸²à¸
ĠÑĥ Ð¿
Ĺà¸ ĩ
à°¯ à±ĭà°Ĺ
áĥĽ áĥĲáĥª
Ġpoz w
ak ukan
ÐµÐ½ Ñģ
Ġ6 0
ĠØ§ÙĤØª Øµ
Ġà®ªà¯ģà®¤ à®¿à®¯
Ġs ort
Ġbe d
tor io
z d
à¦£ à¦¾
Ġl ung
Ġpro bl
å¤§ çīĩ
Ġà¤¬ à¤¨à¤¾
Ġback ground
Ġpod czas
Ú¯ÛĮØ± ÛĮ
ãģ¨ ãģĵãĤį
za d
ro j
ĠáĥĴáĥĲáĥĵ áĥĲáĥ¡
Ġan dere
A M
Ġt ar
Ġà®®à¯ģà®¤ à®²
Ġà¦ī à¦¦à§įà¦¦
ĠnÄĽj ak
Ġk im
à®¤à¯įà®¤ à®¿à®°
Õ¸ÖĢÕ ®
Ġqiy mÉĻt
Ġpuj cky
nÃ¡ m
ãģ ²
ãĤī ãģĦ
ra ge
×ķ ×ķ
tiv es
ØŃØ¯ Ø©
ĠáĥĶ áĥ¢
e x
Ġtá» ķ
Ġà¤ķ à¥ģà¤®à¤¾à¤°
Ġï¼ ĳ
ãģĹãģ¦ ãģĦãģ¾ãģĻ
Ġà¤ı à¤®
Ġà®¨ à®®
ĠÔ± Õµ
Ġà¤ª à¤¤à¤¾
Ġà¦ķà§ĩà¦ ī
Ġes a
Ī à¸²à¸£à¸
Ġf emme
ç§ ¯
ĠBaÅŁ kan
áĥĿáĥĳ áĥĺáĥļ
Î» Î¿ÏħÏĤ
iz met
ÎµÎ¯ ÏĦÎµ
Ġm ater
Ġà®® à®¾à®±
åİĨ åı²
å± ŀ
ĠÑģÐ¾Ð± ÑģÑĤÐ²ÐµÐ½
à¦¾à¦¸ à§įà¦¥
Î³ ÎŃÎ½
Ġ9 0
Ġw ol
ĠÎ±Î¾ Î¹Î¿
ĠÐ´ Ð°Ð²
ĠØ·Ø± ØŃ
ĠáĥĹáĥĺáĥĹ áĥ¥
¶ à¹Īà¸ĩà¹Ģà¸
ĠÎ»ÏĮÎ³ Ïī
æĶ¿ åºľ
ÑĢÐ° Ñĩ
h ol
Ø¨ ÙĬØ©
Ġà¸ Ĭà¸¸à¸
ÏĦÎ¹ Î¬
ĠØ¨Ø³ÛĮ Ø§Ø±
Ð¸Ð·Ð½ ÐµÑģ
Ġpar tico
Ġà¸ĸ à¸Ńà¸Ļ
Î» Î±Î½
Ġn es
lica do
Ġ äºĶ
è¡ Ģ
Ġäºļ ç¾İ
as it
¢à¸ ¡à¸
Ð» ÐµÐº
Ġà¦ĩ à¦¤
is on
à¹Ħà¸¡à¹Ī à¹Ħà¸Ķà¹ī
Ð¸ ÑĦ
Ġà¸ŀà¸Ļà¸ ±à¸Ļà¸
ĠC ol
ĠáĥĽáĥĿáĥ¥ áĥĲáĥļáĥĲáĥ¥
à¤¾à¤° à¥ĭà¤Ĥ
Ġà°ľà°¿à°²à±įà°² à°¾
ÑĥÐ½ Ðº
Ġciu dad
Ġfun k
Ġseb agai
Ġà°ļà±Ĩà°ªà±įà°ª à°¾à°°à±ģ
Ġtaraf Ä±ndan
Ġy ay
ĠáĥĻ áĥĲáĥ¢
Ġposs ibile
Ġele kt
×¤ ×ĺ
Ġju in
Ġì Ĥ°
Ġpow in
Ġà°ľ à°¾à°¤
e ur
c Å¯
áĥķ áĥĵ
Ġs eit
Ġà®¤ à®¿à®©
ÙĨ ÙĬÙĨ
Ġà¤ªà¥įà¤° à¤§à¤¾à¤¨
ne lle
Ġh á»Ļi
Ġvo cÃª
áĥĲáĥ« áĥĺáĥ¡
Ġk li
Ġà¤ªà¤¿à¤ Ľ
Ġà®¨ à¯Ĥ
ic ulas
Ġot ras
ĠãĢģ ãĢĮ
à§ģà¦ ¶
Ġà°¤à°° à±ģà°µà°¾à°¤
Ġ3 1
ck er
ant Ã©
Ġg leich
ĠáĥĻáĥĲáĥłáĥĴ áĥĲáĥĵ
Ø³Øª Ùħ
os o
Ġà¦Ĩ à¦¤
Õ¡ÖĢÕ ¤
q iq
Ġ×ľ ×ĵ
ĠÙĦ ÙĥÙĨ
cu te
Ġhod no
Ġà¤¸ à¤¦
Â ¡Â
à¹īà¸ ¡
ct ure
æ¸ ©
ĠÄĳ Æ°á»Ŀng
Ġáĥ¡áĥĲáĥĻ áĥĽ
ĠÎµÏģÎ³ Î±
Ġw ill
Î¿ Î´Î¿
Ġje ÅĽli
te ÅĻÃŃ
2 1
Ġè ¡
ĠÐ² Ð¾ÑĤ
ëŁ ī
ĠÎĶ Îµ
Ġwo j
Ġà¦ķà¦° à§ģà¦¨
ÏĦÎŃ ÏģÎ±
ĠÐ· Ð°ÑĤ
Ø¨ Ø§Ø±Ùĩ
Ġà®µà®³ à®°
¸ à¹īà¸¡à¸
ÏĢ ÏģÎ¿
áł ¡
ĠÐºÐ¾Ð½ ÑĤÑĢ
hal b
ov er
ļà¸±à¸ ķà¸´à¸
Ïĩ Î¿ÏĤ
áĥĲáĥ¤ áĥłáĥĹáĥ®
Ð°Ð· Ð°
Ġà¤¬à¤¦ à¤²
Ġà¸ Ŀ
ÏĦÎ¯ Î¿Ïħ
Ġà¦¶ à§ģà¦§
gra f
æĹ ħ
éĵ ¶
å£ °
Ġë² Ī
Ġ à¹ģà¸Ńà¸
ÐµÐ» Ð¸Ñĩ
as il
Ġpor te
Ġ à¸£à¸§à¸¡à¸
ĠÐ½ÐµÑģÐº Ð¾Ð»ÑĮÐºÐ¾
Ġà¹Ģà¸§à¹ĩà¸ļà¸ ŀà¸Ļà¸±à¸Ļà¸ļà¸Ńà¸¥
Ġà®Ĩ à®£
áĥĲáĥķ áĥĲ
Ġ×© ×¢
ĠØ® Ø¯Ùħ
ĠÐ°ÐºÑĤ Ð¸Ð²
Ġà®¤ à¯ĩà®ļ
Ġx alq
à±Ģ à°ķà±įà°·
Ġesc ri
Ġger Ã§ek
Ġà¦ªà§įà¦°à¦¤ à¦¿
áĥļ áĥĲáĥĵ
ĠgÃ¶r Ã¼ÅŁ
al s
ĠâĢ ı
Ġhom me
ĠØ± Ø¦ÙĬØ³
à¤¦ à¥įà¤§
ans Ä±
r il
ĠÙħ Ø®Øª
Ġáĥ¡áĥĲáĥ£áĥĻ áĥĶáĥĹáĥĶáĥ¡
Ġà°¦à°°à±įà°¶ à°ķ
Ġby ÅĤa
ĠG io
Ġà°ĩ à°ķà±įà°ķà°¡
Ġas so
Ã¡ vÃ¡
à®¯ à®®à¯į
Ġáĥ¥ áĥł
Ġde be
f ang
à±ĭ à°·
Ġà¤ħ à¤¤
Ġà°µà°¿à° ²
Ã¶ ff
ĠÃ ģ
Ġà®ķ à®´
Ġou ver
×ł ×Ļ×ª
ib les
per ti
áĥĿáĥľ áĥĲ
à§ģ à¦Ĺ
Ġh iá»ĩu
s atz
Ġkil ka
Ġho tel
à®© à¯ģà®®à¯į
Ġx ÉĻst
Ġà¦¬à§įà¦¯ à¦¾à¦ª
ĠØ§ Ø¹
Ġà°ªà±įà°°à°¸à±įà°¤ à±ģà°¤
m ann
Ġà¸ªà¸¹à¸ ķà¸£
Ġj an
éĵ ¾
az u
Ġáĥľ áĥĺáĥ¨áĥľ
ÏĦÎ® ÏģÎ¹Î¿
Ä ŀ
ĠÏĨ Ïį
ĠÃ§ o
Ġà¤¸à¤Ĥ à¤¬à¤Ĥà¤§
å¿ Ĺ
à¤¾à¤ļ à¥ĩ
ĠÑĤ Ð°Ð¼
ë¦ °
ĠÎŃ ÏĦÏĥÎ¹
à®¿à®® à¯ģà®ķ
Ġat tra
ĠÎº ÏģÎ¯
Ð°Ð» Ðµ
ÙĦ ÙĤ
à®® à®¾
¥ à¸µà¸ģ
ĠÎł Î¬
à¨ ķ
ÑĨÐ¸ Ð¿
áº¡ c
iy alar
Ġà¹ģà¸ ªà¸Ķà¸
ĠÎ´ ÏģÎ±
ĠáĥĽ áĥĴ
ĠÑį ÑĦÑĦ
å© ļ
b ob
ĠÏĢ Ïħ
le dnÃŃ
Ġà¶ ¸
Ġå°Ĭé¾Ļ d88
à¤¶ à¥Ģ
æĻ º
Ġà° Ľ
īà¸ ŀà¸²à¸
Ð¸Ñı Ñħ
j m
ĠM ont
à¸£à¸¹ à¹ī
ĠÐ§ ÑĤÐ¾
Ġ$( '
à®ªà¯įà®ªà®Łà¯įà®Ł à®¤à¯ģ
Ġáĥ£áĥ¤ áĥļáĥĶáĥĳ
à¦¾à¦® à§įà¦ª
à¥ľ à¥Ģ
ĠÐ½ Ð¾Ð¼
Ġk ostenlos
ãĥ© ãĤ¹
ĠÙħ Ø§ÙĨ
e f
ĠmÉĻk tÉĻb
àµģà´ Ł
áĥĺáĥĹ áĥĺ
à¥ĭ à¤¡
Ġ×Ĺ ×ĳ×¨
ĠÃ¥ r
ĠCh aussures
à±ģà°Ĥà°Ł à±ĩ
ÙĦ Ø§Ø«
ĠJahr en
Ġprodu it
à¥ĭ à¤·
Ġáĥ« áĥĺáĥł
Ġgo dzin
à§ĭ à§Ł
Ġk am
à°µ à°¾à°°à°Ĥ
Ġm ise
Ġsecon do
ĠBar celona
Ġa unque
ì¶ľìŀ¥ë§ĪìĤ¬ì§Ģ ìĥµ
´ë ı
Ġà®ªà®¤ à®¿à®µ
Ġc Ã¼
Ġà¦ķ à§Ł
Ġlo áº¡i
Ġãĥ Ļ
ĠÙħØ¯ ÙĦ
Ġc Ã´
Ġà°ĩ à°²
ĠAve c
Ú© Ø±Ø¯
à°°à±įà° §
Ġà¤¹ à¤¿à¤Ĥà¤¦
Ġà¦¸à¦® à§įà¦®
áĥł áĥĶáĥĹ
Ġà®ķ à®¾à®¤
ur idad
Ġà®Ĵà®° à¯ģà®µ
×¨ ×ļ
ãģĵãģ¨ ãĤĴ
c enÃŃ
à°¨à±įà°¨ à±Ģ
ĠhÉĻm in
bob et
Ġgratu it
à¤² à¥įà¤¯
Ġli ve
Øº ÙĬØ±
ĠÎ± Î»Î»Î±
ĠìĨ į
á½ Ĳ
Ġk rÃ¡
à¤µ à¤¾à¤¨
à¤¾à¤Ĥà¤ļ à¥Ģ
å®¶ ä¹Ĳ
ĠÐº Ð°Ð¼
à°¾à° ł
ÏĢÎ±Î¹ Î´ÎµÏħ
on as
ĠJe ÅĽli
ÏĦ ÏīÏĤ
Ð°ÑĤ Ð¾Ð²
Ġà¦Ĩà¦ĵà§Ł à¦¾à¦®à§Ģ
Ġà¦¹ à¦¾à¦¤
Ħà¸£à¸ ±à¹īà¸ĩà¸
ĠÎĶ ÎĹÎľ
3 5
ĠÐ¿ÐµÑĢ ÐµÐ²
ĠA uch
Ġà®®à¯ģà®ķà¯įà®ķ à®¿à®¯
à¹Īà¸¡à¹Ģà¸ ķà¸´à¸
ÏĢÎ¿Ïħ Î»Î¿ÏĤ
Ġon s
ĠÐł Ñ
Ġj un
Ġ00 Z
Î»Î¿Î³ Î®
Ã¤ re
áĢŃ áĢ¯
çı Ń
ç« ł
æ¼ Ķ
à°° à±Ĥ
à¹Ģà¸£à¸´ à¹Īà¸¡à¸
ĠÑģ ÐºÐ°ÑĩÐ°ÑĤÑĮ
Ġqu ali
Ã§ on
«à¸±à¸ §
Ð¾Ðº Ð°
Ľà¸£à¸° à¹Ĥà¸¢à¸
ĠÕ° Õ¥Õ¿
Ġt ÉĻ
áĥĶáĥĳáĥĺáĥĹ áĥĺ
Ġà¤ªà¥įà¤° à¤ķà¤¾à¤°
ĠÐ¼ Ð¾ÑĢ
we e
in ar
Ø³ ÙĦØ§Ùħ
an kov
in u
è§Ĩé¢ĳ åľ¨çº¿è§Ĥçľĭ
Ġà§§à§ ª
Ġà¤® à¥Ĥà¤²
Ġmem b
Ø¶ Ø¹
ĠsÃ© cur
à°° à±įà°¤
à¦¾à¦Ĥ à¦¶
ĠU r
ti t
ë¯¸ ëħĢ
ë° ķ
t ki
Ġáĥŀáĥł áĥĶáĥĽ
Ġb Ã¡n
Ġlang _
Ġc at
Ġb in
áĥĿáĥĳ áĥĵáĥĲ
Ġrec enz
Ġm ÄĻ
ĠI hnen
kan ie
m F
Ġm ÅĤo
ein en
Ú¯ ÙĪ
Ġt Ã¡c
Ġna tion
Ġà°®à°¾à°¤à±įà°° à°®à±ĩ
Ġan nÃ©es
ë¸ Į
×ĳ ×ª
Ġlay ih
Ġrag az
Ġà®ļ à®¿à®µ
Ġrec ens
à´¿à´ ļàµįà´ļ
Ġà¤Ń à¤¾à¤Ĺ
Ġà¦¬à¦¿à¦ ¬
di zione
Ġfo llando
Ġm ill
à¯įà®ļ à¯įà®ļà®¿
Ġ5 00
ĠÙĪ ÙģÙĬ
Ġæī Ģ
Ġf az
áĥĺáĥĻ áĥ£áĥł
ĠÎľ Î¬
os i
ÎŃ Î»
ãĥ¼ ãģ®
h Ã¡
Ġåħ ¬
à¨¾à¨ Ĥ
ĠÑı Ð·Ñĭ
ĠS tu
ĠÏĨ Î¹
Ġq or
Ġ×ĳ ×ĵ
ĠÎ¬ÏģÎ¸ ÏģÎ¿
ĠÐ¡ Ð°Ð¼
à±ĥ à°¦à±įà°§
ĠáĥĲáĥŀ áĥł
Ħà¸ ·à¸Ńà¸
ÏİÎ½ ÏĦÎ±ÏĤ
Ġè¦ ģ
ĠÑĤ Ðµ
Ġczy li
Ø§Ø³ Ø©
Ħ à¸²à¸
ÎµÏĢ Î¹Ïĥ
ĠØ¹ Ú©Ø³
Ð¸Ñģ Ñģ
Ġáĥŀáĥł áĥĿáĥĵáĥ£áĥ¥
Īà¸±à¸ Ķ
ÏĢÏĮ Î½
Ġáĥ®áĥĶáĥļ áĥĽ
ita ciÃ³n
åıª ä¸º
Ġ4 4
é¦ Ĩ
ĠA ng
Ġà¸¥ à¸µà¸ģ
ĠÑįÐº Ð¾Ð½Ð¾Ð¼
à§ģ à¦ª
à®° à®¾à®ķ
à¹ģà¸ķ à¹Īà¸ĩà¸
ĠÐŁ ÐµÑĤ
à¸Ńà¸¢à¹Īà¸²à¸ ĩà¹Ģà¸
Ġà´ ļ
âĢ ĺ
Ġê²ĥ ìĿ´
Ġà¤ªà¥įà¤° à¤®
Ð° ÑĨÐ¸Ñİ
à¦¬à¦¿à¦¦ à§įà¦¯à¦¾à¦²
Ġcor re
ĠØ¯ Ø§Ø¯Ùĩ
áĥĶáĥłáĥ ®
ĠÙĪØ§ÙĦ Ø£
Ġà°ī à°Ĥà°¦
èĹ ¥
àŃ ĩ
ÉĻli f
Ġt Ã¬nh
Ġà¦« à¦¿à¦°
Ġà®® à®¾à®°
Ġà°ªà±įà°°à°¯ à°¤à±įà°¨
ess en
åı İ
Ġd lou
Ġ×Ķ× Ŀ
owan iu
Ã³ m
ĠØ§Ø¯ Ø§ÙħÙĩ
Ġf Ã¸r
Ġz elf
áĥĲáĥĽ áĥĲáĥ¨
al d
is to
ÅĤÄħ cz
ta ire
ĠØ« Ùħ
Ġà®ªà¯Ĭ à®¤
Ġå ī
ØŃ Ùĩ
ph one
kan ia
ĠÕ¨ Õ¶
Ġon u
à±ģà°ķ à±ģà°¨à±įà°¨à°¾à°°à±ģ
ç ¸
Ġo rang
Ġà¦Ĺ à§ĩà¦²
gl ia
ĠØ§ÙĦ Ø¨Ø±
ĠÙĩ ÙĨ
à¤°à¥įà¤ «
Ġà¤Ľ à¥ĭà¤Ł
Ġáĥł áĥĲáĥ¦
yste m
Ġà¦īà¦ªà¦ľ à§ĩà¦²à¦¾
à¦Ł à¦¿à¦°
Ġperson a
Ġà¸ Ł
Ġprzypad ku
Ġæ ĭ
ëŁ ¼
ĠáĥĶáĥ¥ áĥ¡áĥŀ
ĠÏĨÏī ÏĦÎ¿
ĠaÃ§Ä± k
ĠÎ§ ÏģÎ¹Ïĥ
Ġens emble
ri os
Ġà¨ ª
é ±¼
ĠÑĢ Ð¾ÑģÑģ
Ġà°¸ à°¾à°Ĺ
Î¿Ïį ÏĤ
ĠdÃ¼n ya
ãĥķ ãĤ£
ĠÏĨ Î¯
ÐµÐ´ Ð¸Ð½
à°¿à°¸à±įà°¤ à±ģà°¨à±įà°¨à°¾à°°à±ģ
ĠpÅ¯j Äįky
Ġà¹ģà¸ ¥à¸°à¹Ģà¸
ÏĨ Î±Î½
çķ ¥
ĠÑģÐ´ÐµÐ» Ð°ÑĤÑĮ
Ġo v
Ġhom bre
ķ à¸µ
ĠÏĢÎ±Î¹ ÏĩÎ½
ĠAnge bo
ÑıÑĤ ÑģÑı
Ġsou ha
Ġà¹ģà¸ «
= >
c ych
Ġà®¤à¯ĩà®° à¯įà®¤
åº ķ
Ġà¤ħ à¤¸à¥ĩ
èŀ į
Ġne ws
à¹Īà¸ĩà¸ Ĥà¸
{ "
Ġà°ħà°¦ à±ĩ
Ġ @
¥à¸ Ķà¸
ĠÐºÐ¾Ð½ Ðº
à¹īà¸Ļà¹Ģà¸ ¥à¸·à¸Ńà¸Ķà¸
Ġ ant
áĥĺáĥł áĥĶáĥĳáĥ£áĥļ
Ġsoci Ã©tÃ©
ĠÙĨ Ùĩ
ĠÑģ ÑĥÐ¼
à¯ģà®¤ à®²à¯į
Ġk ÉĻs
Ġn un
tov Ã¡nÃŃ
der a
Ġà°ļ à°¿à°µ
Ġni veau
nÄĻ trz
Ġe llos
ĠUnter nehmen
íķĺ ì§Ģ
Ġà¦¦à§ģ à¦°à§įà¦
Ġt ÃŃnh
ÙĪØ± ÙĬ
ab en
ĠÙħØŃ ØµÙĪÙĦ
Ø¬ ÛĮ
Ġtem at
à¤² à¥ĭà¤Ĥ
Ġáĥļ áĥĲáĥłáĥĺ
áĥĺáĥª áĥĺáĥŀ
áĥĲáĥ§ áĥĿáĥ¤
à±ģà°¦ à±įà°§
ic ar
f te
ka ÅĦ
ĠhÉĻy at
ier re
ĠáĥĲáĥ¦ áĥĲáĥł
Ã© b
Ġv Ã¡m
ard in
Ġqu ale
ĠØ¯Ø³Øª Ú¯Ø§Ùĩ
Ġsu cc
æ¤ ľ
z w
Ġà®¤ à®©à¯į
ĠÙĬ ÙĥÙĪÙĨ
Ġà¦¸à¦® à§įà¦Ń
ĠØ¬ Ø§Ùħ
ĠtÉĻm in
on Ã¡
Ġà¤« à¤¼
ĠáĥĴ áĥĲáĥłáĥĵ
à¯Īà®ªà¯įà®ª à¯ģ
rÃ¡ v
ce ÄŁ
Ġdes c
¸à¸ĩà¹Ģà¸ Ĺà¸
mit tel
Ġï¼ļ âĢľ
ĠØ§Ø± Ø²
Ġáĥ¬ áĥĽ
ĠÎĴ Î±Ïĥ
vo or
ÏĮÏĦÎ· ÏĦÎµÏĤ
ĠC an
Ġ×ľ ×¡
ä¹ĭ æĺŁ
è¶³çĲĥ æ¯ĶåĪĨ
Ð½ ÐµÐ³Ð¾
ĠãĤ ±
ĠÎºÎ± Î¸Î·
Ġëĭ ¬
Ġann un
ÏģÎµ Ïį
ĠÑģÐ» Ð¾Ð²
Ġvá» ĭ
à±Ĩ à±ĸ
Ľ à¸µà¸
ÎĻÎ ¡
à¥ĩà¤ ³
Ð¸Ðº Ðµ
Ġroz po
Ġc alidad
à¹ģà¸ Ł
ĠÎ¬Î» Î»Î¿
la gen
ĠÑģÐ¼ Ð¾ÑĤÑĢ
ta ble
Ħà¸´à¸ Ķà¸
á¿Ĩ ÏĤ
Ġde llo
n ice
Ġå ±
Ġæ į
à¤µ à¥įà¤¹
à° ĸ
à¹ĩà¸ ķ
ĠÑģÑĤ ÑĢ
ĠØ¯ ÙĦ
Ġcon si
Ġà¹Ģà¸ Ľà¹ĩà¸Ļ
Ð¾Ð´ Ñĭ
à¸£à¸²à¸ĩà¸ §à¸±à¸
ĠRus iya
áĥĺáĥ£áĥł áĥĲáĥĵ
Ġv it
à®¿à®¯ à®¾à®©
ÐµÑĢ Ðº
ĠmÅ¯Å¾ ete
à±ģà°¨à±įà°¨ à°¾à°¯à°¿
ĠB uch
ãģ§ãģĻ ãģŃ
Ġâĸ ł
ãģ© ãģĨ
Ġques tion
ĠÄ° ÅŁ
lÄ± ÄŁÄ±
Ġà°ĩ à°Ł
an der
Ġko rzy
ãĥĸ ãĥ©
Ġc um
ĠØ¨Ø² Ø±Ú¯
à¦² à§ĭ
ov nÃŃ
×ľ ×Ĺ
ĠFo tos
áĥķáĥĲáĥļáĥĺáĥ¡ áĥ¬áĥĺáĥľ
ĠáĥĲáĥĽ áĥĲáĥ¡
Ġáĥł áĥĲáĥĿ
ra do
æĿ ±
ĠØ£ Ø®
à¦ Ļà§įà¦ķ
Å¡ i
Ġdem ande
al na
Ġsh ort
Ġc áº§u
TI ON
ĠØ§ÙĦ Ø§Øª
Ġt ÉĻb
Ġáĥ¬ áĥĶáĥł
Ġs istema
u Äį
à¯Īà®ªà¯įà®ª à®Ł
ĠJ ahre
Ġà¦ķà¦°à§įà¦®à¦ķ à¦°à§įà¦¤
ka cji
à±ģà° ľ
Ġç Ħ
Ġk end
ĠáĥĽáĥ£áĥľ áĥĺáĥªáĥĺáĥŀ
Ġà¦¨à¦¿à¦ľ à§ĩà¦°
Ġbr uk
ëĬĶ ëį°
Ġro ce
ķà¸ ¥à¸²à¸
ĠktÃ³ rzy
Ġæ ¸
Ġhor as
ĠáĥĲáĥļ áĥĳ
ĠÎ· Î»ÎµÎº
Ġà°¬ à°²
ĠÎ¦ ÎµÎ²
j ets
lÉĻr dÉĻn
Ġæ ·
à« ĩ
ĠÐ½Ð°Ð¿ ÑĢÐ°Ð²
ãĤ ©
ĠÎ´ Î¯
ĠØ§ÙģØ² Ø§ÛĮØ´
Ġmak en
ĠÏĢ ÎŃ
ĠÐ±ÑĥÐ´ ÑĥÑĤ
Ġzw ischen
ĠÙģ Ø¥
à¸Ļà¸ Ķà¹Į
ĠÎķ Î¾
Ġæ ı
ĠÐ¾ÑĤÐ½Ð¾ ÑĪ
Ú¯ Ø°
an ol
Ġ `
ĠÏĢÎµÏģÎ¯ ÏĢÏĦÏīÏĥÎ·
à¦ķ à¦¾à¦²
Ð» ÐµÑĤ
Ġcon stru
Ġà¹Ģà¸ ĺ
Ïĥ ÏīÏĤ
Ġíķľ ëĭ¤
Ġb ak
3 65
åĢ Ļ
å®ĺæĸ¹ ä¸ĭè½½
Ġ×ŀ×Ĺ ×Ļ×¨
à¹ģà¸£à¸ ģ
ĠÐºÑĢ ÐµÐ´
Ġà®ľ à®©
Ãº mer
ĵà¸ °
ĠÑģ Ð¸Ð»
Ġ à¹ģ
m b
áĥłáĥ£áĥ ¥
se z
Ġ×ķ ×©
ĠÑĥ Ð¼
ah n
Ġau to
Ġph ÃŃ
à¯Ģ à®´
ãĤ¤ ãĤ¯
ĠDies e
le ment
Ġà¦¬à¦¿à¦¶à§įà¦¬ à¦¬à¦¿à¦¦à§įà¦¯à¦¾à¦²
Ġà°®à°¹ à°¿à°³
pa da
à°¿à°Ĥà°ļ à°¾à°¡à±ģ
à¤¹ à¤¤
à¥Ģ à¤ķ
ãĥ³ãĤ ¸
mes i
Ġà¦ªà§įà¦° à¦¾à§Ł
r ow
Ø¬ Ø¯
d ÉĻr
áĥķ áĥĲáĥ¡
áĥĺ áĥĲáĥł
Ġk ont
Ġ×ĳ ×Ļ×ª
áĥļ áĥĿ
ĠÙ¾ Ø§Ø³
á»Ń a
Ġpo tre
ĠB on
èª Ń
ille urs
Ġê¸ Ī
Ġri en
Ġà°¶ à±įà°°
Ġse Ã±
ĠÙģØ± ÙĩÙĨÚ¯
ĠáĥĽ áĥĲáĥł
Ã¼ f
åĩº ä¼ļ
à¤ķà¥įà¤Ł à¤°
à°°à±įà° £
à®¿à®° à®¿
çļĦ ãģ«
à®¿à®© à®¾à®²à¯į
om oÅĽci
Ø±ÙĬ Ø¯
ĠmÃ¼n asib
à¤¿à¤ «
à°¾à°³ à±įà°²
Ġ×Ľ ×ļ
à¸Ļà¸µ à¹Ī
ĠáĥĹ áĥĶáĥĽ
ĵ áŀ
Õ« Õ¿
Ġd ÉĻn
Î¯Î¶ ÎµÏĦÎ±Î¹
Ġer st
Ġ ÏİÏģÎ±
rie ur
Ġà°¦à°Ĺà±įà°Ĺ à°°
éĩį è¦ģ
å¤§ åŃ¦
ĠÐļ ÑĥÐ¿Ð¸ÑĤÑĮ
ia do
ÏĢÎ¿ Î½
Ġst ran
Ġáĥ®áĥ¨áĥĺáĥł áĥĲáĥĵ
Ïħ Î¼Î±
Ðº Ð°Ð½
ìĬ¤ íĬ¸
à§ģà¦ Ń
à¸²à¸ªà¸´ à¹Ĥà¸Ļà¸
Îº Î±Î¹
éľĢ è¦ģ
Ð¸Ð» Ð¾
Ġf ine
Ġm iÄĻdzy
«à¸¡à¸²à¸ °à¸
ĠÎµ ÏĢÎ¿
ĠÄĳ o
ÐµÑĢ Ñģ
Ġserv ices
Ľà¸£à¸°à¸ ģ
Îµ Î¸Î½
an bul
ØªÙħ Ø§Ø¹
s c
å± Ĥ
Ġç§ Ĵ
ÙĪ Ø§Ø±
§à¸ ¥à¸²à¸
ĠÐ´Ðµ ÑıÑĤÐµÐ»ÑĮ
Ġà¤ĳ à¤«
à®° à®µ
c lub
ĠÐ²Ñģ ÐµÐ³Ð´Ð°
Ľà¸£à¸°à¹Ģà¸łà¸ Ĺà¸
Ä±m Ä±
ten er
Ġtr ouver
ĠO p
ÑĤ Ð¾Ð²
ww w
rÃ³ Å¼
Ġp Å¯
à¯ģà®ªà¯įà®ª à¯ģ
Ġà¦ªà¦°à¦¿à¦ļ à¦¾à¦²
à¤µ à¤¾à¤Ī
par t
×ķ× ¥
Ġà°ķ à±ģà°®
Ġà°ķà°² à°¿à°¸
Ġy Ã¼z
ah l
z z
ĠØ¬Ùħ ÙĬØ¹
Ġdet te
Ġmar aq
il u
Ġà¦¦ à¦¾à§Ł
Ú© Ø§Ø±
Ġà¦¸ à¦¾à¦²à§ĩ
v el
p ÄĽ
ĠÖ ī
Ġqo y
Ġà®ħà®¤ à¯Ī
à¤¯ à¥Ģ
Ġíķĺ ëĤĺ
à±Ī à°°
Ġinter es
ten ir
b an
Ġà¤ªà¥įà¤° à¤¸
Ġà°¬à°¯ à°Ł
áĥĲáĥłáĥ ¥
it eit
Ġà®®à®° à¯ģà®¤à¯įà®¤à¯ģà®µ
Ġde utsch
ĠÙĬ ÙĨ
Ø§Ø¨ ÛĮ
Ġbildir ib
ĠáĥĲáĥ ª
Ġt áº¡o
Ġdies es
Ġáĥ¡áĥŀáĥĶáĥª áĥĺ
Ġposs ono
ĠnÃ¼m ay
Ġn ÃŃ
Ġà¤ª à¤¤à¥įà¤°
Ġà°ī à°¤à±įà°¤
ķà¸ ³
Ġà®¤ à®¾à®ķà¯įà®ķ
åħ »
k ÉĻn
en cias
Ïĥ ÏĮ
áĥĲáĥ¢ áĥĺáĥ¡
Î¹Î¿ Î½
Ġà¤ı à¤¨
ĠØ® Ø§Ø±
Ġç ¥
æĻ ®
Ð¸Ð» Ð°ÑģÑĮ
tem bre
ĠÎ¬ Î»Î»Î±
Ġh em
is en
Îµ ÏĦÎ¬
ÑĪ Ð¸Ñħ
ski m
íĻ ĺ
à¹Ģà¸ĩà¸´à¸Ļà¸ Īà¸£à¸´à¸ĩ
Î½Î¿ Î¯
é¡¹ çĽ®
Ð¾Ð½ Ð¾Ð²
Ġder ni
Ġ×Ľ ×ŀ×ķ
Ġà¸ģ à¸£à¸°à¸
ĠÏĢÎ¿ Î»Î»Î¬
Ġà¤Ĩ à¤Ĺà¥ĩ
Ð¾ ÑıÑī
Ġne ch
°à¹Ģà¸ Ľà¹ĭ
ĠÎ±Î½ÏĦÎ¹ Î¼Îµ
Ġà¦² à¦¿à¦ĸ
Ġmed io
Ġ3 5
4 8
Ġå¤§åıĳ ä¸Ģ
Ġà¦¨à¦¿à¦ ī
à¸£à¸§à¸ ¡
ĠÐľ Ð¸Ð½
Ġste j
ĠT out
ģà¹Ī à¸Ńà¸Ļà¸
ĠÑģÐ¿Ðµ ÑĨÐ¸
ľ à¸´à¸Ķà¸
ç¨ ®
ar an
Ġê°Ģ ê²©
ĠáĥĴáĥĲáĥĽáĥĿ áĥĺáĥ§
ĠÑĤ ÑĥÑĢ
nic y
at ro
Ø´ Ùģ
Ġn or
Ġà°®à±Ĭà°¦ à°²
ĠV i
à¤¿à¤ £
ĠíĶĦ ë¡ľ
ic y
à¯Īà®¨à¯įà®¤ à¯ģ
Ø³ Ø§ÙĨ
Ġpr endre
e g
à±Ĭ à°ķ
Ġáĥ¡áĥĲáĥŃáĥĺáĥł áĥĿ
Ġà®ĩà®² à®Ļà¯įà®ķ
à¯įà®© à¯ģ
Ġà®µ à®¿à®®
Ġv Ã¦re
Ġstron y
il y
Ġà¦¸ à¦¾à¦¬
ìĨ ¡
ĠK unden
st and
Ã¨ mes
ĠØ§ÙĦ Ø¨ÙĬ
ess ione
ĠÄ ĥn
Ġn ÉĻfÉĻr
ĠØ¢ Ø±
Ġl icz
ãĥ¼ãĥ ĵ
Ġëį °
Ġà°īà°¦à±įà°¯ à±ĭà°Ĺ
à¤¾à¤¸ à¤¨
áĥĶáĥĳ áĥĿ
ÙĲ ÙĨ
ĠÙĨ ÙģØ³
Ġà°µà°¿à°¡ à±ģà°¦à°²
ĠgÃ¶ ster
áĥĺáĥ ¬áĥ§
Ġ×ĳ ×Ľ×ľ
Ġà¦Ĩà¦ĩ à¦¨
Ġà°ªà±įà°° à°¸
Ġsigu i
ch n
s am
à¤¿à¤¯ à¤°
à¸£à¸°à¸ļà¸ ļ
Ġáĥĳ áĥĲáĥĸ
ç ¿
Ġv uel
ĠØŃ ÙĤ
ĠÎµ Ïį
g ent
ĠÏĢÎ»Î· ÏģÎ¿ÏĨÎ¿
io re
b av
9 6
åĨ ľ
ĠÐ¿ÑĢÐµÐ´ Ð¿ÑĢ
dÄ± q
Î¯ Î´Î¹
Ġal so
Ġcuis ine
Î½ ÎµÏĤ
Ð¸Ð½ Ð¾Ð²
à¯ģà®¤ à®¿
áĥĶáĥ¨ áĥĶ
ļà¸Ńà¸¥à¸ ªà¸Ķ
Î¼ Î¹Ïĥ
Ġèħ ¾è®¯
Ð°Ð± Ð¾Ñĩ
ch ar
cto bre
à¹Ħà¸ Ĥ
ĠÏĢÎ¬Î½ ÏĦÎ±
Ì ī
ĠÐ¿ÑĢÐ¾ÑĦ ÐµÑģÑģ
ĠÃ´ ng
¸à¸ Ķà¸
ĠÎŁ Î¹ÎºÎ¿
Ġà¤µà¤¾à¤² à¤¾
Ġc m
çİ© æ³ķ
éĶ Ģ
ç¬¬ ä¸Ģ
à¦¿ à§İà¦¸
à¹Ģà¸ ¡
ĠÑģ Ð¾Ð´ÐµÑĢÐ¶
al ten
ui to
Ġ à¸£à¸±à¸ļ
ĠÐ± ÐµÐ»
Ĥà¹īà¸Ńà¸¡à¸¹à¸ ¥
Ø§Ùħ Ø©
Ġc y
ĠS am
à°¾à° ¥
ÐµÐ½ Ð½Ð°Ñı
cc io
a pa
Ġì° ½
ÙĪÛĮ ÛĮ
Ġ×Ĳ×Ĺ ×ĵ
Ä° N
i Ã§
Ġkun t
Ġc oÅĽ
Ġà¦§ à¦°à§ĩ
Ġe ng
ĠáĥĹáĥĲáĥķ áĥĺ
Ġs ÅĤu
ĠØ¢ Ø®Ø±
áĥ «áĥļ
ãĤ· ãĥ£
´ ī
ĠvÅ¡ ak
à¤µ à¤¾à¤¦
Ġlie u
Ġà°ħ à°ª
I O
da j
Ġg ente
ĠH ÉĻr
t ku
t are
Ġì ´Ī
Ġà®Ĩà®° à®®à¯įà®ª
ĠØ¨Ø± Ø±Ø³ÛĮ
ĠN ue
ĠT est
Ġà°¬ à±įà°²
ĠÅŁÉĻk il
à¥Īà¤Ĥ à¤¡
ĠB au
æĦ Ľ
áĥĲáĥĵ áĥĲ
ãģŁ ãģ¡
à®ķà¯įà®ķ à®¿à®¯
×ĳ ×ķ×ª
ĠktÃ³r ym
ĠÙĦ Ùĥ
ca use
Ġà¦ķà¦° à¦Ľà§ĩ
Ġ ie
Ġber eits
ta dÄ±r
Ġà°ķ à°Ĥà°ª
Ġà¸§à¸´à¸ĺ à¸µà¸
áĥ«áĥ¦ áĥķáĥĲáĥľ
äº ²
ĠØ§Ø³ÙĦØ§Ùħ ÛĮ
Ġs Ã£o
ĠÎºÎ± Ïģ
ĠmÃ© t
ĠÎ±Ïħ ÏĦÎ¿Ïį
ĠÙħ ÙĩÙħ
ier to
åŃ £
åĶ ®
Ð¸ÑĨ Ñĭ
Ġda bei
ÎĻ ÎŁÎ¥
Ġdi ce
Ġrap ide
ĠÎ¿ Î»Î¿
Ð°Ð¹ Ð´
ĵ ľ
Ġáĥĸ áĥĶáĥĵ
à¹ģà¸ Īà¸
Î¾ Î±Î½
à© Ī
Ð½Ð°Ðº Ð¾Ð¼
Ġau c
b lÃ©
ªà¸¸à¸ Ĥà¸
ĠÏĥÏħ Î¼ÏĢ
à¦¨à§įà¦¤à§įà¦° à¦£
ĠÑģÐº Ð¾ÑĢ
Ġb áº£n
¢ à¸²
Ġ ÏĪÎ·
sch utz
Ġe conom
çĶ ³
Ġ3 8
Ġè ½
ni enie
ĺà¸£à¸£à¸ ¡
ĠÐ· Ð°Ð³
Ġe ben
ØŃØ¯ Ø«
Ġà¹Ģà¸ §à¸¥à¸²
ÑĮ Ðµ
Ĥà¸ ±à¹īà¸Ļà¸
à®ķà¯įà®ķ à¯ģà®®à¯į
Ġbar dziej
à°µ à°ļà±įà°ļà±ģ
f re
ÑģÐº Ð¾Ðµ
ĠÚ© ÙĦÛĮ
à¦Ĺ à¦ŀà§įà¦ľ
Ġà¦¹à¦² à§ĭ
Ġd ise
Ġbe cause
ï »¿
ë¦¬ ê³ł
Ġà®ķ à¯Ī
Ġprzy got
Õ¸Õ ½
Ġv ou
ĠPre zident
ĠK ur
Ġb le
ad is
Ġam or
va to
ĠkaÅ¾ d
id as
Ġsel on
ĠØ± Ø§ÛĮ
Ġda ti
Ġw al
Ġma ggio
Ġáĥª áĥ®
t ÄĻ
le me
ĠØ§ÙĦÙħ Ø¤
tick Ã©
à¯Ĥ à®ķ
ĠÚ¯Ø±ÙĪ Ùĩ
i der
Ġp ie
à®¾à®Ł à¯įà®ļ
Ġáĥĳ áĥ£áĥľ
ge m
ĠëķĮ ë¬¸
da kÄ±
wy k
Ġar ka
ĠØ§ÙĦØ³ Ø¹ÙĪØ¯
Ø· ÙĤØ©
tij d
Ã©r ence
×Ļ×© ×Ķ
Ġà¦¸à¦Ńà¦¾à¦ª à¦¤à¦¿
Ġl etz
Ġà¦¶ à¦°
æĵ į
Ġ256 1
Ġà¤¦à¥ģà¤¨ à¤¿à¤¯à¤¾
æł ¸
ĠØ³ ÙĦØ§Ùħ
Ġc ali
Ġï¿½ï¿½ï¿½ï¿½ï¿½ï¿½ ï¿½ï¿½
ten ant
ĠÎ± Î´
ÅĻÃŃ zenÃŃ
Ġne den
à¨ ²
à© Ĥ
ĠÐ¿ ÑĥÑĤ
Ã¤t z
ÎĻÎ ĸ
ĠÚ© ÛĮÙģ
ĠexpÃ© ri
Î» Î®ÏĤ
ĠÑģÑĩ Ð¸ÑĤ
Ġà¦ļ à¦¾à¦ĩ
à§ §
à¹ĥà¸«à¸į à¹Īà¸
ĠÎĶ ÎĻ
æį ¢
Ð¸ÑĩÐµÑģÐº Ð°Ñı
Ġáĥľ áĥĶáĥĳáĥĺáĥ¡
Ġà®¤à®² à¯Īà®®
± à¹Īà¸Ļ
Ïĩ Î¹Ïĥ
Ġà¦ı à¦Łà¦¾
Ñħ ÑĢÐ°Ð½
A T
à¹ĥà¸ ļà¸
ÏĢ Î»Î±
Ġest as
uyá» ĥn
3 6
çłĶ ç©¶
éĿ ©
wi d
à¸£à¸±à¸ģà¸© à¸²
ĠÐ²Ñĭ Ð±Ð¾ÑĢ
ÄĽ st
li Ã©
« à¸²à¸£à¸
ĠÐ²Ð½ Ð¸Ð¼
ŀà¸ ¥
ĠØª Øº
os podar
ĠA ber
Ġà®¤à®© à®¤à¯ģ
Ð¾Ð³ Ð¾Ð²Ð¾ÑĢ
Ġcit tÃł
ow n
Ġà°¸ à±Ģà°İ
à°¿à°¸à±įà°¤ à±ĩ
alis ation
Ġm ijn
u chen
ĠprÃ¡c e
Ġà¦¨à¦¿à¦ ¶
áĥĲáĥķ áĥĵáĥĲ
Ġty pe
Ġet dir
g ado
Ġs ÃŃ
Ġà¤ľà¤¾à¤¤ à¥ĩ
zi om
à°® à±Ī
×ĳ ×ķ×¨
ge v
ĠdÃ© m
ann ya
ĠáĥłáĥĲáĥĿ áĥĵáĥĶáĥľ
Ġà°ĩà°¤ à°°
Ø· Ùģ
Ġ' ,
ë¦ ¼
ĠErmÉĻn ist
Ġn p
à¦¾à¦¸ à§įà¦¤
Ġà®® à®²
ĠØ§Ø·ÙĦØ§Ø¹ Ø§Øª
Ġd ÉĻst
Ġna tur
O V
d l
ĠáĥĽáĥĿáĥ¥ áĥĽáĥĶáĥĵ
Ġqu áº£
ãĤ ²
m aya
ĠÚ© ÙĪØ¯
Ġl im
Ġà¤® à¤§
t schaft
Ġv en
ãģª ãģĭãģ£ãģŁ
à¦¾ à§°
áĥĴ áĥĲáĥł
Ġà§ ¯
ĠØ§ÙĦÙĤ Ø±
ļà¸¸ à¸£à¸µ
Ġà¤®à¤¹ à¤¿à¤²à¤¾
ä¸ Ķ
à¤Ĥà¤¦ à¤°
Ġë³ ¸
Î¹Î¬ ÏĤ
Ġpo int
ĠÎķ ÏĢÎ¯
u ka
Ġgi Ãºp
Ġæ Į
Ġ äºĮ
ĠÐ² Ð°Ð¶
Ġà®ķà®¾à®° à®£
ĠÎ¯ Î´Î¹Î±
ĠáĥĽ áĥĲáĥłáĥĹáĥļ
Ġre mp
ĠÏĢÎ¿ Î»Î»
ĠÑģ ÑĥÑīÐµÑģÑĤÐ²
à§Ĥ à¦ª
Ġol a
Ġà¸ļ à¸²
ĠÏĢÎµ Ïģ
äº «
ĠÐ¿ Ð¾Ð¶
Ġwur den
×¨ ×ķ×ª
à¹Ĥà¸ Ĺà¸£à¸
ÏĥÏĦ Ïħ
ci endo
ĠÐ° Ð¿
Ġna pis
¡à¸µà¸ ģà¸²à¸£à¸
ĠÎ¼ÎŃ ÏĥÏī
Ġte dy
Ġëª ħ
çĹ ħ
ç» Ĩ
ä¸Ń å½©ç¥¨
ĠØ§Ùħ Ø±ÙĪØ²
łà¸±à¸ ¢
ĠÐ¸ Ð´
Ġà¦ľ à¦®
ĠáĥĿ áĥª
à¹ģà¸£à¸ ĩ
Ð¸Ð¼ Ð¾ÑģÑĤÐ¸
ĸà¸ ·à¸Ńà¸
ĠE L
Ġwszyst kich
urs o
ĠNe derland
Ð°Ð¶Ð´ Ð°Ð½
ct ie
à§įà¦ £
v in
Ġà¤¹ à¤¾à¤¥
ĠáĥĽáĥĿáĥ« áĥł
un cios
u an
Ġw il
Ġà¦ļà¦¿à¦ķ à¦¿à§İà¦¸
Ġhtt ps
ĠnÃ© cess
Ġà°¸à°Ĥà° ķ
A CI
Ġdur um
ÙģØ¶ ÙĦ
ĠB y
Ġà®®à¯ģà® ¯
ĠÙĤ Ø³Ùħ
Ġà¤µà¥įà¤¯ à¤µ
j ej
Ġáĥ¡áĥĲáĥ¥áĥĲáĥłáĥĹáĥķáĥĶáĥļ áĥĿ
ĠáĥŀáĥłáĥĿáĥ¤ áĥĶáĥ¡
åĪ© çĶ¨
Ġoff er
ĠT wo
Ġn ay
ost ÃŃ
Ġb esch
à¦¾à¦ĵ à§Łà¦¾à¦°
Ġà°ļà±Ĩ à°¬
Ġques ti
cze ÅĦ
Ġcos as
ĠØ¬Ùĩ Øª
lar la
ĠáĥĽáĥĲáĥĴ áĥĲáĥļ
Ġ20 09
A C
à¤°à¥įà¤¶ à¤¨
ĠÙĩÙħ Ø±Ø§Ùĩ
Ġfun cion
Ġ×Ĺ ×ĵ
Ġìŀ ĺ
Ġsa lle
Ġà°®à±Ģ à°¡
Ø§Ø³ ÙĬØ©
Ġáĥ¡ áĥĲáĥķ
c ita
Ġà®®à®Łà¯įà®Ł à¯ģà®®à¯į
à¸Ńà¸ ģà¹Ģà¸
à°¾à°² à°¤à±ĭ
æ» ¡
Ġà¦¹ à¦¤à§įà¦¯
à®© à®¿à®©à¯į
ĠÏĨ Ïħ
v es
Îº Ïħ
Ġp ÅĤy
à§¦ à§¦
æ´» åĬ¨
à¤¤ à¤¾à¤¤
ĠÐ½ ÐµÐ²
ãĥ³ãĥ Ģ
Ïĥ Î±Î¹
Ġlas sen
au l
ĠÏĥ Î±
ĠÐ¿ÑĢÐµÐ´ Ð»Ð¾Ð¶
ĠØ¨ Ø£
ÙĨØ¯ Ø§ÙĨ
à¸Ļà¸²à¸ ¢à¸
Îº ÎŃÏĤ
à¤® à¤§à¥įà¤¯à¥ĩ
ĠÐºÐ¾ÑĤÐ¾ÑĢ Ð°Ñı
å¨±ä¹Ĳ åŁİ
9 7
´ à¸Ļà¹Ģà¸
ĠÏĥÏį Î¼ÏĨÏīÎ½Î±
Ġesta ble
ĠÐł Ð¤
Ġbu d
Ġà¸§à¸´à¹Ģà¸Ħà¸£à¸²à¸°à¸« à¹Į
ĠÎ¿ ÏįÏĦÎµ
à¤¸ à¥įà¤µ
ĠA I
èĽ ĭ
ä¼ł å¥ĩ
å° ¼
íĶ Į
à¸´à¸ ¥à¸
Ð¾Ð± ÑĢÐ°Ð·
Ġart Ä±q
ĠãĤ Ħ
Ġà¸Ħà¸ ³à¸
ĠÑģ ÐµÐ³Ð¾Ð´Ð½Ñı
¥à¹Īà¸²à¸ ªà¸¸à¸Ķ
ĠX xx
de k
ici al
l ia
ĠÐ¼ Ð¼
áĥļ áĥĿáĥĴ
Ġãĥ Ŀ
he im
×Ļ×ĳ ×Ķ
ĠK Ã¼
it are
Ġwar en
ãģĺ ãĤĥ
ãģĵãģ¨ ãģ¯
Ġf ais
Ġj am
Ġà¤ĸ à¥ģà¤¦
à°¸ à°¾à°Ĺ
· ¨
l ere
Ġk olor
ĠáĥĽáĥĺáĥ ®áĥĶáĥĵ
à¦¾à¦ Ŀ
à®¿à®ªà¯įà®ª à®Ł
cz ego
ub e
he d
Ġà°ķ à°¾à°®
Ġhab ÃŃa
pie j
Ġd á»ĭch
Ġà°µà±Ĩ à°¨
ab aÄŁ
Ġil in
nÃ© m
Ġf ig
Ġdob rze
Ø¶ Ø§Ø¡
Ġà¦ı à¦Łà¦¿
à¥įà¤¯ à¤¾à¤¨
ëŀ Ģ
er ie
Ġdro it
ãģªãģĮ ãĤī
Ø´ÙĨ Ø¨Ùĩ
Ġ8 3
ĠáĥĻ áĥĿáĥļ
Ġ×Ĳ ×Ļ×Ł
Ġhis toire
Ġà°ļ à°°à±įà°ļ
Ġm ass
Äį ku
al y
Ġáĥ©áĥķáĥĶáĥľ áĥ¡
« à¹īà¸Ńà¸ĩ
Ġà°ħà°®à±Ĩ à°°à°¿à°ķ
çº ª
ĠØ´Ø¯ ÙĨ
Ġà®ªà¯Ĭ à®±
ĠÎºÎ¹ Î½Î·
Ġs our
ÏĦÎ¹ÎºÏĮ ÏĦÎ·ÏĦÎ±
ĠJ est
v ia
Ġéĩ ĳ
éĿŀ åĩ¡
Ð°ÑĤ Ðµ
Ġáĥĵ áĥĶáĥĽ
Î³ ÏīÎ½Î¹Ïĥ
Ġáĥŀ áĥļ
Ä±lÄ± r
Î¯Î¶ Î¿ÏħÎ½
Ð°ÑĤ ÐµÐ»ÐµÐ¹
ĠArtik el
ÙĦÙĬ ÙĦ
à¹Ģ à¸Ļà¸µà¸
ÏĥÎºÎµÏħ Î®
å¥ Ĺ
ĠÐ² Ð¾Ñģ
ĠB eit
Ġà¤¯à¥ĭà¤ľ à¤¨à¤¾
ªà¸°à¹Ģà¸ ģà¹ĩà¸
Î´Î¹Î± Î¯
w or
ÐµÐº ÑģÑĤ
ÄĻ zy
Ġs bobet
ĠÎŃÏĩ Î¿ÏħÎ¼Îµ
vr ier
Ġãĥ ģ
è¯ Ģ
ç§ĳ æĬĢ
åĲĪ ä½ľ
×Ľ ×Ŀ
Ġà¹Ģà¸ ķ
ĠÐŁÑĢ ÐµÐ´
Ġhá» ĩ
Ġà¤® à¤Ĥà¤¤à¥įà¤°à¥Ģ
¸à¸ ĩ
ĠÐ´ÑĢÑĥÐ³ Ð¸Ñħ
§ à¹Į
ĠH a
Ġà¤® à¥ģà¤¦
Ġà®¤à®¿à®° à¯ģà®®
å° Ħ
ĠÐºÐ¾ÑĤÐ¾ÑĢ ÑĭÑħ
ĠáĥĽ áĥĶáĥ£áĥ
à¤ķà¥įà¤· à¤£
ìĻ¸ êµŃìĿ¸
T y
Ġì§ ĳ
ĠS eite
Ġà®ª à®³à¯įà®³
alÄ± dÄ±r
ĠØ£Ùĥ Ø«Ø±
Ġe u
Ġpou ze
ĠÙħØ· Ø§ÙĦ
Ġà°¸ à±Į
h me
Ġãĥ Ł
Ġequ ipo
ĠáĥĶ áĥ¤
lÃ© ment
gun akan
é ¤
ìł Ī
Ġà°ªà±įà°° à°ļ
à°¾à°² à±į
à¤§ à¥Ģ
ĠM ujer
Ġl ar
Ġà°ĩ à°Ĥà°¤
sz ego
Ġsoll te
Û İ
Ġà°ļà±ĩà°¸ à°¿à°Ĥà°¦à°¿
ĠÚ© Ø±
à¯Īà®ª à¯Ĩ
ãĤĬ ãģ®
Ġà¤ĩ à¤²
s iz
Ø§ÛĮ ÙĨ
ĠD it
c s
po j
ĠáĥĵáĥĲáĥĻáĥĲáĥķáĥ¨áĥĺáĥł áĥĶáĥĳáĥĺáĥĹ
Ġáĥŀ áĥĲáĥł
Ġà®µà®¿à® ·
ĠÄĳ áº¹p
ìĦ¸ ìļĶ
rz a
Ġà°İ à°Ĥà°ª
Ġdat os
áĥĺáĥĻ áĥĿáĥ¡
Ľà¸¥à¸µà¹Īà¸ ¢à¸Ļ
Øª ÙĪ
åį ³
d Ã¼
ãĥ¡ ãĥ³ãĥĪ
ÏĢ ÏīÎ½
Ġ Þ
ĠÏĩÎ±ÏģÎ±Îº ÏĦÎ·
Ã¬ m
à°² à°¸
èĦ ĳ
è¡¨ ç¤º
ĠÐ¿Ð¾Ð´ Ð´ÐµÑĢÐ¶
áĥĽ áĥĲáĥłáĥĹ
ĠÏĢÏģÎ±Î³ Î¼Î±ÏĦÎ¿
áĥķáĥļ áĥĶáĥļ
oles c
Î¶ Î¿ÏħÎ½
g ht
Ġson dern
Ġempres a
ļà¸ ±à¸Ļà¸
á¿ ĸ
ç¦ »
ĠÑģÐ°Ð¹ÑĤ Ðµ
Ã¢ ce
à¤ķà¤° à¤£
Ġà¹ģà¸ Ĺà¸ĩ
ĠÎĻ Î¿ÏħÎ½
à®¤à¯įà®¤ à¯ģà®ķà¯įà®ķà¯ģ
ĠÐ´ Ð¾ÑģÑĤÐ°Ð²
ĠBer lin
à¹Ĥà¸Ńà¸ ģà¸²à¸
ĠÏĮ Ïĥ
Ġestu di
Ġnuov a
Ġåı ĳ
Ġá Ĭ
à¤¾à¤¤ à¥Ģà¤²
ĠS pe
Ĺ à¸Ńà¸ĩ
ĠÑĦÐ¾ÑĤ Ð¾
Ġà®ķà¯ģà®Ł à¯ģà®®à¯įà®ª
à¤ķ à¤¾à¤¶
à¹īà¸Ļà¹Ģà¸¥à¸·à¸Ńà¸Ķà¸ Ĥ
Ð» Ð¸Ð½
¡à¸²à¸ģà¸ ¡à¸²à¸
ĠÃ© p
I L
ĠÙĨ Ø±Ùħ
Ġà¦¨à¦¿à¦°à§įà¦ ¦
Ð½Ð°Ðº Ð¾
áĥĽ áĥłáĥĹ
olo re
Ġãĥ ī
Ġgr oupe
ĠÙĪ Ø§ÙĤ
ĠF or
ien za
×Ĳ ×ķ×ª
r Ã³w
ë³ ´ë
Ã¡ te
Ġà¤° à¤Ĥà¤Ĺ
Ġà°ħ à°²à°¾
Ġà®ª à®±à¯įà®±à®¿
Ã¼t z
ent as
áĥķ áĥĺáĥļáĥĺ
à¥ĭà¤ľ à¤¨
Ġv asit
ĠrÃ© ser
ĠÙĪÙĦÙĥ ÙĨ
Ġà°¦ à±Ĭ
Ġv iene
ca ÄŁ
Ġcomp ar
ç¨ ¿
ãĥ¥ ãĥ¼
ĠVo or
Ġà°¨ à°¾à°²
èī¯ ãģĦ
ë° °
Ġg an
po z
à¦¿à¦¦ à§įà¦§
Y X
b G
Ġpo le
Ġà®¤à¯Ĭà®Łà®° à¯įà®ª
à±Ģà°¸ à±į
Ġm ereka
áĥ£áĥ Ĵ
áĥĲáĥŀ áĥĲáĥłáĥĲáĥĻ
ĠíĻ ľ
Ġ3 9
osti tu
Ġãģ Ķ
×ķ×ŀ ×¨
è¡ ĵ
_c om
à¹Ģà¸Ļà¸ ´à¸Ļà¸
Ġer sten
çļĦ ä¸Ģ
ov ou
Ġà¦² à¦¾à¦ĸ
Ïİ ÏĥÎµÎ¹
à§ľ à¦¾
ÏģÎº ÎµÎ¹Î±
Ġph áº§n
Ġk az
æīĭæľºçīĪ ä¸ĭè½½
æľ ĥ
ÐºÐ¸ Ñħ
ĠáĥĽáĥĿáĥ¡ áĥĲáĥ®áĥļ
ĠÏĥ ÏĦÎ¬
áĥĶáĥĳ áĥĶáĥĳáĥ¡
ĠM un
Îº ÎµÏĤ
Ð ¦
Ġwy korzy
Ġå½©ç¥ŀäºīéľ¸ 8
Ġà¹Ħà¸¡à¹Īà¸ ķà¹īà¸Ńà¸ĩà¸Ŀà¸²à¸ģ
Îº Î¹Î±
Ġçľ Ł
ĠÐ´ÐµÑĤ ÐµÐ¹
à¤ ħ
re t
ļà¸Ļà¸±à¸ ª
Î± Î½Î±
e p
ÑĥÐ´ Ð°
Ġà¦¯ à§ģà¦ķà§įà¦¤
Ġà¸ªà¸ ĸ
ĠÏĥÏĦÎ¹Î³ Î¼Î®
Ġà°µ à±Ģà°¡
Ġvrai ment
åĲ §
è´ ¢
åģ ¥
du ction
ķà¸ ģ
ĠÐ¾Ð±ÐµÑģÐ¿ ÐµÑĩ
ĠØ¥ Ø°Ø§
lo Å¾
Ġà¸ §à¸±à¸Ļà¸Ĺà¸µà¹Ī
ĠÐ²Ðº Ð»ÑİÑĩ
¸ à¹Īà¸Ļà¸
à¤¿à¤¨ à¥įà¤¦
à ½
Ġà¤ ¢
Ġtr ad
Ð°Ð» Ð¾ÑģÑĮ
Ġáĥĺáĥķ áĥľáĥĺáĥ¡
Ty pe
ë¦ ī
ľ ëĵľ
à°¿à°ķ à±įà°ķ
èģ ŀ
ĠØ¢Ùħ Ø±ÛĮÚ©
s ty
ĠA ll
Ġà®ª à®¿
Ġ×ķ ×ľ×Ĳ
ĠÅŁ irk
Ġà® ·
Ġdom u
ãģĦ ãģĨ
Ġtom u
Ġáĥ¥áĥĲáĥłáĥĹ áĥ£áĥļáĥĲáĥĵ
Ġà°¸ à±Ĥà°
, \"
Ġh un
ĠZ ap
Ġe jem
ĠmÃ¼s sen
as ion
à¶Ń à·Ĭ
ãģ¨ ãĤĤ
Ġà¤ħà¤¨à¥ģà¤¸ à¤¾à¤°
Ġà®İ à®ªà¯įà®ªà®Łà®¿
×Ĵ ×ĵ
ĠÙħØ®Øª ÙĦÙģ
Ġà¦¦ à§Ĥ
äºº ãģ®
Ġgr os
Ġà®ļà¯Ĩà®¯ à¯įà®µ
Ġk siÄħÅ¼
Ġr ÄĻ
Ġcon ta
szta ÅĤ
ro dnÃŃ
Õ¡Õ¾ Õ¸ÖĢ
áĥĺ áĥĲáĥ¡
áĥĶáĥĳáĥļ áĥĿáĥĳáĥĺáĥ¡
ĠH ÉĻm
Ġà°® à°Ĥà°¤à±įà°°à°¿
ī ´
cuer do
tra g
Ġà°® à°Ĥà°¦
Ġáĥ ļáĥĺ
Ľà¸£à¸°à¹Ĥà¸¢à¸ Ĭ
Ġcho ix
Ġà¥ ¨
Ġm ieux
Æ° u
Î¼ÎŃÎ½Î¿ Î¹
ĠMe hr
ĠÎ³ Î¯Î½ÎµÏĦÎ±Î¹
ĠT or
ver so
éħ Ĵ
æĸ¹ éĿ¢
ÐµÑĢ Ñħ
ĠáĥĴ áĥĲáĥłáĥĵáĥĲ
ĠÏĩ Î¬
ĠáĥĻáĥĿáĥĽ áĥĶáĥľáĥ¢
×Ĳ ×Ķ
Ïī ÏĥÎ·ÏĤ
ĠÐ½ Ð°Ð²
Ġm iaÅĤ
à¤¶à¥įà¤¯ à¤ķ
ª à¸Ńà¸ļ
ĠÏĩ ÏģÎ¿Î½
éģ Ĺ
ĠÐĶ Ð¶
Ġà°ª à±Ĥà°
Ġà°ķà°¾à°Ĥà°Ĺà±įà°°à±Ĩ à°¸à±į
à¸£à¸±à¸ ģ
Î»Î± Î´Î®
à¦¿à¦ £
ĠÐ²Ñģ ÐµÐ¼
ri bu
ªà¸°à¹Ģà¸ģà¹ĩà¸ Ķà¹Ģà¸
ÎĻÎļ ÎĹÎ£
ĠÚĨÙĩ Ø§Ø±
à±įà°¡ à±į
éĿ ł
à« į
åħ ħ
à¯įà® ľ
à¸Ńà¸° à¹Ħà¸£
ĠÐľ Ð°ÑĢ
Ġf Ã¥
ve mbre
Ķà¸²à¸§ à¸Ļà¹Į
ĠÐ´ ÐµÑĢ
ª à¸²à¸£
Ġed ilib
si dad
inh a
ĠB il
ĠÐ¼ Ð¾Ð¼
áĥĶáĥ Ł
ier ten
ta ur
ĠìĿ´ ìļ©
à¤¾à¤Ĥ à¤¡
ĠÄ°l ham
ĠAB Åŀ
Ġrze czy
u jÃŃcÃŃ
ĠØ¯Ø§Ø± ÙĨØ¯
×ķ ×Ļ×ķ×ª
ĠØ§ÙĦ Ø§Ø³
ĠØª Ø¯
Ġpos iada
à°¾à°ķ à±įà°·
Ġex pl
áĥĴ áĥĲáĥķáĥ¡
Ġà¤¬ à¤¾à¤¹à¤°
Ġsi ng
ey e
ica to
á»Ļ ng
Ġà°ª à°¨à°¿
Ġà®ĩà®°à¯ģà®ķà¯įà®ķ à®¿à®±
Ġh ombres
ĠìķĦ ìĿ´
v Ã©e
Ġo czy
Ġà¦Ń à§Ĥ
à¯Īà®¯ à®¿à®²
re a
ãĥ© ãĥ¼
çµ Ĥ
Ġka ufen
ĠØ§ÙĦÙĪ Ø·
ĠczÄĻ ÅĽci
Ġall er
E T
v ano
b ij
ĠáĥĽáĥĿáĥ ¬
Ġáĥ¡áĥĲáĥ£áĥĻáĥĶáĥĹáĥĶáĥ¡ áĥĿ
Ġi qtis
à°Ĥà°¡ à±į
à¥Ĥ à¤°à¥Ģ
à¯ģà®® à®¾
Ġà®ª à®±à¯įà®±
Ãĵ N
Ġáĥ¡ áĥłáĥ£áĥļ
à¸£à¸°à¸ ¢à¸
is o
åħ ´
Ã¡ no
ãģª ãģ®ãģ§
Î¿ ÏĢ
à¦¾à¦ķ à¦¾à§Ł
ĠÎ´Î¹Î± ÏĨÎ¿
à±Ģ à°ķà°¿
Ġan im
ç» ĩ
å¦Ĥ ä½ķ
ĠÐ¿ÑĢ ÐµÐ¿
áĥķáĥļ áĥĲ
ĠÎµÎ½ Î´Î¹Î±
áĥĶáĥĳáĥļ áĥĿáĥĳáĥĲ
Ġãĥ Ĩ
ĠÎ±ÏĨ Î¿Ïį
ĠÑĦ Ð¸Ð½
Ġíĥ ľ
Ġza pew
Ĺ à¸£à¸±à¸
ĠÏĨ ÏĮ
è§ ī
Ð¾ÑĢ Ð¸Ñı
u q
Ġden n
Ġà¸ ķà¸±à¸§
Î¼Îµ ÏĥÎ±
lam a
ĠÑĢÑĥÐ± Ð»ÐµÐ¹
ĠB undes
Ġà¹Ģà¸ Ħà¸£à¸Ķà¸´à¸ķà¸Łà¸£à¸µ
ĠÏĩ Î»Î¼
ĠØ§ÙĦØ¹ Ø±Ø¨ÙĬØ©
Ġà¦Ĩà¦¹ à¦®
Ġè ģ
åĢ į
à«į àª
à¦¨ à¦¿à¦ķ
¨à¸ ¹à¸Ļà¸
Ñĳ Ð½
ĠH ier
ĠØŃ ÙĪÙĦ
ķà¸ °à¸
Ġ": {"
Ġà¹Ĥà¸Ľà¸£ à¹ģà¸ģà¸£à¸
i Ã¡l
Ġà°¸à°Ĥà° ĺ
Ġ×Ķ ×ľ
fahr en
ĠÑĢÐ°Ñģ ÑģÐº
Ġáĥłáĥ£áĥ¡ áĥĶáĥĹáĥĺáĥ¡
va tel
à¤¿à¤ ¬
ron a
Ġà®¤à®ķ à®µ
ni os
j en
Ġpar f
ãĥ³ãĤ ·
Ġhis toria
Ġà¦Ĩà¦° à§ĭ
Ġt ow
Ġà°¹à±Ģà°° à±ĭ
Ġà¦® à§ĩà§Ł
Ġà°¬ à±Ĩ
e z
Ġáĥ¬áĥĺáĥľáĥĲ áĥĲáĥ¦áĥĽáĥĵáĥĶáĥĴ
Ġhá» ĵ
Ġà¦¬à§įà¦¯à¦¬ à¦¸
ĠÔ ¿
c ÉĻk
Ġuns ere
bu at
Ġdz iÄĻki
ĠØ£ Ø¹
ï¼ ķ
ãĥķ ãĥĪ
ÙĪÙħ ÛĮ
± Ħ
ĠÃ¶ nem
Ġà®¨à®Ł à®¨à¯įà®¤
Ġposs ible
Ġà¦ł à¦¿à¦ķ
am t
Ġpel o
ãĤ¤ ãĥ³ãĥĪ
ĠB a
à¥ģà¤ Ĩ
à±įâĢĮ à°ķà±ģ
Ġv Å¯
ĠáĥĴ áĥĲáĥĸ
ĠáĥĵáĥĲ áĥĲáĥķáĥĲáĥĵ
Ġ×Ĳ ×ĸ
Ġà®ħà®¤ à®©à¯į
l uy
Ġà°īà°ª à°¯à±ĭà°Ĺ
or ia
u w
Ġc ad
ķà¹īà¸Ńà¸ĩà¸ ģà¸²à¸£à¸
Ġd osta
Ġæīĭ æľº
ĠãĤ °
ta q
ĠÎº ÏģÎ¬
Ġà¦ľ à¦¾à¦®
ÏĨ ÎµÏģ
Ø§ÙĦ Ùĩ
Ġáĥĺ áĥ¢
ĠæĹ ¶
Ġçİ¯äºļ æ¸¸æĪı
Ð¾Ð³Ð» Ð°Ñģ
jÄħce go
ÎĻÎļ ÎŁ
ê¹ Ģ
Ġì ´Ŀ
ÏĥÎºÎµ ÏĦÎ±Î¹
Ð¾Ð»Ð½ Ð¸ÑĤÐµÐ»ÑĮ
ĠÙĩ Ø²Ø§Ø±
ci ales
§à¸ ļà¸
ĠÎ±Ïħ ÏĦÎŃÏĤ
å¤ ®
Ð¾Ñĩ ÐºÐ¸
ÙĪØ± ÙĬØ©
te llt
Ġà¹Ģà¸ ŀà¸
ĠÏĥÏħ Î½Î±
Ġà¤ĩà¤¸ à¥Ģ
ĠÐ²Ð¾Ð· Ð´
d lich
à¹ĩà¸ ĩ
ĠÎ² Î»ÎŃ
Ġg od
à¦ķ à¦®
è®¾ è®¡
å¯ Ĩ
è® ¸
Ġth Ã¡ng
·à¹Ī à¸Ńà¸Ļà¸
ÐµÑĢ ÐµÐ´
Ġà¦¨à¦¿à¦ ¯à¦¼
àµįà´ ²
ªà¸ ³
ĠÐ» Ð¸Ð±Ð¾
Ġà¸Īà¸ ³à¸
Ġà¤ªà¤° à¤¿à¤µà¤¾à¤°
Ġ×© ×Ľ
Ġjan vier
ì½ľê±¸ ìĥµ
ĠÐ½Ð° Ðº
Ġëł Ī
Ġv ÉĻtÉĻn
Ġs angat
ĠM Ã¡s
ĠCh am
ri m
Ø§Ø² Ùĩ
Ġáĥ£áĥ ŀ
Ġpo prze
ÄŁr en
ÙĬØ¯ Ø©
ĠolduÄŁ unu
pp en
Ġà¤ªà¤° à¥Ģ
Ġk val
Ġà¤¦ à¥ĩà¤Ĥ
áĥĶáĥĳ áĥĺáĥª
Ġè ª
à¥ģ à¤Ł
r esse
Ġpub li
ĠCon tactos
ica do
Ġa pr
ĠzÃ¡ kla
ĠØ§Ùģ Ø±
Ġìĸ´ë ĸ
ãĤģ ãĤĭ
Ġinforma zioni
Ġtr ouv
Ġ×ŀ× ĸ
Ġáĥ¨áĥĶáĥ ¤
Ġà®ĩà®µ à¯įà®µ
in k
Ġà®¨à¯Ģ à®¤
Ġpr owadz
Ġà¦ĺ à§ĭà¦·
à¤¿à¤¤ à¥įà¤°
Ġam Ã©
ÙĨ Ùī
ĠS h
i ÅĤ
ob raz
Ġáĥ¡áĥĲáĥ ¯
ãģĤ ãģ£ãģŁ
Ġpro ti
à¯Īà®¯ à®¾à®³
ĠáĥĹáĥĲáĥķ áĥĵ
Ġser Ã¡
ªà¹Īà¸§ à¸Ļ
m ar
èµ ļ
vo le
ĠÙĨ ØŃ
ĠÎ¼ÏĢÎ¿ ÏģÎ¿ÏįÎ½
Ġà¦ª à¦¾à¦ķ
ĠÎ¼Î± Î¸Î·
Ġs ag
Ġm ess
à¤¿à¤ ³
æŃ »
Ñı Ð»
Ġà°µà±įà°¯ à°¾à°ª
ĠÎ±Î½ ÏĦÎ¹Îº
Ġr ess
al u
ĠÂµ Îµ
ĠÑĨ ÐµÐ»
ÙĦ Ø§Øª
į ¼
Ġà¹ģà¸Īà¸ ģà¹Ģà¸Ħà¸£à¸Ķà¸´à¸ķà¸Łà¸£à¸µ
Î¼ Î¹Î¿
å¥ ¹
ĠÐ½ Ð¾ÑĢÐ¼
à±ģà°ķ à±ĩ
Ġà°¤à±Ĩà°²à°¿à°ª à°¾à°°à±ģ
Ħ à¸Ń
ĠÎ¼ÎµÎ³Î¬ Î»Î·
Ġà¤¦ à¥Ĥà¤°
Ð¾Ð¿ Ð°Ñģ
à¦¾à¦¹ à¦¿à¦¨
Ĺà¸³ à¹ĥà¸«à¹ī
ĠÎ³ ÏģÎ¬
ĠÄĳ iá»ĩn
Ġt ÉĻhsil
Ġà¤ķ à¤¾à¤¹à¥Ģ
é ²
åº ı
ÃŃs to
à¸Ļà¸ ´
ĠÑĢ Ð°ÑģÑĤ
Ġáĥľ áĥĲáĥ¬áĥĺáĥļ
Ġà¤ıà¤ķ à¥įà¤¸
à¹Ĥà¸£à¸Ħà¸ ªà¸°à¹Ģà¸ģà¹ĩà¸Ķà¹Ģà¸
ĠÑĢÐ°Ð· Ð¼ÐµÑĢ
à¹Ģà¸ª à¸µà¸¢à¸
ib ili
à°¾à° ĸà±įà°¯
la is
ĠÙĨÙħ Ø§ÛĮØ´
ĠÐ¡ Ðº
×Ĺ ×ķ×ª
Ġczas u
ãģ§ ãģ®
à°ª à±ĭà°¤
ÖĢ Õ¡Õ¶
Ġon larÄ±n
ĠíĻ ĺ
tÃ© e
Ġà¤Ĩ à¤ı
à°¾à°¯ à°¨à°¿
Ġà®ħà®® à¯Īà®ļà¯įà®ļ
Ã¡z ÃŃ
te les
Ġà®ĩà®°à¯ģà®ķà¯įà®ķ à®¿à®±à®¤à¯ģ
g ÄĻ
d et
Ø§Ø± ÙĬØ©
£ Į
ĠÚ¯Ø± ÙģØª
ce mbre
à§ĩà¦ķ à§įà¦·
am ÉĻt
Ġag ua
Ġà¤īà¤¸ à¤ķà¥Ģ
Ġà°ħà°§ à±įà°¯
ãĥĨ ãĥ«
Ġí Ĵ
ĠáĥĹ áĥķáĥĺáĥ¡
le ÅĦ
ut es
ent re
Ġà®ĩà®° à®£à¯įà®Łà¯ģ
Ġz mÄĽ
Ġà¤ªà¥įà¤° à¤Ńà¤¾à¤µ
Ġnaj lep
ĠÂ º
Ġch á»©c
mekte dir
te au
áĥĿáĥľ áĥ¡
à§Ł à¦¨
Ġe h
Ġm uito
à¦¾à¦ ¯
Ġro dzin
ĠÙħ Ø«ÙĦ
in iones
Ġpre cios
c chi
Ł à¹īà¸²
ï¼ Ī
å¤§ æĪĺ
zo ek
ĠE UR
ĠÏĢ Î¬Ïģ
Ġb ra
Ïħ Î¼
ãĤī ãĤĮ
áĥĲáĥ¡ áĥłáĥ£áĥļ
99 9
ä¸į æĺ¯
ĠÐ¿ Ð¾ÑģÑĤÐ°Ð²
à°Ĥà°§ à±įà°°
ĠÏĢÎµÏģÎ¹Î¿ ÏĩÎ®
Ġoff re
íħ Į
ĠÎ» Îµ
ĠÐ¸Ð½ Ð´
Ġes cu
ĠÅ¾ Ã¡d
°à¹ģà¸Ļ à¸Ļ
ÎĹ Î¡
çĽ Ł
ĠÐ» Ð¸Ñĩ
Ġà°ı à°¦
Ġh al
ķ à¸Ńà¸Ļ
ÏģÏħ Î¸
Ġà°°à±ĭà°ľ à±ģ
ĠÑĥ ÑģÐ¿
Ġà¤Ĩ à¤®
Ġà¹Ģà¸ ªà¸
ĠÎķÎĽ ÎĽ
Ġà®¤ à®¿à®±
Ġ200 8
çł´ è§£
æ´ ŀ
äº¤ æµģ
Ġ×ĳ ×¦
Ġda ta
ĠÑĤ Ð¸Ð¿
ĠM as
áĥĲáĥ®áĥļ áĥĿ
Ħà¸ ³
ĠÐ² ÑģÑĤÑĢ
Ķà¸´à¸¡à¸ŀà¸ ±à¸Ļ
Ġcono cer
à¦¬ à¦°à§įà¦¤
Ġmo de
b 3
Ð¸Ð» Ð¾ÑģÑĮ
Ġpo ko
Ġter az
ĠíĨµ íķ´
Ã¤n der
ĠØ¯ÙĪÙĦ Øª
Ø· ÙĬÙĨ
Ġà°ªà±įà°°à°¶ à±įà°¨
le urs
ĠØ§ÙĦ Ø±ÙĬ
ĠvÅ¡ech ny
Ġà¤ħà¤® à¥ĩà¤°
Ġà°ª à°¾à°ł
Ġs ino
Ġal tre
Ġzaw sze
Ġà§¨à§¦à§§à§ ®
à§ģ à§Łà¦¾à¦°
à±ĩà°Ł à±į
Ġg et
is Ã©
ick Ã½
à¦Ľ à¦¿
b ol
ç§ ģ
ĠÃ Ń
Ġà¦¤à§Ī à¦°à¦¿
ĠÙĪ Ø²
Ġ×ĳ ×ŀ
Ġu wa
p ort
Ġà®ª à¯ģà®¤à¯įà®¤
ãģ¾ ãĤĬ
íĸ ¥
Ġáĥ¡ áĥĺáĥª
ĠP ow
Ġà®ķà®² à¯įà®µ
ĠÙĦ Ø£ÙĨ
lis hed
ĠL E
Ġa si
Ġnieu we
Ġzur Ã¼ck
à¥Ģ à¤¦
áĥļ áĥĶáĥĳáĥ¡
Ġ4 5
ĠØ¨ÙĪØ¯ Ùĩ
ig os
à®¿à® ·
ten ciÃ³n
ļ à¸£à¸´
em p
åľ ĭ
Ġk teÅĻÃŃ
Ġà¤®à¥ģà¤ĸ à¥įà¤¯
ĠÎķ Î¸Î½
ĠáĥłáĥĲáĥ¦ áĥĲáĥª
Î³ÏģÎ±ÏĨ Î®
Ġl ine
åĢ ¤
å· ´
èį ¯
Ñİ Ð´
Ġà°ĩà°Ĥà°ķ à°¾
Î³ Î¼Î±ÏĦÎ±
Ġdon nÃ©es
b ilir
ĠÎĵ ÎµÎ½
ĠÑĤ ÑĢÑĥÐ´
er t
Ø§ÙĦ Ø§Øª
Ġà¹Ģ à¸Ń
Î» Î¯Î¿Ïħ
æĥħ åĨµ
ĠÐ³ Ð¾Ð»
Ġáĥ® áĥĿáĥĽ
min istra
Ħ à¸£à¸±à¸
Ġ" ]
Ġth Æ°á»Ŀng
ĠÐ¿Ð¾Ð»ÑĮÐ· Ð¾Ð²
Ġada m
Ġà¸ªà¸²à¸ ¡à¸²à¸£à¸
ÎµÎ¹ Î¬
c ce
an c
åº ĵ
éĻ ¤
è´ Ł
×¨ ×ĵ
Ġà¹Ģà¸ ĭ
Ð¾ÑĤ Ñĭ
Ġà¤ķ à¥įà¤²
ìľ¼ ë©°
Ġà¸£ à¹Īà¸²
ĠÐ½Ð°Ð» Ð¸Ñĩ
à¸Ńà¸µà¸ ģ
à§ĩà¦ «
à®© à¯įà®®
lle ment
Ġpotrze b
ĠÐ²ÑĭÐ¿ Ð¾Ð»Ð½
glÄħ da
ion y
ci Ã³
Ġáĥ¡áĥĲáĥ¥áĥĽ áĥĶ
Ġtam b
ãģ» ãģ©
ĠØ§ÙĦØª Ø¬
Ġjam ais
Ġà¦¸ à¦¾à¦²
à¦® à§įà¦¯à¦¾à¦¨
ĠÛ ³
Ø² Ø¯
ĠáĥĽáĥĺáĥ®áĥĶáĥĵ áĥķáĥĺáĥĹ
Ġolun ur
Ġzak res
Ġà¦Ĩ à¦ķ
à¯ģà®® à®¾à®©
f orma
Å¡ Å¥
Ġv ente
ĠBe wert
un kt
Ġà¤Ń à¤¾à¤ľ
Ġà¤¨ à¥Į
Ġpro gram
×Ĺ ×ĵ
Ġd in
ãģ£ãģ¦ ãĤĤ
bi Äĩ
ĠNo ir
ĠØ¨Ùĩ Ø§
à· ĵ
à¤¿à¤¸à¥įà¤¤ à¤¾à¤¨
áĥ« áĥĺ
a w
Ġaus ge
é¢ ¨
ra ag
Ġima ge
Ġvy u
Ġpas ado
Ġst esso
Ġà¤ª à¤¢à¤¼
áĥĺ áĥĶáĥłáĥĺ
Ġproble m
Ġmuch os
us ch
×Ļ× £
or g
ŀà¸ ļà¸
ĠØª ÛĮÙħ
è® ²
Ġà¦ĸ à§ĩà¦²
à¤¶ à¤¨
Î¸ Î»Î·
à¯ģà® ¯
Î» Î¹ÎºÎ¬
Ø® Ø¯Ùħ
éĮ ²
æī ¿
æī ¹
ĠÑģÐ¿ Ð¾ÑĢÑĤ
Ġproto Å¾e
ĠÎ±Î½ ÎŃ
Ġt able
ĠÙħØ´ Ú©ÙĦ
ĠÎ²Î¿ Î·
Ð½ ÐµÐ¼
ĠáĥĿ áĥł
Ġas p
Ĺà¸ ±à¸Ļà¸
ĠÎłÎ± Î½Î±
Ġåı ª
ĠÐ² ÐµÑī
à°¨ à°¾
hl t
à¹ģà¸ ¥à¸
ÏĦÎ® ÏĥÎµÎ¹
Ġz ei
ĠÐ²ÑĢÐµÐ¼ ÐµÐ½Ð¸
Ġíİ ¸
à¸£ à¸²
ĠÎ³ Î½Ïİ
à¦¾à¦ª à§įà¦¤
Ġb ois
ä¾ Ĩ
æīĭæľº çĻ»å½ķ
66 6
Ġf ol
à¸Ńà¸ĩà¸ Ħà¹Įà¸
ĠÐ² ÐµÑģ
Ġà¤ĩà¤¸ à¤®à¥ĩà¤Ĥ
o le
ģà¸³à¸ «à¸Ļà¸
ei ght
ŀà¸ ¥à¸²à¸
Ġà®¨à®Ł à¯Īà®ªà¯Ĩ
Ġmus ÃŃ
Ġpou voir
c iÄĻ
ĠÐ²Ð½ ÑĥÑĤ
Ġpo ziom
Ġkre dy
Ġ×ŀ× ĺ
Ġvec es
Ġkar ÅŁÄ±
Ġáĥ¬áĥĲáĥłáĥĽ áĥĲáĥ¢
ÙĪÙħ Ø§Øª
Ġan ci
à°® à°¨à°¿
à¯Ģ à®°à¯įà®ķà®³à¯į
Ġtamb Ã©m
ĠÙħÙĪ Ø¶ÙĪØ¹
Ġà¦¹à¦¾à¦¸ à¦ªà¦¾à¦¤
à¦¿à¦ ¥
ĠPol sce
é¡ ŀ
ĠMar et
áĥļ áĥĿáĥĳ
ĠìĪ ľ
Ġinform ations
ĠÃ Ħ
Ġà°µà°¾à°° à±įà°¤
Ġà¤ªà¥įà¤° à¤µ
ĠÕ Ĩ
lÉĻr indÉĻ
Ġch ia
Ú© ÙĨØ¯
Ġà´ Ĩ
ale Å¼
onne ment
un ft
Ġà¤ª à¤¤
Ġsa at
ØŃ Ùħ
Ġfir my
Ġdi jo
Ġà°¨ à°¾à°Ł
Ġà¦ķ à¦¾à¦²
Ġp endant
ĠáĥĽáĥ£áĥľáĥĺáĥªáĥĺáĥŀ áĥĲáĥļ
Ġáĥ¯ áĥĲáĥľ
di ge
ĠØ¨Ø§ÙĦ Ùħ
ĠmÄĽ sÃŃ
Ġp osta
Ġà¤Ĩ à¤¨à¥ĩ
Ġmad uras
Ġt us
il ar
Ķà¸ ±à¸ĩà¸
íķĺ ëĭ¤
Ġå® ī
Ġà®ªà®¯à®©à¯įà®ª à®Łà¯ģà®¤à¯įà®¤
Ġà¦¯ à¦ĸà¦¨
ÏĢÎµ ÏģÎ¹
áĥ®áĥĽ áĥĲáĥł
Î¼Î² Î±
h Ã¤lt
ĠáĥĹ áĥĶáĥĳ
ĠãĢĳãĢĲ ãĢĤ
å¯ Ł
ĠÐ¼ÐµÐ¶Ð´ Ñĥ
à°¦ à±įà°¯
Î´Î¿ ÏĥÎ·
n ant
ĠC Ã´ng
ĠÎł ÎŃ
ĠÐ¼ Ð»
áĥ£áĥ ĸ
Ġmill ones
Ġà¹Ģà¸ ¥à¸
ĠÎĺÎµÏĥÏĥÎ± Î»Î¿Î½
åª Ĵ
ĠÑģÐ»ÐµÐ´ ÑĥÑİÑī
Ġver schieden
×ŀ× Ĳ
à¸£à¸°à¸ Ķà¸±à¸ļà¸
Ïİ ÏĥÎµÎ¹ÏĤ
Ġma jÃŃ
ĠÐĺ Ð³
ĠØ® Ø·
ģà¸İ à¸
ĠÎºÎ± ÏĦÎ¿
Ġà°µà°¿à°· à°¯à°Ĥ
Ġcou p
æīĭæľº app
äºº åĳĺ
å¾ Ģ
Ġsc on
à¹ģà¸Ļà¸ §à¸
ĠÐ¿ÑĢÐ¾Ð² ÐµÐ´
Ġtá» Ľi
Ġc ï¼Ĳ
«à¸ §
ĠÑĢÐµÐ± ÐµÐ½
ļà¸²à¸ ¢
ë° ±
áĢ ķ
Ġcom men
Ġu rzÄħ
ĠÐ³ Ð°ÑĢ
ĠÅ¼e by
Ġot rzym
Ġà¤Ĩà¤§ à¤¾à¤°
à°¾à°® à±ģ
ĠN el
Ġáĥĵáĥ¦ áĥĺáĥ¡
ti do
ĠÃ© ch
Ġì¦ Ŀ
ĠM Ã¤
Ġ×Ľ ×ĵ×Ļ
à°¾à°¨ à±įà°¨
ĠØª Ø£
ãĥ¼ãĥ Ĩ
r um
q ram
à°¡ à±į
Ġáĥ¡áĥ¢ áĥĲáĥ¢
tu ur
ĠB ou
Ġà¤Ĩà¤µ à¤¶à¥įà¤¯à¤ķ
Ġà¦ª à¦¥
por te
èŃ ·
el se
om men
r Ä±
à¯Ĩà®° à®¿à®ķà¯įà®ķ
K I
A U
ĠÄĳ áº¡i
è» ¢
Ġop rav
Ġh la
ro t
Ġëĵ ľ
c ÃŃa
Ġv endita
Ġeff ec
áĥĻ áĥķ
ĠáĥŀáĥĶáĥłáĥĺáĥĿ áĥĵ
Ġbas e
Ġà¦¬ à¦¹
à°¿à°¸à±įà°¤ à±Ĥ
Ġs ku
ãģ« åħ¥
ĠÙģÙĬ ÙĩØ§
ìŀ Ī
Ġà°° à±Īà°¤
±à¸Ļà¸ĺ à¹Į
k lich
Ġå° Ĩ
Ġà¤ħà¤ļà¥įà¤Ľ à¤¾
ĠyÃ¼ks ÉĻk
ĠÏĢÎ¿Î» Ïħ
ĠáĥĽáĥĺáĥĸ áĥĶáĥĸ
ĠÎµÎ¯ ÏĩÎ±Î½
Ġesta do
Ġáĥ©áĥĶáĥĽ áĥ¡
æĸ¹ æ³ķ
åħ¥ åı£
Ðł Ðŀ
à±ĩà°¸ à°¿
Î¼Îµ ÏĤ
Ġhe ure
le it
ĠÎŃ Î¾
ĠÑĩÐµÐ»Ð¾Ð²ÐµÐº Ð°
ĠáĥĴáĥĲáĥł áĥĶáĥ¨áĥĶ
ì ±ħ
à¹ĩ à¸Ļà¸
ÏĦ ÏģÎ¹
åħ¬ è§£æ¢¦
ĠÐ¿Ð» Ð°ÑĤ
lie ÃŁ
Ġà¦ Ĳ
à¹Ħà¸¡à¹Īà¸ ¡à¸µà¸
Ïģ Î¹ÎºÎ®
Ġno i
ĠÐºÐ°Ð· Ð¸Ð½Ð¾
Ġí ħ
Ľ à¸´à¸Ķà¸
ÎºÏĮ ÏĤ
âĢĮ à°ķ
Ġf il
Ġäºļæ¸¸éĽĨåĽ¢ å®ĺç½ĳ
ĠæŃ ¤
ĠåĴ Į
ĠØ±ÙĪ Ø´
±à¸ ģà¹Ģà¸
ÑĢ Ð¸Ð¼ÐµÑĢ
à®¾à®Łà¯įà®Ł à¯ģ
à¤ª à¤¾à¤²
Ľà¸¥ à¸Ńà¸Ķà¸
ÑĢ Ð°Ð¶
¥à¸ ±à¸ģà¸©à¸
à¤° à¤¿à¤ķ
ĠC al
Ġce ux
Ġspo ÅĤe
ĠÐ¿ÑĢÐ¾Ð² Ð¾Ð´
Ġz ÅĤo
M D
Ġpor ta
à°¿à°Ĥà°¦ à±ĩ
Ùĩ Ùı
ĠáĥĲáĥ¨ áĥ¨
ĠÙģÙĬ Ùĩ
ĠÃ ¢
Ã¼r lich
Ġtij d
Ġà¦Ĩà¦² à§ĭà¦ļ
Ġà°ļà±ĩà°¸ à±ĩ
à¦ķà§įà¦° à¦¾à¦¨à§įà¦¤
k in
Ġkon ie
Ġnost ra
à°ª à±ĭà°¯
ĠâĢľ .
ato re
li Ã¨re
ĠØ¨Ø§Ø² Ø¯ÛĮØ¯
Ġà®ķ à®¿à®³
à¦¨à§įà¦¦ à¦°
Ø§ÙĨ ÙĪÙĨ
Ġí ĳľ
ka uf
Ġpel a
Ġé ĸ
trz ym
Ġre v
Ġt Ã¼m
Ġkom men
Ġà¤¬ à¥ĩà¤Ł
à¤° à¤¾à¤¬
Ġtrze ba
à§į à§°
Ġà¦¬à¦² à¦¾
Ġag li
ĠCh ar
Ġà®µà®¾à® ļ
Õ¡ÖĢÕ ¯
ÉĻs iz
è¿ Ķ
à°¨à±įà°¨ à±ģ
po zy
×¨ ×Ĺ
ĠáĥĿáĥĹ áĥĲáĥ®
ä»ĺ ãģį
Ġà°ª à°Ĥà°ª
¥à¸ Ķ
Ġà®ħà®¤à®¿à®ķ à®¾à®°
Ġåĳ¨ åħ¬è§£æ¢¦
ĠÃ© l
¼ åħ¥
ĠÏĢ Î®
Ġne uen
ĠÎºÎ± Î»Î¬
m eld
Ġáĥ¡ áĥłáĥ£áĥļáĥĺ
Ġå¤§åıĳ äºĶ
ä¸Ń çļĦ
Ð°Ð· Ð´
Ġà°ľà°Ĺ à°¨à±į
Ïī Î´
Ġv Ã©
Ġde g
ĠÎ¼ Ïħ
ĠÐ´Ð¾ÑģÑĤ ÑĥÐ¿
Ġà¤ķà¥ĩ à¤µà¤²
Ġpub blica
¨à¸²à¸ªà¸ķà¸£ à¹Į
Î¶ ÎµÏĦÎ±Î¹
ĠæĹ ł
ĠÐ¶ÐµÐ½ Ñī
ĠáĥĽ áĥ¥áĥĿáĥľ
Ġal Ä±n
à¸£ à¸Ńà¸ĩ
ĠÏħ ÏĢ
ado ra
ĠÐ½ ÐµÐ±
è¼ ī
Ġ are
ĠÎ´ ÏģÎ¬
Ġà°¸à°Ĥà° ĸà±įà°¯
ul es
Ġ ä¸ĭ
æĸĩ åĮĸ
åĪĨéĴŁ pk10
ĠØ´ Ø±ÙĥØ©
Ĺ à¹Īà¸²à¸Ļà¸
id th
Ġà¦ĸ à¦¬à¦°
ĠG em
à¹ģà¸Ļ à¹Īà¸Ļ
Ð² Ð¸Ð¶
«à¸¡à¸ ·à¸Ńà¸Ļà¸
Ã¡ k
ĠSe g
ìĬ ¹
to ry
ĠÐļ ÑĢÐ°Ñģ
Ġok re
m io
ĠÙĩÙħÚĨ ÙĨÛĮÙĨ
à°¦ à°°à±įà°¶
à¦£ à§ĩà¦°
er de
lu g
ĠdÃ©velo ppe
ĠáĥĹáĥĳáĥĺáĥļáĥĺáĥ¡ áĥĺ
Ġáĥĵ áĥĲáĥ¢
q q
Ġimport ante
Ã¡l nÄĽ
Ġb á»ĩnh
ier p
ãĥ¼ãĥ ŀ
ÙĨ Ø§ÙħØ¬
ie w
Ġì º
áĥĶáĥ¢ áĥĺáĥ¡
à°¾à°¤ à°Ĥ
Ġà®¨ à®¾à®³à¯į
Ġà¤¶ à¤¹à¤°
Ġsep tembre
or te
Å ł
Ġpo kud
Ġespe cial
Ġznaj du
Ġà°¨ à°µ
Ġà®ļà¯ĩà®° à¯įà®¨à¯įà®¤
Ġáĥ£áĥ ª
èģ ·
Ø§Ø® ÙĦ
oba cz
b eid
à¦Ł à¦¾à¦°
xt ÉĻlif
å¤ļ ãģĦ
á»Ł i
is piel
Ġc entro
×¢ ×Ļ×Ŀ
à°°à°¿à° ¸à±įà°¤
Ġj Äħ
Ġen d
áĥĿáĥķ áĥĲáĥľ
il de
Ġà°¬ à°¾à°Ĺà°¾
Ġà¹ģà¸« à¹Īà¸ĩ
ub re
Ġå ĵ
Ġà®®à¯Ģ à®¤à¯ģ
t te
ÎµÏģ Î¼Î±Î½
or u
ĠÎ ī
à¦¨ à§įà¦Ł
ÙĬ Ø§Ø±
ä¸» è¦ģ
å¯ Į
ĠÑģÑĤ Ð°Ð²
ĠIn tern
ÎºÎ± ÏĦÎ±
ĠnÄĽ kol
Ġà°ķ à°µ
ĠÎ¿ ÏģÎ³Î±Î½
ĠÐ´Ð¾Ð¼ Ð°
Ġt wee
ÙĪ ÙĦÛĮ
Ġ( );
ĠÎ¼ Î®Î½
Ġ ĆĈ
ĠÐ¿ÑĢÐµÐ´ Ð¾ÑģÑĤÐ°Ð²
´ë ¦
Øª Øµ
³à¸Ļà¸ ±à¸ģà¸
ĠÎ±Î½ ÏĦÎ±
Ġsah ib
ÑĥÑĤ ÑģÑĤÐ²
¹ ä»ĭ
Īà¸ ±à¸ĩà¸«à¸§à¸±à¸
ÏİÎ½ ÎµÎ¹
Ġà¤ļ à¥Ģà¤¨
f ern
çĤ º
Ġæ ¢
èĢĥ è¯ķ
Ġà®¨ à¯Ĩ
Ġà¹Ģà¸Ĭ à¹Īà¸Ļ
ĠÑģÐ¿Ðµ ÑĨÐ¸Ð°Ð»ÑĮ
áĥĽ áĥĲáĥłáĥĹáĥķáĥĶáĥļ
ìĭľ ê°Ħ
Ġà¸ §à¸±à¸
ĠÑģÐ» Ð¾Ð¶
¶à¸ ĩ
ib ilidad
à¦¿à¦ķ à§ĩà¦Ł
Ġà°İ à°®à±įà°®
Å¼ eli
ĠÑĢÑĭ Ð½
Ġk ons
Ġna u
Ġou t
Ġà¦ı à¦ĸ
Ġà°ħà°² à°¾à°Ĺà±ĩ
Ġf ond
Ø³Øª ÛĮ
ĠáĥĽáĥĿáĥ«áĥł áĥĲáĥĿáĥĳ
à¥Ĥà¤° à¤¤
ãĤ¯ ãĥª
×© ×Ļ
ĠÙĬ ØªÙħ
Ġì§Ģ ëĤľ
Ã± as
Ġko le
ik e
c ci
à¦Ł à§įà¦Ł
ĠÅ ĺ
à¦¤ à¦®
st ra
Ġà®¨ à®®à¯įà®®
Ġà°Ĩ à°Ł
ãģ¡ãĤĥ ãĤĵ
Ġalgun os
ÙĪ Ø·
ãĤ¿ ãĥ¼
Ġà®İà®©à¯įà®± à¯ģà®®à¯į
Ġp is
Ġhe ute
Ġtech ni
áĥ¨ áĥĺáĥª
Ġh ra
Ġcent re
st wa
Ġáĥĺ áĥķáĥļáĥĺáĥ¡
ì¶ľìŀ¥ ë§ĮëĤ¨
Ġë¸ Ķ
den za
Ġ×ĳ ×ĺ
Ġkh u
áĥľ áĥĵáĥĲ
ãģį ãģŁ
an j
ĠÅĽ wie
Ġfor me
à±ģà°ķà±ģà°¨ à±ĩ
di da
Ġpou Å¾ÃŃ
à¹ĩà¸ ¡
ĳ ìĿ´
âĢ Ķ
Ġà®ª à®¿à®³
ĠC ON
Ïħ ÏĥÎ·
pues ta
á¿¶ Î½
Ġà¤¬ à¤¾à¤²
Ġà¦® à¦¾à¦Ŀ
æĮ Ĥ
è¿Ļ ä¸ª
Ð»Ñİ Ð´
Ø¸ Ùĩ
ĠÎ³ ÏħÎ½Î±
áĥĲáĥĺ áĥ¡
à°¤à±įà°¤ à°¿
ĠÏĦÎ· Î»Îµ
ĠÐ½ÐµÐ¾Ð±ÑħÐ¾Ð´Ð¸Ð¼ Ð¾
ĠT am
Ġà¤ķà¤° à¤¤à¥Ģ
ªà¸²à¸ ¢à¸
ÏĦÎ® Î¸Î·ÎºÎµ
åĿ ĩ
Ð°Ð½ Ð¸Ñİ
ĠAI J
Ġíģ ¬
à¹Ģà¸ ĺà¸
Îº ÏĦÎ·
ĠáĥĲáĥĵáĥĲáĥĽáĥĺáĥĲáĥľ áĥĺáĥ¡
Ð¾Ð² Ð¾Ð³Ð¾
stell ung
§à¸²à¸ ĩ
ĠÎ¥ Îł
ie k
Ġv endre
çīĪ ä¸ĭè½½
3 7
éĢļ è¿ĩ
Ġo ctobre
Ġà¸¥ à¹Īà¸²à¸
Ð½ ÑĥÑĤÑĮ
Ġà¦ªà§įà¦°à¦§à¦¾à¦¨ à¦®à¦¨à§įà¦¤à§įà¦°à§Ģ
æŃ ©
Ķà¸²à¸§à¸Ļà¹Į à¹Ĥà¸«à¸¥à¸
ÐµÑĢ Ð¾
ŀ à¸Ńà¸
Ġol acaq
Ġà¦ªà§įà¦°à¦¶ à§įà¦¨
Ġà®ķà®Ł à¯įà®ļ
Ġjak i
Ð»Ñı ÑĤÑĮ
Ġserv icio
ĠAr t
áĥ¯ áĥĶáĥł
ĠrÃ©s ulta
m alar
Ġà°¦ à°¿à°Ĺ
Ġà®ª à¯ģà®²
ind ow
ka za
à§ĩà¦¸ à§įà¦Ł
ĠÙĦ ÙĪ
i ti
×Ļ×¢ ×Ķ
in Ã©
à§Ī à¦¤à¦¿à¦ķ
Ġt al
Ġà¤Ńà¤¾à¤ľ à¤ªà¤¾
áĢ Ļ
Ġà¤¨ à¥įà¤¯
à®° à®¿à®©à¯į
Ġà°ķà°² à°¿à°Ĺ
ãĤı ãģĽ
Ġë© Ķ
ĠØ¬ ÙĨ
ĠáĥĲáĥ ¢
Ġad emÃ¡s
Ġol maq
b r
à§ĩà¦·à§įà¦Ł à¦¾
Ġbil g
i ques
Ġer ste
ä»¥ ä¸Ĭ
Ġà¤®à¤¦ à¤¦
ĠW iel
Ġver sch
Ġre tr
ĠìĹ ħ
Ġà®ħà®® à¯Ĩà®°à®¿à®ķà¯įà®ķ
Ġà°¨ à°¾à°¯à°ķ
ĠVÃŃ ce
Ġzp Å¯sob
Ġ×© ×§
c ina
ë¦ Ħ
Ġl Ã©g
ver o
Ġà¦ıà¦¬ à¦¾à¦°
Ġp ul
ŀà¸´ à¹Īà¸¡à¸
à±Ģ à°¦
å¤ Ł
Ġpor n
ĠÃº n
Î¼Î¿ Î¹
ĠØ´ ÙĬ
ĠÏĩÏģÎ·ÏĥÎ¹Î¼Î¿ ÏĢÎ¿Î¹
áĥĲáĥļáĥĺ áĥĲ
à¦¾à¦¤ à¦¾
Ġç Ī
c om
ĠÐ¸Ð· Ð±
ĠmÃ¼ ÉĻll
ÏĥÏĦÏħ Î½Î¿Î¼
Ġà°ªà±ĩ à°°à±ģ
ĠT L
ĠÎ¹ Î´Î¹
ÑĥÑĤ Ð±
st anbul
Ġà¤¤ à¥ĩà¤ľ
«à¸Ļà¸±à¸ĩà¸ ªà¸
Î» ÎµÏĤ
å¤§ çļĦ
ÑģÑĤ ÑĢÐ¾
ĠdeÄŁ iÅŁ
ĠÃ Ī
Ġ256 0
Î¿ÏħÎ» ÎµÏħ
Ġwiel u
Ñĩ Ð¸Ðº
Ġgi áº£i
ģà¸ ¸à¸
ĠÏħ ÏĪÎ·
Ø¬ Ø§Ø¯
áĥłáĥĽ áĥĲ
æĿ Ģ
ç½ Ĺ
Ġagäºļæ´² åĽ½éĻħ
ĠZ u
à¹Ħà¸¡ à¹īà¸
ÑģÐ¿ Ð¾ÑĢÑĤ
à¦ķà§įà¦° à¦®
Ġ×¦ ×¨
à¹Ģ à¸Ńà¸ĩà¸
ĠÐ¶ Ð¸Ð·Ð½
Ĺà¸µ à¹Ģà¸Ķ
Ġh vor
Ġà°ĩ à°¦à±įà°¦
Ġh ey
Ġáĥ¤ áĥĿáĥľ
ĠâĢ ļ
Ġáĥ¨ áĥĶáĥ¢
Ġà°ı à°¡
ĠEs c
b ir
Ġcom pos
Ġà®ķà¯ĩ à®³à¯įà®µ
wer k
Ġ ãģ§
Ø§Ø± Ø³
ê¸° ë¥¼
Ġà®ħà®µ à®©à¯į
Ġmemili ki
Ġé »Ħ
à¤Ĥà¤Ĺ à¥ĩ
à®® à¯Ī
à°¨à±įà°¨ à°¾
Ġa quÃŃ
Ġsyst Ã¨me
Ġsy tu
Ġà¦īà¦ª à¦°
Ġkom mt
éĢ ²
à´¿à´² àµįâĢį
Ġà¤ī à¤ļà¥įà¤ļ
aÅŁ Ä±
áĥł áĥĶáĥĳáĥ¡
Ġpos ible
à®¤ à®±à¯įà®ķ
ida de
m us
Ġfir m
×Ļ×ķ×ª ×¨
Ġob ec
à±įà° «
ÙĤÙĬ ÙĤ
ĠÙĤØ³Ùħ Øª
à¤¾à¤¯ à¥ĩ
is ke
Ġcel ui
Ġà¤µà¥įà¤¯ à¤ķà¥įà¤¤à¤¿
ar o
åį ĺ
Ġho áº·c
Ġq adÄ±n
ĠáĥĻáĥķ áĥĺáĥł
Ġà°®à±Ĥà° ¡à±ģ
ĠÚ© Ø§Ùħ
Ġ iy
ÅĽ nia
à¸Ļà¸ °à¸
ors a
2 00
ĠìĬ¬ ë¡¯
ë§ Ľ
ĠÏĥ ÏĢÎ¯
ë ¹
ĠÎ¼ Î¹
ĠPro ble
un es
ĠåĬłæĭ¿å¤§ 28
åį Ĭ
ĠÐ´ Ð¾Ð±Ð°Ð²
Ġáĥĳ áĥĲáĥľáĥĻ
ÏĨÎŃ ÏģÎ¿Î½
Ġkon ta
à®¿à®ķà®³ à®¿à®²à¯į
ĠÎĳÎ¸Î® Î½Î±
ĠÐ¸Ð¼Ðµ ÐµÑĤ
Ġsu i
ĠØª Ø·
Ġà¸ ĺ
ÎĻÎļ Îĳ
åº ·
Ð°ÑĤ ÑĥÑĢ
Ġà°¤ à±Ĩà°°
ĠØº ÛĮØ±
à¹ģà¸ªà¸Ķà¸ ĩà¸
ĠÏĩÏģÏĮ Î½Î¿
Ġe lles
ĠÑģÐ¾Ð² ÐµÑĢÑĪ
Ġk ni
ĭ à¸´à¸
Ï ĭ
Ġà¦¨à¦¿à¦¶ à§įà¦ļ
Ġà°ªà±įà°°à°ķ à°Ł
à¤¾à¤® à¥ģà¤³à¥ĩ
Ġ äºĨ
ä½ ³
czy n
Ġà¸ŀà¸ ¤à¸
ÑĤÐ¾ Ñĩ
ci Äĩ
áĥĿáĥłáĥ ĵ
Ġà¸ªà¸³à¸« à¸£à¸±à¸ļ
ĠÑģÐµÐ± Ðµ
Ġà¸ª à¸µà¸
Ġfin al
Ġà¤µ à¤¹à¥Ģà¤Ĥ
un ta
Ġmog elijk
ĠÐºÑĢÐµÐ´ Ð¸ÑĤ
ë§ Ĳ
ÙĬÙĨ Ø§
ick Ã¡
ĠV al
Ġus o
ind et
Ġà®ķ à®³
ĠëĶ Ķ
Ġà¦ķà§Ł à§ĩà¦ķ
à®¤à¯įà®¤ à®¿à®±à¯įà®ķ
Ġà°ı à°ª
à±ģà°¡ à°¿
Ġà¤¹à¥Ĥ à¤Ĥ
áĢ ¼
Õ¡ÖĢÕ ¿
ir ÉĻ
Ø§ÙĦ Øª
ici p
Ġb i
ic iel
le x
Ġà¦¬ à¦°à§įà¦¤
_ æĹ¥æľ¬
å¦ ¹
áĥĲáĥĽ áĥĳ
Ġcam bi
ĠÕĢ Õ¡Õµ
k Ã¼n
v Ã¡nÃŃ
Ġà°ľà°°à°¿à°Ĺ à°¿à°¨
Ġprz es
Ã® tre
Ġëª »
Ġqu er
Ġk onn
te g
Ġà¤° à¤¾à¤¹
ĠÙĩÙĨØ§ Ùĥ
Ġà¦¬à¦¿à¦ľ à§įà¦ŀ
à¥ľ à¤¾
ĠáĥĲáĥłáĥ ©áĥĶáĥķáĥľ
Ġå® Ł
ra in
Ø¨ Ø±Ø¯
Ġà°İà°¦ à±ģà°°
pr ession
à®² à¯įà®ķà®³à¯į
ĠáĥĹ áĥĲáĥł
Ġal bo
à¸Ńà¸±à¸Ļà¸ Ķà¸±à¸ļ
Ġê°Ģ ìŀ¥
æł ¹
ce d
×ķ×ľ ×Ļ×Ŀ
ĠÏĢ Î»ÎŃÎ¿Î½
Ġáĥ¡áĥĲáĥ ¬
Î±Î¹ Î½
ĠáĥĹ áĥ£áĥłáĥ
is tre
77 7
æ ½
Ġw idth
u ten
ĠÎ¼Î¿Ïħ Ïĥ
Ġà°®à°¾à°° à±įà°ķ
Ġb ÉĻz
ĠÎ³Îµ Î³Î¿Î½
ĠÐ¿Ð¾Ð·Ð² Ð¾Ð»Ñı
Ġà¦ªà§įà¦° à§Ł
b ia
Īà¸µ à¸Ļ
ÏĦÎ® ÏģÎ¹Î±
æŃ ¢
ĠÐ² Ð°ÑĢÐ¸
l at
Ġáĥĺáĥ¥ áĥľ
à¸£à¸ °
ĠÎµ ÏĢÏĮ
Ġapp lic
ĠÐ¸Ð³ ÑĢÑĭ
Ġk ami
Ġà¸ģà¸ ¥à¸
Î¹ÎºÎ¿ Î¯
ĠÙħ ÙĦ
ĠzÃ¡ kon
åĨ ł
Ġà¤² à¤¾à¤Ĺ
Ġà¨ ¤
à±ĭ à°ķ
à¸Ńà¸ Ķà¹Ģà¸
ĠÑģÐ² ÐµÑĤ
Ġz al
Ġà®ķ à®£à¯įà®£
§à¸´à¸ ĺà¸µà¸
ĠÐ¾ ÑĨÐµÐ½
ľà¸ ¡à¸
ĠR ec
à¤ľ à¤¾à¤°
ot ros
Ġsch w
Ð¸ Ð»Ñı
ing ga
Ġáĥĺáĥľ áĥĵ
Ġà®ħà®°à®ļ à®¿à®¯à®²à¯į
gen es
Ġre pres
Ġà°Ĩ à°Ĥà°§à±įà°°
Ġsv ilu
ĠØ¨ Ø£ÙĨ
Ã¶ ne
Ġmo c
Ġà°Ĩ à°ª
à®ªà¯įà®ªà®Łà¯įà®Ł à¯ģ
ĠçĶ ·
à¤® à¤Ĥà¤¤à¥įà¤°à¥Ģ
Ġtrab al
te Äį
ĠW asser
ĠG ay
Ġà¦īà¦ª à¦¸à§įà¦¥
Ġpeti te
Ã©r er
à°¿à° ¦à°¿
¡ äº¬
à·Ĵ à¶º
à¯ģà®µ à®¿à®Łà¯įà®Ł
den cia
Ġilg ili
ĠÚ© Ø§ÙĦ
Ġà®® à¯Ĩ
Ġav ere
Ġpoz osta
ĠA ch
Ġho e
Ġgra cias
ãĤĵ ãģ§ãģĻ
ãģĤãĤĬ ãģ¾ãģĽãĤĵ
à¤µ à¤°à¥Ģ
Ø´ Ø§ÙĨ
Ġà¦ Ī
àµģà´ ķ
Ġà¦ħ à¦ķ
Ġà°ļà°¿à°¤à±įà°° à°Ĥ
Ġno ta
Ġ×©×ľ ×Ĳ
ĠáĥĽáĥĺáĥ ®
Ġso ir
y un
Ġà°¤ à°¾à°ľ
áĥĲáĥ¬ áĥ§
ªà¸£ à¹īà¸²à¸ĩ
k owy
åĴĮ åĢ¼
erca to
Ġn ett
ĠÎ±Î³ Î±
Ø² ÙĬØ¯
Î»Î¬ Î²
Ġë² ł
Ġrapp ort
åį °
ĠéĢ ļ
Ð¼ Ð¾ÑĤ
à§ĩà¦° à¦¾
Î±Î¹ ÏģÎµ
Ġà°¯ à±ģà°µ
ĠM illi
ÏĥÎ± Î¼Îµ
ĠÐ¼ Ð°ÑģÑģ
Ġpo de
Âµ ÃĦ
à¹Īà¸²à¸ ĩ
ÎµÎ´ ÏģÎ¿ÏĤ
3 4
ĠÐºÐ¾Ð½ ÑĤ
Ġgiá» Ľi
à¯ģà®³à¯įà®³ à®©à®°à¯į
¢à¸Ļà¸ ķà¹Į
Î¹Ïĥ ÏĦÎ±
ĠC hr
ÑĪ Ð¸Ð¹
Ġ×Ĺ ×Ļ
Ĭà¸± à¹Īà¸Ļà¸
ĠÎ± Î»
ĠáĥĽ áĥĲáĥłáĥ
Ġprodo tti
Ġå¼ Ģ
çļĦ åĲĹ
è¯ Ń
Ġà°Ĩ à°²
Ĭ à¸²
Ð² ÐµÑĢÐ¶
Ġ ðŁ
Õ¥Õ ´
Ġà¸ĭà¸ ¶à¹Īà¸ĩ
ĠÐ¿ÑĢ Ð¸Ñģ
Ħà¸ °
ĠM Ã©
à´Ł àµįà´Ł
ĠR E
ir ÉĻm
ĠÑģ ÐµÑĤ
Ġ ÉĻk
Ġabb iamo
da pat
ut os
Ġm erca
Ġà®¨ à®£à¯įà®ª
arz Äħ
Ġsem pl
ĠktÃ³re j
Ġp at
Ġcom ments
Ġáĥ¡áĥĲ áĥĲáĥĴ
å¤§ é¦Ļèķī
å½± è§Ĩ
ĠÙĪ ÙĤØ¯
Ġtam il
à®¿à®© à¯Ī
áĥļ áĥĿáĥĳáĥĲ
ĠDe ze
ĠPri x
t out
áĥķáĥĺáĥ¡ áĥ¢
à¥ģà¤¦ à¥įà¤§
à¶ļ à·Ĭ
à±ģà°ķ à±ģà°Ĥà°¦à°¿
Ġê°Ģ ëĬ¥
nÃŃ k
Ġà¦¸à¦Ĥ à¦¸
Ġà°¸à°Ĥà°¦ à°°à±įà°Ń
ĠP el
Ġpre gun
Ġrep rÃ©s
Ġst ÅĻe
×Ļ×ª ×Ķ
à¦¬ à¦¨à§įà¦§
à§ĩà¦¤à§įà¦° à§ĩ
à¤ ĥ
Ġà®ķà¯ĩ à®Ł
olu ciÃ³n
Ġà¤¨ à¥įà¤¯à¥Ĥ
ĠÚ© ÙĪ
Ġà®ķ à®¾à®®
t ent
à¯ģà®ķà¯įà®ķ à®¾à®ķ
Ġáĥ¤ áĥĲáĥ¡
sk e
ĠFo to
à±įà°² à±Ģ
Ġáĥķ áĥĺáĥĹ
Ĭà¹Īà¸§à¸ ĩà¸
Ġserv izio
åĲ ĥ
ĠØ§ÙĦØª ÙĨ
ĠF ahr
ÎŃÎ½ ÏĦÏģÎ¿
Ġpon ad
ĠÎ±Ïģ ÎºÎµ
Ġà°µà±įà°¯ à°¾à°ĸà±įà°¯
ian co
áŀ Ģ
çŁ ³
Ð¸ Ð¾Ð´
Ġm m
Ġu 00
à±Ĩ à°¸à±į
Ġn ik
Î¶ Î¿
Ð°Ðº Ð¾Ð²
Ġx ar
ĠdÃ© ta
ģà¸²à¸£à¸ ĵà¹Įà¸
ĠÎ±ÏĢÎ¿ÏĦÎµ Î»ÎµÎ¯
å± ħ
ĠÑĤ Ð¾Ð¶Ðµ
c are
Ġà®¨à®©à¯įà®± à®¿
Ġà¸ģ à¹ĩ
ĠÎµÏĨÎ±Ïģ Î¼Î¿
ĠMer ci
Ð°Ð· Ñĥ
Ø§Ø±Ùĥ Ø©
à¸Ńà¸ ±à¸ĩà¸ģà¸¤à¸©
ĠÎ±Î½Î¬ Î³Îº
Ġáĥ¡ áĥĺáĥ§áĥķ
ĠA uto
Ġ1 åĪĨå¿«3
ç¼ ĸ
áł¡ áł
in ts
ªà¸´à¸Ĺà¸ĺ à¸´à¸
ĠÐ¸Ð· Ð²ÐµÑģÑĤ
Ġn Ä±n
ì¶ľìŀ¥ìĥµ ìĺĪìķ½
à¹ģà¸ľ à¸Ļà¸
ÑĮ ÑİÑĤ
ï»¿ ï»¿
Ġn ing
Ġà¤ľà¤Ĺ à¤¹
Ġserv icios
Ġë ģ
Ð¡ Ð
ÙĬ Ø·
Ġà¦® à¦¿à¦¨
Ġstr ut
cz o
Ġpo ÅĻ
Ġà®İà®©à¯įà®ª à®¤à¯Ī
Ö ¹
Ġ×ĵ ×ĳ×¨
rij f
Ø® ÙĪ
ĠáĥĽ áĥĲáĥļ
ĠáĥĵáĥĲáĥķ áĥĺáĥĹ
Ġà¤¬ à¤Ĥà¤¦
Ġà¤µà¤¿à¤ ļ
es o
Ġà®ĩà®©à¯įà®© à¯ģà®®à¯į
à°¸ à°¾à°°à°¿
áĥŀ áĥĿáĥłáĥ¢
Ġà¦¤ à¦¾à¦²
ĠF all
b ud
áĥĿáĥĳ áĥłáĥĺáĥķáĥĺ
Ġà¤ĩà¤¸ à¤ķà¤¾
à´ ¦
à°² à°¤à±ĭ
x te
ÉĻr i
Ãºmer o
Ã Į
Ġph Ã¡p
Ġga an
ĠB as
jour d
à¦¾à¦ģ à¦ļ
à¯ģà®ļ à¯įà®ļ
Ġa be
à¥įà¤° à¤¾
Ġabe uk
Ġse perti
Ġà¤¸ à¤ª
ca to
Ġle k
ãĤĤ ãģĹ
Ã³ Åº
áĥĶáĥĹ áĥ¡
Ġvy t
Ġà°ķà°¾à°°à±įà°¯ à°ķà±įà°°à°®
à®¨ à¯įà®¨
ĠáĥĵáĥĲáĥ ĸ
Ġfal se
Ġà¦° à§ĩà¦ĸ
è´ §
Ġter m
à¯ģà®ķà®³ à®¿à®²à¯į
ĠÏĩ ÏģÎµÎ¹
Ġà°® à±ģà°Ĺ
ÏģÎ¹ ÏĥÎ·
ëŁ °
olo gÃŃa
å·² ç»ı
æ± ½
ĠÑģÑĢÐµÐ´ ÑģÑĤÐ²
h in
Ïĥ Î¯ÎµÏĤ
Ġfac ile
éģ Ķ
ĠÎ¼ Î®
ĠÑģÑĤ Ð°Ð½
Ġà¦¬ à¦¾à¦ľà¦¾à¦°
ĠØ³ Ù¾
ļà¸¸à¸ Ħà¸
ÏĨ Î±Î¹
åĢ ĭ
ĠÐ± ÐµÑĢ
×¤ ×Ļ×Ŀ
Ġc avab
ļ à¸´à¸Ļ
Ġ[ "
ĠQu Ã©
Ġh eight
w u
ĵ à¸²à¸
Ïĥ Î¿Ïħ
ĠáĥĽáĥĺáĥ£áĥ ®áĥĶáĥĵ
d s
å¨ ģ
áł¢ áł
Ġå »
Ġà°°à±Ĩ à°¡à±įà°¡à°¿
Ķà¸³ à¹Ģà¸Ļà¸´à¸Ļà¸
ĠÑĦ ÑĥÐ½Ðº
à°¿à°¨ à±Ģ
Ġni Ã±os
Ġà¸ģà¸ ¥
ÐµÑĢ Ð²
Ĺà¸¸à¸ ģ
ĠØ± Ø¯
Ġà¤ħà¤² à¤¾à¤µà¤¾
Ùģ Ø§Ø¹
Ġà§§à§ ®
ĠÐ¾ Ð·
Ġëĭ¤ ë¥¸
Ġà°ªà±įà°° à°µ
Ġwe il
Ġà¦ķà¦² à§ĩà¦ľ
Ġd il
Ġv id
Ġau jourd
Ġà¦ľà¦¾à¦¨ à¦¾
Ġin ve
Øª Ø¨
anie m
Ġd Ã¹ng
Ġà¤ķà¥Ģ à¤®à¤¤
à¥įà¤ Ĺ
ra zione
Ġdes e
ĠB ere
w es
Ġà¦ıà¦¸ à¦¬
ĠWy ÅĽwiet
rÃ³ t
à±ĩà° ĸ
Ġà¤ķ à¥ģà¤²
ĠA M
×ķ×¨ ×Ļ
Ġpr omo
Ġob chod
Ġden ne
ĠD urch
Ġav ril
Ġà°¸à°® à°¯à°Ĥà°²à±ĭ
Ġt on
Ġh y
Ġà¦ķà¦¾à¦° à§įà¦¯
az o
ĠN ero
à¤¿à¤¨ à¤¾
az z
ĠØ¨Ø´ ÙĥÙĦ
áĥĲáĥł áĥĿáĥ¡
ĠáĥĹáĥĲáĥĽ áĥĲáĥ¨áĥĺ
rz u
Ġsc el
Ġy ok
Ġte gen
di Ã³
ion en
ven ir
éģ İ
à¹Īà¸²à¸¢à¸ Ĺ
Ġpro blÃ©
å¿ µ
Ġà®ªà®¾à®¤ à¯ģà®ķ
Ġáĥł áĥĶáĥĻ
ĠÎ±ÏĢÎ¿ ÏĦÎŃÎ»Îµ
Ġà¦¬à¦°à§įà¦¤ à¦®à¦¾à¦¨
ÏĥÏĦ Î¹Î±
ĠÙħ Ø±Ú©
ĠÃł s
Ġà¤ķà¥ĩ à¤²à¥ĩ
Ġ5 8
ĠÐ½Ð°Ð´ Ð¾
à´ª àµįà´ª
ĠÎ¿ Ïħ
Ġfar k
Ġserv izi
Ïĥ ÏĦÎ±Î½
ĠÐŁÑĢ Ð¾
Z Y
Ġáĥĳáĥĺáĥĸ áĥľáĥĶáĥ¡
Ġà¸ ļà¸£à¸´à¸©à¸±à¸Ĺ
Ïģ ÎŃÏĤ
è¿ ľ
ÐĿ Ðŀ
Ġi gu
Ġpho tos
à¸µ à¹Ī
Î½Î¿ Î¼Î±
Ġtr ang
ĠÐ»ÑİÐ´ ÐµÐ¹
ĠN r
à¸Ńà¸ ¡
ĠÎ¼Î¹Î± ÏĤ
Ġáĥ¡áĥĲáĥĲáĥĴ áĥĶáĥľáĥ¢
à¦Ĺ à¦°
Ġà¨ ®
æ³ ¢
äºĨ ä¸Ģ
áĥĺáĥ¢ áĥĲáĥľ
à¸£ à¹īà¸²à¸Ļà¸
ÐµÐ» Ð°
m asÄ±na
Ġà°Ĩ à°¤
Ġg club
Ð»ÐµÐ½ Ð¾
à¹Ħà¸ Ĥà¸
Ġes pa
à¤ ĵ
Ġr it
Ġà¦ħà¦« à¦¿à¦¸
Ðº Ð¸Ðµ
Ġspiel en
ĠSt and
Ġà®®à¯ĩ à®±à¯įà®ķ
Ġà¦ļ à§ĩà§Łà¦¾à¦°
Ġro d
Ú¯ Ø±ÛĮ
Ġju illet
Ġà¦ķà¦° à¦¬à§ĩ
Ġà°¸ à°¿à°¦à±įà°§
ĠQar abaÄŁ
st wo
liy inin
Ġà¤¸ à¤²
Ġà¤ľ à¤¿à¤²
×ĳ×¨ ×Ķ
larÄ±n da
Ġd entro
ĠÅĽwia t
it te
utsch ein
ĠDam en
asi h
à¥Ģà¤¡ à¤¿à¤¯à¤¾
à¥ĭ à¤¹
áº© n
Ġvo yage
Ġn ic
Ġà®ļà®® à¯Ĥà®ķ
ra gen
Ġim mag
à±įâĢĮ à°¨à±ģ
Ġà®ĩ à®´
Ġáĥ© áĥĲáĥ¢
Ġà¦® à¦¾à¦¹
Ġà¦¸à¦Ĥ à¦ĸ
Ġz ÃŃ
à¤ľ à¤¾
Ġap lica
×ĺ ×Ļ
el ser
¤ Ħ
Ġca pa
ĠØ§ÙĦØ£ Ø®
Ġà®¨à®¿à®² à¯Īà®¯à®¿à®²à¯į
áĥĺáĥª áĥĺáĥĺáĥ¡
ĠÃ¼ st
Ġna t
èª ¬
Ġà°¸ à°°à±įà°µ
à¹ĩ à¸Ļ
Ġt ent
Ġà¥§ à¥
Ø¹ÙĦ Ø§Ùħ
Ġha ar
ĠÎº Î¿Ïģ
Ġà¦¦ à§ĩà¦¨
ĠÏĦ Ïį
áĥ£áĥłáĥ ĵ
la ciÃ³n
æĺ¯ çľŁ
çľ ¼
ĠÐ³ÑĢ Ð°Ð¶Ð´Ð°Ð½
Ġà¤®à¥Īà¤Ĥ à¤¨à¥ĩ
ĠÎ´Îµ ÏįÏĦÎµ
Ġsamo chod
à®¿à®Ļ à¯į
ĠÏĮÎ» ÎµÏĤ
ĠÐ¡ Ð¾Ð²
ãģ® ãģ«
Ġprze ciw
Ĥ à¸Ļà¸
ĠÎľ ÏĢÎ¿
Ġag æīĭæľº
ĠÑĥ Ñģ
Ġìļ ©
un n
Ľ à¸£à¸²à¸
ĠÎ²ÏģÎ¯ ÏĥÎºÎµÏĦÎ±Î¹
Ġga at
ĠÐ± Ð¸Ð·Ð½ÐµÑģ
à±Ĭ à°Ĥà°¦
à¸Ļ à¹Īà¸²
ÏģÎ¯Î¶ ÎµÎ¹
u ale
Ġà¦ª à§Į
ĠæĿ ¥
åĿ Ľ
Ġà¤® à¤¿à¤³
ĠÙĦ ÙĨ
ļà¸Ĺà¸ §à¸Ļ
ĠÐĺÐ½ ÑĤÐµÑĢ
z em
Ġ×ľ×Ĳ ×Ĺ×¨
ļà¸²à¸ ¥
ĠÐ¼Ð¸Ð½ ÑĥÑĤ
Ķà¸ ·à¸Ńà¸Ļ
ĠáĥĲáĥłáĥĲáĥĽ áĥĶáĥĵ
Ġà¤¦à¥Ĥà¤¸ à¤°à¥ĩ
Ġáĥª áĥĿáĥ¢
Ġj ÄĻzy
ÐµÐ½ Ð½Ð¾ÑģÑĤÐ¸
Ġsich er
Ġbes ten
Ġlá»Ľ n
â ĺ
Ġì² ´
Ġà¦¤ à§ĭà¦®
qu oi
Ġcon ten
ĠâĢ »
ãĤĬ ãģ¾ãģĹãģŁ
áĥĲáĥ£áĥ ĳ
Ġà¦¦à§ĩà¦¶ à§ĩ
à´¾à´£ àµį
Ġà¤¹ à¤¿à¤¸
t Ã¼r
Ġm io
ĠA t
Ġà°µà°¿à°µ à°°
ĠSp ort
ĠØ§ÙĦØŃ Ùĥ
Ġà°Ĩ à°µ
à®¤ à®¿à®²à¯į
áĥļ áĥĲ
ÛĮÙħ ÛĮ
ie me
r io
ite z
Ġhar us
ĠÙħÙĪ ÙĤØ¹
s lu
Ġein z
ê² Ģ
áĥ¬ áĥĲáĥķ
Ġë² ķ
Ġà¦ª à¦¾à¦¨
à°·à±įà°Ł à°Ĥ
ĠAl s
Ġà®ªà®¿à®° à®ļà¯įà®ļ
ct ura
Ġno vembre
ei to
z er
à¤ľ à¤¹
à°¨ à°¿à°µ
áĥĺáĥļ áĥĲ
Ø§Ø¶ ÙĬ
à°¿à° £
Ġf emmes
ib ilitÃ©
Ġà¸ķ à¹Īà¸Ń
ĠC H
ĠçĶ ¨
ita ire
ĠØ± ÙģØª
Ïİ Î½Î±
Ġproduc tos
ĠÏĥÏħÎ½ ÎŃÏĩ
Ġáĥ¤ áĥ¡
Ġmi ent
à¤¾à¤ ¢
ç Ĩ
ÐµÑĩ Ð½Ð¾
Ġà¦¨ à¦¾à¦°
ĠÏĢÏģÎ¿Ïĥ ÏĦÎ±
à§ĩà¦¦ à§ĩà¦°
Ġsu lle
Ïģ Î½
ĠÐĴ Ð°ÑĪ
à¤· à¥įà¤Ł
Ġà®¤à¯Ĭà®Ł à®Ļà¯įà®ķ
¡à¸µà¸ Ħà¸§à¸²à¸¡à¸
Î±Î¹ Î±
æĺ ¥
Ñĳ Ð¼
Ġim kan
v Ã½
Ġà¸ Ĥà¸²à¸¢à¸
ĠÎķ Î¯
Ġì² ľ
ĠÐ¿Ð¾Ð» Ð¾Ð¶
à§ ¯
Ġs lot
ÏĢ Î»Î·
Ø§Øª Ùģ
ĠJe g
Ġçİ °
èĳ Ĺ
Ġæı Ĳ
ĠwÅĤa ÅĽnie
ľà¸¥à¸´à¸ ķ
Ð¾Ð² ÑĭÐ¹
f Ã¼r
Ġ×ĳ ×Ļ
Ħ à¹Ī
ÑĢ ÑĮ
ģà¸£à¸ °
ĠáĥĽáĥĺáĥ£áĥ®áĥĶáĥĵ áĥĲáĥķáĥĲáĥĵ
ra to
Ġà¦¸ à§įà¦¤
Ġà°¬ à±Ģà°ľ
ĠÐĳ ÐµÐ»
en da
I G
Å ļ
Z G
al nego
Å¾ i
ain es
Ġf Ã¸l
ĠíĮ Ĳ
Ġà°¦à±Ģ à°Ĥà°¤à±ĭ
Æ Ĵ
Ġtr á»ĭ
Ġv Ã¡s
Ġand re
ens a
Ø±ÙĪ Ø¹
Ġp unto
Ġà°ķ à±įà°·
Ġà¤ķ à¥ī
ĠáĥĹáĥĲáĥķ áĥĽ
sp iel
ĠR Ã¼ck
Ġt ÅĻeba
à¦¾à¦Ł à¦¿
áĥĺáĥ¨áĥķ áĥĺáĥļáĥĺáĥ¡
áĥł áĥĶáĥĳáĥĲ
N E
ĠØ§ÙĦØª ØŃ
à±ģà°µ à±įà°µ
im enti
Ġp esso
ãģĻ ãģĻ
ãĤī ãĤĮãĤĭ
ĠbaÅŁ qa
z ar
à± ¦
Ġà®¤à¯Ĭ à®ķ
Ġm eine
ĠnÃ¡ m
Ġa ide
ĠG ro
Ġk áº¿
eta il
ëĭ ´
Ġz de
p un
ĠëĲ ľ
ĠG o
Ġl it
à¸µà¹Īà¸ Ľà¸
Ġv idÃ©
Ġæ Ļ
g Ã©
Ø§Ø¦ Ø±
Î½ ÏİÎ½
Ġà®ķ à®¾à®µ
ÏĦ ÏĤ
ĠáĥĲáĥĵ áĥĽ
à¤¿à¤ ļ
Ġå¦Ĥ æŀľ
åģ ľ
Ð¾Ð» ÐµÐ²
Ú© ØªØ±
ÎŁÎ Ķ
ĠáĥłáĥĶáĥĴ áĥĺáĥĿáĥľ
Ġho ch
ÏĢÎ± Î¯Î´
ÑģÑĤÐ² Ðµ
ãģĮ ãģĤãĤĬãģ¾ãģĻ
Ġà§¨à§¦à§ ¨
à¹ģà¸Ļà¸° à¸Ļà¸³
ÏĦÎµ ÏģÎ¿
Ġà¤¯ à¤¾à¤Ĥà¤¨à¥Ģ
ĠÐº Ð¾Ð¶
Ġà¦¸ à§ģà¦
z io
«à¸ ¢à¸
ÏĢÎµ Î´Î¿
×Ļ×ŀ ×Ķ
Ð° ÑĦ
Ùģ ÙĦ
à¸Ļ à¸Ńà¸Ļ
ĠÎ±ÏĢ Î±Î¹
ĠV e
Ġà®ķ à®©
Ġæ± Ł
Ġ4 9
1 00
ĠC Ã³
ģà¸²à¸£ à¹ĥà¸Ĭà¹īà¸
Ð¾ÑĢ Ñĭ
r ero
Ġmen o
¡à¸ ŀà¸´à¸
ĠÑĢ Ð°Ð½
à¹Ĥ à¸£
Ġt ur
ĠF amil
ĠØªÙħ Ø§Ùħ
ì Ĥ
ĠÐ¡ Ð²
à¦¿à¦¸ à§įà¦Ł
ĠáĥĶáĥłáĥĹ áĥĽáĥĲáĥľ
Ġà¤Ĺ à¥Ī
×ķ×ľ ×Ļ
Ġdies en
Ġà®¸ à¯įà®Ł
co le
ìĸ µ
áĥ® áĥļáĥĺáĥ¡
Ø± Ø¬
Ø¯ Ø§Ø´Øª
Ġà¤ħà¤§à¥įà¤¯ à¤ķà¥įà¤·
Ġà¦¦à§ĩà¦ĵ à§Łà¦¾
ĠÃ ĥ
à ³
á»į ng
ìĹ Ĩ
Ø§Ø³ ÙĬ
Ġà¤īà¤¨ à¤ķà¤¾
áĥĵ áĥĲáĥĹ
Ġd azu
Ġge z
Ġìļ ´
ĠC ont
Ġe lla
ĠØ¨Ø¯ ÙĪÙĨ
Ġ= "
Ġ×ķ ×ł
Ġe y
Ġmient ras
Ġáĥ£áĥ¡ áĥĲáĥ¤áĥłáĥĹáĥ®
u ÃŁ
Ġok res
Ġà¦ķ à¦¬
à¦¦ à¦¿à¦ķà§ĩ
h ov
Ġà®Ĵ à®µà¯įà®µ
Ġà¤ķà¤° à¤ķà¥ĩ
mÄĽ r
Ġsouv ent
Ġáĥ «áĥļ
ĠH ol
Ġà¦ľà¦¾à¦¨ à¦¿à§Ł
ĠHo ch
ÄĽ l
ëĵ¤ ìĿĦ
Ġ ÅĤa
ĠdÃ©c ouv
ĠfÃ© vrier
à¹Ħà¸ Ł
Ġl ivre
ć ą
Ġd us
ac ter
Î² Î¿
c ara
Î²Î¬Î» Î»Î¿Î½
à®°à¯įà®ķà®³ à®¿à®©à¯į
ãģĦ ãģı
éĤĢè¯·çłģ _
å¤ļ å°ĳ
ÑĢ Ð°Ð»
ub le
ĠÎķÏħ ÏģÏİ
ĠØ§ÙĦØ¨ ÙĦ
Ã¤ uf
ÏĦÎ¹ÎºÎ¿Ïį ÏĤ
ĠÐŁÑĢ Ð¾Ð´
ĠáĥĴáĥĲáĥľáĥ® áĥĿáĥłáĥªáĥĺáĥĶáĥļ
Ġà¦ķ à¦¾à¦®
į à¸µà¹Īà¸Ľà¸
ĠÎ³ Î¹
Ġæ ĥ
ĠÐº Ð°Ð¿
à¦¾à¦§ à§Ģà¦¨
Ġdes car
Ġà¸ «à¸¥à¸±à¸ĩà¸
ĠÏĦ ÏģÎ¯
Ġà¤ľ à¤¾à¤¨à¤¾
Ðł ÐĲ
ĠÙħÛĮâĢĮ ØªÙĪØ§ÙĨ
ģà¸µà¸ ¬
ĠÏĦ ÏģÎ±Î³
Ġg ÉĻnc
rz ch
Ġé Ł
Ġå¹ ¿
4 9
b io
Ĭà¸ Ĭà¸µ
ĠÑĢ ÐµÐ¶
Ġ×¢ ×ķ×ĵ
áĥĵ áĥĺáĥĹ
Ġà¸ªà¸¹à¸ ķà¸£à¸
ĠÑģÐ¸ÑģÑĤÐµÐ¼ Ñĭ
ľà¸¥à¸´à¸ķà¸ łà¸±à¸ĵà¸ĳ
Ġtrat ta
áº§ m
ÉĻlÉĻr inin
lij ke
ĠÐ´ Ð¾Ð²
à¦¾à¦¹ à§Ģ
ĠáĥĲáĥĴ áĥķáĥĺáĥ¡áĥ¢
ĠNa cional
Ġvy so
Ġà®ļ à®Ļà¯įà®ķ
ĠåĲį çĦ¡ãģĹ
Ġa li
è³ ĩ
áĥķáĥĶáĥ £áĥļáĥĺ
Ġà®Ĩ à®Ł
ĠìĿ Ģ
Ġ×ª ×§
Ġà¦ªà§įà¦° à¦¸à§įà¦¤
Å¼ u
s ÉĻd
Ġsein er
Ġs ÅĤ
áĢ Ĳ
Ġà¶ ħ
Ġà¤¡ à¥Ģ
Ġà®İà®²à¯įà®² à®¾à®®à¯į
r Ã¥
Ġpr esso
Ġà®İ à®®à¯į
à®¤ à¯ĩ
áĥĶáĥļ áĥĶáĥĳáĥĺ
ĠVo ir
ãģ¨ ãģ®
Ġs lov
à¤¾à¤° à¤¿à¤¯à¥ĭà¤Ĥ
s u
Ġ×ľ×Ķ ×Ļ×ķ×ª
ĠM ej
à¦¿à¦² à§įà¦ª
à¦¶ à§įà¦¯
urs os
Ġà®¨ à®ķà®°
Ġa po
Ġpon ie
ĠdÃ© cembre
Ġa lÄ±
ĠØ§ÙĦ Ø§Ùħ
ãģĦãģŁ ãģł
å¯¾ å¿ľ
Ġth o
ĠØ¨ Ø·
áĥĺáĥĵ áĥĶáĥĳáĥĲ
Ġbeso in
d it
Ġà¸Ĺà¸ ļà¸Ĺà¸§à¸Ļ
ĠN ouve
è¦ģ æ±Ĥ
áĥĲáĥ¥ áĥ¡
Ġìł Ĳ
ĠÏĥÏĩÎŃ ÏĥÎ·
do ch
ĠÎ¬ Î»Î»Î·
à¤« à¥įà¤¤
Ġsem ana
ĠAGçİ¯äºļ éĽĨåĽ¢
Ġçİ¯äºļ éĽĨåĽ¢
Ð»Ñı ÑİÑĤÑģÑı
r is
Î¼ Î·Î½
Ġcir ca
Ġà¤¦ à¤°à¥įà¤ľ
ÎµÎ½ ÏĦÏģ
ĠÐ¡ ÐºÐ°ÑĩÐ°ÑĤÑĮ
ĠáĥĹáĥĲáĥł áĥĺáĥ¦
ãĥĲ ãĥ¼
Ġà¸Īà¸ ³à¸Ļà¸
ĠÏĥ ÎµÎ¹
ç¾İ åĽ½
Ð°ÑĢÑĤ Ð°
Ġcont ent
Ġhar ga
ŀà¸ ±à¸Ļà¸
Î³ ÎŃÏĤ
ak in
Ð¸ÑģÑĤÑĢÐ° ÑĨÐ¸Ð¸
Ġj ste
à¸Ńà¸ ´à¸
Î® ÏĨ
rÃ¡ s
Ġk w
Ġà¤¹ à¤¾
à¨ ®
ç» Ī
ÙĪ Ø§ÙĦ
ľà¸ ¡
ĠÐ¿ÑĢ Ð¸Ð´
ch y
áĥĽ áĥĶáĥłáĥĹ
Ľà¸£à¸ªà¸´à¸ ķ
ĠÑģÐ¾Ð² ÑĢÐµÐ¼
Īà¸ Īà¸¸à¸
Ġà¤¸ à¤¿
à¦² à§Ģà¦Ĺ
à¦° à¦®
Ã¼n ki
Ð°Ð»ÑĮ Ð½Ð¾Ðµ
az a
ĠáĥĲáĥľ áĥ£
ĠtÃ© to
Ġë¬´ë £Į
Ġkom ent
Ġâĺ ħ
I T
ç´ °
ĠáĥĻ áĥĿáĥł
b ang
Ġë§ ŀ
Ġw aÅ¼
fol g
Ġnh iÃªn
ĠÙĬ Ø³Øª
el ik
p la
p da
Ġà¤°à¤¾à¤·à¥įà¤Ł à¥įà¤°
×ķ×¨ ×ª
à¦¸ à§įà¦ª
à°¿à°Ł à±į
tto bre
Ġc in
ĠSch ul
ĠáĥĵáĥĲáĥĽ áĥĲáĥ¢
Ġfam ille
éģ ĭ
Ġà¦®à§įà¦¯ à¦¾à¦ļ
à¯įà® ·
lÉĻr lÉĻ
èµĮ åľº
ç»¼åĲĪ ç½ĳ
D etail
ĠìĤ ¼
Ġin ne
ì¶ľìŀ¥ ìĦľë¹ĦìĬ¤
íĻ ľ
Ġpr Ã³
char ger
n te
Ġol uÅŁ
æħ ĭ
Ø§Ø¬ Ùĩ
à§ĩà¦ ļ
à®ªà¯įà®ªà®Ł à¯ģà®ķà®¿à®±à®¤à¯ģ
Ġ") ;
Ġnota mment
Ġmo di
Ħà¸§ à¸£à¸
Å ĵ
3 d
áĥĳ áĥĺ
id d
ĠÎ¼Î· ÏĩÎ±Î½
Ġt is
ÎĻÎ Ľ
Ġà¤¸à¤® à¤¾à¤ľ
Ġìŀ Ħ
æķ ħ
éĵ ģ
ĠÐ²Ñĭ Ð³
Ġm ul
ÏĦÎ¹ Î¿
ĠÙħÛĮ Ø²
à¤¸ à¥įà¤¯
ÏĢ ÏģÏĮ
ÐµÐ¼ Ð°
áĥĲáĥł áĥĶáĥ¡
Ġà°ħà°¯ à°¿à°¨
Ĭ à¸´
ĠÎĿÎ¿ Îµ
à¤Ĥà¤¤ à¤°
ĠÐ´ Ð¾Ð³Ð¾Ð²Ð¾ÑĢ
Ġme e
Ùĥ Ø©
ģà¸¥à¸²à¸ ĩà¸
ĠÎ¼ Î¬Î»
Ġk itab
ĠÑģ ÐµÐ¹ÑĩÐ°Ñģ
Ġseg Ãºn
à¹Ħà¸§ à¹īà¸
ÎŃ Î½Î±
Ġcas ino
na hme
à¤¡ à¥ĩ
Ġá ĭ
è¿ İ
Ġ×ĳ ×ľ
Ġà¹Ģà¸ŀ à¸£à¸²à¸
ĠÐ²Ð¸Ð´Ðµ Ð¾
Ġa per
ĠáĥĽ áĥĸ
ĭ à¹Į
Ð¸Ð»ÑĮ Ð½Ð¾
à¹Ģà¸ ģà¹ĩà¸
Å¾ dy
à¦ķ à¦¿
ĠÕ ¦
ĠMÉĻr kÉĻz
ĠÐ¸Ð¼ ÐµÐ½Ð½Ð¾
ku ment
Ø¨ ÙĪØ¯
à¤¾à¤¤ à¥įà¤®
Ġìĭ ¬
Ġb lij
ul io
Ġfa ce
Ġsyste m
le gen
llar Ä±
Ġ Ã¡
Ġbez pie
ĠpÅĻ ij
Ġáĥķáĥĺáĥĵ áĥĶáĥĿ
Ġpre zzo
Ġa ver
éĸ Ģ
Ø§Ùģ Ø¸
à´¿à´ ķ
æĸ Ĺ
ĠQu á»ĳc
al itÃ¤t
Ä ĺ
n ow
ĠØ± Ø¦
ma in
ĠDÃ© c
Ġà¦ĸ à¦¾à¦¨
áĥĺáĥ ¨áĥĺ
Ġà¦Ĩà¦¦ à¦¾à¦²
Ġíķ¨ ê»ĺ
Ġà¤¸à¤Ĥ à¤ª
à¦¾à¦® à§įà¦®
à§ĭ à¦¬
Ġà°Ĺ à°Ĥà°Ł
Ġprac ow
ãģ® ãģ§ãģĻ
Ø±Ùģ Ø©
Ġpo czÄħ
Ġf ut
ĠØ± ÙĨÚ¯
à®ªà¯įà®ªà®Ł à¯ģà®¤à¯įà®¤
Ġbl ir
ÅĻ en
ĠÖ ²
×§ ×¨
alt ung
Ġresp ons
Ġapp el
Ľà¸£à¸°à¸ ¡à¸²à¸ĵ
Ġdo cu
è§ Ĵ
ĠÙħÙĨ Ø§Ø³
Ġà¤¬à¤ļà¥įà¤ļ à¥ĭà¤Ĥ
Ïī ÏĥÎµ
áĥĶáĥ Ń
ĠÎµÏĢ ÎµÎ¹
ĠÕ° Õ¡Õµ
ĠolduÄŁ u
äºº çļĦ
ĠĈ Ĉ
ĠÐ¾ÑĤ Ð´ÐµÐ»
ĠrÃ© se
ĠÎ±Î½Î¬ ÏĢÏĦÏħ
cu lar
à¦¾à¦® à§ĩ
ĠÎķ ÎĿ
Ð¿Ð¾Ð» Ð¾Ð¶
s etz
ah a
Ľà¸£à¸°à¸ ªà¸ļà¸
ĠÏĥÏĦÎ¿Î¹ ÏĩÎµÎ¯Î±
åŃ ©
ĠÐ· ÐµÐ¼
Ġs etti
Ġz ou
Ġà¸ķ à¸´à¸Ķà¸
ÎĹÎ£ ÎĹ
ìĿ µ
ÑĭÐ² Ð°ÑĤÑĮ
à¦¾à¦¨ à§ĭà¦°
ģà¸¥à¸ ±à¸ļà¸
ÎĳÎ ĺ
Ġà®ħà®¤ à¯ĩ
Ġáĥ¨áĥĶáĥĵáĥĶáĥĴ áĥĲáĥĵ
Ġ3 2
è¡Į ä¸ļ
æŁ Ĳ
è¨ ¼
à¹ģà¸Ĥ à¹Īà¸ĩà¸Ĥà¸
ĠÑĤÐ°Ðº Ð¾Ð¹
Ġk r
Ġìłľ ê³µ
à¹Ģà¸ Ľà¹ĩà¸Ļà¹Ģà¸
ĠÐĹ Ð°Ðº
Ĺ à¹Īà¸²à¸Ļ
Ø Ł
Ùĳ Ø©
ĠØ§ÛĮ Ø¬Ø§Ø¯
Ġha i
ÑĢÐ° ÑĪ
Ġpo ja
à°¿à°¤ à°Ĥ
for der
va jÃŃ
Ġà¤ķ à¤¬
gu ar
Ġform ation
wi ÅĽcie
ĠV ia
Ġnum ero
Ġà®®à¯Ģ à®£à¯įà®Łà¯ģà®®à¯į
cyj nych
ĠP utas
Ġproces o
Ġà¤ī à¤®à¥įà¤®
×¤ ×Ķ
se g
ãĤ· ãĥ§
Ġáĥ¤ áĥĲáĥłáĥĴ
Ġà°¬ à°¾à°Ĺ
à°² à±įà°ª
Ġà¤µà¤¿à¤Ń à¤¾à¤Ĺ
Ġwszyst kim
Ġz ost
Ġà®ķà¯Ĭ à®Ł
ãģ¨ ãģį
Ġt ant
Ġal ue
Ġk er
Ø§Ø¨ Ø·
Ġà¦¨à¦¿à¦ ¹
Ġáĥ¡ áĥĺáĥľ
Ġà¤µà¥įà¤¯ à¤¾à¤ª
Ġà¦ıà¦ķ à¦ĩ
ĠS ol
èī² æĥħ
US H
Ġnuest ros
Ġdifer entes
ei gne
ch nik
Ġà®¨à®¿à®±à¯ģà®µ à®©
Ġu zy
ĠØ¯ ÙĪÙħ
in en
Ġtu a
Ġà¦¸ à¦«
ven tion
ĠrÃ©g ion
à¹Ģà¸£à¹ĩà¸ §
ĠsÃ©cur itÃ©
çķ Ļ
ìĿ´ ëĤĺ
àµĩ à´
ĠC E
âĢĮ à°µ
Î»Î¬ ÏĩÎ¹Ïĥ
à°¾à°¤ à±įà°®
Ġqual itÃł
ĠâĢĿ ãĢĤ
æĭ ©
Ñģ ÑĭÐ»
Ġret our
ĠÎ¸ Î¬
Ġart ÃŃcul
Ġà¦Ľ à§ĭà¦Ł
Î¬Î» Î¹
ÑĨÐ¸ ÐµÐ¹
Ġáĥĺáĥ¡ áĥĶáĥĹáĥĺ
Ġet di
à¸´ à¹Į
ĠÎł ÏģÏī
è´ µ
ÑģÑĤ ÑĥÐ¿
ĠI s
çĻ Ĥ
à¹Ħà¸¡à¹Īà¸ ¡à¸µ
ÎĳÎ ¦
ĠH ome
ĠÑģÑĤÐ¾ Ð¸ÑĤ
ÙħØ§ÙĨ ÛĮ
à¸Ńà¸° à¹Ħà¸£à¸
ĠÎĳÏħ Î³
asÄ± l
Ġ×ķ ×Ĺ
åĩ °
à« Ģ
çĶŁ æ´»
Ġc ÃŃ
ķ à¸Ńà¸Ļà¸
ĠÐ·Ð´ ÐµÑģÑĮ
áĥ¯ áĥĵáĥĿáĥĽ
Ġà°Ĩà°° à±ĭà°Ĺ
ŀà¸±à¸Ĵ à¸Ļà¸²à¸
ĠÐĴ Ð»Ð°Ð´
Ľ à¹īà¸Ńà¸ĩà¸
áº ³
Ġt arih
áĥĺáĥĿ áĥ¡
ia ÅĤy
ĠÑĤÐµÑĢ ÑĢÐ¸ÑĤ
ãģĹãģŁ ãģĦ
Ġk j
à°ķ à±Ĥ
te ll
à¥įà¤¯à¤® à¤Ĥà¤¤à¥įà¤°à¥Ģ
Ġd onne
L E
vo j
Ġg razie
ette mbre
à¯įà®ªà¯įà®ª à¯ģ
áĥĲáĥļ áĥĲ
f r
Ġà°İ à°ķà±įà°ķà°¡
à¤ľ à¥Ĥà¤¦
ãĥĩãĤ£ ãĥ¼ãĤ¹
Ġè ¨
ĠSt ar
Ġ×Ļ ×¦
áĥ£áĥĳ áĥļ
Ġà°ĩ à°¸à±įà°¤
Ġà¤¬ à¥Īà¤Ĥà¤ķ
å¢ Ĺ
Ġà®İ à®¸à¯į
ĠE le
ĠØªØŃ Øª
illa ge
ĠìĿ´ë ²
à¯įà®µ à¯ĩ
ĠP res
r al
Ġà¦Ń à¦¾à¦¬
à¤¦ à¤¾à¤¨
áĥĺáĥĵ áĥĺáĥ¡
à°ķà±įà°¤ à°¿
Ġà¤¶ à¤¿à¤µ
àµ Ĭ
gen s
Ġìĭľ ê°Ħ
Ġcom b
à§ĭ à¦¦
Æ° ng
Ġáĥ¨áĥĶáĥ¡áĥĲáĥĳáĥĲáĥĽáĥĺáĥ¡ áĥĲáĥĵ
Ġm niej
pe Äį
kl Ã¤r
æ¸ Ī
ta t
olo gie
Ġà¸Ļà¸²à¸ ¢à¸
alitÃ© s
à¥įà¤¯à¤¾à¤ļ à¥Ģ
Ġ×ķ ×ª
à¤° à¥ĭà¤Ĥ
Î´Î® ÏĢÎ¿ÏĦÎµ
Ġà°ķ à±įà°¯
ĠÎ» Ïį
Ġpi ano
Ġà®®à®¾à®¨ à®¿à®²
çĻ» åħ¥
55 5
Ð¸ÑĢÐ¾Ð²Ð°Ð½ Ð¸Ñı
Ġren cont
ĠÎ± ÏĢÎµ
me ye
Ġinter v
ĠÎºÏĮÏĥ Î¼Î¿
ÐµÑĪ ÑĮ
áĥĲáĥłáĥ ¨áĥĺ
ÙĩâĢĮ ÛĮ
à¹ģà¸ Ĺà¸ĩà¸ļà¸Ńà¸¥
ĠÎ¼ÎŃ ÏģÎ¿ÏĤ
æĮ ī
ĠÑģ Ñĭ
à¦¾à¦ª à¦¨
Ø§ÛĮ Ùĩ
à¸Ńà¸Ļà¸ ¸à¸
ĠÎµÎ¯ ÏĢÎµ
iss imo
Ð½ Ñİ
Ġà®µà®¾à®´ à¯įà®ķà¯įà®ķ
¡à¸ «à¸²à¸
ĠÎĳ Î¡
Ġus u
Ġinve ce
á Į
æĬķ èµĦ
Ġà¨ ľ
Ġcáº£ m
Ĥ à¸Ń
ĠÐ°Ð² ÑĤÐ¾ÑĢ
ĠÙĩ Ø¯
ion ales
Ĭà¸µà¸§à¸´à¸ ķ
ÐµÐ½ Ð½Ð¾Ðµ
Ħ à¹īà¸Ļà¸
ĠvÃ½ rob
Ġ×ĳ×ŀ× §
áĥ® áĥĺáĥ¡
ent en
Ð² Ð°ÑĤ
ãĥ¼ãĥ ©
an Ã©
es po
à¦® à§įà¦ª
Ġà¤Ĩà¤°à¥ĭ à¤ª
Ġqual che
Ġacc om
Ġà®ªà®¿à®± à®ķà¯ģ
Ġper c
Ġáĥ¢ áĥ§
y ba
á»į c
ĠØ§ÙĦÙħ Ùħ
áĥł áĥĺáĥĹ
Ġà¤īà¤®à¥įà¤® à¥Ģà¤¦
Ġele ment
ĠìĿ Į
ĠØª Ø¹Ø¯
à¦¸ à¦¿
Ġre go
uh an
æĿ ¯
ic ia
Ġà¦¯ à§ĩà¦¨
Ġà°İà°®à±įà°® à±Ĩà°²
Ġà°µ à°Ĥà°Łà°¿
le ction
ĠáĥĽ áĥĺáĥĹ
sch e
re chen
ca do
Ġà¦¬à§įà¦¯ à¦¾à¦Ĥ
Ġé ĵ
ĠáĥĹáĥĶáĥĳ áĥĶáĥłáĥķ
Ġc Ã¡i
è¶ħ ç¢°
Ġà¤² à¥ĩà¤ĸ
li ÄŁi
Ġne go
ge ment
ĠãĤŃ ãĥ£
Ġnem o
ĠáĥĹáĥ¥ áĥĽáĥĺáĥĹ
ma ch
ĠInform ationen
Ġha cia
Ġà¦¬à¦¿à¦· à§Łà§ĩ
Ġdiff ic
can ces
Ġà¸ĸ à¹īà¸²à¸
Ġada p
Ġå Ł
Ġd ÄĽt
à¶ ´
Î¼Î¿ Î¯
gra mm
ĠÎ· Î¼Îµ
ĠÙħÙĨ Ø·
×ķ×¦ ×Ķ
à¤¾à¤Ĥà¤ļ à¤¾
Ġà¤ª à¤£
ĠÐ»ÑĥÑĩÑĪ Ðµ
ĠCom m
ĠÎµ Î¹ÎºÏĮ
à®¿à®©à¯įà®± à®©
Ġdi qq
ÎŁÎ¥ ÎĽ
ĠÑģÐ²Ð¾ ÐµÐ¹
áĥ¢áĥĿáĥĽ áĥĳ
æĮģ ãģ¡
Ġà¸¡ à¸´à¸
ĠÎºÏħÎ²ÎŃÏģÎ½Î· ÏĥÎ·
è® Ń
ĠÐ°Ð² ÑĤ
ber apa
Ķ ëĭ¤
à¹Īà¸Ļà¹Ģà¸ ģà¸¡à¸
Ïī ÏĦÎµÏģ
Ġà¦ķà§ĭ à¦Łà¦¿
Ð°ÐµÑĤ Ðµ
ĠAn t
à¹ĥà¸ Ķ
ĠÎ¹ Î´Î¹Î±Î¯
Ġà¦¬à¦² à§ĩà¦Ľà§ĩà¦¨
Ġà°¨ à°¾à°Ĺ
¤ åĩ°
Ġé ļ
çļĦ æĺ¯
Ġdoty czÄħ
à¹Ħà¸ «à¸¡
ĠÐ½ÐµÐº Ð¾ÑĤÐ¾ÑĢ
ĠÙħÙĨ Ø°
ve k
¸à¸ĩà¹Ģà¸Ĺà¸ ŀà¸
ĠÐ½Ðµ Ñģ
Ľà¸£à¸°à¹Ģà¸Ĺà¸¨ à¹Ħà¸Ĺà¸¢
ĠV on
á» ¹
ĠáĥĻ áĥĲáĥª
b nÃŃ
ĠÐ³Ð¾ÑģÑĥÐ´Ð°ÑĢ ÑģÑĤÐ²ÐµÐ½
f el
ĠC i
Ġst rÃ¡n
åĤ Ļ
à¥įâĢį à¤¯
×Ľ ×ª
C H
Ġà°ļà±Ĩ à°¯à±įà°¯
ro c
áĥĿáĥĳ áĥĹ
Ġsie bie
¡ à¦¼
Ġà°¶ à°¿à°µ
ze llik
Ġà¤®à¥Į à¤¤
© ´
ĠáĥĲáĥĽáĥĳ áĥĿáĥĳáĥ¡
Ġà°µ à±Ģà°°
Ġà°¤à±Ĭ à°²
enn om
rzÄħ d
Ġà¤ľà¤¿à¤¸ à¤®à¥ĩà¤Ĥ
Ġà®Ĩ à®£à¯įà®Łà¯ģ
zi denti
Ä° D
a di
Ġocc asion
ĠáĥĴáĥĲáĥĽ áĥĲáĥłáĥ¯
lau b
Ã¤hr end
ĠØ£ Øµ
et r
Ġà¤Ľ à¤¾à¤¤à¥įà¤°
va te
Ġáĥł áĥĲáĥĹáĥĲ
Ġå¤§ é¦Ļèķī
áĢ Ķ
Ġà°ķ à°Łà±įà°Ł
×Ļ×ª ×Ļ
Ġ8 0
Ġè »
Ġmo re
Õ¸Õ ¬
ĠmÃ¼ xtÉĻlif
Ġs enti
Ġda g
ĠØŃØ¶ ÙĪØ±
ĠHom me
Ġv ue
ģà¸²à¸ ¢
Ġcham bre
åŁİ å¸Ĥ
ë§ Ŀ
à¤¾à¤¤ à¥Ģ
Î³Î³ÎµÎ» Î¼Î±
×ĳ×ķ×ĵ ×Ķ
ĠÎ´ ÏģÏĮ
w em
tac to
æī ¾
è¯ ¾
ÑĥÐ¶ Ð´
Ã© ration
ĠÏĢÏģÎ¿Ïĥ ÏĢÎ¬
Ġ áº£nh
×ĵ ×ķ×ª
ĠÎ´Î¹Î¬ ÏģÎºÎµÎ¹Î±
Ð¸ ÑĨÐ¸Ð°Ð»ÑĮ
ĠáĥĿáĥ¥ áĥ¢áĥĿáĥĽáĥĳ
Ġor d
à¹Ĥà¸ Ĭà¸
Î¸ Î¬
ä½ľ ä¸º
ĠÐ³Ð¾ÑĢÐ¾Ð´ Ð°
Ġsty le
ãģĻãģĻ ãĤģ
Ĭà¸²à¸ ¢
ÏĥÏĦÎµ Î¯
é¡ į
ĠÑĢÐµÐ³ Ð¸Ð¾Ð½
ka ce
Ķ à¸´à¸Ļà¸
Î» Î¹Î¬
Ġà¦ļ à§Į
à±įà° Ń
ç½ĳ _
æĸ° éĹ»
Ġ3 6
åĩº æĿ¥
à¸£à¸¹à¸ Ľà¸
ĠÐºÐ²Ð°ÑĢÑĤ Ð¸ÑĢ
áĥł áĥĺáĥĵáĥĲáĥľ
Ġà®®à®¿à®ķ à®µà¯ģà®®à¯į
Ġà¸ŀà¸Ļà¸±à¸Ļà¸ ļà¸Ńà¸¥
ĠÑį Ð½
ªà¸ ±à¸įà¸
Ġ. -
Ġle y
Ġtr zy
ãĥ¼ãĥ Ĳ
ĠÐ² Ð¾ÑģÐ¿
ĠØ´ ÙĪØ±
Ġà¦¨à¦¿ à¦°à§įà¦®
ĠR ic
[...]
