{
  "version": "1.0",
  "truncation": null,
  "padding": null,
  "added_tokens": [
    {
      "id": 13590,
      "content": "<s>",
      "single_word": false,
      "lstrip": false,
      "rstrip": false,
      "normalized": false,
      "special": true
    },
    {
      "id": 13591,
      "content": "</s>",
      "single_word": false,
      "lstrip": false,
      "rstrip": false,
      "normalized": false,
      "special": true
    },
    {
      "id": 13592,
      "content": "<unk>",
      "single_word": false,
      "lstrip": false,
      "rstrip": false,
      "normalized": false,
      "special": true
    },
    {
      "id": 13593,
      "content": "<pad>",
      "single_word": false,
      "lstrip": false,
      "rstrip": false,
      "normalized": false,
      "special": true
    }
  ],
  "normalizer": null,
  "pre_tokenizer": {
    "type": "Sequence",
    "pretokenizers": [
      {
        "type": "Whitespace"
      },
      {
        "type": "ByteLevel",
        "add_prefix_space": true,
        "trim_offsets": true,
        "use_regex": false
      }
    ]
  },
  "post_processor": null,
  "decoder": null,
  "model": {
    "type": "BPE",
    "dropout": null,
    "unk_token": null,
    "continuing_subword_prefix": null,
    "end_of_word_suffix": null,
    "fuse_unk": false,
    "byte_fallback": false,
    "ignore_merges": false,
    "vocab": {
      "§": 0,
      "á": 1,
      "Ğ": 2,
      "\\": 3,
      "³": 4,
      "Ê": 5,
      "Đ": 6,
      "$": 7,
      "¢": 8,
      "ï": 9,
      "Ú": 10,
      "8": 11,
      "9": 12,
      "[": 13,
      "đ": 14,
      "ð": 15,
      "n": 16,
      "æ": 17,
      "!": 18,
      "}": 19,
      "Í": 20,
      "ĺ": 21,
      "¿": 22,
      "ā": 23,
      "õ": 24,
      "ć": 25,
      "¯": 26,
      "ê": 27,
      "2": 28,
      "m": 29,
      "w": 30,
      "µ": 31,
      "-": 32,
      "þ": 33,
      "Û": 34,
      "ĥ": 35,
      "ă": 36,
      "/": 37,
      "ĭ": 38,
      "û": 39,
      "ß": 40,
      "Ć": 41,
      "Ļ": 42,
      "²": 43,
      "Î": 44,
      "ŀ": 45,
      "«": 46,
      "ĳ": 47,
      "Q": 48,
      "Y": 49,
      "1": 50,
      "]": 51,
      "Ķ": 52,
      "ď": 53,
      "´": 54,
      "ò": 55,
      "4": 56,
      "į": 57,
      "u": 58,
      "ã": 59,
      "'": 60,
      "C": 61,
      "r": 62,
      "ë": 63,
      "Ì": 64,
      "Ĳ": 65,
      "V": 66,
      "ĉ": 67,
      "ğ": 68,
      "o": 69,
      "p": 70,
      "Ĺ": 71,
      "Ī": 72,
      "Ë": 73,
      "¸": 74,
      "ĸ": 75,
      ">": 76,
      "ę": 77,
      "5": 78,
      "i": 79,
      "Ĭ": 80,
      "N": 81,
      "s": 82,
      "Ĉ": 83,
      ",": 84,
      "l": 85,
      "G": 86,
      "j": 87,
      "Ē": 88,
      "Ĥ": 89,
      "ģ": 90,
      "À": 91,
      "¤": 92,
      "*": 93,
      "Þ": 94,
      "(": 95,
      "ÿ": 96,
      "E": 97,
      "ç": 98,
      "B": 99,
      "İ": 100,
      "ĕ": 101,
      "å": 102,
      "h": 103,
      "Ą": 104,
      "d": 105,
      "Į": 106,
      "Ç": 107,
      "È": 108,
      "Ð": 109,
      "|": 110,
      "î": 111,
      "Ď": 112,
      "#": 113,
      "Ĕ": 114,
      "Ħ": 115,
      "É": 116,
      "6": 117,
      "ö": 118,
      "Ł": 119,
      "M": 120,
      "K": 121,
      "ú": 122,
      "à": 123,
      "Ŀ": 124,
      ";": 125,
      "H": 126,
      "\"": 127,
      "e": 128,
      "A": 129,
      "`": 130,
      "S": 131,
      "ä": 132,
      "ó": 133,
      "Ù": 134,
      "R": 135,
      "Ö": 136,
      "t": 137,
      "¶": 138,
      "a": 139,
      "W": 140,
      "ì": 141,
      "<": 142,
      "¡": 143,
      "Ø": 144,
      "q": 145,
      "Ě": 146,
      "Õ": 147,
      "ķ": 148,
      "0": 149,
      "÷": 150,
      "%": 151,
      "Á": 152,
      "Ā": 153,
      "»": 154,
      "ľ": 155,
      "ù": 156,
      "D": 157,
      "k": 158,
      "Ċ": 159,
      "±": 160,
      "Ô": 161,
      "x": 162,
      "è": 163,
      "=": 164,
      "Ġ": 165,
      "^": 166,
      "@": 167,
      "ý": 168,
      "L": 169,
      "Ă": 170,
      "ª": 171,
      "I": 172,
      ".": 173,
      "ł": 174,
      "Â": 175,
      "Ĵ": 176,
      "y": 177,
      "c": 178,
      "ą": 179,
      "Ü": 180,
      "·": 181,
      "ñ": 182,
      "F": 183,
      "ø": 184,
      "ě": 185,
      "ċ": 186,
      "ė": 187,
      "Ĝ": 188,
      "_": 189,
      "×": 190,
      "Ľ": 191,
      "¼": 192,
      "Ĩ": 193,
      "®": 194,
      "+": 195,
      "ĝ": 196,
      "{": 197,
      "Ò": 198,
      "©": 199,
      "U": 200,
      "Ä": 201,
      "3": 202,
      "z": 203,
      "Ã": 204,
      "č": 205,
      "J": 206,
      ")": 207,
      "Ñ": 208,
      "P": 209,
      "¦": 210,
      "Ń": 211,
      "ü": 212,
      "?": 213,
      "b": 214,
      "Ý": 215,
      "~": 216,
      "Ę": 217,
      "¾": 218,
      "Ģ": 219,
      "Ï": 220,
      "í": 221,
      "¬": 222,
      "O": 223,
      "Å": 224,
      "¨": 225,
      "Z": 226,
      "é": 227,
      "£": 228,
      "ħ": 229,
      "ļ": 230,
      "°": 231,
      "g": 232,
      ":": 233,
      "Ė": 234,
      "ô": 235,
      "ġ": 236,
      "ĵ": 237,
      "Č": 238,
      "7": 239,
      "º": 240,
      "&": 241,
      "Æ": 242,
      "½": 243,
      "¹": 244,
      "v": 245,
      "â": 246,
      "Ó": 247,
      "T": 248,
      "f": 249,
      "X": 250,
      "ē": 251,
      "ĩ": 252,
      "ı": 253,
      "ī": 254,
      "¥": 255,
      "áĢ": 256,
      "áĥ": 257,
      "Ġà": 258,
      "ĠÐ": 259,
      "àª": 260,
      "à¸": 261,
      "Ð°": 262,
      "Ġ.": 263,
      "Ġ,": 264,
      "Ø§": 265,
      "à´": 266,
      "à®": 267,
      "an": 268,
      "à¦": 269,
      "à°": 270,
      "en": 271,
      "er": 272,
      "à¤": 273,
      "Ð¾": 274,
      "Ð¸": 275,
      "in": 276,
      "Ġd": 277,
      "Ġs": 278,
      "ĠØ": 279,
      "Ġa": 280,
      "Ġt": 281,
      "Ðµ": 282,
      "ar": 283,
      "ÑĤ": 284,
      "Ġp": 285,
      "Ð½": 286,
      "Ġm": 287,
      "à«": 288,
      "ÑĢ": 289,
      "ĠÙ": 290,
      "à¯": 291,
      "es": 292,
      "Ġàª": 293,
      "on": 294,
      "àµ": 295,
      "Ġn": 296,
      "Ø§Ù": 297,
      "Ġk": 298,
      "at": 299,
      "Ñģ": 300,
      "al": 301,
      "or": 302,
      "Ø±": 303,
      "el": 304,
      "Ġc": 305,
      "ÛĮ": 306,
      "âĢ": 307,
      "Ġ-": 308,
      "Ġb": 309,
      "is": 310,
      "áĥĲ": 311,
      "ĠÎ": 312,
      "Ġl": 313,
      "et": 314,
      "Ð»": 315,
      "à±": 316,
      "as": 317,
      "Ġ1": 318,
      "Ġáĥ": 319,
      "à§": 320,
      "Ġ2": 321,
      "it": 322,
      "Ġh": 323,
      "Ġà¤": 324,
      "Ġ×": 325,
      "Ġv": 326,
      "à¥": 327,
      "ãģ": 328,
      "il": 329,
      "Ġo": 330,
      "Ð°Ð": 331,
      "áĥĲáĥ": 332,
      "Ġ:": 333,
      "ĠâĢ": 334,
      "áĥĺ": 335,
      "un": 336,
      "ÙĪ": 337,
      "à¹": 338,
      "à¯į": 339,
      "Ø§Ø": 340,
      "Ð¾Ð": 341,
      "Ġà¦": 342,
      "áĢ¹": 343,
      "àµį": 344,
      "Ñĥ": 345,
      "ĠáĢ": 346,
      "Î±": 347,
      "ÙĨ": 348,
      "àª¾": 349,
      "re": 350,
      "Ġf": 351,
      "ĠS": 352,
      "am": 353,
      "ÏĦ": 354,
      "om": 355,
      "Ġe": 356,
      "Ø§ÙĦ": 357,
      "ĠA": 358,
      "Î¿": 359,
      "áĥĶ": 360,
      "os": 361,
      "Ðº": 362,
      "Ġà®": 363,
      "áĢ¹áĢ": 364,
      "ÙĦ": 365,
      "Ùħ": 366,
      "Î¹": 367,
      "ÙĬ": 368,
      "Ġà°": 369,
      "ad": 370,
      "Ġà´": 371,
      "ĠM": 372,
      "ak": 373,
      "áĢ¬": 374,
      "Ġi": 375,
      "àµįà´": 376,
      "Ġg": 377,
      "Øª": 378,
      "áĥĶáĥ": 379,
      "Ġde": 380,
      "ur": 381,
      "ol": 382,
      "Ġ(": 383,
      "ĠP": 384,
      "àª¾àª": 385,
      "Ø¯": 386,
      "Ú©": 387,
      "ti": 388,
      "Ġw": 389,
      "á»": 390,
      "ch": 391,
      "à¯įà®": 392,
      "Ð´": 393,
      "Ġ)": 394,
      "em": 395,
      "Ñĸ": 396,
      "ãĢ": 397,
      "áĥĺáĥ": 398,
      "Ã¡": 399,
      "us": 400,
      "ed": 401,
      "Îµ": 402,
      "Î½": 403,
      "áĢº": 404,
      "áĢ¸": 405,
      "Ġ20": 406,
      "Ñı": 407,
      "ĠØ§ÙĦ": 408,
      "ĠC": 409,
      "ik": 410,
      "ĠB": 411,
      "ĠT": 412,
      "Ã©": 413,
      "Ð²": 414,
      "à«ĩ": 415,
      "à¦¾": 416,
      "ĠÙħ": 417,
      "áĢ¯": 418,
      "Ã«": 419,
      "¿½": 420,
      "ul": 421,
      "ï¿½": 422,
      "ro": 423,
      "Ùĩ": 424,
      "×Ļ": 425,
      "Ġ0": 426,
      "ent": 427,
      "id": 428,
      "áĢŃ": 429,
      "ãĤ": 430,
      "ĠD": 431,
      "ĠÐ¿": 432,
      "×ķ": 433,
      "ing": 434,
      "ÉĻ": 435,
      "ut": 436,
      "Ð¼": 437,
      "Ġj": 438,
      "à¤¾": 439,
      "ir": 440,
      "ie": 441,
      "áĢĢ": 442,
      "ãĥ": 443,
      "ag": 444,
      "Ïģ": 445,
      "ĠÑģ": 446,
      "Ä±": 447,
      "Ïĥ": 448,
      "Ġy": 449,
      "ic": 450,
      "Ġin": 451,
      "à±į": 452,
      "Ġ/": 453,
      "ĠÃ": 454,
      "im": 455,
      "ĠÐ½": 456,
      "Ġr": 457,
      "ĠÚ©": 458,
      "ot": 459,
      "Ġì": 460,
      "±áĢ": 461,
      "ĠÑ": 462,
      "ia": 463,
      "à§ĩ": 464,
      "ĠK": 465,
      "áĢĦ": 466,
      "áĥĿ": 467,
      "ĠãĢ": 468,
      "à´¿": 469,
      "Ġ3": 470,
      "à¦¾à¦": 471,
      "ĠE": 472,
      "ang": 473,
      "áģ": 474,
      "ĠØ¨": 475,
      "à¯ģ": 476,
      "le": 477,
      "à«į": 478,
      "×ķ×": 479,
      "à«įàª": 480,
      "Ø³": 481,
      "Ã¤": 482,
      "ĠL": 483,
      "à«Ģ": 484,
      "ĠN": 485,
      "Ġ\"": 486,
      "te": 487,
      "à®¿": 488,
      "ä¸": 489,
      "áº": 490,
      "ÏĢ": 491,
      "ĠÂ": 492,
      "áĢ¸áĢ": 493,
      "ĠH": 494,
      "à¸²": 495,
      "um": 496,
      "ig": 497,
      "ĠI": 498,
      "Ð°Ñ": 499,
      "Ð½Ð¸": 500,
      "Ø¨": 501,
      "à±įà°": 502,
      "and": 503,
      "×Ļ×": 504,
      "Ġ201": 505,
      "Ñĭ": 506,
      "ÃŃ": 507,
      "ra": 508,
      "ek": 509,
      "ĠÐ²": 510,
      "à°¿": 511,
      "Ġå": 512,
      "ÏĤ": 513,
      "ta": 514,
      "he": 515,
      "Ûģ": 516,
      "Î·": 517,
      "Ïħ": 518,
      "áĥĿáĥ": 519,
      "ï¼": 520,
      "à®¿à®": 521,
      "ĠÙĪ": 522,
      "à¸Ļ": 523,
      "Ġq": 524,
      "ÛĴ": 525,
      "ï¿½ï¿½": 526,
      "à´¿à´": 527,
      "ĠR": 528,
      "Ø§ÙĨ": 529,
      "à§į": 530,
      "ap": 531,
      "à§įà¦": 532,
      "Ġz": 533,
      "Ð°ÑĢ": 534,
      "à°¾": 535,
      "..": 536,
      "ah": 537,
      "ÑģÑĤ": 538,
      "à¤¾à¤": 539,
      "Ø©": 540,
      "Ð°ÑĤ": 541,
      "àª¨": 542,
      "ĠÐ´": 543,
      "Ø¹": 544,
      "ĠF": 545,
      "à±ģ": 546,
      "ĠG": 547,
      "ay": 548,
      "Ġ'": 549,
      "Ð³": 550,
      "ab": 551,
      "Ð°Ð½": 552,
      "Ã³": 553,
      "áĢĲ": 554,
      "áĢŃáĢ¯": 555,
      "ÑĮ": 556,
      "à¦¿": 557,
      "à¥ĩ": 558,
      "à¸²à¸": 559,
      "Ð·": 560,
      "Ġ5": 561,
      "àµģ": 562,
      "ac": 563,
      "od": 564,
      "à«ĭ": 565,
      "Ġ4": 566,
      "Ġï¼": 567,
      "Ġen": 568,
      "ĠÐº": 569,
      "äº": 570,
      "àª°": 571,
      "à¯ģà®": 572,
      "Ã¼": 573,
      "áĢķ": 574,
      "ĠV": 575,
      "Î»": 576,
      "Ġse": 577,
      "Äģ": 578,
      "ĠÏĦ": 579,
      "ĠO": 580,
      "à°¾à°": 581,
      "Ġun": 582,
      "ion": 583,
      "à¥į": 584,
      "Ġcom": 585,
      "ok": 586,
      "st": 587,
      "áĢ¼": 588,
      "áĢĻ": 589,
      "à¥įà¤": 590,
      "Ñĩ": 591,
      "à´¾": 592,
      "Îº": 593,
      "ĠÐ¼": 594,
      "à¹Ī": 595,
      "ÙĤ": 596,
      "00": 597,
      "ĠØª": 598,
      "ov": 599,
      "ĠÐ¸": 600,
      "Ø§Ø±": 601,
      "à¸Ń": 602,
      "à¦°": 603,
      "Î¯": 604,
      "Ġà¸": 605,
      "uk": 606,
      "Ð±": 607,
      "eg": 608,
      "Ã¶": 609,
      "ud": 610,
      "Ġna": 611,
      "àµģà´": 612,
      "áĤ": 613,
      "ĠÑĤ": 614,
      "à®¾": 615,
      "ĠÐ·": 616,
      "Ð¾Ð²": 617,
      "ĠÐ¾": 618,
      "Î¼": 619,
      "Ġë": 620,
      "Ð¿": 621,
      "Ġal": 622,
      "iv": 623,
      "à´¾à´": 624,
      "Ġla": 625,
      "ter": 626,
      "Ġæ": 627,
      "à¸£": 628,
      "ĠJ": 629,
      "£áĥ": 630,
      "iz": 631,
      "áĢĶ": 632,
      "à°¿à°": 633,
      "áĢĦáĢ¹áĢ": 634,
      "áĢ±áĢ": 635,
      "ĠÐ±": 636,
      "Ùģ": 637,
      "Ð°Ð»": 638,
      "ÐµÐ½": 639,
      "áĥĺáĥ¡": 640,
      "Ġqu": 641,
      "áĥĶáĥĳ": 642,
      "ĠØ¯": 643,
      "ÑĨ": 644,
      "Ø´": 645,
      "à®¾à®": 646,
      "ìĿ": 647,
      "Ġáģ": 648,
      "est": 649,
      "ng": 650,
      "ÏĮ": 651,
      "ÑĪ": 652,
      "Ġ|": 653,
      "á»į": 654,
      "ĠØ§Ø": 655,
      "ĠW": 656,
      "Ð¾ÑĢ": 657,
      "Ġre": 658,
      "Ĥà°": 659,
      "Î¬": 660,
      "Ġ?": 661,
      "à¥Ģ": 662,
      "ĠØ³": 663,
      "ec": 664,
      "Ģà¸": 665,
      "áĢ½": 666,
      "og": 667,
      "op": 668,
      "à¹ī": 669,
      "ri": 670,
      "ist": 671,
      "×Ķ": 672,
      "Î¿Ïħ": 673,
      "end": 674,
      "ĠÄ": 675,
      "la": 676,
      "ØŃ": 677,
      "áĢ·": 678,
      "ÐµÑĢ": 679,
      "ĠÐ¿ÑĢ": 680,
      "à¦¿à¦": 681,
      "Ġu": 682,
      "×¨": 683,
      "åı": 684,
      "ĠâĢĻ": 685,
      "ĠÐ½Ð°": 686,
      "à¤¿": 687,
      "ers": 688,
      "łáĥ": 689,
      "áĢ²": 690,
      "Ġà¤ķ": 691,
      "à¤°": 692,
      "à¸±": 693,
      "Ã¥": 694,
      "Ġdi": 695,
      "Ø¬": 696,
      "ĠU": 697,
      "eb": 698,
      "àª¿": 699,
      "Ú¯": 700,
      "Ġ6": 701,
      "Ġsa": 702,
      "ÅŁ": 703,
      "Ð°Ð²": 704,
      "Ġto": 705,
      "ĠÙĨ": 706,
      "Ð»Ð¸": 707,
      "Ø§ÛĮ": 708,
      "Ġth": 709,
      "à¸ĩ": 710,
      "×ľ": 711,
      "Ġ×Ķ": 712,
      "li": 713,
      "ci": 714,
      "ai": 715,
      "à«ģ": 716,
      "à¸µ": 717,
      "áĢħ": 718,
      "Ġï¼Į": 719,
      "à«ĩàª": 720,
      "Ġpr": 721,
      "à±ģà°": 722,
      "à¸ģ": 723,
      "Ġon": 724,
      "Ùĥ": 725,
      "Ġpro": 726,
      "Ġka": 727,
      "Ñħ": 728,
      "Ð°Ð¼": 729,
      "ara": 730,
      "ĠÙģ": 731,
      "Å¡": 732,
      "ĠÑĢ": 733,
      "à§ĩà¦": 734,
      "Ġel": 735,
      "Ġat": 736,
      "Ġcon": 737,
      "Úº": 738,
      "à¯įà®ķ": 739,
      "Ġ!": 740,
      "ĠØĮ": 741,
      "ĠÙĦ": 742,
      "Ġan": 743,
      "ĠáĥĽ": 744,
      "Ġle": 745,
      "Ð¾ÑĤ": 746,
      "ĠâĢľ": 747,
      "Ø²": 748,
      "Ġ...": 749,
      "à¹Ģà¸": 750,
      "áĢĽ": 751,
      "å®": 752,
      "ĠÏĢ": 753,
      "ĠØ¹": 754,
      "av": 755,
      "Ø§Øª": 756,
      "ĠÐ°": 757,
      "Ġst": 758,
      "àªĤ": 759,
      "áĢ®": 760,
      "ou": 761,
      "Ð¹": 762,
      "àª¤": 763,
      "Ø§Ùħ": 764,
      "Ġ8": 765,
      "ow": 766,
      "Ġ7": 767,
      "Ð¾Ð´": 768,
      "Ġç": 769,
      "áĥķ": 770,
      "se": 771,
      "à¤¿à¤": 772,
      "ÐµÑĤ": 773,
      "æľ": 774,
      "az": 775,
      "Ġthe": 776,
      "Ġ;": 777,
      "ĠÎº": 778,
      "à®°": 779,
      "Ġàªķ": 780,
      "ŀ×": 781,
      "Ð¸ÑĤ": 782,
      "Ġ9": 783,
      "à¸¡": 784,
      "eng": 785,
      "áĢĬ": 786,
      "Ġch": 787,
      "Ãł": 788,
      "ĠÏĥ": 789,
      "Ïī": 790,
      "de": 791,
      "ÎŃ": 792,
      "Ê»": 793,
      "àªķ": 794,
      "ĠÐ³": 795,
      "ob": 796,
      "Ð°Ð´": 797,
      "Ð¾Ð½": 798,
      "à¯Ī": 799,
      "ub": 800,
      "àª®": 801,
      "lar": 802,
      "ĠÎ±": 803,
      "áĥ£áĥ": 804,
      "àµĨ": 805,
      "ib": 806,
      "Ġet": 807,
      "àªµ": 808,
      "ant": 809,
      "Ġis": 810,
      "Ġàªª": 811,
      "aj": 812,
      "à¤Ĥ": 813,
      "Ġâ": 814,
      "ļĦ": 815,
      "Ð¾Ð»": 816,
      "áĢ±": 817,
      "Ġ10": 818,
      "ĠâĢĵ": 819,
      "up": 820,
      "ĠØ±": 821,
      "à®¤": 822,
      "áĢļ": 823,
      "Ġes": 824,
      "áº¹": 825,
      "ĠâĢĿ": 826,
      "Ġfor": 827,
      "à¯įà®¤": 828,
      "ne": 829,
      "wa": 830,
      "à¸¥": 831,
      "àµįâĢ": 832,
      "Äĥ": 833,
      "Ð°Ðº": 834,
      "åĪ": 835,
      "Ð¾Ð¼": 836,
      "áĢŀ": 837,
      "áĢľ": 838,
      "Ġ19": 839,
      "å¤": 840,
      "Î±Î¹": 841,
      "Ã§": 842,
      "ĠáĢ¡": 843,
      "çļĦ": 844,
      "Ġque": 845,
      "Î®": 846,
      "Î³": 847,
      "ine": 848,
      "ip": 849,
      "Ġê": 850,
      "åħ": 851,
      "ana": 852,
      "Ġof": 853,
      "ãĢĲ": 854,
      "×ª": 855,
      "ez": 856,
      "à¸Ļà¸": 857,
      "ga": 858,
      "¨àµįà´": 859,
      "Ġtr": 860,
      "oc": 861,
      "iy": 862,
      "Øµ": 863,
      "da": 864,
      "ĠÛģ": 865,
      "ĠãĢĳ": 866,
      "íķ": 867,
      "Ġàª¸": 868,
      "à¥ĭ": 869,
      "Ġáĥ¡": 870,
      "ĠØ¬": 871,
      "Ð°Ñģ": 872,
      "ĠÙ¾": 873,
      "Ġma": 874,
      "ep": 875,
      "áĥĲáĥľ": 876,
      "Ïĩ": 877,
      "à´¤": 878,
      "áĢ¬áĢ¸áĢ": 879,
      "ĠãĢĤ": 880,
      "ari": 881,
      "Ð¸Ð½": 882,
      "à¸Ķ": 883,
      "ĠÎµ": 884,
      "ost": 885,
      "Ġar": 886,
      "Ġand": 887,
      "Ġáĥĵ": 888,
      "à¸´": 889,
      "Ġper": 890,
      "Ġ×Ķ×": 891,
      "à¦¨": 892,
      "Ġ%": 893,
      "ev": 894,
      "àµįâĢį": 895,
      "à°¨": 896,
      "ĠãĢģ": 897,
      "ä»": 898,
      "qu": 899,
      "art": 900,
      "Ø®": 901,
      "Ä±n": 902,
      "áĢĦáĢº": 903,
      "à¸§": 904,
      "ind": 905,
      "ÐµÐ´": 906,
      "áĢģ": 907,
      "áĥ¡": 908,
      "áĢ«": 909,
      "Ø·": 910,
      "ĠÎ¼": 911,
      "áĥł": 912,
      "Ġer": 913,
      "ort": 914,
      "ĠáĥĲáĥ": 915,
      "Ð½Ð¾": 916,
      "ell": 917,
      "ess": 918,
      "Ġme": 919,
      "Ġsi": 920,
      "Ð¶": 921,
      "à¤¨": 922,
      "àª¾àªĤ": 923,
      "are": 924,
      "ĠØ§Ù": 925,
      "Ġàª®": 926,
      "Ġ×ľ": 927,
      "áĢ¶": 928,
      "Ġè": 929,
      "Ġ12": 930,
      "à°Ĥà°": 931,
      "Ġng": 932,
      "ĠÑĥ": 933,
      "ÑģÐº": 934,
      "à¸¢": 935,
      "ung": 936,
      "ĠØ´": 937,
      "ķàµįà´": 938,
      "ĠÄĳ": 939,
      "à±ĩ": 940,
      "ho": 941,
      "sk": 942,
      "Ġ×ĳ": 943,
      "à®©": 944,
      "Ġà¹": 945,
      "áĢ»": 946,
      "Î¹Îº": 947,
      "ĠãĢĳãĢĲ": 948,
      "àª¾àª°": 949,
      "ÐµÐ»": 950,
      "Ġdo": 951,
      "Ð¾Ð³": 952,
      "ÛĮÚº": 953,
      "ill": 954,
      "à°°": 955,
      "io": 956,
      "Ä«": 957,
      "ÙĪØ±": 958,
      "ÒĽ": 959,
      "ï¿½ï¿½ï¿½ï¿½": 960,
      "áĢ°": 961,
      "ere": 962,
      "à±ĭ": 963,
      "ç½": 964,
      "ya": 965,
      "Ú¾": 966,
      "Ġda": 967,
      "Ïį": 968,
      "Ġ11": 969,
      "Ġ×Ĳ": 970,
      "ĠØ£": 971,
      "®à¯į": 972,
      "ug": 973,
      "Ñİ": 974,
      "à®Ł": 975,
      "ja": 976,
      "à¸ļ": 977,
      "áĢĢáĢ¹áĢ": 978,
      "à´°": 979,
      "sa": 980,
      "Ġam": 981,
      "ĠIn": 982,
      "Ġho": 983,
      "ha": 984,
      "à¦¾à¦°": 985,
      "ä¹": 986,
      "ka": 987,
      "ada": 988,
      "ce": 989,
      "à§ģ": 990,
      "ÎµÎ¹": 991,
      "Ùī": 992,
      "×ĳ": 993,
      "Ò³": 994,
      "Ġni": 995,
      "åĽ": 996,
      "Ġ=": 997,
      "ÑĬ": 998,
      "×Ĳ": 999,
      "Ġï¿½": 1000,
      "Ġà¥": 1001,
      "æĹ": 1002,
      "Ð°Ð·": 1003,
      "ãģ®": 1004,
      "Ġor": 1005,
      "tr": 1006,
      "ĠÐ¡": 1007,
      "ĠÙĩ": 1008,
      "Äĵ": 1009,
      "Ø§Ø¯": 1010,
      "Î´": 1011,
      "Ġas": 1012,
      "20": 1013,
      "Å¾": 1014,
      "ĠÂ»": 1015,
      "æĸ": 1016,
      "Ġà¤¸": 1017,
      "Ġte": 1018,
      "Ġti": 1019,
      "Ġáģĭ": 1020,
      "Ð¸Ð»": 1021,
      "ç½ĳ": 1022,
      "à¤¤": 1023,
      "à«ĭàª": 1024,
      "Ġà®ª": 1025,
      "à¤ķ": 1026,
      "ëĭ": 1027,
      "áĥļ": 1028,
      "ate": 1029,
      "ong": 1030,
      "Ð¸ÑĢ": 1031,
      "à§Ł": 1032,
      "Ġsp": 1033,
      "ĠáĥĴ": 1034,
      "Ġya": 1035,
      "tt": 1036,
      "na": 1037,
      "ÐµÐº": 1038,
      "Ã½": 1039,
      "Ġàªľ": 1040,
      "Ġà¥¤": 1041,
      "Ã©s": 1042,
      "âĢĮ": 1043,
      "áĢĦáĢ¹áĢ¸": 1044,
      "Ġno": 1045,
      "ĠØ®": 1046,
      "ĠØ§ÙĦÙħ": 1047,
      "å½": 1048,
      "ĠØŃ": 1049,
      "Ġ#": 1050,
      "Ġàª¤": 1051,
      "à®³": 1052,
      "×ķ×ª": 1053,
      "à«įàª¯": 1054,
      "ni": 1055,
      "Î¹Î±": 1056,
      "ht": 1057,
      "ma": 1058,
      "Ġil": 1059,
      "Ãº": 1060,
      "×Ļ×Ŀ": 1061,
      "ä½": 1062,
      "æĪ": 1063,
      "Ġà¦ķ": 1064,
      "ast": 1065,
      "all": 1066,
      "di": 1067,
      "Ġ×©": 1068,
      "ele": 1069,
      "ÐµÐ¼": 1070,
      "åľ": 1071,
      "Ã¸": 1072,
      "ens": 1073,
      "ĠY": 1074,
      "ķàµįà´ķ": 1075,
      "ÏĨ": 1076,
      "ìŀ": 1077,
      "ĠÛ": 1078,
      "Ġx": 1079,
      "à°²": 1080,
      "Ġ15": 1081,
      "ĠÐŁ": 1082,
      "¨àµįà´¨": 1083,
      "ation": 1084,
      "Ġé": 1085,
      "ĠâĢĺ": 1086,
      "áĢ¡": 1087,
      "Ġba": 1088,
      "ĠàªĨ": 1089,
      "Ġne": 1090,
      "Ñŀ": 1091,
      "ÙĬØ©": 1092,
      "hi": 1093,
      "Ġpar": 1094,
      "Ġà¦¸": 1095,
      "ÄŁ": 1096,
      "ata": 1097,
      "àª¿àª": 1098,
      "çĶ": 1099,
      "Ġà®ķ": 1100,
      "to": 1101,
      "Ð°Ð¹": 1102,
      "pl": 1103,
      "áĢĶáĢ¹áĢ": 1104,
      "à¸°": 1105,
      "Ġà¦¬": 1106,
      "ĠÙħÙĨ": 1107,
      "me": 1108,
      "ĠtÃ«": 1109,
      "à¸ķ": 1110,
      "áĥĶáĥļ": 1111,
      "ĠØ§Ø³": 1112,
      "Ġàªħ": 1113,
      "ru": 1114,
      "Ġ200": 1115,
      "à«įàª°": 1116,
      "ĠáĢ±áĢ": 1117,
      "ĠâĢĭ": 1118,
      "ini": 1119,
      "Ġà¤¹": 1120,
      "ĠZ": 1121,
      "Ñĺ": 1122,
      "áĥĲáĥĽ": 1123,
      "àª¨à«ĩ": 1124,
      "à¯įà®ª": 1125,
      "ina": 1126,
      "à¸Ĺ": 1127,
      "Î¸": 1128,
      "si": 1129,
      "ale": 1130,
      "×©": 1131,
      "ĠÐµ": 1132,
      "Ġag": 1133,
      "Ġop": 1134,
      "×ł": 1135,
      "Ġà¤®": 1136,
      "Ġak": 1137,
      "Ġ]": 1138,
      "Ð½Ð°": 1139,
      "Ġàªµ": 1140,
      "ķà¯įà®ķ": 1141,
      "Ġdel": 1142,
      "áĢ²áĢ·": 1143,
      "å¹": 1144,
      "pr": 1145,
      "ĠÚ©ÛĮ": 1146,
      "ÏĦÎ±": 1147,
      "ver": 1148,
      "ij": 1149,
      "Ġdie": 1150,
      "Ã³n": 1151,
      "åĲ": 1152,
      "à¦²": 1153,
      "ĠàªĽ": 1154,
      "Õ¡": 1155,
      "Ġog": 1156,
      "Ġol": 1157,
      "ÙĪÙĨ": 1158,
      "ĠØ¢": 1159,
      "à®²": 1160,
      "áĤĶ": 1161,
      "und": 1162,
      "Ġad": 1163,
      "Ð¾Ð±": 1164,
      "Äį": 1165,
      "ĠÙĤ": 1166,
      "Ø£": 1167,
      "Ġke": 1168,
      "ĠÑĩ": 1169,
      "ww": 1170,
      "Ġ[": 1171,
      "Ø§Ø¨": 1172,
      "Ġ18": 1173,
      "Ïİ": 1174,
      "ĠÏĦÎ·": 1175,
      "oh": 1176,
      "à¤²": 1177,
      "Æ°": 1178,
      "Ġku": 1179,
      "à¦ķ": 1180,
      "ãģĦ": 1181,
      "áĥĵ": 1182,
      "ÉĻr": 1183,
      "Ġwa": 1184,
      "à¸ª": 1185,
      "Ø¶": 1186,
      "Ùİ": 1187,
      "ans": 1188,
      "Ġja": 1189,
      "ĠÐ½Ðµ": 1190,
      "ĠAn": 1191,
      "ìĹ": 1192,
      "Ġà¦ª": 1193,
      "áĢĢáĢº": 1194,
      "Ø±ÛĮ": 1195,
      "Ġà´ª": 1196,
      "eri": 1197,
      "à¯Īà®": 1198,
      "áĢ¾": 1199,
      "ala": 1200,
      "ati": 1201,
      "à±Ģ": 1202,
      "ÅĤ": 1203,
      "à´¯": 1204,
      "áĢ±áĢ¬": 1205,
      "ke": 1206,
      "á»įn": 1207,
      "Ġ×ŀ×": 1208,
      "Ġ13": 1209,
      "Ġà¤ª": 1210,
      "ÑĤÐ¸": 1211,
      "ali": 1212,
      "ĠÐ·Ð°": 1213,
      "Ġí": 1214,
      "Ġsh": 1215,
      "Ġbe": 1216,
      "à¯įà®Ł": 1217,
      "Ð°ÑĤÐ°": 1218,
      "åĬ": 1219,
      "áĥĽ": 1220,
      "ore": 1221,
      "ish": 1222,
      "Ð°Ð³": 1223,
      "Ġpo": 1224,
      "der": 1225,
      "ĠÚ©ÛĴ": 1226,
      "ĠÐł": 1227,
      "emb": 1228,
      "Ġwww": 1229,
      "Ġà®µ": 1230,
      "Ð°Ð±": 1231,
      "ua": 1232,
      "àµįà´¤": 1233,
      "Ġdes": 1234,
      "à§ĩà¦°": 1235,
      "ÑĦ": 1236,
      "à°ķ": 1237,
      "Ø§Ø¦": 1238,
      "ÄĽ": 1239,
      "ĠÐľ": 1240,
      "áĥľ": 1241,
      "áĢĸ": 1242,
      "Ġav": 1243,
      "Ġ14": 1244,
      "uc": 1245,
      "ÏģÎ¿": 1246,
      "Ġ16": 1247,
      "ÚĨ": 1248,
      "Ġà°ª": 1249,
      "Ñį": 1250,
      "Ġac": 1251,
      "à¸«": 1252,
      "Ã«r": 1253,
      "àª¾àª¨": 1254,
      "à«ģàªĤ": 1255,
      "ĠAl": 1256,
      "Ġim": 1257,
      "ĠÙĬ": 1258,
      "ĠÚ¯": 1259,
      "à¸Ħ": 1260,
      "ĠÐĴ": 1261,
      "áĥ¢": 1262,
      "à§ĭ": 1263,
      "áĥĲáĥĵ": 1264,
      "ÏĦÎ¿": 1265,
      "äºļ": 1266,
      "ĠÎ´": 1267,
      "Ġ00": 1268,
      "tion": 1269,
      "à¹Ħ": 1270,
      "åį": 1271,
      "Ð°ÑĨ": 1272,
      "à¤¸": 1273,
      "à¦¤": 1274,
      "æ¸": 1275,
      "äºº": 1276,
      "ĠØ¯Ø±": 1277,
      "à´Ĥ": 1278,
      "ĠÐļ": 1279,
      "ard": 1280,
      "Ġàª¹": 1281,
      "ãĥ¼": 1282,
      "Ð½Ñĭ": 1283,
      "ani": 1284,
      "Ġàª¨": 1285,
      "ord": 1286,
      "Ġit": 1287,
      "Ġà®®": 1288,
      "Ø³Øª": 1289,
      "à¥ģ": 1290,
      "Ãµ": 1291,
      "Ĥ¬": 1292,
      "ĠÑĸ": 1293,
      "ÙĪØ¯": 1294,
      "ÙĨØ¯": 1295,
      "tu": 1296,
      "ÐµÐ½Ð¸": 1297,
      "ĠáĢĢ": 1298,
      "ÑĢÐ¸": 1299,
      "ba": 1300,
      "Ġ&": 1301,
      "à«Ģàª": 1302,
      "Ġap": 1303,
      "àµĭ": 1304,
      "ama": 1305,
      "ÐºÐ¸": 1306,
      "ĠÎºÎ±Î¹": 1307,
      "ĠÂ«": 1308,
      "Ø°": 1309,
      "Ð¾Ñģ": 1310,
      "ĠØ§ÛĮ": 1311,
      "Ð²Ð°": 1312,
      "Ġà´ķ": 1313,
      "×ĵ": 1314,
      "Ã¢": 1315,
      "à¯ĩ": 1316,
      "Ġpl": 1317,
      "orm": 1318,
      "Ġha": 1319,
      "ika": 1320,
      "ÏĦÎµ": 1321,
      "Ã£": 1322,
      "ide": 1323,
      "ĠáĢĻ": 1324,
      "ĠàªĽà«ĩ": 1325,
      "ÙĪÙĦ": 1326,
      "ìĿ´": 1327,
      "à´Ł": 1328,
      "æī": 1329,
      "Ġà®ħ": 1330,
      "ĠÙģÙĬ": 1331,
      "áĥĲáĥłáĥ": 1332,
      "à¦¬": 1333,
      "ĠÐ»": 1334,
      "çī": 1335,
      "Ġ17": 1336,
      "Ã¡n": 1337,
      "lo": 1338,
      "Ġmed": 1339,
      "Ġver": 1340,
      "ont": 1341,
      "ĠâĢ¦": 1342,
      "Ġvan": 1343,
      "Ġmen": 1344,
      "×¢": 1345,
      "ĠÐĲ": 1346,
      "àµĩ": 1347,
      "ĠáĢŀ": 1348,
      "à§įà¦°": 1349,
      "Ġáĥł": 1350,
      "ÐºÐ°": 1351,
      "ff": 1352,
      "Ãª": 1353,
      "Ã¶r": 1354,
      "Ġ+": 1355,
      "à¦®": 1356,
      "ä¸Ģ": 1357,
      "ĠÕ": 1358,
      "ite": 1359,
      "Ġàª¬": 1360,
      "Õ¡Õ": 1361,
      "à±Ĩ": 1362,
      "áĥĶáĥľ": 1363,
      "ÏģÎ±": 1364,
      "æĺ": 1365,
      "Ð¾Ðº": 1366,
      "Ã¦": 1367,
      "Ġ..": 1368,
      "×Ĺ": 1369,
      "Ġdu": 1370,
      "Ð´Ð°": 1371,
      "ve": 1372,
      "Ġà®¤": 1373,
      "ile": 1374,
      "ĠÑı": 1375,
      "ãģ§": 1376,
      "áĥĲáĥķ": 1377,
      "àªĤàª": 1378,
      "ust": 1379,
      "áĢĬáĢ¹áĢ": 1380,
      "Ġà°ķ": 1381,
      "áĥĲáĥ¡": 1382,
      "à¤¹": 1383,
      "à¹ģ": 1384,
      "Ø§Ø³": 1385,
      "áĢħáĢ¹áĢ": 1386,
      "ÏĦÎ·": 1387,
      "Ġex": 1388,
      "à´¿à´²": 1389,
      "Ġàª°": 1390,
      "Ġ×ķ": 1391,
      "àª²": 1392,
      "tic": 1393,
      "za": 1394,
      "Ġ2019": 1395,
      "ļáĥĺ": 1396,
      "ĠÐ´Ð°": 1397,
      "è¿": 1398,
      "à±įà°°": 1399,
      "àµįà´Ł": 1400,
      "Ġà®ļ": 1401,
      "ier": 1402,
      "ks": 1403,
      "Ø¦": 1404,
      "Ġter": 1405,
      "ÙĬÙĨ": 1406,
      "Ġem": 1407,
      "ko": 1408,
      "è½": 1409,
      "à®µ": 1410,
      "Ġáĥĺ": 1411,
      "kan": 1412,
      "ler": 1413,
      "ente": 1414,
      "ass": 1415,
      "Ġso": 1416,
      "å°": 1417,
      "à°¾à°°": 1418,
      "à¥įà¤¯": 1419,
      "åıĳ": 1420,
      "je": 1421,
      "ãģĹ": 1422,
      "Ġ25": 1423,
      "Ġpara": 1424,
      "àª£": 1425,
      "Ġkan": 1426,
      "ĠCh": 1427,
      "Ġdan": 1428,
      "Ð½Ñı": 1429,
      "ts": 1430,
      "Ã´": 1431,
      "ĠØ§ÙĨ": 1432,
      "Ġ30": 1433,
      "Ġyang": 1434,
      "ä¼": 1435,
      "à¯ģà®®à¯į": 1436,
      "ĠÐĿ": 1437,
      "Ġmo": 1438,
      "ĠÏĦÎ¿": 1439,
      "àª¹": 1440,
      "Ġ).": 1441,
      "à§įà¦¯": 1442,
      "ĠÂŃ": 1443,
      "à®¿à®²": 1444,
      "Ġà°µ": 1445,
      "áĢ¬áĢ¸": 1446,
      "ÏĢÎ¿": 1447,
      "ĠÑģÐµ": 1448,
      "ãģ«": 1449,
      "Ð°ÑĪ": 1450,
      "ela": 1451,
      "åĪĨ": 1452,
      "ĠÑĪ": 1453,
      "ëĭ¤": 1454,
      "à¸²à¸£": 1455,
      "à±ĩà°": 1456,
      "ĠÐĳ": 1457,
      "Ġpre": 1458,
      "Ġby": 1459,
      "Ġgr": 1460,
      "ny": 1461,
      "à´®": 1462,
      "Ġdet": 1463,
      "Ġvi": 1464,
      "Ġãĥ": 1465,
      "Ð½Ñĸ": 1466,
      "ning": 1467,
      "Ø«": 1468,
      "ÛĮÙĨ": 1469,
      "ĠÑģÑĤ": 1470,
      "à¸Ńà¸ĩ": 1471,
      "à¸·": 1472,
      "//": 1473,
      "à´³": 1474,
      "Ġber": 1475,
      "ÏĥÎ·": 1476,
      "Åĳ": 1477,
      "à¥Ī": 1478,
      "ze": 1479,
      "Ġà´µ": 1480,
      "Ġro": 1481,
      "Ġab": 1482,
      "ili": 1483,
      "Ġáĥ¨": 1484,
      "à®¿à®¯": 1485,
      "ê³": 1486,
      "Ġà¦Ĩ": 1487,
      "ĠÛĶ": 1488,
      "à¸µà¹Ī": 1489,
      "Ġom": 1490,
      "ĠÚ©Ø±": 1491,
      "ĠÙĥ": 1492,
      "ĠÎ½": 1493,
      "tor": 1494,
      "å½©": 1495,
      "Ð¸Ð¼": 1496,
      "à¸¸": 1497,
      "zi": 1498,
      "Ġ22": 1499,
      "ëĬ": 1500,
      "ui": 1501,
      "ĲáĢ¬": 1502,
      "ÅĻ": 1503,
      "Ġ>": 1504,
      "Ġà®ĩ": 1505,
      "Ġve": 1506,
      "Ġ21": 1507,
      "ĠØ¹ÙĦ": 1508,
      "áĥĲáĥł": 1509,
      "AN": 1510,
      "Ġpor": 1511,
      "×§": 1512,
      "èµ": 1513,
      "àµģà´Ĥ": 1514,
      "ly": 1515,
      "ÐµÑģ": 1516,
      "ĠÏĦÎ¿Ïħ": 1517,
      "ì§": 1518,
      "ita": 1519,
      "ãģ¦": 1520,
      "à¹Į": 1521,
      "ttp": 1522,
      "ĠØ§ÙĪ": 1523,
      "à¥įà¤°": 1524,
      "à¹ĥ": 1525,
      "áĥ®": 1526,
      "ĠÙħÛĮÚº": 1527,
      "áĢĢáĢŃáĢ¯": 1528,
      "Ġsk": 1529,
      "Ã¡s": 1530,
      "æ¸¸": 1531,
      "áĥĿáĥĽ": 1532,
      "Ġsom": 1533,
      "Î¼Î±": 1534,
      "ĠØ¨Ùĩ": 1535,
      "ĠÃ©": 1536,
      "ÑĥÑĢ": 1537,
      "ÄĻ": 1538,
      "à¹ĩ": 1539,
      "å¿": 1540,
      "Ġko": 1541,
      "ìŀ¥": 1542,
      "ĠQ": 1543,
      "ona": 1544,
      "Ġ\":": 1545,
      "à¦¾à¦¨": 1546,
      "è®": 1547,
      "Ġ2017": 1548,
      "Ġà°®": 1549,
      "we": 1550,
      "Ðł": 1551,
      "aci": 1552,
      "Ð¾Ð·": 1553,
      "à§Ģ": 1554,
      "à¤®": 1555,
      "uh": 1556,
      "ĠáĥĵáĥĲ": 1557,
      "Ġà°ħ": 1558,
      "à¤¾à¤°": 1559,
      "Ġàªı": 1560,
      "Ð°Ð½Ð¸": 1561,
      "Ġbo": 1562,
      "áĤı": 1563,
      "ĠáĢľ": 1564,
      "....": 1565,
      "Ġ://": 1566,
      "Ð¸ÑĤÐµ": 1567,
      "Î½Î±": 1568,
      "ĠÐĶ": 1569,
      "å¼": 1570,
      "asi": 1571,
      "ki": 1572,
      "Ġph": 1573,
      "Ġà¦®": 1574,
      "ash": 1575,
      "à¯Ĩ": 1576,
      "Ð¾Ð¶": 1577,
      "Î¯Î±": 1578,
      "wá»įn": 1579,
      "ena": 1580,
      "Ġ2018": 1581,
      "ãģ¨": 1582,
      "ys": 1583,
      "ìĦ": 1584,
      "ĠSt": 1585,
      "à´¨": 1586,
      "Ġ),": 1587,
      "Ġva": 1588,
      "×¤": 1589,
      "Ġhttp": 1590,
      "Ġà´¸": 1591,
      "éĢ": 1592,
      "á¹": 1593,
      "th": 1594,
      "ãģª": 1595,
      "no": 1596,
      "era": 1597,
      "ĠáĢĲ": 1598,
      "ĠÑĦ": 1599,
      "Ġà¦ı": 1600,
      "mi": 1601,
      "ĠÎ³": 1602,
      "ÏģÎ¹": 1603,
      "è§": 1604,
      "Ġà°¸": 1605,
      "×ŀ×": 1606,
      "ĠÐ¢": 1607,
      "ç»": 1608,
      "àªª": 1609,
      "à¸Ī": 1610,
      "ëĬĶ": 1611,
      "our": 1612,
      "Ð»Ñı": 1613,
      "ÏīÎ½": 1614,
      "Ð¾Ð¹": 1615,
      "Ġä¸": 1616,
      "if": 1617,
      "ade": 1618,
      "ĠpÃ¥": 1619,
      "Ġje": 1620,
      "áĢ®áĢ¸áĢ": 1621,
      "va": 1622,
      "à´¤àµįà´¤": 1623,
      "¨à¯įà®¤": 1624,
      "àª¸": 1625,
      "int": 1626,
      "lu": 1627,
      "ado": 1628,
      "à´µ": 1629,
      "ê°": 1630,
      "Ð¸Ñı": 1631,
      "be": 1632,
      "Ġed": 1633,
      "ÑĥÐ²": 1634,
      "Ġå¤": 1635,
      "Ġï¿½ï¿½ï¿½ï¿½": 1636,
      "10": 1637,
      "ĠÑħ": 1638,
      "Ð»Ð°ÑĢ": 1639,
      "à´²": 1640,
      "Ġà´®": 1641,
      "Ġest": 1642,
      "àµįà´°": 1643,
      "à¸Ľ": 1644,
      "Ġ×¢": 1645,
      "Ġáĥ¡áĥĲáĥ": 1646,
      "ĠÐ¿Ð¾": 1647,
      "ĠÑŀ": 1648,
      "ĠÎ¿": 1649,
      "ran": 1650,
      "oa": 1651,
      "ond": 1652,
      "Äħ": 1653,
      "à¸¹": 1654,
      "×ŀ": 1655,
      "å®ĺ": 1656,
      "ĠX": 1657,
      "Ġser": 1658,
      "--": 1659,
      "ìł": 1660,
      "Ġsu": 1661,
      "ç«": 1662,
      "ĠÐ¾ÑĤ": 1663,
      "Ġtil": 1664,
      "Æ°á»": 1665,
      "Ġ24": 1666,
      "Ġà®¨": 1667,
      "å¸": 1668,
      "ment": 1669,
      "áĥĺáĥĹ": 1670,
      "Ã¡l": 1671,
      "Ã£o": 1672,
      "amp": 1673,
      "ĠAr": 1674,
      "ĲáĢ¼": 1675,
      "ãģŁ": 1676,
      "æĿ": 1677,
      "ĠÛĮ": 1678,
      "Ġàªķàª°": 1679,
      "Ġ23": 1680,
      "×Ľ": 1681,
      "ÑĤÐ¾": 1682,
      "one": 1683,
      "age": 1684,
      "àª®àª¾àªĤ": 1685,
      "ãĥ³": 1686,
      "ãģĻ": 1687,
      "×Ŀ": 1688,
      "Ã«s": 1689,
      "å¤§": 1690,
      "Ð¸Ñģ": 1691,
      "¾áĢĢ": 1692,
      "áĢ¯áĢŃ": 1693,
      "Ġà´¨": 1694,
      "Ġ\",": 1695,
      "ÙĩØ§": 1696,
      "nh": 1697,
      "atu": 1698,
      "á¹£": 1699,
      "res": 1700,
      "ku": 1701,
      "áĢĲáĢ¹áĢ": 1702,
      "ãĤĭ": 1703,
      "ãģĮ": 1704,
      "áĥĿáĥĳ": 1705,
      "Ġhe": 1706,
      "ä¸ĭ": 1707,
      "lik": 1708,
      "ĠáĥĻ": 1709,
      "ĠØµ": 1710,
      "ĠÙĪØ§ÙĦ": 1711,
      "Ð°Ñĩ": 1712,
      "ĠìĿ": 1713,
      "ªà¯įà®ª": 1714,
      "ÛĮØ¯": 1715,
      "ene": 1716,
      "Ð¸Ð·": 1717,
      "Ù¹": 1718,
      "åŃ": 1719,
      "Ġang": 1720,
      "Ø§Ø²": 1721,
      "Ġà´ħ": 1722,
      "Ñī": 1723,
      "ich": 1724,
      "Ġaf": 1725,
      "ÑĥÐ´": 1726,
      "Ġhar": 1727,
      "åľ¨": 1728,
      "áĢĨ": 1729,
      "ÉĻn": 1730,
      "ica": 1731,
      "à°Ĥ": 1732,
      "ert": 1733,
      "ìķ": 1734,
      "ĠØ¨Ø±": 1735,
      "åĨ": 1736,
      "ER": 1737,
      "åĽ½": 1738,
      "Ã¨": 1739,
      "ge": 1740,
      "Ð¾Ð³Ð¾": 1741,
      "åº": 1742,
      "àª¨àª¾": 1743,
      "áĥĲáĥļ": 1744,
      "ith": 1745,
      "¶ľ": 1746,
      "gan": 1747,
      "Ġà¦¨": 1748,
      "è¯": 1749,
      "à´£": 1750,
      "Ð°Ð¿": 1751,
      "Ø§Ùĩ": 1752,
      "oj": 1753,
      "à®£": 1754,
      "çº": 1755,
      "ĠMar": 1756,
      "áĥĹ": 1757,
      "ĀĀ": 1758,
      "ori": 1759,
      "àª¨à«Ģ": 1760,
      "å·": 1761,
      "Ã¼n": 1762,
      "ãģ¯": 1763,
      "ĠSe": 1764,
      "à®®": 1765,
      "çİ": 1766,
      "ida": 1767,
      "Ġden": 1768,
      "adi": 1769,
      "Øº": 1770,
      "áº¡": 1771,
      "éĩ": 1772,
      "Î²": 1773,
      "Ġob": 1774,
      "à¦¸": 1775,
      "Ġà¤¬": 1776,
      "Ġder": 1777,
      "ĠnÃ«": 1778,
      "ĠáĥĹ": 1779,
      "ult": 1780,
      "Ġà¹Ģà¸": 1781,
      "à®±": 1782,
      "ĠÅ": 1783,
      "Ð¸Ð´": 1784,
      "áº¿": 1785,
      "Ġpe": 1786,
      "so": 1787,
      "áĢķáĢ«": 1788,
      "ĠØ¥": 1789,
      "à¯įà®±": 1790,
      "Ġus": 1791,
      "Ø±ÙĪ": 1792,
      "Ġà¦¹": 1793,
      "ry": 1794,
      "Ġkom": 1795,
      "àª¾àª®": 1796,
      "Ġà¤¨": 1797,
      "áĢĦáĢ¹": 1798,
      "uz": 1799,
      "Ġta": 1800,
      "ĠáĢķ": 1801,
      "éĻ": 1802,
      "emp": 1803,
      "Ġ×Ľ": 1804,
      "áĢĶáĢº": 1805,
      "à´¿à´¯": 1806,
      "Ġvo": 1807,
      "à«Ĥ": 1808,
      "Ġà®İ": 1809,
      "Ã¤r": 1810,
      "à¯ĭ": 1811,
      "ĠÛģÛĴ": 1812,
      "áģ¾áĢĢ": 1813,
      "áĥłáĥ": 1814,
      "ĠÎ¼Îµ": 1815,
      "ĠDe": 1816,
      "æĹ¶": 1817,
      "Ø§Ø¹": 1818,
      "ĠãĤ": 1819,
      "áĥĶáĥ¡": 1820,
      "áĢļáĢ¹áĢ": 1821,
      "uj": 1822,
      "ĠØ§ÙĦØª": 1823,
      "áĢķáĢ¹áĢ": 1824,
      "ett": 1825,
      "áĢļáĢ¹": 1826,
      "Ġfr": 1827,
      "ìĹĲ": 1828,
      "à±įà°¨": 1829,
      "ice": 1830,
      "¨áĥĺ": 1831,
      "ano": 1832,
      "áĥĺáĥľ": 1833,
      "à¥ĩà¤": 1834,
      "sp": 1835,
      "Ġvar": 1836,
      "Ġaz": 1837,
      "gr": 1838,
      "ĠáģĬ": 1839,
      "ft": 1840,
      "Ġles": 1841,
      "ÙĬØ±": 1842,
      "ĠÎ½Î±": 1843,
      "Ġres": 1844,
      "Ġbl": 1845,
      "zy": 1846,
      "à°®": 1847,
      "Ð¸Ð²": 1848,
      "Ġdis": 1849,
      "amb": 1850,
      "à¥ĩà¤Ĥ": 1851,
      "ĠEn": 1852,
      "ÙĪÚº": 1853,
      "ĠÃ®": 1854,
      "ë§": 1855,
      "Ġàª¦": 1856,
      "Ø¸": 1857,
      "áĢ³": 1858,
      "Ð¾Ð¿": 1859,
      "ĠáĢĽ": 1860,
      "æĬ": 1861,
      "ĠáĥĶ": 1862,
      "app": 1863,
      "ÙĪÙħ": 1864,
      "ue": 1865,
      "Ġ$": 1866,
      "Ġà¤ħ": 1867,
      "ew": 1868,
      "Ã¤n": 1869,
      "Ġ2016": 1870,
      "Ġbir": 1871,
      "Î½Î¿": 1872,
      "ĠØ§ÙĪØ±": 1873,
      "çľ": 1874,
      "à´¨àµįà´¨": 1875,
      "ãģ¾": 1876,
      "Ġà¤ľ": 1877,
      "nÃŃ": 1878,
      "áĢĬáĢº": 1879,
      "Ġmin": 1880,
      "ĠÐŀ": 1881,
      "à¤ª": 1882,
      "ĠPro": 1883,
      "¶ľìŀ¥": 1884,
      "ì§Ģ": 1885,
      "ih": 1886,
      "Ø§Ùģ": 1887,
      "æ³": 1888,
      "ĠÙħÛĮ": 1889,
      "àª°à«įàª": 1890,
      "íķĺ": 1891,
      "Ġos": 1892,
      "Ġà°ļ": 1893,
      "Ġ01": 1894,
      "×ķ×¨": 1895,
      "Ġà¤µ": 1896,
      "ÏĦÎ¹Îº": 1897,
      "ura": 1898,
      "Ġsz": 1899,
      "á»ĩ": 1900,
      "à´¸": 1901,
      "áĥĶáĥł": 1902,
      "ÑģÑı": 1903,
      "Ġman": 1904,
      "à°¤": 1905,
      "à´±": 1906,
      "ÐĲ": 1907,
      "Ġmet": 1908,
      "è¡": 1909,
      "ĠÒĽ": 1910,
      "Ġeg": 1911,
      "ĠÐ²Ð¾": 1912,
      "AR": 1913,
      "ĠTh": 1914,
      "ĠÐĵ": 1915,
      "Ð°Ñħ": 1916,
      "áĢĳ": 1917,
      "çĽ": 1918,
      "à¯įà®ķà®³": 1919,
      "Ġpol": 1920,
      "»áĢķ": 1921,
      "ĠÎĳ": 1922,
      "ÖĢ": 1923,
      "Ġnh": 1924,
      "ĠÐ¶": 1925,
      "å¥": 1926,
      "ici": 1927,
      "mer": 1928,
      "Ġawá»įn": 1929,
      "Ġki": 1930,
      "×ĺ": 1931,
      "Ġàª²": 1932,
      "Ð³Ð°": 1933,
      "aka": 1934,
      "Ġut": 1935,
      "Ġmar": 1936,
      "Ġà¦¦": 1937,
      "àµįà´¯": 1938,
      "IN": 1939,
      "Ġà¤ķà¥ĩ": 1940,
      "Ġà¤Ĩ": 1941,
      "ÑĢÑĥ": 1942,
      "Ð¸Ð½Ð¸": 1943,
      "ĠÐ¾Ð´": 1944,
      "áĥĶáĥĳáĥĺáĥ¡": 1945,
      "ako": 1946,
      "yn": 1947,
      "à°¾à°²": 1948,
      "Ġï¼ļ": 1949,
      "ĠUn": 1950,
      "Ñĳ": 1951,
      "Ġ×Ļ": 1952,
      "Ġgo": 1953,
      "ë¡": 1954,
      "ÐµÐ·": 1955,
      "àµįà´ª": 1956,
      "Ä±r": 1957,
      "els": 1958,
      "ĠÃ¼": 1959,
      "Ġhet": 1960,
      "Ġà°¨": 1961,
      "æĺ¯": 1962,
      "tiv": 1963,
      "Îĳ": 1964,
      "ĠØ§Ø²": 1965,
      "à¥Ĥ": 1966,
      "form": 1967,
      "ĠØ§Ø³Øª": 1968,
      "Ġpa": 1969,
      "ÑĤÐ°": 1970,
      "âĢĿ": 1971,
      "ãĤĴ": 1972,
      "Ġ09": 1973,
      "ÐµÐ²": 1974,
      "ĠThe": 1975,
      "Ġà¤¹à¥Ī": 1976,
      "ìĿĺ": 1977,
      "Ġkh": 1978,
      "ino": 1979,
      "à°¿à°Ĥà°": 1980,
      "à±įà°¯": 1981,
      "à¤Ĺ": 1982,
      "åİ": 1983,
      "ane": 1984,
      "ÐºÑĸ": 1985,
      "lig": 1986,
      "ete": 1987,
      "Å«": 1988,
      "ten": 1989,
      "å¾": 1990,
      "Ù¾": 1991,
      "Ġáĥŀ": 1992,
      "ĠÎŃ": 1993,
      "ĠÚĨ": 1994,
      "Ġà§": 1995,
      "Ġli": 1996,
      "ĠØ²": 1997,
      "ĠâĢŀ": 1998,
      "Ġàª¶": 1999,
      "ÑģÑĤÐ²": 2000,
      "ement": 2001,
      "Ġinter": 2002,
      "à´ª": 2003,
      "ĠÚ©ÙĪ": 2004,
      "ìĿĦ": 2005,
      "ity": 2006,
      "pe": 2007,
      "Ġìŀ": 2008,
      "æľº": 2009,
      "åĩ": 2010,
      "ĠÊ»": 2011,
      "Ġ26": 2012,
      "ìĭ": 2013,
      "ÑĸÐ´": 2014,
      "asa": 2015,
      "à®¤à¯įà®¤": 2016,
      "à®¿à®°": 2017,
      "áº£": 2018,
      "Ġum": 2019,
      "isi": 2020,
      "Ġkon": 2021,
      "ÑĤÐµ": 2022,
      "ĠØ³ÛĴ": 2023,
      "ĠÑį": 2024,
      "88": 2025,
      "Î¾": 2026,
      "áĥĲáĥª": 2027,
      "ÑĥÐ¼": 2028,
      "ĠÎ±ÏĢ": 2029,
      "bl": 2030,
      "11": 2031,
      "Ġbu": 2032,
      "Ġï¿½ï¿½": 2033,
      "à§įà¦¤": 2034,
      "à¸³": 2035,
      "ĠpÃ«r": 2036,
      "à®®à¯į": 2037,
      "Ð¾ÑģÑĤ": 2038,
      "áĢ®áĢ¸": 2039,
      "Ġza": 2040,
      "Ġà¤¦": 2041,
      "ĠâĢĶ": 2042,
      "Ã±": 2043,
      "×¡": 2044,
      "Ð°Ñŀ": 2045,
      "àµĢ": 2046,
      "Ġ\\": 2047,
      "Ø§Ø¡": 2048,
      "Ġche": 2049,
      "ç¥": 2050,
      "áĢĻáĢº": 2051,
      "ack": 2052,
      "åĮ": 2053,
      "à®¿à®²à¯į": 2054,
      "ĠÃ®n": 2055,
      "Î¼Îµ": 2056,
      "pa": 2057,
      "Ġ}": 2058,
      "àµįà´ļ": 2059,
      "olo": 2060,
      "ê¸": 2061,
      "àµģà´¨àµįà´¨": 2062,
      "à´ķàµįà´ķ": 2063,
      "à¸ŀ": 2064,
      "ÛĮØ±": 2065,
      "ä¸Ń": 2066,
      "Ġmu": 2067,
      "eh": 2068,
      "ĠÐ¾Ð±": 2069,
      "ĠSh": 2070,
      "EN": 2071,
      "Ġ02": 2072,
      "Ġ27": 2073,
      "à´ķ": 2074,
      "ÑĹ": 2075,
      "ÙĦÛĮ": 2076,
      "ÑĥÐ»": 2077,
      "à°µ": 2078,
      "áĢ½áĢ¬": 2079,
      "Ġau": 2080,
      "Ã¼r": 2081,
      "à®ķ": 2082,
      "ies": 2083,
      "ive": 2084,
      "unt": 2085,
      "×Ĵ": 2086,
      "ca": 2087,
      "Ã¡r": 2088,
      "ĠØ§ÙĦØ£": 2089,
      "Ļàµįà´": 2090,
      "ÐµÐ¹": 2091,
      "ĠØ·": 2092,
      "ats": 2093,
      "à¸Ĥ": 2094,
      "ĠàªĹ": 2095,
      "à¨": 2096,
      "ĠÒ³": 2097,
      "´ë": 2098,
      "à¸Ĭ": 2099,
      "Ð¸Ðº": 2100,
      "ĠáĢħ": 2101,
      "à´¾à´¯": 2102,
      "Ġ50": 2103,
      "ĠÑĨ": 2104,
      "ĠÎºÎ±": 2105,
      "Ġ×ŀ": 2106,
      "eni": 2107,
      "à«ģàª": 2108,
      "Ġà´¤": 2109,
      "à¯Ĭ": 2110,
      "à®¤à¯ģ": 2111,
      "Ġå¤§": 2112,
      "Ġ03": 2113,
      "ĠPr": 2114,
      "oll": 2115,
      "Ġ28": 2116,
      "à°¸": 2117,
      "à¤µ": 2118,
      "Ġ08": 2119,
      "Ġco": 2120,
      "ĠÃ§": 2121,
      "éĹ": 2122,
      "æĢ": 2123,
      "ema": 2124,
      "à®¿à®©": 2125,
      "à®¾à®°": 2126,
      "Ġik": 2127,
      "ÏĦÎ¹": 2128,
      "Ð½Ð³": 2129,
      "ets": 2130,
      "ĠÎķ": 2131,
      "ÙĲ": 2132,
      "æīĭ": 2133,
      "ĠMa": 2134,
      "Ð¸Ñĩ": 2135,
      "Ġà¦ķà¦°": 2136,
      "ky": 2137,
      "Ġ100": 2138,
      "rit": 2139,
      "Ġà¦¤": 2140,
      "Ġ*": 2141,
      "ike": 2142,
      "Ġlo": 2143,
      "è´": 2144,
      "¥à«Ģ": 2145,
      "áĥĺáĥļ": 2146,
      "ber": 2147,
      "áĥĶáĥĳáĥĲ": 2148,
      "áĤķ": 2149,
      "Å¼": 2150,
      "ĠÃł": 2151,
      "æĸ¹": 2152,
      "Ð¡": 2153,
      "lan": 2154,
      "ĠÎł": 2155,
      "å±": 2156,
      "ĠÃ¶": 2157,
      "à°Ł": 2158,
      "à°¦": 2159,
      "ĠLa": 2160,
      "Ġuna": 2161,
      "ye": 2162,
      "Ġ05": 2163,
      "mo": 2164,
      "Î»Î¿": 2165,
      "che": 2166,
      "à¤¦": 2167,
      "ÎµÎ¯": 2168,
      "à¦¦": 2169,
      "ato": 2170,
      "yd": 2171,
      "aya": 2172,
      "iss": 2173,
      "ĠØ§ÙĦØ¹": 2174,
      "è½½": 2175,
      "Ġ07": 2176,
      "Õ¸": 2177,
      "Ġfun": 2178,
      "á»Ļ": 2179,
      "Ø§ÙĤ": 2180,
      "Ð¸ÑĪ": 2181,
      "Ġbi": 2182,
      "ĠEl": 2183,
      "itu": 2184,
      "Ġnie": 2185,
      "ÑĨÐ¸": 2186,
      "zen": 2187,
      "ĠCom": 2188,
      "ami": 2189,
      "à¯Īà®¯": 2190,
      "à°ª": 2191,
      "50": 2192,
      "Ġà°¤": 2193,
      "à±įà°¤": 2194,
      "à±įà°²": 2195,
      "Ġeta": 2196,
      "à°¡": 2197,
      "ĠÐ£": 2198,
      "ila": 2199,
      "Ġ29": 2200,
      "man": 2201,
      "ise": 2202,
      "Ġ2015": 2203,
      "Ġï": 2204,
      "Ġ000": 2205,
      "ON": 2206,
      "eta": 2207,
      "cia": 2208,
      "àª¾àªµ": 2209,
      "Ø±ÙĬ": 2210,
      "ÎµÏĤ": 2211,
      "__": 2212,
      "Ġàªħàª¨à«ĩ": 2213,
      "ende": 2214,
      "port": 2215,
      "à¸±à¸ļ": 2216,
      "íķľ": 2217,
      "ãģĭ": 2218,
      "uar": 2219,
      "Ġtak": 2220,
      "Ð°Ð¶": 2221,
      "Ġ04": 2222,
      "sh": 2223,
      "Ġmak": 2224,
      "Ð¸ÑģÑĤ": 2225,
      "Ġà¤²": 2226,
      "gi": 2227,
      "áĢĻáĢ¹áĢ": 2228,
      "au": 2229,
      "ìĬ": 2230,
      "Ġ06": 2231,
      "ĠÏĦÎ·ÏĤ": 2232,
      "ento": 2233,
      "à¯ģà®ķà¯įà®ķ": 2234,
      "ķáĢ«": 2235,
      "Ġà¤°": 2236,
      "ĠÐ¸Ð·": 2237,
      "à®¯": 2238,
      "Ġoch": 2239,
      "ase": 2240,
      "Ġ2020": 2241,
      "áĥĴ": 2242,
      "Ġìł": 2243,
      "ck": 2244,
      "lÄ±": 2245,
      "bo": 2246,
      "co": 2247,
      "ÑĥÐ½": 2248,
      "Ġà¦ħ": 2249,
      "å¹³": 2250,
      "ÈĽ": 2251,
      "æľī": 2252,
      "ä¸ĭè½½": 2253,
      "áĥĶáĥĽ": 2254,
      "Ġmi": 2255,
      "Ġà¤¤": 2256,
      "à¹Īà¸²à¸": 2257,
      "Ġmod": 2258,
      "Ġáĥ¬": 2259,
      "×Ļ×ª": 2260,
      "Ã¬": 2261,
      "à¤¾à¤¨": 2262,
      "áº¥": 2263,
      "èĢ": 2264,
      "áĢĶáĢ¹áĢ¸": 2265,
      "ĠÏĦÎ·Î½": 2266,
      "ons": 2267,
      "áĢħáĢº": 2268,
      "æ°": 2269,
      "ven": 2270,
      "per": 2271,
      "Ġwe": 2272,
      "ÎŁ": 2273,
      "fer": 2274,
      "à¯ģà®¤": 2275,
      "àª¯": 2276,
      "ĠÑģÐ¾": 2277,
      "à´¿à´ķàµįà´ķ": 2278,
      "à§ĩà¦¨": 2279,
      "Ġmat": 2280,
      "line": 2281,
      "Ġcu": 2282,
      "Ð°Ð»ÑĮ": 2283,
      "ìļ": 2284,
      "áĥĿáĥ¡": 2285,
      "ļàµįà´ļ": 2286,
      "ĠÚ©Ø§": 2287,
      "å¹´": 2288,
      "äºĨ": 2289,
      "áĥĶáĥĳáĥĺ": 2290,
      "ĠÐĹ": 2291,
      "Ġpod": 2292,
      "ÎĻ": 2293,
      "ä¿": 2294,
      "à¦Ł": 2295,
      "ĠÚ©Ûģ": 2296,
      "à¦ª": 2297,
      "Ġir": 2298,
      "den": 2299,
      "âĢĭ": 2300,
      "alam": 2301,
      "çĻ": 2302,
      "ãģ£": 2303,
      "ë¡ľ": 2304,
      "Ġay": 2305,
      "Ġmas": 2306,
      "Ġpos": 2307,
      "Ð°ÑģÑĤ": 2308,
      "à¹Ĥ": 2309,
      "Ãªn": 2310,
      "Î¯Î½": 2311,
      "ct": 2312,
      "åı°": 2313,
      "Ġbr": 2314,
      "Î¶": 2315,
      "Ġiz": 2316,
      "ĠÙħØ¹": 2317,
      "Ġdhe": 2318,
      "Ã²": 2319,
      "ute": 2320,
      "min": 2321,
      "ê³ł": 2322,
      "Ġáĥ£áĥ": 2323,
      "áĢļáĢº": 2324,
      "ĠLe": 2325,
      "à°¿à°¨": 2326,
      "Ġpers": 2327,
      "áĢĢáĢ¹": 2328,
      "12": 2329,
      "áĥĿáĥľ": 2330,
      "ĠÐĺ": 2331,
      "any": 2332,
      "Ð³Ð°Ð½": 2333,
      "ÙĢ": 2334,
      "à¸ģà¸²à¸£": 2335,
      "à°¾à°¨": 2336,
      "Ġbil": 2337,
      "ĠÎļ": 2338,
      "Ġà¦ľ": 2339,
      "ÑģÐºÐ¸": 2340,
      "ĠTr": 2341,
      "ëı": 2342,
      "Ø¨Ø±": 2343,
      "ole": 2344,
      "Î±Î½": 2345,
      "Î¿Ïį": 2346,
      "Ġpag": 2347,
      "Ġod": 2348,
      "ime": 2349,
      "bi": 2350,
      "æķ": 2351,
      "å®ĺç½ĳ": 2352,
      "use": 2353,
      "ãĥ¼ãĥ": 2354,
      "ame": 2355,
      "ÅĽ": 2356,
      "Ġ2014": 2357,
      "oz": 2358,
      "Ã©r": 2359,
      "Ġà´İ": 2360,
      "uri": 2361,
      "ick": 2362,
      "ern": 2363,
      "ÑĢÐ¾": 2364,
      "Ġaut": 2365,
      "à´Ļàµįà´": 2366,
      "ØªØ±": 2367,
      "á»ĳ": 2368,
      "ista": 2369,
      "à¸²à¸ģ": 2370,
      "19": 2371,
      "Ġtra": 2372,
      "Ã¡t": 2373,
      "å¯": 2374,
      "Ø§ÙĪ": 2375,
      "AT": 2376,
      "Ġea": 2377,
      "Ġgi": 2378,
      "ì¶ľìŀ¥": 2379,
      "rat": 2380,
      "áĥ£áĥł": 2381,
      "Ġent": 2382,
      "ĠRe": 2383,
      "ure": 2384,
      "Ġval": 2385,
      "ĠÙ¾Ø±": 2386,
      "Ø§Ø´": 2387,
      "ĠÎ³Î¹Î±": 2388,
      "à°¯": 2389,
      "é¢": 2390,
      "ome": 2391,
      "Å¥": 2392,
      "à°¿à°ķ": 2393,
      "ĠØ¹ÙĦÙī": 2394,
      "ä¹Ĳ": 2395,
      "éĽ": 2396,
      "AL": 2397,
      "ĠÃ©s": 2398,
      "Ġmer": 2399,
      "Ġkat": 2400,
      "ĠÎ£": 2401,
      "ÐºÐ¾": 2402,
      "ola": 2403,
      "iri": 2404,
      "ÙĦÙħ": 2405,
      "×ķ×ľ": 2406,
      "çĲ": 2407,
      "Ø§ØŃ": 2408,
      "ä¸į": 2409,
      "Ġund": 2410,
      "ãĤĬ": 2411,
      "ÑĺÐ°": 2412,
      "ÏİÎ½": 2413,
      "ull": 2414,
      "Ã¼l": 2415,
      "ES": 2416,
      "Õ¥": 2417,
      "ĠÏĮ": 2418,
      "aciÃ³n": 2419,
      "ĠÎ¤": 2420,
      "ê°Ģ": 2421,
      "ÐµÐ½ÑĤ": 2422,
      "ora": 2423,
      "à®Łà¯įà®Ł": 2424,
      "ÑĨÑĮ": 2425,
      "Ð¿ÑĢ": 2426,
      "olog": 2427,
      "ÐºÑĥ": 2428,
      "Ġ2013": 2429,
      "à«įàªŁ": 2430,
      "à®¾à®©": 2431,
      "ê²": 2432,
      "Ġ{": 2433,
      "Ġsel": 2434,
      "Ðŀ": 2435,
      "ë¦": 2436,
      "Ùı": 2437,
      "à®Ļ": 2438,
      "Ð´Ð¸": 2439,
      "aw": 2440,
      "áģĢ": 2441,
      "Ùĳ": 2442,
      "å¿«": 2443,
      "àµĤ": 2444,
      "Ġprod": 2445,
      "ight": 2446,
      "Ġ40": 2447,
      "ĠÎ±ÏĢÏĮ": 2448,
      "àªĹ": 2449,
      "à¸²à¸¡": 2450,
      "ito": 2451,
      "eld": 2452,
      "Ġ36": 2453,
      "inn": 2454,
      "æĹ¥": 2455,
      "ĥ½": 2456,
      "les": 2457,
      "ÑĸÐ²": 2458,
      "isa": 2459,
      "Ġ×©×ľ": 2460,
      "Ġnu": 2461,
      "ira": 2462,
      "ss": 2463,
      "à¤°à¥įà¤": 2464,
      "ĠÂ·": 2465,
      "àµįà´±": 2466,
      "ï¼Į": 2467,
      "vi": 2468,
      "una": 2469,
      "¯äºļ": 2470,
      "eli": 2471,
      "à±įà°Ł": 2472,
      "ãĤ¹": 2473,
      "×¦": 2474,
      "Ġ×ł": 2475,
      "ĠÐ²Ð°": 2476,
      "Ø§Ú©": 2477,
      "áģ¿": 2478,
      "áĥ§": 2479,
      "ese": 2480,
      "åĿ": 2481,
      "ä¸Ĭ": 2482,
      "áĢĦáĢ¹áĢ·": 2483,
      "à¤ļ": 2484,
      "åĵ": 2485,
      "ĠÅŁ": 2486,
      "áĥĺáĥĵ": 2487,
      "fa": 2488,
      "het": 2489,
      "Īëĭ¤": 2490,
      "à±Ĥà°": 2491,
      "ÙĦÙĬ": 2492,
      "áĢĦáĢºáĢ¸áĢ": 2493,
      "ĠØªÙĪ": 2494,
      "Ã¤l": 2495,
      "ãĤĤ": 2496,
      "ĠÃ¥": 2497,
      "Ø¥": 2498,
      "Ġáĥķ": 2499,
      "ink": 2500,
      "que": 2501,
      "ÑĥÑĤ": 2502,
      "ĠÏĩ": 2503,
      "Ġê°": 2504,
      "Ġtu": 2505,
      "Ġ\",\"": 2506,
      "ÛĮÙħ": 2507,
      "ÉĻl": 2508,
      "Õ¶": 2509,
      "à±ģà°²": 2510,
      "Ã«n": 2511,
      "áĢŃáĢ¯áĤĶ": 2512,
      "à®¨à¯įà®¤": 2513,
      "áĢ¯áĢ¶": 2514,
      "Ð°ÑĤÐ¸": 2515,
      "Ġdat": 2516,
      "áĢĢáĢ¼": 2517,
      "áĢĬáĢ¹": 2518,
      "ë¥": 2519,
      "Ġà¤®à¥ĩà¤Ĥ": 2520,
      "Ġãģ": 2521,
      "xt": 2522,
      "Ġáĥĳ": 2523,
      "iki": 2524,
      "red": 2525,
      "àª¦": 2526,
      "àª¾àª¯": 2527,
      "Ġ2012": 2528,
      "ÈĻ": 2529,
      "Ã¸r": 2530,
      "30": 2531,
      "kt": 2532,
      "ĠÎ¸": 2533,
      "à¦¿à¦ķ": 2534,
      "yt": 2535,
      "æŃ": 2536,
      "ix": 2537,
      "æĶ": 2538,
      "OM": 2539,
      "æµ": 2540,
      "ĠâĤ¬": 2541,
      "Ġind": 2542,
      "Ġpas": 2543,
      "Ġju": 2544,
      "Ġatt": 2545,
      "ĠÑģÐ²": 2546,
      "ÏĦÎ¬": 2547,
      "ĠáĥĲáĥł": 2548,
      "à´°àµįâĢį": 2549,
      "àªľ": 2550,
      "ea": 2551,
      "ÉĻt": 2552,
      "è¦": 2553,
      "Ġwith": 2554,
      "Ġyou": 2555,
      "à¸²à¸¢": 2556,
      "ÐµÐ³": 2557,
      "àª¡": 2558,
      "ÉĽ": 2559,
      "ÚĪ": 2560,
      "??": 2561,
      "áĥĶáĥķ": 2562,
      "Ġul": 2563,
      "à¤¯": 2564,
      "Ġmga": 2565,
      "yl": 2566,
      "à¹Ģ": 2567,
      "ii": 2568,
      "ione": 2569,
      "itt": 2570,
      "ÙĬØ¯": 2571,
      "éģ": 2572,
      "çº¿": 2573,
      "à«ĩàª²": 2574,
      "à´¾à´£": 2575,
      "áĢ±áĢĶ": 2576,
      "ìľ": 2577,
      "Ġ×Ĺ": 2578,
      "æ´": 2579,
      "ĠÛģÙĪ": 2580,
      "Ġå¤§åıĳ": 2581,
      "ect": 2582,
      "Ġà°°": 2583,
      "99": 2584,
      "à¸Ĺà¸µà¹Ī": 2585,
      "áĢ¬áĢĢáĢ¹áĢ": 2586,
      "OR": 2587,
      "ĠÎľ": 2588,
      "ĠAd": 2589,
      "ØªÛĮ": 2590,
      "Ġcont": 2591,
      "bu": 2592,
      "Ġìķ": 2593,
      "ret": 2594,
      "ìĥ": 2595,
      "ÑĥÑģ": 2596,
      "Î£": 2597,
      "Ġdin": 2598,
      "æŀ": 2599,
      "å®¶": 2600,
      "Î»Î»": 2601,
      "ĠØ§ÛĮÙĨ": 2602,
      "æł": 2603,
      "Ġ31": 2604,
      "dan": 2605,
      "nÃ©": 2606,
      "à±Ī": 2607,
      "ĠÙħÙĪ": 2608,
      "AS": 2609,
      "Ġë°": 2610,
      "Ã¡c": 2611,
      "ä¼ļ": 2612,
      "à¸£à¸°": 2613,
      "Ø±Ø¨": 2614,
      "ĠÎ·": 2615,
      "pp": 2616,
      "Å¯": 2617,
      "Ð¾Ð¸": 2618,
      "à¹Īà¸Ń": 2619,
      "ÏģÎ¬": 2620,
      "Ġca": 2621,
      "Ġeen": 2622,
      "ê¸°": 2623,
      "áĢĬáĢ¹áĢ¸": 2624,
      "áĥĶáĥĹ": 2625,
      "æĪı": 2626,
      "ÐµÑģÑĤ": 2627,
      "×Ļ×¨": 2628,
      "Ðĺ": 2629,
      "à¦¾à¦²": 2630,
      "ark": 2631,
      "æİ": 2632,
      "ãĥĥ": 2633,
      "ĠÏĢÎ¿Ïħ": 2634,
      "Ġkwa": 2635,
      "ìĦľ": 2636,
      "ĠÃ¤": 2637,
      "ula": 2638,
      "áĥĺáĥĲ": 2639,
      "à®¾à®ķ": 2640,
      "esti": 2641,
      "ave": 2642,
      "ãģĨ": 2643,
      "net": 2644,
      "mas": 2645,
      "à¸Ķà¹ī": 2646,
      "áĥĲáĥ®": 2647,
      "Ø§ÙĬ": 2648,
      "ÐµÑĪ": 2649,
      "áĢ¬áĢĦáĢ¹áĢ¸": 2650,
      "ÐµÑĩ": 2651,
      "Ġ\":\"": 2652,
      "ji": 2653,
      "Ġrec": 2654,
      "ãĤĮ": 2655,
      "ìĿ¼": 2656,
      "à´¨àµįà´": 2657,
      "å¹³åı°": 2658,
      "Ġäºļ": 2659,
      "ĠØ§ÙĦØ³": 2660,
      "éĿ": 2661,
      "à¯Ģ": 2662,
      "ĠàªŃ": 2663,
      "Ø§Ø¬": 2664,
      "ando": 2665,
      "ãĤ¤": 2666,
      "ÎŃÏĤ": 2667,
      "ins": 2668,
      "Ġbat": 2669,
      "Ġbar": 2670,
      "à®°à¯į": 2671,
      "22": 2672,
      "Ġur": 2673,
      "Õ«": 2674,
      "ĠÐ²Ñĭ": 2675,
      "à®¿à®±": 2676,
      "æ¸¸æĪı": 2677,
      "ĠÎĶ": 2678,
      "ace": 2679,
      "ç§": 2680,
      "ĠáĢĨ": 2681,
      "áĢĲáĢļáĢ¹": 2682,
      "oto": 2683,
      "à´¿à´°": 2684,
      "enti": 2685,
      "yo": 2686,
      "ĮĢ": 2687,
      "ĠOn": 2688,
      "ĠØ±ÙĪ": 2689,
      "ĠSp": 2690,
      "ÛĮØ§": 2691,
      "Ð¸Ð»Ð¸": 2692,
      "ãĤī": 2693,
      "ede": 2694,
      "elt": 2695,
      "16": 2696,
      "Ġson": 2697,
      "à´¿à´¨": 2698,
      "Ø±Ø¯": 2699,
      "ĠÙĨÛĴ": 2700,
      "80": 2701,
      "àª¾àª¤": 2702,
      "Ð½Ð¾ÑģÑĤ": 2703,
      "áĢ±áĢĽ": 2704,
      "kl": 2705,
      "ìĸ": 2706,
      "aren": 2707,
      "Îķ": 2708,
      "Ġàªªà«įàª°": 2709,
      "áĢĲáĢº": 2710,
      "Ġà¹ģ": 2711,
      "ors": 2712,
      "Ġmeng": 2713,
      "à¸£à¸µ": 2714,
      "ĠÂ°": 2715,
      "áĢ¶áĢ¯": 2716,
      "its": 2717,
      "ym": 2718,
      "á»ģ": 2719,
      "ante": 2720,
      "ÑĨÑĸ": 2721,
      "Ġà¦ªà§įà¦°": 2722,
      "åĳ": 2723,
      "ÐµÑĤÐ¾": 2724,
      "à¯įà®ļ": 2725,
      "Ã¢n": 2726,
      "Ã´ng": 2727,
      "ÙĨØ§": 2728,
      "Ø§Ø±ÛĮ": 2729,
      "Î¹Ïĥ": 2730,
      "ÑĨÐ°": 2731,
      "áĥ£áĥļ": 2732,
      "ìĽ": 2733,
      "å¼Ģ": 2734,
      "ĠÏĥÏħ": 2735,
      "ĠáĥłáĥĿáĥĽ": 2736,
      "Ú¾ÛĮ": 2737,
      "ĠÑĢÐ°Ð·": 2738,
      "ÙĴ": 2739,
      "urs": 2740,
      "àª³": 2741,
      "Ð»Ñĸ": 2742,
      "êµ": 2743,
      "ç¾": 2744,
      "Ġbes": 2745,
      "áĢ·áĢº": 2746,
      "æĭ": 2747,
      "ÙħÙĦ": 2748,
      "áĥĲáĥ¢": 2749,
      "ĠáĢģ": 2750,
      "nya": 2751,
      "à´¾à´°": 2752,
      "à®ªà¯įà®ª": 2753,
      "à¦¿à¦¨": 2754,
      "çĶ¨": 2755,
      "áĥĲáĥĹ": 2756,
      "ĠâĢ¢": 2757,
      "jÃ«": 2758,
      "Ð¸Ð¹": 2759,
      "elo": 2760,
      "Ã¥r": 2761,
      "ç«Ļ": 2762,
      "apa": 2763,
      "isk": 2764,
      "áĢķáĢº": 2765,
      "à¤£": 2766,
      "ĠÙħØŃ": 2767,
      "à´¾à´¨": 2768,
      "oni": 2769,
      "Æ¡": 2770,
      "ëĤ": 2771,
      "áĢĺ": 2772,
      "alar": 2773,
      "á»ĥ": 2774,
      "Ġcomp": 2775,
      "esi": 2776,
      "15": 2777,
      "ej": 2778,
      "åĴ": 2779,
      "ilm": 2780,
      "cht": 2781,
      "yr": 2782,
      "ima": 2783,
      "æīĭæľº": 2784,
      "à®ļ": 2785,
      "ĠáĢĶ": 2786,
      "agi": 2787,
      "Ġthat": 2788,
      "tuk": 2789,
      "áĥ£áĥļáĥĺ": 2790,
      "à¦Ĺ": 2791,
      "val": 2792,
      "à´Ļàµįà´Ļ": 2793,
      "Ð¾ÑĤÐ¾": 2794,
      "Ġmai": 2795,
      "ĠÚ©Ùĩ": 2796,
      "Ġà®İà®©": 2797,
      "Ø±Ùģ": 2798,
      "å¤©": 2799,
      "×Ł": 2800,
      "Ġà¦°": 2801,
      "tik": 2802,
      "Ã©g": 2803,
      "à°Ĥà°¦": 2804,
      "à¹Īà¸ĩ": 2805,
      "ank": 2806,
      "Ø¹Ø¯": 2807,
      "à¤¡": 2808,
      "ÃŃt": 2809,
      "Äĩ": 2810,
      "Ġà®ī": 2811,
      "Ġpi": 2812,
      "ÑıÑĤ": 2813,
      "áĥĳ": 2814,
      "imi": 2815,
      "ĠØ¨Ø§": 2816,
      "Ð°Ð½Ð´": 2817,
      "nie": 2818,
      "ÏģÎ¯": 2819,
      "Ġid": 2820,
      "ĠAm": 2821,
      "ëĵ": 2822,
      "à¯ģà®ķ": 2823,
      "Ġreg": 2824,
      "ìĿĢ": 2825,
      "æĸ°": 2826,
      "ãĥĪ": 2827,
      "ĠáĢĴ": 2828,
      "ÏĦÎ±Î¹": 2829,
      "à±įâĢĮ": 2830,
      "77": 2831,
      "Ġsal": 2832,
      "ego": 2833,
      "Ġàª¹àª¤": 2834,
      "à¦¾à¦®": 2835,
      "ire": 2836,
      "ĠÎµÏĢ": 2837,
      "à¥ĭà¤Ĥ": 2838,
      "ĠÄ°": 2839,
      "ØªÙĩ": 2840,
      "ĠØ§Ùħ": 2841,
      "wo": 2842,
      "Ã©n": 2843,
      "ĠØ£ÙĨ": 2844,
      "Ġare": 2845,
      "áĥĲáĥłáĥĹ": 2846,
      "iti": 2847,
      "ìĤ¬": 2848,
      "ĠÐ¸Ð½": 2849,
      "ember": 2850,
      "×ķ×ĵ": 2851,
      "Ã§Ã£o": 2852,
      "36": 2853,
      "áĤĪ": 2854,
      "Ġsam": 2855,
      "ÙħØ§": 2856,
      "à¯Ĥ": 2857,
      "á»§": 2858,
      "Ð½Ðµ": 2859,
      "Ġàª¥": 2860,
      "ÑĥÐ±": 2861,
      "áĥĶáĥłáĥ": 2862,
      "áĢĿ": 2863,
      "Ġà¤¯": 2864,
      "aliz": 2865,
      "à´¿à´²àµįâĢį": 2866,
      "ÑĥÑĩ": 2867,
      "áĢĲáĢ¬": 2868,
      "à¤¾à¤¤": 2869,
      "Ġ2011": 2870,
      "áĢĻáĢ¹áĢ¸": 2871,
      "otel": 2872,
      "à¸·à¸Ń": 2873,
      "du": 2874,
      "ĠÐ´Ð¾": 2875,
      "Ġà¤ķà¥Ģ": 2876,
      "iga": 2877,
      "ras": 2878,
      "akan": 2879,
      "Īĺ": 2880,
      "Ġdit": 2881,
      "èĤ": 2882,
      "Ġmag": 2883,
      "ĠÐĽ": 2884,
      "ĠÒ": 2885,
      "Ġà¤Ĺ": 2886,
      "att": 2887,
      "Ġ×ª": 2888,
      "uy": 2889,
      "áĢ±áĢ¸áĢ": 2890,
      "14": 2891,
      "enn": 2892,
      "18": 2893,
      "ĠØ¨Ø§ÙĦ": 2894,
      "ĠÏĢÏģÎ¿": 2895,
      "àª¥à«Ģ": 2896,
      "áĥĶáĥĵ": 2897,
      "Ġ35": 2898,
      "ener": 2899,
      "×ķ×Ł": 2900,
      "Ġáĥľ": 2901,
      "ĠØ§ÙĦØŃ": 2902,
      "erv": 2903,
      "Î¹Î¿": 2904,
      "Ġà°Ĩ": 2905,
      "ĸáĥĶ": 2906,
      "áĢŃáĢ¯áĢ·": 2907,
      "ì²": 2908,
      "à±ģà°¨": 2909,
      "ÃŃa": 2910,
      "Ġge": 2911,
      "ĠCon": 2912,
      "àµįà´²": 2913,
      "à¤¾à¤Ĥ": 2914,
      "Ġbet": 2915,
      "Ġà¦¶": 2916,
      "Ġà¸ª": 2917,
      "ĠÙĦÙĦ": 2918,
      "à¦°à§įà¦": 2919,
      "Ġaj": 2920,
      "old": 2921,
      "à«įàª¤": 2922,
      "áĥĿáĥķ": 2923,
      "Ġall": 2924,
      "áºŃ": 2925,
      "Ġà´ĩ": 2926,
      "ake": 2927,
      "à±Ĭ": 2928,
      "ĠÐ¿ÐµÑĢ": 2929,
      "ÎµÎ½": 2930,
      "ĠÑģÐ¿": 2931,
      "ĠÏĥÏĦÎ¿": 2932,
      "àª¶": 2933,
      "áĥª": 2934,
      "ĀĀĀĀ": 2935,
      "........": 2936,
      "ige": 2937,
      "âĢ¦": 2938,
      "ĠÐ¿ÑĢÐ¾": 2939,
      "ubl": 2940,
      "ÙĨÛĴ": 2941,
      "áĢŃáĢ¯áĢĦáĢ¹áĢ": 2942,
      ").": 2943,
      "£¼": 2944,
      "engan": 2945,
      "ĠNo": 2946,
      "Ġê²": 2947,
      "ren": 2948,
      "ĠÄį": 2949,
      "iew": 2950,
      "aga": 2951,
      "ros": 2952,
      "EL": 2953,
      "ĠÑĤÑĢ": 2954,
      "Ġcl": 2955,
      "Ġwas": 2956,
      "ico": 2957,
      "ĠÏĦÎ±": 2958,
      "ĠìĹ": 2959,
      "è¡Į": 2960,
      "men": 2961,
      "×ķ×ĳ": 2962,
      "Ġamb": 2963,
      "aha": 2964,
      "ÖĤ": 2965,
      "ker": 2966,
      "à¤¿à¤¯": 2967,
      "Ġmeg": 2968,
      "Ġ×¨": 2969,
      "Ġà´ļ": 2970,
      "à®¿à®Ł": 2971,
      "ĠÃº": 2972,
      "àµģà´Ł": 2973,
      "ĠfÃ¶r": 2974,
      "ĠvÃł": 2975,
      "Ġty": 2976,
      "áĥ¥": 2977,
      "Ø³ÛĮ": 2978,
      "Ġjo": 2979,
      "Ð¾Ð»ÑĮ": 2980,
      "ìĬ¤": 2981,
      "à´¿à´ļàµįà´ļ": 2982,
      "áĥĻ": 2983,
      "àª¿àªķ": 2984,
      "Ġmil": 2985,
      "Ġçİ": 2986,
      "Ð°Ñļ": 2987,
      "ÏģÏĮ": 2988,
      "áĢĸáĢħáĢ¹áĢ": 2989,
      "let": 2990,
      "eko": 2991,
      "åĴĮ": 2992,
      "à¤¬": 2993,
      "Ġàªļ": 2994,
      "áĥĺáĥł": 2995,
      "×Ļ×ł": 2996,
      "land": 2997,
      "ings": 2998,
      "Ġwat": 2999,
      "Ġåħ": 3000,
      "à±ģà°Ĥà°": 3001,
      "ju": 3002,
      "Ø¯Ùĩ": 3003,
      "ST": 3004,
      "Ø§ÙĨÛĮ": 3005,
      "Ġà¤ķà¤°": 3006,
      "ÏĦÎ®": 3007,
      "à¤ľ": 3008,
      "ars": 3009,
      "æĿ¥": 3010,
      "Ġlos": 3011,
      "Î¿ÏħÎ½": 3012,
      "ÏĥÎµÎ¹": 3013,
      "Ġä»": 3014,
      "à¦¼": 3015,
      "Ġàª®àª¾àª": 3016,
      "Ġá»į": 3017,
      "à±ģà°ķ": 3018,
      "×ķ×ł": 3019,
      "Ġà¦¯": 3020,
      "ben": 3021,
      "ken": 3022,
      "eks": 3023,
      "Ġ@": 3024,
      "çĶŁ": 3025,
      "à¦¾à§Ł": 3026,
      "áĥĿáĥĵ": 3027,
      "ÅĨ": 3028,
      "á»ĭ": 3029,
      "à¤¾à¤²": 3030,
      "áĢ±áĢĲáĢ¬": 3031,
      "áĢ½áĢŃ": 3032,
      "æ¬": 3033,
      "àªŁ": 3034,
      "ÙĬÙĦ": 3035,
      "vel": 3036,
      "ĠØ±Ø§": 3037,
      "af": 3038,
      "17": 3039,
      "Ġsc": 3040,
      "Ġup": 3041,
      "ÐµÐ±": 3042,
      "Ð¾Ð½Ð¸": 3043,
      "áĢ²áĤĶ": 3044,
      "Ġati": 3045,
      "ØªÙħ": 3046,
      "à®¾à®²": 3047,
      "áĢĲáĢ²áĢ·": 3048,
      "ìĿ¸": 3049,
      "24": 3050,
      "Ġkl": 3051,
      "Ġ×¤": 3052,
      "à®©à¯į": 3053,
      "Ġà°ªà±įà°°": 3054,
      "ĠàªĨàªµ": 3055,
      "Ġ<": 3056,
      "Ð°Ð´Ð¸": 3057,
      "Ŀ¼": 3058,
      "àª§": 3059,
      "Ã¶n": 3060,
      "Ġfin": 3061,
      "à¦¿à¦¤": 3062,
      "Ġnd": 3063,
      "Ġcan": 3064,
      "Ġpres": 3065,
      "zt": 3066,
      "ĠÎ²": 3067,
      "à¦¿à§Ł": 3068,
      "Ġàª«": 3069,
      "àµģà´ķ": 3070,
      "à¯įà®²": 3071,
      "Ġga": 3072,
      "ero": 3073,
      "UR": 3074,
      ");": 3075,
      "ÐĿ": 3076,
      "ĠáĢĳ": 3077,
      "Ġáĥ®": 3078,
      "ĠvÉĻ": 3079,
      "Ġseg": 3080,
      "Ġinc": 3081,
      "for": 3082,
      "ĠÑĤÐ°Ðº": 3083,
      "33": 3084,
      "à¸²à¸Ļ": 3085,
      "66": 3086,
      "ction": 3087,
      "ë¦¬": 3088,
      "×Ļ×Ķ": 3089,
      "åĩº": 3090,
      "anya": 3091,
      "Ġàªªàª°": 3092,
      "ÑĸÐ½": 3093,
      "Ġek": 3094,
      "Ĺà°¾": 3095,
      "çīĪ": 3096,
      "ĠÑģÐ»": 3097,
      "Ġcons": 3098,
      "ĠSo": 3099,
      "Ġà¤ķà¥ĭ": 3100,
      "à«ĩàª®": 3101,
      "áĢ±áĢĲáĢ¼": 3102,
      "Ã¡m": 3103,
      "èĩ": 3104,
      "uv": 3105,
      "áŀ": 3106,
      "Ġmy": 3107,
      "Ġgj": 3108,
      "ÉĶ": 3109,
      "ĠÏĨ": 3110,
      "Ġæľ": 3111,
      "Ġàªķà«ĩ": 3112,
      "alo": 3113,
      "à¤Ł": 3114,
      "à¦¹": 3115,
      "Î¼Î¿": 3116,
      "Ġnot": 3117,
      "å¨": 3118,
      "ãĤĵ": 3119,
      "ä¸ī": 3120,
      "go": 3121,
      "áĥ¨áĥĺ": 3122,
      "lam": 3123,
      "Ð°Ñİ": 3124,
      "Ġìĺ": 3125,
      "ald": 3126,
      "ä½ĵ": 3127,
      "à¤¨à¥ĩ": 3128,
      "áĢŃáĢ³": 3129,
      "ĠÅ¡": 3130,
      "ĠØ§ÙĦÙĦ": 3131,
      "Ġà¤Ń": 3132,
      "áĢŃáĢ¯áĢ¸áĢ": 3133,
      "Ð¸Ð¸": 3134,
      "åľ°": 3135,
      "Ä±ÅŁ": 3136,
      "ĠHo": 3137,
      "Ġà´Ĩ": 3138,
      "ET": 3139,
      "tim": 3140,
      "ÑĢÑĭ": 3141,
      "ç½ĳç«Ļ": 3142,
      "Ġthis": 3143,
      "à¦¾à¦ķ": 3144,
      "à°¿à°Ĥà°ļ": 3145,
      "æ²": 3146,
      "ÐµÐ¶": 3147,
      "Ġcol": 3148,
      "als": 3149,
      "ëıĦ": 3150,
      "à¸ĸ": 3151,
      "ph": 3152,
      "áº§": 3153,
      "Ä±m": 3154,
      "ÑĸÐ»": 3155,
      "ÛĮÚ©": 3156,
      "Ġ2010": 3157,
      "Ġà¤ī": 3158,
      "aki": 3159,
      "ban": 3160,
      "à¸¥à¸°": 3161,
      "tir": 3162,
      "Ġuz": 3163,
      "esta": 3164,
      "Î±ÏĤ": 3165,
      "Ġ×Ĳ×ª": 3166,
      "ë§Ī": 3167,
      "Ġkr": 3168,
      "Ġë§": 3169,
      "Ġny": 3170,
      "ĠÐ¸Ð¼": 3171,
      "ĠÐºÐ¾": 3172,
      "Ġkar": 3173,
      "ĠÐ¿Ð¾Ð´": 3174,
      "chi": 3175,
      "áĢĶáĢ¹": 3176,
      "åī": 3177,
      "à®´": 3178,
      "à¤¿à¤ķ": 3179,
      "Ġdengan": 3180,
      "áĤıáĢ½": 3181,
      "áĥĺáĥª": 3182,
      "ä½ľ": 3183,
      "Ġáĥ¤": 3184,
      "áĢģáĢº": 3185,
      "Ġuntuk": 3186,
      "èī": 3187,
      "Ġï¼ī": 3188,
      "ces": 3189,
      "áĥķáĥĶáĥļ": 3190,
      "Ġáĥ¥": 3191,
      "ner": 3192,
      "cha": 3193,
      "90": 3194,
      "ĠÐ°Ð´": 3195,
      "anda": 3196,
      "Ġàªĸ": 3197,
      "áĢķáĢ¼": 3198,
      "!!": 3199,
      "Ð¾Ð²Ð°": 3200,
      "ivers": 3201,
      "áĥĿáĥļ": 3202,
      "40": 3203,
      "55": 3204,
      "ÙħÙĨ": 3205,
      "ĠÐ¼Ð¾Ð¶": 3206,
      "Ġini": 3207,
      "áģ¿áĢķ": 3208,
      "à¯įà®ķà®³à¯į": 3209,
      "à®¿à®ķ": 3210,
      "æĥ": 3211,
      "Ġlang": 3212,
      "à®ķà¯įà®ķ": 3213,
      "ger": 3214,
      "Ġkun": 3215,
      "Ø§Ûģ": 3216,
      "Ġai": 3217,
      "áĢĻáĢ¾": 3218,
      "Ġwh": 3219,
      "oko": 3220,
      "ĠnÄģ": 3221,
      "ild": 3222,
      "×ĸ": 3223,
      "000": 3224,
      "à¯ģà®µ": 3225,
      "Ã³w": 3226,
      "ĠØº": 3227,
      "ÉĻs": 3228,
      "ãģı": 3229,
      "åŁ": 3230,
      "Ġà¦Ĺ": 3231,
      "Ġfa": 3232,
      "po": 3233,
      "«ĺ": 3234,
      "åħ¬": 3235,
      "eme": 3236,
      "gen": 3237,
      "ÐµÐ»ÑĮ": 3238,
      "ÏģÎ³": 3239,
      "Ġtot": 3240,
      "Ð°ÑĢÐ¸": 3241,
      "Î¼ÎŃ": 3242,
      "ĠÏĥÏĦÎ·": 3243,
      "Ġher": 3244,
      "elle": 3245,
      "ÑĢÐ°": 3246,
      "ĠPar": 3247,
      "Ġáĥ©": 3248,
      "Ġà®Ĩ": 3249,
      "alt": 3250,
      "Ġsup": 3251,
      "ä¾": 3252,
      "13": 3253,
      "70": 3254,
      "ĠÏĥÎµ": 3255,
      "ste": 3256,
      "á»Ľ": 3257,
      "AM": 3258,
      "ÙħÛĮ": 3259,
      "ìĺ": 3260,
      "akt": 3261,
      "Ġhu": 3262,
      "ĠOr": 3263,
      "é¡": 3264,
      "ores": 3265,
      "jo": 3266,
      "kin": 3267,
      "ÑĶ": 3268,
      "ĠÛģÛĮÚº": 3269,
      "ãĥ«": 3270,
      "Ã½ch": 3271,
      "Ľà§ĩ": 3272,
      "ld": 3273,
      "Ġ32": 3274,
      "entru": 3275,
      "ket": 3276,
      "uta": 3277,
      "à®£à¯įà®Ł": 3278,
      "åĲĪ": 3279,
      "à´Łàµįà´Ł": 3280,
      "ĠQu": 3281,
      "à¹Ģà¸Ľ": 3282,
      "ÎŁÎ": 3283,
      "áĢĽáĢ¬": 3284,
      "Ġpost": 3285,
      "ien": 3286,
      "ĠâĨ": 3287,
      "iko": 3288,
      "Ġåı": 3289,
      "Ġvol": 3290,
      "àµĬ": 3291,
      "vis": 3292,
      "ĠÏĢÎ±": 3293,
      "ÑģÑĮ": 3294,
      "à¸±à¸ĩ": 3295,
      "Ð¾Ñĩ": 3296,
      "àµ½": 3297,
      "pos": 3298,
      "àª¿àª¯": 3299,
      "Ġstr": 3300,
      "Ġìĭ": 3301,
      "áĥĿáĥł": 3302,
      "Ġif": 3303,
      "Î¬Î½": 3304,
      "IT": 3305,
      "ÑĤÑĮ": 3306,
      "Ġàª¤à«ĩ": 3307,
      "ĠlÃł": 3308,
      "à¸¡à¹Ī": 3309,
      "áĢŁ": 3310,
      "Î¿Î»": 3311,
      "àµ¼": 3312,
      "own": 3313,
      "×Ļ×ľ": 3314,
      "Ġsin": 3315,
      "ÙĨÚ¯": 3316,
      "Ĺà¸µà¹Ī": 3317,
      "ÙĪØ¨": 3318,
      "à§ģà¦": 3319,
      "Ġlas": 3320,
      "ush": 3321,
      "vo": 3322,
      "Ð½Ð¾Ð³Ð¾": 3323,
      "ÏĦÏĮ": 3324,
      "Ġ45": 3325,
      "Õ¸ÖĤ": 3326,
      "ott": 3327,
      "Ð¢": 3328,
      "ìĭľ": 3329,
      "Å£": 3330,
      "Ã¤Ã¤": 3331,
      "Ðķ": 3332,
      "ëħ": 3333,
      "à®¿à®¤": 3334,
      "à°¾à°°à±ģ": 3335,
      "alit": 3336,
      "à´ªàµįà´ª": 3337,
      "Ð°Ð³Ð°": 3338,
      "ĠPer": 3339,
      "áĢŃáĢ¯áĢĦáĢº": 3340,
      "Ã¹": 3341,
      "Ġbel": 3342,
      "Ġ×§": 3343,
      "Ġseb": 3344,
      "ĠáĢ»": 3345,
      "à¸±à¸Ļ": 3346,
      "Ġein": 3347,
      "Ġyo": 3348,
      "Ġcar": 3349,
      "ÑĥÐº": 3350,
      "à°¨à°¿": 3351,
      "ĠPl": 3352,
      "Ġà«": 3353,
      "ë¥¼": 3354,
      "Ð¾ÑĪ": 3355,
      "ille": 3356,
      "Ġà¦ļ": 3357,
      "ĠÎ»": 3358,
      "fic": 3359,
      "åľ¨çº¿": 3360,
      "Ġàªī": 3361,
      "ĠÎ±Î½": 3362,
      "à¸¶": 3363,
      "Ġsur": 3364,
      "à¸±à¸Ļà¸": 3365,
      "ĠÑī": 3366,
      "ÙĩÙħ": 3367,
      "ðŁ": 3368,
      "à¦¾à¦¦": 3369,
      "àªµàª¾": 3370,
      "lÉĻr": 3371,
      "Ġsem": 3372,
      "Ġï¼Ī": 3373,
      "áĢĲáĢ½": 3374,
      "Ġtid": 3375,
      "ĠpÅĻ": 3376,
      "Ġdr": 3377,
      "àª¬": 3378,
      "áĢ»áĢķ": 3379,
      "Ġker": 3380,
      "ideo": 3381,
      "å°ı": 3382,
      "è¾": 3383,
      "Ġdem": 3384,
      "Ø¦ÛĴ": 3385,
      "Î»Î·": 3386,
      "Ð¸Ñħ": 3387,
      "áĥ¬": 3388,
      "Ġinform": 3389,
      "ova": 3390,
      "æľ¬": 3391,
      "ĠTe": 3392,
      "Ð¸Ð½Ð°": 3393,
      "oma": 3394,
      "ĠìĦ": 3395,
      "ÙĦØ§Ùħ": 3396,
      "à¸²à¸ĩ": 3397,
      "ĠAz": 3398,
      "æĻ": 3399,
      "ign": 3400,
      "Ġsl": 3401,
      "å¸Ĥ": 3402,
      "àª¨à«įàª": 3403,
      "ê±": 3404,
      "æ±": 3405,
      "Ġsy": 3406,
      "à§įà¦Ł": 3407,
      "ĠNew": 3408,
      "åĿĢ": 3409,
      "ĠÏħ": 3410,
      "ĠáĢĺ": 3411,
      "ahi": 3412,
      "Ġvis": 3413,
      "ÑĢÐ°Ñ": 3414,
      "Ġtre": 3415,
      "ĠPre": 3416,
      "IC": 3417,
      "æ³¨": 3418,
      "Ġá¹£": 3419,
      "áĥĶáĥĳáĥ¡": 3420,
      "Ġmit": 3421,
      "ĠGr": 3422,
      "Ġist": 3423,
      "cz": 3424,
      "uma": 3425,
      "aba": 3426,
      "iya": 3427,
      "Ġkw": 3428,
      "Ġà°¬": 3429,
      "Äģs": 3430,
      "ë°": 3431,
      "ook": 3432,
      "ĠÎŁ": 3433,
      "ĠAs": 3434,
      "uf": 3435,
      "Ġkas": 3436,
      "Ġàªªàª£": 3437,
      "ĠEr": 3438,
      "----": 3439,
      "à°°à±įà°": 3440,
      "ional": 3441,
      "sz": 3442,
      "íķ´": 3443,
      "ĠÅ¾": 3444,
      "æĪ·": 3445,
      "Ġdos": 3446,
      "ÏīÏĤ": 3447,
      "atur": 3448,
      "Ġà¤ĩ": 3449,
      "Ġra": 3450,
      "Ġ60": 3451,
      "eder": 3452,
      "ono": 3453,
      "ĠPh": 3454,
      "çĲĨ": 3455,
      "Ġà¤¸à¥ĩ": 3456,
      "áĢ¬áĢĦáĢ¹áĢ": 3457,
      "Ġvir": 3458,
      "ĠÐ¤": 3459,
      "ĠáĥĲáĥĽ": 3460,
      "áĢĴ": 3461,
      "æĮ": 3462,
      "Ġê³": 3463,
      "ados": 3464,
      "Ġà¸ģ": 3465,
      "Î¯Î½Î±Î¹": 3466,
      "å½©ç¥": 3467,
      "60": 3468,
      "25": 3469,
      "pt": 3470,
      "ĠÙħØ³": 3471,
      "íĬ": 3472,
      "Ġà°¦": 3473,
      "ĠqÃ«": 3474,
      "rac": 3475,
      "Ã¦r": 3476,
      "Ð°Ð»Ñĸ": 3477,
      "ock": 3478,
      "Âµ": 3479,
      "ÑĥÑİ": 3480,
      "àª¾àª®àª¾àªĤ": 3481,
      "angan": 3482,
      "Ġ34": 3483,
      "Ġà°ĩ": 3484,
      "àµĩà´": 3485,
      "ÎĹ": 3486,
      "Ġ33": 3487,
      "à¥įà¤¤": 3488,
      "ĠØ§ÙĦÙĤ": 3489,
      "á»±": 3490,
      "ĠÐŁÑĢ": 3491,
      "¯à¦¼": 3492,
      "ä¸º": 3493,
      "æľĪ": 3494,
      "Úĳ": 3495,
      "Ġpot": 3496,
      "àª¨à«ĭ": 3497,
      "à¹Ħà¸Ķà¹ī": 3498,
      "ĠNa": 3499,
      "Æ°á»Ŀ": 3500,
      "ÏģÎµ": 3501,
      "ĠØ§ÙĦØ¬": 3502,
      "OS": 3503,
      "à¹īà¸Ń": 3504,
      "ÙĨÛĮ": 3505,
      "áĢ¯áĢķáĢ¹áĢ": 3506,
      "ĠVi": 3507,
      "aks": 3508,
      "Õ¡Õ¶": 3509,
      "Ġ×Ĵ": 3510,
      "ä¸ª": 3511,
      "ciÃ³n": 3512,
      "à¸±à¹ī": 3513,
      "ÙĦÙī": 3514,
      "fr": 3515,
      "Ð°Ð»Ð¸": 3516,
      "Ġà¤ªà¥įà¤°": 3517,
      "ç¾İ": 3518,
      "Ġtur": 3519,
      "ãĢĤ": 3520,
      "Ġà¦¬à¦¿à¦": 3521,
      "ania": 3522,
      "ãģį": 3523,
      "ÑĬÑĢ": 3524,
      "une": 3525,
      "Ġover": 3526,
      "ĠØ¹ÙĨ": 3527,
      "à´¿à´ķ": 3528,
      "ĠÐ¿ÑĢÐµÐ´": 3529,
      "ì¹": 3530,
      "Ġdar": 3531,
      "**": 3532,
      "ĠÙĨÛģ": 3533,
      "áĥĿáĥĴ": 3534,
      "Ġà¤¶": 3535,
      "ĠÐ´Ð»Ñı": 3536,
      "ĠDet": 3537,
      "Î½Î·": 3538,
      "tig": 3539,
      "ë³": 3540,
      "Ø±Ø§ÙĨ": 3541,
      "ĠÐ¥": 3542,
      "ativ": 3543,
      "Ġà¨": 3544,
      "Î®ÏĤ": 3545,
      "ÏĥÎµ": 3546,
      "Ø§Øµ": 3547,
      "ĠSa": 3548,
      "ãĤ¯": 3549,
      "Ġ×ľ×Ķ": 3550,
      "çľŁ": 3551,
      "Ġperson": 3552,
      "IS": 3553,
      "Ġnon": 3554,
      "æĦ": 3555,
      "àª¾àª¸": 3556,
      "áĥĿáĥłáĥ": 3557,
      "éĽĨ": 3558,
      "çĶµ": 3559,
      "à´³àµįâĢį": 3560,
      "ekt": 3561,
      "of": 3562,
      "à¹ĥà¸«": 3563,
      "è§Ĩ": 3564,
      "ĠÐ¼Ñĥ": 3565,
      "este": 3566,
      "ath": 3567,
      "ãĥ©": 3568,
      "Ġvoor": 3569,
      "ÉĻk": 3570,
      "ä¸ļ": 3571,
      "áĥĺáĥ¢": 3572,
      "æ¯": 3573,
      "oi": 3574,
      "ĠáĥĵáĥĲáĥ": 3575,
      "à¦¾à¦¤": 3576,
      "áĥĵáĥĲ": 3577,
      "ote": 3578,
      "ÎĳÎ": 3579,
      "able": 3580,
      "ĠBar": 3581,
      "yi": 3582,
      "Ġhttps": 3583,
      "ÑĢÐ°Ð½": 3584,
      "à§įà¦¬": 3585,
      "Ġpu": 3586,
      "Ġ×ĵ": 3587,
      "ÑĥÐ¿": 3588,
      "rav": 3589,
      "par": 3590,
      "à¸µà¸¢": 3591,
      "èĪ": 3592,
      "à´¾à´£àµį": 3593,
      "éĺ": 3594,
      "ĠnjÃ«": 3595,
      "ìķĪ": 3596,
      "à«įàªµ": 3597,
      "²à±ĭ": 3598,
      "Ð°Ð½Ð½Ñı": 3599,
      "Ġnga": 3600,
      "Ä¼": 3601,
      "ree": 3602,
      "ents": 3603,
      "è¦ģ": 3604,
      "Ġà°ī": 3605,
      "ĠhoÊ»": 3606,
      "±ä¹Ĳ": 3607,
      "ĠáĥĴáĥĲáĥĽ": 3608,
      "con": 3609,
      "ĠPost": 3610,
      "ĠNe": 3611,
      "áĥĺáĥĻ": 3612,
      "44": 3613,
      "Ä°": 3614,
      "Äģk": 3615,
      "ÐµÐ¿": 3616,
      "ĠÐķ": 3617,
      "áĢ±áĢ¬áĢĦáĢº": 3618,
      "Î»Î±": 3619,
      "ÉĻd": 3620,
      "èĥ½": 3621,
      "ades": 3622,
      "Ġmal": 3623,
      "Ø¦ÛĮ": 3624,
      "ãĢĳ": 3625,
      "Ġnem": 3626,
      "çł": 3627,
      "edi": 3628,
      "à¦¿à¦°": 3629,
      "ÐµÐ»Ð¸": 3630,
      "åħ¨": 3631,
      "Ġà°Ĺ": 3632,
      "Ġà¤ı": 3633,
      "ĠBl": 3634,
      "à¸ĵ": 3635,
      "met": 3636,
      "Ø¯Ùħ": 3637,
      "bet": 3638,
      "ĠâĢĿ,": 3639,
      "Ġez": 3640,
      "Ġei": 3641,
      "ĠcÃ³": 3642,
      "Ġà¸Ħ": 3643,
      "Ø±Ùħ": 3644,
      "ago": 3645,
      "Ð°ÑĤÑĮ": 3646,
      "Ġinf": 3647,
      "å®ĺæĸ¹": 3648,
      "éĻħ": 3649,
      "ë¶": 3650,
      "Ġhas": 3651,
      "ĠÙħØ´": 3652,
      "æĪĲ": 3653,
      "orn": 3654,
      "larÄ±n": 3655,
      "Ġonline": 3656,
      "Ð»Ð°Ð´": 3657,
      "à¦ľ": 3658,
      "åŃĲ": 3659,
      "ÑģÐ¿": 3660,
      "Ġud": 3661,
      "áĢ±áĢľ": 3662,
      "ĠØ§ÙĦÙĨ": 3663,
      "ella": 3664,
      "Ġà¤ļ": 3665,
      "Ġåĩ": 3666,
      "à¥ģà¤": 3667,
      "Ġ×Ķ×ŀ×": 3668,
      "Î¿Î½": 3669,
      "Ġpal": 3670,
      "à´¦": 3671,
      "åĢ": 3672,
      "Ġdas": 3673,
      "åĵģ": 3674,
      "Ġprof": 3675,
      "à¦ĩ": 3676,
      "anc": 3677,
      "ĠÏĦÏīÎ½": 3678,
      "Ġale": 3679,
      "à®¿à®©à¯į": 3680,
      "ml": 3681,
      "ĠÎµÎ¯Î½Î±Î¹": 3682,
      "Ä¾": 3683,
      "ĠUS": 3684,
      "inin": 3685,
      "à±įà°ª": 3686,
      "ĠÐ¹": 3687,
      "Ġ\".": 3688,
      "ĠIs": 3689,
      "ëł": 3690,
      "ĠHe": 3691,
      "áº¥t": 3692,
      "Ġ2009": 3693,
      "áĢĻáĢ½áĢ¬": 3694,
      "ÑģÐºÐ°": 3695,
      "ED": 3696,
      "Ä±z": 3697,
      "çŃ": 3698,
      "Î»Îµ": 3699,
      "Òĵ": 3700,
      "Ġform": 3701,
      "br": 3702,
      "ĠÑĤÐ°": 3703,
      "Ġ,\"": 3704,
      "áĢĲáĢ¼": 3705,
      "ann": 3706,
      "ÐµÐºÑĤ": 3707,
      "ĠØ§ÙĦØ¨": 3708,
      "Ó£": 3709,
      "Ġà´°": 3710,
      "à°¨à±įà°¨": 3711,
      "à¦¾à¦¬": 3712,
      "áĢľáĢŃáĢ¯": 3713,
      "íĻ": 3714,
      "ĠÑĪÑĤÐ¾": 3715,
      "oli": 3716,
      "Ġsex": 3717,
      "Æ°á»£": 3718,
      "éĥ": 3719,
      "Ġ×ľ×Ĳ": 3720,
      "Ã¶z": 3721,
      "ary": 3722,
      "Ġ199": 3723,
      "Ġà´ªàµįà´°": 3724,
      "à¯įà®³": 3725,
      "àª¿àª¤": 3726,
      "à®¿à®ķà¯įà®ķ": 3727,
      "ely": 3728,
      "ĠSex": 3729,
      "Ġsv": 3730,
      "gram": 3731,
      "à¸ľ": 3732,
      "Ġts": 3733,
      "ÎºÎµ": 3734,
      "Ġnov": 3735,
      "Ġhi": 3736,
      "hl": 3737,
      "ance": 3738,
      "do": 3739,
      "Ġvy": 3740,
      "ose": 3741,
      "ĠmÃ¼": 3742,
      "ĠØ§ÙĦØ´": 3743,
      "Ġì§": 3744,
      "ãģĵ": 3745,
      "ĠÙħØ±": 3746,
      "áĢ¸áĢ±áĢ": 3747,
      "ĠBu": 3748,
      "ÛĮØª": 3749,
      "éĹ¨": 3750,
      "Ġinst": 3751,
      "Ġce": 3752,
      "íĬ¸": 3753,
      "ãĥª": 3754,
      "ĠMe": 3755,
      "Ð¸Ð±": 3756,
      "ÑĭÑı": 3757,
      "áº¡i": 3758,
      "Ġfe": 3759,
      "hr": 3760,
      "ãģ¾ãģĻ": 3761,
      "ĠAnd": 3762,
      "raf": 3763,
      "ä»¥": 3764,
      "çĤ": 3765,
      "ĠØªØŃ": 3766,
      "à®¾à®¤": 3767,
      "ode": 3768,
      "Ã«t": 3769,
      "å¨±ä¹Ĳ": 3770,
      "ual": 3771,
      "ÃŃn": 3772,
      "àª°à«Ģ": 3773,
      "Ġdec": 3774,
      "Ø§Ùĭ": 3775,
      "uro": 3776,
      "uan": 3777,
      "ĠâĢĭâĢĭ": 3778,
      "uss": 3779,
      "ws": 3780,
      "ĠØªØ¹": 3781,
      "dz": 3782,
      "ÙħØ¯": 3783,
      "Ð½ÑĭÑħ": 3784,
      "àµģà´¤": 3785,
      "àµĨà´¯": 3786,
      "ĠBr": 3787,
      "é«ĺ": 3788,
      "Ã©m": 3789,
      "àªļ": 3790,
      "à´£àµįà´Ł": 3791,
      "Ġå°": 3792,
      "ande": 3793,
      "ĠTo": 3794,
      "à«ĩàªµ": 3795,
      "ido": 3796,
      "åĪ°": 3797,
      "ÐµÐ½Ð½Ñı": 3798,
      "ÙĢÙĢ": 3799,
      "àµįâĢĮ": 3800,
      "apat": 3801,
      "ĠIt": 3802,
      "ĠáĥĿ": 3803,
      "à¦¾à¦¸": 3804,
      "28": 3805,
      "Ġcn": 3806,
      "å¤ļ": 3807,
      "ator": 3808,
      "Ð½Ð¸Ð½Ð³": 3809,
      "ĠEs": 3810,
      "×Ļ×Ł": 3811,
      "inen": 3812,
      "usi": 3813,
      "Äģr": 3814,
      "Ġout": 3815,
      "ĠØ§ÙĦÙģ": 3816,
      "Ġ38": 3817,
      "áĤĢ": 3818,
      "Ġtel": 3819,
      "ì£¼": 3820,
      "ĠìĿ´": 3821,
      "à¦¾à¦ĩ": 3822,
      "ÙĩØ§ÛĮ": 3823,
      "Ġàªıàªķ": 3824,
      "ĠÎ±Ïħ": 3825,
      "Ð°Ñĺ": 3826,
      "ĠKa": 3827,
      "àµģà´®": 3828,
      "ĠÐ³Ð¾Ð´": 3829,
      "Ġcomo": 3830,
      "Ġsek": 3831,
      "à¦Ĥ": 3832,
      "ĠÐºÐ¾Ð¼": 3833,
      "ÙĪØ²": 3834,
      "Ġà¦ī": 3835,
      "ux": 3836,
      "à®ª": 3837,
      "ÐµÐ½Ð¸Ðµ": 3838,
      "ĠÏĢÎµ": 3839,
      "ÐµÑĨ": 3840,
      "ÙĪØ¹": 3841,
      "á»Ľi": 3842,
      "Ġ×¡": 3843,
      "Ġev": 3844,
      "Ġsch": 3845,
      "alis": 3846,
      "Ġ=\"": 3847,
      "ãģĹãģ¦": 3848,
      "»¿": 3849,
      "ĠMan": 3850,
      "à¹Ģà¸¥": 3851,
      "à°Ĺ": 3852,
      "ikan": 3853,
      "Ð¼Ð¸": 3854,
      "Ġset": 3855,
      "ãģķ": 3856,
      "äº¬": 3857,
      "erk": 3858,
      "ĠAc": 3859,
      "Ä±l": 3860,
      "uni": 3861,
      "ĠÙĩÙħ": 3862,
      "×ĳ×¨": 3863,
      "Ġà¦ĵ": 3864,
      "à¯įà®µ": 3865,
      "Ø§Ø®": 3866,
      "IL": 3867,
      "ÑĥÐ²Ð°": 3868,
      "Ġleg": 3869,
      "Ġweb": 3870,
      "Ġfrom": 3871,
      "Ġçİ¯äºļ": 3872,
      "esh": 3873,
      "Ġ80": 3874,
      "×ł×Ļ": 3875,
      "Ð°ÑļÐµ": 3876,
      "à¯ģà®®": 3877,
      "Ġà®ļà¯Ĩ": 3878,
      "ëĭĪëĭ¤": 3879,
      "à¸±à¸ģ": 3880,
      "ÃŃm": 3881,
      "ĠÃ¤r": 3882,
      "ãĢĳãĢĲ": 3883,
      "ament": 3884,
      "Ã©t": 3885,
      "Ġäºļæ¸¸": 3886,
      "áĥłáĥĹ": 3887,
      "åŃ¦": 3888,
      "à®²à¯į": 3889,
      "Ġï¿½ï¿½ï¿½ï¿½ï¿½ï¿½": 3890,
      "áĥĺáĥķ": 3891,
      "AD": 3892,
      "uks": 3893,
      "Ã¡v": 3894,
      "erg": 3895,
      "è¨": 3896,
      "ions": 3897,
      "áĤĢáĢĢ": 3898,
      "ĠáĢĸ": 3899,
      "àªĤàªĹ": 3900,
      "à¤¿à¤¤": 3901,
      "ĠFor": 3902,
      "ĠCar": 3903,
      "éĴ": 3904,
      "Ġnet": 3905,
      "OL": 3906,
      "ĠØ§ÙĦØ¥": 3907,
      "ÑĥÑĪ": 3908,
      "à´¤àµį": 3909,
      "Ġ37": 3910,
      "Ġà¦Ń": 3911,
      "ID": 3912,
      "èģ": 3913,
      "Ġ×¢×ľ": 3914,
      "Ġmem": 3915,
      "Ġå½": 3916,
      "áĥĶáĥ¢": 3917,
      "ular": 3918,
      "zo": 3919,
      "ĠÐºÐ°Ðº": 3920,
      "Ġ55": 3921,
      "Ġsol": 3922,
      "ĠsÃ¥": 3923,
      "Ø¯Ø±": 3924,
      "Ġcá»§": 3925,
      "Ðļ": 3926,
      "23": 3927,
      "ĠëĤ": 3928,
      "à©": 3929,
      "wi": 3930,
      "Ġfi": 3931,
      "WW": 3932,
      "iden": 3933,
      "Ġà°İ": 3934,
      "Ġå®": 3935,
      "Ð´Ð°Ð½": 3936,
      "ĠÄĲ": 3937,
      "Ġ.,": 3938,
      "à°ķà±įà°": 3939,
      "äºĭ": 3940,
      "atis": 3941,
      "à¦£": 3942,
      "Ġcá»§a": 3943,
      "Ġyour": 3944,
      "áĥĺáĥĽ": 3945,
      "ork": 3946,
      "Łà«ĩ": 3947,
      "Ġeste": 3948,
      "Ġ39": 3949,
      "à®¾à®Ł": 3950,
      "áĢĻáĢ»": 3951,
      "Ġkur": 3952,
      "×ļ": 3953,
      "oka": 3954,
      "ays": 3955,
      "eka": 3956,
      "Ġàª¸àª¾àª": 3957,
      "à·": 3958,
      "à§ĩà¦ķ": 3959,
      "ĠInter": 3960,
      "ÐµÐ½Ð°": 3961,
      "Ġtrans": 3962,
      "ãģ£ãģ¦": 3963,
      "Ġà¤Ķ": 3964,
      "Ġmes": 3965,
      "à°¾à°¯": 3966,
      "ÏĪ": 3967,
      "Ġtar": 3968,
      "ç¨": 3969,
      "pres": 3970,
      "45": 3971,
      "á»©": 3972,
      "Ã¤t": 3973,
      "ÙĬÙħ": 3974,
      "Ġcor": 3975,
      "å·¥": 3976,
      "Ġins": 3977,
      "26": 3978,
      "yk": 3979,
      "Ġ×ĸ": 3980,
      "à¹Īà¸Ļ": 3981,
      "Ġtse": 3982,
      "Ñĵ": 3983,
      "Ġaan": 3984,
      "à§ľ": 3985,
      "Ġsm": 3986,
      "Ġè¿": 3987,
      "wan": 3988,
      "Ð°Ò³": 3989,
      "eti": 3990,
      "à¯įà®©": 3991,
      "ìŀĲ": 3992,
      "ÛĮØ´": 3993,
      "Ġàªµàª¿àª": 3994,
      "Ġà¤ªà¤°": 3995,
      "Ä±nda": 3996,
      "à¤§": 3997,
      "Ġcas": 3998,
      "ĠCOM": 3999,
      "çĻ»": 4000,
      "Ġlati": 4001,
      "ç¤": 4002,
      "à¯ģà®¤à¯įà®¤": 4003,
      "á»¥": 4004,
      "Łà¸£à¸µ": 4005,
      "Ú¯Ø±": 4006,
      "Ġëĭ": 4007,
      "Ġà°ľ": 4008,
      "Ġnos": 4009,
      "eci": 4010,
      "¦à°¿": 4011,
      "ìľ¼": 4012,
      "è½¦": 4013,
      "ĠÐºÐ¾Ð½": 4014,
      "pi": 4015,
      "alan": 4016,
      "iku": 4017,
      "áĥķáĥĺáĥ¡": 4018,
      "Ġê·": 4019,
      "àª¾àªľ": 4020,
      "Ġ48": 4021,
      "à¯ģà®Ł": 4022,
      "ĠEx": 4023,
      "Ġsta": 4024,
      "ÙĦÙĥ": 4025,
      "åģ": 4026,
      "chen": 4027,
      "ãģĤ": 4028,
      "htÃ«": 4029,
      "jet": 4030,
      "Ð»Ð¸Ðº": 4031,
      "àª¾àª²": 4032,
      "Ġ90": 4033,
      "Ġrel": 4034,
      "Ð¾ÑĢÐ¸": 4035,
      "ĠkÄģ": 4036,
      "ÙĪØ§ÙĨ": 4037,
      "Ġmul": 4038,
      "áĥĶáĥĴ": 4039,
      "å®ī": 4040,
      "amo": 4041,
      "Ġbol": 4042,
      "Ġà¤¹à¥ĭ": 4043,
      "åĽ¢": 4044,
      "Ġà¤Ķà¤°": 4045,
      "éĩĳ": 4046,
      "Ġáĥ¢": 4047,
      "Ġãĥ»": 4048,
      "±áĢĲáĢ¬": 4049,
      "aman": 4050,
      "ĠÃ¨": 4051,
      "Ġtod": 4052,
      "osh": 4053,
      "aran": 4054,
      "Ġ);": 4055,
      "åĽ½éĻħ": 4056,
      "à°Ĥà°Ł": 4057,
      "Î¿ÏħÏĤ": 4058,
      "Ġia": 4059,
      "ĠÎ¬": 4060,
      "ģáĢº": 4061,
      "Ġkut": 4062,
      "ilo": 4063,
      "Ġou": 4064,
      "à´ķàµįà´": 4065,
      "ĠåĪ": 4066,
      "Ġdur": 4067,
      "iek": 4068,
      "Ġsen": 4069,
      "IA": 4070,
      "Ð»Ð¾": 4071,
      "uka": 4072,
      "ĠáĢŀáĢ°": 4073,
      "Ġá": 4074,
      "áĢĦáĢ·áĢº": 4075,
      "æ³ķ": 4076,
      "Ġmay": 4077,
      "ĠàªŁ": 4078,
      "ĠØ¨ÙĨ": 4079,
      "ĠØ°": 4080,
      "ĠPol": 4081,
      "ãģ§ãģĻ": 4082,
      "Ġï¿½ï¿½ï¿½": 4083,
      "ĠæĪ": 4084,
      "×ķ×Ŀ": 4085,
      "Ġtal": 4086,
      "åĽ¾": 4087,
      "Ġà¸£": 4088,
      "las": 4089,
      "ota": 4090,
      "ĠKe": 4091,
      "áĥĶáĥļáĥĺ": 4092,
      "fi": 4093,
      "ëĿ¼": 4094,
      "Ø§Ø·": 4095,
      "ĠÑĤÐ¾": 4096,
      "å½©ç¥¨": 4097,
      "Ð¾ÑĢÐ¼": 4098,
      "á»¯": 4099,
      "à±ģà°¨à±įà°¨": 4100,
      "ĠÎ¸Î±": 4101,
      "Ġpen": 4102,
      "ĠDie": 4103,
      "à®²à¯įà®²": 4104,
      "ÙĦØ§": 4105,
      "ĠBa": 4106,
      "Ġorgan": 4107,
      "cess": 4108,
      "Ġà°ļà±ĩà°": 4109,
      "Ġtill": 4110,
      "ÐµÐ½Ð¸Ñı": 4111,
      "âĢľ": 4112,
      "ĠDi": 4113,
      "udi": 4114,
      "len": 4115,
      "ĠæĹ": 4116,
      "áĥ¨": 4117,
      "Ġci": 4118,
      "ĠÏĦÎ¹": 4119,
      "78": 4120,
      "×ķ×Ĳ": 4121,
      "Ġile": 4122,
      "Ġtsa": 4123,
      "ÏĥÎ·ÏĤ": 4124,
      "à´¿à´Ł": 4125,
      "atan": 4126,
      "cial": 4127,
      "ÑĭÐ¼": 4128,
      "ĠáĥĴáĥĲáĥľ": 4129,
      "abil": 4130,
      "amil": 4131,
      "ĠìĤ¬": 4132,
      "Ġcare": 4133,
      "Ġtemp": 4134,
      "ÏģÎ·": 4135,
      "ĠHa": 4136,
      "ç®": 4137,
      "ÙĪØ³": 4138,
      "à°¿à°¤": 4139,
      "ĠÐ´Ð°ÑĢ": 4140,
      "ĠâĢĿ.": 4141,
      "Ø¢": 4142,
      "ude": 4143,
      "à«ĩàª¶": 4144,
      "à¥įà¤¯à¤¾": 4145,
      "Ð°Ð±Ð¾ÑĤ": 4146,
      "à¤¿à¤²": 4147,
      "ĠÐ¨": 4148,
      "ÏģÏī": 4149,
      "ĠSch": 4150,
      "ĠÐ³ÑĢ": 4151,
      "ater": 4152,
      "áĥĲáĥĴ": 4153,
      "ĠÙĩØ§ÛĮ": 4154,
      "Ġig": 4155,
      "ĠÙħØª": 4156,
      "alah": 4157,
      "ĠPM": 4158,
      "tre": 4159,
      "Ġcho": 4160,
      "by": 4161,
      "ãģł": 4162,
      "àªµàª¾àª¨": 4163,
      "áĥĺáĥĲáĥľ": 4164,
      "à¦¿à¦²": 4165,
      "à«ĭàªķ": 4166,
      "Ġpun": 4167,
      "ĠBe": 4168,
      "æľĢ": 4169,
      "è¶": 4170,
      "çľĭ": 4171,
      "àµįà´³": 4172,
      "imo": 4173,
      "à±įà°µ": 4174,
      "ĠÑģÐ°Ð¼": 4175,
      "ĠÐ²ÑĸÐ´": 4176,
      "Ġsig": 4177,
      "áĢ¸áĢĻ": 4178,
      "larÄ±": 4179,
      "Ġàª°àª¹": 4180,
      "áĢ±áĢŀ": 4181,
      "áĥĺáĥĿ": 4182,
      "Ġole": 4183,
      "Ġà®ĩà®°": 4184,
      "ĠØ¨Ú¾ÛĮ": 4185,
      "Ġword": 4186,
      "æĽ": 4187,
      "Ġàª®àª¾àªŁà«ĩ": 4188,
      "Ġtop": 4189,
      "Ã¡g": 4190,
      "áĥŀ": 4191,
      "Ð½Ð¸Ðº": 4192,
      "à§ģà¦²": 4193,
      "Ġcre": 4194,
      "ĠGo": 4195,
      "Ġesc": 4196,
      "áĢ±áĢķ": 4197,
      "Ġkor": 4198,
      "à¹Īà¸²": 4199,
      "é£": 4200,
      "idi": 4201,
      "Ġesp": 4202,
      "ĠØ§Ø±": 4203,
      "åħ¥": 4204,
      "ogy": 4205,
      "Ġà¤ķà¤¾": 4206,
      "Ġmel": 4207,
      "Ġing": 4208,
      "æ£": 4209,
      "éĥ¨": 4210,
      "iro": 4211,
      "ÉĻm": 4212,
      "ĠDes": 4213,
      "×Ļ×ķ×ª": 4214,
      "arr": 4215,
      "rip": 4216,
      "Ġmot": 4217,
      "35": 4218,
      "Ø°Ø§": 4219,
      "à®Ļà¯įà®ķ": 4220,
      "Ø¨ÙĬ": 4221,
      "à´Ĺ": 4222,
      "ìĽĲ": 4223,
      "à¹Ģà¸Ľà¹ĩ": 4224,
      "Ġ44": 4225,
      "Ġsec": 4226,
      "ĠÏĦÎ¿Î½": 4227,
      "var": 4228,
      "àª¾àª£": 4229,
      "Ġsob": 4230,
      "Ð¸Ð³": 4231,
      "get": 4232,
      "Ġ2008": 4233,
      "ĠÙħØ¬": 4234,
      "ÎĻÎ": 4235,
      "uli": 4236,
      "àªŃ": 4237,
      "Ġfra": 4238,
      "Ġnag": 4239,
      "ĠÐ¾Ñģ": 4240,
      "áĥ¦": 4241,
      "±áĢĶ": 4242,
      "áĢ¬áĢ¹áĢ": 4243,
      "omb": 4244,
      "¸à±įà°¤": 4245,
      "ĠvÃµ": 4246,
      "ç½ĳåĿĢ": 4247,
      "asta": 4248,
      "åı¯": 4249,
      "ĠÛĮÛģ": 4250,
      "ĠCo": 4251,
      "27": 4252,
      "jon": 4253,
      "æı": 4254,
      "ĠØ§ÙĦØ¯": 4255,
      "Õ¥Õ": 4256,
      "eden": 4257,
      "áĥĺáĥļáĥĺ": 4258,
      "Ã¼k": 4259,
      "han": 4260,
      "Ġà´Ĵ": 4261,
      "Ġhan": 4262,
      "abi": 4263,
      "Ġfac": 4264,
      "umu": 4265,
      "ĠMo": 4266,
      "ule": 4267,
      "àª¾àª¦": 4268,
      "Ġhel": 4269,
      "áĥ£": 4270,
      "Ġsub": 4271,
      "jen": 4272,
      "Åį": 4273,
      "ëŀ": 4274,
      "áĢ±áĢ¬áĢĢáĢº": 4275,
      "ÐĶ": 4276,
      "lah": 4277,
      "Ġåľ": 4278,
      "Ġåį": 4279,
      "ÑĸÑĤ": 4280,
      "à®±à¯įà®±": 4281,
      "áĢĻáĢ½": 4282,
      "ë©": 4283,
      "à¤¾à¤®": 4284,
      "uld": 4285,
      "¡à±ģ": 4286,
      "Ø§Ø¶": 4287,
      "ove": 4288,
      "Ġhab": 4289,
      "å®¢": 4290,
      "Ġpat": 4291,
      "Ð°ÑĢÑĤ": 4292,
      "×Ļ×§": 4293,
      "Ġmemb": 4294,
      "ĠÐ§": 4295,
      "ģáģ": 4296,
      "Ġê¸": 4297,
      "áĢĸáĢ¼": 4298,
      "ìĨ": 4299,
      "Ġpour": 4300,
      "Ð¸Ðµ": 4301,
      "Ġáĥª": 4302,
      "ÙĪÛĮ": 4303,
      "Ġikke": 4304,
      "idade": 4305,
      "Ġvers": 4306,
      "×Ļ×ĳ": 4307,
      "ãģĹãģŁ": 4308,
      "ĠÑĥÑĩ": 4309,
      "ç´": 4310,
      "pro": 4311,
      "à¸¡à¸µ": 4312,
      "ĠØ§Ùģ": 4313,
      "áĢŀáĢĬáĢ¹": 4314,
      "ĠVer": 4315,
      "Ġ99": 4316,
      "à¥įà¤Ł": 4317,
      "Ġkam": 4318,
      "ĲáĢ²áĢ·": 4319,
      "Î¹Î¬": 4320,
      "29": 4321,
      "è®¡": 4322,
      "ĠÏĥÏĦÎ·Î½": 4323,
      "ÙĪÙĤ": 4324,
      "ony": 4325,
      "áĢ¥": 4326,
      "Ġëª": 4327,
      "çķ": 4328,
      "ument": 4329,
      "Ġdari": 4330,
      "Ġsim": 4331,
      "ÑĭÑħ": 4332,
      "ĠAM": 4333,
      "à¤¾à¤¯": 4334,
      "à§ĩà¦²": 4335,
      "Ġhave": 4336,
      "×Ļ×©": 4337,
      "ĠÎĵ": 4338,
      "imin": 4339,
      "Ġinv": 4340,
      "Î¯Î±ÏĤ": 4341,
      "ĠAb": 4342,
      "nes": 4343,
      "èĩª": 4344,
      "Ð°Ð²Ð°": 4345,
      "áĢ²áĤķ": 4346,
      "à°Ĥà°¤": 4347,
      "áĥĲáĥĺ": 4348,
      "ĠRes": 4349,
      "à§ĩà¦¶": 4350,
      "éķ": 4351,
      "àª¤àª¾": 4352,
      "ris": 4353,
      "Ġë³": 4354,
      "åķ": 4355,
      "Ġà®Ĵ": 4356,
      "ider": 4357,
      "Ġfl": 4358,
      "à«ĩàªŁ": 4359,
      "Ġpart": 4360,
      "ĠáĢĢáĢŃáĢ¯": 4361,
      "Ġmus": 4362,
      "Ġdire": 4363,
      "her": 4364,
      "ĠàªĨàªª": 4365,
      "ated": 4366,
      "ĠInd": 4367,
      "ĠâĢļ": 4368,
      "áĥĺáĥ£áĥ": 4369,
      "ÃŃs": 4370,
      "Ġ70": 4371,
      "ĠØ¢ÙĨ": 4372,
      "ĠåĲ": 4373,
      "à´¾à´¤": 4374,
      "áĥĲáĥ¨áĥĺ": 4375,
      "Ã¬nh": 4376,
      "aciÃ³": 4377,
      "è·": 4378,
      "Ĥ°": 4379,
      "amente": 4380,
      "Ð¾Ð¼Ñĥ": 4381,
      "Ġmaj": 4382,
      "Ġkm": 4383,
      "Ġels": 4384,
      "à¸£à¸²à¸": 4385,
      "ĠÙħÙĤ": 4386,
      "ÙħØ§ÙĨ": 4387,
      "ĠÑıÐº": 4388,
      "ĠØ§ÛĮÚ©": 4389,
      "ĠØ¥ÙĦÙī": 4390,
      "Ġhal": 4391,
      "ĠØªÚ¾": 4392,
      "áº¯": 4393,
      "Ġint": 4394,
      "áĥļáĥĺáĥ¡": 4395,
      "ĠðŁ": 4396,
      "ÖĢÕ": 4397,
      "ĠTer": 4398,
      "§à§": 4399,
      "à¸£à¸´": 4400,
      "ĠÐ¿Ð¾Ð²": 4401,
      "____": 4402,
      "Ġhand": 4403,
      "Ġata": 4404,
      "Ġzu": 4405,
      "áĢ±áĢ¬áĢº": 4406,
      "bas": 4407,
      "ë¬": 4408,
      "ĠìĪĺ": 4409,
      "AC": 4410,
      "ĠPa": 4411,
      "à¸µà¹ī": 4412,
      "ĠÐ±Ñĭ": 4413,
      "à«ĩàª°": 4414,
      "Ġtek": 4415,
      "Ġef": 4416,
      "Ġye": 4417,
      "ĠÙħØ¯": 4418,
      "Ġ$(": 4419,
      "por": 4420,
      "Ġ49": 4421,
      "nÄĽ": 4422,
      "à¶": 4423,
      "áĢ¼áĢ¬áĢ¸áĢ": 4424,
      "Ġtan": 4425,
      "åł": 4426,
      "Ġáĥ§": 4427,
      "çīĮ": 4428,
      "Ġáģı": 4429,
      "Ġune": 4430,
      "ĠÐ±Ñŀ": 4431,
      "Ġmea": 4432,
      "Ġloc": 4433,
      "gy": 4434,
      "Ġegy": 4435,
      "ãģĳ": 4436,
      "Ð°Ð¼Ð¸": 4437,
      "Ġà°µà°¿à°": 4438,
      "ĠØ§ÙĦØ®": 4439,
      "ĠmÃ¡": 4440,
      "à§ģà¦°": 4441,
      "mm": 4442,
      "ä¹ĭ": 4443,
      "osa": 4444,
      "Å¡an": 4445,
      "ĠÐ²Ñģ": 4446,
      "ç¥ŀ": 4447,
      "à§įà¦·": 4448,
      "à¦¶": 4449,
      "à°ļ": 4450,
      "Ġà¹Ĥ": 4451,
      "Ġdalam": 4452,
      "eza": 4453,
      "àµģà´ŁàµĨ": 4454,
      "à¦¾à¦ľ": 4455,
      "à¤¾à¤¸": 4456,
      "alm": 4457,
      "à¤¤à¤¾": 4458,
      "ĠÑģÑĬ": 4459,
      "à¸§à¸²à¸¡": 4460,
      "Ġmon": 4461,
      "nen": 4462,
      "edia": 4463,
      "ĠÎ´Î¹Î±": 4464,
      "á»ĵ": 4465,
      "áº¿t": 4466,
      "ÙĬØ³": 4467,
      "US": 4468,
      "Ð³Ð¸": 4469,
      "Ġà´¬": 4470,
      "Î¡": 4471,
      "à¸£à¸±à¸ļ": 4472,
      "nd": 4473,
      "Ø§Ø³Øª": 4474,
      "Ġ46": 4475,
      "Ġà¦ªà¦°": 4476,
      "Ġchi": 4477,
      "áĢģáĢ²áĢ·": 4478,
      "Ġà¸Ń": 4479,
      "Ġpentru": 4480,
      "ĠSan": 4481,
      "Ġáº¹": 4482,
      "ĠÐ²ÑĢ": 4483,
      "åįķ": 4484,
      "bar": 4485,
      "áĢĤ": 4486,
      "å®ļ": 4487,
      "Ġ43": 4488,
      "out": 4489,
      "ÐĴ": 4490,
      "áĢŀáĢĬáĢº": 4491,
      "Ġlib": 4492,
      "ÐµÑĤÐµ": 4493,
      "ìĸ´": 4494,
      "ä¿¡": 4495,
      "eda": 4496,
      "áĥĲáĥĻ": 4497,
      "inu": 4498,
      "×Ļ×ĵ": 4499,
      "Õ¸ÖĤÕ": 4500,
      "Ã³l": 4501,
      "itz": 4502,
      "à¹īà¸Ńà¸ĩ": 4503,
      "àª¾àª°à«ĩ": 4504,
      "ence": 4505,
      "Ġáĥŀáĥł": 4506,
      "ega": 4507,
      "str": 4508,
      "ĠIl": 4509,
      "æĸĩ": 4510,
      "Ġä½": 4511,
      "Ġmis": 4512,
      "ĠÈĻ": 4513,
      "æĹ¶å½©": 4514,
      "ÐĽ": 4515,
      "å¥½": 4516,
      "ĠÙħÙĦ": 4517,
      "esk": 4518,
      "ului": 4519,
      "ĠÑģÐº": 4520,
      "èµ°": 4521,
      "èĢħ": 4522,
      "ail": 4523,
      "har": 4524,
      "Ã¶v": 4525,
      "éĽĨåĽ¢": 4526,
      "Ġà¦ıà¦ķ": 4527,
      "ÑĤÐµÑĢ": 4528,
      "ĠÐºÑĢ": 4529,
      "ãĥ³ãĥ": 4530,
      "ĠÏĦÎ¿ÏħÏĤ": 4531,
      "ĠÐ¯": 4532,
      "Ã¡k": 4533,
      "ĠsiÄĻ": 4534,
      "çİ¯äºļ": 4535,
      "åĬĽ": 4536,
      "ĠAt": 4537,
      "ram": 4538,
      "åĬł": 4539,
      "ÐµÑħ": 4540,
      "é¦": 4541,
      "à¹ĥà¸«à¹ī": 4542,
      "Ġì¹": 4543,
      "Ðľ": 4544,
      "UN": 4545,
      "ãĤ¢": 4546,
      "ĠÙħØ§": 4547,
      "Ú©ÛĮ": 4548,
      "ĠçĶ": 4549,
      "à¸·à¹Īà¸Ń": 4550,
      "à¤¼": 4551,
      "á»ĩn": 4552,
      "ĠmÃ«": 4553,
      "èĤ²": 4554,
      "ory": 4555,
      "ä¹Ī": 4556,
      "áĢ¬áĢĽ": 4557,
      "ĠWe": 4558,
      "Ġfo": 4559,
      "gu": 4560,
      "Ø³ØªØ§ÙĨ": 4561,
      "ĠØªÙħ": 4562,
      "Î¤": 4563,
      "ĠPor": 4564,
      "tif": 4565,
      "åīį": 4566,
      "Ġáĥĺáĥ¡": 4567,
      "ÑĸÑĩ": 4568,
      "ĠEd": 4569,
      "uko": 4570,
      "Ġ×Ķ×Ĳ": 4571,
      "±àµĨ": 4572,
      "Ġêµ": 4573,
      "ĠåĽ": 4574,
      "Ð¸ÑĤÑĮ": 4575,
      "Ġcent": 4576,
      "çĦ": 4577,
      "ä¸ĩ": 4578,
      "à±ģà°¤": 4579,
      "Î¹ÎºÏĮ": 4580,
      "ÏģÎ¹Ïĥ": 4581,
      "izi": 4582,
      "imit": 4583,
      "à¤¾à¤µ": 4584,
      "ĠØ§ÙĦÙĥ": 4585,
      "ukan": 4586,
      "pon": 4587,
      "mu": 4588,
      "é¢ĳ": 4589,
      "igh": 4590,
      "Ð¾Ð»Ð¸": 4591,
      "à¹īà¸²": 4592,
      "Ġ47": 4593,
      "ĠÚ©Ø§Ø±": 4594,
      "à«įàª¯àª¾": 4595,
      "Ġprobl": 4596,
      "ØªÛĴ": 4597,
      "ĠÎĹ": 4598,
      "Ø¨Ø§Ø±": 4599,
      "ĠìŀĪ": 4600,
      "Î¸Î·": 4601,
      "±áĢĲáĢ¼": 4602,
      "å½ķ": 4603,
      "Ġæĸ": 4604,
      "à¦¤à§ĩ": 4605,
      "ľÐµ": 4606,
      "Î¸Îµ": 4607,
      "¾³": 4608,
      "dir": 4609,
      "Î±Ïĥ": 4610,
      "å§": 4611,
      "ÑģÑĤÑĢ": 4612,
      "urop": 4613,
      "OT": 4614,
      "ĠBo": 4615,
      "à®³à¯į": 4616,
      "...": 4617,
      "à´´": 4618,
      "±Û": 4619,
      "Ġkap": 4620,
      "ych": 4621,
      "ì²ľ": 4622,
      "Ġï¿½ï¿½ï¿½ï¿½ï¿½ï¿½ï¿½ï¿½": 4623,
      "à´¿àµ½": 4624,
      "Ġcap": 4625,
      "à¹Īà¸§": 4626,
      "ĠØ§ÙĦØµ": 4627,
      "à«įàª²": 4628,
      "áĢ¸áĢĢ": 4629,
      "ÑĸÐ¹": 4630,
      "ãĥ³ãĤ": 4631,
      "ĠJe": 4632,
      "Ġdig": 4633,
      "Ġvon": 4634,
      "umi": 4635,
      "Ġgro": 4636,
      "ÉĻy": 4637,
      "ĠCl": 4638,
      "à«ĩàªķ": 4639,
      "Ġï»¿": 4640,
      "Ġâķ": 4641,
      "åĬ¨": 4642,
      "ĠÂ¬": 4643,
      "ĠHotel": 4644,
      "íĸ": 4645,
      "ÐµÐºÐ°": 4646,
      "áĢ¸áĢŀ": 4647,
      "Ġkul": 4648,
      "Ú¯ÛĮ": 4649,
      "à¸£à¹Į": 4650,
      "jer": 4651,
      "ĠFran": 4652,
      "Ġret": 4653,
      "Ð¸Ð´Ð°": 4654,
      "çİ°": 4655,
      "±áĢĽ": 4656,
      "Ð½Ð¸ÑĤÐµ": 4657,
      "Ġtut": 4658,
      "æĹ¶æĹ¶å½©": 4659,
      "EM": 4660,
      "ĠAk": 4661,
      "Ġ.âĢĿ": 4662,
      "Ġàª¤à«ĭ": 4663,
      "¹Ħ": 4664,
      "à¤¨à¤¾": 4665,
      "ĠDr": 4666,
      "Ġà´ī": 4667,
      "Äģm": 4668,
      "Ð»ÐµÐ´": 4669,
      "Ġfil": 4670,
      "Ġben": 4671,
      "Ġmah": 4672,
      "Ġàª¡": 4673,
      "Î´Î¿": 4674,
      "à¸Ĥà¸Ńà¸ĩ": 4675,
      "à¤¾à¤¹": 4676,
      "ĠÎ±ÏĢÎ¿": 4677,
      "Ã¡z": 4678,
      "ĠØ§Ø¨": 4679,
      "æĬķ": 4680,
      "éĸ": 4681,
      "Ġserv": 4682,
      "Ġpop": 4683,
      "áĢ¯áĢķáĢº": 4684,
      "ĠÚ©ÙĨ": 4685,
      "Ø¤": 4686,
      "ĠáĢ»áĢķ": 4687,
      "ĠØªØ±": 4688,
      "nos": 4689,
      "ĠãĢĲ": 4690,
      "àª¿àªµ": 4691,
      "×ķ×¤": 4692,
      "éĢŁ": 4693,
      "ital": 4694,
      "ĠÐ¿Ð»": 4695,
      "Ġï¼ģ": 4696,
      "ioni": 4697,
      "ÑĸÑı": 4698,
      "ÏĥÎµÎ¹ÏĤ": 4699,
      "Ġara": 4700,
      "à«įàª¯à«ĭ": 4701,
      "ps": 4702,
      "ĠÐ³Ð¾": 4703,
      "Ġàª¸àª®": 4704,
      "Ġlu": 4705,
      "Ġà´ľ": 4706,
      "è£": 4707,
      "âĢĻ": 4708,
      "Ġà¦²": 4709,
      "ublic": 4710,
      "Ð°ÑĦ": 4711,
      "Ġtro": 4712,
      "¯¸": 4713,
      "Ġæĺ": 4714,
      "ĠëĮĢ": 4715,
      "Ġà¦¥": 4716,
      "ãĤĪ": 4717,
      "Ġä¸Ģ": 4718,
      "Ġaqu": 4719,
      "ee": 4720,
      "ĠØ§Ù¾": 4721,
      "ition": 4722,
      "AK": 4723,
      "åľº": 4724,
      "AP": 4725,
      "ĠÙģØ±": 4726,
      "ĠÃ·": 4727,
      "Ġeller": 4728,
      "Ġ('": 4729,
      "å¿ĥ": 4730,
      "ĠÎ®": 4731,
      "Ġìĥ": 4732,
      "ĠNov": 4733,
      "Ġê·¸": 4734,
      "lat": 4735,
      "ĠØ§": 4736,
      "Ð»Ð°": 4737,
      "Ê»o": 4738,
      "Ø¨ÙĦ": 4739,
      "ÙħØ±": 4740,
      "Ġdata": 4741,
      "à´¾à´²": 4742,
      "áĥ£áĥłáĥĺ": 4743,
      "Ø§Ùĥ": 4744,
      "ë§Į": 4745,
      "ize": 4746,
      "ģáĢ²áĢ·": 4747,
      "à®¿à®µ": 4748,
      "Ġart": 4749,
      "uto": 4750,
      "à¯ģà®±": 4751,
      "à¤¿à¤¸": 4752,
      "íĶ": 4753,
      "Ã¶l": 4754,
      "à¹Īà¸²à¸ĩ": 4755,
      "Ġàª¤àª®": 4756,
      "ingen": 4757,
      "Ġwill": 4758,
      "à¹Ģà¸ģ": 4759,
      "à°¨à±ģ": 4760,
      "åĬ¿": 4761,
      "äº§": 4762,
      "ton": 4763,
      "ange": 4764,
      "led": 4765,
      "ÎºÎ±": 4766,
      "ÑĥÐ¶": 4767,
      "ĠÑĳ": 4768,
      "Ġà°²": 4769,
      "ĠÐ¿Ð¾Ð»": 4770,
      "Ġfal": 4771,
      "elen": 4772,
      "ĠAng": 4773,
      "Ġdir": 4774,
      "Ġåĩ¯": 4775,
      "iver": 4776,
      "ìĤ°": 4777,
      "ĠØ¨Ø±Ø§ÛĮ": 4778,
      "jas": 4779,
      "ĠMas": 4780,
      "ĠáĥĽáĥĿáĥ": 4781,
      "Å±": 4782,
      "ĠØ§ÙĦØ±": 4783,
      "à¸Ńà¸¢": 4784,
      "Ġ`": 4785,
      "ÑįÐ½": 4786,
      "hat": 4787,
      "è´¹": 4788,
      "à¹īà¸²à¸": 4789,
      "yon": 4790,
      "ple": 4791,
      "21": 4792,
      "kat": 4793,
      "ĠÙĨÛģÛĮÚº": 4794,
      "ê²Į": 4795,
      "Ġten": 4796,
      "illa": 4797,
      "åĭ": 4798,
      "à°ķà±ģ": 4799,
      "áĥĶáĥ¥": 4800,
      "Ġpel": 4801,
      "å¿«3": 4802,
      "à±Ĩà°²": 4803,
      "áĥĲáĥļáĥĺ": 4804,
      "uda": 4805,
      "ster": 4806,
      "ĠPo": 4807,
      "áº¿n": 4808,
      "ĠCas": 4809,
      "eto": 4810,
      "à¦Ń": 4811,
      "ums": 4812,
      "omm": 4813,
      "Ġáĥļ": 4814,
      "ÎĿ": 4815,
      "áĢ±áĢĲáĢ¬áĢ·": 4816,
      "Ġuch": 4817,
      "à¦ļ": 4818,
      "Ġà´µà´¿à´": 4819,
      "à«įàª¯à«ģàªĤ": 4820,
      "ĠBer": 4821,
      "jes": 4822,
      "indi": 4823,
      "à¸´à¸Ļà¸": 4824,
      "àµ»": 4825,
      "aja": 4826,
      "áĥĽáĥĲ": 4827,
      "Ġconc": 4828,
      "org": 4829,
      "à¤¶": 4830,
      "ĠEm": 4831,
      "ĠáĢ±": 4832,
      "Ð³Ð¾": 4833,
      "×Ļ×Ĳ": 4834,
      "Ã©p": 4835,
      "Ġ59": 4836,
      "arm": 4837,
      "ams": 4838,
      "×ķ×©": 4839,
      "ĠØ¶": 4840,
      "ĠØ¨Ø¹Ø¯": 4841,
      "ä»£": 4842,
      "ĠÐ¿ÑĢÐ°Ð²": 4843,
      "ÐŁ": 4844,
      "Ġ....": 4845,
      "ĠÐ±Ð¸Ð»": 4846,
      "rib": 4847,
      "àµģà´³": 4848,
      "áĢĨáĢŃáĢ¯": 4849,
      "Ġkatika": 4850,
      "Ġ56": 4851,
      "àªĪ": 4852,
      "àª¿àª²": 4853,
      "Ġà®ªà¯ĭ": 4854,
      "áĥĺáĥłáĥ": 4855,
      "ĠHome": 4856,
      "àª¾àª³": 4857,
      "Ġå¹": 4858,
      "Ġnum": 4859,
      "Ġà´²": 4860,
      "åĪ©": 4861,
      "Ġë¶": 4862,
      "iste": 4863,
      "ìłķ": 4864,
      "else": 4865,
      "Ġdom": 4866,
      "ĠÎĿ": 4867,
      "åº¦": 4868,
      "à¸´à¸Ķ": 4869,
      "ãĥ¼ãĤ": 4870,
      "ëĵ¤": 4871,
      "íĺ": 4872,
      "ĠÙĪÙĤ": 4873,
      "Æ°á»£c": 4874,
      "ador": 4875,
      "ĠMin": 4876,
      "Ð¾Ñĺ": 4877,
      "ëĮĢ": 4878,
      "aji": 4879,
      "áĤıáĢŃáĢ¯áĢĦáĢ¹áĢ": 4880,
      "Ġtidak": 4881,
      "Î¹Î½": 4882,
      "ĠÐ°Ð±": 4883,
      "áĥĶáĥĳáĥ£áĥļáĥĺ": 4884,
      "ê³¼": 4885,
      "ĻĢ": 4886,
      "ciÃ³": 4887,
      "à¤¹à¥Ģ": 4888,
      "ãĥ¬": 4889,
      "Ð¾Ð²Ð¸": 4890,
      "à®¾à®°à¯į": 4891,
      "ìĹĲìĦľ": 4892,
      "Ð½Ð°Ñı": 4893,
      "Ġbez": 4894,
      "à«ĭàª²": 4895,
      "Ġbal": 4896,
      "ÑĸÐ»ÑĮ": 4897,
      "å£": 4898,
      "Ġot": 4899,
      "Ġmais": 4900,
      "éģĵ": 4901,
      "à¦¨à§įà¦": 4902,
      "Ġnak": 4903,
      "ÙģØª": 4904,
      "ĠÑĺ": 4905,
      "Ð°Ð»Ð°": 4906,
      "à«įàª¸": 4907,
      "äºİ": 4908,
      "ÑıÐ²": 4909,
      "×¨×Ĳ": 4910,
      "ations": 4911,
      "ëª": 4912,
      "Ġalle": 4913,
      "raz": 4914,
      "Ġhogy": 4915,
      "ette": 4916,
      "ĠØ±Ûģ": 4917,
      "lari": 4918,
      "Ġbak": 4919,
      "ĠRo": 4920,
      "Ġham": 4921,
      "à¦§": 4922,
      "Ġok": 4923,
      "áĢŀáĢ°": 4924,
      "ä¹Ł": 4925,
      "ĠØŁ": 4926,
      "ĠMod": 4927,
      "áĢĽáĢ¾": 4928,
      "åİħ": 4929,
      "ĠOp": 4930,
      "Ġ54": 4931,
      "38": 4932,
      "Ġà®ħà®µ": 4933,
      "Ġtim": 4934,
      "Ð»Ð°Ñģ": 4935,
      "ept": 4936,
      "Ġ500": 4937,
      "Ġger": 4938,
      "áĢ¬áĢ¸áĢĻ": 4939,
      "à¸Ńà¸Ļ": 4940,
      "Ð°ÑĨÐ¸": 4941,
      "Ġíķ": 4942,
      "tid": 4943,
      "ìľ¼ë¡ľ": 4944,
      "æ´²": 4945,
      "ä¸»": 4946,
      "Ġà¦¸à¦®": 4947,
      "éĿ¢": 4948,
      "Ø§Ø¦ÛĮ": 4949,
      "ÑĢÐ°Ð²": 4950,
      "Ġroz": 4951,
      "Ġpan": 4952,
      "áĥĶáĥĳáĥĺáĥĹ": 4953,
      "ÙĪØ´": 4954,
      "ĠÈĻi": 4955,
      "Ġett": 4956,
      "ĠJan": 4957,
      "à®¿à®¤à¯įà®¤": 4958,
      "Ġdon": 4959,
      "dy": 4960,
      "Ø±Ø©": 4961,
      "à®©à¯įà®±": 4962,
      "ĠØ¯ÛĮ": 4963,
      "à±įà°ļ": 4964,
      "ĠMat": 4965,
      "Ġ42": 4966,
      "ebru": 4967,
      "Ð½Ð°ÑĤÐ°": 4968,
      "ĠIm": 4969,
      "endo": 4970,
      "Ġtit": 4971,
      "ĠSu": 4972,
      "à®¾à®©à¯į": 4973,
      "à¯ģà®³": 4974,
      "èµĽ": 4975,
      "dÉĻ": 4976,
      "EC": 4977,
      "åĮĸ": 4978,
      "Ġ58": 4979,
      "Ġcer": 4980,
      "Ġàªķàª°à«Ģ": 4981,
      "Ã©k": 4982,
      "car": 4983,
      "à¸Ńà¸¥": 4984,
      "ĠÑĸÐ½": 4985,
      "àª¾àªĹ": 4986,
      "ĠlÃ¤": 4987,
      "ĠAg": 4988,
      "ĠMay": 4989,
      "Ġqil": 4990,
      "×ķ×¢": 4991,
      "çŁ": 4992,
      "Ġ//": 4993,
      "Ð°ÑĨÑĮ": 4994,
      "irm": 4995,
      "àµĨà´¨àµįà´¨": 4996,
      "ĠåĮ": 4997,
      "ĀĀĀĀĀĀĀĀ": 4998,
      "lad": 4999,
      "ĠáģĤ": 5000,
      "à´±àµįà´±": 5001,
      "áł": 5002,
      "Ø³Ùħ": 5003,
      "ĠÐ¿Ð¾Ñģ": 5004,
      "Ġprogram": 5005,
      "rem": 5006,
      "aca": 5007,
      "Ð»Ðµ": 5008,
      "Ġru": 5009,
      "×ķ×§": 5010,
      "Ġtem": 5011,
      "eren": 5012,
      "enda": 5013,
      "Ġblog": 5014,
      "Ð°Ð½Ð°": 5015,
      "IM": 5016,
      "Ã©l": 5017,
      "çĤ¹": 5018,
      "àµ¾": 5019,
      "Ġkel": 5020,
      "Ġass": 5021,
      "ÙĨØª": 5022,
      "éľ": 5023,
      "à®¾à®²à¯į": 5024,
      "olu": 5025,
      "à¸¹à¹ī": 5026,
      "Ð°Ð½Ðµ": 5027,
      "à¥įà¤µ": 5028,
      "ĠØ´Ø±": 5029,
      "ulo": 5030,
      "Ġà¦¹à§Ł": 5031,
      "ario": 5032,
      "à°²à±ģ": 5033,
      "enta": 5034,
      "Ġmol": 5035,
      "Ġgb": 5036,
      "à°ªà±įà°ª": 5037,
      "Ġdag": 5038,
      "æŀľ": 5039,
      "áĥĶáĥľáĥ¢": 5040,
      "itar": 5041,
      "èī²": 5042,
      "Ġcat": 5043,
      "Ð°ÑĬ": 5044,
      "å¿«ä¸ī": 5045,
      "ĠiÃ§": 5046,
      "ìĦ±": 5047,
      "àª¾àª°à«Ģ": 5048,
      "ns": 5049,
      "áĢ¬áĢ¸áĢŀ": 5050,
      "anie": 5051,
      "à´¾à´¯à´¿": 5052,
      "ÏĩÎµÎ¹": 5053,
      "Ġsit": 5054,
      "Ġì¶ľìŀ¥": 5055,
      "Ġê°Ģ": 5056,
      "Ġleb": 5057,
      "Ġìľ": 5058,
      "Ġáĥ¡áĥĲáĥĽ": 5059,
      "áĥ£áĥłáĥ": 5060,
      "Ġà¸«": 5061,
      "áĢĬáĢ¹áĢ·": 5062,
      "àª¾àªĪ": 5063,
      "à´¨àµįâĢį": 5064,
      "ĠRep": 5065,
      "áĢħáĢ¹": 5066,
      "ĠØ§Ø¹": 5067,
      "AG": 5068,
      "ìķĦ": 5069,
      "ÙĦØ³": 5070,
      "nu": 5071,
      "¾³éĹ¨": 5072,
      "ÙĤØ©": 5073,
      "å¦": 5074,
      "leg": 5075,
      "75": 5076,
      "Ġmad": 5077,
      "ĠvÃ½": 5078,
      "Ð¾Ñŀ": 5079,
      "à´¿à´¨àµįà´": 5080,
      "ÙĦØ©": 5081,
      "Ã¡ch": 5082,
      "ÑģÑĤÐ²Ð¾": 5083,
      "áĥ®áĥķ": 5084,
      "Ð¾Ñı": 5085,
      "ĠÎ´ÎµÎ½": 5086,
      "inde": 5087,
      "åĪĨå½©": 5088,
      "Ġuit": 5089,
      "áģ¿áĢķáĢ®áĢ¸": 5090,
      "Ġide": 5091,
      "å»": 5092,
      "àªĤàª¤": 5093,
      "aku": 5094,
      "áĥĲáĥ¨": 5095,
      "Ġprz": 5096,
      "Ġ(\"": 5097,
      "itet": 5098,
      "à¦¾à¦¹": 5099,
      "à¹Ħà¸¡à¹Ī": 5100,
      "Ð»Ð°ÑĢÐ¸": 5101,
      "ÐµÐ½ÑĮ": 5102,
      "ÄŁÄ±": 5103,
      "over": 5104,
      "åĮº": 5105,
      "dr": 5106,
      "Ġcel": 5107,
      "ØªØ§": 5108,
      "áĥĲáĥĸ": 5109,
      "ĠÃĸ": 5110,
      "ÙĩâĢĮ": 5111,
      "íĨ": 5112,
      "à°²à±ĭ": 5113,
      "eve": 5114,
      "áĥĲáĥ¥": 5115,
      "api": 5116,
      "Î¹ÎºÎ®": 5117,
      "Ġoh": 5118,
      "Ġà´İà´¨àµįà´¨": 5119,
      "Ġvil": 5120,
      "ava": 5121,
      "ÙĩØ±": 5122,
      "ijn": 5123,
      "ĠáĢĴáĢ®": 5124,
      "ots": 5125,
      "è§Ĩé¢ĳ": 5126,
      "Ðĵ": 5127,
      "Ġä¸Ń": 5128,
      "à¸į": 5129,
      "ä»¶": 5130,
      "Ġà¦ĩ": 5131,
      "áĢĲáĢļáĢº": 5132,
      "Ġalt": 5133,
      "Ø³Ø¨": 5134,
      "istr": 5135,
      "Ġexp": 5136,
      "à¸©": 5137,
      "Ġfel": 5138,
      "Ãłn": 5139,
      "àµģà´¨àµįà´¨àµģ": 5140,
      "à§ĩà¦Ľà§ĩ": 5141,
      "II": 5142,
      "Ò·": 5143,
      "umb": 5144,
      "ally": 5145,
      "Ð¼Ð°": 5146,
      "rij": 5147,
      "Ġbas": 5148,
      "emi": 5149,
      "àª«": 5150,
      "ĠsÄĥ": 5151,
      "íĻĶ": 5152,
      "Ġbest": 5153,
      "Ġdiv": 5154,
      "34": 5155,
      "unk": 5156,
      "ÙĪØ¬": 5157,
      "ĠÃ«s": 5158,
      "àª¨à«ģàªĤ": 5159,
      "ĠFr": 5160,
      "ĠâĦ": 5161,
      "áĢ°áĢ¸áĢ": 5162,
      "¬¬": 5163,
      "Ġà¤«": 5164,
      "ãģĬ": 5165,
      "à«įàª·": 5166,
      "Ġmb": 5167,
      "adas": 5168,
      "à¸´à¸ķ": 5169,
      "ĠÐ½Ð°Ð¿": 5170,
      "ulu": 5171,
      "tur": 5172,
      "fe": 5173,
      "áĥĸáĥĶ": 5174,
      "Ġà¦«": 5175,
      "áĢľáĢ¬": 5176,
      "ĠØ¯Ø§ÙĨ": 5177,
      "ĠÃ«shtÃ«": 5178,
      "Æ°á»Ľ": 5179,
      "áĢŃáĢ¯áĢĦáĢ¹áĢ¸": 5180,
      "pre": 5181,
      "ĠDE": 5182,
      "Ġentre": 5183,
      "Ã¼m": 5184,
      "ĠcÃ¡c": 5185,
      "ĠÐ¿ÑĢÐ¸": 5186,
      "ĠÙĨÛĮ": 5187,
      "Ġà´¯": 5188,
      "ales": 5189,
      "ĠÎµÎ½": 5190,
      "á»Ļt": 5191,
      "àµĪ": 5192,
      "Ġà®ķà¯Ĭ": 5193,
      "lÉĻ": 5194,
      "yg": 5195,
      "IR": 5196,
      "à¯ģà®¨à¯įà®¤": 5197,
      "Ø²Ø§Ø±": 5198,
      "ics": 5199,
      "ĠÐ±ÑĥÐ´": 5200,
      "Ġinte": 5201,
      "à§¦": 5202,
      "ĠÐ±Ð°": 5203,
      "Ġàª¯": 5204,
      "Ġà¸ļ": 5205,
      "ĠHer": 5206,
      "à°¿à°ķà°¿": 5207,
      "cel": 5208,
      "è°": 5209,
      "à´¿à´¤": 5210,
      "Ġtá»": 5211,
      "ê±¸": 5212,
      "ĠSer": 5213,
      "Ġbut": 5214,
      "Ġà¤ĸ": 5215,
      "Ġze": 5216,
      "ĠĈ": 5217,
      "ÏĥÎ±": 5218,
      "iten": 5219,
      "uer": 5220,
      "Ġåĩ¯åıĳ": 5221,
      "sta": 5222,
      "Ġcs": 5223,
      "à°¿à°¯": 5224,
      "nÃ½": 5225,
      "Ġget": 5226,
      "oro": 5227,
      "ĠÛ±Û": 5228,
      "à´¨àµįà´¤": 5229,
      "áĢĲáĢ¹": 5230,
      "ÑĨÑĭ": 5231,
      "áĥĶáĥĿ": 5232,
      "ĠÚ©ÛĮØ§": 5233,
      "èª": 5234,
      "ØªÙĦ": 5235,
      "ë²": 5236,
      "éĢļ": 5237,
      "yle": 5238,
      "Ġlet": 5239,
      "nik": 5240,
      "à¸ł": 5241,
      "Ġaw": 5242,
      "lag": 5243,
      "Ãły": 5244,
      "Ġà¤¹à¥Īà¤Ĥ": 5245,
      "ĠÃĩ": 5246,
      "Ġ2007": 5247,
      "Ġà¹Ħ": 5248,
      "Ġao": 5249,
      "ĠkhÃ´ng": 5250,
      "ĠØ¯Ø§Ø±": 5251,
      "ĠÐ¦": 5252,
      "Ġdal": 5253,
      "à¹īà¸§": 5254,
      "à´²àµįà´²": 5255,
      "×ķ×Ĺ": 5256,
      "Ġkol": 5257,
      "ments": 5258,
      "è²": 5259,
      "amento": 5260,
      "76": 5261,
      "ĠMen": 5262,
      "á»Ł": 5263,
      "ØŃØ¯": 5264,
      "ĠØ«": 5265,
      "Ĺäº¬": 5266,
      "à¤¿à¤¯à¤¾": 5267,
      "ÏģÏİ": 5268,
      "½ľ": 5269,
      "ÏģÎŃ": 5270,
      "ĠWWW": 5271,
      "Ġà´¶": 5272,
      "vat": 5273,
      "Ġitu": 5274,
      "áĥĺáĥĸ": 5275,
      "cu": 5276,
      "ahan": 5277,
      "ĠØ¨ÛĮ": 5278,
      "Ġ_": 5279,
      "á¹£áº¹": 5280,
      "Ä±nÄ±": 5281,
      "Ġà§¨": 5282,
      "Ð½Ð°Ñĩ": 5283,
      "áĢĽáĢ½áĢŃ": 5284,
      "à¸ĭ": 5285,
      "Ġuk": 5286,
      "Ġals": 5287,
      "ones": 5288,
      "Ð¼Ñĸ": 5289,
      "å¯¹": 5290,
      "Ġresp": 5291,
      "ble": 5292,
      "cs": 5293,
      "áĢ±áģ¾áĢĢ": 5294,
      "omo": 5295,
      "ìķĪë§Ī": 5296,
      "ĠØ³ÛĮ": 5297,
      "Ġoc": 5298,
      "Ġï¿½ï¿½ï¿½ï¿½ï¿½": 5299,
      "àµįà´ŀ": 5300,
      "ãģªãģĦ": 5301,
      "Ġvideo": 5302,
      "Ġ',": 5303,
      "ÙĬÙĩ": 5304,
      "Ġà¤ıà¤ķ": 5305,
      "ĠÚĪ": 5306,
      "ĠMal": 5307,
      "ister": 5308,
      "ÏĨÎ¿": 5309,
      "ç«¯": 5310,
      "bat": 5311,
      "Ġàªĺ": 5312,
      "Ê»i": 5313,
      "à°Ĥà°¡": 5314,
      "à°¿à°ª": 5315,
      "æĥħ": 5316,
      "mat": 5317,
      "usk": 5318,
      "áĥĿáĥ¤": 5319,
      "ĠÐ°Ðº": 5320,
      "ÅĦ": 5321,
      "Ġdia": 5322,
      "idad": 5323,
      "ĠÏĦÎ¹ÏĤ": 5324,
      "Ġàª§": 5325,
      "Ġàª¤à«ĩàª®": 5326,
      "áĢĶáĢ¹áĢĻ": 5327,
      "Ġpm": 5328,
      "Ġkal": 5329,
      "ÅĪ": 5330,
      "ĠáĢ±áĢĽ": 5331,
      "Ġà¤¨à¥ĩ": 5332,
      "ÐµÐ½Ð¾": 5333,
      "åĨĮ": 5334,
      "Ã¤m": 5335,
      "Ġproduc": 5336,
      "Ġparti": 5337,
      "áĢ¬áĢ¸áĢľ": 5338,
      "áĥĺáĥ¨": 5339,
      "ĠØ®ÙĪØ¯": 5340,
      "çĻ»å½ķ": 5341,
      "ulle": 5342,
      "Ġà¸¡": 5343,
      "bil": 5344,
      "can": 5345,
      "å½±": 5346,
      "Ã§a": 5347,
      "oss": 5348,
      "ĠÚ©Ø±Ø¯": 5349,
      "à¸Ńà¸ģ": 5350,
      "äºĮ": 5351,
      "ÐµÑ": 5352,
      "nak": 5353,
      "åĲİ": 5354,
      "Ġâĺ": 5355,
      "Ð²Ð¾ÑĢ": 5356,
      "Ġnas": 5357,
      "à¹Ħà¸Ľ": 5358,
      "Ġ~": 5359,
      "à±įà°¸": 5360,
      "Ġà¸Ļ": 5361,
      "Ġorg": 5362,
      "áĥķáĥĶáĥľ": 5363,
      "Ð°ÑĤÐ¾": 5364,
      "Ġ41": 5365,
      "hen": 5366,
      "ëĤĺ": 5367,
      "ĠKar": 5368,
      "Ð½ÑĭÐµ": 5369,
      "Ġpak": 5370,
      "ÑĥÑħ": 5371,
      "Î¼ÏĮ": 5372,
      "Æı": 5373,
      "ÏĦÎ±Î½": 5374,
      "ĠÐµÐ´": 5375,
      "à¤¿à¤ı": 5376,
      "ĠáĢľáĢ°": 5377,
      "ĠÐ¾ÑĢ": 5378,
      "Ð½Ð¾Ð²": 5379,
      "Ġcha": 5380,
      "ĠÙĪÛģ": 5381,
      "×ķ×¡": 5382,
      "ants": 5383,
      "ĠØ¨Ø§Ø²": 5384,
      "à¯Īà®ķ": 5385,
      "æĪĳ": 5386,
      "ining": 5387,
      "ĠÐ½Ð¾": 5388,
      "Ġesta": 5389,
      "Ð»Ñİ": 5390,
      "kon": 5391,
      "Ġáĥ¡áĥĲáĥ¥": 5392,
      "Ġnuk": 5393,
      "à¤¿à¤¨": 5394,
      "ĠEst": 5395,
      "ĠÐ¸Ð»Ð¸": 5396,
      "tica": 5397,
      "Ġacc": 5398,
      "Ġ53": 5399,
      "ĠÐ¾Ð¿": 5400,
      "Å¡ÃŃ": 5401,
      "ãģ£ãģŁ": 5402,
      "ĠØ§Ø®": 5403,
      "ÙĬÙģ": 5404,
      "zer": 5405,
      "ĠÅ¾e": 5406,
      "ĠÒ³Ð°Ð¼": 5407,
      "osi": 5408,
      "áº·": 5409,
      "àµģà´³àµįà´³": 5410,
      "Ġgen": 5411,
      "à¤¾à¤¦": 5412,
      "ĠÐ°Ð²": 5413,
      "ëį": 5414,
      "à¯ģà®ķà¯įà®ķà¯ģ": 5415,
      "ĠÎµÎº": 5416,
      "ĠÎ¼ÎŃ": 5417,
      "Ð£": 5418,
      "åĪĴ": 5419,
      "Î¼Î¬": 5420,
      "ÈĽi": 5421,
      "AB": 5422,
      "ìłľ": 5423,
      "ÏĩÎµ": 5424,
      "ÑģÑĤÐ°Ð²": 5425,
      "Ġhy": 5426,
      "ume": 5427,
      "ë¶Ģ": 5428,
      "ĠãĢį": 5429,
      "à«ĭàª¡": 5430,
      "Ġhat": 5431,
      "ĠÙ¹": 5432,
      "ĠÄĳÆ°á»£c": 5433,
      "iter": 5434,
      "lh": 5435,
      "à±įà°®": 5436,
      "ìĥģ": 5437,
      "tar": 5438,
      "æĴ": 5439,
      "Ġpada": 5440,
      "ÑĬÐ»": 5441,
      "Ġ.)": 5442,
      "Ġ57": 5443,
      "ÃŁ": 5444,
      "ĠÑģÐ¸": 5445,
      "å¤ĸ": 5446,
      "æĸĻ": 5447,
      "Ġæ¾³éĹ¨": 5448,
      "fin": 5449,
      "Ġà¦ĸ": 5450,
      "æŁ": 5451,
      "Ġà¤ĩà¤¸": 5452,
      "Ð½Ð¸Ñħ": 5453,
      "ÑĤÐ¾ÑĢ": 5454,
      "ĠØ¨ÙĦ": 5455,
      "RO": 5456,
      "Ġah": 5457,
      "à±Ĥ": 5458,
      "Ø¨Ø¯": 5459,
      "Ġ×¦": 5460,
      "Ġakan": 5461,
      "ç©": 5462,
      "à§ĥ": 5463,
      "à¹Ģà¸Ķ": 5464,
      "»áĢķáĢ¬": 5465,
      "Ġå½©": 5466,
      "à¹Īà¸Ńà¸ĩ": 5467,
      "à§Ĥ": 5468,
      "à°¹": 5469,
      "à¸Ħà¸§à¸²à¸¡": 5470,
      "ĠOnline": 5471,
      "ĠJa": 5472,
      "ĠáĥĶáĥłáĥĹ": 5473,
      "ĠìķĦ": 5474,
      "Ä±k": 5475,
      "ÑħÐ¾Ð´": 5476,
      "ĠÎ¿Î¹": 5477,
      "ĠÑģÐ¼": 5478,
      "plic": 5479,
      "Ġved": 5480,
      "Ġëı": 5481,
      "à°ľ": 5482,
      "ĠDa": 5483,
      "ĠØ¬Ùħ": 5484,
      "ĠCol": 5485,
      "ĠØ¬ÙĪ": 5486,
      "íĥ": 5487,
      "Ð³ÑĢ": 5488,
      "Ġoa": 5489,
      "áĥĸ": 5490,
      "Ġbon": 5491,
      "Ã«m": 5492,
      "ÏĦÎ¯": 5493,
      "Ġoff": 5494,
      "Ġæī": 5495,
      "Ġfunction": 5496,
      "Ġhv": 5497,
      "áĢķáĢ«áĢĲáĢļáĢ¹": 5498,
      "ishi": 5499,
      "entes": 5500,
      "df": 5501,
      "áĥĲáĥłáĥĺ": 5502,
      "Ġà¸Ĺ": 5503,
      "eny": 5504,
      "çĲĥ": 5505,
      "âĢ¦âĢ¦": 5506,
      "Ġáĥ¨áĥĶáĥĽ": 5507,
      "å°±": 5508,
      "Ð½Ð¾Ð¹": 5509,
      "Ġâĸ": 5510,
      "Ġê¸°": 5511,
      "Ġri": 5512,
      "ÙģØ±": 5513,
      "áĢģáĢ»": 5514,
      "åı¸": 5515,
      "Ġhist": 5516,
      "ĠMag": 5517,
      "ĠAp": 5518,
      "Ġbiz": 5519,
      "à¤¾à¤ľ": 5520,
      "çľŁäºº": 5521,
      "ĠmÃ¥": 5522,
      "è¿Ľ": 5523,
      "cip": 5524,
      "ĠØ³Ø±": 5525,
      "ŀàµįà´ŀ": 5526,
      "Ġneg": 5527,
      "ĠÏĥÏħÎ½": 5528,
      "ÑĢÐµÐ´": 5529,
      "ĠÙĪØª": 5530,
      "áĢŃáĢ¯áĢĢáĢ¹áĢ": 5531,
      "èµ°åĬ¿": 5532,
      "Ġà¸Ī": 5533,
      "Ġwo": 5534,
      "Ø®Øµ": 5535,
      "ĠÄĳi": 5536,
      "ĠSk": 5537,
      "isha": 5538,
      "Ġsus": 5539,
      "48": 5540,
      "ÙĦØ¨": 5541,
      "ebook": 5542,
      "àª¾àª°àª¾": 5543,
      "à¸±à¸Ķ": 5544,
      "ä»¬": 5545,
      "Ġà¦Ĩà¦®": 5546,
      "à§ĩà¦ĩ": 5547,
      "Ġbor": 5548,
      "àªĸ": 5549,
      "Ġprin": 5550,
      "ĠgÃ¶r": 5551,
      "ìłĦ": 5552,
      "itat": 5553,
      "à¦Łà¦¿": 5554,
      "Ġåľ¨": 5555,
      "load": 5556,
      "à¤¤à¥ĩ": 5557,
      "ical": 5558,
      "ello": 5559,
      "Ġà¸ķ": 5560,
      "Ġ×Ķ×©": 5561,
      "ÃŃc": 5562,
      "Ġaku": 5563,
      "é¾": 5564,
      "ĠbaÅŁ": 5565,
      "ester": 5566,
      "à¤¾à¤ļ": 5567,
      "Ġjed": 5568,
      "èĲ": 5569,
      "æ³¨åĨĮ": 5570,
      "æ¥": 5571,
      "Ġà®İà®©à¯įà®±": 5572,
      "ëŁ": 5573,
      "çīĩ": 5574,
      "ĠvÃ¤": 5575,
      "Ġht": 5576,
      "Ġà¸ŀ": 5577,
      "àµįà´µ": 5578,
      "ĠÎ±Î½Î±": 5579,
      "ĠSi": 5580,
      "ĠÙĨØ¸": 5581,
      "ªàµįà´ª": 5582,
      "yst": 5583,
      "à´¶": 5584,
      "Ġpass": 5585,
      "ä¹ħ": 5586,
      "oria": 5587,
      "à®¾à®µ": 5588,
      "àµįà´®": 5589,
      "ox": 5590,
      "anz": 5591,
      "æľŁ": 5592,
      "ÑĩÐ¸": 5593,
      "Ø¹Ø©": 5594,
      "èĭ": 5595,
      "éļ": 5596,
      "ÙĥÙĨ": 5597,
      "uje": 5598,
      "ĠGe": 5599,
      "ÏĥÏĦÎµ": 5600,
      "ĠHar": 5601,
      "dag": 5602,
      "ÏĢÎ±": 5603,
      "ĠØ¬Ø¯": 5604,
      "à¸¸à¸Ķ": 5605,
      "á»ģu": 5606,
      "Æ°Æ¡": 5607,
      "Ð°ÒĽ": 5608,
      "lus": 5609,
      "IK": 5610,
      "Ġíķĺ": 5611,
      "ĠKr": 5612,
      "áĢı": 5613,
      "Ġsist": 5614,
      "Ġ75": 5615,
      "àª¶à«ĩ": 5616,
      "68": 5617,
      "ëĲ": 5618,
      "Ġ52": 5619,
      "Ġàª¹à«ĭàª": 5620,
      "×Ļ×Ļ×Ŀ": 5621,
      "ques": 5622,
      "ÙĬØ§": 5623,
      "Ġeng": 5624,
      "åıĮ": 5625,
      "bb": 5626,
      "Ġà®ħà®¤": 5627,
      "39": 5628,
      "ĦáĢ¶": 5629,
      "à«ĩàª¸": 5630,
      "ä¿Ŀ": 5631,
      "enc": 5632,
      "à¹ģà¸¥à¸°": 5633,
      "van": 5634,
      "ÑĥÐ·": 5635,
      "áĥ¤": 5636,
      "Ã©ny": 5637,
      "tes": 5638,
      "à¸Īà¸°": 5639,
      "ç»ı": 5640,
      "à¦¾à¦ª": 5641,
      "å®ŀ": 5642,
      "å¾Ĺ": 5643,
      "ÑĩÑĭ": 5644,
      "×Ļ×¢": 5645,
      "à¸±à¹īà¸ĩ": 5646,
      "àª¾àªķ": 5647,
      "à¸±à¸§": 5648,
      "Ġjs": 5649,
      "ĠáĢļ": 5650,
      "åĲį": 5651,
      "ĠdÉĻ": 5652,
      "à¹ĥà¸Ļ": 5653,
      "áº§n": 5654,
      "Ð½ÑĭÐ¹": 5655,
      "Å¡e": 5656,
      "UL": 5657,
      "¡°": 5658,
      "¥à«ĩ": 5659,
      "àµģà´µ": 5660,
      "ØªØ¨": 5661,
      "enÃŃ": 5662,
      "ìĥµ": 5663,
      "ÎºÎ¿": 5664,
      "ĠReg": 5665,
      "area": 5666,
      "ĠAut": 5667,
      "ĭçīĮ": 5668,
      "reg": 5669,
      "Ġbeg": 5670,
      "à±ģà°²à±ģ": 5671,
      "à°¾à°Ĥà°": 5672,
      "Ġunder": 5673,
      "Ġbur": 5674,
      "ĠÐ±ÐµÐ·": 5675,
      "Ġgl": 5676,
      "ĠIN": 5677,
      "Ã©sz": 5678,
      "ĠÙħÛĮâĢĮ": 5679,
      "Ø¹ÙĦ": 5680,
      "ogle": 5681,
      "Ã¤Ã¤n": 5682,
      "Ġkes": 5683,
      "iones": 5684,
      "Ġlab": 5685,
      "áĢģáĢ¼": 5686,
      "Ġá¹£e": 5687,
      "à¤ķà¥įà¤": 5688,
      "æº": 5689,
      "à¤²à¥ĩ": 5690,
      "inÄģ": 5691,
      "ĠìłĦ": 5692,
      "kel": 5693,
      "ĠÙĨÙħ": 5694,
      "Ġana": 5695,
      "ĠÃ¡": 5696,
      "ĠNews": 5697,
      "Ġhor": 5698,
      "ĠØ¨Ø¯": 5699,
      "à¤°à¥Ģ": 5700,
      "65": 5701,
      "ĠÐºÐ¾ÑĢ": 5702,
      "ĠÑĢÐ°Ð±Ð¾ÑĤ": 5703,
      "vol": 5704,
      "ĠØªÙĤ": 5705,
      "à¸¨": 5706,
      "ØµÙĦ": 5707,
      "Ġmore": 5708,
      "ÑĥÐ²Ð°ÑļÐµ": 5709,
      "ĠáĢķáĢ¼": 5710,
      "ĠÅŁi": 5711,
      "Ġprop": 5712,
      "ìłģ": 5713,
      "Ġà¦Ľ": 5714,
      "Ġdella": 5715,
      "ĠKom": 5716,
      "íı": 5717,
      "Ã©ho": 5718,
      "Ġcm": 5719,
      "à°¾à°¤": 5720,
      "éĤ": 5721,
      "js": 5722,
      "Ġnav": 5723,
      "Ġmm": 5724,
      "Ġpeng": 5725,
      "£áĥļ": 5726,
      "àª¾àª¨à«Ģ": 5727,
      "Ġìĸ": 5728,
      "à«įàª®": 5729,
      "Ġmor": 5730,
      "à°¿à°²": 5731,
      "Ġjan": 5732,
      "ãģĻãĤĭ": 5733,
      "lin": 5734,
      "Ġà®ļà¯Ĩà®¯": 5735,
      "áĢ°áĢ¸": 5736,
      "æ¶": 5737,
      "ugu": 5738,
      "ogo": 5739,
      "ĠiÅŁ": 5740,
      "Ġsobre": 5741,
      "åĲĮ": 5742,
      "ĠÂ».": 5743,
      "acute": 5744,
      "Ġë¬": 5745,
      "Ġish": 5746,
      "Ġsab": 5747,
      "áĥĺáĥĺáĥ¡": 5748,
      "jek": 5749,
      "tie": 5750,
      "çĪ": 5751,
      "amos": 5752,
      "Ġsing": 5753,
      "ĠVal": 5754,
      "Ġmw": 5755,
      "êµŃ": 5756,
      "Ġtrong": 5757,
      "åĨħ": 5758,
      "à¸Ľà¸£à¸°": 5759,
      "æį": 5760,
      "ĠÙĦØ§": 5761,
      "ĠÐĨ": 5762,
      "ump": 5763,
      "åŁİ": 5764,
      "xx": 5765,
      "Ġ×ĺ": 5766,
      "ĠDo": 5767,
      "bay": 5768,
      "Ġpolit": 5769,
      "ĠÎ¹": 5770,
      "aro": 5771,
      "eter": 5772,
      "duc": 5773,
      "æĬĢ": 5774,
      "ÏĢÎµ": 5775,
      "ç³": 5776,
      "px": 5777,
      "imul": 5778,
      "Ġartic": 5779,
      "Ġhay": 5780,
      "Ø´ÙĨ": 5781,
      "Ġprov": 5782,
      "ÐºÐ¾Ð²": 5783,
      "æ°´": 5784,
      "à°¿à°°": 5785,
      "ling": 5786,
      "anto": 5787,
      "à§įà¦ª": 5788,
      "Ø§ÙħÙĦ": 5789,
      "à¤Ń": 5790,
      "ĠÐ½Ð°Ð²": 5791,
      "Ã©c": 5792,
      "Æ°á»Ŀi": 5793,
      "ering": 5794,
      "ÑĸÑĹ": 5795,
      "ĠÙĦÛĮ": 5796,
      "æŃ£": 5797,
      "ĠÐ´ÑĢÑĥ": 5798,
      "ëħ¸": 5799,
      "ĠÎĴ": 5800,
      "à¯įà®®": 5801,
      "Ġend": 5802,
      "Ø±ÛĮÙĨ": 5803,
      "áĢĶáĢ²áĤĶ": 5804,
      "Ø¯Ø§Ø±": 5805,
      "ĠfÃ¼r": 5806,
      "Ø§Ø¯Ùĩ": 5807,
      "Ġmund": 5808,
      "á»Ŀ": 5809,
      "æīĭæľºçīĪ": 5810,
      "à¹Ģà¸Ĥ": 5811,
      "kov": 5812,
      "ĠÑľÐµ": 5813,
      "................": 5814,
      "ÏĥÎ¹": 5815,
      "Ġàª¶àªķ": 5816,
      "ÅĽci": 5817,
      "uts": 5818,
      "ãģ©": 5819,
      "à¸Ļà¸µà¹ī": 5820,
      "ĠMon": 5821,
      "ĠOs": 5822,
      "à°Łà±įà°Ł": 5823,
      "Ó¯": 5824,
      "ĠÑĢÐ¾Ð·": 5825,
      "ĠÎµÏĢÎ¹": 5826,
      "ĠæĿ": 5827,
      "Ġ51": 5828,
      "çī©": 5829,
      "àª¾àªĩ": 5830,
      "à®¾à®¯": 5831,
      "Úĺ": 5832,
      "å¼ı": 5833,
      "ĠØ§ÙĦØ°": 5834,
      "Ġdoc": 5835,
      "çŃī": 5836,
      "trol": 5837,
      "à¸Ł": 5838,
      "indÉĻ": 5839,
      "ÑĥÐ»ÑĮ": 5840,
      "à´²àµįâĢį": 5841,
      "Ġì¹´": 5842,
      "ÙĬØ¹": 5843,
      "yan": 5844,
      "ìĨĮ": 5845,
      "Ġcr": 5846,
      "Ġìļ": 5847,
      "Ġï¼Ł": 5848,
      "à°¬": 5849,
      "ÙħØ©": 5850,
      "Ġjak": 5851,
      "éĩį": 5852,
      "ÑĸÐ·": 5853,
      "oks": 5854,
      "ÙĪØ§": 5855,
      "Ġwi": 5856,
      "à°Ĥà°²à±ĭ": 5857,
      "Ð»Ð°ÑĤ": 5858,
      "å®¢æĪ·": 5859,
      "à§įà¦¥": 5860,
      "ĠæĪĳ": 5861,
      "à°¾à°®": 5862,
      "ĠÐ·Ð°Ð¿": 5863,
      "79": 5864,
      "à´Ļàµįà´Ļà´³": 5865,
      "àªĤàª¦": 5866,
      "è¿ĩ": 5867,
      "ĠÙħØ·": 5868,
      "ĠFac": 5869,
      "Ġqui": 5870,
      "Ġtam": 5871,
      "×ķ×ŀ": 5872,
      "ĠØ§ÙĦØªÙĬ": 5873,
      "enye": 5874,
      "ãģĪ": 5875,
      "ĠØ§ØŃ": 5876,
      "ading": 5877,
      "ĠÃī": 5878,
      "è¿Ļ": 5879,
      "Ä±na": 5880,
      "Ġako": 5881,
      "ãĤģ": 5882,
      "ĠÐ°Ð·": 5883,
      "Ġcal": 5884,
      "Ġ198": 5885,
      "èĬ": 5886,
      "æ°ĳ": 5887,
      "çłģ": 5888,
      "ĠNi": 5889,
      "Äĵr": 5890,
      "Ġris": 5891,
      "áĢ±áĢĻ": 5892,
      "ļĮ": 5893,
      "ãģĭãĤī": 5894,
      "ĠSup": 5895,
      "Ġtom": 5896,
      "Ð°ÑģÐ¸": 5897,
      "Ð²ÐµÑĢ": 5898,
      "Ġlike": 5899,
      "ÉĻh": 5900,
      "à¸´à¸Ļ": 5901,
      "ç²": 5902,
      "ĠDec": 5903,
      "ØªÙĬ": 5904,
      "jt": 5905,
      "êµ¬": 5906,
      "ÙħØ§ÙĦ": 5907,
      "»áĢģ": 5908,
      "ÑĤÑĭ": 5909,
      "à«ĭàª¤": 5910,
      "Ħà¸£": 5911,
      "Ġ×Ķ×ª": 5912,
      "Ġcheck": 5913,
      "æ£ĭçīĮ": 5914,
      "lich": 5915,
      "Î»Î¿Î³": 5916,
      "ĠÐ·Ð°Ðº": 5917,
      "Ġich": 5918,
      "Ġnam": 5919,
      "Ġproduk": 5920,
      "ÑģÐ»": 5921,
      "ĠsÃº": 5922,
      "ĠnÃ¤": 5923,
      "áĢ¯áĢĲáĢ¹áĢ": 5924,
      "Ġà°Ī": 5925,
      "indow": 5926,
      "íħ": 5927,
      "à°¾à°Ł": 5928,
      "Ġdans": 5929,
      "«áĥļ": 5930,
      "ĠÙħØµ": 5931,
      "ownload": 5932,
      "åħį": 5933,
      "ìļĶ": 5934,
      "Ġà¤¥": 5935,
      "ĠØ³Ø§ÙĦ": 5936,
      "ÑģÐ¸": 5937,
      "áĢľáĢĬáĢ¹áĢ¸": 5938,
      "ĠApr": 5939,
      "à¹Ģà¸ŀ": 5940,
      "ian": 5941,
      "ĠÐ±Ð°ÑĢ": 5942,
      "Ð°ÑĶ": 5943,
      "Ġoli": 5944,
      "Ġà¦¬à¦²": 5945,
      "ĠAwá»įn": 5946,
      "Ġban": 5947,
      "Ġfilm": 5948,
      "Ġà¦Ł": 5949,
      "eth": 5950,
      "fo": 5951,
      "Ġì§Ģ": 5952,
      "à¦¿à§Łà§ĩ": 5953,
      "Ġhad": 5954,
      "uru": 5955,
      "ĠãĢĭ": 5956,
      "ĠãĢĮ": 5957,
      "ĠAv": 5958,
      "ach": 5959,
      "etan": 5960,
      "Ġu0": 5961,
      "Ġàª¸àª¾àª¥à«ĩ": 5962,
      "ĠLes": 5963,
      "æıĲ": 5964,
      "Ġìĭľ": 5965,
      "69": 5966,
      "Ġà¦ħà¦¨": 5967,
      "Ġtul": 5968,
      "Ãµes": 5969,
      "à«ĭàªŁ": 5970,
      "áº¡n": 5971,
      "Ġmá»Ļt": 5972,
      "==": 5973,
      "è¡¨": 5974,
      "ĠEurop": 5975,
      "à´¹": 5976,
      "Ġgener": 5977,
      "éĥ½": 5978,
      "Ġ65": 5979,
      "urr": 5980,
      "ĠÐ¿Ð°ÑĢ": 5981,
      "abr": 5982,
      "ĠÎŃÎ½Î±": 5983,
      "Ġlin": 5984,
      "ĠÐºÐ°ÑĢ": 5985,
      "Ġuma": 5986,
      "Ġtun": 5987,
      "ĠØ§ÙĨØª": 5988,
      "Ð·Ðµ": 5989,
      "bal": 5990,
      "Ġáĥĸ": 5991,
      "à¤¤à¥Ģ": 5992,
      "è®¡åĪĴ": 5993,
      "æģ": 5994,
      "Ġà¤µà¤¿à¤": 5995,
      "é¾Ļ": 5996,
      "Ġhot": 5997,
      "áĢ¯áĢŃáĢĦáĢ¹áĢ": 5998,
      "usta": 5999,
      "Ġ×ŀ×©": 6000,
      "Ġjeg": 6001,
      "urt": 6002,
      "èµĦ": 6003,
      "ĠÎĻ": 6004,
      "ĠTag": 6005,
      "àªµàª¾àª®àª¾àªĤ": 6006,
      "ĠÐ¿Ð¾ÑĤ": 6007,
      "ãĢģ": 6008,
      "Ú¯Ø§Ùĩ": 6009,
      "owa": 6010,
      "à´·": 6011,
      "ĠÙ¾ÛĮ": 6012,
      "Ġà§§à§": 6013,
      "ë³´": 6014,
      "ÏĦÎŃ": 6015,
      "´Ģ": 6016,
      "æĢ§": 6017,
      "Ġvá»Ľi": 6018,
      "ãĤĦ": 6019,
      "×Ĺ×¨": 6020,
      "ĠOl": 6021,
      "Ġ300": 6022,
      "ĠÐ»Ñİ": 6023,
      "àµģà´£": 6024,
      "ÐĨ": 6025,
      "à¹Ģà¸£": 6026,
      "à¸Ńà¸ļ": 6027,
      "ĠJul": 6028,
      "49": 6029,
      "iler": 6030,
      "Ġtip": 6031,
      "æķ°": 6032,
      "ä½ĵèĤ²": 6033,
      "àª¾àª¹": 6034,
      "áĥĲáĥłáĥĹáĥķáĥĶáĥļ": 6035,
      "tions": 6036,
      "iyy": 6037,
      "çĿ": 6038,
      "ÑģÑĤÐ°Ð½": 6039,
      "ska": 6040,
      "Ê»a": 6041,
      "ĠPe": 6042,
      "ils": 6043,
      "wn": 6044,
      "Ġgel": 6045,
      "ĠâĢĭâĢĭâĢĭ": 6046,
      "å¢": 6047,
      "à¹Ĩ": 6048,
      "Ġ×Ķ×Ĺ": 6049,
      "Ġyap": 6050,
      "Ø±Ø§Ø±": 6051,
      "Ø®Ø±": 6052,
      "à°£": 6053,
      "áĢģáĢ¯": 6054,
      "uti": 6055,
      "fon": 6056,
      "Ġ×ĳ×Ĳ": 6057,
      "ilor": 6058,
      "ayan": 6059,
      "à¦¿à¦¬": 6060,
      "Ġráº¹": 6061,
      "¥¿": 6062,
      "è§Ħ": 6063,
      "Ġ!!": 6064,
      "à¥ĩà¤¶": 6065,
      "Ġauf": 6066,
      "ober": 6067,
      "Ġbah": 6068,
      "azione": 6069,
      "ĠKo": 6070,
      "Ð½Ð¸Ð¹": 6071,
      ",\"": 6072,
      "à°¾à°ķ": 6073,
      "ĠáĥĶáĥ¡": 6074,
      "à¦¯à¦¼": 6075,
      "ĠCent": 6076,
      "Î»Î»Î¬": 6077,
      "Ġdep": 6078,
      "gun": 6079,
      "Î¬Ïģ": 6080,
      "Ġ×ŀ×Ķ": 6081,
      "ĠØ§ÙĦÙĦÙĩ": 6082,
      "åįļ": 6083,
      "ĠØ®ÙĦ": 6084,
      "ĠáĢ±áĢĶ": 6085,
      "áĢ¸áĢĽ": 6086,
      "è¿Ĳ": 6087,
      "pg": 6088,
      "oth": 6089,
      "Ñķ": 6090,
      "ational": 6091,
      "Ð¸ÒĽ": 6092,
      "ĠCor": 6093,
      "áĤĲ": 6094,
      "×ķ×¦": 6095,
      "ĠÙĪØ£": 6096,
      "Ã¡d": 6097,
      "ãĥŃ": 6098,
      "ÑĸÐº": 6099,
      "iks": 6100,
      "Ġhtml": 6101,
      "ĠÐ½Ð°Ð¼": 6102,
      "ĠØ´Ø¯": 6103,
      "ĠÐ³Ð¸": 6104,
      "uch": 6105,
      "å±ķ": 6106,
      "unic": 6107,
      "èµ°åĬ¿åĽ¾": 6108,
      "Ġcz": 6109,
      "ÙħØ§Ø±": 6110,
      "ĠDen": 6111,
      "ÑĥÑĢÐ¸": 6112,
      "à¦¥": 6113,
      "Ġnap": 6114,
      "ĠmÃ¡s": 6115,
      "Äģl": 6116,
      "nÃ¡": 6117,
      "Ġkuwa": 6118,
      "Ġaus": 6119,
      "asÄ±": 6120,
      "ÑĤÐ¸ÑĢ": 6121,
      "arch": 6122,
      "Ġà®°": 6123,
      "Ä±nÄ±n": 6124,
      "Ġà¤¸à¤Ĥ": 6125,
      "à«įàªķ": 6126,
      "à®¾à®³": 6127,
      "ÏĦÎ¹ÎºÏĮ": 6128,
      "áĢ±áĢ«": 6129,
      "ece": 6130,
      "Ġbul": 6131,
      "áĢ»áĢĸáĢħáĢ¹áĢ": 6132,
      "Äĵt": 6133,
      "à®Ļà¯įà®ķà®³": 6134,
      "ĠÃ®nt": 6135,
      "Î¹ÎºÎ¬": 6136,
      "erd": 6137,
      "ÑĢÐ°ÑĤ": 6138,
      "Ġíĺ": 6139,
      "ÑĸÑģ": 6140,
      "éħ": 6141,
      "ĠØªÙĨ": 6142,
      "Ġà´Ĵà´°": 6143,
      "Ġà®ªà¯Ĩ": 6144,
      "à°ķà±įà°ķ": 6145,
      "Ġstud": 6146,
      "Ġnev": 6147,
      "à¸Ħà¸£": 6148,
      "nej": 6149,
      "oo": 6150,
      "Ġpri": 6151,
      "Ġmom": 6152,
      "gar": 6153,
      "ìļ©": 6154,
      "ãĥķ": 6155,
      "Ġkup": 6156,
      "ÑĢÐ°Ð¼": 6157,
      "Ġ×ķ×Ķ": 6158,
      "itor": 6159,
      "áĢģáĢ¶": 6160,
      "rop": 6161,
      "à§ĩà¦Ľ": 6162,
      "áĥĲáĥ¤": 6163,
      "urn": 6164,
      "áĥĺáĥ¡áĥ¢": 6165,
      "ÙĳÙİ": 6166,
      "Å¡i": 6167,
      "ĠÂ»,": 6168,
      "×Ļ×ĺ": 6169,
      "Ġkont": 6170,
      "ty": 6171,
      "press": 6172,
      "kar": 6173,
      "ĠÂ£": 6174,
      "ĠÙĪØ¬": 6175,
      "Ġnew": 6176,
      "ÏĥÎ¿": 6177,
      "Î¼Î±ÏĦÎ±": 6178,
      "Ġkir": 6179,
      "áģļ": 6180,
      "ĠçļĦ": 6181,
      "Ġplan": 6182,
      "ÙĥØ©": 6183,
      "ĠÑĢÐ°Ñģ": 6184,
      "Î´Î±": 6185,
      "Ġ!!!": 6186,
      "chn": 6187,
      "à´¾à´µ": 6188,
      "Ð°Ð³Ð¸": 6189,
      "ìĹħ": 6190,
      "à«Ģàª¤": 6191,
      "itas": 6192,
      "ĠSl": 6193,
      "¤ĳ": 6194,
      "åħ³": 6195,
      "à®¿à®Łà¯įà®Ł": 6196,
      "½ľê±¸": 6197,
      "ĠÑİ": 6198,
      "ĠTra": 6199,
      "ÙĪØ±ÛĮ": 6200,
      "iva": 6201,
      "Ġfot": 6202,
      "ĠPosted": 6203,
      "kr": 6204,
      "ĠkÃ¤": 6205,
      "ãģĵãģ¨": 6206,
      "Äĥr": 6207,
      "éĶ": 6208,
      "åĬ¡": 6209,
      "Ġàªĵ": 6210,
      "RE": 6211,
      "esa": 6212,
      "ÉĻb": 6213,
      "Ġrev": 6214,
      "»áĢĻ": 6215,
      "à¸ĺ": 6216,
      "ible": 6217,
      "ķáĢ¼": 6218,
      "à¹Ģà¸«": 6219,
      "å®¢æĪ·ç«¯": 6220,
      "è§£": 6221,
      "Ġagçİ¯äºļ": 6222,
      "áĥĲáĥĳ": 6223,
      "Ġjáº¹": 6224,
      "Ġ--": 6225,
      "åħĥ": 6226,
      "à«įàª¥": 6227,
      "Ġà°Ń": 6228,
      "ĠÛĮÚ©": 6229,
      "lav": 6230,
      "ĠMer": 6231,
      "Ġ;&": 6232,
      "å»º": 6233,
      "á»ķ": 6234,
      "UT": 6235,
      "áĥĿáĥª": 6236,
      "ower": 6237,
      "Ġgu": 6238,
      "urg": 6239,
      "×ķ×Ĵ": 6240,
      "áĢķáĢ²": 6241,
      "à¥ī": 6242,
      "àª¾àª¨àª¾": 6243,
      "ism": 6244,
      "inh": 6245,
      "à¸²à¸Ħ": 6246,
      "Ð¾Ð½Ð°": 6247,
      "Ø´Ø±": 6248,
      "áº£i": 6249,
      "áĢĻáĢºáĢ¬áĢ¸": 6250,
      "obil": 6251,
      "à¹Ģà¸Ĺ": 6252,
      "ĠÐ½Ð°ÑĢ": 6253,
      "æĹĹ": 6254,
      "à«Ģàªı": 6255,
      "ĠØ§Ùĵ": 6256,
      "à®¾à®®": 6257,
      "Ø§ÙĨÙĩ": 6258,
      "Ġà´Ł": 6259,
      "éķ¿": 6260,
      "Ġmind": 6261,
      "à´¿à´¨àµįà´±àµĨ": 6262,
      "Ð»ÐµÐ½": 6263,
      "iner": 6264,
      "Ġwak": 6265,
      "Ð½Ð°Ð¹": 6266,
      "Ġíķľ": 6267,
      "Ġsil": 6268,
      "ll": 6269,
      "ĠÅŀ": 6270,
      "Ð²ÐµÑĤ": 6271,
      "esto": 6272,
      "Ø¯ÙĬ": 6273,
      "×©×¨": 6274,
      "ĠÐ¾Ð½": 6275,
      "Æ°á»Ŀng": 6276,
      "ÑĢÐ°Ð·": 6277,
      "Ġå½©ç¥ŀ": 6278,
      "omi": 6279,
      "à¤Ī": 6280,
      "ÑīÐµ": 6281,
      "Ġàªķà«ĭàª": 6282,
      "ates": 6283,
      "Ġrem": 6284,
      "Æ°Æ¡ng": 6285,
      "ÐµÑĢÐ¸": 6286,
      "ĠØ¯ÙĪ": 6287,
      "Ġkung": 6288,
      "eva": 6289,
      "ĠÐ½Ð°Ð´": 6290,
      "ĠØ¬ÙĨ": 6291,
      "à´¿à´²àµįà´²": 6292,
      "ÙĦÙĩ": 6293,
      "Ġëĵ": 6294,
      "idan": 6295,
      "ĠÅ¼": 6296,
      "rek": 6297,
      "ĠEsp": 6298,
      "ĠSal": 6299,
      "Ìģ": 6300,
      "Öģ": 6301,
      "hu": 6302,
      "etr": 6303,
      "Ġgratis": 6304,
      "ĠFl": 6305,
      "ÛĮØ³": 6306,
      "pen": 6307,
      "Ġhis": 6308,
      "ĠAll": 6309,
      "58": 6310,
      "áĥĹáĥĲáĥľ": 6311,
      "iza": 6312,
      "Ġtas": 6313,
      "Ġvai": 6314,
      "Ġsay": 6315,
      "×Ļ×ŀ": 6316,
      "Ġib": 6317,
      "ë©´": 6318,
      "áĥĲáĥĸáĥĶ": 6319,
      "Ġsor": 6320,
      "ĠÐºÑŀ": 6321,
      "åĸ": 6322,
      "Ġà°¶": 6323,
      "Î¼Î·": 6324,
      "ĠÔ": 6325,
      "ublik": 6326,
      "Ð°Ñĳ": 6327,
      "à´¬": 6328,
      "eria": 6329,
      "ĠâĻ": 6330,
      "del": 6331,
      "Ġáĥ«": 6332,
      "Ġà®µà®°": 6333,
      "ĠáĥĲáĥĵ": 6334,
      "ĢáĢŃáĢ¯": 6335,
      "osta": 6336,
      "à¥Į": 6337,
      "àª¥": 6338,
      "ĠÐ¿Ð°Ð´": 6339,
      "Ġqo": 6340,
      "Ġà®Ĵà®°": 6341,
      "leri": 6342,
      "Ġtah": 6343,
      "Ġbilan": 6344,
      "à«ĥ": 6345,
      "Ãłng": 6346,
      "Ġ()": 6347,
      "ĠØ£ÙĪ": 6348,
      "ĠíĻ": 6349,
      "Ã³r": 6350,
      "IG": 6351,
      "ske": 6352,
      "Ġéĩ": 6353,
      "Ð°Ñı": 6354,
      "Ġçľ": 6355,
      "Ãģ": 6356,
      "ëıĻ": 6357,
      "ÃŃv": 6358,
      "ĠÃ®ntÃ¢": 6359,
      "ĠNg": 6360,
      "ä½į": 6361,
      "Õ¸Õ": 6362,
      "à¸ģà¸±à¸ļ": 6363,
      "Ùĭ": 6364,
      "çĽ®": 6365,
      "Ġàªķàª¾àª°": 6366,
      "Ã¼ÅŁ": 6367,
      "iso": 6368,
      "ÑĸÐ¼": 6369,
      "ating": 6370,
      "áĢ¸áĢĲ": 6371,
      "Ġyn": 6372,
      "yar": 6373,
      "Ġìłľ": 6374,
      "Ġwan": 6375,
      "ìĪĺ": 6376,
      "íĦ": 6377,
      "à®³à¯įà®³": 6378,
      "åı£": 6379,
      "æĺİ": 6380,
      "ĠØ§Ø¯": 6381,
      "ÏĦÎ¹ÎºÎ®": 6382,
      "å·ŀ": 6383,
      "åĪ¶": 6384,
      "ĠSel": 6385,
      "Ġbed": 6386,
      "äº¤": 6387,
      "ĠÃľ": 6388,
      "ĠMed": 6389,
      "Äģd": 6390,
      "ĠÏĮÏĦÎ¹": 6391,
      "à¦¬à§ĩ": 6392,
      "å¥ĸ": 6393,
      "à±ģà°°": 6394,
      "áĢ¬áĢ¸áĢ¡": 6395,
      "Ġpap": 6396,
      "ÙĬØª": 6397,
      "Ġà¦ķà¦°à§ĩ": 6398,
      "Ã¶k": 6399,
      "Ġfig": 6400,
      "áĥĿáĥĳáĥĺáĥ¡": 6401,
      "anh": 6402,
      "Ġ.\"": 6403,
      "ĠìĿ´ë": 6404,
      "ĠÎºÎ¬": 6405,
      "à¸Ļà¹Į": 6406,
      "cy": 6407,
      "ĠÐ´ÐµÐºÐ°": 6408,
      "Ð²Ð¸": 6409,
      "æ¯Ķ": 6410,
      "Ġdok": 6411,
      "ident": 6412,
      "43": 6413,
      "Ġáĥ¨áĥĶáĥ": 6414,
      "ender": 6415,
      "ÎºÏĮ": 6416,
      "ral": 6417,
      "Ġgod": 6418,
      "Ð½Ñĥ": 6419,
      "ãĤ¿": 6420,
      "Ð¸Ð½Ð³": 6421,
      "à¦¿à¦¸": 6422,
      "Ġä¸į": 6423,
      "×Ļ×¤": 6424,
      "ãģ¡": 6425,
      "çµ": 6426,
      "éĩı": 6427,
      "ĠáĢ»áĢĻ": 6428,
      "lex": 6429,
      "áĢķáĢ¹": 6430,
      "amu": 6431,
      "ING": 6432,
      "pk": 6433,
      "à°Ĥà°Ĺà°¾": 6434,
      "Ãłnh": 6435,
      "Å¡a": 6436,
      "Ġimport": 6437,
      "ĻáĢº": 6438,
      "à¦ķà§ĩ": 6439,
      "à´ļàµįà´ļ": 6440,
      "Î»Î¬": 6441,
      "à«ģàª°": 6442,
      "isen": 6443,
      "ãģ¤": 6444,
      "vers": 6445,
      "Ġada": 6446,
      "ĠEng": 6447,
      "Ġà°¹": 6448,
      "Î»ÎŃ": 6449,
      "ÙĤÛĮ": 6450,
      "çĽ´": 6451,
      "áº£n": 6452,
      "Ġgar": 6453,
      "Ġkop": 6454,
      "ĠáĥĹáĥĲáĥķ": 6455,
      "áĥ£áĥľ": 6456,
      "ird": 6457,
      "ĠÊ»O": 6458,
      "Îł": 6459,
      "Ġà¸§": 6460,
      "ĠáĢĢáĢº": 6461,
      "à°°à±į": 6462,
      "çī¹": 6463,
      "×ł×ķ": 6464,
      "ç³»": 6465,
      "ĆĈ": 6466,
      "ĠMad": 6467,
      "à´Ń": 6468,
      "Ð»ÑĮ": 6469,
      "ĠÑīÐ¾": 6470,
      "Ġplus": 6471,
      "à°¾à°²à±ģ": 6472,
      "ĠØ³ÙĪ": 6473,
      "Ġlik": 6474,
      "ãĤ·": 6475,
      "à«įàªª": 6476,
      "à¦ĸ": 6477,
      "Ġtag": 6478,
      "à«Ģàªĵ": 6479,
      "ĠUnivers": 6480,
      "cie": 6481,
      "ĠÐ¿ÑĢÑĭ": 6482,
      "zn": 6483,
      "ÑĸÑģÑĤ": 6484,
      "Ġgy": 6485,
      "mes": 6486,
      "Ġkg": 6487,
      "ĠáĢ¡áĢŀ": 6488,
      "Ġste": 6489,
      "Ġapp": 6490,
      "46": 6491,
      "±áĢķ": 6492,
      "ĠÐ´Ð¾Ð±": 6493,
      "é»": 6494,
      "ĠKat": 6495,
      "à®¿à®ªà¯įà®ª": 6496,
      "ĠAug": 6497,
      "Ġkep": 6498,
      "à´¾à´ķàµįà´ķ": 6499,
      "Ä«t": 6500,
      "ĠMil": 6501,
      "Ġê²ĥ": 6502,
      "Ġges": 6503,
      "ķáĢ«áĢĲáĢļáĢ¹": 6504,
      "×Ļ×¡": 6505,
      "Ġáĥĺáĥľ": 6506,
      "Ġ×Ķ×¢": 6507,
      "Ä«bas": 6508,
      "à¹īà¸Ļ": 6509,
      "ĠsÃ«": 6510,
      "????": 6511,
      "ĠÑıÐºÑĸ": 6512,
      "ÑıÑĢ": 6513,
      "ìĬµ": 6514,
      "Ð½ÑĭÐ¼": 6515,
      "äºĶ": 6516,
      "à¥įà¤¹": 6517,
      "Ļà§įà¦": 6518,
      "alu": 6519,
      "ĠáĥĺáĥĽ": 6520,
      "ä¸İ": 6521,
      "ĠØ§ÙĦØ·": 6522,
      "ÙĤÙĦ": 6523,
      "cio": 6524,
      "Ġ365": 6525,
      "àµĨà´Ł": 6526,
      "ĠáĥĴáĥĲáĥĵ": 6527,
      "ĠAN": 6528,
      "Ġà®µà¯ĩ": 6529,
      "¶Ķ": 6530,
      "Ø§Ø¦ÛĴ": 6531,
      "ĠÃ¥r": 6532,
      "ì§Ģëħ¸": 6533,
      "Ġ95": 6534,
      "åĽŀ": 6535,
      "à¤¨à¥Ģ": 6536,
      "éĵ": 6537,
      "Ð°Ñī": 6538,
      "Ø§Ø¯ÛĮ": 6539,
      "ĠÐ¿Ð¾ÑĢ": 6540,
      "æµ·": 6541,
      "Ġdz": 6542,
      "å±±": 6543,
      "åĳĺ": 6544,
      "inta": 6545,
      "Ġpra": 6546,
      "áĢŃáĢĲáĢ¹áĢ": 6547,
      "à¹ĥà¸Ĭ": 6548,
      "ĠÐ½Ð¾Ð²": 6549,
      "ĠRa": 6550,
      "ĠTur": 6551,
      "ëĭĪ": 6552,
      "á»¯ng": 6553,
      "Ġwy": 6554,
      "ĠgÃ¶": 6555,
      "Ġæĸ°": 6556,
      "à¸£à¸¡": 6557,
      "à¸¸à¸ĵ": 6558,
      "tek": 6559,
      "ĠÐ°ÑĢ": 6560,
      "Ġinn": 6561,
      "áĢĶáĢ¾": 6562,
      "ĠcÄĥ": 6563,
      "cer": 6564,
      "áĢ¸áĢ¡": 6565,
      "ovÃ¡": 6566,
      "Ġlok": 6567,
      "usa": 6568,
      "Ġà´¦": 6569,
      "ody": 6570,
      "Ġany": 6571,
      "ÐºÐ°Ð·": 6572,
      "Ġàªħàª®": 6573,
      "ĠngÆ°á»Ŀi": 6574,
      "Ġbeh": 6575,
      "ĠÙĦÙħ": 6576,
      "Ì£": 6577,
      "à¸²à¸Ļà¸": 6578,
      "ĠéĢ": 6579,
      "ÑģÑĤÐ²Ð°": 6580,
      "à¸«à¸Ļ": 6581,
      "ÅŁÄ±": 6582,
      "tive": 6583,
      "Ð¿ÑĢÐ°Ð²": 6584,
      "ĠTi": 6585,
      "wer": 6586,
      "àµģà´±": 6587,
      "ape": 6588,
      "ÛĮÙĦ": 6589,
      "Ø¯Ø©": 6590,
      "æĦı": 6591,
      "Ġtab": 6592,
      "à¯ģà®ªà¯įà®ª": 6593,
      "ĠÏħÏĢ": 6594,
      "mal": 6595,
      "æīĢ": 6596,
      "Ġook": 6597,
      "rio": 6598,
      "ÏĦÎ¿ÏĤ": 6599,
      "jd": 6600,
      "éĹ´": 6601,
      "áĥĿáĥĳáĥĲ": 6602,
      "áĥĲáĥ¦": 6603,
      "×Ļ×Ľ": 6604,
      "kom": 6605,
      "yor": 6606,
      "Ġvit": 6607,
      "iyo": 6608,
      "à´¾à´¨àµįâĢį": 6609,
      "Ġ??": 6610,
      "Ġà¹ģà¸¥à¸°": 6611,
      "à´ķàµįà´·": 6612,
      "à«ĩàª¨": 6613,
      "Ġadalah": 6614,
      "à°ļà±įà°ļ": 6615,
      "Ð¸ÑĤÐµÐ»": 6616,
      "ãĥĹ": 6617,
      "ĠÏĢÎ¿": 6618,
      "ĠÙ¾Ø§Ú©": 6619,
      "àµģà´¤àµįà´¤": 6620,
      "ĠáĥĲáĥľ": 6621,
      "ï½": 6622,
      "áĥĶáĥłáĥĺ": 6623,
      "Ġvia": 6624,
      "ĠYou": 6625,
      "Ġgre": 6626,
      "Ġ2006": 6627,
      "Ġip": 6628,
      "àªµà«Ģ": 6629,
      "ĠtÃ¤": 6630,
      "igt": 6631,
      "ĠáĢŁ": 6632,
      "Ġìłķ": 6633,
      "ube": 6634,
      "Ø§ÛĮÛĮ": 6635,
      "à§ĩà¦ĸ": 6636,
      "åįķåıĮ": 6637,
      "ikk": 6638,
      "à¦ĵ": 6639,
      "Ð²ÑĢ": 6640,
      "ties": 6641,
      "Ġone": 6642,
      "Ġå¥": 6643,
      "Ġuchun": 6644,
      "ÏĦÎ±ÏĤ": 6645,
      "ĠÃ®ntÃ¢l": 6646,
      "ç¨ĭ": 6647,
      "alia": 6648,
      "Ø°Ùĩ": 6649,
      "Ġìĺ¤": 6650,
      "ÙĨÙĬ": 6651,
      "Ã±a": 6652,
      "áĢĦáĢ·": 6653,
      "Ġ):": 6654,
      "æ¡": 6655,
      "ÙĩØ¯": 6656,
      "Ġ×ĳ×¢": 6657,
      "ron": 6658,
      "Ġàªµàª§": 6659,
      "ÅĤa": 6660,
      "Ġvend": 6661,
      "Ġ×©×Ķ": 6662,
      "Ã³d": 6663,
      "ĠÐ¿ÑĢÐ¾Ð´": 6664,
      "Ġà´ħà´µ": 6665,
      "uke": 6666,
      "åħ¬åı¸": 6667,
      "ÎĽ": 6668,
      "aten": 6669,
      "ÅĻÃŃ": 6670,
      "UM": 6671,
      "ĠvÃ¦": 6672,
      "×ľ×Ķ": 6673,
      "Ġ:)": 6674,
      "Ã¼z": 6675,
      "èį": 6676,
      "dÄ±r": 6677,
      "Î»Î®": 6678,
      "Î¿ÏĤ": 6679,
      "ĠÐĿÐ°": 6680,
      "ĠÛĮØ§": 6681,
      "Ġinde": 6682,
      "à¸ģà¸¥": 6683,
      "Ð´Ðµ": 6684,
      "ãģĽ": 6685,
      "ÎµÏĦÎ±Î¹": 6686,
      "ĠØ§Øª": 6687,
      "aye": 6688,
      "Ġnhi": 6689,
      "Ò³Ð¾Ð¸": 6690,
      "ENT": 6691,
      "ĠÑįÑĤ": 6692,
      "ĠÐ³Ñį": 6693,
      "aria": 6694,
      "Ġfir": 6695,
      "Ø±ØŃ": 6696,
      "ĠØªØ¬": 6697,
      "ë¹Ħ": 6698,
      "×Ļ×ķ": 6699,
      "Ġëª¨": 6700,
      "à¤¹à¥ĩ": 6701,
      "ç®¡": 6702,
      "AH": 6703,
      "Ð¼Ð¾": 6704,
      "å¥³": 6705,
      "ĠBel": 6706,
      "Î¼Î²": 6707,
      "ĠÐ½Ð°ÑĪ": 6708,
      "Ġà¸Ľ": 6709,
      "à¹ĥà¸Ļà¸": 6710,
      "Ġatau": 6711,
      "essa": 6712,
      "ĠØ³Ø¨": 6713,
      "oda": 6714,
      "æĬ¥": 6715,
      "eke": 6716,
      "ious": 6717,
      "ÃĦ": 6718,
      "çĻ¾": 6719,
      "ĠáĥĲáĥ¡": 6720,
      "ÑĢÐ°ÑĹ": 6721,
      "à´¡": 6722,
      "Ġdik": 6723,
      "åħįè´¹": 6724,
      "ìĺ¤": 6725,
      "×¤×¨": 6726,
      "Ġáģģáģ": 6727,
      "ther": 6728,
      "ĠÙħØ®": 6729,
      "Ð±Ð¾ÑĢ": 6730,
      "ĠØ§ÙĤ": 6731,
      "Ġport": 6732,
      "åķĨ": 6733,
      "ĠÐ¡ÑĤ": 6734,
      "à¤¿à¤Ĥ": 6735,
      "Ġsau": 6736,
      "--------": 6737,
      "ĠÐ½Ð°Ñģ": 6738,
      "Ġpdf": 6739,
      "ideos": 6740,
      "à°¾à°µ": 6741,
      "ĠÙĦÙĪ": 6742,
      "à¤¸à¥ĩ": 6743,
      "ĠìĨ": 6744,
      "ĠÖ": 6745,
      "ÏįÎ½": 6746,
      "ĠÎ¾": 6747,
      "ograf": 6748,
      "åı·": 6749,
      "Ã¡ll": 6750,
      "Ġjest": 6751,
      "ĠâĹ": 6752,
      "Ø²ÛĮ": 6753,
      "Ġbij": 6754,
      "ĠáĢ¥": 6755,
      "Ãłi": 6756,
      "ustr": 6757,
      "ĠÏĢÎ¿Î»": 6758,
      "ĠáĢ»áĢĸáĢħáĢ¹áĢ": 6759,
      "Ġsan": 6760,
      "ĠKon": 6761,
      "Ġparte": 6762,
      "rod": 6763,
      "tal": 6764,
      "Ã©e": 6765,
      "ÑĤÑĮÑģÑı": 6766,
      "ì°": 6767,
      "tel": 6768,
      "áĢĦáĢºáĢ¸": 6769,
      "ĠCat": 6770,
      "Ġàª®àª¹": 6771,
      "áº§u": 6772,
      "Ø±Ø¶": 6773,
      "Ġapr": 6774,
      "Ġred": 6775,
      "Ð´Ð·": 6776,
      "ĠGu": 6777,
      "à¹Ģà¸ª": 6778,
      "Ġáĥ¨áĥĶáĥ¡": 6779,
      "ĠAG": 6780,
      "éĩĮ": 6781,
      "ÏĥÏĦ": 6782,
      "Ġfer": 6783,
      "Ġdav": 6784,
      "ÑĪÐ¸": 6785,
      "Ġmana": 6786,
      "azi": 6787,
      "ĠÎµÎ¯": 6788,
      "Ġjuga": 6789,
      "Ġtime": 6790,
      "à²": 6791,
      "teri": 6792,
      "Ġà®ĩà®¨à¯įà®¤": 6793,
      "ĠÚ©Ø´": 6794,
      "Ġnt": 6795,
      "Ð»Ð°Ð½": 6796,
      "Äĵj": 6797,
      "Ġnec": 6798,
      "Ġàªľà«ĩ": 6799,
      "Ðĳ": 6800,
      "áĢ±áĢĢ": 6801,
      "ĠÐºÐ¸": 6802,
      "Ġà¤Ńà¥Ģ": 6803,
      "ĠGre": 6804,
      "ĠTV": 6805,
      "esu": 6806,
      "ãĤ£": 6807,
      "32": 6808,
      "In": 6809,
      "Ġà¸Ĥ": 6810,
      "ibil": 6811,
      "è§Ĥ": 6812,
      "ĠÎµÎ¾": 6813,
      "37": 6814,
      "à±ģà°µ": 6815,
      "ader": 6816,
      "ç¤¾": 6817,
      "ÎŃÏģ": 6818,
      "à°³": 6819,
      "aa": 6820,
      "ages": 6821,
      "Ġëĭ¤": 6822,
      "47": 6823,
      "pet": 6824,
      "à´ķàµįà´ķàµį": 6825,
      "ÙĤÙĬ": 6826,
      "ëĵľ": 6827,
      "áĢ¸áĢľ": 6828,
      "Ġhore": 6829,
      "Ġàª¸àªĤàª": 6830,
      "omen": 6831,
      "ĠÑģÐ°": 6832,
      "Ġkt": 6833,
      "ĠÐ°Ñģ": 6834,
      "ÐµÐ»Ð°ÑĢ": 6835,
      "Ġàªķàª¹": 6836,
      "ªà¯į": 6837,
      "ìĿ´íĬ¸": 6838,
      "ĠRed": 6839,
      "à´¿à´µ": 6840,
      "à¦¨à§įà¦¤": 6841,
      "ĠØ§Ø¬": 6842,
      "àµģà´£àµįà´Ł": 6843,
      "isten": 6844,
      "mar": 6845,
      "Î¿ÏħÎ¼Îµ": 6846,
      "ĠÑĩÐ°Ñģ": 6847,
      "ĠÐ¿Ð¾Ð¼": 6848,
      "Ġbud": 6849,
      "ĠÐ¸ÑģÑĤ": 6850,
      "Ġons": 6851,
      "Ġ').": 6852,
      "à«Ģàªķ": 6853,
      "Ġnews": 6854,
      "Î±Ïģ": 6855,
      "Ġseu": 6856,
      "à®¿à®´": 6857,
      "iment": 6858,
      "isÃ«": 6859,
      "Û°": 6860,
      "Ġkn": 6861,
      "ĠJoh": 6862,
      "ĠÐĸ": 6863,
      "Ġmill": 6864,
      "×ŀ×Ķ": 6865,
      "à¯Īà®ķà¯įà®ķ": 6866,
      "ä»ĸ": 6867,
      "ĠSte": 6868,
      "Ġ×ĳ×ŀ×": 6869,
      "×ķ×Ľ": 6870,
      "à¯ĩà®°": 6871,
      "Ġfalse": 6872,
      "±áĢľ": 6873,
      "Î·ÏĤ": 6874,
      "2019": 6875,
      "àµįà´¥": 6876,
      "Î¼ÏĢ": 6877,
      "ç±": 6878,
      "ĠStr": 6879,
      "ĠÙĩØ°Ø§": 6880,
      "Ġà¤ķà¤¿": 6881,
      "íĦ°": 6882,
      "gj": 6883,
      "áĢ¬áĢŀ": 6884,
      "Ġà¤Ł": 6885,
      "ĠJo": 6886,
      "ĠÐºÐ¾Ð¼Ð¿": 6887,
      "Ú©ÙĨ": 6888,
      "apan": 6889,
      "ĠTa": 6890,
      "à±Īà°¨": 6891,
      "Ġbek": 6892,
      "à¸Ńà¸£à¹Į": 6893,
      "Ð°Ð¸": 6894,
      "Ġàª¹à«ĭàª¯": 6895,
      "uku": 6896,
      "Ġstart": 6897,
      "áĥĲáĥ¬": 6898,
      "ÎµÏħ": 6899,
      "ĠØ®ÙĪ": 6900,
      "IP": 6901,
      "lem": 6902,
      "Ġ''": 6903,
      "Ġjag": 6904,
      "inter": 6905,
      "Ġeff": 6906,
      "Ġzijn": 6907,
      "Ð¾Ð³Ð°": 6908,
      "à«ĭàªĹ": 6909,
      "Ġbus": 6910,
      "cho": 6911,
      "Ġlig": 6912,
      "Ð½Ð¸Ð¼": 6913,
      "×ľ×Ĳ": 6914,
      "ĠWeb": 6915,
      "inal": 6916,
      "áĥłáĥĿ": 6917,
      "Ġå¾": 6918,
      "Ð³Ð°ÑĢ": 6919,
      "Â»": 6920,
      "ĠÐ¿Ð¾Ðº": 6921,
      "×ł×Ķ": 6922,
      "iny": 6923,
      "é©": 6924,
      "çĥ": 6925,
      "Ġtla": 6926,
      "ĠnhÆ°": 6927,
      "ÏĦÎ¹ÎºÎ¬": 6928,
      "Ġå¼": 6929,
      "ĠDis": 6930,
      "Ġàª¨àª¥à«Ģ": 6931,
      "Ġà¦ľà¦¨": 6932,
      "Ø§Ø«": 6933,
      "Ġfol": 6934,
      "Ġprim": 6935,
      "Ġà¹ĥ": 6936,
      "ç¦": 6937,
      "Ġket": 6938,
      "orld": 6939,
      "Ġlak": 6940,
      "áĢ¬áĢĦáĢ¹": 6941,
      "cher": 6942,
      "Ġback": 6943,
      "à´¸àµį": 6944,
      "ĠSz": 6945,
      "ĠiÃ§in": 6946,
      "Ð¸ÑĤÐ¸": 6947,
      "Ġdob": 6948,
      "à¸¹à¹Ī": 6949,
      "ĠÐ´Ð°Ð²": 6950,
      "ÑĨÐµ": 6951,
      "antes": 6952,
      "ãĤı": 6953,
      "Ġold": 6954,
      "ĠÐŃ": 6955,
      "OP": 6956,
      "Ġhotel": 6957,
      "ÙĪØ±Øª": 6958,
      "Ġ150": 6959,
      "Ġpie": 6960,
      "Ã¶s": 6961,
      "CH": 6962,
      "Ġalla": 6963,
      "ĠNE": 6964,
      "æ¬¡": 6965,
      "Ġgrup": 6966,
      "Ð¸Ð¿": 6967,
      "heid": 6968,
      "Ð²Ð¾": 6969,
      "åĻ": 6970,
      "Ð»Ð°ÑĪ": 6971,
      "ĠDu": 6972,
      "Äĥm": 6973,
      "Ġè¿Ļ": 6974,
      "áĢ¬áĢ¸áĢĽ": 6975,
      "Ġ×Ļ×©": 6976,
      "à¸Ĺà¸¢": 6977,
      "unda": 6978,
      "ãĤ³": 6979,
      "Ã¢y": 6980,
      "ĠDan": 6981,
      "ĠáĥĲáĥ¦": 6982,
      "ÙģÙĬ": 6983,
      "eno": 6984,
      "ef": 6985,
      "à¯ģà®³à¯įà®³": 6986,
      "Ã¨s": 6987,
      "uten": 6988,
      "Æ°á»Ľc": 6989,
      "agai": 6990,
      "è¢": 6991,
      "áĥķáĥļ": 6992,
      "adan": 6993,
      "Ġgan": 6994,
      "æ¼": 6995,
      "à°§": 6996,
      "rin": 6997,
      "atie": 6998,
      "idas": 6999,
      "ĠÐ¡Ð": 7000,
      "aire": 7001,
      "ĠØªÚ¾Ø§": 7002,
      "áĢĽáĢ¾áĢŃ": 7003,
      "98": 7004,
      "ĠPers": 7005,
      "àª¿àª¸": 7006,
      "imulyo": 7007,
      "æĢĿ": 7008,
      "ÑĬÑĤ": 7009,
      "miÅŁ": 7010,
      "Ġ88": 7011,
      "èĪ°": 7012,
      "ĠGi": 7013,
      "ilar": 7014,
      "á»£": 7015,
      "Ø§Úº": 7016,
      "ŀáĢ°": 7017,
      "à¤²à¤¾": 7018,
      "ÏĦÎµÏĤ": 7019,
      "Ġáĥ¯": 7020,
      "ilik": 7021,
      "ĠLat": 7022,
      "ÏģÎ®": 7023,
      "ues": 7024,
      "Ð³Ð¾Ð²": 7025,
      "alla": 7026,
      "hm": 7027,
      "ĠØ´Ø¯Ùĩ": 7028,
      "Ġisang": 7029,
      "Ġconta": 7030,
      "æĻĤ": 7031,
      "bek": 7032,
      "Ġć": 7033,
      "Î¬Î»": 7034,
      "Ġmeny": 7035,
      "kor": 7036,
      "Ġhier": 7037,
      "à°¿à°Ĥà°¦à°¿": 7038,
      "ĠHot": 7039,
      "Ġlag": 7040,
      "ÙĪØª": 7041,
      "éĴ±": 7042,
      "ĠØªØµ": 7043,
      "IV": 7044,
      "ê·": 7045,
      "Ġkad": 7046,
      "kur": 7047,
      "è¯´": 7048,
      "áĢ¯áĢŃáĤĶ": 7049,
      "isti": 7050,
      "Îľ": 7051,
      "amin": 7052,
      "nia": 7053,
      "ĠBy": 7054,
      "à±ģà°Ĺ": 7055,
      "à´¿à´Łàµįà´Ł": 7056,
      "Ġà¤¡": 7057,
      "Ġ85": 7058,
      "Ġàª¹àª¤à«Ģ": 7059,
      "ãģ¿": 7060,
      "à«Ģàª¯": 7061,
      "asan": 7062,
      "ĠÐ²Ð¸Ð´": 7063,
      "à«¦": 7064,
      "à§ĭà¦¨": 7065,
      "à«Ģàª¨à«ĩ": 7066,
      "ĠDer": 7067,
      "Ġpriv": 7068,
      "àªĽ": 7069,
      "à®ªà¯įà®ªà®Ł": 7070,
      "eller": 7071,
      "oso": 7072,
      "Ġvel": 7073,
      "ĠnÃ£o": 7074,
      "EK": 7075,
      "éĻ¢": 7076,
      "ezi": 7077,
      "çĽ¸": 7078,
      "ady": 7079,
      "utta": 7080,
      "Ġ×Ľ×ľ": 7081,
      "Ã¼t": 7082,
      "áĢ¸áĢħ": 7083,
      "Ġà¤²à¤¿à¤ı": 7084,
      "áĥĹáĥķáĥĺáĥ¡": 7085,
      "Ġvet": 7086,
      "ĠÎ¤Î¿": 7087,
      "Ġabout": 7088,
      "è·¯": 7089,
      "AY": 7090,
      "ĠST": 7091,
      "Ġà¤¸à¤®": 7092,
      "ãģĦãĤĭ": 7093,
      "67": 7094,
      "ĠØ¬Ø§ÙĨ": 7095,
      "Ġnorm": 7096,
      "áĤĬ": 7097,
      "ĠÙĥØ§ÙĨ": 7098,
      "ëĤ¨": 7099,
      "à®¤à¯įà®¤à®¿à®²à¯į": 7100,
      "Ġneb": 7101,
      "Ġrom": 7102,
      "àªı": 7103,
      "Ġanda": 7104,
      "aza": 7105,
      "à¸²à¸§": 7106,
      "Ġáĥ£áĥľ": 7107,
      "ĠØ¨ÙĪØ¯": 7108,
      "Ø§ÙĦÙħ": 7109,
      "Ġmenj": 7110,
      "Õµ": 7111,
      "è®¾": 7112,
      "ĠØ¯ÙĪØ±": 7113,
      "ads": 7114,
      "ÙĥØ±": 7115,
      "Î·Î½": 7116,
      "95": 7117,
      "ayo": 7118,
      "ĠáĥĲáĥłáĥ": 7119,
      "áºŃn": 7120,
      "æĶ¿": 7121,
      "Ġà¦¨à¦¾": 7122,
      "Ġ×Ķ×¨": 7123,
      "çİ©": 7124,
      "à§ģà¦¨": 7125,
      "Ġvid": 7126,
      "tern": 7127,
      "Ġsitu": 7128,
      "ĠìĬ": 7129,
      "iran": 7130,
      "Ġà¦¬à§įà¦¯": 7131,
      "ĠAS": 7132,
      "rov": 7133,
      "ĠOb": 7134,
      "à°Ń": 7135,
      "jem": 7136,
      "Ġà¸¥": 7137,
      "á»±c": 7138,
      "asti": 7139,
      "Ø§ÙĦÛĮ": 7140,
      "á»©c": 7141,
      "åİ¿": 7142,
      "çº§": 7143,
      "ĠìĿ¸": 7144,
      "Ġkita": 7145,
      "ĠÙĩØ§": 7146,
      "hor": 7147,
      "ĠSc": 7148,
      "ÑģÐ°": 7149,
      "sel": 7150,
      "á½": 7151,
      "ĠÑŀÐ·": 7152,
      "Ãĥ": 7153,
      "ÑĢÐ¾Ð²": 7154,
      "Ġáĥ¡áĥĲáĥ®": 7155,
      "à¹Ģà¸Ľà¹ĩà¸Ļà¸": 7156,
      "ĠÏĢÏģÎ¿Ïĥ": 7157,
      "ĠÄĳá»Ļ": 7158,
      "ĠAmer": 7159,
      "áĢ±áĢ¬áĢĦáĢºáĢ¸áĢ": 7160,
      "atz": 7161,
      "á»Ń": 7162,
      "ĠÐ½Ñı": 7163,
      "imiz": 7164,
      "ÙĪØ§Ø±": 7165,
      "à¥ģà¤°": 7166,
      "ĠÎ§": 7167,
      "íļĮ": 7168,
      "Ġere": 7169,
      "áĢ¬áĢĢáĢ¹": 7170,
      "Ð³Ð°Ð½Ð¸": 7171,
      "æĴŃ": 7172,
      "à´¾à´°àµįâĢį": 7173,
      "ĠIS": 7174,
      "Ġcomm": 7175,
      "ÙĨØ¬": 7176,
      "Ġkoh": 7177,
      "OD": 7178,
      "ĠÙģÛĮ": 7179,
      "Ġngud": 7180,
      "áĢ±áĢ¡": 7181,
      "Ġngudimulyo": 7182,
      "ĠUr": 7183,
      "Ġimp": 7184,
      "ÐºÑĤ": 7185,
      "à¸«à¸¥": 7186,
      "AV": 7187,
      "Ð¾Ð´Ð°": 7188,
      "áĢ»áĢĸ": 7189,
      "ÐµÐ¼Ð°": 7190,
      "uw": 7191,
      "qip": 7192,
      "Ġà¦¬à¦¾à¦": 7193,
      "ÑĤÐ¸Ð²": 7194,
      "Ã±o": 7195,
      "nych": 7196,
      "àª¾àªĵ": 7197,
      "ãĥĥãĥĪ": 7198,
      "çģ": 7199,
      "à«ĭàª°": 7200,
      "áĢ±áĢ·": 7201,
      "àª¾àª¡": 7202,
      "Ù¹ÛĮ": 7203,
      "opp": 7204,
      "ĠEle": 7205,
      "Ġdev": 7206,
      "Ġporno": 7207,
      "áĢ¬áĢľ": 7208,
      "ery": 7209,
      "ĠTel": 7210,
      "Ġ;&#": 7211,
      "àª¾àªĸ": 7212,
      "Å©": 7213,
      "à¹Īà¸¡": 7214,
      "ÙĤØ¯": 7215,
      "Ġsar": 7216,
      "Ġáĥ¨áĥĶ": 7217,
      "amm": 7218,
      "Ġtamb": 7219,
      "à®°à¯įà®ķà®³": 7220,
      "ÑĦÐ¾ÑĢÐ¼": 7221,
      "ĠPort": 7222,
      "Ã´i": 7223,
      "ĠÐ±ÑŀÐ»": 7224,
      "Ã½m": 7225,
      "Î¥": 7226,
      "ĠRom": 7227,
      "ĻáĢ½áĢ¬": 7228,
      "cm": 7229,
      "ĠáĥłáĥĿáĥĽáĥĶáĥļ": 7230,
      "ĠÑĩÑĤÐ¾": 7231,
      "áº¹lu": 7232,
      "Ġà´¨à´¿à´": 7233,
      "Ú©Ú¾": 7234,
      "ĠÙĪØ²": 7235,
      "à§įà¦²": 7236,
      "æĹĹèĪ°": 7237,
      "ĠAir": 7238,
      "ĠÑĩÐµ": 7239,
      "Ġà´¸à´Ĥ": 7240,
      "Ġsee": 7241,
      "ĠÐ±Ð¸ÑĢ": 7242,
      "Ġáĥĺáĥ§": 7243,
      "Ġáĥ¡áĥĲáĥ¥áĥĲáĥłáĥĹáĥķáĥĶáĥļ": 7244,
      "ĠåĮĹäº¬": 7245,
      "Ġsite": 7246,
      "ĠØ¨Ú¾": 7247,
      "ĠÅł": 7248,
      "ites": 7249,
      "èµ·": 7250,
      "ĠØ§ÙĦØ«": 7251,
      "bel": 7252,
      "Ð°Ð»Ð°ÑĢ": 7253,
      "ìĹ¬": 7254,
      "à´¾à´¸": 7255,
      "à¹Ģà¸ĩ": 7256,
      "Ġant": 7257,
      "à¹Ģà¸Ľà¹ĩà¸Ļ": 7258,
      "Ġour": 7259,
      "ĠII": 7260,
      "Ġconst": 7261,
      "åºĹ": 7262,
      "itter": 7263,
      "íķĺëĬĶ": 7264,
      "ĠÏĥÏĦÎ±": 7265,
      "ĠÐİ": 7266,
      "à°°à°¿à°": 7267,
      "ĠìŀĲ": 7268,
      "iye": 7269,
      "eres": 7270,
      "ball": 7271,
      "Ð¡Ð": 7272,
      "Ġutil": 7273,
      "à°¾à°¦": 7274,
      "à°¨à±į": 7275,
      "Ġskal": 7276,
      "Ġç»": 7277,
      "Ġlat": 7278,
      "éª": 7279,
      "ÅĤo": 7280,
      "áĤıáĢ½áĢĦáĢ¹áĢ·": 7281,
      "ĠCH": 7282,
      "ango": 7283,
      "ë¯¸": 7284,
      "ĠEUR": 7285,
      "ĠáĥĽáĥĺáĥ¡": 7286,
      "agy": 7287,
      "Ġhon": 7288,
      "ĠæĹ¥": 7289,
      "ĠAL": 7290,
      "ìĽĶ": 7291,
      "åŀ": 7292,
      "Ġà¦¡": 7293,
      "Ã¡ny": 7294,
      "à¤²à¥Ģ": 7295,
      "à§Ģà¦°": 7296,
      "ĠèĢ": 7297,
      "Õ¥ÖĢ": 7298,
      "ĠÐ¿ÑĸÐ´": 7299,
      "ultur": 7300,
      "Ġleng": 7301,
      "ØªØµ": 7302,
      "áĢļáĢ¹áĢľ": 7303,
      "ves": 7304,
      "Ġhl": 7305,
      "Ġ×Ķ×ŀ": 7306,
      "31": 7307,
      "war": 7308,
      "à´¿à´²àµĨ": 7309,
      "ĠØ¨Ø§Ø´": 7310,
      "ĠInst": 7311,
      "bol": 7312,
      "Ġvu": 7313,
      "Ã¡nÃŃ": 7314,
      "elij": 7315,
      "ivo": 7316,
      "à¸ļà¸ļ": 7317,
      "à´¾à´Ł": 7318,
      "ges": 7319,
      "Ġï¿½ï¿½ï¿½ï¿½ï¿½ï¿½ï¿½": 7320,
      "ĠÐ±Ñĥ": 7321,
      "á»ĩt": 7322,
      "áĥłáĥĺ": 7323,
      "Ġhak": 7324,
      "å°Ĩ": 7325,
      "ĠØ¢Ùħ": 7326,
      "lay": 7327,
      "uman": 7328,
      "ines": 7329,
      "ĠÊ»o": 7330,
      "Ġproblem": 7331,
      "èĢĥ": 7332,
      "liy": 7333,
      "amat": 7334,
      "Ġ×ŀ×Ĳ": 7335,
      "µľ": 7336,
      "ION": 7337,
      "nÃ«": 7338,
      "Ġhav": 7339,
      "áĥĲáĥĿ": 7340,
      "ĠGal": 7341,
      "à´¿à´ķàµįà´ķàµģà´¨àµįà´¨": 7342,
      "ĠÎ¦": 7343,
      "unn": 7344,
      "Ø³ÙĬ": 7345,
      "ĠmÃ©s": 7346,
      "à«ģàªķ": 7347,
      "vet": 7348,
      "Ġà´±": 7349,
      "Ġnhá»¯ng": 7350,
      "æ´»": 7351,
      "èµĽè½¦": 7352,
      "Ð¾ÑĢÑĤ": 7353,
      "Ġà¤Ĩà¤ª": 7354,
      "Ġgal": 7355,
      "ĠÐ£Ðº": 7356,
      "ĠáĢĿ": 7357,
      "ĠApp": 7358,
      "à®®à¯įà®ª": 7359,
      "àµĭà´Ł": 7360,
      "Ġbuh": 7361,
      "Ġmend": 7362,
      "ĠãģĿ": 7363,
      "ĠØ¯Ø³Øª": 7364,
      "Ġpoz": 7365,
      "Ġà°ı": 7366,
      "Ġàªīàªª": 7367,
      "unu": 7368,
      "Ġcompl": 7369,
      "Ġll": 7370,
      "yen": 7371,
      "Ġlog": 7372,
      "åıĬ": 7373,
      "Ġà¦¤à¦¾à¦°": 7374,
      "Ġfamil": 7375,
      "ĠÐ°Ð½": 7376,
      "Ã¥n": 7377,
      "à¸ģà¹ĩ": 7378,
      "Ø¨Ùĩ": 7379,
      "Ð¾Ð»Ð¾Ð³": 7380,
      "Ġdapat": 7381,
      "Ð¸ÑĢÐ°": 7382,
      "Ð°ÑĨÐ¸Ñı": 7383,
      "Ġà´Ń": 7384,
      "àª£à«ĩ": 7385,
      "Õ¡Õ¯": 7386,
      "Ġfind": 7387,
      "à§ĩà¦ķà§ĩ": 7388,
      "íĮ": 7389,
      "Ġláº¹": 7390,
      "à«ĩàª¤": 7391,
      "ĠCan": 7392,
      "Ġfar": 7393,
      "ĠáĥĲáĥ®": 7394,
      "à¸¡à¸²à¸": 7395,
      "omat": 7396,
      "Ġtest": 7397,
      "Ġdist": 7398,
      "ĠæŃ": 7399,
      "Ð±Ð°": 7400,
      "è¥¿": 7401,
      "áĥĲáĥ£áĥ": 7402,
      "Ġyer": 7403,
      "Ġì°": 7404,
      "Ã¡p": 7405,
      "Ġbin": 7406,
      "emo": 7407,
      "ipa": 7408,
      "Ä±s": 7409,
      "ÄŁi": 7410,
      "ĠMet": 7411,
      "à¤ķà¥ĩ": 7412,
      "Ġsah": 7413,
      "Ġliv": 7414,
      "ì½ľê±¸": 7415,
      "ĠÙĩÙĪ": 7416,
      "ÃŃnh": 7417,
      "Ġ×Ķ×ĳ": 7418,
      "Ġzo": 7419,
      "Î©": 7420,
      "æľį": 7421,
      "ced": 7422,
      "ĠÐ±Ð¾": 7423,
      "à¸£à¸ĩ": 7424,
      "itÃł": 7425,
      "ĻáĢ½": 7426,
      "Ġnad": 7427,
      "ĠÉĻ": 7428,
      "lÃ¤": 7429,
      "Ġsoci": 7430,
      "ĠáĢĦ": 7431,
      "Ġà´Ĺ": 7432,
      "encia": 7433,
      "Ġvor": 7434,
      "à¹Ģà¸¡": 7435,
      "Ġà°Ł": 7436,
      "ĠWh": 7437,
      "elser": 7438,
      "à´¿à´ªàµįà´ª": 7439,
      "ĠØ§ÙĦÙĪ": 7440,
      "à¦ķà§įà¦·": 7441,
      "ä½¿": 7442,
      "ĠÎ¼Î¹Î±": 7443,
      "ĠÙĪÛĮ": 7444,
      "ĠÄĮ": 7445,
      "ÑĸÑĢ": 7446,
      "Ġkama": 7447,
      "ĠâĶ": 7448,
      "à¸·à¹Īà¸Ńà¸ĩ": 7449,
      "Ġnog": 7450,
      "Å¾e": 7451,
      "à¹ĥà¸Ĭà¹ī": 7452,
      "rea": 7453,
      "ÑĩÐµ": 7454,
      "ìĬµëĭĪëĭ¤": 7455,
      "Ġ98": 7456,
      "Ã©d": 7457,
      "Ġê²½": 7458,
      "Ġnat": 7459,
      "Ð¼Ð°ÑĤ": 7460,
      "Ġmir": 7461,
      "Ġnep": 7462,
      "Ġàªħàª¨": 7463,
      "×£": 7464,
      "bin": 7465,
      "Ļà§įà¦Ĺ": 7466,
      "ÙĥÙĦ": 7467,
      "ĠÃ¸": 7468,
      "Ġbot": 7469,
      "Ġwal": 7470,
      "Ġàª®àª³": 7471,
      "ĠÐ·Ð°Ð±": 7472,
      "Î»Î¯": 7473,
      "ĠâĨĴ": 7474,
      "Ãľ": 7475,
      "mail": 7476,
      "hd": 7477,
      "Ġarticle": 7478,
      "áºŃt": 7479,
      "Ð²Ð°ÑĢ": 7480,
      "ÑĭÐ¹": 7481,
      "ĠÚ©Ø±ÙĨÛĴ": 7482,
      "à´§": 7483,
      "ĠAf": 7484,
      "64": 7485,
      "ÉĻrbay": 7486,
      "inÉĻ": 7487,
      "à®°à¯įà®ķà®³à¯į": 7488,
      "uran": 7489,
      "à¸§à¸¢": 7490,
      "àª¤à«Ģ": 7491,
      "Ġfont": 7492,
      "ÏģÏĩ": 7493,
      "à¦Ľ": 7494,
      "Ġtele": 7495,
      "Ġkab": 7496,
      "ĠPal": 7497,
      "çĿĢ": 7498,
      "Ġadmin": 7499,
      "ĠØ±Ø³": 7500,
      "Ã§Ãµes": 7501,
      "Ø¡": 7502,
      "ĠÎĽ": 7503,
      "nek": 7504,
      "Ġlar": 7505,
      "ÏĢÎ¿Ïħ": 7506,
      "Ġ×¢×Ŀ": 7507,
      "ĠáĢ¡áĢħ": 7508,
      "Ġktor": 7509,
      "fat": 7510,
      "à¥įà¤®": 7511,
      "à¤Ĥà¤¤": 7512,
      "áĥĿáĥĹ": 7513,
      "agen": 7514,
      "áĥĺáĥĵáĥĲáĥľ": 7515,
      "Ġble": 7516,
      "æĹł": 7517,
      "osp": 7518,
      "icha": 7519,
      "à§įà¦®": 7520,
      "ĠBi": 7521,
      "Ġdol": 7522,
      "ĠÂ²": 7523,
      "»áĢĸ": 7524,
      "æ¨": 7525,
      "Ġont": 7526,
      "ĠÆı": 7527,
      "ìĭł": 7528,
      "Ã³s": 7529,
      "eba": 7530,
      "Ġà¸Ķ": 7531,
      "áĢŁáĢ¬": 7532,
      "Ġzi": 7533,
      "AA": 7534,
      "áĥļáĥĶáĥĳ": 7535,
      "ĠMart": 7536,
      "åĻ¨": 7537,
      "kil": 7538,
      "Ġkil": 7539,
      "áĢ¥áĢ¹áĢ": 7540,
      "Ġsang": 7541,
      "Ġning": 7542,
      "ĠáĢŀáĢŃ": 7543,
      "àª¿àª¨": 7544,
      "Ġproj": 7545,
      "xe": 7546,
      "Ġnor": 7547,
      "Ø§ÛĮØª": 7548,
      "à°¿à°µ": 7549,
      "lash": 7550,
      "Ð½Ð¸Ñı": 7551,
      "Ð°Ð½Ð¸Ñı": 7552,
      "uu": 7553,
      "qi": 7554,
      "ĠØ¨Ø§Ø±": 7555,
      "Ġoper": 7556,
      "Ġwid": 7557,
      "Ġíı": 7558,
      "ĠBen": 7559,
      "imu": 7560,
      "Ġposs": 7561,
      "Ġsaya": 7562,
      "Ġmaar": 7563,
      "Ġáĥ§áĥķáĥĶáĥļ": 7564,
      "äºī": 7565,
      "ÙĪØ±Ø¯": 7566,
      "OK": 7567,
      "ÎŁÎ¥": 7568,
      "à®¾à®®à¯į": 7569,
      "ĠÐ³Ð¾Ð»": 7570,
      "ĠÎ¼Î±ÏĤ": 7571,
      "200": 7572,
      "Ð½Ð¾ÑĹ": 7573,
      "à¤ı": 7574,
      "row": 7575,
      "Ð°Ð½Ð¾": 7576,
      "Ġdun": 7577,
      "ĠáĢĢáĢ¼": 7578,
      "ĠThis": 7579,
      "ÏĮÏĦÎµ": 7580,
      "ÙĦÙĪØ¯": 7581,
      "à¤¹à¥Ģà¤Ĥ": 7582,
      "éŁ": 7583,
      "à§ĩà¦Ł": 7584,
      "Ø¬Ùħ": 7585,
      "ĽĦ": 7586,
      "å½ĵ": 7587,
      "Ð½ÑĭÑı": 7588,
      "á»ģn": 7589,
      "Ġà¦ıà¦¬": 7590,
      "âĢį": 7591,
      "ĠÎºÎ±ÏĦÎ±": 7592,
      "ever": 7593,
      "put": 7594,
      "Ġhem": 7595,
      "Î³ÏģÎ±": 7596,
      "ĠtÃ¶": 7597,
      "à´¾à´Ĥ": 7598,
      "ĠÑīÐµ": 7599,
      "ï¼ĮãĢĳãĢĲ": 7600,
      "Ø¨Øª": 7601,
      "Ġà¦¨à¦¿à¦": 7602,
      "kol": 7603,
      "Ð»Ð°Ð²": 7604,
      "ĠÙĪÙħ": 7605,
      "Ġhol": 7606,
      "áĢĽáĢ½": 7607,
      "Ø§ÙħÙĩ": 7608,
      "Ġpublic": 7609,
      "ĠOct": 7610,
      "Ġì²": 7611,
      "ref": 7612,
      "ĠáĢĴáĢ«": 7613,
      "ĠCasino": 7614,
      "yw": 7615,
      "Ġmost": 7616,
      "è³": 7617,
      "àª¾àªª": 7618,
      "Ġgra": 7619,
      "ÏĮÎ½": 7620,
      "ĠâĢº": 7621,
      "ĠvÃ¤l": 7622,
      "tra": 7623,
      "àª¾àª¬": 7624,
      "à¸Īà¸²à¸ģ": 7625,
      "ÉĻlÉĻr": 7626,
      "Ġera": 7627,
      "ÐµÑĤÐ°": 7628,
      "à¯ģà®°": 7629,
      "åįģ": 7630,
      "ĠÎ¶": 7631,
      "sen": 7632,
      "áģ¼": 7633,
      "Ġæŀ": 7634,
      "åıĸ": 7635,
      "ĠÙĥÙĦ": 7636,
      "ĠÏĥÏĦÎ¹": 7637,
      "ĠkÃ¶": 7638,
      "ĠÄĳÃ£": 7639,
      "Ġadd": 7640,
      "ĠVol": 7641,
      "ĸáĢ¼": 7642,
      "ĠáĢ¡áĢľ": 7643,
      "æ·": 7644,
      "à¸Ĺà¸³": 7645,
      "osti": 7646,
      "Ø§ÙĨÙĬ": 7647,
      "ĠÐ¼Ð°ÑĢ": 7648,
      "Ġolan": 7649,
      "ÃŃch": 7650,
      "à¸¹à¸ģ": 7651,
      "ģéĢŁ": 7652,
      "è£ħ": 7653,
      "ĠSam": 7654,
      "æķĻ": 7655,
      "inger": 7656,
      "áĢ¬áĢĶ": 7657,
      "æł¼": 7658,
      "ĠLi": 7659,
      "Õ¡Õµ": 7660,
      "ture": 7661,
      "à«ģàª²": 7662,
      "ria": 7663,
      "Id": 7664,
      "Ġtv": 7665,
      "Ġ600": 7666,
      "Ø¨ÛĮ": 7667,
      "Ġdre": 7668,
      "Ø´Ø§Ø±": 7669,
      "ÉĻsi": 7670,
      "íħĶ": 7671,
      "Ġens": 7672,
      "Ġà®ı": 7673,
      "Ð°Ð´Ð°": 7674,
      "à¦ķà§įà¦¤": 7675,
      "Ġàªµàª°à«įàª": 7676,
      "Ġì£¼": 7677,
      "ëħĦ": 7678,
      "Ø§ØªÚ¾": 7679,
      "ĠTop": 7680,
      "Ġua": 7681,
      "vin": 7682,
      "Ġtri": 7683,
      "iyat": 7684,
      "ĠVo": 7685,
      "ãĥĥãĤ¯": 7686,
      "ĠMi": 7687,
      "æĮģ": 7688,
      "Ġë³´": 7689,
      "ĠOd": 7690,
      "ames": 7691,
      "ĠÏĢÎµÏģÎ¹": 7692,
      "imb": 7693,
      "ĠEt": 7694,
      "áĢĻáĢ¼": 7695,
      "à´®àµįà´®": 7696,
      "à¹Ħà¸¥": 7697,
      "amis": 7698,
      "ĠÏĢÎ±ÏģÎ±": 7699,
      "æİ¥": 7700,
      "à¹ģà¸¥": 7701,
      "sÃ¥": 7702,
      "Ġ>>": 7703,
      "×ĳ×ľ": 7704,
      "ĠÛģÛĮ": 7705,
      "Ġë°Ķ": 7706,
      "Ġpok": 7707,
      "æĦŁ": 7708,
      "igen": 7709,
      "áĢĴáĢ®": 7710,
      "Ġà°Ĵ": 7711,
      "åįĹ": 7712,
      "ĠMy": 7713,
      "365": 7714,
      "udah": 7715,
      "Ġsed": 7716,
      "ĠLo": 7717,
      "áĥĶáĥĳáĥ£áĥļ": 7718,
      "Ġà´Ĵà´°àµģ": 7719,
      "ĠãĢĳãĢĲï¼ĮãĢĳãĢĲ": 7720,
      "ĠÐ¸ÑĪ": 7721,
      "ĠgÃ¼n": 7722,
      "Ġedhe": 7723,
      "ÑĢÐµ": 7724,
      "Ġ×ľ×ŀ×": 7725,
      "åĲĹ": 7726,
      "odi": 7727,
      "áĥ£áĥĽ": 7728,
      "ĠÐ²ÑĢÐµÐ¼": 7729,
      "Ġ×ĸ×Ķ": 7730,
      "akat": 7731,
      "Ġà°ļà±Ĩ": 7732,
      "à¥Ĥà¤¨": 7733,
      "Ġpin": 7734,
      "Ġthu": 7735,
      "Ù¹Ø±": 7736,
      "à¤ĸ": 7737,
      "ei": 7738,
      "Ġair": 7739,
      "à¸²à¸ª": 7740,
      "Ġeks": 7741,
      "LE": 7742,
      "ØªØ§Ø¨": 7743,
      "ĠÚ©Ùħ": 7744,
      "ĠtÉĻ": 7745,
      "ÎµÎ¹Î±": 7746,
      "ĠÐ»Ð¸": 7747,
      "à¦¾à¦Ĺ": 7748,
      "ĠÐ¿Ð°": 7749,
      "æĢİ": 7750,
      "wá»į": 7751,
      "Ġpáº¹lu": 7752,
      "Ø¨Ø©": 7753,
      "áĢĻáĢ¾áĢ¬": 7754,
      "à§ĭà¦Ĺ": 7755,
      "à¥ĭà¤Ĺ": 7756,
      "ìĻĢ": 7757,
      "áĢĻáĢ¾áĢ¯": 7758,
      "ĠfÃ¥": 7759,
      "à¸Ķà¸µ": 7760,
      "äºļæ´²": 7761,
      "Ġconf": 7762,
      "à«Ī": 7763,
      "pk10": 7764,
      "à¤¡à¤¼": 7765,
      "ĠÐ¼Ð¾Ð¶Ðµ": 7766,
      "æºĲ": 7767,
      "à¤ķà¥įà¤·": 7768,
      "Ġ2000": 7769,
      "×Ļ×¦": 7770,
      "Ġ×ŀ×ª": 7771,
      "ĠÄĳá»ĥ": 7772,
      "ĠåĬ": 7773,
      "Ġà¤ħà¤ª": 7774,
      "áĢķáĢ«áĢĲáĢļáĢº": 7775,
      "Ġ×Ķ×¤": 7776,
      "ÙĭØ§": 7777,
      "Ġorang": 7778,
      "Ġàªĩ": 7779,
      "èµĮ": 7780,
      "Ġhana": 7781,
      "appä¸ĭè½½": 7782,
      "Ġinternet": 7783,
      "ãĥĨ": 7784,
      "ìĤ¬ì§Ģ": 7785,
      "áĢ»áĢģ": 7786,
      "ĠÐ·Ð°Ð²": 7787,
      "ser": 7788,
      "Ġrad": 7789,
      "ĠÐ±Ð¸Ð»Ð°Ð½": 7790,
      "ĠÃŃ": 7791,
      "º«": 7792,
      "ĠPentru": 7793,
      "rt": 7794,
      "ĠÃĹ": 7795,
      "owe": 7796,
      "æµģ": 7797,
      "Ġfut": 7798,
      "ÑĢÐ¸Ð¼": 7799,
      "à®¾à®Łà¯įà®Ł": 7800,
      "100": 7801,
      "ters": 7802,
      "Ġdira": 7803,
      "áĢĸáĢ¼áĢħáĢº": 7804,
      "ĠØ±ÙĪØ²": 7805,
      "×ª×Ļ": 7806,
      "Ãį": 7807,
      "ĠÐºÐ°Ð¼": 7808,
      "ãĤ«": 7809,
      "Ġ68": 7810,
      "ĠÃģ": 7811,
      "masÄ±": 7812,
      "rid": 7813,
      "Ġà¤ĺ": 7814,
      "hn": 7815,
      "ĠRec": 7816,
      "ĠGoogle": 7817,
      "uba": 7818,
      "å²": 7819,
      "Ġkhi": 7820,
      "áĢĢáĢ»": 7821,
      "ĠØ§ÙĦÙĬ": 7822,
      "à¸´à¸¡": 7823,
      "à°Ĥà°Ĺ": 7824,
      "ĠilÉĻ": 7825,
      "Ãī": 7826,
      "ÏĢÎ¿Î¹": 7827,
      "±áĢŀ": 7828,
      "ĠáĥĲáĥ¥": 7829,
      "áĢŃáĢĻáĢ¹áĢ": 7830,
      "ĠMus": 7831,
      "à«Ģàªµ": 7832,
      "ĠØ¬Ø³": 7833,
      "OV": 7834,
      "Ġwar": 7835,
      "Ãĸ": 7836,
      "ager": 7837,
      "Ġcome": 7838,
      "å¼ĢæĪ·": 7839,
      "ĠBal": 7840,
      "ĠâĦĸ": 7841,
      "ÑĨÑı": 7842,
      "Ġsul": 7843,
      "ekin": 7844,
      "Ġpla": 7845,
      "aste": 7846,
      "ovan": 7847,
      "ĠNor": 7848,
      "à¥įà¤°à¥Ģ": 7849,
      "Ġsyst": 7850,
      "ĠDon": 7851,
      "ĠÎĺ": 7852,
      "ĠÙĪÙĩ": 7853,
      "Äĥng": 7854,
      "hir": 7855,
      "hod": 7856,
      "àªĩ": 7857,
      "ĠØŃØ§ÙĦ": 7858,
      "Ġàª²à«ĭàªķ": 7859,
      "à¥įà¤¥": 7860,
      "Î³Î¿": 7861,
      "ĠÐ²ÑĬ": 7862,
      "á»Ŀi": 7863,
      "ÑĨÐ¸Ñı": 7864,
      "Ġà®µà¯Ĩ": 7865,
      "ative": 7866,
      "Ġteg": 7867,
      "ÏĥÏĦÎ·": 7868,
      "ĠÐ°Ð¼": 7869,
      "Ġterm": 7870,
      "Ä«g": 7871,
      "ĠÐºÐ°ÐºÐ¾": 7872,
      "áĢ±áĢ¬áĢ·": 7873,
      "Ġkek": 7874,
      "ĠSP": 7875,
      "ĠåĨ": 7876,
      "ĠÐ´Ð·": 7877,
      "á»Į": 7878,
      "ĠID": 7879,
      "Ġrend": 7880,
      "à¨¾": 7881,
      "Ã¤tt": 7882,
      "ĠÐ¼ÐµÐ½": 7883,
      "ç¬¬": 7884,
      "à¦¦à§ĩà¦°": 7885,
      "à¸¶à¸ĩ": 7886,
      "ìĸĳ": 7887,
      "cent": 7888,
      "eds": 7889,
      "anti": 7890,
      "Ġbag": 7891,
      "Ġdei": 7892,
      "ĠSm": 7893,
      "Î´Î¹Î±": 7894,
      "å®ĺæĸ¹ç½ĳç«Ļ": 7895,
      "ĠÎºÎ¿": 7896,
      "Ġ2005": 7897,
      "ĠÑĢÐµ": 7898,
      "ĠÃ¶n": 7899,
      "æĪĺ": 7900,
      "Î³Îº": 7901,
      "à°¾à°Ĺ": 7902,
      "Ġàª¤à«įàª¯": 7903,
      "onte": 7904,
      "ĠHD": 7905,
      "à®Łà¯ģà®¤à¯įà®¤": 7906,
      "ĠAzÉĻrbay": 7907,
      "Ġarr": 7908,
      "ÐµÑĤÑģÑı": 7909,
      "ĠMor": 7910,
      "å°ĳ": 7911,
      "Ġtrad": 7912,
      "ĠCa": 7913,
      "Ġtheir": 7914,
      "×Ļ×Ĺ": 7915,
      "iser": 7916,
      "ĠãĢĬ": 7917,
      "lass": 7918,
      "ÑĭÐ²": 7919,
      "Ä±lÄ±": 7920,
      "ĠÐ¼Ð°Ñģ": 7921,
      "plo": 7922,
      "Ġdib": 7923,
      "ĠSie": 7924,
      "indows": 7925,
      "Ġ×ŀ×Ĺ": 7926,
      "Ġmateri": 7927,
      "à¸²à¸Ĺ": 7928,
      "áĤıáĢ½áĢħáĢ¹áĢ": 7929,
      "Ġunha": 7930,
      "Ġfree": 7931,
      "¡à°¾": 7932,
      "Ġê³ł": 7933,
      "Ġnull": 7934,
      "×¨×Ļ×Ŀ": 7935,
      "Â¬": 7936,
      "áĥĺáĥĴ": 7937,
      "ware": 7938,
      "Ġà¦¸à¦Ĥ": 7939,
      "ĠVideo": 7940,
      "Ġ400": 7941,
      "Ã¼rk": 7942,
      "Ġà®Ĵà®°à¯ģ": 7943,
      "Ġï½": 7944,
      "Ġsuper": 7945,
      "ley": 7946,
      "àµĩà´°": 7947,
      "à®©à¯įà®©": 7948,
      "Ġorganiz": 7949,
      "à¤¾à¤Ĺ": 7950,
      "Ø´Øª": 7951,
      "ĠAB": 7952,
      "Ġå¯": 7953,
      "à®¿à®ļ": 7954,
      "Ġ78": 7955,
      "Õ¿": 7956,
      "Ãĵ": 7957,
      "ÑıÐ´": 7958,
      "ĠØŃØ³": 7959,
      "Ġvous": 7960,
      "ÑıÐ½": 7961,
      "ĠÑģÐ²Ð¾": 7962,
      "embre": 7963,
      "Ġà®¨à®Ł": 7964,
      "ÑĺÐ°ÑĤÐ°": 7965,
      "ĠÙĪØ³": 7966,
      "ĠÂ®": 7967,
      "Ġà°¤à±Ĩà°²": 7968,
      "çŁ¥": 7969,
      "àµĥ": 7970,
      "ĠÐ·Ð´": 7971,
      "âĢĮÙĩØ§ÛĮ": 7972,
      "à¹Ģà¸§": 7973,
      "Î±Î»": 7974,
      "Ġtl": 7975,
      "ham": 7976,
      "Ġactiv": 7977,
      "áĢĲáĢ¼áĢĢáĢ¹": 7978,
      "à±įà°¦": 7979,
      "ANG": 7980,
      "Ġnaj": 7981,
      "ski": 7982,
      "ç²¾": 7983,
      "à±ĩà°¦": 7984,
      "à¯Īà®¯à®¿à®²à¯į": 7985,
      "Ġthá»ĥ": 7986,
      "Ġà¦ıà¦ĩ": 7987,
      "Ġ×Ķ×ł": 7988,
      "ĠAfr": 7989,
      "ĠáĢĸáĢ¼": 7990,
      "Ġwaar": 7991,
      "ĠkÃ¶z": 7992,
      "Ġpou": 7993,
      "Ð°Ð¼Ñĸ": 7994,
      "Ġlit": 7995,
      "Ġthey": 7996,
      "Ġsocial": 7997,
      "à¤¾à¤ª": 7998,
      "Ġà®¤à¯Ĭ": 7999,
      "à¦«": 8000,
      "upa": 8001,
      "oba": 8002,
      "Ġ64": 8003,
      "à¤¾à¤°à¥Ģ": 8004,
      "çĭ": 8005,
      "à´¾à´®": 8006,
      "ÐµÑģÐ¿": 8007,
      "Ġqual": 8008,
      "Ġlum": 8009,
      "ĠëĤĺ": 8010,
      "ope": 8011,
      "×¨×Ľ": 8012,
      "ë¬¸": 8013,
      "Ã¼s": 8014,
      "æĶ¾": 8015,
      "oki": 8016,
      "Ġdels": 8017,
      "áĢ¯áĢĲáĢº": 8018,
      "ĠÙ¾Ûģ": 8019,
      "ĠáĢĢáĢ»": 8020,
      "×Ļ×ļ": 8021,
      "à®ªà¯įà®ªà®Łà¯įà®Ł": 8022,
      "ÏĦÏħ": 8023,
      "ÏģÎµÎ¯": 8024,
      "com": 8025,
      "mak": 8026,
      "Ġà¦¥à§ĩà¦ķà§ĩ": 8027,
      "à¯Īà®¤à¯įà®¤": 8028,
      "ey": 8029,
      "à¹Īà¸Ļà¸": 8030,
      "ĠÙ¾ÛĮØ´": 8031,
      "Ġ\").": 8032,
      "ĠIB": 8033,
      "Ġjpg": 8034,
      "à¥įà¤²": 8035,
      "à´Ļàµįà´ķ": 8036,
      "áĢ¬áĢ¸áĢĲ": 8037,
      "ĠFacebook": 8038,
      "à´¾à´±": 8039,
      "Ġcamp": 8040,
      "ĠÛģÙħ": 8041,
      "ĠÐ¸Ð¼Ð°": 8042,
      "ãĥ¡": 8043,
      "ĠÑģÑĤÑĢ": 8044,
      "unta": 8045,
      "å¤ĩ": 8046,
      "èĦ": 8047,
      "âĢĶ": 8048,
      "issa": 8049,
      "Ġnel": 8050,
      "Ġdah": 8051,
      "74": 8052,
      "Ġyar": 8053,
      "åİ»": 8054,
      "áĢľáĢ²": 8055,
      "ĠçĻ": 8056,
      "ÏĦÏģÎ¿": 8057,
      "Ġpred": 8058,
      "ibi": 8059,
      "ÎµÎ¹ÏĤ": 8060,
      "áĤĢáĢĢáĢ®áĢ¸áĢ": 8061,
      "Ġwer": 8062,
      "ÙĨØ³": 8063,
      "Ð¶Ðµ": 8064,
      "ç»ĵ": 8065,
      "rist": 8066,
      "Ġrealiz": 8067,
      "à°Ĥà°¦à°¿": 8068,
      "Ġnicht": 8069,
      "qa": 8070,
      "à°¾à°ľ": 8071,
      "Ġmau": 8072,
      "ids": 8073,
      "gg": 8074,
      "Ġniet": 8075,
      "Ûķ": 8076,
      "Ġhom": 8077,
      "ÙĬØ²": 8078,
      "ĠÑĺÐ°": 8079,
      "Ġà´ļàµĨà´¯": 8080,
      "Ġà¦Ĩà¦°": 8081,
      "Ã¨n": 8082,
      "Ġsn": 8083,
      "ĠÐ½Ð°Ð·": 8084,
      "Ð½Ð°ÑĤ": 8085,
      "Ġsho": 8086,
      "Ġprzy": 8087,
      "ature": 8088,
      "áĢĻáĤĪ": 8089,
      "äºļæ¸¸": 8090,
      "ÑĤÐ°ÑĢ": 8091,
      "é¢ĺ": 8092,
      "round": 8093,
      "à®¸": 8094,
      "Î¼ÎŃÎ½": 8095,
      "uth": 8096,
      "£áĥļáĥĺ": 8097,
      "Ġyan": 8098,
      "ĠÕ°": 8099,
      "à¸ģà¸£": 8100,
      "ãĥ£": 8101,
      "oku": 8102,
      "ç¤º": 8103,
      "á»ĳng": 8104,
      "Ġ×ķ×Ĳ": 8105,
      "Ġà¹Ģ": 8106,
      "ĠØ¢Ù¾": 8107,
      "Ġmereka": 8108,
      "à¸ķà¹Ī": 8109,
      "à¹ĥà¸Ī": 8110,
      "Ġkter": 8111,
      "á»ĳi": 8112,
      "xi": 8113,
      "Ġ×ĳ×©": 8114,
      "uden": 8115,
      "ĠÎ¿ÏĢÎ¿": 8116,
      "ĠØŃÚ©": 8117,
      "à¸Ķà¸¢": 8118,
      "àªĤàª§": 8119,
      "à®Ļà¯įà®ķà®³à¯į": 8120,
      "ÐºÐ¾Ð»": 8121,
      "ÐĹ": 8122,
      "Ġ×Ĳ×ľ": 8123,
      "áĥĺáĥļáĥĺáĥ¡": 8124,
      "áĢ½áĢĶáĢº": 8125,
      "à¦²à§ĩ": 8126,
      "èĥ": 8127,
      "Ġà®ķà¯Ĥ": 8128,
      "à¦¾à¦¶": 8129,
      "ĠBas": 8130,
      "ãĥŀ": 8131,
      "áĢĻáĢŃ": 8132,
      "ì§Ħ": 8133,
      "à§ĩà§Ł": 8134,
      "ĠØ²ÛĮ": 8135,
      "ÖĦ": 8136,
      "à¤¿à¤µ": 8137,
      "ĠáĢķáĢ«": 8138,
      "å¼Ģå¥ĸ": 8139,
      "àªķà«įàª·": 8140,
      "ìķ¼": 8141,
      "Ġsw": 8142,
      "ĠÎ¼Î±": 8143,
      "ĠÂ±": 8144,
      "ÏħÎ½": 8145,
      "à±Ĥà°°": 8146,
      "Ġë²": 8147,
      "Ġç§": 8148,
      "rÃ¡": 8149,
      "âĢĺ": 8150,
      "ÙĥÙĪÙĨ": 8151,
      "Î¹ÎºÎ¿": 8152,
      "ÙĦÙĪ": 8153,
      "rim": 8154,
      "Ġlebih": 8155,
      "rab": 8156,
      "ÙĬØ§Øª": 8157,
      "Ġnatur": 8158,
      "ĠPR": 8159,
      "ãģ¾ãģĹãģŁ": 8160,
      "isu": 8161,
      "ĠÙĪØ±": 8162,
      "ĠÙħØŃÙħØ¯": 8163,
      "Ú©Ûģ": 8164,
      "oke": 8165,
      "±áĢĨ": 8166,
      "idades": 8167,
      "TA": 8168,
      "à¬": 8169,
      "ĠØªØ§": 8170,
      "ovÃ©": 8171,
      "ÑĪÐµ": 8172,
      "cias": 8173,
      "áĥĲáĥĵáĥĴ": 8174,
      "ĠÙħØ³Øª": 8175,
      "áĥķáĥĶáĥ": 8176,
      "ĠçĽ": 8177,
      "ĠEk": 8178,
      "ĠKu": 8179,
      "rar": 8180,
      "Ġeu": 8181,
      "àªķàª¾àª°": 8182,
      "bor": 8183,
      "ĠAnda": 8184,
      "áĥĲáĥľáĥĺ": 8185,
      "ĠogsÃ¥": 8186,
      "owi": 8187,
      "Ġann": 8188,
      "ç«ĭ": 8189,
      "à¦¾à¦¦à§ĩà¦°": 8190,
      "ÐµÐºÑģ": 8191,
      "Ġpad": 8192,
      "à´¾à´¯à´¿à´°": 8193,
      "rad": 8194,
      "Ġpul": 8195,
      "sc": 8196,
      "apo": 8197,
      "ĠìĹ¬": 8198,
      "aju": 8199,
      "dek": 8200,
      "Ġà«§": 8201,
      "Ø§Ø©": 8202,
      "Ġà°ħà°¨": 8203,
      "Å«s": 8204,
      "hich": 8205,
      "ĠØ§Øµ": 8206,
      "Ġà´ħà´¤": 8207,
      "ĠÙĪØ¨": 8208,
      "åħĭ": 8209,
      "Ġàª¸à«ģàª": 8210,
      "¡Â": 8211,
      "Ø§Ù¾": 8212,
      "Å¡o": 8213,
      "ãģ®ãģ§": 8214,
      "áº©": 8215,
      "icas": 8216,
      "Ø«Ø±": 8217,
      "ĠÐľÐ°Ðº": 8218,
      "Ġê±": 8219,
      "ĠØªÚ©": 8220,
      "ĠÂ§": 8221,
      "Ġbit": 8222,
      "iniz": 8223,
      "áĢĩ": 8224,
      "ĠÐ±Ð¾ÑĢ": 8225,
      "ãĥ¥": 8226,
      "room": 8227,
      "à¹Ģà¸ķ": 8228,
      "ĠáĢĨáĢŃáĢ¯": 8229,
      "day": 8230,
      "Ġà¤¸à¤¾à¤": 8231,
      "Ġoleh": 8232,
      "Âº": 8233,
      "ures": 8234,
      "Õ¡ÖĢ": 8235,
      "enie": 8236,
      "Ð°Ð½ÑĤ": 8237,
      "éĢī": 8238,
      "ĠÎ´Î·": 8239,
      "à¤¾à¤¨à¥ĩ": 8240,
      "çĦ¶": 8241,
      "onom": 8242,
      "Ġì¤ĳ": 8243,
      "ĠÐ´Ðµ": 8244,
      "Ġ><": 8245,
      "esso": 8246,
      "à§ĩà¦¤": 8247,
      "ØŃØ©": 8248,
      "obile": 8249,
      "Ġ×ŀ×¢": 8250,
      "Ä·": 8251,
      "dÄ±": 8252,
      "Ġbuhok": 8253,
      "ĠÃ¼Ã§": 8254,
      "×Ľ×ľ": 8255,
      "roid": 8256,
      "gel": 8257,
      "Ð°ÑĨÐ¸Ð¸": 8258,
      "ĠØ¨Øª": 8259,
      "Ġà°ķà±Ĭ": 8260,
      "Ø§ÙħÛĮ": 8261,
      "Ú©Øª": 8262,
      "Ġkus": 8263,
      "Ġpom": 8264,
      "Ð¾ÑĤÐ¾ÑĢ": 8265,
      "áĢ´": 8266,
      "Ð¸ÑĩÐµ": 8267,
      "áº½": 8268,
      "Ġà´ªàµĭ": 8269,
      "è®¯": 8270,
      "itan": 8271,
      "Ø±Ø§Øª": 8272,
      "ê°Ħ": 8273,
      "ÏģÎ¹Î±": 8274,
      "ä¸ľ": 8275,
      "Ġãģĵ": 8276,
      "áŁ": 8277,
      "å¸ĥ": 8278,
      "à±įà°²à±ĭ": 8279,
      "emos": 8280,
      "áĥĶáĥ¥áĥ¢": 8281,
      "lip": 8282,
      "Ġoldu": 8283,
      "à®¿à®®": 8284,
      "ĠìĿ¼": 8285,
      "ê³Ħ": 8286,
      "ĠÂ³": 8287,
      "Ġ66": 8288,
      "atik": 8289,
      "Ãĩ": 8290,
      "Ġè¯": 8291,
      "edz": 8292,
      "ĠSE": 8293,
      "à¸²à¸Ķ": 8294,
      "ĠÂ´": 8295,
      "ĠDel": 8296,
      "Î¸ÎµÎ¯": 8297,
      "Äĵl": 8298,
      "Ġjul": 8299,
      "à®±à¯įà®ķ": 8300,
      "ç§ĳ": 8301,
      "ĠáĢĹ": 8302,
      "Ġcam": 8303,
      "à«įàª°à«Ģ": 8304,
      "Ġmp": 8305,
      "ĠáĥĽáĥĲáĥĴ": 8306,
      "à«ĭàªľ": 8307,
      "Ġtin": 8308,
      "fu": 8309,
      "Ġbre": 8310,
      "eca": 8311,
      "ĠÂ©": 8312,
      "ç¼": 8313,
      "ĠÐ¼Ð°Ð»": 8314,
      "Ã¯": 8315,
      "Ġcond": 8316,
      "ĠáĢĲáĢħáĢ¹áĢ": 8317,
      "Æ¡n": 8318,
      "Ġlim": 8319,
      "Ġsak": 8320,
      "ĠNam": 8321,
      "ĠÎ¼ÏĢÎ¿": 8322,
      "æ¢": 8323,
      "Ćć": 8324,
      "×¨×Ķ": 8325,
      "ĠÐ±ÐµÑĢ": 8326,
      "Ñľ": 8327,
      "³Û": 8328,
      "Ġë¶Ģ": 8329,
      "hal": 8330,
      "à°¿à°®": 8331,
      "itÃ©": 8332,
      "Ġà®ħà®°": 8333,
      "Ġàª¸àª°": 8334,
      "à¹Ħà¸¥à¸Ļà¹Į": 8335,
      "ĠáĥłáĥĿáĥĴ": 8336,
      "è©": 8337,
      "Ġlap": 8338,
      "áĢŃáĢ¯áĢĢáĢº": 8339,
      "Ġ69": 8340,
      "è¶³": 8341,
      "áĥ£áĥĹ": 8342,
      "Ġà¤¨à¤¹à¥Ģà¤Ĥ": 8343,
      "Ġæµ": 8344,
      "Ġdeg": 8345,
      "à¯Īà®µ": 8346,
      "áģ½": 8347,
      "æĢ»": 8348,
      "ĠÐ¼Ð°ÑĤ": 8349,
      "Ġà¦ªà§įà¦°à¦¤": 8350,
      "ãģ¨ãģĦ": 8351,
      "à°·": 8352,
      "iyan": 8353,
      "èĢģ": 8354,
      "Ä£": 8355,
      "Ġfet": 8356,
      "Ġmig": 8357,
      "Ġdesc": 8358,
      "Ġaug": 8359,
      "oven": 8360,
      "ĠBir": 8361,
      "à¤¿à¤°": 8362,
      "±áĢĲáĢ¬áĢ·": 8363,
      "Ġani": 8364,
      "Ġkah": 8365,
      "Ġáĥ¦": 8366,
      "Ġland": 8367,
      "áĢ¸áĢĢáĢŃáĢ¯": 8368,
      "ê¹": 8369,
      "ë£": 8370,
      "Ġtik": 8371,
      "Ã¹ng": 8372,
      "ì¹ĺ": 8373,
      "Ġavec": 8374,
      "Ġalso": 8375,
      "Ġ120": 8376,
      "Ġintern": 8377,
      "Ġgore": 8378,
      "Ġàªªàª¹": 8379,
      "áĢ±áĢĨ": 8380,
      "ebut": 8381,
      "á»ħ": 8382,
      "sm": 8383,
      "à°¾à°¨à°¿à°ķà°¿": 8384,
      "Ð¸Ð½Ð¸Ð½Ð³": 8385,
      "áĥĲáĥłáĥĵ": 8386,
      "Ð±ÐµÐº": 8387,
      "à°¿à°¸à±įà°¤": 8388,
      "Ø§Ø¨ÙĤ": 8389,
      "æĽ´": 8390,
      "ì¹´": 8391,
      "Ġshow": 8392,
      "Ġà´ªà´±": 8393,
      "Ð¾ÑĢÐ°": 8394,
      "ĠáĢĻáĢŃ": 8395,
      "àª¿àª°": 8396,
      "Ġ();": 8397,
      "à±Ģà°¸": 8398,
      "á»ı": 8399,
      "igi": 8400,
      "ĠâĢİ": 8401,
      "Ġref": 8402,
      "áĥĲáĥłáĥĽ": 8403,
      "ecial": 8404,
      "à´ŀàµįà´ŀ": 8405,
      "×ĵ×Ļ": 8406,
      "ĠUp": 8407,
      "ĠØ¹Ùħ": 8408,
      "Ġbro": 8409,
      "Ġkui": 8410,
      "ĠØ§ÙĬ": 8411,
      "Ġvari": 8412,
      "Ġà¦§": 8413,
      "ÐµÑļ": 8414,
      "Ġfre": 8415,
      "ĠFil": 8416,
      "Ġwá»įn": 8417,
      "èĻ": 8418,
      "ĠBak": 8419,
      "Ø§Ø±ÙĬ": 8420,
      "ĠØ¹Ø¯": 8421,
      "ÑĩÐ°": 8422,
      "Ġà®®à¯ģà®": 8423,
      "æĤ": 8424,
      "Ã¸l": 8425,
      "é¡µ": 8426,
      "à¸²à¸ŀ": 8427,
      "ï»": 8428,
      "ĠEN": 8429,
      "Ð½ÑĸÐº": 8430,
      "Ġê³µ": 8431,
      "Ġters": 8432,
      "Ġphp": 8433,
      "ĠRev": 8434,
      "Ġszer": 8435,
      "ĠØ¸": 8436,
      "Ð½Ð¾ÑģÑĤÐ¸": 8437,
      "ĠÒļ": 8438,
      "Ġfund": 8439,
      "ÙģØ³": 8440,
      "ool": 8441,
      "Ġzd": 8442,
      "Ġbeste": 8443,
      "cion": 8444,
      "Ġqar": 8445,
      "Ġequ": 8446,
      "ĠSil": 8447,
      "å¸¸": 8448,
      "ÏģÎ¿Ïħ": 8449,
      "anta": 8450,
      "ĀĀĀĀĀĀĀĀĀĀĀĀĀĀĀĀ": 8451,
      "anza": 8452,
      "à¦¿à¦¶": 8453,
      "Ð²Ð°ÑĤ": 8454,
      "vu": 8455,
      "Ġà¦ĺ": 8456,
      "ĠNu": 8457,
      "à«ĩàª²àª¾": 8458,
      "wy": 8459,
      "Ġlist": 8460,
      "à°¾à°¯à°¿": 8461,
      "ÑĥÑģÐº": 8462,
      "ices": 8463,
      "ĠMu": 8464,
      "Ġ::": 8465,
      "ïº": 8466,
      "Ġpros": 8467,
      "Ġjust": 8468,
      "Ġlek": 8469,
      "å±Ģ": 8470,
      "áĥłáĥĲáĥĽ": 8471,
      "ÑĭÐµ": 8472,
      "à¤«": 8473,
      "æĹĹèĪ°åİħ": 8474,
      "PS": 8475,
      "Ġcil": 8476,
      "Ġbisa": 8477,
      "ĠÒ·": 8478,
      "ĠØ®Ø§ÙĨ": 8479,
      "Ġàµ": 8480,
      "ĠMak": 8481,
      "áĥĶáĥĳáĥļ": 8482,
      "Ø±Øª": 8483,
      "utt": 8484,
      "ife": 8485,
      "Ġsich": 8486,
      "hin": 8487,
      "ĠOff": 8488,
      "ãģĦãģ¾ãģĻ": 8489,
      "alog": 8490,
      "Ġenc": 8491,
      "arte": 8492,
      "ÑĥÑģÑĤ": 8493,
      "IF": 8494,
      "Ġàª¨àª¹": 8495,
      "ĠØ¨ÙĬÙĨ": 8496,
      "áĢĽáĢŃ": 8497,
      "Äģci": 8498,
      "anyak": 8499,
      "á»ī": 8500,
      "ĠÃ¶z": 8501,
      "ĠdÃ©": 8502,
      "à°¾à°¸": 8503,
      "Ġìĥģ": 8504,
      "Ġáģį": 8505,
      "ĠcÃ´ng": 8506,
      "0000": 8507,
      "à°¾à°¡à±ģ": 8508,
      "elu": 8509,
      "ĠOm": 8510,
      "Åĳl": 8511,
      "éĢģ": 8512,
      "esz": 8513,
      "ÙĨØ¯Ùĩ": 8514,
      "Ġà°ªà±Ĩ": 8515,
      "ĠÐºÐ¾Ð»": 8516,
      "Ġ.-": 8517,
      "ungen": 8518,
      "èŃ": 8519,
      "isht": 8520,
      "ctor": 8521,
      "Ð¾ÑĤÐ¸": 8522,
      "áĥĶáĥĿáĥĳ": 8523,
      "Ġà¦ıà¦¬à¦Ĥ": 8524,
      "oug": 8525,
      "Ġáĥ¡áĥĲáĥĻ": 8526,
      "Ġë§Ī": 8527,
      "áĥĶáĥª": 8528,
      "æ®": 8529,
      "Ġà°¸à°Ĥà°": 8530,
      "ĠDep": 8531,
      "Ġtext": 8532,
      "Ġlip": 8533,
      "****": 8534,
      "Ġview": 8535,
      "Ġàª¬àª¨": 8536,
      "Ġsie": 8537,
      "à´¾à´³": 8538,
      "ĠÛ²": 8539,
      "ĠkÃµ": 8540,
      "àª¿àªŁ": 8541,
      "ĠÙĩØ°Ùĩ": 8542,
      "Ġ97": 8543,
      "ì¶ľìŀ¥ìĥµ": 8544,
      "Ġ×ŀ×¡": 8545,
      "Ø§Ø¯Ø©": 8546,
      "Ġfam": 8547,
      "áĤıáĢ¯áĢŃáĢĦáĢ¹áĢ": 8548,
      "Ðħ": 8549,
      "OC": 8550,
      "ĠFree": 8551,
      "Ġå¤©": 8552,
      "vÃ¤": 8553,
      "ĠSol": 8554,
      "Ļà¯įà®ķ": 8555,
      "Ġkit": 8556,
      "áĢ¬áĢ¸áĢĢáĢŃáĢ¯": 8557,
      "à¯įà®£": 8558,
      "________": 8559,
      "ĠLu": 8560,
      "Ġans": 8561,
      "etu": 8562,
      "sten": 8563,
      "æ¥Ń": 8564,
      "kk": 8565,
      "opo": 8566,
      "ĠÎļÎ±": 8567,
      "ÉĻc": 8568,
      "à¦¡": 8569,
      "Ð¸Ð»Ð°": 8570,
      "à¹īà¸²à¸ĩ": 8571,
      "à¸Ļà¸ķ": 8572,
      "à±ģà°¡à±ģ": 8573,
      "ĠØ¯Ø§ÙĨÙĦÙĪØ¯": 8574,
      "Ġà°«": 8575,
      "Ġiy": 8576,
      "ĠÒĽÐ¸Ð»Ð¸": 8577,
      "ĠØ®Ø·": 8578,
      "ĠiP": 8579,
      "igo": 8580,
      "ĠGer": 8581,
      "áĢŃáĢ¯áĢ¸áĢĽ": 8582,
      "à°ķà±įà°·": 8583,
      "Ġà¸Ĺà¸µà¹Ī": 8584,
      "éĻĲ": 8585,
      "41": 8586,
      "ĠÏĥÎ±ÏĤ": 8587,
      "à¹Īà¸²à¸Ļ": 8588,
      "ãĥī": 8589,
      "Ġäºļç¾İ": 8590,
      "dd": 8591,
      "Ġiá¹£áº¹": 8592,
      "à¸§à¹Īà¸²": 8593,
      "ĠØ¹ÙħÙĦ": 8594,
      "ÎµÏģ": 8595,
      "ĠÐ´Ð²": 8596,
      "à±įà°²à±ģ": 8597,
      "ĠCons": 8598,
      "eten": 8599,
      "Ð»Ð¾Ð²": 8600,
      "íı¬": 8601,
      "zu": 8602,
      "Ġbáº¡n": 8603,
      "æ»": 8604,
      "ved": 8605,
      "èº«": 8606,
      "Ø¹Øª": 8607,
      "à±ĩà°¶": 8608,
      "à¸Ńà¸Ļà¹Ħà¸¥à¸Ļà¹Į": 8609,
      "Ġkv": 8610,
      "uste": 8611,
      "Ġmang": 8612,
      "à¸¡à¸²à¸ģ": 8613,
      "Ø¬Ùĩ": 8614,
      "áĥĶáĥĳáĥĲáĥ¡": 8615,
      "Ġ×Ķ×ķ×Ĳ": 8616,
      "ĠPat": 8617,
      "ÙĨØ©": 8618,
      "Ġ$('": 8619,
      "ãĤµ": 8620,
      "ÙĬØ±Ø©": 8621,
      "IE": 8622,
      "ĠNet": 8623,
      "eler": 8624,
      "los": 8625,
      "ĠArt": 8626,
      "63": 8627,
      "hur": 8628,
      "Ġwhich": 8629,
      "åĲĳ": 8630,
      "ĠØ§ÙĦÙħØª": 8631,
      "itate": 8632,
      "Ġsat": 8633,
      "ĠáĢ±áĢ»áĢķáĢ¬": 8634,
      "ĠÙ¾Ø§Ú©Ø³ØªØ§ÙĨ": 8635,
      "Ã®": 8636,
      "Ġjou": 8637,
      "áĢĲáĢŃ": 8638,
      "ä¼ģ": 8639,
      "é¦ĸ": 8640,
      "ĠÐ½Ð°Ð¹": 8641,
      "Ġà°¯": 8642,
      "ÏİÏĤ": 8643,
      "ĠPara": 8644,
      "à¸Ńà¸Ķ": 8645,
      "ľáĢ¬": 8646,
      "Õ¸ÖĤÕ´": 8647,
      "ĠÙĨÙĪ": 8648,
      "íĶĦ": 8649,
      "ÛĶ": 8650,
      "mit": 8651,
      "Ð½Ð°Ñģ": 8652,
      "à¸Ľà¸£": 8653,
      "Ġ){": 8654,
      "Ġpero": 8655,
      "à¯įà®¤à¯įà®¤": 8656,
      "à¦¦à§įà¦": 8657,
      "ards": 8658,
      "ĠÎ±ÏħÏĦÏĮ": 8659,
      "åŀĭ": 8660,
      "ijas": 8661,
      "pu": 8662,
      "è±": 8663,
      "Ġà¸ľ": 8664,
      "à±ĥ": 8665,
      "Ġàªľà«ĭ": 8666,
      "ÑıÐ±": 8667,
      "inas": 8668,
      "àµĤà´Ł": 8669,
      "ektr": 8670,
      "62": 8671,
      "Ø¯ÛĮ": 8672,
      "á»Ļi": 8673,
      "ÄĽt": 8674,
      "áĢ¬áĢ¡": 8675,
      "Ġvot": 8676,
      "vent": 8677,
      "ÑĨÑĨÐ°": 8678,
      "nis": 8679,
      "ĠØ¨Ø¹": 8680,
      "à¤¾à¤ķ": 8681,
      "ĠpÄģr": 8682,
      "Ð»Ð°ÑģÑĤ": 8683,
      "esc": 8684,
      "ĠBon": 8685,
      "Ġ×Ķ×§": 8686,
      "fs": 8687,
      "·à§įà¦Ł": 8688,
      "ĠØ¨ØŃ": 8689,
      "ĠÐ¿Ð¾Ñĩ": 8690,
      "ĠÐ¿Ð¾ÑģÑĤ": 8691,
      "ĠÐĹÐ°": 8692,
      "çķĮ": 8693,
      "Ġáĥłáĥ": 8694,
      "Ġned": 8695,
      "Ġàªªàª¡": 8696,
      "Ġå¿": 8697,
      "à«Ģàªľ": 8698,
      "æ¸ħ": 8699,
      "Ġcolor": 8700,
      "Ġitem": 8701,
      "áĤıáĢŃáĢ¯áĢĦáĢ¹áĢĦáĢ¶": 8702,
      "Ð¸Ð»ÑĮ": 8703,
      "Ġà°ļà±ĩà°¸": 8704,
      "Ġ×ľ×¢": 8705,
      "áĥĲáĥĽáĥĵ": 8706,
      "áĢŃáĢ³áĤķ": 8707,
      "yin": 8708,
      "RA": 8709,
      "áĢĹ": 8710,
      "ä¸ŃåĽ½": 8711,
      "à°¤à±įà°¤": 8712,
      "ĠáĥĹáĥ£": 8713,
      "ĠåĽ½": 8714,
      "ìļ°": 8715,
      "Ġdeb": 8716,
      "ÐºÐ°Ð½": 8717,
      "Ġthi": 8718,
      "Ġ×ĳ×ª": 8719,
      "iec": 8720,
      "Ġå·": 8721,
      "Ġæľī": 8722,
      "à¯Ĩà®°": 8723,
      "Ð¾Ò³": 8724,
      "áĢĺáĢ°áĢ¸": 8725,
      "gal": 8726,
      "Ð°ÑĤÐµÐ»": 8727,
      "ĠçľŁ": 8728,
      "ÑĸÑħ": 8729,
      "á»įc": 8730,
      "åł´": 8731,
      "kez": 8732,
      "áĥ¯": 8733,
      "ÉĻz": 8734,
      "Ġàª¹àª¤à«ĭ": 8735,
      "è¢«": 8736,
      "à«ĭàª°à«įàª": 8737,
      "ĠGro": 8738,
      "ĠPi": 8739,
      "gt": 8740,
      "Ġnin": 8741,
      "ĠPres": 8742,
      "à«ģàªľ": 8743,
      "à¦¨à§ĩ": 8744,
      "ÅĽÄĩ": 8745,
      "ĠIr": 8746,
      "Ġà°¡": 8747,
      "Ġdiff": 8748,
      "àª°à«Ĥ": 8749,
      "ĠìľĦ": 8750,
      "ĠØ³ÙĬ": 8751,
      "Ġ×Ķ×¡": 8752,
      "amba": 8753,
      "Ġcontent": 8754,
      "ĠâĨĳ": 8755,
      "åºĶ": 8756,
      "vious": 8757,
      "Ġexc": 8758,
      "Ä«dz": 8759,
      "oti": 8760,
      "à¦ķà¦¾à¦°": 8761,
      "ÎµÎ»": 8762,
      "ÙĥÙħ": 8763,
      "ĠØ§Ø´": 8764,
      "Ð¸ÑĺÐ°": 8765,
      "Ð¾ÑĦ": 8766,
      "ģáĢ¼": 8767,
      "iness": 8768,
      "ØĮ": 8769,
      "Ä±ndan": 8770,
      "à´Ļàµįà´Ļà´³àµįâĢį": 8771,
      "egi": 8772,
      "áĥĺáĥĶáĥł": 8773,
      "Ġà°®à±Ģ": 8774,
      "Ð»Ð¸Ñĩ": 8775,
      "ĠÙĪÙİ": 8776,
      "Ð½Ð°Ð³Ð°": 8777,
      "ĠØ¨Ûģ": 8778,
      "ÎĻÎļ": 8779,
      "zat": 8780,
      "ĠPD": 8781,
      "ĠØ§ÙĦÙħÙĨ": 8782,
      "ká»į": 8783,
      "Ġeine": 8784,
      "ĠÎµÏħ": 8785,
      "Ġlan": 8786,
      "abu": 8787,
      "Ã¡ng": 8788,
      "íķĺê³ł": 8789,
      "æĥ³": 8790,
      "Î´Î·": 8791,
      "æĢİä¹Ī": 8792,
      "Ð°Ð½Ñģ": 8793,
      "Ġonder": 8794,
      "à±ģà°Ĥà°¦à°¿": 8795,
      "ĠÃµ": 8796,
      "orr": 8797,
      "ĨáĢŃáĢ¯": 8798,
      "ĠSim": 8799,
      "Ð½Ð¸Ð¾ÑĤ": 8800,
      "Ġà´¨à´Ł": 8801,
      "Ġdim": 8802,
      "Ð¸Ð»Ð³Ð°Ð½": 8803,
      "ĠDom": 8804,
      "usu": 8805,
      "lis": 8806,
      "à®¾à®£": 8807,
      "Ð¸ÑģÑĤÐ¾Ð½": 8808,
      "ĠÐ·Ð°Ð¼": 8809,
      "ĠSec": 8810,
      "inc": 8811,
      "ãĥģ": 8812,
      "ãĥĲ": 8813,
      "à¸£à¸µà¸¢": 8814,
      "ÑįÑĢ": 8815,
      "Ð°ÑĢÑĭ": 8816,
      "Ġà®ªà®Ł": 8817,
      "Äħc": 8818,
      "Ġnom": 8819,
      "à¦¿à¦Ł": 8820,
      "ä¸ĸ": 8821,
      "Ġàª°àª¾àªľ": 8822,
      "Ġäºº": 8823,
      "Ġlah": 8824,
      "ĠÒ²": 8825,
      "Ġhindi": 8826,
      "Ġamp": 8827,
      "Ġshum": 8828,
      "raw": 8829,
      "Ġèĩ": 8830,
      "ĠÐ½Ð¸": 8831,
      "Ġàªªà«ĭàª¤": 8832,
      "ĻáĤĪ": 8833,
      "áĢ±áģ¾áĢĢáĢ¬áĢĦáĢ¹áĢ¸": 8834,
      "Ġeh": 8835,
      "áĥĲáĥķáĥļ": 8836,
      "áĢĬáĢ·áĢº": 8837,
      "à¤¾à¤Ī": 8838,
      "ä½ķ": 8839,
      "Ð½Ð¾Ð¼": 8840,
      "Ġpay": 8841,
      "Ġorig": 8842,
      "Ġdil": 8843,
      "Ð°Ð½Ð¸Ðµ": 8844,
      "IB": 8845,
      "Ġzen": 8846,
      "ĠnÃły": 8847,
      "Ð¸ÐºÐ¸": 8848,
      "ĠâĢ¬": 8849,
      "éĸĵ": 8850,
      "¹Û": 8851,
      "ĠnÃ¡": 8852,
      "à¸Ħà¸¸à¸ĵ": 8853,
      "ĠØ§ÙĦØ°ÙĬ": 8854,
      "rz": 8855,
      "42": 8856,
      "Ġsind": 8857,
      "áĥĲáĥķáĥ¡": 8858,
      "Ġà¤Ĩà¤¹à¥ĩ": 8859,
      "ĠÐ±Ð¾ÑĪ": 8860,
      "×ķ×ĺ": 8861,
      "Ãĭ": 8862,
      "lim": 8863,
      "ÙħØª": 8864,
      "Ġmáº¹": 8865,
      "à´ľ": 8866,
      "Ġà§¨à§¦": 8867,
      "Ú©ÙĦ": 8868,
      "ĠÐºÐ¾Ð¸": 8869,
      "ĠAD": 8870,
      "Ġà´¹": 8871,
      "ĠktÃ³": 8872,
      "ahr": 8873,
      "ĠBlack": 8874,
      "çı": 8875,
      "ÏīÏĥÎ·": 8876,
      "ikt": 8877,
      "Ġè®": 8878,
      "áĥĺáĥ£áĥł": 8879,
      "Ġkos": 8880,
      "áĢĦáĢºáĢ·": 8881,
      "ìŀĦ": 8882,
      "ĠÐ¿Ð¾Ð·": 8883,
      "Ø·Ø©": 8884,
      "çĸ": 8885,
      "à¸§à¹Īà¸²à¸": 8886,
      "pan": 8887,
      "ĠÅ¼e": 8888,
      "ĠÚ¯ÛĮØ§": 8889,
      "à¦¾à¦ļ": 8890,
      "ĠáĥĵáĥĲáĥĽ": 8891,
      "ĠKh": 8892,
      "Ġ^": 8893,
      "à¸¥à¹ĩ": 8894,
      "Ġtá»«": 8895,
      "ĠÎºÎ±ÏĦÎ¬": 8896,
      "73": 8897,
      "áĢĬáĢºáĢ¸": 8898,
      "éĴŁ": 8899,
      "àµģà´ķàµįà´ķ": 8900,
      "ivi": 8901,
      "Ġàª®à«ĩàª": 8902,
      "Ġwork": 8903,
      "Ġáĥ£áĥľáĥĵáĥĲ": 8904,
      "à¦¨à§ĩà¦°": 8905,
      "àª£à«Ģ": 8906,
      "§à«Ģ": 8907,
      "à±įà°ķ": 8908,
      "àµįà´±àµįà´±": 8909,
      "ÏħÏĥ": 8910,
      "ĠÑĶ": 8911,
      "äºĽ": 8912,
      "Ġbad": 8913,
      "85": 8914,
      "ĠÎŃÏĩÎµÎ¹": 8915,
      "ugh": 8916,
      "à§įà¦¨": 8917,
      "Ġà°®à°°": 8918,
      "Ġ250": 8919,
      "ÏĬ": 8920,
      "Ġà¤¹à¥Ģ": 8921,
      "Ġdaar": 8922,
      "ĠÐĿÐµ": 8923,
      "ÑĤÑĢ": 8924,
      "Ø£ÙĨ": 8925,
      "Ġauch": 8926,
      "Ġlink": 8927,
      "ĠáĢ»áĢĻáĢĶáĢ¹áĢĻ": 8928,
      "ĠÑĩÐ°ÑģÑĤ": 8929,
      "Ġà¦ªà¦¾à¦°": 8930,
      "Ġras": 8931,
      "ĠÃ³": 8932,
      "åŁº": 8933,
      "Õ¥Õ¬": 8934,
      "alÄ±": 8935,
      "Ġprac": 8936,
      "ĠìĿĺ": 8937,
      "à¦¾à¦Ł": 8938,
      "ĠáĢĤ": 8939,
      "Ġurl": 8940,
      "assa": 8941,
      "Ð¾Ð´Ð¸": 8942,
      "ÐłÑķ": 8943,
      "Õ«Õ¶": 8944,
      "Ġà¸ģà¸²à¸£": 8945,
      "EG": 8946,
      "Ġà°ķà±ĭ": 8947,
      "Ġpresent": 8948,
      "à´£à´Ĥ": 8949,
      "ÏĦÎ¹ÎºÎŃÏĤ": 8950,
      "ĠProf": 8951,
      "Å¡t": 8952,
      "áĢ¬áĢ¸áĢħ": 8953,
      "play": 8954,
      "Ġprez": 8955,
      "Ġep": 8956,
      "à¯įà®¯": 8957,
      "ÎŃÎ½": 8958,
      "áĢ¯áĢ¶áĢ¸áĢ": 8959,
      "ĠáĥĲáĥłáĥĺáĥ¡": 8960,
      "lij": 8961,
      "ÑģÑĤÐ²ÐµÐ½": 8962,
      "Ġanti": 8963,
      "ĠØ£ÙĬ": 8964,
      "Ġaga": 8965,
      "è¿ĳ": 8966,
      "ç»Ł": 8967,
      "Ġting": 8968,
      "Ġps": 8969,
      "à«Į": 8970,
      "Ġà¦ľà¦¾à¦¨": 8971,
      "Ġpes": 8972,
      "tico": 8973,
      "Ġà¸Ĭ": 8974,
      "ratis": 8975,
      "ŀĮ": 8976,
      "ief": 8977,
      "Ġ×Ķ×Ľ": 8978,
      "Ġperf": 8979,
      "ĠmÃł": 8980,
      "ÑģÑĤÑĮ": 8981,
      "72": 8982,
      "Ġà®Ł": 8983,
      "ĠÐ±ÑĢ": 8984,
      "à«įàª¨": 8985,
      "à¥ĥ": 8986,
      "ĠØ§Ú¯Ø±": 8987,
      "ĠÏĢÏģÏĮ": 8988,
      "å¸Ī": 8989,
      "ÐºÐ°ÑĤÐ°": 8990,
      "ĠÐ¼ÐµÑĤ": 8991,
      "GB": 8992,
      "à«Ģàª¸": 8993,
      "Ġmell": 8994,
      "sg": 8995,
      "eber": 8996,
      "à¤ķà¤°": 8997,
      "ÑĥÒĽ": 8998,
      "ÙĦÙĤ": 8999,
      "Ġalg": 9000,
      "×ķ×Ļ": 9001,
      "áĥĲáĥłáĥĴ": 9002,
      "ÐµÐ¼Ð¸": 9003,
      "ĠPart": 9004,
      "ãģĤãĤĭ": 9005,
      "Ġàª®àª¾àªĤ": 9006,
      "ĠIng": 9007,
      "à¦¾à§ľ": 9008,
      "alik": 9009,
      "Ġà´ªà´°": 9010,
      "Ġits": 9011,
      "Ġą": 9012,
      "à¸ļà¸Ńà¸¥": 9013,
      "à´¿à´¨àµį": 9014,
      "Å¡anas": 9015,
      "àµįà´¸": 9016,
      "ĠØ§Ù¾ÙĨÛĴ": 9017,
      "eki": 9018,
      "áĢ±áĢħ": 9019,
      "ĠÐ¿ÑĢÐ°ÑĨ": 9020,
      "gb": 9021,
      "Ġà¦īà¦ª": 9022,
      "Ġà¤īà¤¨": 9023,
      "inan": 9024,
      "ĠØªØ´": 9025,
      "Ð»Ð¸Ð²": 9026,
      "Äģt": 9027,
      "92": 9028,
      "Ø§ØªÛĮ": 9029,
      "ĠØ§Ø³ÙĦØ§Ùħ": 9030,
      "à¦¿à¦¤à§ĩ": 9031,
      "±áĢĲáĢ¬áĢ¹áĢ": 9032,
      "61": 9033,
      "ä»»": 9034,
      "TC": 9035,
      "ÑıÐ¼": 9036,
      "Ġnou": 9037,
      "ÑĤÐ¾Ð¼": 9038,
      "ĠØ¥ÙĨ": 9039,
      "Ġprot": 9040,
      "Ġäºļæ¸¸éĽĨåĽ¢": 9041,
      "ĠÐ²ÐµÑĢ": 9042,
      "ĠTrans": 9043,
      "Ġà´«": 9044,
      "ĠestÃ¡": 9045,
      "Ġ×ĳ×Ķ": 9046,
      "à¸±à¹īà¸Ļ": 9047,
      "Ġmos": 9048,
      "àª¾àª¨à«ĩ": 9049,
      "atÄĥ": 9050,
      "ĠSon": 9051,
      "à¸£à¸·à¸Ń": 9052,
      "jak": 9053,
      "Î¯Î¶": 9054,
      "idu": 9055,
      "ĠÏĥÏĦÎ¹ÏĤ": 9056,
      "ĠKos": 9057,
      "à´¿à´ļàµįà´ļàµģ": 9058,
      "Ġáĥĵáĥ¦": 9059,
      "à¦¾à¦§": 9060,
      "á»ĵng": 9061,
      "áĢ¼áĢĢáĢ¹áĢ": 9062,
      "Ġàªľà«ĭàª": 9063,
      "Õ«Õ": 9064,
      "ĠSw": 9065,
      "è¨Ģ": 9066,
      "Ġmam": 9067,
      "Ġbere": 9068,
      "elet": 9069,
      "ĠíĮ": 9070,
      "Ġmax": 9071,
      "å¦Ĥ": 9072,
      "áĢ¬áĢĦáĢ¹áĢ·": 9073,
      "à¤¾à¤Ĥà¤ļ": 9074,
      "ĠáĥĹáĥ¥": 9075,
      "à¹īà¸Ļà¸": 9076,
      "ĠÎłÎ±": 9077,
      "empre": 9078,
      "Î´Î¹": 9079,
      "ÏĮÏĤ": 9080,
      "Ġlis": 9081,
      "ìĦ¸": 9082,
      "Ġà®İà®©à¯įà®±à¯ģ": 9083,
      "ĠÙĨØ§Ùħ": 9084,
      "Ġactu": 9085,
      "ĠÎĪ": 9086,
      "ĠØ³Ú©": 9087,
      "à¸Łà¸£à¸µ": 9088,
      "ĠÙħØ«": 9089,
      "ä¼ł": 9090,
      "ĠKi": 9091,
      "à°¾à°¡": 9092,
      "ĠáĥĽáĥ®": 9093,
      "itos": 9094,
      "áĢŀáĢŃ": 9095,
      "ä½ł": 9096,
      "iston": 9097,
      "Ġmap": 9098,
      "è»": 9099,
      "æ¬¾": 9100,
      "Ġmik": 9101,
      "ĠÂ¿": 9102,
      "ĠCre": 9103,
      "Ġà´ķàµĬ": 9104,
      "Ġkry": 9105,
      "Äģkou": 9106,
      "Ġindex": 9107,
      "ÏĥÏī": 9108,
      "à¦¿à¦®": 9109,
      "ytt": 9110,
      "ĠSep": 9111,
      "Ġbra": 9112,
      "ĠIST": 9113,
      "æİĴ": 9114,
      "ĠAC": 9115,
      "à¥ģà¤²": 9116,
      "ĠáĥĽáĥĺáĥ": 9117,
      "á»ĳc": 9118,
      "mis": 9119,
      "ĠáĢ¡áĢ²": 9120,
      "Ġano": 9121,
      "Ġprote": 9122,
      "å§Ķ": 9123,
      "ĴĪ": 9124,
      "irs": 9125,
      "à´¿à´¸": 9126,
      "Ġ,,": 9127,
      "ĠÃ¼Ã§Ã¼n": 9128,
      "edd": 9129,
      "ĠGl": 9130,
      "à±įà°¨à°¿": 9131,
      "Ġ2004": 9132,
      "ĠâĢ¦.": 9133,
      "Îļ": 9134,
      "Ġput": 9135,
      "Ġëį": 9136,
      "ä¾Ľ": 9137,
      "Ġmedia": 9138,
      "ĠAR": 9139,
      "ĠÐ´Ð¾ÑģÑĤ": 9140,
      "éł": 9141,
      "å¾Ī": 9142,
      "ãĤ¦": 9143,
      "å°ıæ¸¸æĪı": 9144,
      "áģĭ": 9145,
      "ìľĦ": 9146,
      "ĠNh": 9147,
      "ĠØ¹ÙĦÙĬ": 9148,
      "Ġdies": 9149,
      "Ġizan": 9150,
      "Ġà¤¤à¥ĭ": 9151,
      "Ú©Ø±": 9152,
      "ĠvÃ¦re": 9153,
      "ĠØ¯ÙĨ": 9154,
      "å¤§åıĳ": 9155,
      "àª¾àª¶": 9156,
      "Ġped": 9157,
      "oga": 9158,
      "ĠNext": 9159,
      "áĢ±áĢŀáĢ¬": 9160,
      "ĠáĢ·": 9161,
      "rá»į": 9162,
      "),": 9163,
      "aje": 9164,
      "ĠApril": 9165,
      "ĠWindows": 9166,
      "nic": 9167,
      "Ġthem": 9168,
      "Ã¡i": 9169,
      "ÐºÐ¸Ð¹": 9170,
      "ople": 9171,
      "áĥ®áĥĿáĥķ": 9172,
      "ĠÐŀÐ±": 9173,
      "Ġord": 9174,
      "áĢ¯áĢĽ": 9175,
      "{\"": 9176,
      "ĠÑģÐµÑĢ": 9177,
      "mek": 9178,
      "áĢ³áĢŃ": 9179,
      "endi": 9180,
      "Ø¹Ùĩ": 9181,
      "ÐºÑĢ": 9182,
      "Ġ×Ĳ×ķ": 9183,
      "Ġdest": 9184,
      "ĠÐ¡Ð¿": 9185,
      "Ġàª¥àª¯": 9186,
      "ĠChe": 9187,
      "ĠÑģÐ»ÐµÐ´": 9188,
      "Ã¤ng": 9189,
      "ĠBil": 9190,
      "anga": 9191,
      "azio": 9192,
      "Ġses": 9193,
      "Ġáĥ°": 9194,
      "ì¶ľìŀ¥ìķĪë§Ī": 9195,
      "Ġkem": 9196,
      "ĠØ§ÛĮØ±Ø§ÙĨ": 9197,
      "ĠSport": 9198,
      "áĥķáĥĲ": 9199,
      "ĠGar": 9200,
      "taa": 9201,
      "ÎĹÎ£": 9202,
      "Ð°ÑĢÐ´": 9203,
      "ĠÙĨØ´": 9204,
      "ÐµÑĤÐ¸": 9205,
      "áĢĲáĢ±áĢ¬áĢº": 9206,
      "ĠServ": 9207,
      "Ġ×Ķ×Ĵ": 9208,
      "Ã«ve": 9209,
      "enu": 9210,
      "IO": 9211,
      "Ġsum": 9212,
      "ä¸Ģä¸ª": 9213,
      "dor": 9214,
      "Äģj": 9215,
      "ĠãĢı": 9216,
      "ror": 9217,
      "áĢ±áĢķáĢ«": 9218,
      "ÈĻte": 9219,
      "à´¯àµģà´Ĥ": 9220,
      "ĠàªĹàª¯": 9221,
      "Ã¨re": 9222,
      "ĠìĦľ": 9223,
      "Ġà®ļà¯Ĭ": 9224,
      "Ġáĥ©áĥķáĥĶáĥľ": 9225,
      "Ġmail": 9226,
      "has": 9227,
      "hte": 9228,
      "Ġprom": 9229,
      "Ġà´¡": 9230,
      "ä»Ģ": 9231,
      "ģáĢ¶": 9232,
      "ÏĦÎ·ÏĦÎ±": 9233,
      "èģĶ": 9234,
      "mun": 9235,
      "è§Ĥçľĭ": 9236,
      "áĢ½áĢ²": 9237,
      "åİŁ": 9238,
      "Ġsono": 9239,
      "Ġml": 9240,
      "col": 9241,
      "à®¤à¯į": 9242,
      "à¹ĩà¸ļ": 9243,
      "rez": 9244,
      "Ġstand": 9245,
      "æł·": 9246,
      "ãĥĭ": 9247,
      "ĠzÃ¡": 9248,
      "Ġlang_": 9249,
      "Äı": 9250,
      "×ŀ×¨": 9251,
      "ÐµÑĨÑĨÐ°": 9252,
      "ÙĦÛĴ": 9253,
      "ex": 9254,
      "Ġ×ľ×©": 9255,
      "Ġ×©×Ĳ": 9256,
      "almente": 9257,
      "Ġess": 9258,
      "ĠÐ¼Ðµ": 9259,
      "à¹ģà¸¥à¹īà¸§": 9260,
      "esp": 9261,
      "hol": 9262,
      "à¸Ńà¸¢à¹Īà¸²à¸ĩ": 9263,
      "áĥĲáĥłáĥ¢": 9264,
      "ĠÙĨÙĤ": 9265,
      "à¦Ļà§įà¦Ĺ": 9266,
      "nt": 9267,
      "Ġtai": 9268,
      "Ġlid": 9269,
      "Ġelektr": 9270,
      "Ø§Ø±Ø©": 9271,
      "Ġple": 9272,
      "Ġwp": 9273,
      "Ø³Ø±": 9274,
      "imento": 9275,
      "æĸ¯": 9276,
      "à®¾à®±": 9277,
      "ĠSept": 9278,
      "Ġê¹": 9279,
      "oms": 9280,
      "Ġaur": 9281,
      "ĠÐĲÐ»": 9282,
      "ĶáĢ²áĤĶ": 9283,
      "Ġska": 9284,
      "Ø§ÛĮØ¯": 9285,
      "åģļ": 9286,
      "áĢ±áĢ¸": 9287,
      "iej": 9288,
      "ĠTak": 9289,
      "Ġlori": 9290,
      "ÌĢ": 9291,
      "ĠÅĽ": 9292,
      "Ġeur": 9293,
      "Ð¸Ð¼Ð¸": 9294,
      "Ø§Ø¦ÙĦ": 9295,
      "Ġà¶": 9296,
      "à¸ķà¹īà¸Ńà¸ĩ": 9297,
      "ÑĥÐ²Ð°Ð½Ð½Ñı": 9298,
      "ÏĥÏĦÎ¿": 9299,
      "ĠAllah": 9300,
      "Ð°Ð¼Ðµ": 9301,
      "ĠDav": 9302,
      "Ġàªķà«ĭàªĪ": 9303,
      "inda": 9304,
      "ĠåŃ": 9305,
      "Ġmass": 9306,
      "ê³µ": 9307,
      "ĠÐ²Ð¾Ð·": 9308,
      "Ġsis": 9309,
      "ĠÐ·Ð°Ð´": 9310,
      "acion": 9311,
      "ĠØ±ÛĮ": 9312,
      "idos": 9313,
      "ĠMic": 9314,
      "elik": 9315,
      "Ġpens": 9316,
      "vert": 9317,
      "ibu": 9318,
      "Õ¡ÖĢÕ": 9319,
      "acional": 9320,
      "å¯¼": 9321,
      "ĠáĢ¡áĢĽ": 9322,
      "Ð¾Ð²Ð¾": 9323,
      "àª¸à«įàª¤": 9324,
      "Ø§Ø¹Øª": 9325,
      "Ð½ÐµÑģ": 9326,
      "Ġsaat": 9327,
      "Î¾Î·": 9328,
      "ety": 9329,
      "ĠÎ¸ÎŃ": 9330,
      "ĠÄĳáº¿n": 9331,
      "Ġkay": 9332,
      "ĠKan": 9333,
      "ĠAzÉĻrbaycan": 9334,
      "Å£i": 9335,
      "à±įà°¥": 9336,
      "âĸ": 9337,
      "Ø§Ø±Ø§Øª": 9338,
      "berg": 9339,
      "Ġkepada": 9340,
      "ĠUN": 9341,
      "à§ĩà¦ĵ": 9342,
      "à¸Ńà¸ķ": 9343,
      "ĠSH": 9344,
      "ĠÐ²Ð¸": 9345,
      "Ġtet": 9346,
      "à¸§à¸´": 9347,
      "à¦¾à¦ģ": 9348,
      "ĠìĽ": 9349,
      "ĠÎ¼Î¿Ïħ": 9350,
      "Ġ\\/": 9351,
      "ÑıÐ·": 9352,
      "Ġ,âĢĿ": 9353,
      "Ġresult": 9354,
      "hone": 9355,
      "Ø§ÙĦØ¨": 9356,
      "×ĳ×¢": 9357,
      "ĠPS": 9358,
      "à¸µà¹Īà¸¢": 9359,
      "Ã§Ä±": 9360,
      "Ġå¸": 9361,
      "Ġáĥ£áĥ¤": 9362,
      "ë§ĪìĤ¬ì§Ģ": 9363,
      "ĠÏħÏĢÎ¿": 9364,
      "ĠÑĤÐµÑĢ": 9365,
      "ĠÙĤØ¨ÙĦ": 9366,
      "à¤¯à¤¾": 9367,
      "ugar": 9368,
      "ĠBlu": 9369,
      "inden": 9370,
      "Ġà°¸à°®": 9371,
      "ĠCal": 9372,
      "áĥ«": 9373,
      "ĠMah": 9374,
      "Ð¶Ð°Ð²": 9375,
      "Ġà¤¯à¤¹": 9376,
      "ĠÐ·Ð°ÑĢ": 9377,
      "inÃ«": 9378,
      "láº¹": 9379,
      "Ġáģ¿": 9380,
      "ĠæĬ": 9381,
      "è®°": 9382,
      "æ±Ĥ": 9383,
      "ÐµÐ½Ð´": 9384,
      "uns": 9385,
      "Î¼Î®": 9386,
      "ÑĥÐ½Ð¸": 9387,
      "çĦ¡": 9388,
      "à°Ĺà°¾": 9389,
      "icia": 9390,
      "ĠIk": 9391,
      "Ġreal": 9392,
      "à§ĩà¦®": 9393,
      "ÏįÏĦÎµ": 9394,
      "Ġenerg": 9395,
      "à¹Ģà¸Ĭ": 9396,
      "Ġnang": 9397,
      "Ġcir": 9398,
      "Ġà¦ķà¦°à¦¾": 9399,
      "Ú¾Ø±": 9400,
      "Ġprost": 9401,
      "è¯ķ": 9402,
      "ãģĿ": 9403,
      "cul": 9404,
      "Ġgia": 9405,
      "Ġdh": 9406,
      "ãģ°": 9407,
      "ĠJos": 9408,
      "ĠÐ´ÑĢ": 9409,
      "ĠÐ½ÐµÐº": 9410,
      "Ġdid": 9411,
      "åħĪ": 9412,
      "jal": 9413,
      "Ġanal": 9414,
      "à°¶": 9415,
      "OG": 9416,
      "Ġjy": 9417,
      "à¹Īà¸²à¸¢": 9418,
      "Ê»e": 9419,
      "à¹Ħà¸Ĺà¸¢": 9420,
      "erne": 9421,
      "å®¶ä¹Ĳ": 9422,
      "ĠÐ¶Ð¸Ð²": 9423,
      "Ġ89": 9424,
      "Ġstat": 9425,
      "Ò³Ð¾": 9426,
      "Ġpet": 9427,
      "ĠÒĽÑŀ": 9428,
      "fik": 9429,
      "Ġsistem": 9430,
      "ĠÑĤÑŀ": 9431,
      "Ġprofess": 9432,
      "site": 9433,
      "ilt": 9434,
      "×ŀ×ª": 9435,
      "Ġtari": 9436,
      "ĠÐ£ÐºÑĢÐ°ÑĹ": 9437,
      "Ġhai": 9438,
      "à¦¾à¦ĵ": 9439,
      "áĢĶáĢ¹áĤĶ": 9440,
      "áĥĿáĥłáĥª": 9441,
      "ĠÐ´ÐµÐ»": 9442,
      "ĠHol": 9443,
      "Ġwana": 9444,
      "Ã¶t": 9445,
      "Ġà®ķà®Ł": 9446,
      "à¸«à¸¡": 9447,
      "ÙĪÙĬ": 9448,
      "Ġven": 9449,
      "inya": 9450,
      "Ð½Ð¾Ðµ": 9451,
      "Ġkim": 9452,
      "íķł": 9453,
      "Ð¼Ð°Ð½": 9454,
      "Ġà®ĩà®¤": 9455,
      "dÉĻn": 9456,
      "à´µàµģà´Ĥ": 9457,
      "Ġvez": 9458,
      "à¯Īà®ªà¯įà®ª": 9459,
      "Ġ,.": 9460,
      "áºŃp": 9461,
      "Ġdaha": 9462,
      "ĠLib": 9463,
      "åħī": 9464,
      "ÚĨÚ¾": 9465,
      "ĠØ¬Ùĩ": 9466,
      "ĠarÄ«": 9467,
      "ãĥ¼ãĤ¹": 9468,
      "jan": 9469,
      "cr": 9470,
      "àª¾àª°à«ĭ": 9471,
      "ĠÃİ": 9472,
      "Ã¥l": 9473,
      "Ġrez": 9474,
      "jar": 9475,
      "áĥĲáĥķáĥ¨": 9476,
      "Ġheb": 9477,
      "Ð»ÑİÑĩ": 9478,
      "Ġolar": 9479,
      "Ġcop": 9480,
      "ĠëĲ": 9481,
      "Ġtitle": 9482,
      "ì¡°": 9483,
      "TE": 9484,
      "ĠÎ±Î»Î»Î¬": 9485,
      "ĠFebru": 9486,
      "ĠíĶ": 9487,
      "áĢ¬áĢĻ": 9488,
      "áĥľáĥĺáĥ¡": 9489,
      "ĠkÅ«": 9490,
      "ÅĤy": 9491,
      "irt": 9492,
      "ĠØĽ": 9493,
      "ĠDit": 9494,
      "adu": 9495,
      "Ġèµ": 9496,
      "ĠéĿ": 9497,
      "åıĹ": 9498,
      "ÑĥÐ´Ð°": 9499,
      "stra": 9500,
      "ĠNEW": 9501,
      "ê´Ģ": 9502,
      "Ġkum": 9503,
      "Ĭé¾Ļ": 9504,
      "áĢĢáĢ¯áĢŃ": 9505,
      "ĠÐİÐ·": 9506,
      "Ġuse": 9507,
      "Ġago": 9508,
      "à¯Īà®¯à¯ģà®®à¯į": 9509,
      "àªĤàªķ": 9510,
      "ĠHy": 9511,
      "àµĨà´Łàµįà´Ł": 9512,
      "Ø§ÙĨØ¯": 9513,
      "ogbo": 9514,
      "ãģĦãģŁ": 9515,
      "Ġdating": 9516,
      "ĠáĢĻáĢ¼": 9517,
      "à¦¿à¦¦": 9518,
      "fel": 9519,
      "Ġvá»ģ": 9520,
      "ĠØµØŃ": 9521,
      "ĠVis": 9522,
      "íĸī": 9523,
      "ëŁ¬": 9524,
      "owo": 9525,
      "à¥įà¤ª": 9526,
      "è¦ĭ": 9527,
      "ç¾¤": 9528,
      "igan": 9529,
      "ĠettÃ¤": 9530,
      "ĠIntern": 9531,
      "Ġloa": 9532,
      "Ø¦ÙĬØ³": 9533,
      "áĥłáĥĺáĥ¡": 9534,
      "Ġgeb": 9535,
      "éĹ®": 9536,
      "ĠÙĤØ±Ø§Ø±": 9537,
      "59": 9538,
      "Ġmont": 9539,
      "áĢĲáĢ®": 9540,
      "Ġbers": 9541,
      "ĠSur": 9542,
      "Ġdell": 9543,
      "à¹īà¸³": 9544,
      "à¥ĩà¤Ł": 9545,
      "åĪĨå¿«3": 9546,
      "Ġautor": 9547,
      "×ĵ×¨": 9548,
      "ê¸Ī": 9549,
      "Î¯ÎµÏĤ": 9550,
      "Ġrah": 9551,
      "Ġ83": 9552,
      "Ġàªıàª®": 9553,
      "å·¥ä½ľ": 9554,
      "ãĥ¼ãĥ«": 9555,
      "Å©ng": 9556,
      "ĠáĢ±áĢľ": 9557,
      "ìŀħ": 9558,
      "áĢĶáĢŃáĢ¯áĢĦáĢº": 9559,
      "Ġrak": 9560,
      "ĠáĥĽáĥĹ": 9561,
      "ĠØ³Ø§ØªÚ¾": 9562,
      "ÑĥÐ»ÑĮÑĤ": 9563,
      "yat": 9564,
      "abe": 9565,
      "Ġsuc": 9566,
      "ismo": 9567,
      "ohl": 9568,
      "Ġsiz": 9569,
      "Ad": 9570,
      "ful": 9571,
      "åĥ": 9572,
      "ĠØ§ÙĨØ¯": 9573,
      "tia": 9574,
      "meld": 9575,
      "Ġbang": 9576,
      "ãĤĪãģĨ": 9577,
      "Ġ79": 9578,
      "ĠSet": 9579,
      "ĠÐ·Ð²": 9580,
      "æ¹": 9581,
      "»áĢĸáĢħáĢ¹áĢ": 9582,
      "uen": 9583,
      "ĠÙĦÛĮÛĴ": 9584,
      "ligt": 9585,
      "ĠÏĥÏĦÎ¿Î½": 9586,
      "ĠSen": 9587,
      "èĳ": 9588,
      "ÙĪØ§ÙĦ": 9589,
      "ĠáĢ±áĢĻ": 9590,
      "ÃŃr": 9591,
      "Ð¸ÑĤÐ¾": 9592,
      "çĽŁ": 9593,
      "Ð½Ð¾ÑĤÐ¾": 9594,
      "æĬķæ³¨": 9595,
      "ĠBur": 9596,
      "ãģ«ãģª": 9597,
      "à°°à±ģ": 9598,
      "Ġwho": 9599,
      "Ġá¼": 9600,
      "ĠlÃłm": 9601,
      "way": 9602,
      "ĠVe": 9603,
      "ÙĪØµ": 9604,
      "à¹Ģà¸ļ": 9605,
      "Ġ].": 9606,
      "Ð¼ÐµÐ½": 9607,
      "iyyÉĻt": 9608,
      "Ġà®ľ": 9609,
      "ĠES": 9610,
      "Ð½Ð¾Ð³": 9611,
      "pat": 9612,
      "ĠSem": 9613,
      "my": 9614,
      "à¤¹à¤¾": 9615,
      "à§įà¦ķ": 9616,
      "à§°": 9617,
      "utat": 9618,
      "Ġàª¸àª¾àª®": 9619,
      "íķĻ": 9620,
      "Ġdocument": 9621,
      "Ġáĥ®áĥĶáĥļ": 9622,
      "à«ĭàª¨": 9623,
      "åħ¶": 9624,
      "lia": 9625,
      "Ġnost": 9626,
      "ĠÂµ": 9627,
      "áĢĳáĢ¬áĢ¸áĢ": 9628,
      "à®¿à®±à®¤à¯ģ": 9629,
      "Ġfirst": 9630,
      "Ġà®ħà®®": 9631,
      "Ġ×ľ×¤": 9632,
      "cc": 9633,
      "à¤Ĥà¤Ĺ": 9634,
      "àµĩà´·": 9635,
      "inte": 9636,
      "ìķ½": 9637,
      "ç§į": 9638,
      "Ġoor": 9639,
      "ÙĢÙĢÙĢÙĢ": 9640,
      "ÏģÎµÏĤ": 9641,
      "ĠOf": 9642,
      "ĠÎ´Î¹": 9643,
      "à´¦àµįà´": 9644,
      "Ġreview": 9645,
      "Ð½ÑĥÑİ": 9646,
      "è¯·": 9647,
      "ëªħ": 9648,
      "à§ĩà¦¬": 9649,
      "áĢ»áĢĻ": 9650,
      "Ġforma": 9651,
      "æİ¨": 9652,
      "Ġâľ": 9653,
      "×ł×Ļ×Ŀ": 9654,
      "áĢĲáĢŃáĢ¯áĢ·": 9655,
      "ĠæľĢ": 9656,
      "à±įà°¡": 9657,
      "Äĵm": 9658,
      "ÎĳÎ£": 9659,
      "Ġà´Ī": 9660,
      "ĠUl": 9661,
      "Ġáĥ¡áĥ¢": 9662,
      "ÑĢÐ°ÑĦ": 9663,
      "imet": 9664,
      "Ġmun": 9665,
      "à°¿à°Ĺ": 9666,
      "à®®à®¾à®ķ": 9667,
      "Ð¸ÑĦ": 9668,
      "ê²½": 9669,
      "AND": 9670,
      "xa": 9671,
      "Ġà®ªà®¿à®°": 9672,
      "ÑģÐºÐ°Ñı": 9673,
      "ĠíĨ": 9674,
      "ublish": 9675,
      "Ãºbl": 9676,
      "ited": 9677,
      "ĠØ§ÙĦØ²": 9678,
      "ÏĦÏīÎ½": 9679,
      "Ø¹Ø±": 9680,
      "irl": 9681,
      "ãģķãĤĮ": 9682,
      "Ġàª¤à«ĩàª": 9683,
      "ĠÐµÐº": 9684,
      "UD": 9685,
      "ĠpiÃ¹": 9686,
      "ĠagåĽ½éĻħ": 9687,
      "Ġ77": 9688,
      "Ġ1000": 9689,
      "Ġkami": 9690,
      "æ°Ĺ": 9691,
      "ĠáĢ±áĢĢáĢº": 9692,
      "æīĵ": 9693,
      "ĠàªĨàªµà«Ģ": 9694,
      "iske": 9695,
      "ĠDar": 9696,
      "ÐµÐ´Ð¸": 9697,
      "ĠáĢģáĢº": 9698,
      "ĠÐ¼Ñĸ": 9699,
      "Ġsport": 9700,
      "ãĥĸ": 9701,
      "ĠCap": 9702,
      "Ġàª¹àª¤àª¾": 9703,
      "Ã¢m": 9704,
      "à¥įà¤ķ": 9705,
      "áĥĿáĥĻ": 9706,
      "ĠPC": 9707,
      "àª¿àªĤàªĹ": 9708,
      "ÙĪÙģ": 9709,
      "ÛĮÙĨÛĮ": 9710,
      "far": 9711,
      "ĠâĢı": 9712,
      "ĠBro": 9713,
      "àªµà«ģàªĤ": 9714,
      "Ġä½Ĩ": 9715,
      "ĠÑģÐ°Ð¼Ð¾": 9716,
      "àªµàª¾àª¨à«Ģ": 9717,
      "à¸Ļà¸´": 9718,
      "ÉĻri": 9719,
      "ÏĥÏĦÎ±": 9720,
      "conom": 9721,
      "ĠìķĪ": 9722,
      "ĠØ¨Ø®": 9723,
      "ĠÎ¥": 9724,
      "ĠÚ©ÛģØ§": 9725,
      "cis": 9726,
      "\\\"": 9727,
      "à´ķà´°": 9728,
      "Ġpil": 9729,
      "åĪĨéĴŁ": 9730,
      "à¸µà¸ģ": 9731,
      "Ð¿ÐµÑĢ": 9732,
      "ires": 9733,
      "ĠÐ´Ð¾Ð¼": 9734,
      "à¹īà¸Ńà¸¡": 9735,
      "áº¥y": 9736,
      "à¥įà¤¸": 9737,
      "Ġkwenye": 9738,
      "àª¤à«ĭ": 9739,
      "à¤¾à¤ĩ": 9740,
      "Ð¸Ð·Ð²": 9741,
      "Ġ×ĳ×¨": 9742,
      "ĠÐ½Ð°Ñĺ": 9743,
      "ĠAss": 9744,
      "ellen": 9745,
      "Ġito": 9746,
      "Ð»ÐµÐºÑĤ": 9747,
      "ØµØ±": 9748,
      "¦Ĥ": 9749,
      "gang": 9750,
      "Ġá»Ł": 9751,
      "ĠÃĺ": 9752,
      "Ġdoor": 9753,
      "amer": 9754,
      "ĠØ¹ÙĦÛĮ": 9755,
      "Ġkahi": 9756,
      "ãģ¨ãģĦãģĨ": 9757,
      "ĠÃ¼z": 9758,
      "åĪĹ": 9759,
      "ander": 9760,
      "Ġæ²": 9761,
      "kal": 9762,
      "Ġother": 9763,
      "Ø¹ÙĪØ¯": 9764,
      "ÑģÐºÐ°ÑĤÐ°": 9765,
      "Ġzn": 9766,
      "Î¼Î¹": 9767,
      "Ġtash": 9768,
      "à¸³à¸«": 9769,
      "Ø¹Ø¨": 9770,
      "ÑĭÑĤ": 9771,
      "Î³Î³": 9772,
      "ĠÐ´ÐµÐ½": 9773,
      "éľ¸": 9774,
      "æĲ": 9775,
      "Ä«bu": 9776,
      "áĥĿáĥłáĥĽ": 9777,
      "udio": 9778,
      "Ġcur": 9779,
      "áĥĲáĥŀ": 9780,
      "ĠrÃ©": 9781,
      "Ġæ°": 9782,
      "Ġì¡°": 9783,
      "Ġopp": 9784,
      "ÏĩÎ¿ÏħÎ½": 9785,
      "à§įà¦ļ": 9786,
      "ÎŁÎ£": 9787,
      "ĠáĢľáĢĢáĢ¹áĢ": 9788,
      "è¿ĺ": 9789,
      "ĠLED": 9790,
      "abor": 9791,
      "à´®à´¾à´¯": 9792,
      "×ľ×Ļ": 9793,
      "Ġrap": 9794,
      "ĠVa": 9795,
      "lÉĻri": 9796,
      "åĦ": 9797,
      "ilgan": 9798,
      "Ġmeer": 9799,
      "Ġcáº£": 9800,
      "ĠAugust": 9801,
      "à§ĩà¦Ľà§ĩà¦¨": 9802,
      "cas": 9803,
      "ĠOne": 9804,
      "Ð¸ÑıÑĤ": 9805,
      "á»ĩu": 9806,
      "ãĤŃ": 9807,
      "ĠÑĥÐ¼": 9808,
      "stan": 9809,
      "ĠÐ¿ÑĢÐ¾Ð²": 9810,
      "ific": 9811,
      "Ġlong": 9812,
      "qq": 9813,
      "asjon": 9814,
      "Ø§ÛĮØ´": 9815,
      "ingi": 9816,
      "Ġä»Ĭ": 9817,
      "Ġà°²à±ĭ": 9818,
      "IZ": 9819,
      "Ġ.[": 9820,
      "OW": 9821,
      "ĠàªĪ": 9822,
      "iyor": 9823,
      "ĠTÃ¼rk": 9824,
      "ĠPas": 9825,
      "Ġà°ķà±Ĥà°": 9826,
      "Ġä»ĸ": 9827,
      "Ð±Ð¸": 9828,
      "Ð²Ð°Ð»": 9829,
      "utu": 9830,
      "ãģĤãĤĬ": 9831,
      "ĠSM": 9832,
      "ÄįnÃŃ": 9833,
      "owy": 9834,
      "Ġä¸Ĭ": 9835,
      "ì¦": 9836,
      "unci": 9837,
      "Ġtw": 9838,
      "ĠHet": 9839,
      "ĠáģĤáģĢ": 9840,
      "otos": 9841,
      "ĠÐ±Ð¾Ð»": 9842,
      "Ġsik": 9843,
      "Ġêµ¬": 9844,
      "Ġtáº¡i": 9845,
      "Ġà¸ĭ": 9846,
      "Ġà¹Ģà¸ŀ": 9847,
      "Ġà®µà®¾à®": 9848,
      "à®ªà¯į": 9849,
      "ÑĥÑĢÑģ": 9850,
[...]
