#version: 0.2
Ġ Ð
Ð ¾
ã ģ
Ð µ
Ð °
Ð ¸
Ñ Ĥ
Ð ½
Ġ t
Ñ Ģ
Ñ ģ
Ð¾ Ð
ã Ĥ
Ġ a
ã ĥ
á »
i n
h e
Ð »
e r
e n
Ð º
Ġ s
Ġ o
r e
Ñ ĥ
Ġ .
Ġt he
Ġ d
á º
Ñ ı
Ñ ĭ
Ġ w
n g
Ġ ,
a t
Ġd e
Ð° Ð
Ġ c
Ðµ Ð
o n
Ã ©
o s
Ñ Į
ĠÐ ¿
i t
n d
e s
c h
o u
o r
Ġ p
Ġ f
i s
Ġ b
Ñģ ÑĤ
in g
ã Ģ
Ġ l
a s
Ġ ãĢ
a r
Ð ²
e d
ĠÐ ²
Ġ m
Ġt o
a l
Ñ ĩ
Ðµ Ð½
a n
Ġ Ñģ
Ġa nd
Ġ in
i e
Ġo f
Ġ Ä
Ð ¼
ĠÐ ½
Ð¾Ð ²
c i
ĠÐ ¸
ĠÄ ĳ
Ð ´
Ã ł
Ġ h
ĠÐ ¾
o m
a d
i on
Ñ ħ
ãģ ®
n h
Ġt h
ĠÐ º
i c
e l
Ðµ ÑĢ
i l
en t
q u
Ġ e
Ð° Ð½
Ðµ ÑĤ
Å Ĥ
ĠÐ ´
Ġ y
Ġ S
Ð ¿
Ð¾ ÑĢ
ãģ Ħ
Ġ T
Ã ¡
Ġ re
Ð° ÑĤ
Ġd i
Æ °
Ġ I
l e
Ð¾Ð »
Ġ v
ĠÐ¿ ÑĢ
r o
ĠãĢ ģ
Ġ n
Ã ³
Ġl a
Ñ İ
Ð¾Ð ¼
Ð¸ ÑĤ
Ġ en
u s
Ġy ou
Ð½ Ñĭ
Ð¾Ð ´
Ġ z
ĠÐ ¼
ãĥ ¼
Ðµ Ð»
o w
Ġ g
c t
Ð ±
Ð° Ð»
qu e
u n
Ġ ÑĤ
Ñ Ī
Ñ Ĩ
ãģ §
ï ¼
Ġ ÑĢ
â Ģ
Ð ·
Ð½ Ð¾
Ã £
Ä Ļ
ãģ Ĺ
e t
i ch
Ġ is
Ġ âĢ
Ġ es
i d
Ã ¼
ãģ «
Ġc h
Ã£ o
v e
Ġ C
Ð¾Ð ³
Ġ A
Ġf or
Ġ que
Ġ el
Ġ k
i á»
Ä ħ
ãģ ¦
u t
Ġ Ã
Ġ -
Ġo n
Ð ¹
Ñģ Ðº
o t
Ã §
u r
Ġb e
Ġ ãĥ
ãģ ¨
Ð ³
l y
u nd
ãģ ª
Ð¾ ÑĤ
ĠãĢ Ĥ
Ð¸ Ñı
Ð¾Ð ¹
ĠÐ ±
Ġ D
ãģ Ł
a y
Ġ B
Å ¼
Ġ E
Ġ Â
Ã Ń
ãģ Ļ
o l
ãģ Į
Æ° á»
Ġ nh
ãĤ ĭ
z y
Ġ '
ÐµÐ ¼
ĠÐ½ Ð°
Ġ P
ãĥ ³
Ã³ n
Ġc on
Ġ å
i m
c e
u ng
ãģ ¯
i g
it h
Ð° Ðº
Ð¾ Ð½
Ã ¤
i a
Ð¸ Ð½
áº ¡
ÐµÐ ´
Ġ 1
Ġs t
at ion
áº ¿
r a
ĠÐ ·
Ð° ÑĢ
Ġth at
Ġ un
s t
Ġ ï¼
Ã ´
Ġw ith
ãģ ¾
Ġ M
Ġ ãĤ
Ġ und
Ġ Ñĥ
t o
Ñ ī
Ġde l
Ġe t
Ñ Ħ
ou r
Ġ 2
v er
Å Ľ
Ð°Ð ²
Ã ª
a m
ĠâĢ Ļ
Ð°Ð ¼
Ð¸ Ðµ
ãĤ Ĵ
Ð°Ð ·
Ġ Ãł
c he
i r
ĠT he
Ġl e
Ġ it
áº £
Ġ L
Ġk h
Ġs e
Ġt r
c z
Ġe in
Ñģ Ñı
Ġ W
Ġc om
Ð ¶
ĠÐ ³
a ci
Ð» Ð¸
t er
l a
Ġ æ
z ion
i o
Ġ :
Ġd er
Ġa l
Ġ F
Ð¾ Ñģ
Ġ K
Ġ ng
Ġd ie
ãģ ĭ
á» Ļ
Ġa n
Ð¸ Ðº
Ġp ro
u m
Ġ Ñĩ
Ġ G
Ġa s
u l
t e
Ð¸ Ð¼
Ġp er
ĠÐ Ł
ÑģÑĤ Ð²
Ġ he
Ð¾Ð ±
il l
ãģ £
Ġa re
t i
Ġw h
áº ¥
ar a
Ġp h
Ð¾Ð³ Ð¾
ä ¸
ĠÐ ¡
t a
ĠÐ Ĵ
Ġ j
Ġh a
t en
z e
Ġo r
ãĥ¼ ãĥ
h r
ãĤ Ĭ
Ã ¢
á» ĳ
Ð» Ñı
ÐµÐ ¹
Ð° Ñı
Ñ į
ĠÐ °
Ġ H
Ã§ Ã£o
Ð¸ Ð¸
o d
Ã ¨
ãĤ Ĥ
m ent
iá» ĩ
Ġp or
Ðµ Ðº
Ġd o
Ġn a
Ġl os
Ġde s
u f
er s
Ġ ãģ
ãĤ ¹
Ġl es
i ÄĻ
r Ã©
re s
Ð¾ ÑģÑĤ
ad o
Ð°ÑĤ ÑĮ
p p
Ð° Ñģ
Ä ĩ
ãģ Ĩ
Ġ r
Ð¾Ð º
ãĤ Į
Ġ il
Ġ i
Ð¾Ð ¶
ĠÐ »
ĠÐ ļ
ãĥ ĥ
Ã ¬
Ð¸ Ð»
Ġyou r
Ãª n
ĠÐ¾ ÑĤ
ãĤ ī
l d
es s
an t
at o
Ġe m
Ġa t
ĠÐ½ Ðµ
Ð¸ Ð¹
ÑĤ Ð¾
Ã ¶
he r
ãĤ ¤
c k
Ġe x
at e
Ã´ ng
a k
es t
Ġf r
Ġp r
ÑĢ Ñĥ
Ġ Ã©
Ð¸ Ð²
Ġ Ñį
Ġ R
Ġn e
Æ ¡
g e
Ġ N
Ġw e
Ġc he
zion e
ig h
ä º
Ġ um
ãĥ Ī
ĠÐ¾ Ð±
Ġ qu
o re
ÐµÐ» ÑĮ
á» §
Ġ V
Ġ ç
Ġ (
ou s
Ã³ w
Ġp ara
b le
k a
áº Ń
Ðµ Ñģ
Ġ ÑģÑĤ
Ġv á»
ĠÄĳ á»
b er
Ð¸ Ñĩ
Ġ )
Ġv Ãł
it y
Ã¼ r
Ġd a
Ð°Ð ´
e ct
ich t
ãĤ ĵ
ÐµÐ ²
t h
o p
Ġha ve
Ã ±
g o
Ġc an
aci Ã³n
Ġp our
n e
Ð¾Ð» ÑĮ
ãģ ı
a re
Ġw as
Ġs u
áº §
Ġl o
Ġ us
Ġ O
ĠÐ¿ Ð¾
Ġl as
Ġth is
Ġfr om
i ve
ÐµÐ ³
l i
Ġp ar
Ð¸ ÑĢ
is t
ĠÐ Ŀ
an s
ç Ķ
ĠÐ ł
Ġes t
ĠÐ ľ
y ch
æ ľ
ÐµÐ½ Ð¸Ñı
Ġ2 0
Ġs h
ãĥ «
u x
e it
k i
Ġ 0
us t
ä »
Ð¸ÑĤ ÑĮ
Ð¾Ð ·
Ð¸ Ð·
e m
i v
Ġd u
Ā Ā
ĠÐ ŀ
al e
Ġ "
Ġb y
Ð°Ð» ÑĮ
i er
i áº¿
Ġl Ãł
Ġw ill
Ã¡ c
ĠÐ² Ñĭ
Ġ x
Ġn ot
Ðº Ð°
Ðº Ð¸
or t
Ð°Ð ±
c j
ãģ į
Ġw y
Ð½Ñĭ Ðµ
Æ°á» Ŀ
n ie
Ġ /
m e
ĠÐ µ
Ġth á»
s e
om e
Ġ è
ãĤ ¯
Ð½Ñĭ Ñħ
Ġd as
Ġt á»
ÃŃ a
Ľ i
ãĥ ©
igh t
Ġun a
al l
n i
Ð¾Ð ¿
g en
d z
s ch
Ð¸ Ñħ
ï ¿
ĠÃ ¨
ar d
Ð°Ð ¹
ãģ¾ ãģĻ
Ġn o
ãģ ĵ
ÐµÐ ·
Ġun e
ï¿ ½
Ġw or
i es
Æ°á» £
áº¥ t
æ ĸ
Ġm it
å ®
z z
Ð½Ñĭ Ð¹
Ġ é
u p
Ġz u
a is
u y
ãģĹ ãģ¦
áº¡ i
ÑĢ Ð°
Ð¸ Ñģ
u ch
Ġv on
Ð½ Ð¾Ð¹
u d
che n
ãĥ ª
Ä ĥ
ent e
ãģ ķ
ĠÐ Ĳ
u e
i en
Ġs p
ĠÐ Ķ
in d
b en
Ġd Ã©
i re
Ġn ie
Ġ ÑĦ
f f
Ġd en
Ġg i
ãģ£ ãģ¦
a g
o k
ãģ® å
u re
Ġal l
y m
Ð° ÐµÑĤ
Ġc á»§
ou ld
ou t
Ġc Ã³
ãģ Ĥ
Ð½Ð¾ ÑģÑĤ
Ġ 3
al ly
Ġcá»§ a
ĠÐ¸ Ð·
ĠÄ Ĳ
a Ã§Ã£o
ãģ§ ãģĻ
Ã º
os t
n o
Ġ U
el l
Ð½ Ð¾Ð³Ð¾
Ġs ur
ĠT h
ä ½
ÐµÐ½ Ð¸Ðµ
id ad
ÐµÐ½ ÑĤ
Ġs iÄĻ
ãģ ł
Ġh á»
g h
Ġs o
i ci
ad a
ĠÐ´ Ð»Ñı
in e
n a
å ı
Ñĥ ÑĤ
Ã¡ s
Ð°Ð ¶
Ã© r
Ġis t
p er
Ñĥ Ð´
Ġ !
Ñİ ÑĤ
Ġcom p
ãģĹ ãģŁ
id e
Ġz a
Ġ er
Ġ Z
al i
Ġf Ã¼r
Ġa uf
ĠÐ ¢
ÑĨ Ð¸
å ¤
Ġl i
Ġa b
ic e
å Ī
Ã Ł
Ð¾ Ñĩ
Ð° ÑģÑĤ
ĠÐ ¶
Ġg o
Ġ J
å ħ
Ġãĥ »
á» ĭ
Ĺ ¥
ĠI n
ãģ ĳ
r ou
Ġa d
ic a
ĠÂ »
on t
on es
an o
e ar
Ã¬ nh
Ð¸ Ð´
áº ¯
Ġp o
Ġw he
Ġh as
d er
j Äħ
a b
Ðµ ÑģÑĤ
on o
Ġd ans
c c
Ġ20 1
Ð¸ ÑģÑĤ
Ã¢ n
ĠÐ ĺ
ãĥ³ ãĥ
ion s
Ðµ ÑģÐº
ãĤ ¢
Ñĥ Ñİ
Ġ up
ĠÑĩ ÑĤÐ¾
a nd
Ġ im
d o
Ġ rÃ©
a ÅĤ
Ġg e
ĠÐ¿ Ð¾Ð´
Ġ ?
ãĥ³ ãĤ
an n
d en
t her
ãĤ Ī
Ñı ÑĤ
Ġb ut
Ġo ut
Ġm e
Ġp l
Ñĥ ÑĢ
l o
iá» ģ
á» ¯
Å¼ e
Ð°Ð ¿
á» ±
l ich
ĠÑĢ Ð°Ð·
Ġdel la
ĠS ch
Ġo ur
Ðµ Ñĩ
ĠÂ «
k t
it Ã©
Ã ²
Ð¾Ð² Ð°Ð½
Ġp as
ak e
al es
Ġa u
a ge
Ġc u
Ñĥ Ñĩ
ãĥ¼ ãĤ
Ġ Y
ÅĽ ci
Æ°á»£ c
Ã© e
ĠÐ ĳ
s o
a in
at a
Ð½ Ð¸Ðº
Ġ 5
i ent
ĠÑģ Ð²
at ed
ĠS t
Ð°Ð ³
Ġ 4
ãĥ ¬
Å Ħ
ĠÐ± Ñĭ
Ġm ore
g g
er e
on e
Ġthe ir
a j
ÐµÐ ±
Ã µ
å Ĳ
Ð½ Ð°Ñı
a ch
z a
ĠÐ¿ÑĢ Ð¾
. .
ĠD e
Ġ Ñħ
k e
Ġt im
æ Ĺ¥
á» ¥
ãģ Ĭ
ĠÐ² Ñģ
in h
ĠÐ¿ ÐµÑĢ
ci Ã³n
Ãµ es
á» ©
p t
Ġthe y
f or
Ġn on
Ġc Ã¡c
á»Ļ t
ĠE n
Ġum a
ic o
Ġo d
b re
ci a
he n
è ¨
Ġon e
ãģª ãģĦ
Ġm y
ou n
ï¿½ ï¿½
ro ng
ie l
Ġkh Ã´ng
Ð¸Ñĩ ÐµÑģÐº
Ġch o
ĠÐŁ ÑĢ
Ð½ Ð°
ãģ£ ãģŁ
it Ãł
at i
it e
Ġqu i
n en
ow an
ar t
Ð½Ñĭ Ð¼
Ãł y
ĠE l
äº º
r i
è ¦
ÑĢ Ð°Ð½
á» Ł
Ġv er
Ġwor k
ow e
Ġn icht
Ð¿ ÑĢ
Ġs ch
ent o
ĠÄĳ Æ°á»£c
b e
Ð ŀ
ĠÑĤ Ð°Ðº
ĠÐ¿ Ð¾Ð»
0 0
Ġ ro
Ðµ ÑģÑĤÐ²
Ã ¹
Ġo s
ĠÐ ĵ
ÐµÐ ¿
ol o
d u
j e
id o
áº ·
Ġre s
Ð½ Ð¸
Ġf a
Ñĭ Ðµ
an ce
ĠI t
h l
ï ½
m en
Ġa pp
ÑĨ Ð¸Ð¸
Ð¾ÑĤ Ð¾ÑĢ
Ġwh ich
c y
a p
ĠÐº Ð°Ðº
Ġab out
Ġn el
å ¹
a ble
é Ģ
é ĸ
Æ° Æ¡
áº§ n
Ġin c
a u
Ġw ir
Ġof f
a zione
ãģĻ ãĤĭ
Ġs i
Ġm an
f t
ĠW e
ãģ ©
l ic
Æ°á» Ľ
ĠL a
ĠÑį ÑĤ
d e
re at
ĠÐ¸ Ð½
Ġf e
Ñĭ Ð²
Ġa ve
Ð°Ð¼ Ð¸
ĀĀ ĀĀ
Ġa us
Ġcom o
iá»ĩ n
a w
á» ĩ
ÐµÐ ¶
k u
Ġt rong
ãģĭ ãĤī
ãĤ ģ
ãģ Ī
Ġ Ñı
as e
æ Ģ
Ġv ous
ĠÑģ Ð»
Æ°á»Ŀ i
Ñħ Ð¾Ð´
r y
k ie
Ð´ Ð°
Ð ł
c ie
s en
Ġtim e
Ġo u
Ġm Ã¡s
Ġpr ze
a ck
ation s
ad os
Ñĥ Ð¿
Ð ¡
er v
Ġal so
Ã© s
Ġm á»Ļt
ĠS ie
Ġt e
Ġ u
ĠS e
ãĤ Ħ
as t
áº¡ n
Ġg r
ur s
Ġp i
m a
ä ¼
il le
Ġp u
Ġvá» Ľi
ĠTh is
Ġpl us
el y
ĠÐ¿ÑĢ ÐµÐ´
re e
or i
ĠC h
ig n
Ñĭ Ð¹
Ġs ich
Ġn Ã£o
ãģ® æ
ÐµÐº ÑĤ
Ð¸ÑĤ ÐµÐ»ÑĮ
ĠÐ· Ð°
é ģ
Ġï¼ ī
ãĥ ķ
iá» ĥ
Ġ ÑĨ
ãģĵ ãģ¨
Ġy ear
Ñĥ Ð±
ung en
m o
Ð Ĳ
Ġo ther
Ġan y
Ġein e
ent i
os e
Ġave c
am e
ĠÐº Ð¾ÑĤÐ¾ÑĢ
w e
ĠV er
for m
Ġa v
iá»ģ u
Ð½Ð¾ Ðµ
Ġa uch
idad e
c zy
Ġs c
w a
Ðº Ð¾
i Ãªn
ĠD ie
v el
Æ°á»Ŀ ng
ct ion
Ġwh o
w i
ãĥ Ń
il e
Ġï¼ Ī
ar y
á» į
è ¡
áº£ i
Ġd is
Ãł ng
and o
ĠãĢ į
Ġe v
ãģ ¤
Æ°Æ¡ ng
Ðµ Ðµ
Ġg et
i os
ãģ ¡
Ġng h
ĠÐº Ð¾Ð¼
i p
áº£ n
ĠÐ¿ÑĢ Ð¸
Ã§ Ãµes
Ð° Ñħ
ay s
Ð» ÐµÐ½
Ãł nh
ic al
å º
t s
ÐµÐ½ ÑĮ
c o
ÐµÐ³ Ð¾
ãĤ ·
zion i
Ñĭ Ñħ
er o
ãĤ ¿
it o
Ġa r
c u
ent s
Ġ â
Ð°Ð± Ð¾ÑĤ
Ġs ome
Ġj est
ĠÐ £
Ñ ĳ
Ġne w
c a
ãģ Ľ
t re
Ñĥ Ð»
å ¸
Ġc e
n y
Ġng Æ°á»Ŀi
Ñģ Ð¿
Å¼ y
Ġm o
k o
ãĥ Ĺ
å Ľ
Ġc o
ow n
Ġa p
s i
å¹ ´
ĠL e
ĠS p
Ġde m
ÅĤ a
m er
it ion
an te
Ã¡ ch
Ãł n
ĠãĢ ĳ
á»¯ ng
e p
Ñĥ Ð¶
ing s
Ġne ed
Ġm ais
ĠâĢ Ķ
ĠÑģ Ð¿
Ġc l
Ñĥ Ð¼
ĠâĢ ľ
Ãł i
Ļ Ĥ
an h
Ġj ak
Ġim p
c er
Ġpr zy
ĠB e
w o
Ġcon t
áº§ u
ion e
ĠãĢ Į
ãĤ £
ĠÐ¼ Ð¾Ð¶
ĠÐ Ĺ
Ġ ÑĪ
Ġp od
ĠA n
Ġnh Æ°
æ °
en d
Ġo ver
Ã¨ s
Ġp re
Ġs a
Ġh is
Ð¾ Ðµ
Ġthe m
ãĤ ı
res s
ar k
á» ĵ
Ġi f
or s
t y
Ġj e
Ġli ke
æ ī
Ð¾ÑĢ Ð¼
ãģ ¿
Æ°á»Ľ c
ãģĦ ãĤĭ
ãĤ ³
Ġthe re
on s
u o
r os
Ã¢ y
Ġwhe n
Ã¨ re
Ðµ ÑĪ
ÅĤ o
in o
Ġ ich
áºŃ n
ig en
u j
å Ń
t Ã©
ĠÄĳ á»Ļ
at is
ĠR e
i ra
c es
Ġbe en
é ĩ
Ġ ent
an ie
Ġin ter
ĠâĢ ĵ
å ĵ
ou gh
Ġk t
Ñĥ Ñģ
ĠÐ Ľ
a hr
Ã´ i
ĩ º
Ġãģ Ŀ
ãĥĥ ãĥĪ
ver y
in a
ĠÑģ Ð¾
Ð° ÑİÑĤ
Ðµ Ñħ
Ġde i
Ġwh at
f ul
ĠÐº ÑĢ
qu es
Ġp e
ic k
ung s
Ã¼ ber
Ġ 6
áº¿ n
Ġnh á»¯ng
iáº¿ t
cj i
Ġkt Ã³
Ġh o
er n
çĶ ¨
ĠÐº Ð¾Ð½
å Ĩ
á» ķ
Ð½Ð¾ÑģÑĤ ÑĮ
ĠE s
in k
i que
Å ©
r z
Ġk n
Ð¸ ÑĨ
ÑĤ ÐµÑĢ
Ġth an
ow a
Ġdi es
Ġ 7
il d
Ġb o
á» Ń
Ġw ould
Ð½Ð¾ÑģÑĤ Ð¸
Ġd z
n ych
m p
ç ´
Ð° ÑĪ
Ġ Å¼e
Ġw er
l es
Ġd os
Ð½ Ð¾Ð¼
Ð°ÑĢ ÑĤ
Ġp el
áºŃ t
Ã¡ n
ou nd
Ġd al
Ġa cc
it a
å ĭ
Ġs er
å ł
ãĥĥ ãĤ¯
cz e
Ġm a
æ Ŀ
is h
Ġ ä¸
ta in
Ġqu es
et z
ç Ľ
w n
ol l
ĠÄĳ Ã£
an ia
Ġj ust
Ġw ere
Ð¸Ð» ÑĮ
Ġex p
s zy
Ġ |
è ²
Ġpro v
ÅĽ Äĩ
Ð ĺ
er a
ĠÐ¿ Ð»
r as
ient o
è ª
Ġit s
en ia
at er
ÃŃ nh
r u
Äĥ ng
ĠY ou
x o
ç µ
g li
al s
Ġo der
ĠP h
Ġc z
ÑĢ ÐµÐ¼
b i
Ġs ono
ĠÄĳá» ĥ
ĠÐ ķ
Ġhe l
g u
å ¾
or d
ide os
es ch
ãĥ Ĩ
ĠT r
Ðº Ñĥ
ãĤ «
Ġh ad
Ŀ i
Ġre p
Ġin to
ic as
ur a
Ġpi Ã¹
ÑĢ Ð¾
en ie
Ð¶ Ðµ
Ġdel l
Ġ ;
Ġbe i
ãģ¾ ãģĹãģŁ
ĠE r
t ing
ĠÐ¸ Ð»Ð¸
ĠP or
ĠE st
å ¼
Ġthá» ĥ
o ir
ÑĢ Ð¾Ð²
ĠÐ ¤
Ġsp e
r ze
áº¿ t
i Ã³n
Ġ 8
ãģ® ãģ§
on n
á»ĳ i
Ã§ a
on d
Ã¶ n
il i
è Ģ
Ġes p
ĠÐ¿ Ð¾Ñģ
Ġhel p
in i
æĸ Ļ
ir st
Ġs erv
ãģ¨ ãģĦ
ãĥ ¡
Ð½ Ñı
ad e
ĠÑį ÑĤÐ¾
l ud
er t
Ġ. ..
ç Ħ
Ñİ Ñī
ãĥ £
o c
id a
ĠÐ¾ Ñģ
å ¿
ÐµÑĤ ÑģÑı
Ġãģ ĵ
Ð» Ñİ
Ġï¼ ģ
Ġes ta
as s
Ġa ut
or y
ãĥ ŀ
Ġt ut
rou gh
us e
Ð Ŀ
áº ©
Ġ Ã¼ber
op le
Ġt ra
i ed
Ð°Ð½ Ð¸Ñı
ĠÐ³ Ð¾Ð´
Ġm ay
ĠP ro
Ġt em
en n
ãģĦ ãģ¾ãģĻ
ĠÐ¾ Ð´
s z
Ġs z
Æ¡ n
å ĩº
Ġm ake
ĠW h
Ġc ol
ÐµÐ½ Ð¸
å Ĭ
v a
æľ Ī
ä¼ ļ
ad or
Ġad d
ĠN h
ãĤĴ æ
aci ones
Ð² ÐµÑĤ
ĠÑĢ Ð°Ñģ
Ġs ind
Ð° Ñĩ
Ġp rÃ©
a ng
a Ã±
Ðº ÑĤ
Ã¹ ng
Ġus e
is e
åĪ Ĩ
w ie
Ð°ÑĤ ÐµÐ»ÑĮ
ĠI f
Ð ļ
f ter
h n
Ġ Q
a o
Ġh at
dz ie
Ã© es
ĠÑĤ ÑĢ
am os
Ġh ow
ĠI l
ĠÑĤ Ð¾
en ce
uj er
h o
ĠE in
Ġc Ã´ng
b y
Ġs ul
ÅĤ y
Ñģ Ð»
Ð°Ð» Ð¸
Ġwer den
f e
ĠãĢ Ĳ
äº ĭ
åĵ ģ
Ġhe r
ĠÐ¸ Ð¼
Ð¸ Ð»Ð¸
Ð ķ
ĠÐ §
Ġp os
Ġal s
Ġ ra
ä ¿
Ġt ak
Ð ¢
ĠA l
áº ½
Ġ1 0
an a
en za
Ġlo ok
Ġm ost
ul t
Ġth u
Ġs á»ĳ
á»Ļ i
ãĥ ¥
ãĤ µ
Ġpu ed
ãĥ ī
æĸ ¹
Ġb áº¡n
Ġcom m
Ġv or
ĠÐ² Ð¾Ð·
ci al
Ð¿ Ð»
iá»ĩ t
Ð°ÐµÑĤ ÑģÑı
ÑĢÑĥ Ð³
gg i
á» ī
Ġinc lud
Ġpro du
i ro
Ġï¼ ļ
Ġpe ople
ãĥ Ĳ
et te
is che
Ġna ch
ĠÐ Ń
ĠÑĢ Ð°Ð±Ð¾ÑĤ
ç ī
oun t
el le
Ġkn ow
en s
Ã¡ r
a il
ÑĨ Ð¸Ñı
Ġal la
Ð¾Ð»ÑĮ ÐºÐ¾
Ðº Ð¾Ð²
Ġ 9
Ġa o
Ġm á»
ãĥ ģ
Ġw ell
é Ľ
Ã¤ t
Ġon ly
ãģĤ ãĤĭ
n ia
Ġth rough
Ġtá» «
ĠC on
Ġæ ľ
b s
ic z
æľ ¬
Ġn Ãły
Ġl á»
Ã¡ i
Ð¸ Ð±
Ġa g
u est
ic es
Ġ ÅĽ
Ð¸Ð½ Ð°
å ±
Ġdel le
Ġcom e
ad as
c ed
Ã© m
æ ¥
Ġf irst
am ento
g ra
Ġ ä»
Ã¡ ng
ĠL es
Ġhá» į
å ľ
Ã ½
Ã¡ t
ãģĦ ãģŁ
Ð³ ÑĢ
ot re
at es
Ġb et
ãģ Ŀ
Ġre c
is s
Ġe very
ĠÑģ Ð¼
Ġs ont
Ð³ Ð¾
an no
i z
Ð½ Ð¾Ð²
Äĥ m
Ġpar t
Ġa ct
ÑĤ Ð¾ÑĢ
am p
á»ĳ c
ĠÐ° Ð²
am ente
ĠÑģ ÑĢ
ãģ °
ment e
æ ĻĤ
Ġg iá»
ow y
Ġcon s
Ġpr z
Ġ) .
Ġkh i
ĠG e
il y
Ġan che
Ġ1 9
Ġun s
å¤ §
ĠÐ½ Ð¾
Ġa c
ĠÄĳ áº¿n
j ect
Ð°Ð¹ ÑĤ
ĠA r
Ġs us
ig e
ãĤĪ ãģĨ
k s
et to
£ Â
Ġse e
å ī
ĠÐ± ÑĥÐ´
Ñĭ Ð¼
ĠÑģ Ð°Ð¼
ĠH e
Ġp ra
Ġs ie
at ing
Ġgi Ã¡
ĠN g
ãĥ ĭ
st e
Ġvá» ģ
ãģ¨ãģĦ ãģĨ
Ð¾ÑĢ ÑĤ
Ð´ ÐµÐ»
s on
j o
ãģ« ãģª
Ġr is
ar i
od z
Ġthe se
Ġsu pp
Ġb ack
rou nd
ar io
áºŃ p
à ²
Ġund er
am i
Å© ng
ãģķ ãĤĮ
å į
ĠÐ» Ñİ
á»© c
v o
æ Ħ
Ġw ant
iáº¿ n
n ing
ch t
ment s
Ġes te
ĠâĢ Ŀ
ãĥ¼ ãĤ¹
å ¯
ãģĤ ãĤĬ
¡ Â
ĠÑĥ Ñĩ
Ġa m
it ies
ic os
Ġ á»Ł
Ġex per
ä¸ Ń
Ġt en
åĲ Ī
Ġn os
m y
ĠlÃł m
Ġver y
Ñĭ ÑĤ
ĠÑģÐ² Ð¾
Ġdi ff
Ð» Ð¾
u b
Ñĥ Ñī
Ġdas s
ãĤ ¦
ĠÑģ Ðº
Ð¾ÑģÑĤ Ð°Ð²
Ġpor no
ia mo
Ġg ia
Ñģ Ð»Ð¸
Ð¾Ñģ Ñģ
ãĤ į
ãĥ¼ãĥ «
æ° Ĺ
Ġo t
Ð° ÑĨÐ¸Ð¸
in ess
è¦ ĭ
ä ¾
ĠÐ´ Ð¾
ĀĀĀĀ ĀĀĀĀ
Ð¾ÑĤ ÑĢ
áº¥ y
è¡ Į
f ic
ur ch
i Ãª
at t
åħ ¥
a ct
Ġt áº¡i
Ñ Ĭ
ent es
å ½
iá»ĩ u
Ġc as
ãĥ ĩ
ãģĦ ãģ¦
Ð°Ð½ Ð¸Ðµ
Ðº Ðµ
Ð°Ð» Ð°
Ġc áº£
m s
ĠA s
i res
ç ļ
Ġ %
ĠÐ¾ Ð½
Ð°Ð½ Ð¾Ð²
Ã© n
Ġto d
æĢ Ŀ
Ã± o
o b
ãĤ Ń
æ ķ
ãĥ ĸ
éĸ ĵ
ç Ļ
Ġre g
g y
áº ±
re i
im a
in t
Ġ ï½
re d
ä¸ Ģ
a us
Ð¾Ð»ÑĮ ÑĪ
is chen
c ess
ver s
ie w
Ġs áº½
Ġwir d
ia ÅĤ
et t
Ġb us
ãģ ĺ
ĠÐ¾ Ð¿
Ġd á»¥
é ĥ
Ġro z
ÑģÑĤÐ² ÐµÐ½
Ġman y
ä¸ Ĭ
Ġw ie
Ð½ ÑĥÑİ
r it
çĦ ¡
Ġgo od
ot h
ãĥ³ãĤ °
å °
ÐµÐ» Ñı
a v
Ġs he
Ġv otre
Ġst ud
Ð¾Ð¼ Ñĥ
u al
ãģ Ķ
Ġt out
u g
Ġk e
Ð¸ Ð³
Ð¾Ð»ÑĮ Ð·
ĠC om
Ġ ed
Ġv e
æ Ń
æ ³
Ã² ng
Ġs on
y st
Ã¼ ck
ĠÐ· Ð°Ðº
ĠÄĳ Ã³
en cia
Ġt wo
Ġnh Ãł
Ġm Ãł
Ġt ien
our s
ãĤ ¸
ĠU n
Ġå ¤
ĠÐ²Ñģ Ðµ
Ġc Å©ng
Ġc zy
æ Ī
Äĥ n
Ġd la
ÑĢ Ð°Ð·
r ar
ĠD as
Ã± os
Ġg reat
a i
Ġein en
r zy
Ġw ay
Ð¾ Ñı
ol d
ÑģÐº Ð¾Ð¹
ãĥ §
Ġk ann
Ġz um
ÐµÑģ Ñģ
y cz
ie j
m es
ow er
Ñĥ Ð½
aci on
ãģ§ ãģį
ĠãĤ ¹
Ġh Ãłng
f ore
ĠG r
b eit
an e
Ġin d
ãģ® è
ÑģÐº Ð¸Ð¹
á» ģ
Ġin v
c ciÃ³n
an y
ĠQ u
ag g
ne j
o ol
or a
Ġw ar
Ġper o
Ġt y
Ġt er
ro w
å ¥
ĠvÃł o
ÐµÐ» Ð¸
ĠÄĳá» ĭ
ãĥ¼ãĥ Ī
Ð Ĵ
ell o
ãģ§ ãģ¯
Ã¶ r
Ġn ous
i k
ĠÐ´ Ð²
áº «
å Į
ĠÐ¿ Ð¾Ðº
ç ¤
ur n
u res
Ġwhe re
ÐµÑĢ Ð¶
ci on
ĩ ª
ut as
o od
an z
iv o
ÑĨÐ¸ Ð¾Ð½
Ġp ow
ĠA us
ĠF or
x t
Ġ1 2
Ġyear s
p h
Ġp la
f er
Ġev en
ÑģÑĤÐ² Ð°
Ġs k
Ġnh iá»ģu
Ġtr Ãªn
Ġa fter
Ġb est
Ġa ux
Ġl áº¡i
c ar
g et
ĠN e
ali z
ãĤ °
Ð Ł
Ġc ould
Ġo wn
ãģ Ń
ãĥ ł
h al
ĠÐµ Ð³Ð¾
Ġso bre
áº »
ĠãĤ ¢
h re
ãĥ³ ãĥĪ
cj a
Ġsh ould
im o
ãĤ »
çĶ Ł
Ð¸ÑĢ Ð¾Ð²
n ym
ĠD er
ÑģÑĤ Ð°Ð²
ãĥ Ł
ic t
Ġp res
e ur
åł ´
ãģķ ãĤĵ
áº· t
å ·
Ġd own
Ġ \
Ð» Ðµ
Ð» Ð°
Ġgr atis
Ġthe n
é ¡
Ð» Ð°Ð´
Ġh igh
ĠÐ¿ Ð¾Ð¼
as ed
Ġc ar
Ġin form
á»ĳ ng
ier t
an k
Ãł o
ÑĥÐ» ÑĮ
Ã§ o
Ġha b
Ġin s
é Ļ
ni k
Ġno ch
å £
ãģ® ç
ra z
ne go
yst em
Ġf ind
Ġse in
Ġ &
Ġo b
Å º
Ġd ay
et h
Ì ģ
p o
ãģ« ãģ¯
áº ¹
Ġper son
Ð¸ÑĤ Ðµ
ÑģÑĤ ÑĢ
ul ar
Ġe ff
Ð¾ ÑĪ
áº¥ p
Ġf in
ation al
o i
Ð¾Ð» Ð½
ĠÐ¿ÑĢ Ð°Ð²
ãĤ ª
iá»ĩ c
çļ Ħ
0 4
ca use
Ġm u
Ġlo c
or o
« ĺ
Ã¡ o
vel op
ĠÐ± ÐµÐ·
Ñĥ ÑĪ
Ġre l
Ġn Ã³
Ġsu ch
Ġj ed
oc Ãª
Ġn ow
ãĤ §
il ity
ãĥ ĳ
ĠÃ ª
áº£ o
Ð¸ÑĢ Ð¾Ð²Ð°Ð½
an i
Ġein er
Ð» ÐµÐ½Ð¸Ñı
Ġk Ã¶n
el f
Ð¾ÑĢ Ð¾Ð´
Ġg li
i b
ĠA nd
Ġt u
a ce
ĠÐ¿ÑĢ Ð¾Ð´
ĠâĢ ŀ
ĠÄĳ áº§u
r Ã³
Ġ1 1
w ard
Ġãģ Ĭ
ĠÐ² Ð¸Ð´
an ti
Ġch á»ī
Ġr ight
Ġs m
Ġst art
Ġse c
s kie
ĠÐ½ Ð¾Ð²
Ġb á»ĭ
å® ļ
m i
Ġre qu
Ġv ideos
ĠÐ² ÑĢÐµÐ¼
å ĳ
ou v
ãĤ ¨
Ãªn cia
in s
Ġ #
ĠM it
ur ing
Ġh ome
l Ã©
Ġes c
p e
zz a
g a
ant s
Â µ
sch a
æĢ §
Ä ©
Ġdes ign
is ch
at h
ĠÐ¾ ÑĢ
Ġein em
Ġpl ay
h t
E R
Ġdiff er
Ġnh áº¥t
ç ķ
Ġs á»±
Ġbus iness
lic he
Ãº ng
Ġz ur
r en
ç ľ
am bi
Ñı Ð·
Ã¡r io
ĠÄĳá» ĵ
ent a
r on
èĢ ħ
Ġh iá»ĩn
u en
v ed
Ġ ãģ¨
ng e
Ð¾Ð¿ ÑĢ
Ġm uch
Ġm ar
Ð¾ÑģÑĤ Ð¸
Ñĭ ÑĪ
ut o
Ġsu a
ĠJ e
Ġ X
ç Ĳ
l io
ĠÐ¸ ÑģÐ¿
Ð°Ñģ Ñģ
Ġm ed
r Ã¤
Ġm od
Ġn Äĥm
Ġdá»¥ ng
ĠD E
ĠÄĳá»Ļ ng
ic s
f Ã¼
ä½ ľ
ic he
Æ°á»£ ng
ujer es
us s
ol i
ĠS o
ÃŃ ch
£Â ¬
ĠÐ¼Ð¾Ð¶ Ð½Ð¾
Ã¡ nh
is ta
ci ones
Ã¢ u
v ing
áº¯ c
ĠÐ¼Ð¾Ð¶ ÐµÑĤ
Ġng Ãły
è ©
Ð¾ ÑģÐº
æ ł
Ġent re
Ġlo ng
a c
ĠÐ´ Ð¾Ð»
ĠÐ´ ÑĢÑĥÐ³
Ġb r
ĥ n
Ð» Ð°Ð²
i Äħ
ĠÐ ¥
Ð¸ Ñİ
Ġn ur
Ã Ħ
Ġun ter
Ġd on
ãģ§ ãĤĤ
ĠT e
m os
Ġre ad
Ã² n
Ã¡ p
it s
Ġa ber
ÑģÐº Ð¾Ð³Ð¾
it t
ci o
Ð°Ð½ ÑĤ
Ġas s
á» ı
Ġha ben
Ã Ĳ
u i
Ġt ake
ĠK h
h ip
ad z
ĠÐ¾ Ñĩ
æī ĭ
æ ĺ
á»± c
b aj
Ñĥ Ñħ
ol a
y s
Ġm ark
Ġsa id
Ġph áº£i
Ġv iá»ĩc
el t
áº· c
Ð°Ðº ÑĤ
Ã¼ n
l ed
er en
g an
Ð´ Ðµ
Ġl le
ĠÂ Ń
O N
Ġm is
Ġme hr
Ðµ Ñī
Ð½ÑĭÐ¼ Ð¸
± c
it i
k eit
Ġpro p
áº± ng
Ġbe cause
Ġb u
Ġth Ã¬
Ð°ÑĤÑĮ ÑģÑı
ÐµÐ½ Ð°
Ð¾Ð³ Ð´Ð°
ci as
ter n
Ð»Ñİ Ñĩ
nd o
Ġm uy
Ġprze z
Ġth Ãłnh
l ine
Ð¾Ð± Ñĭ
Ġhá»į c
ĠL os
ĠÑį Ðº
on a
Ġinform ation
Ð Ķ
Ġb ien
Ġd urch
et s
æ Ľ
Ġo p
Ñĥ Ðº
at z
Ñī Ðµ
ÑĦ Ð¾ÑĢÐ¼
n Äħ
Ġr ic
ar ch
Ġs al
ra w
Ġs in
s a
ĠÑģ Ð¾Ð±
Ġg en
Ãº c
Ġus ed
è ³
Ġm ade
uy Ãªn
c ul
Ġna j
ÐµÐ½ Ð¸Ð¸
Ã³ r
am b
Ġm on
Ġm in
áº¡ o
Ġ ï¿½
s ze
æ¥ Ń
ĠÐ½ Ð°Ð¿
Ġy a
ãĥ Ĭ
Ð½ Ðµ
á»ĭ ch
Ð¿ÑĢ Ð°Ð²
jÄħ c
Ð¸ÑĤ ÑģÑı
Ġde velop
g er
Ġin st
Ġf am
ĠÂ ¿
ãģ ļ
Ġexper ien
ant es
Ġs im
Ġm ak
Ã¤ nd
al th
it ed
Ġqu y
Ð°Ð¶ Ð´
u er
Ð¸ Ð¿
ch i
Ð° ÑİÑī
á»ĩ n
Ġc re
ut z
ãĤ ĥ
p le
Ġprodu ct
å Ģ
Ġf oi
ãĥ ĵ
Ġse u
Ð¼ Ð¸
Ġ Å
å¸ Ĥ
d s
a Å¼
ÑĢ Ñı
Ġch ang
Ġ }
Ġ {
Ġ" :
Ð ľ
k ow
è ¿
ĠA uf
Ġ) ,
ÑĤ ÑĮ
i x
£ p
Ġs ystem
Ã´ n
ĠÃª tre
Ġhe re
no ÅĽci
ĠThe re
Ð½Ð° Ñĩ
Ġtr ans
Ġprov id
iá»ĥ m
b a
Æ¡ i
Ġv is
ĠÑģ Ð¾Ð²
Ġ ]
Ã¢ m
Ġth ink
é ł
ĠN o
ĠÐºÐ¾Ð¼ Ð¿
Ġ1 5
Ġse xo
ĠÐ¾ Ðº
nie j
w er
al ity
a ux
ãģª ãģ©
at ive
ion i
Ð¸Ðº Ð°
ħ n
Ġn ue
Ġc all
ãģ¾ ãģĽ
ÑĢ Ð°ÑĤ
Ġb el
ÐµÑĤ ÑĮ
u el
a it
ÑģÑĤÐ² Ð¾
ier en
ÑģÐº Ð°Ñı
Ġc i
ust om
ess o
ĠÄĳ i
Ġques to
ãĤ ĩ
Ġbe fore
ãĤ¤ ãĥĪ
Ð¾ Ñī
ĠÐł Ð¾ÑģÑģ
Ġbe ing
v i
Ð² Ð¾Ð´
ĠÐ· Ð°Ð¿
iá»ģ n
çī ©
çĲ Ĩ
Ġ $
ĠÐ± Ð¾Ð»ÑĮÑĪ
ar ios
Ġsh ow
Ã© d
ãģĹ ãģĦ
Ġha nd
Ġb es
b b
E S
Ġdo es
ĠÑģ ÐµÑĢ
Ġn Æ°á»Ľc
Ġc os
u je
Ġwe e
ĠÐ ¯
Ġv ocÃª
or k
h men
ĠÑĤ Ð¾Ð»ÑĮÐºÐ¾
Ġdi d
ÐµÑĢ Ð°
ĠÐ² Ð¾
ra nd
v en
O M
è »
áº¯ t
Ð¾Ð» Ð¾Ð³
Ġå ®
Ġth ose
ĠÐ´ ÐµÐ»
ĠP ara
g un
Ġes s
Ã¡ y
lic hen
ot her
d y
Ð³ Ð°Ð½
p s
ãĥ »
Ġli fe
Ġc or
ĠP er
u ally
áº¡ t
inh a
Ġc ette
ĠF r
ent ly
Ġal t
zz o
Ġto do
h a
A R
j a
b t
Ð¸Ðº Ð¸
ou ve
ÑĢ Ð°Ð²
Ġwor ld
Ġa i
Ġt iáº¿
Ġm as
ÐµÐ½ Ð½Ð¾
ÑĤ Ð¾Ð¼
Ġb is
ÃŃ as
áº© m
ĠÐ¿Ð¾Ð» ÑĥÑĩ
Ġf l
ĠÐ¸Ð½ ÑĤÐµÑĢ
Ġn um
Ġo raz
éĩ ĳ
Ð° ÐµÐ¼
Ð¸Ð¼ Ð¸
ÑģÑĤ ÑĮ
l ia
O S
ÑĥÐ»ÑĮ ÑĤ
Ġf il
ĠÐ¶ Ðµ
Ġs áº£n
b al
ied z
ul l
ĠP ar
Ð» Ð°ÑģÑĤ
Ã Ĭ
y t
Ġg ut
ic her
Ġcomp le
Ġnel la
iv es
á»ģ n
Ġå ħ
Ð¾Ð² Ð¾ÑĢ
Ġde c
f en
Ġe as
ambi Ã©n
Ġ0 9
Ġe ach
Ġal le
é £
ÑĢ Ð°Ð¼
Ġt Ã´i
l Ã¤
Ġch ÃŃnh
áº¥ n
g t
ĠÃ© ta
é Ŀ
s p
ÅĤ ad
ãĥ Ķ
Ġpr im
al t
o ng
ãģ¾ãģĽ ãĤĵ
ĠÑĢ ÑĥÐ±
ĠÐ¿ÑĢ Ð¾Ð²
Ì Ģ
d a
Ġqu an
Ġm es
Ġn uest
g el
Ġ ï¿½ï¿½
st en
Ġx u
è¨ Ģ
Ð¸ ÑĢÑĥ
åŃ Ĳ
Ð»Ð¸ Ñĩ
á»Ļ c
ãĥ¼ãĥ ī
E N
Ð¾ÑĤ Ð¾Ð²
ĠB ut
ÐµÐ½ Ñĭ
l er
Ġv o
ÐµÐ½ Ð¸Ð¹
Ġs et
id os
áº« n
Ġar t
ion es
Ġ [
ent os
Ġnh Ã¢n
Ġm em
ĠÐĿ Ð°
Ġhá» £p
ĠÐ»Ñİ Ð±
Ġre m
ãĥ¼ãĥ ł
Ã³ ÅĤ
Ð¸ ÑĪ
Ġfa it
Ð°Ð½ Ð´
Ð Ľ
scha ft
è ī
Ġf ree
Ã¡ ri
ĠN am
Ġc ur
ÑıÑĤ ÑĮ
ãĤĮ ãĤĭ
ä½ ¿
Ġen d
ĠkÃ¶n nen
ĠÐŀ ÑĤ
Ġk o
åı ĸ
r ie
Ġres p
Ġw ur
ĠV or
ãĥ³ãĥ ī
Ð¼ ÐµÑĢ
Ġag ain
ĠÐ¡ ÑĤ
ĠÐŀ Ð±
Ġh Æ¡n
s che
ĠÐĴ Ñĭ
Ġbo ok
n er
st ell
C I
Æ° a
at en
u ro
ç ¨
w ay
w y
ÐµÐ¼ Ñĥ
ĠÄĳá»ĭ nh
ĠO n
Ġpro f
Ãª me
Ġon t
åī į
ĠÐ¿ Ð¾Ð²
Ġs Äħ
åĭ ķ
Ðµ ÑĨ
ĠÐ² Ð½
Ġ20 0
ci p
idad es
Ġn as
Ġc le
ĠÐļ Ð°Ðº
Ġsupp ort
åĨ Ĩ
ãģ¨ æĢĿ
Ġcom me
Ġpro cess
Ġ =
Ġs inh
ĠÑĥ Ð´
Ġad v
Ġess ere
Ġest Ã¡
Ð¿Ð» Ð°ÑĤ
a ir
ĠÑģÑĢ ÐµÐ´
áº£ ng
Ġte ch
ous e
iv a
b r
ĠÐ½Ð° ÑĪ
ot os
Ġngh iá»ĩ
Ð¾ÑģÑĤ ÑĮ
Ġwh ile
Ġm i
Ġse m
Ġfa ire
ĠD es
Ġc ustom
æ ´
i f
ãĥķ ãĤ
he d
è £
ĠÄĳá» ģ
ĠÐ½Ð° Ñĩ
Ð¸ Ð¾Ð½
Ġsu b
ä½ ĵ
ers ch
ĠÐ¸ Ñħ
ĠÐ±ÑĥÐ´ ÐµÑĤ
Ġm ad
iv ing
Ġn uo
ion al
Ġm ol
z Äħ
j or
á»¥ c
u es
Ġkh o
in es
Ì £
Ġk on
Ġm Ã¬nh
at os
Ġoff er
am iento
ĠÐ± Ð¾Ð»
Ġc ao
ĠV iá»ĩt
at to
ãĤ¹ ãĥĪ
al k
ÐµÑģ ÑĮ
ãĥĥ ãĥĹ
Ġé Ģ
Ġle ad
Ġa round
re ct
ãĥ į
b ie
Ġz ÅĤ
ĠÑĩ Ð°ÑģÑĤ
d ad
el e
ĠÐº Ð¾Ð»
ĠUn ter
ar n
Ġs Ã£o
at her
Ġc are
ĠÃ© c
Ð°Ð¹ Ð½
Ġå Ĳ
Ġcomm un
Ġ Ã£
om men
ien do
uy á»
Ġav ail
x x
ol ut
ãĤ ±
Ġre ally
ç ·
çĽ ®
ä» ĺ
ÐµÐº Ñģ
ãģł ãģĳ
ies z
ĠdÃ© c
á»ĳ t
s ki
ĠÄĳá»ĵ ng
é «ĺ
la nd
ÑĤ Ð¾Ð±Ñĭ
as on
åĽ ½
ÄĻ p
Ð» ÐµÐ½Ð¸Ðµ
amb Ã©m
em os
Ġpro gra
Ġt ym
Ġpel o
Ãº n
ro l
ç¤ ¾
l os
Ġla v
ch o
Ġdiffer ent
Ġn Ãªn
ĠÐº Ð»
ĠSe xo
Ġpla ce
s ka
Ġ1 3
Ðº Ð¾Ð¹
Ð² ÐµÑĢ
Ġc ou
A N
Ġ1 8
ĠThe y
Ã¤ l
Ġtra baj
Ġï¼ Ł
Ġmá» Ľi
Ġfa z
Ð¸ Ð½Ñĭ
Ġu 04
Ġa le
ĠãĤ ·
á»ĳ n
ĠM e
A S
éĥ ¨
oll ow
Ġch ild
Ġthe o
Ġse g
Ġh ay
Ġ1 4
at ch
åĽ ŀ
ĠÐ³Ð¾Ð´ Ð°
ĠÐ³ ÑĢ
Ġc Ã²n
re is
æ ¸
ç «
Ġc Ã¡ch
es z
Ð¾Ð²Ð°Ð½ Ð¸Ñı
o is
Ġ ãģ¾
el la
Ġãĥ ķ
iá»ĥ n
y w
ĠÂ ¹
b o
ĠM ad
Ġmo Å¼
owan ie
Ġth áº¿
ĠktÃ³ re
t t
Ġte am
ÐµÐ¶ Ð´
ĠNe w
che r
Ġde p
âĢ Ŀ
Æ°á» Ł
ĠP o
ĠÃ ´
Ð £
ow ych
çĻ º
Ð¾Ñģ ÑĮ
le ase
Ġem p
ãģª ãģı
ÐµÐ» ÐµÐ¹
Ġdes de
en e
ĠT o
w w
ĠÐ¿ÑĢÐ¾ Ð¸Ð·
Ġd r
Ðº ÑĢ
æ Ĭ
iá»ĥ u
Ġs á»Ń
Ġpu b
ÑĥÐ¿ Ð¸ÑĤÑĮ
Ġan n
Ġf ound
cy j
ied er
Ġfor m
é ļ
Ġh im
Ġd á»±
Ġs om
Ġn i
Ġl l
et ti
i or
åŃ ¦
w ays
Ġz e
æ Į
ãĥ Ģ
ĠÐ° Ð½
éĢ ļ
Ð» ÑĮ
Ġb ÄĻ
Ġpued e
Ġimp ort
ÃŃ s
Ð» Ð°Ð³
Ġp ost
p ow
Ġus ing
Ġf un
ĠPor no
v es
Ð² Ð»Ñı
ĠÃ© tÃ©
ce pt
Ġprz ed
Ã¨ me
è ĥ
ãģ§ãģĻ ãģĮ
ĠP our
o res
Ġc Æ¡
Ã Ĵ
Ġs au
Ġtr Æ°á»Ŀng
ĠÐ´ ÐµÑĤ
Ġwe it
im ento
t z
ķ ·
Ð± Ð¾ÑĢ
we en
æ µ
Ġ1 6
ĠÐ ¨
is se
ä ¹
g ar
Ġs ame
ĠÂ ¡Â
Ġb oth
ĠÐ¿ Ð¾Ð·
Ġfe el
ie le
Æ°á»Ł ng
ĠÐº Ð¾ÑĢ
Ġlas t
szy st
Ġs ig
Ġtr Ã¨s
ç §
2 0
Ġr en
ãĤĮ ãģ¦
Ġthá» Ŀi
ĠGr atis
Ġ +
áº¿ u
il la
ÐµÐ» Ð¾Ð²
Ġmu ito
Ġserv ice
ĠÐ ¦
Ĥ ¬
ĠÐ¼ ÐµÑģÑĤ
ĠB er
Ã ĭ
m in
Ġl ar
ĠW ir
áº¡ nh
Ġ ut
Ġg u
Ġto p
Ð¼ Ð¾Ð¶
Ġr áº¥t
Ġ" ,
Ã Ģ
ĠS h
hr en
cj e
Ġgi or
Ġth Ã´ng
ĠÐ¼ Ñĭ
ç Ł
Ġthá» ±c
ĠãĤ ³
ĠÐ¼ ÐµÐ½
ÑĥÑİ Ñī
á»© ng
Ã´ t
Ġqu al
o ÅĽci
ĠWh at
Ġbe c
Ġa Ã±os
æ §
Ġst ill
ĠÐ´ Ð¾Ð¼
ĠA d
Ġv al
ĠÐ» ÐµÑĤ
Ġg es
u Å¼
ĠM ar
a ire
a uf
Ġk om
und en
p l
Ġâ Ĥ¬
Ġavail able
Ġv ol
Ð½ ÐµÐ¹
Ã ĸ
z i
ãĤ º
Ġm Ãªme
ĠI ch
Ð¸ ÑģÐº
Ã Ķ
Ð¸ Ð¶
Ġst r
ĠA b
æ İ
Ġth ough
ur as
ĠÐ¿ Ð¾ÑģÑĤ
Ġthá» ©
Ġp om
Ġbet ween
Ġh Ã¬nh
Ġt ou
ag es
Ñĥ Ð·
æ ŀ
ÑĨÐ¸ Ð°Ð»ÑĮ
Ð¾Ð± ÑĢ
ĠÐ¼ Ð°ÑĤ
ãĥ ¯
Ġt ambÃ©m
c el
Ġn ost
: :
ĠW o
ĠÄĳ iá»ģu
etz t
ĠÑĤ ÐµÐ¼
Ġs oll
åº ¦
Ġå ı
ãĥ Ŀ
al is
Ð¸Ð» Ð°
ãĢ Ĳ
owe j
1 0
ide o
æ ĥ
id er
Ġl u
re ad
ĠÐ¿ÑĢ Ð¾ÑģÑĤ
el d
Ġcu i
ci os
l ess
ĠÐ¾Ð± ÑĬ
ÐµÐ¹ ÑģÑĤÐ²
il is
Ġo pt
ä¸ ĭ
ĠC OM
ĠÐ¾ÑĢ Ð³Ð°Ð½
ĠEs p
Ġpel a
ï ¾
Ġw enn
Ġlo ve
Ġl ot
Ġt ambiÃ©n
ĠÂ £Â¬
ÑĤ Ð¸
Ġp ol
ĠãĤ «
Ð¸Ð· Ð½
ãģ ¹
ra ct
Ġr un
Ġw ww
Ġb lo
ĠÐ²ÑĢÐµÐ¼ Ñı
å ķ
Ñģ ÑĮ
ĠÐ¸ÑģÐ¿ Ð¾Ð»ÑĮÐ·
ĠW y
Ġse mp
Ġt an
Ð¸ÑĤÑĮ ÑģÑı
Ġt ro
Ġmark et
ãĤĤ ãģ®
v iew
á»ķ i
ze it
ra g
Ġgen er
ĠÐµ ÑģÐ»Ð¸
ri b
in ing
Ġha cer
ãĥ ¢
Ġto o
Ġb ar
Ġä» Ĭ
at ure
Ġpro ject
Ġgo ing
Ġpar te
ĠÑĥ ÑģÑĤ
Ġk á»
ĠÐļ ÑĢ
ãĤĬ ãģ¾ãģĻ
p r
Ġc al
æ ¯
ÃŃ t
Ġãģ Ĥ
Ġbe z
O R
ÐµÑĢ Ð¸
ĠÑĥ ÑģÐ»
Ġcomp any
Ð¸Ñģ ÑĮ
ĠN ach
Ġs es
ĠÑĩ ÐµÑĢ
s k
ĠÐ¾Ð± ÑĢÐ°Ð·
he it
agg io
Ġt in
Ñĥ Ð³
und o
Ġke ep
uy á»ĩn
ĠÃ© t
ĠÐ¿ÐµÑĢ Ð²
om b
Ġ ide
Ġwee k
Ġtien e
ot el
ter s
Ġme jor
ĠÂ ½
W W
a ve
ĠãĤ µ
f ahr
om o
Ġapp ro
æĦ Ł
ĠW hen
Ġl ub
k on
r id
åĨ ħ
ĠÑĤÐ°Ðº Ð¶Ðµ
j ÄĻ
Ġd ata
ĠN ie
Ġæ Ĺ¥
Ġrequ ire
Ġp at
ÑĥÑī ÐµÑģÑĤÐ²
z o
Ġen c
æ ı
ĠH er
Ġspe ci
b ar
è ¾
áº¡ ng
ta ct
ãģ¾ ãģ§
Ġm ain
r ic
Ġp are
è ĩª
Ã© g
Ġsm all
ÐµÑĤ Ð°
Ġel e
ĠÃ º
os ten
ãģĹ ãģ¾ãģĻ
Ġat t
Ð» ÐµÐ´
Ġc ent
Ġse hr
Ġf ue
æ ±
ĠÐ· Ð°Ð²
Ð¾Ð½ ÑĤ
Ġw iÄĻ
Ġmon th
ici Ã³n
ĠÐ½ Ð°Ð·
Ġexperien ce
ĠÐ¼ Ð¸Ð½
itt le
Ġdis c
Ġb uen
Ġel le
Ġw ater
Ġf ollow
Ãª u
Ð¼ Ð°
Ġhe alth
in en
ĠÂ ³
á»į n
is te
Ð°Ð½ Ð¸Ð¸
Ġc our
Ñĥ ÐµÑĤ
ĠÑģ Ð°Ð¹ÑĤ
ÑĥÑĩ ÑĪ
Ġv iel
olo g
ĠÑĤ ÐµÑħ
Ġ0 0
ĠÐºÐ¾ÑĤÐ¾ÑĢ ÑĭÐµ
ĠP ol
Ġt a
f ect
Ġ1 7
an za
ig er
Ġha pp
ĠÐ¿ÑĢ Ð¸Ð½
Ð ĵ
an as
ĀĀĀĀĀĀĀĀ ĀĀĀĀĀĀĀĀ
Ġm en
Ã ®
olo gy
Ġg io
Ð ĳ
Ġp a
l ing
owa Äĩ
ÑĨ Ð°
si ble
d ay
á» £
ĠÐ³ Ð¾ÑĢÐ¾Ð´
Ġbu ild
ÃŁ en
ãĤĩ ãģĨ
Ġd ann
Ġv iÃªn
Ġinclud ing
ĠÐ½ Ð°Ð´
ĠL as
Ġaus si
ĠÐµ ÑģÑĤÑĮ
Ð°ÑĤ Ð¾ÑĢ
k Ã³w
er os
Ġkh Ã¡ch
ĠâĢ ¦
Ġs ou
Ġpe ut
ãģĵãģ¨ ãģĮ
Ã Ĥ
A L
ip o
ÃŁ e
os ta
ãĥ Ļ
owan ia
ĠÐŁ Ð¾
Ġ *
Ð¼ Ð¾ÑĤÑĢ
ĠÐ´ Ð°Ð½
Ġl Ã½
Ġop en
.. ..
ãĥ© ãĤ¤
Ġg rand
m t
m as
Ġvá» ¥
Ġfe w
ĠP l
ĠÐ² ÐµÑĢ
Ġtod os
et ta
ĠÑĤ ÐµÐ»
Ð° ÑĨÐ¸Ñı
Ġpod e
ind a
Ġqu a
Ð¸ ÐµÐ¼
Ġcu ando
ÃŃ n
ĠÃł s
Ġc Ã¹ng
Ã ĥ
Ġp esso
Ġæ ĸ
æĿ ¥
ĠÐ¿ Ð¾ÑĤ
ç Ń
Ã ģ
z u
ĠnhÆ° ng
Ġtra bal
Ġcol le
æ Ķ
åľ °
ĠÑĩ ÑĤÐ¾Ð±Ñĭ
ar on
Ð¸Ð½ Ð³
ale ment
ĠÐ´ Ð¾ÑģÑĤ
T I
åº Ĺ
Ġs ol
ie m
ĠÐ¸ Ð³ÑĢ
ĠÂ ¼
ĠÑĢ ÐµÐ³
ĠÐ½ ÐµÐ´
Ġph áº©m
è Ń
Ġor gan
Ġc áº¥p
Ã¶ g
ãģ¨ ãģĹãģ¦
âĢ ¦
ÑĨÐ¸ Ñİ
ĠE x
Ð» ÐµÐºÑĤ
Ã¤ hr
Ð¼ ÐµÐ½
ĠJ ahr
ĠÑĥ Ð¶Ðµ
ĠW WW
ig li
i u
å¯ ¾
ĠE t
Ġc ount
Ġfr ien
u is
Ġinter est
ti v
al ia
å® ī
ell es
owe ver
n ess
Ġall ow
or ia
Ġm ujeres
ĠÐ± ÐµÑģ
Ã ı
ï¼ Ĳ
Ġp ay
ado res
Ġb er
ĠÑĩ ÐµÐ»Ð¾Ð²
Ġal ways
Ġsu re
ot to
Ġserv ices
Ġ0 7
Ġs am
Ã¤ r
ãģĹ ãģ¾
áº¥ u
ï¼ ĳ
Ã© c
ie mp
th ing
ĠÐ¾Ñĩ ÐµÐ½ÑĮ
ĠÐ½ ÑĥÐ¶
Ð°Ñģ ÑĮ
Ġde gli
Ð¾Ð½ Ð°
á» «
Ġtr Ã¬nh
Ġre st
Ġb on
Ġex c
in as
ig ne
i zione
ĠÄĳ ang
Ġeff ect
o g
ĠÐ´Ð¾Ð» Ð¶
Ġan ni
Ġnum ber
o ch
æĸ °
Ġh Ãłnh
ĠnÃ³ i
Ġj Ã¡
Ġï½ ŀ
id as
Ð¸ÑģÑĤ ÐµÐ¼
itÃ© s
ĠF ra
ĠÐ¿ Ð°ÑĢ
ist s
Ġãĥ ¬
èĥ ½
Ġth ings
Ġprov ide
Ġst and
ĠÂ ±
w ar
ÑĢÑĥ Ð´
ĠW ith
Ġth ree
ãĥ¼ãĤ ¸
j et
Ã©r ie
as h
Ġdal la
åı ¯
Ġle vel
el h
Ġc ost
Ġl Ãªn
å¾ Į
ä¸ į
_ _
åĬ Ľ
it u
Ġs ans
Ð°Ñĩ ÐµÑģÑĤÐ²
Ġãĥ ĸ
Ġle ur
Ã¡ri os
ĠÐ² Ð·
Ġwith out
Ġb iáº¿t
Ġw szyst
Ġd uring
Ġfam ily
á»ĵ i
Ġe ar
ÐµÐ½ Ð´
h ne
Ġo ld
Ġc er
b st
it z
ãģĭ ãģ£ãģŁ
ĠÐ¾Ð± Ñī
om bre
ĠÐ° ÑĢ
i an
st and
Ã Ī
å¤ ļ
Ġr u
ãģ »
it as
Ġkh Ã¡c
ch a
Ġde f
ĠÐ ĸ
Ġch Ãºng
Ġph Ã¡t
Ġl ittle
Ġsch ool
Ġre ce
ç ©
Ġå¤ §
Ġper form
Ġl Æ°á»£ng
el n
á»ĩ nh
ãģŁ ãĤģ
ĠG es
å£ ²
b ers
ĠO ur
m al
ros s
è¦ ģ
6 6
- -
ur al
Ġbet ter
ar ia
ell en
Ġimport ant
Ġde ux
Ġdz ie
Ã³ ng
Ġb ased
ĠB ras
ĠÐ¼ ÐµÑĤ
Ġo k
at ori
Ġh ier
Ġm ust
ĠÐ½Ð° Ñģ
in ed
b l
ãģĹ ãĤĩãģĨ
Ġhas ta
Ġis s
áº¯ n
Ġne ces
ĠrÃ© s
ãģŁ ãģĦ
á»ĵ ng
ãģ® ãģ¯
Ġw p
ĠÂ» .
Ã© t
ic ally
ru ct
ãģ ³
ĠÐ¿ÑĢ Ð¾Ð³
Ġc ap
Ð¾Ð² Ð°ÑĢ
Ġpe u
ĠAl l
é ħ
ĠÃ Ķ
áº£ m
ĠG i
en do
ĠÐ¾Ð± Ð»Ð°ÑģÑĤ
ot o
Ð°ÑĤ Ð°
d ade
Ð°Ð» Ð¸Ð·
ĠS an
am y
Ġn Ãło
Ġa nh
Ġh anno
Ġc áº§n
ĠÐĿ Ð¾Ð²
w ert
lo y
Ġm Ã¡y
Ġb l
Ġtut ti
re en
ãĤĮ ãģ°
ĠSp iel
ĠÑĢ Ðµ
å½ ĵ
ali zz
Ġch i
Ġfa ct
Ã ĩ
Ã »
ĠÐĺ Ð½
Ġn Äĥng
age m
ãĥ§ ãĥ³
Ġs ay
ĠV ideos
ĠÑģÑĤ ÑĢÐ°Ð½
ĠÐ²Ñĭ Ð¿
Ġor der
ÐµÐ½Ð¸ Ñİ
g os
Ð°ÑİÑĤ ÑģÑı
ĠprÃ© s
che s
Ġcu al
Ġp ot
ÐºÐ° Ñĩ
el li
ti k
ĠÄĳ Ã¢y
Ġsch on
Ġcon f
ĠÑģ Ñĩ
Ġwur de
ta il
© Ł
ÑĢÑĥ Ð¿
Ġw on
ar Ã¡
ĠZ eit
Ġlá» Ľ
Ñĥ ÑģÑĤ
c ing
Ġtr Æ°á»Ľc
Ð°ÑĤ Ñĭ
Ġt Æ°
Ð¾Ð± Ñī
Ġw rit
m an
ãģ Ĵ
Ñı Ð²
Ġw ieder
ie ld
æ³ ķ
od y
ut e
Ġs l
Ġj our
Ã³ a
ĠÐ¿ÑĢ Ð¸Ð¼
Ġqu est
ĠÑįÑĤ Ð¾Ð¼
Ġd ist
ĠÐ¼ Ð¾Ð³
Ġst ate
us z
ĠãĤ ª
iÃª u
ĠÐ¿ Ð¾ÑĢ
che d
end re
ĠA m
ÑĢÐ° ÑĦ
ÑģÐº Ð¸Ðµ
Ġcl ass
b ile
ĠR o
Ã¼ s
ĠD ies
ĠÐ°Ð² ÑĤÐ¾Ð¼
ici o
ãĢ Į
ato re
ĠÑĢ ÐµÑĪ
Ġper s
s elf
Ġon line
ĠÃ ½
ost it
i as
Ġpro per
Ð»Ð¸ Ð²
ĠÑģ ÐµÐ±
å® Ł
owe go
ĠÐľ Ð¾ÑģÐº
y ing
ãģª ãĤĵ
Ġdi rect
Ġv om
ud o
Ġcz as
Ġnh áºŃn
t on
it al
eth ing
Ġh an
ĠÃ ī
Ġdi a
ãģķ ãģĦ
ĠÂ ´
Ġx e
ĠdÃ© p
Ġo g
Ġ >
d ed
Ġs olo
ĠÂ ·
Ġin t
Ð» ÐµÐ¼
ãĥ Ħ
ÑĥÑĢ Ñģ
Ġne xt
Ġare a
Ð½ Ð°Ðº
Ð¾Ð· Ð´
Ġa ble
Ġtra va
ĠS he
ĠÐ¿ Ð¾Ð½
ion n
Ġt iemp
æ Ł
Ġqu ality
Ġat Ã©
ach t
Ġpro ble
Ġp et
at s
un t
åł ±
ĠÐ¢ Ð°Ðº
ÑĮ Ñİ
Ġprogra m
çĦ¡ æĸĻ
Ġcon o
Ġz ak
ãģĪ ãĤĭ
Ãª s
Ġg rou
Ġcont in
Ð ¤
Ð½Ð¸Ðº Ð¾Ð²
Ġza p
ect ed
aj e
Ġim mer
Ġp ower
ĠÂ» ,
p or
Ġz d
Ġnghiá»ĩ p
ĠÂ µ
ĠÑı Ð²Ð»Ñı
çĶ »
iv os
ĠÐ¼ Ð°Ð³
ãĥĩ ãĤ£
Ġl ight
or zy
Ġ201 7
ĠÐ² Ð¾Ð´
ãĤ¹ ãĤ¿
ĠH a
Ġch áº¥t
w are
ÑħÐ¾Ð´ Ð¸Ð¼
c on
è ģ
ãģ ¸
éĸ ¢
i Äĩ
Ġm áº·t
Ð¾Ð² Ð°ÑĤÑĮ
Ġesp e
Ġt ous
Ð¾Ð¿ÑĢ Ð¾Ñģ
acion al
Ġ2 5
at ti
ãĤ ¬
ostit utas
ud ad
Ġin f
ĠÐ¾ÑĢÐ³Ð°Ð½ Ð¸Ð·
Ġe u
ĠA t
Ġwith in
Ġcom un
ĠA mer
Ġo pp
ÃŃ vel
Ġb á»Ļ
t es
Ð½ ÐµÑĤ
ĠÐ´ ÐµÐ½ÑĮ
ĠÐŁ Ð¾Ð´
is hed
Ġg ive
Ġp ut
ĠÐ±Ñĭ Ð»Ð¾
Ġj o
ent ion
áº¡ ch
Ġf ull
at y
ĠÑĢÐ°Ð· Ð²
Ġwe bs
Ġblo ck
Ġb ig
Ġpo z
ĠÐ· Ð´
Ġtá» ±
l ko
ĠÐ²Ð¾Ð· Ð¼Ð¾Ð¶
Ð¾ÑĢ Ð¾ÑĪ
Ġsom ething
è ¶
ä¾ ¡
Ġ3 0
Ð½Ð¸Ðº Ð¸
Ġacc ess
ãģ« ãĤĪ
áºŃ y
jÄħ ce
á»¯ a
Ġinc re
Ġse x
ĠÐķ ÑģÐ»Ð¸
Ñĥ Ð»Ñı
Ġs wo
Ġl ist
ãĥ Ľ
ĠÑĩÐµÐ»Ð¾Ð² ÐµÐº
ĠÑģÐ» ÑĥÑĩ
ĠÐ±Ñĭ ÑĤÑĮ
å¤ ĸ
cc ess
g r
ÑİÑĤ ÑģÑı
Ġxu áº¥t
c as
Ġtech n
el s
ä» £
ĠÐ²Ñĭ Ñģ
æķ °
ãĤĵ ãģª
ĠÑĦ Ð¾ÑĢÐ¼
an Ã§a
è ¼
an Ã§
ç ¶
ĠÐ· Ð°Ð´
Ġte go
æĪ Ĳ
ĠI s
dz o
Ġl ie
k en
Ġ Ã¡
Ġdon de
ÃŃ cul
Ġm ight
ĠÐ±Ð¾Ð» ÐµÐµ
æ ²
ç Ĥ
Ð¼ ÐµÐ½ÑĤ
Ġut ilis
os z
at ely
t to
Ġh ard
Ġãĥ Ĳ
ĠÐĴ Ñģ
Ðµ ÑĦ
ĠÑĢ ÐµÐ·
A D
ver e
i Ã§Ã£o
Ġrep ort
Ġw o
Ãº t
ĠI m
ä¿ Ŀ
Ġcur r
åĲ į
Ġ0 00
è Ĥ
éĸ ĭ
æī Ģ
Ġv Ã¬
å® ¶
ĠÐ¼ Ð½
ãģĹãģ¦ ãģĦãĤĭ
Ġk inh
è¨ Ī
hl en
Ġdu e
il itÃł
Ġan other
ar se
le ich
ul o
ãģĤãĤĬ ãģ¾ãģĻ
æľ Ģ
ĠÐ¿ÑĢ Ð¸Ð²
åħ ¨
ĠÐº Ð²
ĠC o
Ġ2 2
Ġa ff
ĠÐ¿ÑĢÐµÐ´ ÑģÑĤÐ°Ð²
Ã¤ ng
Ġv ia
ĠÑģ Ð¸ÑģÑĤÐµÐ¼
Ġal gun
Ġi hr
á»į i
ãģª ãĤī
Ð¸Ð½ Ðµ
Ġgi bt
Ġ2 1
ĠB ar
å¥ ³
en a
gg io
Ġsec ond
á» Ĺ
owan e
m bre
u c
Ġâ Ĺ
áº¹ p
ĠÐ· Ð°Ð¼
çľ Į
Ġm us
ate ur
Ġc es
æ§ ĺ
one y
Ñı Ð´
ĠI nd
Ã¨ res
Ð¾Ð² Ð°
Ġd Ã¢n
ĠãģĿ ãĤĮ
Ġdis p
Ãª m
ĠÐ¾ ÑģÑĤ
Ðº Ð°Ð·
Ġãĥ ŀ
enti al
Ð¾Ð± ÑħÐ¾Ð´Ð¸Ð¼
Ġgi an
st er
a ut
Ġpers onn
ĠÑģÐ» ÐµÐ´
iz i
ÅĽ cie
ÅĤ Äħ
ãģ« ãģ¤
Ġg row
ĠO r
ÑģÐº Ð¸Ñħ
Æ°á»Ľ ng
Ġen g
h nen
ĠÐº Ð°ÑĩÐµÑģÑĤÐ²
b be
ĠÄĳ iá»ĥm
7 9
Ð¸ Ð½Ð¾
Ġha be
Ġo per
Ġre f
kt ion
Ð¿ÑĢ ÐµÐ´
ÑĤ ÑĢ
Ġpr ima
im mer
ãģ§ãģį ãĤĭ
ĠÐ¿ÑĢÐ¾Ð¸Ð· Ð²Ð¾Ð´
Ð°Ð¶ Ðµ
ort un
am es
ĠC hr
ind er
Ġro om
Ġc am
Ã ĵ
Æ Ĵ
ĠÃ ľ
Ġris p
f l
ÑĮ Ñı
ĠÐ¾ Ð½Ð¸
Ġl et
Ġst e
ĠÐ¿ÑĢÐ¾ ÑĨ
Ðº ÑĢÐ°
ĠU m
Ġdies e
ver n
ÐµÑģ Ð¿
Ġs ite
ment o
Ð» Ð°Ð¹Ð½
st aw
an c
ãģĪ ãģ¦
éĢ ģ
Ġve z
ĠDe ut
ÑĤ Ðµ
eit e
ist as
ãĢ ħ
Ð Ĺ
Ġb áº±ng
ĠÑĥ Ð²
Ð¼ Ñĭ
Ð¾Ð² Ð¾Ð¹
iv i
rz ed
ÅĤ ug
Ã ķ
ĠC as
Ġre t
ĠÑĩ ÐµÐ¼
Ġç Ķ
Ġk áº¿t
ĠâĢ ĺ
Ġthá» ĭ
ĠÐĿ Ð¾
Ġan os
Ġe qu
ÐµÐ½ Ð½ÑĭÑħ
ĠK om
Ã į
ÑģÑĤ ÑĢÑĥ
Ġa qu
c ol
Ãº p
Ġt Ã¢m
Ġpas s
I N
ÐµÑĤ Ñĭ
è¨ ĺ
ç ¾
Ġdi re
Ġth áº¥y
Ð· ÑĭÐ²
Ġmol to
Ġprof ess
ig o
Ġques ta
Ġqu el
áº£ nh
Ġg Ã¬
Ġch á»§
ĠP r
ĠJ o
an os
Ġz na
k te
Ġto Ãłn
es te
Ġty lko
æľ Ł
Ġph Ã²ng
Ġm ir
ĠK on
Ð¾Ð½ Ð¾Ð¼
U R
Ð°ÑĢ Ð¸
Ġsin ce
Ġab b
lo ad
ãģĦ ãģĦ
Ġt áº¿
Ã İ
ĠTh at
Ġm et
ĠÐĲ Ð½
ĠÑģ Ð´ÐµÐ»
ĠÐ¸Ð¼ Ðµ
Ġtiemp o
ig t
é ķ·
Ġt á»ĳt
on i
Ġd ays
Ġu04 3
Ġh iá»ĩu
p ie
Ġnot re
åĮ ĸ
áº¯ ng
Ġinv est
ãģ« ãĤĤ
ĠÃ© v
ard s
ĠO s
w ork
Ġb áº£o
ar beit
ä» ¥
Ġãĥ ¡
Ð¸Ñı ÑĤ
Ð°Ð½ Ñģ
Ġv os
ĠFr ance
a ires
Ġc ada
b ot
are d
Ġg ame
ĠÄĳ á»ĳi
ĠÐ¿ Ð¾Ð¿
Ġlook ing
iej s
a z
Ġâ Ħ
v ol
Ġj ue
Ġmo Å¼e
g es
Ġtiáº¿ p
Ġpor que
Ġwork ing
is mo
ĠãĤ ¯
Ġt Ã¡c
Ġhe ad
o ve
Ġadd ition
ãģ£ãģ¦ ãģĦãĤĭ
ig keit
Ġt est
Ġ2 3
ici os
Ġcons ider
ĠS ta
è© ±
is ion
ĠÐ¿ÑĢ Ð¾ÑĤ
Ð¾Ñģ Ð¾Ð±
Ġvis it
Ġh á»Ļi
Ġng o
çŁ ¥
c un
Ġw sp
iem bre
ti que
ta re
ĠB o
ĠÄĳ Æ°á»Ŀng
Ġth iáº¿t
ĠÑĤ ÐµÑĢ
ĠC l
ãĥ¼ãĤ º
Ã§ os
Ġne ver
ı ¾
Ġ Å¼y
Ġmes mo
ĠÐ¸ Ð³
ĠE m
ÑĢÑĥ Ð·
im e
ĠÐ½Ðµ Ð¾Ð±ÑħÐ¾Ð´Ð¸Ð¼
Ġtá» ķ
è Ī
ĠÐµ ÑīÐµ
Ġcont rol
Ġmak ing
ãĥ ı
ĠÐłÐ¾ÑģÑģ Ð¸Ð¸
Ġw in
Ġb ro
ĠÂ ¸
ĠF e
Ð» Ð¾Ð¶
Ġc áº§u
å Ł
ä½ ķ
ad t
ãĥª ãĥ¼
ĠÐ± ÑĢ
Ġgr an
u it
Ġlo áº¡i
ur g
un to
i ver
Ġan s
Ġa h
Ġt Ã¬nh
ĠÂ ¾
å¼ ı
ĠãĤ ¤
ç« ĭ
Ð² ÐµÑģÑĤ
Ġbe m
ãĥ İ
Ġf ar
Ñı Ð±
Ġre se
r Ã¨s
ãĤĮ ãģŁ
ĠÑĤ Ð¾Ð¼
Ġv iew
Ġde v
ĠS car
Ġb re
ĠS i
Ġper m
æ Ĺ
Ġpro d
ĠÂ ¶
Ġç §
Ã³ b
ve is
ĠD o
ur ante
á»Ń a
Ġ ãģ®
il idad
Ġb Ã¡n
Ġvá» ĭ
áº¡ c
Ġge w
Ġpra ct
Ð°Ð½ Ð°
ĠÐ¿Ð¾Ñģ Ð»Ðµ
t Ãł
ow ie
ĠIt alia
ĠÐ¸ ÑģÑĤ
Ġn ay
Ġ201 6
Ġsul la
ne ment
èĢ ĥ
Ġis so
Ġt iá»ģn
ãĤ ½
ro om
ĠÑĤ Ð¾Ð³Ð¾
op e
l ie
c ent
y n
cc o
T A
ĠâĦ ĸ
ĠÂ ²
te il
é£ Ł
l t
ab a
no ÅĽÄĩ
éĿ ¢
Ġa inda
Â º
Ð¾Ð¶ Ð´
ĠC ol
ĠÐĶ Ð»Ñı
Ġemp res
ÑĢ ÐµÐ´
ĠU hr
å İ
Ġæ Ŀ
f in
ĠJ a
inh o
ĠÐ° Ðº
Ġaut res
zz i
Ġact iv
Ġf ood
ĠS al
Ã± a
pp o
Ġt ÃŃnh
Ġst ato
ãģĭ ãģª
ĠÃ´ ng
Ġstud ents
Ã Ĩ
Ġs el
ĠÃ ģ
uyá» ĥn
ĠãĤ ¨
å¿ ĥ
ir on
ÐºÐ°Ñĩ Ð°ÑĤÑĮ
ĠÄĳ o
ĠÐ¿Ð¾ Ñĩ
Ġsemp re
in er
wi Äħ
ÅĤ e
T O
Ġ Þ
Ġme et
Ġg ot
ÐµÐ½Ð¸ ÐµÐ¼
g l
ĠM y
is sen
at ter
Ġinter n
æ ©Ł
Ġle g
vers ity
Ġpres ent
Ġt áº¡o
Ġha ce
Ġd ÃŃa
Ġa y
Ġg er
Ð°Ð» Ð¾
ĠÐ»Ñİ Ð´
æ ®
Ġhá» ĩ
Ġb áº£n
ĠÐŁ ÐµÑĢ
al mente
Ñĥ Ð²
Ġj uÅ¼
uch t
Ì ī
ĠÄ ĥn
Ġproduct s
Ġpu bb
ic hen
ç ¥
Ð½Ð¸Ðº Ð°
iv en
èī ¯
Ð¾Ñı Ð½
wie t
ĠÑģÑĤ Ð¾
Ġl oro
i i
Ġth Ã¡ng
Ġqu áº£
Ġtod ay
ĠÐľÐ¾ÑģÐº Ð²
Ġpr ostitutas
Ã© lÃ©
Ġche ck
Ġs ign
ĠbÄĻ dzie
ut i
Ġpro te
Ġpub lic
Ġc li
ãĥ ľ
Ð°Ð» Ð¾Ð³
ĠÐ¼ Ð¾Ð´
Ġunder stand
ff en
Ã ļ
ĠR es
ĠÑģÐ¿ Ðµ
ĠÐ¿ÐµÑĢ ÐµÐ´
le ment
Ġneed s
ÐµÐ½ Ð½ÑĭÐµ
Ġtut to
Ġles s
ain t
ĠÐº Ð°ÑĢÑĤ
è «
age ment
å¼ ķ
ĠÃ ĵ
ĠÃ Ĵ
ãĥ ļ
Ġdes p
Ġen jo
Ð¾Ñģ ÑĥÐ´
Ġc r
ow aÅĤ
ĠThe se
Ð½ ÐµÐµ
ĠÐ¾Ñģ Ð½Ð¾Ð²
on y
Ġb uy
z en
j i
get her
Ġs ia
z na
ĠW er
ĠD on
b ro
ot e
um p
Ġb as
ĠÐ½Ð° ÑģÑĤ
Ġå °
ĠÐŃ ÑĤÐ¾
ĠÑĥÑĩ Ð°ÑģÑĤ
Æ° u
im os
Ġd á»ĭch
Ġprim e
f ol
Ð¾Ð²Ð°Ð½ Ð¸Ðµ
ĠÐ² Ð¾Ð¿ÑĢÐ¾Ñģ
ä¿ ¡
g in
em s
Ġre al
ĠH ow
Ġloc al
æ´ »
Ġw z
Ġo hne
Ġf al
Ġp op
i al
ch Ã©
kie m
ĠF l
ãģ£ ãģ¨
Ġgi Ãºp
Ð³ Ð¸
Ġg l
i ble
ĠÐº Ð¾Ð³Ð´Ð°
ĠÄĳ iá»ĩn
ĠÑĤ Ñĭ
ĠU S
Ġimp ro
ĠÄĳ áº¹p
ĠG o
n ak
Ġg ro
Ĩ åĵģ
ÅĽ li
ent ro
Ġ2 4
æł ¼
Ġza w
Ġbar dzo
is a
Ġas k
Ġ0 1
ĠÑģ Ð¾ÑģÑĤÐ°Ð²
Ġchang e
Ð¾Ð» Ñı
Ġun o
ãģķãĤĮ ãģ¦
ĠÐ´ ÐµÐ¹ÑģÑĤÐ²
Ã¬ m
ĠÐ¿ÑĢ Ð¾Ð±
Ġph áº§n
ĠÐ° Ð´
qu ier
Ġwebs ite
Ð¼ Ñĥ
Â ¡Â
Ã¶g lich
ãĥ ¤
it os
ĠÃ Ĭ
ĠãĤ Ĵ
Ġas ÃŃ
ãģĿ ãģĨ
ĠC ar
ĠÐ¸Ð½ ÑĦÐ¾ÑĢÐ¼
ck en
ĠrÃ© p
ĠÐ¾Ð½ Ð»Ð°Ð¹Ð½
Ġm iejs
ie ve
Ġinc l
Ġapp lic
Ġde st
iv ed
c ont
pp ing
Ġle arn
il h
Ġind ust
ĠC u
Â »
Ġå į
Ġh tt
Ġcour se
çĶ °
ÑĢÐ° Ñī
Ġhá» ĵ
ĠH otel
Ġpr Ã³
ĠH o
Ġ id
el o
c en
ĠM a
1 2
eit o
Ġco ver
ut t
la ndo
ni ka
Ġa Ã±o
Ġpo int
ĠÐº Ð°Ð¶Ð´
ĠÑħ Ð¾ÑĢÐ¾ÑĪ
Ġev ent
ĠÐ¼Ð°Ð³ Ð°Ð·
/ /
Ġcon st
ĠÑįÑĤ Ð¾Ð³Ð¾
Ġ": "
Ġs enza
Ġtem ps
ãĤĭ ãģ¨
Ġch ar
ill ion
è² ·
ï¼ Ĵ
ĠÐ² Ðº
ãĤ Ģ
Ð½ Ð¸Ð¼
ĠÐ½ ÐµÑĤ
Ġm oney
ĠÃ Ĺ
Ġ. "
ĠG esch
Ġpr om
Ð»ÐµÐºÑĤ ÑĢ
ĠÐ» ÑĥÑĩÑĪ
Ġspe cial
Ġpos si
t il
ĠãĢĳ ãĢĲ
Ġa ir
Ġpu Ã²
iv id
åĪ ©
Ġmay or
f all
Ġch á»©c
ne hmen
è §
å §
Ñĥ ÑģÐº
is ti
Ġtá» Ľi
Ġm al
ĠÐ±Ñĭ Ð»
ĠÐĲ Ð»
Ðµ ÑģÑı
Ġchild ren
Ġc rÃ©
ci r
Ġeas y
ĠÃ ĥ
ĠP a
á»Ļ ng
ĠrÃ© g
Ġfil es
ier ung
Ġv ida
Ġprop r
ĠC an
f ach
der e
ĠBras il
Ŀ Ģ
Äħ d
ĠO d
å¤ ī
Ġph ÃŃ
ul ts
Ñı Ð¼
i ÃŁ
Ġes to
Ġil s
æĺ İ
ĠÐ· Ð°ÑĢ
Ð¾Ñģ Ð¿
ĠC Ã´ng
ĠD z
ic ol
Ġc reat
Ġsu ccess
Ġemp loy
Ġel ect
Ñį ÑĤ
k ÄĻ
ĠAr beit
Ã³ s
ia re
çĶ £
ĠÐºÐ¾ÑĤÐ¾ÑĢ ÑĭÐ¹
Ġth Æ°á»Ŀng
ug ar
ier w
Ð° Ñİ
á»Ł i
Ġfor ma
ĠÐµ Ðµ
? ?
Ġfaz er
Ġac qu
amp le
ä» ¶
ĠÐ±ÐµÑģ Ð¿Ð»Ð°ÑĤ
ĠÐº ÑĥÐ¿Ð¸ÑĤÑĮ
Ð¾ Ñħ
è¡ ¨
Ġcon n
Ġth o
ĠM ais
Ġtra ng
n ic
im ent
ĠÑĤ Ð¾Ð²Ð°ÑĢ
ation en
ÑıÑĤ ÐµÐ»ÑĮ
ĠÃ ¢
Ġh ouse
ĠV ous
Ġä¸ Ģ
ÐµÑģÑĤÐ² Ð¾
ĠÐ´ Ð¾Ðº
ĠÄĳ áº¡i
Ġperson as
ient os
ĠÑĢ ÐµÐº
ĠÃ Ń
Ġgi áº£i
ar s
ce j
Ġfiles _
Ġb á»ĩnh
od e
Ġro ku
Ġãģĵ ãĤĮ
he re
Ġse us
dz i
l as
ÐµÑĤ Ðµ
ĠS te
è¾ ¼
æ ¬
le p
ĠH and
i ques
ĠÃ ĸ
Ġre aliz
ĠÐ²Ð¸Ð´ Ðµ
Ðº Ð¾Ð¼
Ġ: //
ãĥĨ ãĤ£
it Ã¤t
Ñı Ñī
ĠPro du
ĠQu á»ĳc
Ġph Ã¡p
Ġs ar
ãĢ Ĥ
Ġãĥ ĳ
çĽ ¸
Ã³ l
ĠÅ ļ
ĠS Ã£o
Ġpr ix
Ġal ong
ãĥĥ ãĥī
æĦ ı
ĠV ers
ge b
Ġm ich
oc us
Ã³ j
ĠU nd
ĠS z
Ġãģĵ ãģ®
Ġc ase
t u
Ñĭ Ð»
ind o
Ġtr á»ĭ
Ġlar ge
ĠE uro
m ed
Ð°Ð»ÑĮ Ð½ÑĭÐ¹
Ð¾ÑĢ Ð¾Ð²
Ġg ÅĤ
Ġho áº·c
at or
os a
ill s
Ġpl an
è» Ĭ
Ġd Ã¹ng
iss ion
Ġb ene
iz io
áº© n
Ġst ron
ÐµÑĢ ÑĤ
Ġgiá» Ľi
Ġz w
ĠÐĲ Ð²
ĠãģĿ ãģ®
ĠÃ©ta it
Ġuns er
ÅĤ u
Ġc a
Ġãĥ ª
ou ver
rÃ© s
Ġk áº¿
ĠC e
ck s
Ġc el
ãĥķãĤ ©
Þ ¦
ĠÐļ Ð¾Ð¼
å¿ ľ
Ġa way
Ð½Ð¾Ð¼ Ñĥ
ĠãĤ Ń
ÑĥÑĤ ÑĮ
Ġ ãģĦ
ãĤĵ ãģ§
and e
Ġto gether
hal ten
ci d
ĠÐ² Ð°ÑĪ
Ġè ĩª
ãģ¡ ãĤĥ
Ð³ Ð¾ÑĤÐ¾Ð²
gen d
it ions
l ung
elh or
ï¿½ï¿½ ï¿½ï¿½
Ġch u
Ġt urn
á»į c
ar am
Ġde tail
m ber
ÑĦ ÑĦ
Ġf are
ĠÑģ Ð¾Ð·Ð´
ãĥ» ãĥ»
ĠH Ãł
zion ale
¬ ¬
à ³
ow o
Ġkh u
an cia
ãĤ ¶
Ã¤ ch
Ġ", "
Ġof ten
éģ ¸
Ġl ine
Ġg ra
ir os
ĠÐ½ ÐµÐ¿
éĽ Ĩ
çķ ª
ien ia
Ġke ine
ar rol
ĠF re
Ġj us
on te
æĸĻ çĦ¡æĸĻ
im iento
ĠÃ© qu
ĠU ni
ãģ ĸ
it es
c ri
Ġut ili
Ġsu o
b or
Ġd all
Ġlá»Ľ n
in cip
ĠO ne
Ġun til
Ġpos sible
Ġcon d
á» ¹
\ "
aÃ± a
ar ten
Æ° ng
ÐµÑĢ Ñĭ
Ġper fect
Ġtr ad
on do
ÃŃ o
t ti
æĽ ¸
Ġpar ti
ĠÐĲ ÑĢ
Ġä¸ Ń
ãĥ¼ ãĤ¯
Ġge gen
cz a
ãĥ³ãĤ ¿
Ð» Ð¾Ð²
Ġs ing
Ġr Ã³w
Ġre ci
Ġnh iÃªn
Ġqu ando
ĠÐ¾ÑĤ Ð½Ð¾
Ġc ri
ĠÐ¼ÐµÐ½ Ñı
Ġf otos
c ch
Ġh um
ĠÐ° ÐºÑĤ
Ġ. ,
Ġch a
Ġd ar
Ġtr as
Ã© p
om a
ĠÐ· Ð°Ð±
ic le
ut es
Ġ äº
å ĥ
é §
Ġha i
Ġx em
is iÃ³n
á»į ng
f ied
Ġd onn
Ð¾Ð» Ð¾Ð´
o ot
Ġenc ont
j os
åĳ ³
ci m
Ġcáº£ m
ĠÑĦ Ð¾ÑĤ
la ck
ãģı ãģł
ort s
Ġãĥ ©
Ġv ideo
ĠÐĿ Ðµ
Ã¡ m
an ces
Ð°ÑĤ Ð¸Ð²
åĭ Ļ
ãģ«ãģ¤ ãģĦãģ¦
Ġm Ã©
Ġh ist
Ð¸ÑĤ ÐµÐ»Ñı
áº§ m
ÑĨ Ñĭ
Ġ} .
Ġf our
Ġ0 5
Ġa os
Ã¼ nd
Ġãĥ Ĺ
Ġ201 8
Ġ0 8
Ã ī
Ġch á»įn
pp ed
å ŀ
ĠÐ¶ ÐµÐ»
Ãª te
Ð¾ Ð½Ñĭ
æĥ ħ
ãĢ ģ
Ġãĥ Ī
Ġthá»© c
Ġbe aut
Ġmu a
ãģ® ãģĭ
Ġc Ã¡i
Ã³ c
ÐµÐ½ÑĤ Ð¾Ð²
ro d
i ous
ĠCh at
Ġc Ã´
Ġl ui
I C
áº ³
Ð°Ð»ÑĮ Ð½Ð¾Ð³Ð¾
Ġg anz
Ġcommun ity
ÃŃ an
ĠZ u
Ġcre ate
á» Ľ
Ġdo anh
Ġj u
ÐµÐ½ Ð½ÑĭÐ¹
Ġog ni
Ġs ide
et e
Ð¸ÑĤÐµÐ»ÑĮ Ð½Ð¾
Ġt ay
ur y
ect o
ĠÐ¿ÑĢÐ¾Ð³ ÑĢÐ°Ð¼
Ġwh y
Ġt áºŃp
z ar
ĠÑĢÐ°Ð±Ð¾ÑĤ Ñĭ
p ro
ĠÐ³ Ð¾ÑĢ
Ġt reat
Ġc aÅĤ
Ġdies er
Ð¾Ð» Ð¾Ð²
Ġst y
f r
Ġå ľ
ç ½
åĬ ł
an ych
lic k
Ġmis mo
Ġ áº£nh
le j
om m
or ies
Ġind ivid
Ð¸ÑĩÐµÑģÐº Ð¸Ðµ
ĠU ne
ar z
Ġpos s
em me
Ġv ie
Ġn ame
Ġx xx
Ġâ ĸ
Ġ1 00
ĠTr ung
Ġr i
ÐµÑĢ Ð³
Ġb aj
ãĤ¤ ãĥ³
Ġtim es
t ta
Þ¦ Þ
ĠktÃ³ r
Ġqu Ã¡
e urs
Ġm undo
ĠN on
Ġbene f
Ġwe b
iá»ĩ m
il idade
i Ã¨re
Ġcon tact
Ġm ater
Ð¸ÑĩÐµÑģÐº Ð¸Ñħ
Ġy Ãªu
Ġf ocus
in al
ãģĮ ãģĤãĤĭ
ĠÐ³ Ð´Ðµ
ĠÑĢ Ñĭ
ill es
ĠéĢ ģ
3 0
em y
it ar
Ġrese arch
fÃ¼ hr
Ð¿ ÐµÑĢ
p x
cz enie
ÑĪ Ðµ
ĠÐ¼Ð°ÑĤ ÐµÑĢÐ¸
ow s
Ġn et
ĠÑħ Ð¾ÑĤ
ĠÑģÐ² ÑıÐ·
Ġtem po
ĠÂ °
Ġci udad
Ñı Ð½
ãĤĪãģĨ ãģª
ot t
ĠÐ¿Ð¾Ð¼ Ð¾Ñī
ĠåĲ į
ĠÐ» Ð¸ÑĨ
æ¥ ½
as z
Ġha ving
ar ing
Ġav oir
u la
ĠN ous
p is
æ º
ÑĢÑĥ Ð¶
ĠCom m
is ter
an to
Ð°Ð»ÑĮ Ð½Ð¾Ð¹
ĠÃ ĺ
å± ±
Ġten er
ĠÃ© g
Ġspeci fic
Ġe j
ĠÑĨ Ð²ÐµÑĤ
ãĤĪãģĨ ãģ«
ĠÂ º
Ġorgan iz
ĠãĤ Ĥ
L L
ãĤģ ãģ¦
ĠC ent
Ġv ers
Ð¼ ÐµÑģÑĤ
ĠÐŀ Ð´
mp re
ĠM an
Ġs ous
Ġ Ã¡n
cz Äħ
ĠÑģ Ð¾ÑģÑĤ
Ð¼ ÐµÑĤ
ÐµÐ½ Ð½Ð¾Ð¹
m u
ãĥª ãĤ¢
ta g
Ã ¥
Ġå ¹
éĽ »
Ð¾ÑģÑĥÐ´ Ð°ÑĢ
Ġg em
ãģĹ ãģĭ
Ġv áºŃy
Ġot ros
v iron
le ct
iv ely
Ġæĸ °
re am
Ð¿ÑĢÐµÐ´ ÐµÐ»
Ð½Ð¾ÑģÑĤÑĮ Ñİ
h Ã¶r
k ÅĤad
ÐµÐ³ Ð¾Ð´
us h
ĠÐ¸ ÑģÐº
Ã³r ia
Ġk le
is ed
Ð½ Ð¸Ð¹
ci mento
Ġenjo y
p iel
ãĥĥãĤ¯ ãĤ¹
Ġk m
N G
Ġgrou p
éģ ĵ
ĠÑĢ Ñĥ
ÄĻ t
olut ion
Ġf uer
id s
ir d
Ġth á»§
åĲ Į
r ation
Ġt Äĥng
Ã¡ vel
Ġæľ Ģ
Ġen cu
Ð¸Ð± Ð¾
Ġex t
in si
æŀ ľ
res ent
79 66
g od
ĠP re
uf f
Ġ07 7966
Ġv áº«n
Ġp age
Ġt Ãłi
Ġd ou
ĠÑģÐ¾ Ð¾Ð±Ñī
r ies
ÐµÐ½ÑĤ Ð°
Ġpesso as
Ġr ip
Ġv i
Ġc á»©
Ġresp on
g n
Ġi hre
ut to
Ġinclud e
ÑĨ Ð¸Ð¹
ver al
Ġp es
em Ã¡s
so ci
Ġæ ĺ
ÑĥÐ± Ð»Ð¸
Ġz osta
Ġh or
åķ ı
âĢ¦ âĢ¦
Ġpa ÃŃs
ÐµÐ½ÑĤ ÑĢ
ĠM ujeres
Ñ ĸ
Ġ ult
c or
Ġsá»ĳ ng
Ġpr incip
Ġ ãģ¯
Ġç§ ģ
ĠÑıÐ²Ð»Ñı ÐµÑĤÑģÑı
Ġsa o
cj ÄĻ
ĠÑģÐ¿ Ð¾ÑģÐ¾Ð±
Ġweit er
ĠãĢ ı
Ġen f
Ãº s
en as
Ġmo ve
ĠMad rid
uy á»ģn
omb res
Ġne i
for ma
á» Ŀ
ĠÐ¿ÑĢÐ¾ ÑĦ
vi ous
ĠÐ¾ Ð½Ð°
Ġæ °
in ter
v or
he s
ĠÐ´ Ð°Ð¶Ðµ
Ġne ar
ĠA fter
Ġl ÃŃ
u ÃŁ
Ġtr iá»ĥn
ĠG er
ĠÐ´ Ð¸
am men
Ġwork s
Ġth ing
c ora
or th
Ġfe at
Ġagain st
Ġopp ortun
ĠH owever
ĠÐ» Ð¸
ĠÑĩÐµÑĢ ÐµÐ·
I A
ĠI hre
g ang
ĠL and
Ġmuch o
Ġpr ice
er w
ow i
ĠN a
Ġgiá» ¯
Ġw om
ĠÐ¡ Ð¿
ÐºÐ° Ñħ
ÑĨ ÐµÐ½
5 0
Ġbe k
« a
Ð°Ð»ÑĮ Ð½Ð¾
é ¨
i Ã³
m m
Â ª
Ġme ans
Ġmu á»ĳn
Ġpod r
iv re
Ġ, âĢĿ
ĠJ ak
ãĤĪ ãĤĬ
ãģ¨ ãģ¯
Ð°Ð»ÑĮ Ð½ÑĭÐµ
ĠÐ½ÑĥÐ¶ Ð½Ð¾
Ġent er
ãģ Ĳ
j as
ÄĻ d
ÑĨ ÐµÐ²
ord ing
Ġse gu
ig lia
Ã³ Å¼
ĠS aint
ĠÐŁÑĢ Ð¸
iÄĻ k
f ica
ĠÑĤ Ð¾ÑĢ
ol es
Ġè ²
ÑĢ Ð¾Ñģ
ĠÑģ ÑĥÐ´
¢ º
è¨ Ń
Ġf on
Ġla w
ect ion
ãģł ãģ£ãģŁ
ç Ĭ
Ġmak es
Ġm om
t w
ç İ
ĠÐºÑĢ Ð°Ñģ
á» Ŀi
Ġd one
Ġå Ī
ĠÐ¡ Ð
cz enia
Ġl im
ĠG od
Ġgo vern
Ð¸ÑģÑĤ ÑĢÐ°
ãĥ¼ãĤ ¿
h m
Ġk ind
åĵ ¡
ãĥĥ ãĥģ
ĠScar pe
er i
çĤ ¹
Ġen s
ĠSe x
ow ym
Ġæľ ¬
Ġo so
Ġâ ĺ
Ġn ight
ĠÐ¶ ÐµÐ½
ĠÃº lt
est ell
u Ã©s
ÐµÑĢ ÑĪ
Ġç µ
icht ig
áºŃ u
ĠÐ¸ Ñģ
Ġdi fer
ãģıãģł ãģķãģĦ
ci l
ç ³
id en
ĠÐ³ Ð»
ure d
ĠD i
ul ti
v ent
áº¡ m
Ġli Ãªn
ĠE ng
im m
Ð¾Ð± Ð°Ð²
ab ly
Ġmem bers
ĠÐ· Ð°Ð½
ç ®
ĠÐ¿Ð¾Ð· Ð²
j our
ÅĦ st
l en
1 1
ĠÐ³Ð¾Ð´ Ñĥ
Ġn ell
Ġdevelop ment
pow iedz
Ġby Äĩ
å± ĭ
Ġed uc
Ġqu ick
s ide
Ġd Æ°á»
Ġ201 9
ĠÐł Ð°Ð·
l in
te ment
h and
Ġdo po
Ġl ow
Ġbec ome
ĠC or
Ġe ing
ĠÐ¾ÑĤ Ð²ÐµÑĤ
os to
all en
Ġsu per
Ð¸ÑĤ ÐµÐ»ÐµÐ¹
Ġenc ore
Ġap rÃ¨s
Ġcle an
u ales
Ġte Å¼
Ġqu ed
ĠÐĺ Ð·
Ġdon c
g um
Ġs w
Ð¸Ðº Ð¾Ð²
Ġm elhor
ati que
ch te
Ġth Æ°Æ¡ng
ĠÑĢ Ð°Ð¹
ĠA pp
Ġre view
è º
Ġso ft
Ġm il
ĠÐ¼ Ð¸ÑĢ
ct or
os ed
er c
Ð¼ Ð¸Ð½
Ġs ÅĤ
æĸ ĩ
Ġpas t
ĠÄĳá» ķ
ĠÐ²Ñģ ÐµÐ³Ð¾
åŀ ĭ
c um
Ġå ½
Ġç ´
å ĸ
Ġla nd
Ġo cc
ĠmoÅ¼ na
ÑĢ Ð°Ð±Ð¾ÑĤ
skie go
Ġlav oro
æ° ´
Ð¾Ð´ Ð°
Ġ0 3
ç ĿĢ
é ĺ
ge m
ĠÐŁ Ð¾Ñģ
æ ¨
ãģĳ ãĤĭ
ÅĽ my
read y
r ing
Ġt Ã¬m
I E
Ġay ud
Ð¿ Ð¾Ð»
z ia
ĠÐ¾Ð±Ð»Ð°ÑģÑĤ Ð¸
ĠCom p
ÐµÐ½ Ð¾
ne y
Ã Į
und e
ka uf
Ġen ough
cel ona
v is
ãģ« ãģĬ
ãĥĥ ãĤ·
Ġg el
Ġtrabaj o
ĠDeut sch
es e
Ġãĥ ı
os s
ĠAmer ic
Ð°Ð´ Ð¸
iá» ħn
Ġpre c
Ãĥ O
Ġ5 0
ãĤĴ è¦ĭ
ĠÃ §
ĠN Ã£o
ou p
om me
Ġgr at
ãģĵ ãĤį
ç´ Ħ
ĠÑĥÑģÑĤ Ð°Ð½Ð¾Ð²
Ġb Ãłi
Ġs ent
aj es
Ã©n Ã©r
Ġb ao
ãģĦ ãģ¾ãģĹãģŁ
Ġch icas
è² ©
e ment
Ġå Ĩ
Ġb ody
Ġtan to
Ġbe im
an ies
Ġcz ÄĻ
wi ad
Ġother s
Ġf ois
ÑģÐº Ð¾Ð¼
Ð² Ð¾ÑĢ
nd e
é¡ Į
ä» ķ
in ts
ĠÐ³ Ð»Ð°Ð²
ĠÃ Ī
l ar
p ad
Ġc itt
ãģ§ ãģĹãģŁ
Ġj ob
ĠÐ¿Ð¾Ñģ Ð»ÐµÐ´
cz nie
Ð°Ð¹ÑĤ Ðµ
ĠG u
Ġle ft
cri pt
Ġo Ã¹
er gy
Ġb it
Ġcom es
I S
ĠB es
ä¸ ĩ
it ive
Ġest ud
Ġd om
Ġto ol
Ġma ng
be i
es ta
Ġcon he
åĪ ĩ
jo res
Ġv en
Ġes o
Ġpod er
Ġpart ic
gra ph
ĠÐºÐ» Ð°ÑģÑģ
ĠÐ² Ð°Ð¼
ãģĹ ãģı
ut ure
æ ħ
Ð¾ÑĢ Ð¸Ð¸
con om
è µ
ãĥ³ ãĤ¹
ĠâĢĿ ,
ci ales
Ġac ross
n is
ÑĭÐ¼ Ð¸
am en
ĠD a
Ġv ersch
åľ ¨
Ġc ab
Ġalt ri
Ð¾ÑĢ Ð°
Ġli k
Ġcer tain
ĠT ra
ĠÐ¿Ð» Ð°Ð½
Ġtr á»įng
ĠF Ã¼r
as i
ãĥķãĤ ¡
Ġal ready
el a
Ġinc ont
á»ĵ n
Ġf und
ĠktÃ³ ry
Ġï¼ Į
ĠI hr
ĠÑĨ ÐµÐ½
ãģ® ãģĮ
Ġsie mpre
Ġse veral
w as
Ð¸Ð» ÑģÑı
Ġr ou
ãĥ¼ãĤ ·
ut os
T E
Ġr á»ĵi
Ġaut re
éĢ £
aj or
ÑĢ Ð¾Ð¿
la ce
ĠÐ¾Ñģ Ð¾Ð±
Ġãĥ ĩ
Ġm ind
Ġj a
ĠÐ± Ð°Ð½
ĠÑģ ÐµÐ¼
at ta
ier z
Ġ201 5
Ġgia o
ç Ĺ
qu er
Ġd urante
Ð°Ð»ÑĮ Ð½ÑĭÑħ
we i
viron ment
c n
Ġdi ver
Ġp ag
Ġp urch
ĠÐ²Ñģ ÐµÑħ
us ammen
ĠÃ§ a
re ich
Ġs Ã³
Ġl áº§n
ÐµÑģÑĤ Ð¸
ãģĳ ãģ©
ĠA p
ãģ¨ ãģª
çµ Ĳ
ĠÃľ ber
ot ti
der n
Ġdes arrol
Ġs Ã©
am it
Ġk aÅ¼
ãģĳ ãģ¦
en se
ĠÐ¿ Ð¾Ð»ÑĮÐ·
Âµ ÃĦ
Ġde ut
ç¶ ļ
Ñĭ Ñĩ
ate g
ĠI D
ĠL o
Ġsp ace
áº³ ng
Ġit ali
Ġm uss
en h
ãģ İ
ÐµÐ³Ð¾Ð´ Ð½Ñı
Ð¸ Ñī
ent al
u a
Ġan al
Ġ0 2
orzy st
ãģĭ ãĤĬ
Ġf lo
Ġe ver
çĶ º
iáº¿ u
Ġein es
Ġt uy
Ġan cora
ãĤ¤ ãĥ«
i ful
Ġé ĩ
Ġren cont
is m
ĠÑģÐ¾ Ð¾ÑĤ
ador a
Ġan o
Ñı Ð¶
ud e
Ġtá» ī
at ur
ad en
Ã¶ s
Ġb Ã¡o
nie Å¼
Ġperson al
Ġp ack
ĠLe ben
z ing
ou vel
Ġb iá»ĩt
Ġde ve
Ġbe h
ãģ® ãģĬ
Ġcu enta
ta ble
z d
in ation
ĠÐ ®
Ġv ari
Ġh Ã³a
Ð°Ðº ÑĤÐµÑĢ
re t
ÑıÐ± ÑĢÑı
Ġth i
ĠÐ¼ ÐµÐ´
1 6
ĠÐŁ Ð¾Ð»
Ġget ting
Ġ Å¼
Ġcall ed
Ġqu ier
Ġso cial
ai x
Ġd od
Ġth á»ĳng
Ġar r
Ġth Ãªm
ill as
Ġ2 8
Ð» ÐµÐ¹
Ġngh Ä©
n os
ĠÐ· Ð½Ð°Ñĩ
cu er
ĠÐ· Ð½
ĠUni versity
Ñı Ñģ
a Äĩ
ab e
ward s
Ġcom ment
le y
ĠÐ¿ÑĢÐ¾ÑģÑĤ Ð¾
Ġbel ow
Ġw en
Ġcount ry
Ġn ombre
Ġty p
ka z
ĠB l
ãģ ¶
Ġl á»±c
ol lando
Ġtr á»Ł
æĻĤ éĸĵ
Ġer a
ÑĥÑĢ Ñĭ
Ġãĥ Ľ
Ġst ep
ĠC oun
nik Ã³w
Ġav ant
Ð°Ð» ÑģÑı
end ing
Ġv ai
ĠÃ İ
Ġein fach
Ġme an
ĠÐ½Ðµ ÑģÐº
ĠU na
et as
Ġsh are
ãĤĵ ãģł
ĠÐ³ Ð¾Ð²Ð¾ÑĢ
ĠÑĤÐµÑħ Ð½
Ġre co
Ġinst all
å ¢
ĠÄĳ áº¥t
Ġtr y
Ġw ÅĤ
Ġl ink
Ġh ig
ãĥ³ ãĤ¯
Ġz m
ĠR a
ĠÑĥÑģÐ» Ð¾Ð²
ĠÑĪ ÑĤ
Ġ2 6
Ġn ad
Ł ³
Ġqu Ã©
Ġl ive
ed er
æľ ī
Ġtra v
ĠãĢ İ
ĠM on
© ļ
Ġé Ľ
Ġest Ã¡n
ore d
Ġfind en
Ġcle ar
ĠéĢģ æĸĻçĦ¡æĸĻ
Ġt iÃªu
Ġe uro
Ð¸ÑĩÐµÑģÐº Ð¾Ð¹
Ġ2 9
Ġ0 4
ĠÑį Ð»ÐµÐºÑĤÑĢ
Þ °
Ġnue vo
å Ĥ
id ent
ĠP ers
k Äħ
ĠM ay
Ġra nge
kt u
v r
Ġch á»ĭ
m itt
áº¯ m
ĠÐ¾Ð´ Ð¸Ð½
æ Ĥ
w end
ter ior
Ġre du
Ã¤l t
Ġsh ort
Ġcont ra
Ġw ind
Ð² Ð°ÑĢ
ĠÐ² ÐµÐ´
ĠÑģÐµÐ± Ñı
Ġ Ñİ
å¿ ħ
Ġde b
ĠÐ½ Ð¸Ðº
ou th
ÑĢÑĥÐ¿ Ð¿
Ð¸Ð½ Ñĥ
I D
p ar
ĠÐ¾ÑĤ ÐºÑĢ
ãĢ į
èª ¿
aÅĤ a
ĠPar is
Ġf atto
ĠB r
ĠÑģÐ»ÑĥÑĩ Ð°
end a
Ġv áº¥n
Ġal cun
ur ther
Ã¡r ia
ãģ«ãģª ãĤĭ
Ġz am
ier no
aus s
Ġan no
ĠÄĳ Æ¡n
Ġse ason
it her
Ġor ig
Ġwy d
b il
d em
Ġqu ello
Ġv Äĥn
Â ¹
Ġf ir
Ġbr ing
Ġgiá» Ŀ
Ġho áº¡t
áº§ y
Ġãĥĸ ãĥ©
Ġnel le
ĠÐ¼ Ð½Ð¾Ð³Ð¾
ĠM il
ul as
Ã¬ n
ãĥ¬ ãĤ¹
Ã ĺ
ĠB et
Ġtro v
C J
Ġw iel
Ð¾Ð² ÑĭÐµ
Ġmen os
ĠB us
el ho
Ġç Ľ
Ġqu ien
Ð´ ÐµÑĢÐ¶
Ġentre pr
in os
ãĥ¼ãĥ Ħ
ĠÑĤÑĢ ÐµÐ±
Ġb ou
Ġu Å¼y
im i
Ġtak Å¼e
Ġc Ã¡
æĮ ģ
ig lio
at ura
Ġpartic ular
Ð¾Ñĩ Ð½Ð¾
å ³
ab ility
äº ¬
em p
Ġno v
çµ Į
Ġwy s
ĠDon na
Ġ0 6
Ð¸ÑĢÐ¾Ð² Ð°ÑĤÑĮ
Ġinform aciÃ³n
Ġt ÃŃch
we ise
ãģ§ ãģĤãĤĭ
ĠP reis
¢ ¨
Ġtr ung
is ing
Ð°ÑĤ ÑĢ
es to
ĠÐ¿ÑĢÐ¾ ÐµÐºÑĤ
ãĥ¼ãĤ «
Ġmod o
æ ĭ
Ġp ierw
p ort
ãĥĶ ãĥ¼
v oir
Ġqu á»ĳc
Ġcom b
Ġex ample
å¾ Ĺ
Ġcomp anies
ãĤ ´
ĠÐ¸Ð½ÑĤÐµÑĢ Ð½ÐµÑĤ
ÐµÐ½ Ð½Ð¾Ð³Ð¾
å° ĳ
Ġf uture
ĠÐ²ÑĭÑģ Ð¾Ðº
Ġnh au
is es
Ð¸ÑĩÐµÑģÐº Ð¸Ð¹
ãĤ¤ ãĤº
Ġtiáº¿ ng
Ġtr ÃŃ
Ġoff ers
ĠÐ¼Ð¾Ð³ ÑĥÑĤ
un que
Ã³ m
i ke
Ð½ Ð¸Ðµ
g ro
Ġst ory
äºº æ°Ĺ
ÑģÐ» ÐµÐ´
ĠY our
ia ÅĤa
Ġsp raw
Ġp utas
Ġc ir
ÅĤ aw
gu a
Ġbe au
Ġdep uis
Ġ ir
is ten
Ġc amp
Ġcol or
ĠÐ¿Ð¾Ðº Ð°Ð·
åł´ åĲĪ
Ãº bl
Ġm ajor
Ġop in
ĠÑĢ Ð¾Ð´
Ġcu á»Ļc
am entos
d ing
ĠÃ į
Ġl ors
ĠÐ´ Ð¾Ð¿
ot s
ĠN á»Ļi
Ġdo ing
e e
ĠÐ¸Ð½ÑĤÐµÑĢ ÐµÑģ
Ġmo ins
ĠW enn
Ð¾Ð² ÑĭÑħ
å ģ
r at
è ±
Ġinv ol
ÑĢÑĥ ÑĪ
or n
Ġes per
Ð ¯
Ã ħ
ĠÐ¾ÑĤ Ð´
s el
Ġc her
Ð¾ ÑĦ
Ġ2 7
p ect
auf en
ĠSch ool
Ġb ud
ĠÐ·Ð°Ðº Ð°Ð·
ĠæĹ¥ æľ¬
Ġd ro
Ġs owie
á» ħ
Ð° Ñī
Ġh old
Ġdo ve
wiÄħ z
åĲ ĳ
ient s
Ġbre ak
Ġb ed
ÐµÑĢ Ðµ
Ð± Ñĭ
Äħ Å¼
ĠÑģÑĤ ÑĢ
gen s
ur ity
Ġa insi
Ġro dz
ĠA nh
Ġph Æ°Æ¡ng
ĠÃ©g alement
ÅĤ am
Ġaut h
Ġt alk
Ġde j
ot y
ĠÂ ¡
ãģ®å ¤
Ġrec ommen
Ġsu is
ĠÐ½ Ð¸
Ġãģ ©
Ġon ce
ĠL ie
è¿ ĳ
ÑĥÑĢ Ð³
eth od
Ġma ior
ĠÄĳá»ģ u
Ġl ugar
Ġsel bst
ĠD I
ãĥ¼ ãĥ³
ĠÐ³ Ð¾ÑģÑĥÐ´Ð°ÑĢ
dzie j
Ġph oto
ut a
Ġk osten
éĩ İ
éļ Ľ
Ġj p
ĠrÃ³w nieÅ¼
Ġv ita
f ten
Ġh ours
Ġval ue
Ġindust ry
al a
Ð² ÐµÐ´
ãģ§ ãģĹãĤĩãģĨ
ĠÑĩ Ð°Ñģ
Ġd áº«n
Ġtrabal ho
ÃŃ st
ani u
ĠÐ¼ ÐµÐ¶Ð´
Ġf ore
nge bot
g i
á»ĩ t
ok o
Ġs ido
å· ¥
c m
Ġch Æ°a
Ġãģ¾ ãģŁ
ĠÐº Ð°ÑĢ
Ġp ie
ust r
Ġn ouve
ie f
ra it
Ġa ggi
Â ²
Ġb Ãªn
Ã¼ tz
Ġrec ord
O L
it er
ĀĀĀĀĀĀĀĀĀĀĀĀĀĀĀĀ ĀĀĀĀĀĀĀĀĀĀĀĀĀĀĀĀ
1 5
is on
n et
ĠÑģÐº Ð°Ð·
Ġde al
Ġc ity
Ġtá» ¥
om es
la im
Ġcomple t
Â ½
ara ct
Ġz as
ÐµÐ· Ð´
Ġ19 9
Ġt ell
é¨ ĵ
cz ÄĻ
ĠOn line
ĠÐ£ ÐºÑĢÐ°
Ġ\ "
im es
rib ut
eit s
Ġå Ľ
ä» Ĭ
Ġpra w
ire d
Ġlle v
ue b
R E
er ci
Ð¾Ð³ Ð»
ab ile
ĠK inder
Ä Ĳ
ÅĤ em
Ġle ast
ĠP ort
ï¼ ģ
Ġv ed
çī ¹
ãĤ» ãĥĥãĥĪ
Ġot ro
anÃ§ ais
Ġw el
ÑģÑĤÑĢ Ð¾Ð¹
cript ion
Ġret urn
ĠÃ©qu ip
Ġcon tain
ĠIn tern
Ġh aci
Ġjak o
Ġb áº¥t
ci ally
Ġcas o
Ġsu as
ãĥĥ ãĤ°
Ġpued en
Ġres ults
ĠÐ¶ Ð¸Ð²
t rag
æŁ »
Ġj etzt
ä½ į
Ġst rong
cim iento
Ġcon se
Ġme ille
ĠT rong
ĠD r
ĠP ost
ali za
Ġact ually
Ġkn own
ĠÐ´ Ðµ
Ġserv i
ĠÐ¾ÑĤ Ð·ÑĭÐ²
ĠÐº Ð½Ð¸
Ġo re
Ġes e
éģ ķ
Ġal go
Ġp on
Ð¾Ð½ Ðµ
ÑįÑĤ Ð¾Ð¼Ñĥ
Ġd ont
ĠL A
Ġpo i
çķ Į
ãĤµ ãĤ¤ãĥĪ
Ġl Ãºc
èī ²
ł ´
ĠÑĢÐ°Ð·Ð² Ð¸ÑĤ
Ġpropr io
Ġs iste
åı Ĺ
Ġne cess
ĠC he
ĠâĢĿ .
cze g
ÐµÑĢ ÑĮ
Ġ4 0
ĠS erv
Ġpro ces
áº¥ m
ien e
ĠÐ· Ð²
ĠÐ¼Ð½ Ð¾Ð³
Ġper chÃ©
ãģ¨æĢĿ ãģĦãģ¾ãģĻ
Ġb rand
Ĺ i
b ility
Ġc ut
ĠP od
ãģķãĤĮ ãģŁ
ĠÐĴÑģ Ðµ
ĠÑĤ ÐµÐ¿
Ġproble m
Ġh á»Ļ
çĦ¡ ãģĹ
Ã ¦
ĠÑģÐ¾Ð¾ÑĤ Ð²ÐµÑĤ
Ð¸ÑĩÐµÑģÐº Ð¾Ð³Ð¾
aÅĤ o
ĠÐ´ ÑĢ
Ġth am
Ġcas a
ĠÃ ·
Ġé «ĺ
Ġt uo
Ã© tÃ©
Ġ ing
ÐµÐ½ÑĤ Ñĭ
Ġh Ã¡
Ġll am
Ġf ield
Ġdies em
ĠÐ±Ñĭ Ð»Ð¸
Ġho Ãłn
Ñĥ ÑĢÐ°
ap e
p a
Â ´
Ġsp iel
ÐµÐ´ Ð¸ÑĤ
ĠÑĢ ÐµÐ±
Ð· Ñĭ
Ġre ason
Ġc oun
Ġsim p
å¥ ½
ãģĹ ãģ¾ãģĹãģŁ
Ġat tiv
an ks
Ð°Ñı Ð²
Ġé ģ
b ra
å· Ŀ
äº Ī
Ġs Ã¡ng
Ġse a
Ġy o
ĠC am
z ed
ici on
Ġem ail
en vol
4 0
or te
Â ¼
Ð°Ð» Ð¸ÑģÑĮ
Ġmin utes
ç³ »
Ġstart ed
ĠÐĵ Ð»Ð°Ð²
ÑĤ Ð°
ĠM Ã¤
ĠÑĢÐ°Ñģ Ñģ
ĠD ans
Ġbeaut iful
Ĵ Į
ÅĽ l
å Ļ
Ġs um
Ġmon de
ĠÐ¾ÑĤ Ð»Ð¸Ñĩ
åı £
ä¼ļ ç¤¾
ĠÑĢÐµÐ· ÑĥÐ»ÑĮÑĤ
Ġt udo
j ours
éĩ į
ĠÃ£ ÆĴ
en den
u ite
Ġpo co
Ġfrien d
Ġcustom ers
ÑħÐ¾Ð´ Ð¸ÑĤ
Ġty pe
v il
ç¤ º
ÐµÐºÑĤ Ð¸Ð²
Ġfeat ures
Ð°Ð½ Ð¸Ð¹
Ġprof es
in n
u he
ÐµÑĢ Ð¾Ð²
Ġg esch
Ġf u
cz as
Ġfrien ds
Ġmo g
Â ¨
ĠÐ½ ÐµÐ¼
Ġcon tre
Ġpre mi
ĠÐ´ Ð¾ÑĢ
c le
Ġal gum
un e
Ġl iá»ĩu
ÑĢ ÐµÑģ
b urg
Ġp ict
Ġch allen
ĠÐ¿ÑĢÐ¾ÑĨ ÐµÑģÑģ
Ġd ost
Ġout ros
ĠÑĦ Ð¸Ð»ÑĮ
sche in
Ġke y
Ġprop os
Ġdid n
Ġtod as
ĠÄĳá»ĭ a
éĻ Ĳ
Ġser a
fer ence
ĠÐ¿ÑĢÐ¾Ð± Ð»ÐµÐ¼
Ġãĥ Ń
Ġå ¥
ĠÐº Ð°Ð·
il t
ĠC Ã¡c
ı i
èª į
Ġet was
le t
u jÄħ
ĠÃ ķ
Ġevery thing
er as
ar si
Ġo nde
ĠRe g
Ġadd ress
æ¯ Ľ
ĠÐ±Ð¾Ð»ÑĮÑĪ Ðµ
Ġre cher
ur os
ĠÄĳá»ķ i
Ð°ÑĤ ÐµÐ»Ñı
a hl
ĠCon tact
Ã ĳ
ĠD u
ĠÐ²Ñĭ Ð±
c Ã³w
Ġcomp et
Ð°ÑĢ Ð°ÐºÑĤÐµÑĢ
end ant
å³ ¶
ĠÐ¼ Ð½Ðµ
e z
Ġse arch
at iva
Ġab ove
ie ux
ci do
åıĸ ãĤĬ
ĠÑģÑĤ Ð¾ÑĢ
Ġest os
Ġr it
ch ten
Ġra pp
b el
åı ¤
ĠÐ½ Ð°Ð»
ĠÐ½Ð° ÑĢ
Ð½ ÐµÐ²
Ġ201 4
raz ie
Ġãģ ķ
Ġ <
Ġ ãģĮ
iv as
et a
Ġk il
ĠÐ¼ Ð°Ð»
ãĤ¹ ãĥĨ
Ñĩ Ð°Ñģ
r ank
ĠV al
ind i
Ġen vironment
ãģķ ãģĽ
ĠB a
åĪ ¥
ãģ® æĸ¹
ĠÐ±ÐµÑģÐ¿Ð»Ð°ÑĤ Ð½Ð¾
I ON
Ġhtt p
ä» ĭ
ru ck
mo ng
Ġcurr ent
Ġch aract
g esch
ĠÐ¿ÑĢÐ¾ÑĤ Ð¸Ð²
Ã¶ l
Ġmus ic
Ġc v
ĠÐļ Ð¾Ð½
Ġtechn ology
Ġst o
Ð¾ÑĤ Ð°
8 8
l tre
Ġp lease
z ien
Ġr áº±ng
ĠÐ¾ Ð¿ÑĢÐµÐ´ÐµÐ»
Ġp ed
Ġz n
la ge
Ġdoes n
ĠÃ Ļ
ĠÐ½ Ð¸Ñħ
Ġæ ĻĤ
ĠB ild
ãĤ ®
Ġje go
ĠÃ Ĥ
odz i
ĠÐ» ÐµÐ³
Ġl igne
ãĥ¼ãĥ ĳ
m ost
ne a
ĠM od
Â £Â¬
Ġy et
ĠBe i
ĠPa ulo
Ġb ie
ÑĨ Ðµ
Ġtr áº»
Ġbe gin
Ġcual quier
Ġm ulti
¤ ľ
èº «
Ð¾ÑĤÑĢ ÐµÐ±
Ġcos Ã¬
ĠF ahr
or to
Ġprofess ional
Ġ ãģ¨ãģĦãģĨ
ier on
a ff
Ġle urs
Ġs ic
Ġcont ent
Ġd ÃŃas
la g
ĠÑĥ Ð»
wa Å¼
Ġth Ã¢n
Ġser Ã¡
Ġtou te
Ġdisc uss
Ġ ur
è³ ª
Ġt ipo
ĠÃ ĭ
Ġa ng
ãģ® ä¸Ń
s er
Ġs á»Ł
an co
è§ £
ãĥĹ ãĥª
Ġso it
skie j
ĠÐº ÑĤÐ¾
Ġch uyÃªn
ĠÐº Ð°ÑĤ
å Ħ
Ġst ay
Ġof re
Ð´ Ð¸Ð½
éħ į
å® ¹
ra ft
Ġbuild ing
Ġngo Ãłi
ur ance
ĠÃ ı
Ġm nie
Ġpro y
Ġe y
Ð»Ñı ÐµÑĤ
æĥħ åł±
Ġf ic
ir as
Ġcon cer
id es
Ġmon do
Ã£ i
Ġfe ira
ĠTe il
Ã¡ g
l ish
ĠÑģÑĤ ÑĢÐ¾
Ġç ī
ge ben
Ġch uyá»ĥn
ÅĤ at
Ã² a
Ġb Ã³ng
Ġm illion
ÐµÑĢ Ð±
Ġmom ento
ĠãĤ ¸
ÐµÑĩ ÐµÐ½Ð¸Ðµ
ib ile
Ġw alk
ier te
Ġah ora
Ġãĥ Ģ
g as
Ġg Ã©nÃ©r
Ġg iven
ÑĢ Ð°Ñģ
Ġs ound
ÑĢ Ðµ
Ġand eren
ĠM ens
Ã «
ĠÐ¿ÑĢÐ¸Ð¼ ÐµÐ½
é§ ħ
en en
ate urs
Ġquy áº¿t
Ġprovid es
Ġre mo
ch ts
éĩ ı
Ġm ethod
Ġx Ã£
ĠÐ¸ Ñİ
Ġ á»©ng
bo ok
Ġhe art
Ġm áº¯t
Ġquan to
ĠQ ue
ĠâĢ ļ
Ġc ard
ç ı¾
Ð° ÑĨÐ¸Ð¾Ð½
O W
ill o
ĠÐ¾ ÑĦ
ĠÑĤ ÑĢÐ°Ð½
esz cze
Ġmonth s
Ġman agement
Ġquest ions
ãĥ³ãĤ º
ĠÐ¼ ÑĥÐ¶
Ġ, "
ĠÑĥÑģÐ» ÑĥÐ³
ç ¢º
Ġdz iaÅĤ
ÐµÐ² Ð°
Ġtra vel
ĠÑģÑĤ Ð°ÑĢ
ĠAmeric an
è£ ½
ĠDeutsch land
Ð°Ð» Ð¾ÑģÑĮ
Ġjed nak
ĠW ie
ĠGe w
our ce
ãģ¦ ãĤĤ
.... ....
led ge
er y
ĠÑģÑĤ Ð°ÑĤÑĮ
kt y
Ġf re
ĠÐ± Ð»
ĠM ed
ãĤį ãģĨ
ĠÑĥ ÑĢÐ¾Ð²
ĠÄĳ Ã¡nh
Ġ201 3
at ural
Ð¸ÑĤ Ñĥ
Ġth ÃŃch
ber g
Ġå Į
Ġch áº¿
Ġtout es
Ġp ur
ic olo
Ġè ¦
Ġnuo vo
Ġto t
us o
çĬ ¶
ient es
ãģ¨ ãģĭ
or ing
ĠÑĥ ÑĤ
Ġv end
et y
áº¯ p
ĠæĿ ±
ĠÃ Ĳ
ni fic
Ġn áº¿u
os c
ç¾ İ
ĠM á»¹
ĠÐ´Ð¾Ðº ÑĥÐ¼
o f
Ġc red
Ġsar Ãł
ch os
ĠM as
Ġge ht
Ġrem ain
Ġsh o
å° ı
ĠÐľ Ñĭ
eit en
ici ones
uyá» ħn
Ð «
Ġalt ro
Ġm igli
Ġdei x
æŃ £
on as
Ġm ujer
ĠÐŀ Ñģ
Ġv ra
Ġa j
ĠS in
Ġå ¾
Ġcom ent
ãģ®å ı
Ð¸ÑĩÐµÑģÐº Ð¸
k l
at r
ĠÑĪ Ðº
Ġzna j
u zione
ĠH aus
ĠS c
a Ã§Ãµes
è ĳ
Ð°Ð» Ð¸ÑģÑĤ
ĠÐ¸Ð· Ð¼ÐµÐ½
ç½ ®
Ð°Ðº Ñģ
Ġear ly
Ġapp ear
æ Ļ
çľ Ł
Ġthough t
ĠÑįÐº ÑģÐ¿
Ġre le
Ġimpro ve
ãĥ³ãĥ Ĺ
Ġpr imo
ĠGr und
Ġc ung
ç· ļ
ĠÐº Ð»Ð¸
Ð¾Ðº Ð°
Ġvá» «a
Ġgovern ment
Ġr im
Ð¼ Ðµ
Ġsi ze
ĠÐ½ Ð°Ð¼
Ġd ru
ĠÐ² Ð¾Ð»
Ġl at
Ġna w
Ġgrand e
am enti
á»± a
ĠÐ³ ÑĢÑĥÐ¿Ð¿
Ġyou ng
Ð¾Ð¶ Ðµ
ĠÐ· Ð°ÑıÐ²
Ġt our
ï¼ ĵ
Ð¡ Ð¢
Ġch Æ¡i
Ðº Ð°Ð¼Ð¸
çļĦ ãģª
Ġta x
ĠÐŀ Ð½
Ð¾Ð³ ÑĢÐ°ÑĦ
il s
o pp
ÐµÐ¹ ÑĩÐ°Ñģ
Ġ201 2
ich te
ĠÑįÑĤ Ð¾Ð¹
ĠP ero
Ġtra ining
ĠÐ±Ñĭ Ð»Ð°
ĠÐ½Ð° ÑħÐ¾Ð´
ĠÐ¼Ð¾Ð¶ÐµÑĤ Ðµ
Ġan tes
ä¸ ĸ
ãģı ãģª
ym i
Ġm ot
Ġnue v
Ðł Ñ
k ich
Ġiss ues
iv el
ãĥ³ãĥ Ĩ
Ġdá»± ng
ä¸ »
Ġap enas
gra f
æ ¼
ï½ Ĺ
ĠW or
1 8
Ġgi áº£m
Ġsing le
m ier
Ñĥ ÑİÑĤ
Ġest ar
Ġl á»ĭch
ĠÑĥ Ð¿ÑĢÐ°Ð²
m ie
ic y
n ers
Ġpra c
Ġfin an
Ġtá»ī nh
ig ung
ĠW as
Ġc ame
our ces
ÑĢ Ð¸ÑĤ
Æ°á»£ t
Ġe conom
ĠK le
Ġen ergy
ĠP rze
art ment
Ġa f
owan y
Ġp al
Ġb a
Ġdown load
Ġgi Ãł
ĠEst e
ĠÄĳ Ã¡
ĠÑĤÐµÐ» ÐµÑĦ
Ġnuest ro
vel opp
ĠÂ §
ĠÐ½ ÐµÐº
jÄħc ych
Ġb en
und es
Ġz wei
ĠÑįÑĤ Ð¾ÑĤ
Ġï¼ ı
c ut
ĠÄĳ áº·t
Ġãĥ» ãĥ»ãĥ»
Ðº Ð¸Ð¹
Ġper io
Ġs ito
Ġres ult
Ġequ ip
o y
ĠJ u
ĠE N
1 9
ĠSt adt
Ġma chen
ĠR ep
Ġprim era
Ð¾Ð» Ð¶
Ġfon ction
ÑģÐº Ð°Ð·
ĠÐºÐ² Ð°ÑĢÑĤ
ĠD aten
£ i
åħ Ī
ĠÐ² ÑĤÐ¾ÑĢ
Ġhat te
h ing
ĠÐ¼ Ð°ÑĪ
Ġtut te
r ada
ĠMens chen
é ¦
he im
Ġtien en
è Ħ
Ġproper ty
Ġdi z
7 0
ight s
Ġwhe ther
Ġstud y
áº± m
Ġcomple te
Ġn Ã©
ĠãĤ ¿
Ã¤ s
ĠÐ¿ÑĢ Ð¾Ñģ
Ġest Ã£o
åı¯ èĥ½
èª ŀ
f y
Ġes se
Ġs ell
Ġder e
Ġmais on
Ġche z
h os
Ġdiff Ã©r
Ġpers one
ãģ«ãģª ãģ£ãģ¦
Ð¸Ð¼ Ð¾ÑģÑĤÑĮ
Ġp ick
in y
ische r
al f
Ġch at
Ġt iáº¿t
Ġ" .
ĠÐ°Ð²ÑĤÐ¾Ð¼ Ð¾Ð±
Ġim m
Ġsim ple
Ġrequire d
è² »
Ġsp Ã©
Ġperform ance
agg i
ÃŃ cio
Ġat ra
en ze
Ġte cn
Ġr ze
en ne
Ġv a
ÑĢÑĥ Ð±
Ġtu á»ķi
ãĥ¼ãĥ Ĺ
Ġr ich
Ġs op
ÐµÐ³ Ð´Ð°
Ġso bie
Ġmo is
:: ::
f s
Ġkh Ã³
ill ed
Ġkh á»ı
Ġman era
rÃ³ d
un ch
ĠÐ¶ Ð¸Ð·
Ġwon der
Ġpe que
im enti
olog ia
ĠãĤ »
ic c
åĻ ¨
ĠÐ² Ð°Ñģ
Ð¾Ð´ Ð°ÑĢ
ĠT od
Ġn á»Ļi
ÑĭÐ² Ð°ÑĤÑĮ
z immer
Ġdo ch
Ġex ten
Ġare as
Ġme jores
Ġtou jours
ãģª ãģĮ
c am
Ġ ãģŁ
Ġp ia
ĠT ag
áº· p
ÑĥÐ»Ñı ÑĢ
i ers
Ġs ays
Ġsch n
z ent
Ġwho le
ĠÑģÐ¾Ð¾ÑĤÐ²ÐµÑĤ ÑģÑĤÐ²
Ġt res
Ġne ue
Ġm Ã¼s
Ġng ay
Ġby ÅĤo
D F
ãĤ¿ ãĤ¤
Ġh ope
Ġf ive
er ca
ĠWo hn
å¸ ¸
Ġlu Ã´n
ĠÐ¼ Ð°ÑĢ
ç´ ł
ãĤŃ ãĥ£
ĠÐ´ ÐµÐº
Ð½ Ð¸Ñħ
ue go
Ġt Ã©lÃ©
ĠM us
c Ã©
ĠÐ¿ÑĢÐ¾ ÑĪ
Ġm ess
ra gen
ĠB á»Ļ
st ag
ĠWh ile
ĠÐ¿Ð¾Ðº ÑĥÐ¿
Ð°Ð½ Ñĭ
r Ã¡
Ñĳ ÑĤ
is c
ĠI N
ra p
ĠP lease
Ġall es
Ġ3 6
ful ly
ĠPers on
Ð°Ð½ Ð¾
çµ Ħ
r icht
Ġto ok
ĠN ot
Ġhapp en
Ġa mp
Ġb Ã¬nh
li que
Ð¾Ñı Ñī
ĠÐ¾Ð± ÑıÐ·
Ð¾Ð´ ÐµÑĢÐ¶
ãģ® ãģ§ãģĻãģĮ
Ġab y
Ġob jet
id Ã©
ĠÐ½ Ð°Ð±
Ã¼n st
Ġnh anh
ĠÐ¼ ÐµÑģÑı
Ñĥ Ð¹
Ġqu er
Ġpol ÃŃt
Ñĥ Ð»Ð¸
Ġd amit
Ð¸ ÑĦ
ĠÐ·Ð° Ñī
i O
Ġre d
Ġav ait
za hl
Ġs it
t as
ÅĽ nie
Ġman ag
Ġquel ques
Ġf oto
ĠÃ© lect
Ġgr up
Ġlá» Ŀi
ÐµÑģÑĤÐ² Ð°
Ð¸ÑĤ ÐµÐ»Ð¸
Ñĥ ÐµÑĤÑģÑı
Ġh Ã£
is z
po is
Ġæ ¥
áº· ng
ĠN ow
Ġç Ħ
Ġvari ous
Ġtak ing
ĠNg uyá»ħn
ĠÐ¶Ð¸Ð· Ð½Ð¸
Ġav is
ĠÃ Ĩ
Ð° ÑģÐº
is me
Ġper cent
Ġacc ount
Ġc amb
Ġf Ã¼
ĠÑģ Ð½
ass er
ĠÐ¾Ð± Ð¾ÑĢ
Ġparti cip
m bro
Ġte j
Ġm iesz
Ġm á»įi
ĠIn form
Ġgrand es
Y W
et er
ĠS ome
Ġv iele
ĠÐºÐ¾Ð¼Ð¿ Ð°Ð½Ð¸Ð¸
Ġf aci
Ġot ra
Ġ ents
Ġaqu i
aÅĤ y
Ġtrava il
Ġcomm on
ĠÑĥ Ð³
ãģĶ ãģĸ
Ġup d
Ð°ÑĤÐµÐ»ÑĮ Ð½Ð¾
i Ã£o
ĠCh icas
st Ã¤nd
Ġso ci
Ġp ress
ĠEs c
r al
é Į
szy ch
ãģķãĤĮ ãĤĭ
ĠÄĳ áº·c
Ġfa ut
k ol
ĠÑģÐ² Ð¾Ð¹
Ġp ays
Ġb áº¯t
ĠÐ¾ Ð³
Ġv ar
ĠÃ Ģ
ĠÐ¿ÑĢ Ð¸Ñĩ
Ġe ither
Ġte a
ĠR oma
Â ±
Ġh Æ°á»Ľng
Ġx Ã¢y
ĠmÃł u
Ġm at
un ci
ĠÐ» Ð¸ÑĪ
Ġh i
ka ch
ĠÐ´ ÐµÐ²
Ð Ļ
Ġfollow ing
ru ction
Ġer st
ĠÑģÐ»ÑĥÑĩÐ° Ðµ
Ġwy kon
em ber
g lio
ĠÄĳ áº¡o
ĠdÃ© b
Ġf urther
Ġtá» Ń
ĠÐ¿ Ð¾Ð³
id ay
ed ad
á» ĥ
ÐµÐ´ ÐµÑĢ
Ġcomp ut
Ġl ater
å¼ ·
Ġe au
Ġj eszcze
Ã§ as
Ġse it
áº« u
Ġfor am
ĠãĤ ¦
Ġph á»ĳ
Ġd nia
Ġngh á»ĩ
Ġhab it
Ġt as
ĠC zy
Ġw all
ĠJo hn
Ġide a
Â ·
Ġo st
ĠÃ ĩ
ãĤ³ ãĥŁ
U E
ĠEsp aÃ±a
ãĥ³ãĥ ģ
f le
ĠAr tik
Ġg dy
c oup
Ġs á»©c
Ġdi as
Ġæ Ń
Ġm áº¡nh
en z
ãģ£ ãģ
Ġtá» ·
Ġv oir
Ġtr at
Ġn á»¯
iáº¿ m
ĠÃ ¤
Ġnh á»ı
ãĥ¼ãĥ ĸ
e in
Ġt able
Ġdesp uÃ©s
Ġl iving
k ing
æĿ Ĳ
Ġencu ent
Þ ¬
Ġho y
ä¾¡ æł¼
Ġam ount
Ġst ata
Ġa ud
è ı
Ġt i
ar o
Ġsty le
c l
Ġsome one
rit to
Ġc ro
ä½ ı
Þ ª
ĠE ine
x ico
Ġp ain
u ciÃ³n
Ð¸Ð² Ð°ÑĤÑĮ
ĠÐ·Ð°Ðº Ð¾Ð½
Ð ¬
ÑĭÐ² Ð°ÐµÑĤ
Ð°Ð»ÑĮ Ð½Ð°Ñı
Ð¸Ð² Ð°ÐµÑĤ
ĠÐ¡ Ð¾
Ð½ Ð¸Ñĩ
ĠÐ¿ Ð¾Ð±
ĠÐºÐ¾Ð¼ Ð¿Ð»
__ __
ĠAs s
Ġme as
ĠÃ¡ re
Ġnuest ra
ĠÐĲÐ» ÐµÐºÑģ
b ild
Ġå ¼
Ġcos a
g ung
ta ge
Ġthu áºŃt
Ġal ors
Ġwom en
Ð¿ Ð¸Ñģ
æĦŁ ãģĺ
ĠD el
to ire
Ġdesign ed
-- --
) ;
Ġr Ã³Å¼
7 7
ĠÑģÐ» ÑĥÐ¶
ä½¿ çĶ¨
ĠãĢģ ãĢĮ
Ð¸Ð¼ ÐµÑĢ
ĠÐ¼Ð°ÑĤÐµÑĢÐ¸ Ð°Ð»
ĠJ ust
Ġje j
Ġesp aÃ±
Ġp ens
çŃ ī
Ġh otel
Ġpro jet
Â ¿
ĠÑĢÐ°Ð· Ð»Ð¸Ñĩ
ĠC z
ĠChr ist
ãģ¡ ãĤī
ad y
Ġun ique
Ġspe ak
Ġass im
ou d
Ãº de
Ġins p
Ġse ja
å¸ ĥ
Ġa mong
ÑĥÑĤ ÑĢ
Ġin de
ä¾ Ľ
ĠÑħ Ð°ÑĢÐ°ÐºÑĤÐµÑĢ
Ġmed ia
Ġw Ã¼r
id ente
m ann
il ar
w ia
Ġst aff
Ġ ãģ«
ent lich
iÃª m
Ġn or
Ġde cir
ĠE S
Ġká» ³
Ġdo cum
Ġ ul
Ġneed ed
Ġcel a
Ã °
Ġrel ations
R O
h aus
ouvel le
Ġpro b
b au
R A
ĠÑĩ Ð¸Ñģ
á»« ng
ãģ¨ ãģĵãĤį
ĠG ia
Ġadv an
ãĤ ¡
n ud
l ica
Ġfr ont
ĠÐ¾Ð± ÐµÑģÐ¿
Ġse en
un kt
ie urs
re et
ãģĹãģ¦ ãģĦãģ¾ãģĻ
ĠÑĢ ÑĥÑģ
ess e
ãģ ²
ĠãĢ ľ
w iÄĻ
iv ate
Ġm Ã¶
ien s
Ġth anh
Ġw ÅĤa
Ġe igen
Äħ c
f ang
Ġj ou
åĮ º
Ġï¼ ĳ
Ġhum an
ĠÐ± Ð»Ð°Ð³
le ur
Ġespe cially
è£ ħ
ap s
Ð» Ð°Ð¼
ĠP el
f te
ri que
Ġnost ro
ĠÐ¿ÐµÑĢ ÐµÐ²
åĪ Ŀ
uf act
Ġnh Ã¬n
æĹ¥ æľ¬
Ġn Æ¡i
en ces
Ġhe cho
ĠÑĤ Ð°Ð¼
Ġor g
á» Ľi
u che
ĠO ff
Ġpor t
li wo
ÑĢÐ° Ñħ
Ġa ch
ÑĢ Ð¾Ð±
Ġw ent
ĠM o
Ġn ada
Ġcho ose
ĠÐķ Ð²
is ation
hal t
ÑĢ ÑĭÑĤ
Â ¸
Ġâĸ ł
Ġass ist
Ã» t
Ġde ci
d zy
Ã¡ ct
en de
ob ie
ig os
ĠW elt
ĠEuro pe
Ġb in
Ð°ÑĤ Ð¾Ð²
ÑĢÐ° ÑģÑĤ
Ġm id
ier a
ĠÑģÐ¾Ð± ÑģÑĤÐ²ÐµÐ½
Ġs zy
ãĥ© ãĤ¹
Ġv áºŃt
ÐµÑĤ ÑĢ
Ã³ g
Ġph á»¥c
ĠPost Ã©
ip s
ãĥŃ ãĤ°
b ili
Ġqu indi
a zioni
Ġqu ite
Ġb amb
olog ÃŃa
cz ne
Ð° ÑĨÐ¸Ñİ
is p
ÃŃcul o
ĠÐºÐ¾Ð» Ð¸Ñĩ
Ġse ine
Ġpra cy
ĠÐ¿ÑĢ Ð°ÐºÑĤ
Ġph á»¥
Ġoff ice
Ġra cc
Ġ ãģª
rÃ© e
Ġeng ine
ĠdÃ© s
Ġb á»Łi
Ð¾Ð² Ð°Ñı
c os
ĠCom o
å ²
Ġth áºŃt
Ġfa ce
ĠF ar
Ġda i
áº¡ y
ãģ© ãģĨ
ĠÐ³ Ð¾ÑĤÐ¾Ð²
Ġf ino
çĦ ¶
ĠT H
Ġo c
ĠB y
á»ķ ng
il ia
Ġquy á»ģn
Ġtá»¥ c
c ome
Ġ: #
l Ã¨
id ence
la u
ä» ĸ
Ġat ta
00 0
b les
ÑĨÐ¸ Ð¿
ĠwiÄĻ cej
ÑĥÐ½ Ðº
Ġser ies
ĠÐ¾Ðº Ð°Ð·
ÑĥÐ· Ñĭ
u ale
Ġinclud es
Ġpersonn es
Ã¤ re
Ð¾Ð´ Ñĭ
ī ĭ
ob a
Ġe fect
Ġa ten
forma zioni
Ġw i
ĠÐ² Ð¾ÑĤ
ÑĢÐ° Ñĩ
ess er
ir l
hal b
ĠÑĥ Ð·
Ġde ter
Ġc ze
at ivo
gg est
Ġph Ã¢n
Ñĥ ÐºÑĤ
er ie
Ð ¥
u ck
g th
Ġsimp ly
ĠÐº Ð°Ð¼
ur idad
Ġens ure
im ate
Ġst an
Ð¸ÑĤ Ð°
Ġtr iá»ĩu
Ġel a
Ġquest ion
ĠÂ ¬
p te
ĠÑį ÑĦÑĦ
sel ves
æµ ·
ni ki
ĠÑģÑĤ Ð¾Ð»
r Ãł
æĪ ¦
Ð» ÐµÐº
th ough
r an
Ġge f
Ġ201 1
ĠÑģ Ð¾ÑĤ
ãĤī ãģĦ
Ġprovid ed
ĠÐ¡ Ð°Ð¼
ro du
Ġb iáº¿n
um e
ãģ§ãģĻ ãģŃ
ĠP ub
ver t
ag a
lic her
Ġ à²
Ġg áº§n
Ġpre cio
ÐĿ Ðĺ
ĠA ut
ĠÐ°ÐºÑĤ Ð¸Ð²
ic ulas
Ã Ĺ
Ġwh ite
ÐµÐ½ Ñģ
ĠÐ½ÐµÑģÐº Ð¾Ð»ÑĮÐºÐ¾
çļĦ ãģ«
I O
Ġbel ieve
Ġpl ann
ĠÑı Ð·Ñĭ
Ġn ivel
Ġfun ction
* *
Ð°Ð» Ðµ
ĠÐºÐ¾Ð½ ÑĤÑĢ
ĠÃ Ħ
k er
ich ten
ĠB Ã¬nh
Ġo ra
Ġm ill
g no
Ġh Ã´t
Ġm ach
r ig
éĥ ½
Ġæ Ĭ
Ġh áº¿t
èª Ń
Ġdes envol
Ġo ggi
Ġc ell
ast ic
Ġhist ory
Ġf ollando
ĠsÃ³ lo
ĠÑĥ Ð¼
Ġh alf
Ġof er
Ġdo is
ãģŁ ãģ¡
ãĥĸ ãĥ©
Ġf it
ĠÐ½ Ð¾Ð¼
Ã¤ ft
ch ar
at ic
ĠÃ ¥
Ġtr á»£
Ġå ī
Ġsig nific
Ġcustom er
åħ ·
Ġ: )
ĠÐļ ÑĥÐ¿Ð¸ÑĤÑĮ
ĠÑįÐº Ð¾Ð½Ð¾Ð¼
ĠUn ited
Ã¶ ff
Ġ @
it ing
Ġk ol
ĠÑģÐ¼ Ð¾ÑĤÑĢ
Ġc ult
1 3
ĠT est
ÑıÑĤ ÑģÑı
ber o
Ð³ Ð°
ĠJahr en
Ġâ Ļ
war z
ĠÑĥ Ð±
Ġh ombre
k ar
Ġs ci
æ± º
Ġa unque
ĠÑģ ÑĥÐ¼
Ġg h
å½ ¢
Ġs itu
Ã³r io
Ġque m
forma Ã§Ãµes
Ġh ost
Ð¸Ñı Ñħ
Ð¸Ñģ Ñģ
Ġencont rar
Ġj ours
Ġm ag
Ġt re
ĠÐ¼ Ð¾ÑĢ
Ġ. .
ĠI hnen
n ung
Ġot ras
ul ation
Ġw oll
z w
ĠS u
åİ Ł
Ġexp ect
Ġf ra
Ãª t
Ð §
ĠÐ´ Ð°Ð²
ÐµÐ» Ð¸Ñĩ
åı ·
Ġes a
Ġg lo
Ġb Ãłn
Ń Ĳ
ĠÅ ģ
ues ta
ĠÑĨ ÐµÐ½ÑĤÑĢ
st o
Ġesc ol
as ing
Ġsu ggest
la gen
Ġprote ct
ie ty
ĠP are
Ð¸Ð·Ð½ ÐµÑģ
ĠÑģÐ» Ð¾Ð²
i um
çĽ ´
ut en
ĠÑģ Ð¸Ð»
ow Äħ
è ĸ
u elle
Ð¸Ðº Ðµ
Ġk it
ĠãĤ ±
Ġgior ni
am t
Ġperm et
iÄĻ dzy
Ġd am
ind e
å§ ĭ
ãĤ ©
Ġdi g
Ã¢n cia
Ġm áº¹
ĠÑģ ÐºÐ°ÑĩÐ°ÑĤÑĮ
ĠÐ¾ÑĤÐ½Ð¾ ÑĪ
Ġs ais
os i
Ġc laim
Ġent ire
ĠWe b
Ġc ie
ĠÑĥ Ð¿
ĠUnter nehmen
ĠP DF
res h
Ġwrit ing
ĠÐ²Ñģ ÐµÐ³Ð´Ð°
Ġun os
! !
ãģĵãģ¨ ãģ¯
Ġg odz
ĠS a
Ġb ra
Ġn atural
Ġperio d
å¿ħ è¦ģ
Â ¶
Ġp ou
al en
Ġpa per
Ġth ay
Ġap ro
s iÄĻ
Ġab r
isse ment
ru pp
ĠA uch
Ġs ab
ĠV ideo
ĠÐ½Ð°Ð¿ ÑĢÐ°Ð²
ĠÐ´Ðµ ÑıÑĤÐµÐ»ÑĮ
ĠÐ±ÑĥÐ´ ÑĥÑĤ
Ð¸Ð» Ð°ÑģÑĮ
Ġet c
Ġann Ã©e
i als
Ġes sa
c ci
Ġme u
ze ug
s I
Ġrep resent
ĠÄĳ Ã¬nh
al d
Ġrec ens
ĠW eit
ãĥ¡ ãĥ³ãĥĪ
ti es
ĠÃ ¦
Ġsp os
ĠMil ano
as se
è ĭ
v ier
Ġapplic ation
Ġin tÃ©
Ġåħ ¨
Ġyour self
Ġna p
Ġtrav Ã©s
Ã´ m
Ġid enti
ãĥķ ãĤ£
Ð´ Ð¶
om ing
g ed
Ġter m
Ġan te
Ġattiv itÃł
Ġbeau coup
ãĤ¤ ãĤ¯
{ "
Ġein z
Ġo ltre
ĠãĤ Ħ
Ġfaci l
Ġa nge
Ġh in
Ġap lic
Ð¾Ð³ Ð¾Ð²Ð¾ÑĢ
ãĥ¼ãĥ ĵ
Ġext ra
ãģĺ ãĤĥ
ÐµÐ´ Ð¸Ð½
Ġv Ã´
ĠÂ ®
g leich
ste ad
Ġrel ated
ĠU r
Ġprofess ionn
ĠA ngebot
Ġch á»©ng
Ġdzie ci
Ġpre p
iáº¿ c
ĠU omo
Ġany thing
ĠprÃ©s ent
Ã¤ uf
ãĤ· ãĥ£
x im
Ð½ ÐµÐ³Ð¾
fic ation
Ġl áºŃp
Ġa zien
Ġdal le
ition al
L CJ
Ġse Ã±
Ġempres a
Ġin forma
Ð¸Ð² ÑĪ
Ġmo i
Ġs Ã¡ch
ond i
ãĥ³ãĤ ¸
ãĤ ²
Ġfa vor
Ġsoft ware
b ilitÃł
Ġme in
ĠC ity
ĠÑĤ Ðµ
ĠÄĳ Æ°a
ĠBar celona
ĠÐł Ñ
å ©ļ
Ġd ate
an ol
Ġç Ļ
si Ã³n
Ðº Ð°Ð½
Ġd á»ħ
ĠÐ· Ð°Ð³
Ġswo je
ĠÐ§ ÑĤÐ¾
l l
Ġãĥ Ŀ
Ġwy k
ĠZ ap
el i
ient ras
Ġrequ est
ÐµÑĢ Ñģ
Ġc lick
Ġpu is
å ¡
ĠÑĤ ÑĥÑĢ
Ð¸Ð»Ð¸ ÑģÑĮ
un a
z io
ar ning
Ġev ents
ĠÑĢ Ð¾ÑģÑģ
Ġph ys
Ð¾Ð½ Ð¾Ð²
Ġsc ar
Ġide as
Ġvá» ±c
Ġl iv
Ġp otre
Ġgior no
ç ¸
Ġ ig
ĠK ar
Ġcomp r
Ġv iáº¿t
Ġa ma
al ten
Ġde be
Ġprim er
ÑĮ Ðµ
åĪ ¶
m ing
á» ħn
ach ing
ĠÑģÐ´ÐµÐ» Ð°ÑĤÑĮ
Ġknow ledge
ÐµÑĢ Ðº
Ð½Ð°Ðº Ð¾Ð¼
v imento
ĠK e
Ġevery one
ast ÄĻp
ed i
ãĥ¥ ãĥ¼
pl ay
Ġopt ions
Ġpossi bile
Ġproble ms
at Ã¼r
Ġcl ose
Â ³
Ġw atch
Ġm ont
Ġn un
Ġb lack
Ġexp l
ĠM in
Ġdes s
Ġdiff ic
Ġth ird
ĠA ng
Ġqu ella
Ġal most
Ġqual quer
ed a
ĠÐ¿ Ð¾Ð¶
ĠÐºÑĢ ÐµÐ´Ð¸ÑĤ
ien ie
Ġhor as
c an
Ġt inh
er ing
Ġnh áºŃp
Ð°Ð² ÑĪ
Ġa ge
Ġdi á»ĩn
ç¨ ¿
Ð¾Ð± ÑĢÐ°Ð·
Ġutili zz
é ¤
ÑģÐº Ð¾Ðµ
al la
or no
Ġc ali
ĠÐºÐ¾ÑĤÐ¾ÑĢ Ð°Ñı
Ġpe w
Ġv ic
ĠF otos
ĠH ere
en iu
Ġdi á»ħn
ĠÐ¿ÑĢÐµÐ´ Ð¿ÑĢ
ãģª ãģĭãģ£ãģŁ
å ĩ
Ð» ÐµÑĤ
Ġs elf
ĠÑĥ ÐºÐ°Ð·
Ġblo g
ĠCom ment
Ġdo v
Ä© nh
Ġst op
ãģĦ ãģĨ
ĠC ome
, "
ç ¯
ĠÐľ Ð¸Ð½
ÐµÐ¼ Ð¾Ð½ÑĤ
Ġãĥ Ł
ĠV Äĥn
Ġn á»¯a
Ġpod em
ist es
ĠÐºÐ¾ÑĤÐ¾ÑĢ ÑĭÑħ
Ñħ ÑĢÐ°Ð½
Ġpro g
2 3
ãĥ© ãĥ¼
ãĥ³ãĥ Ģ
Ġw ays
ĠÐ¿ÑĢÐ¾ÑĦ ÐµÑģÑģ
Ġap resent
ãģªãģĮ ãĤī
pp er
ÐµÐ½ Ð½Ð°Ñı
ĠA u
Ġpet it
un ter
Ð¸ÑĩÐµÑģÐº Ð°Ñı
Ġh owever
ĠS outh
ĠÐ° Ð¿
ist ra
Ġm iss
Ġst ra
ouve z
ĠÐ¿ÑĢÐµÐ´ Ð»Ð¾Ð¶
co ver
ĠM inh
t et
ĠÐ¿Ð¾Ð´ Ð´ÐµÑĢÐ¶
åı İ
Ġcal idad
is en
1 4
åħ ¬
s atz
l uss
om p
ãĤ¿ ãĥ¼
Ð°Ð¶Ð´ Ð°Ð½
Ġcli ents
Ġnue va
Ð¸Ð½ Ð¾Ð²
Ġk iá»ĩn
è ĩ
anÃ§ as
auss ures
ĠN gh
Ġg Ã¢y
ĠÐ¼ Ð¼
Ġadd ed
Ġg an
ĠÑģ Ð¾Ð´ÐµÑĢÐ¶
Ġvol ta
E C
8 0
Ġin iti
Ġf oot
ĠÐ¸ Ð´
Ġsp o
ĠÑģÐ¿Ðµ ÑĨÐ¸
ĠÐ· Ð°ÑĤ
Ġng uyÃªn
Ġespe cial
Ġm iá»ħn
Ġcommun ic
ãģ¨ ãĤĤ
Ġãĥ ī
Ġb an
ĠÐ²Ñĭ Ð±Ð¾ÑĢ
Ġs Ä©
Ġdetail s
Ġãĥ Ļ
Ġå ¯
Ġpart icol
Ġsystem s
Ġãģ Ķ
Ð°Ð± Ð¾Ñĩ
Ġt Æ°á»£ng
Ġreg ard
ĠÐ² Ð°Ð¶
Ġph one
áº£ y
as es
Ġro ad
ĠJa hre
Ġo il
Ġel los
ĠÐł Ð¤
Ġsiste ma
Ġzw ischen
¥ ¿
ĠÐ²Ð½ Ð¸Ð¼
Ġwy p
ãģ¾ ãĤĬ
Ġpar ty
ied y
ĠN áº¿u
ĠN ue
ĠÐ´ÑĢÑĥÐ³ Ð¸Ñħ
Ġg ames
Ġfr anÃ§ais
Ġso on
ĠÑģÐº Ð¾ÑĢ
Ġg ar
p re
Ġmod el
Ġcre ated
ĠÑģ ÑĥÑīÐµÑģÑĤÐ²
em ble
Ġtr ze
Ġf ul
Ġle arning
ÐµÐº ÑģÑĤ
ĠM á»Ļt
Â ¾
ï¼ ķ
ĠDies e
Ġãĥ ģ
ÑģÑĤÑĢÑĥ Ðº
Ġé Ŀ
Ġu omo
ĠÐŁÑĢ ÐµÐ´
ĠÐ½ ÐµÐ²
Ð°ÑĤ ÐµÐ»ÐµÐ¹
ĠÐ²Ñģ ÐµÐ¼
ĠÑģ ÐµÐ³Ð¾Ð´Ð½Ñı
ĠrÃ© alis
ĠÐ¼ Ð¾Ð¼
Ð¸Ð» Ð¾
Ð¸Ð¼ Ð¾ÑģÑĤÐ¸
Ġå º
ĠÐ¿ÑĢ ÐµÐ¿
ĠÑĢÑĥÐ± Ð»ÐµÐ¹
Ġl ung
Ġread y
Ġg ente
ane iro
Ġt iÃªn
Ġdies es
Ġvo y
Ġnet work
ue il
z n
è Ĭ
Ġcons um
unt os
Ġcl os
ĠÐ± ÐµÐ»
Ġto m
g ent
çĻ »
Ġmed io
Ġc rit
ĠC Ã³
ĠÐ²Ðº Ð»ÑİÑĩ
ÐµÑĢ Ñħ
ĠÐ¿ ÑĥÑĤ
Ġtod a
Ġve h
Ġch ung
ien ce
ãĥķ ãĥĪ
u ppo
ĠN ational
Ġlik ely
Ġk iáº¿n
ĠÐ² Ð¾Ñģ
Ġ( "
ĠN orth
Ġnghiá»ĩ m
Ġinf l
ĠãĤ °
Ġam or
es i
ĠT P
ĠEst a
ĠP ark
ĠâĢ ¢
Ġch iáº¿n
ce p
Ġaj ud
Ġu cz
Ã ¸
ĠÑģÑĩ Ð¸ÑĤ
Ġpop ular
e x
em mes
Ġs icher
ÑĥÐ´ Ð°
Ġt w
çµ Ĥ
Ð°ÑĤ Ðµ
il o
éĮ ²
zÄħ dz
ĠÐ²Ð¾Ð· Ð´
å¤ ©
Ġvá» ĩ
te gr
Ġsz czeg
1 7
Ġb á»ı
ed e
Ġl Ã²ng
è¡ ĵ
ĠÐ´ Ð¾ÑģÑĤÐ°Ð²
Ġ3 5
ĠÑĢ Ð°ÑģÑĤ
Ġpos ition
Ġlá» £i
åĬ ¹
é ¢¨
¡ ng
Ġ ãģ§
ĠdÃ© velopp
or z
Ġc Äĥn
ct u
ãĥĨ ãĥ«
Ġnas ze
ãĤģ ãĤĭ
Ð¸ÑĨ Ñĭ
ur z
Ġcolle ct
un cios
èĤ ²
ĠÐ´ÐµÑĤ ÐµÐ¹
Ġimp act
Ġ. âĢĿ
r er
ap a
èģ ŀ
Ð» Ð¸Ð½
ann t
Ġrece ive
ĠÑģÐ°Ð¹ÑĤ Ðµ
k im
å »
aÃ± o
g est
cuer do
Ġãĥ Ĩ
sch ied
æ Ĵ
Ð½Ð°Ðº Ð¾
d f
n ot
Ġe ben
k ti
ĠM ujer
Ġè ª
k cji
Ġd ur
ÃŃ d
Ġas soci
v re
or ti
Ġber eits
ÅĽ wiet
Ġsec ondo
Å ģ
ille t
ĠÐ²ÑĭÐ¿ Ð¾Ð»Ð½
Ġfinan cial
Ġte xt
Ġla ng
Ð ¦
ĠP e
nym i
Ġtra ck
ĠprÃ© c
2 5
Ġk l
Ġnew s
ĠÃ Į
ÐºÐ¸ Ñħ
ĠS ol
ra m
ãģĤ ãģ£ãģŁ
Ġchang es
ĠB uch
Ġdi v
ĠX xx
ĠÐ½ Ð°Ð²
ĠÐ¸Ð½ Ð´
ĠÑĦÐ¾ÑĤ Ð¾
Ġest as
Ġand ere
æ³ ¨
Ġkh iáº¿n
am m
al itÃł
Ġh y
row adz
Ġm inha
ï¼ Ī
Â °
è ·
ãĤ¤ ãĥ³ãĥĪ
Ġwur den
Ġqu and
ĠC ette
b ol
em ple
and er
Ġv ille
Ġho a
Ġb Ã©
Ġdel iver
Ġopportun ity
Ġinter es
Ġå° ı
v al
Ð¾Ð¿ Ð°Ñģ
æľ ¨
r or
ĠFr om
im entos
Ġm or
Ġw ait
u chen
ĠSt ate
Ġsignific ant
Ð°Ð» Ð°ÑģÑĮ
Ġlas sen
Ġb ras
ĠMe hr
æ ¶
on om
Ġfin al
Ġr ate
Ġst ore
Ġrecher che
j u
ĠÄĳ á»§
Ġesta ble
Ġdisp on
ĠÐ¼ Ð¾
j Ãł
ad es
Ġfe ature
Ġdef in
Ð¾Ð³Ð» Ð°Ñģ
Ġfor ward
ĠH ier
Ġd it
Ã¡ u
le x
la Ã§Ã£o
Ġno vo
åķ Ĩåĵģ
Ġag ree
h me
Ġver dad
f Ã¼r
ĠG io
ĠÑĦ Ð¸Ð½
Ð¾ÑĢ Ð¸Ñı
Ġpar f
ĠSe c
ķ ç¨¿
ãģ» ãģ©
Ġris k
ãĥ³ãĤ ·
O U
ĠÐ» Ð¸Ð±Ð¾
Ġpur p
æĿ ±
n ow
ici al
Ġqu ali
i fic
ÐºÐ¾Ð² Ð¾Ð´
Ð¾Ð¼ Ðµ
Ġs ÃŃ
Ġse em
t ro
ãģ« åħ¥
ĠÐľ Ð°ÑĢ
v ia
èŃ ·
Ã©c n
Ġson dern
ĠA ber
aliz aÃ§Ã£o
Ġhab ÃŃa
ĠÐ¾Ð±ÐµÑģÐ¿ ÐµÑĩ
Ġby ÅĤ
Ð¾Ð»Ð½ Ð¸ÑĤÐµÐ»ÑĮ
Ġindivid ual
åı °
Ġc m
Ġph im
ĠR io
Ġposs ono
ĠÂ ¨
Ġaut om
Ġwar en
Ġfun cion
ĠÐĶ Ð¶
Ã³ d
Ġc et
Ġcos as
Ġk aufen
ĠÃ ¶
ess en
Ġqual itÃ©
ĠB undes
ĠE L
Ġb ad
éģ İ
Ġwy m
ĠÄĳ a
Ġs endo
Ġm erc
ĠÄĳá» ©
Ġiss ue
ķ Ĩåĵģ
Ġda bei
Ð°ÑĤ ÑĥÑĢ
Ġcomp te
Ġdis e
it re
Ġd atos
Ġplus ieurs
Ġ": {"
k ommen
Ġequ ipo
Ġder ni
Ġdon na
Ġman ufact
ãĤī ãĤĮ
Ġrelations hip
ãĤĵ ãģ§ãģĻ
ĠBe wert
Ġpre vious
Ġv iv
éĢ ²
ale Å¼y
Ġm Ã©d
Ġsub ject
Ġcont ract
ĠSt ud
ãģª ãģ®ãģ§
Þ ¨
olut ions
Ġé ĸ
ĠbÄĻ d
w ir
er k
Ġcom er
Ġdest a
ĠÐ¼ Ð»
ĠÐ» Ð¸Ñĩ
Ġc á»Ńa
Ġr ig
res se
wi at
Ġnaw et
Ġv uel
Ð¾Ñĩ ÐºÐ¸
Ġtá»« ng
ĠNh á»¯ng
ff e
ĠSt ra
ze ich
Ġmo y
Ġkosten los
Ġsk in
ĠÐ¿Ð» Ð°ÑĤ
am bre
ĠÑĤ Ð¸Ð¿
ol z
Ġm atter
k un
j aw
Ġconn ect
ãĤı ãģĽ
Ġpre mier
Ġæ µ
wa Äĩ
ge ment
Ġsim ilar
ĠB eit
Ġa go
ues to
in ar
ãģĵãģ¨ ãĤĴ
Ġm ass
Ġus ers
ĠKh Ã´ng
et imes
ĠSe g
Ġloc ated
ĠÐ² ÐµÑģ
ari as
os p
ĠÐ½ ÐµÐ±
ĠÑģÐ¿ Ð¾ÑĢÑĤ
ĠÐ¿ Ð¾ÑģÑĤÐ°Ð²
ĠÐ´ ÐµÑĢ
ĠÐ² ÑģÑĤÑĢ
ãĥ¼ãĥ ŀ
Ġdel lo
Ġc op
Ã¹ a
Ġave z
Ġbes te
ĠÑģÐ»ÐµÐ´ ÑĥÑİÑī
Ġtak en
ie Äĩ
ĠçĦ ¡
er g
ãģĤãĤĬ ãģ¾ãģĽãĤĵ
ĠÐ² ÐµÑī
Ġdo b
ĠK Ã¼
s chen
ĠE d
Ġs ett
Ġsec urity
Ġh om
m b
Ã ¯
Ð»Ñİ Ð´
Ġcon ta
Ġr ather
ĠA cc
Ġ\ /
on ne
ĠP rzy
ĠÑĢÐ°Ð· Ð¼ÐµÑĢ
ãģ£ãģ¦ ãĤĤ
æ® µ
ãģį ãģŁ
Ġbo x
Ġesta bl
Ġpor n
Ð°ÑĢÐ¸ Ð°Ð½ÑĤ
ĠÑĢÐµÐ± ÐµÐ½
Ġatt ra
Ġh ombres
ÐµÑĢ ÐµÐ´
Ġd ic
Ġthrough out
Ġko lej
Ġè ¿
Ġeduc ation
Ð¾ÑĤ Ñĭ
Ġqu ale
Ã©rie ur
Ġd ri
qu Ã©
Ġz ro
Ġtro is
Ãĵ N
ĠktÃ³ ra
ĠÐ²ÑĢÐµÐ¼ ÐµÐ½Ð¸
Ġus ually
ĠÑĨ ÐµÐ»
d le
ĠÐ³ Ð¾Ð»
Ġutili z
and s
Ġincre ase
Ġå® Ł
A M
ag ne
Ġart icle
Ġph ong
Ġch uyá»ĩn
Ð¾Ð² Ð¾Ð³Ð¾
ĠH igh
Ġp ouv
Ġsa f
ĠÑĩÐµÐ»Ð¾Ð²ÐµÐº Ð°
Ġve ces
Ġa tiv
åĪ© çĶ¨
sch utz
ver age
is ce
t schaft
ãģĮ ãģĤãĤĬãģ¾ãģĻ
è¶ Ĭ
ĠR Ã©
Ã¤t z
ĠÐ½ Ð¾ÑĢÐ¼
ĠC al
io re
ĠH is
urs os
Ġh iá»ĥu
çĶ ·
Ġ20 20
ç ²
ĠContact os
Þª Þ
éģ Ķ
¼ åħ¥
Ġw id
i ka
ĠÐ½Ð°Ð» Ð¸Ñĩ
Ñĳ Ð½
ĠNh Ãł
ĠgiÃ¡ o
Â «
ĠA pr
Ġb om
Ð¾ÑĢ Ñĭ
å® ¢
or f
g round
t ty
Z ION
i ÅĤ
ĠÐ³ Ð°Ð·
ĠÐ¿Ð¾Ð»ÑĮÐ· Ð¾Ð²
ãĥĲ ãĥ¼
Ġmá» Ĺi
Ġtr uyá»ģn
Ġob ject
ãģ® ãģ«
Ġs otto
ĠÐ´ Ð¾Ð²
Ġus er
Ð½ ÐµÐ¼
ĠÑĤ ÑĢÑĥÐ´
Ãªn cias
ĠÐ³ Ð°ÑĢ
ĠâĢ »
Ġst ruct
gen cy
Ãĩ ÃĥO
Ġf ine
Ġa gua
ĠkÃ¶n n
Ġw ide
ĠÐ¼ÐµÐ¶Ð´ Ñĥ
æł ¡
ä»ĺ ãģį
Ġmad uras
ĠÄĳ Äĥng
å ĴĮ
ver no
ab les
Ġcitt Ãł
r Ã³n
ud i
ä¼ļ ãģĦ
æķ Ļ
Ġd in
ĠÐ´Ð¾ÑģÑĤ ÑĥÐ¿
r im
Ġn am
ãĤĤ ãģĹ
am il
ãģĦãģŁ ãģł
Ð² Ð¸Ð¶
Ġim age
æĦ Ľ
ĠÑģÐ¿Ðµ ÑĨÐ¸Ð°Ð»ÑĮ
Ġg us
Ġcurr ently
Ġhá» ıi
â Ķ
Ð¸ Ð»Ñı
Ġtak es
ĠÑģÐµÐ± Ðµ
ç¨ ®
Ġmill ones
ĠmÃ¼s sen
re w
Ġ3 4
Ġpro je
Ġs en
Ġtak ie
ĠÐ½ÐµÐ¾Ð±ÑħÐ¾Ð´Ð¸Ð¼ Ð¾
Ġra ga
Ġins urance
ĠÐ²Ð½ ÑĥÑĤÑĢ
ãģ¡ãĤĥ ãĤĵ
ĠS eite
Ġ- -
Ġw ood
f eit
Ġback ground
r ado
Ġv iene
¹ ä»ĭ
Ð¸Ð» Ð¾ÑģÑĮ
Ġsk ills
Ã¡ l
at ro
Ġcom ing
Ġcáº£ nh
Ġd Ãłi
Ġd ot
ĠF il
Ġpol it
ar tement
ĠÑģÐ» Ð¾Ð¶
ĠcÃ³ mo
ĠDe p
lic ado
Ġbes o
us es
ĠJe an
Ð°Ð· Ð´
ÑĥÑĤ ÑģÑĤÐ²
Ġcont ro
Ġout side
ĠM ark
ĠC amp
Ġp ouvez
Ġav ons
ĠP art
Ã¶glich keit
r ict
ĠÐ¿ÑĢÐ¾Ð² ÐµÐ´
Ġod pow
ĠPl us
ãĤī ãĤĮãĤĭ
Ġauth or
I L
j m
Ġis n
jÄħ cy
Ġr iv
Ġd ni
Ġke in
Ġde t
Ġs ino
Ġreg ular
Ġrecommen d
åħ ĥ
Ġprob ably
Ġp ok
Ġques ti
al ne
ä»¥ ä¸Ĭ
f re
Ġch Ã¢n
Ð°Ð½ Ð¸Ñİ
Ġtreat ment
Ġ3 2
Ġsu ite
ĠÐ´ Ð¾Ð±Ð°Ð²
up t
ĠK unden
ĠAr t
ÐµÐ½ Ð½Ð¾ÑģÑĤÐ¸
Ġsp rzed
äº ¤
estell t
E T
ĠÐ¿ÑĢÐµÐ´ Ð¾ÑģÑĤÐ°Ð²
Ġs ales
oles c
ĠArtik el
Ġtr á»±c
ĠWor ld
Ã¨ le
Ġsoll te
iÄĻ ki
Ġpre cios
Ġk ids
anh a
uy áº¿t
ten er
Ġactiv ities
Ġt Ãªn
cu la
Ġf all
ãģĦ ãģı
Ġall er
ãģ® ãģ§ãģĻ
e g
r ÄĻ
ĠÄĳá»Ļ i
ĠÐ¿ÑĢÐ¾Ð² Ð¾Ð´
Ġdr ive
¬ ĳ
ĠÐ¶ÐµÐ½ Ñī
è¿ Ķ
c ciones
è¼ ī
ĠÐ»ÑİÐ´ ÐµÐ¹
Ġk Ã½
Ġel ett
ĠdÃ© jÃł
ÑģÑĤ ÑĢÐ¾
ĠT en
ĠÐ± ÐµÑĢ
ĠÐ¸Ð¼Ðµ ÐµÑĤ
z as
Ġpo ints
ĠC ont
is o
Â ¢
Ġqu áº£n
b an
Ġst or
Ã³ ri
ãĤĬ ãģ¾ãģĹãģŁ
Ġdi jo
Ġorig inal
ĠÄĲ áº¡i
Ġden n
cj on
ion en
ĠG en
ãģĹãģŁ ãģĦ
Ġc ours
) )
it ch
Ġbu ilt
ess a
Ġprodu its
be c
èª ¬
ÃŃ p
Ġeas ily
Ġs yst
Ġa ction
ĠÐ¶ Ð¸Ð·Ð½
Ġpract ice
ç´ °
Ġtr ying
ĠÐ¸Ð· Ð²ÐµÑģÑĤ
ĠÐ°Ð² ÑĤ
Ġp an
Ġ4 5
ĠÑģÐ¾Ð² ÐµÑĢÑĪ
Ġme io
Ġhapp y
ĠÐ¸Ð· Ð±
hl t
Ġt us
rzy m
b ung
ãĥ¼ãĥ Ĩ
ãģĻ ãģĻ
Ġb ase
ĠGr an
as sen
è« ĩ
ĠE UR
ÑĢ Ð¸Ð¼ÐµÑĢ
ÑĤÐ¾ Ñĩ
Ð¡ Ð
Ġcono cer
it ud
ĠÑĥ ÑģÐ¿
Ġst at
Ġest ado
Ġpow in
ãģ®å ħ
Ġkh ai
éĸ Ģ
Ġma i
ing en
ĠAl le
Ġlav or
Ġcha que
æĥ ³
end s
at ors
ĠÐºÐ°Ð· Ð¸Ð½Ð¾
w adz
he iro
Ġot t
ãĥĩãĤ£ ãĥ¼ãĤ¹
ic aciÃ³n
ãĤĴæ Į
Ġexc ell
Ġp df
ãģ§ãģį ãģ¾ãģĻ
ou l
Ġm am
Ġl etz
es en
ĠÑĢÑĭ Ð½
Ãº m
Ġf ire
Ġhig her
ĠåĲį çĦ¡ãģĹ
Ġjus qu
Ġsi x
iÃª ng
Ġm á»¥c
æŃ ©
Ã¡ri as
ĠÂ ¢
Ġlong er
b all
Ġschn ell
Ġnouve au
Ġvers ion
Ġcred it
Ġs Ã¡t
æ ģ
Ġmuch os
ĠÑģÑĢÐµÐ´ ÑģÑĤÐ²
ĠÐļÑĢ Ð°Ñģ
le i
Ġs ag
Ġex ist
Ġcho ice
ĠÐ¢ ÑĢ
Ġni Å¼
Ġc um
aci o
ist ic
Ġer sten
Ġpas ado
¯ u
ĠÐ¼ Ð°ÑģÑģ
ar get
ãĤ¯ ãĥª
aj a
ele br
ĠÐŁ ÐµÑĤ
Ġcá»© u
Ġst esso
Ġwar to
Ġè »
Ġenf ants
Ġf ast
ÑģÐ¿ Ð¾ÑĢÑĤ
u le
Ġat ten
Ã©c ur
äº Į
ÑĢ Ð°Ð¶
ol le
áº¿ p
ĠM Ã¡s
Ġcontin ue
Ġd ati
Ġm aggio
Ġaddition al
ĠB ro
am o
Ã¡t ica
vo le
Ġit ems
Ġserv icio
Ð°Ð¹ Ð´
ĠG ra
ĠÐ¸Ð³ÑĢ Ñĭ
ãģĹãģ¦ ãĤĤ
é¡ į
la ub
Ġeff ici
ur t
ĠÃ© l
è¨ ¼
Ġrencont re
Ġin formazioni
ĠB áº¡n
b ly
ÐµÑĢ Ð½
Ð¾Ð² ÑĭÐ¹
Ġal c
Ġprzy pad
ãģĿ ãģ®
fahr en
Ġthu á»Ļc
Ġgior n
Ġej emp
Ġå ·
ard o
ç§ ģ
åĤ Ļ
up er
Ġmain tain
ir t
cc a
we g
åĥ ı
Ġro le
Ġzur Ã¼ck
Ġwant ed
Ġuns ere
ĠM r
ĠW ill
Ġpo is
anie m
ĠAd d
Ġpot ential
ais s
Ġproject s
Ġgiá»¯ a
åį ĺ
Ġpr ivate
Ġwor th
ĠM ont
Ġdo g
ÐµÐ» Ð°
Ġne uen
Ġn ive
ãĥ« ãĥĪ
fol g
Ġad emÃ¡s
Ġi ci
ĠÐ´Ð¾Ð¼ Ð°
uf en
Ġw r
ĠÑĦ ÑĥÐ½Ðº
ÑĥÑĤ Ð±
Ġrece ived
is piel
ĠIn ter
å¤ļ ãģĦ
ĠS m
åħ ī
Ġas p
ĠM Ã©
f ace
Ġj og
Ðŀ ÐĴ
Ġra p
ĠÄĳá» Ŀi
ĠD Ã©
Ġla y
u ge
Ġle v
Ð»ÐµÐ½ Ð¾
ÐµÑĢ Ð²
Ġc á»ķ
ĠÐ¿Ð¾Ð·Ð² Ð¾Ð»Ñı
ĠÐ¼Ð¸Ð½ ÑĥÑĤ
Ġè ¨
Ġf ond
Ð¾Ð» ÐµÐ²
ĠE u
ien st
Ðº Ð¸Ðµ
ak t
ĠC ons
Ġcan not
et en
ĠÑĢ Ð°Ð½
Ġf ol
å£ «
ĠÑģÑĤ Ð°Ð½
au er
Ġnie z
ãģį ãģ¾ãģĻ
ĠS uj
Ġhe ld
Ġ9 0
Ġk ommen
ĠÐ² Ð°ÑĢÐ¸Ð°Ð½ÑĤ
ĠÐ¾ÑĤÐºÑĢ ÑĭÑĤ
Ġab s
Ġkom mt
Ġt al
Ġin formaÃ§Ãµes
Ġc idade
Ġ ud
ĠG em
è Ĳ
ç ĻĤ
Ñĩ Ð¸Ðº
éĻ ¢
Ġama zing
Ġdes cu
f ind
f a
Ġï¿½ï¿½ ï¿½ï¿½
ĠTh anks
ĠÐ³ÑĢ Ð°Ð¶Ð´Ð°Ð½
ĠTh anh
u ed
Ġm á»©c
Ġacc ording
ãĤ· ãĥ§
Ġtr ue
ĠIn c
ĠÑģ ÐµÑĤ
Ġni Ã±os
ĠÐ¿ÑĢ Ð¸Ñģ
Ġå ĩº
Ġtro p
Ġre alizz
Ð¸ Ð¾Ð´
Ġç ¬¬
ĠÐ¾ÑĤ Ð´ÐµÐ»
èģ ·
ĠÐ¡ Ð¾Ð²
Ġwid th
Ġhist oria
Ġf ile
Ġch iáº¿c
Ġpo zy
g ono
wer k
Ġu w
Ġmem ber
ĠC ON
ĠÐ´ Ð¾Ð³Ð¾Ð²Ð¾ÑĢ
ĠProdu kt
ĠÑĥ Ñģ
Ġrun ning
é¡ ŀ
Ġimport ante
Ġco ok
ck e
è» ¢
ĠJ an
ress ion
Ġex act
¿ Ģ
Ġeffect ive
Ġbook s
Ġkho áº£ng
at form
it ut
w here
Ġdo it
Ġins ide
æĮ ĩ
ĠÑģÐ² ÐµÑĤ
ĠL u
b ack
ar zy
Ġg round
çĻ ½
Ð² ÐµÑĢÐ¶
Ġb ott
ãģĻãģĻ ãĤģ
ĠÑģÑĤÐ¾ Ð¸ÑĤ
Ã© ro
Ð» Ñĭ
m it
Ð½ Ñİ
èī¯ ãģĦ
dz iaÅĤ
ĠÐ½Ð°Ð´ Ð¾
ĠÐ± Ð¸Ð·Ð½ÐµÑģ
Ġpre tty
ab or
è¶ ³
k tiv
Ġz ag
Ġversch ied
Ġtot al
ci u
ĠÐ¿Ð¾Ð» Ð¾Ð¶
Ġm áº¡ng
ot ros
åĢ ¤
Ġprime iro
Ġf er
ÑĭÐ² Ð°ÐµÑĤÑģÑı
ĠÐºÐ¾Ð½ ÑĤ
te k
Ġam b
Ġco ol
Ġsc reen
ĠT er
ver o
ãģ¨ ãģį
z ug
d as
z ie
ãĤĪ ãģŃ
ĠÑģÑĤ Ð°Ð²
Ġhe ight
ĠW ars
in nen
ĠÐº Ð¾Ð¶
Ġsa ve
ĠÑĢ ÑĥÐº
Ġæ° ´
Ġnh iá»ĩm
ĠÐ³Ð¾ÑģÑĥÐ´Ð°ÑĢ ÑģÑĤÐ²ÐµÐ½
ĠB uen
Å¼ a
kun ft
Ġm ud
Ġb esch
ĠPro ble
Ġ ãģĹãģĭ
e k
ett es
gen es
Ð¸Ð»ÑĮ Ð½Ð¾
med i
Ġk onn
2 2
en Ã§a
cher s
Ġgrow th
Ġchu áº©n
Ġpart ie
at ica
Ġel se
Ġaqu ÃŃ
ĠN aj
Ã¡ nd
Ġcharact er
Ġh on
Ġsal ud
Ġfa il
Ġpos ible
ĠMit t
ĠTh u
Ð² Ð°ÑĤ
Ġalgun os
Ġorg ani
Ġn á»ķi
ĠÃ ĳ
ĠE very
äºº ãģĮ
Ġhe ute
Ġel la
ÑĮ ÑİÑĤ
k lich
Ġpartic ul
stell ung
ĠSuj et
éģ ĭ
Ñĳ Ð¼
Ð°ÑĢ Ð°
Ġann on
ĠD amen
ĠÐŁÑĢ Ð¾
Ã¨ ne
Ġpre gun
Ġatra v
Ġch ia
ĠThe o
ĠP res
Ġsa voir
Ġs le
Ġk iá»ĥm
ÃŃ veis
Ġentrepr ise
ĠY ork
ãģĹãģ¦ ãģĬ
Ġpro bl
9 0
Ġc aus
Ġ ill
ãĥ¼ãĤ« ãĥ¼
ÃŃ lia
re z
ĠEl le
æı Ľ
Ġna u
ÐµÐ¼ Ð°
ÃŁ er
Ġp Ãºbl
ĠÐ¸Ð¼ ÐµÐ½Ð½Ð¾
Ġac cept
ĠdÆ°á» Ľi
ĠA ve
f ern
Ġb ath
ÑģÑĤÐ² Ðµ
Ġopt ion
ĠÑģÐ¸ÑģÑĤÐµÐ¼ Ñĭ
Ġstand ard
ent re
ç´ ¹ä»ĭ
Ġb al
ÑĨÐ¸ ÐµÐ¹
ĠâĻ ª
Ġt áº¥t
Ġvo it
Ġc ode
æ¸ Ī
Ġsh i
Ġos Ã³b
Ġho je
Ġp icc
ĠÐº Ð°Ð¿
ĠÐ¡ ÐºÐ°ÑĩÐ°ÑĤÑĮ
ãĥ¼ãĥ ©
E L
h ib
h Ã¤lt
ar ÃŃa
Ġlos s
z pie
bi or
ĠÐ¡ Ð²
Ġpot rze
Ġpor te
ãĥĹ ãĥ¬
Ġm Ã¶glich
Ġde g
Ġa gli
å¼ µ
ĠP al
ĠÑģ ÐµÐ¹ÑĩÐ°Ñģ
Ġapp ly
ĠÐ¿Ð¾ ÑıÐ²
ãģį ãģª
Ġal tre
Ġgener al
Ġoso b
ĠÑĤ Ð¾Ð¶Ðµ
_ c
Ġd w
Ġh ol
ĠÐ¾ Ð·
ĠW ar
il der
f Ã©r
ãĥ¼ãĥĵ ãĤ¹
ĠÐĴ Ð°ÑĪ
ÑģÑĤ ÑĥÐ¿
ist r
ĠÐĳ ÐµÐ»
ĠÐĺÐ½ ÑĤÐµÑĢ
Ġth Æ°
Ġvend ita
ĠÑģÐ¾Ð² ÑĢÐµÐ¼
Ðº Ð»ÑİÑĩ
ĠÑĤÐµÑĢ ÑĢÐ¸ÑĤ
¦ ı
es ten
èĳ ī
Ġserv icios
ĠB ere
aci dad
Ð¿Ð¾Ð» Ð¾Ð¶
åı Ĥ
Ġnuo va
Ġap r
Ġâĺ ħ
ag n
ĠãĤŃ ãĥ£
Ġkh ÃŃ
Ġsc op
Ġjour n
ĠÐ²Ñĭ Ð³
Ġwee ks
Ġpr ior
Ġinclud ed
Ġn ouvelle
sk ich
ĠN el
Ġwe il
Ġpart ir
Ġn ature
ra re
Ġé £
Ġric erca
Ġex am
ĠÐ¿ÑĢ Ð¸Ð´
ãĥ¼ãĥ Ĳ
Ġac onte
Ġconcer n
czy Äĩ
A T
Ġc en
Ġquick ly
Ġwy st
ĠSta nd
ĠÐ¿ÑĢÐ¾Ð´ ÑĥÐºÑĤ
ĠH och
ä¸Ĭ ãģĴ
ĠF emme
Ġsu i
Ġdis se
Ġle ave
ter e
Ġus o
Ġm inh
Ġp un
k ten
ak ing
Ġno i
Ġl ower
ÐµÑĩ Ð½Ð¾
og le
ĠG ro
ĠF in
ĠÐ·Ð´ ÐµÑģÑĮ
Ġb Ãł
Ġza ch
i ada
ĠÐ¿ Ð¾ÑĤÑĢÐµÐ±
ĠÐ· ÐµÐ¼
ow iÄħ
or io
é Ń
Ġshow s
Ġread ing
æ ¡
Ġå ±
is ir
Ġnost ra
Ġd ung
Ġå ¿
ĠwiÄĻ c
o le
Ġvar iety
r ir
Ð¸ÑģÑĤ ÑĢ
en cias
ÑĢ Ð°Ð´
h res
A CI
Ã¢ ng
Ġ201 0
ici p
ÑĦ ÐµÑĢ
it ori
Ġlang u
çĶ ±
Ã©n Ã©
Ġd entro
ï¼ Ķ
å® ħ
ãĤĦ ãģĻ
æħ ĭ
Ġallow s
ãĤ¢ ãĥ«
ĠP L
Ð¾Ð¹ Ð´
ĠÐ¾ ÑĨÐµÐ½
Ġc Ã¢y
ĠGe b
Ġch ÃŃ
Ġprogra ms
Ġmarket ing
c ita
Ġk ra
ĠÑĢ ÐµÐ¶
vers idad
ç´ į
Ð¸ÑĢÐ¾Ð²Ð°Ð½ Ð¸Ñı
ĠÐ³Ð¾ÑĢÐ¾Ð´ Ð°
Ġbeh ind
Ġr ad
Ġtrabal h
ĠprÃ³ x
Ġc Ã¢u
un icip
ÑĥÐ¶ Ð´
ct eur
Ġl ives
ÑģÐº Ðµ
Ġv in
Ã¤ d
Ġpeu vent
ck er
ĠH ar
ĠA ustr
a res
Ġt iáº¿n
lie ÃŁ
Ġst os
Ð°ÑĢÑĤ Ð°
ĠÐ²Ð¸Ð´Ðµ Ð¾
Ġg á»įi
no v
Ġfam ilia
ÐµÑĪ ÑĮ
è¦ ı
ÐµÐ½ ÐµÑĢ
le it
Ġh ui
ãģĦ ãģªãģĦ
) .
Ġz usammen
ĠÐ°Ð² ÑĤÐ¾ÑĢ
atÃ¼r lich
Ġto ld
Ġs áº¯c
ve ce
Ġin tegr
Ġs f
Ġr ound
ÐµÐ½ Ð½Ð¾Ðµ
Ð¸ÑģÑĤÑĢÐ° ÑĨÐ¸Ð¸
ĠU K
åĢ ĭ
Ġup on
é Ł³
ge w
Ġan ti
ĠÐ»ÑĥÑĩÑĪ Ðµ
Ġag ora
ĠÑĤÐ°Ðº Ð¾Ð¹
Ġx Ã¡c
Ġsa fe
Ġn om
ĠSp ort
en o
Ġgra cias
ĠÐ½ÐµÐº Ð¾ÑĤÐ¾ÑĢ
il es
Ġprodu ction
ĠÑģÐ²Ð¾ ÐµÐ¹
Ġãĥ ¢
ver so
ĠQu Ã©
ant Ã©
ĠSp e
Ġst a
Ġæ ł
ĠÑģÐ²Ð¾ Ñİ
Ġans wer
du ct
Ġå½ ĵ
Ð°ÑĢ Ð¾Ð²
Ġm ul
c ur
ĠÐĽ Ñİ
ĠÅĽ rod
Ð°ÐºÑģ Ð¸Ð¼
ĠÐ¼ÐµÑģÑĤ Ð¾
Ġa vere
6 0
ĠIn st
air s
Ġen viron
b ed
Ð°Ð»ÑĮ Ð½Ð¾Ðµ
ĠÐĴ Ð»Ð°Ð´
Ġng u
ad u
k owe
Ð°Ðº Ð¾Ð²
çµ ¦
y l
ĠÐ± Ð»Ð¸
ĠÐŀ ÑĢ
Ġgi ft
Ġpurch ase
ĠR Ã¼ck
ĠÐ» ÐµÑĩ
ou te
ze m
Ġan im
ĠÐ½ ÐµÐ³Ð¾
Ġlle g
ĠF all
Ġbon ne
Ãºm ero
Ġnh u
Ġâ Ĩ
Ġgrat uit
ç§ ĳ
Ġ6 0
Ġg áº·p
Ġnos so
Ġem bar
ĠT uy
Ġserv izio
2 7
Ġproduct os
Ñģ ÑĭÐ»
ĠÑĢÐµÐ³ Ð¸Ð¾Ð½
Ġex emple
ĠA re
á»Ń i
Ġho ch
ĠW asser
ä¸ ī
f i
ien ne
Ġspiel en
ĠÐ½Ð°ÑģÑĤ Ð¾ÑıÑī
iÃªn cia
icz ne
ĠÐŁÑĢ Ð¾Ð´
Ð¸ ÑĨÐ¸Ð°Ð»ÑĮ
ĠÐ¿ÑĢ ÑıÐ¼
Ġm io
Ġs we
Ġbo ard
for der
ĠApr il
Ġrec ent
Ġde pois
ĠW est
Ġperson a
cz ki
Ð¼ Ð¾ÑĤ
Ġs ouv
ĠÑģ Ñĭ
Ġpremi Ã¨re
ĠÅ »
Ġann oun
Ð¸ÑĨ Ð°
Ðł ÐĲ
ĠÐ´Ð² ÑĥÑħ
ĠG l
Ġdies en
Ġ á»
le g
Ġn ing
ĠÐ¼ Ð¾Ð»
ul es
Ġda zu
Ġï¿½ï¿½ ï¿½ï¿½ï¿½ï¿½
ici as
Ġwor ds
Ð½Ð¾ Ñģ
Ġbes ten
Â ¯
Ġm ix
Ġæ Ĺ
ĠSch w
ĠÐ¾Ñģ ÑĥÑīÐµÑģÑĤÐ²
ĠWars za
Ġo l
Ġdo or
Ġch á»ĳng
Ġ3 1
id i
ãģ¨ è¨Ģ
ãģĹãģ¾ ãģĨ
li es
Ġmater ials
ber e
g ot
ĠÐ·Ð°Ð² Ð¸Ñģ
ĠN acional
Ġj ul
ig es
Ġeff et
å® ¤
ĠÄĳ Ãºng
Ð¾ÑģÑĤ Ð¾
Ġcom mer
ian co
ĠÑį Ð½
l icht
æĸ¹ æ³ķ
Ġh áº¡n
Ã± as
av ing
ĠÐ¿ÑĢÐ¾Ð² ÐµÑĢ
ĠÐ½Ðµ Ñģ
iz ed
ĠI I
Ġprovid ing
ĠT or
ãģĶãģĸ ãģĦãģ¾ãģĻ
Ñĩ ÐµÑĤ
Ġout ras
Ġmar s
ç¥ ŀ
ĠÑģÐ¾ÑĤ ÑĢÑĥÐ´
æĸ ½
ãģĿ ãĤĮ
ĠÐ¿ÑĢ Ð¾Ñĩ
Ġwork ed
Ð¾Ð´ Ðµ
ĠS ur
æ ¤ľ
Ġk w
Ġa per
Ð± Ð°
it are
æ² »
ier to
Ġd raw
ĠÐ¿ÑĢÐµÐ´ Ð»Ð°Ð³
Ġor d
Ġris ult
ç ¿
Ġf la
ĠÐĹ Ð°Ðº
ĠD urch
ĠÐŁÑĢ Ð°Ð²
ar te
Ġprod otti
os ition
ors a
Ġc ant
ĠO f
ãģĵãģ¨ ãģ§
Ġ áº¥y
Ð»Ñı Ð´
ĠÑĢÐ°Ñģ ÑģÐºÐ°Ð·
Ġel es
ÐµÐ½ Ð·
ĠÑģÑĤÑĢÐ¾ Ð¸ÑĤÐµÐ»ÑĮ
ãģį ãģ¾ãģĹãģŁ
Ġm ientras
ycz ne
Ġre ste
Ġ} ,"
ic iel
Ġhá» ¯u
ĠÐ´Ð² Ð°
ãĤī ãģªãģĦ
Ð»Ñı ÑĤÑĮ
åĩº æĿ¥
Ġ3 8
Ġlead ers
Ġappro ach
Ġc olo
un st
æ° ĳ
Ġresp ect
Ġï¼ Ĵ
Ġn ice
c cion
Ġ Ã¡p
Ã©r ation
ce ed
å¢ Ĺ
Ġcas ino
ul os
n isse
ni enia
ĠÐ¿Ð¾Ð² ÑĭÑĪ
Ð°Ð» Ñı
Ġmater ial
Ġtr att
R I
Ġact u
e cut
ch nik
Ġs un
ĠÐ² Ð¾ÑģÐ¿
ĠÐ¾Ð±Ð¾ÑĢ ÑĥÐ´
Ġabb iamo
to p
con Ã³m
Ġfil m
Ġcost s
Ġnecess ary
ĠThe n
Ġdes cription
ĠÐ¿Ð¾Ð» Ð¸ÑĤ
Ġcomput er
ÑĢ ÑĮ
iz ia
ĠM ore
Ã¼ h
Ð¸ÑĤ Ñĭ
r ut
å¹´ 0
Ġs vil
Ġme ine
Ġpro wadz
ãģ« è¡Į
æ ļ
Ġcou ple
å¯¾ å¿ľ
3 3
Ġloc ation
Ġt ych
Ð½Ñı Ñı
ĠÐ¾Ð± ÑĢÐ°ÑĤ
Ð½ ÑĥÑĤÑĮ
on ych
is er
Ãł m
ys is
Ġl á»ĩ
Ġz ar
ĠA ct
Ġéĩ ĳ
ÅĤo Å¼
Ġcu is
he ad
ĠÐ¼ Ð°Ñģ
Ð°ÑĢ Ð¾Ð´
ĠâĹ ı
Ġa ura
è³ ĩ
Ġprocess o
Ġmod ern
s ive
ier ten
Ġin ten
ÐµÐ» Ð¸Ðº
li ed
Ġstr utt
Ġfl ow
ĠV ocÃª
il itÃ©
Ġg leich
2 4
Ġin izi
ÑĢ Ð°ÑĤÑĮ
Ġlat est
.. .
ĠÑĤÐ¾ÑĢ Ð³
ug no
Ð° ÑĦ
Ġwe ight
åĪ ¤
Ġtr áº£
Ġf Ã©
Ġm áº¥t
Ġo ct
Ġinvest ig
w ick
Ġt arget
ĠS au
Ġthu á»ĳc
Ġcent er
ĠÐ½Ð°Ð· Ð²
å¸ «
ĠAl so
ert as
at ory
bi anas
Ġseg Ãºn
Ð¸ ÐµÐ²
Ġc elebr
ĠÐºÐ²Ð°ÑĢÑĤ Ð¸ÑĢ
Ġ Ã¼
ĠÃ© p
Ð¸ ÐµÐ¹
Ġsem ana
Ġproces o
Ġcent ro
Ġserv izi
Ġpi Ã¨
Ġein mal
Ġs ens
Ġc Ã¡o
Ġt ÃŃn
ÑĤ Ñĭ
Ġhaci a
ain es
Ð¼Ð¾ÑĤÑĢ ÐµÑĤÑĮ
car gar
Ġv n
æ¯ Ķ
ĠL i
ãģ£ãģ¦ ãģĦãģ¾ãģĻ
Ġmom ent
ĠÃ¡re a
Ġa k
in Ã©
ĠÐ¾ ÑģÑĤÐ°Ð²
ĠN ero
Ġpl atform
Ġsa ng
Ġf emme
Ġtool s
Ã´ le
en i
en cy
ĠM ost
am a
Ð°ÑĤ ÐµÐ»Ð¸
ĠÐ´ÐµÐ½ÑĮ Ð³Ð¸
s za
ra ge
Ġde ep
ĠP utas
Ġact ual
Ġg Ã³
ĠÐļ Ð¾ÑĢ
ĠÐ¿ ÐµÑģ
S I
und a
ĠÐ¤ ÐµÐ´ÐµÑĢ
ÐµÐ½ Ð½ÑĭÐ¼
Ġsum mer
Ġequip ment
ĠÐ±ÐµÐ· Ð¾Ð¿Ð°Ñģ
Ġany one
Ġint rodu
Ã¤hr end
Ġé ķ·
ç ¹
Ġsc el
ĠÑĪÐº Ð¾Ð»
an ze
å¾ ħ
ĠS on
Ġos p
Ġt it
ĠãģĿ ãģĹãģ¦
Ġse ems
ĠCoun ty
uj emy
Ġpre st
Ġto wn
Ð°ÑİÑī Ð¸Ñħ
gg ia
Ġcir ca
ĠSch ul
Ġat u
ĠÐµ Ð¼Ñĥ
ĠÑģ Ð¸ÑĤÑĥ
is is
Ġcond itions
li Ã©
ĠÑģÐ²Ð¾ Ð¸
c rib
Ġj ug
ĠÐ¿ Ð¸ÑĤ
Ġind ic
Ġter ms
ĠÐ¿Ð» Ð¾Ñī
Ġbras ile
è ħ
ĠÐ²Ñĭ ÑħÐ¾Ð´
ia m
ĠSt ates
Ġhe av
Ġintern ational
Ġ\" :
Ġgio v
Ġgo al
Ð¸ÑĢÐ¾Ð²Ð°Ð½ Ð¸Ðµ
Ġof ere
ĠÐĿ Ð¸Ðº
ish ing
ĠÐ²Ð¾Ð·Ð¼Ð¾Ð¶ Ð½Ð¾ÑģÑĤÑĮ
Ġf ig
Ã¶ t
áº ¢
Ð² Ð°
Ġnuest ros
r um
ĠKh i
si ÄħÅ¼
Ġcon te
ĠdÃ© m
ÑģÑĤ Ð°Ð½Ð¾Ð²
ĠÐ·Ð´ Ð¾ÑĢÐ¾Ð²
ill er
Ġa fin
Ġm á»Ł
ĠÐºÐ°ÑĩÐµÑģÑĤÐ² Ðµ
Ġdifer entes
ĠCent er
ä¼ Ŀ
szy m
Ġrec ently
Ġimm ag
ĠÄĳ áº¥u
as ter
r ent
Ð°Ð¹ÑĤ Ð¸
Ġm ies
Ġz wiÄħz
ĠÑĢÐ°Ð· Ð¼
Ð Ń
Ġhá» Ĺ
Ġza b
ĠÐ¸Ñģ ÑģÐ»ÐµÐ´
ĠÑĢ Ð°Ð±Ð¾Ñĩ
ist ration
Ġg dzie
ĠT Ã´i
Ġan t
ãĥĹ ãĥŃ
Ġcomp aÃ±
Ġcond ition
stell en
ç ¬¬
Ġãĥ¬ ãĥĩãĤ£ãĥ¼ãĤ¹
Ġle y
I jo
Ġtech ni
âĢ ľ
ç© º
Ġh ar
ĠMÃ© xico
Ġ ãģĻ
and a
ĠÑĥÐ´ Ð¾Ð±
it Ã¤
na hme
Ġ äºº
ãĤ ¼
Ġdost ÄĻp
h ol
Ġcon v
Ġpol icy
Ġãĥ ĵ
Ġpre zzo
Ġjak ie
er on
ãĤ¤ ãĥī
æµ ģ
Ġkit chen
Ġd rei
Ġsu iv
Ġsul le
Ġfe ed
Ġdel i
Ð»ÐµÐ½ Ð¸Ð¸
ĠÐłÐ¾ÑģÑģ Ð¸Ð¹
E D
Ð¼ Ð°Ð½
ãĤ¤ ãĤ¹
ĠÑĢÐ¾ÑģÑģ Ð¸Ð¹
ĠV á»Ľi
ĠÐºÑĢ Ð¾Ð²
ĠÑĤÐµÑħÐ½ Ð¾Ð»Ð¾Ð³
Ġnos s
Æ°Æ¡ i
ä¿ ®
Ġab ility
olog ie
ĠSt r
ion ale
Ġh omme
Ġtr ip
Ġmo v
Ġqual itÃł
ä¸ĩ åĨĨ
ĠÑĢÑĥ ÐºÐ¾Ð²Ð¾Ð´
Ð°Ð¶ Ð°
ĠÃ©c onom
op s
Ġm ise
Ġk up
w ier
Ġig ual
ĠJ un
ĠÐ½ ÐµÐ·
ie me
ãģ µ
Ġc Æ°
ĠÐĿ Ð°Ð¿
Ġp unto
Ġnot hing
Ġs olution
ien za
ĠÐ² Ð¼ÐµÑģÑĤ
Ġp le
ĠP i
Ġmet tre
æ ·
ĠG et
Ġlook s
Ġbaj o
ĠÐ¾Ð± ÑĭÑĩ
ãģĵãģ¨ ãĤĤ
Ġè ©
ti en
ĠÐ´Ð¾ÑĢ Ð¾Ð³
ĠV on
ãģŁ ãĤĬ
al o
Ð¡ Ðļ
Ġju in
Ġprodu it
Ð¸ÑĤ Ð°ÑĤÑĮ
ĠBer lin
an ta
ĠM c
Ġb ir
ÐµÑĢ Ð¾
Ġz ona
Ġdes e
Ġpod staw
Ġspe ed
Ġt Æ°Æ¡ng
kie go
Ġlle gar
am ment
es a
ĠN r
ĠÄĳ áº§y
ÑĢ Ñĭ
Ġc Ãłng
ic les
Ġrem ember
je kt
Ġsel ect
Ġm Ã¡
ç© į
ãģª ãģŁ
ri ed
ĠÐ´ Ð°
ĠgÅĤ Ã³w
ĠP as
Ã ľ
Ġtyp es
Ġp Ã¡g
Ġout ro
Ġprime ira
Ġre fer
ig a
Ġon es
ed or
Ġjue gos
Ġcou p
Ì ĥ
ĠO ct
ÑĢ Ð¾Ð¼
Ġin vece
Ġg reen
Ġgrup o
ag no
Ġmed ical
u ali
Ġlevel s
ãĤ¤ ãĥ¤
Ġqual che
åĳ Ĭ
ĠCas ino
ĠU s
ch n
Ġå ¸
ti Ã³n
Ġsein er
èĩª åĪĨ
ãģ¹ ãģ¦
ard en
owan a
Ġtu a
Ġval or
os izione
Ġmuch as
ĠFr ank
ä¿ Ĥ
Ġdis play
Ġc á»±c
Ġj un
Þ¬ Þ
Ġãĥ ¯
Ġun i
ÐµÐ» Ñİ
ers e
Ġreci b
ĠÑģÐ¾ÑģÑĤ Ð¾ÑıÐ½
ĠH ome
b es
Ġlead ing
Ġko ÅĦ
Ġca use
ĠÐ¿Ð¾ ÑįÑĤÐ¾Ð¼Ñĥ
æ¬ ¡
Ð¾Ð½ Ñĥ
ĠãģĿ ãģĨ
ÑĢÐ°Ð½ Ð¸Ñĩ
im mt
ĠC ast
Ġz mi
ot he
Ð» Ð°Ð½
Ġt ele
ĠÐ·Ð°Ð½ Ð¸Ð¼
er ÃŃa
ãģĻãĤĭ ãģ¨
Ġatrav Ã©s
ĠÐ¿Ð¾Ð¼ Ð¾Ð³
Ġpat ients
ĠInform ationen
Ġgi áº£
ĠÄĳ áº£m
Ġopin iones
ĠL et
Ġv ent
or do
Ġhigh ly
ãĥ¼ãĤ· ãĥ§ãĥ³
ĠAve c
ĠÐ½ Ð°Ð³
Ġste ht
j ets
Ġs che
Ġl á»±a
ici a
Ġpres so
Ġbuen a
Ġal Ã©m
Ġnos sa
cz u
ĠÑįÑĤ Ð¸
ãģ¿ ãģŁãģĦ
Ġmen o
ĠF amil
en k
ĠD ay
Ġha ir
Ġso ng
Ġsp ra
Ġpub l
Ġèĩª åĪĨ
owan ych
ur anÃ§a
ĠÐ¼ ÑĥÐ·Ñĭ
Ġdiffic ult
Ġexcell ent
Ġszy b
Ð°ÐµÑĤ Ðµ
Äħ t
æ± Ĥ
ä¾ ĭ
Ġempres as
Ġ. -
Ġimp lement
ette mbre
Ñĩ ÐµÑģÐº
Ġexp la
Ġv ost
è į
Ġs ort
Ġmed i
ui ente
ãĤı ãģĳ
ĠGi Ã¡
uff ici
Ġmes es
Ġj este
9 9
ĠÃ ±
Ġus u
ĠÐ° Ð»
ĠÐĵÐ»Ð°Ð² Ð½Ð°Ñı
an che
Ġm atch
Ġl Æ°u
èµ ·
Ġtr anh
Ġl áº¥y
on to
Ġha ut
ĠÐ¿ÑĢÐ¾ÑĦÐµÑģÑģ Ð¸Ð¾Ð½
Ġv enta
Ġad min
Ġcar atter
ĠF irst
Ġs uf
ĠA ug
Ð¾Ð² Ð°ÑĤÐµÐ»ÑĮ
Ġstud ent
ĠÃ ħ
C H
Ġus ta
Ġcolle ction
Ñı Ñħ
ĠlÃŃ nea
w ania
Ġ= "
Ġask ed
alt ung
ar ter
ÐĿ Ðŀ
Ġs Ã©cur
ĠCol le
ĠÐ² Ð¾Ð¹
Ġs ym
åº ĥ
Ġká» ¹
æĮģ ãģ¡
ï½Ĺ ï½Ĺ
Ġex cept
v ano
ĠÂ £
red i
ĠT ak
Ġpar ts
um b
Ġçī ¹
r att
cie tÃł
ĠCh aussures
à³ į
ĠV ia
Ġj an
Ġalgun s
Ġt á»ĳi
Ļ çľŁ
Ġcon ten
or en
ÐµÐ» ÐµÐ¼
ĠÐ´ÑĢÑĥÐ³ Ð¸Ðµ
Ġpare ja
Ġr if
ĠÑĥÐ² ÐµÐ»Ð¸Ñĩ
Ġin j
ĠNg Æ°á»Ŀi
ĠÑģÐ¾ ÑĨÐ¸Ð°Ð»ÑĮ
ÐµÐ½ ÐºÐ¾
ct ions
Ġbenef its
ãĤ³ ãĥ³
ãĥķãĤ© ãĥ¼ãĥł
ag ing
Ġg ain
ĠÃº n
Ġnum ero
Ã Ļ
etz en
il fe
ĠÑĨ ÐµÐ½Ð°
ł Ķ
Ġsh all
Ġcont r
ĠÑĢ ÐµÐ´
ĠÑĢÐ°Ð· Ð´ÐµÐ»
zÄħ d
ãģ«ãĤĪ ãģ£ãģ¦
Ġsch Ã¶n
Å¼e j
Ġaut o
Ġh it
ĠÐ¿ÑĢÐ¾ Ð¸Ñģ
Ð°Ð· Ñĥ
ĠÐľÐ¾ÑģÐºÐ² Ð°
Ð¸ÑĩÐµÑģÐº Ð¾Ðµ
ãģ®å ł´
Ġf ix
Ġinvol ved
os o
ĠÐº ÑĥÐ»ÑĮÑĤ
Ġne go
ĠÂ¡Â £
Ð°ÑĢ Ñĭ
ess ion
ĠÐ¼ Ð¾Ð»Ð¾Ð´
Ġd anh
Ġtho áº¡i
ĠTh ank
ĠÑĨ ÐµÐ½Ñĭ
Ġs ense
era z
Ġexper t
Ġenc ou
i Ã§Ãµes
Ġde ber
ÑĭÐ² Ð°ÑİÑĤ
i zioni
p on
Ġåľ Ł
ĠÃ ¯
us ch
Ġæľ Ī
ĠÐ½Ð°Ñĩ Ð¸Ð½
Ã¤ ÃŁ
ãģĵ ãģ®
ĠK ind
åľ Ĵ
Ġa ver
Ġse ction
Ġv oll
ĠB Ã¼
ĠW ind
er ve
ĠJu an
ĠA g
Z W
Ñı Ð³
ĠÑı Ð½
ĠM any
Ã¤ n
Ðº Ñģ
Ġm áº«u
Ġh Æ°á»Łng
Ġdon ne
Ġnive au
ok e
Ġpu es
Ġto Ã¡n
Ġy áº¿u
Ġ3 3
Ġr áº»
Ġsu oi
ä¾ ¿
ĠÐ¿ÑĢÐ¾Ð´ Ð¾Ð»Ð¶
Ġmerc ado
rit t
ay a
ĠTra ng
ĠÑĥ ÐºÑĢÐ°
Ġunser er
ĠÑĢ ÐµÐ¼Ð¾Ð½ÑĤ
Ġwir klich
Â ¤
ĠM arch
Ġpie ce
ĠJ ed
ÅĽ wiad
ĠÐ¸Ð³ ÑĢÐ¾Ð²
Ġm Ã³w
ĠJ ul
Ġdig ital
ĠÐ²Ñģ Ñĳ
ãģ ¥
ĠThe ma
ĠM al
Ġse par
Ð½ Ð¸Ð²
Ġne g
Ġejemp lo
Ġav alia
c r
Ġãģ ¡
Ġè ¡
Ġkh áº£
be zpie
ĠK l
ui Ã§Ã£o
etto re
ç ģ
æľ Ľ
Ġtr Æ°á»Łng
Ġwel che
Ġinter v
Ġes emp
ber t
Ġ ä½ķ
Ð½ÐµÐ¹ ÑĪ
Ġintern et
è ¢
ĠÐ¼Ð°Ð³Ð°Ð· Ð¸Ð½
is Ã©
Ġembar go
Ġwor d
ĠB on
Ġwrit ten
Z X
ĠTh Ãłnh
Ð½Ð¾ÑģÑĤ ÐµÐ¹
Ġpr iv
r ad
at Ã©g
Ġæ Ī
Ġer k
Ġmeet ing
ard in
å¿ µ
5 5
Ġg ay
ĠÑĥ ÑģÑĤÑĢÐ¾Ð¹
Ġa che
éĢ ł
Ġt end
Ġhelp s
Ġex emp
ĠÃ©quip e
ĠÐĹ Ð°
ĠwÅĤ as
Ġn ational
ĠM ot
Ġb á»ĳ
Ġdec ision
C M
n es
Ġng he
u als
it or
Ġqu Ã½
Ð¾Ð¶ ÐµÑĤ
ĠÐ¿Ð¾Ð¼Ð¾Ñī ÑĮÑİ
åĸ ¶
Ġconse gu
ang e
Ġå Ģ
Ġk li
t kow
Ġr Ãµ
Ðł Ðŀ
ãĥķ ãĥ¬
gr und
Ġst oria
ĠÐ½Ð° Ðº
Ġann Ã©es
c cia
Ġau cun
ĠÐ¿ÑĢ Ð¾Ð¿
ĠA ny
ĠO p
ĠÑģÑĩ ÐµÑĤ
ĠÐ² Ð¿
Ġg razie
Ġmo bile
ĠDe us
ier re
Ġk ier
Ñģ Ð¸Ñħ
ĠÐ¿ÐµÑĢ Ðµ
od u
ir it
oun ts
Ġk iedy
ĠÐ¿ÑĢ Ð¾Ð¼
éĢ Ł
Ġh our
ĠwÃ¼r de
k ami
ĠO ut
Ġap Ã³s
Ġex tre
ell ing
Ġæ īĭ
Ġs ale
ĠÑħ Ð¾Ñĩ
Ġv ui
ai xo
ĠQu esto
Ġc á»¥
ĠNe u
Ġm acht
Ġost at
Ġs olutions
oll ar
Ġpl ant
Ġcontact os
åĦ ª
á»ĵ m
uel a
Ġtut ta
ĠespaÃ± ol
ĠC H
ãĥ¼ãĤ ³
Ð°ÑĤ Ð¾ÑĩÐ½Ð¾
uf t
ĠÐĲÐ»ÐµÐºÑģ Ð°Ð½Ð´
it ur
f ort
Ġres id
v vero
Ġc and
ĠG ut
b et
Ð ĸ
ĠCh ÃŃnh
f ono
o bre
ĠÑĢ Ð°Ð²
il a
Ġdo p
Ġpi ano
Ġparte cip
ĠÐ¡ Ðº
Ġr ien
Ġall o
Ñģ Ð¾Ð½
Ġjue go
Ġens emble
Ġdz i
èŃ °
a ur
ier i
Ã¨ mes
ãģ« éĸ¢
Ġspos Ã³b
ist ro
ĠÄĳ Ã¢u
Ġnaj lep
Ð» Ð¾Ð½
Ð¾Ð» ÐµÐµ
Ġfavor ite
ãĤ¯ ãĥĪ
li er
ĠÑĢ ÑıÐ´
ĠÂ ¯
z Ã³n
Ġinter no
Ġl ic
j em
w ort
Þ° Þ
Ġb ay
Ġlo k
ĠÐ¿ Ð°ÑĢÑĤ
Ġcount ries
ĠÐŁÐ¾Ñģ Ð»Ðµ
ĠÐŀ Ð¿
Ġten go
un ic
TI ON
ĠA ir
u Ã§Ã£o
ĠC r
Ð¾Ð· Ñı
ãĥĸ ãĥ«
Ġï¼ģ ï¼ģ
as si
Ġf resh
Ġt Ã©cn
u gh
Ġdi r
Ġ Ã³
E M
ĠÐ¼ ÐµÑĢ
ier e
Ġgrou pe
Ġm entre
Ġhand s
at ivi
± ãģĦ
op f
cj al
ite ment
ãĤĤãģĹ ãĤĮ
į ng
ĠãĤ Ī
ĠÐ» Ð¸Ð½
ib ili
es o
rie ben
Ġæ ¯
Ġ8 0
ĠÐľÐ¾ÑģÐºÐ² Ðµ
æŃ ¢
ĠÑĢÐ°Ð· ÑĢÐ°Ð±Ð¾ÑĤ
Ġl ate
ĠÐĹ Ð°Ð¿
ĠDes ign
ĠK osten
fall s
Ġproy ecto
è ¬
ben d
ur en
Ġv it
Ġin stead
Ġwr ite
cyj ne
Ġ ï¾
Ġgo b
b ros
te m
Ð»ÐµÐ½ Ñĭ
Ġdev ice
uy áº¿n
os so
N H
Ð» Ð¾Ð¼
ĠOn ce
Ġemp re
Ġdis cover
åĲĪ ãĤıãģĽ
Ġt iá»ĩn
Ġï½ ľ
Ġmis ma
ear ch
Ġsto ck
Ġthem selves
O D
ĠÐ²Ð¾Ð· Ð½Ð¸Ðº
ĠæĿ± äº¬
t te
ĠÐº Ð°Ð½
Ġç ·
Ġinter ess
ĠG ar
g io
èĲ ½
I i
Ġl Ã©g
ĠÑģÑĢ Ð¾Ðº
ĠAd emÃ¡s
b res
Ġãĥ į
Ġse hen
ĠG reat
Ġcare er
Ġlu áºŃt
ĠG eld
Ġsam och
Ġk ont
Ġb ank
ĠnghÄ© a
Ġma jÄħ
he its
Ġs ource
ÑģÑĤÐ² Ð¾Ð¼
ĠÐ¿ ÐµÑĩ
Ġg iving
ri x
Ġus t
ãĥ³ãĤ Ń
pte mbre
Ġplann ing
Ġa cuerdo
ĠÐļ Ð¾Ð»
Ġdirect ly
ĠãĤ± ãĥ¼ãĤ¹
at al
Ã©r io
os iciÃ³n
ĠH á»ĵ
ĠâĢ ĭ
Ġa um
ĠS k
Ġits elf
ĠT ut
ati f
g ing
Ġma io
Ġdesarrol lo
ĠÐµ Ð´Ð¸Ð½
ĠN go
Ġf Ã¡
Ġno va
Ġvia j
all o
áº© u
Ġtou ch
b ind
ent ar
ĠÄĲ á»©c
la is
ĠÂ ©
Ġalle m
Ġrap ide
Ġinst al
èĸ ¬
w eit
Ð¸Ð² Ð°ÐµÑĤÑģÑı
Ġperson ne
ĠGo ogle
ib les
vr ier
isten za
la ng
Ġesta ba
ĠÐ´ Ð½ÐµÐ¹
Ġjed er
cj Äħ
Ġd ice
è³ ¼åħ¥
Ġtá» ©
Ġch ance
Ġcor rect
Ġjed och
ĠAmer ica
ãĤµ ãĤ¤ãĤº
éĻ ¤
na ge
ĠÐ¾ ÑĦÐ¾ÑĢÐ¼
Ġa kt
ĠÑģ Ð¸Ð¼
ãĥģ ãĥ£
Ġå¥ ³
Ġn ome
ĠD O
Ġin nych
ĠF oto
ĠÐ¼ Ð¾Ð½
Ġç ¾
Ġad j
ĠFor m
ph one
y r
Ġtr ust
f ico
ĠU ma
ĠÐ´ Ð°Ð»
Ġdu as
ĠPub licado
br ero
osp od
ãģĪ ãģ°
ĠV o
Ġg ives
ĠD Ã©c
ho od
Ġcu er
ä¼ ģ
um mer
ãĤī ãĤĮãģ¦
ĠbÄĻd Äħ
ci es
Ġl uego
Ġpr en
ãĥ³ãĥ Ĳ
ĠÐ´ ÐµÐ½
ĠÐ¼ÐµÑĤ Ð¾Ð´
if ica
¨ ÐĲ
æĶ ¯
Ġrecens ioni
ĠS el
ctu bre
er ien
¡ å¸ĥ
Ð¾Ð¼ ÐµÐ½Ð´
Ġprod utos
ke hr
lÃ¤ r
Ġpr endre
Ġcer ti
Ġpl ans
Ð¾Ð½ Ð´
Ġæ ķ
ÑģÐº Ð°
ug lio
Ġ io
Ð¾Ðº Ñģ
ĠÐĴ Ð¾
ĠÐ¾Ð±ÑĬ ÐµÐºÑĤ
Ġsaf ety
Ġs il
Ã® t
è¦ ³
Ġh ot
Ġo bs
st Ã¼tz
ĠÃ© d
ĠÐºÐ¾ÑĤÐ¾ÑĢ Ð¾Ð¹
Ġwy b
ĠT out
im y
Ġvez es
ĠHe alth
Ġda ily
ĠB esch
ĠâĢľ ,
ĠS icher
Ġob ie
ĠÐ¿Ð¾ Ñħ
ille urs
Ġa verage
ĠS P
Ġ ÅĤ
e es
ĠN utz
ĠktÃ³r ych
ÑĢ ÐµÐ¶Ð´
Ġre mp
Ġje u
Ġãģ ł
Ġconst ru
ĠE mp
ĠÐ¿ÐµÑĢ Ð¸Ð¾Ð´
Ġng Ãłnh
Ð°Ð» Ñĭ
Ġim medi
er al
ĠP ra
Ġæ Ħ
ĠAl s
na io
ĠD ire
f eito
Ġst ati
Ġsett im
Ġattra verso
ĠÐº ÑĥÑĢ
Ġel lo
ĠÐĴ Ð°Ñģ
ĠO l
ier ra
ĠWh y
Ġplay ers
ĠÐ¸ Ð´Ðµ
ure zza
ĠÐºÐ¾Ð½ Ðº
ĠTr ans
ĠÑģ Ð±Ð¾ÑĢ
Ġseg uridad
n io
Ġmulti ple
Ðº Ð°Ñı
ĠSt art
olog ical
Ġdin ero
ĠÐ²ÑģÑĤÑĢ ÐµÑĩ
st ra
est is
ĠÐ± Ð¾Ð»ÑĮ
Ġwie le
Ð°ÑİÑī Ð¸Ðµ
Ġmog Äħ
Ġdem ande
Ġcor so
Ġprojet o
Ġav o
k le
Ġtr ouver
Ġpr ices
Ġservi Ã§os
it ely
ĠM i
Ġb iá»ĥu
Ġqual idade
Þ¨ Þ
ĠÑĤÑĢÐ°Ð½ ÑģÐ¿Ð¾ÑĢÑĤ
ĠH á»Ļi
ĠÐ¿ Ð¾ÑĢÑĤ
Ð» Ð¸Ñı
áºŃ m
ĠÃ¢ m
Ġpel os
Ġalcun i
Ġm er
Ġcomm it
ĠÐ¿ÑĢ Ð¸Ð·Ð½
is as
powiedz i
em bre
ĠJ ue
Ð»ÐµÐ½ Ð°
Ġç ı¾
ĠÄĲ Ã´ng
Ġs end
ĠÑĦÐ¸Ð½ Ð°Ð½Ñģ
ĠF ree
is to
Ġflo or
Ġc ad
ĠG mb
ens a
Ð°ÑĢ ÑĮ
Ġk osz
Ġcu c
Ġbis og
Ġrisp etto
Ġcas es
d ic
7 8
á» ³
zz azione
Ġmor ning
?? ??
ĠÐº ÑĥÑĢÑģ
c ÃŃa
Ġä¸ Ĭ
ÑĢÑĥ ÐºÑĤ
Ã¡m ara
Ġpes qu
ĠÐ»Ð¸ÑĪ ÑĮ
ĠÐĹ Ð´
Ġexperien cia
ĠnÃ© cess
) ,
ĠÑĦ Ð¸Ð·
ĠX em
Ġus ÅĤug
ĠF er
ĠÐ¿Ð¾Ð¿ ÑĥÐ»ÑıÑĢ
ĠÐ´ÐµÑıÑĤÐµÐ»ÑĮ Ð½Ð¾ÑģÑĤÐ¸
Ġpe ÅĤ
Ñĩ Ð°ÑģÑĤ
Ġap oy
ĠEst ado
ge me
ãģ«ãģª ãģ£ãģŁ
u pp
ãĥ ´
enn t
Ġtr Ãªs
Ġãĥ ľ
ãĤ¸ ãĥ£
Ġbie tet
id ung
ĠÄĳ áº¡t
Ġg irl
Ð¸Ð½ Ð¾Ð¹
ĠM art
ĠÐ¾Ð¿ ÑĭÑĤ
Ġrequire ments
Ġsel on
g ÅĤ
Ġth áº§n
Ġexp Ã©r
N D
ĠB re
ĠÐ´ÐµÑĢ ÐµÐ²
Ġn r
ĠE le
ÑģÑı Ñĩ
Ġcer ca
p i
ĠÐ½ Ð¸Ñĩ
ĠÂµ ÃĦ
ĠéĢ ļ
ch io
n ier
iá»ĩ p
ĠÐº ÑĢÑĥÐ¿
ĠLeben s
Ġsa ber
ir i
Ġle gg
ĠdÆ°á» ¡ng
a ign
Ġlie u
ĠÐ¿ÑĢ Ð¸Ðº
Ġres ources
Ã§ on
Ġf ut
Ġpou co
ÐµÐ² ÑĢ
Ġdá»¥ c
ĠS ystem
æĿ ¿
Ġach ieve
ĠÐºÐ¾Ð½ ÑĨ
Ġatt ention
ro p
Ġrest aur
Ð» Ñĥ
Ãº i
h am
c chi
ä»ķ äºĭ
ĠM en
Ġcuis ine
ond on
» Ĵ
ĠÑĪ Ð¸ÑĢ
ĠÐ¾ÑĢÐ³Ð°Ð½Ð¸Ð· Ð°ÑĨÐ¸Ð¸
Ġfuer on
ve mbre
å ¦
å° Ĥ
Ġ, .
Ġdi vers
Ġt am
Ġp m
eder al
Ġdocum ent
ir m
Ġcu á»ĳi
Ġtem at
Ġgrou ps
Ġpubb lic
ĠCh á»§
ĠG li
Ġsu it
Ð½Ð¸ ÑĨ
è± ¡
Ġful ly
Ġch Æ°Æ¡ng
Ñī Ñĳ
ç¨ ĭ
Ġa ktu
Ġi phone
ĠT á»«
in ie
Ġpos to
Ġdu y
ĠC ali
ĠFra uen
ĠÐ¼Ð¾Ð¼ ÐµÐ½ÑĤ
Ġin nov
ĠÐ°Ð´ ÑĢÐµÑģ
cie ty
Ġst ren
ĠH ouse
Ġglo bal
Ġac ordo
ĠÐ³ Ð¾ÑģÑĤ
ĠãĤ¹ ãĥ¼ãĥĳ
ãģ®å Ī
Ġpel iculas
Ã© li
Ġ4 4
ale Å¼
åŃ ĺ
Ġprog etto
ãĤ Ĩ
Ñĥ ÐµÐ¼
Ġor den
Ðŀ Ðŀ
Ð°Ð» Ð¾Ð²
Ġihr er
A U
Ġm ention
ab ili
enie m
Ġ _
ce mbre
ãģ¨æĢĿ ãģĨ
ĠÐ¾Ð±ÑĢÐ°Ð· Ð¾Ð¼
ÐłÑ ķ
Ġch á»©
Ġbamb ini
æ £
Ãł u
ilh Ãµes
Ġs qu
Ġleg al
in te
Ð½ Ð¾Ð·
Ġc áº¡nh
Ġinterest ing
ÑĢ ÐµÐ²
Ã¼ l
Ġb ol
v illa
Ġå Ĭ
ab an
Ġpal ab
Ġcas i
Ã¤ h
ĠÐĿÐ¾Ð² Ð¾ÑģÑĤÐ¸
ĠGmb H
èĢĥ ãģĪ
iss imo
â ĺ
Ġc y
ĠW ell
ĠprÃ³ pr
bb ra
ĠÐº Ð¾
ĠÐ¿Ð¾ÑģÑĤ Ð¾ÑıÐ½
ĠÐ¿ÑĢ Ðµ
ment i
Ġf ais
ĠJ os
ãģ®æ ĻĤ
Ġdis fr
ten ir
Ġ Ã¡o
Ġnicht s
lo i
Ġs aw
Ã¤ng er
ä¸į åı¯
Ġdod at
Ġmy self
Ġwsp Ã³ÅĤ
ĠT á»ķng
Ñģ Ñģ
Ġt or
Ġsal le
c in
ÐµÐ· Ð¸Ð´
Ġpr int
E I
Ġg uest
Ġplay ing
ãĤ± ãĥ¼ãĤ¹
ãĤ¹ ãĤ¯
Ġr ice
Ġrich ies
Ġz ad
Ġtrad itional
Ã ¿
Ġne m
ĠE du
ĠÄĳo Ãłn
ĠB ed
Ġn astÄĻp
ĠA le
Ġorganiz ation
Ġj am
Æ ¯
å¹ ³
Ġar ch
ÐµÑģÐ¿ ÑĥÐ±Ð»Ð¸
ĠEn t
ĠNg Ãły
á»§ y
ĠÂ ¦
ĠE ven
Ã¢ ce
Ġãĥ ĭ
Ġk to
ĠÐĲ Ð´
Ġt Æ°á»Łng
ãģŁãĤģ ãģ«
Ġ200 9
Ð¸Ð² Ð°Ð½Ð¸Ñı
Ġcho ix
ĠÐ´ Ð½Ñı
áº µ
Ġprze ci
as ons
Î ¿
Ġp ad
ãĤ± ãĥĥãĥĪ
cor so
ĠM ann
ãģª ãĤĭ
é¡ ĺ
Ġph otos
gra mm
ĠE nde
ÃŃ cia
Ġim ages
Ġh uge
Ġavo id
Ġlos t
Ġcz ÅĤ
ib ilidad
h b
ĠZ e
Ġs ites
ãĤı ãĤĬ
ĠÃŃ t
Ġdu Å¼
Ġx á»Ń
Ð¸Ð¼ Ð¾
Ġtá»ķ ng
Ġ ãģĭ
ãĥ Ĵ
è²© å£²
ond ers
åŁ º
ĠÐļ Ð°ÑĢ
ĠåĽ ½
Ã© ra
Ġot to
Ġngu á»ĵn
åĢ į
zy m
ãĤĴ ãģĬ
Ð½ ÑĥÐ»
ĠÑĩÐ°ÑģÑĤ ÑĮ
Ð¿ Ð°ÑĢ
Ġpued es
ĠÐ¿ÑĢ Ð¸Ð»
Ġk ne
Ġ Ñī
ĠÐ´Ð¾Ð»Ð¶ Ð½Ñĭ
al itÃ©
Ñı Ñĩ
ĠNh áºŃt
ãģ£ãģ¦ ãģĦãģŁ
lÃ© ment
nd en
ze ÅĦ
pt iembre
Ġperm it
Ġm ieux
Ġr á»Ļng
ĠWe bs
Ġmad rid
ÑĢ ÐµÐ·
Ġå ĭ
ĠÐ¾ÑĤ Ñģ
ä¹ Ĺ
Ġcontin u
Ġcomple x
ĠW he
ãģ ŀ
ĠÐ´ Ð°Ð»ÑĮ
Ġthink ing
om ini
er ous
it ure
ĠLe ist
ĠÐ¾Ð¿ ÐµÑĢ
Ð´ Ð¸
au en
iss Ã£o
ĠÐ¸ ÑĤ
Ġd ry
iss ance
Ð ħ
ãĥ¼ãĥ ĩ
Ð¾Ð· Ð¼Ð¾Ð¶
ĠIntern ational
ĠR Ã©p
Ġe conÃ³m
wo hn
ic ro
ĠÑĤ ÐµÐ±
Ġposs ÃŃvel
Ġstor age
Ġwszyst ko
ãĥ¼ãĥ ģ
Ġlu áºŃn
Ð¸ÑĤ ÐµÑĢ
Ġqu ar
ãģł ãĤįãģĨ
ĀĀĀĀĀĀĀĀĀĀĀĀĀĀĀĀĀĀĀĀĀĀĀĀĀĀĀĀĀĀĀĀ ĀĀĀĀĀĀĀĀĀĀĀĀĀĀĀĀĀĀĀĀĀĀĀĀĀĀĀĀĀĀĀĀ
ĠSin ce
Ð°Ð½ Ð¸ÐµÐ¼
Ġg á»ĵm
Ġt ick
Ġde ath
ĠRo z
ÑĢ ÐµÑĤ
wo od
Ġsub st
ĠÐ¾Ð¿ Ð¸Ñģ
ãĥķ ãĤ§
ĠI de
ÅĤÄħ cz
Ġlangu age
re o
Ġse i
ĠU N
Ġer halten
Ġre v
Ġthu Ãª
it ation
Ġfa ir
Ġd ados
p ut
Ġr id
ĠÐ´Ð¾Ð»Ð¶ ÐµÐ½
Ġnos otros
Ġw ed
Ġem ple
Ġoff re
Ġdeci ded
Ã¶ ÃŁe
ĠÑģ Ð¾Ð³Ð»Ð°Ñģ
I j
Ġt ard
iv ity
ãģķãĤĮãģ¦ ãģĦãĤĭ
ĠÐłÐ¾ÑģÑģ Ð¸Ñı
Ġin ici
ĠÐ¡Ð ¨ÐĲ
res o
ĠO ber
rie b
Ġdevelop ed
Ġxu á»ĳng
Ġgo es
ĠÐ³ Ð¾Ð»Ð¾Ð²
éĺ ª
ri ff
Ġnot e
Ġim a
Ġph Ã¹
ĠåĲ Į
Ġdr ink
Ġinf atti
æĽ ´
Ġsm art
Ġp ath
her n
ä½ İ
ĠV iel
Ġapplic ations
ĠrÃ©s ult
ach sen
il ing
ĠÐ´ÐµÐ» Ð°ÑĤÑĮ
Ġreg ister
\ /
Ġch w
ĠÐ¼ Ð¸Ð»
Ġkon k
ĠÐ¿Ð¾ÑĢ ÑıÐ´
ĠÐ½Ð° ÑĢÑĥÑĪ
ent Ã³w
Ġpar ents
oun tain
Ġdi f
Ġn Ãºmero
ta ÅĤ
Ġinform ations
Ġd Ã¹
ol tre
Ġhis toire
ĠS im
ĠÐĴ Ð°Ð¼
ä¼ ĳ
uest ra
Ġre ach
Ġå® ī
ĠÐ¿Ð¾ Ð¸ÑģÐº
ĠO b
Ġha ber
Ð°ÑĤ Ð¸
ĠEn tw
ĠÑģÐ¿ÐµÑĨÐ¸ Ð°Ð»Ð¸ÑģÑĤ
ĠÐ¿Ð¾Ð»ÑĥÑĩ Ð¸ÑĤÑĮ
Ġdro it
ĠS w
am iÄĻ
ç´ ļ
Ġsur pr
Ð°Ð² Ð»Ð¸Ð²
çİ ĩ
es ti
an st
Ġm ens
Ġg Ã¡i
ĠD av
3 4
ĠT V
ow is
ĠÑģÐ²Ð¾ Ð¸Ñħ
ĠÑĢÐ°Ð·Ð²Ð¸ÑĤ Ð¸Ñı
ĠL ondon
Ġc iÄħ
æĤ ª
Ġvra iment
ag na
ÐµÑĢ Ð¼
ĠÐ± Ð°Ð·
ar Ã¡n
Ġf est
Ġcli ent
Ġaut or
Ð¸ Ð³ÑĢ
o ÅĽÄĩ
Ġder nier
ĠÐ¾Ð±ÑĬ ÑıÐ²
mitt el
Ġcomplet ely
ãĤµ ãĥ¼ãĥĵãĤ¹
el Ã©
ÑĢ Ð¸Ð´
en nen
Ð»Ñı ÐµÑĤÑģÑı
ãĤ¿ãĤ¤ ãĥĹ
Ġmiejs ce
Ð½ Ñĥ
inh os
ĠIntern et
ãģĳ ãĤĮãģ°
ÑĤ Ð¸Ðº
ĠÐ¿Ð¾Ðº Ð°
Ð¾Ð» Ð¾
æ¼ Ķ
Ġmach ine
uy e
ĠÐ¾ ÐºÑĤ
Ġann unci
ĠÐ· Ð°Ñģ
ĠEng lish
ÐµÐ² Ð¾Ð¹
Ġm Ã´
ough t
Ñı Ð»
Ġrec ono
ĠÐ½Ð°Ð· Ð°Ð´
w and
Ġåī į
Ġodpow ied
f on
æĸ Ń
Ġrec om
Ġk os
ð Ł
ĠÑĥ Ð»Ð¸
Ġãĥ¡ ãĥ³ãĤº
Ġg est
gh i
ÐµÐº Ð°
ĠÐ³Ð» Ð°Ð·
Ġpre vent
Ġi hn
Ġc ross
ĠmoÅ¼ liwo
å® ³
Ġpo le
Ġsuccess ful
Ġmin im
ĠK o
Ġlá»Ľ p
Ġr iÃªng
ka ÅĦ
ĠÄĳá»Ļ c
ĠÐ´Ð² Ð¸Ð¶
c ere
2 6
Ġsp ot
ĠÐºÐ¾Ð¼ Ð½
Ð¾ÑĤ Ð¾
ag li
ĠÄĲ á»ĵng
Ġwe iÃŁ
Ġprod otto
Ġlim ited
Ġcon cept
Ð¾Ð± Ð¸Ð»ÑĮ
Ġn ich
Ġä» £
Ġwys ok
Ġcon fer
ãĥ¼ãĤ Ń
ÃŃ de
Ġav r
ens ive
c ast
Ġcome Ã§
ãģĹ ãģªãģĦ
Ġhist Ã³ria
ĠÑĤÐ°Ðº Ð¸Ðµ
ĠÐ´ ÐµÐ¿
ĠD is
aract er
ĠC ap
Ġright s
ĠZ immer
ĠÐ¿ÑĢ ÐµÐº
Ġtr u
Ġra ggi
ĠÐ½ ÐµÐ¹
ãĤĴæĮ ģ
Ġresp ons
Ã¡ veis
b li
Ġc in
h aps
ĠG rand
se z
ÐµÑĢ Ð¾Ð¼
ĠÐºÐ¾Ð¼Ð¿ ÑĮÑİÑĤ
cess o
aÅĤ e
gent ina
Ġn aleÅ¼y
Ġcreat ing
ĠB ad
or m
Ġhe at
ĠÐ·Ð°Ðº Ð»ÑİÑĩ
Ġsu p
do or
kie j
Ġd ort
ãĥ¬ ãĥĵ
ĠÐ¿ÑĢÐ¸ Ð¾Ð±ÑĢ
ĠSan ta
Ġcz erw
Ġanal ysis
I T
Ġpre fer
ere in
at ives
ÃŃ cula
åī ²
Ġjan vier
äº Ĩ
Ġser ious
ç ±
Ġver dade
Ġp endant
Ġx in
Ġp ont
d ings
ãģ«ãĤĪ ãĤĭ
Ġhe ar
Ġlie gt
ĠF ace
ĠÑĩ ÑĥÐ²
ĠÑģ ÐµÐ·
æĹ¥ ãģ¯
Ð¾Ð¶Ð´ ÐµÐ½Ð¸Ñı
Ð²ÐµÑĢÐ¶ Ð´
ĠTh á»ĭ
Ġä» ¥
Ð¼ÐµÐ½ÑĤ Ð°ÑĢ
ff ee
ist iche
Ġm ia
_c rop
al ing
ãģĵ ãĤĮ
åĭ Ŀ
sze j
ĠãĤ· ãĥ£
ĠInd ia
m l
Ġm Ã´i
å¤ļ ãģı
Ġde ste
or so
Ġser ie
Ġres s
Ġsit io
Ġ3 9
Ġal ta
ri ft
Ġto wards
Ġe arn
ãģı ãĤĭ
Ġz ast
ĠA uto
ĠT ambiÃ©n
ĠM ai
ĠS er
Ġsom etimes
Ġl Ã£
ĠÃ Ľ
ĠÑĤ ÐµÐºÑģÑĤ
in aciÃ³n
Ġb zw
ĠÑģ ÐµÐº
ĠS ant
i ente
ĠÐ´ Ð¸Ð·
ene z
è© ¦
Ġm m
anh o
Ġv áºŃn
lo ck
Ġseg undo
Ġwszyst kie
ĠÐ¾ÑĤÐ·ÑĭÐ² Ñĭ
c ours
Ġpre ced
Ġk obie
ospod ar
ĠÐ¼ Ð¸Ðº
Ġstr ateg
ãģ ģ
Ġp ap
Ð¾Ð¿ÑĢ Ð¸ÑıÑĤ
Ġpict ure
ĠÑĤÑĭ ÑģÑıÑĩ
Ġc á»ĳ
gh t
ard a
Ġkho a
Ġweit ere
ĠÑĤ Ð¾Ñĩ
Ġ5 5
ĠÐ¿Ð¾Ð´ Ð³Ð¾ÑĤÐ¾Ð²
is Ã£o
Ġarr iv
ÑģÐº Ð¸Ð¼
jÄĻ cia
ĠÂ ª
ĠÐ° Ð¿ÑĢ
aliz aciÃ³n
Ġï¿½ï¿½ ï¿½
ĠWo chen
ĠÐŁÐµÑĢ Ð²
ĠåĮ Ĺ
ĠÑĤ Ð¾Ð½
ĠÑħÐ¾ÑĢÐ¾ÑĪ Ð¾
Ġc res
Ġï¼ Ĩ
ĠR em
Ġ4 9
Ð¾Ð±ÑĢ Ð°Ð¶
as ion
l us
Ġprom ot
ç® ¡
Ġre lease
Ġn Ã¤ch
ĠÑĢ Ð°Ð´
Ġjam ais
Ġph ÃŃa
ÑĥÑĢ Ð½
Ġesta va
ĠÐ¾ÑĤ Ð¿ÑĢÐ°Ð²
ãģ® äºº
Ġar ty
Ġv Ã¹ng
Ġd ra
zion ali
æĿ ĳ
Ġæľ ¨
t ic
ent y
Ġall en
ÐµÑĢÐ± ÑĥÑĢÐ³
cz es
ĠC i
ĠãģĹãģĭ ãģĹ
ĠA bs
Ġi hren
ĠS ono
Ð¾ÑĢ ÑĥÐ¼
ĠCu ando
Ġoct obre
ĠÐ¿Ð¾Ð½ Ð¸Ð¼
å¼ķ ãģį
Ġå İ
åº «
Ġesp a
Ã¤nd er
Ġp aint
re bbe
is i
Ġes ter
Ġsul l
le icht
ãĥĥãĤ· ãĥ¥
Ġf im
ell ow
Ġ09 8
ĠÐ»ÑİÐ´ Ð¸
Ã¡t ico
Ġc ra
ĠãĤ ¬
Ġv Ã©r
ÐµÐºÑĤ Ð¾ÑĢ
re ichen
ĠServ ice
la uf
Ġ3 7
Ġpart ners
l ice
v on
ÑĢ Ð¾Ðº
ĠNh Æ°ng
ĠÑģ ÑģÑĭÐ»
ĠÐ± Ñİ
áº¡ p
Ġesemp io
ĠÐĵ ÑĢ
Ġpos itive
nud as
a f
Ġa w
Ġexp ected
Ġtá»© c
ress ed
ãĤĴ è¡Į
Ġâĺ Ĩ
s h
ĠÐļ Ð°Ð·
ĠÐ¾Ð± ÑĥÑĩ
Ġh ora
g abe
Ġï¼ ħ
ãĤĴæ İ
ĠÐ¿Ð¾Ð¼ ÐµÑī
Ġwonder ful
ĠÑĢÐ°Ñģ Ð¿Ð¾Ð»Ð¾Ð¶
Ġsmart _crop
æĸĻ çĲĨ
ĠB rit
ãģ® ãĤĤ
ĠJ une
im as
K A
Ġinterest ed
ci Äħ
éģ ©
ãĥ³ãĤ µ
ĠSch n
Ġlo ad
Ġr Ã¡p
Ġwo hl
scha ften
Ġnost ri
Ġchá»ĭ u
Ġpor ta
ĠÐºÐ¾Ð»Ð¸Ñĩ ÐµÑģÑĤÐ²Ð¾
ĠÐ¾ÑĦ Ð¸ÑĨÐ¸Ð°Ð»ÑĮ
ci dad
ill ing
Ð¸Ðº Ñĥ
rÃ©s ent
Ġveh icle
ĠÐ¿ ÑıÑĤ
Ġl ed
Ġsein en
ãĤ¦ ãĤ§
bo ard
ĠB lack
Ġpouv oir
Ġv iá»ĩn
ĠFe b
å ´
ĠB ilder
ĠN oir
i ori
Ġemploy ees
Ġbe gan
Ã© o
ĠR ed
ĠE ach
ĠY o
Ġpe qu
Ġf urn
Ġprop rie
ce u
Ġhtt ps
Ġ200 8
bbra io
ĠÑįÑĦÑĦ ÐµÐºÑĤÐ¸Ð²
Ġbo is
Ġreg ul
Ġpres idente
Ġt ur
u ir
ĠÐºÐ¾Ð¼Ð¿Ð» ÐµÐºÑģ
Ġlo g
Ġrapp ort
b ach
Ġgl ass
ÐµÐ» ÐµÐ½
ÅĦst wa
ĠÑģÐ¾ ÑħÑĢÐ°Ð½
rei ben
Ġå® ¶
ch s
äº ķ
Ġpod czas
Ġce ux
ĠCh ina
Ġatt ract
ĠÐ²ÐµÑĢ Ñģ
Ġsyst Ã¨me
ãģ®å Ĳ
Ġ9 9
Ġbec ame
ĠB est
ĠS und
Ġsp end
Ġge hÃ¶r
ĠA c
Ġperm ett
Ġtr áºŃn
Ġjed en
æ Ĳ
ĠÐ´ Ð¸ÑģÐº
Ġper Ã²
ri Ã¨re
Ġbus ca
ĠÑĦ Ð°ÐºÑĤ
é«ĺ ãģĦ
ater ial
sk im
ĠdÃ©b ut
ratt utto
Ġel les
åŁ Ł
lich keit
Ġn atÃ¼rlich
ĠK ra
ãĤĴ ä½¿
Ġfor mer
cion al
Ìģ t
Ġan ci
Ġer ot
ĠÄĳ Ã´
Ġse ptembre
or ten
Ġth áº¥t
ĠÄĲ iá»ģu
v oll
Ġdonn Ã©es
Ġçµ Ĳ
Ġins ieme
Ġl ado
Ġcom men
ĠÑĩÐ°ÑģÑĤ Ð¸
Ã¼ t
ĠÐ²Ð¾Ð· ÑĢÐ°ÑģÑĤ
è¦ §
le urs
Ġmay o
å¥³ æĢ§
ĠKom ment
Ġb iá»ĥn
h in
Ġprofess ion
ar lo
yt u
ĠÄĲ á»ĥ
ãĥ¼ãĥ ķ
ĠÐ½Ð°Ð¿ Ð¸Ñģ
Ġ ãģªãĤĵ
ati ques
ãģĹãģ¦ ãģĦãģŁ
Ġas eg
ÑĤ Ñĥ
ĠÐ·Ð°Ð´ Ð°Ñĩ
å² ¡
ĠO ver
Ġh ous
Ġkhá»ı e
Ġey e
g na
Ġqu Ã¢n
gen ce
ib t
itt ed
éĺ ²
ZION E
Ġcol la
ĠÐº ÑĥÐ¿
i pp
Ġcon c
Ġb all
u its
Ġw ol
Ġrig u
ĠD od
Ġpet ite
Ġs iamo
Ġs or
ĠGra cias
Ã³ vil
end ent
Ġ ãģ§ãĤĤ
Ìģ c
Ġt á»ĳ
ĠvÃł ng
Ġl ata
Ġt áº£i
ĠQ ual
Ġs are
Ð¾ÑĢ Ð¾Ð¶
è ¥¿
Ġbusiness es
ter a
æĿ ¡
jour d
Ġexemp lo
tem pt
ab y
ĠB ou
Ã© is
Ġh uyá»ĩn
ic amente
ient i
ĠÃ ®
á»Ĺ i
ĠVers and
Ġ4 8
Ġcomp rar
pp a
ĠV ol
ĠÐ¿ÑĢÐ¸Ð½ Ð¸Ð¼
Ġmar zo
ĠÐ¼ÑĥÐ¶ Ñĩ
Ġconst ruction
ĠÐºÐ°Ð¶Ð´ ÑĭÐ¹
ĠAs soci
ĠN uo
p Ã©
ĠÐµ Ð²
Ġno che
ze k
Ð¾Ð· Ð½
ĠÐ¾Ð´ Ð½Ð¾Ð¹
åī ¤
ãĤ¢ ãĥĥãĥĹ
od o
Ġnun ca
U S
ĠÑĩ ÐµÐ³Ð¾
Ġmo ving
Ġl isten
Ġb ag
ĠÐ¶Ð¸Ð·Ð½ ÑĮ
Ġs Æ¡
Ġtem u
æĶ ¾
or ÃŃa
Ð¾Ð» Ð°
Ġs an
Ġgrow ing
ĠÐ°Ð´ Ð¼Ð¸Ð½
ĠK unst
èŃ ĺ
Ġpoz w
Ġcamp aign
Ġdec or
æ§ ĭ
ig i
é Ĭ
aliza cji
ĠÐŀÐ´ Ð½Ð°ÐºÐ¾
Ġau jourd
ĠEst ados
ĠÑĤÑĢ Ð¸
Ð´Ð° Ñĩ
ĠÄĳ Ã¡ng
åį Ĭ
ãĥį ãĥ«
Ġãĥķ ãĤ¡
Ġna v
Ãº a
Ġje ÅĽli
1 00
Ġaus ge
à³į à²
ĠCh ar
Ġcar ry
Ġestud i
Ð» ÐµÑĩ
Ð°Ð»ÑĮ Ð½ÑĭÐ¼
w ise
5 4
ãĥ¼ãĥ ª
Ġstart ing
ãģ¦ ãģĦãĤĭ
ot a
Ã£ os
z iel
ÑĢ Ð¾Ð½
Ġbud get
ĠÐ¾Ð±Ð»Ð°ÑģÑĤ ÑĮ
Ġdire kt
Ġter rit
Ġparticol are
Ġpat tern
ed Ã¬
ãģ¨ ãģĨ
åĮ Ĺ
Ġsmart_crop _
ÑĢÑı Ð´
ict ion
Äħ ce
ist ica
v Ã©
éĽ £
åĳ ¨
ĠS ci
y ond
ãĥģ ãĤ§
ãģ«ãģª ãĤĬãģ¾ãģĻ
sch luss
ãģ«ãĤĪ ãĤĬ
Ġmigli or
Ġliv ello
Ġf emmes
Ġapp e
ve y
Ġmerc ato
Ġå £
Ġtr áº¡ng
ĠçĶ Ł
ous ly
ĠÃ Ŀ
ÅĤo ÅĽci
Ġch áº¯c
çŃ ĸ
Ġdes c
2 8
s c
å Ŀ
ÑģÑĤÑĢÑĥ Ð¼ÐµÐ½ÑĤ
Ġczy li
enh um
ĠhÃ£ y
Ġl Ã¢u
ĠAn tw
ĠÐ¾Ñĩ ÐµÑĢÐµÐ´
ĠÐŃ Ðº
Ġten emos
Ã® tre
nh o
ĠÑģÐ¾Ð± Ð¾Ð¹
elho res
ĠÃ ¸
Ġr in
ĠÐ½ Ð¸Ð·
ĠBo ok
Þ §
Ġne u
ĠÐ½ Ð°Ð¹ÑĤÐ¸
wa hl
ĠJe ÅĽli
ĠÑĥÐ· Ð½
ãģ« å¯¾
Ġvers o
Ġmin utos
Ġme glio
ĠTe am
Ġproble mas
Ġdru g
2 9
m ar
ĠÐĶ Ð°
Ġtem a
Ġmess age
ĠÑĢÐµÐ¶ Ð¸Ð¼
ĠÐ´ ÑĥÐ¼
Ð¸Ð² Ð°ÑİÑĤ
ãģŁ ãĤī
Ġfriend ly
Ġcamb io
Ð² Ð¾
ĠÑĢÐ°Ð±Ð¾ÑĤ Ñĥ
ven ir
er te
ĠM erci
Ġexact ly
ãĥ³ãĥ ĳ
ĠN et
ÃŃ cias
o int
Ġho áº¡ch
ĠJu ly
Ġust ed
æŃ ³
ĠÑģÑĢ Ð°Ð·Ñĥ
ĠÐ¿ Ð¸Ñģ
Ġand er
ĠÐ°Ð²ÑĤÐ¾Ð¼ Ð°ÑĤ
ĠChrist mas
Ġm ÄĻ
ãģ¾ ãģŁ
Ð°Ñģ Ð¸Ð±Ð¾
ĠÐ¿Ð»Ð¾Ñī Ð°Ð´
ĠÐ± Ð°Ð»
Ġv ente
ĠÑģÑĤ Ð°Ð»
ĠÐ¼ Ñĥ
ĠÐ¼Ð°Ð³Ð°Ð· Ð¸Ð½Ðµ
v ille
Ñĩ Ð¸ÑĤ
ĠG ob
Ġt on
ti er
ãĥ¼ãĥ Ĭ
Ġcent re
Ġpurp ose
ĠÐºÐ¾Ð¼ Ð°Ð½Ð´
re g
ĠMus ik
Ġliv ro
A C
ita ire
Ġrel aciÃ³n
ĠÐ¿ Ð°Ð¼
re ci
ro t
Ġne igh
ĠA h
Ġãĥ Ķ
rou p
for table
Ġju illet
Ġl uo
p rÃ¤
ĠÑģ Ð¿ÑĢÐ°Ð²
Ġpr omo
ĠÐ¿ÑĢÐ¸Ð¼ ÐµÑĢ
Ġjun io
p ri
Ġa im
Ġhe ure
Ġal tern
Ð³ ÑĥÑģÑĤ
Ġkh Ã¡
Ġan terior
os te
éł Ĥ
Ġcommer cial
Ġa cer
b bero
Ġdefin itely
ĠTh Ã¡ng
ãģ®è ©
Ġass ess
Ġfu era
an ni
Ġar qu
re iche
ÅĦ ski
Ġpr oss
Ġn Ã¢ng
ç¢º èªį
Ġd ark
ĠH Ã¶
Ð½Ð¸ ÑĨÐ°
ir se
ĠÐºÐ¾Ð½ Ñģ
ï¼Ĳ ï¼Ĳ
odz ie
Ġo cor
ol Ã³g
Ġw ish
Ġsu bs
ĠÐ½Ð° ÑĥÑĩ
ÐµÐ» Ð¾
le tz
Ġs ott
ĠÐ¿ÑĢÐµÐ´Ð¿ÑĢ Ð¸ÑıÑĤ
ĠBeit rag
u ary
Ġhealth y
ĠÐ¾Ð±Ñī ÐµÑģÑĤÐ²
Ġconsider ed
ĠÐ¡ Ð°Ð½
ĠPl atz
od ice
re cht
rough t
ĠD en
m ark
Ġopportun ities
Ġr und
ĠH áº£i
Ġob tain
b G
ĠCh o
Ð¾Ð± ÑīÐµ
ori z
ĠNe gro
Ġart icolo
Ġno vembre
sch n
b uch
Ġn ic
cz ny
ĠZ um
æ ¹
Ġem pe
Ġpare ce
ĠÐº Ð¼
æĻĤ è¨Ī
we is
ĠJos Ã©
Ġw rong
ut h
fic aciÃ³n
ãģĮ ãģªãģĦ
Ġch am
ãģĭ ãĤĭ
Ġu04 4
ĠÐ´Ð¾ÑģÑĤ Ð°ÑĤÐ¾ÑĩÐ½Ð¾
ç ĭ
Ġãģ ¤
Ġm ano
ent iel
Ġãĥ Ĭ
Ġï¼ İ
Ġent Ã£o
ĠdÃ© cembre
Ġf ab
ĠÑĤÐ°Ðº Ð¸Ñħ
ĠÑįÑĤ Ð¸Ñħ
cze j
rÃ³ Å¼
ĠÑį Ð»ÐµÐ¼
ĠF ach
Ġpla ces
Ġele kt
Ġte il
los sen
Ġm iÄĻdzy
Ġc ambi
Ġgut e
Ġvol te
am ientos
Ġsemp lice
Ġgu ide
ĠHo Ãłng
iz o
Ġr y
Ġrec enz
Ġk iáº¿m
ĠMe in
Ã¶ ÃŁ
ĠÐĴ Ð¸Ð´
Ġins er
Ġx a
ond re
ador as
Ġsop rattutto
ĠU p
ol are
ĠfÃ© vrier
ï¼ ĸ
te e
ĠÐ¼ÐµÑĤ Ð°Ð»
Ġproble ma
ent en
é º
Ġ) ;
Ġsupp ly
ÅĤ Ã³w
Ġav v
Ġu b
ĠÑģÐ²ÑıÐ· Ð¸
å» º
Ġpotrze b
ĠÐ¿ÑĢ ÐµÐ²
Ã¡ b
Ġne gli
ÐµÑĤ Ð¾Ð²
ĠÑįÐ»ÐµÐºÑĤÑĢ Ð¾Ð½
pte mber
[ ]
Ġt Ã£o
qu oi
r era
ãģĹ ãĤĥ
ĠT em
Ġv Ã©
ĠSch la
Ġg ust
Ġä¸ į
ain s
Ġhá»ĵ i
Ġphys ical
Ġge ben
Ð°Ðº ÑĤÐ¾ÑĢ
st Ã¼ck
Ġs vol
Ġprze p
Ġw ichtig
at ivas
Ġ4 3
Ġli ber
Ġprzypad ku
o ber
Ġger ade
Ġd ara
ĠÐ¾Ð± ÑĢÐ°Ñī
ĠD ar
f eld
he st
ĠÐŁÑĢ Ð¾Ñģ
st adt
ä¸ĸ çķĮ
Ġprod uto
Ġat tempt
ĠÐ° Ð±
ĠktÃ³ rzy
Ġst ri
Ġjo go
ĠÑĢÐ°Ð· ÑĢ
Ġindivid uals
co le
Ġtem per
Ġsegu ir
ĠHo a
ĠÐ½Ð°Ð¿ ÑĢÐ¸Ð¼ÐµÑĢ
Ġunderstand ing
Ġw Ã¤re
ãĤĩ ãģ£ãģ¨
Ġcel ui
ĠZ usammen
ist re
ĠÐĺ Ð³
ĠB áº¯c
Ġques te
Ġgo als
le ction
ĠHer ren
al u
ĠÐ±Ñĭ Ð²
av es
Ġprzy got
ĠÑģÐ¼Ð¾ÑĤÑĢ ÐµÑĤÑĮ
Ġpubl ished
Ġf ica
ĠPro f
Ġtem por
Ġe cc
Ġwy gl
ag er
sp iel
un o
Ġli bro
Ð¾Ð± Ð¾Ð´
Ñį Ð½
ĠÐ´ÐµÐº Ð°Ð±
ĠÐ² ÑĢÐ°Ñĩ
Ġret rou
Ġm ÅĤ
Ġk las
Ġfir m
ĠR ic
ĠSe ptember
Ñģ Ð°
ãģ®å ¥
ãģ¯ ãģªãģĦ
un es
Ġvoy age
Ġgu id
Ġbar dziej
Ġãģ Ĩ
Ġph á»§
ische s
Ġfre qu
Ġappro pri
bi Äĩ
Ġs old
Ġprogra ma
Ġn este
éĢ ±
ĠÄĳ Ãłn
ĠM ail
ĠA L
åķı é¡Į
ĠGob ierno
Ġter min
it aciÃ³n
Ġæ ¬
om oÅĽci
ĠD Æ°Æ¡ng
ĠktÃ³r ym
Ġkil ka
m F
art amento
Ġl en
ĠÐł Ð°Ñģ
on ces
Ġgio c
Ġv idÃ©
ĠÐ¿ ÑģÐ¸Ñħ
le u
g ni
ĠÐ¸ÑģÐ¿Ð¾Ð»ÑĮÐ· Ð¾Ð²Ð°ÑĤÑĮ
ar ante
åį ģ
ãĥ© ãĥ³
Ð½Ð¸Ð² ÐµÑĢÑģ
S t
Ġ ung
e ira
AL E
Ġ7 0
ĠÐ½ Ð°Ð»Ð¾Ð³
Ġfor me
ĠspÃ© cial
ĠL ong
æĪ ¸
ĠÐ¿Ð¾ÑĤ Ð¾Ð¼Ñĥ
Ã© rÃ©
ĠÐ¿ÑĢ Ð¸ÑĢ
ĠM Ã¶glichkeit
ãģ®å ¾
un ktion
Ã¨ g
ĠFr iday
Ð°Ð½ Ð½ÑĭÐµ
æº Ģ
Ġdz iaÅĤa
ing e
Ã¹ i
ĠSch we
ãģ® ä¸Ģ
ãģĮ åĩº
e ÅĤ
ĠÑĢÐµ Ð°Ð»Ð¸Ð·
en zi
Ġh Ã´m
ĠC our
Ðł Âµ
Ġsa Ãºde
Ġä¸ ī
ĠFra ge
at ico
Ġ! !
Ġs ettembre
Ġgi us
Ð¾ÑĢ Ð¾Ð½
Ġbeso in
Ġè ³
yn ku
bil itÃ©
a gen
ĠãĤ ½
ĠO k
uj o
ac ances
Ġsimp les
Ġn esta
ion ales
ĠÐºÐ°Ðº Ð¾Ð¹
ĠÐ· Ð°ÑģÑĤ
ze igen
ĠOct ober
é Ł
ĠB ol
on st
u jÄħce
ĠGesch Ã¤ft
czy n
Ġesp anol
ĠPres ident
Ġï¼ ŀ
ãģł ãģ¨
é ľ
ĠS to
ast ica
Ġu á»ĳng
Ġger ne
ĠG arten
il ies
Ġpost ed
ais e
Ġda fÃ¼r
ĠG ood
Ġex erc
Ġsoci Ã©tÃ©
Ð¸Ð½ Ð°Ð¼
ĠÐº Ð¾Ñģ
Ġç ¥
Ġd áº¡ng
åĲĮ ãģĺ
Ġnot amment
ĠÐ¿ÑĢ Ð¸Ñħ
char ger
x to
Ġæ ±
Ð¸ÑĢÑĥ ÐµÑĤ
æı Ĳ
ĠãĤ ´
åŃ Ĺ
Ġinter na
Ð» ÐµÐ³
Ġget s
Ġpa id
Ġåľ °
ur b
Ġent ry
ĠT ele
ĠéĽ »
ÑĥÐ½ Ð°ÑĢÐ¾Ð´
Ġdem and
Ġform ation
é¤ ¨
ĠÐŀ ÐŀÐŀ
Ġavr il
ĠP ER
Ð¼ Ð°ÑĤ
Ġsig uiente
Ġæ ´
it ect
ĠO ther
att le
Ġreg ion
Ġinter view
Ġactiv ity
Ġen h
so cia
ĠÄĳ au
Ġs atis
Ġservi Ã§o
Ġdic iembre
Ã¨ n
áº§ ng
Ġco ÅĽ
i Ã¨me
Ġaff ord
ra um
éĿ ŀ
Ġblo od
Ġbenef it
Ġph áº¡m
Ġo ctubre
ĠÐ±Ñĭ ÑģÑĤÑĢÐ¾
raw d
ĠÐ² Ð»Ð°ÑģÑĤ
ch an
Ġso ir
ite z
à² ¿
ess i
ĠArbeit s
ÅĽ rÃ³d
ãģ®å Ĩ
w est
Ġfam ille
Ġdo k
Ġsitu ation
æ¡ Ī
Ġli bre
ĠÐ½ Ð¾Ð³
ĠÐ¾Ñģ Ð½
Ġgus ta
ell schaft
Ġc ateg
ĠJan uary
Ġinvest ment
Ġoffer ing
Ġc itas
ĠÐ° ÑĤ
Ġngh á»ĭ
Ġso cietÃł
Ġabr il
u k
Ġh Ã¶
Ġå ķĨåĵģ
Ġdi ch
Ġl etto
ĳ ng
ĠA y
ĠY es
Ġ4 6
Ġincont ri
Ġincl uso
ĠB as
éĸ¢ ä¿Ĥ
ĠÑıÐ½ Ð²Ð°ÑĢ
ĠV oir
ãģłãģĳ ãģ§
ĠçĽ ¸
Ġwoll en
ãĥĿ ãĤ¤ãĥ³ãĥĪ
Ð¸Ð½ ÐºÐ¸
Ġä»Ĭ åĽŀ
Ġalgum as
ĠD own
ĠCh i
Ġh áº¯n
Ġp ÅĤy
Ġlo ved
Ð ¨
ÑĥÐ½ ÐºÑĤ
all es
Ġ5 00
Ñı Ð²Ð»Ñı
Ġpr ost
ĠÐ¿ÑĢ Ð°Ð·Ð´
ĠÐŁ Ð¾Ðº
æİ ¥
ãģı ãĤīãģĦ
ãĥļ ãĥ¼ãĤ¸
ĠP rix
ĠÄĲ Ã¢y
Ġpre Ã§o
ĠÑģÐ»ÐµÐ´ ÑĥÐµÑĤ
Ġpotre bbe
Ġletz ten
ap an
ĠPol s
Ġsol ic
re l
Ġcon duct
åıĹ ãģĳ
ĠÐŁÐµÑĤ ÐµÑĢÐ±ÑĥÑĢÐ³
Ġk ar
Ġl icz
Ġleg ge
ĠS Æ¡n
Ġcon osc
ĠCÃ³ mo
U L
Ð¾ÑĢ ÑĮ
Ġnh Ã©
Ġn ar
æķ ´
un k
ĠÑĩ Ð¸ÑģÑĤ
ie t
Ġo kaz
ĠÑĢ ÐµÑģ
ĠÐ½ Ð¾Ñĩ
ist ry
Ġsl ow
Ġd ream
Ġpr Ã¡ct
Ġd Ãłnh
Ġstron y
ĠI ni
ĠÑĤÐ°Ðº Ð¾Ðµ
Ġv uo
Ġc áºŃp
Ġgi ugno
ĠB au
Ġe ig
ÑĢ Ð¸ÑģÑĤ
in cia
ÑĬ ÐµÐ¼
b ilidade
áº© y
ĠÃª tes
Ðķ ÐĿ
ãģ§ãģ¯ ãģªãģĦ
if s
rupp e
Ġper d
Æ°á» Ľi
ĠczÄĻ ÅĽci
ĠK auf
ĠÐµ ÑīÑĳ
cz nych
owan iu
at te
çĶ ³
Ġtr itur
an ten
ĠMad uras
è¾¼ ãģ¿
ĠC ou
Ġè¦ ĭ
ĠFace book
ĠÑģÑĢ Ð°Ð²
Ġop ortun
Ġl ivre
ag ed
Ġby ÅĤa
it ore
ĠÐ· Ð½Ð°
Ġa ide
Ġre a
Ġen fer
ĠF rei
Ġd Ã²ng
ar ie
ĠÐº Ð°Ð±
u Ã´i
isten cia
Ġnh áºŃt
ĠÐ¿Ð¾ÑĤ Ð¾Ð¼
sto ff
cz ka
ĠÑģÐ²Ð¾ ÐµÐ³Ð¾
ĠsÃ©cur itÃ©
Ġofre ce
us ion
Ð¾Ð¼ Ð½
h old
ÑİÑī Ð¸Ñħ
ãģ« åĩº
ĠæĻĤ è¨Ī
Ġ19 8
Ġwszyst kich
Ġj ud
ta kt
çī Ī
ĠS E
Ġgob ierno
Ġs Ã©rie
Ġret our
Ġrespon se
Ġpict ures
£ ãĤ³ãĥŁ
ĠM Ã¼n
Ġam igos
ĠCali for
Ð° ÑģÑĤÐ²
Ġle p
ĠK ing
ien da
Ġtrov are
æī ķ
ĠÐºÐ½Ð¸ Ð³
Ġä¸Ń åı¤
Ġsic urezza
ãģ ¼
éł Ń
Ġjo ven
ĠhÃ´t el
Ġele g
et o
ÑĥÐ»Ñı ÑĤÐ¾ÑĢ
ĠWe g
ĠUn idos
ĠÑĢÐµÐº Ð»Ð°Ð¼
Ġs Ã¢n
ãĥ¡ ãĥª
Ġdiffer ence
h y
ĠS am
ĠÃ ļ
Ġst age
Ġrep lace
åģ ´
Ġun as
Ġar beit
it ute
ĠÐŀ Ð½Ð¸
em bro
Ġ q
Ġãĥ «
ĠÐ¿ÑĢ Ð¾Ðº
Ġexp res
Ġr ÄĻ
ĠÄĳá» į
zi om
Ġkonn te
u ka
ĠF ol
ä¸Ĭ ãģĮ
Ġæ ³
ĠAs ÃŃ
Ġcar te
ĠM Ã¡y
ĠC le
ÄĻ zy
Ġl anÃ§
men o
w anie
Ð¾Ð²Ð°Ð½ Ð¸Ð¸
Ġká» ĥ
Ġcont ribut
Ġus es
æĶ ¿
ãģ ľ
ĠÑģÐ°Ð¹ÑĤ Ð°
Ġste hen
Ġex ecut
Ð°Ð¼ ÐµÐ½
æŀ ļ
ç© ¶
ãĥ ¦
Ġcon vers
ate go
Ġsouv ent
Ġb Æ°á»Ľc
Ġgro ÃŁ
ĠJun i
Ðº Ð¾Ð³Ð¾
at ten
Ġcas h
ab il
ĠÐ´Ð¾Ð¿ Ð¾Ð»Ð½Ð¸ÑĤÐµÐ»ÑĮ
ãģĻãĤĭ ãģĵãģ¨ãģĮ
Ġfra me
Ġng á»§
ĠÐºÐ¾ÑĤÐ¾ÑĢ Ð¾Ð³Ð¾
n ict
Ġst uff
ĠT a
ÃŃcul os
Ġmar gin
Ġch ambre
ĠÐ¼ Ð°ÐºÑģÐ¸Ð¼
Ñı Ð¼Ð¸
ÑĤ Ð¾Ð²
ĠÑģÑĤÐ¾ÑĢ Ð¾Ð½Ñĭ
Ġencuent ra
ç Ĩ
Ġmain ten
ĠM ich
ir ing
aliz ed
ĠÐ´ ÑĥÑĪ
Ġre laÃ§Ã£o
Ġpolit ical
Ġfr ente
f ique
ãģ® ãĤ¢
Ġfun zion
it to
Ġdam age
ĠÐ¿Ð¾Ð´ Ð°ÑĢ
Ġs áº»
Ġse ptiembre
ĠÐŀ Ñĩ
ãĤĪ ãģı
ĠÄĳo áº¡n
ĠÑģ Ð¸Ð½
ĠÑĤ ÑĥÑĤ
Ġotto bre
Ð² Ð¸Ð½
ĠdÃ©c ouv
l u
éł ¼
Ñĩ Ð¸Ð²
Ġot ten
ĠÑĢ Ð¾Ð·
zy ch
Ġmed ic
ĠB it
Ġt ai
Ġver fÃ¼
Ġm iaÅĤ
Ġrealiz ar
Ġfam ilies
åħ ±
åº §
Ġeff ort
ĠB u
Ġf elt
Ð¸Ð· Ð¼
ĠÐ·Ð°Ð± Ð¾Ð»ÐµÐ²
Ġkh áº©u
Ð°Ð½ Ðº
Ð¾ÑĤ Ð¸Ð²
Ġf i
Ġde ver
Ġc la
ci ais
ve mber
ĠwÅĤa ÅĽci
Ġpossi bilitÃł
ra Å¼
ind re
r ant
Ġen ero
Ã¨ o
ĠÐºÐ» ÑĥÐ±
w od
ĠrÃ© se
Ġpas o
ãģĭ ãģ«
Ġrel acion
Ġeffect s
Ġst amp
Ġcu atro
ĠÑĢ Ð°Ð´Ð¸
ĠT op
anz ia
ck t
Ġa Ãºn
Ġdom u
Ã³ri os
Ð¸Ðº Ð°Ð½
Ð°ÑİÑī Ð¸Ð¹
ta j
Ġao Ã»t
° ¡
ĠI S
Ġgen au
Ġpom oc
ĠÐ½ÐµÐ± Ð¾Ð»ÑĮÑĪ
Ġp is
y al
ub ro
Ġch á»¯a
Ġç ľ
Ġp ages
Ġb esser
in ary
Ġv ac
Ġwen ig
ãĥĽ ãĥĨãĥ«
Ð°Ð½Ð´ Ð°ÑĢÑĤ
ĠS atur
or ge
åĲ «
b ri
qu il
Ġm Ãºs
Ġno ir
ÑģÐ» ÑĥÐ¶
Ġv ista
ell er
ĠEr fahr
Ġsle ep
Ġb i
è¦ ĸ
om mer
Ġoffer ed
ta nd
Ġuse ful
Ġchar ge
Ġtuy áº¿n
Ġkol or
Ġli f
ĠÐ²Ð½Ð¸Ð¼ Ð°Ð½Ð¸Ðµ
Ã£ n
ĠJ est
ĠnÃ³ s
Ġbeh av
ĠCalifor nia
os iÃ§Ã£o
Ġapp reci
ĠNo vember
ĠÑģ Ñħ
Ġv ue
an ca
l ight
ĠÐ¾ÑĤ Ð¼ÐµÑĤ
p unkt
Ġn ut
Ã¶r per
ĠÑĤ Ð²Ð¾ÑĢ
od en
Ġexist ing
sz Äħ
ol f
ĠÐĴ Ð¾ÑĤ
Ġ7 9
ĠÐ¾ Ð³ÑĢ
ĠÃī t
Ġseg unda
ma ine
ĠDE L
Ġge hen
Ġh Ã¤t
ĠÐ¸ÑģÐº Ð»ÑİÑĩ
, ,
ub o
Ġmar chÃ©
Ġbir th
Ġn p
Ġd ol
ĠÑĢ Ð°Ð¼
Ġç ¨
ze pt
åĽ £
ÐĽ Ð¬
Ġst att
ĠÑĩÐ°ÑģÑĤ Ð¾
Ġacqu a
ĠJ apan
Ġg ard
res e
Ġdeg ree
Ð¡ Ð¡
Ġbus c
EN T
aliz ado
Ġp ueb
ĠSch warz
Ġï¼ ł
ĠBus iness
ĠÐĶ Ð¾Ð±Ð°Ð²
ĠÐĺ Ð¼
Ġpel le
Ðķ Ðł
Ġalgun a
ĠV Ã¬
ĠSe e
Ġlot s
, \"
ĠæĬ ķç¨¿
ĠÐ¼ Ð°ÑĢÑĤÐ°
ÑĢÐ° ÑĪ
ĠÑĥÑĩ ÐµÐ±
Ġv á»ĳn
Ġdob rze
à ¸
ĠÑģÐ²Ð¾ Ð¸Ð¼Ð¸
ĠBe ispiel
ate gy
Ð¿ Ð¸Ð¾Ð½
Ġgrat u
Ġas pect
r ato
ãģĬ ãĤĬ
Ġp en
illa ge
ãĥª ãĥ¼ãĤº
Ġassoci ated
ĠG roup
ĠÐ¿ÑĢÐµÐ¿ Ð°ÑĢ
å® Į
Ġact ive
ĠÐĳ Ð¾Ð»ÑĮÑĪ
Ġci Ã²
Ġm other
Ġnh á»Ľ
Ġb Ã¡c
ĠDes de
Ġs Æ°
ĠE ar
Ġse ul
ĠEn ts
Ġtrans fer
Ġmigli ori
ale ur
Ġpart ido
res so
Ġeas ier
ĠS il
ĠÐºÑĢÐ°Ñģ Ð¸Ð²
ĠkaÅ¼ de
Ġein ige
Ġalgun as
Ã¼ hr
Ġwyk orzyst
kt or
Ġcons ist
Ġbl ue
graph y
ĠÐ½Ð°ÑĢ Ð¾Ð´
he res
ĠJ es
ĠÄĳ Ã´i
Ġa fect
z ze
Ġcoment arios
ĠH ay
ĠS em
Ð¢ Ðŀ
ĠÐ± ÑĥÐº
æĹ ©
Ġk siÄħÅ¼
d i
ul ta
ÑģÑĤ Ð°Ð½
Ġdist ribut
Ġg á»Ńi
b 3
Ġem er
æ³ ģ
ra nge
ĠÃ¡ gua
ĠI ng
ĠÂ ¥
ĠÐ¼ Ð°Ñı
Ġg uy
Ġviel en
ie ÅĦ
Ġla bor
h mer
u jÄħc
ĠServ ices
l atego
x te
Ġè ī
Ġd ys
Ġof t
ÐµÐ¹ ÑĤ
Ġr ates
ÑĭÑĪ Ð»ÐµÐ½
Ġng uy
Ġjul io
Ð¾Ð½ ÑĥÑģ
± æ¯Ľ
Ġper f
Ġnuev os
ĠdÃ© f
åĥ į
is ions
ãĥ©ãĤ¤ ãĥ³
Ġesper ienza
Ń ¦
ment os
ĠY a
Ġmi as
ãĤ· ãĥ§ãĥ³
â Ĺ
Ð¸Ð´ Ñĥ
ĠT Ã¢y
anz i
Ġbas ic
Ġa ward
ĠpÃºbl ico
ĠPor n
ãĥĩ ãĥ«
ãĤ¯ ãĤ»
Ġredu ce
ĠEntw ick
aix a
ant ly
t out
ult os
Ġdzie ck
Ġreco gni
us iÃ³n
Ġfeel ing
ĠÃ ¬
Ġcomp on
ĠÐ²ÐµÐ´ ÑĮ
ĠSund ay
ãĥ³ãĥ ĩ
ãģ¤ ãĤĤ
Ġza pe
liche s
Ġj unto
Ã©r er
Ġç ¬ĳ
k anie
Ġra m
ĠÐł ÑĥÑģ
Ġpro ced
Ġä» ĸ
icht s
ĠÑĥ Ð¶
es tiv
ĠC ono
ĠB Ãłi
Ġer ste
Ġcer c
ation ale
ĠÑģÐµÑĢ Ð²
ĠOr t
Ġl Ã¡
Ġãĥ ¦
ĠÐ¡Ð¾ Ð¾Ð±Ñī
Ġche g
ĠÐŁÐ¾ ÑįÑĤÐ¾Ð¼Ñĥ
Ġinde p
âĶ ģ
ĠAl Ã©m
Ġcost ru
um a
ĠC ur
Ġwas n
ĠÐĴÐ»Ð°Ð´ Ð¸Ð¼
ÑģÐº ÑĥÑİ
pl atz
Ġeconom ic
Ġsur tout
Ġt ant
Ġadv ice
ĠH ombre
inh as
hl er
Ð½ Ð¸ÑĤ
Ġexperien ced
Ġcad re
Ġsh op
Ġn acional
sz taÅĤ
ãģ® ãģ¿
ĠÐ¢Ð°Ðº Ð¶Ðµ
Ġcitt ad
Ð°Ðº Ð°
Ġo czy
Ã¤ ter
ou ter
ĠÐļ Ð°ÑĤ
Ġmes i
ĠÑĤÐµÐ¿ ÐµÑĢÑĮ
ĠCi udad
ÐµÑħ Ð°Ð½
pr Ã¼
ÃĪ Ãĭ
p ra
ĠG reen
ĠÐ¸Ð³ ÑĢÐ°
Ð¸ÑĢ Ð°
Ġrze czy
Ġco le
amb res
Ġdeli very
Ġzak up
ĠÐ¿ÑĢÐ¾Ð³ÑĢÐ°Ð¼ Ð¼
Ġi hm
ĠUni versidad
ĠÑħ Ð¾Ð·Ñı
Å ĵ
ĠrÃ© c
ci er
Ð¸ÑĨ Ð¸Ð½
ĠTh Ã¡i
gg etti
ĠMÃ¤ rz
Ġsitu aciÃ³n
Ġæ Ķ
åĮ »
Ġactiv idades
Ġsk lep
ĠT w
Ġser ve
Ġvi ol
ĠÐ³ ÑĢÐ°Ð½
Ġpesso a
gra m
çĹ ħ
Ñİ Ð·
ĠX u
ÃŃcul as
Ġbas is
Ġfe brero
Ġde dic
ĠÄĳá»į c
Ġb ur
Ġun it
um en
Ġra z
ĠM er
Ġla o
Ð¾Ð½ Ñĩ
Ġv arios
Ġnuo vi
Ġen erg
Ðµ Ñı
Ġf eit
ĠI nh
éļ İ
Ġdes crib
ĠÐ½Ð°Ð· Ð½Ð°Ñĩ
Ġso ciales
ĠDe ce
ien cia
Ġproduct o
stell er
Ġdire t
Ġpat ient
ru z
cch io
Ġå ģ
ĠÐ¼ Ð°ÑģÑĤ
Ġap are
t res
äºº ãģ¯
Ġsi Ã¨
Ì£ c
Ġref lect
ed y
Ġtr ouve
Ġg ave
ĠÐ¾ÑĤÐ´ ÐµÐ»ÑĮ
Ġch ica
Ġpr Ã¨s
qu anto
ĠJul i
ĠÐ¾Ðº Ð¾Ð»Ð¾
alis ation
ĠM id
Ġæ Ģ
ĠIl s
ĠLo ok
Ġnov iembre
Ġfol gen
ĠÐºÐ¾Ð¼Ð¿ Ð°Ð½Ð¸Ñı
Ġse maine
Ġl áº¡nh
Ã¤ us
ÑĢÑĥ ÑĤ
Ġstr um
Â Ń
Ġtr ade
Ġschool s
Ġtrans port
s s
Ġch áº¿t
Ġtr Ã¡i
è© ķ
ĠÐ²ÑĭÐ¿ ÑĥÑģÐº
ĠAug ust
Ġextre m
Ġgu arante
ĠÑĤ Ð¾ÑĤ
ĠEr geb
Ð¼Ð¾ÑĤ ÑĢÐ¾Ð²
Ġg as
Ġown ers
å¯ Ħ
ĠÐ°Ð½ Ð³
ĠÐ¿Ð¾Ð·Ð²Ð¾Ð»Ñı ÐµÑĤ
łĶ ç©¶
K I
è Į
wi ed
éĽ ¢
ĠÐ½Ð¸Ðº Ð°Ðº
Ð¾Ð´Ð°ÑĢ Ñı
Ġdz iÄĻki
Ġinc ome
ĠTh Ã´ng
ĠÐ¿ÑĢÐ¾Ð´ Ð°Ð¶
Ġzaw sze
2 1
è¼ ĥ
ç ĸ
ï¼ ĺ
ÐºÐ¸ Ð´
Ð»ÐµÐ½ Ð¸Ð¹
uest as
Ġmeille ur
b and
é£Ł ãģ¹
Ġcuc ina
Ġplay er
c aÃ§Ã£o
Ġst ories
Ġter ra
ĠãĤ³ ãĥĶãĥ¼
M A
ĠÐ¿Ð¾Ð´ ÑħÐ¾Ð´
u gu
ĠÑĥÐ¿ÑĢÐ°Ð² Ð»ÐµÐ½Ð¸Ñı
ĠmÃ¶ chte
Ġl uglio
Ġth Æ¡
Ġhe mos
ãģı ãĤĮãĤĭ
r ÃŃa
ĠSt reet
istra zione
ĠDece mber
Ġ/ /
r Ã¡s
ĠÐŃ ÑĤ
ÑĢ Ð¾Ð¹
Ġs ele
Ð¾ÑĢ Ð¾ÑĤ
Ġreport ed
ĠÑģ ÑĥÐ±
ww w
Ġlar go
ĠÐ¼ÐµÐ½ ÐµÐµ
Ġt Ãªm
Ġseg uranÃ§a
re u
ĠB áº£n
ĠD an
ĠÐ§ ÑĤÐ¾Ð±Ñĭ
ĠSp iele
Ġer w
ãģĭ ãĤĤãģĹãĤĮ
Ġ ^
se hen
Ġapp el
Ġdev ices
Ġcuer po
vo y
ĠfÃ¡ cil
ĠD ios
Ġset ting
ĠÐ²Ð½ ÐµÑĪ
ĠÐĲÐ½ Ð´
Å¼ eli
g estellt
Ġocc asion
ĠV N
Ġprop ose
ĠP ag
ab ilidad
ĠHotel s
Ġmol ti
lo g
ĠâĹ ĭ
ab ilidade
Ġsp ent
ĠE ast
in ale
ĠBere ich
adz ie
Ġtrze ba
ÐµÑĢ Ð¸Ð½
ãģ£ãģ¦ ãĤĭ
Ġ5 4
Ġd ow
ĠÐ§ ÐµÑĢ
ĠÐĲÐ² ÑĤÐ¾ÑĢ
ĠPare ja
åĩ ¦
Ġdic embre
ĠÐ¿Ð¾Ð´ Ð¾Ð±
ãģ¨ ãģ®
ÑİÑī Ð¸Ðµ
Ġad vert
° ·
Ġwar m
åĬ¹ æŀľ
Ġ uffici
ĠColle ge
âĢ ĭ
........ ........
ç ħ
Ġtr ied
Ġam ore
Ġv Ã²ng
Ġ Æ°u
ãģ®å¤ §
Ġw Ã¤hrend
et ten
os ci
ze mbro
Ġgiá» ĳng
Ġgro ÃŁe
Ġczas u
ĠDep artment
Ġfal ta
Ġs antÃ©
ãģ®åł´ åĲĪ
Ġm elhores
Ġgr ado
ĠWer k
ç® Ĺ
ĠÑģÑĤ Ð°ÑĤ
ĠÑģ ÐµÐ½ÑĤ
ĠÅ ĵ
Ġc ul
ĠÐ¸ÑģÑĤ Ð¾ÑĢ
Ġfinan ci
Ġapr ile
amp les
Ġreg iÃ£o
Ġregard ing
Ġp untos
Ġsur round
ti ques
ner g
ĠÑģÑĢÐµÐ´ ÑģÑĤÐ²Ð°
ãģ« ãģĹãģ¦
Ġm unicip
Ġk red
ouv elles
ĠÐ¿ÑĢÐ¾Ð´ ÑĥÐº
i ad
Ġb and
ress ive
Ġpod emos
por ate
Ġph Ãºt
ĠPro zent
ĠM ag
ĠAl though
Ġri fer
Ġsoci edad
ãĥ³ãĤ »
le ÅĦ
Ġch ose
ci da
Ġwe ather
aliz ar
on de
Ġpress ure
Ġsom mes
Ġdi vent
Ġdiver si
ÐµÐ½ Ð´Ð°
ÃŃ r
ĠÑĤ Ð¾Ð³Ð´Ð°
ĠKom m
Ġgen naio
ĠÐ½Ð¸Ñĩ ÐµÐ³Ð¾
ĠT wo
Ġãģĵ ãģĵ
Ġx Ã©t
ĠÐ³ ÑĢÑĥÐ·
ĠÑĩÐ°Ñģ Ð¾Ð²
ĠB en
ĠÐ¸Ð½ ÑĦ
pt ion
ĠH omme
Ġsur face
am ic
Ġtá» ĭ
Ġæ ²
om i
Ġch iá»ģu
Ġbo a
ĠÅĽ wie
ank en
ĠÑģÐ¾Ð² ÐµÑĤ
ras z
Ġesto y
r ich
Ġn Ãłng
ÑĪ Ð¸Ð±
rÃ³ t
ĠP AR
ĠÃºlt imo
éĻ º
Ġ} ,
ĠÃ©ta bl
Ġgr adu
Ġg old
Ġfin ish
rÃ¤ ge
Ġbe yond
Ġth iá»ĩn
Ġtr atta
Ð¼ Ð°ÑĤÑĢ
ĠÐ²Ð½ÑĥÑĤÑĢ ÐµÐ½
Ġtr ata
Ġfe et
Ġsh own
w id
ĠrÃ© du
Ġtra m
or se
Ġrep air
omb ia
æ¶ Ī
unic ÃŃp
Ġa illeurs
ĠSatur day
ĠÐ°Ð½ Ð°Ð»Ð¸Ð·
Ġcertain s
ĠÐļÑĢ Ð¾Ð¼Ðµ
ĠAcc ueil
ci Ã³
li ka
Ð½Ð¸ Ð¶
gli ere
ĠJes us
æı ´
ĠÑĤÐµÐ¼ Ð¿ÐµÑĢ
Ġprec isa
ers i
el iz
Ġb row
Ġh osp
ĠÐ¿ÑĢÐ¸ ÑĪ
á»ĭ p
Ġt inha
è²· åıĸ
ĠÐ²Ð¾Ð» Ð¾Ñģ
å½ ±
Ġo cas
Ġmean ing
Ġcult ure
io res
Ġthan ks
Ġfir my
ĠkÃ¶nn te
und ial
ĠÐ²Ðº ÑĥÑģ
ĠEurope an
Ġw issen
Ġen v
ĠBewert ungen
ĠGro ÃŁ
Ġx anh
ĠMar kt
ÐµÐ» Ðµ
Ġ uy
Ġart ÃŃculo
Ġwed ding
d om
ĠÐ¡ ÑĢÐµÐ´
iv amente
ĠÐ´Ð¾Ð» Ð³
Ġtru ly
Ġnuo ve
ĠÑĤ ÑĢÑĥ
Ã¤ hlen
Ġè £
Ġk r
ash ion
Ð¾Ð» ÐµÑĤ
du le
ĠP rÃ¤
ãĥ¼ãĥĨ ãĤ£
« ng
Ġt ÅĤ
ĠÐ²Ð¾Ð´ Ñĭ
ç¿ Ĵ
it ter
ĠÑĢ Ð¾ÑģÑĤ
Ġlas ci
Ġdire ito
ÄĻt rz
Ġocc ur
Ġznaj du
Ġre la
zz ato
kt Ã³w
è¦ ļ
ula Ã§Ã£o
áº ¤
Ð» ÐµÐ¶
Ġhe ures
ĠÐļ Ð¾Ð³Ð´Ð°
Ġayud a
ãģĺãĤĥ ãģªãģĦ
ä» »
Ġk ÃŃch
am ent
ãģĵ ãģĨ
ct r
ĠTod ay
Ã Ŀ
ĠÑģÐ°Ð¼ ÑĭÑħ
ãģª ãģĹ
Ð°Ð´ Ð°
å½ ¹
ĠâĹ Ĩ
Ġhist or
Ġt eraz
Ġco ffee
ãģ« ãģĭ
ing ton
Ë Ĩ
ĠM or
Ġst ag
Ġco c
ãĤĬ ãģĮ
Ġass ur
Ġc aracter
Ġc Æ°á»£c
Ġtr áº¯ng
Ġqu asi
ĠÃŃ ch
Ġn áº±m
ĠR ad
ĠÅ¼e by
ÅĽ nia
ÃŃst icas
ron a
Ġresp ond
Ġbro ad
Ġ08 6
ĠÑĩÐ¸Ñģ Ð»Ðµ
Ġf ont
ĠÐº ÑĥÑħ
elÃ© fono
ĠM ake
Ġst ress
Ġh Ãºt
ĠÃ©c rit
Ġrespon sible
Ġne gro
Ð½Ð¸ ÑĨÐ¸Ð¿
ĠÑĢÐ°Ð¹ Ð¾Ð½
pp e
Ġapp oint
ĠÑĢÐ°Ð±Ð¾ÑĤ Ð°
å± Ģ
g ado
Ð°Ð¼ Ð¿
ĠÐ² ÐµÑģÑĮ
ar as
ĠW ed
Ġet wa
ĠÐ¿ÑĢÐ°Ð² Ð¾
Ġtr Ã²
Ã¢ t
Ġb orn
å¥½ ãģį
Ġch áº¡y
Ġg arden
ĠTr áº§n
ĠFra gen
Ġmu itos
y d
ff ic
Ġå¤ ĸ
ot ta
Ġph Ã©p
Ġgem acht
V A
Ġart igo
æ® ĭ
cri p
é¡ Ķ
æ¥Ń èĢħ
Ð»ÐµÐ½ Ð¸ÐµÐ¼
Ġpr in
Ġdisfr ut
ĠÐº ÑĢÑĥÐ³
Ġla nge
ĠÐ¾Ð³ ÑĢÐ°Ð½Ð¸Ñĩ
al ny
Ġt ip
è¨ĺ äºĭ
ĠÐºÐ°ÑĤ ÐµÐ³
ĠÐ²Ñĭ ÑĪ
Ġcons ult
ĠÐ¼ Ð¾Ñī
Ġqu elli
ĠF uÃŁ
Ġaggi orn
Ġb rought
ĠÐĲ Ðº
Ġmes e
j on
ãĥ¼ãĥ Ģ
Ġbus car
ĠÐ³ÑĢ Ð½
ĠÐ¾ÑĤ ÐºÐ°Ð·
Ġsp irit
ĠPols ce
ck ing
Ġrele ased
Ġgo verno
ÐµÐ½Ð¸Ñı Ñħ
Ã¼ d
ãĤ¯ ãĥ©
ĠÐ¿Ð¾Ð» Ð½Ð¾ÑģÑĤÑĮÑİ
Ġsu cc
ĠC lick
ĠWind ows
ĠF ederal
Ġbe iden
å¢ ĥ
Ġpolit ique
Ð¸Ñģ Ð°
Ġplay ed
Ġde tta
ãģ£ ãģĭãĤĬ
ĠÑĤ Ð°Ð±
ĠH ab
ĠÑħ Ð¾Ð´
ÄĻ dz
è« ĸ
ĠprÃ©s ident
ut ter
æ° ı
or ks
acion ales
æł ¹
Ġmu itas
to ber
us a
Ġweek end
ĠJ aneiro
it ary
ĠÐ¿Ð» Ð°ÑģÑĤ
Ġc elle
Ġbegin ning
Ġtu áº§n
ĠÐ¸Ð½ÑĦÐ¾ÑĢÐ¼ Ð°ÑĨÐ¸Ð¸
Ġey es
it ato
li ci
ĠÐ±Ñİ Ð´Ð¶
Ġhig hest
an Äħ
Ġdi p
ĠT age
ab ilitÃł
Ġh op
ãĤī ãĤĮãģŁ
op o
ĠÐŁ Ð¾Ñĩ
Ġover all
l ico
Ġch á»ĵng
5 9
Y X
er st
Ġæ¥ ½
al ter
ĠÐĿ Ð°ÑĪ
Ġpo ol
Ġthan k
Ġroz po
Ġngo áº¡i
Ġbe g
ĠComp any
ĠTH E
ĠT Ã©lÃ©
ĠRe gel
Ġãĥĸãĥ© ãĥ³ãĥī
ĠÐ²Ð¾ Ð¾Ð±ÑīÐµ
j est
ĠB Ã¡n
Äħ da
ÑĮ ÑĤÐµ
ĠÃ Ł
Ġæ İ
niej sze
ĠÐ»ÑİÐ± Ð¾Ð¹
Ġph Ã¡
ĠMit arbeit
Ġy es
ĠS ul
Ġdis so
Ġparticular ly
ic ed
Ġso gar
Ġpre zzi
ĠâĨ Ĵ
ĠL at
ĠÐºÐ¾ÑĤÐ¾ÑĢ Ð¾Ðµ
Ġim ag
ĠÑĤ ÐµÑĩÐµÐ½Ð¸Ðµ
Ġabs olut
e ins
Ġutilis ation
ĠåĲįçĦ¡ãģĹ ãģķãĤĵ
Ð¸Ðº Ñģ
ed ade
ĠSh op
Ġincre ased
use um
ĠÐ¾Ð´ Ð½Ð¾Ð³Ð¾
m ine
H otel
æº ĸ
Ġde ad
Ðº Ð°Ð¼
Ġbuen o
ĠG ay
n iÄĻ
ĠWeb cam
ç ª
Ġch Ãº
Ġgr Ã¢ce
ãĥ ¨
ag ue
m eld
ĠÐ± Ð¾
Ġim mo
Ġv enda
ĠÑįÐ½ ÐµÑĢÐ³
Ġcom fortable
Ġm Ã³n
ĠCan ada
ãĤ¶ ãĤ¤ãĥ³
ĠÂ £Â
ĠFra u
k es
ion y
Ð¸ÑĨ Ðµ
Ġåħ Ī
ĠÐ°Ð½ ÑĤ
olesc ente
Ĵ °
Ġf ight
Ġjo in
om s
ÑıÑģ Ð½
Åº dz
ĠMit gli
Ġb Ã©nÃ©
ĠÐĺ ÑģÑĤ
åº ľ
âĢ¦âĢ¦ âĢ¦âĢ¦
ĠÑĢÐµÐ³ Ð¸ÑģÑĤÑĢÐ°ÑĨÐ¸Ð¸
Ġo ch
Ġsu e
ici le
Ð¾Ñĩ Ð½Ð¸Ðº
Ġsk ÅĤad
ĠÐŀÐ± Ñī
y le
ar ily
Ġpart ner
ĠG el
Ð¸Ð± Ð¾Ð»ÐµÐµ
ĠB an
ĠÑģÑĤ Ð°Ð½Ð¾Ð²
z on
ĠRe c
Ġm Ã´n
c cio
çĶŁ æ´»
Ġm Ã¹a
ir Ã¡
Ġå¹ ³
pre che
Ã ¾
ĠÑħÐ¾ÑĤ Ñı
ĠÑĤÐµÑĢÑĢÐ¸ÑĤ Ð¾ÑĢÐ¸Ð¸
Ð± Ð¸Ð½
ãģĪ ãģŁ
æĽ ¿
Ġcour t
Ġg Ã¼nst
Ġi P
ĠW and
çŁ ³
ĠÐ¶Ð¸Ð² Ð¾ÑĤ
Ġobjet ivo
Ð¾ Ñĥ
Ġdi rig
k ania
b ody
Ġn atur
Ġl Ã¤s
Ġincre asing
Ġcum pl
ĠÐ¾ Ð¶
Ġtrava ux
ÐµÑģÑĤ ÑĮ
Ġbes onders
Ġpo ziom
Ġout ra
ĠÐ² ÑħÐ¾Ð´
Ġopin iÃ³n
Ġemp loi
Ġ. )
Ġden en
Ġv an
I á»
li k
Ġpi ed
ĠãģĿ ãĤĵãģª
Ġbath room
ch as
res ie
ĠN etz
ĠÑĦÐ¸Ð»ÑĮ Ð¼
cze ÅĦ
ãģķãģĽ ãģ¦
cz one
Ġeing e
c olo
çĽ¸ è«ĩ
os es
ĠL iÃªn
ĠÐ¿ÑĢÐ¸ Ð³
ied ad
fic aÃ§Ã£o
u cher
Ġved ere
ot as
Ġitali ano
Ġt etas
Ġlar gest
O T
ï¼ ī
ĠQu ando
ĠM et
Ġc ele
ĠG razie
ï¼ Ĺ
ia ble
Ġv áº»
Ġfal se
Ġpon ad
Ġspo ÅĤe
Ġc ru
ĠÑĢÐ°Ñģ Ð¿ÑĢ
ĠçĶ ·
æ¬ ²
at u
Ġkon ie
Ġs iendo
Ġwiel u
ve mbro
Ġo bec
E G
ÃŃt ulo
ula res
ĠÑĢÐµÐ±ÐµÐ½ ÐºÐ°
for d
an cy
Ġev alu
ĠApr Ã¨s
Ġcertain ly
Ġaten ciÃ³n
it ik
om as
ĠC V
ĠÐ·Ð°Ð¿ Ð¸Ñģ
Ġent onces
Ġave va
Ġse ctor
Ġresult ados
Ġt áº§ng
æĢĿ ãģĦ
Ġcolle ge
æĸ¹ ãģĮ
Ġbie ten
le ist
Ġè ĭ
ï¼ ļ
åīį ãģ«
h Ã¤ng
ĠR Ã©s
und er
ĠÐ½ÐµÐ¿ ÑĢ
z ÄĻ
ĠÐłÐ¾ÑģÑģÐ¸Ð¹ ÑģÐºÐ¾Ð¹
ĠÐ» Ð¸ÑģÑĤ
ni enie
po zy
à ¤
ãģı ãĤĬ
Ġmo je
Ġdara uf
é Ĥ
Ġcre o
³ ç´°
fÃ©r ence
Ġe at
Ġjak i
ÑģÑĤÐ² Ñĥ
Ġpodr ÃŃa
ãģĭ ãģĳ
w aÅĤ
Ġbed room
Ġm ilhÃµes
Ð¼ Ð¾
ĠL uis
Ġfun k
Ġå ŃĲ
ĠÄĳ Ã´ng
Ġç ¶
ç´ ¢
Ġto war
Ġkhá»ı i
ĠÐ¿ÐµÑĢ ÑģÐ¾Ð½
Ġser r
h Ã¶
Ġe uros
l le
res a
Ġhe ard
ĠÐ¿Ð¾Ð´ ÑĤ
ãģł ãģĭãĤī
Ġstud ies
ali an
Ġcor r
r Ã¼
Ġnuev as
Ġal um
Ã¤t ze
ĠwÅĤa ÅĽnie
é¡ĺ ãģĦ
Ġappropri ate
ÐµÐ´ Ð¶
ĠV e
li ance
ane go
ĠÃĶ ng
Ġtr á»Ŀi
Ġre un
Ġkann st
Ġalt ra
Ġseu lement
Ġpropr ia
ĠÑħÐ°ÑĢÐ°ÐºÑĤÐµÑĢ Ð¸ÑģÑĤ
od Ã³w
ãģ¾ ãģ¾
ĠTr Æ°á»Ŀng
nic y
ĠÐ²Ð¼ÐµÑģÑĤ Ðµ
ĠÑģÑĢÐ°Ð² Ð½
ĠW ork
Ġå¹ ´
Ġag osto
7 4
Ġpubb lico
erv ed
zy n
rÃ¤ n
Ġmiejs c
Ġal though
ĠÐ¸ÑģÐ¿ Ð¾Ð»Ð½
Ġh áºŃu
Ġk orzyst
ad em
Ġcor res
Ġc ards
Ã£ y
ĠÅĽ wiat
Ð¸ ÑĨÐ¸Ð¸
Ġprz es
ĠC a
ĠÐ¼Ð¸Ð½ Ð¸Ð¼
en ci
ĠS eiten
Ġdise ase
Ðļ ÐĲ
ĠÐ¿ ÑĥÐ½ÐºÑĤ
Ġb elle
ĠB ra
yt ua
Ã¢ te
ĠÑĦ Ð°Ð¹
Ġ5 6
Ġob l
æĹ ı
Ġcreat ive
at illas
Ġãĥĸãĥ© ãĥĥãĤ¯
ĠÑĥÑģÐ»ÑĥÐ³ Ð¸
ĠÑĥÑģÐ»Ð¾Ð² Ð¸ÑıÑħ
ĠCh Ãºng
ĠOk tober
ÑĢ Ð¸
ĠD la
ãģĻ ãģİ
ãģ®å ŃĲ
ÑĪ Ð¸Ñħ
ĠZ ug
Ġreal idad
ãĥ³ãĤ¿ ãĥ¼
Ġcomplet ed
ĠãģŁ ãģł
ĠÐ¾ÑĤ Ðº
Ġbl anc
ĠBe cause
ĠÐ¼Ð¸ÑĢ Ð°
ĠÅĽ wiad
Ġmedi ante
ĠÐ² ÐµÑĩ
Ġmay be
Ġann ual
Ġok re
Ġdou ble
Ġmeas ure
Ġam ici
iá» ħ
Ġh Ã²a
ĠãĤ¢ ãĤ¤
Ġnoss os
ãĥ³ãĤŃ ãĥ³ãĤ°
ĠTh á»©
Ġric on
ĠÐĶ Ð¾Ð¼
Ġb ast
é£ ²
ist or
Ġ äººæ°Ĺ
ĠdÃ©velopp ement
c s
ali ze
Ġcontact o
Ġ! !!
Ġcal le
Ġch urch
ĠÐ£ÐºÑĢÐ° Ð¸Ð½Ñĭ
ĠRe ad
ru ary
Ġvis to
ĠÐ´Ð°Ð½ Ð½ÑĭÑħ
Ġutilis er
os it
Ġinst ruct
Ð¾Ð»ÑĮ Ð½Ð¾
ĠÐĺ Ð²
ãĤĴ ãģĻãĤĭ
ãģ« ãģĤãĤĭ
Ġperson ale
ron ic
ne hmer
ĠT in
ãģ®å ī
è¦ ª
ie z
ä¹ ħ
ĠF ound
Ġv ot
ĠÄĳÃ³ ng
Ġsar anno
Ġãģ© ãģĨ
Ġtuy á»ĩt
Ġvá» £
os si
ĠWh ite
ãĤī ãģĹãģĦ
Ð¸Ð³ Ð¸Ð½
ĠÐķÐ² ÑĢÐ¾Ð¿
ĠÐ¸Ð½ ÑģÑĤÑĢÑĥÐ¼ÐµÐ½ÑĤ
ï¼ Ł
Ġth ous
Ġt et
icz nych
Ġtien es
Ġsp esso
Ġscar pe
ãģ® ãģĤãĤĭ
ĠÐ¾Ð¿ ÑĤ
ĠSt Ã¼ck
ĠÐ´Ð² Ð¸Ð³
er Ãł
r ire
ĠWeit er
ĠW iel
ĠÐµ Ñĳ
Ð¾Ð» Ð½Ñı
ĠÐľ Ð°ÑĤ
ãĥĪ ãĥ©
Ġl he
ann er
ÑĭÐ² Ð°ÐµÐ¼
Ġkho áº£n
ĠÑĥÐ² Ð¸Ð´
Ġmod elo
Ġr om
ĠÐ½Ð¾Ð¼ ÐµÑĢ
ĠpÃ¡g ina
Ġobie tti
Ġa z
icht et
ĠÑĤÐµÐ»ÐµÑĦ Ð¾Ð½
ĠÑģÑĤÐ¾ Ð¸Ð¼Ð¾ÑģÑĤÑĮ
ĠÐºÐ¾ÑĢ Ð¿
ģ m
iss ione
Ġst ell
Ġprodu ce
ä¹ ³
olog ies
ica zione
ĠP ed
Ġco isa
Ġimmedi ately
æĢ ¥
ãĥĪ ãĥ¬
Ġenf ant
Ġesp acio
ĠSel bst
åı į
å¸ ¯
Ġchang ed
ĠÑģ Ð±
ĠÐ¦ ÐµÐ½Ð°
Ġh omes
Ġpow iedz
Ġou vert
ãĥ¼ãĤ³ ãĥĶãĥ¼
ÌĢ ng
Ġth iáº¿u
Ġç¾ İ
ĠI T
ate m
ĠÑģÑĤ ÑĥÐ´
Ġkh Ã³a
Ġver b
ĠK ir
etz ung
Ġfurn iture
Ġcolla bor
Ġem ot
Ġsel ection
Ġr ichtig
ĠFeb ruary
ĠÄĲ á»ĭ
Ġcas os
ĠW ash
Ġde tto
Ġsou ha
k owy
Ġprogram ma
s ych
ĭ äºº
åĨ į
å± ķ
noÅĽci Äħ
cyj nych
Ġæ¥ Ń
Ġeff ett
ĠL ink
Ġhelp ing
Ġsá»Ń a
ie b
Ġprincip al
ä¸ İ
ĠM ond
ĠJu gend
Ġpre par
bi ente
Ġra ison
ĠH ol
Ð¸Ð½ Ð¸Ð¼
Ġb atter
ĠTe chn
ard i
Ġtr ouv
åĢ Ł
ĠÐ´ÐµÐ» Ð¾
Ġal g
Ġdesenvol vimento
ĠN atur
Ġé£ Ł
Ġocc as
ĠD A
Ġnot ice
ĠÐĺ ÑģÐ¿
Ġch auf
ĠUni vers
ĠWy ÅĽwiet
Ġatten d
ia ÅĤy
Ġre cht
Ġprop ri
ĠÄĳá»© ng
ĠT re
Ġst ar
Ġna pis
ĠpaÃŃs es
Ġfam iglia
Ġal one
d os
a ient
ĠChr isti
ãģ® ãĤĪãģĨãģª
Ð» Ð¾Ðº
Å ļ
Ġpoz osta
Ġth áº¯ng
u vre
Ġgest ion
ĠJ Ã¡
ÑĥÐ½ Ð´
au ght
âĢĭ âĢĭ
ĠC es
ĠÑı ÑĢ
Ġfin ally
el es
ĠÐ³Ð¾ÑĢÐ¾Ð´ Ðµ
Ġaff ect
Ġess ential
Ġjus te
ĠktÃ³re j
Ġmod els
ĠFl or
Ġnh iá»ĩt
Ġ36 00
Ġp ul
ĠDe velop
c ado
Ġp ense
Ġwind ow
ch ange
Ġnum bers
Ġgro ÃŁen
Ġn ation
ĠÐ² Ð»Ð°Ð´
ĠÐ¶ Ð´
Ġu ro
è· ¯
Ġæµ ·
on se
ĠPh Ã²ng
st wa
Ġextrem ely
an ch
â ĸ
Ġsz ko
Ġr ules
ĠÐ¡ ÐµÑĢÐ³
inde x
Ð°ÑĢ Ð´
ster reich
Ġchallen ge
Ġstr ategy
Ġl it
Ġg anh
c Äħ
ĠNgo Ãłi
ĠÐ¸ÑĤ Ð¾Ð³
Ġp ant
ĠT u
ĠEn tre
ãĤĴ ãģĶ
Ġa ime
Ð°ÑĤ Ñĥ
Ġbott om
ant wort
ĠAr gentina
Ġrela x
Ġ5 8
Ġcl in
Ġserv ed
Ġl ines
Ġpos iada
ĠÐ¤ÐµÐ´ÐµÑĢ Ð°ÑĨÐ¸Ð¸
Ġper ÃŃ
Ġpar la
sen ce
ĠH Ãłn
ĠEin z
Ġpay ment
ĠwÅĤ os
Ġla iss
Ġn á»ģn
Ġmit t
ĠU se
Ġ5 3
Ġqu elle
è²· ãģĦ
Ġvoit ure
ĠÃ© nerg
ĠR el
cz na
sch uhe
Ġspe cjal
Ġlen gth
Ġad el
Ġre ve
utz en
Ġprim ero
åħ¥ ãĤĮ
ãĤĬ ãģ«
ĠRe chts
b ele
Ġal bo
ĠÑĢÐµÐº Ð¾Ð¼ÐµÐ½Ð´
ori i
Ġra ce
Ġteam s
Ġprzed staw
ĠTh iÃªn
ane j
Ġn ess
ste in
Ġgreat er
Ġseg n
ãĤĴ ãģĹãģ¦
Ġdere cho
Ġapp lica
Ġeigen en
Ġob rig
ate ver
ren der
ãģĮ ãģĤãĤĬ
Ġs d
Ġe uch
ĠH ave
b Ã©
Ġres erv
ĠCh ica
ãģ§ãģį ãģªãģĦ
Ð¸ÑĤ ÑĢ
ck ed
Ġest amos
bil ier
ĠÃ¶ ff
ri al
ĠÃ© m
ª å¼ı
cid ent
ĠpolÃŃt ica
Ġsay ing
è¶Ĭ ãģĹ
Ġm icro
Ġda von
w elt
ĠÐ½Ð°ÑĪ ÐµÐ¹
ãģ§ ãģ®
Ġgio co
ĠÑĢ Ð¸Ñģ
ÐµÑĨ ÐµÐ¿
Ġat ti
im ientos
ĠlÃ¤s st
Ã³ Åº
aw ia
Ġcomp ared
ĠÑĢ Ð°ÑģÐº
ĠÐļ Ð¸ÐµÐ²
7 6
ĠB Ã¼r
y ba
zz are
ĠseÃ± al
Ġj ardin
Ġï¼ ĵ
ck et
ãģ®æ Ħ
Ġcon ven
ĠÐ¿Ð¾Ð» ÐµÐ·
ĠÐ¸Ð· Ð´ÐµÐ»
Ġit em
Ġturn ed
Ġc á»Ļng
é¦ ¬
Ġmov ie
ug al
Ġ$ (
Ġtro va
ĠcÃ´ tÃ©
Ġz us
ĠÑĢÐ°Ð±Ð¾ÑĤ Ðµ
Ġentrepr ises
for me
Ġcomp art
t ku
ib ility
ĠZ iel
i ale
ĠT R
et ros
Ġhelp ed
uer to
iss ional
Ġwo j
Ġå½ ¼
ĠÑģÑĤ ÑĢÐ°Ñħ
Ġl um
Ġgrand i
Ġgrat uite
Ġdeter min
æ¥½ ãģĹ
graf ÃŃa
Ġv ou
Ġnor mal
Ġestabl ished
Ġj Äħ
2 00
ic ie
Ġrapp resent
Ġre asons
f ar
Ġãģ ¿
ĠF ind
ãĥĭ ãĥĥãĤ¯
ĠCas a
ĠÐ±Ð» Ð¾Ðº
ĠÐĴ Ð¾Ð»
Ġd ress
çķ °
Ġsh aring
Ġj ÄĻzy
C O
i h
Ð²ÐµÑĢ Ð´
ĠÐ²Ð¾Ð¿ÑĢÐ¾Ñģ Ñĭ
Ġç§ģ ãģ¯
ãĤ¢ ãĥĹãĥª
ĠÐ¼Ð¸Ð» Ð»Ð¸
ĠÐ¿ÑĢÐ¸Ñħ Ð¾Ð´
Ġdos ta
Ġpie ces
¿Ģ å®ī
Ġqu ot
ĠN ap
Ġ200 7
ÅĤ ow
Ġtit le
Ġco isas
ĠvÃł i
ĠLe y
c ce
è» ½
b lic
ĠÐ¾Ð±ÑĢÐ°Ð· Ð¾Ð²Ð°Ð½Ð¸Ñı
ĠPr im
ĠFr ances
ĠRe al
ĠVer fÃ¼
Ġsie bie
Ġprec is
Ġstra ight
Ġstruct ure
Ġç ©
ĠP u
Ġazien da
Ġcap acidad
ĠPro jekt
ĠÐ°Ð² Ð³ÑĥÑģÑĤ
Ð¸ÑĩÐµÑģÐº Ð¸Ð¼
ÑģÑĤÐ²ÐµÐ½ Ð½Ð¾
ĠSal ud
Ġpont os
å´ İ
ĠÑĤ Ð¾Ð»
ĠÐĺ ÑĤ
ĠÐ±Ñĭ ÑģÑĤÑĢ
f ield
ãģĮ ãģĤ
Z Y
u ar
ĠÐ· ÑĢ
Ġè Ĥ
Ġn at
Ġk urz
°¡ åįĺ
ĠÐ ¹
Ġ5 9
Ġph á»ĳi
Ġactiv idad
ĠÑĤÐ¾Ð²Ð°ÑĢ Ð°
ĠÐ³Ð°ÑĢ Ð°Ð½ÑĤ
Ġuni vers
Ã¡ st
ĠÐ¿Ð¾Ð´ ÑĢÐ¾Ð±
Ġc ast
ãĤĮãģ¦ ãģĦãĤĭ
ĠGen eral
A B
ĠF ir
gu ien
Ġch áº³ng
bild ung
bere ich
Ĺ ¤
Ġw al
ĠÑĤ ÐµÑģÑĤ
cz nej
Ġsec ure
v est
ĠÑģ Ð¾Ð¿
Ġth Ã´i
ic oli
æĺ ł
ĠÐ½Ð°ÑĪ ÐµÐ¼
ãģĵ ãģ¡ãĤī
å¡ Ĺ
Ġprobl Ã¨me
ĠÂ ¤
Ġgi áº£n
Ġd áº§u
ĠÐ¸Ð½ ÑĤ
ĠN av
ĠP et
ĠÐº Ð¾ÑĤ
Ġma il
ĠÑıÐ²Ð»Ñı ÑİÑĤÑģÑı
Ġbel ie
ĠÑĦ ÐµÐ²ÑĢ
in z
Ġs mo
x ic
Ġallow ed
ens ione
Ġç ģ
ĠSo ft
ä»ĺ ãģĳ
Ġgr uppo
Ġgi ud
éł ĥ
ĠChe ck
Ð°Ð½ Ð½ÑĭÑħ
ĠÑįÑĤ Ð¸Ð¼
Ġprote ction
ĠÃ °
Ġprodu Ã§Ã£o
ĠÄĳ Ã¡p
Ġmin uti
Ġsegu ito
Ġc ose
ãģ®å ĩº
Ġsci ence
ĠÐŁ Ð°ÑĢ
kt ur
ĠÑįÑĤ Ñĥ
å± Ĭ
Ð½ Ð¾Ð³
ĠÐ² ÑģÑı
ĠÑĩ Ð¸ÑĤ
ĠO h
ido res
Ġ... .
Ġide al
ĠH olz
ĠI mp
ĠwiÄĻ k
ĠÐ¿ÑĢÐ¾Ð³ÑĢÐ°Ð¼ Ð¼Ñĭ
Ġm ie
Ð· Ñı
ori os
ÐµÐ½ÑĮ ÑĪ
Ġv acances
Ġser ont
ãģĦ ãĤį
ĠEn erg
Ġsein em
ĠZ ahl
Ġsuf fer
Ġima gen
Ġbez pie
oba cz
ĠGio v
CI 6
ãĤĵ ãģ©
Ġn ero
ĠÐ¾Ð´ Ð½Ð¾
ĠD uring
ĠÐ¾ Ð¿Ð»Ð°ÑĤ
ĠI hren
ãĤĬ ãģŁãģĦ
Ġrespon si
Ġstep s
ĠÐ´ÐµÐºÐ°Ð± ÑĢÑı
Ġqu áºŃn
ĠMais on
Ġquier e
U N
Ġe ks
ĠÐ¼ÐµÑĢ Ð¾Ð¿ÑĢÐ¸ÑıÑĤ
Ġfor n
dz iel
Ġcur so
Ġpo jaw
Ġf ato
Ð¾ÑģÑĤ ÑĢÐ°Ð½
ĠÐ¿ÐµÑĢÐ² ÑĭÐ¹
ĠS l
Ġfin ans
res enta
ĠÐ²Ñĭ ÑģÑĤÑĥÐ¿
Ð¾Ñĩ Ð½ÑĭÐ¹
Ġeff ica
ç· ¨
a h
Ġn ied
ĠÅ¼y cia
è °·
ĠÐ½ Ð¾Ñģ
ÐµÐ½ Ð½ÑĥÑİ
ĠE rot
ĠÑģÐµÑĢ Ð´
ĠSu pp
ĠÐ¿ Ð°
ĠT y
ÑģÑı ÑĤ
Ã¶r der
Ġric ord
r ia
Â ¡
Ġãĥ ļ
Ġsu áº¥t
å¤ «
æĻĤ ãģ«
or ie
çĻ» éĮ²
Ġau ÃŁer
Ġsus tain
Ġnear ly
Ĭ ±
Ð»Ñı ÐµÐ¼
ĠÐ´ÑĢÑĥÐ³ Ð¾Ð¹
Ð¾Ð² Ð¾
Ġcam era
Ġpass er
ãĥ¼ãĥĸ ãĥ«
Ġe f
ram ient
ĠÐº Ð¾Ð´
ch odz
---- ----
ĠÐ¿Ð¾Ð² ÐµÑĢÑħ
ĠÐ´ Ð»
ier o
Ġob ra
æİ ¢
Ġcie ka
æľ Ŀ
ĠÑģÐ² Ð¾Ðµ
Ġcap ac
ãģ§ãģĹãĤĩãģĨ ãģĭ
at Ã³rio
ĠR et
ĠÐ½Ð¾Ð² ÑĭÐ¹
ĠÐł Âµ
Ġl iter
Ġsem bra
sI m
ĠÐ¿ÑĢÐ¸Ð» Ð¾Ð¶
e hen
ãĥŃ ãĥ³
Ġpres ente
èĢĥ ãģĪãģ¦
ĠÐ¾ÑĤÑģ ÑĥÑĤÑģÑĤÐ²
h one
in ci
ĠÐ¿ÑĢ Ð¸Ð·
Ġelect ric
ĠÐļÐ¾Ð¼ Ð¿
ĠÑıÐ½Ð²Ð°ÑĢ Ñı
T C
Ġth reat
ĠÐ¾ÑĤÐ½Ð¾ Ñģ
ĠÑĦÐ¾ÑĤ Ð¾Ð³ÑĢÐ°ÑĦ
Ġkne w
Ġ086 70
Ðº Ð¸Ð¼
Ġf ant
Ð¾Ð²Ð°Ð½ Ð¸Ð¹
Ġw aÅ¼
æĬ Ģ
Ġpo czÄħ
Ġex hib
iá»ģ m
ĠQu áºŃn
Ġex iste
Ġlist _
Ġac omp
it en
ĠÑģ ÑĥÐ¿
Ġt Ã´
å¤§ åŃ¦
Ġmá» ģm
ist ics
ĠÑģÑĢÐµÐ´ Ð¸
se ur
ĠD och
ig lie
it el
ï¼ Ļ
Ġbut ton
èĪ ¬
Ġmethod s
rit ti
land s
Ġmayor ÃŃa
Ġh izo
A G
Ġm áº¡i
Ġe fe
ĠPl ay
E LL
ĠZ us
Ġs ytua
od es
ĠCh Æ°Æ¡ng
st wo
ãĥĬ ãĥ¼
ĠAm or
ĠrÃ©g ion
ĠSa Ãºde
agg ior
ĠÐ´ÐµÐ² ÑĥÑĪ
ĠÐ¼Ñĥ Ð½Ð¸ÑĨÐ¸Ð¿
ĠR ou
Ġlar ger
Ġde cid
ãĤī ãģ«
ch ter
ier p
an ced
Ġespa Ã§o
Ð» ÐµÑĢ
Ġwszyst kim
Ġcant idad
Ã ŀ
Ġsp ie
Ð¸ÑĤÐµÐ»ÑĮ Ð½ÑĭÐµ
Ġst ates
ĠN H
Ġe je
f Ã¤l
ãĤģ ãģŁ
Ġc ura
Ġperm ite
las sen
Ġmat Ã©r
Ġfe bbraio
æ ¢
Ġw od
it ale
Ð¸Ð± Ð¸ÑĢ
Ġele ment
Ġ. âĢľ
Ġche m
uest os
ĠM em
çĦ ¼
éģķ ãģĦ
baj o
çµĮ é¨ĵ
w is
Ġfor ne
ĠÐ±ÑĥÐ´ ÑĥÑī
ĠÐ· Ð½Ð°ÐºÐ¾Ð¼
ãĤĦãģĻ ãģĦ
Ġaseg ur
Ð¾Ñĩ Ð½ÑĭÐµ
Ġsc en
è² ł
ĠH ombres
Ġsent ido
Ġstrutt ura
it ado
ĠÑĤ Ð¾Ð¿
Ġexp lic
Ġ ï
ĠÐ² ÐµÑĤ
iv al
ĠÐºÐ°Ðº Ð¸Ðµ
Ð¾Ð»Ð¾Ð³ Ð¸Ð¸
Ð¾Ð² ÐµÑĢ
ĠCoun cil
P S
ÑģÐº Ð¸
ĠãĥĲ ãĥĥãĤ°
Ġda vvero
Þ§ Þ
ĠÐŁ Ðŀ
ult ur
Ð¸Ð² Ð°Ð½Ð¸Ðµ
zi al
Ġdot ycz
Ġs ettore
Ġ}, {"
Ġpower ful
ĠÐ½Ð°ÑħÐ¾Ð´ Ð¸ÑĤÑģÑı
Ġpal av
ĠÐ¿Ð¾Ð± ÐµÐ´
èĬ ±
Ġãģ »
ÑĢ ÐµÐ½ÑĤ
st att
Ãĸ ÃĲ
Ðĵ Ðŀ
ä¸ĭ ãģķãģĦ
Ġprzeci w
Ġlu dzi
ĠB R
es tern
ĠW inter
Ġdere chos
ig io
ĠG Ã¤
Ð¾Ñĩ ÐºÐ°
ĠLa w
Ġby ÅĤy
it iz
v ant
Ġpel ÃŃcula
Ġb aby
ĠN icht
Ġch ied
ĠÄĳ Ãªm
ĠÐ¿Ð¾Ñĩ ÑĤÐ¸
çµĲ æŀľ
ĠL E
Ġnav ig
ĠA M
Ġz ost
er nen
a ches
Ġczas ie
Ġesta bele
Ġé ĥ
ÑĪ ÑĤ
oni ble
ĠQu esta
Ġcamp o
Ġt ag
Ġme chan
Ð¾Ð¼ Ð¸Ð½
Ġb ul
æ² ¢
Ġste el
Ġcent ury
m el
ĠGr Ã¶ÃŁe
Ġres ist
at ically
ĠÐĶ Ð°ÑĤÐ°
ĠAustr alia
Ġtá»ĭ ch
un te
åĽ ²
ĠCon se
ĠHa upt
ĠÐ± Ð¾Ð½ÑĥÑģ
_ index
ÐµÑĩ Ð°ÑĤ
ĠÐ½Ð¾Ð² ÑĭÐµ
Ġdise Ã±o
Ġst essa
Ð¾ÑĢ Ð´
Ġhe ra
und red
IN G
ĠgÃ³ p
Ġv ÃŃde
Ġdem onst
f lÃ¤
ĠÃ©t at
az io
ãģĻ ãģĲ
d io
ÅĤ ada
za Äĩ
ĠM ac
Ġac esso
ĠåĨ ħ
Ġt un
ĠÐĶ ÐµÑĤ
ãģ© ãĤĤ
Ġopt im
ĠãĤ¯ ãĥŃ
on dere
si asi
Ġgi Ã¡c
ÑĪ Ð¸Ð¹
Ġkle ine
cu ela
ĠÐ¾ÑĤÐ´ ÑĭÑħ
Ġn im
rap y
Ġvá» įng
5 6
ãģ£ãģŁ ãĤĬ
ÃĦ Ãª
____ ____
ĠMond ay
Ġl á»Ļ
ãģ§ ãģĬ
Ġos s
æĽ ²
èĪ Ĺ
o o
alt Ãł
Ġt orn
ĠÐ² Ð´
ĠC Ã¡ch
Ð¾Ð² Ð°Ð»
Ġsoll ten
ud a
ĠC entro
ĠProdu kte
ĠPost ado
ĠÐ¡ Ð¼
Ġinst itut
Ġst ick
ãĤ¸ ãĤ§
Ġpo bl
ĠAcc ording
Ġæ ¨
Ġm Ãªs
Ġmid dle
ĠDav id
Ġb or
ĠÐ¸Ð· Ð´
ĠãģĵãĤĮ ãģ¯
Ġ4 7
Ġh t
ĠMar ÃŃa
Ġcu anto
é ī
ĠÐĿ Ñĥ
Ñģ ÐµÐ¼
ĠRe ise
Ã¤ g
ĠÐ¸Ð· Ð³Ð¾ÑĤÐ¾Ð²
Ġmil ioni
ĠV Ãł
ĠnÃ³ ng
se gn
ä¼ģ æ¥Ń
Ð· Ð¾ÑĢ
å½ĵ ãģ«
00 åĨĨ
Ġgh i
Ġt itre
os as
åį °
vere iro
L E
ĠÐ±Ð¾Ð»ÑĮÑĪ Ð¾Ð¹
ĠÑĪÐ¸ÑĢ Ð¾Ðº
Ġm aggior
Ġas i
Ġuns eren
ĠBer uf
ĠT our
ĠS and
Ġmar ca
ĠGo vern
Ġn ouvelles
ÑĮ ÐµÑĢ
Ġcomp os
Ġult imo
ja zd
Ġten ho
è¿ ½
re to
ĠÐŀÑģ Ð½Ð¾Ð²
Ġz es
ĠC itas
ĠP H
Ġv u
ĠÐ·Ð°Ð½ ÑıÑĤ
ĠProble m
m on
r ito
Ġtra i
anz en
zo gen
Ġ) :
æ°Ĺ ãģĮ
Ġv ict
Ð¸Ñı Ð¼Ð¸
ĠÑĥÐ´ Ð°Ð»
Ġnh Ã³m
Ġterrit orio
as st
Ġprim ary
Ġmes ma
ĠÑģÑĤÑĢÐ°Ð½ Ñĭ
Ã£ este
Ġcand id
Åºdz ier
Ä ĺ
Ġin ne
by t
Ġcond iciones
Ġgar ant
Ġu zy
å¤§ ãģį
ãĥĻ ãĥ«
ĠÐ´ Ð¾Ð±
ãĥĸ ãĥŃãĤ°
Ġstren gth
Ġtra ffic
te ile
ĠÃ© lÃ©
Ġlet ter
ĠÐ¿Ð¾Ñĩ ÐµÐ¼Ñĥ
Ġæ ¸
ĠÐ½Ð¾ ÑıÐ±ÑĢÑı
Ġuw ag
Ð°Ðº Ð¸
uj ÄĻ
ãĤ¹ãĥĨ ãĥł
Ġnavig ation
Ð ®
ĠO t
ĠÐ¾ÑĤ Ð²
r io
r anno
Ġæ¬ ¡
Ġgi áº¥y
ĠÐ´Ð¾Ð¼ Ð°ÑĪ
Ġval ues
g ue
Ġadvan tage
Ġev idence
Ð¸Ñģ Ð»
ĠÑģÐ¾Ð± ÑĭÑĤ
Ġcli entes
Ġa head
ç Ī
Ġcommunic ation
f rei
ĠÐŀÑĤ Ð²ÐµÑĤ
Ġ3 00
wi ÅĽcie
ãģĬ ãĤĬãģ¾ãģĻ
Ġb á»ķ
ĠÐ²Ñĭ ÑĪÐµ
ĠhÃ£ ng
Ġpar k
Ã©r ica
ie go
Ġfil me
tt amente
Ġjo bs
Ġinc red
Ġs ost
Ġæ° Ĺ
Ġpon er
ãĥ³ãĥ Ħ
Ġk ons
Ġbar celona
ĠE M
Ġ ÅĽci
heit en
ĠãĢį ãĢĮ
it ude
ĠSch uhe
Ġgr Ã¶ÃŁ
Ġac ab
Ġinter act
æ¨ ©
Ð¸Ð² Ð¸Ð´Ñĥ
b on
çĲ ĥ
Ġtrans form
arn os
Ġam min
è¡¨ ç¤º
ĠÐ¾ ÑĪÐ¸Ð±
m us
ĠÑĥ Ð½Ð¸Ð²ÐµÑĢÑģ
ĠT áº¡i
Ġso y
Ġz wy
ĠS ommer
Ġcon j
ĠÑĩ ÐµÑĤ
Ġr il
ÐµÐ½Ð¸Ñı Ð¼Ð¸
Ġmes ure
Ġ4 2
ĠÐ¸ÑģÐº ÑĥÑģ
Ã¶ ne
ys ÅĤ
ãģ¹ ãģį
igkeit en
Ġconn ection
Ġclean ing
Ġma xim
Ġmod e
Ġoc ur
tt es
ĠÐŀ Ð½Ð°
Ġsp read
orn al
ÑĥÑĤÐ± Ð¾Ð»
ĠÑģ ÑĥÑĤ
Ġcol d
Ġmas ter
Ġeuro pe
Ġexp and
b our
ĠÐ¸Ð· ÑĥÑĩ
Ġgr os
ud es
éĥ¨ åĪĨ
Ġc ena
Ġas sez
Ġthu áºŃn
Ġst ream
Ġro of
ĠÐ¾ÐºÑĤ ÑıÐ±ÑĢÑı
Ġch ann
ĠÐł Ñĳ
Ġown er
å£ ģ
sch lieÃŁ
I M
Ð² Ð¸
ĠA P
Ġrequ ires
æ¸ ©
Ġmin ute
c ation
ĠÑħ Ð¾Ð»Ð¾Ð´
Ġach at
Ġd at
Ġvia ggio
atr im
ĠH ola
Ġw ska
Ġval ut
Ġreport s
a W
Ġqu ay
Ġc Æ°á»Ŀi
Ġrep rÃ©sent
Ġstud io
Ì£ t
Ġnombre ux
Ġb agno
Ġpod ob
na hmen
ĠLie fer
Ġent rada
Ġpe ace
ĠÐ· Ð°Ð»
ĠD ist
Ġpo or
ĠÐ°ÑĢ Ñħ
pp en
ĠL ear
ĠÐ¸Ð³ÑĢ Ð°ÑĤÑĮ
bed ing
ĠÐ¾ Ñħ
ĠÑħ ÑĢÐ°Ð½
kow o
ĠÐ¼ ÐµÐ»
Ġph áº£n
Ġn ull
Ġcri anÃ§as
Ġpar ce
ãĥ¼ãĥ« ãĥī
Ã³ i
Ġr ies
Ġch amp
Ġcover ed
Ġorganiz ations
ĠÑĨÐµÐ½ Ðµ
iss ima
Ġ ä¿Ŀ
w alt
ĠN O
Ġa ire
ici ous
ĠÐ¾Ð± Ð»Ð°Ð´
ĠPol ski
Ġfa Ã§on
á» ¡
ãģ§ ãģĤ
åį Ĺ
Ġlu z
ierz ch
Ġe ux
Ġser Ã£o
v ida
Ã¨ te
ĠZap atos
ĠÐ½ Ð¸Ð¼
Ġ< /
© ĭ
ãĥ ĺ
ĠS it
ta ire
ori as
ĠÐ²Ð¾Ð· Ð²
ren ch
ÃŃ cios
ĠÑĤ ÑıÐ¶
Ġd Ã³
ãģ¾ ãģĹãģ¦
ĠP av
Ġfam ili
Ġgener ally
Ġdist int
åĭ Ł
WW W
Ġman age
ĠZ a
ĠMark et
b um
qu ina
Ġf lex
ĠL Ãª
in ato
Ġc raft
Ġfic ar
½ ¢
Ġwe ar
b lick
Ġequip e
ĠæŃ £
r ay
ass a
ãĥ¯ ãĤ¤ãĥĪ
por te
Ġperio do
ĠB ay
Ġprz est
Ġcomun e
Ġb illion
Ġri us
bar dziej
ĠPh Ãº
Ġfin ished
Ġremo ve
ord s
iz ie
Ġest ate
ven es
Ġob owiÄħ
ra ison
ge ber
ure au
ĠR en
Ġopen ing
elle ment
ãĥ ¶
Ġle k
us ed
Ġsais on
ãĤ¹ ãĥŀ
Ġkh Äĥn
Ġtas k
ĠmÃ¡ x
Ġtard e
Ġre altÃł
Ġman ten
ĠCh ÃŃ
ru gg
ĠK r
ĠIhr er
Ġjour ney
Ġprogram me
ãĤ¢ ãĤ¤
Ġlá» ħ
ĠA v
Ġtratt amento
ĠEst o
Ġcor ps
Ġch Ãºt
Ġview s
ĠK rank
Ġsl ight
Ġm aja
ãģª ãģĳãĤĮãģ°
ic ing
ch Ã¨
et ail
Ġh uy
Ġz war
ĠMin uten
Ġderni Ã¨re
Ġobl ig
Ġm Ã©t
ãĥį ãĥĥãĥĪ
Ġl ig
ĠL oc
Ġunter schied
3 6
s ion
Ġthá»§ y
Ġproy ect
á»£ i
ÅĤu go
Ġç´ Ħ
cze go
ĠexpÃ©r ience
Ġd ale
Ġre tail
Ñī Ð¸Ðº
ĠÐºÐ¾Ð¼Ð¿Ð» ÐµÐºÑĤ
ĠÐ»Ð¸ÑĨ Ð°
Ð¾Ð· Ð°
ĠÐ¾Ð³ÑĢ Ð¾Ð¼
Ð»Ð¸ Ð¹
Ð¾Ð» Ð¾ÑĤ
ĠÐºÐ¾Ð½ ÐµÑĩÐ½Ð¾
ÑĪ Ð¸Ðµ
ĠÑĢÐµÑĪ ÐµÐ½Ð¸Ðµ
ÐĿ ÐĲ
ĠÐ¡ ÐµÐ³Ð¾Ð´Ð½Ñı
Ð¸Ð³ Ð½
ĠÐ¸Ñİ Ð½Ñı
Ñĥ ÐºÐ°
Ð¾Ð» Ð¸ÑĤ
ĠÐ´ ÑĥÑħ
ÐµÐ¹ Ñģ
ĠÑĢÐ°Ñģ Ð¿
ĠÐ¸Ñİ Ð»Ñı
ĠÐ¸Ð½ Ð²ÐµÑģÑĤ
ĠÐ´Ð¾ÐºÑĥÐ¼ ÐµÐ½ÑĤ
ĠÐĽÑİ Ð±
ĠÑĢÐ°Ð·Ð»Ð¸Ñĩ Ð½ÑĭÑħ
ĠÑĢÐ°Ð±Ð¾ÑĤ Ð°ÐµÑĤ
ĠÐ· Ð¸Ð¼
Ð¾Ð³ ÑĢÐ°Ð¼
Ġrecom end
Ġativ idades
ĠÑģ Ð¾Ðº
Ġsa gen
ĠGesch ichte
ÑĪ Ð¸ÑĢ
Ġtechn ical
Ġsh oot
éĢļ è²©
Ġelect rÃ³n
uch a
ĠRe i
ĠÐ¼ÐµÐ´ Ð¸ÑĨÐ¸Ð½
ĠJan uar
Ġæ Ľ
Ġqu ais
Ġm Ãłn
T ER
èĤ ī
Ġtr ou
Ġcab e
et ter
Ġeuro pÃ©
Ġ( '
ĠÑģ Ð¾Ñĩ
Ġwant s
ĠV en
Ġdr iving
fÃ¼hr ung
Ġper haps
Ġtr ud
ãģ¾ ãģł
Ġsecond a
Ġneg Ã³
ÑĢ ÑĭÐ²
Ð¾ÑģÑĤÐ¾ ÑıÑĤÐµÐ»ÑĮ
ĠÑģ Ð°Ð´
ycz nych
Ġpes o
Ġdisp os
ĠJue gos
Ġd Ãłng
ĠÑģÑĤ Ð°Ð»Ð¸
Ð¿ Ð¾ÑĢÑĤ
Ġm iem
Ġsche dule
ŀ į
ly ing
ĠÐº Ð¾Ð¿
icht ige
Ġsig u
Ġch á»Ĺ
Ġpare jas
Ġannoun ced
ãģ¾ ãģ¨
ycz ny
ĠÑģÐ¸ÑģÑĤÐµÐ¼ Ð°
Â ¬
Ġnie p
Ġaqu ell
iv idad
ĠA o
Ð½ Ð¾Ð¿
CI ON
ti ene
Ã¼s s
ĠÐ¿Ð¾Ð¼Ð¾Ñī Ð¸
Ġhaci endo
Ġacc omp
ãĤ¦ ãĥ³
ven ue
æ¸ Ľ
Ġestud io
Ġå¼ ķ
Ġqu arter
3 9
= =
it aÃ§Ã£o
ĠY ear
ÐµÐ½ Ð½Ð¾ÑģÑĤÑĮ
nÄħ Äĩ
ĠãĤĤ ãģĨ
ĠÐ¡Ð°Ð½ ÐºÑĤ
Ġngh iÃªn
ĠLe i
ãĥª ãĥ³ãĤ°
ĠãĤ¹ ãĤ¿
Ġqu oi
Ġhom mes
Ġsub ito
ie u
ĠBo ard
Ġjourn Ã©e
ĠPub blic
Ä ĳ
Ã³ dz
ãģŁ ãģı
Ġgra ph
at ively
Ġs ce
Ã¤ te
Ġc Ã¢n
ĠÐ¿ÑĢÐ¸ Ð±
ak a
âĶģ âĶģ
in azione
ĠÑģ Ð¸Ð»ÑĮ
ĠOff ice
ĠÐľ ÐµÑĤ
ĠTh áº¿
for ce
ĠÑģ Ð¿ÑĢ
fle ge
Ġfab ric
ct ors
ãģªãĤĵ ãģ¦
Ġnie j
ĠÐ¢ ÐµÐ¿
ãĥĥ ãĤ«
Ġsp orts
Ã© l
b are
w icz
ãģĭãģª ãĤĬ
Ġtra vers
ze mber
ĠS uper
w h
C A
ĠI B
Ġest ad
Ĭ ãģ³
Ġc at
Ð¸ÑĤ ÐµÑĤ
Ġde cy
Z SI
ĠGrand e
x y
in ta
ãģłãģĳ ãģ©
Ġvia je
Ġt uyá»ĥn
Ġd Ã¨s
Ġincont ro
Ġb ow
Ġon to
Ġl iste
ĠAngebot e
bli Å¼
hn t
Ġlung o
Ġadj ust
Ġr ent
ĠTh á»§
Ġmar que
Ġta ille
ĠÐ»ÐµÐ³ ÐºÐ¾
Ġen se
Ġsp ort
Ñĩ Ð°ÑĤ
ĠãģĿ ãģĵ
Ġk ÃŃnh
Ġs áº¡ch
Ġnh áº¡c
iz aÃ§Ã£o
ous s
Ġimp e
Ġh Æ¡i
Ġnecess ario
Ġcl aro
Ġacc eso
ĠRes earch
id or
ĠÄĳá» ı
ĠA ma
Ġap ar
Ġtr Ã¡ch
Ġc ade
æĶ ¹
Ġcons igli
Ġf at
Ġwom an
ĠP at
j am
Ġ9 5
Ġp aci
ĠÑģÑĤ ÐµÐº
ĠIn f
ic are
ĠÐ¿Ð¾Ð½ ÑıÑĤ
Ġh inter
Ġwi fe
Ġalg Ãºn
I R
ci ous
Ġ) {
æľ «
ĠD ann
Ġche ap
in are
åĩº ä¼ļãģĦ
wa gen
Ġbe find
Ġear lier
z er
æĬ ľ
Ġreview s
ĠEin satz
Ġsqu ad
ĠV ivo
ĠCar los
Ġdiver se
Ġm ati
ĠEle kt
Ġpod at
Ġc ara
Ð¼ÐµÑĢ Ð¸ÐºÐ°Ð½
Ġs y
ãģ« ãģ¨
Ġli p
ĠD opo
Ġpar ten
ĠL iv
Ġsc u
ÐµÐ½ Ð½Ð¾Ð¼
l im
AN D
Ġchallen ges
Ġv em
Ġmil es
Â ©
r ont
ĠÐ¡ Ð»
Ġexperien ces
ãģªãģı ãģª
hr t
Ġ ðŁ
Ġes os
Ġr out
Ġe k
ãĤĴ ä½ľ
ĠNew s
Ġvol t
Ġunser em
Ġven gono
ĠP ierre
Ġlook ed
ĠÐ¼Ð°ÑĤ Ñĩ
ç¾ ©
be hÃ¶r
Ġpon to
Ã¡ genes
ĠÐ¶ ÑĥÑĢÐ½
os se
ĠN i
ĠÐ¿Ð¾ÑģÑĤ ÑĥÐ¿
Ġte aching
Ġstand ards
Ġheav y
Ġå¥³ æĢ§
ĠT as
åľ Ł
mi ar
ĠÐ·Ð°ÑĢ Ð°Ð±Ð¾ÑĤ
Ġcompr om
ĠÐ±ÐµÐ·Ð¾Ð¿Ð°Ñģ Ð½Ð¾ÑģÑĤÐ¸
ĠÐł ÐµÑģÐ¿ÑĥÐ±Ð»Ð¸
Ġv ier
Ġc ort
Ġfe z
ission ais
Ġresp ecto
Ġfra is
ĠÐ± ÑĥÐ¼
åį ´
Ġsch warz
Ġs ession
iss ant
Ġcomun que
Ġzaw od
èª¬ æĺİ
Ġdes cargar
ĠÐ¼ ÐµÑħÐ°Ð½
at re
å¸ °
Ð¾Ð»Ð¾Ð³ Ð¸Ñı
Ð»Ñı ÑİÑĤ
on ti
Ġ' ,
ĠG iá»
ĠK ho
Ð¸Ð² Ð°ÐµÐ¼
Ð½Ð¸ ÑĨÑĭ
nde z
å°ĳ ãģĹ
f el
Ġhotel es
ĠÐ°Ð¿ÑĢ ÐµÐ»Ñı
Ġmainten ant
Ġst rugg
N A
æľ į
Ġh áº¡i
k ry
ĠÐ¼ ÑĭÑĪ
Ġh iá»ĥm
ÅĦst wo
ĠÐºÐ¾Ð½Ðº ÑĥÑĢÑģ
estiv al
ĠÐ± Ð¾Ð³
Ġb reat
Ġpa ar
Ġeff orts
Ðº Ð°ÑĤ
ãĥĥ ãĤŃ
Ġter cer
Ġweb cam
ĠH CM
Ġpas se
ĠPh Ã¡p
Ġnov os
Ġaller dings
Ã ·
M D
l Ã©s
ĠP rzed
Ġca pt
Ġenter tain
ĠWhe ther
Ð»ÐµÐ½ Ð¸Ñİ
m et
ĠAssoci ation
ÐµÐ² Ð¸Ñĩ
Ġprofession als
Ġexper ts
Ġfe cha
ÑĥÐ¹ ÑĤÐµ
Ġl ing
Ġacc Ã¨s
hip s
at ivos
Ġg ouver
Ġsop ra
Ð°Ð½ Ð½ÑĭÐ¹
Ġmo ved
Ġf ather
ĠÐ¶ÐµÐ» ÐµÐ·
ĠVer gleich
id ge
Ġmo ng
cyj ny
ĠÐ¿ÑĢÐ¸ ÐµÐ¼
Ñı ÐµÑĤÑģÑı
ĠW el
Ġass ign
p es
Ġnh áº¹
ĠÐ½Ð°Ñģ ÐµÐ»
Ġmove ment
Ġcrit ical
Ġswe et
C E
Ġng Ã¢n
Ġimp res
ãģĹãģ¦ ãģ¿
ĠAn other
Ġsho pping
Ġmanufact ur
Ð¸ÑģÑĤ ÑĢÐ°ÑĤ
Ġfollow ed
Ġs Ã»
Ð² Ñĭ
Ġser ver
Ġtr Ã¡nh
Ġdevelop ing
h ung
Ġma Ã±
ĠTe x
Ġkeep ing
ãĤ² ãĥ¼ãĥł
Ġeig entlich
ĠÑģ Ð°Ð»
Ġa ta
ä½¿ ãģĦ
Ġhim self
ĠspÃ© ci
Ġh undred
ĠK inh
Ġjed y
ãĥĿ ãĥ¼ãĥĪ
Ġneces ario
Ġwp ÅĤy
ĠJo Ã£o
Ġoso by
Ġupd ate
Ġbal ance
Ġf ashion
Ð¸Ð± Ð»Ð¸
Ġwz gl
Ð± ÑĥÑĢÐ³
ĠDe zember
ĠÐ¿ÐµÑĢ ÐµÐ¿
ĠW ert
Ġjed no
å Ĥ¬
ãģ® ãĤĪãģĨãģ«
ĠlÃ£ nh
Ġht ml
ĠAr ch
Ġt ips
Ġszczeg Ã³l
ãģ®å °
ĠT Ã¢n
Ġeffett u
ĠÐ± Ð°ÑĢ
Ġc up
ãĥ³ãĥ Ķ
Ġsc ale
Ġqual siasi
ÐµÑģÑģ Ñĥ
Ġs Ã¢u
Ġp yt
ĠÑĥÑĩ ÑĢÐµÐ¶Ð´
Ġar en
ĠA k
Ġngh á»ī
Ġg ospodar
Ð¾Ð»ÑĮ ÐºÑĥ
å¤ī ãĤı
ĠB lick
Ġp iÄĻk
ĠC er
c oming
Ã©li or
Ġdeter mine
meld ung
icht ung
Ġå¤ ©
ĠCl ass
ãĥ³ãĤ· ãĥ§ãĥ³
ĠÐ² Ð»Ð¸Ñı
Ñĳ ÑĢ
Ð¾Ð¶ Ð½Ð¾
Ġus ar
ä½ľ åĵģ
Ġz god
m Ã¤ÃŁ
Ġarch itect
Ġpas ar
Ð¾Ð´ Ð°ÑĤÐµÐ»ÑĮ
ĠD om
ĠS om
ĠP ower
Ð¾Ð» Ñİ
ĠPL N
si an
ĠS ac
ĠåĪ Ŀ
ãģĮ ãģĬ
Ġzosta ÅĤ
Ð½ Ð°Ð·
Ġpued o
Ġpla ced
ed ia
Ã¤ nge
ue ba
ĠÐ¾ÑĤ Ð¼
ĠÐ¿ÑĢ ÐµÐ·Ð¸Ð´
ress Ã£o
ĠÑģÐ²Ð¾ Ð¸Ð¼
Ġ" ),
ĠBrit ish
b n
O UR
Ġoff icial
Ñı Ð»Ð¸
ĠÐ½ Ð°Ð¹Ð´
ĠpiÃ¨ ces
ĠS che
ãĤī ãģļ
i ff
Ġprog ress
Ġf is
Ġt ar
Ġfe u
at iv
ĠÑĢÐµÑģ ÑĥÑĢÑģ
ĠÑģÑĤ ÐµÐ½
ĠL ast
ĠMitt el
ĠS en
Ġå Ł
ĠR od
Ġver g
ĠRa hmen
ĠÐ¼Ð°Ð» ÐµÐ½ÑĮ
Ġfam ÃŃlia
ud nia
ĠPort ugal
Ġle icht
Ð¸ÑĤÐµÐ»ÑĮ Ð½ÑĭÐ¹
ĠÐ¾Ð¿ Ð°Ñģ
ĠÐ²Ð¾Ð·Ð´ ÑĥÑħ
is l
Ġl is
ÑĦ Ð¾ÑĢÑĤ
Ġ> <
ĠH in
ãĥ¼ãĤ¿ ãĥ¼
le il
Ġsur v
ĠZ d
Ġth iÃªn
Ġu dziaÅĤ
Ã¨ tres
ªå¼ı ä¼ļç¤¾
Ġc uy
Ġpas sen
ut er
Ġs osten
Ã³ venes
à² ¾
ĠW issen
Ġpap el
ist ico
ãģį ãģ¦
rie bs
Ġpu esto
Ġc ine
ĠÑħ ÑĥÐ´
ä¼ ¼
Ġbek ommen
ĠRa um
ve m
Ġent wick
ĠãģĤ ãģªãģŁ
Ġtram ite
ĠD em
ier ta
ĠÑĢÐ°Ð¹ Ð¾Ð½Ð°
Ġpag ina
wier dz
è¾ º
ĠÐ´ ÐµÑģÑı
Ġwel come
Ġå± ±
ĠE T
Ġv est
le gen
Ġ ãģ£ãģ¦
Ðº Ð¾ÑģÑĤÑĮ
ĠS tiv
p lace
Ġdro p
Ġcon ference
iO i
ara k
ĠÑĢÐ°Ñģ ÑħÐ¾Ð´
Ġgut schein
Ġj aneiro
Ġscel ta
Ġn enhum
ï¼ ¡
ck i
ĠH all
Ġc ry
Ġag r
Ġcl ub
Ġd v
Ġprodu ced
r ichten
ĠPe ople
ĠC re
ĠT ake
Ġu 00
ãĤĦ ãģ£ãģ¦
äºĭ æ¥Ń
Ì£ n
ĠÐ´ Ð¾Ð±ÑĢ
Ġfar m
Ġme iner
ĠperÃŃ odo
æ »
i Ã©
Ġcont rib
ĠE U
h as
Ġg ost
ĠAn che
bi Ã³
ĠÐ¸Ð³ÑĢ Ð¾Ðº
Ġd anych
Ġquien es
ĠÐĺÐ½ÑĤÐµÑĢ Ð½ÐµÑĤ
ĠT ipp
ï¼ ³
fÃ¼hr t
Ġfu ori
Ġusu arios
Ġmá» ¹
Ġparti es
3 8
ÑĥÑģ Ð°
Ġthere fore
Ġdonn er
Ġprofes ional
ĠÑĦ Ð¾ÑĢÑĥÐ¼
Ġst ation
es ome
Ġad op
Ġprof it
Ġeff etti
ĠÐ¿ Ð°Ð½
un ku
ĠH al
ĠÐ¸Ð¼Ðµ ÑİÑĤ
ĠÐ¿Ð°Ð¼ ÑıÑĤ
le ben
Ġs iti
Ġkom ple
ien i
ĠAh ora
Ġs and
ĠÑĢÐ°Ð· Ð³
Ġsi Ãªu
ãģĹãģŁ ãĤī
ĠK ap
ze j
a pt
ĠÐ¾Ð±ÑĬ ÐµÐ¼
ĠÐ¡ ÐµÐ²
Ġno ite
ĠÐ½Ð¾Ð² ÑĭÑħ
w ide
ĠÐĳ Ð¾Ð³
Ġev ento
Ġprz et
Ġï½ ¥
z enia
Ġr Ã¨g
Ġst ycz
itz en
Ġactiv itÃ©
ĠÐ¡ ÐµÑĢ
omm od
ĠPerson en
Ġache ter
Ġdok um
Ãº blic
4 5
ĠG al
ãĤĴ ãģ¤
ĠÐ¾Ñģ Ð²
ĠW szyst
ĠP rÃ©
Ġc iÄĻ
Ġag it
Ġmem ory
t ra
Ġsegu ro
ĠW ahl
Ġn ies
Ġb out
Ġme isten
Ġprep ared
ĠM unicip
w orks
è¨ ³
Ġpers Ã¶n
Ġcoun ter
Ġdin heiro
} ,
ĠH Ã´t
iel le
ĠÐ¿ÑĢÐµÐº ÑĢÐ°Ñģ
Ð°Ð± Ð°ÑĤ
Ġpol ice
m ission
æĴ ĥ
ĠA N
Å¼y Äĩ
ens es
aci dade
Ġwin ter
Ġje we
Ġser ait
I I
ĠÑģÐ¼ Ð¾Ð³
ett ura
ĠC ong
ĠÐ¿ÑĢÐ¸Ð½ ÑĨÐ¸Ð¿
zy Äĩ
k owa
Ġraggi ung
ĠT Ã¼r
ãģ® ãĤ³
Ġele ments
Ġult ima
Ġ08670 7
Ġp iel
Ġw ild
Ġdi chi
Ð Ĩ
att ro
Ìģ i
ç§ »
Ġdec lar
Ġp oko
Ã¶ff ent
ĠFil m
ĠÐº Ð³
Ġinst itu
Ġsh ared
Ġs yn
ĠÑĢÐ°ÑģÐ¿ÑĢ Ð¾ÑģÑĤÑĢÐ°Ð½
Ġk Ãª
Ġal to
Ġ5 7
ãĤ« ãĥ¼ãĥī
re ira
ĠP elle
Ġten ÃŃa
åĳ ½
åŁ İ
ĠTra bal
Ġan zeigen
Ġ1 er
Ġha cen
Ġ= \"
op er
ĠW ater
Ġsee ing
Ġhand le
ia Ã§Ã£o
Ġdev ant
Ġsz kol
Ġh us
Ġde te
Ġau g
Ġmet al
d W
Ð°ÑĤÑĮ Ñı
us her
ĠÑĢ ÐµÑĩ
gen cia
Ġd Ã¢y
Ġwen iger
Ġmill ions
Ġcu ad
Ġcan cer
ãĥĸãĥ© ãĥ³ãĥī
ne k
Ã± ad
Ġw ine
ru ar
il ion
ÑĢ ÐµÐ¹
ni os
ÑĪ ÐµÐ³Ð¾
ĠÐ³ ÑĢÐ°ÑĦ
er ÃŃo
Ġç ¦ı
Ġu omini
Ġsz k
ĠCh á»ī
ĠÞ ĩ
Ġm ission
Ġlaw s
ak es
Ġant ig
ĠÐ°Ð¿ Ð¿Ð°ÑĢ
ĠdÃ© tail
Ġger al
ĠÐ¿ÑĢÐ¾Ð±Ð»ÐµÐ¼ Ñĭ
à²¿ à²
G V
et es
ĠÑģ Ð¾Ñģ
ĠÐŁ Ð¾ÑģÑĤ
ĠN Ã¤
Ġlo i
Ġå¤ ļ
ãģ» ãģĨ
ĠintÃ© ress
ĠÑģÐµÑĤ Ð¸
Ġwas te
ĠA bb
p fl
Ġcontain s
Ġcell s
w em
ãĤª ãĥ³
Ġexpl ore
Ġbast ante
Ġ4 1
ãĥ« ãĥķ
Ġfor a
ĠÑĢÐ°Ð· Ð±
Ġsol id
Ġdedic ated
ãĤ¹ãĤ¿ ãĥ¼
Ġhol iday
Ĵ° å¢ĥ
Ġad e
Ġ ãģĹ
f ika
Ġur l
Ġpalab ras
Ġauf ge
ĠJ ack
ĠÐºÐ¾ÑĤÐ¾ÑĢ Ð¾Ð¼
Ð°ÑĢ ÑĥÐ¶
ente mente
s eite
ro c
Ġprop re
Ġen vol
Ġs uff
ãĤĴ èªŃ
Ġm Ã¡u
Ġtem os
enn es
ora z
ÅĤug i
Ġpr is
ar ies
Ġhas t
ĠN ord
ĠCh urch
ĠÑģ Ð½Ð¸Ð¶
Ġscu ola
arak ter
Ġper fe
å· ®
ĠrÃ©s erv
Ġorig in
ĠÑģÐ² Ð¾Ð±Ð¾Ð´
Ð°Ð»ÑĮ Ð½Ð¾Ð¼
Ġpow st
pe ÅĤ
ĠÐ´Ð¾Ð»Ð¶ Ð½Ð°
éĻĲ å®ļ
ĠWir tschaft
ĠÐ¾Ð± Ð½
Ġhat ten
Ġm niej
Ġlist ed
Ñĥ ÑİÑĤÑģÑı
Ġpass ion
Ġt Ãªte
Ġdiv ul
Ð¸ÑĤ Ð°Ð¹
ĠN otre
Ġfind et
Ġn uit
ĠR om
ula ire
Ġdo ÅĽwiad
Ġk Ã©o
mi ot
Ġvo ice
cri Ã§Ã£o
cri zione
ĠPub liÃ©
ÐµÐ² ÑĭÐµ
ib ilitÃł
Ġdiz er
Ġgest ione
Ġde zembro
ĠÐµ Ð¶
Ġch ambres
å¤ ª
Ġwork ers
ĠÐ²Ñĭ Ð´ÐµÐ»
Ġadvan ced
Ġcop y
ãĥ© ãĥł
Ġad apt
Ġcor po
ĠMar ia
Ġbuen as
Ġg ilt
ĠC all
i ales
Ġed ad
ãĤĮ ãģªãģĦ
Ġpop ulation
ĠP C
ÐĽ ÐĲ
ÐµÐ´ Ð¸
cid os
Ġtalk ing
ĠÑįÑĦÑĦ ÐµÐºÑĤ
3 5
czy na
e ux
ĠÐ³Ð» ÑĥÐ±
Ġso fort
Ġtele fon
ĠTod o
Ġexc lus
Ġ ers
Ġdesign s
Ġtra in
ĠNg á»įc
ĠÐ¾ÑĤÐ²ÐµÑĤ ÑģÑĤÐ²ÐµÐ½
Ġing red
Ġ á»ķ
éĥ ¡
r ate
åİ »
Ġnh áº±m
ĠÐ½Ð°Ð»Ð¸Ñĩ Ð¸Ð¸
Ġer folg
ĠGl Ã¼ck
Ġd ato
Ġè Ħ
Ġf ill
ĠÐ¼ÐµÑģÑĤ Ð°
Ġver w
ĠEuro pa
Ã« l
ĠÑĢÐ°Ð·Ð¼ ÐµÑī
Ġle ct
ĠÐ´ Ð¸ÑĢ
ĠÐ²Ñģ ÐµÐ¹
ÃĶ Ãļ
ĠÐ´ÐµÐ¹ÑģÑĤÐ² Ð¸Ñı
u ÃŃ
Ġ( )
Ġfor ce
ĠÐĺ ÑĢ
Ġper gun
Ġjed n
iglio re
ĠdiffÃ©r ents
á» ·
ÑĢÐ¾ ÑĦ
ĠÐ²Ñĭ Ð²Ð¾Ð´
ĠB este
Ġc aract
ĠPav ilion
ç· Ĵ
ĠÐ³Ð¾Ð» Ð¾Ñģ
ĠPol ska
ÐµÐ¹ÑĤ Ð¸Ð½Ð³
al ed
ĠprÃ© v
ãĤ¸ ãĥ¥
h op
ĠÐ¼Ð» Ð½
ĠU B
s et
ĠUn s
u be
Ġna zionale
Ġçģ «
m als
Ġtak ich
ci endo
Ã³ veis
ĠÐ¼Ð¸ÑĢ Ðµ
Ġp amiÄĻ
Ġl inh
cze ÅĽ
ĠBl u
Ġm erci
ĠF rench
Ġãĥ İ
rei fen
ÌĢ n
Ġman iÃ¨re
ic ur
Ġsare bbe
Ġju nho
ĠPro gram
: .
ÅĽ red
Ġat ual
z inha
ĠÐłÐ°Ð· Ð¼ÐµÑĢ
ĠãĤ¸ ãĥ£
v am
gg etto
Ġeven ing
ĠCh Ã¢u
I EN
Ġhay a
ĠC her
ĠFor um
ĠNg uyÃªn
kow ych
Ġpun ti
áº ł
r Ã³w
Ġest ou
Ġg ab
ĠÐ¼ÐµÑģÑĤ Ðµ
ĠÐ³ÑĢÑĥÐ¿Ð¿ Ñĭ
+ []
Ð°Ð»Ð¸ ÑĦ
Ġsz tu
Ġinforma cji
ous el
Ġen vi
Ġpet its
Ġacomp aÃ±
Ġfor ms
å° İ
Ġkh áº£o
ĠD ruck
Ġç¥ ŀ
Ñĭ Ð½
Ġda ng
Ġsh ot
ina ire
ÑģÐº Ð¾Ð¼Ñĥ
ĠSt unden
ãģĿãģĨ ãģ§ãģĻ
ĠÐ½Ð° Ð¸Ð±Ð¾Ð»ÐµÐµ
vis Ã£o
Ġè» Ĭ
ĠÐ´ ÐµÐ¼
ĠS ter
v ely
ul la
çĶ¨ åĵģ
Ġpl ants
an ci
ĠH amb
Ġnam ed
Ġc ierto
Ġal guien
ĠåĲį åīį
Ġfa v
ĠKÃ¼ che
ĠJa hres
ĠÑĢÐ°Ð·ÑĢ ÐµÑĪ
ĠFeb ruar
Ġwe gen
rol l
ĠFar be
Ġda re
Ġw rze
åĲĪ ãģĦ
ĠÄĳ Ãło
ÄĻ dzie
ĠComm un
:::: ::::
Ġr ue
sze go
ĠÃ©ta ient
Ġso b
ĠÂ¡Â ¢
t ico
uf e
Ġdo bre
ĠÑģÐµÑĢ ÑĮ
t ime
ĠMan agement
Ġjul ho
ĠOp en
ĠN G
Ġd Ã¼r
Ġde ben
Ð½Ð¾Ð² Ð°
Ġchang ing
Ġactiv itÃ©s
Ġbra in
Ġ áº¢
ĠGeschÃ¤ft s
z es
ĠT hr
Ġï¼ī ãĢģ
ĠL ike
ĠÐŁ Ð¾Ð¼
Ġver o
Ġprodu cciÃ³n
un cio
ÅĤ uÅ¼
Ġprze pis
ãģ®å¾ Į
ĠNap oli
Ġsmo oth
ou x
ĠP ow
ĠN ike
Ġsag t
Ġrisult ati
p m
ak er
Ġoff ic
Ġsk Ã³
a ffen
ĠL Ã¶s
ĠCol ombia
Ġtrans l
Ġsettim ana
ĠÐ¼ Ð¾Ð±Ð¸Ð»ÑĮ
ãĤ ¾
ies ta
Ġsie ht
Ġcap ital
N E
Ġï¼ į
ĠCom me
Ġcomun ic
ĠÅĽ wiet
Ġlink s
Ġpr ay
Ġesp ace
Ġje unes
ĠWash ington
Ð» Ð°Ð¶
Ġch Ã³ng
ĠH u
ĠÐºÑĢ ÐµÐ¿
ĠPh im
ĠÑĤ Ð¾Ð¼Ñĥ
ĠPa ul
Ġir gend
ist Ã©rio
ĠM aterial
ĠF est
Ġc ore
Ġne ben
æİ ²
Ġsch w
Ġcel u
r ice
ĠNue va
Ġåº Ĺ
ĠÄĲ Ãł
Ġth áº¥p
Ġ Ã¡nh
Ġbuy ing
Ġlim it
Ġalcun e
Ġproper ties
Ġest rut
Ġw t
ãĤĤ ãģ®ãģ§
æĬ ŀ
Z Z
Ġsvil uppo
w s
al ien
Ġal bum
ĠB el
ÐµÐ½ÑĤ ÑĢÐ°
Ġ ice
Ġke inen
ĠApp le
Ġ7 5
Ġchia m
ing er
ĠI st
ound s
iáº¿ ng
Ġjak oÅĽci
Ġtra itement
ĠÑģÐµÐ½ÑĤ ÑıÐ±ÑĢÑı
ĠÐº ÑĢÐ°
åĬ ©
ga ben
ãĥĬ ãĥ«
Ð°ÑĤÐ¾ÑĢ Ð°
Ġaplic aciÃ³n
Ġas es
Ġpel as
Ðł Ðĺ
ÑİÑī Ð¸Ð¹
ĠJ etzt
ĠEdu c
ĠL an
ĠÐ± Ð¸
Ġw iedz
Ġpre Ã§os
c osa
ĠÐ¸Ð½Ð´ Ð¸Ð²Ð¸Ð´Ñĥ
6 9
Ġvari as
Ġquier o
Ġt áº·ng
ĠâĢ ł
und i
åĽ ł
ĠgÃ©nÃ©r al
ĠÑĤÐ¾ÑĢ ÑĢÐµÐ½ÑĤ
Ġt ree
Ġp Ã³ÅĤ
ãģį ãģŁãģĦ
Ġin te
ÑĮ Ð¸
ĠÐŁ Ð»
Ġlo an
Ġsp er
İ æĹ¥
Ġfa ith
ãģĨ ãģ¡
á»¥ ng
Ġfind ing
Ġlu ck
Ġspra wie
ĠÑģÑĤ Ð°Ð½Ð´Ð°ÑĢÑĤ
ĠÐļ Ð»
Ġn Ã´ng
Ðº Ð¾Ð²Ð°Ð½
Ġm ap
ic ros
Ġconf ron
Ġkle inen
uelle ment
ãĥ¢ ãĥĩãĥ«
ĠÑĨ ÐµÐ»ÑĮ
Ġap o
Ð»Ð¸ Ð·
f ik
ĠÂ¡Â £Â
ãĥ© ãĥ³ãĤ¹
Ġd y
icher ung
ĠÑĥ Ð²ÐµÑĢ
ÃŃn io
Ġclass es
Ġprac ow
Ġaten d
h le
ĠA G
Ġest u
Ð± Ñĥ
ad amente
Ġcin co
ĠÑįÑĤ Ð°Ð¿
Ġent ra
Ġp ÅĤ
ĠÐ°Ð² Ð¸
ĠÐ´Ð¾ ÑħÐ¾Ð´
Ð¸Ð· Ð°ÑĨÐ¸Ð¸
oma ine
ĠIni cio
Ñĭ ÑģÐ»
ĠCour t
za cji
c is
ĠZ ak
ĠÑģÐº Ð»Ð°Ð´
l ant
Ġviel leicht
Ġcar ousel
Ġvis ite
Ġold er
Ġtest ing
ĠÑģÑĤ ÑĢÑĥÐºÑĤ
ĠQual itÃ¤t
Ġo cen
Ġdej ar
" ,"
ÐµÐ³ Ð¸ÑģÑĤÑĢ
socia zione
Ġthá» Ń
ard im
å® ®
ĠA f
ĠCh a
ie g
ĠÑĢ Ð¸ÑģÐº
f ying
Ġin ÃŃcio
Ġda ugh
Ġwh ose
Ġl anz
å¸¸ ãģ«
ĠmaÃ± ana
Ġprop or
Ġnum a
ĠC os
Ġcommer ci
Ġcapac ity
ãģĵãģ¨ ãģ«
Ġpr os
ĠÐ¸Ð½ÑĦÐ¾ÑĢÐ¼ Ð°ÑĨÐ¸Ñİ
Ġmed ios
Ð¸Ð· Ð²Ð¾Ð´
ãĤĭ ãģĵãģ¨ãģĮ
d igo
ĠcaÅĤ e
ĠP RO
Ġcoc ina
pp ia
f est
Ġd wa
Ð¾Ð» Ð¸
Ġth Æ°á»Łng
ĠÐ° Ð³
Ð½Ð¸Ðº Ð¾Ð¼
ĠD ank
ĠÐ»ÑİÐ± Ð¸Ð¼
ĠÐ²Ð¾Ð·Ð¼Ð¾Ð¶ Ð½Ð¾
Ġsit ios
Ġgem eins
it ors
ĠÐ½Ð¾Ð² Ð¾ÑģÑĤÐ¸
ãĥ¼ãĥ ĭ
Ġla ck
ĠIt ali
Ġkh Ã¡m
Ġstat us
Ġcom fort
ke y
ĠÑĤÑĢ Ð°Ð²
Ð¾Ð¼ Ð°ÑĤ
Ġma cch
Ġsoci ais
Ġmul heres
Ġch yba
ra ng
Ġha ven
Ġh áº¡
ĠÑģÐ» Ð¾Ð²Ð°
Ġlearn ed
Ġrele vant
pl an
ãģ® ãģł
Ġpresent ed
Ġk wiet
Ã Ľ
Ġfact ors
ĠÑĥÑĩÐ°ÑģÑĤ Ð¸Ðµ
Ġqu ad
ĠT ri
Ġdi cho
Ġen quanto
Ġg ol
Ġsu jet
Ġstate ment
ĠRo ad
ĠÑĢÑĥÐº Ð°Ð¼Ð¸
Ġacc ommod
Ġpl ata
Ġcol ors
Ġprodu zione
ĠÐ¿ÑĢÐ¾Ð¸Ð·Ð²Ð¾Ð´ ÑģÑĤÐ²Ð°
Ġdri ver
ĠWarsza wa
Ġè ħ
Ġte ve
Ġje ux
ick en
Ã©r ique
Ðķ Ð¢
ĠÐ±Ð¾Ð»ÑĮÑĪ Ð¸Ð½
ĠÐ½ÐµÐ´ Ð¾ÑģÑĤ
ç¯ Ģ
ĠÐ¼ Ð°Ð¼
ĠÐ» ÐµÐº
Ġç Ł
è¡ Ĺ
z ado
ĠÐº Ð»ÑİÑĩ
Ġoffer te
Ġvic ino
ber eit
mp s
ĠãĤ¢ ãĥ«
ĠB ank
ãĥ© ãĤ¤ãĥĪ
owaÅĤ a
äºº ãģ®
Ġqu ase
ti Ã§a
Ġczy m
ve z
Ġmot or
ĠvidÃ© o
ãģ£ãģŁ ãĤī
je w
Ġdzie ÅĦ
Ð¿Ð¾Ð» Ð°Ð³
Ġgiorn ata
iv ent
ĠÑĢÐµÑĪ ÐµÐ½Ð¸Ñı
çĹ ĩ
Äħc ych
Ġprof issionais
am er
Ġf eito
Ġsag te
ĠÐ²ÑĭÐ± ÑĢÐ°ÑĤÑĮ
ÐµÐ»ÑĮ Ð·Ñı
ĠAn n
ĠÐ±Ð¾Ð» ÐµÐ·
Ġcommun ities
Ġm amy
ĠÐ¿ÑĢ Ð¸ÑıÑĤ
uch s
Ġcomp ra
Ġres ol
v ista
Ġse ven
ĠMe jor
ĠP R
Ġresp uesta
m io
Ġc áº£i
å½ ¼
o ÅĦ
ĠW here
ĠÐ¸ÑģÑĤ Ð¾ÑĢÐ¸Ð¸
ĠÑģÐ°Ð¼ Ð¾ÑģÑĤÐ¾ÑıÑĤÐµÐ»ÑĮ
ĠsÃ© jour
Ġexper iÃªncia
ĠP om
Ġ ÑĨÐ¸
ĠÐ£ Ñĩ
ĠÄĳ áº£o
Ġp s
Ã§ u
Ð°Ð² Ð°ÑĤÑĮ
Ġf ear
ãĥĲ ãĥĥãĤ¯
ĠÐ¾Ð± Ð½Ð¾Ð²
Ġch Äĥm
ĠR E
ĠHo y
ĠÑģÐ¾Ð¾ÑĤÐ²ÐµÑĤÑģÑĤÐ² Ð¸Ð¸
Ġriv ol
Ġconn aiss
Ġt áºŃn
Ġcab in
Ã© ctr
Ð» Ð¾Ð¿
Ð°Ð»ÑĮ Ð½ÑĥÑİ
Ġn ames
Ġcond izioni
ĠÐ¼Ð¾Ð´ ÐµÐ»Ð¸
ĠTra v
Ġro k
l ungs
Ġcom ments
Ġg á»Ĺ
Ġroom s
Ġtempor ada
Ġnaj bardziej
ci Äĩ
Ã©rie ure
Ġ6 5
åĳ ¼
ĠmÃºs ica
Â £
ĠãĤ ı
ni u
ĠÑĢÐ°Ð· Ð½ÑĭÑħ
ĠÐ£ Ð´
Ġpr atique
aÃ± os
ĠTh á»Ŀi
Ġspraw dz
ĠÑģÐ¾Ð¾ÑĤÐ²ÐµÑĤÑģÑĤÐ² ÑĥÑİÑī
Ġstag ione
Ġpa Åºdzier
æ ©ĭ
Ġam Ã©lior
ÑĢÑĥ Ñĩ
ĠG ast
Ġngh á»ģ
Ġh u
ines e
ĠGes und
ĠÑģÐ¾ÑģÑĤ Ð¾
ĠÑĥÑģÐ»Ð¾Ð² Ð¸Ñı
Ãºbl ica
ĠÐ¢ ÐµÐ»
ĠPh ong
Ġin ner
ĠÑĤÐ¾Ð²Ð°ÑĢ Ð¾Ð²
Ġje une
Ġmed ium
Ġå¤§ éĺª
Ġac adem
os ing
ul te
Ġser ia
s icht
pp y
Ġrec omm
Ġv irt
Ġl ista
ĠC Ã¢m
ĠR iver
Ġfocus ed
I G
ĠA R
Ġf ish
ĠÐ½Ð°Ñĩ Ð°Ð»Ð°
ĠÐł Ð°Ð±Ð¾ÑĤ
ĠWo che
Ġsp rz
ĠUS A
ti ci
Ġod powiedz
Ġfacil ities
Ġmainten ance
Ġinc or
Ġwar un
Ġp ull
r om
ra c
ali ÅĽmy
Ġd Ã¡
Ġa up
Ġcould n
Ġint Ã©r
ĠCom une
p Ã¤
å¹ ħ
Ġadd ing
ĠÑģÐ¼ Ð¾Ð¶
ĠÐ° Ð»ÑĮ
Ġcam ere
Ġsp ring
** **
Ĵ æŃ©
Ġpl enty
Ġmo c
ĠÑĢÐµÐ·ÑĥÐ»ÑĮÑĤ Ð°ÑĤ
Ġarty ku
ĠEdu caÃ§Ã£o
re st
ĠÑĢÐ°Ð±Ð¾ÑĤ Ð°ÑĤÑĮ
Ġfor get
ÐµÐ½ Ð½ÑĭÐ¼Ð¸
Ġp Ã©rio
ill os
Ġpu er
Ġoper ating
om en
Ġsh ape
á»§ ng
are m
Ġac ess
ed s
Ġchá»ī nh
Ġåħ ¥
Ġbor der
m 2
Ð¿ Ð¾Ð½
Ġdes k
Ġè ¶
ul ting
Ġaut our
Ġbig gest
ĠI L
in aÃ§Ã£o
ann ten
Ð¾ÑĢ Ðµ
Ġäº Į
c are
ĠÐ¼Ð½Ð¾Ð³ Ð¸Ðµ
æ ½
Ġè µ
éĻ į
Ġk iá»ĥu
ĠVer anst
Ġer ano
ed ores
Ġze igt
ĠãĥĢ ãĤ¤
ĠCas erÃŃo
ÄĻ b
Ġda her
ĠÑĥÐ´ Ð¾Ð²
ÐµÑħ Ð½
Ġparti re
Ġpubb lica
ĠWeit ere
Ġnasze j
ĠÑģÐ¾Ð² ÑģÐµÐ¼
O K
Ġdire ction
ĠÐ¾Ðº ÑĢÑĥÐ¶
Ġe her
Ġsch le
Ġfe e
ios o
Ġsa per
ĠIs ra
ÐĿ Ð«
Ġaud ience
ĠNot icias
Ijo i
Ġesc lus
ĠÃºlt ima
k cie
Ð¸ÑĤÐµÐ»ÑĮ Ð½ÑĭÑħ
ic on
Ġsel ected
Ġprof issional
Ġa Ã§Ã£o
ira m
Ġr ank
ĠQ UE
Ġszczeg Ã³ÅĤ
ÑģÑĤÑĢÑĥÐº ÑĨÐ¸Ñı
Ġdet al
schn itt
ĠFlor ida
ost as
re hen
Ġh áº¥p
Ġej erci
ĠÑĤ ÐºÐ°Ð½
Ġch ce
Ġtr zy
c les
ĠÐ¼ Ð¸ÑĢÐ¾Ð²
oli ze
Ã© qu
Ġz eit
f il
l ig
Ġpre zent
Ġm Ã³vil
Ñĭ Ð´
lo go
Ġc art
ĠÐķ ÑģÑĤÑĮ
Ġcam ino
ĠPro gramm
ĠsÃ© lection
Ġout ubro
ih na
ĠB ien
Ġt Ã¹
Ġproble mi
ĠÐ¾ÑģÐ¾Ð± ÐµÐ½Ð½Ð¾
ĠÐ¿ÑĢÐ°ÐºÑĤ Ð¸ÑĩÐµÑģÐºÐ¸
Ġst ark
Ð¾Ð² Ð°Ð»Ð¸
Ġmu zy
Ġf ÃŃs
Ġn Âº
ĠÐĲÐ»ÐµÐºÑģÐ°Ð½Ð´ ÑĢ
Ġj s
ĠÐ¾Ð´ Ð½Ð°
Ġmater iaÅĤ
ĠÃºlt imos
rat Ã©g
Ġcompet ition
ĠMo Å¼
Ġsepar ate
ĠSe villa
ĠÑĦÐµÐ²ÑĢ Ð°Ð»Ñı
ĠPh Æ°Æ¡ng
Ġpro get
ĠAn ton
ĠÑĤÐ¸Ð¿ Ð°
Ã¤ hlt
Ġvol unte
Ġh il
åĽ ³
ĠM u
ãĥĲ ãĥĥãĤ°
ĠCom un
Ġrec ursos
enez uela
Ġal meno
ĠÐ²Ñĭ Ð´
Ð² Ð°Ð»
éħ ¸
Ġpour rait
Ð°ÑĤ ÑĥÑĢÐ°
quil er
wn ÄĻtrz
Ġå ĳ
ĠM ary
AD O
Ġstron ie
Ġllev ar
Ġest ilo
ÑĨ Ð¾Ð²
Ġm ÃŃ
Ġl ire
Ð¾Ñĩ Ð½Ð¾Ð¹
Ġne hmen
Ġval ore
ãĥĥãĤ· ãĥ§ãĥ³
Ã¤tz lich
Ġprofes ionales
ĠÐĳ ÑĢ
Ġin izio
Ã¡l isis
ÐµÐ² Ð¾
ĠÐºÐ¾Ð½ ÑĦ
Ġag rÃ©
r Ã¼ck
Ġmus ica
iÃ¨re ment
Ġprzy sz
ĠS ub
ÃĲ ÃĲ
Ġex cel
ç± ³
à²¾ à²
ĠS á»ĳ
use ment
ĠÑĦ Ð¸ÑĢ
our d
isc ine
ãĥĵ ãĥ¥ãĥ¼
ĠMunicip al
I n
I m
ĠÑģ ÑĦ
Ġs ust
un ta
Ġkom un
Ġoccas ione
Ð°Ð´ ÑĮ
ĠZ ur
ĠS uche
Ġpueb lo
ach ten
Ġpro c
ĠÐºÐ°ÑĩÐµÑģÑĤÐ² Ð°
Ġespe ci
Ġtrat amiento
Ġä¸ ĭ
ãĤĴæ Ħ
ĠWh o
Ġso ggi
ãĥģ ãĥ¥
ĠC ustom
Ġpot er
Ġdes con
ast urb
ĠA S
ĠKon takt
Ġs ir
ĠÐ¼ ÐµÐ±
ĠD enn
uer ra
Ġt Æ°á»Ľng
ĠãĥĹ ãĥŃ
ĠÐ¿ÑĢÐ°Ð² Ð¸Ð»ÑĮÐ½Ð¾
li we
ce m
Ġprincip ais
Ð¿Ð¸Ñģ Ð°Ð½Ð¸Ðµ
Ġfig ure
âĺ ħ
ter os
r one
ãģªãģı ãģ¦
ĠCl ub
åĨħ å®¹
Ġout door
ãĥ³ãĥ ķ
Ġmad re
Ġpract ices
Ġw sz
if y
ĠÐ²Ð· Ð°
Ġeffici ent
Ġqu ant
aÅĤ em
ĠÑĩ ÑĤ
ĠSchla f
Ġt ale
åı ĭ
ĠÐ¼ Ð°Ð½
Ġãģ ²
Ġg one
ass ung
ãĢ ĳ
ch ÄĻ
Ġfor te
ãĤī ãģĽ
ĠB áº£o
ĠNach t
k osten
Ġv Ã¡rios
ĠprÃ© par
ro id
men s
Ġsi ed
Ġf uel
Ġf illed
Ġæ Į
ta Ã§Ã£o
Ġcar s
Ġst ellen
ĠÐ°Ð²Ð³ÑĥÑģÑĤ Ð°
ĠTex as
Ġprop io
á»« a
ĠÑĩ ÐµÑĤÑĭ
c om
Ġher ramient
Ðº Ð¸Ð½
Ġoff ici
Ġshe l
o ci
Ġn Ã¤
ism us
Ġin kl
Ġtom ar
ĠSeg undo
Ġin west
ĠT Æ°
ta Äĩ
Ġcor re
Ġw at
b ara
éĢ Ķ
oth ing
å£ °
ĠHer z
Ġl Æ°á»£t
ĠD ienst
ĠMot or
ĠPl an
ĠÐ°Ð²ÑĤÐ¾Ð¼ Ð°ÑĤÑĭ
ĠdÃ© fin
ĠçĻ ½
Ġx áº£y
Ġobs erv
ĠczÅĤ owie
ĠÐ² Ð°Ð»
ro te
Ġro ck
ief el
nd er
Ð¸Ð½ Ð°ÑĢ
ig te
Ġcre ar
ĠT ues
stand ing
å®¢ æ§ĺ
Ġram ach
ĠTh urs
ma i
Ġcli enti
Ġeben falls
Ġreg ol
Ġm áº¯c
ĠÑı Ð²
Ġform azione
v id
ÃĬ Ãĩ
ĠP S
ĠG ed
Ġm Ã¡i
ï¾ ŀ
ĠprÃ³x imo
Ġexerc ise
Ġæ ģ
ĠÐ²Ñĭ Ð·
en ica
Ð°Ñĩ Ð¸
Ġman if
zi ale
Ġgiov ani
ĠH á»
Ġrece ber
ĠÅ¼y cie
fica zione
ĠTod os
Ġbisog no
rawd ÄĻ
ĠÐĴ ÐµÐ´
ãĤ¤ ãĥ¬
ĠSt ar
enti ally
a ction
Ġngh i
iss ent
graf ia
Ġtechni ques
ĠMitarbeit er
ĠÑĢ ÐµÑĨÐµÐ¿
Ġdie t
n ent
las se
ĠGia ng
Ðķ ÐĿÐĺ
ĠEsp anol
ãĥ³ãĤ ³
Ġun ico
Ġ6 4
Ã¨ m
Ð¼ ÑĥÐ½
mitt ed
ĠÑģÐºÐ°Ð· Ð°Ð»
Ġidenti fy
ĠZap atillas
k or
ĠÐ¿ÑĢÐµÐ´ ÑĥÑģ
éħ Ĵ
æĴ ®
ĠÐ¼ÐµÐ¶Ð´ ÑĥÐ½Ð°ÑĢÐ¾Ð´
Ġle er
Ġacc ord
Ġmar Ã§o
Ġdirect or
ĠFamil ie
ĠF erien
ĠI P
ĠÐ¿ÑĢ ÐµÑģÑĤ
ĠÐĳ ÐµÐ·
Ġke pt
iz ation
Ġihre m
ĠÐĿ Ð°Ð´
jÄħ ca
ĠÑģÐºÐ°Ð· Ð°ÑĤÑĮ
Ġmod Ã¨le
Ġhus band
åľ §
hand lung
ĠÑĥÑĤ Ð²ÐµÑĢÐ¶Ð´
ĠÐŁÑĢÐ¾Ñģ Ð¼Ð¾ÑĤÑĢÐ¾Ð²
C Z
Ġm im
Ġha ng
ĠL ire
Ġcz ar
ĠNe ben
Ġdu da
Ġsmall er
ĠFr anc
Ġwin ning
Ġcon vert
u ais
Ġocc up
ç¯ ī
éŁ ¿
Ġ Î
j ar
ĠC D
ĠL age
Ġfam ous
Ġt iá»ĥu
ÅĤ on
ate ar
ber n
Ġhelp ful
Ġver d
Ġfun ktion
ĠRes ta
is co
ĠÐ½Ð°Ð¿ ÑĢÑı
iáº¿ p
Ġinter ior
Ãģ Ãĭ
ĠAn uncios
Ġm and
Ġbu on
sp ect
ĠãĤµ ãĤ¤ãĤº
Ġ ÅĤat
Ġles bianas
ĠÐ´Ð¸Ð· Ð°Ð¹Ð½
Ġm Ã£
æĽ ľ
Ã³ p
çŃ Ķ
on io
ĠÐ¿ÑĢÐ¾ÑĨ ÐµÐ´
Ġsitu aÃ§Ã£o
ĠNot ÃŃcias
Ġents preche
acion ais
Ġrestaur ant
iá»ħ m
Ä Ħ
Ġw ers
Ġbed e
Ġar gent
ĠH ilfe
Ġset embro
Ġsp Ã¤ter
Ã¤nd e
ĠÐ´Ð°Ð½ Ð½ÑĭÐµ
ien iu
ä½ĵ é¨ĵ
ie waÅ¼
Ġguest s
ar od
Ġæľ ª
ĠPro ject
p reis
Ã¤ hl
Ġno vembro
ĠG ior
ator io
la res
b ud
Ġe gg
ãģ®æ ķ
Ġd áº¥u
ĠL ove
á»Ľ m
ch sel
Ġqu atro
ato ire
Ð¾Ð² Ð¾Ðµ
Ġm áºŃt
au v
Ġsu gar
Ġok ol
iz nes
ĠÑįÐºÑģÐ¿ Ð»Ñĥ
r ale
Ġwor den
Ġapp r
ĠH iá»ĩn
Ġtro ppo
ÑģÑĤ Ð°
Ġa ider
qu el
ĠE tique
ĠFr an
Ġenfer med
ĠÐ¿Ð¾Ñģ ÐµÑĤ
Ñı ÐµÑĤ
Ġm áº¥y
Ġa ware
Ġdeb ido
ĠSoft ware
ĠÐ¼ Ð¾Ð¹
Ġf an
Ġm are
Ġar te
xim ately
ĠNo va
g lia
ĠC Ã¡mara
Ġczerw ca
l or
ĠV is
Ġre ality
Ð° ÑĨÐ¸Ð¹
ĠÐ²ÑĭÐ³ Ð¾Ð´
ĠC ie
Ġre te
ig ten
Ġpued a
t ura
Ġcen y
Ġmem bres
ĠL icht
Ġpre d
å± ŀ
Ġv ivo
Ġcharact ers
ĠEnts che
y j
a el
ãĥĥ ãĥķ
áº· n
Ġw ahr
Ġess ay
Ġform at
æİ Ľ
Ġbl anco
Ð¾Ð· Ð¸ÑĤ
ãģ®å ¯
Ġd ump
Ġline a
ĠSchwe iz
Ġnature l
Ð»ÐµÐ½ Ð½ÑĭÑħ
ak ty
æī ĵ
ãĤĮ ãģ¾ãģĻ
ÑıÑĤÑĮ ÑģÑı
ĠDes p
us to
Ġam biente
Ġwer de
Ġth Ã¡i
Ġnuest ras
Ġinfl u
åħ Ĳ
Ġsa i
Ġth áº©m
Ġdi ritto
Ġl Ä©nh
Ġè¿ Ķ
Ã¡l ise
ĠAma zon
Ġade cu
z os
ta ine
Ġsh ip
ur i
ãģ¾ãģĽãĤĵ ãģĮ
Ġche gar
Ġdeve m
ĠÐ½ Ð°Ð½
Ġn á»ĳi
fall en
ĠLi fe
Ġluo go
ĠV iet
ĠÐ¶ Ð¸Ð»
Ġve get
Ġl iá»ģn
æ©Ł èĥ½
ĠÐ¦ ÐµÐ½ÑĤÑĢ
Ġbit te
Ġsell ing
Ġcou leur
ĠO st
Ġre de
fic ar
ĠÐ²Ð¾Ð·Ð¼Ð¾Ð¶ Ð½Ð¾ÑģÑĤÐ¸
onn es
Ġdispon ibile
Ġinvestig aciÃ³n
Å »
y ÅĤ
b esch
ĠPor to
åĩº ãģĹ
Ìģ n
Ġay ant
ĠÐºÐ½Ð¸ Ð³Ð¸
Ġar range
ar f
ĠD im
ĠÐĳ Ð°ÑĢ
Ġtak i
Ġch áº¥p
Ġev itar
Ġhera us
Ġl ux
Ġé ĺ
1 æĹ¥
C OM
ĠÐľÐ¾ÑģÐº Ð¾Ð²
end iente
Ġdec isions
ç łĶç©¶
Ġc Å©
Ġob vious
Ġéĸ ¢
å°Ĥ éĸĢ
Ġdet alles
ara go
ĠIn s
em a
ortun ately
çĶ· æĢ§
çĬ¶ æħĭ
leit ung
ĠCh inese
Ð°Ð½ ÑĮ
ĠK im
ãģĪ ãģªãģĦ
Ġm áº·c
Ġten ha
ÑģÑĤÑĢÑĥ ÐºÑĤ
Ġpass ed
le ichen
Ġitali ana
Ġjeste m
Ġconsegu ir
Ġind iri
ara zione
Ġpo Å¼y
Ġc oll
Ġth ai
Ġty god
ĠczÄĻ sto
Ġman eira
ĠS ing
ĠÐ¿ Ð°Ð»
ĠV ente
Ġperson ales
Ġopp ure
ãģ£ãģ ±
Ġm igliore
7 5
Ġat te
Ġqu anh
Ġ09 0
Ġlead er
ĠÐĳ Ð»Ð°Ð³
Ġpom o
ĠK opf
ĠÐ¾Ð± Ñģ
ãĤį ãĤĵ
Ġhom em
å¤ ľ
ĠÑģÑĤ ÐµÐ¿
ĠF ern
Ġä¸ ĸ
iz aciÃ³n
h ouse
Ġconn ected
Ġfund s
a um
ĠÑģÐµÐ· Ð¾Ð½
ĠÐ² ÑĢ
ĠÑĤÑĢ ÐµÑħ
icz ny
Ġoper ations
ĠResta ur
ia is
Ð°ÑĤ Ð°ÑĢ
ag as
Ġoper a
at as
Ġz de
ko ÅĦ
Ġb ill
Ġè² ·
Ġwait ing
ĠC are
Ġn ier
ĠEn cu
ĠÑĤÑĢ ÐµÐ½
æĸ¹ ãģ¯
Ġzam Ã³w
ĠÐ» ÐµÑģ
Ġed ge
ĠÐ°Ðº Ðº
esta w
ĠL un
ĠF ore
Ġsp ect
Ġpl ut
Ġ5 2
Ġquel que
ĠÐ¾ÑģÐ½Ð¾Ð² Ðµ
on der
Ġdocum ents
Ġverschied enen
ãģ®å Ĭ
ä½ľ æ¥Ń
ĠÐ¿ Ð¸ÑģÑĮ
Ġzd jÄĻ
ĠÑįÐºÑģÐ¿ ÐµÑĢÑĤ
Ð¸Ð» Ðµ
Ð»ÐµÐ½ Ð½ÑĭÐµ
ĠdziaÅĤ al
Ġsp azio
Ġãĥ ´
Ġclass ic
ç¥ Ŀ
èµ °
Ġexp ensive
ÑĥÐ´ ÑĮ
Ġesp ect
Ġg ens
Ġadv ance
if ier
Ġc atch
Ġcomb ination
ro it
ĠÐĴ ÐµÐ»Ð¸Ðº
Ã¶ffent licht
Ġch á»¯
Ġle ider
ĠAc qu
ĠÐ¾Ð± ÑģÐ»ÑĥÐ¶
ĠUB ND
ãĤĬ ãģ®
ĠÐ¿ÑĢÐ°Ð² Ð°
Ġtr uy
Ġcaus a
Ġtemper ature
ĠDown load
ãĥĩ ãĤ¶ãĤ¤ãĥ³
w ic
ĠCon st
Ð°ÑĤ ÑĥÑĢÑĭ
Ðł Ñĳ
åĭ ¤
Ġczy n
2 V
ĠT ous
ĠÐ´ Ð¸Ñģ
Ġfin ance
Ġpos izione
ĠK ateg
ers on
Ġmies iÄħ
en cial
Ġvis ion
Ġsig ue
ĠkaÅ¼ dy
Ġagree ment
ĵ ģ
Ð°Ð¼ Ð¸Ð½
ĠÑįÑĤ Ð°
Ġtro tz
ĠÅ¼ ad
Ò ĳ
Ġd or
ÃŃ m
ãģ®è ³
ĠÐ¿ Ð¾Ð¿ÑĢ
Ð¾Ñħ ÑĢÐ°Ð½
Ġro ll
ĠÐ¡Ð¾Ð¾Ð±Ñī ÐµÐ½Ð¸Ðµ
ZSI 6
ĠÐ´Ð¾Ð» Ð»
ĠÐ·Ð°Ð¼ ÐµÑĤ
teil ung
Ġpack age
Ġwind ows
ãĥ¡ãĥª ãĤ«
ĠF u
Ð¾Ñĩ ÑĮ
ĠG old
Ð¸Ð¼ ÑĥÑīÐµÑģÑĤÐ²
ĠÐ´Ð¸ Ð°Ð³
ĠInst itute
Ġm unicÃŃp
Ġacomp anh
Ð°Ð½ Ð½Ð¾Ð¹
v aÃ§Ã£o
Ġc Æ°á»Ŀng
Ġcl asse
Ġde in
Ġæ Ł
å® ¿
Ã¤ mp
ord in
g rÃ©
f iz
Ġai ut
un kte
v ision
Ġcover age
Ñĥ ÐºÐ¾Ð²
z ji
uÃŁ er
Ð°Ð½ Ð°Ð²Ð»Ð¸Ð²
Ã³ vel
ãĥ¡ ãĥ¼ãĥ«
Ġlong o
Ġsoll en
Ġeconom y
Ġæ Ļ
ra ment
Ġm iá»ģn
a ben
Ġenviron nement
pon der
Ġwh atever
Ġqual cosa
Ġa Ã§Ãµes
Ġop is
un os
arago za
Ġvol ver
Ġp ush
Ġequip os
Ġdeci de
ĠÃºn ico
ĠXu Ã¢n
Ġmil itary
Ġstycz nia
ĥ ħ
Ġm ort
ĠÐ¤ ÑĢÐ°Ð½
éĩĳ ãĤĴ
Ġt áº¥n
Ġwi ad
ĠÐ¿Ð°ÑĢÑĤ Ð½
Ġother wise
Ġb le
Ġg all
ãģ®å į
Ġprocess ing
Ġc áºŃu
ĠS eit
Ñģ ÐµÐ´
Ġk am
ĠH ist
ĠL ake
Ġbe ach
ha ft
Ġvisit ors
Ġwsp om
Ġlá» Ĺi
Ġm ieÄĩ
ĠÐ¿Ð¾Ð´ ÐºÐ»ÑİÑĩ
Ġfut uro
ĠrÃ©sult ats
ãģ®å¥ ³
Im age
ut y
Ġk ry
Ġda gli
Ġaut ant
ĠÐ² Ð¸Ð·
l ose
è¨Ģ ãģĨ
ĠÐ¿ Ð¸ÑĪ
fr ica
ra ciÃ³n
ĠÐ¼ÐµÑģÑı ÑĨÐµÐ²
Ġzab aw
Ġmention ed
Ġth Ã©
Ġco che
Ġwie m
ĠãĥĹ ãĥ¬
Ãºs qu
Ġla unch
Ġg al
cia ux
f ast
ĠCh ild
Ġadv ent
cul o
zeich net
Ġcol abor
Ġè² ¡å¸ĥ
Ġx Ãºc
Ġart ist
Ġid Ã©
Ġpar ole
ĠS us
ĠS un
Ġs áº¡n
Ġal ign
e ign
ï½ ¥
ĠãĤ¹ ãĥŀ
Ġãĥĩ ãĤ£
ab ilitÃ©
ãģ¯ ãģĦ
ab el
ĠSch l
Ġinstall ation
Ð°Ð· Ð°ÑĤÑĮ
Ġoc up
Ġa Å¼
z ess
ãĥ¼ãĤ °
ĠDies er
ãģ® ãģŁãĤģ
ĠServ i
ĠMÃ¤ n
ĠhÃ¤t te
ĠB ig
Ð³ Ð¾ÑĢÐ¾Ð´
ad ing
Ġå£ ²
ĠC rÃ©
Ġpres enza
Ġcal cul
çİ ī
Ġhab lar
Ġpolit ica
Ġto i
ĠÐ¢ ÐµÐ¼
Ġdes nudas
á»Ļ n
ÐµÐ½ ÑĨÐ¸Ð¸
å± ħ
ĠPare jas
ĠChristi an
ĠÐļ Ð°Ð»
ĠÐ¥ Ð¾ÑĤ
Ġpol ity
Ġbu á»ķi
ĠLand es
ĠÑĥÑĢÐ¾Ð² ÐµÐ½ÑĮ
ĠÐŀÑĩ ÐµÐ½ÑĮ
ĠÐ¾Ð¶ Ð¸Ð´
ĠÄĲ áº§u
ĠV end
Ġod by
ste hen
Ġczy t
Ð¾Ð¹ ÑĤÐ¸
Ð¾Ð²Ð°Ð½ Ð¸ÐµÐ¼
Ġresult ado
Ġpia ce
ĠÑĢÐµÐ·ÑĥÐ»ÑĮÑĤ Ð°ÑĤÐµ
ĠTor ino
Ġnum erous
ni Äĩ
Ġstr ada
or ta
Ġsen cil
Ð² Ðµ
Ġc iv
ÃŃ amos
Ã© tique
Ġpublic z
ĠÑĤÑĭ Ñģ
ãĤ¶ ãĥ¼
Ġb ought
Ġam Ã©rica
Ġlis top
ĠF R
Ġth Ãº
ĠQu áº£ng
if ied
Ġinf o
ag t
Ġdec is
Ġshi ft
Ġin oltre
ãĥ¼ãĤ ¶
Ġs ched
Ġbec omes
Ġpr oud
Ġneigh bor
ĠUnivers idade
al y
ãģ§ãģĻ ãģĭ
Ġb ot
Ð½ ÐµÑģ
Ġhapp ens
ĠEx p
z cz
Ġte xto
æ į
ĠÐ° Ð·
Ġprop ia
Ġtea chers
Ġf ich
Ġrel aciones
Ġcons omm
ĠEng ine
ı Ĳ
ĠÐŁ Ð¾ÑĤ
ãģ®å Ľ
ãģĭ ãģªãģĦ
Ġnh a
Ġsc ore
ĠPre ise
ãĥĿ ãĥ¼ãĥĦ
ĠÐ²ÑĤÐ¾ÑĢ Ð¾Ð¹
Ġra zem
ĠOd powiedzi
ĠAus wahl
b c
ara Ã§Ã£o
Ġs na
ĠJ ames
Ġt Ã³c
Ġcher che
Ġsound s
f urt
c ÄĻ
Ġk ia
ĠÐ± Ð¸Ð»
ĠÐ¿ÑĢ ÐµÐ¶
Ġ\": \"
ĠSp ie
Ġpass ado
ĠSt rona
ĠVerfÃ¼ gung
Ġch arakter
czeÅĽ niej
ĠAl ors
ie ur
Ġexc ited
ein ander
ĠÐ» Ð¾Ð³
oc up
ĠCon f
Ġroz m
Ð¾Ð² Ð°ÑĤÑĮÑģÑı
Ġid Ã©e
ĠÑĥÐ» ÑĥÑĩÑĪ
rupp en
it uiÃ§Ã£o
è ŀį
A P
áº ¾
ĠZ we
Ġab ord
ĠÐ´Ð² Ðµ
Ġshow ing
ÃŃt ica
ĠÑĩÑĥÐ² ÑģÑĤÐ²
Ġpour quoi
ï¼ £
ĠÐ¿ÐµÑĢ ÐµÐ¼
ĠktÃ³re go
ĠãĤ¯ ãĥª
Ġtrad u
Ġroz wiÄħz
Ġofer ty
em en
Ġp ien
ĠIn t
Ġmed ida
Ġmoy en
Ġcours es
ĠR ich
ĠÐ¢ ÑĥÑĢ
ku je
ãģı ãģ¦
ĠHer r
Ġear th
Ġaf irm
Ġo ko
ĠN Äĥm
Ġning Ãºn
Ġtr uth
Ð¾Ñĩ Ð½ÑĭÑħ
Þ¦Þ ĩ
ĠF unktion
ĠÑĤÐ°Ðº Ð¾Ð³Ð¾
ãĥĥ ãĥĶ
è¶ ħ
Ġel las
Ġprzy p
Ġnor m
ĠÑĤÐµÐ± Ñı
ãĤ· ãĥªãĥ¼ãĤº
ãģ¡ ãĤįãĤĵ
Ġe ight
Ġdis a
Ġprocess es
Ġdire cciÃ³n
Ġrapp orto
Ġunter stÃ¼tz
ĠTues day
ĠÐ· Ð°Ð¹
ĠÑĤÐ°Ðº Ð¸Ð¼
ed izione
est ety
ĠÑħÐ¾Ð·Ñı Ð¹
ĠÐľ Ð¾Ð¶Ð½Ð¾
Ġmod er
ĠTe xt
ĠK á»³
ĠÑĢ ÑĥÑĩ
ĠÐ´ ÐµÑĢÐ¶
ĠW ood
Ġf ederal
Ġso ciety
Ð¸Ñģ Ð¾Ðº
ï½ į
Ġav ais
mas ch
åĭķ çĶ£
ãģ«ãģĬ ãģĦãģ¦
æµ· éģĵ
ĠO F
ĠM ob
olog na
Ġha ute
Ġred es
åıĤ åĬł
Ġple as
ĠGe gen
Ġmaxim um
ĠL ub
ĠÐ²Ñĭ ÑģÑĤÐ°Ð²
Ð¸ ÑĨÐ¸
ĠM illion
Ġpor tu
ĠDE LL
ĠH Ã²a
Ġm ountain
Ġland sc
ĠdÃ©couv rir
ĠÐ¿ÑĢÐ¾Ð¼ ÑĭÑĪÐ»ÐµÐ½
è Ĺ¤
ĠThurs day
ĠL ou
Ġlo in
ti cia
ĠÐ¿ÑĢÐ¾ ÑħÐ¾Ð´
ãĥĭ ãĥ¥
v isiÃ³n
ĠIhre m
ĠÑĥÑĢÐ¾Ð² Ð½Ñı
ĠÐ±Ð»Ð¸ Ð·
ĠÐĹÐ´ ÐµÑģÑĮ
Ġapoy o
Ġkwiet nia
an qu
ĠW iÄĻ
Ġcu ar
ge hen
Ðľ Ðĺ
roc ÅĤaw
Ġáº¢ nh
ĠA C
Ġcon na
Ġra g
Ġs ets
Ġoper ation
Ãº do
ĠAn al
ĠEr k
Ġwy sz
cu encia
ĠSch utz
ĠBras ile
ĠÐ½ÐµÐ´ Ð²Ð¸Ð¶
Ġser wis
en ess
Ġf ans
Ġcomp ar
ĠÐºÐ¾ÑĤÐ¾ÑĢ ÑĥÑİ
Ġtyp u
con Ã´m
Ð¾Ð·Ð¼Ð¾Ð¶ Ð½Ð¾
d is
ĠÐ² Ð¾Ðº
Ġrel ig
ÌĢ i
ĠBus ca
ĠÐ° Ð¼
al nych
k cja
Ġam m
ĠU lt
Ġk lar
Ġaltern ative
Ġb Ã¡nh
Ġsen so
ĠÐ¸Ð· Ð¾Ð±ÑĢÐ°Ð¶
Ġn uÃ´i
Ġj Ã³venes
Ġx uyÃªn
Ġposs ui
er ia
un ti
Ġãģĵ ãģ¡ãĤī
Ġkosz t
re y
Ġqu áº§n
s ystem
ÐĲ ÐĹ
ĠÐŀÑĤ Ð·ÑĭÐ²
ĠÑģÐµÑĢÐ² Ð¸Ñģ
Ġtet onas
Ġwrze ÅĽnia
op h
ĠTh iáº¿t
Ġth ao
Ð¸ÑĢÑĥ ÐµÑĤÑģÑı
Ġsp a
ĠÐ¿ Ð¸Ñī
Ġåİ Ł
Ð¾ Ð¸
ĠD al
ĠÐ´ Ð¶
ĠH el
ĠÅĽ red
ĠO u
è£ ľ
åº ·
ãģĹãģ¾ ãģ£ãģŁ
Ġn ÃŃvel
Ġwsp Ã³l
ÑĢÐ¾Ñģ Ð»
Ġbec oming
Ġth us
ĠÃ ¾
Ġun f
el as
Ġra re
ĠÐ½ ÑĢÐ°Ð²
Ġest ruct
ãģĻ ãĤĮãģ°
Ġcoment Ã¡rio
Ġapp lied
itÃ¤ ten
ĠÐ¾ÑĢ Ð¸Ð³Ð¸Ð½
ĠL y
ti ve
Ġal ma
us ione
Ġtra il
ĠH ai
bar en
Ġcomun idad
Ġdif ÃŃ
ĠGÃ¤ ste
ĠD etail
b m
ĠÐ¾ Ð²
ÐµÐ² Ð¸Ð·
Ð°Ð½ Ð´Ð°
an cias
ves ti
abe i
ĠÑĢÐ°Ð¹ Ð¾Ð½Ðµ
ĠEdu cation
st on
ĠL eit
o co
ult ura
Ġent ren
Ġnov as
Ġindep endent
ĠÑģ ÐµÐ»ÑĮ
Ġcont ato
ãĤı ãĤĮãĤĭ
Ġng á»ĵi
Ġsucc esso
Ġcomple to
ĠÃ© le
ç ¦ı
Ġpesqu isa
Ġbis her
Ġpass Ã©
Ġdo ctor
Ġpour ra
ĠÐ¾Ð±ÑıÐ· Ð°ÑĤÐµÐ»ÑĮ
T R
æ Ĩ
ĠN os
Ġest im
ici es
ĠÂ¡Â °
Ð»Ð¸ ÑĪ
ĠK ur
ĠÑĥÑĩ ÐµÐ½
ĠL ib
ro v
or as
Ġpr ise
ãģ«ãģª ãĤĬ
ĠSpiel er
Ġre ference
ĠuÅ¼y tkow
g ry
Ġin m
gg er
it ario
Ġup gr
ĠBl anc
ute bol
åŃ¦ æł¡
Ġas oci
ĠThe ir
Ġrep r
n icz
ĠB oth
Ġnh á»Ŀ
Ġracc ol
Ġs od
Ġst one
Ġåħ ¬
ĠÐºÐ°Ð¿ Ð¸ÑĤ
crip ciÃ³n
Ġdi mens
Ġthe me
art os
Q iO
Ð¸Ð» ÐµÐ¹
Ġj em
ĠD abei
f o
ri z
Ġd yn
Ġfuer te
Ġer ror
ĠPart ner
Ġple in
Ġcon du
ĠÐ¼Ð½ Ð¾Ð¶
Ġplan ta
ĠÐµ Ð´
Ġur zÄħdz
Ġbek annt
ĠÐ´ÐµÐ½ ÐµÐ³
Ġper corso
re m
Ġsp l
Ġb ain
Ġcall s
Ġremain s
Ġdisp onible
ãĤ¹ ãĥ¡
Ġst reet
ĠNue vo
B C
Ġand are
ĠÑĦ ÑĢ
wend ung
ĠÐºÐ¾Ð¼ Ð¼ÐµÐ½ÑĤÐ°ÑĢ
Ġé ł
Ġg ord
ãĥĭ ãĤ¢
Ġob tener
ĠMÃ¼n chen
ãĢ İ
Ġest re
è¿ İ
Ã¡nd ose
Ġart icles
Ġresid ents
Ġgouver nement
Ġng on
ĠÃ© x
Ġst ile
Ġ ãģªãģ©
Ġd ining
b ilidad
lace ment
æŁ» å®ļ
Ġencou rag
Äħ p
Ġel im
ĠV enta
siÄĻ bior
ia go
Ġint el
Ġprincip ales
Ġcom enz
Ã³w no
Ġinter Ã©s
ĠSo cial
ĠÐ¿Ð¾ÑģÑĤ ÑĢÐ¾
ĠÐ½Ð°Ð´ ÐµÐ¶
Â¡Â £
Ġbeaut y
li ÅĽmy
Ð± Ðµ
ĠÐ¡ ÑĤÐ¾
ÐµÐ´ ÐµÐ½Ð¸Ñı
ĠÐľ Ð¸Ñħ
Ġno vel
D I
ı a
f ung
ÐµÐ¹ Ð½
Ġsh ap
Ġ Æ¡n
Ġcol our
ĠÐ¿ ÑĭÑĤ
Ġch air
ĠÑĤÑĢÐµÐ± Ð¾Ð²Ð°Ð½Ð¸Ñı
Ġleaders hip
å® Ī
ĠZ ent
ĠÑģ Ð¸Ð´
å¾ ¡
on ia
Ð°Ñı ÑģÑĮ
jÄħce go
èĤ Į
ĠÑį Ð¿
ĠÐľ Ð¾Ð´
Ġé ħ
Ġp urs
Ġne ues
ÐºÐ¾ Ðµ
Ġcol ore
Ã¼n f
ÅĦ ska
Ġãģ¾ ãģļ
v idas
ĠUS D
Ġcent ral
Ġdin ner
ACI ON
ĠÐĴÐ»Ð°Ð´Ð¸Ð¼ Ð¸ÑĢ
ä¸ ¡
Ġth áº£o
Ð¸Ð½Ð³ Ð°
Ġrodz aj
Ġdat ab
re a
ĠÄĳ em
Ġw ire
ĠDire ctor
ĠduÅ¼ o
Ġlog iciel
4 4
N O
ï¼ Į
Ġsu chen
ĠIn nen
Ġser ÃŃa
Ġgener ation
ĠÐ¿Ð» Ð¾Ñħ
Ġd áº¡y
ĠB ianco
ĠÑĤÐ¾ÑĢÐ³ Ð¾Ð²
ĠÐ¾ Ñī
ĠÐ° ÑĥÐ´
ĠRe view
Ð°ÑĤÐ¾ÑĢ Ñĭ
Ġver kauf
ĠH Ã£y
n ich
Ġz do
Ġof ert
Ð°ÑİÑī ÐµÐ¹
ow ski
Ġsvil upp
åı ²
ost ante
est as
Ġb lei
Ġk ennen
Ġminim um
Ġv ir
ÐĲ ÐĿ
bie ter
Ġsc ritto
Ġach ie
Ġlegg ere
es ar
Ġfe es
ĠL ord
ãģĹ ãĤĪãģĨ
Ġf em
å «
ber to
Ġph iÃªn
ĠÐ¸Ð½ÑĦÐ¾ÑĢÐ¼ Ð°ÑĨÐ¸Ñı
Ġhappen ed
Ġorgan is
Ġpad ding
o ft
ĠÄĲ Äĥng
å¾ ´
ãĤĤ ãģĤãĤĭ
Ġav uto
æĬ ķ
Ġopen ed
c rit
ĠÐŁÐ¾Ð´ ÑĢÐ¾Ð±
Ġproje kt
Ġtut aj
ĠkaÅ¼ d
ub lic
Ġs á»Ľm
Ġsu y
Ġfor se
Ġk an
Ġl inha
Ġkh á»Łi
ĠÐºÐ¾Ð½ÑĤ Ð°ÐºÑĤ
ĠÄĳ en
ĠSp ra
do ba
bo x
ĠÂ¡Â ±
ĠÐ²Ð¾Ñģ ÑģÑĤÐ°Ð½Ð¾Ð²
Ã¡t icas
æĺ Ł
ĠÐ°Ð²ÑĤÐ¾Ð¼Ð¾Ð± Ð¸Ð»Ñı
Ġp sych
Ñĭ Ñģ
ĠW Ã¼r
ãģ¨ ãģĹãģŁ
Ġv itt
Ġdist ance
Ã¤ch st
Ġucz est
Ġthous ands
ar en
im men
ĠLa v
ãĥ¼ ãģ®
r ateg
Ġm Ã£i
ĠEr folg
ĠÐ¡ Ð¾Ð±
ĠÐĿ Ð°Ð·
ĠÐļ ÑĥÑĢ
Ġãģĵ ãģĨ
ĠT ime
Ġcze go
Ġub ic
Ġafford able
ĠÃ ²
Ġtr Ã¬
ĠÑģÐ¾Ð± Ð¸ÑĢ
ç¨ İ
ĠF ollando
ĠÐ½ÐµÐ¼ Ð½Ð¾Ð³Ð¾
Ġint Ã©rieur
Ġw a
ï¼ ı
Ð½ Ð¾Ðº
Ñĥ ÐºÐ¸
ĠW ien
en ir
ĠG dy
ĠÐ´ ÑĢÑĥÐ·
Ġv amos
Ġt á»ĳc
Ð° ÑīÐµ
ãģ¸ ãģ®
Ġid ent
Ðł Ðħ
ĠÑĢÐ°Ð¼ ÐºÐ°Ñħ
ĠC la
ĠM uch
å· ŀ
Ġcre am
Ġmiejs ca
ĠÑģÐ¾Ð² Ð¼ÐµÑģÑĤ
ĠÐ¼Ð½Ð¾Ð³ Ð¸Ñħ
ch at
Ġal ter
ĠK H
Ġcu b
Ġp ier
Ġm atrim
r ido
Ġtr áº£i
Ġâ Ī
ĠDies es
mo bil
ĠÐ° ÑģÑģ
Ġä» ķ
ĠãĤ· ãĥ§
Ġhi jos
Ġw rote
Ġk art
Ġexp ress
å· »
ĠEs pe
Ġwy bor
èį ·
ĠPubblic ato
Ġfor um
Ġdem Ã¡s
ĠNh Ã¢n
ãĤĴæ Ĭ
ĠÑĥÑĩ ÐµÑĤ
Ġch áº¯n
Ġvuo le
ÑĥÐ±Ð»Ð¸ ÐºÐ¾Ð²Ð°Ð½
Ġder en
ras se
ĠÑģÐ°Ð¼ Ð¾Ð¼
gang en
ĠÐŁÐ¾Ñģ Ð»ÐµÐ´
ĠAut om
Ġjog os
Ġr ynku
ĠSil va
Ġabsolut ely
Ġportu gu
Ġem o
Ġgr ant
Ġpres enti
ĠÐ¡ Ð»ÐµÐ´
Ġdest ac
ĠÐ² Ð¾ÑģÑĤ
ra i
Ġf ille
Ġval u
Ġnecess Ã¡rio
Ġx o
Ġnot te
Ð¾ÑĤ Ñĥ
ap ter
Ġtop ic
Ġval id
Ġen fr
ĠTrav estis
Ð¶ ÐµÐ½Ð¸Ñı
ĠÐ³ Ð¸Ð¿
Ġcab o
Ġsen si
ĠV erein
Ġoportun idad
Ġch odzi
ĠAu gen
Ġapr end
Ġab aixo
aj as
ãĥ¥ ãĥ¼ãĤº
ent ed
ĠC ela
ĠçĻ º
ĠâĢ¦ âĢ¦âĢ¦âĢ¦âĢ¦
ill on
ĠCh ile
Ġp int
ÐĽ Ðĺ
ĠP f
èĦ ±æ¯Ľ
ÅĽ la
Ġç ¤
Ġsi ano
Ñĳ Ð»
Ġbr ight
Ġreci pe
l len
Ġstrateg ies
Ġmias ta
O G
ic j
Ð¸ÑĤÐµÐ»ÑĮ Ð½Ð¾Ð¹
ãĤ¯ ãĥŃ
Ġst anie
Ġter Ã¡
ĠB Ã¡o
ĠÐ²ÐµÑĢ Ñħ
Ġdesarrol l
Ġnouve aux
Ġtit olo
ĠA qu
ĠK Ã¶n
Ġcar ro
ruct ure
ĠgehÃ¶r t
çµ ¶
ãĥĻ ãĥ³ãĥĪ
ĠFin anz
Ġpla isir
h i
im b
pp el
am in
en ho
Ġsou th
Ġ ì
ĠA ff
de z
ãĥĻ ãĥĥãĥī
Ġrecommen ded
é¦ Ļ
Ġme inen
ĠS itz
ĠT etas
ĠÐ¾Ð±ÑıÐ· Ð°ÑĤÐµÐ»ÑĮÐ½Ð¾
ĠGem e
Ġch oses
ĠÐ¿ÑĢ ÐµÐ¼
ĠÐ¿ÑĢ Ð¾Ð¶
ann te
Ġgu ida
ĠInd ian
ĠP fl
ĠÐ¿ÑĢÐ¸ Ð³Ð¾ÑĤÐ¾Ð²
Ġzn ale
ĠnÃ¤ch sten
Ġp Ã³Åº
è ¯
Ġt es
Ð¾Ðº Ð¾
Ġç «
Ð°Ð½ Ðµ
ĠSp a
Ġab it
ç· ı
Ġlo gos
ä»¥ å¤ĸ
cch ia
Ġdispon ibili
u h
k k
Ġãģ į
gg ing
ĠB ack
Ġconf ig
ĠÑģÑĩ Ð°ÑģÑĤ
cri be
æĭ ħ
Ġfaci le
ĠÐ¿ÑĢÐ¸Ð¾Ð±ÑĢ ÐµÑĤ
ç´ Ļ
Ġrec on
Ġto ward
ĵ åĽ½
Ġcomun icaciÃ³n
Ġgest Ã£o
ĠGrand es
ĠãĤ ®
c ular
olog ique
et ro
Ġenjoy ed
ĠSci ence
ĠWed nes
ĠÐ´Ð¾Ð² Ð¾Ð»ÑĮÐ½Ð¾
ak i
ĠÐ¿Ð¾Ð· Ð´
Ġre almente
Ġpes ar
Ġlors que
ç®¡ çĲĨ
ĠP an
z ÅĤ
ĠÑģÐº Ð¾Ð»ÑĮÐºÐ¾
Ġtrabaj ar
Ġtas te
ĠÑģÐ¼Ð¾Ð¶ ÐµÑĤÐµ
ĠA frica
he in
Ġt ari
od a
Ġre cip
AN O
Ġgener ale
f ici
Ġver wend
Ġents che
Ġannon ce
ĠÐºÐ¾Ð¼Ð¿ÑĮÑİÑĤ ÐµÑĢ
S E
Ġa gen
Ġg ry
å¯ Į
Ġtre es
å ©
ĠL ÃŃ
Ġç ļ
Ġbr ings
Ġut enti
Ġv as
ĠC Ã´
ĠÐ½Ð°Ð± Ð»ÑİÐ´
Ġ. :
å¤ ±
Ġqu Ã¡n
Ġf amos
istra ciÃ³n
Ġãĥ ĺ
ĠD ia
ĠÐº Ð¾ÑģÑĤ
Ġme ant
I LL
ĠÑģÐ¾ÑģÑĤÐ°Ð² Ð»ÑıÐµÑĤ
ĠM ig
Ġar g
amp f
Ġlong ue
Ġká» ·
ãģ¾ ãģĹãĤĩãģĨ
ĠWe iÃŁ
ĠÐ¿ÑĢÐ¾Ð¸Ñģ ÑħÐ¾Ð´Ð¸ÑĤ
ĠS ig
ĠÐ¯ Ð½
Ġhel fen
ĠPr ima
ĠÐŀÑģ Ð¾Ð±
Ġob tenir
I P
Ġdeut lich
Åĵ ur
ĠÑģ ÐºÐ¸Ð´
Ġnap rawdÄĻ
ï¼ ¯
ki er
ĠThe men
Ġapp are
Ġesc uch
Ġsal a
Ġdro g
Ġoc chi
ĠprÃ©c Ã©d
Ġgr udnia
Ã² i
Ġrep e
Ġ Åº
ãĤĴ éģ¸
Ð¾Ð¹Ð´ ÐµÑĤ
Ġqu attro
h ar
Ġph a
Ġmod ello
cim ientos
Ġhabit aciones
esten s
Ġges tiÃ³n
ĠProf ess
çĨ ±
Ġ15 0
Ġtem pl
Ġproper ly
ãĤ¹ ãĥļ
Ġfal ar
ĠÐ² Ð¿ÐµÑĢ
ĠPel iculas
ing o
Ġg ast
ĠÐ´ ÐµÑĪ
ĠÑĥ ÑĢ
aut Ã©
ĠVer kauf
Ġpoder Ã¡
Ġtea cher
ĠWyÅĽwiet leÅĦ
ĠP ia
an ym
ĠÐ·Ð° Ñħ
ĠÐ°Ð²ÑĤÐ¾Ð¼Ð¾Ð± Ð¸Ð»ÑĮ
æľ ª
ãģĤãĤĬ ãģĮ
ãĥį ãĤ¹
Ã©t r
Ġord ine
ĠÑģ Ñİ
ĠÐ¾ Ð½Ð¾
ĠÐ°Ð² ÑĤÐ¾
Ġå° ĳ
çİ ĭ
Ġan uncios
Ġv Ã£o
ur re
w ers
li p
ĠÐĲ Ð·
ÄĻ du
ĠÑģÐ°Ð¼ ÑĭÐ¹
ĠEng land
Ġterm ine
Ġfant astic
Ð¾Ð¿ Ð¾Ð»
ĠÑĤÑĢÑĥ Ð´Ð°
Ġm l
Ġph i
s weise
Ġexc iting
Į æľĽ
ĠÐ½ ÐµÐ»ÑĮÐ·Ñı
ĠT ro
ĠN inh
es ter
ĠÐĽ ÑĥÑĩÑĪ
Ġfacil ity
Ġadop t
ĠS ne
ĠC ab
j ahr
ĠÐ¸ÑģÐ¿Ð¾Ð»ÑĮÐ· Ð¾Ð²Ð°Ð½Ð¸Ñı
ĠC uis
Ġdescrib ed
æĹ¥ ãģ®
ĠÐ¿ÐµÑĢ ÐµÐº
Ġs ap
Ġesc re
Ġfl at
v ar
w al
b ank
Ì£ i
Ġcon cent
éī Ħ
Ġcu ore
ĠprÃ© f
ĠAl ess
ual mente
Ð¸ÑĤ ÐµÑģÑĮ
Ġdi man
Ġsp ending
ra zione
os en
ge gen
Ġr ide
ĠGi Ã¡o
Ġalc anz
ĠA bend
ti ent
ni Äħ
Ġr Äĥng
ĠDeut sche
ĠUnd er
Ġdep artment
è²» çĶ¨
ĠÐ¼ÐµÑģÑı ÑĨ
ĠÐ´Ð°Ð» ÐµÐµ
Ð½Ð°Ð· Ð½Ð°Ñĩ
Ġde ine
Ð¿ÑĢÐµÐ´ ÐµÐ»Ñı
Ġmanag er
ãģ®å ķĨåĵģ
Ġcontro le
Ġç¨ İ
Ġokre ÅĽl
Ġp Ãºblic
re es
ut et
Ð°Ð± Ð¾ÑĢ
Ġth r
Ġra in
Ġprim i
ĠÐ¼Ð¾Ð´ ÐµÐ»ÑĮ
ä¸ Ī
ous se
ĠBl ue
Ġcali ente
Ġplut Ã´t
Ġlistop ada
ion a
Ġacc ur
Ġraga zzi
ĠÐµ Ð¹
Ġesc ort
Ġob bl
Ġdist rib
Ġintern acional
Ġutili zzo
ĠÑĨÐ²ÐµÑĤ Ð°
Ġsw itch
Ġkom put
Ġbu ona
Ñĩ Ð¸ÐºÐ°
Ġsqu are
Ġse at
Ġbro ther
ĠN or
Ġnad ie
Ġj ur
ĠD á»±
fe hl
éł ħ
Ġp air
Ġthough ts
ĠS iste
cept ion
Ġv Æ°á»£t
letz t
Ð°Ð½ Ð³
åĭ ¢
ĠÐ¡ Ð²ÐµÑĤ
ĠIs so
Ġincl uy
Ġdisp osizione
Ġs ierp
ĠÐ¿Ð¾ ÑģÐº
uch te
v ido
ĠBe fore
Ġ200 6
Ġmen u
ĠE nd
Ġb aÃ±o
ĠBit te
ir ation
ÅĤ ych
çµ ±
Ġpo chi
AL I
Ġmus i
Ġpres ident
ĠÐ° Ð¼ÐµÑĢÐ¸ÐºÐ°Ð½
ãģ®æ °
Ġson st
Ñĩ Ð¸ÐºÐ¾Ð²
Ġpl astic
Ġatten zione
Ð¾Ð´ Ñĥ
h ic
æī ¿
Ġinstall ed
ĠGew inn
Ġprevious ly
ha upt
Ġcaus ed
sch rift
Ġaw esome
ĠMich ael
ul ed
one j
ale za
ard ino
ĠÐĽ ÐµÐ½
Ġge b
Ġå¾ Į
Ġk ro
Ðº ÐµÑĤ
ue ill
ĠNo v
Ã¶ bel
ĠPub lic
Ġv aleur
ãĤ· ãĤ¹ãĥĨãĥł
ĠIB _
Ġpol icies
ĠP ay
cy d
® éĢļ
Ġcontrol lo
ĠÐ·Ð°ÑĤ ÐµÐ¼
Ġf ollar
ãĥ³ãĤ ¬
ÅĤo ÅĽ
è² ¸
Ġrese ar
ĠÑįÐº ÑĢÐ°Ð½
Ġrun s
æľŁ éĸĵ
ĠTr ump
Ġs Ã³c
aliza cja
ze uge
omi ast
am or
ĠprÃ©s ente
Ġtem p
é »Ĵ
Ġdale j
Ã¼ ge
ĠLa ng
á»į t
ĠÑĥ Ð¿ÑĢ
ĠÐ¾Ð± Ð»
Ġrelationship s
ĠÑģÐ¿Ð¾ÑĢÑĤ Ð¸Ð²
ow ano
Ġ20 00
Ġa mer
è³ ŀ
Ġmanag ed
ĠintÃ© gr
f Ã¤h
Ġrichies ta
ÑĤÐ¸Ðº ÑĥÐ»
ĠPAR A
Ġim Ã¡genes
ter as
Ġnie go
Ġwould n
ĠÐº Ð¾ÑĪ
Ġart ists
Ġs abe
Ġrecord s
Ġs ources
othe k
ĠAnton io
M E
op a
ĠÑĥ ÑħÐ¾Ð´
int ure
Ġm uestra
ĠÃ© cole
; ;
å ¨
Ġd ado
ãĤĤ ãģĨ
u ble
Ġcor ner
Ġcontin ues
Ġhabit aciÃ³n
ĠÐ²Ð»Ð°ÑģÑĤ Ð¸
ĠS á»Ł
Ġl áº½
i ze
Ġkom ent
ir er
Ġdes se
ĠÄĲ Æ°á»Ŀng
s hip
é£ Ľ
alis i
Ġsuit able
ķ ı
d it
Ġfr Ã¼
ÐĲ Ðŀ
Ã¡t icos
ĠÐ¿ÑĢÐ°Ð² Ð¸Ð»ÑĮ
Ġlle va
ãĥ¡ ãĥ¼ãĤ¸
ĠÐºÐ°Ð¶Ð´ Ð¾Ð³Ð¾
ĠcrÃ© er
æ ¿
Ġre ti
æķ ħ
Ġac red
cz nego
Ġend ed
Ġdeix ar
Ġaug ment
in ct
ä½ Ĳ
Ġcomp la
ĠÑĢ ÐµÑģÑĤ
Ġserv ing
j emy
ies a
Ġda ÃŁ
ĠÑģÐ°Ð¼ ÑĭÐµ
Ġdz iew
æ´ Ĺ
en der
ĠcrÃ© ation
ĠGer m
ĠÐ¾Ð± ÑĢÐ°Ð±Ð¾ÑĤ
Ġcu ales
ĠÐĵ Ð¾ÑĢ
ĠAn sp
Ġl áº¡c
Ġ Ø
ÑĪ ÐµÐ¹
ĠAn t
amb io
Ġsoci ale
Ġpro cur
Ġs ki
Ġv ient
ãĤ¦ ãĥĪ
fÃ¼hr er
ÐµÐ½ÑĮ ÑĪÐµ
ĠÐ»ÐµÑĩ ÐµÐ½Ð¸Ñı
f rage
ãĤ¼ ãĥ³ãĥĪ
éĬ Ģ
ĠÑĥÐ·Ð½ Ð°ÑĤÑĮ
ĠI r
ĠgiÃ¡ m
ĠKe ep
ĠpaÅºdzier nika
Ġc io
Ġv ais
Ġmark ets
Ġsal ir
éļĽ ãģ«
Ġmod ific
ãģ«éĸ¢ ãģĻãĤĭ
ĠÐ·Ð°ÐºÐ¾Ð½ Ð¾Ð´Ð°ÑĤÐµÐ»ÑĮ
Ġal unos
ĠG lo
or ary
Ġdes co
ier ungs
Ġpost s
ĠdÃ©c lar
mar kt
ĠÑĨÐ¸ ÑĦ
ger y
ĠÑģ Ð½Ð¸Ð¼
ĠKomm un
c ente
Ġact ions
ãĥĭ ãĥ³ãĤ°
aliz ada
op ol
ĠÐĴÐ¸Ð´ Ðµ
ĠÐŃÑĤ Ð¾ÑĤ
Ġlos e
Ð¸Ðº Ð°ÑĨÐ¸Ð¸
Ġpu oi
ãĥ¼ãĥ Ŀ
Ã¨ ge
Ġwor ry
è² ¨
Ġknow s
Ġdetail ed
Ġtechni que
Ġcu id
Ġng Ã´i
ista re
ĠOr ig
IC A
Ġconcern s
ĠrÃ©se au
ç °¡åįĺ
ĠS C
Ġæ Ĥ
Ġher m
Ġall ora
Ġinform aÃ§Ã£o
wy Å¼
ĠÐºÐ¾ÑĢ ÑĢ
ĠÂ² Â»
ãģ¨ ãģ¦ãĤĤ
Q UE
Ġassist ance
Ġrapide ment
ç º
ĠWohn ung
Ġfe vereiro
Ġingred ients
it able
Ġloc ations
Ġmay ores
Ġah ÃŃ
ĠSant os
Ġdisfrut ar
Ġu00 3
ĠÐ¾Ð±Ð½ Ð°ÑĢÑĥÐ¶
Ġble ibt
Ġch ÅĤ
ĠD ÃŃa
ori al
ĠNh Æ°
Ġutili zar
Q U
Ġdi ag
ĠâĢľ .
cze k
Ġf rei
Ġsch wer
ĠAd min
ond a
gr Ã¼nd
ĠD ata
ãĥĭ ãĥ¼
Ġsem ble
Ġiniti al
Ġo e
ĠL ight
Ġpas a
Ġown ed
ãģ«ãģ¤ãģĦãģ¦ ãģ¯
ĠÎ Ķ
ĠÃ ¹
ãģķãĤĵ ãģĮ
ĠÃ©t ant
Ġperform ed
ĠE lect
Ġad resse
Ġ" ).
è Ķ
M j
ĠÐĶ Ð¸
åį Ķ
Ġlu ce
ĠÐĸ ÐµÐ½
Ġwebs ites
Ġeduc aciÃ³n
Ġazien de
Ġãĥ Ĵ
Ð¸Ð´ ÐµÑĤ
ĠÐ¿ÑĢ Ð¸ÑģÑĤ
iss ions
Ġe ating
os aÅ¼
Ġme zzo
er ta
Ġs á»¯a
Ġproyect os
Ñĭ Ð¿
ĠÐ½Ð° ÑĨÐ¸Ð¾Ð½
Ġmajor ity
Ġs now
c iel
Ġes sen
ycz nie
Ġch Ã¢u
Ġpor nos
Ġb ianco
Ġconstru Ã§Ã£o
ĠT ur
ĠÐĿ ÐµÑĤ
ãģ¨ãģĦ ãģ£ãģŁ
ĠÐ¿ÑĢ ÐµÑģÑģ
çĽ¸ æīĭ
Ġcl osed
Ġl ien
Ġm aÅĤ
Ġgia i
Ġcon to
Ġz al
ĠdÃ© t
ĠÐŁ ÑĥÑĤ
Ġman os
oi x
åł´ æīĢ
ĠH inter
Ġreg ist
ãĥ¬ ãĥ³ãĤ¸
Ġconstru cciÃ³n
Ġsu cesso
ĠæĬķç¨¿ æĹ¥
Ġcomp rehen
ĠÐ² Ð¸Ð½
Ġle ben
ĠS onn
gel e
Ġdes ider
Ġult imi
Ġv Ã¡rias
ĠDevelop ment
ÐµÐ¼ Ð°ÑĤ
Ġè ĸ
ĠZ am
ĠS á»±
wi ata
Ð¾Ð² ÑĭÐ¼
Ġpres ence
uer re
Ġoffer ta
Ġï¼ī ãĢĤ
Ġdar f
ĠDz iÄĻki
ĠÐºÐ¾Ð½Ñģ ÑĥÐ»ÑĮÑĤ
ĠÐ² Ð¸ÑĤ
Ġd Ãº
Ġ áº¥n
ãĤĪãĤĬ ãĤĤ
ĠÐºÐ»Ð¸ ÐµÐ½ÑĤ
áºµ n
Ġest rel
Ġinner halb
M S
g Ã©
Ġes as
Ġè Ģ
ĠLe ia
ĠÐļ Ð¾Ð½ÑĤ
Ġrest o
Ð°Ð» ÑĥÐ¹
Ġle aves
Ġvier nes
Ġs at
Ġmost ra
éĽ ĳ
ĠÅĽ l
ãģĦ ãģ§
ÐºÑĢ ÐµÑĤ
ĠM ua
ges amt
æ¯Ķ è¼ĥ
é ½¢
Ġg ays
ãģ®è ī
Ġprof ile
ĠÐ´Ð¾Ð»Ð¶ Ð½Ð¾
Ġper spect
Ġqu en
Ġt Ã©r
les e
ĠN ote
ãĥ¼ãĥ ¡
ĠÐº Ð°Ñģ
ĠNe xt
Ġgu ess
Ġgrand s
Ġcha ud
ãģĮ ãģĤãģ£ãģŁ
ĠÐ±ÐµÑĢ ÐµÐ¼
ĠN ur
Ġth row
Ð°Ð¼ ÐµÑĤÑĢ
ĠÎĶ E
A A
on z
ĠÑģ Ð¾ÑĢ
Ġo ro
ĠH um
p her
ari an
r ier
us Ã£o
Ãµ i
ter o
Ġrec uper
ĠÐ¡Ð¿ Ð°ÑģÐ¸Ð±Ð¾
k ung
ĠÐ¿Ð¾ÑĤ ÐµÑĢ
Ġcomb ined
ĠÐ¿ÑĢÑıÐ¼ Ð¾
Ġacqu isto
in to
ãģ®å º
ĠÐŁÑĢ Ð¸Ð¼
ÅĤo ÅĽÄĩ
Ġng á»Ŀ
ĠfÃ¼ hren
Ġstamp a
Ġresponsi bility
ĠWednes day
Ġwill ing
ĠIt s
Ð¢ ÐĲ
ĠL OS
éĽ» è©±
Ġfund ing
Ġcor porate
Ġblei ben
Ð¸Ñħ ÑģÑı
Ġro l
Ġve ut
ĠÐ·Ð°Ð² ÐµÑĢÑĪ
ãĤ¤ ãĥ³ãĥģ
Ġth iá»ĩu
ĠÐ¾Ð¿ ÐµÑĢÐ°
ĠEx per
Ġog ÅĤ
Ġäº Ī
Ġcoment Ã¡rios
ĠÃ©t udi
Ġhon est
ç¨ĭ åº¦
Ĳ Ĩ
b as
ĠÐ² ÐµÐ»
ĠÐ¿Ð¾ ÑĪ
Ġpos sa
ãĤı ãĤĮãģ¦
Ġs á»£
Ġrou ge
çĹ Ľ
rei bung
ãģ® ãģĶ
Ġal iment
Ġerot icos
Ġslight ly
v in
h Ã£
ĠÐ¾ÑĤ Ð¿
on ym
ĠrÃ© un
Ġmost ly
rei bt
ĠÐļ ÑĥÑĢÑģ
p ond
Ġprodu ktu
Ġconte mp
I ER
un ning
Ġsitu azione
w Ã¼r
ä½ Ļ
ĠR ab
ess ions
Ġ5 1
Ġdo ors
ãĢħ ãģª
tag on
Ġconhe cimento
Ġper chÃ¨
ĠJ our
ãģ® ãĥĲ
Ġkh áº¯c
ĠmÃ¶ chten
ĠãģĿãģ® ä»ĸ
Ġgef unden
Ġla un
ãģ®å ¹
äºĭ åĭĻ
icion al
ç² ¾
Ġpre ocup
6 8
é Ĺ
Ġ ãģ§ãģĻ
Ġform aciÃ³n
ĠM undo
Ġdire itos
me ister
Ġatta ck
re f
ãģ§ãģ¯ ãģªãģı
Ġn iá»ĩm
Ġszyb ko
Ġsc onto
ĠHamb urg
aÅĤ am
Ġsus p
ĠÐ·Ð°Ð¿ ÑĢÐ¾Ñģ
Ġprofessionn el
Ġappro ximately
Ġnie w
ĠC ub
ister io
Ġang lais
ĠÐ°Ð½ Ð°Ð»Ð¾Ð³
abil ities
jew Ã³dz
Ġdiman che
Ġgr ade
ĠÑĥÐ´ Ð¸Ð²
Ġanim als
Ġenerg ÃŃa
Ġmati Ã¨re
ĠÐĳ ÐµÑģ
ĠÐ³ ÑĥÐ±
ĠKh u
ĠÐ¦ Ð²ÐµÑĤ
ĠÄĳ áº©y
Ġc itiz
ĠReview Image
ĠM ess
ard ia
Ġthu áº¿
Ġc row
ĠÐ½Ð°ÑĪ ÐµÐ³Ð¾
p et
Ġincl u
Ġdep ending
atr ice
ãĥª ãĥķãĤ©ãĥ¼ãĥł
ĠÑĥÐºÑĢÐ° Ð¸Ð½
ĠÐ²Ð·Ð° Ð¸Ð¼
ist ad
un sch
Ġco in
iz in
icz nej
ĠC ode
Ġfore ign
Ġa gency
Ġinj ury
Ġdaugh ter
n Ã©
Ġch ci
ĠC áº§n
Ġb áºŃt
Ġprov a
ĠPh il
ãģĦãģ¦ ãģĦãĤĭ
Ġclear ly
c raft
sch ule
ĠwspÃ³ÅĤ pra
Ġt ent
ĠM uy
ici ans
ĠComm it
ĠÑĦÑĥÐ½Ðº ÑĨÐ¸Ð¾Ð½
ĠBu ild
ĠL inh
ĠÐĿ ÐĲ
ĠUn is
Ġplay a
Ġun its
ĠZu kunft
Ġle aving
6 4
Ã³ ch
ĠÐº Ð°Ð»
Ġw ych
gl Äħd
Ġdem asi
Ġwalk ing
Ġn áº·ng
ĠCent ral
ĠÐ² ÐµÐ»Ð¸Ðº
ĠGut schein
Ġregister ed
ĠÐº Ð½Ð¾Ð¿
Ġapo io
Ġamer ic
Ġap art
Ð°Ð¶ ÐµÑĤÑģÑı
Ġg Ã©
Ð¸Ð³ Ð¸
æŃ »
Ġess es
our t
OR E
ĠÐ¿Ð¾Ð¼Ð¾Ñī ÑĮ
ĠBewert ung
ĠA ND
Ġlip ca
ĠÐ² Ð°Ðº
la ut
Ġsp ons
Ġmejor ar
ãģ¨ãģĦãģĨ ãģ®ãģ¯
Ġam ateur
ĠÐºÐ¾Ð¼ Ð¸ÑģÑģ
ĠCh Ãºa
ãĥ³ãĥ Ń
ig ungs
Ġpre ved
I CI
æŁ ĵ
Ġswo ich
Ġbaj a
Ġhi jo
o z
¤ ĩ
« ª
Ġdi ed
ant il
Ð¸ÑĤÐµÐ»ÑĮ Ð½Ð¾Ð³Ð¾
Ġtu vo
ĥħ åł±
ĠÄĲ iá»ĩn
k reis
ĠÐ²Ð· Ð³
ÃŃst ica
ĠÑĤÑĢÐ°Ð½ Ñģ
ĠdiffÃ©r entes
ĠÐ¼Ð°ÑĤÐµÑĢÐ¸Ð°Ð» Ð¾Ð²
ĠFamil ien
ĠFound ation
b u
Ġv elo
Ġenvironment al
Ã³w ki
ãĤ° ãĥ©
c che
Ġed iÃ§Ã£o
Ġpro jets
ĠprÃ³pr io
Ġapp artamento
Ġdisp osit
ĠBÃ¼r ger
ĠCommun ity
Ġg ara
Ġcon ect
ÐµÑĤ ÑĢÐ¾Ð²
Ġmuch a
Ġdro its
Ġkil ku
ĠÐ¡ ÐµÐ¹ÑĩÐ°Ñģ
Ġajud a
Ġinst rum
ĠEnerg ie
amer ic
ĠÐ¿ ÐµÐ´
ĠP age
ĠÐ¼ Ð¾ÑģÐº
Ġc ulo
Ġvia ggi
ĠComm ission
Ġsen ior
ĠHÃ¶ he
ĠK Ã¶rper
ãĥ© ãĥ³ãĤŃãĥ³ãĤ°
ĠÑĦ ÑĥÑĤÐ±Ð¾Ð»
ĠWe ihna
» ¿
ĠÐł Ð¾ÑģÑĤ
ãģ®å ĭ
ÐµÐ² ÑĭÑħ
va it
ãĤ¦ ãĤ¹
ĠÑĢÑĭ Ð±
Ġï¿½ï¿½ï¿½ï¿½ ï¿½
Ñģ Ð¾Ð»
ne o
ĠÐľ ÐµÐ´
Ð½Ð¾ÑģÑĤ ÑĢÐ°Ð½
Ġmed idas
Ġimmag ini
ĠÐ²Ñĭ Ð¸Ð³ÑĢ
or ter
um n
Ġprovid er
c ono
Ġess entiel
Ġen or
ĠF ab
ÐµÐ· Ð´Ð°
av ÃŃa
Ġter ce
ĠH ace
Ġmus ique
is hes
ĠÐ³Ð¾Ð²Ð¾ÑĢ Ð¸ÑĤ
ĠÐ¿Ð¾Ðº ÑĢÑĭÑĤ
ĠÐ²Ð¾Ð·Ð´ ÐµÐ¹ÑģÑĤÐ²
stra ÃŁe
up eÅĤ
ĠV ill
çµ ¡
est ra
å¸Ĥ åł´
Ġwp is
Ġse cteur
ĠÐ¿ÐµÑĢÐµ ÑħÐ¾Ð´
ĠÐºÐ¾Ð¼ ÑĦÐ¾ÑĢÑĤ
Ġ uch
Ġoff res
at iche
ĠH á»ĵng
Ġdire tto
ãģķãĤĮãģ¦ ãģĦãģ¾ãģĻ
as y
ur ent
á»¥ p
et ri
ĠÐ¿ ÐµÐ½Ñģ
çµĲ å©ļ
ĠÐ» Ð¸ÑĤÐµÑĢ
g he
le b
Ġgr id
ci ma
Ġv oi
rid ge
ĠL uft
all er
c enia
ä¾ Ŀ
Ã¼ g
Ġqued a
ĠprÃ³pr ia
p y
Ġer m
Ñİ Ñģ
Ð¸ÑĩÐµÑģÐº ÑĥÑİ
Ð¸ÑĤÐµÐ»ÑĮ Ð½Ð¾ÑģÑĤÑĮ
Ġdes sa
Ġcre are
Ġtyp ically
Ġb áº¿p
cur so
ĠP olize
ĠD ir
ĠBe g
ĠPr ostitutas
ult ure
Ġinforma cje
ĠFr Ã¼h
Ġm anner
ĠÐ°Ð½Ð³ Ð»Ð¸Ð¹
Ġcabe za
Y 2
ĠK at
ĠV oll
Ġcar ta
Ġcir cum
i zz
ĠÐ¿Ð¾Ð´ Ð¿Ð¸Ñģ
Ġcontin ued
ãģ¾ ãĤĭ
ħ è¡Į
ĠÐ½Ð¾Ð² Ð¾Ð³Ð¾
Ġconten ido
Ġd latego
Ġsoci edade
Ġo v
os er
ĠS et
ĠT Ãłi
Ġn adz
ĠBus car
ic ÃŃa
ãģ®å ľ
å¸ Ń
Ìģ ng
ĠÑģÐµÑĢ Ð¸
ĠÐĴÑĭ Ñģ
Ġpract ical
Ġbeste ht
Ġæ ¶
ver se
Ġp oll
u ciones
Ġapp ar
ĠSec ret
ĠC E
Ġå ²
ĠV iá»ĩc
ĠÑĥ ÐºÑĢ
Ġst ores
ĠIs land
ãģ®æ īĭ
olesc entes
ĠCÃ¢m ara
Ġjem and
Ġpar l
ni j
ãģ®æ Ń
Ġnum er
ĠMus ic
ĠÐ¾Ð±ÑĢÐ°Ð· Ð¾Ð²Ð°ÑĤÐµÐ»ÑĮ
ãģ®åī į
ĠÐ¿Ð° ÑĨÐ¸
Ġh ref
Ġn áº¡n
ĠÐ½Ð°ÑĪ Ð¸Ñħ
Ġge bra
Ġwatch ing
Ġn utzen
ĠZ w
Ġqu áº£ng
k st
ĠB and
ĠÑģÐµÑĢ Ð¸Ð¸
ĠÐ¡ÑĤ ÑĢÐ°Ð½
at oria
ĠmÃ© th
Ġpan el
Ġmul her
Ġcompon ents
Ġle i
os ter
ĠH D
ĠH Ã¡
ãģ®æ Ķ
½ çī©
ven ciÃ³n
Ð¸Ð· Ð¼Ð°
res as
ĠH á»įc
Ġvra i
ãģ² ãģ¨
Ġent fern
Ġpren ot
Ġv iej
ĠA br
Ġreco gn
ĠF am
Ġconf idence
ĠÐ¤ Ð¾ÑĤÐ¾
Ġlo vely
ĠThr ough
Ġne uf
Ġda w
ĠÐľ Ð°Ð³
Ġsal on
il ed
ĠÐ·Ð½Ð°Ñĩ Ð¸ÑĤ
ĠMas ter
Ġdess us
ug ares
N 0
Ġl y
Ġac ciÃ³n
Ġi hnen
ĠE cco
Ġv ote
ĠÐ¿ÑĢÐ¾ÐµÐºÑĤ Ð°
ĠSon nen
ĠF ried
ĠWebs ite
Ġw ÅĽrÃ³d
ĠÐ¾ÑĤÐ¼ ÐµÑĩ
Ġf o
Ð¾Ðº Ð¾Ð¹
Ð½Ð¸Ðº Ð°Ð¼Ð¸
Ġev enti
is ko
ib a
Ġpas sa
ĠN ella
Ġallow ing
aj o
ĠMod ell
ĠArt icolo
ĠÑĤ Ð°Ð½
ĠA z
ĠC onn
ĠÐºÐ°ÑĩÐµÑģÑĤÐ² Ð¾
Ġgrup os
Ġlay er
Ġavalia Ã§Ã£o
Ġaup rÃ¨s
v as
ÃŃ os
ĠÐ¿Ð¾Ð½ ÑĢÐ°Ð²
Ġmet ros
äºĪ å®ļ
ĠÃ© to
s cy
Ġåı ĸ
ĠC O
Ġpa go
Ġwp rowadz
Ġhar m
Ġpobl aciÃ³n
Ġcho Äĩ
Ġd oty
Ġalgum a
Ġan unci
am me
Ð¸ÑĤ ÑĥÑĤ
Ġesc ola
ãģ¯ ãģļ
Ġï¼ģ ãĢį
ĠÐ¿ÑĢÐ¾Ð²ÐµÐ´ ÐµÐ½Ð¸Ñı
ĠSm art
ĠÃ³ t
ĠÐ¾Ð¿ÑĤ Ð¸Ð¼
¥ åº·
Ñĭ ÑģÐº
ĠdÃ©c or
Ġl uyá»ĩn
Ġben Ã¶t
ter iores
Ġtr en
Å¼ czy
Ġel et
ÐµÐ½ Ð½
éĸĭ çĻº
Ġra ised
c ÃŃ
Ġcomp lÃ¨
Ġcateg ory
ĠÐĴ Ð¸Ðº
ãģ®å ½
Ġo be
Ġn iÃªn
Ġw raz
min y
ĠFer na
Ð¸Ñĩ Ð½Ð¾
us so
Ð¾ÑĢ ÑĥÐ¶
Ġt ail
om mt
ĠF emmes
ĠãĤ¹ãĥ¼ãĥĳ ãĥ¼ãĤ³ãĥĶãĥ¼
ãĥ¼ãĥ ľ
Ġn aci
ag ner
ĠWy d
ĠÐ·Ð°Ñī Ð¸ÑĤ
ĠVe ja
ĠEs per
Ġsee k
ĠK reis
Ġs ede
ĠÐºÐ¾Ð¶ Ð¸
Ġpreced ente
Ġs ed
Ġé ¦
æĹ¥ ãģ«
00 8
Ġmu ita
Ã¼ ler
Ġå ĴĮ
Ġrich ied
ĠÐ¾Ð´ Ð½Ð°ÐºÐ¾
Ġelett r
ĠÐ±Ð»Ð°Ð³ Ð¾Ð´Ð°ÑĢÑı
Ġest ratÃ©g
Ġin ch
Ġa ce
ĠV ir
Ġt elÃ©fono
Ġop ciones
Ġli br
Ġzd row
Ġaff aires
ä½ı å®ħ
bert ad
ora zÃ³n
ĀĀĀĀĀĀĀĀĀĀĀĀĀĀĀĀĀĀĀĀĀĀĀĀĀĀĀĀĀĀĀĀĀĀĀĀĀĀĀĀĀĀĀĀĀĀĀĀĀĀĀĀĀĀĀĀĀĀĀĀĀĀĀĀ ĀĀĀĀĀĀĀĀĀĀĀĀĀĀĀĀĀĀĀĀĀĀĀĀĀĀĀĀĀĀĀĀĀĀĀĀĀĀĀĀĀĀĀĀĀĀĀĀĀĀĀĀĀĀĀĀĀĀĀĀĀĀĀĀ
çħ §
ĠÐ¿Ð¾ÑģÐº Ð¾Ð»ÑĮÐºÑĥ
j d
ĠÃ »
Ġf anno
Ġsie ci
ãĥī ãĥ¬ãĤ¹
ĠÐłÑ ķ
ĠÑĦ Ð°ÐºÑĤÐ¾ÑĢ
ĠK ultur
Ġsigu ientes
a a
Ġr ing
Ġmas z
ĠGr Ã¼nd
Ġeduc aÃ§Ã£o
ãģ«ãģª ãĤĬãģ¾ãģĹãģŁ
Ġneg ative
èĮ ¶
Ġimmo bilier
ĠÑħÑĥÐ´ Ð¾Ð¶
M T
ĠR ot
Ġstart s
Ġch ac
æµ ľ
ID AD
ĠÃ© lÃ¨
Ĥ «
ï¼ ´
in ado
Ð°ÑĢÑĤ ÑĦ
ĠNg a
ĠÐ¸Ð¼ ÑĥÑīÐµÑģÑĤÐ²
ĠÐ² ÑĢÐµÐ´
Ġdi most
Ġgodz in
ĠÐ·Ð°Ð²Ð¸Ñģ Ð¸ÑĤ
ĠCono cer
Ġqu atre
Ġb io
Ðŀ ÐĿ
Ġd an
6 æľĪ
ãĥ« ãĥĢ
Ġspecific ally
Ġvers ione
Ġprep are
Ġof ertas
Ġquot id
ĠT om
ĠW it
ĠV i
Ġb Ã¡s
icht igen
u gen
Ġcl assi
Ġcon cours
ĠÐ¼Ð°ÑģÑĤ ÐµÑĢ
Ġoch ron
ĠGovern ment
ĠÑĢÐ°Ñģ ÑĪÐ¸ÑĢ
ĠK it
Ġdz is
ãĤĴæ ±
ri an
ãĥ¬ ãĤ¤
Ġdeut sche
ĠÑĢÐµÐ³ ÑĥÐ»Ð¸
Ġaura it
Ġt Ãłu
ĠÐ¢ÐµÐ¿ ÐµÑĢÑĮ
Þ ©
ĠS ym
Ġbe w
c endo
ĠJ este
Ð½Ð¾ ÑĪ
ĠçĽ ®
ĠNÃ¤ he
ĠpÃ©rio de
Â ¥
it an
Ġso ff
ent as
ãģĳ ãģªãģĦ
00 00
ja z
d orf
ĠvÃŃde o
5 8
x is
ĠÑĦ Ð»
ãģĭ ãĤı
ow l
ÃĪ Ãķ
ĠÐ¾Ð´ Ð½Ð¸Ð¼
ĠSpe cial
bind ung
Ġdw Ã³ch
Ġshow ed
Ġé »Ĵ
Ġchauf f
Ġchem ical
Ġries go
icros oft
le o
ĠF ire
Ġdem ais
Ġfin ale
utz t
Ġpr end
Ġdes emp
Ġcult ural
Ã¡ ndez
bc bc
åĨ ĻçľŁ
igen ce
ist rz
u cion
Ġsex ual
Ġk ateg
ĠÐ½ÐµÑģÐº Ð¾Ð»ÑĮ
Ġfic ou
Ġclaim s
Â ¦
gen ommen
gra ma
Ġautom atically
Ġdire ttamente
Ġm Æ¡
Ġo ben
ul ated
y si
ĠV Å©
Ġth Äĥm
at amente
ÑĢÐµÐ¼ Ñı
ãģĦãģŁ ãģĹãģ¾ãģĻ
Ġr endre
Ġk id
ĠÑĢÑıÐ´ Ð¾Ð¼
out hern
ĠÐ¾Ðº Ð¾Ð½Ñĩ
3 2
ĠL Ã½
Ġsuper ior
äºĪ ç´Ħ
ĠÐ´Ð¾ÐºÑĥÐ¼ ÐµÐ½ÑĤÐ¾Ð²
Ġing lÃ©s
Ġacc om
a ult
ĠÑĤÑĢ ÐµÑĤÑĮ
Ð°Ð½ Ð¸
ãĤĵ ãģ¨
ĠLie be
d ruck
ĠFrances co
Ð¸ÑģÑĤ Ð¾Ð²
ãĥ¬ ãĥĥãĥĪ
Ð¾Ð´ ÐµÐ¹ÑģÑĤÐ²
ĠÐ½Ð°ÑģÑĤ ÑĢÐ¾
Ġnas zych
ĠÐ²Ð· ÑĢÐ¾ÑģÐ»
Ġcol umn
ick s
ĠÑįÑĤ Ð¾Ð¼Ñĥ
Ġt aux
ĠOn ly
ĠÃľ bers
il en
ãģĹãģ¦ ãģĦ
Ġsa v
ĠæľĢ è¿ĳ
ĠVal ley
Ġappear s
Ġapp artement
ĠÐķ ÐºÐ°ÑĤ
ĠÑģÐ¼ ÑĭÑģÐ»
ĠÐł ÐµÐ³
ĠS Ã©
ĠBe ach
ĠÐ¿Ð¾Ñģ ÐµÐ»
è¨Ń å®ļ
Ġat to
ĠÐ¿ Ð°Ð¿
Ġprze k
ar ma
ĠT ras
æĪ ¿
b ora
ĠÐ¾ÑĢ Ð³
Ġprec iso
Ġmu erte
Ġbehav ior
ĠÃĸ sterreich
Ġx ong
Ġãĥķ ãĤ£
ĠAd idas
Ġlie gen
Ġcoment ario
Ġz oba
ĠL Ãłm
Ġli bros
ĠÐ¿ÑĢÐ¾Ð´ÑĥÐº ÑĨÐ¸Ð¸
ĠFir enze
ä¸ ģ
ĠLa uf
ãģ¿ ãģ«
ĠÐ³Ð¾Ð´ Ñĭ
ĠSeg Ãºn
ĠLe hr
Ġbus y
id ing
Ġimport antes
Ġexpert ise
ï¼ ¥
æŃ Į
ĠÃĸ ÃĲ
ĠFre und
Ġquar to
Ġ) )
Ġen car
Ġut il
Ġo zna
Ð¸ÑģÑĤÑĢÐ° ÑĨÐ¸Ñı
graph ie
Ġenh ance
j ed
Ã© ment
ĠD á»ĭch
Ġa cept
Ġjo ined
Ġswo jÄħ
Ġvar ie
Ġte ach
æĸĻ éĩĳ
Ġsk ute
ãģ¨ãģª ãĤĭ
Ġupd ated
Ġnh iá»ħm
ĠÐł ÐµÑĪ
Ã¨ les
ĠPro d
ÑĥÑĪ ÐºÐ¸
ĠV illa
Ġm ÃŃn
Ġest udo
ĠãģĿãĤĮ ãģ¯
ĠÐľÐ¾ÑģÐºÐ² Ñĭ
ta zione
èĭ ¦
Ġman tener
Ġprest amos
9 1
Ġ- ,
ĠÑĢÐ°Ð· Ð½Ð¾
ãĥ¡ ãĥ©
ĠErot icos
ĠÐ¿ÐµÑĢ ÐµÑģ
rze z
Ġde bt
Ġfl u
Ġesc rib
ãģĽ ãĤĭ
ĠÐ¿Ð¾ÑģÑĤÐ¾ÑıÐ½ Ð½Ð¾
Ġaspect s
Ġtechn ologies
ĠÐĿ Ð°Ñĩ
ĠÐļ Ð°Ð¶Ð´
ĠM AR
Ġb áº£ng
Ġun less
alizz azione
Ġj ump
ĠmoÅ¼liwo ÅĽÄĩ
Ġcar rera
ĠÑĩÐµÐ¼ Ð¿Ð¸Ð¾Ð½
Ġes f
ĠM ol
g ers
ĠÄĲ o
cj ach
ĠÄĳ á»ĳc
Ð¾Ð½ ÐµÑĨ
ĠCent re
Ġè ¥¿
ni ku
ree k
uo ng
ola ire
ĠS A
Ð°Ð² Ð¸Ñģ
{ \"
ĠMed ien
Ġany where
ĠV enezuela
Ġad qu
u cz
Ġcar go
Ġsec ret
Ġpeque Ã±o
Ġparticip ants
rim er
ĠÐºÐ¾Ð½ ÐºÑĢÐµÑĤ
ãĥ¼ãĥ į
ĠÐķ Ð³Ð¾
ĠQu el
alizz ato
ĠÐ¸Ð³ÑĢÐ¾Ð² ÑĭÐµ
ĠTele fon
Ġrecon he
y ka
Ġw elt
Ġart is
ĠÄĲ áº£ng
ĠdÃ©p art
ĠFe uer
Ġfeed back
Ġveh icles
ĠRep ublic
el ess
Ġob ras
an ow
Ġdo ivent
Ġse an
Ġfor t
ĠD ach
ĠEn ter
Ġza hl
au che
ãģĭãĤī ãģªãģĦ
ĠÐĲ Ð»ÑĮ
t ant
ĠÑģÐ¾ÑģÑĤ Ð¾Ñı
Ġex change
Ġpon iewaÅ¼
ç Į
ute go
ãģĻãĤĭ ãģĵãģ¨
ĠhÃ´t els
Ġpel ÃŃculas
Ġd ÅĤugo
ï¼ ¤
å¾ ©
Ġdos kon
ĠÐ¸Ð½ÑĦÐ¾ÑĢÐ¼ Ð°ÑĨÐ¸Ð¾Ð½
ĠÐ·Ð°Ð²Ð¸Ñģ Ð¸Ð¼Ð¾ÑģÑĤÐ¸
ĠÐ¼ ÐµÐ½ÑĮÑĪÐµ
Ð½ ÐµÐ½Ð¸Ñı
ind ing
Ðŀ Ðł
Å© i
ĠÑģ Ð´
l ines
Ġtritur adora
ĠGiov anni
ĠÃ©x ito
ĠÑĢÐ°Ð· Ð´
Ġpag inas
ÑģÑĤÑĢÑĥÐº ÑĨÐ¸Ð¸
Ġtem pi
ies en
Ġin fect
Ġçı¾ åľ¨
Ġmin istre
al nie
ĠÐ§ Ð°ÑģÑĤ
rit ten
Ġjed em
Ġãĥķ ãĤ§
Ġpra zo
Ġad ultos
ı ng
Ġk im
Ġlo go
Ġal red
Ġimport ance
Ġed izione
Ã¡b ado
ĠGes ellschaft
ĠÐĹ Ð°ÑĢ
ĠHe im
ĠÐ¼ ÑĥÐ»ÑĮÑĤ
ĠÐĿ Ð¸Ð¶
Ġput ting
Ġpersonn el
ĠEsp aÃ±
ÑıÐ± ÑĢÑĮ
ÑģÐ¾Ð» ÑİÑĤ
ĠI o
ĠÐ³ Ð¾
ĠSt re
ãģĮ è¦ĭ
æ´ ¾
Ã³ri as
ĠdÃ©m ar
Ġv ite
ACI ÃĵN
ĠÑĤ ÑĢÑĥÐ±
Ġnego cio
Ġnut r
Ġpropor cion
Ð°Ð³ Ð¾Ð³
ĠW ord
ĠÑģÑĤ Ð°Ð»Ð¾
Ġz g
Ġç´ ł
Ġpro xim
ri k
Ġn owe
ba ut
Ð¸Ð· Ð°ÑĨÐ¸Ñı
ni kiem
isc ono
Ġå ĥ
z ir
ĠÐ½Ðµ Ðµ
ion ych
Ġwie ku
Ġc áº¥u
ĠÑģÑĤÐ°ÑĤÑĮ Ð¸
Ġç¶ ļ
Ð¸ÑģÑĤ ÐµÑĢ
one go
Ð¾Ð· Ð²
éĢļ ãĤĬ
ĠÐ¿ ÑĥÐ±Ð»Ð¸
bra Äĩ
Ð¾Ð³ ÑĢÐ°Ð´
Ġor mai
ĠMillion en
g al
æ¥ µ
ĠÐ¸ÑģÐ¿ ÑĭÑĤ
Ġac ciones
æŁ Ħ
Ġmiejs cu
Ġcri ar
Ġäº ¤
Ġorig ine
ĠÐ¢ Ð°Ð¼
ĠAss im
Ð¡Ð Ĥ
Ġsub mit
è¨Ģ èĳī
Ġserr ur
ĠE ing
Ġman c
ãģĪ ãģ¾ãģĻ
ĠU rz
éĥ İ
ĠP OR
iss imi
Ġgan ze
ĠTa ille
Ġfav our
Ġzar Ã³wno
Ġz at
Ġg un
ĠD ou
ĠÐĴ Ð°Ð»
Ġp iÄĻ
ãģ®å ¼
ati k
Ġt anti
Ġtecn ologÃŃa
ÑĥÐ» ÐºÐ°Ð½
Ġenerg ia
Ġsod dis
ĠS U
ãĥ¼ãĥ ¬
ĠÃĶ Ãļ
ĠFr anÃ§ais
éģķ ãģĨ
Ġprofessionn els
Ñģ Ðµ
Ġar m
Ġph á»ķ
Ġten ido
Ġe p
Ġswo im
Ġfr onte
Ġencu entro
al te
ĠR ob
ãģķãĤĵ ãģ®
Ġsom ente
ÑĥÑİÑī Ð¸Ðµ
Ð¸ÑĤ ÐµÑĤÐ°
Ġdiscuss ion
Ġx áº¿p
itÃ¤ ts
ĠmoÅ¼liwo ÅĽci
Ġrifer imento
u ve
Ãº st
n ÄĻ
z iert
Ġgut en
ati fs
Ġacc ueil
Ġshi pping
Ġcambi ar
§ ĺ
ĠÐº Ð¾Ð³Ð¾
Ġnot es
Ġmol te
zeit ig
Ã©t ica
å®ī å¿ĥ
Ġha via
ĠmÃ³w i
Ð¸Ð¼ ÑģÑı
ĠS áº£n
c 3
Ġd oll
om et
Ġhe iÃŁ
Ġcomm ande
Ġres olution
åĢŁ ãĤĬ
ï¼ ²
ãģ¯ ãģĬ
l ungen
ĠE igen
Ġprincip io
Ġm ental
ĠEntwick lung
Ġkred yt
ĠÐ¿Ð¾Ð» Ð¾Ð²
ĠT able
ĠÐ´ÐµÐ» Ð°
Ġlead s
ĠÐ´ÐµÐ¹ÑģÑĤÐ² Ð¸ÑĤÐµÐ»ÑĮÐ½Ð¾
Ġ ä¾¡æł¼
Ġå· ¥
Ġt ierra
çĶ³ ãģĹ
ĠB log
ip end
ĠRe cht
ĠM iche
Ġatt or
Ġcamb ios
ãĤĴæİ ¢
ĠPed ro
ĠÐ¿ÑĢÐµÐ´ Ð½Ð°Ð·Ð½Ð°Ñĩ
or re
Ġst w
ĠC ao
Ġsc r
Ġesc rit
Ġdo br
ĠÐ¿ÐµÑĢÐ² ÑĭÑħ
Ġl áº¯m
ĠDe pois
istra Ã§Ã£o
Ġcond iÃ§Ãµes
Ġchw il
Ġacadem ic
ĠÐºÑĢ Ð°Ð¹
Ġpe ux
Ã¤ ren
ĠSte uer
ud as
áºµ ng
Ġcoin vol
ĠÑĤ Ñĥ
j ÅĽci
Ð¸ÑĨ Ñĥ
ied o
anz o
Ġprim eros
i LCJ
ĠnÃ©cess aire
ĠÑģ Ð¸Ð³Ð½
ĠUns ere
ĠZ aw
ĠTr Æ°á»Ľc
Ġrep la
Ġfl ight
ĠMar ie
Ġfuer za
ĠTut ti
Ãºsqu eda
r Ã£o
ĠÐ½ Ð¸Ð±
Ġprovid ers
Ġbatter y
ĠrÃ©p onse
k y
ou re
il b
Ġan i
ĠÑĩ Ð»ÐµÐ½
icz na
Ġpass ar
Ġdeut sch
Ġdeut schen
è² ¡å¸ĥ
n t
ĠD 0
ĠÑģ Ð°Ð¼Ð¸
Ġam our
Ġsupport ed
ĠPh oto
ĠÐ±ÑĥÐ¼ Ð°Ð³
ĠÐ»ÐµÐº Ð°ÑĢ
ãģ« ãģ¦
ill Ã©
Ġ ÅĤa
isc al
ĠInform ation
Ġinsp ired
Ġvol ume
Ð°ÑĤ ÐµÐ»ÐµÐ¼
Ġavalia Ã§Ãµes
Ġchá»© a
us za
Ġre vel
ÐµÑĪ ÐµÑģÑĤÐ²
Ġris que
Ġpa ese
ĠÑĤÑĢ Ð°Ð´Ð¸
Ġv iÃªm
Ġestabl ish
ĠSt ato
Ġh ub
æ³ ¢
çĤ º
t anto
ĠãĥĽ ãĥĨãĥ«
ĠV ila
ort hern
Ġdi o
ki en
ĠJ us
ĠÐĳ Ñĭ
ÑģÑĤ ÐµÑģÑĤÐ²
Ð¸ÑĢÑĥ ÑİÑĤ
Ġseu le
Ġphoto graph
ĠÐ¿ÑĢÐ¾Ð³ Ð½Ð¾Ð·
Ġpozw ala
ĠÐŁÐ¾Ñĩ ÐµÐ¼Ñĥ
Ġsquad ra
ĠÑģÐµÑĢÑĮ ÐµÐ·
Ġles en
Ġé Ļ
ĠÐĶ Ð¼
Ð¸Ð¼ ÐµÐ½ÑĤ
åĬ ´
Ġc ities
èª¿ æŁ»
Ġre kl
Ġgar anti
Ð° ÑĨÐ¸ÐµÐ¹
ãģĹãĤĥ ãĤĮ
Ġconj unto
Ġsoggi orno
Ġoko ÅĤo
Ġsierp nia
è Ĩ
Ġz im
ĠD ate
Ġth ick
Ġä¸ »
ĠQu ang
ĠL Ã¢m
Ġfr uit
Ġapro ve
Ġhy d
ĠP op
ĠÐ¶ ÐµÑģÑĤ
ãĤĪãģĨ ãģ§ãģĻ
åį ĥ
red it
ĠÐ¼Ð°ÑĪ Ð¸Ð½Ñĭ
ĠÑĥÑģÐ¿ ÐµÑĪ
Ġcl ase
rie g
æľĢ å¤§
ĠÐ²Ñĭ Ð·ÑĭÐ²
Ġaud io
ãĤ³ ãĥ¡ãĥ³ãĥĪ
ĠÐ½ÐµÐºÐ¾ÑĤÐ¾ÑĢ ÑĭÐµ
Ġinnov ative
at ung
Ð¸ÑĪ ÑĮ
Ġed iciÃ³n
Ġman ter
Ġop ciÃ³n
ĠMa ÃŁ
à³ ģ
è± Ĭ
Ġparticul ier
ĠAntw ort
Ġbusc ando
ĠPag inas
ĠA D
Ġm att
Ð¾Ð»Ð½ Ðµ
Ġacc esso
Ġprzy kÅĤad
Ġw czeÅĽniej
Ġl utego
Ġh Æ°Æ¡ng
ÑĢÐµÐ¼ ÐµÐ½Ð½Ð¾
Ġb áº¡c
Ġtrad ing
Ġein fa
å ¬
ĠE la
Ġcolle g
o ÅĤ
Ð½ ÑĥÑĤ
feit os
ĠCons iglio
Ġcon ce
z aÃ§Ã£o
s ÅĤ
Ġent anto
ĠPre zzo
ĠAut or
Ġeinz el
ĠÐ¾ ÑħÑĢÐ°Ð½
ç ¬ĳ
Ġzro biÄĩ
ĠD U
ãģĹãģŁ ãĤĬ
Ġpl ate
Ġc Ã¡n
Ġr at
ĠÐ·Ð°Ð¼ ÐµÐ½
ĠFl ug
owo hl
une k
ĠMig uel
ind est
p art
èĪ Ī
Ġitali ani
ĠÐ¿ÐµÑĢÐµÐ² Ð¾Ð´
Ġme xic
Ġaccom pl
ĠÐ½Ð¸Ð± ÑĥÐ´ÑĮ
4 8
éģ £
wn ia
Ġs int
ES S
geb ung
Ġdetta gli
Ġd ÅĤug
Ġdev ono
Ġzosta ÅĤa
ĠÑĤÐµÐ¿ Ð»
sch lag
Ġpeque Ã±a
Ġencou rage
ĠÐ±ÑİÐ´Ð¶ ÐµÑĤ
ĠD io
ĠPh áºŃt
Ġ000 åĨĨ
æĻ ¯
Ġmein em
èĲ½ ãģ¡
Â ®
ne x
ĠÑĢÐ°Ð· Ð°
äºĭ ãģĮ
ycz na
ãĥĥ ãĤ»
Ġmen or
éĥ¨ å±ĭ
ĠMe jores
Ġãĥķ ãĤ©
é ³
ur cia
arbeit en
Ãİ Âª
ĠÑģÐ¾ ÐµÐ´Ð¸Ð½
Ãºt bol
ĠcompaÃ± ÃŃa
ãģĵ ãģĿ
ĠÐ³ ÑĢÐ°Ð¼
ĠRo ck
Ð¾ÑĢ Ð³
ĠÐºÐ°ÑĤ Ð°Ð»Ð¾Ð³
Ġour selves
Ġpicc olo
Ġå Ń¦
ĠB Ãªn
ÑģÐº Ð°Ð¶
Ã¨ de
ĠM iss
ĠÐ¾Ð´ ÐµÐ¶Ð´
Ġaff er
Ġvost ro
ul aciÃ³n
ÐµÐ¶ Ð´Ð°
Å¼y w
kt yw
ĠlÃŃ der
ĠGer al
ĠÐ¾ÑĦ Ð¸Ñģ
r upt
Ġflow ers
Ġprov incia
Ġap resenta
ĠB uy
v ens
ãĤ» ãĥĥãĤ¯ãĤ¹
Ġaggi ung
Ġkto ÅĽ
j es
Ġla i
ÑģÑĤÐ² Ð¸Ðµ
ĠTh ose
Ġæľ ī
Ġcli ente
ni fica
ãģıãģª ãĤĭ
ĠÃ¡re as
cz eniu
ĠÐĿ Ð°ÑģÑĤ
les ia
Ġru olo
Ġkonk urs
ĠMin istÃ©rio
Ġs áºµn
Ð¾Ð» Ð´
Ġw st
ĠW i
ãģ¦ ãĤĭ
ãĥ¼ãĤ µ
Ġter re
ĠÐ¾Ðº ÑĢÑĥÐ³
Ġvisit ing
Ġnombre uses
Ġeffici ency
ĠÐ¿Ð¸ÑĤ Ð°Ð½Ð¸Ñı
Ġgirl s
Ġr uch
w ind
ini i
Ġf iz
Ġve c
ĠX e
ven u
ĠÐº Ð¸Ð½Ð¾
Z G
ĠSch ne
ĠÑģ Ñĥ
Ġn orth
Ġens uite
Ġent rÃ©e
ĠStra ÃŁe
Ġaucun e
ÑģÑĤ Ð¾
Ġs ung
Ġh Ã´n
ĠÐ½Ð°ÑĪ Ð¸
Ġcomment aire
ĠA unque
ĠÐ´Ð°Ð² Ð½Ð¾
Ġmiesz kaÅĦ
åĭŁ éĽĨ
Â §
ĠÐļ Ð¾Ð´
Ġapp rÃ©
1 æľĪ
Ġg ele
Ð¸ÑĤ Ð¾ÑĢ
ĠÐ¼Ð°ÑĪ Ð¸Ð½
Ġl unch
Ġcult ur
Ġrad io
Ġtrav estis
ĠP aw
Ð¸Ð»Ð¸ Ð·
Ġd Ã¡ng
Ġg á»ĳc
ĠNe ue
Ġlav ori
CI ÃĵN
ĠEduc aciÃ³n
Ġp iscine
3 æľĪ
b rar
fahr t
g ique
ĠÑĥ Ðº
Ġmaior ia
Ġdec isÃ£o
amp oco
ng o
ĠEr w
ĠT isch
Ġem b
az ine
ĠÐŃ Ð»ÐµÐºÑĤÑĢ
ĠÐ¼Ð°ÑĢ ÑĪ
ĠÐ¼ÐµÐ½ ÐµÐ´Ð¶
ĠÐ³ ÐµÑĢ
Ġent ro
ĠÐ§ ÐµÐ¼
ãģªãģ© ãģ®
Ġpop ulaÃ§Ã£o
Iá» Ĩ
Ġf osse
Ġf el
ãģĳ ãģŁ
ĠÐ¿Ð¾Ð´ Ñģ
Ġde mo
ita ires
ĠF ood
Ġf oll
pr ise
ãģ§ãģĻ ãĤĪãģŃ
Ġgood s
ĠÐ¿ÑĢÐ¸Ð² Ð¾Ð´
ĠÐ¿ÑĢÐ¸Ð² Ð»ÐµÐº
ĠÄĳ Ã¨n
Ġel Ã©ctr
ĠCommit tee
Ġch or
Ð¾Ðº Ð¾Ð»
Ġall ÃŃ
ãĤĦ ãĤĬ
r ast
ãģ¨ãģĹãģ¦ ãģ¯
ãģ° ãģĭãĤĬ
ĠÐ¸Ð´ ÐµÑĤ
Ġc ic
ĠÐ» Ð¸Ð´
Ġr ise
cun o
ĠÐ½Ð¸Ðº Ð¾Ð³Ð´Ð°
ĠBa um
ĠrÃ³Å¼ nych
Ġguarante e
Ð°Ð´ Ð»ÐµÐ¶
ãĤĴ ãĤĤ
ur ies
Ġou i
Ġtem as
fic ado
ĠsÃ» r
ĠM Ã£
Ðº Ð¾Ð³
sch t
Ġer an
p ol
an cio
ĠÐ¸Ð·Ð¼ÐµÐ½ ÐµÐ½Ð¸Ñı
çĬ¶ æ³ģ
U iOi
ĠãĤ¹ ãĥĨ
ĠW sp
alt et
it aria
ÑĭÐ² Ð°ÑİÑĤÑģÑı
Ġ2016 å¹´
ĠSte p
ãĥ³ãĥĹ ãĥ«
d ienst
Ġwt edy
N l
zy w
ĠÑģÐ°Ð¼ Ð¾Ðµ
Ġng Äĥn
Ġgen re
Ġval ori
richt ung
zahl ung
Ġdeliver ed
ĠÐ¾Ð±ÑĭÑĩ Ð½Ð¾
ĠÐ¡ÐµÑĢÐ³ ÐµÐ¹
Ġæ ¿Ģå®ī
ĠM icrosoft
ĠK ont
Ð¸ÑĢÐ¾Ð² ÐºÐ¸
ĠÑģ Ð¾Ð»Ð½
Ã¤l lt
Ġj ugar
Ġrou te
Ġkra j
Ġris chio
Ġen voy
Ð»Ñı Ð½
ÐµÑĤ ÐºÐ¸
ici ente
od i
10 æľĪ
ç ł´
ĠÑĢÐ°ÑģÑģ Ð¼Ð¾ÑĤÑĢ
Ġajud ar
ĠÐ¾ÑĩÐµÑĢÐµÐ´ ÑĮ
ĠHer steller
ĠA U
ĠÐ¼ ÐµÑĩ
åĢ Ĵ
Ġåį ĺ
Ġprom ote
Ġmeas ures
Ġdispon ibles
ĠÐĹ Ð°Ð¼
Ġ ÅĤad
Ġim agem
Ġsex ta
Ġpierw szy
Ġrel iable
ĠUnivers itÃł
Ġd omaine
ĠFranc isco
r ical
Ġdes car
ĠD etta
Ġsp etta
Ġch á»Ŀ
Ġh Ã¤uf
Ġverschied ene
Ġlic ense
Ġåı £ãĤ³ãĥŁ
ĠÐºÐ² Ð°Ð»Ð¸ÑĦ
ĠÃ©t rang
y a
er ver
Ġwhe el
ĠÐ· ÑĥÐ±
ĠEr st
ĠPh Ã¡t
Ġt el
Ġvers iÃ³n
Ġsur vey
Ġcade au
Ġa cima
æĿ ¾
å¥ Ī
Ð¸ÑĤÐµÐ»ÑĮ ÑģÑĤÐ²Ð°
Ð»Ð¸Ñĩ ÐµÑģÐº
Ġdep th
ĠÃĬ Ãĩ
ĠmoÅ¼ emy
ĠczÄĻ ÅĽÄĩ
ĠÐ´ÑĢ ÐµÐ²
Ġá» ŀ
ĠÑģÐ¸ÑĤÑĥ Ð°ÑĨÐ¸Ð¸
ĠUs ing
ilb ao
Ã© nd
ÑĢÐ°ÑĤ ÐµÐ³
ĠÃ©v Ã©
Ġayud ar
åł´åĲĪ ãģ¯
Ġrze cz
Ġdise Ã±
Ġamb os
Ġfun ctions
inn astica
ĠCuis ine
ĠP M
Ġ4 00
ĠL ors
ĠÐ¾Ð´ Ð½Ð¾Ð¼
wie k
ãĤĴè¦ĭ ãĤĭ
Ġliv res
Ġproxim itÃ©
sz t
aliz ation
iÃªn cias
Ġinst ance
ĠÐ¢ Ð¸Ð¿
çµĦ ãģ¿
Ġcon cl
Ġcl imate
ĠÐ± Ð¾ÑĢÑĮ
Ð»Ð¸ Ð¼
Ġcho ices
Ġcons ent
Ġrodz in
ĠÐ³ ÐµÐ½ÐµÑĢ
ĠÐ¾ Ð¿ÑĢÐµÐ´ÐµÐ»Ñı
Ð¼ Ð¾Ñģ
Ġch ico
ĠV ille
ãĥ³ ãģ®
Ġquest Ã£o
Ġ iron
cep to
ĠIsra el
V E
ãĥ¬ ãĥ¼
ĠÐ²Ñģ Ð¿
Ġ6 9
ĠM att
ĠÐ¿ÑĢÐ¸Ð½ ÑıÑĤ
ĠR ua
Ġbrand s
ĠÐ¸ Ð½Ð¾ÑģÑĤÑĢÐ°Ð½
ĠD ort
Ġoff en
ÑĭÑĤ ÑĮ
ĠÐķ ÑīÐµ
Ð» Ð¾ÑģÑĮ
ĠAn fang
èĭ ¥
Ñĩ Ð¸Ñģ
Ð½Ð¸Ðº Ð°Ð¼
ãģ£ ãģ¡
ãģĺ ãĤģ
c ell
Ġsex y
ĠC ena
Ġakt yw
ĠtÃ©lÃ© phone
Ġlog rar
ÑĥÐ¼ ÑĥÐ»ÑıÑĤÐ¾ÑĢ
Ġte xte
T Y
® ĭ
ĠÐºÐ» Ð¸Ð½
zeit en
ĠBas k
Ġfer rament
ãģ®æ µ
Ð¸Ð¿ ÐµÐ´
ãĥĲ ãĤ¤
Ġrece be
ĠMa x
ĠIntern acional
Ġbeso ins
ĠæĦ Ľ
ru ktur
ĠÑĤÐ°Ðº Ð°Ñı
Ġu z
ç« ¯
Ġencont ra
Ġotten ere
Ġass icur
at Ã³w
fÃ¼ hl
ĠÑĩÐµÐ»Ð¾Ð² ÐµÑĩ
ĠÐ¾ÑģÑĤ Ð°Ð½Ð¾Ð²
ĠVer trag
ĠÐ¼Ð°ÑĤÐµÑĢÐ¸Ð°Ð» Ñĭ
Ġtro chÄĻ
uj os
Ð¸ÑĢÑĥ Ñģ
Ġmy ÅĽl
Ġot rzym
Ġfunk cjon
Ġcorres pond
ĠGr up
Ð¸Ð² Ð°ÑĤÑĮÑģÑı
Ġal o
Ġ2017 å¹´
ar ti
ĠCol or
Ġch iáº¿u
an tage
Ġwygl Äħda
Ġa Ã±ad
Ġge eign
Ġ Ë
Ġdi b
Ġk ap
it ari
ff er
ĠDo es
Ġpregun ta
Ġfin anzi
Ġv ig
Ġdo ble
Ġè ±
feit ura
Ġpro ceed
Ġtick ets
Ġestudi antes
ĠB ologna
Ġg ed
Ġsu d
ĠÐ¿Ð¾Ð´ Ñĩ
ĠEl tern
Ġc áº¯t
Ġl áº¡
Ġintern al
isti ques
Ġ100 0
Ġb ian
Ġsp orti
Ġstell t
Ġaquell os
ĠT T
or den
ĠV ersch
Ġneces idades
Ġcho col
Ġcho isir
ĠdifÃŃ cil
3 7
Ġwe g
Ġop Ã§Ãµes
ia j
Ġthá»ĭ t
Ġbas so
Ġprincip almente
ĠÐ¾Ð±Ð¾ÑĢÑĥÐ´ Ð¾Ð²Ð°Ð½Ð¸Ñı
Ġpant alla
sch ul
ais se
Ġvis ual
Ł ãģĺ
al le
Ġpar king
Ġh alten
Ġsam edi
Ġf aster
ĠKomment are
ĠÐº Ð¸ÑģÐ»
Ð¸Ð±Ð»Ð¸ Ð¾ÑĤ
Ġest rateg
Ã¨ ve
Ñı ÑİÑĤ
Ð¸ÑĩÐµÑģÐº Ð¾Ð¼
Ġh Ãłi
9 æľĪ
or ÃŃas
Ñĭ Ð±
ĠHa ut
ost ÄĻp
u ÅĦ
Ġh ina
Ġis land
Ġze igen
Ġspeci es
Ġconse ils
ĠÐ¿ÑĢÐµ Ð¸Ð¼ÑĥÑīÐµÑģÑĤÐ²
Ġde le
Ġc ot
ãģķ ãģ¾
Ġbut ter
ĠÑĢ ÐµÐ¿
Ġsal ute
Ġeduc ational
ĠT agen
ĠD ig
ĠW all
ãĥ³ãĤ° ãĥ«
Ġloc ali
ĠÐ¿ÑĢÐ¾Ð¸Ð· Ð²ÐµÐ´
Ġcamb ia
ver siÃ³n
Ġcollabor azione
èĶ µ
ĠÐ° Ñį
at ici
Ġcer to
ĠÐ²ÑĭÐ± Ð¸ÑĢ
ĠÐ²Ð°Ð¶ Ð½Ð¾
co hol
ĠPol itik
Ġr istor
Ġdel icious
Ġ Õ
ul s
na ire
ĠSt an
ĠA ggi
za cja
ie ht
Ġimport anti
Ġfour n
ĠÐºÐ¾Ð½ ÑĨÐµ
ĠfranÃ§ais e
Ġorig inale
ĠvÃ© hic
Ġpro tagon
Ñİ Ð¼
ve ux
Ġk aw
ĠB ett
ĠÐľ Ð½Ðµ
Ġappro ved
ãģķãģĽ ãĤĭ
Ġå¯ ¾
ĠÃ©d ition
f one
ĠG ays
Ġ7 8
ãģ§ ãģĤãĤĬ
ĠÐ¿ÑĢÐ¾Ð¸Ð· Ð¾ÑĪ
Ġwoll te
ĠÑģÑĤÐ°Ð½ ÐµÑĤ
Ġamb ito
ĠÑħÐ°ÑĢÐ°ÐºÑĤÐµÑĢÐ¸ÑģÑĤ Ð¸ÐºÐ¸
Ġ ign
ĠcÃ³ m
ĠÑģÐ» ÑĥÑĪ
ze go
ĠEs sa
Ġneces idad
Ġbe vor
Ġmat in
Ġof icial
Ġer hÃ¤lt
ãĥ¼ãĥ Ń
Ġwy t
ĠÐ²Ñģ Ñİ
Ġth Ãºc
Ġou v
ĠSec urity
ĠãģĬ ãģĻãģĻãĤģ
Ġt Æ°Æ¡i
5 7
Ġfor o
tt el
ĠÐ°ÑĢ ÐµÐ½Ð´
Ġconcern ant
Ġvend redi
Ġfix ed
ĠIde en
Ġinterna zionale
Ġet Ãł
Ġpro ch
ĠÑĥ Ð½Ð¸Ðº
Ġver de
Ġt á»Ļi
ĠÐĵ Ð´Ðµ
Ġfact or
Ġconhe cer
ĠÑİ ÑĢÐ¸Ð´
ĠFran Ã§o
re te
ÑĥÑĪ ÐºÐ°
å¾Į ãģ«
ãģĳ ãĤĮ
Ġn atura
ra Ã§Ã£o
Ġacc ounts
Ġen reg
ĠÃ©nerg ie
Ð½Ð¸Ðº Ñĥ
ĠEs sen
Ġb ound
ĠPh Ã³
ĠvocÃª s
ĠÐļÑĢ ÑĭÐ¼
ä¸Ģ çķª
Ġmin ut
Ġmas ajes
ĠÃ©lect rique
Ġpart es
Ġnow o
ri ba
Ġaff id
ĠD amit
Ġopin ion
Ġparf ois
Ġhous ing
Ġzak resie
Ġf Ã¼nf
em o
Ġf ell
ĠÐ³ Ð¸Ð´
ĠB rand
ãĥª ãĤ¹
Ġdisc ount
Ġg az
Ġexper iment
Ġbest imm
ĠÑıÐ·Ñĭ Ðº
ãĤ·ãĥ§ ãĥĥãĥĹ
Ġng Æ°Æ¡i
Ġrecib ir
ĠF Ã¼hr
Ñį Ðº
Ġa id
Ġli ft
bil ities
ĠÐºÑĥÐ»ÑĮÑĤ ÑĥÑĢ
Ġinflu ence
ĠGerm any
ĠT O
ĠP on
Ġpro tÃ©
æĪ »
ĠÐ¿Ð¾Ð² ÑĤÐ¾ÑĢ
Ġsc ene
Ġemploy ee
ĠÐ¿ÑĢÐ¾ÑĪ Ð»
ĠAg ora
Ġprost u
m is
ĠP es
ok ing
Ġrec onn
ig dy
ĠÐ¿Ð¾Ð»ÑĥÑĩ ÐµÐ½Ð¸Ñı
Ġl undi
ĠB om
it ag
al na
ÃĶ ÃĤ
ĠÐ¼Ð¾Ð³ Ñĥ
Ġdar Ã¼ber
j mu
åĸ Ħ
Ġb ike
ĠÐ½Ð¸ Ð¶Ðµ
ĠãĥĽ ãĥ¯ãĤ¤ãĥĪ
ĠÑĢ Ð¾Ð¼
ca o
ĠEs se
v ideos
ert os
ad urch
Ġsa ving
as so
åĪĩ ãĤĬ
Ġcompet itive
ch odzi
Ġtrat amento
Ġcl oud
è¢ ĭ
ä¸Ģ ç·Ĵ
Ġzak oÅĦ
Ġman hÃ£
Ġvelo cidad
ed om
Ñĥ ÑĢÑĥ
Ġt ast
ien en
ĠRe cher
Ġpla zo
inter es
ĠmÃ©d ia
Ġdom anda
Ġcomprehen sive
Ġv ay
ĠH il
ck a
ÑĢ ÐµÐ¿
Ġbo y
Ġ8 9
Ġtra o
ĠQ U
Ġ200 5
Ġpr yw
ĠãģĤ ãĤĭ
ãģĹãģ¦ãģĬ ãĤĬãģ¾ãģĻ
Ġexten sive
ãģ«ãģ¨ ãģ£ãģ¦
ÐµÐº Ð¸
Ġyou th
ĠÐ¢ Ð¾Ð»ÑĮÐºÐ¾
Ã©t Ã©s
Ġconst ruct
ĠR isp
ĠM erk
ĠF ollar
Ġf as
g aÃ§Ã£o
w ell
Â £Â
Ġm ista
ĠÐ»ÑİÐ± Ð¾Ð²
Ġm áº¡ch
ĠÐ·Ð°Ð¼ ÐµÑĩ
sI n
é¤ Ĭ
Ġconsum ers
çĶ» åĥı
Ġnum Ã©ro
} .
ere z
ĠÑħ Ð¸Ð¼
çļ ®
Ġfun ciÃ³n
ĠÐ´Ð°Ð½ Ð½Ð¾Ð¹
itu zione
Ġad ults
Ġjp g
Ġn esse
ĠpiÃ¨ ce
Ġusu ario
Ġele mentos
Ġá»ķ n
Ġman e
stell t
iva cy
Ġprz esz
ĠÑģÐ»ÑĥÑĩ Ð°Ñı
æĻĤ ä»£
geme in
Ġpos ibilidad
Ġlibr ary
Ġst ain
art et
ru zione
Ġhab l
Ġpay ing
Ġtot ally
ĠÐ¿ÐµÑģ Ð½Ð¸
ĠVer kehr
ĠsiÃ¨ cle
Ġph Ãª
ĠC Æ¡
Ġpar c
Ġor ient
Ġbel la
ãģĦãģŁ ãģłãģĳ
ĠCh ambre
¸ ı
Ð°Ð´ Ñĭ
f icos
re ja
Ġpesso al
Ġlight s
ĠÐºÐ°ÑĢÑĤ Ñĭ
ãĥª ãĥ³ãĤ¯
Ġzaw iera
ĠÑĢÑĭÐ½ ÐºÐµ
ange bot
Ġpurp oses
ĠA uÃŁer
am ing
p ack
Ġpres encia
Ġru le
ãĤĤ ãģĤãĤĬãģ¾ãģĻ
lie ÃŁen
Ġen fin
ãĥ© ãĥĥãĤ¯
Ġcr isis
å© ¦
he m
ÑĨ Ñĥ
ho f
Ġevent ually
k om
Ġpre vis
ĠTh Æ°Æ¡ng
o ver
Ġweit eren
ĠT ages
Ġconf i
ãģĮ å¤ļãģĦ
ãĤ» ãĥ³ãĤ¿ãĥ¼
ĠZ obacz
ĠN Y
ĠR uss
Ġph Ãºc
n ica
åĭķ çĶ»
olog ii
ãģ¨ãģĦãģĨ ãģĵãģ¨
Ġerk lÃ¤r
Ġso leil
Ã¶ p
ãģ® æĹ¥
w el
ĠÐĴ ÑĤÐ¾ÑĢ
Ġval ores
ĠÑĤ Ð¾ÑĩÐ½Ð¾
Ġpr ueba
ĠSonn tag
Ġwy jÄħ
ĠÐĳ ÑĥÐ´
utto re
ĠÐ£ÐºÑĢÐ° Ð¸Ð½Ðµ
ĠÐ¿ÑĢÐµÐ´Ð¿ÑĢ Ð¸Ð½Ð¸Ð¼
I B
Ġver t
ĠM at
rze g
Ġb urn
Ġgen ere
am s
ĠgÅĤ os
ĠtÅĤ uma
< /
tre ten
Ġç¤ ¾
Ġ21 008
ĠÐ¿ Ð°ÑĤ
Ġ' '
Ãº l
in ations
Ġher mos
fen se
ĠSo ciety
ãģ¨ ãĤĵãģ©
Ġâ Ĥ«
ro Å¼
ãĥĢ ãĤ¤
Ġamp lia
ĠÐ¼ ÑıÐ³
Ġcittad ini
ĠS Ã¼d
Ġo m
Ġy Ãªn
éĽ ¨
Ġproduct _
Ġl áº¯p
Ġdis s
Ġbuild ings
Ġprincip ali
ĠÐº ÑĥÐ´Ð°
äº¤ æıĽ
Ġofere ce
ãĥ¼ãĥĩ ãĤ£
Ġcou leurs
Ð¸ÑĢÑĥ ÐµÐ¼
Ð¸Ð² Ð°ÑİÑĤÑģÑı
r ÃŃ
Ġcertain es
orn ada
Ġmeille urs
ĠçĦ¡ æĸĻ
ãģ£ãģ ±ãģĦ
Ġtam aÃ±o
Ð¾Ñģ Ð½
Ġli qu
Ġsa c
ĠC et
ĠV otre
ĠÐºÐ¾ÑĤÐ¾ÑĢ ÑĭÐ¼
enti fic
il idades
Ġaten Ã§Ã£o
Ġog ran
ĠÐ¾ÑĤ ÑĤ
ĠO ld
5 æľĪ
Ġtr ial
ĠK raft
ĠÑĪÐº Ð¾Ð»ÑĮ
ĠP la
ĠK am
ul ations
Ġris ol
Ġentre ga
ÃŃ da
ĠA tt
bl ica
ia bility
æ ¿Ģ
ĠÐ²Ð¾ÑģÐ¿ Ð¸ÑĤ
ĠConse il
Ġtar jet
ç Ĵ°å¢ĥ
ĠW rocÅĤaw
ĠÑĥÑĩ Ð¸ÑĤ
ãĥĩ ãĥ¼ãĤ¿
Ġoff iciel
æ°Ĺ æĮģãģ¡
Ġpad re
Ġä»¥ ä¸ĭ
Ġzast os
Ġde z
ĠA che
z aciÃ³n
å§ Ķ
© æŁ»
ĠÑĦ ÐµÐ´ÐµÑĢ
ĠÐ¼ÑĥÐ·Ñĭ Ðº
ãģ¡ ãĤĩãģ£ãģ¨
ĠH ill
Ġad res
ÑģÑĤ ÑĢÐ°
Ðº Ð¾ÑģÑĤÐ¸
Ã® ne
Ġæĺ ¨
ĠçĽ ´
ĠÑĥÑģ Ð¸Ð»
Ġemer gency
Ġfond ament
" >
ir ar
Ñĩ Ð¸ÐºÐ¸
ĠF ollow
Ġt áº§m
ĠÐ¼Ð°Ð» ÑĭÑĪ
èĩ ´
Ġel as
Ġdu ro
ff re
ĠDie u
Ġk or
Ġloc ale
Ġsig lo
æ¯ į
Ġok res
s ident
ar ra
ab lo
ãģ® ä¸Ĭ
ãģ®ãģ§ ãģĹãĤĩãģĨ
Ġst ret
Ġout put
ï¼ °
ãĤ« ãĥ«
re ise
Ã¤ um
ow oÅĽci
¹ æŀľ
Ġswoje j
Ġning una
ĠÐ¿Ð¾Ð¼ Ð¾Ð¶ÐµÑĤ
Ġdzi ÅĽ
ãĥ© ãĤ¯
czy ÅĤ
Ġra zy
ĠÑģ ÑĥÑħ
EN TO
al idad
Ġth áº³ng
ĠÐ²Ñĭ ÑĢÐ°Ð¶
ÐµÑĢ Ð°Ð¼
est ic
r ost
Ġde als
ĠÄĲ á»ĳi
Ġm ult
ĠF oi
çľ ģ
ĠdÃ©c ouver
ĠÐ¿ÑĢÐµÐ´ Ð¼ÐµÑĤ
ĠÐ·Ð² Ð¾Ð½
Ġrigu arda
ãģ¤ ãģĭ
Ġra ng
ä½ľ ãĤĬ
Ġneces ita
czÄĻ ÅĽcie
ĠVal encia
Ġdis h
ios a
Ġv endre
ĠOr gan
ĠÑĤÐ¾Ð²Ð°ÑĢ Ñĭ
Ð¸ÑĤÐµÐ»Ñı Ð¼
Ġbr ief
Ġv anta
ĠÑĢ Ð¾Ð¶Ð´ÐµÐ½Ð¸Ñı
ÅĤ ÄĻ
ĠB Ãł
fe hlen
Ð¾ÑĢ Ð°ÑĤÐ¸Ð²
Ġk ur
ĠCont rol
Ġla p
r ata
åħ¥ ãĤĬ
ĠMar co
j Ã¤hr
c ode
ĠÑģÐµÐ¼ ÐµÐ¹
Ġbring en
Ġé ¢¨
Ġm ent
Ġwym aga
Ġm q
que t
Ġc áº§m
Ġtecn ologia
Ġï »¿
m od
ne z
ï¿ £
ãģ« ãģĻãĤĭ
ÐµÐº ÑĥÑī
ĠÐ´ÐµÐ» Ðµ
Ġty tu
ãĥ¶ æľĪ
Ġza interes
er d
Ġpo ly
Ġf ase
ĠV ors
ĠQu Ã½
it ness
Ġdesp ite
ĠCar ol
Ġs ample
Ġtot ale
ĠÐ¿ÑĢÐ°Ð² Ð¸Ð»Ð¾
Ġentfern t
Ġï¼ Ķ
Ð°Ð½ Ð½Ð°Ñı
ĠÑģÐ² ÐµÐ¶
Ð¸ÑĩÐµÑģÐº Ð¸Ð¼Ð¸
èģ ´
ĠÐ¼ Ð°Ð»Ð¾
ÅĦst w
ĠÐ±Ð»Ð¸ Ð¶
ĠÑĥÐ¼ ÐµÐ½ÑĮÑĪ
Ġãģķ ãĤīãģ«
li ke
ĠÐ½ ÐµÐ¶
Ġth Æ°á»Ľc
ĠCh amp
ãĥĳ ãĥ¼ãĥĪ
Ġdec re
Ġvo is
ÑĤÐ¸ ÑĦ
i pped
Ġorganiz aciÃ³n
Ġdatab ase
ãĤĴ åĩº
bie t
f ois
Ġtot almente
Ġviv ir
Ġsprzed a
ĠA j
ĠM Ã¡
etto y
éĿ ©
ĠÐĺÐ½ ÑĦÐ¾ÑĢÐ¼
ĠSicher heit
Ġhosp ital
al ie
ĠÄĳ Ã³n
ĠS ud
Ġa men
éĸĵ ãģ«
ĠÐ¡ ÐŁ
ãĥª ãĤ¨
éł Ĩ
uel s
isse ments
ĳ ç´Ħ
Ġcor reo
ãĤĴèªŃ ãĤĢ
ĠJour n
ĠãĤ ²
wi Äĩ
owanie m
ra u
ĠK urz
z t
h or
chen k
Ġen able
ĠÑĪ Ð°Ð³
Ġter me
Ġfield s
Ġsort ie
ÐµÑģÑģÑĥ Ð°ÑĢÑĭ
Ġtod avÃŃa
V I
ãģĦ ãģ¯
Ã¶ sen
ãĤŃ ãĥ¥
ycz nej
Ð¾Ð±Ñĭ Ñĩ
Ð¼Ð¾ÑĤÑĢ Ñı
Ġ( );
Ġofer ta
A J
ci ÄĻ
Ġng á»¯
Ġco i
ĠÐ½ Ð°ÑĤÑĥÑĢ
» çĻĤ
ĠBon jour
Æ¯ á»
Ġmens aje
Ġdom ingo
ĠG onz
ãĥ© ãĥ«
ãģ®å ¿
no on
ens Ã£o
áº¹ n
tern al
Ġsal ida
Ġmin or
Ġess as
z quier
Ġko le
ĠÐ±Ð°Ð½ ÐºÐ¾Ð²
ĠÐĳ ÐµÑĢ
ĠP ress
ĠM ass
ĠA lex
Ġterra in
bes ondere
Ġuwag ÄĻ
ĠDesp uÃ©s
Ġla qu
ori que
Ġinter c
Ġstud i
ĠD Ã©p
ĠBuen os
Ġmiem bros
Ġsaper e
M z
ĠD ien
f ier
ĠÑĦÐ¾ÑĢÐ¼ Ñĭ
Ġperm ette
Ġcontin ua
èı ľ
Ġrecens ione
Ġpr Ã¡tica
ĠÐ¿ÑĢÐµÐ´Ð»Ð°Ð³ Ð°ÐµÑĤ
f asst
Ð°Ðº ÐµÑĤ
ĠK an
ãģ®å £
Ġæľ Ŀ
ĠÃĵ ÃĲ
Ġreturn ed
ĠSc ott
Ġprzed siÄĻbior
ĠÐĶ ÑĢÑĥÐ³
ĠM onte
ãģĭ ãĤĤ
ĠçµĲ å©ļ
Ġl er
b Ã¼
Ġfor za
Ġb áº§u
ĠPro v
re ens
Ġt av
rÃ³ b
ĠÃ© ch
ĠA inda
Ã¨re ment
Ġing res
ĠÐ¿ÐµÑĢÐµÐ² Ð¾Ð·
Ġguy s
Ġrep ut
Ð¾Ð¶Ð´ ÐµÐ½Ð¸Ðµ
P A
G B
cie Å¼
Ġjed nym
ãĤī ãģĹ
æĸ½ è¨Ń
ĠGar cÃŃa
æ ĳ
ou ch
ĠM S
ãģ®å ·
Ġtr Ãºc
Ġm Ãª
br ig
Ġeffect ively
ĠpÃºbl ica
Ġacer ca
Ġb ÃŃ
it ze
Ġç Ĺ
Ð¾Ñĩ Ð½Ð°Ñı
o va
Ð¢ Ðĺ
Ð¢ Ðķ
r adas
us st
Ġsh ower
Ġ12 0
Ġk áº»
Ġï¼Ł ãĢį
ĠÐľ Ð°Ð»
ens ion
gel d
ĠÐ½ÐµÐ´ Ð¾ÑĢ
ÑĢ Ð¾Ð´
Ġres ource
Ġæ¥Ń åĭĻ
Ġsoddis f
Ġver ano
ÐµÐ» Ð¸ÑĤÑĮÑģÑı
Ġæĸ ĩ
lie gen
Ġgl ad
Ġå¹ ħ
Ġæ ī
Ġeigen e
Ġinf rast
qu ent
Ġh Ã¡t
v oli
ust rie
ĠÑĦÐ¾ÑĢÐ¼ Ðµ
Ġ Æ
or g
ĠHe ad
air ro
a per
Ġh áº¡ng
ĠrÃ©g ul
D A
iá»ĩ ng
Ġwe ak
Ġinterest s
ĠVers ion
or ation
Ġsym bol
å¸ ³
Ð³ Ð¾ÑĢ
ais on
Ġcomm itted
L I
he nd
Ġpro ve
j rz
Ð¸Ð² Ð°
a ft
ÑĥÑİÑī Ð¸Ñħ
Ġcompr is
Ġbreak fast
ĠK la
ore m
or de
Ġhand l
Ġquar ta
ĠC odice
Ġn ulla
v os
ãĥ¼ ãģĮ
Ġil e
ĠÐ½ Ð°Ð¶
ÐµÐ² Ð¸Ð´
ĠmoÅ¼ esz
Ġefect o
Ġrest rict
ĠArt ÃŃculo
éĸĭ åĤ¬
ĠEtique tas
Ð½ ÑĮ
Ġï¼ ķ
c la
Ġs Ã´ng
ĠÐº Ð°Ð´
Ð· Ð´
iÄĻ ku
Ġr ile
ĠÐ´Ð°Ð½ Ð½ÑĭÐ¹
Ġu043 e
æº Ĳ
ãĤ·ãĥ£ ãĥĦ
Ġinten ded
Ġense Ã±
Ġl ou
ÐµÐº Ð¾
Ã¼ gen
cie m
Ġread ers
Ġut ile
Ġtra ined
u ille
Ġpossi bly
ĠTw itter
Ġcircum st
Ġpryw at
Ġesp rit
éļ ľ
ĠcrÃ© d
Ġmod ifica
ÑĭÐ´ ÑĥÑī
ĠÐĲÑĢ ÑĤÐ¸ÐºÑĥÐ»
n as
ãĥ¼ ãĥ¼
wa ng
li w
» çĶ¨
Ġprojet os
wir tschaft
Ġ) ))
Ġrea ched
Ġg ing
ãĤī ãģĭ
ia ge
iss on
it uto
ĠProble me
war eness
m ut
Ġro bi
ĠÑģÑĤ Ð°Ð»Ð°
ĠÄĲ áº·t
Ġfind e
Ġg ather
à³ Ĩ
ĠReg ione
Ã© ten
ĠÐ¿Ð¾Ð´ Ð²
in ce
Ġcom Ãºn
ç¤¾ ä¼ļ
Ġcono cimiento
ĠÐ²Ð¾Ñģ Ð¿ÑĢ
ĠPort ugu
Ġc oraz
V O
ĠÑģÐ¸Ð» Ñĥ
Ġèī ²
lÃ¤ ss
k m
ĠÐ¶ Ð¸Ð´
ãĤ¹ ãĥ¼ãĥĳ
Ġremo ved
ĠÐ´ Ð»Ð¸Ð½
77 27
Ġrisult ato
Ġpow ierzch
r ados
we hr
Ð»Ñı ÑİÑī
Ġpos ti
ĠQu and
Ġpop raw
ĠDz ie
ãģª ãĤĬ
Ġsimple ment
ĠÑģÐ»ÑĥÐ¶ Ð±Ñĭ
Ġfamili ar
ĠB is
zy d
ĠC at
Ð°Ð± Ð¸Ð»
ĠP ass
Ġco vers
po ca
Ġcomp less
Ġs ow
Ġo jos
Ġconte xt
ĠÐ¿ÐµÑĢ ÐµÑĩ
Ð¼ Ð¼
Ġra ise
igne ment
ĠGer man
Ġe g
us zy
ãģ¯ ãĤĬ
Ġme al
Ġcre cimiento
ĠES T
Ġjed e
Ġmen cion
ĠSt ellen
Ġask ing
ĠProdu ct
ĠL eder
Ġc atÃ©g
ãĥ´ ãĤ£
ķ æĻĤè¨Ī
ĠB leu
Ġf eliz
æ¬² ãģĹãģĦ
Ġleg isl
4 6
ĠÐ¡ ÐµÐ¼
Ġsu el
Ġu a
we gen
ĠT áºŃp
ur ger
vis or
Ġing resso
Ġs b
Ġh id
Ð¾Ñĩ ÐµÐº
ãģĦ ãģ«
sk Äħ
12 æľĪ
ĠÑģÑĤÐ°Ð½Ð¾Ð² Ð¸ÑĤÑģÑı
Ġz uf
Ð¸Ñĩ Ð½ÑĭÐ¹
Ġstand ing
ÐµÑĢÐ¸ Ð°Ð»
kar te
ĠÐ¶ÐµÐ½Ñī Ð¸Ð½
ĠAntw orten
ĠFam ily
ĠO R
c Ã©e
ĠÐ¿ÐµÑĢ ÐµÐ½
Ġcl im
ĠÐ¿ÑĢÐ°Ð² Ð¸Ð»
Ġpodr Ã¡
ç¸ Ħ
ĠTe chnik
ĠkaÅ¼de go
Ġk sztaÅĤ
ç Ŀ
atis ch
æ¨ ¡
Ġgan ar
Ġsprzed aÅ¼
ĠÄĲá»ĭ a
ç ĩ
he l
ĠO pt
b ark
Ġinter p
å¯ Ł
col es
imm ung
Ġnecess idade
Ġ' ).
Ġl unes
ãģ£ ãģıãĤĬ
Ġl ugares
ĠDetta gli
Ð¸ÑĤÐµÐ»ÑĮ Ð½Ð¾Ðµ
Ġa gg
ual is
stell ungen
Ð»Ð¸ ÑģÑĮ
ç½ ĳ
ĠÐ·Ð°Ðº ÑĢÑĭÑĤ
Ġdivers os
Ġznajdu je
Ġindust rial
Ġcapac itÃł
ķı é¡Į
Ġp ud
ada ÅĦ
Ġam is
ear beit
ĠV á»ģ
ĠQu em
Ġfeel s
ĠÃ¢ ge
ãģ«ãģĬ ãģĳãĤĭ
Ġp ic
de u
çĦ¡ ãģĦ
Ġpres enta
iti f
Ġint ell
Ġsign ed
ote ca
ĠPre cio
Ã¼s sel
Ġber eit
ĠÑģÐ¾Ð²ÐµÑĢÑĪ ÐµÐ½Ð½Ð¾
\/ \/
Ġ05 7727
Ġpar is
ĠÐ½ Ñĥ
oun ting
Ġpos it
Ġsu ced
ĠÐºÐ°ÑĤÐµÐ³ Ð¾ÑĢÐ¸Ð¸
Ġpar ent
Ġd ance
ĠÐ¿ÑĢÐµÐ´ Ð¿
ĠWo j
Ġbl u
ĠÑĢÐ°Ð·Ð²Ð¸ÑĤ Ð¸Ðµ
Ġsol uzione
Ġhigh light
z uf
AR E
ĠPa olo
Ġefect os
Ġregular ly
ĠBÃ¼ cher
Ġlep iej
Ġobietti vo
Ġ ğ
ĠÐĲ Ð±
Ġb á»©c
ycz aj
al itÃ©s
ĠÐ¿Ð¾ ÐµÐ·Ð´
Ġvalu able
ÑĦ ÑĤ
Ã¶ nen
Ġdou bt
ĠdziaÅĤ ania
Ġsignificant ly
Ġwyst ÄĻp
t d
ĠZ it
ur azione
ãģ£ãģ¦ ãģ¿
ĠB ade
Ġty le
Ġsal t
ĠB amb
Ġf ondo
Ġdom in
ĠÑģÑĤÐ¾ÑĢ Ð¾Ð½
Ġmag as
ĠÐ¿ÑĢÐ¸Ñģ ÑĥÑĤÑģÑĤÐ²
Ġçī¹ ãģ«
ĠTwo je
ãģĤãĤĬãģĮ ãģ¨ãģĨ
ĠF en
Ġw ody
Ġsym pt
Ġsc orso
Ġappreci ate
ne as
r ated
ar ation
ĠÄĲ áº·c
Ġfaz endo
Ġcel ular
ãĤĴ åıĹãģĳ
ĠM useum
Ġph ysi
Ġ ~
Ġes que
Ġso le
Ġconf lic
Ġredu ced
Ġannoun ce
ĠgÃ¼nst ig
r d
Ġãĥ Ħ
Ġr z
ĠÐ¢ Ð¾
Ġz one
Ġn one
is Ã©e
åĲį çĦ¡ãģĹ
Ġpremi um
cze ÅĽnie
Ġespecial mente
Ð¦ Ðĺ
Ġpad res
T S
Ġun ica
ãĤĪ ãģĦ
ĠÑģÐ°Ð¼ ÑĭÐ¼
Ã¼ cht
Ġcut ting
04 23
ĠÐ´ÐµÐ½ ÐµÐ¶
ĠciÄĻ Å¼
5 1
re ed
ĠÐł ÐµÐº
Ġvon t
Ġbo at
ĠSh ow
Ġadvert ising
flÃ¤ che
ĠAnd roid
Ġche f
å® ĺ
Ġris co
ĠÐ¿ÑĢÐ¾ÑģÑĤ ÑĢÐ°Ð½
Ġmonth ly
Ġimpro ved
éģİ ãģİ
he tic
ter iori
Ġconte Ãºdo
A d
re k
Ñĥ Ñı
ĠChr is
ĠÐ±ÑĢ Ð¾Ð½
ĠÃ©conom ique
Ġzmi an
ĠB oden
áº ¬
igh ten
ĠDE S
ĠÐ°ÑĢ Ð¼
ĠÑģÐ»ÑĥÑĩ Ð°Ð¹
æľĢ é«ĺ
ĠDon ne
ĠMay be
ĠÑĤÐµÐ± Ðµ
ĠD re
t est
od ies
r iel
Ġc av
ãĥĳ ãĥ³
Ġc Ã¡nh
Ġmal ad
ãģª ãģ®ãģĭ
ueb les
ĠDist rict
® ®
Ġco ast
Ġcol ori
Ġrece b
on ta
Ġe pis
ĠÃ¤ hn
Ġfoot ball
Ġbow l
Ġand ers
ici an
in st
gu Ã©m
ï½ ŀ
c oli
Ġpag amento
Ġdo vr
ãģĮ å¿ħè¦ģ
Ġpew no
Ġsong s
ĠLÃŃ nea
Ġsz cz
ĠÐ·Ð°Ð´ ÐµÑĢÐ¶
ĠÑģÐ¾Ð·Ð´ Ð°Ð½Ð¸Ñı
Ġanal y
æĬ ķç¨¿
Ġobject if
ĠVo ici
ĠÅĽwie cie
å¡Ĺ è£ħ
ãģŁãģı ãģķãĤĵ
ãģ»ãģĨ ãģĮ
_ id
ĠM el
Ġge k
ÑĭÐ² Ð°Ñı
Ġes igen
ĠÐ´ÐµÑĤ Ð¸
Ġk iá»ĩm
çª ģ
Ġwyp osaÅ¼
Ġh ip
Ġsecond s
tag ne
Ġens ino
ĠÐ» ÐµÑĩÐµÐ½Ð¸Ðµ
Ġt ables
ĠÐ¿Ð¾Ñģ Ð¼Ð¾ÑĤÑĢÐµÑĤÑĮ
Ġdiscover ed
ĠJes Ãºs
u Ã©
uch ten
ĠG ame
Ġag ent
Åº Äĩ
in ner
Ġhacer lo
Ġorgan ic
Ġpass ato
Ġc orazÃ³n
ĠH y
Ð¾ÑĢ Ð¸
ise z
Ðļ Ðŀ
Ġr ub
ut ti
ie tro
Ġrestaur ants
ĠÐ·Ð°Ð¿Ð¸Ñģ Ð¸
Ġlaun ched
it ate
Ġè ģ
ãĥ¼ãĤ ±
Ġcons ig
Ã©d i
ĭ èŃ·
Ġesf uer
Ðł Ðķ
Ġpar mi
Ġ] .
ĠK Ã¶l
Ġdog s
Ġconosc ere
ÑĥÑģ Ð¾Ð²
ĠO ui
Ġhá»ĵ ng
Ãªte ments
Ġmot iv
Ġexpla in
ĠMÃ¤n ner
Ġ79 0423
ÑĥÐ¼ Ð°
ĠM erc
ãģ®ä¸Ń ãģ§
ĠãĤ³ ãĥ¡ãĥ³ãĥĪ
ĠB ill
Ð¾Ñĩ Ð½Ð¾Ð³Ð¾
Ġapp s
ĠP ap
Ġpra wa
Ġm ouve
Ġhold ing
ĠMÃ¤ d
ãģĬ ãģĻãģĻãĤģ
Ġdol or
è©ķ ä¾¡
Ġgu ard
ãģ£ãģ¦ ãģĦ
Ġmodel os
ĠDes cargar
ĠpoczÄħ tku
r t
ne ver
gu es
Ġ8 00
ici dad
Ġli bri
ĠÑģÐ² Ð¸Ð´ÐµÑĤ
ĠS Äħ
ĠÄĲ Æ°á»£c
Ġges am
ol ars
ĠPh áº¡m
ĠMas ajes
Ġmies iÄĻ
ĠJus tiÃ§a
Ġcon qu
n ight
Ð» Ð°ÑĪ
çĽ Ľ
iz ar
ĠJe u
bie g
Ġche min
ĠBon us
Ġcaracter ÃŃsticas
ĠT itel
Ġon a
ĠC ia
us se
Ġh Ã©s
ĠÐ¿Ð¾Ñģ Ð²
ÌĢ nh
l Ãªs
hen tic
Ġdeux iÃ¨me
ĠÐ°Ð± ÑģÐ¾Ð»ÑİÑĤ
Ġi Å¼
ĠD ere
Ð°Ð² Ð½Ð¾
Ġra ff
ãĥī ãĥ©
ĠN ouve
ric an
Ãĵ ÃĲ
Ġam igo
ĠktÃ³r Äħ
ĠS enh
Ġparf a
Ġpop rzez
qu ant
out s
il igen
Ġche ese
Ġinterv ento
ĠÐ¿Ð¾ ÑıÐ²Ð»Ñı
Ġoss erv
Ġcap acidade
Ġindiri zzo
ka Äĩ
è¨ İ
ĠÑģÐ°Ð¼ Ð¾Ð³Ð¾
Ġn ello
ĠÐ¸Ð¼ ÐµÑĤÑĮ
ĠÃº til
ÅĦ skiego
Ġs ides
ĠH allo
Ġdemasi ado
Ġb Ãºsqueda
Ġf ff
ĠC Ã²n
il ha
CI A
Ġsupport ing
i ali
ĠBer g
Ġpot ra
vis o
ĠSm ith
Ġra zÃ³n
Ġelim in
Ġ ă
Ġa zione
ĠÐ¼ Ð°Ð»ÑĮ
Ġp ais
Ġv ary
jÄħc ym
ãģļ ãģ«
Ġper man
ci ÄħÅ¼
Ġorgani zz
ĠÅĵ uvre
ĠChica go
ĠRen cont
Ġm iá»ĩng
Ġs ad
ce an
Ġper ce
Ã¡s s
ient ÃŃ
r ary
ĠH Ãłng
ãĤ¿ ãĥ³
ĠÐĺ Ð³ÑĢ
ÑģÑĤÐ²ÐµÐ½ Ð½ÑĭÐ¹
te zza
ĠÑģÐµÑĢ Ð¸Ñı
Ġmiss ing
Ġanim al
ãĥģãĤ§ ãĥĥãĤ¯
ãģ®è© ±
uch omoÅĽci
Ġex amples
Ġwska z
Ġãģ µ
Ġpel e
Ġf att
ãĥĥ ãĥĳ
Ġay er
ro ffen
Ã¤ch lich
Ġpo ids
Ġéĸ ĭ
Ġè¿ ĳ
ĠÐ¾ÑĤÐ² ÐµÑĩ
Ġhina us
as a
Ġdz ien
Ġexp lo
ĠEr n
ĠÑģÐ¼ ÐµÑĢ
ÑģÑĤÐ²ÐµÐ½ Ð½ÑĭÑħ
ĠÄĳ ÃŃch
Ġed if
æĮ ¯
ĠHo je
ĠServ icio
Ġlaqu elle
Ġpour s
Ð²ÐµÑĢ Ð³
Ġenc ant
Ġapp ena
Ġestud ios
åıİ ç´į
è¬ Ľ
Ġin put
Ġk aum
7 2
Ġdi am
ĠH i
ÐµÐ· Ð¶
Ġé §
åĲ Ħ
Ġos iÄħ
wer b
ĠB ois
ĠÐ°ÑĢ ÑĤ
Ġah or
éĢģ æĸĻçĦ¡æĸĻ
ĠÑģÐ¸Ð¼ Ð¿
Z CI6
:. :.
Ð½Ð¾ Ñĩ
ĠÐ³ Ðµ
Ġna ve
Ġ6 8
è¦ĭ ãģ¦
Ġpl ug
Ġãĥĸ ãĥ«
b ÄĻd
ãģ¨ãģª ãĤĬãģ¾ãģĻ
ĠÃ©t ude
è¬ Ŀ
ĠverfÃ¼ g
Ġh d
Ġd á»¯
åº Ń
ãĤ¿ ãĥ«
7 æľĪ
ãģĦãģŁ ãģĦ
Ã©r cio
Ġsign s
u il
Ġwarto ÅĽci
Ġcres cita
ĠmÃ£ e
ĠN áºµng
we j
pe z
Ð°ÑģÑģ Ð°Ð¶
ãĥĥ ãĤº
ĠP ierw
ãĤĵãģ§ ãģĦãĤĭ
w iÄĻk
Ġvia gem
ĠÐ¼ ÑıÑģ
Ġsee king
ĠNuo vo
ä¿Ŀ éĻº
ch u
as ta
r Ã¡n
Ġb ord
èĢħ ãģĮ
Ġcre ation
ĠMan uel
Ġsex uales
aci a
ĠDis k
Ã¢te au
ĠWiÄĻ cej
Ġcon ci
ĠK rit
it ui
dz iesz
o cc
ĠÐ´Ð¾ÑģÑĤ Ð¸Ð³
Ġir Ã¡
ãĤ¤ ãĥĹ
ĠÑįÐºÑģÐ¿Ð»Ñĥ Ð°ÑĤ
Ġap os
Ġcontr Ã´le
ĠÑĥÑģÑĤ Ð°Ð½Ð°Ð²Ð»Ð¸Ð²
ĠÑģÐ¼ Ð°ÑĢÑĤÑĦ
Ġè ĥ
ow ali
b ano
Ġch ain
äºº ãĤĤ
Ġsc ri
ĠÑģÐ¿ Ð°Ñģ
ĠÐ¿ÑĢÐ¾Ð³ÑĢÐ°Ð¼ Ð¼Ð°
ĠServ icios
ĠEsc ort
Ġcult ura
æ³¨ æĦı
ĠÐĿÐ°Ð¿ ÑĢÐ¸Ð¼ÐµÑĢ
ĠçĶ· æĢ§
Ġeffica ce
Ġsur gery
åħ ¸
ĠS ite
Ġ ä¼ļ
Ġsou l
ĠâĢ¦ âĢ¦
osz enia
et ime
æ´» åĭķ
ĠÑĢÑĥ ÐºÐ¸
ĠG ruppe
Ġn ationale
Ġt ess
ĠÄĳo Ã¡n
ens ioni
Ġstr atÃ©g
Ġatend imento
Ġafter noon
ĠÐĶ Ð¾
el ine
den cia
ĠCh ico
ãĤ· ãĤ¢
ĠEn cont
ĠÄĲ á»
æ¨ Ļ
Ġb ureau
ĠÐŀÑĤÐ·ÑĭÐ² Ñĭ
re ur
Ġdes ire
ä¼ Ĭ
k ces
Ġkh á»ĳi
Ġm Ã¡t
Ġla wy
ĠN ieder
Ġtop ics
ĠÐĺÐ½ Ð´
Ġrencont res
Ġmo vil
Ġconsum er
ĠArt icle
Ġadmin istration
Ġun ver
Ġne ck
Ġd Æ°Æ¡ng
Ġind i
enta ire
ktion en
æĤ ©
ĠP eter
ÐłÑķ Ðł
est yle
Ġcompart ir
Ġcomp ag
Ð¾Ð²Ð°Ð½ Ð¸Ñİ
jÄħce j
Ġäº ¬
ĠUnter stÃ¼tz
ĠÐł Ðħ
åħ ħ
ãģ¨ ãģĻãĤĭ
Ġcap ire
Ġhe aring
nos i
ĠR is
ĠDire cciÃ³n
ĠEnt Ã£o
Ġpl anej
bour g
3 1
u os
Ġme z
able mente
Ġåı İ
Ġ> \
iven ess
ĠÐºÐ°ÑĢÑĤ Ñĥ
Ġdifer encia
Ġvor hand
Ġs áº¯p
ĠGes amt
ĠK olle
Ġr Ã´le
Ġn uits
ĠÐ·Ð½Ð° Ñİ
Ġac cident
ĠÐ°Ð³ ÐµÐ½ÑĤ
â Ī
ich ter
ĠÐĵ Ðŀ
or ough
æĦı åĳ³
ĠReg ion
ĠÃĤ u
Ġbe ispiel
Ġrap id
ĠRes ponder
Ġ' :
Ġpl ante
Ġob ten
Ġlo ja
Ġsom os
Ġresp eito
Ð¾Ð³Ð» Ð°ÑĪ
Ġass urance
Ġcolo res
ĠEar th
Ġzes po
Ġan Ã¡lise
ima ux
ĠÐºÐ¾ÑĢ Ð·
Ġrisp osta
Ġtest s
ĠÐ¾Ð±Ð¾ÑĢÑĥÐ´ Ð¾Ð²Ð°Ð½Ð¸Ðµ
Ð»Ð¸ÑĪ ÐºÐ¾Ð¼
ĠSant iago
ĠÐ²Ð¿ Ð¾Ð»Ð½Ðµ
åħ ļ
ere i
Ġtr end
k owej
Ġ9 11
Ġtr uck
Ġrecenz ji
ĠTechn ology
Ġch icken
M O
e ch
Ġbe ge
Ġp ure
å¤ ®
st elle
ĠBar dzo
Ġer fol
èĭ ±
ĠÐ±Ð¸Ð·Ð½ÐµÑģ Ð°
Ġintrodu ced
Ġqu inta
ĠÐ´ÐµÑģÑı ÑĤ
ĠSt iefel
ĠÐ¿ÑĢÐµÑģÑĤ ÑĥÐ¿
Ġpo ÅĤ
ĠR oll
cyj nego
çĻº è¡¨
ĠÐ¼ÐµÑģÑı ÑĨÐ°
ĠW ald
ĠS ÃŃ
Ð² Ð¸Ð´
Ġknow ing
çļ Ĩ
ĠÐ¼ Ð¾Ð½ÑĤ
ĠLe ute
Ġbro wn
i fication
ĠSec ond
ĠÐºÐ²Ð°ÑĢÑĤÐ¸ÑĢ Ñĭ
Ġc Ã¡mara
Ġsce gliere
Ġcr usher
Ġmanif est
Ġä¸ĸ çķĮ
ãĤ ħ
Ġp t
Ġal im
ĠC ost
Ġâ ī
f ert
r Ã´n
olog ico
ĠRes p
ib ilidade
Ġsett ings
ĠDep uis
å¯¾ çŃĸ
ÑĤ Ð¾Ð½
ãģ§ãģĻ ãģĭãĤī
Ġbo ost
Ġï½ ¤
ĠÐ²Ñĭ Ð¿Ð»Ð°ÑĤ
è« ĭ
ĠÐ²ÑĭÐ³ Ð»ÑıÐ´
Ġpodstaw ie
Ġchocol ate
¹ ¿
ĠC U
ĠÐļ ÑĤÐ¾
Æ°á»Ŀ n
ition n
ç«ĭ ãģ¡
ĠÐ¿ÑĢÐµÐ¿ Ð¾Ð´
ĠÐ¿Ð»Ð°ÑĤ ÐµÐ¶
ĠÐ·Ð°Ð±Ð¾Ð»ÐµÐ² Ð°Ð½Ð¸Ñı
ĠVend ita
ÑĢ Ð´
ä¸ ¦
Ġco ach
d own
u zioni
ĠAl les
ãģĻ ãģĶ
Ġob raz
Ġmar ch
Ġhist Ã³r
ĠÐ´Ð¾Ð¿ Ð¾Ð»Ð½
Ġnas zym
ĠÐ´ÐµÐ¿ ÑĥÑĤ
Ġlata ch
Ġte kst
è¨ ±
Ġâ Ķ
Ã¼ hren
Ġnost re
b ier
Ġngh iÃªm
ĠÐ¾Ð±ÑĬ ÐµÐ´Ð¸Ð½
ĠQuÃ© bec
æīķ ãģĦ
Ġæµ· å¤ĸ
Ġem bara
ĠÑĢÐµÑģÑĤ Ð¾ÑĢ
ĸ ç¸Ħ
ĠL ar
ÑģÑĤÐ²ÐµÐ½ Ð½Ð¾Ð¹
Ġkle in
Ġconven ient
Ġpalav ras
Ġan Ã¡lisis
Ġespe cÃŃ
Ġsig nifica
ãģĳ ãģ°
Ġt á»Ļc
Ġ ersch
ĠÐ¼ ÑĥÐ·
ĠÐĿÐ¾Ð² ÑĭÐ¹
ãģĹãģ¦ ãģıãģłãģķãģĦ
l Ã¶s
Ġappear ance
Ġcomunic aÃ§Ã£o
ÑģÑĤ Ð¸ÑĤÑĥÑĤ
Ġinfrast ructure
k w
Ð¸ÑĨ Ð¸Ñı
Ġb ond
8 æľĪ
ren o
ene zia
Ġtrabal hos
åĩº ä¼ļ
ãģ ¬
ĠR u
Ġnow ych
owane j
ĠãĤ¯ ãĥ©
Ġparticip aciÃ³n
ĠÐºÑĢ Ð¾Ð¼Ðµ
ĠA ktiv
Ð¸ÑĤ ÐµÐ»ÐµÐ¼
ãģŀ ãĤĮ
ĠA kt
Ġus ando
ãĤı ãģªãģĦ
les en
ÑĤ ÐµÑģÑĮ
Ġng áº¯n
ĠSp ring
ĠÐ¡Ð¾Ð² ÐµÑĤ
ĠC B
ĠN as
Ġgreat est
are mos
ãģªãĤī ãģªãģĦ
uc le
ĠÃ©c ran
ĠIn stead
Ġord ers
ĠgÃ³ i
Ġthe rapy
ill i
is her
gg ed
éģ ł
ĠF a
ĠãĤµ ãĥŀ
Ġw it
ĠR us
ur aciÃ³n
è¨ ª
ãģ®æ İ
Ġdep art
ĠÐ°ÐºÑĤ Ñĥ
fr ist
Ġreco very
Ġd rew
ĠÐ´Ð°Ð»ÑĮ Ð½ÐµÐ¹ÑĪ
ĠSam stag
Ġzape w
ĠÃ©lÃ© ments
Ġg uerre
ÐµÐ¹ Ð´
ĠN E
Ġme us
æ³ Ĭ
Ġesc ri
ĠÑĤ ÐµÐ¼Ñĥ
Ġvol ont
ZX J
ĠãĤ·ãĥ£ ãĥįãĥ«
Ġtip os
ĠLoc ation
ĠÐ¿ÑĢÐ¸Ð½ Ð°Ð´Ð»ÐµÐ¶
ãģ¾ ãģ£ãģŁ
Ġmaggio re
n im
ÑĤ ÑĢÐ°
ĠÄĲ Ã¬nh
k an
çĽ ¤
ĠÑģÑĤ ÑĢÐµÐ¼
Ġm á»ĳi
Ġsz er
Ġprogra mas
Ġbre ve
Ġseem ed
ĠæĹ ©
ĠÐĶÐ¼ Ð¸ÑĤÑĢ
ĠÐ½ Ð¾Ð¶
Ð¸Ð½ ÑĤÐµÑĢ
Ġaut ori
Ġcomple ta
Ġform as
Ġsam o
Ġbring ing
ĠÐºÐ¾Ð½ÑĤÑĢ Ð¾Ð»ÑĮ
Ġmass imo
èµ· ãģĵ
ĠW etter
ĠTipp s
ĠO brig
Ġpro che
sch ung
ĠH Ã¬nh
ĠInd ust
Ġill ustr
Ġanci en
ung e
åı ¸
ĠÐŁÐ¾Ð» ÑĥÑĩ
Ġreg istration
ĠÐºÑĥÐ»ÑĮÑĤ ÑĥÑĢÑĭ
ĠÐ´Ð²Ð¸Ð¶ ÐµÐ½Ð¸Ñı
Ġy eux
est re
Ġk uch
Ġcomp lic
Ã¶ hn
Ġd ating
Ðº Ð¾Ð½
Ãī Ãı
we isen
Ġuni versity
ĠÐ°Ð´Ð¼Ð¸Ð½ Ð¸ÑģÑĤÑĢÐ°ÑĤ
d G
ĠÐ¿ Ð°Ñģ
ĠÐľ Ð°Ð¹
ÑĢ ÐµÑģÑģ
id ed
Ġpar ler
Ã©r ature
itu ciÃ³n
Ġpoz na
Ð°ÑĢÐ¸ ÐµÐ²
at ures
ĠSex y
Ġinter esse
ĠIn oltre
A K
wo hl
ĠÑģÐº ÑĢ
Ġt áº¯c
Ġat mos
ĠNam en
Ġh áº¡nh
Ġwall s
æĲ º
nd a
i ar
ĠÐĿ ÐµÐ´
or ien
ĠS ab
ÐµÐ½ÑĮ Ðµ
ÐµÑī ÐµÐ½Ð¸Ðµ
Ġmad era
Ġpurch ased
éĩį è¦ģ
ĠInform aciÃ³n
ĠCont in
Ġprobl Ã¨mes
Ġmater iales
Ġnie kt
ĠÐ¿ÐµÑĢ ÐµÐ³
Ġfe ch
ĠVer y
p ark
ĠÑĦ Ð¸Ð³
Ġtras por
ic ato
Ð½Ñİ Ñİ
Ð¾Ñģ Ð¸Ð±Ð¸ÑĢ
Ġsi zes
ĠÐ½ ÐµÐ³
ĠÑĦ Ð¾Ð½
Ġcomment aires
Ġuffici ale
Ġéĺ ²
ĠF ig
ĠÐ²Ð½ ÐµÑģ
ĠÐĵ ÐµÑĢÐ¼
Ġprzep rowadz
ãģĹãģ¦ ãĤĭ
Ġk urs
Ġstud enti
Ġmis mos
Ð°Ð»ÑĮ Ð½ÑĭÐ¼Ð¸
EN Z
Ġv el
ĠÐ¿Ð»Ð°Ð½ ÑĪ
Ð¾ÑģÐº ÑĢÐµÑģ
ĠÑĤÐµÑħÐ½Ð¾Ð»Ð¾Ð³ Ð¸Ð¸
ĠelectrÃ³n ico
Ġverwend et
ĠAless and
R l
l ad
Ġro t
ĠL in
st amos
Ð± Ð¸ÑĢ
Ġris erv
Ġpos iciÃ³n
iv itÃ©
Ġprote in
ĠG las
Ġa gu
Ġsiste mas
Ġpied ra
ĠÐ´ÑĥÑħ Ð¾Ð²
ãģ® ãģĵãģ¨
ent lichen
Ġupd ates
Ġativ idade
ala xy
Ġse is
ic ina
Ġrec or
çĻº çĶŁ
Ġmehr ere
Ġprzed e
ĠSal z
ãĤĴ åıĹ
an lage
çģ «
ĠStiv ali
Ġk Ã¼
Ġb il
Ġf and
mo ire
ich i
ade ira
Ġco Ã±o
Ġin fer
os sa
yw id
ĠãĥĿ ãĤ¤ãĥ³ãĥĪ
S S
Ġph áºŃn
Ġten do
Ġroz wo
ãĤª ãĥª
æ¸ ¯
ĠD urante
ãĥ¯ ãĥ¼ãĤ¯
Ġsit ting
ç¹ Ķ
Ġproced ure
ĠLe ad
Ġcommun e
ĠHa cer
ĠSom etimes
ch y
ãĥ³ãĤ «
ĠV iew
Ġsu á»ĳt
Ġfore st
Ġdev rait
Ġconse il
Ġing lese
to res
ĠR und
ĠÃ© du
Ġãģ¾ ãģł
j ÅĽcie
tu be
ujÄħ cy
Ġnasze go
Ġhom ens
Ġper der
ne ments
Ġkind s
Ġm ots
ut ion
Ġzmi any
Ġcommit ment
Ġãģ¡ ãĤĩãģ£ãģ¨
Ġinwest y
¥ ½
Ġf id
e per
ãģ®è ĩª
p ren
Ġc á»Ń
Ġper dere
Ġr ental
ĠEsc orts
ar czy
Ġb iÃªn
åĮ ħ
Ġ20 04
ãĤ¨ ãĥĥãĥĪ
ĠE v
ãģ®æĸ¹ ãģĮ
Ġdri vers
Ã¡ fico
ãģ®åĲ į
ign es
çļĦ ãģ«ãģ¯
Ġresp osta
ĠCan ad
ĠAp Ã³s
æĿ± äº¬
ĠJe Å¼eli
erd Ã¬
ber icht
s ko
Ġpres up
Ġmal att
Ġå¸ Ĥ
Ġb Ã¢t
ãģ¯ ãģĵãģ¡ãĤī
Ġå ĵģ
ot r
Ġcos to
Ġå® ļ
Ġbro ken
ot hes
Ġre alize
Ġinstruct ions
ĠÃ©t udes
Ġb iznes
Ġser Ã¡n
Ġmon it
ĠFar ben
ĠÂ· Â¢
ãģĬ é¡ĺãģĦ
Ġliv raison
Ġthá» ¥
Ġm ine
è¼ ª
Ġcamp aÃ±a
Ġdivers as
ĠmatÃ©r iel
ort es
Ã¨ se
rz t
Ġd á»ĭ
Ġæĸ Ļ
Ġç· ¨
Ġfeit a
Ġsele ccion
i est
ver a
ann ing
icht lich
Ġher vor
Ġparticip ate
Ġspe ziel
Ã³ lo
m ag
ĠLu áºŃt
Ġch osen
Ġzde cyd
Ġla b
ĠD id
Ġis to
Ġper to
ãĥŀ ãĥĥãĥĪ
Ġwy mi
Ġdis cip
at yw
ra pie
Ġs owohl
ĠâĢĻ .
ĠR y
Ġass um
Ġrem ind
Ġcom mento
al idade
Ġåº ĥ
ĠJed nak
lic z
Ġh áº¡t
ĠåĲ Ħ
Ġdo kon
Ġ2018 å¹´
ĠcaÅĤ y
Ġdo kÅĤad
use ppe
ron ique
Ġprzez na
v ato
ĠmÃ© de
Ġutilizz are
Æ°á» ¡ng
Ġusta wy
ĠZ ar
ze w
cz nym
Ġp unt
ĠÑĢÐ°Ð² Ð½Ð¾
ĠÐºÑĢ ÑĭÑĪ
ĠÐľ ÐµÐ¶Ð´
Ġ9 8
ĠÐºÐ¾Ð¼Ð¿ Ð°Ð½Ð¸Ð¹
ĠÑģ Ð¸Ð»ÑĮÐ½Ð¾
Ð¸ÑĤ Ð¾Ð²
ĠÐ¶ Ð°Ð»
ĠÑģÐ°Ð¼Ð¾ÑģÑĤÐ¾ÑıÑĤÐµÐ»ÑĮ Ð½Ð¾
ĠÐĴÐ¸Ðº ÑĤÐ¾ÑĢ
ÑĨ Ð²ÐµÑĤ
ĠÐ¿Ð¾ÑģÑĤ Ð°Ð½Ð¾Ð²
ÑģÑĤ Ð°ÑĤÐ¸
ĠÐ¾Ñī ÑĥÑī
ĠÑĢÐ°Ð·Ð½Ð¾ Ð¾Ð±ÑĢÐ°Ð·
Ð°ÑİÑī Ð°Ñı
ĠÐ¿ÐµÑĢÐ² Ð¾Ð¹
ĠÐĴ ÐµÑģ
Ð¾ÑĢ Ð¾Ð¼
ĠÐ· Ð½Ð°Ðº
Ð¾Ð³ Ð¸
ĠÐ²Ð·Ð³ Ð»ÑıÐ´
ĠÐ¶ Ð¸Ð»ÑĮ
ÐĴ ÐĲ
Ġu043 0
ĠÐ¿ÑĢÐµÐ´ÑģÑĤÐ°Ð² Ð»ÑıÐµÑĤ
ĠÑĢ Ð¾Ð»ÑĮ
ic ula
ĠÐºÐ»Ð¸ ÐµÐ½ÑĤÐ¾Ð²
ĠÑĨÐµÐ½ÑĤÑĢ Ðµ
ĠM ain
ĠÐĲÐ½ Ð³
Ġimport ancia
Ġb attle
Ñı ÐµÐ¼
ÐµÑĩ ÐµÑģÑĤÐ²
ĠUn ion
Ð¸ÑĤÐµÐ»ÑĮ ÑģÑĤÐ²Ð¾
ĠÐŀ Ðĳ
v ention
ĠPr iv
Ñİ ÑĢ
Ġtre ated
Ġliv ros
Ġå »
Ġt ab
Ġm art
ãĥ¼ ãĤĴ
ĠÐ³ ÑĢÑĥÐ´
Ġfood s
æ³¨ æĸĩ
ĠÑĢ Ð°ÑģÑĤÐ²
ĠÑģ Ð½Ð¾Ð²Ð°
ĠÐ·Ð°ÑĢ ÐµÐ³Ð¸ÑģÑĤÑĢ
o v
Ġ ãģĭãĤī
Ġem ph
Ð¸ÑĢÐ¾Ð² Ð°Ð»
Ġin medi
ĠÐ¾Ð¿Ð¸Ñģ Ð°Ð½Ð¸Ðµ
ĠÑĢ ÐµÐ»
on Äħ
ãģı ãģ¨
ĠI d
ĠBe z
ĠRe in
Ġa ur
Ġquier es
ĠP ued
ib ilitÃ©
Ġv agas
Ľ ¸
p en
ĠL is
ĠÐļ Ð°Ð¼
Ð¾Ð² ÑĥÑİ
Ġj Ã¤hr
ï¼ĳ ï¼Ĳ
ãĥķãĤ© ãĥ³
Ġtuo i
Ġorgan isation
got i
yr ight
Ġappoint ment
Ġèµ ¤
ien nent
ĠS T
ĠB ud
Ġ{ "
icz ba
ãĥª ãĤ¹ãĥĪ
ĠÐ½ Ð¸Ð¶
Ġzw eiten
Ġel abor
ĠH aving
Ġzost anie
ãģ®æ Ĭ
Ġfor Ã§a
ĠÐ° Ð³ÑĢ
act ions
æ´ ¥
ãĥ³ãĥĨ ãĤ£
Ġarqu ivo
Ġreplace ment
ĠIm mobil
Ġalo j
\ \
ĠB al
Ġsp ia
è¨ º
ĠSt ati
ĠÐ¿Ð» Ð¾ÑĤ
Ġpor Ã©m
Ġso Ã¡t
Ġrec ru
Ġreg iÃ³n
ĠK aÅ¼
owane go
Ġperfect ly
Ġdifer ente
Ġsw Ã³j
ãĤ« ãĥ©ãĥ¼
orm ais
ĠGe orge
ĠÑģÐ¿ÑĢ Ð¾Ñģ
ĠÐ½ÐµÐ´Ð¾ÑģÑĤ Ð°ÑĤ
ãĤ¹ãĤ¿ ãĥĥãĥķ
m Ã©
ĠE E
ĠA ra
Ġsp r
Ġhand elt
Ġl ived
ĠÑħÐ¾ÑĢÐ¾ÑĪ ÐµÐ¼
v ieron
ĠÐ²Ð¾Ð¹ Ð½Ñĭ
Ġm undial
laut om
Ð¸Ð² Ð°Ñı
ĠÑĤÐ°Ðº Ð¸
ĠÐĹ Ð°ÑĤ
ub les
Ġent rar
Ġcos ti
éĿ Ĵ
Â¡Â ¢
ĠÐ½ÐµÐºÐ¾ÑĤÐ¾ÑĢ ÑĭÑħ
Ġsupp lies
ĠIn vest
ĠMin isterio
Ġt ÄĻ
le z
ĠO ggi
Ġot w
ta ger
Ġ200 3
ĠÐ¾ÑĤÐ½Ð¾ÑĪ ÐµÐ½Ð¸Ñı
ĠÐ½Ð°Ð³ ÑĢÑĥÐ·
Ġhistor ical
ĠE X
ki es
Ġhá» ©
Ġist nie
ĠP ri
ãĤ° ãĥ«
Ġni Ã±o
isse z
w Ã¤r
èĢĥ ãģĪãĤĭ
ĠH ope
Ġcali entes
ĠÑģÐ¸Ð¼ Ð²
Ġcaratter istiche
ĠÑģÐ¾Ñĩ ÐµÑĤ
Ġre venue
Ġde u
Ġdom ain
ĠS ou
Ġaum ent
Ġdov rebbe
Ġcateg oria
Ġzdo by
Ġc Åĵur
ĠSiste ma
ed as
ie hen
ĠC ri
Ġd ane
ãģķãĤĵ ãģ¯
ĠSo bre
r ance
Ġprop osed
ĠF urther
ĠÐ·Ð°Ñī Ð¸ÑĤÑĭ
ĠLes bianas
ĠÐ²ÑĭÐ¿ Ð¾Ð»Ð½Ñı
Ġperspect ive
ĠA T
ĠD iv
ĠÐĹ Ð°Ð³
n am
Ġtrabaj adores
Ġcer te
Ġçµ Į
Ġcomer cial
ĠÐľ Ð¸ÑĢ
ition ally
Ġlight ing
Ġbig ger
ĠW estern
ĠAm Ã©rica
bark eit
Ġkh Ã´
qu Ã©e
ĠU ms
ĠÐĲÐ² ÑĤ
éŃ ħ
ĠÐ¾ÑĢÐ³ Ð°Ð½Ð¾Ð²
Ġal cohol
Ġein s
Ġr Ãª
Ġt are
ãģ¤ ãģ®
t own
Ġb iaÅĤ
ĠV ict
Ġvis ita
ĠAd v
ĠÑħ Ð²Ð°ÑĤ
ĠÐ¸ÑģÑģÐ»ÐµÐ´ Ð¾Ð²Ð°Ð½Ð¸Ñı
âĺ Ĩ
ĠDetail s
U C
Ġf en
Ġwh om
Ġpar am
cc an
á»© t
ĠWe ise
Ġass ets
in ateur
Ġer forder
Ġclin ical
im en
Ġdem ost
Ġde ja
Ġide ia
ol id
Ġtas ks
ex ual
ä¿Ŀ è¨¼
ria ge
ĠÅĽ wiata
ĠÃ ¿
çĽ Ĭ
Ġr ene
og ue
ĠÐŁÐµÑĢ ÐµÐ´
Ġog Ã³l
ÃĶ NG
ĠãĤĪ ãĤĬ
Ġkh uyáº¿n
ãĥĥãĥĶ ãĥ³ãĤ°
Ġerm Ã¶g
Ð¾Ñģ Ð¸Ð¿ÐµÐ´
ĠR U
ir s
ĠAl ler
el ines
Ġprote cciÃ³n
Ġv ivre
l aden
ĠÐ¿ÑĢÐ¸ Ð±Ñĭ
ĠKle in
m Ã¶glichkeit
ĠÑĥÐºÑĢÐ° ÑĪ
çº ¿
Ð°Ð´ ÐµÐ¼
Ġb ell
Ġd icas
Ð¸ÑĤÐµÐ»Ñı Ð¼Ð¸
ĠdÃ©p artement
Ġbezpie cze
ĠZu behÃ¶r
ĠÐ¤ Ð¾ÑĢÐ¼
Ġpued an
usz cz
Ġarr ive
Ġparticip aÃ§Ã£o
Ã¤uf er
ĠEinz el
ĠÑģÐ¿ Ð¸ÑģÐ¾Ðº
ÐµÑĢ Ð½Ð¾Ðµ
ĠSch Ã¶n
ĠF ull
Ð¾Ñģ ÑĢÐµÐ´
ĠÑĥÑģÐ¿ ÐµÑħ
Ġfail ure
Ġmet tere
Ġe conÃ´m
ãĤ¹ ãĤ¹ãĥ¡
ĠJourn al
Ġer g
Ð¾ÑģÑĤÐ°Ð² ÐºÐ°
z ada
Ġop Ã§Ã£o
ĠThere fore
l am
ĠEt at
Ġchar ges
ĠÑĥÑĢÐ¾Ð² Ð½Ðµ
ĠOp in
Ġhundred s
Ġan alisi
é į
ÑĥÑģ ÑĮ
Ġcom ida
ãģ¾ ãģĦ
unt amiento
p here
Ġdar an
ĠmÃ© to
Ġofre cer
Ġcar ried
Ġt Ã¤g
Ġaccur ate
Ġc Ã©
Ġs Ãłn
f ond
Ġf old
ĠÐ·Ð°Ð² Ð¾Ð´
Ġcam inho
ĠÑģÐ»Ð¾Ð² Ð°Ð¼
Ġdec ades
Ġ, ,,
ĠHÃ´t el
ĠÑĩ Ð°ÑīÐµ
or al
z us
ir ma
ĠT á»Ń
Ġ8 5
enn ent
11 æľĪ
Ġpub lish
Ġef et
Ã³ pez
ĠÃ «
Ġpl ano
ĠTr Ã¨s
å° Ħ
Ġcor aÃ§Ã£o
ĠHa use
Ġplann ed
ĠÐ´Ð°Ð»ÑĮ ÑĪÐµ
å¤ī æĽ´
äº ī
Ġda qu
ãĥŀ ãĥ³
Ġcall ing
Ġpi edi
Ġengine ering
ion ato
ive ment
Ġch icos
Ġdef ined
Ġl á»įc
Ġdirect ement
re zent
kti ve
Ġqu iet
Ġstrum enti
Ġse zon
Ġcele bra
ĠÐľ Ð½Ð¾Ð³
ĠBet riebs
Ġneighbor hood
Ġw n
Ġpra wo
Ġtr á»ĵng
Ġidenti fied
f assen
Ġg uerra
Ġpel ig
å± ¤
æķ µ
Ð°Ðº Ð¾Ð½
ĠEurope j
Ġbrasile iro
ĠÑĢÐ°ÑģÑģ Ð¼Ð°ÑĤÑĢ
Ġnatur ale
Ġåģ ½çī©
ãĤĴæĦ Łãģĺ
Ñĭ Ðº
e on
Ð°Ð´ ÑĨ
ĠT own
ÐĶ ÐĲ
ĠÐ¾ÑĢÐ³Ð°Ð½Ð¸Ð· Ð°ÑĨÐ¸Ñı
Ġcl asi
ãģ«å¯¾ ãģĹãģ¦
Ġdom enica
z ca
Ġk ick
ä¿ º
ÐºÐ¾Ð² Ð°
v anti
Ġlle ga
Ðº Ð¸Ð¼Ð¸
ÑģÑĤÐ² Ð¸Ñı
ĠB á»ĩnh
Ġconsider ing
ĠÐ²Ð°ÑĪ ÐµÐ³Ð¾
ĠA soci
Ġrad i
Ġsuiv ant
ĠrÃ©p ondre
Å Ĵ
qu ia
ĠÐĹ Ð²
odz ien
ĠãĤ¨ ãĤ¢
Ġbamb ino
Ġçľ Ł
Ġcomun icazione
ĠÑĤÐµÐ» ÐµÐ²Ð¸Ð·
Ġscri pt
Ð°Ð» Ð¾Ð¼
Ġm ini
ĠLe ggi
æ² ¹
Ġaper to
ãĤ¸ ãĥįãĤ¹
Ġc iento
ãĤ¹ ãĤŃ
Ð» ÑĥÑĪ
Ġdonn Ã©
çµĤ ãĤı
Ġsupp lÃ©ment
Ġst essi
ĠC ruz
ĠP flege
éģ¸ æĬŀ
P T
Ġle cz
or Ã³w
ãģ§ãģĻ ãģĹ
ĠÐĶ ÐµÐ½ÑĮ
ade k
Ġcons erv
Ġch á»£
ĠÑģÑĤÑĢÐ°Ð½ Ðµ
Ġmet ri
Ġmom entos
Ġesper a
ĠBl anco
Ġm ou
ĠI g
ĠB ur
ul ous
ĠS up
ĠD ok
Ġod d
Ġho Ãłng
Ġrece iving
Ġb anc
ĠÑĩÐ°Ñģ Ð°
Ġkonn ten
Ġt Ãºi
Ġtrouv Ã©
Ġw nios
et u
Ġng Å©
ĠPh áº§n
Ġth ang
Ġpos z
xt ure
Ð¹ ÑĤÐµ
ãģ£ ãģ¡ãĤĥ
ti re
Ġmod alitÃł
Ġal imentos
Ġoportun idade
Ġkon takt
Ġpros pect
Ġï¼ ľ
Ð¸ÑĨ ÐµÐ¹
åł Ĥ
ĠWh ich
Ġt Ã¡i
åį ³
Ã¤nd ern
wer ten
ter min
ĠPro jet
ãĤĴ å®Ł
Ġpop ol
ĠÐ´Ð¾ÑģÑĤÐ°Ð² ÐºÐ¾Ð¹
Ġarbeit en
Ġdetermin ed
Ġwsz el
ĠkaÅ¼d ym
Ġg amme
ãĥ³ãĥ ĵ
Ã© mo
ĠTr Ãªn
Ð¸Ð½ ÑģÐºÐ¸Ð¹
ĠCz ÄĻ
Ġbirth day
Ġelect ronic
ĠobowiÄħ z
ĠÐŀ Ð¿Ð¸ÑģÐ°Ð½Ð¸Ðµ
å¼ ģ
en zen
Ġemploy ment
ĠÃĸ ff
Ġgegen Ã¼ber
åı¯èĥ½ æĢ§
ĠBro wn
ĠLeist ungs
ĠÐ¾Ð´ Ð½Ñĥ
ĠÐ· ÐµÐ»ÐµÐ½
Ġç© º
ĠÑĤ Ð°
ĠÐĳ Ð¾ÑĢ
åĽ °
Ġt iver
Ġpresent ation
Ġmoy enne
Ġaccept ed
Ġkra ju
ĠÃºn ica
Ġæ¥½ å¤©
ĠÐ¿ÑĢÐµÐ´ÑĥÑģ Ð¼Ð¾ÑĤÑĢ
Ġacqu istare
ite ur
åĽ Ľ
Ġvor her
us hed
Ġp ump
Ġn orte
Ġport ion
Ġincl uye
Ġä»£ å¼ķ
æĽ¿ ãģĪ
ĠPat ient
Ð³ÑĢ Ð°Ð´
ici lio
Ġmis ura
Å¼ li
Ġr end
Ġtor na
Ġchann el
ĠpÃ³Åº niej
ĠÐ» Ð¾Ð¶
Ġh ire
ĠÐ¿ÐµÑĢ ÐµÑĢ
ress ione
era it
us i
Ġtien da
ĠÑģÐ¾ÑģÑĤÐ¾ÑıÐ½ Ð¸Ðµ
D E
Ġf ly
um s
Ġan ty
Ġ& &
Ġperson ali
Ð½Ð°Ñĩ Ð°Ð»Ð°
Ġb aix
Ġzm ien
ĠÐ·Ð´Ð¾ÑĢÐ¾Ð² ÑĮÑı
Ġmerc redi
Ð¾Ð¹ ÑĩÐ¸Ð²
Ġbeg ins
ĠCer ti
ĠagrÃ© able
ĠÃ© poca
Ġgi Ã³
å¹ ¸
ad i
Ġvers Ã£o
ĠrÃ©alis er
Ġcook ing
Ġqu artos
Z E
Ġme at
ĠCh u
ĠS Ãłi
rz es
ĠÑģÐ²Ð¾ ÐµÐ¼
Ã¼ck en
ĠÑģÐ¾Ð± ÑĢÐ°Ð½
ĠK aufen
ter iore
ĠPres ario
Ġconvers ation
Ã©r coles
Ĭ ¶
Ġm Ã£o
Ġab ge
ĠÐº Ð¾ÑĢÐ¼
Ġdi fic
ãĥĥ ãĤ¸
ba hn
Ġb á»ģn
ĠSan to
Ġm Ã¶g
Ġmeille ure
çĭ ¬
Ġimp rese
Ġo ggetti
Ġav aient
Ġacc ueill
ow nie
Æ°á»£ u
Ġl Æ°Æ¡ng
Ġex cess
Ġaut eur
Ġbel ong
Ġform aÃ§Ã£o
åĿ ĩ
Ġan sehen
Ġa wareness
Ġup load
Ġdou te
Ġva ÌĢ
ĠÐ¾Ð±ÑıÐ· Ð°Ð½
ĠLear n
ĠÐ¿ÑĥÑĤ ÐµÑĪÐµÑģÑĤÐ²
um o
Ġph il
ro dz
Ġhard ware
Ġsuccess fully
ĠÐºÐ¾Ð» Ð»ÐµÐº
ĠR olle
ĠGeb urt
Ġc odice
ĠÐŁÑĢÐ¾ Ð¸Ð·Ð²Ð¾Ð´
Ġdeg rees
ul ate
ĠJ ap
om ma
Ġpre ten
æķ £
am ental
Ġassess ment
å¸ ĮæľĽ
ĠÐ¿ Ð°Ð»ÑĮ
Ġav anz
bo a
ĠÐºÐ¾ÑĢ Ð¾ÑĤ
Ġnh iÃªu
Ġleg no
éģ¸ æīĭ
iglia mento
Ġmil k
Ġord re
ĠåŃĲ ä¾Ľ
æ¤ľ ç´¢
Ġz estaw
ĠåĮĹ æµ·éģĵ
Ġs essions
ĠFranÃ§o is
ĠB ir
Ġvá» ¯
Ð°Ð½ ÐºÐ°
Ġn inh
ĠÐĵ Ð°ÑĢ
er mo
we go
Ġten ga
Ġop ie
Ġzd ro
Ij p
Ġnatur aleza
ĠL Ã³pez
Ġesp aci
ĠÐ¡ÑĤ Ð°ÑĢ
Ġt esta
Ġm outh
Ġle kar
ch nung
Ġimport Ã¢ncia
ĠStud ents
Ġje udi
ãģ®ãģ§ ãģ¯ãģªãģĦ
ĠÄĳá» «ng
ĠJ ardim
6 5
ĠPor te
ĠPro te
Ġt uyÃªn
ĠÐ´Ð¾Ð¼ Ðµ
ĠÐ¾Ð± ÑĥÐ²
Ġcres cimento
ĠJapan ese
ĠW omen
§ ĭ
ª ¨
ĠÐŁ Ð°Ð²
ï¿ ¥
ĠdÃ© g
be x
Ġn urs
Ð°Ð½ ÐµÐµ
Ð¾Ñĩ ÐºÑĥ
Ġe cht
ic ola
Ġz nak
Ġdec isiÃ³n
iÄĻk sz
Ġlic ens
Ġhous es
Ġincred ible
ĠStart seite
Ġv s
åĲ Ľ
Ġâĸ ¼
ĠAmeric ans
Ġs our
çĲĨ çĶ±
Ġtend rÃ¡
Ð½Ð¸ÑĨ Ñĥ
ĠmÃ¡x imo
ÐµÑĢ Ñĥ
Ð¸ÑģÑĤ Ñĭ
Ġpar cer
ĠÐºÐ¾Ð» Ð»ÐµÐºÑĤ
Ġt esto
ĠFin ally
Ġfa zem
Ġprodu ktÃ³w
ĠmÄĻ Å¼czy
ĠSch Ã¼ler
il Ãł
Ġãĥ ¤
ĠM am
ãĥĽ ãĥ¼ãĥł
Ġtras fer
owym i
Ġdiver t
Ġcont rat
ĠMed ical
ĠD isc
Ġpens ar
Ġu pper
Ġåĭ ķ
Ġouvert ure
Ð¸ Ð¾
ĠK ol
zy ka
ĠT ab
Ġloc ales
ĠÐ½Ð¾Ð² Ð¾Ð¹
ĠTh á»±c
ĠÐ²Ð· ÑıÑĤÑĮ
Ġhum anos
ĠÐºÐ»Ð°ÑģÑģ Ð°
ĠæĻĤ éĸĵ
ip e
ĠÂ¹ Â«
Ġcaus es
Ġosp iti
ĠÑģÐ¾ÑģÑĤÐ¾ÑıÐ½ Ð¸Ð¸
Ġk rÃ³t
v io
ãģĵ ãģĵ
Ġpas e
it azione
k owego
ãģĽ ãģ¦
ĠÃ©c r
ĠÐºÐ¾Ð»Ð¸Ñĩ ÐµÑģÑĤÐ²
liwo ÅĽci
Ġdetal hes
Ġch á»¥p
ĠS ti
ĠP ack
Ġam ar
Ġjed es
jÄħc Äħ
Ġsitu Ã©
Ġdess ous
Ġå¿ ħ
Ġimmag ine
ãģĤ ãģªãģŁ
Ġsurround ing
ĠÐĴÐµÐ´ ÑĮ
Ġs ess
ĠNh a
rit te
Ġob sz
st Ã¤r
col are
ãĤĴè¦ĭ ãģ¦
Ġpoder ia
ĠÑĢÐ°Ð½ ÐµÐµ
Ġjourn al
D O
Ġg ear
cor r
Ĥ Þ°
ĠÃ©v iter
Ġkobie t
Ġy ellow
ĠProf es
Ġdete ct
Ġcomp Ã©ten
ĠL td
ĠÑģ Ð»Ð¸ÑĪÐºÐ¾Ð¼
gu ay
m ore
Ð°Ð· Ð°
Ġnaj m
ĠÐŀÑĤ Ð¿ÑĢÐ°Ð²
è§ Ĵ
Ġa cid
è£½ åĵģ
ĠC atal
ĠÐ¿ÑĢÐµÐ´Ð¿ÑĢÐ¸ÑıÑĤ Ð¸Ñı
Ġdistribut ion
ĠiP hone
Ġrecomm and
ĠÐ¿ÐµÐ´ Ð°Ð³Ð¾Ð³
é ®®
d d
M P
ĠÐ¿ ÑĤ
g ato
ĠÐ¸Ð¼ Ñı
å¯ º
ĠGi áº£i
Ãª tes
ĠSal le
ĠTe cn
Ġna zw
Ġv illage
Ġco zinha
Ð°Ð»ÑĥÐ¹ ÑģÑĤÐ°
Ġa ÃŃ
Ġ1 st
Ġcom um
Ġpar i
ĠD ob
Ġr iche
cyj na
Ġu kÅĤad
ĠÐ· ÐµÑĢÐº
Ġãĥģ ãĤ§
æĬĢ è¡ĵ
Ġv oix
ĠS O
Ġ; )
ĠÑįÐº Ð·
Ġmad ura
at iven
Ġsu elo
i zion
ĠÐ·Ð² ÐµÐ·Ð´
ĠL ED
Ġr osso
ĠDan ke
ĠÑģÑĦ ÐµÑĢÐµ
Ġmar iage
Ġtra z
Ġt amb
Ð´ Ñĥ
Ġgro wn
Ġfour th
Ġpub li
Ġencuent ran
Ġs osp
jm uje
Ġdescu br
Ġdisp osition
è» į
ĠT ambÃ©m
çĻ» åł´
Ġaum ento
ãģ®åı £ãĤ³ãĥŁ
Ġsz uka
ĠtÃ¹ y
c Ã§Ã£o
ĠV ari
ĠJ av
ÐĽ Ðŀ
çŁ Ń
Ġsem anas
ãĥĹ ãĥ©
ãģĤ ãģĴ
ç«ĭ ãģ¦
ĠR os
Ġdist rict
Ġnego ci
Ġmaio res
Ġpren dere
Ġj ornal
ĠCong ress
Ð¾Ð» Ñĭ
Ġh ici
Ġd áº§n
Ġph ase
I RE
Ġsho es
i ano
ĠÐ² ÐµÐºÐ°
ãĤ¯ ãĤ·ãĥ§ãĥ³
ĠszczegÃ³ÅĤ owo
Ġk at
Ãª ts
ĠG ian
Ġdist ancia
ĠÐ¾ ÑĢÑĥÐ¶
Ġcare fully
uten Ã§Ã£o
Ġmeu ble
Ġãĥ¡ ãĥ¼ãĤ«ãĥ¼
ĠÐ¿Ð¾ÑĢÑıÐ´ ÐºÐµ
ĠÐĺÐ¼ ÐµÐ½Ð½Ð¾
æ ¤
Ġm 2
Ð¼ Ð¾Ð½
ĠQ uy
Ġle ather
Ġjo y
Ġsamoch od
Ġdiff icile
Ġç ķ
ri Ã³
Ġabb ia
ĠK arten
h 30
ĠÐ²Ð°Ð» ÑİÑĤ
Ġs Ã¡bado
L C
ĠD ic
Ġqu ang
Ä© a
Ġwrit er
AD A
ĠÐ¿Ð¾Ð¿ ÑĭÑĤ
ad emy
Ġ\": [
ĠGlo bal
ĠÑģÑĤ ÑĢÐ°ÑĤÐµÐ³
ta ch
ĠW ett
Ġb read
Ġx áº¥u
Ġapp unt
Ġreason able
ĠÐ¿ÑĢÐ¸Ð¼ÐµÐ½ ÐµÐ½Ð¸Ñı
Ġassoci ation
Ġnoss as
Ġsubst anti
Ġlux ury
un Ã¤chst
ĠFre itag
Ġre ar
ĠB our
Ġb ere
or ca
ĠÑģÐ°Ð¼ Ð¾Ð¹
icz nego
Ġop Ã©r
Ġfil ter
ĠãĤª ãĥ³
ĠÐ³Ð¾ÑĢ ÑıÑĩ
ĠTrabal ho
ãģ£ãģ± ãĤĬ
ĠLy on
Ġp il
ĠÑģ Ð°Ð½
Ð°Ð» Ð¸Ñı
Ð°Ð» Ð»
ie ment
Ġch art
Ġb Ãły
de ck
ÑĥÐ» Ð°
ÑĭÐ² Ð°Ð½Ð¸Ñı
ĠCom er
ĠK rzy
kow ie
Ġbuen os
ĠÐ´Ð°Ð½ Ð½ÑĭÐ¼
Â² Â»
Ġcomplet amente
Ġtrans porte
ĠKÃ¶n ig
ĠSpa ÃŁ
ĠMiche l
Ñģ Ñĭ
Ġt á»§
ĠSch m
ĠS inh
ra ca
ÑģÑĤÐ² ÑĥÐµÑĤ
ãĤĪ ãģ³
Ġ ÅĤÄħ
Ġhor se
imm ing
ĠÐ¿ÑĥÑĤ Ð¸
Ġcy cle
4 9
ĠÐ² Ð¾Ð²
ĠK ore
Ð¾ ÐµÐ²
g ada
ĠT Ã¬nh
ĠSe Ã±
Ġcont ar
Ġcons ul
Ð¸ÑĢÐ¾Ð²Ð°Ð½ Ð½ÑĭÐµ
Ì£ ng
ĠDes arrol
ĠA vis
Ġz onas
Ġdni u
Ġelett ron
ãĥ³ãĥĩ ãĤ£
ĠMid dle
ig ar
è¡ Ģ
Ġimp os
Ġtr i
los s
Ã® te
Ġ25 0
Ġa ktiv
ĠÐłÐµÑģÐ¿ÑĥÐ±Ð»Ð¸ ÐºÐ¸
Ġche veux
Ġsympt oms
ĠL im
ĠÐ´ Ð°ÐµÑĤ
is ci
ap as
ãģ© ãģĵ
re mo
st w
Ð°ÑİÑī ÐµÐ³Ð¾
Ġ? âĢĿ
Ġ| --
Ġjo int
g ne
ĠÑħÐ¾ÑĤ ÐµÐ»
ĠP Ã¡g
YW x
ĠusÅĤug i
åŃĺ åľ¨
N z
b it
b us
Ð¸Ð½ ÐºÐ°
Ġâ ĳ
Ġ8 8
ĠCom ent
Ð¿ÑĢ ÐµÑģÑģ
Ã¼n ft
Ġpost ÄĻp
Ġlet tre
je kte
Ġr á»Ńa
ĠÐ¸Ð³ ÑĢÑĥÑĪ
Ġsele zion
Ġexcel ente
ĠAnd rea
Ġt ampoco
ĠV in
ÃŃ do
Ð¸ÑĢÐ¾Ð²Ð°Ð½ Ð½ÑĭÑħ
Ð¸ÑĢÐ¾Ð² Ð°ÑĤÑĮÑģÑı
Ñİ ÑģÑĮ
ĠÑĩ Ð¸ÑĤÐ°ÑĤÑĮ
Ġbe at
Ġm ale
ãģ£ ãģį
Ġcu ir
ãģ®æ Ī
Ġar ia
Ġw Ã¼n
ĠAl gun
Ġla ÌĢ
Ġset or
Ġg war
Ġas col
Ġmot eur
ten d
Ġbra k
Ġh uyáº¿t
Ġcerti fic
ĠAd olescente
Ġk Ã¨m
å¿ «
iz ing
çķ ¥
cyj nej
po ÅĽred
m are
Ðº ÑĥÑĤ
ï½ °
Ġst aw
ãģĭãĤī ãģ¯
Ġe cco
on na
Ġtho Ã¡t
Ġthá» «a
ĠUr laub
Ġsh ares
ĠÐ³ ÐµÑĢÐ¾
ĠintÃ©r Ãªt
Ġpomo cy
ĠOrig inal
Ġex ternal
1 l
Ġtá» ĵ
à² °
Ġwy br
ĠÐ¿ÑĢÐ¸ Ð±Ð¾ÑĢ
be wert
Ġpr Ã³b
ĠC ateg
Ġkomput er
ĠÐµ ÑģÑĤÐµÑģÑĤÐ²
ara re
Ġk Ã©m
Ġmanufact uring
Ġpres enÃ§a
forder ungen
Ġæ¨ ª
Ġcerte za
â Ħ
c al
Ġph p
at ale
ĠÄĲ áº¿n
b ia
Ġ ä½ĵ
Ġspeak ing
ĠM utter
Ġchac un
z j
Ð¸ÑĤ Ð°ÑĢ
Ġper u
ĠÑģÑĤ Ð¸Ñħ
Ġh Ã¶r
Ð°Ð¹ÑĤ ÐµÑģÑĮ
Ð°ÑĤÐ¾ÑĢ Ð¾Ð²
çŃ ĭ
Ġsol ar
Ãį A
ĠJo h
ĠÐ¡Ð Ĭ
ĠÐ½Ð¸Ðº ÑĤÐ¾
ĠÐ£ÐºÑĢÐ° Ð¸Ð½Ð°
Ġcom erci
ĠMo Å¼e
ĠPart y
ä¾¿ åĪ©
ĠÐŁÑĢ Ð¾Ð³ÑĢÐ°Ð¼
ĠÐ°Ð» ÐºÐ¾Ð³
Ġconfi ance
U O
ow ÄĻ
ĠM P
ten e
Ġé Ł
ãĥ³ãĥ ĸ
èª ²
Ð°ÑĤÐµÐ»ÑĮ Ð½ÑĭÐ¹
ĠÐĵ Ð¾ÑĢÐ¾Ð´
ed io
Ġdev ido
Ġinde x
Ġconsum o
ĠmÃ©d ic
C h
r is
ĠãĤ Ĩ
Ġal ten
ĠÐ½Ðµ Ð¸Ð·
ĠO per
ĠÐŁÑĢ Ð¸Ñĩ
2 æľĪ
ĠGr Ã¼
Ġarr ived
Ġtick et
ĠwiÄĻk sz
ĠÐ½Ð°ÑģÐµÐ» ÐµÐ½Ð¸Ñı
Ġcitiz ens
f it
Ð³ Ð°Ð»
Ġb ist
ĠÃ© po
Ġeff etto
Ñĥ ÑģÑĤÑĮ
Ġsupport s
ĠSeg uridad
æ±Ĥ äºº
Ġad olescente
Ã³ z
Ð» ÐµÐ²
ĠÑĢÐ°Ð· Ð½ÑĭÐµ
Ġpl ays
Ġv Å©
Ġthe ory
Ġin icio
Ġu043 5
ĠÐ°Ðº Ñģ
Ġbenef icios
æ¶ ²
Ġdescu ento
ĠæĿ±äº¬ éĥ½
ĠÑģÐ¿ Ð°ÑģÐ¸Ð±Ð¾
Ġcla ve
Ġworld wide
é «ª
ĠF le
ak ers
å¤ ı
itÃ© e
Ð¸ Ð°Ð½
Ġass em
ĠCam era
ĠSch ule
ĠÑģÐ¾ÑĤÑĢÑĥÐ´ Ð½Ð¸Ñĩ
p as
ãģ®å ĳ
ĠS olo
uj esz
t ica
ĠM aggio
tag s
Ġfre uen
Ġer reichen
ĠÐ²Ð¾Ð·Ð² ÑĢÐ°Ñī
Ġjedy nie
ĠÑĤ ÐµÐºÑĥÑī
ĠM ach
Ġsp Ã³ÅĤ
ĠA ccess
ÑĮ ÑĪÐµ
ĠÅĽ wiÄĻ
Ġpattern s
Ġart ÃŃculos
ĠErgeb nisse
ĠÐ½ÐµÑģÐºÐ¾Ð»ÑĮ ÐºÐ¸Ñħ
Ġalred edor
ĠGi useppe
Ġf le
cz or
Ð¸ ÐµÐ½ÑĤ
Ð² ÑĭÐµ
Ð± ÐµÑĢ
era us
Ġmon ta
ĠBar dziej
ãģ£ãģ¦ ãģĹãģ¾
Ġmov imiento
ĠAustr alian
ĠSand ali
ÐµÑĢÐ¸Ð½ Ð±ÑĥÑĢÐ³
Ġm auv
ĠbÃ©nÃ© fici
ĠAf rican
nie go
be k
Ð» ÑĥÐ¶
ĠT á»ķ
ãģĮ ãģĦ
ãģ®è £
ĠÐ¸Ð½ Ð¾Ð³Ð´Ð°
Ð¾Ð² Ð¾Ð´
Ġut ente
ãģĭãģª ãģĭ
min ister
ĠÐ¡Ð ĥ
Ġhold s
æľŁ å¾ħ
ĠÑĥÑģÑĤÑĢÐ¾Ð¹ ÑģÑĤÐ²Ð°
Ġm ardi
Z S
Ġdes sen
ĠÐ¸Ð¼ ÐµÐ½Ð¸
Ġ> >
å·¥ äºĭ
ĠContact o
Ġge geben
Ġk siÄĻ
æıĲ ä¾Ľ
ĠTri p
Ġmind estens
Ġg auche
ĠE qu
d ate
ÅĽ ni
an cer
ĠÐŃ Ð½
ĠAr ts
Ðľ ÐĲ
ãĤı ãĤĮ
Ġfun Ã§Ã£o
ĠÑĤÐµÐ» Ð°
çĻº å£²
ĠÐĲÑĢ ÑĤ
Ġtrabalh ar
æ²» çĻĤ
Ġcolo car
ĠÑĢÐµÐ°Ð»Ð¸Ð· Ð°ÑĨÐ¸Ð¸
Ġæ¥ŃåĭĻ çĶ¨
N I
ĠC reat
Ġdis co
Ġt ough
ĠV áºŃy
u jÄħcych
ĠÐ½ÐµÐ´ ÐµÐ»Ñİ
Ġcontinu aciÃ³n
Ġcontemp orary
ĠPolize i
Ġr Ãłng
Ġco ng
ĠA ward
p iele
im ately
Ġperm is
Ġ1 Âº
en Ã§as
Ġproced ures
ĠFrank furt
Ġvelo ce
Ġal guÃ©m
C C
s ku
ycz nego
Ġmater ia
Ġf akt
ĠStr om
ãģĹ ãģ£ãģĭãĤĬ
ĠAn bieter
ĠT ier
iÄĻ cia
ãģ« è¦ĭ
z ja
ĠÐĲÑĢ Ñħ
Ġä¸Ń åĽ½
ãģ§ãģĻ ãĤĪ
Ġjou er
ran j
Ġcie p
Ġdur Ã©e
an nage
Ġpross imo
Ġbrow ser
Ġse qu
Ð¸Ðº Ð¾Ð¼
ĠÐ¢ Ñĭ
Ġen ab
erv ice
åĲĳ ãģĳ
Ġu waÅ¼
Ġtre in
Ġcompr endre
ĠÐ½Ð°Ð»Ð¸Ñĩ Ð¸Ðµ
Ġexp ression
Ġvac aciones
Ð¡Ð¡ Ðł
w ing
Ġz ara
rze w
Ð°ÑĤÐµÐ»ÑĮ Ð½Ð¾Ð¹
Ġst elle
Ġv ib
Ġst re
Ġm orte
ÅĽwiet l
Ġbreat h
Ġor igen
ĠÐ·Ð°Ð¿ ÑĢ
Ġv ÃŃ
å¥³ åŃĲ
ĠÑģÐ¾Ð·Ð´ Ð°ÑĤÑĮ
Ġsu ivre
atic amente
Ġeje cut
Ġincor por
G E
Ġprocess os
© çĶ¨
onn er
ĠMost rar
Ġentre tien
ĠÐļÐ¾Ð¼Ð¿ Ð°Ð½Ð¸Ñı
Ġi p
ni ci
Ã³n ica
rze j
hal ts
ĠÐ²Ð¸Ð´ Ð¾Ð²
ud io
Ġpain ting
Ġexpect ations
Ĥ Þ°Þ
Ġima gens
Ġhouse hold
is Ã©s
r ors
åĨ ·
ãĤ¹ ãĤ«
Ġad ult
or row
Ġass olut
ãĥ© ãĥ³ãĥī
Ġ á»§y
ãģ®åĨ ħ
ĠM undial
Ġnat omiast
ywid ual
Ġpo za
Ġcomm and
ib li
Ġchang er
Ġkeep s
ãĥ©ãĤ¤ ãĥĸ
ãĥªãĥ¼ ãĥ³
Ġt áº¯m
Ġeleg ir
ãģ®æĦ ı
Ġgi ardino
Ġli bertad
Ġcircumst ances
Ġhá»į a
ãģķãĤĮ ãģ¾ãģĻ
ÌĢ u
ĠAb out
Ġf esta
Ġex isten
å« Į
ÐµÑģÑĤ Ð¸Ð²
Ġp ose
Ġpe au
Ġre tain
ĠN uest
ter day
Ġt este
ĠIn forma
ĠLe ague
che z
ĠÃ© st
Ġal ber
ni es
ti ere
Ġj ap
ĠK áº¿t
Ġaut ore
Ã©r ias
w issen
åķ Ĩ
Ð¾ÑĤ Ð²Ð¾ÑĢ
imi ze
ĠPerson al
Ġmach ines
Ġstor ico
ĠStand ard
R p
Ġï¼ ĭ
od aw
ÑĢ Ð³
ãĤĴ ä½¿çĶ¨
ĠÐ¾ÑĤ ÑĩÐµÑĤ
Ġenv ie
ĠÐ±Ð»Ð¸Ð¶ Ð°Ð¹
um es
Ð¿Ð» Ð°Ñĩ
Ġm ount
Ġb rit
Ġprocess us
lement ary
f iques
æ°Ĺ ãģ«åħ¥
çī¹ å¾´
b ym
ĠÐļ Ð½Ð¸
ãĥķ ãĥ«
ãĥŃ ãĥ¼
Ġcu á»ĳn
Ġãģĵ ãĤĵãģª
Ġaccess ible
Ġwy nika
Ġtrad y
Ġproje ktu
ĠCE O
ĠÑģÐ»ÑĥÑĩÐ°Ñı Ñħ
X X
Ġel ig
ÑĦ Ð°
Ġlo ans
v res
Ġh ors
Ġra nd
Ġlie be
Ġconse qu
Ġdes halb
Ġè Ĭ±
ãģ¾ãģ¨ ãĤģ
Ġlect ure
Ġ790423 9
ĠV enezia
ĠF und
ãĤī ãģı
Ġco eur
Ġpart idos
ĠÐ¥ Ð¾ÑĢÐ¾ÑĪ
å¤§ å¤ī
ĠÑħÐ¾ÑĤ Ð¸ÑĤÐµ
ĠWohn zimmer
Ġgh áº¿
ĠMitgli ed
Ġsp edizione
Ġpor Ã³w
Ġli b
Ġt aught
ĠAuÃŁer dem
ï¼ ¼
ĠÐľ ÑĥÐ¶
Ġ% .
Ġ ä¹
k cje
ĠT rib
ãĥ¬ ãĥĥãĤ¯ãĤ¹
ĠÐ§ Ð¸ÑĤÐ°ÑĤÑĮ
å±Ĭ ãģĳ
Ġter rito
ãĥŀ ãĥ³ãĤ·ãĥ§ãĥ³
ĠDem oc
Ġne goti
Ġæ ·
ĠÐŁ Ð¾Ð±
r ano
ĠÐĺ Ñİ
Ġroz um
Ġinform ed
ad s
ÑĬ ÐµÐºÑĤ
ĠÑģÐ¾Ð¾Ð±Ñī Ð°ÐµÑĤ
ĠCas inos
Ġmat ters
Ġfeature d
ĠPol ÃŃcia
Ġdi ritti
ĠÐ¿Ð°Ð¼ÑıÑĤ Ð¸
Ġf rÃ©
Ġqu Ãł
czy ch
Ġroz p
Ġshe et
ĠA ktu
åľ° åŁŁ
szy scy
S ch
Ã¨ que
Ġç Ń
Ġman que
ft ung
Ġsc ol
ĠS cu
å¹´ ãģ«
Ġinv ent
Ġc lic
Ġb less
ĠÐ¿ÐµÑĢÐ² Ð¾Ð³Ð¾
Ġp ena
Ġremain ing
aggi ori
Ġz gÅĤ
Ġrice v
b lock
ĠBe handlung
ĠB io
g art
Ã¨ tre
l isch
Ð¾ÑģÑĤÑĮ Ñİ
jo y
çĽ¸ åł´
ĠL iter
Ġes erci
Ġout ils
Ð¡Ð ĥ
ĠÐ¾Ð±ÑĥÑĩ ÐµÐ½Ð¸Ñı
H O
ï¼ Ń
ĠÐĹ Ð°Ð´
ÑģÐº Ð¸Ð¼Ð¸
ĠÐ¿ÐµÑĢÐ² ÑĥÑİ
Ġid Ã©es
ĠÐĲÐ² ÑĤÐ¾Ð¼
ĠÐ²ÐµÐ´ ÑĥÑī
Ġinvol ve
Ġpeque Ã±os
ĠAss ist
ĠÅĽrod owis
Ġz byt
Ġout standing
Ġåĥ ķ
aj em
Ġvá» Ŀi
Ġzosta ÅĤy
Ġsearch ing
Ġla bel
Ġå¿ ĥ
ä¸Ģ è¦§
ĠÃ©tabl issement
Ġaz ul
Ġcons Ã©qu
ĠZ aragoza
Ġbeispiel sweise
all as
on nen
ĠÑģÐ» Ð°Ð±
ra cht
Ġreg el
i ato
Ġpag ar
Ġd unque
ĠÐ¿Ð¾ÑģÐ»ÐµÐ´ Ð½Ð¸Ðµ
Ġ icon
Ġf emen
Ð¾ÑĢ Ð¸Ð¹
ÐµÐ² Ð¾Ð³Ð¾
Ġapp li
ia ÅĤo
å¯ Ŀ
iti ques
ĠV iele
Ġsp iele
icion ado
Ġtw ice
Ġfla v
Ġreg ionale
ĠDÃ©c ouv
ĠSer ies
ĠÑĢ ÐµÐ¹ÑĤÐ¸Ð½Ð³
ak s
owan ym
zy j
Ġacc es
æĺ ¥
Ġist itu
Ġesc orts
Ġth áº§y
Ġp unkt
A ÃĩÃĥO
Ġconf irm
Ġade qu
ĠÐ± Ð¸Ð±Ð»Ð¸Ð¾ÑĤ
un al
ãĥĪ ãĥª
ĠÐ¤ Ð¸Ð»ÑĮ
ĠNh iá»ģu
ĠÑģÐ°Ð¼ Ð¾
º å®ļ
ãĤĤãģ® ãģ§ãģĻ
Ġv aria
ĠE conom
Ġwel ches
Ġproprie tÃł
ĠrÃ© fÃ©rence
ĠSit ios
Ġdist inct
ĠÐĳÐµÑģ Ð¿Ð»Ð°ÑĤ
ĠheiÃŁ t
ĠãģĬ ãģĹãĤĥãĤĮ
h nh
ĠC ro
ica ch
çĲĨ è§£
éĸĭ å§ĭ
H CM
abil mente
ĠP uerto
Ġk ing
è³ Ģ
Ġzap atos
ĠÐ¸Ð³ ÑĢÑĥ
ãĤ¹ãĤ¿ ãĤ¤ãĥ«
ĠÐºÐ¾Ð½ÑĤÑĢ Ð¾Ð»
ĠGo verno
Ġu bezpie
Ġconduct ed
Æ ł
ĠB lo
ĠÑģ Ð°Ñħ
Ġr iver
Ġtras form
Ġprincip ale
Ġimprove ment
ciÄħ g
Ġejerci cio
Ġsprzeda Å¼y
Ð¼ÐµÐ½ÑĤ Ð°ÑĢÐ¸ÐµÐ²
Ġvá»¯ ng
ĠT ar
k et
Ð°ÑİÑī Ð¸Ð¼
ĠÅļ l
ĠÐ·Ð½ Ð°ÑĤÑĮ
Ġ9 78
Ġcin que
ĠRep Ãºblica
Ð°ÑĤ Ð¾Ð¼
rÃ© es
Ð¸Ð² Ð½ÑĭÐµ
i Ãµes
ĠH aw
Ð¸ÑĢÐ¾Ð²Ð°Ð½ Ð½ÑĭÐ¹
Ġg am
Ġcr im
Ġfeat uring
Ġrel atively
ĠP ablo
ĠÐ¿Ð¾ÑģÐ² ÑıÑī
an ne
ĠSe hr
ĠAl t
ãĤ³ ãĥ¼ãĤ¹
Ġlo ves
ĠC A
Ġsol che
per atur
Ġir m
ondi ale
Ġpubblic ato
Ġrespons Ã¡vel
Ġdes nud
Ġw es
Ġdel es
ãģĤ ãģ£ãģ¦
Ð¸ÑģÑĤ ÐµÐ¼Ñĥ
åŃ¦ çĶŁ
Ġsam ym
ĠÐ¢Ð°Ðº Ð¸Ð¼
Ġtecn ica
ur so
ent wick
ĠMost ra
ĠÐºÐ½Ð¸Ð³ Ñĥ
Ġse jam
ĠÐ¿ÑĢÐµÐ·Ð¸Ð´ ÐµÐ½ÑĤ
Ġso ciaux
Ġel en
ĠS ans
Ġ enti
Ġte eth
ĠPr Ã¼
ĠÐ¸Ñģ ÑħÐ¾Ð´
Ġapro b
Ġlaiss er
Ð¾ÑĤ Ðµ
ĠÄĳ áº¥y
æŃ ¦
Ġa cho
Ġven ir
Ð½ Ð¾Ð´Ð°ÑĢ
ĠÑĢÐ°Ð·Ð»Ð¸Ñĩ Ð½ÑĭÐµ
ãĥĨ ãĥ¬ãĥĵ
â Ĩ
Ġr ay
ĠÐĲ Ð¼
ãģ®å ±
Ġt Ãº
ER S
Ġsom it
Ġr oup
Ġdro ite
Ġou ver
Ġmag ni
ĠÐŀÑĢ Ð³Ð°Ð½
ĠÑį Ð¼Ð¾
Ġexclus ive
Ġinsp iration
Ġi zquier
el st
Ġes ti
ĠN un
åĪ Ĺ
ĠRe is
ãĥĭ ãĥ¡
æ³ ī
Ġop ini
Ġan zi
ĠåĪ Ĩ
ĠB estell
Ġiss ued
Ġchallen ging
ĠMÃ¤d chen
ĠS Ã³
Ġn Ã©t
ĠH Æ°á»Ľng
Ġinvest ors
lÃ¤r ung
ĠSicher heits
ĠÐºÐ¾Ñģ Ð¼ÐµÑĤ
ĠGrup o
Ġre in
ĠâĢ º
Ã¶ st
s ier
ar me
Ġz iel
ar mente
Ġmar che
ãĤĴ éĢļ
Ġm Ã©c
Ġin segn
Ġf iesta
st ieg
ĠVir gin
Ġdoll ars
Ġdi al
Ð½Ð¸Ðº Ðµ
igen cia
c ling
Ġreal idade
ĠA insi
g ruppe
cas seur
Ġagen cies
Ġç¶ļ ãģį
ĠT im
Ġspe ÅĤ
Ġãģ¨ æĢĿ
Ġfa cing
Ġdr iven
Ġ2019 å¹´
Ġre cuer
Ġver ific
et ic
ãĥ¢ ãĥ³
ĠT Ã¬m
çī© ä»¶
Ġfaci lement
ĠÐ¿ÑĢÐ¸Ñĩ Ð¸Ð½
ãģĻ ãģ¹ãģ¦
ĠS earch
Ġ Ù
k re
w ig
y na
Ġh Ã©
Ðļ Ðĺ
ĠrÃ© uss
ĠÐ²ÐµÑĢ Ð¾
al az
Ġsk ill
Ġperfect o
Ġamb ient
hb W
Ġaut hentic
ĠT áº¥t
Ġ7 7
w ord
Ġmod a
Ġg áº¯n
Ġrem ote
gg iare
çķª åı·
Ġzd jÄĻcia
Ġb leu
Ġje Å¼eli
§ £
ÐµÐ´ ÑĢ
ÐµÐº Ðµ
Ġ3 D
ĠLe g
owa Å¼
ĠÐ¿ ÑıÑĤÑĮ
åĬĽ ãĤĴ
ian to
Ġsitu ations
Ġarriv Ã©e
Ġrela zione
occ up
ar m
åĲ ¹
ist an
Ġåħ ĥ
Ġåı Ĺ
ĠrÃ©p ond
ĠrÃ©sult at
ĠprÃ¡ct ica
Ġwar rant
Ġat rÃ¡s
ĠA st
ĠÑį Ð¼
Ġro d
ĠV Æ°Æ¡ng
Ġexp os
èª °
bi as
ard e
ĠT udo
ĠBo x
Ġese gu
Ġcon os
Ġconten uti
Ġb aixo
ĠNet work
Ġprop iedad
Ġestrut ura
Ġspa ces
ãĤ¤ ãĥĻãĥ³ãĥĪ
Ð´Ð° ÑİÑĤ
Ð¸ÑĤÐµÐ»ÑĮ Ð½Ð°Ñı
Ġt Æ°á»Ŀng
¡ çĶ¨
Ġãĥı ãĤ¤
Ġpremi ers
Ġsab ato
ĠÐºÐ¾Ð½Ðº ÑĥÑĢ
bex _
N Y
u ki
ĠÑĤ Ð°Ð¹
ĠC in
ĠY Ãªn
ãģı ãģªãģĦ
Ġs á»ķ
Ġser em
[...]
