#version: 0.2
á Ģ
á ĥ
Ġ à
Ġ Ð
à ª
à ¸
Ð °
à ´
à ®
Ø §
à ¦
à °
à ¤
Ð ¾
Ð ¸
Ġ Ø
Ð µ
Ñ Ĥ
Ð ½
à «
Ñ Ģ
à ¯
Ġà ª
à µ
Ġ .
Ġ Ù
Ñ ģ
Û Į
Ø§ Ù
Ø ±
áĥ Ĳ
Ġ ,
Ð »
à ±
Ġ áĥ
à §
Ġà ¤
Ġ ×
à ¥
ã ģ
áĥĲ áĥ
Ð° Ð
áĥ ĺ
à ¹
à¯ į
áĢ ¹
Ġà ¦
Ð¾ Ð
àµ į
Ġ áĢ
Ù Ī
Ñ ĥ
Ø§ Ø
àª ¾
Ġ Î
â Ģ
Ù Ĩ
áĥ Ķ
Ġà ®
áĢ¹ áĢ
Ð º
Ġà °
Ġà ´
áĢ ¬
àµį à´
áĥĶ áĥ
àª¾ àª
Ú ©
Ù Ħ
Ù ħ
Ø§Ù Ħ
à¯į à®
Ð ´
Ø ª
Ñ ĸ
áĥĺ áĥ
ã Ģ
Ø ¯
áĢ º
áĢ ¸
Ù Ĭ
Ñ ı
à« ĩ
Ð ²
à¦ ¾
Î ±
áĢ ¯
× Ļ
Ġ -
áĢ Ń
ã Ĥ
Ï Ħ
ĠÐ ¿
× ķ
Ġ âĢ
ĠÙ ħ
Î ¿
Ù ĩ
à¤ ¾
Ð ¼
áĢ Ģ
ã ĥ
Ġ 1
Ġ Ñģ
à± į
Ġ 2
Î ¹
Ġ Ø§ÙĦ
ĠÐ ½
Ġ Ú©
± áĢ
Ġ ì
à§ ĩ
Ġ Ñ
áĢ Ħ
áĥ Ŀ
à´ ¿
Ġ :
à¦¾ à¦
Ġ ãĢ
á ģ
à¯ ģ
à« į
×ķ ×
à«į àª
à« Ģ
à® ¿
ä ¸
áĢ¸ áĢ
à¸ ²
ĠØ ¨
Ð° Ñ
Ð½ Ð¸
Ġ ï
à±į à°
×Ļ ×
Î ½
à° ¿
Ñ ĭ
ĠÐ ²
Î µ
Ġ å
Ø ³
Û ģ
áĥĿ áĥ
à®¿ à®
à¸ Ļ
Ġ a
Û Ĵ
à´¿ à´
à§ į
à§į à¦
à° ¾
Ð° ÑĢ
Ø ¨
à¤¾ à¤
Ñģ ÑĤ
àª ¨
Ð° ÑĤ
ĠÐ ´
Ġ t
Ø§Ù Ĩ
à± ģ
i n
ĠÙ Ī
Ð ³
Ð° Ð½
áĢ Ĳ
Ġ (
áĢŃ áĢ¯
à¦ ¿
à¥ ĩ
à¸² à¸
àµ ģ
Ï ģ
Ñ Į
Ð ·
à« ĭ
Ï ĥ
Ġï ¼
ĠÐ º
àª °
ä º
à¯ģ à®
áĢ ķ
Ġ )
à°¾ à°
à¥ į
Ø ¹
Ġ c
áĢ ¼
áĢ Ļ
à¥į à¤
Ñ ĩ
à´ ¾
e r
à¹ Ī
ĠÐ ¼
à¦ °
à¸ Ń
ĠÐ ¸
Ø ©
Ġà ¸
Ï Ģ
Ð ±
àµģ à´
á Ĥ
à® ¾
ĠÐ ·
Ġ ÑĤ
Ð¾Ð ²
Ġ ë
ĠÐ ¾
Ð ¿
à´¾ à´
Ï Ĥ
Ø§ Ø±
à¸ £
£ áĥ
o n
ĠØ ª
áĢ Ķ
à°¿ à°
Î ·
Ġ æ
áĢĦ áĢ¹áĢ
Ġ2 0
áĢ ±áĢ
áĥĺáĥ ¡
ĠÐ ±
Ð° Ð»
áĥĶáĥ ĳ
Ðµ Ð½
Ï ħ
à®¾ à®
Ñ Ĩ
ì Ŀ
Ġ áģ
ĠØ ¯
Ġ 0
Ù Ĥ
Ñ Ī
Ĥ à°
Ġ s
Ð¾ ÑĢ
à¥ Ģ
Ģ à¸
Ġ Ø§Ø
áĢ ½
Ø ´
à¹ ī
× Ķ
ĠØ ³
Ù ģ
áĢ ·
r e
à¦¿ à¦
ĠÐ¿ ÑĢ
Ðµ ÑĢ
× ¨
å ı
à¤ ¿
ł áĥ
ĠÐ½ Ð°
áĢ ²
h e
Ġà¤ ķ
à¤ °
à¸ ±
àª ¿
Ú ¯
Ġ "
o m
Ð°Ð ²
Ġ Â
a n
Ø§ ÛĮ
Ð» Ð¸
à¸ ĩ
Ġ w
¿ ½
Î »
Ġ× Ķ
× ľ
Ġ /
à« ģ
áĢ ħ
à¸ µ
ĠÙ Ĩ
a t
à«ĩ àª
Ġï¼ Į
Ġ ÏĦ
à±ģ à°
à¸ ģ
Ġ 3
à§ĩ à¦
Ð°Ð ¼
Ñ ħ
Ú º
à¯įà® ķ
Ġ ÑĢ
Ø Ń
Î º
Ġáĥ Ľ
áĢ Ľ
à¹ Ģà¸
Ð¾ ÑĤ
å ®
àª Ĥ
áĢ ®
àª ¤
ĠÐ °
Ø ¬
áĥ ķ
à¤¿ à¤
Ð¾Ð ´
Î ¯
Ð ¹
e n
o r
Ġ ç
æ ľ
Ðµ ÑĤ
Ġàª ķ
à® °
ŀ ×
à¸ ¡
Ð¸ ÑĤ
áĢ Ĭ
Î ¼
Ø ²
àª ķ
Ġ20 1
a r
ĠÐ ³
ĠØ Į
Ð°Ð ´
à¯ Ī
Ð¾ Ð½
àª ®
Ø§Ù ħ
áĥ £áĥ
àµ Ĩ
àª µ
Ġàª ª
ĠÙ ģ
à¤ Ĥ
áĢ ±
ļ Ħ
Ð¾ Ð»
Ġ p
Ø§Ø ª
à® ¤
ĠÙ Ħ
áĢ ļ
ĠØ ¹
à¯įà® ¤
i t
àµį âĢ
à¸ ¥
áĢ ŀ
áĢ ľ
Ð°Ð º
å Ī
e s
ĠáĢ ¡
å ¤
Ð¾Ð ¼
Ï Į
i s
ĠØ ±
a l
ç ļĦ
Ġ b
Ù ĥ
å ħ
Ġ ê
× ª
à¸Ļ à¸
¨ àµįà´
Î ¬
ãĢ Ĳ
Ġ f
Ġ Ûģ
Î¿ Ïħ
Ġàª ¸
í ķ
à¥ ĭ
Ġáĥ ¡
ĠÙ ¾
o u
Ð° Ñģ
áĥĲáĥ ľ
à´ ¤
ĠãĢ ĳ
áĢ¬ áĢ¸áĢ
. .
ĠãĢ Ĥ
Ġ |
à¸ Ķ
Ġáĥ ĵ
Ð¸ Ð½
à¸ ´
Ġ×Ķ ×
à¦ ¨
àµįâĢ į
à° ¨
ĠØ ¬
áĢĦ áĢº
ĠãĢ ģ
à¸ §
Ġ 5
ä »
Ðµ Ð´
áĢ ģ
áĥ ¡
Ġc om
áĢ «
áĥ ł
Ġ m
Ġ áĥĲáĥ
Ġt he
Ð½ Ð¾
àª¾àª Ĥ
à¤ ¨
Ġàª ®
áĢ ¶
Ġ× ľ
Ð ¶
à° Ĥà°
Ġ 4
à¸ ¢
ķ àµįà´
Ġ Ñĥ
à± ĩ
Ġ è
à® ©
áĢ »
Ġ× ĳ
Ġà ¹
Ñģ Ðº
Ġ Ø§Ù
àª¾àª °
ï ¿½
Ø µ
ÛĮ Úº
Ð¾Ð ³
Ðµ Ð»
à° °
ĠãĢĳ ãĢĲ
áĢ °
ĠØ ´
à± ĭ
e d
Ò Ľ
ç ½
Ġ S
Ú ¾
Ġ d
® à¯į
Ġ× Ĳ
à® Ł
Ġ A
0 0
áĢĢ áĢ¹áĢ
à´ °
à¸ ļ
Ø ®
Ñ İ
à¦¾à¦ °
in g
ä ¹
à§ ģ
Ġ h
× ĳ
Ò ³
Ġà ¥
å Ľ
Ñ Ĭ
l e
× Ĳ
Ġ ÏĢ
ÙĪ Ø±
æ Ĺ
ãģ ®
Ð°Ð ·
Ø ·
Ġà¤ ¸
Ġ o
Ġáģ ĭ
æ ĸ
à«ĭ àª
à¤ ¤
Ġà® ª
ç½ ĳ
à¤ ķ
áĥ ļ
ë ĭ
ĠÐ ¡
Ð¸ Ð»
à§ Ł
Ġáĥ Ĵ
Ï ī
Ð¸ ÑĢ
ĠÎ º
Ġàª ľ
Ġà¥ ¤
áĢĦáĢ¹áĢ ¸
Ðµ Ðº
âĢ Į
Ġ C
Ġ â
å ½
n d
Ġàª ¤
à® ³
i c
×ķ× ª
Î Ń
à«įàª ¯
Ġ Ïĥ
×Ļ× Ŀ
Ġà¦ ķ
Ø§Ø ¯
æ Ī
ĠÙ ĩ
ä ½
Ġ× ©
Ðµ Ð¼
ķàµįà´ ķ
å ľ
ì ŀ
ĠØ ®
ĠÎ ±
Ġ Û
à° ²
¨àµįà´ ¨
áĢ ¡
Ġàª Ĩ
ĠÐ Ł
Ġ T
Ġà¦ ¸
Ñ ŀ
Ġ é
Ġ '
àª¿ àª
Ġà® ķ
áĢĶ áĢ¹áĢ
Î ³
à¸ °
ç Ķ
Ġ P
Î ®
Ġà¦ ¬
à¸ ķ
Ð°Ð ¹
áĥĶáĥ ļ
Ġàª ħ
à«įàª °
ĠáĢ ±áĢ
ĠØ Ń
Ġà¤ ¹
Ñ ĺ
áĥĲáĥ Ľ
àª¨ à«ĩ
à¯įà® ª
à¸ Ĺ
a s
× ©
Î± Î¹
× ł
Ġà¤ ®
ĠØ§Ø ³
ĠÐ µ
Ġ M
Ġàª µ
ķ à¯įà®ķ
Ð½ Ð°
áĢ² áĢ·
ĠÚ© ÛĮ
i on
ĠâĢ ĭ
Ġàª Ľ
å ¹
à¦ ²
à® ²
áĤ Ķ
ĠØ £
å Ĳ
Ġ in
Ð¾Ð ±
ĠØ ¢
ĠâĢ ľ
ĠÑ ĩ
à¤ ²
à¦ ķ
áĥ ĵ
ãģ Ħ
Ù ī
à¸ ª
Ġ l
ĠÐ½ Ðµ
ì Ĺ
áĢĢ áĢº
Ġà¦ ª
Ġà´ ª
Ø± ÛĮ
à¯Ī à®
áĢ ¾
Ï ĩ
Ġ I
e t
Ġ ?
à± Ģ
à´ ¯
áĢ± áĢ¬
Ġ× ŀ×
Ġà¤ ª
ĠÎ µ
ĠÐ· Ð°
Ġ í
à¯įà® Ł
ÑĤ Ð¸
áĥ Ľ
Ð°ÑĤ Ð°
å Ĭ
ĠÚ© ÛĴ
Ð°Ð ³
Ġà® µ
Ġ n
i l
àµįà´ ¤
à§ĩ à¦°
Ġt o
à° ķ
Ð°Ð ±
ĠØ§ÙĦ Ùħ
áĥ ľ
áĢ ĸ
Ñ Ħ
ÙĪ ÙĨ
Ġà° ª
Ú Ĩ
ĠÙ Ĥ
Ñ į
àª¾àª ¨
ĠÐ ľ
à¸ «
ï¿½ ï¿½
à«ģ àªĤ
Ġ Ú¯
áĥ ¢
à§ ĭ
à¸ Ħ
áĥĲáĥ ĵ
Î¹ Îº
äº ļ
Ø§Ø ¨
à¹ Ħ
à¤ ¸
à¦ ¤
Ð°Ñ Ĩ
à´ Ĥ
å į
ĠÐ Ĵ
æ ¸
Ġàª ¹
ĠÙħ ÙĨ
ĠÎ ¼
ĠØ¯ Ø±
äº º
Ġàª ¨
Ġà® ®
Ġ 6
à¥ ģ
ãĥ ¼
ĠÐ ł
ĠáĢ Ģ
ĠÐ ļ
Ġ Ñĸ
Ð½ Ñĭ
à«Ģ àª
àµ ĭ
ÑĢ Ð¸
Ġà´ ķ
Ġ Ø§ÛĮ
à¯ ĩ
Ðµ Ð½Ð¸
× ĵ
Ð² Ð°
Ðº Ð¸
ĠáĢ Ļ
ĠàªĽ à«ĩ
à´ Ł
Ġà® ħ
ìĿ ´
ÙĬ Ø©
Ð¾ Ñģ
áĥĲáĥ łáĥ
à¦ ¬
æ ī
en t
ÙĨ Ø¯
Ø§Ø ¦
Ġ B
ĠÐ »
Ġï ¿½
ç ī
Ï į
Ġ ;
ÙĪ Ø¯
Ġa nd
Ġ. ..
Ø ¶
Ġ !
àµ ĩ
Ġo f
e l
ĠáĢ ŀ
× ¢
Ġáĥ ł
Ø³ Øª
à§įà¦ °
Ðº Ð°
à¦ ®
Ġàª ¬
ĠÐ Ĳ
à± Ĩ
áĥĶáĥ ľ
ĠâĢ ĵ
ĠâĢ Ŀ
ä¸ Ģ
s t
Ġà® ¤
æ ĺ
àªĤ àª
áĥĲáĥ ķ
× Ĺ
áĢĬ áĢ¹áĢ
Ġà° ķ
áĥĲáĥ ¡
Ð¾Ð º
ãģ §
à¤ ¹
áĢħ áĢ¹áĢ
à¹ ģ
Ġ Ñı
Î ´
Ð´ Ð°
à´¿à´ ²
Ġàª °
Îµ Î¹
àª ²
Ġ 8
Ġ× ķ
ļ áĥĺ
ĠÐ´ Ð°
à±įà° °
àµįà´ Ł
i d
Ġà® ļ
r o
Ø £
ï ¼
à® µ
è ¿
è ½
Ġáĥ ĺ
a m
à°¾à° °
à¥įà¤ ¯
Ġ 7
åı ĳ
å °
ãģ Ĺ
àª £
Ù İ
Ð½ Ñı
à¯ģà® ®à¯į
Ġ g
àª ¹
à®¿à® ²
à§įà¦ ¯
Ġà° µ
áĢ¬ áĢ¸
ä ¼
ĠÐ Ŀ
ĠÑģ Ðµ
ëĭ ¤
à¸²à¸ £
ãģ «
åĪ Ĩ
à±ĩ à°
Ġ D
ÙĪ ÙĦ
ĠÑ Ī
Ð°Ñ Ī
à´ ®
Ġ 9
Ø ¦
Ð½ Ñĸ
Ġ u
ĠÐ ĳ
ÛĮ ÙĨ
à¸Ń à¸ĩ
à´ ³
à¸ ·
à¥ Ī
ĠÑģ ÑĤ
Ġà´ µ
Ġ ãĥ
Ġáĥ ¨
à®¿à® ¯
Ġà¦ Ĩ
ĠÛ Ķ
ê ³
à¸µ à¹Ī
a c
ĠÚ© Ø±
Ø§Ø ³
Ġ Ø§ÙĨ
å½ ©
Ġ1 0
à¸ ¸
Ø °
Ĳ áĢ¬
ë Ĭ
Ġà® ĩ
ĠÂ »
Î¹ Î±
Ð¸ Ð¼
áĥĲáĥ ł
2 0
àµģà´ Ĥ
Ï Ĩ
× §
ì §
è µ
ĠÙ Ĭ
à¹ Į
ãģ ¦
à¥įà¤ °
áĥ ®
à¹ ĥ
áĢĢ áĢŃáĢ¯
ĠÙħ ÛĮÚº
áĥĿáĥ Ľ
æ¸ ¸
Ðµ Ñģ
Ġ %
ìŀ ¥
à¦¾à¦ ¨
å ¿
Ġà° ®
à¹ ĩ
ĠØ§Ù Ī
à§ Ģ
è ®
Ġáĥĵ áĥĲ
à¤ ®
Ġà° ħ
Ñĥ ÑĢ
à¤¾à¤ °
Ġàª ı
áĤ ı
ĠáĢ ľ
Ð¾Ð ·
Ð¸ÑĤ Ðµ
ĠØ¨ Ùĩ
Ġà¦ ®
a d
à¯ Ĩ
Ð° Ð½Ð¸
å ¼
w w
Ġt h
à´ ¨
ì Ħ
Ð¾Ð ¶
ãģ ¨
Î ¸
Ġà´ ¸
ĠÐ Ķ
× ¤
ĠâĢ Ļ
Ġ N
ĠáĢ Ĳ
ãģ ª
é Ģ
Ġà¦ ı
a y
Ġà° ¸
Ð ł
a g
× ŀ×
àª ª
à¸ Ī
ëĬ Ķ
ĠÙģ ÙĬ
ĠÑ Ħ
è §
ç »
Ġ1 9
o t
ĠÐ ¢
áĢ® áĢ¸áĢ
Ð» Ñı
à´¤ àµįà´¤
¨ à¯įà®¤
àª ¸
ä¸ ĭ
à´ µ
Ð¾Ð ¹
ê °
Ġa g
Ġw ww
a p
Ġà´ ®
Ñĥ Ð²
à´ ²
àµįà´ °
Ġ R
Ġå ¤
Ġáĥ¡ áĥĲáĥ
à¸ Ľ
ĠÏĦ Î·
Ġ re
Ġ× ¢
à¸ ¹
ĠÑ ŀ
Ð¸ Ñı
å® ĺ
ĠÐ¿ Ð¾
Ï İ
ì ł
× ŀ
ĠÑ ħ
Ð» Ð°ÑĢ
Ġ e
ÏĦ Î±
Ġà® ¨
ç «
áĥĺáĥ Ĺ
ĠÐ¾ ÑĤ
Ĳ áĢ¼
Ġàªķ àª°
Ġ H
Ġ ÛĮ
ãģ Ł
å ¸
àª® àª¾àªĤ
× Ľ
æ Ŀ
ÑĤ Ð¾
ãģ Ļ
¾ áĢĢ
× Ŀ
áĢ¯ áĢŃ
Ġà´ ¨
ãĥ ³
å¤ §
áĢĲ áĢ¹áĢ
Ġ W
Ð¸ Ñģ
ãģ Į
áĥĿáĥ ĳ
ãĤ ĭ
Ġáĥ Ļ
ÙĬ ÙĨ
ª à¯įà®ª
o l
Ġì Ŀ
ÛĮ Ø¯
ä¸ Ń
Ù ¹
Ġà´ ħ
áĢ Ĩ
Ð°Ñ ĩ
Ø «
Ġ =
à° Ĥ
å Ń
Ñĥ Ð´
Ð¸ Ð·
i g
Ñ ī
ì ķ
åľ ¨
Ġ v
àª¨ àª¾
áĥĲáĥ ļ
Ġ y
¶ ľ
å Ĩ
Ġà¦ ¨
åĽ ½
à´ £
Ð¾Ð³ Ð¾
å º
c t
à® £
Ð°Ð ¿
áĥ Ĺ
àª¨ à«Ģ
ĠØ¹ ÙĦ
Ġ F
è ¯
à® ®
ãģ ¯
ç º
å ·
Ġ L
Ø§Ø ²
ç İ
ĠØ¨ Ø±
à¦ ¸
Ĥ ¬
Ïģ Î¿
ĠÙ ĥ
Ġà¤ ¬
Ġáĥ Ĺ
à® ±
é ĩ
áĢķ áĢ«
Ġà¹ Ģà¸
à¯įà® ±
Ġà¦ ¹
àª¾àª ®
áĢĦ áĢ¹
Ġà¤ ¨
Ð¸ Ð´
ÙĪ Úº
Ġ G
i m
ĠáĢ ķ
à´¿à´ ¯
áĢĶ áĢº
à« Ĥ
Ġà® İ
Ġ× Ľ
é Ļ
à¯ ĭ
ĠÂ «
ĠÛģ ÛĴ
áģ ¾áĢĢ
áĥ łáĥ
áĥĶáĥ ¡
áĢļ áĢ¹áĢ
ĠÎ ´
ÏĦ Î¿
áĢķ áĢ¹áĢ
æĹ ¶
ĠØ µ
áĢļ áĢ¹
Ġ1 2
à±įà° ¨
¨ áĥĺ
ìĹ Ĳ
Ġ ãĤ
áĥĺáĥ ľ
à¥ĩ à¤
Ġáģ Ĭ
Ġ ]
Ġ1 1
à° ®
Ø§Ù ĩ
ÛĮ Ø±
à¥ĩ à¤Ĥ
Ġàª ¦
ë §
áĢ ³
Ð¸ Ð²
ĠáĢ Ľ
Ġáĥ Ķ
ĠÎº Î±Î¹
Ð¾Ð ¿
Ġà¤ ħ
ĠØ§ÙĪ Ø±
æ Ĭ
à´ ¨àµįà´¨
Ġà¤ ľ
áĢĬ áĢº
ãģ ¾
à¤ ª
¶ľ ìŀ¥
ç ľ
ì§ Ģ
àª° à«įàª
Ġ E
Ġà° ļ
íķ ĺ
Ġà¤ µ
×ķ× ¨
à´ ¸
áĥĶáĥ ł
à° ¤
æ ³
à´ ±
ĠÐ ŀ
Ñģ Ñı
ĠÐ² Ð¾
áĢ ĳ
è ¡
à¯įà®ķ à®³
» áĢķ
Ġàª ²
ç Ľ
Ð°Ñ ħ
× ĺ
Ġ ÒĽ
Ïģ Î±
Ġà¦ ¦
àµįà´ ¯
å ¥
ĠÐ ¶
Ġà¤ķ à¥ĩ
Ġà¤ Ĩ
áĥĶáĥĳ áĥĺáĥ¡
à°¾à° ²
v e
ĠÐ¾ Ð´
Ð Ĳ
Ùĩ Ø§
àµįà´ ª
ë ¡
Ð¸ Ð½Ð¸
Ð³ Ð°
ÑĢ Ñĥ
ĠÐ ĵ
Ġ× Ļ
Ġ [
Ġà° ¨
Ġï¼ ļ
Ðµ Ð·
à¥ Ĥ
ĠØ§Ø ²
Ġà¤¹ à¥Ī
æĺ ¯
o w
ìĿ ĺ
ÏĦ Î·
à°¿à° Ĥà°
ãĤ Ĵ
ÑĤ Ð°
à±įà° ¯
à¤ Ĺ
Ðº Ñĸ
ĠÙĪ Ø§ÙĦ
å İ
ĠÙħ ÛĮ
Ġáĥ ŀ
Ù ¾
Ðµ Ð²
ĠÚ© ÙĪ
Ġà §
Ġ ÚĨ
Ġàª ¶
ÏĦ Îµ
å ¾
à´ ª
ìĿ Ħ
Ġì ŀ
Ñĸ Ð´
à®¤ à¯įà®¤
à®¿à® °
u r
ì ĭ
Ø º
æľ º
Ñ ĳ
ĠØ³ ÛĴ
ÑģÑĤ Ð²
ÙĪ Ùħ
áĥĲáĥ ª
å ĩ
ÑĤ Ðµ
ĠØ§Ø³ Øª
à§įà¦ ¤
ä¸ į
à¸ ³
à® ®à¯į
áĢ® áĢ¸
Ġà¤ ¦
Ñĥ Ð¼
Ð°Ñ ŀ
àµ Ģ
áĢĻ áĢº
à®¿à®² à¯į
ĠÑ į
× ¡
Ø§Ø ¹
Ø ¸
ç ¥
àµįà´ ļ
Ð¾ ÑģÑĤ
å Į
àµģà´ ¨àµįà´¨
ê ¸
à´ ķàµįà´ķ
à¸ ŀ
à´ ķ
à° µ
Ġ #
áĢ½ áĢ¬
Ñ Ĺ
ÙĦ ÛĮ
c h
ĠØ ²
à® ķ
e w
ĠÐ¾ Ð±
Ļ àµįà´
× Ĵ
Ġàª Ĺ
à¸ Ĥ
ĠáĢ ħ
à´¾à´ ¯
à¸ Ĭ
´ ë
Ø§Ù ģ
ÏĢ Î¿
Ñĥ Ð»
à«ģ àª
à ¨
Ġà´ ¤
à¯ Ĭ
Ïĥ Î·
Ġ on
à®¤ à¯ģ
Ġ Ò³
ĠÑ Ĩ
Ð¸ Ðº
Ġ× ŀ
à° ¸
à¤ µ
Ġå¤ §
Ðµ Ð¹
Ġ. .
à®¿à® ©
à®¾à® °
é Ĺ
æ Ģ
Ġà¦ķ à¦°
ĠâĢ ¦
Ġà¦ ¤
Ø± ÙĪ
æī ĭ
¥ à«Ģ
áĥĺáĥ ļ
áĥĶáĥĳ áĥĲ
Ð¸ Ñĩ
áĤ ķ
è ´
à° Ł
Ð½ Ð³
à° ¦
æĸ ¹
å ±
ĠÏĦ Î¿
Ïī Î½
Î¯ Î±
à¦ ¦
à¤ ¦
ĠÏĦ Î¿Ïħ
u t
i r
è½ ½
ĠØ ¥
s e
Î¼ Î±
à¯Īà® ¯
à° ª
Ġà° ¤
à±įà° ¤
ÑĨ Ð¸
à±įà° ²
Ð¸ ÑĪ
à° ¡
Ġ1 5
Ð ¡
àª¾àª µ
ĠÎ ½
Ġ k
ĠØ§ÙĦ Øª
Ġàªħ àª¨à«ĩ
ĠØ ·
ä¸ĭ è½½
ÙĬ Ø±
à¸± à¸ļ
ĠÐ £
ãģ ĭ
íķ ľ
áĢĻ áĢ¹áĢ
Ġà¤ ²
u l
à¯ģà® ķà¯įà®ķ
ķ áĢ«
ì Ĭ
Ġà¤ °
Ð°Ð ¶
à® ¯
ĠÂ Ń
Ð¸ ÑģÑĤ
áĥ Ĵ
ä¸ Ĭ
e m
Ġì ł
ĠÐ¸ Ð·
Ġà¦ ħ
áĥĶáĥ Ľ
å¹ ³
Ġà¤ ¤
à¹Ī à¸²à¸
Ġáĥ ¬
æľ ī
à¤¾à¤ ¨
áĢĶáĢ¹áĢ ¸
Ñĥ Ð½
áĢħ áĢº
×Ļ× ª
Ġ is
Ġ O
à¯ģà® ¤
è Ģ
àª ¯
Ġy ou
à´¿à´ ķàµįà´ķ
à§ĩà¦ ¨
æ °
u n
áĥĿáĥ ¡
Î½ Î±
ļ àµįà´ļ
ĠÚ© Ø§
ĠÑģ Ð¾
ì ļ
áĥĶáĥĳ áĥĺ
à¦ Ł
ĠÚ© Ûģ
à¦ ª
ĠÎ ¿
Ð°Ð» ÑĮ
å¹ ´
äº Ĩ
ĠÐ Ĺ
ä ¿
ë¡ ľ
ãģ £
ç Ļ
à¹ Ĥ
ĠâĢ ĺ
Ð° ÑģÑĤ
åı °
Ġáĥ £áĥ
áĢļ áĢº
ê³ ł
à°¿à° ¨
áĢĢ áĢ¹
áĥĿáĥ ľ
at ion
Ïģ Î¹
à°¾à° ¨
à¸ģ à¸²à¸£
ĠÎ ³
Ġà¦ ľ
Ġs t
ë ı
å®ĺ ç½ĳ
Ġ201 9
Ð³ Ð°Ð½
Ġà´ İ
æ ķ
à´ Ļàµįà´
Ġ1 8
Ġ1 3
ãĥ¼ ãĥ
ĠÐ ĺ
à¸²à¸ ģ
ÑĢ Ð¾
t h
ÑģÐº Ð¸
ì ¶ľìŀ¥
Ġf or
ĠÙ¾ Ø±
áĥ£áĥ ł
å ¯
à° ¯
à°¿à° ķ
Ø§Ù Ĥ
Ġ +
ä¹ Ĳ
é Ľ
Ðº Ð¾
×ķ× ľ
é ¢
Ñĺ Ð°
l y
ãĤ Ĭ
ç Ĳ
ê° Ģ
Ø§Ø ¡
à®Ł à¯įà®Ł
ÑĨ ÑĮ
Ġ20 0
à«įàª Ł
à®¾à® ©
i f
ê ²
à® Ļ
áģ Ģ
Ð¿ ÑĢ
ë ¦
Î ²
àµ Ĥ
Ðº Ñĥ
t er
å¿ «
àª Ĺ
à¸²à¸ ¡
Ø¨ Ø±
ÐµÐ½ ÑĤ
Ñĸ Ð²
Ð´ Ð¸
Ġ×© ×ľ
à¤° à¥įà¤
âĢ ĭ
Î ĳ
àµįà´ ±
1 0
¯ äºļ
à±įà° Ł
o d
ĥ ½
áģ ¿
Ġ J
áĥ §
Ø§ Ú©
Ø§Ø ´
× ¦
æĹ ¥
Ð ŀ
áĢĦáĢ¹áĢ ·
Ġ× ł
à¤ ļ
áĥĺáĥ ĵ
Ā Ā
à± Ĥà°
áĢĦáĢº áĢ¸áĢ
Ī ëĭ¤
ãĤ ¹
ĠÐ² Ð°
å Ŀ
Ù Ĳ
Ġáĥ ķ
ãĤ Ĥ
ap p
Ġê °
à±ģà° ²
ÛĮ Ùħ
å ĵ
áĢŃáĢ¯ áĤĶ
à® ¨à¯įà®¤
áĢ¯ áĢ¶
ĠØ§ÙĦ Ø£
Ġ1 6
áĢĢ áĢ¼
áĢĬ áĢ¹
Ġà¤® à¥ĩà¤Ĥ
ï¼ Į
ë ¥
Ð°ÑĤ Ð¸
Ñĥ ÑĤ
Ġáĥ ĳ
Ġ r
àª ¦
àª¾àª ¯
Ġ1 4
Ġ ãģ
à¦¿à¦ ķ
Øª Ø±
a b
ĠáĥĲáĥ ł
à´° àµįâĢį
àª ľ
Ø§Ù Ī
ĠÙħ Ø¹
æ Ķ
æ Ń
æ µ
ĠÑģ Ð²
àª ¡
à¸²à¸ ¢
t t
Ú Ī
áĥĶáĥ ķ
ĠØª ÙĪ
à¤ ¯
ĠÎ ĳ
à¹ Ģ
à«ĩàª ²
à´¾à´ £
áĢ±áĢ Ķ
è ¦
ì ľ
ĠÛģ ÙĪ
Ġå¤§ åıĳ
Ġà° °
áĢ¬ áĢĢáĢ¹áĢ
à¸Ĺ à¸µà¹Ī
é ģ
Ġ× Ĺ
æ ´
Øª ÛĮ
çº ¿
ì ĥ
Ðµ Ð³
Ġì ķ
ĠØ§ÙĦ Ø¹
ĠØ§ÛĮ ÙĨ
à± Ī
ĠÎ¼ Îµ
à¸£ à¸°
Ġë °
v er
Ġ2 5
à¹Ī à¸Ń
æ ŀ
å® ¶
Ð¾ Ð¸
Ġ K
áĢĬáĢ¹áĢ ¸
áĥĶáĥ Ĺ
ê¸ °
Ñĥ Ñģ
æ ł
æĪ ı
à¦¾à¦ ²
×Ļ× ¨
Ġ U
áĥĺ áĥĲ
ä¼ ļ
ìĦ ľ
Ġb e
à®¾à® ķ
Ġ1 7
Ðµ ÑģÑĤ
u s
ãģ Ĩ
æ İ
áĥĲáĥ ®
à¸Ķ à¹ī
áĢ¬ áĢĦáĢ¹áĢ¸
ãĥ ĥ
Î½ Î¿
à´ ¨àµįà´
Ðµ ÑĪ
ìĿ ¼
Ġ äºļ
ãĤ Į
à¯ Ģ
Ġàª Ń
Ġ }
å¹³ åı°
à®° à¯į
Ðµ Ñĩ
à®¿à® ±
é Ŀ
æ¸¸ æĪı
ĠáĢ Ĩ
áĢĲ áĢļáĢ¹
à´¿à´ °
ãĤ ¤
Ø§Ø Ń
Į Ģ
ĠÐ² Ñĭ
u m
ÛĮ Ø§
ç §
ÙĦ Ùħ
à´¿à´ ¨
ãĤ ī
ĠÙĨ ÛĴ
àª¾àª ¤
áĢ±áĢ Ľ
a k
Ġàªª à«įàª°
áĢĲ áĢº
ĠâĢ Ķ
Ð ĺ
Ġà¹ ģ
áĢ¶ áĢ¯
ÏĦ Î¹Îº
Ð½Ð¾ ÑģÑĤ
Ð¸ Ð»Ð¸
ÑĨ Ñĸ
à¸£ à¸µ
Ġà¦ª à§įà¦°
ì ĸ
à¯įà® ļ
ÐµÑĤ Ð¾
Ø§Ø± ÛĮ
Ġáĥł áĥĿáĥĽ
ì Ľ
áĥ£áĥ ļ
å ĳ
àª ³
Ú¾ ÛĮ
å¼ Ģ
Ð» Ñĸ
ÑĨ Ð°
ä¸ ī
ĠØ± ÙĪ
áĢ· áĢº
ĠáĢ ģ
áĥĲáĥ ¢
l o
Ù Ģ
ĠÑĢ Ð°Ð·
à´¾à´ °
à® ªà¯įà®ª
ê µ
ç ¾
áĥĲáĥ Ĺ
à¦¿à¦ ¨
æ ĭ
ĠÎ½ Î±
áĢķ áĢº
à´¾à´ ¨
à¤ £
8 8
çĶ ¨
ç« Ļ
ë Ĥ
áĢ ĺ
ĠÎ ķ
ĠÙħ ÙĪ
ĠáĢ Ķ
à® ļ
à´Ļàµįà´ Ļ
à¦ Ĺ
æīĭ æľº
Ð¸ Ð¹
Ġà®İ à®©
áĥ£áĥ ļáĥĺ
ĠÚ© Ùĩ
Ð¾ÑĤ Ð¾
Ġà¦ °
à°Ĥà° ¦
å Ĵ
à¹Ī à¸ĩ
Ġà® ī
à¤ ¡
Ø± Ø¯
× Ł
áĥ ĳ
å¤ ©
Ġ V
ĠØ¨ Ø§
à¯ģà® ķ
ë ĵ
Ø± ÙĬ
ìĿ Ģ
ĠáĢ Ĵ
Ñı ÑĤ
Ð°Ð½ Ð´
à±į âĢĮ
ĠÎ ł
Ġàª¹ àª¤
it h
à¦¾à¦ ®
Î Ł
Î ¾
à¥ĭ à¤Ĥ
æĸ °
Ġ2 2
Ġ >
ãĥ Ī
Ġ0 0
Î Ļ
ì Ĥ¬
- -
áĥĲáĥłáĥ Ĺ
áĤ Ī
×ķ× ĵ
à¯ Ĥ
Î¼ Îµ
Ġàª ¥
áĢ Ŀ
áĥĶáĥ łáĥ
à´¿à´² àµįâĢį
Ġà¤ ¯
áĢĲ áĢ¬
áĢĻáĢ¹áĢ ¸
à¤¾à¤ ¤
ĠÐ¸ Ð½
Ð½ Ðµ
à¸· à¸Ń
Ġà¤ķ à¥Ģ
Ñĥ Ñĩ
ĠÐ´ Ð¾
c e
Ī ĺ
Ġà¤ Ĺ
áĢ± áĢ¸áĢ
àª ¥à«Ģ
Ñĥ Ð±
áĥĶáĥ ĵ
ĠÎ Ń
è Ĥ
Ġáĥ ľ
Ġ× ª
Ġà° Ĩ
ĸ áĥĶ
áĢŃáĢ¯ áĢ·
à±ģà° ¨
àµįà´ ²
Ġ Ø§Ùħ
à¤¾à¤ Ĥ
Ġà¦ ¶
ì ²
à«įàª ¤
×ķ× Ł
à¦° à§įà¦
áĥĿáĥ ķ
ĠÐ Ľ
Ġ201 8
ĠØ¹ÙĦ Ùī
Ġà´ ĩ
à± Ĭ
o p
Ġà¸ ª
es t
àª ¶
áĥ ª
Ù ı
ĠÐ¿ ÐµÑĢ
ĠÑģ Ð¿
áĢŃáĢ¯ áĢĦáĢ¹áĢ
ÙĨ ÛĴ
£ ¼
ÏĢ ÏĮ
Ù ĳ
Ġê ²
r i
ĠÐ¿ÑĢ Ð¾
o s
Ġ3 0
Ġ Ò
ĠÙħ ØŃ
Ġì Ĺ
Î» Î¿
ĠÑĤ ÑĢ
×ķ× ĳ
à¤¿à¤ ¯
è¡ Į
Ġà´ ļ
à®¿à® Ł
àµģà´ Ł
Ø¯ Ùĩ
Ø± Ø¨
Ġ× ¨
à´¿à´ ļàµįà´ļ
áĥ ¥
áĥ Ļ
àª¿ àªķ
Ð°Ñ ļ
áĢĸ áĢħáĢ¹áĢ
ìĬ ¤
Ø³ ÛĮ
Ġç İ
Ġàª ļ
áĥĺáĥ ł
ÏĦ Î¹
à±ģà° Ĥà°
à¤ ¬
ÙĨ Ø§
Ġà¤ķ à¤°
×Ļ× ł
à¤ ľ
Ø§Ø ¬
Ø§ÙĨ ÛĮ
Ġàª® àª¾àª
ÙĦ ÙĬ
à±ģà° ķ
Ð¾Ð» ÑĮ
à¦ ¼
åĴ Į
ĠÎº Î±
Ġà¦ ¯
Ø± Ùģ
æĿ ¥
×ķ× ł
i a
à¦¾ à§Ł
áĥĿáĥ ĵ
an d
áĢ±áĢ ĲáĢ¬
áĢ½ áĢŃ
àª Ł
à¤¾à¤ ²
Ġå ħ
ĠÏĦÎ· ÏĤ
Ġ) .
Ġ ä»
çĶ Ł
ĠØ± Ø§
ĠâĢ ŀ
áĢ² áĤĶ
Ġ j
à®¾à® ²
Ø ¥
æ ¬
áĢĲ áĢ²áĢ·
à®© à¯į
ìĿ ¸
ä¸ º
Ġà°ª à±įà°°
ĠàªĨ àªµ
Ð¾ Ð½Ð¸
àª §
/ /
Ŀ ¼
Ġï¿½ ï¿½ï¿½
à¦¿à¦ ¤
Ġ" :
Ðµ Ð±
Ø§Ù Ĭ
Ġàª «
à¦¿ à§Ł
àµģà´ ķ
Ġ× ¤
à¯įà® ²
Øª Ùĩ
ĠáĢ ĳ
Ġáĥ ®
à¸² à¸Ļ
Ġàªª àª°
Ĺ à°¾
Ñĸ Ð½
Ð°Ð´ Ð¸
×Ļ× Ķ
Ġ2 1
ë¦ ¬
ĠÑĤ Ð°Ðº
à«ĩàª ®
Ġà¤ķ à¥ĭ
áĢ±áĢ ĲáĢ¼
åĩ º
is t
at e
çī Ī
Ùħ ÙĦ
Ġàªķ à«ĩ
er s
ĠÑģ Ð»
à¦ ¹
à¤ Ł
áĥ ¨áĥĺ
ig h
m ent
ÙĬ Ø¯
á ŀ
Ġ" ,
è ĩ
áĢŃ áĢ³
à¤¨ à¥ĩ
Ġì ĺ
áĢŃáĢ¯ áĢ¸áĢ
Îµ Î¯
ãĤ ĵ
Ġà¤ Ń
å ¨
Ġà´ Ĩ
Ð°Ñ İ
à°¿à°Ĥà° ļ
à¦¾à¦ ķ
ä½ ĵ
åľ °
Ġæ ľ
ç½ĳ ç«Ļ
Ð Ŀ
ëı Ħ
ÑĢ Ñĭ
à¸ ĸ
Îµ ÏĤ
Ñĸ Ð»
ÛĮ Ú©
æ ²
Ġà¤ ī
Ðµ Ð¶
Ġ it
o st
Ð¸ Ð¸
à¸¥ à¸°
Ø¹ Ø¯
Ġ×Ĳ ×ª
ë§ Ī
ĠT he
ĠÎ £
áĢĶ áĢ¹
à® ´
Ġë §
à¤¿à¤ ķ
áĤı áĢ½
ĠÐº Ð¾
áĥĺáĥ ª
ĠÐ¸ Ð¼
áĢģ áĢº
Ġáĥ ¤
Ġ201 7
áĥķ áĥĶáĥļ
Ġa l
Ġc on
Ġàª ĸ
ĠÐ¿ Ð¾Ð´
áĢķ áĢ¼
Ġáĥ ¥
å ī
áĥĿáĥ ļ
ĠÐ° Ð´
Ø§ Ûģ
ä½ ľ
áģ¿ áĢķ
à¯įà®ķà®³ à¯į
à®¿à® ķ
à® ķà¯įà®ķ
Î¿ Ïį
ĠÎ ļ
áĢĻ áĢ¾
à¯ģà® µ
ĠÐ¼ Ð¾Ð¶
Ð¾Ð² Ð°
è ī
Ġï¼ ī
Ġà¦ Ĺ
× ĸ
ãģ ı
6 5
Î £
ĠØ§ÙĦ Ø³
Ġ $
a v
å Ł
ĠÏĦÎ· Î½
Ġáĥ ©
Ġà® Ĩ
åħ ¬
æ ĥ
« ĺ
Ùħ ÛĮ
Ġ2 3
ì ĺ
Î ¶
Ð°ÑĢ Ð¸
ĠÛģ ÛĮÚº
Ľ à§ĩ
ä ¾
é ¡
à®£ à¯įà®Ł
an g
à´Ł àµįà´Ł
Ñ Ķ
ÐµÐ» ÑĮ
à¹Ģà¸ Ľ
áĢĽ áĢ¬
Ùħ Ø§
Ġw ith
àµ Ĭ
ãĥ «
Ġ2 4
àµ ½
åĲ Ī
à¸± à¸ĩ
Ġ {
ÑĢ Ð°
àª¿àª ¯
tt p
Ġì ĭ
áĥĿáĥ ł
Ġàª¤ à«ĩ
áĢ Ł
à¸¡ à¹Ī
ÙĨ Ú¯
àµ ¼
Ñģ ÑĮ
Ïİ Î½
Ð¾ Ñĩ
à§ģ à¦
Ĺ à¸µà¹Ī
ÑĤ ÑĮ
Î± Î½
×Ļ× ľ
à®¿à® ¤
à°¾à°° à±ģ
Ġ &
à´ª àµįà´ª
ìĭ ľ
ë ħ
Ġå ı
áĢŃáĢ¯ áĢĦáĢº
Ð°Ð³ Ð°
ĠáĢ »
Ð½ Ð¾Ð³Ð¾
ĠÎ ¤
à¸± à¸Ļ
à°¨ à°¿
Ġà «
Ġ× §
ë¥ ¼
Ġà¦ ļ
Ġàª ī
Ù Ĵ
à¸ ¶
Ġ: //
ĠÑ ī
àªµ àª¾
à¸± à¸Ļà¸
o c
à¦¾à¦ ¦
il l
Ñĥ Ðº
áĢĲ áĢ½
àª ¬
áĢ» áĢķ
Ġa n
Ð¾ ÑĪ
áĥ ¬
Ø¦ ÛĴ
Î¯ Î½
Ð ¢
åľ¨ çº¿
es s
ä¸ ª
å° ı
Ġì Ħ
à¸²à¸ ĩ
àª¨ à«įàª
è ¾
Ð¸ Ñħ
Ġï¼ Ī
ê ±
ÙĨ ÛĮ
Ð¸Ð½ Ð°
Ð ķ
ĠØ¨ Ø§ÙĦ
à§įà¦ Ł
ĠáĢ ĺ
áĥĶáĥĳ áĥ¡
å¸ Ĥ
åĿ Ģ
æ Ļ
Ġa t
æ³ ¨
æľ ¬
Ġà° ¬
æ ±
Ġàªª àª£
Ġh ttp
à°° à±įà°
ë °
ew s
íķ ´
ÑĢ Ð°Ñ
Ġà¤ ĩ
æĪ ·
áĢ¬ áĢĦáĢ¹áĢ
ĠáĥĲáĥ Ľ
Ġà¤¸ à¥ĩ
áĢ Ĵ
ĠØ£ ÙĨ
Øª Ùħ
Ġê ³
Î ķ
Ġà¸ ģ
o re
Ġà° ¦
Ð°Ð» Ñĸ
í Ĭ
çĲ Ĩ
æ Į
àª¾àª® àª¾àªĤ
å½© ç¥
Ġth at
Ġà° ĩ
àµĩ à´
e c
à¥įà¤ ¤
¯ à¦¼
i p
Ú ĳ
àª¨ à«ĭ
à¹Ħ à¸Ķà¹ī
Ñĥ Ñİ
áĢ¯ áĢķáĢ¹áĢ
o k
à¹ī à¸Ń
ĠÎ ľ
ĠØ§ÙĦ ØŃ
à¸± à¹ī
ĠÐ ¤
Ġà¤ª à¥įà¤°
Ġ ÏĮ
Ġp ro
ä¸ ļ
Ġ× Ĵ
Ġà¦¬ à¦¿à¦
æľ Ī
Ġ0 1
ĠØ º
Ġ or
à´¿à´ ķ
ÑĬ ÑĢ
ĠÎ³ Î¹Î±
ç¾ İ
Ð°Ð» Ð¸
ãģ į
ì ¹
ĠÙĨ Ûģ
áĥĿáĥ Ĵ
q u
ĠÐ¿ÑĢ ÐµÐ´
a in
Ġà¤ ¶
ĠÐŁ ÑĢ
ĠÙĦ ÙĦ
ë ³
Ġ×ľ ×Ķ
àª¾àª ¸
áĥĿáĥ łáĥ
à´³ àµįâĢį
e x
çľ Ł
à¹ĥ à¸«
Ġà ¨
éĽ Ĩ
áĥĺáĥ ¢
Ġáĥĵ áĥĲáĥ
ãĢ Ĥ
áĥĵ áĥĲ
ãĤ ¯
æ Ħ
à¦¾à¦ ¤
çĶ µ
ou r
è§ Ĩ
à§įà¦ ¬
ĠÐ´ Ð»Ñı
Ð°Ð½ Ð½Ñı
1 9
æ ¯
ãĥ ©
i k
ÙĬ ÙĦ
ÙĪ Ø¨
à´¾à´£ àµį
ĠÐ ¥
à¸µ à¸¢
à«įàª µ
² à±ĭ
ìķ Ī
Î» Î»
Ġ× ĵ
Ġ) ,
Ġà° ī
ĠáĥĴ áĥĲáĥĽ
Ġ0 2
Ø± Ø§ÙĨ
ĠÎ± ÏĢÏĮ
áĥĺáĥ Ļ
ĠÐ¼ Ñĥ
Ñĥ Ð¿
áĢ±áĢ¬ áĢĦáĢº
ar t
± ä¹Ĳ
è Ī
Ø¦ ÛĮ
é ĺ
ÑĢ Ð°Ð½
ĠØ§ÙĦ ÙĦ
à¦¿ à¦°
Ġà° Ĺ
Ġà¤ ı
à¸ ĵ
è¦ ģ
u b
Ġ0 3
Ðµ Ð¿
è ĥ½
ç ł
Ġà¸ Ħ
åħ ¨
å®ĺ æĸ¹
ĠÐ ķ
ë ¶
à¦ ľ
éĻ ħ
Ġ Ïĩ
áĢ±áĢ ľ
Ðµ Ð»Ð¸
ĠÎ ·
à¥ģ à¤
Ġà¤ ļ
ĠÎ ¸
Ð» Ð°Ð´
à´ ¦
Ø± Ùħ
Ġ×Ķ× ŀ×
à¦ ĩ
Ġw h
à®¿à®© à¯į
æĪ Ĳ
igh t
à±įà° ª
Ñģ Ð¿
áĢĻ áĢ½áĢ¬
åŃ Ĳ
ãĢ ĳ
Ġa s
ÙĦ Ø§Ùħ
Ġå ĩ
å Ģ
ë ł
áĢĲ áĢ¼
Ġà´ °
à°¨ à±įà°¨
áĢľ áĢŃáĢ¯
åĵ ģ
à¦¾à¦ ¬
ĠÑĪ ÑĤÐ¾
1 1
Ó £
ĠÑĤ Ð°
í Ļ
e b
Ġà´ª àµįà´°
Ġ×ľ ×Ĳ
àª¿ àª¤
à¯įà® ³
à®¿à® ķà¯įà®ķ
ç Ń
ĠÙħ Ø³
ĠÐ ¹
à¸ ľ
ÐµÐº ÑĤ
ÑģÐº Ð°
e p
Ò ĵ
é ĥ
Ġì §
ãģ ĵ
ÛĮ Øª
áĢ¸áĢ ±áĢ
i v
Ñĭ Ñı
Ġ \
à®¾à® ¤
íĬ ¸
éĹ ¨
ÏĦ Î¬
àª° à«Ģ
Ð°ÑĤ ÑĮ
Ġ20 20
.. ..
ãģ¾ ãģĻ
å¨ ±ä¹Ĳ
n t
Ïģ Î¬
àµģà´ ¤
àµĨ à´¯
àª ļ
ä» ¥
ç Ĥ
à´£ àµįà´Ł
âĢ Ŀ
à«ĩàª µ
àµįâĢ Į
ÐµÐ½ Ð½Ñı
Ġáĥ Ŀ
à¦¾à¦ ¸
Ð¸ Ð±
Ġb y
ãĥ ª
é «ĺ
×Ļ× Ł
áĤ Ģ
Ġàªı àªķ
à¦¾à¦ ĩ
ì £¼
Ùĩ Ø§ÛĮ
àµģà´ ®
or t
an t
ĠìĿ ´
åĪ °
Ð½Ñĭ Ñħ
Ð°Ñ ĺ
Ġå °
à¦ Ĥ
å¤ ļ
u re
ĠÐ³ Ð¾Ð´
à® ª
Ġà¦ ī
ĠÙĩ Ùħ
Ðµ ÑĨ
Ð½Ð¸ Ð½Ð³
à° Ĺ
ãģĹ ãģ¦
Ġ0 9
ĠÏĥ Ïħ
à¹Ģà¸ ¥
Ġ× ¡
Ġ he
Ùħ ÙĨ
à¯įà® µ
Ġà¦ ĵ
ĠÐº Ð¾Ð¼
Ñĥ Ð²Ð°
ãģ ķ
äº ¬
ĠÎ Ķ
Ġçİ ¯äºļ
à¯ģà® ®
Ġà®ļ à¯Ĩ
Ð°Ñļ Ðµ
ĠÏĢ Î¿Ïħ
×ĳ ×¨
ëĭ Īëĭ¤
à¸± à¸ģ
Ġäºļ æ¸¸
Ð¼ Ð¸
áĥłáĥ Ĺ
à®² à¯į
×ł ×Ļ
áĥĺáĥ ķ
áĤĢ áĢĢ
ĠáĢ ĸ
àªĤàª Ĺ
à¤¿à¤ ¤
ou t
ÐµÐ½Ð¸ Ðµ
Î¹ Ïĥ
à´¤ àµį
åŃ ¦
Ġà¦ Ń
o g
áĥĶáĥ ¢
é Ĵ
Ġ×¢ ×ľ
è ¨
Ġå ½
Ġë Ĥ
è ģ
ÙĪ Ø²
) ;
ĠÐº Ð°Ðº
ÎŃ ÏĤ
Ġà° İ
ĠÙħ Ø´
ãĢĳ ãĢĲ
à°ķ à±įà°
à ©
áĥĺáĥ Ľ
à¦ £
Ł à«ĩ
à®¾à® Ł
áĢĻ áĢ»
Ġ201 6
Ñĥ ÑĪ
Ġs h
Ġàª¸ àª¾àª
à§ĩà¦ ķ
Ïģ Î¯
äº ĭ
× ļ
à°¾à° ¯
Ġà¤ Ķ
it y
ãģ£ ãģ¦
Ġå ®
ÐµÐ½ Ð°
à§ ľ
Ð´ Ð°Ð½
à¹Ī à¸Ļ
à¯įà® ©
ç ¨
Ġàªµ àª¿àª
Ġ0 5
in e
Ġ× ĸ
Ġà¤ª à¤°
Ñ ĵ
Ġc n
å· ¥
in d
Ð ļ
ÛĮ Ø´
ìŀ Ĳ
à¤ §
Ùĩ Ùħ
Ġ0 8
à¯ģà®¤ à¯įà®¤
Ú¯ Ø±
Ġà° ľ
¦ à°¿
çĻ »
Ð° Ò³
Ø§Ø µ
ìľ ¼
ĠÙħ Ø±
Ġë ĭ
àª¾àª ľ
áĥķ áĥĺáĥ¡
Ł à¸£à¸µ
è½ ¦
à¯ģà® Ł
Ġê ·
Ġè ¿
àª¾àª ²
ĠÐº Ð¾Ð½
áĥĶáĥ Ĵ
Ġ2 6
ãģ Ĥ
Ġà¤¹ à¥ĭ
Ġà¤Ķ à¤°
Ð¾ÑĢ Ð¸
±áĢ ĲáĢ¬
Ġáĥ ¢
p p
åĽ ¢
Ġa re
å ģ
å® ī
à°Ĥà° Ł
ģ áĢº
à´ ķàµįà´
ac k
éĩ ĳ
ç ¤
åĽ½ éĻħ
ĠáĢŀ áĢ°
áĢĦ áĢ·áĢº
à ·
Ġàª Ł
ÏĦ Î±Î¹
Ð»Ð¸ Ðº
) .
Ġ ä¸
á ł
9 9
ãģ§ ãģĻ
×ķ× Ŀ
áĥĶáĥļ áĥĺ
Ġå Ī
à±ģà°¨ à±įà°¨
åĽ ¾
à®² à¯įà®²
ë Ŀ¼
Ġà¸ £
Ġà°ļ à±ĩà°
ĠÑĤ Ð¾
Ð» Ð¾
áĥ ¨
æ³ ķ
Ġãĥ »
ÎŁ Î
å½©ç¥ ¨
à´¿à´ Ł
Î¹ Î¿
ÙĤ Ø¯
ĠáĥĴ áĥĲáĥľ
Ð¾ÑĢ Ð¼
×ķ× Ĳ
Ġ0 4
à°¿à° ¤
Ġì Ĥ¬
à«ĩàª ¶
Ñĭ Ð¼
ĠÐ´ Ð°ÑĢ
Ġæ Ī
à¥įà¤¯ à¤¾
Ġ1 00
Ġ Y
à¤¿à¤ ²
Ġ0 7
áĥĲáĥ Ĵ
ĠÙĩ Ø§ÛĮ
ĠØ¹ ÙĨ
ĠâĢĭ âĢĭ
l d
ç ®
ĠÐ³ ÑĢ
àªµ àª¾àª¨
áĥĺ áĥĲáĥľ
à«ĭ àªķ
à¦¿à¦ ²
Ùħ Ø¯
àµįà´ ³
Ð°Ð± Ð¾ÑĤ
ĠØª Ø¹
Ġæ Ĺ
à±įà° µ
ÐµÐ½Ð¸ Ñı
ĠÐ² ÑĸÐ´
áĢ¸áĢ Ļ
ãģ ł
Ġàª° àª¹
ĠØª ØŃ
áĢ±áĢ ŀ
áĥĺáĥ Ŀ
Ø§Ø ®
Ġà®ĩ à®°
ĠØ¨ Ú¾ÛĮ
Ġ2 7
Ġàª®àª¾àª Łà«ĩ
ĠÑģ Ð°Ð¼
è ¶
áĥ ŀ
æľ Ģ
à§ģ à¦²
áĢ±áĢ ķ
ag e
çľ ĭ
ĠÏĢ ÏģÎ¿
à¹Ī à¸²
ÙĪ ÛĮ
Ġà¤ķ à¤¾
ĠÐ ¨
ct ion
×Ļ ×ķ×ª
à®Ļ à¯įà®ķ
Ġ2 8
é £
æ Ľ
åħ ¥
Îµ Î½
ĀĀ ĀĀ
à´ Ĺ
à¹Ģà¸Ľ à¹ĩ
æ £
ìĽ Ĳ
Ġc h
ÙĪ Ø§ÙĨ
àª¾àª £
éĥ ¨
Ð½Ð¸ Ðº
ĠÎµ ÏĢ
àª Ń
±áĢ Ķ
1 2
áĢ¬ áĢ¹áĢ
¸ à±įà°¤
id e
ĠÛĮ Ûģ
áĥ ¦
Ð¸ Ð³
áĥĺáĥ ļáĥĺ
a il
Ġà´ Ĵ
ç½ĳ åĿĢ
i ve
ĠÐ¾ Ñģ
àª¾àª ¦
áĥ £
ĠØ§ÙĦ Ø¬
åı ¯
Ïģ ÏĮ
áĢ±áĢ¬ áĢĢáĢº
æ ı
à®± à¯įà®±
Ñĸ ÑĤ
áĢĻ áĢ½
Î® ÏĤ
ë ŀ
à¤¾à¤ ®
¡ à±ģ
Ġ0 6
ë ©
Ġth is
ģ áģ
áĢĸ áĢ¼
Ġáĥ ª
Ġê ¸
ì Ĩ
×Ļ× §
å® ¢
ÙĪ Ø¹
Î Ĺ
à¸¡ à¸µ
áĢŀ áĢĬáĢ¹
a re
×Ļ× ĳ
ãģĹ ãģŁ
Ĳ áĢ²áĢ·
er e
_ _
à¥įà¤ Ł
ĠÏĥ ÏĦÎ¿
b er
Ġå ľ
Ġå į
áĢ ¥
Ð°ÑĢ ÑĤ
ÙĦ Ùī
Ġ Ø§Ø±
Ġë ª
Ð¸ Ðµ
è® ¡
à§ĩà¦ ²
à¤¾à¤ ¯
ĠÑĥ Ñĩ
áĢ² áĤķ
à°Ĥà° ¤
áĥĲáĥ ĺ
×Ļ× ©
ç ´
Ð°Ð² Ð°
Ñĭ Ñħ
Î¿Ïħ Î½
ĠÐ §
àª¤ àª¾
à§ĩà¦ ¶
s s
om e
Ġà® Ĵ
Ġë ³
à«ĩàª Ł
èĩ ª
ĠáĢĢ áĢŃáĢ¯
ç ķ
ĠÙħ Ø¯
ĠàªĨ àªª
é ķ
áĥĺáĥ £áĥ
à´¾à´ ¤
å ķ
áĥĲáĥ ¨áĥĺ
Ð Ķ
Ïģ Î³
Ĥ °
Ġ5 0
à¸£ à¸²à¸
ĠØ§ÛĮ Ú©
Ïĥ ÎµÎ¹
ĠØ¢ ÙĨ
1 8
ĠÑı Ðº
Î¼ Î¿
ĠØª Ú¾
ĠØ§Ù ģ
áĥļ áĥĺáĥ¡
Ð¾Ð¼ Ñĥ
Ġ i
§ à§
à¸£ à¸´
áĢ±áĢ¬ áĢº
è ·
u st
ĠÐ¿ Ð¾Ð²
ë ¬
Ġì Īĺ
à«ĩ àª°
à¸µ à¹ī
Ġå Ĳ
áĢ¼ áĢ¬áĢ¸áĢ
Ġáĥ §
Ġáģ ı
Ġà°µ à°¿à°
ĠÙħ Øª
à§ģ à¦°
6 6
ÙĪ Ø³
ãģ ĳ
à§įà¦ ·
à° ļ
à¦ ¶
àµģà´Ł àµĨ
ç¥ ŀ
ĠÐ± Ñĭ
à¦¾à¦ ľ
Ø§Ù ĭ
à¤¾à¤ ¸
à¤¤ à¤¾
Ġà¹ Ĥ
Îĳ Î
ĠÑģ ÑĬ
çī Į
à¸§ à¸²à¸¡
ĠØ¨ ÙĨ
Ġà´ ¬
Ġ *
Ð°Ð¼ Ð¸
ĠÏĦ Î±
ĠØ§ÙĦ ÙĨ
à¸£ à¸±à¸ļ
ä¹ ĭ
Ġà¦ª à¦°
áĢģ áĢ²áĢ·
ĠÐ± Ñŀ
å ł
ĠÐ² Ñģ
áĢ Ĥ
áĢŀ áĢĬáĢº
Ġà¸ Ń
áĥĲáĥ Ļ
åį ķ
àª¾àª° à«ĩ
ĠÐ² ÑĢ
Ġt r
Ġáĥŀ áĥł
ĠÎ ²
ÐµÑĤ Ðµ
Ð³ Ð¸
×Ļ× ĵ
Ùħ Ø§ÙĨ
à¹ī à¸Ńà¸ĩ
ĠÙħ ÙĦ
ÙĢ ÙĢ
å® ļ
r om
æĹ¶ å½©
Ġ2 9
ä¿ ¡
ĠØ °
éĽĨ åĽ¢
èµ °
ĠØ§ÙĦ Ø´
Ġà¦ı à¦ķ
çİ ¯äºļ
ìĸ ´
Øª ÛĴ
ar d
å¥ ½
à ¶
à¹ĥà¸« à¹ī
al l
èĢ ħ
Ġì ¹
à¸· à¹Īà¸Ń
Ø ¢
à¤ ¼
Ġ ä½
ĠØ§ÙĦ ÙĤ
áĢ¬ áĢĽ
Ú© ÛĮ
ãĥ³ ãĥ
åĬ Ľ
en d
ĠÐº ÑĢ
åĬ ł
Ġ": "
ĠÑģ Ðº
Ġs e
u d
Ñĸ Ñĩ
é ¦
Ġáĥĺ áĥ¡
ĠØ§ÙĦ Ø¨
Ð Ĵ
± àµĨ
5 0
èĤ ²
ÑĤ ÐµÑĢ
Ġê µ
à±ģà° ¤
ĠØ§ÙĦ Ùģ
Ġ×Ķ× Ĳ
ãĤ ¢
Ðµ Ñħ
ä¹ Ī
æĸ ĩ
ĠÙħ Ø¬
à¤¾à¤ µ
ĠÏĥ ÏĦÎ·
7 7
Î» Î·
à«įàª¯ àª¾
ĠI n
i z
åī į
ĠÚ© Ø§Ø±
±áĢ ĲáĢ¼
ľ Ðµ
Ġs p
à¹ī à¸²
Ġìŀ Ī
ä¸ ĩ
à¦¤ à§ĩ
ĠÐ ¯
ç Ħ
Ġe x
Ġ ÏĨ
Ġç Ķ
Ø§Ø ·
à®³ à¯į
Ġå Ľ
å½ ķ
ĠT h
à´ ´
Ø³Øª Ø§ÙĨ
é¢ ĳ
à´¿ àµ½
± Û
à«įàª ²
áĢ¸ áĢĢ
Ñĸ Ð¹
¾ ³
Ð¾ Ð»Ð¸
à¹Ī à¸§
ì² ľ
à«ĩàª ķ
2 2
å §
ÑģÑĤ ÑĢ
âĢ ¦
ĠØ§ÙĦ Ø¯
áĢ¸áĢ ŀ
í ĸ
à¸£ à¹Į
Ú¯ ÛĮ
Ð¸ÑĤ ÑĮ
±áĢ Ľ
ÙĦ Ø§
ÐµÐº Ð°
as t
a ve
æĹ¶ æĹ¶å½©
Ġæ ĸ
Ð½Ð¸ ÑĤÐµ
ãĥ³ ãĤ
Ð ľ
ĠS t
Ġàª¤ à«ĭ
Ð Ľ
à¤¨ à¤¾
åĬ ¨
Ġà´ ī
çİ °
¹ Ħ
Ġàª ¡
à¤¾à¤ ¹
à¸Ĥ à¸Ńà¸ĩ
Î± ÏĤ
i al
áĢ¯ áĢķáĢº
i es
ĠáĢ »áĢķ
Ð¸ Ð´Ð°
ĠÚ© ÙĨ
Ð» ÐµÐ´
àª¿ àªµ
ĠÎ Ł
æĬ ķ
à«įàª¯ à«ĭ
Ñĸ Ñı
ĠÏĢ Î±
Ġàª¸ àª®
Ġà´ ľ
ĠÐ³ Ð¾
×ķ× ¤
Ġâ ķ
Ġà¦ ²
éĢ Ł
Ġà¦ ¥
Ġ", "
ĠØ§Ù ¾
¯ ¸
Ġë ĮĢ
ĠÐ¿ Ð»
ãĤ Ī
é ĸ
Ġï¼ ģ
Ġì ĥ
à´¾à´ ²
Ġê· ¸
ģ áĢ²áĢ·
à®¿à® µ
áĥ£áĥł áĥĺ
ë§ Į
à¯ģà® ±
Ġ201 5
à¤¿à¤ ¸
Ð°Ñ Ħ
Ġàª¤ àª®
à¹Īà¸²à¸ ĩ
à°¨ à±ģ
è £
Î¼ ÎŃ
Ġâ Ĩ
à¹Ģà¸ ģ
í Ķ
åĬ ¿
å¿ ĥ
Ġà° ²
Ġ ä¸Ģ
åľ º
ĠØ§ÙĦ Ø¥
Ġa r
O M
ì Ĥ°
ĠØ¨Ø± Ø§ÛĮ
ĠáĥĽ áĥĿáĥ
Ð» Ð°
äº §
» ¿
Ġæ ĺ
à¸Ń à¸¢
à¹ī à¸²à¸
Ñį Ð½
ĠÙĨÛģ ÛĮÚº
à°ķ à±ģ
å¿« 3
Ñĥ Ð¶
áĥĶáĥ ¥
on e
Î½ Î·
áĥĲáĥ ļáĥĺ
ê² Į
ĠÏĥ Îµ
Ġåĩ ¯
à±Ĩ à°²
ĠÐ¿ Ð¾Ð»
áĢ±áĢĲáĢ¬ áĢ·
è´ ¹
à¦ Ń
Ġà´µ à´¿à´
Ġáĥ ļ
à¦ ļ
à«įàª¯ à«ģàªĤ
ĠÑ ĳ
ĠãĢ Ĳ
Ġ Ïħ
ĠÎ »
Î¿ Î»
3 0
ĠÂ ·
àµ »
áĥĽ áĥĲ
ĠáĢ ±
à¸´ à¸Ļà¸
å ĭ
Ġ Ø§
à¤ ¶
Ġ x
×Ļ× Ĳ
àµģà´ ³
áĢĨ áĢŃáĢ¯
×ķ× ©
àª Ī
àª¿àª ²
ĠÐ¿ÑĢ Ð°Ð²
Ð³ Ð¾
Ġà®ª à¯ĭ
áĥĺáĥ łáĥ
àª¾àª ³
Ġà´ ²
Ġë ¶
ìł ķ
áĤı áĢŃáĢ¯áĢĦáĢ¹áĢ
ëĵ ¤
Ð¾ Ñĺ
ä» £
Ø§Ø ¶
à¸´ à¸Ķ
ë ĮĢ
í ĺ
áĥĶáĥĳ áĥ£áĥļáĥĺ
ĠÐ° Ð±
à¤¹ à¥Ģ
ê³ ¼
à®¾à®° à¯į
à«ĭàª ²
ĠÐ± Ð¸Ð»
Ð¾Ð² Ð¸
ìĹĲ ìĦľ
åĪ ©
ÙĬ Ùħ
ÑĸÐ» ÑĮ
à¦¨ à§įà¦
åº ¦
à«įàª ¸
Ġå ¹
ãĥ¼ ãĤ
ĠÙģ Ø±
ĠØ± Ûģ
ĠÑ ĺ
Ð Ł
ë ª
ĠÎ± Î½
Ļ Ģ
áĢŀ áĢ°
×¨ ×Ĳ
à¦ §
áĢĽ áĢ¾
Ġà®ħ à®µ
ãĥ ¬
éģ ĵ
Ñı Ð²
åİ ħ
áĢ¬áĢ¸áĢ Ļ
Ġa d
Ïī ÏĤ
? ?
å £
Ð°Ð» Ð°
ìľ¼ ë¡ľ
Ø§Ø³ Øª
Ġ íķ
Ġà¦¸ à¦®
äº İ
áĥĶáĥĳ áĥĺáĥĹ
Ø§Ø¦ ÛĮ
à¸Ń à¸Ļ
à®¿à®¤ à¯įà®¤
à®© à¯įà®±
ĠØª Ùħ
æ´ ²
Ð» Ð°Ñģ
à±įà° ļ
Ð°ÑĨ Ð¸
ä¹ Ł
Ð½ Ð°ÑĤÐ°
à¯ģà® ³
à®¾à®© à¯į
ÑĢ Ð°Ð²
Ġàªķàª° à«Ģ
ĠØ§Ø ¨
àª¾àª Ĺ
ĠÑĸ Ð½
ä¸ »
éĿ ¢
Ġd e
Ð°ÑĨ ÑĮ
àµĨ à´¨àµįà´¨
à¸Ń à¸¥
×ķ× ¢
ÏĦ Î®
èµ Ľ
Ġáģ Ĥ
à´± àµįà´±
åĮ ĸ
1 6
Ġ le
×ķ× §
àµ ¾
Ġyou r
Î¬ Î½
à®¾à®² à¯į
ç Ł
Ð» Ðµ
Ġå Į
ÙĪ ÙĤ
ÙĦ Ùĥ
8 0
ic e
à¸¹ à¹ī
ĠØ¯ ÛĮ
ĠÐ¿ Ð¾Ñģ
à¥įà¤ µ
Ġà¦¹ à§Ł
à°² à±ģ
ÙĪ Ø´
à°ª à±įà°ª
Ð°Ð½ Ðµ
áĥĶáĥľ áĥ¢
Ġ0 00
Ð½Ð° Ñı
å¿« ä¸ī
àª¾àª° à«Ģ
é ľ
áĢ¬áĢ¸áĢ ŀ
à´¾à´¯ à´¿
çĤ ¹
ìĦ ±
ĠØª Ø±
Ġì ¶ľìŀ¥
áĢĬáĢ¹áĢ ·
àª¾àª Ī
áĥ£áĥ łáĥ
Ġáĥ¡ áĥĲáĥĽ
à´¨ àµįâĢį
Ġì ľ
Ġê° Ģ
áĢħ áĢ¹
ĠÂ °
Ġà¸ «
it e
Ð°Ñ Ĭ
Ġï¿½ ï¿½
Ïģ Îµ
ìķ Ħ
à´¿à´ ¨àµįà´
Ð¾ Ñŀ
áĥ® áĥķ
Ø° Ø§
¾³ éĹ¨
åĪĨ å½©
æŀ ľ
áģ¿áĢķ áĢ®áĢ¸
àªĤ àª¤
áĥĲáĥ ¨
r a
à¹Ħ à¸¡à¹Ī
à¦¾à¦ ¹
Ġ201 4
1 5
èī ²
áĥĲáĥ ĸ
å ¦
à°² à±ĭ
Ð°Ð½ Ð°
áĥĲáĥ ¥
Ġà´İ à´¨àµįà´¨
í Ĩ
å »
ĠáĢĴ áĢ®
Øª Ø§
Ø¨ Ø§Ø±
ÑģÑĤÐ² Ð¾
áĢĲ áĢļáĢº
ÏĦ ÏĮ
Ġà¦ ĩ
åĮ º
à¸ į
àµģà´¨àµįà´¨ àµģ
à¸ ©
Ùĩ âĢĮ
à§ĩà¦ Ľà§ĩ
Ò ·
àª «
Ø¨ ÙĬ
ÐµÐ½ ÑĮ
è§Ĩ é¢ĳ
ĠÏĦ ÏīÎ½
ä» ¶
Ð¾ Ñı
íĻ Ķ
Ð»Ð°ÑĢ Ð¸
àª¨ à«ģàªĤ
áĢ° áĢ¸áĢ
à«įàª ·
Ġà¤ «
Ġ4 0
áĥ ĸáĥĶ
áĢľ áĢ¬
Ġà¦ «
áĢŃáĢ¯ áĢĦáĢ¹áĢ¸
à¸´ à¸ķ
ãģ Ĭ
ĠÐ½ Ð°Ð¿
Ð¼ Ð°
o ok
Ïĥ Îµ
Ġà´ ¯
Ġ ä¸Ń
àµ Ī
Ġà®ķ à¯Ĭ
ĠØ¯ Ø§ÙĨ
Ġ$ (
à¯ģà® ¨à¯įà®¤
Ùģ Øª
à§ ¦
¬ ¬
Ġàª ¯
ĠÐ¿ÑĢ Ð¸
ĠÚ©Ø± Ø¯
ĠÐ± Ð°
à°¿à°ķ à°¿
à´¿à´ ¤
ê± ¸
u g
Ġåĩ¯ åıĳ
Ġà¸ ļ
ĠÐ± ÑĥÐ´
Ġà¤ ĸ
à°¿à° ¯
Î¯Î½ Î±Î¹
à´¨àµįà´ ¤
ÎĻ Î
áĢĲ áĢ¹
ĠÛ ±Û
áĥĶáĥ Ŀ
ĠÚ©ÛĮ Ø§
ÛĮ Ø²
è °
o v
Î» Îµ
ĠÙħ Ø§
ÑĨ Ñĭ
ë ²
âĢ ľ
à¸ ł
Ġà¤¹à¥Ī à¤Ĥ
f f
Î» Î±
à¹ī à¸§
3 3
à´² àµįà´²
éĢ ļ
Ġà¹ Ħ
ĠâĢ ļ
×ķ× Ĺ
Ġa m
à¤¿à¤¯ à¤¾
Ĺ äº¬
Ġà´ ¶
áĥĺáĥ ĸ
ĠØ ¶
u e
p t
ĠØ§Ø ¹
½ ľ
áĢĽ áĢ½áĢŃ
Ġà§ ¨
ĠÐ ¦
Ð¼ Ñĸ
è ²
áĢ± áģ¾áĢĢ
ìķĪ ë§Ī
ĠØ¯ Ø§Ø±
à¸ ĭ
àµįà´ ŀ
Ø² Ø§Ø±
Ð½ Ð°Ñĩ
Â µ
Ġ ÚĪ
Ġà¤ı à¤ķ
ãģª ãģĦ
ĠØ¨ Ø¹Ø¯
Ġàª ĺ
à°¿à° ª
à°Ĥà° ¡
on t
áĥĿáĥ ¤
Ġàª §
Ġàª¤ à«ĩàª®
áĢĶáĢ¹áĢ Ļ
ĠáĢ±áĢ Ľ
Ġà¤¨ à¥ĩ
ç« ¯
å¯ ¹
áĢ¬áĢ¸áĢ ľ
áĥĺáĥ ¨
Ġï¿½ï¿½ï¿½ ï¿½ï¿½
ĠØ® ÙĪØ¯
e ct
Ø³ Ùħ
åĨ Į
çĻ» å½ķ
à¸Ń à¸ģ
Ġà¸ ¡
à±įà° ¸
ĠØ¨ ÛĮ
à¹Ħ à¸Ľ
áĥķ áĥĶáĥľ
ĠÐ° Ðº
è ª
Ð°ÑĤ Ð¾
Ġà¸ Ļ
ĠáĢľ áĢ°
Ð² Ð¾ÑĢ
Ðµ Ñ
ĠÙħ ÙĤ
à¤¿à¤ ı
ĠÙĪ Ûģ
ĠØ Ł
ëĤ ĺ
ĠÐµ Ð´
à¯Īà® ķ
ÐµÐ½ Ð¾
äº Į
Ùħ Ø±
Î¿ Î½
Ġáĥ¡áĥĲáĥ ¥
ĠØ¨ Ø§Ø²
ĠØ³ ÛĮ
åĲ İ
×ķ× ¡
Ġ Ã
Ð½ Ð¾Ð²
Ø¯ Ø±
å½ ±
Ġ á
ĠÐ¾ ÑĢ
ĠÐ½ Ð¾
ãģ£ ãģŁ
àµģà´³ àµįà´³
Ġ Ĉ
æĥ ħ
à¯ģà®ķà¯įà®ķ à¯ģ
à¤¾à¤ ¦
ĠØ¥ ÙĦÙī
à¤¿à¤ ¨
Ñĥ Ñħ
ĠØ´ Ø±
ë į
Ð» Ñİ
ĠÐ¸ Ð»Ð¸
à«ĭàª ¡
Ġ im
åĪ Ĵ
ĠÐ¾ Ð¿
5 5
ë¶ Ģ
c k
Ø¨ ÙĦ
à±įà° ®
Îº Îµ
ĠÙ ¹
ìł ľ
æĪ ĳ
ìĥ ģ
ĠÒ³ Ð°Ð¼
Ð ĵ
ÑģÑĤ Ð°Ð²
Ġà¦ ĸ
Ġà¤ĩ à¤¸
ĠØ§ÙĦ Ø®
Ð½Ð¸ Ñħ
ĠÑģ Ð¸
à± Ĥ
ĠÐ° Ð²
à§ ĥ
»áĢķ áĢ¬
Ùĩ Ø±
Ġæ ¾³éĹ¨
à° ¹
à¹Ģà¸ Ķ
ĠáĥĶ áĥłáĥĹ
à¹Ī à¸Ńà¸ĩ
à§ Ĥ
ĠãĢ į
Ġå½ ©
Ð½Ñĭ Ðµ
à¸Ħ à¸§à¸²à¸¡
à° ľ
æ Ĵ
å¤ ĸ
æ Ł
ÑĬ Ð»
Ġìķ Ħ
æĸ Ļ
ĠØ¬ ÙĪ
4 4
áĥ ĸ
Ġ× ¦
Ġë ı
áĢķáĢ« áĢĲáĢļáĢ¹
ç ©
í ĥ
el l
áĥĲáĥł áĥĺ
Ġáĥ¨ áĥĶáĥĽ
áĢģ áĢ»
Ġê¸ °
ÑĤ Ð¾ÑĢ
Ð³ ÑĢ
Ġ201 3
Ñħ Ð¾Ð´
7 0
çľŁ äºº
à¤¾à¤ ľ
ĠÑģ Ð¼
ŀ àµįà´ŀ
Ġà¸ Ĺ
áĢŃáĢ¯ áĢĢáĢ¹áĢ
èµ° åĬ¿
àª¾àª° àª¾
Ġw e
Ġà¸ Ī
å° ±
åı ¸
çĲ ĥ
à¸± à¸Ķ
à§ĩà¦ ĩ
ĠÏĢ Îµ
àª ĸ
Ġà¦Ĩ à¦®
è¿ Ľ
à¦Ł à¦¿
ìł Ħ
ĠÎµ Î¯Î½Î±Î¹
à¤¤ à¥ĩ
ÑĢ ÐµÐ´
Ġf rom
à¤¾à¤ ļ
Ġ×Ķ× ©
é ¾
Ġæ ī
Ġà¸ ķ
Ġà®İà®© à¯įà®±
àµįà´ µ
æ³¨ åĨĮ
ª àµįà´ª
ë Ł
on g
ĠC OM
à´ ¶
Ð £
Ġà¸ ŀ
à®¾à® µ
àµįà´ ®
Î ¡
Ð½ Ð¾Ð¹
è Ĳ
ä» ¬
Ġåľ ¨
ä¹ ħ
Ø¯ Ùħ
à¸¸ à¸Ķ
áĢ ı
àª¶ à«ĩ
ĠC h
è ĭ
c c
çī ĩ
æľ Ł
Ġàª¹ à«ĭàª
Ġ íķĺ
ĠØ³ Ø±
ë Ĳ
Ġà®ħ à®¤
Ħ áĢ¶
×Ļ ×Ļ×Ŀ
à«ĩàª ¸
åı Į
ÙĬ Ø³
é ļ
áĥ ¤
Ñĩ Ð¸
à¹ģ à¸¥à¸°
ĠØ§ÙĦ Ùĥ
Ġp l
à¸Ī à¸°
Ñĩ Ñĭ
à¦¾à¦ ª
àª¾àª ķ
ĠáĢ ļ
à¸± à¸§
à¹ĥ à¸Ļ
¥ à«ĩ
à¸±à¹ī à¸ĩ
×Ļ× ¢
ĠØ§ÙĦ Øµ
àµģà´ µ
ar y
æ ¥
Ø ¤
ìĥ µ
¡ °
ä¿ Ŀ
ÙĦ Ø³
ou s
à±ģà°² à±ģ
à°¾à° Ĥà°
Ġ if
ç» ı
å® ŀ
Ð° ÒĽ
ĠÙħÛĮ âĢĮ
Øª ÙĦ
áĢģ áĢ¼
Ñĥ Ð·
å¾ Ĺ
à¤² à¥ĩ
åĲ į
Ġn ot
ĭ çīĮ
à¤ķ à¥įà¤
Ġìł Ħ
ĠÐ± ÐµÐ·
à¤° à¥Ģ
ĠáĢķ áĢ¼
à¸ ¨
ÑĥÐ² Ð°ÑļÐµ
Ġ201 2
ìł ģ
Î¯Î± ÏĤ
Ġà¦ Ľ
Ï Ī
à°¾à° ¤
æ º
àª¾àª¨ à«Ģ
ĠÐº Ð¾ÑĢ
à«įàª ®
as s
£áĥ ļ
Ġ3 1
à°¿à° ²
í ı
i e
Ġì ĸ
Ġc an
ĠØ§ÙĦ Ø±
Ġà®ļà¯Ĩ à®¯
áĢ° áĢ¸
ĠÑĢ Ð°Ð±Ð¾ÑĤ
Ġ) ;
áĥĺ áĥĺáĥ¡
é Ĥ
Ġw as
Ġë ¬
Ø§Ù ĥ
ĠÐ Ĩ
à¸Ľ à¸£à¸°
ãģĻ ãĤĭ
Ø±ÛĮ ÙĨ
im e
æ ¶
ĠÙĨ Ùħ
Ø§Ùħ ÙĦ
Î¿Ïħ ÏĤ
i b
à°¿à° °
ĠØ§Ø ®
åĲ Į
æ į
Ġ× ĺ
à§įà¦ ª
ĠÙĨ Ø¸
åŁ İ
æĬ Ģ
à¤ Ń
Ñĸ ÑĹ
6 0
åĨ ħ
à¯įà® ®
Ġ3 5
ĠÐ½ Ð°Ð²
áĢĶ áĢ²áĤĶ
ç Ī
ëħ ¸
ĠÑ ľÐµ
Ġàª¶ àªķ
Ðº Ð¾Ð²
æ° ´
à°Ł à±įà°Ł
ĠÎ ĵ
à¸Ļ à¸µà¹ī
àª¾àª ĩ
Ó ¯
à®¾à® ¯
à¹Ģà¸ Ĥ
ç ³
æīĭæľº çīĪ
Ġv ar
êµ Ń
Ð½Ñĭ Ð¹
at a
ĠÑĢ Ð¾Ð·
ĠÎ± Ïħ
à´² àµįâĢį
ãģ ©
à¸ Ł
Ġì¹ ´
æŃ £
ĠÐ´ ÑĢÑĥ
à° ¬
ìĨ Į
Ø´ ÙĨ
Ø³ Ø¨
Ùģ Ø±
ÏĥÎ· ÏĤ
à°Ĥà° ²à±ĭ
Ñĸ Ð·
Ġì ļ
ĠØ¨ ÙĦ
à°¾à° ®
à´Ļàµįà´Ļ à´³
çŃ ī
à§įà¦ ¥
àªĤàª ¦
Î ¤
Ú ĺ
çī ©
å®¢ æĪ·
éĩ į
Ġï¼ Ł
ÑĥÐ» ÑĮ
Ø§Ø¯ Ùĩ
×ķ× ŀ
áĢ±áĢ Ļ
ãģ Ī
ÙĪ Ø¬
ex t
ĠÐ° Ð·
ĠÐ· Ð°Ð¿
am e
ļ Į
ãĤ ģ
è¿ ĩ
ãģĭ ãĤī
Ġ( '
» áĢģ
1 4
ĠÙĦ ÛĮ
à«ĭ àª¤
çł ģ
æ° ĳ
êµ ¬
Ġh ave
Ġæ Ŀ
Ħ à¸£
å¼ ı
Ġ×Ķ ×ª
à¸´ à¸Ļ
i re
Ġ X
áĢ¯ áĢĲáĢ¹áĢ
Ġà° Ī
à°¾à° Ł
è¿ Ļ
« áĥļ
ĠæĪ ĳ
è Ĭ
Ïģ Î·
Ġà¤ ¥
áĢľ áĢĬáĢ¹áĢ¸
í ħ
æ£ ĭçīĮ
an s
Ð°Ñ Ķ
Ñĸ Ñģ
ìļ Ķ
Ð² ÐµÑĢ
ĠÐ· Ð°Ðº
ĠØ¬ Ùħ
à¹Ģà¸ ŀ
Ġà¦¬ à¦²
ç ²
Ġà¦ Ł
Ð°Ñģ Ð¸
ÙĨ Øª
à¦¿à§Ł à§ĩ
ÑĤ Ñĭ
is h
åħ į
Ġì§ Ģ
ĠÐ± Ð°ÑĢ
Ġàª¸àª¾àª ¥à«ĩ
ĠØ³ Ø§ÙĦ
ĠØ «
ĠÎ ¬
Ġà¦ħ à¦¨
à«ĭàª Ł
Ð» Ð°ÑĤ
Ïģ Ïī
Ġìĭ ľ
âĢ Ļ
Ġg o
à´ ¹
Î Ŀ
Ġa b
Ð· Ðµ
o b
S T
Ġáĥ ĸ
ĠãĢ ĭ
æı Ĳ
Ñģ Ð¸
à¤¤ à¥Ģ
áĢ¯áĢŃ áĢĦáĢ¹áĢ
Ġà¤µ à¤¿à¤
è®¡ åĪĴ
p er
àªµ àª¾àª®àª¾àªĤ
é¾ Ļ
à´ ·
ĠÐº Ð°ÑĢ
è¡ ¨
Ġà§ §à§
ĠãĢ Į
Ú¯ Ø§Ùĩ
ĠÐ¿ Ð°ÑĢ
ÛĮ Ø³
é ĥ½
Ġ×ŀ× ©
ë³ ´
àµģà´ £
1 7
à¹Ģ à¸£
×Ĺ ×¨
Ø® Øµ
àª¾àª ¹
ĠÐ¿ Ð¾ÑĤ
áĥĲáĥłáĥĹ áĥķáĥĶáĥļ
ãĤ Ħ
à¸Ń à¸ļ
Ġcon t
´ Ģ
èµ Ħ
à¹ Ĩ
ä½ĵ èĤ²
à° £
áĢģ áĢ¯
p l
æ ģ
Ġ×Ķ× Ĺ
Ġï »¿
æķ °
à¦¿à¦ ¬
à¥ĩà¤ ¶
2 8
ĠâĢĭâĢĭ âĢĭ
Ġ×ĳ ×Ĳ
æĢ §
à°¾à° ķ
ÑģÑĤ Ð°Ð½
ĠáĥĶ áĥ¡
ĠÐ» Ñİ
è§ Ħ
ç Ŀ
Ð Ĩ
å ¢
à¦ ¯à¦¼
ĠáĢ±áĢ Ķ
áĢ¸áĢ Ľ
Ġ×ŀ ×Ķ
Ġu s
-- --
e ar
áĤ Ĳ
Ð½Ð¸ Ð¹
ĠÏĦ Î¹
Ñĸ Ðº
è¿ Ĳ
ĠÎ¸ Î±
×ķ× ¦
èµ°åĬ¿ åĽ¾
ĠÐ³ Ð¸
Î¹ Î¬
or d
ĠÐ½ Ð°Ð¼
à¦ ¥
åį ļ
¥ ¿
ĠÙĪ ÙĤ
Ġà® °
à«įàª ķ
à®¾à® ³
áĢ±áĢ «
Ġà¤¸ à¤Ĥ
áĢ» áĢĸáĢħáĢ¹áĢ
à®Ļ à¯įà®ķà®³
å± ķ
Ġà´Ĵ à´°
Ġà®ª à¯Ĩ
à°ķà±įà° ķ
Ġí ĺ
Ð¸ ÒĽ
ĠÙħ Ø·
Ñĥ ÑĢÐ¸
ĠØ´ Ø¯
ĠØ§ÙĨ Øª
ĠØ¬ Ø¯
r ou
2 4
ãĢ ģ
à¸Ħ à¸£
1 3
ìļ ©
áĢģ áĢ¶
Ñģ Ð»
ĠÏĦÎ¿ Î½
ÑĢ Ð°ÑĤ
Ġ×ķ ×Ķ
áĥĲáĥ ¤
à§ĩà¦ Ľ
2 5
áĥĺáĥ¡ áĥ¢
ĠØ¨ Ø¯
ãĥ Ń
ÑĤ Ð¸ÑĢ
ãĥ ķ
áģ ļ
à´¾à´ µ
×Ļ× ĺ
à«Ģ àª¤
ìĹ ħ
é ħ
ÙĦ Ø¨
ÑĢ Ð°Ð¼
à®¿à®Ł à¯įà®Ł
ĠÏĥÏĦÎ· Î½
½ľ ê±¸
¤ ĳ
Ġàª ĵ
ãģĵ ãģ¨
Ø¨ Ø¯
ķ áĢ¼
» áĢĻ
Ø± Ø©
ÙĤ Ø©
Ġag çİ¯äºļ
áĥĲáĥ ĳ
à¹Ģà¸ «
à«įàª ¥
9 0
å®¢æĪ· ç«¯
Ġà° Ń
ĠÑĢ Ð°Ñģ
Ñ ķ
áĥĿáĥ ª
ĠÛĮ Ú©
åħ ³
áĢķ áĢ²
åĬ ¡
àª¾àª¨ àª¾
ØŃ Ø¯
à¥ ī
è§ £
at ed
à¸ ĺ
Ð°Ð³ Ð¸
00 0
Ġu 0
áĢĻáĢº áĢ¬áĢ¸
ÙĪØ± ÛĮ
à«Ģàª ı
×ķ× Ĵ
ĠØ§Ù ĵ
à®¾à® ®
å» º
Ġà´ Ł
à¸²à¸ Ħ
à´¿à´¨àµįà´ ±àµĨ
à¹Ģà¸ Ĺ
æĹ Ĺ
åħ ĥ
ĠÑ İ
ĠØ§Ø Ń
Ð½ Ð°Ð¹
é Ķ
Ġå½© ç¥ŀ
Ġàªķ à«ĭàª
Ð¾Ð½ Ð°
à¤ Ī
×© ×¨
Ġ201 1
à´¿à´² àµįà´²
éķ ¿
ĠÐ½ Ð°ÑĢ
v i
Ð» ÐµÐ½
Ġ íķľ
Ġë ĵ
ĠØ¯ ÙĪ
Øª Ø¨
Øµ ÙĦ
ac t
ĠÐ½ Ð°Ð´
áĥĹ áĥĲáĥľ
áĥĲáĥ ĸáĥĶ
Ġà° ¶
ÑĢ Ð°Ð·
à´ ¬
ĠÎ Ĺ
ë© ´
×Ļ× ŀ
Ġà®µ à®°
Ģ áĢŃáĢ¯
Ġáĥ «
ĠáĥĲáĥ ĵ
Ñī Ðµ
àª ¥
Ġà®Ĵ à®°
ĠÐ¿ Ð°Ð´
Ð² ÐµÑĤ
ÐµÑĢ Ð¸
à« ĥ
à¥ Į
Ġç ļĦ
å ĸ
Ġàªķ àª¾àª°
Ġí Ļ
à¸ģ à¸±à¸ļ
ac h
ëı Ļ
áĢ¸áĢ Ĳ
ab le
Ð°Ñ ĳ
Ñĸ Ð¼
ĠÐº Ñŀ
à®³ à¯įà®³
ĠÐ¾ Ð½
Ġâ ĸ
ic k
Ġç ľ
ì Īĺ
à±ģà° °
à¦¬ à§ĩ
áĢ¬áĢ¸áĢ ¡
Ġìł ľ
áĥĿáĥĳ áĥĺáĥ¡
í Ħ
Ġà¦ķà¦° à§ĩ
ĠÙĤ Ø±
çĽ ®
ÛĮ ÙĦ
ĠÐ´ ÐµÐºÐ°
Ġáĥ¨ áĥĶáĥ
å¥ ĸ
ĠìĿ ´ë
A N
å· ŀ
Ġé ĩ
à¦¿à¦ ¸
ĠáĢ» áĢĻ
Ð½ Ñĥ
áĢķ áĢ¹
à¸Ļ à¹Į
Ø§ÙĨ Ùĩ
à°Ĥà° Ĺà°¾
æĺ İ
Ļ áĢº
åĪ ¶
à«ģ àª°
à´ ļàµįà´ļ
ÙĬ Ùĩ
à¦ķ à§ĩ
ä½ į
Ð² Ð¸
äº ¤
Ġà° ¹
×Ļ× ¤
æ¯ Ķ
ĠáĥĹ áĥĲáĥķ
åı £
áĥ£áĥ ľ
ĠáĢĢ áĢº
à°° à±į
Î± Ïĥ
Ġw ill
à´ Ń
à°¾à°² à±ģ
à«įàª ª
Ð° Ñı
ĠÑī Ð¾
ãģ ¡
ĠâĢ ¢
ÙĤ ÛĮ
×ł ×ķ
à¦ ĸ
à«Ģàª ĵ
éĩ ı
ãģ ¤
ĠÐ¿ÑĢ Ñĭ
ãĤ ¿
çĽ ´
Ñĸ ÑģÑĤ
ĠáĢ¡ áĢŀ
p e
±áĢ ķ
à®¿à® ªà¯įà®ª
à´¾à´ ķàµįà´ķ
Ġ ä¸į
at h
Ġà¸ §
ķáĢ« áĢĲáĢļáĢ¹
çī ¹
Ġê² ĥ
ĠÐ´ Ð¾Ð±
Ġáĥĺ áĥľ
Î¸ Î·
à¹ī à¸Ļ
Ġâ ĺ
ĠÑı ÐºÑĸ
à¥įà¤ ¹
ãĤ ·
Ġáĥĺ áĥĽ
Ļ à§įà¦
Ð» ÑĮ
ç³ »
Ġ×Ķ× ¢
ĠR e
ç µ
ìĬ µ
Ñı ÑĢ
àµĨ à´Ł
×Ļ× ¡
ĠáĥĴ áĥĲáĥĵ
Ø¯ Ø§Ø±
Ġà®µ à¯ĩ
é »
äº Ķ
Ùħ Ø§ÙĦ
he n
à¤¨ à¥Ģ
¶ Ķ
ì§Ģ ëħ¸
ä¸ İ
a h
Ø§Ø¦ ÛĴ
ĠØ§Ø ¯
Ð½Ñĭ Ð¼
áĢŃ áĢĲáĢ¹áĢ
Ø§Ø¯ ÛĮ
à¹ĥ à¸Ĭ
ĠÏĦÎ¿Ïħ ÏĤ
Ð°Ñ ī
áĢĶ áĢ¾
à¸¸ à¸ĵ
åĽ ŀ
Ð¸Ð½ Ð³
ëĭ Ī
é ĵ
à¸£ à¸¡
áĢ¸áĢ ¡
åĳ ĺ
Ġà´ ¦
Ġàªħ àª®
Ùħ Ø§Ø±
ĠÐ¿ Ð¾ÑĢ
å± ±
à¸² à¸Ļà¸
ĠØ¬ ÙĨ
à¸« à¸Ļ
àµģà´ ±
æµ ·
à¯ģà® ªà¯įà®ª
Ġ/ /
ĠÎ´ Î¹Î±
Î¹Îº ÏĮ
áĥĿáĥĳ áĥĲ
áĥĲáĥ ¦
Ġâ Ħ
! !
à´¾à´¨ àµįâĢį
à´ķàµįà´ ·
r y
à«ĩ àª¨
Ġà¹ģ à¸¥à¸°
à°ļ à±įà°ļ
ĠÐ° ÑĢ
Ġæĸ °
àµģà´¤ àµįà´¤
Ðº Ð°Ð·
ÑģÑĤ Ð²Ð°
Ġ en
Ġ áĥĲáĥľ
Ø¹ ÙĦ
×Ļ× Ľ
ĠÙ¾ Ø§Ú©
áĥĶáĥł áĥĺ
àªµ à«Ģ
æĦ ı
in k
ĠP M
ĠáĢ Ł
Ð¿ÑĢ Ð°Ð²
åįķ åıĮ
à§ĩà¦ ĸ
Ġìł ķ
Ð¸ÑĤ ÐµÐ»
à¦ ĵ
æī Ģ
éĹ ´
áĢĦ áĢ·
ĠÙħ Øµ
Ġàªµ àª§
ãĥ Ĺ
Ġé Ģ
ĠÐ½ Ð¾Ð²
Ð² ÑĢ
Ġìĺ ¤
Ġ×ĳ ×¢
Ġ×© ×Ķ
Ġà´ħ à´µ
ĠÙ¾ ÛĮ
ç¨ ĭ
ÙĬ Ùģ
æ ¡
à¸ģ à¸¥
×ľ ×Ķ
ĠÛĮ Ø§
Ò³ Ð¾Ð¸
åħ¬ åı¸
ÏģÎ¹ Ïĥ
Ġs u
4 0
ĠÐ³ Ñį
or k
à¤¹ à¥ĩ
Ġp re
è į
Ġëª ¨
Ġå ¥
Ø§ÛĮ ÛĮ
ĠÐ¿ÑĢ Ð¾Ð´
k 10
ãģ Ľ
ë ¹Ħ
à¹ĥ à¸Ļà¸
ĠÐĿ Ð°
ic h
ĠáĥĲáĥ ¡
ĠØ³ ÙĪ
×Ļ ×ķ
Ð´ Ðµ
à´ ¡
Ġà¸ Ľ
Ġáģ ģáģ
Ġal l
ìĺ ¤
×¤ ×¨
à°¾à° µ
ĠÐ½ Ð°ÑĪ
Î¸ Îµ
Ć Ĉ
ç® ¡
åħį è´¹
çĻ ¾
æĬ ¥
Ð¼ Ð¾
2 3
à¤¸ à¥ĩ
or m
Ġì Ĩ
Ġ3 3
ĠÐ½Ð° Ñģ
ĠáĢ ¥
à¤¿à¤ Ĥ
ĠáĢ» áĢĸáĢħáĢ¹áĢ
å¥ ³
ĠÙĪ Ø¬
åķ Ĩ
áĢĦáĢº áĢ¸
Ġ201 0
Ġàª® àª¹
Ð± Ð¾ÑĢ
ĠÎ Ŀ
ĠØª ÙĨ
ĠÑį ÑĤ
Ð´ Ð·
à¹Ģà¸ ª
ÑĤÑĮ ÑģÑı
Ġáĥ¨ áĥĶáĥ¡
Î¿ ÏĤ
ÙĤ ÙĦ
W W
ì °
Ġ" .
s h
Ġu p
ac e
Ġà®ĩ à®¨à¯įà®¤
ĠÚ© Ø´
ÙĬ Ø§
ÑĢÐ°Ñ Ĺ
Ġàªľ à«ĩ
i an
áĢ± áĢĢ
Îº Î±
Ġà¤Ń à¥Ģ
Ùĥ ÙĨ
ĠÐ¡ ÑĤ
ĠØ® ÙĦ
ĠÐº Ð¸
à±ģà° µ
à° ³
à´ķàµįà´ķ àµį
Ġà¸ Ĥ
áĢ¸áĢ ľ
Ø§ Úº
åı ·
Ġàª¸ àªĤàª
ÏĥÎµÎ¹ ÏĤ
Ġëĭ ¤
Ġàªķ àª¹
Î¿ Î¹
ª à¯į
à´¿à´ µ
éĩ Į
l l
àµģà´£ àµįà´Ł
ĠÑģ Ð°
à¦¨ à§įà¦¤
Ġc l
ĠÙĪ Øª
ÑĪ Ð¸
è§ Ĥ
ëĵ ľ
ãĤ £
à«Ģ àªķ
Ð» Ð°Ð½
ìĿ´ íĬ¸
d u
à¯Īà® ķà¯įà®ķ
ĠÑĩ Ð°Ñģ
à¯ĩ à®°
Ø¹ Ø©
Ġ×ĳ ×ŀ×
×ŀ ×Ķ
t ic
±áĢ ľ
àµįà´ ¥
à®¿à® ´
Û °
ÐµÐ» Ð°ÑĢ
ĠÐ° Ñģ
ĠÐ¿ Ð¾Ð¼
ĠÐ¸ ÑģÑĤ
Ġà¤ķ à¤¿
×ķ× Ľ
à±Ī à°¨
áĢ¬ áĢŀ
Ġà¤ Ł
Ú© ÙĨ
Ġ <
à¸Ń à¸£à¹Į
Ġàª¹à«ĭàª ¯
Ġm e
áĥĲáĥ ¬
Ð° Ð¸
íĦ °
à«ĭàª Ĺ
ĠÎ± ÏĢÎ¿
s o
áĥł áĥĿ
Ð¾Ð³ Ð°
Ġàª¨ àª¥à«Ģ
×ľ ×Ĳ
Ġà¦ľ à¦¨
áĢ¬ áĢĦáĢ¹
à´¸ àµį
ç ±
ĠÐºÐ¾Ð¼ Ð¿
Ġ4 5
Ġà¹ ĥ
ĠØ® ÙĪ
ä» ĸ
à¸¹ à¹Ī
×ł ×Ķ
Ð½Ð¸ Ð¼
Ùħ Ø©
Ð¸ÑĤ Ð¸
ĠW WW
é ©
áĢ¬áĢ¸áĢ Ľ
ĠÐ¿ Ð¾Ðº
ÑĨ Ðµ
ĠáĥĲáĥ ¦
à¯ģà®³ à¯įà®³
ãĤ ı
ç ĥ
ĠÐ´ Ð°Ð²
Ġ×Ļ ×©
Î¹Îº Î®
ĠÙĦ Ø§
áĥķ áĥļ
Ġ3 65
Ġå ¼
ç¤ ¾
Ð² Ð¾
à° §
ç ¦
áĢĽáĢ¾ áĢŃ
àª¿àª ¸
ĠØªÚ¾ Ø§
Ð³ Ð°ÑĢ
ÑĬ ÑĤ
Ġå ¾
ĠÐ ĸ
ŀ áĢ°
æ¬ ¡
èĪ °
Ð¸ Ð¿
Ð ĳ
å Ļ
Ġ; &
s p
Ġáĥ ¯
ĠØ§Ù Ĥ
æĢ Ŀ
à¸Ĺ à¸¢
ĠØ´ Ø¯Ùĩ
à¤² à¤¾
ÙĬ Øª
ÙĪØ± Øª
æ ¼
Ð³ Ð¾Ð²
à°¿à°Ĥà° ¦à°¿
Ġ z
è ¢
Ð» Ð°ÑĪ
Ø± ØŃ
or y
áĢ¯áĢŃ áĤĶ
Ïģ Ïĩ
Ġè¿ Ļ
éĴ ±
o ve
à´¿à´Ł àµįà´Ł
ĠÙĦ ÙĪ
Ġàª¹àª¤ à«Ģ
Ø® Ø±
à«Ģàª ¯
à« ¦
à«Ģ àª¨à«ĩ
à±ģà° Ĺ
Ġà¤ ¡
àª Ľ
à®ªà¯įà®ª à®Ł
à§ĭ à¦¨
ê ·
ĠØ§Ø ª
ãĤ ³
ãģ ¿
áĢ¸áĢ ħ
æĻ Ĥ
è¯ ´
áĥĹ áĥķáĥĺáĥ¡
Ġà¤² à¤¿à¤ı
Ġ×Ľ ×ľ
Ð ĥ
áĤ Ĭ
à®¤à¯įà®¤ à®¿à®²à¯į
àª ı
ëĤ ¨
Ġà¤¸ à¤®
Ġáĥ£áĥ ľ
ãģĦ ãĤĭ
ÙĦ Ùĩ
ĠÙħ Ø®
ĠÐ Ń
ÙĬ Ø¹
ĠØ§ÙĦ Ø°
Ġf un
ul t
ĠáĥĲáĥ łáĥ
Ġp h
à¸²à¸ §
Ġà¦¨ à¦¾
éĻ ¢
ĠÐ² Ð¸Ð´
çĽ ¸
à§ģ à¦¨
ĠØ¨ ÙĪØ¯
è· ¯
Ġà¦¬ à§įà¦¯
à° Ń
m l
n e
ĠØ§ÙĦØª ÙĬ
Ġ×Ķ ×¨
è® ¾
ÏĢ Î±
çİ ©
åİ ¿
ĠØ³ Ø¨
ar k
Ġì Ĭ
Ġáĥ¡áĥĲáĥ ®
áĢ±áĢ¬ áĢĦáĢºáĢ¸áĢ
Ġà¸ ¥
ĠìĿ ¸
à¹Ģà¸Ľà¹ĩ à¸Ļà¸
ĠÙĩ Ø§
ï ½
ĠÐ½ Ñı
æĶ ¿
ĀĀĀĀ ĀĀĀĀ
áĢ¬ áĢĢáĢ¹
à¥ģ à¤°
à´¾à´° àµįâĢį
Ġ qu
í ļĮ
ĠØ§Ø ¬
ÙĪ Ø§
ĠÎ ®
p x
áĢ±áĢ ¡
çº §
áĢ» áĢĸ
4 5
ÙĦ Ø©
àª¾àª ĵ
f t
áĢ±áĢ ·
à«ĭ àª°
i le
àª¾àª ¡
Ġà¦¬ à¦¾à¦
* *
áĢ¬ áĢľ
àª¾àª ĸ
à¸« à¸¥
ÐµÐ¼ Ð°
Ġáĥ¨ áĥĶ
à¹Ī à¸¡
à®° à¯įà®ķà®³
æĴ Ń
ÑĤÐ¸ Ð²
Ļ áĢ½áĢ¬
Ùĩ Ø¯
ĠáĥłáĥĿáĥĽ áĥĶáĥļ
Ø§ÙĦ ÛĮ
ĠÑŀ Ð·
Ġà´¨ à´¿à´
Ġà´¸ à´Ĥ
Ú© Ú¾
Ð³ Ð°Ð½Ð¸
æĹĹ èĪ°
Ġáĥĺ áĥ§
ĠÑĩ Ðµ
Ġáĥ¡áĥĲáĥ¥ áĥĲáĥłáĥĹáĥķáĥĶáĥļ
ĠØ¨ Ú¾
à§įà¦ ²
ĠØ¬ Ø§ÙĨ
ãĥĥ ãĥĪ
Ð¾Ð´ Ð°
à´¾à´ ¸
ĠåĮ Ĺäº¬
à¹Ģà¸Ľà¹ĩ à¸Ļ
ç ģ
à°° à°¿à°
ou ld
Ñģ Ð°
ìĹ ¬
íķĺ ëĬĶ
Ðº ÑĤ
à°¾à° ¦
à°¨ à±į
Ġ3 2
I N
Ġìŀ Ĳ
áĤıáĢ½ áĢĦáĢ¹áĢ·
ÑĦ Ð¾ÑĢÐ¼
ĠáĥĽ áĥĺáĥ¡
ë ¯¸
Ġà¦ ¡
ìĽ Ķ
g h
Ù¹ ÛĮ
èµ ·
à¤² à¥Ģ
à§Ģ à¦°
Ġb lo
ĠÐ¿ ÑĸÐ´
à¹Ģà¸ ĩ
Ġ ć
ĠØª Ø¬
Ñĸ ÑĢ
áĢļáĢ¹áĢ ľ
ĠÐ±Ñŀ Ð»
à´¿à´² àµĨ
é ª
Ġ×Ķ× ŀ
åº Ĺ
Ġh as
à´¾à´ Ł
áĥł áĥĺ
Ġâ Ļ
å ŀ
à¸ļ à¸ļ
ĠÐ İ
à´¿à´ķàµįà´ķ àµģà´¨àµįà´¨
Ð°Ð» Ð°ÑĢ
Ġd o
áĥĲáĥ Ŀ
ĠÑĩ ÑĤÐ¾
ĠÐ± Ð¸ÑĢ
à«ģ àªķ
Ġà´ ±
Ġ×ŀ× Ĳ
èµĽ è½¦
ĠáĢ Ŀ
ĠØ¨ Ø§Ø´
à®® à¯įà®ª
Ġà¤Ĩ à¤ª
àµĭ à´Ł
µ ľ
èĢ ĥ
Ġà° ı
Ġàªī àªª
Ġè Ģ
ĠØ§ÙĦÙĦ Ùĩ
ĠS h
å° Ĩ
Ġà¦¤ à¦¾à¦°
Ġç »
Ġãģ Ŀ
Ġà´ Ń
à¸ģ à¹ĩ
àª£ à«ĩ
ĠÙĨ ÛĮ
æ´ »
ĠØ¢ Ùħ
ĠØ¯ Ø³Øª
à«ĩàª ¤
à§ĩà¦ķ à§ĩ
ĠæĹ ¥
ĠáĥĲáĥ ®
a x
í Į
à¸¡ à¸²à¸
ĠÐ£ Ðº
ÙĪ Øª
ĠÐ± Ñĥ
áĥĲáĥ £áĥ
ĠN ews
20 19
ĠØ¯ ÙĪØ±
åı Ĭ
Ġ Z
a z
ĠÐ° Ð½
ì ½ľê±¸
à¤ķ à¥ĩ
Ġì °
Ð¸ÑĢ Ð°
ĠÙĪ Ø£
Ļ áĢ½
Ġà´ Ĺ
à¸£ à¸ĩ
ĠáĢ Ħ
Ġà° Ł
Ġ×Ķ× ĳ
Ð¾Ð» Ð¾Ð³
Ø´ Ø±
à´¿à´ ªàµįà´ª
Ð°ÑĨ Ð¸Ñı
ĠÐ± Ð¾
à¦ķ à§įà¦·
à¹Ģà¸ ¡
à¹ĥà¸Ĭ à¹ī
à¸· à¹Īà¸Ńà¸ĩ
Ð¾ÑĢ ÑĤ
è ¥¿
ÏĢ Îµ
Ġàªħ àª¨
ìĬµ ëĭĪëĭ¤
Ġê² ½
Ļà§įà¦ Ĺ
Ġàª® àª³
Î¼ ÏĮ
æľ į
Ġæ Ń
à´ §
ĠÚ©Ø± ÙĨÛĴ
2 7
ĠÐ· Ð°Ð±
ak e
à®° à¯įà®ķà®³à¯į
àª¤ à«Ģ
ä½ ¿
à¦ Ľ
ĠáĢ¡ áĢħ
× £
ĠÎ´ ÎµÎ½
ĠÙĪ Ø²
Ð¼ Ð°ÑĤ
Ùĳ Ùİ
à¸§ à¸¢
à¥įà¤ ®
Ġ×¢ ×Ŀ
a i
Ġ. ,
à¤Ĥ à¤¤
Ġhttp s
áĥĺáĥĵ áĥĲáĥľ
áĥĿáĥ Ĺ
Ñĩ Ðµ
» áĢĸ
à§įà¦ ®
ĠÎµ Î½
áĢŁ áĢ¬
Ð² Ð°ÑĢ
çĿ Ģ
áĥļ áĥĶáĥĳ
ìĭ ł
ĠØª Øµ
Ùĥ Ø©
ig n
àª¿ àª¨
áĢ¥ áĢ¹áĢ
ĠáĢŀ áĢŃ
à°¿à° µ
Ð± Ð°
Ø§ÛĮ Øª
ÑĢ Ð¾Ð²
æĹ ł
Ġà¸ Ķ
ÙĨ Ø¬
Ġáĥ§ áĥķáĥĶáĥļ
à®¾à® ®à¯į
Ð½Ð¾ ÑĹ
Ġí ı
Ġ6 0
à¤ ı
äº ī
ĠáĢĢ áĢ¼
Ð Ĥ
it ion
ĠÙģ ÛĮ
à¤¹à¥Ģ à¤Ĥ
ĠÐ³ Ð¾Ð»
à§ĩà¦ Ł
åĻ ¨
æ ¨
Ð½Ñĭ Ñı
Ġ5 5
b et
Ð½Ð¸ Ñı
à´¾à´ Ĥ
ĠÑī Ðµ
Ġà¦ı à¦¬
Ïĥ Î±
Ġ;& #
.... ....
Ġà¦¨ à¦¿à¦
Ľ Ħ
áĢĽ áĢ½
ÙĦ ÙĪØ¯
Ù¹ Ø±
Ñĭ Ð¹
ĠáĢĴ áĢ«
àª¾àª ª
ĠÎµ Îº
å½ ĵ
Ġ3 6
àª¾àª ¬
Ð°Ð½ Ð¾
Ġì ²
à¸Ī à¸²à¸ģ
à¯ģà® °
ĠØ±ÙĪ Ø²
Ð°Ð½Ð¸ Ñı
r u
er y
Ġâ Ĺ
áģ ¼
ĠÎ¿ Î¹
ÙĪØ± Ø¯
ĸ áĢ¼
ĠáĢ¡ áĢľ
à¸Ĺ à¸³
ĠÎ Ĵ
é Ł
ģ éĢŁ
áĢ¬ áĢĶ
à¸¹ à¸ģ
à«ģ àª²
Ð» Ð°Ð²
åı ĸ
Ġ @
è ³
åį ģ
ÐµÑĤ Ð°
Ġæ ŀ
ow n
a w
Ġà® ı
Ġàªµ àª°à«įàª
à¦ķ à§įà¦¤
Ø§Øª Ú¾
íħ Ķ
âĢ į
ĠÏĦÎ¹ ÏĤ
Ġm ore
ëħ Ħ
è£ ħ
æķ Ļ
Î´ Î¿
Ġ3 4
Ġ3 8
Ġì £¼
æ ·
ÙĪ Ø§Ø±
Ġë³ ´
à´® àµįà´®
ï¼Į ãĢĳãĢĲ
t e
áĢĻ áĢ¼
à¹ģ à¸¥
Ġà° Ĵ
áĢĴ áĢ®
à¹Ħ à¸¥
ĠÐ¼ Ð°ÑĢ
áĥĶáĥĳ áĥ£áĥļ
Ïģ Ïİ
Ġà´Ĵà´° àµģ
æł ¼
Ġn ews
×ĳ ×ľ
Ïģ ÎŃ
Ø¨ ÛĮ
æĮ ģ
Ġë° Ķ
Ġà°ļ à±Ĩ
áĥ£áĥ Ľ
à¥Ĥ à¤¨
Ø§Ùħ Ùĩ
à¤ ĸ
Ġcom p
Ð°Ð´ Ð°
Ġ×ĸ ×Ķ
Ġ×ľ ×ŀ×
ãĥĥ ãĤ¯
à¸²à¸ ª
åĲ Ĺ
ĠÐ¿ Ð°
áĢĻáĢ¾ áĢ¬
à¦¾à¦ Ĺ
åį Ĺ
áĢĻáĢ¾ áĢ¯
Ġs o
à¥ĭ à¤Ĺ
à§ĭ à¦Ĺ
ĠØ¨ Ø§Ø±
æĦ Ł
ĠÏĥÏħ Î½
Ġd is
à« Ī
æİ ¥
ÑĢ Ðµ
p k10
ĠÐ¼Ð¾Ð¶ Ðµ
à¤ķà¥įà¤ ·
à¸Ķ à¸µ
à¤¡ à¤¼
ì ĻĢ
ĠØª ÙĤ
áĢķáĢ« áĢĲáĢļáĢº
ĠÐ²ÑĢ ÐµÐ¼
äºļ æ´²
Ġà¤ħ à¤ª
Î¼ Î¬
Ġàª ĩ
Ġ×Ķ× ¤
æĢ İ
ĠØ£ ÙĪ
×Ļ× ¦
áĢ» áĢģ
ìĤ¬ ì§Ģ
Ġ×ŀ× ª
app ä¸ĭè½½
èµ Į
ĠÐ» Ð¸
à®¾à®Ł à¯įà®Ł
ĠÐ¸ ÑĪ
Ù ĭ
áĢĸáĢ¼ áĢħáĢº
æº Ĳ
ĠÚ© Ùħ
ĠÐ· Ð°Ð²
ĠØ± Ø³
E R
×ª ×Ļ
Ġà¤ ĺ
Ġ Q
ment s
áĢĢ áĢ»
à°Ĥà° Ĺ
ÑĢÐ¸ Ð¼
±áĢ ŀ
ĠáĥĲáĥ ¥
æµ ģ
áĢŃ áĢĻáĢ¹áĢ
à«Ģ àªµ
Ġa pp
al ly
ĠÛģ ÛĮ
as e
º «
ĠÐº Ð°Ð¼
ĠÎŃ Ïĩ
ÑĨ Ñı
à¸´ à¸¡
ãĥ Ĩ
ou nt
ĠãĢĳãĢĲ ï¼ĮãĢĳãĢĲ
ĠÙĦ Ùħ
Ġn e
å¼Ģ æĪ·
à¥įà¤° à¥Ģ
Ġå Ĭ
Ġàª² à«ĭàªķ
àª ĩ
Ø¨ Ùĩ
ĠØ§ÙĦ Ø·
à¥įà¤ ¥
Ġp ost
Ġà®µ à¯Ĩ
ĠÐ² ÑĬ
ĠÂ» .
áĢ±áĢ¬ áĢ·
ãĤ «
Ġm y
g e
å ²
ĠÐºÐ°Ðº Ð¾
ĠÐ±Ð¸Ð» Ð°Ð½
ĠÐ´ Ð·
re ss
Ġ _
ĠÎ± Î½Î±
à¦¦ à§ĩà¦°
à¸¶ à¸ĩ
2 6
ìĸ ĳ
à°¾à° Ĺ
ĠØ¬ Ø³
Ġàª¤ à«įàª¯
à®Ł à¯ģà®¤à¯įà®¤
Ġfun ction
Ġâ Ķ
å®ĺæĸ¹ ç½ĳç«Ļ
áĤıáĢ½ áĢħáĢ¹áĢ
ĠÐ° Ð¼
¡ à°¾
à¸²à¸ Ĺ
ÙĬ Ø§Øª
×Ļ× Ĺ
Ġ8 0
áĥĺáĥ Ĵ
Ġê³ ł
ÏĦ Î¯
Ġà®Ĵà®° à¯ģ
ÑĨ Ð¸Ñı
æĪ ĺ
àµĩ à´°
ĠÑĢ Ðµ
Ġà¦¸ à¦Ĥ
à¨ ¾
à®© à¯įà®©
×¨ ×Ļ×Ŀ
à®¿à® ļ
Ġs c
à¤¾à¤ Ĺ
ĠÎ¼ ÎŃ
ç ¬¬
å° ĳ
ĠÐ¼ ÐµÐ½
âĢĮ ÙĩØ§ÛĮ
á ½
Ġc ol
Ġà®¨ à®Ł
Ñĺ Ð°ÑĤÐ°
Ġà°¤ à±Ĩà°²
àµ ĥ
re e
ĠÐ¼ Ð°Ñģ
Ġå Ĩ
Ġ×ŀ× Ĺ
on d
áĢĲáĢ¼ áĢĢáĢ¹
Ø§Ø «
à±įà° ¦
à±ĩà° ¦
à¯Īà®¯ à®¿à®²à¯į
Ñĭ Ð²
ĠãĢ Ĭ
à¹Ģà¸ §
ĠáĢĸ áĢ¼
Ġà¦ı à¦ĩ
ĠÐ· Ð´
ĠÙĪ ÛĮ
Ð°Ð¼ Ñĸ
ĠÑģÐ² Ð¾
Ñı Ð´
Ġà®¤ à¯Ĭ
Ġ×Ķ× ł
à¤¾à¤ ª
as h
à¤¾à¤° à¥Ģ
à¦ «
Ġp r
à´¾à´ ®
áĢ¯ áĢĲáĢº
ĠáĢĢ áĢ»
ĠÙ¾ Ûģ
9 8
çŁ ¥
ĠÎ Ļ
à®ªà¯įà®ª à®Łà¯įà®Ł
ë¬ ¸
Ñı Ð½
à¯Ī à®¤à¯įà®¤
Ġå ¯
ĠëĤ ĺ
Ïĥ Î¹
Ø° Ùĩ
Ġà¦¥ à§ĩà¦ķà§ĩ
ç² ¾
ĠÙ¾ ÛĮØ´
Ġb ut
à´Ļàµįà´ ķ
áĢ¬áĢ¸áĢ Ĳ
ð Ł
ÏĦÎ± Î½
ÐµÑĤ ÑģÑı
×¨ ×Ľ
à´¾à´ ±
à¥įà¤ ²
×Ļ× ļ
ĠÐ¸Ð¼ Ð°
ĠÛģ Ùħ
à¹Ī à¸Ļà¸
áĢľ áĢ²
áĤĢáĢĢ áĢ®áĢ¸áĢ
ç ĭ
à°Ĥà°¦ à°¿
Ġï ½
à°¾à° ľ
æĶ ¾
å¤ ĩ
Ġà´ļ àµĨà´¯
ĠÑĺ Ð°
Ġà¦Ĩ à¦°
ãĥ ¡
áĢĻ áĤĪ
ç» ĵ
Ġ ro
äºļ æ¸¸
à® ¸
è Ħ
£áĥ ļáĥĺ
à¸ģ à¸£
Ġ3 7
Ø¨ Øª
ÑĤ Ð°ÑĢ
ĠÑģÑĤ ÑĢ
ĠØ¢ Ù¾
3 5
à¸ķ à¹Ī
åİ »
Ġà¹ Ģ
à¹ĥ à¸Ī
Ġç Ļ
Ġ×ķ ×Ĳ
é¢ ĺ
Ð¶ Ðµ
àªĤàª §
à®Ļ à¯įà®ķà®³à¯į
Ġ×ĳ ×©
à¸Ķ à¸¢
ĠØŃ Ú©
áĢ½ áĢĶáĢº
áĥĺáĥļ áĥĺáĥ¡
ç¤ º
à¦² à§ĩ
Ġà®ķ à¯Ĥ
áĢĻ áĢŃ
à¦¾à¦ ¶
Ð½ Ð°ÑĤ
ãĥ £
ĠáĢķ áĢ«
à§ĩ à§Ł
ĠÐ½ Ð°Ð·
àªķ à«įàª·
à¤¿à¤ µ
ay s
ĠC om
à±Ĥà° °
ì§ Ħ
å¼Ģ å¥ĸ
Ġ( "
ìķ ¼
Ġ×Ĳ ×ľ
Øª Øµ
±áĢ Ĩ
Ú© Ûģ
Ġë ²
Ðº Ð¾Ð»
áĥĲáĥĵ áĥĴ
áĥķ áĥĶáĥ
àªķ àª¾àª°
ĠØª Ø§
ÙĨ ÙĬ
ãģ¾ ãģĹãģŁ
áĥĲáĥľ áĥĺ
ãĥ ŀ
à´¾à´¯ à´¿à´°
Ø´ Øª
ĠØ² ÛĮ
è ĥ
Î Ľ
à¦¾à¦¦ à§ĩà¦°
à ¬
Ġà« §
Ġà°ħ à°¨
Ġà´ħ à´¤
Ġàª¸ à«ģàª
ĠìĹ ¬
Ð Ĺ
Ø¯ Ø©
ãģ® ãģ§
Ġç §
ç« ĭ
áĢ ĩ
ĠáĢĨ áĢŃáĢ¯
ÐµÑģ Ð¿
Ú© Øª
Ġê ±
Ø± Ø¶
Î»Î¿ Î³
à¹Ģà¸ ķ
= =
Ġà¤¸ à¤¾à¤
Ø§Ù ¾
ĠØª Ú©
ĠÐľ Ð°Ðº
Ø± Øª
åħ ĭ
an ce
à§ĩà¦ ¤
Ġì ¤ĳ
à¤¾à¤¨ à¥ĩ
Ġà°ķ à±Ĭ
Ġç Ľ
ÑĪ Ðµ
Ð¾ÑĢ Ð°
Ð°Ð½ ÑĤ
éĢ ī
×Ľ ×ľ
áĢ ´
th er
Ġà´ª àµĭ
ÐµÐº Ñģ
ĠÂ» ,
Ġ×ŀ× ¢
Ø§Ùħ ÛĮ
à±įà°² à±ĭ
áĥĶáĥ¥ áĥ¢
à®¿à® ®
ê° Ħ
ê³ Ħ
Ġl ang
ĠÎ ¹
ĠìĿ ¼
à¸²à¸ Ķ
à®± à¯įà®ķ
Ġãģ ĵ
çĦ ¶
à«įàª° à«Ģ
ĠáĢ Ĺ
à«ĭàª ľ
ĠáĥĽ áĥĲáĥĴ
è® ¯
Ġl i
ĠÐ´ Ðµ
ĠáĢĲ áĢħáĢ¹áĢ
ÙĤ ÙĬ
ä¸ ľ
ĠØŃ Ø§ÙĦ
Î ł
Ġ200 9
à°¿à° ®
Ġà®ħ à®°
Ġàª¸ àª°
á Ł
³ Û
Ġ4 4
Ġáĥł áĥĿáĥĴ
áĥ£áĥ Ĺ
áĢŃáĢ¯ áĢĢáĢº
áģ ½
à¯Īà® µ
Ġà¤¨ à¤¹à¥Ģà¤Ĥ
Ġë¶ Ģ
Ñ ľ
à° ·
à¹Ħà¸¥ à¸Ļà¹Į
×¨ ×Ķ
ĠÐ¼ Ð°Ð»
Ġà¦ªà§įà¦° à¦¤
ãģ¨ ãģĦ
±áĢĲáĢ¬ áĢ·
áĢ¸ áĢĢáĢŃáĢ¯
à¤¿ à¤°
Ø§ÙĦ Ùħ
ĠÙĩ Ø°Ø§
ç§ ĳ
Ġ4 8
æ ¢
ĠP ost
Ġàªª àª¹
è¶ ³
æĢ »
Ġ out
ç ¼
Ð°ÑĨ Ð¸Ð¸
ë £
áĢ±áĢ Ĩ
ê ¹
2 9
à°¾à°¨ à°¿à°ķà°¿
ì¹ ĺ
ĠâĦ ĸ
áĥĲáĥłáĥ ĵ
à°¿à° ¸à±įà°¤
Ġè ¯
Ġà´ª à´±
Ð¸Ñĩ Ðµ
àª¿ àª°
èĢ ģ
à±Ģ à°¸
à´ ŀàµįà´ŀ
ĠáĢĻ áĢŃ
áĥĲáĥłáĥ Ľ
7 8
âĢ¦ âĢ¦
Ġà¦ §
ĠA r
×ĵ ×Ļ
ÐµÑ ļ
Ġà®® à¯ģà®
ì¹ ´
ĠÐ¼ Ð°ÑĤ
Ð½Ñĸ Ðº
à¸²à¸ ŀ
ĠA M
Ġáĥ ¦
ĠÐ± Ð¾ÑĢ
ÏĨ Î¿
ÙĬ Ùĥ
ĠÎµÏĢ Î¹
il d
Ð¾ÑĤ Ð¾ÑĢ
Ġê³ µ
ÙĨ Ø³
ĠØŃ Ø³
å¸ ĥ
ĠÐ± ÐµÑĢ
Î´ Î±
Ġæ µ
è ©
à¦¿à¦ ¶
à«ĩàª² àª¾
Ġà¦ ĺ
à°¾à°¯ à°¿
Ð¸Ð½Ð¸ Ð½Ð³
æĽ ´
é¡ µ
ik e
áĥł áĥĲáĥĽ
ĠØ§Ø µ
æĹĹèĪ° åİħ
à¤ «
Ġà µ
áĥĶáĥĳ áĥļ
Ñĥ ÑģÐº
Ġin d
an k
ĠÒ ·
en ce
è Ļ
Ġàª¨ àª¹
áĢĽ áĢŃ
c l
en s
Ġb et
à°¾à° ¸
ĠØ® Ø§ÙĨ
à°¾à° ¡à±ģ
Ġáģ į
ãģĦ ãģ¾ãģĻ
3 65
å± Ģ
æ Ĥ
å¸ ¸
Ġà°ª à±Ĩ
Ð½Ð¾ÑģÑĤ Ð¸
Ġìĥ ģ
áĥĶáĥĿ áĥĳ
ãĥ ¥
Ġáĥ¡áĥĲáĥ Ļ
Ġ3 9
Ġà°¸ à°Ĥà°
áĥĶáĥ ª
Ð² Ð°ÑĤ
Ġàª¬ àª¨
Ġà¦ıà¦¬ à¦Ĥ
àª¿àª Ł
ì¶ľìŀ¥ ìĥµ
ĠÒ ļ
Ð¾ÑĤ Ð¸
áĤı áĢ¯áĢŃáĢĦáĢ¹áĢ
ĠÛ ²
Ļ à¯įà®ķ
áĢ¬áĢ¸ áĢĢáĢŃáĢ¯
Ġë§ Ī
er v
à¯įà® £
à´¾à´ ³
éĢ ģ
à±ģà° ¡à±ģ
Ñĩ Ð°
Ġà° «
Ø ¡
à¹ī à¸²à¸ĩ
à¦ ¡
Øª Ø§Ø¨
ĠÐº Ð¾Ð»
Ïĥ ÏĦÎµ
Ġ×ŀ× ¡
áĢŃáĢ¯áĢ¸áĢ Ľ
à°ķà±įà° ·
Î»Î» Î¬
ĠØ¯Ø§ÙĨ ÙĦÙĪØ¯
ÙĨØ¯ Ùĩ
à¸Ļà¸ ķ
Ġà¸ Ĺà¸µà¹Ī
Ġäºļ ç¾İ
à±įà°² à±ģ
Ñĥ ÑģÑĤ
à¸§ à¹Īà¸²
Ġ' ).
tic le
à±ĩà° ¶
Øª ÙĬ
à¹Ī à¸²à¸Ļ
ĠÙĪ Ø³
áĥĶáĥĳ áĥĲáĥ¡
æ ®
à¸¡ à¸²à¸ģ
à¸Ńà¸Ļ à¹Ħà¸¥à¸Ļà¹Į
Ġ×Ķ ×ķ×Ĳ
p r
ĠáĢ±áĢ »áĢķáĢ¬
íı ¬
Ð¸Ð» Ð°
ĠÙ¾Ø§Ú© Ø³ØªØ§ÙĨ
áĢĲ áĢŃ
è Ń
Ġå¤ ©
ĠÐ´ Ð²
Ġà° ¯
Ð ħ
Î· ÏĤ
éĻ Ĳ
ãĥ ī
ľ áĢ¬
Ġof f
à¸Ń à¸Ķ
ÏĦ ÎŃ
Ð» Ð¾Ð²
Û Ķ
Ć ć
ĠÐ½ Ð°Ð¹
íĶ Ħ
à¯įà®¤ à¯įà®¤
Ġg et
Ð½ Ð°Ñģ
ĠÒĽ Ð¸Ð»Ð¸
è º«
Ø¯ ÛĮ
à¦¦ à§įà¦
åĲ ĳ
à± ĥ
Ġàªľ à«ĭ
àµĤ à´Ł
ĠM ar
ãĤ µ
à¸Ľ à¸£
n g
áĢ¬ áĢ¡
é¦ ĸ
Ø± Ø§Øª
Ġà¸ ľ
ÑĨ ÑĨÐ°
ĠÙĥ Ø§ÙĨ
Ġh t
à¤¾à¤ ķ
æ »
Ġ×Ķ× §
· à§įà¦Ł
Ġáĥ łáĥ
Ð± ÐµÐº
Ġàªª àª¡
à«Ģàª ľ
è ±
ĠÐĹ Ð°
Ñĭ Ðµ
áĤıáĢŃáĢ¯áĢĦáĢ¹áĢ ĦáĢ¶
Ġà°ļà±ĩà° ¸
__ __
áĢŃáĢ³ áĤķ
åŀ ĭ
áĥĲáĥĽ áĥĵ
áĢ Ĺ
à°¤ à±įà°¤
ĠÐ¿Ð¾ Ñĩ
ĠáĥĹ áĥ£
Ġ×ľ ×¢
Ð» Ð°ÑģÑĤ
ĠÐ¿Ð¾ ÑģÑĤ
à¯Ĩ à®°
áĢĺ áĢ°áĢ¸
ìļ °
Ñĸ Ñħ
Ġ×ĳ ×ª
Ġàª¹àª¤ à«ĭ
áĥ ¯
à«ĭ àª°à«įàª
3 8
Ø¬ Ùħ
ĠÙĩ ÙĪ
à¦¨ à§ĩ
çķ Į
ĠÙĪ Ø±
ub l
æ¸ ħ
Ġçľ Ł
à«ģàª ľ
Ñı Ð±
Ġà° ¡
àª° à«Ĥ
ä¸Ń åĽ½
ĠåĽ ½
Î ľ
Ġ' ,
åł ´
Ðº Ð°Ð½
Ġ×Ķ× ¡
ģ áĢ¼
Ġp m
Ġìľ Ħ
Ð¸ ÑĺÐ°
Ð¾ Ò³
à¦ķ à¦¾à¦°
à´Ļàµįà´Ļ à´³àµįâĢį
Ð°ÑĤ ÐµÐ»
áĥĺ áĥĶáĥł
Ġà°® à±Ģ
Ġm an
Ð½ Ð°Ð³Ð°
Ġ( )
ĠØ¨ Ûģ
æ¥ Ń
Ø´ Ø§Ø±
è¢ «
ä¼ ģ
Ġå ¿
à±ģà°Ĥà° ¦à°¿
Ĩ áĢŃáĢ¯
Ġà´¨ à´Ł
åº Ķ
Ð½Ð¸ Ð¾ÑĤ
Ġæľ ī
íķĺ ê³ł
Ð¾ ÑĦ
à®¾à® £
ĠØ§ÙĦ Ø«
p ort
æĢİ ä¹Ī
à¸£à¸µ à¸¢
Ġà®ª à®Ł
2 1
Ø§Ø¨ ÙĤ
Ġå ·
à¦¿à¦ Ł
Ġàª° àª¾àªľ
ÏĢ Î¿Ïħ
Îµ ÏĦÎ±Î¹
Ð°Ð½ Ñģ
Ú© ÙĦ
Ġàªª à«ĭàª¤
Ļ áĤĪ
ĠP ro
Û ķ
áĢ±áģ¾áĢĢ áĢ¬áĢĦáĢ¹áĢ¸
áĥĲáĥķ áĥļ
áĢĬ áĢ·áĢº
Ñį ÑĢ
ĠÙħØŃ ÙħØ¯
Î¼Î± ÏĦÎ±
ÏĦÎ¹Îº ÏĮ
æĥ ³
Ð»Ð¸ Ñĩ
ĠÐ· Ð°Ð¼
à¤¾à¤ Ī
à¸Ħ à¸¸à¸ĵ
Ġu n
Ġà¤Ĩ à¤¹à¥ĩ
áĥĲáĥķ áĥ¡
ãĥ ģ
¹ Û
Ð°ÑĢ Ñĭ
Ġd ata
à´ ľ
ä¸ ĸ
ĠØ¹ Ùħ
ĠÐº Ð¾Ð¸
Ġà§¨ à§¦
Ġà´ ¹
Ð¸ÑģÑĤ Ð¾Ð½
×ķ× ĺ
ä½ ķ
ĠÐ½ Ð¸
áĢĦáĢº áĢ·
áĥĺáĥ£áĥ ł
ãĥ Ĳ
O N
Ð¾Ð´ Ð¸
Ð¸Ð» Ð³Ð°Ð½
ĠÚ¯ ÛĮØ§
à¸§ à¹Īà¸²à¸
éĸ ĵ
ìŀ Ħ
Ġáĥĵ áĥĲáĥĽ
à¦¾à¦ ļ
Ð¸Ð» ÑĮ
ÙĦ ÙĪ
áĢĬáĢº áĢ¸
Ġàª® à«ĩàª
àµģà´ ķàµįà´ķ
Ġáĥ£áĥľ áĥĵáĥĲ
àª£ à«Ģ
§ à«Ģ
à¦¨ à§ĩà¦°
à±įà° ķ
àµįà´± àµįà´±
Ġè ĩ
Îº Î¿
éĴ Ł
ÐµÑĤ Ð¸
Ġà°® à°°
à§įà¦ ¨
ĠÒ ²
Ġà¤¹ à¥Ģ
ĠáĢ»áĢĻ áĢĶáĢ¹áĢĻ
ĠÑ Ķ
ĠÐ¿ Ð¾Ð·
Ùģ ÙĬ
Ð½ Ð¾Ð¼
Ġà¦ª à¦¾à¦°
ĠáĢ Ĥ
Ġ äºº
à¦¾à¦ Ł
à´£ à´Ĥ
Ġà°ķ à±ĭ
áĢ¬áĢ¸áĢ ħ
ĠìĿ ĺ
à¯įà® ¯
ç ı
áĢ¯áĢ¶ áĢ¸áĢ
ĠáĥĲáĥł áĥĺáĥ¡
ĠÐ± Ð¾ÑĪ
ç ĸ
Ġà¸ģ à¸²à¸£
à« Į
6 8
Ġà¦ľ à¦¾à¦¨
ĠÙĨ ÙĪ
ĠÑĩ Ð°ÑģÑĤ
ÑĤ ÑĢ
ĠÐĿ Ðµ
Ð°Ð½Ð¸ Ðµ
äº Ľ
Ú¾ Ø±
à¸¥ à¹ĩ
Ġà® Ł
à«įàª ¨
ĠØ§ÙĦ ÙĪ
Ġè ®
åŁ º
Ðł Ñķ
Ġ×Ķ× Ľ
ĠØ§ Ú¯Ø±
à«Ģàª ¸
à¥ ĥ
Î ¥
Ðº Ð°ÑĤÐ°
à¤ķ à¤°
Ġàª® àª¾àªĤ
ÐµÐ¼ Ð¸
Î¼ Î²
ç» Ł
Ø¯ ÙĬ
Ġà¸ Ĭ
áĥĲáĥłáĥ Ĵ
à¦¾ à§ľ
Ø± Ø³
è¿ ĳ
Ġà´ª à´°
à´¿à´¨ àµį
àµįà´ ¸
ãģĤ ãĤĭ
áĢ±áĢ ħ
ĠÐ± ÑĢ
ĠÐ¿ÑĢ Ð°ÑĨ
ĠØ§Ù¾ ÙĨÛĴ
Ġà¤ī à¤¨
±áĢĲáĢ¬ áĢ¹áĢ
Ġà¦ī à¦ª
Ú© Ø±
å¸ Ī
à¦¿à¦¤ à§ĩ
Ġäºļæ¸¸ éĽĨåĽ¢
à¸ļ à¸Ńà¸¥
Ġà´ «
×ķ ×Ļ
ÑģÑĤ ÑĮ
à¸±à¹ī à¸Ļ
àª¾àª¨ à«ĩ
Ø§Øª ÛĮ
à¸£ à¸·à¸Ń
Ġ×ĳ ×Ķ
à´¿à´ļàµįà´ļ àµģ
Ġ4 9
âĢ ĺ
áĢ¼ áĢĢáĢ¹áĢ
à¦¾à¦ §
Ġàªľ à«ĭàª
Ġáĥĵ áĥ¦
ĠÙħ Ø³Øª
Ð»Ð¸ Ð²
Ñĥ ÒĽ
áĢ¬ áĢĦáĢ¹áĢ·
à¤¾à¤Ĥ à¤ļ
ÑģÑĤÐ² ÐµÐ½
ĠÎŃ Î½Î±
à¹ī à¸Ļà¸
ĠáĥĹ áĥ¥
Ġà®İà®©à¯įà®± à¯ģ
ĠØ§Ø³ ÙĦØ§Ùħ
ä» »
ĠÐ² ÐµÑĢ
à°¾à° ¡
ĠáĥĽ áĥ®
áĢŀ áĢŃ
Ġí Į
Ùĥ Ø±
ìĦ ¸
Ġà´ķ àµĬ
ĠÙĨ Ø§Ùħ
Ñı Ð¼
ÏĦÎ¹Îº Î®
Ġ9 0
è¨ Ģ
ĠØ§Ø ´
l ine
ÑĤ Ð¾Ð¼
à¦¿à¦ ®
å¦ Ĥ
ĠáĥĽ áĥĺáĥ
ĠáĢ¡ áĢ²
à¥ģ à¤²
Î¹Îº Î¬
ä¼ ł
ĠI t
à´¿à´ ¸
à±įà°¨ à°¿
å°ı æ¸¸æĪı
áģ ĭ
ĠØ³ Ú©
Ĵ Ī
ĠØ§Ù Ĭ
Ġë į
ĠÐ¼ ÐµÑĤ
Ġà¤¤ à¥ĭ
àª¾àª ¶
å¤§ åıĳ
he d
ĠáĢ ·
áĢ±áĢŀ áĢ¬
æİ Ĵ
ìľ Ħ
Ø¬ Ùĩ
à¸ Łà¸£à¸µ
æ¬ ¾
Ġht ml
å§ Ķ
ĠÙĪ Ùħ
áĢ¯ áĢĽ
áĥ® áĥĿáĥķ
áĢ³ áĢŃ
Ġab out
f orm
ĠØ¯ ÙĨ
Îº ÏĮ
è »
Ġàª¥ àª¯
ÐºÐ¸ Ð¹
ĠÏĮ ÏĦÎ¹
Î· Î½
Î» ÎŃ
ì¶ľìŀ¥ ìķĪë§Ī
áĥķ áĥĲ
áĢĲ áĢ±áĢ¬áĢº
ÏĦÎ¿ ÏĤ
Ġáĥ °
Ġ×Ĳ ×ķ
ä½ ł
ä¾ Ľ
Ø² ÛĮ
áĢ±áĢ ķáĢ«
é ł
à´¯ àµģà´Ĥ
ĠØ§ÛĮ Ø±Ø§ÙĨ
ĠàªĹ àª¯
ĠÑģÐ» ÐµÐ´
Ġ×Ķ× Ĵ
Ġà®ļ à¯Ĭ
Ġáĥ© áĥķáĥĶáĥľ
ĠÐ´ Ð¾ÑģÑĤ
ĠA G
Ġà´ ¡
Ðº ÑĢ
ģ áĢ¶
in t
å¾ Ī
Ġp er
ion s
ĠìĦ ľ
áĢ½ áĢ²
ĠãĢ ı
ĠØ ¸
à®¤ à¯į
ÐµÑĨ ÑĨÐ°
Ð°ÑĢ Ð´
à¹ĩ à¸ļ
ĠØ® Ø·
ĠÐ² Ð¸
Ġ19 9
à¹ģà¸¥ à¹īà¸§
Ġ×© ×Ĳ
áĥĲáĥłáĥ ¢
à¸Ńà¸¢ à¹Īà¸²à¸ĩ
Ġ×ľ ×©
×ŀ ×¨
à¦ Ļà§įà¦Ĺ
à®¾à® ±
Ķ áĢ²áĤĶ
Ġlang _
ĠØ¨ Øª
Ø§ÛĮ Ø¯
èģ Ķ
áĢ± áĢ¸
ä¸Ģ ä¸ª
y pe
ä» Ģ
Ġê ¹
è§Ĥ çľĭ
a j
ĠÐ¼ Ðµ
à¸ķ à¹īà¸Ńà¸ĩ
Ġàªķà«ĭàª Ī
ãĥ ĭ
Ġ ~
ÑĥÐ² Ð°Ð½Ð½Ñı
ĠÐŀ Ð±
Ð°Ð¼ Ðµ
æł ·
Ġ our
åİ Ł
o od
ĠáĢ¡ áĢĽ
ÙĦ ÛĴ
ê³ µ
àª¸ à«įàª¤
Ġ7 0
Ġt e
à±įà° ¥
à§ĩà¦ ĵ
Î ©
Ġon e
ĠÐ· Ð°Ð´
ter n
à¦¾à¦ ģ
åģ ļ
å¯ ¼
Ġ4 3
Ùĥ ÙĦ
ë§Ī ìĤ¬ì§Ģ
à¸µà¹Ī à¸¢
Ġáĥ£áĥ ¤
à¸§ à¸´
Ġà°¸ à°®
Ð¸Ð¼ Ð¸
Ġì Ľ
Ð½ ÐµÑģ
ĠÑģ ÐµÑĢ
Ġà¤¯ à¤¹
áĥ «
Ġáģ ¿
Ð¾Ð² Ð¾
Ð¶ Ð°Ð²
à° Ĺà°¾
ĠP re
Ð¸ ÐºÐ¸
à§ĩà¦ ®
ĠÐ² Ð¾Ð·
ĠÙĥ ÙĦ
ĠØ¹ ÙħÙĦ
à¤¯ à¤¾
ĠÐĲ Ð»
Ġà¦ķà¦° à¦¾
à¹Ģà¸ Ĭ
×ĳ ×¢
ï º
à° ¶
æĸ ¯
ãģ Ŀ
Ùģ Ø³
ĠÐ½ ÐµÐº
ãģ °
ĠÐ· Ð°ÑĢ
à¹Īà¸²à¸ ¢
è® °
Ò³ Ð¾
å®¶ ä¹Ĳ
Ñı Ð·
ĠÙĨ Ø´
çĦ ¡
re at
ĠÑĤ ÐµÑĢ
áĢĶáĢ¹ áĤĶ
áĥĿáĥłáĥ ª
ĠÐ¶ Ð¸Ð²
à¦¾à¦ ĵ
Ġà®ķ à®Ł
à¸Ń à¸ķ
ĠÐ¡ Ð¿
ĠÐ´ ÑĢ
Î» Î¬
Ġ... .
Ġà®ĩ à®¤
à´µ àµģà´Ĥ
×ŀ× ª
à¯Īà® ªà¯įà®ª
ÐµÐ½ Ð´
Ñĥ Ð½Ð¸
íķ ł
åħ Ī
ic al
àª¾àª° à«ĭ
áĥĲáĥķ áĥ¨
ÚĨ Ú¾
Ġ4 7
Ġc o
Ġæ Ĭ
áĢ¬ áĢĻ
áĥľ áĥĺáĥ¡
Ġë Ĳ
ĠI ST
ì ¡°
ou nd
ĠÐ´ ÐµÐ»
à¸« à¸¡
à¹Ħ à¸Ĺà¸¢
Ĭ é¾Ļ
áĢĢ áĢ¯áĢŃ
æ± Ĥ
à¯Īà®¯ à¯ģà®®à¯į
Ġå ¸
àªĤ àªķ
ĠÐ£Ðº ÑĢÐ°ÑĹ
ê ´Ģ
àµĨ à´Łàµįà´Ł
Ġa cc
Ġí Ķ
i o
ĠáĢĻ áĢ¼
ĠÑĤ Ñŀ
Ø§ÙĨ ÙĬ
ĠÒĽ Ñŀ
Ġf ig
à¦¿à¦ ¦
Ġ= "
ãģĦ ãģŁ
åħ ī
íĸ ī
áĥł áĥĺáĥ¡
ÏĦÎ± ÏĤ
ent s
à¥įà¤ ª
áĢĲ áĢ®
Ð»Ñİ Ñĩ
Î» Î®
åĪĨ å¿«3
ëŁ ¬
à¹ī à¸³
Ùĭ Ø§
Ġàªı àª®
à¥ĩà¤ Ł
Ñĥ Ð´Ð°
ĠáĢ±áĢ ľ
ê¸ Ī
Ø¨ Ø©
áĢĶ áĢŃáĢ¯áĢĦáĢº
ĠáĥĽ áĥĹ
ãĤ ¦
ĠØ³ Ø§ØªÚ¾
ç¾ ¤
Ġà ¶
åı Ĺ
Ġg r
ìŀ ħ
Ġå Ń
» áĢĸáĢħáĢ¹áĢ
ĠÙĦÛĮ ÛĴ
ãĥ¼ ãĤ¹
Ġn ew
Ð¼ Ð°Ð½
ĠáĢ±áĢ Ļ
Ġ200 8
à°° à±ģ
ãĤĪ ãģĨ
Ġè µ
Ð½ Ð¾ÑĤÐ¾
éĹ ®
å·¥ ä½ľ
à¹Ģà¸ ļ
Ùħ Øª
Ġ ą
Ð¸ÑĤ Ð¾
ĠÎ §
æĬķ æ³¨
ãģ« ãģª
ĠÙĪ Ùĩ
×ĵ ×¨
Ġé Ŀ
ĠÐİ Ð·
ÙĬ Ø²
à§ °
ĠÙĪ Ø¨
à¤¹ à¤¾
Ġàª¸ àª¾àª®
Ġáĥ® áĥĶáĥļ
à«ĭ àª¨
çĽ Ł
áĢĳ áĢ¬áĢ¸áĢ
à§įà¦ ķ
à®¿à®± à®¤à¯ģ
ĠØ¹ Ø¯
ãĥ¼ãĥ «
Ġà®ħ à®®
ĠÎº Î¬
Ø¹ Øª
àµĩà´ ·
ÐµÐ½ ÑĤÐ¸
Ð½ Ð¾Ð³
ìķ ½
ĠÐ· Ð²
à´¦ àµįà´
à¤Ĥ à¤Ĺ
Ġ×ľ ×¤
íķ Ļ
ÎŁÎ ¥
áĢ» áĢĻ
à§ĩà¦ ¬
æ ¹
å ĥ
áĢĲ áĢŃáĢ¯áĢ·
à±įà° ¡
Ġà´ Ī
ëª ħ
Ġáĥ¡ áĥ¢
à®® à®¾à®ķ
à°¿à° Ĺ
ÑĥÐ»ÑĮ ÑĤ
è ĳ
è¯ ķ
Ø¹ Ùĩ
Ġà® ľ
×ł ×Ļ×Ŀ
Ġà®ª à®¿à®°
è¯ ·
Ð½Ð¾ Ðµ
ĠØ§ÙĨ Ø¯
Ġàª¤ à«ĩàª
Ġí Ĩ
Ġ4 6
em ber
Ġag åĽ½éĻħ
è¦ ĭ
ê² ½
ĠÐµ Ðº
Îµ Ïħ
ĠáĢ± áĢĢáĢº
ĠàªĨàªµ à«Ģ
ãģķ ãĤĮ
ĠáĢģ áĢº
ç§ į
ĠÐ¼ Ñĸ
Ġàª¹àª¤ àª¾
åħ ¶
A R
æİ ¨
àª¿ àªĤàªĹ
ï »
áĥĿáĥ Ļ
à¥įà¤ ķ
àªµ à«ģàªĤ
ĠØ§ÙĦ ÙĬ
Ïį Î½
àªµàª¾àª¨ à«Ģ
Ð½ ÑĥÑİ
ot h
Ð¸ ÑĦ
à¸Ļà¸ ´
à´ķ à´°
le ct
ĠÚ©Ûģ Ø§
ĠØ¨ ØŃ
ĠÑģÐ°Ð¼ Ð¾
à¸µ à¸ģ
Ø§Ø¹ Øª
Ø§ÙĨ Ø¯
àª¤ à«ĭ
ÑĢÐ°Ñ Ħ
à¹īà¸Ń à¸¡
åĪĨ éĴŁ
ĠÐ½ Ð°Ñĺ
ÛĮÙĨ ÛĮ
ÐµÐ´ Ð¸
æ° Ĺ
Ġìķ Ī
Ïĥ Î¿
à¥įà¤ ¸
Ġæľ Ģ
à¤¾à¤ ĩ
am il
æī ĵ
ãĥ ĸ
Ġ×ĳ ×¨
ãģ¨ãģĦ ãģĨ
ÑģÐº Ð°ÑĤÐ°
Ġ9 9
ĠÏĢ Î¿Î»
ĠÐ° Ð¿
à¸³ à¸«
éľ ¸
áĥĿáĥłáĥ Ľ
Ġâ Ĥ¬
ĠÙĤØ± Ø§Ø±
áĥĲáĥ ŀ
ĠÐ´ ÐµÐ½
ĠáĢľ áĢĢáĢ¹áĢ
à§įà¦ ļ
à´® à´¾à´¯
Ġä½ Ĩ
Ñĭ ÑĤ
Î± Ïģ
à§ĩà¦Ľ à§ĩà¦¨
ĠÑĥ Ð¼
åĪ Ĺ
Ġì ¡°
Ġà° ²à±ĭ
Ø§ÛĮ Ø´
Ġàª Ī
Ïĥ ÏĦ
Ð¸Ð· Ð²
Ġthe ir
Ġà°ķ à±Ĥà°
_ c
×ľ ×Ļ
Ġ5 8
Ð» ÐµÐºÑĤ
Ġe v
Ġ5 9
æ Ĳ
r am
ĠÎµ Î¾
ĠáģĤ áģĢ
è¿ ĺ
Ïĩ Îµ
ĠÐ´ Ð¾Ð¼
Ġà®µ à®¾à®
Ġæ ²
à®ª à¯į
o y
Ð¸Ñı ÑĤ
Ġä» Ĭ
ĠÐ¿ÑĢ Ð¾Ð²
Ġêµ ¬
ì ¦
Ġà¹Ģà¸ ŀ
Ð² Ð°Ð»
ĠÐ± Ð¸Ð´
ãĤ Ń
áĢģ áĢ«
ĠØ¹ÙĦ ÛĮ
Ñī Ð¾
ĠØª Ø´
Ð± Ð¸
ãģĤ ãĤĬ
ĠáĥĽ áĥĲáĥĹ
ĠØµ ØŃ
Ġà¸ ĭ
Ġ5 4
à¦°à§įà¦ ¬
¦ Ĥ
å Ħ
à°¿à° ¸
s c
Ø« Ø±
Ġì¹´ ì§Ģëħ¸
ul l
à«ĩ àª¨à«įàª
e e
Ġæ °
àª¤ àª¾àªĤ
Ð½Ð¾ Ñģ
Ġn et
ĠáĥĻ áĥĿáĥĽ
×ķ×ł ×Ķ
ĠÑĢ Ñį
ĠØ® Ø¨Ø±
ãĤ į
çľ ģ
ÑģÐºÐ° Ñı
×ķ× ŀ×
ĠÐ¿ÑĢ Ð¾ÑĤ
ÑĥÑĢ Ñģ
Ð» Ð°Ð³
à¸± à¸ķ
ÐºÑĸ Ð²
ãĥ ĩ
Ġä» ĸ
Ġà®ª à®¾à®°
áĥĵ áĥĶáĥĴ
Ġáģ ¾áĢĢ
æ° Ķ
ĠÐ± Ð¾Ð»
áĢķáĢ¼ áĢ®áĢ¸
ÎµÎ¹ Î±
Ġàª¹àª¤ à«ģàªĤ
ä» ·
3 6
áĥĵ áĥĶáĥĳáĥĲ
éĿ ŀ
3 4
ĠØ¬ Ùĩ
Ġà¤ħ à¤¸
ĠÙĦ Ø¦ÛĴ
Ġ ä¸Ĭ
ĠØ¨ Ø®
è® º
íĶ ¼
×ķ× Ķ
×© ×Ķ
Ġà®ĩà®° à¯ģà®ķà¯įà®ķ
ĠÐ´ Ð¾Ðº
Ġëĵ ±
à¸± à¸¢
ĠÐ¼ Ð¾Ð´
Ġ×ŀ× §
Ø§Ø³ ÛĮ
æľ ¯
à´¤àµįà´¤ à´¿à´²àµįâĢį
ĠÐ¾ Ñĩ
Ø§Ø± ÙĬ
ĠØ¬ Ø¨
Ġ, "
Î¿Ïħ Î¼Îµ
áĢ¼ áĢ¸áĢ
áĢļáĢ¹áĢ ·
ĠÎ ¦
ĠÑĤ ÐµÑħ
å ©
ĠÐ· Ð½
ÑĥÐ²Ð° Ð°ÑĤ
Ġar ticle
Ġáĥ¡áĥĲáĥ¥áĥĲáĥłáĥĹáĥķáĥĶáĥļ áĥĿáĥ¡
Ġà¤ķ à¤¾à¤°
ãģĦ ãģ¦
Ġà¦¤ à¦¿à¦¨
ĠØ§ÙĦÙĦ Ûģ
í ģ
æģ ¯
à«Ģ àª¨
àµģà´ °
ç ¡
Ø§ÙĨ ÛĴ
Î¬ Î»
à¦° à¦¾
áĥĺáĥľ áĥĲ
ĠÑĤ Ð°ÑĢ
Ġæŀ ģéĢŁ
Ġ×Ķ ×Ķ
Ð· Ñĸ
ĠØ¨ Ø¹
ĠÐ´ Ð¾Ð»
à¤ķ à¥Ģ
Ġà®ª à¯Ĭ
ç© º
ĠÐº Ð¾ÑĤÐ¾ÑĢ
áĢĻ áĢ¬
æĮ ĩ
à¥ĩà¤ µ
à´¾à´ ķ
áĢ¼ áĢĶáĢ¹áĢ
Ġ×ľ ×ĳ
áĢŃáĢ¯ áĢĦáĢºáĢ¸áĢ
Ġthe y
áĢ½ áĢº
áĢĶ áĢ¬
ì ¶Ķ
Ø§ÙĦ Ø¨
å¼ º
à¸¸ à¸ģ
æľĢ æĸ°
Ġàª¦ àª°
ê² ©
à«ĩàª ¡
à¸ģ à¸±à¸Ļ
ĠÑĤ ÐµÐ»
Ð¿ ÐµÑĢ
ĠÐº Ð°ÑĤÐ¾
Ġà¤® à¤¹
Ø Į
ÑĢÑĥ Ð¿
áĥķ áĥĺáĥĹ
ÎŃ Ïģ
Ġï¼ Ľ
Ïģ Î®
Ø§Ø ©
Ġ5 6
ìĹ Ń
ĠìĬ ¤
ur n
Ñĭ Ð½
Ġï¿½ï¿½ï¿½ ï¿½
ir st
åĳ Ĭ
Ġre s
ĠÙħ Ø«
à´¿à´ ®
Ø§ÛĮ Ø§
d ay
Ġ5 00
ĠáĥĻ áĥĺ
í ĴĪ
ĠåĪ Ĩ
ŀ áĢĬáĢ¹
Ġw ork
Ð¾Ð»ÑĮ ÑĪ
Ð² Ð°Ð½
Ġe m
ĠÎ Ľ
Ð» Ð°Ð¼
ç ¢
Ð¼ ÐµÐ½
iz e
ĠáĥĽ áĥĿáĥĽ
ĠØ· Ø±ØŃ
ÑĪ ÑĤ
Ġáģ ģ
Ø§Ø± Øª
Î» Î¯
Ġ5 7
à®¿à®° à¯ģà®¨à¯įà®¤
áĥĶáĥ Ļ
ĠH ome
Ġà®¤ à®®
ĠÐ¼ Ð¸
ĠáĥĽ áĥĲáĥ¡
ĠØ´ ÙĪØ¯
ÏĦÎ¹Îº Î¬
ç Ĺ
áĢ¯ áĢĶáĢº
ĠÎµ Î¯
à°Ĥà° ļ
ĠáĢ±áĢ ĲáĢ¼
Ġáĥ¡ áĥĲáĥ¡
éĢ ł
ëĲ ĺ
ĠÐ½ Ð°Ñĩ
Ġà°µ à±Ĩ
Ġìŀ Īëĭ¤
ĠÐ¾ Ð»Ð¸
àª¾àª ¥à«Ģ
à´¿à´² àµģà´Ĥ
ÐµÑļ Ðµ
Ġàª¸ à«įàªµ
à®ļ à¯įà®ļ
æĺ Ł
E N
à±ĩà° ¸
à¦¨ à¦¾
Ġà¦ľà¦¨ à§įà¦¯
à§ Ī
Ġà®ķ à¯ģà®±
Ø§Ø¦ ÙĦ
ad e
Ġà®¨ à¯Ģ
æĪ ¿
à¯įà® ¨à¯įà®¤
ÙĨ Ùĩ
å Ķ
ï¿½ï¿½ ï¿½ï¿½
t o
à¸Ń à¸²à¸
ĠØ Ľ
Ġ q
ìĺ ģ
áĢĲ áĢħáĢ¹áĢ
ed ia
ĠÐ¾ Ð²
ÑĨ Ð¸ÑĤÐµ
i x
ĠA l
a u
à¹ī à¸²à¸Ļ
à¤Ĥ à¤¦
ĠÐ³ Ð¾ÑĢ
Ø³ Ø±
ãĥ ł
æ± Ł
Ø¨ Ø§Ø¯
à¦¬ à¦¾à¦°
Î¼ Î·
ÙĦ ÙĤ
à°¾à° ª
ĠÐ¸Ð½ ÑĤÐµÑĢ
àµģà´ķ à´³
ĠØ± ÛĮ
Ġä» ¥
ÑĨÐ¸ Ð¸
Ġt ime
ĠáĢ±áĢ Ĩ
ãģ Ķ
æĶ ¶
Ġor g
Ġ$( '
ĠØ¨ ÙĬÙĨ
ĠÑĤ Ð°ÑĬ
àªĽ à«Ģ
ä»Ģ ä¹Ī
ĠìĨ Į
Ġå¤§åıĳ å¿«ä¸ī
Ġ" ).
à¨¾ à¨
àª¿àª¯ àª¾
æ² »
à¦¸ à§įà¦¥
Ð¼ Ñĥ
ĠÐ´ÑĢÑĥ Ð³
Ġb ack
ĠãĤ ¹
è½ ¯
ãĤ ¸
ĠáĢ»áĢĻáĢĶáĢ¹áĢĻ áĢ¬
Ñĥ Ð³
Ð ¨
ĠÙĨ ÙĤ
ç ¶
ĠáĥĲáĥ ķ
ĠÛģÙĪ Ø¦ÛĴ
ãĥ³ãĤ °
àµģà´ ª
ÐµÑĢ Ð°
ãģ ĺ
ĠÐĺ Ð½
Ġàªµ à«įàª¯
Ġàªµ àª¾àª¤
áĢĲ áĢŃáĢ¯áĤĶ
à´¾ àµ»
å· ²
Ù °
à®£ à¯įà®£
áĢĲ áĢ°
áĢĢ áģ
áģ¿ áĢĻ
Ġáģ ĥ
u p
ĠÎ ĺ
Ð°Ð² Ð°Ð½
à§ĩà¦ ¸
.. .
äºī éľ¸
Ġáģ Ģ
ar g
à¹Ģà¸ Ħà¸£
ĠÐ¿ÑĢ Ð¾ÑģÑĤ
à®¿à®² à¯įà®²
æĭ Ľ
Ġæĺ ¯
àªŁ àª²
áĥłáĥ «
Ġa tt
ĠØ³ ÙĨ
Ľ áĢ½áĢŃ
áĢĢáĢ¹áĢ Ģ
Ð ¥
à°¾à° ¬
æ² ¡
é ¤
Ġàªµàª°à«įàª ·
çĪ ±
Ġà´ ķàµįà´
Ġæ ķ
5 8
ë Ħ
à¹Ģà¸ Ħ
ĠÑģ ÑĢÐµÐ´
Ġà®¤ à®¿à®°
à¦¾à¦¬ à§ĩ
Ġìľ ł
Ġ×Ķ× ĵ
à¸¥ à¸ĩ
ĠÐĳ ÐµÐ»Ð°ÑĢ
Ġàªª à«Ĥ
Ġà°Ĵ à°ķ
Ñĭ Ñĸ
Ġ4 2
½ Ķ
à°¤ à±ĭ
ÑĢ ÐµÐ±
è İ
Ġæ ¯
Î¹ Î½
Ġb r
Ġà°ī à°¨à±įà°¨
or s
ÙĪ Øµ
áĥĺáĥ¨ áĥķ
Ġà¸ ¢
áĢĲ áĢ±áĢ¬áĢ·
ing s
áĥĲáĥª áĥĺ
×¨ ×ª
ĠÙĩ Ø°Ùĩ
é£ İ
à¸´ à¸ĩ
à´¾à´ §
ãĥ §
à¯ĩ à®©à¯į
Ø´ ÛĮ
ĠØ§ÙĦÙħ Øª
ĠÙĪØ² ÛĮØ±
áĥĲáĥ «
ĠÑĤ ÑĥÑĢ
áĥĲáĥļ áĥ£áĥłáĥĺ
ä¸ ĵ
à¤ķ à¤¾à¤°
à¦ Ľà§ĩ
åħ ±
áĢ¼ áĢ¬
Ġç ¾
ĠY ou
à´¤àµįà´¤ àµĨ
Ġç ī
ÙĪ Ø§ÙĦ
Ġáĥ¡ áĥ®áĥķ
áĢĲáĢ¼ áĢĦáĢ¹
åĨ Ľ
Ġ×ľ ×Ĺ
ation s
Ġ5 3
ĠàªŃ àª¾àª°
å® ¹
ìĿ´ ëĭ¤
æł ĩ
áĥ£áĥ ¡
Ð¸Ð´ Ð°Ð½
ĠÑ Ĺ
áĢŀ áĢ¬
Ġàª¨ à«ĩ
Ø±ÛĮ Ú©
Ġæ ±
Ġà¤ §
ĠÐ¼ ÐµÑģ
åį İ
Ġwh ich
è Į
Ġà´ ĵ
à°¦ à±įà°¦
áĢ ī
à¥ĩ à¤²
Ð¾Ð· Ð¸
íķ ©
Ġë ¹Ħ
ĠÚ¯ Ø§
åı¯ ä»¥
ĠÐĲ Ð½
ĠÐŁ ÑĢÐ¸
ë© °
¬ áĥ§
à«ĩàª² à«Ģ
ìĭ ¤
ë° Ķ
Ġàª²à«ĭàªķ à«ĭ
ĠTh is
ĠW e
Ġá ¼
Ġ' '
à¤¾à¤ ¬
áĤĢáĢĢ áĢ®áĢ¸
ĠU S
áĥĺáĥ ¥
Ð°ÑĤ Ðµ
ĠÑĤ Ð°ÑĪ
ĠáĥĽ áĥĿ
ĠÙĤ Ø¨ÙĦ
à§Ģ à§Ł
o x
áĢĢ áĢ¬
ÙĬØ± Ø©
à¦¾à¦ķ à§ĩ
à§ĭ à¦°
Ñı Ð³
áĢĳ áĢŃ
Ġ Ø§Ú©
Ġà¦ı à¦°
áĢ¯ áĢĶáĢ¹áĢ¸
à¦¤ à¦¿
Ð°ÑĤ Ð¾ÑĢ
à®¿à®© à¯įà®±
Ġà°ª à±ĭ
ĠØ³ Ø§Ø²
ĠÚ© ÙĦ
Ġ( );
Ġà°µ à±įà°¯
Ġà®ĩà®° à¯ģà®¨à¯įà®¤
ìĦ ł
Ð°ÑĢ Ð°
ĠÐ¹ Ð¸Ð»
ìĥ Ŀ
áĢľ áĢ¯áĢķáĢ¹áĢ
Ļàµįà´ Ļ
à«įàª §
å¾ ĭ
ĠØŃ ÙĤ
ØŃ Ø©
Ġà´ ı
Ġì¶ľìŀ¥ ìķĪë§Ī
áĤ ĩ
ĠÏĢÏģÎ¿ Ïĥ
àªµ à«ĩ
æµ ĭ
áĥĿáĥ ¢
Ġ×¤ ×¨
à¸Ļà¸ §
el y
áĥł áĥĿáĥ¡
áĥ£áĥ ¨
à¥įà¤ ¦
Ġç ½
Î¼ ÏĢ
Ġà®® à¯ĩ
Ġà¤² à¥ĩ
ĠÐľÐ°Ðº ÐµÐ´
± áģ¾áĢĢ
áģ µ
ĠáĥĹ áĥĲáĥľ
Ġ×Ĵ ×Ŀ
Ġ ä¹
Ġv i
Ġà¤ķ à¤¿à¤¯à¤¾
ÎĻÎ ļ
ç ¯
f er
ĠÑģ Ð¾Ð±
ĠÑĤÐ¾ Ð°
e y
Ð» ÐµÐ¼
Ġà®ķà¯Ĭ à®£à¯įà®Ł
Ġì ¢
an c
Ø§Ø´ Øª
æ ©
ĠáĢģ áĢ¯
Ġà¤¹ à¥ģà¤
à«Ģ àªĤ
Ø§Ø¯ Ø©
Ð°ÑĤ Ð¸Ð²
à§įà¦ ¡
ĠãĤ ¢
ĠÎ ¾
Ġà¹Ģà¸ §
àªĤàª ¡
ĠÏĥ ÏĦÎ±
Ġ id
ĠåĪ ©
åŃ Ĺ
à¥ĩ à¤¤
ĠáĥĴ áĥķ
à¸ł à¸²à¸ŀ
Ġf ont
Ùģ ÛĮ
éĿ Ĵ
à¸¥à¹ĩ à¸Ńà¸ķ
Ġç ¬¬
ê± °
áĥĶáĥ ĸ
Ġáĥ£áĥ Ļ
ĠáĢľ áĢ¯áĢķáĢ¹áĢ
Ġ×Ľ ×Ļ
ĠÐ´ Ð¾Ð¿
ģ áĢ»
áĢĽ áĢ²áĤķ
à±ĩ à°ķ
Ġáĥĺáĥ§ áĥĿ
àµĨà´¨àµįà´¨ àµį
æ¬ ¢
ÏĦÎµ ÏĤ
Ø§Ø± Ø§Øª
ĠØ³ Ùħ
ÐµÑĪ Ðµ
Ĥ à¦²
ä¼ ĺ
ãĤ °
Ð¾Ð½ Ð°Ð»
Ð° Ðµ
A T
Ø§ÙĤ Ø¹
Ġà¦ķ à¦¾à¦°
áĢ¡ áĢħ
Ġà¤ħ à¤¨
à¥ģ à¤¨
Ġv al
ãĤ »
ĠÐ³Ð¾Ð´ Ð¸Ð½Ð°
ĠÐ¢ Ð°Ðº
ëį °
ãģ§ ãģį
ĠÎ¤ Î¿
à¸ª à¸¸à¸Ķ
¯ ¼
áĢĦáĢ· áĢ¹
áĥĺáĥ ¤
ç Ĭ
A P
åĭ ķ
Ø§Ø± Ø©
àµįà´ ķàµįà´ķ
ĠØ§ÛĮ Ø³
Ð¾Ð² Ðµ
Ġs a
ĠÐŀ ÑĤ
áĢ¬ áĢ¹
r l
Ñĸ Ð±
Ð» Ð°Ð¹
ìĭ Ŀ
à«įàª ļ
é¦ Ļ
åĮ Ĺ
à¹ģ à¸ļà¸ļ
ãĥ¼ãĥ Ī
ì Ļ
ĠÐ¼ Ð¸Ð½
ĠÙħ Ø±Ø¯
ol d
Ġ×ķ ×ŀ×
ĠØ¯ ÛĮØ§
áĢĻáĢº áĢŃáĢ³
ãĥ Ł
àµĭ à´Ĺ
ĠØ§ÙĦØ° ÙĬ
à¦Ł à¦¾
à§ģà¦ ·
Ð°ÑĤ ÑĥÑĢ
ĠÏĢ Î¿
Ġà« ¨
ĠÎ¼ Î±ÏĤ
ĠáĢĲ áĢĽ
er t
è ı
ç ħ
ÐµÐ³ Ð¾
áĥł áĥĺáĥķ
, "
Ġà¦Ĩ à¦²
ĠâĢ ı
Ġt w
ĠÐ³ Ñĵ
ĠÙĨØ¸ Ø±
ĠÑĥÑĩ ÑĥÐ½
ĠU n
ĠÚ¯ ÛĮ
ĠØ¨ Ø§Øª
Ġ×Ĳ ×ķ×ª
Ñĸ ÑĪ
ĠÐ¼ Ð°Ð³
å¼ ķ
áĢ±áĢ« áĢº
àª¾àªµ à«Ģ
ê¹ Į
æ ħ
é£ ŀ
à¹Ģà¸ Ī
Ġà® ¯
Ð±ÐµÐº Ð¸ÑģÑĤÐ¾Ð½
áĥĿáĥł áĥĺáĥ¡
à°¾à°¨ à±įà°¨à°¿
ĠÑģ Ð¸ÑģÑĤ
ÛĮÚ© ÙĨ
ĠØ¨ Úĳ
ĠÛģ ÙĪÙĨ
Ġçİ¯äºļ ag
ĠáĥĻ áĥĿáĥľ
ĠáĢ±áĢ ĲáĢ¬
ĠÙģ Ø±ÙĪ
áĥķ áĥĲáĥļ
Ġ5 2
çİ ĩ
àµĩà´ ¶
Ñĥ ÑĶ
Ú© Ø§Ø±
Ø§Ø¨ ÙĦ
ãģ§ ãģ¯
à°¦ à°¿
Ġë§ Į
Ġëı Ļ
ĠØŃ Ø¶
áĥĲáĥľ áĥ¡
Ġìĭ ł
Ġad d
Ñĥ Ð»Ð¸
Ð¼ Ðµ
àª° àª¾àª¤
æ¡ Ī
Ø¯ Ø§Ùħ
ĠØ§ÙĦÙħ ÙĨ
Ġå İ
ĠÙĪ Ùİ
Ð» Ð°Ð±
Ġ ðŁ
àªķ à«ĭ
çĥ Ń
à¯ģà® ª
Ð°Ñİ ÑĤ
à¤Ĥ à¤¡
ĠÐ¢ Ð¾
ĠáĢ Ĭ
æīĭæľº å®¢æĪ·ç«¯
ĠáĢĻ áĢº
Ġà®¤à®® à®¿à®´
ĠÑģ ÑĥÐ´
Ġà®µ à®¿à®
à°¸ à±įà°¤
ä¸ ¤
à®³ à¯Ī
áĥ® áĥĲáĥĵ
ĠØ§ÙĨ Ûģ
ĠáĥłáĥĿáĥĽáĥĶáĥļ áĥĺáĥª
Ø· Ø©
ê° ľ
Ð¾Ð² Ð¾ÑĢ
Ġà¤¯ à¤¾
èĢ Į
Ġ×ķ ×ĳ
áĢĦ áĢ¶
Ġit em
áĥĶáĥĳ áĥ¨áĥĺ
Ġp art
Ġy ear
éĺ ³
Ġà§¨à§¦ à§
Ġà®ī à®³à¯įà®³
ĠÏĥ ÏĦÎ¹
à°¿à° Ł
Ġà´¸ àµįà´µ
×ł ×ķ×ª
æł ¡
ĠìŀĪ ëĬĶ
Ð¿ Ð¾Ð»
ĠÐ¿ÑĢ ÐµÐ·
ĠÎ ¶
Ð¾ Ñİ
ê° ķ
æĶ ¹
áĢļ áĢ°
ãĤ §
ç½ ®
ãĥ³ ãĥĪ
u j
áĢ¶áĢ¯ áĢ¸áĢ
Øµ Ø±
Ġìĺ ģ
ĠØªÚ¾ ÛĴ
ĠPost ed
å¤ ´
Ġàª¥ àªĪ
Ð°ÑĨÐ¸ ÑĺÐ°
Ķ áĢ¾
Î³ Îº
ÎµÎ¹ ÏĤ
ç ·
ĠÐ²Ñģ Ðµ
Ġ4 1
ĠÏĢÎµ ÏģÎ¹
Ġà®® à¯ģà®Ł
Ġä¸Ń åĽ½
Ð´ Ð¶
ç» Ħ
Ġë ħ
ĠÐ¿ Ð°ÑĤ
ķ Į
Ø¹ ÙĪØ¯
ãģ Ń
Ùĥ ÙĪÙĨ
åĢ ¼
£áĥ ¡
o se
Ġå° Ĭé¾Ļ
å¤ Ħ
Ġà¦¬à¦¾à¦ Ĥà¦²
Ġìļ °
Ġåħ ¨
ĠÎļ Î±
ìĿ Į
×ķ× ĸ
Ġàª¦ àª¿àªµ
ĠÑĤ Ðµ
àª¤ àª¿
ĠØ£ ÙĬ
åı ª
Î³ ÏģÎ±
Ð¸ÑĤ ÐµÐ»ÑĮ
Ġ×Ķ× ¦
Ġë ¯¸
Ġàª¨ àª¾
à¸± à¸į
ãĤ ª
7 5
à¸ľ à¸¹à¹ī
à§ Į
íĸ Īëĭ¤
ĠÚ© Ø³ÛĮ
ol l
ĠW h
ĠÏĢÎ± ÏģÎ±
Ġà¤ª à¤¹
à¸Ń à¸Ńà¸Ļà¹Ħà¸¥à¸Ļà¹Į
ĠÑĩ ÐµÑĢ
áĢ¶áĢ¯ áĢ¸
Ġáĥĺ áĥ¥
ĠÐ¿ÑĢÐ¾ ÑĨ
Ġáĥ¬ áĥļáĥĺáĥ¡
à¸Ļà¸ °
à¦¦à§įà¦ §
à¸³à¸« à¸£à¸±à¸ļ
à«Ģ àª°
Ð°Ð¼ Ð°
ë¶ Ħ
ÑĦ ÐµÑĢ
ĠàªŃàª¾àª° àª¤
à±ģà° ª
åľ° åĿĢ
åıĳ å±ķ
Ġàªµàª¿àª ¶
ì ħ
Ġà¦¬à¦¿à¦ ¶
ĠâĢĿ ,
à±ĩà° µ
åħ ·
ÑģÑĮ Ðº
áĢĲáĢ½ áĢĦáĢº
×ŀ ×ķ
Ð¸Ð» Ð°ÑĢ
×© ×Ļ×Ŀ
v el
ĠÐ ®
u al
ÎĹ Î£
áĥĹ áĥĲ
ĠÑĤ Ð¾Ð²Ð°
Ġd es
áģ ¢
Ġà®µà¯ĩ à®£à¯įà®Ł
à¤¾à¤ £
ĠÛ±Û ³Û
ä» ĺ
Ġà¸ ĸ
ãĤ ¨
è½¯ ä»¶
Ø§Ø º
Ð¾ Ðµ
Ġ5 1
Ûģ Ø±
Ġu l
Ġà¤¤ à¥įà¤¯
ĠÐ· ÐµÐ¼
Ø¶ ÙĪØ¹
Ġáĥĵ áĥĲáĥ¡
Ñı Ñħ
é© ¬
Ø® Øª
à«ĩàª ĸ
åĲ Ħ
åĬ ©
ĠT r
à´ ļ
ĠÐ· Ð°Ð³
Øª ÙĪ
ĠåĮĹäº¬ èµĽè½¦
E D
Ġn o
Ġæ ¬
åº Ĩ
ĠØ³ ÙĬ
Ġre c
Ġal so
×Ļ× Ĵ
à¸²à¸£ à¸ĸ
Ġ. )
áĥ£áĥ ¤
Ġàª° à«Ģàª¤
Ð¾Ð½ Ð¾Ð¼
Ġan y
à¤ ·
à§įà¦ ¸
à¹Ģà¸ĩ à¸´à¸Ļà¸
à¸ķ à¸±à¸§
ĠÙĪÙĤ Øª
Ġ×Ķ× ĸ
Øª Ø¯
ÑģÐºÐ¸ Ð¹
áĥĶáĥłáĥ ¡
ãģķ ãĤĵ
ĠáĥĽ áĥĺáĥĽ
à¸· à¹īà¸Ń
Ġáĥ¬ áĥĲáĥłáĥĽ
ĠI nd
æŁ ¥
Ġà´® àµģà´
áĢŃ áĢĻáĢº
à°® à±įà°®
ĳ áĢ¬áĢ¸áĢ
ĠÐ¿ Ð°Ðº
à¯ĩ à®ļ
à´ «
Ġ×ĳ ×Ĺ
ĠØ´ ÙĩØ±
ĠØ´ ÙħØ§
à±ģà°Ĥà° Ł
áĢī áĢº
Ð¸ÑĢ Ð¾Ð²
à¸± à¹Īà¸Ļ
áĢĲáĢ½ áĢĢáĢº
à®± à¯įà®ª
Ġ el
Ġàª¤àª® à«ĩ
àªĤàª ļ
ĠÐĲ ÑĢ
Ġà´ ŀ
áĢģáĢº áĢŃ
4 8
å£ «
ĠÐ¿ Ð°Ñģ
Ġê ´Ģ
ĠÐĴ Ð¾
ĠÐ¿ÑĢ Ð¾Ð³
à±ģà° ¡
Ġê° ľ
?? ??
è¶ ħ
áĥĺáĥĲáĥľ áĥĺ
à«ģàª ¦
Ð´ Ñĥ
à«ĩàª ľ
áĢŃáĢ¯ áĤķ
ìĹ °
ĠèĢ Į
íĨ ¡
à¯įà® °
ro w
Ġà¦® à¦¾à¦¨
Ð ¤
Ġblo ck
Ð¸ÑĤ Ñĥ
ÑĢ Ð°Ñģ
ĠÚ©Ø± ØªÛĴ
Ġãģ Ĭ
ĠÎºÎ± ÏĦÎ±
Ī à¸°
ĠA n
Ġ×ķ ×ľ
ĠØª ÙĦ
ĳ ľ
ĠìĦ ł
æķ ´
é¡ ¹
Ġê¹ Ģ
ĠÚ©ÙĪ Ø¦ÛĮ
Ġà¹Ģà¸ Ľ
at er
áĥĿáĥĳ áĥ¡
à´¿à´ķ à´³
áĢ¬áĢ¸ áĢĢ
à¦ĸ à¦¨
en g
6 9
ĠÑĦ Ð¾ÑĢÐ¼
ap t
e k
is s
à¯ģà®® à¯įà®ª
Ñģ Ðµ
4 3
ĠØ§Ø ·
æį ®
Ć ą
èĬ ±
ÏĦ Ïħ
Ġk n
à«Ģàª ²
Ð¾ Ñħ
ĠÐº ÑĬ
à¥Ģ à¤¨
áĢŀ áĢ±áĢ¬
à®ķ à¯į
Ïģ Î¹Î±
Ġâ ĩ
Ïģ Î¿Ïħ
ìŀ ¬
Ġw id
êµ Ĳ
åħ ļ
ç ª
à¦¨à§įà¦ ¦
Ġ ä¸ī
à¸¡ à¸²
áĥĲáĥľ áĥĵ
ĠÚ© Ú¾
Ø¹ Ø±
Ġàªª àªĽà«Ģ
íĺ ¸
Ġwh o
Ġ) {
Ġ×ľ ×§
Ġí ĥ
ĠÎ¼ Î¹Î±
Ġà¦¨ à¦¿
Ġà¦Ĩ à¦ª
ÏĦ ÏģÎ¿
å¾ ·
æŃ ¤
Ø±ÛĮ Ø¯
àª¾àª¨ à«ĭ
áģ¿áĢķ áĢ®áĢ¸áĢ
ĠàªĨ àªľ
à¥Ĥ à¤°
Øµ ÙĪÙĦ
Ġå° ı
Ġà®ļà¯Ĩà®¯ à¯įà®¤
Ú© Ùĩ
ĠÐ¼ Ð°Ðº
ĠØ§ÙĦ Ø²
Ð½ Ð°Ð»
Ġáĥ© áĥĶáĥĽ
Ġà°ķà±Ĥà° ¡à°¾
ĠÐİÐ· Ð±ÐµÐºÐ¸ÑģÑĤÐ¾Ð½
áĢ»áĢģ áĢĦáĢ¹áĢ¸
ĠÐ· Ð°Ñħ
ĠÎ´ Î·
ÙĢÙĢ ÙĢÙĢ
et h
åĬ ŀ
ç Į
Ľ áĢ¬
×ķ× ļ
ĠáĢ ĩ
à¥ģ à¤ķ
çł Ķ
áĥĺáĥ §
ĠÐ¿ÑĢ Ð¾Ð±
Ġà¤¸à¤¾à¤ ¥
ÑĢ Ð´
ãģ« ãģ¯
ĠØ¯ ÙĦ
ĠÒĽ Ð°ÑĢ
Ð»Ð°ÑĢ Ð½Ð¸
Øµ Ø¯
áģ ¥
´ë Ŀ¼
i ver
à¸¶ à¸ģ
Ġà«§ à«
Ġà¹Ħ à¸¡à¹Ī
ĠÑģÐ» ÑĥÑĩ
Ïħ Î½
í ŀ
ĠáĢĸáĢ¼ áĢħáĢº
åĪ Ľ
Ġ×Ĳ ×Ĺ
×ĺ ×¨
Ø§Ø± Ùĩ
ĠÎ¿ ÏĢÎ¿
ÐµÐ» Ð°
ãĥ ĳ
ĠÐ½Ð° ÑģÑĤ
ĠÎł Î±
ĠÐºÐ¾ Ñĺ
Ġìĺ Ī
à°ķ à°¿
à¸Ķ à¸´à¸ķ
à¸¡ à¸·à¸Ń
åĽ Ľ
ÐµÑĩ Ðµ
áĥķ áĥ¡
Ġà¹Ģà¸ Ķ
Ø¦ ÙĬØ³
Ġàª¸àª® àª¯
ĠÑģ Ñĥ
ĠÐ¿ Ð¾Ð¿
ĠÙĩ Ø³Øª
ì Ī
ĠÑģ Ð°Ð¹
Ø§Ùĩ Ø¯
áĥĿáĥł áĥĺ
áĢ¼ áĢ²
ä¹ ¦
Ĥ à¸Ńà¸ĩ
Ġ×ŀ× ĵ
ë² ķ
áĢŃáĢ¯ áĢľ
ĠÙĩ Ø±
Ġà¦¹ à¦¬à§ĩ
Ġ, .
è° ĥ
ÏĮ ÏĦÎµ
Î ļ
à§įà¦¯ à¦¾à¦¨
à¤ ł
Ø¹ Ø¨
ĠÑĢ ÐµÐ·
Ø³ ÙĬ
× ¥
æĶ ¯
Ø§ÙĨ ÙĪÙĨ
Ġà´¸ à´®
Ġà¦Ĩ à¦¸
Ġèĩ ª
ĠÑĤ Ð°Ð¼
Ġ} .
ìļ ´
Ġà¤° à¤¾à¤ľ
ĠA m
áĥĺáĥ ŀ
on s
à¦§ à§įà¦¯
ĠáĥĽ áĥĶ
Ġm in
Ġàª¦ à«įàªµ
Ġo ver
Ùħ ÛĮÙĨ
Ġæ ³
Ġ×ŀ× Ľ
ëł ¥
ation al
ÑģÑĤ Ð¾Ð½
à¸ĩ à¸²à¸Ļ
à°¡ à°Ĥ
à¦ ł
Ġà§¨ à§
à¸´à¸¡ à¸ŀ
áĢ±áĢ Ĵ
Ġé ĺ
Ġàª² àª¾àªĹ
ĠìĹ °
Ø§ÙĪ Ø±
ot el
áĢ¾ áĢŃ
à¤ ¥
ì¶ľìŀ¥ ë§ĪìĤ¬ì§Ģ
åĵ ª
Ð½ ÐµÑĢ
×ĳ ×Ķ
åı Ĥ
Ð³ Ñĵ
ĠáĥĽáĥĲáĥĴ áĥłáĥĲáĥĽ
ĠáĢ±áĢ ŀ
ĠØ¯ ÙĪÙĦ
à¦° à§ĩ
ØªÙĦ Ùģ
áĢĶáĢ¹áĢ Ģ
à¤¾à¤ ı
Ġà°ħ à°µ
Ġé «ĺ
Ġæ Ľ
Ġà¤¸ à¤ķ
ĠÑĸÐ½ ÑĪ
×ľ ×Ļ×Ŀ
Ġìķ Ĭ
å¿ ħ
Ġà°¨ à°¿à°°
Î´ Î¹Î±
Ġáĥ¡ áĥĲ
ĠÑį Ðº
é£ Ł
6 7
àª¿ àª®
å· §
à¸£à¸²à¸ °
Ġu nd
ĠÐ½ ÐµÐ´
å Ĥ
áĢĲ áĢĦáĢ¹áĢ¸
Ðł Âµ
à¸²à¸¡ à¸²à¸£à¸ĸ
---- ----
ĠÚ© Ø§Ùħ
ÙĪ Ùĩ
æĭ į
Ĳ áĢļáĢ¹
ÏĢÎ¿ Î¹
à¸Ńà¸¢ à¸¹à¹Ī
ĠØµ ÙĪØ±Øª
ĠÑĢ ÐµÐ³
Ġà°¨ à±ģà°Ĥà°
áĢ¾ áĢ¬
à´¾à´¤ àµįà´°
è¾ ¾
ĠáĢ±áĢ Ĵ
ÏĢ Î¬
Ġ- -
it le
Ð½Ð¾ÑģÑĤ ÑĮ
â ķ
à«ĩàªŁ àª²
ä» Ĭ
Ø³ Ø§ÙĨ
í ĽĦ
ĠÙ¾ Ø³
íĨ ł
»áĢģ áĢĦáĢ¹áĢ¸
Î¼ÎŃ Î½
ĠM ay
Ùĥ Ùħ
¦ ¬
àµįà´ £
it t
à°¿à°¨ à°¿
Ġto p
Ġà¤ķà¤° à¤¨à¥ĩ
Ġ3 00
Ġà¦¦ à§ĩà¦ĸ
ĠÑģ ÐµÐº
à´± à´¿à´¯
ĳ Ĳ
áĥłáĥ £áĥļ
Ġê° ķ
Ġ! !
ĠÐ² Ð¾Ð´
ĠÐ² Ð¸Ðº
à°² à±įà°²
ĠØŃ Ø¯
ÙĪÙħ Øª
à±ģà°ķ à±ĭ
ÛĮÙħ Øª
ĠâĢĿ .
Ñı ÑĤÐ¸
Ġé Ļ
à«ģ àª¨
ĠÐ· Ð°Ñģ
I D
à®¤à¯įà®¤ à¯Ī
Ġë Ķ
à¹ Ĭ
áĢĳ áĢ²
ĠH e
èĩ ³
Ġàª Ŀ
Ø¬ ÙĪØ¯
Ðµ Ñĺ
ĠA nd
Ġl ike
ĠÑĢ Ð¾Ðº
à®¿à®° à¯ģà®ķà¯įà®ķ
Ġà¤¹ à¤®
ĠÙ¾ Ø±ÙĪ
ĠàªĨàªµ à«ĩ
áĢ±áĢĲáĢ¬ áĢ¹áĢ
ĠÚ¯ ÙģØª
à¸Ķà¹ī à¸§à¸¢
Ġå ¦Ĥ
Ġà®ħ à®©
ĠÐ¾ Ð»
áĢ¸áĢ±áĢ ĲáĢ¼
Ö ¼
à§įà¦ ¦
ĠÐ³Ñį ÑĤ
ĠØ¹ Ø§Ùħ
áĢ±áĢĽ áĢ¸
E T
ç¦ ı
Ġf e
à¯įà®ķ à¯įà®ķ
ĠA d
Ġ×ŀ× ĳ
Ġà¦® à§ĭ
Ġà¦¸ à§įà¦¬
ĠÐ¿Ð¾ Ð»Ð¸
å· ±
· à«įàªŁ
Ġàªľ àª¾àª£
ĠÐº Ð°Ð½
à«ģàªľ àª°àª¾àª¤
ĠÐ² Ð°ÑĪ
ĠáĢĽ áĢ½áĢŃ
ëª ¨
à°¾à° §
à°¾à° £
Ġáĥŀ áĥĺáĥłáĥ
ì² ´
ĠØ¨Ø§Ø´ Ø¯
ĠÐ¼ Ð°Ð¹
à¦¨à§įà¦¤ à§įà¦°
ĠÐº Ð²
in a
à´¿à´ ±
à¦¾à¦ ¯à¦¼
ĠÐ¡ Ðº
er m
Ú¯ Ø§ÙĨ
å¹ ¿
Ġáĥł áĥĲ
áĢĦáĢ· áĢ¹áĢ
à±ģà°Ĥà° ¦
éĺ Ł
à¸¶ à¹Īà¸ĩ
ì ¡
Ñ ļ
Ġà¦Ĩ à¦Ĺ
ãĥ Ĭ
ÑĨÐ¸ ÑĺÐ°
Ġ×ŀ× ¦
ĠâĢľ ,
à¦° à§įà¦¤
Ø¸ Ùħ
í İ
ĠáĥĲáĥĵ áĥĲáĥĽ
à®©à¯įà®± à¯ģ
æĹ ©
Ġì¹´ íĨ¡
áĥĶáĥ ®
Ġç¾ İ
Ø® Ø§Ø¨
×ĵ ×Ļ×Ŀ
à§ĩà¦ ·
O R
am p
å½ ¢
ĠE x
éħ į
Îĳ Î£
ĠØ§Ù¾ ÙĨÛĮ
ĠáĢ»áĢķ áĢĬáĢ¹áĢ
Ïĥ ÏĦÎ·
Îµ Ïģ
ĠáĥĴáĥĲáĥĽ áĥĿáĥ
à±Ģ à°°
æĺ ĵ
Ġ200 7
ä¼ģ ä¸ļ
Ø³ ÙĦ
ÎŁ Î£
ĠÐ°Ð± Ð¾
áĥł áĥĶ
éŁ ³
×ķ×¨ ×Ķ
ĠØ¯Ø§ÙĨ Ø´
àµįà´¯ à´Ĥ
Ġàª°à«Ģàª¤ à«ĩ
Ġàª° à«Ĥ
Ġag äºļæ´²
ĠÐļ Ð°Ðº
ĠÑħ Ð°ÑĢ
ĠÎ± ÏĢ
è´ ¨
à´¨àµįà´ ¦
æ² ³
Ġ ãģ¨
ĠÑģÑĤ Ð°Ð½
×Ļ×¨ ×ķ×ª
à¦® à¦¾à¦¨
áĢ¯áĢ¶ áĢ¸
å® Į
lo ad
à®¾à® ķà¯įà®ķ
r ic
ÑĢ Ð¾Ð½
Ġà¤¥ à¤¾
ĠìĹ Ĩ
ĠÐ· Ð½Ð°Ñĩ
Ġ ä¸º
à¸´ à¹Īà¸ĩ
Ðµ ÑĦ
ģ áĢ«
ĠP l
áĥĿáĥĵ áĥĲ
áĥľ áĥĶáĥľ
Ġì Ļ
æ¸ ¯
Ġ íķ´
áĢŃ áĢĶáĢº
à¯Īà® ªà¯į
×Ļ× ĸ
èĤ ¡
Ġàªķàª° àªµàª¾àª®àª¾àªĤ
ÑģÐº Ð¸ÑĤÐµ
ĠçľŁ äºº
à§ĥ à¦¤
Ġìĥ Ŀ
ĠâĢ ¬
à¸Ĥ à¸¶
ÙĪ Ø§Øª
åĬł çĽŁ
Ġæľ ¬
æ¶ Ī
àµįà´¯ à´®
ĠáĢ¥ áĢ®áĢ¸áĢ
Ġh is
à´¾à´¯à´¿à´° àµģà´¨àµįà´¨àµģ
ÙĨ Ø©
_ t
ĠÙĪØ§ÙĦ Ùħ
à±ģà°ķ à±ģ
çİ ĭ
ÙĪ Ùģ
ĠØ§Ø³Øª Ùģ
Ġæ Ļ
Î¸ ÎµÎ¯
à´¾ àµ¼
à¦¾à¦ ĸ
Ġàª¥ àª¾àª¯
à®¿à®¯ à®¿à®²à¯į
Î³ Î¿
âĢĮ ÙĩØ§
ç® Ĺ
×Ļ×¨ ×Ķ
Ġf ind
Ïģ ÎµÎ¯
ĠÑģÐ² ÐµÑĤ
ĠJ an
à¦¿à¦ Ĥ
é¢ Ħ
ç ļ
Ð²ÑĢ Ð¾Ð¿
à¸¥ à¸±à¸ĩ
à±Ģ à°µ
×ķ×ł ×ķ×ª
à®¿à® ¨à¯įà®¤
ĠÑĤ Ð¾Ð»ÑĮ
´ ĳ
ĠØªÙħ Ø§Ùħ
å½©ç¥ ŀ
Ø§ÙĪ ÙĦ
à¤°à¥įà¤ ®
Ġàª¹ à«ĭ
Ø§ÙĦ Øª
à´ªàµįà´ª àµĭ
à°¨ à±ĩ
e f
Ġà¤ľ à¥ĭ
é¢ Ĩ
Ġà®İà®© à¯įà®©
èĲ ¥
et ail
ĳ áĢ²
àªķ à«įàª¤
Ġà´ªàµįà´° à´¤
Ġc he
ĠØ¥ ÙĨ
Ġà®ķ à¯ĩ
à¹Ģ à¸Ń
ÑĥÐ± Ð»Ð¸Ðº
p h
ĠçĻ ¾
ĠÐ° Ð¹
Ġà´ĩ à´¤
è ħ
ĠÐ¼ ÐµÑģÑĤ
Ġì µľ
ĠáĢ±áĢ ķ
à¤¿à¤ ¶
Ð¾Ð½Ð¸ ÑĺÐ°
àª¤ à«įàª¤
ĠâĢ ķ
Ġàªķ àª¾àª®
n er
à«Ģ àª®
Ġç ĭ
à© Ģ
Ġí ĸ
Ġà°ħ à°Ĥà°¦
Ġåı ¯
Ġà´ķ àµĭ
Ġà¦ħ à¦¬
æĿ ¡
à±įà°¸ à±į
Ġag çľŁäºº
i y
áĢ±áĢĢ áĢ¬áĢĦáĢ¹áĢ¸
ĠáĢ±áĢ ¡
ĀĀĀĀĀĀĀĀ ĀĀĀĀĀĀĀĀ
ar at
ĠÐºÐ¾ Ð¸ÑĤÐ¾
àµģà´£àµįà´Ł àµį
à¸µà¸¢ à¸ĩ
Ġà®¤ à¯Ĩà®°
I d
ĠÐľ Ð°ÑĢ
Ġà´¨à´¿à´ ¨àµįà´¨
Ġà¤ħ à¤§
ĠÎ¼ Î±
Ø§Øµ ÙĦ
à¸²à¸ ¥
ĠÛ °
Ð½ ÑĮ
ÑĤ Ñĥ
Ġ$( "
Ġæ Ģ
Ġï½ ŀ
ĠØµ Ùģ
Ġà®µ à®¨à¯įà®¤
Ð°ÑĢ Ð¾Ð´
à§Ł à¦¾à¦°
Ø§Ø± Ø¯
×¨ ×Ĵ
ĠÙĤ Ø¯
ĠæĹ¥ æľ¬
ĠáĢ ¦
Ùĥ Ø§ÙĨ
Ú© Ø³
Ð¼ Ð°Ñģ
Ġà´µ à´°
ĠáĥĽ áĥĺ
à¤ ³
Ð½Ð¸ ÑĨÐ¸
Ľ áĢ½
áģ ģáģ
×© ×ª
ï¼ Ĳ
ĠØ¹ Ø¨Ø¯
Ø§ÙĬ Ø©
Ġáĥ¨áĥĶáĥĽ áĥĵáĥĶáĥĴ
ãģ§ ãĤĤ
ĠØ±Ûģ ÛĴ
Ð¸Ñģ Ð¸
ÐºÐ¾ ÑĹ
ĠÐ° Ð»
à¸Ľ à¸¥
à§ İ
å° Ķ
çĶ »
Ġå º
áĢ ĵ
ç ¬
ĠØª Ú¾ÛĮ
Ġàª¶àªķ à«ĩ
Ġà®ķ à¯ĭ
æĪ ĸ
ĠÐĳÐµÐ»Ð°ÑĢ ÑĥÑģ
j ect
æ ļ
è® ®
Ð· Ð¸
åı ĭ
à¸²à¸ ķ
Ð½ Ñİ
y le
è¯ ģ
à´¾à´² àµįâĢį
æĸ ½
20 20
à¸ķ à¹Īà¸Ń
áĥĶáĥłáĥ Ĺ
Ġàªı àªŁàª²
éľ Ģ
à´¾à´ ľ
ÙĤ Ø±
æ §
à±ģà° ¦
ä¹ħ ä¹ħ
ĲáĢ¼ áĢĦáĢ¹
Ġàª¦àª¿àªµ àª¸
ĠÐ»Ñİ Ð±
Ġp e
Ġà¤² à¤Ĺ
áĢĬ áĢ¬
Ġà°ħ à°¯
å ¡
à¤¾à¤¹ à¥Ģ
Ġ6 00
ĠìĦ ¸
Ġà°ļ à±Ĥà°
ĠÑĢÐ°Ð· Ð²
áĢĲáĢ½ áĢ±
Î¹Îº Î¿
Ġ×Ķ×ŀ× ©
Ú© Ø§ÙĨ
ĠØ¢Ùħ ÙĪØ²
áģ ¤
ĠØª Ø¨
åĸ ľ
9 5
íĥ Ģ
ä¿ ®
à°¿à°Ĥà° Ĺ
à§ĩà¦ ¦
Øª Ø±ÛĮÙĨ
à´¾à´ ª
Ġàªµàª§ à«ģ
Ð°ÑĨ ÑĸÑĹ
Ġàª° àª¾àªĸ
Ġàª¸à«ģàª §à«Ģ
à°Ĥà°¤ à±ĭ
à¸Ļà¸ ª
Ġà¹Ģà¸ ¥
ĠáĥĴáĥĲáĥĽ áĥĿ
à´¿à´ļàµįà´ļ àµį
Ġàªķàª° à«ĩ
ĠáĥĽ áĥ¡
áĢĲáĢ¼ áĢĦáĢ¹áĢ¸
Ġf irst
Ġà¤ľ à¤¾à¤¤
à¸£ à¸§
à´¾à´ Ĺ
åĩ Ĩ
Ġæī ĭ
à¹Ģ à¸£à¸µà¸¢
Ġà¦¤à¦¿à¦¨ à¦¿
ĠÐº Ð°Ð±
ĠÚ©Ø´ ÙĪØ±
Ġà¹Ĥ à¸Ķà¸¢
Ġthe m
àµģà´¨àµįà´¨ à´¤
ĠÐŁ ÐµÑĢ
Ð¾Ð± ÑĢ
ĠØ§ÙĦ Ùĩ
à¥įà¤ ¨
Ġë° ©
à«ģ àª®
àª¿àª ¶
ow er
à®µ à¯ģà®®à¯į
Ġàª® àª¾àª°
ÙĨ Ø§ÙĨ
Ġ×© ×ŀ×
ĠÐ¿ÑĢ ÐµÑĤ
à±ģà°¨à±įà°¨ à°¾à°°à±ģ
ĠP h
à¸ģ à¸£à¸°
Ġè ´
ë° ©
áĥĺáĥ¨ áĥľ
Ġç½ ĳ
Ø¨ Ø§ÙĨ
Ð» ÐµÑĤ
Ġëı Ħ
à§ģ à¦®
ĠáĢ¡áĢ² áĢĴáĢ®
áĥłáĥ ĵ
åĳ ¨
ĠÐ¼ Ð½Ð¾Ð³
Ð ¦
ĠÎµ Ïħ
áĥłáĥ £áĥ
áĥ Ń
±áĢ ¡
vi ous
4 6
Ø§Ø± Ø¬
Ġà®ª à®²
ģ áĢ¯
ĠO n
Ðº Ð¸ÑĤÐµ
ĠÐĲ Ð²
at es
ĠØ£ Ùħ
ĠÑŀ ÑĢ
à´ªàµįà´ª àµĨà´Ł
èģ Į
Ġà¸ Łà¸£à¸µ
Ġà¤ Ľ
Ð°Ñļ ÐµÑĤÐ¾
Ġs m
à«įàª¯ àª¾àªĤ
ëĲ ľ
ĠÐ Ī
à°² à±į
à¥Ģ à¤²
Ġà¤ķ à¤¿à¤¸
çĶµ å½±
à±įà° ³
ÐµÑģÑĤ Ð¸
ĠÑŀ ÑĤ
áĥķ áĥĲáĥľ
Î´ Î·
o ol
ìľ ł
ĠÐ¿ Ð¾Ð³
ĠÐ¾ÑĢ Ð³Ð°Ð½Ð¸
ÎŃ Î½
ê± ´
áĥĺáĥ «
à± Į
ĠåĪ© æĿ¥
à¹Ĥ à¸¡
íŀ Ī
Ð°Ð» Ðµ
à´¿à´¨ àµĨ
áĥĶáĥĹ áĥĺáĥ¡
Øª ØŃ
áĥłáĥ Ĵ
Ġà®µ à®´
áĢĻáĢ» áĢ¬áĢ¸
Ñĭ Ñĩ
9 7
ĠØ§ÙĦÙħ ÙĪ
Ġ19 8
ëĭ ¨
×¨ ×ĳ
æĬĢ å·§
ĠØ£ Ùĥ
Ġæ ¶
Ð½Ð¸ Ðµ
ĠáĥĽ áĥĿáĥ¡
ĠÐŀ Ð´
Ġb u
A L
ĠàªĹ à«ģàªľàª°àª¾àª¤
Ð°Ð´ Ð·
çĻ ½
Ġ áł
Ð¸Ñĩ ÐºÐ¸
çĶ ±
ĠØ² ÙĨØ¯
Ġêµ Ń
Ġà®® à®±à¯įà®±
Ïī ÏĥÎ·
Ġå ±
ç± »
áĢŃ áĢĲáĢº
l es
ĠS u
ĠÑĢ Ð¾Ð±
áĢĢáĢ¹áĢ ŀ
áĥĺáĥ ¦
Ġo ther
à¯Īà® ļ
Ġs l
or ld
Ġë¬ ¸
Ï Ĭ
ĠÎ¼ ÏĢÎ¿
Ġâ ľ
ÑģÐº Ð¾Ð¹
è¯ Ŀ
ĠÐ³Ñį ÑĤÐ°
ĠÙĦÙĪ Ú¯
ĠÐ´ Ð¾Ð´
à§įà¦ ľ
Ġà°ķ à°²
à¹Ģà¸¥ à¸¢
ĠÙĪ ÙĬ
ĠØ± Ú©Ú¾
Ġàª¸ à«įàªŁ
àµģà´¨àµįà´¨ à´¤àµį
Ïħ Ïĥ
re n
åł Ĥ
ãĢ İ
ĠØ§ÙĨ Ø¬
Ġéĩ į
ĠJ un
áĢ±áĢ¬áĢĦáĢº áĢ¸
à¥ĩ à¤¸
Ġáĥĵ áĥĺáĥĵ
à¤°à¥įà¤ µ
à°Ĥà° ª
åŃ ĺ
×ľ ×§
áĢĬ áĢ·
Ġ3 80
ÏĮ Î½
ĠØ§Ø³ØªÙģ Ø§Ø¯Ùĩ
àª°à«įàª µ
Ġà®ħ à®±
ÐµÐ½Ð¸ ÑĤÐµ
æķ Ī
äº ĳ
Ġ7 5
Ġé Ĥ
4 7
áĢĽ áĢĦáĢ¹
à¸´ à¸ģ
Ġà¹Ģà¸ Ħà¸£
ĠØ§ÙĦÙħ ØŃ
Ġàª¦à«įàªµ àª¾àª°àª¾
ĠØ· Ø±Ùģ
à®¿à®ķ à®³à¯į
Ġà¦ķ à§ĭà¦¨
ide o
n ing
åĪĨ åĪĨå½©
Ð¼ Ð¾Ð¶
ĠìĦ ±
à¹ĩ à¸Ļ
ÑģÑĤÐ² Ð¾ÑĤÐ¾
Ġà¸¡ à¸µ
å ³
ĠÑĤÑĢ ÐµÐ±
áĥĺáĥĿ áĥľ
Ġà¦¹à§Ł à§ĩà¦Ľà§ĩ
æ ĵ
áĥ£áĥ ®
ĠÐł Ð¾Ñģ
à´¿à´ ¨àµįà´¨
f ter
ĠÐ¾Ñģ Ð½Ð¾Ð²
áĢ¯áĢŃ áĢĦáĢ¹áĢ¸
à¤¤ à¥įà¤¤
áĢľ áĢ¯áĢķáĢº
Ïİ ÏĤ
Ġàª¹ à«ģàªĤ
å¾ Į
Ð´ Ð°Ð³Ð¸
ÙĤ Ø¹
I C
ãĥ ĵ
Ð¼ Ð¾Ð½
ĠÛ±Û³Û ¹Û
à®µ à¯ĩ
áĥĿáĥķ áĥľ
à¸Ļà¸ Ķ
à®¾à® ļ
ì¹´ ì§Ģëħ¸
Î¾ Î·
ÑĪ Ð¸ÑĢ
Ġ8 8
Ġà´µ àµĢ
Ġàªķàª° àªµàª¾
Ł áĢ¬
áĢħ áĢ¯
åħ Ń
ĠØ¬ Ø§Ø¦ÛĴ
Ġà®İà®© à¯įà®ª
Ġå ĳ
ĠØª Ùĩ
è§ ģ
à¥ĩà¤ ĸ
ÑģÑĤÐ°Ð½ Ð¾Ð²
ãģ ļ
Ġàª¬ àª¹
Ġà§¨à§¦à§ §à§
çĽ´ æĴŃ
Ġäºļ æ´²
ĠJ ul
áĢħ áģ¥
à´¤àµįà´¤ àµį
àª° à«ĩ
×ł ×ª
ĠÐŁ ÑĢÐ¾
Ñİ ÑĤ
ou gh
Ø² Ø±
àµĨ à´Ļàµįà´ķ
at ch
1 00
ĠØª Ùģ
áĥĿáĥ ŀ
ĠL e
áĢĦáĢ¹áĢ ľ
à¸ª à¸¡
Ġ' );
å¢ ŀ
×ķ×ł ×Ļ×Ŀ
áĢ±áĢ Ĳ
à¸Ļ à¹īà¸³
àª¨à«įàª ¸
ĠÐ° Ð»Ðµ
ä» İ
ĠÙĪØ§ÙĦ ÛĴ
ĠÐĺ Ð·
9 3
Ø±ÙĪ Ø¹
Ġàª¸ à«įàª¥
ĠÙĤ ÛĮÙħØª
ĠÙģ Ùī
ĠÚ¯ Ø±Ø¯
Ø£ ÙĨ
Ġé Ľ
ĠØ¬Ø¯ ÛĮØ¯
à¸Ļà¸ Ĺà¸µà¹Ī
Ġè ¦
ĠÙ¾ Ø§Ø±
åı ĺ
Îµ Î»
Ġàª¬ àª§
à§įà¦ ł
is hed
à© ĩ
ĠÑĥ ÑģÐ»
æĿ ĳ
Ġàª® à«ĭàªŁ
áĥĿáĥ ¨áĥĺ
Ġà¦ķà¦° à¦¤à§ĩ
àª¾àª¤ à«įàª°
ĠÎ ¥
ĠÐ° ÑĤ
ĠD ec
ĠÐ¹ Ñŀ
ãĤ ĥ
Ðº Ðµ
ĠÐº Ð°Ð·
áĢ±áĢ ĺ
ĠÐ¿ÑĢÐ¾ ÑĦ
ĠÒĽ Ð¸Ð»
à¸ľ à¸¥
Ð°ÑĨ Ñĸ
Ð ¯
ëĭ ¹
± áĢĢ
áĥĲ áĥĲ
ĠáĥĹáĥ¥ áĥķáĥĶáĥľ
à¤¿à¤¯ à¥ĭà¤Ĥ
ĠáĥĵáĥĲáĥ ĺ
åĽ ł
Ùĩ ÙĨÚ¯
×ŀ ×Ļ
áĢĬ áĢ®
àµĨà´¯ àµģà´Ĥ
ãĢ Ĭ
ĠØ¢ Ø²
ĠÏĢ ÏģÏĮ
áĥĶáĥĹ áĥĺ
Ð¾ ÑıÑĤ
áĥĺáĥĹ áĥ®
Ġ ä¹Ł
Ð¿ Ð¾Ð²
æ© Ł
ĠÐ´ Ð¸
à¤ļ à¥įà¤
áĢ¯áĢŃ áĢĢáĢ¹áĢ
ÙĪØ± Ø©
Ġæ İ
Ġà¤Ĺ à¤¯à¤¾
ic s
Ø¬ Ø±
Ġí Ĭ
Ġà¤Ń à¤¾à¤°
ĠØ¯Ø§Ø± Ø¯
Ð°Ð» Ð¾
ĠÙħÙĦ Ú©
U S
Ġæ Ķ
áĢĸ áĢ½
ĠÏĥÏĦÎ¹ ÏĤ
ÏĮ ÏĤ
à¤° à¥ĩ
ind ow
à´³ àµįà´³
Ġà¦ıà¦ķ à¦Łà¦¿
Ġs ome
Ñĥ Ð»Ñı
ä¾ ¿
ĠØ¨ ÛĮÙĨ
ëŀ ĺ
Ø§Ø±ÛĮ Ø®
ĠØŃÚ© ÙĪÙħØª
æŃ ¥
áĥĶáĥļ áĥ¡
ĠC l
éĺ ²
ÑĥÑĤ ÑĮ
æ ĳ
ĠÑĥ Ð´
à°¾à°° à°Ĥ
Ø· Ø±
ĠÑģÑĤ Ð°ÑĢ
à¹Ħ à¸£
Ð¼ ÐµÑĢ
ÙĤ Ùĩ
Ñı Ñģ
ĠÐ¼ Ñĭ
Ġ×Ĳ ×Ĺ×¨
ĠáģĤ áģ
ĠÎ Ī
Ġå ī
ÐĿ Ðĺ
ĠÑģ Ð¿ÑĢ
à¦¾à¦¦ à§ĩà¦¶
åĮ ħ
éĹ »
áĢĶáĢ¹áĢ Ĳ
Ġà®µ à¯Ģ
à®¿à®± à¯įà®ķ
íģ ¬
Ð¾Ñģ ÑĮ
ĠÐ³ Ð°ÑĢ
Ġà®ħ à®Ł
ÙĪ ÙĬ
à±ģà°² à±ĭ
w e
ĠìĹ Ĳ
à¤¸ à¥įà¤¤
ĠáĥłáĥĿáĥĴ áĥĿáĥłáĥª
¹ æŀľ
à¦¿à¦ ľ
ĠÐ²ÑĢÐµÐ¼ Ðµ
àµįà´° àµĢ
à¹ĩ à¸ģ
à±įà° Ĺ
ĠâĨ Ĵ
Ġà§ ©
×¨×Ĳ ×ľ
ĠÙĦ ÛĮÚ©ÙĨ
Ø§Ø® Øª
×ŀ× Ł
ĠÐ¸Ð· Ð²
ĠÙĪ Ø¹
Ġcont ent
à§Ł à¦¾
ĠÑĥ Ñģ
ì¹ ´ëĿ¼
ÙĤ Ø§Øª
ĠÙħ ÙĬ
å® Ŀ
ĠØ¨Ø± ÙĨ
ĠÐľÐ°ÐºÐµÐ´ Ð¾Ð½Ð¸ÑĺÐ°
Ġáĥĵ áĥĲáĥķ
ÐºÐ¸ Ñħ
ĠÙħ Ø²
à¸£à¸²à¸ Ħ
Ġà¤ī à¤¸
Ġà°ļà±ĩà° ¯
Ġs et
ĠÙĦ Ú¯
áĢ±áĢ ĳ
à¦¾à¦ķ à¦¾
ëł ¤
à®² à¯Ī
Ġìŀ ¥
×ķ×ª ×¨
6 3
ÑĥÐ» ÑĤ
ĠÎºÎ± ÏĦÎ¬
à¦¾à¦¨ à§ĩ
Ġj p
ĠØ¹ÙĦ ÙĬ
à¸¥ à¸Ńà¸ĩ
Ġ×ķ ×¢
Î± Î»
à¦¿à¦ ¯à¦¼
Ġì§ Ħ
ĠÚ¯ ÛĴ
Ġ×Ķ ×Ļ×Ĳ
m m
ć Ĉ
Ġ×© ×ĳ
å¸ ¦
ĠÙĪ ÙĦ
à¦¾à¦¤ à§ĩ
ĠÐ±Ñŀ Ð»Ð¸
áĥĲáĥłáĥ ¡
Ø§Ùģ Øª
×ŀ× ł
áĢħ áĢ¬
Ġ×ŀ× ł
Ġ×ĳ ×¡
Ġæ ł
ãĤ ĩ
à¦ľ à¦¨
du ct
à´¨àµįà´ ±àµĨ
ĠÑį ÑĤÐ¾
ĠÐ± Ð°Ð½
à®¾à®° à¯įà®ķà®³à¯į
ÑĢ Ñį
à´¾à´ ¦
Î¼ Î®
ver y
à¹ģ à¸ģ
ĠÐº Ð°Ð»
Ġa v
à«įàª ¡
Ġà´ķ àµĩ
æľį åĬ¡
Ö ¸
Ġíĺ ¸
áĥĺáĥ¡ áĥĲ
à±įà°° à±Ģ
: :
ĠÒ³ Ð°ÑĢ
Ġè ĭ
ĠÚ¯ Ø±Ùģ
ÙĦ Ûģ
Ø± Ø§Ø¯
ìĤ¬ ìĿ´íĬ¸
ĠØ¯ Ø§Ø¯
å¹ ²
ĠÑĤ ÐµÐ¼
Ð°Ð» Ð¸Ð·
à«Ģàª Ł
Ġ6 5
ä»£ çĲĨ
á Ī
×ľ ×ķ
Ðµ ÑĨÐ¸
ãĥ »
Ġà´ķ à´´
åĪ «
oc k
Ø± Ø§
Ñĳ Ð½
Ġà¹ģ à¸ķà¹Ī
à´¿à´² àµĩ
ĠÏħ ÏĢÎ¿
en c
ĠâĢ¦ .
å¤ ľ
áĢ¸áĢ ķ
ĠÐ¿ Ð°Ð²
áĢľ áĢ½
I T
à´¿à´ ŀàµįà´ŀ
Ġà°ķ à°¾à°°
ĠÑĤ Ð¾Ð¼
Ø® ÙĦ
a f
Ġàªľ à«Ģàªµ
áĥķ áĥł
ĠB l
à±Ģ à°
à®¿à®ķ à®³
áĢ¡ áĢĲáĢ¼áĢĢáĢ¹
×Ļ×ł ×ķ
à¥ĭ à¤ľ
×ł ×¡
à¨ ¿
Ġne ed
Ġàª® à«ĭàª
ìĺ Ī
Ġé »
ĠØ§ÙĦÙħ Ø³
å§ ĭ
ç» Ļ
ĠÐ¿ÑĢÐ¾ Ð¸Ð·Ð²
Ú© ÛĴ
ĠáĢ± áĢĢ
ĠØ´ Ø®Øµ
ÑĢÐ°Ð½ Ð°
ãģª ãģ©
àª Ŀ
à±ĩ à°°
ĠáĢĻ áĢ½
Ġà®¤à¯Ĭ à®Ł
Ø® ÙĪ
Ġì Ĥ
ĠÙħ Ø§Ø±
¥ ¼
Ġí ģ
Ġë ¨
áĥķáĥĶáĥ §
ĠÙģ Ø±Ùħ
Ġà®ħà®° à®ļ
ãĤ¤ ãĥĪ
ĠØ· ÙĪØ±
è¶ Ĭ
àª¨ à«įàªŁ
ĠáĥĹáĥĲáĥķ áĥĺáĥ¡
Ð°Ð½ Ñĸ
ĠØ§ÙĦ Øº
Ġwh at
áĥķ áĥĶ
Ġhe l
Ġíı ¬
à±ģà° ®
ĠØ¯ Ø§Ø®
Ġth ere
ĠíĨ µ
ãģĹ ãģĦ
Ð°Ñİ ÑĨÑĮ
ÙĦÙħ Ø§ÙĨ
ĠS p
ë¥ ´
ĠáĥĽ áĥĶáĥ¢
rou nd
æ¨ ¡
áĢĢáĢ¼ áĢ®áĢ¸áĢ
ÑģÐºÐ¸ Ð¾ÑĤ
Ð¸Ñĩ Ð°
Ġà´¨ à´¿à´°
a ir
Î¹Îº Î®ÏĤ
Ø§Ø² ÛĮ
ĠØ¨Ø§Ø² ÛĮ
ĠØ´ Ùĩ
ĠÐ³ÑĢ Ð°Ð´
à¦ª à¦°
Ġre t
Ñģ Ð¸Ñı
Ð´ Ð¸ÑĢ
à¤¾à¤² à¤¾
ĠÐ¾Ð± Ð»Ð°ÑģÑĤ
¼ åĲĪ
à¤ķ à¤¾
Ð¸Ñģ Ñı
áĥĺáĥ ĳ
ĠâĨ ĳ
ĠÑĤÐ°Ðº Ð°
×Ļ×ł ×Ķ
ë¬ ´
à§ģ à¦ķà§įà¦¤
o h
ç®¡ çĲĨ
ĠÐĿ Ð¾Ð²
ĠÐ½Ð°Ð¿ ÑĢÐ°Ð²
Ġà°¸ à°¿à°¨
Ð»Ð¸ Ð³Ð¸
Ġà®® à®©
Ġà¤ī à¤ª
×¢ ×ª
ĠÐ¼ ÐµÑĢ
Ġcom m
Ð½Ð° Ðµ
Ġë ķĮ
à¦¾à¦ ¥
æĹ¶ éĹ´
áĢŀ áĢ½
ĠØ¨ Ùħ
ĠáĢ¡ áĢĨ
ÏĦ ÏīÎ½
Ġà´¤ à´¿à´°
Ð½Ð¾ÑģÑĤ Ñĸ
ĠØ¨ ÛĮØ´
ĠÑĢ ÐµÑĪ
éĤ Ģ
ãģ¾ ãģĽ
ÑĢ Ð¾Ð±
Ġàª¤à«įàª¯ àª¾àª°à«ĩ
Ġà®® à¯ģà®¤
ĠØ¨ ÚĨ
à¸¸ à¸ķ
Ðł Ñĳ
ÐµÑ ľÐµ
à®© à®°à¯į
à¹Ģà¸ŀ à¸·à¹Īà¸Ń
al e
Î¯ Îº
à«Ģ àª¨àª¾
à´¾à´ ¹
ĠØ´ Ø¨
ĠÚĨ Ùĩ
Ġ `
à´Ļàµįà´Ļ àµ¾
Ġw hen
Ùİ ÙĦ
Ø§ÙĨ Ø§
ĠØ¯ÛĮ Ú¯Ø±
Ġé ģ
Ð± Ð¸ÑĢ
Ġáģ Ħ
ĠØª Ø³
ĠáĥĽáĥĺáĥ¡ áĥĺ
Ġcol or
çł ´
í ĭ
Ġà°µ à°¾à°°
Ġ×Ĳ ×ł×Ļ
ÙĤ Ø·
áĥĺáĥ «áĥļ
ä¼ Ĺ
ĠÐº Ð°ÑĤ
â ĸ
åĪĨ æĹ¶æĹ¶å½©
Ø¯ ÙĬØ¯
ĠÐ¼ Ð¾
ĠÙĦ ÙĦÙħ
Ð´ Ð°ÑĤ
à±ĭ à°ľ
ĠØ´Ø± Ú©Øª
à°¡ à±įà°¡
×ķ× £
ÑĤÐ¸ Ñĩ
ĠÑĩ Ð¸ÒĽ
Ġ×Ĳ ×ł
2 00
Ġë ©
èĩª å·±
Ð°Ñĳ ÑĤ
ĠãĢĳãĢĲ ãĢĤ
à¤¿à¤ ®
Ġà¤¦ à¥ĭ
ĠN ext
ar m
Ð°ÑĪ Ðµ
àª¾àª Ł
áĥĲáĥ Ķ
à´¯ à´¿à´²àµįâĢį
Ġ×ľ ×Ľ
ĠÑĥ Ð²
à¯ģà®Ł à®©à¯į
à¸ļ à¸£à¸´
áĢľ áĢĬáĢºáĢ¸
Ġ! !!
ĠÐ¾ÑĢ Ð³Ð°Ð½
Ġà°ļà±Ĩ à°ªà±įà°ª
áĥĶáĥĳ áĥĶáĥļáĥĺ
Ð¾Ñģ Ð¿
Î¯ Î¶
ë§Į ëĤ¨
ÑĤÐ¸ Ð¼
is e
åĬ Ł
Ġå½ ĵ
æŀ Ĺ
ĠÐ¾Ñģ Ð¾Ð±
ĠÙĪ Ùģ
ĠÑģ Ð¾Ð²
Ġà¦Ĺ à§įà¦°
ĠÐº ÑĥÐ¿
×Ĳ ×ª
è ¼
Ġm od
ĠØ® Ø¯Ùħ
ĠåĬ ł
ĠÎ¸ ÎŃ
ì Ķ
u k
at ure
ĠÐ¿ÑĢ Ð°
ĠØª Ø§Ø±ÛĮØ®
ĠáĢĦ áĢ«
Ġà´ļàµĨà´¯ àµįà´¯
ĠØ® ÛĮ
áĥ§ áĥķ
ĠÐĲ Ð´
àª¾àª ı
ÑĦ Ð¸
åı ¤
å¤ ª
Ġre m
àª¾àª ī
Ø§Ø ¤
Ġà¦ķ à¦®
Ġà®ķ à®°
Ġë Ħ
Ġ×Ķ ×Ļ
ĠAG çİ¯äºļ
àª ł
ĠÐ³Ð¾Ð´ Ð¸Ð½Ð¸
Ð°Ð½ Ð³
ĠA pr
Ġáĥł áĥĲáĥª
Ïĥ ÏĦÎ¿
Î¼ Î¹
áĢļ áĢ¬
ĠÐ¸ ÑģÐ¿
ÙĤ Ùħ
Ð §
Ġà°° à±Ĩ
ë¹Ħ ìĬ¤
à¸ª à¸Ķ
ol og
Ġbe en
Ġà°® à±Ĭ
ĠÐ¸ ÑģÐº
à¹Ģà¸¥ à¸·à¸Ń
Ġê² Į
èĬ Ĥ
à¯ģà®ķ à¯į
ĠÐ¼ Ð½Ð¾Ð³Ð¾
Ø§Ø¯ Ûģ
à«ĩàªµ àª¾
ĠÐ¼ Ð°ÑĬ
à±ĭ à°Ĺ
ãĥ¼ãĥ ī
à«Ģàª §
Ø± Ùĥ
Ð´ ÐµÐ»
Ġà®ª à®¤
Ġàª¬ à«Ģàªľ
Ġáĥ¨ áĥĶáĥľ
E S
à· Ĭ
è½ ¬
áĥĺáĥ£áĥł áĥĺ
áĥĲáĥ¨ áĥķ
ãĥ Ķ
à¦¨ à¦¿
Ùħ ÙĥÙĨ
Ø±ÛĮ Ùģ
Ð½Ð¸ ÐºÐ°
áĥ£áĥ ĵ
9 2
Ú¾ ÛĴ
Ġìĸ ´ë
ĠÚĨ Ø§Ûģ
à¸« à¸§
à¥įà¤ ·
ÐĲ Ðł
ĠR ep
ĠÛ² Û
ĠÐļ Ð¾Ð¼
à¥ģ à¤®
ÐµÐ½Ð¸ Ð¹
ĠÙĬ Ø¹
à¥įà¤ §
Ñĸ ÑĨÑĮ
ÑģÑĤ ÑĢÑĥ
æĿ ¿
ãĢ Į
Ġà¦¸à¦® à§įà¦ª
ÏĦÎ· ÏĦÎ±
æ· ±
Ġéĩ ĳ
ìļ ¸
Ġà¦¸ à¦¬
Ð°Ñģ Ñı
ĠØ´ ÙĨ
æ ¿
op le
ŀ áĢ¼áĢ¬áĢ¸áĢ
×ŀ ×Ļ×Ŀ
ĠÎ´ Î¹
un g
Ġáģ Į
Ġà¤ Ŀ
3 7
´ Ī
Ð¾ÑĤ Ð¾Ð²
Ġé ¦
Ġu rl
Ġj ust
at ing
ĠM y
à´¯ àµģà´ŁàµĨ
ĠâĢĻ âĢĻ
ëł Ī
Ġw p
Ġè §
Ġà´ªà´± à´ŀàµįà´ŀ
Â »
á ¿
à¸Ļ à¸±à¸ģ
Ġè ¡
Ġà´¤ àµģà´Ł
åº ľ
à¦ ·
Ð½ Ð°Ðº
ĠÎ±Ïħ ÏĦÏĮ
áĢŃáĢ¯ áĢĦáĢ¹
à°° à±įâĢĮ
à´°àµįâĢį à´¤àµįà´¤
åį ¡
Ø§ÙĦ ÙĬ
Ð½ Ð¾Ð¼Ñĥ
ÙĪÙĨ Ø¯
Ïĥ Ïī
ĠçĶ µ
ĠØ¶ Ø±
à¸£à¸´ à¸ĩ
Ð¾ ÒĽ
Ø§Ø¹ Ø§Øª
Ġáĥ¡áĥĲáĥ® áĥĶáĥļ
ÙĬ Ø«
Ð± Ðµ
ĠÑĤ Ñį
à¤¿à¤Ĥ à¤Ĺ
Ġu se
Ġàªķ à«ĭ
àª¤ à«įàª¯
èī ¯
Ġì ¶Ķ
ĠØ§ÙĦØª Ø¹
if e
åį ĵ
Ġàªľ à«ĩàª®
Ġ×ĳ ×§
Ġà¦¯ à§ĩ
à®° à®¿à®¯
Ġà´µ àµĨ
Ġa ut
t s
Ġw eb
n a
ĠA ug
Ð»Ñı Ð´
à¯ģà® £
Ġà® ²
ÙĤØ¯ Ùħ
Ġà¦¬à¦¾à¦Ĥà¦² à¦¾à¦¦à§ĩà¦¶
éĤ £
àµĢ à´µ
Ġà®ħ à®¨à¯įà®¤
àµĩ à´£àµįà´Ł
ĠO ct
ç ¿
áĢı áĢ¹áĢ
Ð½Ð¸ Ñĩ
Ġç º
ĠÐ¼ Ð¾Ð³
èĲ ½
Î³ Î³
Ġwid th
ĠÐ°Ð² ÑĤÐ¾Ð¼
ĠÐ½ Ð¸Ð²
ë Ķ
ĠS ep
Ġà¤Ĩ à¤£
à´¨ à´Ĥ
à¸Ħ à¸Ļ
ĠÐ¿ÑĢ Ð¾Ð¼
à®¿à®²à¯įà®² à¯Ī
Ð°ÑĨ ÑĭÑı
×¨ ×Ļ
à«įàª ¦
Ñį ÑĤ
à¦¤ à¦¾
Ġëį Ķ
Ðµ Ðµ
ĠI D
ĠÙħØ® ØªÙĦÙģ
Ø§Ø °
åĮ Ĺäº¬
áĢŃáĢ¯ áĢ¸
±áĢ ħ
áĢľ áĢ°
Ġf al
ÐĲ Ð¢
ĠØ§ÙĦ Ø§ÙĨ
Ïĥ ÏĦÎ±
Ð°Ñħ Ð¾Ð´
ĠF eb
Ġp os
áģ¿áĢĻ áĢŃáĢ³áĤķ
à¸Ĺ à¸²à¸ĩ
à±ĩà° Ł
ĠÙ¾ Ø§ÛĮ
ĠØ° ÙĦÙĥ
à¸ĵ à¹Į
ĠáĢĽ áĢ½
ĠP r
ĠG o
áĥĲáĥł áĥĶ
áĢħ áĢ¬áĢ¸áĢ
Ġë° ľ
ĠÐ± Ð¾Ð»ÑĮÑĪ
Ġà®®à¯ģà® ©
Ġà¤¤ à¤°
ĠØ§ÙĨØª Ø®Ø§Ø¨
ç« ŀ
ÑĥÐ½ Ðº
Ð» ÑĥÑĩ
ÙĪ Ø·
ĠÙĩ ÙĨ
áĥĲáĥ® áĥļ
Ġà®¤ à¯ĩ
ĠØ¨ ÙĨØ¯
Ġre l
Ġ×Ĳ ×Ŀ
ĠÐ²ÑĬ Ð·
áĢŃ áĢĻáĢ¹áĢ¸
à§ģ à¦¬
ĠÐ¼ Ð¾Ð¼
à´¤àµįà´¤ à´¿à´¨àµįà´±àµĨ
áĥĶáĥ¡ áĥĺ
à´¾à´¤ àµįà´¤
à« ī
±áĢŀ áĢ¬
áĥĲáĥł áĥĺáĥ¡
Ġà°® à°¾à°°
à´¿à´ ª
ĠØ¨ Ø´
Ø§ÙĦ Ø§Øª
¸ è¿Ĳ
ĠÐ± Ð¸
åĮ »
àªĤàª¤ à«ģ
Ġàª¹ àªµà«ĩ
à¸Ļà¸ ³
Ø¢ ÙĨ
ë¡ Ŀ
Ġàª¸ à«Į
áĢ±áĢ »áĢķáĢ¬
ĠáĢ¡ áĢģáĢ¯
à¯Īà®ķ à¯į
à«ĭàª ª
ãĥ¼ãĥ ł
í Ĥ
ĠáĥĶáĥłáĥĹ áĥĺ
ĠÚĨ Ú¾
Ġà°® à°¨
Ġáĥŀ áĥĺáĥł
¯ à§ĭà¦Ĺ
Ïģ ÎµÏĤ
ŀ à¯įà®ļ
Ġà°ħ à°¨à±įà°¨
àª¨à«įàª ¡
åĨ į
ĠÛģÙĪÙĨ ÛĴ
ĠÚ© ØªØ§Ø¨
ìĹ Ī
à´® àµįà´ª
à°¤ à°¿
×ķ×ľ ×Ŀ
íĨ µ
Î´ Î¹
à¸ Ŀ
ÑĥÐ² Ð°ÑĤÐ¸
ĠÐº Ð°Ð¶
é¤ Ĳ
Ġàªľ àª£
Ðº Ð¸Ð½
×ĳ ×ķ×ĵ
Ġà¦ħ à¦Ń
Ġ×Ľ ×Ĳ
áĢĢáĢ¹áĢ ľ
Ġà¤¬ à¤¨
Ġ Ø§Ûģ
ì§Ģ ë§Į
à°¿à°Ĥà°ļ à°¿
Ø±ÙĬ ÙĤ
à´£àµįà´Ł àµį
ä» ĭ
à´¨àµįà´¤ àµįà´°
à°¿à° ²à±ĭ
ĠÐ´ ÐµÑĤ
å¢ ĥ
åį ĩ
ĠáĢĶ áĢ¾
ķáĢ¼ áĢ²
éĤĢ è¯·
Ġåħ ¶
Ðº Ñģ
áĢĲ áĢħáĢº
à¸Ĺ à¸±à¹īà¸ĩ
à±ĭ à°¯
áģ¼ áĢº
ĠáĥĽ áĥĿáĥľ
Ö °
ĠÐ½ Ð¾Ð¼
Ġs ub
U R
Ġæ ¸
áģ¿áĢķ áĢ®
Ġin st
à¦¿à¦ ª
o o
ĠÙħ Ùĩ
à¥į âĢį
Ġon ly
à¦¿à¦ Ľ
Ġà¹Ģà¸ ģ
4 9
ĠÑĦ Ð°Ðº
ĠÐĲ Ð±
Ġhe ight
áĢ³ áĢķáĢ¹áĢ
à¤¸ à¥Ģ
Ġà®® à¯Ĥ
à¨ °
à¥ ľ
Ø¶ ÙĦ
E L
ä½ ı
ĠÚ¯ Ø¦ÛĮ
Ð¾ ÑĹ
ĠÐ± ÐµÑĪÐµ
à´ªàµįà´ª àµĨà´Łàµįà´Ł
é» Ħ
à°¾à°¤ à±įà°°
åı ²
Ð°Ð´ Ñĭ
áĥĲáĥ §
ĠëĤ ¨
Ð»Ð°ÑĢ Ð¸Ð½Ð¸
Ġà®İ à®¤
ë ¯¼
ĠÎ± Î»Î»Î¬
áĢŃ áĢķáĢ¹áĢ
Î¯ ÎµÏĤ
ãģ¾ãģĽ ãĤĵ
à¦¨à§įà¦ §
Ġë§ Ĳ
Ðº Ð»ÑİÑĩ
ĠØ¢ Ø±
Ġf l
ĠÐļ Ð¾Ð½
Ġå¯ ¹
Ġà¦¸ à¦°
à«ĭ àª®àª¾àªĤ
áĢħ áĢ®
ÑĪ Ñĭ
àª¾àª£ à«Ģ
ĠÐ³ ÑĢÑĥÐ¿
ĠëĤ ´
Ġà¦¦ à§ĩà¦¶
vi ew
Ġà¹Ģà¸ ¡
à°¿à°Ĥà° ¦
Ġ×ĳ ×ł
ĠÐº Ð¾Ð¶
à´® à´¾à´¯à´¿
Ð°ÑĤ Ñĭ
Ð°ÑĤ ÐµÐ»ÑĮ
ë§ ¤
Ġàªīàªª àª°
ļ áĢ°
ĠØ§ÙĦÙĬ ÙĪÙħ
ãĥ³ãĥ ī
ĠÏĥÏĦÎ¿ Î½
ÐłÑķ Ðł
áĢº áĢ¬
àª¿àª ª
ĠØ®ÙĦ Ø§ÙĦ
à«ģàª ĸ
ĠÙ¾ Úĳ
ĠÐ² Ð¸Ñģ
ĠÙĦ Ùĩ
à°Ĥà°Ł à±ĩ
Į áĢ¬áĢĶ
Ġa ct
áĢŀ áĢ¼áĢ¬áĢ¸áĢ
ĠØ³ Ø§Ùħ
O S
Î¿Ïį Î½
à±ĩà° ·
áĤıáĢ¯áĢŃáĢĦáĢ¹áĢ ĦáĢ¶
è» Ĭ
Ø³ Ø·
Ġàª¬ à«ĩàª
Ġå¤§åıĳ æĹ¶æĹ¶å½©
ĠÎŃÏĩ ÎµÎ¹
à´ķ à´³
åľ¨çº¿ è§Ĥçľĭ
Ð¿ ÑĢÐ¸
áĢĶ áĢ²áĢ·
ĠÑĨ Ðµ
Ġë° ı
ÑģÐº Ñĸ
ãĥ į
áĥĲáĥ¥ áĥ¢
à¹Īà¸§ à¸¢
à´¸ àµįà´¥
ĠÐ¾ÑĢÐ³Ð°Ð½Ð¸ Ð·
ĠÐł Âµ
y s
Ġà¤® à¥ĭ
Ø¯ Ø§
áĥĺáĥľ áĥĺáĥ¡áĥ¢
à°¿à°Ĥà°ļ à°¿à°¨
ĠÑĤ ÑĢÐ¸
áĢ¸áĢ Ĩ
ĠÐ´ ÐµÑĢ
Ġ ed
à«ĩàªµ à«Ģ
ĠØº ÛĮØ±
à°Ĥà° ķ
ĠÚ©ÙĨ ÛĮØ¯
áĢ±áģ¾áĢĢ áĢ¬áĢĦáĢ¹áĢ·
Ġàªªàª° àªĤàª¤à«ģ
ĠÙħ ÙĪØ±Ø¯
×¢ ×Ķ
ĠØ§Ùģ Ø²
éª Į
æĹ ħ
ĠÑĤ Ð¸
à®© à¯Ī
Ø¶ Ø¹
ÑĬÐ» Ð³Ð°ÑĢ
Ġáģ ħ
à±ģà° Ĺà°¾
à°Ĥà°¦ à±įà°°
Ð¾ÑģÑĤ Ð¸
Ġà®ĩ à®Ł
Ø§Ø¹ Ø©
ĠÐ£ÐºÑĢÐ°ÑĹ Ð½Ð¸
Î¯ Î¿Ïħ
à¤¾à¤¯ à¤¾
àª°à«įàª ®
ĠØ§ÙĦÙħ Ø¹
àµ Ĺ
Ġà°¸à°¿à°¨ à°¿à°®
Ð»Ð°ÑĢ Ð½Ð¸Ð½Ð³
Ð°Ñİ ÑĤÑĮ
ar s
ĻáĢº áĢ¬áĢ¸
ĠÐ¼ Ð¸Ð»
à¸Ń à¸Ńà¸ģ
ÑģÐº Ð¾Ð³Ð¾
i er
é º
×© ×ķ×ª
Ġw ere
ĠÙĨ ÛĮØ²
à¸£ à¸£
ĠÐŁ Ð¾
Ġr ight
ĠÐ´ Ð¾ÑĢ
Ġê± °
à´Ĥ à´Ĺ
à°® à±Ĩ
ç± ³
ÙĪÙħ ÛĮ
åĥ ı
Ġàª² àªĹ
Ò ĳ
åĳ ³
Ġh ow
ìĸ ´ë
Î¼ ÏĨ
Ġfal se
ÙĪÙĨ Ùĩ
ÏĢ Î·
Ġà´ķ àµĤà´Ł
ä¸ĸ çķĮ
Ø§Ùģ Ø©
ĠÑĨ ÐµÐ»
áĥĽ áĥĺáĥ¡
à®£à¯įà®Ł à¯ģ
à¦¾à¦¨ à§įà¦¤
ĠØ¨ Ø§ÛĮØ¯
à®¿à® ª
ĠÚ¯ Ø°
àª¾àª ļ
à´¨àµįà´¨ àµį
Ġà°¤ à°¨
ĠØ§Ù ı
an y
ĠÙģØ±ÙĪ Ø´
ĠØ§ÙĦØ¹ Ø±Ø¨
ĠÐĴ Ñĭ
Ġìĭ ¤
ç¥ ¨
t y
Ġà¦® à¦§à§įà¦¯
ĠÐ¿ Ð¾Ð±
à«ĩàª ª
N o
ĠÐ² Ð·
æµ İ
Ø¨ ØŃ
Ġà´µ àµįà´¯
áĢ±áĢ »áĢģ
Ðº Ð°Ð¼
à§ģ à¦ķ
t on
Ġà®ļ à®¿à®±
ĠÚ© ÙĨØ¯
à¸± à¹Īà¸ĩ
ĠÎľ Îµ
ĠØ¨Ûģ Øª
ĠÐ¯ Ðº
Ġå½©ç¥ŀ äºīéľ¸
ĻĢ â
à¸Ĥà¸¶ à¹īà¸Ļ
ĠÙħÙĪ Ø¬ÙĪØ¯
Ġà¤¸ à¥įà¤µ
à´¯ àµįà´ķàµįà´ķ
æĿ ĥ
åĨ ³
àªµàª¾àª¨ à«ģàªĤ
ãĤĮ ãĤĭ
áĢķ áĢ±áĢ¸áĢ
×ĳ ×Ļ×Ŀ
à°® à±Īà°¨
à¦¾à¦ Ĥ
4 1
à¥Ģ à¤ļ
à¤¾à¤ ł
ì° ¨
A S
à´¤àµįà´¤ à´¿à´¨
åı į
Ġ9 5
ĠÐĿ Ð¾
ĠáĥĴ áĥĲ
Ø§Ø¯ Ø±
ĠÐ² Ð°Ð¶
Ġæĺ ¨
áĥĲáĥª áĥĺáĥĲ
ĠØ¯ ÛĮÚ©
à®® à®¾à®©
æī į
A M
æĢ ģ
ÙĬ Ø§ÙĨ
Ġàª¬àª¨ àª¾àªµ
Ġ ã
ÑĢ Ð°Ð»
àµģà´ķ à´¯
ĠØ¨Ø¹ Ø¶
Ð¾ÑģÑĤ Ð°Ð²
Ùİ ÙĨ
à¦¨ à¦¾à¦°
àª¾àª ¥
à§ĩà¦ ľ
Ġh er
ê· ¸
à®Ł à®¿
Ø§Ø ¸
à±įà° §
re d
ĠìĽ Ĳ
åĪ ĩ
à´£ àµįà´£
Ġà¤¦ à¥ĩ
Ġå° ±
ĠÑĦ Ð°ÑĢ
Ġà®ĩ à®²à¯įà®²
ĠÐł Ñĳ
ãĤ¹ ãĥĪ
ÑģÐº Ð¾
Ð°Ð´ Ðµ
ØªÙħ Ø§Ø¹
Ð¸ÑĤ Ð°
ĠD e
å· Ŀ
ĠØ¬ Ø§Øª
ĠÐ¿ÑĢ Ð¸Ð¼
Ġà¤® à¥Ī
ĠÙģ Ø§Ø±
ĠÙĪ ØŃ
Ð¾Ð½ Ð´
ĠÐº Ð»Ð°Ñģ
ÙĪÙĨ ÛĮ
à¸± à¸
áĥĺáĥ£áĥ ļáĥĺ
áĢŁ áĢ¯
çĶ ·
èī ĩ
Ó Ļ
àª¤ à«įàª°
ìŀ ĳ
Ġl oc
à¯ģà® ²
ĠØ§Ùħ Ø§
à¸¢ à¸±à¸ĩ
ĠÐºÐ¾ ÑĺÐ°
Ġst r
Ð¸ÐºÐ¸ ÑģÑĤÐ¾Ð½
åİ Ĩ
ĠáĢ ĲáĢ¬
æĭ ī
Ð¼ Ð¸Ð½
Ġit s
ãģ¨ æĢĿ
áĥĶáĥ ¤
pt ion
Ġw ould
Ġin ter
Ġà®Ĩ à®©
Ġ×¨ ×Ĳ
ĠØ§ÙĪ ÙĦ
áĢ¼ áĢļáĢ¹áĢ
ĠÐ± ÐµÐ»Ð°ÑĢ
è¶³ çĲĥ
à«Ĥ àª°
åĨ Ĩ
à°¿à°² à±įà°²
f ul
Ġà®® à¯Ģ
od e
Ġà¦Ľ à¦¿à¦²
ÏģÎ¿ ÏĤ
ĠÙĪØ¬ ÙĪØ¯
ç© ¶
ĠâĢĭâĢĭâĢĭ âĢĭ
çº ¢
à¥ģ à¤¦
Ġà°µ à°ļà±įà°ļ
ĠF or
àª¨ àª¾àªĤ
Ġáĥ¥ áĥĲáĥļ
Ġà°ļà±ĩà° ¸à±įà°¤
ãĤ ±
à§įà¦ Ľà§ĩ
Ġà¤ķ à¤®
ĠáĢħ áĢħáĢ¹áĢ
Ð»Ð¸ Ð·
Ðº Ð¾ÑĢ
ÑĢ ÐµÐ¼
Ġsh ow
à¦¾à¦¤ à§įà¦°
Ġà¦¨ à¦¿à§Łà§ĩ
æ¸¸æĪı å¹³åı°
è Ĺ
ÏĪ Î·
ĠØµ ÙĨ
r it
Ġà´ħ à´¨
ĠÎ¼ Î¿Ïħ
ĠÐ¶Ð¸Ð² Ð¾ÑĤ
Ġàªķ àªĤàª
ĠØ¹ ÙĪ
à´£ àµįâĢį
à¦¸ à§įà¦¤
áĢĲáĢ¹áĢ ŀ
A G
æĹ¥ æľ¬
Ùģ Ø¹
ĠÑģ Ñŀ
éħ Ĵ
à¯ģà®µ à®¤
ĠØ® Ø±ÛĮØ¯
ĠÑĢ Ð¾Ð´
×Ļ ×ķ×Ł
ĠØ§ÙĦØ¯ ÙĪÙĦ
ĠØ³ Øª
à´¿à´¯ àµģà´ŁàµĨ
áĢĦáĢ¹áĢ Ĳ
ag es
ĠÑĨ Ñĸ
áĥĲáĥķ áĥĺ
Ð¸Ð´ Ð°Ð³Ð¸
à¸Ķ à¸¹
ÏĦ ÏİÎ½
æĿ Ĳ
Ġhel p
áĢľ áĢŃáĢ¯áĢ·
áĢĶáĢ¹áĢ ľ
ç½ĳ æĬķ
Ġáĥ¥ áĥĲáĥłáĥĹ
áĥĲáĥ ©
à«ĩàª ¬
Ġà®ļà¯Ĩà®¯ à¯įà®¯
çģ «
ĠØŃ Ùħ
ĠáĢĢ áĢ¯
ĠâĢ º
àª° àª®àª¾àªĤ
Ġh ad
ĠÐ¿ÑĢÐµÐ´ ÑģÑĤÐ°Ð²
ĠØ¨ ÙĪ
à®¿à®¤à¯įà®¤ à¯ģ
Ð² ÐµÐ½
Ġ> >
ĠØ± Ø§Ùĩ
Ġï¿½ï¿½ï¿½ï¿½ï¿½ ï¿½ï¿½
×ŀ× ©
Ġ×ľ ×ª
ë¬ ¼
Øª Ùī
æİ §
Ø¹ Ùħ
èĭ ±
íķ Ń
Î¸Î· ÎºÎµ
Ġàª¸ àª¹
Ġd iv
Ñı Ð»
ĠÑģ ÑĥÐ¼
áĥĲáĥĿ áĥĳ
ĠÙĪ Ø§ØŃ
à¤¤ à¤¿
à¯ģà®ķ à®³
âĢ Ķ
Ã ©
Ġà®ķ à®²
Ġb l
Ùİ Ø§
à¤ ¢
Ð¸ÑĢ Ð¸
§ ç¾İ
×Ĺ ×ª
Ġë Ĭ
éĹ® é¢ĺ
à¸´ à¸Ī
æ²¡ æľī
Ö ·
è¿Ľ è¡Į
àµģà´® àµįà´ª
uj arat
Ġà¸ļ à¸Ńà¸¥
ĠÐ¿ Ð¾Ð½
Ġà¹Ħ à¸Ķà¹ī
ãĥĥ ãĥĹ
à¯ģà®ķ à®³à¯į
Ð¸ÑĤ ÐµÑĤ
ŀ àµįà´ļ
ĠØª ÙĪÙĦ
ĠáĥĴ áĥĲáĥĺ
ä½¿ çĶ¨
± áĢĢáĢº
éĸ ĭ
áĥľ áĥĿáĥĳ
à°¾à°¨ à±ģ
à°¸ à±į
ĠáĢĢ áģ½
Ġáĥķ áĥĶáĥł
åĽ Ń
àªķ à«ĩ
Ñĭ ÑĨÑĮ
ëĤ ´
à¸£ à¸ģ
y st
ÙĬ Ø¨
Ġà¤¸ à¤°
áĢ±áĢķ áģļ
à«ĩàª ¦
ĠÐ¸ Ñģ
ãĥķ ãĤ
à¦¿à¦ķ à§įà¦·
ê¸ ī
ì² Ń
ä½ İ
Ðµ Ñī
à°² à°¾
ä¾ ĭ
å® ¤
Ġàª¨ à«Ģ
Ġàªļ àª¾àª²
Ġs erv
ĠÐ½Ðµ Ð·
et s
Ġáĥŀáĥĺáĥłáĥ ķ
ÏĢ ÎµÎ¹
Î¹Îº Î¿Ïį
Ġàªª àª¾àª¸
æ® µ
3 1
Ð°Ðº Ð°
Ø§Ø¦ Ùħ
ĠÙĪ Ø§ÙĤØ¹
à«ĭàª ¸
à¯ģà® ļ
ĠÛģ ÙĪÚº
it s
Ġà®µà¯Ĩ à®³
×¢ ×ķ×ª
à§ĭ à¦²
Ġà®¨ à®¿à®²
éĤĢè¯· çłģ
h a
ĠØ¯ Ùĩ
ĠÑı Ð·
ĠÑģÐº Ð»Ð°Ð´
Ġàªľà«ĭàª Ī
ĠØ³ Ù¾
Ð°Ð½ ÑĮ
æ¯ Ľ
à«Ģàª ¡
Ø± Ùĩ
Ġà¤µ à¥įà¤¯
Ġv ery
Ġà¦¬à§įà¦¯ à¦¬
Ġàªª à«ĭàª²
ç» ¼åĲĪ
à¹Ģà¸Ĺ à¸¨
Ð»Ð¸ Ð¼
×ľ ×ª
6 2
ĠN o
Ġà®ª à®¯
à¯Īà®ķ à®³à¯į
Ġ200 6
à¸¡ à¸ª
Ġ×Ļ ×ķ×ª×¨
à¸£ à¸¹à¹ī
áĤ Ĩ
Ġà´¤ à´¨àµįà´¨
ĠåĲ Į
à´° à´Ĥ
áĢ¸áĢ ķáĢ«
ä¹ °
à«įàª ¬
à¸ĩ à¸²à¸Ļà¸
Ġãĥ ķ
c om
ä¿¡ æģ¯
Ø§ Ø§
Ġà®ĩ à®µ
ÏĦ Î¿Ïħ
Ġå ģ
áĢ±áĢĲáĢ¼ áĢĢáĢŃáĢ¯
Î» Î¹
Ïģ Î¯Î±
ang e
Ġàª¨àª¹ à«ĢàªĤ
å£ °
ļ áĢ¬áĢĢáĢ¹áĢ
Î¿Î¹ Î½
ĠÙ¾ Ø§Ø³
ĠÐ· Ð°ÑĤ
àªµ à«ĭ
à¥ĭ à¤²
Ġ×ŀ× ŀ×
Ø§Ø¦ Ø¯
ĠÙħ Ø¨
æľī éĻĲ
áĢĽ áĢ±áĢ¸áĢ
áĥĲáĥª áĥĺáĥĺáĥ¡
ĠìĤ¬ ëŀ
çĶ °
à°¾à° ³
Ġà®¤ à®²
à«ĩàª¶ àª¨
ĠÐļ Ð°ÑĢ
Ø¬ ÙĦ
à´¨àµįà´ ±
ĠÐ´ ÐµÐ¹
ĠØ§Ø· ÙĦ
à¤Ń à¥Ģ
ĠÙħ ÛĮØ±
en er
Ð°Ð½ Ñĭ
ĠãĢĳãĢĲãĢĤ ãĢĳãĢĲ
à°¨ à±įâĢĮ
ÐµÑĢ ÑĤ
ãĥ Ģ
áĥľ áĥĲ
à´ķàµįà´ ¤
Ø¹ ÙħØ§ÙĦ
ĠÐ· Ð°Ð»
ĠT e
å¥ ĩ
Ġà¹Ĥ à¸Ľà¸£
æľ Ľ
áĢ½ áĢ±
à°¿à°Ĥà°ļ à°¾à°°à±ģ
ÑĤ Ñı
áĢĲáĢ²áĢ· áĢ¡
×ĳ ×Ļ
áĥľ áĥĶáĥļ
Ð³ Ð¾ÑĢ
ĠÎĳ Î½
Ġä½ ł
Ġàªķ àª²
Ġà¤Ĩà¤£ à¤¿
Ġ ãģ®
ĠÑĥ Ð·
Ġo p
ÏģÎ¯ Î¿Ïħ
Ïį ÏĦÎµ
í Ŀ
àª° àª£
Ñģ Ð»Ð¸
Ġå¼ Ģ
ĠáĥĽ áĥĵ
rou gh
áĢĦáĢ¹áĢ Ģ
ãĥ ¯
ĠÐ² Ð°Ð·
ĠÙĤ Ø³Ùħ
Î»Î¿ ÏĤ
áĢŃáĢ¯áĢĦáĢº áĢĦáĢ¶
Ġæ ·
Ġk 8
æ¼ Ķ
ĠÚ©ÛĮ ÙĦ
ĠãĤ ·
ä¸Ń å¿ĥ
ÑĢ Ð¾Ñģ
çħ §
ĠáĢ±áĢĶ áĢ¬áĢĢáĢ¹áĢ
ĠØ² ÛĮØ±
ĠáĢĺ áĢ¬
Ð¸ÑĤÐµ Ð»Ð¸
Ġå¥ ½
ĠÑģÑĤ ÑĥÐ´
Ġíĺ Ħ
Ġáĥ¡áĥĲáĥ ĳ
áģĢ áģĢ
ĠÛģ Ø±
Ð°ÑĨ ÑĭÑĸ
) )
Ġà®®à®±à¯įà®± à¯ģà®®à¯į
Ø§Ø¨ Ø·
Ð´ Ð¾ÑĢ
åĳ ½
ÏĢ Î¹
¤ Ģ
ãģł ãģĳ
ĠÐ¾ Ð·
88 8
Î¼ Î¿Ïį
_ d
è® ¤
Ġph p
è¿ ŀ
ç»ĵ æŀľ
áĢŃ áĢĻ
Ġà¤ľ à¥Ģ
à¹Ĥ à¸Ļ
à¥ĩà¤ ľ
Ġ| --
èĪ ª
ĠáĢħ áĢ¬
áĢĻáĢº áĢ¬áĢ¸áĢ
Ġ×ķ ×Ľ
à°¿à° ¦
ê° ģ
Ġà´ħ à´Ł
ÑĢ Ð°Ð±
Ð½Ð¸ ÐºÐ¸
ÏĮ Î³
± ¼
ì ¸
à¸ĸ à¸¶à¸ĩ
í Ĺ
ÑĢÑĭ Ð¼
Ġç «
ĠáĥĴ áĥĲáĥķ
if ic
us h
Ñı Ð»Ñĸ
ĠÐ¿ÑĢ ÐµÐº
6 1
à°¾à° ·
¶ Į
Ġè ¶
L ist
ç§ °
Ð¼ ÐµÑĤ
Ġï¿½ï¿½ï¿½ï¿½ï¿½ ï¿½
Ġpro v
ì ¤ĳ
æŀ Ĳ
Ġp o
ĠÐ¿ÑĢ Ð¸Ð²
ÑĨ ÐµÐ½
áĢĻ áĢļáĢ¹
å°± æĺ¯
à¸Ļà¸ Ĺ
ĠØ§ÙĦØ£ Ùħ
à¦¾à¦ľ à¦¾à¦°
ĠÐ¾ Ð²Ð°
à¦ ŀ
Ø² Ø´
© áĥĶáĥķ
Ð² ÑĢÐ¸
ĠÐ·Ð°Ðº Ð¾Ð½
åı¯ èĥ½
à´ ¥
ÛĶ ÛĶ
à¸§ à¸ģ
à¥ĭ à¤ķ
×¤ ×ª
Ġ. "
Ð» Ð¾Ð¶
Ġà¦¥ à¦¾à¦ķ
à® ¨
ĠÐ± ÑĬ
åŁ Ł
Ġs ize
à¯įà® ¸
ic es
à´°àµįâĢį à´ķàµįà´ķ
à¸¥ à¸²
ĠÑĨ ÐµÐ½ÑĤ
ĠÐ¾Ð± ÑĢÐ°Ð·
Îµ Îº
à¤¾à¤¨ à¤¾
Ð¸ÑĪ Ð¸
ŀ į
à¤¾à¤ ·
ĠÐ´ Ð°Ð½
Ð´ Ð¸Ð½
ĠÑĢ ÐµÐº
ĠæĪ Ĳ
ĠØ´ ÛĮ
à´¤àµįà´¤ à´¿à´¯
à¹ģ à¸Ĺ
ĠÑħ ÑĥÐ´
ĠáĢĺ áĢ¯áĢĽ
Ġàª°àª¹ à«Ģ
ĠÑģÐ» ÑĥÐ¶
ĠÐĶ Ð°ÑĢ
Øª ÙĨ
ĠÐ° ÑģÑĤ
â Ķ
Ø¯ ÙĪ
Ġå¹ ¶
Ð¾Ð² Ð°ÑĢ
à¯įà®ļ à®¿
Ġáĥłáĥ £áĥ¡
ä¹ ł
à¯įà®ª à¯įà®ª
Ġáĥŀ áĥĿáĥļ
Ġàª¦ à«ĩàª¶
à´¤ àµįà´°
ĠØ³ ÙĨÚ¯
Ġ8 5
Ġé ķ
áĢĽ áĢ²áĢ·
Ġ×© ×ł
ĠÙħ Ø§Ùĩ
ĠÑĪ Ð°Ò³
Ġà°° à°¾à°ľ
áĥľ áĥĶáĥĳáĥĲ
ĠÃ Ĺ
à¤¾à¤¨ à¥Ģ
çĻ º
Ñľ Ð¸
ļ à°¿
Ġà°ħ à°¨à°¿
àª¾àª¨ à«ģàªĤ
à¸Ħ à¸¥
à±ģà° Ł
Îµ Ïĩ
ìĨ į
à«Ģàª ª
ĠáĥĲáĥĵáĥĲáĥĽ áĥĺáĥĲáĥľ
Ð± Ñĥ
à¯ģà® ´
Ġà° ĵ
ĠÐ½Ðµ Ð¾Ð±
ĠáĢ¡ áĢĶ
Ġå® ī
Î ĵ
à¹Ĥ à¸¥
ÐĲ ÐĿ
ĠÐ² Ð¸ÑĢ
Ġàªľ àª¾àª¯
æľ ª
ou se
AP P
ĠÛģÙĪ Ø§
é» ĳ
Ġc ur
çİ ¯
ĠPre vious
ĠÐ³Ð¾Ð´ Ð°
Ġ) :
à°¸ à±įà°Ł
Ġà°Ĺ à±ģà°°
Ġin f
em ent
Ø§ÙĦ Ø©
à¹Ģà¸ ĭ
ĠáģĤáģĢ áģģáģ
à®¾à®³ à¯į
ĠÙģÛĮ ÙĦÙħ
Ġë¶ Ħ
Ġà¤ħà¤ª à¤¨à¥ĩ
×ĵ ×Ķ
àªµ àª¾àª°
à¸±à¸ģ à¸©
à¹Ģà¸£ à¸·à¹Īà¸Ńà¸ĩ
Î»Îµ Ïħ
áĥĿáĥłáĥ ¢
ĠÙħÙĪ Ø¶ÙĪØ¹
ãģª ãģı
Ġpe ople
Ð² Ð°Ð½Ðµ
ĠÐ½Ð°ÑĢ Ð¾Ð´
ÙĦ Ø§ØŃ
ubl ished
ëĬ ¥
ĠÙĥ ÙħØ§
ĠÑģ Ð¸ÑĤÐµ
ÐµÑģ ÑĮ
Ð¿ Ð¸
Ġç Ħ
ĠÐ¸Ð½ ÑĦÐ¾ÑĢÐ¼
m an
ĠãĤ «
áĥĿáĥļ áĥĿ
ÑĢ Ð°Ð´
ĠÑĤ Ñĥ
ÙĤ Øª
Ð¸Ð½ Ð°ÑĤÐ°
Ġåħ ¬
Ġ×Ķ ×Ļ×Ķ
Ñĸ Ð»Ñĸ
ĠÑĥ Ðº
à¹Ģà¸ ¢
s g
à¥įà¤¯ à¤¾à¤ļ
Ġí ĽĦ
Ġà°ª à°°à°¿à°
ĠÐ½ Ð°Ð±
à¹ī à¸ĩ
Ġà¦ķ à§ĭ
Ġ ãģ¾
Ġt itle
å¤§ åħ¨
ÎĻ Îĳ
ĠÐ´ Ð¾Ð²
ĠØ® Ø§Øµ
Ġáĥ¥ áĥķáĥĶáĥ§
ĠàªĨ àªĹ
Ð¡ Ð¢
ĠàªŁ à«įàª°
Ñĩ Ð°Ñģ
Ð» ÐµÐ½Ð½Ñı
3 2
çĻ¾ å®¶ä¹Ĳ
ĠãĤ ³
Ġç ¥
áĥĿáĥ ĸ
I S
ÑĨ ÑĤ
×¨ ×ĺ
à¦¿à¦ķ à§ĩ
à¦ ī
in ess
ĠÐ¸ Ð³
áĤ ī
ãĤ º
ĠU p
æĪĳ ä»¬
à¯Īà®¯ à¯Ī
ar i
×ŀ× ¦
Ð°Ð» Ð°ÑĢÐ¸
Ġà´ķ à´¾à´°
ëį ĺ
ĠÑį ÑĤÐ¸
ĠÐ¿ Ð°Ð¼
Ġà¤® à¥ģà¤
an a
áĥ¡ áĥĲáĥ®
àµģà´ķ à´³àµįâĢį
ĠáĢ¡ áĢĳ
Ġàª¬ à«ĩ
à¸Ļà¸ ¸
Ð½Ñĸ ÑģÑĤÑĮ
æĭ ¿
Ġàª¨ à«ĭ
u nd
Ġàª¤à«ĩ àª¨à«ĩ
íĻĶ ìĿ´íĬ¸
Ð°Ñĩ Ðµ
Ø§Ø¨ ÛĮ
àªµàª¾àª¨ à«ĭ
áĥ® áĥĽ
Ġ9 8
à±ĩà° ®
Ø§Ø¦ Ø±
ĠÐł Ñķ
ĠÐ¿Ð¾Ð» ÑĥÑĩ
3 9
à¸ª à¸²à¸¡à¸²à¸£à¸ĸ
Ġm ay
áĢ½ áĢĦáĢº
Ġblo g
à¤¾à¤ ¶
ĠÐ¢Ð¾ Ò·
ĠØªÙĪ Ø§ÙĨ
Ð¸Ð½ Ð¾
Ġfig ure
ÑĨÑĸ ÑĹ
ĠÚ© ÚĨÚ¾
è´ Ń
áĢ¼ áĢĶáĢ¹áĢ¸
ĠÎºÎ± Î¸
Ġà¦ķ à¦¿à¦¨
íĶĦ íĻĶìĿ´íĬ¸
áĢľ áĢŃáĢ¯áĤĶ
à¸¸ à¸¡
áĥ¡ áĥ¢
àª°à«įàª £
6 4
à°¤ à±įà°¯
ĠáĥĹ áĥĳ
áĢŃ áĢĶáĢ¹áĢ¸
Ð¾ÑĤ ÑĢ
ĠÐŁ Ð¾Ð´
ĠÂ ®
Ġå Ĵ
ĠA s
à´± àµĨ
ĠÙħÙĪ ÙĤØ¹
áĢ¶ áĢ·
à¸´ à¸§
×Ľ ×ķ×ľ
Ġgo od
Ġ ent
Ġàª¤ à«įàª°
Ġæ ĭ
åĽ½ å®¶
ĠãĢĤ âĢĿ
Ø§Ø¦ ÙĨ
ĠÐ¼ Ð°Ð½
Ġex p
Ð°Ð² Ð¸
ĠÐ¼ Ð»
ĠÐ¿ÑĢÐ¾Ð´ ÑĥÐº
Ġí İ
ĠÙĩ ÙĬ
à¤¾à¤° à¤¾
à¤¿à¤ Ł
Ø§ÛĮ ÙĦ
áĥĲáĥ® áĥĶáĥĳ
à¯Īà®ķ à®³
og le
ĠÙħÙĨ Øª
éķ ·
é ±¼
Ĉ Ĉ
ĠÏĥ Î·
à«Ģ àª¨à«Ģ
ĠØ¹ ÙĨØ¯
Ð¼Ð¾ ÒĽ
ĠÐ±Ñĭ Ð»Ð¾
à«ģ àª¸
à¸Ĺ à¸°
Ġå ĵ
ĠÚ© ÙħÛĮ
ĠÑĪ ÑĤ
áĥĶáĥĳ áĥĸáĥĶ
Ð² Ð¾Ð»
Î² Î±
Ġêµ Ĳ
ĠØ¯ ÙĪØ³
ãģ§ãģĻ ãģĮ
à¥Ĥ à¤ª
ĠÙħ Ùħ
áĥļ áĥĺ
ÏĦ ÎŃÏĤ
Î¼ÎŃ Î½Î¿
Ġà¦ı à¦¸
à®¿à®¯ à®¾à®ķ
cl ud
ãĤĤ ãģ®
ĠÐł ÐµÑģÐ¿
áĥ£áĥ ĳ
Ġà¦¬à¦² à§ĩà¦¨
Ġ15 0
ìŀħ ëĭĪëĭ¤
c o
Ġ. âĢĿ
Ġáĥ¡ áĥ¬
Ġà´ļàµĨà´¯ àµįà´¤
Ø§Ùģ ÛĮ
à¸Ļà¸ Ħ
Ð½ ÐµÐ²
áĢ»áĢĸ áĢħáĢ¹
à´¨àµįà´ §
åł ±
à¸²à¸£ à¹Į
å®ī åħ¨
ĠÑĢ Ð°Ð¹
áĥª áĥĲ
è¨ Ī
åĦ ¿
à¸Ĭ à¸±à¹Īà¸Ļ
d er
Ġàªķàª¹ à«įàª¯à«ģàªĤ
ĠÐ¼ Ð°ÑĪ
Ġ áĤıáĢ½áĢħáĢ¹áĢ
Ġàª¤à«ĩ àª¨àª¾
áĢĻ áĢ®áĢ¸áĢ
Ðł Ðħ
Ð¾ ÑģÐº
Ġr u
Ġm on
à¥ģ à¤¤
ĠÚĨ ÙĨØ¯
Ġàª® à«Ĥ
Ġà´ ķàµįà´ķ
m in
Ġáĥ¬ áĥĺáĥľ
ĠØª Ø¹Ø¯
ëĵ¤ ìĿ´
oc ial
ÙĨ ÙĬØ©
Ġ×ľ ×Ļ
Ðº Ð¸Ð»
ĠØ§Ùģ Ø±Ø§Ø¯
ĠáĥĶ áĥĻ
Ġt ext
åħ «
Ġà´ķ àµģà´±
ĠÐ¼ Ð¾Ð»
e g
ĠÐ½ Ð°Ð³
æĻ ¯
Ġm ake
ĠØ¹ÙĦ ÙĬÙĩ
áĢ¡ áĢŀ
ĠÑĸ Ð¼
ĠÐ¡ Ð
áĥ®áĥĿáĥķ áĥł
ĠáĥĲáĥł áĥĲ
à«Ģ àª®àª¾àªĤ
ĠáĢħ áĢŃáĢĲáĢ¹áĢ
à¤¾à¤° à¥ĩ
à¥ĩà¤ Ĺ
Ġ] .
à¹Ģà¸ĩ à¸´à¸Ļ
à°¯ à±įà°¯
à¯Īà® ¨à¯įà®¤
ï »¿
áĢ±áĢ ĸ
ä¹ ī
Ĺ ä¸ĩ
áĢŁ áĢ¯áĢĲáĢ¹áĢ
áĢľ áĢ¬áĢ¸
à¹Īà¸²à¸ §
ĠÐ¡ Ð²
Ġà¤¸ à¥Ģ
áĢĿ áĢĦáĢº
à¸ķ à¸£
áĥĲáĥļáĥĺ áĥĲáĥľ
à¸Ļà¸ «
áĥĲáĥłáĥĹ áĥļ
å¾ ®
Ġà®ī à®Ł
ĳ åħĭ
Ġpl ay
ĠÐ¾ÑĤ Ðº
Ġì ¶
à· Ĵ
Ġà®µ à®¿à®Ł
x x
à±Ģ à°¯
........ ........
×Ļ× ŀ×
éĽ »
ÛĮØ´ ÙĨ
apt ion
Ð¡ ÐĤ
à°¿à° ·
Ġà¤ª à¥Ĥ
Ïĥ Î¯Î±
×¤ ×©×¨
Ġth an
ĠãģĿ ãģ®
ĠA pp
à¤¾à¤ Ł
Ġà¸« à¸£à¸·à¸Ń
Ø° ÙĦÙĥ
ĠáĥĽ áĥĲáĥľ
ar ch
íķľ ëĭ¤
àªĹ àª°
ĠìŀĪ ìĬµëĭĪëĭ¤
áĥĲáĥļ áĥ£áĥł
à±Ĩ à°Ł
ÙĲ ÙĬ
Ð°ÑĢ Ð¾
ĠÚ¯ Ø¦ÛĴ
ĠÐ³ Ð°Ð·
I I
ìĻ ¸
×ĸ ×Ķ
à°ķ à±įà°¤
áĢ±áĢĽ áĢ¬
Ø§Ø² Ùħ
ĸ áĢŃáĢ¯áĤĶ
ĠØ±ÙĪ ÛĮ
Ġ×ŀ ×Ļ
Ġå¿ «
à°¾à° ¹
×¡ ×§
ÑıÑĤ ÑĮ
ĠâĢĺ âĢĺ
ĠáĥĲáĥłáĥ ¡
è «
àª°à«įàª ¸
Ġa c
Ġ} );
ĠÑģ ÑĢ
ãĥ ¢
Ġkn ow
Ñī Ð°
ĠáĢĳ áĢŃáĢ¯
Ġà¤® à¤¿à¤²
Ġin to
Ġè ī
Ġà® ĵ
ĠÙģ Ø¹
Ġà¦ķà¦° à§ĩà¦¨
ç» Ń
ĠÙħ Ø§ÙĨ
çī Ľ
Ġd own
Ġà¸ª à¹Īà¸ĩ
áĢŀ áĢĬáĢ¹áĢ·
Ø§ÙĦ ÙĬØ©
Î½ Ïī
Ġag o
Ġà¦¦ à§ģ
Ġm ain
à¸£ à¹īà¸Ńà¸¡
ĠÐº ÐµÐ»
le t
à§ĩà¦Ľ à¦¿à¦²
éĵ ¶
à¯ĭ à®¤à¯ģ
Ð¸Ð¼ Ð¸Ð·
ĠÚ©Ø± Ø¯Ùĩ
à¸Ķ à¸¥à¸Ńà¸ĩ
×ķ×ł ×Ļ
ĠÙĤ Ø§ÙĨÙĪÙĨ
àª¾àªĤ àªļ
ĠØ¬ Ø§Ùħ
äº ¿
ãĥ Ŀ
Ġ äºĮ
Ġà°µ à±Ī
Ġ9 7
Ġë ĺ
ą ć
Ð½ ÐµÐ½
Ġà¦¸à¦® à§Ł
Ġàª¶ à«ģàªĤ
Ð½ Ð°Ð²
Ð½ ÐµÑĤ
Ð¸Ñģ ÑĮ
ĠØ¨ Ø¬
ĠÐµÐ´ Ð½Ð°
ĠÚ¯ Ø²Ø§Ø±
ç» ľ
áĢ» áĢ¾
æĬ ¤
æĬĢ æľ¯
Ġà¦Ĩ à¦¬
ĠN ew
ĠÙĪ ÙĨ
Ġà¦ªà§įà¦° à¦ķ
ãĤĮ ãģ¦
ÑĥÑĢ Ð°
à¸²à¸ «
Î¬ Ïģ
èį ī
Ġl ink
ë° ľ
Ġà¦° à¦¾à¦ľ
à¸´à¸¡à¸ŀ à¸±à¸Ļà¸
íĺ ķ
æĸ Ń
r id
i ed
Ġàª¨ àª¾àª®
Ð± ÑĢ
à¸Ī à¸³
ĠØ±Ûģ Ø§
ĠëĲ ĺ
ic t
àª° à«ĭ
ĠÐ¼Ð¾Ð¶ Ð½Ð°
åĪ Ŀ
ĠÒ³ Ð°ÒĽ
Ġáĥ¨áĥĶáĥ¡ áĥĲáĥ®áĥĶáĥĳ
æĸ° éĹ»
æĬ Ĭ
Ġ ä¸ĭ
Ġàª® àª¨
åģ ĩ
à¸¹ à¸¥
±áģ¾áĢĢ áĢ¬áĢĦáĢ¹áĢ¸
ĠÐ½ Ð°Ð»
ĠH otel
ï¼ Ī
à¤¾à¤² à¥Ģ
àª° àª¸
ÏģÎ¿ Ïį
ÙĬ Ø´
Ð½ ÐµÐ¼
ĠÎ¼Îµ ÏĦÎ±
Ġà¸ĭ à¸¶à¹Īà¸ĩ
áĢĦáĢ¹áĢ Ļ
é£ŀ èīĩ
Ġ7 7
ĠØ¯ ÙĪÙĨ
å¸Ĥ åľº
ot t
¦ à«įàª°
Ġà´® à´¨
ç´ ł
Ġel se
Ð» ÑĥÐ¼
å¤ į
éĻ Ĩ
à«įàª¯ àª¾àª°à«ĩ
ĠáĥĽáĥĹ áĥĲáĥķ
à¤ķ à¥įà¤¤
ÑģÑĮ ÐºÐ¾ÑĹ
à¸± à¸ª
áĥĵ áĥĺ
ĠÑŀ Ñģ
àµģà´Ł àµįà´Ł
ĠÐ± Ð°Ð»
à¹Ī à¸°
ot o
ĠÐŀ Ñģ
áĢĽ áĢ®áĢ¸áĢ
à¸ķ à¸²à¸¡
à®¸ à¯į
ãģ ¹
eb ook
h one
Ġl og
Ġàª¬ à«ĭàª²
ĠÑģÐ¸ÑģÑĤ ÐµÐ¼
Ġëħ ¸
ĠÐ¿ÑĢ Ð°Ð´
à°µ à°°
Ġ×ľ×Ķ ×ª
ĠÐ¿ÑĢÐ¾ÑĨ ÐµÑģ
Ð°Ñģ ÑĮ
w n
Î³ÏģÎ± ÏĨ
à¦¿à¦ ·
ĠÙ¾ Ú¾Ø±
Ø¹ ÛĮ
Ð»Ð¾ Ò³
ĠÑı Ð³Ð¾
à¥ĭ à¤Ł
çĶµ æ¸¸
Ġà®İ à®´
Ø§Ø±ÙĬ Ø®
ĠÐ´ ÐµÐº
áĢ¯ áĢķáĢ¹
Ð»Ð°ÑĢ Ð³Ð°
pl ay
ĠÐ´ Ð¾Ñģ
áĢ±áĢ¬ áĢĦáĢ·áĢº
à¸¢ à¹Į
ĠÑıÐºÑĸ Ñı
Ġfor m
ĠØ¢ Ø¨
à¯Ģ à®°
Ø¶ Ø§
ÑģÐº Ð°Ð¹
à¥ģ à¤ª
ĠÚ©Ø± ÛĮÚº
×ľ ×ķ×ª
áĢģáĢ» áĢĢáĢº
ĠØ¯ÛĮÚ© Ú¾
Ġ Ö
Ġàª° àª®
Ġà°² à±ĩà°¦
ì µľ
Ġà¤¤ à¤ķ
Ġ ^
Ġë Ĩ
çĬ ¶
à¹īà¸Ń à¸¢
ĠáĥĵáĥĲáĥ Ļ
çŃ ĸ
ĠáĢ¡ áĢģ
å®ī åįĵ
Ù į
ì ¶
Ġë° °
ĠÒĽÐ¸Ð»Ð¸ ÑĪ
áĢĢáĢ¹áĢ ¡
áĥĿáĥļ áĥĿáĥĵ
Ġà§ «
ÏĢ ÏīÏĤ
à¹ģ à¸ķà¹Ī
ìł Ĳ
à¸Ļà¸ ¶
ĠáĢŁ áĢ¯
å¯ ¾
Ġà´ £
ĠÏĥ ÏĦ
âĢ ı
Ġë ¦¬
ĠÙĪ Ø¥
ĠãĤ µ
ĠÙħØ¬ Ùħ
Ġl ook
Ġst yle
it ies
à§įà¦¯ à¦¾à¦²
ÏģÎ± Î³
Ġcom ments
à« §
à¤¦ à¥Ģ
Ø§Ø¯ ÙĬ
Ġ×Ĳ ×ĳ×ľ
Ġáĥĺáĥľ áĥ¤
áĥĺáĥ ®
Ġæĺ¨ å¤©
Ġà®ķ à®¾à®²
Ð°Ð»Ñĸ Ð·
g round
ÐµÑĤ ÑĮ
Ġà¦¬à¦¿à¦¶ à§įà¦¬
ì ½Ķ
Ġãģ Ĥ
è® ©
ĠâĢľ .
ĠÑĤ Ñĭ
ĠA ll
à§ĩà¦² à¦¾
ĠI f
ĠØ¨ Ø³ÛĮ
ìĹĲ ê²Į
el f
8 5
à¹ĥà¸« à¸¡à¹Ī
ÙĪ ÙĪ
ĠT ag
Ġsa id
à´¤ à´¿
Ñĳ ÑĢ
Ġ: :
ë£ Į
×Ļ×ľ ×Ķ
à°¿à°¤ à±įà°°
ĠÑĤ Ð¾Ð¿
Ġ4 00
Ĵ áŀ
à¸Ħ à¸£à¸±à¸ļ
Ø§Ø¦ ÛĮÚº
l ass
ĠáĥĽ áĥĲáĥĺ
Ġ×ĳ ×¤
ĠÑģ Ð¿ÑĢÐ°Ð²
ìĦ ¤
Î Ķ
ĠÐ¢Ð¾Ò· Ð¸ÐºÐ¸ÑģÑĤÐ¾Ð½
à¦¤ à§įà¦¤
à¤¾à¤² à¥ĩ
å¹ ¶
Ġà®¨ à®¿à®±
Î¿ Ïģ
ĠáĢĲ áĢħáĢº
ë ¸
áĢ± áĢĢáĢº
à¤¾à¤ §
à¸Ń à¸°
Ġìł Ģ
ĠØ§ÙĦØ³ ÙĬ
è± ¡
Ġà¦ķ à¦¥
ĠØ²ÙĨØ¯ Ú¯ÛĮ
Ġà¸§ à¸´
Ġund er
à®¤ à®¿
ĠæŃ £
Ġà¸Ľ à¸£à¸°
ĠÏĥ Î±ÏĤ
ÙĬÙĨ Ø©
ĠØ¢ÙħÙĪØ² Ø´
Ġà§ ¦
Ġàªķ à«ĩàªŁàª²
Ġë°Ķ ì¹´ëĿ¼
ĠØ´ Ûģ
ĠÑĤÑĢÐµÐ± Ð°
ĠÎ± Î³
Ð¾Ð½ Ñĥ
Ġàª¤à«ĩ àª¨à«Ģ
áĥĿáĥĳ áĥĲáĥ¡
ĠØ§ÙĦØ¹ Ø§Ùħ
ĠM an
Ġç ´
Ġáĥ« áĥĲáĥļáĥĺáĥĲáĥľ
Ġà®ļ à®®
ĠÐ² ÐµÐ»Ð¸
àªª à«įàª°
íĥ Ŀ
Ø±ÛĮ Ø¨
Ð°Ñĩ Ð°
ĠÎ ¡
áĢĢáĢ¹áĢ Ĳ
áĢŀ áĢĬáĢ¹áĢ
è¯ Ħ
Î² Î¬
ÛĮ Ùĩ
ĠØ§ÙĦ Ùī
Ġ, #
ĠØ¬ Ø§
Ġ×ŀ× ¤
Ġre g
ĠÐµÐ´ Ð¸Ð½
ĠÑĥ ÑģÐ¿
à¥įà¤¯ à¤¾à¤¤
à°¾à°² à°¿
ãĤĬ ãģ¾ãģĻ
ÑĤ Ð¾Ð±
Ġ×ĳ ×Ĵ
Ð°Ð· Ð¸
Ġ×Ķ× ĺ
ĠÐ¿ÑĢ Ð¸Ð½
í ĳľ
ĠB y
à¸Ļ à¸±à¹īà¸Ļ
ÑĬ Ðº
Ġà¤¬ à¤¾à¤¦
à¤¾à¤Ĥ à¤Ĺ
A V
Ħ áĢ¼
ÑĤ ÐµÐ»
Ġàª« àª¿àª²
b le
æľīéĻĲ åħ¬åı¸
Ġà¸Ī à¸²à¸ģ
à´ ĺ
Ø±ÛĮ Ùħ
ĠÙħ Ùģ
Ġ î
Î¸ Î®
ĠÙĦ Ø¨
Ðŀ ÐĴ
à«įàª¯ à«ģàª
ĠØ§ÙĦÙħ Ø³Øª
à´¨ àµĨ
ĠØµ Ø±Ùģ
à¹Ģà¸ļ à¸µà¸¢
Ð½Ñĸ Ð¹
èĻ İ
ĠÛģÙĪ Ú¯
Ġà°Ĩ à°¯
ĠÑĢ ÑĥÐ±
Ġà´¸ àµįà´¥
ĠÐ² ÐµÐ´
»áĢķ áĢ³
od y
à°³ à±įà°²
à¤Ĥ à¤ļ
à±Ģ à°²
ĠÙĨ Ùĩ
ĠÙĬ ÙħÙĥÙĨ
Ġre ad
ĠàªĨàªľ à«ĩ
¡ à°¿
Ø± ÙĤ
ÏĦÎ¹Îº ÎŃÏĤ
al k
h i
Ġp ar
Ġà¤² à¥ĭà¤Ĺ
Ġáĥ¡ áĥĲáĥĵ
ÙĦ Ùģ
it ed
al s
à´¸ àµįà´±àµįà´±
ÐµÐ½ ÑĤÐ°
Ġbe c
à¤¾à¤ ĵ
ĠÐº ÑĥÐ½
åĩ ł
é¦ĸ é¡µ
à±Ģ à°ª
Ġáĥ¨ áĥĶáĥĵ
Ġà®µà¯ĩà®£à¯įà®Ł à¯ģà®®à¯į
Ġå¤© å¤©
èµ ¢
ĠÙ¾ ÙĨØ¬
à°¿à° ļ
Ø§Ø³ Ø¨
ĠÐ´Ð°Ð² Ð»Ð°ÑĤ
à¤Ĥ à¤¬
Ġçĭ Ĺä¸ĩ
ĠÎº Ïħ
Ġà¤ķ à¤¹à¤¾
ĠíĮ Į
Ø´ ÙĪØ¯
ĠØ¯ ÛĴ
Ġind ex
à¸ŀ à¸Ļ
ĠáĥĴ áĥĲáĥł
Ġà®ª à®°
ĠS c
Ø§Ø´ ØªÙĩ
áĢĢáĢ¹áĢ ħ
$ (
ç» ´
ĠÑĥ ÑĪ
ĠíĶ Ħ
ĠáĢĨ áĢĽáĢ¬
ĠØº ÙĬØ±
èģ ĺ
à®ķà¯įà®ķ à¯ģ
×ķ×¨ ×Ļ×Ŀ
ĠÑģ ÐµÐ¼
ĠÐ¸ Ð»
i ent
Ïħ Î½Î±
è ĸ
Ġ= =
ìĹ Īëĭ¤
à´¯ à´Ĥ
Ġà° §
ĠÙĤ Ø·
Ġ ä¼
ãĥ Ļ
ĠØ¯ÙĨ ÛĮØ§
ìĭ ¬
Ð°Ð² Ð°ÑĨÑĮ
à¸Ļà¸ ·
ĠÐ½ Ð¸Ðº
áĢĶ áĢļáĢº
×Ĺ ×§
Ø´ Ø¯
Ġs ite
Ġàª¤à«ĩàª ĵ
Ð´ ÑĢ
yst em
ĠØ§ÙĨØ¬ Ø§Ùħ
Ġà¦ı à¦®
Ð¾Ð½ Ð°Ð»ÑĮ
Ġáĥ§áĥķáĥĶáĥļ áĥĲ
à®¿à®ķ à¯į
ÙĪØ± Ù¹
Øµ Ùģ
Ġà® ¸
Ġ áĤıáĢŃáĢ¯áĢĦáĢ¹áĢĦáĢ¶
ĠØ® Øµ
áĥĲáĥĵáĥĴ áĥĶáĥľ
ate g
Ġà§ ª
Ð¾Ð» Ð°
ÐµÐ½Ð¸ ÐµÑĤÐ¾
ĠÙ¾ ÙĪÙĦ
à¯ģà® ªà¯į
Ġáĥ¡áĥĲáĥ £áĥ
àµĨà´¨àµįà´¨ àµģà´Ĥ
à®° à¯ģà®®à¯į
ro ll
Ġë¬ ´
ÐºÐ° Ñı
à´® à´¾à´£àµį
ĠØ§Ø³Øª Ø§ÙĨ
ìłģ ìĿ¸
å¤© å¤©
à¸¸à¸ķ à¸ļà¸Ńà¸¥
ĠØŃ ÙħÙĦ
áĥĿáĥľ áĥĺ
Ø¨ ÙĪ
ĠãĢĤ ãĢĤ
Î¼Î± ÏĦÎ¿ÏĤ
à°¿à° ľ
Ġë ¡
é ¥
r ap
Ïĥ ÎºÎµ
àµĭ à´Łàµįà´Ł
u ch
àª£ àª¾
Ġà¤µ à¤°à¥įà¤
Ġ×ĳ ×ĳ
à®¤ à¯Ī
Ġà¦ķ à¦¾à¦ľ
ĠáĥĲáĥ ļ
Ġm ost
Ġà®ļà¯Ĭ à®²à¯įà®²
à¹Ĥ à¸Ķà¸¢
çĶµ åŃĲ
±áĢĽ áĢ¸
áĢ¾ áĢ¯
Ð´ Ð°Ñģ
ĠÐł Ð°Ð·
å¤ ±
èµĮ åľº
ÑĤÐ¸ÑĢ Ð¸ÑĪ
Ġìļ° ë¦¬
rou p
" ,"
Ø¬ Ø¯
à¹Ģ à¸Ńà¸ĩ
Ùĥ ÙĬ
åĽ ´
à° «
Ġw ell
or n
Ðº Ð°Ñħ
Î¹Îº ÎŃÏĤ
Ġc ar
ĠÐ¿ÐµÑĢ ÐµÐ´
áĢ»áĢķ áĢ³
Ġà®¤ à®©
ĠØŃ Ø±
ç« ł
Ġà®ħà®¤ à®¿à®ķ
à¦¾à¦ £
ĠÂ ±
ÏĦ Ïī
ĠØ§Ø ¶
ĠÐ¿Ð¾Ñģ Ð»ÐµÐ´
Ø¨ Ø§ÙĦ
ÙĦÙĬ Ùħ
Ġáĥĵ áĥĲáĥľ
áĢļáĢ¹áĢľ áĢŃáĢ¯áĤĶ
ī áģ
à¹ĥà¸Ļ à¸ģà¸²à¸£
æıĲ ä¾Ľ
Ġáĥ¡áĥ®áĥķ áĥĲ
ĠàªĨ àª°
ĠO ne
áĥĶáĥķ áĥĶ
ĠÐ¼ ÐµÐ¶
áĥļ áĥĶáĥĳáĥĺáĥ¡
×ľ ×ĳ
íķ© ëĭĪëĭ¤
ï¼ ĳ
Ġ20 00
åĸľ æ¬¢
ĠáĢķ áĢŃáĢ¯
ĠÐ· Ð±
Ġáĥ¡áĥĲáĥ¥ áĥĽ
ì¶Ķ ì²ľ
Ġtr ans
à®¾à®¤ à¯ģ
ÙĲ ÙĨ
Ð°Ðº ÑĤÐµÑĢ
Ð» Ñĥ
à¸£ à¸¹
A C
ĠÛ° Û
Ġàª¬ àª¾àª³
ÐµÐ½ ÐµÑĢ
ÛĮ ÙĪ
à¦¿à¦ ļ
à¤° à¤¾
à´¾à´ ·
ĠæĿ ¥
ĠØ§Ø³ÙĦØ§Ùħ ÛĮ
ĠR es
à«ĭàª §
à§ģà¦° à§ģ
Ġà¦¨ à¦¾à¦®
ĠÑĢ Ð´
ìĶ ¨
ç Ĩ
áĥĺáĥª áĥĺ
è© ±
à¦¾à¦° à¦¾
Ġ365 bet
à´¦àµįà´ ¦
al th
ĠØ§ÙĨÛģ ÙĪÚº
il ity
Ġàª¬ àª¾àª¦
ĠÐº Ð¾Ð¹
Ð¾Ð»ÑĮ Ð·
Ð°Ð³ Ð°Ð½
Ġàª® àª¾àª¨
áĢ ¦
Ĳ áĢŃáĢ¯áĤĶ
ĠÐ¼ ÐµÐ´
u es
å¤§ åŃ¦
ĠÏĥ Ïĩ
à¦¾à¦² à§ĩ
ĠØ¯ Ø¹
ot e
Ġe very
Ġà´¨ àµĩ
Ġà°ª à°¾à°°
ĠÐºÑŀ ÑĢ
à°°à±įà° µ
Ġëĺ Ĳ
±áĢĨ áĢ¬áĢĦáĢ¹áĢ
ĠÚ¯ Ø±
áĥĶáĥ¡ áĥ¢
l and
Ð» ÐµÐ½Ð¸Ñı
æŀ Ħ
ĠÐ² Ð°Ñģ
Ġs he
áĢ±áĢķ áĢĻ
ÙĬØ¯ Ø©
×ķ×ĳ ×Ķ
àª² à«Ģ
ĠÑĤ ÐµÐº
à°· à±įà°Ł
Ø§ÙĨ Ûģ
Ð¶ Ð¸
Ġ×ŀ× Ĵ
ÙĦ Ø§ÙĤ
Ġret urn
Ġa fter
áŁ Ĵáŀ
ĠÐ¿ÑĢ Ð°Ðº
ac ebook
ĠÐºÑĬ Ð¼
à®¾à®± à¯įà®±
ĠÎ¼Îµ Î³
àµĬ à´°
ĠØ¯ ÛĮÙĨ
ib le
Ġãģĵ ãģ®
ĠÐĳ Ñĥ
ĠÐ± ÐµÐ»
à¦Ļà§įà¦Ĺ à§ĩ
ÑģÑĮÐº Ð¾Ð³Ð¾
çŁ ³
æ ¤
áĥĺáĥĻ áĥ£áĥłáĥĺ
Ð¾ÑĢ ÐµÐ´
ĠÐ°Ðº ÑĤÐ¸Ð²
ĠØª Ø¯
ĠÐŁ Ð¾Ð»
Ġï¼ļ âĢľ
ĠÐ½ ÐµÐ¼
ë¥ ¸
5 7
ØŃ Ø±
Ġà´ ¨àµįà´¨
ĳ áĢ¬áĢĦáĢ¹áĢ
ĠÎµÏĢ Î¯
m a
ĠÐ° ÐºÐ¾
à´¿à´± àµįà´±
åĪ Ļ
æľ ¨
à´ ŀàµįà´ļ
ĠagåĽ½éĻħ äºļæ¸¸
Î½Î¿ Î¼
ÛĮØ§ Úº
ĠÚ©ÛĮÙĦ Ø¦ÛĴ
Ġà´ ·
ĠØ²ÛĮ Ø§Ø¯Ûģ
à´¤àµįà´¤ à´¿àµ½
ĠÙĦ Øª
Ġà¦¤ à¦¾à¦¦à§ĩà¦°
è§Ĩ è®¯
áĢĢ áĢ±áĢĲáĢ¬áĢ·
us iness
Ġæ Į
à®µ à¯ģ
áĢĦáĢ¹áĢ ŀ
ĠâĢ¦ âĢ¦
à¸Ī à¸±à¸Ķ
t ing
Ġàªķàª° à«ĭ
Ð¼ Ð°Ð¹
ĠÐ½ Ð°Ðº
» ¤
ĠáĢ±áĢ ħ
ĠØ§Ù ĩ
Ġà¦ķ à¦¾à¦
à° ¥
ĠÚ©Ø± ÙĨØ§
à¦§ à¦¾à¦¨
Ġ22 2
áĢĲáĢ¹áĢ ľ
ÑģÐº Ð°Ð³Ð°
ĠãĢ İ
ĠÑħ Ð¾ÑĤ
Ġin clud
ĠÐ¸ Ð³ÑĢ
am s
ĠÙĬ Øª
ĠÙħ Ø°
Ġàªªà«ĭàª² à«Ģàª¸
ãĥ© ãĤ¤
le ment
ĠåĽ ł
Ð¾ÑĤ Ð°
Ð¾ÑĢ Ð¸ÑģÑĤ
áĢĲ áģ
Ġ×¢ ×ĵ
ĠÐ¼ Ñı
Ġàª® àª¨à«ĩ
o f
Ð¾Ð½ ÑĤ
Ġà°¤ à±Ģà°¸
ĠØª Øº
Ð°Ð¼ Ñĥ
ĠëĮĢ íķľ
c m
Ġê³ Ħ
áĢ¯ áĢĴ
à¸±à¸Ļà¸ Ĺà¸µà¹Ī
Ġst art
Ġb est
Î´ Î®
à®¾à®¯ à¯į
Ø§Ø± Ûģ
à® ŀà¯įà®ļ
ĠÐ» ÐµÐº
ÙĦ Øª
à°Ł à°¿
ĠØ³ Ùĩ
ĠB e
Ġà®ī à®£
ĠÐ± Ðµ
à®¿à®¯ à¯ģà®®à¯į
ĠáĥĹáĥĳ áĥĺáĥļáĥĺáĥ¡
ĠÐ¿ÐµÑĢ ÑĪ
à¸Ń à¸¡
Ġh igh
áĢ¬áĢ¸áĢĻ áĢº
ì ¶ľ
ãģĹ ãģ¾ãģĻ
ĠáĢ ĵ
Ġà´ªàµįà´° à´µ
Ġìĺ¤ íĶĦíĻĶìĿ´íĬ¸
Ġatt r
Ġl o
Ġ×ľ ×¦
Ġo ld
O L
ĠÐº Ð»
re en
ĠØ¹ÙĦ Ùħ
àª¾àªĤ àª¤
ĠÑĪ Ñĥ
Ð¿ÑĢ ÐµÐ´
à¯ģà®ķà¯įà®ķ à¯ģà®®à¯į
ul ar
Ùħ ÛĮØ±
ĠáĥĲáĥĵ áĥĴ
Ġs er
áĢ»áĢķ áĢĬáĢ¹áĢ
ÙĬ ÙĪ
ĠØª Ø£
____ ____
Ġà¤¸ à¥įà¤¥
äº§ åĵģ
à¦¸ à¦²
Ġàªħ àª¹
Ġ×¢ ×¦
Ġf il
Ġà¦¬à¦¿à¦ Ń
ãģĹ ãĤĩ
ĠÑĤ Ð¾Ñĩ
àªļ à«įàªļ
Ġà¤ Ĳ
ĠÑı Ð²
áĢĶáĢ¾ áĢħáĢº
ÏģÎ¹ Î½
Ġà°ī à°Ĥà°¡
Ġt ype
à´¿à´¤ àµįà´°
à´µ à´°
Ġíı ī
Ġà°ħ à°§
Ġàª¥ àªĩ
ĠØ¹ÙĨ ÙĪØ§ÙĨ
Î¯ Î¿
Ġà®µà®¾à® ´
è¾ ĵ
ĠÐ³ Ð»
ç½ĳ ä¸Ĭ
à°ªà±įà°ª à±ģà°¡à±ģ
Ġë§ İ
ÙĦ Ø§Øª
Ġì Ī
ãģ¾ ãģ§
Ġh g
åĢ ĭ
à°¿à°¤ à±ĩ
Ġacc ess
9 6
ĠÑģÐ¾ Ð»Ð¸
áĥ§ áĥĿáĥ¤
áĢ½ áĢĢáĢº
ak ing
Ġæ Ħ
Ġch ild
à¦° à§ĩà¦°
Ġsu pp
Ġg u
ĠàªĹ à«įàª°
ÏĨ Î±
íķĺ ìĹ¬
áĢĻáĢ» áĢŃáĢ¯áĢ¸áĢ
Ġà®Ĩ à®ķ
ĠáĥĻ áĥķ
ĠÙħ Ø¤
áĥĴ áĥĲáĥľ
± ħ
àª¡ à«Ģ
Ġàªħ àªŃ
ĠÙħØ· Ø§Ø¨ÙĤ
ç»ı æµİ
Ġv is
Ġd ay
Ïİ ÏģÎ±
Ġsp an
Ġå ¨
ÏĦÎ¿ Ïį
à¦¤ à§įà¦¯
Ġáĥ¡ áĥŀ
ĠÐµ Ð³Ð¾
Ð» ÐµÐ½Ð¸Ðµ
Ð± Ð°ÑĢ
ĠÑģ Ð°Ð±
ĠÙĬ ØŃ
ĠØ®ÙĦ Ø§Ùģ
Ġà´ªà´± à´¯
ÐµÐ½Ð¸ Ð¸
ĠS e
à¸ķ à¹Į
áĢĽ áĢĦáĢº
ch n
ĠáĢľ áĢŃáĢ¯
Ġà¦¸ à¦¹
ĠÑĩ ÐµÑĤ
à¥ĩà¤ ļ
Ð¸ Ð³Ð°
à¸ ¤
à¦¾à¦° à§ĩà¦°
áĥĺáĥľ áĥĺ
à±įà° ·
Ñĸ ÑĨ
ä¸ ¾
æŃ£ è§Ħ
áĥĶáĥĳ áĥĶáĥļ
Ġà®ķ à®Łà¯įà®Ł
Ġàª Ĭ
Ð°Ñģ Ñģ
×ŀ ×ķ×ª
àª¯ à«ĭàªĹ
Ġà¤¬ à¤¹
Ġon line
è ŀį
Ñĸ Ð³
Ġà®¨ à®¾à®©à¯į
Ġà¹Ģà¸Ķ à¸´à¸¡à¸ŀà¸±à¸Ļà¸
ĠÎľ Î±
à´¾à´± àµįà´±
Ùĥ Øª
èĭ ¹æŀľ
ĠØ¯ ÛĮØ¯
Ġà¤¨ à¤¿
Ġæ ĥ
Ġé Ķ
äº Ĵ
Ð¾Ð´ Ð°ÑĢ
áĢĤ áĢ«
áĢħáĢ¹áĢ ħ
Ïĩ Î±
à§ģà¦ ĩ
O T
ĠàªıàªŁàª² à«ĩ
×Ĳ ×Ļ
ĠÙĦ ÙĬ
é Ń
à°¿à° Ĺà°¾
ĠØ§ÙĦÙħ Øµ
à§Ģ à¦¨
ÑģÐºÐ¸ Ðµ
ĠÐ¿Ð¾ÑĤ ÑĢÐµÐ±
áĢĢáĢ¼ áĢ±áĢ¬áĢĦáĢºáĢ¸
ĠÑģ Ð¾Ð»
Ġà¤® à¥ĩ
ĠØ§ÙĦØ¹ Ø§ÙĦÙħ
ìĿ´ ìĬ¤
Ġl ast
y a
Ġà¦ķ à¦¿à¦Ľ
ĠÏĥ Ïį
åĭ Ļ
àµĤ à´Łàµįà´Ł
à¦°à§įà¦ ¥
Ðº Ð»Ð°Ð´
au se
à§įà¦ Ľ
ĠØ± ÙĤÙħ
Ġ äºĶ
ĠRe ad
ãģĵãģ¨ ãģĮ
Ġ×Ĳ ×ĳ
Ġà°ªà±įà°° à°Ń
Ġ×Ĳ ×Ļ×ļ
à´¿à´ķ à´³àµįâĢį
ä» ½
Ġàªļ à«Ĥ
à¹ī à¸²à¸¢
à¤¾à¤ ģ
Ġw ant
àµģà´ ªàµįà´ª
ĠÐ±Ð¸Ð´ Ðµ
Ġ6 8
à°¯ à°Ĥ
ĠÙĨ ÙħÛĮ
ÚĨ ÛĮ
ĠÙĪ Ùĥ
×Ĳ ×¨
×¤ ×§
Ġàªī àª¤
à¯ģà®³à¯įà®³ à®¤à¯ģ
ĠáĢĢáĢŃáĢ¯ áĢļáĢ¹áĢ
Ġ×ľ ×Ĵ
à¸Ĺ à¸µ
Ġëª¨ íħĶ
Ġàªľ à«įàª¯àª¾àª°à«ĩ
Ġ$(" #
áĢ® áĢľ
ĠÐ· Ð°Ñī
re nt
Ġf amil
Î¹Îº ÏİÎ½
×¨×Ĳ ×©
ĠØ³ Ø§ÛĮØª
Ġle ft
ĠÐ· Ð¼
Ġback ground
Ñĺ Ðµ
ĠÙħØ« ÙĦ
ãģ¨ ãģĹãģ¦
áĢĴ áĢ«
å£ ²
è´ £
Ġà¤ķ à¥ģà¤
Ġà¤¦ à¤¿à¤²
Ġáĥ¡áĥĲáĥ ¨
Ġst ud
à®¿à®² à¯ģà®®à¯į
áĢ¬áĢ¸áĢ ±áĢĲáĢ¼
Ö ´
ri b
ĠÙĤ Ø¨
Ñĭ Ñŀ
Ġà¦Ĩà¦® à¦¿
à¦ª à§ģà¦°
ĠØ¨ ÛĮÙħ
ç¤¾ ä¼ļ
Ð¾Ð² Ñĸ
à¥įà¤ ¡
Ġàªľàª£ àª¾àªµ
Ġ7 8
ĠÐ¿ÑĢÐ¾ÑĤ Ð¸Ð²
äºº æ°ĳ
àµĩà´ ¹
à´¨àµįà´¨ àµģ
à§ĭ à¦ķ
Ð°Ð» Ð½Ð¾
à¸ĺ à¸µ
Ġê³ ¼
ĠÐ¿ÑĢÐ¾Ð¸Ð·Ð² Ð¾Ð´
ì ¢
Ð°ÑĢ Ð¼
æ¼ ı
Ø¯ Ø§Ø¯
Ġáĥ£áĥ¤ áĥłáĥĿ
Ġæ ı
ĠÐ¼Ñĥ Ð·
Ð»Ð°Ð¹ Ð½
Ú© Ø§
ĠáĢĴ áĢ¯
à¹īà¸§ à¸¢
áĢ¡ áĢ±áĢĶ
Ġà¤ħà¤§ à¤¿à¤ķ
Ġth rough
Ġìŀ ħ
ĠØªØŃ Øª
ĠÑĥ ÑģÑĤ
** **
áĢ» áĢĢáĢº
ĠØ§ÙĦØ¬ Ùħ
ĠÑģÐ¿ ÐµÑĨÐ¸
â ĺ
à°¾à° ¶
Ø¬ Ø¨
Ú¯ Ø±ÛĮ
ĠéĢ ļ
à¹Ģà¸Ħà¸£ à¸·à¹Īà¸Ńà¸ĩ
¶ àª¨
Ġs ec
áĤı áģ
ers on
Ġë Ŀ¼
Ġè ħ
Ġê° Ļ
ĠÎŁ Î¹
ĠáĥłáĥĿáĥĴ áĥĿáĥł
he s
å± ĭ
à¯įà® ¨
ç¡ ®
Ġà¦®à¦§à§įà¦¯ à§ĩ
Ġà¤īà¤¨ à¥įà¤¹
c aption
ĠÚ¯ ÙĦ
æĸ¹ æ³ķ
ĠÐ´ ÐµÐ±
Ðº Ð°Ð¹
ÑĢÐ¸ ÑģÑĤ
àµĢ à´°
ĠÐ¿ Ð°Ð»
×ĵ ×Ŀ
ĠÐ° Ð³
Ġd if
Ġà¤ªà¥įà¤° à¤¤
æķĻ èĤ²
Ñĥ ÑĨÑĮ
áĢĺ áĢ²
Ġáĥ¡áĥĲáĥ ĸ
ÒĽ Ð°
å»º è®¾
Ġàªķ à«įàª°
Ġfig caption
o ot
ĠØ¢ Ø®Ø±
ÐµÐ½ Ñĭ
ĠáĥĽáĥ® áĥĿáĥļáĥĿáĥĵ
áĥ£áĥ ¥
à¸´ à¹Īà¸¡
áĢĢ áĢ¯
Î» ÎµÎ¹
Îµ ÏĢ
áĢ¬ áĢ·
Ð¼ ÐµÐ½ÑĤ
Ð Ļ
áĢĸáĢ½ áĢ²áĢ·
Ġìķ Į
à±ĭ à°¤
Ø¦ Ø©
ĸ à±įà°¯
ĠÑĸ Ñħ
à°¿à°¯ à±ģ
ä¾ Ŀ
áĥĲáĥ «áĥļ
Ġáĥĵáĥĺáĥĵ áĥĺ
ĠÐ¼ Ð°Ò³
ÑĬ Ð·
à§Ģ à¦¬
íĸ Ī
çĹ ħ
à¶ ±
Ġä» İ
ç ¹
×ľ ×ĺ
Ġn um
Ġáĥ¡áĥĲáĥ Ķ
ĠØ¹ Ø²
Ġà¦¹ à¦¯à¦¼
ĠØ§ÙĦØ£ Ø³
ĠØ§ÙĦ Ø¨Ø±
in s
ĠØ¹ÙĦ Ø§ÙĤ
à´¾à´ ´
ĠÑĤ Ð°Ð±
à¤ķ à¥ĭ
ÎĻ Î£
Ðµ Ð²Ð°
f ore
æĽ ¸
áĥĶáĥ ŀ
Ġd ec
à¦¿à§Ł à¦¾
ĠÐ±Ð°ÑĢ Ð¾Ð¸
à¦ª à§įà¦°
o ber
èĩ ´
9 4
Ø³ ÙĨ
æ² ¹
ĠæĪĳ ä»¬
Ð¾ÑģÑĤ Ñĸ
áĥĺáĥłáĥ ĵ
Ġâ ŀ
Ġà¦¬ à¦Ľ
ĠÐ¿Ð» Ð°Ð½
ÙĬ Ø·
in o
Ġíĺ¸ íħĶ
áĢĨ áĢ±áĢ¬áĢĦáĢº
Ġà¹Ģà¸ ĩ
· à«įàª
Ġìĸ ĳ
×Ĳ ×Ļ×Ŀ
ĠáĥĶ áĥ¥
Î· ÏĥÎ·
ļ à¸²à¸Ĺ
ĠØ¨ Ø§ÙĨ
Ć ï¼Į
áĢĶáĢ¾ áĢĦáĢ·áĢº
in es
ĠÐĲ Ð¼
ÑĪ Ñĩ
ĠÙħ Ú©
áĢ»áĢĸ áĢĦáĢ¹áĢ·
à¦Ĺ à§įà¦°
Ġàª¤ àª°
ĠÐ± Ð¸Ð·
é«ĺ æ¸ħ
Ġàªķàª¾àª° à«įàª¯
ĠÐ»Ñİ Ð´
à®¤à¯įà®¤ à®¿à®©à¯į
Ïģ Îº
à ²
ÐµÐºÑĤ Ð¾ÑĢ
== ==
à±įà° ¬
Î´ Î¹Î¿
à¹ī à¸¡
Ñĸ Ð¶
Ð¾Ð³ ÑĢÐ°ÑĦ
Î»Î» Î±
Ø§ÙĨ ÙĬØ©
Ð»Ð¸ ÐºÐ°
ÑĥÑĢ Ð³
b l
å¤ĩ çĶ¨
à«ģ àªµ
Ġàª«àª¿àª² à«įàª®
à¹ģ à¸ķ
Ġin c
àªĤàª Ł
Ñģ Ð¾Ð½
ĠáĢŀáĢŃ áĢĽ
à¤¸ à¥įà¤¥
k a
à Ń
çĶ ³
Ġ×ĳ ×Ľ
à¸Ĺà¸µà¹Ī à¸ªà¸¸à¸Ķ
Ġp ol
à¹Īà¸Ń à¸¢
Ð¾Ð» ÐºÑĥ
ĠÐ¼Ð½Ð¾Ð³ Ñĥ
ĠÎ´ Îµ
à§įà¦¤ à§ģ
à°Ĥà° §
áĢ¬áĢ¸áĢ Ķ
ÏģÎ¹ Î¿
ĠÐ¿ÑĢ Ð¸ÑģÑĤ
ÑĥÐ½ Ð´
ĠÙĤ Ø§ÙĦ
ĠØ¹Ø¯ Ø¯
à«ĭàª°à«įàª Ł
à§ĩà¦¨ à§įà¦Ł
Î© ÎĿ
Ø± Ø§ØŃ
Ð¸ Ñĳ
ĠØ¬Ùħ Ø¹
áŀ ¶
íķĺ ê²Į
Î¿Î½ ÏĦÎ±Î¹
Ġãĥ ¬
ro p
Ġà¦¹ à¦²
ĠÑĤÐ°ÑĪ ÐºÐ¸Ð»
at t
áģ ¸
å¿ µ
Ġà¸Ĺ à¸Ķà¸¥à¸Ńà¸ĩ
à¸´à¸Ļà¸ Ħ
ÐµÐº ÑĤÐ¸Ð²
i ence
à´¦àµįà´ §
Ðł Ðŀ
ĠØ² ÙħØ§ÙĨ
âĢ¦âĢ¦ âĢ¦âĢ¦
à¤¿à¤ ª
ĠÑĥÑĩ Ð°ÑģÑĤ
à§ĭ à¦®
Îº Î±Î½
ĠØ§Ø³ Ùħ
Ġç Ł
å° ¼
Ġàª¸àª¾àª® à«ĩ
ĠÙĥ Ùĩ
ìħ ĺ
çº ¦
Ïĥ Î±Î½
ĠÑĥ Ð¿
ãĥ¼ãĤ ¸
áĥĶáĥĳ áĥĿáĥĵáĥĲ
à®° à¯Ī
ĠáĢ±áĢ ĸ
Ġáĥ £
à±ģà°¤ à±ģà°¨à±įà°¨
Ø¹ Ø§Ø±
åİ ĭ
àª¾àª Ń
çĽ ĳ
Ġáĥ Ń
ĠÙģ ÙĨ
à¸¸ à¹Īà¸Ļ
Ġà°Ń à°¾à°°
ÙĪ Ù¹
ĠÐ½ Ð¸Ð·
çĶŁ æ´»
à±ĩà° ¤
å¿ Ĺ
áĢ¡ áĢĽ
ĠÐ¿ÑĢÐ¾Ð³ ÑĢÐ°Ð¼
Ñĭ ÑĪ
ĠÑĥ Ð½Ð¸
à´¾à´Ł àµįà´Ł
åº ·
à¸ª à¸¹
áĥĲáĥķáĥ¨ áĥĺáĥł
Ġå »
im es
ĠØ§ÙĦÙħ Ø´
åĨ ł
Ġàª°à«Ĥ àªª
×ŀ ×ķ×ĵ
Ġå¹ ¸è¿Ĳ
ĠÙĪ ÙħÙĨ
éĻ ¤
Ġâĺ ħ
Ġéĩį åºĨ
v en
íķ ¨
çłĶ ç©¶
à¸ª à¸£
à¸§ à¸ĩ
ĠâĢ İ
ĠÐ´Ð° ÑģÑĤ
áĥĶáĥĳ áĥĶáĥľ
ĠØ¨ÛĮ Ø§ÙĨ
Ġà¦¹à§Ł à§ĩ
Ġà¦¦ à¦¿à¦¨
æĶ¿ åºľ
Ġçİ °
ĠàªĽ à«ĭ
à±ģà°ķ à±ģà°Ĥà°Ł
Ġì ¦
w ard
ą Ĉ
ãģĭ ãģ£ãģŁ
Ð¾Ð² ÐµÐº
æ¢ ¦
Ø¯ ÛĮØ¯
à®Ł à¯ģ
Ðº Ð¾Ð¹
ê¹Į ì§Ģ
à¯Ĩ à®¯
ĠáĥĻáĥĿáĥĽ áĥŀ
Ð³Ð¾Ð² Ð¾ÑĢ
è Ľ
A A
ĠáĢ¡ áĢ±áĢĻ
ĠÐº Ð°Ð¿
à¸Ń à¸µà¸ģ
è² ·
à¸ª à¸³à¸«à¸£à¸±à¸ļ
à¦¸ à§įà¦¯
ĠÙ¾ ÛĮØ¯
Ø« ÙĬØ±
ëħ Ģ
Ġê° Ĳ
Ø± Ø§ÙĤ
ĠàªŃ àª¾àªĹ
Ġê² °
ĠáĢŀ áĢĲáĢĦáĢ¹áĢ¸
áĥł áĥĲ
è¾ ¹
áĥĶáĥ £áĥļ
ĠÐ¾ ÐºÐ¾Ð»
è¨ ĺ
Î¸ ÎŃ
Ġæīĭ æľº
Ð°Ð¼ Ð¾
Ð°Ð» Ð½Ð¸
ĠÐº Ð°Ñģ
çĽ ĺ
ãĥ Ħ
Ð°Ð» ÐµÐ½
ÎĳÎ ¤
à¸µà¸¢ à¸§
Ġà¤° à¤¹à¥ĩ
Ġà´ķ à´¾à´£
åį Ĭ
Òĵ ÑĢÐ¸
Ġà®® à®ķà¯įà®ķ
ãģĹ ãģ¾
ĠÙħØ¬Ùħ ÙĪØ¹
Ġc re
Ġìĺ ¨
Ø§Ø¨ Ø±
Ġà®ħ à®´
ĠÏĢ Î±Î¹
Ġn ame
ĠØ¹ Ø±Ø¨
ĠÐ´ Ð¾Ð³
ĠÑģÑĤ Ð°Ð²
íĭ °
è¯ »
áĢĦáĢºáĢ¸áĢ Ļ
Ġà´¤ àµįà´¤
Ġà¸¥ à¸ĩ
ĠÚ¯ Ø±ÙĪ
Ġáĥ¬ áĥ§
èī º
áĢ¸áĢ Ķ
ĠâĢ ¹
ĠÎ¸ Îµ
Ġ, ,
Ġd oc
Ġà¦¬à¦¿à¦ ·
è¡ Ģ
à«ĩàª¨ à«įàªŁ
Ùĥ Ø³
Ġà®ª à¯ĩ
àµĢ à´ķà´°
ĠÐ¿ Ñģ
æĻ ®
å®ī è£ħ
Ġãĥ ĸ
Ñĥ ÑĦ
om m
Ġìŀ ĳ
ï¼ ģ
Ïĥ Î¿ÏħÎ½
Ġà¤¥ à¥Ģ
an n
è¡¨ ç¤º
Ñı ÑĤÐ¾
Ġ6 4
Ġå Ł
Ġcom ment
ĠÚ©ÙĨ ÙĨØ¯
à¦¾à¦® à§Ģ
Ġ6 7
ĠÐ± ÑĥÐ»
å¿« ä¹Ĳ
ĠÐ² Ð°ÑĢ
Ġn ow
èŃ ¦
20 18
ĠÑĤ Ð¾Ð¹
åı Ī
ĠÑĤ Ð°Ð½
Ġà®¤ à®¾à®©à¯į
ĠØ¯ Ûģ
Ġæ į
u c
Ġë§ ¤
ĠÐº ÐµÑĢ
åĨ µ
áĢĻ áĢĬáĢº
å± ŀ
Ġè¦ ģ
à±įà°¯ à°Ĥ
ĠÎĳ Ïħ
Ġim g
åĩ »
à®¿à®¯ à¯Ī
Ġ×Ĺ ×©
Ġcon s
ÑģÑĤ ÐµÑĢ
Ġ×Ļ ×Ľ×ķ×ľ
Ġà°®à°° à°¿à°¯à±ģ
Ð¾Ð² Ñĭ
à¯ģà®ķ à®¿à®±
à®¿à® ³
Øª ÙĪØ§ÙĨ
ĠÎł ÏģÎ¿
åĪĨ æŀĲ
ĠÎ Į
áĢ½ áĢ±áĢ¸áĢ
Ġà°ķ à°¾à°¨
ãģ ³
Ġáĥł áĥĶ
ìĺĪ ìķ½
áĢĦáĢ¹áĢ ¡
ĠØªÙĪÙĦ ÛĮØ¯
Ð¾Ðº Ð°
åĢ Ļ
áĢĶ áĢ·áĢº
ĠØŃ ÙĬØ«
ĠÐ±ÑŀÐ» Ð³Ð°Ð½
ĠÐŁÑĢ ÐµÐ·
Ġà´ªàµĭ à´²
Ġh and
ĠáĥĽ áĥĿáĥķ
ë³ ¸
áĢ® áĢĻ
à±ģà°ķà±ĭ à°µ
Ġáĥ¨áĥĶ áĥĺáĥ«áĥļ
×ķ×ľ ×Ķ
à´¿à´ Ĥ
ĠÙĬ ÙĪÙħ
à¸£ à¸ĸ
Ùģ ØªÙĩ
Ġàª« àª°
Ġà¤¸ à¤¬
áĢĦ áĢļáĢ¹áĢ
ĠÂ ©
ĠØ¨ Ø³
à§ĭ à¦Ł
Ġå¾ ·
æ¸ ©
ãģĹãĤĩ ãģĨ
Î½Î¿ Î½
ĠéĤ £
áĥ ©
à¸²à¸ ¨
Ġà´ª àµĬ
Ġë ¹
áĢ¸áĢ±áĢ Ķ
à°¾à°Ĥà° ¤
à¹Ħ à¸§
ëĤ ľ
ãģŁ ãĤģ
Ðº Ð¾Ð¼
ĠãĤ ª
ĠØ§Ùħ Ø§Ùħ
ĠØ® Ø§Ø±Ø¬
áĢľáĢŃáĢ¯ áĢĢáĢ¹áĢ
Ġà¹Ģà¸§ à¹ĩà¸ļ
áĢĲ áĢļáĢ¹áĢ
I t
ĠáĢĢáĢº áĢ±áĢĶ
àµģà´® à´¾à´¯à´¿
ĠÚĨ ÛĮ
à¤¾à¤ł à¥Ģ
vel op
Ġà¦ķà¦¿à¦¨ à§įà¦¤à§ģ
u ary
Ġ×¨ ×§
ãģ »
Ø§Ø¨ Øª
ÏĦÎ· ÏĤ
ĠáĥĲáĥķ áĥ¢
ĠØ£ Ø³
ĠÙĬ ÙĤ
äº Ī
ĠØ§Ùħ Ø±ÛĮ
íķĺ ê¸°
Ġáĥ£áĥ Ľ
ĠØ§Ø «
áĤıáĢ½ áĢħáĢ¹
áĢĿ áĢº
à±ģà°ķ à±ģà°¨à±įà°¨
Ġà¦Ĩà¦® à¦¾à¦°
Ð°Ð¹ ÑĤÐµ
ĠØ§Ø® Ø¨Ø§Ø±
Ġà¹ĥ à¸«
ĠÐ±Ñŀ Ð¹
ĠÑħ Ð¾ÑĢ
å ª
Ġà¤ ł
ĠÙħ Ûģ
ĠÙĬ ÙĨ
ģáģ ļ
ĠÐĶ Ð»Ñı
ĠÒ³ Ð¾Ð»
ĠéĿ Ĵ
Ľ à¸£à¸°
el s
Ð¸ Ð²Ð°
à®² à®¾à®®à¯į
Ùģ Ø§Ø¹
Ġ8 3
Ġà®ķà¯Ĥ à®±
Ð¶ Ð°
ĠÐ² Ð°Ðº
à¸£ à¸²à¸¢
×Ļ×§ ×Ķ
à¯ĭ à®®à¯į
à¦°à§įà¦ ®
ĠÐ¼Ð¾Ð¶ Ð½Ð¾
Ġæ ´
à´¿à´¯ àµģà´Ĥ
Ġà¤Ńà¤¾à¤° à¤¤
Ð°ÑĶ ÑĤÑĮÑģÑı
Ġàªħ àªª
ĠìĤ¬ëŀ Į
éĩ İ
Ġà¦¶ à¦¿à¦ķà§įà¦·
à¯ģà®ķ à®¿à®±à®¤à¯ģ
áĢĦáĢ¹áĢ ±áĢ
Îµ Ïį
Ġcl ass
ĠØµ Ø§ØŃ
Ġc ent
åħ ħ
Ð½ ÐµÐ¹
à´µ à´¿à´
ĠÐº Ð¾Ð³
Ġà¤µ à¤¹
ĠÐ´ Ñĸ
×¤ ×Ļ
Ð³ Ð¾Ð»
Ïĩ ÎµÎ¹
ĠÒ³ Ð¸Ñģ
ĠÑĥ Ð¿ÑĢÐ°Ð²
Ùı Ùħ
Ġ×ĳ ×Ļ×Ł
ë° ĺ
Ġà°¨ à±ĩ
ĠÙ¾ ÙĪ
Ġà¦¨à¦¿à¦ ľ
Ġ200 5
à¸± à¸ŀ
ĠØ´ ÙħØ§Ø±
Ġs k
Ø± ÛĴ
à¸§ à¸±à¸Ļ
Ø§Ùģ Ø¸
ĠÐ¼ Ð¾ÑĢ
Ð± Ð°ÑĤ
Ġé Ł
æŃ ¢
íĮ Į
Ø± Ø§Ùĩ
an i
Ġd etail
ĠÒ ¶
ÑģÐºÐ¸ Ñħ
iver s
Ġáĥ¡áĥĲáĥ ĺ
àªĤàªĹ à«įàª°
èª ī
æĺ ¥
×ª ×¨
ĠÐł Ðħ
ĠáĢ» áĢĸ
ÐµÐ½ Ðµ
ĠÐ¾ ÑģÑĤ
ĠV i
àµįà´ §
Ð¸Ð» Ð°Ð´Ð¸
áĢŃ áĢĢ
ÙĦ Ø·
áĥĺáĥĵ áĥĲ
áĤ ĥ
ãĤĮ ãģ°
Ø¬ Ø©
Ġ×Ļ×© ×¨×Ĳ×ľ
à´¾à´ ¨àµįà´
Ð¿ Ð°Ð´
ĠØ§ÙĦØ¹ ÙħÙĦ
ĠÐķ Ð²ÑĢÐ¾Ð¿
ĠÐ°Ñģ Ð¾Ñģ
áĥĶáĥĳ áĥĹ
ÏĦÎ¹Îº Î®ÏĤ
List ing
ëĵ ł
ĠÚ¯Ø²Ø§Ø± Ø´
Ġáģ Ĩ
Ġà¦ķà¦° à§įà¦®
Ġàª¬ à«įàª°
Ġà¤ĩ à¤¨
ĠØ· Ø¨
ĠÎ± Ïĥ
Ġëĭ ¹
à¦¾à¦¨ à§ĩà¦°
æī ¹
Ġà´Ĩ à´°
Ġè ½
ĠÐłÐµÑģÐ¿ ÑĥÐ±Ð»Ð¸Ðº
Ġà® Ĭ
Ġé £
Ġ×§ ×¨
à®¾à® ľ
Ġà® ¹
ìĦ Ŀ
à¤¾à¤ĵ à¤Ĥ
åĵ į
Ġëĭ ¨
Ġà¦ķ à§įà¦·
Ġre sp
Ġà¤¸ à¥ĭ
Ø¯ Ø§ÙĨ
Ġg reat
à´¨àµįà´¤ àµįà´¯
à«ĩàª Ĥ
Ġì¢ ĭ
Ġà°Ĺ à±įà°°
áĥĹ áĥ®áĥķ
áĥĿáĥľ áĥĺáĥ¡
àªľ à«Ģ
à¸Ĺà¸° à¹Ģà¸ļà¸µà¸¢
ĸáĢ¼ áĢħáĢº
×ł ×ĺ
à¹Ģà¸¥ à¹Īà¸Ļ
éļ ¾
um ent
æŀ ģ
ĠíĬ ¹
à¤¾à¤Ĥ à¤¨à¥Ģ
Ġ×ľ ×ķ
à¸ģà¸£ à¸£à¸¡
à¯ģà® ©
ÙĨ ÛĮÙĨ
Ī ¬
áĥĲáĥĵ áĥĺ
Ġáĥ§ áĥĿáĥķ
Ø±ÛĮ ÙĤ
Ġ×ŀ×Ĺ ×Ļ×¨
åį ı
àµĭ à´¦
ÙĦ ÙĪÙħ
ĠÑģ Ð¾Ð·
ĠÐ¼Ñĥ Ò³
Ġthe se
ÑĢ Ð¸ÑĤ
è² ¸
Ġìŀ ¬
ĠáĥĲáĥ® áĥĲáĥļáĥĺ
à¦Ĺ à§ģà¦²
Ġag æĹĹèĪ°åİħ
Ġé ĵ
ĠáĥĻ áĥĲáĥłáĥĴ
åĢ Ł
ìłģ ìľ¼ë¡ľ
é ²
à¨¿ à¨
à¦¿à¦ ī
éĻ ©
Ñĸ Ñĸ
ĠØŃ ØªÙī
áĢ¬áĢĽ áĢ®
à¦¡ à¦¼
à®¤ à®¾à®ķ
Ð°Ñ ĵ
Ġ1 20
áĥĵ áĥĶáĥ¡
ĠÐº Ð°Ð»Ñĸ
ĠÎ±Î½ Î¬
éĻ į
ĠÙĦ ÛĮÙĨ
Ġ' )
ĠØ³ ÙĦØ§Ùħ
Ġnews Listing
ĠÐ» ÐµÑĤ
ĠÙĨ Ø¨
ĠÐ±ÐµÐ»Ð°ÑĢ ÑĥÑģÐº
ĠÐ¿ Ð°Ð·
Ġë¶ Ī
ĠÙħØµ Ø±
ãĥ§ ãĥ³
ÑĢ Ð°Ð½Ð¸
Ġà¦ ¢
ĠÐ¼ ÐµÐ´Ð¸
ĠÐºÐ¾Ð¹ ÑĤÐ¾
Ġà®İà®¤ à®¿à®°
áĥĿáĥ ¥
à±įà° £
ĠÑĦ ÑĥÐ½Ðº
é Į
Ġàªľ àª°à«Ĥ
Ø´ Ø§ÙĨ
Î»Î¿ Î½
ĠÑĳ Ð½
Ġç ¦
ĠØ´ Ø±ÙĪØ¹
Ġà¦®à¦¾à¦¨ à§ģà¦·
Ġàªµ àª¾àª°
à®¾à®® à®²à¯į
à°Ĥà°¤ à±įà°°
ãģ® ãģ¯
à¸Ħ à¹Į
Ġê²Į ìŀĦ
çĽ Ĭ
Ġà¦¸à¦° à¦ķà¦¾à¦°
áĥĿáĥĳ áĥļ
ĠÑĤ ÑĥÑĤ
form ation
ĠáĢķáĢ¼ áĢ±áĢ¬
å¼ ł
à¸ģ à¸³
Ġåı ĳ
ìĪ ł
à§ĩà¦ ¡
a a
ĠMar ch
ĠC o
áĥĺáĥ¢ áĥĶáĥ¢
áĥĲáĥĽáĥĵ áĥĶ
ÙĪ Ø§Ø¹
ĠØ² ÙħÛĮÙĨ
ĠÐ´ Ð²Ð°
Ð°Ñģ Ð¸Ð´Ð°
Ġà¤¦ à¤¿à¤¯à¤¾
ĠÑĢ ÐµÐ´
Ġà´¤ àµĨ
áĢģ áĢĦáĢº
àª¥ àª¾
Ġà®ª à®£
ĠE ng
çķ ¥
áĥĶáĥ ¨
Ġàª¤àª® àª¾àª°àª¾
ĠáĢ¡ áĢ¬
ĠåĴ Į
ĠØŃ ÙĦ
Ġin v
Î¼Îµ Î½Î¿
áĥĲáĥłáĥ Ļ
àª¤ àª¿àª
ĠÐ°Ð¼ Ð°Ð»
ĠØ§ÙĦ Ø§Ø³
Ð»Ð¸ Ð³
à´¾à´ ¶
Ġàª¤à«įàª¯ àª¾àªĤ
à´¸ àµįà´¸
Î³ Î®
Ġíķ ł
Ġæī Ģ
ë ĳĲ
Ġæµ ·
ï¼ ļ
ĠÒ ĵ
áĥĶáĥľ áĥĺ
à¹Ģ à¸Ļ
à´±àµįà´± àµį
ĠÎ´ Î¹Î¬
ãĥ Ľ
Ð²Ð° Ðµ
ãģŁ ãģĦ
ĠØ¨Ø® Ø´
ãĤ¹ ãĤ¿
ĠáĥĶ áĥļ
áĢĲ áĢŃáĢ¯áĢĦáĢ¹áĢ¸
Ġàªĺ àªŁ
ĠÐ¹ Ð¾Ð³Ð¾
à§ģà¦ ĸ
ìĥ ī
å® Ł
ĠÐ¿ÑĢÐ¾ ÐµÐºÑĤ
Ġàª¨ àª¿
ÑĢÑĥ Ð³
èĮ ĥ
ĠÐº Ð¾Ð³Ð°
Ġàªª àª¾àª
àª¿àª¤ à«įàª°
Ø Ł
Ġà¦ĺ à¦Ł
à°³ à±įà°³
ÐµÐº Ð¸
Ø§Ùħ Ø¬
Ð»Ð¸ Ð¹
ĠÐŁ ÐµÑĤ
ĠÐĳ Ð°ÑĢ
Ġpro duct
æĭĽ èģĺ
è¯ Ń
å¹ ķ
åį °
»áĢķ áĢ¬áĢĦáĢ¹áĢ¸
ÑĥÐ¼ ÐµÐ½ÑĤ
Ġàª¶ à«įàª°
à¥ģ à¤¸
ad d
7 6
Ġàª¸ àª¾àªĤ
ĠÙ¾Ûģ ÙĦÛĴ
ÙĨ Ùħ
ÎĳÎ Ŀ
ĠëĶ °
ï ¾
at ive
æŃ »
iv es
à¯ĭ à®¤
Ð°Ðº Ð°ÑĤ
áĢ¥ áĢ¹
à°¾à°° à°¿
A D
Ġáĥ¨áĥĶáĥĺáĥ«áĥļ áĥĶáĥĳáĥĲ
Ġ áĤı
áĥĿáĥĳ áĥĺáĥĹ
Ø¶ ÙĪ
ail y
Îº Î¹
åº §
ÐµÐ» Ñı
Ġâ Ī
Ġà´ªà´° à´¿à´
ĠáĢľ áĢ½
Ġàªª àª¾àª°
Ġà¦¸ à¦Ļà§įà¦Ĺà§ĩ
Ġàªľà«Ģàªµ àª¨
à¸Ī à¸ģ
áĥĶáĥłáĥ ĵ
Ø¬ ÛĮ
Ø± Ûģ
ĠÐ¼ Ð¸Ñģ
Î»Î» Î·Î½
áĥĹáĥ®áĥķ áĥĶáĥķ
Ġà®ī à®°
ĠØ¯ Ø§Ø´Øª
ĠÐ¿ÑĢÐ¾ÑĦ ÐµÑģ
à¦° à¦£
Ø¸ Ø±
ĠÐº ÑĢÐ°
éĶ Ģ
ĠÙħØ± Ú©
ĠÐ´ ÑĥÐ¼
à«ģ àªª
à¸Ĺ à¸¸à¸ģ
à°¸ à°Ĥ
ìĹĲ ëĬĶ
à¸¸ à¸ĩ
à¹Īà¸Ń à¸Ļ
ĠÎ® ÏĦÎ±Î½
à§įà¦ ŀ
à°® à±ĩ
Ġ áĤĲ
Ġ100 0
à¸· à¸Ńà¸ĩ
Ð½Ð°Ñģ ÑĨÑĸ
ç ¸
Ú¯ Ø²
ĠÑĢ Ð°Ð¼
àµģà´ ¦
9 1
ĠÐºÐ°ÑĢ Ð´Ð°
à°°à±įà° ¶
Ø³ Ø©
Ġà®® à®°
ĠíĻ ķ
ĠØ®Øµ ÙĪØµ
çĦ¡ æĸĻ
ĠØµÙģ ØŃ
ëĭ ĺ
Ø¬ ÙĨ
à°¿à°Ĥà°Ĺ à±į
Ġë ¸
Ġàª°àª¹ à«įàª¯àª¾
ĠÙĪØ§ÙĦ Øª
Ġim p
at s
áĢĢáģ ł
ĠÐ¾ Ð¼
Ġ×¤ ×¢
íĤ ¤
Ġíķľ êµŃ
Ġà¤¦ à¥ĩà¤ĸ
æĺ ¾
ì² ĺ
×ŀ ×Ļ×ĵ
×ŀ× ¢
Ġáĥĵáĥ¦ áĥĶáĥ¡
ĠØ¬ ÙĨÚ¯
ĠØ§ÙĤ ØªØµ
áĢĻ áģ¼
à°°à°¿à° Ĺ
Ð² Ðµ
ĠÑģÑĤ Ð°ÑĤ
êµ °
ĠØªÙĩ Ø±Ø§ÙĨ
i ous
ĠÐ ģ
Ġs ocial
Ġà´ī à´ª
ĠÙĪ ÙĦØ§
Ġí ļĮ
Ġè¿ ĺ
Ġà¦ª à§ľ
ĠÐ¢ ÑĢ
lo g
Ġà®ķ à®¾à®°
ç¨ ³
ì¡ ±
è§Ħ å¾ĭ
áĥ¬ áĥ§
Ġà¦¬à¦² à§ĩ
Ġà¹Ģà¸Ħà¸£ à¸Ķà¸´à¸ķ
ĠÐ¿ÑĢ Ð¸Ñĩ
è¨ Ń
ĠÑĢ Ð°Ð´
ĠåĲ į
Ïĩ Î®
×ŀ× ĵ
ĠáĥĹ áĥĲáĥĽ
à¤§ à¥įà¤¯
ĠÙĩ ÛĮ
Ġas s
ĠÙĨØ¸ Ø§Ùħ
èİ ·
áĥķ áĥĶáĥķ
àªķ à«įàª°
Ġo b
à¹Ħ à¸¡
ÏģÎ¹Ïĥ Ïĥ
ĠÐ¸ Ñħ
ãĤ ¬
ĠáĥĴ áĥĲáĥ¡
Ïĩ Î½
Ïģ Î¸
à°ķà±įà°ķ à°¡
Ġ] [
áĤĢáĢĢ áĢŃáĢ³
áĢĲ áĢĦáĢº
Ġ×Ĳ ×¨
Ġè ģ
ĠÑĩ Ð»ÐµÐ½
Ðº Ð¾Ð²Ð°
Ġà¦ķà¦¿à¦Ľ à§ģ
áģ¾áĢĢ áĢ®áĢ¸áĢ
ĠH D
áĢ±áĢĨ áĢ¬áĢĦáĢ¹áĢ
Ġà°ª à°°
æĹ ı
ķ áĢ²
ãģ Ĵ
ĠÐºÐ¾ ÐµÑĤÐ¾
à¸²à¸Ħ à¸²à¸£
ãģª ãĤĵ
à¸ ®
åº ķ
ĠØ´ Ø§ÙħÙĦ
à¦¿à¦ ¡
ĠØ§ØŃ ÙħØ¯
à¸ ī
ĠÙĦ Ø£
ar n
Ġà®¤à¯Ĭà®Ł à®°
áĢŀ áĢŃáĢ¯áĢ·
Ġà¤ľ à¤¿à¤¸
ÑĥÐ² Ð°ÑļÐµÑĤÐ¾
Îķ Î£
å© ļ
áĥłáĥ£áĥ ľ
Ø§Ø¦ ÙĬ
I L
Ġà¤µà¤¿à¤ ¶
ĠØ§ ÛĴ
Ġman y
Ġà¦Ĩ à¦ĩ
Ġex per
ĠØ¯Ø§Ø® ÙĦ
×¤ ×ĺ
áĢĦáĢ¹áĢ¸ áĢŀ
à¹Ģà¸ģ à¸´à¸Ķ
ĠÙĦ ØŃ
Î¼Î± Î½
es h
ĠÐ¸ Ð´
å± ħ
à¦ ·à§įà¦Ł
å® ģ
à´²àµįâĢį à´ķ
áĢ¬áĢŀ áĢ¬
à±ģà° ¸
ÑĨÑĸ Ð¹
ĠÐ¿ Ð°ÑĢÑĤ
à´£ à´®
æł ¹
ĠÐ¸Ð· Ð±
åĶ ®
ãģĪ ãĤĭ
Ġ25 0
Ġáģ¿ áĢķ
Ġ" );
Ġà¹Ģà¸Ķà¸´à¸¡à¸ŀà¸±à¸Ļà¸ Łà¸£à¸µ
Ġà®ª à®¾à®¤
ľ áĢĬáĢ¹áĢ¸
Ġse e
ĠJul y
åĪĨ pk10
Ġåĩ º
5 2
ĠÐ¼ Ð°ÒĽ
Ġáĥĺ áĥĴ
ĠàªŃ àª¾àªµ
Ð½Ð¸ Ð¼Ð¸
ĠØ§ÙĦÙħ Ø¯
ark et
Ġh ome
Ð°ÑĳÑĤ Ð³Ð°Ð½
Ð» Ð°Ð½Ð¸
ĠÎº ÏĮ
çİ° éĩĳ
00 00
éĸ ¢
åĢ į
ĠÐĹ Ð°Ðº
ĠÐº Ð½Ð¸
Ġ×ŀ ×¨
Î¾ Îµ
ÑĤÐ¸ Ð±
Ġà´¸ àµĨ
Ġàªħ àª§
ĠÑĢÐ°Ð±Ð¾ÑĤ Ð°
æŃ Į
áĢĲáĢ¹áĢ Ĳ
ê ¶Į
Ġàªªà«ĭàª¤ àª¾àª¨àª¾
ÙĪÙħ Ø§ÙĨ
ĠÑĤÑĢ ÑıÐ±
ĠØ® ÙĪØ¨
ì¦ Ŀ
áĢ±áĢĶ áĤĶ
ĠâĢĿ ï¼Į
Ġjp g
Ð¸Ð»Ð¸ Ðº
ÐµÑĢ Ð¶
ç³» ç»Ł
Ð¡ Ð
ĠÙģ ÙĤØ·
Ġçī ¹
ĠáĥĲáĥ¥ áĥķáĥ¡
ĠØ® ÙĪØ´
Ø±ÙĪ Ùģ
ĠáĢľ áĢĢáĢº
ä½ĵèĤ² æĬķæ³¨
ĠØŃ Ø§ØµÙĦ
Ðº ÑĥÑĢ
Ġà´® àµĤ
ĠÐ¿ Ð°Ñĩ
Ġà®µ à®¿à®°
ÏģÎ¹ÏĥÏĥ ÏĮÏĦÎµ
Ġ$(' .
Ð± Ð¾Ð»
Ġag å¹³åı°
ć ć
à¤Ĺ à¥ĩ
ut e
áĥĲáĥ¬ áĥĺáĥļ
ĠáĥĴ áĥĲáĥ®
Ġàªĸ àª°
ĠÐ¼ Ð¸Ð½Ð¸
àª®àª¾àªĤ àª¥à«Ģ
àªĤàª¤ à«įàª°
ÑĢÐ°ÑĹ Ð½
Ġà¤° à¤¹à¤¾
er r
ĠØ¬Ø§ÙĨ Ø¨
ÑĬ Ñĩ
Ġà¦¬ à§ĩà¦¶
Ġàª¸ à«įàªª
Ð³ Ð¾Ð´
å¤© åłĤ
áĥĹ áĥĲáĥķ
Ġà¦ħà¦¨ à§ĩà¦ķ
Ġsp ec
à«ģàª Ń
ãģķ ãģĦ
Ø§ÙĪ ÙĨ
à¸« à¸£à¸·à¸Ń
à´¿à´ķàµįà´ķ àµģà´Ĥ
à¦¤ à§ĭ
ÑĮ Ñİ
ÏĥÎµ ÏīÎ½
Ġáĥ¨áĥĶáĥĽ áĥĹáĥ®áĥķáĥĶáĥķ
Ġ×Ļ ×Ķ
ĠÐµ ÑĤ
ĠI s
Ú¯ ÙĪ
ĠÑĢÐ°Ð· Ð»Ð¸Ñĩ
Ð°Ð² Ñĸ
Ġç ģ
ëĶ Ķ
çĻ¾ å®¶
åŃ £
ĠáĥĲáĥ¡ áĥĶáĥķáĥĶ
ĠØ¨ ÛĴ
ãĥĩ ãĤ£
à«ĭ àª®
ãģ« ãĤĪ
Ø³ Ø§ÙĦ
ĠÐ¼ Ð°Ð²
à¸Ļà¸¶ à¹Īà¸ĩ
Ġå¹ ¿
Ġà´¤à´¨àµįà´¨ àµĨ
å¾ ħ
ÙĦÛĮ Ùħ
Ġ":" ","
à´¾à´¤ àµĨ
ĠØ§ÙĦÙħ Ø¬
4 2
æ¯ ı
áĢĢáĢ¹áĢ ±áĢĶ
Ġå¤§åıĳ å½©ç¥ŀ
Ð´Ð°Ñģ Ð´Ð°Ñģ
ÙĪ Ùī
à´¿à´¯ à´¿à´²àµįâĢį
Ġà°ī à°Ĥà°Ł
Ġ ÏīÏĤ
áĥĽ áĥĶáĥĵ
ĠÙĨ Ú©
áĢķáĢ¹áĢ Ļ
ĠáĢĺ áĢļáĢ¹áĢ
ĠØª Ø®
à¤¿à¤ ľ
ĠÐ¡ Ð¾
á ī
à¸Ĺ à¸ĺ
Ð°Ð³ Ð¾
ĠáĥĴáĥĲáĥľ áĥ¡
Ġre qu
ĠÐ± Ð»
Ġàªķàª¾àª° àª£à«ĩ
ç¬¬ ä¸Ģ
ĠÎº Î¹
áĥł áĥĿáĥĽ
Ġà° ·
ĠÐ´ Ð°Ð»
ÏģÎ¿ Î½
Ġë° ĺ
ĠØ´ Ú©
Ġtr ue
ĠInd ia
ìķ ĺ
áĥĲáĥľ áĥ¢
ì§ ģ
áĥª áĥĺ
Ġå ķ
Ġà¹ Ĩ
åģ ¥
ĠÚ© Ø§ÙĦ
áĢ±áĢĽ áĢ¸áĢ
à´¤ à´¿à´°
àª³ à«Ģ
áĢĺ áĢ¬
ĻĢâ ĻĢâ
à§Ł à§ĩ
éĩį è¦ģ
à«įàª¯ à«ģ
ĠØ¨ Ø·
ì° ½
à±įà°Ł à±įà°°
Ġà¸ª à¸¥à¹ĩà¸Ńà¸ķ
ÑĢ Ð¾Ð¼
E C
Ġà« ©
å¯ Į
it ter
åľ ĭ
al a
ĠÛģÙĪ ØªØ§
ĠÎ Ĩ
à¥ĭ à¤°
ĠÎ¤ Î±
Ð¡ Ðĥ
b a
ĠÙ¹ ÛĮ
ÐµÐ¼ Ð²ÑĢÐ¸
å®ĺç½ĳ ä¸ĭè½½
Ġ6 6
Ġà´ķ à´£àµįà´Ł
Ġìĥ Ī
éģ ¸
ç¯ ĩ
áĢĬáĢ· áĢ¹áĢ
ĠáĥĽ áĥĺáĥĸ
ĠÙĤ Ø¯Ø±
àµĭ à´ķ
æ§ ĺ
Ñĥ Ð¹
ĠØ¬ ÛĮ
à¤°à¥įà¤ ¤
à¸ª à¸³
ru ary
ÙĦÛĮ ÙĦ
Ø§Ø¦ ÙĬØ©
ĠæĹ ł
íĹ ĺ
ĠÐ·Ð° ÑıÐ²
Ġd r
åķ ı
ìĦľ ë¹ĦìĬ¤
è¯ Ĩ
ĠÐ¶ Ðµ
Ġà´° à´¾à´ľ
ĠÏĩ Î±
æ£ Ģ
à¤¾à¤µ à¤°
Ġtw o
IN G
Ġà®ĩ à®¯
ĠØ£ ØŃ
ĠÐł ÑĥÑģ
w ay
Ħ áĢĶáĢ¹áĢ¸
Ġàª¸àª° àªķàª¾àª°
×ķ ×ķ
Ġëª ©
áĥĲáĥ¡ áĥĺ
as ed
S t
Ø´ ØªÙĩ
áĥłáĥĺáĥķ áĥĺ
Î½Î· ÏĤ
P S
Ġáĥĺáĥľ áĥ¢
Ġàªķàª° à«įàª¯à«ĭ
ĠApr il
áĢŀ áĢĬáĢ·áĢº
áĥĲáĥĵ áĥĿ
ĠÎ½ ÎŃ
Ø· Ùģ
ĠàªĹàª¯ àª¾
ĠÙĨ ÙģØ³
åľ Ł
Ġ×Ĺ ×ĳ×¨
ê »
å®ĺç½ĳ çĻ»å½ķ
áĢĻáĢº áĢ³áĢŃ
Ġåī į
à¹ī à¸²à¸¡
Ð´ Ð°Ð»
à¹Ģà¸ĩà¸´à¸Ļà¸ ļà¸²à¸Ĺ
ĠÎ¼ ÏĮ
ĠUp d
Ġà®ĩà®¨à¯įà®¤ à®¿à®¯
Ø¨ Ø§Øª
à®¾à®² à¯ģà®®à¯į
Ñį Ð¹
ÑĢÐ°Ñ ĺ
Ð°Ñİ Ñī
Ð°ÑĤÑĮ ÑģÑı
ĠáĥĲáĥ® áĥļ
Ġà¹ĥ à¸Ļ
æİĴ åĪĹ
Ġc le
ĠÐ¸ Ðº
è¾ ĥ
ìĹħ ìĨĮ
àª¾àªĤ àª§
à«ĭàª ı
ãģ ¸
à°ª à±Ī
×ł ×Ļ×ª
ëĿ¼ ìĿ¸
à¹ĩ à¸Ķ
ĠÎĶ Î¹Î±
à¸²à¸ª à¸´
ĠØ¬ Ø§Ø±ÛĮ
à¸²à¸Ħ à¸¡
å¤ ®
Ġs al
à±įà°° à°®
Ø§Ø¨ Ø¹
Ġà¤Ĩ à¤ľ
Úĺ Ùĩ
Ġáĥ¡áĥĲáĥ®áĥĶáĥļ áĥĽ
Ġà®ª à®¿à®±
Ġà´ĩ à´¨àµįà´¤àµįà´¯
Ġà¤° à¤¹
Ġ×© ×¢
ÐµÐ½ Ð½Ð¾
Ġ×ľ ×ĵ
à¹Ģà¸ĩà¸´à¸Ļà¸ļà¸²à¸Ĺ à¹Ħà¸Ĺà¸¢
a ut
æķ° æį®
Ø± Ø³ÛĮ
ĠáĥĽáĥĿáĥ ®
ÑģÑĮ ÐºÐ¸Ð¹
Ġàªµàª¿àª ļ
à´¤àµįà´¤ à´¿à´²
à¤Ĺ à¤¾
ÙĪÙĨ Ø§
p le
à¹ĥà¸« à¸į
à´¯ à´¾à´³
ĠæĹ ¶
Ġàªµ àª¿àªķ
ĠÑĤ Ð°Ð»
à¸§à¸´ à¸§
le ction
ĠÙĨ ØŃ
ĠØ¬ Ø²
ĠJan uary
ĠØ¨ Ø²Ø±
Ġà°µà°¿à° ·
Ð°Ð± Ð°ÑĢ
ĠØª Ø±ÛĮÙĨ
Ð°Ò³ Ð¾Ð¸
ĠØ³ Ø±ÛĮ
l ed
Ð¸Ð¼ Ðµ
ĠáĢľ áĢ¯áĢķáĢº
çĤ º
Ð¿Ð¾Ð² ÑĸÐ´
ÑĥÐ² Ð°Ñĩ
ĠÑĤ Ð¾Ð³Ð¾
Ùģ Ø¸
ĠÐ½Ñı Ð¼Ð°
ĠÙħØ´ Ú©ÙĦ
áĥ¬ áĥĺáĥ¤
ÑĢÐ¸ Ð²
Ñı Ñĩ
It em
Ġè ¾
Ġàªª à«įàª²
ÑĢÐ¸ Ð´
à¥ĩà¤ ¡
é į
áĢĽ áĢĶáĢº
Ġà¦® à¦¹
ĠC on
Ġ×ĳ ×Ļ×ª
Ġà´µà´¿à´ µ
Ġà®¨ à¯ĩà®°
Ġàª¨ àªµ
Ġà°® à°¹
ĠØŃØ¶ Ø±Øª
à´¾à´¨ à´Ĥ
ug u
ä¾ ¡
àªĤ àª®
Ġv ideo
Ñģ Ð°Ð¼Ð°
Ðº Ð°Ñŀ
Ġà¤ķ à¤¹
Ġw ay
ìĺ¤ íĶ¼
áĥĲáĥłáĥ ©
à¹Ģà¸£ à¸²
áĥĺáĥ¡ áĥĹáĥķáĥĺáĥ¡
áĥ£ áĥĲáĥļ
ĠÎĶ Î·
áĢ®áĢ¸áĢ ķ
c ess
ĠØ³ Ùģ
è ķ
Ġ×ĳ ×ĵ
ĠÙĨ Øª
åĨ ľ
Ð½ Ð¾Ð»Ð¾Ð³
Ł áĢ¯
ĠJun e
à¤ ĺ
Ð¼ Ñĭ
ĠçĶ Ł
×¨ ×ļ
Ñı Ð²Ð°
Ġà¦¬ à¦¾
ì ¼
Ġà´ ³
à¥įà¤Ł à¥įà¤°
åĲ §
àªķ à«Ģ
×ĳ ×ª
ì¦ Ī
oll ow
Ġà¦ķà¦¥ à¦¾
Ð°Ð¹ Ð´
ĠáĥĹ áĥ£áĥĽ
à±Ģ à°¨
Ġf ree
Ġà´® à´¾à´¤àµįà´°
ĠÐ¿ÑĢ ÐµÐ¿
ĠÙħÙĨ Ø·
áĢ» áĢ¬áĢ¸
Ġ×ľ ×¡
ĠÐ½Ðµ Ð²
æķ ħ
in al
Ð°Ð»ÑĮ Ð½Ð¾
ĠÐ´ÑĢÑĥ Ð³Ð¸
ãĤĵ ãģª
Ġè ¥¿
à«ĭ àª¨à«Ģ
Ġç¥ ŀ
Ġc c
à®¾à® Ļà¯įà®ķ
Ġà¤ķà¥ģà¤ Ľ
çľ Į
ĠØ§ÙĦØ£ ÙĪÙĦ
ĠØ¬ Ûģ
Ġà¤ ĳ
Ġà´¨ à´¿à´²
à¦¾à¦° à§ĩ
è¯ ¥
áĥķ áĥĺáĥļ
íĥ ľ
åħ ´
ĠÐ´ Ñĭ
Ð¸ ÐºÐ°
ĠáĥĲáĥ Ĵ
çı Ń
à§įà¦¬ à¦°
ĠæĹ ©
Ùĩ Ùĩ
ĠáĥĻ áĥĺáĥĵ
ÑĨÑĭ Ñĸ
Ġ×Ķ× Ŀ
Ð¸Ð» Ð´Ð¸
ĶáĢ¾ áĢĦáĢ·áĢº
ÙĪØ± ÙĬ
t ember
áŀ¶ áŀ
à¦¾à¦ «
0 1
Ġãĥ ŀ
Ø±ÙĪ Ø²
ĠáĥĽ áĥĲáĥĽ
Ġà¤ķ à¥Ī
à®¿à®Ł à®®à¯į
Ðµ Ð¾
Ñİ Ð²
éĩ ĩ
Ġà°ķ à°¨
å· ´
ĠØ¯ Ø±ÛĮ
áĢĶ áĢĬáĢ¹áĢ¸
à¸ķ à¹Īà¸²à¸ĩ
ä¸Ń æĸĩ
áĥĲáĥ Ń
ĠÑģ Ð¾Ð½
ãĥ İ
Ġà®ļ à®¿à®²
Ø² ÙĦ
à¯ģà®³ à¯į
ĠÐ³ Ð»Ð°Ð²
ĠÐ² Ð¾Ð»
ë² Ħ
ri v
Ġ et
áĢĿ áĢĶáĢº
à´¿à´° àµģà´¨àµįà´¨àµģ
Ġà®ķ à®µ
æĻ º
à®° à¯įà®µ
Î¯Î½ ÎµÎ¹
ĠÐ¼ ÐµÑĪ
áĢģáĢ¼ áĢĦáĢºáĢ¸
ĠØ§ÙĦ ÙĴ
ĠÐŁ Ð¾Ñģ
×ľ ×Ĺ
Ġag è§Ĩè®¯
7 9
ĠÎ±Î½ ÏĦÎ¹
áĢĦáĢ¹áĢ Ĩ
Ġàª ¥à«Ģ
ĠÐº ÑĥÐ»ÑĮÑĤ
à¤¿à¤ ĸ
ÑĥÐ´ Ð¸
ĠØ¬ ÙĦ
ĠAug ust
5 6
à¹ģ à¸Ļ
à®² à®ķ
Ùģ Ø§ÙĤ
Ïĥ Î¹Î±
y n
ĠÑģ Ð¸Ð»
åį ³
áĥĶáĥłáĥ ķ
à¸¸ à¸Ļ
éĿ ©
à®¿à®© à¯įà®©
àª¿ àªĤàª
ĠáĥĽ áĥĻ
Ġåĳ ¨
à¤Ĺ à¤°
Î» Ïħ
íı ī
ÑĢ ÐµÑģ
Ġ ä½ľ
à¤Ĺ à¥Ģ
Ð¸ÑĤÑĮ ÑģÑı
ĠØ± ØŃ
id er
ĠáĢ¡ áĢŃáĢĻáĢ¹áĢ
áĢĲ áĢĽ
Îķ Î¡
à¹Ģà¸¥à¸·à¸Ń à¸ģ
ÑĥÐ± Ð»Ñĸ
ĠáĢ¡áĢħ áĢŃáĢ¯áĢ¸áĢĽ
Ġà°Ĩà°¯ à°¨
ĠÐ³ Ð°Ð»
Ġà®ķà¯Ĥ à®Ł
çı ¾
it al
ĠãĤ ¤
Ġ> <
Ġ222 70
à¦¾à¦° à¦£
Ġä¸ »
áĥĶáĥĳ áĥĶáĥĳáĥĺ
ĠØ§Ø³ ÛĴ
å¨ ģ
ĠO r
Ġà´¨ à´²àµįâĢįà´ķ
à±ģà°¨ à°¿
à® ·
m e
à¸Ĭ à¸µ
ĠÎº Î¬Î½
Ġc ount
Ġb ook
áĢ¼ áĢ¬áĢ¸
áĢĢáĢ¹áĢ Ĩ
Ġà¤¦ à¥ĩà¤¶
ĠÐĲ Ð»Ðµ
Ð¸Ð½ Ñĥ
ìł Ģ
áĢ±áĢĲáĢ¬ áĢ¹
Ð¸Ð³ ÑĥÑĢ
ĠÑĸ Ð·
ÙĤ Ø§ÙĦ
Ø³Øª Ùĩ
ĠáĢģ áĢ¶
Ġfamil y
à§Ĥ à¦²
Ġç Ī
áĥ¥ áĥĿáĥľ
å¼Ģå¥ĸ ç»ĵæŀľ
Ġà¤ķ à¤¾à¤®
Ġà¤ª à¥Ģ
à´¤àµįà´¤ à´¿à´¨àµį
à«Ģàª ¶
Î» Î¿Ïħ
el d
ģáĢ« áĢĦáĢ¹áĢ¸
ãģĹãģ¦ ãģĦãĤĭ
Î»Î» Î·
ove m
ĠÙħØ±Ø¯ Ùħ
Ġsh ould
ĠáĥĽáĥĺáĥĽ áĥĲáĥłáĥĹ
ĠØ§ÙĬ ÙĨ
Ġè Ĥ
ÙĨØ¯ ÛĮ
Ð´ Ñĭ
Ġ. [
ĠÐĳÐµÐ»Ð°ÑĢÑĥÑģ Ñĸ
áĢĸ áĢŃáĢ¯áĢ·
áĥ£áĥłáĥ ¡
ĠÙħØ³ Ø¦
Ġ×ķ ×©
ĠÑģ Ð¸Ð½
áĥľ áĥĺáĥ¨áĥķ
à¤Ĥ à¤Ł
Ġé ļ
æ¯Ķ åĪĨ
àª¸ à«įàªŁ
ÐµÐ» ÐµÐ½
Ġà¦¸ à¦¾à¦®
×ķ× ¥
Ð¾Ð³ Ð°ÑĪ
Ð¾Ð± Ð¾Ð´
ĠÐ¡ Ðĥ
ro l
Ġàªħ àª²
à®² à¯įà®µ
é¡¹ çĽ®
à¸¥ à¸¹à¸ģ
ĠÐ» Ñĸ
ĠÐ¿ÑĢ Ð¸Ðº
Ġ×Ľ ×ļ
×¨ ×ķ×ª
Ø§Ø¨ Ø©
áģ Ĥ
Ġáĥ¡áĥĲáĥ ¤
ĠÙĪ Ø²Ø§Ø±
çķ ª
à¤Ĥ à¤§
Ġà®ķ à¯ģà®Ł
ĠÎµ ÏģÎ³
ç§ Ĵ
ãģª ãĤī
0 8
ĠØ§ÙĦÙħ ÙĨØª
Ðł ÐĲ
Îº Î®
Ġà¦ļ à¦²
ĠÎ± ÏģÏĩ
ĠØµØ§ØŃ Ø¨
ï¼ ¿
à§ģ à¦¦à§įà¦§
»áĢķ áĢ®áĢ¸
à´¿à´ķàµįà´ķ àµį
à°Ł à±įà°²
åĵ ¡
ÏĢ Î¯
à¥ĩà¤ ¦
Ġ×ĳ ×Ľ×ľ
ĠÙĨ Øµ
Ġíķ Ħ
ì ¤Ģ
ĠG ujarat
æ² Ļ
Ġà¤¯ à¥ĩ
Ġàªķàª°à«Ģ àª¨à«ĩ
Ġyear s
ĠFeb ruary
àªĸ àª¤
Ġà°¨à±ģà°Ĥà° ļà°¿
Ð¾Ð¶ Ðµ
Ġ×Ľ ×ŀ×ķ
Ġàª¶ àª°à«Ĥ
à«ĭ àª¨à«ĩ
à« «
Ñģ Ð°ÑĤ
Ð½ ÑĤ
Ĳ áĢħáĢ¹áĢ
áĢĢáģ ¡
ç§ ģ
ÑĢ ÑĤ
Î¼ÏĮ ÏĤ
ĠÑģÑĬ Ñģ
à´ª àµįà´°
Ġìļ Ķ
Ġàªķàª° àª¤àª¾
Ġàªħ àªµ
Ð°Ð» ÒĽ
Ġà®ª à®ķ
áĢ±áĢľ áĢ¸
ou n
ì¢ ħ
áĥĿáĥĳ áĥĲáĥ¨áĥĺ
à¸· à¹Īà¸Ļ
Ð½Ñĭ Ð¼Ð¸
Ïģ Ïħ
äº ²
ĠÐĲ Ð·
ĠÐ°Ð²ÑĤÐ¾Ð¼ Ð¾Ð±
ÙĦ Ø§ÙĨ
ĠÎ ¯
ÑīÐµ ÑģÑĤÐ²
ç²¾ åĵģ
à¥ĩ à¤°
áĥĶáĥ¥ áĥ¡
à¸ª à¹Īà¸ĩ
à¤¢ à¤¼
à¦ ¯
à¸Ļà¸ Łà¸£à¸µ
Ġà¤¸ à¤¾à¤®
áĥĲáĥĹ áĥķáĥĺáĥ¡
áĢĶáĢ¹áĢ ¡
Ð» ÐµÐºÑģ
ĠáĥĽ áĥĿáĥĴ
Ð¾Ñģ Ñı
ãĥ ı
à¦ķ à§įà¦°
Ð¸ÑĢ Ð°Ð½Ð¸
Ġà°ħ à°Ĥà°¤
ĠØ¹ Ø±Ø¶
Ġãĥ Ĳ
áĥĵ áĥĿáĥĽ
áģ¾áĢĢ áĢ¬áĢ¸áĢ
Ġ end
áĢĨ áĢ¯áĢŃ
à¤µ à¤°
er n
å¤§ å°ı
ĠÏĢ ÏģÏİ
×ĳ ×ķ×ª
ĠÐł Ð°Ñģ
é Ĭ
àª¿àª §
Ġà´ľ à´¨
áĢĢáĢ¼ áĢ®áĢ¸
ãĥ ¤
ĠÑĤÑĢ Ð°Ð½
Ġ×Ĳ×Ĺ ×ĵ
à¤¿à¤ ·
ĠÙĨ Ú¯
à«Ģàª ¬
Ù¹ Ø³
ĠÏĩ ÏģÏĮ
i um
G B
ÑĢÐ°Ñ ī
Ġç Ń
ĠÐĿ ÐĲ
å¯ Ĩ
ovem ber
ĠÐºÐ¾Ð½ ÑĤÑĢ
ÑĬ Ð¶
à¹Ĥà¸¡ à¸Ĭà¸±à¹Īà¸Ļ
à¦¿à¦ Ń
Ġ= >
àµįà´ ķ
ĠìĤ¬ ìļ©
áĢ¥ áĢ®áĢ¸áĢ
æī ¿
Ġáĥŀ áĥĲáĥ¢
Ġà¦¯ à¦¾à§Ł
ĠáĥĹáĥ£áĥĽ áĥªáĥĲ
à®¿à®ļ à¯įà®ļ
Ø±ÙĪ Ø³
ĠáĢ± áģ¾áĢĢ
æ£ĭçīĮ æ¸¸æĪı
æī ĳåħĭ
Ġs im
Ġáĥ¢ áĥł
àª°à«įàª ¥
ĠÐº Ð¸ÑĢ
ìĺ Ģ
àªĹ à«Ģ
Ð°Ñļ Ð°
ĠS o
Ñĭ ÑĨ
ÏĦÎ· ÏĥÎ·
ĠØ¨ Ø£
à±Ĥà° ª
Ġà¤¹à¥ģà¤ ı
æ± ½
×Ļ×© ×Ķ
ÙĩâĢĮ ÙĩØ§ÛĮ
Ðķ ÐĿ
Ġ×Ĳ ×Ļ×Ł
Ġn ext
áĢľ áĢ¯áĢŃ
ĠÐ½ Ð°ÑĦ
Ġàªĸ à«Ĥ
Ġà¤ľ à¤¬
ĠØ¨Ø±ÙĨ Ø§ÙħÙĩ
ç¦ »
à±ĩà° ª
Ġàª¬ àª¦
æŀ ģéĢŁ
ĠÙĩÙħ ÚĨ
Ġà´ļ àµĨ
Ġ} ,
ĠÙĦ ÙĨ
ĠÐ¢ ÑĥÑĢ
Ġà¤ļ à¤¾à¤¹
×ĳ ×ķ×¨
à¥Ĥ à¤²
ÑĢÑĥ Ð¶
ĠÛĮ Ú©ÛĮ
æ ½
ĠI S
éĿ ł
à¸± à¸Ħà¸£
Ġä¸ ľ
à¦¬ à¦¾à¦¦
ĠÑĤ Ð²Ð¾ÑĢ
Ġáģı áģĭ
áĢĽ áĢ²
åħ »
Ġáĥ¨áĥĶáĥ £áĥ
ÐµÑģÑĤ Ð¾
Ġà¤ķà¤¾à¤° à¥įà¤¯
ĠãģĿ ãĤĮ
áĢĻáĢ» áĢ¬áĢ¸áĢ
ãģĤãĤĬ ãģ¾ãģĻ
Ġà°ħ à°Ń
ĠÐĶ Ð°
7 2
Ġìł ģ
à¥įà¤° à¤®
à®¿à®Łà¯įà®Ł à¯ģ
ĠÙĩØ³Øª ÙĨØ¯
ÐµÐ´ Ð¸Ð½
Ġ×Ĺ ×ĵ
à´¿à´ ·
ĠÛ ´
±áĢĽ áĢ¬áĢĢáĢ¹áĢ
äº «
áĤĬ áĢĲáĢ¹áĢ
Ùħ Ûģ
ĠÙħØ¬ ÙĦØ³
ìķĦ ê°Ģ
Ġàµ ½
à´¿à´ķàµįà´ķ àµģà´¨àµįà´¨àµģ
ĠØ±Ûģ ÛĮ
ĠÑĦ Ð¸Ð½
áĢ»áĢķ áĢ®áĢ¸
Ġáĥĳ áĥł
ĠÐ½Ðµ Ð³Ð¾
ĠÙĨ Ø³
Ġä¸ ĩ
ĠÑĢÐ¾Ðº Ñĥ
áĥĲáĥķ áĥĲáĥĵ
Ñı Ñŀ
à¤¾à¤¤ à¥įà¤°
±áĢĲáĢ¬ áĢ¹
ãĤ ½
Ð· Ð°
áĥ£áĥ ¢
Ġáĥĳ áĥĲáĥķáĥ¨
ãĢ ħ
áĥĶáĥĳ áĥĲáĥ¨áĥĺ
C lass
ĠT o
ĠÛ µ
ĠÐ¿ÑĢ Ð°Ð·
à¦ ı
ĠÐ¡ ÐµÑĢ
ar a
Ġãĥ ¡
áĥĿáĥĵ áĥĶáĥ¡
ĠÎ¼ÏĢÎ¿ ÏģÎµÎ¯
ĠãĤ ¯
Ġàªµà«įàª¯ àªķà«įàª¤
Ġd a
Ġáĥĵ áĥłáĥĿáĥ¡
áĥĺáĥĻ áĥĲ
à«Ģàª ¦
0 6
áĢĦáĢ¹áĢ Ľ
à¸± à¹Īà¸§
Ġbe fore
r on
à°¾à°² à°¨à±ģ
ĠÐ² Ð¸Ð»
Ð°Ñħ Ñģ
ê°Ģ ê²©
ÛĮ Ø±ÛĮ
ãģ§ãģį ãĤĭ
Ġà®® à¯ģà®±
å¥½ çļĦ
l ish
ĠáĢ¥ áĢķ
Ġl a
0 2
ĠáĥĽ áĥĺáĥĶáĥł
ĠáĥĶáĥłáĥĹ áĥĲáĥĵ
Ġh ere
éĵ ¾
Ġàªħ àª¥
Ġs ur
g ram
à¸ģ à¸±à¸Ļà¸
ÑĸÑģÑĤ ÑĮ
àµĭ à´³
à¸ĵ à¸°
Ġáĥ¡áĥĲáĥĶ áĥłáĥĹ
ĠSep tember
à¹Īà¸²à¸ ª
ãģĪ ãģ¦
áĥ£áĥłáĥ ľ
ĠÏĢÎ± ÏģÎ¬
Ġà¦Ń à¦¾à¦°
áĢĸ áĢŃáĢ¯áĤĶ
áĥľáĥĺáĥ¨áĥķ áĥľáĥĶáĥļ
ĠÎ± Îº
ĠD 0
àª¸ à«įàª¥
ĠÏĮ ÏĢÏīÏĤ
ĠÐ¾Ð½ Ð»Ð°Ð¹Ð½
à°¾à°² à°¨à°¿
Ġì° ¨
Ð°Ð» Ð½Ð°
à«ĭ àª¨àª¾
ĠãĤ ¨
Ð² Ð¸Ð´
áĢģáĢ» áĢŃáĢĶáĢº
Ð² ÐµÐ´
Ð¸Ð¼ Ð¾
áĥĶáĥĽ áĥĳ
Ġáģ ĩ
Ġà¹Ģà¸ Ĭ
ê ´ĳ
Ġà´ľ àµĢà´µ
æĵ į
ur ing
áĢ¼ áĢĦáĢ¹áĢ¸
ĠÐ´ Ð¸ÑĢ
áĥĵ áĥĶáĥľ
Ġà¸Ķ à¸¹
ĠÐ¾Ð¿ ÐµÑĢ
àµģà´ ²
Ġå¹ ³
ĠÙĨ ÙĪØ¹
ĠØ¢ÙĨ ÙĩØ§
åĲ ĥ
ĠØªÙĪ Ø¬Ùĩ
×Ļ×ĳ ×Ķ
ãĥª ãĥ¼
Ġàª ł
ĠÐ ©
c ed
ĠØ§ÙĦØ± Ø¦ÙĬØ³
áĥĲáĥĹ áĥĲ
ĠÛĮ Ø§Ø¯
i et
Ð° Ð°ÑĤ
à¹Ģà¸Ĥ à¹īà¸²
T C
ĠÙħ ÙĩÙħ
çķ Ļ
Ġg e
ĠÐ±ÑŀÐ¹ Ð¸ÑĩÐ°
à¤¸ à¤¾
l a
Ġà°¸ à±įà°µ
Ġàªķàª¾àª° àª£
Ġå Ģ
ĠØ± ÙĨÚ¯
à«ĩàª ¥à«Ģ
ĠáĥĽ áĥĶáĥĿ
Ġà¦¹ à¦¾à¦¸
ĠØ¹ ÙħØ±
ĠÐºÐ¾ Ð»Ð¸
Ø® ÛĮ
Ġæĸ ĩ
Ġàª² àªĪ
ĠÐ¿ÑĢÐ¾Ð± Ð»ÐµÐ¼
Ð°Ðº ÑĤ
×Ĵ ×ĵ
Ð²ÐµÑĢ Ñģ
Ġáĥ¡ áĥĺáĥĽ
Ġáĥ¡áĥĲáĥ®áĥĶáĥļáĥĽ áĥ¬áĥĺáĥ¤
ãĢ į
Ð²Ð¸ Ð¶
Ġåį Ĺ
Ġà°ļ à°¾à°²
Ġàª® àª¾àª°à«Ģ
à¸´ à¸ļ
ãģ« ãģ¤
ĠØ³ ÛĮÙĨ
ĠÑĨ ÑĮ
å¯ Ł
ÑĢ Ð°Ð±Ð¾ÑĤ
Ð½Ñĸ Ñĩ
ĠÐĲ Ðº
ĠØ± Ø¯
áĥłáĥĴ áĥĲáĥľ
à¤¾à¤ ĸ
à¹Īà¸§ à¸ĩ
Ð ĸ
Ġàªªàª¾àª¸ à«ĩ
áĥĺáĥĽ áĥĶ
àª² à«ĩ
Ġàªªà«įàª° àª®
ĠÎ´ Ïį
ĠOct ober
æ¹ ĸ
Ġc ould
áĢ¼ áĢĻáĢ¹áĢ¸
æ³ ¢
Ġæ¶ ĵ
ĠÑĤ Ð¾ÑĢ
ĠáĥĲáĥ® áĥĲáĥļ
Ġb el
Ð¾Ñģ Ð¾Ð±
Ġåİ Ł
áĥĵ áĥľáĥĶáĥľ
Ġe ff
ĠDec ember
ĠÐº Ð»Ð¸
äºº çļĦ
Ø² Ø¯
Ġå° Ĩ
ĠáĥĻ áĥĲáĥľ
ĠÙ¾Ûģ ÙĨ
áĢŁ áĢ¯áĢĲáĢº
æĴŃ æĶ¾
Ø³Øª ÛĮ
×Ľ ×Ŀ
ub e
ĠáĥĴ áĥĲáĥ£áĥ
âĢĮ âĢĮ
Ġà§¦ à§
ĠÛģÙĪ Ø¦ÛĮ
ĠâĢ ª
ĠØ§ÛĮ Ùħ
Ġd el
Ð°Ð½Ð¸ Ð¸
à§ĩà¦ ª
Ġáĥł áĥĲáĥĽáĥĵ
Ġà´ §
à¸ķ à¸±à¹īà¸ĩ
ÑĤÐ¸ Ðº
ëł ¨
Ð¸Ñı ÑĤÐ°
ĠíĻ Ķ
ĠØ¯ Ø§Ø´ØªÙĩ
Ġev en
áĢº áĢ¬áĢ¹áĢ
à°¾à°² à±ĭ
Ġc all
ĠÙħ Ø§ÙĦ
ë£ ¨
ĠÐºÐ¾ÑĢ Ð¸ÑģÑĤ
áĢĦáĢ¹áĢ ħ
è¿ ľ
ä¹ Ŀ
à±ģà°¤ à±įà°µ
å·¥ ç¨ĭ
ĠÑĥ ÑĢ
Ðł Ðĺ
Ġà¦ķà¦° à¦¾à¦°
àµĤ à´ª
àµģà´ ¨
áĥĶáĥ ¨áĥĺ
à¸²à¸ Ī
ĠáĢĻáĢ¼ áĢĶáĢº
ĠìĦ ¤
Ñı Ð¶
àµĥ à´¤
Ġà°° à±ĭà°ľ
Ġà¤ ĵ
Ġì° ¸
à°Ĥà°¡ à°¿
¾ è®¯
àµģà´ķ à´¯àµģà´Ĥ
Ġà®® à®Łà¯įà®Ł
áĥĲáĥĽ áĥĺáĥ¡
Îº Î¬
ĠÙĪØ§ÙĦ ÛĮ
èĭ ı
Ø§ÛĮ ÙĨ
Ġv e
à´¿à´ķàµįà´ķàµģà´¨àµįà´¨ à´¤àµį
à¥Į à¤°
Ġà¸£ à¸²à¸Ħ
à¹ ĭ
à±Ĥà° ²
áĥĶáĥłáĥ Ľ
à¤¾à¤ ¡
Ú¾ Ø§
æĸĩ åĮĸ
ĠØ§ÙĦ Ø§Ø³Øª
áĢŃáĢ¯áĢ¸áĢ Ĳ
×Ĳ ×ķ×ª
ĠÙģÛĮ ØµÙĦ
Ġw orld
ĠáĥĲáĥĽ áĥĳ
à¤ķ à¤¿à¤¨
ĠØ§ÙĦÙĤ Ø±
à¸Ńà¸²à¸ «
Ġà¸ª à¸¡
Ġà°ī à°Ĥà°¦à°¿
à¹ģ à¸«
áĥĲáĥłáĥ ¯
àª°à«įàª ļ
×ķ×ŀ ×¨
ĠØ³ÛĮ Ø§Ø³ÛĮ
à¹Īà¸§ à¸Ļ
à¹ģ à¸Ĥ
Ø¯ Ùī
ĠØ¨Ø§Ø² Ø§Ø±
Ø± Ø¬
Ġà®ĩ à®¤à¯ģ
ë¡ ł
áĢ¸áĢĻ áĢº
Ġà¦Ĩà¦® à¦¾à¦¦à§ĩà¦°
ver t
Ġáĥľ áĥĲáĥ®
ĠÐ¿ÑĢ Ð¾Ð¿
Ð¸Ð» Ð¾
ÏģÎŃ ÏĢÎµÎ¹
0 4
áĥĴ áĥĿáĥĽ
à¸£ à¸£à¸¡
à®¾à® ª
Ġëĵ ¤
ÑĨ Ð°ÑĤÐ°
ĠRep ly
our s
è¿ İ
Ġà®İ à®²à¯įà®²
Ġáĥķ áĥĺáĥľ
à¤ļà¥įà¤ ļ
áĢ¬ áĢĲáĢ¹áĢ
Ò³ Ð¸
ĠÐ¸Ð½ÑĤÐµÑĢ ÐµÑģ
Ùĥ Ø§Øª
à«įàª ¹
à¹ĥà¸«à¸į à¹Ī
áĥĲáĥĽ áĥĶáĥľáĥ¢
Ð ģ
ÏĦÎ¹ Ïĥ
àµĩà´ ĸ
ĠÐ» ÐµÐ³
à«įàª Ľ
Ġ×ķ ×ľ×Ĳ
å¤ «
Ġà®Ĩà®© à®¾à®²à¯į
ÑģÑĮ ÐºÐ°
ĠÑĤÑŀ ÒĵÑĢÐ¸
à¸¢ à¸§
Ġà¦¨à¦¿ à¦°à§įà¦¬
ĠÐ½ ÐµÐ¼Ð°
ĠÐł ÐĨ
ĠÐ¿ÑĢ Ð¸Ð·
ĠÐŁÑĢ ÐµÐ´
å½© åĸľæ¬¢
ĠæŃ ¤
ĠáĢķáĢ¼ áĢĬáĢº
I A
Ġáĥ¨ áĥĿáĥłáĥĺáĥ¡
Ġà¹Ģà¸ŀ à¸·à¹Īà¸Ń
Ġà®ķ à®£
Ġà¦¹ à¦ļ
å¤ļ å°ĳ
áĢ±áĢ¡ áĢ¬áĢĦáĢ¹áĢ
us s
ĠÑĤÑĢÑıÐ± Ð²Ð°
Ð°ÑĨ ÑĨÐ°
ĠÑģÐº Ð°Ð·
à¸Ħ à¸´à¸Ķ
ire ct
áĢķ áĢ±áĢ«
à°Ł à±įà°²à±ģ
à¤¤ à¥įà¤°
Ġàµ ¼
ÐµÐ½ Ñĸ
Ġì ½ľê±¸
Ġà¤ľ à¤¨
ĠN ovember
áĥĶáĥĳ áĥĽáĥĲ
Ġà¸¥à¸ĩ à¸Ĺà¸°à¹Ģà¸ļà¸µà¸¢
Ġà¸ Ł
Ġà¸Ń à¸¢
Ġà¤¦ à¥Ģ
ĠØŃÙĤ ÙĪÙĤ
ĠÑĤÐ¾Ð»ÑĮ ÐºÑĸ
ãĥ¼ãĤ º
Ġæ± Ł
Ġ×Ĳ ×ĸ
áĢ±áĢĲáĢ¼ áĢĢ
çľ ¼
Ġåľ °
æ´» åĬ¨
áĢķ áĢ±áĢ«áĢº
ĠàªŃ à«Ĥ
ĠÐ» Ð²
Ġvi ew
Ð½ Ð´
ch ool
ĠáĢ±áĢĢáĢº áĢ¬áĢĦáĢ¹áĢ¸
ÙĬ Ø¬
ÙĦ Ø§Ø«
Ġà¤¹à¥ĭ à¤¤à¤¾
ĠØ³ Ø§Ø¹Øª
æĭ¿ å¤§
Ð» ÑĸÐ²
Ð°Ð½ Ð½Ðµ
Ġà°ļà±ĩà° ¶
à®±à¯įà®ķ à¯ģ
Ġà°ħ à°²
Ġà¦ªà¦° à¦¿à¦¬
ĠÐ½ ÑĥÐ¶
áĥĶáĥĳáĥ£áĥļáĥĺ áĥĲ
ĠÎŃÏĩ Î¿ÏħÎ½
Ð»Ð°ÑĢ Ð´Ð°
áĥĲáĥł áĥĲ
Úĳ ÛĮ
if t
ĠáĥĽ áĥ¨
Ġà¸ľ à¸¹à¹ī
à«ĩàªķ à«įàªŁ
ĠO ff
å® ³
à§ĭ à¦¸
Î´ Îµ
Ùİ ÙĬ
à®¿à®±à¯įà®ķ à¯ģ
Ġà¦ªà§įà¦° à¦§à¦¾à¦¨
à°¾à°Ĥà° Ł
Ġà¦Ĩ à¦ľ
ĠÐĴ Ñģ
ĠØ§ÙĨ Ø³
åħ µ
áĢķáĢ« áĢĺáĢ°áĢ¸
ĠÚĪ ÛĮ
Ġ" )
Ġà¹Ģà¸ Ĥ
Ġàª®àª³ à«Ģ
å¤ ī
indow s
ĠÐ¼ ÐµÐº
à¦°à§įà¦ £
à§ĭ à¦§
Ġà¦ĩ à¦ī
ĠÑĹ Ñħ
ĠÐ·Ð° ÑģÑĤ
à±įâĢĮ à°²à±ĭ
Ġà¤ľ à¤¾
ãģĦ ãģĦ
àµģà´®àµįà´ª àµĭ
Ġwh ere
Ð¸Ñĩ Ð½Ð¾
ĲáĢ²áĢ· áĢ¡
åĽ½ äº§
e v
am es
Ġl ist
ë¶Ģ íĦ°
Ġà¤¬ à¥Ī
Ġé Ĺ
ì§ Ī
áĥĲáĥł áĥĶáĥĳáĥĺáĥ¡
ĠáĥĽ áĥª
Ġà¤ªà¥įà¤° à¤¦
à°Ĥà° ¬
Ġthe n
áĢ±áĢķáĢ« áĢ·
Ð¸ÑĢ Ð°Ð½
Ġs ol
ĠáĢ¡ áĢĻ
à¤° à¥ĭ
Ġáĥ¬ áĥĶáĥļáĥ¡
Ġáĥ¨áĥĶáĥ¡ áĥĲáĥ«áĥļ
à´ķàµįà´ķ àµĨ
Ġà´ī à´£àµįà´Ł
ĠÑĤ ÑĥÑĢÐ¸
ĠÏĢÎµ ÏģÎ¯
à®µ à¯Ī
Ġé ĥ
à¦¤ à§įà¦°
Ġà°µ à°°
à°Ĥà°¦ à±ģà°ķà±ģ
ç´ ¢
ĠÐ° Ð½Ð³
ĠÙĨÛĮ Ø³Øª
Ġ×Ķ ×ľ
Ġà«¨ à«¦
à¸µà¹Īà¸¢ à¸§
Ð°Ð½ Ð½Ñĸ
olog y
áĥĶáĥ £áĥļáĥĺ
Ġàªªà«įàª° àªµ
ĠÐ¿Ð¾Ðº Ð°Ð·
ĀĀĀĀĀĀĀĀĀĀĀĀĀĀĀĀ ĀĀĀĀĀĀĀĀĀĀĀĀĀĀĀĀ
Ð¾ Ñī
Ġà®µ à¯Īà®¤à¯įà®¤
æ» ¡
ĠC ol
Ġàªµàª¿àª ¦
Ġà¨ ¦
×ķ ×Ļ×ķ×ª
Ġà¸Ĥ à¸Ńà¸ĩ
Ñĭ Ð²Ð°
à¹Ĥ à¸£
×Ĳ ×Ķ
Ġb o
áĥĲáĥľ áĥĴ
Ġåı ª
à´¡ àµį
ĠØ§Ø³ ÛĮ
à§įà¦¯ à¦®
as on
åĨ Ļ
à®© à¯įà®ª
ĠÏĢÎµ ÏģÎ¹ÏĥÏĥÏĮÏĦÎµ
à®Łà¯įà®Ł à¯ģ
c on
Ġ8 2
ĠÐ¤ ÑĢÐ°Ð½
ĠÑģÐµ Ð±Ðµ
ĠGo ogle
ÙĪ Ø©
á ĭ
ĠÐ¼ ÑĸÑģ
à°¡ à°¾à°¨à°¿à°ķà°¿
à±ģà°¨ à±ģ
ĠÑĥ ÑĤ
à´¿à´¨ àµįâĢį
ĠáĥĶ áĥķáĥł
é ¸
å¤§åıĳ å¿«ä¸ī
Ġíķ Ļ
àª Ĩ
à¸ķ à¸´à¸Ķ
ĠÑģ Ð°Ð½
áĢĶ áĢ±áĢ·
y m
Ð°Ð»ÑĮ Ð½Ð¾Ð³Ð¾
ĠÐº Ð¸ÑĪ
Ġì ¶ľ
åį ĥ
Ġàªķ à«ĩàª®
Ġë¡ ľ
Ġ: #
éģ İ
ĠÐ²Ñĭ Ñģ
is m
Ġà°ª à±Ĭ
å¸ Ń
ĠáĥĿ áĥłáĥĴáĥĲáĥľ
ï¼ Ĵ
áĥĲáĥ£áĥ ł
ĠØ¬Ø§Øª Ø§
ĠÐĶ Ð¶
Ġim port
ĠØªÙĪ Ø³Ø·
Û° Û°
ĠÙĨÙħ Ø§ÛĮ
Ġë³ ´ë
t a
ç Ĵ
Ġà´ ¨àµįà´
ãģ« ãĤĤ
ĠáĥĲáĥ ĺ
áĢ¸áĢ ĳ
{ "
Ġà¸ģ à¹ĩ
Ġk e
Ġà®® à®¿à®ķ
ÑįÐ½ ÑĤ
ĠéĢ ģ
Ñĭ Ð»
ÑĬ Ð½
Ġìĸ ´
ĠÚ©Ø±Ø¯ ÙĨ
æľ ĥ
Ġàª¬ àª¨à«Ģ
Ø¹ Ø§Øª
ĠÐĳ ÑĬÐ»Ð³Ð°ÑĢ
áĥĲáĥ« áĥĶ
à´¾ àµ½
Ð¾ÑĢ Ð¾
à°° à°£
Ġáĥ¡áĥĲáĥ Ĵ
ic a
7 3
ãģ£ãģ¦ ãģĦãĤĭ
Ġ| |
ìĿ´ ëĿ¼
à¹Ģà¸Ħà¸£ à¸Ķà¸´à¸ķ
Ġà¦ı à¦ĸà¦¨
Ġàª¸à«Į àª¥à«Ģ
I n
ĠáĥĲáĥ £áĥ
ĠÚ¯ ÙĪ
ĠáĥŀáĥĿáĥļ áĥĺáĥ¢
ÑĢ ÑĪ
re f
Ġd on
å¾ Ģ
ĠáĥĻ áĥļ
Ú© ÙĪ
ĠáĥĲáĥ Ļ
ĠÐ¿Ð¾Ð² ÐµÑľÐµ
Ġs r
Ġin s
k i
Ø§Ø¯ Øª
à®¾à® ªà¯įà®ª
Ġà´ª à´¿à´¨àµįà´¨
Ġà¤¸à¤° à¤ķà¤¾à¤°
ĠÐĲ ÐºÐ¾
Ġà¤²à¥ĩ à¤ķà¤¿à¤¨
è´ ¢
· ¨
à¸Ļà¸ ¢
áĢ±áĢ¸áĢ Ļ
ë¶ ģ
×Ĺ ×ķ×ª
à¸Ńà¸²à¸« à¸²à¸£
Ġà®® à®ķ
Ġàªľ àªµ
ĠãĢı ãĢİ
Ġà´® à´²
Ø´ Ùħ
Ġà¤Ĩ à¤¯
ĠE n
Ø¨ Ø§
Ġà´ª à´¿
Ġ×© ×Ľ
ĠÏĢÎ¿Î» Ïį
è§ ī
Î´ ÎµÏĤ
Ġà´ķ àµĨ
Ñı ÑĤÐ°
å± Ĥ
ic ro
Øµ Ø©
Ġà®ķ à¯ģà®´
ÙĬ ÙĬÙĨ
Ð´ Ð°Ð²
Ġà®ħà®µ à®°à¯į
à±ģà°Ĥà° ¡à°¾
ĠÙħ Øº
à«įàª¯ àª¾àª°
á Ĭ
Ġà¤¬ à¤¾à¤¤
ĠìĹ Ń
Ð¸Ð¼ Ð°
Ġáĥĺáĥľáĥ¤ áĥĿáĥłáĥĽ
ĠÛģ ÙħØ§Ø±
Ġë° Ľ
ÑĸÐ»ÑĮ ÑĪ
Ġæ° ´
Ùģ ÙĦ
Ñģ ÐµÐ´
Ġà¤¦ à¤¿à¤¨
Ġde f
áĢ±áĢĽ áĢ¬áĢĢáĢ¹áĢ
Ñĸ Ñŀ
Ġà¦Ń à¦¾à¦²
Ġàª¤àª® àª¨à«ĩ
ĠÐ¿ÑĢ Ð¸Ñģ
h s
Ġà® Ĳ
Ġre p
Ùĥ ÙĪÙħ
Î» ÎµÎ¯
Ø§ÙĦ ØŃ
Ġ×ŀ× ĸ
Ġsu ch
ÏĦ Ïİ
ÙĪØ± Ø³
Ġà¦¸ à§įà¦¥
áĥĲáĥł áĥĶáĥĿáĥĳ
ĠÙĩÙħ Ùĩ
ĠÙģØ¹ Ø§ÙĦ
à¦Ń à¦¾à¦¬à§ĩ
ĠÙ Ģ
à«Ĥ àªŁ
à¸Ĺ à¸£
Î¶ ÎµÎ¹
Ġà¦¸ à§ģ
ĠÐĵ ÑĢ
à¤°à¥įà¤ £
Ġà®ħà®µ à®°
Ġà®ħ à®³
Ġà¦¦ à¦²
áĥ£áĥł áĥĺáĥ¡
Ðļ ÐĲ
ĠÚ© Ø§ÙĨ
Ġà´µà´¿à´ ¶
0 3
Ùİ Ùħ
åĪĨéĴŁ å¿«ä¸ī
à¸ª à¸°
Ø´ Ùĩ
æł ¸
ĠÐ¡Ðº Ð¾Ð¿
åİĨ åı²
ĠÐºÐ¾Ð½ ÑĤ
Ġáĥª áĥ®áĥĿáĥķáĥł
ĠáĢģ áĢ»
ĠÐ¾Ð± Ñī
à´¨àµįà´¦ àµįà´°
Ġàª®à«ĩàª ³
ÑĨ ÐµÐ²
Ġè °
±áĢ ļáĢ¬áĢĢáĢ¹áĢ
ç§ ¯
Ø³ Ùĩ
àª¤ à«ģàªĤ
ĠÐ¼Ð°ÑĤ ÐµÑĢÐ¸
Ð» Ð¾Ð¼
oth er
ĠÒ³Ð¸Ñģ Ð¾Ð±
ĠÐµÐ´ ÐµÐ½
à°¾à°² à±įà°²à±ĭ
ĠÐºÑĢ Ð°Ñģ
ä¿¡ èªī
à¸± à¸¡
åĲĪ ä½ľ
Ġå¤ ļ
ĠÑĤÐ¾Ð»ÑĮ ÐºÐ¾
ÏĦÎ¹Îº ÏİÎ½
Ġà´¨ àµĢ
Ġàª§ àª°
ĵ ľ
ĠØ¢ ÙĩÙĨÚ¯
ĠÐ½ Ð°ÑĤ
ĠÙĪØ¬ Ûģ
áĢĢ áĢ°
à¹Ģà¸ ¨
v is
à¸²à¸ ļ
Ġèī ²
à§Ģ à¦¦à§ĩà¦°
ĠáĥĽ áĥĲáĥłáĥ¢
éľĢ è¦ģ
ĠCOM å½©åĸľæ¬¢
ç½ Ĺ
Ġ$(' #
áĤı áģµ
ĠÐ± Ð°Ð·
el ugu
áĥĲáĥĵ áĥĲáĥ¡
Ġin t
Ġê ´ĳ
áĢķáĢ¼ áĢ¯
à¦¿à¦ ĵ
Î³ Îµ
Ġà¸« à¸Ļ
áĢĦáĢ¹áĢ ĺ
à§Ģ à¦¤
r al
Ġàªµ àªĸàª¤
Ġà¦Ĩ à¦¹
ĠÙĦÙĪÚ¯ ÙĪÚº
Ġà®ı à®±à¯įà®ª
Ùĩ ÙĪØ±
Ġà®ī à®¯
áĢĤ áģ¤
ĠA b
à«ģàª ¶
à¤¾à¤ «
ĠÐļ Ð¾ÑĢ
à®µ à®¿à®²à¯įà®²à¯Ī
Ġàªķ àª®
ì ´Ī
ĠáĢŀáĢ° áĤĶ
ĠG r
àª¾àª ·à«įàªŁ
ĠQ u
è´ §
ad a
Ø§Ø¹ Ø¯
in i
Ġì ½Ķ
Ġp age
Ġà¸¥à¸ĩà¸Ĺà¸°à¹Ģà¸ļà¸µà¸¢ à¸Ļà¸Łà¸£à¸µ
ĠÑĪ Ð¸ÑĢ
àª¹ à«ĩàª°
Ġà¹ĥà¸« à¹ī
ĠØ² Ø¨Ø§ÙĨ
é¦ Ĩ
æİ ¢
ãĥ ľ
¯ à§
ĠÐ¿ ÐµÑĪ
Ð°Ðº Ð¾
é¢Ħ æµĭ
íĺ Ħ
ĠÑģ Ð¾ÑģÑĤ
Ġà°® à°¾à°Ł
à´ķàµįà´ķ àµģà´Ĥ
Ġçİ ĭ
à«Ī àª¯
Ġà¸Ī à¸°
ÏĦ Ïģ
ĠØ®Ø¯Ùħ Ø§Øª
ĠÐº Ð°ÑĢÑĤ
à®® à¯ģà®®à¯į
Ġ äºĨ
à«į âĢį
à¥įà¤¯ à¥Ĥ
ust om
à´ķ à´³àµįâĢį
ĠÑģ Ð°Ð»
ĠØ¢ Ø¦ÛĮ
Ġà¸ªà¹Īà¸ĩ à¹Ģà¸ĩà¸´à¸Ļà¸ļà¸²à¸Ĺà¹Ħà¸Ĺà¸¢
à«ĭ àªĤàªļ
Ġíķ ¨
ĠÐ´ Ð·Ðµ
Ġì² Ń
Ø³ ÙĦØ§Ùħ
ĠÙħ Ø¶
è§ Ĵ
ĠÐŀ Ð¿
à¹Īà¸§ à¸¡
ĠáĢľ áĢ¬
ĠØª ÛĮ
à°® à±ģ
ĠÑĤÐµÐ» ÐµÑĦ
Ĺ à¸²à¸ĩ
ĠáĢĽ áĢ¾áĢŃ
à¸± à¸¥
Ùİ Ø±
Ġ×ĳ ×¦
Ġà¦° à¦¾à¦ĸ
à´¿à´¯ àµĨ
à¦¾à¦ ¡
Ġ ĆĈ
± áĤı
à«Ģàª ļ
ter s
ãĥ ļ
Ġà®¨ à®¾à®Ł
ãĤĮ ãģŁ
um b
Ġres ult
Ġi P
ÏĦÎµ Î¯
Ġp erson
Ġl ine
é¡ Į
Ġà¹Ĥà¸Ľà¸£ à¹Ĥà¸¡à¸Ĭà¸±à¹Īà¸Ļ
áĥ£áĥłáĥ Ĺ
ĠI m
ì¸ ł
à¥ģ à¤µ
u x
Ġà¹Ģ à¸£
Ġàª¤à«ĩàª® àª¨àª¾
Ġà¦¦ à¦¿à§Łà§ĩ
Ġé ¢
ĠáĢĢáģ½ áĢ¼áĢĶáĢ¹áĢ
Ùħ ÙĪÙĦ
Ù¹ Ø±ÛĮ
ĠÙĪ ÙĦÙĥ
ĠÑĢ ÐµÐ¶
ìľ ¡
ÑĢ Ð°ÑģÑĤ
Ġà¦® à¦¾à¦°
ÐµÐ· Ð¸
áĥĺáĥĻ áĥĺáĥ¡
Ð°Ñģ ÑĨÑĸ
ĠáĥĶ áĥł
áĢĢáĢ¼ áĢ±áĢ¬áĢĦáĢ·áĢº
à¸ĸ à¸·à¸Ń
Ġàª® à«ģàªĸ
Y n
0 9
à±Ĩ à°¨
ĠìĦľ ìļ¸
ĠÙĪØ§ÙĦ Ø£
Îµ ÏģÎ³
Ġà¤ľ à¤¾à¤¨
áĢ¡ áĢ¬áĢ¸
le ase
Ð»Ð°Ð½ Ð³Ð°Ð½
ĠáĢ¡ áĢĲ
Ġà¤ħ à¤¬
çº ª
áĢĸáĢ¼ áĢ²áĤķ
×Ļ× £
à±ģà°Ĺ à±ģ
Ġà´İ à´¨àµįà´¤
±áĢ ĳáĢ¬áĢĦáĢ¹áĢ
ħ áĢ¯
Ġàª¤ àª°à«Ģ
Ġn ull
×ŀ× Ĳ
à´¦ àµįà´¯
×¨ ×ĵ
Ø§ÙĦ Ùĩ
à±ĭ à°Ĥà°¦à°¿
Ġâ Ĥ
ĠÐµ ÑĦ
à´¿à´Ł àµĨ
ĠÐľ Ð¾ÑģÐº
ĠØ§ÙĨ Ø³Ø§ÙĨ
ÏĦÎ¹Îº Î¿Ïį
7 4
ĠàªĽ à«ģàªĤ
ĠÙĦ ÛĴ
ĠØ¯Ø§ÙĨØ´ Ú¯Ø§Ùĩ
ãģĭ ãģª
ĠÐ¾ Ñħ
Ġà´İ à´²àµįà´²
Ġà°ªà±įà°°à°Ń à±ģà°¤à±įà°µ
ĠÑĥ Ð±
ath er
ĠâĢļ Â
ÐºÐ¾ Ñŀ
ĠâĹ ı
Ġàªªàª¾àª Ľ
ĠØªØ¹Ø¯ Ø§Ø¯
Ġë¬ ´ë
Ġ×ĳ ×ŀ
à´¸ àµįâĢĮ
Ġà°ħ à°¦
åĸ Ħ
áĢ±áĢĺ áĢ¬
Ġl ong
æŃ ¦
áĢ¬áĢ¸áĢħ áĢ¯
ĠåĽ Ľ
à¤® à¥ĩà¤Ĥ
ri end
Ġà®ĩ à®²
ĠØµ Ø¯
Ġdis play
åī ¯
à±Ĩ à°ķ
ĠØ§Ø ¸
àµĨà´Ł àµģà´¤àµįà´¤
Ø¨ ÙĬØ±
Ð½Ð¾ÑģÑĤ Ð°
ĠáĥĲáĥ¦ áĥĽ
ĠØ±ÙĪ Ø´
à« ¨
Ð¸ÑĤ ÑģÑı
Ġà¦Ĩà¦® à¦°à¦¾
ç½ĳ ç»ľ
à¦¿à¦ Ĺ
g et
ê» ĺ
éĵ ģ
à´¿à´²àµĩ à´ķàµįà´ķàµį
à¤Ĥ à¤ª
U N
áĢĲáĢ¬ áĢĢáĢŃáĢ¯
ĠÙģ Ø¶
áĢĲáĢ¬ áĢķáĢ«
à¦¿à¦¨ à§įà¦¨
Ġè Ĭ
æ¿ Ģ
Øº Ø§ÙĨ
s ite
à¹Ģà¸¡ à¸·à¹Īà¸Ń
ĠÐĽ Ñİ
àµģà´ķ àµ¾
ä¸į æĺ¯
à¥ ¦
Ġà®µà®¿à® ³
Ġà¤¥ à¥ĩ
Ð» ÐµÐº
Ļàµįà´ ķ
ĠáĢĢáĢºáĢ±áĢĶ áĢ¬áĢ¹áĢ
Ġà¸Ĺ à¸³
à«ĩàª¸ à«įàªŁ
à¥ĩ à¤¨
I J
Ġ200 4
à¦¾à¦¥ à§ĩ
Ø³ Ù¾
ĠàªĨàªª à«Ģ
Ġàªª à«ģ
ĠáĢŀ áĢ¶
Ġdes ign
Ġà¤® à¤¨
ĠB r
åŁ ¹
à¹Ģà¸¥ à¹Īà¸Ļà¸
áĢŃáĢ¯ áĢĢáĢ¹
àµ º
qu e
Ð¾ÑĢ Ð¸Ð¸
Ġà®®à¯ĩ à®²
à´° à´£
éª Ĺ
Ġà°¨ à±Ģ
áĥĿáĥļ áĥĿáĥĴ
à¹Ħà¸Ķà¹ī à¸£à¸±à¸ļ
ÐµÐ½ Ð³
A d
Ġáģ Ī
ĠÑĤÐ°Ðº ÑģÐ°Ð¼Ð°
æ¥ ½
×Ĺ ×ĵ
ĠÐº ÑĥÑĢ
àª° àª¾
Ð°Ð» Ð°Ð²
0 5
ĠØ¨Ø¯ ÙĪÙĨ
Ġ7 00
ÙĪ ÙĬØ©
à¦² à§įà¦ª
Ġà®ļ à¯ĩà®°
áĥľ áĥĺ
Ñį ÑĤÐ°
Ð² Ñĭ
å®¢æĪ·ç«¯ ä¸ĭè½½
à°¿à°¨ à±įà°¨
àª°à«įàª ľ
Ġàªľ àª®
Ġæ Ł
ĠÐ· Ð½Ð°
à«ĩàª¤ àª¾
Ġà¤ķà¤° à¤¤à¥ĩ
ÑįÐ½ Ð½Ñı
ĠÐ¿ÑĢ ÐµÐ²
àªĤàª ¬
ĠÙ¾Ø± Ø¯
ĠØª Øª
ĠÐ² Ð¸Ð·
íĮ Ĳ
à«Ģàª Ŀ
Ø· ØŃ
Ð¿ ÐµÑĩ
Ġáĥ§áĥķáĥĶáĥļ áĥĲáĥĸáĥĶ
Ġ×Ľ ×ĵ×Ļ
Ġdoc ument
åĿ Ľ
à¤ ģ
àª ĺ
ĠÎ±Ïħ ÏĦÎ®
à°° à°¿à°ķ
ĠÐ½Ð°Ñĩ Ð¸Ð½
ÑĢÐ¾ ÑĪ
ubl ic
à¤ķà¥įà¤ ¸
Ð¼Ð¾ÒĽ Ð´Ð°
d f
áģ¾áĢĢ áĢĬáĢ¹áĢ·
à¤Ĥ à¤ķ
Ñĥ ÑĤÐ¸
Ġj s
ÑĨÐ¸ Ð¾Ð½
Ø¯ ÙĨ
Ġà¦ľ à¦¾à¦¤
Ġà¤° à¥Ĥà¤ª
à¯ģà®ķ à®¿à®©à¯įà®±
´ Ŀ
Ġáĥ¨áĥĶáĥ ®
ê° Ĳ
à®Ļà¯įà®ķà®³ à¯Ī
y l
åķĨ åĵģ
×¨ ×Ĺ
çĻ» éĻĨ
áĢ®áĢ¸áĢ Ľ
Ġà¦¤ à¦¾
åħ ¸
Ġí Ŀ
ĠØ¨ÛĮØ´ ØªØ±
Ġàª² àªĸ
Ġà¦¤ à¦¬à§ĩ
Ġ×ŀ× ĺ
ĠÐ¿Ð» Ð°ÑĤ
ĠØ¯ Ú¾
áĢĻáĢ¾ áĢĲáĢº
O P
Ġâ Ŀ
ĠØ®ÙĪ Ø§ÙĩØ¯
ÑĢ Ð°ÑĪ
à¸²à¸ Ń
ĠA t
ĠáĢŀ áĢ¼áĢ¬áĢ¸áĢ
ĠìľĦ íķ´
Ġà¤ķà¤° à¤£
Ð¸Ð½ Ñĭ
Ġb re
ĠÐ° Ð¿ÑĢ
ëł ¹
Ġà®ª à¯ģà®¤
ĠØ§Ø¬ ØªÙħØ§Ø¹
Ġà¦ķà¦¾à¦° à¦£
Ġ8 4
èĳ Ĺ
à¹Ģà¸ģ à¸¡
à®µ à®°
ÙħÛĮ Øª
Ø² Ø©
ĠÑģ Ð°Ðº
ÏĨ Î®
±áĢ Ļ
à¦¿à¦ ĸ
ë¦ ½
Ø³Øª Ø§ÙĨÛĮ
al ity
ç¼ ĸ
à®® à¯įà®®
à¦¨à§įà¦ ¨
Ð½ ÑĥÑĤ
ĠØ§ÙĦÙħ ÙĤ
ĠÐ·Ð´ ÑĢÐ°Ð²
ç§ĳ æĬĢ
à®¨à¯įà®¤ à¯ģ
ĠØ± Ùħ
Ð°Ð½ Ð¾Ð²
çļĦ ä¸Ģ
áĥĽ áĥĺ
ĠÐ½Ðµ Ð¿
áĥĵ áĥĶ
à«įàª ŀ
×¢ ×Ļ×Ŀ
èµĦ æºĲ
ĠIn tern
ĠØ£ÙĨ Ùĩ
ĠÐ½ Ð¾ÑĢÐ¼
à¤¿à¤ ¦
Ġàªªàª¹ à«ĭàªĤàªļ
ĠÑģÑĤ ÑĢÑĥ
ĠW eb
ÐµÐ½ Ð°ÑĤÐ°
Î¹Î¿ ÏĤ
Ð¾Ð» Ð½Ð¸
ĠÐ Ļ
ĠáĥĽ áĥľáĥĺáĥ¨áĥķáĥľáĥĶáĥļ
ĠÙĨ Ø³Ø¨
à§Ģ à¦Ĺ
à¹ĥà¸Ĭà¹ī à¸Łà¸£à¸µ
Ġà¸ ł
Ġw ik
à¸Ħ à¸³
re s
àµĢ à´¸àµį
Ġáĥ§áĥĿáĥķ áĥĶáĥļ
áĢĶáĢ¹áĢĢ áĢ¯
ĠÏĢ ÏĮ
è® ²
áĥĲáĥľ áĥĺáĥĲ
Ġà¦¸ à§ĩà¦ĩ
æĥ ł
à¯ģà® Ļà¯įà®ķ
ĠÚ¯Ø±Ùģ Øª
à¦¾à¦¨ à¦¾
Ġàªħàª¥ àªµàª¾
Ġàª¤àª°à«Ģ àªķà«ĩ
ĠÙĬ Ø§
à¯įà®¨à¯įà®¤ à¯ģ
ĠÑģÑĤÑĢ Ð°Ð½Ð¸
×© ×Ļ
áĢ³ áĢķáĢ¹
å¦Ĥ ä½ķ
Ð¾Ðº Ð¸
Ġà¦¶ à§ģà¦°à§ģ
ĠÐ± Ð»Ð°Ð³
ĠÐ¡ Ð°Ð¼
à¤¾à¤Ĥ à¤¨à¤¾
Ð¸ ÑģÐº
Ġo wn
Ģ ìĿ´
Ġdif fer
à¸±à¸Ļà¸ Ĺ
i j
áĢ¥áĢ¹áĢ ¸
Ġà®¤ à®°
åł´ åĲĪ
Ø¨ Ø¹
¹ àª¿àª¤
v ent
Ġà¤° à¤¹à¥Ģ
æĹł çłģ
áĢŀ áĢĻ
àª¾àª·à«įàªŁ à«įàª°
æĭ ħ
Ġà¦ķ à§ĩà¦¨
ĠÙħ Ú¯Ø±
Ġ= '
è® Ń
æĸ¹ éĿ¢
ĠÐłÐµÑģÐ¿ÑĥÐ±Ð»Ð¸Ðº Ð°ÑģÐ¸
à¥įà¤¯ à¤¾à¤¸
or ies
ĠÐŁ Ð°ÑĢ
w are
Ġàªħàª® à«ĩ
ÑĮ Ð²
Ġà¦ªà¦° à§įà¦¯
à®µ à®°à¯į
ëĭ¤ ëĬĶ
R E
ç» ĩ
à¦¿à¦ ı
Ġè ²
ĠÐ½ ÐµÑĢ
Ġmon th
Ġ8 00
le x
Ġáĥŀáĥł áĥĿáĥª
ĠØµ Ø¯Ø±
Ġà°ªà±Ĩ à°Łà±įà°Ł
Ġ×ĳ ×ĺ
ĠÑĩ Ð¸
ĠÎ£ Ïħ
íİ ¸
à§ģà¦ §
Ġà¸Ĺà¸Ķà¸¥à¸Ńà¸ĩ à¹ĥà¸Ĭà¹īà¸Łà¸£à¸µ
Ġà´¨ à´¿
åĪ ¤
à§Ł à§ĩà¦°
Ġà®® à®¾à®¤
Ġàªľà«ĭàªĪ àªı
ĠáĥĴáĥĲáĥľ áĥĽ
ĠÚ¯ ÙĪØ´
ĠØ¨ ÙĨÛĮ
Ø³Øª Ùħ
ÏĦ ÏģÎ±
Ïĥ Ïĩ
áĢĻ áĢŃáĢ¯
ÙĦÙĬ ÙĦ
Ø§Ø± ÛĴ
ÐĿ ÐĲ
ĠÙĤ Ø§Ø¨ÙĦ
à· ı
ì£¼ ì¶ľìŀ¥
Ġà¤ķ à¥įà¤¯à¤¾
ÎµÎ¯ Î¿
ĠÎĳ Î½Î±
à¸´ à¸¥
áĢ°áĢ¸áĢ ľ
_ l
Ð°Ð¶ Ð°
ĠÒĽ Ð¾Ð»
Ġà¦¹ à¦¿à¦¸
ĠØª Ø¨Ø¯
ê² ł
ĠÑģ ÑĥÐ¿
æĸ Ĺ
Ð¾Ð¼ Ð¸
ĠØª Ø·
Ġm uch
Ñģ Ð¸Ð¸
ĠáĥĲáĥĵáĥĴ áĥĺáĥļ
Ùģ Ø©
à´¯ àµĨ
åħ °
å ĺ
à¸£à¸ĩ à¹ģ
Ġà´ª àµģà´±
ĠÙĥØ§ÙĨ Øª
à±ģà°² à°ķà±ģ
Ñĳ ÑĤ
áģ ¶
èµ ļ
à´ķ à´¾à´°
à¦¾à¦ ī
ÙĩâĢĮ Ø§ÛĮ
ĠáĥĲáĥłáĥ ª
ĠÏĢ ÏģÏī
Ġà¸Ħ à¸§à¸²à¸¡
ķàµįà´ ·
ĠçĽ ¸
ĠáĢĽ áĢ¬
ë² Ī
ĠáĥĽáĥĿáĥ ¥
à®Ł à¯įà®ļ
ĠÙ¾ÛĮØ¯ Ø§
éŁ ©
ÎĳÎ ¡
ÏĦÎ¿ Î½
Ġd ep
Ġc lo
Ġàªīàªª àª¯à«ĭàªĹ
ĠØŃØ¶ ÙĪØ±
Ġ×© ×§
áĢĿ áĢ«
h u
Ø¬ Ø§Øª
à¤¾à¤ ³
Ð¾Ð½ Ðµ
ĠG e
àª¾àª «
a o
Ġà¦ı à¦²
ĠÑĪ ÐºÐ¾Ð»
±áĢķ áģļ
5 9
Ġex t
à¥ ħ
ĠâĨ Ĳ
ĠáĢ §
ĠØ¯ÙĪØ± Ø§ÙĨ
ro id
áĥ£áĥł áĥĲáĥĵ
à°¾à°Ł à±ģ
Ġàª¸ à«ģàª°
×Ļ×¢ ×Ķ
æĻĤ éĸĵ
ãģ£ ãģ¨
ĠÐ¶ ÐµÐ»
ÙĨ ÙĬÙĨ
at ur
é §
ç ĩ
à®µ à®°à¯įà®ķà®³
p s
ĠÑĢ Ð°ÑģÑĤ
Ġàªħ àª¸
ĠÐ Ħ
Ð¶ ÐµÐ½Ð½Ñı
ĠÑĤÐµÑħ Ð½Ð¾Ð»Ð¾Ð³
à¯Īà® ®
áĢģáĢº áĢĦáĢ¹áĢ¸
Ġå¤§åıĳ å¿«3
ĠÑħ Ð¾Ð´
Ġà¦® à§ģ
u ro
åĩ ¡
å· ®
à¸²à¸ °
Ù Į
u ck
Ñĸ Ñİ
à¥ ¤
Ñģ Ð¸Ð·
Ġà´ĩ à´Ł
ĠÂ ²
Î¿Î¹Î½ ÏīÎ½
ĠÐ°Ð´ Ð·
Ġag ain
ĠáĢĢáĢ» áĢ½áĢĶáĢº
ĠÐĿ Ð°Ð¿
Ġë Ī
åİ Ĥ
áĥĲáĥ¡ áĥĹáĥĲáĥľ
ĠÎĵ Î¹Î±
ÙĪØ¯ ÛĮ
»áĢķ áĢĬáĢ¹áĢ
Ð½ÐµÑĢ Ð³
Ġàª¥ à«ĭàª¡
å¥ ¹
à°¾à°° à°¾
Ùģ ÙĤ
Ġt ake
áĢĲáĢŃ áĢļ
Ø¹ÙĦ ÙĤ
Ø¨ Ø±ÛĮ
ĠÙħÛĮâĢĮ Ø´ÙĪØ¯
ĠÎķ Ïħ
Ġáĥ¡ áĥĻ
ĠÐĹ Ð°Ð¿
èı ľ
Ġàªªà«ĭàª¤ àª¾àª¨à«Ģ
Ø® Ø¯Ùħ
éķ ĩ
Ø² Ùħ
ĠáĢĻáĢŃ áĢĻáĢŃ
Ġàª®à«ĭàª ¦
ĠH ow
ĠØ± Ø¦ÙĬØ³
Ġáĥ¨ áĥĶáĥķ
Ġà ¬
ĠÐ³ÑĢ Ð°Ð¼
Ġ6 2
áĥĲáĥľ áĥĲ
Ġà¹Ģà¸ŀ à¸£à¸²à¸°
Ġ6 3
ĠÐ³ Ð°Ð´
áĢĨ áĢ¯áĢ¶
à¸Ĭ à¹Īà¸§à¸¢
Ġáĥ©áĥĶáĥĽ áĥĺ
Ġà®İà®© à¯į
ĠáĢ±áĢĴ áģļ
ĠÐĵ ÐµÑĢ
åĿ ĩ
Ġà¤ī à¤¤
áĢĽ áĢĦáĢ¹áĢ
Î»Î¿ Î¹
ĠP ublished
ĠØ§ÙĦ Ø¢
ĠÐĲ Ñģ
à¤² à¥įà¤¯à¤¾
ĠáĢĽ áĢ²
ĠØ¨Ø²Ø± Ú¯
ĠÏĩ Ïī
áĢ¡ áĢĶ
à±Ģ à°¡
à§ĩà¦² à§ĩ
à¹Ħ à¸ĭ
à¹Ģà¸ŀ à¸´à¹Īà¸¡
ut ion
ĠÑĩÐµÑĢ ÐµÐ·
ĠÏĦ Îµ
Î¼ Î¼Î±
Ø® Ø¯Ø§Ùħ
Ø¬ Ø§Ø¯
Ġå¤ ĸ
áģ Ĭ
à¹Ģà¸« à¸¥
Ġà®ļ à®¨à¯įà®¤
Ġe ach
áĥĿáĥ¤ áĥļ
Ġåį ģ
Ġàªµàª¿àª ¸
Ġà¹Ģà¸¡ à¸·à¹Īà¸Ń
áĢĻáĢº áĢ¸áĢ
Ġà¦¤à¦¾à¦° à¦¾
ĠÐ¼Ð¾Ð¶ ÐµÑĤÐµ
Ġ: )
à¯Ĥ à®°
ĠÙħ Ø¨Ø§Ø±
Ġsh are
ĠæĽ ´
Ø± Ø§ÙĨÛĮ
B C
àµĬà´° àµģ
ĠÐ½ Ð¾Ñģ
ÙĬÙĦ Ø©
åĨħ å®¹
ãģķãĤĮ ãģ¦
à®² à®¿à®²à¯į
Ġà¤Ĩ à¤µ
ĠÐĿ Ð¸Ðº
ĠÏĢÎ¿Î» Î¹
Ġáģ İ
Ġé ©
Ġáĥ© áĥĲáĥĽ
çµ Ĳ
æī ¾
ĠØ± Ø¶
ÙĦØ³ Ø·
à°¾à°· à±įà°Łà±įà°°
à®¿à®¯ à¯ĩ
ĠáĢĻ áĢ½áĢ¬
Ġà®ħ à®ªà¯įà®ª
ÚĨ Ùĩ
à´¸ àµįà´¤
Ð³ Ð»ÐµÐ´
ĠÐ´ ÑĥÑĪ
à¦ŀ à§įà¦ľ
Ø±ÛĮÚ© Ø§
ob ile
Ġå §
ĠÐ¾ ÑģÑĤÐ°Ð½
ÐĽ Ðĺ
Ġàª® àª¾àª°àª¾
Ġa p
åª Ĵ
à¸£à¸ĩà¹ģ à¸£à¸¡
p ut
à¦ķ à§ĩà¦°
ĠÐ¾Ð± ÑĬ
ì§ ĳ
äºº åĳĺ
Ġà¦ª à§ģà¦²
ĠØ§Ø³Øª Ø¹ÙħØ§ÙĦ
à¹Ģà¸£ à¹ĩ
è® ¸
ÐµÐ» Ð¾
à®ļ à¯į
åģ ·
áĥł áĥĿáĥĳ
àµĭ à´§
éĥ¨ åĪĨ
Ø¶ Ø§Ø¡
áĢļ áĢ·áĢº
àª° àª®
Ð¾Ð² Ð¸ÑĤÐµ
áĥł áĥĲáĥ¤
à±ĭ à°Ł
à¸ĸ à¸¹à¸ģ
ĠáĢĢ áĢ¯áĢŃ
ĠÐ· Ð°Ð½
à¥Ģ à¤°
à°°à±įà° ļ
à«ĭàª ³
ĠÙħ ÙĦÛĮ
ĠÎĺ Îµ
ĠØ¢ Ú¯
ĠÐ² Ð»
à¸ķ à¸´
à¸²à¸ ©
à´ķàµįà´ °
è Ĵ
Ñĩ Ð¸Ð»Ð°ÑĢ
ĠáĢ±áĢ »áĢĻ
ĠØ¹ Ø¨
Ø§Ø³ Ùħ
à¸²à¸ Ĭ
ĠÐ² Ð°Ð»
Ġ×¦ ×¨
I P
Ġà°¸ à±įà°¥
ĠÑģÑĤ ÑĢÐ°Ð½
ĠãĤ Ń
Ġà¹Ģà¸ ª
à¸Ħ à¸§
ĠÐ²Ñģ Ð¸ÑĩÐºÐ¸
è´ Ł
à°Ĺ à±įà°Ĺ
áĥ¦ áĥķ
ØŃØ¯ Ø©
ÏĦ Î®ÏĤ
áĢ¯ áĢĲáĢ¹
ä¾ Ĩ
ĠØ¨ Ø§Ø¹
Ġ6 9
Ġ ä¼ļ
å¥ Ĺ
à¹Ħ à¸Ł
ĠáĢ ¤
Ġà°İ à°¨à±įà°¨
Ġà°ªà°¾à°° à±įà°Ł
à¯Ĭ à®°
Ġ ÏĪ
ĠáĥłáĥĲáĥĽáĥĵ áĥĶáĥľ
Ø§Ø± Ø§ÙĨ
ÑģÑĤÑĢÑĥ Ðº
ĠÐ¼Ð°Ð³ Ð°Ð·
ĠÐ² ÑĤÐ¾ÑĢ
ĠÐ±ÑĬ Ð´Ðµ
Ġà¦¸ à¦¾à¦¥à§ĩ
Ġà¦¨ à§ĩà¦¤
à¹Ģ à¸£à¸²à¸
Ġà®ī à®±
ĠÎķ Î»Î»Î¬
Ø± Ø²
Ð½ ÐµÐ½Ð½Ñı
Ġcur rent
å·² ç»ı
Ġà¤®à¥Ī à¤Ĥ
Ġà¤® à¥įà¤¹
Ġin formation
áĢĶáĢº áĢ¸áĢĻ
ī ´
ĠÐ¿Ð¾ ÑģÑĤÐ°Ð²
Ġà®¤ à¯ĭ
ĠØ¯ ÙĬ
ÏĢÎ¬ ÏģÏĩ
ĠÐ° Ñŀ
çĶ £
ĠãĤ Ĵ
ĠT V
b o
Ġàª¸ àªª
ĠÎ¿ Î¹ÎºÎ¿
ĠáĢ¡áĢľ áĢ¯áĢķáĢ¹áĢ
ĠÐ§ ÐµÑĢ
áĢ¡ áĢľ
à®¿à®¯ à®¿à®©à¯į
à´¿à´ļàµįà´ļ à´¤àµį
Ð°Ñħ Ð°
ĠÙĪÙĩ ÙĪ
Ð¸Ð½ Ðµ
Ġàªı àª¸
ĠÙĩ Ø¯
Ġà¦¹à¦ļ à§įà¦Ľà§ĩ
à±ĩ à°²
0 7
ĠÙĦ ÙĥÙĨ
ÑĥÑİ ÑĤÑĮ
Ġà®ª à¯ĩà®ļ
ĠÎł Îµ
ĠáĥĵáĥĲáĥ £áĥ
Ġà®ķ à®¿à®Ł
ĠF l
çľŁ çļĦ
à¥ĩà¤Ĥ à¤¦
áĢŀ áĢŃáĢ¯áĤĶ
æ¹ ¾
ãģĿ ãģĨ
ľ áĢ¯áĢķáĢ¹áĢ
æĶ »
Ø¨ÙĬ Ø¹
ĠáĥĵáĥĲáĥ ĳ
Ġàªª à«ģàª°
Ġà¤¦ à¥įà¤µ
ë©´ ìĦľ
ÛĮÚ© ÛĮ
çº¿ ä¸Ĭ
à¤Ĥà¤¤ à¥įà¤°à¥Ģ
ĠÏĦ ÎŃ
ĠÎºÎ± Î»
Ġl ife
åŃ ©
Ġ7 2
àµĩà´° à´³
ÒĽ ÑĤÐ¸
E O
Ġàªħ àªĤàªĹ
Ġ: -
Ġà´ĩ à´µ
Ġval ue
áĥĺáĥ ¬
Ð»Ð°ÑĢÐ¸ Ð³Ð°
Ð¾Ð² Ð°Ð½Ð¸
Ð Ī
ĠÐļ Ð¸
Ð½ ÑĥÐ²Ð°ÑļÐµ
Ġà¤ªà¤¹ à¤²à¥ĩ
Ġà´¶ àµįà´°
ĠÐºÐ¾ ÑıÑĤÐ¾
Ð°ÑĨ ÑĸÑı
Ð°Ð¹ ÑĤ
àµĭ à´²
ĠÑĤ ÑĥÑĪ
ÙĨ Ø§Ø¡
ĠØ¹ Ú©Ø³
ãĥĥ ãĥī
æį ¢
à¤ Ĩ
Ġb usiness
ê· ¼
ĠÐ´ Ð¾Ð·
ãĤ Ģ
ĠÐ° Ñħ
Ð½Ð¸ ÐºÑĸÐ²
Ġê²½ ìļ°
ĠàªĹàª¯ à«ĭ
ÑĢ Ñı
Ïĥ ÏĦÎ¬
áĢ±áĢ¸áĢ Ĳ
àª¨ àª¾àª°
èĦ ĳ
ç· ļ
å± Ĭ
×ķ×ľ ×Ļ×Ŀ
Ñį Ñģ
àµ¼ à´¤àµįà´¤
áĥĶáĥł áĥĶáĥ¡
Ġà¤¨ à¤¾à¤¹à¥Ģ
ĠÑħ Ð¸Ð·
ç½ĳ _
ĠØ§Ø·ÙĦ Ø§Ø¹Ø§Øª
à¯Īà®ķà¯įà®ķ à¯ģ
ap er
áĢĳ áĢĻ
Ġç µ
ĠÑĦ Ð¸Ð»
Ġàª°àª¹ à«ĩ
ç´ Ħ
Ġåı °
Ġà®ħ à®²à¯įà®²
à±ģà°Ĥà° ¡
ĠØ´ ÙĪ
ĠÐ³ Ð¾Ð²Ð¾ÑĢ
at or
Ġà¦¸ à¦¦
Ġ9 6
ĠáĢĽ áĢ¾
Ġà®Ĩ à®°
ĠØ£ Ø®
ĠÖ ²
Ġà°¨à±ģà°Ĥà° ¡à°¿
áĢĸáĢ¼ áĢ²áĤĶ
à¸Ħ à¸·à¸Ń
à¸ªà¸Ķ à¸ĩ
ĠÙĪØ§ØŃ Ø¯
Ñĥ Ò³
ä¹ ¡
áĢ° áĢ¸áĢ±áĢ
Ġà¤ķà¥ĭ à¤Ī
ĠÑĥ Ð»
Ġáĥ Ł
ĠØ£ Ùģ
ĠÐ¼ ÐµÐ±
_ id
à¸ķ à¸¸
à¸ª à¸Ļ
ĠâĢ Į
Ġpre s
ëª ©
àª¨à«įàª ®
ĠÑĩ ÐµÐ¼
ä¸ Ķ
ĠC ont
áĥĶáĥł áĥĲ
à®Ł à¯į
ĠÙ¾ ÙĪØ±
à«ģàª ·
Ġf r
æ ĩ
Ġs ystem
áĢģáĢº áĢĢáĢ¹áĢ
áĥĿ áĥĲ
ĠçĶ ¨
Ġå® ¶
Ġãģĵ ãĤĮ
Ġà¤Ĺ à¤Ī
Ġæı Ĳ
ĠÐĴ Ð°Ñģ
ÑĨ ÑĭÑı
Ġà°ķà±ĭ à°¸à°Ĥ
Ġàª¤ àª¥àª¾
ĠÚ¯ Ú¾
ĠãĢ Ĺ
ĠE d
Ġà°¨ à°¾
Ñ Ł
àµĨà´Ļàµįà´ķ à´¿à´²àµģà´Ĥ
à¸¥ à¸²à¸¢
Ġë¬ ¼
ĠèĢ ģ
Ġå¹ ´
à´¯ à´¿àµ½
Ġàªµ àªļà«įàªļ
Ø§Ùħ Ø§Øª
Ġà¤ķà¤° à¥ĩà¤Ĥ
ĠáĢĢ áĢ¬
Ġà°Ĩ à°°
ĠÚ© ÙĦÛĮ
ĠÑį Ð»ÐµÐºÑĤ
ÛĮÙĨ Ùĩ
Ð¾Ð± Ð¸
å° Ħ
ĠØŃ Øµ
äº¤ æµģ
ĠÐĿ Ð°Ð²
ĠÎµ Î¹
ĠØ¢ ÛĮ
Ġ áŀ
à±ĭ à°¦
Ġãĥ ª
Ġg ener
Ġà¹Ģà¸ĩ à¸´à¸Ļà¸
Ġbet 365
ç§ »
Ð½Ñĸ ÐºÑĸ
×Ļ×ķ×ª ×¨
Ð· Ñı
à¦¨à§įà¦¤à§įà¦° à§Ģ
ĠØ¨ ÙĬ
Ġc r
à® ľ
à¦¥ à¦®
à¸ª à¸µ
Ġáĥ¡ áĥ£áĥļ
ĠÐ¿ÑĢ Ð¸Ð´
Ġà¤µ à¤¿à¤ķ
áĥĶáĥĳáĥĺáĥ¡ áĥĲ
à¸ªà¸£ à¹īà¸²à¸ĩ
ê² °
à¦¾à¦° à§įà¦¥
Ġàªķàª° à«įàª¯à«ģàªĤ
Ġàª¤àª° àª«
ĠÙħÛĮ ÙĦÛĮ
à¹ģ à¸ŀ
×Ļ×ŀ ×Ķ
Ð½Ð°Ñģ ÑĨÑĮ
Ġæ¬ §ç¾İ
Ġáĥ©áĥķáĥĶáĥľ áĥĺ
Ġãĥ ©
Ġà¸§ à¸±à¸Ļ
ĠB ut
Ġàª¤à«ĩàª® àª£à«ĩ
ĠÚĨ ÛĮØ²
àµįà´ ¨
Ġà¤ľà¤¾à¤¤ à¤¾
ĠÐ½Ðµ Ð³Ð¾Ð²
Ġà¦¸ à¦Ń
Ø² Ø§ÙĨ
áĢķ áĢ¯áĢ¶
ĠáĢĲ áĢĢ
×ĳ×¨ ×Ķ
ĠØ´ Ø§Ûģ
ĠÐĳ ÐµÐ»
ĠÐ´ ÐµÐ½ÑĮ
Ġà®ħà®µ à®°à¯įà®ķà®³
ãĥĨ ãĤ£
ĠéĩįåºĨ æĹ¶æĹ¶å½©
ĠÙ¾ÛģÙĨ ÚĨ
×ĺ ×Ļ
ĠçĻ¾ å®¶ä¹Ĳ
Ġà°¸ à±įà°Ł
ĠÏĥ Î¿Ïħ
Ġd id
à°° à°Ĥ
ãĥ³ãĤ ¿
áĥĺáĥľ áĥĴ
ÑģÐ¿ Ð¾ÑĢÑĤ
Ġáĥ¡áĥĲáĥĻ áĥ£áĥĹ
ĠáĢ ¸
Ġm ade
áĥĲáĥ¢ áĥĺ
áĢķáĢ¼ áĢ®áĢ¸áĢ
Ġà¸£ à¸µ
Ġàª¹ àª¾àª¥
à¦¾à¦ Ń
ur ch
um m
ĠÚ©ÛĮ Ø³
ìĸ ¸
Ġà°ķ à°¾à°²
ĠD es
à¸Ĺà¸³ à¹ĥà¸«à¹ī
Ġ×ĵ ×ĳ×¨
ãĤĭ ãģ¨
ĠÚ¯ Ú¾Ø±
à¥ĩ à¤ķ
Ì ģ
Ġà¨ ķ
à°¾à° ļ
ĠI P
Ùģ Ùĩ
h or
Î½Î¿ ÏĤ
à®ªà¯įà®ªà®Ł à®¿
Ð°ÑĨ ÑĸÐ¹
ĠàªĨàªµ à«įàª¯à«ĭ
ĠÙĦ Ùĥ
Ú¯ Ø±Ø¯
ÑĥÒĽ ÑĥÒĽ
Ġà¦¬ à¦¿à¦°
åģ ľ
×ķ×¨ ×Ļ
Î¸ Î½
ĠÙĬ ÙĥÙĪÙĨ
Ġà¦ķ à¦²
i eld
Ġàª² à«Ģàª§
ĠØ¹ ÙĤ
×Ļ×ª ×Ķ
Ð»Ñı Ñİ
ĠáĢŀáĢ° áĢĲáĢŃáĢ¯áĤĶ
ļ áĢ¬
êµŃ ìĿ¸
© ëĭĪëĭ¤
l i
Ġáĥ£áĥĻ áĥķáĥĶ
Ġà®ļ à®°
ĠØ¹ÙĪ Ø§Ùħ
¥ áĢ®áĢ¸áĢ
l ic
ê² ĥ
ĠÑĤ Ð°Ð²
èķ ī
àª ¢
Ġà´¸ à´¹
Ġ×Ĺ ×Ļ
ord er
Ġà§ §
Ö ¹
ĠÑĪ ÑĥÐ´Ð°
Ġh ref
áĤıáĢ½ áĢĦáĢ·áĢ¹
æĥħ åĨµ
à®¿à®ķà¯įà®ķ à¯ģ
à¤ļ à¥įà¤¯à¤¾
ĠØ¨ ÙĤ
ĠÐ¼Ñĸ Ð¶
ĠÐ· Ð±Ð¾ÑĢ
Ïĩ Î±Î½
áģ »
à¸ĭ à¸·à¹īà¸Ń
ĠÑģ Ð°ÑĢ
ĠÐ´ ÐµÐ¿
à®± à¯ģ
áĢ±áĢķ áĢ¸áĢ
Ð³ Ñĥ
ĠÂ ¬
ãģ¡ ãĤĥ
Ġ( ).
ãĥ» ãĥ»
Ø§Ø³ Ø©
èĽ ĭ
Ġà¦ªà§įà¦° à¦¶
ĠØ· ÙĦØ¨
Ġà°ļ à°¿à°¤à±įà°°
Ġ×ľ×Ĳ ×Ĺ×¨
ĠÑŀ ÒĽ
à¸Ķ à¸±à¸ļ
à´ķàµįà´ķ à´¾à´°
ĠáĢĶ áĢŃáĢ¯áĢĦáĢºáĢĦáĢ¶
Ġ×ĳ ×Ļ
à¸ļ à¸Ļ
Ġàª² à«ĩàªµ
áģ ħ
à±Ĩ à°Ĥà°Ł
b e
ĠáĥĻáĥĺáĥĵ áĥĶáĥķ
Ļ à¯įà®ķà®³à¯į
à°¿à° ¡
Ð½Ð¸ ÑĨÐ°
ĠáĢŀ áĢĦáĢº
ĠÐ¡ÐºÐ¾Ð¿ ÑĺÐµ
ÙĪÙĦ Ø©
Ġà§§à§ ¦
Ð½Ð¾ Ñİ
æĸĻ çĦ¡æĸĻ
å®ĺæĸ¹ ä¸ĭè½½
Ġáĥ« áĥĲáĥļ
ÐµÐ¼ Ðµ
à±Ĥà° ¨
Ġcl ick
áĢ¸áĢĢ áĢ»
à¸§ à¸Ķ
Ñĵ Ñĥ
ĠÙħ ÙĪÙĦ
à¤Ĥ à¤ľ
à¤°à¥įà¤ ľ
×¤ ×Ļ×Ŀ
ĠĈ Ĉ
ÑĢÐ¾ Ñĺ
Ð°Ñĩ Ð¸
ĠØ« Ùħ
Ġàª® àª¾àª¤à«įàª°
Ð½Ð¸ ÑıÑĤ
ĠáĥĲáĥ ŀ
Ġà´ķ àµĩà´°à´³
áĥķ áĥļáĥĺáĥ¡
ĠãĢĤ ï¼Į
Ġà¦ªà§ģà¦² à¦¿à¦¶
Ġ×©×ľ ×Ĳ
ĠÐ¾Ð² Ð¾Ñĺ
Ð¸ Ð¾ÑĤ
äºĨ ä¸Ģ
Ð³ÑĢ Ð°Ð´
ĠáĢ»áĢķ áĢ³
àªµàª¾àª¨ àª¾
Ð°Ð¶ Ðµ
Ġ8 1
Ð°Ñģ ÑĨÑĮ
ĠÐ¾ Ð¿ÑĢÐµÐ´
ĠÐµ Ð²
Ġãĥ ĳ
I G
à¯Īà®¯ à®¾à®ķ
Ġê° Ħ
Ġæ Ĥ
Ġl ove
áĢĦáĢºáĢ¸áĢ ŀ
Ġà¦Ĩ à¦Ľà§ĩ
áĢĶ áĢ±
Ġà´¨à´¿à´° àµįâĢį
Ġàªµ àª¿àª°
Ġdetail s
Ġãĥ Ī
Ġà´µ à´¿
Ġàªļ àª¾àª°
à±ģà° ļ
5 4
Ġà´ķ à´°
Ġçľ ĭ
à¯ĩ à®¯
ĠÐ¼ ÑĥÐ¼
ç ĳ
à¸ļà¸£à¸´ à¸ģà¸²à¸£
ć ï¼Į
áĢŃáĢ¯áĢĦáĢº áĢ¸
Ġå± ±
àµģà´¤ à´¿à´¯
ĠáĥĲáĥ ĸ
Ġà°ħ à°¤
Ġà¤¬ à¥Ģ
Ġ×ķ ×ł
à¤°à¥įà¤ Ł
Ø§ÙĨ Øª
Ð¾ÑĢ Ð¾Ð½
ĠÐ¾Ð± Ñĺ
ĠÐ±Ñĭ Ð»Ð°
Ú¯ÛĮ Ø±ÛĮ
ĠÑĦ ÑĥÑĤ
ĠÐ¿ÑĢ Ð¸ÑĢ
Ġop en
à¸ļ à¸¸
×ķ×ľ ×Ļ
Ø´ Ùģ
ĠØ§ÛĮÙĨ Ú©Ùĩ
ÑĨ Ñİ
T ype
Ġ es
Ġà¤¸ à¤¹
Ġêµ °
ĠàªĨàªª àª£à«ĩ
ÙĦ Ø§Ø³
à±ģà°ķ à±Ĭ
Ú© Ø±Ø¯
ind i
à°° à°¿
à¸²à¸ªà¸´ à¹Ĥà¸Ļ
ÙĪ Úĳ
ÙĦ Ø¹
ä»¥ ä¸Ĭ
Ð°Ð² Ð°Ð´
àµĭà´Ł àµĨ
ĠÐ²ÑĸÐ´ Ð¿Ð¾Ð²ÑĸÐ´
o z
Ġà¤ħ à¤²
ĠØ¨Ø³ÛĮ Ø§Ø±
à´¿à´ķàµįà´ķàµģà´¨àµįà´¨ à´¤
à®Ļà¯įà®ķà®³ à®¿à®²à¯į
ĠÏĢ ÏģÎŃÏĢÎµÎ¹
Î §
Ġ×¢ ×ķ×ĵ
Ú© Ø§Ø±ÛĮ
ĠáĢ¡ áĢĵ
ĠI N
áĢĦáĢ¹áĢ¸ áĢķ
P age
Ġà®ªà®¾à®° à¯įà®¤à¯įà®¤
±áĢ ķáĢ«
ãĤ ¶
ĠáĥĵáĥĲáĥ Ĵ
Ġ ä¿Ŀ
àª° àª¨à«Ģ
Î»Î¿ Ïį
ê¸ Ģ
ĠA ir
Ġ8 7
àµģà´ķ àµĬ
ëĬĶ ëį°
áĥĲáĥ¡ áĥ£áĥ®
Ġà´ħ à´Ń
ĠØ§ÙĦÙħ Ø±
ĠÐ¼Ð°ÑĬ Ð»ÑĥÐ¼
Ġà®®à¯ģà®© à¯įà®©
à¸±à¸ķ à¸´
çļĦ äºº
à±ĩà° ¯
à±ģà°² à°¨à±ģ
áĢĻ áĢ°
à¹Ģà¸Ľ à¸¥
à¶ º
I M
ĠÙħØŃ ØµÙĪÙĦ
ĠÐ¿ Ð°Ð¿
áĥ®áĥķ áĥĲ
à© °
Ġé¦ Ļ
×ķ×¨ ×ª
ĠÙĨ ÙĪØ±
Îº Î»Î·
Ġ×ª ×§
áĥ¡ áĥĲáĥª
Ġç¦ ı
Ġáĥĳ áĥĶáĥķ
Ġ ir
à´° àµĨ
ÙĨ Ù¹
Ġà®ªà¯ĭ à®²
Ġde velop
ĠÙħØ¯ ÙĦ
à¦¤ à¦¾à¦°
ip s
Ġäºļæ¸¸ åĽ½éĻħ
ĠÐºÐ°Ð¼ Ð¿
è®¾ è®¡
Ġà ·
Ġà´ªà´±à´ŀàµįà´ŀ àµģ
ĠÑģ Ð°Ð²
Ġàª¦ à«ĩàªµ
Ġàª¤àª® àª¾àª°à«Ģ
à°°à±įà° ª
ĠÙħÙĨ Øµ
Ð¸Ðº Ð°Ð½
Ġà´¸ à´¿
à¥ĭ à¤¨
ÏģÎ± Îº
ĠØªÙĨ Ø¸
ĠÐ¼ ÑĥÑģ
Ġæ ¢
ë ¨
ĠÚĨ ÛĮÙĨ
M T
à¦¬ à¦°
Ġà´İ à´Ĥ
Ġàªµàªļà«įàªļ à«ĩ
ÐµÐ½ ÐºÐ¾
Ġ... ..
à¸«à¸¥ à¸²à¸¢
àµĭà´Ł àµį
ĠØ³ Ø±Ùħ
ĠáĥĽ áĥĺáĥľ
ĠáĥĴáĥĲáĥľ áĥª
Ġà¸ ¨
5 3
ĠC ent
à¸¶à¸ģ à¸©
áĥ¢ áĥł
à¸«à¸¡ à¸Ķ
ÑĨÑĤ Ð²Ð°
ª áĥ®
ĠÐ·Ð°Ð¿ Ð¾Ñĩ
Ùİ Ø¨
ĠÐ¿ÐµÑĢ ÐµÐ²
à¥ĩ à¤®
Ġ ãģĦ
è¾ ¼
å¿ ľ
ĠØ§ÙĦ Ø§Øª
Ġë ĳĲ
Ġà°¤ à°°
Ø§Ø³ ÙĬ
Ġà« «
áĥķ áĥĶáĥĵ
Ġàªµ àª¡
à¸Ī à¸£à¸´à¸ĩ
Ó¯ Ð·
ĠØ®ÙĪØ¯ Ø±ÙĪ
Ð İ
Ø² ÙĬ
ĠÙģ Ø¥
à«ĩàª¨à«įàª ¡
áĥĲáĥļ áĥĲáĥ¥
Ġbec ause
ĠÐļ Ð°ÑĤ
Ġ×ĳ ×ľ
Ð°ÑĪ ÑĤ
à°¾à°¨ à°¿
è³ ª
ìĺ ¨
ãĤĵ ãģ§
Ġà¦ªà§įà¦° à¦¥à¦®
ĠàªĹ àªĪ
ĠìĥĿ ê°ģ
Ġáĥ¨ áĥĶáĥĴ
Ġàªĸà«Ĥ àª¬
ĠÙĪ ÙģÙĬ
è£ ½
à¸¸ à¹Īà¸¡
à¤µ à¤¾à¤°
Îº Î·
à°¾à° Ĥ
Ú¯ ÛĮØ±
ìĽ Į
à®¿à® ¸
áĥĺáĥļáĥĺ áĥĲ
ĠØªØŃ ÙĤÛĮ
Î¼Îµ Î½
ĠÑĢ ÑĥÐº
ĠC he
Ġàªª àª¾àª£à«Ģ
ĠØ¹Ø¨Ø¯ Ø§ÙĦ
à¸Ľà¸£à¸° à¹Ģà¸Ĺà¸¨
ĠÑģ ÐµÐ´
Ġ() {
ĠÎ¼Îµ ÏĦÎ¬
Ġà®ĩ à®±
ĠáĥĽáĥĺáĥ ¦
áĢ¡ áĢĲáĢ½áĢĢáĢº
ĠÐ± Ð°Ð³
àª¾àªľ àªª
Ġáĥĵ áĥĶáĥĵ
Ø§Ø¬ Ùĩ
Ġà¤® à¥ģ
Ġ×ľ×Ķ ×Ļ×ķ×ª
à¤°à¥įà¤ ¥
ur s
Ġà´µ àµĪ
à¦² à¦¾
Ð¾Ð» Ð¾Ð²
Ġà¦ķ à§įà¦°
ĠÐ°ÑĢ Ñħ
æĻ ļ
à¹ģ à¸¡
A B
åº ĵ
Î¼ÎŃ Î½Î·
Ø§Ù ¹
Ġà´ª àµĨ
åĪ© çĶ¨
áĢ¬áĢ¸áĢŀ áĢĬáĢ¹
ĠØ¯ÙĪÙĦ Øª
íĿ ¥
Ġàª¦ àª°à«įàª
åķ ª
à§ģà¦ ľ
ĠÐµ Ð»ÐµÐºÑĤ
â Ļ
Ġà¦ªà¦¾à¦° à§ĩ
ĠØ¯ Ø§Ø¯Ùĩ
à§ĩà¦¬ à§ĩ
à¤° à¤£
ëĵ¤ ìĿĺ
à®¿à®°à¯ģà®¨à¯įà®¤ à¯ģ
ÑģÑĤ Ð°Ñŀ
ĠØ§ÙĨØª Ø¸
ÑĥÑİ Ñī
Ø®Ø± Ùī
iz ed
è¿Ļ ä¸ª
áĢŃáĢ¯áĢľ áĢ¹áĢ
ĠÑŀÑĤ ÐºÐ°Ð·
àª¾àª³ àª¾
Ð¸Ð´ ÐµÐ½ÑĤ
ĠáĥĴ áĥĸ
áĢĽáĢŃ áĢĢ
èª ¿
áĥľ áĥĺáĥ¨áĥľ
Ġàªħ àªĤàª¤
ë³ µ
ç» Ĩ
Ñĥ ÐµÑĤ
ĠáĢĽ áĢĶáĢ¹áĢĢáĢ¯
Ġà¦¬ à¦¾à§ľ
ĠÑģÑĤ ÑĢÐ°Ð½Ð°
ĠÐ´ ÐµÐ²
ÑĨ Ñĳ
ĠÐ±Ñĭ Ñŀ
ĠáĢ¡ áĢĻáĢ½
ĠÐ² ÑĸÐ½
åŁİ å¸Ĥ
áĥĶáĥĳ áĥĹáĥĲáĥľ
à¸ŀà¸Ļ à¸±à¸Ļà¸
æĤ ¨
ĠP ol
Ġ9 1
àª¤ à«įàªµ
Ġáĥĺáĥ¥ áĥľáĥĶáĥĳáĥĲ
Ġà¦Ĺ à¦¤
Ġche ck
m ar
Ùĩ ÙĲ
ÙĦ ÙĬØ©
ÑĥÐ² ÑĩÐ¸
ÑģÑĮ ÐºÑĸ
à¸²à¸ģ à¸²à¸£
à®¿à®¯ à®²à¯į
Ġà¦¸ à§ĩ
ĠÐ´ ÐµÐ¼
ÐµÐº ÑĤÐ¸
ĠØ§ÙĤ Ø¯Ø§Ùħ
à°¾à°Ĥà° Ĺ
àªķ àª¾
ĠØ¨ Øº
Ġpro f
Û İ
ĠØŃ ÙĪØ§ÙĦ
à±Ģ à°ķ
ĠàªŃ àª°
ĠØ³Ùħ Ø¬
áĥĶáĥł áĥĺáĥ¡
è¡ £
Ġ200 3
Ġà®® à®¤
áģ Ī
áĥĶáĥĹ áĥĲ
ĵ °
ĠÑĤ Ð¾Ð·Ð¸
Ġ×ķ ×Ĺ
ĠÐ± Ñİ
ĠS T
Øª ÙĩØ§
à°¾à°ķ à±ģ
ĠÑģ ÑĥÐ±
Ð² ÑĬÑĢ
íĻ ©
C H
çİ© æ³ķ
à¤ļà¥įà¤ Ľ
h y
Ġà¦¤ à¦¾à¦ģ
Ġth ink
Ġà¤Ĺ à¥įà¤°
Ġà°µà°¿à° µ
Ġu0 9
ĠÂ §
Ġus ed
è ¿½
ĠìķĦ ëĭĪ
Ġ×ķ ×ª
Ġéķ ¿
Ġà°ªà±įà°° à°ķ
ĠÏĢ Î»Î·
æį ķ
áĥĶáĥĳáĥļ áĥĲáĥĵ
à®¿à®ķà¯įà®ķ à¯ģà®®à¯į
æ¯ į
ĠØ¬Ùħ ÙĬØ¹
Ġ×Ļ ×¦
ê³ ³
à¸Ļ à¸²à¸Ķ
ÑĸÐ» Ð°
Ð¾Ð± Ñī
Ġà´¨ à´¿à´¯
Ġàª¯ à«ĭàªľ
ĠD r
ç¨ İ
áĥĲáĥłáĥ ļ
Ð «
ĠØ³Ø§Ø² ÙħØ§ÙĨ
áĥłáĥ ª
ĠÐ¿ÐµÑĢ Ð¸
ĠÐ¼ Ð°ÑģÑĤ
ĠÐ² ÐµÑĩ
Øª Ø±ÛĮ
à¯įà®ļ à¯įà®ļ
_ p
áĢŃ áĢħáģ¥
Ġç Ĳ
Ġå· ¥
æĮ Ĥ
à±ĭ à°¡
ĠÐĴ Ð¸
ĠÐ¡ Ð»ÐµÐ´
ÑĪ Ð°
à¤Ł à¥Ģ
Ġáĥ¡áĥĲáĥĸ áĥĿáĥĴ
æ¬ §
Ð± ÐµÑĢ
à¹Ģà¸ķ à¸Ńà¸£à¹Į
à¯įà®¸ à¯į
ĠáĢ¡ áĢĨáĢŃáĢ¯
åį «
ĠÑĤÐ¾ Ñĺ
Ġé» Ħ
ĠØ£ Ø¹
à¸ķ à¸¥
Î¼ Î¿Ïħ
ĠÐ²Ñĭ Ðº
Ġç§ ģ
Ġà¤ķ à¥įà¤·
ĠØ§ÙĦØ³ Ø¹ÙĪØ¯
ĠÙ¾ ÛĮØ±
Ġà°ī à°¦
ĠÂ µ
ĠÙģ ÙĪØ¬
Ġà¦īà¦ª à¦ľ
ĠçĽ ®
ĠÑı Ð½
àªļ à«įàªĽ
à±ģà° ¸à±įà°¤
±áĢ¡ áĢ¬áĢĦáĢ¹
âĢ¦ ]
¬ áĥĽ
ĠÑĤ Ð°Ð´
å® £
×§ ×¨
ĠàªķàªĤàª ª
Ġà¦ªà§įà¦°à¦ķ à¦¾à¦¶
ĠØ§ÙĦØ¹Ø±Ø¨ ÙĬØ©
Ġï º
áĢĻáĢºáĢŃáĢ³ áĢ¸áĢŀ
ģáĢ²áĢ· áĢĲáĢ²áĢ·
Ġà¨ ¸
Ġà¦¨ à¦¿à§Ł
àª¾àª¤ àª¾
ĠíĶ ¼
à¤¿à¤ §
×ķ×¦ ×Ķ
ĠáĢļ áĢ°
à®Ł à¯ģà®ķà¯įà®ķ
ÑģÐº Ð¾ÑĤÐ¾
ÑĢ ÐµÑĪ
ĠÏĢ Î¹Î¿
æĽ ²
áĢģáĢº áĢĦáĢ¹áĢ
Ġç ļ
ë¥ ĺ
à¹Ģà¸Ķ à¸µà¸¢à¸§
à´Ļàµįà´Ļà´³ àµģà´Ĥ
à´· àµįà´Ł
ĠáĥĴáĥĲáĥľ áĥķáĥĺáĥĹ
Ġáĥ§áĥķáĥĶáĥļ áĥĲáĥ¤
ĠØŃ ÙĪÙĦ
ĠØ§Ø¯ Ø§ÙħÙĩ
Ġ? ?
à±ĩà° ľ
ĠØ§Ù ĥ
ãģ ĸ
ĠÑĤÐ°Ðº Ð¾Ð¶
àµĨà´¯ à´¾à´£àµį
ãĥ¼ ãĤ¯
Ñħ Ñĥ
Ġä½ ¿
Ġo pt
ĠN ov
à§ģ à¦Ł
Ġàªªàª¹ à«ĩàª²
Ġà¤ħ à¤®
àª¨à«įàª ¨
Ð¸Ñı ÑĤÐ¸
ĠÐ° Ò³
à¸Ĺà¸µà¹Ī à¸¡à¸µ
cc ess
ģáĢº áĢ³áĢķáĢ¹áĢ
Ġs om
Ġ8 6
áĢ µ
Ġèħ ¾è®¯
Ġà°® à±ģà°Ĥà°¦
Ġà®¤ à¯ĩà®°
à¸²à¸ķ à¸´
Ð² Ñĸ
Ġà´ļ à´¿à´¤àµįà´°
Ġimport ant
ĠP o
çª ģ
ĠÐ¿ Ð¸ÑĤ
Ġà´µà´¿à´ ¦
ĠÐ¶ ÑĥÑĢ
ĠÎº Î¿
ĠØ³ Ø§Ø®Øª
ÙĪ Ø§Ø²
áĢ® áĢļ
Ġà§© à§
at est
ĠáĢ¡ áĢķ
ĠØ³ ÙĪØ±
m s
â Ĺ
ĠÑĢÐ°Ð· Ð¼
E W
ĠÐºÑŀ Ð¿
Ġà°° à°¾à°·à±įà°Łà±įà°°
arg in
ĠÙħØ¹ Ø§ÙħÙĦ
ĠÑģ Ð¾Ð´
ÏĮ ÏĦÎ·
re ad
ĠÑģ Ð¸Ð¼
-------- --------
ĠÐ¿ ÑĬÑĢ
ion al
áĢļáĢ¹áĢ ĨáĢŃáĢ¯
Ð¾Ð»ÑĮÐ· Ð¾Ð²
ĠØ§Ù ¹
Ġ×ĳ×ŀ× §
ÑĬ Ð¿
§ áĥķ
à¸ŀ à¸£à¸°
ìķ ł
ĠA ut
áĥĶáĥĳáĥĺáĥ¡ áĥĹáĥķáĥĺáĥ¡
è· Ł
Î ĺ
Ġàªķà«ĭàª ĩ
Ġàªħàª¨ à«įàª¯
Ġå¼ ł
ĠÙĨ ÙĪØ´
áĢĻáĢº áĢ¸
ł áł
ĠØ± ÙģØª
à®µ à®°à¯įà®ķà®³à¯į
à¦°à§įà¦ ķ
Ġáĥ¡áĥĲáĥ¨ áĥ£áĥĲáĥļ
Ġà¦ķ à¦¿
ĠÙĪØ³ ÙĦÙħ
Ġàªªà«įàª° à«ĩàª®
ĠØ¨Ø§Ø¹ Ø«
ĠÏĥ ÏĩÎµ
ĠØ§ÙĦØ´ Ø±
ĠÑı Ð½Ð°
à¹Ģà¸§ à¹ĩà¸ļ
O D
8 6
ĠÐ±ÑŀÐ»Ð¸ Ð±
Ġ[ âĢ¦]
åĩº æĿ¥
ÙĴ ÙĨ
áĥĲáĥłáĥĵ áĥĲ
Ø§ØŃ Ø©
Î³ ÏģÎ¬
×¤ ×Ķ
àµĤ à´°
Ġè® ©
ĠÙĪØ§ÙĦ Ø¯
ëĭ ¬
Ùĩ Ùı
Ù¾ Ø±
Ð°ÑĨÐ¸ Ð¾Ð½
ĠÑĥ Ð½
à®ķ à®°
Ġà° ĸ
ĠàªĹ àª¾àª®
Ïĩ Î¿
áĥķ áĥĺ
ÐºÐ¾ Ñİ
Ð´ Ð¸Ð¼
ĠÙħØª ÙĨ
è³ ĩ
è¦ģ æ±Ĥ
æ° ¸
Ð¼ Ð¸Ð½Ð¸
Ġà¦¶ à§ĩà¦·
áĢĶ áĢ²áĤķ
Ġàª¤à«ĩàª® àª¨à«ĩ
ĠÐ¼ÑĥÐ¼ ÐºÐ¸Ð½
Ġ9 4
ĠÐ¿ÑĢ Ð¾Ñģ
à¸« à¹Į
ą ï¼Į
Ð°Ð» Ð¾Ð³
ĠíĨ ł
æĬķ èµĦ
à´¦àµįà´¦ àµĩà´¹
Ġàªµàª¿àª¶ à«įàªµ
ĠÑģÐ¿ Ð¾ÑĢÑĤ
éĢ £
ãĥķãĤ ©
Ð°Ð¼ Ð¿
g an
à´® à´¾à´ķàµįà´ķ
ÑĤÐ¾Ð± Ñĭ
à¹Ģà¸ ĺ
ĠÐ²ÑĬ Ð²
è² »
à´ ĸ
ro om
ģáĢº áĢĢáĢ¹áĢ
åį ´
n ess
Ġáĥ¡áĥĲáĥĸáĥĿáĥĴ áĥĲáĥĵáĥĿ
Ġà®ªà¯Ĩ à®°
Ġàª¹ àªľ
ĠÐ¿ Ð°ÑģÑĤ
æĿ ±
à¥ĥ à¤¤
Î¼Î¬ ÏĦÏīÎ½
Ġà¦ĩ à¦¸à¦²
èĲ Ħ
al i
Ġæ ¥
Ġl ive
· °
ç» Ī
å¤§ çļĦ
áĥĵ áĥĺáĥ¡
àµĩ à´¾
áĢľáĢŃáĢ¯ áĢĢáĢº
à¦¬ à§ĩà¦¨
Ø§Ùħ Ø©
Ġæ¯ ı
Ġà¹ģ à¸Īà¸ģ
Ġà´¤àµģà´Ł à´Ļàµįà´Ļ
ĠÐ´ ÑĥÑħ
è¡Į ä¸ļ
ure s
ĠÑģÐ¾ Ò³
Ġà´ķ à´Ł
ĠØ³ Ø§Ø¨ÙĤ
áĥĲáĥ Ł
à¯ģà®¤ à¯į
ĠF acebook
æĿ ¯
ĠÑĤ Ð¸Ð¿
Ġf in
Ġà´Ĩ à´µ
áĢ±áĢ¸áĢ Ľ
Ġìĺ ¬
à¤§à¥įà¤¯ à¥ĩ
Ġà®® à®±
Ġàª¸ à«įàªķ
ĠÐ» Ñĥ
one y
in ce
ĠÙĨÙĪ Ø§Ø²
Ġí Ĺ
áĥĶáĥľ áĥĲ
Ġàªª àªĹ
Ġà¤¸ à¤°à¥įà¤µ
à¯Ĩ à®²à¯įà®²
Ø§Ø¦ Ùĩ
id d
Ġà¤° à¤ĸ
Ġ×ŀ×Ĺ×Ļ×¨ ×ķ×Ł
ĠØ¯Ø³Øª Ú¯Ø§Ùĩ
ĠCom ments
éĽĨåĽ¢ å®ĺç½ĳ
áĥĿáĥ¡ áĥ¢
ĠÐ¼ ÑĸÑģÑĤ
ĠÐ¸Ð¼ Ðµ
ĠÐ³ Ðĥ
æĿ Ģ
Ð ¬
Ð½ÑĸÐº Ð°Ñŀ
Ġì§ ģ
Ġàª¦ àª¿àª²
ĠØ§ÙģØ² Ø§ÛĮØ´
×Ľ ×ª
Ð¶ Ð°ÑĤ
Ġà°ª à°¦
à¥įà¤ ļ
à¥ĭ à¤§
Ġà¸ŀ à¸Ļ
Ġà°¤ à°®
Ġç Ĥ
Î³ Ïī
Ġç» ı
Ġàª¸ à«įàª¤
ĠÙħØ² ÛĮØ¯
ĠÙħØ³ ÙĦÙħØ§ÙĨ
à°¿à°Ĥà°ļ à±ĩ
ÎŁÎ Ľ
ĠØ¢ Ø¬
Ġáĥ¨áĥĶáĥĵ áĥĶáĥĴ
Ġà¤® à¤¾à¤°
àµĭ à´°àµįâĢį
áĢľ áĢĬáĢº
f l
×Ĵ ×ľ
ãĤ¤ ãĥ³
us ic
Ġè ·
Ġå¦Ĥ æŀľ
Ġà´® à´±àµįà´±
à¸Ĺà¸µà¹Ī à¸Īà¸°
Ġé ¡
Ġæ ģ
à±Ĩ à°°
ĠáĥłáĥĿáĥĽ áĥļáĥĶáĥĳ
ĠÏĢ Î¬Î½
ĠE 0
Ġà´° à´£àµįà´Ł
Ġà¦Ĩ à¦¦
±áĢķ áĢ¸áĢ
Ġå¥ ³
ĠÐ½Ðµ Ð±
ĠÑģÐ² Ð¾Ñĺ
ĠØ§ÙĦÙħ Ø¤
Ġw r
èį ¯
à°¿à°¯ à°¾
Ġ< /
ĠÙħØ´ Ø§Ùĩ
Ġ6 1
Ġà¦¸ à¦ķ
áĥĸ áĥĲáĥĵ
Ġåľ¨ çº¿
Ġà´Ĩ à´¯
Ġà°ļà°¾à°² à°¾
Ġchild ren
ĠÐ¿ÑĢÐ¾ÑģÑĤ Ð¾
ĠÐ¼ Ð°
ĠáĢ±áĢĢ áĢ¬áĢĦáĢ¹áĢ¸
ĠÐº ÐµÑĤ
5 1
Ġà´° àµĤà´ª
ĠÐļ Ð¾Ð»
Ġà¤¸ à¥įà¤Ł
Ġà¤ľ à¤¾à¤ı
Ġà®ªà¯Ĩ à®±à¯įà®±
à¸· à¹īà¸Ļà¸
er g
ĠÐ¿Ð°ÑĢ ÑĤÐ¸
Ġæ Ĳ
Ġàª¬à«ĩàª ł
ĠÐ» ÑĸÑĤ
ĠãĤ Ĥ
Ġà´ķà´´ à´¿à´ŀàµįà´ŀ
Ġàª¥ àª¶à«ĩ
ĠÐ±ÑĥÐ´ ÐµÑĤ
à© ĭ
Ð¿ Ð°ÑĢ
Ġà¤ķà¤¿à¤¸ à¥Ģ
ÙĨ Ùī
ĠÐ¾ ÑĪÐ¸ÑĢ
à¤¾à¤² à¤¯
ĠM e
Ðº Ð°Ð²
ä½ Ļ
Ġà¤ħà¤ª à¤¨à¥Ģ
7 1
áĢĳ áĢ¬áĢ¸
×Ļ×Ķ ×Ŀ
èĪ ¬
à¨ ¤
à¸£à¸¹ à¸Ľ
Î» Ïī
Ġå® ŀ
ãģı ãģł
à¸Ĥ à¹īà¸Ń
áĢ±áĢ¡ áĢ¬áĢĦáĢ¹
à±ĩ à°Ĥà°¦à±įà°°
à¦¾à¦ ł
ĠÙħØ³ ÙĦÙħ
áĢ½ áĢļáĢº
×Ļ×ª ×Ļ
ĠáĢļ áĢģáĢ¯
Ġç§ Ĵ
Ú¯ Ø°
ĠâĢ ¡
Ġáĥł áĥĶáĥĴ
Ġà´® à´¤
à¹īà¸Ńà¸¡ à¸¹à¸¥
ĠáĢ¡ áĢ±áĢ»áĢģ
_ n
Ġse lect
à´¿à´ķàµįà´ķ à´¾à´¨àµįâĢį
ĠØ§ÙĨØ¯ Ø§Ø²
ĠÑĩ ÑĥÐ²
ri p
Ġàª¥àª¯ à«ĭ
à¸ Ĳ
à«ģàª ¬
ĠÙĨ Ø±Ùħ
ĠàªĨ àª¶
ĠÙĨ ÙĤÙĦ
éļ Ľ
ĠØ³ Ø·ØŃ
ĠÚ© ÙĪØ¯
à¸«à¸Ļ à¹īà¸²à¸
ÐµÐ½ Ð·
Ġáĥĵ áĥłáĥĿ
Ġàªľ àªĹ
ëį Ķ
Î´ Î¹Î¬
ĠÙģ ÙĦ
Ð¢ Ðŀ
Ñģ Ð¸Ð¼
áĢ¼ áĢĲáĢ¹áĢ
ĠÐ° ÑĦ
×ĳ×ķ×ĵ ×Ķ
à«ģàª ĵ
ĠØ£Ùĥ Ø«Ø±
ĠåĮ Ĺ
Ġà¦¨à¦¿à¦°à§įà¦¬ à¦¾à¦ļ
ĠÐ¼Ð¾Ð¼ ÐµÐ½ÑĤ
ĠÎ¼ Î·
Î½ Î¹Î±
Ġàª¬ àªĤàª§
Ġle ad
Ð¸ÑĤÐµÐ» Ð½Ð¾
ą ĆĈ
à®¾à®£ à¯įà®Ł
×ĵ ×ķ×ª
Ġà®ħ à®£
Ġàªµ àª¿àªµ
Ġáĥª áĥĶáĥľáĥ¢
ĠÐ´ÐµÑĢ Ð¶Ð°Ð²
éĢ ²
àª°à«įàª ¤
ÑĸÐ»ÑĮ ÐºÐ¸
Î· Î³
Ġàªľàªµ àª¾àª¬
×¨×Ĳ ×Ķ
áĢ½ áĢĦáĢ·áĢº
àªĤàª ľ
Ð¶ Ð¾
ĠTh ere
ĠáĥĶ áĥľ
ĠÐºÑĥÐ»ÑĮÑĤ ÑĥÑĢ
ë³ Ħ
Ð½Ð³ Ð¸
Ġà´µ à´²
áĢħ áĢ¥áĢ¹áĢ
Ġà¤¬ à¤¾à¤°
åĽ¾ çīĩ
ĠÐ½ÐµÐ¾Ð± ÑħÐ¾Ð´
áĢŃ áĢķáĢº
Ġà¤ª à¤¾à¤°
ĠÒ³ ÑĥÒĽÑĥÒĽ
ĠI I
íĽĦ ê¸°
à®² à®®à¯į
Ð½Ñĸ ÐºÐ°
áĥĵ áĥĺáĥľ
à°°à±įà° ®
Ġæ· ±
Ġàª®à«ģàªĸ à«įàª¯
Ûģ Ø¯
áĢĻ áĢļáĢº
ë¡ ¯
Ġì¶ ©
å¤ Ł
é ¨
ĠÐ» Ð¸Ñĩ
Ø§Ø³ ÙĬØ©
ĠÐľ ÐµÐ½
áĥĺáĥ Ń
±áĢĲáĢ¼ áĢĢáĢŃáĢ¯
ĠG u
áĢ¬ áĢķ
Ġãĥ Ĺ
ĠÑį ÐºÐ°Ð½
áĢķáĢ¹áĢ ħ
ĠagåĽ½éĻħ åİħ
à¥įà¤ ŀ
ķ áĢŃáĢ¯áĢĦáĢ¹áĢ¸
Ģ áĢº
ĠÐ¾Ð²Ð° Ð°
Ġàªľ àª¾àª¹
ĠÐĴ Ð»Ð°Ð´
àª¾àª §
Ð¸ÑĤ Ð¾ÑĢ
Ġpl ace
à¸Ļà¸ ļ
à¦ ĥ
Ñĩ Ð¸ÑĤ
Ġáĥ¡ áĥĺáĥ¢
Ġáģģáģ īáģ
Ö ¶
áĢĻáĢ» áĢ¬áĢ¸áĢĢáĢŃáĢ¯
×Ļ×ª ×Ł
Ġíĸ ī
ĠáĥĻ áĥł
áĢŀ áĢľáĢŃáĢ¯
Ġë ł
ëĦ ¤
ãģ«ãģ¤ ãģĦãģ¦
æĮ ī
Ġì¢ ħ
à®¾à®¤ à¯įà®¤
ĠØ¨Ø± Ø±Ø³ÛĮ
ç¾İ åĽ½
ĠÎ½ Î¿
ĠÐ¼ Ð¾Ð½
àª¾àªĩ àª¨
ĠáĢķ áĢ¯
ĠØ¯ Ùħ
áĢ¾ áĢĲáĢº
à°¿à°ª à±ĭà°¯
ĠÑĢ Ð¾Ñģ
áĥĲáĥľ áĥĺáĥ¡
ĠØ§ÙĦÙĪ Ø·
Ġwe ek
áĢĨ áĢ¶áĢ¯
àµģà´ ·
ĠÛ ³
ÑĸÐ´ Ð¾Ð¼
ĠÑĦ Ð°
è¿ Ķ
è¡ Ĺ
à¹Ħà¸¡à¹Ī à¹Ħà¸Ķà¹ī
ĠØ´ ÙĬ
Ø§Ø¯ ÙĤ
à¸ª à¸´
×Ļ×ł ×Ļ
Ġàª¸àªĤàª ¸
åĪ ¥
àª¿àª Ŀ
ĠÙĪ Øº
àªĤàªĹà«įàª° à«ĩàª¸
ÐµÐ¹ ÑĤ
ĠâĢĿ ãĢĤ
áĢ¡ áĢ±áĢ¬áĢĦáĢº
ÛĮØ¯ Ùĩ
ÏĢÎ¿ Î¯
ÎŁÎ Ŀ
Ġà¦¬à¦¿à¦ ¦
à°°à±įà° ¥
ģáĢº áĢĦáĢ¹áĢ¸
Ġê± ´
ÑģÐµÐ´ Ð°ÑĤÐµÐ»
Îº ÏģÎ¹
æĢ ¥
Ġà°ªà±įà°° à°ľ
áĢŃ áĢĲáĢ¹
ÐµÐ½ÑĤ Ð°ÑĢ
Ġ7 6
Ð¸ÑģÑĤ ÑĢ
Ġå¸ Ĥ
Ø¨ ÙĬØ©
ĺ áĢ°áĢ¸
à¯Īà®ļ à¯į
Ùİ Ø¹
Ñĭ ÑĢ
ĠÐ¼ Ð¸Ð»Ð¸
à°¿à°ķ à°¾à°°
ĠáĢľ áĢĻáĢ¹áĢ¸
ĠÐ´Ð¾Ð» Ð¶
ĠÐ¡ Ðµ
à¸±à¸Ļà¸ Ķ
ĠÙĨ Ø¯Ø§Ø±
ĠÐºÐ» ÑĥÐ±
Ġàªľà«ĭ àªµàª¾
Ġàª¬àª¹ àª¾àª°
Ġà¦ıà¦® à¦¨
Ġ×Ļ ×ĵ
×Ķ ×ľ
ĠÚ©Ø± ØªØ§
ï¼ Ł
Ġà¹Ģà¸Ľ à¹ĩ
Ġà§ ¬
à«įàª¯ àª¾àª¨
Ø£ Ø³
ĠÛĮ Ø¹
ĠÑĤÐ¾Ð¼ Ð¾Ð½Ð¸
å ´
±áĢ »áĢĻ
Ġåħ ³
Ġàª¤à«įàª° àª£
ĠÚ© Ø¨
à¸¡ à¸²à¸¢
ÑģÑĤ Ð¾
id ent
Ġà´İà´¨àµįà´¨ àµį
ĠØ§ÙĦØª ØŃ
èĦ ±
Ġt em
ÑĬ Ð¼
Ġë¨ ¹
ĠØ± Ø§ÛĮ
áĢĶáĢº áĢ¸áĢ
Ø®Øµ Øµ
ĠÐºÑĢ ÐµÐ´
ĠÐº ÑĥÑĢÑģ
áĥĺáĥľ áĥĺáĥ¡
ĠÂ ¤
ëĵ¤ ìĿĢ
ÎĹ Îľ
Ġà¦¬à¦Ľ à¦°
áĢĻáĢºáĢ¬áĢ¸ áĢĢáĢŃáĢ¯
ĠÐ¾ Ð³ÑĢ
éļ ľ
ĠØ§ÙĨÛģ ÛĮÚº
áĥĲáĥł áĥĿ
Ð°Ð½ ÐµÑĤÐ¾
Ġà°¸à°¿à°¨à°¿à°® à°¾
×Ļ×ľ ×ķ
_t ime
ĠÑģÐµ Ð·
ĠÙģ ÙĪ
Ġà¦Ł à§įà¦°
ĠÙĪÙĦÙĥ ÙĨ
à¤ª à¥Ģ
Ġáĥĺ áĥª
ĠáĥĲáĥĽ áĥĺáĥ¡
Ġà¹Ģà¸ĩà¸´à¸Ļà¸ Łà¸£à¸µ
è®º åĿĽ
¸ ı
I R
ĠØ³ ÙĨØ¯
åº ı
æīĭæľºå®¢æĪ·ç«¯ ä¸ĭè½½
Ð¼ ÑĸÐ½
¸ à±įà°¥
Ġà¦ª à§Ĥ
ãĥª ãĤ¢
à¯Ĩ à®©
Ġà°ļà±ĩà°¸ à°¿à°¨
Ġàª¸àª® àªľ
áĢ®áĢ¸ áĢĢ
Ġà° Ĳ
ĠàªĨàªµ à«įàª¯àª¾
ĠÚ©ÛĮ Ùģ
Î¼ÎŃ Î½Î±
à±įà°° à±Ĩ
n s
à§ģ à¦¦
ÛĮ ØŃ
ÑĥÐ± Ð»Ð¸ÐºÐ°
à¤µ à¤¾
Ġç ²
ãģĮ ãģĤãĤĭ
am a
ĠìĻ ¸
ĠÐ² Ð°Ð¼
Ġå» º
Ġbe ing
Ġà¦¬ à¦¾à¦¸
Ġàª°àª¹ à«įàª¯à«ĭ
ĠÐµÐº Ð¾Ð½Ð¾Ð¼
Ø³ Ú©
ĠÐ¿ÑĢ Ð°Ð²Ð°
ãĤģ ãģ¦
à© ±
Ð°Ð½ Ð´Ð°
Ġ×Ķ×ŀ× §
ĠØª Ø§Ú©
Ġ" ]
ĠØ§ÙĦ Ø§ÙĤ
ĠÐ¿Ð¾Ñģ Ð»Ðµ
ĠÐ´ÐµÐ¹ ÑģÑĤÐ²
Ġáĥ¡áĥĲáĥ¥áĥĲáĥłáĥĹáĥķáĥĶáĥļ áĥĿáĥ¨áĥĺ
à¤¹ à¤°
ĠF r
ĠÑĦ Ð¾ÑĢ
à¤Ĥà¤¤ à¥įà¤°
ĠéĶ Ľ
Ð°Ð½Ð¸ ÑĤÐµ
Ġç ®
Ø§Ùĩ Ùħ
an e
Ø¦ Ø±
ĠUpd ated
à¸£à¸§ à¸Ī
ĠáĥĹáĥĲáĥľ áĥĲáĥĽ
Ġe as
ãĤĪãģĨ ãģª
áĥĺáĥ£áĥ ļ
à®±à¯įà®± à®¿
ÑĬ Ð²
ĠáĢĽ áĢĢáĢº
å¼ ·
à¸ª à¸¸
ÑĨ ÑĸÐ²
ĠÑĩ Ð°Ð»Ð°Ð²
áĢ¼áĢ¸áĢ ±áĤı
ĠàªŃ àª¾àªľàªª
ĠÐ¸ Ð´Ðµ
ç½ĳ é¡µ
ÑıÐ² Ð°Ð½Ðµ
Ġà¦ķà§ĭà¦¨ à§ĭ
ĠÐ¸ Ð¶
Ġàªª àªŁ
Ñĩ ÐµÑĤ
Ñ Ļ
ĠÙĦ ÛĮØ§
Ġàª¦àª° à«ĩàªķ
ĠØ§Ø¶ Ø§Ùģ
ÙĪÛĮ ÛĮ
Ġàª¤à«ĩàª® àª¨à«Ģ
Ġà¦¬ à§ĥ
Ġë° ķ
à«ĩàª ¯
Ġäºļæ¸¸ ag
ĠØ¯ ÛĮØª
åį Ī
à¥Ģ à¤¤
Ġà®ħ à®¤à¯ģ
ĠÑħÐ°ÑĢ Ð°ÐºÑĤÐµÑĢ
à¥ĩà¤ ¬
ĠæĿ İ
Ġà¤µà¤°à¥įà¤ ·
Ġc as
Ġàª° à«ĭàªľ
ìķĦê°Ģ ìĶ¨
àµĢ à´¸
Ġà°ľ à°¨
ĠÙģ Ø±Ø¯
Ġà¤¹à¥ĭ à¤¤à¥Ģ
Ð½Ñĸ ÑģÑĤÑĢ
Ġ×Ľ ×ª
ĠÑĤÑĢ ÑĥÐ´
à¦¬ à§įà¦¯
ÑģÑĤ Ð¸ÑĤÑĥ
ĠÑĤÐ° Ò³
à¹Ħà¸§ à¹ī
à¯ĭ à®ķ
ĠçĶ ·
Ùħ ÙĬÙĦ
Ġà°¦ à±ĩà°¶
à¤¾à¤ļ à¥įà¤¯à¤¾
áĥ£áĥ ª
ÙĤÙĬ ÙĤ
éģ Ĺ
ÐµÐ» Ðµ
ĠáĢħ áĢĢ
ĠàªĹ àª£
ĠÐ¼ Ð°Ð·
ĠÐ² ÑĬÑĢ
à¸§ à¸´à¸ķ
ĠC ar
Ð³ Ð¾ÑĤ
ĠØ±Ø³ ÙĪÙĦ
áĥ£áĥ Ļ
ĠáĥĽ áĥĶáĥł
à°¬ à±įà°¬
Ġ×ĳ ×ķ
à¦¾à¦² à§ĩà¦°
Ð¾ÑĢ Ð¾Ð²
ĠàªĨ àª®
Ð¾Ðº Ð¾
ĠÐ¡ Ð¾ÑĦ
àªµ àª¾àª¥à«Ģ
Ġà¦ħà¦Ń à¦¿à¦
ĠÐ¾ Ð½Ð°
à°¾à°¦ à±ģ
àª¿àª¯ àª®
ì »¤
ĠÙĪØ²ÛĮØ± Ø§Ø¹
ĠØª Ø³Øª
ĠÏĨ Î¿
Ġ8 9
ĠÏĥÏħ Î¼
ãĤĪãģĨ ãģ«
¬ àªĤàª§
ãĥĥãĤ¯ ãĤ¹
Ġé¦ ĸ
ãĥ¼ãĤ ¿
à¯įà®ķ à®¿à®±
Ø±Ø§ØŃ ÛĮ
Ġà¤¸à¤ķ à¤¤à¥ĩ
Ġé ĥ½
Ġç ¼
ĠÐ£Ðº ÑĢÐ°
ĠÙģØ± ÙĩÙĨÚ¯
ĠÑħ Ð¾Ñĩ
Ġà°® à±ģà°
ĠÎ´Î· Î¼Î¿
à«ĩàª® à«įàª¬
ãģ® ãģĭ
ĠìĬ ¬
ĠÚĪ Ø§Ú©
áĥĺáĥ¢ áĥĿáĥĽ
d 88
ĠÑĩ ÐµÐ»
Ġê² Ģ
Ġà¦¦ à§ĩà§Ł
ĠÎ´ Î¹Îº
å² Ľ
× ³
ãģĹ ãģĭ
ĠØ¬Ø§ÙĨ ÛĴ
áģ¾áĢĢ áĢ¬
éĿŀ å¸¸
à¹Ģà¸£à¸µà¸¢ à¸Ļ
Ùħ Ø³
ĠØ´ Ø±ÛĮÙģ
ĠÏĢ ÏīÏĤ
ĠØ· Ø±ÛĮÙĤ
áĢ¸áĢ±áĢ Ľ
áĢĶáĢº áĢ¸
à´Ĺ àµįà´°
ĠáĥĹ áĥĺáĥĹ
éĢļ è¿ĩ
áĢ² áĢ¼
áĥ£áĥļ áĥĲáĥĵ
ĠçĻ ½
ĠÑĢÐ°Ð±Ð¾ÑĤ Ð¸
à¤¯ à¥ĭà¤Ĺ
ĠØ´ÙħØ§Ø± Ùĩ
à®¿à®µ à¯ģ
à¦ ģ
Ø±Ø¨ ÛĮ
Ñı Ñī
Ġà°® à±Ĥà°
Ġà¸Ħ à¸¸à¸ĵ
Ġà´ħ à´±à´¿à´¯
ĠÙħØ¹ ÙĦÙĪÙħ
ĠáĥĽ áĥĺáĥķ
Ð´ Ð¸Ð²
à±ģà° ¬
à¦Ľ à§ĩà¦¨
w ork
T M
Ġ×ľ ×ł
ĠÑĤ Ð°Ð¹
ĠÐ¾ Ðº
à¸ģ à¸§à¹Īà¸²
Ø¯ÙĬ Ø«
×ķ×ĳ ×¨
ÑĢÑĥ Ð·
ĠÐ¾ ÑīÐµ
à¸ľ à¸¡
g ed
Ġë³ Ģ
Ġë £
Ñĩ ÑĭÐ¼
ĠáĢ¡ áĢĢáĢº
Ġê²ĥ ìĿ´
Ġáĥŀáĥĺáĥłáĥķ áĥĶáĥļáĥĺ
ĠÑģÐ¾ ÑĨÐ¸
à¤¾à¤Ĥà¤ļ à¥įà¤¯à¤¾
Ġì¶ľìŀ¥ ìĥµ
Ġàª¸ à«Ĥ
áĥł áĥĶáĥĳáĥĺ
à´¤àµįà´¤ à´¿
ĠØ§ÙĦ Ø±ÙĬ
Ð°Ð´Ð¸ Ð³Ð°Ð½
ri pt
Ġà°µ à°¸à±įà°¤
Ġ Ć
áĥĺ áĥĶáĥłáĥĹ
Ġà´µ àµĩ
áĢĦáĢºáĢ¸áĢ Ĳ
ĠØ¹Ùħ Ø±Ø§ÙĨ
áĢķ áĢ½áĢ²
Ġåį ļ
ĠÐ» Ð¸ÑģÑĤ
ÑįÐ½ Ð½Ðµ
ĠÐŁÑĢ Ð°Ð²
Ġs ex
Ðł ÑĶ
Ġà¤¹à¥ĭ à¤¨à¥ĩ
Ġ) ØĮ
ä¸Ń çļĦ
Ġm et
åĲ ¬
Ø§Ø¦ Ø¹
ĠØ¨Ùĩ Ø§
Ġst ory
ëĵ ±
Ġ×Ĳ ×Ļ×©
Ġà´® àµĨ
áĥ£áĥļ áĥ¢
Ø§Ûģ Ùħ
Ðŀ ÐĿ
Ġ×Ĵ ×ĵ
Ø´ Ø´
Ġà¤® à¤¾à¤¨
as ter
ĠÐ¸Ð³ ÑĢÐ°
áĥķ áĥĺáĥĵ
áĢĬáĢ· áĢ¹
íİ ĺ
Ġà´ª àµĤ
Î¹ Î»
I V
áĢļáĢ¹áĢ ħ
ä» ķ
´ë ı
Ġà¦¶ à§įà¦°
ĠÑĥÐº ÑĢÐ°ÑĹÐ½
Ø¬ Ø§
Ġíķĺ ëĤĺ
Ġå½©ç¥ŀäºīéľ¸ 8
Ġàªľàª¾àª¹ à«ĩàª°
à« ħ
ĠÐĳÑĬÐ»Ð³Ð°ÑĢ Ð¸Ñı
Ġ ä¹ĭ
áģ ĩ
Ð°ÑĤ Ð°ÑĢ
àª¿àªĤàª ¹
Ġàª¦àª° àª®
ç¬ ĳ
×Ļ×ł ×Ļ×Ŀ
ĠÐ± ÐµÑģÐ¿
Ġsupp ort
àªķ à«įàªķ
ĠáĢĻ áĢ°
Ġà¤®à¥įà¤¹ à¤£
ĠÙĪ Ø¶Ø¹
ĠÙĦÙĦ Øª
ĠÐ´ Ð¸Ð³
® áĥĶáĥĵ
ĠÃ ł
à¦°à§įà¦ ·
Ġà¤ª à¥Ī
Øº Ø§Ø²
ivers ity
à´¦ àµĩà´¶
ĠM al
×Ļ×¨ ×Ļ×Ŀ
Ġà®ķ à®¿à®°
áĥł áĥĲáĥĵ
Ġà¸ģ à¸¥
ĠÐºÐ¾Ð½ ÑĨ
u ally
ĠM ore
ë¦ °
×¨ ×ķ
Ð»Ð¸ Ð½
íķĺ ì§Ģ
æĸ¹ å¼ı
ĠØ§ÙĦØ® Ø§Øµ
àªĹ à«įàª°
Ġ×ĸ ×ķ
ĠÏĦ ÏĮ
ÐºÑĥ Ñİ
ĠØ¬Ùĩ Øª
Ġ×Ĳ×ķ×ª ×ķ
éĢ Ģ
à®¾à®µ à®¤à¯ģ
à¥Ĥ à¤¸
e ed
ĠÐ´Ð² Ðµ
Ġ×ł ×ķ×¡
ĠÐ¶ Ð¾Ð¹
çīĪ ä¸ĭè½½
áĥĶáĥļ áĥĺáĥ¡
ÚĪ ÛĮØ§
ak es
æŁ Ĳ
ÑĥÑĶ ÑĤÑĮÑģÑı
Ġ9 2
Ġć Ĉ
Ġë¨ ¸
ĠÑĤ Ð¾Ð¼Ñĥ
ĠÑĢ Ð°Ð²
Ġh im
ĠáĥĲáĥ¡ áĥĶ
ĠØ¹ Ø¯Ùħ
ĠØ§ÙĦ Ø¶
ĠÐ¸ Ñİ
ãģ Ĳ
ĠÐł ÑĶ
áĢ® áĢĢ
Ġáĥ£áĥ ¡
Ġíķĺ ëĬĶ
in ed
Ġà¤¹à¥ĭ à¤¤à¥ĩ
áĥĲáĥļ áĥ®
ĠØ§Ùħ Ø±ÙĪØ²
ĠÐ¼ ÐµÑħ
Ġà¥ §
ÐµÐ´ Ð¾Ð½
Ġp k10
àª¿àª¯ àª¾àª¨
à°¬ à°¡
Ġpos ition
à¸±à¸ Ĳ
Ġï¿½ï¿½ï¿½ï¿½ï¿½ ï¿½ï¿½ï¿½ï¿½
ëŁ ¼
èĤ ī
ĠáĥĴáĥĲáĥĽ áĥĿáĥª
Ġá ½
ĠÐ¼Ð¾Ð¶ ÐµÑĤ
Î½Î± Î½
àª¦ àª¾àª°
çł´ è§£
à¯Īà® ª
Ð½Ð¾ ÑĪ
Ġà¦¦ à§ģà¦ĩ
ĠÙħÙĨ Ø¸
ĠØ¥ Ø°Ø§
Ġdo es
çĭ ¬
Ġàªĸ àª¾àª¤
éĤĢè¯·çłģ _
ØŃ Ø§Ø¯
×Ĺ ×Ķ
ĠÙĪ Ø·
\ "
Ġ×¨×Ĳ ×©
ĠÐ² ÐºÐ»ÑİÑĩ
d a
à¸±à¸ Ĵ
ĠW ith
Ùħ ÙĪÙĨ
ĠÑģÐ°Ð¹ ÑĤ
à¦¾à¦¨ à§ĭ
Ġà´ Ĳ
íĮ ħ
ĠíĶĦ ë¡ľ
áĥłáĥ £áĥļáĥĺ
Ð¾Ð¼ Ð°Ð´
Ġè ¢
áĢħ áĢ¬áĢ¸
Ñį Ð´
Ð¼ Ð¾ÑĤ
áĥłáĥĹ áĥ®
ĠáĥĽ áĥĲáĥ¦
ĠØ¯ ÙĪÙħ
ĠÐ³ Ð»ÐµÐ´
äº§ ä¸ļ
à¸ ĳ
ĠØ§Ø± Øª
ĠáĢ¡ áĢ±áĢĽ
Ġà°¸ à±įà°ª
Ø¯ Ø§Ø´Øª
ĠØ® Ø±
Ġ×ŀ ×ľ
ĠÐ» Ð¸ÑĪ
Ġáĥľ áĥĲáĥĻ
Ġà¦Ĩà¦Ĺ à§ĩ
ĠØ¨ ÙĨØ§
ĠÐĴ ÐµÑĢ
Ġç ©
æĹ¶ åĢĻ
ä¸Ģ ç¯ĩ
à¥ī à¤²
ail able
áĥĶáĥĳ áĥĶáĥĳáĥĺáĥ¡
ĠT w
Ġà®ļ à¯Ĥ
Ð»Ð¸ Ð²Ð¾
u f
áĢĻáĢº áĢ¬áĢ¸áĢ¡
áĢģ áĢĶáĢ¹áĢ¸
Ġà´ķàµįà´ °
à§įà¦ §
áĢľ áĢĢáĢ¹áĢ
ĠØ§ÙĦØ³ ÙĦØ§Ùħ
à¦¾à¦§ à§įà¦¯à¦®
3 d
ëŁ ī
à®¿à®ªà¯įà®ª à¯ģ
Ġàª¸ àª¾àª°
Ġà¦ħ à¦¸
à´ªàµįà´ªàµĭ à´³àµįâĢį
ĠÙĩÙħ Ø±Ø§Ùĩ
Ġà¤¹ à¥ĩ
Ġà¤¬à¤¹ à¥ģà¤¤
ĠÐ¶ Ð¸ÑĤ
Ð¾ÑģÑĤ ÑĮ
Î¼ ÏīÏĤ
Ġåķ Ĩ
ÑĥÐ¼ Ò³
Ġb ody
í ļ
à¹ģ à¸£à¸ĩ
à§ĭ à¦°à§įà¦
Î¯ Ïĥ
Ġà¤¸à¤® à¤¯
ĠÚ© Ø¯
ÏĨ ÎŃÏģ
Ġà°ħ à°Ĥà°Ł
Ġàªª àª¸
ĠáĥĴáĥĲáĥľáĥª áĥ®áĥĲáĥĵ
Ġà´ķ à´¾à´²
Ġà°ľ à°°
Ġst at
ĠØ¢Ø² Ø§Ø¯
Ġìĺ¨ ëĿ¼ìĿ¸
H E
Ġàª®àª¾àª £
×Ļ×¤ ×Ķ
Ġë² Ī
Ġàª® à«ģàªķ
ad i
ÙĪ Ùĥ
Ġà¤µ à¤¾à¤²à¥ĩ
ĠÎµÏĢ Î¹Ïĥ
»áĢĸ áĢĦáĢ¹áĢ·
Ġà¸ Ŀ
Ġ×ĺ ×ķ×ĳ
åĲ «
ØŃ ÙĬ
os s
Ġâĸ ł
Ġ ä¹ħä¹ħ
áĥĺáĥ¡ áĥ£áĥ¤
áģĢ áĢĦáĢ¹áĢ
æ´ ¥
Ð½Ð¾ Ñŀ
ĠáĥĽ áĥĲáĥ¨
Ġàªľàª°à«Ĥ àª°
àª ·à«įàªŁ
ĠáĢĶáĢ¾ áĢħáĢº
Ġà°® à°¾à°¤à±įà°°
à±ĩ à°¨
ëª¨ íħĶ
à¸ŀ à¸±à¸ģ
Ð½Ñĸ ÑģÑĤ
ĠÎ± ÎºÏĮ
ĠTag s
ĠØ§ÙĦØ¨ ÙĦ
Ġà¦ħà¦¨ à§įà¦¯
ĠÙģÙĬ ÙĩØ§
áĥĶáĥĽ áĥĲ
ë³´ ê¸°
ĠÐ´Ð¾Ðº ÑĥÐ¼ÐµÐ½ÑĤ
àª² à«ĭ
à¸Ħ à¹Īà¸°
ĠâĦ ¢
ĠØª ÛĮÙħ
àª¾àªµ à«ĩ
Ð³ ÑĥÑģÑĤ
Ð°Ð» Ð°ÑģÑı
Ġà¹ģ à¸Ĺ
Ġàª¨ àªľ
à®£ à®®à¯į
áĢķáĢ¼ áĢĦáĢº
Ð´ ÐµÐ½
ĠÑĤ ÐµÐ¿
áĢĽ áĢ±áĢ¬áĢĢáĢº
Ġà¹Ģà¸¥ à¹Īà¸Ļ
æ´ ŀ
Ġre pl
ĠW indows
ç £
Ð² Ð¸ÑĤ
ĠáĢĴáĢ® áĢľáĢŃáĢ¯
ĠÛģÙĪ ØªÛĮ
ĠÑı Ðµ
ĠÙĩ ÙĦ
ĠÙħØ¬ Ú¾ÛĴ
l ess
ĠÒĽÑŀ Ð¹
è¯ Ģ
àª¬ àª°
or th
ĠÐ³ ÐµÑĢ
ÑĥÐ¼ Ð°Ð½
áĥĲáĥª áĥ®áĥĲáĥĵ
ant s
Ġà« ª
èª ŀ
ĠáĢĶ áĢĬáĢ¹áĢ¸
Ġà´¤ àµĭ
ĠÑĥ Ð¶Ðµ
ë³´ ìŀ¥
à¥įà¤Ł à¥Ģ
ĠáĥĴ áĥ£áĥļ
áĥĶáĥĳ áĥĵáĥĲ
Ġàªĵ àª«
_ b
ÏĦ Î¹Î±
Ġ×ľ×¤ ×ł×Ļ
Ġà°®à±Ĭ à°¦
Ġà¤¸ à¥ģà¤°
çŁ Ń
áĥĲáĥ¨áĥķ áĥĺáĥļáĥĺ
Ġáĥł áĥĲáĥĽ
Ð¾Ð´ Ñĥ
å¤ ı
ĠáĢ»áĢķáĢĬáĢ¹áĢ ŀáĢ°
Ġà¤ĺ à¤°
ÑĥÐ»Ñı ÑĢ
ĠáĢ»áĢĸáĢħáĢ¹áĢ ķáĢ«áĢĲáĢļáĢ¹
áģ¾áĢĢ áĢĬáĢ¹áĢ
ĠÑį Ð´Ð¸
à¸§ à¸Ļ
Ġà´ħ à´§
ĠØ§ÙĦ Ø§Ùħ
ĠÚ¯Ø±ÙĪ Ùĩ
Ġáĥ¡áĥĲáĥ®áĥĶáĥļáĥĽáĥ¬áĥĺáĥ¤ áĥĿ
Ġæĺ İ
Ġà®¨ à®²à¯įà®²
ÑĦ Ð¸Ðº
Ð¾Ð½ Ð°Ð²
è³ ¼
å½± éĻ¢
áĢ± áĢ¸áĢĢ
à´¾à´¨ àµģà´Ĥ
Ġàª®àª³ à«ĩ
ĠØ¬ ÛĮØ³
Ġ) (
ĠØ¹ÙĦÛĮ Ûģ
ĠE m
Ġà¦ħ à¦°à§įà¦¥
à°µ à±įà°µ
ver n
æľ Ŀ
à¦¨à§įà¦ ¡
ĠØ¨Ú¾ Ø±
ĠÐ¿ÑĢ ÐµÑģ
à´¤àµįà´¤ à´¿à´²àµĨ
Ġì Ĥ°
ĠÂ £
çĽ¸ åħ³
ÐµÐ½Ð¸ Ñİ
ÏĨÎ¿ ÏģÎ¬
are nt
ç¨ ®
Ġà°µà°¿à° ľ
Ùİ Ø©
Ð» ÐµÐ½Ð°
at i
ë¦¬ ê³ł
åŃ¦ çĶŁ
Ù¾ ÛĮ
ĠØ§Ø¨ ÙĨ
ĠÑģÐµ Ð³Ð°
Ġf ollow
àµĢ à´¯
Ð´ Ð¾
ĠÐ¿Ð¾Ð´ Ð¾Ð±
æľ¬ éģĵ
à´°àµįâĢį à´·
ĠCom m
ĠÐ½Ðµ Ð³
áĢĽ áĢĶáĢ¹
Ġï¼ ı
ĠåŃ ¦
Ġà®ªà¯Ĭ à®°
Ġà¦¹ à¦¾à¦ľà¦¾à¦°
ĠÐ¾ ÐºÑĤ
ÑĨÐ¸ ÑĺÐ°ÑĤÐ°
Ġè Ļ
Ġà°ľ à°°à°¿à°Ĺ
Ġ est
Ġëĭ ¬
Ġà®¤ à®µ
é ½
Ġà¦Ł à¦¾à¦ķà¦¾
àª¤ à«įàª¨
ĠÑı ÐºÐ¸Ð¹
ĠÐºÐ¾Ð½ Ñģ
×ķ ×ķ×ª
ĠáĥĽáĥ¡ áĥĿáĥ¤áĥļ
Ġà°ªà°¾à°°à±įà°Ł à±Ģ
ĠÚĨÙĩ Ø§Ø±
çļ ĩ
ìĤ° ì¶ľìŀ¥
Øª Ø§ÙĨ
áĢĲ áĢĦáĢ¹áĢ
à¸ļ à¹īà¸²à¸Ļ
ĠØ¨ Ø§Ø¨
Ġs ays
áĢļáĢ¹áĢľ áĢŃáĢ¯
Ġà®®à¯ģà®Ł à®¿à®¯
Ġad min
Ð°Ðº Ð¾Ð²
ĠÐĴ ÑĸÐ´
Ð¾Ð²Ð° Ñı
Ġà´¯ à´¿
ä½ ³
áĢĻáĢ¼ áĢŃáĢ¯áĢ·
Ľ áĢ¼áĢĢáĢ¹áĢ
ĠÙ¾ÙĪÙĦ ÛĮØ³
Ġà°¨à±ĩ à°¨à±ģ
ĠØ´Ø± ÙĥØ©
çĶ º
Ġ×ķ ×Ĵ
Ġth ough
Ġ ãģ¯
ĠÙģÙĬ Ùĩ
Ġ2019 å¹´
ĠÐĴ Ð°ÑĪ
Ġáĥŀáĥł áĥĿ
Ġ": {"
åľ¨çº¿ è§Ĩé¢ĳ
Ġíķľ ëĭ¤
ro ss
ĠÚ©Ûģ ÙĨØ§
áĢĤ áģ¢
ÏĢÎ¿Ïħ ÏģÎ³
à®³ à¯įà®µ
à¤µ à¥Ģ
×¡ ×ĺ
Ġëį °
Ġáĥ£áĥ łáĥ
ë¸ Į
æ´ ¾
àª¿ àª¨àª¾
8 7
Ġìĥģ íĴĪ
à¥ĭà¤Ĥ à¤¨à¥ĩ
ÎĻÎ Ŀ
íĻ ĺ
ĠÙĬ ØªÙħ
ĠØ´ ÙĪØ±
Ġà¤® à¥Į
Ġ? âĢĿ
Ġà´ħ à´¦àµįà´¦àµĩà´¹
Ġà´² à´Ń
àª¾àª¡ à«Ģ
Ġàª°àª¾àªľ à«įàª¯
Ġm argin
áĥĺáĥľ áĥĿ
à±įà°¯ à±Ĥà°
à¥ĩà¤ ·
Ġà¤¹ à¤°
ĠÐµ ÑģÐ»Ð¸
ĠÑĥÑĪ ÑĤÐµ
ĠÐ´Ð¾Ð¿ Ð¾Ð¼
i or
ĠÙĨÙħ Ø§ÛĮØ´
ë ·°
Ġre ally
ë° ķ
áĢĶ áĢħáĢ¹áĢ
áĢ¬áĢĽ áĢ½
Ġw indow
áĢĢ áĢ¯áĢĶáĢº
ĠëķĮ ë¬¸
ÏĦÏĮ ÏĤ
à¸§ à¸¡
Ð» ÐµÐ¶
Ġáģ¿ áĢĻ
ĠÒĽ Ð°Ð±
ĠáĢ¡ áĢ»áĢķ
ĠÑĢ Ð°
à¯Īà®ļ à¯įà®ļ
ĠáĢĺáĢ¯áĢĽ áĢ¬áĢ¸áĢŀ
Ġàªķàª¹ à«ĩàªµ
ĠØ§ÙĦØª Ø¬
àª¿àª Ĺ
ĠìĨ į
áĥĲáĥķ áĥĲáĥļ
ÙĬÙĨ ÙĬ
áĥ¬ áĥĲáĥķáĥļ
Ġàª¸àªĤàª ª
Ïĩ Î¹
ĠÑĩ Ð¾Ð²ÐµÐº
â Ħ
àµģà´ ¸
à¹Ģà¸Ĥ à¹īà¸²à¸
as k
Ġàªķàª° à«ĭàª¡
Ġà¤® à¥Ģ
y p
à°² à°ķà±ģ
Ġ×Ļ ×ķ×Ŀ
à°² à±įà°²à±ĭ
v al
Ġà¦¨ à§ĩà¦ĩ
ĠØ¨ÛĮ Ù¹
Ñħ Ð¾Ð½
Ġ áĥĲ
èª į
ãģ¨ ãģ¯
áĢĶáĢ¹áĢ ĳ
Ġà¦Ĩà¦ª à¦¨à¦¾à¦°
Ġà¦° à¦¹
ĠÙĤ ÛĮ
áĥĶáĥ £áĥ
ĠÑĤÐ¾Ð¼Ð¾Ð½Ð¸ Ð´Ð°Ð½
h an
Ġàªľà«ĩàª® àª¾àªĤ
à¦¾à¦° à§Ģ
ĠØŃØ³ Ø§Ø¨
ĠÑģÐ¿ Ð¾ÑģÐ¾Ð±
ÐĲ ÐĶ
ĠáĢķ áĢĳáĢĻ
ĠØ´Ø¯ ÙĨ
Ø§ÙĤ ÛĮ
ÑĪÑĩ Ñį
Ø² Ø¨
Ñĥ Ñī
Ġàªªàª¹ à«ĩàª²àª¾
ĠÛģÙħØ§Ø± ÛĴ
Ġàªī àª®
à´ªàµįà´ªàµĨà´Ł àµģà´¤àµįà´¤
Ġè¶ ħ
à¸ª à¸´à¸Ļà¸Ħ
Ġàª¯ àª¾àª¦
à°¾à° Ĺà°¾
ĠáĢĴáĢ« áĢ±áĢķáĢĻ
ĠáĢĤ áĢº
Ġàª° à«ĭàªķ
Ð» Ð°ÑĤÐ¸
Ø¬ Ûģ
Ġãĥ ı
Ġà¤®à¥ģà¤ ĸ
ĠØ¨ÙĪØ¯ Ùĩ
ĠÑĪ ÑĥÐ¼
áĢĲáĢ½áĢ± áĢĢáĢŃáĢ¯
Ġà® Ī
ĠÑĢÐµÐ· ÑĥÐ»ÑĮÑĤ
ĠÐ²ÑĢÐµÐ¼ Ñı
à´± à´¿
Ġre al
Ġáĥ¡áĥĲáĥ Ń
8 9
áĢĽáĢ½ áĢĢáĢº
áĢĢáĢ¹áĢ Ľ
à±ĩà°¦ à±ģ
ĠáĢĳ áĢ¯áĢĲáĢ¹áĢ
Ġ7 4
Ġ ä¿
à¸ŀ à¸´
ĠÑģ Ð¸ÑĤÑĥ
Ĺà¸µà¹Ī à¸¢à¸§
à¤¿à¤ķ à¤¾
ay er
Ġàªķà«ĭ àªĤàªĹà«įàª°à«ĩàª¸
Î´ Î¹Îº
ç¢ °
Ð± Ð°ÑĤÐ°
Ġæ ¿
ÏĥÎºÎµ Ïħ
ĠÏĢÎµÏģÎ¹ Î¿
Ø² Ùĩ
ÑĢÐ¸ Ð±
Ġáĥ¡áĥĲáĥĵ áĥĲáĥª
ìĨ ¡
ĠÐ² Ð¸Ð¿
Ð½Ð¸ ÑĨÐ¸ÑĤÐµ
ĠÑĥ Ð¹
ÑĶ Ñİ
áĢ¬áĢ¸áĢ ķ
ĠÑĥ ÑģÑĤÐ°Ð½Ð¾Ð²
Ġà®ĩà®²à¯įà®² à¯Ī
Ġà´® à´°
Ġàª¬ à«įàª²
áĢ· áĢ¡
àª² àª¾
av el
Ġáĥ¡áĥĲáĥ£áĥ Ļ
ĠÐł ÑĹ
à®µ à¯įà®µ
am b
çİ° åľº
áĢĨ áĢŃáĢ¯áĢĦáĢº
Ġà°ħà°¯ à°¿à°¤à±ĩ
ÑĢÐ¾ Ñŀ
ĠÐº ÑĢÑĭ
Ġm edia
áĥĺ áĥĶáĥļ
Ġàªª àª¾àªķ
ç ĵ
Ġ9 3
à¸Ļà¸ Ī
à¶ »
à¯ģà®Ł à¯Īà®¯
ĠØ§ÙĨ Ú¯
ÑģÑĮ ÐºÐ¸Ñħ
ĠÐ·Ð° ÐµÐ´
Î¼ÏĨ ÏīÎ½
ĠÐ¿Ð¾Ð»Ð¸ ÑĤÐ¸
ĠÐ¼ Ð°Ð¼
ĠåĪ °
ĠÑĤÑŀÒĵÑĢÐ¸ Ñģ
Ġre f
Ġp add
à°§ à±įà°¯
Ġà¸ľ à¸¥
áĢ±áĢĶ áĢ²áĢ·
ÚĪ ÛĮ
Ġì ´Ī
Ġà¤²à¥ĭà¤Ĺ à¥ĭà¤Ĥ
ĠÙĩ Ø²Ø§Ø±
ØªØ± ÙĪÙĨ
R O
ĠáĥĽáĥ¡áĥĿáĥ¤áĥļ áĥĺáĥĿ
Ġ×Ľ ×©
áł łáł
Ġà´ķ àµĪ
Ġà®¨ à¯ĭ
Ġà¦¬à¦¿à¦Ń à¦¿à¦¨à§įà¦¨
ĠÏħ ÏĢÎ¬ÏģÏĩ
à°¿à°¸à±įà°¤ à±ģà°¨à±įà°¨
ÑģÑĤ ÑĥÐ¿
Ð³ Ð¾ÑĤÐ¾Ð²
Ġàªķ àªª
àµĭ à´·
ĠÐľ Ð°Ñģ
ĠÐ· Ð°Ð¹
ĠÎķ Îº
ãģł ãģ£ãģŁ
à¹Ģà¸ª à¸µà¸¢
à¸¡à¸ª à¹Į
ĠP C
é¦Ļ èķī
ãĤĪ ãĤĬ
ÑĶ Ð¼
áĢħ áĢ¶
Ġãĥ ĩ
àª¾àªµ àª¾àª¦
à¤¿à¤ ¹
ĠÛĮØ¹ ÙĨÛĮ
Ð¿Ð¾Ð» Ð·
AN G
Ġ7 3
ìĬ¤ íĬ¸
Ġà¤¨ à¤¾à¤®
åħįè´¹ è§Ĩé¢ĳ
w ays
20 17
ĠçĶ ±
Ġàª¬ àª¾àª¬
æ± ī
Ġà°ª à°¡
ĠØ¯Ø§Ø± ÙĨØ¯
' '
Î¯ Î´
Ġà°ķ à±įà°°
ĠA g
åħ¨ åĽ½
Ø±ÙĬ Ø¯
Ð³Ð°Ð½ ÑĸÐ·
åī §
ÙĬÙĨ Ø§
ĠÐ¿ ÐµÑĩ
ĠM on
áĥłáĥ Ľ
Ġä¸ İ
Ġà°ħ à°¸
Ġà¤Ĩ à¤¦
Ġà¤¤à¤° à¤¹
ãĥĥ ãĥģ
áĢŃáĢĻ áĢ¹
à¨ ¨
à§ĩà§Ł à§ĩ
áĢ¬áĢ¸áĢ ĳ
c es
ç® Ģ
ÑĭÐ¼ Ñĸ
Ġà¦° à§Ł
Ġ200 2
åĨ ·
à¯įà®¤ à®¾à®©à¯į
Ñħ ÑĸÐ´
Ġà¦¬ à¦¿à¦ķ
Ġth ose
ĠIn st
Ġìŀ ĺ
ÑģÐº Ñĥ
ĠáĥĲáĥ ĳ
ãĥĥ ãĤ·
à¸ª à¸Ńà¸ļ
à¤¯ à¥ĩ
Ġà¦¨ à¦¤
å² ģ
Ġà¤ľ à¥Ī
Ġà¦ī à¦¦
Ġ×Ļ ×ĵ×Ļ
ĠÐµ ÑĢ
äº ®
Ġè Ī
çµ Ħ
×ª ×Ķ
ĠáĢĻ áĢŁáĢ¯áĢĲáĢ¹áĢ
Ġàªµàª¿àª¸ à«įàª¤
Ġàªĺ àª°
åĪ° äºĨ
à´Ł à´¿
Ġï¼Į âĢľ
à¹Ģà¸Ķ à¹ĩà¸ģ
Ġà¤Ł à¥įà¤°
Û ±Û
Ð¾Ð» Ð¾Ð´
Ġàª¸ àª«
ĠÎºÎ¬ Î¸Îµ
Ġå¥ ¹
Ġà¸ļ à¸²à¸Ĺ
Î¼Î¿ ÏĤ
áĥĺáĥĵ áĥĶáĥľáĥ¢
ÏģÎ± ÏĤ
áĥĲáĥĽ áĥĲáĥłáĥĹáĥļ
Ð¾Ñı Ð´
Î½Î± ÏĤ
ĠÐ± Ð»Ð¸Ð·
Ġà´¨à´¿à´ Ļàµįà´Ļ
ĠÎ£ Îµ
´ ī
r ist
Ġà°ķà°¾à°¨ à±Ģ
Ġà¦ķà¦° à§ĩà¦Ľà§ĩ
ĠÙĪ ÙĤØ¯
à¸Ńà¸° à¹Ħà¸£
à±ĭ à°µ
Ð¾Ð¼ Ð°
ä¸ ¥
Ġà´µ à´³
Ġà§ Ń
è² ©
à´¿à´¨ àµģ
ĠØŃÚ© Ùħ
æĦ Ľ
à´¸ à´Ĥ
Ġà®ªà¯Ĩ à®£
ĠÐ´Ð¾Ð³ Ð¾Ð²Ð¾ÑĢ
Ð½Ñĸ Ð²
ä¼ ¦
à§ģà¦· à§įà¦ł
Ġáĥ¡áĥĲáĥĻ áĥĺáĥĹáĥ®
çĶŁ äº§
à§ĭ à¦ļ
Ð¾Ð² Ð¾Ð³Ð¾
ĠÙĩÙĨ Ø§Ùĥ
Ø¹ ÙħÙĦ
Ġà¤Ł à¥Ģ
ĠØ¨Ø§Ø² Ø¯ÛĮØ¯
Ġn av
Ġc are
à« ®
ĠÑĤÐ°Ðº Ð¶Ðµ
Ġæ¯ Ķ
Ġà¤² à¥ĭà¤ķ
èµĦ æĸĻ
ĠÐ± Ð¾Ð·
ç¢ º
ãģĦ ãģ¾ãģĹãģŁ
à¹Ģà¸¡ à¸·à¸Ńà¸ĩ
à°² à°¨à±ģ
Ġrequ ire
ot s
Ġáģģ áģĢ
Ġà¦¬à¦¿à¦ ľ
ìµľ ê³ł
e ver
åĪ »
Ġà¸Ľ à¸µ
ĠÐ´ Ð°Ð´
L E
ĠÐ¾Ð»Ð¸ Ð±
àª¿àª ¦
ÎµÎ¯ ÏĤ
Ġ×Ĳ ×Ļ×ł
à±Ģ à°ľ
y e
à¹ģ à¸£à¸ģ
ĠØ¯Ø± Ø¨Ø§Ø±
ãģıãģł ãģķãģĦ
it or
ĠÐº Ð¾Ñģ
ì²ľ ì¶ľìŀ¥
ë ĳ
à®Ł à®¿à®¯
ÐµÑģÑĤ Ð²Ð°
ĠÐĲÐ» ÐµÐºÑģ
am 8
Ġê¸ Ī
ĠáĢ¡ áĢģáĢºáĢŃ
Ġ×ł ×ª
Ġ×Ĳ ×¤×©×¨
à´¯ àµįà´¯
Î½Î¿ Ïį
Ġáĥķ áĥĲáĥł
Ġ' :
è¯ ¾
ÙĪÙĦ ÛĮ
Ġë³ ¸
Ġà°µà°¿à° ¦
à¯ģà® ¨
à¤¨ à¥ĭà¤Ĥ
à´Ļàµįà´Ļà´³ àµģà´ŁàµĨ
àª¾àª³ à«Ģ
ç¶ ļ
à¸£à¸´ à¹Īà¸¡
áĥĵ áĥĺáĥļ
ĠÐ¡ Ð²ÐµÑĤ
ä»ĸ ä»¬
ÏĨ Îµ
Ġà¨ ¹
ĠÐ»Ñİ Ð´Ð·
Ġåħ į
Ġå ĸ
ĠáĢĻ áĢĽáĢ½áĢŃ
Ġàªľ à«ĭàª¡
ÑĤÐ¸ ÑĪ
ĠÐĶ Ð°Ð²
áģ¿ áĢĸ
Ġà®¨ à®¿à®©
Ø§Ø¶ ÙĬ
Ġé ħ
Ø¯ Ø¯
Ġh app
×Ľ ×ł
§ áĥĶáĥľ
I F
ĠÐ±ÑĥÐ´ Ð·Ðµ
à¦ĵ à§Ł
Ġn b
Ġå°Ĭé¾Ļ d88
ĠÐ¼ÐµÐº ÑĥÐ½
Ġà´¸ à´¾à´§
Î¼Î± ÏĦÎ¿
Ġà®ª à¯Ĥ
ĠÐļ ÑĢ
à¥ģ à¤£
à°ªà±įà°ª à°Ł
à¤ķà¥įà¤· à¤¾
à°Ĥà° ľ
ÏĦÎµ Ïģ
ĠØ¬ÙĪ Ø§Ø¨
ä»£ è¡¨
à±ģà°¤ à±ģà°Ĥà°¦à°¿
Ġà°ªà±ĭ à°²
ĠØ¢ Ø¨Ø§Ø¯
à¸Ľ à¸µ
à¥ĩà¤ ª
ĠÐ¿ÑĢÐ¾Ð² ÐµÐ´
Ø¯ Ø§Ø±ÛĮ
Ġáĥ¥áĥĲáĥłáĥĹ áĥ£áĥļáĥĺ
Ġc or
×ŀ ×ľ
éĽ Ħ
à¤¡ à¥Ģ
à¥įà¤ ¬
Îĳ ÎĻ
èģĮ ä¸ļ
áĥĲáĥ¬ áĥ§áĥķ
à¸ªà¸¹ à¸ĩ
Ġãĥ Ľ
Ġà¸£ à¸±à¸ļ
Ġà°ª à±Ī
ĠÐ²Ð¸Ðº Ð¾ÑĢÐ¸ÑģÑĤ
áĥĿáĥª áĥĲ
à¦° à¦¿
Ø¨ Ø·
Ð¢ Ðĺ
Ġpro cess
à°¿à°Ĥà°ļ à°¿à°Ĥà°¦à°¿
ĠáĢ¡ áĢģáĢ¼
Ġà´ª àµĩà´°
ĠØ² Ùħ
ĠW orld
ÐµÑĢ ÐµÐ´
ÐµÐ½ Ñģ
à¸ª à¸²à¸£
à§İ à¦¸
ĠÐ¿ÑĢ Ð¸Ð±
Ġro om
à¤ķ à¤¿
Ġà¹ģ à¸¥
à«ĩàª ļ
ĠØ³ ÛĮØ¯
Ġå Ŀ
Ġà®ªà¯ĭ à®Łà¯įà®Ł
Ø§Ø± ØªÛĮ
Ñĳ Ð»
Ġëª ħ
àª¦ à«įàª§
ä» ¤
ĠØ¢ Ø³
Ġà®ĩà®°à¯ģà®ķà¯įà®ķ à¯ģà®®à¯į
×ķ×¨ ×ļ
Ġà¦ĩà¦¸à¦² à¦¾à¦®
ê²Į ìŀĦ
ã ħ
áĢ¡ áĢķáĢ¹áĢ
à°¾à°¨ à±ĩ
Ġà´Ĵ à´¨àµįà´¨
ĠÑĺ Ð°Ð²
Ġà®ī à®²à®ķ
ĠØµ ÙĪØ±
à¹Ĥ à¸¢
Ġäºļç¾İ am8
áĢķáĢ« áĢŀáĢĬáĢ¹
Ġàª¯ à«ĭàªĹ
ĠÎ¿ÏĢÎ¿ Î¯Î±
Ñį Ð¼
ĠÐ´ ÐµÑģ
Ġhe alth
à¯Īà®¯ à®¾à®©
Ð² Ð°ÑĤÐ°
åĿ ļ
Ġàª¹ àª¾àª²
áĢ±áĢľ áĢ¸áĢ±áĢĲáĢ¼
Î½ Î®
èĥ ľ
Ĥ áĢº
Ġà®ī à®¤
Ġ×Ķ×ŀ× Ĺ
æĹħ æ¸¸
Ùİ Ø¯
ĠÐ¿Ð¾Ð» Ñĸ
Ġà´¨ àµĩà´°
ê°ķ ì¶Ķ
çŃ Ķ
à±ĭ à°°
æĥħ åł±
Ø§Ø· Ø±
Ð± Ñĭ
Ġà¤¬ à¤¤
áĢ¸áĢĻ áĢ½áĢ¬
ĠS he
ĠØŃØ³ ÛĮÙĨ
à¦¦ à¦¿
ĠÐ¸ ÑĤ
ÑĢ ÐµÐ¶
ĠÚ© Ø³
Ġk ey
Ġà¦¨à¦¤ à§ģà¦¨
ĠÎ± Ïģ
çŁ¥ éģĵ
ĠáĥĿáĥłáĥĴáĥĲáĥľ áĥĺáĥĸ
à¥ĩà¤ £
ĠØ§Ø¹ Øª
Ðķ Ðł
Ġàª² àª¾àªĸ
æīĭæľºçīĪ ä¸ĭè½½
ĠØ¨Ø§ÙĦ Ùħ
à±Ĥà°° à±įà°¤
áĥĲáĥĵáĥĴ áĥĲáĥľ
áĢ½ áĤķ
à«ĩàª¶ à«ĩ
o om
ĠØª Ø§Ø±ÙĬØ®
ĠÙħØ´ Ø§Ø±
Î¸ Î¿ÏįÎ½
ĠÙħ ØªØ±
à· Ģ
ĠÐ¢ Ð¾Ð²Ð°
ĠWh at
Ġáĥŀáĥĺáĥłáĥķ áĥĶáĥļ
Ġì° ½
Ġ( {
Ð°Ñİ ÑĨÑĨÐ°
Ġàªķ à«ĩàª¸
Ġwh ile
å¸ Į
à¸µà¸¢ à¸Ļ
ĠÑģ ÑĤÐ¸
Ð½Ñĭ Ð¼Ñĸ
ĠÎĿ Î¿
it es
77 7
ĠáĢĢáĢŃáĢ¯ áĢļáĢº
e le
Ġl l
ãĥ³ ãĤ¹
ĠÙĤØ³Ùħ Øª
à®¾à® ¨
Ġ×ł ×¢
Ġàª¹ àª¶à«ĩ
Ġs w
à¶ Ń
çĻ» åħ¥
Ġà°ĩ à°Ĥà°Ł
ëŀ Ģ
à´¯ à´¿à´²àµĨ
Ñģ Ð¸Ð¹
Ð¼ Ð°Ð³Ð°Ð½
Ġàª¦ à«ĩàªĸ
Ġ% )
è® ¿
ÑĨÑĭ Ð¹
ĠÐ² Ð»Ð°Ð´
à¹Ģà¸Ľ à¸´à¸Ķ
ĠáĥĿ áĥĹ
Ġáĥł áĥĲáĥĵáĥĴáĥĲáĥľ
Ġà´ª à´²
ĠÐľ Ð°Ð»
å «
à¸£à¸²à¸ Ĭ
Ð» Ð¾Ð½
ĠáĥĽ áĥĺáĥ£áĥ
Ġ ip
áĥĶáĥłáĥ ¢
à¥įà¤¯ à¥ĭà¤Ĥ
Ðŀ ÐĶ
Ġà°² à°ķà±įà°·
Ġàªľ à«Ĥ
Ø³Øª Ø±
Ġå £
ĠáĢ¡ áĢ¬áĢ¸áĢľ
ç¨ ¿
Ð¾ÑĢ Ð°ÑĤ
Ġm en
ĠÐ» ÐµÑģ
à¸Ļà¸ Ĥ
Ġà®¤à¯Ĩà®° à®¿à®µ
ĠÑĤ Ð°Ñģ
æĭ ©
Ġàªªàª° àª¿àªµ
ĠÑĤÐ° ÒĽ
ãģĵ ãĤį
Ġà°Ĩ à°®à±Ĩ
Ġàª® àª¦
ĠÚ©Ø± Ø§
à¸²à¸¢ à¸Ļ
à¤¿à¤² à¤¾
Ġàª¶àªķ àª¾àª¯
ĠÐ¿ ÑĸÑģ
à«ĩàª Ĺ
áĢ±áĢ Ŀ
Øº Ùħ
ĠÎ¼ÏĮ Î½Î¿
Ġä¸ ¤
Ġàªľ àª¯
ĠÚ¯ Ø²
åº Ń
áĢĽ áĢ®
Ñĭ Ðº
Ð¾Ð» Ð¶
ãģĳ ãĤĭ
à´¿à´ ³
Ġì¶Ķ ì²ľ
Ġ×Ķ ×¨×Ĳ×©
ãĤ¤ ãĥ«
å® Ī
Ø§ÙĬ Ø±
Ġà°¶ à±įà°°à±Ģ
ãģ« ãģĬ
à¹ģ à¸Ħ
Ø§Ø´ ÛĮ
ĠÑĢ Ð°Ð´Ð¸
M S
Ø¬ ÙĪ
×Ļ×ł ×ª
Ġà¤¹à¥ģà¤ Ĩ
×Ĺ ×ł×ķ
r ing
Ġà¸ªà¸¡ à¸±à¸Ħà¸£
ĠÐº ÐµÐ»Ð¸
Ġà®Ĩ à®¯
ĠÙħÙĪ Ø§Ø¯
ĠÙħ Ùĥ
ĠØ¬ÙĨ ÙĪØ¨
çļĦ æĺ¯
à°°à±įà° ¸
áĢ®áĢ¸áĢ ŀ
à¤¿à¤ Ĺ
ĠÑįÐº ÑģÐ¿
ĠÑħ Ð°Ð»ÒĽ
Ġhe ad
å® ĥ
ĠÐļ ÑĥÐ¿
à¸Ķ à¸³
Ñŀ ÑĢ
Ġáĥķ áĥĺáĥĵ
Î¬ Î¶
å¼Ģ å§ĭ
ĠÐĺ Ð¼
Ġáĥŀáĥł áĥĿáĥĴ
ĠØ³ Ø§ÛĮ
ĠáĢ¡áĢ±áĢĻ áĢĽáĢŃáĢĢ
Ġàªķ à«įàª·
ĠÐ¿ Ð°Ð½
Ġáĥĺ áĥĹ
Ġà¤¦à¥įà¤µ à¤¾à¤°à¤¾
ĠØ³ ÙģØ±
àª¨ àª²
Ġà®İà®´ à¯ģà®¤
Ġ365 ä½ĵèĤ²æĬķæ³¨
Ø§Øµ Ø±
Ġà®¤à®®à®¿à®´ à¯į
ĠÚĨ ÙĦ
ĠÐ² Ð»Ð°ÑģÑĤ
à¦¾à¦¨ à¦¿
Ð¸ Ò³
Ġáĥł áĥĲáĥ¡
ãĥ³ ãĤ¯
ÑĢÐµ Ñī
ìĨĮ ìĿ´ìĬ¤
è½ »
Ġà¸£à¸µ à¸§à¸´à¸§
ĠÐ´ ÑĬÑĢ
Ġà¦ªà¦° à¦¿à¦ļ
ĠØ£ ÙĪÙĦ
Ġ×ł ×©
éħĴ åºĹ
ä¸ ĥ
Ø§Ø¦ Ø²
ìł Ī
à¸ İ
à®ķà¯įà®ķ à®®à¯į
à¤¦ à¤¾à¤°
Ġäºļæ¸¸ å®ĺç½ĳ
ë¦ ¼
ar ge
à¤¬ à¤°
×ĺ ×Ļ×Ŀ
Ġpadd ing
ce pt
ĠÙħØ± ØŃ
Ġdiffer ent
à±įà°Ł à±į
à°ķà±įà°ķ à±ģà°µ
à¯Īà®¯ à¯ĩ
à«Ģàª ¥à«Ģ
Ġà®ĩ à®©
i os
Ġc ustom
ĠOn line
Ġ. :
áĤı áĤĪ
åıĳ å¸ĥ
Ð°ÑĨÐ¸ Ð¾Ð½Ð°Ð»
Ġ100 00
áĢķáĢ¼ áĢĬáĢº
Ðļ Ðĺ
Ġæ ¹
ĠÑģ ÑĥÑĢ
æĪĲ äºº
à¸ª à¸ļ
ĠÑģÐ¼ Ðµ
Ġ) )
ĠáĥĽáĥĲáĥĹ áĥĺ
ĠØ¢ Ø®
ĠÑģÐ² ÑıÑĤ
Ġä¸ ĸ
ĠáĢĶ áĢ²áĤĶ
é ¼
we en
Ġáĥĵ áĥĲáĥª
ĠÙĥ Ùħ
ä¼ ĳ
ãĥ¼ãĤ ·
é Ĩ
ĠÐĶ Ð¾Ð±
æ± º
áĥĲáĥ¥ áĥķáĥ¡
ĠçĦ ¶
à´¿à´ ľ
ÎĳÎ Ľ
áĥ£áĥłáĥ ķ
à¹Ĥà¸¥ à¸ģ
à¸«à¸¥ à¸±à¸ĩ
à®¤à¯įà®¤ à®¿à®¯
íĶ Į
è®¾ å¤ĩ
Ð¸ÑĢ Ð°ÑļÐµ
æĲ ı
z z
Ġàªı àªµà«ģàªĤ
ĠL ED
Ð´Ð° Ð½Ð¸
ĠáĢ¡ áĢģáĢº
ĠÐµ ÑģÑĤÑĮ
ä¸ĵ ä¸ļ
áĥĶáĥł áĥĺáĥĿ
ĠÑĪ ÑĥÐ´
à«ĭàª ¬
ãģ§ ãģĹãģŁ
å³ ¶
àª ĥ
Ïĥ ÏĦÎ®
Ġ×ĳ ×Ļ×ķ×ª×¨
à¸ĵ à¸ĳ
ãģ İ
áĢ¬áĢ¸áĢŀ áĢĬáĢº
Ø¬ Ø§ÙĨ
Ġ? ??
Ġæľ ª
Û ²
Ġ7 9
ãģĳ ãģ¦
ĠÚĪ Ø§ÙĦ
ĠÐ² Ð¾Ñģ
áĥķ áĥĹ
ot os
ÙĨ Ø´
ÑĢ Ð¾Ð·
Ġì§ ĳ
ĠàªĨ àª§
Ð¾ÑĤ ÑĢÐµÐ±
ir l
Ġæľ Ī
à¸ŀ à¸¥
ĠáĥĽáĥĺ áĥĺáĥ¦
Ġen g
Ġ Ćć
æīĢ æľī
ãģ® ãģĬ
ĠÐµÐº ÑģÐ¿
ĠÙħØ¯ ÛĮØ±
Ġà®ĩ à®ªà¯įà®ª
Ġà¦¹ à¦¤à§ĩ
ĠÙĦ Ú©Ú¾
ĠÑģ ÑĥÐ²
à¤¾à¤ ¥
ķ áĢ¶áĢ¯
Ïĥ Î¯
Î³ Î±
à¯Ĭ à®´
à±Ĩ à°¡
à¦¦ à¦¿à¦¨
Ġàª¤à«ĩàª® àª¾àªĤ
ĠÑĦ Ð¾ÑĤ
ĠT elugu
ÙĦ ØŃ
ĠáĥĴ áĥĺáĥĿ
Ġàªªàª¡ à«ĩ
à°¨ à°Ĥ
ĠáĥĽ áĥ¬
è ĵ
ÙĲ ÙĦ
ÏĢ Î®
Ġç ı
ãĥķãĤ ¡
áĢĦáĢºáĢ¸áĢ ¡
áĥĿáĥª áĥĺ
Ø§ÙĦ Ùģ
Ġàªļà«Ĥ àªĤàªŁ
à«ģàªĤ àª¬
ĠØ§ÛĮ Ø¬Ø§Ø¯
ĠáĢĶ áĢ¬áĢĽáĢ®
è®¡åĪĴ _
Ġáĥ¡ áĥĲáĥľ
ĠÐĳ ÐµÑĢ
Ġbu y
å¹ ħ
Ð½ ÐµÑĤÐµ
×Ļ×¨ ×ª
Ġm ed
ĠÙĩÙħÚĨ ÙĨÛĮÙĨ
Ġà´Ĩ à´¶
Ġàªµàª§ àª¾àª°à«ĩ
Ð² Ð°Ð¶
ĠÐ½ Ð¾Ð²Ð¸
à¸ª à¸ĩ
ĠÏĥÏĦ Î¿ÏħÏĤ
ØªÙĩ Ùħ
ë³ ´ë
è¿ °
Ġìĸ´ë ĸ
ĠÙĪ Ø§Ø±Ø¯
×ĸ ×ķ×¨
ĠÙħÙħ Ú©ÙĨ
ĠÐ¿ÑĢÐ°Ð² Ð¾
ĠÐ¼ Ð¸ÑĢ
áĥĶáĥľ áĥĵ
ĠíĨµ íķ´
Ġà¦¬ à¦¾à¦°
Ø¨ Ø§Ø¨
ĠÚ©Ø± ÛĴ
ĠÐ³ÑĢ Ð½
à¸¡ à¸±à¸Ļ
ĠÐºÐ¾ÑĤÐ¾ÑĢ ÑĭÐµ
à§ģ à¦¤
Ġàªħàª¹ à«ĢàªĤ
ĠÐ½Ðµ Ñģ
ĠØ§Ø¹ ÙĦØ§Ùħ
ĠÐ»Ñĥ Ñĵ
ÏĦ ÏĥÎ¹
ĠÙĨØ´ Ø§ÙĨ
ĠØ³ Ø¹ÙĪØ¯
ĠÐ´ Ð°Ð¿
ĠØ§Ùħ Ú©Ø§ÙĨ
åĲ ī
Ġàªµ àª°àª¸
Ġn a
Ġà¤ħ à¤Ń
ãĥ¬ ãĤ¹
Ð¿ Ð¸Ñģ
S S
z e
Ġàª®à«ĩàª Ĥ
Ġ×ł ×Ľ
áĥĲáĥķ áĥĹ
ÏĨ Î·
Ġáĥĺáĥ§ áĥĿáĥ¡
Ġàªľàª£àª¾àªµ à«įàª¯à«ģàªĤ
Ġà§ ·
ĠØ¯Ûģ Ø´Øª
ĠØª ÛĮÙĨ
ĠÚ©Ø§Ø± Ø¨Ø±
à°¡à±įà°¡ à°¿
å³ °
áĥĿáĥķ áĥĲáĥľáĥĺ
àª¦ àª¾àªµàª¾àª¦
Ú© ÙĨØ¯
×ĵ ×ª
ĠáĥŀáĥłáĥĿ áĥĶáĥ¥áĥ¢
Ġ×ª ×©
Ġpr ice
æ´ Ĺ
Ġp ay
ĠÑĤ Ð¾Ð²Ð°ÑĢ
Ð³ Ñĸ
ĠåĨ ħ
à¹ģà¸« à¹Īà¸ĩ
ÑģÑĤ Ð¾ÑĢ
ĠØ§ÛĮ Ø±Ø§ÙĨÛĮ
àª¿àªķ à«įàª·
Ġà¦¸ à§įà¦Ł
Ø±ÛĮ Ø¹
ÏĮ ÏĦÎ·ÏĦÎ±
Ġà´¸à´Ĥ à´ĺ
Ġàªı àªµà«Ģ
Ġàª®àª¹ àª¿àª²
ĠS er
è¯ ¢
Ġà¦® à¦¾à¦¸
ĠÙħØ¹ Ø±Ùģ
Ġf ound
ÑĢÐ¾ ÑĦ
ĠàªĨ àª¤
ç§ Ģ
ìŀ Ī
ç¦ı åĪ©
áĥķáĥĶáĥļ áĥĺ
Ùģ ÙĪ
ĠáĥĲáĥ ¤
Ġàªķàª° àª¤àª¾àªĤ
áĢľ áĢ¯áĢ¶
×ķ×¨ ×¡
ĠÐ¿ Ð¸Ñģ
ĠÎ±ÏĢÎ¿ ÏĦÎµ
à§įà¦ Ń
ÐµÑģ Ñı
į ¼
Ġ×Ĳ ×©×¨
S h
ĠÎ» Î±
àµĭ à´ķàµįà´ķ
íĸ ¥
àª¿àª ĵ
áĢŀ áĢĢáĢº
ĠÎ¶ Ïī
ĠéĢģ æĸĻçĦ¡æĸĻ
ĠS m
é «
ĠØ£ ØŃØ¯
àª® à«Ģ
Ġà®ª à¯ĩà®°
ĠØ¨ÙĦ Ú©Ûģ
Ġdis c
b al
å® ¾
áģĢ áĢ«
à§ĩà¦ ¹
ÑĥÐ» Ð°
Ġáĥĺáĥ¡ áĥĶ
Ġà¦Ńà¦¾à¦° à¦¤
à´¤ àµįà´¥
ĠÐ¼ÐµÐ¶ Ð´Ñĥ
ĠìķĦ ìĿ´
Ġà®® à®£
æ± ĩ
à«ĩàªķ à«įàª¸
ĠÑĤ Ð°Ð·Ð¸
Ð¾Ð² Ð°Ð½
ĠØ¨Ø´ ÙĥÙĦ
áĢ¶ áĢ³
ĠÚ©ÙĪ Ø´Ø´
Ġ×© ×Ŀ
Ġrem ove
ãģĹ ãģı
à¸Ļ à¸Ń
d d
ĠåĲ Ħ
áĥ¢ áĥĺ
à®¤ à¯ģà®®à¯į
à¤Ĥà¤¤ à¤°
b ack
ĠáĥĴ áĥĲáĥĴ
ĠØŃ Ø¬
ĠÎµÎ½ Ïİ
Ġcomm un
ä»· æł¼
áĢĿ áĢĦáĢ¹áĢ
æĭ ¬
à¹Ħà¸¡à¹Ī à¸¡à¸µ
à¸Ńà¸²à¸ Ī
ÏģÎ¯ Î¶
ÑĤÑĭ Ñĩ
ĠØ±ÙĪ ØŃ
å® ¡
Ġà´ª àµĩ
à¯Ĭ à®£à¯įà®Ł
à« Ń
Ð½ Ð¾Ð·
à¦¿à¦Ł à¦¿
Ġw ord
Ġàª° àªľ
Ġà¤Ĺ à¤ı
ĠÑĳ ÐºÐ¸
à±Ī à°¤
Ð°Ð½Ð¸ ÑĺÐ°
ĠÙĪ ÙĦÛĮ
ĠíĻ ľ
Ġà¤ĩà¤¸ à¤ķà¥ĩ
ĠÑįÑĤÐ¸ ÑĪ
ĠØ§Ùģ ØºØ§ÙĨ
Ø§Ø¯ Ø§Øª
±áĢ »áĢķáĢ¬
ļ à¸Ńà¸¥
ĠM in
ĠÐ¡Ð Ĭ
æĿ ¾
à®ķ à®®à¯į
à¦°à§įà¦ ľ
ĠØ§Ø¬ Ø±
ĠÑı Ñŀ
à¦¾à¦ ·à§įà¦Ł
ĠÐ¿ ÐµÑģ
Ġb g
Ġà®ħà®± à®¿à®µ
Ġ: "
é ¹
áĢħ áĢĢ
àª¾àª° àª®àª¾àªĤ
ĠÂ ³
ĠåĬł æĭ¿å¤§
ĠáĢ±áĢ ķáĢ«
Ġáĥł áĥĿáĥĵáĥĶáĥ¡
Ġor der
Ġ×ĸ ×Ĳ×ª
çļ ®
áĥĶáĥĵ áĥĺ
ĠÛĶ ÛĶÛĶ
ĠÐº Ð°ÑĩÐµ
Ġev ent
itt le
Ġê°Ģ ê²©
Ġà¦Ĩ à¦¶
is ter
ĠS k
Ò ļ
Ġare a
if ied
Ġà®ª à®¾à®Ł
ĠØ§Ùħ ÛĮØ¯
à§ĩà¦® à§įà¦¬à¦°
Ø§ÙĤ Ø©
ÙĤ ÙĤ
± Ħ
ĠÐ¿ÐµÑĢ Ð²
Ġëĵ ľ
à´¿à´¨ à´¿à´®
Ø° Ø±
op y
ĠÐº Ñĥ
Ġs ign
à°¾à°° à±į
çĽ Ľ
ÙĪØ³ Ø·
Ġè ¨
Ġàª¨àª¹ àª¿
ĠÑį ÑģÐ°
áĢ±áĢķáĢ« áĢĦáĢ¹áĢ¸
à¦¹ à¦¾à¦°
ÑĥÐ¼ Ð¸
Ð¸Ð· Ð½Ð¸
ĠÐµÐ´ Ð½Ð¾
à±ĭ à°¨
à¦°à§įà¦ ¶
Ñį ÑĢÑĭ
ĠáĥĽ áĥ£áĥ¨
ĠÐ² Ð¾Ð¿
ĠàªŃ àªĹ
à¦¿à¦¬ à¦¾à¦°
ë¯¸ ëħĢ
áĢħ áĢĬáĢ¹áĢ¸
Ïģ ÏİÎ½
×ķ ×ķ×Ķ
ĠØ¯ ÙĪØ¨
ĠÐ¾ ÑĦ
ä» ħ
ĠáĥłáĥĿáĥĽáĥļáĥĶáĥĳ áĥĺáĥª
Ġ×Ĳ ×ļ
àªª àª¾àª¸
ĠØ§ÙĦØ¬ Ø¯ÙĬØ¯
ä¼ ¼
à¹ĥ à¸ª
áĥĶáĥľ áĥĺáĥ¡
Îķ ÎĿ
ĠáĥĲáĥłáĥ¡ áĥĶáĥĳ
Ġ200 1
åĮĹäº¬ èµĽè½¦
×¨ ×§
Ġíİ ¸
Ġç ¨
ĠÐ¾Ð´ Ð¸Ð½
ÐĿ Ðŀ
ĠÚĪØ§Ú© Ù¹Ø±
Ñĩ Ð¸Ð½
Ġæ³ ķ
Ġà´ķ àµĭà´Ł
à¤¾à¤ ī
ĠØ¹ÙĦ Ø§ÙĪ
Ġm ov
à¸¤ à¸©
ĠÐ¿ÐµÑĢÐ¸ Ð¾Ð´
Ġim age
ãģ® ãģĮ
à· Ķ
à¤¾à¤Ĥ à¤¤
our ce
ĠÐº ÑĥÑĩ
Ġ áĤıáĢ¯áĢŃáĢĦáĢ¹áĢĦáĢ¶
à¤°à¥įà¤ ¶
er c
ĠØŃØ³ ÙĨ
Ġàª¶ à«įàª°à«Ģ
ĠÙħ Ø§Ûģ
ĠÐĳÐµÐ»Ð°ÑĢÑĥÑģ ÑĮ
ë° °
à«ĥ àª¤
à¸Ħà¸£ à¸±à¹īà¸ĩ
ĠS P
Ġáĥ¢ áĥĶáĥ¥
à´ İ
×¦ ×ķ×¢
Ùģ ÙĨ
ĠáĥłáĥĿáĥĵáĥĶáĥ¡ áĥĲáĥª
Ġà°ªà±įà°° à°¯
Ġàª¤àª® àª¾àª®
Ġà¨ ¨
ãģ§ ãģĤãĤĭ
áĥĿáĥ ļáĥĺ
ÙĪÙĤ Ø¹
Ġà¦ ł
à¸±à¸Ļà¸ ĺ
ĠÏĢÏģÎ¿ ÏĤ
à¦¦à§įà¦ ¦
áĥ¯ áĥĲáĥ®
à¸Ĺà¸ĺ à¸´
Ġà®ĩà®° à¯ģà®ªà¯įà®ª
Ø±Ø¨ Ø¹
Î¾ Î¹
Ġà°Ńà°¾à°° à°¤
à¯įà®Ł à¯į
Ġáĥĵ áĥĲáĥ®
Ġáĥ¡áĥĲáĥ ŀ
ãģĳ ãģ©
ĠÎ ĸ
é¢ Ŀ
áĢĢáĢ¹áĢ ģ
Ð°ÑĨÐ¸ ÑĺÐ°ÑĤÐ°
Ð¾Ð³ Ð¾Ð´
ĠáĢ»áĢķ áĢĶáĢ¹áĢ
ĠØ¨Ø§Ø± ÛĴ
à¸± à¸Ĺ
Ġm em
èĲĦ äº¬
à±Ĭ à°ķà±įà°ķ
áĥĶáĥĹ áĥ¨áĥĺ
à¯ģà®® à¯ĩ
ÎĳÎ ļ
5 00
Ġ×ŀ×Ĳ ×ķ×ĵ
ĠÑħÐ¸Ð· Ð¼Ð°ÑĤ
ĠÐ½ Ð¸Ñħ
ìľ¼ ë©°
ãĥ¼ ãĥ³
Ð°ÑĤ ÐµÐ»Ð¸
ĠáĥĿ áĥłáĥĺ
ĠÎķ ÏĢÎ¹
ĠEng lish
àªĤàª ĸ
ì¶ľìŀ¥ë§ĪìĤ¬ì§Ģ ìĥµ
ĠÐĳ ÑĢ
×Ľ ×Ł
à¸Ļà¸ ŀ
Ġf riend
à¹Ģà¸« à¹ĩà¸Ļ
à´¯ àµĭà´Ĺ
à« ª
ip edia
íħ Į
æī §
áĢĨáĢŃáĢ¯ áĢĲáĢ¬
àª¾àª¯ àª¾
ĠÑģÐ» Ð¾Ð²
áĥ¡áĥĲáĥ® áĥ£áĥł
ÙĦØ³ ÙĦ
ĠØ§ÙĦØ£ Ø®
ĠBl ack
ÐµÐ» Ñĸ
Ġà®ķà¯Ĭà®£à¯įà®Ł à¯ģ
à´¸àµįà´¥ à´¾à´¨
æ±½ è½¦
à¸£à¸²à¸Ħ à¸²
ÙĪÙĦ Ùĩ
Ġàªľ àª¨à«įàª®
ĠàªĹ àª¾àªĤàª§
ĠL ast
éĺ ¿
Ùĩ ÙĦ
àªŃ àª¾àªĪ
Ġd ays
Ġd ate
ĠæĻ Ĥ
×Ļ×ľ ×ķ×ª
ĠØ ¦
ĠÑĢ ÐµÑĩ
áĥ¡ áĥĺ
à«ĩ àª°à«Ģ
Îµ ÏĦÎµ
al am
Ġáĥ¥áĥĲáĥļ áĥĲáĥ¥
à°¨à±įà°¨ à°¿
Ġà®ª à¯ģà®°
Ġte chn
ãĤĴ è¦ĭ
Ð»Ð°ÑĢ Ð´Ð°Ð½
Ġà¸ª à¸³à¸«à¸£à¸±à¸ļ
Ùĳ Ø©
ĠÐ¾ÑĢÐ³Ð°Ð½ ÑĸÐ·
Ġ' ;
Ġàª¤ à«Īàª¯
áĢ¡ áĢĲáĢ°
T V
ãģ¨ ãģª
Ġà¦ķà¦° à§ĩà¦Ľà§ĩà¦¨
à°¾à° ¸à±įà°¤
Î´ ÏĮ
Ġà¹Ģà¸Ħà¸£ à¸·à¹Īà¸Ńà¸ĩ
ĠÙĬ Ø³Øª
çº ³
áĢ¹áĢ Ĥ
ard s
Ġáĥŀáĥł áĥĶáĥĸ
Ġà¤ĩ à¤¤
áĥĲáĥł áĥĶáĥĳáĥĲ
à¯Īà®¤à¯įà®¤ à¯ģ
Ġà°ĩ à°¦à°¿
Ġà®µ à®ķ
ĠÐ¡ ÐĤ
áĢĻ áĢĬáĢ¹
O V
Ġp op
à¸ ı
Ð°Ñĺ ÑľÐ¸
ĠÐ´Ð· ÑıÑĢ
Ġè į
å¸ ģ
Ïģ ÎµÎ¹
å¿ħ è¦ģ
Ð½ Ð°ÑĤÐ¸
à§ĭ à¦·
Ð¾Ð³ Ð¸
Ðº Ð°ÑĢ
ĠìĿ´ ìļ©
Ġà´¦ à´¿à´µ
ĠÐ¿ Ð»Ð¾
áĥ£áĥłáĥľ áĥĲáĥļ
à¤¸ à¥įà¤Ł
ÑĤ Ð°Ð¼
ĠÎĶ ÎµÎ½
à´¿à´° àµģà´¨àµįà´¨
Ġà´®àµģà´ ĸ
å¥ ¥
m ed
ĠÐ² Ð¸Ð½
áĢ±áĢĴ áĢŀ
à¸Ħ à¸°
ÙĪØ¯ Ø©
ĠáĥĲáĥ¦ áĥľáĥĺáĥ¨áĥľ
Ġà¤ķà¤° à¤¨à¤¾
Ġr un
à« ¬
Ġí ĳľ
ãģ«ãģª ãĤĭ
ÛĮÙħ ÛĮ
Ð¾ÑĤ Ð¸Ð²
Ġà¤ħ à¤µ
Ġ×Ļ ×¢
ĠI B
ãģ ¶
Ġàªµàª¿àª¶ à«ĩ
Ġà¦ª à§ģà¦°
ìĦ¸ ìļĶ
×ķ×ĵ ×Ķ
Ïį ÏĢ
Ġáĥ¬ áĥĶáĥķ
Ġoff er
ÏĨ ÎŃ
ĠÐ» ÑĸÐº
áĢĶáĢ¹áĢĻ áĢ½áĢ¬
99 9
ĠÐľ Ñĭ
áĢ±áĢĶ áĢĽáĢ¬
×ŀ× Ĺ
Ġæ £
Ġà¹Ģà¸Ľ à¹ĩà¸Ļ
ĠÑŀ Ð¹
ĠØ¬Ø¨ Ú©Ûģ
ĠÐ¿ Ð¸ÑĪ
à¹Ģ à¸Ļà¸·
ÙĴ Øª
ĠÙħ Ø¸
ĠÐ¿ÑĢ Ð°Ð³
ĠáĢ±áĢĽ áĢ¬áĢĢáĢ¹áĢ
Ð°ÑĤÑĥÑĢ Ð°
Ġà¤¸ à¤¿à¤Ĥ
ĠÑĢ Ñĥ
Ð¾Ð² Ð¸Ñħ
Ġà¤¶ à¤¿à¤ķ
éĢī 5
åħ¥ åı£
Ġ×ŀ× ŀ
ĠÐĨ Ð½
ĠíĻ ĺ
ĠÑģÑĬ Ð¼
ĠÐĵ ÑįÑĤÐ°
åĵ ¥
à©± à¨
à§ĩà¦ Ĺ
ÑĥÐ² Ð°ÑĤ
ĠÙĦ ÙĩØ§
áĥĺáĥ ©
áĢĶáĢŃáĢ¯áĢĦáĢº áĢĦáĢ¶
áĥĶáĥĳáĥĶáĥļ áĥĺáĥĲ
à°¸ à±įâĢĮ
Ú¾ÛĮ ÙĦ
×¦ ×ľ
eng th
ĠM od
áĥĲáĥ¡ áĥ¢
Ġà¤¸à¤ķ à¤¤à¤¾
ĠÐ¼ ÐµÐ³
èµĮ éĴ±
áĤı áĢ½áĢ¬
ÙĪÙĨ Ú©Ûģ
ĠØ§ÙĨ ÙĪØ§Ø¹
Ġ& &
×Ļ×ľ ×Ļ×Ŀ
ãģĭ ãĤĬ
Ġáĥĸ áĥĿáĥĴ
Ġs ay
Ġ7 1
ĠØ£ Øµ
Ġav ailable
3 00
ÙĪ Ø«
ÑĥÐ½Ð´ Ð°Ð¹
åŃ¦ æł¡
áĢĲ áĢ¯áĢŃáĤĶ
id es
ĠØŃ ÛĮ
Ð°ÑİÑĤ ÑģÑı
Ġëł Ī
ĠC an
èĥ½ åĬĽ
ĠØ¨Ø± Ú¯
à¸ģà¸³ à¸¥à¸±à¸ĩ
o ver
ĠâĢĶ âĢĶ
ĠÐ¼Ð°Ðº ÐµÐ´Ð¾Ð½
áĢķ áĢĬáĢ¬
áĢ¬áĢ¹áĢ Ļ
à¸ģà¸¥ à¸±à¸ļ
à¸«à¸¡ à¸²à¸¢
Ġ ā
Ġd ist
Ġáĥł áĥĿáĥªáĥĲ
ĠÐ¿ÑĢ ÐµÐ¼
Ùĥ ÙĬØ©
Ġà°Ĺà±įà°° à°¾à°®
Ġà¤« à¤¿à¤°
ĠÑĢ Ð°Ð±
ĠÐĶ Ð¾
Ġàªħàª® àª¦àª¾àªµàª¾àª¦
à¦¿à¦ ¹
éģ ĩ
çŃ ¾
ç® ±
à«ĭàª ¦
Ġëª »
à¥įà¤¯ à¤®
Ġáĥ¤ áĥĶáĥ®
ĠØ¯ Ú©
ĠØ¨Ú¾ Ø§Ø±Øª
b r
Ġàªµ àª¾àªĤàªļ
æīĭæľº app
Ġè¡ Į
àª¨à«įàª ¦à«įàª°
Ġà¦ļ à¦¾à¦²
ĠÑĢ Ð°Ñĳ
íķĺ ëĭ¤
ÙĴ Ø±
Ġ×©×ľ ×Ķ
Ġb ig
ÑĥÐ¼Ò³ ÑĥÑĢÐ¸
à±Ģà° İ
E M
Ġà®ķà¯Ĭ à®³à¯įà®³
ĠÐ¿ ÑĬÑĤ
áĥĲáĥļ áĥĵ
à´¿à´¤ àµįà´¤
ĠÙħÙĨ Ø°
d e
Ġàªª à«Ģ
ĠØ® Ø¯Ø§
Ġar ound
åĲ ¦
ãĥ¼ãĥ Ħ
à¤¶ à¥Ģ
ott om
Ġèĭ ±
ĠàªĽ à«Ģàªı
ĠØ« Ø¨Øª
Ġserv ice
ĠÐ³Ð¾Ð» ÐµÐ¼
Ïĥ Îº
Ġà¤īà¤¨à¥įà¤¹ à¥ĭà¤Ĥà¤¨à¥ĩ
ĠÑĩ ÑĤÐ¾Ð±Ñĭ
áĢľ áĢĢáĢº
à±ģà° £
ain s
ĠÐ¾Ñĩ ÐµÐ½ÑĮ
áģ ģ
Ġç Ĵ
ĠØ¯ÙĪ Ø³Øª
ĠÒ³Ð°Ð¼ Ð´Ð°
en se
Ġà´ĩ à´°
ÙĬÙħ Ø©
ãĤĵ ãģł
à¹Ģà¸ ī
ãĥĶ ãĥ¼
áĢŃáĢĻáĢ¹áĢ ·
Ð¾Ð½ Ð¾Ð²
Ġ×Ķ×ĸ ×Ķ
áĢĽ áĢĲáĢ²áĢ·
Ġà¸ ĩ
ĠÑĦ ÐµÐ²
Ġì¦ Ŀ
ĠàªĨ àª¦
Ġ×Ķ×Ĳ ×Ŀ
ê¸° ë¥¼
äº ķ
à°¾à°¬ à±ģ
Ð°Ðº Ð¸
ĠÐ³ ÑĥÑĢ
ĠØ®ÙĪ Ø§Ùĩ
áĢ®áĢ¸áĢ Ļ
à®¿à® ªà¯į
Ġáĥ§ áĥĿáĥ¤
ĠáĥĴáĥĺáĥĿ áĥłáĥĴ
ĠÙħ ÙĦÙĬ
áĢĦ áĢŃáĢĻáĢ¹áĢ¸
ĠÙħÛĮâĢĮ ØªÙĪØ§ÙĨ
ĠÐ´ Ð°Ð»Ð¸
à§ĭ à¦ª
Ġpro gram
Ġm ax
Ġde al
Î´ Ïħ
Ġä½ ķ
ĠáĢĽ áĢģ
ÑĥÐ½ Ð°ÑĢÐ¾Ð´
áĢķáĢ¹áĢ Ģ
Ġà¸Ń à¸Ńà¸Ļà¹Ħà¸¥à¸Ļà¹Į
ĠÐºÐ°ÑĢ Ð´
ãĤ¤ ãĤº
×¨ ×¡
Ù Ķ
ç»Ħ ç»ĩ
ĠáĥĴáĥĲáĥľ áĥĲáĥªáĥ®áĥĲáĥĵ
à¹ĩ à¸Ħ
àª¿àª¸ à«įàª¤
×Ľ ×Ķ
ĠÐº Ð°ÑĦ
à¸« à¸Ļà¸¶à¹Īà¸ĩ
à«įàª² àª¾
ĠØ³ÙĪ Ø§ÙĦ
à±įà° ľ
a ff
ĠÙħÙĤ Ø§Ø¨ÙĦ
ĠÐ¿Ð¾ÑĤ ÑĢ
Ġpo int
à¸«à¸Ļ à¸±à¸ĩ
ĠÐ² Ð½Ð¸Ð¼
àª¿àª £
ĠÐ¿ÑĢ Ð¸Ð»
áĥĶáĥłáĥ Ĵ
à¦¾à¦ĩ à¦¨
Ø§Ùħ Øª
áĢŀ áĢ¬áĢ¸
ĠÙĨ ÙģØ±
ĠÐ¿Ð¾ÑĢ Ð°Ð´Ð¸
è¡ ĵ
è Ĩ
à¹ĩ à¸¡
ĠáĢŀáĢ° áĢĻ
Ġ×Ļ ×Ĺ
ÙĦ Ø²
àµģà´¦ àµįà´§
Ġáĥ¨áĥĶáĥĽáĥĹáĥ®áĥķáĥĶáĥķ áĥĲáĥ¨áĥĺ
áĢŃáĢ¯áĢ¸áĢ Ļ
st er
Ġà¹Ģà¸§ à¸¥à¸²
Ġå ĭ
ĠØ³ Ø§Ø®
áĥĲáĥ¡ áĥ¬
àª¾àª¯ àª¦
ĠÛ±Û °
ĠØ§Ùģ Ø²Ø§Ø±
y c
ĠáĢŀ áĢĻ
æķ ĳ
Ð°ÑĤ ÐºÐ¾Ð²
Ġà¸Ħ à¸²
Ġà¦® à¦¨à§ĩ
ĠÐºÑŀÑĢ ÑģÐ°ÑĤ
ĠÐº Ð¸ÑĤ
å¨±ä¹Ĳ å¹³åı°
à¦¿à¦ §
ĠÙħØ³Øª ÙĤ
ĠA N
ĠÙħ ÙĤØ¯
à´¤ àµįà´¯
èĹ ı
à¸Ĭ à¸²à¸ķà¸´
Ġà®ĩà®°à¯ģà®¨à¯įà®¤ à¯ģ
çµ Į
ĠÏĮ Î»
áģ ĥ
ä¸ °
Ð½Ð¾ÑģÑĤ ÑĤÐ°
Ð°Ð»ÑĮ Ð½ÑĭÑħ
à¸·à¸Ń à¸Ļ
Ġà´Ł àµĨ
Ġà´¨à´¿à´¨àµįà´¨ àµį
Ġà°ª à°¾à°²
ĠÐ¸Ð½ÑĤÐµÑĢ Ð½ÐµÑĤ
ë¦ Ħ
Î® Î¼Îµ
Ġíĥ ľ
ĠØ¢ ÛĮØ§
Ġb oth
p ress
åľ° åĮº
åħĥ æ£ĭçīĮ
ÑģÐº Ð¸Ñı
à°¿à°¨ à°¾
av ing
B S
ĠÎł Î¿Î»
à®¾à® ¨à¯įà®¤
à§įà¦² à¦¾à¦¹
à¥ģà¤ ·
Ø§ÙĤ Ø§Øª
Ø§Ø¯ Ø«
×Ļ×Ľ ×Ķ
Ð² Ð°Ñī
g r
_d ata
ĠÐŀ Ð½
ĠØ³ÙħØ¬ Ú¾
ĠÐļ Ð°Ð½
à±Ģ à°Ł
om en
Ġàª¶ àª¹à«ĩàª°
Ġàª¨ àªµà«Ģ
éĵ¾ æİ¥
ĠØ¹ Ø§ÙĦÙħ
à«¦ à«¦
Ð½ ÐµÐ½Ð¸Ðµ
Ġåį İ
ãĤ ´
áĥĶáĥķ áĥĲ
Ð»Ñĸ Ð½
Ġàª® àªĤàª¦
Ġàª¨à«ĭ àªĤàª§
ĠÑĤÑĢ Ñį
àµĭ à´¯
Ġà´ı à´±àµįà´±
æ ¦
ÐĲ ÐĽ
Ġæį ®
Ġã Ħ
Î»Î· ÏĤ
re am
ĠÑģ Ñħ
ĠÐĴ ÐµÐ»Ð¸
Ġ35 6
à¸¨ à¸¶à¸ģà¸©
×¨×Ľ ×ĸ
à«Ģàª ĸ
ĠÚ©Ø±Ø§ ÚĨÛĮ
áĥ£áĥ ©
Ġà¹ģà¸¥ à¹īà¸§
Ġé© ¬
ĠM o
Ġ365bet å®ĺç½ĳ
ĠØ³ ÛĮÚ©
ĠThe y
ì ±ħ
áĥĽ áĥĲáĥľ
ÐµÐ´ ÐµÑĢ
Ġà¤µà¤¿à¤ ¦
ĠAm er
áĢĻáĢ» áĢ¬áĢ¸áĢ¡
à¸²à¸ Ĺà¸µà¹Ī
Ġà°ī à°ª
ĠØ² ÙĬ
áĥĺáĥ« áĥĶ
Ġb order
Ġàª¬àª§ àª¾
Ġ\ "
Ð°ÑĤ ÐºÑĥ
Ġà¤ļ à¤²
ĠÙĥ ÙĬÙģ
ĠÑĢ Ð¾
ĠÐº Ð°Ñĺ
×ķ×ŀ ×Ļ
ìĬ ¹
à®Ļà¯įà®ķ à¯ģ
ÏĢ ÎŃ
Ġíģ ¬
Ġáĥ¬áĥĲáĥłáĥĽ áĥĿ
ĠáĢĴáĢ¯ áĢĲáĢŃáĢļ
Ġà®µ à®³
ĠÐľ ÑĸÐ½
àªķ àª¡
Ò Ĳ
ÑģÑĤÑĢ Ð¾Ð¹
Ĩ áĢ¯áĢŃ
Ġà¤¸ à¤¾à¤²
ĠÑĹ ÑĹ
àªĤàª Ń
ĠÐ¾Ð´ Ð°Ð¼
Ġà´ķ àµģà´Ł
ë§ Ĳ
áĥĲáĥłáĥļ áĥĲáĥĽáĥĶáĥľáĥ¢
áĥł áĥĶáĥ¡
áĢ½áĢº áĢĦáĢ¹
à®£à¯įà®Ł à¯ģà®®à¯į
Ġ×© ×Ļ×©
Ð¾Ðº Ñģ
ĠáĥĴáĥĲáĥĵ áĥĲáĥ¬áĥ§áĥķ
Ġaccess _time
à¤ļ à¥Ģ
Ø² ÙĬØ¯
Ġáĥ¡ áĥĺáĥ¡áĥ¢
Ġsm all
ĠáĢ¡ áĢĢ
é¡ ŀ
æ¬ §ç¾İ
Ġï »
ĠØ´ ÙħØ§ÙĦ
à¹Ģà¸ģ à¸µà¹Īà¸¢à¸§
àª® àª¾àª¨
ĠÑĨ Ð²ÐµÑĤ
Ġbet ween
àµĢ à´ķàµįà´·
à¤ ĥ
£ Į
:: ::
Ġm arket
ÑģÑĤ Ð°
Ġí ħ
ĠÙĬ Ø¯
Ġse arch
áĢĦáĢºáĢ¸áĢ ķ
×Ļ×ĵ ×Ķ
Ġc our
Î¹ Ïİ
Ġà´İà´¨àµįà´¨ à´¿à´µ
Ġà¤¸à¤¬ à¤¸à¥ĩ
ç¤ ¼
ĠàªĨ àªĸ
éĽ ¨
ĠÛ² Û°
Ûģ Ø§Ø±
Ġáĥ¬ áĥĲáĥĽ
Ġà¦ľ à§Ģà¦¬
ain ing
Ġì º
à¸Ļà¸ Ĭ
áĢħ áĢħáĢ¹áĢ
ou th
ĠÙĦÛĮ Ú¯
ĠÏĩ ÏģÎ·
à¦¾à¦ Ľ
ÎŃ Ïĩ
ĠÛĮÛģ Ø§Úº
æŁ »
ä¸ ½
à« ¯
O U
ĠØ³ Ø¹
Ġus ing
Ġd i
ÛĮØ¯ ÛĮ
Ð´ ÐµÐº
ĠØ¨ Ùĥ
à« ©
ÙĬÙģ Ø©
Ġàªķàª° à«įàª¯àª¾
Ñĸ Ð½Ñĭ
v a
Ġì§Ģ ëĤľ
Ġà®İà®©à¯įà®ª à®¤à¯ģ
ĠÐ¿ ÐµÑĤ
áĢĽ áĢ±áĢ¸
ÑĨ ÐµÐ¹
Ġì ´Ŀ
Ġáĥŀáĥł áĥĿáĥĳáĥļ
Ġàªµ àª¹
Ġáĥ¥ áĥĲáĥłáĥĹáĥķáĥĶáĥļ
ĠÙħÙĨ Ø§Ø³Ø¨
Ġar t
éģ ĭ
à®¿à®ķà¯įà®ķ à®ªà¯įà®ªà®Łà¯įà®Ł
Ġnum ber
àª¾àª¯ à«ĭ
à¤ļ à¤¾
à¥įà¤° à¥ĩà¤¸
ĠáĥĽáĥĲáĥ¨ áĥĺáĥľ
Ġà®®à¯ģà®¤ à®²à¯į
Ġáĥ¯ áĥĶáĥł
ĠÎ¾ Îµ
çİ¯ å¢ĥ
ĠÐ¿Ð¾Ð² ÐµÑĩÐµ
Ð½Ð¸Ðº Ð¾Ð²
A Y
???? ????
à¦¾à¦·à§įà¦Ł à§įà¦°
Ġà¦ħ à¦§
ĠØ¶ Ø¯
ĠÐŀ ÑĢ
ĠÐ² Ð¸Ð±
Ġ. -
Ķ áĢļáĢ¹áĢ
ĠØªØ± Ú©ÛĮ
Ð°Ð» Ð¸Ðº
ĠÑĤ Ð¸Ðµ
ĠÐ¨ Ñĥ
Ġáĥ¡ áĥĿáĥ¤
Ġàªµàª¿àªļ àª¾àª°
ĠÙĨÛĮ Ø§Ø²
n i
Ð¿ Ð¾ÑĢ
ĠáĥĽ áĥĺáĥľáĥĺáĥ¡áĥ¢
Ġà°ª à°¨
áĥĲáĥłáĥ £áĥļáĥĺ
Î³ Ïĩ
åħŃ åĲĪ
Ã ¼
Ġà°¤ à°ªà±įà°ª
ľ ëĵľ
Ð¾Ð» Ð°ÑĢ
Î¹ÎºÏĮ ÏĤ
x t
à¤°à¥įà¤ ¸
ÐµÑĢ Ñĭ
Ġà¦¨à¦¿ à¦°à§įà¦
Ġà¸§à¸´ à¸ĺà¸µ
èĤ ĸ
à´¿à´Ĥ à´Ĺ
Ġà®ĩ à®©à¯įà®©
à¤¨ à¤²
ĠÙĨ ØªÛĮ
ĠØ® Ø§ÙĨÙĩ
Ġin tern
ĠF il
áĥĿáĥľ áĥĿáĥĽ
ĠáĥĶáĥł áĥĿáĥķáĥľ
Ġà§ ®
à°¾à°¨ à±į
Ġà¦ĩ à¦¨
ĠìĪ ľ
Ġà°¸ à°°
Ġ11 0
Ġæ ¡
é¢ ¨
Î² Î¿Î»
ÑĢ Ð°ÑĤÐ¸
ĠØ³ÛĮ Ø§Ø³Øª
à±Ĩ à°Łà±įà°Ł
ĠáĥĵáĥĲáĥ Ķ
Ġà¦Ĩ à¦¨
ĠÙħÙĨ ØªØ¯
ĠÑģ ÑĮ
Ġà¦¨ à§Ł
áĢķáĢ¼ áĢ²
±áĢĢ áĢ¬áĢĦáĢ¹áĢ¸
ĠæĬ ķ
Ðº Ð°Ð¼Ð¸
Ġë© Ķ
ĠÛģÙĪÚ¯ Ø§
ĠÐ¿Ð¾Ð¼ Ð¾Ñī
Ġt est
à¦® à¦¿à¦ķ
à¦¿à§Ł à¦¾à¦°
ĠÐ¾ÑĤ ÑĢÐ¸Ð¼
ĠÐ°Ð² ÑĤÐ¾ÑĢ
ãĥ¼ãĤ «
ĠÙ¾ Ú¾
Ġam p
æĺ¯ ä»Ģä¹Ī
áĥĿáĥłáĥª áĥĺáĥĶáĥļ
áĢ¬áĢ¸áĢĻ áĢ½áĢ¬
ÑĥÐ½ Ñĳ
ĠØ³Ú© ØªØ§
Ġ×©×Ķ ×ķ×Ĳ
ĠÑĤ ÑĭÐ¼
ä¼ Ĭ
ĠáĥĲáĥ ¨
ĠØ§ÛĮØ³ ÛĴ
ÙĪÙħ Ø§Øª
ĠæĿ ±
ĠÎ£ ÏħÎ½
ĠëĶ Ķ
ĠàªĨàªµ à«įàª¯à«ģàªĤ
ĠÑĢ ÑĥÑģ
ÐµÐ½Ð¸ ÐµÐ¼
ĠØ§Ùģ Øª
ĠáĥĿ áĥ¥
ĠáĥĵáĥĲáĥĻ áĥĲáĥķáĥ¨áĥĺáĥł
ĠÐ¹Ñŀ Ð»
×ĸ ×§
Ðļ Ðŀ
Ġà´µàµįà´¯ à´ķàµįà´¤
à´¿à´Łàµįà´Ł àµģà´£àµįà´Łàµį
Ġëĭ¤ ë¥¸
é¡ į
è´ µ
ĠØ± Ø¦ÛĮ
Ġå¥½ è¿Ĳ
ĠÎ¬ Î½
Ġs ame
à±Ģ à°¤
áĢķáĢ¼ áĢĶáĢº
Ö µ
ÑĬ ÑĤÐ¸
Ġáĥ¤ áĥĺáĥļ
ĠÑģÐ¿ Ð¾ÑĢÐµÐ´
Ġàª®àª¦ àª¦
åı ³
Û µ
ĳ ìĿ´
Ġç ĥ
ĠÐ¾Ð»Ð¸ ÑĪ
Ġà°¦ à±įà°µ
Ġà´ŀ à´¾à´¨àµįâĢį
Ġà´¸à´Ĥ à´Ń
ĠÑıÐ² Ð»Ñı
áĥľ áĥĺáĥĶáĥł
à´« àµį
à°ļà±įà°ļ à±ģ
ĠáĢĢáģ½áĢ¼áĢĶáĢ¹áĢ ±áĢĲáĢ¬áĢ¹áĢ
à°¾à°Ĥà° ¡
Ġà°ª à°Łà±įà°Ł
ĠÑĢ ÑĸÐ·
ĠØ§ÙĨ ÙĤÙĦ
ĠÙĪ Ø§Ø¶
à¹Ģà¸ Ĺà¸µà¹Īà¸¢à¸§
_ m
ĠåĲ Ī
Ġà®µ à®¿à®Łà¯įà®Ł
ÐºÐ¸ Ð¼
er a
áĥ® áĥĶáĥĵ
Ð¼Ð°Ð¹ Ð´Ð¸
Ð°Ð»ÑĮ Ð½Ñĸ
à¹Ģà¸Ĥ à¸²
ĠÑĨ Ñı
ĠÐ³ ÑĸÑģÑĤ
à¹īà¸²à¸ §
C C
ĠÙĪØ²Ø§Ø± Øª
Ġàª¥àª¯ àª¾
Ġà¦ķà¦¾à¦ Ľà§ĩ
à¨ Ĥ
ĠØ§ÙĦÙħ Ø´Ø§Ø±
Ġå¤§åıĳ æŀģéĢŁ
ĠØ· Ø±Ø§ØŃÛĮ
Ø§Ø¦ ÙĤ
ÑĢ Ð¶
Ð¿ ÑĤ
ĠØ¥ ÙĦØ§
ĠÐ¸Ð½ Ð²
à¦¾à§ľ à¦¾
ĠÐ¿ÑĢ Ð¾Ðº
èĥ Į
ãĤ» ãĥĥãĥĪ
à«ĭàª°à«įàª ¡
àªĤàª¦ àª°
Ð¾Ð´ Ð°Ð²
æĸ°éĹ» ç½ĳ
à´¨ à´¿
çĸ ĳ
ĠÐ² Ð¸ÑĤ
ank s
ĠÐ¾ ÑģÑĤÐ°Ð²
ĠÐ±ÑĥÐ» Ð¾
åĵģ çīĮ
Ġë¸ Ķ
ĠØ§Ùĵ Ù¾
â Ĩ
à¸Ĭ à¸¡
à¥ģà¤ ³
ĠáĥĲáĥ Ĺ
< /
ĠáĥĽ áĥĶáĥª
åŃ¦ éĻ¢
Ġ18 0
ĠãĢĳ ,
ĠØ§Ø® ØªÛĮ
à´µ à´°àµįâĢį
d ate
ĠàªħàªĤàªĹ à«ĩ
à¸¸ à¸Ľ
à°¾à°Ĥà°Ł à°¿
ï¼ ĵ
ÐµÑĢ Ñĸ
ĠÙĨ Ø§
ĠÑĪÐ°Ò³ ÑĢÐ¸
à°¿à°Ĥà° ª
Ø§Ûģ ÙĪØ±
Ġà¤« à¤¿à¤²
ĠØ§ÙĦÙħ Øº
ĠÐ¾Ð±ÑĢÐ°Ð· Ð¾Ð²
æ¥ ¼
ĠÎ´Ïį Î¿
áĥ£áĥ ŀ
à¶ ¸
ÐµÐ½ Ñı
ëŁ °
è° Ī
ĠÐ² Ð¸ÑģÑĤ
Ġà®ļ à¯ĩ
Ø± Ø®
Ġà¤ª à¥ģà¤²
ĠáĢĽ áĢĢáĢ¹áĢ±áĢĶ
Ġà´® àµĭ
ĠàªŃàª¾àª°àª¤ à«Ģàª¯
ĠÐ½ ÐµÑĤ
Ġg roup
ĠA P
ÙĦ Ø§Ú©
Ð´ Ð¾Ð½
Ġåį ³
ĠÙĦ Ø¥
ĠÐºÐ°Ðº ÑĤÐ¾
Ġáĥĺáĥ¡ áĥ¢
à¸ĩ à¸ļà¸Ńà¸¥
ĠáĥĽáĥĶáĥĿ áĥłáĥĶ
éĸ Ģ
åº Ħ
ĠØ§ÙĦ Ø§ØŃ
à´¯ à´¿à´²
ĠÎ±Ïħ ÏĦÎ¿
Ġáĥĵáĥ¦ áĥĶ
Ġà¦ħ à¦ªà¦°
Ùİ Ø§ÙĦ
×ķ×¤ ×Ķ
ĠÑģÐ² ÑĸÑĤ
ÏĥÎ¹ Î¼Î¿
um p
Ġàªªà«įàª° àª¦
è´ ¦
ĠÙħØª Ø¹ÙĦÙĤ
à¯ģà®± à¯Ī
Ġà®ħà®µ à®°à¯įà®ķà®³à¯į
ĠÐº ÑĥÐ½Ð¸
ĠØ§ÙĦØ¬ Ø²
ĠÏĢ ÏģÎ±Î³
ãģĿ ãģ®
ĠÐ¿ Ð°Ð»Ñĸ
ĠÐ±Ñĭ Ð»
ìĻ¸ êµŃìĿ¸
Ð¿ Ð»
Ð¾Ð± ÑĢÐ°Ð·
Ġàªķàª¹ à«ĩ
ĠÐĵ Ð¾ÑĢ
ĠÐ´ Ð¸Ð·
à´¿à´ ¦
Ġà¸ŀ à¸£à¹īà¸Ńà¸¡
Ġ? !
ľ à¸¹à¹ī
ç§ Ł
à§įà¦¯ à¦¾
Ġë ģ
Ġà´ļ à´¿à´²
Ġà¤Ĩà¤ª à¤ķà¥ĭ
æĪĲ ä¸º
àª¿àªķ àª¾
Ġà¤¤ à¥ĩ
ĠìĹ ħ
ĠÐĴ Ð°ÑĢ
à¦ ĺ
Ð³ Ð»ÑıÐ´
ĠáĢĶ áĢ±áĢ¬áĢĢáĢº
Ġàªķàª° àªµàª¾àª¨à«Ģ
ĠáĢĨ áĢ¯áĢŃ
à¹Ģà¸§ à¸¥
à¯Īà®ķ à®³à¯Ī
à®Łà¯ģà®¤à¯įà®¤ à¯ģ
Ð¸Ñĩ Ð½Ð¸
I nd
ight s
ĠS H
Ð¾Ð½ ÑĥÐ½
æĿ İ
å¾ ģ
áĢĶáĢ¾ áĢĦáĢºáĢ·
Ġà¦¦ à§įà¦¬
Ġ×Ĵ ×ĳ
ĠÎļ Î±Î¹
ÐµÑĺ ÑľÐ¸
Ġ\ /
ë° ±
Ġà¦¸ à¦¾à¦§
ĠÒĽ Ð°Ð¹
ĠÑı Ð½Ñĭ
Ùĩ ÙĨ
t n
ĠP D
åĪ© æĿ¥
ĠØ³Ø§Ùħ ÙĨÛĴ
æĦŁ ãģĺ
à¹Ĥ à¸Ķ
Ġà´® à´±
ãģ§ ãģĹãĤĩãģĨ
áĥĲáĥķ áĥĶ
Ð¸Ð» Ðµ
Ġà¦ħà¦¬ à¦¸à§įà¦¥
Ø®ÙĪ Ø§Ø³Øª
Ġ×ľ×ŀ× ©
Ġáĥ¬ áĥĺáĥľáĥĲ
ĠÙĩÙħ ÛĮÙĨ
Ġw in
áĢ¡ áĢĨ
´ë ¦
Ġê°Ģ ìŀ¥
ĠÑħ ÑĤÐ¾
áĢ±áĢľ áĢ¬áĢĢáĢ¹áĢ
áĢľ áĢ¹áĢ
àµĢ à´¤
àª¿àª¸ à«įàªŁ
Ùħ ÙĪØ¯
Ġç ¤
ĠØ¯ÙĪÙĨ ÙĪÚº
ĠáĥĶáĥķáĥł áĥĿáĥŀ
ĠáĢķáĢ¼ áĢĶáĢº
åĽ °
Ġà°¹ à±Ī
ë ¹
Ġãĥ Ń
ĠàªĨàªµ àª¶à«ĩ
Ġagçİ¯äºļ éĽĨåĽ¢
ĠĈ ć
ĠØ§ÙĦÙħ Ø®
à´ ł
Ġáĥ¨áĥĶáĥ¡ áĥĲáĥĳ
ĠÐº ÑĢÐ¸
ä¸į èĥ½
Ġàªªà«įàª°àª® àª¾àª£
Ġè Ĳ
ĠØ± Ø§Ø¨Ø·
ĠØ§ÙĨØª Ø´Ø§Ø±
Ġ] ,
×ķ×¨ ×ķ×ª
ĠÑī Ð¾Ð±
ĠÂ ¶
æıĲ çİ°
à±Ģà° Ĩ
à°ª à±ģ
à¦¾à¦¦ à¦ķ
Ð¼ Ð¾ÑĤÑĢ
å½± åĵį
Ġà¤¸ à¤Ńà¥Ģ
áĢĲáĢ¹áĢ ħ
if y
àª¾àª¸ à«įàª¤
ĠÐļ Ð°Ð»Ñĸ
à±ĩà° ¸à±įà°¤
à§ ¨
à¥ģà¤ ĸ
áĢ ĭ
à¤ Ŀ
ĠÙ¾Ø§Ø³ Ø®
Ġag äºļæ¸¸
áģ¾áĢĢ áĢ®áĢ¸
ħ è¯»
ĠÐ´ÑĢ Ð¶Ð°Ð²
×¤ ×ľ
ÑģÑĤ Ð¸
ĠÐ¿ÑĢÐ¾Ð± Ð»
k s
æĺ¯ ä¸Ģ
¤ Ħ
ĠÐļ Ð°Ð¼
áĥļ áĥĶáĥĳáĥĺ
ĠÙħØ¯ ÛĮØ±ÛĮ
ĠØ¹Ø¯ Ø§ÙĦØª
à´® à´¾à´£
à°ª à°¡
áĢ¬ áĢĢ
à¸« à¸²à¸£
Ð¸Ð´ ÐµÐ½ÑĤÐ¸
·à«įàª ł
è¯ ī
Ø§Ø¶ ÛĮ
ĠáĢ¡ áĢ±áĢĶ
Ġ{ "
Ġp ass
own load
Ð ®
ĠáĢĲ áĢ½
ç¶ ²
áĢ»áĢĸáĢħáĢ¹áĢ ķáĢ«áĢĲáĢļáĢ¹
à´¨àµįà´ ®
Ġê°Ģ ëĬ¥
Ġà¦ıà¦ķ à¦Łà¦¾
Ġ ide
åĴĮ åĢ¼
Ġâĺ Ĩ
ĠØ¯Ø±Ø¨Ø§Ø± Ùĩ
ĠØ¬ Ú¾
Ġlo ad
Î´ Î±ÏĤ
ĠÎ¼ÎŃ ÏĥÎ±
à«Ģàª §à«Ģ
Ġloc ation
u u
ç» į
áĢķ áĢĦáĢº
Ġãĥĸ ãĥ©
Ġà®¤ à¯Ĩ
ä¹¦ è®°
Ĩ áĢĶáĢ¹áĢ¸
áĥļ áĥĶáĥĳáĥĲ
Ø³Ø¨ Ø¨
Ġáĥ¨áĥĶáĥ¡áĥĲáĥĳ áĥĲáĥĽáĥĺáĥ¡
è¯ į
ĠàªªàªŁ à«ĩàª²
ĠÑģ ÑıÐ±
ĠÐ· ÑĮ
à¹Ģà¸¨ à¸©
g a
ĠáĢĻ áĢĦáĢ¹áĢ¸
Ð»Ð¸Ð³ Ð¸Ð½Ð¸
Ġw ater
áĢĲ áĢ²áĤĶ
à¸ľà¸¥ à¸´à¸ķ
×ł ×§
à¥ĩà¤Ĺ à¤¾
Ø§Ùģ Ø±
Ø§Øª ÛĴ
à¹īà¸²à¸ «
Ġà¦¤ à¦¾à¦ĩ
ĠÐºÐµÑĢ Ð°Ðº
Ġsc roll
àµĤà´Ł àµĨ
à¤¦ à¤¾
à«ĩàª¨à«įàª ¦à«įàª°
ĠÚ©Ùħ Ù¾
ĠÙħÛĮØ± ÛĴ
éĢ Ĥ
Ġà°ķà°¾à°° à±įà°¯
ĠØ¬ Ø°
à°¦ à±ģ
ÐµÐ¹ Ð¸Ð½
©áĥĶáĥķ áĥľ
Ġà°µà°¿à° ¶
áĢı áĢº
ÑĤÐ¾ Ñĩ
ĠÐº Ð°Ð´Ðµ
ÑĨÑĸ Ñı
áĢĶáĢ¹áĢ ŀ
ÑģÑĤÐ² Ðµ
Ġàª¬ àªĤ
à´¿à´ķ àµ¾
ĠÑģ Ð°Ð´
ag ram
ĠÙħØ± ØªØ¨
áģ Ħ
àª¥ àª®
Ð½Ñĸ Ñħ
Ġà´® à´¾
éĥ¨ éĹ¨
Ùİ ÙĪ
à§ľ à§ĩ
Ġf act
ĠÑĪ Ð°ÑħÑģ
ĠÐĳ Ð¾ÑĢ
ĠÛ ³Û
ÚĪ Ø±
Ġà¦¦ à§ĩà¦ĵ
Ġà¤¤ à¥ģà¤®
ĠÑĢÐ°Ð¹ Ð¾Ð½
éģ ķ
éĢ ı
ĠØ¨ Ø¥
áĢ¶ áĢĢ
Ġà¤Ĺ à¥ĭ
Ð¾Ð² ÑĭÑħ
Ð Ń
ĠØ¥ ÙĦÙĬ
à¸ľ à¹Īà¸²à¸Ļ
ÑĢÐ°Ñ ĵ
ĠØ§Øµ ÙĦÛĮ
à¯ģà®³à¯įà®³ à®¾à®°à¯į
Î» Ïİ
ÙĬ ÙĤ
Ġáĥ£áĥ ĳ
in ation
áĢĻ áĢŁáĢ¯áĢĲáĢº
à¹Ģà¸Ħ à¸£à¸²à¸°
à¦¾à¦ĩ à¦²
à¶ ļ
àª¶ à«ĭ
Ġç ĸ
æīĭæľº çĻ»å½ķ
ĠØ§ÙĨØªØ®Ø§Ø¨ Ø§Øª
Ġ×Ļ ×ľ
à°Ĥà° ¡à±ģ
à¦Ĺà§ģà¦² à§ĭ
Ġáĥŀáĥł áĥĿáĥ¤
Ġàª¸ àªµ
áĥĲáĥĹ áĥĺ
Ġàªķ à«ĭàª°
Ġà°¤ à±ĭ
Ġad vert
ĠáĢĺáĢ¯áĢĽáĢ¬áĢ¸áĢŀ áĢģáĢĦáĢº
Ġvi ews
Ú© Ø´
çĦ¡ ãģĹ
Ġåħ Ī
ĠÐ¿Ñģ Ð¸Ñħ
àª¾àª® à«Ģ
20 16
ĠÐĳ Ð¾Ð³
ĠØ§ Ú¯
ĠÑģÑĤ Ðµ
ä¸į åĲĮ
×ķ×¤ ×Ł
ĠáĥĺáĥĴ áĥĺ
Ġà´ħ à´¤àµį
Ġè ĥ½
ĠÚ©ÙĨ ÙĨØ¯Ùĩ
ĠÏħ ÏĢÏĮ
áĥĲáĥĸ áĥłáĥĵ
áĢĢáĢ¼ áĢ±áĢ¬áĢĦáĢºáĢ¸áĢ
Ġs b
ÐµÐ¼ Ñĥ
Ġà¤Ĩ à¤®
ĠM P
ä¸Ń å¤®
âĢĮ à°°
à´Ļàµįà´Ļà´³ à´¿à´²àµįâĢį
×ŀ× ĳ
Ġãģ ©
Ġà°ķ à°°
ĠÙĤ ØªÙĦ
ĠÐł ÐµÐ¿
ĠØ§ÙĦ ÙĪÙĤ
áĥĶáĥķ áĥ¡
à¤¾à¤ļ à¤¾
Ġ% ,
áĢķ áĢ¶áĢ¯
ÑĨÐ¸ Ð¿
Ã ¨
Ġàª²àªĹ à«įàª¨
ĠÑı ÑĪÑĩÑį
Ð¾Ð»ÑĮ ÐºÐ¾
ĠØªØ¹ ÙĦÙĤ
ĠI nt
à¦¿à¦· à§įà¦ł
ĠáĢĳ áĢŃ
Ġà°ļà±ĩà°¶ à°¾à°°à±ģ
ĠÚ¯Ø±Ùģ ØªÙĩ
ĠØ¶Ø± ÙĪØ±Øª
Ġ Úĺ
ĠÚ© Ø§ÙħÙĦ
à®© à®®à¯į
Ø§Ø± ÙĬØ©
ï½ Ĺ
áĢĽáĢ¾ áĢĦáĢº
C D
ĠØ´ ÛģØ±
ĠB ook
à´ļàµįà´ļ àµį
ĠiP hone
à¹Ģà¸Ħà¸£à¸²à¸° à¸«à¹Į
à§ĭ à¦ľ
áĢ¬ áĢĲáĢº
Ġàªħàª§ àª¿àªķ
èĢĥ è¯ķ
Ġë² ł
à´¯àµįà´ķàµįà´ķ àµį
ĠÑĢÐµÐ³ Ð¸
Ð½ Ð°ÑĢÐ¾Ð´
Ð»Ð¸ ÑĪ
Ġf lo
Ġáĥ¡áĥĲáĥŃ áĥĺáĥł
ÏģÎ¯ ÏĤ
ĠØ§Ù Ĳ
Ø§Ø´ Ø¯
ĠØ³ÛĮ Ø³ØªÙħ
ĠGujarat i
àµįâĢĮ à´¸
Ð¾Ñģ Ð¸
E X
ĠÑĳ ÑĪ
ĠD is
Ġæ² ¡
à¤µ à¤¨
Ġà´µ à´¿à´²
ĠÙĦ Ø§ÛģÙĪØ±
Ġà°® à°Ĥà°ļ
ĠØµÙģØŃ Ùĩ
à¥Ĥ à¤®
ÑĢ Ð°Ñŀ
ĠëĬ Ķ
Ġä¸Ĭ æµ·
ĠÙĨÛĮ ÙĪØ²
ĠL a
ë¦ ī
Î ¦
à«Ģàªĵ àª¨à«ĩ
àª¿àª ·
×¢ ×¨
ĠÑĥÑģÐ» Ð¾Ð²
ĠÐľ Ð¾Ð¶
ÙĤ Ùģ
Ð»Ð°ÑĢ Ð¸Ð´Ð°
Ġáĥ¡áĥ¬ áĥĿáĥł
ĠØ§ÙĦÙħ ÙĦ
Ø¶ Ø±
ÐµÐ»ÑĮ Ð¼Ñĸ
Ġà¦ľà¦¾à¦¨ à¦¾à¦¨
ĠÐºÐ² Ð°ÑĢÑĤ
ç²¾ ç¥ŀ
à¹Ħ à¸Ĥ
Î¯ ÏīÎ½
ĠÐ¼ Ð¼
ĠÐ´Ð¾Ð¼ Ð°
Ġáĥ¤ áĥĲáĥ¥áĥ¢
© ´
Ġà¸ª à¸¹
Ġà°ľ à±Ģà°µ
ĠÑģÐ¿ Ð¾ÑĢ
ĠAnd roid
ĠØ¹ Ø¨Ø±
Ġ×Ķ×ŀ× ª
ëĵ¤ ìĿĦ
áĢľ áĢ¾
ĠÐł Ñį
Ø§Ø± ÙĪÚº
Ľ áĢ²áĤķ
Ġà´® àµģà´¨àµįà´¨
ĠÙħ Ø§ÙĦÛĮ
ê¹ Ģ
ĠáĥĿ áĥŀ
ĠÐ¿ÑĢÐµÐº Ñĥ
àª¿àª¤ àª¿
à¹Īà¸²à¸ª à¸¸à¸Ķ
ÑĤ Ð¾ÑĢÐ¸
Ø¬ ÙĬÙĦ
Ġà°ľ à°¿à°²à±įà°²
Ġre st
Ð° ÐµÑĤ
og rap
åıĸ ãĤĬ
Ġà¹Ģà¸ «
Ð¾Ð»Ð¸ ÑıÑĤÐ¸
Ġáĥª áĥľáĥĿáĥĳ
ÙĩâĢĮ ÛĮ
Ġà´ļ àµĭà´¦
à¨ ¹
Øª Ø§ÙĦ
ĠÑģÑĤ Ð¾
äº¤ éĢļ
ÒĽ Ð°ÑĢ
Ø§Øª Ùģ
ĠÐłÑķ Ðł
ĠÐĶ Ð·
×ª ×Ĺ
Ð¾Ð» Ñĸ
Ġà°ħ à°®à±įà°®
áĢĻ áĢļáĢ¹áĢ·
ĠØ² ÙĨ
Ġ×ª ×Ĵ
Ġ" >
Ġ×© ×ŀ
à¹Ħà¸ĭ à¸ķà¹Į
à¤² à¥įà¤¯
ÏĦÎ¿Ïħ ÏģÎ³
éģ Ķ
èĮ ¶
áĥ£áĥ «
Ø« Ø§Ø±
enc y
ĠáĢ¡ áĢĻáĢºáĢŃáĢ³áĢ¸áĢŀ
Ġà¦¨ à¦¿à¦°
áĥĲáĥĻ áĥĶáĥĹ
à°¿à°¤ à±ĭ
à«įàª Ĺ
£ à«ĩ
à¹Ĥ à¸Ľà¸£
à§ĩà¦² à¦¾à¦°
áĢ±áĢķ áĢ¼
ĠáĥĹ áĥķáĥĺáĥĹ
ìĭľ ê°Ħ
áĥĲáĥ¦ áĥĽ
Ð¾Ð² ÐµÐ´
ĠáĢŀ áĢ®
Ġãģ¾ ãģŁ
ĠÐ±Ð¾ÑĪ ÒĽÐ°
ĠD o
à¹Ģà¸Ķ à¸´à¸Ļà¸
áĢķáĢ« áĢŀáĢĬáĢº
Îķ ÎĻ
Ġì »
Ġáĥĵ áĥĺ
Ġ×ľ ×¨
é¡ ¶
à°¨à±įà°¨ à°¾à°°à±ģ
ÙĪØ¯ Ùĩ
iv ing
Ġá¼ Ģ
ĠÑĢ Ð¸Ð²
ĠÙĤ Øµ
Ġà°®à±Ģ à°¦
ĠÐ½Ðµ Ð¹
×¤ ×¡
ir d
Ġà¦¹à¦¿à¦¸ à§ĩà¦¬à§ĩ
ĠÑįÑĤ Ð¾Ð¼
à¦¿à¦¤ à§įà¦°
Ġç¾İ åĽ½
Ġà°ªà±Ĩ à°¦à±įà°¦
çĭ Ĥ
å· ¦
ĠÏĩ Ïİ
ĠÙħØ· Ø§ÙĦØ¨
ĠÑĨ ÐµÐ»Ð¸
ĠØ§Ø¬ØªÙħØ§Ø¹ ÛĮ
I ON
ĠàªĽ à«ĩàª²
ĠØªØµ ÙĪ
åĩ ı
àµĩ à´±àµįà´±
Ø§Ø¹ Ø¯Ø©
Ð Ħ
ãĤµ ãĤ¤ãĥĪ
à«ĩàª®à«įàª¬ àª°
Ú©ÛĮ ÙĦ
Ġàª° àª¾àª¹
ĠØ° Ø§Øª
ĠÐ¼ÐµÑģÑĤ Ð¾
ì½ľê±¸ ìĥµ
åįķ ä½į
Ġà°ķ à°¿
Ġà®ªà¯ĭ à®°
ìĸ µ
Ġéĺ ¿
ĠÙ¾ÙĨØ¬ Ø§Ø¨
Ġ×ŀ×ŀ× ©
å¤§ æĪĺ
à¥įà¤² à¥Ģ
ĠÑĩ Ð¾ÑĢ
áĥĶáĥĿáĥĳ áĥĺáĥ¡
Ñħ Ð¸
ĠæīĢ ä»¥
à®¤à¯įà®¤ à¯ģ
Ġà°ķ à±ĩà°¸
ÐµÑ ľ
Ġ×Ķ×Ĳ ×Ĺ×¨
Ð»Ð¸ ÒĽ
ok er
à¸Ļà¸ķ à¹Į
à±Īà°¨ à°¾
ĠëĲ ľ
ĠáĢŀ áĢĲáĢŃ
áĥĺáĥł áĥĶáĥĳáĥĲ
áĢĦáĢºáĢ¸áĢ Ľ
à¤¾à¤¸ à¥įà¤¤
áĢĻ áĢ®
ver s
Ġæ ¨
çĻ ¼
Ġto o
Ðµ Ñı
Ð°ÑĨ ÑĭÐ¹
Ġå¤ ª
Ġà´¨à´¿à´¨àµįà´¨ àµģà´Ĥ
åĤ Ļ
àª¿àª ¡
Ġä½Ĩ æĺ¯
áĢĻáģ¼ áĢĲ
à¸ª à¸¥à¹ĩà¸Ńà¸ķ
Ġë§ ŀ
Ġà°¸ à°¾à°§
Ġàªī àª¦
áĢĻáĢ½ áĢº
Ñĩ Ð¸Ð»Ð¸Ðº
Ġ×ª ×Ĺ
Ġpro ject
ĠØ¨Ùĩ âĢĮ
ĠÙħ ÙĩØ±
ĠØ§Ûģ Ùħ
áģ Ĩ
à¥ĩà¤Ĥà¤¦ à¥įà¤°
Ġà°µà°¿à° §
Ġà¤° à¤¾à¤·
à¹ģ à¸¡à¹Ī
ĠÐ±Ñİ Ð´Ð¶
ĠÎµÎ¯ ÏĩÎµ
Ð¼ Ð¸Ð·
Ġà®ķà¯Ĥ à®Łà¯įà®Ł
Ġà¦® à§ģà¦ĸ
ÙĪ Ú©
ĠÐ´ ÑĸÑı
áĢĲ áĢĲáĢ¹áĢ
Ġà®ķ à®£à¯įà®Ł
ĠÎ¼ÎµÎ³ Î¬
à§ĩà§Ł à¦¾à¦°
Î¿Ïħ ÏģÎ³
áĥª áĥĺáĥĲ
à¹Ĥ à¸ķ
Ġãĥ Ģ
ĠàªĨ àª¯
ĠÎ» ÏĮÎ³
ä¸ª äºº
à¦¾à¦ķ à¦¾à¦°
ĠáĢ±áĢĽ áĤĬ
ĠÐ±ÐµÑģÐ¿ Ð»Ð°ÑĤ
é¨ ĵ
ĠØ¬ Ø§ÛĮ
áĢĻ áĢĽáĢ½áĢŃ
à®¾à® ¸
×¨×Ľ ×ª
ĠÙĥ ØªØ§Ø¨
ĠÑģÑĤ Ð²Ð¾ÑĢ
ä¸Ĭ çļĦ
áĤ ģ
à¸« à¸²
k e
ÑĶ ÑĤÑĮÑģÑı
ç´ §
åŃ¦ ä¹ł
à¯ĭ à®Łà¯ģ
Ġ×ľ ×ĺ
à´¶ àµįà´¯
à¦¾à¦ĵ à§Łà¦¾
ĠÎ³ Îµ
Ġcent er
ãĥ³ãĤ º
ãĤ¹ ãĥĨ
Ġà¸Ħ à¸£
Ġdown load
àµĤ à´°àµįâĢį
à¤¾à¤ļ à¥Ģ
ÙĥÙĪÙħ Ø©
ĠçŃ ī
Ġcomp any
in c
Ġì² ´
Ġà°ħ à°¡
Ġà¦® à¦¾à¦§à§įà¦¯à¦®
ĠÛ ±
ĠÙħØ· Ø§ÙĦ
Z H
ĠÙĪ Ø¯
ĠÐ¼ ÑĥÐ´
ĠÐ² Ð¾Ð´Ð°
ĠÐ° Ð¶
ĠÐ¢ Ð¾ÑĪ
æ´ ĭ
à¸ĩ à¹Īà¸²à¸¢
Ð» Ð¾Ð¿
ĠáĥĿ áĥ¯áĥĲáĥ®
Ġà´¸ à´¿à´¨à´¿à´®
áĢļáĢ¹áĢ Ĳ
à¤ľ à¥Ģ
à¤¤à¥Ģ à¤¯
Ġà´µ àµĩà´£àµįà´Ł
à°¾à°° à°¨à°¿
àª¿àª¯ à«ĭ
àª°à«įàª ķ
Ð°Ð· Ð°
ĠâĻ ª
áĢĲ áĢĬáĢ¹áĢ¸
ĠÚ©ÛĮÙģ ÛĮØª
è¿ĳ å¹³
à°¿à° ³
ĠáĢ»áĢķ áĢĶáĢ¹áĢľ
áĢŃáĢ¯áĢĦáĢ¹áĢ ĽáĢ¬
Ġà´®à´² à´¯à´¾à´³
à«Ĥ àª²
Ġà¤ķ à¤Ī
ĠÑģÐ² Ð¾Ð¹
ĠãĤ ¸
ĠÐ¼ ÑĥÑĢ
à¸¥ à¸Ķ
Û ĥ
×ķ×© ×Ķ
Ġà°ªà±įà°° à°¤
Ġà¦¬ à¦¨à§įà¦§
ĠÙĨ Ø¬
Ú¯Ø± Ø§Ùħ
ÑģÐº Ð¾Ð¼
Ð¾Ð² Ñĥ
Ġà¦¦ à¦¿à§Ł
ĠÐĴ Ð°Ð»
áĥĲáĥłáĥ £áĥļ
s er
Ġ×Ľ ×ŀ×Ķ
Ð¨ ÐĲ
à¤ķ à¥įà¤Ł
Ġà¦ħà¦¨ à§ģà¦·à§įà¦ł
Ġà°ķ à°¥
áĢĻáĢ»áĢŃáĢ¯áĢ¸áĢ ŀ
ĠåĨ į
Ġ( $(
áĥĲáĥ¨ áĥĿáĥłáĥĺáĥ¡
Ð°Ð² Ð¾Ð½
áĥĿáĥļ áĥĺáĥ¡
Ġàª® àª¿àª¤à«įàª°
áĥķ áĥĺáĥłáĥ
Ð¾Ñı ÑĤÐ¸
Ġà°²à±ĩà°¦ à±ģ
áĢı áĢ®
àµĩà´· à´Ĥ
à¤¤ à¥ĭ
ÏĥÏĦÎ± ÏĥÎ·
Ġà¤¸ à¥ģ
ĠØ¯ Ø®
à¸Ļà¸Ķ à¹Į
ĠáĥĽáĥĶáĥ¢ áĥĺ
es e
ĠáĢħ áĢħáĢº
Ġàªĸ àª¾àª¸
Ġà¤ķà¤¾à¤° à¤£
ĻáĢ½ áĢĲáĢ¹áĢ
ĠÑı Ñħ
ĠÏĢ Î¬
Ġï ¹
Ġà°ļ à°Ĥà°¦à±įà°°
Ġ×© ×ł×Ļ
ĠÐŁ Ð¾ÑĢ
Ġf av
Ġc ss
à«ĭàª ·
Ġà¤ī à¤¦
ĠÐ± ÑĢÐ¾Ñĺ
ãģķãĤĮ ãģŁ
Ġà®µà®´ à®Ļà¯įà®ķ
ãģ¨æĢĿ ãģĦãģ¾ãģĻ
Ġíķ¨ ê»ĺ
Ġáĥĺáĥ¡ áĥĺáĥľáĥĺ
Ġà¸§ à¸±à¸Ļà¸Ĺà¸µà¹Ī
ĠÑģÑĬ Ð´
B O
à¸£ à¸±à¸ģà¸©
g er
Ġáĥŀ áĥĲáĥ¡áĥ£áĥ®
ĠÙĦ Ø¹
ĠÐ² Ðº
Ð¡ Ñĵ
Ġìłľ ê³µ
Ġìł Ĳ
ĠÐĹ ÐĲ
ĠÐ¿ÑĢ Ð¸Ð¹
ķ áĢº
Ġè¿ ĳ
áĢ¬ áĢĢáĢŃáĢ¯
×ķ×Ĺ ×ķ×ª
le y
ĠáĢŀ áĢŃáĢ¯áĢ·
Ġà¤¬ à¥įà¤°
à¹Ģà¸« à¹ĩ
à®ªà¯įà®ªà®Ł à¯ģà®®à¯į
Ø§ÛĮ Ùĩ
ĠÐ¿ÑĢÐ¸ÑĢ Ð¾Ð´
ĠÐ·ÐµÐ¼ Ñĺ
ĠÏĮ Î¼ÏīÏĤ
Ġd em
Ġ] ]
ĠÐº Ð¼
à¤Ĥ à¤¸
ĠØ¢ ÙĦ
Ġàª¥àª¯ à«ģàªĤ
à°ķ à°°
ĠØ¨Úĳ Ú¾
×¤ ×ķ×ª
ĠÙĦ Úĳ
ĠÑĤÐ°Ð¼ Ñĥ
Ð¸Ñģ Ð»
Ġà°ķ à±ĩà°Ĥà°¦à±įà°°
Ġcre ate
éĶ Ļ
àµįà´ ¦
ĠÙ¾Ø§Ú© Ø³ØªØ§ÙĨÛĮ
ĠÎķÎ»Î»Î¬ Î´Î±
à«ģàª¦ à«įàª§
àª¾àªļ àª¾àª°
Ð² Ð¾Ð´
åĪĽ æĸ°
Ùħ ÙĨØ¯
ĠÐ¼ Ð½Ðµ
Ø§Ø¦ Ø¨
áĢĽ áĢĦáĢ¹áĢ¸
Ð´ Ð¸Ðº
áĢĶ áĢ®
ĠáĥĽáĥĲáĥĺ áĥľ
åŃ ¸
à°¾à°¨ à°Ĥ
×© ×ĳ
Ġà¤° à¥ģà¤ª
ĠØ§ÙĦ Ø§Ø¬
ãģķ ãģĽ
ÐµÐ² Ð¾
ĠåĪĨ åĪĨå½©
Ġà¦® à¦¾à¦®
×¦ ×Ķ
ÏģÎ¿ ÏįÎ½
ĠØ¯ÙĪØ³ Ø±ÛĴ
áĢ°áĢ¸áĢ Ĳ
à±Ĩà°² à±įà°²
Ñį Ð·
B A
Ġc ï¼Ĳ
Î¯Î½ Î·
ĠáĥĽ áĥĶáĥĴ
Ø§ÙĦ Ø¯
ind ia
Ġà®Ĩ à®¤
Ġàª® àªľ
ĠØ§ÙĦÙħ Ø·
ĠÎ¼ Î¹Îº
à¸Ľà¸£à¸° à¸ģ
Ġë¬¸ ìłľ
Ġà®®à¯ģà® ´
ä¸» è¦ģ
ãģĹ ãģ¾ãģĹãģŁ
à´¾à´° à´Ĥ
so ft
èį Ĳ
ĠìĿ Ģ
Ġà° Ĺà°¾
ķáĢ« áĢŀáĢĬáĢ¹
ĠáĥĽáĥĿáĥ «
áĢŃ áĢĶáĢ¹áĢ
áĢģáĢº áĢĻáĢ¹áĢ¸
Ñĺ Ð°Ð»
ĠÙħØ· ÙĦØ¨
Ġà®¤ à¯Ģ
ĠÑĳ Ð·
Ġ. âĢĻ
8 1
Ġà®ħ à®²
Ġà®ª à®¿à®©à¯įà®©
ĠÚ© ÙĪÙĨ
Ðº Ð°Ð³Ð°
s et
12 3
Ġ365 æ£ĭçīĮ
ĠÙģÛĮØµÙĦ Ûģ
Ġtr y
Ġ380 9
ĠÙĦ Ø¯
ÙĬ Ø®
áĢ¼ áĢĢáĢ¹
à¯ģà®ļ à¯į
Ð¢ Ðķ
Ġàª² à«ĩàªĸ
ë§ Ŀ
à§ĩà¦¤ à§ĩ
y d
Ġàªħàª® à«ĩàª°
Ġp ower
é§ ħ
ãĤ ®
Øº Ø©
ÏĦÎ¿ Î¹
Ø§ÙĬ Ø§
Ð°Ð»ÑĮ Ð½Ð°
åĲ ¸
Ġà´ļ àµĩ
ĠÐ² ÑıÐ»Ñĸ
Ġ ãģĮ
à®¿à®ķà¯įà®ķ à¯Ī
Ġàª¦àª°àª® àª¿àª¯àª¾àª¨
ĠÑģÑĥ Ð¿ÑĢ
ĠÑģ Ð¾ÑģÑĤÐ°Ð²
Ð¾Ðº Ñĥ
ĶáĢ¾ áĢĦáĢºáĢ·
Ġìĭ ¬
Ġà´® àµģà´¤
Ġà¤ī à¤¤à¥įà¤¤
Ø§Ùĩ Ø´
Ġà¦® à¦¨
ĠÑĤÐ°Ð´ Ð±Ð¸ÑĢ
ÐµÐ² ÑĸÑĩ
ĠÐº Ð¾Ð´
Î¸ Ïħ
à¹ģ à¸ľ
Ùĥ Ø²
Ġà´µ à´¨àµįà´¨
ĠØ± Ø¨
ëĭ ´
áĥĲáĥľ áĥĻ
áĢĳ áĢ¯
áĢĶáĢ¹ áĤĢáĢĢáĢ®áĢ¸áĢ
re t
Ġé ĸ
Ġà´ªàµįà´° à´¸
ĠÑĸÐ½ ÑĦ
Îº ÏģÎ±
Ø§Ùģ ÙĤ
Ð´ Ð½
Ġà¦¸ à¦¾à¦°
Ġà¦°à§Ł à§ĩà¦Ľà§ĩ
çĪ Ĩ
ä¹ ±
å§ Ĳ
arg et
ĠåĽ½ äº§
ĠÐ² ÐµÑģ
à°¯ à°Ĥà°²à±ĭ
à«ĩàª² à«ĭ
àª¦ àª°
Ð¿ Ð°
ĠàªĨàªĹ àª³
ĠÙ¾Ø§Ø± Ù¹ÛĮ
ĠØ¯ÛĮÙĨ ÛĴ
ĠÐĲ ÑĦ
ĠÙ¾ Ø§ÙĨ
à¸Ļ à¹īà¸Ńà¸¢
ĠÑĤ Ð¸Ð¼
ĠÐ¸Ð· Ð¿Ð¾Ð»Ð·
ÐºÑĸ Ñı
Ġê°Ļ ìĿĢ
ĠÐ¿ÑĢ Ð°ÑĪ
è° ·
àª§ àª¾àª¨
à¥ĩà¤ ¯
Ùģ Ø§Øª
ļ áŀ
ĠÑĥ Ð½Ð¸Ð½Ð³
ĠÐŁ Ð¾Ð²
Ġçº ¢
ĠáĢŀáĢ° áĢĲáĢŃáĢ¯áĢ·
Ġus er
ÎĹ ÎĿ
Ġwik ipedia
ĠÙĤ ÙĪÙħ
ÑĪ ÑĤÐ¾
ĠÑĢ ÑĥÑħ
áĢĲ áĢĶáĢº
Ġàªªà«įàª° àªķàª¾àª°
Ðº ÐµÑĤ
ìĿ´ ëĤĺ
éĽ ª
à¹Ħà¸¡ à¹ī
ÙıÙħ ÙĴ
Ġà¤°à¤¾à¤ľ à¥įà¤¯
ĠíĮ Ĳ
ĠìĤ ´
áĢĶáĢ¹áĢ ±áĢĲáĢ¬áĢ¹áĢ
ĠãĤ ¿
Ġáĥŀ áĥĲáĥłáĥ¢
×ĸ ×¨
Ġáĥľ áĥĲáĥ¬
ist s
O K
ľ áĢ½
Ġà¦® à§ĥà¦¤
ĠØ§ÛĮØ³ Ø§
åħ³ ç³»
à¤°à¥įà¤ ļ
Ð½Ð¸ ÑĩÐµ
Ðº ÑĥÑĢÑģ
ĠÏĩ ÏģÎ®
áĢĻáĢº áĢ¸áĢĻ
ĠCom p
ãĥ¼ãĥ ĳ
à¸· à¸Ļ
Ð¸Ñı Ð¸
Ġë² ķ
à¸±à¸ĩ à¸ģ
Ð² Ð°ÑĨÑĮ
ĠÙģØ§Ø± Ø³ÛĮ
íĻ ľ
éľ ²
àª¬ à«įàª¦
our n
an mar
Ġnb sp
ÑĨ Ð¸Ð½
g g
ĠØ¯ ÙĦÛĮÙĦ
áĥ® áĥļ
so le
ĠÎĳ ÏĢÏĮ
àµĢ à´·
à´ķàµįà´ Ł
à°¦ à±ĩà°¶
Ð°Ð´ Ð¶
Ġf ull
Ġ* **
áĥ¢ áĥĶáĥłáĥĶáĥ¡
ÑĢ Ð¾Ð´
Ġà®ĩ à®£
áĢļ áĢ·
à¦¿à¦ķ à¦¾à¦°
áĥł áĥĶáĥĳáĥĺáĥ¡
ĠØ¨Úĳ ÛĮ
Ġ×Ĳ ×ľ×Ĳ
à´Łàµįà´Ł àµį
Ġæİ ¨
Ġà°ķ à°¾à°µ
à«Ĥ àª¤
ĠÙĬ Ùı
ĠØ§ØŃ Øª
àªª àª°
ï¼ Ľ
ĠÑģÐ²Ð¾ ÑĹ
áł ¢
Ð» ÑĸÐ´
áĢľ áĢº
ĠãĤ »
ĠØ§Ø¨ ØªØ¯
ĠW hen
ect ed
Ġìļ ©
Ġé ľ
ĠÙģ ØµÙĦ
Ø§ÛĮ Ø·
Ġà´¸ àµįà´±àµįà´±
Ġcon f
à© ģ
Ġà¤ķ à¥įà¤°
ĠÙ¾Úĳ Ú¾
è¿ ·
æįķ é±¼
ĠE l
à«ģàª Ł
Ġà®İ à®¨à¯įà®¤
ĠÐ¶ Ð°Ð½
Ġag åľ¨çº¿
à«ĭàª ¹
ĠåĲ İ
Ġà´¨àµĩ à´¤
Ġ×¢ ×ĳ×ķ×¨
ÐµÑĢ Ð¾
áĥĽ áĥľ
Ġè ĥ
ĠÑĤ Ð¾Ð»
à¸Ĥ à¸²à¸¢
ìĹ Ĩ
à¹īà¸Ń à¸Ļ
ĠÑĤÐ°ÑĬ Ð¼Ð¸Ð½
Ġis s
à¹ģ à¸Ķ
Ð°Ð¼ Ð¼
Ľ áĢĦáĢ¹
ĠáĥĴ áĥĿáĥĴ
ĠáĢĲ áĢŃáĢ¯áĢĢáĢ¹áĢ
Ġà¦Ńà¦¾à¦² à§ĭ
à¸ª à¸ĸ
Ïĩ Î·
Ġà´¨ à´®àµįà´®
ĠØ±Ø¦ÛĮ Ø³
Ġ×Ĳ×ª ×Ķ
ÑĬÑĢ Ð·
ĠÑģ Ð¾Ð¿
Ġ9 00
áĢ®áĢ¸áĢ ļ
à±ĭ à°ª
à¦¬ à¦¿
Ġà¤¨ à¤µ
ĠÐ¼ Ð°Ð¶
ÛĮ ÙĦÛĮ
à¹Ģà¸¥à¸·à¸Ń à¸Ķ
Ġìŀ Ħ
ĠìĿ Į
Ġè¿ Ľ
ĠÐľ Ð°Ð½
ì Ĥ
×ķ×ŀ ×Ķ
ĠáĥĽáĥĿáĥľ áĥĲáĥ¬áĥĺáĥļ
Ġáĥ¡áĥ®áĥķ áĥĲáĥĵáĥĲáĥ¡
ĠØ¢ ØºØ§Ø²
ÑģÑĤÐ² ÐµÐ½Ð¸
Ð½Ñĸ Ð¼
Ġáĥ® áĥĿáĥļáĥĿ
æĶ¿ çŃĸ
áĢħ áĢĽáĢ¬
11 éĢī5
ÙİÙĨ ÙĴ
×ķ×ĳ ×Ļ×Ŀ
Ġ×© ×¨
è®° èĢħ
àªķ àª¾àª°à«Ģ
ÑģÐº ÑĸÑħ
ĠáĢĻ áĢĽ
ĠÐ¼ÐµÑĤ Ð¾Ð´
à¥įà¤°à¥Ģ à¤¯
Ø§Ø· ÙĤ
áĢ¬áĢ¸áĢ ķáĢ«
66 6
à¹Ģà¸« à¸ķà¸¸
×© ×ķ
Ġìĭľ ê°Ħ
ĠÏĥÏħ Î¼Î²
ĠA IJ
áĥĲáĥĺ áĥľ
Ùİ Ùĳ
Î¹ Î²
ĠÐ¼Ñĥ Ð¶
à¸ĵà¸ĳ à¹Į
Ġáĥ¡ áĥ®
ĠåĽ½ éĻħ
Ġàª°àª¾àªľ àªķ
ĠØ¬ Ø±
ÑĥÐ² Ð°Ð²
Ġìļ ´
Ġfe el
áĥĶáĥłáĥ «
à±ģà°ķ à±ģà°¨à°¿
Ð² ÑĸÐ´
ĠìĿ´ë Ł
éªĹ å±Ģ
Ġà¦¤ à§ģà¦²
àµįà´ ľ
×Ĵ ×¨
æµ ª
à¦¸ à§įà¦ķ
ĠáĢĢáĢ¼ áģ½
áĤ ĲáĢ¼
à®¾à®± à¯ģ
ÑĢÐ¸ Ð³
Ġàª¸ àª°à«įàªµ
ĠÙģØ¥ ÙĨ
à¹Ģà¸« à¸¡à¸·à¸Ń
Î¸Îµ ÏĥÎ·
ĠãĢĳ, ãĢĲ
ĠØ¬Ùĩ Ø§ÙĨ
Ġà¤ķà¤° à¤¤à¤¾
ĠáĥĴ áĥĲáĥĹ
Ïĥ ÏĦÏĮ
Î¿Î½ ÏĦÎ±ÏĤ
ĠÐ¹Ñŀ ÒĽ
ĠP ar
à¸ª à¹Į
Ġà®ķà¯ģà®± à®¿à®ªà¯įà®ª
èŃ ·
áĢķáĢ¼ áĢ±áĢ¬
Ïĥ Î¯Î±ÏĤ
Ġãģ ķ
áĥ¤ áĥĶáĥł
Ġæ² ³
Ġ×ľ ×Ľ×ľ
à´¨àµįà´¤àµįà´° à´¿
ateg ory
Ġo ption
Ġdetails _data
ĠØ§ÙħØ±ÛĮ Ú©ÛĮ
ÙĢÙĢÙĢÙĢ ÙĢÙĢÙĢÙĢ
Ġ×ľ ×ŀ
ĠÐº Ð°Ð½Ð´
ĠØ§ÙĦØ¹ Ø±Ø§ÙĤ
áĢģáĢ» áĢ¯áĢķáĢº
×ĳ×¨ ×Ļ×Ŀ
b y
ĠÒĽÑŀ Ð»
ĠÑĸÐ½ ÑĦÐ¾ÑĢÐ¼
à´¾à´¯à´¿à´° àµģà´¨àµįà´¨
Ġàªļà«ĤàªĤàªŁ àª£à«Ģ
ãĥĹ ãĥª
ĠÐĳ Ð°Ð»
à®¿à®¯ à®¤à¯ģ
»áĢĸ áĢħáĢ¹
Ġà®¤à®² à¯Īà®µ
Ġà®¤ à¯Ĥ
ĠØ¨ Ø£ÙĨ
ĠÑĩ Ð¸ÑģÑĤ
Ġfe ature
ÙĦ ÙĪØ¨
i i
ĠÑĢÐ°Ð±Ð¾ÑĤ Ñĭ
Ġag èµĮåľº
Ġà¸ģ à¸£à¸°
Ġà¦¯ à¦¾
ĠÐŁ Ð°Ð²
ãĥ³ãĥ Ĩ
C h
ë§ Ľ
F F
à°¾à°Ĥà° ķ
ĠÛ ¶
Ġà¸ļ à¸£à¸´
Ø® Ø§ÙĨÙĩ
ag er
ĠÐ´ Ð¾Ð½
Ð¾Ð¼ ÐµÑĤ
ĠÐ± ÑĬÐ»Ð³Ð°ÑĢ
ĠUn iversity
Ø£ Ø©
Ġç ł
ĠÐ¡ ÑĬ
Ġàª° àª¸
ĠØ´Ø± Ø§ÛĮØ·
áĢ° áĢ¸áĢŀ
à°Ĥà°Ĺ à°¾à°£
Ġì² ĺ
ĠÐĵ Ð»Ð°Ð²
æī ĺ
äºº çĶŁ
ãģĵ ãģ®
à¸© à¸±à¸Ĺ
Ùĳ ÙĲ
Î» ÏĮ
Ġà®ª à®´
Ġà´² àµĭà´ķ
Ġàª¸àªĤàª ¬àªĤàª§
ç³» åĪĹ
ÙĪÛĮ Ø³
Ġà¦ī à¦¤à§įà¦¤
Ġpos s
áĢ¡ áĢĲáĢ¼áĢĦáĢ¹áĢ¸
Ġà¦¬ à§įà¦°
è§£ æ¢¦
ì¶ľìŀ¥ ë§ĮëĤ¨
à¸± à¹Īà¸Ļà¸
ĠÐ´Ð¾ÑģÑĤ Ð°Ð²
Ð½Ð³ Ð°Ð½
Ð°ÑģÐ¸ Ð³Ð°
ĠáĥĽ áĥĿáĥĵ
éļ ı
g u
ĠÙħØŃ Ø¯
Ð¸Ñĩ Ð½Ð°
o j
ľ áĢŃáĢ¯áĤĶ
Ġà®ļà¯Ĩà®¯ à®²
ĠØ¬ ÙĪØ§ÙĨ
Ġà¤ª à¥ģà¤°
Ġìķ ½
ĠáĥĴ áĥĲáĥĶ
ĠÙģ ÙĦÙħ
ç§ ĺ
áĢŃ áĢ½
àµĨà´Ł àµģà´ķàµįà´ķ
Ġà¦¤ à¦¥
ĠØ¯ Ø¨
ĠØ§ÙĤØªØµ Ø§Ø¯ÛĮ
æĽ ¾
à¤ķ à¤¾à¤°à¥Ģ
Ġwith out
ĠÐ°ÑĤ ÑĢÑĭÐ¼
ë ĥ
à¤ı à¤¸
å© ·
àª¾àªµ à«ĭ
à¦ª à¦¿
ĠAr ch
Ú¯Ø² Ø§Ø±ÛĮ
ØªØ¨ Ø§Ø·
Î¾ Î·ÏĤ
ĠÐł Òĳ
ĠA S
ĠåŃ Ĳ
éĵ¶ è¡Į
à¤® à¤¾à¤¨
Ð» Ð°ÐºÐ°ÑĤ
sh ip
Ļà§įà¦ ķ
ĠT amil
Ġà´ķ àµģà´Łàµįà´Ł
è¾ ħ
áĥĽ áĥĶ
th ing
ĠÐ³Ð¾Ð´ Ñĥ
áĥĺáĥ§ áĥķ
à´¿à´ ¡
à¤°à¥įà¤ ¦
Ġ ãģ¨ãģĦãģĨ
I m
ĠìĬ¬ ë¡¯
Ġà¦¬à¦¿à¦ ı
ĠØ¹ Ø´
à¯Īà®¯ à®¿à®©à¯į
Ġáĥ® áĥĲáĥļáĥ®
ä» ª
×Ļ× ¥
Ġåħį è´¹
Ġ×© ×ª
ä¼ł å¥ĩ
t i
Ġå ¢
ĠÒĽ Ð¸Ñģ
Ġ×§ ×ĺ
ĠÐĿ Ð°Ð¹
ĠÐ½ Ñĸ
àª¿àª¤ àª¾
Î®Î¼Îµ ÏģÎ±
Ġà¦ Ŀ
ĠÛģ ÙĨØ¯
ĠÐľ Ð°ÑĤ
ĠR ec
æ¼ «
à¤ª à¥įà¤°
8 2
Ķ ëĭ¤
à®¿à®² à®¿à®°à¯ģà®¨à¯įà®¤à¯ģ
ÐºÑĥ Ð¿
ĠÑĤ ÐµÐ·Ð¸
id s
ĠÐ²Ð¾Ð· Ð¼Ð¾Ð¶
Ð¸ÑĢÐ° Ð°ÑĤ
Îķ ÎĽ
ĠáĢħ áĢ¯
ĠáĢ¡ áĢ±áģ¾áĢĢáĢ¬áĢĦáĢ¹áĢ¸
ì £
çĿ £
à°Ĥà°Ł à°¿
ĠØ± Ø¬
áĢĹ áĢºáĢ¬
åĦ ª
à¸£à¸° à¸ļà¸ļ
ĠÙħÙĪ Ø¨
ĠÙĤ ÙĪÙħÛĮ
Ġ5 åĪĨ
k m
ĠìĦľ ë¹ĦìĬ¤
áĢ¯áĢŃ áĢĦáĢ¹
Ġà¤¬ à¤¦
Ġk8 å¨±ä¹Ĳ
Ġè ĳ
o ad
Ġà®¤à¯Ĩà®° à®¿à®¯
ĠÐĴ Ð¸Ð´
Ġà¤¸ à¥Ĥ
ĠØ¢Ùħ Ø±ÛĮÚ©Ø§
áĢĲáĢ½ áĢ±áĢ·
ĠÑģÑĤ Ð°Ð½Ð´
ĠØ· Ø§ÙĦØ¨
ĠÎ¹ ÏĥÏĦÎ¿
Ġàª¹ àª°
åį ĸ
Ðº Ð°ÑĤ
à®ķ à¯ģ
Ð¸Ð»Ð¸ ÑĪ
ĠÐ¿ Ð¾Ð¶
ÐĿ Ðķ
ĠØ° Ø±ÛĮØ¹
Ġke ep
ĠÙħÙĪ Ø³
Ġ×Ĺ ×ľ×§
à¹ģ à¸Ł
Ð°Ñĩ Ð°ÑĤÑĮ
Ġ×Ľ ×ĳ×¨
Ġ×Ķ×ŀ× ¢
ä½į ç½®
Ú© Ù¹
ÏĩÎµ Î¯Î±
8 4
Ġåħ ±
áĢĶ áĢ±áĢ
ÐµÐ½ ÐºÐ°
Ġà°¨à°¿à°° à±įà°®
äº¤ æĺĵ
ÏĨ Ïħ
è´ «
ĠØ§Ù¾ ÙĨØ§
áĢĲáĢħáĢ¹áĢ ģáĢ¯
Ð¾ÑĤ Ð²ÐµÑĤ
Ġáĥ¡áĥĲáĥĽ áĥĺáĥľáĥĺáĥ¡áĥ¢
ĠÛģÙħ ÛĮÚº
ĠÎ» Î¯
Ļ áĢŃ
Ġ äºĭ
à°¤ à±įà°°
à§įà¦¦ à§įà¦°
ĠØ¨ ÙĪÙĦ
ĠÐºÑĢÐµÐ´ Ð¸ÑĤ
å·ŀ æīĳåħĭ
à¦¨ à¦¾à§Ł
Úĺ ÛĮ
Ġå¤§åıĳ ä¸Ģ
å¤§ åİħ
ide os
à¦¤ à¦¿à¦ķ
ÑĢÐ¸ ÑĪ
ĠÐļ Ð°Ð»
Ðº Ð¾Ð³Ð¾
ĠæŃ ¦
ĠÎµ Î³
à´¿à´ķàµįà´ķ àµģà´ķà´¯
Ø² Ø§
Ġà¦¦à§ĩà¦¶ à§ĩà¦°
ĠØ§ÙĨØ³ Ø§ÙĨÛĮ
ĠÐ¼Ðµ Ò³
à´² à´Ĥ
Ġê¸° ìŀĲ
Ġà°µ à°¿à°¨
ĠØ§ÙĦÙħÙĪ Ø¶ÙĪØ¹
ĠÑĢÐµÐ· ÑĥÐ»ÑĤ
ä¸Ģ æŃ¥
à®¯ à¯į
ĠØ§Ø± Ø§Ø¦Ùĩ
Øº Ø±
ĠáĥĶ áĥĽ
Ġà¤² à¤¾à¤Ĺ
Î»Î¯ Î¿Ïħ
ĠáĥĹ áĥķáĥĲáĥļ
è´ ¸
ãĥ¼ãĥ Ĺ
áĢ¼ áĢĦáĢ¹
Î® Î½
Ġà¦¸à¦¦ à¦¸à§įà¦¯
ĠÐ² ÑģÑı
à°°à±įà°µ à°¾à°¤
ĠØŃ Ø±Ùģ
áĢĲ áĢŃáĢ¯
à¦ª à§įà¦¤
Ø¶ Ø©
st and
ØªÙħ Ø¹
ÏĢ Î¹Ïĥ
Ġà®¨ à®¿à®°
Ġà¤Ĩà¤¹à¥ĩ à¤¤
éĥ½ æĺ¯
áĥĶáĥĳáĥĺ áĥĲáĥľ
Ù¾ ÙĪØ±Ù¹
D etail
ĠÐ¼Ð¸Ð» Ð»Ð¸
ĠØªØŃ Ø±ÛĮÚ©
áĥĲáĥļ áĥĺáĥ¡
à¥ĥ à¤·
ĠB u
áĥļáĥĶáĥĳ áĥ¨áĥĺ
ĠØ§ÙĦÙħØª ØŃØ¯Ø©
ĠáĥĹáĥ¥áĥķáĥĶáĥľ áĥĺ
ĠÎ² Î¬
áĢľ áĢĻáĢ¹áĢ¸
Ġìĭľ ìŀĳ
ĠéŁ ©
Ġe ar
éĶ ĭ
éĴ ¢
Ġà´ķàµįà´ ·
Ġàª¦ à«Ĥàª°
Ġst ill
áĥĿáĥ £áĥ
ĠÙħ Ø§Ø´
Ø±ÙĬ Ø¨
Ñģ Ð»ÐµÐ´
ĠÚ©ÙĨ ÛĮÙħ
áĥĲáĥ¦áĥĽ áĥĵáĥĶáĥĴ
Ð± Ð¸Ð¹
t en
ĠìĤ ¼
Ġà°¤à±Ĩà°² à°Ĥà°Ĺà°¾à°£
ac y
ĠÐ¸Ð· Ð¿
Ġsec ond
Ġgo ing
Ġà¤¶ à¥ģà¤°
à¸£à¸§ à¸¡
à´Ł àµģà´¤àµįà´¤
Ġà°® à°§à±įà°¯
áĢĽ áĢĲáĢ¬
Îº Î¿Ïį
è¡ ¥
Ð°ÑĤ Ñĥ
ĠÐº ÑĸÐ»ÑĮ
à±ģà°Ł à±įà°Ł
Ð¸Ñĩ ÐºÐ¾
ĠÒ³Ð°ÒĽ Ð¸Ð´Ð°
Îµ Î´
ĠÐĺÐ½ ÑĤÐµÑĢ
Ð¸Ñħ Ð°
Ġà®ķ à®¤
æĹ¶ ä»£
×Ļ×© ×¨×Ĳ×ľ
Ð» ÑĥÐ¶
ÐµÐ¹ÑĤ Ð¸Ð½Ð³
Ġà¦¬à§ĩà¦¶ à¦¿
Ġ×ł ×§
áĢ»áĢķ áĢĦáĢ¹
áĥĺáĥ¡ áĥĻ
à¯ģà®¤ à®¾à®©à¯į
8 3
Ġà¦§ à¦°
Ø§Ø§ Ø§Ø§
ÐµÐ² ÑģÐºÐ¸
err or
Ġà¨ µ
Îº Î¿Î»
ĠÎĶÎ· Î¼Î¿
àª¡ àª¾
ĠìĿ´ë ²
ĠØ¨Ùĩ ØªØ±ÛĮÙĨ
Ġf ew
Ġb ottom
Ġ áĤĢáĢĢáĢŃáĢ³
ìĿ µ
à¸¡à¸µ à¸Ħà¸§à¸²à¸¡
ĠáĢĻ áĢ¾
ĠÙĦÙĦ Ø£
ĠÐ±Ñĭ ÑĤÑĮ
ÙĴ Ùħ
ĠâĢ «
Ġ×©×ľ ×ķ
ĠÎ£ Î¥
åħ¶ ä»ĸ
Ðº Ð¾ÑĤÐ¾
Ġà¤ª à¥ĭ
ĠÐľ Ð¸ÑĢ
ĠÐķ ÑģÐ»Ð¸
Ġu0 43
Ġàªħàª¨ à«ĩàªķ
è§ Ī
Ġáĥ¢ áĥĶáĥł
ĠáĢ¡áĢĨáĢŃáĢ¯ áĢķáĢ«
ĠN et
à¤Ł à¤°
ĠáĥĲáĥ¥ áĥ¢
ĠÙħÙĪ Øª
ĠÎºÎ± Î½
Ġè ª
ĠáĥĴáĥĲáĥľ áĥ®
ĠáĢĻ áĢ»
ĠÙĦ Ø£ÙĨ
ĠÐ¾ Ð½Ð¸
ĠÐ¼Ð¾Ð¶ Ð°
à°ª à±įà°°
ÑĤ Ñĸ
Ġë¬´ë £Į
ÐµÐ· Ð´
ĠáĥłáĥĿáĥĽáĥĶáĥļ áĥ¡áĥĲáĥª
ĠÐ¿ÑĢÐ¸ÑģÑĤ Ð¸Ð³
ĠÐ±ÑĥÐ´ Ðµ
åıĤ åĬł
ÑĤ Ð°Ð±
ĠáĥŀáĥłáĥĶáĥĸ áĥĺáĥĵáĥĶáĥľáĥ¢
ist ory
Ġáĥ£áĥłáĥ Ĺ
Ġà¦ī à¦ł
Ø§ÙĪ Øª
Ð³ Ðĥ
áĢĲ áĢĬáĢº
Û ¸
ĠíķĦ ìļĶ
ĠæĪ ĸ
Ġà¤ªà¥įà¤° à¤¶
ìł ¸
Ġé¦Ļ æ¸¯
ĠÎºÎ±Î¸ ÏİÏĤ
ĠE uro
æŀ ¶
å¼Ģ å±ķ
ÑĦÐ¸ ÑĨÐ¸
ĠÙħÚ© ÙħÙĦ
ĠØ§Øª ÙģØ§ÙĤ
è½ ®
áĢģ áĢ²
à´¾à´´ àµįà´ļ
à¤¾à¤¦ à¥Ģ
Ġì² ľ
Ġà°ĩ à°ļà±įà°ļ
Ġch o
à«ĩàªµ à«ģàªĤ
Ùħ Ùĩ
Ġí ŀ
ĠØ¬Ûģ Ø§Úº
ĠÑĨ ÐµÐ½Ð°
Ġweb site
Ġk r
à¸¡ à¸´
ĠÑģ Ð²Ð°
Ġl ength
Ġbu ild
áĢĻ áĢĬáĢ¹áĢ
ÐºÑĸ Ñħ
ĠÐ½Ð°Ñģ ÐµÐ»
ãĤį ãģĨ
Ġà´¨à´Ł à´¤àµįà´¤
ĠÐ¾Ð± Ð»
ĠÎ¼ Î·Î½
Ġle g
à¹Ģà¸Ľà¹ĩà¸Ļà¸ ª
à¸¹ à¸Ķ
Ð· Ð´
ĠØ§Ø³Øª Ø®Ø¯Ø§Ùħ
ê° Ŀ
à¸«à¸Ļ à¹īà¸²
à´¿à´ļàµįà´ļ à´¤
ĠáĢ¡ áĢ²áĢ·
ĠÑĢ Ð°Ðº
Ġinter est
à¤ļ à¥ĩ
Ø§Ø± Ø³
ĠÙĪØ§ÙĦ Ø¹
ĠÐ¶ ÑĭÑĨ
ãĥĥ ãĤ°
à¯ģà® Ļà¯įà®ķà®³à¯į
ĠáĥĻ áĥķáĥļ
Ġà®ªà¯Ĩ à®¯
Ġà¥ ¨
Ð°ÑĤ Ð¸ÑĤÐµ
ĠçĽ ´
Ġà¦Ĩà¦ª à¦¨à¦¿
ĠÎļ Ïħ
ĠÐ¿ÑĢÐµÐ´ Ð¸
ĠÏĮ ÏĦÎ±Î½
ĠÎºÎ¬ ÏĢÎ¿
àªĤàª¤ à«įàª°à«Ģ
à¤ Ľ
on y
Ġáĥ¡ áĥĺ
Ġ×ł ×Ļ×ª×Ł
à¤¡à¤¼ à¤¾
áĥĶáĥĿáĥĳ áĥĲ
×ķ×Ĳ ×¨
è° ±
íķ ´ë
à¸ª à¸´à¹Īà¸ĩ
Ð°Ð¹ Ð½
à¹Ģà¸ ł
Ð°Ð»Ñĸ ÑģÑı
Ġà¸ ĺ
Ġà®ļ à¯Ģ
Ġà®¤à¯ĩ à®µ
_ s
à®¿à®¤ à¯į
Ð¾Ð¶ Ð´
ê² Ģ
O W
Ġà¹Ģ à¸Ń
ĠØªØº ÛĮ
áĢĶ áĢļáĢ¹áĢ
ĠáĢģ áĢĽáĢ®áĢ¸áĢ
ĠÎĳ ÏĢ
ĠC H
è¶³çĲĥ æ¯ĶåĪĨ
Ù¾ ÙĪØ±
Ðĺ ÐĶ
ÏĢÎ· ÏģÎµ
ĠÐ°ÑĢ Ð³Ð°Ð½ÑĸÐ·
ĠÎ² Î±
Ð¾Ð» Ñİ
ãĥ³ãĥ Ĺ
áĢĢáĢ¼ áĢļáĢ¹áĢ
àµįà´ ¡
ĠØ¯Ø± Ø®ÙĪØ§Ø³Øª
ĠíĬ ¸
åįģ åĪĨ
à§ĩà¦ ¯à¦¼
Ġà¤Ńà¤¾à¤° à¤¤à¥Ģà¤¯
áĢ¸áĢĻ áĤĪ
Ġà®® à¯ģà®ķ
æĹ© é¤Ĳ
æ¸¸æĪı å®ĺç½ĳ
Ø¯Ø§Ø± Ø©
Ð¾Ð³ Ð»Ð°Ñģ
ĠØ¯ ÙĩØ¯
ì¶ľìŀ¥ìĥµ ìĺĪìķ½
Ģ áĢ¯áĢŃ
Ġà´¸ àµģà´
ĠÙĨØ³Ø¨ Øª
Ġ Ïİ
Ġà¤Ĩ à¤Ī
å® ħ
Ġà®Ĵ à®©à¯įà®±
ĠÐ´Ð¸Ð³ Ð°ÑĢ
ÙĤ Ø§Ø¡
Ġto t
è´¨ éĩı
Ġà°¦ à±Ģ
å¸ «
Ġorg an
ĠÙĪ Ø´
à¹ĩ à¸ķ
Ð· Ð½Ð°Ñĩ
Ġà¦¬ à¦¸
Ġm k
áĢĢ áĢ±áĢĶ
n y
Ġë¯¸ êµŃ
ĠÑĦ Ð¸ÑĢ
à«ĭàª «
Ð°ÑĢ Ð¾Ð²
ĠáĢĲ áĢŃáĢ¯áĢĦáĢ¹áĢ¸
Ġàª¨ à«Ģàªļ
ä¼ ¤
ÐµÐ¼ ÐµÐ½
à®¿à®¯ à®®à¯į
Ñĭ Ñİ
Ð¾ Òĵ
Ïĥ Î¿ÏħÎ¼Îµ
¿ ł
Ġà°® à±Ĩ
Ġà®µ à®¿à®µ
Ġà¤¹à¥ĭ à¤Ĺà¤¾
ĠØ³ Ø®
ĠÐ°Ð¼Ð°Ð» Ð³Ð°
Ġ356 bet
Ġà®¤ à®ķ
ĠÎ¿ Î¼Î¬
æĦ ¿
ÑĥÐ¼Ò³ÑĥÑĢÐ¸ Ð¸
Ïģ ÏīÎ½
Ġáĥ¡ áĥĺáĥ¡
ĠÐ»Ð¸ ÑĨÐ°
ĠÎ³ Î½Ïī
à°¿à°² à±į
Ø´ÙĨ Ø¨Ùĩ
×ł×Ļ ×Ļ×Ł
×Ĺ ×Ļ×Ŀ
Ġä» £
ĠáĥĳáĥĲáĥķáĥ¨ áĥķ
ĠØ¹ Ø¶ÙĪ
ĠØ´ Ú©ÙĦ
ĠR ed
à®¤ à®¾à®²à¯į
Ġà´ĩ à´¤àµį
Ġà´µ à´´
ĠT op
çĶ¨ æĪ·
ãģ¦ ãĤĤ
Ð°Ñ ľ
ª áĥĺáĥļ
Ġà´ħ à´±
Ġà¦¬à¦¿à¦· à§Ł
Ġ×Ķ×ŀ× ĵ
Ġad v
ĠìĿ Ħ
ĠØ¨ÙĦ ÙĪ
ĠÑĤ ÑıÑħ
ĠÐļ Ð°Ð·
Ġw 66
Ġèµ Į
ĠáĥĲáĥ®áĥļ áĥĲ
Ġà¦¦à§ĩà¦ĸ à¦¾
Ġa ir
æĽ °
ĠØªÙĪ Ø³
Ð¼ Ð¾Ð²
ĠÐ» ÐµÑĩ
Î¯Î½ ÎµÏĦÎ±Î¹
Ġà´Ł àµįà´°
Ġà´¸ à´°àµįâĢįà´ķàµįà´ķ
é ı
à¥ĩà¤¤ à¥įà¤°
ag ement
Ġà´ħ à´ª
à¯ģà®µ à®°
Û Ĩ
Ñģ Ñĥ
Ġcom e
Ġë ¥¼
Ġà´µ à´¾à´¯
Ġàªı àª¨à«ĩ
à«ĩàª² à«ģàªĤ
àªĤàª ª
àª¾àª¨ à«įàª¯
Ġí Ī¬
áĢķáĢ« áĢķáĢ²
àµĭ à´ª
à´Ļàµįà´Ļà´³ àµĨ
ĠáĥĵáĥĲáĥ ¬
à®¿à®°à¯ģà®ķà¯įà®ķ à®¿à®±
ÑĢ ÐµÐ·
Ġê·¸ ëŁ¬
ĠÑħÐ¾ÑĢ Ð¾ÑĪ
æı ´
ĠÛģÙĪ ØªÛĴ
ĠØ¬Ùħ Ø§Ø¹Øª
ÐµÑĢ ÑĪ
ÐµÑĢ Ðº
Ġàªı àª¨
ĠÙĬ Ø³
é¦Ļ æ¸¯
ãĤ¿ ãĤ¤
áĢľ áĢĦáĢ¹áĢ¸
æ¶ ²
× ģ
Ġà¦¹ à¦ĵ
à°¾à°² à°ķà±ģ
Ð½ ÐµÐ½Ð¸Ñı
ÑĬÐ» Ð¶
Ġeff ect
à¤¾à¤µ à¤¾
ÑĥÑĩ Ð°Ñģ
ĠàªĽ àª¤àª¾àªĤ
Ġà¦¤ à§ĭ
íķ´ ìĦľ
å¤ĩçĶ¨ ç½ĳåĿĢ
Ġè¯ ¥
ĠÎ± ÏĨ
Ø®Øµ ÙĪØµ
ĠâĢĭâĢĭâĢĭâĢĭ âĢĭ
à¹ģ à¸ªà¸Ķà¸ĩ
ain er
à¸²à¸ª à¸ķ
ri al
p or
Ġëª¨ ëĵł
Ġph oto
ÑĤ Ð°Ð»
±áĢĽ áĢ¸áĢ
ĠáĥĽáĥĺáĥ ¬
ĠØ§ÙĨ Øµ
Ġqu est
à¯ģà®µ à®¤à¯ģ
a is
ĠÑį Ð¼Ð°Ñģ
Ġm ar
à¯Ĭà®° à¯ģ
ĠìĦł íĥĿ
ĠØ¬ ÙĦØ³
ĠÑĢ Ð°Ð½
Ð»Ñı Ð½
ĠØµ ÙĪØ¨
ĠØªØ¬ Ø±Ø¨
à¤¿à¤ £
Ġà®ª à®Łà¯įà®Ł
ort s
Ġàª¤à«ĩàª® àªľ
áĥ¡ áĥĲ
Ġà®µà®¾à® Ļà¯įà®ķ
æŁ ĵ
Ġå¾ Ī
ĠØ§ÙĦØ¥ Ø³ÙĦØ§Ùħ
à§ «
Ġà¤ªà¥ģà¤² à¤¿à¤¸
àª¿ àªĤàª¦
Ð¾Ñģ ÑĥÐ´
Ġ×Ĳ ×ŀ×¨
ĠÏĦ ÏģÏĮ
Ġt able
Ġm ust
à¹Ģà¸Ľà¸¥ à¸µà¹Īà¸¢
à¤¾à¤Ĥ à¤¸
ĠØ¬Ø¯ ÙĬØ¯
à´¾à´· àµįà´Ł
Ġáĥ¡áĥ®áĥķáĥĲáĥĵáĥĲáĥ¡ áĥ®áĥķáĥĲ
Ġà¦Ĺ à§ĩà¦Ľà§ĩ
Ġà®ķ à®¾à®£
Ġàªªà«įàª° àª¥àª®
çİ ī
ĠÐ² ÐµÐ»ÑĮÐ¼Ñĸ
à¹ģ à¸ļ
Ġàª¸ àª²
ĠÐ² ÐµÑľÐµ
Ġ Ą
áĢħ áĢīáĢº
Ùģ ØªØ±
U L
Ġà®µ à®¿à®´
æĶ¯ æĮģ
à¦ŀ à§įà¦ļ
ĠÐ¶ ÐµÐ½
Ø¶ Ø§ÙĨ
Ġà¹Ģà¸ Ĺ
ĠÒ³ ÑĥÐ¶
Ñĥ ÐºÐ°
H e
Ġå Ķ
at ter
T S
ĠáĥŀáĥłáĥĿáĥĴ áĥłáĥĲáĥĽ
Ġà¸Ħ à¸·à¸Ń
Ġà°² à±ĩà°ķ
Ð·Ñĸ ÑĨÑĮ
Ïħ Ïĩ
ĠáĥĴáĥĲáĥĽáĥĿáĥ §áĥĶáĥľ
ĠáĢħ áĢ®áĢ¸áĢķ
ĠáĢ¡áĢĵ áĢŃáĢĢ
ĠØ³Ú© ØªÛĴ
ĠÐĺ Ñģ
ĠÐ± Ð¾Ð½
à¸Ĺ à¹Į
Î Ĵ
Ġà°¤ à°¿à°°
ĠÒĽÑŀ ÑĪ
å¤Ħ çĲĨ
à¯ĭ à®°
ĠáĥĴáĥĺáĥĿáĥłáĥĴ áĥĺ
à¸£ à¸Ńà¸ĩ
àµĩà´ ľ
Ø± Ø±
Î³ Î·
Ġà´¬ à´¨àµįà´§
Ġà¤Ĩ à¤°
áĢ¸áĢĻ áĢ½
à®¿à® £
à¦¿à¦¯à¦¼ à§ĩ
×Ļ×¤ ×ķ×ľ
ĠáĥĽáĥ£áĥ¨ áĥĲáĥĿáĥĳ
Ġà´ª àµģà´¤à´¿à´¯
Ġà°®à±ģà° ĸà±įà°¯
Ġà¤µ à¥ĩ
ĠØ§ÙĦØ° ÙĬÙĨ
áĥł áĥĲáĥ¢
ÏĦ ÎµÎ¹
à´¾à´¨ àµģà´³àµįà´³
áĢ¬áĢ¸áĢ ģáĢ²áĢ·
ÙĦÙĬ ÙĤØ§Øª
Ġå¿ ħ
Ġà¦ĵ à¦ĩ
ĠÑģÐ²Ð¾ Ð¸ÑĤÐµ
j oy
Ġíķ Ń
Ġà¦ħ à§įà¦¯
Ġ×¨ ×ĳ
áĢº áĢ¸
Îº ÎŃ
Ġç Ŀ
ĠÐ´Ð°Ð¿ Ð°Ð¼
×ł ×Ļ×Ķ
ĠF ree
àª¾àªµ àªµàª¾
Ġsr c
ØŁ ØŁ
åį ł
ä¼ļ ç¤¾
ÐµÐ½Ð¸ Ñħ
Ġà¤¹à¥ģà¤ Ī
Ġç ķ
ĠÙĪØ²ÛĮØ±Ø§Ø¹ Ø¸Ùħ
Ġcon sole
à¸²à¸Ħà¸²à¸£ à¹Īà¸²
ĠÐ³ Ð»Ð°Ñģ
Ġ ic
áĥĺáĥł áĥĶáĥĳáĥ£áĥļáĥĺ
áĢ±áĢĽ áĢ¸áĢ¡
à«ĭàª ¶
ĠÑĤ ÑĬÑĢ
Ġf re
çĸ Ĺ
ĠÐ¿ÑĢÐ°Ðº ÑĤÐ¸
Ġà®ªà¯ĭ à®©à¯įà®±
ĠØ´ ÛĮØ±
Ġl ight
ÙĨ Ø²
ĠáĢĳ áĢ¼áĢĢáĢ¹áĢ
Ġà´Ĩ à´£
Ġinf o
v ed
ĠÙĪ ÙĥØ§ÙĨ
ÐłÂµ Ðł
à°¾à°³ à±įà°³
Î¾ ÎµÎ¹
ĠÐ² ÐµÐ»
Ø±Ø¨ ÙĬØ©
ĠÑĦ Ð¾Ð¹
Ġs ing
áĢĦáĢ¹ áĤĶ
Ġè¢ «
Ġà®Ĩ à®£à¯įà®Ł
ĠØ£ Ø´
à¯Īà®ķà¯įà®ķ à¯ģà®®à¯į
ĠáĥĴáĥĲáĥľáĥĲáĥªáĥ®áĥĲáĥĵ áĥĲ
Ġà´® à´¾à´±àµįà´±
ĠØªÙĤ Ø±ÛĮØ¨
Ñĥ Ð³Ð¸
Ð¾Ðº Ð¾ÑĤ
Ġà´ķàµĤà´Ł àµģà´¤
Ġà®ª à®¿à®Ł
à¦Ĥ à¦¶
×Ľ ×ķ×ª
Î´ ÎµÎ¹
Ġà°µà°¿à°¦ à±įà°¯
Ġà¦¹ à¦¾à¦°
ØªØ± ÙĨØª
å¸ ®
u se
Ġà´İ à´¨àµįà´±àµĨ
ĠØ§ÙĦØŃ Ø±
Ġpro per
n es
Ġà´Ł àµįà´Ł
à¸±à¸Ļà¸Ķ à¸±à¸ļ
Ø§ÙĬ Ø§Øª
ĠÑĢ ÐµÐ¼
æł· çļĦ
àª¸ à«Ģ
Ġç ¬
ĠØ®ØµÙĪØµ ÛĮ
ĠÐĿ Ð°ÑĪ
Ø® Ø¨
Ġãĥ Ļ
Ġà®¤à¯Ĭ à®´
ĠÐĴ ÑģÐµ
à®ªà¯įà®ª à¯ģ
ÑĤÐ¾ Ñŀ
Ġê²ĥ ìĿ´ëĭ¤
Ġè £
ĠçĪ ±
Ġ13 0
éĢī æĭ©
à¸ĺ à¸£à¸£à¸¡
Ġåľ Ł
Ġà´ª à´¿à´Ł
Ø¸ Ø§Ùħ
Ð· ÑĮ
à±ģà°¤ à±Ĥ
àª¿àª ľ
à§Ģà¦° à¦¾
à¦¿à¦ «
Ùı ÙĪ
Ġà´¸ àµįâĢĮ
Ġ×© ×Ĺ
áĥĲáĥĴ áĥĲáĥľ
Î¶ Î¯
Ġë ¯¼
Ġàªªà«įàª° àª¯
ĠÙħØ¯ÛĮØ±ÛĮ Øª
åľ° æĸ¹
à¥ĩ à¤¹
ĸáĢ¼ áĢĦáĢ·áĢº
Ġàªķ àªµ
Ġàª¯ à«ģ
Ġà®® à®¾à®±à¯įà®±
ĠØ§ÙĦ Ø§Ø®
ĠÐ¼ Ð°ÑĶ
b s
ĠáĢ¡ áĢ»áĢĻ
ĠØ³ Ø§ÙĨ
àª° àª¨àª¾
ŀ áĢĬáĢ¹áĢ·
Ġà°®à±Ģ à°°à±ģ
ĠØª ÙĪÙħØ§ÙĨ
ĠÑģ Ð´ÐµÐ»
à¥ĭ à¤¡
à¤¾à¤¤ à¤¾
ÙĪØ¬ Ùĩ
ĠáĥłáĥĲáĥĽáĥĵáĥĶáĥľ áĥĺáĥĽáĥĶ
ĠP art
æĺ ł
ĠÑŀÑģ Ñĳ
Ð» ÐµÑĢ
±áĢ¡ áĢ¬áĢĦáĢ¹áĢ
Ġáĥ¤ áĥł
ĠÐ½Ð°ÑģÑĤ ÑĥÐ¿
ÑĤ Ð¾Ð²
ÏĥÎµ ÏĦÎµ
Ġàªªàª¡ à«Ģ
ĠØ³ ÙĦØ³
ĠÎ½ Îµ
ç« ¥
ÑĨ Ð°Ñŀ
ļ áĢ¬áĢĢáĢ¹
ĠÙĬ Ùĥ
ĠÐ² ÑĥÐ»
ĠÏĩÏģÏĮ Î½Î¹Î±
áĥ¢ áĥĻ
áĢķ áĢĲáĢº
ïº İ
à¨ ¦
Ġàª¶àªķ à«ĭ
ĠØª ÙĥÙĪÙĨ
ÛĮ Ø¨
ĠÐ¡Ð¾ÑĦ Ð¸Ñı
Ø¦ ÛĮÚº
ĠÑĢ Ð°Ò³
à¸±à¸Ĵ à¸Ļ
p k
ĠÐł Ñĺ
Ð°Ð»ÑĮ Ð½Ð¸Ñħ
Ġà¦Ń à¦¾à¦ĩ
ĠØ¢ Ùģ
Ġal ways
å· ¨
áĢĲ áĢ¯
ÎĻÎļ ÎĹ
Ġì¹ ĺ
Ġà¤ Ī
ĠÐ½Ð° ÑĥÑĩ
è ¬
Ð°Ð· Ð½Ð°Ñĩ
ĠØ§ÙĦ ÙĤØ¯
ĠÐ³ ÐµÐ½ÐµÑĢ
å½©ç¥¨ å¹³åı°
à°°à±įà° ķ
à¥ģà¤ķ à¥įà¤¤
Ġà§§à§ ¨
Ġst and
áĥ¨ áĥĺáĥł
ĠÐ±Ð¾Ð» ÐµÐµ
Ġg ame
ĠáĢŀ áĢ±áĢĺáĢ¬
ĠÑĤ ÐµÑģÑĤ
Ġold id
Ġ×Ľ ×Ł
Ġï¼ ĳ
ĠáĢ±áĢĲáĢ¼ áĤķ
Ġà°¬ à±įà°°
ĠÐŁ ÑĢÑĭ
×Ļ×ĳ ×ķ×ª
Ġà®ļà¯Ĩà®¯à¯įà®¤ à¯ģ
ä¸į åı¯
à¸Ļ à¸µà¹Ī
Î» Î¹Î±
Ġ×ĳ×ŀ× ©
ĠÑĩ Ð¸Ñģ
é¡ º
Ġpro ble
Ġle vel
å¾Ī å¤ļ
ÐµÐ² Ð¸Ð·
Q u
æĪ ¦
à¸« à¹īà¸Ńà¸ĩ
Ø§Ø¨ Ùĩ
oc us
ĠØ§ÙĦØª Ø¯
ĠC or
ëŀ ¨
ri es
ĠëĶ° ëĿ¼
ĠÐ·Ð½ Ð°ÑħÐ¾Ð´
ĠáĥĽáĥĿáĥ Ĺ
ĠÑģ ÑĥÑģ
ĠÐĳ ÐµÐ·
ĠÎ±Î½ ÏĦÎ¯
Ġg ift
é¢Ĩ å¯¼
áĢĦ áĢļáĢº
áĢĢ áĢľáĢĬáĢ¹áĢ¸
à¸¢ à¸²à¸ģ
àª ·
Ð¾ÑĤ Ñĥ
Ġàªľ àª¾àª¤
Ġàªħ àª¤à«įàª¯
ĠØªÙĦ Ø§Ø´
ĠØ¨ ÙĲ
ĠÐ¿ Ð°Ñŀ
à´¾à´ Ļàµįà´ķ
Ġà´¨à´¿à´¯ à´®
ĠØ¬ ÙħÙĦ
ĠØ¨Ø± Ø³
ĠØ¨Ø§ÙĦ Ø§
æ ¾³éĹ¨
Ð°Ð² Ð°ÑĤ
ĠS w
Ġà¤ļ à¥ģà¤¨
ĠÙħØµ ÙĨ
Ġà°¤ à±Ĭ
ĠÐľ Ð¸Ð»
Ġ ãģŁ
åĪ ·
áĥĲáĥ¨áĥĿáĥłáĥĺáĥ¡ áĥĿ
áĢŃáĢ¯áĢľ áĢº
ÙĬ ÙĪÙĨ
Ø±Ùģ Ø©
Ð¸Ð½ ÑĩÐ¸
ĠÑĤ Ð¾Ð½
à®¾à®³ à®°à¯į
Ð°Ð»ÑĮ Ð½Ð°Ñı
ĠáĢģ áĢ¼
æľº æŀĦ
áĢģáĢ¼ áĢĦáĢ¹áĢ·
Ġàªķàª² àª¾àªķ
Ġàªħàª² àªĹ
ĠÐ± Ð¾Ð»ÑĮ
à¨ ¸
at ic
ĠÐ±Ñĭ Ð»Ñĸ
Ć ĆĈ
ï¼ ī
Ġç½ĳ ä¸Ĭ
Ġà°İà°¨à±įà°¨ à°¿à°ķ
Ġà°ħ à°®
ĠØ³Ø§Ø² ÛĮ
åĨ ²
Ġãĥ» ãĥ»ãĥ»
Ġê· ¼
ĠØªØºÛĮ ÛĮØ±
Ġì° ¾
ĠØ® ØªÙħ
à¯ģà®Ł à¯įà®Ł
ĠÑģ ÐµÑĢÐ¸
ĠÑĢÐ°Ñģ Ð¿
Ġàª¬àªĤ àª¨à«ĩ
ĠÚ© Ø¦ÛĮ
Ġs chool
ĠÑĨÑĮ Ð¾Ð³Ð¾
ëıĦ ë¡Ŀ
ĠÐŁ Ð¾Ðº
ĠÐĲ Ð¿
áĢ±áĢ »áĢĻ
Ñģ Ð¸Ð½
ĠÚ©Ø´ ÙħÛĮØ±
ĠÐ¾Ñģ Ð²
à¸ģ à¸´à¸Ī
V D
ĠÐ»ÑİÐ´ ÐµÐ¹
Ġ- --
Ġàª®àªĤàª¦ àª¿àª°
Ġà¦°à¦¹ à¦®à¦¾à¦¨
ĠÙħÛĮ ÚĪÛĮØ§
ĠØŃÙĪØ§ÙĦ ÛĴ
ĠÐ¿ÑĢÐ¾Ð´ Ð°Ð¶
Ġexper ience
ÙĬ ØŃ
Ġà¸£ à¸°
ĠÛģ Ø²Ø§Ø±
ĠÙĤØ± Ø¢ÙĨ
à¸Ĥ à¹īà¸Ńà¸¡à¸¹à¸¥
ÐºÑĤ ÑĥÑĢ
ãģª ãģĮ
Ġà´Ĺ àµįà´°
Ġà´² à´ķàµįà´·
ĠÙħØ±Ú© Ø²
Ġte am
åıª ä¸º
Ġ.. áģĭ
ä¸Ģ çĤ¹
Ġàªªà«įàª° àª¸
Ġà¦Ľ à¦¾à¦¤à§įà¦°
ĠC ity
ç² ī
à®¿à®© à®°à¯į
ĠìĺĪ ìķ½
Ġre port
Ġà´ķàµĬ à´£àµįà´Ł
ĠM icro
à± ĸ
åĿ Ĺ
ä¹ĭ æĺŁ
ĠÙħØ´ Ø®Øµ
ĠÐ³ ÑĥÑĦ
ĠÐ³ ÑĢÐ°Ñĵ
à¸Ħ à¸±à¸į
Ñı ÑģÐ¿
ĠÙĦ Ø§Ú©
ĠIntern ational
à®¾à®Ł à¯ģ
Ùİ Øª
V i
Ġà¦ªà¦°à§įà¦¯ à¦¨à§įà¦¤
Ġ×Ĳ ×ŀ
àµģà´µ à´°
à®¤à¯įà®¤ à®¿à®±à¯įà®ķà¯ģ
Ġæ »
ĠáĢĽáĢĢáĢ¹áĢ±áĢĶ áĤĶ
àª¾àª¤ à«įàª®
Ġàª¬àª¾àª³ àªķà«ĭ
ĠØ¨Ø± Ø®ÛĮ
Ġ3 60
ëĲĺ ëĬĶ
Ī à¸£à¸´à¸ĩ
ĠÐ¿ÑĢÐµÐ´ Ð»Ð¾Ð¶
Ð°Ñģ Ð¸Ð½Ð¸
áĥĺáĥļ áĥĶáĥĳáĥĲ
ÎµÎ¹ ÏĦÎ¿ÏħÏģÎ³
Ġà´İ à´´
à¹Ģà¸¥ à¹ĩà¸ģ
Ø¨ ÛĮÙĨ
Ð»Ð°ÑĢ Ð¸Ð½Ð¸Ð½Ð³
Ġà®µ à®²
à¦¾à¦® à§ĩà¦°
Î¼Î² ÏģÎ¯Î¿Ïħ
ĠÙĩÛĮ ÚĨ
ĠÐ¿Ð¾Ð» Ð¾Ð¶
Ġpro t
à¸¡à¸µ à¸ģà¸²à¸£
ĭ åıĭ
ĠáĥĴáĥķ áĥĶáĥłáĥĵ
ĠÚ© Ø§ÙĩØ´
ĠH indi
Ġà´ħ à´®
ĠØ¨ØŃ Ø«
Ġall ow
áĢĶáĢ¹áĢ¸ áĢĻáĢ¬
ĠÑĦÑĥÑĤ Ð±Ð¾Ð»
ĠÐºÐ¾Ð³ Ð°ÑĤÐ¾
×ķ×ľ ×ķ×Ĵ
Ġáĥ£áĥłáĥĹ áĥĺáĥĶáĥłáĥĹ
ĠÐ¸Ð· Ð±Ð¾ÑĢ
íķĺ ë©°
Î¼Î¹ Î¿ÏħÏģÎ³
Ġà¥¤ âĢĻ
è© ¦
æľ Ĺ
å° ģ
ãģ¨ ãģĭ
à°µ à°¿
Ø´Øª Ûģ
ÑĢÑĥ Ñĩ
Ġâ ī
ĠàªĹà«ģàªľàª°àª¾àª¤ à«Ģ
ĠÒ¶ ÑĥÐ¼Ò³ÑĥÑĢÐ¸Ð¸
±áĢ ĸ
àª¾àª¶ à«ĩ
ÑĥÐ² Ð°Ð¼Ðµ
s w
ĠâĢ¦ ..
ĠÙĩØ¯ Ùģ
ĠØ¶ ÙħÙĨ
æĹ¥ æĬ¥
Ġn one
æ£ ®
áł ¤
ëŀ ĳ
Ø±ÙĬ ÙĤØ©
Ø§Ø± Ùģ
Ġà¤Ĩ à¤§
ĠÙĪÙĤ Ø§ÙĦ
ĠìĻ Ħ
ä»¥ åıĬ
¡ Ù
Ġè ı
Ġà®° à¯Ĥ
ĠÚ©ÛĮ ÙĪÙĨÚ©Ûģ
ĠÚ©Ø¨ Ú¾ÛĮ
Ñĭ Ñģ
ĠëĨ Ĵ
ãģı ãģª
ag æĹĹèĪ°åİħ
ĠÙħØ³ Ø§Ø¦ÙĦ
ĠÐ¿ÑĢÐµÑĤ ÑģÑĤÐ°Ð²
Ġà¦¥ à¦¾à¦ķà§ĩ
ĠÙħ Ùı
ĠØ§Ûģ ÙĦ
àµĢ à´ª
it em
ĠëĤ ´ë
à¸Ń à¸·à¹Īà¸Ļ
Ġà®µ à®¾à®°
Ġàªķàª° àª¶à«ĩ
åľ Ī
à´¿à´¯ à´¤àµį
áĥĺáĥķ áĥĶ
áĥĲáĥł áĥĺáĥĲ
à¤£ à¥Ģ
Ġê° ģ
ãģ® ä¸Ń
Ġà«¨à«¦ à«§
Ġàªµàª¿àª ľ
Ġàª¬à«Ģàªľ àª¾
ĠÐ¼Ð» Ð½
ĠÎ¬ Î»Î»
èĩªå·± çļĦ
ĠÐĲ Ð¹
ĠÐ´ Ñį
áĥ£áĥł áĥĲ
ĠáĢĢáĢŃáĢ¯ áĢļáĢ¹áĢ·
Ġà°µà±įà°¯ à°ķà±įà°¤
Ð»Ñı Ñħ
ĠØ¹ÙĦÙĬ ÙĩØ§
Ġpart ic
æłĩ åĩĨ
à°Ĥà°¤à±įà°° à°¿
Ð¸Ð½Ð¸ ÑĤÐµ
ĠáĥĽáĥĿáĥ Ļ
Ġáĥ¤ áĥĿáĥłáĥĽ
ĠáĢħ áĢŃáĢĲáĢº
ĠÐ² Ð¾Ð¹
à¸ķà¹īà¸Ńà¸ĩ à¸ģà¸²à¸£
Ú©ÙĨ ÙĨØ¯
ÙĤÙĬ ÙĤØ©
Ð¾Ð´ Ð¾
ĠÐľ Ñĸ
à´Ļàµįà´Ļ à´¨àµĨ
à±ĩà° ¦à°¿
Ð°Ð½Ð´ ÑĢ
Ġ×Ĳ ×¡
à¤® à¥Ģ
ĠãĤ ¦
Ġà´ħ à´²àµįà´²
à±Ģ à°²à±ĭ
Ġà¤ı à¤µ
áĥ¡ áĥĶáĥľ
à«įàª ľ
Ġà¤¸à¤¿à¤Ĥ à¤¹
ĠÙĤ Ø§Ø¦Ùħ
Ġl ittle
åĢ ĳ
ŀ áĢ¬
ĠÑĤÑĢÐ°Ð½ ÑģÐ¿Ð¾ÑĢÑĤ
ĠÐ±Ñĥ ÑĤÐ¸
Ġ" }
ëĭ¤ ê³ł
à¸ģà¸²à¸£ à¸ĵà¹Į
Ġl ot
Ñĸ ÑĤÑĮ
Ġà°°à±Ĩ à°Ĥà°¡à±ģ
à§ģ à¦¸
Ð» ÐµÐ½Ð¾
ĠÚ¯Ø° Ø´ØªÙĩ
Ġ×ł ×¤
ĠÐºÐ¾Ð¼Ð¿ Ð»ÐµÐºÑģ
Ġ2 20
Îº ÎµÎ¹
ĠØ¨ Øµ
Ġå½©ç¥ŀ 8
ĠáĢ±áĢ¡ áĢ¬áĢĢáĢ¹áĢ
ĠÚ© Ø§ÙħÛĮ
à¸ģà¸¥ à¸²à¸ĩ
à°¿à° §
ĠÛģ Ø§ØªÚ¾
Ġâķ ķ
ĠáĢ±áĢ¡ áĢ¬áĢĦáĢ¹áĢ
Ġà°¤ à°°à±įà°µà°¾à°¤
Ġàªķ à«ĭàª²
áĥ£áĥ¨ áĥĲáĥĿ
ĠØ§ÙĦØ³Ø¹ÙĪØ¯ ÙĬØ©
ĠÐ¿ÑĢ Ðµ
ĠÎ´ ÏħÎ½Î±
è²¸ æ¬¾
ĠÙĪØ§ÙĦ Ø§
ìĹĲìĦľ ëĬĶ
id a
Ġ×ŀ ×ķ×¦
áģ ¾
à¤¾à¤Ĥà¤ļ à¥Ģ
Ð½ Ð°ÑĪ
Ġà´µà´¿à´ ľ
Ġà®ķà®° à¯ģà®¤à¯įà®¤
Ġà¤īà¤¨ à¤ķà¥ĩ
Ġ/ >
Ðº ÐµÐ½ÑĤ
Ġà¸ŀà¸Ļ à¸±à¸Ļ
Ġpro du
èĳ ¡
ĠÎŃ Îº
Ġc ase
Ġ3 D
ì¶ ķ
áĢ¬áĢ¹áĢ »áĢķ
ãĥŃ ãĤ°
à¯Ī à®¤à¯į
Ġh ours
ÐµÑĤ Ñĭ
Ġè ©
Ġæī ĵ
Ġàª² àªĩ
èģ ŀ
áĢ¡ áĢģáĢ«
à¤¥ à¤¾
ÒĽÑĤÐ¸ Ñģ
ÑĥÐ² Ð°ÑļÐ°
Î½ Ïİ
Î±Ïĥ Î¯Î±
ĠÐ°Ð² Ð³ÑĥÑģÑĤ
Ġìķ ŀ
ç¦ ģ
Ġà¦® à§įà¦¯
Ġà¤ķ à¥Į
ĠÙĨ ÙĬ
Ġto day
ÐµÐ³ Ð¾ÑĢ
ĠÐº Ð°Ð´
Ġqu ality
Ġinclud ing
ä¸ ģ
on es
ĠáĥĵáĥĲáĥĺ áĥ¬áĥ§
ìĪ ľ
Ġà®Ĩ à®ļ
ĠØ§ÙĦØµ ØŃ
ĠÑħ Ð°Ð±Ð°ÑĢ
à¹Ģà¸ŀ à¸µà¸¢à¸ĩ
ĠÙĤ Ø¶
Ø³ Ø§Øª
áĥĺáĥ¢áĥĶáĥ¢ áĥĺáĥ¡
ç» §
å¦ ¹
à¸µ à¸Ļ
ĠáĥĴáĥĲáĥĵáĥĲáĥ¬áĥ§áĥķ áĥĶáĥ¢
Ġàª® à«ģàªľ
à¸Ļà¸ Ĥà¸Ńà¸ĩ
Ð¢ ÐĲ
ĠÑĩ Ð¸ÑĤ
Ġáĥ¨ áĥĶáĥ¥
Ġs umm
åŁ¹ è®Ń
ÑĨ Ñĥ
Ġáģ ī
à°¿à° ¬
à¤¿à¤¸ à¥įà¤¤
ĠB ar
à®Ļà¯įà®ķà®³ à¯ģà®ķà¯įà®ķà¯ģ
ĠáĢ±áĢ ĦáĢ¼
Ġà´¤ àµĢà´°
Ġà®®à¯ĩà®² à¯ģà®®à¯į
Ð»Ð¸ Ñı
Ð°Ð½ Ñĥ
Ġc a
ä¸ ´
ĠãĢĤ âĢľ
Ġàªª àª¾àªĤàªļ
Ġà¦ķ à§įà¦¯
ĠÑĤÐµÐº ÑģÑĤ
Ġ(' .
æ± ł
à¦¾à¦ ·
S c
Ġ1 åĪĨå¿«3
ĠØ« Ø§Ø¨Øª
Ġ×Ķ×ŀ× ¡
å¦ Ī
à®¿à®¨à¯įà®¤ à¯ģ
Ðł Ðķ
Ġàª§ àª¾àª°
Ġà¤ªà¥įà¤° à¤ķ
å§Ķ åĳĺ
ãĤŃ ãĥ£
à§ĩà¦Ľ à¦¿
ÑĤÐµ Ð¹
Ġà®¨ à®©à¯įà®±
Ġb ased
ĠìĨ Ĳ
Ġå¿ ĥ
Ġà´ķ àµģà´
ĠØ§ÙĨÙĤÙĦ Ø§Ø¨
à°¿à° ¶
×ķ×ĳ ×ķ×ª
Ð± ÐµÐ´
Ġáĥ¡áĥĲáĥĶáĥłáĥĹ áĥĲáĥ¨áĥĿáĥłáĥĺáĥ¡áĥĿ
Ġsu ccess
åŃĺ åľ¨
à´¿à´ İ
Ġàª°àª¹ à«įàª¯à«ģàªĤ
Ġpl an
áĢĻ áĢĦáĢ¹áĢ¸
áĢ¬áĢ¸áĢĻ áĤĪ
Ðº ÑĢÑĭ
o int
Ġà¦¬ à§ľ
Ð¸ Ñĺ
Ġè Į
Ġáĥ¨áĥĶáĥ® áĥķáĥĶáĥĵ
Ġà¦¯ à¦¦à¦¿
ĠÐ¼ ÑĥÑĤ
èµ· æĿ¥
»áĢķ áĢĶáĢ¹áĢ
Ġk m
áĢ¡ áĢ¬áĢ¸áĢ
å®ŀ çİ°
áĥĺáĥľ áĥĲáĥľáĥ¡
à®¨à¯įà®¤ à®¿à®°
ĠÐĵ Ð¾Ð»
ĠÐ¥ Ð°ÑĢ
à¯Ĥ à®°à¯į
L C
Ġspec ial
ĠÐ± Ð¸ÑĤ
Ġà´¨ à´²àµįà´²
Ġà´¤àµįà´¤ à´¿
Ġà®ļ à®Łà¯įà®Ł
ĠÙħØµ Ø±Ùģ
ĠW ed
ĠÑı ÐºÐ°Ñı
Ð¾Ð´ Ñĸ
ĠØ¹ Ø§ÙĦ
Ġ äºĳ
ĠÙĬ Ø´
ĠÐ¾Ð´ Ð½Ð¾Ñģ
à¥ģà¤³ à¥ĩ
Ġà´ķ àµĤà´Łàµįà´Ł
Ġà¨ ª
ĠÐ² ÐµÑĤ
Ġà¤ľ à¥įà¤¯
à±ģà°² à±įà°²à±ĭ
ĠØ· Ø¨ÛĮ
ĠÐ¢ ÐµÑĢ
åĪ ¸
å¤§ å®¶
ÏģÎ¯ ÎµÏĤ
ĠáĥĲáĥł áĥĲáĥ¡
áĢĽáĢŃ áĢŀ
iss ion
Ġè® °
å° ļ
à´ķàµįà´ķ àµģà´¨àµįà´¨
Ð¿ÑĢÐ¸ ÑĶÐ¼
ap e
ĠáĢ»áĢĻáĢĶáĢ¹áĢĻáĢ¬ áĤıáĢŃáĢ¯áĢĦáĢ¹áĢĦáĢ¶
Ġà®ªà¯Ĩ à®°à®¿à®¯
Ġàª¬àª¦ àª²
ĠØª Ùĥ
à¸£ à¹Īà¸§à¸¡
ĠÐķÐ²ÑĢÐ¾Ð¿ Ð°
ĠÐ³Ð¾Ð´ Ð·Ðµ
çļĦ ãģª
áĢħáģ¥ áĢĬáĢ¹áĢ¸
Ġï¼ İ
àªľ àª¨
Ġà¦ħ à¦ª
vern ment
åĬŁ èĥ½
åģ¥ åº·
ĠØ§Ø« Ø±
Ð´Ð°ÑģÐ´Ð°Ñģ Ð´Ð°ÑģÐ´Ð°Ñģ
Ġå ²
ĠØ± Ø§Ø³Øª
à®¾à®µ à®¿à®©à¯į
à§ĩà¦¤ à§įà¦°
Ñŀ ÑģÑı
Ġà®µ à®¾à®¯
ĠÑģ Ð¾ÑĢ
ĠÐľ Ð¸Ð½Ð¸
ãģ® ãģ§ãģĻãģĮ
Ð°Ð½Ð¸ Ñĩ
ĠÐ±Ð¸Ð» Ð¾
Ġà°¸ à°¹
Ġd uring
ĠáĢŁ áĢ¬
Ġàª°àª¹ à«ĩàª¶à«ĩ
Ð»Ñı ÐµÑĨÑĨÐ°
Î½ ÏĮ
ww w
ĠÐĳ Ð¸ÑĢ
ĠÐ¿Ð» Ð°Ð½Ð¸
å®Į æĪĲ
áĥĴ áĥ£áĥ¤
Ø±ÙĬ Ùħ
ĠÙĪØ§ÙĦ Ø¥
ĠØ³ Ø§Ø¦
!! !!
Ġ il
àµĬ à´´
×Ļ×¡ ×ĺ
ON G
åľ Ĵ
å¦ »
i que
Ġàª®àª¾àªĤ àªĹ
ĠÐ¼ Ð°ÑĢÑĤ
Ġtr ack
à®¿à®ķ à®´
Ø¬ Ø§Ø¬
Ī à¸²à¸ģ
b c
p lo
Ġë§İ ìĿĢ
Ġàªµ àª¸à«įàª¤
ĠØª ÙĦÙĥ
ĠÎ¼ Î¯Î±
åĲ ¯
A X
ĠØ§Ø³ Ø±
ĠÐ¿ ÐµÐ´
ÙĢÙĢ ÙĢ
Ġà¸ķ à¹īà¸Ńà¸ĩ
ĠØ¯ÙĪØ± Ùĩ
àµĩà´ ¦
ĠØ§Ø´ Ø§Ø±Ùĩ
àªª àª£
Ġà¦¬à¦¿à¦ ª
ĠÎ± Î¾
äºº äºº
Ġàªªà«įàª° àªķ
Ġ×ŀ×¡ ×¤×¨
ÑĥÐ¶ Ðµ
A I
ĳáĢ¬áĢ¸áĢ ĲáĢ²áĢ·
Ġà°¤à±Ĩà°² à±ģà°Ĺà±ģ
×ķ×ŀ ×Ļ×Ŀ
ÑĦ Ð°ÑĤ
Î±Î¹ Î¿
t d
ĠìĤ¬ íļĮ
áĢķ áĢŃáĢ¯
Ġà°ħà°§ à°¿à°ķà°¾à°°
ĠÑģ ÑĢÐµÑī
áĥĶáĥ¢ áĥĺ
à¸³ à¸Ļà¸§
Ã ¡
ĠÙĪÙĩ ÙĬ
Ġ2018 å¹´
ãģķãĤĮ ãĤĭ
ÑģÑĤÐ² Ð¸Ðµ
Ġà®®à®ķà¯įà®ķ à®³à¯į
ĠÐ³ Ð¾ÑĤ
ĠÐ±Ð¸Ð´ Ð°ÑĤ
ĠCh ina
áĥĿáĥĵ áĥĺ
Ġàª¦ à«Ģàª§
Ġ×Ķ×Ļ ×ķ×Ŀ
áĥĲáĥª áĥĶáĥĽ
áĢĨ áĢ®
à´¿à´¯ à´¿àµ½
àª¿àª «
Ð°Ð¶ Ð´Ð°Ð½
Ġàª²àª¾àªĹ à«ĩ
à§ģà¦¦à§įà¦§ à§ĩ
Ø¶ ØŃ
Ð ĩ
Ïĥ Î¼Î±
k k
ĠÐ¾ Ð¹
ĠëĤ ł
ãĥ³ãĥ ģ
áĥĺáĥļ áĥ¡
à¯ģà®ķ à®³à¯Ī
ip p
ĠáĥĶáĥĻ áĥĿáĥľáĥĿáĥĽ
Ġ×ķ ×ľ×Ķ
Ġàªµà«įàª¯ àªµ
ĠÐ³ Ð¾ÑģÑĤ
ĠÎ ŀ
Ġàª¨ àª¾àªĸ
áĢ¡ áĢĽáĢ¬
ä¼ļ è®®
Ú¯ ÙĦ
ÙĪ ÙĬÙĦ
Ľ áĢĶáĢ¹
Ġï ¸ı
Ġà´Ł à´¿
Ġ×Ĳ ×ķ×¨
Ġà¤ª à¤¾à¤¸
ĠØ¬ Ø§Ø¦ÛĮÚº
ĠÐŀ Ð²Ð°
ĠÐ¼Ð°ÒĽ Ñģ
çĶµ èĦĳ
å¾® ä¿¡
áĤı áĢ¯
à¤ķ à¥ĭà¤Ĥ
Ġåı¯ ä»¥
ĠØ£ Ø¯
ĠÎµÏĢ Î±
ĠØ± Ú©
ĠÑĩ ÐµÐº
ĠÐ¿ÑĢ Ð¸Ð³
ĠÐ´Ð¾Ð± ÑĢÐµ
æİ§ åĪ¶
áĥ« áĥ¦
áĢ¡ áĢĳáĢŃ
à§įà¦¯ à§ĩ
Ġà¤«à¤¿à¤² à¥įà¤®
à¹Ģ à¸£à¸´à¹Īà¸¡
Ġà¦¢ à¦¾à¦ķà¦¾
ì¶ľìŀ¥ ìĦľë¹ĦìĬ¤
ÙĪ Ø§Ø¬
ÑĤ ÐµÐ»ÑĮ
ĠØŃØ¯ ÙĪØ¯
Â ·
Ġàªħ àª°
ëı ħ
áĥĺáĥķ áĥĺ
ĠÙ¾ Ø²Ø´
áĥĶáĥĹ áĥĶáĥ¡
ĠÙģ Ùĩ
ĠØ¯Ø±ÛĮ Ø§ÙģØª
åĩº çİ°
áĥľ áĥĺáĥĹ
à¤¾à¤ Ń
ÙĨ Ø§ÙħÙĩ
ĠAG äºļæ¸¸
A r
ĸ à¸¶à¸ĩ
ĠÐ¶ Ð°Ð¼Ð¾
áĥľ áĥĶáĥ¡
Ñı Ð´Ð·
Ġì ±ħ
Ġà¸Ĺ à¸±à¹īà¸ĩ
à°Ĥà° Ń
Ûģ ÛĮ
ÙĴ ÙĦ
Ð½Ðµ Ðµ
Ġåı Ī
Ġ×Ĵ ×¨
ä½ľ çĶ¨
Ð°Ð´ Ñĥ
×Ļ×Ĳ ×ķ×ª
ĠæľĢ æĸ°
Ġà°ı à°®
ĠàªŁ à«Ģàª®
ëĦ ·
çµ ¦
ĠÐ¸Ð½ ÑĦ
Ġ" "
áĢĦáĢºáĢ¸áĢ ľ
ÏĨ ÏĮ
O C
ĠàªĹ à«ģ
Ġ×Ķ×Ľ ×ľ
ĠÐº Ð¾Ð»ÑĮ
ÙĨ ÙĪÙĨ
ĠìľĦ íķľ
ĠÙħØ³ ÙĦØ³ÙĦ
ãģ¡ ãĤī
à¤¿à¤¤ à¤¾
Ð³Ð¾Ð» ÐµÐ¼
ĠØ§Ø± ØªØ¨Ø§Ø·
ĠáĢ±áĢĨ áĢ¬áĢĦáĢ¹áĢ
ĠÒĽ Ð°Ð´
ĠÑĪ Ðº
ĠÐ» ÑĥÑĩ
ĠÐ²Ñĭ Ð¿
ĠÐ ı
Ġà¤¶ à¥įà¤°à¥Ģ
Ġà´¶ à´°
ĠÙĩ Ø§ÙĬ
ĠA ss
áĢĶ áĢļáĢ¹
ĠáĥĽáĥĹáĥĲáĥķ áĥĲáĥłáĥĺ
áĥĶáĥłáĥ ľ
Ð¸ÑĪ Ð³Ð°
Ġ} #
áĢģáĢ¶ áĢĽ
ÏĦ Ïĥ
ĠáĥĴáĥĲáĥľáĥĽ áĥĲáĥķáĥļ
ĠÑĦ Ð¾ÑĤÐ¾
ĠÐ¸ Ñĩ
à¸ŀ à¸£à¹īà¸Ńà¸¡
b ers
áĥłáĥª áĥĶáĥļ
áģ¿áĢķáĢ®áĢ¸áĢ ±áĢĲáĢ¬áĢ·
à°° à±įà°²
à¥įà¤ ł
ĠÂ ¦
Øª Ø´
Ġà®µ à®¿à®ļ
ĠØ§Ø³ Ù¾
à¹Ģà¸Ħ à¸¢
àµĨà´Ļàµįà´ķ à´¿à´²àµįâĢį
ĠâĢĻ ,
ĠÎµ Î¹Ïĥ
èģ ·
è Ķ
Ø¬ Ø²
×ĳ ×ķ×¢
ĠÐľ Ð°Ð³
ĠÎºÏĮ Ïĥ
áĥ¥ áĥķ
op e
Û ´
Ġ... ....
åĩ °
áĢĳ áĢ¬áĢ¸áĢŀ
Ġà°Ĵ à°ķà±įà°ķ
Ġà¦¸ à¦°à§įà¦¬
ĠÙĨ Ùģ
ĠÐłÐ¾Ñģ ÑģÐ¸Ñı
ĠÐĹ Ð°Ð³
åıĳ çİ°
Ø¨ ÙĦÛĮ
ą Ćą
áĢŀ áĢ¬áĢ¸áĢħáĢ¯
Ø§ÙĦ Ùī
ĠØ¬ Ø§ØªÛĮ
à°¾à°µ à±ģ
r act
ĠØŃ ÙĤÛĮ
Ġb en
èĪ ŀ
ĠØ¨ÙĨØ¯ ÛĮ
Ġth ree
áĥĸ áĥĲáĥķ
à´¿à´¨àµįà´ ¤
Ðµ ÑĨÑĮ
Ġàª®àª¾àª£ àª¸
à°°à±įà° Ĺ
Ġáĥ¨ áĥĺ
Ġàª¶ àª¬à«įàª¦
ĠåĽ ŀ
ãģ«ãģª ãģ£ãģ¦
áĢħ áĢħáĢº
à§ģà¦ ģ
ĠØ§Ø¹ ÙĦØ§ÙĨ
ĠÐ· Ð³
áĢĳáĢ² áĢĻáĢ½áĢ¬
ĠÑĤÐ°Ð» Ð°Ð±
ç °
Ð² Ð¸Ð½
àµĬ à´ķàµįà´ķàµĨ
ĠØ¯Ø§Ø± Ø§ÛĮ
Ġs ure
Ŀ ½
à®¾à®µ à®¿à®²à¯į
Ø· ÙĪØ±
Ð½ Ð´Ð¸
Ġë§Į ëĵ¤
ĠãĢ ľ
ĠÏĥÏĩ ÎŃ
à¨ ķ
à¤ª à¥ģà¤°
Ġ×ĳ ×ĸ
à¯ģà®£ à¯įà®Ł
àª£ à«ĭ
Û ¶
Ð¾Ð¼ Ð°ÑĤ
Ġàªľ àª¿àª²
ĠÐ´Ðµ ÑĨÐ°
ĠÎ£ ÏĦÎ·
Ġre ce
à«Ģàª Ĩ
Ġà´ķ à´³
ãģĶ ãģĸ
à°¾à°² à±įà°¸
Ġà®ªà®ķ à¯ģà®¤
ĠÐ³ Ð¸ÑĢ
ĠÐ² Ð°Ð¹
å¼Ģ åıĳ
Ø± ÙĦ
Ġà°ķà±Ĭ à°¤à±įà°¤
ĠÑĦ ÑĸÐ½
Ġà´µà´¿à´¦ àµįà´¯
Ġàªīàª¤ à«įàªª
ĠÎ» ÎŃ
áĢĢáĢ¹áĢ Ļ
à¤¡à¤¼ à¥Ģ
×Ļ×ŀ ×Ļ×Ŀ
ĠÙĤ Ø§Ø¨
à¤¾à¤ļ à¥ĩ
Ø« ÙĦ
Ġæķ Ļ
ç´ °
à°² à±įâĢĮ
Ð°Ð¼ Ð¸Ð·
ĠáĥĲáĥ¡ áĥĶáĥĹáĥĺ
Ġà´İ à´¸àµį
æ¬ ²
áĢ±áĢ¸áĢ ŀ
à´§ à´¾à´¨
Î½Î¿ Î´Î¿
Ġáĥĳ áĥĿáĥļ
Ġà°ħà°¨ à±ĩ
ĠáĢ±áĢ ĳ
ØªÙĪ Ø¨Ø±
ĠÐ²Ð¸Ð´ ÐµÐ¾
ģ áĢĲáĢ¹áĢ
ĠØ£ Ø®Ø±Ùī
um an
ams ung
Ġà®µà¯Ĩà®³ à®¿à®¯
Ġt a
ãģ® æĸ¹
à°ķà±įà° ¸
×¤ ×ķ
áĥĶáĥ ĸáĥĶ
áĢĳ áĢ±áĢ¬áĢĦáĢº
ĠÙ¾ Ø±ÛĮ
à¹ģà¸ķ à¹Īà¸ĩ
à¤¬ à¥Ģ
Ġp ublic
Ġcle an
è¼ ī
ç» Ŀ
à¸£ à¸±à¸Ĳ
Ù¾ ÛĴ
Ñĭ ÑģÑĤ
ru ct
ĠØ¹ÙĦ ÙĪÙħ
ĠÐ¿ ÑĭÑĤ
Ø° ÛĮØ±
æİ Ī
Ð» Ð°Ð´Ð¸
ĠD el
åĳ ¢
Ġà°ª à±ĩ
Ġàª§ à«įàª¯àª¾àª¨
ĠG al
íı °
Î»ÎµÏħ ÏĦÎ±
ĠÐº ÑĥÐ»ÑĤ
Ġ16 0
é¡ »
Ú¯ Ø±Ø§ÙĨ
×Ļ×Ĺ ×Ķ
Ġàª®àª¾àª ¹àª¿àª¤
Ġà¤ķà¥įà¤· à¥ĩà¤¤à¥įà¤°
ĠÐµ ÑīÐµ
Ġà®ķà¯ģà®´ à®¨à¯įà®¤
ĠÎł Î¡
Ġc art
ãģ£ ãģ
à¹Ģà¸£à¹ĩ à¸§
à´ķàµįà´ķ àµģ
àª¨ àª®àª¾àªĤ
Î» Î¯Î±
Ġà¤ľ à¤°
ĠÑĩÐ¸ÒĽ Ð°ÑĢ
ĠÐ³ Ð°
Ġd irect
áĢ¬áĢ¸áĢľ áĢ½
Ġà®µ à®¯
Ġà®®à®ķà¯įà®ķ à®³
ĠØ± ÙĬ
ĠÐ¼ÐµÑģ Ñı
ÑĢÐ¸ Ð¹
ĠÐ¾ÐºÐ¾Ð» Ð¾
áĢľ áĢ®
×ķ×Ĳ ×Ķ
ĠÐł Ð¾Ð·
Ñĩ Ð¸Ðº
ÑģÐº Ð¾Ðµ
ÐĽ ÐĲ
Î¯Î¶ ÎµÎ¹
Ġåĩ ¤
Ġàª¸ àªĤàªķ
ĠÑĤÐ° Ð°
ĠØ¬ÛĮØ³ ÛĴ
Ïĥ ÏĥÎ±
ĠÐ¸ÑĪ ÑĤÐ¸ÑĢ
ĠS l
Ġáĥ£áĥ ĸ
Ġàªĺ àª£àª¾
Ġ×ĳ ×ł×Ļ
à¤¡ à¥ĩ
ĠáĥĴáĥĲáĥľáĥĽáĥĲáĥķáĥļ áĥĿáĥĳáĥĲáĥ¨áĥĺ
ĠáĢĺ áĢļáĢ¹áĢľáĢŃáĢ¯
Ġà°µ à°¾à°Ł
áĢĢáĢ¹áĢ ĲáĢ¬
à´ªàµįà´ªàµĭ à´´
Ġà´ª à´¤
ĠÑĤ Ð°Ð³Ð¾
ĠÐ½ Ð¸ÑĪ
Ø¨ Ø§ØŃ
Ð°Ñĵ Ð°ÑļÐµ
ķáĢ¼ áĢ¯
à´ķ àµ¾
à®¿à® Ļ
ÑĥÑİ ÑĤ
ĠÙĦ Ø§Ø²Ùħ
Ġ×Ľ ×ķ×ľ
çĻ Ĥ
åĽ º
å¯¼ èĪª
à±ĥ à°·
Îµ Î²
ĠØª ÛĮØ±
áĢ»áĢķ áĢĶáĢ¹áĢ
Ġàªªàª¸ àªĤàª¦
ÙĨØ¯ Ø±
ÎŁÎ ľ
à¯įà®ª à¯ģ
Øµ ÛĮÙĦ
Ð°ÑĤÐ¾ Ð°
ĠØ§ÙĦØ± ØŃ
ĠÑĩÐ°Ñģ Ð°
Ġh ouse
Ġà¤ħ à¤ļà¥įà¤Ľ
Ġth ings
Ġà®ļà¯Ĩ à®²
ab ility
Ġà¤µà¤¿à¤ Ń
ĠÙħ Ø§ÙĬ
ĠÑĢÐ°Ð·Ð»Ð¸Ñĩ Ð½Ð¸
à¸£ à¸±à¸ģ
áł ¡
ĠÙĪ Ø§ÙĨ
ĠÙħ ÙĲÙĨ
Ġ×Ļ ×¨
ĠÑĤÐµÐ»ÐµÑĦ Ð¾Ð½
ĠÐ² ÐµÑĩÐµ
ĠD 8
áĢ¯áĢ¶ áĢ¸áĢŀ
Î¸ ÏģÏī
Ġà´ª à´ķàµįà´·
Ġà¦¤ à§Ī
ĠÙĤ Ø¯Ùħ
ĠØ¬ Ú¯
áĥĺáĥ¡ áĥĺ
à§įà¦¯à¦¾à¦¨ à§įà¦¡
ÑĢÐ¸ Ñĩ
Ð» Ñĭ
ê·¸ ëŀ¨
à¶± à·Ĭ
à¨¾à¨ Ĥ
×Ĳ ×ľ
±áĢĢ áĢ¬áĢĢáĢ¹áĢ
Ġå· ²
Ġà¦ī à¦ļ
Ġle t
áĥ¢ áĥĿáĥĽ
Ñļ Ð°
ķáĢ¼ áĢ®áĢ¸
Ġàªľ à«ĩàªµàª¾
ur y
p c
Ġç Ģ
ĠÐ¿Ð¾Ð¼ Ð¾Ð³
ĠÐ²ÑĭÑģ Ð¾Ðº
Ġp ut
Ġg l
ĠS erv
à¥ĩà¤ ³
Ġê¸ Ģ
ĠÙĪØ§ÙĦ ØŃ
ĠØ± Ùĩ
ĠØ¨Ø§ÙĨ Ú©
Ġ×§ ×¦
±áĢĶ áĢĲáĢ²áĢ·
ĠØ§ÙĦØŃ ÙĬ
å® ĩ
áĢĦáĢ¹áĢ ĲáĢ¬
à¸ł à¸±
à´¾à´£ àµįâĢĮ
×ķ×Ľ ×ľ
Ġáĥľ áĥĲáĥĹ
ĠØª ÙĤØ¯
à¦¾à¦° à¦¿
it a
ĠØŃ Ø§Ø¶
ĠÎµÎº ÎµÎ¯
à§Ģ à¦ķà§įà¦·
Ġå¼ ķ
ĠSt ud
è¿ Ŀ
ut es
ĠâĢ ł
ĠÐ³ ÑĥÐ»ÑĮ
áĢĲáģ ±
ÙĩØ§ÛĮ ÛĮ
ĠìĿ¸ íĦ°
Ġà¦® à§ģà¦ķà§įà¦¤
áĥĶáĥľ áĥ¡
ĠÐ³ÑĢ Ð¾Ð¼Ð°Ð´
Ð°ÑĨ Ð¾Ñŀ
Ġá¼ Ĳ
Ġc ost
ë¸ Ķ
ĠØ® Ø§Øª
Ġp at
ç´ ļ
à¸Ļ à¸±à¹ī
à§ĩà¦ ·à§įà¦Ł
ë³ Ģ
ĠåĮ ħ
æ¼ı æ´ŀ
ĠáĢ±áĢĲáĢ¼ áĤĶ
ĠÙĨØ³ Ø®
Ġ×¨ ×Ľ
Ġp df
eth ing
Ġà´ ĸ
Ġà¦® à§Ĥà¦²
ĠØªØ± ÙĤÛĮ
Ð¸Ð´ Ð¸
Ġà°ķ à°¾à°¦à±ģ
ĠÐ¾ ÑĪ
Ġáģģáģ Ĥ
Ġàª®à«ĭàªŁ àª¾
Ġà¦¸ à¦¾à¦¹
ĠÙħÙĨ ÙĩØ§
ĠØ´ Ø¹Ø¨
è¦ ı
Ð°Ñģ Ð¸Ð½Ð¸Ð½Ð³
Ġà¦ľà¦¾à¦¤ à§Ģà§Ł
æĸ ¼
ØŃØ¯ Ø«
à¸ŀ à¸§à¸ģ
à°Ł à°Ĥ
ÑģÐº ÑĸÐ¼
Ġíĥ Ģ
ĠÑģÐµÑĢ ÐµÐ´
ģáĢ¼ áĢĦáĢ¹áĢ·
Î¸ Î±
¡ áĢħ
U T
Ġà´ªàµģà´± à´¤àµįà´¤
ĠØº Ø°
ĠØ¯Ø± ØµØ¯
Ġà¦ĵ à§Ł
ĠÙ¹ ÛĮÙħ
Ð¼ Ð¸ÑĤ
ĠÑģÑĤ ÑĢÐ°ÑĤ
ĠÐ± Ð¾Ð³
Ġáĥ¢áĥĶáĥ¥ áĥľ
ĠØ±ÛĮ Ø§Ø³Øª
æħ ĭ
×ķ×ĵ ×Ļ
Ð´ ÑĢÐ°Ð²
Ġáĥ¡áĥŀ áĥĶáĥª
ĠáĢ±áĢĴ áĢŀ
ĠáĢ±áĢĴ áĢ«
ĠÑĨ Ð°ÑĢ
v ir
Ġà®İ à®£à¯įà®£
éĢ Ļ
Ð¾Ðº ÑĢÐ°ÑĤ
Ð°Ð¼ Ð°Ð½
Ġàªķ à«įàª²
Ġà¦¸à¦Ń à¦¾à¦ª
ĠÛ ¹Û
ĠÒĽ Ð¸Ð·
áĢķ áĢ»
en a
ĠáĥĴáĥĲáĥĽ áĥĿáĥķ
Ġáĥ®áĥĶáĥļ áĥĺáĥ¡áĥ£áĥ¤
à¸ļ à¸Ĺ
Ġà§¨à§¦à§§à§ ¯
çĭ Ĺ
à¹ į
Ð½ Ð¾Ð¿
ĠáĢľ áĢŃáĢ¯áĤĶ
Ġex c
à´Ĥ à´¬
×Ļ×§ ×¨
Ġp ublished
Ķ áĢ²áĢ·
Ġà¦ĩà¦ī à¦¨
Ġà¤µà¥įà¤¯ à¤ķà¥įà¤¤
ĠØ§ÙĦ ÙĪØ²
à§Ģ à¦²
lo bal
P l
Ġà´ ļàµįà´ļ
áĢľ áĢ»áĢ¾
à®¿à®© à®¾à®°à¯į
Ð¸Ð½Ð³ Ð¸Ð·
Ġ ãģ«
áĢģáĢ²áĢ· áĢĲáĢ²áĢ·
S D
ĠÐ² Ð¶Ðµ
Ġch ange
Ġ? "
åŁº æľ¬
ä»ĭ ç»į
à¥įà¤ ľ
Ø§Ø¯ ÙĬØ©
ĠìŀĲ ìĭł
ĠçĦ ¡
ĠáĢĢáĢ¼ áĢº
ĠÏĮ Î»Î±
Ġcont in
ĠO ur
áĢĻáĢ¹áĢ Ļ
Ġæ° ĳ
ĠÚ©Ùħ Ú©
áĤıáĤĪ áĢĶáĢ¹áĢ¸
à®¿à®¯ à®¾
ĠáĥĽáĥĲáĥĺáĥľ áĥª
Ġà®ħà®°à®ļ à¯ģ
åį Ģ
à°¿à°ķ à±į
ĠÐ² Ð¿
áĢ¬áĢ¸áĢ Ĩ
à¸Ļà¸° à¸Ļà¸³
ĠáĢģáĢº áĢħáĢ¹áĢ
Ġà¤¨ à¤¿à¤ķ
ĠS ub
à¦¸ à¦¹
ĠÑŀ Ð²
ĠÏĩÏī ÏģÎ¯ÏĤ
ãĥ¼ãĥ ĸ
àª¾àª ¢
Ð°Ð½Ð¸ Ð¹
Ġà¤¸ à¥įà¤ª
Ġ- %
Ø§Ø¦ Ø¬
Ġà°µà±įà°¯ à°µ
ĠÐ¿ÑĢ ÐµÐ³
Î³ Î¼Î±
Ġà¦ĸ à§ģà¦¬
ĠÒĽÐ°Ð± ÑĥÐ»
èŃ °
Ð»Ð¾ ÒĽ
Ð°Ñİ ÑĩÑĭ
Ġà´¸ àµĤ
Ġà¦¹ à§ĭà¦¸
å°ı æĹ¶
ĠáĢ±áĢ ģáĢ«áĢĦáĢ¹áĢ¸
Ġà°ļà±Ĥà° ¸
ÙĪ Ù¾
ĠØ³ Ø±Ø¯
Ġem ail
æĶ¹ éĿ©
ãĤ ¡
Òĵ Ð¸
Ġà°° à°¾à°®
ĠÑĪ Ð¼Ð°ÑĤ
áĥĲáĥĸ áĥĺ
ÏĨÎ¿ Ïģ
ĠÐ± Ð°Ð¹
ĠÎµÏĢ Î¹Îº
ĠN ot
áĥłáĥ« áĥĶáĥļ
à¦¿à¦ ·à§įà¦Ł
Ġæķ °
è§Ĩé¢ĳ åľ¨çº¿è§Ĥçľĭ
à°° à±įà°¯
Ġáĥ¢ áĥĶáĥļ
ĠÐ¸Ð·Ð² ÐµÑģÑĤ
æĻº èĥ½
å¹´ çļĦ
à´³ àµģà´ŁàµĨ
à´¨ àµģà´Ĥ
ĠàªŁ àªķàª¾
ĠÐ¸ÑģÑĤ Ð¾
S H
ĠãĤ ±
Ġ, âĢĿ
×¦ ×Ļ
ĠàªĽ à«ĭàª¡
Ġj ob
íĻ į
Ð ª
ĠÐľ Ð°Ð¹
ĠM ed
áĥĶáĥĽáĥĳ áĥĶáĥłáĥĺ
Ð¾Ð³ Ð´Ð°
E lement
Ġë¦¬ ë·°
ĠáĢŀ áĢŃáĢ¯áĤĶ
ĠUS B
ĠìĿ´ ìĥģ
áĢĺ áĢ¯áĢĽ
à§ĩà¦¶ à¦¨
à¦ ¯à§ĭà¦Ĺ
Ġ19 99
ëĳ ĳìĿ´
ÐµÐ· Ð¿ÐµÑĩ
ĠØ§ÙĦØ¹ ÙĦÙħ
ĠÐ³ÑįÑĤ ÑĭÐ¼
áĥ£áĥ¡ áĥ¢
ĠØ§Ø± Ø¯ÙĪ
ÐµÐ½ Ð½Ñĸ
Ð°Ð³ Ñĥ
à°¾à°¬ à°¾à°¦
à«ĩàª ł
ĠÙħØŃ ÙĦ
à¤¬ à¤Ĥà¤§
Ùħ Ø§Ùħ
åĳ ¼
å» ¶
Ø¨ÙĦ Øº
Ġà¦ª à¦¦
Ġà¤¬ à¤ļà¥įà¤ļ
ĠÐ¼ Ð¾Ð±
Ġbet ter
çĪ ¶
ä¾¡ æł¼
Ïĥ Î¹Î¿
Ġìĭ Ŀ
ĠØ§Ùħ ÙĪØ±
ĠØ§ÙĦØª ÙĨ
Ġper form
éĿŀ åĩ¡
çµ Ĥ
ÑĢ Ð°Ðº
ĠáĥĽ áĥĲáĥłáĥĹ
ĠÐ¼Ð°Ð¼ Ð»Ð°ÐºÐ°ÑĤ
åıĳ çĶŁ
à¸£à¸´ à¸¡
ÏĢÎ¿ ÏĤ
Ġàªķà«ĩàªŁàª² àª¾àªķ
Ġ×¡ ×¤×¨
áĢ¸áĢĲ áĢļáĢ¹
ÙĬÙĨ ÙĬØ©
Ġàªī àª¤à«įàª¤
Ġ×ľ×ŀ× ¢
áĢ¸áĢ±áĢ ľ
ë¬ ´ë
è¿ĺ æĺ¯
æ¯ Ĵ
ÑĢ Ð·
Ð¾Ð² Ð¾Ð´
Ġàªµà«įàª¯àªķà«įàª¤ àª¿
à±įà°¸ à±įâĢĮ
h r
Ġê·¸ ë¦¬ê³ł
ĠÏĢÎµÏģÎ¹ÏĥÏĥÏĮÏĦÎµ ÏģÎ±
ÙĬØ± Ø§ÙĨ
l t
f ect
ĠØ¬Ø¯ Ø§
ĠÐ´ Ñĥ
×ł ×ĵ
ĠA C
áĢķ áĢĬ
áĢĳ áĢ¼áĢĢáĢ¹áĢ
Ð½ Ð°Ð¼
×Ļ×ĳ ×ķ×¨
×¨ ×¥
Ġàªħàª¨ à«ģàªŃ
ĠÙħÛĮ Ø§ÙĨ
ĠáĥĲáĥł áĥĺáĥĲáĥľ
Ġáĥ¬ áĥļ
Ġà¤ħ à¤Ĺ
ĠàªĨàªª à«ĩ
ì¹´ ìĺ¤
à¦ Ĩ
Ġáĥ¡áĥĲáĥĺ áĥľ
ĠØ§Ø¹ Ø¸Ùħ
ãĤī ãģĦ
ĠáĢŀáĢ° áĢĢ
Ġà´® àµĩ
ĠÛĮ ÙĤ
Ġsh op
çĶµ è¯Ŀ
áĢ¬áĢ¹áĢ ľáĢĬáĢ¹áĢ¸
Ġà´ķ à´²
Ġà°§ à°°
ĠØªÙĨ ÙĩØ§
ĠØ¢ ÙĤ
ĠÑĨ ÑĢ
ĠÎµ Î»Î»Î·Î½
b ox
Ġà¹Ģà¸ ĺ
ĠÎĿ Î±
Ġà« ¬
ĠÐ±Ð¸Ð· Ð½ÐµÑģ
ĠUS D
ç½ ª
áĢ±áĢ¸áĢ ¡
à¹Ģà¸Ĭ à¸·à¹Īà¸Ń
áĢĻ áģ»
Ġë°© ë²ķ
ĠáĥĴáĥĲáĥľ áĥĲáĥĹ
Ġá Ĭ
ĠÙģ ÙĪØ±
Ġstr ong
Ġrepl ace
ãģ¨ ãģĵãĤį
ĠS ec
áĢĸáĢ¼ áĢĦáĢ·áĢº
à¸µà¸¢ à¸Ķ
Ġàª¸ àª¤
Ġt ag
áĥĺáĥļ áĥĶáĥĳáĥĺáĥ¡
à¦® à¦¨à§įà¦¤à§įà¦°à§Ģ
ãģ ²
áĢĻáĢ¼ áĢĦáĢº
Ġ×ĳ ×Ł
à¤¡à¤¼ à¥ĩ
ĠáĢĲ áĢĦáĢ¹áĢ
çĬ ¯
Ñĩ Ð°ÑģÑĤ
Ð¸Ð½ Ð¾Ð²
am m
Ġà¤ħ à¤¸à¥ĩ
Ġ×Ĳ ×Ļ
ĠÑĦÐ¸Ð½ Ð°Ð½Ñģ
ĠÐ³Ð¾Ð´ Ð¸ÑĪ
Úĳ ÛĴ
Ø§Ø¦ ÙĬÙĦ
Ġà®ļà¯Ĭ à®©à¯įà®©
Ġà®® à®¾à®µ
à¤¿à¤µ à¤¾à¤°
ĠáĢŀ áĢĬáĢ¹
ĠØ§ÙĦÙĨ Ø§Ø³
ãĥ© ãĤ¹
áĤĬáĢĲáĢ¹áĢ ±áĢĲáĢ¬áĢ¹áĢ
Î¼ ÏİÎ½
ĠÐ¼ ÑĥÐ²
ĠP er
åıĤ èĢĥ
åģ· æĭį
àµĨ à´²àµįà´²
Ġåı Į
ĠÎĳ ÏģÏĩ
áĥĺáĥ ¯
Ñģ ÑĥÑĤ
ĠM edia
ÙĪØ² Ùĩ
Î½ Î¬
Ġàª® àª¤
Ġàª¬ àªľ
Ġà¦¬à¦¿à¦¶ à§ĩà¦·
áĢ¼ áĢ¸
ÑĢÐ¾ ÒĽ
Ð°Ð» Ð¸ÑģÑĤ
ĠÚ© Ø§Ø±ÛĮ
ĠÐ±Ñĭ ÑĨÑĮ
ĠA D
áĢĻáĢ¾ áĢĶáĢº
Ġà¦ª à¦¾à¦¶
à¯įà®µ à¯ģ
Ġàª¶ àª¾àª¹
ï¼ ķ
æľĢæĸ° çĻ»å½ķ
áĥĲáĥĻ áĥ£áĥĹ
à±Ĩà°Ł à±į
ÑĥÐ² Ð°Ð»Ð¸
Ð¸Ðº ÑĢ
Ġà®ķ à®¾à®Łà¯įà®Ł
ĠØ¨ÛĮÙħ Ø§Ø±ÛĮ
ĠÑĢ ÐµÑģ
à´¨àµįà´± àµį
Ñĳ Ñŀ
Ġà´ħà´µ à´¸
ĠÐ¸Ð¼Ð° Ð°ÑĤ
áĥ¡ áĥŀ
Ð¸ÑĤÐµÐ» Ñı
ction s
ĠÙĩ Ø²
Ø§Ùħ ÛĮÙĨ
ÏĦ Î¶
Ġ×ľ×Ķ ×Ĵ
ĠÐ²Ð°Ð· Ð¸ÑĢ
ĠÎĳ ÎĿ
Ø§ÙĦ Ø«
áĢķáĢ« áĢ¡
ĠÙħ ÛĮØ¯
áĤ Ĵ
àª¾àª° à«Ģàªĵ
Î» Î¹Î¿
est r
S P
Ġë ĸ
Ġà´ªàµĭ à´¯
ĠÚ©Ø±Ø¯ ÛĮØ§
áĥĶáĥ ¬
Ġb ox
ĠMy anmar
ri ve
ĠÚ©ÛĮ ÙĪÚº
ĠÙĩÙħ Ø§ÙĨ
ĠÙĨÙħ Ø§Ø²
ÑĤ ÑĤ
im ate
ĠØ· ÙĪÙĦ
r ay
áĥ£áĥľ áĥĵ
ĠíĶ Į
à«ģàª ¡
Ð¡ Ð¡
Ġą ĆĈ
Ġà¦ħ à¦¤
il y
Ġáĥĵ áĥĲáĥłáĥ
ĠÑĢ ÐµÑĨ
Ġ! âĢĿ
éĢ Ķ
åħ³ æ³¨
ic ial
ĠÙĪ Øµ
ik a
Ġà´¸à´Ĥà´Ń à´µ
ĠÙĨ ÛĮØ±
ĠÙģ Ø§ÛĮÙĦ
ĠØ¯ ÙĤÛĮ
èĭ ¦
Ġà´ķ à´¥
ĠÐ³Ð°Ð´ Ð¾Ñŀ
Ġcont rol
à¹Ģà¸§ à¸¥à¸²
àªŃ àª¾
Ġìĸ ¸
çĶ ²
ĳáĢ² áĢĻáĢ½áĢ¬
ĠÐº Ñĸ
ĠÎ³ ÏģÎ±
Ġà°ľ à°Ĺ
ĠØ§Ø®ØªÛĮ Ø§Ø±
ĠÐłÐ¾Ñģ ÑģÐ¸Ð¸
à¥ĩà¤¶ à¤¨
Ð¾Ð²Ð¾ ÑĹ
Ġàª¨ àªµàª¾
á¿ ¦
Ġà´® à´£
à®µ à®¿à®²à¯į
Ð°Ñİ ÑĤÑĮÑģÑı
omm end
ĠàªŃàªĹ àªµàª¾àª¨
ĠØ§ÙħØ±ÛĮ Ú©Ûģ
áĢ®áĢ¸áĢ Ĳ
à®±à¯įà®± à¯ģ
c he
Ġæ° ¸
Ġà¤® à¤¾à¤®
à´¤à´¿à´° àµĨ
ĠâĢ »
áĢ¬áĢ¸áĢĻáĢº áĢ¬áĢ¸
àª°à«įàª ·
Ø· Ø§ÙĨ
ĠØªØ¹ ÙĦÛĮÙħ
ĠÑĨÐµÐ½ÑĤ ÑĢ
ĠÐ· ÑĢ
çŃ ĳ
à±ģà° ·
ĠOne india
ĠO p
Ø¨ ÙĪÙĦ
ĠÎ£ Ïį
×ĳ ×ĵ
Ġà´İà´¨àµįà´¨ à´¾à´²àµįâĢį
Ġà®īà®° à¯ģà®µ
áĢģáĢ²áĢ· áĢĽ
Ġl aw
é Ĳ
ãģĵãģ¨ ãĤĴ
Ġà«§à« ¯
ĠáĢķ áĢº
Ġì¤ĳ êµŃ
ĠÙĦ ÙĬØ³
ĠÐ°Ð¼ ÐµÑĢ
æĿ¡ ä»¶
à¬ ¾
Ġâ ĳ
Ġ×Ķ×ŀ× ¦
àª¡ àªª
ÛĮ ÛĴ
ĠÐ²Ð¸Ðº Ð¾Ð½
Ïī Î¼Î±
Ġà®ª à¯ģà®ķ
ĠØªØ¹ Ø§ÙĦÛĮ
áĥĺáĥĹ áĥĲáĥĵ
áĢ¬ áĢĦáĢ·áĢ¹
Ð°Ð´ ÐµÐ¼
Ġà´ª àµįà´ª
ÐµÑĨ Ðµ
Ġàªªà«įàª° àª¶
Ïĩ ÏģÎ¹
ĠÑĢ Ð¾Ò³
à¸ ¯
Î´ Î¯
ĠÑħ Ð²
ĠÐļÐ¾Ð¼ Ð¿
å®īåįĵ çīĪ
ĠÙģ ÙĪÙĤ
Ġ.. !
áĥĲáĥļ áĥĺáĥĸ
Ġè İ
Ġáĥ¡áĥĲáĥĽ áĥ£áĥ¨áĥĲáĥĿ
ĠÑį Ð½Ð³
èĩª æĭį
Ð½Ð¸ ÒĽ
Ð°Ð»ÑĮ Ð½ÑĭÐ¹
Ġà°ªà±įà°° à°¤à±įà°¯
ĠØ¶Ø± ÙĪØ±ÛĮ
ĠÐ¼ ÑĥÐ»
áĥļ áĥĶáĥ¡
Ind ex
ĠØªØµÙĪ ÛĮØ±
ÑĢÑĥ Ð±
Ġà®µà¯Ģ à®Łà¯įà®Ł
Ġg row
å¢ŀ éķ¿
à§įà¦Ł à¦¾à¦°
Ñĭ Ð»Ñĸ
Ġàªı àª¨à«Ģ
Ġ×ľ ×ľ×Ĳ
ĠåĽ ¾
à¤¿à¤¤ à¥įà¤°
Ùĥ Ø¯
ķáĢ« áĢĺáĢ°áĢ¸
ĠÐ¿Ð¾Ð² ÐµÑĢ
ĠÐ½Ð°Ð² Ñĩ
ĠÐ³ ÑĥÐ·
åı İ
áĢĻ áĢ²áĢ·
Ġ×ľ ×ļ
à°¤ à±įà°¸
Ø¶ Ø§ÙģØ©
Ġà¸ª à¸µ
Ġ×ª ×ľ
Ð°Ð¼ ÐµÑĤ
Ġáĥĵ áĥĶáĥĻ
ĠÐ¸Ð· Ð´
ne y
Ġàª®à«ģàªľ àª¬
ĠÙħØŃ ÙħÙĪØ¯
áĢĲ áĢļáĢ¹áĢľáĢŃáĢ¯áĤĶ
Ø¨ ÙĨ
áĢĶáĢ¹áĢ ħ
3 åĪĨå½©
Ġà´īà´ª à´¯àµĭà´Ĺ
ĠÐľ ÐµÑĤ
ĠL ink
ãĤ³ ãĥŁ
ÏĦÎµ Ïį
ĠáĢķ áĢ¶áĢ¯
ĠÐŁ Ð°Ñģ
Ġh ard
Ïģ Ïį
ĠåĲĮ æĹ¶
Ġà°¸ à°Ĥà°¦
Ġà®ªà®¾à®° à¯įà®ķà¯įà®ķ
Ġàª°àª® àª¤
åºĶ çĶ¨
à«ĩàª ¹
à§įà¦¤ à¦¾à¦°
à§ĭ à¦¹
Î¼ Î¯
Ġàªķ à«įàª¯àª¾àªĤ
Ġè Ħ
çĮ ľ
Ð¾Ð¸ Ð¹
p m
Ġà®µ à®Ł
ĠÙ¾Ø§ÛĮ Ø§ÙĨ
áĥł áĥĿáĥĳáĥĺáĥ¡
f e
Ġå® ĺ
ĠâĻ ¥
ĠáĢ±áĢĶ áĢĽáĢ¬
Ġst y
ç¡ Ģ
ä¸Ģ äºĽ
Ġà¦¬ à¦¿à¦¨
à¹ī à¸²à¸ģ
àµĩ à´µ
áĥĺáĥ¨áĥķ áĥĺáĥļáĥĺ
ĠáĥĲáĥĽ áĥĺáĥ¢áĥĿáĥĽ
ĠÙĪ ÙĦÙĬ
Ñĳ Ñģ
ĠÛ ¸
ĠÑĢ ÑĸÐ²
ë§Ľ ìĤ¬ì§Ģ
áĢ° áĢĬáĢ®
à°¿à°Ĥà° Ł
Ġè¯ ´
Ġãĥ Ł
Ġà®® à®¾à®£
áĢ± áģĢ
Ġáĥł áĥĲáĥ¢
b b
Ġà§§à§ ¯à§
Ð¼Ð¸Ð½Ð¸ ÑģÑĤÑĢ
ĠÐ¿ÑĢ ÐµÑģÑĤ
à±įà°² à°¾à°¡
Ð¼Ñĸ Ð½ÑĸÑģÑĤÑĢ
Ġáĥ¡áĥĲáĥ Ĺ
ĠÐ½ Ð¸Ðµ
Ġ ãģª
æĿ Ł
áĢ¡ áĢĳ
ĵ áŀ
áĥĶáĥĳ áĥĲáĥĸáĥĶ
ĠáĢĨ áĢĢáĢº
Ġàª¸àª¾àª ļ
áĥĺáĥł áĥĺáĥ¡
Ġ×Ķ×ª ×§
ĠÑģÑĤ Ð¾Ð»
ĠÐ¾ÐºÐ¾Ð» Ñĥ
ï»¿ ï»¿
à¸Ħà¸£ à¸ĩ
Ġà°ı à°°à±įà°ª
ĠÐ¿ÑĢ Ð²
ĠÐ¼Ðµ ÑĵÑĥ
à¦¨ à§Ģ
p a
àª® à«ĩ
Ġê± ¸
ĠáĥĻáĥĿáĥľ áĥĻ
Ġà¦¸ à§įà¦ķ
áĢĢáĢ¹ áĤıáĢ½áĢ¬
Ġà°µà°¿à° ¡
Ġà°ª à±Ĥà°°à±įà°¤
Ġà¤° à¤¾à¤¹
ĠÑį ÑĦ
ĠÐ´ Ð¸Ð²
í Ī¬
ë Ĩ
èį £
Ġå ¦
Ġàªı àª²
Ġà°Ĺà±ģà°° à°¿à°Ĥà°ļà°¿
Ġà®µà®° à¯ģà®®à¯į
ĠÐ² Ñĩ
áĢĶ áĢ²
Î¾ ÎµÎ¹ÏĤ
Ġà¤µ à¥Ī
à¸¢ à¸°
h ttp
ĠáĢĻ áĢŀáĢŃ
ĠÐ²ÑĬ Ð¿ÑĢ
Ġwe ight
à¯ĭ à®ļ
Ġáģ¿áĢĻ áĢŃáĢ³áĤķ
Ø§Ùĩ Ø±Ø©
Ðŀ Ðł
ec ial
Ġ" ;
Ġàªµàªĸàª¤ à«ĩ
ĠÐ²Ð¾ Ð½Ð¸
ìĹĲ ëıĦ
àµĭ à´£
Ø° ÙĬ
ĠáĥĶ áĥĴ
é² ģ
ãĥ¼ ãģ®
×Ĳ ×ķ
ĠØ®ÛĮ ÙĦÛĮ
ĠØ® Ø¯
ĠÑģÑĤ ÑĢÐ¾
íļ į
à°¿à°¨ à±į
ĠØ¨Ø§Ø´ ÙĨØ¯
ĠØ§ÙĦÙģ Ø±
ĠáĢľáĢ° áĢŀ
ĠáĢķ áĢ¯áĢ¶
ĠÒĽÐ¸Ð»Ð¸ Ð±
áĢĨ áĢĽáĢ¬
re et
Ġå¤§åıĳ äºĶ
Ġà°µ à±ĩà°
ç» ĥ
à´¯ à´¾à´£àµį
à¤ı à¤®
Ġáĥ¡áĥĲáĥ¡ áĥĲáĥĽáĥĲáĥłáĥĹáĥļ
Ġà¤Ĺ à¤¾à¤Ĥ
ĠÑĢ Ó¯
ãĥ¼ãĥ ĵ
áĢļ áĢ±áĢ¬áĢĢáĢº
×ķ×ł ×Ļ×ª
Î¸Î· ÎºÎ±Î½
Ġà´ª à´ł
ĠÐĳ ÑĥÐ´
ĠÐ¿Ð¾ ÑıÐ²
Ġserv ices
à¸łà¸± à¸ĵà¸ĳà¹Į
Ø¢ ÙħØ¯
ĠÐŁ Ð¾Ñĩ
v es
ä¸Ń å½©ç¥¨
ãģĹãģ¦ ãģĦãģ¾ãģĻ
à¸Ľà¸£à¸° à¸Ĭ
à®¿à®° à¯ģà®ªà¯įà®ª
Ġ×ķ ×§
àµģà´Ĥ à´¬
à´ķàµįà´ķ àµģà´±
ĠØ¨Ø§ÙĦ Øª
à±Ĩà°ķ à±įà°Ł
à§ĭ à¦ľà¦¨
Ð°Ñĺ ÑĤÐµ
ĠåĽł ä¸º
Ġà¦ª à¦¾à¦²
ĠÑģÐ² Ð¾Ð¸
ĠÑģ Ð¾ÑĤ
Î´ Ïİ
ĠãĢģ ãĢĮ
Ġáĥ¬áĥĲáĥłáĥĽ áĥĿáĥĽ
ĠÐ¢ Ðµ
Ñı ÑĨÑĮ
er ing
ĠÐ¸Ð· Ð¼
ÒĽ Ð¸Ð½
l ing
Ġbe aut
å Ĺ
ãĤ¤ ãĤ¯
ŀ áĢĻ
Ġà¸Ķ à¸µ
ĠØªØ¹ ÙħÛĮØ±
áĥĶáĥĳ áĥĲáĥĹ
à¦¾à¦ĩ à¦Ł
à¸§à¹Īà¸²à¸ Īà¸°
æİĴåĪĹ 3
áĢĽáĢ½ áĢĦáĢ¹áĢ¸
Ñı Ðº
ÐµÑĢ Ð²
ĠáĥĲáĥ£áĥ ªáĥĺáĥļ
Ġà´ªàµįà´°à´µ à´°àµįâĢįà´¤àµįà´¤
áĢĳáĢ¬áĢ¸áĢ ĲáĢ²áĢ·
Ġàª¬ àªļ
ĠÑģÐµÐº Ð¾Ñĺ
ĠÎ£ Î¤
Ġor ig
à¸Ľ à¸±à¸į
à¤ľ à¤°
Ġå® ĥ
Ġà¦¬ à§Ī
Ġà¤® à¤¿à¤
ä¼ĺ æĥł
Ġà¤¬ à¤¢à¤¼
à¦ķà§įà¦· à§ĩ
Ġà®ªà®¿à®° à®¤
ÑĢ ÐµÐ½
Ġê²½ ê¸°
ĠÚĨ Ø§Ø±
ĠÑĦ Ð¸Ð·
áĢĻ áĢĽ
ĠÐ´ Ð²Ð¸Ð¶
ĠÐ¡ Ð°Ð½
ĠÏĢ ÏģÎ¬
ĠÎ¬ Î»
l ar
ĠáĥĽ áĥĲáĥ¢
Ġáĥ¯ áĥĴáĥ£áĥ¤
ĠÐ· Ð»
ÙĪØ± Ø´
ĠáĥĹáĥĳáĥĺáĥļáĥĺáĥ¡ áĥĺáĥ¡
Ġà¸ªà¸¹ à¸ķà¸£
ĠØªØŃÙĤÛĮ ÙĤ
ä½ľ åĵģ
à±ĥ à°¤
àª¿àª¯ àª¨
Ġà®¨à®¿à®± à¯ģà®µ
ĠØ§ÙĦØ±ÙĬ Ø§Ø¶
áĥłáĥ ¡
Ïĩ ÎµÎ¯
Ġà´Ń à´¾à´Ĺ
Ġà´ķà´¾à´° àµįà´¯
ĠÐ» Ð¾Ðº
ĠÐ´ Ð½Ñı
Ġàª¶ à«ĩàª°
ĠÙĬ ÙĪÙĨ
ĠI T
iz ation
ĠØ³ÙĨØ¯ Ú¾
à¸Ī à¸¸
àªŁ à«Ģ
Ñħ ÑĤ
S l
Ġà¦ªà§įà¦°à¦¤ à¦¿à¦¬
ĠÑİ Ð·
ĠÐĲ Ð»Ñı
Ġal ign
×Ļ×ł ×ķ×ª
ĠÙħ ÙĤØ¯Ùħ
ĠÑı ÐºÐ°
ĠE 1
àµģà´®àµįà´ªàµĭ à´³àµįâĢį
Ùĳ Ùı
Ð± Ð°Ð½
ÏĦÎµ Ïħ
Ġàªµàª¿àª ·
ĠA c
åŃĹ å¹ķ
ĠCh rist
æĭ ¾
åĢ Ĵ
Ġëı ħ
ÙĦÛĮ Ù°
er o
ĠØ§Ø± Ø³Ø§ÙĦ
ĠÏĢÏģÎ¿ Î²
áĢŀáĢ° áĢ±áĢĲáĢ¼
ĠáĢĲ áĢŃáĢ¯áĤĶ
Ġà°¸à°Ĥà° ¬
Ġà¦¶ à¦¹
æĿ¥ çļĦ
æİ¨ èįĲ
åĪĨéĴŁ pk10
are d
Ġà°¨à°¿à°° à±įà°µ
ĠØ§Øµ ÙĦ
ĠÐ³ Ð°ÑĢÐ´
Ñģ Ð¾Ð»
Ġà°¹ à±Ģà°°
Ġàªľ à«ĩàªŁàª²
Ġà¦¸à¦¾à¦§ à¦¾à¦°à¦£
à´¾à´Ł àµį
à°¸ à±įà°¸
Ð°Ñŀ ÑģÑı
ĠáĥĽáĥĵ áĥĴáĥĿáĥĽ
ĠÐºÐ¾Ð³ Ð´Ð°
Ġ Ïī
ĠØ§Ùħ Ø±
èª Ń
à© Ī
Ð°ÑĨÐ¸Ñı ÑĤÐ°
w ood
Ġà¦Ľà¦¿à¦² à§ĩà¦¨
ĠÑĤ ÑĸÐ»ÑĮÐºÐ¸
Ġaut o
æľ «
Ñģ ÑĥÐ»
Ġh ide
ĠP ower
áĥĶáĥĳ áĥłáĥĺáĥķáĥĺ
à°² à°Ĥ
Ġàªľ àª¨
ĠàªĽ à«ĭàªķ
Ġàª¶ àª¿àªķà«įàª·
ĠÙģ Øª
à´ªàµįà´ª à´Ĥ
à§ ª
ÎŁÎ ĵ
ÎŁÎ ¡
00 3
ĠáĢ±áĢĲáĢ¬ áĢ¹áĢ
ĠØ¨Úĳ ÛĴ
ĠÐ¿ÑĢÐ¾Ð² Ð¾Ð´
ë¨ ¸
á½ ¸
Ø· Ø§Ø±
ª ½
Ġáĥŀ áĥĶáĥłáĥĺáĥĿ
Ġàªķ àª¦
åľ ³
áĢĨ áĢĦáĢº
ÙĤ ÙĪÙĦ
ĠÐ¢Ð¾ÑĪ ÐºÐµÐ½ÑĤ
áĢĦáĢºáĢ¸áĢ ħ
Ġà®µ à®¿à®²
æĹ §
áĥĶáĥľáĥ¢ áĥĺ
c ent
Ġu a
ìĿ į
à¨ ²
Ð¸ÑĤ ÐµÑĢ
==== ====
Ġãĥ ģ
Ġáģ¿áĢķ áĢ®áĢ¸áĢ
ê· ľ
à¸±à¸Ļà¸ ķ
ĠÐ²Ð¸Ñģ Ð¾Ðº
Ġw atch
Ġg ive
áĢĲáĢ½ áĢĦáĢºáĢ¸
Î¼ÎŃÎ½ ÏīÎ½
Ġà°¨ à°¿à°²
Ġàªķ à«ĥ
ĠÙĪØ§Ø¶ ØŃ
ĠÐ² Ð¸Ð³
à«ĩàª ·
ĺ áĢ²
Ġà¤ļà¤¾à¤¹ à¤¿à¤ı
r ight
ition al
Ġà¥§ à¥
ĠÐ± Ð°Ñĩ
ĠD ownload
à§ĩà¦Ľà¦¿à¦² à§ĩà¦¨
à±ĭ à°²
Ġà¦² à§ĩà¦ĸ
ĠéĿ ¢
Ġàª®à«ĩàª³ àªµ
Ġp ant
Ġm m
à´¾à´ ¬
ĠÐ½Ð°Ð¼ Ð°Ð»
ĠÐ¾Ð±Ð»Ð°ÑģÑĤ Ð¸
à´¿à´ §
z a
Ð¼ Ð¸Ð¹
Ġáĥ° áĥ¥áĥĿáĥľ
ĠÒĽÐ°ÑĢ Ð¾ÑĢ
ĠÐ²Ð¸ÑĢ Ð¾Ð±
×ª ×ķ
ĠÙħÙĨØµ ÙĪØ¨
ĠÐ¿ Ð°Ð¹
çľŁäºº æ¸¸æĪı
æľ ĭåıĭ
æĬ Ĺ
Ġà¦¯ à§ĭà¦Ĺ
ĠÐ°Ð¹ ÑĤ
Ġà¤¦ à¤°
èģ ļ
Øª ÙĪÙĨ
ĠÐ¼ Ð¾Ð»Ð¸
Ġ$(" .
íı¬ íķŃ
Ø§Ùħ Ûģ
Ġà¦¬à¦¿à¦ı à¦¨
×ķ×ľ ×ķ×ª
ë ģ
ãĥĸ ãĥ©
Ġà®µ à®¿à®¤
Ġà¦ªà§įà¦°à¦¤ à¦¿à¦·à§įà¦ł
ĠH igh
åħįè´¹ è§Ĥçľĭ
_ g
id ed
" "
ģáĢ¶ áĢĽ
Ġde v
à¸Ĭ à¸²à¸¢
Ð¼ Ð¾Ð½Ð¸
ĠØ§Ø¨ ÙĪ
ë¡ Ģ
åĪ ļ
Ð¾Ð½ Ñĩ
à© Ĥ
Ð¼ Ð°ÑĢ
Ð°Ð´ Ð°Ð½
Ġà°®à°¾à°Ł à±įà°²à°¾à°¡
Ġàªħ àªĹ
ĠÐ²Ð¾Ð¿ ÑĢÐ¾Ñģ
à¤¿à¤¯ à¥ĩ
åħ¨ çĲĥ
Ñį Ñŀ
Ġà¦¯ à¦¾à¦ļ
å½© è¶³çĲĥæ¯ĶåĪĨ
àª¾àª ·
Ø¹ ÙĦØ§Ùħ
Ð¾Ð² Ð¾Ð¹
Ġàª®à«ĭàª¦ à«Ģ
ĠÙħÙĨØ· ÙĤÙĩ
Ġitem Id
è¿Ľ åħ¥
ÑĦÐµÑĢ ÐµÐ½
z y
Ġï ¾
Ġ äºİ
à¯Ĭ à®³à¯įà®³
Ð¾ÑģÑĤ Ð°
Ġàªªà«įàª² àª¾àª¨
ê² ¬
ãģ© ãģĨ
Ġà¦Ĩà¦° à¦ĵ
ĠÑĢÐ°Ð· Ð±
Ùİ ÙĤ
Ð¸Ð½ Ñĸ
ĠáĢĻáĢ¼áĢĶáĢº áĢĻ
Ġàª« àª°à«Ģ
Ð¡Ð ı
Ġf ood
Ñĺ Ð°Ð²
ĠÙĪ Ø®
äºĮ æīĭ
à¸µà¸¢ à¸£à¹Į
ĠÎ» ÎµÎ¹ÏĦÎ¿ÏħÏģÎ³
æķ £
Ġà¤¸ à¥įà¤ķ
ĠÐºÐ¾Ð½ ÐºÑĥÑĢÑģ
Ġ* *
àª¾àª¯ àª°
Ġà¦¤ à¦ĸà¦¨
à¸ģ à¸²à¸¢
à°¡ à°Ĥà°¤à±ĭ
à«įàªŀ àª¾àª¨
à¤¾à¤¦ à¤¾
k n
ĠÐº ÑĥÑħ
è¿ĩ ç¨ĭ
áĢĶ áĢĢáĢº
áĢ½ áĢĻáĢº
Ġä»Ĭ æĹ¥
Ġ×¢ ×ķ×ĳ
ĠÎľ Î±Ïģ
ÑĢÑĥ ÑĪ
ĠÐ¼Ð°ÑĢ ÐºÐ°Ð·
à¸į à¸´à¸ĩ
àµĪ à´µ
ĠÙĨ ÙĪØ¬
Ġç ¶
áĢĲáĢ¬ áĢĢ
Ġç ĳ
Ġâķ §
Ġà¤¦ à¤¿à¤µ
ĠÑĸÐ½ ÑĤ
è¦ ĸ
ap s
I AN
ĠàªĨàªª àªµàª¾àª®àª¾àªĤ
áĢĽáĢŃ áĢ½
Ġà´¸à´Ĥ à´¸àµįà´¥à´¾à´¨
ĠÐ¿ÑĢÐ¸Ð¼ ÐµÑĢ
Ġsom ething
à®µ à®¿
Ġàªı àªµàª¾
Ġàªª àª¾àª¡
Ġà¤ķ à¥įà¤¯à¥ĭà¤Ĥ
ĠÎ³ ÎµÎ½
æ¤ ľ
ĠÐŁÑĢ Ð¾Ð´
å¼ µ
ĠáĢ±áĢ ĺ
Ð²Ð°Ð½ ÐµÑĤÐ¾
Ġì§Ģ ìĹŃ
Ġà¸£à¸²à¸Ħ à¸²
Ġà¤²à¥ĩ à¤ķà¤°
ĠØµÙĨ Ø¹
Ġ×Ķ ×Ļ×ķ
Î¸ Î¿
Ġà´®à´¨ à´¸àµįà´¸
ĠØ§Ù¹ Ú¾
áģ¾áĢĢ áĢķáĢ«áĢĲáĢļáĢ¹
3 D
ĠM ag
áĥĲáĥķ áĥĺáĥ¡
à¸²à¸Ļà¸ Ĺà¸µà¹Ī
Ġí ļ
Ġà°īà°¨à±įà°¨ à°¾à°¯à°¿
ĠÑĤ Ð°ÑĢÐ¸
ĠÎ´Î· Î¼Î¹Î¿ÏħÏģÎ³
Ġe qu
ä¸ Ŀ
à°ªà±įà°ªà°Ł à°¿à°ķ
Ġà¸£ à¸§à¸¡
Ġà¤¡ à¥ī
ĠÚ¯ ÛĮØ±
Ġp rom
à°¸ à±įà°¥
àª¾àªĩ àªŁ
Ð· ÑĭÐ²
Ð°ÑĢ Ð¾ÑĤ
A K
ĠìĤ¬ ì§Ħ
ĠØ¹ Ø¸
ĠÐŁ Ð°Ð´
ĠÐ¿Ð¾Ð· Ð¸
Ġ% .
ãĢ ĸ
à¹ĥ à¸Ħà¸£
à°ķ à°¾à°¶
j ax
Ġàª¶ àª°à«Ģ
ĠÐ¾ÑĤ Ð½Ð¾ÑĪ
áĥĿáĥ ®
Ġæ¸ ħ
Ġ×©×ľ ×Ļ
ĠÑĢ Ñŀ
ĠØ®ÛĮ Ø§ÙĦ
Ġà®Ĩà®ķ à®¿à®¯
ãģ§ãģĻ ãģŃ
à®© à®¾à®²à¯į
iet y
al y
Ġ×Ľ×Ĳ ×©×¨
ĠÎ¼ Î¿
ĠØ§Ùı Ø³
ĠW 6
Ġáĥ¡áĥ¬áĥĿáĥł áĥĶáĥĵ
ĠÙĪ Ø§Ø³
Ġ×¤ ×Ļ
ĠSt ory
éĽ ·
à´® àµģà´³àµįà´³
Ġà°®à°° à±ĭ
ĠÐ´ Ð¶
ĠÎ¼ÎŃ ÏĩÏģÎ¹
Ġd et
Ġáĥĺ áĥķ
Ġàª¬à«Ģàªľ à«Ģ
ĠØŃÙħ Ø§ÛĮØª
ĠØ® ÙĪÙĨ
ë Ŀ½
åī ²
Ð¸ÑĢ Ð°ÑĤ
ĠÑĪ Ð°ÑĢ
ãĤ ²
à´ķ à´Ĥ
×§ ×Ļ×Ŀ
ug g
33 3
Ġê´Ģ ëł¨
Ġt erm
Ł ģ
Ġà´µà´¿à´ ³
ĠÐ¿Ð¾Ð± ÐµÐ´
à¦¬ à¦¾à¦¸
ĠëĦ ¤
ĠáĥĲáĥĵáĥĲáĥĽ áĥĺáĥĲáĥľáĥĺ
Ùĩ Ø§Ø±
ĠàªĨ àª¨
a it
ĠØ£ Ø¨ÙĪ
ĠÐ¿Ð¾Ð´ Ð°ÑĢ
ĠÐ·Ð½ Ð°Ðº
áĢŃáĢ¯ áĢ¯
à¯Ĩà®²à¯įà®² à®¾à®®à¯į
ill s
Ġm ag
å° ½
à¸¡à¸²à¸ ĵ
å½© äºīéľ¸
ÙĨØ¯ ÙĤ
ĠÐłÐµÐ¿ ÑĥÐ±Ð»Ð¸ÐºÐ°
Î¿Ïį Î¼Îµ
M P
Ġà´İ à´¨
áĥĲáĥ ¯
Ġà´¤ à´¿
Ġàª¦àª¿àª² à«įàª¹
àª ĵ
à¦¨ à§įà¦¯
z h
ĠÐº ÑĢÐ°Ñĺ
åı ¬
à¸±à¸ĩ à¸«à¸§
Ġà¦ªà§Ĥ à¦°à§įà¦¬
å¼ ¹
åªĴ ä½ĵ
å¨±ä¹Ĳ åŁİ
ĠÎº Î¿Î¹Î½ÏīÎ½
Ġp arent
ĠB 8
os h
Ġà´¤ à´²
Ġàª° àª¾àª®
Ġà¦® à¦¤à§ĭ
ĠØ¯Ø± ÙħÛĮ
ÐĴ ÐĲ
Ġà®¨à¯Ģ à®Ļà¯įà®ķà®³à¯į
ĠØ§Ø® ØªÙĦ
çĭ ł
áĥł áĥĿáĥķ
Ùİ Ùī
ĠÑģ Ð½Ð¸Ð¼
à´¾à´ķàµįà´ķ à´¿
ĠØ§ÙĨ Ø¯Ø±
éĶ ®
ĥ à®ª
ĠÐ²Ð° ÒĽ
à¦ª à¦¾à¦¤
ÑĥÐ½Ð¸ Ð½
Ð¾Ð» Ñı
Ð°Ð½ ÑĤÐ¸
ĠçĽ® åīį
âĢĮ à°¨
Ġà®®à®© à®¿à®¤
Ġàª¸àª¾àª® àª¾àª¨à«įàª¯
ĠÑ Ļ
åŃ© åŃĲ
×ª ×Ŀ
ĠÐļÐ°Ðº Ð¾
ì ĵ°
ear ch
æĹ© çĤ¹
ãĥķ ãĤ£
à´¾à´® àµįà´ª
Ġà°¨ à°Ł
Ġ14 0
áĢ±áĢ¬áĢĦáĢº áĢĽáĢ½áĢĢáĢº
Ġàªĵ àªĽ
Ġà¤¨à¤¿ à¤°à¥įà¤®
áĢĤ áĢº
Ġå¼Ģ åħĥæ£ĭçīĮ
Ġáĥ¨áĥĶáĥ£áĥ «áĥļ
Ġáĥ§áĥķáĥĶáĥļáĥĲáĥ¤ áĥĶáĥłáĥĺ
Ġà¦² à¦¾à¦Ĺ
ĠÐ´ÑĸÑı Ð»ÑĮ
Ġç ¡
Ø§Ûģ Ø±
ĠÑģ ÑĥÑĤ
ĠÐºÐ¾ Ðµ
è´£ ä»»
ÎŁÎ ļ
Ġàªľà«ĭàª ĩ
Ġà¦ļ à¦¾à¦°
ĠÙĪ Ø¸
áĢĦ áĢ½
oc i
Ġà°ĩ à°Ĥà°ķ
Ġ×Ķ×ŀ× Ĳ
ĠÐº ÐµÐ¹Ð¸Ð½
Ġt imes
Ò ²
Î» ÏĮÎ³
ra w
ĠÐ¡Ð¿ Ð¾ÑĢÐµÐ´
Ġàª® àª§
ĠØ§ÙĦ Ø¢ÙĨ
é¾Ļ èĻİ
æĪĲ åĬŁ
ÐºÑĥ Ñģ
Ġà´ªàµįà´° à´§à´¾à´¨
Ġà®¤ à®¯
Ġc ity
ë¶ Ī
à¸Ĭ à¸·à¹Īà¸Ń
55 5
Ġà¤µ à¥Ģ
áĢĬáĢº áĢ¸áĢ
Ð¸ÑĢ Ð°Ð½Ð°
app _
Ġáĥ® áĥ¨áĥĺáĥł
ĠÚ¯ Ø±Ùħ
ĠÎºÏħ Î²
Ġc ert
ĠN ational
áĥĺáĥļ áĥĽáĥĲ
ĠáĥĽ áĥł
Ġà°® à°¾
Ġà®¤ à®Ł
ĠØ³Ø±ÛĮ Ø§ÙĦ
ĠÎ¼ Î¬
à¸Ĺà¸µà¹Ī à¸Ķà¸µ
æ³ ī
àµĤ à´¹
ĠÐ¾Ð² Ð¸Ðµ
ĠÐ½ÐµÐº Ð¾Ð»ÐºÑĥ
ãģŁ ãģ¡
Ġê²ĥ ìĿĢ
Ġà´µà´² à´¿à´¯
ĠàªķàªĤàªª àª¨à«Ģ
ĠØ´ ÙĪÙĨØ¯
Ġà°¦ à±ĩà°µ
Ġàª®à«ĭàªŁ à«Ģ
ĠÑĤÑŀÒĵÑĢÐ¸Ñģ Ð¸Ð´Ð°
ĠÐŃ ÑĤÐ¾
Ġapp lic
åķı é¡Į
áĥĺ áĥĲáĥĹ
à¹ģ à¸Ī
Ð¸ÑĤÐµÐ»Ð¸ ÑĤÐµ
Ġáĥ¡ áĥĶáĥ¥áĥ¢
Ġà°° à±Ĥà°ª
í į¼
Ġà®ķà¯ĩ à®Łà¯įà®Ł
ĠØ¨ÙĪ Ø§Ø³
ent ial
ĠÐ¸Ð½ ÑģÐ¾Ð½
ĠÏĩ ÏİÏģÎ±
áĢķ áĢ±áĢĻ
b n
and s
ãĥ³ãĤ ¸
Ġà´ª à´Ļàµįà´ķ
Ġà°Ł à±įà°°
æ¡ ¥
áĢ¡ áĢķáĢº
Î¼ Î±Î¹
Ġà®ªà¯ĭ à®¤à¯ģ
Ġàª¸àª®àª¯ à«ĩ
æ¶Ī è´¹
å¨±ä¹Ĳ åľº
on se
ĠãĤ Ħ
à«Ĥ àª°à«įàª£
Ġáĥľ áĥĲáĥª
ĠáĥĶáĥłáĥĿáĥķáĥľ áĥ£áĥļáĥĺ
Ġáĥ¡áĥĺáĥ¡áĥ¢ áĥĶáĥĽ
Ġàª¨ à«Ģàªķ
ĠÏĢ Î¯
Ġ×ľ×¢ ×©×ķ×ª
áĥĲáĥŀ áĥĺáĥł
àª² à«įàª²
Ġà´ªàµĭ à´ķ
Ø³ Ø§Ø³
Ñĳ Ð¼
ĠÐ¿ÑĢÐ¾Ð±Ð» ÐµÐ¼Ð¸
Û ·
ĠÚ© ÙĪØ±
ĠÎĳ Î³
un ch
Ġà¤¦à¤¿à¤² à¥įà¤²à¥Ģ
ĠÛĮÛģ ÛĮ
ĠÐłÂµ Ðł
àª¨à«įàª ¦
Ø§Ø´ Ø±
ĠÐ¦ Ðµ
Ġim ages
Ð½ ÑĥÐ²Ð°
Ġè »
ĠÙĨÙĤ Ø´
ĠÙħÛĮ Ø±ÛĮ
ĠØ§Ø·ÙĦ Ø§Ø¹
áĥĿ áĥĶáĥĳáĥĺáĥ¡
Ġà®ħà®²à¯įà®² à®¤à¯ģ
à ³
Ġà°¦à±įà°µ à°¾à°°à°¾
Ġà¤¨ à¤¿à¤¯
Ŀ áĢ«
ĠÑģ ÑĥÑĩÐ°Ñģ
áĢħ áĢŃáĢĲáĢ¹áĢ
ĠÙģ ÙĤØ¯
áĢĶ áĢħáĢº
Î´ ÎŃ
ĠÙĬ Ø¬Ø¨
ĠØ§ÙĦØ® Ø·
áĢŁáĢ¯ áĢĲáĢ¹
ĠáĢħ áĢ®
Ġàª¦ à«Ģàªķ
ĠÐ³Ð¾ÑĢ Ð¾Ð´
áĥ£áĥľ áĥ¥
áĢģáĢ²áĢ· áĢŀáĢĬáĢº
à¹Ĥ à¸Ń
¾ ¶
Ġà¤µà¤¿à¤ §
ĠÑĤ Ñı
Ùĩ Ø§ÙĬ
ĠáĥłáĥĿáĥĽ áĥļáĥĺáĥ¡
ĠáĢŀáĢŃáĢĽ áĢŀáĢĬáĢ¹
ĠØŃ ØªÛĮ
ĠØ³Ø¹ÙĪØ¯ ÛĮ
éĩĳ èŀį
à¸±à¸ĩ à¸Ħ
Ġà¦¦ à¦¿à¦²
Ġà¤ľ à¤¾à¤¨à¥ĩ
ĠÐ´ÐµÐ¿ ÑĥÑĤ
áĥĺáĥľ áĥĵ
à¸²à¸ Ĥ
ĠÑĤÐµÐ¼ Ð¿ÐµÑĢ
ĠÏĥÏħ Î³
íķ´ ìķ¼
à´° àµģà´ŁàµĨ
Ġ ä¹Ĳ
Ð°ÑĨÑĭÑı Ð½
Ġì ·¨
å°¼ æĸ¯
áĥĿáĥł áĥĺáĥĲ
áĢĶáĢ¹áĢ¸ áĢĢ
Ġà¦¬à¦¿à¦ ¸
áĢ±áĢĲáĢ¼ áĤķ
Ġ5 åĪĨå¿«3
æ³¨ æĦı
à´¿à´¯ à´¾à´£àµį
à°¦ à±įà°§
Ùħ ÙĪ
ÑĬ Ñī
ĠØ±Ø³ ÛĮØ¯
ĠÑĤÐ°ÑĬ Ð»Ð¸Ð¼
ĠÐ° Ð»ÑĮ
æĢ» ä»£
åĩº ä¼ļ
áĢĢ áĢ±áĢ¬áĢĦáĢºáĢ¸áĢ
Ð¶ Ð°Ñŀ
Ġëĭ¤ ìĸĳ
ĠÐ´Ð¾Ð¼ Ð°ÑĪ
ì »
ÑĢ ÐµÑĤ
±áĢľ áĢ¬áĢĢáĢ¹áĢ
Ġà¤µà¤¿à¤¶ à¥įà¤µ
ĠJ oh
æĶ¿ æ²»
å® ¿
is ion
_c om
ĠØ¯ Ø´
ĠÐĲ Ð½Ð³
à¹īà¸²à¸ Ĺà¸µà¹Ī
à´® àµĩ
à¤¾à¤ı à¤Ĥ
Ð¾Ð· Ð¸ÑĢ
Ġàª¶ àª°
Ġà´°à´¾à´ľ àµįà´¯
Ġà¦¦ à¦¿à¦ķà§ĩ
ĠÙħÛĮâĢĮ Ú©ÙĨØ¯
ĠÙħÙĨ Ùĩ
ÐºÐ¸ Ð´
Ġåİ »
ĠáĢķ áĢ²
Ġàª¤à«ĩàª £à«ĩ
Ġ12 5
à°ķ à°¾à°²
à¦¿à¦¤ à§įà¦¬
Ð½Ñĸ Ð²ÐµÑĢÑģ
ÏģÎ· ÏĤ
ĠáĥĽáĥĺáĥĽ áĥĵáĥĺáĥľ
ĠApp le
áĥķáĥĲáĥļ áĥĺáĥ¡
àªª à«ģàª°
ĠÐ±ÐµÐ» Ð³
ì§Ģ ëĬĶ
×ķ×¨ ×ĺ
ĠÏĨ Ïī
Ġáĥ¡ áĥĿáĥªáĥĺ
Ġáģģáģ ħ
Ġà®¨ à®¾à®®à¯į
Ġà¦¹ à¦²à§ĩ
Ġcon d
ãģª ãģĭãģ£ãģŁ
ĠÐ¿ÑĸÑģ Ð»Ñı
à¦² à§ĩà¦¨
Ø§Ùģ ÙĬØ©
ĠÙĨ Ø®
ĠÐ½Ð°ÑĦ Ð°ÑĢ
Ġd aily
à«Ģàª «
Ġàª® à«ĭàªķ
ĠÎ¿Î¹ÎºÎ¿ Î½Î¿Î¼
àµĬ à´¨àµįà´¨
Ð°Ð² Ð°Ð½Ð½Ñı
Ġë³ µ
Ġæĸ ¹
Ġà®¯ à®¾à®°
à«ĭ àª°à«Ģ
Ø§Ø¦ Ø´
Ġå Īĺ
Ġà¤ªà¥įà¤°à¤¦ à¥ĩà¤¶
ĠÐ²ÑĬÐ· Ð¼Ð¾Ð¶
Ġloc al
áĥĲáĥļáĥ£áĥł áĥĲáĥĵ
Ð² Ð¾Ð½
ÏĢ Î±Î¹
con om
ĠÏĥ Î®Î¼ÎµÏģÎ±
Ġvis it
ä¸ļ åĬ¡
áĥĽ áĥĺáĥĹ
±áĢĳáĢ¬áĢĦáĢ¹áĢ ħáĢ¯
ĠSu per
æİ ª
åľ¨çº¿ æĴŃæĶ¾
à¸ª à¸Ńà¸ĩ
à¯ĩà®¯ à¯ĩ
a ur
Ġà´Ĩ à´¦
ĠÙ¾ Úĺ
å¥³ æĢ§
ä½ľ ä¸º
à±ģà°¤ à±ĭ
ÑĪ ÑĩÑĭ
Ġà°ļà±Ĩ à°Ĥà°¦
ĀĀĀĀĀĀĀĀĀĀĀĀĀĀĀĀĀĀĀĀĀĀĀĀĀĀĀĀĀĀĀĀ ĀĀĀĀĀĀĀĀĀĀĀĀĀĀĀĀĀĀĀĀĀĀĀĀĀĀĀĀĀĀĀĀ
áĢ¸áĢ ĩ
áĥª áĥĺáĥĺáĥ¡
à°Łà±įà°Ł à±ģ
Ġà¦¦ à¦¿à¦¤à§ĩ
ĠØ³ ÙĦ
áĢĢáĢ¼ áĢĬáĢº
áĢ±áĢ¸áĢ ľ
à¸²à¸ ĺ
à¦² à§ĩà¦°
ĠìĦ¸ ê³Ħ
Ġåĩ¯åıĳ ä½ĵèĤ²
ĠÑģ Ð¾Ð¼
ĠÐ· Ð½Ð°Ð¹
ëĦ Ī
ĠáĢ¡ áĢĲáĢ¼áĢĢáĢ¹
Ġà´¸ àµįà´¤
ĠÑĤÑĢ Ð°Ð½Ñģ
ĠÐ² Ð»Ð°Ñģ
áĢ¶áĢ¯ áĢ¸áĢŀ
à¸´ à¸Ľ
" >
ĠÐ¾Ð½ Ò³Ð¾
ĠÏĢ Î»Î±
ä¹Ł æĺ¯
ĠáĢģáĢ¯ áĢĶáĢ¾áĢħáĢº
ĠÙ¾ ÙĨ
ĠÑĤÑĢ Ð°Ð´Ð¸
ĠÐ¿ÑĢÐµÐ´ Ð»
ä¼ Ł
ãĤ ©
Item Detail
ĠÙĥ ÙĦÙħ
ĠÐĿ Ð°Ñģ
Ġsite No
Ġsal estr
Ġsalestr No
à¤§ à¥Ģ
Ø¹ ÙĬ
ax y
Ġà¹Ģà¸ Ī
Ð²Ð° Ð½Ð¸Ñı
Ġà®¤ à¯Ģà®°
ĠØ¹ÙĦ ÙħÛĮ
ĠØ´ Ø§Ø±
ĠØ§ÙĦØ« ÙĦØ§Ø«
ĠÐºÐ°Ðº Ð²Ð¾
ê¸ ¸
Ġà¦ħà¦Ńà¦¿à¦ ¯à§ĭà¦Ĺ
Ġ×ĳ×ª ×Ĺ
æ¢ °
ÒĽ Ð¸
Ð»Ð°Ñģ Ñı
ľ áĢŃáĢ¯áĢĢáĢ¹áĢ
Ġà¤īà¤¤à¥įà¤¤ à¤°
ĠÙĦÛĮÙĨ Ú©
Ġ×ł ×Ĺ
ĠÑĤÑĢÑį Ð±Ð°
áĥĺáĥ¡ áĥĽ
à¦¤ à§įà¦¬
Ġàª¸àªĤàª Ń
ĠÐĲÐ½ Ð´
ĠÐ² ÑĸÐ¹
áĢ¸áĢ±áĢ ķ
à¸ķ à¸£à¸ĩ
Ġàªķ àª¿
ĠÑįÑĤ Ð¾Ð³Ð¾
à¦¸ à§įà¦Ł
Ġ×Ĳ×Ĺ ×ª
ĠÑĢÐ¾Ð· Ð²Ð¸ÑĤ
èĪ ¹
12 æľĪ
æľĢ é«ĺ
à¯Ģ à®¤
Ġáĥŀ áĥĲáĥłáĥļáĥĲáĥĽáĥĶáĥľáĥ¢
Ðľ ÐĲ
av a
Ġå® ļ
Ġà°ļ à±ĩà°°
à¯įà®® à¯Ī
f ort
ĠU N
à¤® à¤§à¥įà¤¯à¥ĩ
Ġà°ĩ à°ķ
Ġà®ī à®Ļà¯įà®ķà®³à¯į
Ø® Ø´
ĠáĢļ áĢ¬
ĠØ³ Ø®Øª
ĠÐ¼ÐµÑģÑĤ Ð°
ĠÐ± ÑĥÑĢ
à¯įà®ķà®³ à¯Ī
Ġà®ļ à®ķ
Ġà¦ķà¦° à§ĭà¦¨
Ġsh ort
Ġ" ØĮ
art ment
TM L
à¸ģà¸¥ à¹ī
Ġà®¨ à®®à¯įà®ª
Ġà¦ħ à¦Ĥà¦¶
áĢģáĢ¼ áĢĦáĢºáĢ¸áĢ
àµįà´¯ à´¾à´ª
Ġãĥ Ŀ
Ġ8 88
à§Ģ à¦¤à§ĩ
ÚĨ Ø³Ø¨
r ation
Ġàª¹àª¤ àª¾àªĤ
áĥĽ áĥĲáĥł
Ð¾Ð² Ð°Ð½Ð¸Ñı
éĻ Ħ
àª¾àªĤ àª¡
Ð°ÑĨÑĸ Ñİ
Ġëħ ¼
s elf
ĠØ· Ø±ÙĬÙĤ
ĠÐ¿Ð¾Ð² ÑĤÐ¾ÑĢ
ãĥ³ãĥ Ģ
áĢĻáĢ¹áĢ ĺ
ĠÙĥ ÙĨ
å° Ĭé¾Ļ
ãģªãģĮ ãĤī
à«ĭàª ļ
Ø§Ùĩ Ø§
×Ĵ ×¢
à¸ģ à¹Īà¸Ń
se arch
ĠÑı Ñģ
ç¿ »
Ġæ¾³éĹ¨ çĻ¾å®¶
ĠØ¨Ú¾ Ø§Ø±ØªÛĮ
à¤Ń à¤¾à¤µ
ĠçŁ ³
ĠÐľ Ð¸
×Ļ×Ľ ×ķ×ª
ĠáĢľáĢ¯áĢķáĢ¹áĢ ĦáĢĶáĢ¹áĢ¸
Î½Î¿ Î¹
en e
Ġà¦¬à§įà¦¯à¦¬ à¦¹à¦¾à¦°
Ġinc re
Ġäºļæ¸¸éĽĨåĽ¢ å®ĺç½ĳ
ĠÙ¾Ø³ ÙĨØ¯
é ĳ
à®¿à® Ļà¯įà®ķ
Ġà¤¸ à¥ĩà¤µ
Ġå¾ ®
ĠÐĲ ÑĤ
ĠÐºÐ¾ÑĤÐ¾ÑĢ ÑĭÐ¹
áĥĶ áĥĶáĥĳáĥĺ
áĢ½áĢ± áĢĢáĢŃáĢ¯
àªķ àª²
Ð± ÑĥÑĢÐ³
Ġà¸Ķ à¹īà¸§à¸¢
ĠÐ¿ÑĸÐ´ Ð¿ÑĢÐ¸ÑĶÐ¼
åı «
ãģĺ ãĤĥ
áĥĺáĥľ áĥĵáĥĲ
×ľ ×Ŀ
ë³ ĳ
ãģĵãģ¨ ãģ¯
à°¾à° ĸ
ĠÏĢ ÎŃ
Ġ} }
Ġsm art
ĠP ort
Ġà®¨ à®¿à®ķà®´
Ġàªªàª¹à«ĩàª² àª¾àªĤ
ĠØªÙĨØ¸ ÛĮÙħ
ĠÒĽ Ð°ÑĤ
ä» į
m ail
Ġãĥ ī
Ġàªķà«ĩ àª¨à«įàª¦à«įàª°
Ġà¦ķ à§ĩà¦
Ġà¦ªà¦¾à¦° à§ĩà¦¨
ĠÙħØ³Ø¦ ÙĪÙĦ
ĠÐºÑĥÐ¿ Ð¸ÑĤÑĮ
ÐµÐ² Ð¸
åĩ ¯
à¸Ĭà¸µ à¸§à¸´à¸ķ
Ð»ÐµÐ¼ ÐµÐ½ÑĤ
Ġéļ ı
Ġà°ļ à°¿à°¨à±įà°¨
åį ±
à°ķ à°Ĥ
à° İ
àª¤ àª®àª¾àªĤ
Ġd 88
è· ĳ
ä¸Ģ çº§
à¤¿à¤Ĥ à¤¦
Ġà°ªà±ĭà°² à±Ģà°¸
ĠØ¹Ùħ ÙĦÛĮ
áĢķ áĢ¯
ĠÐ³ Ð°Ð¿
çģ µ
äºĨ è§£
à´°àµįâĢį à´¶
Ġà¦¸ à§ĩà¦Ł
Ġà¤¨ à¤¿à¤µ
ãĤ· ãĥ£
ĠØ· ÛĮ
ĠÐ¿Ð°Ð² ÑĸÐ½
çĽ´ æİ¥
à¹Ī à¸³
ÑĥÐº ÑĥÐ¼
è¿Ļ äºĽ
à®©à¯įà®© à¯Ī
ĠÐ°Ð¼ÐµÑĢ Ð¸ÐºÐ°Ð½
àµ½ à´ķ
Ġà®® à¯ģà®ķà¯įà®ķ
áĥĲáĥª áĥĺáĥĿ
áĢ¡ áĢģáĢºáĢŃ
red it
D R
æĺ Į
×Ļ×ĺ ×Ķ
Â «
Ġà¦¶ à¦¤
ĠÙĪ Ø°ÙĦÙĥ
Ġ×Ĳ×ł ×Ĺ×ł×ķ
ĠÑģ Ð¸Ð³ÑĥÑĢ
ĠÐ·Ð°Ñī Ð¾ÑĤÐ¾
à¬ ¿
Ð¸ÑĢ Ð¾
Vi ew
Ġà¤ª à¤¦
ĠÑģ ÐµÐ»
áĥĲáĥĻáĥ£áĥĹ áĥł
Ð°Ð½Ð¸ ÑĪ
Ġà®ĩ à®©à¯įà®±à¯ģ
ĠÐºÑĢ Ð°Ð¹
ĠÐĺ Ð²Ð°Ð½
à±Ģ à°®
àª°à«įàª Ł
ÙĬ Ø§Ùħ
Ġàªµàª°àª¸ àª¾àª¦
ĠÐ³ÑįÑĤ Ð°Ð³Ð°
ĠÐ¸ ÒĽÑĤÐ¸Ñģ
èī¯ ãģĦ
ĠáĥĴáĥĲáĥĽ áĥĿáĥ¡
ĠØ¯ ÙģØ§Ø¹
ĠÐ´ Ð¸Ñģ
ìĸ´ë Ĥ
iv id
ĠÛ ·
Ġo per
à¦¬ à¦¿à¦¦
Ł à¸¸à¸ķà¸ļà¸Ńà¸¥
Ġà¦Ĺ à¦£
ĠÏĮ ÏĩÎ¹
åĪ¶ åº¦
Ð¾Ð» ÐµÑĤ
Ð°Ð½ Ð´Ð¸
Ġéĵ ¶
ĠàªĨ àªĤàªĸ
æľĢ å¤§
æı Ľ
à§ģà¦ £
Ð½ Ð¾Ð²Ð°
ç ŀ
ĠáĥĲáĥł áĥĲáĥ¤
Ġà¹Ĥ à¸£à¸ĩà¹ģà¸£à¸¡
Ġà¤ī à¤®
k y
ĠáĥĽáĥĵáĥĴáĥĿáĥĽ áĥĲáĥłáĥĶáĥĿáĥĳ
Ġà¤ķ à¤Ĥà¤ª
Ġ2 10
ì½ľê±¸ ë§ĮëĤ¨
eth er
Ġà°ĩ à°ªà±įà°ªà±ģà°¡à±ģ
Ġà¦® à¦¤
Ġ[ /
æ ¦Ĥ
áĢĻáĢ¹áĢ¸ áĢĨ
ÑĢ Ð¾Ð¿
Ð¾Ð· Ð°
Ð¾Ð² Ð¸Ñĩ
Ġà¦¦ à¦¾à¦¬
ĠÐ³ Ð¾ÑģÐ¿
à«įàªŁ àª°
Ð» ÐµÐ³
Ð°Ð½Ð´ Ð°Ð¹
Ġàª¸àª® àª¾àªľ
Ġo pp
Ġ19 98
áĢ´ áĢ¸
Î´ ÏģÎ¿
ĠC r
ëĬ ĺ
Ðº Ð°Ð¼Ñĸ
Ġáĥĳ áĥłáĥ«
ĠáĢĺ áĢļáĢº
æ¬¢ ä¹Ĳ
à´µà´¿à´ §
................ ................
ĠØ§ÙĦØª ÙĪ
àµģà´® à´¾à´¯
à®¿à® ¨
à®µ à®©à¯į
à§ĥ à¦·à§įà¦Ł
à¦² à§įà¦²
Ġ×¦×¨ ×Ļ×ļ
áĢķáĢ¹áĢ Ĳ
àµĤ à´±
×ķ×© ×Ĳ
ÑĢÐ¸Ð¼ ÐµÑĢ
ĠáĢĻ áĢ®áĢ¸áĢ
Ġà¸Ł à¸¸à¸ķà¸ļà¸Ńà¸¥
ĠÐ¼ Ð»Ð°Ð´
Ġáĥ¡áĥĲáĥĳ áĥŃ
ÐµÐ» ÐµÐ¶
ĠÐ½ Ð°ÑĤÐ¸
ĠÐº Ð¾Ð¿
ĠD aily
Ø§ÙĤ Øª
ĠáĥĴáĥĲáĥĽ áĥĿáĥĽ
ĠØªØµ Ø§ÙĪ
Ġ[ [
ä¿Ŀ æĬ¤
à¸ªà¸¸ à¸Ĥ
à®Ļà¯įà®ķ à¯ĩ
à®¿à®° à®¿à®¯
ĠáĢķ áĢĲáĢ¹áĢŀ
Ġà®¤ à®¿à®Łà¯įà®Ł
ĠÙħØ§ÙĨ ÙĨØ¯
ĠÙģ Ø§ÙĦ
Ġà°ħ à°¦à°¿
Ġà°¯ à±Ĭà°ķà±įà°ķ
ĠÐ³ ÑĢÐ¸
ĠSh are
å¡ Ķ
Ð½Ð¸ ÑĪ
ĠáĥĹáĥĲáĥķáĥĺáĥ¡ áĥ£áĥ¤
èģĶ ç½ĳ
çĥ Ī
×ł ×ķ×¢
ĠØ® Ø±Ø¯
ĠØ¬Ú¯ Ûģ
ìķ¼ ê¸°
à¸ªà¸³ à¸Ħà¸±à¸į
Ġì »¤
Ġáĥ¡áĥĲáĥ£áĥ ĳ
Î¶ ÏĮ
³ ´
X X
æł ĳ
ĠëĺĲ ëĬĶ
Ġà¦¤ à¦¾à¦ķà§ĩ
à¤¸ à¥įà¤ķ
Ġà´ľàµĢà´µ à´¿à´¤
×Ļ×Ĳ ×ľ
ãĤĬ ãģ®
ĠÐĺ ÑģÑĤ
ĠÐ± Ð°Ò³
ĲáĢ¼ áĢĦáĢ¹áĢ¸
Ġà¦ķà¦°à§įà¦® à¦ķ
Ġà¦®à¦¾à¦§à§įà¦¯à¦® à§ĩ
ç´ ¹
Ð¸ÑĩÐµ ÑģÐºÐ¸
Ġ×ŀ ×Ļ×ĵ
éĽ ¶
áĢģ áĢĦáĢ¹áĢ¸
áĥĶáĥĳ áĥĺáĥĵáĥĲáĥľ
áĢ¼ áĢĶáĢ¹áĢĻ
ØªÙħ Ø§ÙĨ
Ġà°İ à°ķà±įà°ķà±ģà°µ
ĠØª Ø§Ø²
à´¾à´¨àµįà´ ¤
ĠãĤ °
ĠÙģ ÙĦØ³Ø·
áĥķ áĥĶáĥĹ
à¦² à¦¾à¦°
Ġåº Ķ
Ġà°Ĺà±ģà°° à±įà°¤
Ġà¦¸à¦Ĥ à¦¬à¦¾à¦¦
ĠØ§ÙĦØŃ ÙĦ
ĠØ§ÙĦØª Ø³
ĠÐ¿ÑĢ Ð°Ð¿
Ø§Ûģ Ø¯
Ġàª² à«ĭ
Ġàª° àªĤàªĹ
Ġà¦¤à¦¾à¦ģ à¦°
Ġproduct s
á½ ¶
ĠÑģÑŀ Ð·
éģĹ æ¼ı
ir c
ĠáĢ±áĢĽ áĢ¼áĢ¸áĢ
äº¿ åħĥ
à¸·à¹īà¸Ļà¸ Ĺà¸µà¹Ī
à¸« à¸±à¸§
à°¾à°¯ à°ķ
ĠáĥŀáĥłáĥĿáĥĳáĥļ áĥĶáĥĽ
ĠÙĬ Ø¬
ĠÙĨ Ø¹
Ġ$ .
Ð¾ÑĢ Ñĥ
±áĢľ áĢ¸
Ġwith in
à¤¾à¤¤ à¥Ģà¤²
Ø¹ ÙĬØ©
Ġà¤ľ à¤Ĺ
Ġg ot
à®¾à® ´
ÙĦÙĬ ÙĤ
Ø§Ø¬ Ø±
ĠØ±Ùħ Ø¶Ø§ÙĨ
Ġpres ent
à¹ĩ à¸ĩ
à¸ª à¸²à¸§
Ø³Ùħ Ø¨Ø±
j s
Ġé ¾
Ġáĥĺ áĥĲáĥľ
Ġàª¸ àªĤàª¤
Ġà¤īà¤¨à¥įà¤¹ à¥ĩà¤Ĥ
ĠØ¹Ùħ ÙĪÙħÛĮ
ĠØ¢ Ø´
ç½ ²
áĥ£áĥļ áĥĺáĥ¡
Ġàªľ à«ĩàªµà«Ģ
ĠÐ¸ÑĪÑĤÐ¸ÑĢ Ð¾Ðº
ĠåŁ º
Ġàª²à«ĭàªķà«ĭ àª¨à«ĩ
ĠÙħ Ø±Ø¨
ĠØªÙĪØ³ Ø¹Ùĩ
ĠÐĶ Ð¾Ðº
æĽ´ æĸ°
áĢ¸áĢ ģáĢº
c y
ĠáĥĽ áĥĶáĥ¡
ĠVi ews
ĠÐº Ð»Ñĸ
ĠÐµ Ð²ÑĢÐ¾Ð¿
i h
Ġàª¤à«Īàª¯ àª¾àª°
à¸ŀ à¸Ń
à°¸ à±įà°¯
ê±° ëĤĺ
ØŃ Ø«
ĠØ§ÙĦØª ÙĤ
ĠÐĲ Ð³
Ùģ Ø§Ø¸
ĠÙĪ Ø§Ù¾
ä¼ ´
ĠæĿ¥ æºĲ
ĠÎ±Ïħ ÏĦÎ¬
f o
ĠçĶ ³
æĭĽ åķĨ
àŃ į
à´¿à´¸ àµįà´±àµįà´±
________ ________
ĠÑĤÑĢ Ð°Ð²
áĢĩ áĢ¬
ĠÐ± ÑĥÐ²
éł Ń
çļĦ ãģ«
à¸¢ à¸Ńà¸Ķ
ìĺĢ ëĭ¤
áĢķ áĢ°
à¸¢ à¸²à¸¢
Ø³ Ù¹
Ġàª¤à«ĩ àª¨à«ĭ
ĠÑģÐ°Ð± Ð°Ð±
èĪ ĩ
Ġ×Ľ×Ĳ ×Ł
Ġst ore
à¤¿à¤¯ à¥ĭ
ĠØ¬Ø¯ ÙĬØ¯Ø©
áĢ±áĢ »áĢķ
if ul
Ġà¦¬ à¦°
ĠÑĤÐ¾ Ðµ
áĢ® áĢĴáĢ®
à¤Ń à¤¾
Ġàªķ à«ĩàªµà«Ģ
ĠÙ¾ Ø§ÙĨÛĮ
ĠØª ÙĪØ±
ĠÐ· Ð¼Ñĸ
ĠÐ²Ð¸Ð´ Ðµ
ĠO f
ĠáĥĹáĥĲáĥķáĥĺáĥ¡ áĥĺ
ĠÙħØ¹ ÙħÙĪÙĦ
ĠÐ´Ð¸ ÑģÐº
Ġc al
Ġàª¸àª¾àªĤ àªŃ
Ġ×©×ľ ×ł×ķ
ĠÑģÑĤ Ð¾ÑĢ
ĠÐ¼ÐµÑĪ Ð°Ð²Ð°Ð´
æĺ¯ çľŁçļĦ
áĥ¨ áĥłáĥĿáĥĽ
à´¨ àµį
à¤ª à¤°
Ùģ Ø¶
à°² à°¿
áĥĲáĥķ áĥĲáĥļáĥĺ
ĠáĥŀáĥłáĥĿáĥª áĥĶáĥ¡
àª¿àªŁ à«Ģ
×¡ ×Ļ×Ŀ
Ġà¸Ŀ à¸²à¸ģ
ĠRe view
çľŁ å®ŀ
ĠíĻ į
ĠáĥĵáĥĲáĥ ¤
Ġà¦Ĩ à§Ł
Ġ×¤ ×ľ
ÑĮ Ñı
ĠÑģÐ¸ÑģÑĤ ÐµÐ¼Ð°
ãĥ¡ ãĥ³ãĥĪ
Ġàª¤ àªªàª¾àª¸
àµįà´µ à´¾à´¸
Ġçİ¯äºļ éĽĨåĽ¢
Ġå® Į
ĠáĥĲáĥĽ áĥĶáĥł
Ġinv est
ì Łģ
à¥įà¤¯ à¤ķà¥įà¤·
ÐµÑļ ÐµÑĤÐ¾
ĠÙħÙĤ Ø§Ùħ
ĠØ® Ø§Ùħ
à¯ĭ à®Ł
Ùİ Ø³
Ġä¼ Ĭ
[...]
