#version: 0.2
Ġ Ð
Ð ¾
Ð µ
Ð °
Ð ¸
Ñ Ĥ
Ð ½
Ñ Ģ
Ñ ģ
Ð¾ Ð
á »
Ð »
Ð º
Ñ ĥ
á º
Ñ ı
ã ģ
Ñ ĭ
n g
Ð° Ð
Ðµ Ð
Ġ d
Ġ t
Ñ Į
ĠÐ ¿
e s
Ñģ ÑĤ
Ġ c
Ġ ,
Ã ©
Ġ Ä
ã Ĥ
o n
n h
e n
ĠÄ ĳ
Ġ l
e r
Ã ł
ã ĥ
i e
Ã ¡
Ġ p
Æ °
Ġ a
Ġt h
Ġ .
ã Ģ
Ġ w
Ġd e
Ġ s
Ġ v
Ġ ãĢ
Å Ĥ
c h
o u
t o
Ġ h
ãģ ®
r e
Ġ Ã
Ġc h
Ġ z
o s
Ġ b
ãģ Ħ
a n
ĠãĢ ģ
Ġ m
i n
i á»
ãĥ ¼
o w
i s
Ġ k
ãģ §
t i
ï ¼
Ġt r
ãģ Ĺ
Ġ n
a s
ãģ «
q u
Ä Ļ
Ġ S
ãģ ¦
l e
en t
Ġ ãĥ
u n
Ä ħ
ãģ ¨
i ch
ãģ ª
t a
ĠãĢ Ĥ
t e
c z
e t
a r
Ð ²
ĠÐ ²
Ñ ĩ
Ðµ Ð½
Ġ Ñģ
Ð ¼
ĠÐ ½
Ð¾Ð ²
ĠÐ ¸
Ð ´
Ġ Â
ĠÐ ¾
Ñ ħ
ĠÐ º
Æ° á»
Ðµ ÑĢ
ãģ Ł
Ð° Ð½
Ġ nh
Ðµ ÑĤ
ĠÐ ´
i t
áº ¡
Ð ¿
Ð¾ ÑĢ
Ã ³
Ð° ÑĤ
áº ¿
Ð¾Ð »
ãģ Ļ
Ã ´
e in
Ġd i
Ġ T
Å ¼
Ġ g
ãģ Į
u r
Ã ª
ãĤ ĭ
Ġ â
o r
Ġk h
ãĥ ³
Ġ -
Ġ '
i a
Ġ å
Ã ¼
áº £
c i
ãģ ¯
Ġ A
Ġ ng
o d
Ġ f
Ġâ Ģ
Ġ ï¼
á» Ļ
un d
ãģ ¾
i l
r z
a d
ti on
áº ¥
Ġ D
Ġ ãĤ
Ġl a
Ġp h
ãĤ Ĵ
Ġ B
Å Ľ
l l
Ġ C
ou r
Ġ æ
u ng
Ġ e
r a
ãģ ĭ
Ã ¢
Ġn a
ãģ £
Ã ¤
á» ĳ
ä ¸
Ġ et
Ġ j
ãĥ¼ ãĥ
Ġ en
iá» ĩ
l i
Ġ M
ãĤ Ĭ
Ã ¬
Ġ und
Ġ o
ãĤ Ĥ
Ãª n
Ġ un
ĠÐ¿ ÑĢ
Ñ İ
Ð¾Ð ¼
Ð¸ ÑĤ
Ð½ Ñĭ
Ð¾Ð ´
ĠÐ ¼
Ðµ Ð»
Ð ±
Ð° Ð»
Ġ i
Ġ ÑĤ
Ñ Ī
Ñ Ĩ
Ġ ãģ
Ġ ÑĢ
Ã´ ng
Ð ·
ãĤ ¹
Ð½ Ð¾
Ð¾Ð ³
u s
Ġ 1
Ð ¹
Ñģ Ðº
Ġ P
Ð ³
ãģ Ĩ
Ð¾ ÑĤ
k a
Æ ¡
ãĤ Į
Ġ 2
i ÄĻ
ĠâĢ Ļ
t en
Ġ N
á» §
ãĥ ĥ
Ġ in
ãĤ ī
Ġ Ãł
qu e
Ä ĩ
áº Ń
ãĤ ¤
i on
ä º
Ġ ein
Ġv á»
z y
ãĥ Ī
Ġ y
r i
ĠÄĳ á»
Ġ ç
Ġ :
r o
ãĤ ĵ
e l
ãģ ı
Ġv Ãł
a k
Ġl e
Ġd er
Ã³ w
o l
ç Ķ
áº §
Ġ L
æ ľ
n i
Ã Ń
Ġ E
k i
o m
ãĥ «
Ġ qu
g o
Ġ F
ä »
Ġl Ãł
Ġ K
ãģ į
z ion
m ent
Ġ /
Ġp rz
Ġd ie
Ġ è
i áº¿
Ã ¨
c a
n e
ãĤ ¯
Ã¡ c
Ġ G
Ġp er
ãĥ ©
Ġ W
Ġ x
Ð¸ Ñı
Ð¾Ð ¹
ĠÐ ±
ÐµÐ ¼
ĠÐ½ Ð°
Ð° Ðº
Ð¾ Ð½
Ð¸ Ð½
ÐµÐ ´
ĠÐ ·
Ġd es
Ð° ÑĢ
Ġ Ñĥ
Ñ ī
ãģ¾ ãģĻ
Ñ Ħ
d z
Ð°Ð ²
ãģ ĵ
Ð°Ð ¼
Ð¸ Ðµ
Ġ es
Ġ H
Ð°Ð ·
Ñģ Ñı
y ch
Ð ¶
æ ĸ
ĠÐ ³
Æ°á» Ŀ
Ġc on
å ®
a m
t er
Ġth á»
Ġd o
e i
ll a
Ġ é
r Ã©
ãģĹ ãģ¦
t y
h r
u y
Ġ que
ãĥ ª
c j
ãģ ķ
a l
Ġt á»
i o
Ġ (
u f
y m
c e
ãģ£ ãģ¦
Ľ i
Ġl es
ãģ® å
Ġ il
ãģ Ĥ
s ch
ï ¿
ï¿ ½
Æ°á» £
Ġp o
e it
ãģ§ ãģĻ
áº¥ t
Ġ I
ä ½
n ie
Ġe l
Ġch e
an t
Ġ 0
ãģ ł
áº¡ i
Ã ¶
Ġw y
å ı
zion e
Ä ĥ
ãģĹ ãģŁ
Ġ Ã©
Ġ R
å ¤
Ġz a
m a
Ġ )
Ġg i
Ã³ n
g e
Ġn ie
å Ī
Ġde l
Ġc á»§
g en
å ħ
n a
v e
Ð» Ð¸
Ð¾ Ñģ
Ð¸ Ðº
Ġ Ñĩ
Ð¸ Ð¼
ĠÐ Ł
ÑģÑĤ Ð²
Ð¾Ð ±
Ð¾Ð³ Ð¾
ĠÐ ¡
Ġc Ã³
ĠÐ Ĵ
Ð» Ñı
ÐµÐ ¹
Ġãĥ »
Ð° Ñı
Ġs iÄĻ
Ñ į
Ĺ ¥
ĠÐ °
Ð¸ Ð¸
ou s
Ġ V
Ðµ Ðº
Ð¾ ÑģÑĤ
Ġd a
Ð°ÑĤ ÑĮ
ãģ ĳ
Ð° Ñģ
i d
o ÅĽ
ãĥ³ ãĥ
b er
Ġa u
Ġcá»§ a
c o
w a
u m
ãĤ ¢
r es
ãĥ³ ãĤ
ĠÄ Ĳ
Ã º
Ġ2 0
ÅĤ a
ãĤ Ī
z a
ãĥ¼ ãĤ
d er
Ġp our
Ġh á»
ãĥ ¬
Ġs e
c k
z e
å Ĳ
a u
Ġa l
æ Ĺ¥
Ã £
ãģ Ĭ
j e
Ġp ar
Å¼ e
l ich
o ng
m e
è ¨
Ġs u
j Äħ
ãģª ãģĦ
á» ĭ
Ã¼ r
an s
d i
ĠT h
ãģ£ ãģŁ
s i
Ã¬ nh
Ġ u
äº º
a t
áº ¯
è ¦
d en
Ġes t
ï ½
Ġprz e
Ã¢ n
å ¹
Ġc om
k u
s t
iá» ģ
é Ģ
ĠÃ ¨
i r
á» ¯
é ĸ
Å Ħ
is t
Ð¾Ð º
Ð¾Ð ¶
ĠÐ »
ĠÐ ļ
Ð¸ Ð»
ĠÐ¾ ÑĤ
ĠÐ½ Ðµ
Ð¸ Ð¹
ÑĤ Ð¾
ÑĢ Ñĥ
Ġd u
Ð¸ Ð²
Ġ Ñį
ĠÐ¾ Ð±
ãģĻ ãĤĭ
ÐµÐ» ÑĮ
ci Ã³n
Ðµ Ñģ
ãģ ©
Ġ ÑģÑĤ
Ð¸ Ñĩ
v a
c y
Ð°Ð ´
ÐµÐ ²
d e
Ð¾Ð» ÑĮ
ãģĭ ãĤī
ĠÐ¿ Ð¾
Ġ r
á» ±
ãĤ ģ
Ġ od
Ġa n
es t
Ã ²
t re
Æ°á»£ c
ãģ Ī
d o
æ Ģ
l a
w i
Ġd as
Ġun e
ãĤ Ħ
c ie
ä ¼
á» ¥
g g
Ġp or
ãģ® æ
ich t
á» ©
Ġ O
é ģ
s e
Ġt o
Ġï¼ ī
Ġd Ã©
ãĥ ķ
Ġ Z
Ġc Ã¡c
Ġl os
Ġs p
n o
Ġ re
ãģĵ ãģ¨
á»Ļ t
Ġz u
ãĥ Ń
an ie
i re
k o
on t
m o
Ġï¼ Ī
i nh
k ie
Ġm it
è ¡
Ġs i
ï¿½ ï¿½
ĠãĢ į
Ġkh Ã´ng
rz e
ãģ ¤
Ġv on
m p
0 0
Ġch o
Ġ 3
ow e
p p
ãģ ¡
Ġ20 1
o b
Ãł y
å º
Ġd en
Ġ "
ÐµÐ ³
Ð¸ ÑĢ
ĠÐ Ŀ
ĠÐ ł
ĠÐ ľ
ÐµÐ½ Ð¸Ñı
Ð¸ÑĤ ÑĮ
Ð¾Ð ·
Ð¸ Ð·
ĠÐ ŀ
Ġt e
Ð°Ð» ÑĮ
ĠÐ² Ñĭ
Ðº Ð°
ãĤ ·
Ðº Ð¸
Ġs ur
Ð°Ð ±
ãĤ ¿
Ð½Ñĭ Ðµ
ĠÐ µ
an ia
Ġpar a
Ð½Ñĭ Ñħ
Ð¾Ð ¿
Ā Ā
Ð¸ Ñħ
ãģ Ľ
Ð°Ð ¹
iá»ĩ n
Ġ ro
å ¸
an d
á» Ł
s o
t Ã©
u e
m i
ãĥ Ĺ
b en
å Ľ
Ġ J
ĠÄĳ Æ°á»£c
cz y
er e
å¹ ´
Ġm o
ĠãĢ ĳ
to s
Ġ U
an o
Ļ Ĥ
Ã ¹
a is
Ġg e
ĠãĢ Į
ow a
Ġd ans
ãĤ £
áº ·
æ °
Ã ±
t u
Ġ er
n y
Ġj est
c ia
ãĤ ı
i Ãªn
Ġp ro
æ ī
ch en
Ġ rÃ©
Æ° Æ¡
r y
Ġ ist
ãģ ¿
áº§ n
e u
Ġ ri
ãģĦ ãĤĭ
en ia
ad o
ãĤ ³
Å¼ y
on o
å Ń
Æ°á» Ľ
Ġp l
é ĩ
Ġf Ã¼r
a b
ÅĤ o
Ġtr ong
å ĵ
Ġa uf
Ġl as
Ġp as
ĩ º
Ġj e
a re
ÐµÐ ·
Ð½Ñĭ Ð¹
ÑĢ Ð°
Ð¸ Ñģ
Ð½ Ð¾Ð¹
ĠÐ Ĳ
ĠÐ Ķ
Ġ ÑĦ
Ð° ÐµÑĤ
Ð½Ð¾ ÑģÑĤ
Æ°á»Ŀ i
ĠÐ¸ Ð·
Ð½ Ð¾Ð³Ð¾
ÐµÐ½ Ð¸Ðµ
Ġãģ Ŀ
ÐµÐ½ ÑĤ
it Ã©
ĠÐ´ Ð»Ñı
ãĥĥ ãĥĪ
Ñĥ ÑĤ
Ð°Ð ¶
d y
Ã Ł
Ñĥ Ð´
Ñİ ÑĤ
g li
ĠÐ ¢
çĶ ¨
ÑĨ Ð¸
ci on
. .
å Ĩ
Ã© e
cz e
i er
a y
Ġde lla
Ġv er
ç ´
Ġm á»Ļt
å ĭ
Ġp od
f f
oÅĽ ci
Ġqu i
å ł
u l
ãĥĥ ãĤ¯
a le
ĠS ch
ĠC h
æ Ŀ
Ġn o
Ġj ak
áº¡ n
Ġ ä¸
Ġein e
en to
ç Ľ
t Ã³
è ²
Ġun a
in e
Ġvá» Ľi
Ġ ou
an n
Ġprz y
è ª
Ġng h
Ġf a
ç µ
Ġi m
en ie
iá» ĥ
u t
ÃŃ a
å ¾
a tion
a z
Ġn on
ãĥ Ĩ
Ġa ve
m y
ãĤ «
iá»ģ u
Ġv ous
ãģ¾ ãģĹãģŁ
ÅĤ y
i g
å ¼
Ã¡ s
it Ãł
ĠV er
a ng
ãģ® ãģ§
Ġ 4
cj i
Ġ 5
è Ģ
Ġv o
v i
Ð¾ Ñĩ
Ð° ÑģÑĤ
ĠÐ ¶
ĠÂ »
Ð¸ Ð´
Ðµ ÑģÑĤ
Ð¸ ÑģÑĤ
ĠÐ ĺ
Ðµ ÑģÐº
Ñĥ Ñİ
dz ie
ĠÑĩ ÑĤÐ¾
ĠÐ¿ Ð¾Ð´
Ñı ÑĤ
æĸ Ļ
Ñĥ ÑĢ
Æ°á»Ŀ ng
Ð°Ð ¿
ãģ¨ ãģĦ
ĠÑĢ Ð°Ð·
Ðµ Ñĩ
a ch
ol o
ĠÂ «
Ð¾Ð² Ð°Ð½
Ġs ch
Ñĥ Ñĩ
ãĥ ¡
ĠÐ ĳ
a to
á» į
ç Ħ
Ġk tÃ³
n en
Ġm e
ur s
e c
áº£ i
ãĥ £
ad a
å ¿
il le
s en
Ãł ng
Ġp i
Ġãģ ĵ
w o
Ġï¼ ģ
Ġpl us
d ad
á» ĩ
ãĥ ŀ
n ych
Ġn icht
Æ°Æ¡ ng
ãģĦ ãģ¾ãģĻ
i ca
ie l
å ĩº
v er
å Ĭ
áº£ n
Ġ Å¼e
i c
m en
Ġave c
Ãł nh
æľ Ī
Ġl o
in d
ä¼ ļ
Ġd z
u x
ch e
i en
an e
ãĤĴ æ
Ġng Æ°á»Ŀi
Ġh a
s zy
åĪ Ĩ
Ġe x
w ie
ĠãĢ Ĳ
Ã¡ ch
s te
äº ĭ
Ġm a
l es
åĵ ģ
h l
v o
od z
Ãł n
ä ¿
ment e
c es
á»¯ ng
ãĥ ¥
Ġs ich
Ġc z
Ð½ Ð¸Ðº
ĠÑģ Ð²
Ð°Ð ³
ĠÐ± Ñĭ
ÐµÐ ±
Ð½ Ð°Ñı
ĠÐ¿ÑĢ Ð¾
Ġ Ñħ
ĠÐ² Ñģ
ĠÐ¿ ÐµÑĢ
ĠL e
Ð¸Ñĩ ÐµÑģÐº
ĠÐŁ ÑĢ
Ð½ Ð°
ãĤ µ
Ð½Ñĭ Ð¼
Ġb y
ÑĢ Ð°Ð½
ãĥ ī
Ð¿ ÑĢ
Ð ŀ
z za
Ġw ir
ĠÑĤ Ð°Ðº
ĠÐ¿ Ð¾Ð»
Ġc u
Ðµ ÑģÑĤÐ²
æĸ ¹
ĠÐ ĵ
Ġc e
Ġa us
Ġï¼ ļ
d a
on s
Ãł i
ÅĤ u
tion s
ent e
ãĥ Ĳ
ĠI n
ç ī
áº§ u
n ia
ou t
Ġb e
ãĥ ģ
an do
é Ľ
u b
an ce
a o
ãģĤ ãĤĭ
p a
b y
Ġnh Æ°
Ġæ ľ
Ã¨ s
f t
æľ ¬
ĠD e
å ±
ĠE n
in a
á» ĵ
ow ie
u o
ĠS ie
æ ¥
Ġ ÅĽ
l o
Ġ ä»
Æ°á»Ľ c
Ã© s
zion i
cion es
Ġ !
å ľ
Ã¨ re
ll o
Ġs z
ãģĦ ãģŁ
Ã¢ y
ung en
ãģ Ŀ
es z
Ġp r
ãģ °
Ġau ch
áºŃ n
æ ĻĤ
ur a
en d
s z
Ġn e
å¤ §
ĠÄĳ á»Ļ
ĠE s
Ġo b
ãĤĪ ãģĨ
ĠD ie
t to
ÐµÐ ¿
Ð½ Ð¸
Ñĭ Ðµ
ÑĨ Ð¸Ð¸
Ð¾ÑĤ Ð¾ÑĢ
ĠÐº Ð°Ðº
ĠÑį ÑĤ
ĠÐ¸ Ð½
Ñĭ Ð²
Ð°Ð¼ Ð¸
Ã´ i
ÐµÐ ¶
Ġ Ñı
ĠÑģ Ð»
å ī
Ñħ Ð¾Ð´
c u
Ð´ Ð°
ãĥ ĭ
Ð ł
Ñĥ Ð¿
Ġh o
Ġa c
Ð ¡
ĠÐ¿ÑĢ ÐµÐ´
m er
Ñĭ Ð¹
ãģ¨ãģĦ ãģĨ
ÐµÐº ÑĤ
Ġt ak
k t
ãģ« ãģª
or t
in i
áº¿ n
w ia
qu es
Ġb ei
ãģķ ãĤĮ
in o
å į
ÅĤ e
a li
b le
ĠA n
æ Ħ
Ġnh á»¯ng
ãĥ¼ ãĤ¹
ĠL a
an i
Ġs o
å ¯
u ch
ĠâĢ ĵ
i te
ãģĤ ãĤĬ
Ġs t
Ġ |
ä¸ Ń
t s
åĲ Ī
a nh
m os
Ġde m
k ow
iáº¿ t
p r
ãĤ ¦
ĠE l
Ġp ra
ãĤ į
á» ķ
Ġs ta
Ġa r
b e
b re
ãĥ¼ãĥ «
Å ©
ĠS p
Ġ ?
æ° Ĺ
r u
á» Ń
è¦ ĭ
Ġ or
ĠR e
ä ¾
is e
w y
è¡ Į
id e
áºŃ t
ta r
Ã© r
åħ ¥
Ġd la
t es
Ã¡ n
å ½
Ġm i
b i
Ð¸ÑĤ ÐµÐ»ÑĮ
ĠÐ· Ð°
Ġ ÑĨ
Ñĥ Ð±
Ð Ĳ
ĠÐº Ð¾ÑĤÐ¾ÑĢ
Ð½Ð¾ Ðµ
Ðº Ð¾
Ðµ Ðµ
ĠÐº Ð¾Ð¼
ĠÄĳ Ã£
ĠÐ¿ÑĢ Ð¸
Ð° Ñħ
Ð» ÐµÐ½
ãĥ ĩ
ÐµÐ½ ÑĮ
el le
ÐµÐ³ Ð¾
ãģĦ ãģ¦
Ñĭ Ñħ
Ð°Ð± Ð¾ÑĤ
ĠB e
Ã£ o
ĠÐ £
Ñ ĳ
Ġ. ..
Ñĥ Ð»
ç ļ
Ñģ Ð¿
Ġ 6
p e
æĢ Ŀ
is s
Ġro z
Ġ ich
a hr
p er
Ġde i
ãĤ Ń
oÅĽ Äĩ
æ ķ
a ge
ÃŃ nh
id ad
Ġp rÃ©
ãĥ ĸ
Ġdi es
éĸ ĵ
cz ne
Ġqu es
Ġcom o
ç Ļ
ung s
Äĥ ng
c tion
Ġ ï½
n ym
et te
ä¸ Ģ
Ġw ie
ãģ ĺ
t ti
Ġs a
Ġm Ã¡s
ĠP h
ion e
Ġ 7
é ĥ
Ã© es
ĠÄĳá» ĥ
ä¸ Ĭ
Ġw er
Ġc zy
s a
cj a
on n
çĦ ¡
ĠS e
s kie
Ŀ i
ãĥ³ãĤ °
os t
ar a
å °
in s
a j
ãģ Ķ
ĠÃ ¼
gg i
æ Ń
áº¿ t
g u
Ġa v
os ta
æ ³
et z
Ġes ta
Ġthá» ĥ
ãĤ ¸
ĠL es
es ch
Ñĥ Ð¶
ĠâĢ Ķ
ĠÑģ Ð¿
Ñĥ Ð¼
ĠÐ¼ Ð¾Ð¶
ĠÐ Ĺ
Ġ ÑĪ
Ð¾ Ðµ
Ð¾ÑĢ Ð¼
Ðµ ÑĪ
Ġt y
Ñĥ Ñģ
ĠÐ Ľ
ĠÑģ Ð¾
Ġå ¤
Ð° ÑİÑĤ
al es
Ðµ Ñħ
æ Ī
ĠÐº ÑĢ
ĠÐº Ð¾Ð½
j a
ti g
Ð½Ð¾ÑģÑĤ ÑĮ
Ð¸ ÑĨ
g i
ÑĤ ÐµÑĢ
ãĥ §
Ð½Ð¾ÑģÑĤ Ð¸
en ti
ie j
ãģ§ ãģį
ĠG e
Ġ ent
ĠT r
Ġs ono
an te
ow y
ĠãĤ ¹
á»ĳ i
ãģ® è
Ġs ont
to w
ll en
Ġs er
å ¥
áº ©
ãĥ¼ãĥ Ī
Å º
Ġod er
ĠN g
ãģ§ ãģ¯
Ġa pp
s ze
t r
Ġ ;
Æ¡ n
u je
å Į
er n
ç ¤
Ġg r
ĠN h
k Ã³w
u re
Ġt od
Ġp re
ĩ ª
h e
g a
ãĤ °
Ã¹ ng
w e
te ur
Ġpi Ã¹
Ġp eu
ãģ Ń
Ġ Q
s ki
j er
ãĥ ł
Ġ um
Ġc Ã´ng
ĠãĤ ¢
t is
or es
ãĥ³ ãĥĪ
n Äħ
c er
ãĤ »
iá»ĩ t
Ġ ra
h en
Ġ res
çĶ Ł
s ta
Ġn as
ra tis
ãĥ Ł
id o
m es
Ð° ÑĪ
Ð½ Ð¾Ð¼
Ð°ÑĢ ÑĤ
Ð¸Ð» ÑĮ
Ð ĺ
ĠÐ¿ Ð»
ÑĢ ÐµÐ¼
ĠÐ ķ
Ðº Ñĥ
ÑĢ Ð¾
an y
Ð¶ Ðµ
ĠÐ¸ Ð»Ð¸
ÑĢ Ð¾Ð²
åł ´
ĠÐ ¤
Ġth u
Ġ 8
ãģķ ãĤĵ
ĠÐ¿ Ð¾Ñģ
Ð½ Ñı
ĠÃ¼ ber
to r
ĠÑį ÑĤÐ¾
Ñİ Ñī
Ġm ais
ĠÐ¾ Ñģ
å ·
ÐµÑĤ ÑģÑı
r Ã³
áº ½
é ¡
p o
Ġ 9
i v
ng e
Ġ %
i res
é Ļ
er o
å £
i Äħ
á»Ļ i
l Ã©
ĠE r
ãģ® ç
ci o
ãģ« ãģ¯
Ġs á»ĳ
d os
Ġcom p
ãĤ ª
ĠP o
ĠU n
Ġo p
çļ Ħ
Ġprze z
er t
« ĺ
Ġvo tre
ãĤ §
Ġb áº¡n
Ġ on
Ġs ind
Ġt out
l ia
ad z
ãĥ ĳ
ĠP or
x o
Ġãģ Ĭ
ad os
Ġs on
Ġde ll
os z
á» ī
å® ļ
our s
en n
dz i
å ĳ
Ġs c
Ġm á»
ãĤ ¨
l is
ide os
æĢ §
Ġ Y
Ġp ue
ç ķ
Ġs k
Ġh at
z z
Ġ1 9
ç ľ
u i
Ġ ï¿½
rz y
èĢ ħ
Ġtá» «
m ento
Ð» Ñİ
Ð Ŀ
Ð°Ð½ Ð¸Ñı
ĠÐ³ Ð¾Ð´
ĠÐ¾ Ð´
ÐµÐ½ Ð¸
Ð² ÐµÑĤ
ĠÑĢ Ð°Ñģ
Ð° Ñĩ
Ðº ÑĤ
s ion
Ð°ÑĤ ÐµÐ»ÑĮ
Ð ļ
ĠÑĤ ÑĢ
Ġ ãģ¨
ĠÑĤ Ð¾
Ġna j
Ñģ Ð»
ç Ĳ
Ð°Ð» Ð¸
ĠÐ¸ Ð¼
Ã¶ n
Ġm ar
Ð¸ Ð»Ð¸
Ð ķ
c ul
ĠÐ §
ä½ ľ
Ð ¢
on e
Ġn Ãły
è ©
o is
h n
er a
ia ÅĤ
or a
Ġf or
æ ł
Ġwer den
ãģ§ ãĤĤ
jÄħ c
au x
Ġl á»
Ġt ut
æī ĭ
ent es
æ ĺ
ou v
Ġk o
Ġal s
Ġ #
ĠI l
c as
Ġ Å
æ Ľ
Ã¡ i
am i
è ³
an a
æ¥ Ń
ĀĀ ĀĀ
Ã¡ ng
ar i
Ġv or
Ġn ous
ti que
ãĥ Ĭ
u jer
b a
ãģ ļ
Ġhá» į
Ġau x
Ġp ow
ĠC on
Ġna ch
ãĤ ĥ
Ã± o
Ġp os
nie j
å Ģ
s er
c ar
ãĥ ĵ
Ã ½
ein e
å¸ Ĥ
Ġs us
Ġtr a
Ġ }
r on
Ã¡ t
te l
Ġ1 0
Ġ {
ou ve
ĠS t
c os
è ¿
ti f
n oÅĽci
ĠÐ² Ð¾Ð·
Ð¿ Ð»
Ð°ÐµÑĤ ÑģÑı
ÑĢÑĥ Ð³
ĠÐ Ń
ĠÑĢ Ð°Ð±Ð¾ÑĤ
ÑĨ Ð¸Ñı
Ð¾Ð»ÑĮ ÐºÐ¾
Ðº Ð¾Ð²
Ð¸ Ð±
Ġn el
Ð¸Ð½ Ð°
Ð³ ÑĢ
ĠÑģ Ð¼
Ġ ]
Ð³ Ð¾
t ra
Ð½ Ð¾Ð²
é ł
ÑĤ Ð¾ÑĢ
ĠÐ° Ð²
Äĥ m
ÅĽ ci
ĠÑģ ÑĢ
ĠÐ½ Ð¾
Ã¼ n
Ð°Ð¹ ÑĤ
ãģª ãģ©
ĠÐ± ÑĥÐ´
p os
ĠÃ ª
ãģ¾ ãģĽ
Ã¤ n
ĠâĢ ľ
t as
ne go
id a
Ġa d
ãĤ ĩ
á»ĳ c
ãĤ¤ ãĥĪ
ne j
tu re
Ġc as
ÅĤ ad
çī ©
Ġs ie
çĲ Ĩ
Ġm on
g ar
â Ģ
ãģĹ ãģĦ
Ġg iá»
Ġor az
Ġa lla
è »
Ġa s
od u
Ġå ®
ant s
ãĥ »
en i
re i
r os
r as
u d
Ġkh i
éĩ ĳ
ĠA r
p h
Ġå ħ
et to
ĠW y
ĠE in
Ġc o
i ta
é £
er s
ent a
Ġk on
é Ŀ
f or
ĠÄĳ áº¿n
ãĥ Ķ
Ġa i
Ġa p
ãģ¾ãģĽ ãĤĵ
ll es
Ġje d
è¨ Ģ
en cia
g t
g es
s ka
åŃ Ĳ
Ġes te
Ã© ra
£ Â
ãĥ¼ãĥ ī
Ġgi Ã¡
Ġ os
Ñĭ Ð¼
ĠÑģ Ð°Ð¼
Ð¾ÑĢ ÑĤ
Ð´ ÐµÐ»
ĠÐ» Ñİ
ĠÑĥ Ñĩ
Ñĭ ÑĤ
ĠÑģÐ² Ð¾
Ð» Ð¾
Ñĥ Ñī
ĠâĢ Ŀ
ĠÑģ Ðº
Ð¾ÑģÑĤ Ð°Ð²
Ñģ Ð»Ð¸
Ġ [
Ð¾Ñģ Ñģ
ti v
Ð° ÑĨÐ¸Ð¸
ãĥ¼ãĥ ł
ĠÐ´ Ð¾
Ð¾ÑĤ ÑĢ
Ġcom e
Ã© n
Ñ Ĭ
Ð°Ð½ Ð¸Ðµ
Ġdas s
Ðº Ðµ
è ī
Ð°Ð» Ð°
Ġvá» ģ
u est
ãĤĮ ãĤĭ
Ġdel le
Ġpor no
Ġp a
c on
en s
Ġ us
ä½ ¿
áºŃ p
åı ĸ
ur ch
ĠÃ© ta
s p
Ġs Äħ
ãĥ³ãĥ ī
u er
ç ¨
à ²
Å© ng
Ġa m
åī į
Ã± os
Ã §
m u
åĭ ķ
á»© c
i ng
åĨ Ĩ
Ġp res
ãģ¨ æĢĿ
ch t
k on
ment s
Ã³ ÅĤ
Ġc a
Ġb es
Ġ =
iáº¿ n
Ġi mp
æ ´
k e
j ÄĻ
Ġwir d
Ġt ym
r an
ãĥķ ãĤ
¡ Â
Ġ á»Ł
u is
è £
ci os
ÄĻ p
ä½ ĵ
a c
Ã¤ t
ãĤ¹ ãĥĪ
Ġent re
Ġa le
ãĥĥ ãĥĹ
Ġr is
is ch
ĠP ar
or s
Ġé Ģ
ad as
cy j
Ġz e
ãĥ į
en za
on a
ĠÐ¾ Ð½
Ð°Ð½ Ð¾Ð²
Ð¾Ð»ÑĮ ÑĪ
ĠÐ¾ Ð¿
ÑģÑĤÐ² ÐµÐ½
Ð½ ÑĥÑİ
ÐµÐ» Ñı
Ð¾Ð¼ Ñĥ
Ð¸ Ð³
Ð¾Ð»ÑĮ Ð·
ĠD as
ĠÐ· Ð°Ðº
ĠÐ²Ñģ Ðµ
ÑĢ Ð°Ð·
Ġå Ĳ
Ð¾ Ñı
ĠlÃł m
ÑģÐº Ð¾Ð¹
ãĤ ±
ÐµÑģ Ñģ
Ñĥ Ð½
vo ir
i Ã³n
ÑģÐº Ð¸Ð¹
ÐµÐ» Ð¸
a Å¼
Ð Ĵ
ç ·
ĠÐ´ Ð²
Ġg ia
h t
çĽ ®
Ã© ri
ĠktÃ³ re
ob re
a us
Ġan che
g er
ä» ĺ
Ġc am
2 0
\ "
w w
Ġn i
Ġa b
ãģł ãģĳ
iá»ĩ u
é «ĺ
Ġb ÄĻ
ur es
áº¥ y
åĽ ½
ĠA us
z ia
Ġdz ie
ç¤ ¾
ĠC om
Ġb ien
Ġï¼ Ł
Ã¼ ck
ĠãĤ ·
szy st
Ġt áº¡i
i b
cj e
ar d
is chen
éĥ ¨
Ġt ien
ow ych
åĽ ŀ
on ne
Ġin ter
Ġc áº£
ĠN ie
ab le
æ ¸
Ġp ri
ra w
ĠÃª tre
ç «
áº ±
Ġs am
Ġ ãģ¾
ĠP ro
Ġd is
Ġãĥ ķ
Ġk om
ci as
çĻ º
an no
Ġein en
Ġl ub
Ġf o
ãģª ãģı
Ġf il
en ce
Ġper o
æ Ĭ
Ġs áº½
z en
ĠÐ¿ Ð¾Ðº
ÐµÑĢ Ð¶
ÑĨÐ¸ Ð¾Ð½
ÑģÑĤÐ² Ð°
Ð Ł
ĠÐµ Ð³Ð¾
Ð¸ÑĢ Ð¾Ð²
ÑģÑĤ Ð°Ð²
Ð» Ðµ
Ð» Ð°
i que
Ð» Ð°Ð´
ĠÐ¿ Ð¾Ð¼
ÑĥÐ» ÑĮ
é ļ
Ð¸ÑĤ Ðµ
u es
ÑģÑĤ ÑĢ
åŃ ¦
Ð¾ ÑĪ
ĠÐ¿ÑĢ Ð°Ð²
Ġp om
m as
Ð¾Ð» Ð½
ĠÐ± ÐµÐ·
ĠJ e
Ñĥ ÑĪ
1 0
Ġ1 2
c t
Ġk ann
æ Į
it s
Ġa ll
Ġd á»¥
Ġb ar
ĠM ar
il l
ãĥ Ģ
ni k
éĢ ļ
Ġw ar
a in
Ġc ette
p ie
è ĥ
Ãª u
ãģ§ãģĻ ãģĮ
or i
ĠA l
Ġbe z
ķ ·
Ġ20 0
on d
f er
æ µ
Ġp la
Ã² ng
ä ¹
Ġm Ã©
ç §
p is
ty cz
ĠÄĳ Ã³
Ġs obre
Ġfa it
Ġz um
ãĤĮ ãģ¦
gg io
Ġz ÅĤ
ç Ł
W W
Ġmo Å¼
e m
j et
f i
ĠãĤ ³
t h
Ġg ratis
Ġper s
æ §
Ġnh Ãł
ĠT e
ãĤ º
Ġp e
Ġpo z
æ İ
te t
Ġh ab
æ ŀ
t ro
Ġm Ãł
Ġw iÄĻ
Ãª me
ãĥ ¯
Ġm an
Ġc Å©ng
Ġ ont
: :
an ti
Äħ d
Ð¸ÑĢ Ð¾Ð²Ð°Ð½
Ð» ÐµÐ½Ð¸Ñı
Ð¾ÑĢ Ð¾Ð´
ĠÐ¿ÑĢ Ð¾Ð´
ĠÐ² Ð¸Ð´
ĠÐ½ Ð¾Ð²
ĠÐ² ÑĢÐµÐ¼
ĠÐ¾ ÑĢ
Ñı Ð·
Ð¾Ð¿ ÑĢ
h re
Ð¾ÑģÑĤ Ð¸
Ñĭ ÑĪ
ĠÐ¸ ÑģÐ¿
åº ¦
Ð°Ñģ Ñģ
Äĥ n
Ġ1 1
Ġå ı
ĠÐ¼Ð¾Ð¶ Ð½Ð¾
ĠÐ¼Ð¾Ð¶ ÐµÑĤ
g ra
ĠN o
Ð¾ ÑģÐº
0 4
Ġprze d
ĠÐ´ Ð¾Ð»
ãĥ Ŀ
ĠÐ´ ÑĢÑĥÐ³
Ġd al
h al
ãĢ Ĳ
j o
Ġh Ãłng
ĠâĢ ŀ
ad or
Ġcom me
is ta
æ ĥ
mi ento
ä¸ ĭ
i ent
á» ģ
ol a
us z
ï ¾
ĠD er
ĠãĤ «
ar io
e k
pa Ã±
ãģ ¹
as z
us e
ĠQ u
å ķ
Ġv ideos
cia l
ãĤĤ ãģ®
ar z
ãĥ ¢
i to
Ġfa ire
sch a
ĠvÃł o
a ciÃ³n
Ġa t
Ġä» Ĭ
Ġ1 5
ow anie
ãĤĬ ãģ¾ãģĻ
Ġw szyst
ti tu
u g
s k
am os
æ ¯
ou p
c ciÃ³n
or d
Ġãģ Ĥ
Ġb o
Ã¶ r
ĠãĤ µ
ĠÄĳá» ĭ
p owie
Ġ" :
Ġt u
c l
æĦ Ł
Ġz na
Ġno ch
E R
en er
åĨ ħ
t res
ĠP ol
owe j
Ġæ Ĺ¥
w er
to ri
Ð» Ð°Ð²
ĠÐ ¥
Ð¸ Ñİ
ÑģÐº Ð¾Ð³Ð¾
Ð°Ð½ ÑĤ
ĠÐ¾ Ñĩ
Ñĥ Ñħ
Ð°Ðº ÑĤ
Ð´ Ðµ
Ðµ Ñī
Ġ &
Ð½ÑĭÐ¼ Ð¸
Ð°ÑĤÑĮ ÑģÑı
ÐµÐ½ Ð°
æ ı
Ð¾Ð³ Ð´Ð°
Ġein er
Ð»Ñİ Ñĩ
è ¾
Ð¾Ð± Ñĭ
ĠÑį Ðº
ÅĤ Äħ
ti ca
Ð Ķ
Ñĥ Ðº
áº «
Ñī Ðµ
ãģ¾ ãģ§
ÑĦ Ð¾ÑĢÐ¼
p ar
ĠN a
è ĩª
Ġc os
Ġc ar
an ych
Ġnh iá»ģu
Ġk Ã¶n
Ġac c
ãģĹ ãģ¾ãģĻ
g l
æ ±
Ġan n
z ar
Ġ0 0
O M
ãĤĩ ãģĨ
Ġmo Å¼e
ãģĵãģ¨ ãģĮ
b eit
Ġtr Ãªn
Ġ1 8
ãĥ Ļ
Ġc or
t rz
ĠÃ© tÃ©
ãĥ© ãĤ¤
Ġeine m
ĠD E
Ġth e
ujer es
Ġæ ĸ
g os
Ġcz as
il i
Ġe mp
Ġz ur
Ġme j
æĿ ¥
es s
ow o
ç Ń
Ġs in
cz a
r ar
an de
Ġl áº¡i
æ Ķ
t t
b o
Ã¨ me
åľ °
u en
Ġm is
åº Ĺ
te m
ia mo
è Ń
áº »
or o
ãģ¨ ãģĹãģ¦
k eit
ĠP our
Ġl le
Ġtr Ã¨s
å¯ ¾
ob ie
Ġg li
u jÄħ
å® ī
áº· t
le ment
ĠÑģ Ð¾Ð±
ÐµÐ½ Ð¸Ð¸
ĠÐ½ Ð°Ð¿
Ð½ Ðµ
Ð¿ÑĢ Ð°Ð²
Ð¸ÑĤ ÑģÑı
Ð°Ð¶ Ð´
Ð¸ Ð¿
Ð° ÑİÑī
Ð¼ Ð¸
e b
ÑĢ Ñı
Ð ľ
ÑĤ ÑĮ
ï¼ Ĳ
Ð½Ð° Ñĩ
Ġm uy
ĠÑģ Ð¾Ð²
ãģĹ ãģ¾
ĠÐºÐ¾Ð¼ Ð¿
ĠÐ¾ Ðº
f Ã¼
ĠL os
Ð¸Ðº Ð°
ÑĢ Ð°ÑĤ
Ĥ ¬
ÐµÑĤ ÑĮ
ï¼ ĳ
ÑģÑĤÐ² Ð¾
v en
l ko
æĸ °
á»ĳ ng
us s
Ġâ Ĥ¬
Ġm Ãªme
u Å¼
et ti
Ġb lo
s za
Ġï½ ŀ
Ġv e
ÅĤe m
m m
r od
Ġãĥ ¬
ch er
èĥ ½
Ġpar ti
Ãł o
dz o
ãĥ¼ãĤ ¸
Ġt ou
Ġte go
Ġn ur
åı ¯
t ta
li c
å¾ Į
Ġs es
ä¸ į
owa Äĩ
Ġy a
Ġun ter
Ġu ti
Ì ģ
áº ¹
åĬ Ľ
ÅĽ Äĩ
áº¥ p
Ġãĥ ĸ
Ġe d
e ch
od e
a g
t Ãł
ãģĭ ãģ£ãģŁ
ĠG r
m in
i m
å¤ ļ
ĠÂ ¿
ant es
ãģ »
Ġs ein
w ar
ç ©
ent s
iá»ĩ c
Ġå¤ §
owe go
z i
Ġt am
o p
ãģŁ ãĤģ
u to
end re
Ġc re
å£ ²
Ġz d
ĠK h
ÑģÐº Ð°Ñı
Ð¾ Ñī
ĠÐł Ð¾ÑģÑģ
Ð² Ð¾Ð´
ĠÐ· Ð°Ð¿
ĠÐ± Ð¾Ð»ÑĮÑĪ
ĠÑģ ÐµÑĢ
ĠÐ ¯
ĠÑĤ Ð¾Ð»ÑĮÐºÐ¾
ÐµÑĢ Ð°
Ġm uch
ĠÐ² Ð¾
Ð¾Ð» Ð¾Ð³
ĠÐ´ ÐµÐ»
è¦ ģ
Ġ \
O N
Ð³ Ð°Ð½
ãģĹ ãĤĩãģĨ
Ð¸Ðº Ð¸
ÑĢ Ð°Ð²
te urs
ce j
ÐµÐ½ Ð½Ð¾
ÑĤ Ð¾Ð¼
Ġa ber
ĠÐ¿Ð¾Ð» ÑĥÑĩ
Ġw p
ĠÐ¸Ð½ ÑĤÐµÑĢ
Ġel le
Ġc i
ãģŁ ãģĦ
Ã¡ o
ll i
Ġs wo
g ne
Ġha ben
ĠM e
ãģ® ãģ¯
Ġse xo
ãģ ³
Ġn ue
E S
Ã ®
bi le
é ħ
u el
ãĤĮ ãģ°
Ġz ak
µ Ã
Ġn Ã³
å½ ĵ
Ġaus si
en do
Ġ1 3
ãĥ§ ãĥ³
y s
g un
© Ł
Ġpeu t
ãģ Ĵ
od o
Ġz as
ĠÂ Ń
Ġme hr
Ġ1 4
or zy
æ³ ķ
ec es
Ġ *
ĠãĤ ª
al itÃ©
áº£ o
Ġcom m
gli o
Ġs y
ãĢ Į
Ġd urch
ĠP ara
Ã³ b
å® Ł
Ġques to
Ġtod o
ãģª ãĤĵ
Ġr en
Ġcon s
ãģķ ãģĦ
Ġun s
ĠÄĳ áº§u
ãĥ Ħ
ĠH o
k ÄĻ
Ġ) .
ĠM it
æ Ł
A R
Ġn os
ti vo
åł ±
Ġex p
Ġty lko
Ð° ÐµÐ¼
Ð¸Ð¼ Ð¸
ÑģÑĤ ÑĮ
ÑĥÐ»ÑĮ ÑĤ
ĠÐ¶ Ðµ
Ð» Ð°ÑģÑĤ
Ð¾Ð² Ð¾ÑĢ
ÑĢ Ð°Ð¼
ĠÑĢ ÑĥÐ±
ĠÐ¿ÑĢ Ð¾Ð²
an z
Ð¸ ÑĢÑĥ
Ð»Ð¸ Ñĩ
Ð¾ÑĤ Ð¾Ð²
çĦ¡ æĸĻ
ÐµÐ½ Ñĭ
w Ã³
ÐµÐ½ Ð¸Ð¹
ãģĪ ãĤĭ
ĠÐĿ Ð°
ĠÐ»Ñİ Ð±
Ġs Ã©
t ura
Ð¸ ÑĪ
Ð°Ð½ Ð´
ĠA uf
Ð Ľ
çĶ »
ÑıÑĤ ÑĮ
Ġo g
Ġs ou
ãĥĩ ãĤ£
Ġch á»ī
ĠA b
Ġpr odu
le j
ĠP er
Ġe ff
ãĤ¹ ãĤ¿
h er
è ģ
Ġ1 6
Ġw sp
Ġt er
Ġb á»ĭ
ãģ ¸
ĠdÃ© c
éĸ ¢
Ġm iej
ÃŃ as
k en
ãĤ ¬
m et
Ġpers on
ur o
Ġblo ck
Ġs ans
Ã¤ r
è ¶
Ġsu l
ä¾ ¡
ni ka
Ġle ur
Ġ Å¼y
O S
c to
Ä ©
ãģ« ãĤĪ
n er
ow i
ãĥ Ľ
Ġse g
is che
ch i
ÅĽ cie
bi Ã©n
å¤ ĸ
ti c
Ġnh áº¥t
te ment
ä» £
et ta
r ance
æķ °
b ie
Ġde ux
ãĤĵ ãģª
Ġne lla
ic as
è ¼
Ġn uest
E N
ari os
wi Äħ
ç ¶
Ġb is
ta l
ÃŃ s
æĪ Ĳ
on c
Ġal le
ĠÐŀ ÑĤ
Ð¼ ÐµÑĢ
ĠÐ¡ ÑĤ
ĠÐŀ Ð±
ĠÐĴ Ñĭ
ÐµÐ¼ Ñĥ
ĠÐ¿ Ð¾Ð²
Ðµ ÑĨ
ĠÐ² Ð½
ĠÐļ Ð°Ðº
ow ania
ĠÑĥ Ð´
Ð¿Ð» Ð°ÑĤ
ĠÑģÑĢ ÐµÐ´
ç Ĥ
ĠÐ½Ð° ÑĪ
Ġs á»±
Ð¾ÑģÑĤ ÑĮ
æ ²
ĠÐ½Ð° Ñĩ
Ð¸ Ð¾Ð½
Ġg ra
a ll
ĠÐ¸ Ñħ
ĠÐ±ÑĥÐ´ ÐµÑĤ
am y
ĠÐ± Ð¾Ð»
Ġãĥ Ĳ
ÐµÑģ ÑĮ
ou ver
Ġo k
ä¿ Ŀ
an to
g lich
Ġl i
in es
s ere
p i
åĲ į
Ãº ng
éĸ ĭ
h men
on y
Ġ1 7
Ġque l
è Ĥ
ta do
æī Ģ
el t
n oÅĽÄĩ
C I
å® ¶
Ġre c
c ri
pr Ã¨s
ãģĹãģ¦ ãģĦãĤĭ
ĠÄĳá» ĵ
Ġj uÅ¼
è¨ Ī
scha ft
ãģĤãĤĬ ãģ¾ãģĻ
ĠbÄĻ dzie
cion al
der e
wie t
Ġn om
ani u
æľ Ģ
Ġh iá»ĩn
Ġo f
åħ ¨
a ÅĤ
li ca
r ie
t ri
z na
ãģª ãĤī
a i
Ġm ad
Ġc l
å¥ ³
ĠD es
Ġsp o
Ġâ Ĺ
sch l
Ġ X
çľ Į
Ġn Äĥm
p or
æ§ ĺ
at z
Ġm en
kie m
er en
ĠãģĿ ãĤĮ
Ã »
k tu
Ġes sere
Ġãĥ ŀ
Ġbar dzo
Ġpri mer
ĠÑĩ Ð°ÑģÑĤ
ĠÐº Ð¾Ð»
Ð°Ð¹ Ð½
ÐµÐº Ñģ
ÑĤ Ð¾Ð±Ñĭ
Ð» ÐµÐ½Ð¸Ðµ
ĠÐº Ð»
Ðº Ð¾Ð¹
Ð² ÐµÑĢ
Ð¸ Ð½Ñĭ
al is
Ġu 04
ĠÐ³Ð¾Ð´ Ð°
ĠÐ³ ÑĢ
ãģ« ãģ¤
Ġ) ,
n ak
Ð¾Ð²Ð°Ð½ Ð¸Ñı
ãģ§ãģį ãĤĭ
ÐµÐ¶ Ð´
Ð £
eu x
Ã§ Ã£o
Ð¾Ñģ ÑĮ
ÐµÐ» ÐµÐ¹
b t
ĠÐ¿ÑĢÐ¾ Ð¸Ð·
ĠâĢ ¦
Ðº ÑĢ
cz Äħ
Ġdá»¥ ng
ãģĪ ãģ¦
x x
aj o
mp s
Ġmiej s
Ġn uo
en e
éĢ ģ
Ġj our
ãĢ ħ
Ġtr ab
Ġg es
ĠÃ ī
ĠÄĳá»Ļ ng
Ġç Ķ
as ta
è¨ ĺ
to re
f e
ym i
ç ¾
Ġ >
Ġf in
ti k
æľ Ł
a it
f en
ãģĦ ãģĦ
c ol
é ķ·
le p
Ġest Ã¡
w ei
Ġc es
ĠO d
f ica
åĮ ĸ
g od
Æ°á»£ ng
ãģ« ãĤĤ
d u
ĠkÃ¶n nen
s ent
g na
Ġw ww
ä» ¥
ÅĽ li
ĠSe xo
Ãº n
Ġãĥ ¡
ÃŃ ch
on i
ĠãĤ ¯
Ġo ff
Ġw ur
ãģ£ãģ¦ ãģĦãĤĭ
Ġpro f
Ġw z
è© ±
z o
p tion
£Â ¬
Ã¡ nh
çŁ ¥
Ġpe ti
A N
A S
ãĥ¼ãĤ º
Ġh ay
Ġt ous
ÑĥÐ¿ Ð¸ÑĤÑĮ
ĠÐ° Ð½
Ð» ÑĮ
Ð» Ð°Ð³
Ð² Ð»Ñı
ĠÐ´ ÐµÑĤ
Ð± Ð¾ÑĢ
ĠÐ ¨
ĠÐ¿ Ð¾Ð·
ĠÐº Ð¾ÑĢ
Ġm ol
Ġ +
ÐµÐ» Ð¾Ð²
ĠÐ ¦
ı ¾
ĠÐ¼ ÐµÑģÑĤ
Ġw i
Ð¼ Ð¾Ð¶
è Ī
ĠÐ¼ Ñĭ
ĠÐ¼ ÐµÐ½
ĠM ad
ti va
ÑĥÑİ Ñī
ĠÐ´ Ð¾Ð¼
au t
ĠÐ» ÐµÑĤ
ãĥ ı
Ð½ ÐµÐ¹
Ġdes de
cz enia
å Ł
Ġpre mi
odz i
m b
Ã¢ u
on es
l os
ä½ ķ
e j
ãĥª ãĥ¼
lich e
zz o
Ġuti lis
Ġc ol
å¼ ı
áº¯ c
ĠãĤ ¤
p ri
ti co
Ġza p
ç« ĭ
l ine
ĠS ta
Ġpue de
ãĥ İ
ti ve
ĠS z
ãĤĮ ãģŁ
ow adz
æ Ĺ
a ire
Ġng Ãły
ĠPor no
Ġs al
Ġg ÅĤ
i x
Ġç §
d as
Ã¨ res
Ġ ãģ®
g el
Ġp ol
j i
am ento
ver s
èĢ ĥ
ĥ n
Ġm ay
Ġro ku
ãĤ ½
Ġ2 2
Ġdi ff
é£ Ł
Ġs te
Ã² n
éĿ ¢
an za
ĠV or
å İ
Ġm od
k s
ĠR Ã©
U R
Ġæ Ŀ
is te
a w
Ã¡ p
ãģĭ ãģª
ĠÅ ļ
iÄĻ k
Ð¸ ÑģÐº
Ð¸ Ð¶
ĠÐ¿ Ð¾ÑģÑĤ
Ñĥ Ð·
ÑĨÐ¸ Ð°Ð»ÑĮ
Ð¾Ð± ÑĢ
ĠÐ¼ Ð°ÑĤ
ĠÑĤ ÐµÐ¼
Ð¸Ð» Ð°
ĠÐ¿ÑĢ Ð¾ÑģÑĤ
ĠD i
ĠÐ¾Ð± ÑĬ
ÐµÐ¹ ÑģÑĤÐ²
ĠÐ¾ÑĢ Ð³Ð°Ð½
ĠãĤ ¨
ÑĤ Ð¸
Ġno tre
Ð¸Ð· Ð½
å¿ ĥ
ĠÐ²ÑĢÐµÐ¼ Ñı
Ñģ ÑĮ
Ġdi re
Ġv os
ĠÐ¸ÑģÐ¿ Ð¾Ð»ÑĮÐ·
Ð¸ÑĤÑĮ ÑģÑı
l u
ĠÐµ ÑģÐ»Ð¸
- -
ĠÑĥ ÑģÑĤ
ĠD Ã©
ĠF rance
æ ©Ł
ou le
ÅĤ am
á» ı
Ġst ron
f ec
Ġla v
æ ®
il d
ç ¥
l an
is se
Ġch i
o i
èī ¯
qu i
ãĥ ľ
ĠW WW
k ÅĤad
ĠG ratis
è «
Ġm as
Ġ" ,
ide o
å¼ ķ
Ġan s
Ġa Ã±os
ãĥ ļ
ĠD z
Ġå °
b ar
Ã© d
cz enie
l as
á»± c
ti ques
ä¿ ¡
c el
Ġgi or
æ´ »
lich en
Ġha cer
ier w
Ġch a
Ġp ub
ãģ£ ãģ¨
ur as
Ġm in
ĠUn ter
1 2
uy Ãªn
Ġv ol
Ĩ åĵģ
p ad
ĠD a
æł ¼
p s
x i
ãģķãĤĮ ãģ¦
s ten
ĠÃ© v
c tos
ĠC as
ãĥ ¤
c en
Ã³ l
Ġqu al
ĠãĤ Ĵ
Ġph áº£i
Ġr Ã³w
ĠÐļ ÑĢ
ÐµÑĢ Ð¸
ĠÑĥ ÑģÐ»
Ð¸Ñģ ÑĮ
ĠÑĩ ÐµÑĢ
ĠÐ¾Ð± ÑĢÐ°Ð·
Ñĥ Ð³
ĠÐ¿ÐµÑĢ Ð²
ĠÑĤÐ°Ðº Ð¶Ðµ
ÑĥÑī ÐµÑģÑĤÐ²
Ġau tres
ÐµÑĤ Ð°
Ð» ÐµÐ´
ĠÐ· Ð°Ð²
ãģĿ ãģĨ
Ð¾Ð½ ÑĤ
Ġcu i
ĠÐ½ Ð°Ð·
Ġå į
ĠÐ¼ Ð¸Ð½
Ð¼ Ð°
ut z
Ġe m
Ð°Ð½ Ð¸Ð¸
Ñĥ ÐµÑĤ
ci p
ĠÑģ Ð°Ð¹ÑĤ
çĶ °
ÑĥÑĩ ÑĪ
Ġg o
Ġw o
Ġ": "
for ma
Ġv iá»ĩc
Ġtam biÃ©n
ĠP r
ĠS o
ĠC e
/ /
re is
ãĤĭ ãģ¨
d es
k ty
m al
tr os
è² ·
Ã© lÃ©
ï¼ Ĵ
ĠW o
áº· c
ali dad
ãĤ Ģ
ig n
men ti
d ni
åĪ ©
Ġj us
Ġw eit
è §
O R
å §
ion es
Ġse mp
Ġv is
skie go
Ġw as
k Äħ
Ŀ Ģ
v is
ow ane
å¤ ī
Ġpar t
Ġi hr
Ġtien e
ĠP rze
ta re
æĺ İ
Ġin tÃ©
Ġd os
ĠJ ahr
ou n
ĠktÃ³ r
ĠE t
çĶ £
Ġj u
Ã Ĳ
ä» ¶
± c
Ġmej or
è¡ ¨
Ġpers onn
om b
und o
c or
Ġä¸ Ģ
Ġz osta
ĠW ir
z io
Ġãģĵ ãĤĮ
un e
Ġl u
ĠÑĤ ÐµÑħ
ĠÐºÐ¾ÑĤÐ¾ÑĢ ÑĭÐµ
ĠÐ¿ÑĢ Ð¸Ð½
Ð ĵ
Ð ĳ
ÑĨ Ð°
ĠÐ³ Ð¾ÑĢÐ¾Ð´
ĠÐ½ Ð°Ð´
ĠÐµ ÑģÑĤÑĮ
Ð°ÑĤ Ð¾ÑĢ
und en
ĠÐŁ Ð¾
Ð¼ Ð¾ÑĤÑĢ
ĠÐ´ Ð°Ð½
è¾ ¼
ĠÐ² ÐµÑĢ
Ġen f
ĠÑĤ ÐµÐ»
æ ¬
Ð° ÑĨÐ¸Ñı
Ð¸ ÐµÐ¼
le ich
ĠS u
ĠÐ¿ Ð¾ÑĤ
ĠÑĩ ÑĤÐ¾Ð±Ñĭ
ĠA u
Ð¸Ð½ Ð³
ãĥĨ ãĤ£
ĠÐ´ Ð¾ÑģÑĤ
m ie
áº± ng
ãĢ Ĥ
ale ment
Ġtr o
cz nie
Ġf ue
ĠI ch
Ġpar te
Ġãĥ ĳ
cj ÄĻ
çĽ ¸
el d
ĠB er
g ie
i le
ãĥĥ ãĥī
itÃ© s
æĦ ı
Ġw enn
Ġ ur
ri d
Ġãģĵ ãģ®
Ġp are
Ġa g
Ã³ Å¼
è» Ĭ
Ġth Ã¬
ĠS i
ĠãģĿ ãģ®
t z
Ġãĥ ª
Ġth Ãłnh
t ur
Ġsi te
ĠÃ º
Ġt i
Ġ2 5
ãĥķãĤ ©
I N
Ġ is
å¿ ľ
Ġa va
a uf
Ã³ r
ĠN ach
ÅĦ st
ĠãĤ Ń
Ġte mps
ĠM a
Ġb uen
Ġ ãģĦ
Ġg io
Ġ3 0
ãĤĵ ãģ§
Ġhá»į c
Ġby Äĩ
Ġè ĩª
etz t
t ant
ãģ¡ ãĤĥ
ĠL as
r it
ĠJ ak
Ġte Å¼
ãĥ» ãĥ»
on na
ich e
Ġwy b
¬ ¬
an as
Ġe le
ĠÐ¸ Ð³ÑĢ
ĠÑĢ ÐµÐ³
ĠÐ½ ÐµÐ´
ÑĨÐ¸ Ñİ
Ð» ÐµÐºÑĤ
Ð¼ ÐµÐ½
ĠÑĥ Ð¶Ðµ
ĠÐ± ÐµÑģ
ĠÑĩ ÐµÐ»Ð¾Ð²
ĠÐ¾Ñĩ ÐµÐ½ÑĮ
ĠH er
ĠÐ½ ÑĥÐ¶
Ð°Ñģ ÑĮ
Ð¾Ð½ Ð°
ãĤ ¶
ĠÐ´Ð¾Ð» Ð¶
g n
Ð¸ÑģÑĤ ÐµÐ¼
éģ ¸
ĠÐ¿ Ð°ÑĢ
ÑĢÑĥ Ð´
Ãº c
ĠmoÅ¼ na
_ _
Ð°Ñĩ ÐµÑģÑĤÐ²
on de
ĠÐ² Ð·
éĽ Ĩ
ÐµÐ½ Ð´
ier t
Ġm es
çķ ª
Ġc rÃ©
áº¡ o
ĠI ta
Ġd om
l er
Ġ2 1
æĸĻ çĦ¡æĸĻ
Ġn ost
ãģ ĸ
Ġw e
Ġte mp
I E
ÅĽ my
æĽ ¸
Ġpro pos
Ġä¸ Ń
Ġdo b
á»ĭ ch
A L
ãĥ¼ ãĤ¯
Ġres p
Ġse hr
wa Äĩ
ãĥ³ãĤ ¿
Ġtod os
Ġde gli
Ġ äº
Ġfil es
å ĥ
a ires
ĠF o
Ġcu ando
Ġil s
ie le
Ġw iel
é §
Ġan ni
ent ro
åĳ ³
sch en
Ġn ouve
Ġos ob
Ġqu y
il la
ãģı ãģł
an ta
Ġm ujeres
ie mp
Ġãĥ ©
Ġc er
ĠM o
åĭ Ļ
Ġcz ÄĻ
der n
ãģ«ãģ¤ ãģĦãģ¦
ĠÄĳ i
Ġda lla
Ġ} .
Ġv ie
Ġfor ma
Ġtra va
f ahr
Ġãĥ Ĺ
cz ÄĻ
ĠM ais
ĠV ous
å ŀ
Ġfiles _
Ġ201 7
Ġr u
ĠÐ¾Ð± Ñī
ĠÐ° ÑĢ
ĠÐ ĸ
ĠÐ¼ ÐµÑĤ
ĠÐ½Ð° Ñģ
ĠÂ» .
ĠÐ¿ÑĢ Ð¾Ð³
Ð¾Ð² Ð°ÑĢ
ĠÐ¾Ð± Ð»Ð°ÑģÑĤ
g ÅĤ
Ð°ÑĤ Ð°
Ð°Ð» Ð¸Ð·
ĠÐĿ Ð¾Ð²
æĥ ħ
ĠÑĢ Ðµ
Ġin c
ĠÐĺ Ð½
Ġãĥ Ī
ĠÑģÑĤ ÑĢÐ°Ð½
ĠÐ²Ñĭ Ð¿
Ġv iel
£ p
ÐµÐ½Ð¸ Ñİ
Ð°ÑİÑĤ ÑģÑı
Ġre g
ÐºÐ° Ñĩ
ãĢ ģ
ĠÑģ Ñĩ
ĠrÃ© s
Ġpo p
ãģ® ãģĭ
ter n
Ã´ n
ĠG es
er i
Ġpri x
ĠktÃ³ ry
3 0
Ġb as
Ġå ľ
ÃŁ e
odz in
Ġd ann
u al
ç ½
Ġas s
åĬ ł
ÃŁ en
dz ia
Ġf r
Ġan d
Ġ2 4
ĠÃ©ta it
Ġm u
Ġâ ĸ
v es
A T
ãĤ¤ ãĥ³
Ġh anno
ãģĮ ãģĤãĤĭ
C J
Ġk aÅ¼
iá»ĥ m
nie Å¼
Ġv i
os ten
ĠéĢ ģ
Ġz mi
ĠSp iel
p x
ĠS ain
in as
co re
Ġcon o
j our
ãĤĪãģĨ ãģª
ck en
ĠZ a
Ġn ad
ĠåĲ į
ĠA c
in t
æ¥ ½
ĠF ra
Ġtut ti
ĠÃ Ĺ
ll t
i or
æ º
ig ne
ĠT o
v ol
i tion
å± ±
Ġd od
Ġh asta
Ġt a
ãĤĪãģĨ ãģ«
Ġp u
te k
ÑĢÑĥ Ð¿
Ñĥ ÑģÑĤ
Ð°ÑĤ Ñĭ
Ð¾Ð± Ñī
Ñı Ð²
ĠÐ¿ÑĢ Ð¸Ð¼
ĠÑįÑĤ Ð¾Ð¼
ĠÐ¼ Ð¾Ð³
ĠÐ¿ Ð¾ÑĢ
ÑĢÐ° ÑĦ
k om
ÑģÐº Ð¸Ðµ
ĠÐ°Ð² ÑĤÐ¾Ð¼
ĠÑĢ ÐµÑĪ
ĠãĤ Ĥ
Ð»Ð¸ Ð²
Ġc el
ĠÑģ ÐµÐ±
ãĤģ ãģ¦
ĠÐľ Ð¾ÑģÐº
Ð» ÐµÐ¼
i gen
om o
ÑĥÑĢ Ñģ
Ð½ Ð°Ðº
Æ¡ i
Ð¾Ð· Ð´
ãĥª ãĤ¢
ĠÐ¿ Ð¾Ð½
Ġk a
ĠÃ© c
Ġå ¹
Ġs olo
Ġf ir
wia d
Ġser vi
Ġgr and
Ã¶ glich
éĽ »
Ġw ÅĤ
ãģĹ ãģĭ
at to
Ġb on
Ã© g
p u
ĠãĢĳ ãĢĲ
d ia
Ġæĸ °
h ne
Ġ Å¼
Ã¢ m
ãĥĥãĤ¯ ãĤ¹
Ġv ia
z u
v el
éģ ĵ
a Äĩ
Ġd onn
åĲ Į
ħ n
Ġæľ Ģ
Ġb er
ni kÃ³w
p uis
iá»ģ n
m bre
Ġh ier
æŀ ľ
Ġu Å¼y
ng en
Ġæ ĺ
c co
Ġn eces
t in
ĠTh e
un k
åķ ı
Ġper met
Ġn Æ°á»Ľc
Ġdu e
Ġç§ ģ
Ġtak Å¼e
Ġen c
Ġ ãģ¯
Ġl ui
b ur
ĠãĢ ı
ll er
en ne
Ġæ °
ut as
ĠN e
ĀĀĀĀ ĀĀĀĀ
ĠV ideos
é ¨
Ġes p
ĠR o
li w
ãĤĪ ãĤĬ
Ġre la
z Äħ
ĠÐ¢ Ð°Ðº
ÑĮ Ñİ
Ð ¤
Ð½Ð¸Ðº Ð¾Ð²
ĠÂ» ,
ĠÑı Ð²Ð»Ñı
ĠÐ¼ Ð°Ð³
ĠÐ² Ð¾Ð´
ÑħÐ¾Ð´ Ð¸Ð¼
Ð¾Ð² Ð°ÑĤÑĮ
te il
Ð¾Ð¿ÑĢ Ð¾Ñģ
ĠÐ¾ÑĢÐ³Ð°Ð½ Ð¸Ð·
Ð½ ÐµÑĤ
ãģ¨ ãģ¯
ĠÐ´ ÐµÐ½ÑĮ
skie j
ĠÐŁ Ð¾Ð´
Ġ: //
ĠÐ±Ñĭ Ð»Ð¾
ĠÑĢÐ°Ð· Ð²
uy á»ĩ
Ġwie der
ĠÐ· Ð´
ĠÐ²Ð¾Ð· Ð¼Ð¾Ð¶
ia l
Ð¾ÑĢ Ð¾ÑĪ
ãģ Ĳ
Ð½Ð¸Ðº Ð¸
Ġa ff
el b
1 5
Äħ Å¼
ĠEs ta
Ġsch on
áº¯ t
Ġpri ma
Ġwur de
Ġè ²
ad y
è¨ Ń
an os
Ġc li
ĠC OM
t Ã³w
¢ º
Ã© tÃ©
ãģł ãģ£ãģŁ
ĠU ne
ĠC o
Ġb us
ç Ĭ
c ch
Ġh an
Ġ it
ç İ
Ġst r
wi er
Ġå Ī
Ã¡ y
ãĥ¼ãĤ ¿
it as
it es
es so
en tos
ĠW ar
eni u
åĵ ¡
f ic
áº¡ t
ãĥĥ ãĥģ
Ã¼ s
an ces
Ġt en
re ich
Ġtr ans
çĤ ¹
a zione
ĠrÃ³w nieÅ¼
g no
Ġæľ ¬
ĠDi es
em me
Ġâ ĺ
Ġk m
om me
1 6
pp o
ost ÄĻp
Ġç µ
Ġt iemp
ran Ã§
Ġt iáº¿
ca to
ãģıãģł ãģķãģĦ
it u
wiÄħ z
ĠÂ °
ç ³
Ġa voir
Ġso ll
ĠÐķ ÑģÐ»Ð¸
Ñĥ Ð»Ñı
ĠÑĩÐµÐ»Ð¾Ð² ÐµÐº
ĠÑģÐ» ÑĥÑĩ
ĠÐ±Ñĭ ÑĤÑĮ
ÑİÑĤ ÑģÑı
ĠÐ²Ñĭ Ñģ
ĠÑĦ Ð¾ÑĢÐ¼
ĠÐ· Ð°Ð´
ĠÐ±Ð¾Ð» ÐµÐµ
Ġcu al
Ð¼ ÐµÐ½ÑĤ
ĠÐĴ Ñģ
Ðµ ÑĦ
Ġh tt
ĠÑĢ ÐµÐ·
dzie j
ĠÐ¼ Ð½
ç ®
ĠÐ¿ÑĢ Ð¸Ð²
ĠÐº Ð²
il itÃł
O W
ĠÐ¿ÑĢÐµÐ´ ÑģÑĤÐ°Ð²
ĠÑģ Ð¸ÑģÑĤÐµÐ¼
ÅĽ l
Ð¸Ð½ Ðµ
å± ĭ
ĠÐ· Ð°Ð¼
ĠN ous
Ġmol to
è º
Ġs ous
Ġg ut
Ġh i
l Ã¤
t rze
il idad
æĸ ĩ
áº© m
åŀ ĭ
at ta
Ġ \"
cz nych
titu tas
Ġå ½
ĠU ni
Ġç ´
Ġs áº£n
l au
mp le
å ĸ
Ġp ierw
á»ģ n
ad ores
æ° ´
Ġ201 8
m Ã©
ç ĿĢ
h eit
é ĺ
Ġques ta
u dad
ĠÃ© g
Ġc en
Ġv om
Ġsp e
æ ¨
ĠB ar
Ġd onde
ãģĳ ãĤĭ
d zy
Ġder ni
Ġin di
ĠZ eit
ÃŃ cul
ãĥĥ ãĤ·
cze g
Ġ0 9
Ġt Ã´i
ãģ« ãģĬ
Ġab b
tion en
Ġãĥ ı
in si
ĠP od
ãĤĴ è¦ĭ
A D
Ġse x
ãģĵ ãĤį
ll as
Ġch ÃŃnh
is ti
ĠV o
ç´ Ħ
Ġbe au
Ġpra w
ĠU m
ãģĦ ãģ¾ãģĹãģŁ
ar es
b be
Ñı Ð´
Ð¾Ð² Ð°
ĠÐ¾ ÑģÑĤ
Ðº Ð°Ð·
Ð¾Ð± ÑħÐ¾Ð´Ð¸Ð¼
ĠÑģÐ» ÐµÐ´
ÑģÐº Ð¸Ñħ
ĠÐº Ð°ÑĩÐµÑģÑĤÐ²
Ð¸ Ð½Ð¾
Ð¿ÑĢ ÐµÐ´
os e
ÑĤ ÑĢ
ĠÐ¿ÑĢÐ¾Ð¸Ð· Ð²Ð¾Ð´
Ð°Ð¶ Ðµ
è² ©
ÑĮ Ñı
ĠÃ© le
ĠÐ¾ Ð½Ð¸
Ġå Ĩ
ĠÐ¿ÑĢÐ¾ ÑĨ
Ðº ÑĢÐ°
esz cze
Ġim mer
ÐµÑģ Ð¿
Ð» Ð°Ð¹Ð½
a p
ÑĤ Ðµ
é¡ Į
Ð Ĺ
áº¥ n
Ġal gun
ä» ķ
jÄħ ce
ad e
Ã¤ ch
Ġin f
b les
Ġz w
ãģ§ ãģĹãģŁ
u ti
ä¸ ĩ
Ġpr os
ist as
ch es
Ì Ģ
åĪ ĩ
Ġqu an
ãģĹ ãģı
l ti
cz as
b il
æ ħ
ĠSain t
Ãª te
m ar
è µ
hr en
ĠL o
ãĥ³ ãĤ¹
el o
åľ ¨
Ġph o
ia ÅĤa
le t
ou l
ĠC ar
r Ã¡
ãĥķãĤ ¡
ation s
Ġod powie
Ġï¼ Į
Ġx u
ĠS car
c c
ĠS te
Ġve z
ãģ® ãģĮ
Ġp on
Ã´ tel
eu t
ãĥ¼ãĤ ·
g ia
el n
éĢ £
Ġs h
Ġen core
Ġãĥ ĩ
Ã± a
Ġa prÃ¨s
ç Ĺ
c Ã³w
at ti
id as
Ġ ï¿½ï¿½
ãģĳ ãģ©
á»Ļ c
in der
ĠC am
ãģ¨ ãģª
ÅĤa t
ÃŃ n
ĠÑĥ Ð²
Ð¼ Ñĭ
Ð¾Ð² Ð¾Ð¹
ĠÑĩ ÐµÐ¼
ĠÐĿ Ð¾
ÐµÐ½ Ð½ÑĭÑħ
ÑģÑĤ ÑĢÑĥ
ÐµÑĤ Ñĭ
Ð· ÑĭÐ²
Ð¾Ð½ Ð¾Ð¼
ĠIta lia
Ð°ÑĢ Ð¸
ĠÐĲ Ð½
ĠÑģ Ð´ÐµÐ»
çµ Ĳ
ĠÐ¸Ð¼ Ðµ
Ġsu lla
Ð¸Ñı ÑĤ
ãģĳ ãģ¦
Ð°Ð½ Ñģ
ĠÐ¿ Ð¾Ð¿
Ġd onc
ier en
Ġâ Ħ
ĠÐ¿ÑĢ Ð¾ÑĤ
Ġza w
Ð¾Ñģ Ð¾Ð±
ç¶ ļ
ĠÑĤ ÐµÑĢ
ĠP os
iv re
ĠI D
l Ã¨
ia d
u ta
Ġr y
Ġl ie
ti cos
ãģ İ
de m
ãģĭ ãĤĬ
z ie
Ġm al
z n
Ġtiemp o
çĶ º
Ġsta to
ãĤ¤ ãĥ«
Ã Ĭ
áº« n
Ġp ay
Ġé ĩ
as t
ami ento
Ġ2 3
ãģ® ãģĬ
Ġk il
f ach
ãģ ¶
Ġsemp re
æĻĤ éĸĵ
Ġgi bt
Ġre ali
Ġnh Ã¢n
k ol
Ġmo g
d io
Ġãĥ Ľ
Ġc ada
Ġtut to
ãĤĵ ãģł
Ġcon f
m it
Ġm il
Ġhá» £p
d t
å ¢
Ġj ue
i an
Ġpor que
ãĥ³ ãĤ¯
n os
Ġpub b
Ł ³
Ġa h
Ġl oro
1 1
ou te
Ġl l
æľ ī
ĠN am
Ġje go
Ġor g
ta g
ĠãĢ İ
Ġh Æ¡n
ĠB es
I S
© ļ
Ġch am
ĠÃ §
ĠÐ¸ Ð³
ÑĢÑĥ Ð·
ĠÐ½Ðµ Ð¾Ð±ÑħÐ¾Ð´Ð¸Ð¼
ĠÐµ ÑīÐµ
ĠÐłÐ¾ÑģÑģ Ð¸Ð¸
Ð» Ð¾Ð¶
ĠÐ± ÑĢ
Ð² ÐµÑģÑĤ
Ñı Ð±
ĠÑĤ Ð¾Ð¼
Ġf on
Ð°Ð½ Ð°
ĠÐ¿Ð¾Ñģ Ð»Ðµ
Ġ201 6
Ġé Ľ
ĠÐ¸ ÑģÑĤ
ĠW as
ĠÑĤ Ð¾Ð³Ð¾
ĠéĢģ æĸĻçĦ¡æĸĻ
ĠâĦ ĸ
Ð¾Ð¶ Ð´
czne j
un to
ĠÐĶ Ð»Ñı
ÑĢ ÐµÐ´
Ġentre pr
ĠÐ° Ðº
å Ĥ
ÐºÐ°Ñĩ Ð°ÑĤÑĮ
Ġf ois
Ġcon tra
æ Ĥ
ĠD o
wa Å¼
g r
Ġo Ã¹
Ġa tti
c tor
å¿ ħ
I C
ãĢ į
ĠA d
ur ante
Æ° a
Ã¤ l
èª ¿
ĠE x
ãģ«ãģª ãĤĭ
ar ge
ow ym
ion s
Ġãĥĸ ãĥ©
trz ym
Ġs ia
Ġc our
ãĥ¬ ãĤ¹
Ġan der
ĠÄĳá»ĭ nh
Ġç Ľ
Ġm nie
ãĥ¼ãĥ Ħ
Ġz am
ĠO n
ti cas
ta li
ch Ã©
j u
æĮ ģ
Ġf ar
Ġgr an
å ³
it er
hl en
w or
Ġau tre
Ġs inh
äº ¬
ion i
en a
Ġ, "
çµ Į
k ar
Ġemp res
ãģ§ ãģĤãĤĭ
er w
ri o
¢ ¨
Ġjed nak
Ġha ce
ãĥ¼ãĤ «
Ġhab e
Ġg Ã©n
Ġd ru
áº£ ng
æ ĭ
Ġg en
j os
za ciÃ³n
ãĥĶ ãĥ¼
ĠÃ§ a
Ġgra tu
ĠÐ¿Ð¾ Ñĩ
ÐµÐ½Ð¸ ÐµÐ¼
Ð°Ð» Ð¾
ĠÐ»Ñİ Ð´
ĠÐŁ ÐµÑĢ
Ñĥ Ð²
Ð½Ð¸Ðº Ð°
Ð¾Ñı Ð½
ĠÑģÑĤ Ð¾
ĠÐľÐ¾ÑģÐº Ð²
it y
Ð°Ð» Ð¾Ð³
ĠÐ¼ Ð¾Ð´
ĠÑģÐ¿ Ðµ
å¾ Ĺ
ĠÐ¿ÐµÑĢ ÐµÐ´
Ġ0 6
ÐµÐ½ Ð½ÑĭÐµ
ãĤ ´
ĠÐº Ð°ÑĢÑĤ
Ð¾Ñģ ÑĥÐ´
to ire
Ġs ar
Ð½ ÐµÐµ
ĠÐ¾Ñģ Ð½Ð¾Ð²
Ġ rze
ĠÐŃ ÑĤÐ¾
å° ĳ
ĠÐ½Ð° ÑģÑĤ
ĠK on
Ġd ÃŃa
ãĤ¤ ãĤº
Ġs enza
ĠrÃ© p
h nen
Ġ0 1
rÃ© e
ĠÃ ľ
äºº æ°Ĺ
Ġzna j
Ġcol or
Ġpu Ã²
Ġa y
Ã µ
Ġcon ta
åł´ åĲĪ
Ġngh iá»ĩ
å ģ
ĠK om
Ġes pe
Ġnom bre
è ±
Ġwy kon
Ġdies e
w et
ĠæĹ¥ æľ¬
ta to
Ãª m
åĲ ĳ
Ġpros titutas
ãģ®å ¤
tor ia
ĠW e
Ġs to
ĠC u
Ġcom ment
.. ..
Ġãģ ©
5 0
Ġav ant
è¿ ĳ
ĠD eut
et as
ĠÄĳá» ģ
ar ro
Ġn eu
ãĥ¼ ãĥ³
Ġc ie
Ġun o
im mer
Ġj p
Ġm ir
ei te
éļ Ľ
ou pe
od y
éĩ İ
p f
l us
ãģ§ ãģĹãĤĩãģĨ
Ã©r ie
z eit
d Äħ
Ġcom un
c m
Ġ0 4
Ġ201 9
Ġm et
å· ¥
sch ie
m an
ĠÑĥÑĩ Ð°ÑģÑĤ
Ð¾Ð²Ð°Ð½ Ð¸Ðµ
ĠÐ² Ð¾Ð¿ÑĢÐ¾Ñģ
Ð³ Ð¸
ĠÐº Ð¾Ð³Ð´Ð°
ĠÑĤ Ñĭ
ĠÑģ Ð¾ÑģÑĤÐ°Ð²
Ð¾Ð» Ñı
ĠÐ´ ÐµÐ¹ÑģÑĤÐ²
ĠÐ¿ÑĢ Ð¾Ð±
ka z
ĠÐ° Ð´
Ð¼ Ñĥ
ĠÐ¸Ð½ ÑĦÐ¾ÑĢÐ¼
Ġãģ¾ ãģŁ
ĠÐ¾Ð½ Ð»Ð°Ð¹Ð½
ĠPar is
ÑĢÐ° Ñī
Ġ", "
ĠÑħ Ð¾ÑĢÐ¾ÑĪ
ĠÐº Ð°Ð¶Ð´
Ġm at
ĠM i
ĠÐ¼Ð°Ð³ Ð°Ð·
ĠÑįÑĤ Ð¾Ð³Ð¾
ca tion
ĠÐ² Ðº
é¨ ĵ
Ð½ Ð¸Ð¼
jÄħc ych
v ent
Ġå Ľ
á»¥ c
id os
cz ny
al t
gg ia
ob a
ä» Ĭ
Ã¤ hr
ï¼ ģ
Ġh e
p y
er os
Ġkh o
çī ¹
Ġs obie
ãĤ» ãĥĥãĥĪ
Ġin cl
Ġcon c
rÃ³ d
ãĥĥ ãĤ°
Ã¤ ng
n el
k ich
æŁ »
aus s
Ġm er
ä½ į
ĠdÃ© p
éģ ķ
ca l
Ġpra c
Ì £
Ġm Ã¬nh
is z
ĠF or
çķ Į
v ia
ar ia
ãĤµ ãĤ¤ãĥĪ
l in
Ġc ao
l ie
Ġla t
qu ier
èī ²
c teur
il les
ĠI m
ł ´
Ġsp ra
ĠV iá»ĩt
åı Ĺ
uy á»
tiv os
ãģ¨æĢĿ ãģĦãģ¾ãģĻ
ich er
f in
ãģķãĤĮ ãģŁ
Ġac qu
Ġk u
ka ch
ce p
çĦ¡ ãģĹ
ĠÃ £
á»ĳ t
ĠU hr
Ġé «ĺ
Ġde puis
Ġas ÃŃ
ĠÐ½ ÐµÑĤ
Ð»ÐµÐºÑĤ ÑĢ
ĠÐ» ÑĥÑĩÑĪ
Ñĥ ÑģÐº
ĠÐ±Ñĭ Ð»
ĠÐĲ Ð»
Ðµ ÑģÑı
Ñı Ð¼
ĠÐ· Ð°ÑĢ
Ð¾Ñģ Ð¿
ge b
Ñį ÑĤ
ĠÐºÐ¾ÑĤÐ¾ÑĢ ÑĭÐ¹
Ð° Ñİ
å¥ ½
ĠÐµ Ðµ
Ġa by
? ?
ãģĹ ãģ¾ãģĹãģŁ
ĠÐ±ÐµÑģ Ð¿Ð»Ð°ÑĤ
ĠÐº ÑĥÐ¿Ð¸ÑĤÑĮ
is mo
Ġ0 7
Ð¾ Ñħ
ĠÑĤ Ð¾Ð²Ð°ÑĢ
an is
ÑıÑĤ ÐµÐ»ÑĮ
Ġé ģ
Ġu04 3
ĠÄĳá»ĵ ng
Ġg ar
å· Ŀ
is sen
Ġn Ã©
te go
en o
idad es
Ġa Ã±o
äº Ī
szy ch
ç³ »
Ġn Ãªn
Ġl ors
Ġsu a
ĠW er
Ĵ Į
ĠP e
å Ļ
Ġes to
z ei
Ġmay or
åı £
li zza
p od
ĠS h
ä¼ļ ç¤¾
it z
Ġo hne
éĩ į
Ġpos si
ç¤ º
Ġg ru
ĠJ a
Ġmo ins
i O
p raw
Ġmá» Ľi
éĻ Ĳ
Ġte j
ĠS al
Ġãĥ Ń
Ġv ida
Ġg ro
en di
Y W
ty w
Ġå ¥
á»ĳ n
Ġd ro
i co
èª į
as s
Ãº b
æ¯ Ľ
Ġg er
ll os
å³ ¶
Ġcomm un
Ġmi esz
åıĸ ãĤĬ
Ġin forma
Ġthe o
ff en
Ġa insi
åı ¤
li z
a ta
ĠÃľ ber
Ġãģ ķ
ĠÃ©g alement
Ġsam o
ÐµÑģÑĤÐ² Ð¾
ĠÐ´ Ð¾Ðº
ĠÑĢ ÐµÐº
ÐµÑĤ Ðµ
ĠÐ²Ð¸Ð´ Ðµ
Ðº Ð¾Ð¼
Ñı Ñī
Ñĭ Ð»
Ð°Ð»ÑĮ Ð½ÑĭÐ¹
Ð¾ÑĢ Ð¾Ð²
Ġsu o
ÐµÑĢ ÑĤ
ĠÐĲ Ð²
ĠÐļ Ð¾Ð¼
Ġ ãģĮ
Ð½Ð¾Ð¼ Ñĥ
ci r
ÑĥÑĤ ÑĮ
ãĤ¹ ãĥĨ
ĠÐ² Ð°ÑĪ
Ð³ Ð¾ÑĤÐ¾Ð²
Ġj eszcze
ich tig
ÑĦ ÑĦ
ĠÑģ Ð¾Ð·Ð´
ĠR es
ĠÐ½ ÐµÐ¿
ãģķ ãģĽ
ÐµÑĢ Ñĭ
al mente
Ġdz iaÅĤ
åĪ ¥
Ġd nia
ĠM er
Ġsu is
m ble
Ġperson as
ĠC zy
ãģ® æĸ¹
Ġg dy
ä» ĭ
Ġc Ã²n
zion ale
es sion
u tion
Ġæ ĻĤ
ĠG esch
ãĤ ®
ĠÃ© qui
g lia
ĠCh at
ãĥ¼ãĥ ĳ
om bre
Ġin s
Ġc Ã¡ch
¤ ľ
Ġfo ll
ci dad
èº «
Ġi ma
Ġf are
ki m
ĠHo tel
Ġ ãģ¨ãģĦãģĨ
is es
elb st
i ci
è³ ª
Ġm y
Ġd y
ne hmen
pp e
ãģ® ä¸Ń
Ġr Ã³Å¼
Ġme di
f a
Ġtr as
è§ £
Ġi d
iá»ĥ n
Ġre p
f ol
Ġ $
Ġ0 8
R E
L E
ãĥĹ ãĥª
cri ption
ist ra
Ãµ es
ranÃ§ ais
å Ħ
Ġre ci
Ġme ille
Ġje j
c ora
ĠAr beit
w ert
b ei
Ġd ont
Ġo fer
ĠÐĲ ÑĢ
Ð» Ð¾Ð²
ĠÐ¾ÑĤ Ð½Ð¾
ĠÐ¼ÐµÐ½ Ñı
ĠÐ° ÐºÑĤ
ĠÐ· Ð°Ð±
Ð¾Ð» Ð¾Ð´
ĠÑĦ Ð¾ÑĤ
ĠÐĿ Ðµ
Ð°ÑĤ Ð¸Ð²
Ġw eb
Ð¸ÑĤ ÐµÐ»Ñı
ÑĨ Ñĭ
ĠÐ¶ ÐµÐ»
éħ į
Ð¾ Ð½Ñĭ
ĠPr odu
ÐµÐ½ÑĤ Ð¾Ð²
Ġun ser
Ð°Ð»ÑĮ Ð½Ð¾Ð³Ð¾
ÐµÐ½ Ð½ÑĭÐ¹
Ġk eine
p ra
Ð¸ÑĤÐµÐ»ÑĮ Ð½Ð¾
ĠÐ¿ÑĢÐ¾Ð³ ÑĢÐ°Ð¼
Ġc al
ĠÑĢÐ°Ð±Ð¾ÑĤ Ñĭ
å® ¹
ĠÐ³ Ð¾ÑĢ
Ġ201 5
Ġc ze
ĠÂ ¹
Ġth áº¿
Ġl ong
æĥħ åł±
ti r
ÄĻ d
Ġç ī
Ġv ideo
Ġm ich
an cia
m ein
w as
Ġar tic
ĠD ans
ĠãĤ ¸
Ġw ÅĤa
v id
Ã³ j
ĠH and
Ġãĥ Ģ
Ġb i
Ġf un
Ġmon de
é§ ħ
éĩ ı
ti ge
h a
Æ°á» Ł
Ġs zy
ç ı¾
Ġf uer
r Ã¤
j ours
Ġpra cy
an k
Ġk ar
ãĥ³ãĤ º
li o
ta tion
ÃŃ o
ĠB ei
s ione
n ÄĻ
Ġc ul
ç ¢º
ĠÃ ´
hal ten
s to
Ġcon tre
Ġfo tos
v ar
è£ ½
Ġog ni
ãģ¦ ãĤĤ
1 8
c ado
ggi or
ãĤį ãģĨ
v or
Ġcer ta
iá»ĥ u
Ġå Į
ĠS an
ĠwiÄĻ cej
Ġac tu
Ġè ¦
m t
Ġe qui
çĬ ¶
ÅĽ nie
Ð¾Ð» Ð¾Ð²
Ð¸ÑĩÐµÑģÐº Ð¸Ðµ
Ġ0 5
ÐµÑĢ Ð³
Ð¸ÑĩÐµÑģÐº Ð¸Ñħ
ĠÐ³ Ð´Ðµ
ĠÑĢ Ñĭ
Ð¿ ÐµÑĢ
ÑĪ Ðµ
ĠÐ¼Ð°ÑĤ ÐµÑĢÐ¸
di ng
ĠÑħ Ð¾ÑĤ
ĠÑģÐ² ÑıÐ·
Ñı Ð½
ĠC or
ĠÐ¿Ð¾Ð¼ Ð¾Ñī
ier z
ĠÐ» Ð¸ÑĨ
Ġs ol
ÑĢÑĥ Ð¶
Ð°Ð»ÑĮ Ð½Ð¾Ð¹
ãģ¨ ãģĭ
ĠæĿ ±
ĠÑĨ Ð²ÐµÑĤ
Ð¼ ÐµÑģÑĤ
es e
ĠÐŀ Ð´
ç¾ İ
ĠÑģ Ð¾ÑģÑĤ
Ġby ÅĤo
å° ı
Ġser a
Ġenc ont
Ġs á»Ń
Ġa k
il s
w al
æŃ £
ec to
t kow
Ġma in
Ġon line
ĠB o
Ġå ¾
ÃŃ an
ãģ®å ı
ni ki
os a
è ĳ
li er
ma t
ĠN on
Ġ: )
dz iaÅĤ
Ġre cher
ç½ ®
ti gen
Ġ0 2
Ġde v
Ġd á»±
Ġtemp o
ia da
æ Ļ
it Ã¤t
Ġch er
Ġpe w
çľ Ł
sion i
r ÄĻ
et s
ĠT ra
Ġmis mo
pp ort
ãĥ³ãĥ Ĺ
Ġc Æ¡
Ġpr in
ĠUn d
gen d
s iÄĻ
ç· ļ
bur g
ech o
ï¼ ĵ
çļĦ ãģª
Ġge gen
ĠÅ ģ
Ġcon tro
end ant
Ġw ym
Ġs au
p on
Ġx xx
Ġm undo
ĠEn t
ĠR om
Ġv al
Ġst an
cia les
Ġd ar
ĠG i
Ġau to
Ð¼ ÐµÑĤ
ÐµÐ½ Ð½Ð¾Ð¹
Ð¾ÑģÑĥÐ´ Ð°ÑĢ
Ð¿ÑĢÐµÐ´ ÐµÐ»
Ð½Ð¾ÑģÑĤÑĮ Ñİ
ÐµÐ³ Ð¾Ð´
Ġ1 00
ĠÐ¸ ÑģÐº
Ð½ Ð¸Ð¹
ĠÑĢ Ñĥ
ä¸ ĸ
Ð¸Ð± Ð¾
ĠÑģÐ¾ Ð¾Ð±Ñī
ÐµÐ½ÑĤ Ð°
ĠprÃ© s
ÑĨ Ð¸Ð¹
Ġpro pri
ÑĥÐ± Ð»Ð¸
za cji
ÐµÐ½ÑĤ ÑĢ
Ñ ĸ
Ġc v
v ier
ĠÑıÐ²Ð»Ñı ÐµÑĤÑģÑı
ĠÑģÐ¿ Ð¾ÑģÐ¾Ð±
Ġu ma
ĠÐ¿ÑĢÐ¾ ÑĦ
Ġl igne
ĠÐ¾ Ð½Ð°
Ġtr Æ°á»Ŀng
ĠO r
iÄĻ dzy
v ir
ãģı ãģª
ĠC a
Ġse con
ãĥ³ãĥ Ĩ
Ġt ener
Ġswo je
ä¸ »
Ġci udad
Ġh er
Ġle urs
s I
Ġjak o
Ġdi ver
ĠÂ ¡Â
Æ°á»Ł ng
Ġdies er
ï½ Ĺ
æ ¼
Ġtou te
ow Äħ
Ġï¼ ı
Ġãĥ» ãĥ»ãĥ»
åħ Ī
l ung
Ġlu gar
Ġso it
Ġpom o
in ter
Ġn ei
1 9
Ġthá» Ŀi
Ġ201 4
Äħ c
é ¦
ĠB et
Ġp ia
sch ein
Ġin i
ouve z
è Ħ
Ġsp os
st ru
ĠãĤ ¿
ste ll
åı¯ èĥ½
I T
ti vi
Ġm ein
Ġ5 0
ra is
fÃ¼ hr
ĠC z
Ġ0 3
Ġa ch
Ã Ĵ
áº¿ u
Ġpos i
ol or
ra i
Ã³w i
Ġpla ce
rze da
k er
èª ŀ
Ġc it
L CJ
czy Äĩ
Ġc ent
ĠÐ´ Ð°Ð¶Ðµ
ĠÐ´ Ð¸
ĠÑĩÐµÑĢ ÐµÐ·
ĠÐ» Ð¸
ĠÐ¡ Ð¿
ÐºÐ° Ñħ
ÑĨ ÐµÐ½
Ð°Ð»ÑĮ Ð½Ð¾
Ð°Ð»ÑĮ Ð½ÑĭÐµ
ĠÐ½ÑĥÐ¶ Ð½Ð¾
Ġein fach
ÑĨ ÐµÐ²
ĠÐŁÑĢ Ð¸
ĠÑĤ Ð¾ÑĢ
ne ment
ÑĢ Ð¾Ñģ
ĠM en
ĠÑģ ÑĥÐ´
j as
ĠÐºÑĢ Ð°Ñģ
ĠÐ¡ Ð
nym i
mp re
Ð¸ÑģÑĤ ÑĢÐ°
ĠÐ¶ ÐµÐ½
áº¡ nh
ÐµÑĢ ÑĪ
Ġ2 8
ĠÐ¸ Ñģ
li que
g ÃŃa
c un
vel o
w ania
ĠF re
d or
Ġr áº¥t
Ġtout es
eit en
Ġk li
ãģ«ãģª ãģ£ãģ¦
om mes
Ġal tri
è² »
je m
Ġo tros
ue il
:: ::
ãĥ¼ãĥ Ĺ
Ġ2 6
Ġar ri
cz u
ĠI hr
ĠãĤ »
Ġby ÅĤ
åĻ ¨
ĠZ u
Ġ2 7
Ġte ch
rÃ© s
ãģª ãģĮ
Ġda ll
Ġth Ã´ng
ch te
Ġv a
Å¼ a
Ġh or
uch t
Ġ ãģŁ
Ġsp raw
el a
ãĤ¿ ãĤ¤
ĠScar pe
es ta
å¸ ¸
g ung
ie dy
cia le
Ġg ener
Ġtrava il
Ġt our
Ġz n
in n
Ġthá» ±c
Ġp owie
ent lich
Ġdo po
ran k
ç´ ł
paÃ± a
ni ca
Ġn u
Ġi hre
ãĤŃ ãĥ£
ang e
Ġne ll
Ġpa ÃŃs
w iÄĻ
çµ Ħ
ĠrÃ© g
á»© ng
ĠÐ³ Ð»
Ð¾Ð± Ð°Ð²
ĠÐ· Ð°Ð½
ĠÐ¿Ð¾Ð· Ð²
ĠÐ³Ð¾Ð´ Ñĥ
ĠÐł Ð°Ð·
ĠÐ¾ÑĤ Ð²ÐµÑĤ
Ð¸ÑĤ ÐµÐ»ÐµÐ¹
ĠÐĺ Ð·
Ð¸Ðº Ð¾Ð²
ĠK o
ĠÑĢ Ð°Ð¹
ĠÐ¼ Ð¸ÑĢ
Ġ. ,
am b
Ð¼ Ð¸Ð½
Ġ201 3
ĠÐ²Ñģ ÐµÐ³Ð¾
Ġb ra
ÑĢ Ð°Ð±Ð¾ÑĤ
Ð¾Ð´ Ð°
ãģ® ãģ§ãģĻãģĮ
Ġæ ¥
ĠÐŁ Ð¾Ñģ
ĠÐ¾Ð±Ð»Ð°ÑģÑĤ Ð¸
Ġfon ction
Ð¿ Ð¾Ð»
Ġç Ħ
ÐµÐ½ Ð¾
cz ki
ãģĶ ãģĸ
é Į
si mo
ĠP re
Ġthá» ©
Ġs tu
res s
t ent
ãģķãĤĮ ãĤĭ
Ġdzie ci
Ġge w
ĠM ujeres
Ġest Ã¡n
es te
å¼ ·
Ġtr ze
ĠdÃ© b
ĠãĤ ¦
Ġg u
Ġche z
ãĤ³ ãĥŁ
ar zy
Ġdiff Ã©r
Ġk le
Ġpr odo
ãĥ³ãĥ ģ
Ġlav oro
dem Ã¡s
Ġæ Ń
Ġb ud
Ġpos s
ĠF l
ãģ£ ãģ
ãĥ¼ãĥ ĸ
Ġ( "
Ġj a
Ġsz czeg
Ġen cu
oun d
æĿ Ĳ
Ġmais on
ä¾¡ æł¼
ar y
è ı
ĠgÃ©n Ã©ra
Ġh Ã¬nh
ä½ ı
Ġnas ze
Ġm ie
Ġa nge
v itÃł
ĠI hre
Ġsp Ã©
Ġn Ã£o
tr as
Ġm us
Ġv ita
Ġd ou
Ġå ¼
Ġpro p
p l
Ġk re
Ã ĭ
æĦŁ ãģĺ
ĠÄĳ iá»ģu
ĠG er
Ġmo is
Å ģ
) ;
ÅĽ wiet
czne go
Ð°Ð´ Ð¸
ĠÑĥÑģÑĤ Ð°Ð½Ð¾Ð²
ÑģÐº Ð¾Ð¼
Ð² Ð¾ÑĢ
ĠÐ³ Ð»Ð°Ð²
ĠÐ¿Ð¾Ñģ Ð»ÐµÐ´
Ð°Ð¹ÑĤ Ðµ
ĠÐºÐ» Ð°ÑģÑģ
ĠÐ² Ð°Ð¼
Ð¾ÑĢ Ð¸Ð¸
Ġl ÃŃ
ÑĭÐ¼ Ð¸
Ð¾ÑĢ Ð°
ĠÐ¿Ð» Ð°Ð½
s ter
ĠÑĨ ÐµÐ½
ter e
Ð¸Ð» ÑģÑı
re z
ÑĢ Ð¾Ð¿
ĠÐ¾Ñģ Ð¾Ð±
ä½¿ çĶ¨
ĠãĢģ ãĢĮ
ĠÑģ ÐµÐ¼
ĠÐ± Ð°Ð½
Ġs eine
Ð°Ð»ÑĮ Ð½ÑĭÑħ
çŃ ī
ĠÐ²Ñģ ÐµÑħ
ĠMad rid
ãģ¡ ãĤī
å¸ ĥ
Ġtrab aj
Ġt Ã©lÃ©
Ġtro va
ni co
Ã Ķ
ĠÂ £Â¬
ä¾ Ľ
á»ķ i
ĠR a
Ġd ÅĤu
Ġtou jours
Ġu lti
Ġ ãģ«
Ġm uss
Ġmuch o
1 7
D F
Ġo c
ãģ¨ ãģĵãĤį
ĠL and
al ne
Ġp ou
h i
ãĤ ¡
Ġp uis
tow e
ãģĹãģ¦ ãģĦãģ¾ãģĻ
ĠJ u
Ġm om
Ã ĸ
Ġk á»
dad es
ouv elle
k l
con tre
as se
ĠP a
ãģ ²
cz na
ĠãĢ ľ
åĮ º
Ġ Ã¡
Ġmo i
Ġna wet
Ġava it
Ġï¼ ĳ
è£ ħ
und e
åĪ Ŀ
Ġwy k
g ro
Ġweit er
ĠÃº lti
Ġquel ques
ĠH a
Ġl in
æĹ¥ æľ¬
Ġdi fer
us t
Ġb ou
Ġt in
Ġâĸ ł
ka uf
d re
Ġna le
Ġk ein
ãĥ© ãĤ¹
Ġc an
ĠA s
ÐµÑģÑĤ Ð¸
ĠÐ¿ Ð¾Ð»ÑĮÐ·
Ñĭ Ñĩ
ÐµÐ³Ð¾Ð´ Ð½Ñı
Ð¸ Ñī
ĠÑģÐ¾ Ð¾ÑĤ
Ñı Ð¶
ĠÐ ®
Ð°Ðº ÑĤÐµÑĢ
ÑıÐ± ÑĢÑı
ta ciÃ³n
ĠÐ¼ ÐµÐ´
ĠÐŁ Ð¾Ð»
Ð» ÐµÐ¹
Ġimp ort
ĠÐ· Ð½Ð°Ñĩ
ei ÃŁ
ĠÐ· Ð½
ta j
Ñı Ñģ
ĠÐ¿ÑĢÐ¾ÑģÑĤ Ð¾
ãĥŃ ãĤ°
Ġ ãģª
ÑĥÑĢ Ñĭ
Ð°Ð» ÑģÑı
anie m
ĠÐ½Ðµ ÑģÐº
å ²
ĠÑĤÐµÑħ Ð½
Ġz wei
ãģ© ãģĨ
çĦ ¶
Ġko lej
uyá»ĩ n
Ġav is
ĠktÃ³ ra
c oup
O L
Ġ: #
zz i
ĠSe x
Ġsu per
kom men
Ġf am
Ġso cial
ĠÂ ½
Ã Ģ
ä» ĸ
áº¡ ng
Ġpro je
ī ĭ
Ġb u
Ġpro jet
di en
Ġ201 2
g ht
Ġtak ie
ĠÃ Ģ
æµ ·
sk ich
ar on
ck e
gra m
t our
ĠH aus
ig er
I A
ĠQ ues
tif s
æĪ ¦
ÅĤa w
Ġwy so
ãĤī ãģĦ
ãģ§ãģĻ ãģŃ
Ġf aut
o k
Ġf re
1 4
çļĦ ãģ«
p ro
Ġprzy pad
Ġe au
ĠÂ ³
á»į n
ĠE uro
us am
á» £
Ġ2 9
Ġpo li
éĥ ½
cel ona
Ġtrab ajo
ien do
is ter
ol es
ces o
Ġbei m
ĠÅĽ rod
t on
Ġæ Ĭ
te z
ĠÐ³ Ð¾Ð²Ð¾ÑĢ
ĠÑĥÑģÐ» Ð¾Ð²
ĠÑĪ ÑĤ
Ð¸ÑĩÐµÑģÐº Ð¾Ð¹
ĠÑį Ð»ÐµÐºÑĤÑĢ
ĠÐ¾Ð´ Ð¸Ð½
Ð² Ð°ÑĢ
ĠÐ² ÐµÐ´
ĠÑģÐµÐ± Ñı
Ġ Ñİ
èª Ń
ĠÐ½ Ð¸Ðº
ÑĢÑĥÐ¿ Ð¿
Ð¸Ð½ Ñĥ
Ġch icas
ĠÐ¾ÑĤ ÐºÑĢ
c an
ĠÑģÐ»ÑĥÑĩ Ð°
Ġv iÃªn
ĠÐ¼ Ð½Ð¾Ð³Ð¾
Ð¾Ð² ÑĭÐµ
Ġz ro
ãģŁ ãģ¡
Ð´ ÐµÑĢÐ¶
ĠÑĤÑĢ ÐµÐ±
Ġvo ir
Ð¾Ñĩ Ð½Ð¾
Ġer a
Ð¸ÑĢÐ¾Ð² Ð°ÑĤÑĮ
n is
Ġprof ession
Ġc ro
Ġd ni
ĠW ie
t k
Ġes o
Ġh is
Â µÃ
Ġkh Ã¡ch
ĠL ie
Ġd am
Ġt anto
ad en
Ġal ors
ãĥĸ ãĥ©
ĠF Ã¼r
Ġi tali
Ġå ī
pr owadz
åħ ·
Ġan cora
c ur
osten los
Ġâ Ļ
1 3
æ± º
h Ã¶r
O U
Ġcel a
Ġest u
Ġl Ã½
iÄĻ ki
ie urs
g ni
a ck
te d
å½ ¢
Ġsy ste
k te
ĠÅĽ wia
åİ Ł
Ġinc ont
Ġein es
Ġvá» ¥
Ġj ou
ti ci
Ġc ab
åı ·
Ġm am
Ġpow in
tÃ© s
om e
Ġle g
Ń Ĳ
ĠLe ben
w is
x t
çĽ ´
ĠâĢĿ ,
Ġd ist
Ġg anz
l and
è ĸ
ĠãĤ ±
Ġqu a
å§ ĭ
ri er
ĠP rzy
v Ã©
ka mi
schl and
Ð°ÑĤ ÑĢ
ĠÐ¿ÑĢÐ¾ ÐµÐºÑĤ
ĠÐ¸Ð½ÑĤÐµÑĢ Ð½ÐµÑĤ
ÐµÐ½ Ð½Ð¾Ð³Ð¾
ĠÐ²ÑĭÑģ Ð¾Ðº
Ð¸ÑĩÐµÑģÐº Ð¸Ð¹
ĠÐ¼Ð¾Ð³ ÑĥÑĤ
Ð½ Ð¸Ðµ
ÑģÐ» ÐµÐ´
ĠÐ¿Ð¾Ðº Ð°Ð·
Ã§ Ãµes
ĠÑĢ Ð¾Ð´
ĠÐ´ Ð¾Ð¿
ĠÐ¸Ð½ÑĤÐµÑĢ ÐµÑģ
p iel
Ð¾Ð² ÑĭÑħ
b ili
ÑĢÑĥ ÑĪ
I D
Ð ¯
ĠÐ¾ÑĤ Ð´
ãĤ ©
Ġsie mpre
Ð¾ ÑĦ
ĠÐ·Ð°Ðº Ð°Ð·
i k
Ð° Ñī
ĠPos tÃ©
ĠÑģÑĤ ÑĢ
ta ire
gu a
ãģĵãģ¨ ãģ¯
Ġk ra
r er
ĠB r
Ġris p
å¿ħ è¦ģ
c Ã©
f all
ta dos
Ġc Ã¹ng
as i
Ġd urante
eu te
e ur
di tion
ist es
z d
ĠnhÆ° ng
cj on
Ġde ut
Ġpersonn es
ãĥ¡ ãĥ³ãĥĪ
Ġwar to
ci miento
ĠK inder
è ĭ
ow any
ber g
Ġni Å¼
Ġan no
Ġfin den
eit s
Ġåħ ¨
Ġdes arro
qu er
Ġo per
ãĥķ ãĤ£
Ġpro g
Ġh ui
ĠM il
Ġque llo
ci u
ãĤ¤ ãĤ¯
ĠãĤ Ħ
ĠÂ ¼
Ġph áº©m
Ã³ lo
Ġdo ve
ãĥ¼ãĥ ĵ
Ã ī
t te
enie m
al a
omb res
ãģĺ ãĤĥ
ãĤ· ãĥ£
ĠB us
Ġcu enta
Ġc áº¥p
id Ã©
Ġpo zy
ĠK ar
ãĥ³ãĤ ¸
p t
ãĤ ²
ĠG u
Ġp es
å ©ļ
ĠP ers
Ġç Ļ
ÐµÑĢ Ðµ
Ð± Ñĭ
ĠÐ½ Ð¸
ÑĥÑĢ Ð³
ĠÐ³ Ð¾ÑģÑĥÐ´Ð°ÑĢ
Ð² ÐµÐ´
ĠÑĩ Ð°Ñģ
ĠÐ¼ ÐµÐ¶Ð´
ĠÐº Ð°ÑĢ
ĠÑģÐº Ð°Ð·
Ġpro ble
ÐµÐ· Ð´
ĠÐ£ ÐºÑĢÐ°
Ð¾Ð³ Ð»
Ġãĥ Ŀ
ÑģÑĤÑĢ Ð¾Ð¹
å ¡
ĠÐ¶ Ð¸Ð²
m ment
ĠÐ´ Ðµ
ĠÐ¾ÑĤ Ð·ÑĭÐ²
ç ¸
ĠD am
ĠÐº Ð½Ð¸
Ð¾Ð½ Ðµ
åĪ ¶
ÑįÑĤ Ð¾Ð¼Ñĥ
ra it
ĠÑĢÐ°Ð·Ð² Ð¸ÑĤ
jÄħ cy
g ang
âĢ ¦
áº¥ u
I ON
Ġn elle
Ġf e
Ġp ues
Ġwy s
ãĥ¥ ãĥ¼
ç¨ ¿
é ¤
ĠU na
* *
Ġex e
r en
ãģª ãģĭãģ£ãģŁ
t ni
Ġb et
Ã» t
Ġf al
Ġpro b
Ã Ĥ
å ĩ
Ġtr Ã¬nh
we ise
u ka
ãģĦ ãģĨ
in di
pu Ã©s
sta w
Ġu cz
Ġth is
Ġj ours
Ġãĥ Ł
ĠD onna
Ġm odo
Ã© v
ç ¯
pe ÅĤ
Ġc oup
Ġqu Ã©
Ġin d
bi or
ãĥ³ãĥ Ģ
ãĥ© ãĥ¼
z pie
h m
á» «
d Åº
ãģªãģĮ ãĤī
gu i
ct ri
wi ck
ĠN aj
Ġqu ando
åı İ
åħ ¬
Ġs ais
ĠE st
c is
ĠÄĳ ang
ich te
Ġos Ã³b
ãĤ¿ ãĥ¼
ĠP DF
è ĩ
Ġpay s
Ġnue vo
ãģ¨ ãĤĤ
ĠS er
Ġãĥ ī
ÐµÑĢ ÑĮ
Ġ4 0
ĠÐ¼Ð½ Ð¾Ð³
ĠÐ· Ð²
ĠÐĴÑģ Ðµ
ĠÑĤ ÐµÐ¿
ĠÑģÐ¾Ð¾ÑĤ Ð²ÐµÑĤ
Ð¸ÑĩÐµÑģÐº Ð¾Ð³Ð¾
ĠÐ´ ÑĢ
ÐµÐ½ÑĤ Ñĭ
ul ar
ĠÐ±Ñĭ Ð»Ð¸
Ñĥ ÑĢÐ°
ĠÑĢ ÐµÐ±
Ġãĥ Ļ
ÐµÐ´ Ð¸ÑĤ
Ġå ¯
Ð· Ñĭ
ei m
Ð°Ñı Ð²
Ð°Ð» Ð¸ÑģÑĮ
Ġc ir
Ġãģ Ķ
ĠÐĵ Ð»Ð°Ð²
ÑĤ Ð°
¥ ¿
ĠÑĢÐ°Ñģ Ñģ
ĠP reis
ĠÐ¾ÑĤ Ð»Ð¸Ñĩ
Ã ģ
Ġh Ãłnh
sch e
y ste
ÅĤu g
ter ior
Ġex per
g s
Ã¤ h
ãģ¾ ãĤĬ
c cia
ï¼ ķ
Ġãĥ ģ
Ġpo trze
si Ã³n
c le
Ġé Ŀ
c Äħ
Ġs owie
b u
ĠnÃ³ i
Ġt an
ĠW enn
Ġå º
T O
ich i
ĠA m
Ġb ack
ĠL i
Ġmen os
ta ble
Ġs ÅĤ
ĠÃ© tu
Ġ osta
è Ĭ
ar se
Ġsp iel
ach t
çĻ »
Ġza ch
Ġver s
ĠÂ ±
Ġl Ãªn
Ġf atto
ãĥķ ãĥĪ
ĠãĤ °
Ġqui en
Ġte c
Ã§ a
ĠD I
çµ Ĥ
c ina
o re
ĠP l
ow iÄħ
auf en
éĮ ²
å¤ ©
Ġann Ã©e
f ten
ig lia
iá» ħn
v ie
Ġv rai
è¡ ĵ
ci Äħ
é ¢¨
Ġbeau coup
ar beit
åĬ ¹
Ġcom pr
Ġ ãģ§
ĠÑĢÐµÐ· ÑĥÐ»ÑĮÑĤ
ÑħÐ¾Ð´ Ð¸ÑĤ
ÐµÐºÑĤ Ð¸Ð²
Ð°Ð½ Ð¸Ð¹
ÐµÑĢ Ð¾Ð²
ĠÐ½ ÐµÐ¼
ĠÐ´ Ð¾ÑĢ
ÑĢ ÐµÑģ
ĠÐ¿ÑĢÐ¾ÑĨ ÐµÑģÑģ
ĠÑĦ Ð¸Ð»ÑĮ
ĠOn line
ĠÐ¿ÑĢÐ¾Ð± Ð»ÐµÐ¼
ĠÐº Ð°Ð·
ĠÐ±Ð¾Ð»ÑĮÑĪ Ðµ
ãĥĨ ãĥ«
Ð°ÑĤ ÐµÐ»Ñı
ier ung
ĠÐ²Ñĭ Ð±
Ġwy d
Ð°ÑĢ Ð°ÐºÑĤÐµÑĢ
ĠÐ¼ Ð½Ðµ
ãĤģ ãĤĭ
Ġe je
ĠÑģÑĤ Ð¾ÑĢ
ĠÐ½Ð° ÑĢ
Ġb iáº¿t
ĠÐ½ Ð°Ð»
Ġqu alitÃ©
Ð½ ÐµÐ²
èĤ ²
Ġs elbst
Ġres ul
Ġe ur
y w
Ġo re
èģ ŀ
ti ng
Ġinforma ciÃ³n
ĠprÃ© sent
å »
Ġpo i
ĠwiÄĻ c
Ġg us
Ġtra v
ÃŁ er
ri r
Ġpropri o
O D
Ġs tos
Ġãĥ Ĩ
Ã ı
á»ĵ i
uf f
æ Ĵ
Ġ" )
j az
Ġa o
ĠH e
Ġkh Ã¡c
ci do
Ġw el
con om
w id
l le
Ġè ª
l ub
un que
ãģĤ ãģ£ãģŁ
w ni
2 5
æ³ ¨
ĠN eu
Ġper chÃ©
gi que
t ÄĻp
ï¼ Ī
c ca
b au
è ·
Ġpa g
Ġp utas
ĠCon ta
Ġes tar
Ġuns ere
v ano
ĠÅ »
ĠCom ment
a ga
n et
Ġpeti t
Ġprin cip
Ġj etzt
ĠWar sza
Ġorg ani
ĠD u
Ġg esch
ãĤ¤ ãĥ³ãĥĪ
Ġå° ı
Ġg el
Ġ0 00
ar go
ĠÐ¼ Ð°Ð»
Ñĩ Ð°Ñģ
ĠÐ±ÐµÑģÐ¿Ð»Ð°ÑĤ Ð½Ð¾
ĠÐ¿ÑĢÐ¾ÑĤ Ð¸Ð²
ĠÐļ Ð¾Ð½
Ð¾ÑĤ Ð°
ĠÐ¾ Ð¿ÑĢÐµÐ´ÐµÐ»
ĠÐ½ Ð¸Ñħ
ĠÐ» ÐµÐ³
ÑĨ Ðµ
Ġat ten
Ð¾ÑĤÑĢ ÐµÐ±
ĠÑĥ Ð»
ĠÐº ÑĤÐ¾
æľ ¨
ĠÐº Ð°ÑĤ
ĠI I
Ð´ Ð¸Ð½
ÅĤo Å¼
Ð»Ñı ÐµÑĤ
4 0
æ ¶
auss ures
ĠÑģÑĤ ÑĢÐ¾
ÐµÑĢ Ð±
g as
ÐµÑĩ ÐµÐ½Ð¸Ðµ
m is
ÑĢ Ð°Ñģ
åķ Ĩåĵģ
ķ ç¨¿
ãģ» ãģ©
ck er
ch ten
ãĥ³ãĤ ·
ĠÂ ¡
szy m
v re
at t
ĠQ ue
v il
Ġdies em
Ġs itu
æĿ ±
Ġch Ãºng
in en
Ġhtt p
ãģ« åħ¥
l s
wa ÅĤ
cu la
b ra
èŃ ·
Ġs ido
on der
d f
Ġd ur
åı °
ur y
is ten
éģ İ
I L
Ġcon na
Ġph Ã¡t
ĠP L
sz ta
Ġt uo
ķ Ĩåĵģ
ãĤī ãĤĮ
Ġus ta
Ġcas a
Ġf ranÃ§ais
Ġpr owadz
Ġdes s
Ġn um
Ġt ych
ãĤĵ ãģ§ãģĻ
éĢ ²
Ġet was
Ġll am
Ġpas s
ãģª ãģ®ãģ§
g leich
Ġé ĸ
on ych
ãĤı ãģĽ
y age
Ġp el
ĠVer s
c olo
Ġl Æ°á»£ng
Ġe mb
ff e
Ġna u
Ġs ab
le c
Ġæ µ
ãģĵãģ¨ ãĤĴ
es en
Ġde j
Ġcon se
ÑĢ Ðµ
ĠÐ¿ÑĢÐ¸Ð¼ ÐµÐ½
ĠÐ¸ Ñİ
Ð° ÑĨÐ¸Ð¾Ð½
ĠÑĤ ÑĢÐ°Ð½
ĠÐ¾ ÑĦ
ĠÐ¼ ÑĥÐ¶
ĠÑĥÑģÐ» ÑĥÐ³
ÐµÐ² Ð°
ĠÑģÑĤ Ð°ÑĢ
Ġes per
Ð°Ð» Ð¾ÑģÑĮ
ĠÑģÑĤ Ð°ÑĤÑĮ
ĠÐ± Ð»
y t
ĠÑĥ ÑĢÐ¾Ð²
cu er
Ð¸ÑĤ Ñĥ
Ã¤ s
ĠÑĥ ÑĤ
ĠÐ´Ð¾Ðº ÑĥÐ¼
ÅĦ ski
ãĥ¼ãĥ ŀ
ĠÐľ Ñĭ
Ð «
ĠrÃ© alis
ĠÐŀ Ñģ
odz ie
Ð¸ÑĩÐµÑģÐº Ð¸
Ġy o
á»ĩ nh
Ġcomp le
ĠA nge
ĠçĦ ¡
Ġj eu
Ġe uro
ãģĤãĤĬ ãģ¾ãģĽãĤĵ
Ġnouve au
ĠS tu
ĠâĢ ¢
us es
Ġra g
Ġo tro
w es
Ġsp rzeda
r ow
ĠF r
v ere
áº¯ n
Ġmi es
Ġb ie
Ġse gu
Ġemp lo
Ġcas o
æ® µ
ĠdÃ© velo
li ng
Ġbes te
ãģ£ãģ¦ ãĤĤ
Ġpue den
ãģį ãģŁ
Ã³ ng
Ġdz i
Ġin sta
el on
Ġè ¿
h and
00 0
Ġå® Ł
la ge
p es
Ġ\" :
li ka
u he
os i
åĪ© çĶ¨
em mes
c re
ti mm
Ġv ille
á»ĵ ng
si ÄħÅ¼
Ã© m
ze m
ãģĮ ãģĤãĤĬãģ¾ãģĻ
h o
Ġg dzie
Ġca p
ĠÃ Ķ
ĠTe il
Ġes e
ĠbÄĻ dÄħ
áº£ m
ta ts
ĠB ild
Ġo ko
Ġal go
u a
Ġander en
è¶ Ĭ
ĠC ette
ĠÑĪ Ðº
ĠÐ¸Ð· Ð¼ÐµÐ½
Ð°Ð» Ð¸ÑģÑĤ
Ð°Ðº Ñģ
ĠÑįÐº ÑģÐ¿
ĠÐº Ð»Ð¸
Ð¾Ðº Ð°
Ð¼ Ðµ
ĠÐ½ Ð°Ð¼
ĠÐ² Ð¾Ð»
çĶ ·
ĠÐ³ ÑĢÑĥÐ¿Ð¿
ĠÐ· Ð°ÑıÐ²
Ð¾Ð¶ Ðµ
ç ²
Ð¡ Ð¢
ne a
Ðº Ð°Ð¼Ð¸
Ġjak ie
ĠÐŀ Ð½
Ð¾Ð³ ÑĢÐ°ÑĦ
Ġqu and
Ġra pp
ÐµÐ¹ ÑĩÐ°Ñģ
ĠÑįÑĤ Ð¾Ð¹
éģ Ķ
ĠÐ±Ñĭ Ð»Ð°
ĠâĢĿ .
ĠÐ½Ð° ÑħÐ¾Ð´
Ġt om
¼ åħ¥
ĠA k
Ġac tiv
å® ¢
ĠDa ten
ĠDeut schland
iss ance
Ġtr atta
ĠB l
Ġrecher che
gr ound
ãĥĲ ãĥ¼
ãģ® ãģ«
l tre
j Ãł
Ġte ng
Ġn Ãło
ĠâĢ »
æł ¡
ol le
e z
I jo
S I
t ki
ä»ĺ ãģį
en den
å ĴĮ
Ġz wiÄħz
ti er
l y
æķ Ļ
Ġd it
Ġszy b
iste ma
Ġf our
Ã¶ s
Ġpho to
ĠM as
Ġse a
Ġa nh
Ġnaj lep
ces so
T E
en ces
ge ben
ä¼ļ ãģĦ
sze j
ãĤĤ ãģĹ
lan c
Ġc et
ob ier
it re
Ġc áº§n
ille t
ta ch
Ġcos Ã¬
b el
ãģĦãģŁ ãģł
æĦ Ľ
â Ķ
ç¨ ®
Ġtod a
Ġplus ieurs
g esch
ta le
Ġso tto
olo gi
y a
ĠP f
9 9
ĠgÅĤ Ã³w
ĠÐ¼Ð¾Ð¶ÐµÑĤ Ðµ
Ðł Ñ
Ñĥ ÑİÑĤ
ĠÑĥ Ð¿ÑĢÐ°Ð²
ÑĢ Ð¸ÑĤ
ĠÑĤÐµÐ» ÐµÑĦ
ĠÐ½ ÐµÐº
ĠÑįÑĤ Ð¾ÑĤ
Ðº Ð¸Ð¹
Ð¾Ð» Ð¶
T A
ĠÐºÐ² Ð°ÑĢÑĤ
ÑģÐº Ð°Ð·
ĠÐ² ÑĤÐ¾ÑĢ
Ġpo co
ĠÐ¼ Ð°ÑĪ
ãģ¡ãĤĥ ãĤĵ
ĠÐ¿ÑĢ Ð¾Ñģ
Ġback ground
Ð¸Ð¼ Ð¾ÑģÑĤÑĮ
ĠÐ°Ð²ÑĤÐ¾Ð¼ Ð¾Ð±
¹ ä»ĭ
ei ra
Ġ" .
ÑĢÑĥ Ð±
ãĤī ãĤĮãĤĭ
ÐµÐ³ Ð´Ð°
ab a
ĠÐ¶ Ð¸Ð·
ĠP ra
om i
ĠGr und
um e
åħ ĥ
Ġprof es
Ġdis pos
Ġge ht
Ġko ÅĦ
ĠSt ra
und a
ä»¥ ä¸Ĭ
Ġm Ã¡y
ta t
Ġd ostÄĻp
ci Ã©tÃ©
Ġne ue
Ġtod as
ite ment
Ġmo y
ĠA uto
Ġte le
äº ¤
Ġn Äĥng
j ou
ĠGe w
Ġorg anis
in os
ãģĦ ãģı
ãģ® ãģ§ãģĻ
owa ÅĤ
ab e
ĠIn ter
sch ei
è¿ Ķ
Ġave z
ĠL A
Ġl ib
¬ ĳ
è¼ ī
Ã ĥ
ĠÄĳ Ã¢y
ãĤĬ ãģ¾ãģĹãģŁ
Ã´ t
u ales
v as
uje my
Ġca ÅĤ
li ck
qu Ã©
Ã¼ ber
Ġes tos
Ġlá» Ľ
Ġtr ois
Å¼e j
ãģĹãģŁ ãģĦ
Ġ <
ĠV al
ta d
èª ¬
Ġpod r
und es
Ġk iedy
ç´ °
ĠK le
Ġfo to
Ġartic le
Ġen vir
it t
ãĥ¼ãĥ Ĩ
or y
ãģĻ ãģĻ
ĠÐ² Ð°Ñģ
Ð¾Ð´ Ð°ÑĢ
ÑĭÐ² Ð°ÑĤÑĮ
ÑĥÐ»Ñı ÑĢ
ĠÑģÐ¾Ð¾ÑĤÐ²ÐµÑĤ ÑģÑĤÐ²
ĠÐ¼ Ð°ÑĢ
ĠÐ´ ÐµÐº
Ð½ Ð¸Ñħ
ĠÐ¿ÑĢÐ¾ ÑĪ
ĠÐ¿Ð¾Ðº ÑĥÐ¿
è« ĩ
Ð°Ð½ Ñĭ
Ñĳ ÑĤ
Ð°Ð½ Ð¾
Ġqu anto
ĠÐ¾Ð± ÑıÐ·
ãģ®å ħ
Ð¾Ñı Ñī
Ġma chen
Ð¾Ð´ ÐµÑĢÐ¶
ĠÐ½ Ð°Ð±
Ġse m
Z W
ĠÐ¼ ÐµÑģÑı
Ñĥ Ð¹
be zpie
Ñĥ Ð»Ð¸
T I
ĠÐ·Ð° Ñī
Ġmon do
Ġservi ce
at ur
Ġtr Æ°á»Ľc
ca m
Ġcual quier
jÄĻ cia
Ġpremi er
éĸ Ģ
Z X
Ġ rz
æĥ ³
Ġhat te
Ġd ÃŃas
od i
ãĥĩãĤ£ ãĥ¼ãĤ¹
ãĤĴæ Į
Ã ¯
a ti
Ġti po
ĠMen schen
ĠwÅĤ as
ãģ§ãģį ãģ¾ãģĻ
Ġbes o
ÄĻ t
Ġf u
ta ge
cj al
ĠåĲį çĦ¡ãģĹ
æŃ ©
se mble
Ġt Æ°
ĠJe an
ĠP lus
ta mente
æ ģ
Ġp ouvez
k re
ad ora
Ġav ons
2 2
ãĤ¯ ãĥª
Ġsu ite
qu ÃŃ
ĠS tar
Ġè »
Ġnie z
Ã³ a
b ild
ĠT ag
Ġk ier
8 0
id ent
Ġpro y
äº Į
ĠE ste
cyj ne
Ã¨ le
6 0
ĠA pp
ĠdÃ© jÃł
ĠD la
ĠÃ ĸ
Ġw ra
é¡ į
Ġmom ento
r Ãª
ru ck
ãģĹãģ¦ ãĤĤ
cj Äħ
ve au
è¨ ¼
Ð¸ ÑĦ
ÐµÑģÑĤÐ² Ð°
Ð¸ÑĤ ÐµÐ»Ð¸
Ñĥ ÐµÑĤÑģÑı
ĠÐ¶Ð¸Ð· Ð½Ð¸
Ð° ÑģÐº
ĠÑģ Ð½
ĠÐ¾Ð± Ð¾ÑĢ
ĠÐºÐ¾Ð¼Ð¿ Ð°Ð½Ð¸Ð¸
ĠÑĥ Ð³
Ġah ora
Ð°ÑĤÐµÐ»ÑĮ Ð½Ð¾
ĠÑģÐ² Ð¾Ð¹
ĠÐ¾ Ð³
n ung
ĠÐ¿ÑĢ Ð¸Ñĩ
idad e
ĠÐ» Ð¸ÑĪ
on as
7 7
ĠÐ´ ÐµÐ²
ĠÃ ½
z ien
Ð Ļ
ĠÑģÐ»ÑĥÑĩÐ° Ðµ
z immer
ĠÐ¿ Ð¾Ð³
Ġdo ch
ÐµÐ´ ÐµÑĢ
Ġnuo vo
Ġprodu its
ãģĿ ãģ®
ch a
en z
Ġsar Ãł
Ġch at
ĠS in
Ġf er
Ġå ·
ĠM us
ç§ ģ
Ġsy st
Ġspos Ã³b
Ġm Ã¼s
l ar
åĤ Ļ
Ġal tro
Ã ĵ
c ort
us o
Ġx e
Ġc ours
Ġwszyst kie
åĥ ı
Ġof re
la g
Ġk osz
åį ĺ
Ġcha que
ze ich
Ġmi gli
Ġp df
Ġjus qu
Ġm ujer
Ġar t
Ġk olor
ãĥ« ãĥĪ
ĠA le
Ġgr ande
å¤ļ ãģĦ
gl Äħ
åħ ī
ĠOd powie
I i
Ġma jÄħ
Ġpri mo
ch ts
Ġes cri
Ġnh áºŃn
Ġa lles
Ġ201 1
eu re
in ie
Ġcom ent
ĠI N
Ġi ng
kt Ã³w
ĠWo hn
r ent
Ġè ¨
ra g
ĠU S
m on
å£ «
Ġgi Ãł
wÃ³ j
Ġsi to
ãģį ãģ¾ãģĻ
d ÄĻ
Ġdam it
Ġsamo ch
Ð¸Ð² Ð°ÑĤÑĮ
ĠÐ·Ð°Ðº Ð¾Ð½
Ð ¬
ÑĭÐ² Ð°ÐµÑĤ
Ð°Ð»ÑĮ Ð½Ð°Ñı
Ð¸Ð² Ð°ÐµÑĤ
ĠÐ¡ Ð¾
Ð½ Ð¸Ñĩ
ĠÐ¿ Ð¾Ð±
ĠÐºÐ¾Ð¼ Ð¿Ð»
ei ro
__ __
ĠÐĲÐ» ÐµÐºÑģ
Ð¿ Ð¸Ñģ
ĀĀĀĀĀĀĀĀ ĀĀĀĀĀĀĀĀ
-- --
Ġi de
ĠÑģÐ» ÑĥÐ¶
ĠÂ ´
ĠÐ¼Ð°ÑĤÐµÑĢÐ¸ Ð°Ð»
Ð¸Ð¼ ÐµÑĢ
Ã ĩ
ĠÂ ·
ĠÑĢÐ°Ð· Ð»Ð¸Ñĩ
ÑĥÑĤ ÑĢ
Ã Ī
ĠÑħ Ð°ÑĢÐ°ÐºÑĤÐµÑĢ
6 6
ĠÑĩ Ð¸Ñģ
Ġnghiá»ĩ p
è Ĳ
Ġp Ãºb
Ġg leich
Ġse u
Ġtut te
Ġde be
v in
ĠRe g
ar Ã³w
Ġch áº¥t
ç ĻĤ
Ġpers one
Ġenf ants
éĻ ¢
Ġpe li
zÄħ dz
m ann
ĠV i
Ã¡ g
s ÅĤ
Ġf Ã¼
Ġm áº·t
Ġh Ã´tel
k owe
ãĤ· ãĥ§
aj a
Ġå ĩº
ar Ã¡
Ġç ¬¬
orzy st
et er
èģ ·
é¡ ŀ
au te
am o
al itÃł
Ġren contre
iss ion
Ġna m
ĠP ero
Ġpro pr
Ġin nych
Ġan tes
è» ¢
Ã¤l t
Ġfa ci
¿ Ģ
ĠF a
Ġb á»Ļ
st Ã¤n
Ġi ci
æĮ ĩ
ĠE N
p ues
ĠwiÄĻ k
elle ment
men tos
çĻ ½
ãģĻãģĻ ãĤģ
èī¯ ãģĦ
Ġcon di
za hl
è¶ ³
et tes
åĢ ¤
Ġra p
Ġv iele
áº¡ ch
b ilitÃł
ãģ¨ ãģį
Ġprimer a
ĠÐ¾Ð± ÐµÑģÐ¿
ĠÑĢ ÑĥÑģ
Â µ
ĠÐ± Ð»Ð°Ð³
Ð» Ð°Ð¼
ĠÐ¿ÐµÑĢ ÐµÐ²
ĠÑĤ Ð°Ð¼
ÑĢÐ° Ñħ
ÑĢ Ð¾Ð±
ĠÐķ Ð²
Ã© ro
ÑĢ ÑĭÑĤ
ÑĢÐ° ÑģÑĤ
Ð°ÑĤ Ð¾Ð²
g io
ĠÑģÐ¾Ð± ÑģÑĤÐ²ÐµÐ½
Ġob ie
ÐµÑĤ ÑĢ
ĠM an
Ð¸ÑĤ Ð°
ĠÐºÐ¾Ð» Ð¸Ñĩ
ãĤĪ ãģŃ
Ġæ° ´
ĠÐ¿ÑĢ Ð°ÐºÑĤ
Ð¾Ð² Ð°Ñı
Ġc r
ĠÐ³ Ð¾ÑĤÐ¾Ð²
ĠSu jet
ÑĨÐ¸ Ð¿
res se
Ġ ãģĹãģĭ
Ġtá» ±
Ġnuest ro
ĠrÃ© f
Ġn or
ĠP as
Ġtr op
äºº ãģĮ
id er
ĠE ine
ĠRo z
áºŃ y
ĠT ak
Ġcomp te
éģ ĭ
ĠÃ©qui pe
cze j
ĠPers on
Ġs ti
um p
li ÅĽmy
Ġdo it
tiv as
ĠktÃ³r ych
á»¯ a
ãģĹãģ¦ ãģĬ
obier no
na ge
ter ia
un ter
ĠS a
ãĥ¼ãĤ« ãĥ¼
Ġpart ie
Ġtien en
ĠL u
endi ta
ti che
æı Ľ
ç´ ¹ä»ĭ
ĠâĻ ª
æ¸ Ī
Ġxu áº¥t
Ġz ad
Ġpol ÃŃ
w anie
ta ti
ck ie
Ġob je
ri ng
ãĥ¼ãĥ ©
Ġri cer
an Äħ
Ġh in
ĠA ve
ĠM on
ĠRom a
Ġqu indi
ãĥĹ ãĥ¬
å¼ µ
Ġmog Äħ
ĠS ur
Ġn ouvelle
Ãº t
Ġsta ta
Ġm Ã¶glich
Ġp en
ãģį ãģª
o t
ph one
ãĥ¼ãĥĵ ãĤ¹
iv el
ÑĥÐ½ Ðº
ĠÐ¾Ðº Ð°Ð·
ÑĥÐ· Ñĭ
Ð¾Ð´ Ñĭ
ĠÐ² Ð¾ÑĤ
ÑĢÐ° Ñĩ
ĠÑĥ Ð·
Ñĥ ÐºÑĤ
Ð ¥
ĠÐº Ð°Ð¼
èĳ ī
Ð° ÑĨÐ¸Ñİ
ĠÑį ÑĦÑĦ
ĠÑģÑĤ Ð¾Ð»
Ġsa voir
Ð» ÐµÐº
Ġv Ã¬
ĠÑģ Ð¾ÑĤ
Ġsch ne
ĠÐ¡ Ð°Ð¼
ÐĿ Ðĺ
Ġwie le
Ġman era
ĠÐ°ÐºÑĤ Ð¸Ð²
ĠÐ½ÐµÑģÐº Ð¾Ð»ÑĮÐºÐ¾
Ġentrepr ise
ÐµÐ½ Ñģ
¦ ı
ĠÑı Ð·Ñĭ
Ġpe que
Ã¨ ne
åı Ĥ
tik el
Ġm eine
Ġb ene
Ġlo ka
ĠEl le
Ġâĺ ħ
ĠãĤŃ ãĥ£
ĠSta dt
u la
Ġé £
Ġcos a
ãĥ¼ãĥ Ĳ
ÅĽ wiad
c Ãª
u da
or te
Ġk inh
ĠÃ ¤
Ġb a
Ġmej ores
ä¸Ĭ ãģĴ
Ġtr es
Ġso pra
é Ń
cz ka
Ġk to
Ġå ±
ch o
Ġvo it
æ ¡
an der
Ġpe ÅĤ
ue go
Ġe k
en ze
Ġå ¿
çĶ ±
á»į i
ma g
h aus
Ġmil li
Ġn r
Ġb in
in y
ĠT i
ï¼ Ķ
æħ ĭ
ari as
os o
keit en
ta mento
8 8
ĠmoÅ¼ liw
Ġp un
res sion
å® ħ
Ġch ar
ãĤĦ ãģĻ
ich ten
Ġna ture
as si
Ġs ty
Ġa mi
ãĤ¢ ãĥ«
Ġin te
kie j
á» Ĺ
Ġparti r
ĠF emme
ĠÐºÐ¾Ð½ ÑĤÑĢ
Ð°Ð» Ðµ
ĠÑĥ Ð¼
ĠÐ½ Ð¾Ð¼
ĠÐļ ÑĥÐ¿Ð¸ÑĤÑĮ
ĠÑįÐº Ð¾Ð½Ð¾Ð¼
ĠÑģÐ¼ Ð¾ÑĤÑĢ
ÑıÑĤ ÑģÑı
Ð³ Ð°
ĠÑĥ Ð±
jour d
ĠÑģ ÑĥÐ¼
Ð¸Ñı Ñħ
Ð¸Ñģ Ñģ
Ġt re
ĠÐ¼ Ð¾ÑĢ
ç´ į
ĠÐ´ Ð°Ð²
è¦ ı
ÐµÐ» Ð¸Ñĩ
Ð §
Ġa mp
Ġge f
ĠÑĨ ÐµÐ½ÑĤÑĢ
ĠÑģÐ» Ð¾Ð²
ra l
Ð¸Ð·Ð½ ÐµÑģ
Ġnost ro
ĠÑģ Ð¸Ð»
ãģĦ ãģªãģĦ
g ue
L L
Ġsu c
h b
ÅĤÄħ cz
åĢ ĭ
z ado
áº¹ p
Ġs eit
n ku
é Ł³
Ġ9 0
to wa
Ġapp ar
Ġãĥ ¢
Ġd Ã¢n
lic ado
ĠP ri
gra ph
Ġgrand es
Ġæ ł
Ã³ d
isch er
is ir
Ġå½ ĵ
Ġo tra
ier s
zza zione
Ġpeu vent
Ġsta r
çµ ¦
ĠCh icas
g ur
Ġâ Ĩ
ç§ ĳ
Ġtra ta
Ġda i
ĠIn forma
ä¸ ī
Ġgi an
Ġdod at
Ġæ Ĺ
Ġh um
ĠG ar
Ġnas tÄĻp
Ġm Ã¶
m Ã¡
schie den
Ġf ino
Ġcz ÅĤ
ãģ¨ è¨Ģ
Ã§ o
b li
ĠEs paÃ±a
ãģĹãģ¾ ãģĨ
U E
Ġdes puÃ©s
å® ¤
di g
Ġdu Å¼
bi to
æĸ¹ æ³ķ
Æ°á»Ľ ng
b ia
Ġor ig
Ġe igen
ãģĶãģĸ ãģĦãģ¾ãģĻ
ç¥ ŀ
u j
Ġm ani
Ġn ar
Ð¸Ðº Ðµ
ĠÑģ ÐºÐ°ÑĩÐ°ÑĤÑĮ
ĠÐ¾ÑĤÐ½Ð¾ ÑĪ
ĠÑĥ Ð¿
ĠÐ²Ñģ ÐµÐ³Ð´Ð°
ĠÐ½Ð°Ð¿ ÑĢÐ°Ð²
ĠÐ´Ðµ ÑıÑĤÐµÐ»ÑĮ
ĠÐ±ÑĥÐ´ ÑĥÑĤ
Ð¸Ð» Ð°ÑģÑĮ
Ð´ Ð¶
æĸ ½
{ "
Ð¾Ð³ Ð¾Ð²Ð¾ÑĢ
ÐµÐ´ Ð¸Ð½
f te
Ð½ ÐµÐ³Ð¾
ãģĿ ãĤĮ
Ð¸Ð² ÑĪ
ĠÄĳ iá»ĥm
ĠÑĤ Ðµ
ĠÐł Ñ
Ãªn cia
ĠF ar
Ðº Ð°Ð½
ĠÐ· Ð°Ð³
æ ¤ľ
ĠÐ§ ÑĤÐ¾
z ent
ÐµÑĢ Ñģ
Ġ201 0
Ġse p
Ġparti cu
ni enia
Ġencu ent
pod ar
Ġn ec
æ² »
Ġb onne
in er
ç ¿
Ġk ostenlos
Ġwszyst ko
ant Ã©
Ġw Ã¼r
Ġwsp Ã³ÅĤ
Ã´ le
cul as
s ÅĤu
Ġho y
c ere
g or
Ġjour n
ãģĵãģ¨ ãģ§
Ġnas zy
i ge
I j
t ych
Æ Ĵ
Ġb áº±ng
za cja
Ġb amb
Ġexe mple
ãģį ãģ¾ãģĹãģŁ
ÅĤ Ã³w
Ġcom er
Ġass ur
Ġc iÄħ
Ġpremi Ã¨re
hal b
Ġs co
xi co
2 4
en der
ãĤī ãģªãģĦ
ow is
åĩº æĿ¥
æ° ĳ
Ġpers onne
Ġs ku
ĠG ra
Ġnuest ra
ien cia
ĠÃ© p
am iÄĻ
Ġï¼ Ĵ
å¢ Ĺ
v enti
Ã¡ rio
c ont
Ġk áº¿t
Ġpod er
Ġmiejs ce
Ġeff et
usam men
å¹´ 0
ãģ« è¡Į
la ce
Ġnec ess
Ġde b
ĠK a
æ ļ
ĠÑĤ ÑĥÑĢ
Ð¸Ð»Ð¸ ÑģÑĮ
ĠÑĢ Ð¾ÑģÑģ
Ð¾Ð½ Ð¾Ð²
ÑĮ Ðµ
ĠÑģÐ´ÐµÐ» Ð°ÑĤÑĮ
ÐµÑĢ Ðº
Ð½Ð°Ðº Ð¾Ð¼
ĠÐ¿ Ð¾Ð¶
ĠÐºÑĢ ÐµÐ´Ð¸ÑĤ
et y
Ð°Ð² ÑĪ
Ð¾Ð± ÑĢÐ°Ð·
ÑģÐº Ð¾Ðµ
Ġcom mer
ĠÐºÐ¾ÑĤÐ¾ÑĢ Ð°Ñı
mi entos
ĠÐ¿ÑĢÐµÐ´ Ð¿ÑĢ
le i
Ð» ÐµÑĤ
ĠÑĥ ÐºÐ°Ð·
å¯¾ å¿ľ
Ġéĩ ĳ
ĠÐľ Ð¸Ð½
ÐµÐ¼ Ð¾Ð½ÑĤ
Ã©ra tion
, "
n iÄĻ
ĠÐºÐ¾ÑĤÐ¾ÑĢ ÑĭÑħ
f ang
ĠâĹ ı
è³ ĩ
Ġw ill
ti Ã¨re
Ġnue va
Ġw en
Ġthá» ĭ
åĪ ¤
glÄħ da
c s
Ġc ost
Ġes paÃ±
Ġde cir
Ġn ich
Ġm ont
Ġo ggi
å¸ «
Ã¼ t
s ce
Ġm ill
Ġnale Å¼y
æ¯ Ķ
le ction
r icht
Ġpl an
Ãº p
ãģ£ãģ¦ ãģĦãģ¾ãģĻ
at s
or to
Ġf ile
Ġfil m
Ġm ui
ber o
Ġmar s
Ã¶ ff
ĠE S
ti do
el s
Ġé ķ·
ĠK ra
ÅĦst wa
Ġdes cription
ill er
ĠW eb
Ġs enti
ç ¹
Ġt Ã¢m
ti o
K A
ĠP R
Ġprze ci
Ġcon os
Ġp al
Ġcu is
å¾ ħ
ĠJahr en
Ġen s
Ġdz iaÅĤa
Ġth áº¥y
Ġh echo
ci er
Ġk obie
ĠãģĿ ãģĹãģ¦
2 9
cz es
Ġa ura
Ã¤ re
Ġar ty
è ħ
ĠP are
b an
Ñħ ÑĢÐ°Ð½
ĠÐ¿ÑĢÐ¾ÑĦ ÐµÑģÑģ
ÐµÐ½ Ð½Ð°Ñı
Ð¸ÑĩÐµÑģÐº Ð°Ñı
ĠÐ° Ð¿
ĠÐ¿ÑĢÐµÐ´ Ð»Ð¾Ð¶
ĠÐ¿Ð¾Ð´ Ð´ÐµÑĢÐ¶
Ð°Ð¶Ð´ Ð°Ð½
Ð¸Ð½ Ð¾Ð²
ĠÐ¼ Ð¼
Ġinter ne
ĠÑģ Ð¾Ð´ÐµÑĢÐ¶
ĠÐ¸ Ð´
ĠÑģÐ¿Ðµ ÑĨÐ¸
k ann
ĠÐ· Ð°ÑĤ
ä¼ Ŀ
ĠÐ²Ñĭ Ð±Ð¾ÑĢ
rit to
Ð°Ð± Ð¾Ñĩ
ĠÐ² Ð°Ð¶
Ġpub lic
es sa
ĠÐł Ð¤
ĠÐ²Ð½ Ð¸Ð¼
ma ty
ĠÐ´ÑĢÑĥÐ³ Ð¸Ñħ
Ġr ou
ĠÑģÐº Ð¾ÑĢ
Ġg Ã¬
ĠF e
ãĥĹ ãĥŃ
Ġs ali
Ġcz erw
.. .
Ġse ma
ci ta
ku je
la ciÃ³n
mit tel
ti en
c ka
ç ¬¬
I O
Ġfo i
c ki
Ġgior ni
p ort
Ġpod czas
Ġris ul
áº£ nh
Ġãĥ¬ ãĥĩãĤ£ãĥ¼ãĤ¹
ç© º
Ġres te
ĠI hnen
r Ãł
w arz
Ġn ada
w end
v al
Ġsu b
eit er
Ġf emme
ĠUnter nehmen
r is
ent Ã³w
Ġg ay
ÃŃcul o
us a
la gen
Ġpi Ã¨
ĠA uch
Ġ ãģĻ
Ġk os
ĠW elt
Ġmom ent
Ġch á»§
k cji
Ġ äºº
ĠMil ano
va to
ĠCom o
Ġv en
ĠO p
ĠO b
Ġpor te
Ġatti vitÃł
ni cy
ve z
ãĤ ¼
Ġto Ãłn
Ġe fec
Ġãĥ ĵ
ĠD od
C H
Ġwy da
Ġo ltre
ãĤ¤ ãĥī
A M
ic os
æµ ģ
ĠÑģ ÑĥÑīÐµÑģÑĤÐ²
ÐµÐº ÑģÑĤ
ÑģÑĤÑĢÑĥ Ðº
ĠÐŁÑĢ ÐµÐ´
ĠÐ½ ÐµÐ²
Ð°ÑĤ ÐµÐ»ÐµÐ¹
ĠÑģ ÐµÐ³Ð¾Ð´Ð½Ñı
ĠÐ²Ñģ ÐµÐ¼
ĠÐ¼ Ð¾Ð¼
Ð¸Ð¼ Ð¾ÑģÑĤÐ¸
Ġma i
Ð¸Ð» Ð¾
ĠÐ¿ÑĢ ÐµÐ¿
ĠÑĢÑĥÐ± Ð»ÐµÐ¹
Ġte mu
ĠÐ± ÐµÐ»
Ã© b
ĠÐ²Ðº Ð»ÑİÑĩ
na tion
ĠÐ¿ ÑĥÑĤ
ÐµÑĢ Ñħ
aj es
ĠP ub
Ãº s
j m
Ġph Ã²ng
ĠÐ² Ð¾Ñģ
ãĤ¤ ãĤ¹
i es
Ġpre cio
Ġn ivel
! !
Ġa fin
ĠÑģÑĩ Ð¸ÑĤ
Ġ20 20
Ġje ÅĽli
et t
ä¿ ®
ĠU omo
u zione
Ġt áº¿
ä¸ĩ åĨĨ
ãģ µ
ĠAnge bo
Ġte xt
æ ·
7 0
Ġl iv
ÑĥÐ´ Ð°
Ġdal le
Ġper mi
Ã¤ uf
Ġza le
r il
ãģĵãģ¨ ãĤĤ
Ġp le
Ð°ÑĤ Ðµ
Ġ6 0
m and
Ġa zien
ien e
Ġè ©
Ġa ni
ãģŁ ãĤĬ
Ġt á»ĳt
ĠU r
k ry
ĠÃ© conom
ç© į
Ġse Ã±
un i
Ġor a
h ol
ãģª ãģŁ
ãĤ¤ ãĥ¤
Ġh omme
åĳ Ĭ
Ġv ic
Ã ķ
Ġh iá»ĩu
qu il
s el
Ġm ise
Ġsu pp
i Äĩ
Ġfoll ando
ĠEs p
Ġs Ã³lo
Ġc ali
Ġng o
Ġmet tre
Ġå ¸
Ġzw ischen
Ġgior no
Ġju in
Ġp is
Ġcon tin
èĩª åĪĨ
ĠT y
Ġf unk
ãģ¹ ãģ¦
ĠÐ²Ð¾Ð· Ð´
ĠÐ´ Ð¾ÑģÑĤÐ°Ð²
Ġ3 5
ĠÑĢ Ð°ÑģÑĤ
Ð¸ÑĨ Ñĭ
ĠÐ´ÐµÑĤ ÐµÐ¹
Ð» Ð¸Ð½
ĠÑģÐ°Ð¹ÑĤ Ðµ
Ð½Ð°Ðº Ð¾
ĠÐ²ÑĭÐ¿ Ð¾Ð»Ð½
Ġczy li
Ġ @
ĠD el
Ġh ombre
Ġprodu it
Ġn un
Ð ¦
ÐºÐ¸ Ñħ
Ġa unque
ab les
wy k
ĠT est
ĠB uch
Ġtr ad
ĠÑĦÐ¾ÑĤ Ð¾
ĠÐ½ Ð°Ð²
ä¿ Ĥ
ĠJe ÅĽli
Ġer st
ĠÐ¸Ð½ Ð´
áº¯ ng
ĠCom e
Ġpossi bile
Ġãĥ ¯
par t
æ¬ ¡
Ġencont rar
Ð¾Ð¿ Ð°Ñģ
yste m
ob y
ĠãģĿ ãģĨ
ĠV ideo
Ġ. .
ca ciÃ³n
Ð°Ð» Ð°ÑģÑĮ
Ġo tras
Ġm ÄĻ
ãģĻãĤĭ ãģ¨
ĠÐ¼ Ð¾
y d
dz a
Ð¾Ð³Ð» Ð°Ñģ
en de
ãĥ¼ãĤ· ãĥ§ãĥ³
t ka
Ġque lla
dad e
ĠÑĦ Ð¸Ð½
Ã¼ h
Ġby ÅĤa
Ã© li
Ġb áº£o
ãģ¿ ãģŁãģĦ
Ġèĩª åĪĨ
ost ra
Ð¾ÑĢ Ð¸Ñı
Ġtech ni
Ġes a
b es
Ġrec enz
s ty
æ± Ĥ
ĠAve c
Ġs en
b G
Ġkil ka
Ġsc ar
ĠÄĳ á»ĳi
in nen
ä¾ ĭ
se z
is ce
ĠG ran
ĠB il
Ġle p
è į
st and
Ġi r
Ġl is
ãĤı ãģĳ
ĠdÃ© f
Ġ3 1
Ġsu iv
Ġe di
Ġm iÄĻdzy
sch utz
s am
c ture
èµ ·
ĠDies e
Ġtiáº¿ p
ĠÐ» Ð¸Ð±Ð¾
ÐºÐ¾Ð² Ð¾Ð´
Ð¾Ð¼ Ðµ
ĠÐľ Ð°ÑĢ
ĠÐ¾Ð±ÐµÑģÐ¿ ÐµÑĩ
Ð¾Ð»Ð½ Ð¸ÑĤÐµÐ»ÑĮ
Ġun os
Ġs ÅĤu
Ġc Ã´
ĠÐĶ Ð¶
nÄĻ trz
Ġap ro
Ġqu ali
Ġu l
ï½Ĺ ï½Ĺ
æĮģ ãģ¡
ĠkaÅ¼ de
åº ĥ
w u
Ġan te
Ġou ver
ĠT a
2 3
Ð°ÑĤ ÑĥÑĢ
Ġ": {"
ĠÐ¼ Ð»
ĠÐ» Ð¸Ñĩ
ud as
ci l
Ġho tel
un es
Ġçī ¹
Ð¾Ñĩ ÐºÐ¸
t schaft
tiv es
ĠÐ¿Ð» Ð°ÑĤ
Ġini zia
m l
Ġprzypad ku
Ġna tion
ĠÑĤ Ð¸Ð¿
Ġtrav Ã©s
Ġf ra
Ġt Ã¡c
Ġricer ca
Ļ çľŁ
ĠÐ² ÐµÑģ
Ġw ol
Ġvol ta
ĠÐ½ ÐµÐ±
ĠF il
ĠktÃ³ rzy
ãĤ³ ãĥ³
ãĥķãĤ© ãĥ¼ãĥł
ł Ķ
ĠsÃ© cur
h me
Ġc ier
g ent
ãģ«ãĤĪ ãģ£ãģ¦
ĠF ran
ĠÑģÐ¿ Ð¾ÑĢÑĤ
Ġparti col
Ġh á»Ļi
di ca
ĠÐ¿ Ð¾ÑģÑĤÐ°Ð²
ĠÐ´ ÐµÑĢ
ĠCh aussures
ce ption
ĠS ti
c in
ĠÐ² ÑģÑĤÑĢ
m F
Ġele kt
ĠP ow
Ġgratu it
Ġprzy go
Ġs ouv
Ġdies es
Ġvo cÃª
ãģ®å ł´
ĠC ol
si ca
ces si
ĠÄĳ Æ°á»Ŀng
j es
ie m
ĠK Ã¼
ĠB a
Ġt or
Ġåľ Ł
u chen
Ġæľ Ī
ãģĵ ãģ®
cor so
cz one
Ġal cun
åľ Ĵ
ĠM in
Ġj an
Ġdes e
ĠÑģÐ»ÐµÐ´ ÑĥÑİÑī
ĠÐ² ÐµÑī
Ð»Ñİ Ð´
ĠÑĢÐ°Ð· Ð¼ÐµÑĢ
ĠÑĢÐµÐ± ÐµÐ½
Ð°ÑĢÐ¸ Ð°Ð½ÑĤ
Ġg odzin
ä¾ ¿
ĠW a
ÐµÑĢ ÐµÐ´
ĠAc c
Ġp age
er ie
Ġth iáº¿t
ĠBar celona
an ol
Ġa f
ãģ ¥
lica tion
ard in
e d
Ġbar dziej
Ð¾ÑĤ Ñĭ
ĠÐ²ÑĢÐµÐ¼ ÐµÐ½Ð¸
ĠÑĨ ÐµÐ»
ĠÐ³ Ð¾Ð»
f re
c itÃ©
gra f
Ġw id
Ġè ¡
Ð¾Ð² Ð¾Ð³Ð¾
Ġni veau
cze go
re a
ĠÑĩÐµÐ»Ð¾Ð²ÐµÐº Ð°
Ġãģ ¡
Ġal so
ç ģ
Ġtá» ķ
t ku
re chen
ĠÐ½ Ð¾ÑĢÐ¼
ĠM ont
Ġso ciÃ©tÃ©
ĠÐ½Ð°Ð» Ð¸Ñĩ
Ġu omo
Ġc ara
Ñĳ Ð½
pp en
g ado
æľ Ľ
ĠktÃ³r ym
Ġpro gra
Ġas so
Ġ ä½ķ
c ÃŃa
Ġpro gram
ĠB au
w ir
ma tion
ier re
ica ciÃ³n
Ġann Ã©es
è ¢
ato re
ow n
Ġe ben
un a
t Äħ
Ġæ Ī
ĠÂ ¸
Ġc áº§u
Ġber eits
Ð¾ÑĢ Ñĭ
ĠÐ¿Ð¾Ð»ÑĮÐ· Ð¾Ð²
å¿ µ
co le
ĠÐ³ Ð°Ð·
Ġc alidad
ĠJa hre
Ġhor as
Ġt able
Ġcon stru
ski m
ĠÐ´ Ð¾Ð²
éĢ ł
Ġl ung
in k
Ð½ ÐµÐ¼
to p
ĠB on
cto bre
w ort
ech a
le m
Ġen semble
åĸ ¶
Ġan dere
dzie l
Ã İ
ĠÑĤ ÑĢÑĥÐ´
Ġlo áº¡i
is on
Ġå Ģ
ĠÐ³ Ð°ÑĢ
ĠFo tos
Ġam or
Ġj un
ĠÐ¼ÐµÐ¶Ð´ Ñĥ
Ġc y
ãĥķ ãĥ¬
éĢ Ł
re k
Ã© c
Ġv uel
uf fi
sz Äħ
ĠÐ´Ð¾ÑģÑĤ ÑĥÐ¿
ĠK unden
Ġwur den
Ġri en
Ġques tion
Ġgr oupe
Ð² Ð¸Ð¶
Ġt Ã¬nh
Ġs istema
Ġk ont
Ġæ īĭ
ĠÑģÐ¿Ðµ ÑĨÐ¸Ð°Ð»ÑĮ
Ã§ on
Ð¸ Ð»Ñı
åĦ ª
Ġc oÅĽ
mer o
ĠÑģÐµÐ± Ðµ
d nia
es i
gen ce
ten ir
rÃ³ Å¼
ãĥ¼ãĤ ³
èŃ °
Ġ3 4
ĠÐ½ÐµÐ¾Ð±ÑħÐ¾Ð´Ð¸Ð¼ Ð¾
ita l
ĠÂ ¾
7 9
ĠÂ ¶
á»Ń a
ĠâĢ ļ
ĠÐ²Ð½ ÑĥÑĤÑĢ
s atz
Ġp ie
Ð¸Ð» Ð¾ÑģÑĮ
Ġlas sen
ĠÑģÐ» Ð¾Ð¶
ãģ« éĸ¢
ĠH ier
ĠA ber
as e
ch ar
Ġb Ã¡n
Ġdem ande
li Ã©
se ur
Ã¶ l
Ð°Ð· Ð´
rie ur
Ġvá» ĭ
Ġg an
al ny
ãĤ¯ ãĥĪ
ÑĥÑĤ ÑģÑĤÐ²
Ġï¼ģ ï¼ģ
ãĥĸ ãĥ«
ujÄħ ce
Ġri c
± ãģĦ
tem bre
id ente
Ġsh ort
Ġ3 3
ra ge
ĠÐ¿ÑĢÐ¾Ð² ÐµÐ´
ãĤĤãģĹ ãĤĮ
Ġrap ide
f Ã¼r
Ġe llos
Ð°Ð½ Ð¸Ñİ
ĠãĤ Ī
Ġservi ces
os podar
Ġat tra
áº¡ c
Ġc m
Ġæ ¯
ĠB undes
ĠN ue
ĠÐ´ Ð¾Ð±Ð°Ð²
Ġson dern
Ġc oule
æŃ ¢
cze ÅĦ
v Ã©e
ÐµÐ½ Ð½Ð¾ÑģÑĤÐ¸
Ġwar en
ĠÐ¿ÑĢÐµÐ´ Ð¾ÑģÑĤÐ°Ð²
Ġp ÅĤy
ĠT am
C Z
Ġ4 5
Ġm ÅĤ
c Ã©d
ĠR i
è ¬
ĠÐ¿ÑĢÐ¾Ð² Ð¾Ð´
Ġs f
Ã³ mi
Ġ ï¾
åĲĪ ãĤıãģĽ
Ġna y
orzy sta
ĠÐ¶ÐµÐ½ Ñī
ĠÐ»ÑİÐ´ ÐµÐ¹
Ġpo tre
Ġï½ ľ
ĠæĿ± äº¬
Ġç ·
ĠS k
èĲ ½
Ġstron y
Ġpers ona
Ã©r ence
ien s
Ã¡ ri
Ġg ente
Ġw al
Ġf ond
Ġs ei
an ym
Ġãĥ į
at ro
ÑģÑĤ ÑĢÐ¾
ãĥ³ãĤ Ń
ĠãĤ± ãĥ¼ãĤ¹
èĸ ¬
pa gne
Ġsty le
Ġk aufen
ĠÐ¸Ð¼Ðµ ÐµÑĤ
to ry
Ġcor re
Ġwszyst kich
Ġda bei
Ġt iá»ģn
Ġpr endre
am il
è³ ¼åħ¥
ĠÐ± ÐµÑĢ
Ã į
ĠÂ ²
Â º
Ġt ÃŃnh
Ġs our
ei ght
ĠÐ¶ Ð¸Ð·Ð½
we m
v os
am t
ĠÐ¸Ð· Ð²ÐµÑģÑĤ
Ã¼ tz
ves tig
ãĤµ ãĤ¤ãĤº
Ġlie u
éĻ ¤
ãĥģ ãĥ£
Ġj es
Ġd osta
Ġå¥ ³
Ġsecon do
mi er
Ġsi gui
li co
ur z
Ġa li
Ġç ¾
ille urs
ĠÐ°Ð² ÑĤ
Ġr ÄĻ
ĠÃ´ ng
ãģĪ ãģ°
ĠAr tikel
Ġl etz
ĠT out
ĠÑģÐ¾Ð² ÐµÑĢÑĪ
Ġo t
ä¼ ģ
T R
un cios
Ġque d
Ġa ng
ĠÐ¸Ð· Ð±
ãĤī ãĤĮãģ¦
Ġre mp
ÑĢ Ð¸Ð¼ÐµÑĢ
Ġt ar
k un
ÑĤÐ¾ Ñĩ
Ġp osta
Ð¡ Ð
ĠÑĥ ÑģÐ¿
Ġb r
ĠB eit
ĠMe hr
ar ie
ãĥ³ãĥ Ĳ
ind ow
Äħ ce
z w
æĶ ¯
¡ å¸ĥ
ĠÐºÐ°Ð· Ð¸Ð½Ð¾
ĠÑĢÑĭ Ð½
ĠÃ ģ
A U
g Ã©
Ġæ ķ
è¦ ³
) )
ĠÑģÑĢÐµÐ´ ÑģÑĤÐ²
uyá» ĥn
is en
ĠÐļÑĢ Ð°Ñģ
ĠÐ¢ ÑĢ
ĠrÃ©s ul
ĠG io
olo gie
ĠÐ¼ Ð°ÑģÑģ
Ġtr ouver
Ġli ve
inh a
ĠÐŁ ÐµÑĤ
re dni
ÑģÐ¿ Ð¾ÑĢÑĤ
ten er
w od
Ġãģ ł
Ġæ Ħ
at h
Ġra pport
ÑĢ Ð°Ð¶
Ġcon tent
Ġç ı¾
ĠÄĳ o
ggi ung
Ġs Ã£o
ten ant
Ġpres ent
e ll
ĠÐ¸Ð³ÑĢ Ñĭ
Ġk las
Ã¤t z
Ġpo int
Ġä¸ Ĭ
ĠM ujer
Ð°Ð¹ Ð´
Ð¾Ð² ÑĭÐ¹
ci endo
se ment
Ġzro bi
ÐµÑĢ Ð½
ĠwÅĤa ÅĽci
ãģ«ãģª ãģ£ãģŁ
r ado
Ġposs ono
ca use
Ġe u
ãĥ ´
tra g
le ÅĦ
om oÅĽci
Ġall er
Ġinter es
ĠX xx
Ġest as
Ġ Þ
Ġt áº¡o
Ġpo le
ÐµÐ» Ð°
ĠP la
it h
Ġs elon
A CI
Ġesta ble
Ġãĥ ľ
ĠÐ´Ð¾Ð¼ Ð°
ĠS eite
ÄĻ zy
ĠF rei
Ã©n Ã©
ãĤ¸ ãĥ£
cion ales
ĠÑĦ ÑĥÐ½Ðº
Ġb esch
Ġ _
ÑĥÑĤ Ð±
ĠéĢ ļ
tÃ© e
Ðŀ ÐĴ
Ġd onna
Ð»ÐµÐ½ Ð¾
ÐµÑĢ Ð²
li ce
ĠkÃ¶n n
Ġqu ier
Ġd ise
Ġbe cause
Ġexp Ã©ri
Ġb en
æĿ ¿
ĠT ut
ä»ķ äºĭ
ĠÐ¿Ð¾Ð·Ð² Ð¾Ð»Ñı
ĠÐ¼Ð¸Ð½ ÑĥÑĤ
Ġf Ã©v
ĠL E
ve mbre
Ġdom u
» Ĵ
Ð¾Ð» ÐµÐ²
Ðº Ð¸Ðµ
Ġhá» ĩ
z as
ĠÑĢ Ð°Ð½
adz ie
Ġcuis ine
Ġj am
å° Ĥ
å ¦
ĠC an
Ġ, .
è± ¡
ĠÑģÑĤ Ð°Ð½
ab ri
gl Äħd
Ġc ad
ĠJ est
Ġcos as
Ġde llo
ane go
ç¨ ĭ
ĠÐ² Ð°ÑĢÐ¸Ð°Ð½ÑĤ
e x
fi ka
Ġe ng
Ġb áº£n
Ġi phone
ĠãĤ¹ ãĥ¼ãĥĳ
ãģ®å Ī
Ġhab ÃŃa
Ġch ia
d lich
li Ã¨re
ĠÐ¾ÑĤÐºÑĢ ÑĭÑĤ
ow anych
Ġjak i
Ġlo ca
b 3
Ġn p
Ñĩ Ð¸Ðº
åŃ ĺ
ĠÐ³ÑĢ Ð°Ð¶Ð´Ð°Ð½
it te
ĠmÃ¼s sen
ĠJe d
ĠÑģ ÐµÑĤ
ce mbre
Ġf ais
ĠÐ¿ÑĢ Ð¸Ñģ
ĠA ng
ãĤ Ĩ
Ġ19 9
lÃ© ment
Ð¸ Ð¾Ð´
ãģ¨æĢĿ ãģĨ
æ £
ĠÐ¾ÑĤ Ð´ÐµÐ»
, \"
Ġdob rze
Ġå Ĭ
Ġna tur
èĢĥ ãģĪ
ĠÐ¡ Ð¾Ð²
Ã¤n der
Ġsal le
Ġqu ale
Ġ200 9
Ġwid th
ĠM Ã©
Ġequi po
Ġty pe
i zione
â ĺ
ĠÐ´ Ð¾Ð³Ð¾Ð²Ð¾ÑĢ
ãģ®æ ĻĤ
ĠÄ ĥn
ĠÑĥ Ñģ
el h
Ġda tos
ĠÑģÐ² ÐµÑĤ
u p
Ã¢ ce
Ġcol le
t nie
ä¸į åı¯
ĠZa pa
Ġme dio
Ð² ÐµÑĢÐ¶
ãĤ¹ ãĤ¯
Ġcho ix
fahr en
va tion
Ġestu di
ĠczÄĻ ÅĽci
ãĤ± ãĥ¼ãĤ¹
d s
å¹ ³
d Ã¬
ĠÑģÑĤÐ¾ Ð¸ÑĤ
4 5
Ġmie ux
Ì ī
Ã Ĩ
Ġth Ã¡ng
Z ION
Ġf ine
en cias
Ġp osz
te au
Ð½ Ñİ
Ġãĥ ĭ
Ð» Ñĭ
ĠÐ½Ð°Ð´ Ð¾
Ġp elo
ĠÐ± Ð¸Ð·Ð½ÐµÑģ
ĠÐ¿Ð¾Ð» Ð¾Ð¶
w il
Ġa gua
Ġprz es
at ter
Ġes pa
Ġe ing
ãģŁãĤģ ãģ«
Ġk siÄħÅ¼
io re
ÑĭÐ² Ð°ÐµÑĤÑģÑı
ow ana
Ġprofession nel
ang er
Ġte mat
Ġ3 9
bil itÃ©
ĠBe wert
ĠG o
b res
f l
ĠÐºÐ¾Ð½ ÑĤ
st ÄĻp
Ġver dad
Ġoff er
Ġpossi ble
Ġcit tÃł
ĠÑģÑĤ Ð°Ð²
cuer do
Ġqu áº£
Ġh eight
ĠÑĢ ÑĥÐº
ane j
ĠBer lin
ãĤ± ãĥĥãĥĪ
Ġsoll te
ĠÐº Ð¾Ð¶
ĠÐ³Ð¾ÑģÑĥÐ´Ð°ÑĢ ÑģÑĤÐ²ÐµÐ½
Ġ\ /
Ġh ombres
Ġoff re
Ð¸Ð»ÑĮ Ð½Ð¾
Ãĵ N
Ġempres a
ãģª ãĤĭ
Ã Ħ
ĠÃ ĵ
ĠÃ Ĵ
Æ° u
ĠM Ã¡s
ĠrÃ© ser
sze go
Ð² Ð°ÑĤ
u ÃŁ
r ada
Ġv eces
é¡ ĺ
ĠWas ser
ãĤı ãĤĬ
ni os
ÑĮ ÑİÑĤ
Ġ ãģĭ
N E
Ġc ou
Ġin v
Ġinforma tions
g ÄĻ
è²© å£²
Ñĳ Ð¼
ãĥ Ĵ
ato ri
Ġd á»ĭch
Ġhis toire
ĠConta ctos
Ġdes c
wor z
åŁ º
Ð°ÑĢ Ð°
Ġnuo va
Ġna pis
b s
Ġte m
ma ch
ĠåĽ ½
Ġv iene
Ġden n
ĠÐŁÑĢ Ð¾
Ġre f
b r
ÐµÐ¼ Ð°
ĠÐ¸Ð¼ ÐµÐ½Ð½Ð¾
m us
Ġmad uras
Ġs ino
ĠÑģÐ¸ÑģÑĤÐµÐ¼ Ñĭ
Ġrag az
åĢ į
Ġdro it
i mento
Ġrze czy
ãĤĴ ãģĬ
Ġgi Ãºp
ãģ£ãģ¦ ãģĦãģŁ
n es
ÑģÑĤÐ² Ðµ
Ġå ĭ
Ġra c
Ġmill ones
ĠM Ã¤
kow y
Ġques ti
ä¹ Ĺ
Ġer sten
ÑĨÐ¸ ÐµÐ¹
Ġpar f
Ġvrai ment
t ÄĻ
ĠN i
au l
Ġderni er
ĠÐº Ð°Ð¿
Ġe conom
ĠÐ¡ ÐºÐ°ÑĩÐ°ÑĤÑĮ
ĠÐ¡ Ð²
ĠÑģ ÐµÐ¹ÑĩÐ°Ñģ
Ġz ei
il es
ãģ ŀ
ĠÐ¿Ð¾ ÑıÐ²
ĠÄĳ iá»ĩn
ãĥ¼ãĥ ĩ
Ġtr ouv
ĠÑĤ Ð¾Ð¶Ðµ
ĠE UR
k lich
ĠÐ¾ Ð·
szta ÅĤ
and a
s etz
f on
at ri
ãĥ¼ãĥ ģ
ĠrÃ©g ion
Ġmui to
ãģł ãĤįãģĨ
Ġpop rze
ãĥķ ãĤ§
t ung
ent as
Ġd in
Å¼ u
ĠÄĳ áº¹p
ĠSp e
od za
Ã©r er
ĠÐĴ Ð°ÑĪ
li dad
ÑģÑĤ ÑĥÐ¿
ãģķãĤĮãģ¦ ãģĦãĤĭ
Ã¬ m
ut es
b ung
Ġra z
ĠAl le
ĠÃ ¶
i om
si ma
ĠÐĺÐ½ ÑĤÐµÑĢ
ĠcÃ³ mo
éĺ ª
ĠåĲ Į
Ġeje mp
ta zione
Ġznaj d
un kt
am e
ĠÐĳ ÐµÐ»
c tions
ĠÑģÐ¾Ð² ÑĢÐµÐ¼
Ġto tal
æĽ ´
ä½ İ
ĠÑĤÐµÑĢ ÑĢÐ¸ÑĤ
Ġzur Ã¼ck
c ciones
Ġann un
Ġtam b
Ðº Ð»ÑİÑĩ
i ti
ta ur
Ð¿Ð¾Ð» Ð¾Ð¶
Ġph áº§n
Ġdo p
Ġgr os
Ġs ÃŃ
2 6
g in
ä¼ ĳ
Ġå® ī
çİ ĩ
Ġapp el
Ġp ost
Ġfun ction
ww w
Å¼e li
Ġfun cion
ĠÐ²Ñĭ Ð³
u ali
ç´ ļ
Ġaus ge
ĠÐ¿ÑĢ Ð¸Ð´
va re
al nie
2 7
ĠÐ¿ÑĢÐ¾Ð´ ÑĥÐºÑĤ
ÐµÑĩ Ð½Ð¾
æĤ ª
ĠÐ·Ð´ ÐµÑģÑĮ
Ġpor n
oles c
u ciÃ³n
Ġr odzin
ĠÐ¿ Ð¾ÑĤÑĢÐµÐ±
es ti
ãĤµ ãĥ¼ãĥĵãĤ¹
h Ã¤lt
A C
la is
Ġin for
olo re
ĠÐ· ÐµÐ¼
Ġdz iÄĻki
Ġneu en
Ġm ob
ãĤ¿ãĤ¤ ãĥĹ
ãģĳ ãĤĮãģ°
ĠC al
vil u
Ġjan vier
Â ¡Â
ĠÃ Ĭ
Â »
Ġhá» ĵ
Ġp endant
Ã¼r lich
Ð¸ÑģÑĤ ÑĢ
Ġzaw sze
Ġc ur
hl t
ÑĢ Ð°Ð´
e mos
f ern
Ġpre cios
Ġt ow
æ¼ Ķ
Ġch á»©c
ma to
in iones
Ġp ens
ÑĦ ÐµÑĢ
Ġåī į
Ġsk ÅĤad
Ġh as
æĸ Ń
Ġf ol
ĠÐ¾ ÑĨÐµÐ½
is piel
Ġdi jo
Ġo czy
Ġkom men
Ð¾Ð¹ Ð´
b ir
Ġl Ã©g
Ġza pe
Ġkom mt
Ġser Ã¡
ð Ł
Ġãĥ¡ ãĥ³ãĤº
å® ³
ĠÃ Ħ
Ġtrze ba
ĠÑĢ ÐµÐ¶
Ġtamb Ã©m
Ġsc on
ĠÐ³Ð¾ÑĢÐ¾Ð´ Ð°
Ġo trzym
Ġcono cer
vo le
Ġann on
Ġä» £
Ġer ste
ãĥ¼ãĤ Ń
Ð¸ÑĢÐ¾Ð²Ð°Ð½ Ð¸Ñı
Ġtá» Ľi
ci Ã³
Ġun i
Ġczas u
ãģĹ ãģªãģĦ
wer k
ÑĥÐ¶ Ð´
ãĤĴæĮ ģ
K I
ch ron
is me
ÑģÐº Ðµ
Ġst esso
al en
Ð°ÑĢÑĤ Ð°
Ġpotrze b
ĠÐ²Ð¸Ð´Ðµ Ð¾
Ġt us
i as
ãĥ¬ ãĥĵ
ĠSp ort
ver so
ÐµÑĪ ÑĮ
ĠÃ ĥ
á»Ļ ng
ĠT wo
Ġesta do
ÐµÐ½ ÐµÑĢ
ĠÅĽ wie
ĠF ahr
ĠÐ°Ð² ÑĤÐ¾ÑĢ
Ġb ois
s es
åī ²
ÐµÐ½ Ð½Ð¾Ðµ
us ch
Ġda ti
ĠB as
Ġima ge
ent re
Ġjam ais
äº Ĩ
Ð¸ÑģÑĤÑĢÐ° ÑĨÐ¸Ð¸
kun ft
ĠÐ»ÑĥÑĩÑĪ Ðµ
Ġsk lep
Ġma ggio
ç ±
k owa
Ġo ctobre
te les
ĠÑĤÐ°Ðº Ð¾Ð¹
Ġver schieden
ĠÃ ¢
ÅĤe go
ĠÐ½ÐµÐº Ð¾ÑĤÐ¾ÑĢ
Ġmuch os
Ġinforma zioni
ro m
f s
Ġfir my
Ġi f
ãģ«ãĤĪ ãĤĭ
oba cz
Ġter az
ĠÅ¼e by
ka ÅĦ
Ġuti lizza
il itÃ©
Ġpas ado
EN T
Ġm ode
cas ion
Ġp ela
Ġph ÃŃ
st ra
2 8
y er
ĠÑģÐ²Ð¾ ÐµÐ¹
Ġpro mo
ppe ment
æĹ¥ ãģ¯
Ġä» ¥
ck t
Ġpou voir
ch io
ãģĵ ãĤĮ
Ġa que
ĠãĤ· ãĥ£
ĠÑģÐ²Ð¾ Ñİ
Ġl ine
åĭ Ŀ
ĠNo ir
ab ile
ze k
ĠC Ã´ng
Ġre tr
ĠPro ble
Ð°ÑĢ Ð¾Ð²
å¤ļ ãģı
ul o
ĠDz ie
Ġth Æ°á»Ŀng
da p
Ġservi cio
Ġpubb lica
st wa
ĠÐĽ Ñİ
u te
Ġcam bi
p rze
Ġ200 8
ãģı ãĤĭ
Ġes ti
ce d
uf en
Ð°ÐºÑģ Ð¸Ð¼
è© ¦
ĠÐ¼ÐµÑģÑĤ Ð¾
am a
ĠPol sce
Ġmo je
ÅĽ nia
ãģ ģ
ĠåĮ Ĺ
Ġpo ko
Ġk onn
ry wa
Ġï¼ Ĩ
ç® ¡
Ġt al
Ð°Ð»ÑĮ Ð½Ð¾Ðµ
Ġsyst Ã¨me
Ġc eux
v ento
Ġh eute
ĠÐĴ Ð»Ð°Ð´
Ð°Ðº Ð¾Ð²
ĠCh ar
Ġeff ec
ĠÐŀ ÑĢ
Ġe lles
ãģ® äºº
ĠÐ± Ð»Ð¸
Y X
ĠS tr
o g
m ina
ĠÐ» ÐµÑĩ
Ġpoz iom
ĠÐ½ ÐµÐ³Ð¾
Ġes cu
Ġsep tembre
Ġbas e
Ġæľ ¨
tu a
Ñģ ÑĭÐ»
ĠÑĢÐµÐ³ Ð¸Ð¾Ð½
æĿ ĳ
ion y
ĠFo to
Ġan ci
ĠãģĹãģĭ ãģĹ
ĠG l
ĠÐ½Ð°ÑģÑĤ Ð¾ÑıÑī
Ġroz po
Ġa demÃ¡s
ĠDam en
ĠAr t
Ġhtt ps
Ġdonn Ã©es
zza to
po zy
ĠuÅ¼y tkow
ĠÃ© ch
Ġuti li
ĠÐŁÑĢ Ð¾Ð´
Ð¸ ÑĨÐ¸Ð°Ð»ÑĮ
á»Ł i
Ġk r
ver o
å¼ķ ãģį
ĠG ro
ĠÐ¿ÑĢ ÑıÐ¼
od Ã³w
Ġå İ
Ġwe il
Ġcom men
Ġno i
Ð¼ Ð¾ÑĤ
c ono
ĠÑģ Ñĭ
stell ung
åº «
ãĥĥãĤ· ãĥ¥
i esz
por te
Ġpeti te
Ð¸ÑĨ Ð°
ĠãĤ ¬
as sen
Ðł ÐĲ
Ġpoz osta
ĠÐ´Ð² ÑĥÑħ
ci d
Ġâĺ Ĩ
ãĤĴ è¡Į
cz nym
ĠS am
Ġï¼ ħ
ãĤĴæ İ
Ġth o
ĠHo ch
Ġ. )
Ġsich er
vi ent
æĸĻ çĲĨ
ĠÐ¼ Ð¾Ð»
ten ciÃ³n
Ð½Ð¾ Ñģ
Ġzak res
Ġfa z
Ġob ec
g te
Ġ3 6
ãģ® ãĤĤ
Ġno ta
r ero
ĠE L
Ġau jourd
Ġhis toria
Ġtr ang
ĠÐ¾Ñģ ÑĥÑīÐµÑģÑĤÐ²
ĠT or
éģ ©
en sioni
i fica
ĠÐ·Ð°Ð² Ð¸Ñģ
Ð¾ÑģÑĤ Ð¾
Ġu wa
ĠCh am
ĠÑį Ð½
ãĥ³ãĤ µ
Ġlin k
ĠÐ¿ÑĢÐ¾Ð² ÐµÑĢ
ãĤ¦ ãĤ§
Ġkre dy
Ġs ca
Ã ļ
ĠÐ½Ðµ Ñģ
ĠÄĳ áº¡i
ven ir
Ġ9 9
Ġpon ad
Ġni Ã±os
ind a
Ñĩ ÐµÑĤ
ĠdÃ© ta
ĠÑģÐ¾ÑĤ ÑĢÑĥÐ´
Ġen d
ĠÐ¿ÑĢ Ð¾Ñĩ
Ġza wi
an ze
ĠC ON
Ġme d
å ´
Ġkon ie
Ð¾Ð´ Ðµ
Ġa gli
ĠB ere
Ġå® ¶
ĠSt and
Ġimport ante
äº ķ
ãģ®å Ĳ
und er
ĠW iel
Ð± Ð°
ĠÐ¿ÑĢÐµÐ´ Ð»Ð°Ð³
ĠnÃ© ces
Ã± as
tis ch
æ Ĳ
Ġal tre
ĠÃ© l
ĠÃ Ń
w s
ĠÐĹ Ð°Ðº
Ġho ch
m io
ĠÐŁÑĢ Ð°Ð²
é«ĺ ãģĦ
ĠÑĢÐ°Ñģ ÑģÐºÐ°Ð·
Ġf emmes
p ond
Ġv endre
Ã® tre
Ã¼n s
Ġpod e
Ð»Ñı Ð´
Ġwiel u
onne ment
ĠÑģÑĤÑĢÐ¾ Ð¸ÑĤÐµÐ»ÑĮ
Ġprofes ion
Ġ3 8
ra gen
åŁ Ł
t out
Ġespe cial
ĠR Ã¼ck
Ġap lica
Ġv endita
ĠC i
7 8
ÐµÐ½ Ð·
Ġcent re
ind et
Ġspo ÅĤe
Ġ} ,"
Ġv ente
ĠÐ´Ð² Ð°
Ġsu i
kty w
gen es
Ġju illet
Ġgi áº£i
Ġspiel en
ĠF all
Ã© rÃ©
ĠB uen
Ġde f
b ol
ka za
Ð»Ñı ÑĤÑĮ
ãĤĴ ä½¿
Ġa quÃŃ
Ġh eure
u ten
ĠÐ¿Ð¾Ð² ÑĭÑĪ
Ð°Ð» Ñı
Ġposi ble
t tu
ĠÐ¾Ð±Ð¾ÑĢ ÑĥÐ´
Ġçµ Ĳ
è¦ §
ĠÐ² Ð¾ÑģÐ¿
j est
ĠA v
Ġdies en
å¥³ æĢ§
ĠÐ¿Ð¾Ð» Ð¸ÑĤ
ĠC H
ess age
Ġ ãģªãĤĵ
ãĥ¼ãĥ ķ
ĠB ou
Ġno vembre
ÑĢ ÑĮ
b ud
Ð¸ÑĤ Ñĭ
Ġb á»ĩnh
ĠÐ¾Ð± ÑĢÐ°ÑĤ
Ġda zu
Ġh u
ãģĹãģ¦ ãģĦãģŁ
r um
x te
Ġnost ra
Ð½Ñı Ñı
Ġur zÄħdz
rÃ© sent
ĠV ia
c ce
Ġcomp ar
ĠN r
ĠwÅĤa ÅĽnie
å² ¡
éĺ ²
Ð½ ÑĥÑĤÑĮ
ĠÐ¼ Ð°Ñģ
Ġfir m
ar ze
Ġbes ten
ĠdÃ© cembre
ĠÃ Ī
ĠQu á»ĳc
z ug
Ġalgun os
Ð°ÑĢ Ð¾Ð´
ĠÃł s
Äħ dz
ÐµÐ» Ð¸Ðº
Ġ ãģ§ãĤĤ
ÑĢ Ð°ÑĤÑĮ
Ġse ul
è ¥¿
Ġok re
ar t
h in
æĿ ¡
ĠÑĤÐ¾ÑĢ Ð³
Ġna t
Ġe lla
Ð° ÑĦ
ĠMer ci
le u
åī ¤
ãĤ¢ ãĥĥãĥĹ
ĠD urch
Ġl it
Ġp esso
æĶ ¾
Ġpre gun
ĠÐ½Ð°Ð· Ð²
ak ter
Ġj o
ĠT er
Ġph Ã¡p
i ciÃ³n
Ð¸ ÐµÐ²
ĠÐºÐ²Ð°ÑĢÑĤ Ð¸ÑĢ
èŃ ĺ
Ġla ng
Ð¸ ÐµÐ¹
dz ier
Ġf i
ĠSch ul
Ġfin al
Ġrep res
ĠIn tern
æ§ ĭ
to wy
al noÅĽci
y ba
ÑĤ Ñĭ
é Ĭ
w Ã¤
ci Äĩ
Ġsi ng
Ð¼Ð¾ÑĤÑĢ ÐµÑĤÑĮ
ĠÐ¾ ÑģÑĤÐ°Ð²
ĠFo ll
Ġservi cios
ĠÐ´ÐµÐ½ÑĮ Ð³Ð¸
ĠN el
cyj nych
Ð°ÑĤ ÐµÐ»Ð¸
Ġd rei
Ġãĥķ ãĤ¡
urs os
Ġm Ã¡
ĠÐļ Ð¾ÑĢ
åį Ĭ
Ġsz ko
Ġi gu
au d
Ġtr á»ĭ
Ġpos iada
ĠÐ¿ ÐµÑģ
ĠA ll
ĠÐ¤ ÐµÐ´ÐµÑĢ
ãĥį ãĥ«
ÐµÐ½ Ð½ÑĭÐ¼
ĠfÃ©v rier
[ ]
qu oi
Ġus o
ma tique
Ġ4 8
ĠÐ±ÐµÐ· Ð¾Ð¿Ð°Ñģ
1 00
Ġein z
kie go
il ia
Ġho áº·c
ues ta
ĠrÃ©p ond
ãĥ¼ãĥ ª
Ġed u
ĠÑĪÐº Ð¾Ð»
Ġfor me
Ġkon ta
Ð°ÑİÑī Ð¸Ñħ
Ġcas ino
wa re
ie f
ãģ¦ ãģĦãĤĭ
ĠG ay
Ġd entro
Ġst ra
Ġcel ui
åĮ Ĺ
for der
Ġz god
olo gÃŃa
ve ce
ĠB y
ist re
Ġca pa
ĠÑģ Ð¸ÑĤÑĥ
ĠWy ÅĽwiet
Ġsp or
ãģ¨ ãģĨ
éĽ £
ĠÐµ Ð¼Ñĥ
ĠC Ã³
Ġn Ãº
Å ļ
Ġm Ã³wi
ĠM od
n isse
ĠÑģÐ²Ð¾ Ð¸
p ol
ĠktÃ³re j
åĳ ¨
tori o
v ille
ãĥģ ãĤ§
Ġv Ã©
ĠÐ¿ Ð¸ÑĤ
ãģ«ãģª ãĤĬãģ¾ãģĻ
kl Ã¤r
ar si
l Äħ
ĠQu Ã©
Ġpon ie
ĠÐ¿Ð» Ð¾Ñī
Ġpo in
Ġgra cias
ĠF in
ĠÐ²Ñĭ ÑħÐ¾Ð´
en da
Ð¸ÑĢÐ¾Ð²Ð°Ð½ Ð¸Ðµ
ãģ«ãĤĪ ãĤĬ
ĠS E
un ta
ĠÐĿ Ð¸Ðº
ch nik
e ich
ĠÐ²Ð¾Ð·Ð¼Ð¾Ð¶ Ð½Ð¾ÑģÑĤÑĮ
Ġseg ur
Ġvo yage
ier a
m Ã¤
Ð² Ð°
ĠçĶ Ł
j on
ĠÐ·Ð´ Ð¾ÑĢÐ¾Ð²
Ġå £
çŃ ĸ
na hme
å Ŀ
Ġprodu ctos
Ġdes car
Ġas p
czy n
ĠwÅĤ os
ãģ« å¯¾
ÑģÑĤ Ð°Ð½Ð¾Ð²
Ã¤hr end
ĠÐºÐ°ÑĩÐµÑģÑĤÐ² Ðµ
Ġal bo
Ġpr Ã³
ãģŁ ãĤī
g Ãºn
ĠP i
ãĥ³ãĥ ĳ
Ð°Ð¹ÑĤ Ð¸
Ġav ere
æŃ ³
ĠÑĢÐ°Ð· Ð¼
ĠÑĢ Ð°Ð±Ð¾Ñĩ
.... ....
Ġb an
ĠÐ¸Ñģ ÑģÐ»ÐµÐ´
ãģ¾ ãģŁ
sa ire
Ð Ń
ĠÑĥÐ´ Ð¾Ð±
ra re
Ġmi ent
Ġv idÃ©
ĠÐłÐ¾ÑģÑģ Ð¸Ð¹
Ð»ÐµÐ½ Ð¸Ð¸
ãĥ¼ãĥ Ĭ
owiÄħ z
Ġdis p
ĠdÃ© s
Ġãĥ Ķ
Ã «
u le
Ġtrab al
Ġf ak
éł Ĥ
sp iel
al d
ãģ®è ©
Ġn ing
Ġprac ow
ĠF amil
Ð¼ Ð°Ð½
Ġ ÅĤa
b as
ç¢º èªį
vers idad
ĠÑĢÐ¾ÑģÑģ Ð¸Ð¹
ian co
Ġservi zio
âĢ ľ
n Ã©
Ġk rÃ³
Ġm io
ĠÑĤÐµÑħÐ½ Ð¾Ð»Ð¾Ð³
Ġv in
ĠS ol
ï¼Ĳ ï¼Ĳ
æ ¹
ib ilidad
Ġo tti
isse ment
ĠÐºÑĢ Ð¾Ð²
æĻĤ è¨Ī
ãģĮ ãģªãģĦ
od en
Ġcom b
Ġd Ã¹ng
ÅĤe j
ĠÑĢÑĥ ÐºÐ¾Ð²Ð¾Ð´
ãģĭ ãĤĭ
Ġj Äħ
in Ã©
Ð°Ð¶ Ð°
Ġver b
ĠÐ½ ÐµÐ·
Ġhab ita
Ġãģ ¤
Ġpro te
ĠÐĿ Ð°Ð¿
Ġbeso in
Ã³ Åº
ĠÐ² Ð¼ÐµÑģÑĤ
Ġs os
ç ĭ
Ġt on
ac ances
ĠÐ¾Ð± ÑĭÑĩ
Ġnota mment
char ger
Ġforma tion
Ġfam ille
Ġj Ã¡
áº© n
Ġav ril
ri ngen
c ine
ĠÐ´Ð¾ÑĢ Ð¾Ð³
Ġï¼ İ
Ġãĥ Ĭ
Ġa si
cy d
c teurs
Ġa per
Ð¡ Ðļ
Ġok res
ĠV on
Ð¸ÑĤ Ð°ÑĤÑĮ
ï¼ ĸ
é º
å» º
f ort
ĠNa cional
vi ce
ÐµÑĢ Ð¾
ĠCas ino
le ge
n elle
Ġmient ras
ma ge
Ġcon si
Ġc ode
w orzy
il fe
Ġs ens
ãģĹ ãĤĥ
Ġä¸ į
za Ã§Ã£o
ÑĢ Ñĭ
Ġprodo tti
Ġpho tos
ug no
ä¸ĸ çķĮ
do ch
ĠR is
ĠVo ir
ĠPri x
Ġabb iamo
ĠÐ´ Ð°
ÑĢ Ð¾Ð¼
cul ar
mar t
ÐµÐ» Ñİ
Ġgiá» Ľi
den ti
Ġwo j
ĠÑģÐ¾ÑģÑĤ Ð¾ÑıÐ½
ĠÐ¿Ð¾ ÑįÑĤÐ¾Ð¼Ñĥ
Ġstr ut
ãĤĩ ãģ£ãģ¨
ãģ¯ ãģªãģĦ
ct ura
is ation
ãģ®å ¥
Ġãģ Ĩ
éĢ ±
Ġsein er
c cio
ĠB ras
Ð¾Ð½ Ñĥ
a Ã§Ã£o
Ġa se
Ġm ul
åķı é¡Į
Ġj ÄĻzy
ÑĢÐ°Ð½ Ð¸Ñĩ
Ġæ ¬
ven tion
ta da
Ġs vilu
Ã¡ m
åį ģ
us tr
ĠÃ©le ctri
ĠThe ma
Ð» Ð°Ð½
ĠProdu kt
Ġj ug
b et
ãĥ© ãĥ³
ĠÐ·Ð°Ð½ Ð¸Ð¼
Ġ4 4
ca re
ĠJ o
lo ad
ĠInforma tionen
ĠÃª tes
Ġa ide
ĠÐ¿Ð¾Ð¼ Ð¾Ð³
Ġl ivre
ĠsÃ©cur itÃ©
Ġs Ã©rie
Ġre tour
Ġsie bie
æĪ ¸
ãģ®å ¾
ert as
Ġste ht
b io
ĠK re
Ġoc casion
ĠÐ½ Ð°Ð³
Ġprzeci w
ar o
x im
ent en
ĠÑįÑĤ Ð¸
Ġc entro
st wo
enn es
æº Ģ
Ġk áº¿
ĠÐ¼ ÑĥÐ·Ñĭ
Ð°ÐµÑĤ Ðµ
Ġservi zi
ãģĮ åĩº
ãģ® ä¸Ģ
Ġro bi
Ġschne ll
Ã¡ri os
Ñĩ ÐµÑģÐº
Ġim mag
r Ã³w
bi anas
Ġseg Ãºn
Ġcar te
ĠB Ã¼
3 3
Ġs ort
ĠÐĵÐ»Ð°Ð² Ð½Ð°Ñı
ĠÐ° Ð»
ĠB esch
Ġha cia
Þ ¦
ï¿½ï¿½ ï¿½ï¿½
á»į c
f ique
an den
Ġä¸ ī
Ġè ³
ĠÐ¿ÑĢÐ¾ÑĦÐµÑģÑģ Ð¸Ð¾Ð½
ĠW i
ĠãĤ ½
Ġsouv ent
Ð¾Ð² Ð°ÑĤÐµÐ»ÑĮ
ĠN ero
Ġkh u
Ġsc el
tow ej
Ã¤ ft
Ñı Ñħ
é Ł
ĠH ol
ĠM al
Ġ= "
ÐĿ Ðŀ
ĠÐ² Ð¾Ð¹
Ġcir ca
Ġdi a
lich er
Ġsem ana
zy n
Ġm niej
Ġï¼ ŀ
ãģł ãģ¨
Ġpro ceso
om men
é ľ
Ġin vestig
ĠÑĥÐ² ÐµÐ»Ð¸Ñĩ
Ġç ¥
r ad
Ġkom p
Ġpo ja
c ci
Ġbez pie
Ġcham bre
E L
Ġa dap
pr Ã¼
ĠÐ´ÑĢÑĥÐ³ Ð¸Ðµ
åĲĮ ãģĺ
ĠMe j
ĠC ont
ĠP utas
il lo
Ġpre zzo
Ġreali zar
ĠdÃ©c ouv
CI 6
ien i
ĠI s
ÐµÐ» ÐµÐ¼
Ġsul le
Ġæ ±
ĠÅ¼y cia
Ġren cont
æı Ĳ
ĠÑģÐ¾ ÑĨÐ¸Ð°Ð»ÑĮ
ÐµÐ½ ÐºÐ¾
ĠÑĨ ÐµÐ½Ð°
ĠH Ãł
à ³
Ġlá»Ľ n
ech os
ĠÑĢ ÐµÐ´
cia lis
Ġfin ans
Ġnuest ros
Ġfre e
Ġdifer entes
Ġgio v
un st
Ġresp ons
ĠãĤ ´
ĠrÃ© se
ĠÑĢÐ°Ð· Ð´ÐµÐ»
k ro
Ġwir klich
Ġbes onder
ĠÐľÐ¾ÑģÐºÐ² Ð°
ĠÐ¿ÑĢÐ¾ Ð¸Ñģ
Ġcom paÃ±
Ġqual itÃł
åŃ Ĺ
Ġv ar
Ġcie ka
le it
Ġw aÅ¼
t tes
ĠW ei
Ġåľ °
ĠA ug
Ġmen o
Ġao Ã»t
ĠB re
Ġsch Ã¶n
ei gne
Ġpo czÄħ
Ġno ir
Ġ8 0
Ġfa ce
Ð°Ð· Ñĥ
fol g
ĠMÃ© xico
Ġv ue
Ð¸ÑĩÐµÑģÐº Ð¾Ðµ
Ġay ud
Ġunser er
ĠG eld
f o
k oÅĽci
ĠéĽ »
or gen
ĠÐº ÑĥÐ»ÑĮÑĤ
ĠC hr
é¤ ¨
Ġc la
Ġmar chÃ©
Ġæ ´
ie me
éĿ ŀ
Ġdis f
á» ¹
Ġwel che
p Ã©
Ġc ump
con Ã³mi
Ġp unto
for m
ĠÐ¼ Ð¾Ð»Ð¾Ð´
ĠE le
Ġsi mple
wa li
Ð°ÑĢ Ñĭ
al ten
zza re
Ġou v
ĠÑĨ ÐµÐ½Ñĭ
ĠdÃ©b ut
Ġin vece
ãģ®å Ĩ
ÑĭÐ² Ð°ÑİÑĤ
Ġsy tua
Æ° ng
Ġqual che
ĠC ons
Ġwszyst kim
Ġtu a
kow o
æ¡ Ī
ĠwÃ¼r de
ous e
ale ur
ĠP res
Ġese mp
Ġle y
Ġlu dzi
mo bil
Ġnh iÃªn
Ġå ķĨåĵģ
éĸ¢ ä¿Ĥ
Ġb ajo
ien za
ti eren
ĠÐ½Ð°Ñĩ Ð¸Ð½
ĠÑı Ð½
Ġacc om
ĠçĽ ¸
ãĥĿ ãĤ¤ãĥ³ãĥĪ
Ġa tÃ©
al itÃ¤t
Ñı Ð³
Ġsal ud
ĠrÃ© du
es a
Ġsur tout
Ðº Ñģ
Ġz ÅĤo
ĠPro je
b lica
ãģłãģĳ ãģ§
Ġlle gar
Ġm acht
Ġpres so
ro c
Ġdo tycz
ĠÐ¿ÑĢÐ¾Ð´ Ð¾Ð»Ð¶
Ġle k
Ġgen au
Ġre gar
Ġby ÅĤy
Ġz ona
Ġä»Ĭ åĽŀ
æİ ¥
Ġcad re
ĠÑĥ ÐºÑĢÐ°
um mer
op Ã©
ĠÑĢ ÐµÐ¼Ð¾Ð½ÑĤ
Ġp Ã©ri
Ġha i
Ġgru po
ĠÐ¸Ð³ ÑĢÐ¾Ð²
ĠÐ²Ñģ Ñĳ
gr und
Ġczas ie
Ġt ant
Ġgener al
ãģı ãĤīãģĦ
ãĥļ ãĥ¼ãĤ¸
Ð½ Ð¸Ð²
Ġs etti
åıĹ ãģĳ
p ow
Ġdo cu
Å ĵ
fall s
ĠH ome
Ġcon ten
Ġjed no
Ġdi r
l en
nh o
Ð½ÐµÐ¹ ÑĪ
Ġsu jet
po li
æķ ´
Ġtr ouve
ette mbre
ĠÐ¼Ð°Ð³Ð°Ð· Ð¸Ð½
Ð½Ð¾ÑģÑĤ ÐµÐ¹
ãģ§ãģ¯ ãģªãģĦ
Ġein mal
uo i
ÃŃ vel
ki ng
Ġni m
Ġsi Ã¨
ĠC er
çĶ ³
ĠÑĥ ÑģÑĤÑĢÐ¾Ð¹
sta wi
Ġl etto
cie tÃł
Ġspra wie
ĠJ an
ĠÐĹ Ð°
v vero
á»į ng
Ġ ÅĤ
ĠO ber
Ġè¦ ĭ
Ġjue gos
Ġa ma
è¾¼ ãģ¿
Ġm ÃŃ
ĠÐ¿Ð¾Ð¼Ð¾Ñī ÑĮÑİ
Ġa ver
Ġse hen
Ð¾Ð¶ ÐµÑĤ
ĠæĻĤ è¨Ī
ãģ« åĩº
ty czne
Ġnum ero
Ġmuch as
es ten
Ðł Ðŀ
ĠÐ½Ð° Ðº
çī Ī
ĠÑģÑĩ ÐµÑĤ
ĠÐ¿ÑĢ Ð¾Ð¿
ku ment
ica tion
£ ãĤ³ãĥŁ
æī ķ
Ġmus i
Ġpr Ã¨s
Ġä¸Ń åı¤
éł Ń
ĠÐ² Ð¿
Ġa pr
Ġcáº£ m
ĠD is
ãģ ¼
ĠÐ¿ÐµÑĢ Ðµ
ll te
ĠBes te
Ġdo v
i nge
Ñģ Ð¸Ñħ
ĠÐ¿ÑĢ Ð¾Ð¼
kow ych
Ġx em
ãĥ¡ ãĥª
Ġbuen a
ĠÑħ Ð¾Ñĩ
ĠÐĲÐ»ÐµÐºÑģ Ð°Ð½Ð´
Ġje der
Ġcomp os
Ð°ÑĤ Ð¾ÑĩÐ½Ð¾
Ġz es
Ġje doch
åģ ´
ĠIl s
Ġop iniones
Ġus u
Ġkon k
Ġempres as
Ġ uffi
Ġ. -
Ġv enta
Ġmes es
Ġn ic
Ð ĸ
ĠÑĢ Ð°Ð²
Åº dzier
Ġãĥ «
Ġde ber
áº§ m
ĠÐ¡ Ðº
Ġd onne
Ġtr zy
us i
Ġm elh
Ġsema ine
Ñģ Ð¾Ð½
ä¸Ĭ ãģĮ
Ġin ne
Ġalle m
Ġsu oi
Ð¾Ð» ÐµÐµ
Ġg as
Ġæ ³
Ġl ist
sion s
m Ã¶glich
7 5
ra in
Ð» Ð¾Ð½
Ġs uf
9 0
Ġmeille ur
ĠS tre
Ġa ir
ĠÑĢ ÑıÐ´
æĶ ¿
Ä ĺ
Ġu zy
Ġa llo
Ġch á»įn
ĠR en
ĠÐ¿ Ð°ÑĢÑĤ
Ġsi mp
it Ã¤
ãģ ľ
ĠR ec
ĠlÃŃ nea
ĠÐŁÐ¾Ñģ Ð»Ðµ
Ġpor ta
Ġs antÃ©
Ġp Ã¡g
ke hr
ç© ¶
Ġoper a
ĠÅ ĵ
Ġor d
Ġthá»© c
ron i
Ġw ska
æŀ ļ
Ġw ichtig
o tros
ĠÐŀ Ð¿
gl ie
Ġpare ja
Ð¾Ð· Ñı
r ia
ãĥ ¦
Ġdes n
ĠÐ¼ ÐµÑĢ
wi ÅĽcie
c ter
Ġf Ã¡
Ġm iaÅĤ
ĠAcc ueil
or ation
ĠÐ» Ð¸Ð½
ãģĻãĤĭ ãģĵãģ¨ãģĮ
y o
_ c
ĠÐľÐ¾ÑģÐºÐ² Ðµ
ĠÑĢÐ°Ð· ÑĢÐ°Ð±Ð¾ÑĤ
i Ã¨me
ĠÐĹ Ð°Ð¿
ĠâĢľ ,
Ð»ÐµÐ½ Ñĭ
Ġde ve
Ġne go
noÅĽci Äħ
Ġmar gin
ç Ĩ
uer to
Ð» Ð¾Ð¼
ÅĽ ni
sta g
ene mos
cto res
ÅĤ ych
ĠH omme
Ġch ose
Ġh and
tto bre
ãģ® ãĤ¢
on ces
ĠÐ²Ð¾Ð· Ð½Ð¸Ðº
r ut
ĠH au
Ġ3 2
Ġs ommes
Ġd ich
c ra
Ġcerta ins
ĠÐº Ð°Ð½
Ġmu a
ng ono
sI m
M D
Ġk ul
fi co
ãĤĪ ãģı
Ġc Ã¡i
ĠÑģÑĢ Ð¾Ðº
éł ¼
ÑģÑĤÐ² Ð¾Ð¼
åħ ±
Ġejemp lo
Ġbe g
ĠÐ¿ ÐµÑĩ
to ra
Ġa illeurs
Ġperson al
ĠÐļ Ð¾Ð»
áº ³
Ġt Ã©c
åº §
ãģĭ ãģ«
Ġemb argo
Ġcen a
Ġmiejs ca
Ġb Ã©nÃ©
ĠâĢ ĭ
ĠÐµ Ð´Ð¸Ð½
uel a
cie l
Ġcli ents
Ġs toria
ĠT ri
Ġper fec
° ¡
Ð¸Ð² Ð°ÐµÑĤÑģÑı
Ġv ou
ĠJu an
ĠAl s
Ġje unes
ĠÐ´ Ð½ÐµÐ¹
ĠÅĽ wiad
ĠÐ¾ ÑĦÐ¾ÑĢÐ¼
Ġdo anh
Ġinter nation
Ġç ľ
Ãª s
á» Ľ
b or
ĠÑģ Ð¸Ð¼
ãĥĽ ãĥĨãĥ«
Ġconta ctos
ĠÐ¼ Ð¾Ð½
Ġgra zie
Ġob ra
Ġesp ec
ĠÐ´ Ð°Ð»
re zza
f ono
ĠT od
Ġpropos e
åĲ «
Ġcons ul
ĠÐ¼ÐµÑĤ Ð¾Ð´
od a
ĠAn d
ĠÐ´ ÐµÐ½
¨ ÐĲ
Ġt ay
ge ment
è¦ ĸ
ĠPol ski
ÅĤe k
Ġg et
Ġproy ecto
Ġhe ures
Ġtut ta
Ġç ¨
Ġa po
åĽ £
ĠS icher
ĠD ien
ĠespaÃ± ol
ist ro
Ġcon tr
Ġproble m
Ð¾Ð¼ ÐµÐ½Ð´
ÑģÐº Ð°
Ð¾Ð½ Ð´
Ġma ja
Ġjue go
ĠG mb
ĠPo li
gl ÄĻ
illa ge
Ð¾Ðº Ñģ
Ã³ g
Ġï¼ ł
ĠæĬ ķç¨¿
ãģĬ ãĤĬ
Ġs ym
Ġt áºŃp
ĠÐĴ Ð¾
ib les
ch n
ĠK am
ĠAn t
u ale
Ġf ont
ol d
ãĥª ãĥ¼ãĤº
ĠP ue
å® Į
ĠÐ¾Ð±ÑĬ ÐµÐºÑĤ
Ġpi ano
Ġbie tet
Ġinter no
ĠÐºÐ¾ÑĤÐ¾ÑĢ Ð¾Ð¹
æĹ ©
Ġteng o
Ġde p
Ġweit ere
f ier
æ³ ģ
WW W
t ru
Ġ áº£nh
00 åĨĨ
Ġè ī
Ġb lan
± æ¯Ľ
åĥ į
ti cias
enn t
3 4
ul es
ĠÐ¿Ð¾ Ñħ
pp a
bar dziej
ãĥ©ãĤ¤ ãĥ³
Ġmis ma
ÑĢ ÐµÐ¶Ð´
ĠQues to
Ġz ami
l Ã¨me
Ń ¦
le gen
Ġpoli tique
ĠÐ¿ÐµÑĢ Ð¸Ð¾Ð´
an Ã§a
Ð°Ð» Ñĭ
Ġex tra
w and
ĠÐº ÑĥÑĢ
ĠÐĴ Ð°Ñģ
ĠÐ¸ Ð´Ðµ
ĠT Ã©lÃ©
ĠprÃ©s ident
Ġm entre
ĠA demÃ¡s
Ġpub li
k le
schl uss
ĠÑģ Ð±Ð¾ÑĢ
ĠÐºÐ¾Ð½ Ðº
Ġihr er
Ġc elle
Ðº Ð°Ñı
Ġso li
Ġkom ent
ãĤ· ãĥ§ãĥ³
â Ĺ
ãĥĩ ãĥ«
min ar
Ġg ospodar
ãĤ¯ ãĤ»
ĠTr ung
ĠÐ²ÑģÑĤÑĢ ÐµÑĩ
ĠZ immer
lau b
Ġre pr
ĠLeben s
ĠÐ± Ð¾Ð»ÑĮ
Ð°ÑİÑī Ð¸Ðµ
Ġbus ca
Ġsou ha
Ġç ¬ĳ
ãĥ³ãĥ ĩ
ĠR E
Ġp ad
Ġch ange
ges te
Ġcu er
ĠÑĤÑĢÐ°Ð½ ÑģÐ¿Ð¾ÑĢÑĤ
c ÄĻ
ãģ¤ ãĤĤ
Þ¦ Þ
Ġqu Ã¡
es to
ĠÐ¿ Ð¾ÑĢÑĤ
Ð» Ð¸Ñı
Ġr ad
Ġä» ĸ
Ġog r
ĠCom m
Ġet c
h Ã¶
Ġv Ã©ri
nh a
ĠÐ¿ÑĢ Ð¸Ð·Ð½
Ġsp az
Ġdi v
Ġa cuerdo
Ġãĥ ¦
ak i
Ġutilis ation
n ow
iá»ĩ m
Ġdesarro llo
Ġnicht s
Ð»ÐµÐ½ Ð°
Ġli cz
âĶ ģ
ãģ® ãģ¿
ĠD ar
ĠÑĦÐ¸Ð½ Ð°Ð½Ñģ
ti os
ind re
ier te
Ġgr Ã¢ce
Ġæ Ķ
Ð°ÑĢ ÑĮ
mo re
tif ic
I R
3 5
Ġtrav aux
Ġemplo i
?? ??
ĠÐº ÑĥÑĢÑģ
Ġper i
Ġy Ãªu
ĠÐ»Ð¸ÑĪ ÑĮ
u jÄħc
ĠC V
ĠPh o
ĠA prÃ¨s
Ġt end
åĮ »
ÑĢÑĥ ÐºÑĤ
Ġf ut
Ġw a
ĠGmb H
ĠD en
ĠÐĹ Ð´
ĠÑĦ Ð¸Ð·
çĹ ħ
ÅĤ ow
nÄħ Äĩ
b ach
rie ben
cia li
éļ İ
ĠÐ¿Ð¾Ð¿ ÑĥÐ»ÑıÑĢ
Ġesta ba
Ã¨ g
Ġå ģ
ĠÃ ĺ
ĠÂ º
Ã³ c
Ġl et
äºº ãģ¯
Ġdi ce
Ã¤ng er
Ġan os
Ġha ber
Ġ Ã¡n
ĠÃ© ner
ĠÐ´ÐµÑıÑĤÐµÐ»ÑĮ Ð½Ð¾ÑģÑĤÐ¸
ĠEn de
Ñĩ Ð°ÑģÑĤ
an zia
Ġæ Ģ
Ġv áºŃy
S E
Ġp an
ĠÐ¾Ð¿ ÑĭÑĤ
è© ķ
Ġrec om
d ung
Ġrapp res
ĠR Ã©s
Ġcom pa
Ð¸Ð½ Ð¾Ð¹
z on
Ġn et
łĶ ç©¶
ill as
ĠÐ´ÐµÑĢ ÐµÐ²
Ġc in
h eim
å¯ Ħ
s icht
ÑģÑı Ñĩ
éĽ ¢
lo g
ding s
Ã ¥
Ġth á»§
ĠPub licado
Ġl uego
cyj ny
ĠD om
ĠÐ½ Ð¸Ñĩ
Ġ5 5
ÅĤu ma
ĠÐº ÑĢÑĥÐ¿
Ġje dy
Ġeur os
ta ires
ĠFra uen
è Į
è¼ ĥ
tu bre
ĠLe ist
Ġpop ula
ĠÐ¿ÑĢ Ð¸Ðº
ï¼ ĺ
ç ĸ
ĠM ay
ĠC ali
v on
ÐµÐ² ÑĢ
ĠÐºÐ¾Ð½ ÑĨ
ei to
ĠTr ans
ĠczÄĻ sto
Ġv iv
Ð» Ñĥ
ĠD ire
Ġe llo
Ġt Äĥng
isten za
ĠÑĪ Ð¸ÑĢ
é£Ł ãģ¹
ĠãĤ³ ãĥĶãĥ¼
ãģı ãĤĮãĤĭ
Ġseu lement
tif ica
al s
Ġsegur idad
ĠÐ¾ÑĢÐ³Ð°Ð½Ð¸Ð· Ð°ÑĨÐ¸Ð¸
79 66
Ġ07 7966
Ġv áº«n
ĠE ng
ãģĭ ãĤĤãģĹãĤĮ
Ð½Ð¸ ÑĨ
Ġrisp etto
Ġprogra ma
7 6
Ġp Ã©
Ñī Ñĳ
ĠI de
Ġdin ero
g abe
est is
min istra
Ã¶ ÃŁe
Ġ ^
ĠâĹ ĭ
åĩ ¦
ÃŃ tu
Ġer halten
Ġm eu
Ġb elle
iss ant
Z SI
Ġzd r
ĠÐ¼Ð¾Ð¼ ÐµÐ½ÑĤ
ãģ£ãģ¦ ãĤĭ
ãģ¨ ãģ®
ĠJ ue
w iÄĻk
Ġam bi
a ine
ĠprÃ³ xi
åĬ¹ æŀľ
° ·
Ã¡m ara
C E
Ġg Ã©
Ġrec ensioni
Ġsa ber
ĠÐ°Ð´ ÑĢÐµÑģ
olo gia
ĠM ein
Ġapp lica
Ġexper iencia
âĢ ĭ
ç ħ
ĠPar t
s u
se hen
ĠÐ³ Ð¾ÑģÑĤ
ka l
Ġt Ãłi
ĠB or
ãģ®å¤ §
Ġapp ro
Ġparti ci
Ñĥ ÐµÐ¼
Ġinter na
Ġpod at
li g
Ðŀ Ðŀ
Ð°Ð» Ð¾Ð²
ĠÐ¾Ð±ÑĢÐ°Ð· Ð¾Ð¼
oun t
ãģ®åł´ åĲĪ
ĠV iel
Ġprz est
d nie
Ġc á»©
ÐłÑ ķ
Ð½ Ð¾Ð·
cie mbre
Ġcer ca
sp rechen
ÑĢ ÐµÐ²
ĠB ad
ç® Ĺ
Ġnat Ã¼rlich
c ent
ĠF rank
ãģ« ãģĹãģ¦
ãĥ³ãĤ »
ĠÐĿÐ¾Ð² Ð¾ÑģÑĤÐ¸
ĠÐ¿Ð¾ÑģÑĤ Ð¾ÑıÐ½
ia le
ĠBere ich
d it
pu ter
Ġãģĵ ãģĵ
Ġæ ²
éĻ º
Ġch arge
Ġprogram ma
Ġz m
uf t
Ġb lanc
ĠÐº Ð¾
Ġutilis er
ĠÐ¿ÑĢ Ðµ
Ġzaw od
Ñģ Ñģ
f ek
ter a
âĢ¦ âĢ¦
Ġch u
kt ue
ÅĤ ada
ie mbre
Ġd ort
na io
ÐµÐ· Ð¸Ð´
Ġfuer on
ĠdÃ©velo ppement
Ġap ri
ro p
ÐµÑģÐ¿ ÑĥÐ±Ð»Ð¸
ĠO s
æ¶ Ī
Ġsta ti
1 æĹ¥
ti t
ĠÐĲ Ð´
Ð¸Ð² Ð°Ð½Ð¸Ñı
Ġm ini
li ers
ici le
scha ften
ĠÐ´ Ð½Ñı
æı ´
Ġa ca
ĠdÃ© cl
Î ¿
ÅĦst wo
è²· åıĸ
å½ ±
Ġsá»ĳ ng
de x
Ġi hn
Ġs za
Ġp m
Ð¸Ð¼ Ð¾
Ġigu al
Ġattra verso
Ġw eiÃŁ
ierz ch
le icht
v illa
Ġpeli culas
Ġor den
Ġè £
ĠÐļ Ð°ÑĢ
t ina
c Ã³
ãĥ¼ãĥĨ ãĤ£
Ġo kaz
Ġsz k
ste llen
ĠÑĩÐ°ÑģÑĤ ÑĮ
Ġcor so
ç¿ Ĵ
Ġcas i
Ġk ons
Ġs ao
ĠM ai
Ð½ ÑĥÐ»
ĠPL N
Ġwp ÅĤy
mÃ¤ ÃŁ
Ð¿ Ð°ÑĢ
Ġau tor
ĠÐ¿ÑĢ Ð¸Ð»
ĠE ins
ĠC re
Ġ Ñī
Ġy ou
è¦ ļ
ta rio
ĠÐ´Ð¾Ð»Ð¶ Ð½Ñĭ
Ġpal ab
uy á»ģn
ba ll
ini Ã³n
Ġce le
Ġf est
ãģĺãĤĥ ãģªãģĦ
ä» »
Ġosob y
Ġresp ec
Ġsi gni
Ñı Ñĩ
ni ct
ãģĵ ãģĨ
ĠâĹ Ĩ
å½ ¹
ÑĢ ÐµÐ·
Ġwar un
tig t
ĠP al
ĠJ os
Ġdo c
ãģª ãģĹ
u tos
Ġszczeg Ã³l
ĠÐ¾ÑĤ Ñģ
ãģ« ãģĭ
ĠC es
Ġap ar
ĠÐ´ Ð°Ð»ÑĮ
Ġmiesz k
ãĤĬ ãģĮ
om mer
Ġi o
ĠÐ¾Ð¿ ÐµÑĢ
Ġalcun i
Ġpue des
Ġt ur
å± Ģ
Ð´ Ð¸
ma cht
Ġlie gt
á» Ŀ
ĠH Ã¶
ri que
ĠÐ¸ ÑĤ
nh eit
å¥½ ãģį
Ġå¤ ĸ
Ġtak i
Ġf abri
Ð¾Ð· Ð¼Ð¾Ð¶
cz nÄħ
f eld
Ġb zw
Ġenf ant
æ® ĭ
x e
Ð ħ
ĠÑĤ ÐµÐ±
tar ia
Ð¸ÑĤ ÐµÑĢ
gra mm
Ġtr iá»ĥn
pt iembre
g rÃ©
Ġn Ã¤ch
Ð°Ð½ Ð¸ÐµÐ¼
Ġmad rid
Ġlle g
é¡ Ķ
æ¥Ń èĢħ
Ġc at
Ġp iÄĻk
la uf
è¨ĺ äºĭ
ow aniu
ãĥ¼ãĥ Ģ
ÑĢ ÐµÑĤ
Ġtr ud
ãĤ¯ ãĥ©
ĠM Ã¶glich
so cia
Ġcol lec
ĠÐ¾Ð¿ Ð¸Ñģ
ĠÐ´Ð¾Ð»Ð¶ ÐµÐ½
N G
Ġgiá» ¯
Ġe conÃ³mi
8 5
ĠÂ ©
7 4
sen ce
Ġges tion
å¢ ĥ
Ġzosta ÅĤ
ri ff
Ġjus te
ĠÑģ Ð¾Ð³Ð»Ð°Ñģ
ãģ£ ãģĭãĤĬ
c ando
è« ĸ
Ġai me
Ġg ouver
ĠÐłÐ¾ÑģÑģ Ð¸Ñı
ĠÐ¡Ð ¨ÐĲ
Ġnos otros
ĠG ut
ĠBil der
æł ¹
Ġemp le
d W
Ġ") ,
Ġw ymi
Ġm m
Ġw or
æ° ı
Ġpar la
ĠÐ³ Ð¾Ð»Ð¾Ð²
Ġpro ces
ĠÐ´ÐµÐ» Ð°ÑĤÑĮ
dzie Äĩ
ud io
lla tion
ĠÐ¿Ð¾ÑĢ ÑıÐ´
Ġli p
Ã§ as
« a
Ã©d ia
ĠÐ½Ð° ÑĢÑĥÑĪ
res o
era us
Ġna praw
Ġun ique
ĠG li
Ġpod ob
ĠÐ¼ Ð¸Ð»
Ġa llen
Ġvoit ure
uest ra
\ /
ĠnÃº mero
Ġ4 9
au er
ne k
Â ª
Ġmu á»ĳn
we is
le k
iO i
Ġd anych
Ġs tycz
Ġcomp Ã©
ĠÐĴ Ð°Ð¼
ãĤī ãĤĮãģŁ
Ġihr en
cie dad
Ġs mart
ĠÐ¿Ð¾ Ð¸ÑģÐº
p re
Ġp s
ma in
Ð°ÑĤ Ð¸
gi i
á» Ŀi
el Ã©
ĠÑģÐ¿ÐµÑĨÐ¸ Ð°Ð»Ð¸ÑģÑĤ
c ours
ĠÐ¿Ð¾Ð»ÑĥÑĩ Ð¸ÑĤÑĮ
Ġæ¥ ½
Ã¼n f
Ġãĥĸãĥ© ãĥ³ãĥī
Ġæ İ
ora ciÃ³n
a teur
Ġcomp ro
Ð°Ð² Ð»Ð¸Ð²
Ġes s
ÅĽ rÃ³d
ti cia
ĠB est
ti ert
ĠåĲįçĦ¡ãģĹ ãģķãĤĵ
æº ĸ
ĠCh i
ĠÑģÐ²Ð¾ Ð¸Ñħ
uy e
Ġr ichi
dz e
Z E
ĠW szyst
Ġsz kol
vie mbre
ĠÃ©c rit
ĠÑĢÐ°Ð·Ð²Ð¸ÑĤ Ð¸Ñı
Ġwo hl
Ġc iÄĻ
Ġl um
ÐµÑĢ Ð¼
ç ª
gen cia
ĠWo chen
h rze
Ġgior na
Ġth i
Ġrec ono
ve is
ĠcÃ´ tÃ©
ĠÐ± Ð°Ð·
Ġpos to
eu er
Ġentrepr ises
p nia
I I
} ,
ãĥ ¨
áºŃ u
Ð¸ Ð³ÑĢ
eb rero
ĠIntern et
Ġch or
ãĤ¶ ãĤ¤ãĥ³
Å¼y Äĩ
ĠÐ¾Ð±ÑĬ ÑıÐ²
Ġåħ Ī
ĠIn s
jaz d
Ĵ °
gent ina
fer encia
ĠO u
bo ok
Ġ200 7
Ġar tis
áº¡ m
ÑĢ Ð¸Ð´
Ġ) {
czy na
Ġm or
ĠY o
ĠEs tado
uni cip
Ġre d
Ġ) ;
åº ľ
schl ie
Ð»Ñı ÐµÑĤÑģÑı
c tÃ©
Ð½ Ñĥ
pe j
alitÃ© s
ÃŃ cula
Ġh Ã©
ĠT op
ÑĤ Ð¸Ðº
Ġmer cado
ĠÐ¿Ð¾Ðº Ð°
zion ali
çĶŁ æ´»
Ġsein en
Ġh aut
Ġal ta
Ð¾Ð» Ð¾
Ġå¹ ³
æĽ ¿
ãģĪ ãģŁ
wÃ³ r
it ur
ie b
ÅĽ niej
ti l
Ġsi tio
çŁ ³
Ġacc ueil
ĠU N
Ġprob lÃ¨me
ĠTam biÃ©n
Ġmes mo
Ã¶r per
Ġan al
Ġfam ilia
b n
ali z
Ġl iÃªn
g et
Ġda ta
Ġ( )
ĠãģĿ ãĤĵãģª
ãģķãģĽ ãģ¦
u do
çĽ¸ è«ĩ
ere z
ĠÐ¾ ÐºÑĤ
ï¼ ī
Ġfal se
ï¼ Ĺ
Ġg odz
Ġli ber
ĠÐ· Ð°Ñģ
ĠMais on
ĠçĶ ·
ĠEs to
Ġob jet
ÐµÐ² Ð¾Ð¹
G V
cy z
ĠÐ½Ð°Ð· Ð°Ð´
Ġs il
w alt
Ġprog etto
Ñı Ð»
Ġje den
Ġbis o
Ġv acances
Ġ7 0
Ġser ont
æ¬ ²
Ġte il
Ã©ri que
ĠÑĥ Ð»Ð¸
Ġbamb ini
ĠÐ³Ð» Ð°Ð·
Ġw ith
Ġd Æ°á»
3 6
æĸ¹ ãģĮ
Ġf ran
ÐµÐº Ð°
æĢĿ ãģĦ
Ġeff ica
Ġste hen
ĠC our
Ġconc ern
ĠÐ´Ð² Ð¸Ð¶
ec tos
Ġj ardin
Ġdist in
Ġdo ÅĽwiad
m eld
Ġe inge
O UR
ĠÐºÐ¾Ð¼ Ð½
Ð¾ÑĤ Ð¾
Ð¾Ð± Ð¸Ð»ÑĮ
Ġè ĭ
ï¼ ļ
ri ft
ĠÑĤÐ°Ðº Ð¸Ðµ
G E
Ġter ri
tow ych
ment ation
Ġlav or
Ġlist _
Ã§ os
ĠR ei
Ġfam ili
wa hl
Ġri ce
åīį ãģ«
Ġth Æ°Æ¡ng
Ġpar ce
ĠÐ´ ÐµÐ¿
ĠTe am
ãģı ãĤĬ
é Ĥ
³ ç´°
Ġu p
ĠÐ¿ÑĢ ÐµÐº
ĠM ode
rei ben
Ġle gg
ĠÐ½ ÐµÐ¹
ãģĭ ãģĳ
Ġr end
Ġer o
Ġobje c
ĠCu ando
Ġtec n
Ġd wa
Ġpas ser
c ura
wo hn
ĠÐºÐ¾Ð¼Ð¿ ÑĮÑİÑĤ
Ġf is
Ġå ŃĲ
Ġç ¶
ç´ ¢
ãģł ãģĭãĤī
é¡ĺ ãģĦ
ĠÄĳá» ķ
ãģ¾ ãģ¾
3 9
ÐµÑĢ Ð¾Ð¼
Ġå¹ ´
Ġãĥĸãĥ© ãĥĥãĤ¯
æĹ ı
ĠPol ska
tycz nie
ci ar
ĠDÃ© c
ĠÐ·Ð°Ðº Ð»ÑİÑĩ
Ġm Ãº
oni ble
tar beit
Ġh ora
Ġbes ser
ĠÐ¿ÑĢÐ¸ Ð¾Ð±ÑĢ
ÅĤ oÅĽci
Ġin ten
a ter
Ġge hÃ¶r
ĠÑĩ ÑĥÐ²
ĠÑģ ÐµÐ·
ĠÃ©ta t
Ġen vo
M E
ãģĻ ãģİ
ag no
Ġt itre
Ġm l
ÄĻ dzie
Ġt Ã¬m
m Ã³
ãģ®å ŃĲ
ĠEuro pe
z er
Ġde cis
Ġz usammen
Ġa do
ĠãģŁ ãģł
Ð¾Ð¶Ð´ ÐµÐ½Ð¸Ñı
Ġmat Ã©r
ãĥ³ãĤ¿ ãĥ¼
Ġnouve lles
en en
ĠãĤ¢ ãĤ¤
gu ar
Ġmin utes
Ð²ÐµÑĢÐ¶ Ð´
un o
Ġtak ich
Ġinf atti
ĠÃ© lÃ©
Ġdire kt
ãĥ³ãĤŃ ãĥ³ãĤ°
Ġ äººæ°Ĺ
Ð¼ÐµÐ½ÑĤ Ð°ÑĢ
_c rop
ĠÑĤ ÐµÐºÑģÑĤ
Ġv u
Ġp amiÄĻ
ans tal
ĠÑģ ÐµÐº
Ġcon ne
Ġbe m
ĠÐ´ Ð¸Ð·
Ġma teria
Ġarty ku
Ġsz tu
é£ ²
ĠÐ¾ÑĤÐ·ÑĭÐ² Ñĭ
Ġsais on
ĠÐ¼ Ð¸Ðº
te gor
ãĤĴ ãģĻãĤĭ
ãģ« ãģĤãĤĭ
Ġinforma cji
ĠÑĤÑĭ ÑģÑıÑĩ
ol tre
tiv en
Ġb ao
is er
wal a
u ki
Ð¾Ð¿ÑĢ Ð¸ÑıÑĤ
own load
sch n
ff re
Ġr Ã¡p
b lis
Ġd or
è¦ ª
ĠF ach
un ku
ĠVers and
m el
ĠÑĤ Ð¾Ñĩ
ä¹ ħ
ĠTe le
Ġfin an
ĠÐ¿Ð¾Ð´ Ð³Ð¾ÑĤÐ¾Ð²
ãģ®å ī
Ġdo bre
Ġãģ© ãģĨ
ãĤī ãģĹãģĦ
ti llas
ta mos
Ġb ut
Ġlo g
ÑģÐº Ð¸Ð¼
ï¼ Ł
la y
ãģ® ãģĤãĤĭ
Ġw rze
a mente
r ich
Ã³ ry
Ġb Ãłi
ĠKom ment
ĠÐ° Ð¿ÑĢ
ĠÐŁÐµÑĢ Ð²
Ġcon fer
kt ur
Ġ4 6
ãĥĪ ãĥ©
Ġres taur
Ã Į
Ġm ang
Ġen er
ĠÑĤ Ð¾Ð½
ĠÑħÐ¾ÑĢÐ¾ÑĪ Ð¾
ĠK unst
ure au
Ð¾Ð±ÑĢ Ð°Ð¶
Ã¶ ÃŁ
ĠR ou
Ġmes ure
mi ast
ä¹ ³
at ura
æĢ ¥
Ġcel u
ĠÑĢ Ð°Ð´
id s
Ġc res
ĠÐ¾ÑĤ Ð¿ÑĢÐ°Ð²
ãĥĪ ãĥ¬
Ġprodo tto
par ation
åı į
Ġtr á»įng
Ġpres idente
Ġas sez
ĠÅĽ wiet
ĠA pr
ÑĥÑĢ Ð½
Ã¡ b
ĠZ um
Ġr odza
ÐµÑĢÐ± ÑĥÑĢÐ³
am enti
Ġlle var
Ġach at
Ð¾ÑĢ ÑĥÐ¼
å¸ ¯
Ġnombre ux
ĠÐ¿Ð¾Ð½ Ð¸Ð¼
Ġgu te
o le
Ġis so
Ġjak oÅĽci
Ġval or
ĠPl atz
Ġmay o
ĠZ d
Ġprze pis
Ġorig in
ĠÐ»ÑİÐ´ Ð¸
Ġge ben
Ġdo kument
Ġl ado
ãĥ¼ãĤ³ ãĥĶãĥ¼
Ġç¾ İ
Ġna v
ĭ äºº
c ta
Ġp yt
Ġger ade
C OM
Ġcz ar
á»ĵ n
Ġmus ica
ck s
Ġs or
pi Äĩ
Ġæ¥ Ń
åĨ į
ÐµÐºÑĤ Ð¾ÑĢ
min y
Ġe lement
ĠGra cias
Ġco lla
ÑĢ Ð¾Ðº
ĠÑģ ÑģÑĭÐ»
ĠÐ± Ñİ
gos to
ĠÐĵ ÑĢ
st Ã¼ck
ant as
ens ione
å± ķ
Ġmar zo
ĠM ann
Ġczy m
vie w
ä¸ İ
Ġr á»ĵi
Ġcul ture
ĠÐļ Ð°Ð·
ĠÐ¾Ð± ÑĥÑĩ
Ġdi f
li we
Ġgia o
ĠSh op
Ġd ara
Ġm ia
Ġser ie
ĠÑĢÐ°Ñģ Ð¿Ð¾Ð»Ð¾Ð¶
åĢ Ł
ci pa
Ġé£ Ł
k us
ĠâĢ ĺ
Ġnun ca
Ġcontin u
ĠS to
ãģ® ãĤĪãģĨãģª
un idad
Ġw Ã¤re
Ġte ma
Ġe ux
Ġno che
ĠÐ¿Ð¾Ð¼ ÐµÑī
ĠN utz
Ġsmart _crop
ĠÐ¾ÑĦ Ð¸ÑĨÐ¸Ð°Ð»ÑĮ
Ġcl assi
Ġl áº§n
b uch
ĠSe p
âĢĭ âĢĭ
Ġæµ ·
ver no
ti ent
ĠÐºÐ¾Ð»Ð¸Ñĩ ÐµÑģÑĤÐ²Ð¾
ist rz
Ġfol gen
ĠM Ã¼n
ia ge
a je
ĠH ei
Ġ3 7
Ġ7 5
Ġfa Ã§on
c ow
è· ¯
ĠEsta dos
cz ych
Ġ ung
Ð¸Ðº Ñĥ
Ġ4 3
iel le
ĠS ono
ĠÐ¿ ÑıÑĤ
â ĸ
ãĤĴ ãģĶ
Ġan ti
è²· ãģĦ
åħ¥ ãĤĮ
Ġsp rz
Ġprogram me
Ġch yba
ĠÑįÑĦÑĦ ÐµÐºÑĤÐ¸Ð²
ãĤĬ ãģ«
ãĤĴ ãģĹãģ¦
áº³ ng
ie u
ĠÐºÐ¾Ð¼Ð¿Ð» ÐµÐºÑģ
ĠÑģÐ¾ ÑħÑĢÐ°Ð½
Ġk wiet
ãģĮ ãģĤãĤĬ
ut zen
ĠWarsza wa
odz enia
ĠS ec
ene z
Ġdi ri
ÐµÐ» ÐµÐ½
cze ÅĽniej
ĠÐ²ÐµÑĢ Ñģ
ĠÐ´ Ð¸ÑģÐº
Ġqu er
ĠÑĦ Ð°ÐºÑĤ
Ġdes ta
Ġcor ps
ãģ§ãģį ãģªãģĦ
p le
ĠÑĩÐ°ÑģÑĤ Ð¸
iáº¿ u
U N
Ġt enemos
ª å¼ı
è¶Ĭ ãģĹ
ãģ§ ãģ®
Ġcons ider
li en
Ġz arz
Ġs d
Ġï¼ ĵ
ãģ®æ Ħ
ĠÐ²Ð¾Ð· ÑĢÐ°ÑģÑĤ
ĠG ru
é¦ ¬
Ġproble mas
Ġderni Ã¨re
ty ka
ĠÐ½Ð°Ð¿ Ð¸Ñģ
Ġr und
ĠexpÃ©ri ence
Ġ$ (
Ġsu ll
Ġå½ ¼
ĠFra ge
u k
ĠÐ·Ð°Ð´ Ð°Ñĩ
ÑĤ Ñĥ
Ġdzie ÅĦ
ÂµÃ Ħ
Ġtá» ī
la ck
Ġeur opÃ©
le tz
Ġmin utos
ĠÐº ÑĥÐ¿
Ð¾ÑĢ Ð¾Ð¶
Ġs ob
Ġb Ã¡o
li ci
ĠÐ¿ÑĢÐ¸Ð½ Ð¸Ð¼
ĠN uo
Ġcam bio
ĠS y
rais on
Ġth Ã©
ĠÐ¼ÑĥÐ¶ Ñĩ
Ġz ost
ĠÐºÐ°Ð¶Ð´ ÑĭÐ¹
ĠH al
ĠÐµ Ð²
Ġso i
u di
æ¥½ ãģĹ
Ġm amy
Ġsi er
v ista
ut ter
Ġdesarro ll
Ġãģ ¿
ãĥĭ ãĥĥãĤ¯
Ġbe f
Ð¾Ð· Ð½
Ġspo tk
çķ °
ĠA ch
Ġesemp io
Ġnaj bardziej
Ġf eu
ĠÐ¾Ð´ Ð½Ð¾Ð¹
b ym
Ġpa Åºdzier
Ġh ommes
Ġt ito
Ġa inda
ĠÑĩ ÐµÐ³Ð¾
by wa
ĠSer vi
Ġb iá»ĩt
Ġger ne
Ġqu oi
ĠGesch Ã¤ft
Ġrela ciÃ³n
Ġl iste
ĠÐ¶Ð¸Ð·Ð½ ÑĮ
Ġes ter
ĠD r
Ġda fÃ¼r
Ð¾Ð» Ð°
Ġla iss
Ġç§ģ ãģ¯
ãĤ¢ ãĥĹãĥª
Ġd ow
Ġjun io
ĠC os
ĠÐ°Ð´ Ð¼Ð¸Ð½
¿Ģ å®ī
è» ½
ĠÐŀÐ´ Ð½Ð°ÐºÐ¾
Ġjourn Ã©e
Ġb el
il o
Ġç ©
Ġm ano
å´ İ
ãģĮ ãģĤ
Ġè Ĥ
we g
°¡ åįĺ
Ġa ktu
Ġh Ã³a
ĠÑĤÑĢ Ð¸
re cht
Ã©ri ca
Ġnost ri
Ġpri m
i i
ãĤĮãģ¦ ãģĦãĤĭ
Ð´Ð° Ñĩ
Ð» ÐµÑĩ
Ġr in
ĠdÅĤu go
Ġh Ã¶
Ġan terior
Ĺ ¤
Ð°Ð»ÑĮ Ð½ÑĭÐ¼
æĺ ł
gli ere
Ġfu era
le il
ĠF er
ÑĢ Ð¾Ð½
å¡ Ĺ
Ġpropr ie
reich en
ãģĵ ãģ¡ãĤī
Ġç ģ
ĠÐ¾Ð±Ð»Ð°ÑģÑĤ ÑĮ
Ġmar ca
Ġsmart_crop _
ÑĢÑı Ð´
Ġf ort
ä»ĺ ãģĳ
Ġp Ã³ÅĤ
ÑģÑĤÑĢÑĥ Ð¼ÐµÐ½ÑĤ
Ġd Ã¨s
ĠG ener
Ġproble ma
ĠÐ¾Ñĩ ÐµÑĢÐµÐ´
ĠÐŃ Ðº
Ġreali z
Ã¨ te
Ġth á»ĳng
eb bra
ebbra io
éł ĥ
Ġta ille
etto re
ĠL ei
ĠÑģÐ¾Ð± Ð¾Ð¹
U S
ĠNe gro
Ġwo llen
ĠI mp
ĠprÃ© f
Ġes cort
Ġcon ver
cu ola
ĠP ierre
Ġc ade
ĠE T
Ġmar que
ãģ®å ĩº
ier ra
Ġbe kann
Ġpar ten
Ġf rais
Ġnasze j
å± Ĭ
Ġch ce
Ġpas se
Z Y
Ijo i
w nÄĻtrz
ãģĦ ãĤį
ĠÐ½ Ð¸Ð·
Ġth Ãªm
Ġmo c
ãĤĵ ãģ©
Ġ' ,
de z
Ġmu zy
Ġro k
an ni
ĠS P
Ġstron ie
Ġpare ce
Ġper Ã²
ĠJos Ã©
Ġde ta
ĠÐ½ Ð°Ð¹ÑĤÐ¸
Ġngh Ä©
Ġcompr ar
ttu tto
dos e
ĠÑĥÐ· Ð½
ĠL ub
Ġspe cjal
zei gen
ĠHer ren
h mer
k ten
ĠÑĢÐµÐ¶ Ð¸Ð¼
ĠM ich
Ġg ag
en nen
ĠÐĶ Ð°
ch ÄĻ
ĠA h
mer y
ĠÐ´ ÑĥÐ¼
r era
Ð¸Ð² Ð°ÑİÑĤ
Ġsc or
ĀĀĀĀĀĀĀĀĀĀĀĀĀĀĀĀ ĀĀĀĀĀĀĀĀĀĀĀĀĀĀĀĀ
v ado
Ġmain tenant
ĠH am
Ġvo ll
ĠÑĢÐ°Ð±Ð¾ÑĤ Ñĥ
Ġsetti m
ĠBras il
Ġdis pon
Ð² Ð¾
or z
ãĤĬ ãģŁãģĦ
ç· ¨
os es
ar od
è °·
ĠF unk
Ġl á»±c
Ġb ol
ĠÑģÑĢ Ð°Ð·Ñĥ
Ġãĥ ļ
Ġcontro l
Ġl arge
Ġins ieme
ub e
ĠÐ¿ Ð¸Ñģ
ĠArbeit s
Ġletz ten
ĠÐ°Ð²ÑĤÐ¾Ð¼ Ð°ÑĤ
çĻ» éĮ²
ĠÐ¿Ð»Ð¾Ñī Ð°Ð´
Ġda te
æĻĤ ãģ«
Ð°Ñģ Ð¸Ð±Ð¾
zn es
ĠÐ± Ð°Ð»
ZION E
Ġin ser
Ġn ier
Ġac er
Ġse us
b l
Ġacc Ã¨s
ĠR ic
Ġs iamo
Ġter m
å¤ «
ĠÑģÑĤ Ð°Ð»
hl er
Ġch odzi
Ĭ ±
Ġe ig
on nen
m Ã©e
ãĥ¼ãĥĸ ãĥ«
ĠC ie
Ġnie j
ĠÐ¼Ð°Ð³Ð°Ð· Ð¸Ð½Ðµ
ĠÐ¼ Ñĥ
Ñĩ Ð¸ÑĤ
Ġus ÅĤug
æİ ¢
au en
c itÃł
Ġtr á»Ł
ab ilidad
æľ Ŀ
Ġtemp or
ĠÐºÐ¾Ð¼ Ð°Ð½Ð´
f il
ĠczÅĤ owie
ĠK auf
ĠJu li
ãģ§ãģĹãĤĩãģĨ ãģĭ
li k
Ġs Ã»
èĢĥ ãģĪãģ¦
ĠÐ¿ Ð°Ð¼
Ġra mach
k tion
ĠÑģ Ð¿ÑĢÐ°Ð²
ĠÐ¿ÑĢÐ¸Ð¼ ÐµÑĢ
ĠF R
) .
ãĥŃ ãĥ³
ĠS ac
Ġacc ord
Ġlib ro
æĬ Ģ
rie b
Ġni es
ĠE mp
Ġuti liz
ĠÅ¼y cie
å¤§ åŃ¦
Ġo l
Ð³ ÑĥÑģÑĤ
Ġse mb
d et
us to
Ð½Ð¸ ÑĨÐ°
ĠÐºÐ¾Ð½ Ñģ
I n
Ġszczeg Ã³ÅĤ
ĠZ ak
cze k
ĠÐ¿ÑĢÐµÐ´Ð¿ÑĢ Ð¸ÑıÑĤ
ĠÐ½Ð° ÑĥÑĩ
a te
ï¼ Ļ
èĪ ¬
ko ÅĦ
ci da
Ġ ÅĤat
om ini
p unkt
ĠG obierno
Ġu b
ĠpiÃ¨ ces
ÐµÐ» Ð¾
Ġs are
ĠP rÃ©
Ã¨ tres
ĠÃ İ
ĠÄĳ áº¥t
ze u
ĠÐ¾Ð±Ñī ÐµÑģÑĤÐ²
ki er
ãĥĬ ãĥ¼
az z
Ġparticol are
ĠÐ¡ Ð°Ð½
ãĤī ãģ«
ra to
r ÃŃa
Ã¤h ri
Ġfaz er
ĠR os
ãĤģ ãģŁ
Ġlive llo
Ġvis ite
Ð¾Ð± ÑīÐµ
ĠÐº Ð¼
Ġs el
Ä Ħ
Ġsyste m
is iÃ³n
y j
ĠGe mein
æ ¢
éģķ ãģĦ
k oÅĽÄĩ
m ber
Ġdonn er
çĦ ¼
Ġa tra
jou ter
Ġmer cato
Ġkonn te
Ġrep rÃ©sent
çµĮ é¨ĵ
ĠÐ´Ð¾ÑģÑĤ Ð°ÑĤÐ¾ÑĩÐ½Ð¾
Ġti Ãªu
Ġpres enta
ĠWe g
ĠGr and
E T
Ġu 00
5 5
Ġinforma tion
men o
Ġv ais
ux e
ãĤĦãģĻ ãģĦ
Ġactiv itÃ©
ĠÑįÑĤ Ð¸Ñħ
Ġczerw ca
wick lung
ach e
Ġwer s
Ġcen y
Ġesp anol
Ġsegu ir
Ġach eter
Ġver so
è² ł
Ġf ich
ri Ã¨re
Ġpa p
la ng
ĠI ni
Ġjed n
Ġv ÃŃ
mobil ier
Ġser ait
ĠÑį Ð»ÐµÐ¼
Þ °
Ġch á»ĭ
ĠãĥĲ ãĥĥãĤ°
èĬ ±
Ġsigui ente
ĠJ uni
I G
Å »
Ġjes tem
Ġwy glÄħda
Ġãģ »
om a
ĠÑĤÐ°Ðº Ð¸Ñħ
Ġr ue
áº¯ m
ĠO k
Ġgro ÃŁ
ĠÐĴ Ð¸Ð´
ĠÐ¼ÐµÑĤ Ð°Ð»
Ġty god
ĠF ir
ĠÑģÐ²ÑıÐ· Ð¸
ben d
tive ment
Ġme glio
ä¸ĭ ãģķãģĦ
Ġ1 er
Ġdev ant
2 00
Ġdi ciembre
Ġp in
ĠV ol
Ġpo Å¼y
Ġpo ch
Ġver fÃ¼
ĠÐ¿ÑĢ ÐµÐ²
Ġgus ta
to res
ĠÂ µÃ
Ġv áº¥n
ig lie
Ġoc tubre
ĠÑįÐ»ÐµÐºÑĤÑĢ Ð¾Ð½
Ġnav ig
çµĲ æŀľ
dzi Äĩ
gu ir
Ġdisf ru
Ġima ges
ÐµÑĤ Ð¾Ð²
Ġé ĥ
Ġab ril
Ð°Ðº ÑĤÐ¾ÑĢ
ĠE du
Ġo fi
ra t
æ² ¢
åĽ ²
Ġmilli ons
ĠÐ¾Ð± ÑĢÐ°Ñī
tem ber
Ġli bre
Ġl uo
Ġge hen
Ġag it
ĠÐŁÑĢ Ð¾Ñģ
ĠÄĳ Æ¡n
Ġc itas
ĠÐ° Ð±
us iÃ³n
ÅĤ ÄĻ
Ġbez p
ãģĻ ãģĲ
it zen
Ġan un
ĠÑĢÐ°Ð· ÑĢ
Ġlo i
Ġpod staw
ĠåĨ ħ
jÄħ ca
ĠãĤ¯ ãĥŃ
ãģ© ãĤĤ
Ġb out
Ġv Äĥn
ĠS Ã£o
ãģ£ãģŁ ãĤĬ
pues to
Ġincl uso
4 6
Ġprop re
Ġwen ig
Ġz de
en dere
ĠÐ½Ð°Ð¿ ÑĢÐ¸Ð¼ÐµÑĢ
Ã³ s
Ġin wes
Ġop is
ir s
2 V
Ġmies iÄħ
èĪ Ĺ
Ġc ri
ĠÐĺ Ð³
ĠÐ±Ñĭ Ð²
æĽ ²
ol f
ĠEr fahr
ĠÑģÐ¼Ð¾ÑĤÑĢ ÐµÑĤÑĮ
ĠÐ´ÐµÐº Ð°Ð±
ĠÐ² ÑĢÐ°Ñĩ
ĠkaÅ¼ dy
ãģ§ ãģĬ
ãĤ¸ ãĤ§
ĠÅ¼ ad
Ġm ort
Ñį Ð½
de p
Ġne gli
ĠRe ise
Ġt Ãªte
Ð¾Ð± Ð¾Ð´
Ġæ ¨
Ġpr Ã¡c
ĠNo tre
Ġnu it
odi ce
ĠãģĵãĤĮ ãģ¯
Ñģ Ð°
Ġartic olo
Ġza ba
Ġcar atter
Ġma ter
Â ¹
Ġho áº¡t
Ġczy n
pr asz
ZSI 6
Ġbud ow
Ġsemp lice
ĠCÃ³ mo
Ġcara cter
ri ca
ĠÐł Ð°Ñģ
ĠSch la
ĠÐ¿ ÑģÐ¸Ñħ
ĠÐ¸ÑģÐ¿Ð¾Ð»ÑĮÐ· Ð¾Ð²Ð°ÑĤÑĮ
te dy
ĠPub liÃ©
Ġcham bres
Ġo chron
enn ent
Ð½Ð¸Ð² ÐµÑĢÑģ
Ġop ort
Ġh t
é ī
Ġa fec
a W
Ġstycz nia
ä¼ģ æ¥Ń
å½ĵ ãģ«
Ġpr is
Ġth at
Ġein ige
åį °
ĠÐ½ Ð°Ð»Ð¾Ð³
Ġs vol
è¿ ½
Ġver sion
Ġele g
Ġpoin ts
ĠÐ¿Ð¾ÑĤ Ð¾Ð¼Ñĥ
Ġmie Äĩ
ĠMad uras
isten cia
ĠBeit rag
Ġh Ã¤t
Ġvol te
Ġk ry
ĠÐ¿ÑĢ Ð¸ÑĢ
æ°Ĺ ãģĮ
Ġgiá» Ŀ
Ġen fer
å¤§ ãģį
pl atz
Ġ5 9
ĠdiffÃ©r ents
Ġwsp om
ĠL in
Ġus t
ãĥĻ ãĥ«
Ġcab e
Ġcal le
ien tos
Ð°Ð½ Ð½ÑĭÐµ
ig keit
A P
Ġmani Ã¨re
Ġsopra ttutto
ĠÑĢÐµ Ð°Ð»Ð¸Ð·
Ðł Âµ
Ð¾ÑĢ Ð¾Ð½
Ġwie m
ÅĦ ska
Äħc ych
ãĥĸ ãĥŃãĤ°
Ġæ ¸
Ã« l
ĠÐºÐ°Ðº Ð¾Ð¹
Ġa Å¼
Ġnavig ation
ãĤ¹ãĥĨ ãĥł
tr Ã³
ĠBe ispiel
ĠÂ ¦
ĠÐ· Ð°ÑģÑĤ
Ġæ¬ ¡
Ġenvir on
ĠÐº Ð¾Ñģ
Ġsta tt
Ġwz glÄĻ
ç Ī
cri p
g ato
Ġcons um
Ġofre ce
Ð¸Ð½ Ð°Ð¼
Ġimp e
áº§ y
ãģĬ ãĤĬãģ¾ãģĻ
Ġæ° Ĺ
Ġg obierno
ĠÐ¿ÑĢ Ð¸Ñħ
ĠE m
Ð¸ÑĢÑĥ ÐµÑĤ
ãĥ³ãĥ Ħ
f Ã¤
AL E
uo le
niej sze
Ð» ÐµÐ³
Ġo pp
Ġami gos
Ġde ter
ĠR ad
ĠãĢį ãĢĮ
æ¨ ©
Ġpol ity
+ []
Ġmer ci
Ġind ustr
Ã¬ n
Ġviel en
ÑĥÐ½ Ð°ÑĢÐ¾Ð´
Ġk am
Ġpeti ts
Ġbene fi
è¡¨ ç¤º
ĠÐŀ ÐŀÐŀ
Ð¼ Ð°ÑĤ
Ġques te
Ġlis top
çĲ ĥ
Ġau tori
ĠÐ±Ñĭ ÑģÑĤÑĢÐ¾
Ġres s
Ġra zem
Ġau g
Ġbu dy
ĠÐ² Ð»Ð°ÑģÑĤ
Ġc Ã¡
ard s
ĠOdpowie dzi
wi Äĩ
ch s
Ġt ÃŃch
Ġp ein
ĠÐ¾Ñģ Ð½
Ġo ft
ĠA ir
ãģ¹ ãģį
Ġjo ven
Ġpi cc
Ġw pis
Ġele c
Ġoff i
Ġ\": \"
Ġchar akter
éĥ¨ åĪĨ
ĠÐ½ Ð¾Ð³
ĠÐ° ÑĤ
vers itÃ©
å£ ģ
ĠUni dos
ĠStr ona
Ġw iad
æ¸ ©
Ġsi cu
ĠÃ©ta ient
Ġtr ung
ĠÑıÐ½ Ð²Ð°ÑĢ
osz enia
ta ta
ãĥ¼ãĥ« ãĥī
ci ente
Ð¸Ð½ ÐºÐ¸
ÑĥÐ½ ÐºÑĤ
ent y
Ġun as
Ġ ä¿Ŀ
ĠAl ter
Ð ¨
ĠÐ¿ÑĢ Ð°Ð·Ð´
Ġexp res
Ġla nge
Ġofer ty
åį Ĺ
ĠktÃ³re go
Ñı Ð²Ð»Ñı
ĠÐŁ Ð¾Ðº
ost rar
Ġ q
b lo
ĠÑģÐ»ÐµÐ´ ÑĥÐµÑĤ
co li
Ġm ach
Ġactiv itÃ©s
ĠAs ÃŃ
ĠS anta
ãģ§ ãģĤ
or ta
ĠÐŁÐµÑĤ ÐµÑĢÐ±ÑĥÑĢÐ³
Ð¾ÑĢ ÑĮ
ĠÑĩ Ð¸ÑģÑĤ
Ġmigli or
ĠÑĢ ÐµÑģ
Ġqu á»ĳc
Ġon ly
ãĥ ĺ
le gt
Ã® t
ĠÐ½ Ð¾Ñĩ
s cy
cion ado
ĠCom me
Ġme dia
© ĭ
ĠSicher heit
Ã¤ ter
Ġdire c
este ty
Ġty pu
ãģ¾ ãģĹãģ¦
åĭ Ł
ĠÑĤÐ°Ðº Ð¾Ðµ
Ġr it
ĠæŃ £
Ġad ministra
Ġa os
ÑĢ Ð¸ÑģÑĤ
ÑĬ ÐµÐ¼
Ġm essage
Ġpod sta
Ġh y
al o
Ðķ ÐĿ
½ ¢
ĠgÃ©nÃ©ra l
ĠH ay
ste ller
ĠÐµ ÑīÑĳ
ãĥ¯ ãĤ¤ãĥĪ
ĠF eb
Ġkwiet nia
w ane
ĠSch warz
Ġs ettembre
ĠâĨ Ĵ
ãĥ ¶
ãĤ¹ ãĥŀ
U L
Ġencuent ra
Ã¼ hr
ĠÑģÑĢ Ð°Ð²
ãĤ¢ ãĤ¤
ãģª ãģĳãĤĮãģ°
Ġvis ita
ĠOr t
Ġra ison
ĠPrze d
ĠÐ· Ð½Ð°
Ġw sz
by t
ĠÐº Ð°Ð±
Ġb est
ãĥį ãĥĥãĥĪ
i ble
ci mento
b m
Ġwrze ÅĽnia
Ġi hm
ĠÐ¿Ð¾ÑĤ Ð¾Ð¼
O T
Ġwsp Ã³l
Ġu da
Ġno t
ĠÑģÐ²Ð¾ ÐµÐ³Ð¾
Ġç´ Ħ
Ġleg ge
éĢļ è²©
Ġæ Ľ
Ð¾Ð¼ Ð½
Ġn owo
èĤ ī
ĠY a
vis iÃ³n
ÑİÑī Ð¸Ñħ
Ġ( '
ĠMÃ¤ rz
Ġ4 2
Ġs ci
Ġroz wiÄħz
y ÅĤ
Ġnh au
Ð° ÑģÑĤÐ²
ĠDes ign
Q iO
à ¸
ion a
ĠMa il
ãģ¾ ãģł
ĠÐºÐ½Ð¸ Ð³
ĠMil li
Ġprodu cto
ÑĥÐ»Ñı ÑĤÐ¾ÑĢ
ĠÑĢÐµÐº Ð»Ð°Ð¼
ĠÐŀ Ð½Ð¸
Ġprzy sz
ŀ į
ãģ¾ ãģ¨
ÃŃcul os
Ġespa ce
Ġmelh or
siÄĻ bior
ber t
Ġac tion
Ġfr ente
Ġå¼ ķ
ĠCon se
ce ll
hal t
Ġz do
Ġe jer
æ¸ Ľ
ãĤ¦ ãĥ³
ro y
ĠÐ¿ÑĢ Ð¾Ðº
ĠãĤĤ ãģĨ
ia re
p endant
Ġse ptiembre
d ruck
Ġu04 4
Ð¾Ð²Ð°Ð½ Ð¸Ð¸
Ġsi m
ĠÑģÐ°Ð¹ÑĤ Ð°
Ð°Ð¼ ÐµÐ½
= =
ĠHotel s
ĠduÅ¼ o
Ġqu o
ĠÐ´Ð¾Ð¿ Ð¾Ð»Ð½Ð¸ÑĤÐµÐ»ÑĮ
ĠãĤ¹ ãĤ¿
ĠEr geb
um en
alidad e
it ti
ch y
ãĥª ãĥ³ãĤ°
ãģŁ ãģı
âĶģ âĶģ
bra uch
ĠmÃ¶ chte
ĠGar ten
Ġpas o
ãģªãĤĵ ãģ¦
ãĥĥ ãĤ«
Ġtiáº¿ ng
Ðº Ð¾Ð³Ð¾
Ġl Ã¤s
ĠP ER
u ma
Ġtra itement
und i
it to
to waÄĩ
ãģĭãģª ãĤĬ
ĠÐºÐ¾ÑĤÐ¾ÑĢ Ð¾Ð³Ð¾
Ġmul ti
r ÃŃ
ĠSp iele
ĠEn er
Ġme mb
ĠP el
Ġen ero
n ich
Ĭ ãģ³
3 8
ãģłãģĳ ãģ©
Ġasso cia
ĠãģĿ ãģĵ
æĶ ¹
ro id
ĠÐ¼ Ð°ÐºÑģÐ¸Ð¼
æľ «
ara ciÃ³n
ĠÑģÑĤÐ¾ÑĢ Ð¾Ð½Ñĭ
Ġcu atro
åĩº ä¼ļãģĦ
olo g
ĠvidÃ© o
Ñı Ð¼Ð¸
isch es
A B
Ġa Ãºn
Ġcli ent
at re
Ġtu taj
c 3
Ġk ro
Ġmi asta
æĬ ľ
Ġw Ã¤hrend
ÑĤ Ð¾Ð²
b bero
Ġpesso as
en sa
rÃª t
Ġucz est
ãģ« ãģ¨
Ġ ðŁ
ous se
Ġv it
ĠW iÄĻ
p as
Ġcze go
ĠÐ´ ÑĥÑĪ
uest as
ãģªãģı ãģª
re g
ĠÐ¿Ð¾Ð´ Ð°ÑĢ
ĠÐŀ Ñĩ
ĠÑĤ ÑĥÑĤ
tycz nych
ãĤĴ ä½ľ
ç¾ ©
ĠÑģ Ð¸Ð½
Ð² Ð¸Ð½
Ġå¥³ æĢ§
ub o
Ġtr ÃŃ
di r
ĠA ma
j ar
ĠG dy
y on
ais e
Ġp elle
åľ Ł
Ġincont ri
Ġso cietÃł
Ġgro ÃŁe
o o
åį ´
Ñĩ Ð¸Ð²
Ġpon er
Ġfa vor
ĠÑĢ Ð¾Ð·
ĠÐ·Ð°Ð± Ð¾Ð»ÐµÐ²
èª¬ æĺİ
å¸ °
å°ĳ ãģĹ
ell schaft
iss ione
e urs
Ġge mein
æľ į
ãĥĥ ãĤŃ
Ð¸Ð· Ð¼
i os
ĠPro zent
Ġcu á»Ļc
Ġj eux
Ġin ver
Ġser wis
Ġs ites
Ġwyb or
ãģĹãģ¦ ãģ¿
ĠEs cort
Ġalgun a
ĠMit tel
ĠÅĽwia t
ĠDes de
Ġpotre bbe
Ð¾ÑĤ Ð¸Ð²
Ã¶ff entlich
ĠH Ã´tel
Ġj s
la tion
ãĤ² ãĥ¼ãĥł
Ð°Ð½ Ðº
ä½¿ ãģĦ
ãĥĿ ãĥ¼ãĥĪ
ĠF ol
ta kt
å Ĥ¬
ĠÐºÐ» ÑĥÐ±
Ġparti do
Ã¤ us
r ont
ĠÑĢ Ð°Ð´Ð¸
les s
Ġry nku
qu is
bild ung
Ð¸Ðº Ð°Ð½
ãģ® ãĤĪãģĨãģ«
an ten
Ġzna le
Ġ} ,
f rei
Ġz esta
Ġw nios
ĠGro ÃŁ
ãģ®å °
ĠÃ©tu di
Ġgi ugno
li cy
Ð°ÑİÑī Ð¸Ð¹
Ġalgun as
ra um
Ġma g
ola zione
Ġht ml
ãĥ³ãĥ Ķ
ĠkÃ¶nn te
ĠÃ į
ĠN á»Ļi
ro ng
Ġj este
Ġst anie
ĠÐ½ÐµÐ± Ð¾Ð»ÑĮÑĪ
Ġw issen
Ġcoment arios
Ġacqu a
x to
ĠsÃ© jour
t ante
Ð°Ð½Ð´ Ð°ÑĢÑĤ
ĠMo Å¼
ĠBewert ungen
sch uhe
å¤ī ãĤı
ber eich
Ã§ u
ĠMus ik
Ġla bor
ÑģÐ» ÑĥÐ¶
Ġå¤ ©
ĠÐ²Ð½Ð¸Ð¼ Ð°Ð½Ð¸Ðµ
ãĥ³ãĤ· ãĥ§ãĥ³
ä½ľ åĵģ
es se
ĠåĪ Ŀ
ĠA nh
Ġwy ra
il ar
ĠÑģ Ñħ
ãģĮ ãģĬ
Ġcon cer
ãĤī ãģļ
ĠÐ¾ÑĤ Ð¼ÐµÑĤ
k tÃ³
ĠAug ust
Ġnue vos
ĠÑĤ Ð²Ð¾ÑĢ
los sen
ĠÐĴ Ð¾ÑĤ
ĠÐ¾ Ð³ÑĢ
Ġju lio
I ER
ĠRe gel
Ġam Ã©li
Ġtrova re
Ġc anti
Ġå Ł
ĠA ut
te mps
ĠÐ¸ÑģÐº Ð»ÑİÑĩ
ãĥ¼ãĤ¿ ãĥ¼
Ġsicu rezza
to ber
ªå¼ı ä¼ļç¤¾
ãģį ãģ¦
ĠÑĢ Ð°Ð¼
Ġcomun ica
ĠMar kt
ĠEn tre
Ġques tions
Ġpra tique
Ġ7 9
ÐĽ Ð¬
ĠÑĩÐ°ÑģÑĤ Ð¾
Ġph Æ°Æ¡ng
Ġet wa
ĠãģĤ ãģªãģŁ
res so
ä¼ ¼
ti Ã³n
ĠDE L
ĠpÃºb lico
c om
Ġ... .
Ġje une
Ġcam bia
Ġå± ±
Ãª t
Ġre al
Ġklas y
è¾ º
Ġparti cip
Ġ ãģ£ãģ¦
ï¼ ¡
äºĭ æ¥Ń
** **
ãĤĦ ãģ£ãģ¦
Ã¨ mes
Ġau tour
kow i
at te
Ġp Ã³Åº
ĠC ono
ĠFra gen
Ã¡ vel
æ »
ĠF uÃŁ
Ġj unto
ĠNe w
Ð¡ Ð¡
ĠÐĶ Ð¾Ð±Ð°Ð²
ĠÐĺ Ð¼
ĠB ien
Ðķ Ðł
ĠÐ¼ Ð°ÑĢÑĤÐ°
er on
uni ka
ĠÑĥÑĩ ÐµÐ±
ï¼ ³
Ã¼ns tig
ÑĢÐ° ÑĪ
ĠÑģÐ²Ð¾ Ð¸Ð¼Ð¸
d is
Ġo ttobre
ãģĹãģŁ ãĤī
met y
li cz
Ã³r ia
Ġge macht
Ð¿ Ð¸Ð¾Ð½
Ġï½ ¥
Ġnapraw dÄĻ
ãĤĴ ãģ¤
Ġbei den
pa gna
ĠH ombre
Ġpr ue
Ġgru dnia
Ġ Åº
Ġtra vers
ĠÐ¿ÑĢÐµÐ¿ Ð°ÑĢ
ĠÐĳ Ð¾Ð»ÑĮÑĪ
ĠB ra
ĠT age
ĠG ia
cion ar
ĠCh e
è¨ ³
w eit
ĠM ag
ĠCh er
Ġpen se
Ġfun zion
ĠA L
er as
iss ent
z ÄĻ
ĠCi udad
ĠM or
ĠÐºÑĢÐ°Ñģ Ð¸Ð²
ĠUni versidad
æĴ ĥ
ĠÐ½Ð°ÑĢ Ð¾Ð´
ĠÐ± ÑĥÐº
ĠÄĳá»ģ u
Ð¢ Ðŀ
ÑģÑĤ Ð°Ð½
ĠS Ã¼
Ġsitu aciÃ³n
ĠÐ¼ Ð°Ñı
ÑĭÑĪ Ð»ÐµÐ½
Ġactiv idades
ĠS Ã©
ĠsÃ© lection
Ġsta mp
Ġlo cation
Ġs Ã³
our g
ÐµÐ¹ ÑĤ
Ð¾Ð½ ÑĥÑģ
Ð¸Ð´ Ñĥ
Ġf ebrero
Ġpossi bilitÃł
ÃŃcul as
ng er
ĠS ystem
Ġv arios
Ġso gar
ãģ® ãĤ³
ti to
ni enie
Ġso ciales
Ġcon du
ĠWyÅĽwiet leÅĦ
Ġokre ÅĽl
age m
ĠMi tarbeit
ç§ »
ĠFra u
Ġau cun
O V
Ġv ista
ĠN icht
Ġz ar
ĠVer b
i Ã¨re
Ġg ry
Ġat tu
Ġd áº«n
ĠN etz
ĠÐ²ÐµÐ´ ÑĮ
ĠÐł ÑĥÑģ
ĠÑĥ Ð¶
Ġch ica
ĠÑģÐµÑĢ Ð²
ĠÐ¡Ð¾ Ð¾Ð±Ñī
Ġb aj
ĠP au
ĠÐŁÐ¾ ÑįÑĤÐ¾Ð¼Ñĥ
Ãĥ O
ĠN Ã£o
ĠÐĴÐ»Ð°Ð´ Ð¸Ð¼
ÑģÐº ÑĥÑİ
Ġde tta
Å¼ Äħ
ĠMit glie
Ġcondi tions
ãĤ« ãĥ¼ãĥī
w ers
st Ã¼tz
Ð½ Ð¸ÑĤ
Ġazien da
åŁ İ
Ġap are
ab or
ra le
Ġan o
åĳ ½
Ġr ichtig
Ġkra j
Ã ħ
ĠÐ¢Ð°Ðº Ð¶Ðµ
Ð°Ðº Ð°
Ġch Æ°a
Ġno viembre
ĠK ul
cu p
Ġpour rait
ora zione
ãĥĸãĥ© ãĥ³ãĥī
Ġre du
Ġper f
Ġdi men
Ġç ¦ı
Ġå¤ ļ
ster reich
ig h
ier ten
Ġ! !
og le
ĠÑĤÐµÐ¿ ÐµÑĢÑĮ
Ġl ire
Â ²
ĠÐļ Ð°ÑĤ
ÐµÑħ Ð°Ð½
Ġb Ãªn
ĠÐ¸Ð³ ÑĢÐ°
Ð¸ÑĢ Ð°
ĠT ous
c our
ĠÑħ Ð¾Ð·Ñı
ĠÐ¿ÑĢÐ¾Ð³ÑĢÐ°Ð¼ Ð¼
Ġter ra
Ġhe mos
Ġbesonder s
Ġag rÃ©
Ġcuer po
use ment
ch ter
Ð¸ÑĨ Ð¸Ð½
ĠÐ³ ÑĢÐ°Ð½
Ñİ Ð·
Ġden en
p om
Ġci Ã²
ĠÃ©ta blis
en as
ãģ» ãģĨ
ãĤª ãĥ³
Ġdem and
Ġmigli ori
Ġla ta
t he
Ġsp esso
Ġpl u
Å¼ enie
Ġl argo
ĠK ir
ge mein
us za
on en
ãĥ« ãĥķ
Ġtá» ¥
Ĵ° å¢ĥ
z ÅĤ
Ij p
ĠÅĽ ci
ãĤ¹ãĤ¿ ãĥ¼
ĠfÃ¡ cil
Ġlistop ada
Ġ ãģĹ
Ð¾Ð½ Ñĩ
Ðµ Ñı
ĠÐ½Ð°Ð· Ð½Ð°Ñĩ
ãĤĴ èªŃ
ĠÐ¼ Ð°ÑģÑĤ
ĠÐ¾ÑĤÐ´ ÐµÐ»ÑĮ
Ġa re
Å¼ enia
ĠÐ¾Ðº Ð¾Ð»Ð¾
å· ®
ĠPare ja
I M
Ġac om
Ġpun tos
Â ½
á» ħ
ĠÐºÐ¾Ð¼Ð¿ Ð°Ð½Ð¸Ñı
ĠGr Ã¼n
ÑĢÑĥ ÑĤ
wy Å¼
éĻĲ å®ļ
å¤ ª
Ġpod emos
Ġr Ã¨g
Ġm uer
ĠÐ²ÑĭÐ¿ ÑĥÑģÐº
Ġbie ten
ãĥ© ãĥł
Ġ5 4
Ġex pos
ow er
ĠÑĤ Ð¾ÑĤ
ãĤĮ ãģªãģĦ
Ġur l
Ġb or
éĥ ¡
åİ »
o ÅĦ
il t
Ð¼Ð¾ÑĤ ÑĢÐ¾Ð²
Ä Ĳ
Ġb áº¥t
Ġ5 6
Ġat te
zia l
und heit
ei o
Ġè Ħ
ĠPor n
Ġad ul
ĠÐ¿Ð¾Ð·Ð²Ð¾Ð»Ñı ÐµÑĤ
omb ia
Ġs um
ĠÐ°Ð½ Ð³
Ġprzygo tow
ĠW eiter
ne hmer
ç· Ĵ
ãĤ¸ ãĥ¥
Ġesto y
ĠKom m
ĠÐ½Ð¸Ðº Ð°Ðº
ĠP AR
ĠÃºlti mo
Ġesper ienza
ty n
Ġçģ «
ri os
vis ion
Ġdara uf
Ġãĥ İ
Ð¾Ð´Ð°ÑĢ Ñı
ĠT rong
Ġa ggior
Ġacqu is
Ġkom puter
Ġfal ta
ĠãĤ¸ ãĥ£
Ġbes timm
und ial
ĠA f
ĠÐ¿ÑĢÐ¾Ð´ Ð°Ð¶
Ð»ÐµÐ½ Ð¸Ð¹
: .
ÐºÐ¸ Ð´
ĠÑĥÐ¿ÑĢÐ°Ð² Ð»ÐµÐ½Ð¸Ñı
ĠÐ¿Ð¾Ð´ ÑħÐ¾Ð´
va it
Ġani ma
ĠB i
ĠC ent
ous el
Ġnie go
Ġç¥ ŀ
ĠÐŃ ÑĤ
Ġda lej
ĠH ab
å° İ
Ġre alidad
va ti
Ġn owe
Ġ/ /
ÑĢ Ð¾Ð¹
ãģĿãģĨ ãģ§ãģĻ
ni cas
AT ION
Ġsitu ation
Ġcost ru
Ġè» Ĭ
Ġl Ãºc
ĠWer k
Ð¾ÑĢ Ð¾ÑĤ
Ġwy na
Ã¤t ze
Ġsouha ite
ĠÑģ ÑĥÐ±
Ġart ÃŃculo
Ġch au
w ki
a ciones
çĶ¨ åĵģ
Ġay uda
ĠÐ¼ÐµÐ½ ÐµÐµ
ĠåĲį åīį
åĲĪ ãģĦ
Ġkann st
ĠSep tember
ĠpaÅºdzier nika
:::: ::::
i ores
ĠbÃ©nÃ© fi
arÃ³w no
u che
Ġï¼ī ãĢģ
ãģ®å¾ Į
Ġmes i
áº¥ m
Ġar gent
Ġmen sa
age ment
ÃŃs ticas
d el
ĠOk tober
Ġmod Ã¨le
ĠÐ§ ÑĤÐ¾Ð±Ñĭ
ãĤ ¾
Ġent ra
wa ch
elÃ© fono
ĠÐĲÐ½ Ð´
ĠÐ²Ð½ ÐµÑĪ
Ġï¼ į
Ġåº Ĺ
ĠÐĲÐ² ÑĤÐ¾ÑĢ
ĠÐ§ ÐµÑĢ
si m
al na
æİ ²
ÐµÑĢ Ð¸Ð½
ĠW eit
æĬ ŀ
ĠÐ¿Ð¾Ð´ Ð¾Ð±
nh aus
Ġch cia
Ġs uff
qu ad
esz k
Ġne gro
ent al
r Ã¤n
ÑİÑī Ð¸Ðµ
uy áº¿n
ãĤĤ ãģ®ãģ§
ĠÑģÑĤ Ð°ÑĤ
si co
Ġnuo vi
ĠÑģ ÐµÐ½ÑĤ
te j
g h
ĠDi os
z os
Ġcit tad
ĠÐ¸ÑģÑĤ Ð¾ÑĢ
o z
ĠL ire
i ques
w it
åĬ ©
ĠJu gend
Ġpre cis
ur t
am es
ãĥĬ ãĥ«
åĽ ł
ĠS ommer
Ġb al
or er
ĠÑģÑĢÐµÐ´ ÑģÑĤÐ²Ð°
Ġch wil
st Äħ
ĠÐ¿ÑĢÐ¾Ð´ ÑĥÐº
ÐµÐ½ Ð´Ð°
Ġre con
t ente
ĠÑĤ Ð¾Ð³Ð´Ð°
ãģį ãģŁãģĦ
İ æĹ¥
Ġcu cina
ãģĨ ãģ¡
te ile
ĠÐ½Ð¸Ñĩ ÐµÐ³Ð¾
g hi
Ġna z
ĠVer ein
ĠÑĩÐ°Ñģ Ð¾Ð²
h ic
ãĥ¢ ãĥĩãĥ«
ãĥ© ãĥ³ãĤ¹
u dos
ĠÐ³ ÑĢÑĥÐ·
Ġkil ku
ĠÐ¸Ð½ ÑĦ
Ġbus car
Ġpro pie
ĠL ou
ĠÑģÐ¾Ð² ÐµÑĤ
Ġa ider
Ġri con
wÃ³ dz
ĠApr il
ÑĪ Ð¸Ð±
M j
pos aÅ¼
ĠN atur
Ĺ i
ier on
for me
Ġapp lication
Ġapp are
on ym
Ġcar ousel
" ,"
å® ®
å¸¸ ãģ«
ie ÅĦ
ĠÐ²Ð½ÑĥÑĤÑĢ ÐµÐ½
las sen
Ġv ai
Ġot ten
liÃ¨re ment
Ð¼ Ð°ÑĤÑĢ
ĠÐļÑĢ Ð¾Ð¼Ðµ
ve mber
g ani
ĠÐ°Ð½ Ð°Ð»Ð¸Ð·
Ð½Ð¸ Ð¶
mÃ¡ tica
Ġmemb res
u de
ĠÑĤÐµÐ¼ Ð¿ÐµÑĢ
it ud
r ou
ĠÐ¿ÑĢÐ¸ ÑĪ
Ġh á»Ļ
ĠDz iÄĻki
ĠÃ©v ol
Ġcoule ur
inh o
ĠT re
c us
Ġay ant
ĠÐ²Ð¾Ð» Ð¾Ñģ
Ġse ctor
ft ware
ĠÐ²Ðº ÑĥÑģ
ĠW el
et es
ÐµÐ» Ðµ
cch ia
ĠFre e
Ġe li
ãģĵãģ¨ ãģ«
Ġth am
ĠÐ¡ ÑĢÐµÐ´
H o
Ġv elo
ĠSt Ã¼ck
czy ÅĤ
ĠRe chts
onn es
ãĤĭ ãģĵãģ¨ãģĮ
Ġimport ant
Ġgro ÃŁen
Ã¡ ria
ãĥ¼ãĥ ĭ
la ire
ib t
Ġzawi era
ĠÐ´Ð¾Ð» Ð³
Ġmo vi
Ġtech n
ĠÑĤ ÑĢÑĥ
Ð¾Ð» ÐµÑĤ
Ġab ord
O K
ĠÐ²Ð¾Ð´ Ñĭ
ãģ® ãģł
Ġè ħ
ç¯ Ģ
x y
jÄħce go
ĠÑĢ Ð¾ÑģÑĤ
Ġç Ł
è¡ Ĺ
Ġre cht
ĠÐļ Ð¾Ð³Ð´Ð°
ĠV ente
od es
Ġspe ci
Ġcons om
v ant
ĠS eiten
ĠãĤ¢ ãĥ«
Ġl ig
Ð» ÐµÐ¶
Ġna cional
ĠÑģÐ°Ð¼ ÑĭÑħ
Ġprodu ktu
Ġb ad
sta tt
cia ux
Ġdire tta
pa ciÃ³n
ãĥ© ãĤ¤ãĥĪ
äºº ãģ®
ĠZ ug
Ġw czeÅĽniej
ĠÃ ·
Ġho Ãłn
Ð°Ð´ Ð°
Ġquel que
ĠW inter
ces s
gg etti
Ġbuen o
ador as
ĠWeb cam
olesc ente
g an
c une
ĠÑĩÐ¸Ñģ Ð»Ðµ
gi co
ĠÐº ÑĥÑħ
Ð½Ð¸ ÑĨÐ¸Ð¿
ĠÑĢÐ°Ð¹ Ð¾Ð½
Ġobje tivo
ĠÑĢÐ°Ð±Ð¾ÑĤ Ð°
Â ´
Ġs Ã¡ng
r Ã¼ck
ou re
Ġwy sz
ãģ£ãģŁ ãĤī
ĠÐ² ÐµÑģÑĮ
Ġg ens
Y 2
je wÃ³dz
Ġosta tni
Ġlin ks
çĹ ĩ
k ra
Ð°Ð¼ Ð¿
Ġv an
Ġop iniÃ³n
ĠÐ¿ÑĢÐ°Ð² Ð¾
å½ ¼
âĢ Ŀ
Ġt etas
Ġsi endo
Ð»ÐµÐ½ Ð¸ÐµÐ¼
ĠwspÃ³ÅĤ pra
ÃŃtu lo
_ in
schie d
Ġpod ej
Ġa tenciÃ³n
c chi
ie ux
ĠÐ¾Ð³ ÑĢÐ°Ð½Ð¸Ñĩ
ge m
ãĥĲ ãĥĥãĤ¯
ĠCh a
åĳ ¼
Ġter cer
ib ili
ĠL un
Ġcl asse
Ġent onces
Ġon e
Ġresul tados
Ġlo in
Ġeigen en
Ġog ÅĤ
Ġal um
ĠÐº ÑĢÑĥÐ³
Ġlu glio
us ion
ĠÐºÐ°ÑĤ ÐµÐ³
ĠP an
one j
Ġc ura
Ġe uch
le ist
ĠÐ¼ Ð¾Ñī
Ġtr am
Ã ¦
Â ¼
ĠÃ£ ÆĴ
Â ¨
Ġl iá»ĩu
ĠÐ²Ñĭ ÑĪ
Ġpr end
Ġenvir onnement
Ġdo kon
Ġtrad u
ĠÃ¶ ff
r or
ĠÐĲ Ðº
ĠÐ¾ÑĤ ÐºÐ°Ð·
ĠãĤ ı
Ġr os
ĠÐ³ÑĢ Ð½
ĠÐ¿Ð¾Ð» Ð½Ð¾ÑģÑĤÑĮÑİ
Ġcre o
æ ©ĭ
Ġmol ti
Ġco ll
Ġå¤§ éĺª
Ġdisp lay
Ĵ æŃ©
å¹ ħ
ste hen
al nych
ĠÄĳá»ĭ a
2 1
ĠSu per
pi os
d ra
Ġid Ã©
ÐµÐ½Ð¸Ñı Ñħ
ĠrÃ©sul tats
ĠL uis
Ġsu e
Ġbor der
Ġåħ ¥
Ġau tant
Ġw ych
Ð¸Ñģ Ð°
Ġlip ca
Ã³ vil
Ġl an
Ġswo ich
Ġè ¶
Ġäº Į
Ġda von
ĠÑħ Ð¾Ð´
Ġè µ
Ġt it
Ġna g
ĠÑĤ Ð°Ð±
ĠÐ¿Ð» Ð°ÑģÑĤ
ĠÐ¸Ð½ÑĦÐ¾ÑĢÐ¼ Ð°ÑĨÐ¸Ð¸
éĻ į
Ġnue vas
ĠP ag
um enti
Ġinter net
Ġpodr ÃŃa
ĠÐ±Ñİ Ð´Ð¶
ĠÐŁ Ð¾Ñĩ
ĠÐĿ Ð°ÑĪ
ĠÅĵ u
ta mi
æ ½
ĠÐ²Ð¾ Ð¾Ð±ÑīÐµ
ÑĮ ÑĤÐµ
pp er
Ġma ior
ĠãĥĢ ãĤ¤
åĽ ³
Ġlo gi
Ġto i
ĠR ob
ĠAr tic
Ġcon te
ina ire
ĠprÃ© cis
ĠlÃ¤s st
ĠÐ»ÑİÐ± Ð¾Ð¹
Ġdi cembre
Ġa more
ãĥĲ ãĥĥãĤ°
éħ ¸
ĠFl ug
Ġam Ã©rica
Ġapri le
wÃ³ ch
Ġå ĳ
Ġgr ado
Ġa gosto
ĠÐºÐ¾ÑĤÐ¾ÑĢ Ð¾Ðµ
ãĥĥãĤ· ãĥ§ãĥ³
ç± ³
Ġv ir
Ġku p
g Ã³w
ia do
tycz ny
9 6
Ġsy n
Ġcor res
Ġw od
ru z
ĠpolÃŃ tica
4 4
qu ent
ĠÑĤ ÐµÑĩÐµÐ½Ð¸Ðµ
ãĥĵ ãĥ¥ãĥ¼
ĠC Ã¡c
ĠVer gleich
Ġä¸ ĭ
ĠE ro
Ġres er
Ð¸Ðº Ñģ
ĠÐ¾Ð´ Ð½Ð¾Ð³Ð¾
ãĤĴæ Ħ
Ġdiver si
ien ne
ãĥģ ãĥ¥
Ġf ast
Ðº Ð°Ð¼
ĠãĥĹ ãĥŃ
âĺ ħ
åĨħ å®¹
Ġmedi ante
Ġblo g
Ġest re
Ġpo ÅĽ
ĠB en
ĠAl ors
ĠÑįÐ½ ÐµÑĢÐ³
8 6
Ġpi en
w elt
ãģªãģı ãģ¦
ãĥ³ãĥ ķ
Ġid Ã©e
Ġde ine
ĠNo vember
owa ÅĤa
Ġconta cto
ie z
us Ã¤tz
åı ĭ
Ġpo tra
Ġãģ ²
i tos
ãĤī ãģĽ
ĠÐ± Ð¾
ĠÐ°Ð½ ÑĤ
Ð¸ÑĨ Ðµ
ĠAb s
ÑıÑģ Ð½
ãĢ ĳ
Ġinforma cje
et ro
ĠC ap
Ġpour quoi
Ġtien es
Ġmod elo
ĠÑĢÐµÐ³ Ð¸ÑģÑĤÑĢÐ°ÑĨÐ¸Ð¸
ĠÐĺ ÑģÑĤ
Ġdes ign
ĠpÃ¡g ina
Ġæ Į
Ġloka li
ĠÐŀÐ± Ñī
ĠT our
Ð¾Ñĩ Ð½Ð¸Ðº
éĢ Ķ
å£ °
Ġac cep
Ġex er
Ġava is
iv ent
Ġdla tego
Ð¸Ð± Ð¾Ð»ÐµÐµ
Ġespa cio
ı i
Ġri fer
Ġc ine
Ġt es
ĠçĻ ½
å®¢ æ§ĺ
ut Ã´t
Ġcas os
gu es
ĠÑģÑĤ Ð°Ð½Ð¾Ð²
ï¾ ŀ
ÅĽ la
ten ti
ĠdÃ©couv rir
Ġæ ģ
ãĤ¤ ãĥ¬
cz eniu
Ġfor ni
ĠÃ ķ
ĠÄĳá»ķ i
Ġde cl
on se
r ur
ĠÑħÐ¾ÑĤ Ñı
Ġm asz
Ġau ÃŁer
Ġtr itur
fa ce
lace ment
Ġgen naio
ãĥ³ãĤ ³
ĠL at
Ġprincip al
éħ Ĵ
dz enia
ĠÑĤÐµÑĢÑĢÐ¸ÑĤ Ð¾ÑĢÐ¸Ð¸
Ġes cl
ĠVer fÃ¼
æĴ ®
Ð± Ð¸Ð½
Ġex tÃ©
Ġc ount
ĠÐ¶Ð¸Ð² Ð¾ÑĤ
Ġimp res
åľ §
éŁ ¿
A G
Ġstrut tura
Ġat ta
ç¯ ī
ing o
Ġr áº±ng
ĠI nh
ie ur
Ġmoy en
Ġtr ak
ĠF u
Ġseg unda
ĠãĤµ ãĤ¤ãĤº
çŃ Ķ
ĠSch wei
ÅĽ cia
Ð¾ Ñĥ
geste llt
graf ÃŃa
cz aj
æĽ ľ
ĠpaÃŃs es
or ie
ĠB u
ĠÐ¾ Ð¶
ter i
ä½ĵ é¨ĵ
ĠMe di
Ġæľ ª
wor ten
ãģ®æ ķ
Ġf le
ÐµÑģÑĤ ÑĮ
N 0
A K
Ġw ÅĽrÃ³d
ĠZ iel
Ġf l
Ġsc ri
va mente
ĠÐ² ÑħÐ¾Ð´
å± ŀ
Ġpass Ã©
Ġnuo ve
le Å¼
ĠÑĦÐ¸Ð»ÑĮ Ð¼
ĠH in
th Ã¨
ĠÐ¿ÑĢÐ¸ Ð³
Ġpomo c
ãĥĥ ãĥķ
Ġkle ine
ĠD ou
Ġpr ise
Ġt est
æİ Ľ
ĠÑĢÐ°Ñģ Ð¿ÑĢ
ĠBe g
va ta
ãģ®å ¯
Ġwym aga
Ġsi gn
h au
ĠÑĢÐµÐ±ÐµÐ½ ÐºÐ°
ĠÐ·Ð°Ð¿ Ð¸Ñģ
æī ĵ
y si
ĠÐłÐ¾ÑģÑģÐ¸Ð¹ ÑģÐºÐ¾Ð¹
ĠÐ½ÐµÐ¿ ÑĢ
ãĤĮ ãģ¾ãģĻ
ĠJan u
ca le
ĠA y
Ġpas ar
Ġprz et
Ġqu asi
ĠÐ» Ð¸ÑģÑĤ
Ġa ktue
Ġcho Äĩ
ĠAr gentina
or n
Ġseine m
iv os
Ġf ille
Ġple in
ÑģÑĤÐ² Ñĥ
Ð¼ Ð¾
Ġè¿ Ķ
åħ Ĳ
le cciÃ³n
t an
ãģ¾ãģĽãĤĵ ãģĮ
ĠI hren
Ġcher che
Ġ5 00
ĠÐ¿ÐµÑĢ ÑģÐ¾Ð½
Å¼ czy
ĠÃ Ļ
ĠÃ Ĥ
ĠÐ¿Ð¾Ð´ ÑĤ
ad za
m men
Ġch ie
æ©Ł èĥ½
Ġ4 7
Ġdisp onible
c Ã©e
Ġpas sa
on ie
Ġvi vi
ÐµÐ´ Ð¶
åĩº ãģĹ
ĠÑħÐ°ÑĢÐ°ÐºÑĤÐµÑĢ Ð¸ÑģÑĤ
ĠÑģÑĢÐ°Ð² Ð½
Ġprimer o
Ġtele fon
ge ber
Ġé ĺ
ç łĶç©¶
Ġad el
Ġb ain
ĠB lanc
si er
Ġdes tin
ĠÐ²Ð¼ÐµÑģÑĤ Ðµ
Â £Â¬
Ġtr áº»
Ġque lli
Ġéĸ ¢
ĠLie fer
ĠK e
ĠZa hl
as to
Ġgouver nement
å°Ĥ éĸĢ
ĠÐ¸ÑģÐ¿ Ð¾Ð»Ð½
ĠCh ica
Ġder echo
ĠÐ¼Ð¸Ð½ Ð¸Ð¼
çĶ· æĢ§
çĬ¶ æħĭ
p lan
Ġri cor
or ia
ĠÃ ³
ĠSch ne
Ð¸ ÑĨÐ¸Ð¸
Ġartic les
u tions
9 5
ĠÃ© tra
ck o
Ġwra z
di Ã³
ãģĪ ãģªãģĦ
Ġmes e
ta Äĩ
ĠÐ¿ ÑĥÐ½ÐºÑĤ
ãģ£ãģ ±
ãĤį ãĤĵ
Ġth Ã¢n
Ġä¸ ĸ
Ġesta mos
ĠCas a
Ġl ista
ĠHol z
ĠDo ch
ĠG Ã¤
ec ta
Ã¶r der
Ðļ ÐĲ
ĠÑĦ Ð°Ð¹
ĠÑĥÑģÐ»ÑĥÐ³ Ð¸
Ġo zna
ri bu
sto ff
ĠseÃ± al
ĠÑĥÑģÐ»Ð¾Ð² Ð¸ÑıÑħ
Ġsta g
Ġ4 1
Ġeffec tu
ÑĢ Ð¸
Ã¤n d
Ġsp ort
å¤ ľ
ĠÃ ĭ
Ġs á»Ł
ÑĪ Ð¸Ñħ
Ġins titu
ĠLe y
Ġ. âĢľ
ĠPe li
ĠAm or
Ġcapa cidad
Ġè² ·
æĸ¹ ãģ¯
ĠintÃ© rieur
ĠÐ¾ÑĤ Ðº
ä½ľ æ¥Ń
ĠM y
t ne
ãģ®å Ĭ
Ġde ci
um s
ĠintÃ© ress
ĠÐ¼Ð¸ÑĢ Ð°
Ġch uyÃªn
Ġpre zzi
Ġtrabal ho
Ġre m
Ġãĥ ´
ĠÂ §
Ġk urz
Ġir gend
lis ation
ĠCom p
Ġ Î
ra tion
ĠÐ² ÐµÑĩ
ty m
Ho tel
ĠGra zie
èµ °
Ġayud ar
Ġincl u
ous s
ig ung
Ã ĳ
Ġngo Ãłi
ĠÐĶ Ð¾Ð¼
Ġave va
ç¥ Ŀ
Ġ9 5
ur en
Ġprodu ction
Ġactiv idad
ãĥĩ ãĤ¶ãĤ¤ãĥ³
Ġre v
Ġ! !!
ĠÐ£ÐºÑĢÐ° Ð¸Ð½Ñĭ
ĠÐ´Ð°Ð½ Ð½ÑĭÑħ
ãĤĬ ãģ®
on dere
ĠC ela
ĠÐĺ Ð²
Ð¾Ð»ÑĮ Ð½Ð¾
gu ien
Ġdz is
Ġap res
Ġt et
d ro
åĭ ¤
z ul
ra mi
ĵ ģ
ãģ®è ³
ĠÐķÐ² ÑĢÐ¾Ð¿
Ġli mp
Ġqu ot
Ġannun ci
Ġve dere
Ġzd jÄĻ
ãĥ¡ãĥª ãĤ«
Ġus ted
Ġ}, {"
ĠMo tor
Ġg l
ĠÐ¸Ð½ ÑģÑĤÑĢÑĥÐ¼ÐµÐ½ÑĤ
Ġæ Ł
Ġcham p
ki en
Ġd wÃ³ch
å® ¿
Ð¸Ð³ Ð¸Ð½
gen s
Ġnouve aux
ĠÐ¾Ð¿ ÑĤ
ĠÃ ı
Ã£ i
ĠÐ´Ð² Ð¸Ð³
Ġitali ano
ĠS elbst
Ġqu ar
Ġzape w
ĠÐµ Ñĳ
ĠGr Ã¶ÃŁe
ĠB el
ãĥ¡ ãĥ¼ãĥ«
Ġch uyá»ĥn
Ã± ana
ĠA t
Ð¾Ð» Ð½Ñı
Ġæ Ļ
ĥ ħ
ĠÐľ Ð°ÑĤ
ĠÑĥÐ² Ð¸Ð´
éĩĳ ãĤĴ
Ġpla isir
p Ã©rie
Ġsz uka
ãģ®å į
Ġqui ere
si mi
Ġro l
Ġch oses
Ġvis to
ĠÐ½Ð¾Ð¼ ÐµÑĢ
vo ll
ze ug
Ġal tra
dzi esz
Ġima gen
ĠA ff
us si
ÑĭÐ² Ð°ÐµÐ¼
Ġfaci le
ãģ®å¥ ³
I mage
è¨Ģ ãģĨ
ĠãĥĹ ãĥ¬
Ġè² ¡å¸ĥ
Ġãĥĩ ãĤ£
Ġa de
9 1
Ġnaszy ch
_in dex
ĠB Ã¼r
ĠÑĤÐµÐ»ÐµÑĦ Ð¾Ð½
Ġpoz wala
Ġannon ce
T Y
Ġw prowadz
Ġlors que
ĠãĤ¹ ãĥŀ
ĠÑģÑĤÐ¾ Ð¸Ð¼Ð¾ÑģÑĤÑĮ
Ġdej ar
ĠW or
ï½ ¥
ãģ¯ ãģĦ
Ġs an
ĠÐºÐ¾ÑĢ Ð¿
cj ach
ste in
ĠÑģ Ð±
Ġb Ã³ng
Ġcump li
Ġt un
Ġswo jÄħ
I V
ĠRe p
ĠÐ¦ ÐµÐ½Ð°
ĠÑģÑĤ ÑĥÐ´
om os
Ġe vi
Ġpap el
Ġsoll ten
Ġmayor ÃŃa
Ð¸Ð½ Ð¸Ð¼
Ġdos kon
Ã² a
ãĥ¼ãĤ °
ãģ® ãģŁãĤģ
ĠIta li
Ġpropr ia
ĠÐ´ÐµÐ» Ð¾
ĠC uis
ĠC las
ĠJ eu
ĠC rÃ©
ĠspÃ© cialis
w iel
ĠÐĺ ÑģÐ¿
in do
Ġå£ ²
çİ ī
å± ħ
fica tion
N l
ĠmoÅ¼liw oÅĽÄĩ
Ġ ï
ãĤ¶ ãĥ¼
Ð» Ð¾Ðº
ÑĥÐ½ Ð´
{ \"
Ġob ej
Ġt ari
ĠÑı ÑĢ
ĠÐ³Ð¾ÑĢÐ¾Ð´ Ðµ
ãĥ¼ãĤ ¶
Ġmon dia
ĠÐ² Ð»Ð°Ð´
ĠProdu kte
Ġhi zo
ãģ§ãģĻ ãģĭ
æ į
ĠEin z
ĠÐ¶ Ð´
ĠÐ¡ ÐµÑĢÐ³
Ð°ÑĢ Ð´
Ġquy áº¿t
Ġponie waÅ¼
ı Ĳ
schlie ÃŁ
ĠÐ¸ÑĤ Ð¾Ð³
Ġlong ue
ran no
Ð°ÑĤ Ñĥ
Ġase gur
ĠÐ¤ÐµÐ´ÐµÑĢ Ð°ÑĨÐ¸Ð¸
Ġsu as
Ġunser en
ĠBer uf
Ġgr Ã¶ÃŁ
ãĥĿ ãĥ¼ãĥĦ
Ġpubb lico
ĠÑĢÐµÐº Ð¾Ð¼ÐµÐ½Ð´
ĠRe al
Ġx Ã£
Ġobie tti
Ġ á»©ng
Ġob tenir
c la
G l
g Äħ
c ados
ãģĭ ãģªãģĦ
ni cos
ãģ®å Ľ
Ð¸ÑĤ ÑĢ
ty tu
Ġm áº¯t
Åĵ ur
Ġami ci
p en
Ġperson ale
ĠÐ½Ð°ÑĪ ÐµÐ¹
Ġf ix
Ġcanti dad
b lick
Ġa tto
Ġkont ro
ĠÑĢ Ð¸Ñģ
on ique
id es
ÐµÑĨ ÐµÐ¿
Ġsar anno
ĠÄĳ Ã¡nh
Ã¤ te
ĠT ur
zo gen
is simo
ĠÑĢ Ð°ÑģÐº
ĠÐļ Ð¸ÐµÐ²
f lÃ¤
ic ol
è ŀį
ine ment
Ġcho is
ĠÐ¿Ð¾Ð» ÐµÐ·
alis ation
Ġpermi te
Äħ t
Ġess ay
Ġwy p
Ġle ft
ĠÐ¸Ð· Ð´ÐµÐ»
ĠãĤ¯ ãĥª
isti che
ï¼ £
ãģı ãģ¦
Ġpow ierzch
è¶ ħ
ĠÑĢÐ°Ð±Ð¾ÑĤ Ðµ
ter ial
Ã¶ ne
ĠT as
Ġscar pe
ãĥĥ ãĥĶ
i ra
ãĤ· ãĥªãĥ¼ãĤº
ãģ¡ ãĤįãĤĵ
Ġth ÃŃch
ĠÑģÑĤ ÑĢÐ°Ñħ
ĠÐ±Ð» Ð¾Ðº
ĠDes n
f es
ĠSch uhe
ĠÐĴ Ð¾Ð»
ĠÐ¿ÑĢÐ¸Ñħ Ð¾Ð´
ï½ į
æµ· éģĵ
ĠÐ¼Ð¸Ð» Ð»Ð¸
åĭķ çĶ£
ãģ«ãģĬ ãģĦãģ¦
åıĤ åĬł
f as
Ġpr on
ĠÐ²Ð¾Ð¿ÑĢÐ¾Ñģ Ñĭ
Ð²ÐµÑĢ Ð´
ĠÐ¾Ð±ÑĢÐ°Ð· Ð¾Ð²Ð°Ð½Ð¸Ñı
t wier
di zione
ri mer
Ġgran di
ĠÐ°Ð² Ð³ÑĥÑģÑĤ
è Ĺ¤
Ġdi man
Ð¸ÑĩÐµÑģÐº Ð¸Ð¼
Ġwie ku
be ding
ãĥĭ ãĥ¥
Ġch áº¿
par tement
m Ã©dia
ÑģÑĤÐ²ÐµÐ½ Ð½Ð¾
Ġh Ã¡
mas ch
Ġpl utÃ´t
di co
Ã¤ d
Ġde tto
mi ca
am me
ĠÑĤ Ð¾Ð»
a teurs
Ġsenti do
ĠProble m
Ġãģĵ ãģ¡ãĤī
Ġåİ Ł
ĠÐĺ ÑĤ
zia le
ĠH ombres
Ġseg undo
Ġre ce
Ġimp os
ĠSch l
ÅĤu gi
uyá» ħn
áº¯ p
ĠÐ±Ñĭ ÑģÑĤÑĢ
ĠdÃ© si
è£ ľ
Ġ200 6
au che
ion ych
Ġder echos
Ġl im
ca ti
Ġpel ÃŃcula
Ġv ier
ĠÐ· ÑĢ
ĠA p
åº ·
ĠÑĤÐ¾Ð²Ð°ÑĢ Ð°
Ġmiejs cu
ĠMar t
Ġcu b
ĠÐ ¹
Ġdise Ã±o
pp ia
ãģĹãģ¾ ãģ£ãģŁ
ãģĻ ãĤĮãģ°
er nen
Ġli mi
ĠÃ Ĳ
ãĤı ãĤĮãĤĭ
Ġn áº¿u
ĠÐ³Ð°ÑĢ Ð°Ð½ÑĤ
ĠÐ¿Ð¾Ð´ ÑĢÐ¾Ð±
ĠAn n
ist ance
ĠÑĤ ÐµÑģÑĤ
Ġv aleur
ç ¦ı
Ġh au
ras se
ĠrÃ©se au
æ Ĩ
el os
ĠÑģ Ð¾Ð¿
Ġm ak
ĠR ela
ĠC entro
ĠÐ½Ð°ÑĪ ÐµÐ¼
ĠÐ¸Ð½ ÑĤ
ãģ«ãģª ãĤĬ
ow ski
Ġa ktyw
ĠÑıÐ²Ð»Ñı ÑİÑĤÑģÑı
Ġcu anto
ĠprÃ©s ente
åŃ¦ æł¡
ĠT u
Ġsigni fica
Ġåħ ¬
cie m
at ten
ãĤ¹ ãĥ¡
Ġé ł
tig keit
ĠÑĦ ÐµÐ²ÑĢ
ĠÐº Ð¾ÑĤ
ĠÑįÑĤ Ð¸Ð¼
ĠÃ© cole
na hmen
ãĥĭ ãĤ¢
ĠM á»¹
ĠBe au
v ÃŃa
Ġz arÃ³wno
Ġfam iglia
Ð°Ð½ Ð½ÑĭÑħ
d ar
ĠcrÃ© er
ĠN ouve
vin cia
ĠK op
ĠPub blica
ĠcrÃ© ation
Ġsp ie
Ġquel le
ĠÑįÑĤ Ñĥ
ĠU rz
Ġapp r
ĠMar ÃŃa
ĠC itas
li car
b ilidad
Ġcondi ciones
ĠK li
ĠÐŁ Ð°ÑĢ
Ġp iÄĻ
Ð½ Ð¾Ð³
Ġv ient
pr it
mal s
Ġswo im
è¿ İ
Ġpos ibilidad
oni bile
ãĢ İ
Ġ ãģªãģ©
æŁ» å®ļ
èĤ Į
å¾ ¡
å® Ī
ĠÑĩ Ð¸ÑĤ
ĠÐ² ÑģÑı
ĠÐ¿ÑĢÐ¾Ð³ÑĢÐ°Ð¼ Ð¼Ñĭ
Ġc ung
Ġca use
Ð· Ñı
Ġn ess
ÐµÐ½ÑĮ ÑĪ
Ġprzy kÅĤad
v an
ĠB ay
Ġé ħ
ĠFil m
ĠA N
Ġgio co
---- ----
Ġãģ¾ ãģļ
ĠÐ¾Ð´ Ð½Ð¾
ĠAu tor
Ġnum er
Ġtechni que
y se
u elle
Ġb re
Ġcli entes
ä¸ ¡
ĠÐ¾ Ð¿Ð»Ð°ÑĤ
ĠÐ´ÐµÐºÐ°Ð± ÑĢÑı
ĠÐ¼ÐµÑĢ Ð¾Ð¿ÑĢÐ¸ÑıÑĤ
Ġbar celona
Ġoc ur
as tica
di to
Ġoko ÅĤo
Ã¤ glich
Ġrapide ment
ĠÐ¿ÐµÑĢÐ² ÑĭÐ¹
f el
lich es
Ġvá» «a
Ġsuc cessi
Q UE
Ġu00 3
Ġse mble
ĠdÃ©cl ar
Ð¾ÑģÑĤ ÑĢÐ°Ð½
ï¼ Į
åı ²
á»± a
ĠIhr er
x ic
Ġrela cion
ff er
ĠFran ces
um ento
ind est
ĠÐ²Ñĭ ÑģÑĤÑĥÐ¿
Ġnor ma
Ġpow sta
Ġob owiÄħz
ĠmÃ¡ xi
Ġch Æ¡i
ĠB lan
Ġz war
Ð¾Ñĩ Ð½ÑĭÐ¹
ĠÐ½ Ð¾Ñģ
ãģĹ ãĤĪãģĨ
ĠH ola
qu ina
Ġent rada
sk Äħ
az o
ina ciÃ³n
ÐµÐ½ Ð½ÑĥÑİ
Ġgru ppo
ĠÑģÐµÑĢ Ð´
ĠMin uten
ĠÐ¿ Ð°
ĠV is
Ġpr od
i LCJ
cz ni
Ġmin uti
Ġpad ding
å «
Ġnu ll
ab an
ÑģÑı ÑĤ
æĬ ķ
Ġw h
Ġpom ys
ĠR y
fÃ¼hr ung
Ġsegu ito
Ġof ert
å¾ ´
ĠÐ´ÑĢÑĥÐ³ Ð¾Ð¹
ĠProje kt
Ġtu do
ãĤĤ ãģĤãĤĭ
Ġdá»± ng
Ġn adz
j ahr
ĠÃ© tant
æĺ Ł
Ð¾Ð² Ð¾
Ð»Ñı ÐµÐ¼
Ġsier pnia
Ġa cep
ĠÐ¿Ð¾Ð² ÐµÑĢÑħ
ini ng
Ġsie ci
en vol
qu etas
Ġri es
Ġad resse
ĠGe b
Ġre kl
Ġlu z
que l
ĠÐº Ð¾Ð´
Ġo cen
ĠÐ´ Ð»
Ġlu tego
Ġgi áº£m
cz ym
ãģ¨ ãģĹãģŁ
Ġe fek
ĠBes uch
Ġindi vid
ci ÄĻ
ãĥ¼ ãģ®
ĠÑģÐ² Ð¾Ðµ
ĠÐł Âµ
ĠÐ¿ÑĢÐ¸Ð» Ð¾Ð¶
cre di
Ġcos e
Ã¨ ge
ĠÐ½Ð¾Ð² ÑĭÐ¹
ĠZapa tos
Ġ< /
Ġso ciedad
ĠÐ¾ÑĤÑģ ÑĥÑĤÑģÑĤÐ²
Ġa ire
Ġãģĵ ãģĨ
Ġzrobi Äĩ
Ġzosta ÅĤa
h na
lÃ¤ s
Ġpres ente
Ġou tros
Ġl á»ĭch
ĠJanu ar
ĠC D
O P
Ġl ien
ĠÑıÐ½Ð²Ð°ÑĢ Ñı
Ġgrand s
ĠÐļÐ¾Ð¼ Ð¿
ç¨ İ
ĠGesch ichte
ĠÐ¿ÑĢ Ð¸Ð·
Ġperson ali
Ġorgani z
Ġh Ã´
Ġn ero
Ġmod ifica
ĠÑĦÐ¾ÑĤ Ð¾Ð³ÑĢÐ°ÑĦ
Ġa ggi
Ġter min
ï¼ ı
ãģ¸ ãģ®
ĠÐ¾ÑĤÐ½Ð¾ Ñģ
ĠGe gen
Ġdob r
Ġre un
Ð¾Ð²Ð°Ð½ Ð¸Ð¹
Ġde cyz
ĠUn is
Ġz im
å· ŀ
ien ti
ĠV e
ura ciÃ³n
Ġdes p
it en
Ðº Ð¸Ð¼
sI n
o ÅĤ
Ġon de
ĠSer vice
fa llen
Ġv eut
ĠÑģ ÑĥÐ¿
ch u
ĠA M
v io
si ble
Ġmod el
ĠÑģÑĢÐµÐ´ Ð¸
Ġdi p
Ġkto ÅĽ
Ġrou ge
Ġhab it
Ġver sch
ĠÐ¼Ñĥ Ð½Ð¸ÑĨÐ¸Ð¿
ĠÐ´ÐµÐ² ÑĥÑĪ
Ð» ÐµÑĢ
ujÄħ cy
Ð¸ÑĤÐµÐ»ÑĮ Ð½ÑĭÐµ
on do
Ġâ Ī
Ġä» ķ
ĠãĤ· ãĥ§
èį ·
h op
lich t
Ġ5 8
uer re
Ð¸Ð± Ð¸ÑĢ
ĠNe ws
ĠÐ· Ð½Ð°ÐºÐ¾Ð¼
Ġh inter
ĠÐ±ÑĥÐ´ ÑĥÑī
Ġr uch
å· »
Ġide a
zem ber
le ben
ĠF ern
ven es
Ġtar de
ĠW roc
Ð¾Ñĩ Ð½ÑĭÐµ
ĠÑĤ Ð¾Ð¿
ĠÐºÐ°Ðº Ð¸Ðµ
ini i
ãĤĴæ Ĭ
ĠdÃ©c is
ĠÐ² ÐµÑĤ
Ġcu ar
Ġnom e
Ġmiesz kaÅĦ
ĠRe view
ĠçĻ º
ãĥ¥ ãĥ¼ãĤº
èĦ ±æ¯Ľ
Ġç ¤
ãĤ¯ ãĥŃ
Ġtá»ī nh
Ġang lais
çµ ¶
Ð¾Ð»Ð¾Ð³ Ð¸Ð¸
Ġin ner
Æ°á»£ t
Ġoc cas
ment al
Ð¾Ð² ÐµÑĢ
Ġso y
ÑģÐº Ð¸
ci dos
meld ung
Ġka p
Ii wi
Ġs m
us zy
Ġauf ge
ãĥĻ ãĥ³ãĥĪ
ĠÐŁ Ðŀ
Ð¸Ð² Ð°Ð½Ð¸Ðµ
Ġf os
Ġnaj wiÄĻk
é¦ Ļ
ĠÐ¿Ð¾Ð± ÐµÐ´
ãĥĻ ãĥĥãĥī
Ġç «
Ã¤ nge
fica ciÃ³n
ro it
te ll
ra te
Ġw indow
Ġob sÅĤu
ĠÐ½Ð°ÑħÐ¾Ð´ Ð¸ÑĤÑģÑı
m ales
Ġlo gos
ç· ı
wie k
ä»¥ å¤ĸ
cia is
r ant
Ġelec trÃ³
ni u
ĠR et
Ġcon n
Ġãģ į
ti ene
ÑĢ ÐµÐ½ÑĤ
Ðĵ Ðŀ
ĠÄĳ Ã¡
Ð¾Ñĩ ÐºÐ°
Ġent sprechen
ĠAngebo te
Ġh el
j cie
Ġneces ita
ĠÐ¿Ð¾Ñĩ ÑĤÐ¸
h ung
ĠrÃ³Å¼ nych
Ġc and
Ġdiman che
ĠPau lo
æĭ ħ
ĵ åĽ½
ç´ Ļ
h os
E C
ĠJue gos
Ġma tiÃ¨re
ĠãĤ ®
ÑĪ ÑĤ
Ġsa p
ĠÄĳ áº·t
Ð¾Ð¼ Ð¸Ð½
Ġf ebbraio
ĠN or
Ġr ich
Ġpare jas
Ġcon j
Ġmie mb
ç®¡ çĲĨ
U iOi
Ġw tedy
Ġf eira
I CI
Ġha ciendo
ĠL iv
olo gique
ĠZ obacz
ĠW sp
å¯ Į
Ġdiri g
Ġz b
ĠÐĶ Ð°ÑĤÐ°
Ġç ļ
å ©
ĠÐ± Ð¾Ð½ÑĥÑģ
ĠÐ½Ð¾Ð² ÑĭÐµ
å¤ ±
va ciÃ³n
ch arge
ÐµÑĩ Ð°ÑĤ
Ġher m
tif i
Ð¾ÑĢ Ð´
Ġda vvero
ti re
Ġpierw szy
£ i
Ġest udio
ĠEle kt
Ġãĥ ĺ
ĠS on
z in
ĠÐĶ ÐµÑĤ
ÑĪ Ð¸Ð¹
Ġs ettore
Ġmod i
i Ã§Ã£o
Ġvia je
Ġunsere m
ãģ¾ ãģĹãĤĩãģĨ
ĠK osten
se mb
áº± m
ĠFeb ru
Ġpa ar
is Ã©
ĠÐ¾ÑĤÐ´ ÑĭÑħ
cia to
Ġ ÅĤad
Ġsch warz
ĠT ro
____ ____
ĠÐ² Ð´
Ġinsta llation
ĠI B
Ġcl aro
ĠmoÅ¼e my
ĠdiffÃ©r entes
Ġcam po
ĠczÄĻ ÅĽÄĩ
ï¼ ¯
ãĤĴ éģ¸
mm t
çĨ ±
Ð¾Ð² Ð°Ð»
Ġsa gen
Ġac ceso
Ġini ti
ĠQues ta
Ġpre z
Ġkh Ã³
ĠC ode
Ġprojet s
Ġdro its
ÅĤ od
ĠP age
ĠAs s
Ġes cen
ei ros
Ġes sent
ĠÐ¡ Ð¼
ĠÐ¸Ð· Ð´
Ġk or
ãĤ¹ ãĥļ
Ġmus ique
Ġst essa
Ġal gÃºn
Ġeig entlich
Ġaller dings
Ġse cteur
ĠÐĿ Ñĥ
ĠÐ¸Ð· Ð³Ð¾ÑĤÐ¾Ð²
Ñģ ÐµÐ¼
Ġoff res
Ð· Ð¾ÑĢ
te le
Ġsol ution
ĠÑĪÐ¸ÑĢ Ð¾Ðº
Ġcon fi
si asi
Ġto p
æľ ª
ĠEins atz
ĠÐ±Ð¾Ð»ÑĮÑĪ Ð¾Ð¹
ãĥį ãĤ¹
ĠPho to
qu et
ĠC ena
mi ar
ĠL ig
ÑĮ ÐµÑĢ
ĠVi vo
ĠCar los
ras es
a Ã±o
Ġt iáº¿t
Ġap enas
h Ã¤ng
Ġreg istra
at ure
Ġkonk urs
ĠT om
ĠmÃ© di
ĠÐŀÑģ Ð½Ð¾Ð²
Ġtro chÄĻ
ãģĤãĤĬ ãģĮ
Ġå° ĳ
Ġpros tu
ĠÐ·Ð°Ð½ ÑıÑĤ
Ġna p
çİ ĭ
Ġfunk cjon
ĠÑĥÐ´ Ð°Ð»
AN D
me dia
ĠB lick
u ite
Ð¸Ñı Ð¼Ð¸
tur y
ĠS pa
Ġes os
ĠDe zember
ita tion
hr t
ĠÑģÑĤÑĢÐ°Ð½ Ñĭ
Ġme to
ĠmÃ© th
ĠA R
ar do
Ġresp ecto
ĠD ann
Ġdo ty
Ġtu á»ķi
wa gen
Ġ5 7
vers itÃł
b ro
ÅĤ asz
Ġne uf
Į æľĽ
éī Ħ
Ġy our
Ġse le
è²» çĶ¨
Ġdescar gar
er ÃŃa
ĠFr Ã¼h
Ġmil ioni
Ġdess us
Ġpre zent
Ġç¨ İ
Ġho teles
graph ie
Ġh aute
Ġest Ã£o
ĠÃ© to
ĠAngebo t
cz o
ãģ®å ķĨåĵģ
ä¸ Ī
æĹ¥ ãģ®
ĠÐ´ Ð¾Ð±
Ġkh á»ı
Ġsal on
Ġau prÃ¨s
Ġszyb ko
ri do
etz en
ĠÐ¿Ð¾Ñĩ ÐµÐ¼Ñĥ
ge hen
Ġsi ze
éł ħ
åĭ ¢
ĠÐ½Ð¾ ÑıÐ±ÑĢÑı
Ġulti mo
Ġpo za
ve ur
Ġrac con
Ġdi vers
Ġ) :
Ð°Ðº Ð¸
Ġweb cam
ĠGener al
l Ã©s
Ġcomp lÃ¨
Ġterri torio
çµ ±
ĠÐ¾ÑĤ Ð²
Ġulti ma
Ġd re
s ku
Ġquo ti
E D
Ġf echa
Ð ®
ĠÐ´Ð¾Ð¼ Ð°ÑĪ
ĠÑģÐ¾Ð± ÑĭÑĤ
Ġw ido
ĠF emmes
or ter
Ġri f
Ġaff aires
Ġri guar
inter es
Ġmes sa
Ġes se
Ġzakres ie
ãģ®æ °
Ġrepres ent
ĠmoÅ¼liw oÅĽci
Ð¸Ñģ Ð»
one go
ĠÐŀÑĤ Ð²ÐµÑĤ
Ġ3 00
ĠÐ²Ñĭ ÑĪÐµ
Ġv ent
Ġzak oÅĦ
Ġn á»Ļi
Ð¸Ð² Ð¸Ð´Ñĥ
ĠÐ¾ ÑĪÐ¸Ð±
æī ¿
Ġconf ron
an ke
ĠÑĥ Ð½Ð¸Ð²ÐµÑĢÑģ
ĠW and
Ġå¾ Į
ĠÃ© lÃ¨
Ġim mobilier
Ġqu atre
mb ro
ĠFor m
ãĤ· ãĤ¹ãĥĨãĥł
® éĢļ
Ã¡ genes
Ġb agno
ĠS and
Ġvia ggio
è² ¸
ãĥ³ãĤ ¬
ig dy
áº· p
po is
il a
Ġen ti
ĠÑĩ ÐµÑĤ
Ġty tu
h le
nos i
Ġneces ario
Ġex iste
æľŁ éĸĵ
ĠW issen
é »Ĵ
ÐµÐ½Ð¸Ñı Ð¼Ð¸
Ġt ÄĻ
ĠÐ¸ÑģÐº ÑĥÑģ
è³ ŀ
ur os
Ġre ven
Ġp rywa
å ¨
Ġha ve
I EN
Ġin st
ĠÐŀ Ð½Ð°
Ġna tura
Ġng ay
Ġad res
tiv idad
Ġgut schein
Ġbe kommen
ÑĥÑĤÐ± Ð¾Ð»
ĠÑģ ÑĥÑĤ
ãĤĤ ãģĨ
ĠDes car
Ġlle va
ĠÐ¸Ð· ÑĥÑĩ
P S
A W
Ġdzie w
wi cz
Ġwy jÄħ
; ;
é£ Ľ
Ġpue do
ves ti
Ġmein er
r ichten
Ġam ministra
ced ente
gi Ã³n
c les
ķ ı
Ġconc ours
Ġaura it
ĠÐ¾ÐºÑĤ ÑıÐ±ÑĢÑı
Ġt ÅĤuma
Ġlu Ã´n
Ġpas sen
Ġle icht
ĠÐł Ñĳ
ĠÑħ Ð¾Ð»Ð¾Ð´
Ġcon he
Ġstu dio
ĠM ona
ĠP om
jÄħc ym
ĠB á»Ļ
Ð² Ð¸
Ġs tori
Ã± ad
os p
ĠÐ· Ð°Ð»
ĠÐ°ÑĢ Ñħ
ni mo
ĠE U
fÃ¼hr t
wa ÅĤa
Ġb Ã¬nh
Ġc uy
ĠV ille
ĠpÃ©ri ode
Ġcze ka
Ġcom une
ãĥ¡ ãĥ¼ãĤ¸
ob ra
æķ ħ
ĠÐ¸Ð³ÑĢ Ð°ÑĤÑĮ
ĠÑħ ÑĢÐ°Ð½
ve ment
ĠÐ¾ Ñħ
Ġd v
ĠO ri
ta tions
Ġcon tri
ter s
Ġzas tos
ni ku
ĠRa hmen
ta zioni
æ ¿
Ġmal ad
ä½ Ĳ
Ġje we
ĠÐ¼ ÐµÐ»
ĠÑĨÐµÐ½ Ðµ
æ´ Ĺ
éĬ Ģ
ĠÐ¾Ð± Ð»Ð°Ð´
as za
Ã³ venes
Ġzd jÄĻcia
pp s
Ġtr y
Ġnh anh
ĠÐ½ Ð¸Ð¼
Ġogr ani
ta les
Ġme isten
Ġl Ã©
Ġperi odo
ãĤ¼ ãĥ³ãĥĪ
ãĤ¦ ãĥĪ
éļĽ ãģ«
Ġ6 5
Ġr endre
Ġpues to
ĠÑĤ ÑıÐ¶
T ER
Ġusu arios
Ġch ac
ãģ«éĸ¢ ãģĻãĤĭ
Ġquien es
ĠÐ²Ð¾Ð· Ð²
Ġf ic
Ġt aux
Ġswoje j
ãĥĭ ãĥ³ãĤ°
Ġlá» Ŀi
Ġappar tement
Ġfon da
Ġdzi ÅĽ
è² ¨
Ñī Ð¸Ðº
ãĥ¼ãĥ Ŀ
ç °¡åįĺ
ĠdÃ© mar
re ur
ĠÐºÐ¾Ð¼Ð¿Ð» ÐµÐºÑĤ
ĠÐ»Ð¸ÑĨ Ð°
Ġso ir
ĠÐ¾Ð³ÑĢ Ð¾Ð¼
Ġri us
Ġb Ã¢
Ġæ Ĥ
Å¼ li
Ġh Ã£
Ġa qui
ãģ¨ ãģ¦ãĤĤ
ãĥĭ ãĥ¼
Ġpre par
Ġpers Ã¶n
Ð¾Ð· Ð°
Ð»Ð¸ Ð¹
Ġp at
ite l
uf e
ĠÐºÐ¾Ð½ ÐµÑĩÐ½Ð¾
Ð¾Ð» Ð¾ÑĤ
Ġma ggior
ãģ«ãģ¤ãģĦãģ¦ ãģ¯
ÑĪ Ð¸Ðµ
ĠK ind
ĠK at
ĠÑĢÐµÑĪ ÐµÐ½Ð¸Ðµ
Ġra zy
i tions
ĠÐ¡ ÐµÐ³Ð¾Ð´Ð½Ñı
b are
Ġ") .
ãģķãĤĵ ãģĮ
è Ķ
Ġind Ã©
wyk le
Ġa ten
åį Ķ
Ġan zeigen
ĠSch n
or f
Ġwen iger
Ġdesc ub
ÐĿ ÐĲ
Ð¸Ð³ Ð½
Ġãĥ Ĵ
áº· ng
czÄĻ ÅĽcie
ĠÐ¸Ñİ Ð½Ñı
Ġau ment
Ġcha uff
ĠQ ui
bi Ã³
Ã¨ les
ĠÐ´ ÑĥÑħ
id ence
Ġf rei
Ñĥ ÐºÐ°
çĽ¸ æīĭ
ĠW ert
Ã¤ ge
Ð¾Ð» Ð¸ÑĤ
ÐµÐ¹ Ñģ
ÃŃ cio
Ġza interes
ĠAn s
Äħd u
ãģ¨ãģĦ ãģ£ãģŁ
Ġatten d
ĠC entre
Ġconse il
ĠAh ora
tis che
ĠQu el
ĠNg uyá»ħn
ĠÃ Ĩ
Ġm á»įi
Ġno ti
ĠæĬķç¨¿ æĹ¥
åł´ æīĢ
Ġdo ivent
Ġseg uro
Ġse k
ind ung
ĠÑĢÐ°Ñģ Ð¿
rit ti
ĠÃºlti ma
Ġreal tÃł
Ġes ca
ur ent
ĠÐ¸Ñİ Ð»Ñı
wia m
Ġzam Ã³wi
cz ony
ĠhÃ´tel s
ĠÐĽÑİ Ð±
ĠÐ¸Ð½ Ð²ÐµÑģÑĤ
Ġincont ro
Ġha cen
ta Ã§Ã£o
w ol
ĠÐ´Ð¾ÐºÑĥÐ¼ ÐµÐ½ÑĤ
ĠÑĢÐ°Ð·Ð»Ð¸Ñĩ Ð½ÑĭÑħ
Ġtratta mento
Ġdef ini
ĠGeschÃ¤ft s
Ġv ite
ãĥ¬ ãĥ³ãĤ¸
ĠPerson en
ĠÑĢÐ°Ð±Ð¾ÑĤ Ð°ÐµÑĤ
ĠCan ada
Ġï¼ī ãĢĤ
am ientos
Ġfor am
ve ux
Ġsam e
ĠÐ· Ð¸Ð¼
Ġmin istre
est ra
Ġinc re
vil ion
Ġhat ten
Ġè ĸ
ãĤĪãĤĬ ãĤĤ
dzia l
ĠÄĳ áº·c
Ġal to
un ek
ais on
Ð¾Ð³ ÑĢÐ°Ð¼
ĠÑģ Ð¾Ðº
ar s
ĠP ie
Ġp iel
Ġse cre
Ġ= \"
Ġten ÃŃa
is i
ÑĪ Ð¸ÑĢ
ter o
Ġdes cu
Ġcu ad
Ġzde cyd
Ġb ord
ĠÐ¼ÐµÐ´ Ð¸ÑĨÐ¸Ð½
Ġcam era
Ġkier ow
Ġf indet
Ġv ac
Ġè Ģ
Ġsecon da
ĠWir tschaft
ĠÑģ Ð¾Ñĩ
ĠTwo je
éĽ ĳ
ĠgÅĤ os
par tamento
ÑĢ ÑĭÐ²
Ġuwa gÄĻ
Ġb áº¯t
j us
er ÃŃo
Ġtom ar
Ġpersonn el
ĠT Ã¼r
Ġ5 2
ola ire
ĠMo Å¼e
é ½¢
æ¯Ķ è¼ĥ
Ġob lig
Ð¾ÑģÑĤÐ¾ ÑıÑĤÐµÐ»ÑĮ
ĠÑģ Ð°Ð´
Ġbas tante
ãģĦ ãģ§
Ġpes o
Ġprzed siÄĻbior
ĠG en
Ġau cune
ãģ®è ī
dien st
ĠÑģÑĤ Ð°Ð»Ð¸
Ġgu ida
b and
Ġhand l
Ð¿ Ð¾ÑĢÑĤ
ãĥ¼ãĥ ¡
Ã¤n de
ch Ã¨
ab ili
c n
ĠZ am
Ġwska z
Ġri p
Ġorig ine
ĠÐº Ð¾Ð¿
Ġjed nym
Ġpalab ras
Ġwyk orzyst
ĠÑģÐ¸ÑģÑĤÐµÐ¼ Ð°
ãģĮ ãģĤãģ£ãģŁ
ãģ®å º
Ġser rur
ĠTa ille
Ġprofessionnel s
Ġg ilt
ĠF ranÃ§ais
m ission
Ġm unicip
Ã¡ r
ĠÐ¿Ð¾Ð¼Ð¾Ñī Ð¸
Ġf rom
Ð½ Ð¾Ð¿
Ġr il
Ġrze cz
ĠÐ¡Ð°Ð½ ÐºÑĤ
Ġh ast
k el
ÐµÐ½ Ð½Ð¾ÑģÑĤÑĮ
Ġi le
cie Å¼
éĽ» è©±
Ġent wick
Ġcomm ande
ia j
Ġdocu ment
Ġimp ression
Ġin sp
ĠÐ¿ÑĢÐ¸ Ð±
Ġpo ten
Â ±
Ġh Æ°á»Ľng
Ġprote ction
Ġper form
ãĤ¤ ãĥ³ãĥģ
Ġäº Ī
M z
Ġda w
ĠG R
l ent
Ġsu bito
Ġlung o
ĠFamil ie
Ã¡n d
hn t
ĠmoÅ¼ esz
ĠÑģ Ð¸Ð»ÑĮ
ç¨ĭ åº¦
Ġg ol
ĠMar ie
ĠT able
Ĳ Ĩ
ĠPa vilion
ĠGl Ã¼ck
ĠT odo
ĠR od
tar ÃŃa
dor f
ĠD ank
Ġx Ã¢y
Ġg ab
ĠC ul
ul ares
çĹ Ľ
ĠD U
ĠÑģ Ð¿ÑĢ
Ġpeu x
ĠnÃ©ces saire
Ġot war
ãĤı ãĤĮãģ¦
Ġcor az
Ġcon for
ĠÐľ ÐµÑĤ
ãģ® ãģĶ
ĠÐ¢ ÐµÐ¿
ä½ Ļ
Ð¸ÑĤ ÐµÑĤ
por to
d ÅĤug
ĠrÃ©p onse
ente mente
icht ung
ĠÐ»ÐµÐ³ ÐºÐ¾
ĠmÃł u
ãĢħ ãģª
Ġe dad
ĠãģĿãģ® ä»ĸ
ĠÄĳ áº¡o
ĠDo po
ĠWa hl
Ñĩ Ð°ÑĤ
ãģ® ãĥĲ
ĠÑģÑĤ ÐµÐº
lis is
Ġvi ol
Ġpro xim
ĠPart ner
ĠÐ¿Ð¾Ð½ ÑıÑĤ
Ġre tur
ÅĦ skiego
ç² ¾
ĠFebru ar
sta dt
Ġam our
Ġris que
c rÃ©
Ð¼ÐµÑĢ Ð¸ÐºÐ°Ð½
ĠL ong
Ġseu le
Ġhay a
Ġm Ã³
äºĭ åĭĻ
Ġs ce
Ġsz ero
ãģ®å ¹
Ġtá» Ń
Ġwe gen
Ġacom paÃ±
b os
ÐµÐ½ Ð½Ð¾Ð¼
d an
Ġretur n
kol wiek
ĠÐ¡ Ð»
Ġ6 4
Ġ ãģ§ãģĻ
Ã©b Ã©
ĠV oi
x ion
Ġsemb ra
fic ar
Ġinte gra
ĠkaÅ¼de go
Ġ5 3
aul t
é Ĺ
ãģ§ãģ¯ ãģªãģı
ĠÐ¼Ð°ÑĤ Ñĩ
Ġk sztaÅĤ
Ġmat in
Ġt Ã©
Ġw ier
Ġnecess ario
Ġlo cal
wit ter
ĠReview Image
ãĥª ãĥķãĤ©ãĥ¼ãĥł
ãģĦãģ¦ ãģĦãĤĭ
Ġznajd uje
æŃ »
ĠÃ© qu
ĠUni vers
ĠÐ¶ ÑĥÑĢÐ½
ĠÐ¿Ð¾ÑģÑĤ ÑĥÐ¿
Ġst ru
á» ĥ
ĠÐł ÐµÑģÐ¿ÑĥÐ±Ð»Ð¸
Ġcier to
ĠÐ·Ð°ÑĢ Ð°Ð±Ð¾ÑĤ
ĠÐ±ÐµÐ·Ð¾Ð¿Ð°Ñģ Ð½Ð¾ÑģÑĤÐ¸
Ġal guien
schn itt
ãģ¨ãģĦãģĨ ãģ®ãģ¯
ĠCol ombia
Ġreg ist
t ures
Ġk l
ĠF ranÃ§
va is
ĠSt unden
æŁ ĵ
ĠÐ± ÑĥÐ¼
Ġparticu lier
Ġz oba
áº« u
Ġd Ã¼r
Ġsa gt
ĠP ia
Ġv ost
en cji
ĠB lack
Ġl uch
ĠWeit ere
Ġngh á»ĩ
ĠÐ¼ ÐµÑħÐ°Ð½
Ð¾Ð»Ð¾Ð³ Ð¸Ñı
Ð»Ñı ÑİÑĤ
Ġs quad
ĠKÃ¼ che
Ġu d
Ġde ben
ĠFar be
Ġsie ht
ãĥ³ãĥ Ń
lich keit
ĠÐ°Ð¿ÑĢ ÐµÐ»Ñı
Ġpie d
Ð½Ð¸ ÑĨÑĭ
Ġdiver se
ĥħ åł±
Ġph á»ĳ
ĠReg ion
Ġpoz na
Ð¸Ð² Ð°ÐµÐ¼
Ã¨ de
ĠrÃ© gu
« ª
¤ ĩ
m ado
lÃ¨ mes
ĠÐ¼ ÑĭÑĪ
id era
rz u
res a
ĠÐºÐ¾Ð½Ðº ÑĥÑĢÑģ
ĠÐ± Ð¾Ð³
Ġprodu cciÃ³n
ĠQu alitÃ¤t
Ġf ÃŃ
Ġkein en
Ġm usz
ãĥ© ãĥ³ãĤŃãĥ³ãĤ°
ãĤ° ãĥ©
Ã¤ hlen
Ġnombre uses
Ðº Ð°ÑĤ
Ð»ÐµÐ½ Ð¸Ñİ
ĠNie der
ter os
ãĤ¦ ãĤ¹
ĠJ etzt
Ġas es
es sen
Ġkle inen
Ġlep iej
ãģ®å ĭ
tori as
ur i
ÐµÐ² Ð¸Ñĩ
ÑĥÐ¹ ÑĤÐµ
on Äħ
ĠK Ã¶
ĠÐ¶ÐµÐ» ÐµÐ·
Â ·
ĠÃ ĩ
Ġs á»©c
um n
Ġali gn
çµ ¡
id i
Ð°Ð½ Ð½ÑĭÐ¹
å¸Ĥ åł´
Ġdi as
ĠÐ¿ÑĢÐ¸ ÐµÐ¼
Ġent rÃ©e
Ñı ÐµÑĤÑģÑı
ãģķãĤĮãģ¦ ãģĦãģ¾ãģĻ
ĠÐ½Ð°Ñģ ÐµÐ»
Ġis titu
N A
Ġ ğ
ĠdziaÅĤ ania
ng o
Ġens uite
ckie go
on te
Ġw ody
lica ciÃ³n
Ġcomment aire
Ġapp rÃ©
Ð¸ÑģÑĤ ÑĢÐ°ÑĤ
Ð² Ñĭ
Ġve ngono
S O
Ġo cas
ĠZ usammen
Ġpis cine
ĠÑģ Ð°Ð»
Ġab ier
icher ung
Ġdou ble
Ġcorres pond
ĠprÃ© cÃ©d
ĠNue va
Ġviel leicht
Ð¸Ð± Ð»Ð¸
Ð± ÑĥÑĢÐ³
Ġm áº¡nh
cze ÅĽnie
Ġcomun que
ĠÐ¿ÐµÑĢ ÐµÐ¿
Ġou i
ĠciÄĻ Å¼
at is
er ne
ca Ã§Ã£o
ĠÐ± Ð°ÑĢ
Ġg rid
çµĲ å©ļ
Ġpo b
anta ge
Ġgiov ani
ä¾ Ŀ
ĠÑĥÑĩ ÑĢÐµÐ¶Ð´
Ġzmi an
Ġse ja
d ido
icht s
tegor ia
Ġaplica ciÃ³n
ur so
Ġquier o
Ġv arias
ÐµÑģÑģ Ñĥ
ħ è¡Į
Ġtá» ·
cesso ires
Ġuti l
e hen
Ð¾Ð»ÑĮ ÐºÑĥ
Ġf ron
Ġsto p
Ġer klÃ¤r
7 3
ĠsÃ» r
Ġre co
ig i
Ġn á»¯
Ġi den
ĠÐ² Ð»Ð¸Ñı
Ġza war
Ġty le
iáº¿ m
rit t
Ġm ostra
Ġ ÅĤÄħ
ĠAc tu
ant wort
Ġgen re
Ġdom aine
ĠCon si
Ġqual siasi
jer os
tel le
t ten
ko j
Ġne ben
Ġcons titu
Ñĳ ÑĢ
ĠÅĽwie cie
ĠI st
ĠA G
Ġgemein sam
Ġab s
p reis
ga ben
v Ã©s
Ġcin co
Ġcam p
ĠRa um
Ð¾Ð¶ Ð½Ð¾
Ð¾Ð´ Ð°ÑĤÐµÐ»ÑĮ
Ġnh á»ı
Ð¾Ð» Ñİ
ĠIni cio
tar on
Ġfu ori
pr uch
Ġwy posaÅ¼
ĠÐ¿ÑĢ ÐµÐ·Ð¸Ð´
ĠM iej
Ġsa gte
Ġar ch
ãģ¾ ãĤĭ
ĠÐ¾ÑĤ Ð¼
Ġpew no
å¸ Ń
Åº Äĩ
ĠCuis ine
li r
Ãº de
Ġpro por
ãģ®å ľ
Ð½ Ð°Ð·
oul d
li kow
Ġn arz
sion es
Ġma Ã±ana
ĠÑģÐ²Ð¾ Ð¸Ð¼
ĠÐ½ Ð°Ð¹Ð´
Ġas sim
Ġcade au
ven ue
Ñı Ð»Ð¸
Ġmedi os
Ġdispon ibles
Ġdi vent
Ġpra wa
ĠÑĢÐµÑģ ÑĥÑĢÑģ
ĠÑģÑĤ ÐµÐ½
Ġinv est
ĠA U
Ġpour ra
ĠÐ¼Ð°Ð» ÐµÐ½ÑĮ
Ġwy stÄĻp
ĠrÃ© un
Ġsi tios
Þ ¬
Þ ª
Ġthu áºŃt
Ġdei x
Ġliv res
Ġæ ¶
Ġf as
ĠÐ¾Ð¿ Ð°Ñģ
Ġå ²
ãģ®æ īĭ
ĠÃ©v Ã©
ĠpoczÄħ tku
g um
mp f
Ġco cina
Ġpla ta
te zza
gn et
ci ÄħÅ¼
ãģ®æ Ń
Â ¿
Ġká» ³
Ġinter ess
Ġe mo
Ġl ing
Ġdich o
ĠÐ²Ð¾Ð·Ð´ ÑĥÑħ
Ġab ge
ĠP ros
Ġ> <
Ã© ctri
Ġproxim itÃ©
Ġp ier
me m
ĠL ors
Ġmies iÄĻ
ãģ®åī į
ze pt
Ð¸ÑĤÐµÐ»ÑĮ Ð½ÑĭÐ¹
tu be
a go
Ġtr i
le g
ãģ² ãģ¨
ãģ®æ Ķ
ÑĦ Ð¾ÑĢÑĤ
ĠÑħ ÑĥÐ´
á»« ng
Ġge b
ay s
Ġg az
ĠÑĢÐ°Ð¹ Ð¾Ð½Ð°
Ġle er
ĠÐ´ ÐµÑģÑı
ĠS us
Ġcon cas
ic ro
bei tet
Ġte xte
ĠS ter
wy czaj
½ çī©
ĠMej or
ĠA g
cri re
äºĪ å®ļ
Ġresp uesta
ĠtÃ©lÃ© phone
Ðº Ð¾ÑģÑĤÑĮ
re as
gr Ã¼n
ĠÑĢÐ°Ñģ ÑħÐ¾Ð´
ier i
Ġauto ma
Ġth anh
ĠÐ´ Ð¾Ð±ÑĢ
ĠV ene
Ġpag ina
as a
ĠÃ©v al
ĠP lan
ĠB ol
er ci
Ġåı ĸ
Ġtempor ada
Ġsour ce
Ġï¼ģ ãĢį
ãģ¯ ãģļ
Ġpoprze z
ĠÐĺÐ½ÑĤÐµÑĢ Ð½ÐµÑĤ
¥ åº·
Ġnh Ã¬n
Ġtram ite
o c
Ġsu pÃ©rie
ĠÐ¸Ð³ÑĢ Ð¾Ðº
00 00
éĸĭ çĻº
ĠmÃº sica
b esch
Ġorigin al
Ġon a
ĠF est
Ġbeso ins
ĠÑĦ Ð¾ÑĢÑĥÐ¼
ãģ®å ½
c rit
ÑĥÑģ Ð°
ĠktÃ³r Äħ
ĠÐ¿Ð°Ð¼ ÑıÑĤ
Ġgi udi
8 4
ĠBas k
ĠS A
Ġcho isir
Ġus ar
ĠN O
Ġn Æ¡i
ĠÐ¿ Ð°Ð½
c tez
Ġfor um
ĠÐ¸Ð¼Ðµ ÑİÑĤ
ĠãĤ¹ãĥ¼ãĥĳ ãĥ¼ãĤ³ãĥĶãĥ¼
ãĥ¼ãĥ ľ
Ãºb lica
Ġé ¦
am er
Ġscel ta
ĠFor um
Ġcre ar
ĠH is
IC A
Ġsame di
u h
Ġfunk tion
Ġcommun au
Ġå ĴĮ
çħ §
ĠGio v
Ġi Å¼
ACI ON
Ġob ser
ĠCas erÃŃo
va zione
ĠAn che
ĠÑĢÐ°Ð· Ð³
si te
ä½ı å®ħ
ĠÐ¾Ð±ÑĬ ÐµÐ¼
d l
Ġcand id
Ġconse ils
ãĥī ãĥ¬ãĤ¹
ĠNo ticias
Ġ ă
ca ciones
mi que
cyj nego
k ung
èĮ ¶
ãģ«ãģª ãĤĬãģ¾ãģĹãģŁ
ĠÐ½Ð¾Ð² ÑĭÑħ
Ġcl ub
Ġre cu
Ġpo k
Ġos iÄħ
ĠSchla f
ti Ã³
ĠÐ¡ ÐµÐ²
æµ ľ
tÃ© es
ï¼ ´
ãĥ« ãĥĢ
ĠN Ã¤
Ġdo vre
Ġcon cep
ĠÐĳ Ð¾Ð³
ãĥ¬ ãĤ¤
ĠÐ¡ ÐµÑĢ
ĠQ UE
Ġdispos i
Ġdz ien
ĠÐ¾Ñģ Ð²
Ġzei gt
ti ers
s ko
ãĤĴæ ±
Ġm Ã³vil
aj as
Ġda her
ĠvÃ© hic
Z CI6
Ġsku te
ĠVer anstal
ĠÐ¿ÑĢÐµÐº ÑĢÐ°Ñģ
at tro
ĠçĽ ®
th er
Ð°Ð± Ð°ÑĤ
Ġcam ino
ni kiem
Ġa gu
6 æľĪ
ĠÑģÐ¼ Ð¾Ð³
ãģĳ ãģªãģĦ
or en
Ġes col
ãģĭ ãĤı
ĠWiÄĻ cej
ĠP io
Ġe g
Ġsi ti
Ġmy ÅĽl
Ġe her
ĠÐ¿ÑĢÐ¸Ð½ ÑĨÐ¸Ð¿
Ã °
á» Ľi
Ð Ĩ
ĠÑĢÐ°ÑģÐ¿ÑĢ Ð¾ÑģÑĤÑĢÐ°Ð½
ĠfranÃ§ais e
ĠÃºlti mos
ĠÃ© dition
Ġpi cco
Ġvendre di
ĠrÃ© ussi
k ces
Ġé »Ĵ
åĨ ĻçľŁ
Ġconcern ant
ĠWo che
ĠConse il
ĠÃ©ner gie
ĠSe villa
ĠÐº Ð³
Ġa tu
quil er
te g
Ġ- -
æĹ¥ ãģ«
ĠÑĢ ÐµÑĩ
Ð°ÑĤÑĮ Ñı
ĠÐ³ ÑĢÐ°ÑĦ
Ġde di
Â ¸
Ġv áºŃt
ĠH ilfe
Ġbe b
ÑĪ ÐµÐ³Ð¾
stru k
ori i
Ġen reg
ÑĢ ÐµÐ¹
ĠÐ°Ð¿ Ð¿Ð°ÑĢ
Ġprodu ct
Ġin se
ĠJ es
enez uela
Ġprofesion ales
Ġne hmen
ãģĦãģŁ ãģĹãģ¾ãģĻ
äºĪ ç´Ħ
ĠÐ¿ÑĢÐ¾Ð±Ð»ÐµÐ¼ Ñĭ
Ġesti lo
Ġa rea
Ġrecenz ji
ĠBar dzo
d ym
Ġh il
Ġpo ter
Ã¡ lisis
le b
Ġra ggiung
Ġel a
g les
f ar
Ġzes po
ãĤĵ ãģ¨
Ġcol umn
ãĥ¬ ãĥĥãĥĪ
ĠæľĢ è¿ĳ
Ġex cel
Ġsch wer
ĠÑģÐµÑĤ Ð¸
ãģĹãģ¦ ãģĦ
za ciones
ĠÃ©lectri que
Ġr odz
ĠÑģ Ð¾Ñģ
Ġpodsta wie
Ġpl anta
Ġejer ci
AD O
Ġpue blo
Ġparf ois
Ġprodu k
è¨Ń å®ļ
Ġdes envol
Ġnaszy m
Ġtrata miento
Ã¼ rz
Ġla tach
æĪ ¿
Ġãĥķ ãĤ£
ä¸ ģ
Ġa di
ãģ¿ ãģ«
ï¼ ¥
æŃ Į
ĠÐŁ Ð¾ÑģÑĤ
æĸĻ éĩĳ
ĠÑĢÐ°Ð· Ð±
Ġpro tÃ©
Ġeff etti
ãģ¨ãģª ãĤĭ
Ġmater iaÅĤ
on da
Ġprze de
Ġl undi
id encia
ĠZ ur
ĠRe cher
isse z
ĠÐºÐ¾ÑĤÐ¾ÑĢ Ð¾Ð¼
Ġd ichi
Ġn owych
ĠT V
ĠãģĿãĤĮ ãģ¯
ĠMitarbeit er
w in
èĭ ¦
Ã¡n dose
Ġter re
las se
ãĥ¡ ãĥ©
ng ua
Ġp y
k an
tiv itÃ©
ãģĽ ãĤĭ
Ġmad re
Ġzak u
Ġnatur al
Ġnum Ã©ro
Ð°ÑĢ ÑĥÐ¶
uer ra
Ġph á»¥c
ZX J
ada ÅĦ
Ġè ¥¿
usam me
Ġk uch
ĠpiÃ¨ ce
R l
Ġprzed stawi
leit ung
g bar
ĠÑģ Ð½Ð¸Ð¶
ĠsiÃ¨ cle
ĠÑģÐ² Ð¾Ð±Ð¾Ð´
ĠD enn
ãĥ¼ãĥ į
Ġste llen
Ġph á»¥
M P
Ġevi tar
n oÅĽ
I K
Ġwy pad
ĠÐ´Ð¾Ð»Ð¶ Ð½Ð°
Ġso fort
ĠK Ã¶rper
Ġher rami
Ð°Ð»ÑĮ Ð½Ð¾Ð¼
ãģĭãĤī ãģªãģĦ
ĠTra b
Ġrec ursos
G F
ĠD ia
ç Į
ĠBus ca
Ġprop io
te i
AN T
Ġexp lo
ĠÐ¾Ð± Ð½
ĠCham bre
ãģĻãĤĭ ãģĵãģ¨
an owi
Ġeben falls
ala xy
Ġb á»Łi
ĠSp ra
f ois
ï¼ ¤
å¾ ©
ĠC ze
Ġdo is
O C
Ġst and
Ġconse guir
ĠD ec
Ġf unda
ĠTod os
Ñĥ ÑİÑĤÑģÑı
ĠEsp anol
ĠZapa tillas
ĠB an
Ġroz wo
Ġçı¾ åľ¨
Ð¸ÑĤ Ð°Ð¹
Ġãĥķ ãĤ§
Ġenf in
ĠdÃ© part
ÐµÐ² ÑĭÐµ
ĠÐµ Ð¶
Ġk orzysta
æ´ ¾
ĠP ierw
Ġacc or
ĠAn uncios
Ġw ahr
Ġso leil
ĠÐ²Ñĭ Ð´ÐµÐ»
m Ã©s
ĠÑįÑĦÑĦ ÐµÐºÑĤ
ta ura
ĠP elle
ta te
ãģĮ è¦ĭ
ei r
glio re
ĠC r
Ġque m
ÐĽ ÐĲ
ÐµÐ´ Ð¸
Ġdu da
Ġps ych
Ġnasze go
Ġinwes ty
ĠÐ³Ð» ÑĥÐ±
Ġinter ior
Ġzmi any
Ġv iej
Ġç´ ł
Ġç¶ ļ
Ġles bianas
Ġpa ges
Ġ' '
Ġcoule urs
Ġph ysi
Ġsprzeda Å¼
Ġzw iÄĻk
Ġå ĥ
éĢļ ãĤĬ
c ano
ĠÐ¾ÑĤÐ²ÐµÑĤ ÑģÑĤÐ²ÐµÐ½
ĠÐ½Ð°Ð»Ð¸Ñĩ Ð¸Ð¸
Ġprze j
ĠÑĢÐ°Ð·Ð¼ ÐµÑī
m s
unk te
ĠÐ¼ÐµÑģÑĤ Ð°
Ġodpowie dni
Ġmeille urs
Ġutili zar
cu encia
Ġäº ¤
Ġu omini
Ã¢n cia
Ġ ~
Ġu trzym
Ġcerta ines
æŁ Ħ
æ¥ µ
tor no
m mer
Ġth áºŃt
ĠÐ´ÐµÐ¹ÑģÑĤÐ² Ð¸Ñı
ĠÐ´ Ð¸ÑĢ
ĠÐ²Ñģ ÐµÐ¹
ĠJe Å¼eli
ĠÐĺ ÑĢ
Ġactu al
ĠKon takt
am in
ĠÐ²Ñĭ Ð²Ð¾Ð´
ÑĢÐ¾ ÑĦ
ier o
Ġbi znes
áº¡ y
oule ur
ĠÐ³Ð¾Ð» Ð¾Ñģ
è¨Ģ èĳī
Ġen se
Ġihre m
ca ch
ĠVo tre
jÄħc Äħ
ÐµÐ¹ÑĤ Ð¸Ð½Ð³
ĠM uch
Ġsu cc
Ġacqu ista
Ġes sa
Ġenfer me
ĠÐ¼Ð» Ð½
ĠIn f
Ġu dziaÅĤ
éĥ İ
ãģĪ ãģ¾ãģĻ
ĠO ut
ĠÐ¼Ð¸ÑĢ Ðµ
ĠSu che
ĠDie u
Ã® ne
Ġs cuola
our ces
u il
ĠÐłÐ°Ð· Ð¼ÐµÑĢ
ĠÐ¼ÐµÑģÑĤ Ðµ
Ġwarto ÅĽci
ĠspÃ© ci
ãģ®å ¼
di go
d ores
ĠG el
Ġist nie
Ġpre fer
Ġdeb ido
ĠT H
á»ķ ng
8 9
ĠdÃ©c ouver
r one
éģķ ãģĨ
ĠÐ³ÑĢÑĥÐ¿Ð¿ Ñĭ
ĠS il
ĠS tiva
Ġpun ti
Ġtá»¥ c
hand lung
ĠL Ã¶s
ãĥ¼ãĥ ¬
Ġsp Ã¤ter
ãģķãĤĵ ãģ®
å®ī å¿ĥ
Ð°Ð»Ð¸ ÑĦ
Ġkos mety
Ġdo kÅĤad
§ ĺ
åĢŁ ãĤĬ
Ġc ois
ï¼ ²
ãģ¯ ãģĬ
ĠÐ½Ð° Ð¸Ð±Ð¾Ð»ÐµÐµ
Ġå· ¥
Ġ ä¾¡æł¼
çĶ³ ãģĹ
Ġag ri
ãĤĴæİ ¢
tiva mente
ĠC et
Ġca ÅĤy
è² ¡å¸ĥ
ãģ« ãģ¦
Ġquy á»ģn
pon der
ĠC Ã¡mara
ĠãĥĽ ãĥĨãĥ«
ro l
Ġvi vo
v res
ĠJed nak
Ġbe de
çĤ º
Ñĭ Ð½
Ġcontr Ã´le
Ġpue da
ÑģÐº Ð¾Ð¼Ñĥ
ĠÐ´ ÐµÐ¼
ĠÑĢÐ°Ð·ÑĢ ÐµÑĪ
Ġs ent
æ³ ¢
Ġblan co
fic os
ĠmÃ© dica
Ġla que
t tr
ĠBe z
Ġusta wy
Ġs ze
cos a
ĠÑģÐµÑĢ ÑĮ
cri zione
Ġé Ļ
ĠS ing
Ġwor den
Ġpo tr
Ġprzez na
Ġph Ã¢n
Ġf ig
Ġvo is
zza ta
cie li
Ġz g
Ð½Ð¾Ð² Ð°
Ġqual quer
Ġpos ition
ĠÐŁ Ð¾Ð¼
èª¿ æŁ»
åĬ ´
la ciones
Ġgestion e
Ġda to
Ġhab lar
ĠI ng
zy d
ĠÐ¼ Ð¾Ð±Ð¸Ð»ÑĮ
Ð» Ð°Ð¶
ĠEuro pa
Ġsort ie
ĠÑĤ Ð¾Ð¼Ñĥ
Ġprze prowadz
ãģĹãĤĥ ãĤĮ
Ġter me
Ġtr iá»ĩu
Ã© cu
na ire
Ġcompr is
ĠGes undheit
ĠÐºÑĢ ÐµÐ¿
pp i
Ġp ul
Ġzost anie
Ġnuest ras
Ġä¸ »
ĠLand es
Ġb ureau
ÐµÐ½ÑĤ ÑĢÐ°
Ġade cu
Ġna zionale
ĠBon jour
Ġter rain
è Ĩ
cz ba
åį ĥ
Ġ our
ãĤĪãģĨ ãģ§ãģĻ
ĠÑģÐµÐ½ÑĤ ÑıÐ±ÑĢÑı
\ \
Ġzak up
Ġs wÃ³j
Ġcl ass
ĠHo y
ĠG re
æľĢ å¤§
ĠÐº ÑĢÐ°
O G
Ġparte cip
Ð°ÑĤÐ¾ÑĢ Ð°
ÑİÑī Ð¸Ð¹
Ġcomp ra
Ġprofesion al
Ġle ben
Ġd ane
ãĤ³ ãĥ¡ãĥ³ãĥĪ
Ġinvestig aciÃ³n
Ðł Ðĺ
ĠÐ¸Ð½Ð´ Ð¸Ð²Ð¸Ð´Ñĥ
ĠÐ± Ð¸
ĠK aÅ¼
Ġ5 1
ou ch
ĠFa ce
Ġuni vers
ĠÑĤÐ¾ÑĢ ÑĢÐµÐ½ÑĤ
ĠÑģÑĤ Ð°Ð½Ð´Ð°ÑĢÑĤ
è± Ĭ
ri gio
Ġsare bbe
n ent
ĠÂ ¬
Ġb iáº¿n
å ¬
ç ¬ĳ
ãģĹãģŁ ãĤĬ
Ġsi gue
ĠPro f
Ġpod em
sch er
ĠÐŁ Ð»
ÑĮ Ð¸
te li
M ENT
ma is
Ġm Ãª
Ġda re
Ġar beit
Ġcap ital
ĠS ud
ĠÐļ Ð»
le gÅĤ
Ðº Ð¾Ð²Ð°Ð½
ĠÑĨ ÐµÐ»ÑĮ
gg etto
Ġcos titu
ara go
li zar
ab ilitÃ©
ĠprÃ© v
Ġdeta lles
Ġl ar
Ġb il
Ð»Ð¸ Ð·
èĪ Ī
Ġperson ales
éģ £
Ġ000 åĨĨ
èĲ½ ãģ¡
Ġ à²
Ġg áº§n
ta ger
ĠdÃ©ta il
Ġini cia
ĠSo ftware
ĠEnt schei
ĠRÃ© f
Ġr oute
ĠÑĥ Ð²ÐµÑĢ
ĠJ un
ĠEn cu
Ġa ta
æĻ ¯
Ð± Ñĥ
iss on
Ġãĥķ ãĤ©
ĠN ord
ĠÑįÑĤ Ð°Ð¿
ĠÐ´Ð¾ ÑħÐ¾Ð´
éĥ¨ å±ĭ
Ġcon ser
ĠÐ°Ð² Ð¸
are k
w ski
rz es
Ġnie ktÃ³
äºĭ ãģĮ
ĠEner gie
ãĥĥ ãĤ»
é ³
fi Ã©
Ġpar is
Ġconstru ction
ĠA C
t Ã¡
Ġå Ń¦
ta ri
ze p
Ð¸Ð· Ð°ÑĨÐ¸Ð¸
Ñĭ ÑģÐ»
ĠÑģÐº Ð»Ð°Ð´
cia re
Ġal c
Ġwer de
Ã Ĺ
ĠB Ã¬nh
Ġmo re
ĠÑģÑĤ ÑĢÑĥÐºÑĤ
teil ung
ĠAma zon
ĠAr ch
Ġv ari
Ġh áº¿t
ãģĵ ãģĿ
ãĤ» ãĥĥãĤ¯ãĤ¹
end u
Ġæľ ī
Ġb itte
ĠNach t
ÐµÐ³ Ð¸ÑģÑĤÑĢ
Ġtechni ques
ĠÑĢ Ð¸ÑģÐº
ãģıãģª ãĤĭ
ĠO ff
rÃ© es
Ġricon os
5 1
Ġpr Ã³b
ĠÐ¸Ð½ÑĦÐ¾ÑĢÐ¼ Ð°ÑĨÐ¸Ñİ
ci mientos
ãĥ¼ãĤ µ
ĠLa ge
Ð¸Ð· Ð²Ð¾Ð´
Ð¾Ð» Ð¸
ĠÐ»ÑİÐ± Ð¸Ð¼
ĠB leu
Ġsimp lement
ĠÐ²Ð¾Ð·Ð¼Ð¾Ð¶ Ð½Ð¾
er mo
ab ilitÃł
Ġk urs
ãģ¦ ãĤĭ
al le
åĭŁ éĽĨ
1 æľĪ
Ġdem as
ĠQu and
k ur
res z
Ġz eit
ĠC at
Ġcat Ã©g
ll ig
3 æľĪ
Ġcon st
ĠPar k
ĠÐ° Ð³
ãģªãģ© ãģ®
a ÅĤa
Ġsch le
ãģĳ ãģŁ
Ġstr ada
arago za
ĠÃº nico
Ġverschieden en
iel s
ĠNa poli
Ġver o
Ġ' :
ere m
Ġog Ã³l
ire ment
ãģ§ãģĻ ãĤĪãģŃ
ãĤĦ ãĤĬ
ãģ° ãģĭãĤĬ
ãģ¨ãģĹãģ¦ ãģ¯
ĠÃ ¥
Ġtr á»£
ĠO ui
Ð½Ð¸Ðº Ð¾Ð¼
p ub
Ġam is
ãĤĴ ãĤĤ
Ġgio ca
y n
Ġequi pos
ĠÐ½Ð¾Ð² Ð¾ÑģÑĤÐ¸
çĬ¶ æ³ģ
Ġest ru
ĠÑĤÑĢ Ð°Ð²
ĠÃ¢ ge
t anto
ĠãĤ¹ ãĥĨ
ĠDien st
cz ona
Ġbezpie cze
Ġ2016 å¹´
ãĥ³ãĥĹ ãĥ«
iste mas
dep endi
Ġrisul tati
Ġæ ¿Ģå®ī
ĠRes taur
Ġmar ch
Ð¾Ð¼ Ð°ÑĤ
Ã ĺ
Ġb Ãłn
gra fi
Ġfut uro
ĠÑģÐ» Ð¾Ð²Ð°
cz noÅĽci
Ġa pos
C h
Ġdire ction
ç ł´
ĠPre ise
ĠÑĥÑĩÐ°ÑģÑĤ Ð¸Ðµ
di ta
Ġeje cu
mar kt
Ġhis tori
ĠÑĢÑĥÐº Ð°Ð¼Ð¸
ĠÐ¿ÑĢÐ¾Ð¸Ð·Ð²Ð¾Ð´ ÑģÑĤÐ²Ð°
ĠNi ke
vo li
10 æľĪ
ĠAn ton
Ãºs que
ĠDe ta
ra u
ĠÐ½ÐµÐ´ Ð¾ÑģÑĤ
Ġåį ĺ
åĢ Ĵ
Ġle ider
ĠS eit
ĠÐ±Ð¾Ð»ÑĮÑĪ Ð¸Ð½
Ġpro ce
ĠD im
Ġma gas
ĠN os
Ġz one
Ã¶ffentlich t
ĠTe chn
sch rift
er st
Ġåı £ãĤ³ãĥŁ
æĿ ¾
å¥ Ī
åł´åĲĪ ãģ¯
Ġm áº¹
Â ¶
Ġth ay
Ġz gÅĤ
Ġex cell
Ġdi gi
Ġsen ci
Ġv ont
ĠNe ben
ãĤĴè¦ĭ ãĤĭ
ĠÅĽwia ta
Ġche f
Ġsettim ana
çµĦ ãģ¿
z ess
Ðķ Ð¢
ĠÐ¼ Ð°Ð¼
ĠÐ» ÐµÐº
ĠÐº Ð»ÑİÑĩ
Ġdesn udas
Ġaf ir
ãĥ³ ãģ®
ĠSpiel er
ĠÃ©conom ique
Ð¿Ð¾Ð» Ð°Ð³
Ġal cune
Ġk ol
Ġc ouver
ĠÄĳ Ã¬nh
ise z
ÅĽwiet l
Ġa na
ĠPare jas
ada mente
ĠpÃ³Åº niej
ĠKop f
ch ain
ãĥ¬ ãĥ¼
ĠDE S
mo ire
ĠHer z
ĠÑĢÐµÑĪ ÐµÐ½Ð¸Ñı
Ġobjec tif
èĭ ¥
ter na
ĠÐ²ÑĭÐ± ÑĢÐ°ÑĤÑĮ
Ġso llen
ÐµÐ»ÑĮ Ð·Ñı
ĠÐ¿ÑĢ Ð¸ÑıÑĤ
ĠÐ±Ð¾Ð» ÐµÐ·
ĠÃ ¦
Ġv Ã´
Ġth eir
ien cias
Ġpr Ã¤
ĠVoi ci
Ġpar mi
ĠKa tegor
Ġsvilu ppo
Ġz wier
ãģĺ ãĤģ
ãģ£ ãģ¡
® ĭ
Ġs ir
Ġconta ct
ab el
ĠÑģÐ°Ð¼ Ð¾ÑģÑĤÐ¾ÑıÑĤÐµÐ»ÑĮ
ĠÐ¸ÑģÑĤ Ð¾ÑĢÐ¸Ð¸
ĠæĦ Ľ
ãĥĲ ãĤ¤
Ãªte ments
Ġprop ia
Ġh eraus
en ica
Ġrela ciones
ĠJ our
ãģ®æ µ
d ida
us se
ĠÐ£ Ñĩ
Ġde fen
ĠÂ ®
Ġch á»©ng
ci entes
ĠL icht
Ġm ouve
ne ak
Ġfar ma
Ġs osten
Ġ ÑĨÐ¸
ĠÑģÐ¾Ð¾ÑĤÐ²ÐµÑĤÑģÑĤÐ² Ð¸Ð¸
k w
ç« ¯
Ġfinan ci
ĠÐ¾Ð± Ð½Ð¾Ð²
Ð°Ð² Ð°ÑĤÑĮ
Ġnaj m
Ã¢ teau
Ġza pa
us ione
Ġmed ida
Ġ2017 å¹´
Ġè ±
Ġtro tz
6 5
Ġemplo y
Ð» Ð¾Ð¿
s us
Ð°Ð»ÑĮ Ð½ÑĥÑİ
Ł ãģĺ
ĠhÃ¤t te
9 æľĪ
ĠGÃ¤ ste
cu pa
ãģķ ãģ¾
ĠM eu
Ġdeux iÃ¨me
ĠM Ã¤n
iáº¿ c
ĠDies er
ĠÐ¼Ð¾Ð´ ÐµÐ»Ð¸
ĠÑĢÐ°Ð· Ð½ÑĭÑħ
Ġning Ãºn
ĠAb b
Ġeffet tu
ĠEuro pej
èĶ µ
ere mos
Ġe llas
ation en
Ġprodu zione
cyj na
ãĥ³ãĤ° ãĥ«
w z
Ã³g ica
ĠS ite
Ġpar fa
Ġgiorna ta
ina teur
Ġå¯ ¾
ãģķãģĽ ãĤĭ
ru re
ĠÅĵu vre
ĠÐ£ Ð´
ĠÑģÐ¾Ð¾ÑĤÐ²ÐµÑĤÑģÑĤÐ² ÑĥÑİÑī
ãģ§ ãģĤãĤĬ
Ġpo ids
Ġdire cciÃ³n
Ġlaque lle
ĠÑĥÑģÐ»Ð¾Ð² Ð¸Ñı
Ġav re
Ġle kar
odz ien
ĠMar ke
ĠFa hrze
ĠÑģÐ¾ÑģÑĤ Ð¾
Ġspe cj
lie gen
ill os
Ġre des
Ġin dy
ich en
pe ti
Ġin vi
vol u
ĠMich el
ĠB ois
g ner
ng th
dz enie
ÑĢÑĥ Ñĩ
ĠÑĤÐ¾Ð²Ð°ÑĢ Ð¾Ð²
ĠÐ¢ ÐµÐ»
ĠÐ½Ð°Ñĩ Ð°Ð»Ð°
Ġse lec
ĠM ob
ĠÃ©tu de
Ġh ist
Ġmin ut
ato r
ĠÐł Ð°Ð±Ð¾ÑĤ
ĠÑģÐ¼ Ð¾Ð¶
wend ung
ĠÐ° Ð»ÑĮ
Ġl áºŃp
ni ng
ĠÑĢÐµÐ·ÑĥÐ»ÑĮÑĤ Ð°ÑĤ
c 2
Ġwsz el
Ġde li
h Ã©
Ġvic ino
Ġw ei
pr ise
ĠV in
ĠkaÅ¼ dym
ĠÑĢÐ°Ð±Ð¾ÑĤ Ð°ÑĤÑĮ
Ġoffer te
ais se
Ġrecu per
zeich net
Ġcor po
ĠCz ÄĻ
ÐµÐ½ Ð½ÑĭÐ¼Ð¸
ĠE di
Ġt el
Ġpro cÃ©d
ĠãģĬ ãģĻãģĻãĤģ
Ã© qu
ãĥ¼ãĥ Ń
Ġkra ju
Ġapo yo
Ð¿ Ð¾Ð½
Ġob tener
Ġval uta
ĠD ownload
oup es
Ġnation ale
lie ÃŁ
Ġmat ri
ĠÐ¼Ð½Ð¾Ð³ Ð¸Ðµ
Ġsen so
å¾Į ãģ«
Ġcondi zioni
Ġs Ã¡ch
Ġz usÃ¤tz
Ġal ma
ar am
Ġu kÅĤad
Ġc ru
Ġ& &
w Äħ
Ð¾ÑĢ Ðµ
wend et
Ġas si
Ġwy nika
Ġeffica ce
Ã©b ec
ãģĳ ãĤĮ
ta gne
ä¸Ģ çķª
ãĥª ãĤ¹
Ġstra tÃ©
Ġrencont res
ĠÑĥÐ´ Ð¾Ð²
ĠÑģÐ¾Ð² ÑģÐµÐ¼
ÐµÑħ Ð½
b ourg
ĠÐ¾Ðº ÑĢÑĥÐ¶
Ġb le
8 7
ĠS ig
ĠAn al
Ġj Ã³venes
ÐĿ Ð«
Ð¸ÑĤÐµÐ»ÑĮ Ð½ÑĭÑħ
Ġstag ione
Ġnier uch
Ġin tent
ĠVerfÃ¼ gung
ÑģÑĤÑĢÑĥÐº ÑĨÐ¸Ñı
ĠÑĤ ÐºÐ°Ð½
Ġcie p
ĠÄĳ Æ°a
ãĤ·ãĥ§ ãĥĥãĥĹ
Ġri ght
Ġ200 5
ci en
ĠArtic le
æĪ »
g ru
ĠÐ¼ Ð¸ÑĢÐ¾Ð²
Ġop ie
M T
Ġu ch
Ġpra wo
ga ciÃ³n
Ġtrad ition
ĠÐķ ÑģÑĤÑĮ
Ġpas a
ĠI L
Ġcul tura
Ñĭ Ð´
Ġe dy
f urt
ĠHer r
Ġmo t
ĠÐ¿ÑĢÐ°ÐºÑĤ Ð¸ÑĩÐµÑģÐºÐ¸
ĠM am
zy ka
ÅĤ oÅĽÄĩ
Ġou ti
Ġzas ad
ĠãĥĽ ãĥ¯ãĤ¤ãĥĪ
Ġr Ã´le
Ġnu its
åĸ Ħ
ĠÐ¾ÑģÐ¾Ð± ÐµÐ½Ð½Ð¾
ĠCom une
p he
Ġcam ere
Ġa bi
Ġstan owi
è¢ ĭ
ĠKul tur
c endo
Ġassur ance
ĠQu Ã©bec
åĪĩ ãĤĬ
ouv el
ver a
ä¸Ģ ç·Ĵ
ĠãģĤ ãĤĭ
Ġd á»ħ
Ġtet onas
ĠL ÃŃ
ĠT R
Ġar rÃª
Ġche min
ri co
ãģĹãģ¦ãģĬ ãĤĬãģ¾ãģĻ
ãģ«ãģ¨ ãģ£ãģ¦
Ġdif ÃŃ
ĠÐĲÐ»ÐµÐºÑģÐ°Ð½Ð´ ÑĢ
ĠAus wahl
Ð¾Ð² Ð°Ð»Ð¸
Ġparti re
Ġcomun idad
Ġk lar
cyj nej
é¤ Ĭ
Ġod by
Ġou t
Ġcomple to
ĠM at
ĠÑĦÐµÐ²ÑĢ Ð°Ð»Ñı
ĠÐ¾Ð´ Ð½Ð°
ĠDe puis
qu ant
çĶ» åĥı
6 4
crip ciÃ³n
si g
Ġso ciale
Ġr oul
ĠÑĤÐ¸Ð¿ Ð°
Ġer ano
Ġ; )
Ġ6 9
Ġprodu ktÃ³w
ĠmÄĻ Å¼czy
en ir
çļ ®
} .
æĻĤ ä»£
I B
ĠL ib
ĠÐ²Ñĭ Ð´
cz or
Ġvá» ±c
ĠIhre m
all er
Ġdisfru tar
ãģĦãģŁ ãģłãģĳ
ven ciÃ³n
ãĥª ãĥ³ãĤ¯
¸ ı
c te
Ġra is
å© ¦
ar Ã¡n
ĠÃ©c ran
Ð² Ð°Ð»
ĠO sta
Ġne g
liw oÅĽci
ãĥ© ãĥĥãĤ¯
ãĤĤ ãģĤãĤĬãģ¾ãģĻ
ab y
s eite
ĠÃ©lÃ© ments
Ð°ÑĤ ÑĥÑĢÐ°
Ġman tener
ÑĨ Ð¾Ð²
Ð¾Ñĩ Ð½Ð¾Ð¹
es zy
ĠD ab
Ġg uerre
ff t
val u
Ġg war
Ġfuer te
ĠF le
h ein
ar en
ĠSp o
ĠRe d
ĠÐĳ ÑĢ
ãĤ» ãĥ³ãĤ¿ãĥ¼
ĠFe der
ĠÐºÐ¾Ð½ ÑĦ
ÐµÐ² Ð¾
ãģĮ å¤ļãģĦ
Ġwys tar
ĠÑĦ Ð¸ÑĢ
åĭķ çĶ»
ĠÑģ ÑĦ
Ġdi rei
it ze
ãģ¨ãģĦãģĨ ãģĵãģ¨
ĠLo cation
v estis
Ġpar le
re t
indow s
Ġex cl
ĠNue vo
ci encia
Ġpro che
Ð°Ð´ ÑĮ
et h
ĠÐºÐ°ÑĩÐµÑģÑĤÐ² Ð°
Ġconf ir
Ġwyb ra
ĠÐ¿ÑĢÐ°Ð² Ð¸Ð»ÑĮÐ½Ð¾
ma re
ĠÐ¼ ÐµÐ±
Ġy eux
Ð¿Ð¸Ñģ Ð°Ð½Ð¸Ðµ
ĠÐ²Ð· Ð°
ãģ® æĹ¥
ĠÑĩ ÑĤ
Ġç¤ ¾
ãģ¨ ãĤĵãģ©
re de
ĠÐ¼ Ð°Ð½
ĠÐ°Ð²Ð³ÑĥÑģÑĤ Ð°
S t
Ġbis her
ori es
ologi i
jÄħ cej
ĠÑĩ ÐµÑĤÑĭ
Ġs tre
Ġpar ler
Ġgratu ite
Ġprob lÃ¨mes
Ã¼t zen
Ġproble mi
est Ã£o
Ġv iáº¿t
Ġu t
ĠV enta
ĠÃº nica
Ðº Ð¸Ð½
pow iada
Ã¤r en
Ġprzed mio
ĠÐ°Ð²ÑĤÐ¾Ð¼ Ð°ÑĤÑĭ
Â ³
Ġt inh
ĠStar t
tto re
Ġal meno
Ġsamoch od
Ġcon sta
Ġm 2
1 l
Ġfor m
Ġsu chen
ĠDab ei
s weise
Ġcomment aires
ĠÐ² Ð°Ð»
Ġ\": [
ĠszczegÃ³ÅĤ owo
Ġse zon
ĠP C
Ġtrans port
Ġprincip ales
Ġval ore
bo ten
Ð¸Ð½ Ð°ÑĢ
Ġnh áºŃp
ĠÑı Ð²
ĠÐ²Ñĭ Ð·
Ġini zio
ra m
Ġthe y
Ã¼ ge
in te
wi z
Ġinter Ã©s
ĠInter na
ãĥĢ ãĤ¤
ord as
Ġvol ver
ĠMÃ¼n chen
Ð°Ñĩ Ð¸
ĠMÃ¶glich keit
éĽ ¨
ĠÑĢ ÐµÑĨÐµÐ¿
ĠÐĴ ÐµÐ´
ill on
Ġresul tado
Ðķ ÐĿÐĺ
Ġcomm une
ĠÑģÐºÐ°Ð· Ð°Ð»
3 2
ĠÃ© du
Ġdni u
Ġres ol
Ġus ÅĤugi
ĠSch utz
Ġdev rait
Ġpoli tica
ta ll
ĠA mi
Ã© is
Ġser ÃŃa
ĠVer sion
YW x
Ġbra k
Ġd iá»ĩn
Ġb lei
Ð¼ ÑĥÐ½
Z Z
Ġoccas ione
äº¤ æıĽ
towe go
ãĥ¼ãĥĩ ãĤ£
schei den
ĠÐ¿ÑĢÐµÐ´ ÑĥÑģ
ĠÐ¼ÐµÐ¶Ð´ ÑĥÐ½Ð°ÑĢÐ¾Ð´
Ġpre vis
l d
ĠçĦ¡ æĸĻ
ãģ£ãģ ±ãģĦ
Ġgar anti
5 æľĪ
Ġmo ts
ĠÐĳ ÐµÐ·
ĠÐ¿ÑĢ ÐµÑģÑĤ
tor Ã³w
do ba
Ġemp e
N z
Ġpop ular
ç Ĵ°å¢ĥ
Ġd iá»ħn
ĠÑģÐºÐ°Ð· Ð°ÑĤÑĮ
æ ¿Ģ
ĠÐĿ Ð°Ð´
Ġt ale
ĠPh ili
ti ce
ĠÑĥÑĤ Ð²ÐµÑĢÐ¶Ð´
Ġpor nos
Ġen car
me ister
qu Ã©e
Ġinf o
Ġhu ma
Ġä»¥ ä¸ĭ
æ°Ĺ æĮģãģ¡
ãĥĩ ãĥ¼ãĤ¿
ay a
ĠÐŁÑĢÐ¾Ñģ Ð¼Ð¾ÑĤÑĢÐ¾Ð²
ĠÐ½Ð°Ð¿ ÑĢÑı
ĠÐ´Ð¸Ð· Ð°Ð¹Ð½
å§ Ķ
ti quetas
mit t
Ġpomo cy
ĠFoll ando
Ġs ola
ĠA S
ĠÃ©tu des
ĠÐ¿ÑĢÐ¾ÑĨ ÐµÐ´
Ġv amos
Ġcab o
Ã¤ch st
Ġd r
ãģ¡ ãĤĩãģ£ãģ¨
© æŁ»
ĠK ur
itÃ¤ ten
Ġliv raison
Ġm au
Ġproje ktu
ĠÐ´Ð°Ð½ Ð½ÑĭÐµ
Ġkom unika
Ġso ggior
ĠçĽ ´
ĠÑįÐºÑģÐ¿ Ð»Ñĥ
Ġver kauf
onc Ã©
Ð¾Ð² Ð¾Ðµ
Ġæĺ ¨
ĠwiÄĻk sz
Ä© nh
bie ter
ÑģÑĤ Ð°
ĠÐ¿Ð¾Ñģ ÐµÑĤ
Ġhi jos
et ter
èĩ ´
ch os
æ¯ į
Ġn á»¯a
Ġdem Ã¡s
Ġpar ents
Ġpro v
ãģ®ãģ§ ãģĹãĤĩãģĨ
sch ule
ens ter
Ġgi us
Ġa ur
pa gn
Ñı ÐµÑĤ
ĠÐ¼ Ð¾Ð¹
ĠÐ²ÑĭÐ³ Ð¾Ð´
Ð° ÑĨÐ¸Ð¹
Ġcli enti
ãģ® ä¸Ĭ
I RE
ĠDer ni
Ġtrouv Ã©
setz ung
Ġforma zione
ï¼ °
ãĤ« ãĥ«
ĠV Äĥn
Ġn Ã¤
Ġsp ecta
Ð¾Ð· Ð¸ÑĤ
ÑıÑĤÑĮ ÑģÑı
Ġcele b
m ette
ĠM inh
Ð»ÐµÐ½ Ð½ÑĭÑħ
¹ æŀľ
it an
Ġbiso gno
ei ta
Ġk iá»ĩn
Ġun ico
ĠÐ½ Ð°Ð½
ãĥ© ãĤ¯
Ġbekann t
Ġorganis ation
Ġca usa
ar u
ĠÐ¶ Ð¸Ð»
ĠÐ¦ ÐµÐ½ÑĤÑĢ
ĠÐ²Ð¾Ð·Ð¼Ð¾Ð¶ Ð½Ð¾ÑģÑĤÐ¸
çľ ģ
ĠÐºÐ½Ð¸ Ð³Ð¸
ĠmÃ© de
Z S
odz Äħ
ä½ľ ãĤĬ
Ġtrabaj ar
ãģ¤ ãģĭ
Ã¶ bel
k osten
ctÃ© ris
am entos
ĠÐĳ Ð°ÑĢ
ĠÐľÐ¾ÑģÐº Ð¾Ð²
ÑģÑĤÑĢÑĥ ÐºÑĤ
Ġman ten
ĠTra vestis
anta lla
n Ã©e
Ġé ¢¨
Ġoport unidad
Ġjedy nie
ĠW ien
Ð°Ð½ ÑĮ
ĠDies es
Ġcommun ication
ĠCh ile
åħ¥ ãĤĬ
ï¿ £
ãĥ¶ æľĪ
ãģ« ãģĻãĤĭ
IN E
6 9
Ġre tra
Ġder en
ĠÐ¿ Ð°Ð»
es si
Ġï¼ Ķ
Ġãģķ ãĤīãģ«
ĠÐĳ Ð»Ð°Ð³
Ġc Åĵur
Ġm are
ĠÐ¾Ð± Ñģ
ri Ã³
èģ ´
ãĥĳ ãĥ¼ãĥĪ
Ġver w
ĠÑģÑĤ ÐµÐ¿
f Ã©
ĠÅĽ wiÄĻ
ĠS C
Ġar te
ãĤĴ åĩº
éĿ ©
sch lag
Ġmoy enne
c r
ĠÑģÐµÐ· Ð¾Ð½
Ġg Ã¢y
ak e
ĳ ç´Ħ
éł Ĩ
Ġbu on
3 7
ĠÑĤÑĢ ÐµÑħ
ĠdÃ©f ini
Ġr Ãª
ĠK rzy
tu je
ĠG ior
f iche
éĸĵ ãģ«
ĠPro gramm
ĠÐ² ÑĢ
Ð°ÑĤ Ð°ÑĢ
ĠÑĤÑĢ ÐµÐ½
tag s
de aux
Q U
Ġv ivre
osz ÄĻ
iÄĻ cia
Ġfor ce
Ġindi ca
ĠÐ» ÐµÑģ
Ġm inha
al te
ĠgehÃ¶r t
ĠÐ°Ðº Ðº
Ġb ras
ĠÐ¾ÑģÐ½Ð¾Ð² Ðµ
ĠBar dziej
Ġk siÄĻ
ĠdÃ© partement
Ġs atis
Ġrecon na
ĠÑįÐºÑģÐ¿ ÐµÑĢÑĤ
s os
ĠÐ¿ Ð¸ÑģÑĮ
Ġtro ppo
ãĥª ãĤ¨
ãĤĴèªŃ ãĤĢ
Ġcomp les
no vation
Ġng uyÃªn
Ð»ÐµÐ½ Ð½ÑĭÐµ
k m
Ġno vo
Ġproje k
ann t
Ġluo go
Ġl ou
ĠãĤ ²
Ð¸Ð» Ðµ
ACI ÃĵN
c ada
ÅĤe ÅĽ
Ġp ostÄĻp
Ġ( );
ĠE tat
ãĤŃ ãĥ¥
ãģĦ ãģ¯
ĠT etas
anti ago
Ġpes ar
Ġna to
Ġnation al
» çĻĤ
ĠÐĴ ÐµÐ»Ð¸Ðº
Ġal gum
Ġer folg
tig ung
ar ma
ĠW indows
our ce
fin den
ãĥ© ãĥ«
ĠNa pis
Ġob sz
ãģ®å ¿
èı ľ
Ġte x
Ġæľ Ŀ
Ġre te
Ġcomun icaciÃ³n
ÑĥÐ´ ÑĮ
ãģ®å £
ard ia
ĠÐ¾Ð± ÑģÐ»ÑĥÐ¶
or mais
Ġsp etta
ĠGrand es
Ġre almente
ĠÐ¿ÑĢÐ°Ð² Ð°
Ð°ÑĤ ÑĥÑĢÑĭ
ĠçµĲ å©ļ
ĠTr Ã¨s
Ġdirec tement
ãģĭ ãĤĤ
æĸ½ è¨Ń
Ġtor na
Ġm iá»ħn
Ðł Ñĳ
ĠÐ´ Ð¸Ñģ
m ande
ĠÑįÑĤ Ð°
d Ã©
Ġop Ã©ra
cul o
dz Äħ
Ġf amos
ĠnÃ¤ch sten
ãĤī ãģĹ
æ ĳ
Ġs Ä©
ãģ®å ·
Ġmein en
Ð°Ð¼ Ð¸Ð½
Ġsuiv ant
ĠrÃ©pond re
Ġdonn Ã©
ĠÐ¿ Ð¾Ð¿ÑĢ
Ġdeut lich
l Ã©e
ĠM ig
mon io
ciÄħ g
Ġï¼Ł ãĢį
Ġç Ĺ
l ungs
ĠÐ¡Ð¾Ð¾Ð±Ñī ÐµÐ½Ð¸Ðµ
Ò ĳ
Ð¾Ñħ ÑĢÐ°Ð½
Ġa socia
Ġsupp lÃ©ment
Ġau teur
Ġg amme
ter as
ĠS itz
ĠÐ·Ð°Ð¼ ÐµÑĤ
ĠÐ´Ð¾Ð» Ð»
Ġæ¥Ń åĭĻ
Ġæĸ ĩ
Ġproduct _
par er
Ġma cch
Ġu waÅ¼
ĠF rie
Ġline a
Ġt Æ°á»£ng
n ess
Ġæ ī
titu de
ĠH i
ne o
ĠÐ´Ð¸ Ð°Ð³
is tica
ll ung
Ð¾Ñĩ ÑĮ
Ġå¹ ħ
ct ures
uer ta
å¸ ³
éĸĭ åĤ¬
ĠPeli culas
Ġhabita ciones
Ġges tiÃ³n
Ġanci en
ĠGut schein
ĠW eiÃŁ
Ġan uncios
Ġhel fen
Ġdi ritto
ĠM AR
Ġcons id
Ð¸Ð¼ ÑĥÑīÐµÑģÑĤÐ²
Ð°Ð½ Ð½Ð¾Ð¹
Ñĥ ÐºÐ¾Ð²
Ð°Ð½ Ð°Ð²Ð»Ð¸Ð²
czy k
Ġent ren
Ġg Ã¼nstig
Ġqu est
ĠÐ¿Ð°ÑĢÑĤ Ð½
Ġemb ar
Ġdisp onibile
ĠÐ¤ ÑĢÐ°Ð½
O B
Ġnato miast
áº£ y
ĠFin anz
Ġmer credi
ãĥ¼ ãģĮ
ĠagrÃ© able
Ġsali r
ue lles
Ġcon cl
ol are
Ġt war
rze j
Ġz nak
Ġc olo
ĠrÃ©alis er
ru p
Ġtr ou
ĠÐ¿Ð¾Ð´ ÐºÐ»ÑİÑĩ
rze w
Ġï¼ ķ
æº Ĳ
ĠJahr es
Ñģ ÐµÐ´
az zo
AT O
mp o
Ġitali ana
Ġzmi eni
Ġindi ri
ĠFace book
Ġrec ord
ĠÐ¿ Ð¸ÑĪ
ĠÐ¼ÐµÑģÑı ÑĨÐµÐ²
ãĤ·ãĥ£ ãĥĦ
éļ ľ
ĠÐ² Ð¸Ð·
Ġb lis
Ġinterna cional
om it
Ġmeille ure
ara zione
ãĥ¼ ãĥ¼
» çĶ¨
Ġhab l
ãĤī ãģĭ
ĠVer kauf
ein ander
ĠZ wei
Ġava ient
Ð°Ð· Ð°ÑĤÑĮ
Ð³ Ð¾ÑĢÐ¾Ð´
ĠÐ¢ ÐµÐ¼
Ġopp ure
wid ual
Ġmi gliore
R p
Ġtr ady
ç¤¾ ä¼ļ
ĠN áº¿u
Ġèī ²
ãĤ¹ ãĥ¼ãĥĳ
ãģª ãĤĬ
Ġcali ente
ĠW al
fÃ¼hr er
Ġfor te
Ġre fer
ĠUS A
ÐµÐ½ ÑĨÐ¸Ð¸
ĠÑĥÑĢÐ¾Ð² ÐµÐ½ÑĮ
Ġju gar
ĠThe men
Ã ľ
ma ten
ĠÐŀÑĩ ÐµÐ½ÑĮ
Ġgen era
f ass
ĠÐļ Ð°Ð»
ĠÐ¾Ð¶ Ð¸Ð´
Ġspaz io
Ġtr an
ul os
ĠÐ¥ Ð¾ÑĤ
Ġ. "
Ġnad ie
graf ia
Ġfoll ar
Ġincl uy
X X
Ġme dy
Ġba Ã±o
Ġco che
b ution
ãģ¯ ãĤĬ
ķ æĻĤè¨Ī
æ¬² ãģĹãģĦ
ãĥ´ ãĤ£
ber to
ãģĦ ãģ«
ÃŃs tica
Ġor dre
Ġposi zione
Ġd oute
ter min
Ġcolla b
Ġf ina
Ġsuc cesso
Ġt ard
ĠÑĢÐµÐ·ÑĥÐ»ÑĮÑĤ Ð°ÑĤÐµ
Ġpor Ã³w
ĠM á»Ļt
Ġqual cosa
12 æľĪ
ç¸ Ħ
ç Ŀ
Ġcu id
ĠIB _
tor ial
Ġjp g
ĠFranÃ§ ois
Ġjeu di
Ġouver ture
Ġc io
Ġda gli
æ¨ ¡
Ġroz um
il Ãł
Ð¾Ð¹ ÑĤÐ¸
Ġsitu Ã©
owie m
ĠSe gur
Ġim Ã¡genes
Ġwh ich
Ġer z
Ġzdo by
Ð¾Ð²Ð°Ð½ Ð¸ÐµÐ¼
cid ent
Ġ' ).
ĠPAR A
ç ĩ
ĠH ar
å¯ Ł
z iert
ĠÑĤÑĭ Ñģ
Ġm uestra
Ð² Ðµ
Ð½ ÐµÑģ
ri g
ĠÐ° Ð·
Ġv illage
Ġw ej
las s
Ġdess ous
Ġpar ole
Ã¼ l
ĠÐŁ Ð¾ÑĤ
ĠÐ²ÑĤÐ¾ÑĢ Ð¾Ð¹
ĠR io
ĠGew inn
ĠÃ©v iter
ĠÐ¿ÑĢ ÐµÐ¶
Ġs endo
ord in
ĠIns titu
ãģ£ ãģıãĤĬ
Ġpres enza
ķı é¡Į
ĠAnton io
ĠB itte
b st
ĠcompÃ© ten
Ã³ gico
Ġle ngth
szy scy
Â ¾
Ġt iÃªn
al u
ĠIn d
ĠÐ± Ð¸Ð»
m ont
Ġpia ce
Ġdifer encia
Ġhabita ciÃ³n
ĠSal le
Ġes prit
Ġd ado
cch io
n as
Ġex ten
letz t
Ġco in
Ġvo y
tu al
ĠÑĥÐ» ÑĥÑĩÑĪ
ãģ«ãģĬ ãģĳãĤĭ
ĠAl so
ĠÐ» Ð¾Ð³
ĠTor ino
Ġpres encia
Ġin oltre
Ġcu ales
çĦ¡ ãģĦ
Ġçī¹ ãģ«
fe hl
we j
ĠB and
Ġrec or
na ges
Ġvo ix
Ð¾Ð² Ð°ÑĤÑĮÑģÑı
ĠÅĽrod owis
Ġb l
Ġmar iage
b ank
Ġcontra t
re ment
ĠprÃ³xi mo
Ġj ur
Ġzosta ÅĤy
den cia
g anis
ĠÑĩÑĥÐ² ÑģÑĤÐ²
ãģĤãĤĬãģĮ ãģ¨ãģĨ
ãģ£ãģ¦ ãģ¿
ĠÐ´Ð² Ðµ
ãĤĴ åıĹãģĳ
ĠT en
Ġdispos ition
ĠÐ¿ÐµÑĢ ÐµÐ¼
Ġpres enti
Ãªn cias
Ġv ec
ID AD
Ġc ra
ch odzi
Ġu bezpie
pond re
ti es
ĠÐ¢ ÑĥÑĢ
est as
Ġmeu ble
Ġf en
Ġch ung
f rage
Ġw under
Ġmay ores
Ġãĥ Ħ
ĠHau pt
Ġsprzeda Å¼y
it ure
ĠA vis
h 30
ĠW ita
Ġassocia tion
Ġap lika
åĲį çĦ¡ãģĹ
ãĤĪ ãģĦ
rei fen
Ġd ys
Ġnon e
ĠP aul
éģİ ãģİ
Ġda ÃŁ
k reis
Ġah ÃŃ
ĠBÃ¼r ger
Ãĩ ÃĥO
an Ã§as
M A
Ð¾Ñĩ Ð½ÑĭÑħ
Ġk iáº¿n
la i
ĠD ÃŃa
å® ĺ
ĠÑĤÐµÐ± Ñı
ĠI T
Ġsti le
tar Ã¡
ĠÑĤÐ°Ðº Ð¾Ð³Ð¾
Ġsam ym
ĠL yon
ĠÃĸ sterreich
Ġedu caciÃ³n
Ġproy ectos
ĠV en
Ġr ent
r Ã¡n
Ġin dex
Ġv as
fic ado
blo ck
Ġpro c
ĠEs pe
Ġpre o
ĠdziaÅĤ alnoÅĽci
t wa
ĠÑħÐ¾Ð·Ñı Ð¹
ĠÑĤÐ°Ðº Ð¸Ð¼
ich ter
ĠZ arz
Ġconstru cciÃ³n
ma i
Ġcontin ua
Ġroz m
Ġz iel
ver si
k owie
ĠprÃ¡c tica
Ġpro chain
Ġcu ir
ĠÐľ Ð¾Ð¶Ð½Ð¾
ĠÐ· Ð°Ð¹
ti ble
ad es
ĠÑĢ ÑĥÑĩ
Ġlet tre
Ġro m
Ġosta t
ĠÐ´ ÐµÑĢÐ¶
Ð¸Ñģ Ð¾Ðº
æľĢ é«ĺ
Ġche veux
ĠN ur
Ġrapp orto
Ġnghiá»ĩ m
Ġges am
ĠÐ¿ÑĢÐ¾Ð¼ ÑĭÑĪÐ»ÐµÐ½
Ġe cce
Ġ| --
Ã³w ki
s y
ĠÐ²Ñĭ ÑģÑĤÐ°Ð²
m ini
Ġe vid
Ġarri ve
Ð¸ ÑĨÐ¸
n owa
Ã® te
Ġmo teur
ãĥĳ ãĥ³
Ġble ibt
um es
ĠintÃ© rÃªt
olo gna
ãģª ãģ®ãģĭ
ĠÑĥÑĢÐ¾Ð² Ð½Ñı
® ®
Ġp az
ï½ ŀ
ãģĮ å¿ħè¦ģ
Ġf ru
Ġrecom mand
Ġchac un
Ġnie za
Ġatten tion
sch ul
ow ymi
ĠÐĹÐ´ ÐµÑģÑĮ
ĠÐ¿ÑĢÐ¾ ÑħÐ¾Ð´
Ġsen si
ues to
Ġconfi ance
st re
d ale
Ġch iáº¿n
ĠÐ±Ð»Ð¸ Ð·
ĠB lu
Ġt ag
Ġpre cedente
Ġb om
Ðľ Ðĺ
al az
ĠPor te
Ġspe ÅĤ
ĠâĢľ .
Ã³ ra
ĠM u
ĠÐ½ÐµÐ´ Ð²Ð¸Ð¶
ĠÐºÐ¾ÑĤÐ¾ÑĢ ÑĥÑİ
ni Äĩ
tr Ã¡s
Ġdiff icile
arbeit ung
Ġer war
Ġres to
ib lio
Ġper mis
Ð¾Ð·Ð¼Ð¾Ð¶ Ð½Ð¾
æĬ ķç¨¿
å¡Ĺ è£ħ
ãģŁãģı ãģķãĤĵ
ĠS c
Ġdiff er
ĠÐ² Ð¾Ðº
Ġh om
ãģ»ãģĨ ãģĮ
çª ģ
ĠD ir
de ut
hb W
Ġje Å¼eli
di gen
Ġper corso
gr ani
ĠÐ° Ð¼
ĠAu gen
ĠÐ¸Ð· Ð¾Ð±ÑĢÐ°Ð¶
Ġes as
Ġm eio
ie ment
Ġm ur
c ych
_ id
Ġmar di
Ãª tes
ĭ èŃ·
Ġè ģ
ãĥ¼ãĤ ±
f ie
ĠÃ¼ b
Ġrac col
ĠãĤ³ ãĥ¡ãĥ³ãĥĪ
ãģ®ä¸Ń ãģ§
ĠSal ud
Ġeuro pe
ĠÑģÐµÑĢÐ² Ð¸Ñģ
ĠStu d
ĠÐŀÑĤ Ð·ÑĭÐ²
ÐĲ ÐĹ
ĠÐ¿ Ð¸Ñī
Ġg or
è©ķ ä¾¡
Ð¸ÑĢÑĥ ÐµÑĤÑģÑı
Ġfi zy
ĠH inter
ĠC ub
Ġpri mi
ĠE u
Ã³ rio
Ġ15 0
wia jÄħ
Ġvier nes
Ġacer ca
ãģĬ ãģĻãģĻãĤģ
ãģ£ãģ¦ ãģĦ
Ġinner halb
ĠÐ´ Ð¶
Ġg auche
çĽ Ľ
ĠT P
Ġvá» ĩ
Ġdar f
Ġen vie
Ġ] .
es tiv
Ð¾ Ð¸
ÑĢÐ¾Ñģ Ð»
ĠÐ¾ÑĢ Ð¸Ð³Ð¸Ð½
ãĥī ãĥ©
ĠMode ll
ĠÐ½ ÑĢÐ°Ð²
Ġelekt ry
è¨ İ
ĠD re
N Y
Ġorgani za
ĠÑĢÐ°Ð¹ Ð¾Ð½Ðµ
Ġf ff
ãģļ ãģ«
k Ã¼n
Ġc olore
ãĥģãĤ§ ãĥĥãĤ¯
ãĤ¿ ãĥ³
and onn
Ġass ol
ĠTr as
ĠÐ¾ Ð²
Ġlu dzie
ÐµÐ² Ð¸Ð·
Ġand are
Ġman os
Ġb á»ı
Ġt Ã©r
ges amt
Ġk ennen
Ð°Ð½ Ð´Ð°
Ġlegg ere
ĠÑģ ÐµÐ»ÑĮ
Ġele ttr
ãģ®è© ±
Ġéĸ ĭ
Ġè¿ ĳ
Ġp ouv
Ġpo is
ow ano
ĠÐ¾Ð±ÑıÐ· Ð°ÑĤÐµÐ»ÑĮ
an nage
Ġjou er
ĠÑĥÑĩ ÐµÐ½
ĠB ianco
Ġãģ µ
ãĥĥ ãĥĳ
Ġdur Ã©e
ĠS co
Ġgay s
ÃŃ amos
Ġav uto
Ġofi cial
ĠfÃ¼ hren
Ġl Ã²ng
Ð»Ð¸ ÑĪ
Ġcompr endre
ĠÐºÐ°Ð¿ Ð¸ÑĤ
Ð¸Ð» ÐµÐ¹
Ġmejor ar
Ġus z
ĠÐ¼Ð½ Ð¾Ð¶
Ġlá» £i
Ġve h
Ġb ia
ÅĤa ty
wi enia
ĠK ap
va te
h ar
æĮ ¯
Ġdo ÅĽÄĩ
ĠÐµ Ð´
Ġfor se
è¬ Ľ
Ã¤ hlt
Ġsu ivre
ne lles
åıİ ç´į
Ġé §
éĢģ æĸĻçĦ¡æĸĻ
åĲ Ħ
ĠFran cis
:. :.
ĠC ab
Ġblei ben
ĠÐ´ÐµÐ½ ÐµÐ³
Ãĵ W
tycz na
Ġãĥĸ ãĥ«
è¬ Ŀ
ĠÑĦ ÑĢ
ĠÐºÐ¾Ð¼ Ð¼ÐµÐ½ÑĤÐ°ÑĢ
¡ ng
è¦ĭ ãģ¦
ĠÃ¡ rea
ĠM ie
ĠÐ¿Ð¾ÑģÑĤ ÑĢÐ¾
Ġprod ut
te llo
mF t
Ġtr wa
au to
ĠIn nen
ãģ¨ãģª ãĤĬãģ¾ãģĻ
3 1
Ġma gni
va ge
åº Ń
ĠÐ½Ð°Ð´ ÐµÐ¶
ĠÐľ Ð¸Ñħ
ĠÐ¡ ÑĤÐ¾
ÐµÐ´ ÐµÐ½Ð¸Ñı
ãĤ¿ ãĥ«
Ġesta d
ĠEx per
x is
Ġprze my
ãģĦãģŁ ãģĦ
ä¿Ŀ éĻº
Ð± Ðµ
ten u
Ġc Äĥn
ie g
ĠÑĤÑĢÐµÐ± Ð¾Ð²Ð°Ð½Ð¸Ñı
LL A
Ġa gen
ãĥĥ ãĤº
rei bung
op Ã¤
col es
Ġwy j
Ġter enie
Ġentre tien
Ġch anger
ãĤĵãģ§ ãģĦãĤĭ
Ġpra tica
Ġforma t
èĢħ ãģĮ
ĠÐ¿ ÑĭÑĤ
dz ÄĻ
Ġ8 5
Ġens eigne
Ġpe au
Ġcro is
at es
Ġm iÄĻ
ieni u
ĠL OS
ĠM undo
Ġproces sus
Ã¡ l
ess ione
g iej
Ġer fol
eu ille
Ġle cture
Ġno tte
ĠmÃ¶ chten
Ġh ors
ÐµÐ¹ Ð½
7 æľĪ
Ġb Ã©
Ġero ticos
Ġcambi ar
Ġcul o
vi ar
ĠR ab
ĠÑģ Ð¸Ð´
Ġk ur
cie j
ãĤ¤ ãĥĹ
Ã ¸
ĠÃ Į
Ġkh iáº¿n
Ġdis se
Ġè ĥ
ĠçĶ· æĢ§
æ³¨ æĦı
ance ment
Ð°Ñı ÑģÑĮ
f r
Ġm and
Ġgef unden
ĠÑį Ð¿
lla re
Ġforma ciÃ³n
Ġener gÃŃa
Ġco eur
ĠV ie
ĠR ady
ĠÐľ Ð¾Ð´
to ÅĽci
äºº ãĤĤ
ĠJ us
ĠÐĴÐ»Ð°Ð´Ð¸Ð¼ Ð¸ÑĢ
ÐºÐ¾ Ðµ
Ð¸Ð½Ð³ Ð°
ur re
Ġho a
ĠÑĤÐ¾ÑĢÐ³ Ð¾Ð²
owanie m
arbeit en
Ġpom i
Ġor y
ĠHam burg
Ġapp li
iss ions
Ġf rÃ©
ĠSo cial
Ġque da
ĠEinz el
ĠÐ¿Ð» Ð¾Ñħ
Â °
ĠÄĳ á»§
Ġpla ya
ĠPubblica to
Ġv uole
Ġwy ÅĤÄħ
ĠâĢ¦ âĢ¦
Ġ ä¼ļ
æ´» åĭķ
Ġb aja
Ġs od
ĠMar ia
ion ale
ĠÐ¾ Ñī
m ir
u ve
Ġsch a
ĠÐ° ÑĥÐ´
Ġpod rÃ³Å¼
un sch
z us
Ð°ÑĤÐ¾ÑĢ Ñĭ
Ã¡ri as
Ġin cor
Ġman que
Ð°ÑİÑī ÐµÐ¹
uy áº¿t
Ġouti ls
Ã¨ tre
Ġsa c
ÐĲ ÐĿ
ĠÐ¸Ð½ÑĦÐ¾ÑĢÐ¼ Ð°ÑĨÐ¸Ñı
ĠÐŁÐ¾Ð´ ÑĢÐ¾Ð±
ĠÐºÐ¾Ð½ÑĤ Ð°ÐºÑĤ
ĠZu kunft
Ġid Ã©es
ĠM uy
ĠS onn
Ã© ment
Ġtito lo
åħ ¸
x ito
ĠÐ²Ð¾Ñģ ÑģÑĤÐ°Ð½Ð¾Ð²
Ġab out
pp el
Ġsi ano
ister io
ube hÃ¶r
Ġbe kom
Ġhi jo
ĠBewert ung
re iche
ĠÃ©tablis sement
ĠÐ°Ð²ÑĤÐ¾Ð¼Ð¾Ð± Ð¸Ð»Ñı
æ¨ Ļ
Ġreci bir
Ñĭ Ñģ
ĠÐĿ Ð°Ð·
ĠÐļ ÑĥÑĢ
Ġama teur
ista d
Ġtu vo
Ġinforma Ã§Ãµes
cess ori
ĠPri ma
ĠÃ© di
ich tet
Ġhi ver
ĠÐ¡ Ð¾Ð±
ãĤ· ãĤ¢
ĠWei hna
ĠJ ob
ĠÑģÐ¾Ð± Ð¸ÑĢ
ll ten
Ġsch e
Ġen or
Ġub ic
Ġatra k
ĠZ ent
ĠÐ½ÐµÐ¼ Ð½Ð¾Ð³Ð¾
Ġin no
ĠApp ar
Ġb leu
ĠÐ´ ÑĢÑĥÐ·
Ñĥ ÐºÐ¸
Ġqu attro
o ir
ĠDÃ©c ouv
Ġmach ine
Ġc Ã©
ä¼ Ĭ
æĤ ©
Ġäº ¬
åħ ħ
Ð½ Ð¾Ðº
Ġte k
ãģ¨ ãģĻãĤĭ
ĠG old
ĠÂ ¨
Ġph im
ĠÑĢÐ°Ð¼ ÐºÐ°Ñħ
Ġn utzen
Ðł Ðħ
Ġdispon ibili
ĠA ktu
ÅĤ ym
Ġåı İ
ĠD ach
rÃ¤ ge
ge gen
p end
æĦı åĳ³
ĠB ur
ze ÅĦ
Ð° ÑīÐµ
ĠÄĳ a
Ġmuch a
Ġo ben
ĠÑģÐ¾Ð² Ð¼ÐµÑģÑĤ
Ġf at
ĠSe e
amer ic
ĠÐ¼Ð½Ð¾Ð³ Ð¸Ñħ
ĠS ar
ĠgÅĤÃ³w na
rÃ³ t
ĠI t
om ma
Ġgener ale
W x
Ġis to
ĠrÃ©f Ã©rence
Ġgar ant
Ġal b
Ġto ile
â Ī
åħ ļ
ĠHa ce
ÃŃ tica
Ġr ub
Ġmed idas
stra ÃŁe
ne ments
ĠÐ° ÑģÑģ
Ġamp lia
Ġbeste ht
ĠÄĳá» ©
èĭ ±
Ġsu p
ĠÑĥÑĩ ÐµÑĤ
ĠciÄħ gu
iv il
ÑĥÐ±Ð»Ð¸ ÐºÐ¾Ð²Ð°Ð½
ĠÑģÐ°Ð¼ Ð¾Ð¼
anti l
Ġindustr ia
ĠÐŁÐ¾Ñģ Ð»ÐµÐ´
Ġc idade
ĠÐ¡ Ð»ÐµÐ´
ĠÐ² Ð¾ÑģÑĤ
å¤ ®
Ġcabe za
ĠF euer
Ġma il
ĠPros titutas
Ġconten ido
Ġso ciaux
Ġlaiss er
Ġven ir
z Ã¡
CI ON
Ġcur so
çĻº è¡¨
ĠO fer
ĠBus car
lic ÃŃa
ĠS ans
Ġpr eno
ou x
Ġdro ite
Ð¾ÑĤ Ñĥ
N j
Ġn igdy
ĠP S
c tr
Ġum owy
Ġi P
tor en
Ġj as
olesc entes
Ġex tre
ĠA insi
ĠÐ³ Ð¸Ð¿
Ġpour su
ĠII I
ĠczÅĤ on
Ãª ng
ge w
Ð¶ ÐµÐ½Ð¸Ñı
Ġä¸ĸ çķĮ
Ġu tenti
tow anie
qu Ãªte
ÐĽ Ðĺ
Ñĳ Ð»
Ġe vent
ĠSte uer
Ġnau czy
Ã¼ ler
ĠÐ²ÐµÑĢ Ñħ
vis o
tow ania
ĠBo ok
Ġent fern
Ġo v
Ġprim eiro
Ã´ me
ter iores
Ð¸ÑĤÐµÐ»ÑĮ Ð½Ð¾Ð¹
la cji
Ġfaci lement
çļ Ĩ
ĠV illa
ĠÐ¾Ð±ÑıÐ· Ð°ÑĤÐµÐ»ÑĮÐ½Ð¾
Ġzapew nia
Ġâ ī
å¯¾ çŃĸ
ãĤ ħ
Ġï½ ¤
è« ĭ
g ry
ĠWohn ung
ĠÐ¿ÑĢÐ¸ Ð³Ð¾ÑĤÐ¾Ð²
Ġmode llo
E UR
Ġarri vÃ©e
ĠQu ando
Ġi hnen
ĠY ou
R O
Ġmet ros
Ġca us
Þ ¨
Ġc á»Ńa
ĠK iedy
Ġac ciÃ³n
od aw
Ġe ks
ĠÐ¿ÑĢ Ð¾Ð¶
Ġsi g
ãģ§ãģĻ ãģĭãĤī
ç«ĭ ãģ¡
Ġben Ã¶
Ġtow arzy
ĠNouve au
ĠrÃ©sul tat
re m
Ġc inÃ©
ĠCz as
Ġpremi ers
ĠÐ¿ÑĢ ÐµÐ¼
Ġcor ri
ĠWeb site
ĠTÃ©lÃ© charger
ap on
Ð¾Ðº Ð¾
Ġtá»« ng
Ġgru pos
ĠÄ ĩ
Ġti me
Ð°Ð½ Ðµ
Ġzak ÅĤad
¹ ¿
ä¸ ¦
ĠHÃ¶ he
Ġord ine
Ġsytua cji
ãģĻ ãģĶ
Ġv arie
ĸ ç¸Ħ
Ġæµ· å¤ĸ
id ung
ar za
Ġâ Ķ
è¨ ±
ĠÑģÑĩ Ð°ÑģÑĤ
w endi
Ġrela tion
ĠÐ¿ÑĢÐ¸Ð¾Ð±ÑĢ ÐµÑĤ
Ġucz ni
Ġes f
ĠGo ogle
w Ã¼r
Ġmil ieu
ĠÐ´Ð¾Ð² Ð¾Ð»ÑĮÐ½Ð¾
Ġpob laciÃ³n
Ġterm ine
ĠNh á»¯ng
Ġmar che
ni j
ĠS ach
ie gel
Ġpa go
res as
Ġv es
Ġh ub
ĠH el
ĠL ang
ĠB al
æīķ ãģĦ
ãģĹãģ¦ ãģıãģłãģķãģĦ
ĠÐ¿Ð¾Ð· Ð´
usz cz
Ġdur ant
ĠÑģÐ¼Ð¾Ð¶ ÐµÑĤÐµ
ĠD ruck
ĠÑģÐº Ð¾Ð»ÑĮÐºÐ¾
ak Ã³w
ri c
iss ons
ĠÐºÐ¾Ð¼Ð¿ÑĮÑİÑĤ ÐµÑĢ
Ġn is
ãģĳ ãģ°
ĠÐ½Ð°Ð± Ð»ÑİÐ´
te ca
ĠU p
ĠS ym
åĩº ä¼ļ
8 æľĪ
Ġt elÃ©fono
ĠLa uf
cour t
Ġpro cha
ĠãĤ¯ ãĥ©
Ġ. :
ĠÑģÐ¾ÑģÑĤÐ°Ð² Ð»ÑıÐµÑĤ
ĠÐº Ð¾ÑģÑĤ
Ġsu pport
Ġasso ci
ĠÐ¿ÑĢÐ¾Ð¸Ñģ ÑħÐ¾Ð´Ð¸ÑĤ
Ġjed nej
Ã¤ f
ãģŀ ãĤĮ
Ġsind a
Ġb Ã¡
Ġe mer
ĠS mart
Ġpow odu
ĠK reis
est re
ãģ ¬
Ġali ment
ĠÐŀÑģ Ð¾Ð±
ãĤı ãģªãģĦ
Ġ7 7
ar ch
ĠÐ¯ Ð½
ĠÑģ ÐºÐ¸Ð´
ãģªãĤī ãģªãģĦ
itÃ© e
Ð¾Ð¹Ð´ ÐµÑĤ
ĠLie be
tre ten
Ġcu ore
itu de
Ġnature l
ĠÐ² Ð¿ÐµÑĢ
ĠãĤµ ãĥŀ
éģ ł
Ġop ciones
Ġcontro llo
j mu
ĠOri gin
ĠL ES
Ġplu part
ĠNÃ¤ he
ĠÑĥ ÑĢ
ni o
è¨ ª
Ġsigui entes
ĠV ic
ĠCono cer
al noÅĽÄĩ
Ġof ertas
Ġlle v
Ġn owy
ĠC l
Ġnor mal
ĠÐ´ ÐµÑĪ
Ġries go
ĠÐ·Ð° Ñħ
p ia
ĠÐ°Ð²ÑĤÐ¾Ð¼Ð¾Ð± Ð¸Ð»ÑĮ
ĠA less
Ġes sen
Ġm Ã³w
Ġcr is
ãģ®æ İ
ĠKh Ã´ng
ĠÑģ Ñİ
ĠÐ¾ Ð½Ð¾
Ġdru gi
ĠãĤ·ãĥ£ ãĥįãĥ«
Ġtit le
æ³ Ĭ
Ã¡n dez
pe z
........ ........
or ar
di miento
Ġes erci
ig es
ĠÐ°Ð² ÑĤÐ¾
ĠÑģÐ°Ð¼ ÑĭÐ¹
ĠwzglÄĻ du
Ġest Ã©
ĠLe der
ĠEnt wicklung
OR E
Ġambi ente
Ã¹ a
ĠFre und
Ġpub lique
Ġragaz zi
Ġutili zzo
Ġsuper ior
ĠM Ã¼
zei tig
Ġlie gen
ĠÐĲ Ð·
Ġt as
ãģ¾ ãģ£ãģŁ
Ġconten u
lo t
utz t
Ġho je
Ġo cze
ĠÑĤÑĢÑĥ Ð´Ð°
Ð¾Ð¿ Ð¾Ð»
Ġbu ona
ce m
ĠæĹ ©
çĽ ¤
Ġpeti tes
èµ· ãģĵ
ll y
ma il
Ġob bli
Ġdispos izione
åı ¸
Ġing lÃ©s
ĠÐ½ ÐµÐ»ÑĮÐ·Ñı
Ġpo chi
Ġbezp oÅĽ
ĠÐĽ ÑĥÑĩÑĪ
ĠÐ¸ÑģÐ¿Ð¾Ð»ÑĮÐ· Ð¾Ð²Ð°Ð½Ð¸Ñı
ĠrÃ© gi
ĠÐ¿ÐµÑĢ ÐµÐº
æĲ º
ĠdÃ©s ormais
Ġrappres ent
éĩį è¦ģ
da ten
li cos
Ġauto matique
ĠS zy
Ġum o
Ġcoment ario
Ġmuer te
Ġpres que
Ð¸ÑĤ ÐµÑģÑĮ
Ġqu ad
Ġ- ,
ĠEs sen
ĠÐ¼ÐµÑģÑı ÑĨ
Ġlib ros
ĠÐ´Ð°Ð» ÐµÐµ
Ġro bo
Ġex ception
ĠM ac
ĠSe g
ĠM A
5 9
Ġcompr end
Ð½Ð°Ð· Ð½Ð°Ñĩ
rei b
Ġpowin ien
ĠPre mi
Ð¿ÑĢÐµÐ´ ÐµÐ»Ñı
ĠS Äħ
Ġéĺ ²
ĠAd idas
ie za
ĠH igh
ãģĹãģ¦ ãĤĭ
ãģ® ãģĵãģ¨
en zen
ĠÐ¼Ð¾Ð´ ÐµÐ»ÑĮ
Ð°Ð± Ð¾ÑĢ
ĠÑĨÐ²ÐµÑĤ Ð°
ĠSe gÃºn
Ã´ ne
ĠÐµ Ð¹
Ġatten zione
ĠÃ© po
Ñĩ Ð¸ÐºÐ°
Ġd wie
ĠLe hr
ĠÐ¡ Ð²ÐµÑĤ
Ð°Ð½ Ð³
k lus
fahr t
çĻº çĶŁ
Ġa men
fi ques
u tet
Ġp li
Ġog rom
Ġph ong
ĠCent rum
w ych
ĠÐ¿Ð¾ ÑģÐº
ĠCam p
ĠS neak
Ġat tes
is cono
ĠDa ta
Ġpierw sze
Ġch uyá»ĩn
ĠÐ° Ð¼ÐµÑĢÐ¸ÐºÐ°Ð½
Ġdzie cka
rz ym
çģ «
Ġimport antes
Ġje dem
Ñĩ Ð¸ÐºÐ¾Ð²
ĠT ar
we go
Ð¾Ð´ Ñĥ
ard ino
su ÅĦ
Ġpraw dzi
a a
Ġmater ial
ĠGes ellschaft
Ġassur er
ĠS et
gen ommen
Ġh iá»ĥu
Ġedu ca
Ġ iss
ĠÐĽ ÐµÐ½
ver saire
ãĤĴ åıĹ
Ðº ÐµÑĤ
Ġrichi esta
Ġznale ÅºÄĩ
Ġbo ok
ei er
ĠÐ·Ð°ÑĤ ÐµÐ¼
ÃŃ lia
Ġpres tamos
Ġde por
ĠEro ticos
Ġcar rera
Ġw elt
je un
Ġimp i
AN O
l mente
ÅĽ rod
ĠrÃ© c
ĠÑįÐº ÑĢÐ°Ð½
Ġac onte
m ut
Ġzgod nie
Ġgan ze
L e
Ġin stru
ĠÑĥ Ð¿ÑĢ
ĠÑģÐ¿Ð¾ÑĢÑĤ Ð¸Ð²
ĠÐ¾Ð± Ð»
Ġz byt
to ires
mes so
wach sen
ĠãĥĿ ãĤ¤ãĥ³ãĥĪ
ç¹ Ķ
Ġeinz el
Ġmob ile
s s
ÑĤÐ¸Ðº ÑĥÐ»
ĠÐº Ð¾ÑĪ
ĠÑĥ ÑħÐ¾Ð´
Ġsk Ã³ry
Ġd ol
Ġpropri Ã©tÃ©
ĠB is
ĠÐ²Ð»Ð°ÑģÑĤ Ð¸
Ġa te
ĠComment aires
Ġam Ã©
ĠA D
t Ã³n
ĠPr in
ĠÐ¿ÑĢÐ°Ð² Ð¸Ð»ÑĮ
Ġ7 6
iv es
Þª Þ
ĠNh Ãł
Ġconc re
lo go
Ġmin er
ĠV enezuela
ad er
ĠmÃª mes
ĠÃ ļ
Ġcar go
Ġpo ÅĤÄħ
æ¸ ¯
ĠG on
ĠCh ina
ĠH aute
Ġfil s
ĠÐºÐ°Ð¶Ð´ Ð¾Ð³Ð¾
ÐĲ Ðŀ
ĠÑĢ ÐµÑģÑĤ
Ġb ianco
v olo
om oÅĽÄĩ
ãĥ¯ ãĥ¼ãĤ¯
tag on
Ġp uoi
Ġe vento
c ode
ĠÑģÐ°Ð¼ ÑĭÐµ
Ġin nymi
Ġgu ten
ãĤª ãĥª
ba hn
ĠÐ¾Ð± ÑĢÐ°Ð±Ð¾ÑĤ
ĠÐĵ Ð¾ÑĢ
ĠMa ÃŁ
ent lichen
ÑĪ ÐµÐ¹
qu ista
h 00
ĠÑĥÐ·Ð½ Ð°ÑĤÑĮ
ĠA by
ĠgiÃ¡ o
tar se
Ġsui vi
ĠÐ»ÐµÑĩ ÐµÐ½Ð¸Ñı
ĠdÃ©cis ion
ÐµÐ½ÑĮ ÑĪÐµ
Ġh eiÃŁ
z ca
Ġall ora
Ġob ras
ter y
ĠTele fon
alis i
Ġstamp a
Ġtritur adora
Ġse an
Ġme zzo
Ġprof ission
ĠC ro
ĠS onnen
ãĥ³ãĤ «
ring t
ĠÐ·Ð°ÐºÐ¾Ð½ Ð¾Ð´Ð°ÑĤÐµÐ»ÑĮ
Ã¢ te
ĠUn sere
ia Ã§Ã£o
er zy
ĠTh is
ere ch
Ġpermet tre
ĠB our
ĠZ o
ĠÑĨÐ¸ ÑĦ
ĠÑģ Ð½Ð¸Ð¼
Ġri vol
Ġcin q
ei ras
Ġsyste mu
Ġpeque Ã±o
ĠÐŃÑĤ Ð¾ÑĤ
Ġãģ¾ ãģł
Ġwe ek
Ġsema ines
ÃŃ os
ĠMilli onen
Ġra zie
Ġãģ¡ ãĤĩãģ£ãģ¨
ãģ®è ĩª
Ġpossi bilitÃ©
Ġlu ce
Ġpo tem
ĠAf rique
or itÃ©
Ġcommer ce
ĠÐĴÐ¸Ð´ Ðµ
Ð¸Ðº Ð°ÑĨÐ¸Ð¸
ita ire
ĠÐºÐ¾ÑĢ ÑĢ
Ġg re
Ġf rance
ĠÐ¾Ð±Ð½ Ð°ÑĢÑĥÐ¶
¥ ½
Ġpel ÃŃculas
Â «
Ġmá» Ĺi
ĠÃ© xito
ato ire
8 3
Ġpag inas
Ġco le
Ġal rede
bar en
ĠÐĸ ÐµÐ½
ĠÐĶ Ð¸
Ġderni Ã¨res
Ġfour ni
Ġå »
ĠÐ¿ÑĢ Ð¸ÑģÑĤ
Ð¸Ð´ ÐµÑĤ
ĠO g
rit ten
ĠÐ½Ð° ÑĨÐ¸Ð¾Ð½
Ġdeut schen
vi mento
M S
Ġpra wie
åĮ ħ
Ġtr uyá»ģn
Ġvor h
ĠK or
ãĤ¨ ãĥĥãĥĪ
ãģ®æĸ¹ ãģĮ
Ġag ora
Ġpo twier
ãģ®åĲ į
Ġadul tos
Ã¡b ado
Ñĭ Ð¿
x es
Ġazien de
Ġcon to
k or
ĠV ill
Ġpres se
ĠS U
Ġcomp let
ĠÐĿ ÐµÑĤ
Ġsta te
Ġdist ribu
ĠG as
ĠÐ¿ÑĢ ÐµÑģÑģ
çļĦ ãģ«ãģ¯
Ġnego cio
ĠÐŁ ÑĥÑĤ
Ġty s
sze ch
tr odu
ĠÐ² Ð¸Ð½
ĠÐºÐ¾Ð½Ñģ ÑĥÐ»ÑĮÑĤ
Ġpla te
Ð¾Ð² ÑĭÐ¼
i miento
e e
ĠEs paÃ±
Ġlogi ciel
Ġreci b
ÐµÐ¼ Ð°ÑĤ
Ġav al
æĿ± äº¬
Ġå¸ Ĥ
H Ã´tel
ĠGra tu
ĠÐºÐ»Ð¸ ÐµÐ½ÑĤ
ĠÅļ wiÄĻ
ow od
Ġles en
va in
ĠÐ² Ð¸ÑĤ
ĠÐļ Ð¾Ð½ÑĤ
Ġvo i
Ð°Ð» ÑĥÐ¹
Ġå ĵģ
... ]
ĠÃ©val u
ãģ¯ ãģĵãģ¡ãĤī
Ġå® ļ
ĠStra ÃŁe
Ġnos so
ãģĬ é¡ĺãģĦ
Ġou b
è¼ ª
Ġca tegor
Ġrespons able
ĠH D
Ġma j
ÐºÑĢ ÐµÑĤ
Ġç· ¨
ĠA V
Ġæĸ Ļ
ti me
ic ul
ãĥŀ ãĥĥãĥĪ
na j
ĠÐ´Ð¾Ð»Ð¶ Ð½Ð¾
Ġulti mi
Ġåº ĥ
ĠåĲ Ħ
Ġter rasse
ĠCh ine
pr Ã¤
Ġpra kty
Ġde pois
Ġ2018 å¹´
æ³¨ æĸĩ
ãĥ¼ ãĤĴ
Ġac ciones
ĠW est
gl ise
k owego
ac to
Ġk orzyst
Ġ ãģĭãĤī
a ben
Ġchange ment
ĠÐº Ð°Ñģ
ĠÄĳ Äĥng
ĠE ing
ko ÅĤa
ãģı ãģ¨
ura ta
ĠB oden
Ġodpowie dzial
Ġod b
Ġcorres pon
ĠvÃŃ de
ĠP OR
Ġtecn ologÃŃa
ĠPe dro
Ġten ido
ĠÐ±ÐµÑĢ ÐµÐ¼
Ð°Ð¼ ÐµÑĤÑĢ
ĠÑģ Ð¾ÑĢ
Ġkli entÃ³w
Ľ ¸
ir t
ĠL uft
ĠÐ¡Ð¿ Ð°ÑģÐ¸Ð±Ð¾
Ġoffer ta
Ġno te
ĠÐ¿ÑĢÑıÐ¼ Ð¾
n arod
Ġhá» ıi
Ġlo gement
Ġdire ctor
Ġèµ ¤
ĠdÃ© li
ï¼ĳ ï¼Ĳ
ãĥķãĤ© ãĥ³
Ġencu entro
ĠÐ¿Ð¾ÑĤ ÐµÑĢ
owo hl
Ġ uro
Ġal o
4 9
Ġrich ie
in et
ĠÐŁÑĢ Ð¸Ð¼
Ð¢ ÐĲ
ĠÐ·Ð°Ð² ÐµÑĢÑĪ
Ġ{ "
ãĥª ãĤ¹ãĥĪ
ĠJ ac
era it
Ġre gi
Ġcáº£ nh
st an
i my
owa li
Ġce lles
Ġt ierra
Ð¸Ñħ ÑģÑı
b W
F F
Ġsucc Ã¨s
ĠprÃ© sence
æ´ ¥
ãĥ³ãĥĨ ãĤ£
Ġprze kon
Ġsc rit
ãģ®æ Ĭ
Ġpos e
Ġan ty
ast ÄĻp
Ġm Ã¨re
Ġil lus
Ġza hl
ĠÐ¾Ð¿ ÐµÑĢÐ°
Ġmod Ã¨les
ĠÐ¿Ð¾ ÑĪ
ĠÐ² ÐµÐ»
è¨ º
Ġprincip io
ĠÐļ ÑĥÑĢÑģ
ĠÐ¾ÑĤ Ð¿
Ġou tras
Ġk wo
Ġk wia
Ġcambi os
ĠRÃ© pondre
ĠÃ©le ctr
re f
ĠÐ·Ð°Ð¿ ÑĢÐ¾Ñģ
ãĤ¹ãĤ¿ ãĥĥãĥķ
Ġ) )
ĠÐ°Ð½ Ð°Ð»Ð¾Ð³
ĠÑĥÐ´ Ð¸Ð²
ĠN A
Ġswoje go
Ġacquis to
Ġprimer os
Ġop ti
Ġp ur
ãĤ« ãĥ©ãĥ¼
Ġbut ton
éĿ Ĵ
ĠÐĳ ÐµÑģ
Ġmoy ens
Ġfor za
èĢĥ ãģĪãĤĭ
Ġf Ã©
ĠP on
ĠAnt wort
Ġn etto
Ġfuer za
ei gnet
Ġcol lection
Ġindy widual
ãĤ° ãĥ«
ĠT isch
Ã¤ mp
ĠÐ³ ÑĥÐ±
ĠÐ¦ Ð²ÐµÑĤ
ĠÑĥÐºÑĢÐ° Ð¸Ð½
Ãºsque da
Ġ ost
ĠW h
ãģķãĤĵ ãģ¯
ĠÐ½Ð°ÑĪ ÐµÐ³Ð¾
na to
n ant
ĠÐ²Ð·Ð° Ð¸Ð¼
Ġçµ Į
Ġd Ãłi
Ġpoli tiques
éŃ ħ
ita re
Ġparticu liÃ¨rement
ĠPri mer
ĠHer steller
Ġmeine m
ĠÑĦÑĥÐ½Ðº ÑĨÐ¸Ð¾Ð½
ĠI S
Ã¼s sel
si to
Ġimp orte
ĠGe bur
Ġver t
ĠÐĿ ÐĲ
ĠÐº Ð½Ð¾Ð¿
ĠÐº Ð°Ð»
zy j
hau pt
Ãª che
ĠspÃ© cial
ãģ¤ ãģ®
k owej
Ġdi o
ĠK ran
Ġme ta
Ġre mar
Ġtakie go
ĠÐ² ÐµÐ»Ð¸Ðº
geb ung
âĺ Ĩ
Ġpas sion
Ġp Ã¨re
ä¿Ŀ è¨¼
g he
Ġlokali zacji
ĠãĤĪ ãĤĬ
Ġ owo
ites se
Ġconj unto
Ġcl ase
N D
Ġb rz
ĠD y
ĠÐ¿Ð¾Ð¼Ð¾Ñī ÑĮ
Ġbe wer
Ð¸Ð³ Ð¸
Ð°Ð¶ ÐµÑĤÑģÑı
Ġabs ol
Ġpos sa
ĠÐºÐ¾Ð¼ Ð¸ÑģÑģ
ĠÐ² Ð°Ðº
çĽ Ĭ
ow nie
il en
Ġsitu azione
E U
Ġfait es
Ð¸ÑĤÐµÐ»ÑĮ Ð½Ð¾Ð³Ð¾
ĠÑĤÑĢÐ°Ð½ Ñģ
Ġp ierre
ĠÐ¼Ð°ÑĤÐµÑĢÐ¸Ð°Ð» Ð¾Ð²
ĠÐ²Ð· Ð³
ĠÐ¡ ÐµÐ¹ÑĩÐ°Ñģ
Ġa tiv
z um
Ġapro ve
Ġpre ve
ãĥĥãĥĶ ãĥ³ãĤ°
Ġedi ciÃ³n
le y
ãĤ¹ ãĤ¹ãĥ¡
é į
ÐµÑĤ ÑĢÐ¾Ð²
Ġutilis Ã©
ãģ¾ ãģĦ
Ġbus cando
11 æľĪ
Ġop ciÃ³n
ĠÂ µ
Ġch Ã¢n
å° Ħ
N v
an Ã³w
Ġy e
Ġop Ã©ration
å¤ī æĽ´
äº ī
ĠÑĦ ÑĥÑĤÐ±Ð¾Ð»
ĠÐ¿ ÐµÐ´
ĠÐ¼ Ð¾ÑģÐº
Ġcomp et
Ġ[ ...]
ĠN ouvelle
ĠPag inas
ĠÑĢÑĭ Ð±
I P
Ġbuen as
ĠÐł Ð¾ÑģÑĤ
Ġtr á»±c
Ġel es
Ġobie ktu
ĠWy da
Ġop inie
Ġsz p
Ġactu ali
Ġcre a
in ar
ÐµÐ² ÑĭÑħ
ĠRe cht
u jÄĻ
ami ng
Ġsc Ã¨ne
zahl ung
ĠNe ue
» ¿
ĠÐľ ÐµÐ´
ĠÐ²Ñĭ Ð¸Ð³ÑĢ
Ġg Ã³r
Ġver wendet
Ġscon to
Ġper chÃ¨
ab il
mer ic
Ġpeque Ã±a
Ġgl ob
cie ux
Ġac tions
Ġt Ãªn
Ñģ Ð¾Ð»
ĠM es
Ġdos sier
s on
ãĥŀ ãĥ³
Ġmes ures
Ġåģ ½çī©
æķ µ
ĠgÃ©nÃ©ra le
å± ¤
ĠPr Ã¤
Ġderni ers
ĠVo ll
at ung
ĠFamil ien
ob ec
Ð½Ð¾ÑģÑĤ ÑĢÐ°Ð½
ĠF i
ĠÐ¿Ð¾Ðº ÑĢÑĭÑĤ
ĠÐ³Ð¾Ð²Ð¾ÑĢ Ð¸ÑĤ
ãĤĴæĦ Łãģĺ
ãģ«å¯¾ ãģĹãģ¦
ĠÐ²Ð¾Ð·Ð´ ÐµÐ¹ÑģÑĤÐ²
ÐµÐ· Ð´Ð°
pi ti
Ġest rate
ä¿ º
Ġçľ Ł
ĠMig uel
ĠMej ores
ĠÐ¿ÐµÑĢÐµ ÑħÐ¾Ð´
ĠÐºÐ¾Ð¼ ÑĦÐ¾ÑĢÑĤ
ta das
ĠS elon
ĠÐ¿ ÐµÐ½Ñģ
ĠÐ» Ð¸ÑĤÐµÑĢ
fi ci
ĠãĤ¨ ãĤ¢
Y S
4 8
ĠzwiÄħz ku
Ġpl ante
Ġsch ein
Ñİ Ñģ
æ² ¹
ĠÄĳá»Ļ i
Ġmen or
Ã¤ llt
h ei
Ð¸ÑĩÐµÑģÐº ÑĥÑİ
ĠMa terial
Ġpomo cÄħ
ĠK Ã¼n
ĠIn sta
Ã¨ ve
na le
Ġde dica
de ck
tÃ© ra
Ġco per
Ð¸ÑĤÐµÐ»ÑĮ Ð½Ð¾ÑģÑĤÑĮ
ãĤ¸ ãĥįãĤ¹
ĠÐ°Ð½Ð³ Ð»Ð¸Ð¹
Ġhotel s
r ons
dzia ÅĤu
ĠD ort
ĠBa um
Ġverschieden e
zza ti
éģ¸ æĬŀ
ĠcompaÃ± ÃŃa
ĠdÃ© mo
ĠÃ©lÃ¨ ves
ĠvÃ©ri table
ĠÐ¿Ð¾Ð´ Ð¿Ð¸Ñģ
Ġrodza ju
Ġcar ta
çµĤ ãĤı
Ġfilm s
Ġmani f
ni c
ĠÐ½Ð¾Ð² Ð¾Ð³Ð¾
ãĤ¹ ãĤŃ
Ġh Ã¤uf
ĠÑģÐµÑĢ Ð¸
Ġk Ã½
ĠÐĴÑĭ Ñģ
ĠÑĥ ÐºÑĢ
Ġpa cj
les e
ĠÐ¿Ð° ÑĨÐ¸
ãģ§ãģĻ ãģĹ
ãģ£ ãģ¡ãĤĥ
Ġï¼ ľ
åł Ĥ
åį ³
ãĤĴ å®Ł
Ġk lu
ĠÐ¾Ð±ÑĢÐ°Ð· Ð¾Ð²Ð°ÑĤÐµÐ»ÑĮ
ãĥ³ãĥ ĵ
Ġh ref
ĠE cco
je k
Ġappar tamento
Ġç© º
Ġmat ch
i ÅĤ
Â ¢
Ġqu áº£n
Ġimmag ini
åı¯èĥ½ æĢ§
Ġexp li
Ġpyt anie
Ġde vis
rie ure
k Ã³ÅĤ
ĠÐ½Ð°ÑĪ Ð¸Ñħ
ost ante
ĠÑģÐµÑĢ Ð¸Ð¸
ĠÐ¡ÑĤ ÑĢÐ°Ð½
Ġpos te
Ġj ul
Ð¸Ð· Ð¼Ð°
ĠÐ¤ Ð¾ÑĤÐ¾
ĠÄĲ áº¡i
Ãºt bol
li d
ĠlÃŃ der
ig t
le ts
ĠÐľ Ð°Ð³
ĠÐ·Ð½Ð°Ñĩ Ð¸ÑĤ
ir ie
Ġumo Å¼li
ĠÐ¿ÑĢÐ¾ÐµÐºÑĤ Ð°
ĠÐ¾ÑĤÐ¼ ÐµÑĩ
Ġt iss
Ġch ance
ĠT ec
ĠA si
po co
ha ft
ĠAn ne
ven u
Ð¾Ðº Ð¾Ð¹
Ġel Ã©ctri
ĠTa ges
Ġv ig
Ġnowo czes
Ð½Ð¸Ðº Ð°Ð¼Ð¸
Äħd Åº
Ġs ome
c cion
Ġtrav estis
Ġen v
vo ca
wi ce
Ġstan owis
Ġkh ai
ĠA unque
ĠÑĤ Ð°Ð½
cor r
ĠÐºÐ°ÑĩÐµÑģÑĤÐ² Ð¾
Ġprywa t
å¼ ģ
Ġsu d
Ġaus ges
ĠAn fang
ĠG da
ÄĻ dz
Ġæ¥½ å¤©
åĽ °
Ġm á»¥c
sch t
Ġpro cesso
ĠÐ¿Ð¾Ð½ ÑĢÐ°Ð²
Ġprz er
Ġä»£ å¼ķ
æĽ¿ ãģĪ
åĽ Ľ
vol uciÃ³n
Ġi tem
ĠÐ¿ÑĢÐ¾Ð²ÐµÐ´ ÐµÐ½Ð¸Ñı
å¹ ¸
et ten
ĠÐ¾Ð¿ÑĤ Ð¸Ð¼
ty ki
Ð¸ÑĤ ÑĥÑĤ
Ġ20 00
b ao
ĠEdu caciÃ³n
Ñĭ ÑģÐº
ti ma
w Ã¤r
Ĭ ¶
Ġs ang
Ġste llt
Ġle quel
Ġj az
ÐµÐ½ Ð½
V s
ĠÐĴ Ð¸Ðº
ÄĻ b
çĭ ¬
A J
Ġc ita
ĠEs per
Ġall ÃŃ
Ġprac ÄĻ
Ġk an
nel s
ĠEl tern
Ġh alten
Ġco Ã»
ĠWszyst kie
ãĥĥ ãĤ¸
czenie m
Ð¾ÑĢ ÑĥÐ¶
Ġpo ÅĤoÅ¼
Ð¸Ñĩ Ð½Ð¾
ĠÐ·Ð°Ñī Ð¸ÑĤ
Ġcre are
ĠKomment are
ĠÐºÐ¾Ð¶ Ð¸
ĠÐ¾Ð´ Ð½Ð°ÐºÐ¾
fÃ¼ hl
Ġmod erne
ĠVo cÃª
r Ã³n
åĿ ĩ
æķ £
ĠÐ±Ð»Ð°Ð³ Ð¾Ð´Ð°ÑĢÑı
ĠÐ¿Ð¾ÑģÐº Ð¾Ð»ÑĮÐºÑĥ
la re
ĠÂ ¢
Ġs Ã¡t
ĠÑĦ Ð°ÐºÑĤÐ¾ÑĢ
Ġgra ph
Ġend roit
Ġe venti
Ġte mas
Ġh ina
ĠÐłÑ ķ
Ġme xic
Ġer an
ĠÑħÑĥÐ´ Ð¾Ð¶
å¸ ĮæľĽ
Ġapres ent
ĠN au
ĠåŃĲ ä¾Ľ
ĠÐ¸Ð¼ ÑĥÑīÐµÑģÑĤÐ²
Ġanal yse
Ġsa it
Ġf Ã¼nf
ĠdÃ© termin
ĠåĮĹ æµ·éģĵ
éģ¸ æīĭ
ĠAn dre
tico li
Ġspo tka
ari co
ĠÐ·Ð°Ð²Ð¸Ñģ Ð¸ÑĤ
Ġperi od
ĠÐ² ÑĢÐµÐ´
Ġb Ã©bÃ©
Ġanima ux
ĠT ener
ĠÅĽ mier
gles ia
ĠPoli zei
ĠNe lla
iss Ã£o
Ã¡ tico
lic ante
ĠFrancis co
Ġver siÃ³n
Ð°ÑĢÑĤ ÑĦ
Ġsex ual
Ġor o
æ¤ľ ç´¢
Ġzei gen
Ġfour nisse
Ġc odzien
Ðŀ ÐĿ
ãģ®ãģ§ ãģ¯ãģªãģĦ
ĠTa gen
ĠÑĢÐ°Ñģ ÑĪÐ¸ÑĢ
ï¿ ¥
ĠÐ¼Ð°ÑģÑĤ ÐµÑĢ
ĠÑĢÐµÐ³ ÑĥÐ»Ð¸
ª ¨
Ġdise Ã±
ĠÐ¢ÐµÐ¿ ÐµÑĢÑĮ
it ten
ĠbÃ¢ ti
en Ã§a
bli Å¼
ma ti
an ka
Ġr ower
Ð½Ð¾ ÑĪ
Ġang iel
ĠÑĦ Ð»
§ ĭ
Ġw ho
¯ u
Ġwo llte
Ġer hÃ¤lt
Ġsou ff
ĠArtic olo
ga ti
ÃŃ veis
Ġkonie c
Ġchi co
Ġam bos
Ġbe vor
Ġa Ã±ad
Ġsab e
ĠÐ¾Ð´ Ð½Ð¸Ð¼
te ments
ĠÐ½ÐµÑģÐº Ð¾Ð»ÑĮ
li Äĩ
ĠR ue
ĠP u
Ġaug ment
Ġfa j
K S
ĠkoÅĦ ca
Ġcá»© u
or as
ĠÑĢÑıÐ´ Ð¾Ð¼
Ġrappres enta
ĠÃī tats
Ġpop ra
Ġâĸ ¼
çĲĨ çĶ±
ĠpÃºb lica
åĲ Ľ
Ġåĭ ķ
ĠÐ¾Ðº Ð¾Ð½Ñĩ
Ġpi ÅĤ
ĠNaj lep
ĠPio tr
Ġsz t
Ġsk rzy
wi enie
Ġfor o
ac ciÃ³n
ĠW Ã¼r
ĠPla y
bo t
Ġsol u
Ġsex y
ĠInterna cional
ĠPoli tik
ÑĢÐµÐ¼ Ñı
Ġãĥ ¤
ĠPf lege
ĠDam it
ĠWy sÅĤ
Ġ osz
ĠÐ´Ð¾ÐºÑĥÐ¼ ÐµÐ½ÑĤÐ¾Ð²
ãĥĽ ãĥ¼ãĥł
Ġlog rar
ĠæĻĤ éĸĵ
ĠDeut sch
Ã¼ hren
Ġescl usi
ces z
enta i
Ġestudi antes
ĠÑĤÑĢ ÐµÑĤÑĮ
Ġse de
áº¿ p
ĠextÃ© rieur
Ġf anno
se e
Ð°Ð½ Ð¸
Ġdar Ã¼ber
Ġpra tiques
Ġre qu
ãģĽ ãģ¦
ĠÐ½Ð°ÑģÑĤ ÑĢÐ¾
Ġmiejs c
ãģĵ ãģĵ
Ġfor mu
Ġdi mos
ĠG Ã©n
onn er
Ġå¿ ħ
ĠE d
Ġso ient
ĠÐ²Ð· ÑĢÐ¾ÑģÐ»
Ð¾Ð´ ÐµÐ¹ÑģÑĤÐ²
ãģĤ ãģªãģŁ
ãĤĴè¦ĭ ãģ¦
Ð¸ÑģÑĤ Ð¾Ð²
Ġbras ile
é ®®
Ġver sione
Ġcas e
Ġim mo
è§ Ĵ
z uf
Ġfin ale
Ġof ere
Ġdiretta mente
ĠB áº¡n
Ġdo ble
Ġaque llos
ĠMe dien
ĠÑįÑĤ Ð¾Ð¼Ñĥ
ĠS ty
rÃ³ ci
è£½ åĵģ
ĠÑģÐ¼ ÑĭÑģÐ»
ĠÐķ ÐºÐ°ÑĤ
ĠÐł ÐµÐ³
ĠFrances co
Ġcontri b
å¯ º
Ġmon tre
ĠÐ¿Ð¾Ñģ ÐµÐ»
ĠÐ¿ Ð°Ð¿
ĠÐ¾ÑĢ Ð³
ĠF Ã¼hr
Ġp oni
ĠFir enze
Ġcos to
ĠAu ÃŁer
ve ill
ni Äħ
Ġãĥģ ãĤ§
æĬĢ è¡ĵ
ĠÐ¿ÑĢÐ¾Ð´ÑĥÐº ÑĨÐ¸Ð¸
ĠÐ³Ð¾Ð´ Ñĭ
è» į
ad urch
Ð¸ÑģÑĤÑĢÐ° ÑĨÐ¸Ñı
Ġthu á»Ļc
ĠÐł ÐµÑĪ
fica zione
Ġpopula tion
c enza
ĠÐľÐ¾ÑģÐºÐ² Ñĭ
ÑĥÑĪ ÐºÐ¸
Ġneces idades
ach ten
ĠdifÃŃ cil
Ġis ol
g nie
Ġt wo
Ġp antalla
ĠVer kehr
ĠM ur
ĠEs cu
ĠÑĢÐ°Ð· Ð½Ð¾
Ġes pos
Ġdeter min
tur al
ĠE ur
richt ung
ĠÐ¿Ð¾ÑģÑĤÐ¾ÑıÐ½ Ð½Ð¾
Ġchauff age
Ġutilis ateurs
Ġo lej
prasz amy
Ġtemp er
ĠM ain
uel s
ĠIde en
Ġress ources
ĠÐ¿ÐµÑĢ ÐµÑģ
ĠPe tit
met tre
ÅĤ os
ĠB ran
sp ra
ĠÑĩÐµÐ¼ Ð¿Ð¸Ð¾Ð½
Ġretr ouver
we ÅĤ
Ġza ÅĽ
Ġjed nego
ĠÐĿ Ð°Ñĩ
Ġhabit ants
Ġparti cular
Ġgiá»¯ a
çĻ» åł´
Ġco o
ĠD al
Ġen tiÃ¨re
ãģ®åı £ãĤ³ãĥŁ
çŁ Ń
ĠÐļ Ð°Ð¶Ð´
Ð¾Ð½ ÐµÑĨ
Ġweit eren
ĠÃ©to iles
Ð°Ð² Ð¸Ñģ
ĠC ia
tt ura
wia Äĩ
ĠP ost
Ġopp os
ar di
ç«ĭ ãģ¦
Ã¤s ident
vol ution
ãĥĹ ãĥ©
gu ay
Ġsuf ici
Ġcal me
Ġex am
ĠÐºÐ¾Ð½ ÐºÑĢÐµÑĤ
ãģĤ ãģĴ
ãĤ¯ ãĤ·ãĥ§ãĥ³
Ġãĥ¡ ãĥ¼ãĤ«ãĥ¼
æ ¤
czeg Ã³l
ĠI o
ĠÐķ Ð³Ð¾
Ġtemp i
Ġz ie
Ġç ķ
Ã¨ ce
Ġpu li
ĠGiov anni
m oni
Ġper man
ĠB lo
ĠÐ¸Ð³ÑĢÐ¾Ð² ÑĭÐµ
ĠÑģÐ¾ÑģÑĤ Ð¾Ñı
ĠH il
Ġprofession nelle
Ġren for
ĠÐĲ Ð»ÑĮ
ĠãĤª ãĥ³
is mus
Ġek sp
uyá»ĩ t
ãģ£ãģ± ãĤĬ
ãĤĪ ãģ³
ĠÐ¼ ÐµÐ½ÑĮÑĪÐµ
Ġele tt
ac t
ãĥ³ãĥĩ ãĤ£
Ġneces idad
ai x
Ġdi bu
Ġa cu
Ġrepres enta
h ait
Ġprzy jem
Ġlum iÃ¨re
è¡ Ģ
ĠMen sa
ĠGay s
Ġmas ajes
Ġviv ir
Ġedi zione
Ġt esta
Ġk Äħ
ĠÄĳá» Ŀi
Ġpar tes
f Ã¤h
Ġwe g
åŃĺ åľ¨
si Äħ
ĠE igen
Ġsu gg
owane go
Ġor mai
Ġoff en
un cia
ĠÐ¸Ð½ÑĦÐ¾ÑĢÐ¼ Ð°ÑĨÐ¸Ð¾Ð½
itÃ¤ ts
ãģ© ãģĵ
pe lli
c ente
ĠÐ·Ð°Ð²Ð¸Ñģ Ð¸Ð¼Ð¾ÑģÑĤÐ¸
v ideos
Ġco lec
Ġvelo cidad
a el
ĠA bend
Ġpo te
eni ng
Ġâ ĳ
5 7
å¿ «
ĠK ri
Ġc á»ķ
Ġm icro
ĠÑģ Ð´
u z
ĠA P
Ðŀ Ðł
Ð½ ÐµÐ½Ð¸Ñı
ĠÑĢÐ°Ð· Ð´
ÑģÑĤÑĢÑĥÐº ÑĨÐ¸Ð¸
ei gn
ĠÐ§ Ð°ÑģÑĤ
Ġpropri Ã©
Ġmob il
Ġin via
ãģ®æ Ī
ĠmatÃ©r iel
ĠEn f
Ġtre ÅĽci
ĠEr folg
ĠÃ ®
ĠÐĿ Ð¸Ð¶
ĠÐĹ Ð°ÑĢ
Ġb ringen
ĠÐ¼ ÑĥÐ»ÑĮÑĤ
Ġt anti
ts eite
Ġfron te
cia Å¼
ĠA ni
ÑıÐ± ÑĢÑĮ
ÑģÐ¾Ð» ÑİÑĤ
ale za
ĠKra ft
Ġsod dis
ĠC lub
Ġpla zo
Ġo pport
ĠÐ³ Ð¾
ĠÑĤ ÑĢÑĥÐ±
ĠFoll ar
Ġtrad i
rz wi
fe hlen
ei le
ĠÑģÑĤ Ð°Ð»Ð¾
owane j
Ġï¿½ï¿½ ï¿½ï¿½
ĠTh anh
Ġm á»©c
arz enia
Ġfun ciÃ³n
Ġm ud
ãģ£ ãģį
Ã¼ gen
Ġ200 4
2 æľĪ
çķ ¥
Ġhui le
Ð°Ð³ Ð¾Ð³
Ð¸Ð· Ð°ÑĨÐ¸Ñı
Ġarch ite
ĠÑģÑĤÐ°ÑĤÑĮ Ð¸
ĠÐ½Ðµ Ðµ
ĠÐ¿ ÑĥÐ±Ð»Ð¸
ter ÃŃa
ti tion
Ġrifer imento
ï½ °
ãģĭãĤī ãģ¯
Ġusu ario
] ,
Ġ1 20
Ġdoty czy
Ġæ¨ ª
Ġ ä½ĵ
Ġele mentos
ĠtÃ© mo
r ano
ĠT itel
ci ence
rz a
Ġsquad ra
çŃ ĭ
t ungen
Ð¾Ð· Ð²
Ġpro me
Ġtra in
UiOi J
Ġdzie cko
Ð¾Ð³ ÑĢÐ°Ð´
w ili
ä¾¿ åĪ©
or ge
Ġf und
Ġé Ł
Ġch iáº¿c
r ados
èª ²
Ġlie ux
Ġmol te
Ġentfern t
Ġing res
Ġza bezpie
Ð¸ÑģÑĤ ÐµÑĢ
ãĥ³ãĥ ĸ
Ġod wie
ĠÐ¸ÑģÐ¿ ÑĭÑĤ
ĠÐ¢ Ð°Ð¼
Ð¡Ð Ĥ
ĠÐĴ Ð°Ð»
Ġprim eira
ÑĥÐ» ÐºÐ°Ð½
Ġf ini
Ġexer ci
ĠE X
qu Ã©s
ĠG las
ĠãĤ Ĩ
æ±Ĥ äºº
ĠæĿ±äº¬ éĥ½
é «ª
Ñģ Ðµ
ÑĥÑİÑī Ð¸Ðµ
æ¶ ²
Ð¸ÑĤ ÐµÑĤÐ°
dar f
Ġgi ng
ĠC L
Ġmin ist
ĠTout es
Ġcl Ã©s
ĠÐº Ð¾Ð³Ð¾
Ð¸Ð¼ ÑģÑı
an ne
Ġtrava iller
Ġan y
Ġcris is
Ġ: :
ra ca
ãģ®å ĳ
an ach
ta lia
vi le
Ġprue ba
ĠC y
ĠC ou
Ġsol utions
ĠÐ¿Ð¾Ð» Ð¾Ð²
Ġcoin vol
ĠÐ´ÐµÐ» Ð°
ĠÐ´ÐµÐ¹ÑģÑĤÐ² Ð¸ÑĤÐµÐ»ÑĮÐ½Ð¾
ÅĽ le
ãģ£ãģ¦ ãģĹãģ¾
li cas
ue ll
Ġren dez
setz en
æľŁ å¾ħ
Ġ, '
ĠÐ¿ÑĢÐµÐ´ Ð½Ð°Ð·Ð½Ð°Ñĩ
ĠÐ¿ÐµÑĢÐ² ÑĭÑħ
Ġ9 4
Ġdop iero
Ġj orn
Ġher mos
ĠÐºÑĢ Ð°Ð¹
Ġm ission
ĠTut ti
f y
ĠÑĤ Ñĥ
ãģĮ ãģĦ
or k
ãģĭãģª ãģĭ
ãģ®è £
ĠH um
l am
ĠÑģ Ð¸Ð³Ð½
Ġinter vention
Ġkho áº£ng
Ġrecom end
ta it
G B
ĠT ier
ib ilitÃł
Ġ> >
Ð¸ÑĨ Ñĥ
æıĲ ä¾Ľ
Ġty pes
Ã¶ sen
den za
G O
Ġst wier
ĠC ong
Ġmod er
Ġre jest
ĠÐ½ Ð¸Ð±
Ġad block
ĠP O
ĠkrÃ³ t
å·¥ äºĭ
Ġæ¥ŃåĭĻ çĶ¨
çĻº å£²
Ġma xim
æ²» çĻĤ
ara tos
Ġtam aÃ±o
row ia
ãĤı ãĤĮ
ĠÑĩ Ð»ÐµÐ½
j esz
bes ondere
ĠC it
ĠÑģ Ð°Ð¼Ð¸
Ġcam pagne
T ION
A d
Ġrep as
å¤ ı
ĠÐ»ÐµÐº Ð°ÑĢ
ĠÐ±ÑĥÐ¼ Ð°Ð³
Ġta ka
ĠD 0
Ð°ÑĤ ÐµÐ»ÐµÐ¼
Ġpa ese
Ġpi Äħ
ĠÑĤÑĢ Ð°Ð´Ð¸
Ġou tro
ãģĹ ãģ£ãģĭãĤĬ
Ġl y
Ġ6 6
ĠL Ã©
ĠEx p
Ġä¸Ń åĽ½
Ġgan ar
Ġouver t
Ġde venir
Ġe cc
Ġsz ans
z Äħd
ĠSta to
to m
ÐµÑĪ ÐµÑģÑĤÐ²
ãģ« è¦ĭ
ĠR ub
ta ciones
Ġa j
se ille
Ġlong temps
ĠD ig
Ġm ind
Ġelekt roni
p Ã³ÅĤ
ãģ§ãģĻ ãĤĪ
åĲĳ ãģĳ
Ġref le
Ġsoggior no
ĠintÃ© gra
bo x
ĠW il
Ġso ins
ĠR ein
Ġeigen e
Ġcapa citÃ©
I 6
Ġza pis
ĠM ol
å¥³ åŃĲ
Ġa gence
© çĶ¨
Ġentre ga
wir tschaft
d no
è ¯
åĨ ·
Ġpro ve
ĠG ast
ãĥ© ãĥ³ãĥī
Ġpad re
Ã¨ rent
ĠH y
vis or
ĠÃ©po que
met ros
ment ale
ĠB ade
Ġh ol
Ġfin de
we gen
Ġdom icile
ĠÑģÐµÑĢÑĮ ÐµÐ·
z quier
Ġac cesso
Ġle cz
Ġsig lo
ĠPre zzo
ĠConsi glio
Ġitali ani
ĠÐŁÐ¾Ñĩ ÐµÐ¼Ñĥ
ĠÐĳ Ñĭ
Ġun ica
Ġkh ÃŃ
all y
ustr ie
ĠD eux
ĠÐ¿ÑĢÐ¾Ð³ Ð½Ð¾Ð·
ÑģÑĤ ÐµÑģÑĤÐ²
Ġconse gu
Ġatra vÃ©s
Ð¸ÑĢÑĥ ÑİÑĤ
ĠB ank
ãĤ¹ ãĤ«
w ka
Ġproje kt
ãģ®åĨ ħ
ĠPour quoi
c ts
AR D
Ġor ient
Ġoczy wiÅĽcie
Ġloka l
ãĥªãĥ¼ ãĥ³
ĠÐĶ Ð¼
Ð¸Ð¼ ÐµÐ½ÑĤ
Ġnos sa
esten s
Ð° ÑĨÐ¸ÐµÐ¹
Ġal Ã©m
Ġcon sen
ĠTh u
m un
ami que
Ġ5 C
Ġregar d
gra ma
R A
Ġ7 4
Ġlang ue
Ġning una
i tar
ãĥ©ãĤ¤ ãĥĸ
Ġm áº¡ng
ĠÑĥÑģÐ¿ ÐµÑĪ
Ġloca li
ãģ®æĦ ı
ar beitet
ĠProble me
Ġgar de
å« Į
ĠBl ue
ign es
ĠÐ¼Ð°ÑĪ Ð¸Ð½Ñĭ
Ġdev ono
ãģķãĤĮ ãģ¾ãģĻ
Ġd uro
cion a
ĠÐ¶ ÐµÑģÑĤ
ĠDla tego
Ġlors qu
ĠVal encia
on ia
Ġsou hait
lo ts
ĠZ e
Ġexe mp
ĠÐ½ÐµÐºÐ¾ÑĤÐ¾ÑĢ ÑĭÐµ
atter ie
Ġmul her
b ano
Ġpass age
ne z
ĀĀĀĀĀĀĀĀĀĀĀĀĀĀĀĀĀĀĀĀĀĀĀĀĀĀĀĀĀĀĀĀ ĀĀĀĀĀĀĀĀĀĀĀĀĀĀĀĀĀĀĀĀĀĀĀĀĀĀĀĀĀĀĀĀ
Ġpregun ta
Ġorgani zaciÃ³n
si v
5 hbW
Ġrequ ire
ĠkoÅĦ cu
Ġpicc olo
Ġalgun s
or ti
Ġunter schied
ĠmÃ© c
Ġcap ita
Ġsp Ã³ÅĤ
ĠÐ²Ñĭ Ð·ÑĭÐ²
Ġmog ÄĻ
åķ Ĩ
Ð¸ÑĪ ÑĮ
Ð¾Ð»Ð½ Ðµ
Ġprzy ja
Ġprofes jon
ĠSec re
Ġtotal mente
ÑĢÐµÐ¼ ÐµÐ½Ð½Ð¾
cie le
ĠNg h
mi te
ĠRou ge
b3 V
Ġch ÅĤo
Ġï¼ ĭ
ãĤĴ ä½¿çĶ¨
el as
Ġroz wi
IL LE
Ġje de
Ð½ ÑĥÑĤ
Ġar re
Ġnh iá»ĩm
Ġmensa je
Ġh al
çī¹ å¾´
Ġcorre o
Ġvost ro
æ°Ĺ ãģ«åħ¥
Ġprof iter
Ġpr Ãªt
Ġ7 8
Ã§ ons
niej szych
Ġãģĵ ãĤĵãģª
ãĥŃ ãĥ¼
ĠÐ¾ ÑħÑĢÐ°Ð½
Ġpro vincia
g om
Ġa ggiung
n al
ĠÐ·Ð°Ð¼ ÐµÐ½
ĠÐ¿ÐµÑĢÐµÐ² Ð¾Ð´
ãĥķ ãĥ«
ĠLou is
Ġpub liÃ©
Ġde vient
Ġè Ĭ±
ãģ¾ãģ¨ ãĤģ
å¤§ å¤ī
ãĤī ãģı
T S
Ġde vez
kar te
ĠÐ½Ð¸Ð± ÑĥÐ´ÑĮ
Ġchu áº©n
ĠSte llen
el es
Ġ ä¹
ï¼ ¼
å±Ĭ ãģĳ
ãĥŀ ãĥ³ãĤ·ãĥ§ãĥ³
ãĥ¬ ãĥĥãĤ¯ãĤ¹
Ġæ ·
ĠÑĤÐµÐ¿ Ð»
ĠÐ±ÑİÐ´Ð¶ ÐµÑĤ
i bile
ĠÑĢÐ°Ð· Ð°
ĠC zar
åľ° åŁŁ
ĠÑģÐ¾ ÐµÐ´Ð¸Ð½
c enia
V A
Ġtoda vÃŃa
Ġord inateur
Ġru olo
Ġza g
he ma
Ġwy god
ĠP ort
ĠN ation
si f
ĠEn fin
ĠAch eter
ito y
Ġter en
ĠÐºÐ°ÑĤ Ð°Ð»Ð¾Ð³
ĠÐ³ ÑĢÐ°Ð¼
Ð¾ÑĢ Ð³
Ġpri v
Ġaff er
ĠÐ¾Ð´ ÐµÐ¶Ð´
ĠP ays
Ġt ÅĤ
Ġç Ń
å¹´ ãģ«
an che
ÑģÐº Ð°Ð¶
ĠÐ¾ÑĦ Ð¸Ñģ
OW E
Ġdru giej
Ġph p
ÐµÐ¶ Ð´Ð°
ÑģÑĤÐ² Ð¸Ðµ
Ġli ke
le z
Ġsali da
ĠÐĿ Ð°ÑģÑĤ
ti go
ĠÐ¿Ð¸ÑĤ Ð°Ð½Ð¸Ñı
Ġdom ingo
ĠÐ¾Ðº ÑĢÑĥÐ³
estiv al
Ð¾Ð» Ð´
ĠLi czba
Ġn á»ķi
Ġprze p
ĠDes puÃ©s
ĠPor tu
HÃ´tel s
Ġac or
ĠÐº Ð¸Ð½Ð¾
ĠTe chnik
Ġfr Ã¼
ĠD io
Ġseg ment
dy n
ut to
Ġz re
Ã³n de
Ġgratu itement
Ġdire ct
Ġcerta in
ĠdÃ© cid
d chen
ĠU l
Ġz uf
ĠÑģ Ñĥ
ca mb
f ia
U C
Ġmiemb ros
ĠÐ½Ð°ÑĪ Ð¸
ĠÐ´Ð°Ð² Ð½Ð¾
AL I
ĠDÃ©couv rez
ĠBask ets
ĠN um
Ġlav ori
cion ais
Ġozna cza
ĠBuen os
ĠC li
ĠM ul
Ġin media
ÑģÑĤ Ð¾
Ġfos se
çĽ¸ åł´
Ġåĥ ķ
ï¼ Ń
Ġå¿ ĥ
ĠÃ ĳ
ĠThe o
ä¸Ģ è¦§
å¯ Ŀ
ĠÐļ Ð¾Ð´
ĠÐ¼Ð°ÑĪ Ð¸Ð½
ing er
Ð¸ÑĤ Ð¾ÑĢ
ĠrÃ¡p ida
f le
Ð¸Ð»Ð¸ Ð·
ĠAnt worten
æĺ ¥
we hr
ĠrÃ©se aux
Ġent ro
Ġenc anta
cto ra
ĠãģĬ ãģĹãĤĥãĤĮ
ĠCu ir
Ġaff ich
ĠS T
5 6
Ġre pos
Ġinternation al
Ġofer ta
ĠÑĥ Ðº
ĠÐŃ Ð»ÐµÐºÑĤÑĢ
ĠÐ¼ÐµÐ½ ÐµÐ´Ð¶
ãĥĪ ãĥª
ĠGar cÃŃa
ĠÐ¼Ð°ÑĢ ÑĪ
Ġappare il
rie bs
ĠA li
Ġver ano
jeun er
ĠÐ³ ÐµÑĢ
ĠÐ§ ÐµÐ¼
Ġqu anti
ĠZ as
Ġsto ck
ĠÐ¿Ð¾Ð´ Ñģ
ĠÐ¿ÑĢÐ¸Ð² Ð¾Ð´
ãĤĤãģ® ãģ§ãģĻ
lis ch
ÅĦst w
ĠÐ¿ÑĢÐ¸Ð² Ð»ÐµÐº
Ġk iá»ĥm
ĠÐ¸Ð´ ÐµÑĤ
o li
Ð¾Ðº Ð¾Ð»
ou d
ĠÐ½Ð¸Ðº Ð¾Ð³Ð´Ð°
inn astica
cun o
cipa li
kuje my
b 2
in ess
YW 1l
ĠÐ» Ð¸Ð´
I m
ĠP ani
Ġstron ÄĻ
timm ung
ra ciÃ³n
ĠKom p
ĠK an
Ġris ol
Ġpour rez
Ġb io
p ens
Ġpu issance
º å®ļ
Ġefec to
stell ungen
Ð°Ð´ Ð»ÐµÐ¶
éĸĭ å§ĭ
Ġw hen
is sima
Ġres pe
ĠÐ¸Ð·Ð¼ÐµÐ½ ÐµÐ½Ð¸Ñı
Ðº Ð¾Ð³
es ter
IN G
Ġt ent
Ġrestaur ant
Ġjak im
Ġaggior n
Ġris chio
ĠE tiquetas
Ġconf ort
Ġai mer
ĠArt ÃŃculo
ÑĭÐ² Ð°ÑİÑĤÑģÑı
ri to
m ana
ĠD etta
ĠUni versitÃł
ĠdÆ°á» Ľi
Ġtak im
çĲĨ è§£
Ġide as
Ġge bra
ĠÑģÐ°Ð¼ Ð¾Ðµ
ĠÐ¾Ð±ÑĭÑĩ Ð½Ð¾
Ġense Ã±
Ġjaki ÅĽ
gen za
z m
Ġcono cimiento
ĠM ini
tig er
C O
Ġactu ellement
Ġval ori
d ono
redni o
è³ Ģ
Ġpl as
Ġdiff icul
Ġb ac
IL L
Ġdou ce
ĠD ur
ĠÐ¡ÐµÑĢÐ³ ÐµÐ¹
Ġ4 00
ĠÑģ Ð¾Ð»Ð½
fe kt
ste lle
ãĤ¹ãĤ¿ ãĤ¤ãĥ«
Ð¸ÑĢÐ¾Ð² ÐºÐ¸
Ġquar tier
ãĤ³ ãĥ¼ãĤ¹
Ġun ver
Ġsob Äħ
ĠGran de
ĠÑĢÐ°ÑģÑģ Ð¼Ð¾ÑĤÑĢ
Ġkomp le
åŃ¦ çĶŁ
Ã¶ nen
Ġv eux
ĠSch i
ĠÐ¾ÑĩÐµÑĢÐµÐ´ ÑĮ
Ð»Ñı Ð½
ÐµÑĤ ÐºÐ¸
ĠÐ¼ ÐµÑĩ
ora Ã§Ã£o
ãģĤ ãģ£ãģ¦
ĠÐĹ Ð°Ð¼
æŃ ¦
ĠÅļ lÄħ
ti Ã©
Ġp owy
ãĥĨ ãĥ¬ãĥĵ
ne as
ĠÐºÐ² Ð°Ð»Ð¸ÑĦ
ĠÐ· ÑĥÐ±
ĠÑģÐ¸ÑĤÑĥ Ð°ÑĨÐ¸Ð¸
ur er
Ġcom Ãºn
Ġbas so
ĠÐ´ÑĢ ÐµÐ²
Ġka teg
Ġap Ã³s
ãģ®å ±
C om
osp ital
Ġo jos
ĠD zi
Ġus age
Ġv illes
Ġsouhaite z
Ġav ent
Ð»Ð¸Ñĩ ÐµÑģÐº
Ġt áº¥t
Ġw eni
tri ce
AR E
Ġotten ere
Ġh id
â Ĩ
ĠåĪ Ĩ
Ð¸ÑĤÐµÐ»ÑĮ ÑģÑĤÐ²Ð°
æ³ ī
ĠS antÃ©
gi es
et Ã©
åĪ Ĺ
Ġcre cimiento
Ġc ic
Ã¼ f
Ġparf ait
ib ilitÃ©
Ġprogra mu
mp er
ĠDz iaÅĤ
Ġdob ry
ãĥĭ ãĥ¡
ĠEr n
ÑĢÐ°ÑĤ ÐµÐ³
ĠÐ¾Ð´ Ð½Ð¾Ð¼
ĠÐ± Ð¾ÑĢÑĮ
ĠB ologna
Ãº a
ĠBon us
ili gen
ĠÐ¢ Ð¸Ð¿
ĠÐ¾ Ð¿ÑĢÐµÐ´ÐµÐ»Ñı
Ġpro va
ak ie
ãĤĴ éĢļ
Ġmar ki
Ġpra cu
jer o
Ġsal ari
Ġsal ute
f unk
ĠGru ppe
Ġorigin ale
ĠAu jourd
ma ges
Ġmouve ment
Ã©ro port
7 2
Ġpor t
ĠÐ³ ÐµÐ½ÐµÑĢ
Ð»Ð¸ Ð¼
Ġn iÄħ
ĠD ru
Ġç¶ļ ãģį
Ġãģ¨ æĢĿ
Ġ2019 å¹´
Ġm anger
çī© ä»¶
ãĥ¢ ãĥ³
ãģĻ ãģ¹ãģ¦
ĠLo ire
ĠÃ¤ hn
ĠszczegÃ³l nie
Ġimport anti
ce der
Ġfich ier
Ġth Æ°
Ð¼ Ð¾Ñģ
ĠWar to
çķª åı·
dzie ÅĦ
ĠMÃ¤n ner
Ġcollab orazione
ĠÅļ wia
Ġpod rÃ¡
Ġent scheiden
oule z
ĠÐ¿ÑĢÐ¸Ð½ ÑıÑĤ
Ġpro tagon
Ġcer to
Ġo ver
åĬĽ ãĤĴ
Ġle ngua
Ġr ens
Ġam bito
sch ung
ĠÐ¸ Ð½Ð¾ÑģÑĤÑĢÐ°Ð½
Ġuzy ska
§ £
Ġlugar es
ĠR u
Ġåı Ĺ
ff i
Ġch ÃŃ
ĠS ou
ĠJu in
tiva tion
U B
ĠÐ²Ñģ Ð¿
Ġinterna zionale
Ġåħ ĥ
bie t
ĠÐķ ÑīÐµ
ÑĭÑĤ ÑĮ
åĲ ¹
èª °
Ġet Ãł
Ġl unes
Ð» Ð¾ÑģÑĮ
Ġrespec t
Ġmar ques
ĠNo Ã«l
Ġod powiada
Ġdy sk
ãĤ¤ ãĥĻãĥ³ãĥĪ
Ġm inh
Ġpersonn alis
ĠidÃ© al
Ġl anz
Ġgru py
Ñĩ Ð¸Ñģ
ĠB ro
Ġver de
Ġãĥı ãĤ¤
Ġsc ritto
¡ çĶ¨
ÑĥÐ¼ ÑĥÐ»ÑıÑĤÐ¾ÑĢ
Ð½Ð¸Ðº Ð°Ð¼
Ġb ian
ãģı ãģªãģĦ
è ´
çģ ½
ĠK ont
Ġpas e
Ġdom anda
ĠDe us
ĠPo zna
ÅĤ owa
ç´ł æĿĲ
Ġmeille ures
ĠÐºÐ» Ð¸Ð½
Ð¸Ð¿ ÐµÐ´
Ġbe lla
Ġsi cura
Ġac cessi
Ã© l
T C
ĠÃ©conom ie
Ġris ques
Ġpermet tant
å®ī åħ¨
ĠÑĤÐ°Ðº Ð°Ñı
ĠÑĩÐµÐ»Ð¾Ð² ÐµÑĩ
li de
flÃ¤ che
ĠÐ¾ÑģÑĤ Ð°Ð½Ð¾Ð²
ct wo
Ġch aussures
ĠK od
Ġpowierzch ni
Ġos p
iss age
ãĥĥãĥģ ãĥ³
ãģĭãĤī ãģ®
Ġen ci
ĠÐ¼Ð°ÑĤÐµÑĢÐ¸Ð°Ð» Ñĭ
Ġpar c
Ð¸ÑĢÑĥ Ñģ
Ġno va
ãĥ¼ãĥĭ ãĥ³ãĤ°
Ð¸Ð² Ð°ÑĤÑĮÑģÑı
Ġä»ĬåĽŀ ãģ¯
Ġãĥ© ãĤ¤
ĠPre cio
\/ \/
Ġefec tos
ĠÐ¿Ð¾Ð´ Ñĩ
ĠC Ã´
Ġf ica
éĢ Ģ
Ġander s
Ġbi ur
Ġ100 0
ĠÐ¾Ð±Ð¾ÑĢÑĥÐ´ Ð¾Ð²Ð°Ð½Ð¸Ñı
ma tiques
ĠÐº Ð¸ÑģÐ»
Ġzape wni
ãĥŁ ãĥ¥
Ġper der
Ġd Ã³l
Ð¸Ð±Ð»Ð¸ Ð¾ÑĤ
si me
ãĤĴæ Ķ
Ñı ÑİÑĤ
y J
ta ine
s age
h am
Ġv ali
Ñĭ Ð±
Ġk as
ĠTer az
Ġprz ych
Ð¸ÑĩÐµÑģÐº Ð¾Ð¼
ĠNie m
ĠV ors
ĠÐ¿ÑĢÐµ Ð¸Ð¼ÑĥÑīÐµÑģÑĤÐ²
Ġte xto
ab lo
ĠÑĢ ÐµÐ¿
Ġce ll
ĠRÃ© pub
Ġsci enti
Ġå° Ĥ
tori os
Ã¤ch lich
ĠC iÄĻ
ĠK u
ĠwÅĤos Ã³w
Ġum iej
Ġb Ãł
ĠÐ¿ÑĢÐ¾Ð¸Ð· Ð²ÐµÐ´
Ġpa gar
éº Ĺ
æ¸ ¡
Ġd ung
Ġpad res
ĠÐ²ÑĭÐ± Ð¸ÑĢ
ti lla
Ġespecial mente
Ġcon ven
ĠÐ²Ð°Ð¶ Ð½Ð¾
Ġim mÃ©dia
in ner
ĠåĨ ĻçľŁ
Ġah or
Ġimp ri
Ġc Ã¢y
Ġop ra
è© ³ç´°
Ġko le
ĠÐ° Ñį
æ´ ĭ
ĠOdpowie dz
Ġdos tar
bie g
ue bles
Ġcli ente
g al
ĠÐºÐ¾Ð½ ÑĨÐµ
b Ã¼
pr odu
ĠLÃŃ nea
gu en
ĠHa llo
Ġcr ise
ĠÅĤa zien
Ġfir ma
zi p
ĠÐľ Ð½Ðµ
Ñİ Ð¼
ĠÑħÐ°ÑĢÐ°ÐºÑĤÐµÑĢÐ¸ÑģÑĤ Ð¸ÐºÐ¸
ujÄħce go
cier on
s ystem
Ġb ons
ĠÑģÑĤÐ°Ð½ ÐµÑĤ
Ġso lic
Ġsp a
ĠrÃ© alitÃ©
Ġno cle
tto m
R L
æŃ ´
ĠJes Ãºs
ĠSal z
Ġnum Ã©rique
a zioni
ter Ãł
Ã¢ ng
Ġhacer lo
Ġka um
Ġdem ander
ĠH aut
Ġhina us
ĠÐ¿ÑĢÐ¾Ð¸Ð· Ð¾ÑĪ
Ġa st
Ġc Ã¢u
se ments
H V
Ġma ÅĤo
Ġda je
ur Ã©
Ġä»Ĭ å¹´
Ġcoraz Ã³n
ĠK urz
Ġremp la
v anti
Ġesf uer
Ġobjet s
ãģ®æ Į
Ġob li
Ġris er
ĠLa v
ĠCom un
Ġg am
ief el
ĠÑģÐ» ÑĥÑĪ
Ġriguar da
Ġgen ere
Å¼ d
ãĤ« ãĥĲãĥ¼
ä¼ ¸
Ġcom en
ĠÐ²Ñģ Ñİ
er Ãł
Ġæł ªå¼ıä¼ļç¤¾
ãģı ãĤĮ
ber eit
ĠÐ°ÑĢ ÐµÐ½Ð´
Ġcal cul
ĠE tats
Ġsoi rÃ©e
å¯ Ĩ
ĠÑİ ÑĢÐ¸Ð´
u jÄħcych
Ġt iáº¿n
ĠG et
ĠT oute
Ġth ere
ti da
ä¸Ń ãģ«
Ġdis co
ĠK r
ĠÑĥ Ð½Ð¸Ðº
ĠÐĵ Ð´Ðµ
ÑĥÑĪ ÐºÐ°
ĠÐļÑĢ ÑĭÐ¼
Ð½Ð¸Ðº Ñĥ
Ã¤ um
ĠÑıÐ·Ñĭ Ðº
Ġd olor
uis se
mobil ien
ĠÅº rÃ³d
ra nge
Ġvo glia
Ġcittad ini
Ġami go
Ġer mÃ¶glich
and es
ĠÐ³ Ð¸Ð´
ĠÐºÑĥÐ»ÑĮÑĤ ÑĥÑĢ
Ġg á»įi
Ġpor tes
b ado
D E
Ġmod elos
ĠDescar gar
om in
Ġro man
5 4
ĠdÃ© fen
Ġpoja wi
Ġpap ier
ane m
Ġannon ces
col are
i ro
Ġaff ir
ĠK olle
uch te
Ġprin cipali
ãģ®æ ´
Ñį Ðº
Ġvorh anden
wer b
Ġstand ard
Ġme m
ĠÐ¿ÑĢÐ¾ÑĪ Ð»
ãĤĴ åıĸãĤĬ
Ġa jus
h end
ĠS ub
Ġv aria
ãģł ãģĮ
Ġmas tur
ĠMas ajes
Ġinte gr
ĠÐ¿Ð¾Ð² ÑĤÐ¾ÑĢ
æĦĽ ãģĦ
ãģĺ ãģ¦
Ġcaracter ÃŃsticas
ĠSch w
Ġbe ge
z ada
am m
ĠÐ¿Ð¾Ð»ÑĥÑĩ ÐµÐ½Ð¸Ñı
Ġãĥį ãĥĥãĥĪ
port es
Ġges te
Ġreali zacji
Ġdemas iado
Ġcent rum
ĠâĪ Ĵ
ï½Ĺï½Ĺ ï½Ĺï½Ĺ
ãĥª ãĥ³
ĠTra ining
eri es
ĠÃī tat
mFt ZSI6
Ġdu Å¼e
ĠL eute
ĠÐ½Ð¸ Ð¶Ðµ
Ġb Ãºsqueda
ch ia
Ġg anh
z ola
ãģ¨ãģĹãģ¦ ãĤĤ
Ġf antas
Ã¢ tre
Ġcour se
Ġgr ad
owa Å¼
ĠÐ¼Ð¾Ð³ Ñĥ
ĠÑĢ Ð¾Ð¼
ãģ® ãĥĳ
ĠA lles
gel d
ĠBer g
Ñĥ ÑĢÑĥ
ĠD ere
Ġv anta
Ġraz Ã³n
Ġcommun i
ł çĶ»
ĠamÃ©li orer
Ġng u
ĠPerson al
ĠK Ã¶l
ĠâĢ º
Ġgr oupes
ĠCont rol
Ġæ ©Ł
Ġne w
èı ¯
a gt
Ġra czej
èµ ¤
titu d
ç¥Ŀ ãģĦ
ãĥ¯ ãĥ¼
ãĤĴ çŁ¥
sa ires
Ġloca le
ing en
ient ÃŃ
Ġcl asi
Ġay er
ĠServi cio
ÑĢ ÐµÐ¿
ĠÐ¢ Ð¾Ð»ÑĮÐºÐ¾
Ġe ta
ĠCie bie
st w
Ġs et
Ġkateg orii
ĠæĪ Ĳ
ĠS ant
ÐµÐº Ð¸
ãĥĩãĤ£ ãĤ¢
ĠÐ»ÑİÐ± Ð¾Ð²
ÄĻ dzi
ĠÐ·Ð°Ð¼ ÐµÑĩ
ĠÑħ Ð¸Ð¼
ei tos
Ġstar k
Ġutil ise
ĠÐ´Ð°Ð½ Ð½Ð¾Ð¹
Ġestudi os
ĠÑģÐ»ÑĥÑĩ Ð°Ñı
Ġtar get
Ġna ve
ĠN as
osz enie
wo hl
ĠRen contre
ĠP atri
Ġphysi que
ĠÐ¿ÐµÑģ Ð½Ð¸
ĠÑĢÑĭÐ½ ÐºÐµ
ĠÐºÐ°ÑĢÑĤ Ñĭ
Ġs r
OW Y
ĠmÅĤ od
Ġs áº¯c
Ð°Ð´ Ñĭ
ãģĹ ãģªãģĮãĤī
ÑĨ Ñĥ
niej szy
Ġconc ur
n Ã©es
Ġre jo
ĠÑĤ Ð¾ÑĩÐ½Ð¾
âĢĭâĢĭ âĢĭâĢĭ
ĳ å¼µ
è¼ ¸
ĠÐĴ ÑĤÐ¾ÑĢ
Ġx Ã¡c
Ġcon ec
Z hb
Ġzarz Äħdz
ĠÐĳ ÑĥÐ´
ĠMar co
Ġcons idera
k niÄĻ
ãģĮ ãģĭ
Ġo eu
ĠP rÃ©s
ĠCh ico
cul ares
ĠMeu ble
ĠE dition
al er
Ġalb um
cul ture
Ġèª ¿
ĠLi ber
ĠÐ¿ÑĢÐµÐ´Ð¿ÑĢ Ð¸Ð½Ð¸Ð¼
Ġd ra
ĠÐ£ÐºÑĢÐ° Ð¸Ð½Ðµ
< /
ĠÐ¿ Ð°ÑĤ
æĻ ´
Ġsex uales
Ġpartici par
ĠÐ¼ ÑıÐ³
Ġ25 0
ĠServi cios
ĠB ri
å¾Į ãģ®
p les
an na
ĠD ob
ĠÅ» y
Ġnaj waÅ¼
ĠMan uel
ĠCom ent
Ġfon do
ĠU ma
Ġre li
ĠéĢļ è²©
å¥½ ãģįãģª
ãĤ· ãĤ§
ãĥĪ ãĥ³
è§ ¦
Ġé ļ
anz o
IT A
Ġreg ol
Ġnh u
ĠÐº ÑĥÐ´Ð°
Ð¸ÑĢÑĥ ÐµÐ¼
Ġâ ľ
Ġpla ge
nho f
Ġdotycz Äħce
ĠP resse
ãģĵ ãĤĵãģª
ãĥĨ ãĥł
Ð¸Ð² Ð°ÑİÑĤÑģÑı
ãĤ½ ãĥ³
ĠÐºÐ¾ÑĤÐ¾ÑĢ ÑĭÐ¼
den do
Ð¾Ñģ Ð½
ĠÑĪÐº Ð¾Ð»ÑĮ
ung e
Ġposta ci
Ġessent iel
ĠÐ¾ÑĤ ÑĤ
Ġg áº·p
ĠÐ²Ð¾ÑģÐ¿ Ð¸ÑĤ
Ġde mos
Ġ9 11
we isen
Ġto tale
Ġd w
ĠS cra
n Ã©s
Ġroul ant
ĠÑĥÑĩ Ð¸ÑĤ
ĠÑĦ ÐµÐ´ÐµÑĢ
ĠÐ¼ÑĥÐ·Ñĭ Ðº
Ġth em
ãģĦ ãģ¤
º «
Ġmo vil
ĠÑĥÑģ Ð¸Ð»
Ġe valu
ÑģÑĤ ÑĢÐ°
Ġm q
Ġchau di
Ġav an
ons es
Ðº Ð¾ÑģÑĤÐ¸
Ġper mette
± ³
cep ciÃ³n
ĠÐ¼Ð°Ð» ÑĭÑĪ
Ġf ase
n ione
ĠTi pps
Ġris pos
Ñĩ Ð¸ÐºÐ¸
ues tos
Ġg lau
ga ta
Ġling ua
Ġtemp Ã©ra
Ġjou eurs
ĠS antiago
ĠDire cciÃ³n
Ġ9 2
Ãª tre
Ġparti es
Ġme mbre
Ġs omos
Ġpu di
Ġcara ctÃ©ris
" >
Ġin kl
ĠÐ¿Ð¾Ð¼ Ð¾Ð¶ÐµÑĤ
ĠÑģ ÑĥÑħ
ĠÐ²Ñĭ ÑĢÐ°Ð¶
Ġbe ispiel
ist ant
á»Ń i
ĠÐ¿ÑĢÐµÐ´ Ð¼ÐµÑĤ
able ment
ĠåĢ ĭäºº
les en
id en
an ki
Ġc iaÅĤa
ĠW etter
å¤§ ãģįãģª
Ġ á»
Ġcompar tir
Ġ> \
Ġcol ores
ĠRes ponder
re mos
cz onych
ĠSÃ¼ d
Ġme z
Ġn our
vi ng
ä¿® çĲĨ
ãģ¨ åĲĮãģĺ
Ġc Ã¡mara
Ġdu as
ven tos
ĠÐ·Ð² Ð¾Ð½
ÐµÑĢ Ð°Ð¼
ĠMit t
ĠG a
ĠÃ© n
Ġãĥ¦ ãĥĭ
Ġ ä¾ĭ
Ġpein ture
Ġsap ere
ĠÑĤÐ¾Ð²Ð°ÑĢ Ñĭ
sch rank
ĠÑĢ Ð¾Ð¶Ð´ÐµÐ½Ð¸Ñı
ĠSonn tag
Ð¸ÑĤÐµÐ»Ñı Ð¼
Ð¾ÑĢ Ð°ÑĤÐ¸Ð²
ĠcompÃ©ten ces
Ġac co
Ġt esti
ĠÑģÐµÐ¼ ÐµÐ¹
ĠT ym
Ġï »¿
ãģ®è »
ĠK la
ti Ã¨res
ĠÅĽ lub
Ġhist Ã³
ĠAk tiv
Ġrec ensione
ĠAs socia
ĠÐ´ÐµÐ» Ðµ
ÐµÐº ÑĥÑī
ĠÐ¿ÑĢÐ°Ð² Ð¸Ð»Ð¾
Ġw ÄĻ
Ġï¿½ï¿½ ï¿½ï¿½ï¿½ï¿½
Â ¯
Ġch á»ĳng
Ġrec ru
ĠÑĥÐ¼ ÐµÐ½ÑĮÑĪ
Ġes igen
Ġpie ds
Ġnieruch omoÅĽci
Ġedi fi
Ġconn u
ĠÑģÐ² ÐµÐ¶
ĠÐ¼ Ð°Ð»Ð¾
ĠmÃ³ gÅĤ
W y
wa ÅĤy
ĠÐ±Ð»Ð¸ Ð¶
ï¼ ¿
ä¾Ŀ éł¼
ï¼ ©
Ð¸ÑĩÐµÑģÐº Ð¸Ð¼Ð¸
ãĤĴ åĪ©çĶ¨
Ġcomun ic
Ġrius ci
ĠWysÅĤ any
ÅĦ skiej
era pie
ĠUnter stÃ¼tz
ĠPhili ppe
IT E
Ġur gence
Ġmis ura
ĠÄĳ Ãºng
Ġdom in
ĠNam en
å¬ ī
Ð°Ð½ Ð½Ð°Ñı
åı Ĭãģ³
ĠÐ½ ÐµÐ¶
ÑĤÐ¸ ÑĦ
ĠÐĺÐ½ ÑĦÐ¾ÑĢÐ¼
ãĤĴæ ķ
kow ania
Ġãĥ ½
ĠÐ¡ ÐŁ
åĩºæĿ¥ ãĤĭ
Ġ( .
Ġå ĸ
Ġh áº¡n
fas st
te lli
ãģĦãģ¾ãģĻ ãģĮ
ĠT ien
Ġespec ÃŃ
Ġconsom mation
ta cji
Ġb onnes
ggia re
Ġbe en
Ġd an
ĠUni versitÃ©
Ġan Ã¡lisis
auss ure
Ġmini m
Ġwy Å¼
ãģ®ç Ĥ
Ġpartici paciÃ³n
Ġmehr ere
Ġhau teur
ĠÑĪ Ð°Ð³
ÐµÑģÑģÑĥ Ð°ÑĢÑĭ
ĠJ ardin
ue ur
qu ette
Ġcara ct
Ġwy ro
Ġnu lla
Ġãĥĭ ãĥ¥
Ð¾Ð±Ñĭ Ñĩ
ĠNa v
Ð¼Ð¾ÑĤÑĢ Ñı
ĠHa cer
ĠÐ½ Ð°ÑĤÑĥÑĢ
ĠÐ±Ð°Ð½ ÐºÐ¾Ð²
Ġin ici
Ġsprz ÄĻ
Ġpo bli
ĠÐĳ ÐµÑĢ
Ġris or
ĠÑĦÐ¾ÑĢÐ¼ Ñĭ
Ġri le
ĠSp raw
N O
ĠC odice
Ġuti le
ab b
ĠReg ione
Ġrisul tato
ĠÐ¿ÑĢÐµÐ´Ð»Ð°Ð³ Ð°ÐµÑĤ
Ð°Ðº ÐµÑĤ
ĠÐĶ ÑĢÑĥÐ³
Ġinst ant
Ġed uka
Ġmil h
ĠKh i
r t
ĠÐ¿ÐµÑĢÐµÐ² Ð¾Ð·
Ġcol ori
u tare
å· ±
Ġgag ner
id ores
Ð¾Ð¶Ð´ ÐµÐ½Ð¸Ðµ
ĠÅĽrod kÃ³w
Ġjed nÄħ
vier on
ĠBet t
ä¸į åĭķçĶ£
ãģ®è ¿
Ð¾Ñĩ Ð½Ð°Ñı
Ġvis uali
Ġas se
Ġcro issance
Ð¢ Ðĺ
Ð¢ Ðķ
h ilfe
Ġ200 3
ĠAv ant
Ġbad ania
ĠKÃ¶ ni
si ve
w oÅĽci
Ġing resso
æī ±
tr an
8 2
ĠÃ©tra ng
ĠÐľ Ð°Ð»
teri ori
ĠÐ½ÐµÐ´ Ð¾ÑĢ
ÑĢ Ð¾Ð´
ÐµÐ» Ð¸ÑĤÑĮÑģÑı
æķ Ĺ
Ġrozwo ju
Ġop tion
ĠÑĦÐ¾ÑĢÐ¼ Ðµ
et ri
Ġz bior
ãĥĭ ãĥ¥ãĥ¼
Ġä»Ĭ æĹ¥
Ġti pos
ĠS au
Ġprogra mas
Ġcommen ce
Ġcapa citÃł
Ġprodu kty
Ġp ani
Ġkon kre
ĠS eine
Ġcar tes
Ġczas em
èĩª åĭķ
Ġfor mas
wers y
éĩ Į
æ¸ ¬
Ã¤uf er
ologi es
ini que
ec t
Ġu a
Ð³ Ð¾ÑĢ
Ġinter pre
ar te
ĠSex y
si cos
Ġmad era
ĠM E
Ġpens ar
ÑĥÑİÑī Ð¸Ñħ
Ġoff rir
Ð¸Ð² Ð°
ĠD onne
ĠÐ½ Ð°Ð¶
ÐµÐ² Ð¸Ð´
Ġle i
Ġobietti vo
li ge
ĠÐº Ð°Ð´
Ġf era
ĠÐ´Ð°Ð½ Ð½ÑĭÐ¹
cj ami
ä¸ ¸
ãģł ãģª
ĠéĿ Ĵ
åħ¬ éĸĭ
Ġapo y
ĠPa olo
Ġï¼ Ŀ
Ġu043 e
Ð½ ÑĮ
éĻ ½
Ġpos ti
Ġ áº¥y
ĠRecher che
Ġpour tant
Ġex Ã©cu
Ġsou tien
Ð· Ð´
Ġsol uzione
ĠInforma ciÃ³n
Ġ, ,
je ta
ĠR und
Ã¶ hn
Ġso le
O i
stÄħ pi
Ġf aud
ÐµÐº Ð¾
Ġscor so
ĠR ze
Ġmateria les
ĠG miny
Ġwyso koÅĽci
Ġpie dra
ĠPe ti
Ġs orte
Ġp ÅĤat
Ġher vor
ro ffen
zy w
ĠDetta gli
ti mento
Ġhá» ¯u
Ġposi ciÃ³n
ĠÐĲÑĢ ÑĤÐ¸ÐºÑĥÐ»
ÑĭÐ´ ÑĥÑī
tal y
Ġconos cere
ãĤīãĤĮ ãģªãģĦ
ãģĭãĤĤãģĹãĤĮ ãģ¾ãģĽãĤĵ
tig es
ri eren
Ġpar cours
Ġ) ))
ĠÑģÑĤ Ð°Ð»Ð°
Ġos ser
Ġmis mos
Ġres ter
Ġspos ob
ite t
Ġ] [
äº Ķ
Ġå® Į
Ġ Ã¡p
Ġl ut
Ġconta cter
ĠF our
c ou
ĠAppar tement
Ġh ar
ĠClas si
ĠÐ¿Ð¾Ð´ Ð²
ĠÐ²Ð¾Ñģ Ð¿ÑĢ
Ġå Ĥ
ãĤı ãĤĮãģŁ
ĠelectrÃ³ nico
en ant
Ġou til
Ġw ich
ĠC olle
ĠÑģÐ¸Ð» Ñĥ
h one
ĠÐ¶ Ð¸Ð´
Ġbo ttom
ç į
Ġpass ato
Ġse is
Ġsk ÅĤada
ĠÐ´ Ð»Ð¸Ð½
che ment
Ġs istemas
cul ta
Ġco Ã±o
ĠD urante
Ġver gleich
Ġ2015 å¹´
è Ļ
ĠÑģÐ»ÑĥÐ¶ Ð±Ñĭ
Ġsta tion
Ġl á»ĩ
Ð»Ñı ÑİÑī
ãģ®å¯ ¾
it ter
77 27
Ð°Ð± Ð¸Ð»
ĠCh o
Ġç·¨ éĽĨ
ĩ Ĵ
éĢ£ çµ¡
ĠÐ¿ÐµÑĢ ÐµÑĩ
si ert
ãģĮ ãģ¤
ĠFar ben
ĠÃ© li
Ġv ien
Ġpres sion
b us
Ã¤n dern
Ð¼ Ð¼
Ġpe ur
ĠÐ¡ ÐµÐ¼
Ġ":" .
æ¹ ¯
ãĥ³ãĥ ¬
Ãł m
ĠÑģÑĤÐ°Ð½Ð¾Ð² Ð¸ÑĤÑģÑı
ãĤĴ çĽ®
Ġcon tar
Ġmagas in
Ġv n
Ġtr áº£
ĥ è²¸
Ġconsi gli
Ġgo verno
Ġo ther
ĠSal on
Ġt els
Ð¾Ñĩ ÐµÐº
ĠÐ¶ÐµÐ½Ñī Ð¸Ð½
Ð¸Ñĩ Ð½ÑĭÐ¹
ÐµÑĢÐ¸ Ð°Ð»
lica ciones
Ġenf rent
Ġm áº¥t
Ġdiv enta
ĠÐ¿ÑĢÐ°Ð² Ð¸Ð»
ĠÐ¿ÐµÑĢ ÐµÐ½
we k
ĠEscort s
ãĥĵ ãĥ¼
t us
mi co
ÅĤu Å¼
Ġpa ti
ĠÐ·Ð°Ðº ÑĢÑĭÑĤ
Ð»Ð¸ ÑģÑĮ
Ġs owohl
i fe
Ġdi pl
Ġprodu kt
Ġthu á»ĳc
ãĤ« ãĥ©
ãĤ¤ ãĥ¼ãĥ«
Ġ7 30
Ġt ÃŃn
Ġaff aire
lo gue
L a
Ġsur face
Ġm iaÅĤa
Ġm undial
Ġparte cipa
Ð¸ÑĤÐµÐ»ÑĮ Ð½Ð¾Ðµ
ĠÑģÐ¾Ð²ÐµÑĢÑĪ ÐµÐ½Ð½Ð¾
ãĤ¤ ãĥ³ãĤ¿
ãģĮ ãģ§ãģįãĤĭ
ĠMe ille
ĠAle x
Ġlib ri
Ġm ale
ka Å¼
Ġ05 7727
9 4
ĠÐ½ Ñĥ
ĠæĢ Ŀ
ãĥĲ ãĤ¹
Ġmagni fique
Ġver re
Ġpuis que
ĠÐºÐ°ÑĤÐµÐ³ Ð¾ÑĢÐ¸Ð¸
d amento
c ola
X B
ĠurzÄħdz enia
Ġc Ã¡o
Ġpublic s
¯ ãģĦ
Ġåį Ĺ
ĠÑĢÐ°Ð·Ð²Ð¸ÑĤ Ð¸Ðµ
Ġu k
Ġp ilo
ĠÐ¿ÑĢÐµÐ´ Ð¿
Ġpobli Å¼u
Ġprze wod
ĠÐĲ Ð±
ĠÐ¿Ð¾ ÐµÐ·Ð´
Ġãĥ ¨
Ġk Ã¼
ĠDeta ils
ber icht
ÑĦ ÑĤ
ĠZ w
ÃŃ do
ãĥ³ãĤ ±
Ġbe lles
Ġa jouter
5 3
Ġpo kaz
r l
ĠÑģÑĤÐ¾ÑĢ Ð¾Ð½
ĠConta ctez
Ġde ja
ãģ«ãģª ãģ£ãģ¦ãģĦãĤĭ
Ġdist ancia
ĠÐ¿ÑĢÐ¸Ñģ ÑĥÑĤÑģÑĤÐ²
az io
Ġperf etta
Ġin fer
Ġå ¡
ort s
l aden
ĠÐ¢ Ð¾
ĠksiÄħÅ¼ ki
ä»£ è¡¨
ãģ¾ãģĹãģŁ ãģĮ
was ser
Ġpl at
Ġpermet tent
Ð¦ Ðĺ
ĠÑģÐ°Ð¼ ÑĭÐ¼
an lage
Ġzw eiten
ĠU lti
ĠN astÄĻp
Ġinter vento
Ġser Ã¡n
Ġre gel
ĠÐ´ÐµÐ½ ÐµÐ¶
ĠÐł ÐµÐº
Ġne llo
Ġh d
Ġcam paÃ±a
ch ani
b ÄĻd
ĠdÃ© g
Ġå¹³ æĪĲ
ãĤ· ãĥ¼
ĠAd ul
Ġrespons abilidad
Ġv itesse
ĠS istema
Ġimport ancia
ĠÐ¿ÑĢÐ¾ÑģÑĤ ÑĢÐ°Ð½
ĠÄĩ wi
Ġg Ã³
itel ist
Ġkobie t
m ant
ci de
ĠÐ±ÑĢ Ð¾Ð½
Ġbudow l
Ġsim il
Ġindiri zzo
ĠP K
ãģ§ãģĹãģŁ ãģĮ
Ġhand elt
áº ¢
Ġprodu tos
Ġs ter
Ġm á»Ł
Ġvez es
Ġenreg ist
Ġmas sa
Ġa zione
Ġjedn ost
Ġåį ĥ
ĠçŁ ¥
ĠKle in
ling s
Ñĥ Ñı
èĩª èº«
gue z
Ġquier es
Ġcompro mis
ĠAnn un
Ġapp ena
ĠB ud
ç¤º æĿ¿
ãģ£ãģ¦ ãģįãģŁ
Ġde mo
mina ciÃ³n
Ġ(" .
Ġp ÅĤ
Ġcomple ta
Ġre giÃ³n
ĠP eter
æ· ±
ĠÑĤÐµÐ± Ðµ
ĠÑģÐ»ÑĥÑĩ Ð°Ð¹
ĠA ller
Ġcres cita
ĠNuo vo
Ġver ifica
ãĤĤ ãĤĬ
Ġç ¢º
ĠDa te
nage ment
ĠåŁ º
ĠÐ°ÑĢ Ð¼
do b
Ġmal grÃ©
Ġz y
Ġåı ¤
ĠÄĳ áº¥u
Ġgu ide
ĠF on
~ ~
thÃ¨ que
Ġunique ment
pr ow
ãģ« åĲĳ
Ġku piÄĩ
rÃ³ b
Ġwh at
ĠWe ise
04 23
ĠÑģÐ¾Ð·Ð´ Ð°Ð½Ð¸Ñı
Ġ3 A
I QUE
Ġdist ance
ĠÐ·Ð°Ð´ ÐµÑĢÐ¶
Ġconcer ne
Ġaff ron
ĠAd ministra
te c
iÄĻ cie
g ada
ĠÐ´ÐµÑĤ Ð¸
ina zione
ĠChr is
P E
Ġreg ion
ĠMa x
ĠDeut sche
ta dt
Ġeff ets
at as
ÑĭÐ² Ð°Ñı
Ġseg re
um i
ologi ques
r eno
ĠCom er
ĠÐ¿Ð¾Ñģ Ð¼Ð¾ÑĤÑĢÐµÑĤÑĮ
ãĥ³ãĥ ļ
Ġé Ĭ
nh eim
ĠFer ien
Ġer forder
Ġn ord
Ġhá» Ĺ
IC O
ĠMin isterio
ĠÐ» ÐµÑĩÐµÐ½Ð¸Ðµ
ĠÐ·Ð°Ð¿Ð¸Ñģ Ð¸
Ġni Ã±o
Ðļ Ðŀ
Ð¾ÑĢ Ð¸
Ġç ®
Ġæĺ İ
ç ¦
Ġcali entes
ĠT Ã´i
id or
ĠLes bianas
ĠA socia
Ġp kt
ĠO czy
Ġtrabaj adores
âĢ Ķ
çĿ £
Ġngh i
ĠM az
ow ska
Ġza po
Ġt ab
ci to
Ðł Ðķ
Ġ79 0423
ÑĥÑģ Ð¾Ð²
Ġty p
ãĤ¢ ãĥ¼
ĠãĢ ĭ
éĸ¢ éĢ£
Ġquoti di
ÑĥÐ¼ Ð°
çĽ £
Ð¾Ñĩ Ð½Ð¾Ð³Ð¾
Ġszko ÅĤy
ãģł ãģ¨æĢĿãģĦãģ¾ãģĻ
ãĥĥ ãĥĦ
ĠZ ubehÃ¶r
ĠB io
Ġho he
Ġw ould
ust and
ĠKo lej
ĠÑģÐ² Ð¸Ð´ÐµÑĤ
Ġsce gliere
é£ ¯
ãĥĲ ãĤ¤ãĥĪ
ãģĭ ãģĦ
ĠAm Ã©rica
Ġwa ka
ĠS ÃŃ
Ġk g
Ð» Ð°ÑĪ
ĠÐ¿Ð¾Ñģ Ð²
ĠÐ°Ð± ÑģÐ¾Ð»ÑİÑĤ
Ġre gu
Ġconna Ã®tre
Ġpag amento
Ġcap ire
m ia
¦ Ĥ
ĠV á»Ľi
bo te
Ð°Ð² Ð½Ð¾
Ġrisp osta
Ġ `
èº į
Ġt are
Ġdar an
Ġgratu ita
Ã©r os
ĠV endita
Ġnos tre
Ġcl Ã¡
CI A
Ġho gar
ĠÐ¿Ð¾ ÑıÐ²Ð»Ñı
ĠÑģÐ°Ð¼ Ð¾Ð³Ð¾
Ġs ani
Ġza czyna
ãĥĥ ãĤµ
ĠS obre
camb io
ten tion
ĠÐ¸Ð¼ ÐµÑĤÑĮ
Ġwy po
Æ°Æ¡ i
Ġin dependi
E n
Ġma Ã®
Ġa gg
Ġjak Äħ
Ã© tique
ãģ®æ Ŀ
Ġprote cciÃ³n
Ġfa ccia
ĠUr laub
Ġprodu kcji
ĠB log
n der
ĠMon te
ĠÐ¼ Ð°Ð»ÑĮ
vis ione
Ġproje to
ha ter
Ġprzest rz
èª Į
æĬ ĺ
Ġof ic
ĠÑģÐµÑĢ Ð¸Ñı
ĠÐĺ Ð³ÑĢ
ÑģÑĤÐ²ÐµÐ½ Ð½ÑĭÐ¹
ter iore
Ġdam skie
Ġpracow nikÃ³w
Ġc Æ°
Ġqu alidade
ĠR olle
Ġexp lique
Ġdire cteur
Ġstu di
g y
ĠÐ¾ÑĤÐ² ÐµÑĩ
ĠÑģÐ¼ ÐµÑĢ
å§Ķ åĵ¡
Ġpue dan
alis te
Ø §
ma gne
ÑģÑĤÐ²ÐµÐ½ Ð½ÑĭÑħ
Ġpres u
Ð²ÐµÑĢ Ð³
Ġservi Ã§os
Ġmo im
Ġpo je
ãĤ¤ ãĥ¡ãĥ¼ãĤ¸
ĠLe ggi
Ġmaggio re
ĠU RL
ãĤ¦ ãĤ©
Ġcomer cial
Ġobec nie
unta miento
ĠGr is
Ġindustr ie
æĺł çĶ»
ba ciÃ³n
k ungen
Ġä»Ĭ æĹ¥ãģ¯
Ġsh are
è¦ĭ ç©į
ĠÑģÐ¸Ð¼ Ð¿
å¼· ãģĦ
ãĥī ãĤ¢
Ġcom ida
J v
Ġb owiem
Ġt Æ°Æ¡ng
ĠDz iÄĻ
Ġpierw szej
ãģł ãģĹ
äºº ãģ«
ĠçĶ »
Ġan sehen
Ġfais ant
ĠÐ°ÑĢ ÑĤ
Ġåľ ¨
s ung
Ġges tal
ĠK l
k unden
Ġquoti dien
ÐµÐ· Ð¶
Ġdom enica
ĠciÄħ g
èĬ ¸
end ido
Ġgegen Ã¼ber
Ġ8 4
Ġexper t
ĠÐ³ Ðµ
ĠWarsza wie
ĠM aj
cz er
ĠeuropÃ© enne
Ġmas simo
Ġbre ve
Ġsvilu pp
ĠmÃ© to
Ġn owego
ungs ver
ĠMar tin
ne y
ç· ´
âĶ Ģ
ãĥī ãĥ«
Ð½Ð¾ Ñĩ
ĠrÃ¨g les
ar ki
ĠM Ã¡
Ġp one
Ġc ere
Ġkonn ten
ĠÐ¼ ÑıÑģ
Ð°ÑģÑģ Ð°Ð¶
Ġcon ception
ma ta
Ġb ran
Ã³ pez
CI ÃĵN
Ġal terna
ãģĹãģ¦ãĤĤ ãĤī
Ġarbeit en
wy ciÄĻ
å¯Ħ ãģĽ
å Ķ
Ġch icos
ng a
iÃªn cia
ĠÑįÐºÑģÐ¿Ð»Ñĥ Ð°ÑĤ
T 00
ĠMar seille
Ã©r ant
ĠÐ´Ð¾ÑģÑĤ Ð¸Ð³
Ġg uerra
ĠH ommes
Ġex tr
ĠÄĳ áº§y
Ġne ed
Ġz ÅĤoÅ¼
ĠdÃ© jeuner
ĠÑĥÑģÑĤ Ð°Ð½Ð°Ð²Ð»Ð¸Ð²
ãģĦ ãģ¾ãģĽãĤĵ
ĠStu di
ĠÑģÐ¼ Ð°ÑĢÑĤÑĦ
ho f
tt gar
ĠSch Ã¼ler
ĠA o
ĠT oul
Ġ6 2
Ġpropos er
ĠÑģÐ¿ Ð°Ñģ
ĠA na
Ġpol y
ĠdÃ© pos
Ġlle ga
Ġc Ãłng
ĠÃĸ ff
ĠÐĿÐ°Ð¿ ÑĢÐ¸Ð¼ÐµÑĢ
Ġodpowie dzi
ar lo
ex ual
chi vo
Ġci ento
ĠÐ¿ÑĢÐ¾Ð³ÑĢÐ°Ð¼ Ð¼Ð°
ĠÑĢÑĥ ÐºÐ¸
ãģ®ç ¨
te chnik
ĠR at
d ÅĤ
ul as
Ġvor her
ĠÐŀÑĤÐ·ÑĭÐ² Ñĭ
ĠÐĶ Ð¾
Ġdy n
ĠÐĺÐ½ Ð´
Ì ĥ
Ã© p
Ġinteres se
Ġp ÅĤa
Ġé ¡
ĠAch at
c ador
ĠV ir
ĠãĤ¢ ãĥ¡ãĥªãĤ«
om as
Ġk lub
ĠIn oltre
Ġ6 3
Ġcontin ue
åħĪ çĶŁ
ä¾¡ åĢ¤
ot he
ĠW ill
d am
ÐłÑķ Ðł
ĠÐł Ðħ
Ð¾Ð²Ð°Ð½ Ð¸Ñİ
ĠPres ario
ĠK aufen
pie le
Ġm Ã¨tres
ul er
min ister
Ġstu denti
Ġmom entos
Ġesper a
la in
Ġtak iej
ĠBlan co
ĠÐºÐ°ÑĢÑĤ Ñĥ
ver y
di entes
Ġali mentos
ĠÐ·Ð½Ð° Ñİ
Ġpro ches
ĠÐ°Ð³ ÐµÐ½ÑĤ
ãģ®æ ĺ
Ġsm ak
Ġza pr
Ġobra z
ãģ® æĸ°
ĠK ostenlos
ĠMich ael
ĠInter nation
Ġk wes
Ġb ÅĤ
Ġsam a
ĠãĤ¹ãĥŀ ãĥĽ
ĠD on
Ġb ru
ĠL ond
tif ication
ĠÐĵ Ðŀ
Ð¾Ð³Ð» Ð°ÑĪ
Ġvoyage urs
éģ ħ
un tos
ĠSe Ã±
ab oraciÃ³n
Ã¼s s
Ġres taura
åĩº ãģĻ
Ġtien da
or ca
tis chen
Ġpermet tra
ĠÐ¾Ð±Ð¾ÑĢÑĥÐ´ Ð¾Ð²Ð°Ð½Ð¸Ðµ
Ġuffi ciale
ĠÐºÐ¾ÑĢ Ð·
ĠÐ²Ð¿ Ð¾Ð»Ð½Ðµ
om ie
ĠSo ciÃ©tÃ©
di ente
ĠO li
mp ora
Ġnor te
Ġfond s
Ð»Ð¸ÑĪ ÐºÐ¾Ð¼
l ad
ĠÐ¿ÑĢÐµÑģÑĤ ÑĥÐ¿
ĠFunk tion
ĠStar tseite
ĠH Ã¼
Ġarri Ã¨re
ĠÐ´ÐµÑģÑı ÑĤ
ķ çĶŁ
ĠUn ion
æľ Ń
Ġc á»±c
ãģĻãĤĭ ãģŁãĤģ
ĠÐ±Ð¸Ð·Ð½ÐµÑģ Ð°
ĠÐ¼ÐµÑģÑı ÑĨÐ°
ĠKra kÃ³w
G alaxy
Ġro ÅĽl
ĠBÃ¼ cher
f est
et en
ĠJac ques
ĠÐ¼ Ð¾Ð½ÑĤ
ĠÐºÐ²Ð°ÑĢÑĤÐ¸ÑĢ Ñĭ
Ġra y
Ð² Ð¸Ð´
ĠCont in
lla zione
Ġml n
ĠWy kon
Þ¬ Þ
ĠÄĳ áº£m
ĠWroc ÅĤaw
Ġsr c
J l
Ġzmi enia
Ġw ere
Ġinsta ll
Ġcompa gnie
ĠÐ²ÑĭÐ³ Ð»ÑıÐ´
teil en
ĠÐ²Ñĭ Ð¿Ð»Ð°ÑĤ
ÑĤ Ð¾Ð½
ãĤĵãģ§ãģĻ ãģĳãģ©
ãĥ¼ãĤ ¬
Ġjed es
st Ã¤r
ĠÐļ ÑĤÐ¾
ĠÐ¿ÑĢÐµÐ¿ Ð¾Ð´
ĠAless and
ãģĿãģĨ ãģª
Ġä»£å¼ķ ä¸įåı¯
Ġ ãģ§ãģ¯
éĿ¢ çĻ½
ãĤ» ãĥķãĥ¬
ãģ£ãģ ½
éĿŀ å¸¸ãģ«
Ġl iter
tes i
ĠÐ¿Ð»Ð°ÑĤ ÐµÐ¶
ĠÐ·Ð°Ð±Ð¾Ð»ÐµÐ² Ð°Ð½Ð¸Ñı
ĠW ald
ĠVer tra
Ã¤hri ge
Ġsoddis f
Ġincl uye
ĠÐ´Ð¾Ð¿ Ð¾Ð»Ð½
ĠB amb
ra zione
w ent
Ġtur ys
r adas
Ġgi áº£
Ġsenti r
ĠD anke
ici lio
ĠÐ´ÐµÐ¿ ÑĥÑĤ
ÑĢ Ð´
Ġsu el
re ise
ĠC lau
ph ie
Ġth Ã¨me
Ġg ara
Ġpel os
Ġide al
Ġcommen cer
a ient
ĠStiva li
Ġsos titu
ĠÑĢÐµÑģÑĤ Ð¾ÑĢ
Ã©r coles
ĠÐ¾Ð±ÑĬ ÐµÐ´Ð¸Ð½
ÑģÑĤÐ²ÐµÐ½ Ð½Ð¾Ð¹
Ġing lese
v am
Ġl á»±a
pe dia
Ġre cl
ç¶ Ļ
ĠS uch
ĠÐĿÐ¾Ð² ÑĭÐ¹
ĠOrigin al
ĠÐ¼ ÑĥÐ·
Ġgru p
ĠLE D
ĠKomment ar
al ter
ÑģÑĤ Ð¸ÑĤÑĥÑĤ
Ġpre ten
ĠHaus e
I X
Ġkle in
Ġf ro
Ð¸ÑĨ Ð¸Ñı
ĠÐºÑĢ Ð¾Ð¼Ðµ
EN TO
etta re
Ġper dere
Ġabb ia
Ġofre cer
ĠL ivre
pis ode
Ð¸ÑĤ ÐµÐ»ÐµÐ¼
Ġent rar
Ġins cription
Ġin t
ĠÐ¡Ð¾Ð² ÐµÑĤ
Ġå¾ ĴæŃ©
é¦ ĸ
Ġgr is
Ġdev ra
z j
ĠGi Ã¡
ĠÃ ±
Ġl Æ°u
w us
Ġteng a
ÑĤ ÐµÑģÑĮ
ani i
ener dÃ¬
ggi ori
un Ã¤chst
it ant
ĠÐ´Ð°Ð»ÑĮ Ð½ÐµÐ¹ÑĪ
ĠÐ°ÐºÑĤ Ñĥ
re ch
ĠÑĤ ÐµÐ¼Ñĥ
ĠÐ¿ÑĢÐ¸Ð½ Ð°Ð´Ð»ÐµÐ¶
Ġv oulez
ÐµÐ¹ Ð´
di ge
ĠÅĽ w
Ġjakie ÅĽ
w nÄħ
Ġnatur aleza
ma le
Ġes ser
ãģ®å İ
ĠL Ã³pez
ĠÑģÑĤ ÑĢÐµÐ¼
qu ite
ĠÐĶÐ¼ Ð¸ÑĤÑĢ
ĠSpa ÃŁ
je my
Ġdecis iÃ³n
ĠM utter
ÑĤ ÑĢÐ°
ck iej
ĠF Ã©v
ient Ã´t
Ġrece voir
tu elle
Ġsuff it
Ġtend rÃ¡
ĠWohn zimmer
Ġge eignet
ĠÐ½ Ð¾Ð¶
ĠÐºÐ¾Ð½ÑĤÑĢ Ð¾Ð»ÑĮ
Ã©ra l
ãĥĸ ãĥª
Ġtr anh
ĠsÅĤ owa
ãģ®å Ģ
ki r
ĠHis toire
Ġhistori que
Ġsp ia
ĠGr Ã¼
Ġw Ã¼n
Ġun be
Ð¸Ð½ ÑĤÐµÑĢ
ĠmÃ¡xi mo
ĠÐŁÐ¾Ð» ÑĥÑĩ
ĠÐºÑĥÐ»ÑĮÑĤ ÑĥÑĢÑĭ
Ġnas z
Ġcommunau tÃ©
Ġf em
rod y
Ġb ur
be x
ĠC ruz
Ġhum anos
Ġw es
Ġcom mento
Ġb lu
ĠP rod
æľ¬ å½ĵãģ«
æ°Ĺ ãģ«
Ġje mand
forder ungen
ĠÐ´Ð²Ð¸Ð¶ ÐµÐ½Ð¸Ñı
di mento
u ment
åĸ ľ
Ġloca les
Ġt ess
on ica
ĠéŁ ĵåĽ½
Ġak tiv
Ġth er
ĠÐ°Ð´Ð¼Ð¸Ð½ Ð¸ÑģÑĤÑĢÐ°ÑĤ
Ðº Ð¾Ð½
use ppe
ci lia
Ġutilizza re
ĠS ource
rÃ© al
g Ã©e
ĠÐľ Ð°Ð¹
ĠãĥĪ ãĥĥãĥĹ
Ġãģ ı
ãģı ãĤĮãģŁ
Ġcele bra
ĠÐ¿ Ð°Ñģ
Ġc ia
ãĥ¬ ãĥĻãĥ«
ĠG ir
ĠprÃ© sta
che z
ĠPro fes
ch as
ĠL ink
ĠJo h
ĠSch ule
ÑĢ ÐµÑģÑģ
Ġze wnÄĻtrz
Ġwy t
ons ieur
lica tions
cie ls
Ġper d
ĠcatÃ©g orie
Ġæ ¼
ç¥ Ń
ba te
ĠP uerto
Ġsu elo
Ð°ÑĢÐ¸ ÐµÐ²
èĢħ ãģ¯
Ġb ist
teil t
ĠÑģÐº ÑĢ
pri re
Ġil oÅĽci
he ur
f ond
ĠÐĿ ÐµÐ´
Ġl áº¥y
ÐµÑī ÐµÐ½Ð¸Ðµ
ĠcrÃ© dit
ĠrÃ©gi me
ĠrÃ©du ction
Ġg wia
Ġmad ura
Ġencuent ran
f Ã¤l
Ġterri toire
Ġtuo i
Ġfin anzia
ĠZ aw
or gani
Ġquel qu
ÐµÐ½ÑĮ Ðµ
Ġcos ti
Ġh Ã¶r
Ġado p
ĠÑĦ Ð¸Ð³
ĠÃ ħ
Ġká» ¹
ĠÐ¿ÐµÑĢ ÐµÐ³
ĠKar ten
Ð¾Ñģ Ð¸Ð±Ð¸ÑĢ
Ð½Ñİ Ñİ
cz el
Ġencont ra
ĠSta ti
ĠCom pr
D O
vel a
Ġsem anas
l ungen
ĠTag s
ci pe
ĠÑĦ Ð¾Ð½
ĠÐ½ ÐµÐ³
Ġalo j
è¡ £
a ges
Ġzn alaz
ä¸Ń ãģ§
ĠverfÃ¼ gbar
Ġza tru
ĠÂ £
Ġh yd
ĠÐĵ ÐµÑĢÐ¼
Ġus un
mÃ¤ÃŁ ig
Ġé Ł³
à³ į
Ġt á»ĳi
) ,
Ġokaz ji
ber n
ĠSz cze
Ġza u
Ġ^ )
Ġc itoy
ĠTe ch
! +[]
èĢħ ãģ®
Ġ its
Ġwym ag
ĠC ara
AD A
Ġh ue
cia liz
ffe e
ĠÐ²Ð½ ÐµÑģ
cia lizza
ĠCom puter
Ġwsp ar
Ġtrans porte
ĠÑĤÐµÑħÐ½Ð¾Ð»Ð¾Ð³ Ð¸Ð¸
ĠÐ¿Ð»Ð°Ð½ ÑĪ
ä» ²
Ð¾ÑģÐº ÑĢÐµÑģ
Ġesta te
ĠT uy
Ġvo let
ĠCon f
6 8
Ġstru cture
Ġau th
Ġt worz
ãĥĥãĤ« ãĥ¼
ãģ£ãģ¦ ãģĹãģ¾ãģĨ
Ð°Ð»ÑĮ Ð½ÑĭÐ¼Ð¸
Ġtr Ãªs
Ġï¼ ¼
Ġèĭ ±
Ġbuen os
statt ung
ĠDes arro
Ã¡ tica
ĠÐ´ÑĥÑħ Ð¾Ð²
Ġ6 8
P ro
mp or
Ġdes tina
Ġfre uen
ĠprÃ© c
ta lement
ĠTy pe
Ġer reichen
Ġka ta
Å¼e k
Ð± Ð¸ÑĢ
ti le
ĠÑĢÐ°Ð² Ð½Ð¾
ida Äĩ
Ġspotk ania
Ġbien es
Ġpromo tion
ĠÐºÑĢ ÑĭÑĪ
ĠÐľ ÐµÐ¶Ð´
Ġni estety
ĠRÃ©pub lique
Ġk al
Ġç ĿĢ
Ġapr endi
Ġæķ °
Ġhistori i
ĠZ us
ĠÐºÐ¾Ð¼Ð¿ Ð°Ð½Ð¸Ð¹
Ġca tegoria
ĠÑģ Ð¸Ð»ÑĮÐ½Ð¾
ĠEn tr
è¢ «
as es
ĠErgeb nisse
Ã¤n dig
ĠO ggi
ag ue
AN CE
ft ung
Ġmind estens
ĠÑģÐ°Ð¼Ð¾ÑģÑĤÐ¾ÑıÑĤÐµÐ»ÑĮ Ð½Ð¾
ĠÐĴÐ¸Ðº ÑĤÐ¾ÑĢ
Ġp eine
ĠÐ¶ Ð°Ð»
Ð¸ÑĤ Ð¾Ð²
ĠW Y
kow ski
Ġt Äħ
Ġre mb
Ġz onas
Ġcaratter istiche
Ġdovre bbe
æĪ ĳ
ÑĨ Ð²ÐµÑĤ
ĠÑĢÐ°Ð·Ð½Ð¾ Ð¾Ð±ÑĢÐ°Ð·
ĠÎ Ķ
Ġæ³ ¨
is ji
ĠNg Æ°á»Ŀi
Ġdes sen
ĠÐ¿Ð¾ÑģÑĤ Ð°Ð½Ð¾Ð²
Ġpan ne
ĠL igne
gra phe
ĠÐ¾Ñī ÑĥÑī
at u
åĸ¶ æ¥Ń
Ġä¸Ģ èĪ¬
ÑģÑĤ Ð°ÑĤÐ¸
tur ale
ĠkaÅ¼de j
ĠV a
Ð°ÑİÑī Ð°Ñı
Ġdigi tal
Ġpop raw
Ġtam poco
Ġexcel ente
ĠÐ¿ÐµÑĢÐ² Ð¾Ð¹
Ġs Ã¡bado
S ch
Ġbel ieb
ä»ķ æ§ĺ
Ġeleg ir
Ġpar tager
ĠhÃ© si
Ġcoup le
Ġconcas seur
Ġ" -
ãĤĴ åıĸ
rÄĻ cz
ĠAl gun
ĠÐĴ ÐµÑģ
ar da
Ġpie di
æ¨ ª
Ð¾ÑĢ Ð¾Ð¼
ĠÐ· Ð½Ð°Ðº
ãĥŃ ãĥ¼ãĥ³
zz ando
odz enie
Ġop tions
Ġac cessoires
Ġal ten
Ð¾Ð³ Ð¸
ãģ« ãģı
ĠL am
ten d
5 8
Ġmet tere
Ġan alisi
g ge
Ġk rzy
ĠR ose
ĠÐ²Ð·Ð³ Ð»ÑıÐ´
ĠÐ¶ Ð¸Ð»ÑĮ
Ġtho áº¡i
z ieren
gram me
czy ny
Ġsu kces
ĠAd olescente
ĠrÃ©f le
ĠP Ã¡g
Ġper u
ĠS olo
Ġpou co
Ġéĩ İ
ita ciÃ³n
ĠP in
Ãį A
Ġconsum o
Ġu04 30
ÐĴ ÐĲ
ĠÐ¿ÑĢÐµÐ´ÑģÑĤÐ°Ð² Ð»ÑıÐµÑĤ
Ġcla ve
s ym
Ġad olescente
Ġpar tage
ĠmatÃ©r ia
ĠSegur idad
ĠP is
ĠConta cto
Ġri por
Ġcons Ã©qu
h Z
cia ch
Ġge geben
ĠåĪ ¥
ĠAn bieter
Ġ^ ^
Ġini cio
ĠV ari
Ġris tor
ĠÑĢ Ð¾Ð»ÑĮ
ĠÑĨÐµÐ½ÑĤÑĢ Ðµ
ĠFrank furt
Ġpoli ce
Ġneu es
ĠBe handlung
ĠD ein
rze Äĩ
ow ÄĻ
Ġmen tion
Ġles que
ĠdÃ©p end
æŀ Ĳ
ãĥĪ ãĥĥãĥĹ
mm el
QiO j
Ġob u
ĠÂ¡Â £
Ġda nh
Ġdescu ento
ĠÐºÐ»Ð¸ ÐµÐ½ÑĤÐ¾Ð²
Ġcom enz
Ġpes quis
ãģ¹ ãĤĭ
ĠÐĲÐ½ Ð³
Ġri m
Ġpra ca
D Z
Ġu dziel
Ġge h
nict wa
Ġc ong
æļ ®
ĠÐŀ Ðĳ
Ñı ÐµÐ¼
Y m
Ġgdy Å¼
u ern
Ġc lÃ©
åİ ļ
Ġbenefi cios
ĠB R
Ġparten aires
ign on
Ñİ ÑĢ
Ġacor do
ãĥ¼ãĥį ãĥĥãĥĪ
Ð¸ÑĤÐµÐ»ÑĮ ÑģÑĤÐ²Ð¾
ale urs
I d
Ġmet ri
Ġmovi miento
tor ie
ur ation
OU S
Ġser rure
ĠB aby
je kt
ÐµÑĩ ÐµÑģÑĤÐ²
Ġprzy pom
Ġacc ue
Ġliber tad
ĠSam stag
ĠÑģ Ð½Ð¾Ð²Ð°
ĠRe y
o x
Ġver gang
Ġart ÃŃculos
ru zione
Ġdispos e
pa nh
ĠÑĢ Ð°ÑģÑĤÐ²
ĠÐ·Ð°ÑĢ ÐµÐ³Ð¸ÑģÑĤÑĢ
ãĥ¼ãĥ Ļ
ãģ®æ ¯
ĠÃ ¯
Ġm áº«u
åº ķ
Ġalrede dor
Ġt Ã¤glich
ĠÐ³ ÑĢÑĥÐ´
ĠÐ¾Ð¿Ð¸Ñģ Ð°Ð½Ð¸Ðµ
Ð¸ÑĢÐ¾Ð² Ð°Ð»
ku jÄĻ
Ġjed na
Ġesp Ã¨re
Ã¨ nes
Ġh Æ°á»Łng
Ġlie be
h el
Ġal t
ll ier
Ġstr umenti
ĠHoch zeit
ĠÑĢ ÐµÐ»
Ã§ ar
Å¼y w
ĠÃ©vol ution
ta m
Ġokres ie
ç® ±
ï¼ ®
è¨Ī çĶ»
w issen
Ġtable au
Ġdes halb
Ġnatur ale
tes ten
Ġlav ora
ĠS amo
ĠD onc
tal ie
Ġtrois iÃ¨me
iste mi
ca li
ĠHau p
9 3
ÅĤasz cza
Ġfaci li
Ġdes a
Ġaper to
ãĤīãĤĮ ãģ¾ãģĻ
Ġth an
ĠÐļ Ð°Ð¼
Ġbamb ino
m uje
ta rios
Ð¾Ð² ÑĥÑİ
Ġst essi
Ġt Ãº
Ġcontinu aciÃ³n
ĠÐ½ Ð¸Ð¶
Ġtend ance
Ġcomunica zione
ĠM ir
I F
ĠCa tal
Ġva caciones
ĠAuÃŁer dem
ĠDa vid
ãĤ³ ãĥĶãĥ¼
Ġimp ul
Ġpremi Ã¨res
que z
ĠÐ° Ð³ÑĢ
Ġç Ĩ
ĠCas inos
Ġserrur ier
ãĥĪ ãĥ«
Ġre Ã§u
Ġber eit
ĠÑģÐ¿ÑĢ Ð¾Ñģ
Ġmiejs cow
ĠÐ¿Ð» Ð¾ÑĤ
ĠÐ½ÐµÐ´Ð¾ÑģÑĤ Ð°ÑĤ
Ġpar i
Ġor igen
Ġtek st
ĠFrei tag
dan ken
ĠÑħÐ¾ÑĢÐ¾ÑĪ ÐµÐ¼
ĠÐ²Ð¾Ð¹ Ð½Ñĭ
Ġpen si
Ġenseigne ment
Ġappr endre
u ter
ĠsÅĤu Å¼
Ġåı Ĥ
rz t
Ġnadz iej
Ġsp iele
Ġbeispiel sweise
ãģĭ ãģĮ
Ġy áº¿u
Ġwi zy
Ġac ces
ĠW ein
ĠV iele
ãģĤ ãģ¾ãĤĬ
ĠCe pendant
Ġmod alitÃł
Ġè¨ ĺ
ĠM ostrar
l ado
Ġacquista re
Ġè Ī
ĠÑĤÐ°Ðº Ð¸
Ġa go
ĠÐĹ Ð°ÑĤ
Ġne m
ĠwaÅ¼ ne
ĠK in
Ġprze czy
ow ol
do pod
ĠEn cont
Ġt ir
ĠCons ul
ĠÐ½ÐµÐºÐ¾ÑĤÐ¾ÑĢ ÑĭÑħ
Ġex isten
ĠD V
li ga
bur ger
Ġwel ches
c uro
æģ ¯
Ġto Ã¡n
Ġimpres e
vo re
ãģķ ãģ«
Ġr áº»
Ġb at
ĠåĨ į
ĠæĪ ĳ
ãĤ¢ ãĤ¯ãĤ»
H R
Ġwy nosi
Ġposs ÃŃvel
Ð¸Ð² Ð°Ñı
Ġle gno
Ġc odice
ĠPo z
éŃ Ķ
Ġæ ¡
Ġãĥŀ ãĤ¤
ĠN uest
ĠheiÃŁ t
Ġos piti
t one
ĠãģĦ ãĤį
æĿ¡ ä»¶
ĠC olor
Ġparti dos
li ngen
hal ts
Ġpowie dziaÅĤ
ĠTra ng
k ennt
Â ¤
Ġkh áº£
Ġol vid
ĠÐ¾ÑĤÐ½Ð¾ÑĪ ÐµÐ½Ð¸Ñı
Ġtec nica
Ġfinan zi
Ġam ar
ĠM undial
di gt
äºĭ æķħ
Ġm idi
ĠK al
ĠÐ½Ð°Ð³ ÑĢÑĥÐ·
ĠÑģÐ¾Ñĩ ÐµÑĤ
Ġ9 78
ĠN un
Ġjur id
ĠÑģÐ¸Ð¼ Ð²
Ġbe ll
Ġt esto
ĠG ian
par k
Ġtras fer
å§ ¿
b w
ĠTri p
Ġsh ow
Ġpeque Ã±os
ĠÐ·Ð°Ñī Ð¸ÑĤÑĭ
Ġconna issance
ĠSe hr
ĠÐ²ÑĭÐ¿ Ð¾Ð»Ð½Ñı
Ġti pi
mi eren
ãģ¤ ãģĳ
d G
Ġt worzy
ĠÐĹ Ð°Ð³
f assen
ĠÐľ Ð¸ÑĢ
Ġtr Æ°á»Łng
Ġc ouv
ĠÐĲÐ² ÑĤ
ãĥ³ãĥ Ĭ
ĠÐ¾ÑĢÐ³ Ð°Ð½Ð¾Ð²
Ġd wu
ãģ® ãĤ«
Ġfe men
es o
ĠZ aragoza
ĠCh ate
ato rio
v ador
Ġper ten
Ġsol che
Ġon et
Ġt zw
ĠÑħ Ð²Ð°ÑĤ
ĠÐ¸ÑģÑģÐ»ÐµÐ´ Ð¾Ð²Ð°Ð½Ð¸Ñı
Ġescort s
Ġa zul
ĠSi tios
Ġzapa tos
ĠF ort
ı ¡
Ġd ados
ĠdÃ© n
ac co
ĠJ uÅ¼
Ġs ÅĤa
Ġav enir
ĠÐŁÐµÑĢ ÐµÐ´
Ġimmag ine
s Ã©
ĠD O
bilidad e
ĠTh Ãłnh
ĠL iter
Ġfo ot
7 1
ĠtÃ©lÃ© charger
Ġdocu ments
Ð¾Ñģ Ð¸Ð¿ÐµÐ´
ĠÑĥÐºÑĢÐ° ÑĪ
Ġdi z
ĠK ato
Ġw nÄĻtrz
éł ĺ
mÃ¡ tico
te te
mo ine
Ġo ggetti
ĠÐ¿ÑĢÐ¸ Ð±Ñĭ
let te
Ġmon ta
Ġob ro
Ð¸ÑĤÐµÐ»Ñı Ð¼Ð¸
Ġwe dÅĤug
b ble
ĠRÃ© g
f ait
Ġutilis ateur
Ġs omit
Ġk na
de cken
tis ation
Ġper te
Ð°Ð´ ÐµÐ¼
ĠÑģÐ¿ Ð¸ÑģÐ¾Ðº
Ġb á»ĳ
ĠN at
Ġl ic
Ġejerci cio
ĠcÃ³ m
Ġclassi que
R e
ĠRep Ãºblica
ĠÎĶ E
ĠÐ¤ Ð¾ÑĢÐ¼
ĠP ablo
ĠG leich
ĠÑĥÑģÐ¿ ÐµÑħ
Ġjus t
lan zen
åĦ Ħ
Ġempe zar
ĠTor re
able mente
Ð¾Ñģ ÑĢÐµÐ´
lic itÃł
ĠÃ©qui p
ĠP rz
Ġim media
iglia mento
Ġs ost
Ġav vi
ÅĤo Å¼y
D A
ku l
ÐµÑĢ Ð½Ð¾Ðµ
ãģĭãģ£ãģŁ ãģ§ãģĻ
å¾ ĭ
ĠO f
be wert
Ġt ats
ĠÑĥÑĢÐ¾Ð² Ð½Ðµ
Ð¾ÑģÑĤÐ°Ð² ÐºÐ°
ÑĥÑģ ÑĮ
Ġa co
re o
w ym
mar as
ĠMÃ¤ dchen
ĠK urs
ĠÑĩ Ð°ÑīÐµ
Ġdimos tra
Ġhist Ã³ria
w na
Ġumiej ÄĻt
Ġi zquier
ĠSchwei z
Ġqu Ã½
ĠGru po
Ġfi esta
ĠOr ganis
ĠÑģÐ»Ð¾Ð² Ð°Ð¼
ma ciÃ³n
Ã©g Ã©
C A
Ġr Ãµ
Ġsor pr
Ġcon dition
Ġre cuer
ec er
ĠJo hn
ĠÐ·Ð°Ð² Ð¾Ð´
ĠÐ´Ð°Ð»ÑĮ ÑĪÐµ
Ġéģ ĭ
ĠÐľ Ð½Ð¾Ð³
ĠEmp lo
ĠAl pes
Ġmar i
Ġind is
æ± Ł
ãĥ¼ãĥª ãĥ³ãĤ°
ãģ» ãģĹãģĦ
ãģ® ãĥ¡
ãģ® ãģªãģĦ
Ġm Ã³j
ĠÅ¼y ciu
Ġw szyscy
ĠF ond
Ġcom in
da ta
Ġch ino
ĠÑĢÐ°ÑģÑģ Ð¼Ð°ÑĤÑĢ
Ġkobie ty
ĠT rze
åĵģ è³ª
Ġfonction nement
Ġcla ir
ill ant
Ġvis ion
Ð°Ðº Ð¾Ð½
ä¸Ń å¿ĥ
ĠDod at
Ġmalad ie
Ġac teurs
ĠÐ¾ÑĢÐ³Ð°Ð½Ð¸Ð· Ð°ÑĨÐ¸Ñı
Ġngh e
Ġperfec to
Ġmod a
t ons
Ġpr endere
ãģ§ãģ¯ ãģĤãĤĬãģ¾ãģĽãĤĵ
ĠY ork
ier ze
ros o
ĠT E
Ñĭ Ðº
uel o
ÐĶ ÐĲ
Ð°Ð´ ÑĨ
Ġscar ica
ĠCam era
Ġstron a
ER S
Ġsa car
Ġpropie dad
Ġdru gie
se urs
Ġv ui
ĠLeist ung
r ine
ĠÃ©ta pe
Ġpro ced
Ġl un
ĠUn ser
Ġsol uciÃ³n
Ġge wor
çĹħ éĻ¢
ãģĦ ãģ£ãģŁ
Ġc á»¥
Ġfa ible
Ġorgani zza
ĠczÅĤowie ka
Ġwy cie
ĠWie der
le iter
ĠC U
Ġp uerta
ĠGebur ts
Ġno ticias
ãģ« æĿ¥
ĠD eine
n ers
ĠÐ²Ð°ÑĪ ÐµÐ³Ð¾
Ġin to
or g
hand el
Ġéĩ į
Ġpr ensa
ĠfÃ¼ hrt
Ġcomple tamente
Ġgan zen
ÑģÑĤÐ² Ð¸Ñı
Ġf id
Ġe cco
um Ã©
ci uto
ĠãĥĹ ãĥ©
ĠdÃ³l ares
Ġ3 D
ÐºÐ¾Ð² Ð°
Ðº Ð¸Ð¼Ð¸
Ġs omme
ãģ» ãģ¨ãĤĵãģ©
ĠStand ard
un ti
Ġpalab ra
Ġoc cu
ĠSpiel othe
ĠP s
Ġer hÃ¶
ĠÑĤÐµÐ» ÐµÐ²Ð¸Ð·
Ġtrak cie
á»ĵ m
ĠUm gebung
Ġsp rze
Ġag rad
ĠM ala
g rÃ¡
Ġpa iement
ĠComm un
ĠlÃ©g Ã¨re
ĠÐĹ Ð²
ĠConse jo
ti les
Ð°Ð» Ð¾Ð¼
ĠGes amt
c ro
Ð» ÑĥÑĪ
ĠÑģÑĤÑĢÐ°Ð½ Ðµ
pf lich
rei bt
Ġcour ant
Ġsele zion
sp iele
Ġti p
Ġn ow
Ġric ord
Ġper mit
Ġespe ci
Ġ5C u
b on
Ġrep rÃ©s
Ġhum ano
Ġcz war
ĠD os
Ġproces os
ĠScra bble
Ġescu ela
ĠRob e
v aux
Ġass ure
va Ã§Ã£o
Ġç ±³
ĠH u
Ã¡ fico
ĠÐĶ ÐµÐ½ÑĮ
ĠÑĩÐ°Ñģ Ð°
Ġar ia
Ð¹ ÑĤÐµ
Ġmus ste
ic ÃŃ
ĠrÃ¡p ido
ĠCh em
ti enne
ĠW ort
ĠÐ´Ð¾ÑģÑĤÐ°Ð² ÐºÐ¾Ð¹
Ð¸ÑĨ ÐµÐ¹
Ġch wili
Ġrela tions
ĠErfahr ungen
Ġm ara
ĠAndre a
Ġgu ard
Ġcomb at
Ġaktue llen
ĠW ind
Ġautori dades
Ġdzis iaj
ĠK rie
ĠÐŀ Ð¿Ð¸ÑģÐ°Ð½Ð¸Ðµ
Ð¸Ð½ ÑģÐºÐ¸Ð¹
ĠÐ¾Ð´ Ð½Ñĥ
Ġb ro
Ġmaxim um
ĠCh ÃŃnh
Ġnaj wyÅ¼
ĠÐ· ÐµÐ»ÐµÐ½
ĠÑĤ Ð°
ĠMa ggio
ti ere
Ġè ĳ
ĠÐĳ Ð¾ÑĢ
Ġç Ī
ĠÐ¿ÑĢÐµÐ´ÑĥÑģ Ð¼Ð¾ÑĤÑĢ
Ð³ÑĢ Ð°Ð´
ĠMar s
ĠÑģÐ¾ÑģÑĤÐ¾ÑıÐ½ Ð¸Ðµ
Ġas col
Ġdes te
Ġpos er
ĠÄĳ Ã¢u
ĠEsta mos
Ġenvo y
Ġpod z
AL ES
ĠD ise
ĠA ires
ch at
Ġaplica ciones
Ġeff etto
Ġniez bÄĻd
Ġesta va
Ġpowie trz
éļ Ĭ
ĠÂ ¯
Þ° Þ
Ġb ay
Ġalum nos
ĠÐ¿ÐµÑĢ ÐµÑĢ
Ġr ose
ve ille
ĠdÃ©cid Ã©
ĠÐ» Ð¾Ð¶
ĠÐ·Ð´Ð¾ÑĢÐ¾Ð² ÑĮÑı
Ġin vesti
Ġener gia
ur al
Ð¾Ð¹ ÑĩÐ¸Ð²
Ð½Ð°Ñĩ Ð°Ð»Ð°
bi ana
ĠE je
Ġp ill
ĠBor deaux
ĠB lau
mper atur
ĠÑģÐ¾Ð± ÑĢÐ°Ð½
Ġnad al
Ġbef indet
tif icaciÃ³n
ĠÑģÐ²Ð¾ ÐµÐ¼
ill y
Ġtari fs
Ġmeu bles
Ġall Ã¡
Ġad qui
ĠGes chen
ie fe
IN T
Ã¤us er
Ġsyst Ã¨mes
Ġ7 2
l it
ĠBo x
ĠGi useppe
ĠSand ali
Ġu tente
ĠÐº Ð¾ÑĢÐ¼
ĠÐ¿ÑĥÑĤ ÐµÑĪÐµÑģÑĤÐ²
os sen
Ġvelo ce
Ġhoch wer
ĠG ÅĤÃ³w
ks am
Ġjourn al
Ġ5Cu 04
re d
Ġrozpo czÄĻ
Ġpros simo
Ġa meric
Ġtechn ologie
ĠM eine
ĠwÃ¼r den
Ġllam a
wa j
Ġt elle
æ± ł
ãģ® ãĤª
Ã¡c ter
Ġs telle
Ġo kaza
Ġãģ¨ è¨Ģ
Ġt ÃŃtulo
ĠLa ger
Ġp atri
ti mes
k enn
ç¨® é¡ŀ
ĠH eute
Ġc ientÃŃ
è² ¬
ĠBay ern
Ġson st
ĠzamÃ³wi enia
Ġus tal
æĺ ĵ
ĠGeb Ã¤
ĠÃ© cri
ist rut
Ġpos iad
Ġgi ardino
ĠC ouleur
ãĤīãĤĮãģ¦ ãģĦãĤĭ
ĠÐ¾Ð±ÑıÐ· Ð°Ð½
ĠBel gique
la ch
ĠÐŁÑĢÐ¾ Ð¸Ð·Ð²Ð¾Ð´
ĠÐºÐ¾Ð» Ð»ÐµÐº
ĠÐ¿ Ð°Ð»ÑĮ
ri bution
Ġstori co
ãģ®æ ±
er te
Ġwe wnÄĻtrz
Ġè¿Ķ ä¿¡
éģ ¿
į ng
ĠÐºÐ¾ÑĢ Ð¾ÑĤ
Ġse par
Ġau tore
ĠJ este
Ġf ou
Ġdo ll
ro ir
Ġtra fi
ĠÐĵ Ð°ÑĢ
Ġnie co
ord nung
ãĥŀ ãĤ¤
at um
Ð°Ð½ ÐºÐ°
Ġmar co
ĠKar te
ĠÐ¡ÑĤ Ð°ÑĢ
is ant
ĠGe h
Ġprze ch
Ġconc ent
0 1
ç¤ ¼
Ġmo gli
Ġt iá»ĩn
Ġcon vi
ĠR h
Ġ8 6
åı ³
no ch
ĠÐ¾Ð± ÑĥÐ²
ĠmiesiÄĻ cy
Ġre le
ĠÐ´Ð¾Ð¼ Ðµ
Ġm ent
ĠindÃ© pend
o ks
Ġc ob
ĠÐŁ Ð°Ð²
Ð¾Ñĩ ÐºÑĥ
ĠNi estety
4 æľĪ
ech as
iel t
Ð°Ð½ ÐµÐµ
Ġrekl am
å¹´ åº¦
di tos
Ġsta tu
ouch age
Ġdirec tamente
Ġpod pis
ãĤ ¥
Ġlu áºŃt
l itÃ©
Ġfamili as
Ð½Ð¸ÑĨ Ñĥ
Ġnadziej ÄĻ
Ġsco per
iss ances
ĠBen utz
ĠÐºÐ¾Ð» Ð»ÐµÐºÑĤ
Ġwsp ania
Ð¸ÑģÑĤ Ñĭ
Ġprodu c
wo li
owa ÅĦ
Ġins gesamt
Ġprop res
Ġcour t
ĠD az
Ġnajlep iej
Ġfre qu
a ten
Ġb az
ĠSal a
ta urante
ÐµÑĢ Ñĥ
Ġcomen zar
mi i
ĠÑģÐ¾ÑģÑĤÐ¾ÑıÐ½ Ð¸Ð¸
Ġvo ie
Ġh ad
ĠVene zia
Ġtag lia
Ġmont ant
ĠÐ½Ð¾Ð² Ð¾Ð¹
ĠÐºÐ»Ð°ÑģÑģ Ð°
ĠCer ta
Ġk ana
Ġè Į
Ġæ ®ĭ
r ador
ĠS ab
ĠJ ul
f Ã³
ub blica
ĠK osz
Ġza b
Ġãĥķ ãĥŃ
ĠnghÄ© a
ĠW ett
ĠÃ©tudi ants
Ġaff id
Ġg eni
ç¶ļ ãģį
ĠÐ²Ð· ÑıÑĤÑĮ
Ġspe dizione
Ġdi ritti
ĠEncu ent
Ġma qu
Ġapr ender
schaft s
ri re
Ġcon tes
ĠJe go
ãģķãģĽãģ¦ ãģĦãģŁãģł
ãģ£ãģ¦ ãģĬ
Ġc lic
ĠM ostra
Ġsp er
ãĤ¨ ãĤ¢
åĩ¦ çĲĨ
r uf
inn t
Ġd unque
Ġreg ionale
Ġproprie tÃł
ĠAmi gos
li cidad
Ð¸ Ð¾
ãģĦãģ¾ãģĹãģŁ ãģĮ
Ġest Ã¡s
Ġsimple mente
Ġmes a
ĠÐºÐ¾Ð»Ð¸Ñĩ ÐµÑģÑĤÐ²
er z
Ġf rases
ĠS en
P ri
Ġu003 e
Ġsor tir
ãĤĤãģ® ãģ®
ĠPue de
Ġple ine
Ã©ri o
ak tion
ĠS ous
Ã¡ logo
Ġma ins
Ġprincip ale
Ġes encia
Ġmi mo
ĠErfahr ung
ç¸ ¾
ĠÐĴÐµÐ´ ÑĮ
ĠGran ada
ĠÑĢÐ°Ð½ ÐµÐµ
Ġf im
ãģ§ãģį ãģŁ
Ġ6 7
Ġfabri c
Ġm orte
ĠzwiÄħz ane
ĠT al
ĠS uisse
ĠH á»ĵ
ĠÑģ Ð»Ð¸ÑĪÐºÐ¾Ð¼
ĠChar les
ĠÐŀÑĤ Ð¿ÑĢÐ°Ð²
ĠÐ¿ÑĢÐµÐ´Ð¿ÑĢÐ¸ÑıÑĤ Ð¸Ñı
ĠÐ¿ÐµÐ´ Ð°Ð³Ð¾Ð³
Ð°Ð· Ð°
ĠÐ¿ ÑĤ
èį ī
çķ Ļ
mp e
ĠMe d
Ġpol ski
Ġex terior
ĠTe mat
odz iel
Ġung e
ĠCar te
anta ges
ĠÃ©ta is
Ġloca ux
ie d
U M
Ġzu peÅĤ
Ġæ ļ
C M
ĠN go
an ca
ĠeconÃ³mi ca
ĠDesn udas
Ġ\" >
Ġocze ki
ĠÐ¸Ð¼ Ñı
ge ments
Ġd rzwi
ĠRis i
U T
Ġmanif esta
tow ane
ãĤĴ å¾Ĺ
Ġsch Ã¶ne
ĠhÃ¤uf ig
Ð°Ð»ÑĥÐ¹ ÑģÑĤÐ°
ĠÐ· ÐµÑĢÐº
z ze
ĠÑįÐº Ð·
Ġent ender
ĠÑģÑĦ ÐµÑĢÐµ
áº© u
Ġrad io
ĠÐ·Ð² ÐµÐ·Ð´
le ga
a ger
Ð´ Ñĥ
éģ Ĭ
Ġpor tal
ĠmÅĤ odzie
Ġsal a
ĠL AS
Ġtrouv erez
Ġrec ette
ĠdÃ©velo pper
Ġpubblica to
ut ri
Ġza jÄĻ
ÃŃs tico
ÐĽ Ðŀ
ĠÐ² ÐµÐºÐ°
al nej
ãģĿ ãĤĵãģª
Ġï¼ ½
ĠåĬ ł
Ġlat est
ãĥ¼ãĥĢ ãĥ¼
ãĥĭãĥ¥ ãĥ¼ãĤ¹
ĠÄĲ á»©c
Ġcomp lÃ©ment
Ġvuel ta
Ġcin que
ĠM ON
Ġe aux
ĠF enster
I k
Ġdob ra
ane k
Ġaccom pagn
ĠK oÅĽci
ãĤĴ åĲ«
Ġinternation ale
esz ka
ĠJ ap
Ð¾Ð» Ñĭ
gen to
ĠãģĿãģĨ ãģĦãģĨ
ãģĮ å¢Ĺ
Ġfil les
Ġcha uf
Ġ8 9
ĠÐĺÐ¼ ÐµÐ½Ð½Ð¾
cula tion
ĠÐ¿Ð¾ÑĢÑıÐ´ ÐºÐµ
Ġpre ce
ĠÐ¾ ÑĢÑĥÐ¶
Ġz ob
Ġb ÄħdÅº
Ð¼ Ð¾Ð½
Ġæĸ° åĵģ
ç« ł
Ġl iens
å£ Ĭ
eure usement
ĠÐ²Ð°Ð» ÑİÑĤ
ĠÑģÑĤ ÑĢÐ°ÑĤÐµÐ³
P R
ĠÐ¿Ð¾Ð¿ ÑĭÑĤ
Ġ(" #
Ġme chani
ĠÃ©po ca
Ġph arma
ĠM onde
da zione
Ġel en
Ġtr ening
Ġsi x
Ġt wÃ³r
Ġkolej ne
Ġan zi
Ġad d
ar mente
Ġtá» ©
ĠÐ¿ÑĢÐ¸Ð¼ÐµÐ½ ÐµÐ½Ð¸Ñı
ĠFe hler
Ġlu dz
ĠdÃ¼r fen
ĠcinÃ© ma
Ġkwes ti
ĠÑģÐ°Ð¼ Ð¾Ð¹
ãģı ãĤī
é«ĺ ãģı
Ġpozy tyw
un cio
ti dos
ĠErgeb nis
Ã¤t zen
ĠL et
en zia
li minar
æĻĤ ãģ¯
ãģ®ç ¾
bex _
in ts
Ġval ores
ĠÐ³Ð¾ÑĢ ÑıÑĩ
de ment
Ġin nym
ti endo
ĠG ente
Ġv entas
Ġsu puesto
ĠF it
Ġvo ya
æĭ ł
ĠEr st
Ġsch reiben
ĠÑģ Ð°Ð½
ec u
ĠWo j
Ã Ļ
Ã© t
Ġpodr Ã¡s
Ġp si
Ġeconom ÃŃa
ĠKomm unika
Ã¡ veis
Ġil oÅĽÄĩ
ĠÐ´Ð°Ð½ Ð½ÑĭÐ¼
ÑĭÐ² Ð°Ð½Ð¸Ñı
ĠÃ¼ber haupt
Ġde in
Ġauf grund
kt ury
Ġal quiler
Ġexpos ition
la Ã§Ã£o
Ġg oÅĽci
ĠP ues
Ġb anda
ãĥĪ ãĥŃ
sz enie
ÑĥÐ» Ð°
Ġse pt
ĠTut to
Ġros so
Ġpri me
Ġ\" ,\"
Ġwysz uki
ĠFran cia
ĠprÃ©sent ation
Ġc oupe
ĠA F
s itÃ©
Ġnajm niej
Ã³ m
Ġprogram mes
Ð°Ð» Ð»
Ġrela zione
Ġconten uti
Ġllam ado
ĠE is
Ġinforma tique
Ġå¤ ı
Ġpe qu
Ġalle z
Ð°Ð» Ð¸Ñı
Ġcal cio
Ġsab ato
gna to
ĠB onne
Ġparfa itement
ĠÐ¿ÑĥÑĤ Ð¸
Ġc n
è ®
Ġdess in
Ġca fÃ©
ow anym
æĶ »
Ġins besondere
ĠE lles
Ġtrova to
ÑģÑĤÐ² ÑĥÐµÑĤ
Ñģ Ñĭ
g ine
Ġdes ap
ĠO der
ĠL eit
ĠBet riebs
ĠQu al
Ġs ÅĤy
Ġng Ãłnh
Ġcre aciÃ³n
ĠEs tos
rit te
ĠÐ² Ð¾Ð²
Ġwor k
ĠVe di
Ġoc chi
era i
Ġchi ff
ĠÃ©qui pes
æ£ ļ
ãĤ¦ãĤ§ ãĤ¢
å¯¾ è±¡
ĠrÃ©p onses
via mente
os en
fi kow
Ġprof il
Ġanni versaire
Ð¾ ÐµÐ²
Ġprog etti
ines e
ĠFahrze ug
ãĤĬ è¿Ķ
f ano
ci ano
we gs
ĠAut res
ï¾ Ŀ
éĬĢ è¡Į
Ð¸ÑĢÐ¾Ð²Ð°Ð½ Ð½ÑĭÐµ
Ġtiemp os
Ġemp fehlen
Ġk osten
to ff
Ġpicco li
en cie
iá»ĩ p
Ġau mento
Ġer ne
Ġm ostrar
Ġpro vo
ĠÐłÐµÑģÐ¿ÑĥÐ±Ð»Ð¸ ÐºÐ¸
ĠÑħÐ¾ÑĤ ÐµÐ»
ĠÐ´ Ð°ÐµÑĤ
ç ı
Ġéĥ ¨
ĠãĤ¦ ãĤ§
Ð°ÑİÑī ÐµÐ³Ð¾
ĠMas ch
ann ten
Ġtari f
ĠÐ¸Ð³ ÑĢÑĥÑĪ
Ð¿ÑĢ ÐµÑģÑģ
Ð¸Ð½ ÐºÐ°
ĠÑĩ Ð¸ÑĤÐ°ÑĤÑĮ
de d
Ġhab la
Ġnot wendi
Ġmode le
Ġbud get
ali zacja
Ġãĥģ ãĥ£
Ġb iá»ĥu
ĠF C
Ġfunktion iert
ĠJ eux
Ñİ ÑģÑĮ
Ð¸ÑĢÐ¾Ð²Ð°Ð½ Ð½ÑĭÑħ
ĠWy b
Ġw obec
ĠR ichtung
Ð¸ÑĢÐ¾Ð² Ð°ÑĤÑĮÑģÑı
Ġman iera
Ġ$( "
ãĤ½ ãĥķãĥĪ
Ġdifer ente
ĠãĤĤ ãģ£ãģ¨
ĠÐ³ ÐµÑĢÐ¾
Ðº ÑĥÑĤ
it ano
Ġpod kre
åķı ãģĦ
ĠÐ¿ÑĢÐ¸ Ð±Ð¾ÑĢ
al nego
åı¯èĥ½ ãģ§ãģĻ
om et
Ġjue ves
f icas
ĠA jouter
ct ro
Ġsecon de
ĠÐµ ÑģÑĤÐµÑģÑĤÐ²
Ġmar cha
Ġer es
m ados
Ġmondia le
Ġro pa
ĠÑģÑĤ Ð¸Ñħ
ĠÐŁÑĢ Ð¾Ð³ÑĢÐ°Ð¼
ĠÐ½Ð¸Ðº ÑĤÐ¾
ãĤ³ ãĥ¼ãĥī
¥½ ãģĹ
ĠTe xt
ĠÐ°Ð» ÐºÐ¾Ð³
Ġjug adores
k rÃ¤
Ġnatur ales
Þ¨ Þ
ĠH á»Ļi
ier ungs
Ġb oule
Ġdistin tos
L 2
Ġzna cznie
ges sen
Ġla isse
Ġco Ã»t
åĪ °
ĠÃ¢ m
ĠÐ£ÐºÑĢÐ° Ð¸Ð½Ð°
ce u
ĠGemein de
Ġbou tique
Ġb ientÃ´t
Ġa it
Ġarri va
Ġcr isi
Ġcom peti
Ġwy peÅĤ
ĠC ada
ĠÐ¡Ð Ĭ
y l
klÃ¤r ung
åĢ «
ãĥ³ãĥ ŀ
ï¼ ¾
è¨Ń ç½®
Ġauto mÃ¡tica
ĠM me
Ġvo ici
Ġpor ter
Ġver a
Ð¸ÑĤ Ð°ÑĢ
Ð°ÑĤÐ¾ÑĢ Ð¾Ð²
Ð°Ð¹ÑĤ ÐµÑģÑĮ
Ġpl antas
ĠMe er
ĠÃ©du cation
ĠÐĵ Ð¾ÑĢÐ¾Ð´
res si
ãģ«å¯¾ ãģĻãĤĭ
w any
Ð°ÑĤÐµÐ»ÑĮ Ð½ÑĭÐ¹
ĠÐŁÑĢ Ð¸Ñĩ
ĠÐ½Ðµ Ð¸Ð·
ĠÐ½Ð°ÑģÐµÐ» ÐµÐ½Ð¸Ñı
Ġg ui
Ġvaluta zione
pozy cji
Ġtr ib
Ġr and
ãģ©ãģĨ ãģĭ
áºŃ m
Ġbudy nku
Ġzro zum
ĠFir men
ĠBes onder
Ñĥ ÑģÑĤÑĮ
Ð³ Ð°Ð»
Ġide ale
ĠIs titu
ĠPres idente
ĠÑģÐ¿ Ð°ÑģÐ¸Ð±Ð¾
Ġgio chi
er ia
Ġco llo
Ġæ £
z co
ĠÑĢÐ°Ð· Ð½ÑĭÐµ
ĠÐ°Ðº Ñģ
iel o
Ġãģł ãģĭãĤī
è± Ĩ
Ġu043 5
ãģĮ åħ¥
Ġfour n
Ġ1 px
ĵ į
os s
ĠE ben
Ġdiri ge
ĠÄĲ Ã´ng
Ð» ÐµÐ²
tr itt
Ġè² ©
Ġæ¶ Ī
á» ³
Ġsk ar
ĠÑģÐ¾ÑĤÑĢÑĥÐ´ Ð½Ð¸Ñĩ
Ð¸ Ð°Ð½
ĠÑĤ ÐµÐºÑĥÑī
åħ «
ĠçĽ¸ åł´
æİ² è¼ī
ĠÐ²Ð¾Ð·Ð² ÑĢÐ°Ñī
ĠmÃ© moire
ĠãĤ¦ ãĤ©
ve d
Ġges ehen
ĠBor sa
wor k
ĠrÃ³Å¼ ne
èĪ ŀ
ĠiP hone
Ġav ance
ĠN E
ĠD A
Ġord in
Ã¼s se
Ġab and
ĠÐ½ÐµÑģÐºÐ¾Ð»ÑĮ ÐºÐ¸Ñħ
ĠD ist
åĩº ãģ¦
ãģ® ãģŁãĤģãģ«
P A
Ġdi ario
Ġmit tel
3 00
ĠdÃ©ta ils
Ġconsi glia
ĠSta d
ÑĮ ÑĪÐµ
de ur
Ġens eign
Ġse c
ĠPri v
ĠC A
Ġentra Ã®
Ġreali za
Ġ\":\" ^
}, {\"
YW1l Ijoi
Ġnie mie
Ð¸ ÐµÐ½ÑĤ
ÐµÑĢÐ¸Ð½ Ð±ÑĥÑĢÐ³
Ð² ÑĭÐµ
Ġm ost
ĠC osta
Ġap re
Ð± ÐµÑĢ
ĠO ra
ĠC AR
Ġenci ma
ĠÑĥÑģÑĤÑĢÐ¾Ð¹ ÑģÑĤÐ²Ð°
zei gt
ĠÐ¸Ð½ Ð¾Ð³Ð´Ð°
z ig
Ġgratu ito
Ġæľ¬ å½ĵãģ«
ĠcomplÃ¨ te
Ġele menti
Ġexemp lo
p rÃ©
å¹´ éĸĵ
ĠÃ©v ent
st ler
ĠX em
ĠÄĳ áº¡t
Ġvo z
ta dor
ĠÐ¡Ð ĥ
Ð¾Ð² Ð¾Ð´
v ola
Ð» ÑĥÐ¶
Ġsicura mente
Ġs ka
ĠgÃ©nÃ©ra lement
Ġaccor do
ĠR us
ĠÐ¸Ð¼ ÐµÐ½Ð¸
yste me
und ert
ĠÑĤÐµÐ» Ð°
ãĥ¼ãĤ¶ ãĥ¼
cor si
» å®ļ
ãģķãĤĮ ãģ¾ãģĹãģŁ
Ġposs iamo
L I
ES S
Ġpicc ola
ĠO l
ub likow
s tar
ĠÑĢÐµÐ°Ð»Ð¸Ð· Ð°ÑĨÐ¸Ð¸
ĠÐŃ Ð½
ĠnastÄĻp nie
ĠÐĲÑĢ ÑĤ
li za
Ġâĺ ı
Å ĥ
Ġrep rez
gie m
Ðľ ÐĲ
ĠÐ½ÐµÐ´ ÐµÐ»Ñİ
Ġg os
Ã£ os
l ak
ĠÐĲÑĢ Ñħ
l ant
ort es
Ġ8 00
ĠÐ½Ð°Ð»Ð¸Ñĩ Ð¸Ðµ
Ġparla re
Ġre par
Ġener gii
cion ados
Ġprin cipe
gen ti
Ġst anno
Ġdru Å¼y
ĠÐ¢ Ñĭ
Ġpo cos
ĠdÃ©velo pp
Ġra ff
Ġth áº§n
Ġani males
L H
Ġu lub
Ġverw enden
use o
ĠL is
Ð¸Ðº Ð¾Ð¼
Ġal ko
Z A
Ġcaratter i
Ġest ra
ĠLi ve
ĠEsp ana
Ġac tri
ĠK ata
an ymi
Ġviol encia
Ġpes os
Ð¡Ð¡ Ðł
Ð°ÑĤÐµÐ»ÑĮ Ð½Ð¾Ð¹
ĠÑģÐ¾Ð·Ð´ Ð°ÑĤÑĮ
Ġal cal
Ġg ordas
ĠInstitu to
ĠÐ·Ð°Ð¿ ÑĢ
Ġcam a
Ã¤nder t
Ġbeau tÃ©
ĠÐļÐ¾Ð¼Ð¿ Ð°Ð½Ð¸Ñı
ĠSer ie
ĠÐ²Ð¸Ð´ Ð¾Ð²
r Ã¼
Ġsuper iore
Ġjorn ada
Ġcontr ario
sa ciÃ³n
roy eur
Ġm ou
ãģ¨ãĤĤ ãģ«
Ġoffi ciel
ĠÂµÃ Ħ
ĠdÆ°á» ¡ng
Ġexper i
Ġgarant ie
Ġdi x
ÐµÑģÑĤ Ð¸Ð²
Ð¾ÑĤ Ð²Ð¾ÑĢ
Ġznaj dzie
ĠÐ¾ÑĤ ÑĩÐµÑĤ
ãģ§ãģį ãģ¾ãģĽãĤĵ
ĠLe er
Ġtrabaj os
ver stÃ¤n
ĠwyÅĤÄħ cznie
ĠÐ±Ð»Ð¸Ð¶ Ð°Ð¹
ta us
Ġdá»¥ c
ÑĢ Ð³
Ġdetta gli
Ġten iendo
ĠãģĿ ãģ®å¾Į
Ġimp re
Ġfun zione
Ġ6 1
or Ã©
Ġrem ise
ala v
ĠMe tall
Ġcha p
Ð¿Ð» Ð°Ñĩ
ĠÑģÐ»ÑĥÑĩÐ°Ñı Ñħ
ĠN icol
ĠÐļ Ð½Ð¸
ĠV este
ĠM essage
y e
cula ire
Ġdiff icol
ÑĦ Ð°
ĠÑħÐ¾ÑĤ Ð¸ÑĤÐµ
Ġgodzin y
æ¸ ħ
åı¤ å±ĭ
ĠÐ¥ Ð¾ÑĢÐ¾ÑĪ
åĪĿ ãĤģãģ¦
Ġemple o
ĠÐľ ÑĥÐ¶
ĠÐ§ Ð¸ÑĤÐ°ÑĤÑĮ
Ġ" ]
ro om
une hmen
Ġutili za
Ġcu á»ĳi
Ġrapp el
Ġavre bbe
Ġory gin
Ġ% .
Ġconse jos
ÅĤa ch
ãĤĤãģ® ãģ¯
Ġliber tÃ©
Ġcategor ÃŃa
Ġbef ore
ç £
Ġgr und
ĠPro v
ĠP uis
ĠÑģÐ¾Ð¾Ð±Ñī Ð°ÐµÑĤ
Ġprze cieÅ¼
ĠuÅ¼ytkow nikÃ³w
ãĥ¬ ãĥĥãĥī
ann es
ĠR am
ĠÃ¡ m
Ġlu jo
Ġliv ro
zie hen
ori os
ĠC E
ĠÐŁ Ð¾Ð±
ĠÐĺ Ñİ
ĠÐ¿Ð°Ð¼ÑıÑĤ Ð¸
gi as
EN TE
Ġpresenta ciÃ³n
ÑĬ ÐµÐºÑĤ
f S
Ġkon cer
Ã©r ences
ĠÐ¿ÐµÑĢÐ² Ð¾Ð³Ð¾
Ad visor
ĠÐ¾Ð±ÑĥÑĩ ÐµÐ½Ð¸Ñı
Ġadel ante
Ġsel ber
Ġmit t
masch ine
za hlen
ĠdÃ©mo cra
ĠdÃ© di
une dÃ¬
ĠrÃ© cup
åı£ ãĤ³ãĥŁ
ãĥĸ ãĥŃ
ĠF ue
st anden
ĠAlle magne
Ð¾ÑģÑĤÑĮ Ñİ
Ð¡Ð ĥ
el ho
ĠÐĹ Ð°Ð´
kar ten
Ġit p
ãģªãģ© ãĤĴ
Ġsupp orto
ä¿Ŀ èŃ·
ĠÐĲÐ² ÑĤÐ¾Ð¼
ĠCh á»§
Ġoc cupa
ĠÐ¿ÐµÑĢÐ² ÑĥÑİ
ÃŃ cias
Ġwo jewÃ³dz
Ġo to
ĠP unkte
ĠrÃ©alis Ã©
Ġcas ero
Ġcar Ã¡cter
Ġprocha ine
Ġpo cz
ãĥ¼ãĤ¹ ãĥĪ
Ġav anti
ĠÐ²ÐµÐ´ ÑĥÑī
ÑģÐº Ð¸Ð¼Ð¸
Ġch Æ°Æ¡ng
pi as
Ġinter ro
Ġnapis aÅĤ
owie c
ĠO ption
Ġa voca
åĪ »
te o
Ġviv ere
or ÃŃa
t ano
Ġent Ã£o
ĠDaz u
Ġaff ec
ĠÑģÐ» Ð°Ð±
ces oria
Ġpien iÄħ
Ġè¡ Į
ni cze
Ġæ² ĸç¸Ħ
Ġåı ¯
ĠUm welt
ĠFuÃŁ ball
itu ation
å¤§ åĪĩ
Ġinsta laciones
ãģĦãģ¦ ãĤĤ
ĠE so
ĠTh omas
ĠMitglie der
ĠÐ¿Ð¾ÑģÐ»ÐµÐ´ Ð½Ð¸Ðµ
Ħ ª
ĠCub a
ri ert
Ġsta ra
V E
ĠÃ© t
ĠS UR
Ġa che
Ã³ le
ĠC R
Ġ200 2
onc tions
ĠA quÃŃ
ĠRab att
Ġlas cia
Ġprofession ale
ĠCon di
Ġapplica zione
Ġver rÃł
çĶŁ ãģ¾
c Ã³n
Ġver ein
ch aÄĩ
Ġv ÃŃa
Ġdecl ar
ĠS aison
ĠÑĢ ÐµÐ¹ÑĤÐ¸Ð½Ð³
Ð¾ÑĢ Ð¸Ð¹
ta bles
Ġli bero
Ġfa vore
ÐµÐ² Ð¾Ð³Ð¾
ĠÐ± Ð¸Ð±Ð»Ð¸Ð¾ÑĤ
pr Ã³
Ġali mentation
Ġ9 8
Ġ8 8
Ã¨ se
ĠÑģÐ°Ð¼ Ð¾
tiv itÃł
ita to
ãģ® ãĤ¹
ĠLie b
tif ier
ĠT á»«
ĠÐĳÐµÑģ Ð¿Ð»Ð°ÑĤ
ĠÐ¤ Ð¸Ð»ÑĮ
ĠÐºÐ¾Ð½ÑĤÑĢ Ð¾Ð»
cyj nym
ĠS telle
ĠI ma
ĠC ulo
ĠP en
is l
ĠÐ¸Ð³ ÑĢÑĥ
ĠtÃ©c nica
Ġre ferencia
Ġb ringt
ĠUnterstÃ¼tz ung
ĠdÃ©couver te
ĠÑģ Ð°Ñħ
Ð¼ÐµÐ½ÑĤ Ð°ÑĢÐ¸ÐµÐ²
M C
ĠP raw
Ãł u
ĠÐ·Ð½ Ð°ÑĤÑĮ
Ġtras forma
ty cznej
nict wo
èĢ ģ
ãĥ³ãĥĲ ãĥ¼
Ġb iblio
Ġå®Ł éļĽ
ĠSand ales
Ġcontri bu
Ð°ÑİÑī Ð¸Ð¼
ĠÐ¿Ð¾ÑģÐ² ÑıÑī
c H
Ġwybra Äĩ
Ġgew esen
Ð¸ÑĢÐ¾Ð²Ð°Ð½ Ð½ÑĭÐ¹
ĠA lla
Ð¸Ð² Ð½ÑĭÐµ
Ð°ÑĤ Ð¾Ð¼
on ce
ki es
ĠÃ©vÃ© nement
ĠÐ¿ÑĢÐµÐ·Ð¸Ð´ ÐµÐ½ÑĤ
Ġper dita
Ã¡n do
ob en
es tion
ĠÐºÐ½Ð¸Ð³ Ñĥ
ĠIn cont
Ġdecis o
Ġcze mu
Ġza trzym
ĠÐ¢Ð°Ðº Ð¸Ð¼
Ġsim ili
Ġbra ucht
Ð¸ÑģÑĤ ÐµÐ¼Ñĥ
ãĥ³ãĥ ľ
ĠCong reso
Ġter mes
Ġaj ud
ĠpeÅĤ ni
ĠCom par
i z
Ġdi ab
end as
Ġf Ãªte
Ġca po
per a
Ġex tran
Ġch aleur
ĠKÃ¶l n
Ġpol it
æĮ Ļ
Ġob ja
ĠAus bildung
Ã¤ ger
sta hl
ĠhÃ¶ ch
4 2
Ġsa int
Ġpart out
Ã³ ÅĤy
ĠÐ¸Ñģ ÑħÐ¾Ð´
ĠÑĢÐ°Ð·Ð»Ð¸Ñĩ Ð½ÑĭÐµ
wnÄħ trz
ero p
ĠZ eich
a ction
Ð¾ÑĤ Ðµ
c ana
an cio
ĠSch lag
ttgar t
ĠEntschei dung
ĠvidÃ© os
IN O
Ġstra te
Ð½ Ð¾Ð´Ð°ÑĢ
ĠÑį Ð¼Ð¾
Ġmie i
Ġso ftware
ĠÐŀÑĢ Ð³Ð°Ð½
Ġvo ce
ctri que
Ġde mi
Ġdimen sioni
czÄĻÅĽcie j
ĠÐĲ Ð¼
ĠÐºÐ¾Ñģ Ð¼ÐµÑĤ
ç¸ ®
Ð½Ð¸Ðº Ðµ
Ġf lu
ç§ °
p lay
ĠWar um
Ġc ach
ĠÐ¿ÑĢÐ¸Ñĩ Ð¸Ð½
ĠÐ²ÐµÑĢ Ð¾
ĠL Ã¶
Ġal can
Ġapplica tions
ĠS icht
Ġo vvero
ĠP aw
ĠB ia
Ġ( -
Ġwar szta
Ġroz p
Ġcompromis o
Ðļ Ðĺ
Ġpiel ÄĻ
ĠÐ¿ ÑıÑĤÑĮ
ĠEncont rar
ĠvÃŃ c
ĠDaten schutz
sch au
ĠMar c
Ġdou che
ni er
Ġa cier
è¿½ åĬł
op le
ĠSchlaf zimmer
s uch
ĠK siÄħÅ¼
tow ym
Ã¨ che
Ġv aleurs
ÐµÐº Ðµ
Ġf atti
Ġpla ces
Ġt Ã£o
er y
Ġzoba czyÄĩ
Ġobje to
da te
Ġg est
ç´ Ķ
Ġfre und
ĠdÃ© fin
ig u
Ġluch a
Ġnivel es
Ġherrami entas
ÐµÐ´ ÑĢ
ĠÑį Ð¼
ĠÐºÐ¾Ð½Ðº ÑĥÑĢ
ãģĶ ãģ¨
Ġpl ane
OR I
Ġsing le
Ġander em
ig ar
Ġpubb lici
ĠCh ies
ĠW Ã¤hrend
W I
Ġreg ul
Ġch á»©
Ġca ta
Ġartis an
Ġv entes
Ġf lo
Ð¸ÑĤÐµÐ»ÑĮ Ð½Ð°Ñı
Ð´Ð° ÑİÑĤ
Ġãĥ» ãĥ»
çµ µ
ãĤĴè¡Į ãģĨ
ãģ® ãĤµ
ĠÑĤ Ð°Ð¹
åĪĨ ãģĳ
Ġb ri
un itÃł
ä¼ģ çĶ»
Ġa jou
ĠÐº Ð°ÑĦ
Ġpre p
Ġch cesz
ī å¼·
éĩĳ é¡į
åĪ ¸
ang es
ÑĨÐ¸Ð¾Ð½ Ð½Ð¾Ð¹
ĠÐĵ Ð¾Ð»
Ġat tri
Ġc áº¡nh
ĠM Ãªme
ĠÐ´ÐµÑıÑĤÐµÐ»ÑĮ Ð½Ð¾ÑģÑĤÑĮ
ĠÑĪÐºÐ¾Ð» Ñĭ
tica mente
heit en
ĠÐ·Ð°ÐºÐ°Ð· Ð°ÑĤÑĮ
ĠÑĢ ÐµÐ¼
ĠÐ¿Ð¾Ñħ Ð¾Ð¶
at Ã³w
D I
Ġri fi
k g
ĠÐ´Ð¾ÐºÑĥÐ¼ ÐµÐ½ÑĤÑĭ
Wx s
Ġin nego
ĠÐŁ Ð¾Ð¿
Ġjo go
èĩ Ń
ĠâĢ¦ ãĢĤ
æİ¢ ãģĹ
( ^
Ġãĥ ł
ĠNach richten
Ġref us
Ġrin no
r Äħ
ĠÐĹ ÐµÐ¼
pon di
Ġraggiung ere
Ġnie wiel
N H
Ġ Ã¡o
Ġado re
âĢ¦ ]
ãģ® å®Ł
Ġå¤ ľ
pp ing
Ġappro che
ĠT á»ķng
re icht
ĠChr ist
Ġper dre
la nge
ĠF abri
Ġn este
uss ie
Ġins tytu
äºº éĸĵ
ä¸Ģç·Ĵ ãģ«
Ġal gu
ĠÄĳo Ãłn
ĠF und
ãģªãģı ãģ¦ãĤĤ
Ġbus can
ci das
cul os
ĠvÃ©hic ule
ia t
Ġer sch
Ġassol uta
ten do
Ġarri vo
èħ ¹
Ġpom aga
ĠBei m
ĠÐ¿Ð¾ÑĢ Ð°Ð¶
z ji
ÐµÑī ÐµÐ½Ð¸Ñı
ĠAy untamiento
ĠNicol as
Ġac to
ĠHo teles
Ġun idad
Ã¼ck en
Ġretr ouve
Ġp au
na t
Ġenferme dad
ĠS iamo
Ġtec nico
çĸ ĳ
ĠSec ondo
Æ ¯
l Ã¶s
Ġtrans f
ĠÐł ÐµÐ·
ĠÐ²ÑĢÐµÐ¼ ÐµÐ½
Ġno c
ç¾İ åĳ³
Ġï¼ Ĳ
Ġm s
Ġè£ ½
æĤª ãģĦ
åĬ Ł
á»§ y
Ġdeut sche
Ġsa Ãºde
Ġsi gna
Ġde fin
ĠÐĿ Ð°ÑĤ
ĠÐĹ Ð°Ð²
ĠÐ¿ÑĢÐ¸Ð¼ÐµÑĢ Ð½Ð¾
Ġinver siÃ³n
Ġin trodu
wus st
Ġjaz dy
O d
Ġjedno czeÅĽnie
ĠCas as
ier to
Ġæ ¤ľ
Ġåĩº ä¼ļãģĦ
å¿ Ĺ
Ġcon ex
k rank
Ġexcell ent
Ġwyso kiej
ÃŁ t
éĢ± éĸĵ
ĠNo t
äºº ãģ§
ĠNg Ãły
m ne
Ġsur pr
Ġinf os
ĠeconÃ³mi co
gru ppe
Ġder riÃ¨re
ĠÐ¼ÐµÐ± ÐµÐ»ÑĮ
ĠÐ´Ð¾ÑĢ Ð¾Ð¶
Ġsimp les
ãĥ« ãĥ¡
0 7
Ġce pendant
ä½į ç½®
ĠGe m
Ġbas se
ÐĴ Ðŀ
ĠÑĢÐ°Ð½ ÑĮÑĪÐµ
Ġk oÅĽci
Ġt Æ°á»Łng
ĠAd resse
Ġdoc umento
Ġcent ral
ĠHa ar
ĠLeist ungs
Ð½ ÐµÐ¿
ĠÑĩ ÑĥÐ´
Ġs ow
ĠÐĲ ÐºÑĤ
Ñ ĵ
Ð»ÐµÐ½ Ð½ÑĭÐ¹
ĠS ci
m ine
Ð²ÐµÑģÑĤ Ð¸
ĠÑħ Ð¾Ð´Ðµ
Ġbede utet
ĠrÃ©alis ation
ÅĤ on
Ã³ sito
Ġposs Ã¨de
Ġpor table
ĠÐºÑĢÐ¾Ð² Ð¸
ĠÐ±Ð¾Ð»ÑĮÑĪ Ð¾Ðµ
va cy
Ġrisor se
Ġca pelli
Ġamp io
p Z
Ġw ita
ãģĶãģĸ ãģĦãģ¾ãģĹãģŁ
ãģ¿ãģŁãģĦ ãģª
ĠãĤ· ãĥ«
è ¤ĩ
Ġmodi fier
Ġâ Ĥ
ĠÐ¼Ð°ÑĤÐµÑĢÐ¸ Ð°Ð»Ð°
ÑģÑĤÐ²ÐµÐ½ Ð½Ð¾Ð³Ð¾
Ġsp ese
ca mi
min ist
Ġreali zado
Ġdor mi
ĠJu lio
Ġv id
Ã©r itÃ©
ĠÐŁ Ð¾Ð²
ĠÐľ ÐµÐ½
áº µ
Ġpo tent
Ġpa cientes
Ġfam iglie
ãĥĨãĤ£ ãĥ³ãĤ°
ist Ã³w
ãĤ± ãĤ¢
ãģ®ç ·
Ġdistin tas
Ġop in
Ġjo li
ĠRo y
ĠÐ½ÐµÐ¾Ð±ÑħÐ¾Ð´Ð¸Ð¼ Ð¾ÑģÑĤÐ¸
ĠÐ¼ Ð¾Ð·
ĠÐ» ÑĮ
ion o
Ġs om
ĠMona te
ĠãĤ¹ãĥ¼ãĥĳ ãĥ¼
Ġç· ı
æŀ Ĺ
ĠHand y
ri gen
ĠÃŃ t
ĠF ait
Ġdire cto
ba ck
ĠUnternehmen s
ĠF ak
ĠpolÃŃ ticas
Ġen viar
iss ante
Ġzesta w
organi z
Ġèª °
Ġçī ©
Ġcl ara
ĠEs cri
ĠEr satz
Ġjewe ils
Ġprin ci
ĠÑģÑĥÐ´ ÐµÐ±
ĠÑģÑĤ Ð°Ð´
Ġp Ã©r
ĠKre dit
Ġn esta
ï¼ ¬
Ġåıİ ç´į
ĠãĤªãĥ³ ãĥ©ãĤ¤ãĥ³
ĠespaÃ± ola
ĠÐ¿ÑĢÐµÐ´Ð¿ Ð¾Ñĩ
ken nen
Ġsecon d
Ñī Ð¸ÐºÐ¾Ð²
Ġservi Ã§o
ĠAle m
Ġcompos to
or u
Ġ Ï
å®ī ãģĦ
Ġf aute
Ġcon sa
ãĥ¼ãĥĬ ãĥ¼
ãĤ¸ ãĤ¢
Ġcommer cial
ĠÑĨ ÐµÐ½ÑĤÑĢÐ°
ger Ã¤te
Ġb all
ĠM eth
c Ã©s
Ġli Ã©s
g re
Ġb our
Ġanci enne
ĠÐľ Ð¾ÑĢ
Ġgiov ane
ĠbÄĻdzie my
od ni
Ġris par
ia m
ãģĭ ãģ¨
ĠÐ±Ð°Ð½ Ðº
ĠPow er
Ġwar um
Ġrice vere
åŃĲ ä¾Ľ
ÐµÐ² Ð°Ñı
ĠMont rÃ©al
ĠDerni Ã¨re
ong e
ĠÐ²Ðº Ð»Ð°Ð´
Ð¾Ð² Ð¸Ñĩ
ĠÐŁ Ð¾Ð½
ĠÐ´Ð°Ð½ Ð½Ð¾Ð³Ð¾
Ġmateria le
AN S
ĠnÃ©ces saires
Ġd on
Ġfun ciones
ĠSt rom
Ġ[ âĢ¦]
Ġar ticoli
ĠL eu
ta in
ĠÐ²Ð¿ ÐµÑĩÐ°ÑĤ
ĠÐ¼Ð½Ð¾Ð¶ ÐµÑģÑĤÐ²Ð¾
ãģ® ãĤ¨
ĠPer Ãº
Ġau ton
Ġcl ases
Ġx á»Ń
Ġouv rir
Ġer reur
ĠP ic
e le
Ġde k
Ġquestion e
ĠN ombre
auto maten
ĠIde e
ĠÐĴÐ¸Ð´Ðµ Ð¾
ĠÐ·Ð°Ñī Ð¸Ñī
Ġ ãģĦãģĦ
ç© ´
ĠJ orge
ĠM ic
Ġp ais
h inder
Ð² Ð¾Ð¹
ĠÐŁÐ¾Ð´ÑĢÐ¾Ð± Ð½ÐµÐµ
ĠÐ½ÐµÐ¿ Ð¾ÑģÑĢÐµÐ´
Ġca ÅĤej
ĠCha que
r ych
ãģ® é«ĺ
Ġtá»ķ ng
Ġcomp on
Ã¤ tig
Ġi eri
ĠR ag
sa zione
Ġç ²
èĦ Ĥ
åºĹ èĪĹ
ĠÐ» ÐµÐ¶
Ġri du
Ġin da
ä¹Ĺ ãĤĬ
mÃ¶glich keiten
ĠSch o
Ð² Ð¸Ð³
Ġpis o
Ġg a
Ġregar der
Ġcol om
Ġvia jes
ĠO st
ĠÑĢÑĭÐ½ ÐºÐ°
Ġalgum as
ĠBl ut
ĠÐĸ ÐµÐ»
ĠmÃ©th ode
ain es
ĠÑĪ Ð°ÑĢ
ãĥĳ ãĥĥãĤ¯
Ġau rez
ãĤ¸ ãĥ§
Ġngu á»ĵn
Ġadministra tion
Ġterm ini
Ġrend u
ĠÑĤ Ð¾Ð¹
Ġme ist
Ġmessa ges
aria t
ĠhÃ©si tez
Ġza czÄĻ
Ġæķ Ļ
ĠNutz ung
ĠÐ¾ÑĤÐ½Ð¾ÑĪ ÐµÐ½Ð¸Ð¸
Ġse zione
ĠG rigio
ga te
Ġrice v
Ġmo tor
ĠãģĿãĤĮ ãģ«
Ġv m
Ġç¶ļãģį ãĤĴèªŃãĤĢ
Ġarri ver
Ã¨ ces
Ġma je
ĠåĲ Ī
ĠÐ½ÐµÐ´ ÐµÐ»Ð¸
ãģ¨æĢĿ ãģ£ãģ¦
çľ ł
Ġiden tific
ĠÐ¸ÑģÑĤ Ð¾ÑĢÐ¸Ñı
Ġpowin na
ĠP ap
ĠSch ritt
haus en
ĠEnt wick
ĠGr oupe
ĠB ern
Ġeffectu er
Ġb ande
ĠDeut schen
ĠÐ´Ð¾Ð³Ð¾Ð²Ð¾ÑĢ Ð°
ĠÑģÐ¾Ð± Ð»ÑİÐ´
ĠUni wersy
ĠBan co
Ġvis it
ĠRÃ©s ul
c ount
Ġéħ į
ĠåĨ Ĩ
çĻº éĢģ
æľī åĲį
na ires
Ã¤ hl
ĠNh áºŃt
Ġpotr Ãł
Ġqui Ã©n
Ġp ena
ĠÑĢ ÐµÐ²
Ġj ard
Ġou tre
ĠMi eszk
ĠM ari
prÃ³ cz
ĠÐĵ Ð¾ÑģÑĥÐ´Ð°ÑĢ
ÑĢÐ¾Ð¿ ÐµÐ¹
Ġge m
Ġfich iers
ĠW ahr
ist ente
Ġinfor me
m adz
ĠRo t
ĠR Ã¤
Ġparti ta
Ġa un
ll s
Ġmieszk ania
Ġak cji
ĠKaÅ¼ dy
ĠÐ¿ÑĢÐ¸ÑĢ Ð¾Ð´
Ġop ere
ãĥı ãĤ¤
Ġr á»Ļng
Ġges agt
ĠÑĨÐµÐ» Ð¾Ð¼
ĠF oro
ĠÑģÐµÐ¼ ÑĮÐ¸
ĠcÃ© lÃ¨
ĠA gen
ĠChies a
Ġestre llas
ĠMÃ¶glich keiten
ĠÐ¿ÐµÑĢ ÐµÑģÑĤ
zz ano
ti llo
ĠMod Ã¨le
ĠÃ© vo
ĠÐ²Ð»Ð°Ð´ ÐµÐ»ÑĮ
Ġw Äħ
Ġto talement
ĠKir che
Ġrit ro
on ic
ĠMoÅ¼ na
Ġpr Ãª
Ġç İ
Ġsu erte
Ġrespons abilitÃ©
Ġmis es
ĠFir ma
Ñı ÑĢ
Ġapp ara
ĠÐ¡ Ð¸Ð¼
Ġi po
Ġpre Ã§o
h as
å°Ĥ çĶ¨
ĠRei he
Ġpu ta
ĠRad io
Ġmol ino
Ġesta ban
ont Ã©
ol ie
m ise
fÃ¼ hren
Ð¶ Ð¸
Ġw idaÄĩ
Ġrodzin y
å®¶ æĹı
is tico
ka Äĩ
um entos
ei gen
ĠÐ§ ÐµÑħ
Ð¸ÑĢÐ¾Ð² ÐºÐ°
Ġretr ouv
ite z
ĠÐ´Ð¾Ð² ÐµÑĢ
GV y
Ġpoziom ie
ĠprÃ¤ sen
ĠÐĳ Ð°Ð»
Ġg ame
Ġper fil
ani que
u Ã±a
Ġprue bas
ĠTe x
ĠmoÅ¼ liwe
Ġpas so
ç± į
ĠR hein
ĠMen sch
Ð¸Ð½ Ð´
Ð°Ðº Ð¾Ð¼
zia li
Ġlu áºŃn
Ġod bior
Ġwy ja
Ġnego cios
ak et
beding ungen
ĠrÃ©s ol
ĠX X
Ġsu cht
åį Ĵ
ĠKin dern
esso re
ĠN U
con i
Ġfran ces
Ġc rit
ĠN om
Ġu003 c
Ã© der
t ny
Ġèħ ķæĻĤè¨Ī
Ġtr ue
éĢģ ãĤĬ
Ġtwar zy
sz to
ĠporÃ³w n
Ġg á»ĵm
z ub
ĠPla ta
ĠCo Ã±o
bi os
n om
iss es
ten ido
ĠP M
Ġmar tes
ĠÐł Ð¾Ð´
æĬ ¼
na ch
Ġobjec tifs
ãĥ© ãĥ³ãĤ¯
ĠA zul
ngen ier
ĠE del
ĠB ack
Ġ/ ">
ĠÐ´Ð¾ÑģÑĤÐ°Ð² ÐºÐ°
ĠÑĤÐµÑħ Ð½Ð¸ÐºÐ¸
Ð¼ Ð°ÑĢ
ãĤı ãģļ
Ġre chts
er vi
ĠÑģ Ð¸ÑģÑĤÐµÐ¼Ñĥ
rÃ³ ciÄĩ
leist ungen
g ere
ĠÐ¿ÑĢÐµÐ´Ð»Ð¾Ð¶ ÐµÐ½Ð¸Ñı
Ġcontra tto
dzie la
ĠB elle
ĠAn ti
ĠÑĤÑĢÐµÐ± ÑĥÐµÑĤÑģÑı
enden ti
Ġus e
is h
000 åĨĨ
ãĤĤãģ® ãģĮ
Ġus ine
Ġminim um
ent ino
ĠDi men
IN I
Ġmode lli
ten za
Ġpreve de
Ġ ï¿¥
Ġãĥķ ãĥ¬
anz as
ĠH ans
ver ein
ĠTeil nehmer
b ÄĻ
ĠéĿ ŀ
ti enten
Ġlit tÃ©ra
Ġse lecciÃ³n
Ġmem oria
s as
ĠÐŀ ÐºÑĤ
Ñĩ Ðµ
Ġhab ÃŃan
Ġ] ,
ĠÃ® le
Ġza tem
Ġwers ji
Ġprzy zna
en k
ĠF Ã¶rder
Ġgesch rieben
çĦ¼ ãģį
ãģĭãĤī ãĤĤ
Ġb lau
ĠSpielothe k
B ay
Ġl ud
ie fer
Ġna he
ĠÐ¿ ÑĥÑģÑĤ
çµĤ äºĨ
ĠEs pagne
Ġv illa
Ġl Ã¡
ãģĲ ãĤīãģĦ
ãĤ¦ ãĤ£
ĠÐºÑĢÑĥÐ³ Ð»
ãĥ¦ ãĥĭ
ÑĢÐ¾ ÑĪ
t ono
ĠdostÄĻp ne
Ġus er
çĪ ¶
Ġè²© å£²
ãĥ³ãĥ Ŀ
Ġs etzen
te llen
ĠÑĦ ÑĢÐ°Ð½
ãĤ¸ ãĥĬãĥ«
ĠâĢ ķ
åĳ Ĥ
c Ã©es
ĠMon tag
b ec
Ġ8 3
Ġi denti
Ġfa ite
Ġz da
Ġthu Ãª
ver gleich
ä»¥ ä¸ĭ
ĠprÃ©sent er
ĠNa zionale
º éºĹ
ĠO ffer
Ġimp osta
ist Ãªncia
Ġroz miar
Ġen torno
gang en
Ġinteres ante
ĠP ad
Ġæ´ Ĺ
U rl
ĠpolÃŃ tico
ĠEst as
ĠÐ½Ð°ÑģÑĤÐ¾ÑıÑī ÐµÐµ
Ġjeste ÅĽ
Ġass istenza
Ġfru its
res sione
Ġxu á»ĳng
ĠCali ente
ĠAma teur
Ã¡n chez
lic Ã³
ĠG al
Ġsu kien
Ġr ow
Ġim g
Ġgewor den
kow ym
di re
ĠA st
Ġr od
ĠS ign
ca ire
Ġna issance
ãĤ· ãĥ¥
Ŀ éĽ¢
id ÅĤ
Ġde me
ĠÐ´Ð¾Ð» Ð³Ð¾
Ã¡s tico
ĠÃŃ n
Ġè² »çĶ¨
Ġerfolg reich
Ġconte mpora
ĠPrÃ©s ident
ĠÐŃ ÑĤÐ°
Ġro b
Ġla ut
ad Ã©
Ġrec onn
ĠK rÃ³
ĠLÃ¶s ung
res e
tta re
ĠBas is
Ġrela Ã§Ã£o
ĠMon at
Ġpri vÃ©
Ġç Ł³
Ġel se
ĠÐĺÐ² Ð°Ð½Ð¾Ð²
ĠÐ´ Ð¸Ð²
AT A
ĠI talie
ĠÐ°Ð²ÑĤ Ð¾Ð±
ĠE conom
Ġpia zza
ãģª ãģģ
Ġnecess itÃł
ty ku
ĠÑģ Ð¾Ð·
ãģ®åľ °
am ica
Ġl ont
Ġtom a
ĠBeit rÃ¤ge
k Ã¼
ĠGu ide
ĠÃ©valu ation
Ġmod ern
ck ich
ĠA mm
ĠT os
ĠC ina
Ġph Ã¹
ĠÐŁÑĢ Ð¸Ð²
ĠÑģÐ¸ÑģÑĤÐµÐ¼ Ðµ
Ġh echos
Ġgar der
Ġde ver
ĠRet our
ĠLiv raison
ini um
Ġsa uf
il er
Ñĥ Ð¿ÑĢ
titu ciÃ³n
este llt
Ġfam illes
Ġbekom mt
ĠÐĴ Ð¸ÑĤ
ĠÐº Ð°Ð¶ÐµÑĤÑģÑı
ãģĭ ãģ£ãģ¦
rar se
li gen
Ġd Ã¹
ĠÑįÐ»ÐµÐ¼ ÐµÐ½ÑĤ
ĠÐ² Ð²ÐµÐ´
ĠwspÃ³ÅĤpra cy
Ð°Ð½ Ð½Ð¾Ð³Ð¾
Ġspe ciale
w ÄĻ
k owaÄĩ
ĠSpiel en
Ġra ggi
f eito
ĠLa urent
di os
ãģ ĩ
ãĤ¦ ãĥ³ãĥī
ĠnÃ³ s
Ġw ÅĤad
ĠÑĤ Ð¾ÑĩÐºÐ¸
6 7
ĠI f
ĠN Ãº
rÃŃ guez
Ġcent ros
Ġ Ĉ
æİ ¨
le a
ĠÑģÑĤÐ¾ Ð¸Ð¼Ð¾ÑģÑĤÐ¸
Ġcir cu
onn Ã©es
Ġrais ons
ĠÐŀ ÑģÑĤ
m lich
ĠPon ad
Ġpri vÃ©e
Ġcar ga
åł± åĳĬ
ĠÐļÐ¾Ð¼ Ð¼ÐµÐ½ÑĤÐ°ÑĢ
Ð¼ÐµÑĢ ÑĩÐµÑģÐº
lis te
Ġla it
Ġf iche
Ġge d
ĠW olf
Ġd pa
Ġt ellement
st ieg
Ġpen ser
rod ze
Ġses iÃ³n
Ġmar cas
ĠDi nge
ĠTrab ajo
Ġsuper fi
ĠÑħÐ¾Ñĩ Ñĥ
ĠÐĿÐ¾Ð² Ð¾ÑģÐ¸Ð±Ð¸ÑĢ
Ñį ÑĦÑĦ
Ð¾Ð²Ð°Ð½ Ñĭ
owa ÅĤy
ĠÃ¡ gua
Ġch ans
Ġjus tice
ĠÑĢ ÑĥÐ»
Ð°Ð» Ð¸ÑĤ
ĠÐŁ Ð¾ÑĢ
Ġper fek
ĠM use
ĠÐ¿ÑĢÐ¾ÑĨÐµÑģÑģ Ðµ
Ġma ga
ĠWWW _
ĠUS D
sp l
ich ert
ãģ« ãģĹãģŁ
ĠSain te
Ġinter ven
ĠS im
se m
prow adza
âĢ ķ
Ġãģ¨ ãģ¦ãĤĤ
Ġpole ga
ĠÐ½ Ð¸Ð¼Ð¸
ĠÐ¼ Ð³
ãģĹãģ¾ ãģĹãĤĩãģĨ
Ġ6 00
Ġi ba
Ġcommun es
Ġch ien
ĠF aire
ĠB E
Ġein igen
ĠÐ¶ÐµÐ½Ñī Ð¸Ð½Ñĭ
vi Ã³
Ġde lika
Ġ7 3
ĠV AT
ĠÐ¿Ð¾Ð¿ Ð°Ð´
ĠÐ²ÐµÑĢÐ¾ ÑıÑĤ
Ġpol skich
g ety
Ġmak e
Ġbo hater
ĠN owy
za Äĩ
v amo
e ÅĦ
Ġza jm
ta menti
ra ta
Ġç Ĥ
Ġå ¦
è¿ °
las h
ĠÑĥÑĩ Ð°ÑģÑĤÐ²
ir se
pr Ã¤ch
Ġdifficol tÃł
cz noÅĽÄĩ
hÃ¤lt nis
Ġmilli ards
ĠM om
vol le
ĠÐ¿Ð» ÑİÑģ
ĠÑģÐµÐº ÑĢÐµÑĤ
Ġg Ã¡i
Ã ¿
Ġm Ã´
ĠÐ¿Ð¾Ð²ÑĭÑĪ ÐµÐ½Ð¸Ñı
ĠTh Ã©
Ġ" >
Ġchois i
ĠÐºÑĢ Ð°Ñı
Ġarri vare
lÃ© m
ĠÃ©lectr onique
t ino
Ġni mi
Ġvergang enen
Ġlá»Ľ p
Ġcent rale
Ġinsta ller
jou x
Ġmas zyn
Ġby li
ĠÑģÑħ ÐµÐ¼
ĠÃ© mo
ĠÑģÐ¸ÑĤÑĥ Ð°ÑĨÐ¸Ñı
ĠOff i
ĠKli ma
ĠÐ¿Ð¾Ð¶ Ð°ÑĢ
ĠD ol
Ġri Ãªng
Ġpron to
wei le
Ð¾Ð³ Ð¾Ð´
ĠSter ne
ĠNa tale
le tti
K O
Ġri pr
ve aux
Ġg al
ĠÑģ Ð¾Ð¶
ãĥģ ãĥ§
Ġh ow
Ġpregun tas
wi esen
itz er
u ty
ĠÐĴ Ð¾ÑģÑĤ
ĠAbb iamo
M O
Ġs ale
Ġen ca
Ġfor mes
ĠAu teur
graph ique
f ragen
ãģ¯ ãģĤãĤĬãģ¾ãģĽãĤĵ
ĠÐ¾ÑģÑĤ ÑĢÐ¾Ð²
Ġc um
Ġfi gli
Ġevi tare
ĠA lÃ©m
i va
am p
Ġgr Ã¼n
Ġtrava ille
Ġ9 3
is tique
ain t
ta ment
pe k
ĠãĤĦ ãģ¯ãĤĬ
éŃ ļ
Ġmo tivation
Ġè¡ ¨
51 bG
5 k
Ġprz esz
ãģ¨ãģį ãģ«
ĠC Ã¡
ĠA gu
ĠRod rÃŃguez
ĠÃģ ng
Ġreg istro
ĠÄĳá»Ļ c
ĠIm mobilien
ĠWo jewÃ³dz
ÅĤ ka
Ġobje tivos
Ġpe ople
ĠEn d
Ġba ins
ach sen
N I
op y
Ġza gro
Ġå°ĳ ãģĹ
è¡ Ľ
... )
Ġgen ug
Ġcon vin
Ġro ma
Ġni ente
Ġesigen ze
Ġcine ma
Ġma ggiori
Ġtor n
ĠPre mier
ch ant
6 3
ĠÐ±Ñĭ ÑĤ
Ðµ Ð¸
ĠÐĳÐµÐ» Ð°ÑĢ
ĠprÃ©cÃ©d ent
ĠÐ²ÐµÑī ÐµÑģÑĤÐ²
æĻ ®éĢļ
åī Ĭ
ĠMein ung
Ð¾ÑģÑĤ ÐµÐ¹
Ġen tier
ĠcrÃ© Ã©
Ġtrans por
ãĥĥãĤ· ãĥ³ãĤ°
ãĥª ãĥ¥
me ub
é£ ¾
Ġv end
ĠÑģ Ð¾Ð³Ð»Ð°ÑĪ
Ġd ownload
ĠI r
ĠÄĲ á»ĵng
Ġent halten
ãģ®å ¸
Ġx in
met ro
Ġvia jeros
ĠSicherheit s
ĠÑĢÐ°ÑģÑģ ÑĩÐ¸ÑĤ
ĠPra xis
Ġconfor table
Ġoeu vre
ĠÐĶ ÐµÐº
ĠÐ´ÑĢÑĥÐ· ÑĮÑı
° åĽ²
ĠL iste
Ġpowin no
æĢĿ ãģĨ
ãĥ¡ ãĥ¼ãĤ«ãĥ¼
ĠÑĩ ÑĥÑĤÑĮ
Ġve de
Ġso ggetti
Ġdz ia
ĠZ ach
ĠmÃ© tier
Ġatten dre
ig ner
ĠÐ¿Ð¾Ð´ ÑĢÐ°Ð·
Ġzap ro
åĤ ·
ig keiten
Ġcono cido
ĠPa ese
Ġpra k
ÑıÑī Ð¸Ðµ
ĠrÃ© par
ĠpoÅĽ wiÄĻ
ĠO ct
Ġconsom ma
ĠamÃ©rica in
col at
Ġconfi anza
ÅĤo ÅĦ
ĠÑĤÑıÐ¶ ÐµÐ»
ĠV all
Ġpartici per
rer as
ĠÐ·Ð°ÑıÐ² Ð¸Ð»
è¿Ķ ä¿¡
åī¤ å¸«
å¿ ĺ
ĠTh á»ĭ
A n
Ġeben so
ãĤ³ ãĥ¬
Ġç§ ĭ
Ġåį ³
ãĥĹãĥ¬ ãĤ¼ãĥ³ãĥĪ
ĠãĤ« ãĥ¼ãĥī
Ġåħ¨ åĽ½
os as
ĠStra ÃŁen
Ġm Ã´i
Ġf roid
ĠJa vier
Ġresul ta
m 51bG
Ġklu cz
æİĽ ãģĳ
Ġ= =
**** ****
Ġdom icilio
Ġcas as
ĠDesarro llo
est ro
Ġbeste hen
ĠÑĦÐ¸Ð»ÑĮ Ð¼Ñĭ
ĠÐļÐ°Ð· Ð°Ñħ
Ñı ÑİÑĤÑģÑı
Ġfer me
Ġconcur r
Ġcaract Ã¨re
Ġx videos
ĠM unicip
enez ol
Ġ2 C
ĠN IE
å£² åį´
å¦ »
mF s
Ġuzy sk
Ġinvest issement
P ar
Ġl Ã£
ãģĭ ãĤĬãģ¾ãģĻ
ï¼ ¦
Ġconf ig
å¼ ¾
va tions
ĠÑģÑĤ Ð¸Ð»ÑĮ
ĠÑģ ÐºÐ°Ñĩ
ĠÐ²Ð¾Ðº ÑĢÑĥÐ³
an cias
ĠChate ar
ãĤĴæ ıĲ
OR M
Ġsoli ci
Ġjak oÅĽÄĩ
Ġpesso a
ud Wxs
bi es
Ġse ction
ĠgÃ© o
ĠK os
Vs b
Ġdro gi
Ġ() {
en y
ãĤĴ ãģĹãģŁ
ĠCom isiÃ³n
le o
ĠÑĥÐ¿ Ð¾ÑĤÑĢÐµÐ±
Ġpow od
ãģ®å ķıé¡Į
f ter
Ġli qu
Ġapp elle
ĠGr Ã¢ce
ĠL etz
ĠÃ Ľ
Ġv áºŃn
sz eit
ĠÐĴ Ð½
Ġeks per
ĠÐ£ ÑģÐ»
Ð¿Ð» ÐµÐºÑĤ
ra ges
ĠÑģÐ²Ð¸Ð´ÐµÑĤ ÐµÐ»ÑĮ
ĠC C
Ġn ouvel
ĠP y
ĠB ureau
Ġd ost
Ġcu estion
ĠãĢį ï¼Ī
æ® º
onn Ã©
ĠÐ¼ÐµÑĤ ÑĢÐ¾
ĠD onner
ãĥĹãĥ¬ ãĤ¤
ãĥ³ãĥĨ ãĥªãĤ¢
ãĤĴæ ĭ
schlieÃŁ lich
ĠÐ²ÐµÑĢÑģ Ð¸Ñı
ĠÐºÑĢ ÐµÑģÑĤ
Ġzale Å¼y
Ð± Ð¸
Ġvia ggia
Ġmie do
ĠwyjÄħ tkow
ï¼ ¢
çĶ¨ æĦı
ĠS onder
ar as
Ġv Ã©gÃ©
te ar
ĠH eraus
Ð°Ð¼ Ð°
ĠTe ma
ĠL le
Ġsp ad
Ġcomp ter
ä¸Ģ åº¦
Ġk now
Ġescri bir
ĠFran z
Ġå® ®
ĠãĢ Ĭ
è»¢ è»Ĭ
ãģ® ãĥŀ
te ction
Ġso in
Ġessay er
ĠÑįÐº ÑģÐº
ĠÑĥ Ñħ
Ġsp an
p in
Ġmas aje
Ġqu ieren
Ġnum eros
ÑĥÑĤ ÑģÑı
ĠÐ·Ð½Ð°Ñĩ ÐµÐ½Ð¸Ðµ
ĠÃ©vÃ© nements
Ġpay er
Ġbo a
Ġop ar
ĠmieszkaÅĦ cÃ³w
Ġbon heur
Ġéģ İ
ya ume
Ġwo hnen
st r
lieÃŁ lich
Ġkho a
k as
Ġin ny
ĠÐ³Ð»Ð°Ð· Ð°
ĠÐ£ ÑĢ
ĠÑĩÐµÑĢ Ð½ÑĭÐ¹
ĠÐĽ Ñĥ
qu anto
èĸ Ħ
is Ã©s
6 2
fi z
ĠIn cl
åĳ¨ è¾º
ãĤĴ ãģĭ
ĠCas tell
ĠA B
Ġfe liz
ĠSex uales
ĠS Ã¡nchez
ĠMur cia
ĠM is
ex uales
ĠsociÃ©tÃ© s
Ġfonction ne
Ġdur able
Ġvo tos
Ġl ernen
Ġè¶ ħ
èı Į
ĠZ ab
ĠK siÄĻ
Ġter zo
Ġwyda je
ĠPho tos
ĠÐ¿Ð¾ÑĤ ÐµÐ½
ĠrÃ© el
ĠLors que
ĠBo ttes
ĠB ain
åı Ĭ
Ġpres iÃ³n
Ġstr umento
Ġcho ciaÅ¼
Ġpub lication
ĠMe nge
ĠÐ¿Ð¾Ð¿ÑĢ Ð¾Ð±
Ġri mas
ve m
rou gh
ÑģÑĤ Ð¾ÑıÐ½
ĠPod czas
ãģ®æ ³
ĠE inh
Ġcom menti
Ġc á»ĳ
are mos
ÑĢÐ¾ Ð¸Ð´
Ð¸Ð½ Ð³ÑĢÐ°Ð´
ĠÐĶ Ð¾Ð¿
ĠPia zza
Ġt ube
Ġextr Ãªme
Ġprop uesta
ĠScar pa
Ġs istemi
Ġblo que
Ġarri ba
qu a
v antage
Ġr ia
éŃħ åĬĽ
pues ta
usamme nh
ĠÐ¾ÑĤ ÑĢ
ane o
sp ort
Ġschein t
ĠÃ©ta bli
Ġt Ã¢
Ġperform ance
ĠSte in
ĠÐ· Ð¾Ð»Ð¾ÑĤ
Ġespe ciales
Ġmais ons
Ġcuid ado
ow iada
ĠÃļ lti
Ġgus to
ane a
Ġen quÃªte
Ġate lier
jÄĻ cie
Ġklas s
ĠÑĥÐ¿ Ð°ÐºÐ¾Ð²
pa ge
ĠÐ Ļ
4 3
ra ti
ãģĬ ãĤĪãģ³
Ġser ii
Ġjeste ÅĽmy
Ġartyku ÅĤ
ĠOczy wiÅĽcie
Ġãĥ´ ãĤ£
Ġer fahren
Ð³ Ð¾ÑĤ
ma zione
æĹ ħè¡Į
ĠÐł Òĳ
Ġpl omb
Ġiniti a
ĠÐºÐ¾Ð¼Ð¿ Ð¾Ð½
ica l
ĠÐ¸Ð·Ð´ÐµÐ» Ð¸Ñı
ĠÐ¡ Ð¡Ð¡Ðł
Ð¾Ð· Ñĭ
je dno
Ġnoti zie
Ġdist anza
Ġalle in
ĠÑĤÐ¾Ð¿ Ð»Ð¸Ð²
Ġcumpli r
ĠPro zess
Ġchamp ion
ul le
Ġz ones
ĠMas tur
ĠAr m
ĠÐ¿ Ð°Ð´
ĠM ient
wi g
pa ck
gesch lossen
Ġpr osta
alis er
tu to
Ġur ba
Ġaccom pagne
vo y
Ġdel Ãł
ĠÐ´ÑĢÑĥÐ³ Ð¸Ð¼Ð¸
Ġespa cios
Ġcal or
ĠOr d
Ġre mer
be g
ĠRestaur ant
Ġinter essa
ch mal
Ġda vanti
ĠTra vesti
Ã¡ nica
Ijp udWxs
Ġproble my
Ġï¿½ï¿½ ï¿½
ĠÂ ª
Ġph ÃŃa
???? ????
ĠÐ½Ð°Ñĩ Ð°Ð»Ðµ
lla to
äºĭ ä»¶
ĠW ild
Ġl our
ĠÐ£ Ð¿ÑĢÐ°Ð²
i p
ĠÐº Ð¾ÑĦ
G G
Ġp ure
Ġo tor
Ġexplo itation
Ð°ÑĤÐµÐ»ÑĮ Ð½ÑĭÐµ
ãĥĥ ãĤ±
åĢ ī
ãģ«ãģª ãĤĭãģ¨
Ġsegur anÃ§a
ĠÐ¾ÑĤ Ñĩ
ĠKategor ie
ÑĢÑĥ Ð½
Ã© nie
ti ens
cus sion
ĠæĿ ¾
æ· ·
ina li
Ġvoit ures
2 æĹ¥
Ķ è¼ĥ
Ġlabor al
Ġo ggetto
Ġmie ÅĽcie
ĠmÃ©di as
Ġmodifica tion
Ġf Ãºtbol
Ġcom ien
ĠJahr h
Ġacc ro
ĠÐł Ñĥ
ĠÐ¿ ÐµÑĤ
Ġprecis a
Ġãģķ ãĤĵ
ãĥª ãĥĨãĤ£
æ¬ ł
ĠLun ettes
ĠÐ¼ Ð°Ð¹
ÐµÐºÑĤ Ð¾ÑĢÐ°
Ġclassi fica
ĠÐ½Ð°Ð·Ð² Ð°Ð½Ð¸Ðµ
bn Vsb
Ġod legÅĤ
tu bro
Ġâĺ İ
S S
Ġcar re
ĠÐ¼ ÐµÐ¶
ĠÐ³Ð»Ð°Ð² Ð½Ð¾Ðµ
ĠÐ¡Ð¿ Ðµ
ĠÑįÐºÑģÐ¿Ð»ÑĥÐ°ÑĤ Ð°ÑĨÐ¸Ð¸
ĠÑĥÑĩÐ°ÑģÑĤ Ð½Ð¸ÐºÐ¾Ð²
Ġç¨İ è¾¼
ãĥĹ ãĥ©ãĥ³
Ġå¼ Ĭ
ÑĪ ÐµÐµ
Ġ} );
Ġ" );
Ġo e
Ġlut te
ĠtÃ©lÃ© ph
Ġãĥ¬ ãĥĵãĥ¥ãĥ¼
ãģ« ãģĤ
ito lo
Ġpos so
Ġpia tta
» Ħ
Ð¡ ÐŁ
ĠãĤ« ãĥ«
Ġparticip ation
Ġcor ris
ĠP H
ĠH en
is Ã©e
ĠCh ap
ĠÐ·Ð°Ð¿ Ð¾Ð»Ð½
Ġril as
å¥ ĳç´Ħ
Ġc aja
ĠC oupe
ĠF echa
Ġt aller
Ġm uest
Ġt Ãªm
min os
ĠgÅĤÃ³w nie
um b
L A
Ġreg al
Ġpu ertas
Ġestru ctura
Ġf ur
ĠÐ ©
ĠÐ¾ÑĢÐ³Ð°Ð½Ð¸Ð· Ð°ÑĨÐ¸Ð¹
c enie
ãģĤ ãģĤ
ri ften
Ġ9 1
ÑĥÑĢ Ðµ
T W
Ġzd rowia
Ġag r
und os
ĠÑģÑĥÐ¼ Ð¼Ñĥ
d itÃ©
Ġtre ffen
ãĥ¼ãĤ »
ãģĹãģ¦ ãģıãĤĮãĤĭ
Ġé Ń
ĠÐ¿ÑĢ Ð¾ÑĢ
ĠÐ¼ ÐµÑĢÐµ
Ġb iaÅĤ
at ury
ĠÃ©c oute
Ġv Ãªtements
Ġro be
Ġèĸ ¬
æĶ¯ æı´
Ġbezpiecze ÅĦstwa
Ġouver te
h u
âĸ ł
ĠãĤ¸ ãĤ§
esti Ã³n
ĠLe Ã³n
Ġfle urs
ĠM oi
ĠMient ras
Ġv Ã¹ng
ĠStr and
ĠCh amb
ĠAsocia ciÃ³n
Ã¤ ngen
Ð¾Ð² ÐµÐ´
Ã³w ka
w no
Ġk w
L o
å¤§ éĺª
Ġth rough
ĠEst udi
cur so
ĠÐ¿ÑĢÐµÐ´ ÐµÐ»
ãģ® ãģĭãģª
åķıãģĦ åĲĪãĤıãģĽ
Ġann oncÃ©
ĠP OUR
ĠfrÃ¼ her
Ġester no
ĠMad ura
za je
Ġv ostra
Ġbeste llen
ãģ®åł´åĲĪ ãģ¯
ĠãĤ¢ ãĤ¯ãĤ»
æµ ®
schein lich
ĠÐľ Ð°ÐºÑģÐ¸Ð¼
Ð°Ñİ ÑģÑĮ
Ã§ ant
t ie
ein ture
ĠÐ¡ÐµÐ² ÐµÑĢ
ä½¿ ãģĪãĤĭ
Ġtele fono
ĠZ es
ãģ®æ ĥħåł±
ï¼ «
Ġéģ ¸
Å¼ noÅĽci
and is
Ð¾ÑĢÑĤ Ð°
Ġvo te
Ġd Ã»
T T
ina ge
Ġpom iÄĻdzy
Ġpor tare
Ġè²· åıĸ
Ġmo tivo
Ġrecher ches
ĠåĲĮ ãģĺ
ĠÑĨÐµÐ»ÑĮ Ñİ
ãĥ¬ãĥĵ ãĥ¥ãĥ¼
Ġenor me
ĠBus iness
Ġe cht
ĠZ we
ĠpÃ¡g inas
Ġconse cu
ĠPro grama
Ġocas iones
ĠÑĢÐµÐ¶Ð¸Ð¼ Ðµ
Ġlar ga
zeich en
Ġop inii
ãģ® ãĤĴ
Ġod kry
Ġpeu ple
Ġab rir
Ġfolgen den
ĠK ann
ĠAu ÃŁen
ĠÐ½ÐµÐ´Ð²Ð¸Ð¶ Ð¸Ð¼Ð¾ÑģÑĤÐ¸
ĠÐ² Ð°Ð½
Ġeng ag
ĠÐ¡ Ð¸ÑģÑĤÐµÐ¼
ãģª ãģ®ãģ«
Ġè ¢
è² ¡
e ta
Ġsang re
lie ÃŁen
ÐµÐ»Ñı Ð±Ð¸Ð½
Ġav antage
Ġ9 7
Ġinsp i
ĠÐ¸Ð· Ð¼ÐµÑĢ
Ð» Ð°Ð½Ð´
ĳ ĳ
ĠfÃ© min
çı¾ åľ¨
Ġwe ll
ĠNh Æ°ng
Ġe ventos
Ġprote zione
v et
ĠnÃ© go
[...]
