#version: 0.2
á Ģ
á ĥ
Ġ à
Ġ Ð
à ª
à ¸
Ð °
Ġ .
Ġ ,
Ø §
à ´
à ®
a n
à ¦
à °
e n
e r
à ¤
Ð ¾
Ð ¸
i n
Ġ d
Ġ s
Ġ Ø
Ġ a
Ġ t
Ð µ
a r
Ñ Ĥ
Ġ p
Ð ½
Ġ m
à «
Ñ Ģ
Ġ Ù
à ¯
e s
Ġà ª
o n
à µ
Ġ n
Ø§ Ù
Ġ k
a t
Ñ ģ
a l
o r
Ø ±
e l
Ġ c
Û Į
â Ģ
Ġ -
Ġ b
i s
áĥ Ĳ
Ġ Î
Ġ l
e t
Ð »
à ±
a s
Ġ 1
Ġ áĥ
à §
Ġ 2
i t
Ġ h
Ġà ¤
Ġ ×
Ġ v
à ¥
ã ģ
i l
Ġ o
Ð° Ð
áĥĲ áĥ
Ġ :
Ġ âĢ
áĥ ĺ
u n
Ù Ī
à ¹
à¯ į
Ø§ Ø
Ð¾ Ð
Ġà ¦
áĢ ¹
àµ į
Ñ ĥ
Ġ áĢ
Î ±
Ù Ĩ
àª ¾
r e
Ġ f
Ġ S
a m
Ï Ħ
o m
Ġ e
Ø§Ù Ħ
Ġ A
Î ¿
áĥ Ķ
o s
Ð º
Ġà ®
áĢ¹ áĢ
Ù Ħ
Ù ħ
Î ¹
Ù Ĭ
Ġà °
a d
Ġà ´
Ġ M
a k
áĢ ¬
Ġ i
àµį à´
Ġ g
Ø ª
áĥĶ áĥ
Ġd e
u r
o l
Ġ (
Ġ P
àª¾ àª
Ø ¯
Ú ©
t i
Ġ w
á »
c h
à¯į à®
Ð ´
Ġ )
e m
Ñ ĸ
ã Ģ
áĥĺ áĥ
Ã ¡
u s
e d
Î µ
Î ½
áĢ º
áĢ ¸
Ġ2 0
Ñ ı
Ġ Ø§ÙĦ
Ġ C
i k
Ġ B
Ġ T
Ã ©
Ð ²
à« ĩ
à¦ ¾
ĠÙ ħ
áĢ ¯
Ã «
¿ ½
u l
ï ¿½
r o
Ù ĩ
× Ļ
Ġ 0
en t
i d
áĢ Ń
ã Ĥ
Ġ D
ĠÐ ¿
× ķ
in g
É Ļ
u t
Ð ¼
Ġ j
à¤ ¾
i r
i e
áĢ Ģ
ã ĥ
a g
Ï ģ
Ġ Ñģ
Ä ±
Ï ĥ
Ġ y
i c
Ġ in
à± į
Ġ /
Ġ Ã
i m
ĠÐ ½
Ġ r
Ġ Ú©
o t
Ġ ì
± áĢ
Ġ Ñ
i a
à§ ĩ
Ġ K
áĢ Ħ
áĥ Ŀ
Ġ ãĢ
à´ ¿
Ġ 3
à¦¾ à¦
Ġ E
an g
á ģ
ĠØ ¨
à¯ ģ
l e
à« į
×ķ ×
à«į àª
Ø ³
Ã ¤
Ġ L
à« Ģ
Ġ N
Ġ "
t e
à® ¿
ä ¸
á º
Ï Ģ
Ġ Â
áĢ¸ áĢ
Ġ H
à¸ ²
u m
i g
Ġ I
Ð° Ñ
Ð½ Ð¸
Ø ¨
à±į à°
an d
×Ļ ×
Ġ20 1
Ñ ĭ
Ã Ń
r a
e k
ĠÐ ²
à° ¿
Ġ å
Ï Ĥ
t a
h e
Û ģ
Î ·
Ï ħ
áĥĿ áĥ
ï ¼
à®¿ à®
ĠÙ Ī
à¸ Ļ
Ġ q
Û Ĵ
ï¿½ ï¿½
à´¿ à´
Ġ R
Ø§Ù Ĩ
à§ į
a p
à§į à¦
Ġ z
Ð° ÑĢ
à° ¾
. .
a h
Ñģ ÑĤ
à¤¾ à¤
Ø ©
Ð° ÑĤ
àª ¨
ĠÐ ´
Ø ¹
Ġ F
à± ģ
Ġ G
a y
Ġ '
Ð ³
a b
Ð° Ð½
Ã ³
áĢ Ĳ
áĢŃ áĢ¯
Ñ Į
à¦ ¿
à¥ ĩ
à¸² à¸
Ð ·
Ġ 5
àµ ģ
a c
o d
à« ĭ
Ġ 4
Ġ ï¼
Ġ en
ĠÐ º
ä º
àª °
à¯ģ à®
Ã ¼
áĢ ķ
Ġ V
Î »
Ġs e
Ä ģ
Ġ ÏĦ
Ġ O
à°¾ à°
Ġ un
i on
à¥ į
Ġc om
o k
s t
áĢ ¼
áĢ Ļ
à¥į à¤
Ñ ĩ
à´ ¾
Î º
ĠÐ ¼
à¹ Ī
Ù Ĥ
0 0
ĠØ ª
o v
ĠÐ ¸
Ø§ Ø±
à¸ Ń
à¦ °
Î ¯
Ġà ¸
u k
Ð ±
e g
Ã ¶
u d
Ġn a
àµģ à´
á Ĥ
Ġ ÑĤ
à® ¾
ĠÐ ·
Ð¾Ð ²
ĠÐ ¾
Î ¼
Ġ ë
Ð ¿
Ġa l
i v
à´¾ à´
Ġl a
t er
Ġ æ
à¸ £
Ġ J
£ áĥ
i z
áĢ Ķ
à°¿ à°
áĢĦ áĢ¹áĢ
áĢ ±áĢ
ĠÐ ±
Ù ģ
Ð° Ð»
Ðµ Ð½
áĥĺáĥ ¡
Ġq u
áĥĶáĥ ĳ
ĠØ ¯
Ñ Ĩ
Ø ´
à®¾ à®
ì Ŀ
Ġ áģ
es t
n g
Ï Į
Ñ Ī
Ġ |
á» į
Ġ Ø§Ø
Ġ W
Ð¾ ÑĢ
Ġ re
Ĥ à°
Î ¬
Ġ ?
à¥ Ģ
ĠØ ³
e c
Ģ à¸
áĢ ½
o g
o p
à¹ ī
r i
is t
× Ķ
Î¿ Ïħ
en d
Ġ Ä
l a
Ø Ń
áĢ ·
Ðµ ÑĢ
ĠÐ¿ ÑĢ
à¦¿ à¦
Ġ u
× ¨
å ı
ĠâĢ Ļ
ĠÐ½ Ð°
à¤ ¿
er s
ł áĥ
áĢ ²
Ġà¤ ķ
à¤ °
à¸ ±
Ã ¥
Ġd i
Ø ¬
Ġ U
e b
àª ¿
Ú ¯
Ġ 6
Ġs a
Å Ł
Ð°Ð ²
Ġt o
ĠÙ Ĩ
Ð» Ð¸
Ø§ ÛĮ
Ġt h
à¸ ĩ
× ľ
Ġ× Ķ
l i
c i
a i
à« ģ
à¸ µ
áĢ ħ
Ġï¼ Į
à«ĩ àª
Ġp r
à±ģ à°
à¸ ģ
Ġ on
Ù ĥ
Ġp ro
Ġk a
Ñ ħ
Ð°Ð ¼
ar a
ĠÙ ģ
Å ¡
Ġ ÑĢ
à§ĩ à¦
Ġ el
Ġa t
Ġc on
Ú º
à¯įà® ķ
Ġ !
ĠØ Į
ĠÙ Ħ
Ġ an
Ġáĥ Ľ
Ġl e
Ð¾ ÑĤ
ĠâĢ ľ
Ø ²
Ġ. ..
à¹ Ģà¸
áĢ Ľ
å ®
Ġ ÏĢ
ĠØ ¹
a v
Ø§Ø ª
ĠÐ °
Ġs t
àª Ĥ
áĢ ®
o u
Ð ¹
àª ¤
Ø§Ù ħ
Ġ 8
o w
Ġ 7
Ð¾Ð ´
Ġ ç
áĥ ķ
s e
à¤¿ à¤
Ðµ ÑĤ
æ ľ
a z
Ġt he
Ġ ;
ĠÎ º
à® °
Ġàª ķ
ŀ ×
Ð¸ ÑĤ
Ġ 9
à¸ ¡
en g
áĢ Ĭ
Ġc h
Ã ł
Ġ Ïĥ
Ï ī
d e
Î Ń
Ê »
àª ķ
ĠÐ ³
o b
Ð°Ð ´
Ð¾ Ð½
à¯ Ī
u b
àª ®
l ar
ĠÎ ±
áĥ £áĥ
àµ Ĩ
i b
Ġ et
àª µ
an t
Ġ is
Ġàª ª
a j
à¤ Ĥ
Ġ â
ļ Ħ
Ð¾ Ð»
áĢ ±
Ġ1 0
ĠâĢ ĵ
u p
ĠØ ±
à® ¤
áĢ ļ
Ġ es
áº ¹
ĠâĢ Ŀ
Ġf or
à¯įà® ¤
n e
w a
à¸ ¥
àµį âĢ
Ä ĥ
Ð°Ð º
å Ī
Ð¾Ð ¼
áĢ ŀ
áĢ ľ
Ġ1 9
å ¤
Î± Î¹
Ã §
ĠáĢ ¡
ç ļĦ
Ġqu e
Î ®
Î ³
in e
i p
Ġ ê
å ħ
an a
Ġo f
ãĢ Ĳ
× ª
e z
à¸Ļ à¸
g a
¨ àµįà´
Ġt r
o c
i y
Ø µ
d a
Ġ Ûģ
ĠãĢ ĳ
í ķ
Ġàª ¸
à¥ ĭ
Ġáĥ ¡
ĠØ ¬
Ð° Ñģ
ĠÙ ¾
Ġm a
e p
áĥĲáĥ ľ
Ï ĩ
à´ ¤
áĢ¬ áĢ¸áĢ
ĠãĢ Ĥ
ar i
Ð¸ Ð½
à¸ Ķ
ĠÎ µ
os t
Ġa r
Ġ and
Ġáĥ ĵ
à¸ ´
Ġp er
Ġ×Ķ ×
à¦ ¨
Ġ %
e v
àµįâĢ į
à° ¨
ĠãĢ ģ
ä »
q u
ar t
Ø ®
Ä± n
áĢĦ áĢº
à¸ §
in d
Ðµ Ð´
áĢ ģ
áĥ ¡
áĢ «
Ø ·
ĠÎ ¼
áĥ ł
Ġ er
or t
Ġ áĥĲáĥ
Ð½ Ð¾
el l
es s
Ġm e
Ġs i
Ð ¶
à¤ ¨
àª¾àª Ĥ
ar e
Ġ Ø§Ù
Ġàª ®
Ġ× ľ
áĢ ¶
Ġ è
Ġ1 2
à° Ĥà°
Ġn g
Ġ Ñĥ
Ñģ Ðº
à¸ ¢
un g
ĠØ ´
ķ àµįà´
ĠÄ ĳ
à± ĩ
h o
s k
Ġ× ĳ
à® ©
Ġà ¹
áĢ »
Î¹ Îº
ĠãĢĳ ãĢĲ
àª¾àª °
Ðµ Ð»
Ġd o
Ð¾Ð ³
ÛĮ Úº
il l
à° °
i o
Ä «
ÙĪ Ø±
Ò Ľ
ï¿½ï¿½ ï¿½ï¿½
áĢ °
er e
à± ĭ
ç ½
y a
Ú ¾
Ġd a
Ï į
Ġ1 1
Ġ× Ĳ
ĠØ £
® à¯į
u g
Ñ İ
à® Ł
j a
à¸ ļ
áĢĢ áĢ¹áĢ
à´ °
s a
Ġa m
ĠI n
Ġh o
h a
à¦¾à¦ °
ä ¹
k a
ad a
c e
à§ ģ
Îµ Î¹
Ù ī
× ĳ
Ò ³
Ġn i
å Ľ
Ġ =
Ñ Ĭ
× Ĳ
Ġ ï¿½
Ġà ¥
æ Ĺ
Ð°Ð ·
ãģ ®
Ġ or
t r
ĠÐ ¡
ĠÙ ĩ
Ä ĵ
Ø§Ø ¯
Î ´
Ġa s
2 0
Å ¾
ĠÂ »
æ ĸ
Ġà¤ ¸
Ġt e
Ġt i
Ġáģ ĭ
Ð¸ Ð»
ç½ ĳ
à¤ ¤
à«ĭ àª
Ġà® ª
à¤ ķ
ë ĭ
áĥ ļ
at e
on g
Ð¸ ÑĢ
à§ Ł
Ġs p
Ġáĥ Ĵ
Ġy a
t t
n a
Ðµ Ðº
Ã ½
Ġàª ľ
Ġà¥ ¤
Ã© s
âĢ Į
áĢĦáĢ¹áĢ ¸
Ġn o
ĠØ ®
ĠØ§ÙĦ Ùħ
å ½
ĠØ Ń
Ġ #
Ġàª ¤
à® ³
×ķ× ª
à«įàª ¯
n i
Î¹ Î±
h t
m a
Ġ il
Ã º
×Ļ× Ŀ
ä ½
æ Ī
Ġà¦ ķ
as t
al l
d i
Ġ× ©
el e
Ðµ Ð¼
å ľ
Ã ¸
en s
Ġ Y
ķàµįà´ ķ
Ï Ĩ
ì ŀ
Ġ Û
Ġ x
à° ²
Ġ1 5
ĠÐ Ł
¨àµįà´ ¨
at ion
Ġ é
ĠâĢ ĺ
áĢ ¡
Ġb a
Ġàª Ĩ
Ġn e
Ñ ŀ
ÙĬ Ø©
h i
Ġp ar
Ġà¦ ¸
Ä Ł
at a
àª¿ àª
ç Ķ
Ġà® ķ
t o
Ð°Ð ¹
p l
áĢĶ áĢ¹áĢ
à¸ °
Ġà¦ ¬
ĠÙħ ÙĨ
m e
Ġt Ã«
à¸ ķ
áĥĶáĥ ļ
ĠØ§Ø ³
Ġàª ħ
r u
Ġ20 0
à«įàª °
ĠáĢ ±áĢ
ĠâĢ ĭ
in i
Ġà¤ ¹
Ġ Z
Ñ ĺ
áĥĲáĥ Ľ
àª¨ à«ĩ
à¯įà® ª
in a
à¸ Ĺ
Î ¸
s i
al e
× ©
ĠÐ µ
Ġa g
Ġo p
× ł
Ġà¤ ®
Ġa k
Ġ ]
Ð½ Ð°
Ġàª µ
ķ à¯įà®ķ
Ġd el
áĢ² áĢ·
å ¹
p r
ĠÚ© ÛĮ
ÏĦ Î±
v er
i j
Ġd ie
Ã³ n
å Ĳ
à¦ ²
Ġàª Ľ
Õ ¡
Ġo g
Ġo l
ÙĪ ÙĨ
ĠØ ¢
à® ²
áĤ Ķ
un d
Ġa d
Ð¾Ð ±
Ä į
ĠÙ Ĥ
Ø £
Ġk e
ĠÑ ĩ
w w
Ġ [
Ø§Ø ¨
Ġ1 8
Ï İ
ĠÏĦ Î·
o h
à¤ ²
Æ °
Ġk u
à¦ ķ
ãģ Ħ
áĥ ĵ
ÉĻ r
Ġw a
à¸ ª
Ø ¶
Ù İ
an s
Ġj a
ĠÐ½ Ðµ
ĠA n
ì Ĺ
Ġà¦ ª
áĢĢ áĢº
Ø± ÛĮ
Ġà´ ª
er i
à¯Ī à®
áĢ ¾
al a
at i
à± Ģ
Å Ĥ
à´ ¯
áĢ± áĢ¬
k e
á»į n
Ġ× ŀ×
Ġ1 3
Ġà¤ ª
ÑĤ Ð¸
al i
ĠÐ· Ð°
Ġ í
Ġs h
Ġb e
à¯įà® Ł
Ð°ÑĤ Ð°
å Ĭ
áĥ Ľ
or e
is h
Ð°Ð ³
Ġp o
d er
ĠÚ© ÛĴ
ĠÐ ł
em b
Ġw ww
Ġà® µ
Ð°Ð ±
u a
àµįà´ ¤
Ġd es
à§ĩ à¦°
Ñ Ħ
à° ķ
Ø§Ø ¦
Ä Ľ
ĠÐ ľ
áĥ ľ
áĢ ĸ
Ġa v
Ġ1 4
u c
Ïģ Î¿
Ġ1 6
Ú Ĩ
Ġà° ª
Ñ į
Ġa c
à¸ «
Ã« r
àª¾àª ¨
à«ģ àªĤ
ĠA l
Ġi m
ĠÙ Ĭ
Ġ Ú¯
à¸ Ħ
ĠÐ Ĵ
áĥ ¢
à§ ĭ
áĥĲáĥ ĵ
ÏĦ Î¿
äº ļ
ĠÎ ´
Ġ0 0
ti on
à¹ Ħ
å į
Ð°Ñ Ĩ
à¤ ¸
à¦ ¤
æ ¸
äº º
ĠØ¯ Ø±
à´ Ĥ
ĠÐ ļ
ar d
Ġàª ¹
ãĥ ¼
Ð½ Ñĭ
an i
Ġàª ¨
or d
Ġ it
Ġà® ®
Ø³ Øª
à¥ ģ
Ã µ
Ĥ ¬
Ġ Ñĸ
ÙĪ Ø¯
ÙĨ Ø¯
t u
Ðµ Ð½Ð¸
ĠáĢ Ģ
ÑĢ Ð¸
b a
Ġ &
à«Ģ àª
Ġa p
àµ ĭ
am a
Ðº Ð¸
ĠÎº Î±Î¹
ĠÂ «
Ø °
Ð¾ Ñģ
Ġ Ø§ÛĮ
Ð² Ð°
Ġà´ ķ
× ĵ
Ã ¢
à¯ ĩ
Ġp l
or m
Ġh a
ik a
ÏĦ Îµ
Ã £
id e
ĠáĢ Ļ
ĠàªĽ à«ĩ
ÙĪ ÙĦ
ìĿ ´
à´ Ł
æ ī
Ġà® ħ
ĠÙģ ÙĬ
áĥĲáĥ łáĥ
à¦ ¬
ĠÐ »
ç ī
Ġ1 7
Ã¡ n
l o
Ġm ed
Ġv er
on t
ĠâĢ ¦
Ġv an
Ġm en
× ¢
ĠÐ Ĳ
àµ ĩ
ĠáĢ ŀ
à§įà¦ °
Ġáĥ ł
Ðº Ð°
f f
Ã ª
Ã¶ r
Ġ +
à¦ ®
ä¸ Ģ
Ġ Õ
it e
Ġàª ¬
Õ¡ Õ
à± Ĩ
áĥĶáĥ ľ
Ïģ Î±
æ ĺ
Ð¾Ð º
Ã ¦
Ġ. .
× Ĺ
Ġd u
Ð´ Ð°
v e
Ġà® ¤
il e
Ġ Ñı
ãģ §
áĥĲáĥ ķ
àªĤ àª
us t
áĢĬ áĢ¹áĢ
Ġà° ķ
áĥĲáĥ ¡
à¤ ¹
à¹ ģ
Ø§Ø ³
áĢħ áĢ¹áĢ
ÏĦ Î·
Ġe x
à´¿à´ ²
Ġàª °
Ġ× ķ
àª ²
ti c
z a
Ġ201 9
ļ áĥĺ
ĠÐ´ Ð°
è ¿
à±įà° °
àµįà´ Ł
Ġà® ļ
i er
k s
Ø ¦
Ġt er
ÙĬ ÙĨ
Ġe m
k o
è ½
à® µ
Ġáĥ ĺ
k an
l er
ent e
as s
Ġs o
å °
à°¾à° °
à¥įà¤ ¯
åı ĳ
j e
ãģ Ĺ
Ġ2 5
Ġp ara
àª £
Ġk an
ĠC h
Ġd an
Ð½ Ñı
t s
Ã ´
Ġ Ø§ÙĨ
Ġ3 0
Ġy ang
ä ¼
à¯ģà® ®à¯į
ĠÐ Ŀ
Ġm o
ĠÏĦ Î¿
àª ¹
Ġ) .
à§įà¦ ¯
ĠÂ Ń
à®¿à® ²
Ġà° µ
áĢ¬ áĢ¸
ÏĢ Î¿
ĠÑģ Ðµ
ãģ «
Ð°Ñ Ī
el a
åĪ Ĩ
ĠÑ Ī
ëĭ ¤
à¸²à¸ £
à±ĩ à°
ĠÐ ĳ
Ġp re
Ġb y
Ġg r
n y
à´ ®
Ġd et
Ġv i
Ġ ãĥ
Ð½ Ñĸ
n ing
Ø «
ÛĮ ÙĨ
ĠÑģ ÑĤ
à¸Ń à¸ĩ
à¸ ·
/ /
à´ ³
Ġb er
Ïĥ Î·
Å ĳ
à¥ Ī
z e
Ġà´ µ
Ġ ro
Ġa b
il i
Ġáĥ ¨
à®¿à® ¯
ê ³
Ġà¦ Ĩ
ĠÛ Ķ
à¸µ à¹Ī
Ġo m
ĠÚ© Ø±
ĠÙ ĥ
ĠÎ ½
t or
å½ ©
Ð¸ Ð¼
à¸ ¸
z i
Ġ2 2
ë Ĭ
u i
Ĳ áĢ¬
Å Ļ
Ġ >
Ġà® ĩ
Ġv e
Ġ2 1
ĠØ¹ ÙĦ
áĥĲáĥ ł
A N
Ġp or
× §
è µ
àµģà´ Ĥ
l y
Ðµ Ñģ
ĠÏĦ Î¿Ïħ
ì §
it a
ãģ ¦
à¹ Į
tt p
ĠØ§Ù Ī
à¥įà¤ °
à¹ ĥ
áĥ ®
ĠÙħ ÛĮÚº
áĢĢ áĢŃáĢ¯
Ġs k
Ã¡ s
æ¸ ¸
áĥĿáĥ Ľ
Ġs om
Î¼ Î±
ĠØ¨ Ùĩ
Ġ Ã©
Ñĥ ÑĢ
Ä Ļ
à¹ ĩ
å ¿
Ġk o
ìŀ ¥
Ġ Q
on a
Ġ" :
à¦¾à¦ ¨
è ®
Ġ201 7
Ġà° ®
w e
Ð ł
ac i
Ð¾Ð ·
à§ Ģ
à¤ ®
u h
Ġáĥĵ áĥĲ
Ġà° ħ
à¤¾à¤ °
Ġàª ı
Ð° Ð½Ð¸
Ġb o
áĤ ı
ĠáĢ ľ
.. ..
Ġ: //
Ð¸ÑĤ Ðµ
Î½ Î±
ĠÐ Ķ
å ¼
as i
k i
Ġp h
Ġà¦ ®
as h
à¯ Ĩ
Ð¾Ð ¶
Î¯ Î±
w á»įn
en a
Ġ201 8
ãģ ¨
y s
ì Ħ
ĠS t
à´ ¨
Ġ) ,
Ġv a
× ¤
Ġh ttp
Ġà´ ¸
é Ģ
á ¹
t h
ãģ ª
n o
er a
ĠáĢ Ĳ
ĠÑ Ħ
Ġà¦ ı
m i
ĠÎ ³
Ïģ Î¹
è §
Ġà° ¸
× ŀ×
ĠÐ ¢
ç »
àª ª
à¸ Ī
ëĬ Ķ
o ur
Ð» Ñı
Ïī Î½
Ð¾Ð ¹
Ġ ä¸
i f
ad e
Ġp Ã¥
Ġj e
áĢ® áĢ¸áĢ
v a
à´¤ àµįà´¤
¨ à¯įà®¤
àª ¸
in t
l u
ad o
à´ µ
ê °
Ð¸ Ñı
b e
Ġe d
Ñĥ Ð²
Ġå ¤
Ġ ï¿½ï¿½ï¿½ï¿½
1 0
ĠÑ ħ
Ð» Ð°ÑĢ
à´ ²
Ġà´ ®
Ġ est
àµįà´ °
à¸ Ľ
Ġ× ¢
Ġáĥ¡ áĥĲáĥ
ĠÐ¿ Ð¾
ĠÑ ŀ
ĠÎ ¿
r an
o a
on d
Ä ħ
à¸ ¹
× ŀ
å® ĺ
Ġ X
Ġs er
- -
ì ł
Ġs u
ç «
ĠÐ¾ ÑĤ
Ġt il
Æ° á»
Ġ2 4
Ġà® ¨
å ¸
m ent
áĥĺáĥ Ĺ
Ã¡ l
Ã£ o
am p
ĠA r
Ĳ áĢ¼
ãģ Ł
æ Ŀ
Ġ ÛĮ
Ġàªķ àª°
Ġ2 3
× Ľ
ÑĤ Ð¾
on e
ag e
àª® àª¾àªĤ
ãĥ ³
ãģ Ļ
× Ŀ
Ã« s
å¤ §
Ð¸ Ñģ
¾ áĢĢ
áĢ¯ áĢŃ
Ġà´ ¨
Ġ" ,
Ùĩ Ø§
n h
at u
á¹ £
r es
k u
áĢĲ áĢ¹áĢ
ãĤ ĭ
ãģ Į
áĥĿáĥ ĳ
Ġh e
ä¸ ĭ
l ik
Ġáĥ Ļ
ĠØ µ
ĠÙĪ Ø§ÙĦ
Ð°Ñ ĩ
Ġì Ŀ
ª à¯įà®ª
ÛĮ Ø¯
en e
Ð¸ Ð·
Ù ¹
å Ń
Ġ ang
Ø§Ø ²
Ġà´ ħ
Ñ ī
i ch
Ġa f
Ñĥ Ð´
Ġh ar
åľ ¨
áĢ Ĩ
ÉĻ n
ic a
à° Ĥ
er t
ì ķ
ĠØ¨ Ø±
å Ĩ
E R
åĽ ½
Ã ¨
g e
Ð¾Ð³ Ð¾
å º
àª¨ àª¾
áĥĲáĥ ļ
it h
¶ ľ
g an
Ġà¦ ¨
è ¯
à´ £
Ð°Ð ¿
Ø§Ù ĩ
o j
à® £
ç º
ĠM ar
áĥ Ĺ
Ā Ā
or i
àª¨ à«Ģ
å ·
Ã¼ n
ãģ ¯
ĠS e
à® ®
ç İ
id a
Ġd en
ad i
Ø º
áº ¡
é ĩ
Î ²
Ġo b
à¦ ¸
Ġà¤ ¬
Ġd er
Ġn Ã«
Ġáĥ Ĺ
ul t
Ġà¹ Ģà¸
à® ±
Ġ Å
Ð¸ Ð´
áº ¿
Ġp e
s o
áĢķ áĢ«
ĠØ ¥
à¯įà® ±
Ġ us
Ø± ÙĪ
Ġà¦ ¹
r y
Ġk om
àª¾àª ®
Ġà¤ ¨
áĢĦ áĢ¹
u z
Ġt a
ĠáĢ ķ
é Ļ
em p
Ġ× Ľ
áĢĶ áĢº
à´¿à´ ¯
Ġv o
à« Ĥ
Ġà® İ
Ã¤ r
à¯ ĭ
ĠÛģ ÛĴ
áģ ¾áĢĢ
áĥ łáĥ
ĠÎ¼ Îµ
ĠD e
æĹ ¶
Ø§Ø ¹
Ġ ãĤ
áĥĶáĥ ¡
áĢļ áĢ¹áĢ
u j
ĠØ§ÙĦ Øª
áĢķ áĢ¹áĢ
et t
áĢļ áĢ¹
Ġf r
ìĹ Ĳ
à±įà° ¨
ic e
¨ áĥĺ
an o
áĥĺáĥ ľ
à¥ĩ à¤
s p
Ġv ar
Ġa z
g r
Ġáģ Ĭ
f t
Ġl es
ÙĬ Ø±
ĠÎ½ Î±
Ġr es
Ġb l
z y
à° ®
Ð¸ Ð²
Ġd is
am b
à¥ĩ à¤Ĥ
ĠE n
ÙĪ Úº
ĠÃ ®
ë §
Ġàª ¦
Ø ¸
áĢ ³
Ð¾Ð ¿
ĠáĢ Ľ
æ Ĭ
Ġáĥ Ķ
ap p
ÙĪ Ùħ
u e
Ġ $
Ġà¤ ħ
e w
Ã¤ n
Ġ201 6
Ġb ir
Î½ Î¿
ĠØ§ÙĪ Ø±
ç ľ
à´ ¨àµįà´¨
ãģ ¾
Ġà¤ ľ
n ÃŃ
áĢĬ áĢº
Ġm in
ĠÐ ŀ
à¤ ª
ĠP ro
¶ľ ìŀ¥
ì§ Ģ
i h
Ø§Ù ģ
æ ³
ĠÙħ ÛĮ
àª° à«įàª
íķ ĺ
Ġo s
Ġà° ļ
Ġ0 1
×ķ× ¨
Ġà¤ µ
ÏĦ Î¹Îº
ur a
Ġs z
á» ĩ
à´ ¸
áĥĶáĥ ł
Ñģ Ñı
Ġm an
à° ¤
à´ ±
Ð Ĳ
Ġm et
è ¡
Ġ ÒĽ
Ġe g
ĠÐ² Ð¾
A R
ĠT h
ĠÐ ĵ
Ð°Ñ ħ
áĢ ĳ
ç Ľ
à¯įà®ķ à®³
Ġp ol
» áĢķ
ĠÎ ĳ
Ö Ģ
Ġn h
ĠÐ ¶
å ¥
ic i
m er
Ġa wá»įn
Ġk i
× ĺ
Ġàª ²
Ð³ Ð°
ak a
Ġ ut
Ġm ar
Ġà¦ ¦
àµįà´ ¯
I N
Ġà¤ķ à¥ĩ
Ġà¤ Ĩ
ÑĢ Ñĥ
Ð¸ Ð½Ð¸
ĠÐ¾ Ð´
áĥĶáĥĳ áĥĺáĥ¡
ak o
y n
à°¾à° ²
Ġï¼ ļ
ĠU n
Ñ ĳ
Ġ× Ļ
Ġg o
ë ¡
Ðµ Ð·
àµįà´ ª
Ä± r
el s
ĠÃ ¼
Ġh et
Ġà° ¨
æĺ ¯
ti v
Î ĳ
ĠØ§Ø ²
à¥ Ĥ
f orm
ĠØ§Ø³ Øª
Ġp a
ÑĤ Ð°
âĢ Ŀ
ãĤ Ĵ
Ġ0 9
Ðµ Ð²
ĠT he
Ġà¤¹ à¥Ī
ìĿ ĺ
Ġk h
in o
à°¿à° Ĥà°
à±įà° ¯
à¤ Ĺ
å İ
an e
Ðº Ñĸ
l ig
et e
Å «
t en
å ¾
Ù ¾
Ġáĥ ŀ
ĠÎ Ń
Ġ ÚĨ
Ġà §
Ġl i
ĠØ ²
ĠâĢ ŀ
Ġàª ¶
ÑģÑĤ Ð²
em ent
Ġin ter
à´ ª
ĠÚ© ÙĪ
ìĿ Ħ
it y
p e
Ġì ŀ
æľ º
å ĩ
Ġ Ê»
Ġ2 6
ì ĭ
Ñĸ Ð´
as a
à®¤ à¯įà®¤
à®¿à® °
áº £
Ġ um
is i
Ġk on
ÑĤ Ðµ
ĠØ³ ÛĴ
ĠÑ į
8 8
Î ¾
áĥĲáĥ ª
Ñĥ Ð¼
ĠÎ± ÏĢ
b l
1 1
Ġb u
Ġ ï¿½ï¿½
à§įà¦ ¤
à¸ ³
Ġp Ã«r
à® ®à¯į
Ð¾ ÑģÑĤ
áĢ® áĢ¸
Ġz a
Ġà¤ ¦
ĠâĢ Ķ
Ã ±
× ¡
Ð°Ñ ŀ
àµ Ģ
Ġ \
Ø§Ø ¡
Ġc he
ç ¥
áĢĻ áĢº
ac k
å Į
à®¿à®² à¯į
ĠÃ® n
Î¼ Îµ
p a
Ġ }
àµįà´ ļ
ol o
ê ¸
àµģà´ ¨àµįà´¨
à´ ķàµįà´ķ
à¸ ŀ
ÛĮ Ø±
ä¸ Ń
Ġm u
e h
ĠÐ¾ Ð±
ĠS h
E N
Ġ0 2
Ġ2 7
à´ ķ
Ñ Ĺ
ÙĦ ÛĮ
Ñĥ Ð»
à° µ
áĢ½ áĢ¬
Ġa u
Ã¼ r
à® ķ
i es
iv e
un t
× Ĵ
c a
Ã¡ r
ĠØ§ÙĦ Ø£
Ļ àµįà´
Ðµ Ð¹
ĠØ ·
at s
à¸ Ĥ
Ġàª Ĺ
à ¨
Ġ Ò³
´ ë
à¸ Ĭ
Ð¸ Ðº
ĠáĢ ħ
à´¾à´ ¯
Ġ5 0
ĠÑ Ĩ
ĠÎº Î±
Ġ× ŀ
en i
à«ģ àª
Ġà´ ¤
à¯ Ĭ
à®¤ à¯ģ
Ġå¤ §
Ġ0 3
ĠP r
ol l
Ġ2 8
à° ¸
à¤ µ
Ġ0 8
Ġc o
ĠÃ §
é Ĺ
æ Ģ
em a
à®¿à® ©
à®¾à® °
Ġi k
ÏĦ Î¹
Ð½ Ð³
et s
ĠÎ ķ
Ù Ĳ
æī ĭ
ĠM a
Ð¸ Ñĩ
Ġà¦ķ à¦°
k y
Ġ1 00
r it
Ġà¦ ¤
Ġ *
ik e
Ġl o
è ´
¥ à«Ģ
áĥĺáĥ ļ
b er
áĥĶáĥĳ áĥĲ
áĤ ķ
Å ¼
ĠÃ ł
æĸ ¹
Ð ¡
l an
ĠÎ ł
å ±
ĠÃ ¶
à° Ł
à° ¦
ĠL a
Ġun a
y e
Ġ0 5
m o
Î» Î¿
ch e
à¤ ¦
Îµ Î¯
à¦ ¦
at o
y d
ay a
is s
ĠØ§ÙĦ Ø¹
è½ ½
Ġ0 7
Õ ¸
Ġf un
á» Ļ
Ø§Ù Ĥ
Ð¸ ÑĪ
Ġb i
ĠE l
it u
Ġn ie
ÑĨ Ð¸
z en
ĠC om
am i
à¯Īà® ¯
à° ª
5 0
Ġà° ¤
à±įà° ¤
à±įà° ²
Ġet a
à° ¡
ĠÐ £
il a
Ġ2 9
m an
is e
Ġ201 5
Ġ ï
Ġ0 00
O N
et a
c ia
àª¾àª µ
Ø± ÙĬ
Îµ ÏĤ
_ _
Ġàªħ àª¨à«ĩ
end e
p ort
à¸± à¸ļ
íķ ľ
ãģ ĭ
u ar
Ġt ak
Ð°Ð ¶
Ġ0 4
s h
Ġm ak
Ð¸ ÑģÑĤ
Ġà¤ ²
g i
áĢĻ áĢ¹áĢ
a u
ì Ĭ
Ġ0 6
ĠÏĦÎ· ÏĤ
ent o
à¯ģà® ķà¯įà®ķ
ķ áĢ«
Ġà¤ °
ĠÐ¸ Ð·
à® ¯
Ġo ch
as e
Ġ20 20
áĥ Ĵ
Ġì ł
c k
l Ä±
b o
c o
Ñĥ Ð½
Ġà¦ ħ
å¹ ³
È Ľ
æľ ī
ä¸ĭ è½½
áĥĶáĥ Ľ
Ġm i
Ġà¤ ¤
à¹Ī à¸²à¸
Ġm od
Ġáĥ ¬
×Ļ× ª
Ã ¬
à¤¾à¤ ¨
áº ¥
è Ģ
áĢĶáĢ¹áĢ ¸
ĠÏĦÎ· Î½
on s
áĢħ áĢº
æ °
v en
p er
Ġw e
Î Ł
f er
à¯ģà® ¤
àª ¯
ĠÑģ Ð¾
à´¿à´ ķàµįà´ķ
à§ĩà¦ ¨
Ġm at
l ine
Ġc u
Ð°Ð» ÑĮ
ì ļ
áĥĿáĥ ¡
ļ àµįà´ļ
ĠÚ© Ø§
å¹ ´
äº Ĩ
áĥĶáĥĳ áĥĺ
ĠÐ Ĺ
Ġp od
Î Ļ
ä ¿
à¦ Ł
ĠÚ© Ûģ
à¦ ª
Ġi r
d en
âĢ ĭ
al am
ç Ļ
ãģ £
ë¡ ľ
Ġa y
Ġm as
Ġp os
Ð° ÑģÑĤ
à¹ Ĥ
Ãª n
Î¯ Î½
c t
åı °
Ġb r
Î ¶
Ġi z
ĠÙħ Ø¹
Ġd he
Ã ²
ut e
m in
ê³ ł
Ġáĥ £áĥ
áĢļ áĢº
ĠL e
à°¿à° ¨
Ġp ers
áĢĢ áĢ¹
1 2
áĥĿáĥ ľ
ĠÐ ĺ
an y
Ð³ Ð°Ð½
Ù Ģ
à¸ģ à¸²à¸£
à°¾à° ¨
Ġb il
ĠÎ ļ
Ġà¦ ľ
ÑģÐº Ð¸
ĠT r
ë ı
Ø¨ Ø±
ol e
Î± Î½
Î¿ Ïį
Ġp ag
Ġo d
im e
b i
æ ķ
å®ĺ ç½ĳ
us e
ãĥ¼ ãĥ
am e
Å Ľ
Ġ201 4
o z
Ã© r
Ġà´ İ
ur i
ic k
er n
ÑĢ Ð¾
Ġa ut
à´ Ļàµįà´
Øª Ø±
á» ĳ
is ta
à¸²à¸ ģ
1 9
Ġt ra
Ã¡ t
å ¯
Ø§Ù Ī
A T
Ġe a
Ġg i
ì ¶ľìŀ¥
r at
áĥ£áĥ ł
Ġ ent
ĠR e
u re
Ġv al
ĠÙ¾ Ø±
Ø§Ø ´
ĠÎ³ Î¹Î±
à° ¯
é ¢
om e
Å ¥
à°¿à° ķ
ĠØ¹ÙĦ Ùī
ä¹ Ĳ
é Ľ
A L
Ġ Ã©s
Ġm er
Ġk at
ĠÎ £
Ðº Ð¾
ol a
ir i
ÙĦ Ùħ
×ķ× ľ
ç Ĳ
Ø§Ø Ń
ä¸ į
Ġun d
ãĤ Ĭ
Ñĺ Ð°
Ïİ Î½
ul l
Ã¼ l
E S
Õ ¥
Ġ ÏĮ
aci Ã³n
ĠÎ ¤
ê° Ģ
ÐµÐ½ ÑĤ
or a
à®Ł à¯įà®Ł
ÑĨ ÑĮ
Ð¿ ÑĢ
ol og
Ðº Ñĥ
Ġ201 3
à«įàª Ł
à®¾à® ©
ê ²
Ġ {
Ġs el
Ð ŀ
ë ¦
Ù ı
à® Ļ
Ð´ Ð¸
a w
áģ Ģ
Ù ĳ
å¿ «
àµ Ĥ
Ġpro d
ig ht
Ġ4 0
ĠÎ±ÏĢ ÏĮ
àª Ĺ
à¸²à¸ ¡
it o
el d
Ġ3 6
in n
æĹ ¥
ĥ ½
l es
Ñĸ Ð²
is a
Ġ×© ×ľ
Ġn u
ir a
s s
à¤° à¥įà¤
ĠÂ ·
àµįà´ ±
ï¼ Į
v i
un a
¯ äºļ
el i
à±įà° Ł
ãĤ ¹
× ¦
Ġ× ł
ĠÐ² Ð°
Ø§ Ú©
áģ ¿
áĥ §
es e
å Ŀ
ä¸ Ĭ
áĢĦáĢ¹áĢ ·
à¤ ļ
å ĵ
Ġ ÅŁ
áĥĺáĥ ĵ
f a
h et
Ī ëĭ¤
à± Ĥà°
ÙĦ ÙĬ
áĢĦáĢº áĢ¸áĢ
ĠØª ÙĪ
Ã¤ l
ãĤ Ĥ
ĠÃ ¥
Ø ¥
Ġáĥ ķ
in k
qu e
Ñĥ ÑĤ
Ġ Ïĩ
Ġê °
Ġt u
Ġ", "
ÛĮ Ùħ
ÉĻ l
Õ ¶
à±ģà° ²
Ã« n
áĢŃáĢ¯ áĤĶ
à® ¨à¯įà®¤
áĢ¯ áĢ¶
Ð°ÑĤ Ð¸
Ġd at
áĢĢ áĢ¼
áĢĬ áĢ¹
ë ¥
Ġà¤® à¥ĩà¤Ĥ
Ġ ãģ
x t
Ġáĥ ĳ
ik i
re d
àª ¦
àª¾àª ¯
Ġ201 2
È Ļ
Ã¸ r
3 0
k t
ĠÎ ¸
à¦¿à¦ ķ
y t
æ Ń
i x
æ Ķ
O M
æ µ
Ġâ Ĥ¬
Ġin d
Ġp as
Ġj u
Ġat t
ĠÑģ Ð²
ÏĦ Î¬
ĠáĥĲáĥ ł
à´° àµįâĢį
àª ľ
e a
ÉĻ t
è ¦
Ġw ith
Ġy ou
à¸²à¸ ¢
Ðµ Ð³
àª ¡
É Ľ
Ú Ī
? ?
áĥĶáĥ ķ
Ġ ul
à¤ ¯
Ġm ga
y l
à¹ Ģ
i i
ion e
it t
ÙĬ Ø¯
é ģ
çº ¿
à«ĩàª ²
à´¾à´ £
áĢ±áĢ Ķ
ì ľ
Ġ× Ĺ
æ ´
ĠÛģ ÙĪ
Ġå¤§ åıĳ
ec t
Ġà° °
9 9
à¸Ĺ à¸µà¹Ī
áĢ¬ áĢĢáĢ¹áĢ
O R
ĠÎ ľ
ĠA d
Øª ÛĮ
Ġcon t
b u
Ġì ķ
r et
ì ĥ
Ñĥ Ñģ
Î £
Ġd in
æ ŀ
å® ¶
Î» Î»
ĠØ§ÛĮ ÙĨ
æ ł
Ġ3 1
d an
n Ã©
à± Ī
ĠÙħ ÙĪ
A S
Ġë °
Ã¡ c
ä¼ ļ
à¸£ à¸°
Ø± Ø¨
ĠÎ ·
p p
Å ¯
Ð¾ Ð¸
à¹Ī à¸Ń
Ïģ Î¬
Ġc a
Ġe en
ê¸ °
áĢĬáĢ¹áĢ ¸
áĥĶáĥ Ĺ
æĪ ı
Ðµ ÑģÑĤ
×Ļ× ¨
Ð ĺ
à¦¾à¦ ²
ar k
æ İ
ãĥ ĥ
ĠÏĢ Î¿Ïħ
Ġk wa
ìĦ ľ
ĠÃ ¤
ul a
áĥĺ áĥĲ
à®¾à® ķ
es ti
av e
ãģ Ĩ
n et
m as
à¸Ķ à¹ī
áĥĲáĥ ®
Ø§Ù Ĭ
Ðµ ÑĪ
áĢ¬ áĢĦáĢ¹áĢ¸
Ðµ Ñĩ
Ġ": "
j i
Ġre c
ãĤ Į
ìĿ ¼
à´ ¨àµįà´
å¹³ åı°
Ġ äºļ
ĠØ§ÙĦ Ø³
é Ŀ
à¯ Ģ
Ġàª Ń
Ø§Ø ¬
and o
ãĤ ¤
ÎŃ ÏĤ
in s
Ġb at
Ġb ar
à®° à¯į
2 2
Ġ ur
Õ «
ĠÐ² Ñĭ
à®¿à® ±
æ¸¸ æĪı
ĠÎ Ķ
ac e
ç §
ĠáĢ Ĩ
áĢĲ áĢļáĢ¹
ot o
à´¿à´ °
en ti
y o
Į Ģ
ĠO n
ĠØ± ÙĪ
ĠS p
ÛĮ Ø§
Ð¸ Ð»Ð¸
ãĤ ī
ed e
el t
1 6
Ġs on
à´¿à´ ¨
Ø± Ø¯
ĠÙĨ ÛĴ
8 0
àª¾àª ¤
Ð½Ð¾ ÑģÑĤ
áĢ±áĢ Ľ
k l
ì ĸ
ar en
Î ķ
Ġàªª à«įàª°
áĢĲ áĢº
Ġà¹ ģ
or s
Ġm eng
à¸£ à¸µ
ĠÂ °
áĢ¶ áĢ¯
it s
y m
á» ģ
an te
ÑĨ Ñĸ
Ġà¦ª à§įà¦°
å ĳ
ÐµÑĤ Ð¾
à¯įà® ļ
Ã¢ n
Ã´ ng
ÙĨ Ø§
Ø§Ø± ÛĮ
Î¹ Ïĥ
ÑĨ Ð°
áĥ£áĥ ļ
ì Ľ
å¼ Ģ
ĠÏĥ Ïħ
Ġáĥł áĥĿáĥĽ
Ú¾ ÛĮ
ĠÑĢ Ð°Ð·
Ù Ĵ
ur s
àª ³
Ð» Ñĸ
ê µ
ç ¾
Ġb es
áĢ· áĢº
æ ĭ
Ùħ ÙĦ
áĥĲáĥ ¢
ĠáĢ ģ
n ya
à´¾à´ °
à® ªà¯įà®ª
à¦¿à¦ ¨
çĶ ¨
áĥĲáĥ Ĺ
ĠâĢ ¢
j Ã«
Ð¸ Ð¹
el o
Ã¥ r
ç« Ļ
ap a
is k
áĢķ áĢº
à¤ £
ĠÙħ ØŃ
à´¾à´ ¨
on i
Æ ¡
ë Ĥ
áĢ ĺ
al ar
á» ĥ
Ġcom p
es i
1 5
e j
å Ĵ
il m
ch t
y r
im a
æīĭ æľº
à® ļ
ĠáĢ Ķ
ag i
Ġth at
t uk
áĥ£áĥ ļáĥĺ
à¦ Ĺ
v al
à´Ļàµįà´ Ļ
Ð¾ÑĤ Ð¾
Ġm ai
ĠÚ© Ùĩ
Ġà®İ à®©
Ø± Ùģ
å¤ ©
× Ł
Ġà¦ °
ti k
Ã© g
à°Ĥà° ¦
à¹Ī à¸ĩ
an k
Ø¹ Ø¯
à¤ ¡
ÃŃ t
Ä ĩ
Ġà® ī
Ġp i
Ñı ÑĤ
áĥ ĳ
im i
ĠØ¨ Ø§
Ð°Ð½ Ð´
n ie
Ïģ Î¯
Ġi d
ĠA m
ë ĵ
à¯ģà® ķ
Ġre g
ìĿ Ģ
æĸ °
ãĥ Ī
ĠáĢ Ĵ
ÏĦ Î±Î¹
à±į âĢĮ
7 7
Ġs al
eg o
Ġàª¹ àª¤
à¦¾à¦ ®
i re
ĠÎµ ÏĢ
à¥ĭ à¤Ĥ
ĠÄ °
Øª Ùĩ
Ġ Ø§Ùħ
w o
Ã© n
ĠØ£ ÙĨ
Ġa re
áĥĲáĥłáĥ Ĺ
it i
ì Ĥ¬
ĠÐ¸ Ð½
emb er
×ķ× ĵ
Ã§ Ã£o
3 6
áĤ Ī
Ġs am
Ùħ Ø§
à¯ Ĥ
á» §
Ð½ Ðµ
Ġàª ¥
Ñĥ Ð±
áĥĶáĥ łáĥ
áĢ Ŀ
Ġà¤ ¯
al iz
à´¿à´² àµįâĢį
Ñĥ Ñĩ
áĢĲ áĢ¬
à¤¾à¤ ¤
Ġ201 1
áĢĻáĢ¹áĢ ¸
ot el
à¸· à¸Ń
d u
ĠÐ´ Ð¾
Ġà¤ķ à¥Ģ
ig a
r as
ak an
Ī ĺ
Ġd it
è Ĥ
Ġm ag
ĠÐ Ľ
Ġ Ò
Ġà¤ Ĺ
at t
Ġ× ª
u y
áĢ± áĢ¸áĢ
1 4
en n
1 8
ĠØ¨ Ø§ÙĦ
ĠÏĢ ÏģÎ¿
àª ¥à«Ģ
áĥĶáĥ ĵ
Ġ3 5
en er
×ķ× Ł
Ġáĥ ľ
ĠØ§ÙĦ ØŃ
er v
Î¹ Î¿
Ġà° Ĩ
ĸ áĥĶ
áĢŃáĢ¯ áĢ·
ì ²
à±ģà° ¨
ÃŃ a
Ġg e
ĠC on
àµįà´ ²
à¤¾à¤ Ĥ
Ġb et
Ġà¦ ¶
Ġà¸ ª
ĠÙĦ ÙĦ
à¦° à§įà¦
Ġa j
ol d
à«įàª ¤
áĥĿáĥ ķ
Ġal l
áº Ń
Ġà´ ĩ
ak e
à± Ĭ
ĠÐ¿ ÐµÑĢ
Îµ Î½
ĠÑģ Ð¿
ĠÏĥ ÏĦÎ¿
àª ¶
áĥ ª
ĀĀ ĀĀ
.... ....
ig e
âĢ ¦
ĠÐ¿ÑĢ Ð¾
ub l
ÙĨ ÛĴ
áĢŃáĢ¯ áĢĦáĢ¹áĢ
) .
£ ¼
eng an
ĠN o
Ġê ²
r en
ĠÄ į
ie w
ag a
r os
E L
ĠÑĤ ÑĢ
Ġc l
Ġw as
ic o
ĠÏĦ Î±
Ġì Ĺ
è¡ Į
m en
×ķ× ĳ
Ġam b
ah a
Ö Ĥ
k er
à¤¿à¤ ¯
Ġm eg
Ġ× ¨
Ġà´ ļ
à®¿à® Ł
ĠÃ º
àµģà´ Ł
Ġf Ã¶r
Ġv Ãł
Ġt y
áĥ ¥
Ø³ ÛĮ
Ġj o
Ð¾Ð» ÑĮ
ìĬ ¤
à´¿à´ ļàµįà´ļ
áĥ Ļ
àª¿ àªķ
Ġm il
Ġç İ
Ð°Ñ ļ
Ïģ ÏĮ
áĢĸ áĢħáĢ¹áĢ
l et
ek o
åĴ Į
à¤ ¬
Ġàª ļ
áĥĺáĥ ł
×Ļ× ł
l and
ing s
Ġw at
Ġå ħ
à±ģà° Ĥà°
j u
Ø¯ Ùĩ
S T
Ø§ÙĨ ÛĮ
Ġà¤ķ à¤°
ÏĦ Î®
à¤ ľ
ar s
æĿ ¥
Ġl os
Î¿Ïħ Î½
Ïĥ ÎµÎ¹
Ġ ä»
à¦ ¼
Ġàª® àª¾àª
Ġ á»į
à±ģà° ķ
×ķ× ł
Ġà¦ ¯
b en
k en
ek s
Ġ @
çĶ Ł
à¦¾ à§Ł
áĥĿáĥ ĵ
Å Ĩ
á» ĭ
à¤¾à¤ ²
áĢ±áĢ ĲáĢ¬
áĢ½ áĢŃ
æ ¬
àª Ł
ÙĬ ÙĦ
v el
ĠØ± Ø§
a f
1 7
Ġs c
Ġu p
Ðµ Ð±
Ð¾ Ð½Ð¸
áĢ² áĤĶ
Ġa ti
Øª Ùħ
à®¾à® ²
áĢĲ áĢ²áĢ·
ìĿ ¸
2 4
Ġk l
Ġ× ¤
à®© à¯į
Ġà°ª à±įà°°
ĠàªĨ àªµ
Ġ <
Ð°Ð´ Ð¸
Ŀ ¼
àª §
Ã¶ n
Ġf in
à¦¿à¦ ¤
Ġn d
Ġc an
Ġpr es
z t
ĠÎ ²
à¦¿ à§Ł
Ġàª «
àµģà´ ķ
à¯įà® ²
Ġg a
er o
U R
) ;
Ð Ŀ
ĠáĢ ĳ
Ġáĥ ®
Ġv ÉĻ
Ġse g
Ġin c
f or
ĠÑĤ Ð°Ðº
3 3
à¸² à¸Ļ
6 6
c tion
ë¦ ¬
×Ļ× Ķ
åĩ º
an ya
Ġàªª àª°
Ñĸ Ð½
Ġe k
Ĺ à°¾
çī Ī
ĠÑģ Ð»
Ġcon s
ĠS o
Ġà¤ķ à¥ĭ
à«ĩàª ®
áĢ±áĢ ĲáĢ¼
Ã¡ m
è ĩ
u v
á ŀ
Ġm y
Ġg j
É Ķ
Ġ ÏĨ
Ġæ ľ
Ġàªķ à«ĩ
al o
à¤ Ł
à¦ ¹
Î¼ Î¿
Ġn ot
å ¨
ãĤ ĵ
ä¸ ī
g o
áĥ ¨áĥĺ
l am
Ð°Ñ İ
Ġì ĺ
al d
ä½ ĵ
à¤¨ à¥ĩ
áĢŃ áĢ³
Ġ Å¡
ĠØ§ÙĦ ÙĦ
Ġà¤ Ń
áĢŃáĢ¯ áĢ¸áĢ
Ð¸ Ð¸
åľ °
Ä± ÅŁ
ĠH o
Ġà´ Ĩ
E T
ti m
ÑĢ Ñĭ
ç½ĳ ç«Ļ
Ġth is
à¦¾à¦ ķ
à°¿à°Ĥà° ļ
æ ²
Ðµ Ð¶
Ġc ol
al s
ëı Ħ
à¸ ĸ
p h
áº §
Ä± m
Ñĸ Ð»
ÛĮ Ú©
Ġ201 0
Ġà¤ ī
ak i
b an
à¸¥ à¸°
ti r
Ġu z
es ta
Î± ÏĤ
Ġ×Ĳ ×ª
ë§ Ī
Ġk r
Ġë §
Ġn y
ĠÐ¸ Ð¼
ĠÐº Ð¾
Ġk ar
ĠÐ¿ Ð¾Ð´
ch i
áĢĶ áĢ¹
å ī
à® ´
à¤¿à¤ ķ
Ġd engan
áĤı áĢ½
áĥĺáĥ ª
ä½ ľ
Ġáĥ ¤
áĢģ áĢº
Ġun tuk
è ī
Ġï¼ ī
c es
áĥķ áĥĶáĥļ
Ġáĥ ¥
n er
ch a
9 0
ĠÐ° Ð´
and a
Ġàª ĸ
áĢķ áĢ¼
! !
Ð¾Ð² Ð°
iv ers
áĥĿáĥ ļ
4 0
5 5
Ùħ ÙĨ
ĠÐ¼ Ð¾Ð¶
Ġin i
áģ¿ áĢķ
à¯įà®ķà®³ à¯į
à®¿à® ķ
æ ĥ
Ġl ang
à® ķà¯įà®ķ
g er
Ġk un
Ø§ Ûģ
Ġa i
áĢĻ áĢ¾
Ġw h
ok o
Ġn Äģ
il d
× ĸ
00 0
à¯ģà® µ
Ã³ w
ĠØ º
ÉĻ s
ãģ ı
å Ł
Ġà¦ Ĺ
Ġf a
p o
« ĺ
åħ ¬
em e
g en
ÐµÐ» ÑĮ
Ïģ Î³
Ġt ot
Ð°ÑĢ Ð¸
Î¼ ÎŃ
ĠÏĥ ÏĦÎ·
Ġh er
el le
ÑĢ Ð°
ĠP ar
Ġáĥ ©
Ġà® Ĩ
al t
Ġs up
ä ¾
1 3
7 0
ĠÏĥ Îµ
s te
á» Ľ
A M
Ùħ ÛĮ
ì ĺ
ak t
Ġh u
ĠO r
é ¡
or es
j o
k in
Ñ Ķ
ĠÛģ ÛĮÚº
ãĥ «
Ã½ ch
Ľ à§ĩ
l d
Ġ3 2
ent ru
k et
ut a
à®£ à¯įà®Ł
åĲ Ī
à´Ł àµįà´Ł
ĠQ u
à¹Ģà¸ Ľ
ÎŁ Î
áĢĽ áĢ¬
Ġp ost
i en
Ġâ Ĩ
ik o
Ġå ı
Ġv ol
àµ Ĭ
v is
ĠÏĢ Î±
Ñģ ÑĮ
à¸± à¸ĩ
Ð¾ Ñĩ
àµ ½
p os
àª¿àª ¯
Ġst r
Ġì ĭ
áĥĿáĥ ł
Ġi f
Î¬ Î½
I T
ÑĤ ÑĮ
Ġàª¤ à«ĩ
Ġl Ãł
à¸¡ à¹Ī
áĢ Ł
Î¿ Î»
àµ ¼
ow n
×Ļ× ľ
Ġs in
ÙĨ Ú¯
Ĺ à¸µà¹Ī
ÙĪ Ø¨
à§ģ à¦
Ġl as
us h
v o
Ð½ Ð¾Ð³Ð¾
ÏĦ ÏĮ
Ġ4 5
Õ¸ ÖĤ
ot t
Ð ¢
ìĭ ľ
Å £
Ã¤ Ã¤
Ð ķ
ë ħ
à®¿à® ¤
à°¾à°° à±ģ
al it
à´ª àµįà´ª
Ð°Ð³ Ð°
ĠP er
áĢŃáĢ¯ áĢĦáĢº
Ã ¹
Ġb el
Ġ× §
Ġse b
ĠáĢ »
à¸± à¸Ļ
Ġe in
Ġy o
Ġc ar
Ñĥ Ðº
à°¨ à°¿
ĠP l
Ġà «
ë¥ ¼
Ð¾ ÑĪ
il le
Ġà¦ ļ
ĠÎ »
f ic
åľ¨ çº¿
Ġàª ī
ĠÎ± Î½
à¸ ¶
Ġs ur
à¸± à¸Ļà¸
ĠÑ ī
Ùĩ Ùħ
ð Ł
à¦¾à¦ ¦
àªµ àª¾
l ÉĻr
Ġs em
Ġï¼ Ī
áĢĲ áĢ½
Ġt id
Ġp ÅĻ
Ġd r
àª ¬
áĢ» áĢķ
Ġk er
ide o
å° ı
è ¾
Ġde m
Ø¦ ÛĴ
Î» Î·
Ð¸ Ñħ
áĥ ¬
Ġin form
ov a
æľ ¬
ĠT e
Ð¸Ð½ Ð°
om a
Ġì Ħ
ÙĦ Ø§Ùħ
à¸²à¸ ĩ
ĠA z
æ Ļ
ig n
Ġs l
å¸ Ĥ
àª¨ à«įàª
ê ±
æ ±
Ġs y
à§įà¦ Ł
ĠN ew
åĿ Ģ
Ġ Ïħ
ĠáĢ ĺ
ah i
Ġv is
ÑĢ Ð°Ñ
Ġt re
ĠP re
I C
æ³ ¨
Ġ á¹£
áĥĶáĥĳ áĥ¡
Ġm it
ĠG r
Ġ ist
c z
um a
ab a
iy a
Ġk w
Ġà° ¬
Äģ s
ë °
o ok
ĠÎ Ł
ĠA s
u f
Ġk as
Ġàªª àª£
ĠE r
-- --
à°° à±įà°
ion al
s z
íķ ´
Ġ Å¾
æĪ ·
Ġd os
Ïī ÏĤ
at ur
Ġà¤ ĩ
Ġr a
Ġ6 0
ed er
on o
ĠP h
çĲ Ĩ
Ġà¤¸ à¥ĩ
áĢ¬ áĢĦáĢ¹áĢ
Ġv ir
ĠÐ ¤
ĠáĥĲáĥ Ľ
áĢ Ĵ
æ Į
Ġê ³
ad os
Ġà¸ ģ
Î¯Î½ Î±Î¹
å½© ç¥
6 0
2 5
p t
ĠÙħ Ø³
í Ĭ
Ġà° ¦
Ġq Ã«
ra c
Ã¦ r
Ð°Ð» Ñĸ
oc k
Â µ
Ñĥ Ñİ
àª¾àª® àª¾àªĤ
ang an
Ġ3 4
Ġà° ĩ
àµĩ à´
Î Ĺ
Ġ3 3
à¥įà¤ ¤
ĠØ§ÙĦ ÙĤ
á» ±
ĠÐŁ ÑĢ
¯ à¦¼
ä¸ º
æľ Ī
Ú ĳ
Ġp ot
àª¨ à«ĭ
à¹Ħ à¸Ķà¹ī
ĠN a
Æ°á» Ŀ
Ïģ Îµ
ĠØ§ÙĦ Ø¬
O S
à¹ī à¸Ń
ÙĨ ÛĮ
áĢ¯ áĢķáĢ¹áĢ
ĠV i
ak s
Õ¡Õ ¶
Ġ× Ĵ
ä¸ ª
ci Ã³n
à¸± à¹ī
ÙĦ Ùī
f r
Ð°Ð» Ð¸
Ġà¤ª à¥įà¤°
ç¾ İ
Ġt ur
ãĢ Ĥ
Ġà¦¬ à¦¿à¦
an ia
ãģ į
ÑĬ ÑĢ
un e
Ġo ver
ĠØ¹ ÙĨ
à´¿à´ ķ
ĠÐ¿ÑĢ ÐµÐ´
ì ¹
Ġd ar
* *
ĠÙĨ Ûģ
áĥĿáĥ Ĵ
Ġà¤ ¶
ĠÐ´ Ð»Ñı
ĠD et
Î½ Î·
ti g
ë ³
Ø± Ø§ÙĨ
ĠÐ ¥
at iv
Ġà ¨
Î® ÏĤ
Ïĥ Îµ
Ø§Ø µ
ĠS a
ãĤ ¯
Ġ×ľ ×Ķ
çľ Ł
Ġpers on
I S
Ġn on
æ Ħ
àª¾àª ¸
áĥĿáĥ łáĥ
éĽ Ĩ
çĶ µ
à´³ àµįâĢį
ek t
o f
à¹ĥ à¸«
è§ Ĩ
ĠÐ¼ Ñĥ
es te
at h
ãĥ ©
Ġvo or
ÉĻ k
ä¸ ļ
áĥĺáĥ ¢
æ ¯
o i
Ġáĥĵ áĥĲáĥ
à¦¾à¦ ¤
áĥĵ áĥĲ
ot e
Îĳ Î
ab le
ĠB ar
y i
Ġhttp s
ÑĢ Ð°Ð½
à§įà¦ ¬
Ġp u
Ġ× ĵ
Ñĥ Ð¿
ra v
p ar
à¸µ à¸¢
è Ī
à´¾à´£ àµį
é ĺ
Ġn jÃ«
ìķ Ī
à«įàª µ
² à±ĭ
Ð°Ð½ Ð½Ñı
Ġn ga
Ä ¼
re e
ent s
è¦ ģ
Ġà° ī
Ġho Ê»
± ä¹Ĳ
ĠáĥĴ áĥĲáĥĽ
c on
ĠP ost
ĠN e
áĥĺáĥ Ļ
4 4
Ä °
Äģ k
Ðµ Ð¿
ĠÐ ķ
áĢ±áĢ¬ áĢĦáĢº
Î» Î±
ÉĻ d
è ĥ½
ad es
Ġm al
Ø¦ ÛĮ
ãĢ ĳ
Ġn em
ç ł
ed i
à¦¿ à¦°
Ðµ Ð»Ð¸
åħ ¨
Ġà° Ĺ
Ġà¤ ı
ĠB l
à¸ ĵ
m et
Ø¯ Ùħ
b et
ĠâĢĿ ,
Ġe z
Ġe i
Ġc Ã³
Ġà¸ Ħ
Ø± Ùħ
ag o
Ð°ÑĤ ÑĮ
Ġin f
å®ĺ æĸ¹
éĻ ħ
ë ¶
Ġh as
ĠÙħ Ø´
æĪ Ĳ
or n
lar Ä±n
Ġon line
Ð» Ð°Ð´
à¦ ľ
åŃ Ĳ
Ñģ Ð¿
Ġ ud
áĢ±áĢ ľ
ĠØ§ÙĦ ÙĨ
el la
Ġà¤ ļ
Ġå ĩ
à¥ģ à¤
Ġ×Ķ× ŀ×
Î¿ Î½
Ġp al
à´ ¦
å Ģ
Ġd as
åĵ ģ
Ġpro f
à¦ ĩ
an c
ĠÏĦ ÏīÎ½
Ġa le
à®¿à®© à¯į
m l
ĠÎµ Î¯Î½Î±Î¹
Ä ¾
ĠU S
in in
à±įà° ª
ĠÐ ¹
Ġ" .
ĠI s
ë ł
ĠH e
áº¥ t
Ġ200 9
áĢĻ áĢ½áĢ¬
ÑģÐº Ð°
E D
Ä± z
ç Ń
Î» Îµ
Ò ĵ
Ġfor m
b r
ĠÑĤ Ð°
Ġ, "
áĢĲ áĢ¼
an n
ÐµÐº ÑĤ
ĠØ§ÙĦ Ø¨
Ó £
Ġà´ °
à°¨ à±įà°¨
à¦¾à¦ ¬
áĢľ áĢŃáĢ¯
í Ļ
ĠÑĪ ÑĤÐ¾
ol i
Ġse x
Æ°á» £
é ĥ
Ġ×ľ ×Ĳ
Ã¶ z
ar y
Ġ19 9
Ġà´ª àµįà´°
à¯įà® ³
àª¿ àª¤
à®¿à® ķà¯įà®ķ
el y
ĠSe x
Ġs v
gr am
à¸ ľ
Ġt s
Îº Îµ
Ġn ov
Ġh i
h l
an ce
d o
Ġv y
os e
Ġm Ã¼
ĠØ§ÙĦ Ø´
Ġì §
ãģ ĵ
ĠÙħ Ø±
áĢ¸áĢ ±áĢ
ĠB u
ÛĮ Øª
éĹ ¨
Ġin st
Ġc e
íĬ ¸
ãĥ ª
ĠM e
Ð¸ Ð±
Ñĭ Ñı
áº¡ i
Ġf e
h r
ãģ¾ ãģĻ
ĠAn d
ra f
ä» ¥
ç Ĥ
ĠØª ØŃ
à®¾à® ¤
od e
Ã« t
å¨ ±ä¹Ĳ
u al
ÃŃ n
àª° à«Ģ
Ġde c
Ø§Ù ĭ
ur o
u an
ĠâĢĭ âĢĭ
us s
w s
ĠØª Ø¹
d z
Ùħ Ø¯
Ð½Ñĭ Ñħ
àµģà´ ¤
àµĨ à´¯
ĠB r
é «ĺ
Ã© m
àª ļ
à´£ àµįà´Ł
Ġå °
and e
ĠT o
à«ĩàª µ
id o
åĪ °
ÐµÐ½ Ð½Ñı
ÙĢ ÙĢ
àµįâĢ Į
ap at
ĠI t
Ġáĥ Ŀ
à¦¾à¦ ¸
2 8
Ġc n
å¤ ļ
at or
Ð½Ð¸ Ð½Ð³
ĠE s
×Ļ× Ł
in en
us i
Äģ r
Ġo ut
ĠØ§ÙĦ Ùģ
Ġ3 8
áĤ Ģ
Ġt el
ì £¼
ĠìĿ ´
à¦¾à¦ ĩ
Ùĩ Ø§ÛĮ
Ġàªı àªķ
ĠÎ± Ïħ
Ð°Ñ ĺ
ĠK a
àµģà´ ®
ĠÐ³ Ð¾Ð´
Ġcom o
Ġs ek
à¦ Ĥ
ĠÐº Ð¾Ð¼
ÙĪ Ø²
Ġà¦ ī
u x
à® ª
ÐµÐ½Ð¸ Ðµ
ĠÏĢ Îµ
Ðµ ÑĨ
ÙĪ Ø¹
á»Ľ i
Ġ× ¡
Ġe v
Ġs ch
al is
Ġ= "
ãģĹ ãģ¦
» ¿
ĠM an
à¹Ģà¸ ¥
à° Ĺ
ik an
Ð¼ Ð¸
Ġs et
ãģ ķ
äº ¬
er k
ĠA c
Ä± l
un i
ĠÙĩ Ùħ
×ĳ ×¨
Ġà¦ ĵ
à¯įà® µ
Ø§Ø ®
I L
Ñĥ Ð²Ð°
Ġl eg
Ġw eb
Ġfr om
Ġçİ ¯äºļ
es h
Ġ8 0
×ł ×Ļ
Ð°Ñļ Ðµ
à¯ģà® ®
Ġà®ļ à¯Ĩ
ëĭ Īëĭ¤
à¸± à¸ģ
ÃŃ m
ĠÃ¤ r
ãĢĳ ãĢĲ
am ent
Ã© t
Ġäºļ æ¸¸
áĥłáĥ Ĺ
åŃ ¦
à®² à¯į
Ġï¿½ï¿½ï¿½ï¿½ ï¿½ï¿½
áĥĺáĥ ķ
A D
uk s
Ã¡ v
er g
è ¨
ion s
áĤĢ áĢĢ
ĠáĢ ĸ
àªĤàª Ĺ
à¤¿à¤ ¤
ĠF or
ĠC ar
é Ĵ
Ġn et
O L
ĠØ§ÙĦ Ø¥
Ñĥ ÑĪ
à´¤ àµį
Ġ3 7
Ġà¦ Ń
I D
è ģ
Ġ×¢ ×ľ
Ġm em
Ġå ½
áĥĶáĥ ¢
ul ar
z o
ĠÐº Ð°Ðº
Ġ5 5
Ġs ol
Ġs Ã¥
Ø¯ Ø±
Ġc á»§
Ð ļ
2 3
Ġë Ĥ
à ©
w i
Ġf i
W W
id en
Ġà° İ
Ġå ®
Ð´ Ð°Ð½
ĠÄ Ĳ
Ġ. ,
à°ķ à±įà°
äº ĭ
at is
à¦ £
Ġcá»§ a
Ġy our
áĥĺáĥ Ľ
or k
Ł à«ĩ
Ġes te
Ġ3 9
à®¾à® Ł
áĢĻ áĢ»
Ġk ur
× ļ
ok a
ay s
ek a
Ġàª¸ àª¾àª
à ·
à§ĩà¦ ķ
ĠIn ter
ÐµÐ½ Ð°
Ġtr ans
ãģ£ ãģ¦
Ġà¤ Ķ
Ġm es
à°¾à° ¯
Ï Ī
Ġt ar
ç ¨
pr es
4 5
á» ©
Ã¤ t
ÙĬ Ùħ
Ġc or
å· ¥
Ġin s
2 6
y k
Ġ× ĸ
à¹Ī à¸Ļ
Ġt se
Ñ ĵ
Ġa an
à§ ľ
Ġs m
Ġè ¿
w an
Ð° Ò³
et i
à¯įà® ©
ìŀ Ĳ
ÛĮ Ø´
Ġàªµ àª¿àª
Ġà¤ª à¤°
Ä±n da
à¤ §
Ġc as
ĠC OM
çĻ »
Ġl ati
ç ¤
à¯ģà®¤ à¯įà®¤
á» ¥
Ł à¸£à¸µ
Ú¯ Ø±
Ġë ĭ
Ġà° ľ
Ġn os
ec i
¦ à°¿
ìľ ¼
è½ ¦
ĠÐº Ð¾Ð½
p i
al an
ik u
áĥķ áĥĺáĥ¡
Ġê ·
àª¾àª ľ
Ġ4 8
à¯ģà® Ł
ĠE x
Ġs ta
ÙĦ Ùĥ
å ģ
ch en
ãģ Ĥ
ht Ã«
j et
Ð»Ð¸ Ðº
àª¾àª ²
Ġ9 0
Ġr el
Ð¾ÑĢ Ð¸
Ġk Äģ
ÙĪ Ø§ÙĨ
Ġm ul
áĥĶáĥ Ĵ
å® ī
am o
Ġb ol
Ġà¤¹ à¥ĭ
åĽ ¢
Ġà¤Ķ à¤°
éĩ ĳ
Ġáĥ ¢
Ġãĥ »
±áĢ ĲáĢ¬
am an
ĠÃ ¨
Ġt od
os h
ar an
Ġ) ;
åĽ½ éĻħ
à°Ĥà° Ł
Î¿Ïħ ÏĤ
Ġi a
ĠÎ ¬
ģ áĢº
Ġk ut
il o
Ġo u
à´ ķàµįà´
Ġå Ī
Ġd ur
ie k
Ġs en
I A
Ð» Ð¾
uk a
ĠáĢŀ áĢ°
Ġ á
áĢĦ áĢ·áĢº
æ³ ķ
Ġm ay
Ġàª Ł
ĠØ¨ ÙĨ
ĠØ °
ĠP ol
ãģ§ ãģĻ
Ġï¿½ï¿½ ï¿½
Ġæ Ī
×ķ× Ŀ
Ġt al
åĽ ¾
Ġà¸ £
l as
ot a
ĠK e
áĥĶáĥļ áĥĺ
f i
ë Ŀ¼
Ø§Ø ·
ĠÑĤ Ð¾
å½©ç¥ ¨
Ð¾ÑĢ Ð¼
á» ¯
à±ģà°¨ à±įà°¨
ĠÎ¸ Î±
Ġp en
ĠD ie
à®² à¯įà®²
ÙĦ Ø§
ĠB a
Ġor gan
c ess
Ġà°ļ à±ĩà°
Ġt ill
ÐµÐ½Ð¸ Ñı
âĢ ľ
ĠD i
ud i
l en
Ġæ Ĺ
áĥ ¨
Ġc i
ĠÏĦ Î¹
7 8
×ķ× Ĳ
Ġil e
Ġt sa
ÏĥÎ· ÏĤ
à´¿à´ Ł
at an
ci al
Ñĭ Ð¼
ĠáĥĴ áĥĲáĥľ
ab il
am il
Ġì Ĥ¬
Ġc are
Ġt emp
Ïģ Î·
ĠH a
ç ®
ÙĪ Ø³
à°¿à° ¤
ĠÐ´ Ð°ÑĢ
ĠâĢĿ .
Ø ¢
ud e
à«ĩàª ¶
à¥įà¤¯ à¤¾
Ð°Ð± Ð¾ÑĤ
à¤¿à¤ ²
ĠÐ ¨
Ïģ Ïī
ĠS ch
ĠÐ³ ÑĢ
at er
áĥĲáĥ Ĵ
ĠÙĩ Ø§ÛĮ
Ġi g
ĠÙħ Øª
al ah
ĠP M
t re
Ġch o
b y
ãģ ł
àªµ àª¾àª¨
áĥĺ áĥĲáĥľ
à¦¿à¦ ²
à«ĭ àªķ
Ġp un
ĠB e
æľ Ģ
è ¶
çľ ĭ
àµįà´ ³
im o
à±įà° µ
ĠÑģ Ð°Ð¼
ĠÐ² ÑĸÐ´
Ġs ig
áĢ¸áĢ Ļ
lar Ä±
Ġàª° àª¹
áĢ±áĢ ŀ
áĥĺáĥ Ŀ
Ġo le
Ġà®ĩ à®°
ĠØ¨ Ú¾ÛĮ
Ġw ord
æ Ľ
Ġàª®àª¾àª Łà«ĩ
Ġt op
Ã¡ g
áĥ ŀ
Ð½Ð¸ Ðº
à§ģ à¦²
Ġc re
ĠG o
Ġes c
áĢ±áĢ ķ
Ġk or
à¹Ī à¸²
é £
id i
Ġes p
Ġ Ø§Ø±
åħ ¥
og y
Ġà¤ķ à¤¾
Ġm el
Ġ ing
æ £
éĥ ¨
i ro
ÉĻ m
ĠD es
×Ļ ×ķ×ª
ar r
ri p
Ġm ot
3 5
Ø° Ø§
à®Ļ à¯įà®ķ
Ø¨ ÙĬ
à´ Ĺ
ìĽ Ĳ
à¹Ģà¸Ľ à¹ĩ
Ġ4 4
Ġse c
ĠÏĦÎ¿ Î½
v ar
àª¾àª £
Ġs ob
Ð¸ Ð³
g et
Ġ200 8
ĠÙħ Ø¬
ÎĻ Î
ul i
àª Ń
Ġf ra
Ġn ag
ĠÐ¾ Ñģ
áĥ ¦
±áĢ Ķ
áĢ¬ áĢ¹áĢ
om b
¸ à±įà°¤
Ġv Ãµ
ç½ĳ åĿĢ
as ta
åı ¯
ĠÛĮ Ûģ
ĠC o
2 7
j on
æ ı
ĠØ§ÙĦ Ø¯
Õ¥ Õ
ed en
áĥĺáĥ ļáĥĺ
Ã¼ k
h an
Ġà´ Ĵ
Ġh an
ab i
Ġf ac
um u
ĠM o
ul e
àª¾àª ¦
Ġh el
áĥ £
Ġs ub
j en
Å į
ë ŀ
áĢ±áĢ¬ áĢĢáĢº
Ð Ķ
l ah
Ġå ľ
Ġå į
Ñĸ ÑĤ
à®± à¯įà®±
áĢĻ áĢ½
ë ©
à¤¾à¤ ®
ul d
¡ à±ģ
Ø§Ø ¶
ov e
Ġh ab
å® ¢
Ġp at
Ð°ÑĢ ÑĤ
×Ļ× §
Ġm emb
ĠÐ §
ģ áģ
Ġê ¸
áĢĸ áĢ¼
ì Ĩ
Ġpo ur
Ð¸ Ðµ
Ġáĥ ª
ÙĪ ÛĮ
Ġik ke
id ade
Ġv ers
×Ļ× ĳ
ãģĹ ãģŁ
ĠÑĥ Ñĩ
ç ´
p ro
à¸¡ à¸µ
ĠØ§Ù ģ
áĢŀ áĢĬáĢ¹
ĠV er
Ġ9 9
à¥įà¤ Ł
Ġk am
Ĳ áĢ²áĢ·
Î¹ Î¬
2 9
è® ¡
ĠÏĥÏĦÎ· Î½
ÙĪ ÙĤ
on y
áĢ ¥
Ġë ª
ç ķ
um ent
Ġd ari
Ġs im
Ñĭ Ñħ
ĠA M
à¤¾à¤ ¯
à§ĩà¦ ²
Ġh ave
×Ļ× ©
ĠÎ ĵ
im in
Ġin v
Î¯Î± ÏĤ
ĠA b
n es
èĩ ª
Ð°Ð² Ð°
áĢ² áĤķ
à°Ĥà° ¤
áĥĲáĥ ĺ
ĠR es
à§ĩà¦ ¶
é ķ
àª¤ àª¾
r is
Ġë ³
å ķ
Ġà® Ĵ
id er
Ġf l
à«ĩàª Ł
Ġp art
ĠáĢĢ áĢŃáĢ¯
Ġm us
Ġdi re
h er
ĠàªĨ àªª
at ed
ĠIn d
ĠâĢ ļ
áĥĺáĥ £áĥ
ÃŃ s
Ġ7 0
ĠØ¢ ÙĨ
Ġå Ĳ
à´¾à´ ¤
áĥĲáĥ ¨áĥĺ
Ã¬ nh
aci Ã³
è ·
Ĥ °
am ente
Ð¾Ð¼ Ñĥ
Ġm aj
Ġk m
Ġel s
à¸£ à¸²à¸
ĠÙħ ÙĤ
Ùħ Ø§ÙĨ
ĠÑı Ðº
ĠØ§ÛĮ Ú©
ĠØ¥ ÙĦÙī
Ġh al
ĠØª Ú¾
áº ¯
Ġin t
áĥļ áĥĺáĥ¡
Ġ ðŁ
ÖĢ Õ
ĠT er
§ à§
à¸£ à¸´
ĠÐ¿ Ð¾Ð²
__ __
Ġh and
Ġa ta
Ġz u
áĢ±áĢ¬ áĢº
b as
ë ¬
Ġì Īĺ
A C
ĠP a
à¸µ à¹ī
ĠÐ± Ñĭ
à«ĩ àª°
Ġt ek
Ġe f
Ġy e
ĠÙħ Ø¯
Ġ$ (
p or
Ġ4 9
n ÄĽ
à ¶
áĢ¼ áĢ¬áĢ¸áĢ
Ġt an
å ł
Ġáĥ §
çī Į
Ġáģ ı
Ġun e
ĠÐ± Ñŀ
Ġme a
Ġl oc
g y
Ġeg y
ãģ ĳ
Ð°Ð¼ Ð¸
Ġà°µ à°¿à°
ĠØ§ÙĦ Ø®
Ġm Ã¡
à§ģ à¦°
m m
ä¹ ĭ
os a
Å¡ an
ĠÐ² Ñģ
ç¥ ŀ
à§įà¦ ·
à¦ ¶
à° ļ
Ġà¹ Ĥ
Ġd alam
ez a
àµģà´Ł àµĨ
à¦¾à¦ ľ
à¤¾à¤ ¸
al m
à¤¤ à¤¾
ĠÑģ ÑĬ
à¸§ à¸²à¸¡
Ġm on
n en
ed ia
ĠÎ´ Î¹Î±
á» ĵ
áº¿ t
ÙĬ Ø³
U S
Ð³ Ð¸
Ġà´ ¬
Î ¡
à¸£ à¸±à¸ļ
n d
Ø§Ø³ Øª
Ġ4 6
Ġà¦ª à¦°
Ġch i
áĢģ áĢ²áĢ·
Ġà¸ Ń
Ġp entru
ĠS an
Ġ áº¹
ĠÐ² ÑĢ
åį ķ
b ar
áĢ Ĥ
å® ļ
Ġ4 3
o ut
Ð Ĵ
áĢŀ áĢĬáĢº
Ġl ib
ÐµÑĤ Ðµ
ìĸ ´
ä¿ ¡
ed a
áĥĲáĥ Ļ
in u
×Ļ× ĵ
Õ¸ÖĤ Õ
Ã³ l
it z
à¹ī à¸Ńà¸ĩ
àª¾àª° à«ĩ
en ce
Ġáĥŀ áĥł
eg a
st r
ĠI l
æĸ ĩ
Ġ ä½
Ġm is
Ġ ÈĻ
æĹ¶ å½©
Ð Ľ
å¥ ½
ĠÙħ ÙĦ
es k
ul ui
ĠÑģ Ðº
èµ °
èĢ ħ
a il
h ar
Ã¶ v
éĽĨ åĽ¢
Ġà¦ı à¦ķ
ÑĤ ÐµÑĢ
ĠÐº ÑĢ
ãĥ³ ãĥ
ĠÏĦÎ¿Ïħ ÏĤ
ĠÐ ¯
Ã¡ k
Ġsi ÄĻ
çİ ¯äºļ
åĬ Ľ
ĠA t
r am
åĬ ł
Ðµ Ñħ
é ¦
à¹ĥà¸« à¹ī
Ġì ¹
Ð ľ
U N
ãĤ ¢
ĠÙħ Ø§
Ú© ÛĮ
Ġç Ķ
à¸· à¹Īà¸Ń
à¤ ¼
á»ĩ n
Ġm Ã«
èĤ ²
or y
ä¹ Ī
áĢ¬ áĢĽ
ĠW e
Ġf o
g u
Ø³Øª Ø§ÙĨ
ĠØª Ùħ
Î ¤
ĠP or
ti f
åī į
Ġáĥĺ áĥ¡
Ñĸ Ñĩ
ĠE d
uk o
Ġ×Ķ× Ĳ
± àµĨ
Ġê µ
Ġå Ľ
Ð¸ÑĤ ÑĮ
Ġc ent
ç Ħ
ä¸ ĩ
à±ģà° ¤
Î¹Îº ÏĮ
ÏģÎ¹ Ïĥ
iz i
im it
à¤¾à¤ µ
ĠØ§ÙĦ Ùĥ
uk an
p on
m u
é¢ ĳ
ig h
Ð¾ Ð»Ð¸
à¹ī à¸²
Ġ4 7
ĠÚ© Ø§Ø±
à«įàª¯ àª¾
Ġpro bl
Øª ÛĴ
ĠÎ Ĺ
Ø¨ Ø§Ø±
Ġìŀ Ī
Î¸ Î·
±áĢ ĲáĢ¼
å½ ķ
Ġæ ĸ
à¦¤ à§ĩ
ľ Ðµ
Î¸ Îµ
¾ ³
d ir
Î± Ïĥ
å §
ÑģÑĤ ÑĢ
ur op
O T
ĠB o
à®³ à¯į
.. .
à´ ´
± Û
Ġk ap
y ch
ì² ľ
Ġï¿½ï¿½ï¿½ï¿½ ï¿½ï¿½ï¿½ï¿½
à´¿ àµ½
Ġc ap
à¹Ī à¸§
ĠØ§ÙĦ Øµ
à«įàª ²
áĢ¸ áĢĢ
Ñĸ Ð¹
ãĥ³ ãĤ
ĠJ e
Ġd ig
Ġv on
um i
Ġg ro
ÉĻ y
ĠC l
à«ĩàª ķ
Ġï »¿
Ġâ ķ
åĬ ¨
ĠÂ ¬
ĠH otel
í ĸ
ÐµÐº Ð°
áĢ¸áĢ ŀ
Ġk ul
Ú¯ ÛĮ
à¸£ à¹Į
j er
ĠF ran
Ġr et
Ð¸ Ð´Ð°
çİ °
±áĢ Ľ
Ð½Ð¸ ÑĤÐµ
Ġt ut
æĹ¶ æĹ¶å½©
E M
ĠA k
Ġ. âĢĿ
Ġàª¤ à«ĭ
¹ Ħ
à¤¨ à¤¾
ĠD r
Ġà´ ī
Äģ m
Ð» ÐµÐ´
Ġf il
Ġb en
Ġm ah
Ġàª ¡
Î´ Î¿
à¸Ĥ à¸Ńà¸ĩ
à¤¾à¤ ¹
ĠÎ± ÏĢÎ¿
Ã¡ z
ĠØ§Ø ¨
æĬ ķ
é ĸ
Ġser v
Ġp op
áĢ¯ áĢķáĢº
ĠÚ© ÙĨ
Ø ¤
ĠáĢ »áĢķ
ĠØª Ø±
n os
ĠãĢ Ĳ
àª¿ àªµ
×ķ× ¤
éĢ Ł
it al
ĠÐ¿ Ð»
Ġï¼ ģ
ion i
Ñĸ Ñı
ÏĥÎµÎ¹ ÏĤ
Ġa ra
à«įàª¯ à«ĭ
p s
ĠÐ³ Ð¾
Ġàª¸ àª®
Ġl u
Ġà´ ľ
è £
âĢ Ļ
Ġà¦ ²
ubl ic
Ð°Ñ Ħ
Ġt ro
¯ ¸
Ġæ ĺ
Ġë ĮĢ
Ġà¦ ¥
ãĤ Ī
Ġ ä¸Ģ
Ġa qu
e e
ĠØ§Ù ¾
it ion
A K
åľ º
A P
ĠÙģ Ø±
ĠÃ ·
Ġel ler
Ġ( '
å¿ ĥ
ĠÎ ®
Ġì ĥ
ĠN ov
Ġê· ¸
l at
Ġ Ø§
Ð» Ð°
Ê» o
Ø¨ ÙĦ
Ùħ Ø±
Ġd ata
à´¾à´ ²
áĥ£áĥł áĥĺ
Ø§Ù ĥ
ë§ Į
iz e
ģ áĢ²áĢ·
à®¿à® µ
Ġar t
ut o
à¯ģà® ±
à¤¿à¤ ¸
í Ķ
Ã¶ l
à¹Īà¸²à¸ ĩ
Ġàª¤ àª®
ing en
Ġw ill
à¹Ģà¸ ģ
à°¨ à±ģ
åĬ ¿
äº §
t on
ang e
l ed
Îº Î±
Ñĥ Ð¶
ĠÑ ĳ
Ġà° ²
ĠÐ¿ Ð¾Ð»
Ġf al
el en
ĠA ng
Ġd ir
Ġåĩ ¯
iv er
ì Ĥ°
ĠØ¨Ø± Ø§ÛĮ
j as
ĠM as
ĠáĥĽ áĥĿáĥ
Å ±
ĠØ§ÙĦ Ø±
à¸Ń à¸¢
Ġ `
Ñį Ð½
h at
è´ ¹
à¹ī à¸²à¸
y on
p le
2 1
k at
ĠÙĨÛģ ÛĮÚº
ê² Į
Ġt en
il la
å ĭ
à°ķ à±ģ
áĥĶáĥ ¥
Ġp el
å¿« 3
à±Ĩ à°²
áĥĲáĥ ļáĥĺ
ud a
st er
ĠP o
áº¿ n
ĠC as
et o
à¦ Ń
um s
om m
Ġáĥ ļ
Î Ŀ
áĢ±áĢĲáĢ¬ áĢ·
Ġu ch
à¦ ļ
Ġà´µ à´¿à´
à«įàª¯ à«ģàªĤ
ĠB er
j es
ind i
à¸´ à¸Ļà¸
àµ »
aj a
áĥĽ áĥĲ
Ġcon c
or g
à¤ ¶
ĠE m
ĠáĢ ±
Ð³ Ð¾
×Ļ× Ĳ
Ã© p
Ġ5 9
ar m
am s
×ķ× ©
ĠØ ¶
ĠØ¨ Ø¹Ø¯
ä» £
ĠÐ¿ÑĢ Ð°Ð²
Ð Ł
Ġ... .
ĠÐ± Ð¸Ð»
ri b
àµģà´ ³
áĢĨ áĢŃáĢ¯
Ġkat ika
Ġ5 6
àª Ī
àª¿àª ²
Ġà®ª à¯ĭ
áĥĺáĥ łáĥ
ĠH ome
àª¾àª ³
Ġå ¹
Ġn um
Ġà´ ²
åĪ ©
Ġë ¶
is te
ìł ķ
el se
Ġd om
ĠÎ Ŀ
åº ¦
à¸´ à¸Ķ
ãĥ¼ ãĤ
ëĵ ¤
í ĺ
ĠÙĪ ÙĤ
Æ°á»£ c
ad or
ĠM in
Ð¾ Ñĺ
ë ĮĢ
aj i
áĤı áĢŃáĢ¯áĢĦáĢ¹áĢ
Ġtid ak
Î¹ Î½
ĠÐ° Ð±
áĥĶáĥĳ áĥ£áĥļáĥĺ
ê³ ¼
Ļ Ģ
ci Ã³
à¤¹ à¥Ģ
ãĥ ¬
Ð¾Ð² Ð¸
à®¾à®° à¯į
ìĹĲ ìĦľ
Ð½Ð° Ñı
Ġb ez
à«ĭàª ²
Ġb al
ÑĸÐ» ÑĮ
å £
Ġo t
Ġma is
éģ ĵ
à¦¨ à§įà¦
Ġn ak
Ùģ Øª
ĠÑ ĺ
Ð°Ð» Ð°
à«įàª ¸
äº İ
Ñı Ð²
×¨ ×Ĳ
ation s
ë ª
Ġal le
ra z
Ġh ogy
et te
ĠØ± Ûģ
lar i
Ġb ak
ĠR o
Ġh am
à¦ §
Ġo k
áĢŀ áĢ°
ä¹ Ł
ĠØ Ł
ĠM od
áĢĽ áĢ¾
åİ ħ
ĠO p
Ġ5 4
3 8
Ġà®ħ à®µ
Ġt im
Ð» Ð°Ñģ
ep t
Ġ5 00
Ġg er
áĢ¬áĢ¸áĢ Ļ
à¸Ń à¸Ļ
Ð°ÑĨ Ð¸
Ġ íķ
ti d
ìľ¼ ë¡ľ
æ´ ²
ä¸ »
Ġà¦¸ à¦®
éĿ ¢
Ø§Ø¦ ÛĮ
ÑĢ Ð°Ð²
Ġro z
Ġp an
áĥĶáĥĳ áĥĺáĥĹ
ÙĪ Ø´
ĠÈĻ i
Ġet t
ĠJ an
à®¿à®¤ à¯įà®¤
Ġd on
d y
Ø± Ø©
à®© à¯įà®±
ĠØ¯ ÛĮ
à±įà° ļ
ĠM at
Ġ4 2
eb ru
Ð½ Ð°ÑĤÐ°
ĠI m
end o
Ġt it
ĠS u
à®¾à®© à¯į
à¯ģà® ³
èµ Ľ
d ÉĻ
E C
åĮ ĸ
Ġ5 8
Ġc er
Ġàªķàª° à«Ģ
Ã© k
c ar
à¸Ń à¸¥
ĠÑĸ Ð½
àª¾àª Ĺ
Ġl Ã¤
ĠA g
ĠM ay
Ġq il
×ķ× ¢
ç Ł
Ġ/ /
Ð°ÑĨ ÑĮ
ir m
àµĨ à´¨àµįà´¨
Ġå Į
ĀĀĀĀ ĀĀĀĀ
l ad
Ġáģ Ĥ
à´± àµįà´±
á ł
Ø³ Ùħ
ĠÐ¿ Ð¾Ñģ
Ġpro gram
re m
ac a
Ð» Ðµ
Ġr u
×ķ× §
Ġt em
er en
end a
Ġbl og
Ð°Ð½ Ð°
I M
Ã© l
çĤ ¹
àµ ¾
Ġk el
Ġas s
ÙĨ Øª
é ľ
à®¾à®² à¯į
ol u
à¸¹ à¹ī
Ð°Ð½ Ðµ
à¥įà¤ µ
ĠØ´ Ø±
ul o
Ġà¦¹ à§Ł
ari o
à°² à±ģ
ent a
Ġm ol
Ġg b
à°ª à±įà°ª
Ġd ag
æŀ ľ
áĥĶáĥľ áĥ¢
it ar
èī ²
Ġc at
Ð°Ñ Ĭ
å¿« ä¸ī
Ġi Ã§
ìĦ ±
àª¾àª° à«Ģ
n s
áĢ¬áĢ¸áĢ ŀ
an ie
à´¾à´¯ à´¿
Ïĩ ÎµÎ¹
Ġs it
Ġì ¶ľìŀ¥
Ġê° Ģ
Ġl eb
Ġì ľ
Ġáĥ¡ áĥĲáĥĽ
áĥ£áĥ łáĥ
Ġà¸ «
áĢĬáĢ¹áĢ ·
àª¾àª Ī
à´¨ àµįâĢį
ĠR ep
áĢħ áĢ¹
ĠØ§Ø ¹
A G
ìķ Ħ
ÙĦ Ø³
n u
¾³ éĹ¨
ÙĤ Ø©
å ¦
le g
7 5
Ġm ad
Ġv Ã½
Ð¾ Ñŀ
à´¿à´ ¨àµįà´
ÙĦ Ø©
Ã¡ ch
ÑģÑĤÐ² Ð¾
áĥ® áĥķ
Ð¾ Ñı
ĠÎ´ ÎµÎ½
in de
åĪĨ å½©
Ġu it
áģ¿áĢķ áĢ®áĢ¸
Ġi de
å »
àªĤ àª¤
ak u
áĥĲáĥ ¨
Ġpr z
Ġ( "
it et
à¦¾à¦ ¹
à¹Ħ à¸¡à¹Ī
Ð»Ð°ÑĢ Ð¸
ÐµÐ½ ÑĮ
ÄŁ Ä±
ov er
åĮ º
d r
Ġc el
Øª Ø§
áĥĲáĥ ĸ
ĠÃ ĸ
Ùĩ âĢĮ
í Ĩ
à°² à±ĭ
ev e
áĥĲáĥ ¥
ap i
Î¹Îº Î®
Ġo h
Ġà´İ à´¨àµįà´¨
Ġv il
av a
Ùĩ Ø±
ij n
ĠáĢĴ áĢ®
ot s
è§Ĩ é¢ĳ
Ð ĵ
Ġä¸ Ń
à¸ į
ä» ¶
Ġà¦ ĩ
áĢĲ áĢļáĢº
Ġal t
Ø³ Ø¨
ist r
Ġex p
à¸ ©
Ġf el
Ãł n
àµģà´¨àµįà´¨ àµģ
à§ĩà¦ Ľà§ĩ
I I
Ò ·
um b
all y
Ð¼ Ð°
ri j
Ġb as
em i
àª «
Ġs Äĥ
íĻ Ķ
Ġb est
Ġd iv
3 4
un k
ÙĪ Ø¬
Ġ Ã«s
àª¨ à«ģàªĤ
ĠF r
Ġâ Ħ
áĢ° áĢ¸áĢ
¬ ¬
Ġà¤ «
ãģ Ĭ
à«įàª ·
Ġm b
ad as
à¸´ à¸ķ
ĠÐ½ Ð°Ð¿
ul u
t ur
f e
áĥ ĸáĥĶ
Ġà¦ «
áĢľ áĢ¬
ĠØ¯ Ø§ÙĨ
ĠÃ«s htÃ«
Æ°á» Ľ
áĢŃáĢ¯ áĢĦáĢ¹áĢ¸
p re
ĠD E
Ġent re
Ã¼ m
Ġc Ã¡c
ĠÐ¿ÑĢ Ð¸
ĠÙĨ ÛĮ
Ġà´ ¯
al es
ĠÎµ Î½
á»Ļ t
àµ Ī
Ġà®ķ à¯Ĭ
l ÉĻ
y g
I R
à¯ģà® ¨à¯įà®¤
Ø² Ø§Ø±
ic s
ĠÐ± ÑĥÐ´
Ġin te
à§ ¦
ĠÐ± Ð°
Ġàª ¯
Ġà¸ ļ
ĠH er
à°¿à°ķ à°¿
c el
è °
à´¿à´ ¤
Ġt á»
ê± ¸
ĠS er
Ġb ut
Ġà¤ ĸ
Ġz e
Ġ Ĉ
Ïĥ Î±
it en
u er
Ġåĩ¯ åıĳ
s ta
Ġc s
à°¿à° ¯
n Ã½
Ġg et
or o
ĠÛ ±Û
à´¨àµįà´ ¤
áĢĲ áĢ¹
ÑĨ Ñĭ
áĥĶáĥ Ŀ
ĠÚ©ÛĮ Ø§
è ª
Øª ÙĦ
ë ²
éĢ ļ
y le
Ġl et
n ik
à¸ ł
Ġa w
l ag
Ãł y
Ġà¤¹à¥Ī à¤Ĥ
ĠÃ ĩ
Ġ200 7
Ġà¹ Ħ
Ġa o
Ġkh Ã´ng
ĠØ¯ Ø§Ø±
ĠÐ ¦
Ġd al
à¹ī à¸§
à´² àµįà´²
×ķ× Ĺ
Ġk ol
ment s
è ²
am ento
7 6
ĠM en
á» Ł
ØŃ Ø¯
ĠØ «
Ĺ äº¬
à¤¿à¤¯ à¤¾
Ïģ Ïİ
½ ľ
Ïģ ÎŃ
ĠW WW
Ġà´ ¶
v at
Ġit u
áĥĺáĥ ĸ
c u
ah an
ĠØ¨ ÛĮ
Ġ _
á¹£ áº¹
Ä±n Ä±
Ġà§ ¨
Ð½ Ð°Ñĩ
áĢĽ áĢ½áĢŃ
à¸ ĭ
Ġ uk
Ġal s
on es
Ð¼ Ñĸ
å¯ ¹
Ġres p
b le
c s
áĢ± áģ¾áĢĢ
om o
ìķĪ ë§Ī
ĠØ³ ÛĮ
Ġo c
Ġï¿½ï¿½ï¿½ï¿½ ï¿½
àµįà´ ŀ
ãģª ãģĦ
Ġv ideo
Ġ' ,
ÙĬ Ùĩ
Ġà¤ı à¤ķ
Ġ ÚĪ
ĠM al
is ter
ÏĨ Î¿
ç« ¯
b at
Ġàª ĺ
Ê» i
à°Ĥà° ¡
à°¿à° ª
æĥ ħ
m at
us k
áĥĿáĥ ¤
ĠÐ° Ðº
Å Ħ
Ġd ia
id ad
ĠÏĦÎ¹ ÏĤ
Ġàª §
Ġàª¤ à«ĩàª®
áĢĶáĢ¹áĢ Ļ
Ġp m
Ġk al
Å Ī
ĠáĢ±áĢ Ľ
Ġà¤¨ à¥ĩ
ÐµÐ½ Ð¾
åĨ Į
Ã¤ m
Ġprod uc
Ġpar ti
áĢ¬áĢ¸áĢ ľ
áĥĺáĥ ¨
ĠØ® ÙĪØ¯
çĻ» å½ķ
ul le
Ġà¸ ¡
b il
c an
å½ ±
Ã§ a
os s
ĠÚ©Ø± Ø¯
à¸Ń à¸ģ
äº Į
Ðµ Ñ
n ak
åĲ İ
Ġâ ĺ
Ð² Ð¾ÑĢ
Ġn as
à¹Ħ à¸Ľ
Ġ ~
à±įà° ¸
Ġà¸ Ļ
Ġor g
áĥķ áĥĶáĥľ
Ð°ÑĤ Ð¾
Ġ4 1
h en
ëĤ ĺ
ĠK ar
Ð½Ñĭ Ðµ
Ġp ak
Ñĥ Ñħ
Î¼ ÏĮ
Æ ı
ÏĦÎ± Î½
ĠÐµ Ð´
à¤¿à¤ ı
ĠáĢľ áĢ°
ĠÐ¾ ÑĢ
Ð½ Ð¾Ð²
Ġch a
ĠÙĪ Ûģ
×ķ× ¡
ant s
ĠØ¨ Ø§Ø²
à¯Īà® ķ
æĪ ĳ
in ing
ĠÐ½ Ð¾
Ġes ta
Ð» Ñİ
k on
Ġáĥ¡áĥĲáĥ ¥
Ġn uk
à¤¿à¤ ¨
ĠE st
ĠÐ¸ Ð»Ð¸
tic a
Ġac c
Ġ5 3
ĠÐ¾ Ð¿
Å¡ ÃŃ
ãģ£ ãģŁ
ĠØ§Ø ®
ÙĬ Ùģ
z er
ĠÅ¾ e
ĠÒ³ Ð°Ð¼
os i
áº ·
àµģà´³ àµįà´³
Ġg en
à¤¾à¤ ¦
ĠÐ° Ð²
ë į
à¯ģà®ķà¯įà®ķ à¯ģ
ĠÎµ Îº
ĠÎ¼ ÎŃ
Ð £
åĪ Ĵ
Î¼ Î¬
ÈĽ i
A B
ìł ľ
Ïĩ Îµ
ÑģÑĤ Ð°Ð²
Ġh y
um e
ë¶ Ģ
ĠãĢ į
à«ĭàª ¡
Ġh at
ĠÙ ¹
ĠÄĳ Æ°á»£c
it er
l h
à±įà° ®
ìĥ ģ
t ar
æ Ĵ
Ġp ada
ÑĬ Ð»
Ġ. )
Ġ5 7
Ã Ł
ĠÑģ Ð¸
å¤ ĸ
æĸ Ļ
Ġæ ¾³éĹ¨
f in
Ġà¦ ĸ
æ Ł
Ġà¤ĩ à¤¸
Ð½Ð¸ Ñħ
ÑĤ Ð¾ÑĢ
ĠØ¨ ÙĦ
R O
Ġa h
à± Ĥ
Ø¨ Ø¯
Ġ× ¦
Ġak an
ç ©
à§ ĥ
à¹Ģà¸ Ķ
»áĢķ áĢ¬
Ġå½ ©
à¹Ī à¸Ńà¸ĩ
à§ Ĥ
à° ¹
à¸Ħ à¸§à¸²à¸¡
ĠOn line
ĠJ a
ĠáĥĶ áĥłáĥĹ
Ġìķ Ħ
Ä± k
Ñħ Ð¾Ð´
ĠÎ¿ Î¹
ĠÑģ Ð¼
pl ic
Ġv ed
Ġë ı
à° ľ
ĠD a
ĠØ¬ Ùħ
ĠC ol
ĠØ¬ ÙĪ
í ĥ
Ð³ ÑĢ
Ġo a
áĥ ĸ
Ġb on
Ã« m
ÏĦ Î¯
Ġof f
Ġæ ī
Ġfun ction
Ġh v
áĢķáĢ« áĢĲáĢļáĢ¹
is hi
ent es
d f
áĥĲáĥł áĥĺ
Ġà¸ Ĺ
en y
çĲ ĥ
âĢ¦ âĢ¦
Ġáĥ¨ áĥĶáĥĽ
å° ±
Ð½ Ð¾Ð¹
Ġâ ĸ
Ġê¸ °
Ġr i
Ùģ Ø±
áĢģ áĢ»
åı ¸
Ġh ist
ĠM ag
ĠA p
Ġb iz
à¤¾à¤ ľ
çľŁ äºº
Ġm Ã¥
è¿ Ľ
ci p
ĠØ³ Ø±
ŀ àµįà´ŀ
Ġn eg
ĠÏĥÏħ Î½
ÑĢ ÐµÐ´
ĠÙĪ Øª
áĢŃáĢ¯ áĢĢáĢ¹áĢ
èµ° åĬ¿
Ġà¸ Ī
Ġw o
Ø® Øµ
ĠÄĳ i
ĠS k
is ha
Ġs us
4 8
ÙĦ Ø¨
eb ook
àª¾àª° àª¾
à¸± à¸Ķ
ä» ¬
Ġà¦Ĩ à¦®
à§ĩà¦ ĩ
Ġb or
àª ĸ
Ġpr in
Ġg Ã¶r
ìł Ħ
it at
à¦Ł à¦¿
Ġåľ ¨
lo ad
à¤¤ à¥ĩ
ic al
ell o
Ġà¸ ķ
Ġ×Ķ× ©
ÃŃ c
Ġak u
é ¾
Ġba ÅŁ
es ter
à¤¾à¤ ļ
Ġj ed
è Ĳ
æ³¨ åĨĮ
æ ¥
Ġà®İà®© à¯įà®±
ë Ł
çī ĩ
Ġv Ã¤
Ġh t
Ġà¸ ŀ
àµįà´ µ
ĠÎ± Î½Î±
ĠS i
ĠÙĨ Ø¸
ª àµįà´ª
y st
à´ ¶
Ġp ass
ä¹ ħ
or ia
à®¾à® µ
àµįà´ ®
o x
an z
æľ Ł
Ñĩ Ð¸
Ø¹ Ø©
è ĭ
é ļ
Ùĥ ÙĨ
u je
ĠG e
Ïĥ ÏĦÎµ
ĠH ar
d ag
ÏĢ Î±
ĠØ¬ Ø¯
à¸¸ à¸Ķ
á»ģ u
Æ° Æ¡
Ð° ÒĽ
l us
I K
Ġ íķĺ
ĠK r
áĢ ı
Ġs ist
Ġ7 5
àª¶ à«ĩ
6 8
ë Ĳ
Ġ5 2
Ġàª¹ à«ĭàª
×Ļ ×Ļ×Ŀ
qu es
ÙĬ Ø§
Ġen g
åı Į
b b
Ġà®ħ à®¤
3 9
Ħ áĢ¶
à«ĩàª ¸
ä¿ Ŀ
en c
à¹ģ à¸¥à¸°
v an
Ñĥ Ð·
áĥ ¤
Ã© ny
t es
à¸Ī à¸°
ç» ı
à¦¾à¦ ª
å® ŀ
å¾ Ĺ
Ñĩ Ñĭ
×Ļ× ¢
à¸±à¹ī à¸ĩ
àª¾àª ķ
à¸± à¸§
Ġj s
ĠáĢ ļ
åĲ į
Ġd ÉĻ
à¹ĥ à¸Ļ
áº§ n
Ð½Ñĭ Ð¹
Å¡ e
U L
¡ °
¥ à«ĩ
àµģà´ µ
Øª Ø¨
en ÃŃ
ìĥ µ
Îº Î¿
ĠR eg
are a
ĠA ut
ĭ çīĮ
re g
Ġb eg
à±ģà°² à±ģ
à°¾à° Ĥà°
Ġun der
Ġb ur
ĠÐ± ÐµÐ·
Ġg l
ĠI N
Ã©s z
ĠÙħÛĮ âĢĮ
Ø¹ ÙĦ
og le
Ã¤ Ã¤n
Ġk es
ion es
Ġl ab
áĢģ áĢ¼
Ġá¹£ e
à¤ķ à¥įà¤
æ º
à¤² à¥ĩ
in Äģ
Ġìł Ħ
k el
ĠÙĨ Ùħ
Ġan a
Ġ Ã¡
ĠNew s
Ġh or
ĠØ¨ Ø¯
à¤° à¥Ģ
6 5
ĠÐº Ð¾ÑĢ
ĠÑĢ Ð°Ð±Ð¾ÑĤ
v ol
ĠØª ÙĤ
à¸ ¨
Øµ ÙĦ
Ġm ore
ÑĥÐ² Ð°ÑļÐµ
ĠáĢķ áĢ¼
ĠÅŁ i
Ġpro p
ìł ģ
Ġà¦ Ľ
Ġdel la
ĠK om
í ı
Ã© ho
Ġc m
à°¾à° ¤
é Ĥ
j s
Ġna v
Ġm m
Ġp eng
£áĥ ļ
àª¾àª¨ à«Ģ
Ġì ĸ
à«įàª ®
Ġm or
à°¿à° ²
Ġj an
ãģĻ ãĤĭ
l in
Ġà®ļà¯Ĩ à®¯
áĢ° áĢ¸
æ ¶
ug u
og o
Ġi ÅŁ
Ġsob re
åĲ Į
ĠÂ» .
ac ute
Ġë ¬
Ġis h
Ġs ab
áĥĺ áĥĺáĥ¡
j ek
ti e
ç Ī
am os
Ġs ing
ĠV al
Ġm w
êµ Ń
Ġtr ong
åĨ ħ
à¸Ľ à¸£à¸°
æ į
ĠÙĦ Ø§
ĠÐ Ĩ
um p
åŁ İ
x x
Ġ× ĺ
ĠD o
b ay
Ġpol it
ĠÎ ¹
ar o
et er
d uc
æĬ Ģ
ÏĢ Îµ
ç ³
p x
im ul
Ġar tic
Ġh ay
Ø´ ÙĨ
Ġpro v
Ðº Ð¾Ð²
æ° ´
à°¿à° °
l ing
ant o
à§įà¦ ª
Ø§Ùħ ÙĦ
à¤ Ń
ĠÐ½ Ð°Ð²
Ã© c
Æ°á»Ŀ i
er ing
Ñĸ ÑĹ
ĠÙĦ ÛĮ
æŃ £
ĠÐ´ ÑĢÑĥ
ëħ ¸
ĠÎ Ĵ
à¯įà® ®
Ġen d
Ø±ÛĮ ÙĨ
áĢĶ áĢ²áĤĶ
Ø¯ Ø§Ø±
Ġf Ã¼r
Ø§Ø¯ Ùĩ
Ġm und
á» Ŀ
æīĭæľº çīĪ
à¹Ģà¸ Ĥ
k ov
ĠÑ ľÐµ
........ ........
Ïĥ Î¹
Ġàª¶ àªķ
ÅĽ ci
ut s
ãģ ©
à¸Ļ à¸µà¹ī
ĠM on
ĠO s
à°Ł à±įà°Ł
Ó ¯
ĠÑĢ Ð¾Ð·
ĠÎµÏĢ Î¹
Ġæ Ŀ
Ġ5 1
çī ©
àª¾àª ĩ
à®¾à® ¯
Ú ĺ
å¼ ı
ĠØ§ÙĦ Ø°
Ġd oc
çŃ ī
tr ol
à¸ Ł
ind ÉĻ
ÑĥÐ» ÑĮ
à´² àµįâĢį
Ġì¹ ´
ÙĬ Ø¹
y an
ìĨ Į
Ġc r
Ġì ļ
Ġï¼ Ł
à° ¬
Ùħ Ø©
Ġj ak
éĩ į
Ñĸ Ð·
ok s
ÙĪ Ø§
Ġw i
à°Ĥà° ²à±ĭ
Ð» Ð°ÑĤ
å®¢ æĪ·
à§įà¦ ¥
ĠæĪ ĳ
à°¾à° ®
ĠÐ· Ð°Ð¿
7 9
à´Ļàµįà´Ļ à´³
àªĤàª ¦
è¿ ĩ
ĠÙħ Ø·
ĠF ac
Ġqu i
Ġt am
×ķ× ŀ
ĠØ§ÙĦØª ÙĬ
en ye
ãģ Ī
ĠØ§Ø Ń
ad ing
ĠÃ ī
è¿ Ļ
Ä±n a
Ġak o
ãĤ ģ
ĠÐ° Ð·
Ġc al
Ġ19 8
è Ĭ
æ° ĳ
çł ģ
ĠN i
Äĵ r
Ġr is
áĢ±áĢ Ļ
ļ Į
ãģĭ ãĤī
ĠS up
Ġt om
Ð°Ñģ Ð¸
Ð² ÐµÑĢ
Ġl ike
ÉĻ h
à¸´ à¸Ļ
ç ²
ĠD ec
Øª ÙĬ
j t
êµ ¬
Ùħ Ø§ÙĦ
» áĢģ
ÑĤ Ñĭ
à«ĭ àª¤
Ħ à¸£
Ġ×Ķ ×ª
Ġche ck
æ£ ĭçīĮ
li ch
Î»Î¿ Î³
ĠÐ· Ð°Ðº
Ġi ch
Ġn am
Ġprod uk
Ñģ Ð»
Ġs Ãº
Ġn Ã¤
áĢ¯ áĢĲáĢ¹áĢ
Ġà° Ī
ind ow
í ħ
à°¾à° Ł
Ġd ans
« áĥļ
ĠÙħ Øµ
own load
åħ į
ìļ Ķ
Ġà¤ ¥
ĠØ³ Ø§ÙĦ
Ñģ Ð¸
áĢľ áĢĬáĢ¹áĢ¸
ĠA pr
à¹Ģà¸ ŀ
i an
ĠÐ± Ð°ÑĢ
Ð°Ñ Ķ
Ġo li
Ġà¦¬ à¦²
ĠA wá»įn
Ġb an
Ġf ilm
Ġà¦ Ł
et h
f o
Ġì§ Ģ
à¦¿à§Ł à§ĩ
Ġh ad
ur u
ĠãĢ ĭ
ĠãĢ Į
ĠA v
a ch
et an
Ġu 0
Ġàª¸àª¾àª ¥à«ĩ
ĠL es
æı Ĳ
Ġìĭ ľ
6 9
Ġà¦ħ à¦¨
Ġt ul
Ãµ es
à«ĭàª Ł
áº¡ n
Ġm á»Ļt
= =
è¡ ¨
ĠE urop
à´ ¹
Ġg ener
é ĥ½
Ġ6 5
ur r
ĠÐ¿ Ð°ÑĢ
ab r
ĠÎŃ Î½Î±
Ġl in
ĠÐº Ð°ÑĢ
Ġum a
Ġt un
ĠØ§ÙĨ Øª
Ð· Ðµ
b al
Ġáĥ ĸ
à¤¤ à¥Ģ
è®¡ åĪĴ
æ ģ
Ġà¤µ à¤¿à¤
é¾ Ļ
Ġh ot
áĢ¯áĢŃ áĢĦáĢ¹áĢ
us ta
Ġ×ŀ× ©
Ġj eg
ur t
èµ Ħ
ĠÎ Ļ
ĠT ag
àªµ àª¾àª®àª¾àªĤ
ĠÐ¿ Ð¾ÑĤ
ãĢ ģ
Ú¯ Ø§Ùĩ
ow a
à´ ·
ĠÙ¾ ÛĮ
Ġà§ §à§
ë³ ´
ÏĦ ÎŃ
´ Ģ
æĢ §
Ġv á»Ľi
ãĤ Ħ
×Ĺ ×¨
ĠO l
Ġ3 00
ĠÐ» Ñİ
àµģà´ £
Ð Ĩ
à¹Ģ à¸£
à¸Ń à¸ļ
ĠJ ul
4 9
il er
Ġt ip
æķ °
ä½ĵ èĤ²
àª¾àª ¹
áĥĲáĥłáĥĹ áĥķáĥĶáĥļ
tion s
iy y
ç Ŀ
ÑģÑĤ Ð°Ð½
sk a
Ê» a
ĠP e
il s
w n
Ġg el
ĠâĢĭâĢĭ âĢĭ
å ¢
à¹ Ĩ
Ġ×Ķ× Ĺ
Ġy ap
Ø± Ø§Ø±
Ø® Ø±
à° £
áĢģ áĢ¯
u ti
f on
Ġ×ĳ ×Ĳ
il or
ay an
à¦¿à¦ ¬
Ġr áº¹
¥ ¿
è§ Ħ
Ġ! !
à¥ĩà¤ ¶
Ġau f
ob er
Ġb ah
az ione
ĠK o
Ð½Ð¸ Ð¹
, "
à°¾à° ķ
ĠáĥĶ áĥ¡
à¦ ¯à¦¼
ĠC ent
Î»Î» Î¬
Ġde p
g un
Î¬ Ïģ
Ġ×ŀ ×Ķ
ĠØ§ÙĦÙĦ Ùĩ
åį ļ
ĠØ® ÙĦ
ĠáĢ±áĢ Ķ
áĢ¸áĢ Ľ
è¿ Ĳ
p g
ot h
Ñ ķ
ation al
Ð¸ ÒĽ
ĠC or
áĤ Ĳ
×ķ× ¦
ĠÙĪ Ø£
Ã¡ d
ãĥ Ń
Ñĸ Ðº
ik s
Ġht ml
ĠÐ½ Ð°Ð¼
ĠØ´ Ø¯
ĠÐ³ Ð¸
u ch
å± ķ
un ic
èµ°åĬ¿ åĽ¾
Ġc z
Ùħ Ø§Ø±
ĠD en
Ñĥ ÑĢÐ¸
à¦ ¥
Ġn ap
Ġm Ã¡s
Äģ l
n Ã¡
Ġku wa
Ġa us
as Ä±
ÑĤ Ð¸ÑĢ
ar ch
Ġà® °
Ä±n Ä±n
Ġà¤¸ à¤Ĥ
à«įàª ķ
à®¾à® ³
ÏĦÎ¹Îº ÏĮ
áĢ±áĢ «
ec e
Ġb ul
áĢ» áĢĸáĢħáĢ¹áĢ
Äĵ t
à®Ļ à¯įà®ķà®³
ĠÃ®n t
Î¹Îº Î¬
er d
ÑĢ Ð°ÑĤ
Ġí ĺ
Ñĸ Ñģ
é ħ
ĠØª ÙĨ
Ġà´Ĵ à´°
Ġà®ª à¯Ĩ
à°ķà±įà° ķ
Ġst ud
Ġn ev
à¸Ħ à¸£
ne j
o o
Ġp ri
Ġm om
g ar
ìļ ©
ãĥ ķ
Ġk up
ÑĢ Ð°Ð¼
Ġ×ķ ×Ķ
it or
áĢģ áĢ¶
ro p
à§ĩà¦ Ľ
áĥĲáĥ ¤
ur n
áĥĺáĥ¡ áĥ¢
Ùĳ Ùİ
Å¡ i
ĠÂ» ,
×Ļ× ĺ
Ġk ont
t y
pr ess
k ar
ĠÂ £
ĠÙĪ Ø¬
Ġne w
Ïĥ Î¿
Î¼Î± ÏĦÎ±
Ġk ir
áģ ļ
Ġç ļĦ
Ġpl an
Ùĥ Ø©
ĠÑĢ Ð°Ñģ
Î´ Î±
Ġ! !!
ch n
à´¾à´ µ
Ð°Ð³ Ð¸
ìĹ ħ
à«Ģ àª¤
it as
ĠS l
¤ ĳ
åħ ³
à®¿à®Ł à¯įà®Ł
½ľ ê±¸
ĠÑ İ
ĠT ra
ÙĪØ± ÛĮ
iv a
Ġf ot
ĠPost ed
k r
Ġk Ã¤
ãģĵ ãģ¨
Äĥ r
é Ķ
åĬ ¡
Ġàª ĵ
R E
es a
ÉĻ b
Ġre v
» áĢĻ
à¸ ĺ
ib le
ķ áĢ¼
à¹Ģà¸ «
å®¢æĪ· ç«¯
è§ £
Ġag çİ¯äºļ
áĥĲáĥ ĳ
Ġj áº¹
Ġ- -
åħ ĥ
à«įàª ¥
Ġà° Ń
ĠÛĮ Ú©
la v
ĠM er
Ġ; &
å» º
á» ķ
U T
áĥĿáĥ ª
ow er
Ġg u
ur g
×ķ× Ĵ
áĢķ áĢ²
à¥ ī
àª¾àª¨ àª¾
is m
in h
à¸²à¸ Ħ
Ð¾Ð½ Ð°
Ø´ Ø±
áº£ i
áĢĻáĢº áĢ¬áĢ¸
ob il
à¹Ģà¸ Ĺ
ĠÐ½ Ð°ÑĢ
æĹ Ĺ
à«Ģàª ı
ĠØ§Ù ĵ
à®¾à® ®
Ø§ÙĨ Ùĩ
Ġà´ Ł
éķ ¿
Ġm ind
à´¿à´¨àµįà´ ±àµĨ
Ð» ÐµÐ½
in er
Ġw ak
Ð½ Ð°Ð¹
Ġ íķľ
Ġs il
l l
ĠÅ ŀ
Ð² ÐµÑĤ
est o
Ø¯ ÙĬ
×© ×¨
ĠÐ¾ Ð½
Æ°á»Ŀ ng
ÑĢ Ð°Ð·
Ġå½© ç¥ŀ
om i
à¤ Ī
Ñī Ðµ
Ġàªķ à«ĭàª
at es
Ġre m
Æ°Æ¡ ng
ÐµÑĢ Ð¸
ĠØ¯ ÙĪ
Ġk ung
ev a
ĠÐ½ Ð°Ð´
ĠØ¬ ÙĨ
à´¿à´² àµįà´²
ÙĦ Ùĩ
Ġë ĵ
id an
ĠÅ ¼
re k
ĠE sp
ĠS al
Ì ģ
Ö ģ
h u
et r
Ġgr atis
ĠF l
ÛĮ Ø³
p en
Ġh is
ĠAl l
5 8
áĥĹ áĥĲáĥľ
iz a
Ġt as
Ġv ai
Ġs ay
×Ļ× ŀ
Ġi b
ë© ´
áĥĲáĥ ĸáĥĶ
Ġs or
ĠÐº Ñŀ
å ĸ
Ġà° ¶
Î¼ Î·
Ġ Ô
ub lik
Ð°Ñ ĳ
à´ ¬
er ia
Ġâ Ļ
d el
Ġáĥ «
Ġà®µ à®°
ĠáĥĲáĥ ĵ
Ģ áĢŃáĢ¯
os ta
à¥ Į
àª ¥
ĠÐ¿ Ð°Ð´
Ġq o
Ġà®Ĵ à®°
l eri
Ġt ah
Ġbil an
à« ĥ
Ãł ng
Ġ( )
ĠØ£ ÙĪ
Ġí Ļ
Ã³ r
I G
sk e
Ġé ĩ
Ð° Ñı
Ġç ľ
Ã ģ
ëı Ļ
ÃŃ v
ĠÃ®nt Ã¢
ĠN g
ä½ į
Õ¸ Õ
à¸ģ à¸±à¸ļ
Ù ĭ
çĽ ®
Ġàªķ àª¾àª°
Ã¼ ÅŁ
is o
Ñĸ Ð¼
at ing
áĢ¸áĢ Ĳ
Ġy n
y ar
Ġìł ľ
Ġw an
ì Īĺ
í Ħ
à®³ à¯įà®³
åı £
æĺ İ
ĠØ§Ø ¯
ÏĦÎ¹Îº Î®
å· ŀ
åĪ ¶
ĠS el
Ġb ed
äº ¤
ĠÃ ľ
ĠM ed
Äģ d
ĠÏĮ ÏĦÎ¹
à¦¬ à§ĩ
å¥ ĸ
à±ģà° °
áĢ¬áĢ¸áĢ ¡
Ġp ap
ÙĬ Øª
Ġà¦ķà¦° à§ĩ
Ã¶ k
Ġf ig
áĥĿáĥĳ áĥĺáĥ¡
an h
Ġ. "
ĠìĿ ´ë
ĠÎº Î¬
à¸Ļ à¹Į
c y
ĠÐ´ ÐµÐºÐ°
Ð² Ð¸
æ¯ Ķ
Ġd ok
id ent
4 3
Ġáĥ¨ áĥĶáĥ
end er
Îº ÏĮ
r al
Ġg od
Ð½ Ñĥ
ãĤ ¿
Ð¸Ð½ Ð³
à¦¿à¦ ¸
Ġä¸ į
×Ļ× ¤
ãģ ¡
ç µ
éĩ ı
ĠáĢ» áĢĻ
le x
áĢķ áĢ¹
am u
IN G
p k
à°Ĥà° Ĺà°¾
Ãł nh
Å¡ a
Ġim port
Ļ áĢº
à¦ķ à§ĩ
à´ ļàµįà´ļ
Î» Î¬
à«ģ àª°
is en
ãģ ¤
v ers
Ġa da
ĠE ng
Ġà° ¹
Î» ÎŃ
ÙĤ ÛĮ
çĽ ´
áº£ n
Ġg ar
Ġk op
ĠáĥĹ áĥĲáĥķ
áĥ£áĥ ľ
ir d
ĠÊ» O
Î ł
Ġà¸ §
ĠáĢĢ áĢº
à°° à±į
çī ¹
×ł ×ķ
ç³ »
Ć Ĉ
ĠM ad
à´ Ń
Ð» ÑĮ
ĠÑī Ð¾
Ġpl us
à°¾à°² à±ģ
ĠØ³ ÙĪ
Ġl ik
ãĤ ·
à«įàª ª
à¦ ĸ
Ġt ag
à«Ģàª ĵ
ĠUn ivers
c ie
ĠÐ¿ÑĢ Ñĭ
z n
Ñĸ ÑģÑĤ
Ġg y
m es
Ġk g
ĠáĢ¡ áĢŀ
Ġs te
Ġap p
4 6
±áĢ ķ
ĠÐ´ Ð¾Ð±
é »
ĠK at
à®¿à® ªà¯įà®ª
ĠA ug
Ġk ep
à´¾à´ ķàµįà´ķ
Ä« t
ĠM il
Ġê² ĥ
Ġg es
ķáĢ« áĢĲáĢļáĢ¹
×Ļ× ¡
Ġáĥĺ áĥľ
Ġ×Ķ× ¢
Ä« bas
à¹ī à¸Ļ
Ġs Ã«
?? ??
ĠÑı ÐºÑĸ
Ñı ÑĢ
ìĬ µ
Ð½Ñĭ Ð¼
äº Ķ
à¥įà¤ ¹
Ļ à§įà¦
al u
Ġáĥĺ áĥĽ
ä¸ İ
ĠØ§ÙĦ Ø·
ÙĤ ÙĦ
ci o
Ġ36 5
àµĨ à´Ł
ĠáĥĴ áĥĲáĥĵ
ĠA N
Ġà®µ à¯ĩ
¶ Ķ
Ø§Ø¦ ÛĴ
ĠÃ¥ r
ì§Ģ ëħ¸
Ġ9 5
åĽ ŀ
à¤¨ à¥Ģ
é ĵ
Ð°Ñ ī
Ø§Ø¯ ÛĮ
ĠÐ¿ Ð¾ÑĢ
æµ ·
Ġd z
å± ±
åĳ ĺ
in ta
Ġp ra
áĢŃ áĢĲáĢ¹áĢ
à¹ĥ à¸Ĭ
ĠÐ½ Ð¾Ð²
ĠR a
ĠT ur
ëĭ Ī
á»¯ ng
Ġw y
Ġg Ã¶
Ġæĸ °
à¸£ à¸¡
à¸¸ à¸ĵ
te k
ĠÐ° ÑĢ
Ġin n
áĢĶ áĢ¾
Ġc Äĥ
c er
áĢ¸áĢ ¡
ov Ã¡
Ġl ok
us a
Ġà´ ¦
od y
Ġan y
Ðº Ð°Ð·
Ġàªħ àª®
Ġng Æ°á»Ŀi
Ġbe h
ĠÙĦ Ùħ
Ì £
à¸² à¸Ļà¸
Ġé Ģ
ÑģÑĤ Ð²Ð°
à¸« à¸Ļ
ÅŁ Ä±
ti ve
Ð¿ÑĢ Ð°Ð²
ĠT i
w er
àµģà´ ±
ap e
ÛĮ ÙĦ
Ø¯ Ø©
æĦ ı
Ġt ab
à¯ģà® ªà¯įà®ª
ĠÏħ ÏĢ
m al
æī Ģ
Ġo ok
ri o
ÏĦÎ¿ ÏĤ
j d
éĹ ´
áĥĿáĥĳ áĥĲ
áĥĲáĥ ¦
×Ļ× Ľ
k om
y or
Ġv it
iy o
à´¾à´¨ àµįâĢį
Ġ? ?
Ġà¹ģ à¸¥à¸°
à´ķàµįà´ ·
à«ĩ àª¨
Ġad alah
à°ļ à±įà°ļ
Ð¸ÑĤ ÐµÐ»
ãĥ Ĺ
ĠÏĢ Î¿
ĠÙ¾ Ø§Ú©
àµģà´¤ àµįà´¤
Ġ áĥĲáĥľ
ï ½
áĥĶáĥł áĥĺ
Ġv ia
ĠY ou
Ġg re
Ġ200 6
Ġi p
àªµ à«Ģ
Ġt Ã¤
ig t
ĠáĢ Ł
Ġìł ķ
ub e
Ø§ÛĮ ÛĮ
à§ĩà¦ ĸ
åįķ åıĮ
ik k
à¦ ĵ
Ð² ÑĢ
ti es
Ġon e
Ġå ¥
Ġuch un
ÏĦÎ± ÏĤ
ĠÃ®ntÃ¢ l
ç¨ ĭ
al ia
Ø° Ùĩ
Ġìĺ ¤
ÙĨ ÙĬ
Ã± a
áĢĦ áĢ·
Ġ) :
æ ¡
Ùĩ Ø¯
Ġ×ĳ ×¢
r on
Ġàªµ àª§
ÅĤ a
Ġv end
Ġ×© ×Ķ
Ã³ d
ĠÐ¿ÑĢ Ð¾Ð´
Ġà´ħ à´µ
uk e
åħ¬ åı¸
Î Ľ
at en
ÅĻ ÃŃ
U M
Ġv Ã¦
×ľ ×Ķ
Ġ: )
Ã¼ z
è į
d Ä±r
Î» Î®
Î¿ ÏĤ
ĠÐĿ Ð°
ĠÛĮ Ø§
Ġin de
à¸ģ à¸¥
Ð´ Ðµ
ãģ Ľ
Îµ ÏĦÎ±Î¹
ĠØ§Ø ª
ay e
Ġn hi
Ò³ Ð¾Ð¸
EN T
ĠÑį ÑĤ
ĠÐ³ Ñį
ar ia
Ġf ir
Ø± ØŃ
ĠØª Ø¬
ë ¹Ħ
×Ļ ×ķ
Ġëª ¨
à¤¹ à¥ĩ
ç® ¡
A H
Ð¼ Ð¾
å¥ ³
ĠB el
Î¼ Î²
ĠÐ½ Ð°ÑĪ
Ġà¸ Ľ
à¹ĥ à¸Ļà¸
Ġata u
ess a
ĠØ³ Ø¨
od a
æĬ ¥
ek e
io us
Ã Ħ
çĻ ¾
ĠáĥĲáĥ ¡
ÑĢÐ°Ñ Ĺ
à´ ¡
Ġd ik
åħį è´¹
ìĺ ¤
×¤ ×¨
Ġáģ ģáģ
th er
ĠÙħ Ø®
Ð± Ð¾ÑĢ
ĠØ§Ù Ĥ
Ġp ort
åķ Ĩ
ĠÐ¡ ÑĤ
à¤¿à¤ Ĥ
Ġsa u
---- ----
ĠÐ½Ð° Ñģ
Ġp df
ide os
à°¾à° µ
ĠÙĦ ÙĪ
à¤¸ à¥ĩ
Ġì Ĩ
Ġ Ö
Ïį Î½
ĠÎ ¾
og raf
åı ·
Ã¡l l
Ġj est
Ġâ Ĺ
Ø² ÛĮ
Ġb ij
ĠáĢ ¥
Ãł i
us tr
ĠÏĢ Î¿Î»
ĠáĢ» áĢĸáĢħáĢ¹áĢ
Ġs an
ĠK on
Ġpar te
ro d
t al
Ã© e
ÑĤÑĮ ÑģÑı
ì °
t el
áĢĦáĢº áĢ¸
ĠC at
Ġàª® àª¹
áº§ u
Ø± Ø¶
Ġa pr
Ġre d
Ð´ Ð·
ĠG u
à¹Ģà¸ ª
Ġáĥ¨ áĥĶáĥ¡
ĠA G
éĩ Į
Ïĥ ÏĦ
Ġf er
Ġd av
ÑĪ Ð¸
Ġm ana
az i
ĠÎµ Î¯
Ġju ga
Ġt ime
à ²
ter i
Ġà®ĩ à®¨à¯įà®¤
ĠÚ© Ø´
Ġn t
Ð» Ð°Ð½
Äĵ j
Ġn ec
Ġàªľ à«ĩ
Ð ĳ
áĢ± áĢĢ
ĠÐº Ð¸
Ġà¤Ń à¥Ģ
ĠG re
ĠT V
es u
ãĤ £
3 2
I n
Ġà¸ Ĥ
ib il
è§ Ĥ
ĠÎµ Î¾
3 7
à±ģà° µ
ad er
ç¤ ¾
ÎŃ Ïģ
à° ³
a a
ag es
Ġëĭ ¤
4 7
p et
à´ķàµįà´ķ àµį
ÙĤ ÙĬ
ëĵ ľ
áĢ¸áĢ ľ
Ġh ore
Ġàª¸ àªĤàª
om en
ĠÑģ Ð°
Ġk t
ĠÐ° Ñģ
ÐµÐ» Ð°ÑĢ
Ġàªķ àª¹
ª à¯į
ìĿ´ íĬ¸
ĠR ed
à´¿à´ µ
à¦¨ à§įà¦¤
ĠØ§Ø ¬
àµģà´£ àµįà´Ł
ist en
m ar
Î¿Ïħ Î¼Îµ
ĠÑĩ Ð°Ñģ
ĠÐ¿ Ð¾Ð¼
Ġb ud
ĠÐ¸ ÑģÑĤ
Ġon s
Ġ' ).
à«Ģ àªķ
Ġne ws
Î± Ïģ
Ġse u
à®¿à® ´
im ent
is Ã«
Û °
Ġk n
ĠJ oh
ĠÐ ĸ
Ġm ill
×ŀ ×Ķ
à¯Īà® ķà¯įà®ķ
ä» ĸ
ĠS te
Ġ×ĳ ×ŀ×
×ķ× Ľ
à¯ĩ à®°
Ġfal se
±áĢ ľ
Î· ÏĤ
20 19
àµįà´ ¥
Î¼ ÏĢ
ç ±
ĠS tr
ĠÙĩ Ø°Ø§
Ġà¤ķ à¤¿
íĦ °
g j
áĢ¬ áĢŀ
Ġà¤ Ł
ĠJ o
ĠÐºÐ¾Ð¼ Ð¿
Ú© ÙĨ
ap an
ĠT a
à±Ī à°¨
Ġb ek
à¸Ń à¸£à¹Į
Ð° Ð¸
Ġàª¹à«ĭàª ¯
uk u
Ġst art
áĥĲáĥ ¬
Îµ Ïħ
ĠØ® ÙĪ
I P
l em
Ġ' '
Ġj ag
in ter
Ġe ff
Ġz ijn
Ð¾Ð³ Ð°
à«ĭàª Ĺ
Ġb us
ch o
Ġl ig
Ð½Ð¸ Ð¼
×ľ ×Ĳ
ĠW eb
in al
áĥł áĥĿ
Ġå ¾
Ð³ Ð°ÑĢ
Â »
ĠÐ¿ Ð¾Ðº
×ł ×Ķ
in y
é ©
ç ĥ
Ġt la
Ġnh Æ°
ÏĦÎ¹Îº Î¬
Ġå ¼
ĠD is
Ġàª¨ àª¥à«Ģ
Ġà¦ľ à¦¨
Ø§Ø «
Ġf ol
Ġpr im
Ġà¹ ĥ
ç ¦
Ġk et
or ld
Ġl ak
áĢ¬ áĢĦáĢ¹
ch er
Ġb ack
à´¸ àµį
ĠS z
ĠiÃ§ in
Ð¸ÑĤ Ð¸
Ġd ob
à¸¹ à¹Ī
ĠÐ´ Ð°Ð²
ÑĨ Ðµ
ant es
ãĤ ı
Ġol d
ĠÐ Ń
O P
Ġh otel
ÙĪØ± Øª
Ġ15 0
Ġp ie
Ã¶ s
C H
Ġal la
ĠN E
æ¬ ¡
Ġgr up
Ð¸ Ð¿
he id
Ð² Ð¾
å Ļ
Ð» Ð°ÑĪ
ĠD u
Äĥ m
Ġè¿ Ļ
áĢ¬áĢ¸áĢ Ľ
Ġ×Ļ ×©
à¸Ĺ à¸¢
un da
ãĤ ³
Ã¢ y
ĠD an
ĠáĥĲáĥ ¦
Ùģ ÙĬ
en o
e f
à¯ģà®³ à¯įà®³
Ã¨ s
ut en
Æ°á»Ľ c
ag ai
è ¢
áĥķ áĥļ
ad an
Ġg an
æ ¼
à° §
r in
at ie
id as
ĠÐ¡ Ð
ai re
ĠØªÚ¾ Ø§
áĢĽáĢ¾ áĢŃ
9 8
ĠP ers
àª¿àª ¸
imul yo
æĢ Ŀ
ÑĬ ÑĤ
mi ÅŁ
Ġ8 8
èĪ °
ĠG i
il ar
á» £
Ø§ Úº
ŀ áĢ°
à¤² à¤¾
ÏĦÎµ ÏĤ
Ġáĥ ¯
il ik
ĠL at
Ïģ Î®
u es
Ð³ Ð¾Ð²
al la
h m
ĠØ´ Ø¯Ùĩ
Ġis ang
Ġcon ta
æĻ Ĥ
b ek
Ġ ć
Î¬ Î»
Ġmen y
k or
Ġh ier
à°¿à°Ĥà° ¦à°¿
ĠH ot
Ġl ag
ÙĪ Øª
éĴ ±
ĠØª Øµ
I V
ê ·
Ġk ad
k ur
è¯ ´
áĢ¯áĢŃ áĤĶ
is ti
Î ľ
am in
n ia
ĠB y
à±ģà° Ĺ
à´¿à´Ł àµįà´Ł
Ġà¤ ¡
Ġ8 5
Ġàª¹àª¤ à«Ģ
ãģ ¿
à«Ģàª ¯
as an
ĠÐ² Ð¸Ð´
à« ¦
à§ĭ à¦¨
à«Ģ àª¨à«ĩ
ĠD er
Ġpr iv
àª Ľ
à®ªà¯įà®ª à®Ł
ell er
os o
Ġv el
Ġn Ã£o
E K
éĻ ¢
ez i
çĽ ¸
ad y
ut ta
Ġ×Ľ ×ľ
Ã¼ t
áĢ¸áĢ ħ
Ġà¤² à¤¿à¤ı
áĥĹ áĥķáĥĺáĥ¡
Ġv et
ĠÎ¤ Î¿
Ġab out
è· ¯
A Y
ĠS T
Ġà¤¸ à¤®
ãģĦ ãĤĭ
6 7
ĠØ¬ Ø§ÙĨ
Ġn orm
áĤ Ĭ
ĠÙĥ Ø§ÙĨ
ëĤ ¨
à®¤à¯įà®¤ à®¿à®²à¯į
Ġn eb
Ġr om
àª ı
Ġand a
az a
à¸²à¸ §
Ġáĥ£áĥ ľ
ĠØ¨ ÙĪØ¯
Ø§ÙĦ Ùħ
Ġmen j
Õ µ
è® ¾
ĠØ¯ ÙĪØ±
ad s
Ùĥ Ø±
Î· Î½
9 5
ay o
ĠáĥĲáĥ łáĥ
áºŃ n
æĶ ¿
Ġà¦¨ à¦¾
Ġ×Ķ ×¨
çİ ©
à§ģ à¦¨
Ġv id
ter n
Ġs itu
Ġì Ĭ
ir an
Ġà¦¬ à§įà¦¯
ĠA S
ro v
ĠO b
à° Ń
j em
Ġà¸ ¥
á»± c
as ti
Ø§ÙĦ ÛĮ
á»© c
åİ ¿
çº §
ĠìĿ ¸
Ġk ita
ĠÙĩ Ø§
h or
ĠS c
Ñģ Ð°
s el
á ½
ĠÑŀ Ð·
Ã ĥ
ÑĢ Ð¾Ð²
Ġáĥ¡áĥĲáĥ ®
à¹Ģà¸Ľà¹ĩ à¸Ļà¸
ĠÏĢÏģÎ¿ Ïĥ
ĠÄĳ á»Ļ
ĠA mer
áĢ±áĢ¬ áĢĦáĢºáĢ¸áĢ
at z
á» Ń
ĠÐ½ Ñı
im iz
ÙĪ Ø§Ø±
à¥ģ à¤°
ĠÎ §
í ļĮ
Ġer e
áĢ¬ áĢĢáĢ¹
Ð³ Ð°Ð½Ð¸
æĴ Ń
à´¾à´° àµįâĢį
ĠI S
Ġcom m
ÙĨ Ø¬
Ġk oh
O D
ĠÙģ ÛĮ
Ġng ud
áĢ±áĢ ¡
Ġngud imulyo
ĠU r
Ġim p
Ðº ÑĤ
à¸« à¸¥
A V
Ð¾Ð´ Ð°
áĢ» áĢĸ
ÐµÐ¼ Ð°
u w
q ip
Ġà¦¬ à¦¾à¦
ÑĤÐ¸ Ð²
Ã± o
ny ch
àª¾àª ĵ
ãĥĥ ãĥĪ
ç ģ
à«ĭ àª°
áĢ±áĢ ·
àª¾àª ¡
Ù¹ ÛĮ
op p
ĠE le
Ġde v
Ġpor no
áĢ¬ áĢľ
er y
ĠT el
Ġ;& #
àª¾àª ĸ
Å ©
à¹Ī à¸¡
ÙĤ Ø¯
Ġs ar
Ġáĥ¨ áĥĶ
am m
Ġt amb
à®° à¯įà®ķà®³
ÑĦ Ð¾ÑĢÐ¼
ĠP ort
Ã´ i
ĠÐ±Ñŀ Ð»
Ã½ m
Î ¥
ĠR om
Ļ áĢ½áĢ¬
c m
ĠáĥłáĥĿáĥĽ áĥĶáĥļ
ĠÑĩ ÑĤÐ¾
áº¹ lu
Ġà´¨ à´¿à´
Ú© Ú¾
ĠÙĪ Ø²
à§įà¦ ²
æĹĹ èĪ°
ĠA ir
ĠÑĩ Ðµ
Ġà´¸ à´Ĥ
Ġse e
ĠÐ± Ð¸ÑĢ
Ġáĥĺ áĥ§
Ġáĥ¡áĥĲáĥ¥ áĥĲáĥłáĥĹáĥķáĥĶáĥļ
ĠåĮ Ĺäº¬
Ġs ite
ĠØ¨ Ú¾
ĠÅ ł
it es
èµ ·
ĠØ§ÙĦ Ø«
b el
Ð°Ð» Ð°ÑĢ
ìĹ ¬
à´¾à´ ¸
à¹Ģà¸ ĩ
Ġan t
à¹Ģà¸Ľà¹ĩ à¸Ļ
Ġo ur
ĠI I
Ġcon st
åº Ĺ
it ter
íķĺ ëĬĶ
ĠÏĥ ÏĦÎ±
ĠÐ İ
à°° à°¿à°
Ġìŀ Ĳ
iy e
er es
b all
Ð¡ Ð
Ġut il
à°¾à° ¦
à°¨ à±į
Ġsk al
Ġç »
Ġl at
é ª
ÅĤ o
áĤıáĢ½ áĢĦáĢ¹áĢ·
ĠC H
ang o
ë ¯¸
ĠE UR
ĠáĥĽ áĥĺáĥ¡
ag y
Ġh on
ĠæĹ ¥
ĠA L
ìĽ Ķ
å ŀ
Ġà¦ ¡
Ã¡n y
à¤² à¥Ģ
à§Ģ à¦°
Ġè Ģ
Õ¥ ÖĢ
ĠÐ¿ ÑĸÐ´
ult ur
Ġl eng
Øª Øµ
áĢļáĢ¹áĢ ľ
v es
Ġh l
Ġ×Ķ× ŀ
3 1
w ar
à´¿à´² àµĨ
ĠØ¨ Ø§Ø´
ĠIn st
b ol
Ġv u
Ã¡n ÃŃ
el ij
iv o
à¸ļ à¸ļ
à´¾à´ Ł
g es
Ġï¿½ï¿½ï¿½ï¿½ï¿½ï¿½ ï¿½
ĠÐ± Ñĥ
á»ĩ t
áĥł áĥĺ
Ġh ak
å° Ĩ
ĠØ¢ Ùħ
l ay
um an
in es
ĠÊ» o
Ġprobl em
èĢ ĥ
li y
am at
Ġ×ŀ× Ĳ
µ ľ
I ON
n Ã«
Ġh av
áĥĲáĥ Ŀ
ĠG al
à´¿à´ķàµįà´ķ àµģà´¨àµįà´¨
ĠÎ ¦
un n
Ø³ ÙĬ
Ġm Ã©s
à«ģ àªķ
v et
Ġà´ ±
Ġnh á»¯ng
æ´ »
èµĽ è½¦
Ð¾ÑĢ ÑĤ
Ġà¤Ĩ à¤ª
Ġg al
ĠÐ£ Ðº
ĠáĢ Ŀ
ĠA pp
à®® à¯įà®ª
àµĭ à´Ł
Ġb uh
Ġm end
Ġãģ Ŀ
ĠØ¯ Ø³Øª
Ġpo z
Ġà° ı
Ġàªī àªª
un u
Ġcom pl
Ġl l
y en
Ġl og
åı Ĭ
Ġà¦¤ à¦¾à¦°
Ġf amil
ĠÐ° Ð½
Ã¥ n
à¸ģ à¹ĩ
Ø¨ Ùĩ
Ð¾Ð» Ð¾Ð³
Ġd apat
Ð¸ÑĢ Ð°
Ð°ÑĨ Ð¸Ñı
Ġà´ Ń
àª£ à«ĩ
Õ¡Õ ¯
Ġf ind
à§ĩà¦ķ à§ĩ
í Į
Ġl áº¹
à«ĩàª ¤
ĠC an
Ġf ar
ĠáĥĲáĥ ®
à¸¡ à¸²à¸
om at
Ġt est
Ġd ist
Ġæ Ń
Ð± Ð°
è ¥¿
áĥĲáĥ £áĥ
Ġy er
Ġì °
Ã¡ p
Ġb in
em o
ip a
Ä± s
ÄŁ i
ĠM et
à¤ķ à¥ĩ
Ġs ah
Ġl iv
ì ½ľê±¸
ĠÙĩ ÙĪ
ÃŃ nh
Ġ×Ķ× ĳ
Ġz o
Î ©
æľ į
c ed
ĠÐ± Ð¾
à¸£ à¸ĩ
it Ãł
Ļ áĢ½
Ġn ad
Ġ ÉĻ
l Ã¤
Ġso ci
ĠáĢ Ħ
Ġà´ Ĺ
en cia
Ġv or
à¹Ģà¸ ¡
Ġà° Ł
ĠW h
els er
à´¿à´ ªàµįà´ª
ĠØ§ÙĦ ÙĪ
à¦ķ à§įà¦·
ä½ ¿
ĠÎ¼ Î¹Î±
ĠÙĪ ÛĮ
ĠÄ Į
Ñĸ ÑĢ
Ġk ama
Ġâ Ķ
à¸· à¹Īà¸Ńà¸ĩ
Ġn og
Å¾ e
à¹ĥà¸Ĭ à¹ī
re a
Ñĩ Ðµ
ìĬµ ëĭĪëĭ¤
Ġ9 8
Ã© d
Ġê² ½
Ġn at
Ð¼ Ð°ÑĤ
Ġm ir
Ġn ep
Ġàªħ àª¨
× £
b in
Ļà§įà¦ Ĺ
Ùĥ ÙĦ
ĠÃ ¸
Ġb ot
Ġw al
Ġàª® àª³
ĠÐ· Ð°Ð±
Î» Î¯
ĠâĨ Ĵ
Ã ľ
ma il
h d
Ġartic le
áºŃ t
Ð² Ð°ÑĢ
Ñĭ Ð¹
ĠÚ©Ø± ÙĨÛĴ
à´ §
ĠA f
6 4
ÉĻr bay
in ÉĻ
à®° à¯įà®ķà®³à¯į
ur an
à¸§ à¸¢
àª¤ à«Ģ
Ġf ont
Ïģ Ïĩ
à¦ Ľ
Ġt ele
Ġk ab
ĠP al
çĿ Ģ
Ġad min
ĠØ± Ø³
Ã§ Ãµes
Ø ¡
ĠÎ Ľ
n ek
Ġl ar
ÏĢ Î¿Ïħ
Ġ×¢ ×Ŀ
ĠáĢ¡ áĢħ
Ġk tor
f at
à¥įà¤ ®
à¤Ĥ à¤¤
áĥĿáĥ Ĺ
ag en
áĥĺáĥĵ áĥĲáĥľ
Ġb le
æĹ ł
os p
ich a
à§įà¦ ®
ĠB i
Ġd ol
ĠÂ ²
» áĢĸ
æ ¨
Ġon t
Ġ Æı
ìĭ ł
Ã³ s
eb a
Ġà¸ Ķ
áĢŁ áĢ¬
Ġz i
A A
áĥļ áĥĶáĥĳ
ĠM art
åĻ ¨
k il
Ġk il
áĢ¥ áĢ¹áĢ
Ġs ang
Ġn ing
ĠáĢŀ áĢŃ
àª¿ àª¨
Ġpro j
x e
Ġn or
Ø§ÛĮ Øª
à°¿à° µ
l ash
Ð½Ð¸ Ñı
Ð°Ð½Ð¸ Ñı
u u
q i
ĠØ¨ Ø§Ø±
Ġop er
Ġw id
Ġí ı
ĠB en
im u
Ġpos s
Ġs aya
Ġma ar
Ġáĥ§ áĥķáĥĶáĥļ
äº ī
ÙĪØ± Ø¯
O K
ÎŁÎ ¥
à®¾à® ®à¯į
ĠÐ³ Ð¾Ð»
ĠÎ¼ Î±ÏĤ
2 00
Ð½Ð¾ ÑĹ
à¤ ı
ro w
Ð°Ð½ Ð¾
Ġd un
ĠáĢĢ áĢ¼
ĠTh is
ÏĮ ÏĦÎµ
ÙĦ ÙĪØ¯
à¤¹à¥Ģ à¤Ĥ
é Ł
à§ĩà¦ Ł
Ø¬ Ùħ
Ľ Ħ
å½ ĵ
Ð½Ñĭ Ñı
á»ģ n
Ġà¦ı à¦¬
âĢ į
ĠÎºÎ± ÏĦÎ±
ev er
p ut
Ġh em
Î³ ÏģÎ±
Ġt Ã¶
à´¾à´ Ĥ
ĠÑī Ðµ
ï¼Į ãĢĳãĢĲ
Ø¨ Øª
Ġà¦¨ à¦¿à¦
k ol
Ð» Ð°Ð²
ĠÙĪ Ùħ
Ġh ol
áĢĽ áĢ½
Ø§Ùħ Ùĩ
Ġp ublic
ĠO ct
Ġì ²
re f
ĠáĢĴ áĢ«
ĠCas ino
y w
Ġm ost
è ³
àª¾àª ª
Ġg ra
ÏĮ Î½
ĠâĢ º
Ġv Ã¤l
t ra
àª¾àª ¬
à¸Ī à¸²à¸ģ
ÉĻl ÉĻr
Ġer a
ÐµÑĤ Ð°
à¯ģà® °
åį ģ
ĠÎ ¶
s en
áģ ¼
Ġæ ŀ
åı ĸ
ĠÙĥ ÙĦ
ĠÏĥ ÏĦÎ¹
Ġk Ã¶
ĠÄĳ Ã£
Ġad d
ĠV ol
ĸ áĢ¼
ĠáĢ¡ áĢľ
æ ·
à¸Ĺ à¸³
os ti
Ø§ÙĨ ÙĬ
ĠÐ¼ Ð°ÑĢ
Ġol an
ÃŃ ch
à¸¹ à¸ģ
ģ éĢŁ
è£ ħ
ĠS am
æķ Ļ
ing er
áĢ¬ áĢĶ
æł ¼
ĠL i
Õ¡Õ µ
tu re
à«ģ àª²
r ia
I d
Ġt v
Ġ6 00
Ø¨ ÛĮ
Ġd re
Ø´ Ø§Ø±
ÉĻ si
íħ Ķ
Ġen s
Ġà® ı
Ð°Ð´ Ð°
à¦ķ à§įà¦¤
Ġàªµ àª°à«įàª
Ġì £¼
ëħ Ħ
Ø§Øª Ú¾
ĠT op
Ġu a
v in
Ġt ri
iy at
ĠV o
ãĥĥ ãĤ¯
ĠM i
æĮ ģ
Ġë³ ´
ĠO d
am es
ĠÏĢÎµ ÏģÎ¹
im b
ĠE t
áĢĻ áĢ¼
à´® àµįà´®
à¹Ħ à¸¥
am is
ĠÏĢÎ± ÏģÎ±
æİ ¥
à¹ģ à¸¥
s Ã¥
Ġ> >
×ĳ ×ľ
ĠÛģ ÛĮ
Ġë° Ķ
Ġp ok
æĦ Ł
ig en
áĢĴ áĢ®
Ġà° Ĵ
åį Ĺ
ĠM y
36 5
ud ah
Ġs ed
ĠL o
áĥĶáĥĳ áĥ£áĥļ
Ġà´Ĵà´° àµģ
ĠãĢĳãĢĲ ï¼ĮãĢĳãĢĲ
ĠÐ¸ ÑĪ
Ġg Ã¼n
Ġed he
ÑĢ Ðµ
Ġ×ľ ×ŀ×
åĲ Ĺ
od i
áĥ£áĥ Ľ
ĠÐ²ÑĢ ÐµÐ¼
Ġ×ĸ ×Ķ
ak at
Ġà°ļ à±Ĩ
à¥Ĥ à¤¨
Ġp in
Ġth u
Ù¹ Ø±
à¤ ĸ
e i
Ġa ir
à¸²à¸ ª
Ġe ks
L E
Øª Ø§Ø¨
ĠÚ© Ùħ
Ġt ÉĻ
ÎµÎ¹ Î±
ĠÐ» Ð¸
à¦¾à¦ Ĺ
ĠÐ¿ Ð°
æĢ İ
w á»į
Ġp áº¹lu
Ø¨ Ø©
áĢĻáĢ¾ áĢ¬
à§ĭ à¦Ĺ
à¥ĭ à¤Ĺ
ì ĻĢ
áĢĻáĢ¾ áĢ¯
Ġf Ã¥
à¸Ķ à¸µ
äºļ æ´²
Ġcon f
à« Ī
pk 10
à¤¡ à¤¼
ĠÐ¼Ð¾Ð¶ Ðµ
æº Ĳ
à¤ķà¥įà¤ ·
Ġ20 00
×Ļ× ¦
Ġ×ŀ× ª
ĠÄĳ á»ĥ
Ġå Ĭ
Ġà¤ħ à¤ª
áĢķáĢ« áĢĲáĢļáĢº
Ġ×Ķ× ¤
Ùĭ Ø§
Ġor ang
Ġàª ĩ
èµ Į
Ġh ana
app ä¸ĭè½½
Ġinter net
ãĥ Ĩ
ìĤ¬ ì§Ģ
áĢ» áĢģ
ĠÐ· Ð°Ð²
s er
Ġr ad
ĠÐ±Ð¸Ð» Ð°Ð½
ĠÃ Ń
º «
ĠP entru
r t
ĠÃ Ĺ
ow e
æµ ģ
Ġf ut
ÑĢÐ¸ Ð¼
à®¾à®Ł à¯įà®Ł
1 00
ter s
Ġd ira
áĢĸáĢ¼ áĢħáĢº
ĠØ±ÙĪ Ø²
×ª ×Ļ
Ã į
ĠÐº Ð°Ð¼
ãĤ «
Ġ6 8
ĠÃ ģ
mas Ä±
r id
Ġà¤ ĺ
h n
ĠR ec
ĠGo ogle
ub a
å ²
Ġk hi
áĢĢ áĢ»
ĠØ§ÙĦ ÙĬ
à¸´ à¸¡
à°Ĥà° Ĺ
Ġil ÉĻ
Ã ī
ÏĢÎ¿ Î¹
±áĢ ŀ
ĠáĥĲáĥ ¥
áĢŃ áĢĻáĢ¹áĢ
ĠM us
à«Ģ àªµ
ĠØ¬ Ø³
O V
Ġw ar
Ã ĸ
ag er
Ġcom e
å¼Ģ æĪ·
ĠB al
ĠâĦ ĸ
ÑĨ Ñı
Ġs ul
ek in
Ġp la
as te
ov an
ĠN or
à¥įà¤° à¥Ģ
Ġsy st
ĠD on
ĠÎ ĺ
ĠÙĪ Ùĩ
Äĥ ng
h ir
h od
àª ĩ
ĠØŃ Ø§ÙĦ
Ġàª² à«ĭàªķ
à¥įà¤ ¥
Î³ Î¿
ĠÐ² ÑĬ
á»Ŀ i
ÑĨ Ð¸Ñı
Ġà®µ à¯Ĩ
at ive
Ġt eg
Ïĥ ÏĦÎ·
ĠÐ° Ð¼
Ġter m
Ä« g
ĠÐºÐ°Ðº Ð¾
áĢ±áĢ¬ áĢ·
Ġk ek
ĠS P
Ġå Ĩ
ĠÐ´ Ð·
á» Į
ĠI D
Ġr end
à¨ ¾
Ã¤ tt
ĠÐ¼ ÐµÐ½
ç ¬¬
à¦¦ à§ĩà¦°
à¸¶ à¸ĩ
ìĸ ĳ
c ent
ed s
an ti
Ġb ag
Ġde i
ĠS m
Î´ Î¹Î±
å®ĺæĸ¹ ç½ĳç«Ļ
ĠÎº Î¿
Ġ200 5
ĠÑĢ Ðµ
ĠÃ¶ n
æĪ ĺ
Î³ Îº
à°¾à° Ĺ
Ġàª¤ à«įàª¯
on te
ĠH D
à®Ł à¯ģà®¤à¯įà®¤
ĠAz ÉĻrbay
Ġar r
ÐµÑĤ ÑģÑı
ĠM or
å° ĳ
Ġtr ad
ĠC a
Ġthe ir
×Ļ× Ĺ
is er
ĠãĢ Ĭ
l ass
Ñĭ Ð²
Ä± lÄ±
ĠÐ¼ Ð°Ñģ
pl o
Ġdi b
ĠS ie
indow s
Ġ×ŀ× Ĺ
Ġmat eri
à¸²à¸ Ĺ
áĤıáĢ½ áĢħáĢ¹áĢ
Ġun ha
Ġf ree
¡ à°¾
Ġê³ ł
Ġn ull
×¨ ×Ļ×Ŀ
Â ¬
áĥĺáĥ Ĵ
w are
Ġà¦¸ à¦Ĥ
ĠV ideo
Ġ4 00
Ã¼r k
Ġà®Ĵà®° à¯ģ
Ġï ½
Ġsup er
le y
àµĩ à´°
à®© à¯įà®©
Ġorgan iz
à¤¾à¤ Ĺ
Ø´ Øª
ĠA B
Ġå ¯
à®¿à® ļ
Ġ7 8
Õ ¿
Ã ĵ
Ñı Ð´
ĠØŃ Ø³
Ġvo us
Ñı Ð½
ĠÑģÐ² Ð¾
emb re
Ġà®¨ à®Ł
Ñĺ Ð°ÑĤÐ°
ĠÙĪ Ø³
ĠÂ ®
Ġà°¤ à±Ĩà°²
çŁ ¥
àµ ĥ
ĠÐ· Ð´
âĢĮ ÙĩØ§ÛĮ
à¹Ģà¸ §
Î± Î»
Ġt l
h am
Ġac tiv
áĢĲáĢ¼ áĢĢáĢ¹
à±įà° ¦
AN G
Ġna j
sk i
ç² ¾
à±ĩà° ¦
à¯Īà®¯ à®¿à®²à¯į
Ġth á»ĥ
Ġà¦ı à¦ĩ
Ġ×Ķ× ł
ĠA fr
ĠáĢĸ áĢ¼
Ġwa ar
Ġk Ã¶z
Ġp ou
Ð°Ð¼ Ñĸ
Ġl it
Ġthe y
Ġso cial
à¤¾à¤ ª
Ġà®¤ à¯Ĭ
à¦ «
up a
ob a
Ġ6 4
à¤¾à¤° à¥Ģ
ç ĭ
à´¾à´ ®
ÐµÑģ Ð¿
Ġqu al
Ġl um
ĠëĤ ĺ
op e
×¨ ×Ľ
ë¬ ¸
Ã¼ s
æĶ ¾
ok i
Ġdel s
áĢ¯ áĢĲáĢº
ĠÙ¾ Ûģ
ĠáĢĢ áĢ»
×Ļ× ļ
à®ªà¯įà®ª à®Łà¯įà®Ł
ÏĦ Ïħ
Ïģ ÎµÎ¯
c om
m ak
Ġà¦¥ à§ĩà¦ķà§ĩ
à¯Ī à®¤à¯įà®¤
e y
à¹Ī à¸Ļà¸
ĠÙ¾ ÛĮØ´
Ġ" ).
ĠI B
Ġj pg
à¥įà¤ ²
à´Ļàµįà´ ķ
áĢ¬áĢ¸áĢ Ĳ
ĠFac ebook
à´¾à´ ±
Ġc amp
ĠÛģ Ùħ
ĠÐ¸Ð¼ Ð°
ãĥ ¡
ĠÑģÑĤ ÑĢ
un ta
å¤ ĩ
è Ħ
âĢ Ķ
is sa
Ġn el
Ġd ah
7 4
Ġy ar
åİ »
áĢľ áĢ²
Ġç Ļ
ÏĦ ÏģÎ¿
Ġpre d
ib i
ÎµÎ¹ ÏĤ
áĤĢáĢĢ áĢ®áĢ¸áĢ
Ġw er
ÙĨ Ø³
Ð¶ Ðµ
ç» ĵ
r ist
Ġre aliz
à°Ĥà°¦ à°¿
Ġni cht
q a
à°¾à° ľ
Ġma u
id s
g g
Ġni et
Û ķ
Ġh om
ÙĬ Ø²
ĠÑĺ Ð°
Ġà´ļ àµĨà´¯
Ġà¦Ĩ à¦°
Ã¨ n
Ġs n
ĠÐ½ Ð°Ð·
Ð½ Ð°ÑĤ
Ġs ho
Ġpr zy
atu re
áĢĻ áĤĪ
äºļ æ¸¸
ÑĤ Ð°ÑĢ
é¢ ĺ
ro und
à® ¸
Î¼ÎŃ Î½
ut h
£áĥ ļáĥĺ
Ġy an
ĠÕ °
à¸ģ à¸£
ãĥ £
ok u
ç¤ º
á»ĳ ng
Ġ×ķ ×Ĳ
Ġà¹ Ģ
ĠØ¢ Ù¾
Ġmer eka
à¸ķ à¹Ī
à¹ĥ à¸Ī
Ġk ter
á»ĳ i
x i
Ġ×ĳ ×©
ud en
ĠÎ¿ ÏĢÎ¿
ĠØŃ Ú©
à¸Ķ à¸¢
àªĤàª §
à®Ļ à¯įà®ķà®³à¯į
Ðº Ð¾Ð»
Ð Ĺ
Ġ×Ĳ ×ľ
áĥĺáĥļ áĥĺáĥ¡
áĢ½ áĢĶáĢº
à¦² à§ĩ
è ĥ
Ġà®ķ à¯Ĥ
à¦¾à¦ ¶
ĠB as
ãĥ ŀ
áĢĻ áĢŃ
ì§ Ħ
à§ĩ à§Ł
ĠØ² ÛĮ
Ö Ħ
à¤¿à¤ µ
ĠáĢķ áĢ«
å¼Ģ å¥ĸ
àªķ à«įàª·
ìķ ¼
Ġs w
ĠÎ¼ Î±
ĠÂ ±
Ïħ Î½
à±Ĥà° °
Ġë ²
Ġç §
r Ã¡
âĢ ĺ
Ùĥ ÙĪÙĨ
Î¹Îº Î¿
ÙĦ ÙĪ
r im
Ġleb ih
ra b
ÙĬ Ø§Øª
Ġn atur
ĠP R
ãģ¾ ãģĹãģŁ
is u
ĠÙĪ Ø±
ĠÙħØŃ ÙħØ¯
Ú© Ûģ
ok e
±áĢ Ĩ
id ades
T A
à ¬
ĠØª Ø§
ov Ã©
ÑĪ Ðµ
ci as
áĥĲáĥĵ áĥĴ
ĠÙħ Ø³Øª
áĥķ áĥĶáĥ
Ġç Ľ
ĠE k
ĠK u
r ar
Ġe u
àªķ àª¾àª°
b or
ĠAn da
áĥĲáĥľ áĥĺ
Ġog sÃ¥
ow i
Ġan n
ç« ĭ
à¦¾à¦¦ à§ĩà¦°
ÐµÐº Ñģ
Ġp ad
à´¾à´¯ à´¿à´°
r ad
Ġp ul
s c
ap o
ĠìĹ ¬
aj u
d ek
Ġà« §
Ø§Ø ©
Ġà°ħ à°¨
Å« s
hi ch
ĠØ§Ø µ
Ġà´ħ à´¤
ĠÙĪ Ø¨
åħ ĭ
Ġàª¸ à«ģàª
¡ Â
Ø§Ù ¾
Å¡ o
ãģ® ãģ§
áº ©
ic as
Ø« Ø±
ĠÐľ Ð°Ðº
Ġê ±
ĠØª Ú©
ĠÂ §
Ġb it
in iz
áĢ ĩ
ĠÐ± Ð¾ÑĢ
ãĥ ¥
ro om
à¹Ģà¸ ķ
ĠáĢĨ áĢŃáĢ¯
d ay
Ġà¤¸ à¤¾à¤
Ġole h
Â º
ur es
Õ¡ ÖĢ
en ie
Ð°Ð½ ÑĤ
éĢ ī
ĠÎ´ Î·
à¤¾à¤¨ à¥ĩ
çĦ ¶
on om
Ġì ¤ĳ
ĠÐ´ Ðµ
Ġ> <
ess o
à§ĩà¦ ¤
ØŃ Ø©
ob ile
Ġ×ŀ× ¢
Ä ·
d Ä±
Ġbuh ok
ĠÃ¼ Ã§
×Ľ ×ľ
ro id
g el
Ð°ÑĨ Ð¸Ð¸
ĠØ¨ Øª
Ġà°ķ à±Ĭ
Ø§Ùħ ÛĮ
Ú© Øª
Ġk us
Ġp om
Ð¾ÑĤ Ð¾ÑĢ
áĢ ´
Ð¸Ñĩ Ðµ
áº ½
Ġà´ª àµĭ
è® ¯
it an
Ø± Ø§Øª
ê° Ħ
Ïģ Î¹Î±
ä¸ ľ
Ġãģ ĵ
á Ł
å¸ ĥ
à±įà°² à±ĭ
em os
áĥĶáĥ¥ áĥ¢
li p
Ġol du
à®¿à® ®
ĠìĿ ¼
ê³ Ħ
ĠÂ ³
Ġ6 6
at ik
Ã ĩ
Ġè ¯
ed z
ĠS E
à¸²à¸ Ķ
ĠÂ ´
ĠD el
Î¸ ÎµÎ¯
Äĵ l
Ġj ul
à®± à¯įà®ķ
ç§ ĳ
ĠáĢ Ĺ
Ġc am
à«įàª° à«Ģ
Ġm p
ĠáĥĽ áĥĲáĥĴ
à«ĭàª ľ
Ġt in
f u
Ġb re
ec a
ĠÂ ©
ç ¼
ĠÐ¼ Ð°Ð»
Ã ¯
Ġcon d
ĠáĢĲ áĢħáĢ¹áĢ
Æ¡ n
Ġl im
Ġs ak
ĠN am
ĠÎ¼ ÏĢÎ¿
æ ¢
Ć ć
×¨ ×Ķ
ĠÐ± ÐµÑĢ
Ñ ľ
³ Û
Ġë¶ Ģ
h al
à°¿à° ®
it Ã©
Ġà®ħ à®°
Ġàª¸ àª°
à¹Ħà¸¥ à¸Ļà¹Į
Ġáĥł áĥĿáĥĴ
è ©
Ġl ap
áĢŃáĢ¯ áĢĢáĢº
Ġ6 9
è¶ ³
áĥ£áĥ Ĺ
Ġà¤¨ à¤¹à¥Ģà¤Ĥ
Ġæ µ
Ġde g
à¯Īà® µ
áģ ½
æĢ »
ĠÐ¼ Ð°ÑĤ
Ġà¦ªà§įà¦° à¦¤
ãģ¨ ãģĦ
à° ·
iy an
èĢ ģ
Ä £
Ġf et
Ġm ig
Ġdes c
Ġa ug
ov en
ĠB ir
à¤¿ à¤°
±áĢĲáĢ¬ áĢ·
Ġan i
Ġk ah
Ġáĥ ¦
Ġl and
áĢ¸ áĢĢáĢŃáĢ¯
ê ¹
ë £
Ġt ik
Ã¹ ng
ì¹ ĺ
Ġav ec
Ġal so
Ġ12 0
Ġinter n
Ġg ore
Ġàªª àª¹
áĢ±áĢ Ĩ
eb ut
á» ħ
s m
à°¾à°¨ à°¿à°ķà°¿
Ð¸Ð½Ð¸ Ð½Ð³
áĥĲáĥłáĥ ĵ
Ð± ÐµÐº
à°¿à° ¸à±įà°¤
Ø§Ø¨ ÙĤ
æĽ ´
ì¹ ´
Ġsh ow
Ġà´ª à´±
Ð¾ÑĢ Ð°
ĠáĢĻ áĢŃ
àª¿ àª°
Ġ( );
à±Ģ à°¸
á» ı
ig i
ĠâĢ İ
Ġre f
áĥĲáĥłáĥ Ľ
eci al
à´ ŀàµįà´ŀ
×ĵ ×Ļ
ĠU p
ĠØ¹ Ùħ
Ġb ro
Ġku i
ĠØ§Ù Ĭ
Ġv ari
Ġà¦ §
ÐµÑ ļ
Ġf re
ĠF il
Ġw á»įn
è Ļ
ĠB ak
Ø§Ø± ÙĬ
ĠØ¹ Ø¯
Ñĩ Ð°
Ġà®® à¯ģà®
æ Ĥ
Ã¸ l
é¡ µ
à¸²à¸ ŀ
ï »
ĠE N
Ð½Ñĸ Ðº
Ġê³ µ
Ġt ers
Ġph p
ĠR ev
Ġsz er
ĠØ ¸
Ð½Ð¾ÑģÑĤ Ð¸
ĠÒ ļ
Ġf und
Ùģ Ø³
o ol
Ġz d
Ġbes te
c ion
Ġq ar
Ġe qu
ĠS il
å¸ ¸
Ïģ Î¿Ïħ
an ta
ĀĀĀĀĀĀĀĀ ĀĀĀĀĀĀĀĀ
an za
à¦¿à¦ ¶
Ð² Ð°ÑĤ
v u
Ġà¦ ĺ
ĠN u
à«ĩàª² àª¾
w y
Ġl ist
à°¾à°¯ à°¿
Ñĥ ÑģÐº
ic es
ĠM u
Ġ: :
ï º
Ġpr os
Ġj ust
Ġl ek
å± Ģ
áĥł áĥĲáĥĽ
Ñĭ Ðµ
à¤ «
æĹĹèĪ° åİħ
P S
Ġc il
Ġb isa
ĠÒ ·
ĠØ® Ø§ÙĨ
Ġà µ
ĠM ak
áĥĶáĥĳ áĥļ
Ø± Øª
ut t
if e
Ġsi ch
h in
ĠO ff
ãģĦ ãģ¾ãģĻ
al og
Ġen c
ar te
Ñĥ ÑģÑĤ
I F
Ġàª¨ àª¹
ĠØ¨ ÙĬÙĨ
áĢĽ áĢŃ
Äģ ci
any ak
á» ī
ĠÃ¶ z
Ġd Ã©
à°¾à° ¸
Ġìĥ ģ
Ġáģ į
Ġc Ã´ng
00 00
à°¾à° ¡à±ģ
el u
ĠO m
Åĳ l
éĢ ģ
es z
ÙĨØ¯ Ùĩ
Ġà°ª à±Ĩ
ĠÐº Ð¾Ð»
Ġ. -
ung en
è Ń
is ht
c tor
Ð¾ÑĤ Ð¸
áĥĶáĥĿ áĥĳ
Ġà¦ıà¦¬ à¦Ĥ
ou g
Ġáĥ¡áĥĲáĥ Ļ
Ġë§ Ī
áĥĶáĥ ª
æ ®
Ġà°¸ à°Ĥà°
ĠD ep
Ġte xt
Ġl ip
** **
Ġv iew
Ġàª¬ àª¨
Ġs ie
à´¾à´ ³
ĠÛ ²
Ġk Ãµ
àª¿àª Ł
ĠÙĩ Ø°Ùĩ
Ġ9 7
ì¶ľìŀ¥ ìĥµ
Ġ×ŀ× ¡
Ø§Ø¯ Ø©
Ġf am
áĤı áĢ¯áĢŃáĢĦáĢ¹áĢ
Ð ħ
O C
ĠF ree
Ġå¤ ©
v Ã¤
ĠS ol
Ļ à¯įà®ķ
Ġk it
áĢ¬áĢ¸ áĢĢáĢŃáĢ¯
à¯įà® £
____ ____
ĠL u
Ġan s
et u
st en
æ¥ Ń
k k
op o
ĠÎļ Î±
ÉĻ c
à¦ ¡
Ð¸Ð» Ð°
à¹ī à¸²à¸ĩ
à¸Ļà¸ ķ
à±ģà° ¡à±ģ
ĠØ¯Ø§ÙĨ ÙĦÙĪØ¯
Ġà° «
Ġi y
ĠÒĽ Ð¸Ð»Ð¸
ĠØ® Ø·
Ġi P
ig o
ĠG er
áĢŃáĢ¯áĢ¸áĢ Ľ
à°ķà±įà° ·
Ġà¸ Ĺà¸µà¹Ī
éĻ Ĳ
4 1
ĠÏĥ Î±ÏĤ
à¹Ī à¸²à¸Ļ
ãĥ ī
Ġäºļ ç¾İ
d d
Ġi á¹£áº¹
à¸§ à¹Īà¸²
ĠØ¹ ÙħÙĦ
Îµ Ïģ
ĠÐ´ Ð²
à±įà°² à±ģ
ĠC ons
et en
Ð» Ð¾Ð²
íı ¬
z u
Ġb áº¡n
æ »
v ed
è º«
Ø¹ Øª
à±ĩà° ¶
à¸Ńà¸Ļ à¹Ħà¸¥à¸Ļà¹Į
Ġk v
us te
Ġm ang
à¸¡ à¸²à¸ģ
Ø¬ Ùĩ
áĥĶáĥĳ áĥĲáĥ¡
Ġ×Ķ ×ķ×Ĳ
ĠP at
ÙĨ Ø©
Ġ$( '
ãĤ µ
ÙĬØ± Ø©
I E
ĠN et
el er
l os
ĠAr t
6 3
h ur
Ġw hich
åĲ ĳ
ĠØ§ÙĦÙħ Øª
it ate
Ġs at
ĠáĢ±áĢ »áĢķáĢ¬
ĠÙ¾Ø§Ú© Ø³ØªØ§ÙĨ
Ã ®
Ġj ou
áĢĲ áĢŃ
ä¼ ģ
é¦ ĸ
ĠÐ½ Ð°Ð¹
Ġà° ¯
Ïİ ÏĤ
ĠP ara
à¸Ń à¸Ķ
ľ áĢ¬
Õ¸ÖĤÕ ´
ĠÙĨ ÙĪ
íĶ Ħ
Û Ķ
m it
Ð½ Ð°Ñģ
à¸Ľ à¸£
Ġ) {
Ġper o
à¯įà®¤ à¯įà®¤
à¦¦ à§įà¦
ard s
ĠÎ±Ïħ ÏĦÏĮ
åŀ ĭ
ij as
p u
è ±
Ġà¸ ľ
à± ĥ
Ġàªľ à«ĭ
Ñı Ð±
in as
àµĤ à´Ł
ek tr
6 2
Ø¯ ÛĮ
á»Ļ i
ÄĽ t
áĢ¬ áĢ¡
Ġv ot
v ent
ÑĨ ÑĨÐ°
n is
ĠØ¨ Ø¹
à¤¾à¤ ķ
Ġp Äģr
Ð» Ð°ÑģÑĤ
es c
ĠB on
Ġ×Ķ× §
f s
· à§įà¦Ł
ĠØ¨ ØŃ
ĠÐ¿Ð¾ Ñĩ
ĠÐ¿Ð¾ ÑģÑĤ
ĠÐĹ Ð°
çķ Į
Ġáĥ łáĥ
Ġn ed
Ġàªª àª¡
Ġå ¿
à«Ģàª ľ
æ¸ ħ
Ġcol or
Ġit em
áĤıáĢŃáĢ¯áĢĦáĢ¹áĢ ĦáĢ¶
Ð¸Ð» ÑĮ
Ġà°ļà±ĩà° ¸
Ġ×ľ ×¢
áĥĲáĥĽ áĥĵ
áĢŃáĢ³ áĤķ
y in
R A
áĢ Ĺ
ä¸Ń åĽ½
à°¤ à±įà°¤
ĠáĥĹ áĥ£
ĠåĽ ½
ìļ °
Ġde b
Ðº Ð°Ð½
Ġth i
Ġ×ĳ ×ª
ie c
Ġå ·
Ġæľ ī
à¯Ĩ à®°
Ð¾ Ò³
áĢĺ áĢ°áĢ¸
g al
Ð°ÑĤ ÐµÐ»
Ġçľ Ł
Ñĸ Ñħ
á»į c
åł ´
k ez
áĥ ¯
ÉĻ z
Ġàª¹àª¤ à«ĭ
è¢ «
à«ĭ àª°à«įàª
ĠG ro
ĠP i
g t
Ġn in
ĠP res
à«ģàª ľ
à¦¨ à§ĩ
ÅĽ Äĩ
ĠI r
Ġà° ¡
Ġdi ff
àª° à«Ĥ
Ġìľ Ħ
ĠØ³ ÙĬ
Ġ×Ķ× ¡
am ba
Ġcont ent
ĠâĨ ĳ
åº Ķ
v ious
Ġex c
Ä« dz
o ti
à¦ķ à¦¾à¦°
Îµ Î»
Ùĥ Ùħ
ĠØ§Ø ´
Ð¸ ÑĺÐ°
Ð¾ ÑĦ
ģ áĢ¼
in ess
Ø Į
Ä±n dan
à´Ļàµįà´Ļ à´³àµįâĢį
eg i
áĥĺ áĥĶáĥł
Ġà°® à±Ģ
Ð»Ð¸ Ñĩ
ĠÙĪ Ùİ
Ð½ Ð°Ð³Ð°
ĠØ¨ Ûģ
ÎĻÎ ļ
z at
ĠP D
ĠØ§ÙĦÙħ ÙĨ
k á»į
Ġe ine
ĠÎµ Ïħ
Ġl an
ab u
Ã¡ ng
íķĺ ê³ł
æĥ ³
Î´ Î·
æĢİ ä¹Ī
Ð°Ð½ Ñģ
Ġon der
à±ģà°Ĥà° ¦à°¿
ĠÃ µ
or r
Ĩ áĢŃáĢ¯
ĠS im
Ð½Ð¸ Ð¾ÑĤ
Ġà´¨ à´Ł
Ġd im
Ð¸Ð» Ð³Ð°Ð½
ĠD om
us u
l is
à®¾à® £
Ð¸ÑģÑĤ Ð¾Ð½
ĠÐ· Ð°Ð¼
ĠS ec
in c
ãĥ ģ
ãĥ Ĳ
à¸£à¸µ à¸¢
Ñį ÑĢ
Ð°ÑĢ Ñĭ
Ġà®ª à®Ł
Äħ c
Ġn om
à¦¿à¦ Ł
ä¸ ĸ
Ġàª° àª¾àªľ
Ġ äºº
Ġl ah
ĠÒ ²
Ġh indi
Ġam p
Ġsh um
ra w
Ġè ĩ
ĠÐ½ Ð¸
Ġàªª à«ĭàª¤
Ļ áĤĪ
áĢ±áģ¾áĢĢ áĢ¬áĢĦáĢ¹áĢ¸
Ġe h
áĥĲáĥķ áĥļ
áĢĬ áĢ·áĢº
à¤¾à¤ Ī
ä½ ķ
Ð½ Ð¾Ð¼
Ġp ay
Ġor ig
Ġd il
Ð°Ð½Ð¸ Ðµ
I B
Ġz en
Ġn Ãły
Ð¸ ÐºÐ¸
ĠâĢ ¬
éĸ ĵ
¹ Û
Ġn Ã¡
à¸Ħ à¸¸à¸ĵ
ĠØ§ÙĦØ° ÙĬ
r z
4 2
Ġs ind
áĥĲáĥķ áĥ¡
Ġà¤Ĩ à¤¹à¥ĩ
ĠÐ± Ð¾ÑĪ
×ķ× ĺ
Ã ĭ
l im
Ùħ Øª
Ġm áº¹
à´ ľ
Ġà§¨ à§¦
Ú© ÙĦ
ĠÐº Ð¾Ð¸
ĠA D
Ġà´ ¹
Ġkt Ã³
ah r
ĠBl ack
ç ı
Ïī ÏĥÎ·
ik t
Ġè ®
áĥĺáĥ£áĥ ł
Ġk os
áĢĦáĢº áĢ·
ìŀ Ħ
ĠÐ¿ Ð¾Ð·
Ø· Ø©
ç ĸ
à¸§ à¹Īà¸²à¸
p an
ĠÅ¼ e
ĠÚ¯ ÛĮØ§
à¦¾à¦ ļ
Ġáĥĵ áĥĲáĥĽ
ĠK h
Ġ ^
à¸¥ à¹ĩ
Ġtá» «
ĠÎºÎ± ÏĦÎ¬
7 3
áĢĬáĢº áĢ¸
éĴ Ł
àµģà´ ķàµįà´ķ
iv i
Ġàª® à«ĩàª
Ġw ork
Ġáĥ£áĥľ áĥĵáĥĲ
à¦¨ à§ĩà¦°
àª£ à«Ģ
§ à«Ģ
à±įà° ķ
àµįà´± àµįà´±
Ïħ Ïĥ
ĠÑ Ķ
äº Ľ
Ġb ad
8 5
ĠÎŃ ÏĩÎµÎ¹
ug h
à§įà¦ ¨
Ġà°® à°°
Ġ25 0
Ï Ĭ
Ġà¤¹ à¥Ģ
Ġda ar
ĠÐĿ Ðµ
ÑĤ ÑĢ
Ø£ ÙĨ
Ġau ch
Ġl ink
ĠáĢ»áĢĻ áĢĶáĢ¹áĢĻ
ĠÑĩ Ð°ÑģÑĤ
Ġà¦ª à¦¾à¦°
Ġr as
ĠÃ ³
åŁ º
Õ¥Õ ¬
al Ä±
Ġp rac
ĠìĿ ĺ
à¦¾à¦ Ł
ĠáĢ Ĥ
Ġur l
as sa
Ð¾Ð´ Ð¸
Ðł Ñķ
Õ« Õ¶
Ġà¸ģ à¸²à¸£
E G
Ġà°ķ à±ĭ
Ġpres ent
à´£ à´Ĥ
ÏĦÎ¹Îº ÎŃÏĤ
ĠPro f
Å¡ t
áĢ¬áĢ¸áĢ ħ
pl ay
Ġpre z
Ġe p
à¯įà® ¯
ÎŃ Î½
áĢ¯áĢ¶ áĢ¸áĢ
ĠáĥĲáĥł áĥĺáĥ¡
li j
ÑģÑĤÐ² ÐµÐ½
Ġan ti
ĠØ£ ÙĬ
Ġa ga
è¿ ĳ
ç» Ł
Ġt ing
Ġp s
à« Į
Ġà¦ľ à¦¾à¦¨
Ġp es
tic o
Ġà¸ Ĭ
rat is
ŀ Į
ie f
Ġ×Ķ× Ľ
Ġper f
Ġm Ãł
ÑģÑĤ ÑĮ
7 2
Ġà® Ł
ĠÐ± ÑĢ
à«įàª ¨
à¥ ĥ
ĠØ§ Ú¯Ø±
ĠÏĢ ÏģÏĮ
å¸ Ī
Ðº Ð°ÑĤÐ°
ĠÐ¼ ÐµÑĤ
G B
à«Ģàª ¸
Ġm ell
s g
eb er
à¤ķ à¤°
Ñĥ ÒĽ
ÙĦ ÙĤ
Ġal g
×ķ ×Ļ
áĥĲáĥłáĥ Ĵ
ÐµÐ¼ Ð¸
ĠP art
ãģĤ ãĤĭ
Ġàª® àª¾àªĤ
ĠI ng
à¦¾ à§ľ
al ik
Ġà´ª à´°
Ġit s
Ġ ą
à¸ļ à¸Ńà¸¥
à´¿à´¨ àµį
Å¡an as
àµįà´ ¸
ĠØ§Ù¾ ÙĨÛĴ
ek i
áĢ±áĢ ħ
ĠÐ¿ÑĢ Ð°ÑĨ
g b
Ġà¦ī à¦ª
Ġà¤ī à¤¨
in an
ĠØª Ø´
Ð»Ð¸ Ð²
Äģ t
9 2
Ø§Øª ÛĮ
ĠØ§Ø³ ÙĦØ§Ùħ
à¦¿à¦¤ à§ĩ
±áĢĲáĢ¬ áĢ¹áĢ
6 1
ä» »
T C
Ñı Ð¼
Ġn ou
ÑĤ Ð¾Ð¼
ĠØ¥ ÙĨ
Ġpro t
Ġäºļæ¸¸ éĽĨåĽ¢
ĠÐ² ÐµÑĢ
ĠTr ans
Ġà´ «
Ġest Ã¡
Ġ×ĳ ×Ķ
à¸±à¹ī à¸Ļ
Ġm os
àª¾àª¨ à«ĩ
at Äĥ
ĠS on
à¸£ à¸·à¸Ń
j ak
Î¯ Î¶
id u
ĠÏĥÏĦÎ¹ ÏĤ
ĠK os
à´¿à´ļàµįà´ļ àµģ
Ġáĥĵ áĥ¦
à¦¾à¦ §
á»ĵ ng
áĢ¼ áĢĢáĢ¹áĢ
Ġàªľ à«ĭàª
Õ« Õ
ĠS w
è¨ Ģ
Ġm am
Ġb ere
el et
Ġí Į
Ġma x
å¦ Ĥ
áĢ¬ áĢĦáĢ¹áĢ·
à¤¾à¤Ĥ à¤ļ
ĠáĥĹ áĥ¥
à¹ī à¸Ļà¸
ĠÎł Î±
emp re
Î´ Î¹
ÏĮ ÏĤ
Ġl is
ìĦ ¸
Ġà®İà®©à¯įà®± à¯ģ
ĠÙĨ Ø§Ùħ
Ġac tu
ĠÎ Ī
ĠØ³ Ú©
à¸ Łà¸£à¸µ
ĠÙħ Ø«
ä¼ ł
ĠK i
à°¾à° ¡
ĠáĥĽ áĥ®
it os
áĢŀ áĢŃ
ä½ ł
ist on
Ġm ap
è »
æ¬ ¾
Ġm ik
ĠÂ ¿
ĠC re
Ġà´ķ àµĬ
Ġk ry
Äģk ou
Ġinde x
Ïĥ Ïī
à¦¿à¦ ®
y tt
ĠS ep
Ġb ra
ĠI ST
æİ Ĵ
ĠA C
à¥ģ à¤²
ĠáĥĽ áĥĺáĥ
á»ĳ c
m is
ĠáĢ¡ áĢ²
Ġan o
Ġpro te
å§ Ķ
Ĵ Ī
ir s
à´¿à´ ¸
Ġ, ,
ĠÃ¼Ã§ Ã¼n
ed d
ĠG l
à±įà°¨ à°¿
Ġ200 4
ĠâĢ¦ .
Î ļ
Ġp ut
Ġë į
ä¾ Ľ
Ġmed ia
ĠA R
ĠÐ´ Ð¾ÑģÑĤ
é ł
å¾ Ī
ãĤ ¦
å°ı æ¸¸æĪı
áģ ĭ
ìľ Ħ
ĠN h
ĠØ¹ÙĦ ÙĬ
Ġdi es
Ġiz an
Ġà¤¤ à¥ĭ
Ú© Ø±
ĠvÃ¦ re
ĠØ¯ ÙĨ
å¤§ åıĳ
àª¾àª ¶
Ġp ed
og a
ĠNe xt
áĢ±áĢŀ áĢ¬
ĠáĢ ·
r á»į
) ,
aj e
ĠApr il
ĠW indows
n ic
Ġth em
Ã¡ i
ÐºÐ¸ Ð¹
op le
áĥ® áĥĿáĥķ
ĠÐŀ Ð±
Ġor d
áĢ¯ áĢĽ
{ "
ĠÑģ ÐµÑĢ
m ek
áĢ³ áĢŃ
end i
Ø¹ Ùĩ
Ðº ÑĢ
Ġ×Ĳ ×ķ
Ġd est
ĠÐ¡ Ð¿
Ġàª¥ àª¯
ĠC he
ĠÑģÐ» ÐµÐ´
Ã¤ ng
ĠB il
ang a
az io
Ġs es
Ġáĥ °
ì¶ľìŀ¥ ìķĪë§Ī
Ġk em
ĠØ§ÛĮ Ø±Ø§ÙĨ
ĠS port
áĥķ áĥĲ
ĠG ar
ta a
ÎĹ Î£
Ð°ÑĢ Ð´
ĠÙĨ Ø´
ÐµÑĤ Ð¸
áĢĲ áĢ±áĢ¬áĢº
ĠS erv
Ġ×Ķ× Ĵ
Ã« ve
en u
I O
Ġs um
ä¸Ģ ä¸ª
d or
Äģ j
ĠãĢ ı
r or
áĢ±áĢ ķáĢ«
ÈĻ te
à´¯ àµģà´Ĥ
ĠàªĹ àª¯
Ã¨ re
ĠìĦ ľ
Ġà®ļ à¯Ĭ
Ġáĥ© áĥķáĥĶáĥľ
Ġma il
h as
h te
Ġpr om
Ġà´ ¡
ä» Ģ
ģ áĢ¶
ÏĦÎ· ÏĦÎ±
èģ Ķ
m un
è§Ĥ çľĭ
áĢ½ áĢ²
åİ Ł
Ġson o
Ġm l
c ol
à®¤ à¯į
à¹ĩ à¸ļ
re z
Ġst and
æł ·
ãĥ ĭ
Ġz Ã¡
Ġlang _
Ä ı
×ŀ ×¨
ÐµÑĨ ÑĨÐ°
ÙĦ ÛĴ
e x
Ġ×ľ ×©
Ġ×© ×Ĳ
alm ente
Ġes s
ĠÐ¼ Ðµ
à¹ģà¸¥ à¹īà¸§
es p
h ol
à¸Ńà¸¢ à¹Īà¸²à¸ĩ
áĥĲáĥłáĥ ¢
ĠÙĨ ÙĤ
à¦ Ļà§įà¦Ĺ
n t
Ġt ai
Ġl id
Ġel ektr
Ø§Ø± Ø©
Ġp le
Ġw p
Ø³ Ø±
im ento
æĸ ¯
à®¾à® ±
ĠS ept
Ġê ¹
om s
Ġa ur
ĠÐĲ Ð»
Ķ áĢ²áĤĶ
Ġs ka
Ø§ÛĮ Ø¯
åģ ļ
áĢ± áĢ¸
ie j
ĠT ak
Ġl ori
Ì Ģ
ĠÅ Ľ
Ġe ur
Ð¸Ð¼ Ð¸
Ø§Ø¦ ÙĦ
Ġà ¶
à¸ķ à¹īà¸Ńà¸ĩ
ÑĥÐ² Ð°Ð½Ð½Ñı
Ïĥ ÏĦÎ¿
ĠAl lah
Ð°Ð¼ Ðµ
ĠD av
Ġàªķà«ĭàª Ī
in da
Ġå Ń
Ġm ass
ê³ µ
ĠÐ² Ð¾Ð·
Ġs is
ĠÐ· Ð°Ð´
ac ion
ĠØ± ÛĮ
id os
ĠM ic
el ik
Ġp ens
ver t
ib u
Õ¡ ÖĢÕ
ac ional
å¯ ¼
ĠáĢ¡ áĢĽ
Ð¾Ð² Ð¾
àª¸ à«įàª¤
Ø§Ø¹ Øª
Ð½ ÐµÑģ
Ġsa at
Î¾ Î·
et y
ĠÎ¸ ÎŃ
ĠÄĳ áº¿n
Ġk ay
ĠK an
ĠAzÉĻrbay can
Å£ i
à±įà° ¥
â ĸ
Ø§Ø± Ø§Øª
ber g
Ġkep ada
ĠU N
à§ĩà¦ ĵ
à¸Ń à¸ķ
ĠS H
ĠÐ² Ð¸
Ġt et
à¸§ à¸´
à¦¾à¦ ģ
Ġì Ľ
ĠÎ¼ Î¿Ïħ
Ġ\ /
Ñı Ð·
Ġ, âĢĿ
Ġres ult
h one
Ø§ÙĦ Ø¨
×ĳ ×¢
ĠP S
à¸µà¹Ī à¸¢
Ã§ Ä±
Ġå ¸
Ġáĥ£áĥ ¤
ë§Ī ìĤ¬ì§Ģ
ĠÏħ ÏĢÎ¿
ĠÑĤ ÐµÑĢ
ĠÙĤ Ø¨ÙĦ
à¤¯ à¤¾
ug ar
ĠB lu
ind en
Ġà°¸ à°®
ĠC al
áĥ «
ĠM ah
Ð¶ Ð°Ð²
Ġà¤¯ à¤¹
ĠÐ· Ð°ÑĢ
in Ã«
l áº¹
Ġáģ ¿
Ġæ Ĭ
è® °
æ± Ĥ
ÐµÐ½ Ð´
un s
Î¼ Î®
Ñĥ Ð½Ð¸
çĦ ¡
à° Ĺà°¾
ic ia
ĠI k
Ġre al
à§ĩà¦ ®
Ïį ÏĦÎµ
Ġen erg
à¹Ģà¸ Ĭ
Ġn ang
Ġc ir
Ġà¦ķà¦° à¦¾
Ú¾ Ø±
Ġpr ost
è¯ ķ
ãģ Ŀ
c ul
Ġg ia
Ġd h
ãģ °
ĠJ os
ĠÐ´ ÑĢ
ĠÐ½ ÐµÐº
Ġd id
åħ Ī
j al
Ġan al
à° ¶
O G
Ġj y
à¹Īà¸²à¸ ¢
Ê» e
à¹Ħ à¸Ĺà¸¢
er ne
å®¶ ä¹Ĳ
ĠÐ¶ Ð¸Ð²
Ġ8 9
Ġst at
Ò³ Ð¾
Ġp et
ĠÒĽ Ñŀ
f ik
Ġsist em
ĠÑĤ Ñŀ
Ġprof ess
s ite
il t
×ŀ× ª
Ġt ari
ĠÐ£Ðº ÑĢÐ°ÑĹ
Ġh ai
à¦¾à¦ ĵ
áĢĶáĢ¹ áĤĶ
áĥĿáĥłáĥ ª
ĠÐ´ ÐµÐ»
ĠH ol
Ġw ana
Ã¶ t
Ġà®ķ à®Ł
à¸« à¸¡
ÙĪ ÙĬ
Ġv en
in ya
Ð½Ð¾ Ðµ
Ġk im
íķ ł
Ð¼ Ð°Ð½
Ġà®ĩ à®¤
d ÉĻn
à´µ àµģà´Ĥ
Ġv ez
à¯Īà® ªà¯įà®ª
Ġ, .
áºŃ p
Ġd aha
ĠL ib
åħ ī
ÚĨ Ú¾
ĠØ¬ Ùĩ
Ġar Ä«
ãĥ¼ ãĤ¹
j an
c r
àª¾àª° à«ĭ
ĠÃ İ
Ã¥ l
Ġre z
j ar
áĥĲáĥķ áĥ¨
Ġh eb
Ð»Ñİ Ñĩ
Ġo lar
Ġc op
Ġë Ĳ
Ġtit le
ì ¡°
T E
ĠÎ± Î»Î»Î¬
ĠF ebru
Ġí Ķ
áĢ¬ áĢĻ
áĥľ áĥĺáĥ¡
Ġk Å«
ÅĤ y
ir t
ĠØ Ľ
ĠD it
ad u
Ġè µ
Ġé Ŀ
åı Ĺ
Ñĥ Ð´Ð°
st ra
ĠNE W
ê ´Ģ
Ġk um
Ĭ é¾Ļ
áĢĢ áĢ¯áĢŃ
ĠÐİ Ð·
Ġus e
Ġag o
à¯Īà®¯ à¯ģà®®à¯į
àªĤ àªķ
ĠH y
àµĨ à´Łàµįà´Ł
Ø§ÙĨ Ø¯
og bo
ãģĦ ãģŁ
Ġdat ing
ĠáĢĻ áĢ¼
à¦¿à¦ ¦
f el
Ġv á»ģ
ĠØµ ØŃ
ĠV is
íĸ ī
ëŁ ¬
ow o
à¥įà¤ ª
è¦ ĭ
ç¾ ¤
ig an
Ġett Ã¤
ĠInter n
Ġl oa
Ø¦ ÙĬØ³
áĥł áĥĺáĥ¡
Ġg eb
éĹ ®
ĠÙĤ Ø±Ø§Ø±
5 9
Ġm ont
áĢĲ áĢ®
Ġb ers
ĠS ur
Ġd ell
à¹ī à¸³
à¥ĩà¤ Ł
åĪĨ å¿«3
Ġaut or
×ĵ ×¨
ê¸ Ī
Î¯ ÎµÏĤ
Ġr ah
Ġ8 3
Ġàªı àª®
å·¥ ä½ľ
ãĥ¼ãĥ «
Å© ng
ĠáĢ±áĢ ľ
ìŀ ħ
áĢĶ áĢŃáĢ¯áĢĦáĢº
Ġr ak
ĠáĥĽ áĥĹ
ĠØ³ Ø§ØªÚ¾
ÑĥÐ»ÑĮ ÑĤ
y at
ab e
Ġs uc
is mo
oh l
Ġs iz
A d
f ul
å ĥ
ĠØ§ÙĨ Ø¯
ti a
m eld
Ġb ang
ãĤĪ ãģĨ
Ġ7 9
ĠS et
ĠÐ· Ð²
æ ¹
» áĢĸáĢħáĢ¹áĢ
u en
ĠÙĦÛĮ ÛĴ
lig t
ĠÏĥÏĦÎ¿ Î½
ĠS en
è ĳ
ÙĪ Ø§ÙĦ
ĠáĢ±áĢ Ļ
ÃŃ r
Ð¸ÑĤ Ð¾
çĽ Ł
Ð½ Ð¾ÑĤÐ¾
æĬķ æ³¨
ĠB ur
ãģ« ãģª
à°° à±ģ
Ġw ho
Ġá ¼
ĠlÃł m
w ay
ĠV e
ÙĪ Øµ
à¹Ģà¸ ļ
Ġ] .
Ð¼ ÐµÐ½
iyy ÉĻt
Ġà® ľ
ĠE S
Ð½ Ð¾Ð³
p at
ĠS em
m y
à¤¹ à¤¾
à§įà¦ ķ
à§ °
ut at
Ġàª¸ àª¾àª®
íķ Ļ
Ġdoc ument
Ġáĥ® áĥĶáĥļ
à«ĭ àª¨
åħ ¶
l ia
Ġn ost
ĠÂ µ
áĢĳ áĢ¬áĢ¸áĢ
à®¿à®± à®¤à¯ģ
Ġfir st
Ġà®ħ à®®
Ġ×ľ ×¤
c c
à¤Ĥ à¤Ĺ
àµĩà´ ·
in te
ìķ ½
ç§ į
Ġo or
ÙĢÙĢ ÙĢÙĢ
Ïģ ÎµÏĤ
ĠO f
ĠÎ´ Î¹
à´¦ àµįà´
Ġrev iew
Ð½ ÑĥÑİ
è¯ ·
ëª ħ
à§ĩà¦ ¬
áĢ» áĢĻ
Ġfor ma
æİ ¨
Ġâ ľ
×ł ×Ļ×Ŀ
áĢĲ áĢŃáĢ¯áĢ·
Ġæľ Ģ
à±įà° ¡
Äĵ m
Îĳ Î£
Ġà´ Ī
ĠU l
Ġáĥ¡ áĥ¢
ÑĢÐ°Ñ Ħ
im et
Ġm un
à°¿à° Ĺ
à®® à®¾à®ķ
Ð¸ ÑĦ
ê² ½
AN D
x a
Ġà®ª à®¿à®°
ÑģÐºÐ° Ñı
Ġí Ĩ
ubl ish
Ãº bl
it ed
ĠØ§ÙĦ Ø²
ÏĦ ÏīÎ½
Ø¹ Ø±
ir l
ãģķ ãĤĮ
Ġàª¤ à«ĩàª
ĠÐµ Ðº
U D
Ġpi Ã¹
Ġag åĽ½éĻħ
Ġ7 7
Ġ100 0
Ġk ami
æ° Ĺ
ĠáĢ± áĢĢáĢº
æī ĵ
ĠàªĨàªµ à«Ģ
is ke
ĠD ar
ÐµÐ´ Ð¸
ĠáĢģ áĢº
ĠÐ¼ Ñĸ
Ġsp ort
ãĥ ĸ
ĠC ap
Ġàª¹àª¤ àª¾
Ã¢ m
à¥įà¤ ķ
áĥĿáĥ Ļ
ĠP C
àª¿ àªĤàªĹ
ÙĪ Ùģ
ÛĮÙĨ ÛĮ
f ar
ĠâĢ ı
ĠB ro
àªµ à«ģàªĤ
Ġä½ Ĩ
ĠÑģÐ°Ð¼ Ð¾
àªµàª¾àª¨ à«Ģ
à¸Ļà¸ ´
ÉĻ ri
Ïĥ ÏĦÎ±
con om
Ġìķ Ī
ĠØ¨ Ø®
ĠÎ ¥
ĠÚ©Ûģ Ø§
c is
\ "
à´ķ à´°
Ġp il
åĪĨ éĴŁ
à¸µ à¸ģ
Ð¿ ÐµÑĢ
ir es
ĠÐ´ Ð¾Ð¼
à¹īà¸Ń à¸¡
áº¥ y
à¥įà¤ ¸
Ġkw enye
àª¤ à«ĭ
à¤¾à¤ ĩ
Ð¸Ð· Ð²
Ġ×ĳ ×¨
ĠÐ½ Ð°Ñĺ
ĠA ss
ell en
Ġit o
Ð» ÐµÐºÑĤ
Øµ Ø±
¦ Ĥ
g ang
Ġ á»Ł
ĠÃ ĺ
Ġdo or
am er
ĠØ¹ÙĦ ÛĮ
Ġk ahi
ãģ¨ãģĦ ãģĨ
ĠÃ¼ z
åĪ Ĺ
and er
Ġæ ²
k al
Ġo ther
Ø¹ ÙĪØ¯
ÑģÐº Ð°ÑĤÐ°
Ġz n
Î¼ Î¹
Ġt ash
à¸³ à¸«
Ø¹ Ø¨
Ñĭ ÑĤ
Î³ Î³
ĠÐ´ ÐµÐ½
éľ ¸
æ Ĳ
Ä« bu
áĥĿáĥłáĥ Ľ
ud io
Ġc ur
áĥĲáĥ ŀ
Ġr Ã©
Ġæ °
Ġì ¡°
Ġop p
Ïĩ Î¿ÏħÎ½
à§įà¦ ļ
ÎŁ Î£
ĠáĢľ áĢĢáĢ¹áĢ
è¿ ĺ
ĠL ED
ab or
à´® à´¾à´¯
×ľ ×Ļ
Ġr ap
ĠV a
lÉĻ ri
å Ħ
il gan
Ġme er
Ġc áº£
ĠAug ust
à§ĩà¦Ľ à§ĩà¦¨
c as
ĠO ne
Ð¸Ñı ÑĤ
á»ĩ u
ãĤ Ń
ĠÑĥ Ð¼
st an
ĠÐ¿ÑĢ Ð¾Ð²
if ic
Ġl ong
q q
as jon
Ø§ÛĮ Ø´
ing i
Ġä» Ĭ
Ġà° ²à±ĭ
I Z
Ġ. [
O W
Ġàª Ī
iy or
ĠT Ã¼rk
ĠP as
Ġà°ķ à±Ĥà°
Ġä» ĸ
Ð± Ð¸
Ð² Ð°Ð»
ut u
ãģĤ ãĤĬ
ĠS M
Äį nÃŃ
ow y
Ġä¸ Ĭ
ì ¦
un ci
Ġt w
ĠH et
ĠáģĤ áģĢ
ot os
ĠÐ± Ð¾Ð»
Ġs ik
Ġêµ ¬
Ġt áº¡i
Ġà¸ ĭ
Ġà¹Ģà¸ ŀ
Ġà®µ à®¾à®
à®ª à¯į
ÑĥÑĢ Ñģ
ĠÙĪ ÙĬ
ri end
Ð½Ð¾ Ñģ
Ġi h
ĠT w
ĠØ¬ Ø¨
ĠÐ± Ð¸Ð´
ik ip
ĠâĢľ ,
ãĤ į
) )
Ġwh en
Ġmas k
Ð» Ð°Ð³
Ñī Ð¾
t at
um at
ãĥ ĩ
áĢģ áĢ«
ĠG od
el f
Ġb is
Ġk ok
ĠT H
ĠÐ¾ Ñĩ
×ķ× ŀ×
Ġg ay
à¦°à§įà¦ ¬
Ġcom pr
ĠáĥĽ áĥĲáĥĹ
sk ap
×ķ×ł ×Ķ
çľ ģ
ĠÐ¿ÑĢ Ð¾ÑĤ
Ġì¹´ ì§Ģëħ¸
à°¿à° ¸
x s
Ġpl ay
à«ĩ àª¨à«įàª
ä» ·
àª¤ àª¾àªĤ
ĠáĥĻ áĥĿáĥĽ
el is
Ġn inu
Ġb ona
x y
Ġsp ec
éĿ ŀ
æ° Ķ
ĠH al
d et
è® º
Ġt ent
ĠØŃ ÙĤ
Ġst ar
ĠØ® Ø¨Ø±
ĠÑĢ Ñį
ativ a
à¸± à¸ķ
Ø± Ø³
Ġr en
ĠÑĤ ÐµÑħ
×ķ× Ķ
Ġk Ã¼l
ĠÑĤ Ð°ÑĢ
Ġoh un
Ġwh at
Ġm id
ÐºÑĸ Ð²
ĠÐ¼ Ð¾Ð´
ĠÐº Ð¾ÑĤÐ¾ÑĢ
ad ores
íĶ ¼
5 6
Ð· Ñĸ
áĥĵ áĥĶáĥĴ
ĠÐ´ Ð¾Ðº
Ġà®ª à®¾à®°
Ġ×ŀ× §
ĠpÅĻ ÃŃ
æģ ¯
Ġáģ ¾áĢĢ
Ãª u
ĠE v
n ost
æľ ¯
Ġf Ã¸r
áĢķáĢ¼ áĢ®áĢ¸
Ġàª¹àª¤ à«ģàªĤ
Ġb ab
r ie
å ©
áĥĵ áĥĶáĥĳáĥĲ
ĠÙĦ Ø¦ÛĴ
×© ×Ķ
ĠÐ· Ð½
Ø¶ ÙĪØ¹
Ġv l
o on
Ø§Ø³ ÛĮ
ĠC ity
ĠÙĪØ§ÙĦ Ùħ
Ġs unt
Ġd ara
Ġà¤ħ à¤¸
Ġty pe
Å« t
ĠÑĤ ÐµÐ»
Ġ8 7
ç ¡
Ġëĵ ±
Õ ¨
à¸± à¸¢
Ġg az
Ġà®ĩà®° à¯ģà®ķà¯įà®ķ
O B
s l
ç© º
m Ä±ÅŁ
ĠÐ´ Ð¾Ð»
op a
m ay
Ġmak s
it el
à´¤àµįà´¤ à´¿à´²àµįâĢį
í ģ
Ġn ar
Ġor i
ĠF a
Ġs he
áĢ¼ áĢ¸áĢ
Ġcl ass
áĢļáĢ¹áĢ ·
it Ã¤
Ġa di
ÑĥÐ²Ð° Ð°ÑĤ
y c
ãģĦ ãģ¦
Ġo ma
æĮ ĩ
Ġà¤ķ à¤¾à¤°
Ġáĥ¡áĥĲáĥ¥áĥĲáĥłáĥĹáĥķáĥĶáĥļ áĥĿáĥ¡
Ġqu an
ic os
ĠÕ §
Ġà¦¤ à¦¿à¦¨
Ġaut o
Ġp Ã¤
ĠA P
Ġde f
p á»į
æľĢ æĸ°
å¼ º
A Z
am en
ĠØ§ÙĦÙĦ Ûģ
à¦° à¦¾
Ġn Ã¥
áº ±
z ia
à«Ģ àª¨
Ø§ÙĨ ÛĴ
àµģà´ °
ung an
áĥĺáĥľ áĥĲ
Ġu 00
Ġ8 2
Ġs ana
Ġæŀ ģéĢŁ
áĢĻ áĢ¬
ĠM ot
Ø§ÙĤ Ø¹
Ġ×Ķ ×Ķ
id es
ec tor
ÐµÐ½ ÑĤÐ¸
à¤ķ à¥Ģ
Ġ9 6
Ġmak e
Ġob j
åĳ Ĭ
Ø¯ Ø§Ùħ
Ġà®ª à¯Ĭ
ĠK ur
Ġ×ľ ×ĳ
Ø¨ Ø§Ø¯
h s
Ø§ÙĬ Ø©
Ġs atu
Ġï¼ Ľ
à¥ĩà¤ µ
Ġs áº½
iz o
ap t
ĠPor no
ĠP an
Ð» Ð°Ð¼
Ġd y
ĠÎľ Îµ
ĠB us
ĠØ· Ø±ØŃ
ÙĪ Ø§Øª
ÑĢÑĥ Ð¿
áĢ¼ áĢĶáĢ¹áĢ
à´¾à´ ķ
r um
áĢ½ áĢº
ĠìĬ ¤
áĢŃáĢ¯ áĢĦáĢºáĢ¸áĢ
ì ¶Ķ
ĠÐ° Ð¿
Ñĭ Ð½
áĢĶ áĢ¬
id ir
at zen
st and
Ġ200 3
à¸¸ à¸ģ
Ð¾Ð»ÑĮ ÑĪ
Ġbl ock
ê² ©
ib a
Ġd á»¥
à¸ģ à¸±à¸Ļ
ÏĢ ÎµÎ¹
Ġàª¦ àª°
à«ĩàª ¡
Ġinc l
ĠåĪ Ĩ
ç ¢
ip as
ĠÐº Ð°ÑĤÐ¾
Ġf av
f l
Ġcom ment
Ġà¤® à¤¹
un an
w at
r d
Ġl ive
Ġu Å¾
ici Ã³n
ĠS eg
Ġw el
ìĹ Ń
Ġ á»Į
áĥķ áĥĺáĥĹ
Ġc li
ĠÐ¾ Ð»Ð¸
ĠCh ina
Ù °
Ġv ideos
Ġth ere
nos ti
ç Ĺ
Ġef ter
ÙĦ Ùģ
Ø§Ø± Øª
el ig
Ø§ÛĮ Ø§
í ĴĪ
éĢ ł
Ð² Ð°Ð½
à´¿à´ ®
Î¿Ïį Î½
uh an
n ess
Ġc os
ĠÄĳ Ã³
ÑĪ ÑĤ
æĪ ¿
j at
Ġmin ut
Ġk uk
ĠáĥĻ áĥĺ
ŀ áĢĬáĢ¹
æĺ Ł
ĠÐ½ Ð°Ñĩ
ip e
Ġs ou
Ġyo o
ĠØ³ Ùħ
Ġp am
å Ķ
Å¡ u
Ġfin an
ĠJan uar
Ġgi Ã¡
ĠáĥĽ áĥĿáĥĽ
Ġar g
Ġh ou
ĠÐ¼ Ð¸
ĠÐ³ Ð¾ÑĢ
Ġáģ ģ
ÏĪ Î·
ĠØ£ Ùĥ
Ġà®¤ à®®
áĥĶáĥ Ļ
à®¿à®° à¯ģà®¨à¯įà®¤
Ġj et
n olog
el or
la ÅŁ
Ġl ing
Ġan ak
ĠáĥĽ áĥĲáĥ¡
er ta
ĠØ´ ÙĪØ¯
ĠÎ¾ Îµ
Ġprof es
Ġb ay
ĠÐĺ Ð½
áĢ¯ áĢĶáĢº
ëĲ ĺ
h em
Î¸Î· ÎºÎµ
ĠÐ¸Ð½ ÑĤÐµÑĢ
á»ĥ n
Ġä» ¥
Ġáĥ¡ áĥĲáĥ¡
Ġa ff
à°Ĥà° ļ
Ġap a
ĠáĢ±áĢ ĲáĢ¼
ac t
Ġk ind
ÑĨÐ¸ Ð¸
u el
Ġìŀ Īëĭ¤
Ġnh Ãł
ĠØ£ Ùħ
Ġj ob
ÐµÑļ Ðµ
Ġà°µ à±Ĩ
ist o
ĠA T
Ġà¦ľà¦¨ à§įà¦¯
Ġaqu est
à¦¨ à¦¾
U B
àª¾àª ¥à«Ģ
à´¿à´² àµģà´Ĥ
Ġ< /
ãĥ ł
ĠL eg
Ġàª¸ à«įàªµ
à®ļ à¯įà®ļ
Ġs ize
à§ Ī
à±ĩà° ¸
ĠU m
ĠÐ¾ Ð²
Ġkon s
ĠØ§ÙĦÙħ ÙĪ
ĠÐ´ÑĢÑĥ Ð³
ĠSept ember
lar ni
ç ¶
Ã Ĳ
Î¼ ÏĨ
0 1
j uk
et ta
og ra
Ġà®ķ à¯ģà®±
ĠI P
Ùĥ Ø§ÙĨ
Ġæĺ ¯
æ± Ł
æĶ ¶
Ñĥ Ð³
ìĺ ģ
ãĤ ¸
y pe
Ġà®¨ à¯Ģ
ĠNov ember
à¸Ń à¸²à¸
Ġm ens
à¯įà® ¨à¯įà®¤
à¨¾ à¨
Ġya ÅŁ
Ġcon tr
ĠP od
ĠD ire
ti fic
ĠInter net
ä»Ģ ä¹Ī
áĢĲ áĢħáĢ¹áĢ
ĠÑĤ Ð°ÑĬ
à¹ī à¸²à¸Ļ
Î¹Îº Î®ÏĤ
ĠU s
ÑĨ Ð¸ÑĤÐµ
Ġm ula
ãĥ Ł
Ġl á»į
p ap
Ġm ab
Ġan im
ĠØ§ÙĦ Ùĩ
if t
à¤Ĥ à¤¦
ÐµÑĢ Ð°
ĠãĤ ¹
æ² »
z k
Ġi á¹£
Ð ¥
Ġha u
Ġt um
ãģ Ķ
Ġshum Ã«
is c
Ġ8 4
å· ²
Ġh alam
l ab
Ð¼ Ñĥ
k ing
Ġæ ķ
ning en
Ġm Ãµ
à¦¬ à¦¾à¦°
ĠØ§ÙĦÙħ Ø³
ãĥ³ãĤ °
Ġh od
à°¾à° ª
àµģà´ķ à´³
ĠáĢ±áĢ Ĩ
ĠìĨ Į
ĠC u
Ġl ast
Øª ÙĨ
ĠF re
Ġn j
è½ ¯
y cz
Ġma in
àªĽ à«Ģ
ĠÐ¿ÑĢ Ð¾ÑģÑĤ
ĠJ ak
Ġtel ah
ist an
5 7
Ġhel p
à¦¸ à§įà¦¥
Ġå¤§åıĳ å¿«ä¸ī
g in
Ã² ng
Ġdi fer
àª¿àª¯ àª¾
c at
r ess
Ġm ov
9 7
ÏģÎ¿ ÏĤ
Ġun ivers
ĠL as
Ġv agy
ÏĦ ÏİÎ½
un un
Ġ6 7
é ¤
ãģ ĺ
ov at
ĠM ac
ĠáĢ»áĢĻáĢĶáĢ¹áĢĻ áĢ¬
ĠÙģ Ùī
en ia
Ġh id
Ġ7 2
Ã¶ d
çĪ ±
æ² ¡
Ġbe i
ch es
ĠáĥĲáĥ ķ
Ġ ill
Ġt or
ĠÕ ´
Ġn ame
Ġt ud
ĠÛģÙĪ Ø¦ÛĴ
Ġm ÉĻ
S t
àµģà´ ª
Ġàªµ à«įàª¯
Øµ ÙĪÙĦ
Ġf ran
à´¾ àµ»
Ġàªµ àª¾àª¤
áĢĲ áĢŃáĢ¯áĤĶ
ĠØ§ÙĦÙħ ØŃ
à¹Ģà¸ Ħà¸£
ØªÙĦ Ùģ
à®£ à¯įà®£
ĠF e
à§ĩà¦ ¸
è İ
Ð°Ð² Ð°Ð½
Î¼ÎŃ Î½Î¿
áĢĲ áĢ°
áĢĢ áģ
Ġáģ ĥ
áģ¿ áĢĻ
et sa
m ark
Ġsom e
æĭ Ľ
ĠÑģ ÑĢÐµÐ´
Ġf oi
Ġbe f
Ä« v
Ġd ownload
äºī éľ¸
Ġáģ Ģ
op h
Ø§Ø º
à®¿à®² à¯įà®²
Ġæ ¯
ĠS ta
áĥłáĥ «
àªŁ àª²
Ġg am
Ġf em
m á»į
Ľ áĢ½áĢŃ
ĠC ont
ĠØ¹ Ø§Ùħ
ë Ħ
Ãº s
z ar
l k
Ä ©
ĠÑĤ ÑĥÑĢ
Ġ" >
Ġ6 3
Ġc ost
áĢĢáĢ¹áĢ Ģ
al th
n Ä«
à°¾à° ¬
Ġd ro
Ġàªµàª°à«įàª ·
Î¯ Îº
½ Ķ
ning s
à¹Ģà¸ Ħ
ãĥ §
Ġç ¾
Ġà´ ķàµįà´
Ð¸Ð´ Ð°Ð½
Ø§Ø¨ ÙĦ
Ġc Å©ng
Ġìľ ł
Ġpl at
ÙĪØ± Ø©
ĠÐĳ ÐµÐ»Ð°ÑĢ
ĠPre vious
Ġ' );
ÑĢ ÐµÐ±
Ġj ar
Ðł Âµ
â ķ
ĠM el
Ġç ī
à¦¾à¦¬ à§ĩ
ê ŀĮ
é£ İ
Õ¸ÖĤÕ ©
Ġà¸ ¢
Ġ î
Ø§ÙĪ ÙĦ
Ġem pres
ol g
Ġa sk
à¸¥ à¸ĩ
Ġà®¤ à®¿à®°
Ġ×Ķ× ĵ
Ġk ra
st o
Ġed il
v ik
Ġh ele
lÄ± k
Ġd ay
Ġdis c
å® ¹
Ġm ur
åħ ±
Ġas i
Ġsyst em
Ġs end
lar da
Ġs ua
Ö ¼
Ġæ ±
Ġy il
ad em
Ġjan Ã«
Ġàªª à«Ĥ
Ã¡ b
Ġà°Ĵ à°ķ
Ġku f
Ñĭ Ñĸ
Ġth an
Ġfr Ã¥n
Ġl ine
Ð» Ð°Ð¹
Ġâ ĩ
à°¤ à±ĭ
ĠP ublic
Ġ8 00
Ġn ow
oc a
Ø´ ÛĮ
ĠÐ¼ ÐµÑģ
ä¸ ĵ
×¨ ×ª
ĠÙħÙĨ Øª
Ġe ver
à¸´ à¸ĩ
Ġg ev
f Ã¶r
ĠÐĲ Ð½
åĨ Ľ
Ġà°ī à°¨à±įà°¨
áĥĺáĥ¨ áĥķ
è Į
æł ĩ
åį İ
áĢĲ áĢ±áĢ¬áĢ·
our s
Ġm ani
ĠR ob
áĥĲáĥª áĥĺ
Ġs ht
Ø± Ø§
à´¾à´ §
ĠÐŁ ÑĢÐ¸
Ġw ie
à¯ĩ à®©à¯į
ÑģÐºÐ¸ Ð¹
v ad
ĠP ark
åı¯ ä»¥
áĥĲáĥļ áĥ£áĥłáĥĺ
Ġs ent
ãĤ °
el m
elij k
Î¿Ïħ ÏģÎ³
Ġu pp
Øª ØŃ
Ïģ Î¯Î±
Ġq e
ĠÎºÎ± Î¸
Ġf oto
à¦ Ľà§ĩ
áĥĲáĥ «
w ai
à¤ķ à¤¾à¤°
Ġ| --
Ġ×ľ ×Ĺ
áĢ¼ áĢ¬
ĠT im
à¥įà¤ ¦
ĠÙĪØ² ÛĮØ±
ĠÐ¹ Ð¸Ð»
Ð°ÑĤ Ð¾ÑĢ
ĠÑĤ Ð°ÑĪ
en en
n Ã½ch
ov i
Ġp on
ĠIn form
yd d
ĠC amp
à´¤àµįà´¤ àµĨ
íķ ©
Ġáĥ¡ áĥ®áĥķ
Ã¸ d
Ãº c
áĢĲáĢ¼ áĢĦáĢ¹
åŃ Ĺ
Ð°ÑĢ Ð°
ĠW i
Ġç ½
Ġinf o
ĠF i
Ġne i
Ġne ed
ìĿ´ ëĭ¤
Ġ ä¹
ĠÑ Ĺ
Ø±ÛĮ Ú©
ĠàªŃ àª¾àª°
áº «
áĥ£áĥ ¡
Ġtod o
ĠØ¯ ÙĪÙĦ
Ð¾Ð· Ð¸
Ġ6 2
Ġà¤ §
áĢŀ áĢ¬
ìĭ ¤
ĠR us
à¥ĩ à¤²
Ġàª¨ à«ĩ
Ġë ¹Ħ
Ġcont ra
ez e
Ġind iv
Ã² n
ir k
ë° Ķ
Ġà´ ĵ
à°¦ à±įà°¦
per ti
Ġil i
Ð°ÑĤ Ðµ
Ïĩ Î½
Ġc um
áĢ ī
Ġsp an
Ġh Ãłng
ĠÚ¯ Ø§
ĠvÃł o
q ar
r Ã¥
ë© °
æ ©
Ġb os
Ġseb agai
ĠãĤ ¢
Ã´ n
¬ áĥ§
Ġl agi
ĠT R
Ġdes ign
à«ĩàª² à«Ģ
Ġm ong
Ġàª²à«ĭàªķ à«ĭ
à¤¾à¤ ¬
r ic
Ġb osh
áĤĢáĢĢ áĢ®áĢ¸
Ñı Ð³
ĠÙĤ Ø¯
ĠSup er
áĥĺáĥ ¥
Î» Î¹
à§Ģ à§Ł
ĠáĥĽ áĥĿ
ĠÄĳ á»ĭ
il li
Å¡ ana
à§ĭ à¦°
à¦¾à¦ķ à§ĩ
Ġgr an
u at
Ġ Ø§Ú©
áĢĢ áĢ¬
å¾ ĭ
Ġl en
Ġde y
ĠÐŀ ÑĤ
Ä« j
Ġà¦ı à¦°
ĠÑģ Ð¾Ð±
Ġh iyo
Ġres ta
ìĦ ł
à¦¤ à¦¿
Ġt ap
Ġs ens
áĢĳ áĢŃ
Ġ×¤ ×¨
áĢ¯ áĢĶáĢ¹áĢ¸
æµ ĭ
à¸¥à¹ĩ à¸Ńà¸ķ
ĠØ³ Ø§Ø²
à®¿à®© à¯įà®±
v ÃŃ
Ġà°ª à±ĭ
uk i
Ġh ome
Î¯ Î¿
áº¹ n
Ġ? ??
ìĥ Ŀ
il y
ĠMa x
m p
Ġà°µ à±įà°¯
z z
Ġà®ĩà®° à¯ģà®¨à¯įà®¤
es tiv
Ġab s
Ġk ed
áĢľ áĢ¯áĢķáĢ¹áĢ
Ļàµįà´ Ļ
à«įàª §
is che
Ġç ¬¬
ç ¯
ĠP et
ĠÚ© ÙĦ
Ġì¶ľìŀ¥ ìķĪë§Ī
áĥĿáĥ ¢
à¸Ļà¸ §
Ġà´ ı
áĤ ĩ
Ð» ÐµÐ¼
àªµ à«ĩ
ag ram
ĠB est
Ġp em
t et
o e
ĠÐľÐ°Ðº ÐµÐ´
áĥł áĥĿáĥ¡
Ġqu y
áĥ£áĥ ¨
U P
Ġmom ent
ip s
Ġà®® à¯ĩ
Ġà¤² à¥ĩ
ĠØ¨ Ø§Øª
Ġm k
áģ µ
l á»į
± áģ¾áĢĢ
Ġ×Ĵ ×Ŀ
Ġz am
Ġì ¢
Ġst yle
Ġbe en
n as
ĠáĥĹ áĥĲáĥľ
Ġà¤ķ à¤¿à¤¯à¤¾
Ð°ÑĤ Ð¸Ð²
ÉĻ f
Ġse p
ÐµÐ³ Ð¾
z ione
ĠÑĤÐ¾ Ð°
ĠK as
ic z
ĠØŃ Ø¶
éĿ Ĵ
it us
Ġnhi á»ģu
Äģ Ê»
Ġà¹Ģà¸ §
on der
Ġn ui
Ġo v
ĠS eb
Ġà®ķà¯Ĭ à®£à¯įà®Ł
ãĤ »
ä¼ ĺ
Ĥ à¦²
æ¬ ¢
åĭ ķ
ĠåĪ ©
ĠáĢģ áĢ¯
Ġre qu
Ġp ic
Ġà¤¹ à¥ģà¤
Äĵ c
Ãº n
x o
Ġg ew
à«Ģ àªĤ
od o
for ma
Ġun s
ĠÎĳ Î½
Ġng hi
à§įà¦ ¡
Ġna ch
áĥĶáĥ ĸ
b ir
Ã©r t
Ó Ļ
àªĤàª ¡
ĠÑĥÑĩ ÑĥÐ½
ung u
ĠIn n
ĠÐ´ Ð¾Ð¿
ĠN y
à¸ł à¸²à¸ŀ
à¥ĩ à¤¤
ãģ§ ãģį
Ð¾Ð½ Ð°Ð»
ĠáĥĴ áĥķ
Ġh ow
ê± °
ĠG a
Ġ×Ľ ×Ļ
Ġv z
Ð° Ðµ
Ð¾ Ñħ
Ġ$( "
ç Ĭ
Ø¯ ÙĬØ¯
ĠÐ¢ Ð°Ðº
Ġtr Ãªn
ãĥ¼ãĥ Ī
e ft
Ġk ell
Ø§ÙĨ ÙĪÙĨ
Ġáĥ£áĥ Ļ
0 8
ĠáĢľ áĢ¯áĢķáĢ¹áĢ
Ġke h
Ġp ili
ģ áĢ»
ÐµÑĪ Ðµ
Ã³ g
Ġsa id
à±ĩ à°ķ
ĠM ul
áĢĽ áĢ²áĤķ
Ġáĥĺáĥ§ áĥĿ
àµĨà´¨àµįà´¨ àµį
Ġl áº¡i
¯ ¼
Ġgo od
b ul
ĠÐ¼ Ð¸Ð½
Ġver y
é¦ Ļ
Ġà¦ķ à¦¾à¦°
ĠMar ch
Ġd ivers
ëį °
ent er
Ġà¤ħ à¤¨
Ġmenj adi
åĮ Ĺ
à¥ģ à¤¨
p ad
Ġs yn
áĢ¡ áĢħ
Åĳ s
Ð¾Ð² Ðµ
ĠÙģ Ø±ÙĪ
ĠÐ³Ð¾Ð´ Ð¸Ð½Ð°
Ġoldu ÄŁ
à¸ª à¸¸à¸Ķ
Ġf ost
il eng
Ð°ÑĤ ÑĥÑĢ
è ı
ĠÙĪÙĤ Øª
áĥĺáĥ ¤
ĠØ¹ Ø¨Ø¯
5 4
áĢĦáĢ· áĢ¹
ç ħ
ìĭ Ŀ
Î² Î±
Ġw ere
Ġ8 6
es se
ĠØ§ÛĮ Ø³
ĠÙħ Ø±Ø¯
ir en
P art
ç ·
àµįà´ ķàµįà´ķ
ĠS ub
Ġ ÉĶ
Ø§Ùĩ Ø¯
Ã¤ s
Ġmod el
ĠD ownload
Øµ Ø¯
Ð¾ Ðµ
áĢ¬ áĢ¹
Ñĸ Ð±
à¹ģ à¸ļà¸ļ
Î»Îµ Ïħ
ì Ļ
Ġdel le
ult ura
Ġv Å¡
à«įàª ļ
t em
Ġh j
ond o
ĠÐ¼ Ð°Ð³
Ġ×ķ ×ŀ×
Ġb az
Ġr in
Ã¼ y
ÏĢ Î¹
ĠvÃµ i
æ ħ
ing iz
is me
Ġup ang
ici al
Ġmo et
Ð±ÐµÐº Ð¸ÑģÑĤÐ¾Ð½
Ð°Ñİ ÑĤ
ia p
Ġon ly
áº »
Ġh ari
Ġla in
ĠZ e
eg or
ĠÚ¯ ÛĮ
ĠØ¯ ÛĮØ§
ones ia
à§ģà¦ ·
áĢĻáĢº áĢŃáĢ³
Ġap ar
àµĭ à´Ĺ
à¦Ł à¦¾
ãĤ ª
Ġbe har
ĠG ener
as on
ĠÑģ Ð¸ÑģÑĤ
áº· t
ec k
Ġå İ
Ġm ÄĽ
Ġv ÃŃ
Ð» Ð°Ð±
Ġà« ¨
å¼ ķ
Ġre p
b on
ÏĢ ÏĮ
ĠáĢĲ áĢĽ
Ġà¦Ĩ à¦²
ÙĨ Ø§ÙĨ
ÙĪ Ùĩ
ÅŁ a
Äĥ n
áĥł áĥĺáĥķ
Ñĥ Ð»Ð¸
çİ ĩ
ĠØ§ÙĦ Øº
â Ķ
Ġ| |
Ġr um
ĠÏĥ Î·
é£ ŀ
ĠÐ³ Ñĵ
Ġt abi
Ġn un
Ġr est
ĠØ´ ÙĩØ±
ê¹ Į
Ġ\ "
yst em
o ft
Ġ×Ĳ ×ķ×ª
ĠS ing
E O
ĠT or
Ñĸ ÑĪ
Ġ} .
Ã Ĭ
Î¯ Î¿Ïħ
ĠM ont
it ies
ĠÐ²Ñģ Ðµ
Ùĥ ÙĬ
Ð¸ÑĤ ÐµÐ»ÑĮ
áĢ±áĢ« áĢº
àª¾àªµ à«Ģ
ek u
Ùİ ÙĦ
çĥ Ń
Ð¼ Ðµ
æ¡ Ī
à¹Ģà¸ Ī
Ġu w
ement s
ĠÎ¼Îµ ÏĦÎ±
Ġng h
Ġà® ¯
áĥĿáĥł áĥĺáĥ¡
Ð´ Ð¶
Ġh art
à°¾à°¨ à±įà°¨à°¿
ĠI f
Ġtele fon
Ã± os
ĠØ¨ Úĳ
Ġëı Ļ
ĠÛģ ÙĪÙĨ
Ġ7 6
ĠL A
Ð¾Ð² Ð¾ÑĢ
ĠáĥĻ áĥĿáĥľ
ãģ§ ãģ¯
Ġë§ Į
ä¸ ¤
ĠáĢ±áĢ ĲáĢ¬
Ġçİ¯äºļ ag
èĢ Į
en as
Ú© Ø§Ø±
Ġìĭ ł
áĥķ áĥĲáĥļ
ĠN Ã«
Ñĥ ÑĶ
àµĩà´ ¶
ist Ã¤
B A
àª° àª¾àª¤
à°¦ à°¿
ES T
Ð¿ Ð¾Ð»
áĥĲáĥľ áĥ¡
ç½ ®
Ġseg u
ĠÙĨØ¸ Ø±
Ġsh k
Î¼ Î¿Ïį
Øª ÙĪ
ĠÑģ ÑĥÐ´
ÏĮ Î³
Ġm obil
ê° ľ
éĺ ³
9 6
ãĤ §
Ġä¸Ń åĽ½
Ć ą
Î³ÏģÎ± ÏĨ
9 3
Ġf Ã¥r
æĶ ¹
at ud
Ġf az
ĠIB _
en z
àªķ à«ĭ
Ê» ole
ĠØ³ ÙĨ
áº¥ p
Ġà®¤à®® à®¿à®´
à¯ģà® ª
à¤Ĥ à¤¡
ph one
ak se
Ġ] [
ĠU t
ĠB at
æīĭæľº å®¢æĪ·ç«¯
æł ¡
5 2
ĠáĢ Ĭ
Ġ×ķ ×ĳ
å¤ ´
r Ã«
ĠáĢĻ áĢº
ĠÐ¿ÑĢ ÐµÐ·
Ġn Ã³
Ġk j
Ġà®µ à®¿à®
à°¸ à±įà°¤
ĠØ§ÙĨ Ûģ
Ä± ÄŁ
5 3
ãĥ³ ãĥĪ
à®³ à¯Ī
áĥ® áĥĲáĥĵ
ĠáĥłáĥĿáĥĽáĥĶáĥļ áĥĺáĥª
Ġà¤¯ à¤¾
×ł ×ķ×ª
r up
Ġ: -
áĢĦ áĢ¶
ti ge
an an
á» «
Ð¾ Ñİ
oc ia
Ġà§¨à§¦ à§
d ar
tiv o
ĠÐ ®
Ġìĺ ģ
áĥĶáĥĳ áĥ¨áĥĺ
Ùħ ÙĥÙĨ
Ø±ÙĬ ÙĤ
Ġs eri
Ġj en
Ð¸Ð» Ð°ÑĢ
Ġåħ ¨
Ġà®ī à®³à¯įà®³
ĠW a
Ġb anyak
ĠV an
ç» Ħ
ĠìŀĪ ëĬĶ
à°¿à° Ł
Ġsing aw
Ġper i
Ġà´¸ àµįà´µ
ĠÙĦ ÙĦÙħ
Ġs ama
Ġters ebut
olog y
ê° ķ
Ġb id
Ġvol t
å¤ Ħ
Ġs á»ĳ
åĢ ¼
áĢļ áĢ°
ĠØŃ Ø¯
Ġla v
Ġh ang
Ġt ay
ag on
áĢ¶áĢ¯ áĢ¸áĢ
g ed
Ġë ħ
Ð°ÑĨÐ¸ ÑĺÐ°
r er
ĠØªÚ¾ ÛĴ
ĠÎ¼Îµ Î³
y y
ĠR E
ĠÑĤ Ðµ
ĠJ une
åı ª
ĠÄĳ áº§u
b ang
eg u
ĠÑĩ ÐµÑĢ
Ġàª¥ àªĪ
Ġolar ak
ãģ Ń
Ķ áĢ¾
Ġìļ °
Ġà®® à¯ģà®Ł
Ø® Øª
ĠÐ¿ Ð°ÑĤ
Ġr ight
ti ma
Ġà¦¬à¦¾à¦ Ĥà¦²
ìĿ Į
×ķ× ĸ
ķ Į
ĠØ¯ Ø§Ø´
à¸± à¸į
ĠØ§Ø ·
Ġla i
ti me
ĠB re
Ġë ¯¸
ÑĦ ÐµÑĢ
Î»Î¿ ÏĤ
ill er
Ġtr ue
Ġ11 0
Ġp ang
á» Ĺ
Ġ×Ķ× ¦
Ġy az
åħ ·
£áĥ ¡
Î¹Îº Î¿Ïį
Ġå° Ĭé¾Ļ
Ġcas ino
U K
ĠÐ¿ÑĢÐ¾ ÑĨ
Ġàª¦ àª¿àªµ
à¸Ń à¸Ńà¸Ļà¹Ħà¸¥à¸Ļà¹Į
n al
àª¤ àª¿
ĠK l
åľ° åĿĢ
à§ Į
Ð°Ð¼ Ð°
íĸ Īëĭ¤
à¸ľ à¸¹à¹ī
Ġàª¨ àª¾
ĠÚ© Ø³ÛĮ
ĠÐĲ ÑĢ
Ä« b
ort h
Ġà¤ª à¤¹
Ã¦ l
at ori
ĠF er
Ġfin al
åıĳ å±ķ
Ġk amp
Ġcom ments
Ġs ag
áĢ¶áĢ¯ áĢ¸
w al
Ġim g
à¸³à¸« à¸£à¸±à¸ļ
ze a
Ġch ar
Ã Ģ
Ġd la
Ïĥ Î¯Î±
us es
ãĤ ¨
ro b
à¦¦à§įà¦ §
ë¶ Ħ
Ø¸ Ùħ
à¸Ļà¸ °
ì ħ
Ġáĥĺ áĥ¥
Ġáĥ¬ áĥļáĥĺáĥ¡
Ġb agi
×ŀ ×ķ
Ġbi en
×© ×Ļ×Ŀ
Ġmar k
Ġà¸ ĸ
ĠB ol
Ð¸ÑĢ Ð¾Ð²
à«Ģ àª°
Ġj i
Ġh ref
Ïĥ ÎºÎµ
Î½ Ïī
Ġà¦¬à¦¿à¦ ¶
ĠÐ¢ Ð¾
ĠK al
Ġæ ¬
ĠàªŃàª¾àª° àª¤
é© ¬
Ñı Ñħ
à±ģà° ª
Ïĩ Î±
Ġàªµàª¿àª ¶
ä» ĺ
ÑģÑĮ Ðº
Õ¡Õ ´
Ġh ulle
ĠÃ ļ
à±ĩà° µ
áĢĲáĢ½ áĢĦáĢº
b ra
Ġb ank
ÙĬ Ø«
r ik
Ġac cess
Ġo der
Ġak tiv
ĠBl og
Ġhv or
Ġwid th
åĬ ©
Ġm emp
ĠP ra
ĠØ§ÙĦØª Ø¹
á»ĩ c
ĠÃ®ntÃ¢l n
ĠW at
è½¯ ä»¶
åĲ Ħ
ĠÎ´ Îµ
as y
l ish
ÙĤ Ø§Øª
ĠÐ· ÐµÐ¼
Äĵ ia
áĥĹ áĥĲ
ĠÑĤ Ð¾Ð²Ð°
Ġ3 80
ĠÛ±Û ³Û
ĠB or
à¤¾à¤ £
áģ ¢
Ġc ada
Ġà®µà¯ĩ à®£à¯įà®Ł
ĠF o
Ð¾Ð½ Ð¾Ð¼
Ġm ua
Ġz ap
Ġsel v
lik e
ÏĦ ÎŃÏĤ
ĠÎ± Î³
A F
Ġ9 4
Ø§ÙĦ Øª
ĠÐ· Ð°Ð³
Ġd op
Ġs Ã¼
Ġ8 1
ro j
ch od
ie i
Ġà¤¤ à¥įà¤¯
Ġáĥĵ áĥĲáĥ¡
ĠØ¨ Ùħ
Ġhalam ang
20 20
ip p
ÏĢ ÏīÏĤ
ĠÙĬ Ø¹
asi h
en za
æŁ ¥
Ġre fer
Ġm um
å£ «
à«ĩàª ĸ
åº Ĩ
×Ļ× Ĵ
à¹Ģà¸ĩ à¸´à¸Ļà¸
Ġsi is
Ġ×Ķ× ĸ
à´ ļ
ĠC am
ãģķ ãĤĵ
ind ÉĻn
ĠåĮĹäº¬ èµĽè½¦
C C
ÏģÎ¿ Ïį
Ġe ven
Ġt av
im m
ĠJanuar y
ĠèĢ Į
Ġke Ã§
à¸· à¹īà¸Ń
à¸²à¸£ à¸ĸ
Ø¬ Ø±
Ġtod os
op er
w as
à¤ ·
ÛĮÚ© ÙĨ
áĥ£áĥ ¤
Ġàª° à«Ģàª¤
Ġprin cip
ĠC D
à¸ķ à¸±à¸§
ÑĢ Ð°Ñģ
à§įà¦ ¸
è¶ ħ
d uk
ĠÐ¿ÑĢ Ð¾Ð³
ÃŃ as
Ġkom mer
Ñģ Ðµ
ÏĦ Ïī
Ġd ost
áĥĶáĥłáĥ ¡
ĠÙĪ Ø¹
Ãł o
Ð´ Ñĥ
Ġ×ĳ ×Ĺ
ĠáĥĽ áĥĺáĥĽ
Ġpre v
ÛĮ Ø²
Ġáĥ¬ áĥĲáĥłáĥĽ
Ġas p
ag an
ĠÐ¿ Ð°Ðº
Ġà´® àµģà´
à¸± à¹Īà¸Ļ
Ġw ant
Ġm az
áĢŃ áĢĻáĢº
à°® à±įà°®
ÙĤ Ø¹
Ø³ Ø§ÙĨ
l ov
ĠØ´ ÙħØ§
ĠRes p
ut er
ĠÐ¿ Ð°Ñģ
ĳ áĢ¬áĢ¸áĢ
à¯ĩ à®ļ
à´ «
i em
à±ģà°Ĥà° Ł
áĢī áĢº
z eko
æķ ´
Ġn ÄĽ
ab ar
Ø§ÙĦ ÙĬ
ek en
Ġver d
à®± à¯įà®ª
Ġê ´Ģ
ĠB iz
áĢĲáĢ½ áĢĢáĢº
Ġan che
Ð¸ÑĤ Ñĥ
Ġàª¤àª® à«ĩ
Ġc asa
àªĤàª ļ
red it
Ġãģ Ĭ
ĠG en
Ġê° ľ
Ġà´ ŀ
áĢģáĢº áĢŃ
ÉĻd ÉĻ
is et
ĠÐĴ Ð¾
âĢ¦ ]
ĠÙĪ ÙĦ
èĬ ±
ìĹ °
Ã§ o
ud z
Ġte chn
ĠâĢ ķ
ĠÑģ Ð°Ð¹
é¡ ¹
áĥĺáĥĲáĥľ áĥĺ
à±ģà° ¡
ĠÎµÏĢ Î¯
Ø§Ø± Ùĩ
Ġå° ı
ĳ ľ
Ġä¸ ī
ĠAnd roid
Ġà¦® à¦¾à¦¨
à«ģàª ¦
à«ĩàª ľ
íĨ ¡
áĢŃáĢ¯ áĤķ
à¯įà® °
ĠÑĦ Ð¾ÑĢÐ¼
Ġmed i
Ġna ar
Ġmo Å¼
Ġ. :
Î¸ ÎŃ
ĠB ea
ĠìĦ ł
ĠF in
áº£ o
Ġ×ķ ×ľ
v ir
el as
ĠÚ©Ø± ØªÛĴ
Ġs r
æį ®
áº¿ u
Ī à¸°
ost o
ĠÕ ¯
Ġê¹ Ģ
Ġà¹Ģà¸ Ľ
ÏģÎ± Î³
Ø§Øµ ÙĦ
Ġh un
ĠÚ©ÙĪ Ø¦ÛĮ
ust ri
ĠØ° ÙĦÙĥ
ris ti
ĠÏĦ Îµ
t Ã©
Î¸ Î®
áĥĿáĥĳ áĥ¡
et ar
ç ª
å¾ ·
à¥Ģ à¤¨
Ġf ak
Ġ200 2
Ġpe ople
Ðĺ Ð
Ġk Äĵia
æŃ ¤
Ã¢n d
Ġti j
à´¿à´ķ à´³
ĠØµ Ùģ
áĢ¬áĢ¸ áĢĢ
à¦ĸ à¦¨
Ð»Ð°ÑĢ Ð½Ð¸
Ã¶ g
Ġ[ âĢ¦]
åħ ļ
Ġæ ³
ĠÐ¡ Ðº
Ãª m
á»¥ c
åĬ ŀ
Ð½ Ð°Ð»
íĺ ¸
Ġj ako
ĠB an
ĠÐİÐ· Ð±ÐµÐºÐ¸ÑģÑĤÐ¾Ð½
ĠØª Ø³
à¯ģà®® à¯įà®ª
Ġ? âĢĿ
ĠÃ®ntÃ¢ln iri
ĠÐº ÑĬ
ĠÐ¼ Ð°Ðº
à«Ģàª ²
ĠM ai
êµ Ĳ
ÏģÎ¯ Î¿Ïħ
Ø· Ø±
Ø® Ø§Ø¨
Ġí ĥ
Ġf u
ìŀ ¬
L A
ĠM os
çł Ķ
áĢŀ áĢ±áĢ¬
à®ķ à¯į
0 6
Ġg ol
Ïħ Î½Î±
ov o
Ġ×ľ ×§
ç Į
à¦¨à§įà¦ ¦
Ġh um
ĠÒĽ Ð°ÑĢ
à¸¡ à¸²
ong o
u ÅŁ
áĥĲáĥľ áĥĵ
Ġh iki
Ġk apa
ĠV ir
Ø±ÛĮ Ø¯
ĠÚ© Ú¾
Ġk ho
Ġàªª àªĽà«Ģ
I ST
ol ar
Å ŀ
Ġà¦Ĩ à¦ª
Ġà¦¨ à¦¿
ung s
Ġb á»ĭ
9 1
us ed
Ġku j
ÑĢ Ð´
ÏĦÎ¿ Ïį
ĠÎ Į
ĠØ¯ ÙĦ
Ú© Ùĩ
Ġs á»±
im p
ĠÐ· Ð°Ñħ
Ġ7 4
Ġk Ã«t
ĠÐ¿ÑĢ Ð¾Ð±
Ġsa v
×ķ× ļ
ri bu
Ġde fin
áģ¿áĢķ áĢ®áĢ¸áĢ
àª¾àª¨ à«ĭ
à¥Ĥ à¤°
ro k
ĠàªĨ àªľ
Ġáĥ© áĥĶáĥĽ
ĠÙģ ÙĤ
ãĥ ĳ
Ġh os
h k
Ġà®ļà¯Ĩà®¯ à¯įà®¤
Ġs udah
Ġpro cess
Ġv iz
ĠØª Ø¨
Î´ Îµ
Ġà°ķà±Ĥà° ¡à°¾
áĢ»áĢģ áĢĦáĢ¹áĢ¸
p as
ich t
r il
åĽ Ľ
Ġet m
ĠmÃ¡ is
åĪ Ľ
w ah
ikip edia
à¥ģ à¤ķ
Ġt eng
ĠÑģÐ» ÑĥÑĩ
Ġle v
ak in
ĠK am
Ľ áĢ¬
Ġ6 1
áĥĺáĥ §
ĠáĢ ĩ
ãģ« ãģ¯
Õ¸ÖĤÕ© Õµ
Ġexp eri
Ø§Ø± Ø¬
ÐµÐ» Ð°
Ġà¤¸à¤¾à¤ ¥
Ġo y
Ø¬ ÙĪØ¯
ĠÙĩ Ø±
Ġh igh
´ë Ŀ¼
Ġh az
ig er
ĠÐ½Ð° ÑģÑĤ
Ġ3 D
ĠÐ¿ Ð¾Ð¿
T S
Ġæ Ľ
ĠJul y
d ate
Ø§Ø¹ Ø©
z Äħ
ĠÑģ Ñĥ
Õ ¾
Ġs eks
×ĺ ×¨
Ġ×Ĳ ×Ĺ
áģ ¥
cel ona
Ġà¹Ħ à¸¡à¹Ī
à¸¶ à¸ģ
n at
Ġà«§ à«
c l
ĠL os
× ¥
Ö ¸
Ġé ĺ
Ġch á»ī
Ġb ill
Ġèĩ ª
ĠØ§ÙĦ Ø§ÙĨ
ä¹ ¦
ĠáĢĸáĢ¼ áĢħáĢº
ĠÂ ¶
ĠN av
iv at
ab o
Ġà¹Ģà¸ Ķ
ik at
Ġìĺ Ī
ĠÃ ¢
Ø§ÙĪ Ø±
ĠÑĢ ÐµÐ·
à¸Ķ à¸´à¸ķ
æĶ ¯
ÐµÑĩ Ðµ
ĠÐºÐ¾ Ñĺ
ĠØ§ÙĦØ¹ Ø±Ø¨
amp ai
ĠB ay
h and
ĠÂ ½
Ġel ec
è° ĥ
ì Ī
T M
it ori
Ġ×ŀ× ĵ
ĠJ un
y er
ĠJ eg
à¸¡ à¸·à¸Ń
ĠPl us
à°ķ à°¿
Ġtot al
ĠRep ly
ĠÙĩ Ø³Øª
áĥķ áĥ¡
in ar
ĠÏĥ ÏĦ
Ð½Ð¾ÑģÑĤ ÑĮ
Ġàª¸àª® àª¯
Ġed o
ĠO ut
et as
áĥĿáĥł áĥĺ
om p
w ang
âĢ¦âĢ¦ âĢ¦âĢ¦
Ø§Ùģ Ø©
ĠÑĤ Ð°Ð¼
Ġn Äĥm
Ĥ à¸Ńà¸ĩ
0 2
r ag
áĢ¼ áĢ²
á»ĭ ch
is ch
ë² ķ
Ġma a
d ie
Ġeg in
av ad
Ġnh áº¥t
ĠÕ ¸
áĢŃáĢ¯ áĢľ
ĠM A
Ġà¦¹ à¦¬à§ĩ
ind er
à¤ ł
à§įà¦¯ à¦¾à¦¨
ìļ ´
ĠØª Ùģ
ek et
Ã¨n cia
Ġé «ĺ
oll ow
ĠÑį Ðº
Ġà¦Ĩ à¦¸
Ġp ob
Ġhe ight
åı Ĥ
Ð½ ÐµÑĢ
d at
Ġà´¸ à´®
it ud
Ã¡ ra
Ġk le
å Ĥ
Ø§Ø °
P R
à¸´à¸¡ à¸ŀ
Ġm ent
ĠS ant
Ġà¤° à¤¾à¤ľ
Ġ×ŀ× Ľ
Ġ9 2
S S
ÑģÑĤ Ð¾Ð½
ell es
Ġh Åį
ĠB ud
ĠR ad
åĵ ª
à¦§ à§įà¦¯
ÙĬ Ø§ÙĨ
ĠáĥĽ áĥĶ
áĥĺáĥ ŀ
ĠÐ½ ÐµÐ´
é£ Ł
m on
ĠØ§ÙĦÙĬ ÙĪÙħ
ing an
il an
ÐĲ Ð
Ê» ia
ĠÑĢ ÐµÐ³
à¸ĩ à¸²à¸Ļ
Ġv ast
ĠØ®ÙĦ Ø§ÙĦ
Ġb ig
ëł ¥
Ã »
5 1
Ġàª¦ à«įàªµ
Ġé Ļ
ĠÐ¾ Ð»
à¦ ł
ĠÙĦ Ùĩ
ĠìĹ °
iv es
Ġà§¨ à§
à°¡ à°Ĥ
ob i
ĠÕ ¥
Ġc ara
å¿ ħ
áĢ±áĢ Ĵ
Ġpa ano
à¤ ¥
Ġc zy
Ġin a
×ĳ ×Ķ
els en
r s
ĠEs c
ie g
Ġàª² àª¾àªĹ
Ġv oc
ĠO g
è¾ ¾
×ľ ×Ļ×Ŀ
áĢ¾ áĢŃ
à¤¾à¤ ı
as Ä±nda
ì¶ľìŀ¥ ë§ĪìĤ¬ì§Ģ
ov ern
Ġâ Ī
ala u
ĠÂ ¹
Ùħ ÛĮÙĨ
Ãº ng
ĠáĥĽáĥĲáĥĴ áĥłáĥĲáĥĽ
à¦° à§ĩ
Ð³ Ñĵ
on u
ĠáĢ±áĢ ŀ
ĠP ag
Ġa ch
ac iones
Ġt á»įn
ĠP en
áĢĶáĢ¹áĢ Ģ
Ġà°ħ à°µ
Ø§Ø® ÙĦ
Ġìķ Ĭ
Ġà¤¸ à¤ķ
æĭ į
Ġret urn
ic an
ĠÑĸÐ½ ÑĪ
Ġbon us
å· §
ra y
Ġwer den
ä» Ĭ
Ġáĥ¡ áĥĲ
Ġà°¨ à°¿à°°
g io
ol t
ok at
ik ut
Ġdá»¥ ng
ĠS ar
àª¿ àª®
ĠPl ay
Ġt lh
Ġsh qip
ĠÙ¾ Ø±ÙĪ
ĠE L
íĨ ł
Ñı ÑĤÐ¸
Ġå ¦Ĥ
Ġx u
ÏģÎ¹ Î¿
à¸£à¸²à¸ °
ab b
Ø§Ø± Ø¯
Ã¼n k
Ġkn ow
is in
ĠÚ© Ø§Ùħ
à¸²à¸¡ à¸²à¸£à¸ĸ
T ER
¦ ¬
ĠÐº Ð²
áĢĲ áĢĦáĢ¹áĢ¸
Î² Î¬
Ġpr ÃŃ
à¸Ńà¸¢ à¸¹à¹Ī
ĠÐ² Ð¾Ð´
ĠS ams
èĩ ³
eg en
Ĳ áĢļáĢ¹
ĠCom p
ĠT ar
ĠáĢ±áĢ Ĵ
Ġà°¨ à±ģà°Ĥà°
í ĽĦ
áĢ¾ áĢ¬
Î¼Î± ÏĦÎ¿ÏĤ
ĳ Ĳ
à´¾à´¤ àµįà´°
ĠÎ® ÏĦÎ±Î½
ç¦ ı
ed y
ari os
ÏĨ Î±
ĠÙ¾ Ø³
ip o
Ġst or
ÙĤ Ùħ
ĠÑģ ÐµÐº
Ø± ÛĴ
à«ĩàªŁ àª²
Ø¶ ÙĦ
Ġn r
Î· ÏĥÎ·
Ġb ev
is on
ÙĪÙħ Øª
pl ik
Ã¡ ri
ĠF oto
ĠÏĥ Ïĩ
»áĢģ áĢĦáĢ¹áĢ¸
Ġp oc
ist as
Ãªn cia
E A
Ġà¤ķà¤° à¤¨à¥ĩ
ĠY a
em m
Ùİ ÙĨ
Ġhi á»ĩn
ĠL oc
å· ±
ĠØµ ÙĪØ±Øª
àµįà´ £
9 4
à°¿à°¨ à°¿
á»ķ i
Ġnd Ã«r
ĠÐº Ð°Ð½
Ġwo uld
Ġh ah
Ġê° ķ
Ġà¦¦ à§ĩà¦ĸ
ĠÐ· Ð°Ñģ
ĠÎĳ Ïħ
Ġb un
ur as
et se
ĠFebru ary
Ġp emb
Ġp age
à´± à´¿à´¯
Ġng Ãły
Ġë Ķ
áĥłáĥ £áĥļ
ĠÐ² Ð¸Ðº
éŁ ³
Ġ7 3
à¹ Ĭ
ens i
ÛĮÙħ Øª
ro t
Ġc in
à°² à±įà°²
b es
7 1
à±ģà°ķ à±ĭ
ĠÄĳá»Ļ ng
å¹ ¿
om as
ĠP L
ãĥ Ĭ
Ø¯ Ùī
éħ į
ĠÐ¿Ð¾ Ð»Ð¸
à®¤à¯įà®¤ à¯Ī
à«ģ àª¨
éĺ Ł
Ùİ Ø§
ion a
Ðµ Ñĺ
ma q
ĠÐ² Ð°ÑĪ
ĠTag s
áĢĳ áĢ²
ĠÐ¼ Ð°Ð¹
Ġna a
Ġst rat
Ġç¾ İ
Ġàª Ŀ
ĠÑĢ Ð¾Ðº
ÏģÎ¹ Î½
ĠØ§ÙĦÙħ Ø¹
Ġ×ŀ× ĳ
ĠK ol
ĠF ilm
ĠÚ¯ ÙģØª
ĠR am
Ġà¤¹ à¤®
Ä± b
Ġv as
à®¿à®° à¯ģà®ķà¯įà®ķ
áĢ±áĢĲáĢ¬ áĢ¹áĢ
Ê» ana
à¸Ķà¹ī à¸§à¸¢
Ġm ac
Ġn od
ĠàªĨàªµ à«ĩ
Ġse perti
ĠS ek
Ġà®ħ à®©
à«ģàªľ àª°àª¾àª¤
uc k
Ø³ ÙĦ
à§įà¦ ¦
ì² ´
áĢ¸áĢ±áĢ ĲáĢ¼
ĠÐ³Ñį ÑĤ
áĢ±áĢĽ áĢ¸
D A
ĠCh ar
Ġl ui
à¯įà®ķ à¯įà®ķ
ĠÃ Ħ
Ġà¦¸ à§įà¦¬
æĺ ĵ
Ġà¦® à§ĭ
å½ ¢
un ya
ëª ¨
Ø±ÙĪ Ø¹
· à«įàªŁ
Ġàªľ àª¾àª£
Ðµ ÑĦ
Ñ ļ
Ġev ent
Ġar be
Ã¡n h
Ø± Ùĥ
Ġz bek
Ú¯ Ø§ÙĨ
d as
ĠáĢĽ áĢ½áĢŃ
à°¾à° §
ĠØ¨Ø§Ø´ Ø¯
ĠØªÙħ Ø§Ùħ
à°¾à° £
Ïİ ÏģÎ±
el li
u o
Ġáĥŀ áĥĺáĥłáĥ
ŀ Ī
à¦¾à¦ ¯à¦¼
n ot
æĹ ©
à¦¨à§įà¦¤ à§įà¦°
ĠÐļ Ð°Ðº
Ġdet te
í İ
à´¿à´ ±
Ġin to
ì ¡
Ġ×ŀ× ¦
Øª Ùī
Ġy ake
v y
ter e
pl y
Ġv ida
ĠM ir
Ã¢ u
à¸¶ à¹Īà¸ĩ
Ġáĥł áĥĲ
ĠÎ ¡
Ġt on
áĢĦáĢ· áĢ¹áĢ
à±ģà°Ĥà° ¦
ÑĢ Ð¾Ð½
Ġ9 1
Æ°á»£ ng
è´ ¨
Ġà¦Ĩ à¦Ĺ
ĠÙĪ Ùģ
å® Į
×ĵ ×Ļ×Ŀ
ÑĨÐ¸ ÑĺÐ°
Ġä¸ º
à¦° à§įà¦¤
Ġp ele
ĠC C
ĠÑħ Ð°ÑĢ
Ġar te
ĠáĥĲáĥĵ áĥĲáĥĽ
y al
ä¼ģ ä¸ļ
áĥĶáĥ ®
Ġd Ã¼ÅŁ
á»ħ n
à®©à¯įà®± à¯ģ
Ġì¹´ íĨ¡
ĠØ¨ Ø´
Ã¼ ks
sk Ã©
à§ĩà¦ ·
h old
ĠÎº Ïħ
Ġm s
Ã³ k
ez o
8 6
b ud
Ġt Å¡
ĠOct ober
ĠM P
Ġæľ ¬
æ² ³
ĠØ§Ù¾ ÙĨÛĮ
Ġpar as
æ¸ ¯
d om
ĠÃ Ĳ
ĠáĢ»áĢķ áĢĬáĢ¹áĢ
áº¯ c
×ķ×¨ ×Ķ
ĠáĥĴáĥĲáĥĽ áĥĿáĥ
ĠÎĶ E
ĠÐ° Ð¹
b re
à±Ģ à°°
h ad
et ti
ĠÑģÑĤ Ð°Ð½
Ġgj ith
Ġson ra
Ġ ãģ¨
×Ļ×¨ ×ķ×ª
ĠDec ember
q t
ĠØ§ÙĦØ¯ ÙĪÙĦ
áĥł áĥĶ
ĠÐ°Ð± Ð¾
ĠØ¯Ø§ÙĨ Ø´
ri pt
àµįà´¯ à´Ĥ
r om
Ġæ Ļ
Îº Î¹
Ã¤ k
Ġs j
Ġàª°à«Ģàª¤ à«ĩ
èĤ ¡
Ġàª° à«Ĥ
Ġag äºļæ´²
ĠÐ· Ð½Ð°Ñĩ
Î´ Î®
à´¨àµįà´ ¦
m ed
Ø® ÙĦ
×Ļ× ĸ
end en
W A
ĠM ore
ĠA le
Ð¼ Ð°Ñģ
à¦® à¦¾à¦¨
l Ã¡
c zy
æ¶ Ī
ĠìĹ Ĩ
áĢ¯áĢ¶ áĢ¸
ut as
Ġs empre
à®¾à® ķà¯įà®ķ
ad en
" ,"
Ġà¤¥ à¤¾
çİ ĭ
ĠJoh n
ÉĻ ti
Ġì Ļ
ĠæĹ¥ æľ¬
ĠØ§Ø³Øª Ùģ
0 5
ĠD em
à¸´ à¹Īà¸ĩ
Ġ íķ´
d al
ĠÃ ħ
E B
r ing
ģ áĢ«
ç ļ
áĥĿáĥĵ áĥĲ
Ġpro ces
áĥľ áĥĶáĥľ
ĠP op
ÑĥÐ± Ð»Ð¸Ðº
ĠÑĤ Ð¾Ð»ÑĮ
Ġm g
ÑģÐº Ð¸ÑĤÐµ
Ġl ot
áĢŃ áĢĶáĢº
à§ĥ à¦¤
à¯Īà® ªà¯į
Ġìĥ Ŀ
ĠçľŁ äºº
Ġàªķàª° àªµàª¾àª®àª¾àªĤ
ĠR os
åĬł çĽŁ
ĠÐ¼ ÐµÑģÑĤ
ç® Ĺ
Ġåı ¯
Ġ= =
Ġi Äģ
Ġp ia
ĠÑģÐ² ÐµÑĤ
à¸Ĥ à¸¶
Ġf at
ĠÐľ Ð°ÑĢ
Ġden ne
ĠD ev
ĠáĢ¥ áĢ®áĢ¸áĢ
àµįà´¯ à´®
Ġæ Ģ
Ð²ÑĢ Ð¾Ð¿
j á»į
à´¾à´¯à´¿à´° àµģà´¨àµįà´¨àµģ
Ġ} ,
è ħ
é¢ Ħ
ĠÏĢ Î±Î¹
Ġi acute
à±ģà°ķ à±ģ
ĠÏĨ Î¿
Ġm ÃŃ
ĠÐĺ Ð·
ĠHo Ê»
à¦¾à¦ ĸ
×Ļ×¨ ×Ķ
ĠSt ar
ĠAfr ika
áº· c
é¢ Ĩ
à´¾ àµ¼
Ïģ Ïħ
Ø¯ Ø§
Ġàª¥ àª¾àª¯
Ġx e
Ġt Äģ
ĠØ´ Ûģ
Ġp ast
à© Ģ
w ala
à®¿à®¯ à®¿à®²à¯į
im al
ĠçĻ ¾
Ãº t
èĲ ¥
âĢĮ ÙĩØ§
×ķ×ł ×ķ×ª
in st
Ð½ ÑĮ
ĠAn t
´ ĳ
à¦¿à¦ Ĥ
ĠÃ¼ ber
Ġd uke
ac y
Ġk art
Ġå º
ob al
à¸¥ à¸±à¸ĩ
U A
ta c
al de
Ġ} );
L ist
Ïĥ Î¿ÏħÎ½
à±Ģ à°µ
Ùģ ÛĮ
ĠI A
Ġm ata
Ġb and
ĠA li
k ap
à®¿à® ¨à¯įà®¤
à¤°à¥įà¤ ®
ar be
d in
Ġd ate
æĿ ¡
ĠM ari
Ġç ĭ
al Ä±ÅŁ
Ġv az
Ġresp ons
å½©ç¥ ŀ
ĠÐ° Ð»
Ð¸Ñģ Ð¸
Ø¨ Ø§ÙĨ
Ġàª¹ à«ĭ
h ed
à´ªàµįà´ª àµĭ
ĠN A
à°¨ à±ĩ
Ġn ab
Ġà¤ľ à¥ĭ
ang u
ĠÐĲ Ð²
Ġà®İà®© à¯įà®©
N o
Ġï½ ŀ
ĠÐ»Ñİ Ð±
Ġde ur
ĳ áĢ²
Ġì µľ
Î¹Îº ÎŃÏĤ
àªķ à«įàª¤
ut an
Ġà´ªàµįà´° à´¤
å° Ķ
à¹Ģ à¸Ń
ĠpÅĻ ed
ĠA y
Ġbol eh
á¹£ e
ĠÐł Âµ
Ġà®ķ à¯ĩ
Ġaf ter
Ġpr et
v Äĵ
ĠE z
Ġin sp
m os
Ġà´ĩ à´¤
ĠS tor
à¤¿à¤ ¶
ra p
ĠáĢ±áĢ ķ
Ð¾Ð½Ð¸ ÑĺÐ°
Ø² Ø±
d s
ÑĤ Ñĥ
Ġí ĸ
ost en
ĠA qu
Ġm uk
àª¤ à«įàª¤
Ġàªķ àª¾àª®
à«Ģ àª®
ÎĻ Îĳ
Ġ200 1
à¸µà¸¢ à¸ĩ
Ġà°ħ à°Ĥà°¦
Ġvi á»ĩc
ĠØ· Ø±Ùģ
Ð°ÑĢ Ð¾Ð´
Ġà¦ħ à¦¬
Ġsa j
Ġà´ķ àµĭ
ĠÛ °
iv yo
C D
c ap
un de
çĶ »
ent ar
Ġdet ail
Ġcon trol
è¯ ģ
ĠØ¨Ø± ÙĨ
Ġag çľŁäºº
Ġ9 3
à±įà°¸ à±į
Ö °
ĠD ig
ĠK er
ç ¬
ing ga
å ¡
ĠÐºÐ¾ Ð¸ÑĤÐ¾
áĢ±áĢĢ áĢ¬áĢĦáĢ¹áĢ¸
ĠáĢ±áĢ ¡
Ġph áº£i
0 4
Ġp ov
ĠH an
à¸²à¸ ¥
æĪ ĸ
æ §
àµģà´£àµįà´Ł àµį
ĠL ond
Ġà®¤ à¯Ĩà®°
Ġà¤ħ à¤§
ĠiP hone
Ġsang at
ï¼ Ĳ
åı ĭ
d es
Ġà´¨à´¿à´ ¨àµįà´¨
................ ................
ĠÙĪ ØŃ
ĠF orm
Ġr ic
×¨ ×Ĵ
iv el
0 3
Ġth Ãłnh
Ú© Ø³
æ ļ
Ø§ Ø§
Ġà®µ à®¨à¯įà®¤
Ġs Ã³
ä¿ ®
Ò ĳ
Ġv Ã¡l
ath er
Ġconst ru
l ak
Ġz aman
y p
ÏĮ Î¼Îµ
à§Ł à¦¾à¦°
Î ĵ
Ġba ÄŁ
×© ×ª
t an
Ġt at
éľ Ģ
Ð½Ð¸ ÑĨÐ¸
Ð½ Ñİ
è® ®
ĠáĢ ¦
ãģ§ ãĤĤ
Ġ7 00
Ġà´µ à´°
à¤ ³
ĠáĥĽ áĥĺ
à¸Ľ à¸¥
Ø¹ Ùħ
ĠW orld
Î» ÎµÎ¹
Ġe y
b ara
Ľ áĢ½
æĸ ½
áģ ģáģ
Ġtah un
Ġo st
Ġk Ã«
en ci
Ġáĥ¨áĥĶáĥĽ áĥĵáĥĶáĥĴ
Ġæī ĭ
Ġv ec
Ġje j
ĠØ±Ûģ ÛĴ
Ġ7 1
ĠJ u
ÐºÐ¾ ÑĹ
ĠV en
à§ İ
Ð· Ð¸
ĠH or
ĠÑĢÐ°Ð· Ð²
ĠÐĳÐµÐ»Ð°ÑĢ ÑĥÑģ
ny m
ĠÙĩ ÙĬ
Ġal a
Ð½Ð¸ Ðµ
ĠN eg
áĢ ĵ
ab er
Ġà®ķ à¯ĭ
ĠØª Ú¾ÛĮ
Ġutil iz
Ġàª¶àªķ à«ĩ
ĠP RO
Ø¨ ØŃ
M A
d h
ä¹ħ ä¹ħ
ĠI T
åĸ ľ
ĠâĦ ¢
ĠÐŁ ÐµÑĢ
à¸²à¸ ķ
Îº Î±Î½
ĠÙħ ÙĬ
ĠÏĥ Ïį
b urg
n it
g l
ĠÙħ Ø§Ø±
Ġà¹Ģà¸ ¥
ĠÃ§ ok
Ġè ´
ĠC ast
à¸ķ à¹Īà¸Ń
Îµ ÏĢ
oj nÃ«
k az
N E
Ġl ed
ĠÙĬ ÙĤ
Ã³ p
Î¿Î½ ÏĦÎ±Î¹
à´¾à´² àµįâĢį
Ø¨ ÙĪ
Øª Ø±ÛĮÙĨ
Ġ×Ķ×ŀ× ©
íĥ Ģ
Ġç½ ĳ
áĥĶáĥłáĥ Ĺ
Ġab y
Ø¶ Ø¹
Ġàªı àªŁàª²
åĩ Ĩ
à±ģà° ¦
amb o
à´¾à´ ľ
ĠìĦ ¸
ÙĲ ÙĬ
Ú© Ø§ÙĨ
S A
s on
ĲáĢ¼ áĢĦáĢ¹
Ġàª¦àª¿àªµ àª¸
Ġà¤² à¤Ĺ
ĠÐº Ð°Ð±
Ġm Ã¡r
Ð¾Ð± ÑĢ
áĢĬ áĢ¬
Ø¢ ÙĨ
à¤¾à¤¹ à¥Ģ
ĠØ§ÙĦØ£ Ùħ
à¸Ļà¸ ª
Ġà°ħ à°¯
Ġth Ã¬
ĠØ¢Ùħ ÙĪØ²
8 9
ĠÎŁ Î¹
Ġse us
Ġh ere
ĠS K
Ġà°ļ à±Ĥà°
áĢĲáĢ½ áĢ±
Ġ": {"
Ġbo ok
áģ ¤
ĠØ´ Ø®Øµ
áº± ng
Ð» ÐµÑĤ
Ġmum kin
á ¿
à§ĩà¦ ¦
ĠØª Ùĩ
Ġw ell
amb i
Ġæ ¶
à°¿à°Ĥà° Ĺ
Î´ Î¹Î¿
nÃ© ho
Ġn ek
çĶµ å½±
Ġseb el
à´¾à´ ª
Ġå ±
Ð°ÑĨ ÑĸÑĹ
Ġàªµàª§ à«ģ
ust om
Ġh á»įc
ÑģÐº Ð¾Ð¹
Ġàª° àª¾àªĸ
à¸£ à¸§
C lass
ĠáĥĴáĥĲáĥĽ áĥĿ
Ġàª¸à«ģàª §à«Ģ
Ġproduc t
ĠH and
åĳ ¨
Ġu b
à°Ĥà°¤ à±ĭ
er b
Ġm ie
à´¿à´ļàµįà´ļ àµį
ĠáĥĽ áĥ¡
Ġàªķàª° à«ĩ
áĢĲáĢ¼ áĢĦáĢ¹áĢ¸
Ġà¤ľ à¤¾à¤¤
Ġà¦¤à¦¿à¦¨ à¦¿
ĠI II
Ġë° ©
à´¾à´ Ĺ
Ġëı Ħ
ĠÐł Ñĳ
ĠÑŀ ÑĤ
à¹Ģ à¸£à¸µà¸¢
Ġed uc
Ð°Ð» Ðµ
ĠÑŀ ÑĢ
Ġà¹Ĥ à¸Ķà¸¢
ĠÚ©Ø´ ÙĪØ±
Ġbak eng
ĠÙĩ ÙĨ
à¥įà¤ ¨
Ġ×© ×ŀ×
Ġf ace
àµģà´¨àµįà´¨ à´¤
ÐµÑģÑĤ Ð¸
ĠÐ¿ÑĢ ÐµÑĤ
Ġs ont
Ġre k
ĠD ur
à«ģ àª®
Ð ¤
id agi
à®µ à¯ģà®®à¯į
Ġam er
àª¿àª ¶
Ġh ur
ë° ©
Ġàª® àª¾àª°
Ġp Ãºbl
ara q
ĠâĢľ .
à±ģà°¨à±įà°¨ à°¾à°°à±ģ
Ġà¸ Łà¸£à¸µ
Ġop en
èģ Į
ĠÐ¼ Ð½Ð¾Ð³
çĻ ½
S h
Ġlo ok
à¸ģ à¸£à¸°
Ġf ull
0 9
ĠÙħ Ø²
ĠÐ¾ÑĢ Ð³Ð°Ð½Ð¸
is ka
Ø§ÙĦ Ø§Øª
ĠÎº Î¹
Ġe uro
Æ¡ i
re c
Ġs un
áĥĺáĥ¨ áĥľ
ul an
Ã¡ ban
Ġb ok
à§ģ à¦®
ĠUS D
at ura
áĥłáĥ ĵ
ĠáĢ¡áĢ² áĢĴáĢ®
Õ¸ÖĤ Õ¶
ĠÐŀ Ð´
ĠEurop e
Ã Ĵ
z ak
ĠInd ia
áĥłáĥ £áĥ
ĠÐ Ī
çĶ ±
g round
Ġd ot
áĥ Ń
Î½Î¿ Î½
±áĢ ¡
ĠÐ¿ Ð¾Ð³
ĠB ook
Ġw il
ug e
ĠS and
Ðº Ð¸ÑĤÐµ
ect ed
ĠØ¨Ø¹ Ø¶
Ġé Ĥ
Ġr ol
ØªÙħ Ø§Ø¹
Ġà®ª à®²
ģ áĢ¯
Ġà¤ Ľ
Ñĭ Ñĩ
ëĲ ľ
ç± »
Ġu00 3
Ġel se
ê± ´
ĠB ank
Ð°Ñļ ÐµÑĤÐ¾
Ġb ene
à´ªàµįà´ª àµĨà´Ł
r ak
ìľ ł
ĠAr ch
Î»Î» Î±
ĠÎº Î¬Î½
H A
à«įàª¯ àª¾àªĤ
à¥Ģ à¤²
áĥķ áĥĲáĥľ
Ġà¤ķ à¤¿à¤¸
T V
à°² à±į
à±įà° ³
Ã¶ tt
ÙĦÙħ Ø§ÙĨ
ĠØ® Ø¯Ùħ
ĠØ§ÙĨ Ø¬
le k
à¹Ĥ à¸¡
ĠP ak
d im
í ŀĪ
ëĭ ¨
Ġm me
áĥĺáĥ «
à± Į
ĠåĪ© æĿ¥
ĠÙħØ® ØªÙĦÙģ
ĠV ers
n ou
×¨ ×ĳ
ag u
áĥĶáĥĹ áĥĺáĥ¡
à´¿à´¨ àµĨ
ĠÐł Ð¾Ñģ
áĥłáĥ Ĵ
zen ia
ĠÙĥ ÙħØ§
Ġn ah
æĬĢ å·§
Ġà®µ à®´
g am
Ġp end
áĢĻáĢ» áĢ¬áĢ¸
Å¼ y
ĠG ratis
Ġá ł
è¯ Ŀ
Ø§ÙĦ Ø©
Ð¼ Ð¾Ð½
æķ Ī
ĠáĥĽ áĥĿáĥ¡
id ente
Ġar tik
as c
Ð¸Ñĩ ÐºÐ¸
z et
oh et
ĠâĢĻ âĢĻ
ĠàªĹ à«ģàªľàª°àª¾àª¤
åł Ĥ
Ð°Ð´ Ð·
Ã¸ n
åŃ ĺ
ak ukan
ne y
äº ĳ
ĠT u
kl ad
Ã¡ j
Ġkek ahi
C I
ĠØ² ÙĨØ¯
Ġêµ Ń
ÙĨ Ùĩ
os sa
Ġt art
Ġw atu
Ġà®® à®±à¯įà®±
Ġw erk
Ġë¬ ¸
Ã ļ
us an
l ang
S I
ĠÙĤ Ø±
ĠÑĢ Ð¾Ð±
áĢŃ áĢĲáĢº
Ġq ay
ĠC ON
áĥĺáĥ ¦
Ġéĩ į
å ³
ading in
áĢĢáĢ¹áĢ ŀ
Ð¼ Ð¾Ð¶
Ġai adingin
Ġå ĳ
ĠØ´ Ùĩ
à¯Īà® ļ
Ġé Ľ
Ð´ Ð°Ð³Ð¸
Ġpr ime
æ ĵ
ĠS in
Ã¸ re
Ġp oh
Ġserv ice
ĠÐ´ Ð¾Ð´
à§įà¦ ľ
Ġdes de
Ġja ar
l ara
ĠÙĦÙĪ Ú¯
Ã¡ sa
ĠÐ³Ñį ÑĤÐ°
il di
ãĢ İ
Ġà°ķ à°²
à¸´ à¸ģ
à¹Ģà¸¥ à¸¢
us ti
ãĥ ĵ
Ġi den
Ã Ĥ
ĠkÃ«t Ã«
ĠØ± Ú©Ú¾
Ġel ement
ĠL is
Ġweb site
ć Ĉ
àµģà´¨àµįà´¨ à´¤àµį
Ġàª¸ à«įàªŁ
ic t
Ġkon tr
Ġan meld
áº¡ o
à¥ĩ à¤¸
Ðº Ðµ
×ľ ×§
Ġgb ogbo
ih an
r iv
ĠL in
ing o
ah u
à¤°à¥įà¤ µ
li o
f ord
ĠÐŁ ÑĢÐ¾
áĢ±áĢ¬áĢĦáĢº áĢ¸
Ġáĥĵ áĥĺáĥĵ
Ġinform ation
Ġgr and
Î Ķ
ĠBar celona
ÐµÐ½Ð¸ ÑĤÐµ
ĠÎ± Ïĥ
ud u
ĠÐ¾Ñģ Ð½Ð¾Ð²
à°Ĥà° ª
al q
å¾ Į
ĠØ§Ø³ØªÙģ Ø§Ø¯Ùĩ
ÑĪ Ð¸ÑĢ
ori es
áĢĬ áĢ·
ĠÙĪ Ø§ØŃ
ĠÑĤÑĢ ÐµÐ±
ÑģÑĤÐ°Ð½ Ð¾Ð²
Ġà®ħ à®±
Ġtemp o
Ġal d
àª°à«įàª µ
ĠÎ±Ïħ ÏĦÎ®
al er
Ġè ¦
Ġk en
áĢĽ áĢĦáĢ¹
Ġet c
Ñİ ÑĤ
Å¾ i
ft ware
Ġà¹Ģà¸ Ħà¸£
è§ ģ
à¹ĩ à¸Ļ
ĠìĦ ±
Ġà¦ķ à§ĭà¦¨
ord an
Ġand re
ĠD at
Ġàª¦à«įàªµ àª¾àª°àª¾
ĠInd onesia
à®¿à®ķ à®³à¯į
ÅĨ u
ros s
Ġà¸¡ à¸µ
Ġol m
ĠT ot
ĠSt re
ÑģÑĤÐ² Ð¾ÑĤÐ¾
åĪĨ åĪĨå½©
Ã¡ ly
ĠÒĽ Ð¸Ð»
Ã¡ st
ĠÑĥ ÑģÐ»
åħ Ń
æĿ ĳ
Ġch uy
áĥ£áĥ ®
ì¹´ ì§Ģëħ¸
áĥĺáĥĿ áĥľ
Ġà¦¹à§Ł à§ĩà¦Ľà§ĩ
à¤¤ à¥įà¤¤
one y
Ġæ İ
Ġinv esti
à´¿à´ ¨àµįà´¨
áĢ¯áĢŃ áĢĦáĢ¹áĢ¸
Ùģ Ø¹
0 7
ĠÛ±Û³Û ¹Û
Ġv s
áĢľ áĢ¯áĢķáĢº
Ġàª¹ à«ģàªĤ
Ġå ī
Ġkan Ã«
Ġ... ..
ĠÐ¹ Ñŀ
ĠØ¨ ÙĪ
B N
ä» İ
à¸Ļà¸ Ķ
Ġmu ch
Ġäºļ æ´²
ãģ ļ
å¢ ŀ
áĥĿáĥķ áĥľ
à®µ à¯ĩ
il is
çĽ´ æĴŃ
um o
à®¾à® ļ
Ġap o
ĠØ¹ ÙĨØ¯
il áº¹
el ing
g n
ho z
Ġà´µ àµĢ
Ïĥ Î±Î½
s ch
ĠN ot
áº¹ r
à¥ĩà¤ ĸ
Ġàªķàª° àªµàª¾
Ł áĢ¬
ĠØ¬ Ø§Ø¦ÛĴ
áĢħ áĢ¯
à¸ª à¸¡
ĠK or
åı ĺ
Ġf it
Ġà®İà®© à¯įà®ª
Ð¼ ÐµÑĢ
Ġm oh
Ġo kt
Ġn im
ning er
×ł ×ª
Ġà§¨à§¦à§ §à§
ĠUS A
ĠS A
Äĵ s
ĠV iew
à© ĩ
ĠØ´ Ø¨
Ġàª¬ àª¹
áĢħ áģ¥
×ķ×ł ×Ļ×Ŀ
ĠH on
à´¤àµįà´¤ àµį
Ġk und
ĠÐ¿ÑĢÐ¾ ÑĦ
àª° à«ĩ
Äį ÃŃ
æ© Ł
Õ¡Õ ¿
ĠPro duc
Ġmot or
ĠT re
ĠÎ¼ ÏĮ
ri es
Ø± Ø§Ø¯
b ur
Ġpers o
Ġpro gr
Ġæ Ķ
ĠÎł ÏģÎ¿
Ġz ak
àµĨ à´Ļàµįà´ķ
Ġ ä¹Ł
ĠÐ° ÑĤ
áĥĿáĥ ŀ
Îº Î¬
Ġch at
ere a
m Ã«
Ïĩ Î®
Ġg ebru
áĢĦáĢ¹áĢ ľ
Ġh ul
ĠS om
Ġt ie
à¸Ļ à¹īà¸³
Ø¬ ÙĦ
ta in
Ã© se
Ġno us
ĠÐ° Ð»Ðµ
ãĢ Ĭ
Ã Ķ
ĠÙĤ ÛĮÙħØª
áĢ±áĢ Ĳ
àª¨à«įàª ¸
ĠÙĪØ§ÙĦ ÛĴ
ĠK ap
ãĤ ĥ
ĠÎľ Î±
ĠE ur
ri f
ĠÏĩ Î±
aj ar
ĠÙ¾ Ø§Ø±
Ġf inn
ĠØ¬Ø¯ ÛĮØ¯
ĠÂ ¸
Ġj Ã¤r
ĠÚ¯ Ø±Ø¯
à¸Ļà¸ Ĺà¸µà¹Ī
ĠÑĥ Ð´
Ñĥ Ð»Ñı
Ġàª¸ à«įàª¥
ĠLat v
am ine
Ġne j
Ġpod er
tr y
ĠH i
un o
åĽ ł
à§įà¦ ł
Ð¾ ÑıÑĤ
ov Ã½
Ġs á»į
Ġis e
Ġà¦ķà¦° à¦¤à§ĩ
ĠÐ´ Ð¸
Ġàª¬ àª§
Ø² Ùħ
< /
Ġm á»į
áĥĿáĥ ¨áĥĺ
Ġàª® à«ĭàªŁ
ĠÐº Ð°Ð·
Ġte en
ĠÐ¼ Ñĭ
Ġk ata
àª¾àª¤ à«įàª°
Ð°ÑĨ Ñĸ
Ġword en
ä¾ ¿
Ã¡ o
Ð°Ð» Ð¾
ÏģÎ¹Ïĥ Ïĥ
ÙĨ ÙĬØ©
Ġm ic
Ð°Ð½ Ñĸ
Ġcon v
ĠB et
ĠÎ´ Î¹Î¬
M T
ëĭ ¹
ublish ed
æ ĳ
ĠØ§ÙĦØ¹ Ø§Ùħ
áĢ±áĢ ĺ
ĠáĥĹáĥ¥ áĥķáĥĶáĥľ
Ġà¤Ĺ à¤¯à¤¾
m b
ĠÃ ´
à¸ľ à¸¥
Ġp Ã¤Ã¤
Ġc it
Ġpl ac
Ùĩ ÙĨÚ¯
ĠC i
áĥĲ áĥĲ
± áĢĢ
Ġi ki
æŃ ¥
à¤¿à¤¯ à¥ĭà¤Ĥ
Ø§Ùģ Øª
×ŀ ×Ļ
Ġw ir
ÑĥÑĤ ÑĮ
h y
Ð¿ Ð¾Ð²
ĠáĥĵáĥĲáĥ ĺ
éĺ ²
Ġl Ä«dz
Ø° ÙĦÙĥ
Ġdi p
Ø® ÙĪ
ul es
ĠK ir
Ð¾Ñģ ÑĮ
ol s
bo x
ĠB B
Ġl uc
áĢĬ áĢ®
Ġinter es
ang g
ĠØ¹ÙĦ ÙĬÙĩ
à¤ļ à¥įà¤
unic ip
àµĨà´¯ àµģà´Ĥ
áĥĶáĥĹ áĥĺ
Ġí Ĭ
Ġy et
Ġà¤Ń à¤¾à¤°
ĠW o
Ġ= >
áĥĺáĥĹ áĥ®
Ñı Ñģ
Ø§Ø±ÛĮ Ø®
Ġu y
Ġku ch
á»ĥ m
ĠØ¨ ÛĮÙĨ
áĢ¯áĢŃ áĢĢáĢ¹áĢ
Ġg ed
ion ale
å® Ŀ
S E
åĮ ħ
Äį ky
Ġel Åĳ
and id
éĹ »
ĠØ¯Ø§Ø± Ø¯
ĠÙħÙĦ Ú©
Ġm ere
Ġà¦ıà¦ķ à¦Łà¦¿
ĠÑģÑĤ Ð°ÑĢ
Ġap ro
ĠW ar
Ġal tern
à¤° à¥ĩ
ëŀ ĺ
ĠÎºÎ± Î»
ĠÐ±Ñŀ Ð»Ð¸
ĠÃ§ ox
Ġæ ł
áĢĸ áĢ½
ĠRe al
Ø§ÙĦ ÙĬØ©
: :
Äģ v
ĠÙħ Ùĩ
Ð ĥ
en se
ĠØŃÚ© ÙĪÙħØª
ĠÐ³ Ð°ÑĢ
à´³ àµįà´³
ĠÎ¸ Îµ
Ġim m
Ġk re
uj ar
Ġè ĭ
as z
Ġd ute
ÏģÎ¹ÏĥÏĥ ÏĮÏĦÎµ
Ä« ba
ĠÑį ÑĤÐ¾
88 8
ĠV ar
ti b
áĥĶáĥļ áĥ¡
Ġye ar
à¹Ħ à¸£
íģ ¬
== ==
Î¾ Îµ
Ġse v
Ġ" ]
av i
ĠNEW Part
ĠìĹ Ĳ
_ c
Ġp ur
Õ ½
à°¾à°° à°Ĥ
Ġ×Ĳ ×Ĺ×¨
ĠÑģ Ð¿ÑĢ
ĠÑĥ Ñģ
Ġm og
ĠÃ ª
lig e
Î½Î¿ Î¼
Ġf ill
Ġde ze
×¨×Ĳ ×ľ
à¦¾à¦¦ à§ĩà¦¶
ĠáģĤ áģ
ÏĢ Î·
¹ æŀľ
á Ī
áĢĶáĢ¹áĢ Ĳ
à®¿à®± à¯įà®ķ
ac ji
Ġà®µ à¯Ģ
ĠÙĦ ÙĬ
à¤¸ à¥įà¤¤
×ŀ× Ł
ĠÐ¸Ð· Ð²
ĠÎº ÏĮ
ĠÐļ Ð¾Ð¼
Ġà®ħ à®Ł
à±ģà°² à±ĭ
ĠI z
à¦¿à¦ ľ
ĠD as
j ud
Ġm ange
Ġh ac
à¹ĩ à¸ģ
ĠáĥłáĥĿáĥĴ áĥĿáĥłáĥª
Ġà§ ©
ĠÐ²ÑĢÐµÐ¼ Ðµ
Ġp Ãµ
k as
ta j
ĠC er
àµįà´° àµĢ
ung e
ì¹ ´ëĿ¼
Ġs enti
Ġresta ur
à±įà° Ĺ
c ep
ĠT rip
Ġl le
å¸ ¦
ĠÙĦ ÛĮÚ©ÙĨ
ÐºÐ¸ Ñħ
Ġl ub
à§Ł à¦¾
F F
Ġj am
ros oft
Ġna z
Ä¼ u
ĠÐľÐ°ÐºÐµÐ´ Ð¾Ð½Ð¸ÑĺÐ°
Ġpol ÃŃ
Ö ·
ĠÑĤ ÐµÐ¼
ÑĥÐ» ÑĤ
à¸£à¸²à¸ Ħ
id ay
ers te
Ġn Æ°á»Ľc
Ġpor n
Ù į
ib li
Ġìŀ ¥
Ġáĥĵ áĥĲáĥķ
ay on
ĠÎ±Î½ Î¬
Ġà¤ī à¤¸
Ġgr atu
Ġr az
od u
Ê» ike
tr es
ëł ¤
Ġve el
×ŀ× ł
ĠC r
Ġd or
ĠJ es
ud o
Ġà°ļà±ĩà° ¯
à¦¾à¦ķ à¦¾
ĠØ³ Øª
×ķ×ª ×¨
Ġga an
áĢ±áĢ ĳ
ĠÙĦ Ú¯
à®² à¯Ī
ko a
à¦¿à¦ ¯à¦¼
Ð´ Ð¸ÑĢ
ãĤ ĩ
Ġal k
v r
à¸¥ à¸Ńà¸ĩ
Ġé »
Ġ×ķ ×¢
à¦¾à¦¨ à§ĩ
ĠÒ³ Ð°ÑĢ
Ġì§ Ħ
Å º
ub wa
Ġa ce
æľį åĬ¡
Ð°Ð» Ð¸Ð·
Ġt ep
Ð¼ Ð¾ÑĤ
ĠÐ± Ð°Ð½
ĠÐĿ Ð¾Ð²
ÐĲ Ðł
ĠÑĤ Ð¾Ð¼
å¹ ²
j ect
Ġg ba
å¤ ľ
Ġ×ŀ× ł
à¦¾à¦¤ à§ĩ
Ġ×Ķ ×Ļ×Ĳ
ĠM es
Ġk ak
ĠÚ¯ ÛĴ
Ñĳ Ð½
Ġob s
Ġ×© ×ĳ
åĪ «
zy st
Ġd am
ãĥ »
el es
ìĤ¬ ìĿ´íĬ¸
ag s
Ġíĺ ¸
áĥĲáĥłáĥ ¡
áĢħ áĢ¬
al le
Ġqil ish
ĠÐº Ð°Ð»
Ðµ ÑĨÐ¸
Ġm ant
Ġ×ĳ ×¡
Ġpro pos
Ġs ot
ol la
it te
iku wa
ÄĻ d
à¦ľ à¦¨
IN E
Ġä¸ ĭ
o us
ÐĲ ÐĿ
Ġm iss
Ø± Ùĩ
co unt
ĠÂ ¡Â
ÙĤ Ùĩ
à´¨àµįà´ ±àµĨ
Ġk is
ÑĢ Ñį
re b
à´¾à´ ¦
à®¾à®° à¯įà®ķà®³à¯į
Ġm art
Ġkw amba
×ľ ×ķ
à¹ģ à¸ģ
ç» Ļ
áº¯ t
ĠÐ¿ÑĢÐ¾ Ð¸Ð·Ð²
Ġwe ek
à«įàª ¡
Ġà´ķ àµĩ
ĠSams ung
ĠØ¯ Ø§Ø¯
áĥĺáĥ¡ áĥĲ
Ġsp e
ä»£ çĲĨ
à±įà°° à±Ģ
ĠÚ¯ Ø±Ùģ
à¨ ¿
Ø§Ø¹ Ø§Øª
Ġwak ati
Ñģ Ð¸Ñı
ĠP ok
Ġth ro
ĠE U
omb re
Ġz ar
Ø§Ø ¤
à«Ģàª Ł
ãĤ¤ ãĥĪ
å§ ĭ
ĠG ra
Ġà¹ģ à¸ķà¹Ī
Ġà´ķ à´´
h ang
ĠÃ© r
Ġj as
à´¿à´² àµĩ
Ġmar ket
ĠPro gram
ãģª ãģ©
Ġkan n
Ġs olo
×ł ×¡
ĠÐ¿ Ð°Ð²
áĢ¸áĢ ķ
Ø³ Ø·
ĠRe ad
Ġâ Ĥ
áĢľ áĢ½
Ġd Ã¼
×Ļ×ł ×ķ
è¶ Ĭ
à´¿à´ ŀàµįà´ŀ
Ġcons ider
áº¡ t
Ġà°ķ à°¾à°°
ĠÃ§ alÄ±ÅŁ
c Ä±
ĠðŁ ĺ
à¥ĭ à¤ľ
al en
ĠØª ÙĦ
Ø§ÙĨ Ø§
ĠW A
ÙĬÙĨ Ø©
Ġàªľ à«Ģàªµ
áĥķ áĥł
Ġd ou
Ġal b
à®¿à®ķ à®³
à±Ģ à°
or an
ĠÃº l
áĢ¡ áĢĲáĢ¼áĢĢáĢ¹
ÑĢÐ°Ð½ Ð°
Ġg li
ìĺ Ī
ĠÙĦ Øª
Ġm and
d ib
Ġàª® à«ĭàª
ĠÂ ¼
us o
ĠÏĢÎ¿Î» Ïį
¥ ¼
Ð¸Ñĩ Ð°
Ú© ÛĴ
ĠB ut
Ġì Ĥ
Ġí ģ
Î¯Î½ ÎµÎ¹
ÅĻ e
ĠáĢ± áĢĢ
Ġb ase
Ð»Ð¸ Ð³Ð¸
Ã¶ y
Ġë ¨
Ġh en
æ¨ ¡
ĠØ· ÙĪØ±
ĠÎ¼ÏĢÎ¿ ÏģÎµÎ¯
le p
it za
Ġh ard
b ed
Ġg ag
Î¹Îº ÏİÎ½
Ġno i
àª Ŀ
ĠáĢĻ áĢ½
ĠÙĬ ÙħÙĥÙĨ
Ġm aka
à±ĩ à°°
ĠÙģ Ø±Ùħ
ÏĦÎ· ÏĤ
Ġà®¤à¯Ĭ à®Ł
ĠPD F
Ġins an
Ġ" )
Ġé ģ
ĠãĢĳãĢĲ ãĢĤ
Ġr un
ãģĹ ãģĦ
Î³ Î®
áĥķáĥĶáĥ §
ec ek
Õ¡Õ ½
ĠÐº Ð°ÑĤ
Ġnec ess
Ġíı ¬
Ġti áº¿
Ġfav or
on n
Ġà®ħà®° à®ļ
ĠÐ¾Ð± Ð»Ð°ÑģÑĤ
ÑĢ Ð¾Ð±
Ä±m Ä±z
Ø§Ø±ÙĬ Ø®
ë¥ ´
àª¨ à«įàªŁ
æĹ¶ éĹ´
Ðł Ñĳ
Ã¶ m
ĠÙĪ Ø¥
ĠØ§ÙĦØ³ ÙĬ
Ġn Ã¥r
d ur
ĠáĥĹáĥĲáĥķ áĥĺáĥ¡
Ġparti cip
à· Ĭ
Ġl ov
Îº ÏģÎ¹
ĠB ah
ĠHot els
X X
or en
Ġ, -
Ġba ik
Ð°Ñĳ ÑĤ
ç®¡ çĲĨ
et es
ĠM w
áĥķ áĥĶ
¼ åĲĪ
ãģ¾ ãģĽ
ĠØ§ÙĦ Ùī
Ã¼ d
ĠÃ© v
á»£ p
ĠM aj
ĠíĨ µ
á»© ng
Ã«s h
eb i
à±ģà° ®
al y
ĠØ¨Ø§Ø² ÛĮ
Ġsem ua
ĠáĥĽ áĥĶáĥ¢
Ð°Ñİ ÑĨÑĮ
ĠÐ³ÑĢ Ð°Ð´
ĠÑģ Ð¾Ð²
Ø§Ø² ÛĮ
ÑģÐºÐ¸ Ð¾ÑĤ
N G
ĠÑĢ ÐµÑĪ
áĢĢáĢ¼ áĢ®áĢ¸áĢ
ĠÐ¼ ÐµÑĢ
Ġch ild
ĠS he
Ġg ad
Ġf an
×Ļ×ł ×Ķ
Ġà´¨ à´¿à´°
Ø§Ø¯ ÙĬ
et ik
Ã¥ ng
à¦ª à¦°
ogra ph
Ġle het
ĠD I
Ġse h
à¤¾à¤² à¤¾
Ð¸Ñģ Ñı
ĠÐº ÑĥÐ¿
ĠN ie
à¤ķ à¤¾
ë¬ ´
ĠG es
ĠÐ½Ð°Ð¿ ÑĢÐ°Ð²
el n
áĥĺáĥ ĳ
Ġg ame
ĠP lan
ĠB es
ĠÑĤÐ°Ðº Ð°
Ġs ir
lar ini
Ġï¿½ï¿½ï¿½ï¿½ï¿½ï¿½ï¿½ï¿½ ï¿½ï¿½
à§ģ à¦ķà§įà¦¤
Ð± Ð¸ÑĢ
×¢ ×ª
Ġk ali
áº© m
D R
ku u
Ġà¤ī à¤ª
Ġk ish
Ġk Ã¶n
ĠÑĩ Ð¸ÒĽ
it se
à¹Ģà¸ŀ à¸·à¹Īà¸Ń
à¸¸ à¸ķ
Ġë ķĮ
ist rat
Ġà®® à®©
ev o
Ġà°¸ à°¿à°¨
ĠÙħ Ø¨
éĤ Ģ
ä¼ Ĺ
Ġc le
Ð½Ð° Ðµ
çł ´
à¦¾à¦ ¥
ĠØ¨ ÛĮØ´
Ġi di
è ¼
ÑĤÐ¸ Ð¼
ÏĦÎ· ÏĥÎ·
èĩª å·±
l ement
áĢŀ áĢ½
ĠÐ¼ Ð¾
Ð½Ð¾ÑģÑĤ Ñĸ
ĠáĢ¡ áĢĨ
Ð°Ð½ Ð³
Ġà´¤ à´¿à´°
ac ions
ĠØ¨ ÚĨ
Ġber b
í ĭ
ÐµÑ ľÐµ
ĠE uro
Ġz ab
ĠØ¶ Ø±
Ġàª¤à«įàª¯ àª¾àª°à«ĩ
Ġà®® à¯ģà®¤
ĠÚĨ Ùĩ
Ġsec ara
ÙĲ ÙĨ
ri an
Ġor a
à®© à®°à¯į
um Äģ
Ø§Ø® Øª
Ġper m
à«Ģ àª¨àª¾
æŀ Ĺ
à´¾à´ ¹
Ġam a
×ķ× £
8 7
ĠåĬ ł
ĠØ¯ÛĮ Ú¯Ø±
Ġ×Ĳ ×ł×Ļ
ier a
Ð´ ÐµÐ»
Ð¾Ñģ Ð¿
