{"\u00a7": 0, "\u00e1": 1, "\u011e": 2, "\\": 3, "\u00b3": 4, "\u00ca": 5, "\u0110": 6, "$": 7, "\u00a2": 8, "\u00ef": 9, "\u00da": 10, "8": 11, "9": 12, "[": 13, "\u0111": 14, "\u00f0": 15, "n": 16, "\u00e6": 17, "!": 18, "}": 19, "\u00cd": 20, "\u013a": 21, "\u00bf": 22, "\u0101": 23, "\u00f5": 24, "\u0107": 25, "\u00af": 26, "\u00ea": 27, "2": 28, "m": 29, "w": 30, "\u00b5": 31, "-": 32, "\u00fe": 33, "\u00db": 34, "\u0125": 35, "\u0103": 36, "/": 37, "\u012d": 38, "\u00fb": 39, "\u00df": 40, "\u0106": 41, "\u013b": 42, "\u00b2": 43, "\u00ce": 44, "\u0140": 45, "\u00ab": 46, "\u0133": 47, "Q": 48, "Y": 49, "1": 50, "]": 51, "\u0136": 52, "\u010f": 53, "\u00b4": 54, "\u00f2": 55, "4": 56, "\u012f": 57, "u": 58, "\u00e3": 59, "'": 60, "C": 61, "r": 62, "\u00eb": 63, "\u00cc": 64, "\u0132": 65, "V": 66, "\u0109": 67, "\u011f": 68, "o": 69, "p": 70, "\u0139": 71, "\u012a": 72, "\u00cb": 73, "\u00b8": 74, "\u0138": 75, ">": 76, "\u0119": 77, "5": 78, "i": 79, "\u012c": 80, "N": 81, "s": 82, "\u0108": 83, ",": 84, "l": 85, "G": 86, "j": 87, "\u0112": 88, "\u0124": 89, "\u0123": 90, "\u00c0": 91, "\u00a4": 92, "*": 93, "\u00de": 94, "(": 95, "\u00ff": 96, "E": 97, "\u00e7": 98, "B": 99, "\u0130": 100, "\u0115": 101, "\u00e5": 102, "h": 103, "\u0104": 104, "d": 105, "\u012e": 106, "\u00c7": 107, "\u00c8": 108, "\u00d0": 109, "|": 110, "\u00ee": 111, "\u010e": 112, "#": 113, "\u0114": 114, "\u0126": 115, "\u00c9": 116, "6": 117, "\u00f6": 118, "\u0141": 119, "M": 120, "K": 121, "\u00fa": 122, "\u00e0": 123, "\u013f": 124, ";": 125, "H": 126, "\"": 127, "e": 128, "A": 129, "`": 130, "S": 131, "\u00e4": 132, "\u00f3": 133, "\u00d9": 134, "R": 135, "\u00d6": 136, "t": 137, "\u00b6": 138, "a": 139, "W": 140, "\u00ec": 141, "<": 142, "\u00a1": 143, "\u00d8": 144, "q": 145, "\u011a": 146, "\u00d5": 147, "\u0137": 148, "0": 149, "\u00f7": 150, "%": 151, "\u00c1": 152, "\u0100": 153, "\u00bb": 154, "\u013e": 155, "\u00f9": 156, "D": 157, "k": 158, "\u010a": 159, "\u00b1": 160, "\u00d4": 161, "x": 162, "\u00e8": 163, "=": 164, "\u0120": 165, "^": 166, "@": 167, "\u00fd": 168, "L": 169, "\u0102": 170, "\u00aa": 171, "I": 172, ".": 173, "\u0142": 174, "\u00c2": 175, "\u0134": 176, "y": 177, "c": 178, "\u0105": 179, "\u00dc": 180, "\u00b7": 181, "\u00f1": 182, "F": 183, "\u00f8": 184, "\u011b": 185, "\u010b": 186, "\u0117": 187, "\u011c": 188, "_": 189, "\u00d7": 190, "\u013d": 191, "\u00bc": 192, "\u0128": 193, "\u00ae": 194, "+": 195, "\u011d": 196, "{": 197, "\u00d2": 198, "\u00a9": 199, "U": 200, "\u00c4": 201, "3": 202, "z": 203, "\u00c3": 204, "\u010d": 205, "J": 206, ")": 207, "\u00d1": 208, "P": 209, "\u00a6": 210, "\u0143": 211, "\u00fc": 212, "?": 213, "b": 214, "\u00dd": 215, "~": 216, "\u0118": 217, "\u00be": 218, "\u0122": 219, "\u00cf": 220, "\u00ed": 221, "\u00ac": 222, "O": 223, "\u00c5": 224, "\u00a8": 225, "Z": 226, "\u00e9": 227, "\u00a3": 228, "\u0127": 229, "\u013c": 230, "\u00b0": 231, "g": 232, ":": 233, "\u0116": 234, "\u00f4": 235, "\u0121": 236, "\u0135": 237, "\u010c": 238, "7": 239, "\u00ba": 240, "&": 241, "\u00c6": 242, "\u00bd": 243, "\u00b9": 244, "v": 245, "\u00e2": 246, "\u00d3": 247, "T": 248, "f": 249, "X": 250, "\u0113": 251, "\u0129": 252, "\u0131": 253, "\u012b": 254, "\u00a5": 255, "\u00e1\u0122": 256, "\u00e1\u0125": 257, "\u0120\u00e0": 258, "\u0120\u00d0": 259, "\u00e0\u00aa": 260, "\u00e0\u00b8": 261, "\u00d0\u00b0": 262, "\u0120.": 263, "\u0120,": 264, "\u00d8\u00a7": 265, "\u00e0\u00b4": 266, "\u00e0\u00ae": 267, "an": 268, "\u00e0\u00a6": 269, "\u00e0\u00b0": 270, "en": 271, "er": 272, "\u00e0\u00a4": 273, "\u00d0\u00be": 274, "\u00d0\u00b8": 275, "in": 276, "\u0120d": 277, "\u0120s": 278, "\u0120\u00d8": 279, "\u0120a": 280, "\u0120t": 281, "\u00d0\u00b5": 282, "ar": 283, "\u00d1\u0124": 284, "\u0120p": 285, "\u00d0\u00bd": 286, "\u0120m": 287, "\u00e0\u00ab": 288, "\u00d1\u0122": 289, "\u0120\u00d9": 290, "\u00e0\u00af": 291, "es": 292, "\u0120\u00e0\u00aa": 293, "on": 294, "\u00e0\u00b5": 295, "\u0120n": 296, "\u00d8\u00a7\u00d9": 297, "\u0120k": 298, "at": 299, "\u00d1\u0123": 300, "al": 301, "or": 302, "\u00d8\u00b1": 303, "el": 304, "\u0120c": 305, "\u00db\u012e": 306, "\u00e2\u0122": 307, "\u0120-": 308, "\u0120b": 309, "is": 310, "\u00e1\u0125\u0132": 311, "\u0120\u00ce": 312, "\u0120l": 313, "et": 314, "\u00d0\u00bb": 315, "\u00e0\u00b1": 316, "as": 317, "\u01201": 318, "\u0120\u00e1\u0125": 319, "\u00e0\u00a7": 320, "\u01202": 321, "it": 322, "\u0120h": 323, "\u0120\u00e0\u00a4": 324, "\u0120\u00d7": 325, "\u0120v": 326, "\u00e0\u00a5": 327, "\u00e3\u0123": 328, "il": 329, "\u0120o": 330, "\u00d0\u00b0\u00d0": 331, "\u00e1\u0125\u0132\u00e1\u0125": 332, "\u0120:": 333, "\u0120\u00e2\u0122": 334, "\u00e1\u0125\u013a": 335, "un": 336, "\u00d9\u012a": 337, "\u00e0\u00b9": 338, "\u00e0\u00af\u012f": 339, "\u00d8\u00a7\u00d8": 340, "\u00d0\u00be\u00d0": 341, "\u0120\u00e0\u00a6": 342, "\u00e1\u0122\u00b9": 343, "\u00e0\u00b5\u012f": 344, "\u00d1\u0125": 345, "\u0120\u00e1\u0122": 346, "\u00ce\u00b1": 347, "\u00d9\u0128": 348, "\u00e0\u00aa\u00be": 349, "re": 350, "\u0120f": 351, "\u0120S": 352, "am": 353, "\u00cf\u0126": 354, "om": 355, "\u0120e": 356, "\u00d8\u00a7\u00d9\u0126": 357, "\u0120A": 358, "\u00ce\u00bf": 359, "\u00e1\u0125\u0136": 360, "os": 361, "\u00d0\u00ba": 362, "\u0120\u00e0\u00ae": 363, "\u00e1\u0122\u00b9\u00e1\u0122": 364, "\u00d9\u0126": 365, "\u00d9\u0127": 366, "\u00ce\u00b9": 367, "\u00d9\u012c": 368, "\u0120\u00e0\u00b0": 369, "ad": 370, "\u0120\u00e0\u00b4": 371, "\u0120M": 372, "ak": 373, "\u00e1\u0122\u00ac": 374, "\u0120i": 375, "\u00e0\u00b5\u012f\u00e0\u00b4": 376, "\u0120g": 377, "\u00d8\u00aa": 378, "\u00e1\u0125\u0136\u00e1\u0125": 379, "\u0120de": 380, "ur": 381, "ol": 382, "\u0120(": 383, "\u0120P": 384, "\u00e0\u00aa\u00be\u00e0\u00aa": 385, "\u00d8\u00af": 386, "\u00da\u00a9": 387, "ti": 388, "\u0120w": 389, "\u00e1\u00bb": 390, "ch": 391, "\u00e0\u00af\u012f\u00e0\u00ae": 392, "\u00d0\u00b4": 393, "\u0120)": 394, "em": 395, "\u00d1\u0138": 396, "\u00e3\u0122": 397, "\u00e1\u0125\u013a\u00e1\u0125": 398, "\u00c3\u00a1": 399, "us": 400, "ed": 401, "\u00ce\u00b5": 402, "\u00ce\u00bd": 403, "\u00e1\u0122\u00ba": 404, "\u00e1\u0122\u00b8": 405, "\u012020": 406, "\u00d1\u0131": 407, "\u0120\u00d8\u00a7\u00d9\u0126": 408, "\u0120C": 409, "ik": 410, "\u0120B": 411, "\u0120T": 412, "\u00c3\u00a9": 413, "\u00d0\u00b2": 414, "\u00e0\u00ab\u0129": 415, "\u00e0\u00a6\u00be": 416, "\u0120\u00d9\u0127": 417, "\u00e1\u0122\u00af": 418, "\u00c3\u00ab": 419, "\u00bf\u00bd": 420, "ul": 421, "\u00ef\u00bf\u00bd": 422, "ro": 423, "\u00d9\u0129": 424, "\u00d7\u013b": 425, "\u01200": 426, "ent": 427, "id": 428, "\u00e1\u0122\u0143": 429, "\u00e3\u0124": 430, "\u0120D": 431, "\u0120\u00d0\u00bf": 432, "\u00d7\u0137": 433, "ing": 434, "\u00c9\u013b": 435, "ut": 436, "\u00d0\u00bc": 437, "\u0120j": 438, "\u00e0\u00a4\u00be": 439, "ir": 440, "ie": 441, "\u00e1\u0122\u0122": 442, "\u00e3\u0125": 443, "ag": 444, "\u00cf\u0123": 445, "\u0120\u00d1\u0123": 446, "\u00c4\u00b1": 447, "\u00cf\u0125": 448, "\u0120y": 449, "ic": 450, "\u0120in": 451, "\u00e0\u00b1\u012f": 452, "\u0120/": 453, "\u0120\u00c3": 454, "im": 455, "\u0120\u00d0\u00bd": 456, "\u0120r": 457, "\u0120\u00da\u00a9": 458, "ot": 459, "\u0120\u00ec": 460, "\u00b1\u00e1\u0122": 461, "\u0120\u00d1": 462, "ia": 463, "\u00e0\u00a7\u0129": 464, "\u0120K": 465, "\u00e1\u0122\u0126": 466, "\u00e1\u0125\u013f": 467, "\u0120\u00e3\u0122": 468, "\u00e0\u00b4\u00bf": 469, "\u01203": 470, "\u00e0\u00a6\u00be\u00e0\u00a6": 471, "\u0120E": 472, "ang": 473, "\u00e1\u0123": 474, "\u0120\u00d8\u00a8": 475, "\u00e0\u00af\u0123": 476, "le": 477, "\u00e0\u00ab\u012f": 478, "\u00d7\u0137\u00d7": 479, "\u00e0\u00ab\u012f\u00e0\u00aa": 480, "\u00d8\u00b3": 481, "\u00c3\u00a4": 482, "\u0120L": 483, "\u00e0\u00ab\u0122": 484, "\u0120N": 485, "\u0120\"": 486, "te": 487, "\u00e0\u00ae\u00bf": 488, "\u00e4\u00b8": 489, "\u00e1\u00ba": 490, "\u00cf\u0122": 491, "\u0120\u00c2": 492, "\u00e1\u0122\u00b8\u00e1\u0122": 493, "\u0120H": 494, "\u00e0\u00b8\u00b2": 495, "um": 496, "ig": 497, "\u0120I": 498, "\u00d0\u00b0\u00d1": 499, "\u00d0\u00bd\u00d0\u00b8": 500, "\u00d8\u00a8": 501, "\u00e0\u00b1\u012f\u00e0\u00b0": 502, "and": 503, "\u00d7\u013b\u00d7": 504, "\u0120201": 505, "\u00d1\u012d": 506, "\u00c3\u0143": 507, "ra": 508, "ek": 509, "\u0120\u00d0\u00b2": 510, "\u00e0\u00b0\u00bf": 511, "\u0120\u00e5": 512, "\u00cf\u0124": 513, "ta": 514, "he": 515, "\u00db\u0123": 516, "\u00ce\u00b7": 517, "\u00cf\u0127": 518, "\u00e1\u0125\u013f\u00e1\u0125": 519, "\u00ef\u00bc": 520, "\u00e0\u00ae\u00bf\u00e0\u00ae": 521, "\u0120\u00d9\u012a": 522, "\u00e0\u00b8\u013b": 523, "\u0120q": 524, "\u00db\u0134": 525, "\u00ef\u00bf\u00bd\u00ef\u00bf\u00bd": 526, "\u00e0\u00b4\u00bf\u00e0\u00b4": 527, "\u0120R": 528, "\u00d8\u00a7\u00d9\u0128": 529, "\u00e0\u00a7\u012f": 530, "ap": 531, "\u00e0\u00a7\u012f\u00e0\u00a6": 532, "\u0120z": 533, "\u00d0\u00b0\u00d1\u0122": 534, "\u00e0\u00b0\u00be": 535, "..": 536, "ah": 537, "\u00d1\u0123\u00d1\u0124": 538, "\u00e0\u00a4\u00be\u00e0\u00a4": 539, "\u00d8\u00a9": 540, "\u00d0\u00b0\u00d1\u0124": 541, "\u00e0\u00aa\u00a8": 542, "\u0120\u00d0\u00b4": 543, "\u00d8\u00b9": 544, "\u0120F": 545, "\u00e0\u00b1\u0123": 546, "\u0120G": 547, "ay": 548, "\u0120'": 549, "\u00d0\u00b3": 550, "ab": 551, "\u00d0\u00b0\u00d0\u00bd": 552, "\u00c3\u00b3": 553, "\u00e1\u0122\u0132": 554, "\u00e1\u0122\u0143\u00e1\u0122\u00af": 555, "\u00d1\u012e": 556, "\u00e0\u00a6\u00bf": 557, "\u00e0\u00a5\u0129": 558, "\u00e0\u00b8\u00b2\u00e0\u00b8": 559, "\u00d0\u00b7": 560, "\u01205": 561, "\u00e0\u00b5\u0123": 562, "ac": 563, "od": 564, "\u00e0\u00ab\u012d": 565, "\u01204": 566, "\u0120\u00ef\u00bc": 567, "\u0120en": 568, "\u0120\u00d0\u00ba": 569, "\u00e4\u00ba": 570, "\u00e0\u00aa\u00b0": 571, "\u00e0\u00af\u0123\u00e0\u00ae": 572, "\u00c3\u00bc": 573, "\u00e1\u0122\u0137": 574, "\u0120V": 575, "\u00ce\u00bb": 576, "\u0120se": 577, "\u00c4\u0123": 578, "\u0120\u00cf\u0126": 579, "\u0120O": 580, "\u00e0\u00b0\u00be\u00e0\u00b0": 581, "\u0120un": 582, "ion": 583, "\u00e0\u00a5\u012f": 584, "\u0120com": 585, "ok": 586, "st": 587, "\u00e1\u0122\u00bc": 588, "\u00e1\u0122\u013b": 589, "\u00e0\u00a5\u012f\u00e0\u00a4": 590, "\u00d1\u0129": 591, "\u00e0\u00b4\u00be": 592, "\u00ce\u00ba": 593, "\u0120\u00d0\u00bc": 594, "\u00e0\u00b9\u012a": 595, "\u00d9\u0124": 596, "00": 597, "\u0120\u00d8\u00aa": 598, "ov": 599, "\u0120\u00d0\u00b8": 600, "\u00d8\u00a7\u00d8\u00b1": 601, "\u00e0\u00b8\u0143": 602, "\u00e0\u00a6\u00b0": 603, "\u00ce\u00af": 604, "\u0120\u00e0\u00b8": 605, "uk": 606, "\u00d0\u00b1": 607, "eg": 608, "\u00c3\u00b6": 609, "ud": 610, "\u0120na": 611, "\u00e0\u00b5\u0123\u00e0\u00b4": 612, "\u00e1\u0124": 613, "\u0120\u00d1\u0124": 614, "\u00e0\u00ae\u00be": 615, "\u0120\u00d0\u00b7": 616, "\u00d0\u00be\u00d0\u00b2": 617, "\u0120\u00d0\u00be": 618, "\u00ce\u00bc": 619, "\u0120\u00eb": 620, "\u00d0\u00bf": 621, "\u0120al": 622, "iv": 623, "\u00e0\u00b4\u00be\u00e0\u00b4": 624, "\u0120la": 625, "ter": 626, "\u0120\u00e6": 627, "\u00e0\u00b8\u00a3": 628, "\u0120J": 629, "\u00a3\u00e1\u0125": 630, "iz": 631, "\u00e1\u0122\u0136": 632, "\u00e0\u00b0\u00bf\u00e0\u00b0": 633, "\u00e1\u0122\u0126\u00e1\u0122\u00b9\u00e1\u0122": 634, "\u00e1\u0122\u00b1\u00e1\u0122": 635, "\u0120\u00d0\u00b1": 636, "\u00d9\u0123": 637, "\u00d0\u00b0\u00d0\u00bb": 638, "\u00d0\u00b5\u00d0\u00bd": 639, "\u00e1\u0125\u013a\u00e1\u0125\u00a1": 640, "\u0120qu": 641, "\u00e1\u0125\u0136\u00e1\u0125\u0133": 642, "\u0120\u00d8\u00af": 643, "\u00d1\u0128": 644, "\u00d8\u00b4": 645, "\u00e0\u00ae\u00be\u00e0\u00ae": 646, "\u00ec\u013f": 647, "\u0120\u00e1\u0123": 648, "est": 649, "ng": 650, "\u00cf\u012e": 651, "\u00d1\u012a": 652, "\u0120|": 653, "\u00e1\u00bb\u012f": 654, "\u0120\u00d8\u00a7\u00d8": 655, "\u0120W": 656, "\u00d0\u00be\u00d1\u0122": 657, "\u0120re": 658, "\u0124\u00e0\u00b0": 659, "\u00ce\u00ac": 660, "\u0120?": 661, "\u00e0\u00a5\u0122": 662, "\u0120\u00d8\u00b3": 663, "ec": 664, "\u0122\u00e0\u00b8": 665, "\u00e1\u0122\u00bd": 666, "og": 667, "op": 668, "\u00e0\u00b9\u012b": 669, "ri": 670, "ist": 671, "\u00d7\u0136": 672, "\u00ce\u00bf\u00cf\u0127": 673, "end": 674, "\u0120\u00c4": 675, "la": 676, "\u00d8\u0143": 677, "\u00e1\u0122\u00b7": 678, "\u00d0\u00b5\u00d1\u0122": 679, "\u0120\u00d0\u00bf\u00d1\u0122": 680, "\u00e0\u00a6\u00bf\u00e0\u00a6": 681, "\u0120u": 682, "\u00d7\u00a8": 683, "\u00e5\u0131": 684, "\u0120\u00e2\u0122\u013b": 685, "\u0120\u00d0\u00bd\u00d0\u00b0": 686, "\u00e0\u00a4\u00bf": 687, "ers": 688, "\u0142\u00e1\u0125": 689, "\u00e1\u0122\u00b2": 690, "\u0120\u00e0\u00a4\u0137": 691, "\u00e0\u00a4\u00b0": 692, "\u00e0\u00b8\u00b1": 693, "\u00c3\u00a5": 694, "\u0120di": 695, "\u00d8\u00ac": 696, "\u0120U": 697, "eb": 698, "\u00e0\u00aa\u00bf": 699, "\u00da\u00af": 700, "\u01206": 701, "\u0120sa": 702, "\u00c5\u0141": 703, "\u00d0\u00b0\u00d0\u00b2": 704, "\u0120to": 705, "\u0120\u00d9\u0128": 706, "\u00d0\u00bb\u00d0\u00b8": 707, "\u00d8\u00a7\u00db\u012e": 708, "\u0120th": 709, "\u00e0\u00b8\u0129": 710, "\u00d7\u013e": 711, "\u0120\u00d7\u0136": 712, "li": 713, "ci": 714, "ai": 715, "\u00e0\u00ab\u0123": 716, "\u00e0\u00b8\u00b5": 717, "\u00e1\u0122\u0127": 718, "\u0120\u00ef\u00bc\u012e": 719, "\u00e0\u00ab\u0129\u00e0\u00aa": 720, "\u0120pr": 721, "\u00e0\u00b1\u0123\u00e0\u00b0": 722, "\u00e0\u00b8\u0123": 723, "\u0120on": 724, "\u00d9\u0125": 725, "\u0120pro": 726, "\u0120ka": 727, "\u00d1\u0127": 728, "\u00d0\u00b0\u00d0\u00bc": 729, "ara": 730, "\u0120\u00d9\u0123": 731, "\u00c5\u00a1": 732, "\u0120\u00d1\u0122": 733, "\u00e0\u00a7\u0129\u00e0\u00a6": 734, "\u0120el": 735, "\u0120at": 736, "\u0120con": 737, "\u00da\u00ba": 738, "\u00e0\u00af\u012f\u00e0\u00ae\u0137": 739, "\u0120!": 740, "\u0120\u00d8\u012e": 741, "\u0120\u00d9\u0126": 742, "\u0120an": 743, "\u0120\u00e1\u0125\u013d": 744, "\u0120le": 745, "\u00d0\u00be\u00d1\u0124": 746, "\u0120\u00e2\u0122\u013e": 747, "\u00d8\u00b2": 748, "\u0120...": 749, "\u00e0\u00b9\u0122\u00e0\u00b8": 750, "\u00e1\u0122\u013d": 751, "\u00e5\u00ae": 752, "\u0120\u00cf\u0122": 753, "\u0120\u00d8\u00b9": 754, "av": 755, "\u00d8\u00a7\u00d8\u00aa": 756, "\u0120\u00d0\u00b0": 757, "\u0120st": 758, "\u00e0\u00aa\u0124": 759, "\u00e1\u0122\u00ae": 760, "ou": 761, "\u00d0\u00b9": 762, "\u00e0\u00aa\u00a4": 763, "\u00d8\u00a7\u00d9\u0127": 764, "\u01208": 765, "ow": 766, "\u01207": 767, "\u00d0\u00be\u00d0\u00b4": 768, "\u0120\u00e7": 769, "\u00e1\u0125\u0137": 770, "se": 771, "\u00e0\u00a4\u00bf\u00e0\u00a4": 772, "\u00d0\u00b5\u00d1\u0124": 773, "\u00e6\u013e": 774, "az": 775, "\u0120the": 776, "\u0120;": 777, "\u0120\u00ce\u00ba": 778, "\u00e0\u00ae\u00b0": 779, "\u0120\u00e0\u00aa\u0137": 780, "\u0140\u00d7": 781, "\u00d0\u00b8\u00d1\u0124": 782, "\u01209": 783, "\u00e0\u00b8\u00a1": 784, "eng": 785, "\u00e1\u0122\u012c": 786, "\u0120ch": 787, "\u00c3\u0142": 788, "\u0120\u00cf\u0125": 789, "\u00cf\u012b": 790, "de": 791, "\u00ce\u0143": 792, "\u00ca\u00bb": 793, "\u00e0\u00aa\u0137": 794, "\u0120\u00d0\u00b3": 795, "ob": 796, "\u00d0\u00b0\u00d0\u00b4": 797, "\u00d0\u00be\u00d0\u00bd": 798, "\u00e0\u00af\u012a": 799, "ub": 800, "\u00e0\u00aa\u00ae": 801, "lar": 802, "\u0120\u00ce\u00b1": 803, "\u00e1\u0125\u00a3\u00e1\u0125": 804, "\u00e0\u00b5\u0128": 805, "ib": 806, "\u0120et": 807, "\u00e0\u00aa\u00b5": 808, "ant": 809, "\u0120is": 810, "\u0120\u00e0\u00aa\u00aa": 811, "aj": 812, "\u00e0\u00a4\u0124": 813, "\u0120\u00e2": 814, "\u013c\u0126": 815, "\u00d0\u00be\u00d0\u00bb": 816, "\u00e1\u0122\u00b1": 817, "\u012010": 818, "\u0120\u00e2\u0122\u0135": 819, "up": 820, "\u0120\u00d8\u00b1": 821, "\u00e0\u00ae\u00a4": 822, "\u00e1\u0122\u013c": 823, "\u0120es": 824, "\u00e1\u00ba\u00b9": 825, "\u0120\u00e2\u0122\u013f": 826, "\u0120for": 827, "\u00e0\u00af\u012f\u00e0\u00ae\u00a4": 828, "ne": 829, "wa": 830, "\u00e0\u00b8\u00a5": 831, "\u00e0\u00b5\u012f\u00e2\u0122": 832, "\u00c4\u0125": 833, "\u00d0\u00b0\u00d0\u00ba": 834, "\u00e5\u012a": 835, "\u00d0\u00be\u00d0\u00bc": 836, "\u00e1\u0122\u0140": 837, "\u00e1\u0122\u013e": 838, "\u012019": 839, "\u00e5\u00a4": 840, "\u00ce\u00b1\u00ce\u00b9": 841, "\u00c3\u00a7": 842, "\u0120\u00e1\u0122\u00a1": 843, "\u00e7\u013c\u0126": 844, "\u0120que": 845, "\u00ce\u00ae": 846, "\u00ce\u00b3": 847, "ine": 848, "ip": 849, "\u0120\u00ea": 850, "\u00e5\u0127": 851, "ana": 852, "\u0120of": 853, "\u00e3\u0122\u0132": 854, "\u00d7\u00aa": 855, "ez": 856, "\u00e0\u00b8\u013b\u00e0\u00b8": 857, "ga": 858, "\u00a8\u00e0\u00b5\u012f\u00e0\u00b4": 859, "\u0120tr": 860, "oc": 861, "iy": 862, "\u00d8\u00b5": 863, "da": 864, "\u0120\u00db\u0123": 865, "\u0120\u00e3\u0122\u0133": 866, "\u00ed\u0137": 867, "\u0120\u00e0\u00aa\u00b8": 868, "\u00e0\u00a5\u012d": 869, "\u0120\u00e1\u0125\u00a1": 870, "\u0120\u00d8\u00ac": 871, "\u00d0\u00b0\u00d1\u0123": 872, "\u0120\u00d9\u00be": 873, "\u0120ma": 874, "ep": 875, "\u00e1\u0125\u0132\u00e1\u0125\u013e": 876, "\u00cf\u0129": 877, "\u00e0\u00b4\u00a4": 878, "\u00e1\u0122\u00ac\u00e1\u0122\u00b8\u00e1\u0122": 879, "\u0120\u00e3\u0122\u0124": 880, "ari": 881, "\u00d0\u00b8\u00d0\u00bd": 882, "\u00e0\u00b8\u0136": 883, "\u0120\u00ce\u00b5": 884, "ost": 885, "\u0120ar": 886, "\u0120and": 887, "\u0120\u00e1\u0125\u0135": 888, "\u00e0\u00b8\u00b4": 889, "\u0120per": 890, "\u0120\u00d7\u0136\u00d7": 891, "\u00e0\u00a6\u00a8": 892, "\u0120%": 893, "ev": 894, "\u00e0\u00b5\u012f\u00e2\u0122\u012f": 895, "\u00e0\u00b0\u00a8": 896, "\u0120\u00e3\u0122\u0123": 897, "\u00e4\u00bb": 898, "qu": 899, "art": 900, "\u00d8\u00ae": 901, "\u00c4\u00b1n": 902, "\u00e1\u0122\u0126\u00e1\u0122\u00ba": 903, "\u00e0\u00b8\u00a7": 904, "ind": 905, "\u00d0\u00b5\u00d0\u00b4": 906, "\u00e1\u0122\u0123": 907, "\u00e1\u0125\u00a1": 908, "\u00e1\u0122\u00ab": 909, "\u00d8\u00b7": 910, "\u0120\u00ce\u00bc": 911, "\u00e1\u0125\u0142": 912, "\u0120er": 913, "ort": 914, "\u0120\u00e1\u0125\u0132\u00e1\u0125": 915, "\u00d0\u00bd\u00d0\u00be": 916, "ell": 917, "ess": 918, "\u0120me": 919, "\u0120si": 920, "\u00d0\u00b6": 921, "\u00e0\u00a4\u00a8": 922, "\u00e0\u00aa\u00be\u00e0\u00aa\u0124": 923, "are": 924, "\u0120\u00d8\u00a7\u00d9": 925, "\u0120\u00e0\u00aa\u00ae": 926, "\u0120\u00d7\u013e": 927, "\u00e1\u0122\u00b6": 928, "\u0120\u00e8": 929, "\u012012": 930, "\u00e0\u00b0\u0124\u00e0\u00b0": 931, "\u0120ng": 932, "\u0120\u00d1\u0125": 933, "\u00d1\u0123\u00d0\u00ba": 934, "\u00e0\u00b8\u00a2": 935, "ung": 936, "\u0120\u00d8\u00b4": 937, "\u0137\u00e0\u00b5\u012f\u00e0\u00b4": 938, "\u0120\u00c4\u0133": 939, "\u00e0\u00b1\u0129": 940, "ho": 941, "sk": 942, "\u0120\u00d7\u0133": 943, "\u00e0\u00ae\u00a9": 944, "\u0120\u00e0\u00b9": 945, "\u00e1\u0122\u00bb": 946, "\u00ce\u00b9\u00ce\u00ba": 947, "\u0120\u00e3\u0122\u0133\u00e3\u0122\u0132": 948, "\u00e0\u00aa\u00be\u00e0\u00aa\u00b0": 949, "\u00d0\u00b5\u00d0\u00bb": 950, "\u0120do": 951, "\u00d0\u00be\u00d0\u00b3": 952, "\u00db\u012e\u00da\u00ba": 953, "ill": 954, "\u00e0\u00b0\u00b0": 955, "io": 956, "\u00c4\u00ab": 957, "\u00d9\u012a\u00d8\u00b1": 958, "\u00d2\u013d": 959, "\u00ef\u00bf\u00bd\u00ef\u00bf\u00bd\u00ef\u00bf\u00bd\u00ef\u00bf\u00bd": 960, "\u00e1\u0122\u00b0": 961, "ere": 962, "\u00e0\u00b1\u012d": 963, "\u00e7\u00bd": 964, "ya": 965, "\u00da\u00be": 966, "\u0120da": 967, "\u00cf\u012f": 968, "\u012011": 969, "\u0120\u00d7\u0132": 970, "\u0120\u00d8\u00a3": 971, "\u00ae\u00e0\u00af\u012f": 972, "ug": 973, "\u00d1\u0130": 974, "\u00e0\u00ae\u0141": 975, "ja": 976, "\u00e0\u00b8\u013c": 977, "\u00e1\u0122\u0122\u00e1\u0122\u00b9\u00e1\u0122": 978, "\u00e0\u00b4\u00b0": 979, "sa": 980, "\u0120am": 981, "\u0120In": 982, "\u0120ho": 983, "ha": 984, "\u00e0\u00a6\u00be\u00e0\u00a6\u00b0": 985, "\u00e4\u00b9": 986, "ka": 987, "ada": 988, "ce": 989, "\u00e0\u00a7\u0123": 990, "\u00ce\u00b5\u00ce\u00b9": 991, "\u00d9\u012b": 992, "\u00d7\u0133": 993, "\u00d2\u00b3": 994, "\u0120ni": 995, "\u00e5\u013d": 996, "\u0120=": 997, "\u00d1\u012c": 998, "\u00d7\u0132": 999, "\u0120\u00ef\u00bf\u00bd": 1000, "\u0120\u00e0\u00a5": 1001, "\u00e6\u0139": 1002, "\u00d0\u00b0\u00d0\u00b7": 1003, "\u00e3\u0123\u00ae": 1004, "\u0120or": 1005, "tr": 1006, "\u0120\u00d0\u00a1": 1007, "\u0120\u00d9\u0129": 1008, "\u00c4\u0135": 1009, "\u00d8\u00a7\u00d8\u00af": 1010, "\u00ce\u00b4": 1011, "\u0120as": 1012, "20": 1013, "\u00c5\u00be": 1014, "\u0120\u00c2\u00bb": 1015, "\u00e6\u0138": 1016, "\u0120\u00e0\u00a4\u00b8": 1017, "\u0120te": 1018, "\u0120ti": 1019, "\u0120\u00e1\u0123\u012d": 1020, "\u00d0\u00b8\u00d0\u00bb": 1021, "\u00e7\u00bd\u0133": 1022, "\u00e0\u00a4\u00a4": 1023, "\u00e0\u00ab\u012d\u00e0\u00aa": 1024, "\u0120\u00e0\u00ae\u00aa": 1025, "\u00e0\u00a4\u0137": 1026, "\u00eb\u012d": 1027, "\u00e1\u0125\u013c": 1028, "ate": 1029, "ong": 1030, "\u00d0\u00b8\u00d1\u0122": 1031, "\u00e0\u00a7\u0141": 1032, "\u0120sp": 1033, "\u0120\u00e1\u0125\u0134": 1034, "\u0120ya": 1035, "tt": 1036, "na": 1037, "\u00d0\u00b5\u00d0\u00ba": 1038, "\u00c3\u00bd": 1039, "\u0120\u00e0\u00aa\u013e": 1040, "\u0120\u00e0\u00a5\u00a4": 1041, "\u00c3\u00a9s": 1042, "\u00e2\u0122\u012e": 1043, "\u00e1\u0122\u0126\u00e1\u0122\u00b9\u00e1\u0122\u00b8": 1044, "\u0120no": 1045, "\u0120\u00d8\u00ae": 1046, "\u0120\u00d8\u00a7\u00d9\u0126\u00d9\u0127": 1047, "\u00e5\u00bd": 1048, "\u0120\u00d8\u0143": 1049, "\u0120#": 1050, "\u0120\u00e0\u00aa\u00a4": 1051, "\u00e0\u00ae\u00b3": 1052, "\u00d7\u0137\u00d7\u00aa": 1053, "\u00e0\u00ab\u012f\u00e0\u00aa\u00af": 1054, "ni": 1055, "\u00ce\u00b9\u00ce\u00b1": 1056, "ht": 1057, "ma": 1058, "\u0120il": 1059, "\u00c3\u00ba": 1060, "\u00d7\u013b\u00d7\u013f": 1061, "\u00e4\u00bd": 1062, "\u00e6\u012a": 1063, "\u0120\u00e0\u00a6\u0137": 1064, "ast": 1065, "all": 1066, "di": 1067, "\u0120\u00d7\u00a9": 1068, "ele": 1069, "\u00d0\u00b5\u00d0\u00bc": 1070, "\u00e5\u013e": 1071, "\u00c3\u00b8": 1072, "ens": 1073, "\u0120Y": 1074, "\u0137\u00e0\u00b5\u012f\u00e0\u00b4\u0137": 1075, "\u00cf\u0128": 1076, "\u00ec\u0140": 1077, "\u0120\u00db": 1078, "\u0120x": 1079, "\u00e0\u00b0\u00b2": 1080, "\u012015": 1081, "\u0120\u00d0\u0141": 1082, "\u00a8\u00e0\u00b5\u012f\u00e0\u00b4\u00a8": 1083, "ation": 1084, "\u0120\u00e9": 1085, "\u0120\u00e2\u0122\u013a": 1086, "\u00e1\u0122\u00a1": 1087, "\u0120ba": 1088, "\u0120\u00e0\u00aa\u0128": 1089, "\u0120ne": 1090, "\u00d1\u0140": 1091, "\u00d9\u012c\u00d8\u00a9": 1092, "hi": 1093, "\u0120par": 1094, "\u0120\u00e0\u00a6\u00b8": 1095, "\u00c4\u0141": 1096, "ata": 1097, "\u00e0\u00aa\u00bf\u00e0\u00aa": 1098, "\u00e7\u0136": 1099, "\u0120\u00e0\u00ae\u0137": 1100, "to": 1101, "\u00d0\u00b0\u00d0\u00b9": 1102, "pl": 1103, "\u00e1\u0122\u0136\u00e1\u0122\u00b9\u00e1\u0122": 1104, "\u00e0\u00b8\u00b0": 1105, "\u0120\u00e0\u00a6\u00ac": 1106, "\u0120\u00d9\u0127\u00d9\u0128": 1107, "me": 1108, "\u0120t\u00c3\u00ab": 1109, "\u00e0\u00b8\u0137": 1110, "\u00e1\u0125\u0136\u00e1\u0125\u013c": 1111, "\u0120\u00d8\u00a7\u00d8\u00b3": 1112, "\u0120\u00e0\u00aa\u0127": 1113, "ru": 1114, "\u0120200": 1115, "\u00e0\u00ab\u012f\u00e0\u00aa\u00b0": 1116, "\u0120\u00e1\u0122\u00b1\u00e1\u0122": 1117, "\u0120\u00e2\u0122\u012d": 1118, "ini": 1119, "\u0120\u00e0\u00a4\u00b9": 1120, "\u0120Z": 1121, "\u00d1\u013a": 1122, "\u00e1\u0125\u0132\u00e1\u0125\u013d": 1123, "\u00e0\u00aa\u00a8\u00e0\u00ab\u0129": 1124, "\u00e0\u00af\u012f\u00e0\u00ae\u00aa": 1125, "ina": 1126, "\u00e0\u00b8\u0139": 1127, "\u00ce\u00b8": 1128, "si": 1129, "ale": 1130, "\u00d7\u00a9": 1131, "\u0120\u00d0\u00b5": 1132, "\u0120ag": 1133, "\u0120op": 1134, "\u00d7\u0142": 1135, "\u0120\u00e0\u00a4\u00ae": 1136, "\u0120ak": 1137, "\u0120]": 1138, "\u00d0\u00bd\u00d0\u00b0": 1139, "\u0120\u00e0\u00aa\u00b5": 1140, "\u0137\u00e0\u00af\u012f\u00e0\u00ae\u0137": 1141, "\u0120del": 1142, "\u00e1\u0122\u00b2\u00e1\u0122\u00b7": 1143, "\u00e5\u00b9": 1144, "pr": 1145, "\u0120\u00da\u00a9\u00db\u012e": 1146, "\u00cf\u0126\u00ce\u00b1": 1147, "ver": 1148, "ij": 1149, "\u0120die": 1150, "\u00c3\u00b3n": 1151, "\u00e5\u0132": 1152, "\u00e0\u00a6\u00b2": 1153, "\u0120\u00e0\u00aa\u013d": 1154, "\u00d5\u00a1": 1155, "\u0120og": 1156, "\u0120ol": 1157, "\u00d9\u012a\u00d9\u0128": 1158, "\u0120\u00d8\u00a2": 1159, "\u00e0\u00ae\u00b2": 1160, "\u00e1\u0124\u0136": 1161, "und": 1162, "\u0120ad": 1163, "\u00d0\u00be\u00d0\u00b1": 1164, "\u00c4\u012f": 1165, "\u0120\u00d9\u0124": 1166, "\u00d8\u00a3": 1167, "\u0120ke": 1168, "\u0120\u00d1\u0129": 1169, "ww": 1170, "\u0120[": 1171, "\u00d8\u00a7\u00d8\u00a8": 1172, "\u012018": 1173, "\u00cf\u0130": 1174, "\u0120\u00cf\u0126\u00ce\u00b7": 1175, "oh": 1176, "\u00e0\u00a4\u00b2": 1177, "\u00c6\u00b0": 1178, "\u0120ku": 1179, "\u00e0\u00a6\u0137": 1180, "\u00e3\u0123\u0126": 1181, "\u00e1\u0125\u0135": 1182, "\u00c9\u013br": 1183, "\u0120wa": 1184, "\u00e0\u00b8\u00aa": 1185, "\u00d8\u00b6": 1186, "\u00d9\u0130": 1187, "ans": 1188, "\u0120ja": 1189, "\u0120\u00d0\u00bd\u00d0\u00b5": 1190, "\u0120An": 1191, "\u00ec\u0139": 1192, "\u0120\u00e0\u00a6\u00aa": 1193, "\u00e1\u0122\u0122\u00e1\u0122\u00ba": 1194, "\u00d8\u00b1\u00db\u012e": 1195, "\u0120\u00e0\u00b4\u00aa": 1196, "eri": 1197, "\u00e0\u00af\u012a\u00e0\u00ae": 1198, "\u00e1\u0122\u00be": 1199, "ala": 1200, "ati": 1201, "\u00e0\u00b1\u0122": 1202, "\u00c5\u0124": 1203, "\u00e0\u00b4\u00af": 1204, "\u00e1\u0122\u00b1\u00e1\u0122\u00ac": 1205, "ke": 1206, "\u00e1\u00bb\u012fn": 1207, "\u0120\u00d7\u0140\u00d7": 1208, "\u012013": 1209, "\u0120\u00e0\u00a4\u00aa": 1210, "\u00d1\u0124\u00d0\u00b8": 1211, "ali": 1212, "\u0120\u00d0\u00b7\u00d0\u00b0": 1213, "\u0120\u00ed": 1214, "\u0120sh": 1215, "\u0120be": 1216, "\u00e0\u00af\u012f\u00e0\u00ae\u0141": 1217, "\u00d0\u00b0\u00d1\u0124\u00d0\u00b0": 1218, "\u00e5\u012c": 1219, "\u00e1\u0125\u013d": 1220, "ore": 1221, "ish": 1222, "\u00d0\u00b0\u00d0\u00b3": 1223, "\u0120po": 1224, "der": 1225, "\u0120\u00da\u00a9\u00db\u0134": 1226, "\u0120\u00d0\u0142": 1227, "emb": 1228, "\u0120www": 1229, "\u0120\u00e0\u00ae\u00b5": 1230, "\u00d0\u00b0\u00d0\u00b1": 1231, "ua": 1232, "\u00e0\u00b5\u012f\u00e0\u00b4\u00a4": 1233, "\u0120des": 1234, "\u00e0\u00a7\u0129\u00e0\u00a6\u00b0": 1235, "\u00d1\u0126": 1236, "\u00e0\u00b0\u0137": 1237, "\u00d8\u00a7\u00d8\u00a6": 1238, "\u00c4\u013d": 1239, "\u0120\u00d0\u013e": 1240, "\u00e1\u0125\u013e": 1241, "\u00e1\u0122\u0138": 1242, "\u0120av": 1243, "\u012014": 1244, "uc": 1245, "\u00cf\u0123\u00ce\u00bf": 1246, "\u012016": 1247, "\u00da\u0128": 1248, "\u0120\u00e0\u00b0\u00aa": 1249, "\u00d1\u012f": 1250, "\u0120ac": 1251, "\u00e0\u00b8\u00ab": 1252, "\u00c3\u00abr": 1253, "\u00e0\u00aa\u00be\u00e0\u00aa\u00a8": 1254, "\u00e0\u00ab\u0123\u00e0\u00aa\u0124": 1255, "\u0120Al": 1256, "\u0120im": 1257, "\u0120\u00d9\u012c": 1258, "\u0120\u00da\u00af": 1259, "\u00e0\u00b8\u0126": 1260, "\u0120\u00d0\u0134": 1261, "\u00e1\u0125\u00a2": 1262, "\u00e0\u00a7\u012d": 1263, "\u00e1\u0125\u0132\u00e1\u0125\u0135": 1264, "\u00cf\u0126\u00ce\u00bf": 1265, "\u00e4\u00ba\u013c": 1266, "\u0120\u00ce\u00b4": 1267, "\u012000": 1268, "tion": 1269, "\u00e0\u00b9\u0126": 1270, "\u00e5\u012f": 1271, "\u00d0\u00b0\u00d1\u0128": 1272, "\u00e0\u00a4\u00b8": 1273, "\u00e0\u00a6\u00a4": 1274, "\u00e6\u00b8": 1275, "\u00e4\u00ba\u00ba": 1276, "\u0120\u00d8\u00af\u00d8\u00b1": 1277, "\u00e0\u00b4\u0124": 1278, "\u0120\u00d0\u013c": 1279, "ard": 1280, "\u0120\u00e0\u00aa\u00b9": 1281, "\u00e3\u0125\u00bc": 1282, "\u00d0\u00bd\u00d1\u012d": 1283, "ani": 1284, "\u0120\u00e0\u00aa\u00a8": 1285, "ord": 1286, "\u0120it": 1287, "\u0120\u00e0\u00ae\u00ae": 1288, "\u00d8\u00b3\u00d8\u00aa": 1289, "\u00e0\u00a5\u0123": 1290, "\u00c3\u00b5": 1291, "\u0124\u00ac": 1292, "\u0120\u00d1\u0138": 1293, "\u00d9\u012a\u00d8\u00af": 1294, "\u00d9\u0128\u00d8\u00af": 1295, "tu": 1296, "\u00d0\u00b5\u00d0\u00bd\u00d0\u00b8": 1297, "\u0120\u00e1\u0122\u0122": 1298, "\u00d1\u0122\u00d0\u00b8": 1299, "ba": 1300, "\u0120&": 1301, "\u00e0\u00ab\u0122\u00e0\u00aa": 1302, "\u0120ap": 1303, "\u00e0\u00b5\u012d": 1304, "ama": 1305, "\u00d0\u00ba\u00d0\u00b8": 1306, "\u0120\u00ce\u00ba\u00ce\u00b1\u00ce\u00b9": 1307, "\u0120\u00c2\u00ab": 1308, "\u00d8\u00b0": 1309, "\u00d0\u00be\u00d1\u0123": 1310, "\u0120\u00d8\u00a7\u00db\u012e": 1311, "\u00d0\u00b2\u00d0\u00b0": 1312, "\u0120\u00e0\u00b4\u0137": 1313, "\u00d7\u0135": 1314, "\u00c3\u00a2": 1315, "\u00e0\u00af\u0129": 1316, "\u0120pl": 1317, "orm": 1318, "\u0120ha": 1319, "ika": 1320, "\u00cf\u0126\u00ce\u00b5": 1321, "\u00c3\u00a3": 1322, "ide": 1323, "\u0120\u00e1\u0122\u013b": 1324, "\u0120\u00e0\u00aa\u013d\u00e0\u00ab\u0129": 1325, "\u00d9\u012a\u00d9\u0126": 1326, "\u00ec\u013f\u00b4": 1327, "\u00e0\u00b4\u0141": 1328, "\u00e6\u012b": 1329, "\u0120\u00e0\u00ae\u0127": 1330, "\u0120\u00d9\u0123\u00d9\u012c": 1331, "\u00e1\u0125\u0132\u00e1\u0125\u0142\u00e1\u0125": 1332, "\u00e0\u00a6\u00ac": 1333, "\u0120\u00d0\u00bb": 1334, "\u00e7\u012b": 1335, "\u012017": 1336, "\u00c3\u00a1n": 1337, "lo": 1338, "\u0120med": 1339, "\u0120ver": 1340, "ont": 1341, "\u0120\u00e2\u0122\u00a6": 1342, "\u0120van": 1343, "\u0120men": 1344, "\u00d7\u00a2": 1345, "\u0120\u00d0\u0132": 1346, "\u00e0\u00b5\u0129": 1347, "\u0120\u00e1\u0122\u0140": 1348, "\u00e0\u00a7\u012f\u00e0\u00a6\u00b0": 1349, "\u0120\u00e1\u0125\u0142": 1350, "\u00d0\u00ba\u00d0\u00b0": 1351, "ff": 1352, "\u00c3\u00aa": 1353, "\u00c3\u00b6r": 1354, "\u0120+": 1355, "\u00e0\u00a6\u00ae": 1356, "\u00e4\u00b8\u0122": 1357, "\u0120\u00d5": 1358, "ite": 1359, "\u0120\u00e0\u00aa\u00ac": 1360, "\u00d5\u00a1\u00d5": 1361, "\u00e0\u00b1\u0128": 1362, "\u00e1\u0125\u0136\u00e1\u0125\u013e": 1363, "\u00cf\u0123\u00ce\u00b1": 1364, "\u00e6\u013a": 1365, "\u00d0\u00be\u00d0\u00ba": 1366, "\u00c3\u00a6": 1367, "\u0120..": 1368, "\u00d7\u0139": 1369, "\u0120du": 1370, "\u00d0\u00b4\u00d0\u00b0": 1371, "ve": 1372, "\u0120\u00e0\u00ae\u00a4": 1373, "ile": 1374, "\u0120\u00d1\u0131": 1375, "\u00e3\u0123\u00a7": 1376, "\u00e1\u0125\u0132\u00e1\u0125\u0137": 1377, "\u00e0\u00aa\u0124\u00e0\u00aa": 1378, "ust": 1379, "\u00e1\u0122\u012c\u00e1\u0122\u00b9\u00e1\u0122": 1380, "\u0120\u00e0\u00b0\u0137": 1381, "\u00e1\u0125\u0132\u00e1\u0125\u00a1": 1382, "\u00e0\u00a4\u00b9": 1383, "\u00e0\u00b9\u0123": 1384, "\u00d8\u00a7\u00d8\u00b3": 1385, "\u00e1\u0122\u0127\u00e1\u0122\u00b9\u00e1\u0122": 1386, "\u00cf\u0126\u00ce\u00b7": 1387, "\u0120ex": 1388, "\u00e0\u00b4\u00bf\u00e0\u00b4\u00b2": 1389, "\u0120\u00e0\u00aa\u00b0": 1390, "\u0120\u00d7\u0137": 1391, "\u00e0\u00aa\u00b2": 1392, "tic": 1393, "za": 1394, "\u01202019": 1395, "\u013c\u00e1\u0125\u013a": 1396, "\u0120\u00d0\u00b4\u00d0\u00b0": 1397, "\u00e8\u00bf": 1398, "\u00e0\u00b1\u012f\u00e0\u00b0\u00b0": 1399, "\u00e0\u00b5\u012f\u00e0\u00b4\u0141": 1400, "\u0120\u00e0\u00ae\u013c": 1401, "ier": 1402, "ks": 1403, "\u00d8\u00a6": 1404, "\u0120ter": 1405, "\u00d9\u012c\u00d9\u0128": 1406, "\u0120em": 1407, "ko": 1408, "\u00e8\u00bd": 1409, "\u00e0\u00ae\u00b5": 1410, "\u0120\u00e1\u0125\u013a": 1411, "kan": 1412, "ler": 1413, "ente": 1414, "ass": 1415, "\u0120so": 1416, "\u00e5\u00b0": 1417, "\u00e0\u00b0\u00be\u00e0\u00b0\u00b0": 1418, "\u00e0\u00a5\u012f\u00e0\u00a4\u00af": 1419, "\u00e5\u0131\u0133": 1420, "je": 1421, "\u00e3\u0123\u0139": 1422, "\u012025": 1423, "\u0120para": 1424, "\u00e0\u00aa\u00a3": 1425, "\u0120kan": 1426, "\u0120Ch": 1427, "\u0120dan": 1428, "\u00d0\u00bd\u00d1\u0131": 1429, "ts": 1430, "\u00c3\u00b4": 1431, "\u0120\u00d8\u00a7\u00d9\u0128": 1432, "\u012030": 1433, "\u0120yang": 1434, "\u00e4\u00bc": 1435, "\u00e0\u00af\u0123\u00e0\u00ae\u00ae\u00e0\u00af\u012f": 1436, "\u0120\u00d0\u013f": 1437, "\u0120mo": 1438, "\u0120\u00cf\u0126\u00ce\u00bf": 1439, "\u00e0\u00aa\u00b9": 1440, "\u0120).": 1441, "\u00e0\u00a7\u012f\u00e0\u00a6\u00af": 1442, "\u0120\u00c2\u0143": 1443, "\u00e0\u00ae\u00bf\u00e0\u00ae\u00b2": 1444, "\u0120\u00e0\u00b0\u00b5": 1445, "\u00e1\u0122\u00ac\u00e1\u0122\u00b8": 1446, "\u00cf\u0122\u00ce\u00bf": 1447, "\u0120\u00d1\u0123\u00d0\u00b5": 1448, "\u00e3\u0123\u00ab": 1449, "\u00d0\u00b0\u00d1\u012a": 1450, "ela": 1451, "\u00e5\u012a\u0128": 1452, "\u0120\u00d1\u012a": 1453, "\u00eb\u012d\u00a4": 1454, "\u00e0\u00b8\u00b2\u00e0\u00b8\u00a3": 1455, "\u00e0\u00b1\u0129\u00e0\u00b0": 1456, "\u0120\u00d0\u0133": 1457, "\u0120pre": 1458, "\u0120by": 1459, "\u0120gr": 1460, "ny": 1461, "\u00e0\u00b4\u00ae": 1462, "\u0120det": 1463, "\u0120vi": 1464, "\u0120\u00e3\u0125": 1465, "\u00d0\u00bd\u00d1\u0138": 1466, "ning": 1467, "\u00d8\u00ab": 1468, "\u00db\u012e\u00d9\u0128": 1469, "\u0120\u00d1\u0123\u00d1\u0124": 1470, "\u00e0\u00b8\u0143\u00e0\u00b8\u0129": 1471, "\u00e0\u00b8\u00b7": 1472, "//": 1473, "\u00e0\u00b4\u00b3": 1474, "\u0120ber": 1475, "\u00cf\u0125\u00ce\u00b7": 1476, "\u00c5\u0133": 1477, "\u00e0\u00a5\u012a": 1478, "ze": 1479, "\u0120\u00e0\u00b4\u00b5": 1480, "\u0120ro": 1481, "\u0120ab": 1482, "ili": 1483, "\u0120\u00e1\u0125\u00a8": 1484, "\u00e0\u00ae\u00bf\u00e0\u00ae\u00af": 1485, "\u00ea\u00b3": 1486, "\u0120\u00e0\u00a6\u0128": 1487, "\u0120\u00db\u0136": 1488, "\u00e0\u00b8\u00b5\u00e0\u00b9\u012a": 1489, "\u0120om": 1490, "\u0120\u00da\u00a9\u00d8\u00b1": 1491, "\u0120\u00d9\u0125": 1492, "\u0120\u00ce\u00bd": 1493, "tor": 1494, "\u00e5\u00bd\u00a9": 1495, "\u00d0\u00b8\u00d0\u00bc": 1496, "\u00e0\u00b8\u00b8": 1497, "zi": 1498, "\u012022": 1499, "\u00eb\u012c": 1500, "ui": 1501, "\u0132\u00e1\u0122\u00ac": 1502, "\u00c5\u013b": 1503, "\u0120>": 1504, "\u0120\u00e0\u00ae\u0129": 1505, "\u0120ve": 1506, "\u012021": 1507, "\u0120\u00d8\u00b9\u00d9\u0126": 1508, "\u00e1\u0125\u0132\u00e1\u0125\u0142": 1509, "AN": 1510, "\u0120por": 1511, "\u00d7\u00a7": 1512, "\u00e8\u00b5": 1513, "\u00e0\u00b5\u0123\u00e0\u00b4\u0124": 1514, "ly": 1515, "\u00d0\u00b5\u00d1\u0123": 1516, "\u0120\u00cf\u0126\u00ce\u00bf\u00cf\u0127": 1517, "\u00ec\u00a7": 1518, "ita": 1519, "\u00e3\u0123\u00a6": 1520, "\u00e0\u00b9\u012e": 1521, "ttp": 1522, "\u0120\u00d8\u00a7\u00d9\u012a": 1523, "\u00e0\u00a5\u012f\u00e0\u00a4\u00b0": 1524, "\u00e0\u00b9\u0125": 1525, "\u00e1\u0125\u00ae": 1526, "\u0120\u00d9\u0127\u00db\u012e\u00da\u00ba": 1527, "\u00e1\u0122\u0122\u00e1\u0122\u0143\u00e1\u0122\u00af": 1528, "\u0120sk": 1529, "\u00c3\u00a1s": 1530, "\u00e6\u00b8\u00b8": 1531, "\u00e1\u0125\u013f\u00e1\u0125\u013d": 1532, "\u0120som": 1533, "\u00ce\u00bc\u00ce\u00b1": 1534, "\u0120\u00d8\u00a8\u00d9\u0129": 1535, "\u0120\u00c3\u00a9": 1536, "\u00d1\u0125\u00d1\u0122": 1537, "\u00c4\u013b": 1538, "\u00e0\u00b9\u0129": 1539, "\u00e5\u00bf": 1540, "\u0120ko": 1541, "\u00ec\u0140\u00a5": 1542, "\u0120Q": 1543, "ona": 1544, "\u0120\":": 1545, "\u00e0\u00a6\u00be\u00e0\u00a6\u00a8": 1546, "\u00e8\u00ae": 1547, "\u01202017": 1548, "\u0120\u00e0\u00b0\u00ae": 1549, "we": 1550, "\u00d0\u0142": 1551, "aci": 1552, "\u00d0\u00be\u00d0\u00b7": 1553, "\u00e0\u00a7\u0122": 1554, "\u00e0\u00a4\u00ae": 1555, "uh": 1556, "\u0120\u00e1\u0125\u0135\u00e1\u0125\u0132": 1557, "\u0120\u00e0\u00b0\u0127": 1558, "\u00e0\u00a4\u00be\u00e0\u00a4\u00b0": 1559, "\u0120\u00e0\u00aa\u0131": 1560, "\u00d0\u00b0\u00d0\u00bd\u00d0\u00b8": 1561, "\u0120bo": 1562, "\u00e1\u0124\u0131": 1563, "\u0120\u00e1\u0122\u013e": 1564, "....": 1565, "\u0120://": 1566, "\u00d0\u00b8\u00d1\u0124\u00d0\u00b5": 1567, "\u00ce\u00bd\u00ce\u00b1": 1568, "\u0120\u00d0\u0136": 1569, "\u00e5\u00bc": 1570, "asi": 1571, "ki": 1572, "\u0120ph": 1573, "\u0120\u00e0\u00a6\u00ae": 1574, "ash": 1575, "\u00e0\u00af\u0128": 1576, "\u00d0\u00be\u00d0\u00b6": 1577, "\u00ce\u00af\u00ce\u00b1": 1578, "w\u00e1\u00bb\u012fn": 1579, "ena": 1580, "\u01202018": 1581, "\u00e3\u0123\u00a8": 1582, "ys": 1583, "\u00ec\u0126": 1584, "\u0120St": 1585, "\u00e0\u00b4\u00a8": 1586, "\u0120),": 1587, "\u0120va": 1588, "\u00d7\u00a4": 1589, "\u0120http": 1590, "\u0120\u00e0\u00b4\u00b8": 1591, "\u00e9\u0122": 1592, "\u00e1\u00b9": 1593, "th": 1594, "\u00e3\u0123\u00aa": 1595, "no": 1596, "era": 1597, "\u0120\u00e1\u0122\u0132": 1598, "\u0120\u00d1\u0126": 1599, "\u0120\u00e0\u00a6\u0131": 1600, "mi": 1601, "\u0120\u00ce\u00b3": 1602, "\u00cf\u0123\u00ce\u00b9": 1603, "\u00e8\u00a7": 1604, "\u0120\u00e0\u00b0\u00b8": 1605, "\u00d7\u0140\u00d7": 1606, "\u0120\u00d0\u00a2": 1607, "\u00e7\u00bb": 1608, "\u00e0\u00aa\u00aa": 1609, "\u00e0\u00b8\u012a": 1610, "\u00eb\u012c\u0136": 1611, "our": 1612, "\u00d0\u00bb\u00d1\u0131": 1613, "\u00cf\u012b\u00ce\u00bd": 1614, "\u00d0\u00be\u00d0\u00b9": 1615, "\u0120\u00e4\u00b8": 1616, "if": 1617, "ade": 1618, "\u0120p\u00c3\u00a5": 1619, "\u0120je": 1620, "\u00e1\u0122\u00ae\u00e1\u0122\u00b8\u00e1\u0122": 1621, "va": 1622, "\u00e0\u00b4\u00a4\u00e0\u00b5\u012f\u00e0\u00b4\u00a4": 1623, "\u00a8\u00e0\u00af\u012f\u00e0\u00ae\u00a4": 1624, "\u00e0\u00aa\u00b8": 1625, "int": 1626, "lu": 1627, "ado": 1628, "\u00e0\u00b4\u00b5": 1629, "\u00ea\u00b0": 1630, "\u00d0\u00b8\u00d1\u0131": 1631, "be": 1632, "\u0120ed": 1633, "\u00d1\u0125\u00d0\u00b2": 1634, "\u0120\u00e5\u00a4": 1635, "\u0120\u00ef\u00bf\u00bd\u00ef\u00bf\u00bd\u00ef\u00bf\u00bd\u00ef\u00bf\u00bd": 1636, "10": 1637, "\u0120\u00d1\u0127": 1638, "\u00d0\u00bb\u00d0\u00b0\u00d1\u0122": 1639, "\u00e0\u00b4\u00b2": 1640, "\u0120\u00e0\u00b4\u00ae": 1641, "\u0120est": 1642, "\u00e0\u00b5\u012f\u00e0\u00b4\u00b0": 1643, "\u00e0\u00b8\u013d": 1644, "\u0120\u00d7\u00a2": 1645, "\u0120\u00e1\u0125\u00a1\u00e1\u0125\u0132\u00e1\u0125": 1646, "\u0120\u00d0\u00bf\u00d0\u00be": 1647, "\u0120\u00d1\u0140": 1648, "\u0120\u00ce\u00bf": 1649, "ran": 1650, "oa": 1651, "ond": 1652, "\u00c4\u0127": 1653, "\u00e0\u00b8\u00b9": 1654, "\u00d7\u0140": 1655, "\u00e5\u00ae\u013a": 1656, "\u0120X": 1657, "\u0120ser": 1658, "--": 1659, "\u00ec\u0142": 1660, "\u0120su": 1661, "\u00e7\u00ab": 1662, "\u0120\u00d0\u00be\u00d1\u0124": 1663, "\u0120til": 1664, "\u00c6\u00b0\u00e1\u00bb": 1665, "\u012024": 1666, "\u0120\u00e0\u00ae\u00a8": 1667, "\u00e5\u00b8": 1668, "ment": 1669, "\u00e1\u0125\u013a\u00e1\u0125\u0139": 1670, "\u00c3\u00a1l": 1671, "\u00c3\u00a3o": 1672, "amp": 1673, "\u0120Ar": 1674, "\u0132\u00e1\u0122\u00bc": 1675, "\u00e3\u0123\u0141": 1676, "\u00e6\u013f": 1677, "\u0120\u00db\u012e": 1678, "\u0120\u00e0\u00aa\u0137\u00e0\u00aa\u00b0": 1679, "\u012023": 1680, "\u00d7\u013d": 1681, "\u00d1\u0124\u00d0\u00be": 1682, "one": 1683, "age": 1684, "\u00e0\u00aa\u00ae\u00e0\u00aa\u00be\u00e0\u00aa\u0124": 1685, "\u00e3\u0125\u00b3": 1686, "\u00e3\u0123\u013b": 1687, "\u00d7\u013f": 1688, "\u00c3\u00abs": 1689, "\u00e5\u00a4\u00a7": 1690, "\u00d0\u00b8\u00d1\u0123": 1691, "\u00be\u00e1\u0122\u0122": 1692, "\u00e1\u0122\u00af\u00e1\u0122\u0143": 1693, "\u0120\u00e0\u00b4\u00a8": 1694, "\u0120\",": 1695, "\u00d9\u0129\u00d8\u00a7": 1696, "nh": 1697, "atu": 1698, "\u00e1\u00b9\u00a3": 1699, "res": 1700, "ku": 1701, "\u00e1\u0122\u0132\u00e1\u0122\u00b9\u00e1\u0122": 1702, "\u00e3\u0124\u012d": 1703, "\u00e3\u0123\u012e": 1704, "\u00e1\u0125\u013f\u00e1\u0125\u0133": 1705, "\u0120he": 1706, "\u00e4\u00b8\u012d": 1707, "lik": 1708, "\u0120\u00e1\u0125\u013b": 1709, "\u0120\u00d8\u00b5": 1710, "\u0120\u00d9\u012a\u00d8\u00a7\u00d9\u0126": 1711, "\u00d0\u00b0\u00d1\u0129": 1712, "\u0120\u00ec\u013f": 1713, "\u00aa\u00e0\u00af\u012f\u00e0\u00ae\u00aa": 1714, "\u00db\u012e\u00d8\u00af": 1715, "ene": 1716, "\u00d0\u00b8\u00d0\u00b7": 1717, "\u00d9\u00b9": 1718, "\u00e5\u0143": 1719, "\u0120ang": 1720, "\u00d8\u00a7\u00d8\u00b2": 1721, "\u0120\u00e0\u00b4\u0127": 1722, "\u00d1\u012b": 1723, "ich": 1724, "\u0120af": 1725, "\u00d1\u0125\u00d0\u00b4": 1726, "\u0120har": 1727, "\u00e5\u013e\u00a8": 1728, "\u00e1\u0122\u0128": 1729, "\u00c9\u013bn": 1730, "ica": 1731, "\u00e0\u00b0\u0124": 1732, "ert": 1733, "\u00ec\u0137": 1734, "\u0120\u00d8\u00a8\u00d8\u00b1": 1735, "\u00e5\u0128": 1736, "ER": 1737, "\u00e5\u013d\u00bd": 1738, "\u00c3\u00a8": 1739, "ge": 1740, "\u00d0\u00be\u00d0\u00b3\u00d0\u00be": 1741, "\u00e5\u00ba": 1742, "\u00e0\u00aa\u00a8\u00e0\u00aa\u00be": 1743, "\u00e1\u0125\u0132\u00e1\u0125\u013c": 1744, "ith": 1745, "\u00b6\u013e": 1746, "gan": 1747, "\u0120\u00e0\u00a6\u00a8": 1748, "\u00e8\u00af": 1749, "\u00e0\u00b4\u00a3": 1750, "\u00d0\u00b0\u00d0\u00bf": 1751, "\u00d8\u00a7\u00d9\u0129": 1752, "oj": 1753, "\u00e0\u00ae\u00a3": 1754, "\u00e7\u00ba": 1755, "\u0120Mar": 1756, "\u00e1\u0125\u0139": 1757, "\u0100\u0100": 1758, "ori": 1759, "\u00e0\u00aa\u00a8\u00e0\u00ab\u0122": 1760, "\u00e5\u00b7": 1761, "\u00c3\u00bcn": 1762, "\u00e3\u0123\u00af": 1763, "\u0120Se": 1764, "\u00e0\u00ae\u00ae": 1765, "\u00e7\u0130": 1766, "ida": 1767, "\u0120den": 1768, "adi": 1769, "\u00d8\u00ba": 1770, "\u00e1\u00ba\u00a1": 1771, "\u00e9\u0129": 1772, "\u00ce\u00b2": 1773, "\u0120ob": 1774, "\u00e0\u00a6\u00b8": 1775, "\u0120\u00e0\u00a4\u00ac": 1776, "\u0120der": 1777, "\u0120n\u00c3\u00ab": 1778, "\u0120\u00e1\u0125\u0139": 1779, "ult": 1780, "\u0120\u00e0\u00b9\u0122\u00e0\u00b8": 1781, "\u00e0\u00ae\u00b1": 1782, "\u0120\u00c5": 1783, "\u00d0\u00b8\u00d0\u00b4": 1784, "\u00e1\u00ba\u00bf": 1785, "\u0120pe": 1786, "so": 1787, "\u00e1\u0122\u0137\u00e1\u0122\u00ab": 1788, "\u0120\u00d8\u00a5": 1789, "\u00e0\u00af\u012f\u00e0\u00ae\u00b1": 1790, "\u0120us": 1791, "\u00d8\u00b1\u00d9\u012a": 1792, "\u0120\u00e0\u00a6\u00b9": 1793, "ry": 1794, "\u0120kom": 1795, "\u00e0\u00aa\u00be\u00e0\u00aa\u00ae": 1796, "\u0120\u00e0\u00a4\u00a8": 1797, "\u00e1\u0122\u0126\u00e1\u0122\u00b9": 1798, "uz": 1799, "\u0120ta": 1800, "\u0120\u00e1\u0122\u0137": 1801, "\u00e9\u013b": 1802, "emp": 1803, "\u0120\u00d7\u013d": 1804, "\u00e1\u0122\u0136\u00e1\u0122\u00ba": 1805, "\u00e0\u00b4\u00bf\u00e0\u00b4\u00af": 1806, "\u0120vo": 1807, "\u00e0\u00ab\u0124": 1808, "\u0120\u00e0\u00ae\u0130": 1809, "\u00c3\u00a4r": 1810, "\u00e0\u00af\u012d": 1811, "\u0120\u00db\u0123\u00db\u0134": 1812, "\u00e1\u0123\u00be\u00e1\u0122\u0122": 1813, "\u00e1\u0125\u0142\u00e1\u0125": 1814, "\u0120\u00ce\u00bc\u00ce\u00b5": 1815, "\u0120De": 1816, "\u00e6\u0139\u00b6": 1817, "\u00d8\u00a7\u00d8\u00b9": 1818, "\u0120\u00e3\u0124": 1819, "\u00e1\u0125\u0136\u00e1\u0125\u00a1": 1820, "\u00e1\u0122\u013c\u00e1\u0122\u00b9\u00e1\u0122": 1821, "uj": 1822, "\u0120\u00d8\u00a7\u00d9\u0126\u00d8\u00aa": 1823, "\u00e1\u0122\u0137\u00e1\u0122\u00b9\u00e1\u0122": 1824, "ett": 1825, "\u00e1\u0122\u013c\u00e1\u0122\u00b9": 1826, "\u0120fr": 1827, "\u00ec\u0139\u0132": 1828, "\u00e0\u00b1\u012f\u00e0\u00b0\u00a8": 1829, "ice": 1830, "\u00a8\u00e1\u0125\u013a": 1831, "ano": 1832, "\u00e1\u0125\u013a\u00e1\u0125\u013e": 1833, "\u00e0\u00a5\u0129\u00e0\u00a4": 1834, "sp": 1835, "\u0120var": 1836, "\u0120az": 1837, "gr": 1838, "\u0120\u00e1\u0123\u012c": 1839, "ft": 1840, "\u0120les": 1841, "\u00d9\u012c\u00d8\u00b1": 1842, "\u0120\u00ce\u00bd\u00ce\u00b1": 1843, "\u0120res": 1844, "\u0120bl": 1845, "zy": 1846, "\u00e0\u00b0\u00ae": 1847, "\u00d0\u00b8\u00d0\u00b2": 1848, "\u0120dis": 1849, "amb": 1850, "\u00e0\u00a5\u0129\u00e0\u00a4\u0124": 1851, "\u0120En": 1852, "\u00d9\u012a\u00da\u00ba": 1853, "\u0120\u00c3\u00ae": 1854, "\u00eb\u00a7": 1855, "\u0120\u00e0\u00aa\u00a6": 1856, "\u00d8\u00b8": 1857, "\u00e1\u0122\u00b3": 1858, "\u00d0\u00be\u00d0\u00bf": 1859, "\u0120\u00e1\u0122\u013d": 1860, "\u00e6\u012c": 1861, "\u0120\u00e1\u0125\u0136": 1862, "app": 1863, "\u00d9\u012a\u00d9\u0127": 1864, "ue": 1865, "\u0120$": 1866, "\u0120\u00e0\u00a4\u0127": 1867, "ew": 1868, "\u00c3\u00a4n": 1869, "\u01202016": 1870, "\u0120bir": 1871, "\u00ce\u00bd\u00ce\u00bf": 1872, "\u0120\u00d8\u00a7\u00d9\u012a\u00d8\u00b1": 1873, "\u00e7\u013e": 1874, "\u00e0\u00b4\u00a8\u00e0\u00b5\u012f\u00e0\u00b4\u00a8": 1875, "\u00e3\u0123\u00be": 1876, "\u0120\u00e0\u00a4\u013e": 1877, "n\u00c3\u0143": 1878, "\u00e1\u0122\u012c\u00e1\u0122\u00ba": 1879, "\u0120min": 1880, "\u0120\u00d0\u0140": 1881, "\u00e0\u00a4\u00aa": 1882, "\u0120Pro": 1883, "\u00b6\u013e\u00ec\u0140\u00a5": 1884, "\u00ec\u00a7\u0122": 1885, "ih": 1886, "\u00d8\u00a7\u00d9\u0123": 1887, "\u00e6\u00b3": 1888, "\u0120\u00d9\u0127\u00db\u012e": 1889, "\u00e0\u00aa\u00b0\u00e0\u00ab\u012f\u00e0\u00aa": 1890, "\u00ed\u0137\u013a": 1891, "\u0120os": 1892, "\u0120\u00e0\u00b0\u013c": 1893, "\u012001": 1894, "\u00d7\u0137\u00d7\u00a8": 1895, "\u0120\u00e0\u00a4\u00b5": 1896, "\u00cf\u0126\u00ce\u00b9\u00ce\u00ba": 1897, "ura": 1898, "\u0120sz": 1899, "\u00e1\u00bb\u0129": 1900, "\u00e0\u00b4\u00b8": 1901, "\u00e1\u0125\u0136\u00e1\u0125\u0142": 1902, "\u00d1\u0123\u00d1\u0131": 1903, "\u0120man": 1904, "\u00e0\u00b0\u00a4": 1905, "\u00e0\u00b4\u00b1": 1906, "\u00d0\u0132": 1907, "\u0120met": 1908, "\u00e8\u00a1": 1909, "\u0120\u00d2\u013d": 1910, "\u0120eg": 1911, "\u0120\u00d0\u00b2\u00d0\u00be": 1912, "AR": 1913, "\u0120Th": 1914, "\u0120\u00d0\u0135": 1915, "\u00d0\u00b0\u00d1\u0127": 1916, "\u00e1\u0122\u0133": 1917, "\u00e7\u013d": 1918, "\u00e0\u00af\u012f\u00e0\u00ae\u0137\u00e0\u00ae\u00b3": 1919, "\u0120pol": 1920, "\u00bb\u00e1\u0122\u0137": 1921, "\u0120\u00ce\u0133": 1922, "\u00d6\u0122": 1923, "\u0120nh": 1924, "\u0120\u00d0\u00b6": 1925, "\u00e5\u00a5": 1926, "ici": 1927, "mer": 1928, "\u0120aw\u00e1\u00bb\u012fn": 1929, "\u0120ki": 1930, "\u00d7\u013a": 1931, "\u0120\u00e0\u00aa\u00b2": 1932, "\u00d0\u00b3\u00d0\u00b0": 1933, "aka": 1934, "\u0120ut": 1935, "\u0120mar": 1936, "\u0120\u00e0\u00a6\u00a6": 1937, "\u00e0\u00b5\u012f\u00e0\u00b4\u00af": 1938, "IN": 1939, "\u0120\u00e0\u00a4\u0137\u00e0\u00a5\u0129": 1940, "\u0120\u00e0\u00a4\u0128": 1941, "\u00d1\u0122\u00d1\u0125": 1942, "\u00d0\u00b8\u00d0\u00bd\u00d0\u00b8": 1943, "\u0120\u00d0\u00be\u00d0\u00b4": 1944, "\u00e1\u0125\u0136\u00e1\u0125\u0133\u00e1\u0125\u013a\u00e1\u0125\u00a1": 1945, "ako": 1946, "yn": 1947, "\u00e0\u00b0\u00be\u00e0\u00b0\u00b2": 1948, "\u0120\u00ef\u00bc\u013c": 1949, "\u0120Un": 1950, "\u00d1\u0133": 1951, "\u0120\u00d7\u013b": 1952, "\u0120go": 1953, "\u00eb\u00a1": 1954, "\u00d0\u00b5\u00d0\u00b7": 1955, "\u00e0\u00b5\u012f\u00e0\u00b4\u00aa": 1956, "\u00c4\u00b1r": 1957, "els": 1958, "\u0120\u00c3\u00bc": 1959, "\u0120het": 1960, "\u0120\u00e0\u00b0\u00a8": 1961, "\u00e6\u013a\u00af": 1962, "tiv": 1963, "\u00ce\u0133": 1964, "\u0120\u00d8\u00a7\u00d8\u00b2": 1965, "\u00e0\u00a5\u0124": 1966, "form": 1967, "\u0120\u00d8\u00a7\u00d8\u00b3\u00d8\u00aa": 1968, "\u0120pa": 1969, "\u00d1\u0124\u00d0\u00b0": 1970, "\u00e2\u0122\u013f": 1971, "\u00e3\u0124\u0134": 1972, "\u012009": 1973, "\u00d0\u00b5\u00d0\u00b2": 1974, "\u0120The": 1975, "\u0120\u00e0\u00a4\u00b9\u00e0\u00a5\u012a": 1976, "\u00ec\u013f\u013a": 1977, "\u0120kh": 1978, "ino": 1979, "\u00e0\u00b0\u00bf\u00e0\u00b0\u0124\u00e0\u00b0": 1980, "\u00e0\u00b1\u012f\u00e0\u00b0\u00af": 1981, "\u00e0\u00a4\u0139": 1982, "\u00e5\u0130": 1983, "ane": 1984, "\u00d0\u00ba\u00d1\u0138": 1985, "lig": 1986, "ete": 1987, "\u00c5\u00ab": 1988, "ten": 1989, "\u00e5\u00be": 1990, "\u00d9\u00be": 1991, "\u0120\u00e1\u0125\u0140": 1992, "\u0120\u00ce\u0143": 1993, "\u0120\u00da\u0128": 1994, "\u0120\u00e0\u00a7": 1995, "\u0120li": 1996, "\u0120\u00d8\u00b2": 1997, "\u0120\u00e2\u0122\u0140": 1998, "\u0120\u00e0\u00aa\u00b6": 1999, "\u00d1\u0123\u00d1\u0124\u00d0\u00b2": 2000, "ement": 2001, "\u0120inter": 2002, "\u00e0\u00b4\u00aa": 2003, "\u0120\u00da\u00a9\u00d9\u012a": 2004, "\u00ec\u013f\u0126": 2005, "ity": 2006, "pe": 2007, "\u0120\u00ec\u0140": 2008, "\u00e6\u013e\u00ba": 2009, "\u00e5\u0129": 2010, "\u0120\u00ca\u00bb": 2011, "\u012026": 2012, "\u00ec\u012d": 2013, "\u00d1\u0138\u00d0\u00b4": 2014, "asa": 2015, "\u00e0\u00ae\u00a4\u00e0\u00af\u012f\u00e0\u00ae\u00a4": 2016, "\u00e0\u00ae\u00bf\u00e0\u00ae\u00b0": 2017, "\u00e1\u00ba\u00a3": 2018, "\u0120um": 2019, "isi": 2020, "\u0120kon": 2021, "\u00d1\u0124\u00d0\u00b5": 2022, "\u0120\u00d8\u00b3\u00db\u0134": 2023, "\u0120\u00d1\u012f": 2024, "88": 2025, "\u00ce\u00be": 2026, "\u00e1\u0125\u0132\u00e1\u0125\u00aa": 2027, "\u00d1\u0125\u00d0\u00bc": 2028, "\u0120\u00ce\u00b1\u00cf\u0122": 2029, "bl": 2030, "11": 2031, "\u0120bu": 2032, "\u0120\u00ef\u00bf\u00bd\u00ef\u00bf\u00bd": 2033, "\u00e0\u00a7\u012f\u00e0\u00a6\u00a4": 2034, "\u00e0\u00b8\u00b3": 2035, "\u0120p\u00c3\u00abr": 2036, "\u00e0\u00ae\u00ae\u00e0\u00af\u012f": 2037, "\u00d0\u00be\u00d1\u0123\u00d1\u0124": 2038, "\u00e1\u0122\u00ae\u00e1\u0122\u00b8": 2039, "\u0120za": 2040, "\u0120\u00e0\u00a4\u00a6": 2041, "\u0120\u00e2\u0122\u0136": 2042, "\u00c3\u00b1": 2043, "\u00d7\u00a1": 2044, "\u00d0\u00b0\u00d1\u0140": 2045, "\u00e0\u00b5\u0122": 2046, "\u0120\\": 2047, "\u00d8\u00a7\u00d8\u00a1": 2048, "\u0120che": 2049, "\u00e7\u00a5": 2050, "\u00e1\u0122\u013b\u00e1\u0122\u00ba": 2051, "ack": 2052, "\u00e5\u012e": 2053, "\u00e0\u00ae\u00bf\u00e0\u00ae\u00b2\u00e0\u00af\u012f": 2054, "\u0120\u00c3\u00aen": 2055, "\u00ce\u00bc\u00ce\u00b5": 2056, "pa": 2057, "\u0120}": 2058, "\u00e0\u00b5\u012f\u00e0\u00b4\u013c": 2059, "olo": 2060, "\u00ea\u00b8": 2061, "\u00e0\u00b5\u0123\u00e0\u00b4\u00a8\u00e0\u00b5\u012f\u00e0\u00b4\u00a8": 2062, "\u00e0\u00b4\u0137\u00e0\u00b5\u012f\u00e0\u00b4\u0137": 2063, "\u00e0\u00b8\u0140": 2064, "\u00db\u012e\u00d8\u00b1": 2065, "\u00e4\u00b8\u0143": 2066, "\u0120mu": 2067, "eh": 2068, "\u0120\u00d0\u00be\u00d0\u00b1": 2069, "\u0120Sh": 2070, "EN": 2071, "\u012002": 2072, "\u012027": 2073, "\u00e0\u00b4\u0137": 2074, "\u00d1\u0139": 2075, "\u00d9\u0126\u00db\u012e": 2076, "\u00d1\u0125\u00d0\u00bb": 2077, "\u00e0\u00b0\u00b5": 2078, "\u00e1\u0122\u00bd\u00e1\u0122\u00ac": 2079, "\u0120au": 2080, "\u00c3\u00bcr": 2081, "\u00e0\u00ae\u0137": 2082, "ies": 2083, "ive": 2084, "unt": 2085, "\u00d7\u0134": 2086, "ca": 2087, "\u00c3\u00a1r": 2088, "\u0120\u00d8\u00a7\u00d9\u0126\u00d8\u00a3": 2089, "\u013b\u00e0\u00b5\u012f\u00e0\u00b4": 2090, "\u00d0\u00b5\u00d0\u00b9": 2091, "\u0120\u00d8\u00b7": 2092, "ats": 2093, "\u00e0\u00b8\u0124": 2094, "\u0120\u00e0\u00aa\u0139": 2095, "\u00e0\u00a8": 2096, "\u0120\u00d2\u00b3": 2097, "\u00b4\u00eb": 2098, "\u00e0\u00b8\u012c": 2099, "\u00d0\u00b8\u00d0\u00ba": 2100, "\u0120\u00e1\u0122\u0127": 2101, "\u00e0\u00b4\u00be\u00e0\u00b4\u00af": 2102, "\u012050": 2103, "\u0120\u00d1\u0128": 2104, "\u0120\u00ce\u00ba\u00ce\u00b1": 2105, "\u0120\u00d7\u0140": 2106, "eni": 2107, "\u00e0\u00ab\u0123\u00e0\u00aa": 2108, "\u0120\u00e0\u00b4\u00a4": 2109, "\u00e0\u00af\u012c": 2110, "\u00e0\u00ae\u00a4\u00e0\u00af\u0123": 2111, "\u0120\u00e5\u00a4\u00a7": 2112, "\u012003": 2113, "\u0120Pr": 2114, "oll": 2115, "\u012028": 2116, "\u00e0\u00b0\u00b8": 2117, "\u00e0\u00a4\u00b5": 2118, "\u012008": 2119, "\u0120co": 2120, "\u0120\u00c3\u00a7": 2121, "\u00e9\u0139": 2122, "\u00e6\u0122": 2123, "ema": 2124, "\u00e0\u00ae\u00bf\u00e0\u00ae\u00a9": 2125, "\u00e0\u00ae\u00be\u00e0\u00ae\u00b0": 2126, "\u0120ik": 2127, "\u00cf\u0126\u00ce\u00b9": 2128, "\u00d0\u00bd\u00d0\u00b3": 2129, "ets": 2130, "\u0120\u00ce\u0137": 2131, "\u00d9\u0132": 2132, "\u00e6\u012b\u012d": 2133, "\u0120Ma": 2134, "\u00d0\u00b8\u00d1\u0129": 2135, "\u0120\u00e0\u00a6\u0137\u00e0\u00a6\u00b0": 2136, "ky": 2137, "\u0120100": 2138, "rit": 2139, "\u0120\u00e0\u00a6\u00a4": 2140, "\u0120*": 2141, "ike": 2142, "\u0120lo": 2143, "\u00e8\u00b4": 2144, "\u00a5\u00e0\u00ab\u0122": 2145, "\u00e1\u0125\u013a\u00e1\u0125\u013c": 2146, "ber": 2147, "\u00e1\u0125\u0136\u00e1\u0125\u0133\u00e1\u0125\u0132": 2148, "\u00e1\u0124\u0137": 2149, "\u00c5\u00bc": 2150, "\u0120\u00c3\u0142": 2151, "\u00e6\u0138\u00b9": 2152, "\u00d0\u00a1": 2153, "lan": 2154, "\u0120\u00ce\u0142": 2155, "\u00e5\u00b1": 2156, "\u0120\u00c3\u00b6": 2157, "\u00e0\u00b0\u0141": 2158, "\u00e0\u00b0\u00a6": 2159, "\u0120La": 2160, "\u0120una": 2161, "ye": 2162, "\u012005": 2163, "mo": 2164, "\u00ce\u00bb\u00ce\u00bf": 2165, "che": 2166, "\u00e0\u00a4\u00a6": 2167, "\u00ce\u00b5\u00ce\u00af": 2168, "\u00e0\u00a6\u00a6": 2169, "ato": 2170, "yd": 2171, "aya": 2172, "iss": 2173, "\u0120\u00d8\u00a7\u00d9\u0126\u00d8\u00b9": 2174, "\u00e8\u00bd\u00bd": 2175, "\u012007": 2176, "\u00d5\u00b8": 2177, "\u0120fun": 2178, "\u00e1\u00bb\u013b": 2179, "\u00d8\u00a7\u00d9\u0124": 2180, "\u00d0\u00b8\u00d1\u012a": 2181, "\u0120bi": 2182, "\u0120El": 2183, "itu": 2184, "\u0120nie": 2185, "\u00d1\u0128\u00d0\u00b8": 2186, "zen": 2187, "\u0120Com": 2188, "ami": 2189, "\u00e0\u00af\u012a\u00e0\u00ae\u00af": 2190, "\u00e0\u00b0\u00aa": 2191, "50": 2192, "\u0120\u00e0\u00b0\u00a4": 2193, "\u00e0\u00b1\u012f\u00e0\u00b0\u00a4": 2194, "\u00e0\u00b1\u012f\u00e0\u00b0\u00b2": 2195, "\u0120eta": 2196, "\u00e0\u00b0\u00a1": 2197, "\u0120\u00d0\u00a3": 2198, "ila": 2199, "\u012029": 2200, "man": 2201, "ise": 2202, "\u01202015": 2203, "\u0120\u00ef": 2204, "\u0120000": 2205, "ON": 2206, "eta": 2207, "cia": 2208, "\u00e0\u00aa\u00be\u00e0\u00aa\u00b5": 2209, "\u00d8\u00b1\u00d9\u012c": 2210, "\u00ce\u00b5\u00cf\u0124": 2211, "__": 2212, "\u0120\u00e0\u00aa\u0127\u00e0\u00aa\u00a8\u00e0\u00ab\u0129": 2213, "ende": 2214, "port": 2215, "\u00e0\u00b8\u00b1\u00e0\u00b8\u013c": 2216, "\u00ed\u0137\u013e": 2217, "\u00e3\u0123\u012d": 2218, "uar": 2219, "\u0120tak": 2220, "\u00d0\u00b0\u00d0\u00b6": 2221, "\u012004": 2222, "sh": 2223, "\u0120mak": 2224, "\u00d0\u00b8\u00d1\u0123\u00d1\u0124": 2225, "\u0120\u00e0\u00a4\u00b2": 2226, "gi": 2227, "\u00e1\u0122\u013b\u00e1\u0122\u00b9\u00e1\u0122": 2228, "au": 2229, "\u00ec\u012c": 2230, "\u012006": 2231, "\u0120\u00cf\u0126\u00ce\u00b7\u00cf\u0124": 2232, "ento": 2233, "\u00e0\u00af\u0123\u00e0\u00ae\u0137\u00e0\u00af\u012f\u00e0\u00ae\u0137": 2234, "\u0137\u00e1\u0122\u00ab": 2235, "\u0120\u00e0\u00a4\u00b0": 2236, "\u0120\u00d0\u00b8\u00d0\u00b7": 2237, "\u00e0\u00ae\u00af": 2238, "\u0120och": 2239, "ase": 2240, "\u01202020": 2241, "\u00e1\u0125\u0134": 2242, "\u0120\u00ec\u0142": 2243, "ck": 2244, "l\u00c4\u00b1": 2245, "bo": 2246, "co": 2247, "\u00d1\u0125\u00d0\u00bd": 2248, "\u0120\u00e0\u00a6\u0127": 2249, "\u00e5\u00b9\u00b3": 2250, "\u00c8\u013d": 2251, "\u00e6\u013e\u012b": 2252, "\u00e4\u00b8\u012d\u00e8\u00bd\u00bd": 2253, "\u00e1\u0125\u0136\u00e1\u0125\u013d": 2254, "\u0120mi": 2255, "\u0120\u00e0\u00a4\u00a4": 2256, "\u00e0\u00b9\u012a\u00e0\u00b8\u00b2\u00e0\u00b8": 2257, "\u0120mod": 2258, "\u0120\u00e1\u0125\u00ac": 2259, "\u00d7\u013b\u00d7\u00aa": 2260, "\u00c3\u00ac": 2261, "\u00e0\u00a4\u00be\u00e0\u00a4\u00a8": 2262, "\u00e1\u00ba\u00a5": 2263, "\u00e8\u0122": 2264, "\u00e1\u0122\u0136\u00e1\u0122\u00b9\u00e1\u0122\u00b8": 2265, "\u0120\u00cf\u0126\u00ce\u00b7\u00ce\u00bd": 2266, "ons": 2267, "\u00e1\u0122\u0127\u00e1\u0122\u00ba": 2268, "\u00e6\u00b0": 2269, "ven": 2270, "per": 2271, "\u0120we": 2272, "\u00ce\u0141": 2273, "fer": 2274, "\u00e0\u00af\u0123\u00e0\u00ae\u00a4": 2275, "\u00e0\u00aa\u00af": 2276, "\u0120\u00d1\u0123\u00d0\u00be": 2277, "\u00e0\u00b4\u00bf\u00e0\u00b4\u0137\u00e0\u00b5\u012f\u00e0\u00b4\u0137": 2278, "\u00e0\u00a7\u0129\u00e0\u00a6\u00a8": 2279, "\u0120mat": 2280, "line": 2281, "\u0120cu": 2282, "\u00d0\u00b0\u00d0\u00bb\u00d1\u012e": 2283, "\u00ec\u013c": 2284, "\u00e1\u0125\u013f\u00e1\u0125\u00a1": 2285, "\u013c\u00e0\u00b5\u012f\u00e0\u00b4\u013c": 2286, "\u0120\u00da\u00a9\u00d8\u00a7": 2287, "\u00e5\u00b9\u00b4": 2288, "\u00e4\u00ba\u0128": 2289, "\u00e1\u0125\u0136\u00e1\u0125\u0133\u00e1\u0125\u013a": 2290, "\u0120\u00d0\u0139": 2291, "\u0120pod": 2292, "\u00ce\u013b": 2293, "\u00e4\u00bf": 2294, "\u00e0\u00a6\u0141": 2295, "\u0120\u00da\u00a9\u00db\u0123": 2296, "\u00e0\u00a6\u00aa": 2297, "\u0120ir": 2298, "den": 2299, "\u00e2\u0122\u012d": 2300, "alam": 2301, "\u00e7\u013b": 2302, "\u00e3\u0123\u00a3": 2303, "\u00eb\u00a1\u013e": 2304, "\u0120ay": 2305, "\u0120mas": 2306, "\u0120pos": 2307, "\u00d0\u00b0\u00d1\u0123\u00d1\u0124": 2308, "\u00e0\u00b9\u0124": 2309, "\u00c3\u00aan": 2310, "\u00ce\u00af\u00ce\u00bd": 2311, "ct": 2312, "\u00e5\u0131\u00b0": 2313, "\u0120br": 2314, "\u00ce\u00b6": 2315, "\u0120iz": 2316, "\u0120\u00d9\u0127\u00d8\u00b9": 2317, "\u0120dhe": 2318, "\u00c3\u00b2": 2319, "ute": 2320, "min": 2321, "\u00ea\u00b3\u0142": 2322, "\u0120\u00e1\u0125\u00a3\u00e1\u0125": 2323, "\u00e1\u0122\u013c\u00e1\u0122\u00ba": 2324, "\u0120Le": 2325, "\u00e0\u00b0\u00bf\u00e0\u00b0\u00a8": 2326, "\u0120pers": 2327, "\u00e1\u0122\u0122\u00e1\u0122\u00b9": 2328, "12": 2329, "\u00e1\u0125\u013f\u00e1\u0125\u013e": 2330, "\u0120\u00d0\u013a": 2331, "any": 2332, "\u00d0\u00b3\u00d0\u00b0\u00d0\u00bd": 2333, "\u00d9\u0122": 2334, "\u00e0\u00b8\u0123\u00e0\u00b8\u00b2\u00e0\u00b8\u00a3": 2335, "\u00e0\u00b0\u00be\u00e0\u00b0\u00a8": 2336, "\u0120bil": 2337, "\u0120\u00ce\u013c": 2338, "\u0120\u00e0\u00a6\u013e": 2339, "\u00d1\u0123\u00d0\u00ba\u00d0\u00b8": 2340, "\u0120Tr": 2341, "\u00eb\u0131": 2342, "\u00d8\u00a8\u00d8\u00b1": 2343, "ole": 2344, "\u00ce\u00b1\u00ce\u00bd": 2345, "\u00ce\u00bf\u00cf\u012f": 2346, "\u0120pag": 2347, "\u0120od": 2348, "ime": 2349, "bi": 2350, "\u00e6\u0137": 2351, "\u00e5\u00ae\u013a\u00e7\u00bd\u0133": 2352, "use": 2353, "\u00e3\u0125\u00bc\u00e3\u0125": 2354, "ame": 2355, "\u00c5\u013d": 2356, "\u01202014": 2357, "oz": 2358, "\u00c3\u00a9r": 2359, "\u0120\u00e0\u00b4\u0130": 2360, "uri": 2361, "ick": 2362, "ern": 2363, "\u00d1\u0122\u00d0\u00be": 2364, "\u0120aut": 2365, "\u00e0\u00b4\u013b\u00e0\u00b5\u012f\u00e0\u00b4": 2366, "\u00d8\u00aa\u00d8\u00b1": 2367, "\u00e1\u00bb\u0133": 2368, "ista": 2369, "\u00e0\u00b8\u00b2\u00e0\u00b8\u0123": 2370, "19": 2371, "\u0120tra": 2372, "\u00c3\u00a1t": 2373, "\u00e5\u00af": 2374, "\u00d8\u00a7\u00d9\u012a": 2375, "AT": 2376, "\u0120ea": 2377, "\u0120gi": 2378, "\u00ec\u00b6\u013e\u00ec\u0140\u00a5": 2379, "rat": 2380, "\u00e1\u0125\u00a3\u00e1\u0125\u0142": 2381, "\u0120ent": 2382, "\u0120Re": 2383, "ure": 2384, "\u0120val": 2385, "\u0120\u00d9\u00be\u00d8\u00b1": 2386, "\u00d8\u00a7\u00d8\u00b4": 2387, "\u0120\u00ce\u00b3\u00ce\u00b9\u00ce\u00b1": 2388, "\u00e0\u00b0\u00af": 2389, "\u00e9\u00a2": 2390, "ome": 2391, "\u00c5\u00a5": 2392, "\u00e0\u00b0\u00bf\u00e0\u00b0\u0137": 2393, "\u0120\u00d8\u00b9\u00d9\u0126\u00d9\u012b": 2394, "\u00e4\u00b9\u0132": 2395, "\u00e9\u013d": 2396, "AL": 2397, "\u0120\u00c3\u00a9s": 2398, "\u0120mer": 2399, "\u0120kat": 2400, "\u0120\u00ce\u00a3": 2401, "\u00d0\u00ba\u00d0\u00be": 2402, "ola": 2403, "iri": 2404, "\u00d9\u0126\u00d9\u0127": 2405, "\u00d7\u0137\u00d7\u013e": 2406, "\u00e7\u0132": 2407, "\u00d8\u00a7\u00d8\u0143": 2408, "\u00e4\u00b8\u012f": 2409, "\u0120und": 2410, "\u00e3\u0124\u012c": 2411, "\u00d1\u013a\u00d0\u00b0": 2412, "\u00cf\u0130\u00ce\u00bd": 2413, "ull": 2414, "\u00c3\u00bcl": 2415, "ES": 2416, "\u00d5\u00a5": 2417, "\u0120\u00cf\u012e": 2418, "aci\u00c3\u00b3n": 2419, "\u0120\u00ce\u00a4": 2420, "\u00ea\u00b0\u0122": 2421, "\u00d0\u00b5\u00d0\u00bd\u00d1\u0124": 2422, "ora": 2423, "\u00e0\u00ae\u0141\u00e0\u00af\u012f\u00e0\u00ae\u0141": 2424, "\u00d1\u0128\u00d1\u012e": 2425, "\u00d0\u00bf\u00d1\u0122": 2426, "olog": 2427, "\u00d0\u00ba\u00d1\u0125": 2428, "\u01202013": 2429, "\u00e0\u00ab\u012f\u00e0\u00aa\u0141": 2430, "\u00e0\u00ae\u00be\u00e0\u00ae\u00a9": 2431, "\u00ea\u00b2": 2432, "\u0120{": 2433, "\u0120sel": 2434, "\u00d0\u0140": 2435, "\u00eb\u00a6": 2436, "\u00d9\u0131": 2437, "\u00e0\u00ae\u013b": 2438, "\u00d0\u00b4\u00d0\u00b8": 2439, "aw": 2440, "\u00e1\u0123\u0122": 2441, "\u00d9\u0133": 2442, "\u00e5\u00bf\u00ab": 2443, "\u00e0\u00b5\u0124": 2444, "\u0120prod": 2445, "ight": 2446, "\u012040": 2447, "\u0120\u00ce\u00b1\u00cf\u0122\u00cf\u012e": 2448, "\u00e0\u00aa\u0139": 2449, "\u00e0\u00b8\u00b2\u00e0\u00b8\u00a1": 2450, "ito": 2451, "eld": 2452, "\u012036": 2453, "inn": 2454, "\u00e6\u0139\u00a5": 2455, "\u0125\u00bd": 2456, "les": 2457, "\u00d1\u0138\u00d0\u00b2": 2458, "isa": 2459, "\u0120\u00d7\u00a9\u00d7\u013e": 2460, "\u0120nu": 2461, "ira": 2462, "ss": 2463, "\u00e0\u00a4\u00b0\u00e0\u00a5\u012f\u00e0\u00a4": 2464, "\u0120\u00c2\u00b7": 2465, "\u00e0\u00b5\u012f\u00e0\u00b4\u00b1": 2466, "\u00ef\u00bc\u012e": 2467, "vi": 2468, "una": 2469, "\u00af\u00e4\u00ba\u013c": 2470, "eli": 2471, "\u00e0\u00b1\u012f\u00e0\u00b0\u0141": 2472, "\u00e3\u0124\u00b9": 2473, "\u00d7\u00a6": 2474, "\u0120\u00d7\u0142": 2475, "\u0120\u00d0\u00b2\u00d0\u00b0": 2476, "\u00d8\u00a7\u00da\u00a9": 2477, "\u00e1\u0123\u00bf": 2478, "\u00e1\u0125\u00a7": 2479, "ese": 2480, "\u00e5\u013f": 2481, "\u00e4\u00b8\u012c": 2482, "\u00e1\u0122\u0126\u00e1\u0122\u00b9\u00e1\u0122\u00b7": 2483, "\u00e0\u00a4\u013c": 2484, "\u00e5\u0135": 2485, "\u0120\u00c5\u0141": 2486, "\u00e1\u0125\u013a\u00e1\u0125\u0135": 2487, "fa": 2488, "het": 2489, "\u012a\u00eb\u012d\u00a4": 2490, "\u00e0\u00b1\u0124\u00e0\u00b0": 2491, "\u00d9\u0126\u00d9\u012c": 2492, "\u00e1\u0122\u0126\u00e1\u0122\u00ba\u00e1\u0122\u00b8\u00e1\u0122": 2493, "\u0120\u00d8\u00aa\u00d9\u012a": 2494, "\u00c3\u00a4l": 2495, "\u00e3\u0124\u0124": 2496, "\u0120\u00c3\u00a5": 2497, "\u00d8\u00a5": 2498, "\u0120\u00e1\u0125\u0137": 2499, "ink": 2500, "que": 2501, "\u00d1\u0125\u00d1\u0124": 2502, "\u0120\u00cf\u0129": 2503, "\u0120\u00ea\u00b0": 2504, "\u0120tu": 2505, "\u0120\",\"": 2506, "\u00db\u012e\u00d9\u0127": 2507, "\u00c9\u013bl": 2508, "\u00d5\u00b6": 2509, "\u00e0\u00b1\u0123\u00e0\u00b0\u00b2": 2510, "\u00c3\u00abn": 2511, "\u00e1\u0122\u0143\u00e1\u0122\u00af\u00e1\u0124\u0136": 2512, "\u00e0\u00ae\u00a8\u00e0\u00af\u012f\u00e0\u00ae\u00a4": 2513, "\u00e1\u0122\u00af\u00e1\u0122\u00b6": 2514, "\u00d0\u00b0\u00d1\u0124\u00d0\u00b8": 2515, "\u0120dat": 2516, "\u00e1\u0122\u0122\u00e1\u0122\u00bc": 2517, "\u00e1\u0122\u012c\u00e1\u0122\u00b9": 2518, "\u00eb\u00a5": 2519, "\u0120\u00e0\u00a4\u00ae\u00e0\u00a5\u0129\u00e0\u00a4\u0124": 2520, "\u0120\u00e3\u0123": 2521, "xt": 2522, "\u0120\u00e1\u0125\u0133": 2523, "iki": 2524, "red": 2525, "\u00e0\u00aa\u00a6": 2526, "\u00e0\u00aa\u00be\u00e0\u00aa\u00af": 2527, "\u01202012": 2528, "\u00c8\u013b": 2529, "\u00c3\u00b8r": 2530, "30": 2531, "kt": 2532, "\u0120\u00ce\u00b8": 2533, "\u00e0\u00a6\u00bf\u00e0\u00a6\u0137": 2534, "yt": 2535, "\u00e6\u0143": 2536, "ix": 2537, "\u00e6\u0136": 2538, "OM": 2539, "\u00e6\u00b5": 2540, "\u0120\u00e2\u0124\u00ac": 2541, "\u0120ind": 2542, "\u0120pas": 2543, "\u0120ju": 2544, "\u0120att": 2545, "\u0120\u00d1\u0123\u00d0\u00b2": 2546, "\u00cf\u0126\u00ce\u00ac": 2547, "\u0120\u00e1\u0125\u0132\u00e1\u0125\u0142": 2548, "\u00e0\u00b4\u00b0\u00e0\u00b5\u012f\u00e2\u0122\u012f": 2549, "\u00e0\u00aa\u013e": 2550, "ea": 2551, "\u00c9\u013bt": 2552, "\u00e8\u00a6": 2553, "\u0120with": 2554, "\u0120you": 2555, "\u00e0\u00b8\u00b2\u00e0\u00b8\u00a2": 2556, "\u00d0\u00b5\u00d0\u00b3": 2557, "\u00e0\u00aa\u00a1": 2558, "\u00c9\u013d": 2559, "\u00da\u012a": 2560, "??": 2561, "\u00e1\u0125\u0136\u00e1\u0125\u0137": 2562, "\u0120ul": 2563, "\u00e0\u00a4\u00af": 2564, "\u0120mga": 2565, "yl": 2566, "\u00e0\u00b9\u0122": 2567, "ii": 2568, "ione": 2569, "itt": 2570, "\u00d9\u012c\u00d8\u00af": 2571, "\u00e9\u0123": 2572, "\u00e7\u00ba\u00bf": 2573, "\u00e0\u00ab\u0129\u00e0\u00aa\u00b2": 2574, "\u00e0\u00b4\u00be\u00e0\u00b4\u00a3": 2575, "\u00e1\u0122\u00b1\u00e1\u0122\u0136": 2576, "\u00ec\u013e": 2577, "\u0120\u00d7\u0139": 2578, "\u00e6\u00b4": 2579, "\u0120\u00db\u0123\u00d9\u012a": 2580, "\u0120\u00e5\u00a4\u00a7\u00e5\u0131\u0133": 2581, "ect": 2582, "\u0120\u00e0\u00b0\u00b0": 2583, "99": 2584, "\u00e0\u00b8\u0139\u00e0\u00b8\u00b5\u00e0\u00b9\u012a": 2585, "\u00e1\u0122\u00ac\u00e1\u0122\u0122\u00e1\u0122\u00b9\u00e1\u0122": 2586, "OR": 2587, "\u0120\u00ce\u013e": 2588, "\u0120Ad": 2589, "\u00d8\u00aa\u00db\u012e": 2590, "\u0120cont": 2591, "bu": 2592, "\u0120\u00ec\u0137": 2593, "ret": 2594, "\u00ec\u0125": 2595, "\u00d1\u0125\u00d1\u0123": 2596, "\u00ce\u00a3": 2597, "\u0120din": 2598, "\u00e6\u0140": 2599, "\u00e5\u00ae\u00b6": 2600, "\u00ce\u00bb\u00ce\u00bb": 2601, "\u0120\u00d8\u00a7\u00db\u012e\u00d9\u0128": 2602, "\u00e6\u0142": 2603, "\u012031": 2604, "dan": 2605, "n\u00c3\u00a9": 2606, "\u00e0\u00b1\u012a": 2607, "\u0120\u00d9\u0127\u00d9\u012a": 2608, "AS": 2609, "\u0120\u00eb\u00b0": 2610, "\u00c3\u00a1c": 2611, "\u00e4\u00bc\u013c": 2612, "\u00e0\u00b8\u00a3\u00e0\u00b8\u00b0": 2613, "\u00d8\u00b1\u00d8\u00a8": 2614, "\u0120\u00ce\u00b7": 2615, "pp": 2616, "\u00c5\u00af": 2617, "\u00d0\u00be\u00d0\u00b8": 2618, "\u00e0\u00b9\u012a\u00e0\u00b8\u0143": 2619, "\u00cf\u0123\u00ce\u00ac": 2620, "\u0120ca": 2621, "\u0120een": 2622, "\u00ea\u00b8\u00b0": 2623, "\u00e1\u0122\u012c\u00e1\u0122\u00b9\u00e1\u0122\u00b8": 2624, "\u00e1\u0125\u0136\u00e1\u0125\u0139": 2625, "\u00e6\u012a\u0131": 2626, "\u00d0\u00b5\u00d1\u0123\u00d1\u0124": 2627, "\u00d7\u013b\u00d7\u00a8": 2628, "\u00d0\u013a": 2629, "\u00e0\u00a6\u00be\u00e0\u00a6\u00b2": 2630, "ark": 2631, "\u00e6\u0130": 2632, "\u00e3\u0125\u0125": 2633, "\u0120\u00cf\u0122\u00ce\u00bf\u00cf\u0127": 2634, "\u0120kwa": 2635, "\u00ec\u0126\u013e": 2636, "\u0120\u00c3\u00a4": 2637, "ula": 2638, "\u00e1\u0125\u013a\u00e1\u0125\u0132": 2639, "\u00e0\u00ae\u00be\u00e0\u00ae\u0137": 2640, "esti": 2641, "ave": 2642, "\u00e3\u0123\u0128": 2643, "net": 2644, "mas": 2645, "\u00e0\u00b8\u0136\u00e0\u00b9\u012b": 2646, "\u00e1\u0125\u0132\u00e1\u0125\u00ae": 2647, "\u00d8\u00a7\u00d9\u012c": 2648, "\u00d0\u00b5\u00d1\u012a": 2649, "\u00e1\u0122\u00ac\u00e1\u0122\u0126\u00e1\u0122\u00b9\u00e1\u0122\u00b8": 2650, "\u00d0\u00b5\u00d1\u0129": 2651, "\u0120\":\"": 2652, "ji": 2653, "\u0120rec": 2654, "\u00e3\u0124\u012e": 2655, "\u00ec\u013f\u00bc": 2656, "\u00e0\u00b4\u00a8\u00e0\u00b5\u012f\u00e0\u00b4": 2657, "\u00e5\u00b9\u00b3\u00e5\u0131\u00b0": 2658, "\u0120\u00e4\u00ba\u013c": 2659, "\u0120\u00d8\u00a7\u00d9\u0126\u00d8\u00b3": 2660, "\u00e9\u013f": 2661, "\u00e0\u00af\u0122": 2662, "\u0120\u00e0\u00aa\u0143": 2663, "\u00d8\u00a7\u00d8\u00ac": 2664, "ando": 2665, "\u00e3\u0124\u00a4": 2666, "\u00ce\u0143\u00cf\u0124": 2667, "ins": 2668, "\u0120bat": 2669, "\u0120bar": 2670, "\u00e0\u00ae\u00b0\u00e0\u00af\u012f": 2671, "22": 2672, "\u0120ur": 2673, "\u00d5\u00ab": 2674, "\u0120\u00d0\u00b2\u00d1\u012d": 2675, "\u00e0\u00ae\u00bf\u00e0\u00ae\u00b1": 2676, "\u00e6\u00b8\u00b8\u00e6\u012a\u0131": 2677, "\u0120\u00ce\u0136": 2678, "ace": 2679, "\u00e7\u00a7": 2680, "\u0120\u00e1\u0122\u0128": 2681, "\u00e1\u0122\u0132\u00e1\u0122\u013c\u00e1\u0122\u00b9": 2682, "oto": 2683, "\u00e0\u00b4\u00bf\u00e0\u00b4\u00b0": 2684, "enti": 2685, "yo": 2686, "\u012e\u0122": 2687, "\u0120On": 2688, "\u0120\u00d8\u00b1\u00d9\u012a": 2689, "\u0120Sp": 2690, "\u00db\u012e\u00d8\u00a7": 2691, "\u00d0\u00b8\u00d0\u00bb\u00d0\u00b8": 2692, "\u00e3\u0124\u012b": 2693, "ede": 2694, "elt": 2695, "16": 2696, "\u0120son": 2697, "\u00e0\u00b4\u00bf\u00e0\u00b4\u00a8": 2698, "\u00d8\u00b1\u00d8\u00af": 2699, "\u0120\u00d9\u0128\u00db\u0134": 2700, "80": 2701, "\u00e0\u00aa\u00be\u00e0\u00aa\u00a4": 2702, "\u00d0\u00bd\u00d0\u00be\u00d1\u0123\u00d1\u0124": 2703, "\u00e1\u0122\u00b1\u00e1\u0122\u013d": 2704, "kl": 2705, "\u00ec\u0138": 2706, "aren": 2707, "\u00ce\u0137": 2708, "\u0120\u00e0\u00aa\u00aa\u00e0\u00ab\u012f\u00e0\u00aa\u00b0": 2709, "\u00e1\u0122\u0132\u00e1\u0122\u00ba": 2710, "\u0120\u00e0\u00b9\u0123": 2711, "ors": 2712, "\u0120meng": 2713, "\u00e0\u00b8\u00a3\u00e0\u00b8\u00b5": 2714, "\u0120\u00c2\u00b0": 2715, "\u00e1\u0122\u00b6\u00e1\u0122\u00af": 2716, "its": 2717, "ym": 2718, "\u00e1\u00bb\u0123": 2719, "ante": 2720, "\u00d1\u0128\u00d1\u0138": 2721, "\u0120\u00e0\u00a6\u00aa\u00e0\u00a7\u012f\u00e0\u00a6\u00b0": 2722, "\u00e5\u0133": 2723, "\u00d0\u00b5\u00d1\u0124\u00d0\u00be": 2724, "\u00e0\u00af\u012f\u00e0\u00ae\u013c": 2725, "\u00c3\u00a2n": 2726, "\u00c3\u00b4ng": 2727, "\u00d9\u0128\u00d8\u00a7": 2728, "\u00d8\u00a7\u00d8\u00b1\u00db\u012e": 2729, "\u00ce\u00b9\u00cf\u0125": 2730, "\u00d1\u0128\u00d0\u00b0": 2731, "\u00e1\u0125\u00a3\u00e1\u0125\u013c": 2732, "\u00ec\u013d": 2733, "\u00e5\u00bc\u0122": 2734, "\u0120\u00cf\u0125\u00cf\u0127": 2735, "\u0120\u00e1\u0125\u0142\u00e1\u0125\u013f\u00e1\u0125\u013d": 2736, "\u00da\u00be\u00db\u012e": 2737, "\u0120\u00d1\u0122\u00d0\u00b0\u00d0\u00b7": 2738, "\u00d9\u0134": 2739, "urs": 2740, "\u00e0\u00aa\u00b3": 2741, "\u00d0\u00bb\u00d1\u0138": 2742, "\u00ea\u00b5": 2743, "\u00e7\u00be": 2744, "\u0120bes": 2745, "\u00e1\u0122\u00b7\u00e1\u0122\u00ba": 2746, "\u00e6\u012d": 2747, "\u00d9\u0127\u00d9\u0126": 2748, "\u00e1\u0125\u0132\u00e1\u0125\u00a2": 2749, "\u0120\u00e1\u0122\u0123": 2750, "nya": 2751, "\u00e0\u00b4\u00be\u00e0\u00b4\u00b0": 2752, "\u00e0\u00ae\u00aa\u00e0\u00af\u012f\u00e0\u00ae\u00aa": 2753, "\u00e0\u00a6\u00bf\u00e0\u00a6\u00a8": 2754, "\u00e7\u0136\u00a8": 2755, "\u00e1\u0125\u0132\u00e1\u0125\u0139": 2756, "\u0120\u00e2\u0122\u00a2": 2757, "j\u00c3\u00ab": 2758, "\u00d0\u00b8\u00d0\u00b9": 2759, "elo": 2760, "\u00c3\u00a5r": 2761, "\u00e7\u00ab\u013b": 2762, "apa": 2763, "isk": 2764, "\u00e1\u0122\u0137\u00e1\u0122\u00ba": 2765, "\u00e0\u00a4\u00a3": 2766, "\u0120\u00d9\u0127\u00d8\u0143": 2767, "\u00e0\u00b4\u00be\u00e0\u00b4\u00a8": 2768, "oni": 2769, "\u00c6\u00a1": 2770, "\u00eb\u0124": 2771, "\u00e1\u0122\u013a": 2772, "alar": 2773, "\u00e1\u00bb\u0125": 2774, "\u0120comp": 2775, "esi": 2776, "15": 2777, "ej": 2778, "\u00e5\u0134": 2779, "ilm": 2780, "cht": 2781, "yr": 2782, "ima": 2783, "\u00e6\u012b\u012d\u00e6\u013e\u00ba": 2784, "\u00e0\u00ae\u013c": 2785, "\u0120\u00e1\u0122\u0136": 2786, "agi": 2787, "\u0120that": 2788, "tuk": 2789, "\u00e1\u0125\u00a3\u00e1\u0125\u013c\u00e1\u0125\u013a": 2790, "\u00e0\u00a6\u0139": 2791, "val": 2792, "\u00e0\u00b4\u013b\u00e0\u00b5\u012f\u00e0\u00b4\u013b": 2793, "\u00d0\u00be\u00d1\u0124\u00d0\u00be": 2794, "\u0120mai": 2795, "\u0120\u00da\u00a9\u00d9\u0129": 2796, "\u0120\u00e0\u00ae\u0130\u00e0\u00ae\u00a9": 2797, "\u00d8\u00b1\u00d9\u0123": 2798, "\u00e5\u00a4\u00a9": 2799, "\u00d7\u0141": 2800, "\u0120\u00e0\u00a6\u00b0": 2801, "tik": 2802, "\u00c3\u00a9g": 2803, "\u00e0\u00b0\u0124\u00e0\u00b0\u00a6": 2804, "\u00e0\u00b9\u012a\u00e0\u00b8\u0129": 2805, "ank": 2806, "\u00d8\u00b9\u00d8\u00af": 2807, "\u00e0\u00a4\u00a1": 2808, "\u00c3\u0143t": 2809, "\u00c4\u0129": 2810, "\u0120\u00e0\u00ae\u012b": 2811, "\u0120pi": 2812, "\u00d1\u0131\u00d1\u0124": 2813, "\u00e1\u0125\u0133": 2814, "imi": 2815, "\u0120\u00d8\u00a8\u00d8\u00a7": 2816, "\u00d0\u00b0\u00d0\u00bd\u00d0\u00b4": 2817, "nie": 2818, "\u00cf\u0123\u00ce\u00af": 2819, "\u0120id": 2820, "\u0120Am": 2821, "\u00eb\u0135": 2822, "\u00e0\u00af\u0123\u00e0\u00ae\u0137": 2823, "\u0120reg": 2824, "\u00ec\u013f\u0122": 2825, "\u00e6\u0138\u00b0": 2826, "\u00e3\u0125\u012a": 2827, "\u0120\u00e1\u0122\u0134": 2828, "\u00cf\u0126\u00ce\u00b1\u00ce\u00b9": 2829, "\u00e0\u00b1\u012f\u00e2\u0122\u012e": 2830, "77": 2831, "\u0120sal": 2832, "ego": 2833, "\u0120\u00e0\u00aa\u00b9\u00e0\u00aa\u00a4": 2834, "\u00e0\u00a6\u00be\u00e0\u00a6\u00ae": 2835, "ire": 2836, "\u0120\u00ce\u00b5\u00cf\u0122": 2837, "\u00e0\u00a5\u012d\u00e0\u00a4\u0124": 2838, "\u0120\u00c4\u00b0": 2839, "\u00d8\u00aa\u00d9\u0129": 2840, "\u0120\u00d8\u00a7\u00d9\u0127": 2841, "wo": 2842, "\u00c3\u00a9n": 2843, "\u0120\u00d8\u00a3\u00d9\u0128": 2844, "\u0120are": 2845, "\u00e1\u0125\u0132\u00e1\u0125\u0142\u00e1\u0125\u0139": 2846, "iti": 2847, "\u00ec\u0124\u00ac": 2848, "\u0120\u00d0\u00b8\u00d0\u00bd": 2849, "ember": 2850, "\u00d7\u0137\u00d7\u0135": 2851, "\u00c3\u00a7\u00c3\u00a3o": 2852, "36": 2853, "\u00e1\u0124\u012a": 2854, "\u0120sam": 2855, "\u00d9\u0127\u00d8\u00a7": 2856, "\u00e0\u00af\u0124": 2857, "\u00e1\u00bb\u00a7": 2858, "\u00d0\u00bd\u00d0\u00b5": 2859, "\u0120\u00e0\u00aa\u00a5": 2860, "\u00d1\u0125\u00d0\u00b1": 2861, "\u00e1\u0125\u0136\u00e1\u0125\u0142\u00e1\u0125": 2862, "\u00e1\u0122\u013f": 2863, "\u0120\u00e0\u00a4\u00af": 2864, "aliz": 2865, "\u00e0\u00b4\u00bf\u00e0\u00b4\u00b2\u00e0\u00b5\u012f\u00e2\u0122\u012f": 2866, "\u00d1\u0125\u00d1\u0129": 2867, "\u00e1\u0122\u0132\u00e1\u0122\u00ac": 2868, "\u00e0\u00a4\u00be\u00e0\u00a4\u00a4": 2869, "\u01202011": 2870, "\u00e1\u0122\u013b\u00e1\u0122\u00b9\u00e1\u0122\u00b8": 2871, "otel": 2872, "\u00e0\u00b8\u00b7\u00e0\u00b8\u0143": 2873, "du": 2874, "\u0120\u00d0\u00b4\u00d0\u00be": 2875, "\u0120\u00e0\u00a4\u0137\u00e0\u00a5\u0122": 2876, "iga": 2877, "ras": 2878, "akan": 2879, "\u012a\u013a": 2880, "\u0120dit": 2881, "\u00e8\u0124": 2882, "\u0120mag": 2883, "\u0120\u00d0\u013d": 2884, "\u0120\u00d2": 2885, "\u0120\u00e0\u00a4\u0139": 2886, "att": 2887, "\u0120\u00d7\u00aa": 2888, "uy": 2889, "\u00e1\u0122\u00b1\u00e1\u0122\u00b8\u00e1\u0122": 2890, "14": 2891, "enn": 2892, "18": 2893, "\u0120\u00d8\u00a8\u00d8\u00a7\u00d9\u0126": 2894, "\u0120\u00cf\u0122\u00cf\u0123\u00ce\u00bf": 2895, "\u00e0\u00aa\u00a5\u00e0\u00ab\u0122": 2896, "\u00e1\u0125\u0136\u00e1\u0125\u0135": 2897, "\u012035": 2898, "ener": 2899, "\u00d7\u0137\u00d7\u0141": 2900, "\u0120\u00e1\u0125\u013e": 2901, "\u0120\u00d8\u00a7\u00d9\u0126\u00d8\u0143": 2902, "erv": 2903, "\u00ce\u00b9\u00ce\u00bf": 2904, "\u0120\u00e0\u00b0\u0128": 2905, "\u0138\u00e1\u0125\u0136": 2906, "\u00e1\u0122\u0143\u00e1\u0122\u00af\u00e1\u0122\u00b7": 2907, "\u00ec\u00b2": 2908, "\u00e0\u00b1\u0123\u00e0\u00b0\u00a8": 2909, "\u00c3\u0143a": 2910, "\u0120ge": 2911, "\u0120Con": 2912, "\u00e0\u00b5\u012f\u00e0\u00b4\u00b2": 2913, "\u00e0\u00a4\u00be\u00e0\u00a4\u0124": 2914, "\u0120bet": 2915, "\u0120\u00e0\u00a6\u00b6": 2916, "\u0120\u00e0\u00b8\u00aa": 2917, "\u0120\u00d9\u0126\u00d9\u0126": 2918, "\u00e0\u00a6\u00b0\u00e0\u00a7\u012f\u00e0\u00a6": 2919, "\u0120aj": 2920, "old": 2921, "\u00e0\u00ab\u012f\u00e0\u00aa\u00a4": 2922, "\u00e1\u0125\u013f\u00e1\u0125\u0137": 2923, "\u0120all": 2924, "\u00e1\u00ba\u0143": 2925, "\u0120\u00e0\u00b4\u0129": 2926, "ake": 2927, "\u00e0\u00b1\u012c": 2928, "\u0120\u00d0\u00bf\u00d0\u00b5\u00d1\u0122": 2929, "\u00ce\u00b5\u00ce\u00bd": 2930, "\u0120\u00d1\u0123\u00d0\u00bf": 2931, "\u0120\u00cf\u0125\u00cf\u0126\u00ce\u00bf": 2932, "\u00e0\u00aa\u00b6": 2933, "\u00e1\u0125\u00aa": 2934, "\u0100\u0100\u0100\u0100": 2935, "........": 2936, "ige": 2937, "\u00e2\u0122\u00a6": 2938, "\u0120\u00d0\u00bf\u00d1\u0122\u00d0\u00be": 2939, "ubl": 2940, "\u00d9\u0128\u00db\u0134": 2941, "\u00e1\u0122\u0143\u00e1\u0122\u00af\u00e1\u0122\u0126\u00e1\u0122\u00b9\u00e1\u0122": 2942, ").": 2943, "\u00a3\u00bc": 2944, "engan": 2945, "\u0120No": 2946, "\u0120\u00ea\u00b2": 2947, "ren": 2948, "\u0120\u00c4\u012f": 2949, "iew": 2950, "aga": 2951, "ros": 2952, "EL": 2953, "\u0120\u00d1\u0124\u00d1\u0122": 2954, "\u0120cl": 2955, "\u0120was": 2956, "ico": 2957, "\u0120\u00cf\u0126\u00ce\u00b1": 2958, "\u0120\u00ec\u0139": 2959, "\u00e8\u00a1\u012e": 2960, "men": 2961, "\u00d7\u0137\u00d7\u0133": 2962, "\u0120amb": 2963, "aha": 2964, "\u00d6\u0124": 2965, "ker": 2966, "\u00e0\u00a4\u00bf\u00e0\u00a4\u00af": 2967, "\u0120meg": 2968, "\u0120\u00d7\u00a8": 2969, "\u0120\u00e0\u00b4\u013c": 2970, "\u00e0\u00ae\u00bf\u00e0\u00ae\u0141": 2971, "\u0120\u00c3\u00ba": 2972, "\u00e0\u00b5\u0123\u00e0\u00b4\u0141": 2973, "\u0120f\u00c3\u00b6r": 2974, "\u0120v\u00c3\u0142": 2975, "\u0120ty": 2976, "\u00e1\u0125\u00a5": 2977, "\u00d8\u00b3\u00db\u012e": 2978, "\u0120jo": 2979, "\u00d0\u00be\u00d0\u00bb\u00d1\u012e": 2980, "\u00ec\u012c\u00a4": 2981, "\u00e0\u00b4\u00bf\u00e0\u00b4\u013c\u00e0\u00b5\u012f\u00e0\u00b4\u013c": 2982, "\u00e1\u0125\u013b": 2983, "\u00e0\u00aa\u00bf\u00e0\u00aa\u0137": 2984, "\u0120mil": 2985, "\u0120\u00e7\u0130": 2986, "\u00d0\u00b0\u00d1\u013c": 2987, "\u00cf\u0123\u00cf\u012e": 2988, "\u00e1\u0122\u0138\u00e1\u0122\u0127\u00e1\u0122\u00b9\u00e1\u0122": 2989, "let": 2990, "eko": 2991, "\u00e5\u0134\u012e": 2992, "\u00e0\u00a4\u00ac": 2993, "\u0120\u00e0\u00aa\u013c": 2994, "\u00e1\u0125\u013a\u00e1\u0125\u0142": 2995, "\u00d7\u013b\u00d7\u0142": 2996, "land": 2997, "ings": 2998, "\u0120wat": 2999, "\u0120\u00e5\u0127": 3000, "\u00e0\u00b1\u0123\u00e0\u00b0\u0124\u00e0\u00b0": 3001, "ju": 3002, "\u00d8\u00af\u00d9\u0129": 3003, "ST": 3004, "\u00d8\u00a7\u00d9\u0128\u00db\u012e": 3005, "\u0120\u00e0\u00a4\u0137\u00e0\u00a4\u00b0": 3006, "\u00cf\u0126\u00ce\u00ae": 3007, "\u00e0\u00a4\u013e": 3008, "ars": 3009, "\u00e6\u013f\u00a5": 3010, "\u0120los": 3011, "\u00ce\u00bf\u00cf\u0127\u00ce\u00bd": 3012, "\u00cf\u0125\u00ce\u00b5\u00ce\u00b9": 3013, "\u0120\u00e4\u00bb": 3014, "\u00e0\u00a6\u00bc": 3015, "\u0120\u00e0\u00aa\u00ae\u00e0\u00aa\u00be\u00e0\u00aa": 3016, "\u0120\u00e1\u00bb\u012f": 3017, "\u00e0\u00b1\u0123\u00e0\u00b0\u0137": 3018, "\u00d7\u0137\u00d7\u0142": 3019, "\u0120\u00e0\u00a6\u00af": 3020, "ben": 3021, "ken": 3022, "eks": 3023, "\u0120@": 3024, "\u00e7\u0136\u0141": 3025, "\u00e0\u00a6\u00be\u00e0\u00a7\u0141": 3026, "\u00e1\u0125\u013f\u00e1\u0125\u0135": 3027, "\u00c5\u0128": 3028, "\u00e1\u00bb\u012d": 3029, "\u00e0\u00a4\u00be\u00e0\u00a4\u00b2": 3030, "\u00e1\u0122\u00b1\u00e1\u0122\u0132\u00e1\u0122\u00ac": 3031, "\u00e1\u0122\u00bd\u00e1\u0122\u0143": 3032, "\u00e6\u00ac": 3033, "\u00e0\u00aa\u0141": 3034, "\u00d9\u012c\u00d9\u0126": 3035, "vel": 3036, "\u0120\u00d8\u00b1\u00d8\u00a7": 3037, "af": 3038, "17": 3039, "\u0120sc": 3040, "\u0120up": 3041, "\u00d0\u00b5\u00d0\u00b1": 3042, "\u00d0\u00be\u00d0\u00bd\u00d0\u00b8": 3043, "\u00e1\u0122\u00b2\u00e1\u0124\u0136": 3044, "\u0120ati": 3045, "\u00d8\u00aa\u00d9\u0127": 3046, "\u00e0\u00ae\u00be\u00e0\u00ae\u00b2": 3047, "\u00e1\u0122\u0132\u00e1\u0122\u00b2\u00e1\u0122\u00b7": 3048, "\u00ec\u013f\u00b8": 3049, "24": 3050, "\u0120kl": 3051, "\u0120\u00d7\u00a4": 3052, "\u00e0\u00ae\u00a9\u00e0\u00af\u012f": 3053, "\u0120\u00e0\u00b0\u00aa\u00e0\u00b1\u012f\u00e0\u00b0\u00b0": 3054, "\u0120\u00e0\u00aa\u0128\u00e0\u00aa\u00b5": 3055, "\u0120<": 3056, "\u00d0\u00b0\u00d0\u00b4\u00d0\u00b8": 3057, "\u013f\u00bc": 3058, "\u00e0\u00aa\u00a7": 3059, "\u00c3\u00b6n": 3060, "\u0120fin": 3061, "\u00e0\u00a6\u00bf\u00e0\u00a6\u00a4": 3062, "\u0120nd": 3063, "\u0120can": 3064, "\u0120pres": 3065, "zt": 3066, "\u0120\u00ce\u00b2": 3067, "\u00e0\u00a6\u00bf\u00e0\u00a7\u0141": 3068, "\u0120\u00e0\u00aa\u00ab": 3069, "\u00e0\u00b5\u0123\u00e0\u00b4\u0137": 3070, "\u00e0\u00af\u012f\u00e0\u00ae\u00b2": 3071, "\u0120ga": 3072, "ero": 3073, "UR": 3074, ");": 3075, "\u00d0\u013f": 3076, "\u0120\u00e1\u0122\u0133": 3077, "\u0120\u00e1\u0125\u00ae": 3078, "\u0120v\u00c9\u013b": 3079, "\u0120seg": 3080, "\u0120inc": 3081, "for": 3082, "\u0120\u00d1\u0124\u00d0\u00b0\u00d0\u00ba": 3083, "33": 3084, "\u00e0\u00b8\u00b2\u00e0\u00b8\u013b": 3085, "66": 3086, "ction": 3087, "\u00eb\u00a6\u00ac": 3088, "\u00d7\u013b\u00d7\u0136": 3089, "\u00e5\u0129\u00ba": 3090, "anya": 3091, "\u0120\u00e0\u00aa\u00aa\u00e0\u00aa\u00b0": 3092, "\u00d1\u0138\u00d0\u00bd": 3093, "\u0120ek": 3094, "\u0139\u00e0\u00b0\u00be": 3095, "\u00e7\u012b\u012a": 3096, "\u0120\u00d1\u0123\u00d0\u00bb": 3097, "\u0120cons": 3098, "\u0120So": 3099, "\u0120\u00e0\u00a4\u0137\u00e0\u00a5\u012d": 3100, "\u00e0\u00ab\u0129\u00e0\u00aa\u00ae": 3101, "\u00e1\u0122\u00b1\u00e1\u0122\u0132\u00e1\u0122\u00bc": 3102, "\u00c3\u00a1m": 3103, "\u00e8\u0129": 3104, "uv": 3105, "\u00e1\u0140": 3106, "\u0120my": 3107, "\u0120gj": 3108, "\u00c9\u0136": 3109, "\u0120\u00cf\u0128": 3110, "\u0120\u00e6\u013e": 3111, "\u0120\u00e0\u00aa\u0137\u00e0\u00ab\u0129": 3112, "alo": 3113, "\u00e0\u00a4\u0141": 3114, "\u00e0\u00a6\u00b9": 3115, "\u00ce\u00bc\u00ce\u00bf": 3116, "\u0120not": 3117, "\u00e5\u00a8": 3118, "\u00e3\u0124\u0135": 3119, "\u00e4\u00b8\u012b": 3120, "go": 3121, "\u00e1\u0125\u00a8\u00e1\u0125\u013a": 3122, "lam": 3123, "\u00d0\u00b0\u00d1\u0130": 3124, "\u0120\u00ec\u013a": 3125, "ald": 3126, "\u00e4\u00bd\u0135": 3127, "\u00e0\u00a4\u00a8\u00e0\u00a5\u0129": 3128, "\u00e1\u0122\u0143\u00e1\u0122\u00b3": 3129, "\u0120\u00c5\u00a1": 3130, "\u0120\u00d8\u00a7\u00d9\u0126\u00d9\u0126": 3131, "\u0120\u00e0\u00a4\u0143": 3132, "\u00e1\u0122\u0143\u00e1\u0122\u00af\u00e1\u0122\u00b8\u00e1\u0122": 3133, "\u00d0\u00b8\u00d0\u00b8": 3134, "\u00e5\u013e\u00b0": 3135, "\u00c4\u00b1\u00c5\u0141": 3136, "\u0120Ho": 3137, "\u0120\u00e0\u00b4\u0128": 3138, "ET": 3139, "tim": 3140, "\u00d1\u0122\u00d1\u012d": 3141, "\u00e7\u00bd\u0133\u00e7\u00ab\u013b": 3142, "\u0120this": 3143, "\u00e0\u00a6\u00be\u00e0\u00a6\u0137": 3144, "\u00e0\u00b0\u00bf\u00e0\u00b0\u0124\u00e0\u00b0\u013c": 3145, "\u00e6\u00b2": 3146, "\u00d0\u00b5\u00d0\u00b6": 3147, "\u0120col": 3148, "als": 3149, "\u00eb\u0131\u0126": 3150, "\u00e0\u00b8\u0138": 3151, "ph": 3152, "\u00e1\u00ba\u00a7": 3153, "\u00c4\u00b1m": 3154, "\u00d1\u0138\u00d0\u00bb": 3155, "\u00db\u012e\u00da\u00a9": 3156, "\u01202010": 3157, "\u0120\u00e0\u00a4\u012b": 3158, "aki": 3159, "ban": 3160, "\u00e0\u00b8\u00a5\u00e0\u00b8\u00b0": 3161, "tir": 3162, "\u0120uz": 3163, "esta": 3164, "\u00ce\u00b1\u00cf\u0124": 3165, "\u0120\u00d7\u0132\u00d7\u00aa": 3166, "\u00eb\u00a7\u012a": 3167, "\u0120kr": 3168, "\u0120\u00eb\u00a7": 3169, "\u0120ny": 3170, "\u0120\u00d0\u00b8\u00d0\u00bc": 3171, "\u0120\u00d0\u00ba\u00d0\u00be": 3172, "\u0120kar": 3173, "\u0120\u00d0\u00bf\u00d0\u00be\u00d0\u00b4": 3174, "chi": 3175, "\u00e1\u0122\u0136\u00e1\u0122\u00b9": 3176, "\u00e5\u012b": 3177, "\u00e0\u00ae\u00b4": 3178, "\u00e0\u00a4\u00bf\u00e0\u00a4\u0137": 3179, "\u0120dengan": 3180, "\u00e1\u0124\u0131\u00e1\u0122\u00bd": 3181, "\u00e1\u0125\u013a\u00e1\u0125\u00aa": 3182, "\u00e4\u00bd\u013e": 3183, "\u0120\u00e1\u0125\u00a4": 3184, "\u00e1\u0122\u0123\u00e1\u0122\u00ba": 3185, "\u0120untuk": 3186, "\u00e8\u012b": 3187, "\u0120\u00ef\u00bc\u012b": 3188, "ces": 3189, "\u00e1\u0125\u0137\u00e1\u0125\u0136\u00e1\u0125\u013c": 3190, "\u0120\u00e1\u0125\u00a5": 3191, "ner": 3192, "cha": 3193, "90": 3194, "\u0120\u00d0\u00b0\u00d0\u00b4": 3195, "anda": 3196, "\u0120\u00e0\u00aa\u0138": 3197, "\u00e1\u0122\u0137\u00e1\u0122\u00bc": 3198, "!!": 3199, "\u00d0\u00be\u00d0\u00b2\u00d0\u00b0": 3200, "ivers": 3201, "\u00e1\u0125\u013f\u00e1\u0125\u013c": 3202, "40": 3203, "55": 3204, "\u00d9\u0127\u00d9\u0128": 3205, "\u0120\u00d0\u00bc\u00d0\u00be\u00d0\u00b6": 3206, "\u0120ini": 3207, "\u00e1\u0123\u00bf\u00e1\u0122\u0137": 3208, "\u00e0\u00af\u012f\u00e0\u00ae\u0137\u00e0\u00ae\u00b3\u00e0\u00af\u012f": 3209, "\u00e0\u00ae\u00bf\u00e0\u00ae\u0137": 3210, "\u00e6\u0125": 3211, "\u0120lang": 3212, "\u00e0\u00ae\u0137\u00e0\u00af\u012f\u00e0\u00ae\u0137": 3213, "ger": 3214, "\u0120kun": 3215, "\u00d8\u00a7\u00db\u0123": 3216, "\u0120ai": 3217, "\u00e1\u0122\u013b\u00e1\u0122\u00be": 3218, "\u0120wh": 3219, "oko": 3220, "\u0120n\u00c4\u0123": 3221, "ild": 3222, "\u00d7\u0138": 3223, "000": 3224, "\u00e0\u00af\u0123\u00e0\u00ae\u00b5": 3225, "\u00c3\u00b3w": 3226, "\u0120\u00d8\u00ba": 3227, "\u00c9\u013bs": 3228, "\u00e3\u0123\u0131": 3229, "\u00e5\u0141": 3230, "\u0120\u00e0\u00a6\u0139": 3231, "\u0120fa": 3232, "po": 3233, "\u00ab\u013a": 3234, "\u00e5\u0127\u00ac": 3235, "eme": 3236, "gen": 3237, "\u00d0\u00b5\u00d0\u00bb\u00d1\u012e": 3238, "\u00cf\u0123\u00ce\u00b3": 3239, "\u0120tot": 3240, "\u00d0\u00b0\u00d1\u0122\u00d0\u00b8": 3241, "\u00ce\u00bc\u00ce\u0143": 3242, "\u0120\u00cf\u0125\u00cf\u0126\u00ce\u00b7": 3243, "\u0120her": 3244, "elle": 3245, "\u00d1\u0122\u00d0\u00b0": 3246, "\u0120Par": 3247, "\u0120\u00e1\u0125\u00a9": 3248, "\u0120\u00e0\u00ae\u0128": 3249, "alt": 3250, "\u0120sup": 3251, "\u00e4\u00be": 3252, "13": 3253, "70": 3254, "\u0120\u00cf\u0125\u00ce\u00b5": 3255, "ste": 3256, "\u00e1\u00bb\u013d": 3257, "AM": 3258, "\u00d9\u0127\u00db\u012e": 3259, "\u00ec\u013a": 3260, "akt": 3261, "\u0120hu": 3262, "\u0120Or": 3263, "\u00e9\u00a1": 3264, "ores": 3265, "jo": 3266, "kin": 3267, "\u00d1\u0136": 3268, "\u0120\u00db\u0123\u00db\u012e\u00da\u00ba": 3269, "\u00e3\u0125\u00ab": 3270, "\u00c3\u00bdch": 3271, "\u013d\u00e0\u00a7\u0129": 3272, "ld": 3273, "\u012032": 3274, "entru": 3275, "ket": 3276, "uta": 3277, "\u00e0\u00ae\u00a3\u00e0\u00af\u012f\u00e0\u00ae\u0141": 3278, "\u00e5\u0132\u012a": 3279, "\u00e0\u00b4\u0141\u00e0\u00b5\u012f\u00e0\u00b4\u0141": 3280, "\u0120Qu": 3281, "\u00e0\u00b9\u0122\u00e0\u00b8\u013d": 3282, "\u00ce\u0141\u00ce": 3283, "\u00e1\u0122\u013d\u00e1\u0122\u00ac": 3284, "\u0120post": 3285, "ien": 3286, "\u0120\u00e2\u0128": 3287, "iko": 3288, "\u0120\u00e5\u0131": 3289, "\u0120vol": 3290, "\u00e0\u00b5\u012c": 3291, "vis": 3292, "\u0120\u00cf\u0122\u00ce\u00b1": 3293, "\u00d1\u0123\u00d1\u012e": 3294, "\u00e0\u00b8\u00b1\u00e0\u00b8\u0129": 3295, "\u00d0\u00be\u00d1\u0129": 3296, "\u00e0\u00b5\u00bd": 3297, "pos": 3298, "\u00e0\u00aa\u00bf\u00e0\u00aa\u00af": 3299, "\u0120str": 3300, "\u0120\u00ec\u012d": 3301, "\u00e1\u0125\u013f\u00e1\u0125\u0142": 3302, "\u0120if": 3303, "\u00ce\u00ac\u00ce\u00bd": 3304, "IT": 3305, "\u00d1\u0124\u00d1\u012e": 3306, "\u0120\u00e0\u00aa\u00a4\u00e0\u00ab\u0129": 3307, "\u0120l\u00c3\u0142": 3308, "\u00e0\u00b8\u00a1\u00e0\u00b9\u012a": 3309, "\u00e1\u0122\u0141": 3310, "\u00ce\u00bf\u00ce\u00bb": 3311, "\u00e0\u00b5\u00bc": 3312, "own": 3313, "\u00d7\u013b\u00d7\u013e": 3314, "\u0120sin": 3315, "\u00d9\u0128\u00da\u00af": 3316, "\u0139\u00e0\u00b8\u00b5\u00e0\u00b9\u012a": 3317, "\u00d9\u012a\u00d8\u00a8": 3318, "\u00e0\u00a7\u0123\u00e0\u00a6": 3319, "\u0120las": 3320, "ush": 3321, "vo": 3322, "\u00d0\u00bd\u00d0\u00be\u00d0\u00b3\u00d0\u00be": 3323, "\u00cf\u0126\u00cf\u012e": 3324, "\u012045": 3325, "\u00d5\u00b8\u00d6\u0124": 3326, "ott": 3327, "\u00d0\u00a2": 3328, "\u00ec\u012d\u013e": 3329, "\u00c5\u00a3": 3330, "\u00c3\u00a4\u00c3\u00a4": 3331, "\u00d0\u0137": 3332, "\u00eb\u0127": 3333, "\u00e0\u00ae\u00bf\u00e0\u00ae\u00a4": 3334, "\u00e0\u00b0\u00be\u00e0\u00b0\u00b0\u00e0\u00b1\u0123": 3335, "alit": 3336, "\u00e0\u00b4\u00aa\u00e0\u00b5\u012f\u00e0\u00b4\u00aa": 3337, "\u00d0\u00b0\u00d0\u00b3\u00d0\u00b0": 3338, "\u0120Per": 3339, "\u00e1\u0122\u0143\u00e1\u0122\u00af\u00e1\u0122\u0126\u00e1\u0122\u00ba": 3340, "\u00c3\u00b9": 3341, "\u0120bel": 3342, "\u0120\u00d7\u00a7": 3343, "\u0120seb": 3344, "\u0120\u00e1\u0122\u00bb": 3345, "\u00e0\u00b8\u00b1\u00e0\u00b8\u013b": 3346, "\u0120ein": 3347, "\u0120yo": 3348, "\u0120car": 3349, "\u00d1\u0125\u00d0\u00ba": 3350, "\u00e0\u00b0\u00a8\u00e0\u00b0\u00bf": 3351, "\u0120Pl": 3352, "\u0120\u00e0\u00ab": 3353, "\u00eb\u00a5\u00bc": 3354, "\u00d0\u00be\u00d1\u012a": 3355, "ille": 3356, "\u0120\u00e0\u00a6\u013c": 3357, "\u0120\u00ce\u00bb": 3358, "fic": 3359, "\u00e5\u013e\u00a8\u00e7\u00ba\u00bf": 3360, "\u0120\u00e0\u00aa\u012b": 3361, "\u0120\u00ce\u00b1\u00ce\u00bd": 3362, "\u00e0\u00b8\u00b6": 3363, "\u0120sur": 3364, "\u00e0\u00b8\u00b1\u00e0\u00b8\u013b\u00e0\u00b8": 3365, "\u0120\u00d1\u012b": 3366, "\u00d9\u0129\u00d9\u0127": 3367, "\u00f0\u0141": 3368, "\u00e0\u00a6\u00be\u00e0\u00a6\u00a6": 3369, "\u00e0\u00aa\u00b5\u00e0\u00aa\u00be": 3370, "l\u00c9\u013br": 3371, "\u0120sem": 3372, "\u0120\u00ef\u00bc\u012a": 3373, "\u00e1\u0122\u0132\u00e1\u0122\u00bd": 3374, "\u0120tid": 3375, "\u0120p\u00c5\u013b": 3376, "\u0120dr": 3377, "\u00e0\u00aa\u00ac": 3378, "\u00e1\u0122\u00bb\u00e1\u0122\u0137": 3379, "\u0120ker": 3380, "ideo": 3381, "\u00e5\u00b0\u0131": 3382, "\u00e8\u00be": 3383, "\u0120dem": 3384, "\u00d8\u00a6\u00db\u0134": 3385, "\u00ce\u00bb\u00ce\u00b7": 3386, "\u00d0\u00b8\u00d1\u0127": 3387, "\u00e1\u0125\u00ac": 3388, "\u0120inform": 3389, "ova": 3390, "\u00e6\u013e\u00ac": 3391, "\u0120Te": 3392, "\u00d0\u00b8\u00d0\u00bd\u00d0\u00b0": 3393, "oma": 3394, "\u0120\u00ec\u0126": 3395, "\u00d9\u0126\u00d8\u00a7\u00d9\u0127": 3396, "\u00e0\u00b8\u00b2\u00e0\u00b8\u0129": 3397, "\u0120Az": 3398, "\u00e6\u013b": 3399, "ign": 3400, "\u0120sl": 3401, "\u00e5\u00b8\u0124": 3402, "\u00e0\u00aa\u00a8\u00e0\u00ab\u012f\u00e0\u00aa": 3403, "\u00ea\u00b1": 3404, "\u00e6\u00b1": 3405, "\u0120sy": 3406, "\u00e0\u00a7\u012f\u00e0\u00a6\u0141": 3407, "\u0120New": 3408, "\u00e5\u013f\u0122": 3409, "\u0120\u00cf\u0127": 3410, "\u0120\u00e1\u0122\u013a": 3411, "ahi": 3412, "\u0120vis": 3413, "\u00d1\u0122\u00d0\u00b0\u00d1": 3414, "\u0120tre": 3415, "\u0120Pre": 3416, "IC": 3417, "\u00e6\u00b3\u00a8": 3418, "\u0120\u00e1\u00b9\u00a3": 3419, "\u00e1\u0125\u0136\u00e1\u0125\u0133\u00e1\u0125\u00a1": 3420, "\u0120mit": 3421, "\u0120Gr": 3422, "\u0120ist": 3423, "cz": 3424, "uma": 3425, "aba": 3426, "iya": 3427, "\u0120kw": 3428, "\u0120\u00e0\u00b0\u00ac": 3429, "\u00c4\u0123s": 3430, "\u00eb\u00b0": 3431, "ook": 3432, "\u0120\u00ce\u0141": 3433, "\u0120As": 3434, "uf": 3435, "\u0120kas": 3436, "\u0120\u00e0\u00aa\u00aa\u00e0\u00aa\u00a3": 3437, "\u0120Er": 3438, "----": 3439, "\u00e0\u00b0\u00b0\u00e0\u00b1\u012f\u00e0\u00b0": 3440, "ional": 3441, "sz": 3442, "\u00ed\u0137\u00b4": 3443, "\u0120\u00c5\u00be": 3444, "\u00e6\u012a\u00b7": 3445, "\u0120dos": 3446, "\u00cf\u012b\u00cf\u0124": 3447, "atur": 3448, "\u0120\u00e0\u00a4\u0129": 3449, "\u0120ra": 3450, "\u012060": 3451, "eder": 3452, "ono": 3453, "\u0120Ph": 3454, "\u00e7\u0132\u0128": 3455, "\u0120\u00e0\u00a4\u00b8\u00e0\u00a5\u0129": 3456, "\u00e1\u0122\u00ac\u00e1\u0122\u0126\u00e1\u0122\u00b9\u00e1\u0122": 3457, "\u0120vir": 3458, "\u0120\u00d0\u00a4": 3459, "\u0120\u00e1\u0125\u0132\u00e1\u0125\u013d": 3460, "\u00e1\u0122\u0134": 3461, "\u00e6\u012e": 3462, "\u0120\u00ea\u00b3": 3463, "ados": 3464, "\u0120\u00e0\u00b8\u0123": 3465, "\u00ce\u00af\u00ce\u00bd\u00ce\u00b1\u00ce\u00b9": 3466, "\u00e5\u00bd\u00a9\u00e7\u00a5": 3467, "60": 3468, "25": 3469, "pt": 3470, "\u0120\u00d9\u0127\u00d8\u00b3": 3471, "\u00ed\u012c": 3472, "\u0120\u00e0\u00b0\u00a6": 3473, "\u0120q\u00c3\u00ab": 3474, "rac": 3475, "\u00c3\u00a6r": 3476, "\u00d0\u00b0\u00d0\u00bb\u00d1\u0138": 3477, "ock": 3478, "\u00c2\u00b5": 3479, "\u00d1\u0125\u00d1\u0130": 3480, "\u00e0\u00aa\u00be\u00e0\u00aa\u00ae\u00e0\u00aa\u00be\u00e0\u00aa\u0124": 3481, "angan": 3482, "\u012034": 3483, "\u0120\u00e0\u00b0\u0129": 3484, "\u00e0\u00b5\u0129\u00e0\u00b4": 3485, "\u00ce\u0139": 3486, "\u012033": 3487, "\u00e0\u00a5\u012f\u00e0\u00a4\u00a4": 3488, "\u0120\u00d8\u00a7\u00d9\u0126\u00d9\u0124": 3489, "\u00e1\u00bb\u00b1": 3490, "\u0120\u00d0\u0141\u00d1\u0122": 3491, "\u00af\u00e0\u00a6\u00bc": 3492, "\u00e4\u00b8\u00ba": 3493, "\u00e6\u013e\u012a": 3494, "\u00da\u0133": 3495, "\u0120pot": 3496, "\u00e0\u00aa\u00a8\u00e0\u00ab\u012d": 3497, "\u00e0\u00b9\u0126\u00e0\u00b8\u0136\u00e0\u00b9\u012b": 3498, "\u0120Na": 3499, "\u00c6\u00b0\u00e1\u00bb\u013f": 3500, "\u00cf\u0123\u00ce\u00b5": 3501, "\u0120\u00d8\u00a7\u00d9\u0126\u00d8\u00ac": 3502, "OS": 3503, "\u00e0\u00b9\u012b\u00e0\u00b8\u0143": 3504, "\u00d9\u0128\u00db\u012e": 3505, "\u00e1\u0122\u00af\u00e1\u0122\u0137\u00e1\u0122\u00b9\u00e1\u0122": 3506, "\u0120Vi": 3507, "aks": 3508, "\u00d5\u00a1\u00d5\u00b6": 3509, "\u0120\u00d7\u0134": 3510, "\u00e4\u00b8\u00aa": 3511, "ci\u00c3\u00b3n": 3512, "\u00e0\u00b8\u00b1\u00e0\u00b9\u012b": 3513, "\u00d9\u0126\u00d9\u012b": 3514, "fr": 3515, "\u00d0\u00b0\u00d0\u00bb\u00d0\u00b8": 3516, "\u0120\u00e0\u00a4\u00aa\u00e0\u00a5\u012f\u00e0\u00a4\u00b0": 3517, "\u00e7\u00be\u0130": 3518, "\u0120tur": 3519, "\u00e3\u0122\u0124": 3520, "\u0120\u00e0\u00a6\u00ac\u00e0\u00a6\u00bf\u00e0\u00a6": 3521, "ania": 3522, "\u00e3\u0123\u012f": 3523, "\u00d1\u012c\u00d1\u0122": 3524, "une": 3525, "\u0120over": 3526, "\u0120\u00d8\u00b9\u00d9\u0128": 3527, "\u00e0\u00b4\u00bf\u00e0\u00b4\u0137": 3528, "\u0120\u00d0\u00bf\u00d1\u0122\u00d0\u00b5\u00d0\u00b4": 3529, "\u00ec\u00b9": 3530, "\u0120dar": 3531, "**": 3532, "\u0120\u00d9\u0128\u00db\u0123": 3533, "\u00e1\u0125\u013f\u00e1\u0125\u0134": 3534, "\u0120\u00e0\u00a4\u00b6": 3535, "\u0120\u00d0\u00b4\u00d0\u00bb\u00d1\u0131": 3536, "\u0120Det": 3537, "\u00ce\u00bd\u00ce\u00b7": 3538, "tig": 3539, "\u00eb\u00b3": 3540, "\u00d8\u00b1\u00d8\u00a7\u00d9\u0128": 3541, "\u0120\u00d0\u00a5": 3542, "ativ": 3543, "\u0120\u00e0\u00a8": 3544, "\u00ce\u00ae\u00cf\u0124": 3545, "\u00cf\u0125\u00ce\u00b5": 3546, "\u00d8\u00a7\u00d8\u00b5": 3547, "\u0120Sa": 3548, "\u00e3\u0124\u00af": 3549, "\u0120\u00d7\u013e\u00d7\u0136": 3550, "\u00e7\u013e\u0141": 3551, "\u0120person": 3552, "IS": 3553, "\u0120non": 3554, "\u00e6\u0126": 3555, "\u00e0\u00aa\u00be\u00e0\u00aa\u00b8": 3556, "\u00e1\u0125\u013f\u00e1\u0125\u0142\u00e1\u0125": 3557, "\u00e9\u013d\u0128": 3558, "\u00e7\u0136\u00b5": 3559, "\u00e0\u00b4\u00b3\u00e0\u00b5\u012f\u00e2\u0122\u012f": 3560, "ekt": 3561, "of": 3562, "\u00e0\u00b9\u0125\u00e0\u00b8\u00ab": 3563, "\u00e8\u00a7\u0128": 3564, "\u0120\u00d0\u00bc\u00d1\u0125": 3565, "este": 3566, "ath": 3567, "\u00e3\u0125\u00a9": 3568, "\u0120voor": 3569, "\u00c9\u013bk": 3570, "\u00e4\u00b8\u013c": 3571, "\u00e1\u0125\u013a\u00e1\u0125\u00a2": 3572, "\u00e6\u00af": 3573, "oi": 3574, "\u0120\u00e1\u0125\u0135\u00e1\u0125\u0132\u00e1\u0125": 3575, "\u00e0\u00a6\u00be\u00e0\u00a6\u00a4": 3576, "\u00e1\u0125\u0135\u00e1\u0125\u0132": 3577, "ote": 3578, "\u00ce\u0133\u00ce": 3579, "able": 3580, "\u0120Bar": 3581, "yi": 3582, "\u0120https": 3583, "\u00d1\u0122\u00d0\u00b0\u00d0\u00bd": 3584, "\u00e0\u00a7\u012f\u00e0\u00a6\u00ac": 3585, "\u0120pu": 3586, "\u0120\u00d7\u0135": 3587, "\u00d1\u0125\u00d0\u00bf": 3588, "rav": 3589, "par": 3590, "\u00e0\u00b8\u00b5\u00e0\u00b8\u00a2": 3591, "\u00e8\u012a": 3592, "\u00e0\u00b4\u00be\u00e0\u00b4\u00a3\u00e0\u00b5\u012f": 3593, "\u00e9\u013a": 3594, "\u0120nj\u00c3\u00ab": 3595, "\u00ec\u0137\u012a": 3596, "\u00e0\u00ab\u012f\u00e0\u00aa\u00b5": 3597, "\u00b2\u00e0\u00b1\u012d": 3598, "\u00d0\u00b0\u00d0\u00bd\u00d0\u00bd\u00d1\u0131": 3599, "\u0120nga": 3600, "\u00c4\u00bc": 3601, "ree": 3602, "ents": 3603, "\u00e8\u00a6\u0123": 3604, "\u0120\u00e0\u00b0\u012b": 3605, "\u0120ho\u00ca\u00bb": 3606, "\u00b1\u00e4\u00b9\u0132": 3607, "\u0120\u00e1\u0125\u0134\u00e1\u0125\u0132\u00e1\u0125\u013d": 3608, "con": 3609, "\u0120Post": 3610, "\u0120Ne": 3611, "\u00e1\u0125\u013a\u00e1\u0125\u013b": 3612, "44": 3613, "\u00c4\u00b0": 3614, "\u00c4\u0123k": 3615, "\u00d0\u00b5\u00d0\u00bf": 3616, "\u0120\u00d0\u0137": 3617, "\u00e1\u0122\u00b1\u00e1\u0122\u00ac\u00e1\u0122\u0126\u00e1\u0122\u00ba": 3618, "\u00ce\u00bb\u00ce\u00b1": 3619, "\u00c9\u013bd": 3620, "\u00e8\u0125\u00bd": 3621, "ades": 3622, "\u0120mal": 3623, "\u00d8\u00a6\u00db\u012e": 3624, "\u00e3\u0122\u0133": 3625, "\u0120nem": 3626, "\u00e7\u0142": 3627, "edi": 3628, "\u00e0\u00a6\u00bf\u00e0\u00a6\u00b0": 3629, "\u00d0\u00b5\u00d0\u00bb\u00d0\u00b8": 3630, "\u00e5\u0127\u00a8": 3631, "\u0120\u00e0\u00b0\u0139": 3632, "\u0120\u00e0\u00a4\u0131": 3633, "\u0120Bl": 3634, "\u00e0\u00b8\u0135": 3635, "met": 3636, "\u00d8\u00af\u00d9\u0127": 3637, "bet": 3638, "\u0120\u00e2\u0122\u013f,": 3639, "\u0120ez": 3640, "\u0120ei": 3641, "\u0120c\u00c3\u00b3": 3642, "\u0120\u00e0\u00b8\u0126": 3643, "\u00d8\u00b1\u00d9\u0127": 3644, "ago": 3645, "\u00d0\u00b0\u00d1\u0124\u00d1\u012e": 3646, "\u0120inf": 3647, "\u00e5\u00ae\u013a\u00e6\u0138\u00b9": 3648, "\u00e9\u013b\u0127": 3649, "\u00eb\u00b6": 3650, "\u0120has": 3651, "\u0120\u00d9\u0127\u00d8\u00b4": 3652, "\u00e6\u012a\u0132": 3653, "orn": 3654, "lar\u00c4\u00b1n": 3655, "\u0120online": 3656, "\u00d0\u00bb\u00d0\u00b0\u00d0\u00b4": 3657, "\u00e0\u00a6\u013e": 3658, "\u00e5\u0143\u0132": 3659, "\u00d1\u0123\u00d0\u00bf": 3660, "\u0120ud": 3661, "\u00e1\u0122\u00b1\u00e1\u0122\u013e": 3662, "\u0120\u00d8\u00a7\u00d9\u0126\u00d9\u0128": 3663, "ella": 3664, "\u0120\u00e0\u00a4\u013c": 3665, "\u0120\u00e5\u0129": 3666, "\u00e0\u00a5\u0123\u00e0\u00a4": 3667, "\u0120\u00d7\u0136\u00d7\u0140\u00d7": 3668, "\u00ce\u00bf\u00ce\u00bd": 3669, "\u0120pal": 3670, "\u00e0\u00b4\u00a6": 3671, "\u00e5\u0122": 3672, "\u0120das": 3673, "\u00e5\u0135\u0123": 3674, "\u0120prof": 3675, "\u00e0\u00a6\u0129": 3676, "anc": 3677, "\u0120\u00cf\u0126\u00cf\u012b\u00ce\u00bd": 3678, "\u0120ale": 3679, "\u00e0\u00ae\u00bf\u00e0\u00ae\u00a9\u00e0\u00af\u012f": 3680, "ml": 3681, "\u0120\u00ce\u00b5\u00ce\u00af\u00ce\u00bd\u00ce\u00b1\u00ce\u00b9": 3682, "\u00c4\u00be": 3683, "\u0120US": 3684, "inin": 3685, "\u00e0\u00b1\u012f\u00e0\u00b0\u00aa": 3686, "\u0120\u00d0\u00b9": 3687, "\u0120\".": 3688, "\u0120Is": 3689, "\u00eb\u0142": 3690, "\u0120He": 3691, "\u00e1\u00ba\u00a5t": 3692, "\u01202009": 3693, "\u00e1\u0122\u013b\u00e1\u0122\u00bd\u00e1\u0122\u00ac": 3694, "\u00d1\u0123\u00d0\u00ba\u00d0\u00b0": 3695, "ED": 3696, "\u00c4\u00b1z": 3697, "\u00e7\u0143": 3698, "\u00ce\u00bb\u00ce\u00b5": 3699, "\u00d2\u0135": 3700, "\u0120form": 3701, "br": 3702, "\u0120\u00d1\u0124\u00d0\u00b0": 3703, "\u0120,\"": 3704, "\u00e1\u0122\u0132\u00e1\u0122\u00bc": 3705, "ann": 3706, "\u00d0\u00b5\u00d0\u00ba\u00d1\u0124": 3707, "\u0120\u00d8\u00a7\u00d9\u0126\u00d8\u00a8": 3708, "\u00d3\u00a3": 3709, "\u0120\u00e0\u00b4\u00b0": 3710, "\u00e0\u00b0\u00a8\u00e0\u00b1\u012f\u00e0\u00b0\u00a8": 3711, "\u00e0\u00a6\u00be\u00e0\u00a6\u00ac": 3712, "\u00e1\u0122\u013e\u00e1\u0122\u0143\u00e1\u0122\u00af": 3713, "\u00ed\u013b": 3714, "\u0120\u00d1\u012a\u00d1\u0124\u00d0\u00be": 3715, "oli": 3716, "\u0120sex": 3717, "\u00c6\u00b0\u00e1\u00bb\u00a3": 3718, "\u00e9\u0125": 3719, "\u0120\u00d7\u013e\u00d7\u0132": 3720, "\u00c3\u00b6z": 3721, "ary": 3722, "\u0120199": 3723, "\u0120\u00e0\u00b4\u00aa\u00e0\u00b5\u012f\u00e0\u00b4\u00b0": 3724, "\u00e0\u00af\u012f\u00e0\u00ae\u00b3": 3725, "\u00e0\u00aa\u00bf\u00e0\u00aa\u00a4": 3726, "\u00e0\u00ae\u00bf\u00e0\u00ae\u0137\u00e0\u00af\u012f\u00e0\u00ae\u0137": 3727, "ely": 3728, "\u0120Sex": 3729, "\u0120sv": 3730, "gram": 3731, "\u00e0\u00b8\u013e": 3732, "\u0120ts": 3733, "\u00ce\u00ba\u00ce\u00b5": 3734, "\u0120nov": 3735, "\u0120hi": 3736, "hl": 3737, "ance": 3738, "do": 3739, "\u0120vy": 3740, "ose": 3741, "\u0120m\u00c3\u00bc": 3742, "\u0120\u00d8\u00a7\u00d9\u0126\u00d8\u00b4": 3743, "\u0120\u00ec\u00a7": 3744, "\u00e3\u0123\u0135": 3745, "\u0120\u00d9\u0127\u00d8\u00b1": 3746, "\u00e1\u0122\u00b8\u00e1\u0122\u00b1\u00e1\u0122": 3747, "\u0120Bu": 3748, "\u00db\u012e\u00d8\u00aa": 3749, "\u00e9\u0139\u00a8": 3750, "\u0120inst": 3751, "\u0120ce": 3752, "\u00ed\u012c\u00b8": 3753, "\u00e3\u0125\u00aa": 3754, "\u0120Me": 3755, "\u00d0\u00b8\u00d0\u00b1": 3756, "\u00d1\u012d\u00d1\u0131": 3757, "\u00e1\u00ba\u00a1i": 3758, "\u0120fe": 3759, "hr": 3760, "\u00e3\u0123\u00be\u00e3\u0123\u013b": 3761, "\u0120And": 3762, "raf": 3763, "\u00e4\u00bb\u00a5": 3764, "\u00e7\u0124": 3765, "\u0120\u00d8\u00aa\u00d8\u0143": 3766, "\u00e0\u00ae\u00be\u00e0\u00ae\u00a4": 3767, "ode": 3768, "\u00c3\u00abt": 3769, "\u00e5\u00a8\u00b1\u00e4\u00b9\u0132": 3770, "ual": 3771, "\u00c3\u0143n": 3772, "\u00e0\u00aa\u00b0\u00e0\u00ab\u0122": 3773, "\u0120dec": 3774, "\u00d8\u00a7\u00d9\u012d": 3775, "uro": 3776, "uan": 3777, "\u0120\u00e2\u0122\u012d\u00e2\u0122\u012d": 3778, "uss": 3779, "ws": 3780, "\u0120\u00d8\u00aa\u00d8\u00b9": 3781, "dz": 3782, "\u00d9\u0127\u00d8\u00af": 3783, "\u00d0\u00bd\u00d1\u012d\u00d1\u0127": 3784, "\u00e0\u00b5\u0123\u00e0\u00b4\u00a4": 3785, "\u00e0\u00b5\u0128\u00e0\u00b4\u00af": 3786, "\u0120Br": 3787, "\u00e9\u00ab\u013a": 3788, "\u00c3\u00a9m": 3789, "\u00e0\u00aa\u013c": 3790, "\u00e0\u00b4\u00a3\u00e0\u00b5\u012f\u00e0\u00b4\u0141": 3791, "\u0120\u00e5\u00b0": 3792, "ande": 3793, "\u0120To": 3794, "\u00e0\u00ab\u0129\u00e0\u00aa\u00b5": 3795, "ido": 3796, "\u00e5\u012a\u00b0": 3797, "\u00d0\u00b5\u00d0\u00bd\u00d0\u00bd\u00d1\u0131": 3798, "\u00d9\u0122\u00d9\u0122": 3799, "\u00e0\u00b5\u012f\u00e2\u0122\u012e": 3800, "apat": 3801, "\u0120It": 3802, "\u0120\u00e1\u0125\u013f": 3803, "\u00e0\u00a6\u00be\u00e0\u00a6\u00b8": 3804, "28": 3805, "\u0120cn": 3806, "\u00e5\u00a4\u013c": 3807, "ator": 3808, "\u00d0\u00bd\u00d0\u00b8\u00d0\u00bd\u00d0\u00b3": 3809, "\u0120Es": 3810, "\u00d7\u013b\u00d7\u0141": 3811, "inen": 3812, "usi": 3813, "\u00c4\u0123r": 3814, "\u0120out": 3815, "\u0120\u00d8\u00a7\u00d9\u0126\u00d9\u0123": 3816, "\u012038": 3817, "\u00e1\u0124\u0122": 3818, "\u0120tel": 3819, "\u00ec\u00a3\u00bc": 3820, "\u0120\u00ec\u013f\u00b4": 3821, "\u00e0\u00a6\u00be\u00e0\u00a6\u0129": 3822, "\u00d9\u0129\u00d8\u00a7\u00db\u012e": 3823, "\u0120\u00e0\u00aa\u0131\u00e0\u00aa\u0137": 3824, "\u0120\u00ce\u00b1\u00cf\u0127": 3825, "\u00d0\u00b0\u00d1\u013a": 3826, "\u0120Ka": 3827, "\u00e0\u00b5\u0123\u00e0\u00b4\u00ae": 3828, "\u0120\u00d0\u00b3\u00d0\u00be\u00d0\u00b4": 3829, "\u0120como": 3830, "\u0120sek": 3831, "\u00e0\u00a6\u0124": 3832, "\u0120\u00d0\u00ba\u00d0\u00be\u00d0\u00bc": 3833, "\u00d9\u012a\u00d8\u00b2": 3834, "\u0120\u00e0\u00a6\u012b": 3835, "ux": 3836, "\u00e0\u00ae\u00aa": 3837, "\u00d0\u00b5\u00d0\u00bd\u00d0\u00b8\u00d0\u00b5": 3838, "\u0120\u00cf\u0122\u00ce\u00b5": 3839, "\u00d0\u00b5\u00d1\u0128": 3840, "\u00d9\u012a\u00d8\u00b9": 3841, "\u00e1\u00bb\u013di": 3842, "\u0120\u00d7\u00a1": 3843, "\u0120ev": 3844, "\u0120sch": 3845, "alis": 3846, "\u0120=\"": 3847, "\u00e3\u0123\u0139\u00e3\u0123\u00a6": 3848, "\u00bb\u00bf": 3849, "\u0120Man": 3850, "\u00e0\u00b9\u0122\u00e0\u00b8\u00a5": 3851, "\u00e0\u00b0\u0139": 3852, "ikan": 3853, "\u00d0\u00bc\u00d0\u00b8": 3854, "\u0120set": 3855, "\u00e3\u0123\u0137": 3856, "\u00e4\u00ba\u00ac": 3857, "erk": 3858, "\u0120Ac": 3859, "\u00c4\u00b1l": 3860, "uni": 3861, "\u0120\u00d9\u0129\u00d9\u0127": 3862, "\u00d7\u0133\u00d7\u00a8": 3863, "\u0120\u00e0\u00a6\u0135": 3864, "\u00e0\u00af\u012f\u00e0\u00ae\u00b5": 3865, "\u00d8\u00a7\u00d8\u00ae": 3866, "IL": 3867, "\u00d1\u0125\u00d0\u00b2\u00d0\u00b0": 3868, "\u0120leg": 3869, "\u0120web": 3870, "\u0120from": 3871, "\u0120\u00e7\u0130\u00af\u00e4\u00ba\u013c": 3872, "esh": 3873, "\u012080": 3874, "\u00d7\u0142\u00d7\u013b": 3875, "\u00d0\u00b0\u00d1\u013c\u00d0\u00b5": 3876, "\u00e0\u00af\u0123\u00e0\u00ae\u00ae": 3877, "\u0120\u00e0\u00ae\u013c\u00e0\u00af\u0128": 3878, "\u00eb\u012d\u012a\u00eb\u012d\u00a4": 3879, "\u00e0\u00b8\u00b1\u00e0\u00b8\u0123": 3880, "\u00c3\u0143m": 3881, "\u0120\u00c3\u00a4r": 3882, "\u00e3\u0122\u0133\u00e3\u0122\u0132": 3883, "ament": 3884, "\u00c3\u00a9t": 3885, "\u0120\u00e4\u00ba\u013c\u00e6\u00b8\u00b8": 3886, "\u00e1\u0125\u0142\u00e1\u0125\u0139": 3887, "\u00e5\u0143\u00a6": 3888, "\u00e0\u00ae\u00b2\u00e0\u00af\u012f": 3889, "\u0120\u00ef\u00bf\u00bd\u00ef\u00bf\u00bd\u00ef\u00bf\u00bd\u00ef\u00bf\u00bd\u00ef\u00bf\u00bd\u00ef\u00bf\u00bd": 3890, "\u00e1\u0125\u013a\u00e1\u0125\u0137": 3891, "AD": 3892, "uks": 3893, "\u00c3\u00a1v": 3894, "erg": 3895, "\u00e8\u00a8": 3896, "ions": 3897, "\u00e1\u0124\u0122\u00e1\u0122\u0122": 3898, "\u0120\u00e1\u0122\u0138": 3899, "\u00e0\u00aa\u0124\u00e0\u00aa\u0139": 3900, "\u00e0\u00a4\u00bf\u00e0\u00a4\u00a4": 3901, "\u0120For": 3902, "\u0120Car": 3903, "\u00e9\u0134": 3904, "\u0120net": 3905, "OL": 3906, "\u0120\u00d8\u00a7\u00d9\u0126\u00d8\u00a5": 3907, "\u00d1\u0125\u00d1\u012a": 3908, "\u00e0\u00b4\u00a4\u00e0\u00b5\u012f": 3909, "\u012037": 3910, "\u0120\u00e0\u00a6\u0143": 3911, "ID": 3912, "\u00e8\u0123": 3913, "\u0120\u00d7\u00a2\u00d7\u013e": 3914, "\u0120mem": 3915, "\u0120\u00e5\u00bd": 3916, "\u00e1\u0125\u0136\u00e1\u0125\u00a2": 3917, "ular": 3918, "zo": 3919, "\u0120\u00d0\u00ba\u00d0\u00b0\u00d0\u00ba": 3920, "\u012055": 3921, "\u0120sol": 3922, "\u0120s\u00c3\u00a5": 3923, "\u00d8\u00af\u00d8\u00b1": 3924, "\u0120c\u00e1\u00bb\u00a7": 3925, "\u00d0\u013c": 3926, "23": 3927, "\u0120\u00eb\u0124": 3928, "\u00e0\u00a9": 3929, "wi": 3930, "\u0120fi": 3931, "WW": 3932, "iden": 3933, "\u0120\u00e0\u00b0\u0130": 3934, "\u0120\u00e5\u00ae": 3935, "\u00d0\u00b4\u00d0\u00b0\u00d0\u00bd": 3936, "\u0120\u00c4\u0132": 3937, "\u0120.,": 3938, "\u00e0\u00b0\u0137\u00e0\u00b1\u012f\u00e0\u00b0": 3939, "\u00e4\u00ba\u012d": 3940, "atis": 3941, "\u00e0\u00a6\u00a3": 3942, "\u0120c\u00e1\u00bb\u00a7a": 3943, "\u0120your": 3944, "\u00e1\u0125\u013a\u00e1\u0125\u013d": 3945, "ork": 3946, "\u0141\u00e0\u00ab\u0129": 3947, "\u0120este": 3948, "\u012039": 3949, "\u00e0\u00ae\u00be\u00e0\u00ae\u0141": 3950, "\u00e1\u0122\u013b\u00e1\u0122\u00bb": 3951, "\u0120kur": 3952, "\u00d7\u013c": 3953, "oka": 3954, "ays": 3955, "eka": 3956, "\u0120\u00e0\u00aa\u00b8\u00e0\u00aa\u00be\u00e0\u00aa": 3957, "\u00e0\u00b7": 3958, "\u00e0\u00a7\u0129\u00e0\u00a6\u0137": 3959, "\u0120Inter": 3960, "\u00d0\u00b5\u00d0\u00bd\u00d0\u00b0": 3961, "\u0120trans": 3962, "\u00e3\u0123\u00a3\u00e3\u0123\u00a6": 3963, "\u0120\u00e0\u00a4\u0136": 3964, "\u0120mes": 3965, "\u00e0\u00b0\u00be\u00e0\u00b0\u00af": 3966, "\u00cf\u012a": 3967, "\u0120tar": 3968, "\u00e7\u00a8": 3969, "pres": 3970, "45": 3971, "\u00e1\u00bb\u00a9": 3972, "\u00c3\u00a4t": 3973, "\u00d9\u012c\u00d9\u0127": 3974, "\u0120cor": 3975, "\u00e5\u00b7\u00a5": 3976, "\u0120ins": 3977, "26": 3978, "yk": 3979, "\u0120\u00d7\u0138": 3980, "\u00e0\u00b9\u012a\u00e0\u00b8\u013b": 3981, "\u0120tse": 3982, "\u00d1\u0135": 3983, "\u0120aan": 3984, "\u00e0\u00a7\u013e": 3985, "\u0120sm": 3986, "\u0120\u00e8\u00bf": 3987, "wan": 3988, "\u00d0\u00b0\u00d2\u00b3": 3989, "eti": 3990, "\u00e0\u00af\u012f\u00e0\u00ae\u00a9": 3991, "\u00ec\u0140\u0132": 3992, "\u00db\u012e\u00d8\u00b4": 3993, "\u0120\u00e0\u00aa\u00b5\u00e0\u00aa\u00bf\u00e0\u00aa": 3994, "\u0120\u00e0\u00a4\u00aa\u00e0\u00a4\u00b0": 3995, "\u00c4\u00b1nda": 3996, "\u00e0\u00a4\u00a7": 3997, "\u0120cas": 3998, "\u0120COM": 3999, "\u00e7\u013b\u00bb": 4000, "\u0120lati": 4001, "\u00e7\u00a4": 4002, "\u00e0\u00af\u0123\u00e0\u00ae\u00a4\u00e0\u00af\u012f\u00e0\u00ae\u00a4": 4003, "\u00e1\u00bb\u00a5": 4004, "\u0141\u00e0\u00b8\u00a3\u00e0\u00b8\u00b5": 4005, "\u00da\u00af\u00d8\u00b1": 4006, "\u0120\u00eb\u012d": 4007, "\u0120\u00e0\u00b0\u013e": 4008, "\u0120nos": 4009, "eci": 4010, "\u00a6\u00e0\u00b0\u00bf": 4011, "\u00ec\u013e\u00bc": 4012, "\u00e8\u00bd\u00a6": 4013, "\u0120\u00d0\u00ba\u00d0\u00be\u00d0\u00bd": 4014, "pi": 4015, "alan": 4016, "iku": 4017, "\u00e1\u0125\u0137\u00e1\u0125\u013a\u00e1\u0125\u00a1": 4018, "\u0120\u00ea\u00b7": 4019, "\u00e0\u00aa\u00be\u00e0\u00aa\u013e": 4020, "\u012048": 4021, "\u00e0\u00af\u0123\u00e0\u00ae\u0141": 4022, "\u0120Ex": 4023, "\u0120sta": 4024, "\u00d9\u0126\u00d9\u0125": 4025, "\u00e5\u0123": 4026, "chen": 4027, "\u00e3\u0123\u0124": 4028, "ht\u00c3\u00ab": 4029, "jet": 4030, "\u00d0\u00bb\u00d0\u00b8\u00d0\u00ba": 4031, "\u00e0\u00aa\u00be\u00e0\u00aa\u00b2": 4032, "\u012090": 4033, "\u0120rel": 4034, "\u00d0\u00be\u00d1\u0122\u00d0\u00b8": 4035, "\u0120k\u00c4\u0123": 4036, "\u00d9\u012a\u00d8\u00a7\u00d9\u0128": 4037, "\u0120mul": 4038, "\u00e1\u0125\u0136\u00e1\u0125\u0134": 4039, "\u00e5\u00ae\u012b": 4040, "amo": 4041, "\u0120bol": 4042, "\u0120\u00e0\u00a4\u00b9\u00e0\u00a5\u012d": 4043, "\u00e5\u013d\u00a2": 4044, "\u0120\u00e0\u00a4\u0136\u00e0\u00a4\u00b0": 4045, "\u00e9\u0129\u0133": 4046, "\u0120\u00e1\u0125\u00a2": 4047, "\u0120\u00e3\u0125\u00bb": 4048, "\u00b1\u00e1\u0122\u0132\u00e1\u0122\u00ac": 4049, "aman": 4050, "\u0120\u00c3\u00a8": 4051, "\u0120tod": 4052, "osh": 4053, "aran": 4054, "\u0120);": 4055, "\u00e5\u013d\u00bd\u00e9\u013b\u0127": 4056, "\u00e0\u00b0\u0124\u00e0\u00b0\u0141": 4057, "\u00ce\u00bf\u00cf\u0127\u00cf\u0124": 4058, "\u0120ia": 4059, "\u0120\u00ce\u00ac": 4060, "\u0123\u00e1\u0122\u00ba": 4061, "\u0120kut": 4062, "ilo": 4063, "\u0120ou": 4064, "\u00e0\u00b4\u0137\u00e0\u00b5\u012f\u00e0\u00b4": 4065, "\u0120\u00e5\u012a": 4066, "\u0120dur": 4067, "iek": 4068, "\u0120sen": 4069, "IA": 4070, "\u00d0\u00bb\u00d0\u00be": 4071, "uka": 4072, "\u0120\u00e1\u0122\u0140\u00e1\u0122\u00b0": 4073, "\u0120\u00e1": 4074, "\u00e1\u0122\u0126\u00e1\u0122\u00b7\u00e1\u0122\u00ba": 4075, "\u00e6\u00b3\u0137": 4076, "\u0120may": 4077, "\u0120\u00e0\u00aa\u0141": 4078, "\u0120\u00d8\u00a8\u00d9\u0128": 4079, "\u0120\u00d8\u00b0": 4080, "\u0120Pol": 4081, "\u00e3\u0123\u00a7\u00e3\u0123\u013b": 4082, "\u0120\u00ef\u00bf\u00bd\u00ef\u00bf\u00bd\u00ef\u00bf\u00bd": 4083, "\u0120\u00e6\u012a": 4084, "\u00d7\u0137\u00d7\u013f": 4085, "\u0120tal": 4086, "\u00e5\u013d\u00be": 4087, "\u0120\u00e0\u00b8\u00a3": 4088, "las": 4089, "ota": 4090, "\u0120Ke": 4091, "\u00e1\u0125\u0136\u00e1\u0125\u013c\u00e1\u0125\u013a": 4092, "fi": 4093, "\u00eb\u013f\u00bc": 4094, "\u00d8\u00a7\u00d8\u00b7": 4095, "\u0120\u00d1\u0124\u00d0\u00be": 4096, "\u00e5\u00bd\u00a9\u00e7\u00a5\u00a8": 4097, "\u00d0\u00be\u00d1\u0122\u00d0\u00bc": 4098, "\u00e1\u00bb\u00af": 4099, "\u00e0\u00b1\u0123\u00e0\u00b0\u00a8\u00e0\u00b1\u012f\u00e0\u00b0\u00a8": 4100, "\u0120\u00ce\u00b8\u00ce\u00b1": 4101, "\u0120pen": 4102, "\u0120Die": 4103, "\u00e0\u00ae\u00b2\u00e0\u00af\u012f\u00e0\u00ae\u00b2": 4104, "\u00d9\u0126\u00d8\u00a7": 4105, "\u0120Ba": 4106, "\u0120organ": 4107, "cess": 4108, "\u0120\u00e0\u00b0\u013c\u00e0\u00b1\u0129\u00e0\u00b0": 4109, "\u0120till": 4110, "\u00d0\u00b5\u00d0\u00bd\u00d0\u00b8\u00d1\u0131": 4111, "\u00e2\u0122\u013e": 4112, "\u0120Di": 4113, "udi": 4114, "len": 4115, "\u0120\u00e6\u0139": 4116, "\u00e1\u0125\u00a8": 4117, "\u0120ci": 4118, "\u0120\u00cf\u0126\u00ce\u00b9": 4119, "78": 4120, "\u00d7\u0137\u00d7\u0132": 4121, "\u0120ile": 4122, "\u0120tsa": 4123, "\u00cf\u0125\u00ce\u00b7\u00cf\u0124": 4124, "\u00e0\u00b4\u00bf\u00e0\u00b4\u0141": 4125, "atan": 4126, "cial": 4127, "\u00d1\u012d\u00d0\u00bc": 4128, "\u0120\u00e1\u0125\u0134\u00e1\u0125\u0132\u00e1\u0125\u013e": 4129, "abil": 4130, "amil": 4131, "\u0120\u00ec\u0124\u00ac": 4132, "\u0120care": 4133, "\u0120temp": 4134, "\u00cf\u0123\u00ce\u00b7": 4135, "\u0120Ha": 4136, "\u00e7\u00ae": 4137, "\u00d9\u012a\u00d8\u00b3": 4138, "\u00e0\u00b0\u00bf\u00e0\u00b0\u00a4": 4139, "\u0120\u00d0\u00b4\u00d0\u00b0\u00d1\u0122": 4140, "\u0120\u00e2\u0122\u013f.": 4141, "\u00d8\u00a2": 4142, "ude": 4143, "\u00e0\u00ab\u0129\u00e0\u00aa\u00b6": 4144, "\u00e0\u00a5\u012f\u00e0\u00a4\u00af\u00e0\u00a4\u00be": 4145, "\u00d0\u00b0\u00d0\u00b1\u00d0\u00be\u00d1\u0124": 4146, "\u00e0\u00a4\u00bf\u00e0\u00a4\u00b2": 4147, "\u0120\u00d0\u00a8": 4148, "\u00cf\u0123\u00cf\u012b": 4149, "\u0120Sch": 4150, "\u0120\u00d0\u00b3\u00d1\u0122": 4151, "ater": 4152, "\u00e1\u0125\u0132\u00e1\u0125\u0134": 4153, "\u0120\u00d9\u0129\u00d8\u00a7\u00db\u012e": 4154, "\u0120ig": 4155, "\u0120\u00d9\u0127\u00d8\u00aa": 4156, "alah": 4157, "\u0120PM": 4158, "tre": 4159, "\u0120cho": 4160, "by": 4161, "\u00e3\u0123\u0142": 4162, "\u00e0\u00aa\u00b5\u00e0\u00aa\u00be\u00e0\u00aa\u00a8": 4163, "\u00e1\u0125\u013a\u00e1\u0125\u0132\u00e1\u0125\u013e": 4164, "\u00e0\u00a6\u00bf\u00e0\u00a6\u00b2": 4165, "\u00e0\u00ab\u012d\u00e0\u00aa\u0137": 4166, "\u0120pun": 4167, "\u0120Be": 4168, "\u00e6\u013e\u0122": 4169, "\u00e8\u00b6": 4170, "\u00e7\u013e\u012d": 4171, "\u00e0\u00b5\u012f\u00e0\u00b4\u00b3": 4172, "imo": 4173, "\u00e0\u00b1\u012f\u00e0\u00b0\u00b5": 4174, "\u0120\u00d1\u0123\u00d0\u00b0\u00d0\u00bc": 4175, "\u0120\u00d0\u00b2\u00d1\u0138\u00d0\u00b4": 4176, "\u0120sig": 4177, "\u00e1\u0122\u00b8\u00e1\u0122\u013b": 4178, "lar\u00c4\u00b1": 4179, "\u0120\u00e0\u00aa\u00b0\u00e0\u00aa\u00b9": 4180, "\u00e1\u0122\u00b1\u00e1\u0122\u0140": 4181, "\u00e1\u0125\u013a\u00e1\u0125\u013f": 4182, "\u0120ole": 4183, "\u0120\u00e0\u00ae\u0129\u00e0\u00ae\u00b0": 4184, "\u0120\u00d8\u00a8\u00da\u00be\u00db\u012e": 4185, "\u0120word": 4186, "\u00e6\u013d": 4187, "\u0120\u00e0\u00aa\u00ae\u00e0\u00aa\u00be\u00e0\u00aa\u0141\u00e0\u00ab\u0129": 4188, "\u0120top": 4189, "\u00c3\u00a1g": 4190, "\u00e1\u0125\u0140": 4191, "\u00d0\u00bd\u00d0\u00b8\u00d0\u00ba": 4192, "\u00e0\u00a7\u0123\u00e0\u00a6\u00b2": 4193, "\u0120cre": 4194, "\u0120Go": 4195, "\u0120esc": 4196, "\u00e1\u0122\u00b1\u00e1\u0122\u0137": 4197, "\u0120kor": 4198, "\u00e0\u00b9\u012a\u00e0\u00b8\u00b2": 4199, "\u00e9\u00a3": 4200, "idi": 4201, "\u0120esp": 4202, "\u0120\u00d8\u00a7\u00d8\u00b1": 4203, "\u00e5\u0127\u00a5": 4204, "ogy": 4205, "\u0120\u00e0\u00a4\u0137\u00e0\u00a4\u00be": 4206, "\u0120mel": 4207, "\u0120ing": 4208, "\u00e6\u00a3": 4209, "\u00e9\u0125\u00a8": 4210, "iro": 4211, "\u00c9\u013bm": 4212, "\u0120Des": 4213, "\u00d7\u013b\u00d7\u0137\u00d7\u00aa": 4214, "arr": 4215, "rip": 4216, "\u0120mot": 4217, "35": 4218, "\u00d8\u00b0\u00d8\u00a7": 4219, "\u00e0\u00ae\u013b\u00e0\u00af\u012f\u00e0\u00ae\u0137": 4220, "\u00d8\u00a8\u00d9\u012c": 4221, "\u00e0\u00b4\u0139": 4222, "\u00ec\u013d\u0132": 4223, "\u00e0\u00b9\u0122\u00e0\u00b8\u013d\u00e0\u00b9\u0129": 4224, "\u012044": 4225, "\u0120sec": 4226, "\u0120\u00cf\u0126\u00ce\u00bf\u00ce\u00bd": 4227, "var": 4228, "\u00e0\u00aa\u00be\u00e0\u00aa\u00a3": 4229, "\u0120sob": 4230, "\u00d0\u00b8\u00d0\u00b3": 4231, "get": 4232, "\u01202008": 4233, "\u0120\u00d9\u0127\u00d8\u00ac": 4234, "\u00ce\u013b\u00ce": 4235, "uli": 4236, "\u00e0\u00aa\u0143": 4237, "\u0120fra": 4238, "\u0120nag": 4239, "\u0120\u00d0\u00be\u00d1\u0123": 4240, "\u00e1\u0125\u00a6": 4241, "\u00b1\u00e1\u0122\u0136": 4242, "\u00e1\u0122\u00ac\u00e1\u0122\u00b9\u00e1\u0122": 4243, "omb": 4244, "\u00b8\u00e0\u00b1\u012f\u00e0\u00b0\u00a4": 4245, "\u0120v\u00c3\u00b5": 4246, "\u00e7\u00bd\u0133\u00e5\u013f\u0122": 4247, "asta": 4248, "\u00e5\u0131\u00af": 4249, "\u0120\u00db\u012e\u00db\u0123": 4250, "\u0120Co": 4251, "27": 4252, "jon": 4253, "\u00e6\u0131": 4254, "\u0120\u00d8\u00a7\u00d9\u0126\u00d8\u00af": 4255, "\u00d5\u00a5\u00d5": 4256, "eden": 4257, "\u00e1\u0125\u013a\u00e1\u0125\u013c\u00e1\u0125\u013a": 4258, "\u00c3\u00bck": 4259, "han": 4260, "\u0120\u00e0\u00b4\u0134": 4261, "\u0120han": 4262, "abi": 4263, "\u0120fac": 4264, "umu": 4265, "\u0120Mo": 4266, "ule": 4267, "\u00e0\u00aa\u00be\u00e0\u00aa\u00a6": 4268, "\u0120hel": 4269, "\u00e1\u0125\u00a3": 4270, "\u0120sub": 4271, "jen": 4272, "\u00c5\u012f": 4273, "\u00eb\u0140": 4274, "\u00e1\u0122\u00b1\u00e1\u0122\u00ac\u00e1\u0122\u0122\u00e1\u0122\u00ba": 4275, "\u00d0\u0136": 4276, "lah": 4277, "\u0120\u00e5\u013e": 4278, "\u0120\u00e5\u012f": 4279, "\u00d1\u0138\u00d1\u0124": 4280, "\u00e0\u00ae\u00b1\u00e0\u00af\u012f\u00e0\u00ae\u00b1": 4281, "\u00e1\u0122\u013b\u00e1\u0122\u00bd": 4282, "\u00eb\u00a9": 4283, "\u00e0\u00a4\u00be\u00e0\u00a4\u00ae": 4284, "uld": 4285, "\u00a1\u00e0\u00b1\u0123": 4286, "\u00d8\u00a7\u00d8\u00b6": 4287, "ove": 4288, "\u0120hab": 4289, "\u00e5\u00ae\u00a2": 4290, "\u0120pat": 4291, "\u00d0\u00b0\u00d1\u0122\u00d1\u0124": 4292, "\u00d7\u013b\u00d7\u00a7": 4293, "\u0120memb": 4294, "\u0120\u00d0\u00a7": 4295, "\u0123\u00e1\u0123": 4296, "\u0120\u00ea\u00b8": 4297, "\u00e1\u0122\u0138\u00e1\u0122\u00bc": 4298, "\u00ec\u0128": 4299, "\u0120pour": 4300, "\u00d0\u00b8\u00d0\u00b5": 4301, "\u0120\u00e1\u0125\u00aa": 4302, "\u00d9\u012a\u00db\u012e": 4303, "\u0120ikke": 4304, "idade": 4305, "\u0120vers": 4306, "\u00d7\u013b\u00d7\u0133": 4307, "\u00e3\u0123\u0139\u00e3\u0123\u0141": 4308, "\u0120\u00d1\u0125\u00d1\u0129": 4309, "\u00e7\u00b4": 4310, "pro": 4311, "\u00e0\u00b8\u00a1\u00e0\u00b8\u00b5": 4312, "\u0120\u00d8\u00a7\u00d9\u0123": 4313, "\u00e1\u0122\u0140\u00e1\u0122\u012c\u00e1\u0122\u00b9": 4314, "\u0120Ver": 4315, "\u012099": 4316, "\u00e0\u00a5\u012f\u00e0\u00a4\u0141": 4317, "\u0120kam": 4318, "\u0132\u00e1\u0122\u00b2\u00e1\u0122\u00b7": 4319, "\u00ce\u00b9\u00ce\u00ac": 4320, "29": 4321, "\u00e8\u00ae\u00a1": 4322, "\u0120\u00cf\u0125\u00cf\u0126\u00ce\u00b7\u00ce\u00bd": 4323, "\u00d9\u012a\u00d9\u0124": 4324, "ony": 4325, "\u00e1\u0122\u00a5": 4326, "\u0120\u00eb\u00aa": 4327, "\u00e7\u0137": 4328, "ument": 4329, "\u0120dari": 4330, "\u0120sim": 4331, "\u00d1\u012d\u00d1\u0127": 4332, "\u0120AM": 4333, "\u00e0\u00a4\u00be\u00e0\u00a4\u00af": 4334, "\u00e0\u00a7\u0129\u00e0\u00a6\u00b2": 4335, "\u0120have": 4336, "\u00d7\u013b\u00d7\u00a9": 4337, "\u0120\u00ce\u0135": 4338, "imin": 4339, "\u0120inv": 4340, "\u00ce\u00af\u00ce\u00b1\u00cf\u0124": 4341, "\u0120Ab": 4342, "nes": 4343, "\u00e8\u0129\u00aa": 4344, "\u00d0\u00b0\u00d0\u00b2\u00d0\u00b0": 4345, "\u00e1\u0122\u00b2\u00e1\u0124\u0137": 4346, "\u00e0\u00b0\u0124\u00e0\u00b0\u00a4": 4347, "\u00e1\u0125\u0132\u00e1\u0125\u013a": 4348, "\u0120Res": 4349, "\u00e0\u00a7\u0129\u00e0\u00a6\u00b6": 4350, "\u00e9\u0137": 4351, "\u00e0\u00aa\u00a4\u00e0\u00aa\u00be": 4352, "ris": 4353, "\u0120\u00eb\u00b3": 4354, "\u00e5\u0137": 4355, "\u0120\u00e0\u00ae\u0134": 4356, "ider": 4357, "\u0120fl": 4358, "\u00e0\u00ab\u0129\u00e0\u00aa\u0141": 4359, "\u0120part": 4360, "\u0120\u00e1\u0122\u0122\u00e1\u0122\u0143\u00e1\u0122\u00af": 4361, "\u0120mus": 4362, "\u0120dire": 4363, "her": 4364, "\u0120\u00e0\u00aa\u0128\u00e0\u00aa\u00aa": 4365, "ated": 4366, "\u0120Ind": 4367, "\u0120\u00e2\u0122\u013c": 4368, "\u00e1\u0125\u013a\u00e1\u0125\u00a3\u00e1\u0125": 4369, "\u00c3\u0143s": 4370, "\u012070": 4371, "\u0120\u00d8\u00a2\u00d9\u0128": 4372, "\u0120\u00e5\u0132": 4373, "\u00e0\u00b4\u00be\u00e0\u00b4\u00a4": 4374, "\u00e1\u0125\u0132\u00e1\u0125\u00a8\u00e1\u0125\u013a": 4375, "\u00c3\u00acnh": 4376, "aci\u00c3\u00b3": 4377, "\u00e8\u00b7": 4378, "\u0124\u00b0": 4379, "amente": 4380, "\u00d0\u00be\u00d0\u00bc\u00d1\u0125": 4381, "\u0120maj": 4382, "\u0120km": 4383, "\u0120els": 4384, "\u00e0\u00b8\u00a3\u00e0\u00b8\u00b2\u00e0\u00b8": 4385, "\u0120\u00d9\u0127\u00d9\u0124": 4386, "\u00d9\u0127\u00d8\u00a7\u00d9\u0128": 4387, "\u0120\u00d1\u0131\u00d0\u00ba": 4388, "\u0120\u00d8\u00a7\u00db\u012e\u00da\u00a9": 4389, "\u0120\u00d8\u00a5\u00d9\u0126\u00d9\u012b": 4390, "\u0120hal": 4391, "\u0120\u00d8\u00aa\u00da\u00be": 4392, "\u00e1\u00ba\u00af": 4393, "\u0120int": 4394, "\u00e1\u0125\u013c\u00e1\u0125\u013a\u00e1\u0125\u00a1": 4395, "\u0120\u00f0\u0141": 4396, "\u00d6\u0122\u00d5": 4397, "\u0120Ter": 4398, "\u00a7\u00e0\u00a7": 4399, "\u00e0\u00b8\u00a3\u00e0\u00b8\u00b4": 4400, "\u0120\u00d0\u00bf\u00d0\u00be\u00d0\u00b2": 4401, "____": 4402, "\u0120hand": 4403, "\u0120ata": 4404, "\u0120zu": 4405, "\u00e1\u0122\u00b1\u00e1\u0122\u00ac\u00e1\u0122\u00ba": 4406, "bas": 4407, "\u00eb\u00ac": 4408, "\u0120\u00ec\u012a\u013a": 4409, "AC": 4410, "\u0120Pa": 4411, "\u00e0\u00b8\u00b5\u00e0\u00b9\u012b": 4412, "\u0120\u00d0\u00b1\u00d1\u012d": 4413, "\u00e0\u00ab\u0129\u00e0\u00aa\u00b0": 4414, "\u0120tek": 4415, "\u0120ef": 4416, "\u0120ye": 4417, "\u0120\u00d9\u0127\u00d8\u00af": 4418, "\u0120$(": 4419, "por": 4420, "\u012049": 4421, "n\u00c4\u013d": 4422, "\u00e0\u00b6": 4423, "\u00e1\u0122\u00bc\u00e1\u0122\u00ac\u00e1\u0122\u00b8\u00e1\u0122": 4424, "\u0120tan": 4425, "\u00e5\u0142": 4426, "\u0120\u00e1\u0125\u00a7": 4427, "\u00e7\u012b\u012e": 4428, "\u0120\u00e1\u0123\u0131": 4429, "\u0120une": 4430, "\u0120\u00d0\u00b1\u00d1\u0140": 4431, "\u0120mea": 4432, "\u0120loc": 4433, "gy": 4434, "\u0120egy": 4435, "\u00e3\u0123\u0133": 4436, "\u00d0\u00b0\u00d0\u00bc\u00d0\u00b8": 4437, "\u0120\u00e0\u00b0\u00b5\u00e0\u00b0\u00bf\u00e0\u00b0": 4438, "\u0120\u00d8\u00a7\u00d9\u0126\u00d8\u00ae": 4439, "\u0120m\u00c3\u00a1": 4440, "\u00e0\u00a7\u0123\u00e0\u00a6\u00b0": 4441, "mm": 4442, "\u00e4\u00b9\u012d": 4443, "osa": 4444, "\u00c5\u00a1an": 4445, "\u0120\u00d0\u00b2\u00d1\u0123": 4446, "\u00e7\u00a5\u0140": 4447, "\u00e0\u00a7\u012f\u00e0\u00a6\u00b7": 4448, "\u00e0\u00a6\u00b6": 4449, "\u00e0\u00b0\u013c": 4450, "\u0120\u00e0\u00b9\u0124": 4451, "\u0120dalam": 4452, "eza": 4453, "\u00e0\u00b5\u0123\u00e0\u00b4\u0141\u00e0\u00b5\u0128": 4454, "\u00e0\u00a6\u00be\u00e0\u00a6\u013e": 4455, "\u00e0\u00a4\u00be\u00e0\u00a4\u00b8": 4456, "alm": 4457, "\u00e0\u00a4\u00a4\u00e0\u00a4\u00be": 4458, "\u0120\u00d1\u0123\u00d1\u012c": 4459, "\u00e0\u00b8\u00a7\u00e0\u00b8\u00b2\u00e0\u00b8\u00a1": 4460, "\u0120mon": 4461, "nen": 4462, "edia": 4463, "\u0120\u00ce\u00b4\u00ce\u00b9\u00ce\u00b1": 4464, "\u00e1\u00bb\u0135": 4465, "\u00e1\u00ba\u00bft": 4466, "\u00d9\u012c\u00d8\u00b3": 4467, "US": 4468, "\u00d0\u00b3\u00d0\u00b8": 4469, "\u0120\u00e0\u00b4\u00ac": 4470, "\u00ce\u00a1": 4471, "\u00e0\u00b8\u00a3\u00e0\u00b8\u00b1\u00e0\u00b8\u013c": 4472, "nd": 4473, "\u00d8\u00a7\u00d8\u00b3\u00d8\u00aa": 4474, "\u012046": 4475, "\u0120\u00e0\u00a6\u00aa\u00e0\u00a6\u00b0": 4476, "\u0120chi": 4477, "\u00e1\u0122\u0123\u00e1\u0122\u00b2\u00e1\u0122\u00b7": 4478, "\u0120\u00e0\u00b8\u0143": 4479, "\u0120pentru": 4480, "\u0120San": 4481, "\u0120\u00e1\u00ba\u00b9": 4482, "\u0120\u00d0\u00b2\u00d1\u0122": 4483, "\u00e5\u012f\u0137": 4484, "bar": 4485, "\u00e1\u0122\u0124": 4486, "\u00e5\u00ae\u013c": 4487, "\u012043": 4488, "out": 4489, "\u00d0\u0134": 4490, "\u00e1\u0122\u0140\u00e1\u0122\u012c\u00e1\u0122\u00ba": 4491, "\u0120lib": 4492, "\u00d0\u00b5\u00d1\u0124\u00d0\u00b5": 4493, "\u00ec\u0138\u00b4": 4494, "\u00e4\u00bf\u00a1": 4495, "eda": 4496, "\u00e1\u0125\u0132\u00e1\u0125\u013b": 4497, "inu": 4498, "\u00d7\u013b\u00d7\u0135": 4499, "\u00d5\u00b8\u00d6\u0124\u00d5": 4500, "\u00c3\u00b3l": 4501, "itz": 4502, "\u00e0\u00b9\u012b\u00e0\u00b8\u0143\u00e0\u00b8\u0129": 4503, "\u00e0\u00aa\u00be\u00e0\u00aa\u00b0\u00e0\u00ab\u0129": 4504, "ence": 4505, "\u0120\u00e1\u0125\u0140\u00e1\u0125\u0142": 4506, "ega": 4507, "str": 4508, "\u0120Il": 4509, "\u00e6\u0138\u0129": 4510, "\u0120\u00e4\u00bd": 4511, "\u0120mis": 4512, "\u0120\u00c8\u013b": 4513, "\u00e6\u0139\u00b6\u00e5\u00bd\u00a9": 4514, "\u00d0\u013d": 4515, "\u00e5\u00a5\u00bd": 4516, "\u0120\u00d9\u0127\u00d9\u0126": 4517, "esk": 4518, "ului": 4519, "\u0120\u00d1\u0123\u00d0\u00ba": 4520, "\u00e8\u00b5\u00b0": 4521, "\u00e8\u0122\u0127": 4522, "ail": 4523, "har": 4524, "\u00c3\u00b6v": 4525, "\u00e9\u013d\u0128\u00e5\u013d\u00a2": 4526, "\u0120\u00e0\u00a6\u0131\u00e0\u00a6\u0137": 4527, "\u00d1\u0124\u00d0\u00b5\u00d1\u0122": 4528, "\u0120\u00d0\u00ba\u00d1\u0122": 4529, "\u00e3\u0125\u00b3\u00e3\u0125": 4530, "\u0120\u00cf\u0126\u00ce\u00bf\u00cf\u0127\u00cf\u0124": 4531, "\u0120\u00d0\u00af": 4532, "\u00c3\u00a1k": 4533, "\u0120si\u00c4\u013b": 4534, "\u00e7\u0130\u00af\u00e4\u00ba\u013c": 4535, "\u00e5\u012c\u013d": 4536, "\u0120At": 4537, "ram": 4538, "\u00e5\u012c\u0142": 4539, "\u00d0\u00b5\u00d1\u0127": 4540, "\u00e9\u00a6": 4541, "\u00e0\u00b9\u0125\u00e0\u00b8\u00ab\u00e0\u00b9\u012b": 4542, "\u0120\u00ec\u00b9": 4543, "\u00d0\u013e": 4544, "UN": 4545, "\u00e3\u0124\u00a2": 4546, "\u0120\u00d9\u0127\u00d8\u00a7": 4547, "\u00da\u00a9\u00db\u012e": 4548, "\u0120\u00e7\u0136": 4549, "\u00e0\u00b8\u00b7\u00e0\u00b9\u012a\u00e0\u00b8\u0143": 4550, "\u00e0\u00a4\u00bc": 4551, "\u00e1\u00bb\u0129n": 4552, "\u0120m\u00c3\u00ab": 4553, "\u00e8\u0124\u00b2": 4554, "ory": 4555, "\u00e4\u00b9\u012a": 4556, "\u00e1\u0122\u00ac\u00e1\u0122\u013d": 4557, "\u0120We": 4558, "\u0120fo": 4559, "gu": 4560, "\u00d8\u00b3\u00d8\u00aa\u00d8\u00a7\u00d9\u0128": 4561, "\u0120\u00d8\u00aa\u00d9\u0127": 4562, "\u00ce\u00a4": 4563, "\u0120Por": 4564, "tif": 4565, "\u00e5\u012b\u012f": 4566, "\u0120\u00e1\u0125\u013a\u00e1\u0125\u00a1": 4567, "\u00d1\u0138\u00d1\u0129": 4568, "\u0120Ed": 4569, "uko": 4570, "\u0120\u00d7\u0136\u00d7\u0132": 4571, "\u00b1\u00e0\u00b5\u0128": 4572, "\u0120\u00ea\u00b5": 4573, "\u0120\u00e5\u013d": 4574, "\u00d0\u00b8\u00d1\u0124\u00d1\u012e": 4575, "\u0120cent": 4576, "\u00e7\u0126": 4577, "\u00e4\u00b8\u0129": 4578, "\u00e0\u00b1\u0123\u00e0\u00b0\u00a4": 4579, "\u00ce\u00b9\u00ce\u00ba\u00cf\u012e": 4580, "\u00cf\u0123\u00ce\u00b9\u00cf\u0125": 4581, "izi": 4582, "imit": 4583, "\u00e0\u00a4\u00be\u00e0\u00a4\u00b5": 4584, "\u0120\u00d8\u00a7\u00d9\u0126\u00d9\u0125": 4585, "ukan": 4586, "pon": 4587, "mu": 4588, "\u00e9\u00a2\u0133": 4589, "igh": 4590, "\u00d0\u00be\u00d0\u00bb\u00d0\u00b8": 4591, "\u00e0\u00b9\u012b\u00e0\u00b8\u00b2": 4592, "\u012047": 4593, "\u0120\u00da\u00a9\u00d8\u00a7\u00d8\u00b1": 4594, "\u00e0\u00ab\u012f\u00e0\u00aa\u00af\u00e0\u00aa\u00be": 4595, "\u0120probl": 4596, "\u00d8\u00aa\u00db\u0134": 4597, "\u0120\u00ce\u0139": 4598, "\u00d8\u00a8\u00d8\u00a7\u00d8\u00b1": 4599, "\u0120\u00ec\u0140\u012a": 4600, "\u00ce\u00b8\u00ce\u00b7": 4601, "\u00b1\u00e1\u0122\u0132\u00e1\u0122\u00bc": 4602, "\u00e5\u00bd\u0137": 4603, "\u0120\u00e6\u0138": 4604, "\u00e0\u00a6\u00a4\u00e0\u00a7\u0129": 4605, "\u013e\u00d0\u00b5": 4606, "\u00ce\u00b8\u00ce\u00b5": 4607, "\u00be\u00b3": 4608, "dir": 4609, "\u00ce\u00b1\u00cf\u0125": 4610, "\u00e5\u00a7": 4611, "\u00d1\u0123\u00d1\u0124\u00d1\u0122": 4612, "urop": 4613, "OT": 4614, "\u0120Bo": 4615, "\u00e0\u00ae\u00b3\u00e0\u00af\u012f": 4616, "...": 4617, "\u00e0\u00b4\u00b4": 4618, "\u00b1\u00db": 4619, "\u0120kap": 4620, "ych": 4621, "\u00ec\u00b2\u013e": 4622, "\u0120\u00ef\u00bf\u00bd\u00ef\u00bf\u00bd\u00ef\u00bf\u00bd\u00ef\u00bf\u00bd\u00ef\u00bf\u00bd\u00ef\u00bf\u00bd\u00ef\u00bf\u00bd\u00ef\u00bf\u00bd": 4623, "\u00e0\u00b4\u00bf\u00e0\u00b5\u00bd": 4624, "\u0120cap": 4625, "\u00e0\u00b9\u012a\u00e0\u00b8\u00a7": 4626, "\u0120\u00d8\u00a7\u00d9\u0126\u00d8\u00b5": 4627, "\u00e0\u00ab\u012f\u00e0\u00aa\u00b2": 4628, "\u00e1\u0122\u00b8\u00e1\u0122\u0122": 4629, "\u00d1\u0138\u00d0\u00b9": 4630, "\u00e3\u0125\u00b3\u00e3\u0124": 4631, "\u0120Je": 4632, "\u0120dig": 4633, "\u0120von": 4634, "umi": 4635, "\u0120gro": 4636, "\u00c9\u013by": 4637, "\u0120Cl": 4638, "\u00e0\u00ab\u0129\u00e0\u00aa\u0137": 4639, "\u0120\u00ef\u00bb\u00bf": 4640, "\u0120\u00e2\u0137": 4641, "\u00e5\u012c\u00a8": 4642, "\u0120\u00c2\u00ac": 4643, "\u0120Hotel": 4644, "\u00ed\u0138": 4645, "\u00d0\u00b5\u00d0\u00ba\u00d0\u00b0": 4646, "\u00e1\u0122\u00b8\u00e1\u0122\u0140": 4647, "\u0120kul": 4648, "\u00da\u00af\u00db\u012e": 4649, "\u00e0\u00b8\u00a3\u00e0\u00b9\u012e": 4650, "jer": 4651, "\u0120Fran": 4652, "\u0120ret": 4653, "\u00d0\u00b8\u00d0\u00b4\u00d0\u00b0": 4654, "\u00e7\u0130\u00b0": 4655, "\u00b1\u00e1\u0122\u013d": 4656, "\u00d0\u00bd\u00d0\u00b8\u00d1\u0124\u00d0\u00b5": 4657, "\u0120tut": 4658, "\u00e6\u0139\u00b6\u00e6\u0139\u00b6\u00e5\u00bd\u00a9": 4659, "EM": 4660, "\u0120Ak": 4661, "\u0120.\u00e2\u0122\u013f": 4662, "\u0120\u00e0\u00aa\u00a4\u00e0\u00ab\u012d": 4663, "\u00b9\u0126": 4664, "\u00e0\u00a4\u00a8\u00e0\u00a4\u00be": 4665, "\u0120Dr": 4666, "\u0120\u00e0\u00b4\u012b": 4667, "\u00c4\u0123m": 4668, "\u00d0\u00bb\u00d0\u00b5\u00d0\u00b4": 4669, "\u0120fil": 4670, "\u0120ben": 4671, "\u0120mah": 4672, "\u0120\u00e0\u00aa\u00a1": 4673, "\u00ce\u00b4\u00ce\u00bf": 4674, "\u00e0\u00b8\u0124\u00e0\u00b8\u0143\u00e0\u00b8\u0129": 4675, "\u00e0\u00a4\u00be\u00e0\u00a4\u00b9": 4676, "\u0120\u00ce\u00b1\u00cf\u0122\u00ce\u00bf": 4677, "\u00c3\u00a1z": 4678, "\u0120\u00d8\u00a7\u00d8\u00a8": 4679, "\u00e6\u012c\u0137": 4680, "\u00e9\u0138": 4681, "\u0120serv": 4682, "\u0120pop": 4683, "\u00e1\u0122\u00af\u00e1\u0122\u0137\u00e1\u0122\u00ba": 4684, "\u0120\u00da\u00a9\u00d9\u0128": 4685, "\u00d8\u00a4": 4686, "\u0120\u00e1\u0122\u00bb\u00e1\u0122\u0137": 4687, "\u0120\u00d8\u00aa\u00d8\u00b1": 4688, "nos": 4689, "\u0120\u00e3\u0122\u0132": 4690, "\u00e0\u00aa\u00bf\u00e0\u00aa\u00b5": 4691, "\u00d7\u0137\u00d7\u00a4": 4692, "\u00e9\u0122\u0141": 4693, "ital": 4694, "\u0120\u00d0\u00bf\u00d0\u00bb": 4695, "\u0120\u00ef\u00bc\u0123": 4696, "ioni": 4697, "\u00d1\u0138\u00d1\u0131": 4698, "\u00cf\u0125\u00ce\u00b5\u00ce\u00b9\u00cf\u0124": 4699, "\u0120ara": 4700, "\u00e0\u00ab\u012f\u00e0\u00aa\u00af\u00e0\u00ab\u012d": 4701, "ps": 4702, "\u0120\u00d0\u00b3\u00d0\u00be": 4703, "\u0120\u00e0\u00aa\u00b8\u00e0\u00aa\u00ae": 4704, "\u0120lu": 4705, "\u0120\u00e0\u00b4\u013e": 4706, "\u00e8\u00a3": 4707, "\u00e2\u0122\u013b": 4708, "\u0120\u00e0\u00a6\u00b2": 4709, "ublic": 4710, "\u00d0\u00b0\u00d1\u0126": 4711, "\u0120tro": 4712, "\u00af\u00b8": 4713, "\u0120\u00e6\u013a": 4714, "\u0120\u00eb\u012e\u0122": 4715, "\u0120\u00e0\u00a6\u00a5": 4716, "\u00e3\u0124\u012a": 4717, "\u0120\u00e4\u00b8\u0122": 4718, "\u0120aqu": 4719, "ee": 4720, "\u0120\u00d8\u00a7\u00d9\u00be": 4721, "ition": 4722, "AK": 4723, "\u00e5\u013e\u00ba": 4724, "AP": 4725, "\u0120\u00d9\u0123\u00d8\u00b1": 4726, "\u0120\u00c3\u00b7": 4727, "\u0120eller": 4728, "\u0120('": 4729, "\u00e5\u00bf\u0125": 4730, "\u0120\u00ce\u00ae": 4731, "\u0120\u00ec\u0125": 4732, "\u0120Nov": 4733, "\u0120\u00ea\u00b7\u00b8": 4734, "lat": 4735, "\u0120\u00d8\u00a7": 4736, "\u00d0\u00bb\u00d0\u00b0": 4737, "\u00ca\u00bbo": 4738, "\u00d8\u00a8\u00d9\u0126": 4739, "\u00d9\u0127\u00d8\u00b1": 4740, "\u0120data": 4741, "\u00e0\u00b4\u00be\u00e0\u00b4\u00b2": 4742, "\u00e1\u0125\u00a3\u00e1\u0125\u0142\u00e1\u0125\u013a": 4743, "\u00d8\u00a7\u00d9\u0125": 4744, "\u00eb\u00a7\u012e": 4745, "ize": 4746, "\u0123\u00e1\u0122\u00b2\u00e1\u0122\u00b7": 4747, "\u00e0\u00ae\u00bf\u00e0\u00ae\u00b5": 4748, "\u0120art": 4749, "uto": 4750, "\u00e0\u00af\u0123\u00e0\u00ae\u00b1": 4751, "\u00e0\u00a4\u00bf\u00e0\u00a4\u00b8": 4752, "\u00ed\u0136": 4753, "\u00c3\u00b6l": 4754, "\u00e0\u00b9\u012a\u00e0\u00b8\u00b2\u00e0\u00b8\u0129": 4755, "\u0120\u00e0\u00aa\u00a4\u00e0\u00aa\u00ae": 4756, "ingen": 4757, "\u0120will": 4758, "\u00e0\u00b9\u0122\u00e0\u00b8\u0123": 4759, "\u00e0\u00b0\u00a8\u00e0\u00b1\u0123": 4760, "\u00e5\u012c\u00bf": 4761, "\u00e4\u00ba\u00a7": 4762, "ton": 4763, "ange": 4764, "led": 4765, "\u00ce\u00ba\u00ce\u00b1": 4766, "\u00d1\u0125\u00d0\u00b6": 4767, "\u0120\u00d1\u0133": 4768, "\u0120\u00e0\u00b0\u00b2": 4769, "\u0120\u00d0\u00bf\u00d0\u00be\u00d0\u00bb": 4770, "\u0120fal": 4771, "elen": 4772, "\u0120Ang": 4773, "\u0120dir": 4774, "\u0120\u00e5\u0129\u00af": 4775, "iver": 4776, "\u00ec\u0124\u00b0": 4777, "\u0120\u00d8\u00a8\u00d8\u00b1\u00d8\u00a7\u00db\u012e": 4778, "jas": 4779, "\u0120Mas": 4780, "\u0120\u00e1\u0125\u013d\u00e1\u0125\u013f\u00e1\u0125": 4781, "\u00c5\u00b1": 4782, "\u0120\u00d8\u00a7\u00d9\u0126\u00d8\u00b1": 4783, "\u00e0\u00b8\u0143\u00e0\u00b8\u00a2": 4784, "\u0120`": 4785, "\u00d1\u012f\u00d0\u00bd": 4786, "hat": 4787, "\u00e8\u00b4\u00b9": 4788, "\u00e0\u00b9\u012b\u00e0\u00b8\u00b2\u00e0\u00b8": 4789, "yon": 4790, "ple": 4791, "21": 4792, "kat": 4793, "\u0120\u00d9\u0128\u00db\u0123\u00db\u012e\u00da\u00ba": 4794, "\u00ea\u00b2\u012e": 4795, "\u0120ten": 4796, "illa": 4797, "\u00e5\u012d": 4798, "\u00e0\u00b0\u0137\u00e0\u00b1\u0123": 4799, "\u00e1\u0125\u0136\u00e1\u0125\u00a5": 4800, "\u0120pel": 4801, "\u00e5\u00bf\u00ab3": 4802, "\u00e0\u00b1\u0128\u00e0\u00b0\u00b2": 4803, "\u00e1\u0125\u0132\u00e1\u0125\u013c\u00e1\u0125\u013a": 4804, "uda": 4805, "ster": 4806, "\u0120Po": 4807, "\u00e1\u00ba\u00bfn": 4808, "\u0120Cas": 4809, "eto": 4810, "\u00e0\u00a6\u0143": 4811, "ums": 4812, "omm": 4813, "\u0120\u00e1\u0125\u013c": 4814, "\u00ce\u013f": 4815, "\u00e1\u0122\u00b1\u00e1\u0122\u0132\u00e1\u0122\u00ac\u00e1\u0122\u00b7": 4816, "\u0120uch": 4817, "\u00e0\u00a6\u013c": 4818, "\u0120\u00e0\u00b4\u00b5\u00e0\u00b4\u00bf\u00e0\u00b4": 4819, "\u00e0\u00ab\u012f\u00e0\u00aa\u00af\u00e0\u00ab\u0123\u00e0\u00aa\u0124": 4820, "\u0120Ber": 4821, "jes": 4822, "indi": 4823, "\u00e0\u00b8\u00b4\u00e0\u00b8\u013b\u00e0\u00b8": 4824, "\u00e0\u00b5\u00bb": 4825, "aja": 4826, "\u00e1\u0125\u013d\u00e1\u0125\u0132": 4827, "\u0120conc": 4828, "org": 4829, "\u00e0\u00a4\u00b6": 4830, "\u0120Em": 4831, "\u0120\u00e1\u0122\u00b1": 4832, "\u00d0\u00b3\u00d0\u00be": 4833, "\u00d7\u013b\u00d7\u0132": 4834, "\u00c3\u00a9p": 4835, "\u012059": 4836, "arm": 4837, "ams": 4838, "\u00d7\u0137\u00d7\u00a9": 4839, "\u0120\u00d8\u00b6": 4840, "\u0120\u00d8\u00a8\u00d8\u00b9\u00d8\u00af": 4841, "\u00e4\u00bb\u00a3": 4842, "\u0120\u00d0\u00bf\u00d1\u0122\u00d0\u00b0\u00d0\u00b2": 4843, "\u00d0\u0141": 4844, "\u0120....": 4845, "\u0120\u00d0\u00b1\u00d0\u00b8\u00d0\u00bb": 4846, "rib": 4847, "\u00e0\u00b5\u0123\u00e0\u00b4\u00b3": 4848, "\u00e1\u0122\u0128\u00e1\u0122\u0143\u00e1\u0122\u00af": 4849, "\u0120katika": 4850, "\u012056": 4851, "\u00e0\u00aa\u012a": 4852, "\u00e0\u00aa\u00bf\u00e0\u00aa\u00b2": 4853, "\u0120\u00e0\u00ae\u00aa\u00e0\u00af\u012d": 4854, "\u00e1\u0125\u013a\u00e1\u0125\u0142\u00e1\u0125": 4855, "\u0120Home": 4856, "\u00e0\u00aa\u00be\u00e0\u00aa\u00b3": 4857, "\u0120\u00e5\u00b9": 4858, "\u0120num": 4859, "\u0120\u00e0\u00b4\u00b2": 4860, "\u00e5\u012a\u00a9": 4861, "\u0120\u00eb\u00b6": 4862, "iste": 4863, "\u00ec\u0142\u0137": 4864, "else": 4865, "\u0120dom": 4866, "\u0120\u00ce\u013f": 4867, "\u00e5\u00ba\u00a6": 4868, "\u00e0\u00b8\u00b4\u00e0\u00b8\u0136": 4869, "\u00e3\u0125\u00bc\u00e3\u0124": 4870, "\u00eb\u0135\u00a4": 4871, "\u00ed\u013a": 4872, "\u0120\u00d9\u012a\u00d9\u0124": 4873, "\u00c6\u00b0\u00e1\u00bb\u00a3c": 4874, "ador": 4875, "\u0120Min": 4876, "\u00d0\u00be\u00d1\u013a": 4877, "\u00eb\u012e\u0122": 4878, "aji": 4879, "\u00e1\u0124\u0131\u00e1\u0122\u0143\u00e1\u0122\u00af\u00e1\u0122\u0126\u00e1\u0122\u00b9\u00e1\u0122": 4880, "\u0120tidak": 4881, "\u00ce\u00b9\u00ce\u00bd": 4882, "\u0120\u00d0\u00b0\u00d0\u00b1": 4883, "\u00e1\u0125\u0136\u00e1\u0125\u0133\u00e1\u0125\u00a3\u00e1\u0125\u013c\u00e1\u0125\u013a": 4884, "\u00ea\u00b3\u00bc": 4885, "\u013b\u0122": 4886, "ci\u00c3\u00b3": 4887, "\u00e0\u00a4\u00b9\u00e0\u00a5\u0122": 4888, "\u00e3\u0125\u00ac": 4889, "\u00d0\u00be\u00d0\u00b2\u00d0\u00b8": 4890, "\u00e0\u00ae\u00be\u00e0\u00ae\u00b0\u00e0\u00af\u012f": 4891, "\u00ec\u0139\u0132\u00ec\u0126\u013e": 4892, "\u00d0\u00bd\u00d0\u00b0\u00d1\u0131": 4893, "\u0120bez": 4894, "\u00e0\u00ab\u012d\u00e0\u00aa\u00b2": 4895, "\u0120bal": 4896, "\u00d1\u0138\u00d0\u00bb\u00d1\u012e": 4897, "\u00e5\u00a3": 4898, "\u0120ot": 4899, "\u0120mais": 4900, "\u00e9\u0123\u0135": 4901, "\u00e0\u00a6\u00a8\u00e0\u00a7\u012f\u00e0\u00a6": 4902, "\u0120nak": 4903, "\u00d9\u0123\u00d8\u00aa": 4904, "\u0120\u00d1\u013a": 4905, "\u00d0\u00b0\u00d0\u00bb\u00d0\u00b0": 4906, "\u00e0\u00ab\u012f\u00e0\u00aa\u00b8": 4907, "\u00e4\u00ba\u0130": 4908, "\u00d1\u0131\u00d0\u00b2": 4909, "\u00d7\u00a8\u00d7\u0132": 4910, "ations": 4911, "\u00eb\u00aa": 4912, "\u0120alle": 4913, "raz": 4914, "\u0120hogy": 4915, "ette": 4916, "\u0120\u00d8\u00b1\u00db\u0123": 4917, "lari": 4918, "\u0120bak": 4919, "\u0120Ro": 4920, "\u0120ham": 4921, "\u00e0\u00a6\u00a7": 4922, "\u0120ok": 4923, "\u00e1\u0122\u0140\u00e1\u0122\u00b0": 4924, "\u00e4\u00b9\u0141": 4925, "\u0120\u00d8\u0141": 4926, "\u0120Mod": 4927, "\u00e1\u0122\u013d\u00e1\u0122\u00be": 4928, "\u00e5\u0130\u0127": 4929, "\u0120Op": 4930, "\u012054": 4931, "38": 4932, "\u0120\u00e0\u00ae\u0127\u00e0\u00ae\u00b5": 4933, "\u0120tim": 4934, "\u00d0\u00bb\u00d0\u00b0\u00d1\u0123": 4935, "ept": 4936, "\u0120500": 4937, "\u0120ger": 4938, "\u00e1\u0122\u00ac\u00e1\u0122\u00b8\u00e1\u0122\u013b": 4939, "\u00e0\u00b8\u0143\u00e0\u00b8\u013b": 4940, "\u00d0\u00b0\u00d1\u0128\u00d0\u00b8": 4941, "\u0120\u00ed\u0137": 4942, "tid": 4943, "\u00ec\u013e\u00bc\u00eb\u00a1\u013e": 4944, "\u00e6\u00b4\u00b2": 4945, "\u00e4\u00b8\u00bb": 4946, "\u0120\u00e0\u00a6\u00b8\u00e0\u00a6\u00ae": 4947, "\u00e9\u013f\u00a2": 4948, "\u00d8\u00a7\u00d8\u00a6\u00db\u012e": 4949, "\u00d1\u0122\u00d0\u00b0\u00d0\u00b2": 4950, "\u0120roz": 4951, "\u0120pan": 4952, "\u00e1\u0125\u0136\u00e1\u0125\u0133\u00e1\u0125\u013a\u00e1\u0125\u0139": 4953, "\u00d9\u012a\u00d8\u00b4": 4954, "\u0120\u00c8\u013bi": 4955, "\u0120ett": 4956, "\u0120Jan": 4957, "\u00e0\u00ae\u00bf\u00e0\u00ae\u00a4\u00e0\u00af\u012f\u00e0\u00ae\u00a4": 4958, "\u0120don": 4959, "dy": 4960, "\u00d8\u00b1\u00d8\u00a9": 4961, "\u00e0\u00ae\u00a9\u00e0\u00af\u012f\u00e0\u00ae\u00b1": 4962, "\u0120\u00d8\u00af\u00db\u012e": 4963, "\u00e0\u00b1\u012f\u00e0\u00b0\u013c": 4964, "\u0120Mat": 4965, "\u012042": 4966, "ebru": 4967, "\u00d0\u00bd\u00d0\u00b0\u00d1\u0124\u00d0\u00b0": 4968, "\u0120Im": 4969, "endo": 4970, "\u0120tit": 4971, "\u0120Su": 4972, "\u00e0\u00ae\u00be\u00e0\u00ae\u00a9\u00e0\u00af\u012f": 4973, "\u00e0\u00af\u0123\u00e0\u00ae\u00b3": 4974, "\u00e8\u00b5\u013d": 4975, "d\u00c9\u013b": 4976, "EC": 4977, "\u00e5\u012e\u0138": 4978, "\u012058": 4979, "\u0120cer": 4980, "\u0120\u00e0\u00aa\u0137\u00e0\u00aa\u00b0\u00e0\u00ab\u0122": 4981, "\u00c3\u00a9k": 4982, "car": 4983, "\u00e0\u00b8\u0143\u00e0\u00b8\u00a5": 4984, "\u0120\u00d1\u0138\u00d0\u00bd": 4985, "\u00e0\u00aa\u00be\u00e0\u00aa\u0139": 4986, "\u0120l\u00c3\u00a4": 4987, "\u0120Ag": 4988, "\u0120May": 4989, "\u0120qil": 4990, "\u00d7\u0137\u00d7\u00a2": 4991, "\u00e7\u0141": 4992, "\u0120//": 4993, "\u00d0\u00b0\u00d1\u0128\u00d1\u012e": 4994, "irm": 4995, "\u00e0\u00b5\u0128\u00e0\u00b4\u00a8\u00e0\u00b5\u012f\u00e0\u00b4\u00a8": 4996, "\u0120\u00e5\u012e": 4997, "\u0100\u0100\u0100\u0100\u0100\u0100\u0100\u0100": 4998, "lad": 4999, "\u0120\u00e1\u0123\u0124": 5000, "\u00e0\u00b4\u00b1\u00e0\u00b5\u012f\u00e0\u00b4\u00b1": 5001, "\u00e1\u0142": 5002, "\u00d8\u00b3\u00d9\u0127": 5003, "\u0120\u00d0\u00bf\u00d0\u00be\u00d1\u0123": 5004, "\u0120program": 5005, "rem": 5006, "aca": 5007, "\u00d0\u00bb\u00d0\u00b5": 5008, "\u0120ru": 5009, "\u00d7\u0137\u00d7\u00a7": 5010, "\u0120tem": 5011, "eren": 5012, "enda": 5013, "\u0120blog": 5014, "\u00d0\u00b0\u00d0\u00bd\u00d0\u00b0": 5015, "IM": 5016, "\u00c3\u00a9l": 5017, "\u00e7\u0124\u00b9": 5018, "\u00e0\u00b5\u00be": 5019, "\u0120kel": 5020, "\u0120ass": 5021, "\u00d9\u0128\u00d8\u00aa": 5022, "\u00e9\u013e": 5023, "\u00e0\u00ae\u00be\u00e0\u00ae\u00b2\u00e0\u00af\u012f": 5024, "olu": 5025, "\u00e0\u00b8\u00b9\u00e0\u00b9\u012b": 5026, "\u00d0\u00b0\u00d0\u00bd\u00d0\u00b5": 5027, "\u00e0\u00a5\u012f\u00e0\u00a4\u00b5": 5028, "\u0120\u00d8\u00b4\u00d8\u00b1": 5029, "ulo": 5030, "\u0120\u00e0\u00a6\u00b9\u00e0\u00a7\u0141": 5031, "ario": 5032, "\u00e0\u00b0\u00b2\u00e0\u00b1\u0123": 5033, "enta": 5034, "\u0120mol": 5035, "\u0120gb": 5036, "\u00e0\u00b0\u00aa\u00e0\u00b1\u012f\u00e0\u00b0\u00aa": 5037, "\u0120dag": 5038, "\u00e6\u0140\u013e": 5039, "\u00e1\u0125\u0136\u00e1\u0125\u013e\u00e1\u0125\u00a2": 5040, "itar": 5041, "\u00e8\u012b\u00b2": 5042, "\u0120cat": 5043, "\u00d0\u00b0\u00d1\u012c": 5044, "\u00e5\u00bf\u00ab\u00e4\u00b8\u012b": 5045, "\u0120i\u00c3\u00a7": 5046, "\u00ec\u0126\u00b1": 5047, "\u00e0\u00aa\u00be\u00e0\u00aa\u00b0\u00e0\u00ab\u0122": 5048, "ns": 5049, "\u00e1\u0122\u00ac\u00e1\u0122\u00b8\u00e1\u0122\u0140": 5050, "anie": 5051, "\u00e0\u00b4\u00be\u00e0\u00b4\u00af\u00e0\u00b4\u00bf": 5052, "\u00cf\u0129\u00ce\u00b5\u00ce\u00b9": 5053, "\u0120sit": 5054, "\u0120\u00ec\u00b6\u013e\u00ec\u0140\u00a5": 5055, "\u0120\u00ea\u00b0\u0122": 5056, "\u0120leb": 5057, "\u0120\u00ec\u013e": 5058, "\u0120\u00e1\u0125\u00a1\u00e1\u0125\u0132\u00e1\u0125\u013d": 5059, "\u00e1\u0125\u00a3\u00e1\u0125\u0142\u00e1\u0125": 5060, "\u0120\u00e0\u00b8\u00ab": 5061, "\u00e1\u0122\u012c\u00e1\u0122\u00b9\u00e1\u0122\u00b7": 5062, "\u00e0\u00aa\u00be\u00e0\u00aa\u012a": 5063, "\u00e0\u00b4\u00a8\u00e0\u00b5\u012f\u00e2\u0122\u012f": 5064, "\u0120Rep": 5065, "\u00e1\u0122\u0127\u00e1\u0122\u00b9": 5066, "\u0120\u00d8\u00a7\u00d8\u00b9": 5067, "AG": 5068, "\u00ec\u0137\u0126": 5069, "\u00d9\u0126\u00d8\u00b3": 5070, "nu": 5071, "\u00be\u00b3\u00e9\u0139\u00a8": 5072, "\u00d9\u0124\u00d8\u00a9": 5073, "\u00e5\u00a6": 5074, "leg": 5075, "75": 5076, "\u0120mad": 5077, "\u0120v\u00c3\u00bd": 5078, "\u00d0\u00be\u00d1\u0140": 5079, "\u00e0\u00b4\u00bf\u00e0\u00b4\u00a8\u00e0\u00b5\u012f\u00e0\u00b4": 5080, "\u00d9\u0126\u00d8\u00a9": 5081, "\u00c3\u00a1ch": 5082, "\u00d1\u0123\u00d1\u0124\u00d0\u00b2\u00d0\u00be": 5083, "\u00e1\u0125\u00ae\u00e1\u0125\u0137": 5084, "\u00d0\u00be\u00d1\u0131": 5085, "\u0120\u00ce\u00b4\u00ce\u00b5\u00ce\u00bd": 5086, "inde": 5087, "\u00e5\u012a\u0128\u00e5\u00bd\u00a9": 5088, "\u0120uit": 5089, "\u00e1\u0123\u00bf\u00e1\u0122\u0137\u00e1\u0122\u00ae\u00e1\u0122\u00b8": 5090, "\u0120ide": 5091, "\u00e5\u00bb": 5092, "\u00e0\u00aa\u0124\u00e0\u00aa\u00a4": 5093, "aku": 5094, "\u00e1\u0125\u0132\u00e1\u0125\u00a8": 5095, "\u0120prz": 5096, "\u0120(\"": 5097, "itet": 5098, "\u00e0\u00a6\u00be\u00e0\u00a6\u00b9": 5099, "\u00e0\u00b9\u0126\u00e0\u00b8\u00a1\u00e0\u00b9\u012a": 5100, "\u00d0\u00bb\u00d0\u00b0\u00d1\u0122\u00d0\u00b8": 5101, "\u00d0\u00b5\u00d0\u00bd\u00d1\u012e": 5102, "\u00c4\u0141\u00c4\u00b1": 5103, "over": 5104, "\u00e5\u012e\u00ba": 5105, "dr": 5106, "\u0120cel": 5107, "\u00d8\u00aa\u00d8\u00a7": 5108, "\u00e1\u0125\u0132\u00e1\u0125\u0138": 5109, "\u0120\u00c3\u0138": 5110, "\u00d9\u0129\u00e2\u0122\u012e": 5111, "\u00ed\u0128": 5112, "\u00e0\u00b0\u00b2\u00e0\u00b1\u012d": 5113, "eve": 5114, "\u00e1\u0125\u0132\u00e1\u0125\u00a5": 5115, "api": 5116, "\u00ce\u00b9\u00ce\u00ba\u00ce\u00ae": 5117, "\u0120oh": 5118, "\u0120\u00e0\u00b4\u0130\u00e0\u00b4\u00a8\u00e0\u00b5\u012f\u00e0\u00b4\u00a8": 5119, "\u0120vil": 5120, "ava": 5121, "\u00d9\u0129\u00d8\u00b1": 5122, "ijn": 5123, "\u0120\u00e1\u0122\u0134\u00e1\u0122\u00ae": 5124, "ots": 5125, "\u00e8\u00a7\u0128\u00e9\u00a2\u0133": 5126, "\u00d0\u0135": 5127, "\u0120\u00e4\u00b8\u0143": 5128, "\u00e0\u00b8\u012f": 5129, "\u00e4\u00bb\u00b6": 5130, "\u0120\u00e0\u00a6\u0129": 5131, "\u00e1\u0122\u0132\u00e1\u0122\u013c\u00e1\u0122\u00ba": 5132, "\u0120alt": 5133, "\u00d8\u00b3\u00d8\u00a8": 5134, "istr": 5135, "\u0120exp": 5136, "\u00e0\u00b8\u00a9": 5137, "\u0120fel": 5138, "\u00c3\u0142n": 5139, "\u00e0\u00b5\u0123\u00e0\u00b4\u00a8\u00e0\u00b5\u012f\u00e0\u00b4\u00a8\u00e0\u00b5\u0123": 5140, "\u00e0\u00a7\u0129\u00e0\u00a6\u013d\u00e0\u00a7\u0129": 5141, "II": 5142, "\u00d2\u00b7": 5143, "umb": 5144, "ally": 5145, "\u00d0\u00bc\u00d0\u00b0": 5146, "rij": 5147, "\u0120bas": 5148, "emi": 5149, "\u00e0\u00aa\u00ab": 5150, "\u0120s\u00c4\u0125": 5151, "\u00ed\u013b\u0136": 5152, "\u0120best": 5153, "\u0120div": 5154, "34": 5155, "unk": 5156, "\u00d9\u012a\u00d8\u00ac": 5157, "\u0120\u00c3\u00abs": 5158, "\u00e0\u00aa\u00a8\u00e0\u00ab\u0123\u00e0\u00aa\u0124": 5159, "\u0120Fr": 5160, "\u0120\u00e2\u0126": 5161, "\u00e1\u0122\u00b0\u00e1\u0122\u00b8\u00e1\u0122": 5162, "\u00ac\u00ac": 5163, "\u0120\u00e0\u00a4\u00ab": 5164, "\u00e3\u0123\u012c": 5165, "\u00e0\u00ab\u012f\u00e0\u00aa\u00b7": 5166, "\u0120mb": 5167, "adas": 5168, "\u00e0\u00b8\u00b4\u00e0\u00b8\u0137": 5169, "\u0120\u00d0\u00bd\u00d0\u00b0\u00d0\u00bf": 5170, "ulu": 5171, "tur": 5172, "fe": 5173, "\u00e1\u0125\u0138\u00e1\u0125\u0136": 5174, "\u0120\u00e0\u00a6\u00ab": 5175, "\u00e1\u0122\u013e\u00e1\u0122\u00ac": 5176, "\u0120\u00d8\u00af\u00d8\u00a7\u00d9\u0128": 5177, "\u0120\u00c3\u00absht\u00c3\u00ab": 5178, "\u00c6\u00b0\u00e1\u00bb\u013d": 5179, "\u00e1\u0122\u0143\u00e1\u0122\u00af\u00e1\u0122\u0126\u00e1\u0122\u00b9\u00e1\u0122\u00b8": 5180, "pre": 5181, "\u0120DE": 5182, "\u0120entre": 5183, "\u00c3\u00bcm": 5184, "\u0120c\u00c3\u00a1c": 5185, "\u0120\u00d0\u00bf\u00d1\u0122\u00d0\u00b8": 5186, "\u0120\u00d9\u0128\u00db\u012e": 5187, "\u0120\u00e0\u00b4\u00af": 5188, "ales": 5189, "\u0120\u00ce\u00b5\u00ce\u00bd": 5190, "\u00e1\u00bb\u013bt": 5191, "\u00e0\u00b5\u012a": 5192, "\u0120\u00e0\u00ae\u0137\u00e0\u00af\u012c": 5193, "l\u00c9\u013b": 5194, "yg": 5195, "IR": 5196, "\u00e0\u00af\u0123\u00e0\u00ae\u00a8\u00e0\u00af\u012f\u00e0\u00ae\u00a4": 5197, "\u00d8\u00b2\u00d8\u00a7\u00d8\u00b1": 5198, "ics": 5199, "\u0120\u00d0\u00b1\u00d1\u0125\u00d0\u00b4": 5200, "\u0120inte": 5201, "\u00e0\u00a7\u00a6": 5202, "\u0120\u00d0\u00b1\u00d0\u00b0": 5203, "\u0120\u00e0\u00aa\u00af": 5204, "\u0120\u00e0\u00b8\u013c": 5205, "\u0120Her": 5206, "\u00e0\u00b0\u00bf\u00e0\u00b0\u0137\u00e0\u00b0\u00bf": 5207, "cel": 5208, "\u00e8\u00b0": 5209, "\u00e0\u00b4\u00bf\u00e0\u00b4\u00a4": 5210, "\u0120t\u00e1\u00bb": 5211, "\u00ea\u00b1\u00b8": 5212, "\u0120Ser": 5213, "\u0120but": 5214, "\u0120\u00e0\u00a4\u0138": 5215, "\u0120ze": 5216, "\u0120\u0108": 5217, "\u00cf\u0125\u00ce\u00b1": 5218, "iten": 5219, "uer": 5220, "\u0120\u00e5\u0129\u00af\u00e5\u0131\u0133": 5221, "sta": 5222, "\u0120cs": 5223, "\u00e0\u00b0\u00bf\u00e0\u00b0\u00af": 5224, "n\u00c3\u00bd": 5225, "\u0120get": 5226, "oro": 5227, "\u0120\u00db\u00b1\u00db": 5228, "\u00e0\u00b4\u00a8\u00e0\u00b5\u012f\u00e0\u00b4\u00a4": 5229, "\u00e1\u0122\u0132\u00e1\u0122\u00b9": 5230, "\u00d1\u0128\u00d1\u012d": 5231, "\u00e1\u0125\u0136\u00e1\u0125\u013f": 5232, "\u0120\u00da\u00a9\u00db\u012e\u00d8\u00a7": 5233, "\u00e8\u00aa": 5234, "\u00d8\u00aa\u00d9\u0126": 5235, "\u00eb\u00b2": 5236, "\u00e9\u0122\u013c": 5237, "yle": 5238, "\u0120let": 5239, "nik": 5240, "\u00e0\u00b8\u0142": 5241, "\u0120aw": 5242, "lag": 5243, "\u00c3\u0142y": 5244, "\u0120\u00e0\u00a4\u00b9\u00e0\u00a5\u012a\u00e0\u00a4\u0124": 5245, "\u0120\u00c3\u0129": 5246, "\u01202007": 5247, "\u0120\u00e0\u00b9\u0126": 5248, "\u0120ao": 5249, "\u0120kh\u00c3\u00b4ng": 5250, "\u0120\u00d8\u00af\u00d8\u00a7\u00d8\u00b1": 5251, "\u0120\u00d0\u00a6": 5252, "\u0120dal": 5253, "\u00e0\u00b9\u012b\u00e0\u00b8\u00a7": 5254, "\u00e0\u00b4\u00b2\u00e0\u00b5\u012f\u00e0\u00b4\u00b2": 5255, "\u00d7\u0137\u00d7\u0139": 5256, "\u0120kol": 5257, "ments": 5258, "\u00e8\u00b2": 5259, "amento": 5260, "76": 5261, "\u0120Men": 5262, "\u00e1\u00bb\u0141": 5263, "\u00d8\u0143\u00d8\u00af": 5264, "\u0120\u00d8\u00ab": 5265, "\u0139\u00e4\u00ba\u00ac": 5266, "\u00e0\u00a4\u00bf\u00e0\u00a4\u00af\u00e0\u00a4\u00be": 5267, "\u00cf\u0123\u00cf\u0130": 5268, "\u00bd\u013e": 5269, "\u00cf\u0123\u00ce\u0143": 5270, "\u0120WWW": 5271, "\u0120\u00e0\u00b4\u00b6": 5272, "vat": 5273, "\u0120itu": 5274, "\u00e1\u0125\u013a\u00e1\u0125\u0138": 5275, "cu": 5276, "ahan": 5277, "\u0120\u00d8\u00a8\u00db\u012e": 5278, "\u0120_": 5279, "\u00e1\u00b9\u00a3\u00e1\u00ba\u00b9": 5280, "\u00c4\u00b1n\u00c4\u00b1": 5281, "\u0120\u00e0\u00a7\u00a8": 5282, "\u00d0\u00bd\u00d0\u00b0\u00d1\u0129": 5283, "\u00e1\u0122\u013d\u00e1\u0122\u00bd\u00e1\u0122\u0143": 5284, "\u00e0\u00b8\u012d": 5285, "\u0120uk": 5286, "\u0120als": 5287, "ones": 5288, "\u00d0\u00bc\u00d1\u0138": 5289, "\u00e5\u00af\u00b9": 5290, "\u0120resp": 5291, "ble": 5292, "cs": 5293, "\u00e1\u0122\u00b1\u00e1\u0123\u00be\u00e1\u0122\u0122": 5294, "omo": 5295, "\u00ec\u0137\u012a\u00eb\u00a7\u012a": 5296, "\u0120\u00d8\u00b3\u00db\u012e": 5297, "\u0120oc": 5298, "\u0120\u00ef\u00bf\u00bd\u00ef\u00bf\u00bd\u00ef\u00bf\u00bd\u00ef\u00bf\u00bd\u00ef\u00bf\u00bd": 5299, "\u00e0\u00b5\u012f\u00e0\u00b4\u0140": 5300, "\u00e3\u0123\u00aa\u00e3\u0123\u0126": 5301, "\u0120video": 5302, "\u0120',": 5303, "\u00d9\u012c\u00d9\u0129": 5304, "\u0120\u00e0\u00a4\u0131\u00e0\u00a4\u0137": 5305, "\u0120\u00da\u012a": 5306, "\u0120Mal": 5307, "ister": 5308, "\u00cf\u0128\u00ce\u00bf": 5309, "\u00e7\u00ab\u00af": 5310, "bat": 5311, "\u0120\u00e0\u00aa\u013a": 5312, "\u00ca\u00bbi": 5313, "\u00e0\u00b0\u0124\u00e0\u00b0\u00a1": 5314, "\u00e0\u00b0\u00bf\u00e0\u00b0\u00aa": 5315, "\u00e6\u0125\u0127": 5316, "mat": 5317, "usk": 5318, "\u00e1\u0125\u013f\u00e1\u0125\u00a4": 5319, "\u0120\u00d0\u00b0\u00d0\u00ba": 5320, "\u00c5\u0126": 5321, "\u0120dia": 5322, "idad": 5323, "\u0120\u00cf\u0126\u00ce\u00b9\u00cf\u0124": 5324, "\u0120\u00e0\u00aa\u00a7": 5325, "\u0120\u00e0\u00aa\u00a4\u00e0\u00ab\u0129\u00e0\u00aa\u00ae": 5326, "\u00e1\u0122\u0136\u00e1\u0122\u00b9\u00e1\u0122\u013b": 5327, "\u0120pm": 5328, "\u0120kal": 5329, "\u00c5\u012a": 5330, "\u0120\u00e1\u0122\u00b1\u00e1\u0122\u013d": 5331, "\u0120\u00e0\u00a4\u00a8\u00e0\u00a5\u0129": 5332, "\u00d0\u00b5\u00d0\u00bd\u00d0\u00be": 5333, "\u00e5\u0128\u012e": 5334, "\u00c3\u00a4m": 5335, "\u0120produc": 5336, "\u0120parti": 5337, "\u00e1\u0122\u00ac\u00e1\u0122\u00b8\u00e1\u0122\u013e": 5338, "\u00e1\u0125\u013a\u00e1\u0125\u00a8": 5339, "\u0120\u00d8\u00ae\u00d9\u012a\u00d8\u00af": 5340, "\u00e7\u013b\u00bb\u00e5\u00bd\u0137": 5341, "ulle": 5342, "\u0120\u00e0\u00b8\u00a1": 5343, "bil": 5344, "can": 5345, "\u00e5\u00bd\u00b1": 5346, "\u00c3\u00a7a": 5347, "oss": 5348, "\u0120\u00da\u00a9\u00d8\u00b1\u00d8\u00af": 5349, "\u00e0\u00b8\u0143\u00e0\u00b8\u0123": 5350, "\u00e4\u00ba\u012e": 5351, "\u00d0\u00b5\u00d1": 5352, "nak": 5353, "\u00e5\u0132\u0130": 5354, "\u0120\u00e2\u013a": 5355, "\u00d0\u00b2\u00d0\u00be\u00d1\u0122": 5356, "\u0120nas": 5357, "\u00e0\u00b9\u0126\u00e0\u00b8\u013d": 5358, "\u0120~": 5359, "\u00e0\u00b1\u012f\u00e0\u00b0\u00b8": 5360, "\u0120\u00e0\u00b8\u013b": 5361, "\u0120org": 5362, "\u00e1\u0125\u0137\u00e1\u0125\u0136\u00e1\u0125\u013e": 5363, "\u00d0\u00b0\u00d1\u0124\u00d0\u00be": 5364, "\u012041": 5365, "hen": 5366, "\u00eb\u0124\u013a": 5367, "\u0120Kar": 5368, "\u00d0\u00bd\u00d1\u012d\u00d0\u00b5": 5369, "\u0120pak": 5370, "\u00d1\u0125\u00d1\u0127": 5371, "\u00ce\u00bc\u00cf\u012e": 5372, "\u00c6\u0131": 5373, "\u00cf\u0126\u00ce\u00b1\u00ce\u00bd": 5374, "\u0120\u00d0\u00b5\u00d0\u00b4": 5375, "\u00e0\u00a4\u00bf\u00e0\u00a4\u0131": 5376, "\u0120\u00e1\u0122\u013e\u00e1\u0122\u00b0": 5377, "\u0120\u00d0\u00be\u00d1\u0122": 5378, "\u00d0\u00bd\u00d0\u00be\u00d0\u00b2": 5379, "\u0120cha": 5380, "\u0120\u00d9\u012a\u00db\u0123": 5381, "\u00d7\u0137\u00d7\u00a1": 5382, "ants": 5383, "\u0120\u00d8\u00a8\u00d8\u00a7\u00d8\u00b2": 5384, "\u00e0\u00af\u012a\u00e0\u00ae\u0137": 5385, "\u00e6\u012a\u0133": 5386, "ining": 5387, "\u0120\u00d0\u00bd\u00d0\u00be": 5388, "\u0120esta": 5389, "\u00d0\u00bb\u00d1\u0130": 5390, "kon": 5391, "\u0120\u00e1\u0125\u00a1\u00e1\u0125\u0132\u00e1\u0125\u00a5": 5392, "\u0120nuk": 5393, "\u00e0\u00a4\u00bf\u00e0\u00a4\u00a8": 5394, "\u0120Est": 5395, "\u0120\u00d0\u00b8\u00d0\u00bb\u00d0\u00b8": 5396, "tica": 5397, "\u0120acc": 5398, "\u012053": 5399, "\u0120\u00d0\u00be\u00d0\u00bf": 5400, "\u00c5\u00a1\u00c3\u0143": 5401, "\u00e3\u0123\u00a3\u00e3\u0123\u0141": 5402, "\u0120\u00d8\u00a7\u00d8\u00ae": 5403, "\u00d9\u012c\u00d9\u0123": 5404, "zer": 5405, "\u0120\u00c5\u00bee": 5406, "\u0120\u00d2\u00b3\u00d0\u00b0\u00d0\u00bc": 5407, "osi": 5408, "\u00e1\u00ba\u00b7": 5409, "\u00e0\u00b5\u0123\u00e0\u00b4\u00b3\u00e0\u00b5\u012f\u00e0\u00b4\u00b3": 5410, "\u0120gen": 5411, "\u00e0\u00a4\u00be\u00e0\u00a4\u00a6": 5412, "\u0120\u00d0\u00b0\u00d0\u00b2": 5413, "\u00eb\u012f": 5414, "\u00e0\u00af\u0123\u00e0\u00ae\u0137\u00e0\u00af\u012f\u00e0\u00ae\u0137\u00e0\u00af\u0123": 5415, "\u0120\u00ce\u00b5\u00ce\u00ba": 5416, "\u0120\u00ce\u00bc\u00ce\u0143": 5417, "\u00d0\u00a3": 5418, "\u00e5\u012a\u0134": 5419, "\u00ce\u00bc\u00ce\u00ac": 5420, "\u00c8\u013di": 5421, "AB": 5422, "\u00ec\u0142\u013e": 5423, "\u00cf\u0129\u00ce\u00b5": 5424, "\u00d1\u0123\u00d1\u0124\u00d0\u00b0\u00d0\u00b2": 5425, "\u0120hy": 5426, "ume": 5427, "\u00eb\u00b6\u0122": 5428, "\u0120\u00e3\u0122\u012f": 5429, "\u00e0\u00ab\u012d\u00e0\u00aa\u00a1": 5430, "\u0120hat": 5431, "\u0120\u00d9\u00b9": 5432, "\u0120\u00c4\u0133\u00c6\u00b0\u00e1\u00bb\u00a3c": 5433, "iter": 5434, "lh": 5435, "\u00e0\u00b1\u012f\u00e0\u00b0\u00ae": 5436, "\u00ec\u0125\u0123": 5437, "tar": 5438, "\u00e6\u0134": 5439, "\u0120pada": 5440, "\u00d1\u012c\u00d0\u00bb": 5441, "\u0120.)": 5442, "\u012057": 5443, "\u00c3\u0141": 5444, "\u0120\u00d1\u0123\u00d0\u00b8": 5445, "\u00e5\u00a4\u0138": 5446, "\u00e6\u0138\u013b": 5447, "\u0120\u00e6\u00be\u00b3\u00e9\u0139\u00a8": 5448, "fin": 5449, "\u0120\u00e0\u00a6\u0138": 5450, "\u00e6\u0141": 5451, "\u0120\u00e0\u00a4\u0129\u00e0\u00a4\u00b8": 5452, "\u00d0\u00bd\u00d0\u00b8\u00d1\u0127": 5453, "\u00d1\u0124\u00d0\u00be\u00d1\u0122": 5454, "\u0120\u00d8\u00a8\u00d9\u0126": 5455, "RO": 5456, "\u0120ah": 5457, "\u00e0\u00b1\u0124": 5458, "\u00d8\u00a8\u00d8\u00af": 5459, "\u0120\u00d7\u00a6": 5460, "\u0120akan": 5461, "\u00e7\u00a9": 5462, "\u00e0\u00a7\u0125": 5463, "\u00e0\u00b9\u0122\u00e0\u00b8\u0136": 5464, "\u00bb\u00e1\u0122\u0137\u00e1\u0122\u00ac": 5465, "\u0120\u00e5\u00bd\u00a9": 5466, "\u00e0\u00b9\u012a\u00e0\u00b8\u0143\u00e0\u00b8\u0129": 5467, "\u00e0\u00a7\u0124": 5468, "\u00e0\u00b0\u00b9": 5469, "\u00e0\u00b8\u0126\u00e0\u00b8\u00a7\u00e0\u00b8\u00b2\u00e0\u00b8\u00a1": 5470, "\u0120Online": 5471, "\u0120Ja": 5472, "\u0120\u00e1\u0125\u0136\u00e1\u0125\u0142\u00e1\u0125\u0139": 5473, "\u0120\u00ec\u0137\u0126": 5474, "\u00c4\u00b1k": 5475, "\u00d1\u0127\u00d0\u00be\u00d0\u00b4": 5476, "\u0120\u00ce\u00bf\u00ce\u00b9": 5477, "\u0120\u00d1\u0123\u00d0\u00bc": 5478, "plic": 5479, "\u0120ved": 5480, "\u0120\u00eb\u0131": 5481, "\u00e0\u00b0\u013e": 5482, "\u0120Da": 5483, "\u0120\u00d8\u00ac\u00d9\u0127": 5484, "\u0120Col": 5485, "\u0120\u00d8\u00ac\u00d9\u012a": 5486, "\u00ed\u0125": 5487, "\u00d0\u00b3\u00d1\u0122": 5488, "\u0120oa": 5489, "\u00e1\u0125\u0138": 5490, "\u0120bon": 5491, "\u00c3\u00abm": 5492, "\u00cf\u0126\u00ce\u00af": 5493, "\u0120off": 5494, "\u0120\u00e6\u012b": 5495, "\u0120function": 5496, "\u0120hv": 5497, "\u00e1\u0122\u0137\u00e1\u0122\u00ab\u00e1\u0122\u0132\u00e1\u0122\u013c\u00e1\u0122\u00b9": 5498, "ishi": 5499, "entes": 5500, "df": 5501, "\u00e1\u0125\u0132\u00e1\u0125\u0142\u00e1\u0125\u013a": 5502, "\u0120\u00e0\u00b8\u0139": 5503, "eny": 5504, "\u00e7\u0132\u0125": 5505, "\u00e2\u0122\u00a6\u00e2\u0122\u00a6": 5506, "\u0120\u00e1\u0125\u00a8\u00e1\u0125\u0136\u00e1\u0125\u013d": 5507, "\u00e5\u00b0\u00b1": 5508, "\u00d0\u00bd\u00d0\u00be\u00d0\u00b9": 5509, "\u0120\u00e2\u0138": 5510, "\u0120\u00ea\u00b8\u00b0": 5511, "\u0120ri": 5512, "\u00d9\u0123\u00d8\u00b1": 5513, "\u00e1\u0122\u0123\u00e1\u0122\u00bb": 5514, "\u00e5\u0131\u00b8": 5515, "\u0120hist": 5516, "\u0120Mag": 5517, "\u0120Ap": 5518, "\u0120biz": 5519, "\u00e0\u00a4\u00be\u00e0\u00a4\u013e": 5520, "\u00e7\u013e\u0141\u00e4\u00ba\u00ba": 5521, "\u0120m\u00c3\u00a5": 5522, "\u00e8\u00bf\u013d": 5523, "cip": 5524, "\u0120\u00d8\u00b3\u00d8\u00b1": 5525, "\u0140\u00e0\u00b5\u012f\u00e0\u00b4\u0140": 5526, "\u0120neg": 5527, "\u0120\u00cf\u0125\u00cf\u0127\u00ce\u00bd": 5528, "\u00d1\u0122\u00d0\u00b5\u00d0\u00b4": 5529, "\u0120\u00d9\u012a\u00d8\u00aa": 5530, "\u00e1\u0122\u0143\u00e1\u0122\u00af\u00e1\u0122\u0122\u00e1\u0122\u00b9\u00e1\u0122": 5531, "\u00e8\u00b5\u00b0\u00e5\u012c\u00bf": 5532, "\u0120\u00e0\u00b8\u012a": 5533, "\u0120wo": 5534, "\u00d8\u00ae\u00d8\u00b5": 5535, "\u0120\u00c4\u0133i": 5536, "\u0120Sk": 5537, "isha": 5538, "\u0120sus": 5539, "48": 5540, "\u00d9\u0126\u00d8\u00a8": 5541, "ebook": 5542, "\u00e0\u00aa\u00be\u00e0\u00aa\u00b0\u00e0\u00aa\u00be": 5543, "\u00e0\u00b8\u00b1\u00e0\u00b8\u0136": 5544, "\u00e4\u00bb\u00ac": 5545, "\u0120\u00e0\u00a6\u0128\u00e0\u00a6\u00ae": 5546, "\u00e0\u00a7\u0129\u00e0\u00a6\u0129": 5547, "\u0120bor": 5548, "\u00e0\u00aa\u0138": 5549, "\u0120prin": 5550, "\u0120g\u00c3\u00b6r": 5551, "\u00ec\u0142\u0126": 5552, "itat": 5553, "\u00e0\u00a6\u0141\u00e0\u00a6\u00bf": 5554, "\u0120\u00e5\u013e\u00a8": 5555, "load": 5556, "\u00e0\u00a4\u00a4\u00e0\u00a5\u0129": 5557, "ical": 5558, "ello": 5559, "\u0120\u00e0\u00b8\u0137": 5560, "\u0120\u00d7\u0136\u00d7\u00a9": 5561, "\u00c3\u0143c": 5562, "\u0120aku": 5563, "\u00e9\u00be": 5564, "\u0120ba\u00c5\u0141": 5565, "ester": 5566, "\u00e0\u00a4\u00be\u00e0\u00a4\u013c": 5567, "\u0120jed": 5568, "\u00e8\u0132": 5569, "\u00e6\u00b3\u00a8\u00e5\u0128\u012e": 5570, "\u00e6\u00a5": 5571, "\u0120\u00e0\u00ae\u0130\u00e0\u00ae\u00a9\u00e0\u00af\u012f\u00e0\u00ae\u00b1": 5572, "\u00eb\u0141": 5573, "\u00e7\u012b\u0129": 5574, "\u0120v\u00c3\u00a4": 5575, "\u0120ht": 5576, "\u0120\u00e0\u00b8\u0140": 5577, "\u00e0\u00b5\u012f\u00e0\u00b4\u00b5": 5578, "\u0120\u00ce\u00b1\u00ce\u00bd\u00ce\u00b1": 5579, "\u0120Si": 5580, "\u0120\u00d9\u0128\u00d8\u00b8": 5581, "\u00aa\u00e0\u00b5\u012f\u00e0\u00b4\u00aa": 5582, "yst": 5583, "\u00e0\u00b4\u00b6": 5584, "\u0120pass": 5585, "\u00e4\u00b9\u0127": 5586, "oria": 5587, "\u00e0\u00ae\u00be\u00e0\u00ae\u00b5": 5588, "\u00e0\u00b5\u012f\u00e0\u00b4\u00ae": 5589, "ox": 5590, "anz": 5591, "\u00e6\u013e\u0141": 5592, "\u00d1\u0129\u00d0\u00b8": 5593, "\u00d8\u00b9\u00d8\u00a9": 5594, "\u00e8\u012d": 5595, "\u00e9\u013c": 5596, "\u00d9\u0125\u00d9\u0128": 5597, "uje": 5598, "\u0120Ge": 5599, "\u00cf\u0125\u00cf\u0126\u00ce\u00b5": 5600, "\u0120Har": 5601, "dag": 5602, "\u00cf\u0122\u00ce\u00b1": 5603, "\u0120\u00d8\u00ac\u00d8\u00af": 5604, "\u00e0\u00b8\u00b8\u00e0\u00b8\u0136": 5605, "\u00e1\u00bb\u0123u": 5606, "\u00c6\u00b0\u00c6\u00a1": 5607, "\u00d0\u00b0\u00d2\u013d": 5608, "lus": 5609, "IK": 5610, "\u0120\u00ed\u0137\u013a": 5611, "\u0120Kr": 5612, "\u00e1\u0122\u0131": 5613, "\u0120sist": 5614, "\u012075": 5615, "\u00e0\u00aa\u00b6\u00e0\u00ab\u0129": 5616, "68": 5617, "\u00eb\u0132": 5618, "\u012052": 5619, "\u0120\u00e0\u00aa\u00b9\u00e0\u00ab\u012d\u00e0\u00aa": 5620, "\u00d7\u013b\u00d7\u013b\u00d7\u013f": 5621, "ques": 5622, "\u00d9\u012c\u00d8\u00a7": 5623, "\u0120eng": 5624, "\u00e5\u0131\u012e": 5625, "bb": 5626, "\u0120\u00e0\u00ae\u0127\u00e0\u00ae\u00a4": 5627, "39": 5628, "\u0126\u00e1\u0122\u00b6": 5629, "\u00e0\u00ab\u0129\u00e0\u00aa\u00b8": 5630, "\u00e4\u00bf\u013f": 5631, "enc": 5632, "\u00e0\u00b9\u0123\u00e0\u00b8\u00a5\u00e0\u00b8\u00b0": 5633, "van": 5634, "\u00d1\u0125\u00d0\u00b7": 5635, "\u00e1\u0125\u00a4": 5636, "\u00c3\u00a9ny": 5637, "tes": 5638, "\u00e0\u00b8\u012a\u00e0\u00b8\u00b0": 5639, "\u00e7\u00bb\u0131": 5640, "\u00e0\u00a6\u00be\u00e0\u00a6\u00aa": 5641, "\u00e5\u00ae\u0140": 5642, "\u00e5\u00be\u0139": 5643, "\u00d1\u0129\u00d1\u012d": 5644, "\u00d7\u013b\u00d7\u00a2": 5645, "\u00e0\u00b8\u00b1\u00e0\u00b9\u012b\u00e0\u00b8\u0129": 5646, "\u00e0\u00aa\u00be\u00e0\u00aa\u0137": 5647, "\u00e0\u00b8\u00b1\u00e0\u00b8\u00a7": 5648, "\u0120js": 5649, "\u0120\u00e1\u0122\u013c": 5650, "\u00e5\u0132\u012f": 5651, "\u0120d\u00c9\u013b": 5652, "\u00e0\u00b9\u0125\u00e0\u00b8\u013b": 5653, "\u00e1\u00ba\u00a7n": 5654, "\u00d0\u00bd\u00d1\u012d\u00d0\u00b9": 5655, "\u00c5\u00a1e": 5656, "UL": 5657, "\u00a1\u00b0": 5658, "\u00a5\u00e0\u00ab\u0129": 5659, "\u00e0\u00b5\u0123\u00e0\u00b4\u00b5": 5660, "\u00d8\u00aa\u00d8\u00a8": 5661, "en\u00c3\u0143": 5662, "\u00ec\u0125\u00b5": 5663, "\u00ce\u00ba\u00ce\u00bf": 5664, "\u0120Reg": 5665, "area": 5666, "\u0120Aut": 5667, "\u012d\u00e7\u012b\u012e": 5668, "reg": 5669, "\u0120beg": 5670, "\u00e0\u00b1\u0123\u00e0\u00b0\u00b2\u00e0\u00b1\u0123": 5671, "\u00e0\u00b0\u00be\u00e0\u00b0\u0124\u00e0\u00b0": 5672, "\u0120under": 5673, "\u0120bur": 5674, "\u0120\u00d0\u00b1\u00d0\u00b5\u00d0\u00b7": 5675, "\u0120gl": 5676, "\u0120IN": 5677, "\u00c3\u00a9sz": 5678, "\u0120\u00d9\u0127\u00db\u012e\u00e2\u0122\u012e": 5679, "\u00d8\u00b9\u00d9\u0126": 5680, "ogle": 5681, "\u00c3\u00a4\u00c3\u00a4n": 5682, "\u0120kes": 5683, "iones": 5684, "\u0120lab": 5685, "\u00e1\u0122\u0123\u00e1\u0122\u00bc": 5686, "\u0120\u00e1\u00b9\u00a3e": 5687, "\u00e0\u00a4\u0137\u00e0\u00a5\u012f\u00e0\u00a4": 5688, "\u00e6\u00ba": 5689, "\u00e0\u00a4\u00b2\u00e0\u00a5\u0129": 5690, "in\u00c4\u0123": 5691, "\u0120\u00ec\u0142\u0126": 5692, "kel": 5693, "\u0120\u00d9\u0128\u00d9\u0127": 5694, "\u0120ana": 5695, "\u0120\u00c3\u00a1": 5696, "\u0120News": 5697, "\u0120hor": 5698, "\u0120\u00d8\u00a8\u00d8\u00af": 5699, "\u00e0\u00a4\u00b0\u00e0\u00a5\u0122": 5700, "65": 5701, "\u0120\u00d0\u00ba\u00d0\u00be\u00d1\u0122": 5702, "\u0120\u00d1\u0122\u00d0\u00b0\u00d0\u00b1\u00d0\u00be\u00d1\u0124": 5703, "vol": 5704, "\u0120\u00d8\u00aa\u00d9\u0124": 5705, "\u00e0\u00b8\u00a8": 5706, "\u00d8\u00b5\u00d9\u0126": 5707, "\u0120more": 5708, "\u00d1\u0125\u00d0\u00b2\u00d0\u00b0\u00d1\u013c\u00d0\u00b5": 5709, "\u0120\u00e1\u0122\u0137\u00e1\u0122\u00bc": 5710, "\u0120\u00c5\u0141i": 5711, "\u0120prop": 5712, "\u00ec\u0142\u0123": 5713, "\u0120\u00e0\u00a6\u013d": 5714, "\u0120della": 5715, "\u0120Kom": 5716, "\u00ed\u0131": 5717, "\u00c3\u00a9ho": 5718, "\u0120cm": 5719, "\u00e0\u00b0\u00be\u00e0\u00b0\u00a4": 5720, "\u00e9\u0124": 5721, "js": 5722, "\u0120nav": 5723, "\u0120mm": 5724, "\u0120peng": 5725, "\u00a3\u00e1\u0125\u013c": 5726, "\u00e0\u00aa\u00be\u00e0\u00aa\u00a8\u00e0\u00ab\u0122": 5727, "\u0120\u00ec\u0138": 5728, "\u00e0\u00ab\u012f\u00e0\u00aa\u00ae": 5729, "\u0120mor": 5730, "\u00e0\u00b0\u00bf\u00e0\u00b0\u00b2": 5731, "\u0120jan": 5732, "\u00e3\u0123\u013b\u00e3\u0124\u012d": 5733, "lin": 5734, "\u0120\u00e0\u00ae\u013c\u00e0\u00af\u0128\u00e0\u00ae\u00af": 5735, "\u00e1\u0122\u00b0\u00e1\u0122\u00b8": 5736, "\u00e6\u00b6": 5737, "ugu": 5738, "ogo": 5739, "\u0120i\u00c5\u0141": 5740, "\u0120sobre": 5741, "\u00e5\u0132\u012e": 5742, "\u0120\u00c2\u00bb.": 5743, "acute": 5744, "\u0120\u00eb\u00ac": 5745, "\u0120ish": 5746, "\u0120sab": 5747, "\u00e1\u0125\u013a\u00e1\u0125\u013a\u00e1\u0125\u00a1": 5748, "jek": 5749, "tie": 5750, "\u00e7\u012a": 5751, "amos": 5752, "\u0120sing": 5753, "\u0120Val": 5754, "\u0120mw": 5755, "\u00ea\u00b5\u0143": 5756, "\u0120trong": 5757, "\u00e5\u0128\u0127": 5758, "\u00e0\u00b8\u013d\u00e0\u00b8\u00a3\u00e0\u00b8\u00b0": 5759, "\u00e6\u012f": 5760, "\u0120\u00d9\u0126\u00d8\u00a7": 5761, "\u0120\u00d0\u0128": 5762, "ump": 5763, "\u00e5\u0141\u0130": 5764, "xx": 5765, "\u0120\u00d7\u013a": 5766, "\u0120Do": 5767, "bay": 5768, "\u0120polit": 5769, "\u0120\u00ce\u00b9": 5770, "aro": 5771, "eter": 5772, "duc": 5773, "\u00e6\u012c\u0122": 5774, "\u00cf\u0122\u00ce\u00b5": 5775, "\u00e7\u00b3": 5776, "px": 5777, "imul": 5778, "\u0120artic": 5779, "\u0120hay": 5780, "\u00d8\u00b4\u00d9\u0128": 5781, "\u0120prov": 5782, "\u00d0\u00ba\u00d0\u00be\u00d0\u00b2": 5783, "\u00e6\u00b0\u00b4": 5784, "\u00e0\u00b0\u00bf\u00e0\u00b0\u00b0": 5785, "ling": 5786, "anto": 5787, "\u00e0\u00a7\u012f\u00e0\u00a6\u00aa": 5788, "\u00d8\u00a7\u00d9\u0127\u00d9\u0126": 5789, "\u00e0\u00a4\u0143": 5790, "\u0120\u00d0\u00bd\u00d0\u00b0\u00d0\u00b2": 5791, "\u00c3\u00a9c": 5792, "\u00c6\u00b0\u00e1\u00bb\u013fi": 5793, "ering": 5794, "\u00d1\u0138\u00d1\u0139": 5795, "\u0120\u00d9\u0126\u00db\u012e": 5796, "\u00e6\u0143\u00a3": 5797, "\u0120\u00d0\u00b4\u00d1\u0122\u00d1\u0125": 5798, "\u00eb\u0127\u00b8": 5799, "\u0120\u00ce\u0134": 5800, "\u00e0\u00af\u012f\u00e0\u00ae\u00ae": 5801, "\u0120end": 5802, "\u00d8\u00b1\u00db\u012e\u00d9\u0128": 5803, "\u00e1\u0122\u0136\u00e1\u0122\u00b2\u00e1\u0124\u0136": 5804, "\u00d8\u00af\u00d8\u00a7\u00d8\u00b1": 5805, "\u0120f\u00c3\u00bcr": 5806, "\u00d8\u00a7\u00d8\u00af\u00d9\u0129": 5807, "\u0120mund": 5808, "\u00e1\u00bb\u013f": 5809, "\u00e6\u012b\u012d\u00e6\u013e\u00ba\u00e7\u012b\u012a": 5810, "\u00e0\u00b9\u0122\u00e0\u00b8\u0124": 5811, "kov": 5812, "\u0120\u00d1\u013e\u00d0\u00b5": 5813, "................": 5814, "\u00cf\u0125\u00ce\u00b9": 5815, "\u0120\u00e0\u00aa\u00b6\u00e0\u00aa\u0137": 5816, "\u00c5\u013dci": 5817, "uts": 5818, "\u00e3\u0123\u00a9": 5819, "\u00e0\u00b8\u013b\u00e0\u00b8\u00b5\u00e0\u00b9\u012b": 5820, "\u0120Mon": 5821, "\u0120Os": 5822, "\u00e0\u00b0\u0141\u00e0\u00b1\u012f\u00e0\u00b0\u0141": 5823, "\u00d3\u00af": 5824, "\u0120\u00d1\u0122\u00d0\u00be\u00d0\u00b7": 5825, "\u0120\u00ce\u00b5\u00cf\u0122\u00ce\u00b9": 5826, "\u0120\u00e6\u013f": 5827, "\u012051": 5828, "\u00e7\u012b\u00a9": 5829, "\u00e0\u00aa\u00be\u00e0\u00aa\u0129": 5830, "\u00e0\u00ae\u00be\u00e0\u00ae\u00af": 5831, "\u00da\u013a": 5832, "\u00e5\u00bc\u0131": 5833, "\u0120\u00d8\u00a7\u00d9\u0126\u00d8\u00b0": 5834, "\u0120doc": 5835, "\u00e7\u0143\u012b": 5836, "trol": 5837, "\u00e0\u00b8\u0141": 5838, "ind\u00c9\u013b": 5839, "\u00d1\u0125\u00d0\u00bb\u00d1\u012e": 5840, "\u00e0\u00b4\u00b2\u00e0\u00b5\u012f\u00e2\u0122\u012f": 5841, "\u0120\u00ec\u00b9\u00b4": 5842, "\u00d9\u012c\u00d8\u00b9": 5843, "yan": 5844, "\u00ec\u0128\u012e": 5845, "\u0120cr": 5846, "\u0120\u00ec\u013c": 5847, "\u0120\u00ef\u00bc\u0141": 5848, "\u00e0\u00b0\u00ac": 5849, "\u00d9\u0127\u00d8\u00a9": 5850, "\u0120jak": 5851, "\u00e9\u0129\u012f": 5852, "\u00d1\u0138\u00d0\u00b7": 5853, "oks": 5854, "\u00d9\u012a\u00d8\u00a7": 5855, "\u0120wi": 5856, "\u00e0\u00b0\u0124\u00e0\u00b0\u00b2\u00e0\u00b1\u012d": 5857, "\u00d0\u00bb\u00d0\u00b0\u00d1\u0124": 5858, "\u00e5\u00ae\u00a2\u00e6\u012a\u00b7": 5859, "\u00e0\u00a7\u012f\u00e0\u00a6\u00a5": 5860, "\u0120\u00e6\u012a\u0133": 5861, "\u00e0\u00b0\u00be\u00e0\u00b0\u00ae": 5862, "\u0120\u00d0\u00b7\u00d0\u00b0\u00d0\u00bf": 5863, "79": 5864, "\u00e0\u00b4\u013b\u00e0\u00b5\u012f\u00e0\u00b4\u013b\u00e0\u00b4\u00b3": 5865, "\u00e0\u00aa\u0124\u00e0\u00aa\u00a6": 5866, "\u00e8\u00bf\u0129": 5867, "\u0120\u00d9\u0127\u00d8\u00b7": 5868, "\u0120Fac": 5869, "\u0120qui": 5870, "\u0120tam": 5871, "\u00d7\u0137\u00d7\u0140": 5872, "\u0120\u00d8\u00a7\u00d9\u0126\u00d8\u00aa\u00d9\u012c": 5873, "enye": 5874, "\u00e3\u0123\u012a": 5875, "\u0120\u00d8\u00a7\u00d8\u0143": 5876, "ading": 5877, "\u0120\u00c3\u012b": 5878, "\u00e8\u00bf\u013b": 5879, "\u00c4\u00b1na": 5880, "\u0120ako": 5881, "\u00e3\u0124\u0123": 5882, "\u0120\u00d0\u00b0\u00d0\u00b7": 5883, "\u0120cal": 5884, "\u0120198": 5885, "\u00e8\u012c": 5886, "\u00e6\u00b0\u0133": 5887, "\u00e7\u0142\u0123": 5888, "\u0120Ni": 5889, "\u00c4\u0135r": 5890, "\u0120ris": 5891, "\u00e1\u0122\u00b1\u00e1\u0122\u013b": 5892, "\u013c\u012e": 5893, "\u00e3\u0123\u012d\u00e3\u0124\u012b": 5894, "\u0120Sup": 5895, "\u0120tom": 5896, "\u00d0\u00b0\u00d1\u0123\u00d0\u00b8": 5897, "\u00d0\u00b2\u00d0\u00b5\u00d1\u0122": 5898, "\u0120like": 5899, "\u00c9\u013bh": 5900, "\u00e0\u00b8\u00b4\u00e0\u00b8\u013b": 5901, "\u00e7\u00b2": 5902, "\u0120Dec": 5903, "\u00d8\u00aa\u00d9\u012c": 5904, "jt": 5905, "\u00ea\u00b5\u00ac": 5906, "\u00d9\u0127\u00d8\u00a7\u00d9\u0126": 5907, "\u00bb\u00e1\u0122\u0123": 5908, "\u00d1\u0124\u00d1\u012d": 5909, "\u00e0\u00ab\u012d\u00e0\u00aa\u00a4": 5910, "\u0126\u00e0\u00b8\u00a3": 5911, "\u0120\u00d7\u0136\u00d7\u00aa": 5912, "\u0120check": 5913, "\u00e6\u00a3\u012d\u00e7\u012b\u012e": 5914, "lich": 5915, "\u00ce\u00bb\u00ce\u00bf\u00ce\u00b3": 5916, "\u0120\u00d0\u00b7\u00d0\u00b0\u00d0\u00ba": 5917, "\u0120ich": 5918, "\u0120nam": 5919, "\u0120produk": 5920, "\u00d1\u0123\u00d0\u00bb": 5921, "\u0120s\u00c3\u00ba": 5922, "\u0120n\u00c3\u00a4": 5923, "\u00e1\u0122\u00af\u00e1\u0122\u0132\u00e1\u0122\u00b9\u00e1\u0122": 5924, "\u0120\u00e0\u00b0\u012a": 5925, "indow": 5926, "\u00ed\u0127": 5927, "\u00e0\u00b0\u00be\u00e0\u00b0\u0141": 5928, "\u0120dans": 5929, "\u00ab\u00e1\u0125\u013c": 5930, "\u0120\u00d9\u0127\u00d8\u00b5": 5931, "ownload": 5932, "\u00e5\u0127\u012f": 5933, "\u00ec\u013c\u0136": 5934, "\u0120\u00e0\u00a4\u00a5": 5935, "\u0120\u00d8\u00b3\u00d8\u00a7\u00d9\u0126": 5936, "\u00d1\u0123\u00d0\u00b8": 5937, "\u00e1\u0122\u013e\u00e1\u0122\u012c\u00e1\u0122\u00b9\u00e1\u0122\u00b8": 5938, "\u0120Apr": 5939, "\u00e0\u00b9\u0122\u00e0\u00b8\u0140": 5940, "ian": 5941, "\u0120\u00d0\u00b1\u00d0\u00b0\u00d1\u0122": 5942, "\u00d0\u00b0\u00d1\u0136": 5943, "\u0120oli": 5944, "\u0120\u00e0\u00a6\u00ac\u00e0\u00a6\u00b2": 5945, "\u0120Aw\u00e1\u00bb\u012fn": 5946, "\u0120ban": 5947, "\u0120film": 5948, "\u0120\u00e0\u00a6\u0141": 5949, "eth": 5950, "fo": 5951, "\u0120\u00ec\u00a7\u0122": 5952, "\u00e0\u00a6\u00bf\u00e0\u00a7\u0141\u00e0\u00a7\u0129": 5953, "\u0120had": 5954, "uru": 5955, "\u0120\u00e3\u0122\u012d": 5956, "\u0120\u00e3\u0122\u012e": 5957, "\u0120Av": 5958, "ach": 5959, "etan": 5960, "\u0120u0": 5961, "\u0120\u00e0\u00aa\u00b8\u00e0\u00aa\u00be\u00e0\u00aa\u00a5\u00e0\u00ab\u0129": 5962, "\u0120Les": 5963, "\u00e6\u0131\u0132": 5964, "\u0120\u00ec\u012d\u013e": 5965, "69": 5966, "\u0120\u00e0\u00a6\u0127\u00e0\u00a6\u00a8": 5967, "\u0120tul": 5968, "\u00c3\u00b5es": 5969, "\u00e0\u00ab\u012d\u00e0\u00aa\u0141": 5970, "\u00e1\u00ba\u00a1n": 5971, "\u0120m\u00e1\u00bb\u013bt": 5972, "==": 5973, "\u00e8\u00a1\u00a8": 5974, "\u0120Europ": 5975, "\u00e0\u00b4\u00b9": 5976, "\u0120gener": 5977, "\u00e9\u0125\u00bd": 5978, "\u012065": 5979, "urr": 5980, "\u0120\u00d0\u00bf\u00d0\u00b0\u00d1\u0122": 5981, "abr": 5982, "\u0120\u00ce\u0143\u00ce\u00bd\u00ce\u00b1": 5983, "\u0120lin": 5984, "\u0120\u00d0\u00ba\u00d0\u00b0\u00d1\u0122": 5985, "\u0120uma": 5986, "\u0120tun": 5987, "\u0120\u00d8\u00a7\u00d9\u0128\u00d8\u00aa": 5988, "\u00d0\u00b7\u00d0\u00b5": 5989, "bal": 5990, "\u0120\u00e1\u0125\u0138": 5991, "\u00e0\u00a4\u00a4\u00e0\u00a5\u0122": 5992, "\u00e8\u00ae\u00a1\u00e5\u012a\u0134": 5993, "\u00e6\u0123": 5994, "\u0120\u00e0\u00a4\u00b5\u00e0\u00a4\u00bf\u00e0\u00a4": 5995, "\u00e9\u00be\u013b": 5996, "\u0120hot": 5997, "\u00e1\u0122\u00af\u00e1\u0122\u0143\u00e1\u0122\u0126\u00e1\u0122\u00b9\u00e1\u0122": 5998, "usta": 5999, "\u0120\u00d7\u0140\u00d7\u00a9": 6000, "\u0120jeg": 6001, "urt": 6002, "\u00e8\u00b5\u0126": 6003, "\u0120\u00ce\u013b": 6004, "\u0120Tag": 6005, "\u00e0\u00aa\u00b5\u00e0\u00aa\u00be\u00e0\u00aa\u00ae\u00e0\u00aa\u00be\u00e0\u00aa\u0124": 6006, "\u0120\u00d0\u00bf\u00d0\u00be\u00d1\u0124": 6007, "\u00e3\u0122\u0123": 6008, "\u00da\u00af\u00d8\u00a7\u00d9\u0129": 6009, "owa": 6010, "\u00e0\u00b4\u00b7": 6011, "\u0120\u00d9\u00be\u00db\u012e": 6012, "\u0120\u00e0\u00a7\u00a7\u00e0\u00a7": 6013, "\u00eb\u00b3\u00b4": 6014, "\u00cf\u0126\u00ce\u0143": 6015, "\u00b4\u0122": 6016, "\u00e6\u0122\u00a7": 6017, "\u0120v\u00e1\u00bb\u013di": 6018, "\u00e3\u0124\u0126": 6019, "\u00d7\u0139\u00d7\u00a8": 6020, "\u0120Ol": 6021, "\u0120300": 6022, "\u0120\u00d0\u00bb\u00d1\u0130": 6023, "\u00e0\u00b5\u0123\u00e0\u00b4\u00a3": 6024, "\u00d0\u0128": 6025, "\u00e0\u00b9\u0122\u00e0\u00b8\u00a3": 6026, "\u00e0\u00b8\u0143\u00e0\u00b8\u013c": 6027, "\u0120Jul": 6028, "49": 6029, "iler": 6030, "\u0120tip": 6031, "\u00e6\u0137\u00b0": 6032, "\u00e4\u00bd\u0135\u00e8\u0124\u00b2": 6033, "\u00e0\u00aa\u00be\u00e0\u00aa\u00b9": 6034, "\u00e1\u0125\u0132\u00e1\u0125\u0142\u00e1\u0125\u0139\u00e1\u0125\u0137\u00e1\u0125\u0136\u00e1\u0125\u013c": 6035, "tions": 6036, "iyy": 6037, "\u00e7\u013f": 6038, "\u00d1\u0123\u00d1\u0124\u00d0\u00b0\u00d0\u00bd": 6039, "ska": 6040, "\u00ca\u00bba": 6041, "\u0120Pe": 6042, "ils": 6043, "wn": 6044, "\u0120gel": 6045, "\u0120\u00e2\u0122\u012d\u00e2\u0122\u012d\u00e2\u0122\u012d": 6046, "\u00e5\u00a2": 6047, "\u00e0\u00b9\u0128": 6048, "\u0120\u00d7\u0136\u00d7\u0139": 6049, "\u0120yap": 6050, "\u00d8\u00b1\u00d8\u00a7\u00d8\u00b1": 6051, "\u00d8\u00ae\u00d8\u00b1": 6052, "\u00e0\u00b0\u00a3": 6053, "\u00e1\u0122\u0123\u00e1\u0122\u00af": 6054, "uti": 6055, "fon": 6056, "\u0120\u00d7\u0133\u00d7\u0132": 6057, "ilor": 6058, "ayan": 6059, "\u00e0\u00a6\u00bf\u00e0\u00a6\u00ac": 6060, "\u0120r\u00e1\u00ba\u00b9": 6061, "\u00a5\u00bf": 6062, "\u00e8\u00a7\u0126": 6063, "\u0120!!": 6064, "\u00e0\u00a5\u0129\u00e0\u00a4\u00b6": 6065, "\u0120auf": 6066, "ober": 6067, "\u0120bah": 6068, "azione": 6069, "\u0120Ko": 6070, "\u00d0\u00bd\u00d0\u00b8\u00d0\u00b9": 6071, ",\"": 6072, "\u00e0\u00b0\u00be\u00e0\u00b0\u0137": 6073, "\u0120\u00e1\u0125\u0136\u00e1\u0125\u00a1": 6074, "\u00e0\u00a6\u00af\u00e0\u00a6\u00bc": 6075, "\u0120Cent": 6076, "\u00ce\u00bb\u00ce\u00bb\u00ce\u00ac": 6077, "\u0120dep": 6078, "gun": 6079, "\u00ce\u00ac\u00cf\u0123": 6080, "\u0120\u00d7\u0140\u00d7\u0136": 6081, "\u0120\u00d8\u00a7\u00d9\u0126\u00d9\u0126\u00d9\u0129": 6082, "\u00e5\u012f\u013c": 6083, "\u0120\u00d8\u00ae\u00d9\u0126": 6084, "\u0120\u00e1\u0122\u00b1\u00e1\u0122\u0136": 6085, "\u00e1\u0122\u00b8\u00e1\u0122\u013d": 6086, "\u00e8\u00bf\u0132": 6087, "pg": 6088, "oth": 6089, "\u00d1\u0137": 6090, "ational": 6091, "\u00d0\u00b8\u00d2\u013d": 6092, "\u0120Cor": 6093, "\u00e1\u0124\u0132": 6094, "\u00d7\u0137\u00d7\u00a6": 6095, "\u0120\u00d9\u012a\u00d8\u00a3": 6096, "\u00c3\u00a1d": 6097, "\u00e3\u0125\u0143": 6098, "\u00d1\u0138\u00d0\u00ba": 6099, "iks": 6100, "\u0120html": 6101, "\u0120\u00d0\u00bd\u00d0\u00b0\u00d0\u00bc": 6102, "\u0120\u00d8\u00b4\u00d8\u00af": 6103, "\u0120\u00d0\u00b3\u00d0\u00b8": 6104, "uch": 6105, "\u00e5\u00b1\u0137": 6106, "unic": 6107, "\u00e8\u00b5\u00b0\u00e5\u012c\u00bf\u00e5\u013d\u00be": 6108, "\u0120cz": 6109, "\u00d9\u0127\u00d8\u00a7\u00d8\u00b1": 6110, "\u0120Den": 6111, "\u00d1\u0125\u00d1\u0122\u00d0\u00b8": 6112, "\u00e0\u00a6\u00a5": 6113, "\u0120nap": 6114, "\u0120m\u00c3\u00a1s": 6115, "\u00c4\u0123l": 6116, "n\u00c3\u00a1": 6117, "\u0120kuwa": 6118, "\u0120aus": 6119, "as\u00c4\u00b1": 6120, "\u00d1\u0124\u00d0\u00b8\u00d1\u0122": 6121, "arch": 6122, "\u0120\u00e0\u00ae\u00b0": 6123, "\u00c4\u00b1n\u00c4\u00b1n": 6124, "\u0120\u00e0\u00a4\u00b8\u00e0\u00a4\u0124": 6125, "\u00e0\u00ab\u012f\u00e0\u00aa\u0137": 6126, "\u00e0\u00ae\u00be\u00e0\u00ae\u00b3": 6127, "\u00cf\u0126\u00ce\u00b9\u00ce\u00ba\u00cf\u012e": 6128, "\u00e1\u0122\u00b1\u00e1\u0122\u00ab": 6129, "ece": 6130, "\u0120bul": 6131, "\u00e1\u0122\u00bb\u00e1\u0122\u0138\u00e1\u0122\u0127\u00e1\u0122\u00b9\u00e1\u0122": 6132, "\u00c4\u0135t": 6133, "\u00e0\u00ae\u013b\u00e0\u00af\u012f\u00e0\u00ae\u0137\u00e0\u00ae\u00b3": 6134, "\u0120\u00c3\u00aent": 6135, "\u00ce\u00b9\u00ce\u00ba\u00ce\u00ac": 6136, "erd": 6137, "\u00d1\u0122\u00d0\u00b0\u00d1\u0124": 6138, "\u0120\u00ed\u013a": 6139, "\u00d1\u0138\u00d1\u0123": 6140, "\u00e9\u0127": 6141, "\u0120\u00d8\u00aa\u00d9\u0128": 6142, "\u0120\u00e0\u00b4\u0134\u00e0\u00b4\u00b0": 6143, "\u0120\u00e0\u00ae\u00aa\u00e0\u00af\u0128": 6144, "\u00e0\u00b0\u0137\u00e0\u00b1\u012f\u00e0\u00b0\u0137": 6145, "\u0120stud": 6146, "\u0120nev": 6147, "\u00e0\u00b8\u0126\u00e0\u00b8\u00a3": 6148, "nej": 6149, "oo": 6150, "\u0120pri": 6151, "\u0120mom": 6152, "gar": 6153, "\u00ec\u013c\u00a9": 6154, "\u00e3\u0125\u0137": 6155, "\u0120kup": 6156, "\u00d1\u0122\u00d0\u00b0\u00d0\u00bc": 6157, "\u0120\u00d7\u0137\u00d7\u0136": 6158, "itor": 6159, "\u00e1\u0122\u0123\u00e1\u0122\u00b6": 6160, "rop": 6161, "\u00e0\u00a7\u0129\u00e0\u00a6\u013d": 6162, "\u00e1\u0125\u0132\u00e1\u0125\u00a4": 6163, "urn": 6164, "\u00e1\u0125\u013a\u00e1\u0125\u00a1\u00e1\u0125\u00a2": 6165, "\u00d9\u0133\u00d9\u0130": 6166, "\u00c5\u00a1i": 6167, "\u0120\u00c2\u00bb,": 6168, "\u00d7\u013b\u00d7\u013a": 6169, "\u0120kont": 6170, "ty": 6171, "press": 6172, "kar": 6173, "\u0120\u00c2\u00a3": 6174, "\u0120\u00d9\u012a\u00d8\u00ac": 6175, "\u0120new": 6176, "\u00cf\u0125\u00ce\u00bf": 6177, "\u00ce\u00bc\u00ce\u00b1\u00cf\u0126\u00ce\u00b1": 6178, "\u0120kir": 6179, "\u00e1\u0123\u013c": 6180, "\u0120\u00e7\u013c\u0126": 6181, "\u0120plan": 6182, "\u00d9\u0125\u00d8\u00a9": 6183, "\u0120\u00d1\u0122\u00d0\u00b0\u00d1\u0123": 6184, "\u00ce\u00b4\u00ce\u00b1": 6185, "\u0120!!!": 6186, "chn": 6187, "\u00e0\u00b4\u00be\u00e0\u00b4\u00b5": 6188, "\u00d0\u00b0\u00d0\u00b3\u00d0\u00b8": 6189, "\u00ec\u0139\u0127": 6190, "\u00e0\u00ab\u0122\u00e0\u00aa\u00a4": 6191, "itas": 6192, "\u0120Sl": 6193, "\u00a4\u0133": 6194, "\u00e5\u0127\u00b3": 6195, "\u00e0\u00ae\u00bf\u00e0\u00ae\u0141\u00e0\u00af\u012f\u00e0\u00ae\u0141": 6196, "\u00bd\u013e\u00ea\u00b1\u00b8": 6197, "\u0120\u00d1\u0130": 6198, "\u0120Tra": 6199, "\u00d9\u012a\u00d8\u00b1\u00db\u012e": 6200, "iva": 6201, "\u0120fot": 6202, "\u0120Posted": 6203, "kr": 6204, "\u0120k\u00c3\u00a4": 6205, "\u00e3\u0123\u0135\u00e3\u0123\u00a8": 6206, "\u00c4\u0125r": 6207, "\u00e9\u0136": 6208, "\u00e5\u012c\u00a1": 6209, "\u0120\u00e0\u00aa\u0135": 6210, "RE": 6211, "esa": 6212, "\u00c9\u013bb": 6213, "\u0120rev": 6214, "\u00bb\u00e1\u0122\u013b": 6215, "\u00e0\u00b8\u013a": 6216, "ible": 6217, "\u0137\u00e1\u0122\u00bc": 6218, "\u00e0\u00b9\u0122\u00e0\u00b8\u00ab": 6219, "\u00e5\u00ae\u00a2\u00e6\u012a\u00b7\u00e7\u00ab\u00af": 6220, "\u00e8\u00a7\u00a3": 6221, "\u0120ag\u00e7\u0130\u00af\u00e4\u00ba\u013c": 6222, "\u00e1\u0125\u0132\u00e1\u0125\u0133": 6223, "\u0120j\u00e1\u00ba\u00b9": 6224, "\u0120--": 6225, "\u00e5\u0127\u0125": 6226, "\u00e0\u00ab\u012f\u00e0\u00aa\u00a5": 6227, "\u0120\u00e0\u00b0\u0143": 6228, "\u0120\u00db\u012e\u00da\u00a9": 6229, "lav": 6230, "\u0120Mer": 6231, "\u0120;&": 6232, "\u00e5\u00bb\u00ba": 6233, "\u00e1\u00bb\u0137": 6234, "UT": 6235, "\u00e1\u0125\u013f\u00e1\u0125\u00aa": 6236, "ower": 6237, "\u0120gu": 6238, "urg": 6239, "\u00d7\u0137\u00d7\u0134": 6240, "\u00e1\u0122\u0137\u00e1\u0122\u00b2": 6241, "\u00e0\u00a5\u012b": 6242, "\u00e0\u00aa\u00be\u00e0\u00aa\u00a8\u00e0\u00aa\u00be": 6243, "ism": 6244, "inh": 6245, "\u00e0\u00b8\u00b2\u00e0\u00b8\u0126": 6246, "\u00d0\u00be\u00d0\u00bd\u00d0\u00b0": 6247, "\u00d8\u00b4\u00d8\u00b1": 6248, "\u00e1\u00ba\u00a3i": 6249, "\u00e1\u0122\u013b\u00e1\u0122\u00ba\u00e1\u0122\u00ac\u00e1\u0122\u00b8": 6250, "obil": 6251, "\u00e0\u00b9\u0122\u00e0\u00b8\u0139": 6252, "\u0120\u00d0\u00bd\u00d0\u00b0\u00d1\u0122": 6253, "\u00e6\u0139\u0139": 6254, "\u00e0\u00ab\u0122\u00e0\u00aa\u0131": 6255, "\u0120\u00d8\u00a7\u00d9\u0135": 6256, "\u00e0\u00ae\u00be\u00e0\u00ae\u00ae": 6257, "\u00d8\u00a7\u00d9\u0128\u00d9\u0129": 6258, "\u0120\u00e0\u00b4\u0141": 6259, "\u00e9\u0137\u00bf": 6260, "\u0120mind": 6261, "\u00e0\u00b4\u00bf\u00e0\u00b4\u00a8\u00e0\u00b5\u012f\u00e0\u00b4\u00b1\u00e0\u00b5\u0128": 6262, "\u00d0\u00bb\u00d0\u00b5\u00d0\u00bd": 6263, "iner": 6264, "\u0120wak": 6265, "\u00d0\u00bd\u00d0\u00b0\u00d0\u00b9": 6266, "\u0120\u00ed\u0137\u013e": 6267, "\u0120sil": 6268, "ll": 6269, "\u0120\u00c5\u0140": 6270, "\u00d0\u00b2\u00d0\u00b5\u00d1\u0124": 6271, "esto": 6272, "\u00d8\u00af\u00d9\u012c": 6273, "\u00d7\u00a9\u00d7\u00a8": 6274, "\u0120\u00d0\u00be\u00d0\u00bd": 6275, "\u00c6\u00b0\u00e1\u00bb\u013fng": 6276, "\u00d1\u0122\u00d0\u00b0\u00d0\u00b7": 6277, "\u0120\u00e5\u00bd\u00a9\u00e7\u00a5\u0140": 6278, "omi": 6279, "\u00e0\u00a4\u012a": 6280, "\u00d1\u012b\u00d0\u00b5": 6281, "\u0120\u00e0\u00aa\u0137\u00e0\u00ab\u012d\u00e0\u00aa": 6282, "ates": 6283, "\u0120rem": 6284, "\u00c6\u00b0\u00c6\u00a1ng": 6285, "\u00d0\u00b5\u00d1\u0122\u00d0\u00b8": 6286, "\u0120\u00d8\u00af\u00d9\u012a": 6287, "\u0120kung": 6288, "eva": 6289, "\u0120\u00d0\u00bd\u00d0\u00b0\u00d0\u00b4": 6290, "\u0120\u00d8\u00ac\u00d9\u0128": 6291, "\u00e0\u00b4\u00bf\u00e0\u00b4\u00b2\u00e0\u00b5\u012f\u00e0\u00b4\u00b2": 6292, "\u00d9\u0126\u00d9\u0129": 6293, "\u0120\u00eb\u0135": 6294, "idan": 6295, "\u0120\u00c5\u00bc": 6296, "rek": 6297, "\u0120Esp": 6298, "\u0120Sal": 6299, "\u00cc\u0123": 6300, "\u00d6\u0123": 6301, "hu": 6302, "etr": 6303, "\u0120gratis": 6304, "\u0120Fl": 6305, "\u00db\u012e\u00d8\u00b3": 6306, "pen": 6307, "\u0120his": 6308, "\u0120All": 6309, "58": 6310, "\u00e1\u0125\u0139\u00e1\u0125\u0132\u00e1\u0125\u013e": 6311, "iza": 6312, "\u0120tas": 6313, "\u0120vai": 6314, "\u0120say": 6315, "\u00d7\u013b\u00d7\u0140": 6316, "\u0120ib": 6317, "\u00eb\u00a9\u00b4": 6318, "\u00e1\u0125\u0132\u00e1\u0125\u0138\u00e1\u0125\u0136": 6319, "\u0120sor": 6320, "\u0120\u00d0\u00ba\u00d1\u0140": 6321, "\u00e5\u0138": 6322, "\u0120\u00e0\u00b0\u00b6": 6323, "\u00ce\u00bc\u00ce\u00b7": 6324, "\u0120\u00d4": 6325, "ublik": 6326, "\u00d0\u00b0\u00d1\u0133": 6327, "\u00e0\u00b4\u00ac": 6328, "eria": 6329, "\u0120\u00e2\u013b": 6330, "del": 6331, "\u0120\u00e1\u0125\u00ab": 6332, "\u0120\u00e0\u00ae\u00b5\u00e0\u00ae\u00b0": 6333, "\u0120\u00e1\u0125\u0132\u00e1\u0125\u0135": 6334, "\u0122\u00e1\u0122\u0143\u00e1\u0122\u00af": 6335, "osta": 6336, "\u00e0\u00a5\u012e": 6337, "\u00e0\u00aa\u00a5": 6338, "\u0120\u00d0\u00bf\u00d0\u00b0\u00d0\u00b4": 6339, "\u0120qo": 6340, "\u0120\u00e0\u00ae\u0134\u00e0\u00ae\u00b0": 6341, "leri": 6342, "\u0120tah": 6343, "\u0120bilan": 6344, "\u00e0\u00ab\u0125": 6345, "\u00c3\u0142ng": 6346, "\u0120()": 6347, "\u0120\u00d8\u00a3\u00d9\u012a": 6348, "\u0120\u00ed\u013b": 6349, "\u00c3\u00b3r": 6350, "IG": 6351, "ske": 6352, "\u0120\u00e9\u0129": 6353, "\u00d0\u00b0\u00d1\u0131": 6354, "\u0120\u00e7\u013e": 6355, "\u00c3\u0123": 6356, "\u00eb\u0131\u013b": 6357, "\u00c3\u0143v": 6358, "\u0120\u00c3\u00aent\u00c3\u00a2": 6359, "\u0120Ng": 6360, "\u00e4\u00bd\u012f": 6361, "\u00d5\u00b8\u00d5": 6362, "\u00e0\u00b8\u0123\u00e0\u00b8\u00b1\u00e0\u00b8\u013c": 6363, "\u00d9\u012d": 6364, "\u00e7\u013d\u00ae": 6365, "\u0120\u00e0\u00aa\u0137\u00e0\u00aa\u00be\u00e0\u00aa\u00b0": 6366, "\u00c3\u00bc\u00c5\u0141": 6367, "iso": 6368, "\u00d1\u0138\u00d0\u00bc": 6369, "ating": 6370, "\u00e1\u0122\u00b8\u00e1\u0122\u0132": 6371, "\u0120yn": 6372, "yar": 6373, "\u0120\u00ec\u0142\u013e": 6374, "\u0120wan": 6375, "\u00ec\u012a\u013a": 6376, "\u00ed\u0126": 6377, "\u00e0\u00ae\u00b3\u00e0\u00af\u012f\u00e0\u00ae\u00b3": 6378, "\u00e5\u0131\u00a3": 6379, "\u00e6\u013a\u0130": 6380, "\u0120\u00d8\u00a7\u00d8\u00af": 6381, "\u00cf\u0126\u00ce\u00b9\u00ce\u00ba\u00ce\u00ae": 6382, "\u00e5\u00b7\u0140": 6383, "\u00e5\u012a\u00b6": 6384, "\u0120Sel": 6385, "\u0120bed": 6386, "\u00e4\u00ba\u00a4": 6387, "\u0120\u00c3\u013e": 6388, "\u0120Med": 6389, "\u00c4\u0123d": 6390, "\u0120\u00cf\u012e\u00cf\u0126\u00ce\u00b9": 6391, "\u00e0\u00a6\u00ac\u00e0\u00a7\u0129": 6392, "\u00e5\u00a5\u0138": 6393, "\u00e0\u00b1\u0123\u00e0\u00b0\u00b0": 6394, "\u00e1\u0122\u00ac\u00e1\u0122\u00b8\u00e1\u0122\u00a1": 6395, "\u0120pap": 6396, "\u00d9\u012c\u00d8\u00aa": 6397, "\u0120\u00e0\u00a6\u0137\u00e0\u00a6\u00b0\u00e0\u00a7\u0129": 6398, "\u00c3\u00b6k": 6399, "\u0120fig": 6400, "\u00e1\u0125\u013f\u00e1\u0125\u0133\u00e1\u0125\u013a\u00e1\u0125\u00a1": 6401, "anh": 6402, "\u0120.\"": 6403, "\u0120\u00ec\u013f\u00b4\u00eb": 6404, "\u0120\u00ce\u00ba\u00ce\u00ac": 6405, "\u00e0\u00b8\u013b\u00e0\u00b9\u012e": 6406, "cy": 6407, "\u0120\u00d0\u00b4\u00d0\u00b5\u00d0\u00ba\u00d0\u00b0": 6408, "\u00d0\u00b2\u00d0\u00b8": 6409, "\u00e6\u00af\u0136": 6410, "\u0120dok": 6411, "ident": 6412, "43": 6413, "\u0120\u00e1\u0125\u00a8\u00e1\u0125\u0136\u00e1\u0125": 6414, "ender": 6415, "\u00ce\u00ba\u00cf\u012e": 6416, "ral": 6417, "\u0120god": 6418, "\u00d0\u00bd\u00d1\u0125": 6419, "\u00e3\u0124\u00bf": 6420, "\u00d0\u00b8\u00d0\u00bd\u00d0\u00b3": 6421, "\u00e0\u00a6\u00bf\u00e0\u00a6\u00b8": 6422, "\u0120\u00e4\u00b8\u012f": 6423, "\u00d7\u013b\u00d7\u00a4": 6424, "\u00e3\u0123\u00a1": 6425, "\u00e7\u00b5": 6426, "\u00e9\u0129\u0131": 6427, "\u0120\u00e1\u0122\u00bb\u00e1\u0122\u013b": 6428, "lex": 6429, "\u00e1\u0122\u0137\u00e1\u0122\u00b9": 6430, "amu": 6431, "ING": 6432, "pk": 6433, "\u00e0\u00b0\u0124\u00e0\u00b0\u0139\u00e0\u00b0\u00be": 6434, "\u00c3\u0142nh": 6435, "\u00c5\u00a1a": 6436, "\u0120import": 6437, "\u013b\u00e1\u0122\u00ba": 6438, "\u00e0\u00a6\u0137\u00e0\u00a7\u0129": 6439, "\u00e0\u00b4\u013c\u00e0\u00b5\u012f\u00e0\u00b4\u013c": 6440, "\u00ce\u00bb\u00ce\u00ac": 6441, "\u00e0\u00ab\u0123\u00e0\u00aa\u00b0": 6442, "isen": 6443, "\u00e3\u0123\u00a4": 6444, "vers": 6445, "\u0120ada": 6446, "\u0120Eng": 6447, "\u0120\u00e0\u00b0\u00b9": 6448, "\u00ce\u00bb\u00ce\u0143": 6449, "\u00d9\u0124\u00db\u012e": 6450, "\u00e7\u013d\u00b4": 6451, "\u00e1\u00ba\u00a3n": 6452, "\u0120gar": 6453, "\u0120kop": 6454, "\u0120\u00e1\u0125\u0139\u00e1\u0125\u0132\u00e1\u0125\u0137": 6455, "\u00e1\u0125\u00a3\u00e1\u0125\u013e": 6456, "ird": 6457, "\u0120\u00ca\u00bbO": 6458, "\u00ce\u0142": 6459, "\u0120\u00e0\u00b8\u00a7": 6460, "\u0120\u00e1\u0122\u0122\u00e1\u0122\u00ba": 6461, "\u00e0\u00b0\u00b0\u00e0\u00b1\u012f": 6462, "\u00e7\u012b\u00b9": 6463, "\u00d7\u0142\u00d7\u0137": 6464, "\u00e7\u00b3\u00bb": 6465, "\u0106\u0108": 6466, "\u0120Mad": 6467, "\u00e0\u00b4\u0143": 6468, "\u00d0\u00bb\u00d1\u012e": 6469, "\u0120\u00d1\u012b\u00d0\u00be": 6470, "\u0120plus": 6471, "\u00e0\u00b0\u00be\u00e0\u00b0\u00b2\u00e0\u00b1\u0123": 6472, "\u0120\u00d8\u00b3\u00d9\u012a": 6473, "\u0120lik": 6474, "\u00e3\u0124\u00b7": 6475, "\u00e0\u00ab\u012f\u00e0\u00aa\u00aa": 6476, "\u00e0\u00a6\u0138": 6477, "\u0120tag": 6478, "\u00e0\u00ab\u0122\u00e0\u00aa\u0135": 6479, "\u0120Univers": 6480, "cie": 6481, "\u0120\u00d0\u00bf\u00d1\u0122\u00d1\u012d": 6482, "zn": 6483, "\u00d1\u0138\u00d1\u0123\u00d1\u0124": 6484, "\u0120gy": 6485, "mes": 6486, "\u0120kg": 6487, "\u0120\u00e1\u0122\u00a1\u00e1\u0122\u0140": 6488, "\u0120ste": 6489, "\u0120app": 6490, "46": 6491, "\u00b1\u00e1\u0122\u0137": 6492, "\u0120\u00d0\u00b4\u00d0\u00be\u00d0\u00b1": 6493, "\u00e9\u00bb": 6494, "\u0120Kat": 6495, "\u00e0\u00ae\u00bf\u00e0\u00ae\u00aa\u00e0\u00af\u012f\u00e0\u00ae\u00aa": 6496, "\u0120Aug": 6497, "\u0120kep": 6498, "\u00e0\u00b4\u00be\u00e0\u00b4\u0137\u00e0\u00b5\u012f\u00e0\u00b4\u0137": 6499, "\u00c4\u00abt": 6500, "\u0120Mil": 6501, "\u0120\u00ea\u00b2\u0125": 6502, "\u0120ges": 6503, "\u0137\u00e1\u0122\u00ab\u00e1\u0122\u0132\u00e1\u0122\u013c\u00e1\u0122\u00b9": 6504, "\u00d7\u013b\u00d7\u00a1": 6505, "\u0120\u00e1\u0125\u013a\u00e1\u0125\u013e": 6506, "\u0120\u00d7\u0136\u00d7\u00a2": 6507, "\u00c4\u00abbas": 6508, "\u00e0\u00b9\u012b\u00e0\u00b8\u013b": 6509, "\u0120s\u00c3\u00ab": 6510, "????": 6511, "\u0120\u00d1\u0131\u00d0\u00ba\u00d1\u0138": 6512, "\u00d1\u0131\u00d1\u0122": 6513, "\u00ec\u012c\u00b5": 6514, "\u00d0\u00bd\u00d1\u012d\u00d0\u00bc": 6515, "\u00e4\u00ba\u0136": 6516, "\u00e0\u00a5\u012f\u00e0\u00a4\u00b9": 6517, "\u013b\u00e0\u00a7\u012f\u00e0\u00a6": 6518, "alu": 6519, "\u0120\u00e1\u0125\u013a\u00e1\u0125\u013d": 6520, "\u00e4\u00b8\u0130": 6521, "\u0120\u00d8\u00a7\u00d9\u0126\u00d8\u00b7": 6522, "\u00d9\u0124\u00d9\u0126": 6523, "cio": 6524, "\u0120365": 6525, "\u00e0\u00b5\u0128\u00e0\u00b4\u0141": 6526, "\u0120\u00e1\u0125\u0134\u00e1\u0125\u0132\u00e1\u0125\u0135": 6527, "\u0120AN": 6528, "\u0120\u00e0\u00ae\u00b5\u00e0\u00af\u0129": 6529, "\u00b6\u0136": 6530, "\u00d8\u00a7\u00d8\u00a6\u00db\u0134": 6531, "\u0120\u00c3\u00a5r": 6532, "\u00ec\u00a7\u0122\u00eb\u0127\u00b8": 6533, "\u012095": 6534, "\u00e5\u013d\u0140": 6535, "\u00e0\u00a4\u00a8\u00e0\u00a5\u0122": 6536, "\u00e9\u0135": 6537, "\u00d0\u00b0\u00d1\u012b": 6538, "\u00d8\u00a7\u00d8\u00af\u00db\u012e": 6539, "\u0120\u00d0\u00bf\u00d0\u00be\u00d1\u0122": 6540, "\u00e6\u00b5\u00b7": 6541, "\u0120dz": 6542, "\u00e5\u00b1\u00b1": 6543, "\u00e5\u0133\u013a": 6544, "inta": 6545, "\u0120pra": 6546, "\u00e1\u0122\u0143\u00e1\u0122\u0132\u00e1\u0122\u00b9\u00e1\u0122": 6547, "\u00e0\u00b9\u0125\u00e0\u00b8\u012c": 6548, "\u0120\u00d0\u00bd\u00d0\u00be\u00d0\u00b2": 6549, "\u0120Ra": 6550, "\u0120Tur": 6551, "\u00eb\u012d\u012a": 6552, "\u00e1\u00bb\u00afng": 6553, "\u0120wy": 6554, "\u0120g\u00c3\u00b6": 6555, "\u0120\u00e6\u0138\u00b0": 6556, "\u00e0\u00b8\u00a3\u00e0\u00b8\u00a1": 6557, "\u00e0\u00b8\u00b8\u00e0\u00b8\u0135": 6558, "tek": 6559, "\u0120\u00d0\u00b0\u00d1\u0122": 6560, "\u0120inn": 6561, "\u00e1\u0122\u0136\u00e1\u0122\u00be": 6562, "\u0120c\u00c4\u0125": 6563, "cer": 6564, "\u00e1\u0122\u00b8\u00e1\u0122\u00a1": 6565, "ov\u00c3\u00a1": 6566, "\u0120lok": 6567, "usa": 6568, "\u0120\u00e0\u00b4\u00a6": 6569, "ody": 6570, "\u0120any": 6571, "\u00d0\u00ba\u00d0\u00b0\u00d0\u00b7": 6572, "\u0120\u00e0\u00aa\u0127\u00e0\u00aa\u00ae": 6573, "\u0120ng\u00c6\u00b0\u00e1\u00bb\u013fi": 6574, "\u0120beh": 6575, "\u0120\u00d9\u0126\u00d9\u0127": 6576, "\u00cc\u00a3": 6577, "\u00e0\u00b8\u00b2\u00e0\u00b8\u013b\u00e0\u00b8": 6578, "\u0120\u00e9\u0122": 6579, "\u00d1\u0123\u00d1\u0124\u00d0\u00b2\u00d0\u00b0": 6580, "\u00e0\u00b8\u00ab\u00e0\u00b8\u013b": 6581, "\u00c5\u0141\u00c4\u00b1": 6582, "tive": 6583, "\u00d0\u00bf\u00d1\u0122\u00d0\u00b0\u00d0\u00b2": 6584, "\u0120Ti": 6585, "wer": 6586, "\u00e0\u00b5\u0123\u00e0\u00b4\u00b1": 6587, "ape": 6588, "\u00db\u012e\u00d9\u0126": 6589, "\u00d8\u00af\u00d8\u00a9": 6590, "\u00e6\u0126\u0131": 6591, "\u0120tab": 6592, "\u00e0\u00af\u0123\u00e0\u00ae\u00aa\u00e0\u00af\u012f\u00e0\u00ae\u00aa": 6593, "\u0120\u00cf\u0127\u00cf\u0122": 6594, "mal": 6595, "\u00e6\u012b\u0122": 6596, "\u0120ook": 6597, "rio": 6598, "\u00cf\u0126\u00ce\u00bf\u00cf\u0124": 6599, "jd": 6600, "\u00e9\u0139\u00b4": 6601, "\u00e1\u0125\u013f\u00e1\u0125\u0133\u00e1\u0125\u0132": 6602, "\u00e1\u0125\u0132\u00e1\u0125\u00a6": 6603, "\u00d7\u013b\u00d7\u013d": 6604, "kom": 6605, "yor": 6606, "\u0120vit": 6607, "iyo": 6608, "\u00e0\u00b4\u00be\u00e0\u00b4\u00a8\u00e0\u00b5\u012f\u00e2\u0122\u012f": 6609, "\u0120??": 6610, "\u0120\u00e0\u00b9\u0123\u00e0\u00b8\u00a5\u00e0\u00b8\u00b0": 6611, "\u00e0\u00b4\u0137\u00e0\u00b5\u012f\u00e0\u00b4\u00b7": 6612, "\u00e0\u00ab\u0129\u00e0\u00aa\u00a8": 6613, "\u0120adalah": 6614, "\u00e0\u00b0\u013c\u00e0\u00b1\u012f\u00e0\u00b0\u013c": 6615, "\u00d0\u00b8\u00d1\u0124\u00d0\u00b5\u00d0\u00bb": 6616, "\u00e3\u0125\u0139": 6617, "\u0120\u00cf\u0122\u00ce\u00bf": 6618, "\u0120\u00d9\u00be\u00d8\u00a7\u00da\u00a9": 6619, "\u00e0\u00b5\u0123\u00e0\u00b4\u00a4\u00e0\u00b5\u012f\u00e0\u00b4\u00a4": 6620, "\u0120\u00e1\u0125\u0132\u00e1\u0125\u013e": 6621, "\u00ef\u00bd": 6622, "\u00e1\u0125\u0136\u00e1\u0125\u0142\u00e1\u0125\u013a": 6623, "\u0120via": 6624, "\u0120You": 6625, "\u0120gre": 6626, "\u01202006": 6627, "\u0120ip": 6628, "\u00e0\u00aa\u00b5\u00e0\u00ab\u0122": 6629, "\u0120t\u00c3\u00a4": 6630, "igt": 6631, "\u0120\u00e1\u0122\u0141": 6632, "\u0120\u00ec\u0142\u0137": 6633, "ube": 6634, "\u00d8\u00a7\u00db\u012e\u00db\u012e": 6635, "\u00e0\u00a7\u0129\u00e0\u00a6\u0138": 6636, "\u00e5\u012f\u0137\u00e5\u0131\u012e": 6637, "ikk": 6638, "\u00e0\u00a6\u0135": 6639, "\u00d0\u00b2\u00d1\u0122": 6640, "ties": 6641, "\u0120one": 6642, "\u0120\u00e5\u00a5": 6643, "\u0120uchun": 6644, "\u00cf\u0126\u00ce\u00b1\u00cf\u0124": 6645, "\u0120\u00c3\u00aent\u00c3\u00a2l": 6646, "\u00e7\u00a8\u012d": 6647, "alia": 6648, "\u00d8\u00b0\u00d9\u0129": 6649, "\u0120\u00ec\u013a\u00a4": 6650, "\u00d9\u0128\u00d9\u012c": 6651, "\u00c3\u00b1a": 6652, "\u00e1\u0122\u0126\u00e1\u0122\u00b7": 6653, "\u0120):": 6654, "\u00e6\u00a1": 6655, "\u00d9\u0129\u00d8\u00af": 6656, "\u0120\u00d7\u0133\u00d7\u00a2": 6657, "ron": 6658, "\u0120\u00e0\u00aa\u00b5\u00e0\u00aa\u00a7": 6659, "\u00c5\u0124a": 6660, "\u0120vend": 6661, "\u0120\u00d7\u00a9\u00d7\u0136": 6662, "\u00c3\u00b3d": 6663, "\u0120\u00d0\u00bf\u00d1\u0122\u00d0\u00be\u00d0\u00b4": 6664, "\u0120\u00e0\u00b4\u0127\u00e0\u00b4\u00b5": 6665, "uke": 6666, "\u00e5\u0127\u00ac\u00e5\u0131\u00b8": 6667, "\u00ce\u013d": 6668, "aten": 6669, "\u00c5\u013b\u00c3\u0143": 6670, "UM": 6671, "\u0120v\u00c3\u00a6": 6672, "\u00d7\u013e\u00d7\u0136": 6673, "\u0120:)": 6674, "\u00c3\u00bcz": 6675, "\u00e8\u012f": 6676, "d\u00c4\u00b1r": 6677, "\u00ce\u00bb\u00ce\u00ae": 6678, "\u00ce\u00bf\u00cf\u0124": 6679, "\u0120\u00d0\u013f\u00d0\u00b0": 6680, "\u0120\u00db\u012e\u00d8\u00a7": 6681, "\u0120inde": 6682, "\u00e0\u00b8\u0123\u00e0\u00b8\u00a5": 6683, "\u00d0\u00b4\u00d0\u00b5": 6684, "\u00e3\u0123\u013d": 6685, "\u00ce\u00b5\u00cf\u0126\u00ce\u00b1\u00ce\u00b9": 6686, "\u0120\u00d8\u00a7\u00d8\u00aa": 6687, "aye": 6688, "\u0120nhi": 6689, "\u00d2\u00b3\u00d0\u00be\u00d0\u00b8": 6690, "ENT": 6691, "\u0120\u00d1\u012f\u00d1\u0124": 6692, "\u0120\u00d0\u00b3\u00d1\u012f": 6693, "aria": 6694, "\u0120fir": 6695, "\u00d8\u00b1\u00d8\u0143": 6696, "\u0120\u00d8\u00aa\u00d8\u00ac": 6697, "\u00eb\u00b9\u0126": 6698, "\u00d7\u013b\u00d7\u0137": 6699, "\u0120\u00eb\u00aa\u00a8": 6700, "\u00e0\u00a4\u00b9\u00e0\u00a5\u0129": 6701, "\u00e7\u00ae\u00a1": 6702, "AH": 6703, "\u00d0\u00bc\u00d0\u00be": 6704, "\u00e5\u00a5\u00b3": 6705, "\u0120Bel": 6706, "\u00ce\u00bc\u00ce\u00b2": 6707, "\u0120\u00d0\u00bd\u00d0\u00b0\u00d1\u012a": 6708, "\u0120\u00e0\u00b8\u013d": 6709, "\u00e0\u00b9\u0125\u00e0\u00b8\u013b\u00e0\u00b8": 6710, "\u0120atau": 6711, "essa": 6712, "\u0120\u00d8\u00b3\u00d8\u00a8": 6713, "oda": 6714, "\u00e6\u012c\u00a5": 6715, "eke": 6716, "ious": 6717, "\u00c3\u0126": 6718, "\u00e7\u013b\u00be": 6719, "\u0120\u00e1\u0125\u0132\u00e1\u0125\u00a1": 6720, "\u00d1\u0122\u00d0\u00b0\u00d1\u0139": 6721, "\u00e0\u00b4\u00a1": 6722, "\u0120dik": 6723, "\u00e5\u0127\u012f\u00e8\u00b4\u00b9": 6724, "\u00ec\u013a\u00a4": 6725, "\u00d7\u00a4\u00d7\u00a8": 6726, "\u0120\u00e1\u0123\u0123\u00e1\u0123": 6727, "ther": 6728, "\u0120\u00d9\u0127\u00d8\u00ae": 6729, "\u00d0\u00b1\u00d0\u00be\u00d1\u0122": 6730, "\u0120\u00d8\u00a7\u00d9\u0124": 6731, "\u0120port": 6732, "\u00e5\u0137\u0128": 6733, "\u0120\u00d0\u00a1\u00d1\u0124": 6734, "\u00e0\u00a4\u00bf\u00e0\u00a4\u0124": 6735, "\u0120sau": 6736, "--------": 6737, "\u0120\u00d0\u00bd\u00d0\u00b0\u00d1\u0123": 6738, "\u0120pdf": 6739, "ideos": 6740, "\u00e0\u00b0\u00be\u00e0\u00b0\u00b5": 6741, "\u0120\u00d9\u0126\u00d9\u012a": 6742, "\u00e0\u00a4\u00b8\u00e0\u00a5\u0129": 6743, "\u0120\u00ec\u0128": 6744, "\u0120\u00d6": 6745, "\u00cf\u012f\u00ce\u00bd": 6746, "\u0120\u00ce\u00be": 6747, "ograf": 6748, "\u00e5\u0131\u00b7": 6749, "\u00c3\u00a1ll": 6750, "\u0120jest": 6751, "\u0120\u00e2\u0139": 6752, "\u00d8\u00b2\u00db\u012e": 6753, "\u0120bij": 6754, "\u0120\u00e1\u0122\u00a5": 6755, "\u00c3\u0142i": 6756, "ustr": 6757, "\u0120\u00cf\u0122\u00ce\u00bf\u00ce\u00bb": 6758, "\u0120\u00e1\u0122\u00bb\u00e1\u0122\u0138\u00e1\u0122\u0127\u00e1\u0122\u00b9\u00e1\u0122": 6759, "\u0120san": 6760, "\u0120Kon": 6761, "\u0120parte": 6762, "rod": 6763, "tal": 6764, "\u00c3\u00a9e": 6765, "\u00d1\u0124\u00d1\u012e\u00d1\u0123\u00d1\u0131": 6766, "\u00ec\u00b0": 6767, "tel": 6768, "\u00e1\u0122\u0126\u00e1\u0122\u00ba\u00e1\u0122\u00b8": 6769, "\u0120Cat": 6770, "\u0120\u00e0\u00aa\u00ae\u00e0\u00aa\u00b9": 6771, "\u00e1\u00ba\u00a7u": 6772, "\u00d8\u00b1\u00d8\u00b6": 6773, "\u0120apr": 6774, "\u0120red": 6775, "\u00d0\u00b4\u00d0\u00b7": 6776, "\u0120Gu": 6777, "\u00e0\u00b9\u0122\u00e0\u00b8\u00aa": 6778, "\u0120\u00e1\u0125\u00a8\u00e1\u0125\u0136\u00e1\u0125\u00a1": 6779, "\u0120AG": 6780, "\u00e9\u0129\u012e": 6781, "\u00cf\u0125\u00cf\u0126": 6782, "\u0120fer": 6783, "\u0120dav": 6784, "\u00d1\u012a\u00d0\u00b8": 6785, "\u0120mana": 6786, "azi": 6787, "\u0120\u00ce\u00b5\u00ce\u00af": 6788, "\u0120juga": 6789, "\u0120time": 6790, "\u00e0\u00b2": 6791, "teri": 6792, "\u0120\u00e0\u00ae\u0129\u00e0\u00ae\u00a8\u00e0\u00af\u012f\u00e0\u00ae\u00a4": 6793, "\u0120\u00da\u00a9\u00d8\u00b4": 6794, "\u0120nt": 6795, "\u00d0\u00bb\u00d0\u00b0\u00d0\u00bd": 6796, "\u00c4\u0135j": 6797, "\u0120nec": 6798, "\u0120\u00e0\u00aa\u013e\u00e0\u00ab\u0129": 6799, "\u00d0\u0133": 6800, "\u00e1\u0122\u00b1\u00e1\u0122\u0122": 6801, "\u0120\u00d0\u00ba\u00d0\u00b8": 6802, "\u0120\u00e0\u00a4\u0143\u00e0\u00a5\u0122": 6803, "\u0120Gre": 6804, "\u0120TV": 6805, "esu": 6806, "\u00e3\u0124\u00a3": 6807, "32": 6808, "In": 6809, "\u0120\u00e0\u00b8\u0124": 6810, "ibil": 6811, "\u00e8\u00a7\u0124": 6812, "\u0120\u00ce\u00b5\u00ce\u00be": 6813, "37": 6814, "\u00e0\u00b1\u0123\u00e0\u00b0\u00b5": 6815, "ader": 6816, "\u00e7\u00a4\u00be": 6817, "\u00ce\u0143\u00cf\u0123": 6818, "\u00e0\u00b0\u00b3": 6819, "aa": 6820, "ages": 6821, "\u0120\u00eb\u012d\u00a4": 6822, "47": 6823, "pet": 6824, "\u00e0\u00b4\u0137\u00e0\u00b5\u012f\u00e0\u00b4\u0137\u00e0\u00b5\u012f": 6825, "\u00d9\u0124\u00d9\u012c": 6826, "\u00eb\u0135\u013e": 6827, "\u00e1\u0122\u00b8\u00e1\u0122\u013e": 6828, "\u0120hore": 6829, "\u0120\u00e0\u00aa\u00b8\u00e0\u00aa\u0124\u00e0\u00aa": 6830, "omen": 6831, "\u0120\u00d1\u0123\u00d0\u00b0": 6832, "\u0120kt": 6833, "\u0120\u00d0\u00b0\u00d1\u0123": 6834, "\u00d0\u00b5\u00d0\u00bb\u00d0\u00b0\u00d1\u0122": 6835, "\u0120\u00e0\u00aa\u0137\u00e0\u00aa\u00b9": 6836, "\u00aa\u00e0\u00af\u012f": 6837, "\u00ec\u013f\u00b4\u00ed\u012c\u00b8": 6838, "\u0120Red": 6839, "\u00e0\u00b4\u00bf\u00e0\u00b4\u00b5": 6840, "\u00e0\u00a6\u00a8\u00e0\u00a7\u012f\u00e0\u00a6\u00a4": 6841, "\u0120\u00d8\u00a7\u00d8\u00ac": 6842, "\u00e0\u00b5\u0123\u00e0\u00b4\u00a3\u00e0\u00b5\u012f\u00e0\u00b4\u0141": 6843, "isten": 6844, "mar": 6845, "\u00ce\u00bf\u00cf\u0127\u00ce\u00bc\u00ce\u00b5": 6846, "\u0120\u00d1\u0129\u00d0\u00b0\u00d1\u0123": 6847, "\u0120\u00d0\u00bf\u00d0\u00be\u00d0\u00bc": 6848, "\u0120bud": 6849, "\u0120\u00d0\u00b8\u00d1\u0123\u00d1\u0124": 6850, "\u0120ons": 6851, "\u0120').": 6852, "\u00e0\u00ab\u0122\u00e0\u00aa\u0137": 6853, "\u0120news": 6854, "\u00ce\u00b1\u00cf\u0123": 6855, "\u0120seu": 6856, "\u00e0\u00ae\u00bf\u00e0\u00ae\u00b4": 6857, "iment": 6858, "is\u00c3\u00ab": 6859, "\u00db\u00b0": 6860, "\u0120kn": 6861, "\u0120Joh": 6862, "\u0120\u00d0\u0138": 6863, "\u0120mill": 6864, "\u00d7\u0140\u00d7\u0136": 6865, "\u00e0\u00af\u012a\u00e0\u00ae\u0137\u00e0\u00af\u012f\u00e0\u00ae\u0137": 6866, "\u00e4\u00bb\u0138": 6867, "\u0120Ste": 6868, "\u0120\u00d7\u0133\u00d7\u0140\u00d7": 6869, "\u00d7\u0137\u00d7\u013d": 6870, "\u00e0\u00af\u0129\u00e0\u00ae\u00b0": 6871, "\u0120false": 6872, "\u00b1\u00e1\u0122\u013e": 6873, "\u00ce\u00b7\u00cf\u0124": 6874, "2019": 6875, "\u00e0\u00b5\u012f\u00e0\u00b4\u00a5": 6876, "\u00ce\u00bc\u00cf\u0122": 6877, "\u00e7\u00b1": 6878, "\u0120Str": 6879, "\u0120\u00d9\u0129\u00d8\u00b0\u00d8\u00a7": 6880, "\u0120\u00e0\u00a4\u0137\u00e0\u00a4\u00bf": 6881, "\u00ed\u0126\u00b0": 6882, "gj": 6883, "\u00e1\u0122\u00ac\u00e1\u0122\u0140": 6884, "\u0120\u00e0\u00a4\u0141": 6885, "\u0120Jo": 6886, "\u0120\u00d0\u00ba\u00d0\u00be\u00d0\u00bc\u00d0\u00bf": 6887, "\u00da\u00a9\u00d9\u0128": 6888, "apan": 6889, "\u0120Ta": 6890, "\u00e0\u00b1\u012a\u00e0\u00b0\u00a8": 6891, "\u0120bek": 6892, "\u00e0\u00b8\u0143\u00e0\u00b8\u00a3\u00e0\u00b9\u012e": 6893, "\u00d0\u00b0\u00d0\u00b8": 6894, "\u0120\u00e0\u00aa\u00b9\u00e0\u00ab\u012d\u00e0\u00aa\u00af": 6895, "uku": 6896, "\u0120start": 6897, "\u00e1\u0125\u0132\u00e1\u0125\u00ac": 6898, "\u00ce\u00b5\u00cf\u0127": 6899, "\u0120\u00d8\u00ae\u00d9\u012a": 6900, "IP": 6901, "lem": 6902, "\u0120''": 6903, "\u0120jag": 6904, "inter": 6905, "\u0120eff": 6906, "\u0120zijn": 6907, "\u00d0\u00be\u00d0\u00b3\u00d0\u00b0": 6908, "\u00e0\u00ab\u012d\u00e0\u00aa\u0139": 6909, "\u0120bus": 6910, "cho": 6911, "\u0120lig": 6912, "\u00d0\u00bd\u00d0\u00b8\u00d0\u00bc": 6913, "\u00d7\u013e\u00d7\u0132": 6914, "\u0120Web": 6915, "inal": 6916, "\u00e1\u0125\u0142\u00e1\u0125\u013f": 6917, "\u0120\u00e5\u00be": 6918, "\u00d0\u00b3\u00d0\u00b0\u00d1\u0122": 6919, "\u00c2\u00bb": 6920, "\u0120\u00d0\u00bf\u00d0\u00be\u00d0\u00ba": 6921, "\u00d7\u0142\u00d7\u0136": 6922, "iny": 6923, "\u00e9\u00a9": 6924, "\u00e7\u0125": 6925, "\u0120tla": 6926, "\u0120nh\u00c6\u00b0": 6927, "\u00cf\u0126\u00ce\u00b9\u00ce\u00ba\u00ce\u00ac": 6928, "\u0120\u00e5\u00bc": 6929, "\u0120Dis": 6930, "\u0120\u00e0\u00aa\u00a8\u00e0\u00aa\u00a5\u00e0\u00ab\u0122": 6931, "\u0120\u00e0\u00a6\u013e\u00e0\u00a6\u00a8": 6932, "\u00d8\u00a7\u00d8\u00ab": 6933, "\u0120fol": 6934, "\u0120prim": 6935, "\u0120\u00e0\u00b9\u0125": 6936, "\u00e7\u00a6": 6937, "\u0120ket": 6938, "orld": 6939, "\u0120lak": 6940, "\u00e1\u0122\u00ac\u00e1\u0122\u0126\u00e1\u0122\u00b9": 6941, "cher": 6942, "\u0120back": 6943, "\u00e0\u00b4\u00b8\u00e0\u00b5\u012f": 6944, "\u0120Sz": 6945, "\u0120i\u00c3\u00a7in": 6946, "\u00d0\u00b8\u00d1\u0124\u00d0\u00b8": 6947, "\u0120dob": 6948, "\u00e0\u00b8\u00b9\u00e0\u00b9\u012a": 6949, "\u0120\u00d0\u00b4\u00d0\u00b0\u00d0\u00b2": 6950, "\u00d1\u0128\u00d0\u00b5": 6951, "antes": 6952, "\u00e3\u0124\u0131": 6953, "\u0120old": 6954, "\u0120\u00d0\u0143": 6955, "OP": 6956, "\u0120hotel": 6957, "\u00d9\u012a\u00d8\u00b1\u00d8\u00aa": 6958, "\u0120150": 6959, "\u0120pie": 6960, "\u00c3\u00b6s": 6961, "CH": 6962, "\u0120alla": 6963, "\u0120NE": 6964, "\u00e6\u00ac\u00a1": 6965, "\u0120grup": 6966, "\u00d0\u00b8\u00d0\u00bf": 6967, "heid": 6968, "\u00d0\u00b2\u00d0\u00be": 6969, "\u00e5\u013b": 6970, "\u00d0\u00bb\u00d0\u00b0\u00d1\u012a": 6971, "\u0120Du": 6972, "\u00c4\u0125m": 6973, "\u0120\u00e8\u00bf\u013b": 6974, "\u00e1\u0122\u00ac\u00e1\u0122\u00b8\u00e1\u0122\u013d": 6975, "\u0120\u00d7\u013b\u00d7\u00a9": 6976, "\u00e0\u00b8\u0139\u00e0\u00b8\u00a2": 6977, "unda": 6978, "\u00e3\u0124\u00b3": 6979, "\u00c3\u00a2y": 6980, "\u0120Dan": 6981, "\u0120\u00e1\u0125\u0132\u00e1\u0125\u00a6": 6982, "\u00d9\u0123\u00d9\u012c": 6983, "eno": 6984, "ef": 6985, "\u00e0\u00af\u0123\u00e0\u00ae\u00b3\u00e0\u00af\u012f\u00e0\u00ae\u00b3": 6986, "\u00c3\u00a8s": 6987, "uten": 6988, "\u00c6\u00b0\u00e1\u00bb\u013dc": 6989, "agai": 6990, "\u00e8\u00a2": 6991, "\u00e1\u0125\u0137\u00e1\u0125\u013c": 6992, "adan": 6993, "\u0120gan": 6994, "\u00e6\u00bc": 6995, "\u00e0\u00b0\u00a7": 6996, "rin": 6997, "atie": 6998, "idas": 6999, "\u0120\u00d0\u00a1\u00d0": 7000, "aire": 7001, "\u0120\u00d8\u00aa\u00da\u00be\u00d8\u00a7": 7002, "\u00e1\u0122\u013d\u00e1\u0122\u00be\u00e1\u0122\u0143": 7003, "98": 7004, "\u0120Pers": 7005, "\u00e0\u00aa\u00bf\u00e0\u00aa\u00b8": 7006, "imulyo": 7007, "\u00e6\u0122\u013f": 7008, "\u00d1\u012c\u00d1\u0124": 7009, "mi\u00c5\u0141": 7010, "\u012088": 7011, "\u00e8\u012a\u00b0": 7012, "\u0120Gi": 7013, "ilar": 7014, "\u00e1\u00bb\u00a3": 7015, "\u00d8\u00a7\u00da\u00ba": 7016, "\u0140\u00e1\u0122\u00b0": 7017, "\u00e0\u00a4\u00b2\u00e0\u00a4\u00be": 7018, "\u00cf\u0126\u00ce\u00b5\u00cf\u0124": 7019, "\u0120\u00e1\u0125\u00af": 7020, "ilik": 7021, "\u0120Lat": 7022, "\u00cf\u0123\u00ce\u00ae": 7023, "ues": 7024, "\u00d0\u00b3\u00d0\u00be\u00d0\u00b2": 7025, "alla": 7026, "hm": 7027, "\u0120\u00d8\u00b4\u00d8\u00af\u00d9\u0129": 7028, "\u0120isang": 7029, "\u0120conta": 7030, "\u00e6\u013b\u0124": 7031, "bek": 7032, "\u0120\u0107": 7033,
[...]
