#version: 0.2
á Ģ
á ĥ
Ġ à
Ġ Ð
à ª
à ¸
Ð °
Ġ .
Ġ ,
à ´
à ®
a n
Ø §
à ¦
à °
e n
e r
à ¤
Ð ¾
Ð ¸
i n
Ġ d
Ġ s
Ġ a
Ġ Ø
Ġ t
Ð µ
a r
Ñ Ĥ
Ġ p
Ð ½
Ġ m
à «
Ñ Ģ
à ¯
e s
Ġà ª
o n
à µ
Ġ Ù
Ġ n
Ġ k
a t
Ñ ģ
a l
o r
e l
Ġ c
Ø§ Ù
Û Į
â Ģ
Ġ -
Ġ b
Ø ±
i s
áĥ Ĳ
Ġ Î
Ġ l
e t
Ð »
à ±
a s
Ġ 1
Ġ áĥ
à §
Ġ 2
i t
Ġ h
Ġà ¤
Ġ ×
Ġ v
à ¥
ã ģ
i l
Ġ o
Ð° Ð
áĥĲ áĥ
Ġ :
Ġ âĢ
áĥ ĺ
u n
à ¹
à¯ į
Ð¾ Ð
Ġà ¦
áĢ ¹
àµ į
Ù Ī
Ñ ĥ
Ġ áĢ
Ø§ Ø
Î ±
àª ¾
r e
Ġ f
Ġ S
a m
Ï Ħ
o m
Ġ e
Ù Ĩ
Ġ A
Î ¿
áĥ Ķ
o s
Ð º
Ġà ®
áĢ¹ áĢ
Î ¹
Ġà °
Ġà ´
a d
Ġ M
a k
áĢ ¬
Ġ i
àµį à´
Ġ g
áĥĶ áĥ
Ġd e
u r
o l
Ġ (
Ù Ħ
àª¾ àª
Ġ P
Ú ©
Ù ħ
Ø§Ù Ħ
t i
Ġ w
á »
c h
Ø ª
à¯į à®
Ð ´
e m
Ġ )
Ñ ĸ
ã Ģ
Ø ¯
áĥĺ áĥ
Ã ¡
u s
Ù Ĭ
Î µ
e d
Î ½
áĢ º
áĢ ¸
Ġ2 0
Ñ ı
i k
Ġ C
Ġ B
Ġ T
Ã ©
Ð ²
à« ĩ
à¦ ¾
áĢ ¯
Ã «
u l
¿ ½
r o
ï ¿½
× Ļ
Ġ 0
en t
i d
áĢ Ń
ã Ĥ
Ġ D
ĠÐ ¿
ĠÙ ħ
× ķ
in g
Ù ĩ
É Ļ
u t
Ð ¼
Ġ j
à¤ ¾
i r
i e
áĢ Ģ
ã ĥ
a g
Ï ģ
Ġ Ñģ
Ä ±
Ï ĥ
Ġ y
i c
Ġ in
à± į
Ġ Ø§ÙĦ
Ġ /
Ġ Ã
i m
ĠÐ ½
Ġ r
Ġ Ú©
o t
Ġ ì
± áĢ
Ġ Ñ
i a
à§ ĩ
Ġ K
áĢ Ħ
áĥ Ŀ
Ġ ãĢ
à´ ¿
à¦¾ à¦
Ġ 3
Ġ E
an g
á ģ
à¯ ģ
à« į
l e
×ķ ×
à«į àª
Ã ¤
Ġ L
à« Ģ
Ġ N
t e
à® ¿
ä ¸
á º
Ï Ģ
Ġ "
Ġ Â
ĠØ ¨
áĢ¸ áĢ
Ġ H
à¸ ²
u m
i g
Ġ I
Ð° Ñ
Ð½ Ð¸
à±į à°
×Ļ ×
an d
Ñ ĭ
Ã Ń
Ġ20 1
r a
e k
ĠÐ ²
Ø ³
à° ¿
Ġ å
Ï Ĥ
t a
h e
Û ģ
Î ·
Ï ħ
áĥĿ áĥ
ï ¼
à®¿ à®
à¸ Ļ
Ġ q
Û Ĵ
ï¿½ ï¿½
à´¿ à´
Ġ R
Ø ¨
à§ į
a p
à§į à¦
Ġ z
Ð° ÑĢ
à° ¾
. .
a h
Ñģ ÑĤ
à¤¾ à¤
Ð° ÑĤ
àª ¨
Ø§Ù Ĩ
ĠÐ ´
Ġ F
à± ģ
Ġ G
ĠÙ Ī
a y
Ġ '
Ð ³
a b
Ð° Ð½
Ã ³
áĢ Ĳ
áĢŃ áĢ¯
Ñ Į
à¦ ¿
à¥ ĩ
à¸² à¸
Ð ·
àµ ģ
a c
Ġ 5
à« ĭ
o d
Ġ 4
Ġ ï¼
Ġ en
ĠÐ º
ä º
àª °
à¯ģ à®
Ã ¼
áĢ ķ
Ġ V
Ø ¹
Î »
Ġs e
Ä ģ
Ġ ÏĦ
Ġ O
à°¾ à°
Ġ un
à¥ į
i on
o k
Ġc om
s t
áĢ ¼
áĢ Ļ
à¥į à¤
Ñ ĩ
Ø ©
à´ ¾
Î º
ĠÐ ¼
à¹ Ī
o v
0 0
ĠÐ ¸
à¸ Ń
à¦ °
Î ¯
Ġà ¸
u k
Ð ±
e g
Ã ¶
u d
Ġn a
àµģ à´
á Ĥ
Ġ ÑĤ
à® ¾
ĠÐ ·
Ð¾Ð ²
ĠÐ ¾
Î ¼
Ġ ë
Ð ¿
Ġa l
Ø§ Ø±
i v
à´¾ à´
Ġl a
ĠØ ª
t er
Ġ æ
à¸ £
Ġ J
£ áĥ
áĢ Ķ
i z
à°¿ à°
áĢĦ áĢ¹áĢ
áĢ ±áĢ
ĠÐ ±
Ð° Ð»
Ðµ Ð½
áĥĺáĥ ¡
Ġq u
áĥĶáĥ ĳ
Ñ Ĩ
à®¾ à®
Ù Ĥ
ì Ŀ
Ġ áģ
ĠØ ¯
es t
n g
Ï Į
Ñ Ī
Ġ |
á» į
Ġ W
Ð¾ ÑĢ
Ġ re
Ĥ à°
Î ¬
Ġ ?
à¥ Ģ
Ø ´
e c
Ģ à¸
Ġ Ø§Ø
áĢ ½
o g
o p
à¹ ī
r i
Ù ģ
is t
ĠØ ³
× Ķ
Î¿ Ïħ
en d
Ġ Ä
l a
áĢ ·
Ðµ ÑĢ
ĠÐ¿ ÑĢ
à¦¿ à¦
× ¨
Ġ u
å ı
ĠâĢ Ļ
ĠÐ½ Ð°
à¤ ¿
ł áĥ
er s
áĢ ²
Ġà¤ ķ
à¤ °
à¸ ±
Ã ¥
Ġd i
Ġ U
e b
àª ¿
Ú ¯
Ġs a
Å Ł
Ġ 6
Ð°Ð ²
Ġt o
Ð» Ð¸
Ø§ ÛĮ
Ġt h
à¸ ĩ
× ľ
Ġ× Ķ
l i
c i
a i
ĠÙ Ĩ
à« ģ
à¸ µ
áĢ ħ
Ġï¼ Į
à«ĩ àª
Ġp r
à±ģ à°
à¸ ģ
Ø Ń
Ġ on
Ġp ro
Ġk a
Ñ ħ
Ð°Ð ¼
ar a
Å ¡
Ġ ÑĢ
à§ĩ à¦
Ġ el
Ġa t
Ú º
Ġc on
à¯įà® ķ
Ġ !
Ġ an
Ø ¬
Ġáĥ Ľ
Ġl e
Ð¾ ÑĤ
à¹ Ģà¸
ĠâĢ ľ
áĢ Ľ
å ®
Ġ ÏĢ
Ġ. ..
a v
ĠÐ °
Ġs t
àª Ĥ
áĢ ®
Ð ¹
o u
àª ¤
o w
Ð¾Ð ´
Ġ ç
Ġ 8
áĥ ķ
Ġ 7
s e
à¤¿ à¤
Ðµ ÑĤ
æ ľ
a z
Ġt he
ĠÎ º
Ġ ;
à® °
Ġàª ķ
ŀ ×
Ð¸ ÑĤ
à¸ ¡
Ġ 9
en g
áĢ Ĭ
Ø ²
Ġc h
Ã ł
Ġ Ïĥ
Ï ī
ĠØ Į
d e
Î Ń
Ê »
àª ķ
ĠÐ ³
Ø§Ù ħ
Ð°Ð ´
Ð¾ Ð½
o b
à¯ Ī
ĠÙ ģ
u b
àª ®
l ar
ĠÎ ±
áĥ £áĥ
àµ Ĩ
i b
Ġ et
àª µ
an t
Ġ is
ĠÙ Ħ
Ġàª ª
Ø§Ø ª
a j
à¤ Ĥ
ļ Ħ
Ġ â
Ð¾ Ð»
ĠØ ¹
áĢ ±
Ġ1 0
u p
ĠâĢ ĵ
à® ¤
áĢ ļ
Ġ es
áº ¹
Ġf or
ĠâĢ Ŀ
à¯įà® ¤
Ù ĥ
n e
w a
à¸ ¥
àµį âĢ
Ä ĥ
Ð°Ð º
å Ī
Ð¾Ð ¼
áĢ ŀ
áĢ ľ
å ¤
Î± Î¹
ĠØ ±
Ã §
ĠáĢ ¡
Ġ1 9
ç ļĦ
Ġqu e
Î ®
Î ³
in e
i p
Ġ ê
å ħ
an a
ãĢ Ĳ
Ġo f
× ª
e z
à¸Ļ à¸
g a
¨ àµįà´
Ġt r
o c
i y
d a
Ġ Ûģ
ĠãĢ ĳ
í ķ
Ġàª ¸
à¥ ĭ
Ġáĥ ¡
Ð° Ñģ
ĠÙ ¾
Ġm a
e p
áĥĲáĥ ľ
Ï ĩ
à´ ¤
áĢ¬ áĢ¸áĢ
ĠãĢ Ĥ
ar i
Ð¸ Ð½
à¸ Ķ
ĠÎ µ
os t
Ġa r
Ġáĥ ĵ
Ġ and
à¸ ´
Ġp er
Ġ×Ķ ×
à¦ ¨
e v
àµįâĢ į
ĠØ ¬
à° ¨
Ġ %
ĠãĢ ģ
ä »
q u
ar t
Ä± n
áĢĦ áĢº
à¸ §
in d
Ðµ Ð´
áĢ ģ
áĥ ¡
áĢ «
ĠÎ ¼
áĥ ł
Ġ er
Ġ áĥĲáĥ
or t
Ð½ Ð¾
el l
es s
Ġm e
Ġs i
Ð ¶
à¤ ¨
àª¾àª Ĥ
ar e
Ġàª ®
Ġ× ľ
áĢ ¶
Ġ è
à° Ĥà°
Ġn g
Ġ Ñĥ
Ñģ Ðº
Ġ1 2
Ø µ
à¸ ¢
un g
ķ àµįà´
ĠÄ ĳ
à± ĩ
h o
Ġ Ø§Ù
s k
à® ©
Ġ× ĳ
Ġà ¹
áĢ »
Î¹ Îº
ĠãĢĳ ãĢĲ
àª¾àª °
Ðµ Ð»
Ġd o
Ð¾Ð ³
ÛĮ Úº
il l
à° °
i o
Ä «
ĠØ ´
Ò Ľ
ï¿½ï¿½ ï¿½ï¿½
áĢ °
er e
à± ĭ
Ø ®
ç ½
y a
Ú ¾
Ġd a
Ï į
Ġ× Ĳ
® à¯į
u g
Ñ İ
à® Ł
Ġ1 1
j a
à¸ ļ
áĢĢ áĢ¹áĢ
à´ °
s a
Ġa m
Ġh o
ĠI n
h a
à¦¾à¦ °
ä ¹
k a
ad a
c e
à§ ģ
Îµ Î¹
× ĳ
Ò ³
Ġn i
ÙĪ Ø±
Ø ·
å Ľ
Ñ Ĭ
× Ĳ
Ġ ï¿½
Ġà ¥
æ Ĺ
Ġ =
Ð°Ð ·
ãģ ®
Ġ or
t r
ĠÐ ¡
Ä ĵ
Î ´
Ġa s
Å ¾
2 0
æ ĸ
Ġà¤ ¸
Ġt e
Ġt i
Ġáģ ĭ
Ð¸ Ð»
ç½ ĳ
ĠÂ »
à¤ ¤
à«ĭ àª
Ġà® ª
à¤ ķ
ë ĭ
áĥ ļ
on g
at e
Ð¸ ÑĢ
à§ Ł
Ġs p
Ġáĥ Ĵ
Ġy a
n a
Ðµ Ðº
t t
Ã ½
Ġàª ľ
Ġà¥ ¤
Ã© s
áĢĦáĢ¹áĢ ¸
âĢ Į
Ġn o
å ½
Ġàª ¤
à® ³
×ķ× ª
Ġ #
à«įàª ¯
n i
Î¹ Î±
Ø§Ø ¯
h t
ĠÙ ĩ
m a
Ġ il
Ã º
×Ļ× Ŀ
ä ½
æ Ī
Ġà¦ ķ
as t
al l
d i
Ġ× ©
el e
Ðµ Ð¼
å ľ
Ã ¸
en s
ĠØ ®
Ġ Y
ķàµįà´ ķ
Ï Ĩ
ì ŀ
Ġ Û
à° ²
Ġ x
ĠÐ Ł
¨àµįà´ ¨
at ion
Ġ é
Ġ1 5
ĠâĢ ĺ
áĢ ¡
Ġb a
Ġàª Ĩ
Ġn e
Ñ ŀ
Ġp ar
h i
Ġà¦ ¸
Ä Ł
at a
àª¿ àª
ç Ķ
Ġà® ķ
t o
Ð°Ð ¹
ĠØ Ń
p l
áĢĶ áĢ¹áĢ
à¸ °
Ġà¦ ¬
m e
Ġt Ã«
à¸ ķ
áĥĶáĥ ļ
Ġàª ħ
r u
à«įàª °
ĠáĢ ±áĢ
in i
ĠâĢ ĭ
Ġà¤ ¹
ĠØ £
Ñ ĺ
Ġ Z
áĥĲáĥ Ľ
Ġ20 0
àª¨ à«ĩ
à¯įà® ª
in a
à¸ Ĺ
Î ¸
s i
al e
× ©
ĠÐ µ
Ġa g
Ġo p
× ł
ĠØ§Ø ³
Ù ī
Ġà¤ ®
Ġa k
Ð½ Ð°
Ġàª µ
ķ à¯įà®ķ
Ġd el
áĢ² áĢ·
Ġ ]
å ¹
ĠÚ© ÛĮ
ÏĦ Î±
p r
i j
v er
Ġd ie
Ã³ n
å Ĳ
à¦ ²
Ġàª Ľ
Õ ¡
Ġo g
Ġo l
à® ²
áĤ Ķ
un d
Ġa d
Ð¾Ð ±
Ä į
ĠØ ¢
Ġk e
ĠÑ ĩ
w w
Ï İ
ĠÏĦ Î·
o h
à¤ ²
Æ °
Ġk u
Ġ1 8
à¦ ķ
ãģ Ħ
Ġ [
áĥ ĵ
ÉĻ r
Ġw a
à¸ ª
an s
Ġj a
ĠÐ½ Ðµ
ĠA n
ì Ĺ
Ġà¦ ª
áĢĢ áĢº
Ø± ÛĮ
Ġà´ ª
er i
à¯Ī à®
áĢ ¾
al a
at i
à± Ģ
Å Ĥ
à´ ¯
áĢ± áĢ¬
ĠØ§ÙĦ Ùħ
k e
á»į n
Ġ× ŀ×
Ġà¤ ª
ÑĤ Ð¸
al i
ĠÐ· Ð°
Ġ1 3
Ġ í
Ġs h
Ġb e
à¯įà® Ł
Ð°ÑĤ Ð°
å Ĭ
áĥ Ľ
or e
Ð°Ð ³
is h
Ġp o
ĠÚ© ÛĴ
d er
ĠÐ ł
ÙĪ ÙĨ
em b
Ġà® µ
Ġw ww
Ð°Ð ±
u a
ĠÙ Ĥ
àµįà´ ¤
Ġd es
à§ĩ à¦°
Ñ Ħ
à° ķ
Ä Ľ
ĠÐ ľ
áĥ ľ
áĢ ĸ
Ġa v
Ø§Ø ¨
u c
Ïģ Î¿
Ú Ĩ
ĠÙħ ÙĨ
Ġ1 4
Ġà° ª
Ñ į
Ġ1 6
à¸ «
Ġa c
Ã« r
àª¾àª ¨
à«ģ àªĤ
ĠA l
Ġi m
Ġ Ú¯
à¸ Ħ
ĠÐ Ĵ
áĥ ¢
à§ ĭ
áĥĲáĥ ĵ
ÏĦ Î¿
äº ļ
ĠÎ ´
à¹ Ħ
Ġ0 0
ti on
å į
Ð°Ñ Ĩ
à¤ ¸
à¦ ¤
æ ¸
äº º
à´ Ĥ
ĠÐ ļ
ar d
ÙĬ Ø©
Ġàª ¹
ãĥ ¼
Ð½ Ñĭ
ĠØ¯ Ø±
an i
Ġàª ¨
or d
Ġà® ®
Ġ it
à¥ ģ
Ã µ
Ĥ ¬
Ġ Ñĸ
t u
Ðµ Ð½Ð¸
Ù İ
ĠáĢ Ģ
ÑĢ Ð¸
b a
à«Ģ àª
àµ ĭ
Ġa p
am a
Ġ &
Ðº Ð¸
ĠÎº Î±Î¹
Ð¾ Ñģ
Ġ Ø§ÛĮ
Ð² Ð°
Ġà´ ķ
× ĵ
Ã ¢
à¯ ĩ
or m
Ġh a
Ġp l
ik a
ĠÂ «
ÏĦ Îµ
Ã £
ĠáĢ Ļ
id e
ĠàªĽ à«ĩ
Ø ¶
Ø§Ø ¦
ìĿ ´
à´ Ł
æ ī
Ġà® ħ
ÙĨ Ø¯
áĥĲáĥ łáĥ
à¦ ¬
ĠÐ »
ç ī
Ã¡ n
l o
Ġv er
Ġm ed
Ġ1 7
on t
ÙĪ Ø¯
ĠâĢ ¦
Ø³ Øª
Ġv an
Ġm en
× ¢
ĠÐ Ĳ
àµ ĩ
ĠáĢ ŀ
à§įà¦ °
Ġáĥ ł
Ðº Ð°
Ã ª
f f
Ã¶ r
à¦ ®
Ø £
Ġ +
ä¸ Ģ
Ġ Õ
Ġàª ¬
it e
Õ¡ Õ
à± Ĩ
áĥĶáĥ ľ
Ïģ Î±
æ ĺ
Ð¾Ð º
Ã ¦
Ġd u
× Ĺ
Ð´ Ð°
v e
Ġà® ¤
Ġ Ñı
il e
ãģ §
áĥĲáĥ ķ
àªĤ àª
áĢĬ áĢ¹áĢ
us t
Ġà° ķ
áĥĲáĥ ¡
à¤ ¹
à¹ ģ
áĢħ áĢ¹áĢ
ÏĦ Î·
Ġe x
à´¿à´ ²
Ġàª °
àª ²
Ġ× ķ
ti c
Ġ. .
z a
ļ áĥĺ
ĠÐ´ Ð°
è ¿
Ġ201 9
à±įà° °
àµįà´ Ł
Ġà® ļ
i er
k s
Ġt er
Ġe m
k o
è ½
à® µ
Ġáĥ ĺ
k an
l er
ent e
as s
å °
Ġs o
à°¾à° °
à¥įà¤ ¯
åı ĳ
j e
ãģ Ĺ
Ġp ara
àª £
Ġk an
ĠC h
ÙĪ ÙĦ
Ġd an
Ġ2 5
Ð½ Ñı
Ã ´
t s
Ġy ang
ä ¼
à¯ģà® ®à¯į
ĠÐ Ŀ
Ġm o
ĠÏĦ Î¿
àª ¹
Ġ3 0
à§įà¦ ¯
ĠÂ Ń
à®¿à® ²
Ġ) .
Ġà° µ
áĢ¬ áĢ¸
ÏĢ Î¿
ĠÑģ Ðµ
Ð°Ñ Ī
ãģ «
åĪ Ĩ
ĠÑ Ī
el a
ëĭ ¤
à¸²à¸ £
à±ĩ à°
Ø ¦
ĠÐ ĳ
Ġp re
Ġg r
n y
Ġb y
Ø °
à´ ®
Ġd et
Ġv i
Ġ ãĥ
ĠÙ Ĭ
Ð½ Ñĸ
n ing
Ø§Ø ³
ÛĮ ÙĨ
ĠÑģ ÑĤ
à¸Ń à¸ĩ
à¸ ·
à´ ³
Ġb er
Ïĥ Î·
Å ĳ
à¥ Ī
z e
Ġà´ µ
/ /
Ġ Ø§ÙĨ
Ġ ro
Ġáĥ ¨
Ġa b
il i
à®¿à® ¯
ê ³
Ġà¦ Ĩ
ĠÛ Ķ
à¸µ à¹Ī
Ġo m
ĠÚ© Ø±
ĠÎ ½
å½ ©
t or
Ð¸ Ð¼
à¸ ¸
z i
ë Ĭ
u i
Ĳ áĢ¬
Å Ļ
Ġà® ĩ
Ġ2 2
Ġv e
Ġ >
áĥĲáĥ ł
Ġp or
A N
Ġ2 1
è µ
× §
àµģà´ Ĥ
Ðµ Ñģ
l y
ĠÏĦ Î¿Ïħ
ì §
it a
ãģ ¦
à¹ Į
à¥įà¤ °
à¹ ĥ
áĥ ®
tt p
ĠÙħ ÛĮÚº
áĢĢ áĢŃáĢ¯
Ġs k
Ã¡ s
æ¸ ¸
áĥĿáĥ Ľ
Ġs om
Î¼ Î±
Ġ Ã©
Ñĥ ÑĢ
Ä Ļ
à¹ ĩ
å ¿
Ġk o
ìŀ ¥
ĠØ§Ù Ī
on a
à¦¾à¦ ¨
è ®
Ġ Q
Ġà° ®
Ð ł
w e
ac i
Ð¾Ð ·
à§ Ģ
à¤ ®
u h
Ġ" :
Ġáĥĵ áĥĲ
Ġà° ħ
à¤¾à¤ °
Ġàª ı
Ð° Ð½Ð¸
Ġb o
Ġ201 7
áĤ ı
ĠáĢ ľ
ĠÙģ ÙĬ
Ð¸ÑĤ Ðµ
Î½ Î±
ĠÐ Ķ
å ¼
ĠØ¨ Ùĩ
as i
k i
Ġp h
Ġ: //
.. ..
Ġà¦ ®
à¯ Ĩ
as h
Ð¾Ð ¶
Î¯ Î±
w á»įn
en a
ãģ ¨
ì Ħ
y s
à´ ¨
Ġv a
ĠS t
Ġ) ,
× ¤
Ġ201 8
Ġà´ ¸
é Ģ
á ¹
Ġh ttp
ãģ ª
t h
n o
er a
ĠáĢ Ĳ
ĠÑ Ħ
Ġà¦ ı
m i
ĠÎ ³
Ïģ Î¹
è §
Ġà° ¸
ĠÐ ¢
× ŀ×
ç »
àª ª
à¸ Ī
ëĬ Ķ
Ð» Ñı
o ur
Ïī Î½
Ð¾Ð ¹
Ġ ä¸
ad e
i f
Ġp Ã¥
Ġj e
áĢ® áĢ¸áĢ
v a
à´¤ àµįà´¤
¨ à¯įà®¤
àª ¸
l u
in t
ad o
à´ µ
ê °
Ð¸ Ñı
b e
Ġe d
Ñĥ Ð²
Ġå ¤
ĠÑ ħ
Ġ ï¿½ï¿½ï¿½ï¿½
Ð» Ð°ÑĢ
à´ ²
Ġà´ ®
Ġ est
àµįà´ °
1 0
à¸ Ľ
Ġáĥ¡ áĥĲáĥ
Ġ× ¢
ĠÐ¿ Ð¾
ĠÑ ŀ
ĠÎ ¿
o a
r an
Ä ħ
on d
à¸ ¹
× ŀ
ÙĬ ÙĨ
å® ĺ
Ġ X
Ġs er
ì ł
Ġs u
ç «
ĠÐ¾ ÑĤ
Ġt il
Æ° á»
Ġà® ¨
å ¸
m ent
áĥĺáĥ Ĺ
Ã¡ l
Ã£ o
Ġ2 4
am p
ĠA r
Ĳ áĢ¼
ãģ Ł
æ Ŀ
Ġ ÛĮ
Ġàªķ àª°
× Ľ
ÑĤ Ð¾
on e
àª® àª¾àªĤ
- -
ãĥ ³
ãģ Ļ
Ø «
ag e
× Ŀ
Ã« s
Ġ2 3
å¤ §
Ð¸ Ñģ
¾ áĢĢ
áĢ¯ áĢŃ
Ġà´ ¨
n h
at u
á¹ £
k u
r es
áĢĲ áĢ¹áĢ
ãĤ ĭ
ãģ Į
Ġ" ,
áĥĿáĥ ĳ
Ġh e
ä¸ ĭ
l ik
Ġáĥ Ļ
Ð°Ñ ĩ
Ġì Ŀ
ª à¯įà®ª
ÛĮ Ø¯
en e
Ð¸ Ð·
Ù ¹
å Ń
Ġ ang
ĠØ¹ ÙĦ
Ġà´ ħ
Ñ ī
i ch
ĠÙ ĥ
Ġa f
Ñĥ Ð´
Ġh ar
åľ ¨
áĢ Ĩ
ÉĻ n
ic a
à° Ĥ
er t
ì ķ
å Ĩ
E R
åĽ ½
Ã ¨
Ð¾Ð³ Ð¾
å º
g e
àª¨ àª¾
áĥĲáĥ ļ
¶ ľ
g an
it h
Ġà¦ ¨
è ¯
à´ £
Ð°Ð ¿
o j
à® £
ç º
áĥ Ĺ
Ā Ā
ĠM ar
àª¨ à«Ģ
å ·
or i
Ã¼ n
ãģ ¯
Ø§Ø ²
ĠS e
à® ®
ç İ
id a
ĠØ¨ Ø±
Ġd en
áº ¡
ad i
é ĩ
Î ²
Ġo b
à¦ ¸
Ġà¤ ¬
Ġd er
Ġn Ã«
Ġáĥ Ĺ
Ġà¹ Ģà¸
à® ±
Ġ Å
ul t
Ð¸ Ð´
áº ¿
Ġp e
áĢķ áĢ«
s o
à¯įà® ±
Ġà¦ ¹
Ġk om
Ġ us
r y
àª¾àª ®
Ġà¤ ¨
áĢĦ áĢ¹
u z
Ġt a
ÙĪ Úº
ĠáĢ ķ
é Ļ
ĠØ µ
em p
áĢĶ áĢº
à´¿à´ ¯
Ġ× Ľ
Ġv o
à« Ĥ
Ġà® İ
Ã¤ r
à¯ ĭ
ĠÛģ ÛĴ
áģ ¾áĢĢ
áĥ łáĥ
ĠÎ¼ Îµ
ĠD e
æĹ ¶
áĥĶáĥ ¡
Ġ ãĤ
áĢļ áĢ¹áĢ
u j
áĢķ áĢ¹áĢ
et t
áĢļ áĢ¹
Ġf r
à±įà° ¨
ìĹ Ĳ
¨ áĥĺ
ic e
Ø§Ù ĩ
an o
áĥĺáĥ ľ
à¥ĩ à¤
s p
Ġa z
g r
Ġv ar
Ġáģ Ĭ
Ġl es
f t
ĠÎ½ Î±
Ġr es
z y
Ġb l
ÛĮ Ø±
à° ®
Ð¸ Ð²
am b
Ġd is
à¥ĩ à¤Ĥ
ĠÃ ®
ĠE n
ë §
Ġàª ¦
áĢ ³
Ð¾Ð ¿
ĠáĢ Ľ
æ Ĭ
Ġáĥ Ķ
ap p
Ġà¤ ħ
ĠØ§ÙĪ Ø±
u e
Ã¤ n
e w
Ġb ir
Î½ Î¿
ç ľ
à´ ¨àµįà´¨
Ġà¤ ľ
ãģ ¾
Ġ $
n ÃŃ
áĢĬ áĢº
Ġm in
ĠÐ ŀ
à¤ ª
¶ľ ìŀ¥
ì§ Ģ
ĠP ro
i h
Ġ201 6
æ ³
àª° à«įàª
íķ ĺ
Ġo s
Ġà° ļ
×ķ× ¨
Ġà¤ µ
ÏĦ Î¹Îº
ur a
Ġs z
á» ĩ
à´ ¸
áĥĶáĥ ł
Ñģ Ñı
à° ¤
Ġm an
à´ ±
Ġ0 1
Ùĩ Ø§
Ð Ĳ
Ġm et
è ¡
Ġ ÒĽ
ĠÐ² Ð¾
Ġe g
ĠÐ ĵ
A R
ĠT h
Ð°Ñ ħ
áĢ ĳ
ç Ľ
à¯įà®ķ à®³
Ġp ol
» áĢķ
ĠÎ ĳ
Ö Ģ
Ġn h
ĠÐ ¶
å ¥
ic i
Ġa wá»įn
Ġk i
Ġàª ²
m er
× ĺ
Ð³ Ð°
ak a
Ġ ut
Ġà¦ ¦
Ġm ar
àµįà´ ¯
Ġà¤ķ à¥ĩ
I N
Ġà¤ Ĩ
ÑĢ Ñĥ
Ð¸ Ð½Ð¸
ĠÐ¾ Ð´
áĥĶáĥĳ áĥĺáĥ¡
ak o
ĠÙĪ Ø§ÙĦ
à°¾à° ²
Ġï¼ ļ
y n
ĠU n
Ñ ĳ
Ġ× Ļ
ë ¡
Ġg o
Ðµ Ð·
àµįà´ ª
Ä± r
ĠÃ ¼
el s
Ġh et
Ġà° ¨
æĺ ¯
Î ĳ
Ø º
ti v
à¥ Ĥ
f orm
ÑĤ Ð°
Ġp a
ĠØ§Ø ²
ãĤ Ĵ
âĢ Ŀ
Ðµ Ð²
Ġà¤¹ à¥Ī
ìĿ ĺ
Ġk h
ĠT he
in o
à°¿à° Ĥà°
à±įà° ¯
ÙĪ Ùħ
à¤ Ĺ
å İ
an e
Ðº Ñĸ
Ġ0 9
l ig
Å «
et e
t en
å ¾
Ù ¾
ĠÙħ ÛĮ
Ġáĥ ŀ
ĠÎ Ń
Ġ ÚĨ
Ġà §
Ġl i
Ġàª ¶
ĠâĢ ŀ
ÑģÑĤ Ð²
Ġin ter
à´ ª
em ent
ĠÚ© ÙĪ
ìĿ Ħ
Ø§Ø ¹
Ġì ŀ
p e
æľ º
å ĩ
Ġ Ê»
it y
ì ĭ
Ñĸ Ð´
as a
Ø ¸
à®¤ à¯įà®¤
à®¿à® °
áº £
Ġ um
is i
Ġk on
ÑĤ Ðµ
ĠØ³ ÛĴ
ĠÑ į
Ġ2 6
ĠØ§Ø³ Øª
Î ¾
áĥĲáĥ ª
Ñĥ Ð¼
8 8
ĠÎ± ÏĢ
b l
Ġb u
à§įà¦ ¤
Ġ ï¿½ï¿½
à¸ ³
Ġp Ã«r
1 1
à® ®à¯į
Ð¾ ÑģÑĤ
áĢ® áĢ¸
Ġà¤ ¦
Ġz a
Ã ±
Ð°Ñ ŀ
ĠâĢ Ķ
× ¡
àµ Ģ
ç ¥
Ġc he
áĢĻ áĢº
å Į
à®¿à®² à¯į
ac k
ĠÃ® n
Î¼ Îµ
Ġ \
Ø§Ù ģ
p a
àµįà´ ļ
ĠØ ²
ol o
ê ¸
àµģà´ ¨àµįà´¨
à´ ķàµįà´ķ
à¸ ŀ
ä¸ Ń
Ġm u
e h
Ġ }
ĠÐ¾ Ð±
E N
ĠS h
à´ ķ
Ñ Ĺ
ÙĦ ÛĮ
Ñĥ Ð»
à° µ
áĢ½ áĢ¬
Ġa u
Ã¼ r
à® ķ
i es
un t
× Ĵ
Ġ2 7
iv e
Ã¡ r
c a
Ġ0 2
Ļ àµįà´
Ðµ Ð¹
à¸ Ĥ
at s
Ġàª Ĺ
à ¨
Ġ Ò³
´ ë
à¸ Ĭ
Ð¸ Ðº
ĠáĢ ħ
à´¾à´ ¯
ĠÑ Ĩ
ĠÎº Î±
en i
Ġ× ŀ
à«ģ àª
Ġ5 0
Ġà´ ¤
à¯ Ĭ
à®¤ à¯ģ
Ġå¤ §
ol l
ĠP r
Ø± ÙĪ
à° ¸
à¤ µ
ĠÃ §
é Ĺ
ĠØ ¥
Ġc o
æ Ģ
em a
à®¿à® ©
à®¾à® °
Ġi k
ÏĦ Î¹
Ġ0 3
Ġ2 8
Ð½ Ð³
Ġ0 8
et s
ĠÎ ķ
æī ĭ
Ð¸ Ñĩ
Ġà¦ķ à¦°
ĠM a
k y
Ġà¦ ¤
r it
ik e
Ġl o
è ´
¥ à«Ģ
áĥĺáĥ ļ
b er
áĥĶáĥĳ áĥĲ
Ġ1 00
áĤ ķ
Å ¼
ĠÃ ł
æĸ ¹
Ð ¡
ĠÎ ł
å ±
l an
ĠÃ ¶
Ġ *
à° Ł
à° ¦
ĠL a
Ġun a
ĠØ§ÙĦ Øª
y e
m o
Î» Î¿
à¤ ¦
ch e
Îµ Î¯
à¦ ¦
at o
ÙĬ Ø±
y d
Ġ0 5
ay a
is s
è½ ½
Õ ¸
Ġf un
á» Ļ
Ð¸ ÑĪ
Ġb i
Ġ0 7
ĠØ ·
ĠE l
it u
Ġn ie
ÑĨ Ð¸
z en
ĠC om
à¯Īà® ¯
am i
à° ª
Ġà° ¤
à±įà° ¤
à±įà° ²
Ġet a
5 0
à° ¡
ĠÐ £
il a
m an
is e
c ia
Ġ0 00
àª¾àª µ
O N
et a
Îµ ÏĤ
Ġàªħ àª¨à«ĩ
Ġ2 9
end e
Ġ201 5
à¸± à¸ļ
ãģ ĭ
íķ ľ
Ġ ï
p ort
u ar
Ġt ak
Ð°Ð ¶
Ġm ak
_ _
s h
Ð¸ ÑģÑĤ
Ġà¤ ²
áĢĻ áĢ¹áĢ
g i
ì Ĭ
a u
ĠÏĦÎ· ÏĤ
ent o
à¯ģà® ķà¯įà®ķ
ķ áĢ«
Ġà¤ °
ĠÐ¸ Ð·
Ġ0 4
à® ¯
Ġo ch
as e
áĥ Ĵ
Ġì ł
l Ä±
Ġ0 6
c k
b o
Ñĥ Ð½
Ġà¦ ħ
c o
å¹ ³
È Ľ
æľ ī
ä¸ĭ è½½
áĥĶáĥ Ľ
Ġ20 20
Ġm i
Ġà¤ ¤
à¹Ī à¸²à¸
Ġáĥ ¬
Ġm od
×Ļ× ª
Ã ¬
à¤¾à¤ ¨
áº ¥
è Ģ
áĢĶáĢ¹áĢ ¸
ĠÏĦÎ· Î½
áĢħ áĢº
on s
æ °
v en
p er
Î Ł
Ġw e
à¯ģà® ¤
f er
àª ¯
ĠÑģ Ð¾
à´¿à´ ķàµįà´ķ
à§ĩà¦ ¨
Ġm at
l ine
Ġc u
Ð°Ð» ÑĮ
ì ļ
áĥĿáĥ ¡
ļ àµįà´ļ
ĠÚ© Ø§
å¹ ´
äº Ĩ
áĥĶáĥĳ áĥĺ
ĠÐ Ĺ
Ġp od
Î Ļ
ä ¿
à¦ Ł
ĠÚ© Ûģ
à¦ ª
Ġi r
Ù Ĳ
d en
âĢ ĭ
al am
ç Ļ
ãģ £
ë¡ ľ
Ġa y
Ġm as
Ġp os
Ð° ÑģÑĤ
à¹ Ĥ
Ãª n
Î¯ Î½
c t
åı °
Î ¶
Ġi z
Ġb r
Ġd he
Ã ²
ut e
m in
ê³ ł
Ġáĥ £áĥ
áĢļ áĢº
ĠL e
à°¿à° ¨
áĢĢ áĢ¹
Ġp ers
áĥĿáĥ ľ
ĠÐ ĺ
an y
Ð³ Ð°Ð½
à¸ģ à¸²à¸£
à°¾à° ¨
1 2
Ġb il
ĠÎ ļ
Ġà¦ ľ
ÑģÐº Ð¸
ë ı
ĠT r
Î± Î½
Î¿ Ïį
ol e
Ġp ag
Ġo d
b i
æ ķ
å®ĺ ç½ĳ
im e
us e
ãĥ¼ ãĥ
Ø§Ø ¡
Å Ľ
o z
Ã© r
Ġà´ İ
ur i
am e
ic k
Ø§Ù Ĥ
er n
ÑĢ Ð¾
Ġa ut
Ġ201 4
à´ Ļàµįà´
á» ĳ
à¸²à¸ ģ
is ta
Ã¡ t
Ġt ra
å ¯
Ġe a
Ġg i
A T
1 9
ì ¶ľìŀ¥
ĠÙ¾ Ø±
r at
áĥ£áĥ ł
Ġ ent
Ġv al
u re
ĠR e
ĠÎ³ Î¹Î±
à° ¯
é ¢
Å ¥
à°¿à° ķ
ä¹ Ĳ
om e
é Ľ
Ġ Ã©s
Ġm er
A L
Ġk at
ĠÎ £
Ðº Ð¾
ol a
ir i
×ķ× ľ
ç Ĳ
ä¸ į
Ġun d
ãĤ Ĭ
Ñĺ Ð°
Ïİ Î½
Ã¼ l
ul l
E S
Õ ¥
Ø¨ Ø±
Ġ ÏĮ
aci Ã³n
ĠÎ ¤
ê° Ģ
ÐµÐ½ ÑĤ
or a
à®Ł à¯įà®Ł
ÑĨ ÑĮ
Ð¿ ÑĢ
Ðº Ñĥ
ol og
à«įàª Ł
à®¾à® ©
ê ²
Ð ŀ
Ġs el
ë ¦
ĠØ§ÙĦ Ø£
à® Ļ
Ð´ Ð¸
áģ Ģ
a w
å¿ «
àµ Ĥ
Ġpro d
Ġ {
Ġ201 3
ig ht
ĠÎ±ÏĢ ÏĮ
àª Ĺ
à¸²à¸ ¡
it o
el d
Ġ4 0
in n
ĥ ½
æĹ ¥
Ñĸ Ð²
es e
is a
Ġ×© ×ľ
Ġn u
Ø§Ø ´
6 5
ir a
à¤° à¥įà¤
s s
àµįà´ ±
ï¼ Į
ĠÂ ·
v i
un a
¯ äºļ
el i
à±įà° Ł
ãĤ ¹
× ¦
ĠÐ² Ð°
áģ ¿
Ø§ Ú©
Ġ× ł
áĥ §
l es
å Ŀ
ä¸ Ĭ
áĢĦáĢ¹áĢ ·
à¤ ļ
å ĵ
Ġ ÅŁ
áĥĺáĥ ĵ
h et
Ī ëĭ¤
à± Ĥà°
f a
áĢĦáĢº áĢ¸áĢ
Ã¤ l
ãĤ Ĥ
ĠÃ ¥
Øª Ø±
Ġáĥ ķ
Ñĥ ÑĤ
Ġ Ïĩ
qu e
Ġê °
Ġt u
ÛĮ Ùħ
in k
ÉĻ l
Õ ¶
à±ģà° ²
Ã« n
áĢŃáĢ¯ áĤĶ
à® ¨à¯įà®¤
ĠÙħ Ø¹
áĢ¯ áĢ¶
Ð°ÑĤ Ð¸
Ġd at
áĢĢ áĢ¼
áĢĬ áĢ¹
ë ¥
Ġà¤® à¥ĩà¤Ĥ
Ġ ãģ
Ø§Ù Ī
Ġáĥ ĳ
ik i
Ġ", "
x t
àª ¦
àª¾àª ¯
re d
È Ļ
Ã¸ r
ĠØ§ÙĦ Ø¹
k t
Ġ201 2
ĠÎ ¸
à¦¿à¦ ķ
y t
æ Ń
3 0
æ Ķ
i x
O M
æ µ
Ġin d
Ġâ Ĥ¬
Ġj u
Ġp as
Ġat t
ĠÑģ Ð²
ÏĦ Î¬
ĠáĥĲáĥ ł
à´° àµįâĢį
àª ľ
e a
ĠØª ÙĪ
ÉĻ t
è ¦
à¸²à¸ ¢
Ġw ith
Ġy ou
Ðµ Ð³
àª ¡
É Ľ
Ú Ī
áĥĶáĥ ķ
Ġ ul
à¤ ¯
? ?
Ġm ga
y l
à¹ Ģ
ion e
it t
i i
é ģ
çº ¿
à«ĩàª ²
à´¾à´ £
áĢ±áĢ Ķ
ì ľ
Ġ× Ĺ
æ ´
ĠÛģ ÙĪ
Ġå¤§ åıĳ
Ġà° °
à¸Ĺ à¸µà¹Ī
áĢ¬ áĢĢáĢ¹áĢ
ec t
ĠÎ ľ
O R
9 9
Øª ÛĮ
ĠA d
Ġcon t
b u
Ġì ķ
r et
ì ĥ
Ñĥ Ñģ
Î £
Ġd in
æ ŀ
å® ¶
Î» Î»
ĠØ§ÛĮ ÙĨ
æ ł
d an
n Ã©
à± Ī
Ġë °
Ã¡ c
A S
ä¼ ļ
à¸£ à¸°
ĠÎ ·
Å ¯
Ð¾ Ð¸
à¹Ī à¸Ń
Ïģ Î¬
p p
Ġc a
Ġ3 1
Ġe en
ê¸ °
áĢĬáĢ¹áĢ ¸
áĥĶáĥ Ĺ
æĪ ı
Ðµ ÑģÑĤ
×Ļ× ¨
Ð ĺ
à¦¾à¦ ²
ar k
Ø§Ø Ń
æ İ
ÙĦ Ùħ
ãĥ ĥ
ĠÏĢ Î¿Ïħ
Ġk wa
ìĦ ľ
ĠÃ ¤
ul a
áĥĺ áĥĲ
à®¾à® ķ
es ti
ãģ Ĩ
av e
m as
n et
à¸Ķ à¹ī
áĥĲáĥ ®
Ðµ ÑĪ
áĢ¬ áĢĦáĢ¹áĢ¸
Ðµ Ñĩ
Ù Ģ
j i
Ġre c
ãĤ Į
ìĿ ¼
à´ ¨àµįà´
å¹³ åı°
Ġ äºļ
é Ŀ
à¯ Ģ
Ġàª Ń
and o
ÎŃ ÏĤ
ãĤ ¤
in s
à®° à¯į
Ġb at
Ġb ar
Ġ": "
Õ «
ĠÐ² Ñĭ
à®¿à® ±
æ¸¸ æĪı
Ġ ur
ĠÎ Ķ
ç §
Ù ı
2 2
ac e
ĠáĢ Ĩ
áĢĲ áĢļáĢ¹
ot o
à´¿à´ °
en ti
y o
Į Ģ
ĠO n
Ð¸ Ð»Ð¸
ÛĮ Ø§
ãĤ ī
ĠS p
ed e
el t
Ġs on
à´¿à´ ¨
ĠÙĨ ÛĴ
àª¾àª ¤
Ð½Ð¾ ÑģÑĤ
áĢ±áĢ Ľ
k l
ì ĸ
Î ķ
ar en
Ġàªª à«įàª°
áĢĲ áĢº
Ġà¹ ģ
8 0
Ġm eng
or s
à¸£ à¸µ
áĢ¶ áĢ¯
ĠÂ °
y m
it s
á» ģ
ÑĨ Ñĸ
an te
Ġà¦ª à§įà¦°
å ĳ
ÐµÑĤ Ð¾
à¯įà® ļ
Ã´ ng
Ã¢ n
Ø§Ø± ÛĮ
Î¹ Ïĥ
ÑĨ Ð°
áĥ£áĥ ļ
ì Ľ
å¼ Ģ
ĠÏĥ Ïħ
Ġáĥł áĥĿáĥĽ
Ø± ÙĬ
ĠØ± ÙĪ
ĠÑĢ Ð°Ð·
ur s
àª ³
Ú¾ ÛĮ
Ð» Ñĸ
ê µ
ç ¾
Ġb es
áĢ· áĢº
Ù ĳ
æ ĭ
áĥĲáĥ ¢
ĠáĢ ģ
n ya
à´¾à´ °
ĠÙħ ÙĪ
à® ªà¯įà®ª
à¦¿à¦ ¨
çĶ ¨
áĥĲáĥ Ĺ
j Ã«
Ð¸ Ð¹
el o
Ã¥ r
ç« Ļ
ap a
is k
áĢķ áĢº
à¤ £
à´¾à´ ¨
ĠâĢ ¢
on i
Æ ¡
ë Ĥ
áĢ ĺ
al ar
á» ĥ
Ġcom p
es i
e j
å Ĵ
ch t
il m
y r
im a
æīĭ æľº
à® ļ
ĠáĢ Ķ
ag i
Ø± Ø¯
1 5
1 6
t uk
áĥ£áĥ ļáĥĺ
à¦ Ĺ
à´Ļàµįà´ Ļ
v al
Ġth at
Ð¾ÑĤ Ð¾
Ġm ai
Ġà®İ à®©
ĠÚ© Ùĩ
å¤ ©
× Ł
Ġà¦ °
ti k
Ã© g
à°Ĥà° ¦
à¹Ī à¸ĩ
an k
à¤ ¡
ÃŃ t
Ä ĩ
Ġà® ī
Ġp i
Ñı ÑĤ
áĥ ĳ
im i
Ð°Ð½ Ð´
ĠØ¨ Ø§
Ïģ Î¯
n ie
ë ĵ
ĠA m
à¯ģà® ķ
Ġi d
Ġre g
ìĿ Ģ
æĸ °
ĠØ¹ÙĦ Ùī
ãĥ Ī
ĠáĢ Ĵ
ÏĦ Î±Î¹
à±į âĢĮ
Ġs al
eg o
Ġàª¹ àª¤
à¦¾à¦ ®
ĠÎµ ÏĢ
7 7
i re
à¥ĭ à¤Ĥ
ĠÄ °
Ã© n
w o
áĥĲáĥłáĥ Ĺ
it i
Ġa re
ì Ĥ¬
ĠÐ¸ Ð½
Ã§ Ã£o
×ķ× ĵ
emb er
áĤ Ī
Ġs am
à¯ Ĥ
á» §
Ð½ Ðµ
Ġàª ¥
Ñĥ Ð±
áĥĶáĥ łáĥ
áĢ Ŀ
Ġà¤ ¯
à´¿à´² àµįâĢį
Ñĥ Ñĩ
al iz
áĢĲ áĢ¬
à¤¾à¤ ¤
áĢĻáĢ¹áĢ ¸
à¸· à¸Ń
d u
ĠÐ´ Ð¾
Ġà¤ķ à¥Ģ
ig a
r as
ot el
ak an
Ī ĺ
Ġd it
è Ĥ
ĠÐ Ľ
Ġm ag
Ġ Ò
Ġà¤ Ĺ
Ġ201 1
at t
u y
Ġ× ª
áĢ± áĢ¸áĢ
Ġ Ø§Ùħ
en n
ĠÏĢ ÏģÎ¿
àª ¥à«Ģ
áĥĶáĥ ĵ
en er
Ġáĥ ľ
1 8
1 4
Î¹ Î¿
er v
×ķ× Ł
Ġà° Ĩ
ĸ áĥĶ
ÙĦ ÙĬ
áĢŃáĢ¯ áĢ·
ì ²
Ø± Ø¨
Ġ3 5
à±ģà° ¨
ÃŃ a
àµįà´ ²
Ġg e
à¤¾à¤ Ĥ
Ġb et
Ġà¦ ¶
ĠC on
Ġà¸ ª
à¦° à§įà¦
Ġa j
à«įàª ¤
áĥĿáĥ ķ
ol d
áº Ń
Ġal l
Ġà´ ĩ
à± Ĭ
ak e
ĠÐ¿ ÐµÑĢ
Îµ Î½
ĠÑģ Ð¿
ĠÏĥ ÏĦÎ¿
àª ¶
áĥ ª
6 0
ĠÙħ ØŃ
ĀĀ ĀĀ
ig e
ĠÐ¿ÑĢ Ð¾
ÙĨ ÛĴ
áĢŃáĢ¯ áĢĦáĢ¹áĢ
ub l
£ ¼
âĢ ¦
Ø ¥
eng an
Ġê ²
) .
ĠN o
ĠÄ į
.... ....
ÙĨ Ø§
Ø§Ø ¬
r en
ag a
r os
ĠÑĤ ÑĢ
E L
ic o
ie w
Ġw as
ÙĬ Ø¯
Ġc l
ĠÏĦ Î±
Ġì Ĺ
è¡ Į
m en
Ġam b
×ķ× ĳ
ah a
Ö Ĥ
k er
à¤¿à¤ ¯
Ġm eg
Ġ× ¨
Ġà´ ļ
à®¿à® Ł
ĠÃ º
Ø± Ùģ
àµģà´ Ł
Ġf Ã¶r
Ġv Ãł
áĥ ¥
Ø³ ÛĮ
Ġt y
Ð¾Ð» ÑĮ
3 3
Ġj o
ìĬ ¤
à´¿à´ ļàµįà´ļ
áĥ Ļ
Ø§Ù Ĭ
àª¿ àªķ
Ġç İ
Ġm il
Ð°Ñ ļ
Ïģ ÏĮ
áĢĸ áĢħáĢ¹áĢ
ek o
l et
åĴ Į
à¤ ¬
Ġàª ļ
áĥĺáĥ ł
×Ļ× ł
Ġå ħ
à±ģà° Ĥà°
j u
l and
ing s
Ġw at
Ġà¤ķ à¤°
ÏĦ Î®
Ø§ÙĨ ÛĮ
Ù Ĵ
S T
à¤ ľ
æĿ ¥
Ġl os
ar s
Î¿Ïħ Î½
Ïĥ ÎµÎ¹
Ġ ä»
à¦ ¼
Ġàª® àª¾àª
Ġ á»į
à±ģà° ķ
×ķ× ł
Ġà¦ ¯
b en
k en
ek s
çĶ Ł
à¦¾ à§Ł
áĥĿáĥ ĵ
Ø¯ Ùĩ
Å Ĩ
á» ĭ
à¤¾à¤ ²
áĢ±áĢ ĲáĢ¬
áĢ½ áĢŃ
æ ¬
àª Ł
Ġ @
v el
Øª Ùĩ
ĠØ± Ø§
a f
Ùħ ÙĦ
Ġs c
Ðµ Ð±
Ð¾ Ð½Ð¸
áĢ² áĤĶ
Ġa ti
Ġu p
à®¾à® ²
áĢĲ áĢ²áĢ·
ìĿ ¸
1 7
Ġk l
à®© à¯į
Ġ× ¤
Ġà°ª à±įà°°
ĠàªĨ àªµ
Ð°Ð´ Ð¸
Ŀ ¼
àª §
Ã¶ n
2 4
Ġf in
à¦¿à¦ ¤
Ġn d
Ġpr es
z t
Ġc an
ĠÎ ²
à¦¿ à§Ł
Ġ <
Ġàª «
àµģà´ ķ
à¯įà® ²
6 6
Ġg a
er o
U R
Ð Ŀ
ĠáĢ ĳ
Ġáĥ ®
Ġv ÉĻ
Ġse g
ĠÑĤ Ð°Ðº
Ġin c
f or
à¸² à¸Ļ
) ;
ë¦ ¬
åĩ º
×Ļ× Ķ
an ya
Ġàªª àª°
Ñĸ Ð½
Ġe k
Ĺ à°¾
c tion
çī Ī
ĠÑģ Ð»
Ġcon s
Ġà¤ķ à¥ĭ
ĠS o
à«ĩàª ®
áĢ±áĢ ĲáĢ¼
Ã¡ m
è ĩ
u v
á ŀ
Ġg j
Ġm y
É Ķ
Ġ ÏĨ
Ġàªķ à«ĩ
Ġæ ľ
al o
à¤ Ł
à¦ ¹
Î¼ Î¿
å ¨
Ġn ot
ãĤ ĵ
ä¸ ī
áĥ ¨áĥĺ
g o
Ø¹ Ø¯
Ð°Ñ İ
Ġì ĺ
al d
ä½ ĵ
l am
à¤¨ à¥ĩ
áĢŃ áĢ³
Ġ Å¡
áĢŃáĢ¯ áĢ¸áĢ
Ġà¤ Ń
Ð¸ Ð¸
åľ °
Ä± ÅŁ
Ġà´ Ĩ
ĠH o
ti m
E T
ÑĢ Ñĭ
ĠØ§ÙĦ Ø³
ç½ĳ ç«Ļ
à¦¾à¦ ķ
à°¿à°Ĥà° ļ
æ ²
Ðµ Ð¶
Ġth is
ëı Ħ
à¸ ĸ
al s
áº §
Ä± m
Ġc ol
1 3
p h
Ñĸ Ð»
ÛĮ Ú©
Ġà¤ ī
ak i
b an
à¸¥ à¸°
ti r
Ġu z
es ta
Î± ÏĤ
Ġ×Ĳ ×ª
ë§ Ī
Ġë §
Ġk r
Ġn y
ĠÐ¸ Ð¼
ĠÐº Ð¾
ĠÐ¿ Ð¾Ð´
Ġk ar
ch i
áĢĶ áĢ¹
å ī
Ġ201 0
à® ´
à¤¿à¤ ķ
Ġd engan
áĤı áĢ½
áĥĺáĥ ª
ä½ ľ
Ġáĥ ¤
áĢģ áĢº
Ġun tuk
è ī
Ġï¼ ī
áĥķ áĥĶáĥļ
Ġáĥ ¥
c es
ch a
n er
ĠÐ° Ð´
Ġàª ĸ
and a
áĢķ áĢ¼
Ð¾Ð² Ð°
áĥĿáĥ ļ
iv ers
Ø§ Ûģ
9 0
ĠÐ¼ Ð¾Ð¶
áģ¿ áĢķ
Ġin i
à¯įà®ķà®³ à¯į
à®¿à® ķ
æ ĥ
à® ķà¯įà®ķ
Ġl ang
Ġk un
4 0
Ġa i
áĢĻ áĢ¾
g er
ok o
Ġw h
Ġn Äģ
× ĸ
à¯ģà® µ
Ã³ w
il d
Ùħ Ø§
ÉĻ s
! !
ãģ ı
å Ł
Ġà¦ Ĺ
00 0
Ġf a
p o
« ĺ
åħ ¬
ÐµÐ» ÑĮ
em e
g en
Ïģ Î³
Ġt ot
2 5
Ð°ÑĢ Ð¸
Î¼ ÎŃ
ĠÏĥ ÏĦÎ·
Ġh er
el le
ÑĢ Ð°
Ġáĥ ©
Ġà® Ĩ
ĠP ar
Ùħ ÛĮ
ä ¾
Ġs up
al t
ĠÏĥ Îµ
s te
á» Ľ
A M
ì ĺ
7 0
ak t
Ġh u
Ġ4 5
é ¡
ĠO r
or es
j o
k in
Ñ Ķ
ĠÛģ ÛĮÚº
ãĥ «
Ã½ ch
Ľ à§ĩ
l d
ent ru
ut a
à®£ à¯įà®Ł
åĲ Ī
à´Ł àµįà´Ł
k et
ĠQ u
à¹Ģà¸ Ľ
ÎŁ Î
áĢĽ áĢ¬
i en
Ġå ı
Ġp ost
ik o
àµ Ĭ
Ġv ol
ĠÏĢ Î±
Ñģ ÑĮ
à¸± à¸ĩ
Ġâ Ĩ
v is
Ð¾ Ñĩ
àµ ½
p os
àª¿àª ¯
Ġì ĭ
Ġst r
áĥĿáĥ ł
Î¬ Î½
ÑĤ ÑĮ
Ġàª¤ à«ĩ
ÙĨ Ú¯
Ġl Ãł
à¸¡ à¹Ī
I T
Ġi f
áĢ Ł
Î¿ Î»
àµ ¼
Ġs in
Ĺ à¸µà¹Ī
×Ļ× ľ
à§ģ à¦
Ġl as
ow n
Ð½ Ð¾Ð³Ð¾
ÏĦ ÏĮ
us h
v o
Õ¸ ÖĤ
ĠØ¨ Ø§ÙĦ
Ð ¢
ìĭ ľ
Å £
ot t
Ã¤ Ã¤
Ð ķ
ë ħ
à®¿à® ¤
à°¾à°° à±ģ
al it
à´ª àµįà´ª
Ð°Ð³ Ð°
ĠP er
áĢŃáĢ¯ áĢĦáĢº
Ã ¹
Ġb el
Ġse b
Ġ× §
ĠáĢ »
à¸± à¸Ļ
Ġe in
Ġc ar
Ġy o
Ñĥ Ðº
à°¨ à°¿
Ġà «
ĠP l
ë¥ ¼
Ð¾ ÑĪ
il le
Ġà¦ ļ
ĠÎ »
åľ¨ çº¿
f ic
Ġàª ī
ĠÎ± Î½
à¸ ¶
ĠØ£ ÙĨ
à¸± à¸Ļà¸
Ġs ur
ĠÑ ī
àªµ àª¾
à¦¾à¦ ¦
l ÉĻr
Ġs em
Ġï¼ Ī
áĢĲ áĢ½
Ġt id
Ġp ÅĻ
àª ¬
áĢ» áĢķ
Ġd r
Ġk er
ð Ł
å° ı
è ¾
Ġde m
Ø¦ ÛĴ
ide o
Î» Î·
Ð¸ Ñħ
áĥ ¬
Ġin form
ov a
æľ ¬
Ð¸Ð½ Ð°
Øª Ùħ
ĠT e
Ġì Ħ
om a
à¸²à¸ ĩ
ĠA z
Ġ3 3
ĠØ§ÙĦ ØŃ
æ Ļ
ÙĨ ÛĮ
å¸ Ĥ
Ġs l
ig n
àª¨ à«įàª
Ġ3 2
ê ±
æ ±
Ġs y
à§įà¦ Ł
åĿ Ģ
Ġ Ïħ
ĠáĢ ĺ
ah i
Ġv is
ÑĢ Ð°Ñ
Ġt re
ĠN ew
æ³ ¨
Ġ á¹£
ĠP re
I C
áĥĶáĥĳ áĥ¡
Ġm it
Ġ ist
c z
ĠG r
um a
iy a
ab a
Ġk w
Ġà° ¬
Äģ s
ë °
ĠÎ Ł
s z
u f
Ġk as
Ġàªª àª£
ĠÙĦ ÙĦ
à°° à±įà°
ĠE r
ion al
íķ ´
Ġ Å¾
ĠA s
æĪ ·
Ġd os
Ïī ÏĤ
o ok
Ġà¤ ĩ
at ur
Ġr a
ed er
on o
çĲ Ĩ
Ġà¤¸ à¥ĩ
áĢ¬ áĢĦáĢ¹áĢ
ĠÐ ¤
ĠáĥĲáĥ Ľ
Ġv ir
ĠP h
áĢ Ĵ
æ Į
Ġê ³
ad os
Ġà¸ ģ
Î¯Î½ Î±Î¹
å½© ç¥
ĠØ º
Ġ6 0
í Ĭ
p t
Ġà° ¦
Ġq Ã«
Ã¦ r
ra c
Ð°Ð» Ñĸ
ÙĬ ÙĦ
-- --
Â µ
Ñĥ Ñİ
àª¾àª® àª¾àªĤ
ang an
oc k
Ġà° ĩ
àµĩ à´
Î Ĺ
à¥įà¤ ¤
á» ±
ĠÐŁ ÑĢ
¯ à¦¼
ä¸ º
æľ Ī
Ú ĳ
Ġp ot
àª¨ à«ĭ
à¹Ħ à¸Ķà¹ī
ĠN a
ĠØ§ÙĦ ÙĦ
Ġ3 4
Æ°á» Ŀ
Ïģ Îµ
à¹ī à¸Ń
O S
áĢ¯ áĢķáĢ¹áĢ
ĠV i
ak s
Õ¡Õ ¶
ä¸ ª
Ġ× Ĵ
ci Ã³n
à¸± à¹ī
Ð°Ð» Ð¸
f r
Ġà¤ª à¥įà¤°
ç¾ İ
Ġt ur
ãĢ Ĥ
Ġà¦¬ à¦¿à¦
an ia
ãģ į
ÑĬ ÑĢ
un e
Ġo ver
à´¿à´ ķ
ĠÐ¿ÑĢ ÐµÐ´
5 5
ì ¹
Ġd ar
Ġ3 6
ĠÙĨ Ûģ
áĥĿáĥ Ĵ
Ġà¤ ¶
ĠÐ´ Ð»Ñı
ĠD et
Î½ Î·
ti g
ë ³
ĠÐ ¥
at iv
ÙĪ Ø¨
Ġà ¨
Î® ÏĤ
Ïĥ Îµ
ãĤ ¯
ĠS a
Ġ×ľ ×Ķ
çľ Ł
Ġpers on
æ Ħ
Ġn on
àª¾àª ¸
I S
áĥĿáĥ łáĥ
éĽ Ĩ
çĶ µ
à´³ àµįâĢį
ek t
à¹ĥ à¸«
* *
è§ Ĩ
o f
ĠÐ¼ Ñĥ
es te
ãĥ ©
Ġvo or
at h
ÉĻ k
ä¸ ļ
áĥĺáĥ ¢
æ ¯
Ġáĥĵ áĥĲáĥ
o i
áĥĵ áĥĲ
à¦¾à¦ ¤
Îĳ Î
ot e
ab le
y i
ĠB ar
ÑĢ Ð°Ð½
à§įà¦ ¬
Ġp u
Ġ× ĵ
Ñĥ Ð¿
ra v
p ar
Ġhttp s
à¸µ à¸¢
è Ī
à´¾à´£ àµį
é ĺ
Ġn jÃ«
Ø± Ø§ÙĨ
ìķ Ī
à«įàª µ
² à±ĭ
Ð°Ð½ Ð½Ñı
Ġn ga
Ä ¼
è¦ ģ
Ġà° ī
Ġho Ê»
± ä¹Ĳ
ĠáĥĴ áĥĲáĥĽ
ent s
re e
c on
áĥĺáĥ Ļ
ĠP ost
Ä °
ĠN e
Äģ k
Ðµ Ð¿
ĠÐ ķ
áĢ±áĢ¬ áĢĦáĢº
Î» Î±
ÉĻ d
è ĥ½
ad es
Ġm al
Ø¦ ÛĮ
ãĢ ĳ
4 4
Ġn em
ç ł
ed i
à¦¿ à¦°
Ðµ Ð»Ð¸
åħ ¨
Ġà° Ĺ
Ġà¤ ı
à¸ ĵ
ÙĦ Ø§Ùħ
m et
ĠB l
b et
Ġe z
ĠâĢĿ ,
Ġe i
Ġc Ã³
Ġà¸ Ħ
Ð°ÑĤ ÑĮ
ag o
Ġin f
Ø± Ùħ
å®ĺ æĸ¹
éĻ ħ
ë ¶
æĪ Ĳ
lar Ä±n
or n
Ġh as
Ð» Ð°Ð´
à¦ ľ
Ġon line
åŃ Ĳ
Ñģ Ð¿
Ġ ud
áĢ±áĢ ľ
Ġà¤ ļ
Ġå ĩ
el la
à¥ģ à¤
Î¿ Î½
Ġp al
Ġ×Ķ× ŀ×
à´ ¦
å Ģ
Ġd as
åĵ ģ
Ġpro f
à¦ ĩ
ĠÏĦ ÏīÎ½
Ġa le
an c
à®¿à®© à¯į
ĠÙħ Ø³
ĠÎµ Î¯Î½Î±Î¹
Ä ¾
in in
à±įà° ª
m l
ĠÐ ¹
ë ł
áº¥ t
ĠI s
áĢĻ áĢ½áĢ¬
ĠH e
ÑģÐº Ð°
Ä± z
ĠU S
ç Ń
Î» Îµ
E D
Ò ĵ
Ġfor m
ĠÑĤ Ð°
b r
áĢĲ áĢ¼
ÐµÐº ÑĤ
Ó £
Ġà´ °
à°¨ à±įà°¨
à¦¾à¦ ¬
áĢľ áĢŃáĢ¯
an n
Ġ, "
í Ļ
ĠÑĪ ÑĤÐ¾
ol i
Æ°á» £
Ġse x
é ĥ
Ġ×ľ ×Ĳ
Ã¶ z
Ġà´ª àµįà´°
Ġ200 9
à¯įà® ³
àª¿ àª¤
à®¿à® ķà¯įà®ķ
el y
ar y
ĠSe x
Ġs v
gr am
à¸ ľ
Ġt s
Îº Îµ
Ġ19 9
Ġn ov
Ġh i
h l
an ce
d o
Ġv y
Ġm Ã¼
os e
Ġì §
ãģ ĵ
ÛĮ Øª
áĢ¸áĢ ±áĢ
ĠB u
éĹ ¨
Ġ" .
Ġin st
íĬ ¸
Ġc e
ãĥ ª
Ð¸ Ð±
Ñĭ Ñı
áº¡ i
ĠM e
h r
Ġf e
ãģ¾ ãģĻ
ra f
ä» ¥
ç Ĥ
à®¾à® ¤
Ã« t
ĠAn d
å¨ ±ä¹Ĳ
ÃŃ n
àª° à«Ģ
u al
od e
Ġde c
Ùħ ÙĨ
ur o
u an
ĠâĢĭ âĢĭ
us s
d z
Ð½Ñĭ Ñħ
àµģà´ ¤
àµĨ à´¯
é «ĺ
w s
àª ļ
ĠB r
Ã© m
à´£ àµįà´Ł
Ġå °
and e
à«ĩàª µ
id o
ĠT o
åĪ °
ÐµÐ½ Ð½Ñı
àµįâĢ Į
ap at
Ġáĥ Ŀ
à¦¾à¦ ¸
ĠI t
Ġc n
å¤ ļ
Ð½Ð¸ Ð½Ð³
at or
ĠE s
×Ļ× Ł
in en
us i
Äģ r
2 8
Ġo ut
2 3
áĤ Ģ
ì £¼
Ġt el
ĠìĿ ´
à¦¾à¦ ĩ
Ùĩ Ø§ÛĮ
Ġàªı àªķ
ĠÎ± Ïħ
àµģà´ ®
Ð°Ñ ĺ
ĠK a
ĠÐ³ Ð¾Ð´
Ġcom o
Ġs ek
à¦ Ĥ
ĠÐº Ð¾Ð¼
Ġ3 8
Ġà¦ ī
à® ª
ÐµÐ½Ð¸ Ðµ
ĠÏĢ Îµ
u x
Ðµ ÑĨ
á»Ľ i
Ġ× ¡
Ġe v
ĠÙĩ Ùħ
Ġs ch
al is
ãģĹ ãģ¦
à¹Ģà¸ ¥
à° Ĺ
ĠM an
ik an
Ð¼ Ð¸
» ¿
ãģ ķ
Ġs et
Ġ= "
äº ¬
er k
Ä± l
un i
ĠA c
×ĳ ×¨
Ġà¦ ĵ
à¯įà® µ
Ñĥ Ð²Ð°
I L
Ġl eg
Ġw eb
Ġçİ ¯äºļ
Ġfr om
Ð°Ñļ Ðµ
es h
à¯ģà® ®
Ġà®ļ à¯Ĩ
ëĭ Īëĭ¤
à¸± à¸ģ
ÃŃ m
×ł ×Ļ
ĠÃ¤ r
ãĢĳ ãĢĲ
ĠÙħ Ø´
am ent
Ã© t
Ġäºļ æ¸¸
Ġ8 0
áĥłáĥ Ĺ
åŃ ¦
à®² à¯į
áĥĺáĥ ķ
Ùĩ Ùħ
uk s
Ã¡ v
è ¨
áĤĢ áĢĢ
er g
A D
ĠáĢ ĸ
ion s
àªĤàª Ĺ
Ġï¿½ï¿½ï¿½ï¿½ ï¿½ï¿½
à¤¿à¤ ¤
é Ĵ
ÙĪ Ø²
ĠC ar
ĠF or
Ñĥ ÑĪ
à´¤ àµį
O L
Ġà¦ Ń
è ģ
Ġ×¢ ×ľ
Ġn et
Ġm em
Ġå ½
I D
áĥĶáĥ ¢
z o
ul ar
ĠÐº Ð°Ðº
Ġs ol
Ġs Ã¥
Ġc á»§
Ð ļ
Ġë Ĥ
à ©
Ġ3 7
w i
Ġ5 5
Ġf i
W W
Ø§Ø µ
Ġà° İ
id en
Ġå ®
Ð´ Ð°Ð½
ĠÄ Ĳ
à°ķ à±įà°
äº ĭ
à¦ £
at is
Ġcá»§ a
Ġ. ,
áĥĺáĥ Ľ
Ġy our
Ł à«ĩ
Ġes te
à®¾à® Ł
áĢĻ áĢ»
Ġk ur
or k
× ļ
ok a
ek a
ay s
Ġàª¸ àª¾àª
ĠÙħ Ø±
à ·
à§ĩà¦ ķ
ÐµÐ½ Ð°
ĠIn ter
Ġ3 9
Ġtr ans
Ġà¤ Ķ
ãģ£ ãģ¦
à°¾à° ¯
Ġm es
Ï Ī
ç ¨
Ġt ar
pr es
á» ©
Ã¤ t
å· ¥
Ġc or
Ġin s
à¹Ī à¸Ļ
y k
Ġt se
Ġ× ĸ
Ñ ĵ
Ġa an
à§ ľ
4 5
Ġè ¿
Ġs m
Ð° Ò³
w an
et i
à¯įà® ©
ìŀ Ĳ
ÛĮ Ø´
Ġàªµ àª¿àª
Ġà¤ª à¤°
Ä±n da
à¤ §
Ġc as
ĠC OM
çĻ »
Ġl ati
ç ¤
Ú¯ Ø±
à¯ģà®¤ à¯įà®¤
á» ¥
Ł à¸£à¸µ
Ġë ĭ
Ġà° ľ
Ġn os
¦ à°¿
ìľ ¼
ec i
è½ ¦
ĠÐº Ð¾Ð½
ÙĤ Ø¯
p i
al an
ik u
áĥķ áĥĺáĥ¡
Ġê ·
àª¾àª ľ
à¯ģà® Ł
å ģ
Ġs ta
ch en
ht Ã«
ãģ Ĥ
j et
ĠE x
Ð»Ð¸ Ðº
àª¾àª ²
Ð¾ÑĢ Ð¸
Ġk Äģ
Ġr el
áĥĶáĥ Ĵ
Ġm ul
å® ī
Ġb ol
am o
Ġà¤¹ à¥ĭ
åĽ ¢
Ġà¤Ķ à¤°
ĠØ¹ ÙĨ
Ġ4 8
éĩ ĳ
Ġáĥ ¢
Ġãĥ »
Ġ9 0
±áĢ ĲáĢ¬
am an
ĠÃ ¨
Ġt od
ar an
os h
åĽ½ éĻħ
à°Ĥà° Ł
Î¿Ïħ ÏĤ
Ġi a
ĠÎ ¬
ģ áĢº
Ġk ut
il o
Ġo u
à´ ķàµįà´
Ġå Ī
Ġd ur
ie k
Ġs en
I A
Ð» Ð¾
uk a
ĠáĢŀ áĢ°
áĢĦ áĢ·áĢº
æ³ ķ
Ġ á
Ġm ay
Ġàª Ł
Ġ) ;
ãģ§ ãģĻ
ĠP ol
Ġæ Ī
åĽ ¾
Ġà¸ £
×ķ× Ŀ
ĠØª Ø¹
Ġt al
l as
Ġï¿½ï¿½ ï¿½
ĠØª ØŃ
ot a
áĥĶáĥļ áĥĺ
ë Ŀ¼
ĠÑĤ Ð¾
ĠK e
å½©ç¥ ¨
Ð¾ÑĢ Ð¼
á» ¯
à±ģà°¨ à±įà°¨
f i
ĠÎ¸ Î±
Ġp en
ĠD ie
à®² à¯įà®²
Ùħ Ø¯
ĠB a
Ġor gan
Ġà°ļ à±ĩà°
ÐµÐ½Ð¸ Ñı
Ġt ill
c ess
âĢ ľ
ĠD i
Ġæ Ĺ
ud i
áĥ ¨
l en
ĠÏĦ Î¹
Ġc i
×ķ× Ĳ
Ġil e
Ġt sa
ÏĥÎ· ÏĤ
Ø§Ø ®
à´¿à´ Ł
at an
Ñĭ Ð¼
ĠáĥĴ áĥĲáĥľ
ci al
ab il
Ġì Ĥ¬
Ïģ Î·
Ġt emp
Ġc are
am il
ç ®
ĠH a
à°¿à° ¤
ĠÐ´ Ð°ÑĢ
ĠØ§ÙĦ Ø¬
7 8
ud e
à«ĩàª ¶
à¥įà¤¯ à¤¾
Ð°Ð± Ð¾ÑĤ
à¤¿à¤ ²
Ïģ Ïī
ĠÐ ¨
ĠÐ³ ÑĢ
áĥĲáĥ Ĵ
ĠS ch
at er
ĠÙĩ Ø§ÛĮ
Ġi g
al ah
t re
Ġch o
ãģ ł
àªµ àª¾àª¨
ÙĦ Ùī
áĥĺ áĥĲáĥľ
b y
à¦¿à¦ ²
à«ĭ àªķ
Ġp un
æľ Ģ
ĠâĢĿ .
è ¶
çľ ĭ
àµįà´ ³
ĠB e
im o
à±įà° µ
ĠÑģ Ð°Ð¼
ĠÐ² ÑĸÐ´
Ġs ig
áĢ¸áĢ Ļ
lar Ä±
Ġàª° àª¹
áĢ±áĢ ŀ
áĥĺáĥ Ŀ
Ġo le
Ġà®ĩ à®°
ĠØ¨ Ú¾ÛĮ
æ Ľ
Ġw ord
Ġàª®àª¾àª Łà«ĩ
Ġt op
Ã¡ g
áĥ ŀ
ÙĪ Ø§ÙĨ
Ð½Ð¸ Ðº
à§ģ à¦²
Ġes c
Ġc re
áĢ±áĢ ķ
Ġk or
à¹Ī à¸²
é £
id i
Ġes p
åħ ¥
ÙĪ ÛĮ
og y
Ġà¤ķ à¤¾
ĠG o
Ġm el
Ġ ing
2 6
æ £
éĥ ¨
i ro
ÉĻ m
ĠD es
×Ļ ×ķ×ª
ar r
Ġm ot
à®Ļ à¯įà®ķ
à´ Ĺ
ìĽ Ĳ
ri p
à¹Ģà¸Ľ à¹ĩ
ĠÏĦÎ¿ Î½
3 5
v ar
Ġse c
ÙĪ Ø¹
àª¾àª £
Ġs ob
Ð¸ Ð³
g et
ĠP M
ÎĻ Î
ul i
àª Ń
Ġf ra
Ġ4 4
Ġn ag
ĠÐ¾ Ñģ
±áĢ Ķ
áĥ ¦
áĢ¬ áĢ¹áĢ
¸ à±įà°¤
Ġv Ãµ
om b
ç½ĳ åĿĢ
as ta
åı ¯
ĠÛĮ Ûģ
j on
æ ı
Õ¥ Õ
ed en
áĥĺáĥ ļáĥĺ
ĠC o
Ã¼ k
Ġà´ Ĵ
h an
Ġ200 8
Ġh an
um u
ab i
ĠM o
àª¾àª ¦
ul e
Ġf ac
áĥ £
2 7
Ġh el
j en
Ġs ub
Å į
ë ŀ
áĢ±áĢ¬ áĢĢáĢº
Ð Ķ
l ah
Ġå ľ
Ġå į
Ñĸ ÑĤ
à®± à¯įà®±
áĢĻ áĢ½
ë ©
à¤¾à¤ ®
ul d
¡ à±ģ
å® ¢
Ġh ab
Ð°ÑĢ ÑĤ
Ġp at
Ġm emb
ĠÐ §
×Ļ× §
ov e
ģ áģ
Ġê ¸
áĢĸ áĢ¼
ì Ĩ
Ð¸ Ðµ
Ġpo ur
Ġáĥ ª
Ġik ke
id ade
Ġv ers
Ġ Ø§Ø±
ãģĹ ãģŁ
×Ļ× ĳ
ĠÑĥ Ñĩ
ç ´
à¸¡ à¸µ
p ro
áĢŀ áĢĬáĢ¹
ĠV er
ĠØ§ÙĦ ÙĨ
à¥įà¤ Ł
Ĳ áĢ²áĢ·
Ġk am
Ġ9 9
Î¹ Î¬
è® ¡
ĠÏĥÏĦÎ· Î½
áĢ ¥
Ġë ª
ç ķ
on y
Ġd ari
um ent
Ġs im
Ñĭ Ñħ
2 9
à¤¾à¤ ¯
à§ĩà¦ ²
ĠÙħ Ø¯
ĠÎ ĵ
×Ļ× ©
im in
Ġh ave
Ġin v
Î¯Î± ÏĤ
Ø§Ù ĭ
n es
èĩ ª
Ð°Ð² Ð°
áĢ² áĤķ
à°Ĥà° ¤
ĠA b
áĥĲáĥ ĺ
à§ĩà¦ ¶
é ķ
àª¤ àª¾
ĠR es
r is
Ġë ³
å ķ
Ġà® Ĵ
id er
Ġf l
à«ĩàª Ł
ĠáĢĢ áĢŃáĢ¯
Ġp art
Ġm us
Ġdi re
ĠàªĨ àªª
h er
ÙĢ ÙĢ
ĠØ§Ù ģ
at ed
áĥĺáĥ £áĥ
ĠâĢ ļ
ĠIn d
ÃŃ s
ÙĪ Ø³
Ġå Ĳ
à´¾à´ ¤
áĥĲáĥ ¨áĥĺ
Ã¬ nh
aci Ã³
è ·
ĠÙħ Øª
Ĥ °
am ente
Ð¾Ð¼ Ñĥ
Ġm aj
ĠØ¢ ÙĨ
Ġel s
à¸£ à¸²à¸
Ġ7 0
Ġ4 3
Ġk m
ĠA M
ĠÑı Ðº
ĠØ§ÛĮ Ú©
ĠØ¨ ÙĨ
Ġh al
ĠØª Ú¾
ĠØ§ÙĦ Ø´
áº ¯
áĥļ áĥĺáĥ¡
ÖĢ Õ
Ġin t
§ à§
à¸£ à¸´
ĠT er
ĠÐ¿ Ð¾Ð²
Ġa ta
Ġz u
áĢ±áĢ¬ áĢº
Ġh and
b as
ë ¬
Ġì Īĺ
Ġ ðŁ
ĠP a
A C
à¸µ à¹ī
ĠÐ± Ñĭ
à«ĩ àª°
Ġt ek
Ġe f
Ġy e
n ÄĽ
p or
Ġ$ (
à ¶
áĢ¼ áĢ¬áĢ¸áĢ
Ġáĥ §
Ġt an
å ł
çī Į
Ġáģ ı
ĠÐ± Ñŀ
Ġun e
ĠØ§ÙĦ Ø¨
Ġme a
__ __
ĠØ§ÙĦ ÙĤ
Ġeg y
ãģ ĳ
Ð°Ð¼ Ð¸
Ġà°µ à°¿à°
g y
Ġl oc
Ġm Ã¡
à§ģ à¦°
ĠØ °
Ġ4 9
ä¹ ĭ
Å¡ an
ĠÐ² Ñģ
ĠØ§ÙĦ Ùģ
os a
ç¥ ŀ
m m
à§įà¦ ·
à¦ ¶
à° ļ
Ġà¹ Ĥ
Ġd alam
ez a
ÙĦ Ø§
àµģà´Ł àµĨ
à¦¾à¦ ľ
à¤¾à¤ ¸
à¤¤ à¤¾
ĠÑģ ÑĬ
à¸§ à¸²à¸¡
al m
n en
Ġm on
Ùħ Ø§ÙĨ
ĠÎ´ Î¹Î±
á» ĵ
áº¿ t
Ġà´ ¬
Ð³ Ð¸
ed ia
Î ¡
Ø ¢
à¸£ à¸±à¸ļ
n d
Ġà¦ª à¦°
Ġch i
áĢģ áĢ²áĢ·
U S
Ġà¸ Ń
Ġp entru
Ġ áº¹
ĠÐ² ÑĢ
ĠS an
åį ķ
áĢ Ĥ
å® ļ
b ar
Ð Ĵ
áĢŀ áĢĬáĢº
ÐµÑĤ Ðµ
Ġl ib
ä¿ ¡
áĥĲáĥ Ļ
ìĸ ´
o ut
Õ¸ÖĤ Õ
ed a
Ã³ l
in u
×Ļ× ĵ
it z
à¹ī à¸Ńà¸ĩ
àª¾àª° à«ĩ
ĠØ§ÙĦ Ø¯
Ġáĥŀ áĥł
en ce
eg a
st r
ĠI l
æĸ ĩ
Ġ ä½
Ġm is
Ġ ÈĻ
æĹ¶ å½©
ĠÙħ Ø¬
Ð Ľ
å¥ ½
Ø§Ø ·
es k
ul ui
ĠÑģ Ðº
èµ °
èĢ ħ
Ã¶ v
h ar
éĽĨ åĽ¢
a il
Ġà¦ı à¦ķ
ÑĤ ÐµÑĢ
ĠÐº ÑĢ
ĠÏĦÎ¿Ïħ ÏĤ
ĠÐ ¯
Ã¡ k
ãĥ³ ãĥ
Øª ÛĴ
Ġsi ÄĻ
çİ ¯äºļ
åĬ Ľ
ĠA t
åĬ ł
Ðµ Ñħ
é ¦
r am
à¹ĥà¸« à¹ī
Ġì ¹
Ð ľ
U N
ãĤ ¢
Ġç Ķ
à¸· à¹Īà¸Ń
à¤ ¼
Ú© ÛĮ
á»ĩ n
Ġm Ã«
èĤ ²
ä¹ Ī
áĢ¬ áĢĽ
ĠW e
or y
Ġf o
Î ¤
g u
ĠP or
ti f
Ġáĥĺ áĥ¡
åī į
Ñĸ Ñĩ
uk o
Ġ×Ķ× Ĳ
± àµĨ
Ġê µ
Ġå Ľ
Ð¸ÑĤ ÑĮ
ĠÙħ ÙĦ
ĠE d
ç Ħ
ä¸ ĩ
Ġc ent
à±ģà° ¤
Î¹Îº ÏĮ
ÏģÎ¹ Ïĥ
iz i
à¤¾à¤ µ
im it
uk an
m u
é¢ ĳ
Ð¾ Ð»Ð¸
p on
à¹ī à¸²
ig h
à«įàª¯ àª¾
ĠÚ© Ø§Ø±
Ġpro bl
ĠÎ Ĺ
Ġìŀ Ī
Ġ4 6
Î¸ Î·
±áĢ ĲáĢ¼
å½ ķ
Ġæ ĸ
à¦¤ à§ĩ
ľ Ðµ
Ø³Øª Ø§ÙĨ
Î¸ Îµ
¾ ³
Î± Ïĥ
d ir
å §
ÑģÑĤ ÑĢ
ur op
ĠØ§ÙĦ Ø¥
à®³ à¯į
ĠB o
à´ ´
Ġk ap
O T
Ġ4 7
± Û
y ch
ì² ľ
à´¿ àµ½
à¹Ī à¸§
Ġc ap
à«įàª ²
áĢ¸ áĢĢ
Ñĸ Ð¹
Ġï¿½ï¿½ï¿½ï¿½ ï¿½ï¿½ï¿½ï¿½
ãĥ³ ãĤ
ĠJ e
Ġd ig
Ġv on
um i
ÉĻ y
à«ĩàª ķ
Ġg ro
Ġâ ķ
åĬ ¨
.. .
í ĸ
ĠÂ ¬
ÐµÐº Ð°
ĠC l
áĢ¸áĢ ŀ
Ġk ul
à¸£ à¹Į
j er
Ú¯ ÛĮ
Ð¸ Ð´Ð°
ĠF ran
çİ °
±áĢ Ľ
Ġr et
Ġï »¿
Ð½Ð¸ ÑĤÐµ
Ġt ut
æĹ¶ æĹ¶å½©
ĠA k
ĠH otel
E M
Ġàª¤ à«ĭ
Ġ. âĢĿ
¹ Ħ
à¤¨ à¤¾
Ġà´ ī
Äģ m
Ð» ÐµÐ´
ĠD r
Ġb en
Ġàª ¡
Ġf il
Ġm ah
Î´ Î¿
à¸Ĥ à¸Ńà¸ĩ
à¤¾à¤ ¹
ĠÎ± ÏĢÎ¿
Ã¡ z
æĬ ķ
é ĸ
Ġp op
áĢ¯ áĢķáĢº
Ġser v
ĠÚ© ÙĨ
ĠáĢ »áĢķ
n os
àª¿ àªµ
ĠãĢ Ĳ
éĢ Ł
it al
ĠÐ¿ Ð»
×ķ× ¤
ion i
Ġï¼ ģ
Ñĸ Ñı
ÏĥÎµÎ¹ ÏĤ
à«įàª¯ à«ĭ
ÙĬ Ùħ
ĠÐ³ Ð¾
Ġàª¸ àª®
Ġà´ ľ
è £
Ġl u
Ġà¦ ²
âĢ Ļ
Ð°Ñ Ħ
ubl ic
p s
Ġa ra
¯ ¸
Ġt ro
Ġæ ĺ
Ġë ĮĢ
Ġà¦ ¥
ãĤ Ī
Ġ ä¸Ģ
Ġa qu
ĠØ§Ù ¾
åľ º
A K
A P
e e
ĠÃ ·
Ġel ler
it ion
å¿ ĥ
ĠÎ ®
Ġì ĥ
Ġê· ¸
Ġ( '
l at
Ð» Ð°
Ê» o
ĠN ov
à´¾à´ ²
áĥ£áĥł áĥĺ
ë§ Į
ģ áĢ²áĢ·
à®¿à® µ
Ġd ata
Ġar t
à¯ģà® ±
à¤¿à¤ ¸
í Ķ
ut o
Ã¶ l
à¹Īà¸²à¸ ĩ
Ġàª¤ àª®
ing en
à¹Ģà¸ ģ
à°¨ à±ģ
Ġw ill
åĬ ¿
äº §
iz e
Îº Î±
ang e
Ñĥ Ð¶
l ed
Ġà° ²
ĠÑ ĳ
t on
ĠÐ¿ Ð¾Ð»
el en
Ġf al
Ġd ir
ĠA ng
Ġåĩ ¯
Ġ Ø§
ì Ĥ°
ĠØ¨Ø± Ø§ÛĮ
j as
iv er
ĠM as
ĠáĥĽ áĥĿáĥ
Å ±
Ø§Ø ¶
à¸Ń à¸¢
Ñį Ð½
è´ ¹
à¹ī à¸²à¸
y on
Ġ `
h at
p le
k at
ĠÙĨÛģ ÛĮÚº
ê² Į
Ġt en
à°ķ à±ģ
å ĭ
áĥĶáĥ ¥
Ġp el
il la
à±Ĩ à°²
å¿« 3
áĥĲáĥ ļáĥĺ
2 1
ud a
st er
áº¿ n
ĠP o
à¦ Ń
et o
ĠC as
Ġáĥ ļ
Î Ŀ
áĢ±áĢĲáĢ¬ áĢ·
Ġu ch
à¦ ļ
um s
Ġà´µ à´¿à´
om m
à«įàª¯ à«ģàªĤ
ĠB er
j es
ind i
à¸´ à¸Ļà¸
àµ »
áĥĽ áĥĲ
aj a
Ġcon c
à¤ ¶
ĠáĢ ±
or g
Ð³ Ð¾
ĠE m
×Ļ× Ĳ
Ã© p
×ķ× ©
ä» £
ĠÐ¿ÑĢ Ð°Ð²
Ð Ł
ar m
ĠÐ± Ð¸Ð»
àµģà´ ³
am s
ri b
áĢĨ áĢŃáĢ¯
Ġkat ika
ÙĦ Ùĥ
àª Ī
àª¿àª ²
Ġà®ª à¯ĭ
áĥĺáĥ łáĥ
Ġ5 9
àª¾àª ³
Ġå ¹
ĠH ome
Ġà´ ²
Ġë ¶
åĪ ©
Ġn um
is te
ìł ķ
el se
Ġd om
ĠÎ Ŀ
åº ¦
à¸´ à¸Ķ
ãĥ¼ ãĤ
ëĵ ¤
í ĺ
Æ°á»£ c
Ð¾ Ñĺ
ë ĮĢ
ad or
aj i
áĤı áĢŃáĢ¯áĢĦáĢ¹áĢ
ĠM in
Ø§Ø³ Øª
Ġtid ak
ĠÙģ Ø±
Î¹ Î½
Ġ... .
ĠÐ° Ð±
áĥĶáĥĳ áĥ£áĥļáĥĺ
ê³ ¼
Ļ Ģ
ci Ã³
à¤¹ à¥Ģ
ÙĪ ÙĤ
Ð¾Ð² Ð¸
ãĥ ¬
à®¾à®° à¯į
ìĹĲ ìĦľ
Ð½Ð° Ñı
Ġb ez
à«ĭàª ²
ĠØª Ùħ
Ġb al
ÑĸÐ» ÑĮ
å £
Ġo t
éģ ĵ
Ġma is
à¦¨ à§įà¦
Ġn ak
ĠÑ ĺ
Ð°Ð» Ð°
à«įàª ¸
äº İ
Ñı Ð²
ĠØ§Ø ¨
ë ª
×¨ ×Ĳ
Ġal le
Ġh ogy
ra z
Ø° Ø§
ĠØ± Ûģ
et te
ation s
lar i
Ġb ak
à¦ §
Ġh am
áĢŀ áĢ°
Ġo k
ä¹ Ł
ĠM od
áĢĽ áĢ¾
åİ ħ
ĠR o
Ġà®ħ à®µ
Ð» Ð°Ñģ
ĠO p
Ġt im
áĢ¬áĢ¸áĢ Ļ
Ġg er
à¸Ń à¸Ļ
Ð°ÑĨ Ð¸
ep t
Ġ íķ
ti d
ìľ¼ ë¡ľ
æ´ ²
ä¸ »
Ġà¦¸ à¦®
éĿ ¢
Ø§Ø¦ ÛĮ
3 8
ÑĢ Ð°Ð²
Ġro z
Ġ5 00
Ġp an
áĥĶáĥĳ áĥĺáĥĹ
Ġ5 4
ĠÈĻ i
Ġet t
à®¿à®¤ à¯įà®¤
Ġd on
à®© à¯įà®±
d y
ĠJ an
Ø¨ ÙĬ
à±įà° ļ
Ð½ Ð°ÑĤÐ°
ĠM at
eb ru
end o
à®¾à®© à¯į
à¯ģà® ³
èµ Ľ
ĠI m
d ÉĻ
Ġt it
åĮ ĸ
ĠS u
Ġàªķàª° à«Ģ
Ã© k
Ġc er
c ar
à¸Ń à¸¥
ĠÑĸ Ð½
E C
àª¾àª Ĺ
Ġl Ã¤
ĠA g
ĠØª Ø±
Ġq il
×ķ× ¢
ç Ł
ĠM ay
Ð°ÑĨ ÑĮ
3 6
ir m
àµĨ à´¨àµįà´¨
Ġå Į
ĀĀĀĀ ĀĀĀĀ
l ad
Ġáģ Ĥ
Ġ4 2
à´± àµįà´±
á ł
Ġ/ /
ĠÐ¿ Ð¾Ñģ
Ġpro gram
ac a
re m
Ġ5 8
Ð» Ðµ
×ķ× §
Ġt em
Ġr u
er en
end a
Ð°Ð½ Ð°
Ġbl og
Ã© l
çĤ ¹
àµ ¾
Ġk el
I M
ÙĪ Ø´
Ġas s
é ľ
à®¾à®² à¯į
ol u
ĠØ¯ ÛĮ
à¸¹ à¹ī
Ð°Ð½ Ðµ
Ġ5 6
à¥įà¤ µ
Ġà¦¹ à§Ł
ul o
à°² à±ģ
ent a
ari o
Ġm ol
à°ª à±įà°ª
Ġg b
Ġd ag
æŀ ľ
áĥĶáĥľ áĥ¢
èī ²
it ar
Ð°Ñ Ĭ
å¿« ä¸ī
Ġi Ã§
Ġc at
ìĦ ±
àª¾àª° à«Ģ
áĢ¬áĢ¸áĢ ŀ
an ie
à´¾à´¯ à´¿
n s
Ïĩ ÎµÎ¹
Ġì ¶ľìŀ¥
Ġs it
Ġê° Ģ
Ġì ľ
Ġl eb
Ġáĥ¡ áĥĲáĥĽ
áĥ£áĥ łáĥ
Ġà¸ «
áĢĬáĢ¹áĢ ·
àª¾àª Ī
à´¨ àµįâĢį
Ø¨ Ø§Ø±
ĠR ep
áĢħ áĢ¹
ìķ Ħ
A G
n u
¾³ éĹ¨
å ¦
le g
Ġm ad
Ġv Ã½
Ð¾ Ñŀ
à´¿à´ ¨àµįà´
Ã¡ ch
ÑģÑĤÐ² Ð¾
áĥ® áĥķ
Ð¾ Ñı
ĠÎ´ ÎµÎ½
åĪĨ å½©
Ġu it
áģ¿áĢķ áĢ®áĢ¸
å »
àªĤ àª¤
Ġi de
7 5
ak u
in de
áĥĲáĥ ¨
Ġpr z
it et
à¦¾à¦ ¹
à¹Ħ à¸¡à¹Ī
Ð»Ð°ÑĢ Ð¸
ÐµÐ½ ÑĮ
ÄŁ Ä±
åĮ º
ov er
Ġc el
áĥĲáĥ ĸ
d r
Ġ( "
ĠÃ ĸ
í Ĩ
Øª Ø§
à°² à±ĭ
ev e
áĥĲáĥ ¥
ap i
Î¹Îº Î®
Ġo h
Ġà´İ à´¨àµįà´¨
Ġv il
Ùĩ âĢĮ
ĠáĢĴ áĢ®
ij n
av a
è§Ĩ é¢ĳ
ot s
Ð ĵ
à¸ į
ä» ¶
Ġä¸ Ń
áĢĲ áĢļáĢº
Ġà¦ ĩ
Ġal t
ist r
à¸ ©
Ġf el
Ġex p
ĠÙħ Ø§
Ãł n
àµģà´¨àµįà´¨ àµģ
à§ĩà¦ Ľà§ĩ
Ò ·
I I
Ð¼ Ð°
ri j
all y
um b
em i
Ġb as
àª «
Ġs Äĥ
íĻ Ķ
Ġb est
un k
Ġ Ã«s
Ġd iv
àª¨ à«ģàªĤ
Ùģ Øª
ĠF r
áĢ° áĢ¸áĢ
Ġà¤ «
¬ ¬
ãģ Ĭ
à«įàª ·
Ġâ Ħ
ad as
à¸´ à¸ķ
Ġm b
3 4
ĠÐ½ Ð°Ð¿
ul u
áĥ ĸáĥĶ
t ur
Ġà¦ «
áĢľ áĢ¬
ĠÃ«s htÃ«
f e
Æ°á» Ľ
áĢŃáĢ¯ áĢĦáĢ¹áĢ¸
p re
Ġent re
ĠD E
Ã¼ m
Ġc Ã¡c
ĠÐ¿ÑĢ Ð¸
ĠØ¯ Ø§ÙĨ
Ġà´ ¯
ĠÎµ Î½
á»Ļ t
al es
àµ Ī
Ġà®ķ à¯Ĭ
ĠÚ©Ø± Ø¯
l ÉĻ
y g
à¯ģà® ¨à¯įà®¤
I R
ĠÐ± ÑĥÐ´
Ġin te
à§ ¦
ĠÐ± Ð°
ic s
Ġàª ¯
Ġà¸ ļ
à°¿à°ķ à°¿
è °
à´¿à´ ¤
ĠH er
Ġt á»
c el
ê± ¸
Ġà¤ ĸ
Ġz e
Ġ Ĉ
ĠS er
Ïĥ Î±
ĠØ ¶
Ġb ut
it en
u er
Ġåĩ¯ åıĳ
s ta
à°¿à° ¯
Ġc s
n Ã½
ÛĮ Ø²
à´¨àµįà´ ¤
or o
ĠÛ ±Û
áĢĲ áĢ¹
Ġg et
ÑĨ Ñĭ
áĥĶáĥ Ŀ
ĠÚ©ÛĮ Ø§
è ª
ĠØ¥ ÙĦÙī
ë ²
éĢ ļ
Ø³ Ùħ
Ġl et
à¸ ł
y le
n ik
Ġa w
Ãł y
l ag
Ġà¤¹à¥Ī à¤Ĥ
ĠÃ ĩ
ĠØ§Ø ¹
Ġà¹ Ħ
ĠØ¨ Ø¹Ø¯
Ġa o
Ġkh Ã´ng
ĠÐ ¦
Ġd al
à¹ī à¸§
Ùħ Ø±
à´² àµįà´²
Ġk ol
×ķ× Ĺ
ĠØ§ÙĦ Ø®
è ²
am ento
á» Ł
ment s
ĠM en
Ĺ äº¬
ĠØ Ł
à¤¿à¤¯ à¤¾
Ïģ Ïİ
Ġ200 7
½ ľ
Ïģ ÎŃ
Ġà´ ¶
ĠW WW
v at
Ġit u
áĥĺáĥ ĸ
c u
ah an
á¹£ áº¹
Ä±n Ä±
ĠØ¯ Ø§Ø±
Ø² Ø§Ø±
Ġà§ ¨
Ð½ Ð°Ñĩ
áĢĽ áĢ½áĢŃ
à¸ ĭ
Ð¼ Ñĸ
Ġal s
Ø¨ ÙĦ
å¯ ¹
Ġ uk
on es
Ġres p
áĢ± áģ¾áĢĢ
c s
ìķĪ ë§Ī
om o
b le
àµįà´ ŀ
Ġo c
Ø¯ Ø±
ãģª ãģĦ
Ġà¤ı à¤ķ
Ġ ÚĪ
Ġv ideo
ĠÙħ ÙĤ
Ġï¿½ï¿½ï¿½ï¿½ ï¿½
ĠM al
ÏĨ Î¿
ç« ¯
is ter
Ġàª ĺ
Ê» i
b at
à°Ĥà° ¡
à°¿à° ª
æĥ ħ
m at
áĥĿáĥ ¤
us k
ĠÐ° Ðº
Å Ħ
Ġd ia
Ġ _
id ad
Ġ' ,
ĠÏĦÎ¹ ÏĤ
Ġàª §
Ġàª¤ à«ĩàª®
áĢĶáĢ¹áĢ Ļ
Ġ5 7
Ġk al
Å Ī
ĠáĢ±áĢ Ľ
Ġà¤¨ à¥ĩ
ÐµÐ½ Ð¾
åĨ Į
Ã¤ m
Ġpar ti
áĢ¬áĢ¸áĢ ľ
ĠØ´ Ø±
áĥĺáĥ ¨
ĠØ® ÙĪØ¯
çĻ» å½ķ
ul le
Ġà¸ ¡
Ġprod uc
å½ ±
c an
b il
à¸Ń à¸ģ
Ã§ a
äº Į
os s
Ðµ Ñ
n ak
ĠØ¨ ÛĮ
åĲ İ
Ð² Ð¾ÑĢ
Ġn as
à¹Ħ à¸Ľ
6 8
à±įà° ¸
Ġà¸ Ļ
áĥķ áĥĶáĥľ
Ð°ÑĤ Ð¾
Ġâ ĺ
ëĤ ĺ
Ð½Ñĭ Ðµ
Ġp ak
ĠK ar
h en
Ñĥ Ñħ
Î¼ ÏĮ
Ġor g
Æ ı
ÏĦÎ± Î½
ĠÐµ Ð´
à¤¿à¤ ı
ĠáĢľ áĢ°
ĠÐ¾ ÑĢ
Ð½ Ð¾Ð²
Ġch a
Ġ ~
ĠÙĪ Ûģ
×ķ× ¡
à¯Īà® ķ
ant s
æĪ ĳ
Ġ4 1
in ing
ĠÐ½ Ð¾
ĠØ¨ Ø§Ø²
ĠØ³ ÛĮ
Ð» Ñİ
Ùĩ Ø±
Ġes ta
Ġáĥ¡áĥĲáĥ ¥
k on
Ġn uk
à¤¿à¤ ¨
Ġp m
ĠÐ¸ Ð»Ð¸
ĠE st
tic a
Ġac c
ĠÐ¾ Ð¿
Å¡ ÃŃ
ãģ£ ãģŁ
z er
ĠÅ¾ e
ĠÒ³ Ð°Ð¼
os i
áº ·
Ġ5 3
àµģà´³ àµįà´³
à¤¾à¤ ¦
Ġg en
ĠÐ° Ð²
ë į
à¯ģà®ķà¯įà®ķ à¯ģ
ĠÎµ Îº
ĠÎ¼ ÎŃ
åĪ Ĵ
Ð £
Î¼ Î¬
ÈĽ i
ìł ľ
Ïĩ Îµ
ÑģÑĤ Ð°Ð²
Ġh y
ë¶ Ģ
ĠãĢ į
à«ĭàª ¡
A B
um e
ĠÙ ¹
ĠÄĳ Æ°á»£c
Ġh at
it er
l h
à±įà° ®
ìĥ ģ
t ar
æ Ĵ
Ġp ada
ĠØ§ÙĦ Ùĥ
ÑĬ Ð»
Ã Ł
ĠÑģ Ð¸
Ġ. )
å¤ ĸ
æĸ Ļ
Ġæ ¾³éĹ¨
Ġà¦ ĸ
æ Ł
Ġà¤ĩ à¤¸
Ð½Ð¸ Ñħ
f in
ÑĤ Ð¾ÑĢ
Ø¯ Ùħ
à± Ĥ
ç ©
Ġak an
à§ ĥ
à¹Ģà¸ Ķ
R O
Ġ× ¦
»áĢķ áĢ¬
Ġa h
Ġå½ ©
ĠØ¬ ÙĪ
à¹Ī à¸Ńà¸ĩ
à§ Ĥ
ĠØ§ÙĦ Øµ
à° ¹
à¸Ħ à¸§à¸²à¸¡
ĠáĥĶ áĥłáĥĹ
ĠJ a
Ġìķ Ħ
ĠOn line
Ñħ Ð¾Ð´
Ä± k
ĠÎ¿ Î¹
ĠÑģ Ð¼
Ġv ed
Ġë ı
à° ľ
pl ic
ĠD a
ÙĬ Ø³
í ĥ
Ð³ ÑĢ
ĠC ol
Ġo a
áĥ ĸ
Ã« m
ÏĦ Î¯
Ġb on
Ġæ ī
Ø ¤
áĢķáĢ« áĢĲáĢļáĢ¹
Ġh v
Ġof f
is hi
ent es
áĥĲáĥł áĥĺ
Ġà¸ Ĺ
çĲ ĥ
en y
Ġáĥ¨ áĥĶáĥĽ
å° ±
Ð½ Ð¾Ð¹
Ġê¸ °
Ġr i
áĢģ áĢ»
Ġfun ction
åı ¸
Ġh ist
âĢ¦ âĢ¦
d f
à¤¾à¤ ľ
Ġb iz
çľŁ äºº
ĠM ag
Ġm Ã¥
Ġâ ĸ
ĠA p
è¿ Ľ
ci p
ŀ àµįà´ŀ
Ġn eg
ĠÏĥÏħ Î½
ÑĢ ÐµÐ´
áĢŃáĢ¯ áĢĢáĢ¹áĢ
èµ° åĬ¿
Ġà¸ Ī
ĠÄĳ i
is ha
Ġs us
ĠS k
Ġw o
àª¾àª° àª¾
à¸± à¸Ķ
ä» ¬
Ġà¦Ĩ à¦®
à§ĩà¦ ĩ
àª ĸ
Ġpr in
Ġg Ã¶r
ìł Ħ
it at
Ġb or
à¦Ł à¦¿
Ġåľ ¨
à¤¤ à¥ĩ
Ġà¸ ķ
ĠØ§ÙĦ Ø±
ÃŃ c
ell o
Ġak u
é ¾
Ġba ÅŁ
Ġ×Ķ× ©
à¤¾à¤ ļ
4 8
es ter
ic al
Ġj ed
lo ad
è Ĳ
æ³¨ åĨĮ
æ ¥
eb ook
Ġà®İà®© à¯įà®±
ë Ł
ÙĦ Ø³
çī ĩ
Ġv Ã¤
Ġà¸ ŀ
àµįà´ µ
ĠÎ± Î½Î±
Ø§Ù ĥ
ª àµįà´ª
ĠS i
à´ ¶
ä¹ ħ
à®¾à® µ
Ġp ass
y st
àµįà´ ®
or ia
an z
o x
æľ Ł
Ñĩ Ð¸
Ġh t
è ĭ
é ļ
u je
Øª ÙĦ
Ïĥ ÏĦÎµ
ĠØ³ Ø±
d ag
ÏĢ Î±
ĠH ar
ĠG e
à¸¸ à¸Ķ
á»ģ u
Æ° Æ¡
Ð° ÒĽ
I K
l us
Ġ íķĺ
áĢ ı
Ġs ist
ĠK r
àª¶ à«ĩ
ë Ĳ
Ġàª¹ à«ĭàª
×Ļ ×Ļ×Ŀ
qu es
åı Į
Ġà®ħ à®¤
Ġen g
b b
Ħ áĢ¶
à«ĩàª ¸
ä¿ Ŀ
à¹ģ à¸¥à¸°
Ñĥ Ð·
v an
áĥ ¤
Ã© ny
en c
Ġ7 5
t es
à¸Ī à¸°
ç» ı
à¦¾à¦ ª
å® ŀ
å¾ Ĺ
Ñĩ Ñĭ
à¸±à¹ī à¸ĩ
àª¾àª ķ
×Ļ× ¢
à¸± à¸§
ĠáĢ ļ
3 9
åĲ į
Ġ5 2
Ġd ÉĻ
à¹ĥ à¸Ļ
Ġj s
áº§ n
Å¡ e
Ð½Ñĭ Ð¹
¡ °
¥ à«ĩ
U L
àµģà´ µ
en ÃŃ
ìĥ µ
Îº Î¿
are a
ĭ çīĮ
Ġb eg
ĠR eg
re g
à±ģà°² à±ģ
à°¾à° Ĥà°
ĠA ut
Ġun der
Ġb ur
ĠÐ± ÐµÐ·
Ã©s z
ĠÙħÛĮ âĢĮ
ĠI N
Ġg l
Ã¤ Ã¤n
Ġk es
ion es
áĢģ áĢ¼
Ġá¹£ e
à¤ķ à¥įà¤
æ º
à¤² à¥ĩ
Ġl ab
6 9
in Äģ
Ġìł Ħ
k el
og le
Ġan a
Ġ Ã¡
Ġh or
à¤° à¥Ģ
ĠÐº Ð¾ÑĢ
Ø§Ùħ ÙĦ
ĠÑĢ Ð°Ð±Ð¾ÑĤ
ĠNew s
à¸ ¨
v ol
ÑĥÐ² Ð°ÑļÐµ
ĠáĢķ áĢ¼
ĠÅŁ i
ìł ģ
Ġpro p
Ġm ore
Ġà¦ Ľ
Ġdel la
ĠK om
í ı
ĠØ§Ø ®
Ã© ho
à°¾à° ¤
é Ĥ
Ġc m
j s
Ġp eng
Ġna v
Ġm m
£áĥ ļ
àª¾àª¨ à«Ģ
Ġì ĸ
à«įàª ®
à°¿à° ²
Ġm or
Ġj an
ãģĻ ãĤĭ
Ùģ Ø±
l in
Ġà®ļà¯Ĩ à®¯
Ø³ Ø¨
áĢ° áĢ¸
æ ¶
ÙĨ Øª
ug u
Ġi ÅŁ
og o
Ġsob re
åĲ Į
ac ute
Ġë ¬
Ġis h
Ġs ab
áĥĺ áĥĺáĥ¡
j ek
ti e
ÙĪ Ø¬
ĠÙĨ Ø¸
ç Ī
am os
Ġs ing
Ġm w
ĠÙĨ Ùħ
Ġtr ong
åĨ ħ
à¸Ľ à¸£à¸°
ĠV al
æ į
êµ Ń
ĠÐ Ĩ
åŁ İ
um p
Ġ× ĺ
Ġpol it
b ay
ĠÎ ¹
ĠD o
x x
ar o
æĬ Ģ
ÏĢ Îµ
et er
ç ³
d uc
im ul
Ġh ay
Ðº Ð¾Ð²
Ġpro v
æ° ´
à°¿à° °
Ġar tic
l ing
ant o
ĠØ¨ ÙĦ
à§įà¦ ª
à¤ Ń
ĠÐ½ Ð°Ð²
p x
Ã© c
Æ°á»Ŀ i
Ñĸ ÑĹ
er ing
ĠÂ» .
æŃ £
ĠÐ´ ÑĢÑĥ
ëħ ¸
ĠÎ Ĵ
à¯įà® ®
áĢĶ áĢ²áĤĶ
Ø±ÛĮ ÙĨ
Ġf Ã¼r
Ġen d
Ġm und
á» Ŀ
æīĭæľº çīĪ
à¹Ģà¸ Ĥ
k ov
ĠÑ ľÐµ
Ġàª¶ àªķ
Ïĥ Î¹
ÅĽ ci
à¸Ļ à¸µà¹ī
ãģ ©
à°Ł à±įà°Ł
ut s
Ó ¯
ĠO s
ĠM on
ĠÑĢ Ð¾Ð·
ĠÎµÏĢ Î¹
Ġæ Ŀ
çī ©
àª¾àª ĩ
à®¾à® ¯
å¼ ı
Ú ĺ
ĠØ «
çŃ ī
Ġd oc
à¸ Ł
ind ÉĻ
ÑĥÐ» ÑĮ
tr ol
à´² àµįâĢį
Ġì¹ ´
Ø´ ÙĨ
........ ........
ìĨ Į
y an
Ġì ļ
Ġï¼ Ł
Ġc r
à° ¬
Ġj ak
éĩ į
Ñĸ Ð·
Ġ5 1
ok s
à°Ĥà° ²à±ĭ
Ġw i
ĠØ¬ Ùħ
Ð» Ð°ÑĤ
å®¢ æĪ·
à§įà¦ ¥
ĠæĪ ĳ
à°¾à° ®
ĠÐ· Ð°Ð¿
à´Ļàµįà´Ļ à´³
àªĤàª ¦
è¿ ĩ
Ġqu i
Ġt am
Ø§Ø¯ Ùĩ
×ķ× ŀ
en ye
ĠF ac
ãģ Ī
ĠÃ ī
è¿ Ļ
Ä±n a
Ġak o
ãĤ ģ
ĠÐ° Ð·
7 9
ad ing
Ġc al
è Ĭ
æ° ĳ
çł ģ
ĠN i
Äĵ r
Ġr is
áĢ±áĢ Ļ
ļ Į
ãģĭ ãĤī
Ð°Ñģ Ð¸
Ġt om
Ð² ÐµÑĢ
ÉĻ h
ĠS up
Ġl ike
à¸´ à¸Ļ
Ġ19 8
ç ²
êµ ¬
j t
ĠÙĦ ÛĮ
» áĢģ
ÑĤ Ñĭ
à«ĭ àª¤
ĠD ec
Ħ à¸£
æ£ ĭçīĮ
li ch
Ġ×Ķ ×ª
Î»Î¿ Î³
ĠÐ· Ð°Ðº
Ġche ck
Ġi ch
Ġprod uk
Ñģ Ð»
Ġs Ãº
Ġn am
Ġn Ã¤
áĢ¯ áĢĲáĢ¹áĢ
Ġà° Ī
í ħ
à°¾à° Ł
« áĥļ
Ġd ans
åħ į
ìļ Ķ
Ġà¤ ¥
Ñģ Ð¸
áĢľ áĢĬáĢ¹áĢ¸
Ø® Øµ
à¹Ģà¸ ŀ
ind ow
ĠÐ± Ð°ÑĢ
own load
Ð°Ñ Ķ
i an
Ġo li
ĠA pr
Ġà¦¬ à¦²
ĠA wá»įn
Ġb an
Ġà¦ Ł
Ġf ilm
et h
Ġì§ Ģ
à¦¿à§Ł à§ĩ
ĠãĢ ĭ
f o
ur u
ĠãĢ Į
Ġh ad
ĠØ³ Ø§ÙĦ
ĠA v
et an
Ġàª¸àª¾àª ¥à«ĩ
a ch
ĠL es
æı Ĳ
Ġìĭ ľ
Ġà¦ħ à¦¨
Ġt ul
Ãµ es
à«ĭàª Ł
Ġm á»Ļt
áº¡ n
è¡ ¨
ÙĤ Ø©
à´ ¹
é ĥ½
ĠÐ¿ Ð°ÑĢ
ĠE urop
Ġg ener
ĠÎŃ Î½Î±
ab r
Ġl in
ur r
ĠÐº Ð°ÑĢ
Ġum a
Ð· Ðµ
Ġt un
b al
Ġáĥ ĸ
à¤¤ à¥Ģ
è®¡ åĪĴ
Ġà¤µ à¤¿à¤
æ ģ
é¾ Ļ
áĢ¯áĢŃ áĢĦáĢ¹áĢ
Ġ6 5
Ġj eg
6 4
ur t
us ta
èµ Ħ
ĠÎ Ļ
Ġ×ŀ× ©
Ġh ot
àªµ àª¾àª®àª¾àªĤ
ĠÐ¿ Ð¾ÑĤ
ãĢ ģ
à´ ·
ow a
Ú¯ Ø§Ùĩ
ÛĮ Ø³
Ġà§ §à§
ë³ ´
ÏĦ ÎŃ
Ġu 0
´ Ģ
ĠT ag
Ġv á»Ľi
æĢ §
ãĤ Ħ
Ø± Ø©
×Ĺ ×¨
ĠÐ» Ñİ
ĠO l
àµģà´ £
Ð Ĩ
à¹Ģ à¸£
à¸Ń à¸ļ
æķ °
il er
Ġt ip
ä½ĵ èĤ²
àª¾àª ¹
áĥĲáĥłáĥĹ áĥķáĥĶáĥļ
ĠJ ul
ĠÙĪ ÙĤ
iy y
tion s
ç Ŀ
ÑģÑĤ Ð°Ð½
Ê» a
sk a
ĠP e
Ġg el
Ġ3 00
il s
ĠâĢĭâĢĭ âĢĭ
à¹ Ĩ
å ¢
Ġy ap
w n
Ġ×Ķ× Ĺ
ĠØ¬ Ø¯
à° £
áĢģ áĢ¯
u ti
f on
il or
Ġ×ĳ ×Ĳ
ay an
à¦¿à¦ ¬
Ġr áº¹
¥ ¿
è§ Ħ
Øª Ø¨
à¥ĩà¤ ¶
Ġau f
az ione
Ġb ah
Ð½Ð¸ Ð¹
ĠK o
ÙĦ Ø¨
à°¾à° ķ
ob er
ĠáĥĶ áĥ¡
à¦ ¯à¦¼
Î»Î» Î¬
Ġde p
ĠÙħ Ø·
g un
Î¬ Ïģ
Ġ×ŀ ×Ķ
ĠC ent
åį ļ
ĠáĢ±áĢ Ķ
áĢ¸áĢ Ľ
, "
è¿ Ĳ
ØŃ Ø¯
Ñ ķ
Ð¸ ÒĽ
ot h
áĤ Ĳ
ĠC or
×ķ× ¦
Ã¡ d
= =
Ñĸ Ðº
ãĥ Ń
ation al
ik s
ĠÐ½ Ð°Ð¼
ĠØ¨ Ø¯
ĠÐ³ Ð¸
p g
å± ķ
u ch
Ġ! !
un ic
èµ°åĬ¿ åĽ¾
Ġc z
ĠD en
Ñĥ ÑĢÐ¸
à¦ ¥
Ġn ap
Ġm Ã¡s
Äģ l
n Ã¡
ÑĤ Ð¸ÑĢ
as Ä±
Ġht ml
Ġa us
Ġku wa
Ġà® °
Ġà¤¸ à¤Ĥ
Ä±n Ä±n
à«įàª ķ
à®¾à® ³
ÏĦÎ¹Îº ÏĮ
áĢ±áĢ «
ec e
áĢ» áĢĸáĢħáĢ¹áĢ
Ġb ul
Äĵ t
à®Ļ à¯įà®ķà®³
ĠÃ®n t
Î¹Îº Î¬
er d
ÑĢ Ð°ÑĤ
ar ch
Ġí ĺ
Ñĸ Ñģ
é ħ
Ġà´Ĵ à´°
Ġà®ª à¯Ĩ
à°ķà±įà° ķ
à¸Ħ à¸£
Ġn ev
Ġst ud
ĠØ´ Ø¯
ne j
Ġp ri
Ġm om
ìļ ©
g ar
Ġk up
ãĥ ķ
ÑĢ Ð°Ð¼
ĠØ§ÙĨ Øª
Ġ×ķ ×Ķ
áĢģ áĢ¶
à§ĩà¦ Ľ
it or
áĥĲáĥ ¤
Ø¨ Ø¯
o o
áĥĺáĥ¡ áĥ¢
Å¡ i
ĠÂ» ,
ro p
Ġk ont
ÙĬ Ùĩ
×Ļ× ĺ
ur n
t y
k ar
ĠÂ £
pr ess
Ïĥ Î¿
Î¼Î± ÏĦÎ±
Øµ ÙĦ
áģ ļ
Ġk ir
Ġç ļĦ
ĠÑĢ Ð°Ñģ
Ġpl an
Î´ Î±
Ġne w
ĠØ§Ø Ń
à´¾à´ µ
Ð°Ð³ Ð¸
ìĹ ħ
à«Ģ àª¤
it as
7 4
ch n
¤ ĳ
ĠS l
åħ ³
à®¿à®Ł à¯įà®Ł
½ľ ê±¸
ĠÑ İ
Ġf ot
iv a
k r
Ġk Ã¤
Äĥ r
ĠT ra
ãģĵ ãģ¨
Ġ! !!
åĬ ¡
é Ķ
Ġàª ĵ
ĠPost ed
ÉĻ b
es a
» áĢĻ
R E
à¸ ĺ
ķ áĢ¼
à¹Ģà¸ «
å®¢æĪ· ç«¯
Ġre v
ib le
è§ £
Ġag çİ¯äºļ
áĥĲáĥ ĳ
Ġj áº¹
åħ ĥ
à«įàª ¥
Ġà° Ń
la v
ĠÛĮ Ú©
å» º
á» ķ
áĥĿáĥ ª
ĠM er
áĢķ áĢ²
U T
×ķ× Ĵ
à¥ ī
Ġg u
ur g
àª¾àª¨ àª¾
à¸²à¸ Ħ
in h
Ð¾Ð½ Ð°
ow er
is m
ÙĪØ± ÛĮ
áº£ i
áĢĻáĢº áĢ¬áĢ¸
à¹Ģà¸ Ĺ
ĠÐ½ Ð°ÑĢ
æĹ Ĺ
à«Ģàª ı
ob il
ĠØ§Ù ĵ
à®¾à® ®
Ġ- -
Ġà´ Ł
éķ ¿
Ġ; &
à´¿à´¨àµįà´ ±àµĨ
Ġm ind
Ð» ÐµÐ½
Ġw ak
Ð½ Ð°Ð¹
ĠÅ ŀ
Ġs il
Ð² ÐµÑĤ
Ġ íķľ
est o
in er
l l
×© ×¨
Æ°á»Ŀ ng
ĠÐ¾ Ð½
ÑĢ Ð°Ð·
Ġå½© ç¥ŀ
à¤ Ī
Ġàªķ à«ĭàª
Ñī Ðµ
ĠØ¯ ÙĪ
Æ°Æ¡ ng
om i
ÐµÑĢ Ð¸
Ġre m
Ġk ung
ĠÐ½ Ð°Ð´
ev a
à´¿à´² àµįà´²
at es
Ġë ĵ
id an
ĠÅ ¼
re k
Ì ģ
Ö ģ
ĠE sp
ĠS al
h u
Ġgr atis
et r
p en
áĥĹ áĥĲáĥľ
iz a
Ġh is
Ġt as
Ġv ai
ĠF l
ĠAl l
ë© ´
×Ļ× ŀ
Ġs ay
áĥĲáĥ ĸáĥĶ
ĠÐº Ñŀ
å ĸ
Ġi b
Ġs or
Ġà° ¶
Î¼ Î·
Ġ Ô
ub lik
Ð°Ñ ĳ
à´ ¬
er ia
d el
Ġáĥ «
Ġà®µ à®°
ĠáĥĲáĥ ĵ
Ģ áĢŃáĢ¯
à¥ Į
os ta
àª ¥
ĠÐ¿ Ð°Ð´
Ġq o
Ġà®Ĵ à®°
l eri
Ġt ah
Ġbil an
à« ĥ
Ãł ng
Ġí Ļ
Ã³ r
Ġâ Ļ
sk e
Ġé ĩ
Ð° Ñı
I G
Ġç ľ
Ã ģ
ëı Ļ
ÃŃ v
ĠÃ®nt Ã¢
ĠN g
ä½ į
Õ¸ Õ
à¸ģ à¸±à¸ļ
çĽ ®
ĠÙĤ Ø±
Ġàªķ àª¾àª°
Ġ( )
Ã¼ ÅŁ
is o
Ñĸ Ð¼
áĢ¸áĢ Ĳ
Ġy n
Ġìł ľ
y ar
at ing
Ġw an
ì Īĺ
í Ħ
à®³ à¯įà®³
åı £
æĺ İ
ÏĦÎ¹Îº Î®
å· ŀ
åĪ ¶
äº ¤
ĠÃ ľ
Ġb ed
Äģ d
ĠS el
ĠÏĮ ÏĦÎ¹
à¦¬ à§ĩ
ÛĮ ÙĦ
Ø§ÙĨ Ùĩ
ĠM ed
å¥ ĸ
à±ģà° °
áĢ¬áĢ¸áĢ ¡
Ġ9 5
Ġp ap
Ġà¦ķà¦° à§ĩ
Ã¶ k
áĥĿáĥĳ áĥĺáĥ¡
Ġf ig
an h
ĠìĿ ´ë
ĠÎº Î¬
à¸Ļ à¹Į
ĠÐ´ ÐµÐºÐ°
Ð² Ð¸
æ¯ Ķ
7 6
Ġd ok
Ġáĥ¨ áĥĶáĥ
id ent
Îº ÏĮ
Ð½ Ñĥ
Ġg od
c y
r al
Ð¸Ð½ Ð³
end er
ãĤ ¿
à¦¿à¦ ¸
Ġä¸ į
Ġ. "
ãģ ¡
ç µ
éĩ ı
ĠáĢ» áĢĻ
áĢķ áĢ¹
×Ļ× ¤
am u
le x
à°Ĥà° Ĺà°¾
p k
Ãł nh
Ùħ Ø§ÙĦ
Å¡ a
IN G
Ļ áĢº
à¦ķ à§ĩ
ÙĬ Ùģ
à´ ļàµįà´ļ
Î» Î¬
à«ģ àª°
Ġim port
ãģ ¤
is en
Ġa da
Ġà° ¹
Î» ÎŃ
çĽ ´
áº£ n
v ers
Ġg ar
Ġk op
ĠáĥĹ áĥĲáĥķ
áĥ£áĥ ľ
ĠÊ» O
ir d
Î ł
Ø¯ Ø§Ø±
Ġà¸ §
Ø¹ ÙĦ
ĠáĢĢ áĢº
à°° à±į
çī ¹
×ł ×ķ
ç³ »
Ć Ĉ
ÙĤ ÛĮ
ĠE ng
à´ Ń
ĠM ad
ĠÑī Ð¾
Ð» ÑĮ
à°¾à°² à±ģ
à«įàª ª
à¦ ĸ
ãĤ ·
Ġl ik
Ġpl us
à«Ģàª ĵ
Ġt ag
c ie
ĠUn ivers
ĠÐ¿ÑĢ Ñĭ
Ñĸ ÑģÑĤ
z n
Ġg y
m es
ĠáĢ¡ áĢŀ
Ġk g
±áĢ ķ
ĠÐ´ Ð¾Ð±
é »
Ġs te
ĠK at
Ġap p
à®¿à® ªà¯įà®ª
Ġk ep
à´¾à´ ķàµįà´ķ
Ġ3 65
Ä« t
ĠA ug
Ġê² ĥ
ĠM il
Ġg es
ķáĢ« áĢĲáĢļáĢ¹
×Ļ× ¡
Ġáĥĺ áĥľ
Ä« bas
à¹ī à¸Ļ
Ġs Ã«
Ùħ Ø§Ø±
Ġ×Ķ× ¢
ĠÑı ÐºÑĸ
Ñı ÑĢ
ìĬ µ
Ð½Ñĭ Ð¼
äº Ķ
à¥įà¤ ¹
Ļ à§įà¦
3 2
al u
Ġáĥĺ áĥĽ
ä¸ İ
?? ??
ĠØ§Ø ¯
àµĨ à´Ł
ĠáĥĴ áĥĲáĥĵ
Ġà®µ à¯ĩ
ĠA N
ci o
¶ Ķ
Ø§Ø¦ ÛĴ
ĠÃ¥ r
ì§Ģ ëħ¸
åĽ ŀ
à¤¨ à¥Ģ
ĠØ¬ ÙĨ
ĠÙħ Øµ
é ĵ
Ð°Ñ ī
ĠÐ¿ Ð¾ÑĢ
æµ ·
å± ±
åĳ ĺ
Ø§Ø¯ ÛĮ
Ġd z
in ta
áĢŃ áĢĲáĢ¹áĢ
à¹ĥ à¸Ĭ
ĠÐ½ Ð¾Ð²
Ġp ra
ëĭ Ī
á»¯ ng
ĠR a
ĠT ur
Ġw y
Ġg Ã¶
à¸£ à¸¡
à¸¸ à¸ĵ
Ġæĸ °
ĠÐ° ÑĢ
áĢĶ áĢ¾
te k
Ġin n
Ġc Äĥ
áĢ¸áĢ ¡
ov Ã¡
Ġl ok
c er
4 9
us a
Ġà´ ¦
Ðº Ð°Ð·
Ġàªħ àª®
Ġng Æ°á»Ŀi
Ġan y
Ġbe h
od y
Ì £
à¸² à¸Ļà¸
Ġé Ģ
ÑģÑĤ Ð²Ð°
à¸« à¸Ļ
ÅŁ Ä±
Ð¿ÑĢ Ð°Ð²
àµģà´ ±
ĠT i
w er
æĦ ı
à¯ģà® ªà¯įà®ª
ap e
ti ve
ĠÏħ ÏĢ
Ùĥ ÙĨ
Ġt ab
Ġo ok
æī Ģ
ri o
ÏĦÎ¿ ÏĤ
5 8
éĹ ´
áĥĿáĥĳ áĥĲ
áĥĲáĥ ¦
m al
j d
×Ļ× Ľ
k om
y or
Ġv it
iy o
à´¾à´¨ àµįâĢį
Ġà¹ģ à¸¥à¸°
à´ķàµįà´ ·
Ġ? ?
ÙĬ Ø§
à«ĩ àª¨
Ġad alah
à°ļ à±įà°ļ
Ð¸ÑĤ ÐµÐ»
ãĥ Ĺ
ĠÏĢ Î¿
ĠÙ¾ Ø§Ú©
àµģà´¤ àµįà´¤
Ġ áĥĲáĥľ
ï ½
áĥĶáĥł áĥĺ
Ġv ia
Ġi p
àªµ à«Ģ
Ġt Ã¤
Ġg re
ig t
ĠáĢ Ł
Ġìł ķ
Ø¹ Ø©
à§ĩà¦ ĸ
ĠY ou
åįķ åıĮ
ik k
à¦ ĵ
Ð² ÑĢ
Ġuch un
Ġå ¥
ÏĦÎ± ÏĤ
ĠÃ®ntÃ¢ l
ç¨ ĭ
Ġon e
Ġìĺ ¤
ÙĪ Ø§
ti es
al ia
ub e
Ã± a
áĢĦ áĢ·
æ ¡
Ġàªµ àª§
ÅĤ a
Ġv end
Ġ×ĳ ×¢
r on
Ġ200 6
Ġ×© ×Ķ
ĠØª ÙĨ
ĠÙ¾ ÛĮ
Ã³ d
ĠÐ¿ÑĢ Ð¾Ð´
Ġà´ħ à´µ
uk e
åħ¬ åı¸
Î Ľ
at en
ÅĻ ÃŃ
Ġv Ã¦
×ľ ×Ķ
U M
è į
Ã¼ z
d Ä±r
Î» Î®
Ġ) :
Î¿ ÏĤ
Ġ: )
ĠÐĿ Ð°
ĠÛĮ Ø§
à¸ģ à¸¥
Ð´ Ðµ
ãģ Ľ
ĠÙĪ Ø¬
Îµ ÏĦÎ±Î¹
Ġin de
ay e
Ġn hi
Ò³ Ð¾Ð¸
ÙĤ ÙĦ
ĠÑį ÑĤ
EN T
ĠÐ³ Ñį
ar ia
ë ¹Ħ
Ġëª ¨
×Ļ ×ķ
à¤¹ à¥ĩ
Ø§ÛĮ ÛĮ
ç® ¡
Ġf ir
Ð¼ Ð¾
å¥ ³
A H
Î¼ Î²
ĠB el
ĠÐ½ Ð°ÑĪ
Ġà¸ Ľ
ĠÙĪ Øª
à¹ĥ à¸Ļà¸
Ġata u
ĠØ® ÙĦ
ess a
æĬ ¥
od a
ek e
Ã Ħ
çĻ ¾
ĠáĥĲáĥ ¡
ÑĢÐ°Ñ Ĺ
à´ ¡
Ġd ik
åħį è´¹
ìĺ ¤
×¤ ×¨
io us
Ùħ Ø©
Ġáģ ģáģ
Ð± Ð¾ÑĢ
åķ Ĩ
th er
Ġp ort
ĠÐ¡ ÑĤ
à¤¿à¤ Ĥ
Ġsa u
ĠÐ½Ð° Ñģ
ide os
à°¾à° µ
à¤¸ à¥ĩ
Ġì Ĩ
Ïį Î½
ĠÎ ¾
Ġ Ö
ĠÙĦ Ø§
og raf
åı ·
Ã¡l l
Ġj est
Ġp df
Ġb ij
ĠáĢ ¥
ĠØ³ ÙĪ
Ãł i
ĠÏĢ Î¿Î»
ĠáĢ» áĢĸáĢħáĢ¹áĢ
Ġs an
Ġpar te
ĠK on
us tr
ro d
t al
ÑĤÑĮ ÑģÑı
Ġâ Ĺ
Ã© e
ì °
áĢĦáĢº áĢ¸
t el
Ġàª® àª¹
ĠC at
áº§ u
Ġa pr
Ð´ Ð·
à¹Ģà¸ ª
Ġre d
Ġáĥ¨ áĥĶáĥ¡
ĠA G
éĩ Į
Ïĥ ÏĦ
ĠG u
Ġf er
Ġd av
ÑĪ Ð¸
Ġm ana
az i
ĠÎµ Î¯
Ġju ga
à ²
ter i
ĠÚ© Ø´
Ġà®ĩ à®¨à¯įà®¤
Ġn t
Ġt ime
Ð» Ð°Ð½
Äĵ j
Ġn ec
Ġàªľ à«ĩ
---- ----
Ð ĳ
áĢ± áĢĢ
ĠÐº Ð¸
Ġà¤Ń à¥Ģ
es u
ãĤ £
Ġà¸ Ĥ
ĠT V
è§ Ĥ
ib il
ĠÎµ Î¾
ĠG re
à±ģà° µ
ç¤ ¾
ÎŃ Ïģ
à° ³
I n
ÙĬ Øª
ad er
Ġëĭ ¤
p et
a a
à´ķàµįà´ķ àµį
ëĵ ľ
áĢ¸áĢ ľ
Ġh ore
Ùĳ Ùİ
Ġàª¸ àªĤàª
ĠÑģ Ð°
om en
Ġk t
ĠÐ° Ñģ
ÐµÐ» Ð°ÑĢ
Ġàªķ àª¹
ª à¯į
ìĿ´ íĬ¸
à´¿à´ µ
à¦¨ à§įà¦¤
àµģà´£ àµįà´Ł
ag es
ĠR ed
Î¿Ïħ Î¼Îµ
ist en
ĠÑĩ Ð°Ñģ
m ar
ĠÐ¿ Ð¾Ð¼
Ġb ud
ĠÐ¸ ÑģÑĤ
Ġon s
à«Ģ àªķ
Î± Ïģ
Ġ' ).
3 7
Ġse u
à®¿à® ´
is Ã«
ÙĬ Ø¹
im ent
Ġne ws
Û °
Ġk n
ĠÐ ĸ
à¯Īà® ķà¯įà®ķ
×ŀ ×Ķ
Ġm ill
ä» ĸ
ĠJ oh
Ġ×ĳ ×ŀ×
×ķ× Ľ
à¯ĩ à®°
ĠS te
±áĢ ľ
Î· ÏĤ
àµįà´ ¥
Î¼ ÏĢ
20 19
Ġfal se
ç ±
Ø® Ø±
Ġà¤ķ à¤¿
íĦ °
Ú© ÙĨ
áĢ¬ áĢŀ
Ġà¤ Ł
ĠÐºÐ¾Ð¼ Ð¿
g j
ĠS tr
ap an
à±Ī à°¨
ĠØ§ÙĦ Ø°
ĠJ o
Ġb ek
ĠT a
à¸Ń à¸£à¹Į
Ð° Ð¸
Ġàª¹à«ĭàª ¯
uk u
áĥĲáĥ ¬
Îµ Ïħ
l em
Ġst art
Ġj ag
Ġz ijn
in ter
Ð¾Ð³ Ð°
à«ĭàª Ĺ
I P
Ġe ff
Ġl ig
Ð½Ð¸ Ð¼
Ġb us
ch o
×ľ ×Ĳ
áĥł áĥĿ
Ġå ¾
Ð³ Ð°ÑĢ
ĠW eb
in al
ĠÐ¿ Ð¾Ðº
in y
é ©
ç ĥ
×ł ×Ķ
Ġt la
Ġnh Æ°
ÏĦÎ¹Îº Î¬
Ġ' '
Ġå ¼
Ġàª¨ àª¥à«Ģ
Ġà¦ľ à¦¨
ĠD is
Ġpr im
Ġà¹ ĥ
Ġf ol
ç ¦
Ġk et
áĢ¬ áĢĦáĢ¹
Ġl ak
ch er
à´¸ àµį
ĠS z
ĠiÃ§ in
Ð¸ÑĤ Ð¸
Ġd ob
Â »
à¸¹ à¹Ī
ÙĦ Ø©
or ld
Ġb ack
ĠÐ´ Ð°Ð²
ÑĨ Ðµ
ant es
ãĤ ı
ĠÐ Ń
ĠØ§ÙĦØª ÙĬ
ĠØ® ÙĪ
Ġol d
6 7
O P
Ġp ie
Ã¶ s
Ġal la
Ġh otel
ÙĦ Ùĩ
ĠN E
æ¬ ¡
Ġgr up
C H
Ð¸ Ð¿
he id
ĠØ§Ù Ĥ
Ð² Ð¾
å Ļ
Ð» Ð°ÑĪ
Äĥ m
Ġè¿ Ļ
áĢ¬áĢ¸áĢ Ľ
Ø± ØŃ
ĠD u
à¸Ĺ à¸¢
Ġ×Ļ ×©
un da
ãĤ ³
Ã¢ y
ĠáĥĲáĥ ¦
ĠD an
ut en
à¯ģà®³ à¯įà®³
Ã¨ s
Æ°á»Ľ c
Ġ15 0
en o
ag ai
e f
è ¢
áĥķ áĥļ
Ġg an
ad an
à° §
æ ¼
at ie
r in
Ø§ Úº
id as
ĠÐ¡ Ð
áĢĽáĢ¾ áĢŃ
ÙĪØ± Øª
ai re
àª¿àª ¸
imul yo
æĢ Ŀ
ÑĬ ÑĤ
ĠP ers
mi ÅŁ
ĠÙĦ ÙĪ
èĪ °
ĠØ§Ø ª
ĠØªÚ¾ Ø§
ĠG i
á» £
ŀ áĢ°
il ar
à¤² à¤¾
ÏĦÎµ ÏĤ
Ġáĥ ¯
il ik
ĠL at
Ïģ Î®
Ð³ Ð¾Ð²
ĠØ´ Ø¯Ùĩ
al la
u es
Ġis ang
h m
æĻ Ĥ
ĠØ§ÙĦÙĦ Ùĩ
Ġ ć
b ek
Î¬ Î»
Ġcon ta
k or
Ġmen y
Ġh ier
Ġ8 8
à°¿à°Ĥà° ¦à°¿
Ġl ag
éĴ ±
ê ·
k ur
Ġk ad
I V
è¯ ´
áĢ¯áĢŃ áĤĶ
is ti
9 8
ĠÙħ Ø®
Î ľ
am in
à±ģà° Ĺ
n ia
à´¿à´Ł àµįà´Ł
Ġà¤ ¡
ĠH ot
Ġàª¹àª¤ à«Ģ
à«Ģàª ¯
ãģ ¿
ĠB y
as an
ĠÐ² Ð¸Ð´
à« ¦
à§ĭ à¦¨
à«Ģ àª¨à«ĩ
àª Ľ
à®ªà¯įà®ª à®Ł
ĠD er
Ġpr iv
ell er
os o
Ġv el
Ġn Ã£o
E K
éĻ ¢
çĽ ¸
ez i
ĠØ³ Ø¨
3 1
ut ta
Ã¼ t
Ġ×Ľ ×ľ
áĢ¸áĢ ħ
Ġà¤² à¤¿à¤ı
áĥĹ áĥķáĥĺáĥ¡
Ġv et
ad y
Ġ8 5
ĠÎ¤ Î¿
è· ¯
Ġab out
Ġà¤¸ à¤®
ãģĦ ãĤĭ
A Y
ĠØ§Ø ¬
Ġn orm
Ùĩ Ø¯
ĠS T
áĤ Ĭ
ëĤ ¨
à®¤à¯įà®¤ à®¿à®²à¯į
Ġn eb
àª ı
Ġand a
à¸²à¸ §
Ġáĥ£áĥ ľ
az a
Ġmen j
Õ µ
Ġr om
è® ¾
Î· Î½
ĠáĥĲáĥ łáĥ
áºŃ n
ay o
æĶ ¿
ĠØ¨ ÙĪØ¯
Ġà¦¨ à¦¾
ad s
çİ ©
à§ģ à¦¨
Ġ×Ķ ×¨
Ġv id
9 5
Ġì Ĭ
Ġs itu
Ġà¦¬ à§įà¦¯
ir an
ro v
ter n
à° Ń
j em
ĠO b
ĠA S
Ġà¸ ¥
á»± c
as ti
á»© c
åİ ¿
çº §
ĠìĿ ¸
Ġk ita
h or
Ñģ Ð°
ĠÑŀ Ð·
á ½
ÑĢ Ð¾Ð²
s el
Ã ĥ
ĠS c
Ġáĥ¡áĥĲáĥ ®
à¹Ģà¸Ľà¹ĩ à¸Ļà¸
ĠÏĢÏģÎ¿ Ïĥ
ĠÄĳ á»Ļ
ĠÙĩ Ø§
áĢ±áĢ¬ áĢĦáĢºáĢ¸áĢ
at z
á» Ń
ĠA mer
ĠÐ½ Ñı
im iz
à¥ģ à¤°
ĠÎ §
í ļĮ
Ġer e
áĢ¬ áĢĢáĢ¹
Ð³ Ð°Ð½Ð¸
æĴ Ń
à´¾à´° àµįâĢį
Ġk oh
Ġcom m
Ġng ud
ĠI S
áĢ±áĢ ¡
Ġngud imulyo
Ðº ÑĤ
Ġim p
à¸« à¸¥
O D
ĠU r
Ð¾Ð´ Ð°
áĢ» áĢĸ
ÐµÐ¼ Ð°
q ip
A V
Ġà¦¬ à¦¾à¦
u w
ÑĤÐ¸ Ð²
Ã± o
ny ch
àª¾àª ĵ
ç ģ
à«ĭ àª°
ãĥĥ ãĥĪ
áĢ±áĢ ·
ĠØª Ø¬
àª¾àª ¡
Ø´ Ø±
Ġpor no
op p
áĢ¬ áĢľ
ĠE le
Ġde v
ĠT el
àª¾àª ĸ
Å ©
à¹Ī à¸¡
Ġs ar
Ġáĥ¨ áĥĶ
er y
Ġt amb
à®° à¯įà®ķà®³
ÑĦ Ð¾ÑĢÐ¼
Ã´ i
ĠØ¬ Ø§ÙĨ
ĠÐ±Ñŀ Ð»
Ã½ m
Ø§ÙĦ ÛĮ
am m
Î ¥
ĠP ort
ÙĪ Øª
Ļ áĢ½áĢ¬
ĠÙĪ Ø£
ĠáĥłáĥĿáĥĽ áĥĶáĥļ
ĠÑĩ ÑĤÐ¾
áº¹ lu
ĠR om
Ú© Ú¾
Ġà´¨ à´¿à´
æĹĹ èĪ°
à§įà¦ ²
c m
ĠÑĩ Ðµ
Ġà´¸ à´Ĥ
ĠÐ± Ð¸ÑĢ
Ġáĥĺ áĥ§
Ġse e
Ġáĥ¡áĥĲáĥ¥ áĥĲáĥłáĥĹáĥķáĥĶáĥļ
ĠåĮ Ĺäº¬
ĠØ¨ Ú¾
Ġ;& #
ĠÅ ł
èµ ·
Ġs ite
ĠA ir
Ð°Ð» Ð°ÑĢ
b el
ìĹ ¬
à´¾à´ ¸
à¹Ģà¸ ĩ
it es
Ġan t
à¹Ģà¸Ľà¹ĩ à¸Ļ
Ġcon st
åº Ĺ
ĠI I
Ġo ur
íķĺ ëĬĶ
ĠÏĥ ÏĦÎ±
ĠÐ İ
à°° à°¿à°
Ġìŀ Ĳ
iy e
Ùĥ Ø©
er es
à°¾à° ¦
Ð¡ Ð
Ġut il
à°¨ à±į
b all
Ġsk al
Ġç »
é ª
ÅĤ o
áĤıáĢ½ áĢĦáĢ¹áĢ·
Ġl at
ang o
ë ¯¸
ĠáĥĽ áĥĺáĥ¡
ĠC H
ag y
Ġh on
ĠæĹ ¥
ĠE UR
ìĽ Ķ
å ŀ
Ġà¦ ¡
Ù¹ ÛĮ
Ã¡n y
it ter
à¤² à¥Ģ
ĠA L
à§Ģ à¦°
Ġè Ģ
Õ¥ ÖĢ
ĠÐ¿ ÑĸÐ´
ult ur
áĢļáĢ¹áĢ ľ
Ġh l
v es
Ġ×Ķ× ŀ
Ġl eng
à´¿à´² àµĨ
w ar
Ġv u
b ol
Ã¡n ÃŃ
el ij
ĠIn st
iv o
à¸ļ à¸ļ
à´¾à´ Ł
ĠÐ± Ñĥ
g es
á»ĩ t
áĥł áĥĺ
Ġh ak
å° Ĩ
l ay
ĠÊ» o
um an
èĢ ĥ
Ġprobl em
li y
Ġï¿½ï¿½ï¿½ï¿½ï¿½ï¿½ ï¿½
ĠØ¨ Ø§Ø´
µ ľ
in es
am at
Ġ×ŀ× Ĳ
n Ã«
Ġh av
áĥĲáĥ Ŀ
à´¿à´ķàµįà´ķ àµģà´¨àµįà´¨
I ON
ĠÎ ¦
ĠG al
un n
Ġm Ã©s
à«ģ àªķ
Ġà´ ±
v et
Ġnh á»¯ng
æ´ »
èµĽ è½¦
Ð¾ÑĢ ÑĤ
Ġà¤Ĩ à¤ª
Ġ6 4
ĠÐ£ Ðº
Ġg al
ĠáĢ Ŀ
à®® à¯įà®ª
àµĭ à´Ł
Ġb uh
Ġm end
Ġãģ Ŀ
Ġpo z
Ġà° ı
Ġàªī àªª
un u
ĠØ¢ Ùħ
Ġl l
åı Ĭ
y en
Ġà¦¤ à¦¾à¦°
Ġcom pl
ĠA pp
ĠÐ° Ð½
Ġl og
Ã¥ n
Ġf amil
à¸ģ à¹ĩ
ĠÙĨ ÛĮ
Ð¾Ð» Ð¾Ð³
Ġd apat
Ð¸ÑĢ Ð°
Ð°ÑĨ Ð¸Ñı
ĠØ¯ ÙĪØ±
Ġà´ Ń
ĠØ¯ Ø³Øª
àª£ à«ĩ
Õ¡Õ ¯
à§ĩà¦ķ à§ĩ
í Į
Ġl áº¹
à«ĩàª ¤
Ġf ind
Ġf ar
ĠáĥĲáĥ ®
à¸¡ à¸²à¸
ĠC an
om at
Ġt est
Ġd ist
Ġæ Ń
Ð± Ð°
Ù ĭ
è ¥¿
áĥĲáĥ £áĥ
Ġy er
Ġì °
Ã¡ p
Ġb in
em o
ip a
Ä± s
ÄŁ i
à¤ķ à¥ĩ
ĠM et
Ġs ah
Ġl iv
ì ½ľê±¸
ÃŃ nh
Ġ×Ķ× ĳ
Ġz o
Î ©
æľ į
ĠÐ± Ð¾
à¸£ à¸ĩ
it Ãł
c ed
Ļ áĢ½
Ġ ÉĻ
l Ã¤
Ġn ad
ĠáĢ Ħ
Ġà´ Ĺ
Ġso ci
à¹Ģà¸ ¡
Ġà° Ł
Ġv or
en cia
els er
à´¿à´ ªàµįà´ª
à¦ķ à§įà¦·
ä½ ¿
ĠÎ¼ Î¹Î±
Ñĸ ÑĢ
ĠÄ Į
Ġk ama
Ġâ Ķ
à¸· à¹Īà¸Ńà¸ĩ
ĠW h
Å¾ e
Ġn og
à¹ĥà¸Ĭ à¹ī
Ñĩ Ðµ
ìĬµ ëĭĪëĭ¤
Ġê² ½
Ã© d
ĠØª Øµ
Ġn at
Ð¼ Ð°ÑĤ
Ġn ep
Ġm ir
Ġàªħ àª¨
× £
b in
Ļà§įà¦ Ĺ
ĠÃ ¸
Ġb ot
Ġàª® àª³
ĠÐ· Ð°Ð±
Ġw al
Î» Î¯
ĠÙĪ Ø²
Ġ9 8
Ã ľ
áºŃ t
Ð² Ð°ÑĢ
Ñĭ Ð¹
h d
ĠÚ©Ø± ÙĨÛĴ
à´ §
Ġartic le
ĠâĨ Ĵ
ĠA f
ÉĻr bay
in ÉĻ
à®° à¯įà®ķà®³à¯į
ÙĨ Ø¬
à¸§ à¸¢
àª¤ à«Ģ
re a
Ïģ Ïĩ
ur an
à¦ Ľ
Ġt ele
Ġk ab
çĿ Ģ
ma il
ĠP al
Ã§ Ãµes
ĠÎ Ľ
n ek
Ġad min
ÏĢ Î¿Ïħ
Ġl ar
ĠáĢ¡ áĢħ
Ġ×¢ ×Ŀ
Ġk tor
f at
à¥įà¤ ®
Ġf ont
à¤Ĥ à¤¤
áĥĿáĥ Ĺ
ag en
áĥĺáĥĵ áĥĲáĥľ
Ġb le
æĹ ł
os p
à§įà¦ ®
ich a
Ġd ol
» áĢĸ
æ ¨
Ġon t
Ġ Æı
ìĭ ł
ĠB i
Ã³ s
eb a
Ġà¸ Ķ
áĢŁ áĢ¬
ĠÂ ²
Ġz i
áĥļ áĥĶáĥĳ
åĻ ¨
ĠØ£ ÙĪ
ĠM art
k il
Ġk il
áĢ¥ áĢ¹áĢ
Ġs ang
Ġn ing
ĠáĢŀ áĢŃ
àª¿ àª¨
x e
Ġpro j
à°¿à° µ
Ġn or
Ð½Ð¸ Ñı
Ø§ÛĮ Øª
Ð°Ð½Ð¸ Ñı
l ash
u u
q i
A A
Ġop er
ĠÙģ ÛĮ
Ġí ı
im u
ĠB en
Ġs aya
Ġpos s
Ġma ar
Ġáĥ§ áĥķáĥĶáĥļ
äº ī
ÎŁÎ ¥
à®¾à® ®à¯į
ĠÐ³ Ð¾Ð»
ĠÎ¼ Î±ÏĤ
O K
ĠØ§ÙĦ Ø·
Ġw id
Ð½Ð¾ ÑĹ
à¤ ı
Ð°Ð½ Ð¾
Ġd un
ĠáĢĢ áĢ¼
ÏĮ ÏĦÎµ
ro w
à¤¹à¥Ģ à¤Ĥ
é Ł
à§ĩà¦ Ł
ĠTh is
Ľ Ħ
å½ ĵ
Ð½Ñĭ Ñı
á»ģ n
ĠÎºÎ± ÏĦÎ±
Ġà¦ı à¦¬
âĢ į
Î³ ÏģÎ±
Ġh em
ev er
Ġt Ã¶
ÙĦ ÙĪØ¯
2 00
à´¾à´ Ĥ
ĠÑī Ðµ
ï¼Į ãĢĳãĢĲ
p ut
Ġà¦¨ à¦¿à¦
k ol
Ð» Ð°Ð²
Ù¹ Ø±
áĢĽ áĢ½
Ġh ol
ÙĪØ± Ø¯
Ġp ublic
Ġì ²
ĠáĢĴ áĢ«
ĠCas ino
ÙĤ ÙĬ
è ³
àª¾àª ª
y w
ÏĮ Î½
Ġm ost
Ġg ra
ĠO ct
ÙĪ Ø§Ø±
Ġv Ã¤l
àª¾àª ¬
re f
ĠÙĦ Ùħ
à¸Ī à¸²à¸ģ
ÉĻl ÉĻr
ĠØ±ÙĪ Ø²
t ra
Ġer a
ÐµÑĤ Ð°
à¯ģà® °
åį ģ
ĠÎ ¶
áģ ¼
s en
Ġæ ŀ
åı ĸ
ĠÏĥ ÏĦÎ¹
Ġk Ã¶
ĠÄĳ Ã£
ĸ áĢ¼
ĠáĢ¡ áĢľ
æ ·
ĠV ol
à¸Ĺ à¸³
os ti
Ġad d
ĠÐ¼ Ð°ÑĢ
Ġol an
ÃŃ ch
à¸¹ à¸ģ
ģ éĢŁ
è£ ħ
æķ Ļ
áĢ¬ áĢĶ
ĠS am
æł ¼
ing er
Õ¡Õ µ
à«ģ àª²
ĠL i
r ia
tu re
I d
Ġt v
ÉĻ si
íħ Ķ
Ġd re
ĠâĢ º
Ġen s
Ġà® ı
Ð°Ð´ Ð°
à¦ķ à§įà¦¤
Ġàªµ àª°à«įàª
Ø¯ ÙĬ
Ġì £¼
ëħ Ħ
Ø§Øª Ú¾
Ġu a
Ġ6 00
iy at
v in
Ġt ri
ĠV o
ĠT op
ãĥĥ ãĤ¯
Ġë³ ´
æĮ ģ
ĠM i
ĠO d
ĠÏĢÎµ ÏģÎ¹
im b
ĠE t
Ø§Ùħ Ùĩ
áĢĻ áĢ¼
à´® àµįà´®
à¹Ħ à¸¥
am is
Ø¨ ÛĮ
ĠÏĢÎ± ÏģÎ±
am es
æİ ¥
à¹ģ à¸¥
s Ã¥
×ĳ ×ľ
Ġë° Ķ
Ġp ok
æĦ Ł
ig en
áĢĴ áĢ®
Ġà° Ĵ
ĠØ¨ Ø§Ø±
åį Ĺ
áĥĶáĥĳ áĥ£áĥļ
ud ah
Ġs ed
Ġà´Ĵà´° àµģ
ĠãĢĳãĢĲ ï¼ĮãĢĳãĢĲ
ĠÐ¸ ÑĪ
Ġg Ã¼n
Ġed he
ÑĢ Ðµ
ĠM y
åĲ Ĺ
Ġ×ľ ×ŀ×
áĥ£áĥ Ľ
od i
ĠÐ²ÑĢ ÐµÐ¼
ĠL o
ak at
Ġà°ļ à±Ĩ
Ġ×ĸ ×Ķ
à¥Ĥ à¤¨
Ġth u
Ġp in
ÙĨ ÙĬ
à¤ ĸ
Ġ> >
à¸²à¸ ª
e i
Ġa ir
ĠØ± Ø³
Ġe ks
L E
Ġt ÉĻ
ÎµÎ¹ Î±
ĠÐ» Ð¸
à¦¾à¦ Ĺ
ĠÐ¿ Ð°
æĢ İ
w á»į
Ġp áº¹lu
áĢĻáĢ¾ áĢ¬
à§ĭ à¦Ĺ
à¥ĭ à¤Ĺ
ì ĻĢ
áĢĻáĢ¾ áĢ¯
Øª ÙĬ
Ġf Ã¥
äºļ æ´²
à¸Ķ à¸µ
à« Ī
pk 10
à¤¡ à¤¼
ĠÐ¼Ð¾Ð¶ Ðµ
Ġcon f
æº Ĳ
à¤ķà¥įà¤ ·
Ø° Ùĩ
ĠÄĳ á»ĥ
Ġå Ĭ
Ġ×ŀ× ª
×Ļ× ¦
Ġà¤ħ à¤ª
áĢķáĢ« áĢĲáĢļáĢº
Ġ×Ķ× ¤
Ø§Ø «
Ġàª ĩ
Ġor ang
Ø¨ Ùĩ
èµ Į
Ġh ana
app ä¸ĭè½½
ãĥ Ĩ
ìĤ¬ ì§Ģ
Ġinter net
áĢ» áĢģ
ĠÐ· Ð°Ð²
ĠÐ±Ð¸Ð» Ð°Ð½
ĠÃ Ń
Ġr ad
ĠP entru
º «
s er
ow e
æµ ģ
r t
Ġf ut
ÑĢÐ¸ Ð¼
à®¾à®Ł à¯įà®Ł
Ġ20 00
4 6
ĠÚ© Ùħ
Ġd ira
áĢĸáĢ¼ áĢħáĢº
×ª ×Ļ
Ã į
ĠÐº Ð°Ð¼
mas Ä±
ãĤ «
ter s
ĠÃ ģ
Ġà¤ ĺ
1 00
ĠÃ Ĺ
h n
r id
å ²
Ġk hi
áĢĢ áĢ»
ub a
à¸´ à¸¡
à°Ĥà° Ĺ
Ġil ÉĻ
ĠR ec
Ã ī
ÏĢÎ¿ Î¹
±áĢ ŀ
ĠáĥĲáĥ ¥
áĢŃ áĢĻáĢ¹áĢ
à«Ģ àªµ
ĠÛģ ÛĮ
ĠM us
Ġw ar
Ã ĸ
O V
å¼Ģ æĪ·
Ġcom e
ĠâĦ ĸ
ĠB al
ÑĨ Ñı
Ġs ul
ek in
Ġp la
ĠGo ogle
as te
Ġ6 8
3 65
ov an
à¥įà¤° à¥Ģ
ag er
ĠN or
ĠÎ ĺ
ĠD on
Äĥ ng
h ir
Ġsy st
àª ĩ
Ġàª² à«ĭàªķ
à¥įà¤ ¥
Ø¯ Ø©
h od
Î³ Î¿
ĠÐ² ÑĬ
á»Ŀ i
ÑĨ Ð¸Ñı
Ġà®µ à¯Ĩ
Ġt eg
Ïĥ ÏĦÎ·
ĠÐ° Ð¼
Ä« g
Ġter m
ĠÐºÐ°Ðº Ð¾
áĢ±áĢ¬ áĢ·
at ive
Ġk ek
Ġå Ĩ
ĠÐ´ Ð·
á» Į
Ġr end
à¨ ¾
ĠÐ¼ ÐµÐ½
Ã¤ tt
ç ¬¬
4 7
à¦¦ à§ĩà¦°
à¸¶ à¸ĩ
ìĸ ĳ
ĠS P
ĠØ¬ Ø³
Ġde i
an ti
c ent
Ġb ag
ĠI D
Î´ Î¹Î±
å®ĺæĸ¹ ç½ĳç«Ļ
ĠÎº Î¿
ed s
ĠÑĢ Ðµ
æĪ ĺ
ĠÃ¶ n
Î³ Îº
à°¾à° Ĺ
Ġàª¤ à«įàª¯
ĠS m
on te
à®Ł à¯ģà®¤à¯įà®¤
ĠAz ÉĻrbay
ÐµÑĤ ÑģÑı
Ġar r
å° ĳ
ĠM or
Ġtr ad
ĠC a
×Ļ× Ĺ
ĠãĢ Ĭ
is er
Ñĭ Ð²
Ä± lÄ±
ĠÐ¼ Ð°Ñģ
Ġdi b
Ġthe ir
ĠS ie
à¸²à¸ Ĺ
áĤıáĢ½ áĢħáĢ¹áĢ
Ġmat eri
Ġun ha
¡ à°¾
Ġê³ ł
Â ¬
l ass
Ġ200 5
×¨ ×Ļ×Ŀ
áĥĺáĥ Ĵ
Ġf ree
4 3
Ġà¦¸ à¦Ĥ
pl o
Ġà®Ĵà®° à¯ģ
Ġï ½
àµĩ à´°
Ã¼r k
indow s
Ġsup er
w are
à®© à¯įà®©
ĠV ideo
à¤¾à¤ Ĺ
Ġorgan iz
Ġn ull
Ġå ¯
à®¿à® ļ
Õ ¿
le y
Ã ĵ
Ġ×ŀ× Ĺ
Ñı Ð´
ĠA B
âĢĮ ÙĩØ§ÛĮ
Ñı Ð½
ĠÑģÐ² Ð¾
Ġvo us
emb re
Ġà®¨ à®Ł
Ñĺ Ð°ÑĤÐ°
Ġ4 00
Ġà°¤ à±Ĩà°²
çŁ ¥
àµ ĥ
ĠH D
Ġ7 8
ĠÐ· Ð´
à¹Ģà¸ §
Î± Î»
ĠÂ ®
Ġt l
áĢĲáĢ¼ áĢĢáĢ¹
à±įà° ¦
Ġac tiv
Ġna j
AN G
ç² ¾
ĠÙĪ ÛĮ
à±ĩà° ¦
à¯Īà®¯ à®¿à®²à¯į
Ġth á»ĥ
Ġà¦ı à¦ĩ
h am
ĠáĢĸ áĢ¼
Ġ×Ķ× ł
sk i
Ġwa ar
ĠA fr
Ø± Ø¶
Ġk Ã¶z
Ġp ou
Ð°Ð¼ Ñĸ
Ġl it
Ġso cial
à¤¾à¤ ª
Ġà®¤ à¯Ĭ
Ġthe y
à¦ «
up a
à¤¾à¤° à¥Ģ
ob a
ç ĭ
à´¾à´ ®
ÐµÑģ Ð¿
Ġl um
ĠëĤ ĺ
Ġqu al
ë¬ ¸
Ã¼ s
æĶ ¾
×¨ ×Ľ
Ġdel s
ok i
op e
áĢ¯ áĢĲáĢº
ĠÙ¾ Ûģ
ĠáĢĢ áĢ»
×Ļ× ļ
à®ªà¯įà®ª à®Łà¯įà®Ł
ÏĦ Ïħ
Ïģ ÎµÎ¯
ĠØª ÙĤ
m ak
à¯Ī à®¤à¯įà®¤
Ġà¦¥ à§ĩà¦ķà§ĩ
à¹Ī à¸Ļà¸
c om
ĠÙ¾ ÛĮØ´
à¥įà¤ ²
ĠI B
à´Ļàµįà´ ķ
Øª Øµ
áĢ¬áĢ¸áĢ Ĳ
à´¾à´ ±
ĠÐ¸Ð¼ Ð°
Ġc amp
ĠÛģ Ùħ
Ġ" ).
e y
ĠÑģÑĤ ÑĢ
ãĥ ¡
å¤ ĩ
è Ħ
Ġn el
is sa
ĠFac ebook
Ġd ah
un ta
Ġy ar
åİ »
áĢľ áĢ²
Ġç Ļ
ÏĦ ÏģÎ¿
Ġpre d
ÎµÎ¹ ÏĤ
ib i
áĤĢáĢĢ áĢ®áĢ¸áĢ
Ġw er
Ð¶ Ðµ
ç» ĵ
âĢ Ķ
Ġre aliz
Ġj pg
r ist
à°Ĥà°¦ à°¿
Ġni cht
Ø§ÙĦ Ùħ
à°¾à° ľ
q a
Ġma u
Ġni et
g g
id s
ĠÑĺ Ð°
Ġh om
Ġà´ļ àµĨà´¯
Ġà¦Ĩ à¦°
Ã¨ n
ĠÐ½ Ð°Ð·
Ð½ Ð°ÑĤ
Ġpr zy
áĢĻ áĤĪ
Ġs n
äºļ æ¸¸
ÑĤ Ð°ÑĢ
é¢ ĺ
ĠÙĩ Ø°Ø§
Ġs ho
atu re
à® ¸
Î¼ÎŃ Î½
£áĥ ļáĥĺ
Ġy an
ĠÕ °
ro und
à¸ģ à¸£
ok u
ãĥ £
ç¤ º
á»ĳ ng
ut h
Ġ×ķ ×Ĳ
Ø¨ Øª
Ġà¹ Ģ
ĠØ¢ Ù¾
Ġmer eka
à¸ķ à¹Ī
à¹ĥ à¸Ī
Ġk ter
á»ĳ i
x i
ud en
ĠÎ¿ ÏĢÎ¿
à¸Ķ à¸¢
Ġ×ĳ ×©
ĠØŃ Ú©
àªĤàª §
à®Ļ à¯įà®ķà®³à¯į
Ðº Ð¾Ð»
Ð Ĺ
áĥĺáĥļ áĥĺáĥ¡
Û ķ
áĢ½ áĢĶáĢº
à¦² à§ĩ
Ġ×Ĳ ×ľ
Ġà®ķ à¯Ĥ
è ĥ
à¦¾à¦ ¶
ãĥ ŀ
áĢĻ áĢŃ
ì§ Ħ
à§ĩ à§Ł
Ö Ħ
ĠB as
à¤¿à¤ µ
ĠáĢķ áĢ«
å¼Ģ å¥ĸ
àªķ à«įàª·
ìķ ¼
ĠÎ¼ Î±
Ïħ Î½
à±Ĥà° °
Ġs w
Ġë ²
Ġç §
r Ã¡
ĠÂ ±
Î¹Îº Î¿
r im
Ġleb ih
âĢ ĺ
Ġn atur
ãģ¾ ãģĹãģŁ
ĠP R
is u
Ú© Ûģ
±áĢ Ĩ
ok e
id ades
à ¬
ov Ã©
ÑĪ Ðµ
ci as
áĥĲáĥĵ áĥĴ
ĠØª Ø§
T A
áĥķ áĥĶáĥ
Ġç Ľ
ĠØ² ÛĮ
ĠE k
b or
r ar
àªķ àª¾àª°
ĠAn da
áĥĲáĥľ áĥĺ
Ùģ ÙĬ
Ġog sÃ¥
ow i
ĠK u
ç« ĭ
à¦¾à¦¦ à§ĩà¦°
Ùĥ Ø±
Ġe u
ÐµÐº Ñģ
à´¾à´¯ à´¿à´°
Ġan n
r ad
Ġp ul
Ġp ad
ap o
ĠìĹ ¬
aj u
d ek
Ġà« §
s c
Ġà°ħ à°¨
ra b
Å« s
Ġà´ħ à´¤
ÙĨ Ø³
åħ ĭ
Ġàª¸ à«ģàª
hi ch
Ø´ Øª
¡ Â
Å¡ o
ãģ® ãģ§
áº ©
Ø§Ù ¾
ic as
6 3
ĠÐľ Ð°Ðº
Ġê ±
in iz
áĢ ĩ
ĠÐ± Ð¾ÑĢ
ãĥ ¥
à¹Ģà¸ ķ
ĠØª Ú©
ĠáĢĨ áĢŃáĢ¯
Ġb it
Ġà¤¸ à¤¾à¤
Ġole h
Â º
ro om
Õ¡ ÖĢ
en ie
Ð°Ð½ ÑĤ
éĢ ī
Ú© Øª
d ay
ur es
ĠÂ §
ĠÎ´ Î·
à¤¾à¤¨ à¥ĩ
çĦ ¶
on om
Ġì ¤ĳ
ĠÐ´ Ðµ
ess o
à§ĩà¦ ¤
Ä ·
Ġ×ŀ× ¢
d Ä±
Ġbuh ok
ĠÃ¼ Ã§
×Ľ ×ľ
g el
Ð°ÑĨ Ð¸Ð¸
Ġà°ķ à±Ĭ
ob ile
Ġk us
Ġp om
Ð¾ÑĤ Ð¾ÑĢ
áĢ ´
Ð¸Ñĩ Ðµ
áº ½
ĠØŃ Ø§ÙĦ
Ġà´ª àµĭ
è® ¯
Ø§Ùħ ÛĮ
ê° Ħ
it an
Ïģ Î¹Î±
Ġ> <
ä¸ ľ
ro id
á Ł
Ġãģ ĵ
å¸ ĥ
à±įà°² à±ĭ
em os
áĥĶáĥ¥ áĥ¢
Ġol du
à®¿à® ®
ĠìĿ ¼
ê³ Ħ
at ik
Ã ĩ
Ġè ¯
li p
ĠÂ ³
ed z
ĠS E
à¸²à¸ Ķ
ĠÂ ´
Î¸ ÎµÎ¯
Äĵ l
Ġj ul
à®± à¯įà®ķ
ç§ ĳ
ĠáĢ Ĺ
à«įàª° à«Ģ
ĠáĥĽ áĥĲáĥĴ
Ġc am
à«ĭàª ľ
Ġt in
f u
ec a
ç ¼
Ġb re
ĠÐ¼ Ð°Ð»
Ø ¡
ĠáĢĲ áĢħáĢ¹áĢ
Æ¡ n
Ġl im
Ã ¯
Ġcon d
ĠÎ¼ ÏĢÎ¿
æ ¢
Ġs ak
ĠN am
ĠD el
Ć ć
ĠÐ± ÐµÑĢ
×¨ ×Ķ
Ñ ľ
Ġë¶ Ģ
Ġm p
à°¿à° ®
³ Û
Ġà®ħ à®°
Ġàª¸ àª°
it Ã©
à¹Ħà¸¥ à¸Ļà¹Į
ĠØŃ Ø³
Ġáĥł áĥĿáĥĴ
h al
è ©
Ġl ap
áĢŃáĢ¯ áĢĢáĢº
áĥ£áĥ Ĺ
è¶ ³
Ġà¤¨ à¤¹à¥Ģà¤Ĥ
Ġæ µ
Ġde g
à¯Īà® µ
áģ ½
æĢ »
ĠÐ¼ Ð°ÑĤ
Ġà¦ªà§įà¦° à¦¤
ãģ¨ ãģĦ
à° ·
èĢ ģ
iy an
Ä £
Ġf et
Ġm ig
Ġa ug
à¤¿ à¤°
ĠB ir
±áĢĲáĢ¬ áĢ·
Ġdes c
Ġan i
ov en
Ġk ah
áĢ¸ áĢĢáĢŃáĢ¯
Ġl and
ê ¹
ë £
Ġt ik
ĠÂ ©
Ã¹ ng
ì¹ ĺ
Ġav ec
6 2
Ġ6 9
Ġáĥ ¦
Ġg ore
Ġinter n
ĠÙĥ Ø§ÙĨ
Ġàªª àª¹
Ġal so
áĢ±áĢ Ĩ
Øª Ø§Ø¨
á» ħ
eb ut
à°¾à°¨ à°¿à°ķà°¿
ĠÙĪ Ø³
Ð¸Ð½Ð¸ Ð½Ð³
áĥĲáĥłáĥ ĵ
Ð± ÐµÐº
s m
à°¿à° ¸à±įà°¤
æĽ ´
ì¹ ´
Ġà´ª à´±
Ð¾ÑĢ Ð°
ĠáĢĻ áĢŃ
àª¿ àª°
à±Ģ à°¸
á» ı
Ġ12 0
áĥĲáĥłáĥ Ľ
ig i
à´ ŀàµįà´ŀ
×ĵ ×Ļ
Ġku i
Ġre f
Ġà¦ §
ÐµÑ ļ
Ġw á»įn
è Ļ
ĠØ§Ø µ
Ġf re
Ġv ari
Ġb ro
ĠU p
ĠF il
ĠB ak
Ñĩ Ð°
Ġà®® à¯ģà®
æ Ĥ
Ã¸ l
Ġ( );
eci al
é¡ µ
à¸²à¸ ŀ
Ð½Ñĸ Ðº
Ġê³ µ
Ġt ers
Ġsz er
ĠE N
Ð½Ð¾ÑģÑĤ Ð¸
ĠÒ ļ
Ġf und
ĠR ev
Ġsh ow
Ġz d
Ġbes te
o ol
Ġq ar
c ion
å¸ ¸
Ïģ Î¿Ïħ
ĀĀĀĀĀĀĀĀ ĀĀĀĀĀĀĀĀ
an za
à¦¿à¦ ¶
ĠS il
an ta
Ġe qu
Ð² Ð°ÑĤ
Ġà¦ ĺ
v u
ĠN u
à«ĩàª² àª¾
à°¾à°¯ à°¿
Ñĥ ÑģÐº
Ġl ist
w y
ĠM u
Ġpr os
Ġl ek
Ø¬ Ùħ
å± Ģ
áĥł áĥĲáĥĽ
Ñĭ Ðµ
Ġj ust
ic es
à¤ «
æĹĹèĪ° åİħ
Ġc il
Ġb isa
ĠÒ ·
Ġà µ
ĠÙĩ ÙĪ
áĥĶáĥĳ áĥļ
ut t
Ġsi ch
ĠM ak
h in
ãģĦ ãģ¾ãģĻ
ar te
Ñĥ ÑģÑĤ
Ġàª¨ àª¹
áĢĽ áĢŃ
Ġen c
al og
P S
ĠØ® Ø§ÙĨ
Äģ ci
any ak
á» ī
if e
ĠÃ¶ z
à°¾à° ¸
Ġph p
ĠO ff
I F
Ġd Ã©
Ġìĥ ģ
Ġáģ į
Ġc Ã´ng
à°¾à° ¡à±ģ
el u
Åĳ l
ĠO m
éĢ ģ
es z
Ġà°ª à±Ĩ
ĠÐº Ð¾Ð»
ung en
è Ń
is ht
Ð¾ÑĤ Ð¸
áĥĶáĥĿ áĥĳ
Ġà¦ıà¦¬ à¦Ĥ
Ġáĥ¡áĥĲáĥ Ļ
Ġë§ Ī
00 00
c tor
áĥĶáĥ ª
Ġ. -
æ ®
Ġà°¸ à°Ĥà°
ou g
Ġl ip
Ġàª¬ àª¨
Ġs ie
à´¾à´ ³
ĠD ep
Ġk Ãµ
àª¿àª Ł
ĠÛ ²
ì¶ľìŀ¥ ìĥµ
áĤı áĢ¯áĢŃáĢĦáĢ¹áĢ
Ġf am
Ġ×ŀ× ¡
Ġv iew
Ð ħ
ĠØ§ÙĦ Ø«
Ġå¤ ©
v Ã¤
Ļ à¯įà®ķ
áĢ¬áĢ¸ áĢĢáĢŃáĢ¯
à¯įà® £
O C
Ġk it
ĠL u
ĠS ol
et u
Ġan s
ĠF ree
st en
æ¥ Ń
op o
ĠÎļ Î±
Ġte xt
ÉĻ c
k k
à¦ ¡
Ð¸Ð» Ð°
à¹ī à¸²à¸ĩ
à¸Ļà¸ ķ
à±ģà° ¡à±ģ
ÙĨØ¯ Ùĩ
ĠØ¯Ø§ÙĨ ÙĦÙĪØ¯
Ġà° «
Ġi y
Ġ9 7
ĠÒĽ Ð¸Ð»Ð¸
ĠâĢ İ
ig o
áĢŃáĢ¯áĢ¸áĢ Ľ
à°ķà±įà° ·
Ġà¸ Ĺà¸µà¹Ī
ĠG er
éĻ Ĳ
ĠÏĥ Î±ÏĤ
à¹Ī à¸²à¸Ļ
Ġi P
ãĥ ī
Ġäºļ ç¾İ
Ġi á¹£áº¹
à¸§ à¹Īà¸²
Îµ Ïģ
ĠÐ´ Ð²
à±įà°² à±ģ
et en
Ð» Ð¾Ð²
íı ¬
Ġb áº¡n
d d
æ »
ĠC ons
z u
è º«
à±ĩà° ¶
à¸Ńà¸Ļ à¹Ħà¸¥à¸Ļà¹Į
Ġk v
us te
Ġm ang
à¸¡ à¸²à¸ģ
áĥĶáĥĳ áĥĲáĥ¡
Ġ×Ķ ×ķ×Ĳ
v ed
** **
ãĤ µ
Ġ$( '
I E
el er
åĲ ĳ
l os
h ur
____ ____
it ate
ĠP at
ĠáĢ±áĢ »áĢķáĢ¬
ĠÙ¾Ø§Ú© Ø³ØªØ§ÙĨ
ĠAr t
Ġs at
Ġw hich
ĠN et
áĢĲ áĢŃ
Ã ®
Ġj ou
ä¼ ģ
é¦ ĸ
ĠÐ½ Ð°Ð¹
Ġà° ¯
Ïİ ÏĤ
ĠP ara
à¸Ń à¸Ķ
ľ áĢ¬
ĠÙĪ Ø±
Õ¸ÖĤÕ ´
6 1
Ġ: :
Ø´ Ø§Ø±
Ø¯ ÛĮ
íĶ Ħ
Û Ķ
Ð½ Ð°Ñģ
m it
à¸Ľ à¸£
Ġper o
à¯įà®¤ à¯įà®¤
à¦¦ à§įà¦
åŀ ĭ
ij as
ĠÎ±Ïħ ÏĦÏĮ
è ±
p u
Ġà¸ ľ
à± ĥ
Ġàªľ à«ĭ
Ñı Ð±
in as
àµĤ à´Ł
ek tr
Ġ) {
á»Ļ i
ÄĽ t
áĢ¬ áĢ¡
Ġv ot
4 1
ÑĨ ÑĨÐ°
n is
à¤¾à¤ ķ
Ġp Äģr
Ð» Ð°ÑģÑĤ
ard s
Ø± Øª
Ġ×Ķ× §
· à§įà¦Ł
ĠÐ¿Ð¾ Ñĩ
es c
ĠÐ¿Ð¾ ÑģÑĤ
ĠB on
v ent
f s
ĠÐĹ Ð°
Ġáĥ łáĥ
çķ Į
Ġn ed
Ġàªª àª¡
Ġå ¿
à«Ģàª ľ
æ¸ ħ
áĤıáĢŃáĢ¯áĢĦáĢ¹áĢ ĦáĢ¶
Ġà°ļà±ĩà° ¸
Ð¸Ð» ÑĮ
áĥĲáĥĽ áĥĵ
Ġ×ľ ×¢
áĢŃáĢ³ áĤķ
y in
Ġit em
áĢ Ĺ
à°¤ à±įà°¤
ä¸Ń åĽ½
ĠáĥĹ áĥ£
ĠåĽ ½
ìļ °
Ðº Ð°Ð½
Ġde b
R A
Ġth i
Ġå ·
ie c
Ġæľ ī
à¯Ĩ à®°
Ġ×ĳ ×ª
Ð¾ Ò³
áĢĺ áĢ°áĢ¸
Ø± Ø§Øª
Ð°ÑĤ ÐµÐ»
g al
Ġçľ Ł
Ñĸ Ñħ
ÙĬ Ùĥ
á»į c
ÙĦ ÙĪ
k ez
åł ´
áĥ ¯
ÉĻ z
Ġàª¹àª¤ à«ĭ
ĠÙħØŃ ÙħØ¯
è¢ «
à«ĭ àª°à«įàª
ĠP i
Ġcol or
Ġn in
ĠG ro
à«ģàª ľ
ĠØ§ÙĦ ÙĪ
g t
ĠP res
à¦¨ à§ĩ
ÅĽ Äĩ
ĠI r
Ġà° ¡
àª° à«Ĥ
Ġìľ Ħ
Ġdi ff
am ba
Ġ×Ķ× ¡
åº Ķ
Ä« dz
o ti
à¦ķ à¦¾à¦°
Îµ Î»
Ġex c
Ð¸ ÑĺÐ°
Ð¾ ÑĦ
ģ áĢ¼
Ä±n dan
v ious
Ġcont ent
ĠâĨ ĳ
Ø§Ø¨ ÙĤ
in ess
à´Ļàµįà´Ļ à´³àµįâĢį
eg i
áĥĺ áĥĶáĥł
Ġà°® à±Ģ
Ð»Ð¸ Ñĩ
Ð½ Ð°Ð³Ð°
ĠØ¨ Ûģ
ÎĻÎ ļ
z at
k á»į
Ġe ine
ĠÎµ Ïħ
Ġl an
ab u
Ã¡ ng
íķĺ ê³ł
æĥ ³
Î´ Î·
æĢİ ä¹Ī
Ð°Ð½ Ñģ
Ġon der
à±ģà°Ĥà° ¦à°¿
ĠÃ µ
Ĩ áĢŃáĢ¯
Ð½Ð¸ Ð¾ÑĤ
or r
Ġà´¨ à´Ł
Ġd im
Ð¸Ð» Ð³Ð°Ð½
ĠS im
ĠP D
ĠØ¹ Ùħ
us u
ĠD om
l is
à®¾à® £
Ð¸ÑģÑĤ Ð¾Ð½
ĠÐ· Ð°Ð¼
in c
ãĥ ģ
à¸£à¸µ à¸¢
ãĥ Ĳ
Ñį ÑĢ
Ð°ÑĢ Ñĭ
Ġà®ª à®Ł
Äħ c
Ġn om
à¦¿à¦ Ł
ä¸ ĸ
Ġàª° àª¾àªľ
ĠS ec
7 3
Ġ äºº
Ġl ah
ĠÒ ²
Ġh indi
Ġsh um
Ġè ĩ
Ġam p
ĠÐ½ Ð¸
Ġàªª à«ĭàª¤
Ļ áĤĪ
áĢ±áģ¾áĢĢ áĢ¬áĢĦáĢ¹áĢ¸
Ġe h
áĥĲáĥķ áĥļ
ra w
áĢĬ áĢ·áĢº
à¤¾à¤ Ī
ï º
ä½ ķ
Ð½ Ð¾Ð¼
Ġd il
Ð°Ð½Ð¸ Ðµ
Ġor ig
Ġz en
Ġn Ãły
Ð¸ ÐºÐ¸
I B
Ġp ay
éĸ ĵ
Ġn Ã¡
à¸Ħ à¸¸à¸ĵ
¹ Û
r z
Ġs ind
áĥĲáĥķ áĥ¡
Ġà¤Ĩ à¤¹à¥ĩ
ĠÐ± Ð¾ÑĪ
Ã ĭ
×ķ× ĺ
Ġm áº¹
à´ ľ
l im
Ġà§¨ à§¦
ĠÐº Ð¾Ð¸
Ú© ÙĦ
Ġà´ ¹
Ġkt Ã³
ah r
ç ı
Ïī ÏĥÎ·
Ġè ®
ik t
áĥĺáĥ£áĥ ł
Ġk os
ĠÙĪ Ùħ
ĠA D
áĢĦáĢº áĢ·
ìŀ Ħ
ĠÐ¿ Ð¾Ð·
ĠØ ¸
ç ĸ
à¸§ à¹Īà¸²à¸
ĠÅ¼ e
ĠÚ¯ ÛĮØ§
à¦¾à¦ ļ
Ġáĥĵ áĥĲáĥĽ
à¸¥ à¹ĩ
Ġtá» «
ĠÎºÎ± ÏĦÎ¬
ĠK h
p an
Ø± Ø³
áĢĬáĢº áĢ¸
ĠBl ack
éĴ Ł
àµģà´ ķàµįà´ķ
Ġàª® à«ĩàª
iv i
Ġáĥ£áĥľ áĥĵáĥĲ
à¦¨ à§ĩà¦°
àª£ à«Ģ
§ à«Ģ
à±įà° ķ
Ġw ork
àµįà´± àµįà´±
Ïħ Ïĥ
ĠÑ Ķ
äº Ľ
ĠÙħ Ø³Øª
ĠÎŃ ÏĩÎµÎ¹
Ġb ad
à§įà¦ ¨
Ġà°® à°°
ï »
ĠÙĨ ÙĪ
Ï Ĭ
Ġà¤¹ à¥Ģ
Ġda ar
ĠÐĿ Ðµ
ÑĤ ÑĢ
Ġau ch
ug h
ĠáĢ»áĢĻ áĢĶáĢ¹áĢĻ
ĠÑĩ Ð°ÑģÑĤ
Ġà¦ª à¦¾à¦°
Ġr as
åŁ º
Õ¥Õ ¬
ĠÃ ³
al Ä±
ĠìĿ ĺ
à¦¾à¦ Ł
Ġp rac
ĠáĢ Ĥ
Ð¾Ð´ Ð¸
Õ« Õ¶
as sa
Ðł Ñķ
Ġà¸ģ à¸²à¸£
Ġà°ķ à±ĭ
à´£ à´Ĥ
Ġpres ent
ÏĦÎ¹Îº ÎŃÏĤ
Ġl ink
áĢ¬áĢ¸áĢ ħ
Å¡ t
Ġpre z
à¯įà® ¯
E G
ÎŃ Î½
ĠPro f
áĢ¯áĢ¶ áĢ¸áĢ
Ġ25 0
ĠáĥĲáĥł áĥĺáĥ¡
Ġe p
li j
ÑģÑĤÐ² ÐµÐ½
8 5
Ġan ti
è¿ ĳ
Ġa ga
ç» Ł
Ġ ^
Ġt ing
pl ay
à« Į
Ġà¦ľ à¦¾à¦¨
Ġp s
tic o
Ġp es
Ġà¸ Ĭ
rat is
ŀ Į
Ġ×Ķ× Ľ
Ġur l
Ġper f
Ġm Ãł
ÑģÑĤ ÑĮ
ie f
Ġà® Ł
ĠÐ± ÑĢ
à«įàª ¨
à¥ ĥ
Ú¾ Ø±
ĠØ§Ù Ĭ
ĠØ§ Ú¯Ø±
ĠÏĢ ÏģÏĮ
å¸ Ī
Ðº Ð°ÑĤÐ°
ĠÐ¼ ÐµÑĤ
à«Ģàª ¸
ĠÙĥ ÙĦ
Ġm ell
à¤ķ à¤°
Ùĥ ÙĦ
eb er
Ñĥ ÒĽ
áĥĲáĥłáĥ Ĵ
Ġal g
ÐµÐ¼ Ð¸
×ķ ×Ļ
Ġàª® àª¾àªĤ
ãģĤ ãĤĭ
G B
ĠI ng
à¦¾ à§ľ
ĠP art
al ik
s g
Ġà´ª à´°
Ġ ą
à¸ļ à¸Ńà¸¥
à´¿à´¨ àµį
Å¡an as
àµįà´ ¸
ĠØ§Ù¾ ÙĨÛĴ
áĢ±áĢ ħ
ĠÐ¿ÑĢ Ð°ÑĨ
Ġit s
7 2
ek i
Ġà¦ī à¦ª
Ġà¤ī à¤¨
Ú© Ø±
in an
Ð»Ð¸ Ð²
Ø§ÙĨ ÙĬ
Äģ t
g b
Ø¬ Ùĩ
à¦¿à¦¤ à§ĩ
±áĢĲáĢ¬ áĢ¹áĢ
Ø§Øª ÛĮ
ä» »
Ñı Ð¼
ÑĤ Ð¾Ð¼
Ġn ou
Ġäºļæ¸¸ éĽĨåĽ¢
ĠÐ² ÐµÑĢ
Ġà´ «
Ġpro t
Ġest Ã¡
à¸±à¹ī à¸Ļ
Ġ×ĳ ×Ķ
àª¾àª¨ à«ĩ
Ġm os
ĠØ§Ø ´
at Äĥ
à¸£ à¸·à¸Ń
Î¯ Î¶
j ak
ĠÏĥÏĦÎ¹ ÏĤ
ĠTr ans
à´¿à´ļàµįà´ļ àµģ
id u
Ġáĥĵ áĥ¦
ĠS on
ĠK os
à¦¾à¦ §
T C
á»ĵ ng
áĢ¼ áĢĢáĢ¹áĢ
Ġàªľ à«ĭàª
Õ« Õ
ĠØ§Ø³ ÙĦØ§Ùħ
è¨ Ģ
Ġm am
Ġb ere
Ġí Į
el et
å¦ Ĥ
áĢ¬ áĢĦáĢ¹áĢ·
ĠS w
à¤¾à¤Ĥ à¤ļ
ĠáĥĹ áĥ¥
à¹ī à¸Ļà¸
ĠÎł Î±
emp re
Î´ Î¹
ÏĮ ÏĤ
Ġma x
ìĦ ¸
Ġà®İà®©à¯įà®± à¯ģ
Ġl is
ĠÎ Ī
Ġac tu
à¸ Łà¸£à¸µ
ä¼ ł
à°¾à° ¡
4 2
ĠáĥĽ áĥ®
ĠØ¨ Øª
áĢŀ áĢŃ
ĠK i
ä½ ł
it os
ist on
ĠÙĨ Ø§Ùħ
è »
æ¬ ¾
Ġm ik
ĠÂ ¿
Ġm ap
Ġà´ķ àµĬ
Ġk ry
Äģk ou
Ùĭ Ø§
ĠC re
Ïĥ Ïī
à¦¿à¦ ®
y tt
Ġb ra
ĠI ST
æİ Ĵ
ĠS ep
à¥ģ à¤²
Ġinde x
ĠáĥĽ áĥĺáĥ
á»ĳ c
9 2
m is
ĠáĢ¡ áĢ²
Ġan o
å§ Ķ
Ĵ Ī
à´¿à´ ¸
ĠÃ¼Ã§ Ã¼n
ir s
ĠA C
à±įà°¨ à°¿
Ġp ed
Î ļ
Ġë į
ä¾ Ľ
Ġp ut
ĠØ³ Ú©
Ġpro te
ĠØ® Ø·
ĠÐ´ Ð¾ÑģÑĤ
é ł
ĠG l
ĠA R
å¾ Ī
å°ı æ¸¸æĪı
áģ ĭ
ãĤ ¦
ìľ Ħ
Ùģ Ø³
ĠN h
Ġdi es
Ġmed ia
Ġiz an
Ġà¤¤ à¥ĭ
ĠvÃ¦ re
å¤§ åıĳ
àª¾àª ¶
áĢ±áĢŀ áĢ¬
ĠáĢ ·
og a
r á»į
aj e
ĠâĢ¦ .
n ic
ed d
Ġ200 4
Ø¨ Ø©
Ã¡ i
ÐºÐ¸ Ð¹
Ġth em
) ,
ĠApr il
ĠNe xt
ĠØ¯ ÙĨ
op le
áĥ® áĥĿáĥķ
ĠÐŀ Ð±
áĢ¯ áĢĽ
Ġor d
ĠÑģ ÐµÑĢ
m ek
áĢ³ áĢŃ
end i
Ðº ÑĢ
ĠÐ¡ Ð¿
Ġ×Ĳ ×ķ
Ġd est
Ġàª¥ àª¯
ĠW indows
ĠÑģÐ» ÐµÐ´
Ã¤ ng
az io
ĠB il
Ġ, ,
ang a
Ġáĥ °
ì¶ľìŀ¥ ìķĪë§Ī
Ġk em
Ġs es
áĥķ áĥĲ
ta a
ÎĹ Î£
Ø² ÛĮ
ĠC he
Ð°ÑĢ Ð´
ÐµÑĤ Ð¸
ĠG ar
áĢĲ áĢ±áĢ¬áĢº
ĠØ§ÛĮ Ø±Ø§ÙĨ
Ġ×Ķ× Ĵ
Ã« ve
en u
ä¸Ģ ä¸ª
ĠS port
Äģ j
d or
I O
Ġs um
ĠãĢ ı
ĠS erv
áĢ±áĢ ķáĢ«
ÈĻ te
à´¯ àµģà´Ĥ
ĠàªĹ àª¯
ĠìĦ ľ
Ġà®ļ à¯Ĭ
Ġáĥ© áĥķáĥĶáĥľ
h as
Ã¨ re
h te
Ġà´ ¡
Ġpr om
ä» Ģ
ģ áĢ¶
Ġma il
ÏĦÎ· ÏĦÎ±
èģ Ķ
r or
è§Ĥ çľĭ
áĢ½ áĢ²
åİ Ł
ÙĬ Ø²
Ġson o
m un
Ġm l
à®¤ à¯į
à¹ĩ à¸ļ
c ol
re z
æł ·
Ġz Ã¡
Ġlang _
ãĥ ĭ
Ġst and
Ġ6 6
Ä ı
ÐµÑĨ ÑĨÐ°
×ŀ ×¨
ĠØ¹ ÙħÙĦ
Ġ×© ×Ĳ
alm ente
Ġ×ľ ×©
ĠÐ¼ Ðµ
à¹ģà¸¥ à¹īà¸§
à¸Ńà¸¢ à¹Īà¸²à¸ĩ
Ġes s
áĥĲáĥłáĥ ¢
es p
h ol
à¦ Ļà§įà¦Ĺ
Ġt ai
Ġl id
Ġel ektr
n t
im ento
æĸ ¯
Ġp le
à®¾à® ±
Ø§ÛĮ Ø¯
Ġê ¹
ĠÐĲ Ð»
Ġa ur
Ķ áĢ²áĤĶ
Ġs ka
Ġw p
{ "
åģ ļ
áĢ± áĢ¸
om s
ie j
Ġl ori
ĠT ak
Ì Ģ
e x
ĠÅ Ľ
ĠS ept
Ð¸Ð¼ Ð¸
Ġe ur
Ġà ¶
ĠÙĪ Ùĩ
à¸ķ à¹īà¸Ńà¸ĩ
ÑĥÐ² Ð°Ð½Ð½Ñı
Ïĥ ÏĦÎ¿
Ð°Ð¼ Ðµ
Ġàªķà«ĭàª Ī
ĠD av
Ġå Ń
in da
ĠAl lah
ê³ µ
Ġm ass
ĠÐ² Ð¾Ð·
ĠÐ· Ð°Ð´
Ġs is
id os
ac ion
el ik
Ġp ens
ib u
Õ¡ ÖĢÕ
ver t
ac ional
å¯ ¼
ÙĦ ÛĴ
ĠáĢ¡ áĢĽ
àª¸ à«įàª¤
Ð¾Ð² Ð¾
ĠM ic
Ð½ ÐµÑģ
Ġsa at
Î¾ Î·
ĠÎ¸ ÎŃ
ĠÄĳ áº¿n
Ġk ay
ĠK an
ĠAzÉĻrbay can
Å£ i
à±įà° ¥
et y
Ġkep ada
à§ĩà¦ ĵ
ĠU N
à¸Ń à¸ķ
ber g
ĠÐ² Ð¸
Ġt et
à¦¾à¦ ģ
Ġì Ľ
à¸§ à¸´
ĠÎ¼ Î¿Ïħ
Ñı Ð·
Ġ, âĢĿ
ĠØ¹ Ø¯
ĠS H
à¸µà¹Ī à¸¢
Ġres ult
Ã§ Ä±
Ġå ¸
Ġáĥ£áĥ ¤
ë§Ī ìĤ¬ì§Ģ
ĠP S
ĠÏħ ÏĢÎ¿
ĠÑĤ ÐµÑĢ
×ĳ ×¢
ĠÙĪ Ø¨
à¤¯ à¤¾
ug ar
ind en
Ġà°¸ à°®
áĥ «
h one
Ð¶ Ð°Ð²
Ġà¤¯ à¤¹
ĠÐ· Ð°ÑĢ
in Ã«
l áº¹
Ġáģ ¿
ĠM ah
Ġ\ /
ĠC al
Ġæ Ĭ
è® °
æ± Ĥ
â ĸ
ÐµÐ½ Ð´
Î¼ Î®
Ñĥ Ð½Ð¸
çĦ ¡
à° Ĺà°¾
un s
ic ia
ĠI k
à§ĩà¦ ®
Ïį ÏĦÎµ
Ġre al
Ġen erg
à¹Ģà¸ Ĭ
Ġn ang
ĠB lu
ĠÙĨ Ø´
Ġà¦ķà¦° à¦¾
Ġpr ost
Ġc ir
è¯ ķ
ãģ Ŀ
Ġg ia
ãģ °
ÙĬ Ø§Øª
ĠÐ´ ÑĢ
ĠJ os
c ul
Ġd h
ĠÐ½ ÐµÐº
åħ Ī
j al
Ġd id
Ùħ Øª
Ġan al
à° ¶
Ġj y
à¹Īà¸²à¸ ¢
Ê» e
à¹Ħ à¸Ĺà¸¢
O G
9 7
å®¶ ä¹Ĳ
ĠÐ¶ Ð¸Ð²
er ne
Ġst at
Ò³ Ð¾
ĠÒĽ Ñŀ
Ġp et
ĠØ§ÙĦ ÙĬ
f ik
ĠÑĤ Ñŀ
Ġsist em
il t
Ġprof ess
Ġt ari
ĠÐ£Ðº ÑĢÐ°ÑĹ
Ġh ai
áĢĶáĢ¹ áĤĶ
à¦¾à¦ ĵ
áĥĿáĥłáĥ ª
ĠÐ´ ÐµÐ»
s ite
×ŀ× ª
Ġw ana
Ø¹ Øª
Ã¶ t
Ġà®ķ à®Ł
à¸« à¸¡
in ya
Ġv en
Ð½Ð¾ Ðµ
íķ ł
Ġk im
ĠH ol
Ġà®ĩ à®¤
Ð¼ Ð°Ð½
d ÉĻn
à´µ àµģà´Ĥ
à¯Īà® ªà¯įà®ª
áºŃ p
Ġd aha
åħ ī
Ġar Ä«
ãĥ¼ ãĤ¹
Ġ, .
Ġv ez
j an
àª¾àª° à«ĭ
ĠL ib
ĠÃ İ
ÚĨ Ú¾
áĥĲáĥķ áĥ¨
Ã¥ l
Ġre z
j ar
Ð»Ñİ Ñĩ
Ġh eb
Ġo lar
Ġë Ĳ
Ġc op
c r
ì ¡°
ĠÎ± Î»Î»Î¬
Ġí Ķ
áĢ¬ áĢĻ
áĥľ áĥĺáĥ¡
Ġk Å«
ÅĤ y
ĠD it
Ġè µ
ad u
T E
ir t
Ġé Ŀ
åı Ĺ
Ñĥ Ð´Ð°
ĠF ebru
Ġtit le
st ra
ê ´Ģ
ĠNE W
Ġk um
Ĭ é¾Ļ
áĢĢ áĢ¯áĢŃ
ĠÐİ Ð·
à¯Īà®¯ à¯ģà®®à¯į
àªĤ àªķ
Ġus e
àµĨ à´Łàµįà´Ł
og bo
ãģĦ ãģŁ
Ġdat ing
ĠáĢĻ áĢ¼
à¦¿à¦ ¦
f el
ĠH y
Ġv á»ģ
íĸ ī
ëŁ ¬
à¥įà¤ ª
ow o
ĠV is
Ġag o
è¦ ĭ
ç¾ ¤
Ġl oa
Ġett Ã¤
ig an
áĥł áĥĺáĥ¡
Ġg eb
éĹ ®
áĢĲ áĢ®
Ġb ers
Ġd ell
à¹ī à¸³
à¥ĩà¤ Ł
ĠInter n
åĪĨ å¿«3
Ġaut or
ê¸ Ī
Î¯ ÎµÏĤ
×ĵ ×¨
Ġàªı àª®
Ġm ont
å·¥ ä½ľ
Ġ8 3
Ġr ah
ĠS ur
Å© ng
ĠáĢ±áĢ ľ
ãĥ¼ãĥ «
ìŀ ħ
Ø¹ Ùĩ
áĢĶ áĢŃáĢ¯áĢĦáĢº
ĠØ¨ ØŃ
ĠáĥĽ áĥĹ
Ġr ak
ĠØ³ Ø§ØªÚ¾
ÑĥÐ»ÑĮ ÑĤ
y at
ab e
is mo
oh l
å ĥ
ti a
Ġs iz
m eld
Ġs uc
ĠÐ· Ð²
ãĤĪ ãģĨ
Ġb ang
æ ¹
» áĢĸáĢħáĢ¹áĢ
ĠS et
ĠÙĦÛĮ ÛĴ
lig t
ĠÏĥÏĦÎ¿ Î½
u en
f ul
è ĳ
ĠáĢ±áĢ Ļ
ĠS en
ÃŃ r
Ð¸ÑĤ Ð¾
çĽ Ł
Ð½ Ð¾ÑĤÐ¾
æĬķ æ³¨
à°° à±ģ
ãģ« ãģª
ĠlÃł m
ĠV e
à¹Ģà¸ ļ
Ġá ¼
ĠB ur
Ġw ho
Ð¼ ÐµÐ½
iyy ÉĻt
Ġà® ľ
w ay
Ð½ Ð¾Ð³
ĠE S
p at
à¤¹ à¤¾
ĠS em
à§įà¦ ķ
à§ °
ut at
Ġàª¸ àª¾àª®
íķ Ļ
Ġáĥ® áĥĶáĥļ
à«ĭ àª¨
A d
åħ ¶
l ia
Ġn ost
áĢĳ áĢ¬áĢ¸áĢ
ĠÂ µ
m y
à®¿à®± à®¤à¯ģ
Ġdoc ument
Ġà®ħ à®®
à¤Ĥ à¤Ĺ
àµĩà´ ·
in te
ìķ ½
Ġ×ľ ×¤
ç§ į
Ġo or
Ïģ ÎµÏĤ
ĠÎ´ Î¹
Ġfir st
à´¦ àµįà´
ĠO f
Ð½ ÑĥÑİ
è¯ ·
ëª ħ
à§ĩà¦ ¬
c c
Ø« Ø±
áĢ» áĢĻ
Ġfor ma
æİ ¨
Ġrev iew
áĢĲ áĢŃáĢ¯áĢ·
×ł ×Ļ×Ŀ
Ġæľ Ģ
à±įà° ¡
ĠÙĪ Ùİ
Äĵ m
Îĳ Î£
Ġà´ Ī
Ġáĥ¡ áĥ¢
ĠØ§ÙĨ Ø¯
ÑĢÐ°Ñ Ħ
im et
Ġm un
à°¿à° Ĺ
à®® à®¾à®ķ
Ð¸ ÑĦ
ê² ½
ĠU l
Ġà®ª à®¿à®°
x a
Ġí Ĩ
AN D
ÑģÐºÐ° Ñı
Ãº bl
Ø§Ø¹ Øª
ÏĦ ÏīÎ½
ubl ish
Ġâ ľ
Ġàª¤ à«ĩàª
ãģķ ãĤĮ
ĠÐµ Ðº
Ø§ÙĨ Ø¯
Ġpi Ã¹
Ġag åĽ½éĻħ
Ġ] .
U D
Ġk ami
ĠáĢ± áĢĢáĢº
æ° Ĺ
ir l
æī ĵ
ĠàªĨàªµ à«Ģ
is ke
it ed
ĠD ar
ÐµÐ´ Ð¸
ĠáĢģ áĢº
ĠÐ¼ Ñĸ
Ġàª¹àª¤ àª¾
ãĥ ĸ
Ã¢ m
à¥įà¤ ķ
Ġsp ort
ĠC ap
áĥĿáĥ Ļ
àª¿ àªĤàªĹ
f ar
Ġ7 7
àªµ à«ģàªĤ
Ġä½ Ĩ
ĠÑģÐ°Ð¼ Ð¾
àªµàª¾àª¨ à«Ģ
à¸Ļà¸ ´
ÉĻ ri
ĠØª Ø´
Ïĥ ÏĦÎ±
Ġìķ Ī
ĠB ro
Ġ100 0
con om
ĠÚ©Ûģ Ø§
ĠÎ ¥
ÛĮÙĨ ÛĮ
\ "
c is
à´ķ à´°
Ġp il
åĪĨ éĴŁ
à¸µ à¸ģ
Ð¿ ÐµÑĢ
Ġ8 9
Ø§Ø± ÙĬ
ir es
ĠÐ´ Ð¾Ð¼
à¹īà¸Ń à¸¡
áº¥ y
à¥įà¤ ¸
Ġkw enye
àª¤ à«ĭ
à¤¾à¤ ĩ
Ð¸Ð· Ð²
ĠÐ½ Ð°Ñĺ
Ġ×ĳ ×¨
Ġit o
Ð» ÐµÐºÑĤ
Ø§Ø ©
ell en
¦ Ĥ
g ang
ĠA ss
Ġ á»Ł
Ġdo or
Ġk ahi
ãģ¨ãģĦ ãģĨ
ĠÃ¼ z
åĪ Ĺ
am er
Ġæ ²
and er
ĠÃ ĺ
ÑģÐº Ð°ÑĤÐ°
k al
ĠÙĤØ± Ø§Ø±
Ġz n
Î¼ Î¹
à¸³ à¸«
Ġt ash
Ñĭ ÑĤ
Î³ Î³
Ġo ther
ĠÐ´ ÐµÐ½
éľ ¸
æ Ĳ
Ä« bu
áĥĿáĥłáĥ Ľ
ĠP C
áĥĲáĥ ŀ
ĠØµ ØŃ
Ġæ °
Ġì ¡°
Ïĩ Î¿ÏħÎ½
Ġr Ã©
Ġop p
ud io
Ġc ur
à§įà¦ ļ
ÎŁ Î£
ĠáĢľ áĢĢáĢ¹áĢ
è¿ ĺ
à´® à´¾à´¯
ĠØ¨ Ø¹
ab or
ĠV a
lÉĻ ri
il gan
å Ħ
Ġme er
Ġc áº£
Ġr ap
à§ĩà¦Ľ à§ĩà¦¨
ĠL ED
Ð¸Ñı ÑĤ
á»ĩ u
×ľ ×Ļ
c as
ĠÑĥ Ð¼
ãĤ Ń
ĠÐ¿ÑĢ Ð¾Ð²
ĠAug ust
as jon
Ø§ÛĮ Ø´
st an
q q
ing i
if ic
Ġä» Ĭ
Ġl ong
Ġà° ²à±ĭ
Ġàª Ī
iy or
ĠO ne
ĠT Ã¼rk
Ġà°ķ à±Ĥà°
ĠP as
O W
Ð± Ð¸
Ġä» ĸ
Ð² Ð°Ð»
ãģĤ ãĤĬ
I Z
ut u
Äį nÃŃ
ow y
Ġä¸ Ĭ
ì ¦
un ci
ĠS M
ĠH et
ĠáģĤ áģĢ
ĠÐ± Ð¾Ð»
Ġs ik
Ġêµ ¬
Ġt áº¡i
Ġà¸ ĭ
ĠØ¹ÙĦ ÛĮ
Ġà¹Ģà¸ ŀ
Ġà®µ à®¾à®
à®ª à¯į
ÑĥÑĢ Ñģ
Ð½Ð¾ Ñģ
Ġi h
ĠÐ± Ð¸Ð´
ĠâĢľ ,
Ġt w
ãĤ į
ot os
Ġmas k
ri end
Ð» Ð°Ð³
Ñī Ð¾
áĢģ áĢ«
um at
ik ip
t at
ãĥ ĩ
Ġ. [
Ġk ok
Ġb is
el f
Ġwh en
ĠÐ¾ Ñĩ
ĠG od
Ġg ay
×ķ× ŀ×
à¦°à§įà¦ ¬
Ġcom pr
ĠáĥĽ áĥĲáĥĹ
sk ap
ĠT H
ĠØ® Ø¨Ø±
) )
×ķ×ł ×Ķ
çľ ģ
ĠÐ¿ÑĢ Ð¾ÑĤ
Ġì¹´ ì§Ģëħ¸
à°¿à° ¸
ĠT w
x s
ĠØ¬ Ùĩ
à«ĩ àª¨à«įàª
ä» ·
Ġ7 9
àª¤ àª¾àªĤ
ĠáĥĻ áĥĿáĥĽ
el is
Ġn inu
Ġb ona
æ° Ķ
éĿ ŀ
Ġsp ec
d et
è® º
Ġpl ay
ĠH al
Ġt ent
ĠÑĢ Ñį
ativ a
à¸± à¸ķ
Ġst ar
ĠØ¨ Ø®
Ġr en
ĠâĢ ¬
ĠÑĤ ÐµÑħ
y c
Ġk Ã¼l
ĠÑĤ Ð°ÑĢ
Ø Į
×ķ× Ķ
Ġoh un
Ġm id
Ġwh at
ÐºÑĸ Ð²
ĠÐ¼ Ð¾Ð´
ĠÐº Ð¾ÑĤÐ¾ÑĢ
ad ores
ĠÙħ Ø«
íĶ ¼
Ð· Ñĸ
áĥĵ áĥĶáĥĴ
ĠÐ´ Ð¾Ðº
Ġà®ª à®¾à®°
ĠpÅĻ ÃŃ
æģ ¯
Ġáģ ¾áĢĢ
Ãª u
n ost
æľ ¯
Ġ×ŀ× §
Ġf Ã¸r
áĢķáĢ¼ áĢ®áĢ¸
Ġàª¹àª¤ à«ģàªĤ
ĠE v
Ġb ab
Ø§ÙĦ Ø¨
r ie
å ©
áĥĵ áĥĶáĥĳáĥĲ
ĠÙĦ Ø¦ÛĴ
ĠÐ· Ð½
×© ×Ķ
5 9
Ġv l
Ġs unt
Ġd ara
o on
Ġà¤ħ à¤¸
Å« t
Ø§Ø³ ÛĮ
ĠÑĤ ÐµÐ»
ç ¡
Ġëĵ ±
Õ ¨
à¸± à¸¢
Ġg az
Ġà®ĩà®° à¯ģà®ķà¯įà®ķ
ç© º
ĠØ¬ Ø¨
Ġty pe
m Ä±ÅŁ
s l
ĠÐ´ Ð¾Ð»
O B
op a
m ay
Ġ8 7
Ġmak s
it el
à´¤àµįà´¤ à´¿à´²àµįâĢį
í ģ
Ġor i
áĢ¼ áĢ¸áĢ
Ġn ar
áĢļáĢ¹áĢ ·
it Ã¤
Ġs he
ÑĥÐ²Ð° Ð°ÑĤ
Ġa di
ĠF a
Ġo ma
ãģĦ ãģ¦
æĮ ĩ
Ġà¤ķ à¤¾à¤°
Ġáĥ¡áĥĲáĥ¥áĥĲáĥłáĥĹáĥķáĥĶáĥļ áĥĿáĥ¡
ĠØ¨ ÙĬÙĨ
Ġqu an
ic os
ĠÕ §
Ġà¦¤ à¦¿à¦¨
Ġcl ass
Ġp Ã¤
Ġaut o
p á»į
æľĢ æĸ°
x y
å¼ º
am en
ĠØ§ÙĦÙĦ Ûģ
Ġde f
à¦° à¦¾
A Z
Ġn Ã¥
áº ±
à«Ģ àª¨
z ia
àµģà´ °
Ø§ÙĨ ÛĴ
ĠA P
ÙĨ Ùĩ
ung an
áĥĺáĥľ áĥĲ
Ġs ana
Ġæŀ ģéĢŁ
áĢĻ áĢ¬
Ġ×Ķ ×Ķ
à¤ķ à¥Ģ
ÐµÐ½ ÑĤÐ¸
id es
ĠM ot
åĳ Ĭ
Ġu 00
Ġà®ª à¯Ĭ
Ġmak e
Ġob j
ec tor
Ġs atu
ĠK ur
Ġï¼ Ľ
ĠC ity
à¥ĩà¤ µ
Ġ×ľ ×ĳ
Ġs áº½
iz o
ap t
ĠPor no
Ð» Ð°Ð¼
ĠÎľ Îµ
Ġd y
Ø§Ø¦ ÙĦ
ÙĦ ÙĤ
ÑĢÑĥ Ð¿
h s
áĢ¼ áĢĶáĢ¹áĢ
à´¾à´ ķ
ĠP an
r um
áĢ½ áĢº
ĠìĬ ¤
áĢŃáĢ¯ áĢĦáĢºáĢ¸áĢ
ĠB us
ì ¶Ķ
ĠÐ° Ð¿
Ñĭ Ð½
áĢĶ áĢ¬
id ir
at zen
à¸¸ à¸ģ
st and
Ð¾Ð»ÑĮ ÑĪ
Ġ9 6
ê² ©
Ġd á»¥
ib a
à¸ģ à¸±à¸Ļ
Ġbl ock
ÏĢ ÎµÎ¹
Ġàª¦ àª°
à«ĩàª ¡
Ø³ Ø±
ĠåĪ Ĩ
ç ¢
ip as
ĠÐº Ð°ÑĤÐ¾
Ġf av
Ġà¤® à¤¹
Ġ8 2
Ġinc l
un an
ĠØ Ľ
w at
Ġu Å¾
ici Ã³n
f l
Ġcom ment
ĠS eg
ìĹ Ń
Ġw el
Ġ á»Į
r d
Ø§Ø± Øª
áĥķ áĥĺáĥĹ
5 6
Ġl ive
ĠÐ¾ Ð»Ð¸
Ġc li
Ġv ideos
nos ti
ç Ĺ
ĠCh ina
Ġef ter
Ġth ere
el ig
Ġ200 3
éĢ ł
í ĴĪ
Ø§ÛĮ Ø§
Ð² Ð°Ð½
à´¿à´ ®
Î¿Ïį Î½
uh an
Ġc os
ĠÄĳ Ã³
ÑĪ ÑĤ
Ø§Ø¯ Ø©
æĪ ¿
j at
Ġk uk
ĠáĥĻ áĥĺ
Ġmin ut
Ù °
ĠÙĩ Ø°Ùĩ
ŀ áĢĬáĢ¹
ĠØ· Ø±ØŃ
n ess
æĺ Ł
ĠÐ½ Ð°Ñĩ
Ġyo o
ip e
Ġs ou
Ġp am
å Ķ
Å¡ u
Ġfin an
Ġgi Ã¡
ĠáĥĽ áĥĿáĥĽ
Ġh ou
ĠÐ¼ Ð¸
Ġar g
Ġáģ ģ
ĠÐ³ Ð¾ÑĢ
ÏĪ Î·
ĠJan uar
Ġà®¤ à®®
áĥĶáĥ Ļ
à®¿à®° à¯ģà®¨à¯įà®¤
n olog
Ġj et
la ÅŁ
Ġl ing
el or
ĠáĥĽ áĥĲáĥ¡
Ġan ak
ĠØ§ÙĦÙħ Øª
er ta
ĠØ´ ÙĪØ¯
ĠÎ¾ Îµ
Ġprof es
Ġb ay
ĠÐĺ Ð½
áĢ¯ áĢĶáĢº
ëĲ ĺ
Î¸Î· ÎºÎµ
ĠÐ¸Ð½ ÑĤÐµÑĢ
h em
á»ĥ n
Ġä» ¥
Ġáĥ¡ áĥĲáĥ¡
à°Ĥà° ļ
Ġap a
Ġa ff
ĠáĢ±áĢ ĲáĢ¼
ÑĨÐ¸ Ð¸
Ġìŀ Īëĭ¤
Ġk ind
u el
Ġnh Ãł
ÙĨ Ø©
ac t
ÐµÑļ Ðµ
Ġà°µ à±Ĩ
Ġj ob
ist o
ØŃ Ø©
Ġà¦ľà¦¨ à§įà¦¯
Ġaqu est
àª¾àª ¥à«Ģ
à´¿à´² àµģà´Ĥ
à¦¨ à¦¾
ãĥ ł
Ġàª¸ à«įàªµ
à®ļ à¯įà®ļ
à§ Ī
à±ĩà° ¸
ĠÐ¾ Ð²
ĠA T
ĠU m
ĠÐ´ÑĢÑĥ Ð³
Ġkon s
ĠL eg
lar ni
ç ¶
Ã Ĳ
Î¼ ÏĨ
U B
j uk
Ġà®ķ à¯ģà®±
et ta
Ġæĺ ¯
æ± Ł
æĶ ¶
Ñĥ Ð³
ìĺ ģ
Ġà®¨ à¯Ģ
à¸Ń à¸²à¸
ãĤ ¸
Ġm ens
à¯įà® ¨à¯įà®¤
ÙĬØ± Ø©
og ra
Ġya ÅŁ
ĠSept ember
à¨¾ à¨
ĠÙĨ ÙĤ
Ġcon tr
ĠP od
ĠI P
ĠNov ember
ä»Ģ ä¹Ī
áĢĲ áĢħáĢ¹áĢ
ĠÑĤ Ð°ÑĬ
à¹ī à¸²à¸Ļ
Î¹Îº Î®ÏĤ
ĠD ire
Ġ< /
ti fic
ÑĨ Ð¸ÑĤÐµ
Ġm ula
Ġl á»į
ãĥ Ł
ĠInter net
Ġm ab
ĠU s
p ap
à¤Ĥ à¤¦
ÐµÑĢ Ð°
y pe
Ġan im
if t
æ² »
ĠãĤ ¹
Ġi á¹£
Ð ¥
Ġha u
z k
Ġt um
ãģ Ķ
Ġshum Ã«
å· ²
Ġh alam
Ġs ize
l ab
Ð¼ Ñĥ
is c
ning en
Ġæ ķ
Ġm Ãµ
à¦¬ à¦¾à¦°
ĠØ± ÛĮ
ãĥ³ãĤ °
Ġh od
k ing
à°¾à° ª
àµģà´ķ à´³
ĠáĢ±áĢ Ĩ
ĠìĨ Į
ĠC u
Ġ8 4
Ġn j
è½ ¯
y cz
Ġ19 0
àªĽ à«Ģ
ĠF re
Ġl ast
ĠÐ¿ÑĢ Ð¾ÑģÑĤ
ĠJ ak
Ġtel ah
Ġma in
à¦¸ à§įà¦¥
Ġå¤§åıĳ å¿«ä¸ī
Ã² ng
Ġdi fer
àª¿àª¯ àª¾
ist an
Ġhel p
c at
ÙĪ Øµ
ÏģÎ¿ ÏĤ
r ess
Ġm ov
g in
Ġv agy
ÏĦ ÏİÎ½
un un
Ġun ivers
é ¤
ĠL as
ãģ ĺ
ÙĪ Ø§ÙĦ
ov at
Ġ6 7
ĠáĢ»áĢĻáĢĶáĢ¹áĢĻ áĢ¬
en ia
çĪ ±
Ã¶ d
æ² ¡
Ġh id
Ġbe i
ĠáĥĲáĥ ķ
ĠÙĤ Ø¨ÙĦ
ĠÕ ´
Ġt or
Ġ ill
ch es
ĠM ac
Ġt ud
ĠÛģÙĪ Ø¦ÛĴ
Ġm ÉĻ
àµģà´ ª
Ġàªµ à«įàª¯
à´¾ àµ»
Ġàªµ àª¾àª¤
áĢĲ áĢŃáĢ¯áĤĶ
Ġf ran
à¹Ģà¸ Ħà¸£
à®£ à¯įà®£
à§ĩà¦ ¸
è İ
Ð°Ð² Ð°Ð½
Î¼ÎŃ Î½Î¿
áĢĲ áĢ°
áĢĢ áģ
Ġáģ ĥ
áģ¿ áĢĻ
et sa
S t
ĠF e
æĭ Ľ
ĠÑģ ÑĢÐµÐ´
Ġf oi
Ġsom e
Ġn ame
m ark
Ä« v
äºī éľ¸
Ġáģ Ģ
Ġbe f
à®¿à®² à¯įà®²
op h
Ġæ ¯
áĥłáĥ «
àªŁ àª²
Ġg am
Ġ6 3
Ġf em
m á»į
Ľ áĢ½áĢŃ
ĠS ta
Ġ7 2
ë Ħ
Ġd ownload
Ãº s
z ar
Ä ©
ĠÑĤ ÑĥÑĢ
l k
ĠâĢ ı
ĠC ont
áĢĢáĢ¹áĢ Ģ
Ġc ost
à°¾à° ¬
n Ä«
Ġd ro
Ġàªµàª°à«įàª ·
Î¯ Îº
½ Ķ
à¹Ģà¸ Ħ
ning s
Ġç ¾
Ġà´ ķàµįà´
Ð¸Ð´ Ð°Ð½
al th
Ġc Å©ng
Ġìľ ł
ãĥ §
ĠÐĳ ÐµÐ»Ð°ÑĢ
ÑĢ ÐµÐ±
Ðł Âµ
Ġpl at
Ġç ī
Ġj ar
ê ŀĮ
à¦¾à¦¬ à§ĩ
é£ İ
ĠM el
Õ¸ÖĤÕ ©
Ġà¸ ¢
Ġem pres
ol g
Ġ" >
à¸¥ à¸ĩ
ĠPre vious
Ġà®¤ à®¿à®°
Ġk ra
Ġ×Ķ× ĵ
Ø§Ø± Ø©
Ġed il
Ġa sk
st o
Ġh ele
lÄ± k
Ø§Ø± Ø§Øª
v ik
Ġ' );
â ķ
å® ¹
Ġm ur
5 2
Ġdis c
åħ ±
Ġas i
lar da
Ġs ua
Ö ¼
Ġæ ±
Ġs end
Ġd ay
Ġy il
Ġjan Ã«
Ġàªª à«Ĥ
Ã¡ b
Ġà°Ĵ à°ķ
Ġsyst em
Ġku f
Ø¨ Ø§Ø¯
Ñĭ Ñĸ
Ġfr Ã¥n
Ð» Ð°Ð¹
à°¤ à±ĭ
ad em
Ġâ ĩ
5 7
Ġth an
Ġl ine
ĠP ublic
ĠÐ¼ ÐµÑģ
Ġ î
oc a
ä¸ ĵ
à¸´ à¸ĩ
Ġg ev
f Ã¶r
×¨ ×ª
ĠÐĲ Ð½
Ġn ow
Ġe ver
åĨ Ľ
Ġà°ī à°¨à±įà°¨
áĥĺáĥ¨ áĥķ
è Į
æł ĩ
åį İ
áĢĲ áĢ±áĢ¬áĢ·
áĥĲáĥª áĥĺ
Ġm ani
Ø´ ÛĮ
Ġs ht
ĠR ob
à´¾à´ §
ĠÐŁ ÑĢÐ¸
Ġ8 00
Ġw ie
à¯ĩ à®©à¯į
v ad
our s
åı¯ ä»¥
áĥĲáĥļ áĥ£áĥłáĥĺ
ĠÙĪØ² ÛĮØ±
ÑģÐºÐ¸ Ð¹
ãĤ °
Ġs ent
Î¿Ïħ ÏģÎ³
elij k
el m
Ġu pp
Ïģ Î¯Î±
Ġq e
ĠÎºÎ± Î¸
Ġf oto
à¦ Ľà§ĩ
áĥĲáĥ «
w ai
à¤ķ à¤¾à¤°
áĢ¼ áĢ¬
ĠP ark
Ġ×ľ ×Ĺ
à¥įà¤ ¦
ĠÐ¹ Ð¸Ð»
Ð°ÑĤ Ð¾ÑĢ
ĠÑĤ Ð°ÑĪ
en en
n Ã½ch
ov i
Ġp on
ĠT im
à´¤àµįà´¤ àµĨ
yd d
íķ ©
Ġáĥ¡ áĥ®áĥķ
Ã¸ d
ĠØŃ ÙĤ
Ãº c
áĢĲáĢ¼ áĢĦáĢ¹
ĠIn form
åŃ Ĺ
Ð°ÑĢ Ð°
Ġç ½
ĠC amp
Ġne i
ìĿ´ ëĭ¤
Ġ ä¹
Ġne ed
ĠÑ Ĺ
ĠF i
ĠàªŃ àª¾àª°
ĠW i
Ø±ÛĮ Ú©
áº «
áĥ£áĥ ¡
Ð¾Ð· Ð¸
Ġtod o
Ġà¤ §
áĢŀ áĢ¬
ìĭ ¤
à¥ĩ à¤²
Ġàª¨ à«ĩ
ĠR us
Ġinf o
Ġë ¹Ħ
Ġcont ra
Ġind iv
Ã² n
ez e
ir k
ĠØ§ÙĦØ° ÙĬ
Ġà´ ĵ
ë° Ķ
à°¦ à±įà°¦
Ġil i
Ð°ÑĤ Ðµ
per ti
Ïĩ Î½
Ġc um
áĢ ī
Ġh Ãłng
ĠÚ¯ Ø§
ĠvÃł o
r Ã¥
q ar
ë© °
æ ©
Ġseb agai
Ġb os
Ã´ n
ĠãĤ ¢
¬ áĥ§
Ġl agi
à«ĩàª² à«Ģ
Ġm ong
Ġàª²à«ĭàªķ à«ĭ
à¤¾à¤ ¬
Ġdes ign
Ġsp an
Ġb osh
ĠT R
áĤĢáĢĢ áĢ®áĢ¸
Ñı Ð³
Ø· Ø©
áĥĺáĥ ¥
Î» Î¹
à§Ģ à§Ł
r ic
ĠáĥĽ áĥĿ
ĠÄĳ á»ĭ
Å¡ ana
à§ĭ à¦°
à¦¾à¦ķ à§ĩ
il li
ĠSup er
Ġgr an
u at
áĢĢ áĢ¬
å¾ ĭ
Ġde y
ĠÐŀ ÑĤ
Ġ Ø§Ú©
Ä« j
ĠÚ© ÙĦ
Ġl en
Ġà¦ı à¦°
Ġh iyo
ĠÑģ Ð¾Ð±
ìĦ ł
à¦¤ à¦¿
áĢĳ áĢŃ
Ġres ta
áĢ¯ áĢĶáĢ¹áĢ¸
æµ ĭ
Ġs ens
à¸¥à¹ĩ à¸Ńà¸ķ
Ġ6 2
ĠØ³ Ø§Ø²
Ġ×¤ ×¨
à®¿à®© à¯įà®±
Ġt ap
Ġà°ª à±ĭ
v ÃŃ
Î¯ Î¿
áº¹ n
ìĥ Ŀ
Ġà°µ à±įà°¯
Ġà®ĩà®° à¯ģà®¨à¯įà®¤
Ġk ed
uk i
m p
es tiv
ĠØ³ Ùħ
il y
ĠØ§ÙĦÙħ ÙĨ
áĢľ áĢ¯áĢķáĢ¹áĢ
Ļàµįà´ Ļ
z z
ĠMa x
Ġ? ??
Ġab s
Ġh ome
à«įàª §
is che
Ġç ¬¬
ç ¯
ĠP et
Ġì¶ľìŀ¥ ìķĪë§Ī
áĥĿáĥ ¢
à¸Ļà¸ §
Ġà´ ı
Ø§ÙĤ Ø¹
áĤ ĩ
Ð» ÐµÐ¼
àªµ à«ĩ
Ġp em
t et
ĠÐľÐ°Ðº ÐµÐ´
o e
áĥł áĥĿáĥ¡
Ġqu y
áĥ£áĥ ¨
ag ram
Ġmom ent
Ġà®® à¯ĩ
Ġà¤² à¥ĩ
ĠB est
áģ µ
l á»į
ip s
± áģ¾áĢĢ
Ġ×Ĵ ×Ŀ
Ġz am
Ġì ¢
ĠáĥĹ áĥĲáĥľ
Ġà¤ķ à¤¿à¤¯à¤¾
Ġm k
Ð°ÑĤ Ð¸Ð²
ÉĻ f
n as
U P
Ġse p
Ø§Ø´ Øª
Ġbe en
ÐµÐ³ Ð¾
z ione
ĠÑĤÐ¾ Ð°
ic z
it us
Ġst yle
Ġnhi á»ģu
éĿ Ĵ
Äģ Ê»
Ġà¹Ģà¸ §
Ġn ui
Ġo v
Ġà®ķà¯Ĭ à®£à¯įà®Ł
ĠS eb
ĠK as
ä¼ ĺ
ãĤ »
on der
Ĥ à¦²
æ¬ ¢
åĭ ķ
ĠáĢģ áĢ¯
ĠåĪ ©
Ġà¤¹ à¥ģà¤
Äĵ c
Ãº n
Ġg ew
à«Ģ àªĤ
for ma
od o
x o
ĠÎĳ Î½
Ġun s
Ġng hi
à§įà¦ ¡
áĥĶáĥ ĸ
Ġna ch
b ir
ĠØ£ ÙĬ
Ùģ ÛĮ
Ã©r t
Ġre qu
Ó Ļ
àªĤàª ¡
ĠÑĥÑĩ ÑĥÐ½
ung u
ĠÐ´ Ð¾Ð¿
Ġ11 0
Ùĥ ÙĪÙĨ
Ġp ic
ĠN y
à¸ł à¸²à¸ŀ
à¥ĩ à¤¤
Ð¾Ð½ Ð°Ð»
ĠáĥĴ áĥķ
ê± °
Ġ×Ľ ×Ļ
Ð° Ðµ
ãģ§ ãģį
Ġv z
ĠG a
Ð¾ Ñħ
ç Ĭ
ĠÐ¢ Ð°Ðº
Ġh ow
Ġtr Ãªn
e ft
Ġk ell
Ġáĥ£áĥ Ļ
ãĥ¼ãĥ Ī
Ġ$( "
ĠáĢľ áĢ¯áĢķáĢ¹áĢ
Ġke h
Ġp ili
ģ áĢ»
ÐµÑĪ Ðµ
Ã³ g
à±ĩ à°ķ
áĢĽ áĢ²áĤķ
Ġáĥĺáĥ§ áĥĿ
ĠIn n
àµĨà´¨àµįà´¨ àµį
Ġl áº¡i
¯ ¼
ĠÐ¼ Ð¸Ð½
ĠM ul
é¦ Ļ
Ġà¦ķ à¦¾à¦°
b ul
Ġsa id
Ġgo od
Ġd ivers
ëį °
Ġà¤ħ à¤¨
Ġmenj adi
åĮ Ĺ
à¥ģ à¤¨
ent er
Ġver y
áĢ¡ áĢħ
p ad
Ġs yn
Åĳ s
ĠMar ch
Ð¾Ð² Ðµ
ĠÐ³Ð¾Ð´ Ð¸Ð½Ð°
Ġoldu ÄŁ
à¸ª à¸¸à¸Ķ
Ġf ost
il eng
Ð°ÑĤ ÑĥÑĢ
è ı
áĥĺáĥ ¤
áĢĦáĢ· áĢ¹
ç ħ
Ø¯ Ø§Ùħ
ìĭ Ŀ
Î² Î±
ĠØ§ÛĮ Ø³
P art
ir en
àµįà´ ķàµįà´ķ
ç ·
es se
Ġ ÉĶ
Ġw ere
Ã¤ s
Ġmod el
Ð¾ Ðµ
áĢ¬ áĢ¹
Øµ Ø±
ĠS ub
Ñĸ Ð±
à¹ģ à¸ļà¸ļ
Î»Îµ Ïħ
ì Ļ
Ġdel le
ult ura
Ġv Å¡
ĠÙħ Ø±Ø¯
à«įàª ļ
ĠÐ¼ Ð°Ð³
ond o
Ġr in
Ġb az
ĠD ownload
Ã¼ y
Ġ×ķ ×ŀ×
ÏĢ Î¹
ĠvÃµ i
t em
æ ħ
ing iz
is me
Ġh j
Ġup ang
Ġmo et
Ð±ÐµÐº Ð¸ÑģÑĤÐ¾Ð½
Ð°Ñİ ÑĤ
ia p
áº »
Ġh ari
ici al
Ġla in
ĠÙĨØ¸ Ø±
ĠØ¯ ÛĮØ§
à§ģà¦ ·
ĠZ e
áĢĻáĢº áĢŃáĢ³
eg or
Ġap ar
àµĭ à´Ĺ
à¦Ł à¦¾
Ġon ly
ones ia
ãĤ ª
Ġbe har
ĠÑģ Ð¸ÑģÑĤ
áº· t
Ġå İ
Ġm ÄĽ
Ġv ÃŃ
ec k
Ð» Ð°Ð±
as on
Ġà« ¨
Ø§Ø¨ ÙĦ
å¼ ķ
ÏĢ ÏĮ
Ġre p
ĠáĢĲ áĢĽ
ĠØ¨ Ø§Øª
Ġà¦Ĩ à¦²
ÅŁ a
Äĥ n
b on
áĥł áĥĺáĥķ
Ñĥ Ð»Ð¸
ĠG ener
çİ ĩ
Ġr um
ĠÏĥ Î·
é£ ŀ
9 3
ĠÐ³ Ñĵ
Ġt abi
Ġn un
ĠÚ¯ ÛĮ
ê¹ Į
â Ķ
Ġr est
Ġ×Ĳ ×ķ×ª
Ñĸ ÑĪ
ĠS ing
Ġ8 6
Ã Ĭ
Ø¹ ÙĪØ¯
Î¯ Î¿Ïħ
ĠT or
E O
Ġ\ "
ĠÐ²Ñģ Ðµ
Ð¸ÑĤ ÐµÐ»ÑĮ
áĢ±áĢ« áĢº
àª¾àªµ à«Ģ
ĠÙģ Ø±ÙĪ
yst em
ek u
ĠØŃ Ø¶
Øª ÙĪ
ĠM ont
çĥ Ń
Ð¼ Ðµ
æ¡ Ī
à¹Ģà¸ Ī
it ies
Ġu w
ĠÎ¼Îµ ÏĦÎ±
Ġng h
Ġà® ¯
áĥĿáĥł áĥĺáĥ¡
Ð´ Ð¶
Ġh art
à°¾à°¨ à±įà°¨à°¿
o ft
Ġtele fon
ÛĮÚ© ÙĨ
Ã± os
ĠØ¨ Úĳ
ĠI f
Ġëı Ļ
ĠÛģ ÙĪÙĨ
Ġ} .
Ð¾Ð² Ð¾ÑĢ
ĠáĥĻ áĥĿáĥľ
ĠL A
ãģ§ ãģ¯
Ġë§ Į
ä¸ ¤
ĠáĢ±áĢ ĲáĢ¬
Ġçİ¯äºļ ag
èĢ Į
Ú© Ø§Ø±
en as
Ġìĭ ł
áĥķ áĥĲáĥļ
ĠN Ã«
Ñĥ ÑĶ
àµĩà´ ¶
ist Ã¤
àª° àª¾àª¤
ement s
à°¦ à°¿
ĠØ³ ÙĬ
Ð¿ Ð¾Ð»
áĥĲáĥľ áĥ¡
B A
Ġseg u
ç½ ®
Ġsh k
Î¼ Î¿Ïį
ĠÑģ ÑĥÐ´
ÏĮ Î³
ES T
Ġm obil
ê° ľ
éĺ ³
Ġä¸Ń åĽ½
Ć ą
ãĤ §
Î³ÏģÎ± ÏĨ
Ġf Ã¥r
æĶ ¹
at ud
Ġf az
ĠIB _
Ġ| |
àªķ à«ĭ
Ê» ole
áº¥ p
en z
Ġà®¤à®® à®¿à®´
à¯ģà® ª
à¤Ĥ à¤¡
ak se
æīĭæľº å®¢æĪ·ç«¯
æł ¡
ĠU t
ĠáĢ Ĭ
ph one
å¤ ´
r Ã«
ĠáĢĻ áĢº
ĠÐ¿ÑĢ ÐµÐ·
Ġn Ã³
ĠB at
Ġ×ķ ×ĳ
Ġk j
Ġà®µ à®¿à®
à°¸ à±įà°¤
ĠØ§ÙĨ Ûģ
Ä± ÄŁ
à®³ à¯Ī
ãĥ³ ãĥĪ
áĥ® áĥĲáĥĵ
ĠáĥłáĥĿáĥĽáĥĶáĥļ áĥĺáĥª
Ġà¤¯ à¤¾
×ł ×ķ×ª
r up
9 6
áĢĦ áĢ¶
ti ge
an an
Ġ7 6
á» «
Ð¾ Ñİ
oc ia
Ġà§¨à§¦ à§
tiv o
ĠÐ ®
Ġìĺ ģ
áĥĶáĥĳ áĥ¨áĥĺ
d ar
Ġj en
Ð¸Ð» Ð°ÑĢ
Ġåħ ¨
Ġà®ī à®³à¯įà®³
Ġs eri
Ġb anyak
ç» Ħ
ĠìŀĪ ëĬĶ
à°¿à° Ł
Ġsing aw
Ġper i
ĠV an
Ġà´¸ àµįà´µ
ĠW a
Ġs ama
Ġters ebut
ê° ķ
Ġb id
Ġvol t
å¤ Ħ
Ġs á»ĳ
åĢ ¼
áĢļ áĢ°
Ġla v
Ġh ang
Ġt ay
áĢ¶áĢ¯ áĢ¸áĢ
Ġë ħ
Ø§Ø º
Ð°ÑĨÐ¸ ÑĺÐ°
ĠØªÚ¾ ÛĴ
ĠÎ¼Îµ Î³
olog y
r er
g ed
ĠÑĤ Ðµ
ĠÄĳ áº§u
åı ª
b ang
ĠÑĩ ÐµÑĢ
Ġàª¥ àªĪ
Ġolar ak
eg u
ag on
ãģ Ń
Ķ áĢ¾
Ġìļ °
ĠR E
y y
Ġà®® à¯ģà®Ł
Ø¶ ÙĪØ¹
ĠÐ¿ Ð°ÑĤ
ĠJ une
ti ma
Ġà¦¬à¦¾à¦ Ĥà¦²
ìĿ Į
ķ Į
à¸± à¸į
Ġla i
×ķ× ĸ
Ġr ight
Ġë ¯¸
ÑĦ ÐµÑĢ
5 4
Î»Î¿ ÏĤ
Ġ: -
ti me
Ġp ang
á» Ĺ
ill er
Ġ×Ķ× ¦
Ġy az
åħ ·
£áĥ ¡
Î¹Îº Î¿Ïį
Ġå° Ĭé¾Ļ
ĠB re
Ġcas ino
ĠÐ¿ÑĢÐ¾ ÑĨ
Ġàª¦ àª¿àªµ
à¸Ń à¸Ńà¸Ļà¹Ħà¸¥à¸Ļà¹Į
àª¤ àª¿
U K
5 3
åľ° åĿĢ
ĠK l
à§ Į
Ð°Ð¼ Ð°
íĸ Īëĭ¤
à¸ľ à¸¹à¹ī
ĠØ§ÙĦ Ø²
Ġàª¨ àª¾
Ġtr ue
Ø¹ Ø±
n al
ĠÐĲ ÑĢ
ĠÚ© Ø³ÛĮ
Ä« b
Ġà¤ª à¤¹
0 1
at ori
Ã¦ l
åıĳ å±ķ
Ġk amp
Ġfin al
Ġs ag
áĢ¶áĢ¯ áĢ¸
ĠF er
à¸³à¸« à¸£à¸±à¸ļ
ze a
Ã Ģ
Ïĥ Î¯Î±
Ġd la
ãĤ ¨
ë¶ Ħ
à¸Ļà¸ °
à¦¦à§įà¦ §
w al
ì ħ
ro b
ort h
Ġáĥĺ áĥ¥
Ġáĥ¬ áĥļáĥĺáĥ¡
us es
Ġcom ments
Ġb agi
×ŀ ×ķ
Ġà¸ ĸ
Ġch ar
Ġmar k
Ġbi en
×© ×Ļ×Ŀ
Ð¸ÑĢ Ð¾Ð²
ĠB ol
à«Ģ àª°
Ġj i
Ïĥ ÎºÎµ
Î½ Ïī
Ġà¦¬à¦¿à¦ ¶
ĠÐ¢ Ð¾
Ġæ ¬
ĠàªŃàª¾àª° àª¤
é© ¬
Ñı Ñħ
à±ģà° ª
ĠK al
Ïĩ Î±
Ġàªµàª¿àª ¶
ÑģÑĮ Ðº
ä» ĺ
Õ¡Õ ´
Ġh ulle
ĠÃ ļ
à±ĩà° µ
áĢĲáĢ½ áĢĦáĢº
Ġ9 4
Ġo der
Ġb ank
r ik
Ġak tiv
Ġhv or
b ra
åĬ ©
Ġm emp
ĠBl og
á»ĩ c
Ø® Øª
ĠÃ®ntÃ¢l n
Ġim g
ĠP ra
è½¯ ä»¶
åĲ Ħ
ĠÎ´ Îµ
Ġac cess
ĠÙĪÙĤ Øª
ĠÐ· ÐµÐ¼
Äĵ ia
áĥĹ áĥĲ
ÙĢÙĢ ÙĢÙĢ
ĠÑĤ Ð¾Ð²Ð°
Ġh ref
as y
ĠÛ±Û ³Û
ĠW at
à¤¾à¤ £
áģ ¢
Ġc ada
Ġà®µà¯ĩ à®£à¯įà®Ł
ĠB or
Ġ3 80
Ð¾Ð½ Ð¾Ð¼
Ġm ua
Ġwid th
Ġz ap
Ġsel v
lik e
ÏĦ ÎŃÏĤ
ĠÎ± Î³
ĠF o
ĠÐ· Ð°Ð³
Ûģ Ø±
Ġd op
Ġs Ã¼
ch od
ie i
Ġà¤¤ à¥įà¤¯
ro j
Ġáĥĵ áĥĲáĥ¡
Ġhalam ang
A F
ĠØ´ ÙĩØ±
ÏĢ ÏīÏĤ
20 20
asi h
æŁ ¥
en za
Ġre fer
Ġm um
å£ «
à«ĩàª ĸ
Ø³ ÙĬ
åº Ĩ
à¹Ģà¸ĩ à¸´à¸Ļà¸
×Ļ× Ĵ
Ġsi is
ip p
à´ ļ
Ùĥ Ùħ
Ġ×Ķ× ĸ
ãģķ ãĤĵ
ind ÉĻn
ĠåĮĹäº¬ èµĽè½¦
Øµ ÙĪÙĦ
ÏģÎ¿ Ïį
Ġt av
Ġe ven
ĠC am
im m
Ġ] [
ĠèĢ Į
Ġke Ã§
à¸· à¹īà¸Ń
à¸²à¸£ à¸ĸ
C C
Ġ8 1
Ġtod os
à¤ ·
w as
áĥ£áĥ ¤
Ġàª° à«Ģàª¤
op er
à¸ķ à¸±à¸§
ĠJanuar y
ÑĢ Ð°Ñģ
Ġprin cip
à§įà¦ ¸
è¶ ħ
ĠÐ¿ÑĢ Ð¾Ð³
d uk
ÃŃ as
Ġkom mer
ĠC D
Ñģ Ðµ
ÏĦ Ïī
l ish
áĥĶáĥłáĥ ¡
ĠØª ÙĦ
Ġd ost
Ãł o
Ð´ Ñĥ
ĠáĥĽ áĥĺáĥĽ
Ġ×ĳ ×Ĺ
Ġáĥ¬ áĥĲáĥłáĥĽ
Ġpre v
Ø¹ Ø¨
ĠÐ¿ Ð°Ðº
ag an
Ġas p
Ġà´® àµģà´
à¸± à¹Īà¸Ļ
áĢŃ áĢĻáĢº
à°® à±įà°®
l ov
Ġm az
Ġw ant
ĠÐ¿ Ð°Ñģ
ĠØ´ ÙħØ§
ĠRes p
ĳ áĢ¬áĢ¸áĢ
ut er
à¯ĩ à®ļ
à´ «
i em
à±ģà°Ĥà° Ł
áĢī áĢº
z eko
æķ ´
Ġn ÄĽ
ek en
ab ar
Ġver d
à®± à¯įà®ª
Ġê ´Ģ
áĢĲáĢ½ áĢĢáĢº
Ġan che
Ð¸ÑĤ Ñĥ
Ġàª¤àª® à«ĩ
ĠB iz
àªĤàª ļ
Ġc asa
Ġãģ Ĭ
Ġê° ľ
Ġà´ ŀ
red it
áĢģáĢº áĢŃ
Ġ| --
ÉĻd ÉĻ
ĠG en
is et
ĠÐĴ Ð¾
èĬ ±
ìĹ °
Ã§ o
Ø¦ ÙĬØ³
ud z
ĠâĢ ķ
ĠÑģ Ð°Ð¹
Ġte chn
é¡ ¹
áĥĺáĥĲáĥľ áĥĺ
à±ģà° ¡
ĠÎµÏĢ Î¯
Ġå° ı
ĳ ľ
Ġä¸ ī
Ġà¦® à¦¾à¦¨
à«ģàª ¦
à«ĩàª ľ
íĨ ¡
áĢŃáĢ¯ áĤķ
à¯įà® °
ĠÑĦ Ð¾ÑĢÐ¼
Ġmo Å¼
Ġna ar
Ġmed i
âĢ¦ ]
Î¸ ÎŃ
ĠìĦ ł
ĠØ§Ø ·
áº£ o
ĠÚ©Ø± ØªÛĴ
el as
Ġ×ķ ×ľ
æį ®
áº¿ u
ĠF in
Ī à¸°
v ir
ĠAnd roid
Ġ. :
ost o
ĠÕ ¯
Ġê¹ Ģ
Ġà¹Ģà¸ Ľ
ÏģÎ± Î³
ĠB ea
ĠÚ©ÙĪ Ø¦ÛĮ
Ġh un
ust ri
ris ti
ĠÏĦ Îµ
Î¸ Î®
Ġs r
t Ã©
áĥĿáĥĳ áĥ¡
et ar
ç ª
å¾ ·
à¥Ģ à¤¨
Ġf ak
Ðĺ Ð
Ġk Äĵia
æŃ ¤
Ã¢n d
Ġti j
Ġpe ople
à´¿à´ķ à´³
áĢ¬áĢ¸ áĢĢ
Ð»Ð°ÑĢ Ð½Ð¸
à¦ĸ à¦¨
Ã¶ g
åħ ļ
ĠÐ¡ Ðº
Ãª m
Ġæ ³
á»¥ c
åĬ ŀ
Øµ Ø¯
Ð½ Ð°Ð»
íĺ ¸
ĠÐİÐ· Ð±ÐµÐºÐ¸ÑģÑĤÐ¾Ð½
Ġj ako
à¯ģà®® à¯įà®ª
Ġ? âĢĿ
ĠÃ®ntÃ¢ln iri
Ġ7 4
ĠÐº ÑĬ
ĠB an
ĠÐ¼ Ð°Ðº
à«Ģàª ²
ĠM ai
êµ Ĳ
ÏģÎ¯ Î¿Ïħ
Ġí ĥ
Ġ[ âĢ¦]
ìŀ ¬
Ġf u
çł Ķ
áĢŀ áĢ±áĢ¬
à®ķ à¯į
9 1
Ø§Ùĩ Ø¯
Ïħ Î½Î±
Ġg ol
ĠM os
L A
Ġ200 2
Ġ×ľ ×§
ç Į
ov o
à¦¨à§įà¦ ¦
Ġh um
ĠÒĽ Ð°ÑĢ
à¸¡ à¸²
ong o
ĠÚ© Ú¾
u ÅŁ
áĥĲáĥľ áĥĵ
Ġh iki
Ġk apa
Ġk ho
Ġàªª àªĽà«Ģ
Ø±ÛĮ Ø¯
ol ar
Å ŀ
Ġà¦Ĩ à¦ª
Ġà¦¨ à¦¿
ĠV ir
ung s
I ST
Ġb á»ĭ
Ġku j
ÑĢ Ð´
ÏĦÎ¿ Ïį
ĠÎ Į
us ed
Ġs á»±
ĠÐ· Ð°Ñħ
Ġk Ã«t
im p
ĠÐ¿ÑĢ Ð¾Ð±
Ú© Ùĩ
×ķ× ļ
áģ¿áĢķ áĢ®áĢ¸áĢ
àª¾àª¨ à«ĭ
à¥Ĥ à¤°
ri bu
Ġsa v
ro k
ĠàªĨ àªľ
Ġde fin
Ġáĥ© áĥĶáĥĽ
Ġà®ļà¯Ĩà®¯ à¯įà®¤
Ġs udah
Ġh os
ãĥ ĳ
Ġv iz
Î´ Îµ
ĠØ¯ ÙĦ
Ġà°ķà±Ĥà° ¡à°¾
Ø§Ø± Ùĩ
Ø§ÙĨ ÙĪÙĨ
áĢ»áĢģ áĢĦáĢ¹áĢ¸
p as
ich t
h k
åĽ Ľ
r il
Ġet m
ĠmÃ¡ is
åĪ Ľ
à¥ģ à¤ķ
Ġ18 0
Ġpro cess
Ġt eng
w ah
ĠÑģÐ» ÑĥÑĩ
ĠÙħÙĨ Øª
ak in
Ľ áĢ¬
Ġle v
áĥĺáĥ §
ĠáĢ ĩ
Õ¸ÖĤÕ© Õµ
ãģ« ãģ¯
ĠK am
ikip edia
ÐµÐ» Ð°
Ġà¤¸à¤¾à¤ ¥
Ġo y
´ë Ŀ¼
Ġexp eri
Ġh az
ĠÐ½Ð° ÑģÑĤ
ĠÐ¿ Ð¾Ð¿
ig er
Ġæ Ľ
Ġh igh
z Äħ
ĠÑģ Ñĥ
Õ ¾
Ġs eks
Ġ×Ĳ ×Ĺ
áģ ¥
×ĺ ×¨
Ġà¹Ħ à¸¡à¹Ī
ØªÙĦ Ùģ
Ġ3 D
à¸¶ à¸ģ
Ġ6 1
cel ona
n at
T S
Ġà«§ à«
ĠJul y
× ¥
Ö ¸
Ġé ĺ
ĠL os
Ġch á»ī
ĠØ¯ ÙĪÙĦ
ä¹ ¦
Ġèĩ ª
d ate
ĠáĢĸáĢ¼ áĢħáĢº
Ġb ill
ÙĪ Ùĩ
iv at
ĠÂ ¶
Ġà¹Ģà¸ Ķ
c l
ĠN av
ab o
Ġìĺ Ī
ik at
ĠÑĢ ÐµÐ·
ĠÃ ¢
à¸Ķ à¸´à¸ķ
æĶ ¯
ÐµÑĩ Ðµ
ĠÐºÐ¾ Ñĺ
amp ai
è° ĥ
ì Ī
ĠJ eg
ĠÂ ½
à¸¡ à¸·à¸Ń
it ori
Ġel ec
à°ķ à°¿
h and
Ġtot al
ĠB ay
Ġ×ŀ× ĵ
ĠRep ly
y er
áĥķ áĥ¡
in ar
ĠÙĩ Ø³Øª
ĠÏĥ ÏĦ
ĠÙĩ Ø±
ĠJ un
Ġàª¸àª® àª¯
Ð½Ð¾ÑģÑĤ ÑĮ
Ġed o
áĥĿáĥł áĥĺ
et as
ĠPl us
w ang
ĠÑĤ Ð°Ð¼
Ġn Äĥm
Ĥ à¸Ńà¸ĩ
om p
ĠO ut
r ag
áĢ¼ áĢ²
á»ĭ ch
is ch
ë² ķ
T M
Ġma a
Ġeg in
d ie
av ad
Ġnh áº¥t
ĠÕ ¸
áĢŃáĢ¯ áĢľ
Ġà¦¹ à¦¬à§ĩ
âĢ¦âĢ¦ âĢ¦âĢ¦
à¤ ł
à§įà¦¯ à¦¾à¦¨
ìļ ´
ek et
Ġé «ĺ
Ã¨n cia
ĠÑį Ðº
ind er
ĠM A
Ġp ob
Ġà¦Ĩ à¦¸
Ġà´¸ à´®
d at
åı Ĥ
Ð½ ÐµÑĢ
it ud
Ã¡ ra
Ġk le
å Ĥ
à¸´à¸¡ à¸ŀ
oll ow
Ġm ent
Ġà¤° à¤¾à¤ľ
Ġ×ŀ× Ľ
ÑģÑĤ Ð¾Ð½
ĠS ant
Ġh Åį
P R
åĵ ª
ell es
à¦§ à§įà¦¯
Ġhe ight
ĠáĥĽ áĥĶ
9 4
ĠB ud
áĥĺáĥ ŀ
ĠÐ½ ÐµÐ´
é£ Ł
ĠR ad
Ø§ÙĪ Ø±
ing an
il an
m on
Ùħ ÛĮÙĨ
ÐĲ Ð
Ê» ia
ĠÑĢ ÐµÐ³
à¸ĩ à¸²à¸Ļ
ĠØŃ Ø¯
Ġv ast
ĠØ¹ Ø§Ùħ
ëł ¥
Ġàª¦ à«įàªµ
Ã »
Ġé Ļ
ĠÐ¾ Ð»
à¦ ł
ĠìĹ °
S S
Ġà§¨ à§
Ġb ig
à°¡ à°Ĥ
ĠÕ ¥
Ġc ara
å¿ ħ
ob i
áĢ±áĢ Ĵ
Ġpa ano
à¤ ¥
Ġc zy
els en
Ġin a
×ĳ ×Ķ
ie g
Ġàª² àª¾àªĹ
iv es
ĠEs c
r s
ĠO g
è¾ ¾
Ġv oc
áĢ¾ áĢŃ
à¤¾à¤ ı
as Ä±nda
ì¶ľìŀ¥ ë§ĪìĤ¬ì§Ģ
Ø³ Ø§ÙĨ
×ľ ×Ļ×Ŀ
ala u
ĠØ³ ÙĨ
ov ern
Ġâ Ī
Ãº ng
ĠáĥĽáĥĲáĥĴ áĥłáĥĲáĥĽ
à¦° à§ĩ
Ð³ Ñĵ
ĠáĢ±áĢ ŀ
on u
ĠÂ ¹
ĠP ag
ac iones
Ġt á»įn
Ġa ch
áĢĶáĢ¹áĢ Ģ
Ġà°ħ à°µ
Ġà¤¸ à¤ķ
Ġìķ Ĭ
ĠP en
æĭ į
ĠÑĸÐ½ ÑĪ
Ġbon us
å· §
Ġwer den
Ġ9 2
ä» Ĭ
Ġáĥ¡ áĥĲ
Ġà°¨ à°¿à°°
ol t
ok at
ik ut
ic an
g io
ÙĪ Ø§Øª
Ġdá»¥ ng
àª¿ àª®
Ġt lh
Ġsh qip
íĨ ł
Ñı ÑĤÐ¸
ra y
Ġå ¦Ĥ
ĠS ar
Ġret urn
Ġx u
ÏģÎ¹ Î¿
à¸£à¸²à¸ °
Ã¼n k
ab b
is in
ĠE L
à¸²à¸¡ à¸²à¸£à¸ĸ
ĠØµ ÙĪØ±Øª
¦ ¬
ĠÚ© Ø§Ùħ
Ġkn ow
ĠÐº Ð²
áĢĲ áĢĦáĢ¹áĢ¸
Î² Î¬
Ġpr ÃŃ
à¸Ńà¸¢ à¸¹à¹Ī
ĠPl ay
T ER
ĠÐ² Ð¾Ð´
èĩ ³
eg en
Ĳ áĢļáĢ¹
ĠáĢ±áĢ Ĵ
Ġà°¨ à±ģà°Ĥà°
í ĽĦ
ĠT ar
áĢ¾ áĢ¬
ĠØ¥ ÙĨ
Î¼Î± ÏĦÎ¿ÏĤ
à´¾à´¤ àµįà´°
ĳ Ĳ
ĠÎ® ÏĦÎ±Î½
ç¦ ı
ÏĨ Î±
ari os
ĠCom p
ed y
ip o
ĠÙ¾ Ø³
ĠÑģ ÐµÐº
ĠS ams
Ġst or
à«ĩàªŁ àª²
Î· ÏĥÎ·
Ġb ev
ÙĪ Ùģ
Ġn r
pl ik
Ã¡ ri
ĠF oto
ĠÏĥ Ïĩ
»áĢģ áĢĦáĢ¹áĢ¸
Ø¬ ÙĪØ¯
Ġp oc
Ãªn cia
ist as
Ġà¤ķà¤° à¤¨à¥ĩ
ĠÙĪØ§ÙĦ Ùħ
is on
Ġhi á»ĩn
å· ±
em m
àµįà´ £
E A
à°¿à°¨ à°¿
ĠY a
á»ķ i
Ġnd Ã«r
ĠÐº Ð°Ð½
Ġh ah
ĠL oc
Ġê° ķ
Ġà¦¦ à§ĩà¦ĸ
ĠÐ· Ð°Ñģ
ĠÎĳ Ïħ
Ġ7 3
Ġwo uld
Ġb un
ÙĪÙħ Øª
ur as
et se
Ġp emb
à´± à´¿à´¯
Ġng Ãły
Ġë Ķ
áĥłáĥ £áĥļ
ĠÐ² Ð¸Ðº
ÛĮÙħ Øª
éŁ ³
à¹ Ĭ
Ø¸ Ùħ
ens i
ro t
Ġc in
à°² à±įà°²
ĠFebru ary
Ø³ ÙĦ
à±ģà°ķ à±ĭ
ĠÄĳá»Ļ ng
b es
å¹ ¿
éħ į
ĠÐ¿Ð¾ Ð»Ð¸
à®¤à¯įà®¤ à¯Ī
à«ģ àª¨
ãĥ Ĭ
om as
éĺ Ł
ion a
Ðµ Ñĺ
ma q
ĠÐ² Ð°ÑĪ
ĠÙ¾ Ø±ÙĪ
áĢĳ áĢ²
ĠÐ¼ Ð°Ð¹
Ġna a
Ġàª Ŀ
Ġç¾ İ
ĠÑĢ Ð¾Ðº
ĠP L
ÏģÎ¹ Î½
Ġst rat
Ġà¤¹ à¤®
Ä± b
à®¿à®° à¯ģà®ķà¯įà®ķ
Ġv as
áĢ±áĢĲáĢ¬ áĢ¹áĢ
ĠÚ¯ ÙģØª
ĠK ol
Ê» ana
à¸Ķà¹ī à¸§à¸¢
Ġn od
ĠàªĨàªµ à«ĩ
Ġ×ŀ× ĳ
ĠF ilm
Ġm ac
Ġse perti
ĠS ek
Ġà®ħ à®©
ĠR am
à«ģàªľ àª°àª¾àª¤
à§įà¦ ¦
ì² ´
áĢ¸áĢ±áĢ ĲáĢ¼
8 6
ĠÐ³Ñį ÑĤ
5 1
uc k
ĠTag s
Ø§ÙĪ ÙĦ
áĢ±áĢĽ áĢ¸
Ġl ui
à¯įà®ķ à¯įà®ķ
ĠCh ar
Ġà¦¸ à§įà¦¬
Ġà¦® à§ĭ
æĺ ĵ
D A
ĠÃ Ħ
å½ ¢
un ya
ëª ¨
Ø§ÙĬ Ø©
7 1
· à«įàªŁ
Ġàªľ àª¾àª£
Ðµ ÑĦ
Ñ ļ
Ġev ent
Ġar be
Ã¡n h
Ġz bek
d as
ĠáĢĽ áĢ½áĢŃ
Ø® Ø§Ø¨
à°¾à° §
à°¾à° £
ĠØ¨Ø§Ø´ Ø¯
Ïİ ÏģÎ±
Ġáĥŀ áĥĺáĥłáĥ
el li
ŀ Ī
Ġp age
Ú¯ Ø§ÙĨ
Ø§ÙĦ Øª
u o
à¦¾à¦ ¯à¦¼
à¦¨à§įà¦¤ à§įà¦°
æĹ ©
n ot
í İ
ĠÐļ Ð°Ðº
Ġdet te
à´¿à´ ±
ì ¡
Ġy ake
Ġ×ŀ× ¦
ter e
Ġv ida
v y
Ã¢ u
à¸¶ à¹Īà¸ĩ
Ġáĥł áĥĲ
Ġin to
ĠÎ ¡
Ġt on
áĢĦáĢ· áĢ¹áĢ
ĠM ir
à±ģà°Ĥà° ¦
ÑĢ Ð¾Ð½
Æ°á»£ ng
pl y
è´ ¨
Ġà¦Ĩ à¦Ĺ
ÑĨÐ¸ ÑĺÐ°
å® Į
Ġä¸ º
à¦° à§įà¦¤
×ĵ ×Ļ×Ŀ
Ġp ele
ĠÑħ Ð°ÑĢ
Ġar te
ĠáĥĲáĥĵ áĥĲáĥĽ
ä¼ģ ä¸ļ
áĥĶáĥ ®
Ġd Ã¼ÅŁ
á»ħ n
à®©à¯įà®± à¯ģ
Ġì¹´ íĨ¡
Ùİ ÙĦ
Ã¼ ks
ĠC C
sk Ã©
à§ĩà¦ ·
y al
ĠÎº Ïħ
h old
Ã³ k
ez o
Ġt Å¡
b ud
Ġæľ ¬
æ² ³
ĠØ§Ù¾ ÙĨÛĮ
Ġpar as
æ¸ ¯
ĠáĢ»áĢķ áĢĬáĢ¹áĢ
ĠÃ Ĳ
Ġm s
áº¯ c
d om
ĠáĥĴáĥĲáĥĽ áĥĿáĥ
×ķ×¨ ×Ķ
ĠÐ° Ð¹
à±Ģ à°°
et ti
ĠÑģÑĤ Ð°Ð½
Ġ9 1
Ġgj ith
Ġson ra
Ġ ãģ¨
ĠM P
q t
b re
h ad
áĥł áĥĶ
ĠOct ober
ĠÐ°Ð± Ð¾
×Ļ×¨ ×ķ×ª
ĠØ¯Ø§ÙĨ Ø´
àµįà´¯ à´Ĥ
Îº Î¹
Ġæ Ļ
Ã¤ k
Ġàª°à«Ģàª¤ à«ĩ
èĤ ¡
Ġs j
Ġàª° à«Ĥ
r om
Ġag äºļæ´²
ĠÐ· Ð½Ð°Ñĩ
ĠDec ember
Î´ Î®
à´¨àµįà´ ¦
end en
ĠÙĤ Ø¯
ri pt
W A
Ð¼ Ð°Ñģ
ĠA le
à¦® à¦¾à¦¨
×Ļ× ĸ
c zy
l Ã¡
æ¶ Ī
ĠìĹ Ĩ
ĠÎĶ E
áĢ¯áĢ¶ áĢ¸
ut as
Ġs empre
à®¾à® ķà¯įà®ķ
ad en
Ġà¤¥ à¤¾
çİ ĭ
ÙĤ Ø±
ÉĻ ti
Ġì Ļ
ĠM ore
ĠJoh n
à¸´ à¹Īà¸ĩ
m ed
ĠæĹ¥ æľ¬
Ġ íķ´
" ,"
ĠD em
ĠØ£ Ùĥ
ĠÃ ħ
d al
ģ áĢ«
ç ļ
r ing
áĥĿáĥĵ áĥĲ
Ġpro ces
áĥľ áĥĶáĥľ
ÑĥÐ± Ð»Ð¸Ðº
ĠÑĤ Ð¾Ð»ÑĮ
ÑģÐº Ð¸ÑĤÐµ
Ġm g
ĠP op
áĢŃ áĢĶáĢº
à§ĥ à¦¤
à¯Īà® ªà¯į
Ġìĥ Ŀ
ĠçľŁ äºº
E B
Ġàªķàª° àªµàª¾àª®àª¾àªĤ
åĬł çĽŁ
Ġl ot
ĠØ¹ Ø¨Ø¯
ĠÐ¼ ÐµÑģÑĤ
Ġåı ¯
Ġi Äģ
ç® Ĺ
Ġp ia
ĠÑģÐ² ÐµÑĤ
ĠR os
à¸Ĥ à¸¶
ĠÐľ Ð°ÑĢ
Ġden ne
ĠØ§ÙĦ Ùĩ
Ø§Ø± Ø¯
ĠáĢ¥ áĢ®áĢ¸áĢ
Ġf at
àµįà´¯ à´®
Ð²ÑĢ Ð¾Ð¿
Ġæ Ģ
j á»į
à´¾à´¯à´¿à´° àµģà´¨àµįà´¨àµģ
ĠØ§Ø³Øª Ùģ
è ħ
é¢ Ħ
Ġ= =
Ø§Øµ ÙĦ
ĠÏĢ Î±Î¹
Ġi acute
ĠD ev
à±ģà°ķ à±ģ
ĠÏĨ Î¿
Ġm ÃŃ
ĠÐĺ Ð·
ĠHo Ê»
à¦¾à¦ ĸ
ĠØªÙħ Ø§Ùħ
ĠAfr ika
áº· c
é¢ Ĩ
à´¾ àµ¼
Ïģ Ïħ
×Ļ×¨ ×Ķ
Ġàª¥ àª¾àª¯
Ġx e
ĠØµ Ùģ
Ġt Äģ
âĢĮ ÙĩØ§
à®¿à®¯ à®¿à®²à¯į
à© Ģ
w ala
Ġp ast
ĠçĻ ¾
Ãº t
èĲ ¥
im al
ĠSt ar
Ð½ ÑĮ
×ķ×ł ×ķ×ª
´ ĳ
à¦¿à¦ Ĥ
ĠAn t
Ġd uke
ĠÃ¼ ber
Ġ} ,
Ġk art
in st
Ġå º
al de
à¸¥ à¸±à¸ĩ
Ùĥ Ø§ÙĨ
U A
Ïĥ Î¿ÏħÎ½
à±Ģ à°µ
ta c
Ġm ata
ĠØ£ Ùħ
ĠI A
ac y
à®¿à® ¨à¯įà®¤
k ap
L ist
Ġb and
Ġ9 3
à¤°à¥įà¤ ®
ar be
Ġ} );
æĿ ¡
Ġç ĭ
d in
al Ä±ÅŁ
Ġv az
å½©ç¥ ŀ
ĠÐ° Ð»
Ð¸Ñģ Ð¸
Ġresp ons
ĠM ari
Ġàª¹ à«ĭ
ob al
h ed
à´ªàµįà´ª àµĭ
à°¨ à±ĩ
ĠN A
Ġà¤ľ à¥ĭ
ĠÐĲ Ð²
Ġn ab
Ġà®İà®© à¯įà®©
Ġï½ ŀ
ĠÐ»Ñİ Ð±
ĠA li
ĳ áĢ²
Ġde ur
Ġì µľ
Î¹Îº ÎŃÏĤ
àªķ à«įàª¤
ang u
ut an
Ġà´ªàµįà´° à´¤
å° Ķ
à¹Ģ à¸Ń
ĠpÅĻ ed
N o
Ġbol eh
á¹£ e
ĠÐł Âµ
Ġà®ķ à¯ĩ
ĠA y
Ġpr et
v Äĵ
Ġin sp
ĠE z
Ġà´ĩ à´¤
à¤¿à¤ ¶
ĠáĢ±áĢ ķ
Ð¾Ð½Ð¸ ÑĺÐ°
Ġaf ter
ra p
m os
ÑĤ Ñĥ
Ġí ĸ
ĠØ§ÙĦÙħ ÙĪ
ost en
Ġd ate
Ġm uk
ĠS tor
àª¤ à«įàª¤
Ġàªķ àª¾àª®
à«Ģ àª®
ÎĻ Îĳ
ĠA qu
à¸µà¸¢ à¸ĩ
d s
Ġà°ħ à°Ĥà°¦
Ġvi á»ĩc
Ð°ÑĢ Ð¾Ð´
Ġà¦ħ à¦¬
Ġsa j
Ġà´ķ àµĭ
8 9
ĠÙģ Ùī
ĠØª Ø¨
iv yo
çĶ »
un de
ent ar
ĠÛ °
è¯ ģ
c ap
Ġag çľŁäºº
à±įà°¸ à±į
Ġcon trol
Ö °
ç ¬
ing ga
ĠK er
å ¡
ĠÐºÐ¾ Ð¸ÑĤÐ¾
áĢ±áĢĢ áĢ¬áĢĦáĢ¹áĢ¸
ĠáĢ±áĢ ¡
Ġph áº£i
Ġp ov
ÙĨ Ø§ÙĨ
à¸²à¸ ¥
æĪ ĸ
ĠÙĪ ÙĬ
àµģà´£àµįà´Ł àµį
æ §
ĠH an
Ġà®¤ à¯Ĩà®°
Ġà¤ħ à¤§
ï¼ Ĳ
Ġsang at
åı ĭ
C D
Ġdet ail
Ġà´¨à´¿à´ ¨àµįà´¨
d es
ĠL ond
Øª ØŃ
Ġr ic
iv el
Ġth Ãłnh
æ ļ
ĠF orm
Ġ200 1
×¨ ×Ĵ
Ġà®µ à®¨à¯įà®¤
Ġs Ã³
ä¿ ®
Ú© Ø³
Ġv Ã¡l
Ò ĳ
Ġconst ru
l ak
Ġz aman
ÏĮ Î¼Îµ
ĠiP hone
à§Ł à¦¾à¦°
Î ĵ
y p
Ġba ÄŁ
ath er
t an
Ġt at
éľ Ģ
×© ×ª
Ð½Ð¸ ÑĨÐ¸
ĠØ§ÙĦÙħ ØŃ
................ ................
Ð½ Ñİ
è® ®
ĠáĢ ¦
ãģ§ ãĤĤ
Ġà´µ à´°
ĠD ig
à¤ ³
ĠáĥĽ áĥĺ
à¸Ľ à¸¥
Î» ÎµÎ¹
b ara
Ġe y
Ľ áĢ½
æĸ ½
áģ ģáģ
Ġtah un
Ġk Ã«
Ġo st
Ġáĥ¨áĥĶáĥĽ áĥĵáĥĶáĥĴ
en ci
Ġæī ĭ
ĠØ±Ûģ ÛĴ
Ġv ec
Ġje j
ÐºÐ¾ ÑĹ
ĠJ u
ĠW orld
à§ İ
Ð· Ð¸
ĠÑĢÐ°Ð· Ð²
ĠÐĳÐµÐ»Ð°ÑĢ ÑĥÑģ
ĠV en
ny m
Ġ7 00
ĠH or
Ð½Ð¸ Ðµ
ĠN eg
áĢ ĵ
Ġal a
Ġà®ķ à¯ĭ
ĠØª Ú¾ÛĮ
Ġutil iz
ab er
Ġàª¶àªķ à«ĩ
Ø§Ø± Ø¬
ä¹ħ ä¹ħ
åĸ ľ
ĠP RO
ĠÐŁ ÐµÑĢ
à¸²à¸ ķ
ĠI T
Îº Î±Î½
ĠÏĥ Ïį
n it
Ġà¹Ģà¸ ¥
ĠÃ§ ok
d h
M A
Ġè ´
à¸ķ à¹Īà¸Ń
Îµ ÏĢ
oj nÃ«
k az
Ã³ p
Î¿Î½ ÏĦÎ±Î¹
b urg
à´¾à´² àµįâĢį
Ġl ed
íĥ Ģ
Ġç½ ĳ
áĥĶáĥłáĥ Ĺ
Ġab y
N E
Ġàªı àªŁàª²
åĩ Ĩ
à±ģà° ¦
à´¾à´ ľ
ĠC ast
amb o
ĠìĦ ¸
ĲáĢ¼ áĢĦáĢ¹
Ġàª¦àª¿àªµ àª¸
Ġà¤² à¤Ĺ
ĠÐº Ð°Ð±
Ġm Ã¡r
Ú© Ø§ÙĨ
Ð¾Ð± ÑĢ
áĢĬ áĢ¬
à¤¾à¤¹ à¥Ģ
à¸Ļà¸ ª
Ġà°ħ à°¯
Ġth Ã¬
Ġ7 1
s on
g l
ĠØ¢Ùħ ÙĪØ²
ĠÎŁ Î¹
Ġse us
Ġ×Ķ×ŀ× ©
Ġà°ļ à±Ĥà°
áĢĲáĢ½ áĢ±
S A
ĠS K
áģ ¤
áº± ng
Ð» ÐµÑĤ
Ġh ere
Ġmum kin
à§ĩà¦ ¦
ĠâĦ ¢
á ¿
Øª Ø±ÛĮÙĨ
amb i
Ġæ ¶
à°¿à°Ĥà° Ĺ
Î´ Î¹Î¿
nÃ© ho
Ġbo ok
çĶµ å½±
Ġn ek
Ġseb el
Ø¨ Ø§ÙĨ
Ġw ell
Ø£ ÙĨ
à´¾à´ ª
Ġå ±
Ð°ÑĨ ÑĸÑĹ
Ġàªµàª§ à«ģ
Ġh á»įc
ÑģÐº Ð¾Ð¹
Ġàª° àª¾àªĸ
ĠáĥĴáĥĲáĥĽ áĥĿ
Ġàª¸à«ģàª §à«Ģ
à¸£ à¸§
åĳ ¨
à°Ĥà°¤ à±ĭ
Ġu b
Ġm ie
er b
ĠH and
ÙĪØ± Ø©
à´¿à´ļàµįà´ļ àµį
ĠáĥĽ áĥ¡
Ġàªķàª° à«ĩ
áĢĲáĢ¼ áĢĦáĢ¹áĢ¸
ÙĤ Ø¹
Ġà¤ľ à¤¾à¤¤
Ġë° ©
Ġà¦¤à¦¿à¦¨ à¦¿
à´¾à´ Ĺ
Ġëı Ħ
ĠI II
ĠÑŀ ÑĤ
ĠÐł Ñĳ
ust om
à¹Ģ à¸£à¸µà¸¢
Ġ": {"
Ð°Ð» Ðµ
ĠÑŀ ÑĢ
Ġà¹Ĥ à¸Ķà¸¢
Ġproduc t
Ġed uc
ĠÚ©Ø´ ÙĪØ±
C lass
Ġbak eng
à¥įà¤ ¨
àµģà´¨àµįà´¨ à´¤
ÐµÑģÑĤ Ð¸
Ġ×© ×ŀ×
ĠÐ¿ÑĢ ÐµÑĤ
Ġre k
Ġf ace
à«ģ àª®
Ð ¤
Ġs ont
id agi
à®µ à¯ģà®®à¯į
Ġam er
àª¿àª ¶
ë° ©
Ġàª® àª¾àª°
Ġp Ãºbl
Ġh ur
ara q
ĠD ur
à±ģà°¨à±įà°¨ à°¾à°°à±ģ
Ġà¸ Łà¸£à¸µ
èģ Į
ĠÐ¼ Ð½Ð¾Ð³
çĻ ½
à¸ģ à¸£à¸°
ĠÐ¾ÑĢ Ð³Ð°Ð½Ð¸
is ka
ĠÎº Î¹
Æ¡ i
Ġlo ok
Ġe uro
re c
áĥĺáĥ¨ áĥľ
Ġop en
ul an
Ġf ull
Ã¡ ban
à§ģ à¦®
Ġs un
Ġb ok
at ura
áĥłáĥ ĵ
S h
ĠáĢ¡áĢ² áĢĴáĢ®
Õ¸ÖĤ Õ¶
ĠÐŀ Ð´
Ã Ĵ
z ak
áĥłáĥ £áĥ
çĶ ±
ĠÐ Ī
ĠInd ia
áĥ Ń
Ġd ot
Î½Î¿ Î½
±áĢ ¡
ĠÐ¿ Ð¾Ð³
Ġw il
ĠEurop e
ĠâĢľ .
ug e
Ðº Ð¸ÑĤÐµ
Ġé Ĥ
ĠS and
Ġà®ª à®²
Ġr ol
ģ áĢ¯
Ġà¤ Ľ
Ñĭ Ñĩ
ëĲ ľ
ç± »
ê± ´
Ð°Ñļ ÐµÑĤÐ¾
g round
à´ªàµįà´ª àµĨà´Ł
ìľ ł
Î»Î» Î±
ĠB ank
r ak
ĠÎº Î¬Î½
Ġb ene
à«įàª¯ àª¾àªĤ
à¥Ģ à¤²
áĥķ áĥĲáĥľ
Ġà¤ķ à¤¿à¤¸
ĠUS D
ect ed
à°² à±į
ÙĤ Ø§Øª
Ġel se
à±įà° ³
Ã¶ tt
ĠB ook
le k
H A
à¹Ĥ à¸¡
Ġu00 3
d im
í ŀĪ
ëĭ ¨
Ġm me
áĥĺáĥ «
ĠP ak
ĠAr ch
à± Į
ĠåĪ© æĿ¥
n ou
áĥĶáĥĹ áĥĺáĥ¡
ag u
à´¿à´¨ àµĨ
×¨ ×ĳ
áĥłáĥ Ĵ
ĠÐł Ð¾Ñģ
zen ia
æĬĢ å·§
Ġn ah
Ġà®µ à®´
g am
Ġp end
áĢĻáĢ» áĢ¬áĢ¸
Å¼ y
T V
Ġá ł
ĠG ratis
ĠV ers
è¯ Ŀ
Ð¼ Ð¾Ð½
æķ Ī
ĠáĥĽ áĥĿáĥ¡
Ġar tik
Ð¸Ñĩ ÐºÐ¸
oh et
id ente
z et
ĠàªĹ à«ģàªľàª°àª¾àª¤
åł Ĥ
Ð°Ð´ Ð·
Ã¸ n
åŃ ĺ
ak ukan
0 8
äº ĳ
ĠT u
Ã¡ j
kl ad
as c
Ġkek ahi
ĠâĢĻ âĢĻ
Ġêµ Ń
ĠØ² ÙĨØ¯
os sa
Ġw atu
Ġt art
Ġà®® à®±à¯įà®±
Ġw erk
Ġë¬ ¸
Ã ļ
ne y
us an
ĠÑĢ Ð¾Ð±
C I
ĠØª Ùģ
áĢŃ áĢĲáĢº
Ġq ay
áĥĺáĥ ¦
l ang
Ġéĩ į
å ³
ading in
ĠC ON
áĢĢáĢ¹áĢ ŀ
Ð¼ Ð¾Ð¶
Ġai adingin
Ġå ĳ
ÙĪ ÙĬ
à¯Īà® ļ
Ġé Ľ
Ð´ Ð°Ð³Ð¸
Ġpr ime
æ ĵ
S I
Ġp oh
Ã¸ re
Ø² Ø±
ĠÐ´ Ð¾Ð´
à§įà¦ ľ
ĠS in
Ġdes de
Ġja ar
l ara
Ø¬ Ø±
Ã¡ sa
ĠÐ³Ñį ÑĤÐ°
ĠÙĦÙĪ Ú¯
il di
Ġserv ice
Ġà°ķ à°²
à¸´ à¸ģ
ãĢ İ
ĠØ§ÙĨ Ø¬
à¹Ģà¸¥ à¸¢
ãĥ ĵ
Ã Ĥ
Ø¯ Ø§
ĠkÃ«t Ã«
Ġi den
ĠØ± Ú©Ú¾
us ti
ć Ĉ
àµģà´¨àµįà´¨ à´¤àµį
Ġel ement
Ġàª¸ à«įàªŁ
Ġan meld
áº¡ o
Ġkon tr
à¥ĩ à¤¸
Ðº Ðµ
ĠL is
Ġweb site
Ġgb ogbo
×ľ ×§
ih an
r iv
ing o
à¤°à¥įà¤ µ
ah u
li o
ĠÐŁ ÑĢÐ¾
áĢ±áĢ¬áĢĦáĢº áĢ¸
Ġáĥĵ áĥĺáĥĵ
ĠØ¹ÙĦ ÙĬ
ĠØ· Ø±Ùģ
Î Ķ
ÐµÐ½Ð¸ ÑĤÐµ
ĠÎ± Ïĥ
ĠBar celona
ud u
ic t
ĠÐ¾Ñģ Ð½Ð¾Ð²
Ġgr and
à°Ĥà° ª
ĠL in
al q
Ġinform ation
å¾ Į
0 2
ĠØ§Ø³ØªÙģ Ø§Ø¯Ùĩ
ÑĪ Ð¸ÑĢ
f ord
áĢĬ áĢ·
ĠÑĤÑĢ ÐµÐ±
ÑģÑĤÐ°Ð½ Ð¾Ð²
Ġà®ħ à®±
Ġtemp o
àª°à«įàª µ
Ġal d
ĠÎ±Ïħ ÏĦÎ®
Ġè ¦
ori es
áĢĽ áĢĦáĢ¹
al er
Ġk en
ĠØª Ùĩ
Ñİ ÑĤ
Å¾ i
Ġà¹Ģà¸ Ħà¸£
è§ ģ
Ġet c
à¹ĩ à¸Ļ
ĠìĦ ±
Ġà¦ķ à§ĭà¦¨
Ġand re
ft ware
ord an
Ġàª¦à«įàªµ àª¾àª°àª¾
à®¿à®ķ à®³à¯į
Ø±ÙĪ Ø¹
ĠD at
ÅĨ u
Ø· Ø±
ĠÙĪ Ø¹
Ġà¸¡ à¸µ
Ġol m
ĠInd onesia
ÑģÑĤÐ² Ð¾ÑĤÐ¾
åĪĨ åĪĨå½©
ĠÒĽ Ð¸Ð»
Ã¡ st
Ã¡ ly
ĠÑĥ ÑģÐ»
åħ Ń
æĿ ĳ
ĠT ot
ros s
Ġch uy
áĥ£áĥ ®
ì¹´ ì§Ģëħ¸
áĥĺáĥĿ áĥľ
Ġà¦¹à§Ł à§ĩà¦Ľà§ĩ
à¤¤ à¥įà¤¤
Ġæ İ
Ġinv esti
à´¿à´ ¨àµįà´¨
áĢ¯áĢŃ áĢĦáĢ¹áĢ¸
ĠÛ±Û³Û ¹Û
áĢľ áĢ¯áĢķáĢº
one y
Ġàª¹ à«ģàªĤ
Ġå ī
Ġkan Ã«
ĠÐ¹ Ñŀ
ä» İ
ĠSt re
à¸Ļà¸ Ķ
Ġv s
Ġäºļ æ´²
ãģ ļ
å¢ ŀ
áĥĿáĥķ áĥľ
Ġmu ch
à®µ à¯ĩ
B N
çĽ´ æĴŃ
il is
à®¾à® ļ
Ġap o
il áº¹
um o
Ġà´µ àµĢ
ho z
Ïĥ Î±Î½
el ing
áº¹ r
à¥ĩà¤ ĸ
Ġàªķàª° àªµàª¾
Ł áĢ¬
ĠØ¬ Ø§Ø¦ÛĴ
áĢħ áĢ¯
s ch
à¸ª à¸¡
åı ĺ
Ġà®İà®© à¯įà®ª
ĠK or
Ġf it
Ð¼ ÐµÑĢ
Ġo kt
ning er
Ġn im
×ł ×ª
g n
Ġà§¨à§¦à§ §à§
Äĵ s
à© ĩ
Ġàª¬ àª¹
áĢħ áģ¥
ĠUS A
à´¤àµįà´¤ àµį
Ġk und
ĠÐ¿ÑĢÐ¾ ÑĦ
ĠS A
àª° à«ĩ
×ķ×ł ×Ļ×Ŀ
ĠÙĪ ÙĦ
Äį ÃŃ
æ© Ł
Õ¡Õ ¿
ĠH on
Ġmot or
ĠÎ¼ ÏĮ
ĠT re
Ġm oh
Ġpers o
ĠPro duc
Ġæ Ķ
ĠÎł ÏģÎ¿
Ġz ak
ĠV iew
àµĨ à´Ļàµįà´ķ
Ġ ä¹Ł
ĠÐ° ÑĤ
Ġpro gr
áĥĿáĥ ŀ
Îº Î¬
ere a
m Ã«
Ïĩ Î®
Ġg ebru
ri es
b ur
áĢĦáĢ¹áĢ ľ
Ġh ul
à¸Ļ à¹īà¸³
Ġch at
Ã© se
ĠÐ° Ð»Ðµ
ĠS om
ãĢ Ĭ
ÙĤ Ùĩ
Ã Ķ
ĠÙĤ ÛĮÙħØª
áĢ±áĢ Ĳ
àª¨à«įàª ¸
ĠÙĪØ§ÙĦ ÛĴ
Ġno us
ĠÎľ Î±
Ġt ie
ĠK ap
ãĤ ĥ
ĠÏĩ Î±
ri f
aj ar
Ġf inn
Ġj Ã¤r
à¸Ļà¸ Ĺà¸µà¹Ī
ta in
ĠÚ¯ Ø±Ø¯
ĠØ¬Ø¯ ÛĮØ¯
ĠÙ¾ Ø§Ø±
ĠÑĥ Ð´
Ñĥ Ð»Ñı
Ġàª¸ à«įàª¥
ĠE ur
ĠLat v
ĠÂ ¸
am ine
Ġne j
Ġpod er
åĽ ł
à§įà¦ ł
un o
Ð¾ ÑıÑĤ
ov Ã½
Ġs á»į
Ġis e
Ġà¦ķà¦° à¦¤à§ĩ
ĠÐ´ Ð¸
ĠH i
Ġàª¬ àª§
Ġm á»į
áĥĿáĥ ¨áĥĺ
Ġàª® à«ĭàªŁ
ĠÐº Ð°Ð·
Ġte en
Ø® ÙĦ
ĠÐ¼ Ñĭ
ĠØ§ÙĦ Øº
tr y
Ġk ata
àª¾àª¤ à«įàª°
Ð°ÑĨ Ñĸ
Ø¯ ÙĬØ¯
Ġword en
ä¾ ¿
Ã¡ o
Ð°Ð» Ð¾
ÏģÎ¹Ïĥ Ïĥ
Ð°Ð½ Ñĸ
ĠØ§ÙĦÙħ Ø³
Ġ... ..
ĠÎ´ Î¹Î¬
Ġcon v
< /
ëĭ ¹
ĠB et
Ġm ic
æ ĳ
áĢ±áĢ ĺ
ĠáĥĹáĥ¥ áĥķáĥĶáĥľ
Ġà¤Ĺ à¤¯à¤¾
ĠN ot
à¸ľ à¸¥
ublish ed
Ġp Ã¤Ã¤
Ġc it
ĠÃ ´
Ùĩ ÙĨÚ¯
áĥĲ áĥĲ
± áĢĢ
Ġi ki
æŃ ¥
à¤¿à¤¯ à¥ĭà¤Ĥ
×ŀ ×Ļ
m b
ÑĥÑĤ ÑĮ
ĠC i
Ð¿ Ð¾Ð²
Ġw ir
ĠáĥĵáĥĲáĥ ĺ
éĺ ²
Ġl Ä«dz
Ġdi p
Ð¾Ñģ ÑĮ
h y
ĠØ¢ Ø²
áĢĬ áĢ®
Ġl uc
ĠK ir
Ġinter es
ang g
0 6
à¤ļ à¥įà¤
àµĨà´¯ àµģà´Ĥ
Ø§Ùģ Øª
áĥĶáĥĹ áĥĺ
unic ip
ol s
Ġí Ĭ
ĠØ¨Ø± ÙĨ
ul es
Ġà¤Ń à¤¾à¤°
Ġy et
áĥĺáĥĹ áĥ®
Ñı Ñģ
Ġu y
Ġku ch
Ġ= >
bo x
á»ĥ m
áĢ¯áĢŃ áĢĢáĢ¹áĢ
Ġg ed
ĠW o
ion ale
Ġpl ac
ĠB B
Ø§Ø±ÛĮ Ø®
åĮ ħ
å® Ŀ
Äį ky
Ġel Åĳ
éĹ »
ĠÙħÙĦ Ú©
ĠØ¯Ø§Ø± Ø¯
Ġm ere
ĠØ¨ ÛĮÙĨ
and id
Ġà¦ıà¦ķ à¦Łà¦¿
Ġap ro
ĠÑģÑĤ Ð°ÑĢ
S E
à¤° à¥ĩ
ëŀ ĺ
ĠÎºÎ± Î»
ĠÐ±Ñŀ Ð»Ð¸
ĠÃ§ ox
Ġæ ł
áĢĸ áĢ½
Äģ v
Ġal tern
ĠW ar
ĠÙħ ÙĬ
ĠÙħ Ø²
ĠÐ³ Ð°ÑĢ
à´³ àµįà´³
Ð ĥ
ĠÎ¸ Îµ
ĠØŃÚ© ÙĪÙħØª
Ġk re
uj ar
Ġim m
ĠRe al
Ġè ĭ
as z
Ġd ute
ÏģÎ¹ÏĥÏĥ ÏĮÏĦÎµ
Ä« ba
en se
ĠÑį ÑĤÐ¾
ĠV ar
áĥĶáĥļ áĥ¡
ti b
à¹Ħ à¸£
íģ ¬
88 8
Î¾ Îµ
Ġse v
: :
Ġye ar
ĠNEW Part
ĠìĹ Ĳ
Õ ½
à°¾à°° à°Ĥ
Ġp ur
av i
Ġ×Ĳ ×Ĺ×¨
ĠÑģ Ð¿ÑĢ
ĠÑĥ Ñģ
Ġm og
Ø§Ø® ÙĦ
Ø§Ø® Øª
Î½Î¿ Î¼
lig e
ĠÃ ª
Ġf ill
Ġde ze
_ c
à¦¾à¦¦ à§ĩà¦¶
ĠáģĤ áģ
ÏĢ Î·
¹ æŀľ
áĢĶáĢ¹áĢ Ĳ
á Ī
×¨×Ĳ ×ľ
à®¿à®± à¯įà®ķ
ac ji
Ġà®µ à¯Ģ
à¤¸ à¥įà¤¤
ĠÐ¸Ð· Ð²
ĠÐļ Ð¾Ð¼
ĠÎº ÏĮ
Ġà®ħ à®Ł
×ŀ× Ł
à±ģà°² à±ĭ
ĠI z
à¦¿à¦ ľ
ĠD as
j ud
Ġm ange
à¹ĩ à¸ģ
ĠáĥłáĥĿáĥĴ áĥĿáĥłáĥª
Ġh ac
ĠÐ²ÑĢÐµÐ¼ Ðµ
Ġp Ãµ
Ġà§ ©
ta j
k as
àµįà´° àµĢ
ì¹ ´ëĿ¼
Ġs enti
ung e
ĠC er
à±įà° Ĺ
Ùİ ÙĨ
M T
Ġresta ur
ĠØ¨ Ùħ
Ġ" ]
Ġl le
å¸ ¦
c ep
ĠÙĦ ÛĮÚ©ÙĨ
ÐºÐ¸ Ñħ
ĠÙĦ ÙĦÙħ
Ġl ub
à§Ł à¦¾
Ġna z
Ġj am
Ä¼ u
ĠÐľÐ°ÐºÐµÐ´ Ð¾Ð½Ð¸ÑĺÐ°
Ġpol ÃŃ
Ö ·
ĠÑĤ ÐµÐ¼
ÑĥÐ» ÑĤ
à¸£à¸²à¸ Ħ
F F
Ùİ Ø§
ers te
Ġn Æ°á»Ľc
Ġpor n
Ġìŀ ¥
Ġáĥĵ áĥĲáĥķ
ib li
ay on
ĠÎ±Î½ Î¬
Ġà¤ī à¤¸
Ġgr atu
od u
Ê» ike
ëł ¤
tr es
Ġr az
Ġve el
Ġd or
ĠJ es
Ùħ ÙĥÙĨ
id ay
Ġà°ļà±ĩà° ¯
×ŀ× ł
à¦¾à¦ķ à¦¾
ud o
Ġga an
×ķ×ª ×¨
áĢ±áĢ ĳ
à®² à¯Ī
ko a
ĠÙĦ Ú¯
à¦¿à¦ ¯à¦¼
Ð´ Ð¸ÑĢ
ros oft
ãĤ ĩ
à¸¥ à¸Ńà¸ĩ
à¦¾à¦¨ à§ĩ
Ġé »
ĠC r
ĠÒ³ Ð°ÑĢ
Ġì§ Ħ
Å º
ub wa
Ġ×ķ ×¢
v r
Ġa ce
æľį åĬ¡
Ð°Ð» Ð¸Ð·
Ġt ep
Ð¼ Ð¾ÑĤ
ĠÐ± Ð°Ð½
Ġal k
ĠÐĿ Ð¾Ð²
ÐĲ Ðł
ĠÑĤ Ð¾Ð¼
å¹ ²
Ġg ba
å¤ ľ
à¦¾à¦¤ à§ĩ
Ġ×Ķ ×Ļ×Ĳ
Ġk ak
ĠÚ¯ ÛĴ
ĠØ´ Ø®Øµ
ĠM es
Ñĳ Ð½
Ġ×© ×ĳ
åĪ «
ĠØª Ø³
zy st
Ġ×ŀ× ł
Ġob s
ãĥ »
ìĤ¬ ìĿ´íĬ¸
ĠÙħ Ø§Ø±
Ġíĺ ¸
Ø± Ø§
el es
áĥĲáĥłáĥ ¡
ÙĤ Ø·
Ġd am
áĢħ áĢ¬
Ġqil ish
al le
ĠÐº Ð°Ð»
j ect
Ðµ ÑĨÐ¸
Ġm ant
Ø± Ø§Ø¯
ag s
Ġ×ĳ ×¡
ĠT rip
Ġpro pos
Ġs ot
iku wa
it te
ÄĻ d
à¦ľ à¦¨
ol la
Ġä¸ ĭ
ÐĲ ÐĿ
ĠÂ ¡Â
à´¨àµįà´ ±àµĨ
IN E
Ġk is
ÑĢ Ñį
co unt
o us
Ġm iss
à´¾à´ ¦
à®¾à®° à¯įà®ķà®³à¯į
Ġm art
Ġkw amba
re b
à¹ģ à¸ģ
×ľ ×ķ
ç» Ļ
áº¯ t
ĠÐ¿ÑĢÐ¾ Ð¸Ð·Ð²
à«įàª ¡
Ø± Ùĥ
Ġà´ķ àµĩ
áĥĺáĥ¡ áĥĲ
ä»£ çĲĨ
à±įà°° à±Ģ
Ġwe ek
ĠÚ¯ Ø±Ùģ
ĠØ¯ Ø§Ø¯
Ġsp e
à¨ ¿
Ġwak ati
Ñģ Ð¸Ñı
ĠP ok
ĠSams ung
à«Ģàª Ł
omb re
Ġz ar
ĠE U
ãĤ¤ ãĥĪ
å§ ĭ
Ġth ro
Ġà¹ģ à¸ķà¹Ī
Ġà´ķ à´´
ĠÃ© r
h ang
à´¿à´² àµĩ
Ġj as
ãģª ãģ©
Ġkan n
×ł ×¡
ĠÐ¿ Ð°Ð²
Ġs olo
ĠG ra
áĢ¸áĢ ķ
áĢľ áĢ½
×Ļ×ł ×ķ
ĠØ® Ø¯Ùħ
Ġd Ã¼
ĠPro gram
è¶ Ĭ
à´¿à´ ŀàµįà´ŀ
áº¡ t
ÙĤ Ùħ
Ġà°ķ à°¾à°°
ĠÃ§ alÄ±ÅŁ
c Ä±
Ġmar ket
Ġcons ider
à¥ĭ à¤ľ
Ġâ Ĥ
al en
Ġàªľ à«Ģàªµ
áĥķ áĥł
ĠW A
ĠØ´ Ùĩ
Ġd ou
à®¿à®ķ à®³
à±Ģ à°
ĠÃº l
áĢ¡ áĢĲáĢ¼áĢĢáĢ¹
or an
ÑĢÐ°Ð½ Ð°
Ġal b
Ġg li
Ø§ÙĨ Ø§
Ø® ÙĪ
ìĺ Ī
ĠRe ad
d ib
Ġm and
Ġàª® à«ĭàª
us o
ĠÏĢÎ¿Î» Ïį
¥ ¼
ĠÂ ¼
Ú© ÛĴ
Ð¸Ñĩ Ð°
ĠðŁ ĺ
Ġì Ĥ
Ġí ģ
ĠÙĬ Ø¹
Î¯Î½ ÎµÎ¹
ÅĻ e
ĠáĢ± áĢĢ
Ð»Ð¸ Ð³Ð¸
Ġë ¨
8 7
ÙĦÙħ Ø§ÙĨ
ĠB ut
Ġh en
æ¨ ¡
le p
ĠÎ¼ÏĢÎ¿ ÏģÎµÎ¯
it za
Ġb ase
b ed
Ġg ag
Î¹Îº ÏİÎ½
Ġh ard
Ġno i
àª Ŀ
ĠáĢĻ áĢ½
à±ĩ à°°
Ã¶ y
== ==
Ġm aka
ÏĦÎ· ÏĤ
Ġà®¤à¯Ĭ à®Ł
Ġé ģ
ĠãĢĳãĢĲ ãĢĤ
Ġins an
ĠÙģ Ø±Ùħ
Î³ Î®
áĥķáĥĶáĥ §
ĠØ´ Ø¨
ãģĹ ãģĦ
ec ek
Õ¡Õ ½
ĠØ§ÙĦØª Ø¹
ĠØ· ÙĪØ±
ĠÐº Ð°ÑĤ
Ġr un
Ġíı ¬
Ġnec ess
Ġti áº¿
Ġà®ħà®° à®ļ
ĠÐ¾Ð± Ð»Ð°ÑģÑĤ
ÑĢ Ð¾Ð±
Ä±m Ä±z
Ġfav or
on n
ÙĬ Ø«
ë¥ ´
àª¨ à«įàªŁ
æĹ¶ éĹ´
Ã¶ m
Ġn Ã¥r
Ðł Ñĳ
ĠáĥĹáĥĲáĥķ áĥĺáĥ¡
à· Ĭ
d ur
Îº ÏģÎ¹
Ġparti cip
or en
Ġl ov
Ð°Ñĳ ÑĤ
Ġba ik
ĠB ah
ç®¡ çĲĨ
ĠM w
áĥķ áĥĶ
et es
¼ åĲĪ
Ġ, -
ãģ¾ ãģĽ
Ġ" )
Ã¼ d
ĠÃ© v
á»£ p
ĠíĨ µ
á»© ng
Ã«s h
eb i
à±ģà° ®
ĠáĥĽ áĥĶáĥ¢
Ġsem ua
Ð°Ñİ ÑĨÑĮ
ĠØ¨Ø§Ø² ÛĮ
al y
ĠÐ³ÑĢ Ð°Ð´
X X
ĠÑģ Ð¾Ð²
ÑģÐºÐ¸ Ð¾ÑĤ
Ø§Ø² ÛĮ
ĠÑĢ ÐµÑĪ
áĢĢáĢ¼ áĢ®áĢ¸áĢ
ĠÐ¼ ÐµÑĢ
N G
Ġà´¨ à´¿à´°
Ġg ad
ĠPD F
×Ļ×ł ×Ķ
et ik
Ġf an
à¦ª à¦°
Ã¥ ng
Ġle het
ĠM aj
Ġse h
à¤¾à¤² à¤¾
Ð¸Ñģ Ñı
ĠÐº ÑĥÐ¿
ĠN ie
ĠS he
à¤ķ à¤¾
ë¬ ´
ĠÐ½Ð°Ð¿ ÑĢÐ°Ð²
ĠG es
ĠD I
el n
áĥĺáĥ ĳ
ogra ph
ĠÑĤÐ°Ðº Ð°
lar ini
Ġs ir
ĠB es
Ġg ame
à§ģ à¦ķà§įà¦¤
Ð± Ð¸ÑĢ
Ġk ali
áº© m
ku u
ĠP lan
Ø§ÙĦ ÙĬ
Ġï¿½ï¿½ï¿½ï¿½ï¿½ï¿½ï¿½ï¿½ ï¿½ï¿½
Ġà¤ī à¤ª
Ġk ish
×¢ ×ª
Ġk Ã¶n
ĠÑĩ Ð¸ÒĽ
it se
à¹Ģà¸ŀ à¸·à¹Īà¸Ń
à¸¸ à¸ķ
Ġë ķĮ
Ġà®® à®©
Ġà°¸ à°¿à°¨
Ġch ild
éĤ Ģ
ä¼ Ĺ
Ð½Ð° Ðµ
ev o
çł ´
à¦¾à¦ ¥
ĠØ¨ ÛĮØ´
Ġi di
ist rat
D R
è ¼
ÑĤÐ¸ Ð¼
ÏĦÎ· ÏĥÎ·
èĩª å·±
ĠHot els
áĢŀ áĢ½
ĠÐ¼ Ð¾
Ð½Ð¾ÑģÑĤ Ñĸ
ĠáĢ¡ áĢĨ
Ġà´¤ à´¿à´°
ĠÙĪ Ùģ
ac ions
Ð°Ð½ Ð³
ĠØ¨ ÚĨ
Ġber b
í ĭ
ÐµÑ ľÐµ
Ġz ab
ĠE uro
Ġàª¤à«įàª¯ àª¾àª°à«ĩ
Ġà®® à¯ģà®¤
Ġsec ara
l ement
Ġor a
à®© à®°à¯į
ĠÚĨ Ùĩ
Ġc le
ri an
um Äģ
à«Ģ àª¨àª¾
Ġper m
æŀ Ĺ
à´¾à´ ¹
Ġam a
ĠåĬ ł
Ġ×Ĳ ×ł×Ļ
×ķ× £
ĠØ¯ÛĮ Ú¯Ø±
Ð´ ÐµÐ»
ier a
Ð¾Ñģ Ð¿
Îµ Ïį
Ð´ Ð°ÑĤ
à´Ļàµįà´Ļ àµ¾
ÙĤØ¯ Ùħ
Ġáģ Ħ
Ġt ad
Ġau x
ĠáĥĽáĥĺáĥ¡ áĥĺ
å¤ ª
und o
is ia
Ġw ai
ÈĽ ii
áĥĺáĥ «áĥļ
Ġå½ ĵ
Ġp ow
ĠÑĥ Ð²
Ġà°µ à°¾à°°
G A
ĠÂ ¤
Ġt we
Ä± ÄŁÄ±
Ã¤ v
ĠS ab
ĠÂ£ Â¬
ĠM ol
ÐµÐ½Ð¸ Ð¹
Ġë ©
Ġk uko
åĬ Ł
åı ¤
ht u
Ġ×Ĳ ×ł
Ø§Ø °
ĠÐ¸ ÑģÐ¿
ĠT ab
ĠQ ue
ĠH ow
åĪĨ æĹ¶æĹ¶å½©
ĠC el
ÑĤÐ¸ Ñĩ
Ġloc al
Õ¶ Õ¥ÖĢ
ĠØ° ÙĦÙĥ
Ġè ¡
à±ĭ à°ľ
ÑĦ Ð¸
ĠØ´Ø± Ú©Øª
à°¡ à±įà°¡
ĠH igh
Ġm ult
Ø¶ ÙĦ
à¤¿à¤ ®
ĠÐ¾Ñģ Ð¾Ð±
ĠÐ¾ÑĢ Ð³Ð°Ð½
Ġm uh
ĠÐ¼ Ð°ÑĬ
Ġà¤¦ à¥ĭ
Ø§Ø ¤
ar on
Ð°ÑĪ Ðµ
ÏģÎ¿ Î½
0 3
ĠØ§ÙĦ Ø§ÙĨ
Ġ×ľ ×Ľ
à¸ļ à¸£à¸´
l og
Ġv eg
×Ĳ ×ª
Ð½Ð¸ ÐºÐ°
Ġto ut
Ġs áº£n
áĥĲáĥ Ķ
Ġbat ho
àª¾àª Ł
ang er
or te
Ġsz Ã¡m
Ġim age
à´¯ à´¿à´²àµįâĢį
à¯ģà®Ł à®©à¯į
áĥĶáĥĳ áĥĶáĥļáĥĺ
áĢľ áĢĬáĢºáĢ¸
aw ai
ar ta
Ġà¦Ĺ à§įà¦°
æĿ ¿
Ġà°ļà±Ĩ à°ªà±įà°ª
ë§Į ëĤ¨
ĠÐĲ Ð´
Ġs ad
Å¾ ÃŃ
ãĥ Ķ
ĠM B
Ġë Ħ
Ġkom un
èĬ Ĥ
ãĥ¼ãĥ ī
Äį ka
ĠØª Ø§Ø±ÛĮØ®
ĠÎ½ ÎŃ
N A
Ġéĩ ĳ
Ġé ¦
ĠÐ¸ ÑģÐº
un to
$ (
ou p
d ig
0 4
ì Ķ
ÃŃ d
h im
k m
Ġk val
Ġ ÏīÏĤ
ãĥ¼ãĥ ł
Ġs Ãµ
Ã³ m
Ø§Ø¹ Ø§Øª
Ġcom un
ard o
ĠÐ¿ÑĢ Ð°
à¸ª à¸Ķ
Ã Ī
Ã¡l nÃŃ
ĠØ® ÛĮ
ĠáĢĦ áĢ«
Ġber k
ĠÐ¼ Ð½Ð¾Ð³Ð¾
Ġè §
áĥ§ áĥķ
y b
s at
Ġà´ļàµĨà´¯ àµįà´¯
Ġs ug
àª¾àª ı
è½ ¬
Ġx xx
ÉĻ li
Ġ×Ķ ×Ļ
m ir
àª¾àª ī
Ġà¦ķ à¦®
áº¥ n
ĠÏĢ ÏģÏİ
Ġfun k
Ġà®ķ à®°
ĠÐ³Ð¾Ð´ Ð¸Ð½Ð¸
ĠØ¨ Ø´
ĠAG çİ¯äºļ
Ġe di
ĠÎ¤ Î±
àª ł
Ð¾ÑĤ Ð¾Ð²
un ÈĽ
is ion
ĠL et
ĠI M
ti va
Ġáĥł áĥĲáĥª
ÑģÑĤ ÑĢÑĥ
á»Ļ c
S H
åį ¡
Ġk in
Ġê² Į
ë¹Ħ ìĬ¤
áĢļ áĢ¬
æ ¿
Ġà°° à±Ĩ
Ġ! âĢĿ
à¹Ģà¸¥ à¸·à¸Ń
ÎĻ Î£
Ġn ÉĻ
Ġle ft
Ġà°® à±Ĭ
Î¿ Î¹
Ð¾ ÒĽ
Ġc all
Ø§Ø¯ Ûģ
ar n
ĠâĨ Ĳ
æ· ±
à¯ģà®ķ à¯į
Ġm uj
ĠM edia
l t
à«ĩàªµ àª¾
Ġt Ã´i
à±ĭ à°Ĺ
à«Ģàª §
ĠCh rist
f un
ĠØ´ ÙĨ
I J
Ġà®ª à®¤
Ġáĥ¨ áĥĶáĥľ
Ġàª¬ à«Ģàªľ
ik ali
Ġìĸ ´ë
Ġon a
à¦¨ à¦¿
Ø±ÛĮ Ùģ
ar ing
áĥĺáĥ£áĥł áĥĺ
ro u
ag ement
áº« n
Ġch ÃŃnh
Ġte x
åº ľ
ĠçĶ µ
áĥĲáĥ¨ áĥķ
áĥ£áĥ ĵ
g at
ÐĲ Ð¢
tu al
Ð½ Ð°Ðº
ãĢ Į
ĠSh qip
Ø±ÙĬ ÙĤ
Ú¾ ÛĴ
Äį i
ĠT om
ĠÚĨ Ø§Ûģ
em en
ĠÛ² Û
Ġs iy
à¥įà¤ ·
à¸« à¸§
à¥ģ à¤®
Ġt ir
Ġd ra
ÅĨ a
Ã³ b
Ã¡ rio
Ðµ Ðµ
à¥įà¤ §
Ġn Ã©
Ġn er
oj i
b ack
á¹ ¢
Õ ´
ĠØ§ÙĦØ¹ Ø±Ø¨
Ñĸ ÑĨÑĮ
Ø¢ ÙĨ
Ġà¦¸à¦® à§įà¦ª
Ġf akt
un y
ìļ ¸
×ŀ ×Ļ×Ŀ
C E
ĠÙĩ ÙĨ
Ġper t
Ġf ant
Ð± Ðµ
Ġel e
Ġç º
Ġà¦¸ à¦¬
Ġ] ,
ĠL E
Ġsp eci
ëł Ī
Ð°Ñģ Ñı
Ġneb o
éĤ £
is an
anz ania
Ġv ill
ti p
ic io
Ġy i
´ Ī
Ġt Ãµ
Ġà¤ Ŀ
ŀ áĢ¼áĢ¬áĢ¸áĢ
Åĳ k
Ø§ÙĦ Ø§Øª
Ã¤ Ã¤r
AP P
Ø§Ø¹ Ø©
Ġb ude
èī ¯
ĠØ¶ Ø±
Ð½ Ð¾Ð¼Ñĥ
Ġáģ Į
ĠD V
Ġse pt
à¤¿à¤Ĥ à¤Ĺ
az o
ĠÙĦ Ùĩ
ç ¿
Ġv ya
Ġr am
à´¯ àµģà´ŁàµĨ
ĠÐ°Ð² ÑĤÐ¾Ð¼
ĠÊ» a
Ġm 2
ĠA h
à¦ ·
Î¼Î± Î½
ĠÙħØ® ØªÙĦÙģ
èĲ ½
à¸Ļ à¸±à¸ģ
Ïģ Îº
pres ent
Ġà´ªà´± à´ŀàµįà´ŀ
ÙĪ Ø·
Ġà´¤ àµģà´Ł
0 5
ia ÅĤ
Ġnh Ã¢n
Ġan os
áĢŃáĢ¯ áĢĦáĢ¹
ĠÐ¼ Ð¾Ð³
à°° à±įâĢĮ
à´°àµįâĢį à´¤àµįà´¤
à¸£à¸´ à¸ĩ
Ġì ¶Ķ
åį ĵ
tor i
Ġl ay
Ġv ad
end ele
v as
Ġáĥ¡áĥĲáĥ® áĥĶáĥļ
ĠL and
lig a
Ġ×ĳ ×§
Ð»Ñı Ð´
ĠÑĤ Ñį
Ġcol le
ĠC ha
ÏĥÎµ ÏīÎ½
ĠB ab
ĠVi á»ĩt
Ġm Äģ
at r
m s
Ġàªķ à«ĭ
àª¤ à«įàª¯
ar ak
Ð½Ð¸ Ñĩ
ĠÐ± Ð¾Ð»ÑĮÑĪ
Ġà¦¯ à§ĩ
Ġpos it
Ø§Ùģ Ø©
Ġd od
ec to
Ġàªľ à«ĩàª®
ĠG ol
R L
Ġà´µ àµĨ
à®° à®¿à®¯
ĠK Äį
ĠÎ ¯
Ġol un
×¨ ×Ļ
Ðº Ð¸Ð½
à¯ģà® £
Å¡ ie
ind o
Ġà¦¬à¦¾à¦Ĥà¦² à¦¾à¦¦à§ĩà¦¶
Ñį ÑĤ
Ġà® ²
Î»Î¿ Î½
ë Ķ
ort s
ÎµÎ¯ Î¿
Ġà®ħ à®¨à¯įà®¤
n am
ĠØ®ÙĦ Ø§ÙĦ
ĠÐ¿ÑĢ Ð¾Ð¼
àµĢ à´µ
Ġh á»£p
àµĩ à´£àµįà´Ł
Ġt j
Ð°Ñħ Ð¾Ð´
áĢı áĢ¹áĢ
ĠÐ½ Ð¸Ð²
Ġt ec
Ġis hl
åĮ Ĺäº¬
ac ak
Ġt ub
Ġg Ã¼
ĠØ§ÙĦÙĬ ÙĪÙħ
K A
ĠM ur
Ġye ars
åĮ »
Ġà¤Ĩ à¤£
Ġca o
ÑĥÐ½ Ðº
à¸Ħ à¸Ļ
à´¨ à´Ĥ
alar Ä±
à®¿à®²à¯įà®² à¯Ī
Ġëį Ķ
Ġd ass
ash k
Ð°ÑĨ ÑĭÑı
ĠMar ia
à«įàª ¦
ĠT an
à¸Ĺ à¸²à¸ĩ
à¦¤ à¦¾
ç« ŀ
ĠØ§ÙĦÙħ Ø¹
Ġex tra
Ġd v
tir ish
áĢŃáĢ¯ áĢ¸
±áĢ ħ
aj o
ĠY A
Ġ ã
ir os
Ð°ÑĤ ÐµÐ»ÑĮ
áĢľ áĢ°
aj Äħ
ĠÙ¾ Ø§ÛĮ
åĨ į
Ġro ku
Ġë° ľ
à¸ĵ à¹Į
az ioni
Â ·
urr ent
áģ¿áĢĻ áĢŃáĢ³áĤķ
à±ĩà° Ł
ĠØ§ÙĨØª Ø®Ø§Ø¨
Ð¾ÑģÑĤ Ð¸
Ġæ ¸
Ð» ÑĥÑĩ
áĥĲáĥł áĥĶ
ĠáĢĽ áĢ½
ĠØ¨ ÙĨØ¯
ÏģÎŃ ÏĢÎµÎ¹
l ie
Ġpl ace
áĢħ áĢ¬áĢ¸áĢ
Ġà®®à¯ģà® ©
Ġà¤¤ à¤°
ÙĲ ÙĬ
ĠÙħ Ùĩ
ĠÐ¼ Ð¾Ð¼
ĠhoÊ» ok
Ġåħ ¶
ig ur
ĠÐĲ Ð±
n k
¸ è¿Ĳ
à§ģ à¦¬
ĠÐ± Ð¸
áĥĲáĥ® áĥļ
Ġcas o
ÙĪÙĨ Ø¯
Ġà®¤ à¯ĩ
Ġbu y
ĠC hi
í Ĥ
ĠUS B
ĠÐ´ ÐµÑĤ
ĠÐ²ÑĬ Ð·
Ġ×Ĳ ×Ŀ
ek si
Ġs ett
ä» ĭ
áĢŃ áĢĻáĢ¹áĢ¸
áĥĶáĥ¡ áĥĺ
ĠÃ§ Ä±
ë¡ Ŀ
à´¤àµįà´¤ à´¿à´¨àµįà´±àµĨ
à´¾à´¤ àµįà´¤
±áĢŀ áĢ¬
ĠÐº Ð°Ð¶
t te
áĥĲáĥł áĥĺáĥ¡
à« ī
Ðº Ñģ
Ġ ÉĻs
ĠÎ Ĩ
à´¿à´ ª
Ġà°® à°¾à°°
à¸Ļà¸ ³
Ġ% ,
Ġh ii
tic as
ĠÐ½ Ð¾Ð¼
é¤ Ĳ
àªĤàª¤ à«ģ
ĠÚĨ Ú¾
ÑĬÐ» Ð³Ð°ÑĢ
ĠÏĩ ÏģÏĮ
Ø¶ Ø¹
ang kan
8 4
Ġàª¹ àªµà«ĩ
et so
Ġb Ã¥
áĢ±áĢ »áĢķáĢ¬
Ġàª¸ à«Į
ĠáĢ¡ áĢģáĢ¯
à¯Īà®ķ à¯į
Ġn ya
å¢ ĥ
Ġde z
à«ĭàª ª
ĠÎ±Î½ ÏĦÎ¹
¯ à§ĭà¦Ĺ
ĠáĥĶáĥłáĥĹ áĥĺ
Ġà°® à°¨
Ġáĥŀ áĥĺáĥł
Ġi j
åį ĩ
Â ª
di an
Ġe conom
ŀ à¯įà®ļ
ĠH el
ĠÚ© ØªØ§Ø¨
Ġh anya
ä½ ı
Ġs ell
Ġb ai
ìĹ Ī
l Ã¼
à¸ Ŀ
Ġà°ħ à°¨à±įà°¨
lÄ± q
àª¨à«įàª ¡
ĠÑĦ Ð°Ðº
ĠP u
ĠC R
ĠApp le
ĠÕ ¶
Ġn ur
ĠÛģÙĪÙĨ ÛĴ
íĨ µ
tic k
×ķ×ľ ×Ŀ
Ð»Ð°ÑĢ Ð¸Ð½Ð¸
Ġf ik
Ġn ik
Ïģ Î¸
à¨ °
à´® àµįà´ª
à°¤ à°¿
Ġal i
×ĳ ×ķ×ĵ
Ġ á¹¢
Ġà¹Ģà¸ ģ
ĠC op
Ġ×Ľ ×Ĳ
Ġf og
eca use
at Ã«
Ġp ier
ÑĥÐ² Ð°ÑĤÐ¸
en k
à¸Ĺ à¸±à¹īà¸ĩ
Ġà¦ħ à¦Ń
é» Ħ
Ġà¤¬ à¤¨
ĠÐļ Ð¾Ð½
Ġb Ã«
0 9
Ġat tr
ĠBa ÅŁ
Ġàªľ àª£
Ġw on
Ä± q
ì§Ģ ë§Į
Æ Ĵ
ÑģÐº Ð¾Ð³Ð¾
Ġ Ø§Ûģ
Ġm asa
áĢĢáĢ¹áĢ ľ
Ø³ Ø·
à°¿à°Ĥà°ļ à°¿
Ð°ÑĤ Ñĭ
Ø¯ Ùī
ãģ¾ãģĽ ãĤĵ
à´£àµįà´Ł àµį
ia u
Ġå¯ ¹
Ġprz ez
Ġ Äģ
ĠCom ments
éĤĢ è¯·
è» Ĭ
à´¨àµįà´¤ àµįà´°
Ġtr at
åı ²
à°¿à° ²à±ĭ
ip ada
f ort
as yon
n ud
ĠáĢĶ áĢ¾
ķáĢ¼ áĢ²
ĠáĥĽ áĥĿáĥľ
à¦¿à¦ ª
Ðº Ð»ÑİÑĩ
à±ĭ à°¯
Ġp ono
áĢĲ áĢħáĢº
Æ° a
áģ¼ áĢº
Ø¨ ØŃ
Ġ9 00
Ġf irm
ĠN on
à¥į âĢį
od en
à¦¿à¦ Ľ
áģ¿áĢķ áĢ®
ik ka
ĠÎ´ Ïį
Ġbl ir
Ð°Ð´ Ñĭ
à¥ ľ
à¤¸ à¥Ģ
ing a
ë ¯¼
Ġà®® à¯Ĥ
Ġval ue
áĢ³ áĢķáĢ¹áĢ
ĠE ste
ÙĬ Ø§ÙĨ
-------- --------
Ø§ Ø§
åľ¨çº¿ è§Ĥçľĭ
Ġa x
or ang
ĠÚ¯ Ø¦ÛĮ
ĠC e
Ð¾ ÑĹ
ĠÐ± ÐµÑĪÐµ
ĠÃ £
U E
ÎĳÎ ¤
ĠØ¢ Ø±
Ġever y
ĠëĤ ¨
Ġvot re
ãĥ į
ÐłÑķ Ðł
Ġsin h
à´ªàµįà´ª àµĨà´Łàµįà´Ł
ĠÐ³ ÑĢÑĥÐ¿
ÏĦÎ¹Îº Î®ÏĤ
ãĥ³ãĥ ī
c ak
ĠF eb
à°¾à°¤ à±įà°°
Ġw ay
ĠU k
el k
Ġh ÉĻr
Î»Î» Î·Î½
Ġë§ Ĳ
ĠEng lish
ĠA F
áĥĲáĥ §
ĠëĤ ´
ala xy
Ġz v
Ïĥ Î¹Î±
Ġà®İ à®¤
ĠH ist
áĢŃ áĢķáĢ¹áĢ
à¦¨à§įà¦ §
il ir
Ġà¦¸ à¦°
tr on
Øª Ùī
ĠÐ¾ÑĢÐ³Ð°Ð½Ð¸ Ð·
ĠÐº Ð¾Ð¶
ÑĪ Ñĭ
Î¼ÎŃ Î½Î·
ĠØ³ Ø§Ùħ
ĠÏĮ ÏĢÏīÏĤ
Ġback ground
ĠØ¨Ø¹ Ø¶
Ġà¦¦ à§ĩà¦¶
ĠC O
ĠL ab
æĹ ħ
Ð»Ð°ÑĢ Ð½Ð¸Ð½Ð³
à«ĭ àª®àª¾àªĤ
ĠP ower
Ġp ublik
àª¾àª£ à«Ģ
áĢħ áĢ®
ë§ ¤
Ġà¹Ģà¸ ¡
ĠE g
er m
ĠEsp a
ĠÐĴ Ñĭ
Ð¿ ÑĢÐ¸
Ġ×ĳ ×ł
Ġs Ã¤
Ä±n Ä±z
Ġpod e
ar kan
Ġpro c
Ġkar ena
é º
ï »¿
ç± ³
à°¿à°Ĥà° ¦
ĠÐ´ ÐµÑĢ
ĠÙĪ ØŃ
ob o
ĠÄĳá»ĭ nh
Õ¡Õ ¾
Ġë° ı
Ġh elt
éª Į
Ġm Ã´
à´® à´¾à´¯à´¿
Ġàªīàªª àª°
ĠÐŁ Ð¾
ĠÑĤ ÑĢÐ¸
ļ áĢ°
ĠÐ² Ð¸Ñģ
Ġm ash
à¹Īà¸§ à¸¢
Ġt Ã©
áĢº áĢ¬
ĠÙ¾ Úĳ
ĠÐ¼ Ð¸Ð»
àª¿àª ª
em at
à«ģàª ĸ
oj u
Ġfor t
à°Ĥà°Ł à±ĩ
Ġt ema
áĢŀ áĢ¼áĢ¬áĢ¸áĢ
Į áĢ¬áĢĶ
Ġv in
åĥ ı
áĤıáĢ¯áĢŃáĢĦáĢ¹áĢ ĦáĢ¶
à±ĩà° ·
Ġk ort
ĠF ar
8 3
ĠÑĤ Ð¸
Ø¹ Ùħ
Ġkom mun
b s
Ġinte gr
Ġàª¬ à«ĩàª
Ġw orld
estiv al
Ġà¤® à¥ĭ
f an
ĠÑĨ Ðµ
Ġå¤§åıĳ æĹ¶æĹ¶å½©
à´ķ à´³
au x
Å¡t ÄĽ
Ġt x
Ġfam ili
áĢĶ áĢ²áĢ·
ÑģÐº Ñĸ
Ġh Æ¡n
as se
0 7
ĠÐ´ Ð¾ÑĢ
áĥĲáĥ¥ áĥ¢
Ġto im
à´¸ àµįà´¥
ĠT ek
Ġt og
ĠZ a
emb ro
Ġv ac
Ġt Ã¶r
ÙĪÙĨ Ùĩ
ĠØº ÛĮØ±
ĠPh il
ab at
Ġhe eft
æĹ¥ æľ¬
áĥĺáĥľ áĥĺáĥ¡áĥ¢
×¢ ×Ķ
Ġv aj
Ä¼ a
áº£ ng
à°¿à°Ĥà°ļ à°¿à°¨
us to
ĠÙħ ÙĪØ±Ø¯
Î»Î» Î·
er c
áĢ¸áĢ Ĩ
à«ĩàªµ à«Ģ
ĠÚ©ÙĨ ÛĮØ¯
à°Ĥà° ķ
ĠØ§Ùģ Ø²
áĢ±áģ¾áĢĢ áĢ¬áĢĦáĢ¹áĢ·
Ġàªªàª° àªĤàª¤à«ģ
Ġd Ã©c
Äĥ ri
ĠN r
à®© à¯Ī
åĳ ³
f en
Ġáģ ħ
à±ģà° Ĺà°¾
ç¥ ¨
ĠÐ£ÐºÑĢÐ°ÑĹ Ð½Ð¸
à°Ĥà°¦ à±įà°°
ĠKos ov
à¤¾à¤¯ à¤¾
Ġà®ĩ à®Ł
ĠÐ² Ð·
ko z
h us
Ġv ide
ä¸ĸ çķĮ
àª°à«įàª ®
ÙĪÙħ ÛĮ
Ð°Ñİ ÑĤÑĮ
Ġp ela
àµ Ĺ
Ġà°¸à°¿à°¨ à°¿à°®
Ġmy Ã¶s
à¸Ń à¸Ńà¸ģ
T R
×© ×ķ×ª
on ia
Ġê± °
ĻáĢº áĢ¬áĢ¸
vis or
à¸£ à¸£
ic Äĥ
ĠÙĨ ÛĮØ²
8 2
ah l
Ġæĺ ¨
mo q
Ġimport ant
å· Ŀ
ĠÑĨ ÐµÐ»
ig b
ĠPers on
ìĸ ´ë
çĶ ·
à´Ĥ à´Ĺ
à°® à±Ĩ
ĠsÃº a
Ã© es
ÏĢ Î¯
Ġpre c
Ġof fer
at os
ĠE in
ĠØ§ÙĦØ¯ ÙĪÙĦ
ĠÐ¯ Ðº
æµ İ
ĠL uc
Ġàª² àªĹ
v ez
ĠCl ub
Ø§Ø¯ Ø±
Ġthe o
ĠIntern ational
åĨ ³
ĠM it
Ġ% .
ĠÐ¿ Ð¾Ð±
ĠÐĿ Ð¾
à¦¾à¦¨ à§įà¦¤
C O
ØªÙħ Ø§Ø¹
Ġro b
Ġal gun
Ġà´ķ àµĤà´Ł
Ġpolit ik
Ġl y
ĠØ¨ Ø§ÛĮØ¯
Ðº Ð°Ð¼
ĠÚ¯ Ø°
ĠÙģØ±ÙĪ Ø´
ĠØ§Ù ı
Ġo z
áĥĽ áĥĺáĥ¡
il iki
à®£à¯įà®Ł à¯ģ
Ġìĭ ¤
à®¿à® ª
um ia
æĿ ĥ
ÑĢ Ð°Ð»
àª¾àª ļ
à´¨àµįà´¨ àµį
Ġà°¤ à°¨
Ð¾ÑģÑĤ Ð°Ð²
ĠÙĪ Ø§ØŃ
Ġl iter
Ġt wo
Ġà¦® à¦§à§įà¦¯
rip tion
ens ion
à¤¾à¤ ł
lig i
dz ie
oj Ã«
ÙĦ Ûģ
åı į
à«ĩàª ª
Ġpar tic
Ġå° ±
ĠV ic
ê· ¸
ĠE usk
Ø§Ø ¸
ĠOr gan
no ÅĽci
am ing
ĠÙħÙĪ Ø¬ÙĪØ¯
Î» Ïħ
Ġà´µ àµįà´¯
ĠÄ «
æĭ ī
ĠG B
ãĤ¹ ãĥĪ
ĠA lex
Ġy ak
áĢ±áĢ »áĢģ
Ġperson al
ĠÏĢÎ± ÏģÎ¬
æī į
à§ģ à¦ķ
ĠÎĶ Î¹Î±
ĠH u
à¸± à¹Īà¸ĩ
ĠÎµ ÏģÎ³
Ġek onom
Ùģ Ø¹
lar dan
ĠÚ© ÙĨØ¯
ĠØ³ Øª
Ä±s Ä±
ĠØ¨ ÙĪ
æĢ ģ
ì° ¨
×ĳ ×Ļ×Ŀ
Ġà®ļ à®¿à®±
_ d
ãĤĮ ãĤĭ
ĠØ¨Ûģ Øª
ĠÑĦ Ð°ÑĢ
Ġà¤¸ à¥įà¤µ
åĪ ĩ
ĻĢ â
Î½Î¿ ÏĤ
à¸Ĥà¸¶ à¹īà¸Ļ
Ġm Ã¬nh
Ġå½©ç¥ŀ äºīéľ¸
Ġnghi á»ĩ
à´¯ àµįà´ķàµįà´ķ
ĠÐ² Ð°Ð¶
ĠEurop a
à¦¾à¦ Ĥ
Ġl ove
àªµàª¾àª¨ à«ģàªĤ
áĢķ áĢ±áĢ¸áĢ
is ed
à°® à±Īà°¨
sk Ã¡
Ġáĥ¥ áĥĲáĥłáĥĹ
à¥Ģ à¤ļ
Ġn Ã¤r
ĠG R
Ġgebru ik
Ġcont inu
à´¤àµįà´¤ à´¿à´¨
Ġe mail
Ġy in
Ġcom ent
if i
ĠáĥĴ áĥĲ
áĥĲáĥª áĥĺáĥĲ
Ð¼ Ð¸Ð½
Ð¸ÑĤ Ð°
ĠÐº Ð»Ð°Ñģ
Ġnec es
Ġl ie
ch ine
ĠÐ¿ÑĢ Ð¸Ð¼
Ġf Ã¸l
ĠÙģ Ø§Ø±
ĠØ¯ ÛĮÚ©
ĠN d
Ġsp r
Ðº Ð¾ÑĢ
à®® à®¾à®©
ÏĨ Î®
Ð¾Ð½ Ð´
ĠâĢĭâĢĭâĢĭ âĢĭ
Ġàª¬àª¨ àª¾àªµ
åĨ Ĩ
ÄŁ er
Ġdis play
è Ĺ
ç© ¶
ĠC L
ÑĢ ÐµÐ¼
ÑģÐº Ð¾
Ġï¿½ï¿½ï¿½ï¿½ï¿½ï¿½ï¿½ï¿½ ï¿½
à¦¨ à¦¾à¦°
Ð°Ð´ Ðµ
Ġkul lan
àµģà´ķ à´¯
Ġs ok
à§ĩà¦ ľ
éħ Ĵ
s et
ĠìĽ Ĳ
ĠØŃ Ùħ
Ġdis pon
àª¾àª ¥
ĠÙĪØ¬ ÙĪØ¯
à®Ł à®¿
Ġà¤® à¥Ī
à±įà° §
ĠØ§ÙĪ ÙĦ
ÏĦÎµ Î¯
Ġà¤¦ à¥ĩ
åİ Ĩ
z ie
à´£ àµįà´£
Ø¬ ÙĦ
ĠÎ± ÏģÏĩ
Ġe urop
Ġà®ĩ à®²à¯įà®²
ĠÑģ ÑĥÐ¼
ÙĪÙĨ ÛĮ
ut y
ĠÏĥ Î¿Ïħ
T I
Ġzbek iston
èī ĩ
al ak
ãĤ ±
Ġw ird
ĠIs lam
ĠØ§Ùħ Ø§
ĠØµ ÙĨ
i el
ĠØ¬ Ø§Øª
Ġcel eb
ĠÑģ Ñŀ
ĠÎŃ ÏĩÎ¿ÏħÎ½
Ġz um
ĀĀĀĀĀĀĀĀĀĀĀĀĀĀĀĀ ĀĀĀĀĀĀĀĀĀĀĀĀĀĀĀĀ
à¸¢ à¸±à¸ĩ
Ġw ake
Ġcs ak
çº ¢
y ang
ar in
à¸± à¸
ìŀ ĳ
Ð¸Ð´ Ð°Ð³Ð¸
ĠP eng
áĥĺáĥ£áĥ ļáĥĺ
Ġ ãģ®
Ġ×¨ ×Ĳ
g ende
áĢŁ áĢ¯
Ġd itu
àª¤ à«įàª°
Î¶ ÎµÎ¹
ãģ¨ æĢĿ
à¯ģà® ²
Ð¸ÐºÐ¸ ÑģÑĤÐ¾Ð½
Ã ı
io on
æĿ Ĳ
ĠÐºÐ¾ ÑĺÐ°
di en
è¶³ çĲĥ
áĥĶáĥ ¤
Ð»Ð¸ Ð·
Ġc art
ĠáĢ ĲáĢ¬
Ð Ĥ
ord in
ĠA us
Ġman y
ĠÃ Ģ
Ġà®Ĩ à®©
Ġku h
Îµ ÏģÎ³
Ê» u
Ġh Ã¸
z on
j ÄĻ
áĢ¼ áĢļáĢ¹áĢ
ĠÐ± ÐµÐ»Ð°ÑĢ
à¥ģ à¤¦
Ġl ugar
ĠN ap
Ġn ipa
à«Ĥ àª°
ĠÃ ĵ
Ġtr as
ĠI d
à°¿à°² à±įà°²
Ġbl ack
Ġqu a
Ġà®® à¯Ģ
Îº Î¿Î»
Ġà¦Ľ à¦¿à¦²
ĠÑĥ Ð·
Ġa in
Ã¼ h
it Äĥ
Ġbar u
Ġáĥ¥ áĥĲáĥļ
Ġà°µ à°ļà±įà°ļ
Ġà¤ķ à¤®
àª¨ àª¾àªĤ
Ġà°ļà±ĩà° ¸à±įà°¤
à§įà¦ Ľà§ĩ
qu er
or ks
l iv
ĠÙħ Ø¨
ĠØ¹ ÙĪ
Ġjs em
al ing
èĭ ±
Ġ19 99
æ¸¸æĪı å¹³åı°
ĠÑĢ Ð¾Ð´
ĠBon us
ĠÐ¶Ð¸Ð² Ð¾ÑĤ
çģ «
à¦¾à¦¤ à§įà¦°
I m
Ġdib dib
Ġale bo
Ġse o
Î» Î¿Ïħ
ot ta
ĠáĢħ áĢħáĢ¹áĢ
ĠÐ¿ÑĢÐµÐ´ ÑģÑĤÐ°Ð²
Ġde d
Ġaj o
×Ļ ×ķ×Ł
ĠâĢ¦ âĢ¦
æİ §
zen ie
Ġà¦¨ à¦¿à§Łà§ĩ
Î© ÎĿ
Ġha o
ĠÄĳ á»ĵng
ich e
Ġà´ħ à´¨
ĠØ® Ø±ÛĮØ¯
Ġt ara
Ġpop ul
ãĥĥ ãĥĹ
à¦¸ à§įà¦¤
Ġàªķ àªĤàª
Ã«n d
Ġm ok
ĠB L
à´£ àµįâĢį
ec tion
æ²¡ æľī
ang k
áĢĲáĢ¹áĢ ŀ
§ ç¾İ
m ier
ĠO k
20 17
ĠÐ¸ Ñģ
Ġh il
á»ĳ t
iy i
ĠÏĢÎµ ÏģÎ¯
à¯ģà®µ à®¤
áº ¸
ĠÔ ±
E Z
Ġs Ã¶
Ġk ez
áĢĦáĢ¹áĢ Ĳ
ĠÐ¿ Ð¾Ð½
áĥĲáĥķ áĥĺ
à´¿à´¯ àµģà´ŁàµĨ
AR A
ç½ĳ æĬķ
ä½¿ çĶ¨
Ġsist ema
à¸Ķ à¸¹
ĠÑĨ Ñĸ
Ð² ÐµÐ½
Ġt sh
ÏĦÎ¹ Ïĥ
æ® µ
as k
ë¬ ¼
Ñı Ð»
éĸ ĭ
Îķ Î£
á»¯ a
ĠÏĢ ÏĮ
áĢĶáĢ¹áĢ ľ
áĥĲáĥ ©
áĢľ áĢŃáĢ¯áĢ·
d am
à«ĩàª ¬
×ŀ× ©
éĹ® é¢ĺ
Ø§Ø¦ Ùħ
Ġà®ļà¯Ĩà®¯ à¯įà®¯
çĶ °
ĠØ± Ø§Ùĩ
Ð¸ÑĢ Ð¸
ĠÑı Ð·
ĠáĢĢ áĢ¯
Ġ×ľ ×ª
Ġf ung
àª° àª®àª¾àªĤ
Ðµ Ñī
v id
Õ¥ ÖĢÕ
Ġj ur
ĠIn c
Ġw r
Ġha ar
à®¿à®¤à¯įà®¤ à¯ģ
íķ Ń
Ġd ic
Ð¸ÑĤ ÐµÑĤ
è¿Ľ è¡Į
Ġ22 2
Ù į
à¤¤ à¤¿
Ġd iz
ag em
ĠAd min
×Ĺ ×ª
Ġst re
Ġsm art
Ġàª¸ àª¹
Ġper Ã²
Ġn je
åĽ Ń
Ã© ri
ul la
est r
å® ¤
ä¾ ĭ
áĥĲáĥĿ áĥĳ
à¸´ à¸Ī
Ġà¸ļ à¸Ńà¸¥
ä½ İ
Ñģ Ð»Ð¸
Ġy eni
ĠÙĦ Øª
re en
ob e
ÙĬ Ø¨
ÑĢ Ð¾Ñģ
Ġn á»į
Ġë Ĭ
ĠØª ÙĪÙĦ
à¯ģà®ķ à®³
à¤ ¢
sk ie
Ġle o
Å¾ d
I X
ĠUnivers ity
Ø± Ùĩ
ĠA ustr
ãĥķ ãĤ
il ÉĻr
Ġ13 0
ĠÃ© l
Ġm Ã¶
Ġà®ķ à®²
q s
à¸£ à¸ģ
Ġfig ure
ĠãĢĳãĢĲãĢĤ ãĢĳãĢĲ
ĠB ra
Ã³ t
ĠB ras
id enti
Ð°Ðº Ð°
or de
Ġse arch
Ġà¹Ħ à¸Ķà¹ī
àµģà´® àµįà´ª
ill Ã¤
ĠI V
Ġå ģ
Ġein en
Ġaut om
ëĤ ´
à¯ģà®ķ à®³à¯į
ŀ àµįà´ļ
± áĢĢáĢº
ĠáĥĴ áĥĲáĥĺ
ĠØ¯ Ùĩ
Ġbr and
áĥľ áĥĿáĥĳ
Îº Î®
à°¾à°¨ à±ģ
ĠS un
ĠØ§ÙĦØ£ Ùħ
ĠáĢĢ áģ½
à°¸ à±į
Ġ12 5
Ġáĥķ áĥĶáĥł
ì² Ń
ä¿¡ æģ¯
àªķ à«ĩ
Ñĭ ÑĨÑĮ
Ø¹ ÙħØ§ÙĦ
ĠÐ½Ðµ Ð·
ÙĲ ÙĨ
ow ych
Ġà¤¸ à¤°
Ġty re
Ġe b
ê¸ ī
Ġãĥ ķ
ĠåĲ Į
à ³
Ã ħ
ĠS y
Ġk li
áĢ±áĢķ áģļ
Ø§Ø¦ Ø¯
Ġfamil y
z an
à¦¿à¦ķ à§įà¦·
Ġor az
à«ĩàª ¦
Ġe o
Ġc ab
ĠÐļ Ð°ÑĢ
á»ĵ i
Ġde k
Ġgo ed
à°² à°¾
Ġt ÉĻr
à¸¡ à¸ª
ĠK it
æ¯ Ľ
ĠÙĪ Ø§ÙĤØ¹
ĠÐ´ ÐµÐ¹
å£ °
il en
Ġàª¨ à«Ģ
Ð°Ð½ ÑĮ
Ġgre at
as un
Ġàªļ àª¾àª²
ĠAl b
Ġáĥŀáĥĺáĥłáĥ ķ
Ġa iz
ç» ¼åĲĪ
Ġza idi
Äģl Äģ
Ġàªª àª¾àª¸
Ġen er
×¢ ×ķ×ª
Ġc Ã²n
Ġæ ·
ĠP os
unÈĽ uri
Ġâĺ ħ
ĠÛģ ÙĪÚº
Ġä½ ł
Ġul ar
ĠhoÊ» oh
Ð¼ ÐµÑĤ
à«ĭàª ¸
à¯ģà® ļ
Î¼ÏĮ ÏĤ
Ã¡ ci
ĠÑģÐº Ð»Ð°Ð´
f ica
ets eng
à§ĭ à¦²
×ľ ×ª
Ġà®µà¯Ĩ à®³
ĠØ³ Ù¾
Ġc ad
Ġq ur
ĠM obile
ĠP ap
éĤĢè¯· çłģ
Ġà®¨ à®¿à®²
Ø§ÙĦ Ø©
ä¹ °
à¹Ģà¸Ĺ à¸¨
ĠP Ã«r
Ġà¤µ à¥įà¤¯
oug h
Ġàªľà«ĭàª Ī
ĠK im
Ġab er
ĠL iv
ot en
eb o
Ġà¦¬à§įà¦¯ à¦¬
Ġun i
æľī éĻĲ
à«Ģàª ¡
ĠP el
Ġ/ >
æľ Ľ
Ġàªª à«ĭàª²
ãĥ Ģ
ÐµÑĢ ÑĤ
ec te
Ð°Ð½ Ñĭ
Ġc ul
à¯Īà®ķ à®³à¯į
Ġ×Ļ ×ķ×ª×¨
Ġim pl
Ġà®ª à®¯
ĠL ight
áĤ Ĩ
à¸£ à¸¹à¹ī
Ġre ad
à¸ĩ à¸²à¸Ļà¸
iv il
Ġà´¤ à´¨àµįà´¨
à´° à´Ĥ
ac ter
Ġy g
áĢ¸áĢ ķáĢ«
ent al
Ġm á»Ľi
à«įàª ¬
ãĥ ¯
Ø§Ø¨ Ø·
Ġed ir
ĠN O
ĠÐ· Ð°ÑĤ
ĠF un
å¥ ĩ
Ġm ek
j el
ÏĦ Ïİ
Ġà®ĩ à®µ
Ð³ Ð¾ÑĢ
larÄ±n Ä±
Ġc our
Ġ×ŀ× ŀ×
ĠÙ¾ Ø§Ø³
ĠW est
æ¼ Ķ
áĢ±áĢĲáĢ¼ áĢĢáĢŃáĢ¯
ĠãĤ ·
ĠT s
ĠJ ag
p end
or u
Ġv ara
ĠìĤ¬ ëŀ
Ġàª¨àª¹ à«ĢàªĤ
ļ áĢ¬áĢĢáĢ¹áĢ
à¥ĭ à¤²
ĠÙĥ ÙħØ§
çħ §
àªµ à«ĭ
ĠØ§Ø· ÙĦ
Ġa st
Ġå¼ Ģ
Ġac est
t ak
Ġå¥ ½
áĥĲáĥª áĥĺáĥĺáĥ¡
Ġn ett
áĢĽ áĢ±áĢ¸áĢ
Ð»Ð¸ Ð¼
Ø¯ ÙĪ
Ġy ol
á»ĳ n
Ġv Ã¦r
Ġ16 0
ä¸Ń å¿ĥ
ĠÐ· Ð°Ð»
ĠS at
à°¾à° ³
Ġà®¤ à®²
ĠÙĤ Ø³Ùħ
Ã© ben
à«ĩàª¶ àª¨
ĠÐ¾ Ð·
Ġm int
à¤Ń à¥Ģ
Ġme j
Ġos ob
Ð½Ð¸ ÐºÐ¸
Ġpr ice
à´¨àµįà´ ±
ÎĳÎ Ŀ
ĠÙħ ÛĮØ±
ĠÐ² Ð°Ð·
Ð´ Ð¾ÑĢ
h el
ÑĤ Ñı
is chen
Ġmund o
Ġà¹Ĥ à¸Ľà¸£
Ġg as
Ð¸ Ð³Ð°
ĠÏĢÎµ ÏģÎ¹ÏĥÏĥÏĮÏĦÎµ
áĥľ áĥĲ
ĠÏĦ ÎŃ
à°¨ à±įâĢĮ
Ġleng th
à´ķàµįà´ ¤
×ĳ ×Ļ
Ð¸ÑĤÐµ Ð»Ð¸
op s
Ġsa ÄŁ
Ġs ort
uks en
Î´ ÎµÏĤ
Ġm ÉĻn
ĠÑģÑĤ ÑĥÐ´
í Ŀ
â ĺ
Ġn aman
åĳ ½
è¿ ŀ
ĠPa ul
Ġç «
Ġk 8
áĥľ áĥĶáĥļ
áĢ½ áĢ±
ÃŃ z
Ġè ¶
èĪ ª
à°¿à°Ĥà°ļ à°¾à°°à±ģ
áĢĲáĢ²áĢ· áĢ¡
Ġp elo
è® ¤
Ġex pl
Ġàªķ àª²
Ġà¤Ĩà¤£ à¤¿
Ġb em
Ġ" );
ch u
± ¼
Ġn Ãªn
á»ĥ u
tic s
il ib
ÅŁ i
Ġk ans
ĠW ith
åł ±
ĠA w
Ġk y
àª° àª£
Ð¡ Ð¢
Ġs á»Ń
Â «
ĠCon c
ì ¸
ĠáĥĽ áĥĵ
ĠÚ©ÛĮ ÙĦ
áĢĦáĢ¹áĢ Ģ
Ð´ Ð¸Ð½
ÙĤ Øª
ÄĽ l
Ġm Ã©g
eber apa
ĠØ¹ ÙĨØ¯
ĠØ² ÛĮØ±
áĢŃáĢ¯áĢĦáĢº áĢĦáĢ¶
Ġn ÉĽ
y z
Ġn es
Ġ14 0
ç§ °
Ġad v
ho ut
ar Ã¡
Ġe e
Ġíĺ Ħ
Ġj Ã¡
ĠáĢ±áĢĶ áĢ¬áĢĢáĢ¹áĢ
Å¯ j
ci es
Ġé ķ
Ġo vat
w ork
ĠáĢĺ áĢ¬
ĠU na
Ġ* **
AR I
Ġmul ti
Ġáĥ¡áĥĲáĥ ĳ
ĠÛģ Ø±
Ġj el
áģĢ áģĢ
Ġin tr
à¹Ĥ à¸Ļ
ãģł ãģĳ
Æ°á» Ł
Ġcont in
Ġà®®à®±à¯įà®± à¯ģà®®à¯į
¤ Ģ
Ġsp ot
ÑĨ ÐµÐ½
ç»ĵ æŀľ
Ð°ÑĨ ÑĭÑĸ
Ġar m
Ð» Ð¾Ð¶
ĠæĪ Ĳ
ĠnÃ¥ g
Ġmod ern
Ġi be
Ġpol o
Ġd á»±
Ġpr is
ĠY ork
ti mo
ÑĢ Ð°Ð±
ĠTw itter
ĠÐ¿ÑĢ Ð¸Ð²
å°± æĺ¯
ĠÑĨ ÐµÐ½ÑĤ
Ġgr ande
Ġdu het
Ġc Ã¡ch
ĠÐ´ Ð°Ð½
à¥ĩà¤ ľ
Ġzu en
Ġà¤ľ à¥Ģ
l s
ĠÐ¾Ð± ÑĢÐ°Ð·
Ġl itt
áĢŃ áĢĻ
ĠÐ¿ÑĢ ÐµÐº
ch ten
í Ĺ
b it
Ġh us
ê° ģ
¶ Į
Ġ×ķ ×Ľ
åŁ Ł
ĠáĢħ áĢ¬
áĢĻáĢº áĢ¬áĢ¸áĢ
Ġc y
Ġth ese
Ġ Ã¡l
il ia
à°¿à° ¦
Ĉ Ĉ
ì ¤ĳ
æŀ Ĳ
Î³ Îµ
ih in
Ġà´ħ à´Ł
Ġi c
à¸ĸ à¸¶à¸ĩ
st s
à¸Ļà¸ Ĺ
åı¯ èĥ½
Ð¾Ð² Ð°ÑĢ
id d
ĠáĥĴ áĥĲáĥķ
ih at
ĠÑĢ ÐµÐº
m ÉĻ
Ñı Ð»Ñĸ
ÅĤ ad
Ġf rem
atz eko
Ġå¹ ¶
ĠÙĩ ÙĬ
Ġth áº¿
ÑĢÑĭ Ð¼
ord s
ŀ į
us ia
à°¾à° ·
ĠØ¹ÙĦ ÙĬÙĩ
Ä± ld
Ġar v
ĠPro duk
q at
ĠÐ·Ð°Ðº Ð¾Ð½
×¤ ×ª
ĠâĢ ¹
ro f
8 1
ÐµÑģ ÑĮ
ĠIn t
Ġlab or
Ã© ly
v or
Ġker ak
Ġpen y
Ø² Ø´
Ġh Ã¤r
Ġk ot
áĢĻ áĢļáĢ¹
à¦¾à¦ľ à¦¾à¦°
à¦ ŀ
Ä« gi
ĠØ® Ø§Øµ
ĠÐ¾ Ð²Ð°
ÄŁ a
Ð² ÑĢÐ¸
Ġiz m
Ġå® ī
ĠA K
ĠÐĶ Ð°ÑĢ
à¥ĭ à¤ķ
Ġr iv
© áĥĶáĥķ
ĠÑħ ÑĥÐ´
Ð± Ñĥ
Ã« z
Ġsu ur
à¸§ à¸ģ
à´ ¥
ÛĶ ÛĶ
lar ga
Ġà¦¥ à¦¾à¦ķ
lig ht
à¤¾à¤¨ à¤¾
ĠÐ± ÑĬ
ĠÑģÐ» ÑĥÐ¶
à¤¾à¤ ·
ul ta
Ġish te
ĠÐ³Ð¾Ð´ Ð°
à® ¨
ĠÃ ĥ
Ġc Æ¡
ĠMad rid
à¸¥ à¸²
ĠØ´ ÛĮ
ĠÙħÙĪ ÙĤØ¹
ä¹ ł
Ġç Ħ
à¯įà® ¸
à´°àµįâĢį à´ķàµįà´ķ
Ġvo i
Ġpre mi
az on
ĠãĤ «
à¹ģ à¸Ĺ
ÉĻs indÉĻ
Ġge Ã§
ĠB rit
ĠR el
ak ter
E P
ĠÑĪ Ð°Ò³
ĠÐ½Ðµ Ð¾Ð±
ą ć
çĻ º
æľ ª
ĠÐ° ÑģÑĤ
à´¤àµįà´¤ à´¿à´¯
Ġåħ ¬
ÃŃt Ã¡s
Ġk ik
Ġh ud
ar b
ĠÙħ Ø§Ùĩ
Ġwat er
eng e
Ã«n Ã«
p m
z em
ĠáĢĺ áĢ¯áĢĽ
ÙĨ ÙĬØ©
Ġàª°àª¹ à«Ģ
¸ ı
Ġn ako
ĠM S
ĠÐ¸Ð½ ÑĦÐ¾ÑĢÐ¼
Ġtra v
ĠÑĤ Ñĥ
z el
à¯įà®ļ à®¿
it ta
Ġáĥłáĥ £áĥ¡
ÙĦ Ø§ØŃ
ĠØ³ ÙĨÚ¯
Ð°Ñĩ Ðµ
Ġv os
Ġku w
H O
Ġa acute
ĠÙħÙĪ Ø¶ÙĪØ¹
ĠÐŁ Ð¾Ð´
Ġáĥŀ áĥĿáĥļ
à¯įà®ª à¯įà®ª
Ġç ¥
é» ĳ
Ġv ah
ĠJ esu
Ð¸Ð½ Ð¾
up un
à´¤ àµįà´°
Ġàª¦ à«ĩàª¶
Ġjs ou
ĠI g
Ġmo Å¾
ĠM eg
Ġå ĵ
çİ ¯
Ġ×© ×ł
Ö ´
wo od
áĢĽ áĢ²áĢ·
ĠP ed
à¤¾à¤¨ à¥Ģ
Ġp ati
ik si
Ġà°° à°¾à°ľ
áĥľ áĥĶáĥĳáĥĲ
Ġr áº¥t
Ñľ Ð¸
ov Ã¡nÃŃ
à¸Ħ à¸¥
Ø§Ø¦ Ø±
Ġpro jek
ìĨ į
ļ à°¿
Ġà°ħ à°¨à°¿
Ġs op
Ġn ok
Ġet sa
Ð¿ Ð¸
æĪĳ ä»¬
àª¾àª¨ à«ģàªĤ
à±ģà° Ł
ÉĻy ÉĻ
Ð ¨
ĠÐ² Ð¸ÑĢ
ĠáĥĲáĥĵáĥĲáĥĽ áĥĺáĥĲáĥľ
à¯ģà® ´
à«Ģàª ª
Ġst ore
à· Ĵ
20 18
ot er
ĠL ev
Ġà° ĵ
à¹Ĥ à¸¥
Ġfor sk
ĠPar is
Ð°Ð» Ð°ÑĢÐ¸
ĠáĢ¡ áĢĶ
ĠH indi
Ġå Ĵ
ĠÎĵ Î¹Î±
Ġm are
Ġàªľ àª¾àª¯
Ñĩ Ð°Ñģ
Ġl Ãµ
Ġal c
×ĵ ×Ķ
ĠÛģÙĪ Ø§
ÑĢ Ð°Ð´
ze j
ĠÐ½Ð°ÑĢ Ð¾Ð´
Ġë¶ Ħ
à¹Ģà¸ ĭ
ĠÑĥ Ðº
Ġp us
Ïĥ ÏĦÎ¬
ĠÐ½ Ð°Ð±
Ġl ife
T ype
ĠT al
à°¸ à±įà°Ł
Ġà°Ĺ à±ģà°°
uk t
å¤§ åħ¨
ĠãĤ ³
Ã¦ k
Ġh im
Ø° ÙĦÙĥ
ĠáģĤáģĢ áģģáģ
Ġb ila
ib er
ĠÐ´ Ð¾Ð²
ĠÙģÛĮ ÙĦÙħ
ĠE esti
ëĬ ¥
Ġà¤ħà¤ª à¤¨à¥ĩ
ĠÐ¿Ð¾Ð» ÑĥÑĩ
ãģª ãģı
à®¾à®³ à¯į
lÉĻr in
Ġv Ã¤r
Ð² Ð°Ð½Ðµ
Ã ķ
ĠÐ¸ Ð³
ĠÐł Ñķ
à¹ī à¸ĩ
à¸±à¸ģ à¸©
em in
Ġæ ĭ
ĠÑį ÑĤÐ¸
áĥĿáĥłáĥ ¢
à¹Ģà¸£ à¸·à¹Īà¸Ńà¸ĩ
so ci
àªµ àª¾àª°
at as
Ġpor que
Õ¡Õ¯ Õ¡Õ¶
ĠÙĬ Øª
Ġ ãģ¾
ãĤ º
ÙĪ ÙĪ
an u
Ä¾ a
Ġsh p
Ġorgan is
áº¹r áº¹
Ġi w
ĠÑģ Ð¸ÑĤÐµ
Ġkut oka
Ø§ÙĦ ÙĬØ©
Æ°á»Ł ng
á» ¹
Å¾ it
re v
Ñĸ Ð»Ñĸ
ap os
Ġí ĽĦ
Ä± yor
Ãº p
ul as
Ġsup port
áĥĿáĥļ áĥĿ
×¨ ×ĺ
Ð¸Ð½ Ð°ÑĤÐ°
Ġx a
ur ile
Ġ×Ķ ×Ļ×Ķ
ĠÏĢ Î¹Î¿
Ġk imi
à¹Ģà¸ ¢
ate ur
à¥įà¤¯ à¤¾à¤ļ
Ġth á»Ŀi
ĠÙħ Ùħ
Ġà¦ķ à§ĭ
Ġà°ª à°°à°¿à°
ĠÏĩ Ïī
Ġa Ã§
Ġmol t
ĠS n
ĠÏĢ ÏģÏī
ĠL ast
ĠH om
Ġf eb
Ġesc ort
ĠDes ign
ĠF ir
Ġm ade
ĠÏĢ Î¬Î½
çĻ¾ å®¶ä¹Ĳ
Õ ¯
M S
Ġáĥ¥ áĥķáĥĶáĥ§
Ġle i
ĠÐ¼ Ð°Ð½
Ġth Ã´ng
Ð» ÐµÐ½Ð½Ñı
ĠàªĨ àªĹ
ĠàªŁ à«įàª°
Ġm est
Ø§Ø¨ ÛĮ
Ġcat eg
ĠÐ¿ Ð°Ð¼
AN T
ÑĨ ÑĤ
r ig
Ġj in
áĥĿáĥ ĸ
Ġw it
ĠMic rosoft
æĭ ¿
à¦¿à¦ķ à§ĩ
à¦ ī
Ð¼Ð¾ ÒĽ
è´ Ń
×ŀ× ¦
ÐµÑĤ ÑĮ
Ġge en
ag ra
ĠâĢ ª
Ġ":" ","
ĠÑĪ ÑĤ
ĠP ot
ëį ĺ
áĤ ī
D I
Ġz ÅĤ
m Ã©ny
à¯Īà®¯ à¯Ī
Ġà¤® à¥ģà¤
Ġà´ķ à´¾à´°
aj Ãº
ĠãĢĤ âĢĿ
ĠÑĢ Ð°Ð¹
ss Ã¤
à¸Ļà¸ ¸
Ġy oki
áĥ¡ áĥĲáĥ®
àµģà´ķ à´³àµįâĢį
Ġh Ã¬nh
áº¡ nh
el Åĳ
r ys
ĠáĢ¡ áĢĳ
Ġàª¬ à«ĩ
Ġz ur
Ð½Ñĸ ÑģÑĤÑĮ
k us
é ±¼
Ġàª¨ à«ĭ
Ġprod u
Ġ$(" #
åĽ½ å®¶
ĠB R
à¤¾à¤ ¶
Ġàª¤à«ĩ àª¨à«ĩ
íĻĶ ìĿ´íĬ¸
Ð¾ ÑģÐº
ĠÐ¿ÑĢÐ¾Ð´ ÑĥÐº
ĠÐ¼ Ð°ÑĪ
Ġdis pos
áĥ® áĥĽ
àªµàª¾àª¨ à«ĭ
ĠA j
ĠØªÙĪ Ø§ÙĨ
ĠCh at
Ġ ÏĪ
à±ĩà° ®
ĠO N
à¸ª à¸²à¸¡à¸²à¸£à¸ĸ
ĠÐ¼ Ð»
ĠÐ±Ñĭ Ð»Ð¾
ĠÐ¢Ð¾ Ò·
ĠTe chn
Ø§Ø¦ ÙĨ
ĠÐł ÐµÑģÐ¿
ĠH P
è¨ Ī
ĠÚ© ÚĨÚ¾
áĢ½ áĢĦáĢº
Ġl un
éķ ·
Ġdur ante
à¸¸ à¸¡
ÑĨÑĸ ÑĹ
y la
Ġtr Æ°á»Ŀng
Ġb ecause
áĢ¼ áĢĶáĢ¹áĢ¸
ard en
Ġà¦ķ à¦¿à¦¨
áĥ¡ áĥ¢
Ġf um
t Ä±r
Ġal um
íĶĦ íĻĶìĿ´íĬ¸
ĠÎĶ Î·
Ġth á»±c
áĢľ áĢŃáĢ¯áĤĶ
Ġt ym
ĠâĢĺ âĢĺ
Ġgro ot
àª°à«įàª £
ĠáĥĹ áĥĳ
Ġv iv
Ġí İ
à°¤ à±įà°¯
H z
Ġth en
×Ľ ×ķ×ľ
ĠE p
Ġconta ct
áĢŃ áĢĶáĢ¹áĢ¸
Ð°Ð² Ð¸
c ut
sk Ã½
Ð² Ð¾Ð»
Ġ' )
åĦ ¿
à´± àµĨ
ĠÑģ ÑĢ
ĠÎĳ Î½Î±
Ġvoc Ãª
Ġnorm al
à¸´ à¸§
Ø§ÛĮ ÙĦ
larÄ±n Ä±n
áĢ¶ áĢ·
inÄģ t
k ou
Ġol la
Ġàª¤ à«įàª°
à¤¾à¤° à¤¾
up akan
Ġha q
à¤¿à¤ Ł
pa Ã±
z es
L C
à¹Ģà¸ĩ à¸´à¸Ļ
r oll
Ġ Ã¡ll
Ġg uz
ĠG j
áĥĲáĥ® áĥĶáĥĳ
Ġs ign
v ia
u q
Ġt ok
w ie
B O
à¯Īà®ķ à®³
sz er
ĠÙĪ ÙĨ
Ð½ ÐµÐ²
å®ī åħ¨
ĠØª Ø¹Ø¯
Ġg eh
Õ¥ Õ¶
Ġos s
Ðł Ðħ
æĻ ¯
ag ue
ĠÚ© ÙħÛĮ
Ġsex o
Ġmed ic
à«Ģ àª¨à«Ģ
ha u
ÏĦ Ïģ
Ġêµ Ĳ
ĠN ord
ÏĦÎ¿ Î½
Å¡an u
v Ã¤n
à¸Ĺ à¸°
m el
ert y
à¸²à¸£ à¹Į
ĠDav id
à«ģ àª¸
áĥĶáĥĳ áĥĸáĥĶ
i et
Ġdok ument
ãĤĤ ãģ®
ãģ§ãģĻ ãģĮ
Ø§Ø±ÙĬ Ø®
n om
ĠÐ¼ Ð¾Ð»
Ä± lan
ĠSo uth
l ama
áĥļ áĥĺ
Ġg Ã¥r
ĠØ¯ ÙĪØ³
ìŀħ ëĭĪëĭ¤
Ã Ĩ
Ġword t
Ġl Ã¸
Î¹ Î»
à¥Ĥ à¤ª
Ġar ch
ĠIt alia
ÙĬÙĨ Ø©
o in
ĠAr tic
åħ «
Ġà¦ı à¦¸
Ġya x
ĠResp ublik
à¸Ĭ à¸±à¹Īà¸Ļ
à®¿à®¯ à®¾à®ķ
Ġm ali
ĠIn f
Ġà¦¬à¦² à§ĩà¦¨
~ ~
áĥ£áĥ ĳ
ut ako
Ġk esk
Ġex t
å¾ ®
ĠÕ «
Ðº Ð¸Ð»
ĠØ¨ Ø¬
ĠÃ Ķ
Ġinv est
aj Äģ
Ġå¿ «
Ø§Ùģ ÛĮ
è «
à¸Ļà¸ Ħ
Ġáĥ¡ áĥ¬
Ġs id
Ġà´ļàµĨà´¯ àµįà´¤
Ġmo o
ĠB ig
ĠÐ¾ÑĤ Ðº
ÙĬ Ø´
eng o
ĠÐº ÐµÐ»
ba ar
Ġet ter
áĢ»áĢĸ áĢħáĢ¹
à´¨àµįà´ §
Ġ×ľ ×Ļ
" >
Ġsel le
Ġf ly
ĠT anzania
áĥª áĥĲ
ĠÎ¼Îµ ÏĦÎ¬
Ġm utta
ĠH am
Ġàªķàª¹ à«įàª¯à«ģàªĤ
Ġc c
Ġ áĤıáĢ½áĢħáĢ¹áĢ
ĠÐ½ Ð°Ð³
Ġàª¤à«ĩ àª¨àª¾
éĽ »
áĢĻ áĢ®áĢ¸áĢ
Ġè ī
à¥ģ à¤¤
ÑıÑĤ ÑĮ
C A
Ġe usk
ä¹ ī
ĠÚĨ ÙĨØ¯
Ġv ic
in os
w ana
iz z
al ari
ëĵ¤ ìĿ´
à¸ķ à¸£
Ġáĥ¬ áĥĺáĥľ
Ġàª® à«Ĥ
ĠÐ¡ Ð²
Ġv r
art o
Ð¡Ð Ĥ
ung kin
Ġà´ ķàµįà´ķ
ĠØ§Ùģ Ø±Ø§Ø¯
Î»Î¿ Î¹
ar es
Ġthro ugh
Îķ Î¡
Ð¸Ð¼ Ð¸Ð·
ĠÙĪ Ø¥
ĠE R
ĠS S
Ġsu ch
ĠáĥĶ áĥĻ
Ġdire ctor
Ġo tr
Ġà´ķ àµģà´±
Ġke y
Ġfr am
ĠÏĢ ÏģÎŃÏĢÎµÎ¹
it ur
ĠÐ³ Ð°Ð·
Ġm Äģkou
ĠUn ited
Ġg Ã¶z
Ġâ ŀ
Ġn ye
ĠÙĬ ÙħÙĥÙĨ
Ġod p
áĥ®áĥĿáĥķ áĥł
ĠCom m
ĠÑĸ Ð¼
Ġs Äħ
Ġd iri
Ġs ter
ĠK wa
ek er
áĢ¡ áĢŀ
ĠáĥĲáĥł áĥĲ
à¤¾à¤° à¥ĩ
ĠGre en
à¥ĩà¤ Ĺ
Ð¸Ñģ ÑĮ
sh me
ĠáĢħ áĢŃáĢĲáĢ¹áĢ
ĠÂ ¾
à«Ģ àª®àª¾àªĤ
ant u
Ġì ¶
Ġd ru
ĠÎł Îµ
à°¯ à±įà°¯
à¯Īà® ¨à¯įà®¤
Ġa os
Ġa ast
áĢ±áĢ ĸ
Ġp ub
Ġp are
!! !!
Ø§Ø² Ùħ
à¹Īà¸²à¸ §
n ah
ĳ åħĭ
Ġà¤¸ à¥Ģ
ĠÙģ Ø¹
Ð°ÑĢ Ð¾
Ĺ ä¸ĩ
áĢľ áĢ¬áĢ¸
×Ļ× ŀ×
áĥĲáĥļáĥĺ áĥĲáĥľ
áĢŁ áĢ¯áĢĲáĢ¹áĢ
à¸Ļà¸ «
ĠØ§ÙĦ Ùī
und ay
Ġd zi
áĢĿ áĢĦáĢº
Ġhist or
l ist
Ġ äºĮ
Ġk od
Ġg aran
áĥĲáĥłáĥĹ áĥļ
Î½Î¿ Î´Î¿
ĠV il
j ut
Ġà®ī à®Ł
Ġf ond
ÛĮØ´ ÙĨ
ĠB A
AR T
Ġpa ÃŃs
Ġà®µ à®¿à®Ł
à±Ģ à°¯
is ema
ak it
ĠÙħ Ø§ÙĨ
Ġf ok
Ð± ÑĢ
Ġk Ã¶r
ĠO R
ĠØ§ÙĦØ³ ÙĬ
Ġcl ick
Ġv ik
ĠM ik
r g
Ad visor
ĠãģĿ ãģ®
Ġà¤ª à¥Ĥ
ĠN Äģ
Ġno ch
Ð»Ð¾ Ò³
à°¿à° ·
ãĥ ¢
ĠìŀĪ ìĬµëĭĪëĭ¤
el ang
ìĻ ¸
ç» Ń
×¤ ×©×¨
âĢ ı
ĠÄĳi á»ģu
ĠØ§ÙĦØ¹ Ø§Ùħ
íķľ ëĭ¤
ĠØ¬ Ø§Ùħ
x _
Ġba o
à¤¾à¤ Ł
Ġd Ã¶n
Ġb og
ĠáĥĽ áĥĲáĥľ
Ġà¸« à¸£à¸·à¸Ń
Ġb ody
az Äĥ
ĠY ang
äº ¿
Ġsa ja
t d
×ĸ ×Ķ
ĠG az
Ø§Ø¯ ÙĬ
Ġ? "
çī Ľ
ĠB and
Ñī Ð°
ĠÚ¯ Ø¦ÛĴ
à±Ĩ à°Ł
àªĹ àª°
Ġmateri al
ri ft
ĠR od
áĥĲáĥļ áĥ£áĥł
Ġ×ŀ ×Ļ
×¡ ×§
ĠB ed
Ì£ n
Ġf ast
à°ķ à±įà°¤
p li
ãĥ Ŀ
áĢ±áĢĽ áĢ¬
ĠO h
ĠÃ ¦
im um
ĠØ±ÙĪ ÛĮ
ĸ áĢŃáĢ¯áĤĶ
ĠÙĤ Ø§ÙĨÙĪÙĨ
ĠÒ³ Ð°ÒĽ
Ġbef ore
ÑĥÑĢ Ð°
ah o
Ã ĺ
x ico
Ġne xt
Ġl gan
ĠD ani
à°¾à° ¹
Ġtr es
Ġbus iness
ĠØ¯ ÙĪÙĨ
ast ur
ĠK ab
ĠK A
ĠE D
æĬ ¤
ĠáĥĲáĥłáĥ ¡
ĠÙħØ¬ Ùħ
ĠU K
g est
àª°à«įàª ¸
ç» ľ
v end
Ġà¤® à¤¿à¤²
AN A
ĠáĢĳ áĢŃáĢ¯
Ġhot ell
ÏĢ Î¬
Ø¶ Ø§
Ïĩ Î¿
ir as
Ġà¦ķà¦° à§ĩà¦¨
×ķ×ł ×Ļ
Ð½ Ð°Ð²
éĵ ¶
ĠÊ» ia
èį ī
Ġà® ĵ
ĠR em
Ð½ ÐµÐ½
ÏĦ ÏģÎ±
Ġà¸ª à¹Īà¸ĩ
lar ning
à¸± à¸ª
Ġm ember
Ġw ikipedia
æĬĢ æľ¯
ÏĦÎ¹Îº Î¿Ïį
áĢŀ áĢĬáĢ¹áĢ·
or um
Ġgro up
Ġà¦¦ à§ģ
ĠB it
teri or
ch ar
à¸£ à¹īà¸Ńà¸¡
s al
æĬ Ĭ
Ð»Ð°ÑĢ Ð³Ð°
à¸Ķ à¸¥à¸Ńà¸ĩ
å¤ į
Äĵ ja
ÏĦÎ¹Îº ÏİÎ½
Ġë ĺ
ter a
ER S
æĸ° éĹ»
à§ĩà¦Ľ à¦¿à¦²
st yr
et it
ĠÚ©Ø± Ø¯Ùĩ
à¸²à¸ «
ĠÐ½ Ð°Ð»
ĠÂ ¡
ĠÑĢ ÑĥÐ±
à¯ĭ à®¤à¯ģ
æĸ Ń
il es
åģ ĩ
ol es
k n
P r
ãĤĮ ãģ¦
ul os
àª¾àªĤ àªļ
Ġà¦¸à¦® à§Ł
ĠD ia
Ġ% )
Ġinst it
ÙĦ Ùģ
ĠÃ į
Ġà°µ à±Ī
ĠÐ± Ð°Ð»
Ġka zi
Ġal ler
åĪ Ŀ
ĠØ§ÙĦÙħ Ø³Øª
O ST
Ġtrans port
à¸´à¸¡à¸ŀ à¸±à¸Ļà¸
Ã ĳ
Ġàª¶ à«ģàªĤ
Ġse va
Ġqu esto
im es
Ġà¦Ĩ à¦¬
ĠÐ´ ÐµÐº
Ġhar ga
ï¼ Ī
ĠÐµÐ´ Ð½Ð°
ĠÚ¯ Ø²Ø§Ø±
and i
ĠS ystem
Ġmer c
íĺ ķ
ë° ľ
à¤¾à¤² à¥Ģ
áĢ» áĢ¾
Ð» ÑĥÐ¼
ĠØº ÙĬØ±
Ġà¦ªà§įà¦° à¦ķ
ed o
Ġb od
ç´ ł
Ġg ibi
c os
ĠÐŀ Ñģ
ĠP H
ĠB ad
ĠP la
f ici
Ġà¦° à¦¾à¦ľ
Ð½ ÐµÐ¼
Ġfac ebook
Ġr at
ĠÑģÐ¸ÑģÑĤ ÐµÐ¼
Ð½ ÐµÑĤ
ĠëĲ ĺ
Ø± ÙĤ
Ġàª¨ àª¾àª®
å¸Ĥ åľº
ol at
ĠSan ta
Y A
à¸Ī à¸³
ist es
Ð°Ñģ ÑĮ
Ġad res
ov ed
ĠØ±Ûģ Ø§
Ã¶v l
Ġæĺ¨ å¤©
ĠÐ¼Ð¾Ð¶ Ð½Ð°
àª° à«ĭ
Ġ, #
Ġáĥ¨áĥĶáĥ¡ áĥĲáĥ®áĥĶáĥĳ
à¸¹ à¸¥
ÏĮ ÏĦÎ·
Ġun o
éĻ Ĩ
is se
Ġàª® àª¨
Ïĩ Î±Î½
±áģ¾áĢĢ áĢ¬áĢĦáĢ¹áĢ¸
ika Ê»i
é£ŀ èīĩ
en Ã©
àª° àª¸
Ġc oa
çŃ ĸ
ite it
Ġà¸ĭ à¸¶à¹Īà¸ĩ
ĠD in
Ġtim bang
Ġh g
ãģ ¹
r un
ĠÏħÏĢ Î¬Ïģ
ĠÒĽÐ¸Ð»Ð¸ ÑĪ
ĠÐ¿ÑĢÐ¾ÑĨ ÐµÑģ
áĢĦáĢ¹áĢ Ļ
Ðŀ ÐĴ
Ġmen c
D E
ova Å¥
ĠÑŀ Ñģ
ĠÙĦ Ø¨
Ġëħ ¸
ĠÑĤ Ñĭ
we i
ur y
ay ot
Ġà´® à´¨
Ñĳ ÑĢ
Ðķ ÐĿ
Ġà¸§ à¸´
Ã³ ÅĤ
¦ à«įàª°
à¤ķ à¥įà¤¤
ĠáĥĽáĥĹ áĥĲáĥķ
Ġsho uld
à«įàª¯ àª¾àª°à«ĩ
Ġdes en
áĥĵ áĥĺ
_ id
Ġãģ Ĥ
ÑģÑĮ ÐºÐ¾ÑĹ
Î¼ÎŃ Î½Î±
Â £
ing e
Ġur te
àµģà´Ł àµįà´Ł
ĠBea ch
à¹Ī à¸°
à¸ķ à¸²à¸¡
ho a
áĢĽ áĢ®áĢ¸áĢ
à®¸ à¯į
ĠÑĤ Ð¾Ð¿
Ġk ush
ol it
Ø¹ ÛĮ
im at
h h
Ġper c
à¦¿à¦ ·
Ġàª¬ à«ĭàª²
ÑĤ Ð¾Ð±
ĠØ¢ Ø¨
ĠÙħ Ùģ
Ġpre j
ĠS C
Ġ×ľ×Ķ ×ª
ĠÐ¿ÑĢ Ð°Ð´
à°µ à°°
iss ion
çĬ ¶
à¥ĭ à¤Ł
Ġ2 20
Ùı Ùħ
ĠæŃ £
Ġs ti
eg e
ĠM c
è® ©
em as
ĠÑı Ð³Ð¾
Ġk rit
à¤¦ à¥Ģ
ĠÐ´ Ð¾Ñģ
çĶµ æ¸¸
ĠgÃ¶r ÉĻ
Ġj our
Ġex ist
Ġà®İ à®´
em s
áĢ¯ áĢķáĢ¹
à¸¢ à¹Į
iz m
ĠãĤ µ
ĠÙ¾ Ú¾Ø±
×ľ ×ķ×ª
ki em
ch ini
Ġç ´
Ġproj ekt
Äį as
áĢ±áĢ¬ áĢĦáĢ·áĢº
Ġmu y
à¥ģ à¤ª
ĠÐ¼Ñĥ Ð·
ĠÑıÐºÑĸ Ñı
Ġë° °
Ġfot ograf
ÑģÐº Ð°Ð¹
Ð ¦
Ġg ang
ĠÚ©Ø± ÛĮÚº
ĠT emp
à¯Ģ à®°
ĠO t
ì µľ
ì ¶
Ġë Ĩ
tig t
ĠÏĢ Î»Î·
ĠJ ac
Ĵ áŀ
áĢģáĢ» áĢĢáĢº
Ùĥ ÙĬ
ĠØ¯ÛĮÚ© Ú¾
Ġà¤¤ à¤ķ
Ġse Ã§
å®ī åįĵ
ĠÐº ÑĥÐ½
å¯ ¾
ak er
Ġàª° àª®
Ġë ¦¬
Ġà°² à±ĩà°¦
ĠCat al
à¹īà¸Ń à¸¢
ĠáĥĵáĥĲáĥ Ļ
ĠRev iew
ĠáĢ¡ áĢģ
Ġy Ä±l
ate a
ìł Ĳ
ÙĦÙĬ Ùħ
Ġtel ev
å¹ ¶
al at
è¯ Ħ
nÃŃ ch
ĠÏĥ ÏĩÎµ
Î¼ Î¼Î±
Ġà§ «
Ġqu es
áĥĿáĥļ áĥĿáĥĵ
ĠÙĤ Ø·
Ġz w
ĠN em
à¹ģ à¸ķà¹Ī
áĢĢáĢ¹áĢ ¡
à¸Ļà¸ ¶
Ð°Ñĩ Ð°
ĠáĢŁ áĢ¯
ĠP P
Ø§Ø³ Ø¨
ĠÙĨ Ùĩ
ÑĤÐ¸ÑĢ Ð¸ÑĪ
à¹ĥà¸« à¸¡à¹Ī
n ego
Ġà´ £
Ġf ile
Ġat as
w erk
Ġsam t
Ġv ra
ĠE gy
Ġ' :
ni re
Ġp it
ì ½Ķ
×Ļ×ľ ×Ķ
Ġmo ja
Ġz ona
Ġs Ã¸
è± ¡
z Åĳ
isi Ã³n
Ġp ush
Ġte h
à§įà¦¯ à¦¾à¦²
ìĹĲ ê²Į
Ø¨ ÙĪ
Ġáĥĺáĥľ áĥ¤
Ġ×Ĳ ×ĳ×ľ
áĥĺáĥ ®
ĠK un
à« §
ë£ Į
Ð°Ð»Ñĸ Ð·
\ /
Ġà¦¬à¦¿à¦¶ à§įà¦¬
Ġà®ķ à®¾à®²
Ġtemp er
ies e
tic os
ic ar
w id
Ġnot e
à§ĩà¦² à¦¾
ÛĮ Ùĩ
ÙĬØ¯ Ø©
ĠØ¨ Ø³ÛĮ
ĠÑģ Ð¿ÑĢÐ°Ð²
r ada
Ġìł Ģ
ĠSe e
ë ¸
ĠÐ¿ÑĢ Ð¸Ð½
Ġk end
Ð¾Ð½ Ñĥ
ÏĦ Î¿Ïħ
à¸Ń à¸°
Ð §
à´¤ à´¿
Ġ×ĳ ×¤
Ġdis p
à¸Ħ à¸£à¸±à¸ļ
à¦¤ à§įà¦¤
Ø§Ø¦ ÛĮÚº
ĠáĥĽ áĥĲáĥĺ
Ġà¸Ľ à¸£à¸°
ìĦ ¤
à°¿à°¤ à±įà°°
Ã¦ g
Ġo tt
à¤¾à¤² à¥ĩ
ad igan
à¤¾à¤ §
Ġ ä¼
Ġm Ãª
ĠÐ¢Ð¾Ò· Ð¸ÐºÐ¸ÑģÑĤÐ¾Ð½
Ġo wo
Ġ ÅĻ
Ġlak ini
ĠÐ² ÐµÐ»Ð¸
ĠAn unÈĽuri
Ġï¿½ï¿½ï¿½ï¿½ï¿½ï¿½ï¿½ï¿½ ï¿½ï¿½ï¿½ï¿½
ĠR as
áĢ± áĢĢáĢº
ĠÐł Ð°Ð·
Ġà®¨ à®¿à®±
ĠS um
ĠáĢĲ áĢħáĢº
èµ ¢
Ġá¹£ i
ĠM ich
sk o
Ġincl ud
Ġà¦ķ à¦¥
ĠInst it
om et
ro z
ĠØ²ÙĨØ¯ Ú¯ÛĮ
ĠÎµ Î¹
ĠØ¢ÙħÙĪØ² Ø´
æ ¤
Ġë°Ķ ì¹´ëĿ¼
Ġ×ŀ× ¤
à®¤ à®¿
Ġà§ ¦
ĠÑĥ ÑģÐ¿
w ays
ĠÐ¸ Ð»
ĠÐµÐ´ Ð¸Ð½
ĠØ´ Ûģ
íĥ Ŀ
Ġein er
ĠÑĤÑĢÐµÐ± Ð°
Ġs Ã¶z
æľīéĻĲ åħ¬åı¸
ĠSt ud
Ġàªķ à«ĩàªŁàª²
Øµ Ùģ
Ġpr ess
em ente
Ġàª¤à«ĩ àª¨à«Ģ
Ġba ie
Î»Î¿ Ïį
áĥĿáĥĳ áĥĲáĥ¡
Ø±ÛĮ Ø¨
is es
Ġáĥ« áĥĲáĥļáĥĺáĥĲáĥľ
ays ia
ĠÙĬ ØŃ
Ġà®ļ à®®
st Ã¤
ĠE M
àªª à«įàª°
ãĤĬ ãģ¾ãģĻ
ĠØ¬ Ø§
Ã¼ ck
ÑĤ ÐµÐ»
Ð¾Ð»ÑĮ Ð·
Ġde ix
áĢĢáĢ¹áĢ Ĳ
Ġ×ĳ ×Ĵ
or ge
Ġ×Ķ× ĺ
ug o
èĻ İ
áĢŀ áĢĬáĢ¹áĢ
Îµ Îº
inn er
Ġt lo
à¥įà¤¯ à¤¾à¤¤
ÐµÐ½ ÑĤÐ°
Ïĩ Î¹
à°¾à°² à°¿
í ĳľ
ĠÃ Ī
ç» ´
ĠT our
ÑĬ Ðº
is esti
b sp
Ġkl ub
à¸Ļ à¸±à¹īà¸Ļ
Ġà¤¬ à¤¾à¤¦
à¤¾à¤Ĥ à¤Ĺ
Ġà¸Ī à¸²à¸ģ
Ø±ÛĮ Ùħ
åĩ ł
Ġpag gam
Ħ áĢ¼
ĠÐ² ÐµÐ´
Ð¾Ð½ Ð°Ð»ÑĮ
Ġàª« àª¿àª²
Ġem p
Ġabs ol
ĠK ing
ĠØµ Ø±Ùģ
ĠÐ´Ð°Ð² Ð»Ð°ÑĤ
à´ ĺ
Ġtak e
Ġn ez
et ako
Ïĩ Ïī
ĠÑģ ÐµÐ¼
ĠØ® Øµ
og u
à«įàª¯ à«ģàª
Ã§ i
é ¥
Ġw indow
à¹Ģà¸ļ à¸µà¸¢
Ð½Ñĸ Ð¹
ĠÑĥ ÑĪ
Ð¼ ÐµÐ½ÑĤ
Ä« s
à´¨ àµĨ
ĠÛģÙĪ Ú¯
ĠR u
è ĸ
Ġë ¡
Ø¬ Ø¯
Ġs asa
Ġà°Ĩ à°¯
n an
Ã¼l et
ick Ã©
ãĥ Ļ
Ġdo ÄŁ
Ġà´¸ àµįà´¥
Ġz m
Ð» ÐµÐ½Ð¸Ñı
mu ÅŁ
Ø´ Ø¯
é¦ĸ é¡µ
Ġå¤© å¤©
ĠÐ½ Ð¸Ðº
ĠJ er
Ġ199 8
Ð¾Ð» Ð°
j Äħ
»áĢķ áĢ³
à¤Ĥ à¤ļ
à°³ à±įà°²
Ã¼l t
ĠØŃ Ø±
ĠT est
à±Ģ à°²
¡ à°¿
ĠíĶ Ħ
ĠíĮ Į
ĠàªĨàªľ à«ĩ
ĠÙĪØ§ÙĦ Øª
z d
Î¯ Ïĥ
Ä« m
Ġà¤² à¥ĭà¤Ĺ
Ã©s i
Ã¡ si
à¤¾à¤ ĵ
Ġáĥ¡ áĥĲáĥĵ
ĠÙ¾ ÙĨØ¬
t os
k em
Ġy r
ĠØª Ø¯
à´¸ àµįà´±àµįà´±
ess age
ĠG alaxy
ĠA uto
Ġhar us
à±Ģ à°ª
Ġáĥ¨ áĥĶáĥĵ
Ġà®µà¯ĩà®£à¯įà®Ł à¯ģà®®à¯į
Ġak i
ĠÄ ĵ
à¤Ĥ à¤¬
Ð´ ÑĢ
Ġmu ut
Ġf ix
Ø´ ÙĪØ¯
à°¿à° ļ
Ġhier die
Ġçĭ Ĺä¸ĩ
Ġà¤ķ à¤¹à¤¾
ĠØ¯ ÛĴ
à¸ŀ à¸Ļ
Ġar k
ep e
×ķ×¨ ×Ļ×Ŀ
l it
E F
Ġba ada
Ø§Ø´ ØªÙĩ
Î¹Î¿ ÏĤ
Ø¨ Ø§ÙĦ
Ġb Ã©
èģ ĺ
ĠáĥĴ áĥĲáĥł
Ġà®ª à®°
áĢĢáĢ¹áĢ ħ
ĠL eb
ĠAr g
te a
Ġb ukan
ĠáĢĨ áĢĽáĢ¬
ĠH awai
à®ķà¯įà®ķ à¯ģ
×Ĺ ×§
ĠF OR
ÙĬ ÙĪ
ìĹ Īëĭ¤
ìĭ ¬
up an
Ġare a
Ġl ic
Ġr r
à´¯ à´Ĥ
Ġwe er
ĠØ§Ø ¶
ĠA V
ot te
Ġà° §
ĠØ¯ÙĨ ÛĮØ§
ĠM uh
en ing
ÐºÐ° Ñı
Ð°Ð³ Ð°Ð½
ĠSt and
ĠCa ut
ativ o
à¸Ļà¸ ·
áĥĿáĥľ áĥĺ
Ð°Ð² Ð°ÑĨÑĮ
Ġni i
ĠØŃ ÙħÙĦ
ĠÎ¼ Î·
ec tiv
ba o
ĠM em
ac ÃŃ
ï¼ ĳ
áĢĶ áĢļáĢº
Ġka ik
áº¡ ng
Ã¢ t
ec u
ç« ł
ell Ã¤
Ġpro ced
Ġma ak
å¤ ±
het er
b ild
Ġand er
ad ora
å¤© å¤©
ĠÐ¿ÐµÑĢ ÐµÐ´
æıĲ ä¾Ľ
Ġàª¤à«ĩàª ĵ
5 00
Ġà¦ı à¦®
Ġë¬ ´
ĠØ§ÙĨØ¬ Ø§Ùħ
ro g
Ġh ivyo
ÙĪØ± Ù¹
Ġáĥ§áĥķáĥĶáĥļ áĥĲ
ĠÙ¾ ÙĪÙĦ
à®¿à®ķ à¯į
Ùĥ Ø³
ĠU z
ĠB M
çĶµ åŃĲ
s ti
ĠãĢĤ ãĢĤ
Ġà® ¸
ĠK ont
Ðº Ð°Ñħ
ĠF R
p es
iy et
ÐµÐ½Ð¸ ÐµÑĤÐ¾
Ġà§ ª
ĠÐ¿Ð¾Ñģ Ð»ÐµÐ´
Ġ áĤıáĢŃáĢ¯áĢĦáĢ¹áĢĦáĢ¶
Ġ$(' .
áĥĲáĥĵáĥĴ áĥĶáĥľ
Ã¼t Ã¼n
Ġáĥ¡áĥĲáĥ £áĥ
Ġi we
Ð¼ Ð°Ð¹
ĠæĿ ¥
à¸¸à¸ķ à¸ļà¸Ńà¸¥
land s
on av
à¯ģà® ªà¯į
Ġwh ere
ĠbÃ¥ de
àµĨà´¨àµįà´¨ àµģà´Ĥ
ĠØ§Ø³Øª Ø§ÙĨ
Ġl ÃŃ
à®° à¯ģà®®à¯į
am as
ĠÐ¼ ÐµÐ¶
ĠPr in
ìłģ ìĿ¸
åĽ ´
Ġb eberapa
ĠS v
à´® à´¾à´£àµį
Å¡an Äģs
id ing
Ġà¦ķ à¦¾à¦ľ
il adi
Ġìļ° ë¦¬
ĠMod imo
ĠM ill
Ġsig ni
Ø¯ Ø§Ø¯
ol as
ØŃ Ø±
Ġco uld
Ġ. +
b ab
à°¿à° ľ
Ġm ara
Ġig b
Ð´ Ð°Ñģ
Ġà¤µ à¤°à¥įà¤
ĠL ive
Ġ×ĳ ×ĳ
Ġs ays
à¹Ĥ à¸Ķà¸¢
Ð» Ñĥ
àµĭ à´Łàµįà´Ł
ĠD re
ĠáĥĲáĥ ļ
ç Ĩ
èµĮ åľº
ia h
eri es
ĠÐĳ Ñĥ
àª£ àª¾
Ġh ely
à®¤ à¯Ī
ett y
ĠÑĤ ÐµÐº
Ġà®ļà¯Ĭ à®²à¯įà®²
Ġap plic
Ġmes mo
Ġg ÉĻl
Ġ? !
und an
±áĢĽ áĢ¸
Ġpr Ã¡
Ġdo en
Ġj av
ĠÃ Ĭ
áĢ¾ áĢ¯
ĠktÃ³ re
ĠU a
ĠEd uc
ĠØ¯ Ø¹
ipas áº¹
Ð°Ðº ÑĤÐµÑĢ
Ġz iren
as zt
E X
ĠAp art
ÐµÐ½ ÐµÑĢ
k im
Ġg ut
ĠGro up
Ã© re
ĠMart in
ĠÐºÑŀ ÑĢ
ĠÐ² Ð°Ñģ
Ġm ust
Ġa plic
è© ±
Ð¸ Ð²Ð°
ĠD oc
Ġka u
Ð»Ð°Ð¹ Ð½
à¹Ģ à¸Ńà¸ĩ
Î¹Î½ ÏīÎ½
ĠÎ± Î¾
Ġfor um
åĸľ æ¬¢
à° «
Ġein em
ĠT ele
ĠPre z
å¤§ åŃ¦
z in
íķ© ëĭĪëĭ¤
Ġmemb uat
áĢ»áĢķ áĢ³
ĠØª Ø£
Ġ365 bet
æľ ¨
Ġà®¤ à®©
uss en
à¦¾à¦ £
ĠÎ± ÎºÏĮ
ĠØ§Ù ĩ
ĠGal icia
ĠHo use
ON G
Ġà®ħà®¤ à®¿à®ķ
à¹ĥà¸Ļ à¸ģà¸²à¸£
Ġáĥĵ áĥĲáĥľ
×ľ ×ĳ
ĠÙħ Ø¤
Ġn ella
æŀ Ħ
at ia
_ p
çŁ ³
áĢļáĢ¹áĢľ áĢŃáĢ¯áĤĶ
ī áģ
ist ra
w in
ĠL ink
Ġáĥ¡áĥ®áĥķ áĥĲ
ĠÛ° Û
Ġf ollow
Ġvi Ãªn
ĠàªĨ àª°
áĥĶáĥķ áĥĶ
ÛĮ ÙĪ
S P
ĠÐ· Ð±
ĠM ov
áĥļ áĥĶáĥĳáĥĺáĥ¡
à¸£ à¸¹
Ð¾Ð½ ÑĤ
ì¶Ķ ì²ľ
k un
Ġáĥ¡áĥĲáĥ¥ áĥĽ
ĠÐ¼ ÐµÐ´
ĠÎķ Ïħ
à¤° à¤¾
ĠT ri
ĠáĢķ áĢŃáĢ¯
Ġd og
im an
Ġap art
ĠÐ± ÐµÐ»
à®¾à®¤ à¯ģ
ÏģÎ± Îº
Ġc ase
áŁ Ĵáŀ
Ġæ Į
Ġview s
Ġv Ã¥r
ĠÐŁ Ð¾Ð»
ĠØ§Ø³ÙĦØ§Ùħ ÛĮ
vel op
Ġàª¬ àª¾àª³
Ġc áº¥p
ÑģÐºÐ¸ Ðµ
à¦¿à¦ ļ
Ġs ym
n ica
Ġto e
ĠSo ci
à´¾à´ ·
ov al
aliz a
ĠÐº Ð¾Ð¹
à§ģà¦° à§ģ
Ġv es
ĠÙĦ ÙĬ
Ġl Ã½
Ġa ang
ìĶ ¨
ĠÐ½ ÐµÐ¼
Îµ ÏĦÎµ
Ġà¦¨ à¦¾à¦®
ĠØª Øº
à¦¾à¦° à¦¾
Ġ×ŀ× Ĵ
ĠÃ ½
à«ĭàª §
Ġs eda
ĠÑĢ Ð´
áĥĺáĥª áĥĺ
ĠØ§ÙĨÛģ ÙĪÚº
eb e
ĠÎ£ Ïħ
ĠÑħ Ð¾ÑĤ
Ġëĺ Ĳ
d ated
Ġz in
à´¦àµįà´ ¦
Ġk Ã©p
Ã¡ le
ĠN ik
on ta
j Ã¤
t ag
Ġàª¬ àª¾àª¦
ĠF Ã¶r
Ġàª® àª¾àª¨
áĢ ¦
Ð°Ð· Ð¸
à¦¾à¦² à§ĩ
Ð¸ÑĪ Ð¸
Ĳ áĢŃáĢ¯áĤĶ
ĠÚ¯ Ø±
åĪ Ļ
ass en
Ġan h
ĠÐ¿ÑĢ Ð°Ðº
ad Ä±r
Ġinter ess
iz ione
ĠkeÃ§ ir
ĠS eks
Ġus h
Î· Î³
Ġà´¨ àµĩ
Ġà°ª à°¾à°°
ĠØ§ÙĦØ¹ Ø§ÙĦÙħ
lam ent
à°°à±įà° µ
Ã¶vl ÉĻt
ĠÐ°Ðº ÑĤÐ¸Ð²
olog ia
ĠC um
Ð¾ÑĤ Ð°
±áĢĨ áĢ¬áĢĦáĢ¹áĢ
Ġï¼ļ âĢľ
Ġå ¨
áĥĶáĥ¡ áĥ¢
Ġkom p
Ġm ut
Ġr us
ĠB ag
ar na
Ġr ac
×ķ×ĳ ×Ķ
Ġdire ct
Ġanmeld elser
om an
ak k
ĠÑģÐ¿ Ð¾ÑĢ
ĠØ¹ÙĦ Ùħ
Ø§ÙĨ Ûģ
Ġãģĵ ãģ®
áĢ±áĢķ áĢĻ
ĠåĽ ł
Ġpa a
àª² à«Ģ
à°· à±įà°Ł
b eg
ĠÑĪ Ñĥ
Ġle ver
Ø· ÙĦ
Ġ3 50
ë¥ ¸
ĠÃİ n
ĠØ± ÙĤÙħ
ĠØ¯ ÛĮÙĨ
ff er
ĠÐ¸ Ð³ÑĢ
ĠÐºÑĬ Ð¼
ãĥ© ãĤ¤
um us
Ġpr ima
àµĬ à´°
à®¾à®± à¯įà®±
he z
et Åĳ
à¦Ļà§įà¦Ĺ à§ĩ
ĠÎµÏĢ Î¹Ïĥ
Ġp Å«
ÑģÑĮÐº Ð¾Ð³Ð¾
ĠÃ Ĵ
ĠIs ra
Ã İ
ĠC N
ĠT O
rim oni
áĥĺáĥĻ áĥ£áĥłáĥĺ
ĠØ§ÙĦÙħ Øµ
ĠÐ½ Ð°Ðº
Ġnatur al
Î» ÎµÎ¯
Ġm asih
Q U
Ġn en
ĠAnd re
Ġk ila
Ġdu e
Ùĥ Øª
Ġsr c
Ġr ang
Ġb Ã¶l
ĠØ³ Ùĩ
Ġ3 60
ĠT od
is z
Ġd ÃŃa
ĠÐ° ÐºÐ¾
Ġtra b
Ġà´ ¨àµįà´¨
Ġkh Ã¡ch
Ġmer upakan
ĳ áĢ¬áĢĦáĢ¹áĢ
ÛĮØ§ Úº
Ġbo y
ĠG b
ÄĻ p
ĠØ¯ Ø§Ø®ÙĦ
Ġæ Ħ
à´¿à´± àµįà´±
» ¤
à´ ŀàµįà´ļ
Ð» ÐµÐ½Ð¸Ðµ
ĠÚ©ÛĮÙĦ Ø¦ÛĴ
Ġil k
ĠagåĽ½éĻħ äºļæ¸¸
ĠÏĥ Îº
Ġal m
ĠãĢ İ
iv al
ent ro
ar u
ĠØ²ÛĮ Ø§Ø¯Ûģ
ru z
Ġà´ ·
Ġà¦¤ à¦¾à¦¦à§ĩà¦°
Ġé Ķ
à´¤àµįà´¤ à´¿àµ½
ĠÙħ Ø°
3 00
è§Ĩ è®¯
ĠÎ¿ Î¹ÎºÎ¿
ĠØ§ÙĦØ£ Ø³
ĠÃ¶ ss
áĢĢ áĢ±áĢĲáĢ¬áĢ·
ĠÐ» ÐµÐº
à¸Ī à¸±à¸Ķ
áĢĦáĢ¹áĢ ŀ
à®µ à¯ģ
ĠëĮĢ íķľ
ĠV ideos
ĠT as
Ġà¦ķ à¦¾à¦
Ġàªķàª° à«ĭ
Ð¾ÑĢ Ð¸ÑģÑĤ
ĠÚ©Ø± ÙĨØ§
ĠáĢ±áĢ ħ
l ut
à° ¥
ĠÐ¼ Ñı
Ġme hr
à¦§ à¦¾à¦¨
ÐµÐ½Ð¸ Ð¸
Ġ×¢ ×ĵ
ed es
ij k
ĠÐº Ð»
ĠÑı Ð²
áĢĲáĢ¹áĢ ľ
ÑģÐº Ð°Ð³Ð°
ĠØ§ÙĦØ¬ Ùħ
Ġ? ????
äº§ åĵģ
Ġvi en
Ø§Ø¨ Øª
ĠW al
Ġàªªà«ĭàª² à«Ģàª¸
ĠM b
ĠÐµ Ð³Ð¾
Ġt ant
ÙĦ Ø§Øª
åĢ ĭ
Ð¿ÑĢ ÐµÐ´
it ats
áĢĲ áģ
Ġp Äĵc
ĠÐ± Ðµ
Ð°Ð¼ Ñĥ
Ġàª® àª¨à«ĩ
Ġn ipasáº¹
Ġh op
s u
ĠâĹ ı
ÏĦÎ® ÏĤ
Ø¦ Ø©
ĠØ¹Ø¯ Ø¯
ĠB ul
ÙĨ Ùħ
Ġà°¤ à±Ģà°¸
Ġê³ Ħ
ĠÙĪ Ùĥ
ĠR esta
Ã¡l is
Ġ" }
ãģĹ ãģ¾ãģĻ
à¸±à¸Ļà¸ Ĺà¸µà¹Ī
ĠÙħØ« ÙĦ
Ġæ ĥ
Ġje ho
Ġr os
ĠÐ³ Ð»
áĢ¯ áĢĴ
à¸Ń à¸¡
à®¾à®¯ à¯į
Ø§Ø± Ûģ
à® ŀà¯įà®ļ
OR T
ĠÏĢ ÏīÏĤ
Ġs ans
Ġg em
Ġd own
à°Ł à°¿
Ġh app
çĶ ³
ĠÑĤ Ð¾Ñĩ
ĠáĥĹáĥĳ áĥĺáĥļáĥĺáĥ¡
à®¿à®¯ à¯ģà®®à¯į
Ġà®ī à®£
Ġs ap
ĠY o
Ġh ori
Ġb ard
ì ¶ľ
Ġj ika
à¸ ¤
Ġ×ľ ×¦
ĠÐ¿ÐµÑĢ ÑĪ
Ġn ut
Ġv ig
áĢ¬áĢ¸áĢĻ áĢº
ãģĹ ãĤĩ
ĠN um
v v
ĠáĢ ĵ
Ġh ip
ĠK ung
Ê» ai
Ġper form
Ġà´ªàµįà´° à´µ
Ġ] ]
Ġìĺ¤ íĶĦíĻĶìĿ´íĬ¸
Õ¡ Öģ
ĠØ¹ÙĨ ÙĪØ§ÙĨ
ĠT y
ĠáĥĲáĥĵ áĥĴ
Ġf iz
ĠÎºÎ¬ Î¸Îµ
Ġk Ã«r
Ġc ui
est ra
àª¾àªĤ àª¤
Ġà¦¬à¦¿à¦ Ń
Ø§ÙĨ ÙĬØ©
oh le
à¯ģà®ķà¯įà®ķ à¯ģà®®à¯į
ĠÏĢÎ¿Î» Î¹
Ġindiv idu
oc o
ĠAl le
Ġ$(' #
ab an
ĠØ§ÙĦ Ø¨Ø±
Ġ×¢ ×¦
Ġv ys
áĢ»áĢķ áĢĬáĢ¹áĢ
à¦¸ à¦²
è¾ ĵ
Ġà¤¸ à¥įà¤¥
ĠSa int
Ġà¤ Ĳ
ĠS pr
Ùħ ÛĮØ±
Ġá»į má»į
Ġàªħ àª¹
ĠF ore
ãģ¾ ãģ§
ĠÑģÐ¾ Ð»Ð¸
Ġâ Ŀ
ç½ĳ ä¸Ĭ
Ġì Ī
á»į ng
àªļ à«įàªļ
u ur
áĢĶáĢ¾ áĢħáĢº
Ġë§ İ
ĠN ational
az ar
Ġíı ī
Ġh ost
Î´ Î¹Î¬
Ġs ac
Ø¬ Ø¨
ar ang
Ġà°ī à°Ĥà°¡
Ġam bi
m ÉĻk
Ġv á»¥
ĠÑģ Ð°Ð±
à´µ à´°
Ð± Ð°ÑĢ
el ek
Ġj um
ç»ı æµİ
à´¿à´¤ àµįà´°
Ġ10 5
Ġreg ul
EL L
íķĺ ìĹ¬
Ġà°ħ à°§
Ġt ol
Ġsk r
Ð°Ñģ Ñģ
Ġàª¥ àªĩ
Ġo wn
Ġmem iliki
ny t
Ġ= '
Ġà®µà®¾à® ´
an se
Ġfor s
à°ªà±įà°ª à±ģà°¡à±ģ
ĠWh ite
12 3
ĠÙĤ Ø§ÙĦ
Ġst ra
± ħ
Ġj Äģ
Ć ï¼Į
Ġd á»į
Ã§ e
Ġw s
Ġc Ã¹ng
à°¿à°¤ à±ĩ
à¦° à§ĩà¦°
Ġb ola
áĥ§ áĥĿáĥ¤
áĢ½ áĢĢáĢº
ĠB E
ĠÑĩ ÐµÑĤ
ler in
Ġw eng
ul is
con tr
ĠàªĹ à«įàª°
ec ts
Ġp uh
pl es
Ġpar tir
ÏĦ Î¹Î±
ĠáĥĻ áĥķ
ĠB ill
áĢĻáĢ» áĢŃáĢ¯áĢ¸áĢ
ÙĬ Ø·
Ġk ost
Ġà®Ĩ à®ķ
ĠÄį i
Ñĸ Ð³
ĠKe y
ff e
g il
amo ja
à¶ ±
ep a
ĠÙħØ· Ø§Ø¨ÙĤ
Ġpag pap
ä¸ ¾
áĥĴ áĥĲáĥľ
all er
Ġinst al
Ġsend iri
Ġj oka
è ŀį
àª¡ à«Ģ
Ġ- --
Ġàªħ àªŃ
Î½ Î®
Ġw iki
Ġsk ulle
Ġn il
à¸ĺ à¸µ
d ing
Ġta o
Ġa Å¾
ĠCol le
ĠØ®ÙĦ Ø§Ùģ
Î¿Ïį Î¼Îµ
ay Ä±
à¦¤ à§įà¦¯
Ġd ago
Ġáĥ¡ áĥŀ
ĠØªØŃ Øª
é Ń
Ġb uk
ch an
Ġa Ã§Ä±
vi en
s ung
äº Ĵ
Ġc uk
Ġstrat eg
Ġl imit
åĭ Ļ
ir us
ig ba
Ġb li
ĠÑģ Ð¾Ð»
Ġs Ã£o
Ġre ci
r Ã©
ac z
à¸ķ à¹Į
or it
Å¼ e
Ġà´ªà´± à´¯
Ġph áº©m
Ġor der
Ð¾Ð´ Ð°ÑĢ
ï ¾
Î² Î¿Î»
×ŀ ×ķ×ª
ow ie
ĠØ¢ Ø®Ø±
Ġiz ango
ess Ã¤
Ġà¦¸ à¦¹
Ã©n t
ĠáĢľ áĢŃáĢ¯
áĢĽ áĢĦáĢº
ta b
à¥ĩà¤ ļ
T T
áĥĺáĥľ áĥĺ
à¦¾à¦° à§ĩà¦°
æŃ£ è§Ħ
à±įà° ·
tu ar
ell s
Ġà¤¬ à¤¹
Ġrum ah
áĥĶáĥĳ áĥĶáĥļ
Ñĸ ÑĨ
t il
Ġà®ķ à®Łà¯įà®Ł
Ġæ ı
Ġà¹Ģà¸Ķ à¸´à¸¡à¸ŀà¸±à¸Ļà¸
Ġàª Ĭ
k ie
Ġ äºĶ
G G
Ġà®¨ à®¾à®©à¯į
Ġle h
èĭ ¹æŀľ
àª¯ à«ĭàªĹ
un ga
ĠÏĦ ÏĮ
Ġble v
il ig
ĠL og
ä» ½
Ġa á¹£
v od
Ġelektr on
ĠðŁ Ļ
Ä±m Ä±
ĠGr and
o ch
ą Ĉ
à´¾à´± àµįà´±
ĠÐ¿Ð¾ÑĤ ÑĢÐµÐ±
ĠH ier
ĠØ¯ ÛĮØ¯
ĠØ§ÙĦÙħ Ø´
Ġn Ã¦r
ÏĨ ÎŃÏģ
Ġhu o
Ġà¤¨ à¤¿
×Ĳ ×Ļ
Ġ×Ĳ ×ĳ
Ġloc ation
ad z
ĠP ri
Ġkad ar
ĠF eder
ĠÙĤ Ø¨
ĠÕ ¿
b and
Ġà¤® à¥ĩ
ĠÐ´ ÐµÐ±
Ġku in
áĢĤ áĢ«
à§ģà¦ ĩ
áĢħáĢ¹áĢ ħ
ĠÐ¿ÑĢÐ¾Ð¸Ð·Ð² Ð¾Ð´
ne h
å£ ²
ul ts
Ġind ustri
à§Ģ à¦¨
ĠàªıàªŁàª² à«ĩ
Ġse in
ĠM eh
ĠK en
à°¿à° Ĺà°¾
Î³ ÏģÎ¬
ĠéĢ ļ
ìĿ´ ìĬ¤
Ðº Ð»Ð°Ð´
f ol
ĠÐ· Ð°Ñī
Ã¦ s
ĠT il
ÏĥÎºÎµ Ïħ
ĠÑĥ ÑģÑĤ
Ġv ur
Ġtr Ã¬nh
Ġes a
Ġim ages
Ġmom ento
ĠÙĪ ÙħÙĨ
à¦°à§įà¦ ¥
áĢĢáĢ¼ áĢ±áĢ¬áĢĦáĢºáĢ¸
Ġdiff er
Ġ×Ĳ ×Ļ×ļ
Ġbes ar
ĠO ver
ãģĵãģ¨ ãģĮ
Ġà¦ķ à¦¿à¦Ľ
Ġk lar
Ġg Ã¥
P A
ÐµÐ½ Ñĭ
ĠH ab
K K
Ġk eb
àµĤ à´Łàµįà´Ł
U Z
è´ £
Ã© st
à§įà¦ Ľ
unt za
Ġh ap
Ġak tu
×Ĳ ×¨
ĠâĢİ #
Ġv ak
Äģci jas
ĠnhÆ° ng
Ø³ ÙĨ
à¤¾à¤ ģ
ĠÙĨ ÙħÛĮ
ĠÐ¿ÑĢÐ¾ÑĤ Ð¸Ð²
×¤ ×§
Ġà°ªà±įà°° à°Ń
å° ¼
em u
ÚĨ ÛĮ
Å« k
à¹ī à¸²à¸¢
Ã« l
Ñĺ Ðµ
ĠA i
à´¿à´ķ à´³àµįâĢį
Ġtra ck
Ġt end
Ġh ij
Ġg est
ç¤¾ ä¼ļ
ab les
Ġ×ľ ×Ĵ
ĠÐ±Ð¸Ð´ Ðµ
å± ĭ
äºº æ°ĳ
Î½Î± Î½
Ġàªļ à«Ĥ
Ø« ÙĬØ±
×¨×Ĳ ×©
àµģà´ ªàµįà´ª
à°¯ à°Ĥ
n Äħ
Ġfl ere
Ø¹ Ø§Ø±
Ġf riend
à¸Ĺ à¸µ
Ġpr v
Ġop in
ast o
ĠN ag
à¯ģà®³à¯įà®³ à®¤à¯ģ
art en
k ara
ĠáĢĢáĢŃáĢ¯ áĢļáĢ¹áĢ
Ġàªī àª¤
ĠØ¹ Ø²
Ġëª¨ íħĶ
Ġàªľ à«įàª¯àª¾àª°à«ĩ
ÏĥÎµ ÏĦÎµ
ĠØ³ Ø§ÛĮØª
áĢ® áĢľ
ĠÑģÐ¿ ÐµÑĨÐ¸
cap tion
ĠAn n
ĠN at
ãģ¨ ãģĹãģ¦
Ġf abr
Ġbu at
Ġa ix
ĠJe ho
ĠæĪĳ ä»¬
Ġà¤ķ à¥ģà¤
ĠÐ· Ð¼
Ð°ÑĢ Ð¼
ç¡ ®
ÒĽ Ð°
Ġáĥ¡áĥĲáĥ ¨
ĠÃª tre
Ġè ħ
Ġà¤¦ à¤¿à¤²
áĢĴ áĢ«
æĸ¹ æ³ķ
Ġst op
es ha
ĠØ¨ ÛĮÙħ
à¥įà¤ ¡
à®¿à®² à¯ģà®®à¯į
à¦ª à§ģà¦°
ec er
ob s
Ġpr est
áĢ¬áĢ¸áĢ ±áĢĲáĢ¼
Ġà¦Ĩà¦® à¦¿
ra ft
ĠÅ¡ t
Ñĭ Ñŀ
Ðµ Ð²Ð°
Ð¾Ð² Ñĸ
j est
ĠN atur
áº¥ u
ĠEx p
ĠD ay
à§ĭ à¦ķ
ÑĢÐ¸ ÑģÑĤ
Ġê³ ¼
k ak
Ð°Ð» Ð½Ð¾
Ġk urs
Ġàªľàª£ àª¾àªµ
ĠÑĤ Ð°Ð±
æ¼ ı
à´¨àµįà´¨ àµģ
r Ãł
ä¾ Ŀ
Ġu yg
Ġest ar
ì ¢
àµĩà´ ¹
Ġng o
ĠAb d
Ġhab en
Ġìŀ ħ
he im
Ġs ia
Ġco un
Ġw ala
Ú© Ø§
ke y
Ġd us
ĠT L
ĠP orn
Î½ Î¹Î±
nÃŃ m
j ad
Ġáĥ£áĥ¤ áĥłáĥĿ
à¹īà¸§ à¸¢
Ġë Ŀ¼
Ġpa u
ĠI b
ĠÐ° Ð³
ĠáĢĴ áĢ¯
áĢ¡ áĢ±áĢĶ
Ġà¤ħà¤§ à¤¿à¤ķ
Ġn iya
çĹ ħ
Ġte j
Ġt anto
Ġl Ãªn
Ðł Ðŀ
ĠM use
Ġä» İ
Ġl Äģkou
áĢ» áĢĢáĢº
ĠA ra
Ú¯ Ø±ÛĮ
ĠnÃ³ i
ĠP in
ĠW hat
li f
à¹Ģà¸Ħà¸£ à¸·à¹Īà¸Ńà¸ĩ
Ġorig inal
ĠL ong
Ġz al
Ġ19 90
et si
Ġê° Ļ
ĠÐ¿ Ð°Ð»
ĠÎ¼ÏĮ Î½Î¿
à°¾à° ¶
ÑĬ Ð·
Ð¾Ð³ ÑĢÐ°ÑĦ
áĤı áģ
ĠÐ¼ Ð°Ò³
Ġkh Ã¡c
¶ àª¨
er te
ys z
ĠáĥłáĥĿáĥĴ áĥĿáĥł
ĠhoÊ» ol
ĠÚ¯ ÙĦ
ĠÐ± Ð¸Ð·
å»º è®¾
Ġap pro
ĠP Ã¥
æķĻ èĤ²
Ġà¦®à¦§à§įà¦¯ à§ĩ
ĠØ¨ Ø§ÙĨ
Ġr ig
×ĵ ×Ŀ
ç ¹
het en
Ðº Ð°Ð¹
uj Ãº
Ġk lo
ĠÙĬ ÙĪÙħ
æ² ¹
à¯įà® ¨
st ru
ĠØ¹ÙĦ Ø§ÙĤ
ĠR i
æĽ ¸
Ġr ag
Ġà¤īà¤¨ à¥įà¤¹
ĠÄĳ ang
Ġaz t
ÙĦ Øª
ÑĥÑĢ Ð³
f il
Ġf ebru
ĠP il
àµĢ à´°
Î¼ Î¿Ïħ
ta ble
oj en
Ġa ri
Ġheb ben
èĩ ´
Ġk ona
ell ing
Ġsam men
ic ion
h j
Ġìķ Į
ed ir
Ġà¤ªà¥įà¤° à¤¤
ĠÐĲ Ð¼
el ine
ĠT am
ĠI de
Ġb lo
à¤ķ à¥ĭ
Ñĥ ÑĨÑĮ
ĠP age
à¸´ à¹Īà¸¡
Ñģ Ð¾Ð½
Ġgod t
Ġfot os
Ġfig caption
ĠTrip Advisor
×ľ ×ĺ
ik Äģ
Ġáĥ¡áĥĲáĥ ĸ
áĢĺ áĢ²
si es
Ġen iyan
ĠAr tik
Ġl am
Ġgener al
Ġco ok
nos Å¥
Ġro om
ĠØ§Ø³ Ùħ
áĥ£áĥ ¥
l ess
Ġàªķ à«įàª°
ĠáĥĽáĥ® áĥĿáĥļáĥĿáĥĵ
ti da
ĠÙģ ÙĨ
Ġbi áº¿t
ĠH en
áĢĢ áĢ¯
Î» Ïī
ÑĥÐ½ Ð´
s Ã©g
é«ĺ æ¸ħ
áĢ¬ áĢ·
Ġaqu esta
áĢĸáĢ½ áĢ²áĢ·
av en
íĸ Ī
à§Ģ à¦¬
Ġáĥĵáĥĺáĥĵ áĥĺ
à±ĭ à°¤
Ñĭ ÑĪ
iy as
ĠÑĸ Ñħ
os c
ĸ à±įà°¯
Ġla z
à°¿à°¯ à±ģ
áĥĲáĥ «áĥļ
ĠØ¹ Ø±Ø¨
ĠØ£ Ø³
ĠÐ¿Ð» Ð°Ð½
ĠD ub
ĠØŃ ÙĬØ«
Ġà¦¹ à¦¯à¦¼
Ġess ere
ĠU ni
ĠÐ»Ñİ Ð´
ur en
ĠBlu e
Ġs lu
ĠE X
à¦ª à§įà¦°
Ġç Ł
om ba
Ġáĥ¡áĥĲáĥ Ķ
ĠUn tuk
n ol
ĠAl t
Ġíĺ¸ íħĶ
ĠÙħØ¬Ùħ ÙĪØ¹
ĠÎ± Ïģ
Î¼Î¬ ÏĦÏīÎ½
aciÃ³n s
ÏĨÎ¿ ÏģÎ¬
Ġc ustom
Ð¸ Ñĳ
av at
Ġl Ã¡
à¦¿à§Ł à¦¾
Î¼ ÏīÏĤ
ĠÐ±Ð°ÑĢ Ð¾Ð¸
áŀ ¶
à´¾à´ ´
m ÉĻt
Ġk ultur
f Ã¼
Ġh Ãłnh
Ġvi ol
en zi
áĥĶáĥ ŀ
Ġjul á»į
Ġcap ac
ĠEl s
Ġãĥ ¬
ãĥ¼ãĤ ¸
ÐµÐºÑĤ Ð¾ÑĢ
×Ĳ ×Ļ×Ŀ
Ġj og
ali an
ĠmÃ¡ y
Ð¾ÑģÑĤ Ñĸ
Ġìĸ ĳ
Ġg ada
ĠÊ» ana
alit at
ĠktÃ³ ry
Ġea ch
Ø± Ø§ØŃ
gun akan
Ġà¦¬ à¦Ľ
Ġà¹Ģà¸ ĩ
áĥĺáĥłáĥ ĵ
g ing
ĠA Z
áĢĨ áĢ±áĢ¬áĢĦáĢº
ĠáĥĶ áĥ¥
ĠÑĥ Ð½Ð¸
· à«įàª
ĠØ¨ Ø³
Ø± Ø§ÙĤ
Ð»Ð¸ ÐºÐ°
ĠÅ ½
ĠÙħ Ú©
Ġz h
ĠÙĬ ÙĤ
Ġr Ã©s
Ġch Ãºng
à¹ī à¸¡
Ġb are
Î³ Ïī
m az
ļ à¸²à¸Ĺ
Ġth a
Ðº Ð¾Ð¹
áĢĶáĢ¾ áĢĦáĢ·áĢº
ĠØ¬Ùħ Ø¹
à¦Ĺ à§įà¦°
e o
ĠÑĥÑĩ Ð°ÑģÑĤ
áĢ»áĢĸ áĢĦáĢ¹áĢ·
Ġr aj
Ø¬ Ø©
å¤ĩ çĶ¨
f uta
olog i
Ġo x
Ġàª¤ àª°
Ñĸ Ð¶
ĠE xt
f Ã¸r
Ġàªķàª¾àª° à«įàª¯
Ġmw aka
ĠIn s
à¹ģ à¸ķ
à®¤à¯įà®¤ à®¿à®©à¯į
ĠÎĿ Î¿
Ġcompl et
å¿ µ
em y
ÄŁ u
ĠP s
éĻ ¤
à±įà° ¬
Ġå »
ĠP ad
Ã¼n Ã¼
ĠCent er
Ġe c
k od
Ġte am
Ġpop ular
ĠÑĤÐ°ÑĪ ÐºÐ¸Ð»
à«ģ àªµ
Ġàª«àª¿àª² à«įàª®
à Ń
h it
Ġer re
åĨ ł
ÐµÐº ÑĤÐ¸Ð²
ĠÐ¿ÑĢÐ¾Ð³ ÑĢÐ°Ð¼
çº ¦
à¤¸ à¥įà¤¥
Ġp ik
on na
à¸Ĺà¸µà¹Ī à¸ªà¸¸à¸Ķ
all s
àªĤàª Ł
Ġ×ĳ ×Ľ
Ġf on
ĠáĢŀáĢŃ áĢĽ
Ġsa a
Ġet te
Ð¾Ð» ÐºÑĥ
ĠX X
ĠÐ¿ÑĢ Ð¸ÑģÑĤ
Ġbil dir
ĠÑĥ Ð¿
Ġd ua
çłĶ ç©¶
ÑĪ Ñĩ
cha ft
ĠØ§ÙĦ ÙĴ
ĠÐ¼Ð½Ð¾Ð³ Ñĥ
à¹Īà¸Ń à¸¢
er de
ĠØ§ÙĦØ¹ ÙħÙĦ
ÏĩÎµ Î¯Î±
à§įà¦¤ à§ģ
Ã¥ nd
ÎĳÎ ¡
Ġd Ã¤r
ĠG ran
íķĺ ê²Į
áĢ¬áĢ¸áĢ Ķ
à°Ĥà° §
à§ĩà¦¨ à§įà¦Ł
ĠÙĥ Ùĩ
stan bul
Ġcomp ar
ĠM AR
ĠM ungu
j ang
ĠØ² ÙħØ§ÙĨ
ĠN as
å¿ Ĺ
à«ĭàª°à«įàª Ł
åº ·
åİ ĭ
Ġå Ł
Ġà¸Ĺ à¸Ķà¸¥à¸Ńà¸ĩ
ĠI h
und en
Ġc ode
ĠFran ce
Ã¡s ok
ill o
çĶŁ æ´»
Ġà¦¹ à¦²
à¸´à¸Ļà¸ Ħ
æĶ¿ åºľ
Ġçİ °
Ã¥ d
à¤¿à¤ ª
Ġw ÉĶ
çĽ ĳ
áģ ¸
Ġd l
ĠBus iness
ĠÃ®ntÃ¢l nire
ĠM icha
ĠÃ¶ ver
Ġz gj
ìħ ĺ
à§ĭ à¦®
ÅĨ as
ĠK ad
à´¦àµįà´ §
oma in
Ġmu ito
Ð¾Ð² ÐµÐº
ec z
ĠÐ± ÑĥÐ»
ai fa
Ã¡ ciÃ³
ve is
Ġc ou
ĠPol it
ĠÐ½ Ð¸Ð·
è¾ ¹
ĠÐ´Ð° ÑģÑĤ
Ġàª¸àª¾àª® à«ĩ
ett en
Ġm ari
em an
ÙĪ Ù¹
ĠF C
çĽ ĺ
à¸¸ à¹Īà¸Ļ
Ã¤m Ã¤
on to
I tem
Ġáĥ £
áĥĶáĥĳ áĥĿáĥĵáĥĲ
à®° à¯Ī
ĠáĢ±áĢ ĸ
Ð°Ð¼ Ð¾
è Ľ
à±ģà°¤ à±ģà°¨à±įà°¨
Ġå¹ ¸è¿Ĳ
Ġáĥ Ń
ĠÐº ÐµÑĢ
àª¾àª Ń
×ŀ ×ķ×ĵ
ĠD O
Ġà°Ń à°¾à°°
Ġt es
Òĵ ÑĢÐ¸
íķ ¨
à¸ª à¸¹
à±ĩà° ¤
Ġst an
ĠW ord
ĠF und
åĩ »
áĢ¡ áĢĽ
Ġéĩį åºĨ
à´¾à´Ł àµįà´Ł
Ġ{ "
ist s
er er
itate a
ãĥ Ħ
Ġæīĭ æľº
áĥĲáĥķáĥ¨ áĥĺáĥł
w ard
ĠÐº Ð°Ñģ
Ġkont akt
Ġàª°à«Ĥ àªª
Ġá»į na
Ġav ail
ĠÐº Ð°Ð¿
ĠMar ket
ÃŃc ÃŃ
Ã¦ ng
l or
ï¼ ģ
ĠÑħ Ð¾ÑĢ
ĠÐ¾ ÐºÐ¾Ð»
Ġin ici
ãģĭ ãģ£ãģŁ
à¸ª à¸£
ĠÃ ķ
ĠÙĨ Øª
à¸§ à¸ĩ
Ġt yd
Ġì ¦
á»ĩ nh
Ġmind en
æĻ ®
ĠÙĬ ÙĨ
è² ·
ĠØ¨ÛĮ Ø§ÙĨ
Ġmo tiv
áĥĶáĥĳ áĥĶáĥľ
at ti
Ġaut omat
Ġà¦¹à§Ł à§ĩ
èŃ ¦
EN D
Ġcom unic
åį Ĭ
Ġè¦ ģ
Ġho e
æ¢ ¦
Ġà¦¦ à¦¿à¦¨
Ġï ¸ı
ĠMar k
è¨ ĺ
Ø¯ ÛĮØ¯
ĠàªĽ à«ĭ
Ġst ill
Ã¼y Ã¼k
Ġbeh and
aca q
à±ģà°ķ à±ģà°Ĥà°Ł
ÅĻ ed
Ð°Ð» ÐµÐ½
ÏģÎ¹ ÏĦÎ¹ÎºÎŃÏĤ
Ġl Æ°á»£ng
ê¹Į ì§Ģ
Ø§Ø¨ Ø±
ÅĨ em
Ġqu ando
ĠS ev
è¡ Ģ
ers on
ut in
Ġãĥ ĸ
Ð³Ð¾Ð² Ð¾ÑĢ
Ġj uh
ëħ Ģ
à¸ª à¸³à¸«à¸£à¸±à¸ļ
eta il
Õ¸ÖĤÕ©Õµ Õ¸ÖĤÕ¶
èī º
à®Ł à¯ģ
Äĥ s
Ð ¯
Ñĥ ÑĦ
à¯Ĩ à®¯
p un
Ġê° Ĳ
ĠSo cial
ier t
Ġ199 7
k op
ĠáĥĻáĥĿáĥĽ áĥŀ
ĠÎ´Î· Î¼Î¿
Ġm uz
è¯ »
à¸Ń à¸µà¸ģ
Ġê² °
ĠáĢ¡ áĢ±áĢĻ
ĠØŃ ØªÙī
ĠÎ½ Î¿
Ġdit uz
à¦¸ à§įà¦¯
ãģĹ ãģ¾
ĠÑĤ Ð°Ð½
ĠÑģÑĤ Ð°Ð²
ĠÐ´ Ð¾Ð³
u we
ta an
ĠÙ¾ ÛĮØ¯
áº¯ n
íĭ °
Ġm obile
Â ¡Â
ri ed
Ġæ į
Ġ ort
Ġh ata
Ġb ara
Ġv ent
åı Ī
Ð°Ð» Ð½Ð¸
ÏĢÎ¿ Î¯
Ġìĺ ¨
å± ŀ
us z
am y
Ġn Ãº
áĥł áĥĲ
Ùģ Ø§Ø¹
Ø§Ùħ Ø¬
ĠÏĥÏħ Î¼
ĠO P
ĠàªŃ àª¾àªĹ
ĠÃº j
Ġfac il
ab ad
ĠáĢŀ áĢĲáĢĦáĢ¹áĢ¸
ĠÐ¿ Ñģ
ĠÐ±ÑŀÐ» Ð³Ð°Ð½
Ġp and
áĥĶáĥ £áĥļ
à¸µà¸¢ à¸§
Î¬ Î¶
Ġh ob
Ð½ ÐµÐ¹
Ã¡ Å¡
Ð¾Ðº Ð°
Ġà¤° à¤¹à¥ĩ
ĠD ol
ul s
ut us
Ġà´ķ à´¾à´£
ÑĢ Ð¸ÑĤ
Ġà®® à®ķà¯įà®ķ
Ġso ftware
Ġìŀ ĳ
Ġà®ħ à®´
è¡¨ ç¤º
le ÅŁ
ES S
Ġba ina
ÏĥÎ¹ Î¼Î¿
ĠÚ¯ Ø±ÙĪ
Ġtim p
Ġh all
Ġ10 1
Ġs me
å®ī è£ħ
ĠÐŁÑĢ ÐµÐ·
ĠV it
áĢĦáĢºáĢ¸áĢ Ļ
an Ä±n
ak ti
Ġáĥ¬ áĥ§
Ġà¸¥ à¸ĩ
ãģ ³
Ġà´¤ àµįà´¤
åĨ µ
Õ¸ ÖĢ
ĠéĤ £
Ġs iku
Ġv iss
áĢ¸áĢ Ķ
Ġà¦¬à¦¿à¦ ·
ĠD ata
Ñı ÑĤÐ¾
ÑģÑĤ ÐµÑĢ
ĠÐ² Ð°ÑĢ
ĠØ§ÙĦ Ø§Ø³
à«ĩàª¨ à«įàªŁ
Ġz em
ÐµÑĢ Ð¶
åĢ Ļ
ĠIS BN
ÑģÐºÐ¸ Ñħ
un ing
ĠÎķ Î»Î»Î¬
Ġà®ª à¯ĩ
ĠÑĤ Ð¾Ð¹
Ġl á»Ľ
àµĢ à´ķà´°
ĠÐ¼Ð¾Ð¶ Ð½Ð¾
Ġs uk
U G
å¿« ä¹Ĳ
Ġtra bal
Ġsp ecial
ĠS av
Ġph Ã¡t
Ðº Ð¾Ð¼
Ã¤l lÃ¤
H E
ĠØ§Ø «
Ġë§ ¤
Ġæ ´
Ġv Ã©g
ĠãĤ ª
Ġà¤¥ à¥Ģ
ĠO S
æ¸ ©
ĠÚ©ÙĨ ÙĨØ¯
ĠM eng
ÉĻn in
ap s
Ġmana wa
ĠSm art
g s
Ġ×Ĺ ×©
à¦¾à¦® à§Ģ
ĠØ® Ø§Ø±Ø¬
Ġk á»į
Ð¾Ð² Ñĭ
ĠÎĺ Îµ
åĪĨ æŀĲ
ĠO K
Ø§Ø¹ Ø¯
ĠN ar
Ġsp or
Ġå¾ ·
ĠÃ§Ä± x
Ġkun ne
ĠØ¯ Ûģ
iz io
Ġ& &
Ġà®¤ à®¾à®©à¯į
Ġ×Ļ ×Ľ×ķ×ľ
Ġval or
Ġm t
áº£ m
Ġop tim
áĢĻ áĢĬáĢº
ĠÐĶ Ð»Ñı
ĠT en
à¤¾à¤ł à¥Ģ
Ã¡ Å¾
à±įà°¯ à°Ĥ
ĠØŃ ÙĦ
à®¿à®¯ à¯Ī
Ø± Ø§Ùĩ
è¯ Ń
Ïģ ÎµÎ¹
n Ãº
Ø§Ùģ Ø¸
Ġà°®à°° à°¿à°¯à±ģ
ĠÃ© p
Ġy al
à¯ģà®ķ à®¿à®±
×ķ×ľ ×Ķ
Ġvis it
à®¿à® ³
ĠÃ Ļ
Ġop tion
ë³ ¸
éĩ İ
ĠM oh
est en
áĢ½ áĢ±áĢ¸áĢ
Ùģ ØªÙĩ
Ġs Ã¼r
Ġ() {
Ġà°ķ à°¾à°¨
v il
List ing
Ġáĥł áĥĶ
Ġáº¹ rá»į
ĠØªÙĪÙĦ ÛĮØ¯
Ġhaz Ä±r
z ik
_ n
ìĺĪ ìķ½
áĢĦáĢ¹áĢ ¡
Ã³ a
Ġdi áº¹
ÉĻc ÉĻk
Ġre present
Ġh iz
ĠØ§Ùħ Ø§Ùħ
áĢĶ áĢ·áĢº
ãģĹãĤĩ ãģĨ
à¸£ à¸ĸ
Ð°Ð¹ ÑĤÐµ
ÑĢ Ð°Ð½Ð¸
å ª
ĠáĥĽ áĥĿáĥķ
Ġà´ªàµĭ à´²
Ð± Ð°ÑĤ
ĠÙħØµ Ø±
ar ik
Ð¸Ð» Ð°Ð´Ð¸
t it
áĢ® áĢĻ
v iew
uj Äħ
Ġë ¹
Ġáĥ¨áĥĶ áĥĺáĥ«áĥļ
Ġn Ã¡s
à±ģà°ķà±ĭ à°µ
ĠâĢĻ ,
ĠT it
à´¿à´ Ĥ
Ġh uman
ÙĦ ÙĪÙħ
uy Ãªn
Ġl oko
ÏĦÏĮ ÏĤ
Ġà¤¸ à¤¬
ĠØ· Ø¨
Ġpo ate
sk y
Ġus ed
ĠY e
äº Ī
Ġàª« àª°
Ð³ Ð¾Ð»
T O
Ġà¹Ģà¸§ à¹ĩà¸ļ
à§ĭ à¦Ł
ãģ »
g eb
ãģŁ ãĤģ
ĠÂ º
ĠØ§Ø® Ø¨Ø§Ø±
Ø³ Ø©
áĢĦ áĢļáĢ¹áĢ
Ġpol a
Ġfil es
à¸²à¸ ¨
ĠÐ±Ñŀ Ð¹
Ġpi ed
ĠS Ã¥
Ġé £
Ġk ec
ĠCom ment
ĠÐ¡ Ð¾
Ġc áº§n
ĠÐ² Ð°Ðº
Ġno ti
Ġk una
Ġbar n
áĥ ©
Ġà´ª àµĬ
ëĤ ľ
ÙĦ Ø·
ĠÒ³ Ð¾Ð»
ot Äģ
áĢ¸áĢ±áĢ Ķ
à°¾à°Ĥà° ¤
à¹Ħ à¸§
ĠéĿ Ĵ
Ġes per
ĠØµ Ø§ØŃ
Î½Î· ÏĤ
ĠÚĨ ÛĮ
Ġold id
ij i
ib ile
ĠÙĪ ÙĦØ§
ĠÑĥ Ð¿ÑĢÐ°Ð²
Ġpar Ã«
Ġpaggam ot
Ġw orm
ore a
U C
Ġs hi
_ m
Ġt Ãº
Ġ Ä±n
Õ¸Õ ¾
ĠÐº Ð¾Ð³
j Å¡ÃŃ
Ġbah wa
áĢľáĢŃáĢ¯ áĢĢáĢ¹áĢ
ug i
ch te
Ġé Ł
áĢĲ áĢļáĢ¹áĢ
ĠÕ Ģ
Ġc ette
Ġ×¨ ×§
æŃ ¢
ĠáĢĢáĢº áĢ±áĢĶ
ĠÐ¼ Ð¾ÑĢ
àµģà´® à´¾à´¯à´¿
ĠÅ¾ iv
Ġà¹ĥ à¸«
ĠIn v
ĠG old
íķĺ ê¸°
Ġà¦ķà¦¿à¦¨ à§įà¦¤à§ģ
æĺ ¥
åħ ħ
Ġal o
ash ion
ĠInst agram
ĠáĥĲáĥķ áĥ¢
Ã©r ie
ĠØ§Ùħ Ø±ÛĮ
ĠÎ´ Î¹Îº
Ġi ba
ol lo
er al
ĠÒ³ Ð¸Ñģ
ĠÐ¾ ÑģÑĤ
Ð¶ Ð°
Ġk ÉĽ
ĠÃ ĭ
Ġam i
Î §
ot her
man n
Ġà¦Ĩà¦® à¦¾à¦°
Ġtr Æ°á»Ľc
Ġl il
Ġi esp
P L
Ġáĥ£áĥ Ľ
áĤıáĢ½ áĢħáĢ¹
Ġg overn
áĢĿ áĢº
à±ģà°ķ à±ģà°¨à±įà°¨
Ġq ol
ĠS ist
li che
ĠÒ ¶
A r
ĠÙħ Ûģ
Ġà¤ ł
Ġè ½
ow ej
un di
Ġc rit
n Äģ
Ġà¤Ńà¤¾à¤° à¤¤
Ø¯ Ø§ÙĨ
ĠÐł Ðħ
Ġ- ,
×Ļ×§ ×Ķ
ģáģ ļ
Ľ à¸£à¸°
Ïĥ Ïĩ
Ġdire c
Ġs eng
à¸£ à¸²à¸¢
ÐµÐ½ Ðµ
Ġsh op
Ùİ ÙĬ
Ø¨ Ø§Øª
Ġon d
Ġæī Ģ
Ġab e
à¦°à§įà¦ ®
I AN
TM L
Ġg ir
à®² à®¾à®®à¯į
Ġà®ķà¯Ĥ à®±
zn Ã¡l
à¯ĭ à®®à¯į
r ÃŃ
ĠìĤ¬ëŀ Į
Ġter min
Ġp y
Ġim ag
×¤ ×Ļ
ĠÐ°Ñģ Ð¾Ñģ
íĮ Į
ĠD A
Ã¡n ak
Ġdah il
ow anie
ai an
à´¿à´¯ àµģà´Ĥ
ami ento
ĠÐķ Ð²ÑĢÐ¾Ð¿
Ð°ÑĶ ÑĤÑĮÑģÑı
Ġà¦¶ à¦¿à¦ķà§įà¦·
ĠA uf
Ġàªħ àªª
Ø Ł
ot u
ĠÐ» ÐµÑĤ
ĠÎ¼ Î¿
ah kan
Ġdur ch
áĢĦáĢ¹áĢ ±áĢ
Ð¶ Ð¸
Ġà¤µ à¤¹
à¯ģà®ķ à®¿à®±à®¤à¯ģ
æī ¹
Ġ×ĳ ×Ļ×Ł
ĠF ull
èª ī
ĠGr up
Ġtu y
Ġd ays
ë° ĺ
ï¼ ļ
Ġ) )
l ers
Ġà°¨ à±ĩ
ĠÙ¾ ÙĪ
Ġhah olo
à´µ à´¿à´
ĠÐłÐµÑģÐ¿ ÑĥÐ±Ð»Ð¸Ðº
ĠÐ´ Ñĸ
Ð¿ Ð°Ð´
×ª ×¨
ĠD iv
Ġnh áºŃn
Ġà¦¨à¦¿à¦ ľ
t are
ĠåĴ Į
ĠØ´ ÙħØ§Ø±
Ġ×Ļ×© ×¨×Ĳ×ľ
ck et
à¸± à¸ŀ
ob re
ap on
åĵ į
Ġëĭ ¹
Ġh Ã¤n
à¸§ à¸±à¸Ļ
Ø± ÛĴ
ĠÑģ Ð¾Ð·
ĠÙĦ Ø£
ÏģÎ±Î³ Î¼Î±
Ġm ies
×ł ×ĺ
Ġáĥ¡áĥĲáĥ ĺ
éļ ¾
Ø¶ ÙĪ
Ġs iya
Ġ×§ ×¨
Ġ>< /
Ġb Ã¸r
ĠK ul
ãĤĮ ãģ°
Ġbr ug
àªĤàªĹ à«įàª°
é ²
ëĵ ł
à¹Ģà¸¥ à¹Īà¸Ļ
Ġh osp
é Į
æŀ ģ
Ġç ¦
ĠáĢ» áĢĸ
áĢŃ áĢĢ
Ġëĭ ¨
Ġà¤ĩ à¤¨
àµįà´ §
ĠÐ¼Ñĥ Ò³
áĥĺáĥĵ áĥĲ
áĤ ĥ
Ġ. âĢĻ
à´¾à´ ¨àµįà´
ìĦ Ŀ
Ġì¢ ĭ
áĥĶáĥĳ áĥĹ
Ġà¦ķà¦° à§įà¦®
à¦¾à¦¨ à§ĩà¦°
t Ä±
in ci
l Äģ
ĠS pa
ĠÚ¯Ø²Ø§Ø± Ø´
ah ar
Ġáģ Ĩ
s un
Ð»Ð¸ Ð¹
Ġ×ŀ×Ĺ ×Ļ×¨
Ġsh are
ag t
Ġtip o
ĠCl ass
Ġàª¬ à«įàª°
Ġåı ĳ
Ġ Õ¡Õ
Ð»Ð¸ Ð³
Ġà´Ĩ à´°
Ġsuc cess
Ø¸ Ø±
Ġà® Ĭ
à¤¾à¤ĵ à¤Ĥ
ĠÄĳ Ã¢y
à®¾à® ľ
Ġà® ¹
Ġà¤¸ à¥ĭ
éĻ ©
Ã³ x
amp a
Ġé ĵ
Ġà¦ķ à§įà¦·
ĠÏĢÎµÏģÎ¹ Î¿
________ ________
Ġt ung
ish wa
åį ı
ĠÒ ĵ
Ġcom er
b org
za ile
à¨¿ à¨
å¼ ł
Î´ Î¯
c in
Ġ×ľ ×ķ
Ø§Ø¦ ÙĬ
ãĥ§ ãĥ³
áĥĿáĥľ áĥĺáĥ¡
à´¨àµįà´¤ àµįà´¯
éĻ į
ĠØ³ ÙĦØ§Ùħ
à¸Ĺà¸° à¹Ģà¸ļà¸µà¸¢
à«ĩàª Ĥ
Ġà°Ĺ à±įà°°
áĥĹ áĥ®áĥķ
à¸ģà¸£ à¸£à¸¡
àªľ à«Ģ
de v
Ġdun ia
und er
ĸáĢ¼ áĢħáĢº
Ġprogr ama
çĽ Ĭ
Ġn l
ĠN ike
ĠF t
Ġæµ ·
ĠíĬ ¹
Ġl ight
ĠC ur
Ġtamb Ã©m
ĠOp en
Ø´ Ø§ÙĨ
Ġv ind
à¤¾à¤Ĥ à¤¨à¥Ģ
ĠD ate
ÙĨ ÛĮÙĨ
Ġwi ÄĻ
Ġpart ner
ĠAut or
åĢ Ł
Ġn Ãło
Ġser ta
Ø±ÛĮ ÙĤ
ÑĢÑĥ Ð³
Ġper lu
ĠJ am
ÑĢÐ°ÑĹ Ð½
áĥĲáĥĵ áĥĺ
Ð°Ñģ Ð¸Ð´Ð°
Î½Î± ÏĤ
à¯ģà® ©
ÐµÐ» Ñı
Ġa plik
ĠV el
ĠÃ¶ lk
ĠLond on
ibli ot
Ġìŀ ¬
ĠÑĤ ÑĥÑĤ
ĠÐ¼ ÐµÐ´Ð¸
Ġáĥ§ áĥĿáĥķ
Ïĥ ÏĦÎ®
è² ¸
iz ed
Ġtamb Ã©
Ī ¬
àµĭ à´¦
ch Ã©
el ah
ãĥ Ľ
Ġn Äĥng
çķ ¥
Ġequ ip
ĠÙĦ ÛĮÙĨ
ĠMar et
à¦Ĺ à§ģà¦²
ĠC S
Ġus ers
Ġtent ang
ìłģ ìľ¼ë¡ľ
owa Äĩ
ak as
ĠÎĶ ÎµÎ½
ć ć
ĠáĥĲáĥ® áĥĲáĥļáĥĺ
Ġh es
Ġn yt
ĠáĥĻ áĥĲáĥłáĥĴ
ĠÑĦ ÑĥÐ½Ðº
Ø¬ ÙĨ
Ġag æĹĹèĪ°åİħ
Ġb aba
ĠÑĢ ÐµÐ´
à¦¡ à¦¼
à¦¿à¦ ī
Ġtemp s
Ñĸ Ñĸ
Ġni in
ĠF ot
Õ¸Õ ²
áĢ¬áĢĽ áĢ®
Ð°Ñ ĵ
ÎµÎ¯ ÏĤ
ĠÐ°Ð¼ Ð°Ð»
ĠA na
à®¤ à®¾à®ķ
v ille
ik al
ĠÐ´ Ð²Ð°
Ġt ug
áĥĵ áĥĶáĥ¡
ĠÐ¿ Ð°Ð·
Ġë¶ Ī
ĠÑĳ Ð½
eri or
ĠÐº Ð°Ð»Ñĸ
ĠR et
Ġsol u
Ġnews Listing
Õ¥Õ ¿
ÏĦ ÏĥÎ¹
Î´ Î¹Îº
20 16
ĠÐ±ÐµÐ»Ð°ÑĢ ÑĥÑģÐº
Ġr adi
ĠA tt
Ġíķľ êµŃ
Ġs ide
Ġà¦ ¢
ìĪ ł
ÙĪ Ùī
' '
Äģr t
ĠÐŁ ÐµÑĤ
Ġeg iten
Ġb lu
ãĤ¹ ãĤ¿
ĠÐºÐ¾Ð¹ ÑĤÐ¾
ĠLatv ijas
ÏĦÎµ Ïģ
áĥĿáĥ ¥
at us
Ġy en
D S
Ġà®İà®¤ à®¿à®°
ãģ® ãģ¯
à¸Ħ à¹Į
ar ekin
ĠÐĳ Ð°ÑĢ
à±įà° £
Ġà¦¸à¦° à¦ķà¦¾à¦°
Ġt api
Ġp is
ĠM T
Ġà¦®à¦¾à¦¨ à§ģà¦·
ĠØ´ Ø±ÙĪØ¹
ĠAn ton
J A
Ġz or
Ġàªľ àª°à«Ĥ
Ġkon trol
ĠÐ¿ÑĢÐ¾ ÐµÐºÑĤ
à¸ģ à¸³
Ġdetail s
à®¾à®® à®²à¯į
Ġê²Į ìŀĦ
Ġàªµ àª¾àª°
ĠÙĦ ØŃ
Ġak s
Ġl em
à°Ĥà°¤ à±įà°°
ĠÐ ģ
ĠP ER
áĥĿáĥĳ áĥļ
à§ĩà¦ ¡
Ġth ink
und u
er na
ĠáĢķáĢ¼ áĢ±áĢ¬
èĮ ĥ
æĹ ı
åį °
ĠØ² ÙħÛĮÙĨ
ĠE en
ĠØ£ ØŃ
áĥĺáĥ¢ áĥĶáĥ¢
Ġchi q
ov Ã½ch
áĥĲáĥĽáĥĵ áĥĶ
ing ine
Ġà¤¦ à¤¿à¤¯à¤¾
ë ĳĲ
æŃ »
áĥĶáĥ ¨
it ti
ĠMal aysia
Ġà®ª à®£
å¹ ķ
Ġà´¤ àµĨ
Ġes k
àª¥ àª¾
Ġm ys
áĢģ áĢĦáĢº
ib ar
å® Ł
ĠáĢ¡ áĢ¬
Ġàª¤àª® àª¾àª°àª¾
Ġibe x_
ìĥ ī
ÑĥÐ¼ ÐµÐ½ÑĤ
Ġíķ ł
ãģŁ ãģĦ
ic y
Ġl ug
Ð°Ðº Ð°ÑĤ
Ġt Ã¤n
à¹Ģ à¸Ļ
er et
Ġd ov
áĥĲáĥłáĥ Ļ
Ġpre par
ÐµÐº Ð¸
àª¤ àª¿àª
z im
Ġt jet
à´¾à´ ¶
ĠÙģ ÙĤØ·
áĥĶáĥľ áĥĺ
Ġmani f
à´¸ àµįà´¸
C h
Ġàª¤à«įàª¯ àª¾àªĤ
Ġc oll
Ġp ower
ĠI ch
Ð²Ð° Ðµ
ĠØ¨Ø® Ø´
à´±àµįà´± àµį
ĠáĥĶ áĥļ
Î´ Ïħ
Ġbi ja
ĠK n
Ã¤l l
ĠÐ¿ÑĢÐ¾ÑĦ ÐµÑģ
æŃ Į
Ġg ab
Ġ Ã¡t
à§ģà¦ ĸ
éĶ Ģ
ÑĢ ÐµÑģ
uk tur
Ġen n
áĢĲ áĢŃáĢ¯áĢĦáĢ¹áĢ¸
Ġt Æ°
Ġàªĺ àªŁ
ĠÐ¹ Ð¾Ð³Ð¾
ĠØ§ÙĦÙħ Ø¬
j ed
Ġ' .
Ġàª¨ àª¿
Ġkter Ã©
Ġà¦ĺ à¦Ł
Ġkam u
Ġ Ã¡s
åº §
urs os
ĠÐº Ð¾Ð³Ð°
ç ¸
ä¸Ń æĸĩ
u ak
Ġempres a
Ġàªª àª¾àª
àª¿àª¤ à«įàª°
æĭĽ èģĺ
all o
à°³ à±įà°³
ow ania
ĠëĶ °
Ġind ic
ĠMas k
ĠD 0
ol en
è¨ Ń
Ġn chi
æĺ ¾
k es
ĠA rab
ÑĮ Ñİ
ĠB ang
à¥ģ à¤¸
Ġë ¸
Ġprz ed
u ari
ĠÐ¸ Ñħ
çĦ¡ æĸĻ
éĸ ¢
ĠÙĨØ¸ Ø§Ùħ
ĠÐ¾ Ð¼
»áĢķ áĢ¬áĢĦáĢ¹áĢ¸
Ġè¿ ĺ
Ġm áº·t
Ġàª¶ à«įàª°
ĠÙ¾Ûģ ÙĦÛĴ
ĠÐ¼ Ð¸Ñģ
Ø¬ ÛĮ
am ise
Ġf ur
åº ķ
a is
Ġàª¸ àª¾àªĤ
ĠØ®Øµ ÙĪØµ
ĠÐ´ ÑĥÐ¼
ĠN G
Ã³ j
f it
Ġv asta
ĠP ublished
à¸Ī à¸ģ
Î½Î¿ Ïį
H ot
Ø· Ùģ
f ac
EN G
Ġb á»Ļ
à¯ĭ à®¤
aj t
Ġc urrent
à°¾à°° à°¿
áĢ¥ áĢ¹
n ed
Ġáĥ¨áĥĶáĥĺáĥ«áĥļ áĥĶáĥĳáĥĲ
Ġbr uk
Ġ áĤı
Ġal les
Ġà¦¸ à¦Ļà§įà¦Ĺà§ĩ
ĠÑĢ Ð°Ð¼
áĥĿáĥĳ áĥĺáĥĹ
ÏĨ ÎŃ
Ġè ģ
ĠÐº ÑĢÐ°
ĠStre et
ãĤ ¬
áĥĶáĥłáĥ ĵ
Ø§Ø¦ ÙĬØ©
Ð² Ðµ
Ġà´ªà´° à´¿à´
à¦° à¦£
Ġvi et
Ġet s
ÏĮ ÏĦÎ·ÏĦÎ±
ĠáĢľ áĢ½
Ġàªª àª¾àª°
Ġs as
Ġil g
Ġàªľà«Ģàªµ àª¨
Ø± Ûģ
Ð¸Ð»Ð¸ Ðº
Ġkom m
ĠÙħØ± Ú©
Ġ: "
íĤ ¤
r el
ant al
ĠÑģÑĤ Ð°ÑĤ
t Ã¤
ĠØ¯ Ø§Ø´Øª
Ġnum ber
áĥĹáĥ®áĥķ áĥĶáĥķ
à¸¸ à¸ĩ
ĠåĲ į
Ġà®ī à®°
ìĹĲ ëĬĶ
li chen
ĠÙĨ ÙģØ³
ĠØµÙģ ØŃ
ĠÑĢ Ð°Ð´
ĠU d
à¸Ĺ à¸¸à¸ģ
Ø±ÙĪ Ùģ
èİ ·
à°¸ à°Ĥ
Ġç ģ
Ġis ÉĻ
à¹Īà¸Ń à¸Ļ
à«ģ àªª
Ġåĩ º
ĠS pe
ĠC asa
à§įà¦ ŀ
ĠØ§ÙĤ ØªØµ
à¸· à¸Ńà¸ĩ
ĠÏĮ Î»
êµ °
Ú¯ Ø²
ĠíĻ ķ
w eg
ĠÐ¢ ÑĢ
Ġpl as
m g
l Ã©
ĠW ir
ëĭ ĺ
ç¨ ³
ob b
×ŀ ×Ļ×ĵ
ĠÏĩ ÏģÎ·
Ġtr y
à°® à±ĩ
Ġ áĤĲ
Ð½Ð°Ñģ ÑĨÑĸ
ĠØª Ø®
Â ´
Ġà¤¦ à¥ĩà¤ĸ
ĠÐºÐ°ÑĢ Ð´Ð°
ĠÐ¿ÑĢ Ð¸Ñĩ
ì² ĺ
Îº Î·
Ġà®® à®°
Ã§ ek
ĠØªÙĩ Ø±Ø§ÙĨ
àµģà´ ¦
Ġ×¤ ×¢
à°°à±įà° ¶
l op
×ŀ× ¢
Ġal an
Ġde velop
Ġa ÄŁ
inn en
à°¿à°Ĥà°Ĺ à±į
Ġun g
Ġp aci
Ñĥ Ð¹
Å¯ m
ur de
l al
Ġàª°àª¹ à«įàª¯àª¾
Ġand ere
áĢĢáģ ł
ĠØ§ØŃ ÙħØ¯
Ġ×Ĳ ×¨
ĠTh ere
ĠØ¬ ÙĨÚ¯
Ġí ļĮ
Ġáĥĵáĥ¦ áĥĶáĥ¡
Ġmeg et
Ġå ķ
n sk
ĠÕ ¤
Ġm bi
Ġamb ayo
Ġ11 5
ì¡ ±
áĢĻ áģ¼
Ġdo es
st ad
ĠÊ» A
à°°à°¿à° Ĺ
Î³ Î±
Ġst ory
Ġp amoja
Ġà¦ª à§ľ
è§Ħ å¾ĭ
Ð» Ð°Ð½Ð¸
ĠÎ±ÏĢÎ¿ ÏĦÎµ
Ġà´ī à´ª
ĠÐł ÑĥÑģ
Ġsh ort
Ġà®ķ à®¾à®°
Ġsel f
y abr
nÃ½ m
Ġt uk
Ġph oto
ĠV ill
Ð°ÑĳÑĤ Ð³Ð°Ð½
Ġà¦¬à¦² à§ĩ
c am
å© ļ
áĥ¬ áĥ§
ÏģÎ¯ Î¶
[ ]
ĠC P
ĠØ´ Ø§ÙħÙĦ
Ġen k
×ŀ× ĵ
ĠÙĩ ÛĮ
Ġm unicip
Ġà¹Ģà¸Ħà¸£ à¸Ķà¸´à¸ķ
ÑĤÐ¸ Ð±
Ġr app
æł ¹
Ġd ak
Ð± Ð¾Ð»
åĶ ®
ÑĢ Ñı
Ġch áº¥t
Ġj os
Ġesp ec
Ġk Ã¼
ĠÑĩ Ð»ÐµÐ½
Ġm uka
Ðº Ð¾Ð²Ð°
ĠáĥĹ áĥĲáĥĽ
ĠOr ig
Ġimport ante
à¤§ à¥įà¤¯
ĠÐ¼ Ð°ÒĽ
å± ħ
à¸²à¸Ħ à¸²à¸£
à¸ ®
el in
ĠÑĢÐ°Ð±Ð¾ÑĤ Ð°
ãģ Ĵ
Ġdes ta
risti an
ĠR ich
ĠbaÄŁ lÄ±
å® ģ
ĠÐº Ð½Ð¸
à¹Ħ à¸¡
olog ie
Ġdu en
ac ja
Ùĩ Ùĩ
ĠÎ¶ Ïī
áĥķ áĥĶáĥķ
Ġsch ool
àªķ à«įàª°
Ø² ÙĦ
j ekt
il iz
ĠáĥĴ áĥĲáĥ¡
ĠG ay
ãģª ãĤĵ
ĠÎµÎ½ Ïİ
ĠO ur
ĠÐ¸ Ð´
ĠÎ¿ÏĢÎ¿ Î¯Î±
Ġqu ot
à¸ ī
Ġsa i
pl an
à°ķà±įà°ķ à°¡
Ġà¦ķà¦¿à¦Ľ à§ģ
ĠÐĹ Ð°Ðº
áĤĢáĢĢ áĢŃáĢ³
áĢĲ áĢĦáĢº
Ã¡ val
Ġge hi
w ak
ĠÐºÐ¾ ÐµÑĤÐ¾
áº¹ p
Ġmeng gunakan
ç³» ç»Ł
áģ¾áĢĢ áĢ®áĢ¸áĢ
áĢ¬áĢŀ áĢ¬
all ery
Ġktor Ã©
à¦¿à¦ ¡
og en
ĠÐ¿ Ð°ÑĢÑĤ
áĢ±áĢĨ áĢ¬áĢĦáĢ¹áĢ
il de
Ġà°ª à°°
ķ áĢ²
Ġo so
Ġçī ¹
à¹Ģà¸ģ à¸´à¸Ķ
ÙĪÙħ Ø§ÙĨ
Ð³ Ð¾Ð´
Ġm tu
h ib
Ġ& #
pl ace
ĠÐ¸Ð· Ð±
Ġ} }
Ġber t
Ø§ÙĪ ÙĨ
Ġà¤ľ à¤¿à¤¸
ÑĥÐ² Ð°ÑļÐµÑĤÐ¾
Ġpos ition
Ġmend apat
Ġdesen vol
Ġà¤µà¤¿à¤ ¶
ra j
Ġà®¤à¯Ĭà®Ł à®°
áĥłáĥ£áĥ ľ
áĢŀ áĢŃáĢ¯áĢ·
ĠS ci
end re
Ġtod as
Ġnghiá»ĩ p
ÎŁÎ Ŀ
le v
H e
Ġmo i
Ġà¦Ĩ à¦ĩ
ĠO kt
×¤ ×ĺ
Ðº ÑĥÑĢ
ĠØ§ ÛĴ
ĠÐ¼ Ð°Ð²
ãģķ ãģĦ
Ġd ere
åŃ £
Ġwe es
ning ar
ĠÎ£ Îµ
åĢ į
à¦ ·à§įà¦Ł
ĠtÃ¶ Ã¶
ĠÐµ ÑĤ
ãģĪ ãĤĭ
áĢĦáĢ¹áĢ¸ áĢŀ
k am
ly n
ĠFore x
ir ik
à´²àµįâĢį à´ķ
Ġ×ŀ ×¨
à±ģà° ¸
ce j
Ġma ikaÊ»i
ÑĨÑĸ Ð¹
iy le
à´£ à´®
un oa
Ġdest in
Ġå¹ ¿
ĠÙĨ ØŃ
á ī
ĠÕ º
ĠÐ¼ Ð¸Ð½Ð¸
ĠÙĨ Ø¨
Ġle f
Ð½Ð¸ Ð¼Ð¸
Ġso os
Ġáģ¿ áĢķ
ê ¶Į
Ġà¹Ģà¸Ķà¸´à¸¡à¸ŀà¸±à¸Ļà¸ Łà¸£à¸µ
Ġà®ª à®¾à®¤
åľ ĭ
Ġt áº¹
Ġmen ing
çİ° éĩĳ
ag b
ĠâĢĿ ï¼Į
ĠØ¬Ø§ÙĨ Ø¨
ľ áĢĬáĢ¹áĢ¸
Ã¸ b
im en
Ġc la
åĪĨ pk10
E E
ĠResta ur
Ġt á»±
iv en
Ġáĥĺ áĥĴ
ĠÐ± Ð»
ĠàªŃ àª¾àªµ
Ġo ct
ÑĢ Ð¾Ð¼
ĠØ§ÙĦØ£ ÙĪÙĦ
U V
Ġmin ist
Ġ12 3
ÙĪØ± ÙĬ
u ale
Ġm ate
at ar
Ġ×Ļ ×Ķ
ì¦ Ŀ
ãĥĩ ãĤ£
Ġen a
Ð¼ Ñĭ
Ġy ay
Ġxu áº¥t
ĠJ ah
Ġ Þ
Ġd Ã¢n
Ø§Ø¨ Ø¹
ĠAn ti
ĠA si
Ġà´¸ àµĨ
Ð°Ñİ Ñī
ĠN orth
ĠN az
Ġ ust
ĠÙĤ Ø¯Ø±
ĠÑĤÑĢ ÑıÐ±
Õ¸ ÖĢÕ
Ġåī į
Ġàªħ àª§
ĠØ® ÙĪØ¨
ĠÑĢÐ°Ð· Ð»Ð¸Ñĩ
áĢĲáĢ¹áĢ Ĳ
Õ ¤
ou w
es en
ĠÚ¯Ø±Ùģ Øª
Ġo la
Ġàªªà«ĭàª¤ àª¾àª¨àª¾
ĠÎ¬ Î½
å¾ ħ
Ġva ir
Ġshqip tar
Ġk dy
ç¬¬ ä¸Ģ
æ¯ ı
áĢ±áĢĶ áĤĶ
Øª ÙĪØ§ÙĨ
ch ilar
Ð°ÑĤÑĮ ÑģÑı
ĠÙĨ Ú©
at Ã³
å¤© åłĤ
ĠØŃ Ø§ØµÙĦ
ĠØ® ÙĪØ´
ä½ĵèĤ² æĬķæ³¨
ĠæĹ ł
ĠáĥĲáĥ¥ áĥķáĥ¡
ĠÐ¿ Ð°Ñĩ
åķ ı
ba ik
Ġs ov
åģ ¥
ĠáĢľ áĢĢáĢº
ĠÃº Äį
Ġà®µ à®¿à®°
Ġà´® àµĤ
Ðµ Ð¾
Õ¡Õ ®
à¤Ĺ à¥ĩ
in ti
Ġag å¹³åı°
Ø³ Ø§ÙĦ
ëĶ Ķ
on as
Ġà¸ª à¸¥à¹ĩà¸Ńà¸ķ
ĠL an
áĥĲáĥ¬ áĥĺáĥļ
ĠáĥĴ áĥĲáĥ®
Ġf aci
æ§ ĺ
ant z
Ú¯ ÙĪ
Ġver k
Ġm Å±
ĠÐ¶ Ðµ
Ġàªĸ àª°
Ġl ogo
àª®àª¾àªĤ àª¥à«Ģ
AL L
ÑĬ Ñĩ
àªĤàª¤ à«įàª°
Ġà¤° à¤¹à¤¾
ãģ« ãĤĪ
is ie
ia c
G R
Ġà¦¬ à§ĩà¦¶
ĠSh ow
Ġinst all
Ġc Ã´
Ð¡Ð ĥ
Ã« si
Ġr ela
Ġprofess ion
çĻ¾ å®¶
Ð°Ð³ Ð¾
s ul
Ġàª¸ à«įàªª
Ġà¦ħà¦¨ à§ĩà¦ķ
å¯ Į
áĥĹ áĥĲáĥķ
à¦¤ à§ĭ
an ing
ĠÏĢ Î¬
ĠÐ´ Ð°Ð»
Ð°Ð² Ñĸ
à¸« à¸£à¸·à¸Ń
à«ģàª Ń
Ġvi es
ĠM r
à´¿à´ķàµįà´ķ àµģà´Ĥ
ÙĦÛĮ Ùħ
Ġáĥ¨áĥĶáĥĽ áĥĹáĥ®áĥķáĥĶáĥķ
ĠØ¨ ÛĴ
Ġdis se
st re
ĠáĥĲáĥ¡ áĥĶáĥķáĥĶ
ĠB all
éĩį è¦ģ
Ġf aire
à¸Ļà¸¶ à¹Īà¸ĩ
à«ĭ àª®
le b
co in
ĠN ak
Ġà´¤à´¨àµįà´¨ àµĨ
à´¾à´¤ àµĨ
Ġst ad
and en
ĠØ§ÙĦÙħ Ø¯
Ġvet Ã«m
áĢĢáĢ¹áĢ ±áĢĶ
Ġå¤§åıĳ å½©ç¥ŀ
Ġs ale
à¤¿à¤ ľ
Ùİ Ùħ
Ð´Ð°Ñģ Ð´Ð°Ñģ
ad ÉĻ
ì§ ģ
à´¿à´¯ à´¿à´²àµįâĢį
Ġë° ĺ
à¸Ĺ à¸ĺ
Ïĥ Î¯
Ġà°ī à°Ĥà°Ł
áĥĽ áĥĶáĥĵ
ÏĨ Îµ
ÏģÎ± ÏĤ
Æ°á»Ľ ng
ĠG ujar
áĢķáĢ¹áĢ Ļ
éģ ¸
Î¸ Î¿ÏįÎ½
ĠáĢĺ áĢļáĢ¹áĢ
Ġnd rys
Ġag ar
Ġas ÃŃ
an as
ĠØ´ Ú©
ìķ ĺ
l elo
ĠáĥĴáĥĲáĥľ áĥ¡
ĠÐ¸ Ðº
Ġp asi
áĥĲáĥľ áĥ¢
ww w
Ġàªķàª¾àª° àª£à«ĩ
Ġm ez
it zen
Ġà° ·
iss Ã¤
Ġà¹ Ĩ
áĥł áĥĿáĥĽ
Ð´ Ð°Ð»
ĠK el
çĤ º
áĥª áĥĺ
ĠÚ© Ø§ÙĦ
Ġh ilo
Ġyo ut
atu ur
ĠØ¬ Ø²
Ġ: #
Ġ Ã¡n
ç¯ ĩ
ar se
Ġkas ut
áĢ±áĢĽ áĢ¸áĢ
Ġn ivel
ĠFor um
è¯ Ĩ
à´¤ à´¿à´°
áĢĺ áĢ¬
àª³ à«Ģ
ĠÅ į
un j
st ar
ãģ ¸
Ùģ Ø¸
ĻĢâ ĻĢâ
à§Ł à§ĩ
up e
Ġr av
ĠZ o
ì° ½
ĠB ot
ĠÏĥÏĦ Î¿ÏħÏĤ
å®ĺç½ĳ ä¸ĭè½½
Ġr y
ĠæĹ ¶
Ġstand ard
ĠÙ¹ ÛĮ
ĠS ay
à«įàª¯ à«ģ
ĠÐ·Ð° ÑıÐ²
de z
Ġavail able
à±įà°Ł à±įà°°
ier en
ÙĪÙĨ Ø§
à¥ĭ à¤°
×ķ ×ķ
Ġìĥ Ī
Ġà« ©
ĠS ho
Ġè ¾
Ġo Ê»
æ£ Ģ
ÐµÐ¼ Ð²ÑĢÐ¸
is ho
Ġ* *
Îº Î¿Ïį
ĠÛģÙĪ ØªØ§
Ġv ie
ÐµÐ½ Ð½Ð¾
ĠçĶ Ł
Ġte ch
Ġg irl
ĠN ic
Ġà´ķ à´£àµįà´Ł
sh ip
ĠÑĤ Ð°Ð»
Ġtara f
ĠØ¬ ÛĮ
áĢĬáĢ· áĢ¹áĢ
ĠáĥĽ áĥĺáĥĸ
ĠÃ© n
åľ Ł
çķ ª
íĹ ĺ
up er
Ġhab it
àµĭ à´ķ
Ġon de
Ġm ini
è¾ ĥ
ÙĦÛĮ ÙĦ
ez et
à¤°à¥įà¤ ¤
à¸ª à¸³
Ġve Ä¾
ing ton
c ze
Ġh ack
s an
ĠX V
à´¯ à´¾à´³
Ġh ir
ĠK ui
eb b
Ġëª ©
Îº Î»Î·
å¤ ®
or at
Äĵ tu
Ġ199 6
ìĦľ ë¹ĦìĬ¤
Ġb ec
Ø´ ØªÙĩ
Ñį Ð¹
Ġdis a
r ol
Ġp uj
Ġn ahi
Ġ! "
å®ĺç½ĳ çĻ»å½ķ
à¤¾à¤µ à¤°
Ġï¿½ ?
Ġà´° à´¾à´ľ
Ġ×Ĺ ×ĳ×¨
Ġsal ah
Ø§Ø¨ Ø©
Ġà®ĩ à®¯
ing u
Ġcl ub
ĠÙħÙĨ Ø·
ê »
Ð½ Ð¾Ð»Ð¾Ð³
ch ts
Ħ áĢĶáĢ¹áĢ¸
Ġàª¸àª° àªķàª¾àª°
ĠØ§ÙĦÙħ ÙĨØª
áĥĲáĥ¡ áĥĺ
ĠðŁ Ĵ
Ġr ich
Ġfinn s
à¸²à¸ª à¸´
Ġnag y
Ġv Ã¬
Ġser Ã¡
áĥłáĥĺáĥķ áĥĺ
æķ° æį®
Ġà¹ĥ à¸Ļ
áºŃ y
Ġju u
Ð¸ ÐºÐ°
sp ot
Ġáĥĺáĥľ áĥ¢
Ġ×© ×¢
Ġb Ã¡n
AT A
Ġàªķàª° à«įàª¯à«ĭ
áĥĲáĥĵ áĥĿ
Ġn ay
áº¡ ch
Ã¼ b
áĢŀ áĢĬáĢ·áĢº
à¹ī à¸²à¸¡
lÄ± ÄŁÄ±
ĠàªĹàª¯ àª¾
ĠÎµ Î³
ëĿ¼ ìĿ¸
Ð°Ð± Ð°ÑĢ
Ïģ ÏİÎ½
ĠÎ±Ïħ ÏĦÎ¿
áĢĻáĢº áĢ³áĢŃ
tor s
oug ht
j nÃ«
Ġm Ã©
ÑĢÐ°Ñ ĺ
Ġà®ĩà®¨à¯įà®¤ à®¿à®¯
à¹Ģà¸ĩà¸´à¸Ļà¸ ļà¸²à¸Ĺ
ar is
ag n
im os
Ġè ¥¿
à®¾à®² à¯ģà®®à¯į
ĠÑĤ Ð¾Ð³Ð¾
æİĴ åĪĹ
ĠáĥĲáĥ® áĥļ
d agi
Ùİ Ø±
×ł ×Ļ×ª
Ðĺ ÐĿ
ĠØ± ØŃ
Ġest at
à¸²à¸Ħ à¸¡
ed et
ĠðŁĻ Ĥ
ìĹħ ìĨĮ
ĠÎ² Î±
ä¾ ¡
ĠØ¬ Ø§Ø±ÛĮ
Ġker ana
àª¾àªĤ àª§
à¹ĩ à¸Ķ
à«ĭàª ı
ÙĤ Ø§ÙĦ
Å£ ii
ĠS ky
Ġide a
åĲ §
à°ª à±Ī
ar Ä±
Ġà¤Ĩ à¤ľ
Ġp ng
à¸§à¸´ à¸§
ÏĨ Î·
Ġg ur
ĠUn der
ÑĢÐ¸ Ð´
à±įà°° à°®
Ġà¤° à¤¹
ÑģÑĮ ÐºÐ¸Ð¹
Ġáĥ¡áĥĲáĥ®áĥĶáĥļ áĥĽ
ĠØ¨ Ø²Ø±
Ġdi f
Ð°Ð¹ Ð´
te xt
Ġ×ľ ×ĵ
Ġsec ond
Úĺ Ùĩ
Ġre port
Ġà®ª à®¿à®±
Ġ×ĳ ×Ļ×ª
ĠM O
Ġà´ĩ à´¨àµįà´¤àµįà´¯
_ gr
R I
ĠØ³ Ø±ÛĮ
Ø± Ø³ÛĮ
çľ Į
ĠTÃ¼rk iye
à¤Ĺ à¤¾
à¹Ģà¸ĩà¸´à¸Ļà¸ļà¸²à¸Ĺ à¹Ħà¸Ĺà¸¢
Ð°Ð»ÑĮ Ð½Ð¾
ĠáĥĽáĥĿáĥ ®
Ġguz ti
Ġç¥ ŀ
Ġbe ing
ãĥ İ
à¹ĥà¸« à¸į
ĠÎ¼ÎŃ ÏĥÎ±
Ġàªµàª¿àª ļ
ĠK omm
à´¤àµįà´¤ à´¿à´²
en ces
Ġis ti
ĠS es
ĠF ern
ĠN ad
è ķ
ÑĢÐ¸ Ð²
ÈĽ ie
P age
et in
ah am
æķ ħ
Îĳ ÎĻ
Ġàªµ àª¿àªķ
Ġkan yang
é į
Ð¸Ð¼ Ðµ
åĨ ľ
da ÅŁ
ĠØ³ Ùģ
ĠØª Ø±ÛĮÙĨ
Ġà°µà°¿à° ·
ĠÐ¾Ð½ Ð»Ð°Ð¹Ð½
Ð¸Ð» Ð´Ð¸
áŀ¶ áŀ
Ð°Ò³ Ð¾Ð¸
Ġj Ã¤l
çı Ń
ìĺ¤ íĶ¼
z al
Ġvi el
Ùģ Ø§ÙĤ
ÑĥÐ² Ð°Ñĩ
Ïģ ÎŃÏĤ
Ð¿Ð¾Ð² ÑĸÐ´
ĠáĢľ áĢ¯áĢķáĢº
ĠØŃØ¶ Ø±Øª
ĠÐŁ Ð¾Ñģ
ĠFl or
ĠÎļ Î±Î¹
Ġbo x
à¥ĩà¤ ¡
ĠÐ½Ñı Ð¼Ð°
ĠJ i
Ġãĥ ŀ
áĥ¬ áĥĺáĥ¤
Ñı Ñĩ
Ġt Å¡a
Ġso ur
Ġcom me
è¯ ¥
Ġy hte
ĠN Ã¤
ĠÐ¿ÑĢ ÐµÐ¿
ĠÙħØ´ Ú©ÙĦ
Ġgi an
ĠM ini
å· ´
IN A
Ġ( ).
Ġàªª à«įàª²
Ġà¦® à¦¹
Ġkun i
p ak
Ġprobl ema
Ġh uk
Î ĺ
ĠÐ² Ð¾Ð»
ĠÃ© ta
ì ¼
áĢĽ áĢĶáĢº
×ĳ ×ª
×¨ ×ļ
ĠH ay
Ġà´µà´¿à´ µ
ĠØ¨ Ø£
Ġd int
Ġä¸ »
Ġà°® à°¹
Ġà®¨ à¯ĩà®°
Ġàª¨ àªµ
Ġà¤ķ à¤¹
in ts
ì¦ Ī
Ġ ä½ľ
à´¾à´¨ à´Ĥ
ciÃ³n s
Ġ×ĳ ×ĵ
ĠØ¬ ÙĦ
Ġc lar
Ñģ Ð°Ð¼Ð°
ĠÐ½Ðµ Ð²
à¹Ģà¸£ à¸²
åħ ´
áĥĲáĥłáĥ ©
áĥ£ áĥĲáĥļ
àªĤ àª®
Ðº Ð°Ñŀ
ĠJ ust
áº¯ ng
ĠG ame
áĥĺáĥ¡ áĥĹáĥķáĥĺáĥ¡
Ġv Äĵl
Ġc ele
áĢ®áĢ¸áĢ ķ
Ġè Ĥ
à¤ ĺ
Å ĭ
ish ga
ĠÐĲ Ð·
Ġà¦¬ à¦¾
Ġs le
ĠL ip
is el
Ł áĢ¯
Ġdes pre
ãĤĵ ãģª
at si
Ġm f
à¥įà¤Ł à¥įà¤°
Ð´ Ñĭ
Ġ×ľ ×¡
éĩ ĩ
ĠÏĩ ÏģÎ®
Ġà´ ³
Ġp ir
Ġg ot
Ġam al
Ġ12 8
ĠæĹ ©
Ġà¦ķà¦¥ à¦¾
Ġmuk ha
Ġj adi
àªķ à«Ģ
å¨ ģ
íĥ ľ
Ġre ally
ĠáĥĹ áĥ£áĥĽ
à±Ģ à°¨
ĠÑģ Ð¾Ð½
Ġs ame
Ġq iy
il ang
Ġà´® à´¾à´¤àµįà´°
ung i
Ġu plo
ĠCom o
æĻ º
ĠãĤ ¤
Ġg w
áĢ» áĢ¬áĢ¸
Ġtr Ã¨s
ĠP our
Ġà¤ ĳ
Ġh jem
Ġç Ī
Ġà¤ķà¥ģà¤ Ľ
ĠÐ´ÑĢÑĥ Ð³Ð¸
ĠÐ³ Ð»Ð°Ð²
m ad
åį ³
à«ĭ àª¨à«Ģ
à¦¾à¦° à§ĩ
Ð¸ÑĤÑĮ ÑģÑı
oh ol
Ġz er
à®¾à® Ļà¯įà®ķ
eri al
ĠØ¬ Ûģ
and ay
Ġw ale
Ġli ik
Ïį ÏĢ
al im
Ġà´¨ à´¿à´²
ĠÐ´ Ñĭ
Ġà ²
áĥķ áĥĺáĥļ
à§įà¦¬ à¦°
ÈĽ Äĥ
Ġé ļ
Ø±ÙĪ Ø²
ĠP ay
ĠáĥĲáĥ Ĵ
Ġx o
ĠÏĢÏģÎ¿ ÏĤ
ĠP eter
Ġ×Ķ× Ŀ
ĠØ¹ Ø±Ø¶
Ġkom ment
Ġà¤ķ à¥Ī
Ġåĳ ¨
Ġtik ai
éĿ ©
ĠáĥĻ áĥĺáĥĵ
ĠÙĨ Øµ
ÑĨÑĭ Ñĸ
ĠâĢ ³
ĠÐº ÑĥÐ»ÑĮÑĤ
r Ã¼n
ÑģÑĮ ÐºÐ°
ĶáĢ¾ áĢĦáĢ·áĢº
ĠØ¯ Ø±ÛĮ
ĠÄ° n
à¦¾à¦ «
ÑĥÐ´ Ð¸
amb ar
ĠáĥĽ áĥĲáĥĽ
ĠÑģ Ð¸Ð»
Ġchild ren
ë² Ħ
Ñİ Ð²
Å ł
ĠA u
Ġpo int
Ġpag ka
ti u
à®¿à®Ł à®®à¯į
ĠÃ§ Ä±k
Ġger ek
×ľ ×Ĺ
ĠD C
77 7
tor y
ĠJeho fa
Ġà°ķ à°¨
áĢĶ áĢĬáĢ¹áĢ¸
ta v
ĠÃł s
à¸ķ à¹Īà¸²à¸ĩ
Â ¤
Ġt iek
áĥĲáĥ Ń
Ġal ap
ĠPr im
ĠM uj
ĠI C
ĠÏĩ Ïİ
Ġor e
um en
ĠP ass
ĠB O
çı ¾
Ġà®ļ à®¿à®²
ĠÐ¼ ÐµÑĪ
Ġ199 5
b n
ĠÑģ Ð¸Ð½
Ġy at
pl at
ord en
Ġws zyst
à¯ģà®³ à¯į
Ġk inh
à¸Ĭ à¸µ
Ġà®ķ à®µ
áĢĿ áĢĶáĢº
Ġãĥ Ĳ
à´¿à´° àµģà´¨àµįà´¨àµģ
à®° à¯įà®µ
ĠÙĦ ÙĨ
ĠÎ» Î±
ĠS or
áĢģáĢ¼ áĢĦáĢºáĢ¸
à¤¿à¤ ĸ
Ñı Ð²Ð°
um in
ÏģÎ¯ ÏĤ
Ġb ug
Ġ10 8
Ġag è§Ĩè®¯
áĢĦáĢ¹áĢ Ĩ
ĠS ampai
h av
áĥĶáĥłáĥ ķ
à¹ģ à¸Ļ
IC A
Ġàª ¥à«Ģ
à¸¸ à¸Ļ
Ġus o
ĠáĥĽ áĥĻ
à®² à®ķ
Ġsol id
E _
ĠÐ³ Ð°Ð»
Ġeur os
Ġ... ....
Ġd k
íı ī
Ð½Ñĭ Ð¼Ð¸
Ùĥ Ø§Øª
u it
ĠÙĪ Ø²Ø§Ø±
Ġvi ÅĨ
Ø± Ø¬
Ġo se
à®¿à®© à¯įà®©
àª¿ àªĤàª
à¤Ĺ à¥Ģ
à¤Ĺ à¤°
Ðŀ ÐĿ
ÐµÐ» ÐµÐ½
ĠE T
ÙĨØ¯ ÛĮ
ĠØ¨ Ø·
Ġy ii
ĠtÃ¶ bb
it so
Ġkun nen
Ð¸Ð½ Ñĥ
Ġl ite
Ġ10 4
p in
à¹Ģà¸¥à¸·à¸Ń à¸ģ
f g
Ð¾Ð± Ð¾Ð´
ow any
áĢĲ áĢĽ
Ġmen os
Ġ222 70
ÑĥÐ± Ð»Ñĸ
ĠáĢ¡ áĢŃáĢĻáĢ¹áĢ
Ø³Øª Ùĩ
as ie
_gr id
ĠÐ¡Ð ĥ
Ġb oth
Ġn bsp
un ch
ĠáĢ¡áĢħ áĢŃáĢ¯áĢ¸áĢĽ
ĠDV D
ãģª ãĤī
Ġà°Ĩà°¯ à°¨
ĠÄ ĥ
ĠØ§Ø³ ÛĴ
ĠÐ¿ÑĢ Ð¸Ðº
Ġme et
Ġà®ķà¯Ĥ à®Ł
à¦¾à¦° à¦£
ir in
áĥĶáĥĳ áĥĶáĥĳáĥĺ
Ġ[ /
l ÉĻn
d n
à® ·
Ġà´¨ à´²àµįâĢįà´ķ
à±ģà°¨ à°¿
ÑĢ ÑĤ
Ð¸Ð³ ÑĥÑĢ
ĠØµØ§ØŃ Ø¨
ĠÐ» Ñĸ
ĠØª Øª
ĠÎ´Ïį Î¿
ìł Ģ
Ø±ÙĪ Ø³
al in
Ġà¤¦ à¥ĩà¤¶
Ġsa an
Ġm ud
Ġc ultur
Ġc ast
ĠØ§ÙĬ ÙĨ
Ġ ÉĻm
å¼Ģå¥ĸ ç»ĵæŀľ
Ġas os
áĢ¼ áĢ¬áĢ¸
ai o
æ² Ļ
áĢĢáĢ¹áĢ Ĩ
áĢ±áĢĲáĢ¬ áĢ¹
à§Ĥ à¦²
ĠÐĲ Ð»Ðµ
Ġv re
Ġs ha
ç§ Ĵ
Ġf ins
o y
Ġ×ķ ×©
ĠAmer ika
ãģĹãģ¦ ãģĦãĤĭ
ac Äĥ
Ġç Ń
æ¯Ķ åĪĨ
ĠM ost
ĠL ar
Ð¾Ð¶ Ðµ
ĠÑĸ Ð·
Ġfor ex
åĵ ¡
ĠB ib
Ġà¤ķ à¤¾à¤®
Ġà¤ª à¥Ģ
ĠÄĳi á»ĥm
ĠáĢģ áĢ¶
Ġa ye
Ġmen er
ong an
ĠÐ¢ ÑĥÑĢ
Ġter rit
s il
áĥ¥ áĥĿáĥľ
ak si
ĠÕ £
Ġp ig
ĠF ol
ĠÐł Ð°Ñģ
ĠÅŁ ÉĻ
à´¤àµįà´¤ à´¿à´¨àµį
ĠÙħØ³ Ø¦
à«Ģàª ¶
imi ento
ģáĢ« áĢĦáĢ¹áĢ¸
ĠÙĨ Ø³
ĠÙħØ±Ø¯ Ùħ
Ġsebel um
é¡¹ çĽ®
×ķ× ¥
Ð°Ð» ÒĽ
Ġfe ed
Ġyout ube
Ġn chini
ĠáĥĽáĥĺáĥĽ áĥĲáĥłáĥĹ
ÑīÐµ ÑģÑĤÐ²
ĠÐ°Ð²ÑĤÐ¾Ð¼ Ð¾Ð±
Ġg ive
Ġv Å¡e
Ġ2 F
à¤Ĥ à¤Ł
Ġw ali
ĠE f
Ġh vis
ï¼ ¿
ĠGener al
áĥ£áĥłáĥ ¡
ĠÐĳÐµÐ»Ð°ÑĢÑĥÑģ Ñĸ
áĢĸ áĢŃáĢ¯áĢ·
ĠÐº Ð¸ÑĢ
Ġbeg in
ĠEn erg
Ñģ Ð°ÑĤ
Ġà¦¸ à¦¾à¦®
Ġg ek
áĥľ áĥĺáĥ¨áĥķ
ĠW illi
Ù Į
Ð¾Ð³ Ð°ÑĪ
àª¸ à«įàªŁ
ÑĢÐ°Ñ ī
oh n
w eza
ik us
Ġíķ Ħ
ĠØ§ÙĦØ± Ø¦ÙĬØ³
à¸¥ à¸¹à¸ģ
×¨ ×ķ×ª
nÃŃ ho
j Ã¸
nÃŃ k
U F
à®² à¯įà®µ
L I
Ġàªħ àª²
Ġmar gin
Â ³
ur ch
ç§ ģ
is ko
" "
Ġ×Ľ ×ļ
Ġo ju
é Ĭ
Ġd uten
ĠV or
ra h
ill s
à¤Ĥ à¤§
ãĥ ı
áģ Ĥ
ma in
Ä« k
Ġáĥ¡áĥĲáĥ ¤
Ġà®ķ à¯ģà®Ł
Ġs emb
à¥ĩà¤ ¦
äº ²
ĠÎķ ÏĢÎ¹
Ġti á»ģn
Ġq ad
Ð» ÐµÐºÑģ
ĠK Äģ
S el
Ġà¦ļ à¦²
Ġk áº¿t
vo or
uts ch
Ġek stra
à§ģ à¦¦à§įà¦§
ĠÄį o
un c
Ġ×ĳ ×Ľ×ľ
Ġ) (
å¯ Ĩ
ĠC E
Ġmir Ã«
à´¿à´ķàµįà´ķ àµį
ĠM Ã¼
im ana
aw i
ĠÑĤÑĢ Ð°Ð½
Ġac ord
ĠH il
ãĥ ¤
»áĢķ áĢ®áĢ¸
à¸± à¸Ħà¸£
Ð½ ÑĤ
à°Ł à±įà°²
Ġak á»į
ì ¤Ģ
Ġem as
â Ļ
Ã§ os
Ġel eg
ç²¾ åĵģ
Ġà¤¯ à¥ĩ
Ġu h
Ġfe ela
Ġ×Ľ ×ŀ×ķ
ĠAr m
Ġn al
we en
Ġf oc
eg as
Ġàªķàª°à«Ģ àª¨à«ĩ
ÙĦ Ø§ÙĨ
Ġìļ Ķ
Ġg or
àªĸ àª¤
Ġà°¨à±ģà°Ĥà° ļà°¿
Ġt áº¿
æī ¿
Ġàª¶ àª°à«Ĥ
×ĳ ×ķ×¨
ĠP A
ĠÑģÑĬ Ñģ
ĠS ite
à«ĭ àª¨à«ĩ
à« «
Ġ9 78
Ġ( {
Ġdem ok
áĢĢáģ ¡
Ĳ áĢħáĢ¹áĢ
à¸· à¹Īà¸Ļ
ĠBak Ä±
ĠT all
à´ª àµįà´°
ĠServ ice
ç¦ »
ĠSt art
Ġàªķàª° àª¤àª¾
Ġer o
umi em
eni u
Ġàªħ àªµ
ì¢ ħ
Ġt Ã¢m
Ġprim er
Ġj us
ĠEle c
æ£ĭçīĮ æ¸¸æĪı
Ġà®ª à®ķ
áĢ±áĢľ áĢ¸
ÎŁÎ Ľ
room _grid
ĠÐ¡ ÐµÑĢ
áĥĿáĥĳ áĥĲáĥ¨áĥĺ
Ġb ata
ÅĤ u
Ð¾Ñģ Ñı
Ġy ana
áº£ nh
à¥ĩ à¤°
ÑĢÑĥ Ð¶
Î¯Î½ Î·
Ġfa it
Ġelec tr
à¤¢ à¤¼
em me
Ġm av
H T
Ġh uy
Ġtrans form
áĥĶáĥ¥ áĥ¡
ep at
c le
Ġ×Ĳ×Ĺ ×ĵ
à¦ ¯
ĠÐºÐ¾Ð½ ÑĤÑĢ
à¸ª à¹Īà¸ĩ
olu tion
ĠCon ta
n ut
Ġà¤¸ à¤¾à¤®
å¤§ å°ı
Ð· Ð°
Ġpers ona
ĠÙħØ¬ ÙĦØ³
Ġkl as
ij u
Ġst y
à¦ķ à§įà¦°
à¸Ļà¸ Łà¸£à¸µ
Ð¸ÑĢ Ð°Ð½Ð¸
Ġdar ipada
áĥĲáĥĹ áĥķáĥĺáĥ¡
ĠáĥĽ áĥĿáĥĴ
áĢĶáĢ¹áĢ ¡
æ ½
ÑĬ Ð¶
ĠÐº Ð»Ð¸
Î½Î¿ Î¹
Äį nÃ©
Ġà°ħ à°Ĥà°¤
eg ori
Ġw yk
ĠB os
ãĢ ħ
à¤µ à¤°
×ĳ ×ķ×ª
áĥĵ áĥĿáĥĽ
áģ¾áĢĢ áĢ¬áĢ¸áĢ
áĢĨ áĢ¯áĢŃ
à¹Ĥà¸¡ à¸Ĭà¸±à¹Īà¸Ļ
we et
à¤¿à¤ ·
Ù¹ Ø³
ĠìĤ¬ ìļ©
Ġgjith Ã«
Ġch u
Ġsv ar
S K
Ġz it
ĠkÃ¶n nen
Ġä¸ ľ
ĠÙĨ Ú¯
ĠÐ½ Ð°ÑĦ
Ġcomp any
ĠØ§ÙĦ Ø§Ø³Øª
ĠR oma
ĠT ro
àª¿àª §
Ġà´ľ à´¨
áĢĢáĢ¼ áĢ®áĢ¸
Ġ×Ĳ ×Ļ×Ł
à¦¿à¦ Ń
st up
lo ud
åħ »
æ± ½
à«Ģàª ¬
it ch
Ġto ur
éĿ ł
Ġv ier
Ġam ely
æī ĳåħĭ
ĠØ§ÙĦÙĤ Ø±
ç´ ¢
äº «
Î¼Î¿ ÏĤ
ib e
i or
Ġáĥŀ áĥĲáĥ¢
ĠØ± Ø¯
Ġ×Ĺ ×ĵ
ĠÑĦ Ð¸Ð½
àµįà´ ķ
ĠãĤ ¯
áº¡ c
ĠÐ ©
Ġå Ģ
Ġà¦¯ à¦¾à§Ł
áĢ¥ áĢ®áĢ¸áĢ
ìĺ Ģ
Ð°Ñļ Ð°
à®¿à®ļ à¯įà®ļ
ĠáĥĹáĥ£áĥĽ áĥªáĥĲ
Ġt Ã¡c
Ġph ÃŃ
×Ļ×© ×Ķ
Ġl Ã¶
ĠÐĶ Ð°
ÐµÑģÑĤ Ð¾
ĠáĢ± áģ¾áĢĢ
Ġáĥ¢ áĥł
Ġu c
ãĤ ½
ĠÙĨ ÙĪØ¹
Ġz as
Ġin im
Ġinc re
àª°à«įàª ¥
Ñĭ ÑĨ
ĠÑĤ Ð²Ð¾ÑĢ
Ġch ang
àªĹ à«Ģ
Ġæ¶ ĵ
ĠMot or
ak ah
Ġmel akukan
Ġ( +
ĠÐ¡Ð Ĭ
Äĵt Äģ
ag gio
Ġà¤¹à¥ģà¤ ı
à±Ĥà° ª
ÐµÐ´ Ð¸Ð½
ĠÐĲ Ðº
ĠÄ° ÅŁ
ÙĩâĢĮ ÙĩØ§ÛĮ
ĠK ah
ĠØ¨Ø±ÙĨ Ø§ÙħÙĩ
ĠgÃ¶ st
Î¸ Î½
Ġä¸ ĩ
Ġà¤ľ à¤¬
Ġthi áº¿t
áĢľ áĢ¯áĢŃ
æŀ ģéĢŁ
ĠÙĩÙħ ÚĨ
Ġàªĸ à«Ĥ
ĠÐ² Ð¸Ð»
ĠØ¹ ÙħØ±
Ġ/ ">
à±ĩà° ª
à¥Ĥ à¤²
ÙĬ Ø¬
rib ut
Ġàª¬ àª¦
Ġth áº¥y
Ġà¤ļ à¤¾à¤¹
Ġv ÄĽ
Ġãĥ ¡
ĠãģĿ ãĤĮ
Ġà´ļ àµĨ
ĠÛĮ Ú©ÛĮ
Ð°Ñħ Ñģ
st u
C om
Ġå¹ ³
Ġf as
Ġus er
à¦¬ à¦¾à¦¦
Ġìł ģ
ÙĦ Ø§Ø«
Ġ24 0
is y
ĠK op
ãģĤãĤĬ ãģ¾ãģĻ
áĢĽ áĢ²
3 d
ie b
Ġáģı áģĭ
ĠP le
ĠÐ½Ðµ Ð³Ð¾
unoa ÈĻte
Ġáĥ¨áĥĶáĥ £áĥ
å¥½ çļĦ
Ġà¤ķà¤¾à¤° à¥įà¤¯
Ġd up
g as
Ġvl ast
Ġæĸ ĩ
ĠãĤ ¨
Ġ17 0
áĢĻáĢ» áĢ¬áĢ¸áĢ
ĠÐ¿ÑĢ Ð°Ð·
Ġja u
n n
Ġà°ħ à°Ń
ĠÙĩØ³Øª ÙĨØ¯
à¥įà¤° à¤®
Ġse orang
à®¿à®Łà¯įà®Ł à¯ģ
ĠÛ ´
ĠÎķ Îº
F OR
ĠAm azon
à´¿à´ ·
Ð°Ð½Ð¸ Ð¸
id upan
Ġn it
Ġfo und
Â ²
±áĢĽ áĢ¬áĢĢáĢ¹áĢ
à¹Ģà¸Ĥ à¹īà¸²
Ġdire k
ãĥª ãĥ¼
Ð²ÐµÑĢ Ñģ
Ġb áº±ng
ìķĦ ê°Ģ
áĤĬ áĢĲáĢ¹áĢ
an ne
ĠÛ µ
ĠL it
Ġàµ ½
à´¿à´ķàµįà´ķ àµģà´¨àµįà´¨àµģ
Î´ Î±ÏĤ
ĠØ±Ûģ ÛĮ
Ġwat ch
Ùħ Ûģ
Î¾ Î¹
Ġper d
Ġáĥĳ áĥł
Ð¸Ð¼ Ð¾
ĠÃ Ĥ
áĢ»áĢķ áĢ®áĢ¸
Ġv Ã¥
Ñı Ñŀ
er min
ĠÑĢÐ¾Ðº Ñĥ
éĵ ¾
áĥĲáĥķ áĥĲáĥĵ
Ġáĥĳ áĥĲáĥķáĥ¨
Ġ10 2
à¤¾à¤¤ à¥įà¤°
Ð² ÐµÐ´
Ġk ro
t v
áĥ£áĥ ¢
±áĢĲáĢ¬ áĢ¹
æĵ į
à¦ ı
Ġw ys
Ġto Ãłn
åĲ ĥ
áĥĶáĥĳ áĥĲáĥ¨áĥĺ
ĠÐ¾Ð¿ ÐµÑĢ
ĠÎ¼ÎµÎ³ Î¬
ak ing
Ġp ont
à¹Īà¸²à¸ ª
ÙĪ Ø©
it ions
çķ Ļ
Ġph Ã²ng
Ġm ij
áĥĿáĥĵ áĥĶáĥ¡
ÛĮ Ø±ÛĮ
ÉĻ ÅŁ
áĥĺáĥĻ áĥĲ
å¯ Ł
T e
Ġàªµà«įàª¯ àªķà«įàª¤
Äģ la
à¸± à¹Īà¸§
Ð²Ð¸ Ð¶
Ġáĥĵ áĥłáĥĿáĥ¡
æĴŃ æĶ¾
Ġåį Ĺ
Ġw in
à«Ģàª ¦
s ob
æ³ ¢
ãģ§ãģį ãĤĭ
ĠÑĤ Ð¾ÑĢ
Ġ) -
áĢĦáĢ¹áĢ Ľ
Ïĩ Î·
um ba
ici Ã³
Ġat Ã«
à°¾à°² à°¨à±ģ
Ġg ez
ê°Ģ ê²©
Ġv eri
Ã¡s z
Ġå° Ĩ
ĠÙħ ÙĩÙħ
j um
Ġf lo
iv os
Ġà®® à¯ģà®±
Ġpol e
ĠN eder
w u
ĠÎ¼ Î·Î½
Ġ' ;
ĠÎ ŀ
ĠK le
Ġì° ¨
Ġkel uar
ÑĢ Ð°Ð±Ð¾ÑĤ
Ð² Ð¸Ð´
ÑĤÐ¸ Ðº
ĠáĢ¥ áĢķ
ĠvÅ¡ et
Ġfo yd
Ã¡ri os
Ġch á»§
ãģĪ ãģ¦
ot to
ĠÐ±ÑŀÐ¹ Ð¸ÑĩÐ°
Ġa uk
Ð¾Ñģ Ð¾Ð±
ia i
ĠâĢ ²
Ġt Å¡e
Ġåİ Ł
Ġà¦Ń à¦¾à¦°
ĠáĥĽ áĥĺáĥĶáĥł
ĠÙħ Ø§ÙĦ
Ġhe alth
Ð°Ðº ÑĤ
ĠáĥĶáĥłáĥĹ áĥĲáĥĵ
Ġà¸Ķ à¸¹
Ġp Ã¤r
Ġàªħ àª¥
Ġt á»ĳt
Ġb áº£o
ÑĸÑģÑĤ ÑĮ
Ð°Ð» Ð½Ð°
à¸ģ à¸±à¸Ļà¸
ott om
à¸ĵ à¸°
l ÃŃ
E x
ĠÐºÐ¾ Ð»Ð¸
ĠÄĳ á»ĳi
Ġty p
Ġtiáº¿ p
Ã¦ re
ĠÐ¿ÑĢÐ¾Ð± Ð»ÐµÐ¼
ĠÐ´ Ð¸ÑĢ
Ġt ez
Ġinsp ir
ĠS D
ĠJ eh
Ġáĥ¡áĥĲáĥĶ áĥłáĥĹ
àµĭ à´³
A l
Ġex emp
áĥ£áĥłáĥ ľ
lij k
Ġa e
ÎĻÎ Ŀ
eng er
ar am
ãĢ į
áĢĸ áĢŃáĢ¯áĤĶ
ĠÃ ¬
äºº çļĦ
Ġp k
áĥľáĥĺáĥ¨áĥķ áĥľáĥĶáĥļ
Ð° Ð°ÑĤ
Ġà¹Ģà¸ Ĭ
æ¹ ĸ
ĠGer man
k Ã¤
ĠÐº Ð¸ÑĪ
àª¸ à«įàª¥
ê ´ĳ
ĠØªÙĪ Ø¬Ùĩ
à°¾à°² à°¨à°¿
Ġf ed
à«ĭ àª¨àª¾
ek tiv
ati f
ĠÛĮ Ø§Ø¯
ĠR oz
ĠN aj
Ġm uda
áĢģáĢ» áĢŃáĢĶáĢº
Î½ ÎµÏĤ
Â °
áĥĶáĥĽ áĥĳ
Ġáģ ĩ
âĶ Ģ
×Ļ×ĳ ×Ķ
Ġà´ľ àµĢà´µ
ĠÑĥ ÑĢ
Ġb eb
áĢ¼ áĢĦáĢ¹áĢ¸
ĠØ¢ÙĨ ÙĩØ§
Ġd ÃŃ
áĥĵ áĥĶáĥľ
àµģà´ ²
Äĥ t
ĠÏĢ ÏģÎ±Î³Î¼Î±
ti er
ĠÄĳ Æ°á»Ŀng
Ġàª ł
ĠØ± ÙĨÚ¯
Ġun ter
ol is
áĥĲáĥĹ áĥĲ
sk u
ĠRa is
Ġit ali
Ġf arm
Ã½ mi
ĠâĢ ¡
à¤¸ à¤¾
ãģ« ãģ¤
ie v
Ġr ip
Ø® ÛĮ
Ġz Ã¡k
Ġme u
Ġpl ant
Ġreg istr
Ġa ja
ÎĹ Îľ
Ïĥ ÏĦÏĮ
Ġà¦¹ à¦¾à¦¸
ĠAc c
OT O
Ġà°¸ à±įà°µ
Ġàªķàª¾àª° àª£
à¹Īà¸§ à¸ĩ
eg y
ĠáĥĽ áĥĶáĥĿ
art h
à«ĩàª ¥à«Ģ
×Ĵ ×ĵ
Ġhi á»ĩu
Ö ¹
ÐĲ ÐĽ
ĠÎµÎ¯ ÏĩÎµ
ĠW il
è¿ ľ
Î¹ÎºÏĮ ÏĤ
Ġáĥ¡ áĥĺáĥĽ
Ġàª² àªĪ
ĠØ³ ÛĮÙĨ
ĠÎºÎ¬ ÏĢÎ¿
à¸´ à¸ļ
Ġsek Ã¤
elis oa
ĠÎ» Î¯
w aju
Ġáĥ¡áĥĲáĥ®áĥĶáĥļáĥĽ áĥ¬áĥĺáĥ¤
Øµ Ø©
Ġà¸ª à¸¡
Ġà°ļ à°¾à°²
Ġàª® àª¾àª°à«Ģ
w he
Ġd uk
ĠM is
×Ľ ×Ŀ
Ð½Ñĸ Ñĩ
ĠL td
âĢĮ âĢĮ
ĠÑĨ ÑĮ
Ġr ona
Ġv ij
Ġm ÉĻl
Ġg Ã¬
ä¹ Ŀ
Ø³Øª ÛĮ
à¤¾à¤ ĸ
h end
Ġo e
áĥłáĥĴ áĥĲáĥľ
áĥĺáĥĽ áĥĶ
ĠMicha el
mo ja
Ġàªªàª¾àª¸ à«ĩ
Ġv ille
ë£ ¨
àª² à«ĩ
ug b
at ro
Ġàªªà«įàª° àª®
Ġh ver
Ġa Ã±os
æĸĩ åĮĸ
Ġs f
áĢ¼ áĢĻáĢ¹áĢ¸
Ġl una
ĠáĥĲáĥ® áĥĲáĥļ
ĠíĻ Ķ
à¸ķ à¸±à¹īà¸ĩ
Ġà¸£ à¸²à¸Ħ
áĥĵ áĥľáĥĶáĥľ
å¤ «
IN I
ĠáĥĻ áĥĲáĥľ
ĠØ§ÛĮ Ùħ
Î» Ïİ
ĠÙ¾Ûģ ÙĨ
Ġt ush
ĠC ho
Ġà§¦ à§
Ġg rav
áĢŁ áĢ¯áĢĲáĢº
å·¥ ç¨ĭ
iek Å¡
ĠáĥĴ áĥĲáĥ£áĥ
pr Ã©s
Ġy Ã¼ks
ĠG el
à§ĩà¦ ª
ation en
èĭ ı
ĠìĦ ¤
Ġåľ °
ĠÛģÙĪ Ø¦ÛĮ
ëł ¨
ers e
Ġth á»ĭ
Ġest r
re di
Ð¸Ñı ÑĤÐ°
Å«s u
Ġáĥł áĥĲáĥĽáĥĵ
Ġt ÄĽ
ĠØ¯ Ø§Ø´ØªÙĩ
ĠÐ¸Ð½ÑĤÐµÑĢ ÐµÑģ
Ġà¤ ĵ
Ġà´ §
Ġesp eci
Ġad ol
¾ è®¯
ĠL en
áĢº áĢ¬áĢ¹áĢ
à°¾à°² à±ĭ
ĠÐŁÑĢ ÐµÐ´
ĠÐºÐ¾ÑĢ Ð¸ÑģÑĤ
Ġs oll
Ä« ga
ĠÎ¼ Î¹Îº
u is
ĠEs ta
Ġtá» ķ
Ġà¦ķà¦° à¦¾à¦°
p Ã¤
Ġn ÃŃ
Ò³ Ð¸
w ij
è¿ İ
áĢĦáĢ¹áĢ ħ
Ø§ÛĮ ÙĨ
Ġì° ¸
à¸²à¸ Ī
à±ģà°¤ à±įà°µ
ĠSh op
ĠÄ ¾
Ġ áº¸
Ġt ÃŃnh
Ġm ch
Ġh Ã¼
×Ĳ ×ķ×ª
ĠáĢĻáĢ¼ áĢĶáĢº
Ġp unt
Ġna f
ah ala
áĥĶáĥ ¨áĥĺ
ĠÏĮ ÏĦÎ±Î½
Ġl v
Ġ" ;
ama an
Ġst Ã¸r
àµĤ à´ª
àµģà´ ¨
ĠæŃ ¤
àµĥ à´¤
ÅĻ i
à°Ĥà°¡ à°¿
Ġh ope
Ġé Ĺ
Ġà°° à±ĭà°ľ
à¹ ĭ
Ã© z
ĠÐĴ Ñģ
Ø¨ÙĬ Ø¹
ĠÐ¿ÑĢ Ð¾Ð¿
ĠÎļ Î¿
Ġ199 2
our ce
ani u
Ð¸Ð» Ð¾
àµģà´ķ à´¯àµģà´Ĥ
ĠÎºÎ± Î½
ĠE A
áĥĲáĥĽ áĥĺáĥ¡
à¤¾à¤ ¡
om me
B S
Ġà®® à®Łà¯įà®Ł
ĠÑģÐº Ð°Ð·
ĠÙĪØ§ÙĦ ÛĮ
w r
Ġro k
ĠOff ice
Ġ11 4
ãĥ¼ãĤ º
à¥Į à¤°
ĠÐł ÐĨ
Ġperi od
lÉĻ ÅŁ
ĠÐ¿ÑĢ Ð¾Ñģ
áĥĶáĥłáĥ Ľ
Ú¾ Ø§
Â ¨
ĠÏĮ Î¼ÏīÏĤ
Ġg eni
ĠÐ» ÐµÐ³
à´¿à´ķàµįà´ķàµģà´¨àµįà´¨ à´¤àµį
Ġg iz
à¸Ńà¸²à¸ «
ĠJ ack
à±Ĥà° ²
ara z
â Ħ
Ïĩ ÎµÎ¯
al Äĥ
v Ãµ
ĠÙģÛĮ ØµÙĦ
×ķ×ŀ ×¨
b are
ĠÑĤÑŀ ÒĵÑĢÐ¸
áĢŃáĢ¯áĢ¸áĢ Ĳ
Ð»Ð°ÑĢ Ð´Ð°
ĠØ³ÛĮ Ø§Ø³ÛĮ
ĠhoÊ» om
Ġcent er
à¤ķ à¤¿à¤¨
Ġd ub
ĠM kuu
Ġ... ...
av al
ĠáĥĲáĥĽ áĥĳ
Ġs b
_ P
Ġëĵ ¤
Ġà¦Ĩà¦® à¦¾à¦¦à§ĩà¦°
Ġl ow
áĥĲáĥłáĥ ¯
ĠÄ ¼
à¹ģ à¸«
F A
Î´ ÏĮ
Ġà°ī à°Ĥà°¦à°¿
Ġj Ã³
Ġj ud
ĠC le
ĠR ah
ĠPr ess
à¹Īà¸§ à¸Ļ
àª°à«įàª ļ
s as
ĠØ¨Ø§Ø² Ø§Ø±
çľ ¼
Ġorig in
ĠT id
à¹ģ à¸Ĥ
Ġz b
Ð½ Ð´
ë¡ ł
Ġp rav
Ġà®ĩ à®¤à¯ģ
áĢ¸áĢĻ áĢº
à¸£ à¸£à¸¡
Ġæ± Ł
Ġar asÄ±nda
Ġáĥľ áĥĲáĥ®
Y W
ĠØŃÙĤ ÙĪÙĤ
Ã¦ t
Ġk rij
Ġkon k
Ġat Ã©
ĠÐ½ ÑĥÐ¶
å¤ļ å°ĳ
Ãª s
aku wa
Ġl ih
à¤ļà¥įà¤ ļ
ÑĨ Ð°ÑĤÐ°
f al
ĠÐ¿ÑĢ Ð¸Ð·
áĥĴ áĥĿáĥĽ
larÄ±n a
Ġtemp at
à®¾à® ª
ad hi
Ġa ka
Ġé ĥ
ĠÐĶ Ð¶
à¸¢ à¸§
it im
Ġlo áº¡i
Ġhist oria
ĠP T
ult at
Ġáĥķ áĥĺáĥľ
Ġs os
Î¹ Ïİ
Ġà®İ à®²à¯įà®²
ÙĬ ÙĬÙĨ
à¹ĥà¸«à¸į à¹Ī
áĢ¬ áĢĲáĢ¹áĢ
Ġ×ķ ×ľ×Ĳ
ĠK es
Ã¨ me
ĠhoÊ» op
Ġal ta
nie j
it ional
Ġmus ic
à«įàª ¹
Ø§ÙĦ ØŃ
ĠÐ¿Ð¾Ðº Ð°Ð·
áĥĲáĥĽ áĥĶáĥľáĥ¢
ĠÐ° Ð½Ð³
Ġan ni
d ik
p ot
m am
Ñĭ Ð»
àµĩà´ ĸ
Ġh d
Ġh á»į
ĠK et
Ġh Ã¡
Ġdel a
à¸Ħ à¸´à¸Ķ
ĠP red
à«įàª Ľ
n in
Ġd ugu
Ġ11 2
Ġà¸ Ł
Ġà¦¨à¦¿ à¦°à§įà¦¬
Ġreg ist
Ùģ ÙĦ
Ġ Æ
Ġs ampai
Î´ ÎŃ
Ġà®Ĩà®© à®¾à®²à¯į
ĠÐ½ ÐµÐ¼Ð°
Ġcheck ed
Ġh á»Ļi
Ġbir i
s in
å® ³
Ð¾ Ñī
Î¿Î½ ÏĦÎ±ÏĤ
F or
ĠDet te
ĠSch ool
ĠÕ ¢
å½© åĸľæ¬¢
ti in
ar ri
ĠÙ Ģ
Ñĭ Ð²Ð°
Ġà¹Ģà¸ŀ à¸·à¹Īà¸Ń
Å¡ Ä·
E V
Ġà¦¹ à¦ļ
ĠÐ» Ð²
ĠáĢķáĢ¼ áĢĬáĢº
ĠÑĤ ÑĥÑĢÐ¸
à¤¤ à¥įà¤°
il u
ĠÑĤÑĢÑıÐ± Ð²Ð°
æ´» åĬ¨
Ġà®ķ à®£
et to
Ġáĥ¨ áĥĿáĥłáĥĺáĥ¡
ÐµÐ½ Ñĸ
ĠT ut
Ð°ÑĨ ÑĨÐ°
áĢ±áĢ¡ áĢ¬áĢĦáĢ¹áĢ
Ġ×Ĳ ×ĸ
ĠM ass
Ġì ½ľê±¸
Ġdir en
Ġà¸Ń à¸¢
Ġl Ã©
Ġhist ori
áĢķ áĢ±áĢ«
Ġà¤ľ à¤¨
Ġac qu
åħ µ
à°Ł à±įà°²à±ģ
ors z
Ġàµ ¼
ĠÎł Î¿Î»
Ġà¤¦ à¥Ģ
en ne
áĥĶáĥĳ áĥĽáĥĲ
Ġà¸¥à¸ĩ à¸Ĺà¸°à¹Ģà¸ļà¸µà¸¢
ck er
Ġan ys
Ùĥ ÙĪÙħ
Ø² Ø¯
nie c
ĠÑĤÐ¾Ð»ÑĮ ÐºÑĸ
ĠF amil
at l
ĠØ³ Ø§Ø¹Øª
Ġk ip
Ġh ans
Ġh ali
Ġ199 4
ĠÐĵ Ð
ement o
ĠÎĳ ÏĢ
Ġdig ital
Ġk alau
áĢ±áĢĲáĢ¼ áĢĢ
ed ing
Ġåı ª
Ġkon f
ï¼ Ĵ
áĢķ áĢ±áĢ«áĢº
ĠàªŃ à«Ĥ
ĠÑģ Ð°Ð½
ĠáĢ±áĢĢáĢº áĢ¬áĢĦáĢ¹áĢ¸
æĭ¿ å¤§
æ» ¡
åĽ½ äº§
Ġà¤¹à¥ĭ à¤¤à¤¾
Ġs Ã©
Ã Į
ĠÙĪ ÙĦÙĥ
ĠØ§ÙĨ Ø³
Ġ[ [
ĠT A
Ð°Ð½ Ð½Ðµ
er im
Ã«s ht
ro c
Ġro d
Ġà¹Ģà¸ Ĥ
Ġà¸ľ à¸¹à¹ī
ĠÐĳ ÑĬÐ»Ð³Ð°ÑĢ
à®±à¯įà®ķ à¯ģ
Ġà¦ªà¦° à¦¿à¦¬
ĠÐ²Ñĭ Ñģ
á ĭ
Úĳ ÛĮ
Ã¸ j
Ġà°ļà±ĩà° ¶
áĥĲáĥł áĥĲ
ĠO F
æľ ĥ
az z
Ġ ĆĈ
áĥĶáĥĳáĥ£áĥļáĥĺ áĥĲ
Ð» ÑĸÐ²
alit Ãł
Ġà°ħ à°²
Ġr ik
Ġp up
Ø¨ Ø§
eme i
å¤ ī
ÙĪÙĦ Ø©
il ah
az iri
alam an
ĠáĥĽ áĥ¨
Ø¨ ÙĬØ±
ĠS car
ì§ Ī
Ð¸Ñĩ Ð½Ð¾
l ic
Ġl Äģ
r ÉĻ
ãģĦ ãģĦ
à§ĭ à¦¸
Ġv á»ĭ
Ġun de
à«ĩàªķ à«įàªŁ
Ð¸Ð¼ Ð°
Ġdeg li
Ġpre fer
Ġdi en
åĨ Ļ
à®¿à®±à¯įà®ķ à¯ģ
Ø³ ÙĦØ§Ùħ
Ġà¦ªà§įà¦° à¦§à¦¾à¦¨
Ġt Ã¬nh
ĠÚĪ ÛĮ
ĠÐ¼ ÐµÐº
Ġ Ïİ
ĠÐ·Ð° ÑģÑĤ
Ġk jo
m us
é ¸
q in
d on
Ġà¦Ĩ à¦ľ
Ġà¨ ¦
Ġà¦ĩ à¦ī
à°¾à°Ĥà° Ł
ÉĻd ÉĻn
Ġc áº§u
áĢķáĢ« áĢĺáĢ°áĢ¸
à§ĭ à¦§
à¦°à§įà¦ £
ĠSt yle
ĠL ou
ë¶Ģ íĦ°
Ì ī
p al
Ġàª®àª³ à«Ģ
Ġp jes
Y n
ĠÑĥ ÑĤ
Ġà¤ľ à¤¾
ĠÑĹ Ñħ
ĠÐ¤ ÑĢÐ°Ð½
Ġs and
Ġa ina
ĠÚ©Ø±Ø¯ ÙĨ
Ġf ej
ĠV in
ãģ« ãĤĤ
à±įâĢĮ à°²à±ĭ
Ġà¤¬ à¥Ī
or ta
endele a
åį ĥ
àµģà´®àµįà´ª àµĭ
ĲáĢ²áĢ· áĢ¡
Ġæ° ´
Ġ×Ķ ×ľ
Ö ¶
I H
Ùĩ ÙĪØ±
Ġk id
Ùĩ ÙĲ
Ã¡r t
ÏģÎ¯ ÎµÏĤ
w et
ih ana
ĠáĥĽ áĥª
Ð¸ÑĢ Ð°Ð½
s am
ett ing
Ġà¤ªà¥įà¤° à¤¦
Ġha e
ĠF el
à¤° à¥ĭ
ÉĻs inin
ĠÙħ Øº
áĥĲáĥł áĥĶáĥĳáĥĺáĥ¡
Ġed ib
Ġà¸Ĥ à¸Ńà¸ĩ
Ġp av
éģ İ
á Ĭ
à°Ĥà° ¬
ci os
Ġp apa
à¦¤ à§įà¦°
Ð°Ð»ÑĮ Ð½Ð¾Ð³Ð¾
ent ing
ĠáĢ¡ áĢĻ
ç Ĵ
áĢ±áĢķáĢ« áĢ·
à¸µà¹Īà¸¢ à¸§
Î® Î¼Îµ
ction s
Ġáĥ¬ áĥĶáĥļáĥ¡
Ġáĥ¨áĥĶáĥ¡ áĥĲáĥ«áĥļ
ĠB in
Ġà´ī à´£àµįà´Ł
à´ķàµįà´ķ àµĨ
Ġver b
à®µ à¯Ī
N S
v ill
ĠÙĨÛĮ Ø³Øª
ĠÑģÐµ Ð±Ðµ
ĠvÃ¤l ja
ĠTr ump
Ġà°µ à°°
áĥĶáĥ £áĥļáĥĺ
Ġ äºĨ
à°Ĥà°¦ à±ģà°ķà±ģ
Ġk ij
Î¯Î½ ÎµÏĦÎ±Î¹
or no
ew ele
×ķ ×Ļ×ķ×ª
Ð°Ð½ Ð½Ñĸ
Ġà«¨ à«¦
è§ ī
×Ĳ ×Ķ
Ġa ud
ĠE C
ÙĨ Ùī
Ġë¡ ľ
ĠéĢ ģ
Ġpam am
ÙĪ ÙĬØ©
Ġàªªà«įàª° àªµ
ĠkÃ¤ ytt
ak ar
Ê ¼
Ġà®µ à¯Īà®¤à¯įà®¤
ĠBras il
Ġàªµàª¿àª ¦
Ġb Ã¼tÃ¼n
ami i
å¸ Ń
oh en
Ġtet api
Ġk ond
à¹Ĥ à¸£
Ġqar ÅŁÄ±
ĠÙĪØ§ÙĦ Ø£
áĥĲáĥľ áĥĴ
Û° Û°
ĠJes us
ë¶ ģ
ĠÐ¼ ÑĸÑģ
ĠRad io
Ġhe ad
ĠC our
à§įà¦¯ à¦®
Ġy ung
Ġtab let
Ġth ose
Ġset iap
Ø³ Ùĩ
à´¡ àµį
ĠÎ± ÏĨ
ĠØ§Ø³ ÛĮ
Ġtip s
ĠM ens
ÏĦÎ¿ Î¹
n el
T o
ĠÐºÑĢ Ð°Ñģ
ĠÎ³ Îµ
Ø§Ø¯ Øª
ĠF ra
· ¨
à®© à¯įà®ª
yr ight
Ġì ¶ľ
Ġ10 3
à®Łà¯įà®Ł à¯ģ
et at
ÏĥÏĦÎ± ÏĥÎ·
al di
pp en
ke en
ĠÑĤÐ¾Ð»ÑĮ ÐºÐ¾
ĠH all
art s
å¾ Ģ
Ġíķ Ļ
ĠY our
à°¡ à°¾à°¨à°¿à°ķà°¿
à±ģà°¨ à±ģ
ind u
ĠA st
ĠPre mi
Ã³ ng
Ġsta bil
Ġgag we
ĠD EL
à¸ķ à¸´à¸Ķ
ĠáĥĶ áĥķáĥł
á»Ń a
à´¿à´¨ àµįâĢį
Ġ9 99
å¤§åıĳ å¿«ä¸ī
E lement
àª Ĩ
Ġt yl
áĢĶ áĢ±áĢ·
ÑĨ ÐµÐ²
Ġproj ect
ĠD ip
Î´ ÎµÎ¹
Ġè °
ĠfÃ¸r ste
ĠÐ¾Ð± Ñī
Ġk ub
ĠW ed
ĠU P
à¹Ģà¸Ħà¸£ à¸Ķà¸´à¸ķ
Ġàªķ à«ĩàª®
ĠG y
Ø² Ø©
ĠØªÙĪ Ø³Ø·
ĠJ apan
Ġr ast
Ġë³ ´ë
áĥĲáĥ£áĥ ł
Ø´ Ùħ
Ġà°ª à±Ĭ
ĠØ¬Ø§Øª Ø§
ĠáĥĿ áĥłáĥĴáĥĲáĥľ
k it
d un
ĠÙĨÙħ Ø§ÛĮ
Ġsp o
j Ã¡k
Ġe erste
Ġs og
å± Ĥ
ĠÐ¼Ð°ÑĤ ÐµÑĢÐ¸
ĠHe alth
è´ ¢
ÙĪØ± Ø³
áĢ¸áĢ ĳ
Ġå¤ ļ
Ġà´ ¨àµįà´
h es
ÑĬ Ð½
Ġp irm
qi q
ĠÂ ¦
ĠáĥĲáĥ ĺ
ĠÎµÎº ÎµÎ¯
Ġi ar
Ġìĸ ´
Ġj al
ol le
Ð¾ÑĢ Ð¾
ÙĪ Ø§Ø¹
Ġà¸ģ à¹ĩ
Ġde ÄŁ
ÑįÐ½ ÑĤ
Ġal iment
ĠB lan
ìĿ´ ëĿ¼
Ø¨ Ø¹
ib t
Ġà®® à®¿à®ķ
Ġs Ã³n
à¸Ļà¸ ¢
ÑĢ ÑĪ
Ġar b
ÏĦ Î¿ÏħÏģÎ³
ĠÎ´ ÏħÎ½Î±
Ġbil ÉĻr
ĠÑĤÐµÐ» ÐµÑĦ
ãģ£ãģ¦ ãģĦãĤĭ
ĠÚ¯ ÙĪ
Ġ4 50
ok oa
el ete
dr ess
Ġm ich
Ġáĥ¡áĥĲáĥ Ĵ
Ġàª¬ àª¨à«Ģ
à°° à°£
Ðķ Ðł
áĥĲáĥ« áĥĶ
à´¾ àµ½
Ð´ Ð°Ð²
Ġin di
Ġà¦ı à¦ĸà¦¨
Ġsit es
Ġs esu
Ú© ÙĪ
Ø¶ Ø§Ø¡
ĠãĢı ãĢİ
ĠáĥĲáĥ £áĥ
Ġn eng
Ġàª¸à«Į àª¥à«Ģ
Ġr Ã©sz
Ġj ard
us sa
ĠáĥĻ áĥļ
Ġu0 9
Ġmar rÃ«
Ġk ong
ĠPar ti
ĠáĥŀáĥĿáĥļ áĥĺáĥ¢
ĠÎ¹ ÏĥÏĦÎ¿
Ùİ Ø¨
ĠGo od
à¸Ńà¸²à¸« à¸²à¸£
ĠáĥĲáĥ Ļ
ĠÙĬ Ø§
ĠÐ¿Ð¾Ð² ÐµÑľÐµ
ĠMas ter
Ġar d
ĠÐļ Ð¾ÑĢ
m ente
Ġà¤¸à¤° à¤ķà¤¾à¤°
ĠÐĲ ÐºÐ¾
à®¾à® ªà¯įà®ª
Ġà´ª à´¿à´¨àµįà´¨
Ġà¤²à¥ĩ à¤ķà¤¿à¤¨
Ġint ens
×Ĺ ×ķ×ª
ĠÐŀ Ð¿
Ġk umu
Ġd ut
æł ¸
Îº ÎµÎ¹
ĠÐ¿ÑĢ Ð¸Ñģ
ç½ Ĺ
Ġà´® à´²
áĢ±áĢ¸áĢ Ļ
Ġà¤Ĩ à¤¯
de x
Ñģ ÐµÐ´
Ð» Ð¾Ð¼
Ġ×© ×Ľ
ĠÃ© tÃ©
at te
Ġà®® à®ķ
N D
Ġàªľ àªµ
Ġèī ²
ĠÚ© Ø§ÙĨ
ĠÑģ Ð¾ÑģÑĤ
ĠB ack
Ġu ur
Ġë Ī
Ġà´ª à´¿
ĠÐĵ ÑĢ
Ġs ci
Ġel le
ĠS ed
Ã³ Å¼
ĵ ľ
Ġà´ķ àµĨ
Ġ×ŀ× ĸ
Ġpu ede
Ġp Å¯j
ĠC ab
art u
Ġol ish
Ġka Å¾d
ĠF ort
ĠA A
Ġà® Ĳ
ĠìĹ Ń
Ġà®ķ à¯ģà®´
Ġà¤¬ à¤¾à¤¤
ĠØ®Ø¯Ùħ Ø§Øª
Ġk Ã¶v
ĠK em
Ġà®ħà®µ à®°à¯į
Ùĩ Ùı
ate Ä¾
ĠÙģØ¹ Ø§ÙĦ
éľĢ è¦ģ
à±ģà°Ĥà° ¡à°¾
Ġáĥĺáĥľáĥ¤ áĥĿáĥłáĥĽ
à«įàª¯ àª¾àª°
Ġà¤¦ à¤¿à¤¨
Ġë° Ľ
ĠSex o
Ġdal la
Ġd um
ÑĸÐ»ÑĮ ÑĪ
ĠÛģ ÙħØ§Ø±
AL A
ĠÙħ Ø¶
ç§ ¯
av y
ĠCol or
Ñı ÑĤÐ°
us us
ji em
ĠÎ ĸ
Ġt áº¡o
ĠÐºÐ¾Ð½ ÑĤ
Ġt ego
Ñĸ Ñŀ
ĠÒ³Ð¸Ñģ Ð¾Ð±
Ġm Å¯
áĢ±áĢĽ áĢ¬áĢĢáĢ¹áĢ
id el
Ġà¦Ń à¦¾à¦²
ĠIn i
åİĨ åı²
el em
Ġé ¢
Ġta x
ĠM ess
à¸Ĺ à¸£
Ġin ner
Ġàª¤àª® àª¨à«ĩ
Ê»o e
ĠÙĩÙħ Ùĩ
ĠT ari
Ġcil vÄĵ
Ġh ÉĻ
Ġà¦¸ à§įà¦¥
ĠÎ¼ ÏĢ
Ġwh ile
ĠÑģ Ð°Ð»
Ġab i
à¦Ń à¦¾à¦¬à§ĩ
ac o
ĠtÉĻr ÉĻf
áĥĲáĥł áĥĶáĥĿáĥĳ
al ity
Ġà¦¸ à§ģ
Ġre kl
åĲĪ ä½ľ
ab ol
Ġà¦¦ à¦²
Ġw rit
à¸ª à¸°
à«Ĥ àªŁ
à¤°à¥įà¤ £
Âµ ÃĦ
ke it
ĠÐº Ð°ÑĢÑĤ
Ġtom on
_ s
Ġçİ ĭ
ĠL ang
Ġè ²
Ġà®ħà®µ à®°
Ġà®ħ à®³
Ġv Ã©
Ġj on
ä¿¡ èªī
áĥ£áĥł áĥĺáĥ¡
ĠÐ¡Ðº Ð¾Ð¿
ãĥ ľ
Ġt so
è´ §
Ø´ Ùĩ
Ġlah at
o q
ah al
Ġà´µà´¿à´ ¶
ĠT P
ĠÐľ Ð¾ÑģÐº
ĠÐ± Ð°Ð·
Ġb oh
ne a
åĪĨéĴŁ å¿«ä¸ī
ãĥ ļ
Ġáĥª áĥ®áĥĿáĥķáĥł
Ġv om
è§ Ĵ
ĠÐ½ Ð°ÑĤ
ĠØ¢ ÙĩÙĨÚ¯
la va
ĠáĢģ áĢ»
Ġà¸« à¸Ļ
é¦ Ĩ
à´¨àµįà´¦ àµįà´°
Ġàª®à«ĩàª ³
Ġh apa
à¸²à¸ ļ
ÏĦ ÎµÎ¹
±áĢ ļáĢ¬áĢĢáĢ¹áĢ
ĠÐµÐ´ ÐµÐ½
ÅĪ a
ĠvÃµ ib
ĠSl oven
à¸± à¸¡
Ø¯ Ùģ
Ïģ ÏīÎ½
UN G
àª¤ à«ģàªĤ
ĠØ§ÙĦÙħ ÙĤ
O A
Ġê ´ĳ
á»Ĺ i
à°¾à°² à±įà°²à±ĭ
ÙĦÙĬ ÙĦ
ĠD ok
Ġà´¨ àµĢ
Ġg eld
Ã¶ Ã¶
Ġàª§ àª°
Î¶ Î¯
à¹Ģà¸ ¨
Ġì ½Ķ
ĠÙĪØ¬ Ûģ
ĠÃ´ ng
ÏģÎ¿ ÏįÎ½
Ġesp ecial
il ing
al aki
ĠS ala
áĢĢ áĢ°
ĠÑĪ Ð¸ÑĢ
Î»Î· ÏĤ
à§Ģ à¦¦à§ĩà¦°
B C
Ġaug ust
ĠR M
at kan
Ġtam Ã©n
Ã©m u
Ġqu áº£
Øº Ø§ÙĨ
Ġen contr
Ä ŀ
ĠáĥĽ áĥĲáĥłáĥ¢
ĠÄĥ n
Ġs ud
gb áº¹
Îķ ÎĿ
ĠCOM å½©åĸľæ¬¢
áĥĲáĥĵ áĥĲáĥ¡
Ð¸Ð½ Ñĭ
áĤı áģµ
Ġal u
ĠL ak
ĠÐ¾ Ñħ
ĠU TC
Ġf all
ì¸ ł
à¦¿à¦ ĵ
Ġ10 6
æİ ¢
åĪ ¤
Ġs iden
ĠRo ad
ĠO L
áĢķáĢ¼ áĢ¯
ent en
ib áº¹
à§Ģ à¦¤
ĠÏħÏĢ ÏĮ
it Äģ
ĠÙĥØ§ÙĨ Øª
Ġinc lus
Ġus ing
áĢĦáĢ¹áĢ ĺ
Ð»Ð°Ð½ Ð³Ð°Ð½
Ġà¦Ĩ à¦¹
Ġàªµ àªĸàª¤
Ø§ÙĦ Ùĩ
Ð°Ðº Ð¾
mer o
ĠÙĦÙĪÚ¯ ÙĪÚº
ament os
Ġw áº¹
Ġà®ı à®±à¯įà®ª
Ġkom ple
Ġ199 1
ì ´Ī
à¤¾à¤ «
Ð¾ÑĢ Ð¸Ð¸
Ġà®ī à®¯
ĠÎ² Î¬
ĠÐ¿ ÐµÑĪ
Ġhid up
ĠL ine
íĺ Ħ
ent os
ĠØ² Ø¨Ø§ÙĨ
Ġb ob
é¡ Į
áĢĤ áģ¤
Ġà¹ĥà¸« à¹ī
Ø® Ø¯Ùħ
ĠÃ ĳ
á»ĵ n
à«ģàª ¶
ĠAl s
à®µ à®¿à®²à¯įà®²à¯Ī
Ġàªķ àª®
Ġsel ected
ĠN ow
ĠáĢŀáĢ° áĤĶ
àª¾àª ·à«įàªŁ
ĠÐº ÑĥÑĢ
ÑĢ Ð°ÑģÑĤ
¯ à§
Ã©s ek
ĠØ£ÙĨ Ùĩ
ĠÐ¡ Ð°Ð¼
bo ard
é¢Ħ æµĭ
Z W
Ġà¸¥à¸ĩà¸Ĺà¸°à¹Ģà¸ļà¸µà¸¢ à¸Ļà¸Łà¸£à¸µ
Ġc ard
àª¹ à«ĩàª°
Ġtut ti
Ġdis k
à±ģà°Ĺ à±ģ
à¥įà¤¯ à¥Ĥ
e an
ĠÑĢ ÐµÐ¶
Ġserv ices
Ä± cÄ±
ĠØ± Ùħ
ĠMus ic
ro duc
ĠåĽ Ľ
à´ķàµįà´ķ àµģà´Ĥ
Ð¸ÑĤ ÑģÑı
Ġæ Ł
Ġà°® à°¾à°Ł
Ð» ÐµÐº
Ġè Ĭ
ĠØ¢ Ø¦ÛĮ
Ġà¸Ī à¸°
Ġm ungkin
à«Ī àª¯
II I
ĠÏĮ Î»Î±
Ġmod o
ĠS L
h ttp
ĠG ab
Ġmen se
à®® à¯ģà®®à¯į
ĠOn s
Ġiy ong
à¹Īà¸§ à¸¡
çº ª
ãĤĮ ãģŁ
à«į âĢį
Ġíķ ¨
à´ķ à´³àµįâĢį
lÄ± ÄŁ
Ġì² Ń
ĠØª ÛĮ
est Ã¤
ĠÐ Ļ
Ġkuf anya
ĠMin ister
à¸ĸ à¸·à¸Ń
Ġcent r
Ġc es
ĠT ah
á»« a
ĠolduÄŁ u
Ĺ à¸²à¸ĩ
1 20
ĠÐĽ Ñİ
Ġle p
Ġà¸ªà¹Īà¸ĩ à¹Ģà¸ĩà¸´à¸Ļà¸ļà¸²à¸Ĺà¹Ħà¸Ĺà¸¢
à«ĭ àªĤàªļ
it ia
à¦¾à¦ ¡
Ä±l masÄ±
inÄģ j
ĠÐ´ Ð·Ðµ
ĠÃ¤ n
Ġ×ĳ ×¦
ĠF L
×Ļ× £
ĠØ¨Ø¯ ÙĪÙĨ
Ġc od
à¸± à¸¥
Ġà¦° à¦¾à¦ĸ
à°® à±ģ
ĠMar c
bar u
ĠáĢľ áĢ¬
Ġmem ang
ant en
ĠáĢĽ áĢ¾áĢŃ
z ek
Ġmil li
Ã³ c
v Ã¦r
à´¿à´¯ àµĨ
Ã¸ k
h ou
à«Ģàª ļ
ÐµÐ· Ð¸
± áĤı
Ġà¹Ĥà¸Ľà¸£ à¹Ĥà¸¡à¸Ĭà¸±à¹Īà¸Ļ
na ewele
**** ****
ĠÎºÎ±Î¸ ÏİÏĤ
Ġà®¨ à®¾à®Ł
Ġd ess
as u
amb il
Ġb áº£n
ìľ ¡
áĥ£áĥłáĥ Ĺ
Ù¹ Ø±ÛĮ
×ŀ× Ĳ
ÐµÐ½ Ð³
åĸ Ħ
n em
ĠÐļ Ð°ÑĤ
Ġà¹Ģ à¸£
Ġhu u
ol ah
ene an
ĠÑĥ Ð±
à· ı
at y
æ¿ Ģ
à¥ģ à¤µ
Ġà¦¦ à¦¿à§Łà§ĩ
ers h
Ġto o
æ¥ ½
Ġà¦® à¦¾à¦°
Ġj uni
Ġn ova
áĥĺáĥĻ áĥĺáĥ¡
Î»ÎµÏħ ÏĦÎ±
ĠìĦľ ìļ¸
ĠáĢĢáģ½ áĢ¼áĢĶáĢ¹áĢ
Ġàª¤à«ĩàª® àª¨àª¾
Ġà¤ľ à¤¾à¤¨
Ġpr iser
Ð°Ñģ ÑĨÑĸ
ĠáĥĶ áĥł
Ġtil b
æŃ ¦
åī ¯
×¨ ×ĵ
ov anie
at ok
Ġgi Ãºp
éĵ ģ
Ġtamb i
áĢĢáĢ¼ áĢ±áĢ¬áĢĦáĢ·áĢº
ĠØ§ÙĦ Ø¢
ĠØ§Ø ¸
Ġàª® à«ģàªĸ
Ġbet ween
à±Ĩ à°¨
ru ar
ç½ĳ ç»ľ
åĿ Ľ
Ð¸ ÑģÐº
ÉĻl ÉĻri
Â ¹
áĢ¡ áĢ¬áĢ¸
iy alar
Ġà¤ħ à¤¬
ĠÐ° Ð¿ÑĢ
ĠP ul
ĠD un
ä¸į æĺ¯
ÑĨÐ¸ Ð¾Ð½
ĠL ove
ĠÄĳ o
ĠáĢ¡ áĢĲ
Ġà´İ à´¨àµįà´¤
ãģĭ ãģª
ĠØ§ÙĨ Ø³Ø§ÙĨ
áĢĸáĢ¼ áĢ²áĤķ
k g
ÙĬÙĦ Ø©
±áĢ ĳáĢ¬áĢĦáĢ¹áĢ
ħ áĢ¯
ĠM Ã¡
Ġ10 7
ĠÑģÑĤÑĢ Ð°Ð½Ð¸
ĠÐµ ÑĦ
Ġwak tu
åŁ ¹
Ġàª¤ àª°à«Ģ
Ġres erv
ĠS iz
Ġc ena
à´¦ àµįà´¯
ÄģÊ» ani
Ġing in
Ġ7 50
Î¾ ÎµÎ¹
ĠEn d
Ġblog spot
ĠO y
Ã¬ m
à±ĭ à°Ĥà°¦à°¿
à´¿à´Ł àµĨ
ÎĳÎ Ľ
Ġer abil
Â ¿
Ġë¬ ´ë
Ġr ing
Ġob lig
Ġo vers
à¹Ģà¸¥ à¹Īà¸Ļà¸
Ð² Ñĭ
ĠàªĽ à«ģàªĤ
Ġn na
ĠØ£ Ùģ
Ùģ Ø©
ĠÙĦ ÛĴ
ĠØ¯Ø§ÙĨØ´ Ú¯Ø§Ùĩ
ĠV y
Ã¡l t
ĠØªØ¹Ø¯ Ø§Ø¯
Ġc un
Ø· ØŃ
Ġ×ĳ ×ŀ
Ġ10 9
Ġprin ci
Ġà´İ à´²àµįà´²
Ġà°ªà±įà°°à°Ń à±ģà°¤à±įà°µ
çµ Ĳ
Äį ek
ĠÎ» ÏĮÎ³
ÐºÐ¾ Ñŀ
Ġàªªàª¾àª Ľ
Ġpre m
Ġh ati
ĠS ul
ai x
Ġse hr
Ð¼Ð¾ÒĽ Ð´Ð°
Ġmot ho
Ġk asi
åħ ¸
Ġà°ħ à°¦
Ġinn ov
Ġ[ "
à´¸ àµįâĢĮ
ĠÏĥÏħ Î³
áĢ¬áĢ¸áĢħ áĢ¯
Ø® Ø¯Ø§Ùħ
as ed
ê» ĺ
áĢ±áĢĺ áĢ¬
Ġd á»ĭch
ĠÐ· Ð½Ð°
à¤® à¥ĩà¤Ĥ
Ã¼n d
Ð¿ ÐµÑĩ
irs iniz
AS T
Ïĩ ÏģÎ¹
Ġà®ĩ à®²
ĠMod el
à¥ ¦
Ġà¦Ĩà¦® à¦°à¦¾
Ġcom mer
ĠR ub
Ð½Ð¾ÑģÑĤ Ð°
ĠØ±ÙĪ Ø´
ĠÃ Į
Ġ, +
Ġres pon
Ġh old
à¤Ĥ à¤ª
Ð°Ð½ Ð¾Ð²
Ã¤n d
Ġbel ang
à±Ĩ à°ķ
à¦¿à¦ Ĺ
jo y
àµĨà´Ł àµģà´¤àµįà´¤
ĠU RL
Ġ Ã¡r
Ġof er
ÙĨ ÙĬÙĨ
ĠáĥĲáĥ¦ áĥĽ
à« ¨
Ð¾Ð» Ð½Ð¸
ĠFran cis
U I
Ġnov ember
à¹Ģà¸¡ à¸·à¹Īà¸Ń
à´¿à´²àµĩ à´ķàµįà´ķàµį
à¦¿à¦¨ à§įà¦¨
ÑĢ Ð°ÑĪ
Ġ11 1
à¥ĩ à¤¨
ayot gan
áĢĲáĢ¬ áĢķáĢ«
áĢĲáĢ¬ áĢĢáĢŃáĢ¯
Ø³ Ù¾
Äį en
ĠK ong
Ġà¸Ĺ à¸³
éª Ĺ
Î¸ Ïħ
àµģà´ķ àµ¾
Ġà®µà®¿à® ³
ĠI st
à¤ķà¥įà¤ ¸
Ġà¤® à¤¨
Ġà¤¥ à¥ĩ
ĠáĢĢáĢºáĢ±áĢĶ áĢ¬áĢ¹áĢ
ĠÏĨ Ïī
Ġpr Ã©
Ġb ashk
Ļàµįà´ ķ
Ġrom an
à«ĩàª¸ à«įàªŁ
Ġj un
à¦¾à¦¥ à§ĩ
ĠÐ¿ÑĢ ÐµÐ²
Ġnt le
ru c
ĠàªĨàªª à«Ģ
Ð½ ÑĥÑĤ
ĠáĢŀ áĢ¶
Ġàªª à«ģ
×Ĺ ×ĵ
ĠØ¹ Ø¨
Ġx alq
Ġpag b
ĠhoÊ»oh ana
ĠTe am
ĠA gen
ÑĢÐ¾ ÑĪ
èĳ Ĺ
áĢŃáĢ¯ áĢĢáĢ¹
à¹Ħà¸Ķà¹ī à¸£à¸±à¸ļ
àµ º
Ã¸ y
Ġà°¨ à±Ģ
Ġà®®à¯ĩ à®²
Ġan tes
åķĨ åĵģ
à´° à´£
Ð°Ð» Ð°Ð²
al ui
ĠÎ½ Îµ
Ġpr omo
k Ã¡
ĠÑĤÐ°Ðº ÑģÐ°Ð¼Ð°
ĠÐ² Ð¸Ð·
ĠP ero
áĥĿáĥļ áĥĿáĥĴ
Ġm ÉĻh
Ġk aya
áĥľ áĥĺ
Ġáģ Ī
ĠÐŁ Ð°ÑĢ
Ġl ets
àª° àª¾
à¦² à§įà¦ª
Ġp ek
Ø¬ Ø§Øª
Ġde di
Ñį ÑĤÐ°
Å¾ u
Ġb g
ĠT em
ĠM ig
Ñĥ ÑĤÐ¸
v ek
Ġti ene
å®¢æĪ·ç«¯ ä¸ĭè½½
ĠÐł Òĳ
ĠÐ¿Ð» Ð°ÑĤ
ĠÅĽ wi
çļĦ ä¸Ģ
Ġà®ļ à¯ĩà®°
ĠÐ½Ð°Ñĩ Ð¸Ð½
Ġs ÃŃ
Ġon un
íĮ Ĳ
Ġ×ŀ× ĺ
Ġfo od
ĠÙĦÙĦ Øª
à°¿à°¨ à±įà°¨
àª°à«įàª ľ
ks om
Ġàªľ àª®
Ġhor as
ĠØ§Ø¬ ØªÙħØ§Ø¹
ĠW all
èµĦ æºĲ
Ġtar get
Ġà¤ķà¤° à¤¤à¥ĩ
à«ĩàª¤ àª¾
ÑįÐ½ Ð½Ñı
Ġszer int
ĠÏĦ ÏģÏĮ
ĠF ut
Ġa er
á»Ļ ng
àªĤàª ¬
Ġ×Ľ ×ĵ×Ļ
ĠÙ¾Ø± Ø¯
ĠÒĽ Ð¾Ð»
Ġc ity
à¤ ģ
ĠÙĨ Ø³Ø¨
Ġinter pr
Î¸Îµ ÏĥÎ·
ç¼ ĸ
ow ego
Ġ ÉĻn
l Ã¡n
Ġáĥ§áĥķáĥĶáĥļ áĥĲáĥĸáĥĶ
ç§ĳ æĬĢ
à«Ģàª Ŀ
ati i
Ġí Ŀ
Ġk if
ĠRed ir
Ġtre bu
àª ĺ
à¤Ĥ à¤ķ
à°° à°¿à°ķ
çĻ» éĻĨ
ÙĨ Ø§Ø¡
Ã¸ g
Ġing en
Ġindiv id
Ð¾Ðº Ð¸
Ġl or
Ġrec ord
ĠkÄģ lÄģ
áģ¾áĢĢ áĢĬáĢ¹áĢ·
´ Ŀ
ê° Ĳ
Ġà¦ľ à¦¾à¦¤
æĭ ħ
Ġà¦¤ à¦¾
Ġà¤° à¥Ĥà¤ª
ĠØ¨ÛĮØ´ ØªØ±
×¨ ×Ĺ
n ice
lar e
g ens
Ġu v
Ð°Ð¶ Ð°
Ġáĥ¨áĥĶáĥ ®
ut z
un akan
ĠâĻ ¥
à¯ģà®ķ à®¿à®©à¯įà®±
ĠÐ½Ðµ Ð¿
Îº ÏģÎ±
n ad
bu ah
Ġg ul
ĠL eh
à®Ļà¯įà®ķà®³ à¯Ī
Ġsing le
ĠØ¯ Ú¾
áĢ®áĢ¸áĢ Ľ
Ġà¸ ł
ĠÐ½ Ð¾ÑĢÐ¼
ĠÏĥÏħ Î¼Î²
ĠÃ¶ ÄŁ
ab ila
ĠìľĦ íķ´
Ġà¦¤ à¦¬à§ĩ
ĠØ®ÙĪ Ø§ÙĩØ¯
è® ²
Ġàª² àªĸ
à¸²à¸ Ń
m ist
áĢĻáĢ¾ áĢĲáĢº
ĠÑģ Ð°Ðº
Ġk Ã©sz
Ġfun cion
Ġ- >
on da
ĠÑģÑĤ ÑĢÑĥ
Ġproduk t
Ġcent ro
ĠC are
Ġà¤ķà¤° à¤£
Ġpros es
ë¦ ½
ĠáĢŀ áĢ¼áĢ¬áĢ¸áĢ
Ġsen se
Ġalb um
ĠIs land
ëł ¹
à¹Ģà¸ģ à¸¡
Ø³Øª Ø§ÙĨÛĮ
Æ° u
Ġà¦ķà¦¾à¦° à¦£
Ġin forma
Ġsl ot
×¢ ×Ļ×Ŀ
Ġo ts
Ñı Ð¶
Ġà®ª à¯ģà®¤
ÙħÛĮ Øª
Ġal isema
Ġdet ermin
Ġabe uk
Ġ199 3
Ġf en
à¦¿à¦ ĸ
Ñģ Ð¸Ð¸
ĠCat eg
áĥĽ áĥĺ
à®µ à®°
ik ai
ĠÐ·Ð´ ÑĢÐ°Ð²
Ġm ing
ap ter
ĠÐ± Ð»Ð°Ð³
à¦¨à§įà¦ ¨
Ġtambi Ã©n
±áĢ Ļ
Ġmont h
áĥĵ áĥĶ
à®® à¯įà®®
æĸ¹ éĿ¢
Ġoli b
Ġh lav
Ġak oko
va il
ĠmÃª me
à®¨à¯įà®¤ à¯ģ
æĥ ł
Ġstat us
Ġ3 000
ÐµÐ½ Ð°ÑĤÐ°
å¦Ĥ ä½ķ
Ïĥ Î¿ÏħÎ¼Îµ
à«įàª ŀ
ĠçĽ ¸
è® Ń
ari an
à¤¿à¤ ¦
ĠÄĳ áº¹p
it Ã«
ĠØ± Ø¦ÙĬØ³
ĠE ti
à§Ģ à¦Ĺ
Ñĳ ÑĤ
Ñ Ł
Ġtwe e
Ġhan no
Ñģ Ð¸Ð·
Ġàªªàª¹ à«ĭàªĤàªļ
ØŃØ¯ Ø©
is oa
åħ °
th ing
ol et
Ġya o
à¸Ħ à¸³
ĠÐłÐµÑģÐ¿ÑĥÐ±Ð»Ð¸Ðº Ð°ÑģÐ¸
Ġtrav Ã©s
at re
ĠáĥĽ áĥľáĥĺáĥ¨áĥķáĥľáĥĶáĥļ
ĠM and
ĠL ed
à¹ĥà¸Ĭà¹ī à¸Łà¸£à¸µ
ĠS ER
×© ×Ļ
àµĢ à´¸àµį
Ġform at
à¸±à¸Ļà¸ Ĺ
Ġb ac
Ã«r Ã«
eku wa
Ġáĥ§áĥĿáĥķ áĥĶáĥļ
ĠÑģ ÑĥÐ¿
Ġc andid
áĢĶáĢ¹áĢĢ áĢ¯
r Ã¡s
Ġplat form
Ġb ran
ĠH at
ĠH ard
Ġser ie
w ing
enn is
ĠÙĪÙĩ ÙĪ
Ġh á»ĩ
Ð¾Ð½ Ðµ
Ġà¦¸ à§ĩà¦ĩ
å ĺ
áĥĲáĥľ áĥĺáĥĲ
emp o
Ġph áº§n
Ġb ile
ÙĴ ÙĨ
ĠMa ar
Ģ ìĿ´
à¯ģà® Ļà¯įà®ķ
à¦¾à¦¨ à¦¾
ĠD alam
Ø² Ùħ
ĠÎ³ Î½Ïī
Ġàªħàª¥ àªµàª¾
Ġàª¤àª°à«Ģ àªķà«ĩ
Ġu003 e
à¯įà®¨à¯įà®¤ à¯ģ
ĠØª Ø¨Ø¯
Ġmill ion
Ġm ond
Ð¾Ð¼ Ð¸
ĠV I
ĠØµ Ø¯
ç» ĩ
pá»į lá»į
Ġex plic
ÐĲ ÐĶ
er at
æĹł çłģ
Ġà¦¶ à§ģà¦°à§ģ
ĠØµ Ø¯Ø±
Ġth Ã¡ng
Ġob ra
áĢ³ áĢķáĢ¹
g ia
Ġf ire
ÃŁ e
åł´ åĲĪ
ÏĢ Î¹Ïĥ
am et
ĠKosov Ã«s
ĠÐ½ ÐµÑĢ
tif ul
à¤¾à¤Ĥ à¤¨à¤¾
ob r
ÙĦØ³ Ø·
ed r
ĠProf ess
áĢ¥áĢ¹áĢ ¸
Õ¡Õ £
Ïĥ Î¼Î±
qt is
Ġà®¤ à®°
Ġsi fat
ĠIn tel
Ġà¦ķ à§ĩà¦¨
ĠÙĦ ÙĥÙĨ
Ġà¤° à¤¹à¥Ģ
ĠFran k
ĠÙħ Ú¯Ø±
Ġbet 365
¹ àª¿àª¤
w el
ĠÐ¾Ð± ÑĬ
ĠSt ock
áĢŀ áĢĻ
àª¾àª·à«įàªŁ à«įàª°
Ðŀ Ðł
ĠC la
Ġtash kil
à¥įà¤¯ à¤¾à¤¸
Ùİ Ø¹
íİ ¸
æĸ Ĺ
ks Ã¥
Ð¾Ð± Ñī
ÄŁ ini
ĠÃ¼ le
Ġà¦ªà¦° à§įà¦¯
âĢ ĵ
Ġt ang
Ø³Øª Ùħ
ÑĮ Ð²
F C
ĠÙĤ Ø§Ø¨ÙĦ
éŁ ©
Ġàªħàª® à«ĩ
à¦¿à¦ ı
ëĭ¤ ëĬĶ
Î» ÏĮ
ĠÑĩ Ð¸
ĠÐĲ Ñģ
é §
à®µ à®°à¯į
ĠÎºÏĮ Ïĥ
Ġb ohl
ĠV id
ilm ÉĻsi
ĠÑĤÐµÑħ Ð½Ð¾Ð»Ð¾Ð³
ĠM K
Ġ×ĳ ×ĺ
ĠÐ¶ ÐµÐ»
Ġe j
Ġsm all
ĠT un
ela in
Ġjo alo
Î³ Î·
ĠÚ¯ ÙĪØ´
à§ģà¦ §
up i
Ġáĥŀáĥł áĥĿáĥª
ĠÎŃ Îº
ĠDire ctor
Ä¾ ad
ur al
abil ir
Ġrem ove
ĠTH E
ĠB eg
Ġà°ªà±Ĩ à°Łà±įà°Ł
Ġà¤ķ à¥įà¤¯à¤¾
Ġvair Äģk
à§Ł à§ĩà¦°
et et
ĠØ¨ ÙĨÛĮ
ĠÑĪ ÐºÐ¾Ð»
Ġq al
Ġpos ta
Ġà¸Ĺà¸Ķà¸¥à¸Ńà¸ĩ à¹ĥà¸Ĭà¹īà¸Łà¸£à¸µ
Ġà´¨ à´¿
Ġw enn
Ġse buah
å¥ ¹
ÙĪÙĦ ÛĮ
Ġà®® à®¾à®¤
Ġam bao
ç ĩ
ĠáĥĴáĥĲáĥľ áĥĽ
Ġàªľà«ĭàªĪ àªı
Ø¹ÙĦ ÙĤ
Ø§Ø± ÛĴ
Ġm ida
Ġg raf
à¸´ à¸¥
an ces
áĢĻ áĢŃáĢ¯
pl ica
f und
ĠæĽ ´
Ġå §
à¸£à¸ĩ à¹ģ
Ø§Ø³ Ùħ
on de
ì£¼ ì¶ľìŀ¥
Ġd Ã¥
ê² ł
Ġé ©
ĠÑĢ Ð°ÑģÑĤ
ĠÎĳ ÏĢÏĮ
ĠÎ£ ÏħÎ½
Ġve ya
Ġhas ta
áĢ°áĢ¸áĢ ľ
ail y
æĻĤ éĸĵ
Ġà¦¹ à¦¿à¦¸
ĠDig ital
èµ ļ
ĠÑħ Ð¾Ð´
ĠÙĦ Ùĥ
ĠØ£ Ø®
Ġl el
Ġi ho
Ġh ÉĻy
ĠL ife
å· ®
ĠáĥĲáĥĵáĥĴ áĥĺáĥļ
à¦¾à¦ ī
t n
ĠØŃØ¶ ÙĪØ±
ĠÎ¿ÏĢÎ¿ Î¯Î¿
Ġtan pa
åĨħ å®¹
ĠÐĹ Ð°Ð¿
ë² Ī
Ãºs ica
Ġ Äģr
áģ ¶
à´¯ àµĨ
ÙĩâĢĮ Ø§ÛĮ
Ġå¤ ĸ
Ġà´ª àµģà´±
à±ģà°² à°ķà±ģ
Ġà¸Ħ à¸§à¸²à¸¡
Ġa round
ĠJ uan
Ġåį ģ
ĠÙģ Ø¶
Ġol ur
à´ķ à´¾à´°
ĠáĥĲáĥłáĥ ª
ar at
Ġ×© ×§
ĠR ay
ĠØª Ø·
ĠT hi
ok ol
ķàµįà´ ·
ĠáĢĽ áĢ¬
Ġal Ä±n
Ã¦ nd
èı ľ
Î» Î¹Î±
ĠáĥĽáĥĿáĥ ¥
Ġdi pl
ak Ä±
ĠÙħ Ø¨Ø§Ø±
Ð°Ð¹ ÑĤ
ãģ£ ãģ¨
er ie
Ġneg ara
ĠÙ¾ÛĮØ¯ Ø§
à®Ł à¯įà®ļ
ĠpÃ¤ iv
ĠÎ±Î½ ÏĦÎ¯
Ġsp re
ĠØ¯ÙĪØ± Ø§ÙĨ
fa q
åİ Ĥ
A n
Ġàªīàªª àª¯à«ĭàªĹ
Ġseh ingga
Ġinst r
Ġf ie
ĠP ir
áĢĿ áĢ«
Ġà¦ı à¦²
ĠÐĿ Ð°Ð¿
Ġoc ksÃ¥
Ġak t
åĿ ĩ
H D
Ġparti ci
Ġi me
ĠM am
éķ ĩ
à¤¾à¤ ³
er ek
Ġkar ÅŁÄ±
Ø¹ Ø§Øª
ĠÑĩÐµÑĢ ÐµÐ·
ĠÐĵ ÐµÑĢ
àª¾àª «
×Ļ×¢ ×Ķ
h ai
Ð½ÐµÑĢ Ð³
Ġsec tor
Ð¾Ð»ÑĮÐ· Ð¾Ð²
opp ing
Ġza Äį
à¥ ħ
ÄĻ dzie
A ll
ĠØ± Ø¶
±áĢķ áģļ
ak oso
ĠáĢ §
ĠÐ Ħ
Ġï º
ĠD R
áĥ£áĥł áĥĲáĥĵ
à°¾à°Ł à±ģ
Ġh ub
Ġàª¸ à«ģàª°
ĠC in
Äį e
io a
id et
ĠC A
k ent
Ø§ÙĤ ÛĮ
ĠRes ort
åĩ ¡
ĠÐ´ ÑĥÑĪ
Ġdi per
i as
Ġz ad
Ġfun c
à®µ à®°à¯įà®ķà®³
T ube
Ġb Ã½
Ġàªħ àª¸
Ð¶ ÐµÐ½Ð½Ñı
Ġn jer
Ġdan n
Þ ¦
Ñĸ Ñİ
Ġà¦® à§ģ
Ġhac er
áĢģáĢº áĢĦáĢ¹áĢ¸
à¹Ģà¸« à¸¥
à¯Īà® ®
Ã§ ar
ri ch
ĠThe y
ä¾ Ĩ
Ġs ala
æī ¾
Î¼ Î¯
b c
Ġå¤§åıĳ å¿«3
ĠÐĿ Ð¸Ðº
ĠZ i
à¥ ¤
ĠÐ¼Ð¾Ð¶ ÐµÑĤÐµ
Ġl uk
à¸²à¸ °
ĠÏĥÏħÎ½ Îµ
Ġsus o
ÙĪØ¯ ÛĮ
Ø² Ø§ÙĨ
ĠÐ³ÑĢ Ð°Ð¼
Ġkeh idupan
Ø¬ Ø§Ø¯
ik it
Ġà´ĩ à´Ł
Ġaus si
â Ĺ
M P
ĠáĢĢáĢ» áĢ½áĢĶáĢº
ĠÐ°Ð´ Ð·
áĥĲáĥ¡ áĥĹáĥĲáĥľ
ĠÙħÛĮâĢĮ Ø´ÙĪØ¯
à°¾à°° à°¾
Î½ Ïİ
»áĢķ áĢĬáĢ¹áĢ
at in
Ġàª¥ à«ĭàª¡
ĠÐ¼Ð°Ð³ Ð°Ð·
Ġ21 0
ĠJ uni
Ġ ÉĻl
áĢĲáĢŃ áĢļ
à¸Ĭ à¹Īà¸§à¸¢
Ġáĥ¡ áĥĻ
ĠJ uli
ĠC V
mal ink
Ġmp 3
et ter
áĥĲáĥľ áĥĲ
ig ing
Ġb all
os ter
Ġn is
ĠK y
ĠDes c
Ġel ev
4 00
Ġàªªà«ĭàª¤ àª¾àª¨à«Ģ
Ġà ¬
Ñĩ Ð¸Ð»Ð°ÑĢ
ĠÐ³ Ð°Ð´
er st
ĠãĤ Ń
ĠáĢĻáĢŃ áĢĻáĢŃ
åª Ĵ
ĠâĢ Į
Ø¨ Ø±ÛĮ
had ap
eng a
Ġàª®à«ĭàª ¦
ĠÎ¬ Î»Î»
à¹Ħ à¸ĭ
l ha
Ġáĥ©áĥĶáĥĽ áĥĺ
Ġà¹Ģà¸ŀ à¸£à¸²à¸°
ĠtÉĻ ÅŁ
Ġc red
p el
Ġáĥ¨ áĥĶáĥķ
Ġm Ã¤Ã¤r
bo ok
ĠáĢ±áĢĴ áģļ
Ġt orn
Ġex per
Ġest Ã¡n
ont ent
Ġind ustr
ĠÙĪØ§ØŃ Ø¯
ĠØ¨Ø²Ø± Ú¯
ĠÄĳi á»ĩn
R o
ĠÐ½ Ð¾Ñģ
il ÉĻn
áĢĨ áĢ¯áĢ¶
ĠS aya
Ġà®İà®© à¯į
Ġà¤ī à¤¤
ĠØ¯ ÙĬ
ÃŃ p
om u
l ap
Ġp asa
ĠP es
Ġ. âĢľ
à¹Ģà¸ŀ à¸´à¹Īà¸¡
á» ³
áĢĽ áĢĦáĢ¹áĢ
ĠH as
è® ¸
ang i
Ġtyl ko
à§ĩà¦² à§ĩ
Ġadmin istrat
è Ĵ
ĠáĢĽ áĢ²
ĠÑĤ ÑĥÑĪ
à¤² à¥įà¤¯à¤¾
áĢ¡ áĢĶ
Î´ ÎµÏħ
à¸²à¸ ©
à±Ģ à°¡
id or
Ġj ug
Ġj p
Ø± Ø§ÙĨÛĮ
ĠW ill
ĠÎ² Î¿
ĠÑģÑĤ ÑĢÐ°Ð½
ĠÎ¼ Î¯Î±
Ġmej or
å¥ Ĺ
áģ Ĭ
Ġh aj
g on
H I
ĠCl ick
éĥ¨ åĪĨ
os it
ik as
Ġà¦¤à¦¾à¦° à¦¾
Ġà¤Ĩ à¤µ
Ġm ÉĻs
p ert
ho ud
Ġà®ļ à®¨à¯įà®¤
Ġe ga
ĠAn na
áĥĿáĥ¤ áĥļ
Ġla w
Ġkh u
sh Ã«m
ĠAmer ican
ãģķãĤĮ ãģ¦
ÚĨ Ùĩ
ÐµÐ» Ð¾
ĠØ« Ùħ
av o
Ġà¹Ģà¸¡ à¸·à¹Īà¸Ń
Ġàªµàª¿àª ¸
v it
ĠØ§ÙĦØ¹Ø±Ø¨ ÙĬØ©
Ġb ent
ĠÎ» ÎŃ
Ð¸Ð½ Ðµ
Ġt ark
áĢĻáĢº áĢ¸áĢ
àµĬà´° àµģ
à¯Ĥ à®°
ung o
ĠÎºÎ±Î» ÏįÏĦÎµ
âĢ ¢
ĠV Ã½
åģ ·
Ġ ä¼ļ
Ġoc c
ĠØ§ÙĦÙħ Ø±
Ä«b Äģ
ĠÐ¾ ÑģÑĤÐ°Ð½
ì§ ĳ
Ø±ÛĮÚ© Ø§
N O
ĠÄĳ á»ģ
à®² à®¿à®²à¯į
t as
äºº åĳĺ
à¸£à¸ĩà¹ģ à¸£à¸¡
Ġáĥ© áĥĲáĥĽ
Ġposs ible
un ity
å·² ç»ı
Ġáģ İ
Ð°Ñħ Ð°
à¦ŀ à§įà¦ľ
Ð³ Ð»ÐµÐ´
ĠØ§Ø³Øª Ø¹ÙħØ§ÙĦ
ĠÐ· Ð°Ð½
ÄŁ lu
end s
Ġre ce
Ġel k
à®¿à®¯ à¯ĩ
it ing
ĠpÅĻ i
ĠáĢĻ áĢ½áĢ¬
Ġpr on
ĠC unoaÈĻte
à°¾à°· à±įà°Łà±įà°°
Ġà®ħ à®ªà¯įà®ª
ĠØ¨ ÙĬ
Ġex tre
à´¸ àµįà´¤
ra in
à¦ķ à§ĩà¦°
Ġt á»Ľi
ĠĈ Ĉ
è´ Ł
ĠÐ² ÑĤÐ¾ÑĢ
Ġ3 20
Z A
Ġà¦ª à§ģà¦²
ĠÃ© t
Ġàª® àª¾àª°àª¾
ĠÙĬ ÙĥÙĪÙĨ
ĠÄĳ áº¡i
Ġmag yar
Ġdiffer ent
Ð»Ð°ÑĢÐ¸ Ð³Ð°
id ia
Ġj Ã¤Ã¤
Ġi eg
wo ord
Ġth Æ°á»Ŀng
Ġes im
Ġb ik
à¹Ģà¸£ à¹ĩ
ĠâĢ ł
Ġtw itter
ÒĽ ÑĤÐ¸
ĠÃ¼ zer
èª ŀ
Ø§Ø³ Ø©
ĠÏĩÏī ÏģÎ¯ÏĤ
Ġr it
ĠM az
ÑģÑĤÑĢÑĥ Ðº
ĠÐ² Ð°Ð»
Ã °
im s
Ġda udz
Ã§ as
Ġts ela
Ġapr il
Ġq anday
åŃ ©
Ã¬ n
au tiful
áĥł áĥĿáĥĳ
à®ļ à¯į
Ð¾Ð² Ð¸ÑĤÐµ
ts Ã©g
ĠÐ² Ð»
ĠG T
Ġ13 5
ç· ļ
àµĭ à´§
ĠÅŁ ek
Ġstr ong
Ġå¹ ´
Ġk de
Ġf are
à¥Ģ à¤°
Å¡ et
t op
Ġho áº·c
áĥł áĥĲáĥ¤
Ġmat eria
áĢļ áĢ·áĢº
àª° àª®
Ġh ui
ĠgÃ¶st ÉĻr
Îµ Î²
Ġåı °
ĠáĢĢ áĢ¯áĢŃ
ĠÙħ ÙĦÛĮ
ĠEspa Ã±a
Ã¤n n
d zi
Ġ×¦ ×¨
à±ĭ à°Ł
Ġk oko
ĠçĶ ¨
ĠÐ§ ÐµÑĢ
Ġv Ã¡r
à¸ĸ à¸¹à¸ģ
Ġvis u
ĠD ies
ÎĳÎ ļ
Â ¼
x an
à°°à±įà° ļ
ĠÑĩ ÐµÐ¼
Ġgj it
ï¿½ï¿½ ï¿½
æ¹ ¾
à«ĭàª ³
m od
Ã©n ek
ĠØ¨ Ø§Ø¹
ĠØ¢ Ú¯
ĠÐ¿Ð¾ ÑģÑĤÐ°Ð²
Ġp ubl
ĠC ara
Õ¡Õ °
Ġà¤®à¥Ī à¤Ĥ
Ġtra ball
Ġbor der
à¸ķ à¸´
ak am
ĠÐ° Ñħ
Ġ100 00
Ġà ·
à¸²à¸ Ĭ
à´ķàµįà´ °
ĠãĤ Ĵ
ĠØ¨ ÙĤ
ĠH O
Ġdol lar
ĠáĢ±áĢ »áĢĻ
ĠÑĥ Ð»
Ġman era
Ġh ora
á»ı i
hat Ã³
IL L
çĶ £
Ġem an
Ġà¹Ģà¸ ª
ĠÐ²Ñģ Ð¸ÑĩÐºÐ¸
um mer
æĶ »
à¸Ħ à¸§
Ġà°¸ à±įà°¥
Ġbe a
Ø§Ø± Ø§ÙĨ
ī ´
f ÉĻ
Ġå® ¶
Ġid Åĳ
Ã¼ g
Ġgo ogle
à¹Ħ à¸Ł
li es
æ ĩ
áĥ¦ áĥķ
Ġket ika
ĠM are
à°Ĺ à±įà°Ĺ
tor ia
de j
Ġi gen
çľŁ çļĦ
áĢ¯ áĢĲáĢ¹
Û İ
ĠØ´ ÙĪ
Ġpr Ã©s
ir ia
EC T
Ġá»į ká»į
v Ã¡
ff ee
Ġç µ
Ñĥ Ò³
ĠãĢ Ĺ
ĠÐ±ÑĬ Ð´Ðµ
ĠC up
ĠáĥłáĥĲáĥĽáĥĵ áĥĶáĥľ
ĠáĢ ¤
Ġà°İ à°¨à±įà°¨
Ġà°ªà°¾à°° à±įà°Ł
à¯Ĭ à®°
te z
h on
Ġt able
Ġmet od
ĠC y
à¶ º
Ġà¦¸ à¦¾à¦¥à§ĩ
Ġà¦¨ à§ĩà¦¤
ĠÑį Ð»ÐµÐºÑĤ
ĠUp dated
ĠÐļ Ð¸
ãĥĥ ãĥī
et ek
d aki
á»Ł i
à¹Ģ à¸£à¸²à¸
Ð½ ÐµÐ½Ð½Ñı
Ð «
Ġà®ī à®±
Î´ ÏģÎ¿
Ã¸ m
Î¯Î¶ ÎµÎ¹
ĠÕ ½
Ġtr ang
Ġy icha
Ġà¤® à¥įà¤¹
ng a
áĢĶáĢº áĢ¸áĢĻ
og n
Ġà®¤ à¯ĭ
Ġw sp
Ġprop ri
çº¿ ä¸Ĭ
Ø² ÙĬ
Ġay r
Îķ ÎĻ
Î¹Î½ Î®
ÉĻb ÉĻr
ik ia
Ġr ub
iv u
æį ¢
ati es
ĠÐ° Ñŀ
Ġlig ger
ĠÑħ Ð¸Ð·
Ġha ir
AD A
Ġàª¸ àªª
Ġn ic
Ġfinan ci
ĠS ig
Ø§Ùħ Ø§Øª
ĠáĢ¡áĢľ áĢ¯áĢķáĢ¹áĢ
ĠÐ³ Ð¾Ð²Ð¾ÑĢ
ĠÎ¿ Î¼Î¬
èĦ ĳ
Ùģ ÙĤ
uz ione
Ġæı Ĳ
Ġà¦¹à¦ļ à§įà¦Ľà§ĩ
Ġch á»©c
à®¿à®¯ à®¿à®©à¯į
Ġdav lat
ãģĿ ãģĨ
áĢ¡ áĢľ
Ġla ikÄģ
à´¿à´ļàµįà´ļ à´¤àµį
Ġl ec
Ġàªı àª¸
Ġp Ã©
à±ĩ à°²
ÛĮÚ© ÛĮ
ÑĥÑİ ÑĤÑĮ
ë©´ ìĦľ
ĠáĥĵáĥĲáĥ £áĥ
ĠÎ¬ Î»
Ġà®ª à¯ĩà®ļ
Ġqu ery
ãĤ Ģ
Ġà®ķ à®¿à®Ł
Ġg ara
Ġe con
Ġà¤¦ à¥įà¤µ
ĠáĥĵáĥĲáĥ ĳ
ĠØ¹ ÙĤ
ĠW as
áĢŀ áĢŃáĢ¯áĤĶ
á»ĩ m
à¥ĩà¤Ĥ à¤¦
olg Ã¡l
ĠÐĴ Ð°Ñģ
Ġwa o
45 6
Ġloa Ê»a
Ġk ou
ĠW hen
N ame
te in
ľ áĢ¯áĢķáĢ¹áĢ
Ð¡ Ðļ
ol f
ĠèĢ ģ
ĠC Ã´ng
uf ac
Ġàªª à«ģàª°
ĠÏĩÏģÏĮ Î½Î¹Î±
ff en
ĠÂ ¨
h eden
Ġãĥ ª
ĠÐ¼ ÐµÐ±
Ġsim ple
Ġmen u
ĠØ¹ Ú©Ø³
ĠÑĦ Ð¸Ð»
à¤Ĥà¤¤ à¥įà¤°à¥Ģ
Ġn Ãµ
Ġcomp et
beg be
Ġh it
Ä Ģ
ä¸ Ķ
res p
Ġwit hout
Ġrad io
Øª ÙĩØ§
_ M
Ġà¤ªà¤¹ à¤²à¥ĩ
ĠÙĪ ÙģÙĬ
ĠÐ´ ÐµÐ½ÑĮ
àµĩà´° à´³
Ġz uten
×ķ×ľ ×Ļ×Ŀ
ĠV illa
ĠM obil
ĠB ez
áĥĺáĥ ¬
Ġà´ĩ à´µ
ĠØ¬Ùħ ÙĬØ¹
Ġti jd
å± Ĭ
Ġàªħ àªĤàªĹ
ĠØ§ÙĦ Ø§Øª
Ġg eg
ĠR un
ć ï¼Į
à¤ Ĩ
Ð½ ÑĥÐ²Ð°ÑļÐµ
ĠÖ ²
ĠÐĿ Ð°Ð²
ĠÐºÐ¾ ÑıÑĤÐ¾
Ġus u
Ġk ant
ĠAn al
Ġth o
ion go
ĠP ic
ĠF it
Ġperson as
Ġo j
Ð°ÑĨ ÑĸÑı
Ġq ÉĻd
Ġener gi
ah ana
Ġà´¶ àµįà´°
Ġil m
Ġeg un
Ġan no
ĠÙģ Ø¥
ĠÐ´ Ð¾Ð·
ê· ¼
AN I
ä¹ ¡
àµĭ à´²
x on
M I
Ġcon n
Î ¦
Ġr und
Ġê²½ ìļ°
ç´ Ħ
Ð½Ð¸ ÐºÑĸÐ²
Ã«t ar
Ġtr an
ĠolduÄŁ unu
Ġf est
Ñį Ñģ
Ġpro x
ĠW 6
ĠàªĹàª¯ à«ĭ
Ġ áŀ
at to
ĠL ie
ĠØŃ Øµ
áĢ±áĢ¸áĢ Ĳ
qu Ã¨
Ġqu el
àª¨ àª¾àª°
Pr ice
Ġ. /
Ġbas ed
áĥĶáĥł áĥĶáĥ¡
àµ¼ à´¤àµįà´¤
Ġm Ã©d
Ø®Ø± Ùī
å° Ħ
Î¼Î¹ Î¿ÏħÏģÎ³
Ġà¤¨ à¤¾à¤¹à¥Ģ
ãĥĨ ãĤ£
yl l
os an
Ġh Ã¤
ĠØ§Ø·ÙĦ Ø§Ø¹Ø§Øª
Ġgi á»Ľi
m alar
Ä Į
ĠH az
à¯Īà®ķà¯įà®ķ à¯ģ
Ġku ul
zy m
ãĥ³ãĤ ¿
Ð¾Ð± Ð¸
Ġà¦¸ à¦¦
ĠÚ¯ Ú¾
ĠM erk
ĠJos Ã©
ç§ »
Ġpe ut
áĢĳ áĢĻ
Ġver m
Ø± Ø²
al p
Ġàª°àª¹ à«ĩ
Ġà®ħ à®²à¯įà®²
à±ģà°Ĥà° ¡
Ġà¤ķà¥ĭ à¤Ī
Ġæ Ĥ
ĠUn ter
à¸Ħ à¸·à¸Ń
Ġà®Ĩ à®°
ĠØ§Ù ĥ
Ġgi áº£i
h Ã«
h ov
ĠáĢĽ áĢ¾
Ġá»į já»į
Ġà°¨à±ģà°Ĥà° ¡à°¿
Ġke er
ç½ĳ _
Ïģ Î½
ĠØªÙĨ Ø¸
Ġo il
ĠEn t
ëª ©
à¸ªà¸Ķ à¸ĩ
ÈĽ ia
or gan
Ġãĥ ©
ĠConta ct
áĢĸáĢ¼ áĢ²áĤĶ
ÎµÎ¹ ÏĦÎ¿ÏħÏģÎ³
Ġáĥ Ł
AR D
Ġãģĵ ãĤĮ
Ġs ila
Ġh uj
ĠEle k
ĠÑŀ ÒĽ
Ġnt se
Ġis te
à¸ª à¸Ļ
ĠG et
áĢ° áĢ¸áĢ±áĢ
ĠØ· ÙĦØ¨
l angan
ĠÐĳ ÐµÐ»
à¸ķ à¸¸
äº¤ æµģ
Ã Ĺ
Ġq yt
ou ch
ak or
uks et
Ġz uz
Ġinvesti g
áĥĶáĥł áĥĲ
ĠH ak
ĠB ern
àª¨à«įàª ®
Ġæ¬ §ç¾İ
ĠÙ¾ ÙĪØ±
Ġar ti
Ġâ ī
Ã³n s
ur ity
à®Ł à¯į
Ø§ÙĨ Øª
Î¼ Î±Î¹
al k
áĥĿ áĥĲ
à«ģàª ·
Ġà¤Ĺ à¤Ī
Ġcor re
áĢģáĢº áĢĢáĢ¹áĢ
f re
Ã³r ia
Ġinst itu
ĠTra vel
il ÉĻ
ĠÚ© ÙĦÛĮ
ĠÐ¿ÑĢ Ð¸Ð´
åģ ľ
ÑĨ ÑĭÑı
moq da
Ġà°ķà±ĭ à°¸à°Ĥ
Ġc az
ell t
Ġmaj or
Ġë¬ ¼
ĠJ en
Ġàª¤ àª¥àª¾
Ġà¤ķà¤° à¥ĩà¤Ĥ
Ġd ing
Ġ È
Ġb á»ĩnh
à¸¥ à¸²à¸¢
ÑģÐ¿ Ð¾ÑĢÑĤ
ne ws
Ð· Ñı
itt el
Ġà°¨ à°¾
Ġpres idente
for me
ÛĮÙĨ Ùĩ
Ġh in
àµĨà´Ļàµįà´ķ à´¿à´²àµģà´Ĥ
Ø§Ø³ ÙĬ
Ã¡c ie
ĠÕ ¾
à´¯ à´¿àµ½
Ġàªµ àªļà«įàªļ
Ġk áº¿
Ġho use
ÑĥÒĽ ÑĥÒĽ
ĠAd d
Î®Î¼Îµ ÏģÎ±
oku wa
Ġà°Ĩ à°°
ĠJ ames
w ys
ĠØ¢ ÛĮ
ĠáĢĢ áĢ¬
Ġm ama
Â ¸
ĠC it
Ð°Ð¶ Ðµ
×Ļ×ķ×ª ×¨
Î¼ ÏİÎ½
à® ľ
ĠSh are
ĠRob ert
Ġà¸§ à¸±à¸Ļ
Ġb Äĵr
Ġ11 8
à¸ª à¸µ
à±ĭ à°¦
Ġãĥ Ī
Ġmy cket
ê² °
ĠOd p
à¦¨à§įà¦¤à§įà¦° à§Ģ
Ġà¹Ģà¸ĩ à¸´à¸Ļà¸
ĠIsra el
à¦¥ à¦®
áº§ m
Ð½Ñĸ ÐºÑĸ
Ð½Ð¸ ÑĨÐ°
Ð ĸ
Ð°Ñĩ Ð¸
Î´ Ïİ
Ġà¸£ à¸µ
Ġà¨ ķ
ĠÃ§ a
Ġder es
×ĺ ×Ļ
Ġáĥ¡ áĥ£áĥļ
Ġå± ±
ĠM E
Ġser ver
Ú© Ø±Ø¯
ÏĨ Ïħ
atur es
ĠÐ¼ ÑĥÐ¼
Ġvers ion
ĠEx press
à¸ªà¸£ à¹īà¸²à¸ĩ
à¦¾à¦° à§įà¦¥
×Ļ×ŀ ×Ķ
ç ĳ
Ġà¤µ à¤¿à¤ķ
ĠçĻ¾ å®¶ä¹Ĳ
ĠÙħÛĮ ÙĦÛĮ
Ġs osi
ĠAut hor
áĥĶáĥĳáĥĺáĥ¡ áĥĲ
Ġdi ag
à¹ģ à¸ŀ
i os
Ġl er
ĠT ok
Ġh ala
Ġc osa
Ġam or
Ġàªķàª° à«įàª¯à«ģàªĤ
Ġàª¤àª° àª«
ĠÚĨ ÛĮØ²
Ġdig it
Ùģ Ùĩ
ĠÑĤ Ð°Ð²
Ð½Ð°Ñģ ÑĨÑĮ
Ġs ong
Ġde pos
ÏĦÎ® ÏĥÎµÎ¹ÏĤ
Ġáĥ©áĥķáĥĶáĥľ áĥĺ
Ġ×ĵ ×ĳ×¨
Ġá ½
Ġà¦¸ à¦Ń
Ġà¤ľà¤¾à¤¤ à¤¾
ĠÐ½Ðµ Ð³Ð¾Ð²
àµįà´ ¨
Ã¡l ne
Ġàª¤à«ĩàª® àª£à«ĩ
Ġil a
Ġbu ild
ight s
Ġb j
áĥĺáĥľ áĥĴ
l om
Ġçľ ĭ
inter net
ĠØ´ Ø§Ûģ
áĢķ áĢ¯áĢ¶
Õ £
Ñĥ ÐµÑĤ
Ġcir c
ĠáĢĲ áĢĢ
Ð»Ñı Ñİ
Ġl ilo
ĠV as
ĠCatal unya
Ø§Ø¬ Ùĩ
et tu
ĠéĩįåºĨ æĹ¶æĹ¶å½©
ĠØŃ ÙĪÙĦ
Ġlá»Ľ n
Ġà®ħà®µ à®°à¯įà®ķà®³
Ġpro b
Ġperf ect
ãĥ» ãĥ»
ĠÙ¾ÛģÙĨ ÚĨ
ĠL ik
aga imana
à¸ļ à¸Ļ
ãĤĭ ãģ¨
×ĳ×¨ ×Ķ
Ġà°¸ à±įà°Ł
ĠÐĿ ÐĲ
Ġn Ä±n
èķ ī
à°° à°Ĥ
ust en
ol Ã³g
b ide
Ġs oh
èĽ ĭ
×ķ×¨ ×Ļ
Ì ĥ
um ento
ĠÑģ Ð°ÑĢ
áĥĲáĥ¢ áĥĺ
ul at
am ina
ĠSt ate
ìĸ ¸
à¦¾à¦ Ń
ĠáĢ ¸
Ġáĥ¡áĥĲáĥĻ áĥ£áĥĹ
áĢķáĢ¼ áĢ®áĢ¸áĢ
Ġw ij
Ġd eri
P N
Ġà°ķ à°¾à°²
Ġak kor
Ġàª¹ àª¾àª¥
ĠÚ©ÛĮ Ø³
ãģ¡ ãĤĥ
ĠÐ± ÐµÑģÐ¿
à¥ĩ à¤ķ
à¸Ĺà¸³ à¹ĥà¸«à¹ī
ra it
Ġãĥ ĳ
ug al
ĠÑĦ ÑĥÑĤ
Ġga in
ĠÐ´ ÐµÐ¿
ĠS af
æĥħ åĨµ
Ġtak Ã©
ĠP oz
à°¾à° ļ
Ú¯ Ø±Ø¯
Ð³ Ñĥ
Ġis s
Ġ ÅĤ
à®ªà¯įà®ªà®Ł à®¿
le ich
ĠStor y
Ð°ÑĨ ÑĸÐ¹
Ġà¦¬ à¦¿à¦°
Ġz p
à© °
ĠàªĨàªµ à«įàª¯à«ĭ
Ġà¦ķ à¦²
ê² ĥ
Ø§Ùħ Ø©
Î¹ Î²
Ġt ÉĻs
æĸĻ çĦ¡æĸĻ
ĠL G
êµŃ ìĿ¸
×Ļ×ª ×Ķ
äºĨ ä¸Ģ
© ëĭĪëĭ¤
Ġàª² à«Ģàª§
as is
ą ï¼Į
ĠTh u
h os
Ġpo ol
ļ áĢ¬
ĠáĢŀáĢ° áĢĲáĢŃáĢ¯áĤĶ
ib les
Ġáĥ£áĥĻ áĥķáĥĶ
ĠView s
ÉĻn c
Ġà®ļ à®°
ĠÚ¯ Ú¾Ø±
¥ áĢ®áĢ¸áĢ
ĠØ¹ÙĪ Ø§Ùħ
Ġ×Ĺ ×Ļ
Ã³ i
Ġmer k
æĤ ¨
åĲ ¬
Äĵr t
Ġpr int
Ø§ØŃ Ø©
Ġsa f
Ġjet Ã«
ĠE V
Ġà´¸ à´¹
ĠLe ague
à¸ĭ à¸·à¹īà¸Ń
Ġà§ §
Ġ×ĳ ×Ļ
àª ¢
ĠÑĪ ÑĥÐ´Ð°
ull ah
ĠÐµ Ð²
ĠW ater
g iv
ĠÐ· Ð±Ð¾ÑĢ
áĤıáĢ½ áĢĦáĢ·áĢ¹
áº© n
à®¿à®ķà¯įà®ķ à¯ģ
×¤ ×Ļ×Ŀ
Ã¤ h
11 1
ĠÐ¼Ñĸ Ð¶
à¤ļ à¥įà¤¯à¤¾
Ð¾ÑĢ Ð¾Ð½
B ook
Ġ×ľ×Ĳ ×Ĺ×¨
g ot
áģ »
à®± à¯ģ
Ġé¦ Ļ
ĠÐ¾ Ð¿ÑĢÐµÐ´
Ġsa o
áĢ±áĢķ áĢ¸áĢ
Ġà¦ªà§įà¦° à¦¶
ĠÙĨ ÙĪØ±
ĠE ver
ĠÐ¡ÐºÐ¾Ð¿ ÑĺÐµ
Ġ ä¿Ŀ
à¸Ķ à¸±à¸ļ
Ġb ana
à´ķàµįà´ķ à´¾à´°
Ġà°ļ à°¿à°¤à±įà°°
ÐµÐ¼ Ðµ
Ġper man
ĠáĢĶ áĢŃáĢ¯áĢĦáĢºáĢĦáĢ¶
áģ ħ
ar ra
ĠØ£ Ø¹
ĠÐ±Ñĭ Ð»Ð°
Ġàª² à«ĩàªµ
å®ĺæĸ¹ ä¸ĭè½½
à±Ĩ à°Ĥà°Ł
Ġç¦ ı
ĠáĥĻáĥĺáĥĵ áĥĶáĥķ
v Ã©
em and
æĽ ²
Ļ à¯įà®ķà®³à¯į
ĠÐ¼Ð°ÑĬ Ð»ÑĥÐ¼
Ġno en
à°¿à° ¡
B L
Ùİ Ø©
ĠáĢŀ áĢĦáĢº
Ġsab abu
Ø§ÙĤ Ø©
Ġà§§à§ ¦
ĠEusk al
à¸§ à¸Ķ
ÑĢÐ¾ Ñĺ
Ġ3 A
Ð½Ð¾ Ñİ
Ð½Ð¸ ÑıÑĤ
çļĦ äºº
à¤Ĥ à¤ľ
Ġáĥ« áĥĲáĥļ
à±Ĥà° ¨
Ð¸ Ð¾ÑĤ
à¤°à¥įà¤ ľ
ec tive
AM A
è¿Ļ ä¸ª
áĢ¸áĢĢ áĢ»
ĠÑģ Ð°Ð²
Ġc ss
el uj
ĠÐ¼ ÑĥÑģ
Ġi phone
Þ¦ Þ
ĠB uc
ti i
ip i
Ġà¦ªà§ģà¦² à¦¿à¦¶
ĠÐ¿ÑĢ Ð¸ÑĢ
d á»į
Ġph Ã¡p
l ere
Ġê° Ħ
Ġàª® àª¾àª¤à«įàª°
ĠãĢĤ ï¼Į
ĠÐ¾Ð² Ð¾Ñĺ
ĠV ID
ĠáĥĲáĥ ŀ
Ġà´ķ àµĩà´°à´³
ą ĆĈ
Ð³ÑĢ Ð°Ð´
Ä«g as
j ie
ĠÐ¿ÐµÑĢ ÐµÐ²
ĠÐ¼Ðµ Ñĵ
Ġg enn
ĠM iss
Ġ×©×ľ ×Ĳ
ä»¥ ä¸Ĭ
áĥķ áĥļáĥĺáĥ¡
à¸²à¸ªà¸´ à¹Ĥà¸Ļ
ÑĪ Ð°
N ew
Ġtemp or
Ġn di
Ġd Ã¹ng
ÙĦ Ø§Ø³
ÅĽ wi
Ġæ ¢
ãĤ ¶
ĠáĢ»áĢķ áĢ³
Ġtem pl
Ġmod ific
k Ã¶
àªµàª¾àª¨ àª¾
Ð°Ñģ ÑĨÑĮ
ar Äĥ
Ġà¦Ĩ à¦Ľà§ĩ
Ġu003 c
ĠJ our
ĠD aily
eri i
ĠÐĵ Ð¾Ð»
Ġho a
Ġant ara
Ġmo z
ĠM ga
à¯Īà®¯ à®¾à®ķ
Ïĥ Î¯Î±ÏĤ
Ġ×ķ ×ł
ĠE i
è£ ½
Ġà¤¬ à¥Ģ
ĠÙħØ´ Ø§Ùĩ
áĢĦáĢºáĢ¸áĢ ŀ
à¸ļà¸£à¸´ à¸ģà¸²à¸£
Õ¡Õ ¬
Ġà´¨à´¿à´° àµįâĢį
Ġàªļ àª¾àª°
Ġy Ã¶n
Ġfo arte
áĢĶ áĢ±
Ø¯ ÙĨ
Ġàªµ àª¿àª°
ĠgÃ¶ re
à±ģà° ļ
Ð ¬
av er
ï Ģ
alm az
Ġà´µ à´¿
Ġà´ķ à´°
vir on
o it
Ġpat aki
ĠEn ter
â Ĩ
à¯ĩ à®¯
Ġ12 2
ê¸ Ģ
Ú¯ÛĮ Ø±ÛĮ
è®¾ è®¡
à¸ļ à¸¸
à¤°à¥įà¤ Ł
ÑĥÑİ Ñī
áĢŃáĢ¯áĢĦáĢº áĢ¸
ÙĪ Úĳ
ÅĽ cie
as si
ĠáĥĲáĥ ĸ
ĠÙħ ÙĪÙĦ
Ġn ada
ĠT ha
àµģà´¤ à´¿à´¯
res h
Ġo sa
at ge
Ġêµ °
ĠÐ¾Ð± Ñĺ
×ķ×ľ ×Ļ
ru ct
Ġà°ħ à°¤
ĠP ier
ard ia
Ġà¤¸ à¤¹
ÑĨ Ñİ
ot Ã«
20 15
ĠØ§ÛĮÙĨ Ú©Ùĩ
Ġv ita
Ġ×¢ ×ķ×ĵ
Ġpuj c
b ro
Ġà¤ħ à¤²
ĠàªĨàªª àª£à«ĩ
à±ģà°ķ à±Ĭ
Î¾ Î·ÏĤ
ell ik
ĠØ¹Ø¨Ø¯ Ø§ÙĦ
ĠÐ´ ÐµÐ²
Ġn an
j m
ĠQu á»ĳc
ĠG MT
à°° à°¿
ĠØ¨Ø³ÛĮ Ø§Ø±
ĠÐ²ÑĸÐ´ Ð¿Ð¾Ð²ÑĸÐ´
ĠdÃ¼ ny
ĠÎĿ Î±
Ð¸Ðº Ð°Ð½
Ð°Ð² Ð°Ð´
Ä±l Ä±r
sel f
as es
U U
ĠÙħÙĨ Øµ
àµĭà´Ł àµĨ
Ú© Ø§Ø±ÛĮ
O H
Ġhay o
à´¿à´ķàµįà´ķàµģà´¨àµįà´¨ à´¤
ĠÑĢ ÑĥÐº
à®Ļà¯įà®ķà®³ à®¿à®²à¯į
ÐµÐ½ ÐºÐ¾
Ġ×ª ×§
×ķ×¨ ×ª
p ack
ĠÐ¿ Ð°Ð¿
ĠÎµÏĢ Î±
ĠáĢ¡ áĢĵ
ĠØ§ÙĦØ´ Ø±
ëĬĶ ëį°
Ïħ Ïĩ
00 1
Ġç Ĳ
Ġâĸ ł
Ġl Ã¡t
Ġer ak
áĢĦáĢ¹áĢ¸ áĢķ
Ġe yi
n ico
Ġx em
c Äĥ
Ġà®ªà®¾à®° à¯įà®¤à¯įà®¤
±áĢ ķáĢ«
ĠÙħØŃ ØµÙĪÙĦ
ĠØ§ÙĦØ³ Ø¹ÙĪØ¯
áĥĲáĥ¡ áĥ£áĥ®
ep as
em es
ĠáĥĵáĥĲáĥ Ĵ
ĠmoÅ¼ e
ĠR ap
àª° àª¨à«Ģ
ĠB eh
Ġprov in
ĠE 0
ri er
è³ ª
Ġv and
Ġa de
Ġà´ħ à´Ń
à¹Ģà¸Ľ à¸¥
àµģà´ķ àµĬ
ĠX L
ĠPa ulo
he it
ĠÙħØ¯ ÙĦ
ĠH ans
à¸±à¸ķ à¸´
Ã¢ ng
Ġà®®à¯ģà®© à¯įà®©
Ġpal ing
Ġex pos
Î³ Î¼Î±
ĠÙĪØ³ ÙĦÙħ
Ġver g
Ġ ãģĦ
à±ĩà° ¯
n od
ĠÄ« pa
áĥ®áĥķ áĥĲ
à±ģà°² à°¨à±ģ
ÉĶ ÉĶ
Ġal go
áĢĻ áĢ°
sk Ã©ho
ar ed
ĠØ¨ Øº
ĠÐºÐ°Ð¼ Ð¿
j Äģ
h op
Ġkl ass
è¾ ¼
er os
Ġsa ab
áĥ¡ áĥĲáĥª
Ġho urs
ÅĤ em
Ġáĥĳ áĥĶáĥķ
Ġp ih
à´° àµĨ
ori al
ÙĨ Ù¹
st at
à¦¤ à¦¾à¦°
à¥ĭ à¤¨
ÎŃ ÏģÎ±
Ġp c
ĠA ur
Ġà®ªà¯ĭ à®²
Ġk og
è¡ £
ë ¨
j de
WW WW
P G
Ġäºļæ¸¸ åĽ½éĻħ
ĠP ie
ĠN orm
å¿ ľ
ĠÚĨ ÛĮÙĨ
iy asi
_ C
Ġà´ªà´±à´ŀàµįà´ŀ àµģ
åº ĵ
à¦¬ à¦°
Ġ×ĳ ×ľ
Ġk Ã©
al et
Ġàª¦ à«ĩàªµ
Ġàª¤àª® àª¾àª°à«Ģ
Ġag bara
à°°à±įà° ª
Ġà¸ ¨
ĠÎ³ ÏģÎ±
æĻ ļ
Ġà´¸ à´¿
Ġ= \"
ÎĹ ÎĿ
Ġsp el
Ġgj enn
ĠØ³ Ø±Ùħ
Ġch á»įn
à¸«à¸¥ à¸²à¸¢
ĠâĢ¦ ..
ĠGr atu
Ġà´İ à´Ĥ
Ġàªµàªļà«įàªļ à«ĩ
Ġsi er
ÑĥÐ² ÑĩÐ¸
à¥ĩ à¤®
ĠáĥĽ áĥĺáĥľ
ĠÐ°ÑĢ Ñħ
àµĭà´Ł àµį
ÅĨ Äĵm
ard an
Ġë ĳĲ
ĠáĥĴáĥĲáĥľ áĥª
Ġb um
à¸«à¸¡ à¸Ķ
à¸¶à¸ģ à¸©
Ġg ema
Ġtr á»ĭ
ob y
ĠÐ·Ð°Ð¿ Ð¾Ñĩ
áĥ¢ áĥł
Ð°ÑĪ ÑĤ
ª áĥ®
h ileng
Ġ15 00
ÑĨÑĤ Ð²Ð°
Ġpa ar
âĶĢ âĶĢ
ĠÎ¾Îµ Î½Î¿Î´Î¿
ĠT ime
xs hi
o unt
Ġkish te
en sa
ĠØ®ÙĪØ¯ Ø±ÙĪ
ĠP V
Ġhak k
ãĤĵ ãģ§
ib o
Ġm Ã¤r
Ġ11 6
áĥķ áĥĶáĥĵ
à¸Ī à¸£à¸´à¸ĩ
Ó¯ Ð·
Ġà°¤ à°°
Ġàªµ àª¡
Ġà« «
ĠUn d
ç» Ĩ
ĠÑŀÑĤ ÐºÐ°Ð·
C M
Ġkter Ã½
Ä± t
ĠÎ¼ Î¬
Ġfol k
Ð¸Ð´ ÐµÐ½ÑĤ
ani i
áĥĲáĥļ áĥĲáĥ¥
in et
Ġh lah
ìĽ Į
à«ĩàª¨à«įàª ¡
ĠÑı Ð½
åķ ª
ÏĨ ÏĮ
Ġmarket ing
Ġj uli
ĠM id
ìĺ ¨
Ġáĥ¨ áĥĶáĥĴ
ĠF estival
ĠìĥĿ ê°ģ
Ġp ula
ho use
ler ini
ent u
b ank
ĠÑģ ÐµÐ´
Ġv Ã¡s
Ä° N
Ġå· ¥
Ġent ry
à°¾à°¨ à°¿
ek ana
ĠP om
Ġà¦ªà§įà¦° à¦¥à¦®
Ġr id
âĢĶ âĢĶ
p ie
in at
ĠS ud
ari i
Ġin ten
Ġba x
Ġ7 20
ĠO per
ĠàªĹ àªĪ
ĠÐ± Ð°Ð³
à¸¸ à¹Īà¸¡
Ú¯ ÛĮØ±
tu ur
owi ed
Õ ¬
Ġàªĸà«Ĥ àª¬
ĵ °
à®¿à® ¸
à¤µ à¤¾à¤°
ĠvÅ¡ ak
Ġc Ã¡i
ĠPublic ado
ĠP av
ĠØªØŃ ÙĤÛĮ
åĪ© çĶ¨
à¸Ľà¸£à¸° à¹Ģà¸Ĺà¸¨
à°¾à° Ĥ
ok om
Ġï¼ ı
Ġben ar
Ð´ Ð¸Ð¼
ĠØ§ÙĨØª Ø¸
áĥĺáĥļáĥĺ áĥĲ
ĠÐ´ ÐµÐ¼
liy ev
Ġàªª àª¾àª£à«Ģ
e arch
y re
Ġç Ĥ
ĠáĥĽáĥĺáĥ ¦
Ġà¦ķ à§įà¦°
Ġà¤® à¥ģ
ĠØ³ ÙĪØ±
Ġcáº£ m
ĠM ond
èª ¿
åŁİ å¸Ĥ
O F
ĠØŃ ÙĪØ§ÙĦ
Ġb om
at k
Ġà®ĩ à®±
Ġseg ur
éĢ £
Ġ×ľ×Ķ ×Ļ×ķ×ª
à¦² à¦¾
Ġáĥĵ áĥĶáĥĵ
ĠJ ika
áĢ¡ áĢĲáĢ½áĢĢáĢº
Ġ" "
à¤°à¥įà¤ ¥
ĠÐ¡ Ð»ÐµÐ´
Ø§Ù ¹
Ġé ¡
Ġa sa
àª¾àªľ àªª
Î½ Îµ
Ġéķ ¿
Ġà´µ àµĪ
ĠØ£Ùĥ Ø«Ø±
Ð± ÐµÑĢ
Ġq an
à¹ģ à¸¡
Ġchi qar
ÎµÎ¯ ÏĦÎµ
ot ti
Ġgl obal
æ¯ į
oc ol
ĠD S
Ġs od
Ġju Å¼
íĿ ¥
Ã¢n Äĥ
ĠÐµ Ð»ÐµÐºÑĤ
Ġ Åĳ
à§ĩà¦¬ à§ĩ
Ġé» Ħ
Ġà´ª àµĨ
ĠØ¯ Ø§Ø¯Ùĩ
à§ģà¦ ľ
Î¸ ÏģÏī
h b
Ïī Î½Î±
itt Ã¤
ëĵ¤ ìĿĺ
áĢ¬áĢ¸áĢŀ áĢĬáĢ¹
Ġc and
te en
Ġàª¦ àª°à«įàª
Ġà¦ªà¦¾à¦° à§ĩ
à¤° à¤£
è ¿½
Õ¥Õ ½
ĠÑģÑĤ ÑĢÐ°Ð½Ð°
ç¨ İ
à®¿à®°à¯ģà®¨à¯įà®¤ à¯ģ
ol y
ĠáĥĴ áĥĸ
Ġbers ama
ÑģÑĤ Ð°Ñŀ
Ġab ril
udi an
ob ili
ë³ µ
B R
Ġol yan
áĢŃáĢ¯áĢľ áĢ¹áĢ
ĠC ong
áĢĽáĢŃ áĢĢ
àª¾àª³ àª¾
Ð°Ð½Ð¸ Ð¹
ĠÎ£ ÏĦÎ·
Ġprincip al
ĠØ§ÙĦØª ØŃ
ĠÐ±Ñĭ Ñŀ
Ġs ess
áĥľ áĥĺáĥ¨áĥľ
Ġàªħ àªĤàª¤
Ġà¦¬ à¦¾à§ľ
Ġ. (
ÑĨ Ñĳ
Ïģ Ïį
ij Äģ
ĠÐ± Ñİ
ĠÎķÎ»Î»Î¬ Î´Î±
ĠáĢĽ áĢĶáĢ¹áĢĢáĢ¯
ĠáĢ¡ áĢĻáĢ½
ĠÑģ ÑĥÐ±
Ġsz em
ĠÐ² ÑĸÐ½
Ġco unt
Ġartik el
ĠNor ge
Ġà¦Ĺ à¦¤
ĠØ¯ÙĪÙĦ Øª
ĠS ver
ĠvÃ¤ ga
Ġt Ã¡r
áĥĶáĥĳ áĥĹáĥĲáĥľ
à¸ŀà¸Ļ à¸±à¸Ļà¸
Ùħ ÙĬÙĦ
h je
end ed
ĠFir st
b ie
Ð°ÑĨÐ¸ Ð¾Ð½
ĠI R
àª¤ à«įàªµ
Ġáĥĺáĥ¥ áĥľáĥĶáĥĳáĥĲ
ĠÐ¼ Ð°ÑģÑĤ
Ġl li
ĠO ri
ĠCent ral
à¸²à¸ģ à¸²à¸£
ÐµÐº ÑĤÐ¸
ĠçĽ ®
Ġw aj
ĠÐ² ÐµÑĩ
Ġos hir
Ðĺ Ð¢
ĠPers o
ÑģÑĮ ÐºÑĸ
v s
br and
ĠØ§ÙĦÙħ Ø¤
Ġà¦¸ à§ĩ
ĠØ§ÙĤ Ø¯Ø§Ùħ
à®¿à®¯ à®²à¯į
og i
_ time
ĠÐ±ÑŀÐ»Ð¸ Ð±
Ġse par
Ġper ts
Ġnhi Ãªn
ĠJ um
æį ķ
Ġ×ķ ×Ĺ
áĥĶáĥł áĥĺáĥ¡
Ð² ÑĬÑĢ
Ġç ļ
Ġm oc
à°¾à°Ĥà° Ĺ
àªķ àª¾
amp u
íĻ ©
çİ© æ³ķ
æ¬ §
ĠØ³Ùħ Ø¬
Ġtim es
ÃŃ o
Ġ×ķ ×ª
Ġactu al
Æ° ng
Ġç§ ģ
ĠÐ¿ÐµÑĢ Ð¸
à±Ģ à°ķ
Ã³ z
ĠàªŃ àª°
ĠÑĤ Ð¾Ð·Ð¸
áĥĶáĥĹ áĥĲ
áº ³
Ġpad ding
ÑĤÐ¾Ð± Ñĭ
à¤ļà¥įà¤ Ľ
Ġà®® à®¤
Ġ×Ļ ×¦
áģ Ī
f all
Ġn igb
Â Ń
am it
à°¾à°ķ à±ģ
Ġà¦¤ à¦¾à¦ģ
Ġl alu
ĠL ig
pres a
ow s
ĠÑĤ Ð°Ð´
x es
op ort
Ġt ib
Ġyar at
ĠÐ¶ ÑĥÑĢ
Ġer r
Ð² Ñĸ
ĠìķĦ ëĭĪ
Ġte hn
Ġmar s
æĮ Ĥ
Ð°Ð» Ð¾Ð³
Ġà¤Ĺ à¥įà¤°
Ġout ros
Ġ25 5
Ġmuj eres
ograph y
ÉĻr k
ow ane
c ji
Ġà°µà°¿à° µ
åį «
ĠÑĥ Ð½
ĠMag yar
Ġp id
pr ise
Ġre duc
Ġeng ine
Ø§Ø³ ÙĬØ©
un es
at akan
Ġà°ªà±įà°° à°ķ
ĠÐĴ Ð¸
Ġfr ont
ê³ ³
áĥĶáĥĳáĥļ áĥĲáĥĵ
à¸Ļ à¸²à¸Ķ
à®¿à®ķà¯įà®ķ à¯ģà®®à¯į
ĠÃ Ĩ
ÑĢ ÐµÑĪ
ÐµÐ¹ ÑĤ
ĠÐ¼ÑĥÐ¼ ÐºÐ¸Ð½
Ġber ri
ÑĸÐ» Ð°
å® £
iy on
Ġä½ ¿
ÙĪ Ø§Ø²
Ġàª¯ à«ĭàªľ
Ïĥ Îº
ov ÄĽ
Ġà´¨ à´¿à´¯
Ġw ah
Ġhand el
ĠAr be
ĠÐ° Ò³
Ġvies nÄ«
áĥĲáĥłáĥ ļ
Ð¸Ñı ÑĤÐ¸
Ġà¨ ¸
ĠØ³Ø§Ø² ÙħØ§ÙĨ
Ġsh u
Ġm n
ÈĽ a
ugb á»įn
Ġè ·
Ġå¼ ł
ĠÏĢ ÏģÎ¬
ĠÐºÑŀ Ð¿
Ġst o
Ġo w
áĥłáĥ ª
Ġan vÃ¤n
Øª Ø±ÛĮ
fa ult
AS A
ĠØ´ ÙĬ
ÏĢÎ¿ ÏĤ
ãĥ¼ ãĤ¯
áĢŃ áĢħáģ¥
à¸ķ à¸¥
à¯įà®ļ à¯įà®ļ
Å¡ ÃŃm
Ġæ ¥
ĠG on
ĠÐ²Ñĭ Ðº
Ġv ores
Ġn ombre
Ð¼ Ð¸Ð½Ð¸
1 10
Ġp ale
Ġl ama
ĠÐ¿ Ð¸ÑĤ
Ġsigni fic
Ġdar b
à±ĭ à°¡
Ġke ep
à¤Ł à¥Ģ
Ġqu Ã¡
j adi
Ġk iv
ĠíĶ ¼
Ġáĥ¡áĥĲáĥĸ áĥĿáĥĴ
ĠÙģ ÙĪØ¬
à¹Ģà¸ķ à¸Ńà¸£à¹Į
l ub
99 9
ĠØ§Ø± Øª
Ġv Äĵ
Ġst ate
E Y
Ġcu ando
çª ģ
à¯įà®¸ à¯į
ĠáĢ¡ áĢĨáĢŃáĢ¯
ĠÑģ Ð¾Ð´
è³ ĩ
Ġide al
æ° ¸
an chi
ĠÙ¾ ÛĮØ±
os Å¥
Ġà¦īà¦ª à¦ľ
Ġà¤ķ à¥įà¤·
ĠH Ãł
ãģ ĸ
ĠÑĤÐ¾ Ñĺ
r l
v ang
ĠÑģ Ð¸Ð¼
Ġinter est
ĠÎµ Î¹Ïĥ
Ġz ich
×§ ×¨
r iz
Ġdo anh
Ñħ Ñĥ
Ġà°ī à°¦
Ø¨ ÙĬØ©
Ġ ÉĽ
æĿ ±
Ø§Ø¯ ÙĤ
ĠÙħØª ÙĨ
Ġis a
àªļ à«įàªĽ
ĠÑı Ð½Ð°
à±ģà° ¸à±įà°¤
Ġà¦ªà§įà¦°à¦ķ à¦¾à¦¶
ĠÏĥÏĩ ÎŃ
Ġting gi
±áĢ¡ áĢ¬áĢĦáĢ¹
ĠÐº ÐµÑĤ
ĠN Y
è· Ł
¬ áĥĽ
Å¡an ai
se p
Ġè® ©
Ġel o
AS S
Ġleg al
ĠàªķàªĤàª ª
à¤¿à¤ §
Ġà¦¨ à¦¿à§Ł
×ķ×¦ ×Ķ
Å£ Äĥ
ë¥ ĺ
áĢĻáĢºáĢŃáĢ³ áĢ¸áĢŀ
ÑģÐº Ð¾ÑĤÐ¾
ģáĢ²áĢ· áĢĲáĢ²áĢ·
Ġl Ã¥
àª¾àª¤ àª¾
ĠØ§Ø¯ Ø§ÙħÙĩ
Ġdre jt
ie ve
w eng
Ġèħ ¾è®¯
ĠáĢļ áĢ°
Ġtod a
à®Ł à¯ģà®ķà¯įà®ķ
Ġk lik
ung um
áĢģáĢº áĢĦáĢ¹áĢ
à´· àµįà´Ł
Ø´ Ùģ
ek om
Ġà¤ħ à¤®
ĠÙĪÙĦÙĥ ÙĨ
Ġ áº£nh
Ġáĥ§áĥķáĥĶáĥļ áĥĲáĥ¤
Ġre j
à¹Ģà¸Ķ à¸µà¸¢à¸§
à´Ļàµįà´Ļà´³ àµģà´Ĥ
ĠáĥĴáĥĲáĥľ áĥķáĥĺáĥĹ
Ġpom oc
à§ģ à¦Ł
à±ĩà° ľ
àµĨà´¯ à´¾à´£àµį
ĠÑĤÐ°Ðº Ð¾Ð¶
Ġcre ate
à¸Ĺà¸µà¹Ī à¸¡à¸µ
ÑĢÑĥ Ð·
AT O
Ġtrebu ie
Ġmul te
à¸²à¸ķ à¸´
AL I
Ã¶y Ã¼k
ĠØ³ Ø§Ø®Øª
un ter
Ġàªªàª¹ à«ĩàª²
ĠÙħØ¹ Ø§ÙħÙĦ
Ġal tres
àª¨à«įàª ¨
Ø§ÙĤ Ø§Øª
lar la
ar ti
ģáĢº áĢ³áĢķáĢ¹áĢ
Ġå¥ ³
áĢ µ
Äģ ka
te ur
Ġà°® à±ģà°Ĥà°¦
Ġà®¤ à¯ĩà®°
ĠÑģÐ¿ Ð¾ÑĢÑĤ
Ġhis ob
Ġà´ļ à´¿à´¤àµįà´°
ĠÑĢÐ°Ð· Ð¼
ĠÐ¸Ð¼ Ðµ
Ġnav ig
Ġæ ģ
Ġà§© à§
y u
Ġà´µà´¿à´ ¦
ĠD engan
Ġ23 0
åĩº æĿ¥
Ġn oc
Ġim á»į
ĠC os
ha us
at ore
Ġå¦Ĥ æŀľ
ĠDep art
áĢ® áĢļ
Ð°Ð¼ Ð¿
ft ar
Ġlive internet
ç» Ī
Ġæ¯ ı
ĠáĢ¡ áĢķ
Ġl adi
ill ing
Ġno e
Ġg ast
ÉĻh ÉĻr
ka an
eb etsi
ĠÙģ ÙĦ
Ġth á»©c
å¤§ çļĦ
Î»Î¯ Î¿Ïħ
Ġdre j
è¦ģ æ±Ĥ
ĠBer lin
ÏĦ Ïĥ
Ġhv ordan
Ġf j
qu q
Ġà°° à°¾à°·à±įà°Łà±įà°°
ĠØ§Ù ¹
ĠÐ¿ ÑĬÑĢ
ĠÃ¤ ven
×¤ ×Ķ
ĠW in
ìķ ł
æĬķ èµĦ
lar iga
Ġh iss
ĠW ak
§ áĥķ
ab et
Ġom rÃ¥
áĢļáĢ¹áĢ ĨáĢŃáĢ¯
yn n
f ah
ł áł
ÑĬ Ð¿
Ġem pa
Ġaqu ÃŃ
ĠÙĨ ÙĪØ´
Ġà¦ķ à¦¿
Ġ×ĳ×ŀ× §
Ġdec lar
ĠC s
ëĭ ¬
è² »
ĠÕ¸ ÖĤ
ĠD P
à¦°à§įà¦ ķ
B y
à¸ŀ à¸£à¸°
Ø£ Ø³
ĠÐ±ÑĥÐ´ ÐµÑĤ
Ġf our
Ġbosh qa
Ġ Ć
à¹Ģà¸§ à¹ĩà¸ļ
... ]
ĠØ³ Ø§Ø¨ÙĤ
ĠØ± ÙģØª
Ġcons um
åį ´
áĥĶáĥĳáĥĺáĥ¡ áĥĹáĥķáĥĺáĥ¡
ĠAN D
ro q
Ġáĥ¡áĥĲáĥ¨ áĥ£áĥĲáĥļ
Ġå® ŀ
Ġàªķà«ĭàª ĩ
Ġàªħàª¨ à«įàª¯
Ù¾ Ø±
Ø§Ø¦ Ùĩ
áĢĻáĢº áĢ¸
at ta
æĿ ¯
ãĥķãĤ ©
à®µ à®°à¯įà®ķà®³à¯į
ĠÃ ı
ĠØ¨Ø§Ø¹ Ø«
Ġpas ti
ad t
Ġàªªà«įàª° à«ĩàª®
ĠÎ±Ïħ ÏĦÎ¬
Î±Ïĥ Î¯Î±
ov nÃŃ
aca ÄŁ
ĠÑĤ Ð¸Ð¿
ĠÏĢ Î¯
c iones
ĠÐ´ ÑĥÑħ
l Ã³
on ga
ĠíĨ ł
Ġtod ay
Ã© b
Ġç» ı
Ġæ Ĳ
Ġs era
Ġn ama
???? ????
ĠÙĪØ§ÙĦ Ø¯
áĥĲáĥłáĥĵ áĥĲ
us al
pá»įlá»į pá»į
Ġn ado
ĠM t
ĠD ek
ect os
áĥķ áĥĺ
àµĤ à´°
Ġà° ĸ
èĲ Ħ
á»£ i
Ġm udah
è¡Į ä¸ļ
ÐºÐ¾ Ñİ
Ġåľ¨ çº¿
j am
ĠÐ¿ Ð°ÑģÑĤ
à®ķ à®°
s b
ĠàªĹ àª¾àª®
z ent
Ġà¦¶ à§ĩà¦·
á¹£ u
ĠL ok
ÃŃt Ã©s
à¥ĥ à¤¤
ãĤ¤ ãĥ³
à¹Ģà¸ ĺ
ĠÙĨ ÙĤÙĦ
Ġbard zo
áĢĶ áĢ²áĤķ
Ġàª¤à«ĩàª® àª¨à«ĩ
Ġ×ŀ×Ĺ×Ļ×¨ ×ķ×Ł
ĠÐļ Ð¾Ð»
Ġlin ks
Ġf áº¹
ĠMat rimoni
à¸« à¹Į
Ð¸ÑģÑĤ ÑĢ
ĠÑģÐ¾ Ò³
Ġgj atÃ«
put er
fi ed
ĠÐ²ÑĬ Ð²
à´¦àµįà´¦ àµĩà´¹
z ÄĻ
l ant
ĠH av
Ġç ®
Ġàªµàª¿àª¶ à«įàªµ
p il
d iy
à´® à´¾à´ķàµįà´ķ
ÙĲ ÙĦ
ĠÑģÐµ Ð·
Ġav o
d em
Ġsta v
à´ ĸ
· °
ver n
ĠØ§Ø¹ Øª
ģáĢº áĢĢáĢ¹áĢ
Ġf ue
ãģı ãģł
Ġáĥ¡áĥĲáĥĸáĥĿáĥĴ áĥĲáĥĵáĥĿ
Ġà¹ģ à¸Īà¸ģ
Ġon ze
Ġk unt
Ġà®ªà¯Ĩ à®°
Ġí Ĺ
Ġàª¹ àªľ
ĠÐ¿ÑĢÐ¾ÑģÑĤ Ð¾
æĿ Ģ
if ik
Ġà¦ĩ à¦¸à¦²
Ð¶ Ð°ÑĤ
Ð½Ð³ Ð¸
Ø¯ÙĬ Ø«
Ġstud ent
f y
ĠÐľ ÐµÐ½
Ġ6 50
Ġìĺ ¬
ĠÐ¼ Ð°
ĠM L
ĠH A
ĠD ist
o ja
Ġku z
áĥĲáĥ Ł
ĠÐ» Ñĥ
Äħ z
áĥĵ áĥĺáĥ¡
àµĩ à´¾
and an
Ġwh ite
Ïĥ ÏĥÎ±
Ġãĥ Ĺ
Ġl leg
ÄŁ un
ĠÙĪ Øº
Ġ Ïī
áĢľáĢŃáĢ¯ áĢĢáĢº
à¦¬ à§ĩà¦¨
R e
us se
Ġà´¤àµģà´Ł à´Ļàµįà´Ļ
ĠÙħØ³ ÙĦÙħ
ĠÐ½Ðµ Ð±
Ġ11 9
Ġà´ķ à´Ł
uf u
ĠØ§ÙĦÙĪ Ø·
à¯ģà®¤ à¯į
éĢ ²
Ġà´Ĩ à´µ
ĠDani el
no ÅĽÄĩ
\ \
Ġg h
ĠC ro
èį ¯
ĠØ¯ Ùħ
Ġsex y
ĠE P
ĠÐĶ Ð¾Ð±
áĥĿáĥ¡ áĥ¢
áĢ±áĢ¸áĢ Ľ
×Ľ ×ª
Ġsk ol
à¤§à¥įà¤¯ à¥ĩ
ĠÙĨÙĪ Ø§Ø²
Ġh yd
iongo zi
ĠåĮ Ĺ
Ġà®® à®±
Ġàª¸ à«įàªķ
Ġà¤¸ à¤°à¥įà¤µ
ĠÐ¼ ÑĸÑģÑĤ
Ġe igen
ĠB ek
éļ Ľ
áĥĶáĥľ áĥĲ
Ġà¤° à¤ĸ
ud ia
ĠéĶ Ľ
Ġàªª àªĹ
áĥ£áĥļ áĥĲáĥĵ
à¯Ĩ à®²à¯įà®²
ĠØ¯Ø³Øª Ú¯Ø§Ùĩ
à¥įà¤ ļ
Äĵ ju
Ã¢ r
Ġì§ ģ
Ġsi i
Ġmeng h
ĠF ire
éĽĨåĽ¢ å®ĺç½ĳ
ÏĦÎµ Ïį
r Äģ
Ġques tion
Ġktor Ã½
Ġc ant
Ùİ Ø¯
ab led
ĠØ§ÙģØ² Ø§ÛĮØ´
ĠÐ³ Ðĥ
Ġcre am
ĠC F
ÉĻl ÉĻ
mal Ä±
c Ã¼
Ġàª¦ àª¿àª²
Ġor q
×Ĵ ×ľ
Ð½ÑĸÐº Ð°Ñŀ
ON T
Ð¿ Ð°ÑĢ
ÙĤÙĬ ÙĤ
à¥ĭ à¤§
Ġà°ª à°¦
ĠJ on
Ġà¤® à¤¾à¤°
ĠDa ar
ÙĴ Øª
Ùħ Ø³
uj ÃŃ
ĠÙħØ³ ÙĦÙħØ§ÙĨ
Ġà¸ŀ à¸Ļ
Ġà°¤ à°®
ĠÅ¡ o
ĠÙħØ² ÛĮØ¯
ĠB erg
ĠÐ¾ ÑĪÐ¸ÑĢ
Ġreg ion
ĠD eb
g ets
Ġàª¸ à«įàª¤
à°¿à°Ĥà°ļ à±ĩ
ĠØ¢ Ø¬
Ġy ako
Ġt áºŃp
b Ã³l
Ġáĥ¨áĥĶáĥĵ áĥĶáĥĴ
ĠÑį ÐºÐ°Ð½
à¸Ĺà¸µà¹Ī à¸Īà¸°
à© ĭ
à¨ ¤
w on
èĪ ¬
Ġdefin it
àµĭ à´°àµįâĢį
Ñĭ ÑĢ
ĠØ§ÙĦØ® Ø§Øµ
ĠvÃµ im
Ġla at
áĢľ áĢĬáĢº
Ġà´® à´±àµįà´±
ĠÐ¿Ð°ÑĢ ÑĤÐ¸
ä½ Ļ
zen ÃŃ
Ġper met
Ġnd ani
Ġad vert
ar et
ĠK il
Ġà¤¬ à¤¾à¤°
Ġsta y
ĠCh amp
ent ina
ar g
Ġà¦Ĩ à¦¦
Ġ5 000
ĠãĤ Ĥ
ĠáĥłáĥĿáĥĽ áĥļáĥĶáĥĳ
à±Ĩ à°°
åĽ¾ çīĩ
Ġà´° à´£àµįà´Ł
ĠÑģÐ² Ð¾Ñĺ
Ġg be
Ñģ Ð¸Ð¼
ĠÐ½ÐµÐ¾Ð± ÑħÐ¾Ð´
Ġmar ca
ĠR io
±áĢķ áĢ¸áĢ
ata an
ĠW y
ĠØ§ÙĦ Ø§ÙĤ
Ġv ro
Ġc en
Ġst udi
fi eld
Ġà¦¸ à¦ķ
Ġtjet Ã«r
ĠÑĩ ÑĥÐ²
à°¿à°¯ à°¾
g ev
i ÅŁ
M C
Ġvir us
Ġle vel
æĮ ī
à¸Ĥ à¹īà¸Ń
ĠØª Ø³Øª
ĠÐ° ÑĦ
ĠE conom
áĥĸ áĥĲáĥĵ
ÐµÐ½ Ð·
Ġç§ Ĵ
Ġà´Ĩ à´¯
Ġha in
Ġ35 6
Ġà¤ľ à¤¾à¤ı
Ġà°ļà°¾à°² à°¾
ĠØ³ Ø·ØŃ
ĠH ua
Ġà¤¸ à¥įà¤Ł
Ġæ· ±
ĠáĢ±áĢĢ áĢ¬áĢĦáĢ¹áĢ¸
Ġpres ident
iden ce
enc y
ĠØ¨Ùĩ Ø§
ĠTr ung
à¸· à¹īà¸Ļà¸
Ġà´° àµĤà´ª
ĠÏĥÏħÎ½ ÎŃ
å¤ Ł
Ðº Ð°Ð²
ĠØ§ÙĦ Ø¶
ĠI le
Ġc res
Ġà®ªà¯Ĩ à®±à¯įà®±
ĠÐ» ÑĸÑĤ
ĠJe an
ch ez
Ġà¤ķà¤¿à¤¸ à¥Ģ
à¤¾à¤² à¤¯
Ð¸ÑĤ Ð¾ÑĢ
Ġàª¬à«ĩàª ł
ĠÎļ Ïħ
Ġinf lu
×Ļ×Ķ ×Ŀ
ÙĪ Ùĥ
Ġà´ķà´´ à´¿à´ŀàµįà´ŀ
Ġàª¥ àª¶à«ĩ
Ġà¤ħà¤ª à¤¨à¥Ģ
Ñĩ Ð¸ÑĤ
h ti
ÏģÎ¿ ÏĨÎ¿
Î¼ÎŃÎ½ ÏīÎ½
larÄ±n da
Ġs Ä±
áĢ±áĢ¡ áĢ¬áĢĦáĢ¹
×Ļ×ª ×Ļ
S l
Ġon i
ĠJ ed
áĢĳ áĢ¬áĢ¸
à¸£à¸¹ à¸Ľ
à¦¾à¦ ł
ET A
ĠÐ¼Ð¾Ð¼ ÐµÐ½ÑĤ
Ġz aj
Ġmak an
ĠV ia
ï¼ Ł
Ġå¸ Ĥ
Ġyo x
ëį Ķ
ĠØ¥ Ø°Ø§
Ġsc roll
Ú¯ Ø°
ÉĻs inÉĻ
ĠÐºÑĥÐ»ÑĮÑĤ ÑĥÑĢ
ĠK ry
ĠK ami
à¹īà¸Ńà¸¡ à¸¹à¸¥
à±ĩ à°Ĥà°¦à±įà°°
ot y
ĠÑĦ Ð¾ÑĢ
ĠÐ´Ð¾Ð» Ð¶
áĢ½ áĢļáĢº
à¸ Ĳ
Å¡ en
ĠáĢļ áĢģáĢ¯
ĠÏĮ ÏĩÎ¹
ĠR uss
×ĵ ×ķ×ª
l ast
S c
Ġáĥł áĥĶáĥĴ
ĠÚ© ÙĪØ¯
ĠáĢ¡ áĢ±áĢ»áĢģ
Ġà´® à´¤
ĠS Ã£o
ti ce
ep h
ĠÑĦ Ð°
ĠÐĴ Ð»Ð°Ð´
Ġgrand es
Ġem b
Ġal ways
ĠR ock
ĠE ss
Ø®Øµ Øµ
ĠØ§ÙĨØ¯ Ø§Ø²
ĠM ap
ĠÒ³ ÑĥÒĽÑĥÒĽ
ĠK B
Ã¶ ld
ĠÐ» Ð¸Ñĩ
ĠÎ¼ÎŃ ÏĩÏģÎ¹
à´¿à´ķàµįà´ķ à´¾à´¨àµįâĢį
×ĳ×ķ×ĵ ×Ķ
ĠÙĨ Ø±Ùħ
Ġàª¥àª¯ à«ĭ
Ġ198 9
ĠàªĨ àª¶
ĠÙĩ ÙĦ
Ġgrup o
à«ģàª ¬
Ġg ob
à¸«à¸Ļ à¹īà¸²à¸
Ä«t Äģ
ĠÑĢ Ð¾Ñģ
ab ile
Ġáĥĵ áĥłáĥĿ
Ġlang is
Ġlitt le
æĢ ¥
Ø§Ùĩ Ùħ
Ġto ho
ĠT I
} ,
Ġy ur
Ġb Ã«rÃ«
Ġ) "
é ¨
ç¾İ åĽ½
Ġàªľ àªĹ
Ġs la
áĢ¼ áĢĲáĢ¹áĢ
AT ION
eta an
Ġm im
è¡ Ĺ
Ġproduc ts
Ġdo ar
elij ke
Ġç ²
Ġde ux
Ġà¦¨à¦¿à¦°à§įà¦¬ à¦¾à¦ļ
à«ģàª ĵ
×¨×Ĳ ×Ķ
ĠÐºÐ» ÑĥÐ±
Ġc á»©
Ð¸ÑĤÐµÐ» Ð½Ð¾
l oc
ev i
Ġåħ ³
ĠØ§ÙĦ Ø±ÙĬ
Ġle ur
Ġb Ã¶r
Ð Ļ
el and
ĠV ed
onav irus
ĠF al
à®¾à®£ à¯įà®Ł
Ð¶ Ð¾
Ġàª¬ àªĤàª§
ë³ Ħ
K S
Ġh ale
eluj ara
Ġáĥª áĥĶáĥľáĥ¢
Ġà®ħ à®£
ĠÐ´ÐµÑĢ Ð¶Ð°Ð²
Ġàªµ àª¿àªµ
ĠÃ¼ ks
Ġz g
Ïĥ Î¹Î¿
ĠÐ¼ Ð¾Ð½
å ´
ÑĸÐ»ÑĮ ÐºÐ¸
àª°à«įàª ¤
Ġàªľàªµ àª¾àª¬
Ġd w
áĢ½ áĢĦáĢ·áĢº
àªĤàª ľ
ĠÎ¼ Î®
Ġì¶ ©
ĠáĥĶ áĥľ
Ġk ubwa
Ġd b
Ġà´µ à´²
áĢħ áĢ¥áĢ¹áĢ
Ïī Î¼Î±
ÏĦÎµ Ïħ
Ġà¤ª à¤¾à¤°
ĠÂ ¢
ĠC ir
à®² à®®à¯į
Ġm ine
Ġet o
ja w
Ġac este
íĽĦ ê¸°
åĪ ¥
Ð½Ñĸ ÐºÐ°
Ġter hadap
Ġ[ ...]
áĢŃ áĢķáĢº
amis eks
Ġde al
ë¡ ¯
áĥĵ áĥĺáĥľ
à¦ ĥ
Ġì¢ ħ
ĠK re
è®º åĿĽ
ãģ«ãģ¤ ãģĦãģ¦
à°°à±įà° ®
IK A
ĠÐº ÑĥÑĢÑģ
ĠÎ² ÏģÎ¯
Ġbes ch
à¥įà¤ ŀ
Ûģ Ø¯
Ġàª®à«ģàªĸ à«įàª¯
Ġprim era
Ġby g
amm ad
Ġë ł
Ġur m
áĢĻ áĢļáĢº
Ġun ing
Ġpr akt
ĠAn h
Ġqual ity
ëĦ ¤
ĠR on
áĥĺáĥ Ń
ĠS W
Ã¡ va
Ġm ec
66 6
ĠÐ´ÐµÐ¹ ÑģÑĤÐ²
è¿ Ķ
Â ½
±áĢĲáĢ¼ áĢĢáĢŃáĢ¯
m ine
Ġy Ãªu
Ġob jet
áĢ¬ áĢķ
à¹Ħà¸¡à¹Ī à¹Ħà¸Ķà¹ī
Q uer
C L
ĠÐ¾Ð²Ð° Ð°
Ġt ussen
Ġqu esta
áĢķáĢ¹áĢ ħ
Ġal am
Ð°Ð½Ð¸ ÑĤÐµ
ĠÐºÑĢ ÐµÐ´
ĠÐ¸ Ð¶
Ġv áº«n
Ġr ay
Ġo pl
ĠagåĽ½éĻħ åİħ
up u
ķ áĢŃáĢ¯áĢĦáĢ¹áĢ¸
Ģ áĢº
ĠâĢĿ ãĢĤ
Ġmol to
Ġb ate
à¸Ļà¸ ļ
×Ļ×ª ×Ł
ass er
Ġàªľ àª¾àª¹
ĠÛ ³
ĠØ´Ø± ÙĥØ©
àª¾àª §
Ġíĸ ī
×Ļ×ł ×Ļ
ĠáĥĻ áĥł
ĠÑĩ ÐµÐ»
ĠÐ¾ Ð³ÑĢ
Ġáĥ¡ áĥĺáĥ¢
Ġgr und
ĠH vis
Ġáģģáģ īáģ
ãĥª ãĤ¢
Ġć Ĉ
Ġå» º
áĢĻáĢ» áĢ¬áĢ¸áĢĢáĢŃáĢ¯
Ġw eg
Ġh orm
Ø§Ø¦ Ø¹
th ers
Ġh r
áĢŀ áĢľáĢŃáĢ¯
ĠÐ² Ð°Ð¼
Ġmel alui
imit ed
ĠÐ¿Ð¾Ñģ Ð»Ðµ
ĠVo or
à®¾à®¤ à¯įà®¤
ĠáĢķ áĢ¯
ĠØ¨Ø± Ø±Ø³ÛĮ
ĠÐ¼ Ð¸Ð»Ð¸
ĠÎµ Î¼ÏĢ
ÐµÐ½ÑĤ Ð°ÑĢ
ĠÙħØ¹ ÙĦÙĪÙħ
ĠÑĤÐ¾Ð¼ Ð¾Ð½Ð¸
Ġth am
éļ ľ
Î» ÏĮÎ³
Ġé¦ ĸ
åº ı
à°¿à°ª à±ĭà°¯
st vÃŃ
áĥĲáĥľ áĥĺáĥ¡
àª¾àªĩ àª¨
U H
ĠÐ¡ Ðµ
áĢ¾ áĢĲáĢº
ÑĸÐ´ Ð¾Ð¼
lig en
áĢĨ áĢ¶áĢ¯
à¸ª à¸´
Ġá»į rá»į
àµģà´ ·
Ġs ena
Ġ×Ļ ×ĵ
ĠÎ» ÎµÎ¹ÏĦÎ¿ÏħÏģÎ³
ĠO le
Ð°Ð½ Ð´Ð°
ti ka
ĠG Ã¼n
ÛĮØ¯ Ùĩ
he j
Ġà¦¬à¦¿à¦ ¦
Ġa a
Ġê± ´
Ġàª¸àªĤàª ¸
èĦ ±
ÑģÐµÐ´ Ð°ÑĤÐµÐ»
Ġe ch
àª¿àª Ŀ
ĠçĶ ·
Ġt all
àªĤàªĹà«įàª° à«ĩàª¸
Ġf eta
Ġd j
áĢ¡ áĢ±áĢ¬áĢĦáĢº
Ñ Ļ
Ġç ¼
à°°à±įà° ¥
ģáĢº áĢĦáĢ¹áĢ¸
ĠæĿ İ
Ġle hen
Ġis tif
uks ia
ĠÛĮ Ø¹
ĠÐ¸ Ð´Ðµ
id ed
Ġb ont
ĠN acional
Ġà°ªà±įà°° à°ľ
áĢŃ áĢĲáĢ¹
Ð³ Ð¾ÑĤ
ĠÐ¸ Ñİ
Ġen f
Ġa inda
Ġcat al
Ġac um
à¸±à¸Ļà¸ Ķ
ĠAs ia
à¯Īà®ļ à¯į
l end
ĺ áĢ°áĢ¸
Î¸Î· ÎºÎ±Î½
ut os
el eri
ĠáĢľ áĢĻáĢ¹áĢ¸
ĠÙĨ Ø¯Ø§Ø±
ĠN I
Ġë¨ ¹
Ġtel jes
à°¿à°ķ à°¾à°°
×Ķ ×ľ
ob ra
Ġpo is
ĠÎ´Î· Î¼Î¹Î¿ÏħÏģÎ³
ÅĤ am
Quer y
Ġexperi ence
Ġdz ie
ĠÚ©Ø± ØªØ§
ĠÐ¾ Ðº
Ġà¦ıà¦® à¦¨
ĠS B
ãĥĥãĤ¯ ãĤ¹
Ġs uh
Ġand ra
æĥħ åł±
Ġàªľà«ĭ àªµàª¾
Ġi yi
Ġaw on
ÑģÑĤ Ð¾
Ġàª¬àª¹ àª¾àª°
ĠÚ© Ø¨
ĠW omen
Ñĩ ÐµÑĤ
ĠDis c
Ġg ep
Ġà¹Ģà¸Ľ à¹ĩ
Ġà§ ¬
Ġtah u
Ġper quÃ¨
Ġm ert
à¸¡ à¸²à¸¢
Ġ11 3
±áĢ »áĢĻ
ĠØ± Ø§ÛĮ
Ġpartic ular
à«įàª¯ àª¾àª¨
ti mi
ĠâĪ Ĵ
ĠÙģ ÙĪ
Â ±
ĠÐ¾ Ð½Ð°
ĠÎ³Î¹Î± ÏĦÎ¯
Ġ] ;
ÑĥÐ± Ð»Ð¸ÐºÐ°
ĠØ³ ÙĨØ¯
ĠÄ° s
ØŃ ÙĬ
×Ļ×ľ ×ķ
ÃŁ en
Ġàª¤à«įàª° àª£
Ġmat ch
ëĵ¤ ìĿĢ
Îķ ÎĽ
Ġà´İà´¨àµįà´¨ àµį
ĠE c
Ġum um
Ġ000 0
áĥĺáĥľ áĥĺáĥ¡
áĢĶáĢº áĢ¸áĢ
Ê» ano
en es
Ġ, ...
AT E
áĥĲáĥł áĥĿ
à¤ª à¥Ģ
Ġà¦Ł à§įà¦°
Ġj eden
Ġh Ã´
Ð°Ð½ ÐµÑĤÐ¾
d 88
Ġà¦¬à¦Ľ à¦°
ĠÎľ Î±Ïģ
ĠMa e
å¼ ·
end ar
Ġn ego
áĢĻáĢºáĢ¬áĢ¸ áĢĢáĢŃáĢ¯
ÐµÐ» Ðµ
Äį et
ĠØ§ÙĨÛģ ÛĮÚº
Ġ) ØĮ
ufac tur
ik on
T ime
Ġà°¸à°¿à°¨à°¿à°® à°¾
ĠÙĬ ØªÙħ
ĠØ±Ø³ ÙĪÙĦ
Å¡ te
ĠÑĤÑĢ ÑĥÐ´
Ġk Ã«s
åį Ī
ĠìĻ ¸
Ġé ĥ½
Ġáĥĺ áĥª
Ġà¦ª à§Ĥ
Ġt Ã½
Ġf ew
ĠÚ©ÛĮ Ùģ
éĿŀ å¸¸
à© ±
Ð¼ ÑĸÐ½
est ro
ab ili
ĠÐ¿ÑĢ Ð°Ð²Ð°
Ġ ä¹ĭ
ĠáĥĲáĥĽ áĥĺáĥ¡
Ġà¹Ģà¸ĩà¸´à¸Ļà¸ Łà¸£à¸µ
ĠB lo
ãģĮ ãģĤãĤĭ
à¯Ĩ à®©
ÛĮ ØŃ
ÑĬ Ð¼
EM A
ĠÑģÐ°Ð¹ ÑĤ
æīĭæľºå®¢æĪ·ç«¯ ä¸ĭè½½
Å¾ ete
¸ à±įà°¥
w ag
j alan
áĢ®áĢ¸ áĢĢ
ĠâĢĻ .
Ġà°ļà±ĩà°¸ à°¿à°¨
Ġàª¸àª® àªľ
à¤µ à¤¾
Õ¶Õ¥ÖĢ Õ«
Ġà° Ĳ
ĠÑħÐ°ÑĢ Ð°ÐºÑĤÐµÑĢ
Ġgr ad
Ġf ÉĻ
à§ģ à¦¦
ÑģÑĤ Ð¸ÑĤÑĥ
ĠàªĨàªµ à«įàª¯àª¾
ĠÉĻs as
Ġya xshi
ç½ĳ é¡µ
N C
ãĤģ ãģ¦
ĠC ali
à±įà°° à±Ĩ
ĠØ ¦
lig ere
ĠçĻ ½
Ġ×Ķ×ŀ× §
ĠÐ¾Ð±ÑĢÐ°Ð· Ð¾Ð²
ĠJ ose
ĠÐ¼ Ð°Ð·
Ġmie js
Ġiden tif
sk ej
Ġà¦¬ à¦¾à¦¸
Ġter ror
Ø¦ Ø±
uny ai
ab el
Ġprez ent
Ġma ana
Ð°Ð´Ð¸ Ð³Ð°Ð½
ĠÙģ Ø±Ø¯
ĠØ§ÙĦØ¨ ÙĦ
Ġd ÉĻr
as ter
ĠÐµÐº Ð¾Ð½Ð¾Ð¼
Ġva in
ĠSM S
Ġ- %
Ġ( $(
Î» Î¯Î±
st Ã¥
Ġàª°àª¹ à«įàª¯à«ĭ
ĠØ§Ø¶ Ø§Ùģ
Ġth á»§
Äĵ d
z w
ĠØª Ø§Ú©
Ġt Äĥng
Ø³ Ú©
c ast
ĠÙģÙĬ ÙĩØ§
Ðł ÑĶ
Ġdon de
Ġdes te
Ġex press
Õ¸ÖĤÕ©Õµ Õ¡Õ¶
ĠD al
à¸£à¸§ à¸Ī
à¤Ĥà¤¤ à¥įà¤°
à¤¹ à¤°
ud es
Ġáĥ¡áĥĲáĥ¥áĥĲáĥłáĥĹáĥķáĥĶáĥļ áĥĿáĥ¨áĥĺ
Ġrec omm
Ġara b
ÐµÐ´ Ð¾Ð½
sh ir
ÑĬ Ð²
at el
ãĤĪãģĨ ãģª
val u
Ġv áºŃy
Ġni ch
Ġm wan
ÑĨ ÑĸÐ²
ĠÙĪ Ø¶Ø¹
à¸ª à¸¸
ĠØ§ÙĦ Ø§Ùħ
Ġw am
áĥĺáĥ£áĥ ļ
ĠáĥĹáĥĲáĥľ áĥĲáĥĽ
ĠR ak
à®±à¯įà®± à®¿
ĠØ§Ø¨ Øª
ĠÑĤÐ° Ò³
ĠkÃµ ik
ĠÐ£Ðº ÑĢÐ°
ÑıÐ² Ð°Ð½Ðµ
Ñı Ñī
ia z
ĠáĢĽ áĢĢáĢº
ĠÑĤ Ð°Ð¹
Ġch ange
Ġ19 80
ĠT Ã¤
ãĥ¼ãĤ ¿
ort en
ĠÑĩ Ð°Ð»Ð°Ð²
áĢ¼áĢ¸áĢ ±áĤı
ĠàªŃ àª¾àªľàªª
Ġs ko
ĠS R
ĠI a
ar ma
abil ity
Ġà¦ķà§ĭà¦¨ à§ĭ
ĠÎ£ Î¥
Ġcon ten
ĠÙĦ ÛĮØ§
à¥ĩà¤ ¬
lo Å¾
Ġàªª àªŁ
Ġmember ikan
Ġe acute
ĀĀĀĀĀĀĀĀĀĀĀĀĀĀĀĀĀĀĀĀĀĀĀĀĀĀĀĀĀĀĀĀ ĀĀĀĀĀĀĀĀĀĀĀĀĀĀĀĀĀĀĀĀĀĀĀĀĀĀĀĀĀĀĀĀ
ÙĪÛĮ ÛĮ
Ġg t
ÙĴ Ø±
Ð¾Ðº Ð¾
tic al
Ġë° ķ
ĠÙģÙĬ Ùĩ
ĠÑħ Ð¾Ñĩ
Ġmac am
Ð»Ð¸ Ð½
P ress
Ġàª¦àª° à«ĩàªķ
Ġ ā
Ġà¦¬ à§ĥ
Ġ×Ľ ×ª
ĠÎĶÎ· Î¼Î¿
ĠÃŃ gy
ĠHa ir
Ð°ÑĤ Ð°ÑĢ
m ag
Ġàª¤à«ĩàª® àª¨à«Ģ
ĠØ¯ ÛĮØª
3 D
á»« ng
à«ĩàª ¯
×¨ ×ķ
Ġäºļæ¸¸ ag
Ġan c
à¥Ģ à¤¤
Î¸ Î±
Ġà®ħ à®¤à¯ģ
ĠÐ¡ Ð¾ÑĦ
Ġh izo
ìķĦê°Ģ ìĶ¨
Ġded ic
Ġà¤µà¤°à¥įà¤ ·
éģ Ĺ
Ð¾ÑĢ Ð¾Ð²
n or
Ġàª° à«ĭàªľ
Ġà¤¹à¥ĭ à¤¤à¥Ģ
àµĢ à´¸
Ð¾ÑģÑĤ ÑĮ
H otel
Ġà°ľ à°¨
ĠÅ ļ
à¦¬ à§įà¦¯
å² Ľ
Ð½Ñĸ ÑģÑĤÑĢ
Ġåį ļ
Ġc _
am iz
éĢļ è¿ĩ
à¹Ħà¸§ à¹ī
ĠÃ¸ nsk
Ġped ig
Ġcar acter
ĠK amp
ì »¤
à¯ĭ à®ķ
ĠØ¹ Ø¯Ùħ
ĠÐ² ÑĬÑĢ
ĠÃ¶ l
ĠAn o
ĠE qu
áĥ£áĥ ª
F L
Ġà°¦ à±ĩà°¶
Ġsu re
ĠYou Tube
à¤¾à¤ļ à¥įà¤¯à¤¾
st ÉĻ
Ġ×ĳ ×ķ
ãĤĪãģĨ ãģ«
Ġtrans fer
ĠP ili
Ġê² Ģ
ĠÐŁÑĢ Ð°Ð²
Ġja un
ĠPro bl
à¸§ à¸´à¸ķ
à¦¾à¦² à§ĩà¦°
ĠáĢħ áĢĢ
ĠàªĹ àª£
ĠGl obal
Ġà¦ħà¦Ń à¦¿à¦
ï¿½ï¿½ï¿½ï¿½ ï¿½ï¿½ï¿½ï¿½
áĥ£áĥ Ļ
Î±Î¹ Î¿
ĠáĥĽ áĥĶáĥł
ĠØ§ÙĦØ³ ÙĦØ§Ùħ
ĠØ§ÙĦØª Ø¬
ĠCh in
Ġmana Ê»o
à°¬ à±įà°¬
Ø±Ø§ØŃ ÛĮ
v n
Ġn ini
Ġd ÃŃas
as in
ĠàªĨ àª®
ĠÑģÐ¾ ÑĨÐ¸
àªµ àª¾àª¥à«Ģ
v d
ul ia
Ġes et
ĠM p
Ð´ Ð¸Ð²
Ġf lu
à°¾à°¦ à±ģ
àª¿àª¯ àª®
ãģ® ãģĭ
ĠÙĪØ²ÛĮØ± Ø§Ø¹
Ġy Ã¼z
val t
Ġà¤¸à¤ķ à¤¤à¥ĩ
Ġa ika
¬ àªĤàª§
Ġver di
Ġt Ã¼
ÙĬÙĨ ÙĬ
Ö µ
ĠÎ³ ÎµÎ½
Ġl ett
ĠìĬ ¬
ĠÚĪ Ø§Ú©
Ġp ack
à¯įà®ķ à®¿à®±
ĠÙģØ± ÙĩÙĨÚ¯
ØŃ Ø§Ø¯
Ġsept ember
iz en
ĠCent ro
Ġç ©
ĠÃ¼ l
× ³
ĠA ri
Ġà°® à±ģà°
Ġl ater
ĠC AR
ãģĹ ãģĭ
à«ĩàª® à«įàª¬
ĠÐ¶ Ð¾Ð¹
ä¸Ń çļĦ
áĥĺáĥ¢ áĥĿáĥĽ
Ġà¦¦ à§ĩà§Ł
Ġa ÅŁ
ise en
Ġë £
Ġger Ã§ek
ĠØ· Ø±ÛĮÙĤ
Ġb asi
k ah
ĠÐ» Ð¸ÑģÑĤ
Ġka z
Ġf ine
ĠGre at
33 3
Ġbl iver
Ð³ ÑĥÑģÑĤ
ĠØ¬Ø§ÙĨ ÛĴ
ĠÎµ Î»Î»Î·Î½
Ġmon itor
ĠB ug
ÏĢÎ¿Î¹ Î®
Ġà¸Ħ à¸¸à¸ĵ
ĠØ´ Ø±ÛĮÙģ
áģ¾áĢĢ áĢ¬
à¹Ģà¸£à¸µà¸¢ à¸Ļ
ik er
S D
ĠÐºÐ¾Ð½ ÑĨ
Ġdint re
Ġë³ Ģ
1 50
Ġ×ľ ×ł
ç¬ ĳ
à´Ĺ àµįà´°
orsz Ã¡g
leg g
is l
Ġåķ Ĩ
ĠÐ¼Ð¾Ð¶ ÐµÑĤ
Ġi i
áĢĶáĢº áĢ¸
áĢ¸áĢ±áĢ Ľ
Ġpor ta
Ġis so
Ġbre ak
Ġaut hor
ĠIt ali
à¤¯ à¥ĭà¤Ĺ
ĠáĥĹ áĥĺáĥĹ
ĠØ¹Ùħ Ø±Ø§ÙĨ
ĠØ´ÙħØ§Ø± Ùĩ
áĢ² áĢ¼
Ø´ Ø´
Ġy ÉĽ
Ġpriv ate
Ġnd aj
Ġm usi
Ġk ena
Ø±Ø¨ ÛĮ
AL E
ĠÑĢÐ°Ð±Ð¾ÑĤ Ð¸
ĠC ard
Ġ×Ĵ ×ĵ
Ġne ch
Ġes o
Ġdec or
à¦ ģ
ĠE ast
æĸ¹ å¼ı
ĠÐ¾ ÑīÐµ
æŁ Ĳ
ti que
end es
ĠO x
à®¿à®µ à¯ģ
Ġmu á»ĳn
ĠB C
qu i
E n
ĠáĥĽ áĥĺáĥķ
Ġà´ħ à´±à´¿à´¯
Ġà°® à±Ĥà°
Ġpi em
à¦Ľ à§ĩà¦¨
ĠÐł ÑĶ
ĠArtic le
à¸ģ à¸§à¹Īà¸²
Ġê²ĥ ìĿ´
Ġqu ed
Ġkr on
à¸ľ à¸¡
Î³ Ïĩ
íİ ĺ
á¹£ i
à±ģà° ¬
ĠÐ¸Ð³ ÑĢÐ°
ĠC OV
ert as
Ñĩ ÑĭÐ¼
Ġáĥŀáĥĺáĥłáĥķ áĥĶáĥļáĥĺ
ĠáĢ¡ áĢĢáĢº
áĥł áĥĶáĥĳáĥĺ
ĠÃ ±
U ST
Ġì¶ľìŀ¥ ìĥµ
ĠI L
Ġàª¸ à«Ĥ
Ġpre g
Ġp ÄģÊ»ani
à¤¾à¤Ĥà¤ļ à¥įà¤¯à¤¾
ÃŃ an
Ã¤ ev
Ġíķĺ ëĤĺ
à´¤àµįà´¤ à´¿
ÄĽ r
Q L
N I
Ġ É
áĥĺ áĥĶáĥłáĥĹ
Ġà°µ à°¸à±įà°¤
Ġad am
áĢĦáĢºáĢ¸áĢ Ĳ
Ġà´µ àµĩ
Ġ×Ĳ ×Ļ×©
èĤ ī
ĠØ§Ø¨ ÙĨ
ëĵ ±
ä» ķ
áĢķ áĢ½áĢ²
ÑįÐ½ Ð½Ðµ
Î¼Î² ÏģÎ¯Î¿Ïħ
Ġfamil ia
Øº Ø§Ø²
ĠÑĢ Ð°Ð²
ĠÑĥÐº ÑĢÐ°ÑĹÐ½
Ġà¤¹à¥ĭ à¤¨à¥ĩ
m id
Ġè ¢
ĠÐĳÑĬÐ»Ð³Ð°ÑĢ Ð¸Ñı
ĠÏĢÏģÎ¿ Î²
Ġl ista
áĥ£áĥļ áĥ¢
ie z
Ġà¤® à¤¾à¤¨
Ġmi iran
ent r
ĠÙħÙĨ Ø¸
ĠÙħ ØªØ±
Ġ17 5
ap er
Ġà´® àµĨ
Ġj ij
Ġhu is
çĭ ¬
Ø§Ûģ Ùħ
×ķ×ĳ ×¨
Ġest Ãł
áĥķ áĥĺáĥĵ
Ø¯ Ø¯
ÅĤ Ã³w
Ġg ift
ĠMin ist
ĠØµ ÙĪØ±
Ġinter ven
Ġsol ic
éĢ Ģ
´ë ı
ĠÐ¼ ÐµÑħ
áĢĬáĢ· áĢ¹
Ð¾Ð²Ð° Ñı
Ä« st
Ġtaraf Ä±ndan
ÅĽ li
IT A
Ġà¦¶ à§įà¦°
Ġfut bol
Ġà´ª àµĤ
Ġha qq
ĠCon st
ë¦ °
ãģ Ĳ
Ġter us
Ġt Ãłi
Ð½Ð¾ ÑĪ
Ġqu er
áĢļáĢ¹áĢ ħ
Ã± as
Ġs á»ĳng
ĠH els
à¦°à§įà¦ ·
Ġà¸ģ à¸¥
ĠpÃ«r gj
×Ļ×ł ×Ļ×Ŀ
alit Ã©
ag gi
Ġh ÉĻm
Ġàªľàª¾àª¹ à«ĩàª°
ĠÐ´ Ð¸Ð³
Ġh ant
ÙĬÙĨ Ø§
Ø¬ Ø§
Ġmas uk
à« ħ
Ġbul an
áģ ĩ
on c
Ġà¤ª à¥Ī
ĠEn tre
àª¿àªĤàª ¹
he a
n ar
ĠåŃ ¦
Ġàª¦àª° àª®
ĠÕ¥ Õ¶
áºŃ u
Ġmic ro
Ġmate ix
ĠáĢĻ áĢ°
ĠÐ´Ð² Ðµ
ĠÐ² ÐºÐ»ÑİÑĩ
àªķ à«įàªķ
×Ļ×¨ ×Ļ×Ŀ
Ġà¤®à¥įà¤¹ à¤£
ĠqÉĻd ÉĻr
ĠSE O
Äį u
® áĥĶáĥĵ
ti j
6 00
ĠÑĤ Ð¾Ð¼Ñĥ
Ġp Ã¡r
Ġf ul
à´¦ àµĩà´¶
Ġfor ts
ÏĢ ÎŃ
Ġj ot
Ġgo ing
íķĺ ì§Ģ
ÏĢ ÏĦ
Ġst il
áĥł áĥĲáĥĵ
ĠðŁ İ
Ġà®ķ à®¿à®°
ĠK v
agi an
ĠX xx
Ġ×ĸ ×ķ
Ġë¨ ¸
Ġ×ł ×ķ×¡
ell y
ĠØ¬Ùĩ Øª
Ġx ar
Ġm oney
ÐºÑĥ Ñİ
Ġn eden
Ġd entro
Ùħ ÙĪÙĨ
b ev
Ġ×Ĳ×ķ×ª ×ķ
Ð¿ Ð¾ÑĢ
Äħ d
Ġl if
Ġen am
çīĪ ä¸ĭè½½
un ud
ĠD od
à¥Ĥ à¤¸
Ġmeng en
à®¾à®µ à®¤à¯ģ
àªĹ à«įàª°
Ġeg it
ÚĪ ÛĮØ§
M B
ĠÐĴ ÐµÑĢ
ĠD omain
ad il
ĠØ¨ ÙĨØ§
ĠS ony
áĥĶáĥļ áĥĺáĥ¡
ĠÏĢÏģÎ¿Ïĥ Ïī
Ġg in
Ġg eme
ÑĥÑĶ ÑĤÑĮÑģÑı
Ġà¥ §
Ġng oe
Ġmin im
ÏĦ Î¶
Ã¡n d
Ġto ate
Ġpar k
ĠØ¯ ÙĪÙħ
Ġan te
ĠR en
el Ã©s
Ġíķĺ ëĬĶ
Äģ p
Ġhaq ida
ill es
ĠáĥĲáĥ¡ áĥĶ
Ġáĥ£áĥ ¡
Ġr asa
çł´ è§£
äº§ ä¸ļ
ĠMa is
æĹ¶ åĢĻ
áĢ® áĢĢ
Ġà¤¹à¥ĭ à¤¤à¥ĩ
ĠØ§Ùħ Ø±ÙĪØ²
Ġtri á»ĥn
Ġpk 10
ëŁ ¼
ik or
g or
ĠÐ» Ð¸ÑĪ
ĠÃ¼z rÉĻ
Ġut an
ĠG h
æ´ ¥
áĥĲáĥļ áĥ®
Ġlok ela
ij o
Ġ\" :
ĠT osh
à¶ »
ĠØ® Ø±
Ġav t
Ä Ĳ
Ġ×¨×Ĳ ×©
Ġdur ing
c are
Ġter ug
ĠBM W
à¸±à¸ Ĳ
Åĳs Ã©g
t á»į
Ġ×ŀ ×ľ
ĠÎºÎ¬Î½ ÎµÎ¹
Ġp esso
Ġkra j
ĠCent re
ĠíĶĦ ë¡ľ
Ġa aye
ĠBo x
å½± éĻ¢
àª¿àª¯ àª¾àª¨
ĠÑĥ Ð¶Ðµ
Ġroz hod
Ġm ug
Ġac tion
ç £
à°¬ à°¡
Ġk Ã©r
ĠBr and
à¸ŀ à¸±à¸ģ
Ġn ici
ĠáĥĴáĥĲáĥĽ áĥĿáĥª
Ġn ito
Ġb Ãłi
Ġn Ã¡m
Ġc oc
åĲ «
×Ĺ ×Ķ
ĠÑĤ ÐµÐ¿
Ġt aj
Ð İ
àª¦ àª¾àª°
J I
Ġhu yo
ĠD im
Ñį Ð´
Ġà¦¦ à§ģà¦ĩ
Ġli Ãªn
à¯Īà® ª
om in
ig u
am ini
Ġr an
ĠK au
ĠC ond
Ġh ed
ĠA gr
Ġ. ).
íĮ ħ
Ð¾Ð¼ Ð°Ð´
Ġàªĸ àª¾àª¤
Ġbal at
éĤĢè¯·çłģ _
Ðŀ Ð¢
Ġtot s
Ġgen om
Ġda Å¾
à¸±à¸ Ĵ
Ġè Ļ
Ġn k
Ġb ine
ÑĥÐ»Ñı ÑĢ
Ġk la
Äģci ja
K O
Ġcu al
à¦¾à¦¨ à§ĭ
ĠÒĽÑŀ Ð¹
ä¸Ģ ç¯ĩ
áĥłáĥ £áĥļáĥĺ
Ã© ge
Ġpost ed
Ġmet al
Ġà´ Ĳ
ĠÑį Ð´Ð¸
à¸ ĳ
v Ã©ny
Ø¯ Ø§Ø´Øª
Ñħ Ð¾Ð½
w h
Ïģ ÏĨ
ĠÐ¾ ÐºÑĤ
Ġper nah
çŁ Ń
ĠÐ³ Ð»ÐµÐ´
ĠL ist
áĢħ áĢ¬áĢ¸
ag ne
Ġæĺ İ
ĠáĥĽ áĥĲáĥ¦
Ġà¹Ģà¸¥ à¹Īà¸Ļ
Ġr Ã©g
Ùİ Ùĳ
Ġl t
áĥłáĥĹ áĥ®
ub re
is isa
Ġa q
ĠK Ã¶
Ġ12 7
r r
Ġáĥľ áĥĲáĥĻ
Ġetm ÉĻk
ëŁ ī
çĽ¸ åħ³
Ãĵ N
il ishi
ĠáĢ¡ áĢ±áĢĽ
ÑĥÐ¼ Ð°Ð½
Ġà°¸ à±įà°ª
ĠÄį as
Ġinform aciÃ³n
Ġà¦Ĩà¦Ĺ à§ĩ
Ġac ces
Ð»Ð¸ Ð²Ð¾
ÐµÐ½Ð¸ Ñİ
Ð´ ÐµÐ½
kan Ä±
at Ä±
à§įà¦ §
f te
Ġt Å¡o
Ġim pos
Ġph otos
å¤ ı
à¥ī à¤²
Ġà¸ Ŀ
ĠNa ch
est re
a ut
ane iro
Ġìĺ¨ ëĿ¼ìĿ¸
ĠÐµ ÑģÐ»Ð¸
Ġfoyd alan
Î» Î¹Î¿
Ã¡ tor
Ġà®ļ à¯Ĥ
áĥĶáĥĳ áĥĶáĥĳáĥĺáĥ¡
áĢĻáĢº áĢ¬áĢ¸áĢ¡
Ð°Ðº Ð¾Ð²
Ġë² Ī
Ġnjer Ã«z
ã ħ
×Ļ×¤ ×Ķ
id ge
æ´ ¾
áĢģ áĢĶáĢ¹áĢ¸
à§ĭ à¦°à§įà¦
à¦¾à¦§ à§įà¦¯à¦®
Ġà´ķàµįà´ °
ĠØ¨ Ø§Ø¨
Ġn one
Ġ ä¹ħä¹ħ
áĢľ áĢĢáĢ¹áĢ
rit o
Ġà¤¸à¤® à¤¯
Ġd Ã¶vlÉĻt
ÑĦ Ð¸Ðº
ĠÙĩÙħ Ø±Ø§Ùĩ
Ġw ote
Ġth Æ°Æ¡ng
ĠKr ist
í ļ
P T
Ġà¦ħ à¦¸
Ġà¤¹ à¥ĩ
ĠÙĪ Ø·
ĠÐ¶ Ð¸ÑĤ
à®¿à®ªà¯įà®ª à¯ģ
Ġà¤¬à¤¹ à¥ģà¤¤
ĠÚ© Ø¯
ĠÐ´Ð¾Ðº ÑĥÐ¼ÐµÐ½ÑĤ
ĠE u
Ġàª¸ àª¾àª°
à´ªàµįà´ªàµĭ à´³àµįâĢį
Î¹ ÏİÎ½
ĠÂ ¥
Ġn ila
à¸§ à¸Ļ
Ġp ant
ĠC ore
is p
Ġd all
ĠA W
Ġ Ā
à¹ģ à¸£à¸ĩ
ÑĥÐ¼ Ò³
ĠTel ugu
è³ ¼
Ġ×ĺ ×ķ×ĳ
Ġc ro
ĠCop yright
Ø² Ø¨
Î¾ ÎµÎ¹ÏĤ
Ġibex_ room_grid
Ùĩ ÙĦ
z uk
Ġà°ħ à°Ĥà°Ł
Ġlo ad
Ø¹ ÙħÙĦ
ĠáĥĴáĥĲáĥľáĥª áĥ®áĥĲáĥĵ
ĠØ¢Ø² Ø§Ø¯
Ð² Ð¸ÑĤ
esi Ã³n
Ġà´ķ à´¾à´²
Ġàªª àª¸
Ġf oll
Ġà¹ģ à¸Ĺ
Ġà°ľ à°°
Ġp ari
ĠSan ti
Ġà¤µ à¤¾à¤²à¥ĩ
Ġsp i
er ar
æľ Ŀ
çĶ º
is ing
, ,
Ġàª®àª¾àª £
Ġt amp
Ġsul la
Ġn Åį
æ´ ŀ
og at
Ġàª® à«ģàªķ
Ġz osta
k Ã©
ĠÕ¸ ÖĢ
Ġt oll
Ġsen za
Ø±ÙĬ Ø¯
Ġty Ã¶
Ġtele f
»áĢĸ áĢĦáĢ¹áĢ·
ĠÐ³ ÐµÑĢ
ĠÐ²ÑĢÐµÐ¼ Ñı
Ġs ic
Ġjs me
ë³´ ê¸°
Ġre alit
h me
ĠAmer ica
áĥĺáĥ¡ áĥ£áĥ¤
ĠÙĩÙĨ Ø§Ùĥ
ĠÙĪ ÙĤØ¯
áģĢ áĢĦáĢ¹áĢ
Ð¾Ð´ Ñĥ
q e
Ġj Ã¤
Ð½Ð¾ Ñŀ
Ġg ure
Ġ12 4
ĠáĥĽ áĥĲáĥ¨
Ġàªľàª°à«Ĥ àª°
àª ·à«įàªŁ
ur at
ĠáĢĶáĢ¾ áĢħáĢº
Ġà°® à°¾à°¤à±įà°°
ëª¨ íħĶ
à±ĩ à°¨
it to
ĠØŃØ³ Ø§Ø¨
ĠÑĥ Ð¹
Ġmat la
Ð½Ñĸ ÑģÑĤ
Ġà¦ħà¦¨ à§įà¦¯
Ġtari x
ĠkÃ¼l Ã¶n
é ½
aj Äħc
Ġsec ret
ĠØª ÛĮÙħ
Ġdis e
ĠB ild
áĥĶáĥĽ áĥĲ
V iew
ĠF A
áº¡ m
à¸Ħ à¹Īà¸°
Ð´ Ð¾
Ã¨ res
ç¨ ®
eh ir
àª² à«ĭ
ĠÎķ Î¯Î½Î±Î¹
ĠTo y
Ġseb ab
Ġh ind
Ġ2019 å¹´
çļ ĩ
àª¾àªµ à«ĩ
Ð°Ð» Ð°ÑģÑı
Ġàª¨ àªľ
à®£ à®®à¯į
ĠF ord
sta v
F i
ĠÙħØ¬ Ú¾ÛĴ
ĠÃ© rt
ĠHar ga
áĢķáĢ¼ áĢĦáĢº
Ġth ree
Ġsak it
Ġ; )
Ð» ÐµÐ½Ð°
ci u
ĠÎ´ Î¿
ĠH osp
áĢĽ áĢ±áĢ¬áĢĢáĢº
Ġcateg ory
Ġ11 7
è¯ Ģ
et ak
ĠÛģÙĪ ØªÛĮ
[ "
ĠáĢĴáĢ® áĢľáĢŃáĢ¯
ĠÑı Ðµ
ĠÙħ Ùĥ
åŃ¦ çĶŁ
Ġinde pend
Ġc est
åľ¨çº¿ è§Ĩé¢ĳ
z or
eth ing
er ca
àª¬ àª°
Ġ×ľ×¤ ×ł×Ļ
Î¸ ÏħÎ½
ĠÐºÐ¾Ð½ Ñģ
Ġst ato
à¥įà¤Ł à¥Ģ
Øª Ø§ÙĨ
áĥĲáĥª áĥ®áĥĲáĥĵ
lu it
Ġà« ª
kon om
Ġà´¤ àµĭ
Ġobs erv
ĠT S
ØªØ± ÙĪÙĨ
Ñĥ Ñī
ra i
Ġæ ¿
ĠáĥĴ áĥ£áĥļ
ĠáĢĶ áĢĬáĢ¹áĢ¸
ĠR um
ĠL ux
ë³´ ìŀ¥
Ä±l mÄ±ÅŁ
eb elisoa
Ġà¤ĺ à¤°
áĥĶáĥĳ áĥĵáĥĲ
ÃŃ me
bi an
Ġàªĵ àª«
ä½ ³
Ïģ Î¿ÏħÏĤ
Ġà¤¸ à¥ģà¤°
Ġmemp unyai
ĠNeder land
er an
Ġsem ana
ĠT ru
Ġà°®à±Ĭ à°¦
Ġmil le
Î¸ Î¿
f anya
Ġáĥł áĥĲáĥĽ
ĠÚ¯Ø±ÙĪ Ùĩ
Ġf ih
áĥĲáĥ¨áĥķ áĥĺáĥļáĥĺ
Ġì Ĥ°
ĠH ad
à¸ļ à¹īà¸²à¸Ļ
ĠáĢ»áĢķáĢĬáĢ¹áĢ ŀáĢ°
Ġposs ibil
Ġho zz
áģ¾áĢĢ áĢĬáĢ¹áĢ
ĠáĢ»áĢĸáĢħáĢ¹áĢ ķáĢ«áĢĲáĢļáĢ¹
ÈĻ ti
ĠÐ¿ÑĢ ÐµÑģ
Ġstr ing
ti ques
Ġo ike
Ġmai or
Ġma w
Ðĺ Ðļ
ada ÅŁ
Ġà´ħ à´§
ĠÙĥ Ùħ
ĠåĪ °
Ġáĥ¡áĥĲáĥ®áĥĶáĥļáĥĽáĥ¬áĥĺáĥ¤ áĥĿ
ĠÐ¿Ð¾Ð´ Ð¾Ð±
ĠTe x
ĠE ro
Ġà¦ħ à¦°à§įà¦¥
Ġpr Ã³x
Ġ ãģ¯
Ġà®¨ à®²à¯įà®²
ĠÐĴ Ð°ÑĪ
æľ¬ éģĵ
iv ad
ak eta
ab ul
Ġkans sa
Ġinc lu
ĠR ek
èª į
pr im
ĠÑĢ Ð°
ĠÐ½Ðµ Ð³
Ġfum ana
áĢ± áĢ¸áĢĢ
à´¾à´¨ àµģà´Ĥ
ĠØ¹ÙĦÛĮ Ûģ
ĠØ¬ ÛĮØ³
Ġàª®àª³ à«ĩ
Ġwal ang
ĠTot al
ë¦¬ ê³ł
×¡ ×ĺ
it is
à¦¨à§įà¦ ¡
Ù¾ ÛĮ
Õ º
Ġãĥ ı
à°µ à±įà°µ
Ġer ed
ĠS ir
ĠØ¨Ú¾ Ø±
Ġëĭ ¬
Å£ ie
ÄŁi ÅŁ
ar ly
Ġmak en
à´¤àµįà´¤ à´¿à´²àµĨ
v Ã¡n
ĠÑģÐµ Ð³Ð°
Ġi ka
po ol
Ġà°µà°¿à° ľ
ĠØ¨Ø§ÙĦ Ùħ
Ġm Ã¤ng
Ġku id
Ð¾Ð½ Ð°Ð²
Ġsam me
Ġ ä¿
×ķ ×ķ×ª
Ä±z Ä±
o ek
Ġè¶ ħ
Ġth ought
ĠH ere
ĠG overn
el ess
Ġcons ole
àµĢ à´¯
ÑĨÐ¸ ÑĺÐ°ÑĤÐ°
Ġà¦¹ à¦¾à¦ľà¦¾à¦°
à´°àµįâĢį à´·
Ð» ÐµÐ¶
P C
ĠâĢ «
Ġà¦Ł à¦¾à¦ķà¦¾
Ġà®ªà¯Ĭ à®°
ĠÒĽ Ð°Ð±
ĠT ul
áĢĽ áĢĶáĢ¹
Ġim pro
Ġà°ľ à°°à°¿à°Ĺ
Ġà®¤ à®µ
ĠÑĢÐµÐ· ÑĥÐ»ÑĮÑĤ
Ġto us
ÙĦ Ø¹
L AR
Ġè Ī
ĠÚĨÙĩ Ø§Ø±
ĠÑģÐ¿ Ð¾ÑģÐ¾Ð±
Ġcap ital
Ġs ÉĻ
Ġb rit
Ġëį °
ĠÑı ÐºÐ¸Ð¹
àª¤ à«įàª¨
ĠáĥĽáĥ¡ áĥĿáĥ¤áĥļ
ĠM D
Ġà°ªà°¾à°°à±įà°Ł à±Ģ
Ġgjit ha
ÑĢÐ¸ Ð±
ìĤ° ì¶ľìŀ¥
Ä° L
ill as
ĠG or
ĠD ES
ë¸ Į
áĢĲ áĢĦáĢ¹áĢ
Ġà°¨à±ĩ à°¨à±ģ
Ġï »
ĠÐĴ ÑĸÐ´
Ġbet ter
áĢļáĢ¹áĢľ áĢŃáĢ¯
Ġà®®à¯ģà®Ł à®¿à®¯
Ġ×ķ ×Ĵ
ĠS ong
un ea
Ġid ent
Ġe der
ĠY an
Ġà´¯ à´¿
Ġh ingga
Ġb ÄĻdzie
Ġam e
áĢĻáĢ¼ áĢŃáĢ¯áĢ·
Ġm unk
Ľ áĢ¼áĢĢáĢ¹áĢ
ĠÙ¾ÙĪÙĦ ÛĮØ³
ĠÑĥ ÑģÑĤÐ°Ð½Ð¾Ð²
Ðŀ ÐĶ
ĠØ´ ÙĪØ±
à¤µ à¥Ģ
Õ¡Õ¶ Õ«
Ġìĥģ íĴĪ
Ġä¸ İ
íĻ ĺ
Ãº a
Ã¶l t
Ġtr uy
Ġsel ec
à¹Ģà¸Ĥ à¹īà¸²à¸
on en
Ġq en
Ġíķľ ëĭ¤
Ġt Ã¬m
Ġat ta
Ġpol ic
as ema
Ġáĥŀáĥł áĥĿ
ĠÑģ Ð¾ÑĤ
Ġpers p
Ġi ke
Ġer ror
ĠR p
ë° ķ
ç ĵ
áĢĤ áģ¢
ĠÚ©Ûģ ÙĨØ§
ĠAm b
ĠÑĤÐ¾Ð¼Ð¾Ð½Ð¸ Ð´Ð°Ð½
à®³ à¯įà®µ
Ġmass as
ĠP AR
ë ·°
Ġáĥ£áĥ łáĥ
Ġà¤¹ à¤°
Ġf ark
àª¿ àª¨àª¾
Ø² Ùĩ
à¥ĩà¤ ·
b iy
Ġà¤® à¥Į
à¥ĭà¤Ĥ à¤¨à¥ĩ
in ak
Ġcoun try
ÑĢ Ð¾Ð¿
áĥĺáĥľ áĥĿ
ze it
Ġà´² à´Ń
at ic
Ġà´ħ à´¦àµįà´¦àµĩà´¹
ĠÎº Î¿Ïħ
à¸¡à¸ª à¹Į
à±įà°¯ à±Ĥà°
àª¾àª¡ à«Ģ
Ġàª°àª¾àªľ à«įàª¯
à¸§ à¸¡
ĠÐ´Ð¾Ð¿ Ð¾Ð¼
ĠÙĨÙħ Ø§ÛĮØ´
ĠÙħØ´ Ø§Ø±
ĠÑĥÑĪ ÑĤÐµ
se en
ĠØª Ø§Ø±ÙĬØ®
es is
ĠëķĮ ë¬¸
Ġ ă
áĢĶ áĢħáĢ¹áĢ
áĢĢ áĢ¯áĢĶáĢº
áĢ¬áĢĽ áĢ½
nÃ© e
ĠìĨ į
Ø±Ùģ Ø©
por te
Ġm ess
le c
Ġáģ¿ áĢĻ
ĠC rist
Ġbl and
ĠFr om
ÈĻ i
ĠáĢ¡ áĢ»áĢķ
Ġk red
à¯Īà®ļ à¯įà®ļ
ĠáĢĺáĢ¯áĢĽ áĢ¬áĢ¸áĢŀ
Ġàªķàª¹ à«ĩàªµ
Ġ×Ļ ×ķ×Ŀ
ĠÑĩ Ð¾Ð²ÐµÐº
áĥĲáĥķ áĥĲáĥļ
àª¿àª Ĺ
Ø§Ø¶ ÙĬ
==== ====
Ġj Ãµ
Ġv ag
Ġdil akukan
æ± ī
Ġts ama
áĥ¬ áĥĲáĥķáĥļ
Ġàª¸àªĤàª ª
Ġhas znÃ¡l
od s
Ġà¤® à¥Ģ
Ġbes k
Ġay elujara
Ġ! )
ĠØ± Ø¨
ĠTh at
ĠE ST
ãģ¨ ãģ¯
àµģà´ ¸
Ġl oro
ç¢ °
Ġàªķàª° à«ĭàª¡
Ġà¦¨ à§ĩà¦ĩ
Ġà¦° à¦¹
à°² à°ķà±ģ
at ul
ĠÐº ÑĢÑĭ
Ġtr ading
Ġi es
Ġcon fer
ĠF u
ĠA an
Ġ áĥĲ
åī §
à°² à±įà°²à±ĭ
ĠÙĤ ÛĮ
ĠN ou
ÏĦÎ¿ ÏįÎ½
Ġà¦Ĩà¦ª à¦¨à¦¾à¦°
ĠØ¨ÛĮ Ù¹
Ġori ent
ĠÐł ÑĹ
à¦¾à¦° à§Ģ
Ð³ Ð¾ÑĤÐ¾Ð²
Ĺà¸µà¹Ī à¸¢à¸§
Ġn ome
Ġm ala
áĢĶáĢ¹áĢ ĳ
ĠçĶ ±
ĠÑĪ ÑĥÐ¼
áĥĶáĥ £áĥ
Ñĳ Ð»
ĠØ´Ø¯ ÙĨ
ĠA ku
Ġàªľà«ĩàª® àª¾àªĤ
ĠÐ¿ ÐµÑĩ
ĠÑģ Ð¸ÑĤÑĥ
Ġkap cs
Ġ... "
Ġas soci
Ġa asta
à¸ª à¸´à¸Ļà¸Ħ
ÏĥÏĦÎ· Î¼Î±
Ġseg undo
ĠáĢķ áĢĳáĢĻ
b ut
do or
d Ã¼
Ġàªªàª¹ à«ĩàª²àª¾
ĠÛģÙħØ§Ø± ÛĴ
ĠÐ¿Ð¾Ð»Ð¸ ÑĤÐ¸
ĠÐµ ÑĢ
ĠÐ¼ Ð°Ð¼
ĠÎŃ Î½
ìĨ ¡
ÑĪÑĩ Ñį
Ġàªī àª®
Ġc up
Ġ Ë
à´ªàµįà´ªàµĨà´Ł àµģà´¤àµįà´¤
ced es
ĠØ¨ÙĪØ¯ Ùĩ
ER T
Ġãĥ ĩ
Ġm alam
Ġis m
Ġfaz er
à°¾à° Ĺà°¾
Ø¬ Ûģ
zy ch
ald o
ĠáĢĤ áĢº
Ġàª° à«ĭàªķ
Ġàª¯ àª¾àª¦
Ġà¤®à¥ģà¤ ĸ
Ġå¥ ¹
ĠáĢĴáĢ« áĢ±áĢķáĢĻ
Ġqu v
ĠÐľ Ð°Ñģ
Ġed ÉĻn
çİ° åľº
ĠÑĤÐ°Ðº Ð¶Ðµ
ĠD or
à´± à´¿
ÑģÑĤ ÑĥÐ¿
Ġà® Ī
Ġi po
áĢĲáĢ½áĢ± áĢĢáĢŃáĢ¯
à¤¿à¤ķ à¤¾
ÏģÏī ÏĥÎ·
Ġåħ į
Ġáĥ¡áĥĲáĥ Ń
ĠHawai i
áĢĽáĢ½ áĢĢáĢº
ĠÑĤÑŀÒĵÑĢÐ¸ Ñģ
Ġmad h
à±ĩà°¦ à±ģ
Ð± Ð°ÑĤÐ°
ann el
ĠÐ¿ ÐµÑģ
Ġop tions
áĢĢáĢ¹áĢ Ľ
à· Ģ
ĠáĢĳ áĢ¯áĢĲáĢ¹áĢ
à¸ŀ à¸´
b ind
r end
L e
åĨ ·
Ġass ist
ÐµÑģÑĤ Ð²Ð°
Ġàªķà«ĭ àªĤàªĹà«įàª°à«ĩàª¸
Ä« ts
w eb
Ġpri or
Ð½Ð¸ ÑĨÐ¸ÑĤÐµ
f ani
Ġnov o
Ø§ÙĬ Ø±
d oll
Ġw orks
Ġáĥ¡áĥĲáĥĵ áĥĲáĥª
ĠW ash
or er
ester n
ĠPr ice
ÑĶ Ñİ
ĠÐ² Ð¸Ð¿
Ġwi eder
Ġé ħ
ĠÏĢ Î»Î±
ĠÎ£ Î¤
Ġi hr
Ġå ĸ
Ġparas ito
à¶ Ń
Ġn Ã¶v
äº ®
áĢ¬áĢ¸áĢ ķ
Ġà®ĩà®²à¯įà®² à¯Ī
Ġir in
b ia
ĠØ§ÙĨ Ú¯
Ġ12 6
ìĬ¤ íĬ¸
ç® Ģ
ãģıãģł ãģķãģĦ
à¨ ¨
Ġáĥ¡áĥĲáĥ£áĥ Ļ
Ġto ol
ĠnÃº mero
Ġjo y
ust us
en os
ĠP em
é¦Ļ èķī
å² ģ
Ġà¸ľ à¸¥
Ġà´® à´°
ĠP O
g han
Ġàª¬ à«įàª²
ĠØ£ ÙĪÙĦ
Ġil iy
áĢ· áĢ¡
Ġy ok
àª² àª¾
ĠÎļ ÏģÎ¹ÏĦÎ¹ÎºÎŃÏĤ
Ġsu ure
Ġmul ig
çµ Ħ
ãĥĥ ãĥģ
á»į ju
à®µ à¯įà®µ
ÑĢÐ¾ Ñŀ
áĢĨ áĢŃáĢ¯áĢĦáĢº
Ġì ´Ī
ĠRe f
åĪ° äºĨ
Î¯ ÏīÎ½
Ġà°ħà°¯ à°¿à°¤à±ĩ
áĥĺ áĥĶáĥļ
à¸Ļà¸ Ī
M E
ĠÐ¾Ð»Ð¸ Ð±
ĠÐ·Ð° ÐµÐ´
Ġth ings
è² ©
åħįè´¹ è§Ĩé¢ĳ
ard Ä±m
ĠC ultura
Ġ( -
åħ¨ åĽ½
an na
Ġvi agra
áł łáł
Øº Ùħ
ar de
Ġàªª àª¾àªķ
ĠÙĩ Ø²Ø§Ø±
Ġeg en
à¯ģà®Ł à¯Īà®¯
aj ÃŃ
ÚĪ ÛĮ
Ð¾Ð½ Ð¾Ð²
r ir
ĠÐĲÐ» ÐµÐºÑģ
ĠÎ± Îº
Ġprofes ional
ä¼ ¦
ÑģÑĮ ÐºÐ¸Ñħ
Ġser ikali
ãģł ãģ£ãģŁ
in ho
ff a
Ġk ang
Ġ×Ľ ×©
ãĥĥ ãĤ·
Ġæ¯ Ķ
ĠÐ· Ð°Ð¹
Ġost at
æĦ Ľ
ãĤĪ ãĤĬ
à°§ à±įà°¯
Ġå Ŀ
Ġà¤²à¥ĭà¤Ĺ à¥ĭà¤Ĥ
Ġà¦¬à¦¿à¦Ń à¦¿à¦¨à§įà¦¨
áĢ±áĢĶ áĢ²áĢ·
Ä Ĥ
yar akat
ĠÛĮØ¹ ÙĨÛĮ
ĠR ic
ĠáĥĽáĥ¡áĥĿáĥ¤áĥļ áĥĺáĥĿ
ĠÎ¼ÎµÎ³ Î±Î»
Ġs ÉĽ
Ð°Ñĩ Ð°ÑĤÑĮ
od er
i Ã³
Ġtr á»įng
Ġbo Ê»
ĠTele fon
ÑĶ Ð¼
r ul
te g
Ġà´ķ àµĪ
Ġf Åĳ
Ð¿Ð¾Ð» Ð·
Ġà®¨ à¯ĭ
ĠÎł Î¡
Ġp p
à°¿à°¸à±įà°¤ à±ģà°¨à±įà°¨
Ð¾Ð¼ Ð°
U t
Ġàªķ àªª
Ùİ ÙĪ
ĠØ¯Ø§Ø± ÙĨØ¯
Ġpagka wala
àµĭ à´·
Î· ÏģÎµ
amp le
Ġg ode
åĪ »
à¹Ģà¸ª à¸µà¸¢
à¥ĩà¤ ª
ä»ĸ ä»¬
áĢħ áĢ¶
ÑĤÐ¸ ÑĪ
Ġà¤¨ à¤¾à¤®
à¤¿à¤ ¹
est s
Ġãĥ Ľ
Ġr isk
Ġc over
ĠÏĢÎµÏģÎ¹ÏĥÏĥÏĮÏĦÎµ ÏģÎ±
Ġs Ãª
ç¢ º
àª¾àªµ àª¾àª¦
f ace
ĠiP ad
èµĦ æĸĻ
Ġsp ir
Ã¼n ya
Ġìŀ ĺ
ÏĨ Î¬Î»
ep o
Ġï¼Į âĢľ
Õ ¢
Ġà°ª à°¡
Ġàª¬ àª¾àª¬
Ġpr an
lig ini
Ġà°ķ à±įà°°
ĠÐĶ Ð°Ð²
ĠÐ± Ð»Ð¸Ð·
ĠSport s
Ð³Ð°Ð½ ÑĸÐ·
Ġp aha
Ġfa ol
áĥłáĥ Ľ
_ 0
78 9
Ġt is
ä¸ ¥
ÑģÐº Ñĥ
Ġà¤Ĩ à¤¦
Ġ×Ļ ×ĵ×Ļ
ĠÐº Ð¾Ñģ
Ġne Å¾
Ñģ Ð¸Ð¹
Ġà¤¤à¤° à¤¹
ĠSex y
à§ĩà§Ł à§ĩ
Ñħ ÑĸÐ´
ev en
Ġà°ħ à°¸
Ġtut to
Ġac count
áĢŃáĢĻ áĢ¹
à¸ª à¸Ńà¸ļ
hem u
ovan Ã©
Ġà¦° à§Ł
çĶŁ äº§
áĢ¬áĢ¸áĢ ĳ
à¸Ńà¸° à¹Ħà¸£
ÑĭÐ¼ Ñĸ
Ġcent re
×ª ×Ķ
Ñĭ Ðº
Ġà¨ ¹
Ġà¦¬ à¦¿à¦ķ
Ġprobl Ã©m
ĠShqip Ã«r
à¯įà®¤ à®¾à®©à¯į
Ġà¤ľ à¥Ī
Ð¾Ð² Ð¾Ð³Ð¾
Ð» Ð°ÑĤÐ¸
ä»£ è¡¨
ĠáĥĲáĥ ĳ
ĠÐ´Ð¾Ð³ Ð¾Ð²Ð¾ÑĢ
Ġà¦ī à¦¦
Ġà¦¨ à¦¤
ĠfÃ¶r s
Å£ a
Ġser ve
Ġar ri
à¤¯ à¥ĩ
Ġt ÉĻd
Ġqu ali
Ġà¤Ł à¥įà¤°
Ġtre ball
Ġr if
è¯ ¾
´ ī
Ġà¸ļ à¸²à¸Ĺ
Ġaga in
Ġim mer
ĠTh omas
Û ±Û
ĠáĢĻ áĢŁáĢ¯áĢĲáĢ¹áĢ
Ġàªµàª¿àª¸ à«įàª¤
à´Ł à´¿
azio a
Ġàªĺ àª°
ĠÐ± Ð¾Ð·
ĠH ost
Ġà¦ķà¦° à§ĩà¦Ľà§ĩ
à¹Ģà¸Ķ à¹ĩà¸ģ
ĠÏĩÏģÎ· ÏĥÎ¹Î¼Î¿
Ġker ja
Ġil u
[...]
