#version: 0.2
á Ģ
à ®
à ´
á ĥ
à ¸
à °
à ¤
à ¦
à ª
à ¯
à µ
áĢ ¹
Ġ áĢ
áĢ¹ áĢ
Ġ Î
à¯ į
àµ į
Ð °
Î ±
à ±
áĥ Ĳ
à ¹
à ¥
Ġ à®
Ï Ħ
Ġ à´
à §
Ġ Ð
Ġ áĥ
à «
Î ¿
Ġ à°
Ð° Ð
à¸ ²
Ġ à¤
Ð ¾
Ġ à¦
áĥĲ áĥ
à¸ Ļ
Ġ Ø
Ġ Ñ
Ġ àª
à± į
à¸ £
Ð µ
Û Į
à¦ ¾
Ð ¸
à¤ ¾
Ø §
àª ¾
Ñ Ĥ
à¥ ĩ
Ġ Ù
à¤ °
Ñ Ģ
à¥ į
Ð ½
Ġ ×
Ø ±
á »
Ð »
Ð ´
Ù Ħ
Ù Ĩ
Ñ ĸ
Ñ ĥ
á º
ã ģ
Ù ĩ
n g
É Ļ
× Ļ
Ð¾ Ð
Ġ d
Ø ¯
Ġ t
Ñ ģ
e s
á» į
Ù Ĭ
Ġ ì
× ķ
Ã ©
ĠÑ ģ
Ġ a
Ã «
áº ¹
ĠØ §
Ð ²
Ä ±
o n
ã Ĥ
Ġ ë
e n
ĠÐ ½
l e
Ġ n
×ķ ×
Ð º
ĠØ§ ÙĦ
áĢ ¬
à¯į à®
àµį à´
áĥ ĺ
à¸ Ń
à±į à°
Ġ .
à§ ĩ
àª¾ àª
à¯ ģ
à´ ¿
áĢ º
áĢ ¸
áĢ ¯
Î ¹
à® ¿
à´¿ à´
Ñ ĭ
Î ½
à° ¿
áĥ Ķ
ä ¸
ã Ģ
à®¿ à®
Î µ
àµ ģ
à¦¾ à¦
Ñ ı
áĥĶ áĥ
à« ĩ
Ï ģ
à° ¾
Ñ Ĩ
à¹ Ģ
Ġ å
Ñ Į
à§ į
áĥĺ áĥ
à¹ Ī
Ú ©
ĠÐ ¿
à« į
à± ģ
Ġ à¸
Ð ¼
Ù Ī
à§į à¦
Ġ ,
Ġà¤ ķ
Û ģ
à«į àª
ĠÐ ²
à¤¾ à¤
Û Ĵ
à¥ Ģ
Ð° ÑĢ
à¤ ¿
ì Ŀ
i n
Ø ª
Ġ c
Ð ³
Ð°Ð ½
Ã ¼
Ġ b
Ù ħ
Ñ Ī
Ġ Ä
Ġ ê
Ġd e
ĠÄ ĳ
Ġ k
ĠØ ¨
×Ļ ×
ã ĥ
r e
Ã ł
i e
ÉĻ r
Ġ i
o s
í ķ
Ø ³
l a
ĠÐ ·
á»į n
Ä ĥ
Ġ o
Ġ p
Ð¾Ð ²
× Ķ
Ñģ ÑĤ
e r
ë ĭ
Ġ ãĢ
Ã ¡
h o
Ġt i
Ñ ĩ
Õ ¡
Ġ w
áĢ Ń
à¯ģ à®
à´ ¾
áĥ Ŀ
à¸² à¸
à°¾ à°
ä º
à¦ ¿
à« Ģ
à® ¾
àµģ à´
áĢ Ģ
± áĢ
áĢ Ħ
Ï ĥ
à®¾ à®
â Ģ
Ñ ŀ
Ï Ģ
à°¿ à°
áĥĿ áĥ
ï ¼
Ġ ï¼
à¯įà® ķ
Ï Ĥ
à´¾ à´
à¦ °
Ñ į
£ áĥ
àª ¨
Î ·
Ĥ à°
Ð°Ð ´
à¸£ à¸
å ı
Ðµ Ð½
à¦¿ à¦
áĥĺáĥ ¡
à¹Ģ à¸
Ġ Ú©
Ð ·
à« ĭ
à±ģ à°
à¹ ī
ĠÐ ¸
ĠÙ ħ
à§ĩ à¦
ĠÐ ¾
à¥į à¤
Ú º
àª °
ĠÐ º
à¤ Ĥ
Ġ Ûģ
à¤¿ à¤
Ò Ľ
à¥ ĭ
ì ŀ
Å Ł
Ġ s
Æ °
Ò ³
ĠÐ ±
× ¨
o u
ãģ ®
Ð¸ Ð½
Ġ v
ì Ĺ
ĠØ ¯
Ġt h
Ġ e
Å Ĥ
Ġ Õ
Ġ× Ķ
Ø ²
Ġ l
ãģ Ħ
Õ¡ Õ
a n
ĠãĢ ģ
Ġ í
Ø ©
Ä ģ
Ñ ħ
t i
Ø§ ÙĨ
Ġn i
o w
Ðµ ÑĢ
c h
ĠÐ ´
Ġ m
ìĿ ´
ãĥ ¼
× ľ
Ø ´
g b
Ð ¿
Ä± n
Ġ le
á ģ
à® °
àµ Ĩ
áĥĶáĥ ĳ
à¸Ļ à¸
à° ¨
Ġï¼ Į
à¦ ¨
àª ¿
à¯ Ī
àµį âĢ
áĢ¸ áĢ
áĢ Ĳ
áĢŃ áĢ¯
Ï ħ
à® ¤
¨ àµįà´
Ð°Ð »
Î »
à° Ĥà°
ł áĥ
ģ à¸
o m
à¯įà® ¤
Ġ ÏĦ
à´ ¤
à¦¾à¦ °
Ð°Ð ¼
Ġáĥ Ľ
à« ģ
Î º
à± ĩ
Ð°Ð ²
à¸Ń à¸
å ®
Ð ¹
à§ ģ
áĥ ķ
ĩ à¸
ÛĮ Úº
Ð° Ñģ
à«ĩ àª
à° °
Ħ à¸
Ð¾ ÑĢ
ĠØ ³
à§ Ł
Ð° ÑĤ
à¤ ¨
Ú ¾
àª Ĥ
Ð ±
Ġà¤ ¸
Ø ¨
Ġà¤ ¹
ĠÐ ¼
à¤ ķ
ìŀ ¥
i r
t e
Ġ Ã
Ð¸ Ð»
Ð¾ Ð½
Ġ z
ŀ ×
ãģ §
ĠÑ Ĥ
Ġ h
ëĭ ¤
Ä Ļ
i á»
Ã ¤
a r
ĠÙ Ī
g y
ÉĻ n
Ġ Â
ãģ Ĺ
t s
u n
ãģ «
ê ³
× ª
Ø§ ÛĮ
Ä ħ
w á»įn
Î ¯
á ¹
Î ¼
Ï Į
Î ¬
Ã ³
Ø ¹
ì §
ãģ ¦
i s
i l
á¹ £
Ġ×Ķ ×
t o
q u
áĢ ķ
à® ©
àµįâĢ į
áĥ £áĥ
à¸ µ
à± ĭ
æ ľ
Ġà¦ ķ
àª ¤
® à¯į
ķ àµįà´
áĢ ¼
áĢ Ļ
á Ĥ
Î¿ Ïħ
à® Ł
à´ °
ĠÐ ³
Ġ ÏĢ
à° ²
Ġáĥ ¡
Ġc om
ç ļ
Ġà® ª
Ï ī
âĢ ĭ
Ġà¦ ¸
ĠÑ ĸ
áĥĲáĥ ľ
Ġàª ķ
ĠÎ º
à± Ģ
Ð° Ñŀ
± à¸
å Ī
Ð¾ Ð»
Ġà¦ ¬
Ġáĥ ĵ
à¹Ī à¸
Ú ¯
ÑĨ ÑĮ
àª ķ
à° ķ
à¸ ´
ĠÐ¿ ÑĢ
ĠÙ ¾
à¦ ²
Ð¾Ð ¼
Ġà¤ ®
Ø ¦
àª ®
Ð¸ ÑĤ
à¤ ¤
ĠÙ Ĩ
Ġà¤ ª
Ð´ Ð°
à¥ Ī
ë Ĭ
l o
Ã© s
n h
Ð» Ð°ÑĢ
Ð¸ ÑĢ
Ö Ģ
la r
Ġ ãĥ
Ð» Ð¸
Ġt r
ì Ħ
Ä «
Ġc h
u l
Ù Ĥ
Ġ S
Ġ× ľ
Ġt Ã«
Æ° á»
ãģ ¨
i y
Ġa wá»įn
ãģ ª
ê °
c z
e l
Ġb a
¿ ½
Ġ Ïĥ
ï ¿½
Î Ń
ĠÎ ±
Î± Î¹
i t
Ù ĥ
ëĬ Ķ
ĠãĢ Ĥ
i a
l ÉĻr
Ġ A
Ġ× ĳ
i ch
Ø§ Ø±
áĢ Ķ
à® ³
ķàµįà´ ķ
áĥ ¡
¡ à¸
Ġà° ª
çļ Ħ
à¦ ķ
àª µ
Ġà® ķ
¨àµįà´ ¨
áĢĦ áĢ¹áĢ
áĢ ±áĢ
Ġ áģ
Î ³
à¯įà® ª
Ġà´ ª
Ġ âĢ
Î ®
à± Ĩ
áĥ ł
Ġ æ
å ¤
ķ à¯įà®ķ
Ï ĩ
à´ ¯
Ġà¦ ª
Ðº Ñĸ
Ġ áĥĲáĥ
Ġàª ª
ĠÎ µ
Ġà° ķ
Ð½ Ñĭ
¥ à¸
å ħ
Ðµ ÑĤ
à§ĩ à¦°
áĥ ļ
à¹ Ħà¸
ĠÚ© ÛĮ
Ñ İ
Ġàª ¸
à±įà° °
à¹ ģà¸
ĠÑ Ģ
ĠØ ª
à§ ĭ
Ð¾ Ð´
à¤ ¸
ÙĪ Ø±
àª¾àª Ĥ
Ðµ Ð»
à¥ ģ
ĠÚ© ÛĴ
à¤ ¹
Ġ ÒĽ
à¤ ²
¶ ľ
a s
r i
Ġn h
Ġ Ò³
Ð¸ ÑĪ
Å ¼
Å ĳ
ãģ Ł
Ð³ Ð°
áº ¡
ì ł
Ġ ho
áº ¿
Õ ¸
d ÉĻ
Ġ× Ĳ
en t
a t
Ã ´
ãģ Ļ
r z
Ġ -
ãĥ ³
ì ķ
Ã Ń
Ġ un
d a
ï¿½ ï¿½
ĠÎ ¼
Ġ f
Î¹ Îº
Î¹ Î±
Ï į
Ù ģ
× ĳ
Ġì Ŀ
ãģ Į
Ñ Ĺ
ÉĻ s
Ġ y
Ġ B
Å Ľ
Ø³ Øª
áĢ ½
à® ²
àµįà´ ¤
Ġáĥ Ĵ
ª à¸
à°¾à° °
ç ½
à¦ ¤
Ġàª ®
à¯Ī à®
à´ Ĥ
áĢ ·
áĢ ²
áĢ ħ
Î ´
à¯įà® Ł
àµ ĭ
ĠÑ ŀ
Îµ Î¹
Ġà° µ
áĥĶáĥ ļ
à ¨
äº ļ
Ġà® µ
Ï Ĩ
Ġà´ ķ
à¦ ¬
Ð°Ð ³
áĥĲáĥ Ľ
àª¾àª °
Î ¸
à±ĩ à°
Ð°Ð ¹
à¹ī à¸
å ½
Ð½ Ð¾
à§įà¦ °
áĥ ĵ
¢ à¸
ĠØ ¬
Ð°Ð º
à«ĭ àª
Ġà° ®
§ à¸
Ð¾Ð ³
Û Ķ
à¦ ®
Ñģ Ðº
à¥ĩ à¤Ĥ
Ä ĵ
Ġàª ľ
Ð¾ ÑĤ
à¤ ®
Ġ D
à¥į à¤°
Ð´ Ð¸
à¤¾ à¤°
¶ľ ìŀ¥
Ã« r
u r
Ġ T
Ð¸Ð½ Ð³
Ñ Ħ
× Ĳ
Ø Ń
ãĤ ĭ
Ñĥ Ð½
Ġ g
ë §
Ġ ÛĶ
Ã ª
Ã ¶
r a
ĠØ ±
o r
×ķ× ª
áº £
ãģ ¯
Ø§ ÙĦ
Ġ I
Ġ ãĤ
Ġ â
d z
ĠÃ ®
Ġ '
Ġ j
Ð½ Ð¸
Ġa ti
Ġk a
ĠØ§ÙĦ Ø
ĠØ¯ Ø±
u ng
ĠÙħ ÛĮÚº
ì§ Ģ
ãģ ¾
Ġn a
Ð½ Ñı
Ġ la
Õ ¥
Õ ¶
Ä Ł
áĢ Ľ
Ġà® ®
à´ Ł
áĥ Ľ
à¹ Į
Ġà° ħ
Ġ ç
à¥ ¤
Ġàª ¤
à¯ ĩ
Ġ âĢĭ
áĢ ®
áĢ Ĭ
áĢ ±
ĠÏĦ Î·
Ġà® ħ
àµ ĩ
Ð½ Ñĸ
Ï İ
Ġà° ¸
áĥ ľ
ç½ ĳ
å Ľ
Ġà® ¤
ÏĦ Î±
à´¿à´ ²
Ġ à¥¤
Ð½ Ð°
áĥ ¢
à«įàª ¯
Ïģ Î¿
à° Ĥ
ĠÑ ı
à¸´ à¸
ä »
Ð¾Ð ¹
à§įà¦ ¯
áĥĲáĥ ĵ
Ķ à¸
Ã¡ s
Ð°Ð ±
Ġàª Ĩ
à±įà° ¨
à¹ ĥ
ÐµÐ½ Ð¸
×Ļ× Ŀ
Ġà¦ Ĩ
Ð ¶
Ġà¤ ¬
s t
àª¿ àª
Ġ 1
Ġà¤¹ à¥Ī
Ù ¹
Ġà¤ķ à¥ĩ
Ð³ Ð°Ð½
Ġà¤ ¨
ìĹ Ĳ
ÛĮ ÙĨ
Ġd i
Ġk h
ĠÐ² Ð°
Ñĥ ÑĢ
h e
r o
ãĤ Ĵ
Ð°Ð ·
Ġ ng
íķ ĺ
Ø ¬
á» Ļ
Ã §
a re
Ġs z
Ġ M
i ÄĻ
áº ¥
ãģ ĭ
ti on
Ġ 2
ĠÙ Ħ
Ĥ ¬
o v
ãĢ Ĳ
ĳ ãĢĲ
Ġ á»į
ĠãĢ ĳãĢĲ
Ġ á¹£
Ġ è
s z
Ġun d
ĠÃ® n
Ġ C
ë ¡
ãģ £
Ġ× ©
ĠÙ ĩ
Ġ O
Ġ q
Ġe t
ãĥ¼ ãĥ
áĢ ļ
Ġà® ļ
àµįà´ Ł
áĥĲáĥ łáĥ
Ĺ à¸
à° ®
æ Ĺ
à¦¾à¦ ¨
Ġàª ħ
à® µ
à´ ®
áĢ ŀ
áĢ ľ
ĠáĢ ¡
ĠÎ ´
à¯ģà® ®à¯į
à´ ³
ĠÑ ĥ
ÏĦ Î¿
Ġà° ļ
Ġáĥ ł
æ Ī
ä ¹
à®¿à® ²
ĠÎº Î±Î¹
Ġà´ µ
à§ Ģ
Ð° ÑĨ
áĥĶáĥ ľ
à«įàª °
Ïģ Î±
à° ¤
Ð» Ñĸ
ļ à¸
åı ĳ
Ðµ Ð¼
Ġà¦ ®
áĥĲáĥ ķ
Ġ à¹Ģà¸
ÏĦ Îµ
ĠÐ½ Ð°
àª¨ à«ĩ
âĢ Į
° à¸
Ðµ Ð´
ĠÏĦ Î¿
Ġà¦ ı
Ñ ī
Ġà¤ ľ
ÏĦ Î·
Ġàª µ
Ñģ Ñı
à¤ Ĺ
ĠÎ ½
à¤ ª
Ð¸ Ð¼
Ġà¤ ħ
ìĿ ĺ
Å ¡
e t
Ġp h
Ð¸ Ð·
Ñ Ĭ
Ġ P
ĠÙ ģ
ãĤ Ĭ
Ġ Ò
Ã ¢
ì ĭ
Ġp o
á» ĳ
ÉĻ t
ou r
Ú Ĩ
a l
× ©
iá» ĩ
ãĤ ¹
Ġe in
Ġs i
e k
Ġì ŀ
ĠÚ© Ø±
Ġ é
ä ½
l u
ĠØ £
Ġ N
Ä ĩ
æ ĸ
ĠâĢ Ļ
Õ «
a y
ìĿ Ħ
c i
ÙĪ Úº
ãĤ Ĥ
Ġ gb
Ġ |
Ã¡ l
Ġde r
áĢ¬ áĢ¸áĢ
à®¿à® ¯
àµģà´ Ĥ
áĥĲáĥ ¡
à¹ Ĥ
à°¾à° ²
w w
Ġà¦ ¨
Ġàª Ľ
Ġà® ĩ
à´ ¨
áĢĦ áĢº
áĢ ģ
áĢ «
ÏĢ Î¿
à¯ Ĩ
Ġà´ ¸
Ð°Ð µ
Ïĥ Î·
Ġà° ¨
ļ áĥĺ
Ġa g
Ġw ww
¨ à¯įà®¤
Ïī Î½
à´¤ àµįà´¤
à¦ ¸
ÑĢ Ñĭ
Ġáĥ ĺ
àª¾àª ¨
Î¯ Î±
à°¿à° Ĥà°
Ñĩ Ñĭ
Ĺ à¸µ
å ľ
Ġ :
Ġà¦ ¹
Ġáĥ ¨
¸ à¸
Ïģ Î¹
Ð» Ñı
à«ģ àªĤ
à±įà° ¯
ģ à¸²
Ð¾ Ñģ
ĠÎ ³
Ġà¦ ¦
ĠÑ ĩ
Ġà¤ ¦
ĠÏĦ Î¿Ïħ
Ġàª ¹
ĠÐ Ł
Ġà¤ µ
Î¼ Î±
Ġà¤ ²
Ð¸ Ð´
Ġà¤® à¥ĩà¤Ĥ
ê ¸
× ł
l ÉĻ
Ã ¬
Ð¸ Ñı
ĠÑ Ī
Ġ in
Ġt s
u m
Ð° ÑĪ
Ãª n
´ ë
Ġ ãģ
Ã´ ng
ĠØ ¹
Ġ Ãł
Ã« s
k a
ãĥ ĥ
Æ ¡
ĠÛģ ÛĴ
Ö Ĥ
Ġla ti
ĠØ ´
ì ¶ľìŀ¥
Ġa z
å ¹
å Ĳ
ar a
g o
Ġ r
È Ľ
å Ĭ
Ġ× ŀ×
l i
ãģ Ĩ
ì Ĭ
Ã¼ n
Ù ī
Ġ L
Ġ áº¹
å į
ÙĨ Ø¯
Ã ½
áĢ ¶
Ġà® ¨
à´ µ
áĥĲáĥ ł
à¸µ à¸
à° µ
åĪ Ĩ
Ġ à§
Ġàª ¨
ª à¯įà®ª
Ġà´ ®
áĢ »
áĢ °
áĢĢ áĢ¹áĢ
Î½ Î±
à® £
àµįà´ °
Ñ ĳ
ĠÎ ¿
à° ¸
áĥ ®
å½ ©
æ ¸
à® ®
Î ²
à´ ²
à§įà¦ ¤
Ð¾ Ñŀ
áĥĿáĥ Ľ
à«Ģ àª
Î ĳ
à° Ł
Ñĭ Ñı
Ī à¸
à¥įà¤ ¯
ÑģÑĤ Ð²
Ġà¦ķ à¦°
Ġáĥĵ áĥĲ
à¹ĥ à¸
ĠÎ½ Î±
Ġ Ð°Ð´
ĠàªĽ à«ĩ
à° ¦
« à¸
Ð¾Ð ±
ĠÎ¼ Îµ
Ġà¦ ¤
ĠÐ½ Ðµ
Ġà¤ °
Ġ /
Ġàª ¬
Ð¾Ð³ Ð¾
à¥ Ĥ
ÏĦ Î¹Îº
à¤ ¦
ĠÑ į
à¤¾à¤ ¨
íķ ľ
Å «
Ġ F
á» §
ĠÑ ħ
Ð¸ Ð±
ÛĮ Ø§
ãĤ Į
a k
Ð° Ò³
áº Ń
Ġì ł
Ġ en
ĠÄĳ á»
i on
Ġv ÉĻ
u s
Ø§ Øª
× ĵ
Ġv Ãł
Ã³ w
ãĤ ¤
Ġw a
Ġ E
ì ļ
ãĤ ī
Ġ ä¸
ç ī
j u
t a
Ġf un
ÉĻ k
ç Ķ
Ñĸ Ð´
ÙĬ Ø©
Ġ K
ë ı
ĠØ Į
Ġ qu
n i
p a
æ ĺ
× ¢
Å ¾
Ġáģ ĭ
à® ±
Ġà´ ¨
Ġáĥ¡ áĥĲáĥ
à¸£à¸ µ
à° ª
è ½
à¦ ¦
àªĤ àª
à¯įà® ±
Ġà´ ħ
áĢĦáĢ¹áĢ ¸
áĢ ¡
áĢĶ áĢ¹áĢ
ĠÎ ĳ
Ġà® İ
à´ £
Ðº Ð°
Î½ Î¿
à±įà° ²
áĥĺáĥ Ĺ
æ ī
æ¸ ¸
à¯ ĭ
ĠÎ ķ
à´¿à´ ¯
Ġà¦ ħ
Ð°Ð ¿
Ġáĥ Ļ
àª ²
ĠÎ ł
à±įà° ¤
ĠÐ Ĳ
ŀ à¸
å® ĺ
ĠÐ ¡
à§ĩà¦ ¨
áĥĿáĥ ĳ
à¹Ĥ à¸
ĠÎ± ÏĢ
ĠÐ ĵ
Ġàª °
à° ¡
ķ à¸
ĠÐ Ĵ
ĠÎ Ń
à¦ ª
Ðµ Ð¹
à¤ µ
Îµ Î¯
àª £
ÑĤ Ð¾
à¥ĭ à¤Ĥ
Ġ 0
Ġà¤ķ à¥Ģ
Ð¾ Ð¸
Ġà¤ Ĩ
ë¡ ľ
Ã¡ r
Ġd ie
Ġv á»
Ð¸Ð½ Ð¸
Ò ĵ
Ġn Ã«
Õ¸ ÖĤ
d Ä±
Ó £
áº §
ê³ ł
Ġd o
Ġ x
ãĥ Ī
ĠØ§ ÙĪØ±
r u
n y
ĠØ¨ Ùĩ
Ã¡ c
ãĤ ĵ
Ġd es
b i
j a
ê° Ģ
× Ĺ
è ¿
äº º
Ġ (
Ø§ Ø¦
d i
ãģ ı
è ®
Ġ G
È Ļ
ãĥ «
ê ²
Ñ Ķ
t t
ĠØ ¢
d e
å °
Õ¡Õ ¶
ÉĻ m
ĠáĢ ±áĢ
à¯įà®ķ à®³
à´ ¨àµįà´¨
áĥĲáĥ ļ
à¹Ī à¸²à¸
Ġà° ¤
è µ
à¦ Ł
àª ¹
à®¤ à¯įà®¤
à´ ±
áĢ² áĢ·
áĤ Ķ
áĢ ¾
Î Ł
à®¿à® °
à´ ¸
ÑĨ Ð°
Î ¾
à°¿à° ¨
áĥ Ĺ
İ ¯
å ¿
à® ®à¯į
Î Ļ
àµįà´ ¯
Ġà¦ ľ
ĠÐ² Ñĭ
Ġáĥ Ĺ
Ġàª ı
Î» Î¿
à°¾à° ¨
Ð°Ð³ Ð°
à¸Ńà¸ ĩà¸
Ġå ¤
Ð°ÑĤ ÑĮ
à¦¿à¦ ķ
áĥĶáĥ ¡
à¹ ĩ
ĠÎº Î±
Ð°Ð» Ñĸ
àª ª
à° ¯
à¸Ńà¸ ĩ
Ð¾ ÑģÑĤ
Ġ )
à¦¾à¦ ²
Ð¾Ð º
à¤ ¯
ÏĦ Î¹
àª ¸
Ð¾Ð ¶
à¤¿à¤ ¯
Îµ ÏĤ
à¤° à¥įà¤
Ð¸ Ð´Ð°
à¥ĩ à¤
ë ¦
ĠØ§ÙĦ Ùħ
Ġp rz
Ġl Ãł
ĠÐ¼ Ñĥ
ĠÐ ľ
Ã ¨
Ġde l
Å Ĩ
Ð¸ Ðº
Ġ H
ì ĥ
Ġ× ķ
Æ°á» Ŀ
ãģ į
l Ä±
Ġ Ú¯
e m
d ir
Ġth á»
ãĤ ¯
k i
Ġ2 0
Ġ W
Ġê °
Ġp Ã«r
ä ¼
ç »
Ġá¹£ e
Ø§ Ø
á¹£ áº¹
ãĥ ©
e g
Ġl es
é Ĺ
Ä į
Ī ëĭ¤
× §
Ġs e
ãģ ĵ
Ġl o
å ·
ie m
ĠØ ®
áĢĢ áĢº
à®¿à®² à¯į
àµįà´ ª
áĥ łáĥ
Ĺà¸µ à¹Īà¸
à°¿à° ķ
æĹ ¶
Ġà¦ª à§įà¦°
Ġàªķ àª°
à® ķ
à´ ª
áĢ± áĢ¬
áĢ ĸ
ĠáĢ Ģ
ĠÏĦÎ· ÏĤ
à®¤ à¯ģ
àµ Ģ
Ð½ Ðµ
Î¼ Îµ
à±įà° Ł
áĥĺáĥ ľ
İ¯ äºļ
ä¸ ĭ
à¯ Ĭ
ĠÎ £
àµįà´ ļ
à¦¿à¦ ¨
Ñį ÑĤ
¨ áĥĺ
àª® àª¾àªĤ
Î¿ Ïį
à± Ĥà°
ĠÐ »
à¹Į à¸
§ åıĳ
ĠÐ ļ
à¦ Ĺ
Ġáĥ Ķ
à¹ ĩà¸
Î¯ Î½
ĠÐ ĳ
àª¨ àª¾
à±ģà° ²
à¸£ à¸²à¸
ĠÐ¾ ÑĤ
ĠÏĦÎ· Î½
Ġà¦ °
Ðµ Ðº
Ġà¤ķ à¥ĭ
Ġ 3
àª¨ à«Ģ
Ð¸ Ðµ
Ġà¤ ¤
d d
à¤¨ à¥ĩ
Ð°Ð½ Ð´
Ġà¤¸ à¥ĩ
ë ¥
m a
Ã© g
Ľ i
Ð¸ Ñģ
ĠÑ Ħ
n e
Õ¥ Õ
Ù ¾
Ð½ Ð¸Ð½Ð³
Ġt á»
ìĿ ¼
Ø ·
z ion
ãģ¾ ãģĻ
d ÉĻn
c e
t en
× ¤
u y
Ġ Ã©s
Ä« b
Ġt o
ãĥ ª
ì ľ
i z
Ġ ï¿½
ä¸ Ģ
ï¿½ï¿½ ï¿½ï¿½
Ã¤ Ã¤
k o
ãģĹ ãģ¦
ÙĪ Ø¯
áº¥ t
å ¸
Ġ Ã©
Ġë °
Ġs h
Ġp er
e i
k á»į
è ¯
Ð ł
Ñĸ Ð²
ĠáĢ Ļ
à®¿à® ©
à´ ķàµįà´ķ
áĥĶáĥ ł
Ł à¸£à¸µ
Ġà° °
ç «
à¦¾à¦ ®
àª¾àª ®
à®¾à® °
àµģà´ ¨àµįà´¨
ĠáĢ ŀ
áĢĬ áĢ¹áĢ
áĢħ áĢ¹áĢ
ĠÎ ļ
à¯Īà® ¯
à´ ķ
Ñį Ð½
Î £
à± Ī
áĥĶáĥĳ áĥĺáĥ¡
å ¼
é Ģ
à¯ģà® ķà¯įà®ķ
Î ¶
Ļ àµįà´
Ġà¦ ¶
Ð´ Ð·
Ġáĥ ŀ
à« Ĥ
Ïİ Î½
à°Ĥà° ¦
ÑĨ Ñĸ
ģà¸² à¸£à¸
åĽ ½
Ð¸ Ð¸
à¦° à§įà¦
áĥĲáĥ ª
Ġ à¹ģà¸
ĠÎ³ Î¹Î±
ĠÑģ ÑĤ
Ġàª ¦
à±į âĢĮ
´ à¸
ĠÐ¾ Ð±
ĠÎ±ÏĢ ÏĮ
à¦¾ à§Ł
Ø µ
Ġà¤ Ĺ
Ġ ÏĮ
àª° à«įàª
ÐµÐ» ÑĮ
Ġà¤ķ à¤°
Î± Î½
à¤ ¬
ĠÐ´ Ð°ÑĢ
Ġà¤ ī
ê¸ °
ÖĢ Õ
h a
Ġw y
ĠÐ± Ñŀ
Ñĥ Ð¼
× ŀ×
ÉĻ y
u i
Ð°Ð´ Ð¸
Æ°á» £
Ġì ķ
Ð¸ Ð²
d er
ĠØ³ ÛĴ
Äģ s
Õ¸ÖĤ Õ
Ġz a
ĠÙ Ĭ
Å £
ent ru
ou s
y i
áº¡ i
ìĦ ľ
ÉĻ l
Ġc on
o l
Ġk i
Ā Ā
w o
ãģ ķ
ĠØ¨ Ø§
æ Ŀ
t Ã«
Ä Ľ
Ġ "
Ã º
æ Ĭ
u f
ĠA wá»įn
n ie
å Ń
Ġ× ¢
áĢ¬ áĢ¸
à® ¯
à´¾à´ ¯
áĥĺáĥ ļ
Ľ à¸
à±ģà° ¨
æľ º
Ġà¦ ¯
Ġàª ²
à¯ģà® ¤
Ġà´ ¤
Ĳ áĢ¬
áĢĢ áĢŃáĢ¯
áĤ ı
ĠÎ ¤
à®Ł à¯įà®Ł
à´¿à´ ķàµįà´ķ
ÑĨ ÑĨÐ°
Î ķ
Ġà° Ĩ
áĥĶáĥĳ áĥĲ
è½ ½
Ġå¤ §åıĳ
à®¾à® ©
ĠÎ ľ
ļ àµįà´ļ
à¦ ¼
Ñĭ Ð¼
áĥ Ĵ
Ġàª ¶
Î» Î»
à± Ĭ
Ð² Ð°
¹ à¸
é Ļ
Ðº Ð¸
à¦¿à¦ ¤
áĥĶáĥ Ľ
± à¸Ļà¸
Ġ Ïĩ
Ð°Ð» ÑĮ
Ġàª Ĺ
à±ģà° Ĥà°
Ĭ à¸
Ġj a
ÏĦ Î¬
à¦¿ à§Ł
Ðµ Ñģ
Ġà¤ Ń
ĠÎ ¸
à«ģ àª
Ø§ Ùħ
à ¶
ĠÏĢ Î¿Ïħ
à¤ ľ
Ð° ÒĽ
Ġà¤ ĩ
ì Ľ
Ġm o
Ð¾Ð» ÑĮ
i i
Ð¸ Ð¹
ĠÐ± Ð°
ĠÃ §
Ġg i
Ġ es
Ð¸ ÒĽ
ãģ£ ãģ¦
Į Ģ
Ä ¼
ĠÚ© ÙĪ
æĺ ¯
h r
Ġe l
ãģ Ĥ
ÅĤ a
Ġe a
e ng
Ġc á»§
m á»į
Ġm Ã¼
ê µ
ÛĮ Ø¯
Ñĩ Ðµ
× ŀ
Ġr áº¹
Ġa u
Ġ J
ĠÙģ ÙĬ
Ġo l
å Ĩ
Ġd he
ãģ§ ãģĻ
ì ĸ
Ġn ie
t Äģ
Ġa l
b a
Ġcá»§ a
æ ³
ĠØ§ Ø³
ĠáĢ ľ
à® Ļ
Ġà´ İ
Ġáĥ ¬
· à¹Ī
à±ģà° ķ
è §
à¦ ¹
¥ à«Ģ
à® ¨à¯įà®¤
à´ Ļàµįà´
ĠáĢ Ĳ
áĢ® áĢ¸áĢ
Ĳ áĢ¼
ĠÎ ·
à®¾à® ķ
àµ Ĥ
Ñĸ Ð½
Ïģ Î¬
Ġà°ª à±įà°°
áĥĿáĥ ¡
ä¸ĭ è½½
å¿ «
à®¿à® ±
ĠÏĥ Ïħ
àµįà´ ±
à¦¾à¦ ķ
Ð» ÑĮ
áĥĶáĥĳ áĥĺ
àª¾àª µ
Î¹ Ïĥ
Ĺ à°¾
ÑĨ Ñĭ
³ à¸
á ŀ
ĠÐ Ŀ
Ġà¦ Ĺ
Ġáĥ £áĥ
à¸£à¸ ±à¸
ÎŃ ÏĤ
ÑĤ Ñĭ
Ġàªħ àª¨à«ĩ
à°¿à°Ĥà° ļ
à¸£à¸ °à¸
s a
ĠÏĦ Î±
Ľ à§ĩ
ĠÐ ł
à¤ ¡
Ġ 4
àª ¯
Ø ®
à¤ Ł
ĠÎµ ÏĢ
à ·
Ð¾ Ò³
Ġà¤ Ķ
ë Ĥ
v e
ĠÐ¿ Ð¾
ãģ ł
Ñĥ Ð´
Ð°Ð ¸
n a
é ĩ
ÉĻ h
ĠÐ ¢
× Ľ
ì Ĥ¬
Ġc Ã³
Å¡ an
ãģĹ ãģŁ
c a
Ã¡ n
d en
å º
ĠØ§ Ø²
m e
z y
d o
lÉĻr in
ì ²
ĠÚ© Ø§
ÐµÐ½Ð¸ Ñı
Ġc u
gb a
Ġp our
Ġj áº¹
t y
ĠÄ Ĳ
ç Ľ
Ġa r
t er
ë ĵ
Ñ ĺ
× Ŀ
ĠÙħ ÙĨ
p á»į
b b
æľ ī
Å ¥
áĢĲ áĢ¹áĢ
à¯ Ģ
à´° àµįâĢį
áĥĿáĥ ľ
à¹ī à¸²à¸
à°¾à°° à±ģ
å¤ §
à§ģ à¦
àª Ĺ
à®° à¯į
à´¾à´ £
¾ áĢĢ
áĢ¯ áĢŃ
áĢ Ĩ
Ïģ Î¯
à¯įà® ļ
à´ ¨àµįà´
Ðº Ñĥ
ĠÎ Ķ
à°¨ à°¿
áĥ£áĥ ł
å®ĺ ç½ĳ
æī ĭ
à® ªà¯įà®ª
ÏĦ Î±Î¹
à´¿à´ °
à¦¾à¦ ¦
ÑĢ Ð°
áĥ §
à«įàª Ł
Î¹ Î¿
Ġà° ¬
ĠÐ £
à¹Ī à¸²
å İ
Ð¸ÑĤ ÑĮ
Ġà¦ ļ
áĥĺáĥ ĵ
à¹Ħà¸ Ķ
ĠÏĥ ÏĦÎ¿
ĠÐ¿ Ð°
àª¾àª ¯
à°° à±įà°
à¹ī à¸²
Ġb o
ÏĦ Î®
à§įà¦ Ł
Ã £
à¤¿à¤ ķ
ĠÏĢ ÏģÎ¿
àª ¦
la n
Ġà¤Ķ à¤°
Ġ 5
Ġà¤ ¯
Ð¾ ÑĪ
à¤¾à¤ ²
ìĿ Ģ
ĠÐ ŀ
ÛĮ Ú©
Ð¾Ð ·
Ð¸ ÑģÑĤ
Ò ·
Ġs iÄĻ
Ġi r
Ġãĥ »
Ð° ÑĬ
an t
£ ¼
Ġ R
Ġ Ã¼
Ġc a
ãģ ĳ
Ġ V
Ġm eg
åľ ¨
á» ĭ
ÙĬ ÙĨ
k s
Ġk o
ãĥ³ ãĥ
ìĬ ¤
u ri
Ð½Ñĭ Ðµ
ĠÚ© Ûģ
Ġ20 1
Ġ× Ľ
w a
Ø§ Ø¯
t re
Ġb ir
ãĤ ¢
Ã¬ nh
Ġê ²
Ã¡ t
å® ¶
j Ã«
Ġk an
Ġp ar
å ±
c j
áĢķ áĢ«
Ġà®İ à®©
à´¿à´ ¨
Ġáĥ ķ
Ħ à¸£à¸
Ġà° ¦
ç ¥
¯ à¦¼
àª ¡
à® ļ
à´¾à´ °
áĢĶ áĢº
áĢĦ áĢ¹
ĠáĢ ķ
ÎŁ Î
à¯ģà® ķ
à´¾à´ ¨
Ñĥ Ñģ
Îµ Î½
Ġà° ĩ
Ġáĥ ĳ
å ¥
äºļ æ¸¸
Ġà® ī
Ïģ ÏĮ
à´Ļàµįà´ Ļ
Ġà¦¬ à¦¿à¦
Ñĭ Ñħ
ĠáĥĲáĥ ł
àª ľ
Î Ĺ
² à±ĭ
Ð° Ñı
Ĺà¸µ à¹Ī
Ġ à¨
ĠÐ µ
à¦¾à¦ ¤
áĥĶáĥ ķ
ľ à¸
Ïĥ ÎµÎ¹
ĠÑ Ĩ
à«ĩàª ²
Ġà° ī
à¸Ń à¸Ļ
s ch
Ġ ÏĨ
à§įà¦ ¬
Ġm a
ç º
ĠÎ ²
Ġàª Ń
ĠÛģ ÙĪ
Ġà¤ ı
Î¿Ïħ Î½
à¥ģ à¤
Ð»Ð°ÑĢ Ð¸
Ġà¤ķ à¤¾
Ġì Ĺ
Ð½Ñĭ Ñħ
ĠØ¨ Ø±
áº ¯
Ð»Ð¸ Ðº
ÑĤ Ð¸
o k
×ķ× ¨
ãĥ³ ãĤ
Ð´ Ð°Ð½
Æ ı
ë§ Ī
Ä ¾
m i
å Į
b er
áº¿ t
an s
Ø ¶
ãĤ Ī
Ð¾Ð ¿
Ġs a
y e
äº Ĩ
ìĿ ¸
c o
ÑĢ Ñĥ
ãĥ¼ ãĤ
gb o
Å Ļ
h un
Ġe gy
á» ¯
ÛĮ Ø±
Ġd a
ãĥ ¬
Ŀ ¼
ÙĦ Ùī
Ġï¼ ļ
Ġd in
áº¹ lu
Ã¼ r
Ġ u
ä¹ Ĳ
áģ ¾áĢĢ
à¯ Ĥ
à´¿à´² àµįâĢį
áĥĶáĥ Ĺ
± à¸Ļ
Ġà° Ĺ
ç ľ
à¦¿ à¦°
Ġàªª à«įàª°
à®¿à® Ł
àµįà´ ²
áĢķ áĢ¹áĢ
áĢļ áĢ¹áĢ
áĢļ áĢ¹
Ïģ Î³
à®¾à® ²
Ġà´ ĩ
Ñ ĵ
Î¼ Î¿
à±įà° ª
áĥĺ áĥĲ
8 8
p p
à®© à¯į
Îĳ Î
Ġà´ ļ
à¦ ľ
ĠâĢ Ķ
áĥĲáĥ ®
àª¾àª ¤
ĠÏĥ ÏĦÎ·
à°¨ à±įà°¨
ĠÐ ¶
ģà¸² à¸£
å¹ ³
× ĺ
à¦ ĩ
áĥ£áĥ ļ
ļ à¸Ńà¸
ÏĦ ÏĮ
ĠÂ «
àª ³
à° Ĺ
° à¹Ģà¸
Ðµ Ð³
ĠÏĥ Îµ
à¦¾à¦ ¬
l ich
Ġà¤ª à¤°
ĠÃ ·
Ġàª¹ àª¤
ĠØ Ń
à¤ ļ
0 0
Ġà¤ª à¥įà¤°
ĠÒ³ Ð°Ð¼
Ġà¤ ļ
Ī ĺ
c y
Ġes t
Ã¢ n
ĠÐ ¹
ĠÒĽ Ð¸Ð»
u t
Ð½Ñĭ Ð¹
æĹ ¥
Ñĥ Ð»
ÃŃ t
Ġì ĺ
á» ±
j Äħ
è ¡
ĠÙ¾ Ø±
lar Ä±n
Ġi l
Ã© r
ãģ Ĭ
Ð½ Ð¾Ð¹
g e
w á»į
è ´
ë¦ ¬
Ġn o
ĠÐ Ķ
è ¨
p o
Ã ²
Ġl áº¹
Ġ× Ļ
ÑĤ ÑĮ
Ġm e
ĠÙħ ÛĮ
ãģª ãģĦ
ëı Ħ
Ù İ
å ¾
t Ã¤
gb e
ĠÙ ĥ
áº¿ n
ä¸ Ń
Ġáģ Ĭ
à¯įà® ²
àµģà´ Ł
Ġáĥł áĥĿáĥĽ
¡ à¸²à¸
Ġà° İ
æĸ ¹
à¦¾à¦ ¸
Ġàª ¥
à® ´
à´¿à´ ļàµįà´ļ
áĢĬ áĢº
áĢ ³
ĠáĢ Ľ
Î» Î·
à® ķà¯įà®ķ
àµģà´ ķ
ÑĢ Ñį
ĠÏĢ Î±
à°ķ à±įà°
áĥĲáĥ Ĺ
å ĩ
à¤ £
à®¿à® ķ
ĠÎ Ł
àµ ½
Ġà¦ ī
ĠÐ¿ÑĢ Ñĭ
áĥĲáĥ ¢
àª ¥à«Ģ
Î® ÏĤ
à°¾à° ¯
Ġ Ð°Ð±
ĸ à¸
æīĭ æľº
Ġk Ã¶
à¦ Ĥ
áĥ£áĥ ļáĥĺ
à¹Ħà¸ ¡
Î¼ ÎŃ
Ð¼ Ñĸ
à«įàª ¤
Ġà° ľ
Ġà¸ ªà¸
Ðµ Ð·
w y
à¦¾à¦ ĩ
ĠÄ °
à¥įà¤ ¤
. .
àª ¶
in e
Ġà¤ ¶
Î± ÏĤ
à¤ ¼
Ð°Ð» Ð°ÑĢ
à¤¾à¤ ¤
ì ĺ
Ú Ī
Å¼ e
Ġi z
Ó ¯
Ð¸ÑģÑĤ Ð¾Ð½
Ġj e
Ð°Ðµ ÑĤ
ãģ£ ãģŁ
Ð¾ ÒĽ
iy y
ë ħ
Ġ re
ĠT h
Ã¼ l
ç İ
Ã« n
o ng
× ¡
è ¦
Ðµ Ð²
ĠØ ¥
Ġp e
g en
Ġë §
Ġ Û
Ð½Ð¾ ÑģÑĤ
ï ½
w e
ĠØ§ Ø³Øª
k an
åı °
Ġg Ã¶
ĠØ§ ÙĨ
Æ°á»£ c
é ĸ
ê ±
Ġ on
ä ¿
i o
Ġ ?
k y
Ġi s
ä¸ į
áĢ ĳ
à¯ģà® µ
àµ ¼
áĥ ĳ
§ à¸²à¸
¦ à°¿
é Ľ
Ġà¦ ĵ
àª¿ àªķ
à¯įà®ķà®³ à¯į
Ġà´ Ĩ
» áĢķ
áĢ® áĢ¸
áĢĻ áĢº
Ïģ Îµ
Ġà® Ĩ
à´Ł àµįà´Ł
ĠÐ´ Ð·
Î½ Î·
à°Ĥà° Ł
áĥĶáĥ łáĥ
a pp
à ©
à®£ à¯įà®Ł
Î¿ Î»
àµ Ĭ
Ġà¦ Ń
ĠÐ¿ Ð°Ð´
áĥĲáĥłáĥ Ĺ
Ġàª ļ
Ġ Ïħ
à±ģà°¨ à±įà°¨
Ð°Ð¼ Ñĸ
Ľ à¹ĩ
Ġç İ¯äºļ
Äģ r
à¦ £
Ġáĥ ľ
à¸Ļà¸ µ
Ġy n
ĠÂ »
Ġàª® àª¾àª
Ġà°ļ à±ĩà°
à¸Ļ à¹Ģà¸
ĠÐ¸ Ð·
Î¯Î½ Î±Î¹
à§ĩà¦ ķ
Å Ħ
à¤¿à¤ ²
Î¬ Î½
àª Ł
c k
à¤¿à¤ ¤
ĠÂ ¬
Ġà¤¹ à¥ĭ
Ð Ĳ
çº ¿
ìĭ ľ
Ã© k
a te
ÙĨ ÛĴ
ĠÐº Ñŀ
Ð° ÑģÑĤ
× Ĵ
Ð½ Ð¾Ð³Ð¾
ãģĻ ãĤĭ
Ð¸ Ð³Ð°
ie r
Ġì ĭ
á» ©
ÙĬ Ø±
j e
ï¼ Į
Ġch e
j as
Å ±
d an
ÐµÐ½Ð¸ Ðµ
ãģ ©
in u
Ñģ ÑĮ
ìķ Ī
Ġd u
Ñĥ Ñİ
ãģ Ī
l áº¹
Ġd as
Ġp áº¹lu
éĹ ¨
á» ¥
Ġho gy
i k
ĠS e
ë °
Ð°ÑĤ Ð°
æ °
Ġp entru
á» Į
Ø§ Ùĩ
ĠÙĨ ÛĴ
ç Ļ
ĠáĢ ħ
à®¿à® ¤
à´ª àµįà´ª
áĥĶáĥ ĵ
à¹ĥà¸ «
à±įà° µ
å Ŀ
à§ ľ
ĠàªĨ àªµ
à®¿à®© à¯į
àµĩ à´
áĢ½ áĢ¬
áĤ ķ
ķ áĢ«
ĠÎ »
à®¿à® ķà¯įà®ķ
à´¿à´ ķ
ĠÑĪ ÑĤÐ¾
ĠÎ± Î½
à°¿à° ¤
ĸ áĥĶ
æ Ģ
á ł
à¯įà® ³
Ïī ÏĤ
à´³ àµįâĢį
à¦¿à¦ ²
ĠÐ³ ÑįÑĤ
áĥ ª
àª §
Î» Îµ
¸ à±įà°¤
Ð° Ñħ
ĩ à¹Ģà¸
å¹³ åı°
d y
à§ģ à¦²
áĥĿáĥ ķ
Ġà¸ ª
ĠÎµ Î¯Î½Î±Î¹
Ð½ Ð°Ð¹
Ġàª «
¡ à±ģ
ģ à¸£à¸
ĠÐ´ Ð»Ñı
ĠÎ± Ïħ
à§ĩà¦ ²
qu e
à¤¤ à¤¾
Ïĥ Îµ
Ġàªķ à«ĩ
ĠØ§ÙĦ Øª
Ġà¤¹à¥Ī à¤Ĥ
Îº Îµ
à¥įà¤ Ł
ĠÐ¸ Ð½
à¤¿à¤ ı
Ġì Ħ
á» ĩ
t u
Ġ ÅŁ
ĠÑ ĳ
Ð ĺ
Ġ× ŀ
Ġg o
Ġh a
ĠÐ± Ð¸Ð»
Ð¸ Ñħ
í Ĭ
Ú¾ ÛĮ
ÈĻ i
Ġc Ã¡c
è Ĥ
ĠØ§ ÛĮÙĨ
ch t
ãĤ ģ
Ġp re
Ð°Ð ¶
Ø °
p e
a i
ë¥ ¼
Ġz u
ãģĭ ãĤī
ÅĽ ci
o o
zion e
ĠN i
6 5
c s
ĠÃ ¶
ÐµÐ½ ÑĤ
á»Ļ t
ì ¹
Ø± ÛĮ
è Ģ
×Ļ× ª
Ġw á»įn
Ġqu e
ÐµÐ½ Ð½Ñı
ĥ ½
áĢĻ áĢ¹áĢ
à®¾à® ¤
à´¾à´£ àµį
áĥ Ļ
à¹Ħà¸Ķ à¹ī
à°Ĥà° ¤
2 0
à§ĩà¦ ¶
Ġàªª àª°
à® ª
à´ ¦
áĢħ áĢº
áĢĶáĢ¹áĢ ¸
áĢļ áĢº
ĠÏĦ ÏīÎ½
à¯įà® µ
Ġà´ °
Ð°ÑĢ Ñĭ
ÎĻ Î
Ġà°µ à°¿à°
áĥ ¥
Ġc n
à¤¾à¤ Ĥ
à¯ģà® ®
Î» Î±
Ġà´ª àµįà´°
§ à§
Ð° ÑĨÑĮ
áĥĺáĥ ł
à«ĩàª ®
Î¿ Î½
à° ļ
Ðµ Ð»Ð°ÑĢ
ĩà¸ ´
å¼ Ģ
Ġp r
à§ģ à¦°
áĥĿáĥ ĵ
Ĥ à¸
ĠÏĢ Îµ
ĠÐ± Ñĭ
Ġàª ĸ
à±ģà° ¤
Ħà¸ §à¸²à¸
Ä± r
ĠÎ¸ Î±
à§įà¦ ·
Ùĩ Ø§
à¤¿à¤¯ à¤¾
ĠÎ ¬
Ġàª¤ à«ĩ
y ch
à¤¿à¤ ¸
ĠÏĦ Î¹
Ġà¤ĩ à¤¸
Ð°ÑĤ Ð¸
à¤¹ à¥Ģ
íķ ´
Ġq Ã«
j um
e z
Ð» Ð°Ð½
Ġ Ð°Ð·
u o
Ġ ÚĨ
ãĤ Ħ
Ð¾ Ñı
Ġm it
Ġê ³
in in
Ġc ho
Ã¡ g
å ¯
m en
Ð¾ Ñĩ
Ġu z
Ø £
n ÃŃ
×ķ× ľ
á¹£ e
Ġy a
ë ³
in h
Ã¤ n
ĠÐ ĺ
Ġb i
ãĥ ķ
Ġi á¹£áº¹
ç Ĳ
ÙĦ ÛĮ
ow an
ĠÑĩ ÑĤÐ¾
m ent
ë ¶
Ã©s z
æ µ
Ã«s h
Ġt a
s i
ĠÐ² ÑĸÐ´
ä¸ Ĭ
áĢĢ áĢ¹
à®² à¯į
àµģà´ ¤
Ġáĥ ®
à¹ĥ à¸Ļà¸
Ġà° ²
æ ŀ
à¦ ¶
àª¿àª ¯
Ġà®ļ à¯Ĩ
à´£ àµįà´Ł
áģ Ģ
áģ ¿
áĢĦáĢº áĢ¸áĢ
Î ¡
à®¾à® Ł
àµĨ à´¯
Ð½Ñĭ Ñı
Î¯Î± ÏĤ
à°¨ à±ģ
áĥ ¨áĥĺ
ä¸ ī
æ ķ
à¯įà® ©
Ï Ī
àµģà´ ®
à¦¾à¦ ľ
ĠÐ¿ ÐµÑĢ
Ġáĥ ¥
Ġàª ī
Î¿Ïħ ÏĤ
à°ķ à±ģ
Ð°Ð² Ð°Ð½
à¹Ī à¸Ļ
å Ĵ
v a
Ġà¦ª à¦°
áĥĺáĥ ª
Ķ à¸´à¸
Ïģ Ïī
Ð°Ð´ Ð·
àªµ àª¾
à±Ĩ à°²
· à¸Ńà¸
ÙĪ ÙĦ
ĠÏĦÎ¿ Î½
Ġà¦ı à¦ķ
Ġv on
Ġà¤¨ à¥ĩ
Ïģ Î·
Ġ à«
Ġkh Ã´ng
à¤¾à¤ ®
Ġ ;
à¤¨ à¤¾
Ò³ Ð¾Ð¸
à¤¾à¤ ¯
ì £¼
ÅĤ o
Ð¸ÑĤ Ðµ
b an
ĠÐº Ð¸
ĠÐ±Ñŀ Ð»
n Ã©
Ö ģ
Õ¸ Õ
ÑĤ Ð¸ÑĢ
ul ui
í Ļ
in dÉĻ
Ãł y
Ðµ ÑģÑĤ
Ġ ï¿½ï¿½
ĠÙ Ĥ
b en
é ģ
Ġ×© ×ľ
es t
Ġn jÃ«
b o
Ä« g
íĬ ¸
ĠÐ¿ Ð¾Ð´
ÉĻ b
Ġï¼ ī
Ġf i
z a
r á»į
á» Ł
å¹ ´
Ġ ÛĮ
ĠÑĢ Ð°Ð·
Ġun e
ë ł
Ġd en
æ Ń
Ð ¡
ŀ Į
Ñĥ Ð²
ow a
in en
áĢ¯ áĢ¶
à¯ģà®¤ à¯įà®¤
àµįâĢ Į
áĥķ áĥĶáĥļ
¡ à¸µà¸
à±įà° ļ
Ġ äºļæ¸¸
à¦¤ à§ĩ
Ġàªª àª£
à¯ģà® Ł
à´¤ àµį
áĢĦáĢ¹áĢ ·
áĢĢ áĢ¼
áĢŃáĢ¯ áĤĶ
ĠÎ ĵ
à®² à¯įà®²
à´ ķàµįà´
ĠÐ´ Ð°
ÏĥÎ· ÏĤ
à°ª à±įà°ª
áĥĿáĥ ļ
ç« Ļ
ç İ¯äºļ
Ġà®ĩ à®°
Î ¤
à´¿à´ Ł
Ġà¦ ¥
ĠÑģ Ð¿
Ġáĥ ¤
àª¨ à«įàª
Î Ŀ
à°² à±ģ
Ñı ÑĢ
Ġ à¹Ĥà¸
éĽ Ĩ
Ġv i
Ġà¦ ²
Ġáĥ ©
à¹ī à¸Ńà¸
Î¸ Îµ
ĠÐ Ĺ
àª ¬
à°² à±ĭ
ļ à¸²à¸
ĠÙĪ Ø§ÙĦ
Ġ =
à¦ ļ
æ Ķ
à¤ §
ĠÏĥÏĦÎ· Î½
àª¾àª® àª¾àªĤ
z t
åľ¨ çº¿
Ġ ï¿½ï¿½ï¿½ï¿½
Ġà¤ «
Ð°Ð³ Ð¸
é ¢
Ġì §
ĠÃ ¨
ow e
Ġc are
Ð°Ñģ Ð¸
Ð¸Ð½ Ð¸Ð½Ð³
Ã½ ch
e y
z ÉĻr
ĠÐ± Ð°ÑĢ
Ñİ ÑĤ
ĠìĿ ´
dÄ± r
× ¦
e it
ãģĵ ãģ¨
Ġs ur
Ã ¹
l Ã¤
ĠÛģ ÛĮÚº
Ġn em
Äģ m
Ġlo ri
æ ł
Ġë Ĥ
Ø «
Ġo d
Ġ Ô
Ġa la
s h
j á»į
Ã³ n
ÑĩÐµ ÑģÐº
Ġc e
¾ ³
áº ·
ëĭ Īëĭ¤
ĠÚ© Ùĩ
ãĢ ĳãĢĲ
Ġ U
Ì £
ãĥ Ń
Ð°Ð½ Ð½Ñı
Ñĥ ÑĤ
áĢĬ áĢ¹
à®Ļ à¯įà®ķ
àµįà´ ³
áĥĿáĥ ł
à¹Īà¸ ĩà¸
à°¿à°ķ à°¿
çī Ī
à¦ Ń
àª¨ à«ĭ
à®± à¯įà®±
à´ Ĺ
áĢ±áĢ Ķ
áĢ¬ áĢĢáĢ¹áĢ
áĢĬáĢ¹áĢ ¸
Î¹ Î¬
Ġà® Ĵ
Ġà´ Ĵ
Ñģ ÐºÑĸ
ĠÎ Ĺ
à°¿à° ¯
áĥ ¬
ç §
æ ´
à®³ à¯į
Î¸ Î·
à´¾à´ ¤
à¦¨ à§įà¦
Ġâ ķ
áĥĶáĥĳ áĥ¡
àª¾àª ¸
Î± Ïĥ
à°Ĥà° ¡
Ð½Ñĸ Ðº
ļà¸Ńà¸ ¥
åĽ ¢
Ã© l
à¦ §
ĠáĥĲáĥ Ľ
¥à¸ °à¸
ĠÎ´ Î¹Î±
ĠÑı Ðº
à«įàª µ
à°¿à° ª
ĭ à¸
u u
ĠÎ ®
Ġà¦¸ à¦®
k u
Ġà¤ı à¤ķ
Î´ Î¿
àª¿ àª¤
Ġ× ł
Ġà¤ ¥
Ġ 6
Ġà¤ ĸ
Ñĩ Ð°
à¤¿à¤ ¨
ìŀ Ĳ
Ġ er
u x
ÙĪ ÙĨ
Ð¸Ð´ Ð°Ð½
ĠÐ± Ð¸ÑĢ
Ð¾Ð² Ð°Ð½
i m
Ä± ÅŁ
Ð» Ð°ÑĪ
Ġï¼ Ī
ìľ ¼
Ġ Q
Ġk e
Ġ ie
Ġ ÈĻi
ĠãĢ į
ĠÄĳ Æ°á»£c
ĠÑģ Ð²
Ã© n
y m
Ġa n
áº¹ n
ãģ ¤
Ġë ĭ
ä½ ĵ
Ġp a
Ġd ÉĻ
Ġo hun
Ġ× Ĺ
Ġ á»Į
çī Į
Ð½Ð° Ñı
Ġd Ã©
ç ¾
Ø¦ ÛĴ
ìĽ Ĳ
Ã© ny
n o
Ġl i
Ġn inu
ĠØ§ÙĦØ £
Ġts e
Ñĥ Ñĩ
áĢ¬ áĢĦáĢ¹áĢ¸
à®¿à® µ
âĢĭ âĢĭ
áĥĿáĥ Ĵ
±à¸ ĩà¸
à±įà° ¸
à¥įà¤¯ à¤¾
Ġà¦¹ à§Ł
àª° à«Ģ
à¯ģà® ±
àµģà´Ł àµĨ
ĠáĢ Ĩ
áĢĲ áĢļáĢ¹
áĢ±áĢ Ľ
ĠÏĦÎ¿Ïħ ÏĤ
Ġà®ª à¯ĭ
Ġà´ ¬
ÑĨ Ðµ
Î¹Îº ÏĮ
à± Ĥ
áĥĿáĥ łáĥ
æ İ
åĴ Į
à®¾à®° à¯į
ÏģÎ¹ Ïĥ
± àµĨ
à¦¾à¦ ¹
ĠâĢ ĵ
áĥĺáĥ ¢
àª ļ
ĠÎ Ŀ
à° ¹
ĠÂ Ń
Ī à¸²à¸
æĪ ·
ãģ ¡
à§ĩà¦ Ľà§ĩ
áĥĵ áĥĲ
à¸£à¸ ´à¸
y n
ĠÑı ÐºÑĸ
Ġàªı àªķ
à±įà° ®
¥ à¸²à¸
iá» ģ
ĠÎ± ÏĢÎ¿
Ġà¦ ĩ
ch en
è§ Ĩ
Ïĩ Îµ
à«ĩàª µ
Ġng a
à¥įà¤ µ
Ġ 9
à¤¾à¤ ¦
ÑĤ Ð°
à ¬
ë Ŀ¼
ĠØ± Ø§
ci Ã³n
Ã³ l
ĠÐ¸ ÑĪ
Ð³ Ð¸
ĠÐ² Ñģ
ÉĻ d
ĠâĢ Ŀ
ĠÐ İ
ãĤ ·
Ġê ·
as Ä±n
v i
×Ļ× ¨
ĠÄ į
ãĤ ¿
Ġp ro
ÑĢ Ðµ
Æ° Æ¡
Ú ĳ
Ġi st
r in
ĀĀ ĀĀ
Ġì Ĥ¬
ĠÑ ī
Ġc s
i b
ê ŀĮ
ÙĦ ÙĬ
Ġm i
áº§ n
ÑĢ Ð°Ð½
æ £
Ġn e
æĸ °
Ĥ °
Ġ Z
ÛĮ Ùħ
æ ²
l á»į
Ġd ans
is ta
Ð½Ñĭ Ð¼
áĢ¶ áĢ¯
Ġà®ħ à®µ
àµ »
Ġáĥĵ áĥĲáĥ
Ľ à¸£à¸°à¸
à° ľ
æ ĭ
à§ ¦
àªĤàª Ĺ
à¯ģà® ³
à´ ´
áĢĲ áĢº
áĢ· áĢº
ĠáĢ ģ
Îº Î±
à®¿à®¤ à¯įà®¤
à´¿ àµ½
Ñĥ Ð¿
ÏĥÎµÎ¹ ÏĤ
à±ģà°² à±ģ
ĠáĥĴ áĥĲáĥĽ
é Ŀ
ç½ĳ ç«Ļ
à®¾à®© à¯į
Î¹ Î½
Ġà´ ī
Ġà¦ «
Ð½ Ð°Ð³Ð°
áĥĺáĥ Ļ
Ł à«ĩ
á ½
à°¿à° ²
ĠÑĤ Ð°Ðº
ģà¸ ±à¸
æĪ ı
ãĥ Ĺ
Ġà§ ¨
Ġáĥ Ŀ
· à¸Ń
ĠÎ´ ÎµÎ½
Ð°ÑĨ Ñĭ
Ġàª¸ àª¾àª
à°¾à° Ĥà°
¡ à¸²
× Ł
Ġ 7
à§ ĥ
Ġ ro
é¢ ĳ
Ġ 8
àª¾àª ²
Ø§Ø ¡
à¤¤ à¥ĩ
ÏĦÎ± Î½
à¤ ¶
ÑĢ Ð¾
à¤ Ī
ì Ĩ
Ã© p
Ø¯ Ùĩ
d h
ĠÐ±Ð¸Ð» Ð°Ð½
Ð¾Ð½ Ð¸
Æ°á» Ľ
ĠâĢ ľ
lÉĻr i
Ð¸ Ñĳ
ãģ Ľ
Ġë ª
s o
Õ µ
Ø§ Ûģ
Äģ k
ãĤ £
Ã© t
c ie
Ġf Ã¼r
ĠØ§ÙĦ Ø¹
y Ã¶
Ġm áº¹
ĠãĢ Į
ì² ľ
s e
Ð ŀ
c an
Ġi le
ĠÐ¿ Ð¾Ð»
Ġgb a
ĠÙĨ Ûģ
Ġm in
iá»ĩ n
×ķ× ĵ
Ġg j
Ġê ¸
rz e
Ø§ Ø¨
ĠSe x
j i
æĿ ¥
Ġma i
Ðµ Ñĩ
áĢķ áĢº
à®© à¯įà®±
Ġà´ ľ
áĥłáĥ Ĺ
¶ à¸
à°¾à° ¤
å ĳ
à§ Ĥ
àª¾àª ľ
à®¾à®² à¯į
à´¾à´ ²
áĢ ĺ
ĠáĢ Ķ
ĠáĢ Ĵ
Î¹Îº Î®
Ġà®ķ à¯Ĭ
àµ ¾
Ð» Ð°
Î¿ ÏĤ
à°Ł à±įà°Ł
áĥĺáĥ ķ
éĽĨ åĽ¢
æ¸¸ æĪı
à¯ģà® ¨à¯įà®¤
Î¼ ÏĮ
Ġà´ ²
Ġà¦ ĸ
Ð½ Ð°Ñģ
áĥĶáĥ ¢
Ġàªµ àª¿àª
Ïģ Ïĩ
à°¿à° °
Ñį ÑĢ
à¸£à¸µ à¸
éĻ ħ
ãĤ ı
à¦Ł à¦¿
áĥĺáĥ Ľ
§ à¸´à¸
Ïĥ ÏĦÎµ
ĠÐ Ľ
Ġàª Ł
à° ¬
à¹ī à¸Ļà¸
r es
ĠÎµ Î½
à§ĩà¦ ĩ
Ġa uf
Ġà¤Ń à¥Ģ
Ïĥ Î±
à«ĩàª ¶
Ġtr ong
Ġà¤ķ à¤¿
Ïģ Ïİ
à¤¾à¤ ¸
Ð¸ ÑĦ
à¥ Į
ë ©
s Ã©g
Ġa t
v at
Ñĥ Ð±
ĠÑĥ Ñĩ
ĠØ ²
Ö Ħ
b ay
ĠÐ ¨
ãĤ ³
Ġì ¹
Ġ× ª
iy a
w i
Ġp as
ãģĦ ãĤĭ
Ġå ħ
le t
Ð¾ÑĤ Ð¾ÑĢ
ts a
Ġå ĩ
Ġl á»į
å ł
Ġë ³
Ġp or
Ã Ł
lar Ä±
Ġa y
m o
Ġy oo
Æ°á»Ŀ i
å¤ ©
Ø± ÙĬ
Ñĸ Ð¹
Ġa c
ë ¬
v o
Ã¡ k
dz ie
Ġ Y
¾³ éĹ¨
Ø´ Øª
×ķ× Ł
áĤ Ī
à¯Īà® ķ
Ġà´µ à´¿à´
áĥķ áĥĺáĥ¡
ĵ à¸
à°Ĥà° ²à±ĭ
O M
Ġà¦Ĩ à¦®
Ġàª° àª¹
à¯ģà®ķà¯įà®ķ à¯ģ
àµģà´ ³
áĢ Ŀ
áĢĲ áĢ¬
áĢĻáĢ¹áĢ ¸
ĠÎµ Îº
Ġà®İà®© à¯įà®±
à´± àµįà´±
Ð ĵ
ĠÎ Ĵ
à°¾à° ®
áĥĶáĥ Ĵ
åĿ Ģ
å®ĺ æĸ¹
à®¾à® µ
ĠÎ¿ Î¹
à´¾à´¯ à´¿
à¦¾à¦ ª
ÐµÐ»Ð°ÑĢ ÑĥÑģ
Ġáĥ ¢
àªµ àª¾àª¨
ĠÏĦÎ¹ ÏĤ
Ġà° Ī
ĠâĢ ļ
± à¹īà¸
ĠC OM
ãģ ¿
Ġà¦ Ľ
áĥĶáĥļ áĥĺ
à¹ĥà¸ Ĭ
Ġ &
ĠÐ ¯
Ġàª®àª¾àª Łà«ĩ
à°¾à° Ł
ł à¸²à¸
Ġv er
Ïģ ÎŃ
à§įà¦ ª
Ø§ Ú©
è§Ĩ é¢ĳ
ĠÂ °
à«ĭ àªķ
ĠÐ² Ð¾
Ġà¤² à¤¿à¤ı
ĠÎ¼ ÎŃ
à¤ Ń
ĠÒ ·
à¤° à¥Ģ
Ġì Īĺ
r y
ĠÐº Ð°Ðº
Ġp ie
ĠÒ ļ
ĠÐ¼ Ðµ
Ø¦ ÛĮ
as Ä±
Õ¥ ÖĢ
Ð° ÑĦ
å ĵ
ì Ĥ°
c Äĥ
Õ¡Õ ¯
á» ĵ
l es
ãĥĥ ãĥĪ
ä¼ ļ
ĠÑĤ Ð°
ĠØ¹ ÙĦÙī
Ã¡ ny
å Ł
Ġgb o
áº¡ n
Ġê µ
Ġãģ Ŀ
Ġm Ã«
bay can
t á»į
Ġ ri
Ġt á»įn
Ġj est
Ġv y
te l
æ ¬
×ķ× ĳ
í Ķ
ĠØ µ
Ñĭ Ðµ
Äģ d
f i
å ¨
Ġf el
Ð¾ ÑĹ
áĢ± áĢ¸áĢ
Ġà®ħ à®¤
àµĨ à´¨àµįà´¨
áĥ ¨
à¸Ń à¸²à¸
à°¾à° ķ
æĹ¶ å½©
à§įà¦ ¥
àª¾àª £
Ġà®ļà¯Ĩ à®¯
à´¨ àµįâĢį
áĢŃáĢ¯ áĢ·
áĢŃáĢ¯ áĢĦáĢ¹áĢ
áĢĸ áĢħáĢ¹áĢ
ĠÏĥÏħ Î½
à¯įà® ®
Ġà´İ à´¨àµįà´¨
Ð°Ð² Ñĸ
Î¼ Î¬
à° £
ĠáĥĴ áĥĲáĥľ
åħ ¬
åĪĨ å½©
à®¾à® ¯
ÏĢ Î±
à´¿à´ ¨àµįà´
Ġà¦ Ł
ĠÑĸ Ð½
áĥĲáĥ Ĵ
àª Ń
ĠÎ± Î½Î±
à°ķà±įà° ķ
ĠÑĢ Ñį
à¸Ń à¸£
1 0
Ġi m
Ġà¦¬ à¦²
áĥĺáĥ Ŀ
Ĥ à¸Ńà¸ĩà¸
ĠÎŃ Ïĩ
Ð¾Ð´ Ð·
àª¾àª ¦
Ġà° Ń
à¸² à¸Ļà¸
v Ã¤
ÏĦ Î¯
à¦¿à§Ł à§ĩ
ÙĦ Ø§
à¥ĩà¤ ¶
ĠÎŃ Î½Î±
à«ĩàª Ł
Ļ Ĥ
à¤Ĥ à¤Ĺ
Ġ. ..
à¤¾à¤ ľ
Ñĥ Ð·
å° ı
Ġì ¶ľìŀ¥
Ð°Ð¼ Ð¸
Ġm á»Ļt
en ia
Ð± ÐµÐº
ĠÑŀ Ð·
on t
ÉĻs i
Ġ Æı
ĠÒ ²
å ĭ
ìĸ ´
ÙĪ Ø²
Ġb u
Ð¿ ÑĢ
on a
ĠS ch
æ³ ¨
Ġ× ¨
ĠÐŁ ÑĢ
Ġa p
Ġæ ¾³éĹ¨
ar i
ĠØ¨ Ú¾ÛĮ
¹ Ħ
çĶ ¨
a gy
ĠA zÉĻr
Ġd ara
Ùĩ Ø§ÛĮ
Ġa ra
s Ã¤
æľ ¬
to r
Ġ ä»
cz y
ë§ Į
l en
ĠÐ¿ÑĢ Ð¾
ĠÛĮ Ûģ
k un
Ø º
Ã© e
Äĵ r
áĢ½ áĢŃ
à®Ļ à¯įà®ķà®³
Ġà´ ¯
áĥĺ áĥĲáĥľ
à¸Ńà¸ ¢
Ġà° ¶
çľ Ł
Ġà§ §à§
àª¤ àª¾
à®¾à® ³
àµģà´¨àµįà´¨ àµģ
áĢ² áĤĶ
áĢĲ áĢ²áĢ·
áĢ±áĢ ĲáĢ¬
ÏĢ Îµ
Ġà®ª à¯Ĩ
àµ Ī
ĠÐ Ĩ
ĠÎ Ļ
à±ģà° °
áĥ ŀ
å½© ç¥
æĹ¶ æĹ¶å½©
Ġà® °
ÏĨ Î¿
à´¿à´ ¤
Ġà¦ħ à¦¨
Ñĸ ÑĤ
áĥĺáĥ ļáĥĺ
ĠàªĨ àªª
Î»Î¿ Î³
à°° à±į
Ð» Ð°Ð´
à¹ī à¸Ļ
ä¸ º
Ġvá» Ľi
à¦¿à¦ ¬
áĥ £
¨ à¸
Ġ !
Ġ1 9
à«ĩ àª°
à°Ĥà° Ĺà°¾
Ľà¹ĩ à¸Ļà¸
Å¼ y
ĠÎº Î¬
à¦ ¥
×Ļ× ł
ä¹ ħ
ĠÎµÏĢ Î¹
àª¾àª° à«ĩ
ç ´
à¥ ī
Ïĥ Î¹
à¤¹à¥Ģ à¤Ĥ
ĠÐ± Ð¾ÑĪ
à¤ķ à¥įà¤
í ĸ
ĠÑģ Ð»
Ġt e
ch e
Ñĥ ÒĽ
ĠÑį ÑĤ
Ġts a
Õ¡Õ µ
Ã¶ v
ĠÐ´ Ð°Ð²
æľ Ī
¯ ¸
u k
Ġi lÉĻ
ĠÐ¿ÑĢ ÐµÐ´
Ġl os
Ġs Äĥ
Øª ÛĴ
Ġqu i
ÑĨ Ð¸
iá»ģ u
an d
Ġi á¹£
Ù Ģ
Ġìŀ Ī
ãĥĥ ãĤ¯
el y
ĠAzÉĻr baycan
á»įn a
ĠÙĦ ÙĦ
Ġgbo gbo
Ġj o
è ²
on o
Å¾ e
u ar
Ġë ĮĢ
Ġå ı
Ð¸ÑĤ ÐµÐ»ÑĮ
in Äģ
y a
áº£ i
k ie
Ġg e
ĠáĢ ĳ
à®¿à®Ł à¯įà®Ł
à´¨àµįà´ ¤
áĥ ¦
Ġà¸ Ħ
à°¾à°² à±ģ
a g
à¦ ¯à¦¼
à«įàª¯ àª¾
à®¾à® ®
Ġà´ ¶
áĢ±áĢ ĲáĢ¼
áĢŃ áĢ³
áĢŃáĢ¯ áĢ¸áĢ
Î Ľ
Ġà®Ĵ à®°
à´² àµįà´²
Ñĸ Ñı
Î ł
Ġà° ¹
Ġáĥ ª
ä¸ ª
åľ °
Ġà®µ à®°
ĠÎ ¹
àµįà´ ŀ
à§ĩà¦ Ľ
ĠÐ· Ð°
áĥĲáĥ ĺ
à«įàª ²
Îº Î¿
Ġ. .
Ñĥ Ðº
ĩà¸´ à¸Ļà¸
åĽ½ éĻħ
Ùģ Øª
à¦¬ à§ĩ
áĥļ áĥĺáĥ¡
Ħà¸ ¸à¸
Î¹Îº Î¬
Ñĥ Ð»ÑĮ
Ġàª ¡
à°ļ à±įà°ļ
à¸Ļ à¹Į
×ķ× ł
ĠÎ ¾
à¦ķ à§ĩ
is h
à¤ķ à¥ĩ
Ïĥ ÏĦ
Ġàª¤ à«ĭ
ãĥ Ĩ
à¤¡ à¤¼
Î» Î¬
à¤¾à¤ ¹
Ñĩ Ð¸
Ġà¤µ à¤¿à¤
Ġì ĥ
Ñī Ðµ
n ak
Ùħ Ø§
ĠÐ ¥
Ð¾ÑĢ Ð¸
Ġn u
Õ ¿
Ġb il
Ð» Ð°ÑĤ
ĠãĢ ĳ
ë ĮĢ
Ġj ak
Ġt ÉĻ
Æ°á»Ŀ ng
Ġ Å¡
lu s
ĠØ ·
Ã¤Ã¤ n
b e
ĠÐº Ð¾ÑĤÐ¾ÑĢ
ÈĽ i
Ġta bi
n en
ë ª
ç µ
t Ã³
ĠÕ °
k e
Ġdel la
in i
p Äĵ
è ª
Æ°Æ¡ ng
å¸ Ĥ
a u
ê± ¸
c ia
Ñħ Ð¾Ð´
è¡ Į
Ġna a
×Ļ× Ķ
ĠØ§ÙĦ Ø³
Å ¯
áĤı áĢ½
à®³ à¯įà®³
àµģà´³ àµįà´³
áĥĺáĥ £áĥ
Ł à¸
à°¾à° µ
äº ¬
Ġà¦ķà¦° à§ĩ
à«ĩàª ķ
à®¿à® ªà¯įà®ª
ŀ àµįà´ŀ
áĢķ áĢ¼
áģ¿ áĢķ
áĢĻ áĢ¾
Î´ Î±
Ġà®µ à¯ĩ
àµįà´ ®
Ñĸ Ñĩ
Î»Î» Î¬
à±ģà° µ
áĥĲáĥ ¨áĥĺ
å¿« 3
è Ī
à¯ģà® ªà¯įà®ª
Î· ÏĤ
àµįà´ µ
à¦¿à¦ ¸
Ġ Ð°
Ġáĥ §
à«įàª¯ à«ĭ
Î ľ
à° ³
ĠÐ³ Ñĵ
à¹ Ĩ
çĻ »
ĠØª Ú¾
à¦ ĸ
áĥĲáĥ Ļ
Ġà¸ ŀ
ÏĦÎ¹Îº ÏĮ
Ñĸ Ð¼
àª¿ àªµ
à±Ī à°¨
Ġà¸ Ĺà¸
b le
Ġ %
Ļ à§įà¦
Ø§ Ø²
à¤¸ à¥ĩ
Î¼Î± ÏĦÎ±
Ġàª¸ àª®
he t
çľ ĭ
Ġ1 0
à¤ ı
ĠÑĤ Ð°ÑĢ
Ġà¤° à¤¹
ìł ķ
iá» ĥ
ĠV er
Ð½Ð¾ Ðµ
ĠÑĤ Ñŀ
ĠÐİ Ð·
Ġv o
Õ¡ ÖĢ
m ÉĻ
Ð¸Ð» Ð³Ð°Ð½
ãĤ «
ê² Į
j Äģ
Ġ ÉĻ
Ġprz y
Ø± Ø¯
Ðº Ð¾
Ã¡ z
s en
åĩ º
Ġo u
ĠÐº Ð¾Ð¼
iy an
Ġp ara
í ĺ
ÙĬ Ø¯
æĸ Ļ
Õ¸ÖĤÕ ´
r áº¹
Ġun a
ay e
Ãł ng
w ie
l is
ãĥ £
ĠkÃ¶ z
ìķĪ ë§Ī
Ġ× ¤
Ñĭ Ð¹
n Ã½
Ġe yi
a d
ĠÙĩ Ùħ
ĠØ§ ÛĮÚ©
áĢĶ áĢ¹
Ġà®ĩ à®¨à¯įà®¤
ª àµįà´ª
Ġáĥŀ áĥł
« à¸Ļ
à° §
ä¸ ļ
à§ĩà¦ ĸ
Ġàª¤ àª®
ª à¯į
à´ ¶
áĢģ áĢº
áĢĽ áĢ¬
áĢ Ł
ÏĢ Î¿Ïħ
à¯ĩ à®°
àµģà´ µ
ÑĪ Ñĭ
Î¼ Î²
à°¿à°Ĥà° ¦à°¿
Ġáĥĺ áĥ¡
à¤¾à¤ ļ
è½ ¦
à¯Īà® ķà¯įà®ķ
Î ¥
à´² àµįâĢį
à¦ ĵ
Ñģ Ð¿
áĥ£áĥł áĥĺ
à«įàª¯ à«ģàªĤ
ÏĦ ÎŃ
à° Ń
ÑĢ Ð°Ð¼
à¹ī à¸Ńà¸ĩà¸
çĶ Ł
Ġs ch
à¦¨ à§įà¦¤
áĥĽ áĥĲ
à¹Ħà¸ ¥
t h
Ñĸ ÑģÑĤ
àª¿àª ²
à±ģà° Ĺ
ģ à¹Ģà¸
Ġng h
ÏĦÎ¹Îº Î®
Ġà¦ľ à¦¨
ĠÃ®n t
Ġà¤ħ à¤ª
ĠÎµ Î¯
àª¾àª ³
Ġya ng
Ġà¤¸ à¤®
Îº ÏĮ
à¤¾à¤ µ
ĠÒĽ Ñŀ
Ġà¤ ¡
Ġë ¶
Ġc z
Ã¡ m
Ã« t
Ò³ Ð¾
Ð°ÑĢ Ð¸
ĠØ£ ÙĨ
Ġm ÉĻ
in ÉĻ
ĠÐ¹ Ð¸Ð»
ãĥ ¡
Ġê· ¸
Ġs ich
li k
re a
Ġa ve
ÐµÐ½ ÑĮ
Ø³ ÛĮ
Ä«b as
ãģ¾ ãģĹãģŁ
Ġk u
Ãł nh
Ġa w
g g
í Ĩ
Ð°Ð± Ð¾ÑĤ
Ġ×Ĳ ×ª
o x
ur o
é ĺ
il áº¹
em ent
n ek
Ð³ Ð¾
Ġs t
Ð¾Ð¼ Ñĥ
ê³ ¼
ĠÑģ Ðµ
æ ±
it Ã©
Ġs o
ÙĪ ÛĮ
áº£ n
ÙĨ Ø§
áĢŃáĢ¯ áĢĦáĢº
à¯ģà®³ à¯įà®³
à´Ļàµįà´Ļ à´³
ĠáĥĽ áĥĿáĥ
Ĺà¸ ¢
à°¨ à±į
å® ¢
à§ĭ à¦¨
à«įàª ¸
à®¿à® ´
à´ ¹
ĠáĢ »
áĢ» áĢķ
áĢĲ áĢ½
ĠÏĮ ÏĦÎ¹
à®¤à¯įà®¤ à®¿à®²à¯į
àµģà´ £
Ñİ ÑĨÑĮ
Î» ÎŃ
à°° à°¿à°
Ġáĥ ļ
å¿« ä¸ī
2 2
à®ªà¯įà®ª à®Ł
ÏĦÎ¿ ÏĤ
à´ ·
Ġà¦¬ à§įà¦¯
Ð» Ð°Ñģ
áĥĲáĥ ļáĥĺ
à«ĭàª ²
Î· Î½
à°¾à° ¦
Ñĸ ÑĨÑĮ
Ġà¸ ķ
åİ ħ
v Äĵ
à§ģ à¦¨
áĥĶáĥ ¥
à¸Ļ à¸²à¸
ĠÏĥ Î±ÏĤ
ÑĨ Ñı
àª Ī
Ġà° ı
±à¸ ģà¸
ts o
ĠÏĢ Î¿
Ġà¦¨ à¦¾
ĠÅŁ i
à¤¤ à¥Ģ
ÏĦÎµ ÏĤ
àª¾àª Ĺ
Ġes te
Ġà¤¨ à¤¹à¥Ģà¤Ĥ
Ïĥ Î¿
Ġà¤¸ à¤Ĥ
Ð°ÑĢ Ð´
Ġà¤ Ł
ìĹĲ ìĦľ
f f
Ġt Ã¶
ä½ ľ
Ð¸ÑĪ Ð¸
ĠÑ İ
Å Ī
ĠÃ¼ Ã§
Ã¤ y
Ñĥ ÑĪ
Ġ Ã«sh
ìĦ ±
cj i
Ġet a
ĠC h
ĭ çīĮ
× ĸ
ĠÐ¼ Ð¾Ð¶
ĠØ§ÙĦ ØŃ
Õ« Õ¶
Õ¥Õ ¬
ãģ® ãģ§
Ġs á»į
in d
ëĵ ¤
ti es
ãĥ ŀ
ÅŁ Ä±
Ġa gb
æ£ ĭçīĮ
á¹ ¢
ÐµÐº ÑĤ
Ġ gy
k ov
Ġng Æ°á»Ŀi
ĠÙĩ Ø§ÛĮ
Ġ íķ
Ġk tÃ³
è ĩ
an a
y in
ĠÐ¿ÑĢ Ð¸
Ø§Ø± ÛĮ
Ã ¥
ĠáĢ ĺ
à®° à¯įà®ķà®³
Ġà´Ĵ à´°
áĥĺáĥ łáĥ
à¹ĥà¸« à¹īà¸
Ġà° Ł
è ¾
Ġà¦¬ à¦¾à¦
Ġàªķàª° à«Ģ
à®® à¯įà®ª
Ġà´ Ł
áĢ¬ áĢĦáĢ¹áĢ
áĢ¯ áĢķáĢ¹áĢ
áĢ Ĵ
á ¼
à®° à¯įà®ķà®³à¯į
à´¾à´ µ
Ð» Ðµ
Î ©
à°¿à° µ
áĥĶáĥĳ áĥ£áĥļáĥĺ
çĶ µ
è® ¡
à®¾à® ®à¯į
ÏĢ ÏĮ
ĠâĢĭ âĢĭâĢĭ
à§Ģ à¦°
Ð³ Ñĵ
áĥĶáĥĳ áĥĺáĥĹ
àª¾àª Ī
Îµ Ïħ
Ġà° Ĵ
ĠÐĳ ÐµÐ»Ð°ÑĢÑĥÑģ
à¸£à¸±à¸ ļà¸
é Ĵ
da d
Ġà¦ ¡
áĥ£áĥ łáĥ
à¹ĩ à¸Ńà¸
Ġ >
Ñĭ ÑĤ
àª¾àª° à«Ģ
Ġà°ļ à±Ĩ
à¸Ń à¸Ńà¸Ļ
Ù ĳ
Îµ ÏĦÎ±Î¹
à§įà¦ ²
Ġv ous
Ġà¤Ĩ à¤ª
ĠÎ¤ Î¿
àªĤ àª¤
ta a
à¥ĭ à¤Ĺ
ÏĦÎ± ÏĤ
à¥įà¤ ®
ĠÐ± Ð¾
è´ ¹
ìľ¼ ë¡ľ
ĠÃ®nt Ã¢
ĠS z
a m
ĠÐ¾ Ð»
ĠÐ± ÐµÑĢ
æ ¥
te k
ÄŁ Ä±
ĠÑĤ Ð°ÑĬ
Ġk tor
ìķ Ħ
ĠÃ«sh tÃ«
c t
×Ļ× ľ
Ġw ir
Øª Ø±
Ġï¼ ģ
Ð¾ÑĢ Ð¼
Ä« t
Ð½Ð¸ Ðº
ãģ¨ ãģĦ
Ġ á¹¢
ĠA z
íĻ Ķ
Øª ÛĮ
Ġãģ ĵ
Ġn ÉĻ
b áº¹
il or
j o
Ġn el
èĤ ²
Ġni cht
ä¸ ĩ
ç¾ İ
ë ŀ
ĠÑĢ Ðµ
á»¯ ng
Ġprz e
Ġo lu
tion s
Ñı ÑĤ
ts e
áĢ±áĢ¬ áĢĦáĢº
à¯ģà® °
à´¿à´¨àµįà´ ±àµĨ
áĥĶáĥľ áĥ¢
ľà¸ ¹
Ġà°¸ à°Ĥà°
± ä¹Ĳ
à§ĩà¦ķ à§ĩ
à«įàª ·
Ġà® ı
à´¿à´² àµįà´²
áĢ±áĢ ľ
áĢĻ áĢ½áĢ¬
áĢĲ áĢ¼
Î» Î®
à®¾à®Ł à¯įà®Ł
à´ ¬
Ð°Ð» Ð°
ĠÎ §
à°¾à° Ĺ
Ġáĥ¡ áĥĲáĥĽ
Ġag çİ¯äºļ
éĢ Ł
Ġà®µ à¯Ĩ
ÎŁÎ ¥
à´ ļàµįà´ļ
Ġà¦¤ à¦¾à¦°
ĠÑģ Ðº
áĥĲáĥ ¨
àª «
Ïį Î½
¡ à°¾
Ð°Ð» Ðµ
à¸Ńà¸Ńà¸Ļ à¹Ħà¸¥
èµ Ľ
Ġp ÅĻ
à¦ķ à§įà¦·
áĥĲáĥ ĸ
à¹īà¸ §à¸
ÏĦÎ¹Îº Î¬
ÑĢÑĭ Ð¼
àª¨ à«ģàªĤ
à±ĩà° ¦
à¹Ħà¸¡ à¹Īà¸
ĠgÃ¶ r
ĠÏĢ Î¿Î»
Ļà§įà¦ Ĺ
ĠI n
Ġà¤¸ à¤¾à¤
Ġ <
Ġàª ¯
Åĳ l
à¤¨ à¥Ģ
ĠÎµ Î¾
Ġà¤ī à¤¨
ĠÐ´ Ðµ
į è´¹
Ġì ľ
Ġåĩ ¯
ĠÃ®ntÃ¢ l
j Ãº
ĠÑĤ Ð°ÑĪ
Ñģ Ð¸
are a
ur s
Ù ĭ
ÑĢ Ð¸
b y
Ġê° Ģ
ç Ħ
Ġ #
Õ« Õ
Ġ× §
ie t
ãģĦ ãģ¾ãģĻ
Ã ±
Ø ¸
Ġb e
te t
an i
Ã¡ ch
ì ½
Ġp lus
ĠØ§ Ù
d u
ĠM o
Ð¾ Ðµ
? ?
ĠÙĨÛģ ÛĮÚº
åĪ °
åĵ ģ
å· ¥
an o
ë ²
Ñĸ ÑĹ
ÑģÑĤÐ² ÐµÐ½
å ī
Ġni pa
ĠD e
en d
u ks
áĢľ áĢŃáĢ¯
à®¿à® ļ
à´¾à´ ķàµįà´ķ
áĥĲáĥ ¥
ªà¸ ¸à¸
à±įà° ¦
åį ķ
à¦ Ľ
Ġàª §
à®Ł à¯ģà®¤à¯įà®¤
à´ Ń
áĢ¸áĢ ±áĢ
áĤ Ģ
áĢĻ áĢ»
Î± Ïģ
Ġà®Ĵà®° à¯ģ
àµĨ à´Ł
Ñĸ ÑĢ
Î¿Ïħ Î¼Îµ
à°Ĥà°¦ à°¿
áĥ® áĥķ
è ĥ½
åĽ ¾
à®© à¯įà®©
ĠÎ ¦
Ġà´ ¦
à§įà¦ ®
Ñĸ Ñģ
áĥ ĸáĥĶ
Ġàª ĺ
ÎŃ Ïģ
à±Ĥà° °
Ñĸ Ðº
à¸² à¸£
ãĢ Ĥ
Ġc Äĥ
à§ĩà¦ Ł
áĥĶáĥ Ŀ
Ħà¸§à¸²à¸ ¡à¸
ĠÎ¼ Î¹Î±
ÑģÐº Ð°Ð¹
Ġàª¤ à«ĩàª®
à°¾à° ľ
à¹Ī à¸Ļà¸
Õ¡ ÖĢÕ
ÏĦÎ¹Îº ÎŃÏĤ
Ġà¦ı à¦¬
ĠØª ÙĪ
à¥ģ à¤°
ĠÏĢÏģÎ¿ Ïĥ
à«ĭàª ¡
Ð¶ Ðµ
å°ı æ¸¸æĪı
ĠÏĥ ÏĦÎ±
Ġà¤¯ à¤¹
Ð° Ñĳ
è ī
ìĥ µ
l Äĵ
Ġ× Ĵ
Ãł n
Ðĺ Ð
Ð±ÐµÐº Ð¸ÑģÑĤÐ¾Ð½
e re
ĠÑģ Ð¾
ny ch
ĠÑĥÑĩ ÑĥÐ½
es z
ì Ļ
Ġv a
m ÉĻk
ãĥ ¥
Ġb er
ĠÃ¼Ã§ Ã¼n
Ùħ Ø§ÙĨ
Ġa us
Ùħ ÛĮ
an h
Ġla s
Ġt un
Ġt la
ë¶ Ģ
ĠãĢ Ĳ
ãĥ ī
Ġn on
p in
ĠÐº Ð¾Ð½
Ġo f
at Ã³
Ãł i
æ ĻĤ
ĠØ± Ûģ
Å« s
ìĥ ģ
Ġn uk
ÑĤ ÐµÑĢ
Ġ×ľ ×Ķ
áº ¸
il le
i g
iyy ÉĻt
ĠáĢ ĸ
Ġà®¨ à®Ł
à´ķàµįà´ ·
áĥĺáĥ ĸ
à¹Īà¸ ĩ
Ġà°¤ à±Ĩà°²
ç ł
à¦¿à¦ ¶
àª ĸ
à¯Īà®¯ à®¿à®²à¯į
à´¾à´¨ àµįâĢį
áĤĢ áĢĢ
ĠáĢŀ áĢ°
áĢĦ áĢ·áĢº
Ïģ Î®
à®ªà¯įà®ª à®Łà¯įà®Ł
àµģà´ ±
Ġ ]
ĠÎ Ľ
Ġà°ħ à°¨
áĥĿáĥ ¤
å¨ ±ä¹Ĳ
æ Į
à¯Ī à®¤à¯įà®¤
Î» Î¯
Ġà´ħ à´µ
à¦ķ à§įà¦¤
Ð» ÐµÐ½
áĥĺáĥ ¨
àª¾àª° àª¾
Î¼ Î·
Ġà°ķ à±Ĭ
Ð°ÑĤ Ñĭ
Ľ à¸£à¸
W W
at a
à§ĭ à¦Ĺ
áĥķ áĥĶáĥľ
Ĥ à¸Ńà¸ĩ
Â µ
Ġ [
àª¶ à«ĩ
à±įà°² à±ĭ
Ķ à¹Ģà¸
n os
Ġ \
à¦¾à¦ Ĺ
ĠØ§ Ù¾
çī ĩ
et h
à«ĩàª ¸
Ð½Ð¾ÑģÑĤ ÑĮ
à¤ «
ĠÎºÎ± ÏĦÎ±
à¥įà¤ ²
ĠÐ¾ Ð½
Ġ à¶
ìł ľ
áº§ u
un k
e a
Ð°Ð½ Ð¸
ÐĲ Ð
Ø± ÙĪ
Ġave c
Ã¡l l
Ð¸Ð» Ð°ÑĢ
es h
Ġ" :
Ä ·
Ġi ÅŁ
æ Ħ
ÅĤ y
ĠS ie
u e
Ð½Ð¾ÑģÑĤ Ð¸
Ġa le
in t
it Ãł
Ġn á»į
Ġ× ĵ
ìł Ħ
äº ĭ
ãĤ µ
Ġk Äģ
Ġá¹£ i
ĠØ¢ ÙĨ
es e
Ä± z
ÑĢ Ð¾Ð²
ãĥ Ĳ
Ġnh Æ°
ÙĬ ÙĦ
ëĤ ĺ
n ÄĽ
Ġe x
Ð½Ð¸ Ñħ
ow o
Ġo a
Ġt Å¡
an e
±áĢ ĲáĢ¬
Ġà®¤ à¯Ĭ
àµģà´¤ àµįà´¤
Ġáĥ¡áĥĲáĥ ¥
à¹Ħà¸Ķ à¹īà¸
à°¾à°¨ à°¿à°ķà°¿
è¦ ģ
à¦¦ à§ĩà¦°
¥ à«ĩ
à® ¸
à´ ¡
ģ áĢº
áĢ±áĢ ŀ
áĢ¸áĢ Ļ
ĠÎ ĺ
Ġà®ķ à¯Ĥ
àµģà´£ àµįà´Ł
ĠÐ½ Ð°Ð²
Î¬ Î»
à° ·
áĥĲáĥł áĥĺ
å½ ķ
çĲ Ĩ
à®Ļ à¯įà®ķà®³à¯į
Î¼ ÏĢ
à´¿à´ µ
Ġà¦¸ à¦Ĥ
Ð´Ð· Ðµ
áĥ ĸ
àª¾àª ķ
Ġ á¼
à°¿à° ®
ĠÐ¿ Ð°Ð²
à¸Ļà¸µ à¹ī
èµ °
k Ã¶
Ġà¦ı à¦ĩ
ĠáĥĶ áĥłáĥĹ
ª à¸´
Ġ0 0
Ð ĥ
Ġàª¹ à«ĭàª
à°¿à° ¸à±įà°¤
à¹Īà¸ §à¸
ÙĦ Ûģ
ÎµÎ¹ ÏĤ
à¦ «
Ñĥ Ð¶
à¤² à¥ĩ
Ïĥ ÏĦÎ·
àª¾àª¨ à«Ģ
ĠS h
à¤ ĸ
Î³ ÏģÎ±
à¥įà¤° à¥Ģ
Ð¸Ñı ÑĤ
Ġà¤¹ à¥Ģ
í ĥ
ÅŁ a
ie k
Øª Ø§
Ġ Ð°Ñģ
Ñģ Ð°
m Ã¤
r t
c es
ĠÐ± Ñĥ
Æ°á»Ľ c
ëħ ¸
ÑĢ ÐµÐ¼
Ġn d
Ġ×Ķ× ŀ×
ĠÃ º
l iy
ãĥ ģ
ung en
ÙĪ Ùħ
um s
k in
d á»į
v er
Ġì¹ ´
Ð¸Ð» ÑĮ
ãģĤ ãĤĭ
Ġ Å¼e
Ġa ko
æ ĥ
Ġi f
k or
Ã¢ y
ĠÐ ķ
d il
ç Ĥ
ë į
o a
la h
Ġf a
ĠT i
ĠÚ©ÛĮ Ø§
Ø§ Ø¹
ks i
áĢ±áĢ ķ
à®± à¯įà®ķ
à´ķàµįà´ķ àµį
Ġáĥ¨ áĥĶáĥĽ
Īà¸ °à¸
à±Ģ à°¸
æľ Ģ
Ġà¦¥ à§ĩà¦ķà§ĩ
àª¾àª ĩ
à¯Īà® µ
àµįà´ ¥
áĢ¬ áĢ¹áĢ
±áĢ Ķ
áĢĻ áĢ½
ÎĻÎ ļ
à®¿à® ®
à´¸ àµį
ĠÐ³ÑįÑĤ Ð°
ĠÎ¼ Î±ÏĤ
Ġà°ª à±Ĩ
áĥ ¤
ĠW WW
ä ¾
Ġà®ħ à®°
ĠÏĥ ÏĦÎ¹
à´¿à´Ł àµįà´Ł
Ġà¦Ĩ à¦°
ĠÐ½ Ñı
áĥĺ áĥĺáĥ¡
à«įàª ®
ĠÏĢÎµ ÏģÎ¹
à±ģà° ¡à±ģ
Ð°Ðµ ÑĨÑĨÐ°
¡ à¹Ģà¸
å½©ç¥ ¨
l Äģ
à§ĩ à§Ł
£áĥ ļ
à¸µà¸ ¢
ÏĮ ÏĦÎµ
ĠÐ¿ÑĢ Ð°ÑĨ
Ġàª¶ àªķ
à°Ĥà° Ĺ
«à¸ ¥à¸
Ġein e
Î´ Î¹Î±
à¦¾à¦ ¶
ĠÐ¿ Ð¾Ñģ
à¤¯ à¤¾
Ïģ ÎµÎ¯
àªĤàª ¦
Ġe z
à¤¾à¤° à¥Ģ
ÏĢÎ¿ Î¹
Ġà¤¤ à¥ĭ
ĠÐ± Ð¾ÑĢ
å½ ±
í ı
Ã« m
Ġd z
Ġs u
ĠÐİÐ· Ð±ÐµÐºÐ¸ÑģÑĤÐ¾Ð½
Ð¾ Ò·
ĠØ¨Ø± Ø§ÛĮ
Ñĸ Ð»ÑĮ
Ġ×ľ ×Ĳ
ĠÒĽ Ð°ÑĢ
á» ģ
Ġë ı
ĠÐ ¤
d Åĳ
ts i
en ÃŃ
Ù Ĳ
Ġs p
Å ŀ
i re
ĠØ¨ Ø§ÙĦ
z et
Ġi gb
Ä °
Ġìķ Ħ
ĠÑĢ Ð°Ñģ
áºŃ n
Õ ¨
p as
é ¡
h in
ÅĽ Äĩ
Ø§Ø¦ ÛĮ
ĠÐ¸ Ð»Ð¸
Ä±n da
Ġau ch
¡ °
ĠL e
Ä« dz
×Ļ× Ł
n u
åħ ¨
Ġsz er
± Û
áĢ±áĢ¬ áĢĢáĢº
Ġà®® à¯ģà®
à´¾à´° àµįâĢį
Ġáĥ ĸ
¥ à¹ĩà¸Ńà¸
à°¾à° ¡à±ģ
ç½ĳ åĿĢ
à¦² à§ĩ
à«ĭàª Ł
Ļ à¯įà®ķ
à´¾à´ ¸
áĢŀ áĢĬáĢ¹
áĢĸ áĢ¼
ģ áģ
ĠÎļ Î±
à¯įà® £
Ġà´¨ à´¿à´
ĠÑĤ Ñį
Î¹Îº Î¿
à°¾à° ¸
« áĥļ
ä» ¥
åĬ ¿
à¯Ĩ à®°
ĠÏĢÎ± ÏģÎ±
Ġà´¸ à´Ĥ
à¦¾à¦¦ à§ĩà¦°
Ñĸ Ð·
áĥĲáĥłáĥĹ áĥķáĥĶáĥļ
à«ĭ àª¤
ĠÎ ¶
à°¾à°¯ à°¿
Ġ Ð°ÑĢ
ķà¸ ±à¸
Ġå °
Ùĩ âĢĮ
à§ĩà¦ ¤
ĠáĥĶ áĥ¡
¥à¸ °
Î³ Î¿
Ð°Ð´ Ñĭ
Ġàª¸àª¾àª ¥à«ĩ
Ġà° «
à¹ ģ
al i
ĠÎ¼ Î±
Ġà¦ªà§įà¦° à¦¤
Ø¨ ÙĬ
åħ įè´¹
tt p
àªµ àª¾àª®àª¾àªĤ
Ð°Ð» Ð¸
à¤¿ à¤°
ĠÎ±Ïħ ÏĦÏĮ
à¥įà¤ ¥
ÑĤ Ð³Ð°Ð½
à¤¾à¤ ĩ
Ġê¸ °
ĠÄĳ á»Ļ
a j
ĠD ie
Ð»Ð°ÑĢ Ð½Ð¸
Ġ Ð°Ð¼
Ġ ÚĪ
c u
ol t
ĠÐ½ Ð°Ð¼
ãĥ ĭ
ë Ł
ĠÑį ÑĤÐ¾
ut ta
Ù ı
ÅĻ e
Ġ× ¡
en a
ĠÕ §
ou t
d he
o g
Ġm u
i d
ìĨ Į
Ñĭ Ð²
ãģ Ŀ
a z
m u
ãģ °
ul á»į
Ġp i
Ġb ei
Ð» Ñİ
ĠÕ ´
Ã´ i
Ġìł Ħ
æĬ ķ
ÙĬ Ø§
Ġ3 65
Ġw i
è ģ
ĠØ§ ÛĮ
Ã ¦
Ĳ áĢ²áĢ·
à¯įà®¤ à¯įà®¤
Ġà´ ±
áĥĲáĥ ¤
ķ à¸´à¸
à°ķà±įà° ·
ç« ¯
Ġà¦ §
àª¾àª ¹
Ġà®ª à®Ł
à´¿à´² àµĨ
áĢ ¥
ĠáĢĢ áĢŃáĢ¯
Ġáģ ı
Î³ Îº
à®¾à® £
à´¿à´ķàµįà´ķ àµģà´¨àµįà´¨
ĠÐº Ð°Ð½
ĠÎº Î¿
à±ĩà° ¶
áĥĺáĥ¡ áĥ¢
Ġå ½
ç Ń
à¯įà® ¯
ÎĹ Î£
Ġà´ Ń
Ġà¦¨ à¦¿à¦
Ð° Ñĩ
áĥĲáĥ ĳ
à«įàª ķ
Ïģ Î¿Ïħ
Ġà°ļà±ĩà° ¸
Ð°Ð» Ñı
à¸µà¸ ¢à¸
æĪ Ĳ
Ã¨ s
Ġà¦ ĺ
áĥĿáĥ ª
ª à¸²à¸
/ /
Ð°ÑĨ ÑĭÑı
à«Ģ àª¤
à± ĥ
à¸Ń à¸Ļà¸
e la
Ġ: //
Ġà¦ıà¦¬ à¦Ĥ
os t
à¥ģ à¤²
ĠÎ¼ ÏĢÎ¿
à«Ģàª ı
ÐµÑĤ ÑģÑı
Ġà¤ķ à¤¹
Ïģ Î¹Î±
Ġà¤² à¥ĩ
Ð³ Ð°ÑĢ
à¤¾à¤ Ī
ë Ĳ
á» ķ
Ã¡l t
m er
ĠÐº ÑĥÐ½
ĠÑģ Ð¾Ð»
×ĳ ×¨
ĠÚ© ÙĨ
un d
Ð»Ð¸ Ð±
Ġk as
ľ ê±¸
ĠÐ¾ Ñģ
Ġb y
le ng
ãģĦ ãģŁ
Ø§ Ùģ
Ġnh á»¯ng
Ã¼ k
le r
ĠÐ´ Ð¾
ĠL a
Ġi t
Õ¸ÖĤÕ ©
í ħ
Ð» Ð¾
ãĥ¼ ãĤ¹
c ÉĻ
pas áº¹
ĠP entru
d un
Ġå ®
×ł ×Ļ
Äĥ r
a b
ĠÙĪ Ûģ
Ġë ¬
dz i
Ã¤ l
Ġv agy
ir an
åĲ Ī
Ð°ÑĨ Ð¸Ð¸
Ã¨ re
áĢ² áĤķ
Ġà®İà®©à¯įà®± à¯ģ
àµĭ à´Ł
áĥĲáĥ ĸáĥĶ
à¸£ à¸£à¸
Ġà° ¯
6 6
à¦ ¡
Ġàª ĵ
Ġà® Ł
Ġà´ Ĺ
áĢ±áĢ¬ áĢº
áĢ¼ áĢ¬áĢ¸áĢ
áĢŀ áĢĬáĢº
ÏĦ ÏģÎ¿
Ġà®ļ à¯Ĭ
à´¾à´ Ł
Ñĭ Ð½
ÏĦ Ïħ
à±įà°² à±ģ
áĥĹ áĥĲáĥľ
« ĺ
Ĺ äº¬
à®¤ à¯į
ĠÎ´ Î·
à´¿à´ ªàµįà´ª
à¦¦ à§įà¦
Ðº Ð°Ð½
ĠáĥĲáĥ ĵ
à«įàª ¥
Ïħ Î½
à°¤ à±įà°¤
ÑĨ ÑĭÑı
à¸² à¸Ļ
9 9
ÙĨ Ú¯
· à§įà¦Ł
áĥĿáĥĳ áĥĺáĥ¡
§ à¹Īà¸²
Ġ1 2
Ð¾Ð»ÑĮ ÑĪ
Ġàªķ à«ĭàª
Ġà° ¡
« à¸Ļà¸
Ùĩ Ùħ
ÏĢ Î¬
à¦ķ à¦¾à¦°
Ä £
Ġà¤ķ à¤¿à¤¯à¤¾
Î¼ÎŃ Î½
àª ¥
ĠÐ¾ Ð´
Ġà¤¹ à¥ģà¤
Ïį ÏĦÎµ
à¤¾à¤¨ à¥ĩ
ĠÐºÑŀ ÑĢ
à¤ķ à¤°
Ġ íķĺ
q i
ĠA n
lo r
Ð¸Ð¼ Ð¸Ð·
Ðº Ð°Ð·
Ġs Ã«
a le
åĬ ł
ÑĢ Ð´
rz y
ìł ģ
Å ©
Ġe i
Ġo b
Ã¶ n
Ġ×¢ ×ľ
Ø§ÙĨ ÛĮ
ÉĻ ti
ĠØ§ÙĦØ ¬
ãĤĪ ãģĨ
Ġè ¿
Ġá»į má»į
m an
êµ Ń
t ho
ĠÑī Ð¾
Ġde m
Ġy i
á» Ń
Ġni pasáº¹
Ðµ Ñħ
Ġba ÅŁ
men te
sz er
on s
êµ ¬
ÑģÑĤÐ² Ð°
ãĥ¼ãĥ «
j et
Ġj u
ĠÛ ±Û
ĠØ¯ Ø§ÙĨ
Ġp Äģr
áĢģ áĢ²áĢ·
à®¾à® ±
à´ §
Ġáĥ «
Ĺ à¸²à¸
à±ģà°Ĥà° ¦à°¿
ä¹ ĭ
à¦¨ à§ĩ
àª¾àª¨ àª¾
Ġà®ķ à®Ł
à´¾à´ Ĥ
áĢ Ĥ
áĢ¬ áĢĽ
±áĢ ĲáĢ¼
ĠÎł Î±
à¯Īà®¯ à¯ģà®®à¯į
à´® àµįà´®
ÑģÐº Ð°Ð³Ð°
ĠÎ¿ ÏĢÎ¿
Ġà°® à±Ģ
Ġáĥ¨ áĥĶáĥ
å® ī
å®¢ æĪ·
Ġà®ĩ à®¤
Î ļ
Ġà´Ĵà´° àµģ
Ġà§¨ à§¦
Ġ Ð°Ð¿
áĥ£áĥ ľ
Ġàªķ àª¾àª°
Îĳ Î£
à±įà° ķ
ĠÐ¿ Ð°Ñģ
à¹ĥ à¸Ļ
æ³ ķ
áºŃ t
à¦¿à¦ Ł
ĠáĥĹ áĥĲáĥķ
¡ à¸µ
1 1
ĠÑģ Ñı
à« ĥ
Ġà°ķ à±ĭ
à¹Ħà¸ Ĺà¸¢
Ð² ÐµÑĤ
Ġ1 5
à¦¨ à§ĩà¦°
z Åĳ
à¤ķà¥įà¤ ·
Ġh ttp
à«ģ àª°
en ie
à¤Ĥ à¤¦
Î´ Î¹
à¤Ĥ à¤¤
Ð» Ð°Ð±
è§ Ĥ
Ġì ļ
Ð¾ Ð´Ð°
ĠØ§ÙĦ ÙĤ
ĠÙħ ÙĪ
Ð¸Ð´ Ð°Ð³Ð¸
Ġ Ð°Ð¹
ie l
Ã§ Ä±
Ġd an
Ð¼ Ð¾Ð½
m p
Ġí Ļ
× ļ
ãĤ ¦
Ġn y
Ġp ri
t z
Ġ ÛĮÚ©
á» £
ma q
ÙĨ ÛĮ
æ° Ĺ
Ġo wo
Å¡an as
Ġì ĸ
a tion
ÅĤ u
ÑĤÑĮ ÑģÑı
j áº¹
ãģ« ãģª
ir i
ÐµÐ³ Ð¾
is Ã«
k ez
Ã¤ h
men to
ļ Į
ĠÑĤ Ð¾
ĠÄĳ Ã£
Å¡ ÃŃ
Ġo r
ĠÙħ Ø¹
ãģ¨ãģĦ ãģĨ
åŃ ¦
±áĢ Ľ
à¯Īà® ªà¯įà®ª
àµĩ à´°
Ġáĥĺ áĥľ
§ à¹Īà¸²à¸
Ġà°® à°°
å Ģ
à§įà¦ ¨
Ġàªħ àª®
Ġà®ħ à®®
àµ ĥ
áĢ¸áĢ ŀ
áĢ¸ áĢĢ
áĢ¯ áĢķáĢº
Î¸ ÎµÎ¯
à®¿à®± à®¤à¯ģ
à´¾à´ ®
Ð°Ð² Ð°ÑĨÑĮ
ÎŁ Î£
à±įà°¨ à°¿
Ġáĥĺ áĥĽ
5 5
çľŁ äºº
à®® à®¾à®ķ
Î´ Î·
à´¾à´ ±
à¦¾à¦ Ł
Ð°Ð¼ Ð°
áĥĶáĥł áĥĺ
à«įàª ª
ĠÎµ Ïħ
à°¾à° ¡
Ñı Ð»Ñĸ
à¸Ńà¸Ńà¸Ļà¹Ħà¸¥ à¸Ļà¹Į
æ ¯
Ġho re
à¦¾à¦ ļ
ĠáĥĴ áĥĲáĥĵ
·à¹Ī à¸Ńà¸
y f
ĠÑĩ Ð°Ñģ
à«Ģàª ĵ
à±įà° ¥
ģ à¸²à¸
Ð°ÑĤ ÐµÐ»ÑĮ
ĠÎ¾ Îµ
à¦¾ à§ľ
qu es
à¥ĩà¤ Ł
ÏĮ Î½
Ġàªľ à«ĩ
Äģ ci
à¥įà¤ ķ
ĠÎ¼ Î¿Ïħ
èī ²
ĠÐ¹ Ñŀ
à¤¾à¤ ķ
ë³ ´
ĠÐ¸ Ð¼
Ġv an
ci on
Ð¾Ò· Ð¸Ðº
Ðµ ÑĪ
Õ¡Õ ´
Ġke Ã§
Ġ× ĸ
Ð»Ð¸ ÑĪ
g li
Ġìĭ ľ
f t
s k
it a
Ø¨ Ø±
Ġa m
n ia
at Äĥ
r an
ĠÑĢ Ð¾Ð·
ãģķ ãĤĮ
Ġj ulá»į
ÃŃ nh
ìļ Ķ
ĠÙ ¹
ĠÕ ¯
mi ÅŁ
gb á»įn
u re
Ġm á»į
ĠÐ §
ra z
å¤ ļ
is t
×ķ× Ŀ
´ Ģ
Ð°ÐµÑĤ ÑģÑı
ÙĦ Ùĥ
Ġi ch
Ġen iyan
Ġw ie
n Ã«
ĠØ§ Ùħ
ģ áĢ²áĢ·
Ġà®ª à®¿à®°
à´Ļàµįà´ ķ
áĥĿáĥĳ áĥĲ
à¹ģà¸ ¥à¸°à¸
Ġà°¸ à°®
çĻ» å½ķ
Ġà¦ľ à¦¾à¦¨
àªµ à«Ģ
Ġà® ľ
Ġà´ļ àµĨà´¯
ĠáĢ »áĢķ
áĢĨ áĢŃáĢ¯
áĤı áĢŃáĢ¯áĢĦáĢ¹áĢ
ÎŃ Î½
à®ª à¯į
Ġà´ħ à´¤
ÑĤ Ð°ÑĢ
Ï Ĭ
à° ¶
áĥĲáĥ ¦
åŃ Ĳ
åĬ ¨
Ġà®µ à®¾à®
Ïī ÏĥÎ·
à´¾à´¯ à´¿à´°
Ġà¦ª à¦¾à¦°
Ñĸ Ñħ
Ġ áĥĲáĥľ
Ġàª® àª¹
Îµ Ïģ
à° Ĺà°¾
Ð°Ð¼ Ñĥ
à¸£à¸±à¸ ļ
å®¢æĪ· ç«¯
Ġv ar
Ġà¦ī à¦ª
ĠáĥĲáĥ ¡
Ĭà¸ ±
Ïİ ÏĤ
Ñĥ ÑĨÑĮ
Ġàªµ àª§
à°° à±ģ
Ġ à¸Ńà¸
ÑĤ Ðµ
Ġ1 1
à¦¾à¦ §
is a
Ġà¤¸à¤¾à¤ ¥
it h
à«Ģ àªķ
Ã¶ l
Ġà¤ķà¤° à¤¨à¥ĩ
w n
à¤¾à¤ ı
_ _
Ġà¤ª à¤¹
ìĹ ħ
ÑģÑĤÐ² Ð¾
ĠÄĳá» ĥ
el le
Ð¼ Ð°Ñģ
ĠÒ³ Ð°ÑĢ
Ġa j
ĠÙħÛĮ âĢĮ
ĠØ¬ ÙĪ
ĠÑĪ Ñĥ
it ate
, "
Ġw er
ÑĬ ÑĢ
Ġ Ö
Ã¼ ÅŁ
Ġpo d
c tion
×ķ× Ĳ
ĠØ§ÙĦ Ø´
ÑĢÐ° ÑĹ
ÃŃ a
Ġh e
r Ä«
ì§Ģ ëħ¸
ãĥ ĸ
ar t
Ġd al
áº¹ ráº¹
ÈĻ te
Ì£ n
Ð¸ ÑĩÐµÑģÐº
ÑģÑĮ Ðº
z Ã¡s
Ŀ i
Ġf e
Ġì§ Ģ
ĠÐ² Ð¾Ð·
åħ ¥
ĠØ§Ù ĵ
Ġo ju
ĠÙĦ ÛĮ
ĠØ§ÙĦØ ¥
Ġr Ã©
áĢ±áĢĲáĢ¬ áĢ·
Ġà®ª à®¾à®°
Ġà´ª à´±
Ġáĥ¨ áĥĶáĥ¡
à¹ĥà¸Ĭ à¹īà¸
à±įà° ¡
åĪ Ĵ
à¦¿à¦¤ à§ĩ
Ġàª¸ àªĤàª
Ġà®ĩà®° à¯ģà®ķà¯įà®ķ
Ġà´ª àµĭ
ĠáĢ ±
áĢ¬áĢ¸áĢ Ļ
áĢĽ áĢ¾
Î¾ Î·
Ġà®ª à¯Ĭ
à´ ŀàµįà´ŀ
Ð² Ñĭ
Îµ Î»
à°¿à° Ĺ
ĠâĢ ŀ
é ĥ
èµ° åĬ¿
Ġà®ķ à¯ģà®±
Ïħ Ïĥ
à´¾à´ ³
à¦¿à¦ ®
Ñĸ Ñĸ
áĥĲáĥ ¬
à«ĩ àª¨
ĠÏĥÏĦÎ¹ ÏĤ
à°¿à° ¸
ĠÑŀ Ñģ
© à¸
ç ®
is i
à¦ Ļà§įà¦Ĺ
áĥł áĥĿ
ģ à¹ĩà¸
ĠÎºÎ± ÏĦÎ¬
ĠÐ¿ÑĢ Ð°Ð²
Ġàªķ àª¹
Ġà°ķ à±Ĥà°
Ġà¸ ģà¸
ĠÑĢ Ð°Ð±Ð¾ÑĤ
Î¯ Î¶
à§ĩà¦ ĵ
Ġ X
à¤¿à¤ µ
Ïĥ Ïī
à«ĭàª Ĺ
Ġm en
è§Ĥ çľĭ
l y
0 9
Ð½ Ð³
Ġà¤¹ à¤®
ìļ ©
ĠÐ Ń
ĠÛģ Ùħ
Õ ¾
Ð´ Ð¸ÑĢ
ĠÑĩ Ð¸ÒĽ
Ġar Ä«
h re
Ð½Ð¸ Ð¹
ĠÐ¼ Ð°ÑĬ
Ø§Ø¦ ÛĴ
Ġí ĺ
×Ļ ×ķ×ª
Äĥ ng
Õ¸ÖĤÕ© Õµ
ĠÕ ¸
r Ã©
cz e
ĠØ§ÙĦ Ø¯
lo v
ãģĤ ãĤĬ
un t
h an
zion i
¤ ĳ
Äĵ t
b re
z Ã©s
Ġáº¹ rá»į
n Ã¡
m áº¹
Ð¾Ð»ÑĮ ÐºÐ¾
m y
ĠS t
ĠÐ¿ ÑĸÐ´
Ù Ĵ
ëı Ļ
Ð ļ
Ġthá» ĥ
Ø³Øª Ø§ÙĨ
el u
ĠÙ¾ ÛĮ
Ø± Ø¨
Ġåĩ¯ åıĳ
áĢŀ áĢ°
à®¿à®° à¯ģà®¨à¯įà®¤
àµĤ à´Ł
áĥķ áĥļ
ķ à¹Ī
Ġà° ²à±ĭ
ç ¨
Ġà¦ķà¦° à¦¾
Ġàª¨ àª¥à«Ģ
à®ļ à¯įà®ļ
à´Ļàµįà´Ļ à´³àµįâĢį
áĢ¬áĢ¸áĢ ŀ
Ġáģ Ĥ
áĢĬáĢ¹áĢ ·
ĠÎ ¥
à¯įà® ¨à¯įà®¤
Ġà´¨ à´Ł
ĠÐ¿ Ð°ÑĢ
ĠÏĢ ÏģÏĮ
à±ĩà° ¸
Ġáĥ ¯
ç¥ ŀ
Ġæ Ī
Ġà®¨ à¯Ģ
ÏĮ ÏĤ
àµģà´ ķàµįà´ķ
à§ĩà¦ ®
Ð¾Ð² Ñĭ
ĠáĥĲáĥ ¦
Ġàª¹à«ĭàª ¯
ĠÎ Ī
à°Ĥà° ļ
Ð½ Ð°Ðµ
à¸£à¸²à¸ Ħ
çİ °
h d
à¦¾à¦ ģ
áĥĹ áĥķáĥĺáĥ¡
¡à¸ ŀà¸
Î³ Î±
Ġ Ð°Ðº
àª¿àª ¸
à°¾à° ª
Ġ à¹Ģ
Ð ķ
ÏĦÎ· ÏĦÎ±
à¦¾à¦ ĵ
ĠÕ ¥
Ġà¤¸ à¤ķ
Î¬ Ïģ
Ġàª¹àª¤ à«Ģ
f a
à¥įà¤ ¸
ĠÎ± Î»Î»Î¬
Ġà¤¥ à¤¾
ĠÑŀ ÑĤ
à¤ķ à¥Ģ
Ġ": "
Ðµ Ð¶
la t
ÉĻr ÉĻ
Ð¼ Ð¸
ĠÑĤ ÑĥÑĢ
Ú¯ Ø±
ai re
in a
ĠÐ¼ Ð°ÑĢ
Ġt er
ì Īĺ
ÙĬ Ùħ
Ġt ak
u b
ĠB u
×Ļ× §
Äĵ m
ti g
ãĥ ĩ
Ã¡ ra
Ġk Ã«
Ġi we
or t
Ġ íķľ
ĠÙħ ÙĦ
åł ´
Ġå į
Ġk á»į
Ġg a
Ġni gba
ÑĤ Ð¾ÑĢ
on e
ĠN g
ĠØ§ÙĦ ÙĨ
it Ã¤
Ġë ĵ
ĠÑģ Ð¼
h lo
ä½ĵ èĤ²
Ġ á»įna
¾ å®¶
as z
Ġå Ī
áģ¿áĢķ áĢ®áĢ¸
Ġà®¤ à®®
Ġà´ ¹
ĠáĥĲáĥ łáĥ
Ġà¸ Ħà¸
Ġà°µ à±Ĩ
åı ¯
à¦¿à¦ ¦
à«Ģàª ¯
à®£ à¯įà®£
à´ ľ
áĢħ áĢ¹
áĢĲ áĢļáĢº
ĠáĢĴ áĢ®
ÏĨ Î±
à®¿à®² à¯įà®²
à´£ à´Ĥ
Ð°ÑĨÑĭ Ñĸ
Î¼ Î®
à°¤ à±ĭ
Ġáĥ£áĥ ľ
æ´ ²
à¨ ¾
à¯ĩ à®©à¯į
ĠÏħ ÏĢÎ¿
àµįà´± àµįà´±
à§ĩà¦ ¬
ĠÐ» Ñİ
Ġáĥ¡áĥĲáĥ ®
àª Ľ
Î¹Îº Î®ÏĤ
Ġà°Ĵ à°ķ
ĠÑıÐºÑĸ Ñı
à¹Ĥ à¸£à¸
Ġå Į
Ġkh i
à§įà¦ ķ
ĠáĥłáĥĿáĥĽ áĥĶáĥļ
Ħà¸£à¸ Ķà¸´à¸
ĠÎŃÏĩ ÎµÎ¹
ĠÑı Ð³Ð¾
à« ¦
à°¾à° ¬
à¹Ħà¸¡ à¹Ī
ĠÐ¾ Ð¿
ĠM a
à§įà¦ ļ
Ġe dil
à¤Ĺ à¤¾
Ïĥ ÏĦÎ¿
à«Ģ àª¨à«ĩ
ĠÙ¾ Ø§Ú©
Ġà¤ ĺ
Î¯ ÎµÏĤ
à¤¾à¤ ª
ĠÑŀ ÑĢ
Ġà¤ķ à¤¾à¤°
Ġìł ľ
Ñİ Ñī
Ù¹ ÛĮ
lÄ± q
Ð»Ð°ÑĢ Ð½Ð¸Ð½Ð³
ĠÐ¾ ÑĢ
us h
is s
Ġv Ã½
Ð»Ð°ÑĢ Ð¸Ð½Ð¸
Å£ i
í Ħ
er i
ĠØ¹ ÙĨ
Ġv ai
×Ļ× ĳ
Ã©r t
ĠS p
Ñĺ Ð°
is e
ĠØªÚ¾ Ø§
d os
Ġdi áº¹
ãĤ į
ë© ´
Ġol un
Ġa v
ar en
r un
Ø¹ Ø¯
gb áº¹
Ð°Ð½ Ð¸Ñı
Ġ ï½
to v
v al
ow ie
ĠìĿ ´ë
Ġ Ð°Ð²
g j
á»ĳ i
Ġy in
ãĤ Ń
at Ã¡s
ur a
áĢŃáĢ¯ áĢĦáĢ¹áĢ¸
Ġà®¤ à®¿à®°
Ġà´ «
Ġáĥ¨ áĥĶ
à¹Ģà¸ ¥
à°¦ à±įà°¦
é «ĺ
à§ĩà¦Ľ à§ĩà¦¨
à«ĭ àª°
à®¿à®© à¯įà®±
àµįà´ ¸
áĢľ áĢ¬
áĢ° áĢ¸áĢ
áĢĲ áĢ¹
Î¯ Îº
Ġà®ĩà®° à¯ģà®¨à¯įà®¤
Ġà´ª à´°
ĠÐº Ð°Ð¼
ÏĦ ÏīÎ½
Ġà°ī à°¨à±įà°¨
Ġáĥ¡áĥĲáĥ¥ áĥĲáĥłáĥĹáĥķáĥĶáĥļ
äº İ
å ģ
Ġà®® à¯ĩ
ĠÎ¸ ÎŃ
à´¿à´¨ àµį
à¦°à§įà¦ ¬
Ñĸ Ð»Ñĸ
Ġáĥĺ áĥ§
àª¾àª ĵ
Î¼ Î¹
Ġà°ª à±ĭ
ĠÐ¿ÑĢ Ð°Ð´
¥à¸ ĩà¸
è ·
Ġcom p
à§ °
ĠáĥĽ áĥĺáĥ¡
Ħ à¸£
ĠÏĥÏĦÎ¿ Î½
Ð¾Ð»ÑĮ ÐºÑĸ
àª ı
Ġà°µ à±įà°¯
à¸Ńà¸¢ à¹Īà¸²à¸
ÑĢ ÐµÐ´
w r
Ġà¦¤ à¦¿à¦¨
o lo
à¥įà¤ ª
Ïģ ÎµÏĤ
àª¾àª ĸ
w ia
Ġà¤ħ à¤¨
o d
Ġà¤¦ à¥ĩ
ĠÐº Ð°ÑĢ
à¥ ĥ
ìĺ ¤
Ð½ Ð¾Ð¼
×Ļ× ©
ĠØ¨Ø§ Ø²
ĠÐ´Ð°Ð² Ð»Ð°ÑĤ
Ðº Ð¸Ð»
ÃŃt Ã¡s
áº ©
ĠØ§ÙĦ Ùģ
Ð°Ð½ Ð³
Ä«b u
¶ Ķ
i ÅŁ
es ch
Ð¸ÑĤ Ð¸
et te
Ġa k
ãģĦ ãģ¦
Ú© Ú¾
Æ¡ n
Ġg r
is sa
wa ju
Ø§ Ø³
ëĭ Ī
Ġsa u
è¦ ĭ
Ä± l
Ġt áº¹
Ġ Å¾e
à ²
ĠÐ± ÑĥÐ´
b el
as h
d Ã©s
Ġgo re
Ġìĺ ¤
ÑĢ Ð°Ð·
ho lo
in o
f áº¹
×Ļ× ĵ
æĢ Ŀ
el l
ĠáĢľ áĢ°
Ġà®ķà¯Ĭ à®£à¯įà®Ł
Ġà´ķ àµĬ
áĥł áĥĺ
à¹ĥà¸« à¹ī
à±ĩ à°ķ
ä¹ Ī
à¦° à¦¾
àª¾àª ¡
à¯ģà® ª
à´¿à´ļàµįà´ļ àµģ
áĢ¬áĢ¸áĢ ľ
áĢ± áģ¾áĢĢ
áĢĽ áĢ½áĢŃ
ĠÎ´ Î¹
Ġà®µ à®¿à®
à´¿à´ ¸
ĠÐ¿ÑĢ Ð°
á ¿
à°¿à° Ł
áĥĲáĥ £áĥ
æīĭæľº çīĪ
åľ º
Ġà®ī à®³à¯įà®³
Ïĥ ÏĦÎ±
Ġà´ ¡
Ġà¦ľà¦¨ à§įà¦¯
Ð Ĩ
ĠáĥĲáĥ ®
à«ģ àªķ
Î³ Î³
à°¾à°¨ à±įà°¨à°¿
ÑįÐ½ ÑĤ
Īà¸ ±à¸
åı Į
ĠÚ© Ø§Ø±
à¦¨ à¦¾
áĥĲáĥ Ŀ
Ĥ à¸²à¸
Ġ1 3
Ð¾Ð² Ð°
à«ĩàª ¤
à°¦ à°¿
¢ à¸²à¸
Ðµ Ð¿
y dd
à¦¬ à¦¾à¦°
Ä± b
à¤² à¥Ģ
Î¸ ÎŃ
Ġàªī àªª
ow y
à¤¿à¤¯ à¥ĭà¤Ĥ
Î» ÏĮ
à¥įà¤ ¹
Ð¾ÑĤ Ð¸
Ġà¤Ĺ à¤¯à¤¾
ë ¹Ħ
ÐµÐ» Ñı
éĸ ĵ
t Ã©
Ð´ Ð°Ð³Ð¸
ĠÑģ Ñŀ
ÉĻ z
Å¡ i
h l
Ð°Ð³ Ð°Ð½
Ġde i
ìĿ´ íĬ¸
ÙĢ ÙĢ
Ø§ ÙĤ
ĠE n
te a
Ġ ÅĽ
ci Ã³
ti t
ãĤ ¸
Ã¹ ng
v el
Ġd á»į
Ġd ar
Ġëª ¨
ÛĮ Øª
lar a
ØŃ Ø¯
on u
Ġ×Ķ× Ĳ
il o
Ñģ Ð»
çĦ ¡
Ġet tÃ¤
ion e
é ķ
Ġìł ķ
ĠÑģ Ð°Ð¼
ÃŃ v
Ġvi en
á¹£ i
Ġo der
ĠT r
ãģ ĺ
áĢĶáĢ¹áĢ Ļ
Ġà® ¯
à´¯ àµģà´Ĥ
áĥĺáĥĵ áĥĲáĥľ
§à¸ ±à¸
à°¸ à±įà°¤
7 7
à§ Ī
àª£ à«ĩ
Ġà®® à¯ģà®Ł
àµĨ à´Łàµįà´Ł
ĠáĢ±áĢ Ľ
áĢģ áĢ»
áĢķáĢ« áĢĲáĢļáĢ¹
Î¿Ïį Î½
à®³ à¯Ī
à´µ àµģà´Ĥ
ĠÐ¿ Ð°Ðº
ÏĢ Î·
à±ĩà° µ
áĥĿáĥ Ĺ
è®¡ åĪĴ
& #
Ġà®¤à®® à®¿à®´
ĠÎľ Îµ
à´¦ àµįà´
à¦¸ à§įà¦¥
Ñĸ Ñŀ
Ġáĥ§ áĥķáĥĶáĥļ
Ġàªħ àª¨
Î» Î¹
à±ģà° ª
ÑĪ Ñĩ
¥à¹ĩà¸Ńà¸ ķ
éĥ ¨
cion es
à¦¾à¦¬ à§ĩ
áĥļ áĥĶáĥĳ
Ĭ à¸²à¸
Î¼ÎŃ Î½Î¿
Ñĥ Ñħ
àª¤ à«Ģ
à±ģà°Ĥà° Ł
Ġà¸ Łà¸£à¸µ
Ð¾ÑģÑĤ Ð°Ð²
y d
à§ĩà¦ ¸
qi p
Ġà¤ľ à¥ĭ
ÏģÎ¹ ÏĦÎ¹ÎºÎŃÏĤ
Ġàª® àª³
j nÃ«
Ġà¤ī à¤¸
e dd
Ġà¤ķ à¤¿à¤¸
Ó Ļ
à¤° à¥ĩ
Ġê² ĥ
Ð¸Ð½ Ð°
t la
ÉĻ dÉĻ
Ð¼ Ð°ÑĤ
Ð»Ð¸ Ð³Ð¸
Ġm ul
ĠØ¯ Ø§Ø±
Ġ ent
ĠÑĢ Ð´
£ Â
ëĤ ¨
iá»ĩ t
Ġp ra
m Ã©ny
at u
Ù¹ Ø±
Ø° Ø§
ãĥ³ãĤ °
Õ¸ÖĤ Õ¶
Õ¡Õ ¿
a ng
Ġy ii
Ð½Ð¾ ÑĹ
ì °
to k
Ġ Åŀ
Ġla i
k áº¹
Ġs c
ak i
Ð Ŀ
ãģ Ķ
ĠãĤ ¹
sz y
is en
ìĬ µ
Ð² ÐµÑĢ
Ġæ ĺ
ĠL es
Ġa ye
Ġna gy
ĠE l
Ùħ ÙĦ
»áĢķ áĢ¬
Ġà®µà¯ĩ à®£à¯įà®Ł
Ġà´ Ī
áĥĶáĥĳ áĥ£áĥļ
Ľ à¸£
à±ģà° ¡
á Ł
à¦¤ à¦¿
àª¿ àª¨
à¯ĩ à®ļ
àµĩà´ ·
áĢŃáĢ¯ áĢĢáĢ¹áĢ
áĢ ı
áĢģ áĢ¼
ÏģÎ¿ ÏĤ
à¯ģà®® à¯įà®ª
à´ķ à´°
ĠÐ ¦
ÏĪ Î·
à°® à±įà°®
áĥ£áĥ Ľ
å¯ ¹
ä¹ Ł
à®ķ à¯į
ÏĦ ÏİÎ½
à´® à´¾à´¯
à§ĭ à¦°
Ð½ ÑĥÑİ
ĠáĥĲáĥ ¥
àª¾àª ª
Î² Î±
Ġà°ķà±Ĥà° ¡à°¾
Ð¾Ð³ Ð°
ļà¸²à¸ Ĺ
åĨ Į
×ķ× ¤
à¦ Ľà§ĩ
áĥĺáĥļ áĥĺáĥ¡
à¹Īà¸ ĩà¹Ģà¸
ÏĢ ÎµÎ¹
Ðº Ð°Ð¹
à«ģ àª²
Ġà°¨ à°¿à°°
« à¸²à¸
Ñģ Ð»Ð¸
Ġï¿½ï¿½ï¿½ï¿½ ï¿½ï¿½
à¦¾à¦ķ à§ĩ
Ġs k
à¤Ĥ à¤¡
e d
àª¾àª ¬
ãĥ ł
à¥ģ à¤¨
re f
Ġu 09
ĠÐº ÐµÐ»
à¥įà¤ ¦
Ġ ï
Ðµ Ðµ
Ġth u
Ã¼ m
Ġ Ð°Ð»
ĠÑĪ Ð°Ò³
Ġqu es
ĠK a
ti i
ĠÐ¢ Ð¾Ò·Ð¸Ðº
un e
» ¿
Ø§ Úº
m in
ÐµÑĤ Ð¾
Ġc Ã´ng
Ġi es
Ø± Ø©
ãĥ §
Õ ½
ĠÃ§ ox
Ġt l
Ġa ká»į
ĠØ± ÙĪ
Ġì Ĩ
Ðº ÑĢÐ°ÑĹ
Ñ ķ
Ð¾ Ñİ
os o
is z
g un
Ð ¢
ãĤ °
ç ¤
ich t
ne j
ëĵ ľ
ÑĢ Ð°Ð²
Ġse x
Ġt re
Ġi y
Ġt u
Ú¯ Ø§Ùĩ
Ġs ont
ĠáĢ ļ
à®± à¯įà®ª
à´¤àµįà´¤ à´¿à´²àµįâĢį
áĥĺáĥ Ĵ
µ à¸
à°¡ à°Ĥ
é ¾
à§Ģ à§Ł
Ġàªµ àª°à«įàª
à¯įà® °
à´¾à´ ķ
Ħ áĢ¶
ĠáĢķ áĢ¼
áĢĶ áĢ²áĤĶ
Î¸Î· ÎºÎµ
Ġà®ļà¯Ĩà®¯ à¯įà®¤
àµģà´ °
Ð² Ð¾ÑĢ
Î¼ ÏĨ
à°ķ à°¿
£áĥ ļáĥĺ
èµĽ è½¦
é ľ
à®¿à®° à¯ģà®ķà¯įà®ķ
Î¹Îº Î¿Ïį
à´¿à´ ®
Ġà¦ı à¦°
Ð Ĥ
áĥĲáĥľ áĥĺ
à« Ī
Î¯ Î¿Ïħ
Ġà°ħ à°µ
ĠÑĸ Ñħ
à¹Ģà¸ ģà¸
Ġà¤Ĩ à¤¹
ĠØ¨ Ú¾
à§įà¦ ¡
áĥķ áĥĶáĥ
Īà¸²à¸ ģà¸
Ġ1 4
ÑĢ Ð°Ð±
Ġàª ĩ
à°² à±įà°²
à¸£à¸ §à¸
Ðµ Ð»Ð¸
ĠÎ Į
Ġà¦ķ à¦¾à¦°
Ġs ono
à¤ķ à¤¾à¤°
ia d
àª ĩ
å £
äºļ æ´²
Ïĩ Î½
Ġà¤ Ľ
ÐµÑģ Ð¿
Ġà¤ §
ì½ ľê±¸
Ð¸ Ñĩ
Ġb áº¡n
m asÄ±
ĠÐ² Ð°Ð·
Ð¼ Ð¾ÒĽ
e le
Å¡an a
ĠØ¯ ÛĮ
ĠÐº Ð¾ÑĢ
×ķ× ©
íĦ °
Ġcom o
ung s
Ġe dhe
s Ã¡g
ĠØ§ÙĦ Ø¨
Å« t
ĠãĤ ¢
Ġo lan
ĠÃ¼ ber
ĠH o
g a
j ÃŃ
ë ¯¸
ĠØ¨ ÙĨ
j es
Ġa pp
Ġj i
Ã ¸
t un
ÑĢÑĥ Ð³
ãģ§ ãģį
Ã¡ v
ĠP h
è ©
Ġëĭ ¤
Ðº Ðµ
Ú ĺ
ä¿ ¡
Ġi gba
Ġs unt
Ã¤ r
×Ļ× Ĳ
áĢ° áĢ¸
à®¤à¯įà®¤ à¯Ī
à´¿à´² àµģà´Ĥ
áĥĲáĥĵ áĥĴ
§ à¹ĩà¸
Ġà°¨ à±ģà°Ĥà°
Ġå½ ©
à§ģà¦ ·
à«Ģ àªµ
à¯įà®ķ à¯įà®ķ
àµģà´ķ à´³
áĢ±áĢ Ļ
áĢ¯ áĢĲáĢ¹áĢ
» áĢģ
ÏĦ Î¿Ïħ
Ġà®ħ à®©
àµģà´ ª
ĠÑģ Ð²Ð°
Î»Î¿ ÏĤ
à±ģà°ķ à±ĭ
ĠáĥĽ áĥĲáĥĴ
æĹ Ĺ
èµ°åĬ¿ åĽ¾
à®¾à® ķà¯įà®ķ
ĠÎĳ Î½
Ġà´ ķàµįà´
Ġà¦Ĩ à¦²
â ķ
Ġáĥł áĥĿáĥĴ
Ġàª² à«ĭàªķ
Î¼ Î¿Ïį
à°¿à°¨ à°¿
Ð» ÐµÑĤ
·à¹Ī à¸Ńà¸ĩà¸
Ġà¤Ĩà¤¹ à¥ĩ
ĠÚ©Ø± ÙĨÛĴ
Ĥ à¦²
áĥĶáĥ¥ áĥ¢
à¹ ģà¸£à¸
ĠÎ® ÏĦÎ±Î½
Ñı Ð·
Ġàª¤ à«įàª¯
à°¾à° £
« à¸£à¸
ĠÃ¶ z
er s
Ġà§¨à§¦ à§
éĩ ĳ
à¤ķ à¤¾
Ïĩ Î±
àªķ à«įàª·
Ġs á»ĳ
à¤¾à¤ Ĺ
1 3
à· Ĭ
ĠÐ ĸ
æ Ĵ
ìĽ Ķ
to tt
Ġ ra
Ð¾Ñģ Ñģ
ÐµÑģÐ¿ ÑĥÐ±
ĠÐ¢Ð¾Ò·Ð¸Ðº Ð¸ÑģÑĤÐ¾Ð½
Ð½ Ð¾Ð²
ĠØ¥ ÙĦÙī
æ ı
ÑĤÐ¸ÑĢ Ð¸ÑĪ
Ġd la
ê ·
en te
ĠØ® ÙĪØ¯
Õ¡Õ ½
e v
Ġv is
Ġs Ãº
an ie
Ä± m
Ġb ona
j en
w he
Ġç ľ
Ġì Ĭ
h en
ãĥ¼ãĥ Ī
in s
es i
ĠÙħ ØŃ
Ġ áº¸
Ð¾Ð»ÑĮ Ð·
×¨ ×Ĳ
Ġk er
ãģ§ ãģ¯
i ÅĨ
í ļĮ
ĠÐ· Ð°Ðº
c ja
å¥ ½
pá»į lá»į
ĠØ¯ ÙĪ
en to
Ġf ost
áĢľ áĢĬáĢ¹áĢ¸
à®©à¯įà®± à¯ģ
à´¤àµįà´¤ àµĨ
áĥĲáĥłáĥ Ľ
Ķ à¸µ
à±ģà°Ĥà° ¦
æ³¨ åĨĮ
à¦Ł à¦¾
àªĤàª §
Ġà®İà®© à¯įà®©
à´¾ àµ»
áĢ¯áĢŃ áĢĦáĢ¹áĢ
áĢģ áĢ¯
áĤ Ĳ
Ïģ Î¯Î±
à®¿à® ¨à¯įà®¤
à´¾à´ §
ÑĢ Ð°Ñŀ
ÏĢ Î¹
à±Ģ à°°
áĥ£áĥ Ĺ
Ġå ľ
Ġ; &#
Ġà®¤ à¯Ĩà®°
ÏģÎ¯ Î¿Ïħ
Ļàµįà´ Ļ
à§ Į
ÑĨÑĭ Ñĸ
áĥł áĥĲáĥĽ
àªķ àª¾àª°
Î´ Îµ
à°¾à° §
Ð½ Ñĥ
à¸Ńà¸ ¢à¸
é £
Ġel Åĳ
à¦¦à§įà¦ §
áĥĲáĥłáĥ ĵ
į à¸
Ġ1 8
ÐµÐ»Ð°ÑĢ Ñĥ
Ġàª¸ à«ģàª
Ġà°ħ à°Ĥà°¦
±à¸ ĩ
ĠÃ¶ l
Ġ1 6
Ġà¦¬à¦¿à¦ ¶
an ia
à¥ ľ
Îµ ÏĦÎµ
Ġà« §
h le
à¤¿à¤ ¶
da u
Ġæ Ĺ
ĠÒ³ Ð°ÒĽ
Ġà¤® à¤¹
ĠìĿ ¸
Ġma is
Ġ um
ĠÐ²Ñģ Ðµ
Ð°Ð´ Ð°
Ð»Ð¸ Ð¼
ĠÐ½ Ð¾
áº ½
ĠØ§ÙĦ ÙĦ
Ñħ Ð¾Ð½
Ġm Ã¡s
ìĹ ¬
Ġk ur
×ķ× §
Õ ´
Õ¶ Õ¥ÖĢ
ĠÛģ ÛĮ
ak o
Ġs er
in dÉĻn
Ø± Ùĥ
Ġe en
Ġo ri
c ho
ìĤ¬ ì§Ģ
ĠÙģ Ø±
m es
ãĤ »
b u
á»Ļ i
âĢ Ŀ
ÑģÑĤ ÑĢ
st a
Ġsh um
ĠE r
ãĥ Ł
í Į
ÑģÐº Ð¸Ð¹
Ø§ÙĨ ÛĴ
Ùĩ Ø±
Ġi p
en ti
ĠÑ Ķ
h i
áĢ¸áĢ Ľ
à¯Īà® ªà¯į
Ġà´ ı
áĥĶáĥ ª
à¹Īà¸ §
à±Ģ à°µ
é¾ Ļ
Ġà¦¬à¦¾à¦ Ĥà¦²
à«įàª° à«Ģ
Ġà®ķ à¯ĭ
Ġà´ ĵ
áĢ±áĢ «
ĠáĢ±áĢ Ķ
áĢģ áĢ¶
Î»Îµ Ïħ
Ġà®ķ à¯ĩ
ĠâĢĭ âĢĭ
Ñı Ð½
Î ĵ
à±įà°¸ à±į
áĥĶáĥĳ áĥļ
p k
èĪ °
à®¿à®¯ à®¿à®²à¯į
Î¿ Î¹
àµĭ à´Ĺ
à§įà¦ ¸
Ð½Ð°Ñģ ÑĨÑĸ
áĥĶáĥĿ áĥĳ
Ġàª¸ àª°
ÎĻ Îĳ
à±ģà°ķ à±ģ
Ð°Ð½ Ð½Ðµ
à¹ģà¸ ¥
à¥Ĥ à¤¨
ãģ Ń
à¦¨à§įà¦ ¦
áĥĶáĥĳ áĥĲáĥ¡
Ķ à¹īà¸§à¸
ĠÎ¼Îµ ÏĦÎ±
ÑģÐº Ð°Ñı
àª¿ àª°
à±ģà° ¦
ģà¸±à¸ ļà¸
Ä±n Ä±n
Î³ÏģÎ± ÏĨ
Ġà¦® à¦¾à¦¨
ãĥ³ ãĥĪ
à¤¸ à¥Ģ
ĠÎºÎ± Î¸
à«ĭàª ľ
Ġle g
à¤¾à¤ ¬
Ïĥ ÎºÎµ
Ġà¤µ à¤¾à¤²
ĠÒĽÐ¸Ð» Ð¸ÑĪ
ä¹ħ ä¹ħ
íķĺ ëĬĶ
×ķ× ¢
Ø§Ø¯ Ùĩ
ÑģÐº Ð¾Ð¹
Ð»Ð°ÑĢ Ð³Ð°
ĠÐ±ÑŀÐ» Ð³Ð°Ð½
ĠÐºÐ¾Ð¼ Ð¿
á» ī
ir es
ĠÐ¼ Ð°Ñģ
ĠØ§ÙĦØ ®
Ġìŀ Ĳ
Äģ t
ĠØ¨ ÛĮ
ÉĻ c
Ä±n a
ĠU n
Ġå Ĳ
Ġro z
Ġs on
y s
çĤ ¹
Ġi d
ĠØ¬ Ø³
Ġê² ½
Ġç Ķ
Å¡ u
ãĤ §
Ġa á¹£
Ã¡ ban
ĠT o
ĠÐ¿ Ð¾Ðº
ish t
ĠP ro
¡ Â
Ġn Ãły
íħ Ķ
Ð¾ÑĤ ÑĢ
h la
Ø¹ Ø©
Ġako ko
z z
Ġt ar
Ġ ä½
áĢ» áĢĸáĢħáĢ¹áĢ
Ġà®µ à®¨à¯įà®¤
àµĨà´¨àµįà´¨ àµį
Ġáĥ¡áĥĲáĥ Ļ
à¹ī à¸Ńà¸ĩ
à°¨ à±ĩ
ä» ¶
ĠâĢ ĺ
à«ĩàª² àª¾
Ġà®ª à®²
àµįà´ ķàµįà´ķ
áĢķ áĢ²
áģ ļ
áĢĻáĢº áĢ¬áĢ¸
ÏĦ ÎŃÏĤ
à¯Īà® ļ
àµĩà´ ¶
Ð² Ð°ÑĢ
ĠÏĥ Î·
à°¿à°Ĥà° Ĺ
Ġáĥ ¦
å® ŀ
ä» £
à®µ à¯ģà®®à¯į
Ïĥ Î¯Î±
Ġà´¸ àµįà´µ
à¦ĸ à¦¨
Ðº Ð°Ñŀ
Ġáĥ łáĥ
Ġàª¨ àª¹
ÏģÎ¿ Ïį
Ġà°ħ à°¯
ĠÐº Ð°Ð»Ñĸ
ł à¸
æŀ ľ
×ķ× Ĺ
Ġà¦Ĩ à¦ª
áĥ ¯
Ķà¸´à¸ ¡à¸ŀà¸
ÎµÎ¯ Î¿
ÐºÐ° Ñı
Ġàªª àª¹
à°² à±į
Ħà¸¸à¸ ĵà¸
ÉĻ lÉĻ
wy dd
Ġà¦¨ à¦¿
Ġs ind
à¤¾à¤¯ à¤¾
ÏĦÎ¿ Ïį
àª¿àª Ł
ĠÑģ ÑĬ
Ġà¤² à¤Ĺ
ĠÎµÏĢ Î¯
äº §
ÑĤ Ð¸Ð±
à¤ļ à¥įà¤
Ġì °
Ġc o
Ġv ei
Ð°Ð½ Ð¸Ðµ
Ð°ÑĢ Ð¾
Ðº Ð¸Ð½
ĠÐ¸ Ð³
Ø§Øª Ú¾
ĠÐ£ ÐºÑĢÐ°ÑĹ
Ð°Ð ¾
en s
Ġí ı
ĠÙĩ Ø§
ÐºÑĸ Ð²
d iy
ÙĪ Ø§ÙĨ
ĠÃ®ntÃ¢l n
ri i
Ġpi Ã¹
an Ã«
as ta
ãĤ ª
Ġp at
Å¡ a
Ġë° Ķ
ts eng
ÙĬ Ø³
ÑĶ ÑĤÑĮÑģÑı
Ġw áº¹
s kie
Ġp u
Ð°ÑĨ Ð¸
Ø´ ÙĨ
ĠN h
en n
ca q
ìĸ ĳ
Ð¾Ð² Ð°ÑĤÑĮ
ãĤ ¨
Ġm Ã¡r
on i
×ķ× ¡
ov a
Ġt out
ķ áĢ¼
Ġà®µ à®´
Ġà´® àµģà´
ĠáĥĹ áĥ£
à¸Ńà¸ ļà¸
à±ģà°¨à±įà°¨ à°¾à°°à±ģ
åĲ İ
Ġà¦Ĩ à¦¸
Ġàª¬ àª¨
Ġà®® à®±à¯įà®±
à´ ļ
Ģ áĢŃáĢ¯
áĢ¬áĢ¸áĢ ¡
áĢ¸áĢ Ĳ
Î½ Ïī
Ġà®ħ à®±
Ġà´ ŀ
ÑģÑĤ Ð°Ñŀ
ĠÏĥ ÏĦ
Ġà°ļ à±Ĥà°
áĥĲáĥĽ áĥĵ
è¿ Ľ
è ¶
à®¿à®ķ à®³à¯į
ÏĢ ÏīÏĤ
à´ «
à§įà¦¯ à¦¾à¦¨
Ð½Ð° Ñĩ
áĥĲáĥķ áĥ¡
Ġàªľ à«ĭ
Î Ķ
à°Ĥà°¤ à±ĭ
Ġ Ð°Ð»Ðµ
§à¸ ±à¸Ļ
ģ éĢŁ
ek o
Ġà¦¹ à¦¬à§ĩ
áĥĲáĥķ áĥļ
ľà¸¹ à¹īà¸
ĠÎº Î¬Î½
Ð°Ð½ Ñĭ
à«ĭ àª°à«įàª
Ġà°ķ à°²
à¸Ļà¸ ±
Ùħ ÙĨ
ĠÎĳ Ïħ
à¦§ à§įà¦¯
Ġ ÉĻs
Ġà¤ª à¥Ĥ
Ġ= "
Ġàª¹àª¤ à«ĭ
s sz
à¥ĩ à¤²
Îº ÏģÎ¹
Ġà¤ħ à¤§
ĠÐ¸ Ð»
à¥Ģ à¤¨
ìĭ ł
Ñ ļ
Ġtá» «
ĠÐµ Ð³Ð¾
ĠÐ¼ Ð¸Ð»
ĠÑĤÐ°ÑĪ ÐºÐ¸Ð»
ÑģÑĤ Ð°Ð²
Ġc zy
Ġh at
ĠÐ¸ ÑģÑĤ
Ġvo tre
Ľ Ħ
ĀĀĀĀ ĀĀĀĀ
ãģķ ãĤĵ
d as
Ø³ ÙĦ
Ġpr ÃŃ
our s
ĠÙ¾ Ûģ
ĠP o
ng an
Ġãģ Ĭ
Ġi di
ĠØ§ÙĦ Ùĥ
Ġì ²
Ã© re
ĠÐ¿ Ð¾Ð²
Ø§ÛĮ ÛĮ
Ġw on
is o
Ġf áº¹
Ð°Ð½ Ð¾Ð²
b ie
on n
p t
n Ä«
Ġ" ,"
Ð´ ÐµÐ»
ãĥ ĳ
Ġg Ã¼n
gbe gbe
ĠÃ Ń
m it
Ġo g
» áĢĻ
Ġà®İà®© à¯įà®ª
à´¿à´ķ à´³
áĥĺ áĥĶáĥł
Īà¸²à¸ ģ
à± Į
æĹĹ èĪ°
Ġà§¨ à§
à«Ģàª ľ
à®¾à® ļ
à´¾à´¤ àµįà´°
Ļ áĢº
ĠáĢĢ áĢº
áĢĶ áĢ¾
ÏģÎ± Î³
à®µ à¯ĩ
Ġà´¸ à´®
Ñģ Ð°Ð¼Ð°
Î² Î¬
à±įà° ³
áĥĺáĥ£áĥ ł
éĿ ¢
3 3
à®¿à®± à¯įà®ķ
ĠÎ´ Îµ
à´± à´¿à´¯
à¦ ł
Ð°Ñģ Ñı
Ġáĥ£áĥľ áĥĵáĥĲ
Ġàªª àª¡
Î¸ Î®
à°¾à°° à°Ĥ
ĠÐ´Ð· Ðµ
à¹ĥà¸ «à¸
æĬ Ģ
ĠB a
à¦° à§ĩ
Ġáĥĵ áĥĲáĥĽ
Ķà¸ ¥
ĠÏĦ Îµ
Ð°ÑĢ Ð¾Ð´
àª° à«Ĥ
à°Ĥà° ª
à¹Ģà¸ ¥à¸
Ø ¥
1 7
à§įà¦ ¦
c as
Ġà¤ľ à¤¾à¤¤
ÏĦ Ïī
à«ģàª ľ
ÙĦ ÛĴ
à¤°à¥įà¤ ®
Î½Î¿ Î´Î¿
Ġà¤® à¥Ī
Ð¾Ñı ÑĤ
âĢ į
ëħ Ħ
Ġ× ¦
c ÃŃ
ÐµÐ½Ð¸ Ð¸
Ð°Ð¹ Ð´Ð¸
Ġ Ð°ÑģÑĤ
es sa
k al
ĠÃ®ntÃ¢ln iri
ÑĪ Ð¸ÑĢ
c at
ìĬµ ëĭĪëĭ¤
ãģ« ãģ¯
k eng
s s
Å¾ i
Ġm ÉĻn
ĠÐº ÑĢ
Ã¡ i
ni k
te ur
al es
á¹£ u
es te
Ġï »¿
r Ã«
ĠØ º
Ġh lo
Ġá»į já»į
ĠÕ ¶
or o
ĠÐ¿ Ð¾Ð¼
Ġh ÉĻr
ĠL at
Ġt Äģ
Ã¼n k
Ġì £¼
Ð Ł
Ġ×Ķ× ©
ç ķ
Ġpat aki
Ġf or
h te
Ġh á»į
áĢķ áĢ¹
Ġà®ħ à®Ł
àµįà´ £
ĠáĥĽ áĥĺáĥ
à¸² à¸£à¸
Ġà°ļà±ĩà° ¯
åĬ Ľ
à¦¨à§įà¦¤ à§įà¦°
àª£ à«Ģ
Ġà®µ à¯Ģ
à´¿à´ ±
ĠáĢ¡ áĢŀ
±áĢ ķ
ĠáĢ» áĢĻ
ĠÎ ¡
à®² à¯Ī
àµįà´¯ à´Ĥ
Ð± Ð°
Ïħ Î½Î±
à±įà° Ĺ
ĠáĥĲáĥł áĥĺáĥ¡
é ¦
å ¦
à®¾à®° à¯įà®ķà®³à¯į
ĠÎº Ïħ
àµįà´¯ à´®
Ġà¦¸ à§įà¦¬
Ñĳ Ð½
áĥĲáĥłáĥ Ĵ
Ġàª° àª¾àªľ
Î¼Î± ÏĦÎ¿ÏĤ
à±ģà°² à±ĭ
ĠÐ± Ð¾Ð»ÑĮÑĪ
à¹Ħà¸ Ľ
è °
h n
Ġà¦® à§ĭ
Ġáĥĵ áĥ¦
¥ à¸´à¸
ĠÎº Î¹
Ñį Ð¼
Ġàª® àª¾àªĤ
à±įà°° à±Ģ
à¸Ńà¸£ à¹Į
Ú© ÛĮ
ĠÎ±Ïħ ÏĦÎ®
Ġà¦¦ à§ĩà¦ĸ
ÐºÐ¸ Ð¹
à¥ĩà¤ ĸ
Îº Î¹
Ġàªª à«ĭàª¤
ne go
Ġà¤¬ à¤¨
Ġr u
Ġà¤° à¤¾à¤ľ
ÑĢ Ð°ÑĤ
à¤ ¥
Ġë³ ´
Ã¶ r
z i
Ġa i
ĠÐ°Ð¼ Ð°Ð»
ĠÐĳ Ñĥ
ĠØ§ÙĦØ µ
ÙĦ Ø§Ùħ
ĠÙ¾Ø§Ú© Ø³ØªØ§ÙĨ
Ð¾Ð¼ Ð¾Ð½
la ng
ìĻ Ģ
Ä¾ a
Ð¸Ð» Ð¸
Ġn ous
ĠÚ©Ø± Ø¯
×Ļ ×Ļ×Ŀ
um u
ĠE s
Ã¡ b
p r
Õ¡Õ ¾
Ġi pa
Ä±n Ä±
ì¶ľìŀ¥ ìĥµ
Äĥ m
ĠØ¨ Ûģ
å® ļ
t áº¹
ÑĨ Ð¸Ð¸
Ġá»į ká»į
Ùħ Ø©
ÑĥÐ² Ð°Ð½Ð½Ñı
ti s
an do
ÑĢ Ð¾Ñģ
µ ľ
Å º
al Ä±
Ġ {
pá»įlá»į pá»į
ou v
æ Ľ
ĠÐ± ÐµÐ·
ķáĢ« áĢĲáĢļáĢ¹
Ġà®ħà®° à®ļ
à´¾ àµ¼
ĠáĥĽ áĥ®
ķ à¸²à¸
à±ĩ à°°
è§ Ħ
à¦° à§įà¦¤
§ à«Ģ
à®¿à®ķ à®³
à´ªàµįà´ª àµĭ
áĢ¸áĢ ¡
áĢŃ áĢĲáĢ¹áĢ
áĢĦ áĢ·
Î½Î¿ Î¼
Ġà®¤à¯Ĭ à®Ł
Ġà´ĩ à´¤
Ð°Ñģ ÑĨÑĸ
Î¹Îº ÎŃÏĤ
à±Ģ à°
ĠáĥĹ áĥ¥
ç» ı
ä¸ »
Ġà®® à®©
ĠÏĥ Ïĩ
à´¨àµįà´ ¦
à§ĩà¦ ·
ĠÐ²Ñĭ Ðº
áĥĲáĥłáĥ ¢
à«įàª ¨
ĠÎľ Î±
à±ģà° ®
ĠÐ´ Ñĭ
±à¹īà¸ ĩ
å° ±
Ġv olt
Ġà¦Ĩ à¦Ĺ
Ġáĥ °
«à¸ ¡à¸
ĠÏĢÎ¿Î» Ïį
Ð½Ñĸ ÑĨ
à«Ģàª ¸
Ġà°¸ à°¿à°¨
±à¹īà¸ ĩà¸
Ġa s
1 5
à¦¾à¦ ¯à¦¼
i j
a v
ĠÏĢ Î±Î¹
Ġàª® à«ĩàª
ĠØ§ Ø¨
Ġà¤ħà¤ª à¤¨à¥ĩ
Ïĥ Î¿ÏħÎ½
à¤Ń à¥Ģ
ĠÐł ÐµÑģÐ¿ÑĥÐ±
Ġà¤Ń à¤¾à¤°
Ġê³ ł
Ġwer den
Å¡ o
en ts
Ð Ľ
Ð´ Ð¾ÑĢ
ÙĤ Ø©
is oa
ĠK e
ÑĪ Ð¸
ĠØ¢ Ù¾
ì¹ ´
ÅĻ ÃŃ
Ð» ÐµÐ½Ð¸Ñı
te le
Ġs om
Ã© ho
Ã¡ ng
Ø§ÙĨ Ùĩ
Ġm und
æ¥ Ń
Ñİ ÑĤÑĮ
Ġagb ara
×Ļ× ¢
ë¬ ¸
ie j
Å¡ e
Ġau x
ek e
Ð¾ÑģÑĤ Ð¸
re e
l ÉĻt
èĢ ħ
ÑĬ Ð»
Ġe dir
Ð Ĵ
ĠìĹ ¬
ĠÃ© r
Ø² Ø§Ø±
Ġdel l
u gbá»įn
la m
il la
ĠÐ½ Ð¾Ð²
ĠáĢ Ł
Ġà®® à¯ģà®¤
àµģà´£àµįà´Ł àµį
áĥķ áĥĲ
à¹Ģà¸ Ľà¹ĩà¸Ļà¸
Ġà°ķ à°¾à°°
å¥ ĸ
à¦® à¦¾à¦¨
àª¾àª¨ à«ĩ
à®© à®°à¯į
à´¾à´¯à´¿à´° àµģà´¨àµįà´¨àµģ
ĠáĢ» áĢĸáĢħáĢ¹áĢ
áĢĦáĢº áĢ¸
ĠáĢ ¥
Î´ Î®
à¯ģà®Ł à®©à¯į
Ġà´ªàµįà´° à´¤
Ñı Ð´
Ïİ ÏģÎ±
à±ĭ à°ľ
áĥ® áĥĿáĥķ
åº ¦
æ Ļ
Ġà®ª à®¤
ĠÏĥ Ïį
à´¾à´² àµįâĢį
à¦¾à¦ ĸ
ĠÑĸ Ð¼
Ġáĥ© áĥķáĥĶáĥľ
Ġ }
Î³ Î¬
Ġà°° à±Ĩ
ĠÐº Ð°Ð±
Ľà¹ĩ à¸Ļ
Ġå Ľ
l ine
à§ĥ à¦¤
Ġáĥ£áĥ ¤
·à¹Ī à¸Ń
Î» ÏįÏĦÎµ
ĠÐĳÐµÐ»Ð°ÑĢÑĥÑģ Ñĸ
à« Į
Ġà°® à±Ĭ
à¹Ħà¸ Ľà¸
ÙĤ Ø¯
Ġw e
à¦¿à¦ Ĥ
m s
à¤ ł
ÏģÎ¹ Î¿
ĠàªĹ àª¯
Ã¢n d
à¤ķ à¥įà¤¤
ĠÏĩ Î±
æĴ Ń
ĠÒ³ Ð¾Ð»
à¤¤ à¤¿
ì§ Ħ
s ion
ĠH a
á»ĳ c
Ñĥ Ò³
Ð°Ò³ Ð¾Ð¸
er n
ĠØª Ø¹
Ġes ta
Ð¹ Ð¸
an ce
íı ¬
Ġ× ĺ
ĠÐ¿ÑĢ Ð¾Ð´
ĠÔ ±
Õ¥ ÖĢÕ
Ġt y
Ġn t
Ġl ie
ĠÙħ Ø¯
Ä ı
Ã¡ j
Ì Ģ
Ġe g
ĠëĤ ĺ
tt Ã¤
Ú¾ Ø±
Ð¾ÑĤ Ð¾
Ġi da
ĠÐ² ÑĢÐµÐ¼
Ġi má»į
il ÉĻr
ĠØ¢ Ùħ
sz e
è ³
ĠÐ³ Ð¾ÑĢ
Ġë ²
ti que
m os
Ġba keng
Ġi bi
t to
Ġal s
Ðº Ð¾Ð²
áĢ¸áĢ ľ
Ġà®ķ à®°
Ġà´¨à´¿à´ ¨àµįà´¨
áĥĿáĥłáĥ ª
ĺ à¸
Ġà°ļà±Ĩ à°ªà±įà°ª
åįķ åıĮ
Ġà¦ħ à¦¬
Ġàªľ à«ĭàª
Ġà® ²
à´¾à´ ª
Ġáģ ģáģ
áĢ± áĢĢ
±áĢ ľ
ÏĮ Î¼Îµ
à®° à®¿à®¯
Ġà´µ à´°
Ñĸ Ð»
Ïģ Ïħ
Ġà°µ à°¾à°°
áĥľ áĥĺáĥ¡
å »
æĪ ĳ
à¯ģà® £
Î¹Îº ÏİÎ½
à´ªàµįà´ª àµĨà´Ł
à§Ł à¦¾à¦°
Ðµ ÑĨÑĨÐ°
áĥ «
àª¾àª ¶
ĠÎŁ Î¹
à°¡ à±įà°¡
Ð°Ð» Ð°Ð²
³à¸ «
åħ ĭ
Ġde y
à§ĩà¦ ¦
áĥĲáĥķ áĥ¨
Ġà¸ ļà¸Ńà¸¥
Ġy r
Ñİ ÑĨÑĨÐ°
Ġàªķà«ĭàª Ī
à±ĭ à°Ĺ
ļ à¸£à¸´à¸
ti v
ĠÎ¼ ÏĮ
à§ İ
te m
à¤² à¤¾
Îµ Ïį
Ġàª¥ àª¯
ĠÄĳ áº¿n
à¤¿ à¤Ĥà¤Ĺ
Ġï¿½ï¿½ï¿½ï¿½ ï¿½ï¿½ï¿½ï¿½
à¤ ·
Ðº Ð¾ÑĢ
Ġà¤¦ à¥ĭ
Ġì ¤ĳ
ĠØŃ Ú©
l Ã³
×ķ× ŀ
ĠÐ¼ Ð°Ð½
ÒĽ ÑĤ
ĠØ´ Ø¯
Ġg ad
Ġm me
Ð¸Ð» Ð°Ð´Ð¸
ĠÚ¯ ÛĮØ§
ìķ ¼
ĠØ§ÙĦ Ø±
Ð» Ð°Ð²
j t
r as
æĢ §
p er
p os
ĠÐ² Ð¸
s ki
ĠÃ¼ z
Ġ201 4
Ġj el
ê³ Ħ
Ġ ãģ¨
c on
Ġv e
Ġá»į rá»į
ĠÐ¸ ÑģÐ¿
Ġna do
Ø ¤
ia ÅĤ
l ÉĻn
ĠØ§Ù¾ ÙĨÛĴ
Ð¸ÑĢ Ð¾Ð²Ð°Ð½
Ġë¶ Ģ
Ġt ai
á»ģ n
ãĥ Ĭ
Ġon i
Ġm ar
Ġ×Ķ ×ª
Ð¾ÑĢ ÑĤ
áĢ¬ áĢŀ
à¯ģà®ķ à¯į
Ġà´ķ àµĭ
áĥł áĥĺáĥ¡
ŀ à¸Ļà¸
à±ĩà° Ł
è Ĳ
Ġà¦¤à¦¿à¦¨ à¦¿
àª¸ à«įàª¤
Ġà®¤ à¯ĩ
à´¿à´¨ àµĨ
áĢĽáĢ¾ áĢŃ
áĢ¬ áĢĦáĢ¹
áĢ¬áĢ¸áĢ Ľ
Îº Î±Î½
à®¿à®²à¯įà®² à¯Ī
àµģà´¨àµįà´¨ à´¤
ĠÐ¼ Ñı
Î»Î» Î±
Ġà°® à°¾à°°
ĠáĥĽ áĥĹ
åĮ ĸ
èĩ ª
Ġà®®à¯ģà® ©
Î´ Î¹Î¿
à´¾à´ ľ
à§ģ à¦®
ĠÑĸÐ½ ÑĪ
áĥĿáĥ Ļ
àª¾àª° à«ĭ
Î· ÏĥÎ·
à°¿à° ²à±ĭ
ĠÐ°Ð´ Ð·
à¸´ à¹Ģà¸
ĠåĮ Ĺäº¬
ĠØ´ Ø¯Ùĩ
Ġà¦¹à§Ł à§ĩà¦Ľà§ĩ
Ġáĥ® áĥĶáĥļ
à¹īà¸ §
y l
ĠÑĳ Ð½
àªĤ àªķ
à°° à±įâĢĮ
Ķà¸´à¸¡à¸ŀà¸ ±à¸Ļà¸
Ġsz Ã¡m
1 2
à§įà¦ ľ
ĠÙĦ Ø§
Ġà¤® à¤¿à¤²
ĠÎ¼ÏĢÎ¿ ÏģÎµÎ¯
Ġ $
en i
Ġ +
ter n
çł ģ
ĠÐ¼ Ð°Ò³
à· Ĵ
ê° Ħ
ĠØ· Ø±
w er
Ġtr a
Ð»Ð¸ Ð³
Ð°Ð»Ð°ÑĢ Ð¸
Ã½ m
z Ã³
Ġm em
ĠÐĶ Ð°ÑĢ
x t
Ġê ±
Ø§Ø µ
ĠÐ¼Ð¾Ð¶ ÐµÑĤ
Ġna ch
Ġka pa
la s
á»© c
ny m
Ã© es
ãģ§ ãĤĤ
ĠÑ Ĺ
Ġaw on
Ġle het
ë £
×Ĺ ×¨
ÈĽ ii
ÉĻ li
to ri
ĠÐ¼Ð¾Ð¶ Ð½Ð¾
Ġá¹£ a
ãĥ ĵ
Ð°Ð½ Ðµ
as sa
Ġv Äĵ
ĠÑĤ ÑĢ
Ġê³ µ
ÛĮ Ø³
ĠÙħ Ø§
at z
Ġmi iran
ĠÃ© v
è »
ĠÐ´ Ð¾Ð»
ŀ áĢ°
Ġà®ħ à®¨à¯įà®¤
à´¾à´ Ĺ
Ġáĥ¡ áĥ¢
à¹Ģà¸ Ĥ
Ġà°® à°¨
è¿ ĩ
Ġà§¨à§¦à§ §à§
Ġàªı àª®
à¯Īà®ķ à¯į
à´¿à´ļàµįà´ļ àµį
áĢ¸áĢ ħ
áĢ¯áĢŃ áĤĶ
áĢ±áĢ¬ áĢĦáĢºáĢ¸áĢ
ÎĻ Î£
Ġà®® à¯Ĥ
à´¿à´ ¨àµįà´¨
Ð°Ð³ Ð¾
Î© ÎĿ
à±ĭ à°¯
áĥĲáĥ ŀ
å §
æĸ ĩ
ŀ à¯įà®ļ
Ïĥ Î±Î½
àµģà´¨àµįà´¨ à´¤àµį
Ġà¦ķ à§ĭà¦¨
ĠÑĤ Ð¾Ð»ÑĮÐºÑĸ
áĥĿáĥłáĥ Ľ
à«ĭ àª¨
Î» ÎµÎ¹
Ġà°ħ à°¨à±įà°¨
Ð´ Ñĭ
à¹Ĥà¸ ¡à¸
è £
Ġprz ez
à§įà¦ ł
ĠáĥĽ áĥĲáĥĹ
à¹ī à¸Ń
Ġp ost
ĠÐ¶ Ñĭ
Ġàª¸ àª¾àª®
à°¤ à°¿
ķ à¹īà¸Ńà¸ĩà¸
ts ch
Ġ us
Ġà¦ķà¦° à¦¤à§ĩ
áºŃ p
à¥ĩ à¤¸
Ġh ref
Ġàª¹àª¤ àª¾
m ÉĻsi
Ġà¤ķà¤¹ à¤¾
ÏģÎ¹Ïĥ Ïĥ
à¤¾à¤¨ à¥Ģ
ĠÐ±Ð°ÑĢ Ð¾Ð¸
Ġà¤² à¥ĭà¤Ĺ
ĠìĿ ¼
Ġm on
Ø§Ø ®
j er
ĠÐ±Ð¾ÑĪ ÒĽ
Ð¾ ÑĦ
Ġpre d
d Äĵ
Åĳ k
Ð°Ñģ Ð¸Ð´Ð°
ĠkeÃ§ ir
ê ¹
Ġv or
ÑģÐº Ð¾Ð³Ð¾
as e
ĠI l
Ġ×ŀ ×Ķ
Ð»Ð¸ Ð²
ÙĪ Ø¨
ÉĻ lÉĻr
Ã¡n ÃŃ
ow ych
ok e
et t
ì¹ ĺ
Ġg iá»
Ä¼ u
Ġt lo
j ara
Ð¾Ð± Ñĭ
w u
Ġv et
Ġ ÛĮØ§
re i
Ġ Å
Ð¾Ð³ Ð´Ð°
Ġâ ĺ
di g
ãģ ļ
Ð ħ
É Ľ
Ðł Ñķ
ĠÐ³ ÑĢ
Ð» Ð°ÑģÑĤ
áĤ Ĭ
Ġà®ĩ à®Ł
Ġà´µ àµĢ
áĥĵ áĥĶáĥĳáĥĲ
Ľà¸ ¥
à°Ĥà°¦ à±įà°°
è¿ Ĳ
à¦¾à¦¦ à§ĩà¦¶
Ġàª Ī
à®© à¯Ī
àµĨ à´Ļàµįà´ķ
áĢ¬ áĢĢáĢ¹
áĢ±áĢ ·
áĢ±áĢ ¡
Î¿Î½ ÏĦÎ±Î¹
à®® à®¾à®©
à´³ àµįà´³
Ð°Ð½ Ð°
ÎĳÎ ¤
à°¿à°Ĥà°ļ à°¿
áĥĵ áĥĶáĥĴ
å ĸ
ä» ¬
Ġà®İ à®¤
ĠÎ¸ Îµ
à´¤àµįà´¤ àµį
Ġà¦ıà¦ķ à¦Łà¦¿
ÑĤ ÑĥÑĢ
Ġáĥ¡áĥĲáĥ¥áĥĲáĥłáĥĹáĥķáĥĶáĥļ áĥĿáĥ¡
àªµàª¾àª¨ à«Ģ
ÏģÎ¹ Î½
à°® à±Ĩ
Ð°ÑĨ ÑĨÐ°
ªà¸¸à¸ Ķ
æ į
ÉĻs indÉĻ
Ġà§ ©
ĠáĥĻ áĥĿáĥĽ
à¹ģà¸ ļà¸
Î½Î¿ Î½
ÑĩÑĭ Ð½
ĠàªĨàªµ à«Ģ
à°¾à°¤ à±įà°°
¸à¸ ķà¸
ĠÃ ª
ÏģÎ¹ÏĥÏĥ ÏĮÏĦÎµ
à¦¾à¦ķ à¦¾
la d
ç Ī
Ġ1 7
àªµ à«ģàªĤ
Ġo le
Ġà¤ķ à¤®
Ġth e
à¥ĭ à¤ľ
ĠÒ ¶
Ġà¤¬ à¤¾à¤¦
Ġë§ Ī
r os
Øª Ùħ
os ta
ĠÐłÐµÑģÐ¿ÑĥÐ± Ð»Ð¸Ðº
ĠÒ³ Ð¸Ñģ
in Ã«
Ġ×ŀ× ©
p re
Ð± Ð°ÑĤ
Ġr end
ì¶ľìŀ¥ ìķĪë§Ī
Ġq ar
ÑİÑĤ ÑģÑı
Ġna ko
ãĤ ĥ
é ł
ÑģÑĤ ÑĮ
r Äģ
Ġs ie
es c
le g
Ġgb e
Ø§ Ø¬
Ġìĥ ģ
ãģª ãģ©
Ä± x
ĠJ e
Ġy áº¹
ĠC a
Ġa aye
Ġ×Ķ× Ĺ
ĠÑģ Ð¸
f or
ÐµÐ½Ð¸ Ð¹
is tÃ¤
íĶ Ħ
ÙĦ Ø©
ãĤ ĩ
Ð° ÑĶ
Ġe lo
Ġe tsa
Ġshum Ã«
Ú© Ûģ
áĤıáĢ½ áĢĦáĢ¹áĢ·
Ġà®ļ à®¿à®±
àµĨà´¯ àµģà´Ĥ
áĥĺáĥľ áĥĲ
à¸Ńà¸£ à¹Įà¸
à°¿à°Ĥà° ¦
pk 10
à¦¾à¦¤ à§ĩ
ĠâĢ ¦
Ġà®Ĩ à®©
à´¿à´² àµĩ
Ļ áĢ½áĢ¬
áĢ» áĢĸ
áĢ¬ áĢľ
Îµ ÏĢ
à®¿à® ª
àµįà´° àµĢ
ĠÑĤÐ°Ðº ÑģÐ°Ð¼Ð°
Î³ Ïī
à±ģà° Ĺà°¾
áĥĶáĥ Ļ
Ġå ¹
ĠA G
à®Ł à®¿
ĠÎł ÏģÎ¿
à´¨àµįà´ ±àµĨ
à§Ł à¦¾
Ð² Ð°Ðµ
áĥķ áĥĺáĥĹ
Ġàª¤ à«ĩàª
ÏĦÎ· ÏĤ
Ġà°¸à°¿à°¨ à°¿à°®
ĠÑģÑĤ Ð°ÑĢ
Ľà¸£à¸ °à¹Ģà¸
é Ĥ
Ġent re
à¦¿à¦ ľ
ĠáĥĻ áĥĺ
à¹Ģ à¸£à¸
Îº Î¬
ĠÑĨ Ñı
àª¤ à«ĭ
à°Ĥà°Ł à±ĩ
à¸Ńà¸ ģà¸
n Ã½ch
ĠMa e
à¦¾à¦¨ à§ĩ
Õ¡Õ¯ Õ¡Õ¶
Ġà¤¸ à¥Ģ
< /
àª¿ àªĤàªĹ
an Ä±n
Ġà¤¤ à¤ķ
Ïĩ Î®
Ġà¤°à¤¹ à¥ĩ
ĠÐ°Ñģ Ð¾Ñģ
Ġà¤® à¥ģ
ìŀ Ħ
Ġl Ä«dz
it u
Ġvá» ģ
Ñĥ ÑĦ
Ð°Ñĳ ÑĤÐ³Ð°Ð½
Ġe m
Ð½ÑĭÐ¼ Ð¸
ĠØ³ Ø±
Ð± Ð¾ÑĢ
un i
ë§Ī ìĤ¬ì§Ģ
Ġna j
Ġ3 8
Ñĸ ÑĪ
çī ©
Ġ×ĳ ×Ĳ
ar d
ÙĬ Ùģ
Ġcs ak
Õ ¯
Ð´ Ðµ
elu jara
ÚĨ Ú¾
Ġâ Ļ
ny a
Ã¶ y
Ġpr in
i ng
Ñĥ Ð²Ð°
Ġsi i
Ø§ ØŃ
ÃŃ r
ĠÑį Ðº
ãĤ¤ ãĥĪ
ĠLat vi
ìļ °
Ä«b a
vo ir
Ġg ia
Ġe re
ĠÐ² Ð¸Ðº
c er
ãģĹ ãģĦ
Ļ áĢ½
à®£à¯įà®Ł à¯ģ
Ġà´ķ à´´
ĠáĥĽ áĥĲáĥ¡
à¹īà¸² à¸Ļà¸
à±ĩà° ·
¬ ¬
à¦ľ à¦¨
à«ĩ àª¨à«įàª
Ġà®ĩ à®²à¯įà®²
à´¿à´ ŀàµįà´ŀ
áĢļáĢ¹áĢ ľ
ĠáĢ Ħ
ĠáĢ Ŀ
ÏĦÎ¹Îº Î®ÏĤ
Ġà®® à¯Ģ
à´¾à´ ¦
Ġ Ð°ÑĤ
Ïĩ ÎµÎ¹
à°¿à°Ĥà°ļ à°¿à°¨
ĠáĥĽ áĥĿáĥĽ
Ġæ ī
å¿ ĥ
à¯ģà® ²
ĠÎ±Î½ Î¬
Ġà´¨ à´¿à´°
à¦¿à¦ ¯à¦¼
Ð¿ ÐµÑĢ
áĥĲáĥ «
àª¤ àª¾àªĤ
Î³ Î®
à°Ĥà° ķ
Ñį Ð¹
à¸´ à¸Ļà¸
åı ¸
ĠA l
à§ģ à¦ķà§įà¦¤
ĠáĥĲáĥ ķ
ĩ à¸²à¸Ļà¸
1 6
ĠÐĲ Ð´
Ġàª¹àª¤ à«ģàªĤ
Ġà°¤ à°¨
à¸µ à¹Īà¸
r Ã³
ÏĦÎ· ÏĥÎ·
à¦ª à¦°
Ġy er
çº §
tern et
à«Ģ àª¨
ng we
à¤¾à¤ ĵ
ĠÏĥ Î¿Ïħ
Ġà¤ī à¤ª
ĠÐ½ Ð°Ð·
à¤° à¤¾
ĠìĿ ĺ
ĠØ °
Ġj s
ÑĬ ÑĤ
ĠÒ ĵ
Ó¯ Ð·
Ġm yÃ¶
Ã« ve
ĠP or
Ð°Ð¹ Ð´
ie i
Ġìľ Ħ
ĠB e
Ä« v
ĠØ§ Ø±
×ķ× ¦
Ġs ul
ãģ¾ ãģĽ
ĠtÅ¡ e
Ġpe le
u je
Ã¶ k
ĠO lu
ou ve
íķĺ ê³ł
ĠÐ² Ð¸Ð´
ĠØª Ø±
Ġdi es
Ġe to
ur es
Ġ201 8
Ġm á»
Ġtu d
Ġl u
ÐµÑĢ Ð¶
Ġvi ÅĨ
ìĦ ¸
Ġj anÃ«
ra v
ĠÐ½ Ð°Ð¿
Ġáº¹ ni
Ġdas s
ĠÕ «
Õ¥ Õ¶
áĢŁ áĢ¬
à¯ģà®µ à®¤
Ġà´ķ àµĩ
Ġáĥ¡ áĥĲáĥ¡
¹à¸ ģà¸
à°¿à°² à±įà°²
éĩ į
à¦¾à¦ ¥
Ġàª¸ à«įàªµ
à®¿à®¤à¯įà®¤ à¯ģ
à´¾à´ ¹
ĠáĢ¡ áĢħ
ĸ áĢ¼
» áĢĸ
Î»Î¿ Î½
à¯ģà®ķ à®³
à´¯ à´¿à´²àµįâĢį
ĠÐĵ Ð
Îµ ÏģÎ³
à±įà° §
áĥĺáĥ¨ áĥķ
è§ £
Ġå½© ç¥ŀ
Ġà®ķ à®²
ĠÎ´ Î¹Î¬
Ġà´ļàµĨà´¯ àµįà´¯
Ġà¦Ĺ à§įà¦°
Ð¼ Ð°
áĥĲáĥª áĥĺ
à«ĩàª ¡
ÎĳÎ Ŀ
à°® à±Īà°¨
ÑįÐ½ Ð½Ñı
ķ à¸£
åī į
m Ä±ÅŁ
Ġà¦ķ à¦®
áĥ£áĥ ¡
Ġ2 5
ĠÎº ÏĮ
ĠÐ¼ Ñĭ
) ;
Ġà°ļà±ĩà° ¸à±įà°¤
Ġà¹ģà¸ ¥à¸°à¸
ĠP ar
ĠÏĨ Î¿
à¦¨ à¦¿
Ùĥ ÙĨ
à¤¿à¤ ®
Ġ/ "
) .
Ġba tho
Ġà¤ľ à¥Ģ
Ġ3 0
à¤¸ à¥įà¤¤
ĠÐ¼ Ð°ÒĽ
à¥Ĥ à¤°
ìľ Ħ
ÛĮ ÙĦ
ĠÃª tre
Ġm Ã©g
ĠÒĽ Ð¾Ð»
Ð¸Ñı ÑĤÐ¸
Ġ×ķ ×Ķ
e j
Ñĸ Ð±
Ð» ÑĥÐ¼
Ġs ta
Ġí Į
Å© ng
Ã¡l y
ka an
Ġki mi
ra tis
c os
Ġ ur
ÑĦ Ð¾ÑĢÐ¼
ĠØ¬ ÙĨ
di mo
s áº¹
l t
Ġì¹´ ì§Ģëħ¸
ĠÑģ Ð¾Ð±
Ġbi en
Ġm eng
Ġi la
Ġsa v
Ġáº¹ gbáº¹
ãĥ »
ãĥ¼ãĥ ī
n Äħ
Û °
ĠØ¨ ÙĪØ¯
ĠìĦ ľ
ĠlÃł m
Ð°ÑĨ ÑĸÑĹ
it Äĥ
ĠI le
r it
×ķ× Ĵ
ÐµÐ½ Ð°
áĢ¥ áĢ¹áĢ
à¯ģà®ķ à®³à¯į
Ġà´¤ à´¿à´°
¬ áĥ§
Ġ à¸Ļ
à°¸ à±į
Ł ¥
Ġà¦¸à¦® à§įà¦ª
Ġàª¦ àª°
Ġà®¨ à®¿à®²
Ġà´ªà´± à´ŀàµįà´ŀ
ĠáĢĢ áĢ¼
ĠáĢŀ áĢŃ
áĢĻáĢ¾ áĢ¯
Ïģ Î¸
Ġà®ļà¯Ĩà®¯ à¯įà®¯
à´°àµįâĢį à´¤àµįà´¤
Ðµ ÑĨ
Î¼Î± Î½
Ġà°µ à°ļà±įà°ļ
áĥłáĥ «
Ġäºļæ¸¸ éĽĨåĽ¢
è¿ Ļ
à¯Īà®ķ à®³à¯į
Îķ Î£
à´Ļàµįà´Ļ àµ¾
Ġà¦¬à¦¾à¦Ĥà¦² à¦¾à¦¦à§ĩà¦¶
ÑıÑĢ Ð¶
Ġáĥ¡ áĥ®áĥķ
àª¿àª¯ àª¾
ÏĥÎµ ÏīÎ½
à°¾à°¨ à±ģ
ÑĨ Ñĳ
ķ à¹Īà¸
éĴ Ł
ĠØ³ Ú©
Ġà¦¸ à¦¬
ĠáĥĽ áĥĿ
Ķà¸¥ à¸Ńà¸ĩ
ÏĥÎµ ÏĦÎµ
ĠÐ¼ Ð°Ð³
Ġàªµ à«įàª¯
à°² à°¾
¢ à¸Ļ
v ÄĽ
Ġ/" >
à¦ ·
asÄ±n da
à¥ĩà¤ ľ
Î¯Î½ ÎµÎ¹
àªĽ à«Ģ
ĠÙĪ Øª
à¥įà¤ ¨
ĠÏĢ ÏģÏİ
à Ń
Ð¸Ð» Ð´Ð¸
à¤Ĺ à¥Ģ
Ġê ¹
Ġv Å¡
en cia
Ġ á»Ł
Ð ľ
Ð°Ð» ÒĽ
Ġo li
o is
l Åĳ
Ð¸Ð» Ð¸Ðº
ãĥ Ķ
í Ĵ
ĠgÃ¶r ÉĻ
Ð¸ÑĤ ÑģÑı
f e
ow i
åĭ ķ
ÑĥÐ² Ð°ÑĤÐ¸
Ġq e
ĠØ§ÙĦ ÙĪ
Ġp os
Ä« jum
Ġw o
ĠÃ ī
ìķ ½
ÑĤ Ð¾Ð¼
m Ã«
Ã¡ la
Ġá»į kan
m ÉĻy
Ġir in
×Ļ× ĺ
Ġh et
Ð¸Ñģ ÑĮ
k st
ur ch
ì ¡°
Ú¯ ÛĮ
ho z
Ġm at
w áº¹
åı ĸ
Ġale bo
Ġk om
áĢĽ áĢ½
à¯ģà® ļ
Ġà´¤ àµģà´Ł
áĥĺáĥ ¥
Ġà¸ ģà¸²à¸£à¸
à°¿à°Ĥà°ļ à°¾à°°à±ģ
è ĭ
Ġà¦¯ à§ĩ
àªŁ àª²
Ġà®µà¯Ĩ à®³
à´¯ àµģà´ŁàµĨ
áĢĻ áĢ¼
ĠáĢĴ áĢ«
áĢ¬ áĢĶ
ĠÎ± Ïĥ
Ġà®ª à®¯
Ġà´µ àµĨ
ĠÐ¿Ð° Ñĩ
ĠÎ¤ Î±
à°¾à° ³
Ġáĥ£áĥ Ļ
åħ ³
Ġ Ĉ
Ġà®¤ à®²
ÏģÎ¿ Î½
à´¾à´¤ àµįà´¤
à¦¤ à¦¾
ĠÐĵ ÑįÑĤ
áĥĶáĥ ĸ
àª¾àª ¥à«Ģ
Ġ ÏīÏĤ
à°¨ à±įâĢĮ
ĠâĢļ Â
±à¸ ļà¸
Ġä¸ Ģ
ĠÑģ Ð¾Ð²
¯ à§ĭà¦Ĺ
áĥł áĥĿáĥ¡
Ġà¹Ĥà¸ Ľà¸£
Ġli ve
Ġ Ð°Ñŀ
Ġàª¨ à«ĩ
à°¿à° ¦
¡à¸ ±à¸
Ø§ Ùĭ
Ġ2 2
à§ģ à¦¬
Ġsh k
à¥įà¤ ·
ÏĨ Î®
Ġàªµàª°à«įàª ·
ĠÐ¼ Ñĸ
Ġà¤īà¤¨ à¥įà¤¹
Ġ2 3
Ġà¤¬ à¥Ģ
Ñģ Ð°ÑĤ
§ ç¾İ
ê³ µ
em p
Ð°ÑĤ Ð¾
un un
Ġ Ð°Ð½
Ð°Ñħ Ñģ
Ġa ce
ĠØ³ Ø§ØªÚ¾
ĠG e
Ð¾Ð½ ÑĥÐ½
ãĥ³ãĥ ī
Ġë į
ci o
0 4
ĠL i
el i
a lo
sz t
×© ×¨
g es
áº¥ y
um a
Ġay elujara
it z
ê ´Ģ
ĠÐ¾ Ñĩ
no ÅĽci
en ce
ĠN I
on y
d ara
Ġr es
ĠÙĦÛĮ ÛĴ
ĠÑģ ÐµÑĢ
Ġc i
å ķ
ê¸ Ī
Ø´ Ø¯
Ġk ter
f u
ar in
Ã¡ o
ãĥ¼ãĥ ł
ĠÄ ģ
áĢĴ áĢ®
Ġà®ĩ à®µ
àµĩ à´£àµįà´Ł
áĥĲáĥļ áĥ£áĥłáĥĺ
±à¸ ļ
à±ģà° Ł
Ġåľ ¨
Ġà¦¸ à¦°
àªµ à«ĩ
à® ¨
à´¿à´ ª
ĠáĢ¡ áĢľ
áĢ» áĢģ
áĢĸáĢ¼ áĢħáĢº
ĠÎ Ĩ
Ġà®®à®±à¯įà®± à¯ģà®®à¯į
à´® àµįà´ª
Ð½Ð°Ñģ ÑĨÑĮ
Î»Î» Î·Î½
Ġà°Ĺ à±ģà°°
áĥ£áĥ ¨
åĬ ¡
à¨¾ à¨
à¯įà®ļ à®¿
ĠÎĶ Î¹Î±
àµĢ à´µ
Ġà¦ħ à¦Ń
ĠÑĤ Ñĭ
áĥĿáĥ ¢
Ġàªµ àª¾àª¤
Î½Î· ÏĤ
Ġà°ħ à°¨à°¿
Ð½Ñĸ ÐºÑĸ
¡à¸² à¸£à¸
à¤¾à¤Ĥ à¤ļ
Ð°Ðµ Ð¼
à¦¿à¦ ª
ĠáĥĹ áĥĲáĥľ
à¹Ģà¸ Ķ
ÏģÎŃ ÏĢÎµÎ¹
ÑĩÑĭ ÑĨÑĮ
à«ĩàª² à«Ģ
ļ à°¿
à¹Ĥ à¸Ļ
ĠÚ©Ûģ Ø§
ĠÎļ ÏģÎ¹ÏĦÎ¹ÎºÎŃÏĤ
Ġà¦¦ à§ĩà¦¶
z e
à¤¾à¤° à¤¾
in ternet
ĠàªŃ àª¾àª°
Ã¤ i
Ġà¤® à¥ģà¤
Ġlive internet
Ġà¤¬ à¤¾à¤°
Ð¸ Ò³
ĠæĹ ¥
Ġì Ľ
Ð½Ð¾ÑģÑĤ Ñĸ
Ġm b
Ġâ Ĥ¬
Ð°Ðº Ð°ÑĤ
ĠÑĤÑŀ Òĵ
Ġs po
q q
Ġd is
ĠÑĤ Ð°Ð½
è¨ Ģ
íĶ ¼
Ġu t
ÐµÑĤ ÑĮ
ĠØª Ú©
he lo
Äĵ s
ĠR e
Ġk Ã¤y
ĠÑĢ Ð¾Ðº
×Ļ× ŀ
Ġp la
Ġi po
Ñļ Ðµ
ì ¶Ķ
ĠÐ· Ð°Ð¿
Ø§Ø± Ùĩ
h at
fi han
ãģ¾ãģĽ ãĤĵ
ĠÃ ¬
Ġc áº£
le mo
Ð¾ ÑģÐº
ti f
en za
Ġìķ Ī
Ã¼ s
ti c
at Ã«
ĠJ es
Ġje d
ĠÙĦ ÙĪ
v et
±áĢ ŀ
à®¾à®³ à¯į
à´£àµįà´Ł àµį
Ġáĥĺáĥ§ áĥĿ
¥à¸ĩà¸ Ĺà¸
à°¾à° ·
ĠæĪ ĳ
à¦¨à§įà¦ §
à«Ģ àªĤ
à¯įà®ª à¯įà®ª
à´¤àµįà´¤ à´¿à´¨àµįà´±àµĨ
áĢĢ áĢ»
áģ ¼
áĢķáĢ« áĢĲáĢļáĢº
ĠÎ½ ÎŃ
à¯ģà® ´
à´¨ à´Ĥ
ĠÂ ®
Î» Î¿Ïħ
Ġà° ĵ
ĠáĥĴ áĥķ
çŃ ī
æĹĹèĪ° åİħ
à¯įà® ¸
Î» Ïħ
à´ªàµįà´ª àµĨà´Łàµįà´Ł
à¦¿à¦ Ľ
ĠÐ½Ð° ÑĪ
áĥĲáĥľ áĥ¡
Ġàªª à«Ĥ
ĠÎĶ Î·
à°¸ à±įà°Ł
ĠÐ½ Ð°Ñģ
Ġà¹Ģà¸ Ķà¸´à¸¡à¸ŀà¸±à¸Ļà¸
ç ³
ĠÐ´ ÑĢÑĥÐ³
Ġà¦® à¦§à§įà¦¯
áĥĿáĥł áĥĺáĥ¡
à¹Ģà¸ ª
ĠÎ± Î¾
Ð» Ñĭ
à«įàª §
Ġà°° à°¾à°ľ
Ġà¸ Īà¸
Ġb et
ĠÏĢ Î¬Î½
à¦¾à¦¨ à§įà¦¤
ĠÙħ Ø±
æ¸ ħ
ĠÎ ¯
Ġàª²à«ĭàªķ à«ĭ
un ÈĽ
à¥į âĢį
Ġg w
ç ²
Ð¾Ð¼ Ð¸
à¥Ĥ à¤ª
íĸ ī
an ts
t Äĥ
el la
ĠÑħ ÑĥÐ´
ĠÐ´ Ð°ÑģÑĤ
Ġp Äĵ
×ł ×ķ
Ġwir d
ĠÑĦ Ð°ÑĢ
de os
íķ Ļ
un u
ĠÑĤ Ð¾Ð»ÑĮÐºÐ¾
or es
Ġt áº¡i
Ø§Ø ·
Ã¶ tt
ç ·
ti k
be le
ent a
il i
Ġ0 3
ê² ½
Ð°ÑĨ Ð¸Ñı
ĠÐ£ÐºÑĢÐ°ÑĹ Ð½Ð¸
ĠÑĨ Ðµ
ĠJ i
ãĤ¹ ãĥĪ
ĠA la
×Ļ× ¤
Ġau t
ĠÐ¸Ð½ ÑĤÐµÑĢ
Ġk g
ĠØ§ÙĦØª ÙĬ
ëª ħ
nie j
ĠØ§ Ùģ
ãĤĮ ãĤĭ
Ġi b
iá»ĩ u
te tt
Ð¿ Ð¾Ð²
áĤıáĢ½ áĢħáĢ¹áĢ
à¯Īà®¯ à¯Ī
à´° à´Ĥ
áĥĺáĥ ¤
ķà¸±à¸ §
à±ĩà° ®
Ġä¸ Ń
à¦¾à¦ Ĥ
àªĤàª ¡
à¯Īà®ķ à®³
à´¨àµįà´¤ àµįà´°
áĢĻáĢ¾ áĢ¬
áĢ±áĢ¬ áĢ·
áĢŃ áĢĻáĢ¹áĢ
ĠÎ±Î½ ÏĦÎ¹
à®¿à®¯ à®¾à®ķ
à´® à´¾à´¯à´¿
Ñİ ÑĩÑĭ
ÏĢ Î¯
à±Ĩ à°Ł
áĥł áĥĺáĥķ
å¾ Ĺ
1 9
à¯Īà® ¨à¯įà®¤
Î½Î¿ ÏĤ
à´ķ à´³
à§ģ à¦ķ
Ð²Ð° ÑĨÑĮ
áĥ® áĥĲáĥĵ
àª¾àªµ à«Ģ
Ïĥ Î¹Î±
à°¯ à±įà°¯
Ñŀ Ð»Ñı
Łà¸ ¸à¸ķà¸
åĮ º
ĠÐ´ ÐµÐ»
à§ĩà¦ ľ
áĥĶáĥĳ áĥ¨áĥĺ
à¹Ģ à¸£
ĠÏĦ ÎŃ
ĠÐ» Ñĸ
à«įàª ļ
Ġà°ª à°°à°¿à°
°à¹Ģà¸ ļ
hr en
ĠÎ´ Ïį
à¦¾à¦¤ à§įà¦°
ĠÃ İ
Ġ201 9
ĠÏĢ Î¹Î¿
Ġ$ (
Ã± o
à¤¤ à¥įà¤¤
Ġus ers
à¤ ¢
ĠÐ±Ñŀ Ð¹Ð¸
æĹ ł
Ġí Ķ
ĠÃ© ta
Ġnd Ã«r
á» ı
ĠÐ¼Ñĥ Ò³
ÑĨ Ð¸Ñı
ÛĮ Ø²
Ġna v
Ã¼ t
ĠÐ±ÑŀÐ¹Ð¸ ÑĩÐ°
da l
Ġí Ĩ
Ġ×Ķ× ¢
Ð² Ð¾Ð´
Ø§Ø ¶
Ġal la
Ġmin den
Ġp ue
ier t
Å¡ ie
Ġh ÉĻm
Ġp Ã¤Ã¤
Ġan d
Ð½Ð¸ Ð¼
íķ ł
Ð¾Ð» Ð¾Ð³
p ie
t ar
Ġá»į pá»įlá»įpá»į
Ġc ette
Ġr á»į
ĠK os
Ã¡ bb
ĠÐ¶ Ðµ
Ġgj ith
ãĥ į
ê² ©
tu k
ÑĨÑĸ ÑĹ
ĠÑĩ Ðµ
y áº¹
ĠØ§ÙĦØ °
ĠC om
áº ±
áĢ¯ áĢĲáĢº
Ġà®µ à®¿à®Ł
Ġà´ķ àµĤà´Ł
ĠáĥĻ áĥĿáĥľ
Ġà¸ ģ
à°¤ à±įà°¯
åĲ Į
à¦¨ à¦¾à¦°
àªķ à«ĭ
Ġà® ĵ
à´¨àµįà´¨ àµį
áĢ¬áĢ¸áĢ Ĳ
áĢľ áĢ²
ĠáĢĸ áĢ¼
Îº Î®
à¯ĭ à®¤à¯ģ
à´¸ àµįà´¥
Ðº Ð°Ð¼
Î»Î» Î·
à°¿à° ·
áĥķ áĥĲáĥļ
å± ķ
äº Į
Ġà®ī à®Ł
Îķ Î¡
àµ Ĺ
Ġà¦¨ à¦¿à§Łà§ĩ
ĠÐĿ Ð°
ĠáĥłáĥĿáĥĽáĥĶáĥļ áĥĺáĥª
Ġà« ¨
ĠÎµ ÏģÎ³
à±Ģ à°¯
ĠÐ± ÐµÐ»Ð°ÑĢÑĥ
Ĥà¸ ¶
æ° ĳ
ĠÐ¿ÑĢ Ð¾Ð²
Ġà¦Ľ à¦¿à¦²
áĥĹ áĥĲ
Ķ à¸µà¸
il l
Ð¾ÑĢ Ñĭ
àª° àª¾àª¤
à°¾à° ¹
ĩ à¸²à¸Ļ
ĠØª Ø§
Ġ2 4
à§įà¦ Ľà§ĩ
o t
æĭ į
ĠÏĢ ÏĮ
Ġàª¨ àª¾
ĠØ§ÙĦ ÙĦÛģ
Ġà¤¸ à¤°
1 4
Ġà¤ Ĳ
Ð°Ñģ Ñģ
à¶ ±
Ġêµ ¬
ĠÙĦ Ø¦ÛĴ
Ġo raz
ba ka
ĠÑĤ Ð¾Ð¼Ð¾Ð½
Ð» Ð¾Ò³
×Ļ× ¡
Ġdel le
ĠS a
ĠÐ¼ Ð°Ð²
te ment
Ġë Ĳ
c ul
ĠÐł Ð¾ÑģÑģ
ÃŃ m
Ã¶v lÉĻt
ĠE in
m ÉĻt
j ÄĻ
Ġdu ke
s Åĳ
ÙĦ ÙĪØ¯
pa da
k t
ëŁ ¬
Ð Ķ
Ùħ Ø§ÛĮ
ÙĤ ÙĬ
Ġa f
ãģ¨ æĢĿ
Ġgb i
ĠdÃ© c
u om
ÐµÑģ Ñģ
ÐºÐ¸ Ñħ
ia k
ìŀ ħ
ãĥķ ãĤ
Õ¡ Öģ
ÄŁ a
Ġe de
Ã µ
Äį i
ÙĤ Øª
áĢĻ áĤĪ
Ġà®İ à®´
Ġà´µ àµįà´¯
£áĥ ¡
Ħà¸£à¸Ķà¸´à¸ ķ
à°ķ à±įà°¤
äº Ķ
à¦¿à¦ķ à§įà¦·
àª¤ àª¿
à®¸ à¯į
àµģà´ķ à´¯
áĢĲáĢ¼ áĢĢáĢ¹
ĠáĢĢ áĢ»
áĤĢáĢĢ áĢ®áĢ¸áĢ
Î¼ÏĮ ÏĤ
Ġà®ķ à®¾à®²
à´¤àµįà´¤ à´¿à´¨
ĠÐĶ Ð·
ĠÏĩ ÏģÏĮ
à°µ à°°
Ġáĥ¬ áĥļáĥĺáĥ¡
Ġæ ŀ
æľ Ł
à®¤ à®¿
ĠÏĢÎ± ÏģÎ¬
à´¯ àµįà´ķàµįà´ķ
à¦¸ à§įà¦¤
ĠÂ» .
Ġáĥĺ áĥ¥
à«Ģàª ²
ĠÏĮ ÏĢÏīÏĤ
Ġà°µ à±Ī
ĠÐ±Ñĭ Ñŀ
ĸà¸ ¶à¸
å¤ ĸ
ĠÐ³ Ð¾Ð´
Ġà¦¬à§įà¦¯ à¦¬
Ġáĥĵ áĥĲáĥ¡
ģà¸ ±à¸Ļ
Î¶ ÎµÎ¹
ÐºÑĸ Ñħ
Ġàª° à«Ģàª¤
Ġà°² à±ĩà°¦
à¸Ńà¸¢à¸ ¹
ka i
A A
à§ĭ à¦²
s ka
çĶµ å½±
w ch
Ġàª¦ àª¿àªµ
Ġk un
Ġà¤¥ à¥Ģ
Î¯ Î¿
Ġà¤ķ à¥ģà¤
Ð»Ð°Ð½ Ð³Ð°Ð½
Ġà¤® à¥ĩ
Ġì ¡°
Ġcom e
Ġe o
Ġs áº½
Ð¼ Ð°Ð½
Ð± Ñĥ
ĠJ a
ĠØ³ Ø§ÙĦ
Ġs Äħ
Ð»Ð°ÑĢ Ð´Ð°
Ġam b
ì ¦
ĠpÅĻ ÃŃ
ĠÐ¿Ð¾Ð» ÑĥÑĩ
åĽ ŀ
ĠÕ ¿
r Ã¡
ĠâĢ İ
Ġfa it
Ġ×ĳ ×¢
Ã«n d
Ġcon t
Ġaká»į ká»į
ÑĤ Ñı
Ġì¶ľìŀ¥ ìķĪë§Ī
ĠÐ¿ Ð¾ÑĤ
Ġ os
ãĥĥ ãĥĹ
Ġi lu
ÙĦ Ùħ
Ġha ck
l ha
Ġé Ģ
Ð¸Ðº Ð¸
Ġa iz
Äĥ s
ìĹ Ń
ÃŃt Ã©s
la y
Ġol du
U N
ĠA u
ãĤ ±
ĠØ¬ Ø¨
ĠáĢĨ áĢŃáĢ¯
à¯Ģ à®°
à´£ àµįà´£
Ġáĥ¬ áĥĲáĥłáĥĽ
à¸µà¸¢ à¸Ļà¸
Ġà°Ĩ à°¯
éĢ ļ
à¦¾à¦ľ à¦¾à¦°
Ġàª¤àª® à«ĩ
à®¤ à¯Ī
à´¿à´¯ àµģà´ŁàµĨ
±áĢ Ĩ
áĢ½ áĢĶáĢº
ĠáĢķ áĢ«
ÏĦÎ¹ Ïĥ
Ġà®¨ à®¿à®±
Ġà´ħ à´¨
ĠÑģ ÑĥÐ¿
ĠÎ± ÏģÏĩ
à°¿à° ľ
áĥĶáĥłáĥ ¡
æ ¶
éĩ ı
à®ķà¯įà®ķ à¯ģ
ĠÏĢÎµ ÏģÎ¯
à´£ àµįâĢį
Ġà¦¥ à¦¾à¦ķ
ĠÐ±Ñĭ Ð»Ð¾
áĥ£áĥ ¤
ĠàªŃàª¾àª° àª¤
ĠÎŃÏĩ Î¿ÏħÎ½
à°¾à°² à°¿
ĠÑĨ Ñĸ
Ġà¹Ģà¸ ¥
éģ ĵ
Ð»Ñİ Ñĩ
à¦ ŀ
áĥĺáĥĲáĥľ áĥĺ
Ĭà¸± à¹Īà¸Ļ
Ġ0 00
Ð°ÑĢÑĭ ÑģÑĤ
à«Ģ àª°
à±Ģ à°ª
Ġà¸Ĺà¸ Ķà¸¥à¸Ńà¸ĩ
p i
ÏĢÎ¬ ÏģÏĩ
Ġà¦ķ à§ĭ
ÙĪØ± Ø¯
à¤¤ à¥įà¤°
Ġy m
Ġàª¥ àªĪ
Ġd á»¥
Ġà¤µ à¤¹
wy d
Ġà¤¬ à¤¹
ĠÒ³Ð¸Ñģ Ð¾Ð±
à¤¾à¤ĵ à¤Ĥ
Ġì ½
ÙĬ Ø§Øª
v Ã©
ĠD as
Ð £
Ñĥ Ð´Ð°
Ġc um
ÅĨ em
Ðł Âµ
ĠÐº Ð¸ÑĢ
ÑĢ Ð¸Ð¼
Ġëĵ ±
Ġ×© ×Ķ
ĠÐ»Ñİ Ð±
es ti
ÉĻ lÉĻrin
ta m
Ġsz ere
Ġl it
Å į
Ùħ Ø¯
Ġba ÄŁ
Ġá»į ja
Ø§Ø± ÛĴ
íĴ Ī
Ð¸Ð¼ Ð¸
unÈĽ uri
r ie
T I
ĠÑģ Ð°
ut u
ĠB o
ĠØ£ ÙĪ
ĠÑĢ ÑĥÐ±
Ð¾ Ñĺ
l Äĥ
Ġâ Ĩ
Ġr Ã©sz
s an
ĠW y
Ġb á»į
âĢĮ ÙĩØ§ÛĮ
g ne
an te
áĢĻ áĢŃ
à¯ģà® ªà¯į
ŀ àµįà´ļ
áĥĲáĥľ áĥĵ
Ġà¸ ĭà¸
à°¿à° ļ
Ġag åĽ½éĻħ
à¦ ī
Ġàªµàª¿àª ¶
Ġà®ļ à®®
Ġà´¤ à´¨àµįà´¨
áĢ ĩ
ĠáĢĲ áĢħáĢ¹áĢ
áģ ½
Î³ Îµ
Ġà®ļà¯Ĭ à®²à¯įà®²
à´Ĥ à´Ĺ
ĠÐ· Ð¼
ĠÏĢÎµ ÏģÎ¹ÏĥÏĥÏĮÏĦÎµ
Ġà° §
ĠáĥĽ áĥĺáĥĽ
æŃ £
Ġæ ĸ
Ġà®ħà®¤ à®¿à®ķ
Î» ÎµÎ¯
àµģà´® àµįà´ª
Ġà¦¬à¦² à§ĩà¦¨
ĠÐ¼ Ð°Ð»
áĥĿáĥĳ áĥ¡
à«ģàª ¦
Î´ ÎµÏĤ
à°°à±įà° µ
ĠÐ² ÐµÑĢ
ģà¸±à¸ ļ
åĪĨ éĴŁ
ĠÛģÙĪ Ø¦ÛĴ
à¦¿à¦ķ à§ĩ
áĥĺáĥ §
à¹Īà¸ ¡à¸
Î² Î¿Î»
Ġ) .
à«ĩàª ĸ
¡ à°¿
ģà¸ ©
Ãª u
Ġgy f
Ġà¦ķ à¦¿à¦¨
ÐµÐ¼ Ñĥ
à¤ķ à¥ĭ
Î¼ÎŃ Î½Î±
Ġàªª àªĽà«Ģ
ç¤ ¾
à¤¾à¤¨ à¤¾
Ïĥ ÏĦÎ¬
Ġà¤¸ à¤¬
Ð¾Ð½ Ð°
à¤¿à¤ Ł
í ģ
Ã³ ÅĤ
Ġd ir
c ov
Ð´Ð¸ Ð¼
ĠÐ´Ðµ Ð±
ĠÚ¯ Ø§
Ġis ti
åĨ Ĩ
ĠÐłÐµÑģÐ¿ÑĥÐ±Ð»Ð¸Ðº Ð°ÑģÐ¸
çĽ ®
ìĺ ģ
Ġk ell
ĠÄĳ Ã³
s er
Ġja u
nos Å¥
Ð¾Ð» Ð½
ĠJe ho
Ġl ik
g i
Ûģ Ø±
ĠF un
æ §
ë° Ķ
×ľ ×Ķ
Ġti j
d ÄĽ
w on
Ã© ri
Ġy Ã©
le la
ĠÐ¾ Ðº
es ta
Ġk wa
Ġf og
ĠìĬ ¤
Ġv ie
la ÅŁ
p u
ĠN a
ĠØ§ Ø¹
ĠÐĴ Ñĭ
Ġnh Ãł
áĢŃáĢ¯ áĢĢáĢº
Ġà®ª à®°
à´ ¥
Ġáĥ© áĥĶáĥĽ
Ġà¸ Ĥ
à° «
åĳ ĺ
Ġà¦ı à¦¸
à«ĩàª ľ
à®° à¯ģà®®à¯į
à´¨àµįà´ ±
ĠáĢĻ áĢŃ
áĢ¸ áĢĢáĢŃáĢ¯
±áĢĲáĢ¬ áĢ·
ÏĦÎ¹Îº ÏİÎ½
Ġà®µà¯ĩà®£à¯įà®Ł à¯ģà®®à¯į
Ġà´ħ à´Ł
ĠÐº ÑĢÐ°
ÏĦ Ïİ
à°¿à°¤ à±įà°°
áĥķ áĥ¡
éķ ¿
ä¸ İ
à®¿à®ķ à¯į
ÏĦ Ïģ
à´°àµįâĢį à´ķàµįà´ķ
Ġà¦Ĩ à¦¬
Ð°Ñģ ÑĨÑĮ
áĥĺáĥ ŀ
àª¾àª¨ à«ĭ
ÏĦÎ¹Îº Î¿Ïį
à±Ģ à°²
Ð½ÑĸÐº Ð°Ñŀ
Ġà¸ Ľ
å· ŀ
Ġv end
Ġà¦ķà¦° à§ĩà¦¨
ĠáĥĽáĥĲáĥĴ áĥłáĥĲáĥĽ
ĩà¸´ à¸Ļ
ÏĦÎµ Î¯
ÑĤ Ð²Ð°
àªĤàª ļ
à°³ à±įà°²
à¹īà¸Ńà¸ ¡à¸
Ù °
Ġg an
Ġà¦° à¦¾à¦ľ
ÐµÐ½ Ñĭ
Ġà¤¦ à¤¿à¤¯à¤¾
Ġï¿½ï¿½ï¿½ï¿½ ï¿½
ĠàªĨ àªľ
ä» ĺ
à¥ģ à¤®
ÏĩÎµ Î¯Î±
à¥ĭ à¤Ł
Ñĳ ÑĢ
Ġà¤ľ à¤¿à¤¸
Ġâ Ķ
Ġ ÉĻm
f o
ĠÙĪ Ø£
ĠÑģ Ð°ÑĢ
Ð¼Ð¾ÒĽ Ð´Ð°
ÙĪØ± ÛĮ
×Ļ× Ľ
Ġ ãģ®
ĠÐ¶ Ð°Ð¼
Ġãĥ ķ
ìĿ¼ 2
al Äĥ
Ġh ely
ĠÑĢ Ð¾Ð±
Ä± lÄ±
Ġo ch
ĠÐ» Ð¸
ĠMo dimo
Ġr is
Ġse o
Ø¨ Ø©
ĠA ti
ãĥ Ģ
Ġâ ĸ
at y
ÑĶ Ð¼
Ã¼ z
Ġi ru
ol l
Ġir an
Ġc ou
ÑĪ Ðµ
Ã² ng
Ø¯ Ûģ
Ġha e
Ġìŀ Īëĭ¤
Ġa mi
ro v
Ġdz ie
É Ķ
in te
Ð¿ÑĢ Ð°Ð²
ĠÅ ł
áĢĽ áĢŃ
à®¾à®¤ à¯ģ
à´ķàµįà´ ¤
ĠáĥĽ áĥĶ
Ĺà¸ ³
Ġà°ª à°¾à°°
Ġçİ¯äºļ ag
Ġà¦ªà§įà¦° à¦ķ
à«ĩàªŁ àª²
Ġà® ¸
à´¤ àµįà´°
ĠáĢ Ĺ
áĢ¬áĢ¸ áĢĢáĢŃáĢ¯
áĢ±áĢ Ĩ
Î¹Î½ ÏīÎ½
Ġà®ī à®£
Ġà´ ķàµįà´ķ
Ðº Ñģ
Î¹Î¿ ÏĤ
Ġà°ħ à°§
áĥĿáĥł áĥĺ
7 0
å ¢
à®¾à®± à¯įà®±
ÎµÎ¯ ÏĤ
àµģà´ķ à´³àµįâĢį
Ġà¦¦ à§ģ
Ħ ĸ
áĥłáĥ £áĥļ
Ġàª² àª¾àªĹ
ĠÎĳ Î½Î±
à°Ł à°¿
ÑįÐ½ Ð½Ðµ
Ġà¸ Ķà¸
app ä¸ĭè½½
Ġel s
Ġà§ «
Ġáĥ¡ áĥĲ
à¸Ńà¸ ļ
Ïĩ Î¹
Ð ¥
Ġàª¸àª® àª¯
à°· à±įà°Ł
à¸Ļà¸µ à¹īà¸
ĠF ran
! !
à§ĩà¦Ľ à¦¿à¦²
Ġcom me
æĥ ħ
ĠM ar
Ġà«§ à«
ÙĬ Ø¹
åľ¨çº¿ è§Ĥçľĭ
ĠÎ¼Îµ ÏĦÎ¬
à¤Ĺ à¥ĩ
ĠÐ¼ ÐµÐº
à¥įà¤ §
ëĲ ĺ
ĠâĢİ #
ĠÃ§ Ä±x
ĠÐļ Ð°Ðº
Ð¼ Ð¾
ĠÐ² Ð¸Ð»
×Ļ ×ķ
Ġsh qip
ĠN Ã«
Ñģ Ð¸Ð·
Ġï¼ Ł
Ġì Ļ
æĦ Ł
Ġm Ãł
ĠktÃ³ re
c ut
Ġv al
ĠÐ½Ð° Ñĩ
ãģł ãģĳ
h t
mi ento
et a
Ì ģ
Ä± q
ë Ħ
ÙĬ Øª
ĠãĤ ·
ĠØ§ ÛĮØ±
ak oso
Ġf aire
ĠT I
t ÄĽ
ÑĥÑİ Ñī
Ø§ Ø´Øª
Ġein en
Ġan che
ĠìĨ Į
Ġc Å©ng
Ġz Ã¡
Äĥ ri
ĠJes u
Ð½Ñĸ ÑģÑĤÑĮ
Ð¾ÑģÑĤ ÑĮ
Ġper s
Ġáģ į
à®µ à¯ģ
à´¤àµįà´¤ à´¿à´¯
áĥĶáĥ ®
ģà¸ ¥
à° ¥
å¼ ı
Ġà¦¸à¦® à§Ł
Ġàª¦ à«įàªµ
Ġà®¤ à®©
w s
áĢ ´
áĤı áĢ¯áĢŃáĢĦáĢ¹áĢ
áĢ¬ áĢ¡
ĠÎ£ Ïħ
Ġà®Ĩ à®ķ
Ġà´ķ à´¾à´°
ÑĤ Ñĥ
Ïĩ Î¿
à°ªà±įà°ª à±ģà°¡à±ģ
Ġáĥŀ áĥĺáĥłáĥ
æķ °
ä¿ Ŀ
à®¾à®¯ à¯į
ÏĦÎ¿ Î½
Ġà´ķ àµģà´±
à¦¿à¦ ·
Ð² Ñĸ
ĠáĥĲáĥĵ áĥĲáĥĽ
Ġ( '
ÏĦ ÏģÎ±
à±įà° ·
ĠÐ³ Ðĥ
ļà¸Ńà¸ ¥à¸
åĪ ¶
Õ¸ ÖĢ
Ġà§ ¦
Ġáĥł áĥĲ
Ĺà¸ ³à¸
Ġwe di
ĠÐ¿ Ð°Ð¼
àª¿ àª®
à°¿à°¤ à±ĩ
Ħà¸§à¸²à¸ ¡
Ġt ym
Ġ) ,
Ġà¦ķ à¦¥
ĠØ¯ ÛĮØ§
Ġà¤°à¤¹ à¤¾
* *
· à«įàªŁ
Ùħ Ø±
Ġà¤ĩ à¤¨
Ġ2 9
à¤¿ à¤Ĥ
Ñĩ Ð¸Ð»Ð°ÑĢ
à¤¾à¤ ģ
ìĥ Ŀ
asÄ±n Ä±n
Ġf um
Ġn Ã©
Ð»Ð°ÑĢÐ¸ Ð³Ð°
ĠÑĪ ÑĥÐ½
ĠÐº Ð¾Ð»
Õ¸ÖĤÕ©Õµ Õ¸ÖĤÕ¶
nos ti
ĠÐ¼ Ð¾Ð´
ng e
Ġìľ ł
vÃ¤ t
Ġmo Å¼
Ã Ħ
ĠÄĳá» ĭ
×¤ ×¨
ÑģÐº Ð¸
Ġon t
ĠkÃ« tÃ«
ĠÐ¸ Ñħ
ÙĤ ÛĮ
wa di
ÉĻ x
ê° ķ
Ä«g i
t r
ä½ ¿
Ã³ Ì£n
ent es
Ġy e
ĠØ¹ ÙĦÙĬ
os e
Ã ģ
Ġk Ã©p
h ar
íĨ ¡
Ġm an
ĠÐ±ÑĥÐ´ ÐµÑĤ
é ļ
A N
tu ar
nÃ© ho
cy j
ĠáĢ±áĢ »áĢķáĢ¬
à®¿à®¯ à¯ģà®®à¯į
à´± àµĨ
áĥľ áĥĶáĥľ
à¹Ģ à¸£à¸µà¸
Ġà°¤ à±Ģà°¸
åĪĨ å¿«3
à¦¤ à§įà¦¤
à«ģ àª¨
à® ŀà¯įà®ļ
Ġà´ļàµĨà´¯ àµįà´¤
áĢŃáĢ¯áĢ¸áĢ Ľ
áĤıáĢŃáĢ¯áĢĦáĢ¹áĢ ĦáĢ¶
ľ áĢ¬
ĠÎĵ Î¹Î±
Ġà®µà®¾à® ´
à´¨àµįà´ §
ÑģÑĤ ÑĥÐ¿
ĠÎķ Ïħ
Ġà°ī à°Ĥà°¡
ĠáĥĴáĥĲáĥĽ áĥĿáĥ
Ġ à¥
Ġ çļĦ
Ġà®¨ à®¾à®©à¯į
ÎĳÎ ¡
Ġà´ £
Ġà¦¬à¦¿à¦¶ à§įà¦¬
Ð½Ñĸ ÐºÐ°
áĥĿáĥĵ áĥĲ
Ġàª°à«Ģàª¤ à«ĩ
ĠÏĢ ÏģÏī
à°¿à° Ĺà°¾
ĠÑĩ Ð°Ð»Ð°Ð²
Ġà¹Ģà¸ §à¹ĩà¸
Ġà¤¤ à¥įà¤¯
lÉĻ ÅŁ
à§ĩà¦² à¦¾
áĥł áĥĶ
Ġà¹Ģà¸Ķà¸´à¸¡à¸ŀà¸±à¸Ļà¸ Łà¸£à¸µ
ĠÏĥ Îº
Ð¿ Ð°Ð´
Ġàªľ àª¾àª£
à°¾à° ¶
Ġ à¸£
Ùħ ÙĪ
ĠÎ± ÎºÏĮ
à§įà¦¯ à¦¾à¦²
de o
Ġà¤¸ à¥įà¤µ
Ġ2 8
Ġàª Ŀ
ch a
Ġà¤ķà¥ģà¤ Ľ
Îº Î¿Î»
Ġà¤µ à¥įà¤¯
ĠÑı Ð½
Ġà¤¯ à¤¾
ìĭ ¤
Ġjo alo
ha la
ĠR om
Ò³ ÑĥÑĢ
ÐµÐ· Ð¸Ð´
b il
Ġa d
Ñİ Ð²
Ð¼ Ð¸Ð½
ĠØ¨ Úĳ
ìĦ ł
Ð¾Ð² Ð¾ÑĢ
Ġb ÄĻ
Ġz um
Ġ×ĳ ×ŀ×
Ø³ ÙĬ
ĠØ¯ Ø³Øª
ts Ã©g
Ġl á»
z Ä«
ĠÐŀ Ð±
Ġala ye
çĻ º
ìĿ´ ëĭ¤
Ġkan Ã«
Ðº Ð¾Ð¹
st Ã¤
á»į wá»į
p ra
Ġi á¹£e
c ar
Ġts o
n Ãº
ĠÐ°Ð± Ð¾
ÙĨ Øª
Ġë ¹Ħ
Ġka p
ÐµÑģ ÑĮ
ĠØ³ ÙĪ
Ġm ÃŃ
szy st
Ġkan n
Ġt ut
áĢĲ áĢŃ
à¯ģà®ķà¯įà®ķ à¯ģà®®à¯į
Ġà´® à´¨
Ġáĥ¨áĥĶáĥĽ áĥĵáĥĶáĥĴ
ķ à¸£à¸
âĢĮ âĢĮ
å¤ §åıĳ
Ġà§ ª
Ġàª° à«Ĥ
Ġà®ķ à®Łà¯įà®Ł
à´¤ à´¿
áĢĦáĢº áĢ·
áĢŃáĢ³ áĤķ
áĢĬ áĢ·áĢº
ĠÏĢÎ¿Î» Î¹
à®¿à®² à¯ģà®®à¯į
àµģà´Ł àµįà´Ł
ĠÐ· Ð´
ĠÏĩ Ïī
à°¯ à°Ĥ
ĠáĥĽ áĥĺ
Ġå ¾
æ ģ
à¯ģà®³à¯įà®³ à®¤à¯ģ
ĠÎł Îµ
Ġà´¸ àµįà´¥
Ġà¦ı à¦®
Ð°Ð½ ÑĮ
áĥĺáĥ «
ĠàªĨàªµ à«ĩ
ĠÎ± Î³
Ġà°ªà±įà°° à°Ń
Ð°ÑĤ Ñį
à¹īà¸² à¸Ļ
èµ Ħ
c to
à¦§ à¦¾à¦¨
áĥĶáĥłáĥ Ĺ
ģà¸ ¡à¸
ĠÏĢ ÏģÎŃÏĢÎµÎ¹
ĠÐ±Ñĥ Ð´Ð·Ðµ
à«ģàªľ àª°àª¾àª¤
à±ĭ à°¤
Ī à¸£à¸´à¸
Ġd y
ĠÎºÎ¬ Î¸Îµ
Ġà¦ķ à¦¾à¦ľ
Ġin ter
Ġà¤¦ à¥ĩà¤ĸ
Ġ20 0
Ġàª¹ à«ĭ
p h
Ġà¤¸ à¥įà¤¥
ÏĮ ÏĦÎ·
à· Ģ
Ð± Ð°ÑĢ
à¤°à¥įà¤ µ
ë© °
ĠØ¨ ÙĦ
Ã© ben
áº «
ĠÐº Ð¸ÑĪ
ÑĥÒĽ ÑĥÒĽ
ĠB ak
Õ¸Õ ¾
di m
ĠÑħ Ð¸Ð·
d Äģ
íķ ©
ĠÐ± Ð¾Ð»
d ni
ho a
ĠtÅ¡ a
ãģª ãģı
×ŀ ×Ķ
Ġo p
ĠØ¨ Ø¹Ø¯
ÉĻrÉĻ f
ÑĤ Ð¾Ð±Ñĭ
f ani
ĠÐ² ÑĬ
ì¶ľìŀ¥ ë§ĪìĤ¬ì§Ģ
ĠA r
Ã¡l la
Ġ ãģ¾
Ġni kan
Ġh y
Ġk áº¹
Ġs vo
Ġmo ng
ľ Ðµ
Ġa b
ĠÙħ Ø´
Ġì ¢
t es
ĠPor no
z Äĥ
Ġá¹£i á¹£áº¹
åĨ ħ
Äį nÃŃ
to re
áĢ Ĺ
à¯įà® ¨
à´® à´¾à´£àµį
ĠáĥĴáĥĲáĥĽ áĥĿ
Ġ à¸£à¸
ĸ à±įà°¯
ĠãĢ ĭ
Ġà¦ķ à¦¾à¦
Ġàª¥ àª¾àª¯
à®¤à¯įà®¤ à®¿à®©à¯į
Ġà´ ¨àµįà´¨
Ļ áĤĪ
áĢĺ áĢ°áĢ¸
áĢĬáĢº áĢ¸
Î»Î¿ Î¹
Ġà®ħ à®´
à´¯ à´Ĥ
ĠÂ» ,
Î¼ Î¼Î±
à°Ĥà° §
ĠáĥĽ áĥ¡
å» º
2 8
Ġm Äģ
Î¹Î± ÏĤ
à´¨ àµĨ
Ġà¦¨ à¦¾à¦®
ÑĨÑĭ Ð¹
áĥłáĥ Ĵ
àª¤ à«įàª¤
ĠÎĺ Îµ
à±ĩà° ¤
Ð½Ð¾ Ñŀ
à¸Ļà¸ ´à¸
éĹ ´
Ġmin t
à¦¾à¦° à¦¾
áĥķ áĥĲáĥľ
à¹Īà¸ĩà¹Ģà¸ ĩà¸´à¸Ļà¸
ĠÏĥ ÏĩÎµ
ĠÐ»Ñİ Ð´Ð·
Ð¼ ÐµÑĢ
à°¿à°¯ à±ģ
Ġ à¸Ń
ĠvÃł o
ĠÎµÏĢ Î¹Ïĥ
à¦¾à¦² à§ĩ
ÑģÑĮÐº Ð¾ÑĹ
à¥įà¤ ¡
Ġ ÏĪ
à«Ģ àª®
Ġh la
à¥ģ à¤¤
Ġc yf
à¥ģ à¤ª
Ð» Ð¾Ð²
à¤¢ à¤¼
ê± °
cj e
×ķ× Ľ
³ Û
Ð¸ÑĢ Ð¸
Ð»Ð¸ Ð¹
Ġ Õ¡Õ
d ur
ĠÕ Ģ
ĠÑŀ ÒĽ
Ø§Ùħ Ùĩ
¯ ¼
Ġvo i
al l
e lo
à¯ģà®ķ à®¿à®±
àªķ à«įàª¤
ãĥ ¯
ĠÑĩ Ð°ÑģÑĤ
Ġse bel
Õ¸Õ ²
Ùĥ Ø±
ĠI s
Ġk on
´ë Ŀ¼
Ùħ Ûģ
Ġpr Ã©
ĠãĤ ³
Ġ201 6
Ø´ ÛĮ
Ġh un
bi le
Ġy o
ãĤ º
ĠC on
j s
Ġëı Ļ
ĠØ§ÙĦØ ·
Ġb iz
Ġs us
Ġ. âĢĿ
ãģ§ãģĻ ãģĮ
Ġno ch
Ø± ÛĮÚ©
áĢ¼ áĢĢáĢ¹áĢ
à¯Ĩ à®¯
à´ ĺ
ĠáĥĽ áĥĿáĥ¡
ļà¸²à¸Ĺ à¹Ħà¸Ĺà¸¢
à±įà° ¬
è¡ ¨
à§ģà¦° à§ģ
Ġàªķàª° àªµàª¾àª®àª¾àªĤ
Ġà®® à®ķà¯įà®ķ
àµĨà´¨àµįà´¨ àµģà´Ĥ
Ĩ áĢŃáĢ¯
áĢ±áģ¾áĢĢ áĢ¬áĢĦáĢ¹áĢ¸
áĢ¯áĢ¶ áĢ¸áĢ
ĠÎķ Î»Î»Î¬
ca tion
à´¦àµįà´ ¦
ĠÑĥ Ñģ
ĠÎ¿ Î¹ÎºÎ¿
à±ģà°ķ à±ģà°¨à±įà°¨
áĥĶáĥĹ áĥĺáĥ¡
è® ¯
ç³ »
owe j
Î¾ Îµ
à´¸ àµįà´±àµįà´±
à¦¿à¦ ļ
Ð°Ð²Ð°Ð½ Ð½Ñı
áĥ Ń
ĠÐº Ð¾
ĠÎµ Î¹
à±ģà°¤ à±ģà°¨à±įà°¨
ĠÑı Ðµ
±à¸ įà¸
Ġè¿ Ļ
Ġp ir
Ġà¦¤ à¦¾à¦¦à§ĩà¦°
áĥłáĥ £áĥ
Īà¸ °
Ġï¿½ï¿½ ï¿½
Ñĥ Ð»Ñı
Ġf il
à±ģà°ķ à±ģà°Ĥà°Ł
Ġà¸ª à¹Īà¸ĩà¹Ģà¸ĩà¸´à¸Ļà¸
ĠØ® ÙĪ
ia u
à¦Ļà§įà¦Ĺ à§ĩ
ĠD er
Ġà¤ķ à¥Ī
ĠÏĢ Î»Î·
ti co
Ġna ng
Ġà¤¹à¥ģà¤ ı
ĠÎ¾Îµ Î½Î¿Î´Î¿
Ġà¤ļ à¤¾à¤¹
ĠÐĲ Ð»
è į
ìĭ Ŀ
Ãª me
Ġka ti
Ġà®¤ à®¾à®©à¯į
ĠÐ¾ Ð¼
ĠÐºÐ°ÑĢ Ð´Ð°
Ġya x
×ľ ×Ĳ
Õ¥Õ ¿
ĠÐ¼Ð°ÑĬ Ð»ÑĥÐ¼
lu m
Ġìĭ ł
Ø¬ Ûģ
Ġàªķàª° à«ĩ
Ġlo ke
à®Ł à¯ģ
n Ã¡l
Ð» ÐµÐ½Ð¸Ðµ
gg i
Ġp om
ãĤĤ ãģ®
Ġsh p
Ġa gbegbe
Ġng o
ê° ľ
ĠÃ¶l k
Ðł Ñĳ
Ð½Ñĸ Ð¹
Ġni tori
Ø® Ø±
Ġáº¹ ya
al la
Ġha holo
ÐµÐ½ Ð½Ð¾
le ment
ĠÑ ĺ
Ġìĺ ģ
Ġc as
ĠØ¯Ø§ÙĨ ÙĦÙĪØ¯
¹ Û
ay a
Ú© Øª
n es
Ġba t
ĠáĢ Ĥ
Ġà®ª à¯ĩ
à´¤àµįà´¤ à´¿àµ½
áĥĿáĥ ŀ
Ķà¸ ¢
à±įà° £
è® ¾
à¦¾à¦ £
ĠA us
à®¿à® ³
àµĭ à´Łàµįà´Ł
áĢ¬áĢ¸áĢ ħ
ģ áĢ¼
áĢ±áĢ ħ
Ïĥ Ïĩ
ĠãĤ «
à´¾à´ ·
ÑĪÑĩ Ñį
Ïĩ Î±Î½
Ġà°Ń à°¾à°°
Ġáĥĵ áĥĺáĥĵ
é ĥ½
ç ©
Ġb ar
Ïģ Îº
Ġà´¨ àµĩ
Ġà¦¬à¦¿à¦ Ń
Ð» ÐµÐ´
áĥĺáĥ¨ áĥľ
×ł ×Ķ
Î¸ Î½
Ġà°ķ à°¾à°¨
ĠÐ¿ Ð°ÑĤ
¥à¸ĩà¸Ĺà¸ °à¹Ģà¸ļ
åħ¬ åı¸
m ÄĽ
Ġà¦¸ à¦¹
áĥĺáĥ ¦
±à¸ ģ
Ġma e
Ð¶ Ð¾
Ġàªı àªŁàª²
à±ģà°ķà±ĭ à°µ
Ĭ à¹Īà¸§à¸
Ġma g
Ġb r
à¦¤ à§įà¦¯
Ġh Ãłng
¼ åĲĪ
Î¼ÎŃ Î½Î·
ĠÙĪ Ø²
uri le
é¦ Ļ
Ġ2 1
ç² ¾
ĠÑŀÑĤ ÐºÐ°Ð·
à¤¿à¤ ĸ
ëį °
Å¡an u
Ðµ Ñī
à®¿à®¯ à¯Ī
Ð¾Ð» Ð¸
ÑĢ Ð¸Ñģ
ier en
Ã¤ s
Ġz e
Ñģ Ð¾Ð½
ĠØªÚ¾ ÛĴ
Ġì¹´ íĨ¡
Ġàªķ àª¾àª®
l Ã¡
Ø¯ ÛĮØ¯
à®° à¯Ī
ir Ã«
Ø§Ø± Ø©
à«ģ àª®
Ð°ÑĨ Ñĸ
jÄħ cy
ĠmyÃ¶ s
ĠK áº¹
ĠC ha
Ġë§ Į
ĠÐŀ ÑĤ
Ġnh iá»ģu
Ð» ÐµÐºÑĤ
m ba
ĠV i
f un
Ġàª¶àªķ à«ĩ
er o
ĠÐ´ Ð²
on d
ĠØ§ÙĨ Ûģ
Ġë ħ
Ġ×Ļ ×©
ĠÛ ²
ĠØ´ Ø±
al áº¹
ĠP re
ĠãģĿ ãģ®
te ik
±áĢĲáĢ¬ áĢ¹áĢ
à¯ĭ à®®à¯į
Ġà´ ·
áĥłáĥ ĵ
Ġà¸ ŀà¸
à±įà°¯ à°Ĥ
å®ĺæĸ¹ ç½ĳç«Ļ
à¦¸ à¦²
r ÉĻ
à¯ģà®ķ à®¿à®±à®¤à¯ģ
àµĬ à´°
áĢ¯ áĢĽ
ĠáĢ»áĢĻ áĢĶáĢ¹áĢĻ
áĢ±áĢ ķáĢ«
Î §
Ġpor no
à´ ŀàµįà´ļ
ĠÐ· ÑĮ
Î»Î¿ Ïį
à°¾à°Ĥà° ¤
áĥĺáĥĿ áĥľ
æ° ´
æı Ĳ
Ã± os
ÏĦÎ® ÏĤ
à´¿à´¤ àµįà´°
à§Ģ à¦¨
Ð¾Ð´Ð· Ðµ
áĥ£áĥ ®
ĠÃ¶ ssz
ÏģÎ± Îº
Ġà°Ĺ à±įà°°
ÑĭÐ¼ Ñĸ
ªà¸²à¸ ¡à¸²à¸£à¸
å¼Ģ å¥ĸ
Ġd on
à¦° à§ĩà¦°
áĥĿáĥķ áĥľ
Ħà¸£à¸ ·à¹Īà¸Ńà¸ĩà¸
ĠÎ¼ÏĮ Î½Î¿
Ð½Ñĭ Ð¼Ñĸ
Ġm Ã´
Ġà°®à°° à°¿à°¯à±ģ
«à¸ ¥
Ġp al
ĠÎ¼ Î·
à¦¾à¦° à§ĩà¦°
tso e
é«ĺ æ¸ħ
ÏĥÎ¹ Î¼Î¿
Ġse be
ÑģÑĮÐº Ð¾Ð³Ð¾
à¤ķ à¤¿à¤¨
Î¿Ïį Î¼Îµ
Ġà¤¤ à¤°
ĠÑģ Ð¾Ò³
ç ĥ
Ġë ¯¸
ri m
ĠÐ¾ÑĢ Ð³Ð°Ð½
Ġn as
ĠÐ¼Ñĥ Ð¼
Ð³ Ð¾Ò³
Ø° Ùĩ
ĠÙĨ ÙĪ
Ġz i
ĠÐ½Ð° ÑĦ
h atÃ³
Ġê¹ Ģ
Ġein er
tu re
Ġson ra
Ġàª° àª¾àªĸ
Ġp ow
ĠSh qip
Ġd re
Ġ×Ľ ×ľ
Ġà® Ĭ
ĠÙħ Øª
Ġa a
it y
ì ħ
Ñĥ ÐµÑĤ
ĠÄ «
Ð½ ÑĮ
as i
ch er
Ġá¹£ ugbá»įn
£Â ¬
ĠQ u
y en
Ġà® ¹
p Äĥ
ê¹ Į
Ð¾ÑĤ Ð¾Ð²
ãĤĮ ãģ¦
àª¿àª ¶
ĠK o
ĠÑģÐ² Ð¾
Ġv Ã©g
r ar
áĢ¬ áĢĦáĢ¹áĢ·
Ġb ez
à´¿à´± àµįà´±
áĥĲ áĥĲ
¢ à¸Ļà¸
à°¿à°Ĥà°Ĺ à±į
é Ķ
à§ģà¦ ĩ
Ġl áº¡i
ĠP our
Ġà´ªà´± à´¯
áĢ±áĢŀ áĢ¬
áģ ĭ
ģ áĢ¶
ÏĨ Îµ
ey d
à´¿à´ķ à´³àµįâĢį
ÐºÑĸ Ñı
Î» Ïī
à°¾à°° à°¿
áĥĿáĥ ¨áĥĺ
ç¨ ĭ
åĪ ©
sh me
Î¼ Î¿Ïħ
Ġà´ªàµįà´° à´µ
à¦°à§įà¦ ¥
ÑĥÐ± Ð»Ñĸ
ĠáĥłáĥĿáĥĴ áĥĿáĥłáĥª
Ġk Ã¼l
Îµ Îº
à°¸ à°Ĥ
Ñı Ð³
Ġà¸ ļ
Ĭ é¾Ļ
Ġa tt
à¦ª à§ģà¦°
áĥĶáĥĹ áĥĺ
à¸² à¹Ģà¸
Ġ ~
ĠÑĪ Ðº
ĠØ¬ Ø§ÙĨ
à°Ĥà°¤ à±įà°°
Ĺà¸²à¸ ĩà¸
Ġis ÉĻ
5 0
à§įà¦ Ľ
it at
à¤¿à¤ ª
ĠÎ² Î±
Ġz na
Ġk es
Ġà¤ľ à¤¾
wy r
Ġà¤ľ à¤¬
ÑĪ Ð°Ð²
Ġà¤ª à¥Ģ
Ġìļ °
a ciÃ³n
à«įàª¯ àª¾àªĤ
Ġ×Ķ ×¨
__ __
Ġ Ð°Ò³
Ð°Ð¹ Ð½
à®¤ à®¾à®ķ
h w
ĠÐ´ Ð¸
Ġac c
Ġâ ĩ
ĠØ§ÙĦÙĦ Ùĩ
Ø´ Ø±
ĠÄ Į
ĠÕ ¤
Õ¡Õ ®
Ġc re
Ð¸ÑĤ ÐµÐ»
Ġàª® àª¾àª°
Ġtr Ãªn
ka a
Ġo lo
Ġm ÄĽ
íĸ Īëĭ¤
Ð¾Ð²Ð°Ð½ Ð¸Ñı
Ġti l
ãĥ Ŀ
va h
er t
a êŀĮ
E S
Ġtr Ã¨s
Ð¾ÑģÑĤ Ñĸ
Ä¼ a
ho d
ĠìŀĪ ëĬĶ
ĠÚ©Ø± ØªÛĴ
Ġz ÅĤ
Ùĥ ÙĦ
Ġláº¹ hin
cz ne
ĠÃİ n
ĠÐ³ Ð¾Ð´Ð°
áĢŀ áĢŃ
Ġàªµàª§ à«ģ
àµĤ à´Łàµįà´Ł
áĥĺáĥĹ áĥ®
Ġà¸ Ĺà¸µà¹Īà¸
à°°à±įà° ¶
ä½ į
Ġà¦ķ à¦¿à¦Ľ
ÙĨØ¯ Ùĩ
ĠtÃ¶ bb
à´¾à´± àµįà´±
áĢ½ áĢ²
ĠáĢ¡ áĢ²
Ķ áĢ²áĤĶ
Î³ ÏģÎ¬
ari x
à´µ à´°
Ð°ÑĤ ÑĥÑĢ
Î¼Î¬ ÏĦÏīÎ½
à°® à±ĩ
ĠáĥĵáĥĲáĥ ĺ
æĬ ¥
åĲ Ĺ
ĠKos ov
ĠÎ» ÏĮ
àµĩà´ ¹
à§ĭ à¦ķ
Ð»Ð°Ñģ Ñı
áĥĶáĥļ áĥ¡
Ġb Ã«
Î ĺ
Ġà°¨ à±ĩ
ĠÐĲ Ð»Ðµ
à¸£à¸²à¸ °à¸
á Ī
Ġo t
Ġà¦®à¦§à§įà¦¯ à§ĩ
ĠáĥĹáĥ¥ áĥķáĥĶáĥľ
à¹Īà¸² à¸Ļà¸
Ġ *
ĠÐ± ÐµÐ»Ð°ÑĢÑĥÑģ
Ġr Ã©s
à°°à°¿à° Ĺ
Ġà¸ ¥
ĠÕ º
ÏĥÎºÎµ Ïħ
à§Ģ à¦¬
à®² à®¾à®®à¯į
Ġà¤ħà¤§ à¤¿à¤ķ
ĠÏħ ÏĢÎ¬ÏģÏĩ
is chen
Ġ×Ķ× ŀ
Ġà¤²à¥ĩ à¤ķà¤¿à¤¨
1 8
Ġ à¬
ĠÐ¾ ÑĪÐ¸ÑĢ
à¥ĭ à¤²
ìĹ °
Ġu Å¾
Ð² Ð»Ñı
ma an
ĠÒ³ ÑĥÒĽÑĥÒĽ
ĠÑĪ ÑĥÐ´
ÐłÑķ Ðł
Ð¾Ð» Ð¾Ð²
Ú© ÙĨ
Ð°Ð» Ð°Ð±
j ek
ë¶ Ħ
ãģ ¹
tsa tsi
Ġs es
Õ ¤
Ġy ar
Ñĥ ÑĤÑĮ
Ġm Ã©s
Ġl ub
áº· t
ĠÐ³ Ð¾
ow n
Ġàª¦àª¿àªµ àª¸
ìĿ Į
à®¾à® ľ
Ã¡l is
Å¥ a
g an
Ġà®ķà¯Ĥ à®±
á¹£ á»į
Ø¨ ÙĦ
Ġàª¸à«ģàª §à«Ģ
å¾ Į
us e
Ð± ÑĢ
êµ Ĳ
ag we
Ġmo o
m bi
Ġn la
ĠÐ¿ÑĢÐ¾ Ð¸Ð·
Ã©n t
Ã«s e
áĢĲ áĢ±áĢ¬áĢº
ti in
àµĢ à´°
áĥķ áĥł
§à¸ ±à¸Ļà¸
à±ģà° ¸
åı £
à¦ª à§įà¦°
ĠØ¯ ÙĨ
ĠÃ© tÃ©
à´¾à´ ´
ĠáĢ¡ áĢĽ
ĠáĢ ·
Ġáģ ¿
ÎŁÎ Ľ
Õ¸ ÖĢÕ
à´¦àµįà´ §
ĠÐ°ÑĤ ÑĢÑĭÐ¼
ÏĨ ÎŃ
Ġà°ī à°Ĥà°Ł
ĠáĥĹáĥĲáĥķ áĥĺáĥ¡
è Ĭ
à¤ ³
Ġà®ª à®£
ĠÎ½ Î¿
à´¨àµįà´¨ àµģ
Ġà¦¬ à¦Ľ
ĠÐ³ Ð°Ð´
áĥĲáĥłáĥ ¡
Ġn Ã¡
Î´ Î¹Î¬
Ġà°® à°¹
Ð°Ð² Ð°
Ġà¸ ¥à¸ĩà¸Ĺà¸°à¹Ģà¸ļ
é ©
ÅĨ u
Ġà¦Ĩà¦® à¦¿
áĥķ áĥĶ
ªà¸ ³à¸«
ĠC ym
Ð°Ð» Ð°ÑģÑı
Ġth i
Ġà°µà°¿à° ·
à¸Ńà¸ µà¸
Ġg ÉĻl
6 4
à¦¿à§Ł à¦¾
Ð¾Ñģ ÑĮ
à¤°à¥įà¤ ¤
ĠÏĢ ÏīÏĤ
Ġ×ŀ× Ĳ
ia mo
Ġà¤¥ à¥ĩ
ÏĦ Î¹Î±
Ġà¤¯ à¥ĩ
ĠÑĤ ÑĥÑĪ
æĶ ¾
ĠìĦ ł
Ġàªķàª° àªµàª¾
Ġde ngan
ur u
ĠÑĤ Ð°Ð´
ĠÑĥ Ð½
à¯ģà® ©
ĠÙĩ Ø°Ø§
z za
Ð¸ÑĪ Ð³Ð°
c ciÃ³n
Ġê ´Ģ
ĠÚ©ÙĪ Ø¦ÛĮ
Ġf o
Ð¸Ð½ Ñĭ
di b
ÉĻn in
Ð½ Ð¾Ð¼Ñĥ
Ġp l
Ġw iÄĻ
Ã¼ ck
ãĥ ¢
Ġpu pá»į
á»ĳ ng
í ĽĦ
à®¾à®® à®²à¯į
ÙĨ ÙĬ
ĠØ ¶
Ġet á»įn
ĠàªĹ à«ģàªľàª°àª¾àª¤
Ġ? ??
Ġàª¦à«įàªµ àª¾àª°àª¾
o tt
Ġãģ Ĥ
Ġà®® à®°
Ġvo or
ë² ķ
å¯ ¾
ĠÐ´ ÐµÑĤ
ĠÑī Ðµ
Ġa jo
ĠÃ®ntÃ¢l ni
Ã± a
Ã¤ t
áĢ± áĢ¸
ĠAn unÈĽuri
Ġà´¤ àµįà´¤
Ġáĥĵ áĥĲáĥķ
Ġà¹Ĥà¸Ľà¸£ à¹Ĥà¸¡à¸
Ġà°ª à°°
ç Ŀ
à¦Ĺ à§įà¦°
ar te
Ġk go
àµģà´ ªàµįà´ª
áĢ³ áĢŃ
áĢĶ áĢŃáĢ¯áĢĦáĢº
ĠáĢĻ áĢ¼
ÎŁÎ Ŀ
Ġda ha
àµĢ à´ķà´°
ĠÐ³ ÑĢÐ°Ð¼
ÏĢÎ¿ Î¯
à°ķà±įà°ķ à°¡
áĥĺáĥ¡ áĥĲ
à© Ģ
ĠåĮĹäº¬ èµĽè½¦
Ð°ÑĤÑĮ ÑģÑı
ÎĹ Îľ
Ġà´ķ à´¾à´£
à§ĩà¦¨ à§įà¦Ł
ĠÐ· Ð°Ñħ
áĥĺáĥ ĳ
vi en
Î½ Î¹Î±
à°³ à±įà°³
Ð°ÑĢ Ð¼
ģà¸ ´à¸
Ġæŀ ģéĢŁ
à¯ĭ à®¤
Ġà¦¹ à¦²
áĥķáĥĶáĥ §
Ġà¹ģà¸ ¥à¸°
ĠÏĢ Î¬
ĠÐ´Ð· ÑıÑĢÐ¶
Ã¡ va
Ġà°ķ à°¨
Ġà¸ ¡à¸
Ġi g
u d
Ġà¦¹ à¦¯à¦¼
ĠkÃ¶ n
à¥Į à¤°
3 4
ti ca
Ú© Ø±
à¤¾à¤ ¶
Î¾ Î¹
Ġà¤¨ à¤¿
ĠÐ¼ÑĥÐ¼ ÐºÐ¸Ð½
Ġà¤° à¤¹à¥Ģ
ìŀ ¬
Ġàª¬ àª¹
Ġ×Ķ× ĳ
Ġch a
Ð½ Ð°ÑĤ
ĠÐ±Ñŀ Ð»Ð¸Ð±
Ġw p
Ã¨ me
Ġj et
Ð°Ð² Ð¾Ð½
sz Ã¡g
íĺ ¸
Ðº ÑĢ
g ra
Ġà®ª à®¾à®¤
ĠÕ £
al q
áº »
os a
ĠÐ¼ ÐµÑģÑĤ
ĠØ§ÛĮ Ø³
ãĤĬ ãģ¾ãģĻ
Ġi dan
ĠØª ØŃ
Ġê° ľ
àª°à«įàª µ
il ÉĻ
hi leng
ĠO á¹£u
Ġt ie
Ġwá»įn yi
Ñĥ ÑĶ
Ġà®İà®¤ à®¿à®°
ãĥ Ļ
er a
ĠÚ¯ Ø±
Ġí ĥ
Ġä» Ĭ
áº¥ p
Ġàª¬ àª§
or an
Ġa ni
g t
sz a
áĢĶ áĢ¬
ÐµÐ½ Ñı
Ġà´ªàµĭ à´²
ĠáĥĽ áĥĶáĥ¢
à¹Ĥà¸£à¸ ĩ
Ġà° ·
Ġà¤ħ à¤¸
à§įà¦¤ à§ģ
Å£ ii
c are
àµģà´® à´¾à´¯à´¿
áĢĶáĢ¹ áĤĶ
» áĢĸáĢħáĢ¹áĢ
áĢĲ áĢŃáĢ¯áĢ·
ĠÏĥÏħ Î¼
ĠÐ¡ Ð
à´µ à´¿à´
Ð°Ñģ ÑĮ
Îº Î·
à±Ģ à°¨
ĠáĥĽáĥĺáĥ¡ áĥĺ
äº ¤
é ª
Ġ×¢ ×Ŀ
ĠÎ´Î· Î¼Î¿
à´¾à´Ł àµįà´Ł
Ġà¦¹à§Ł à§ĩ
ĠÐ· Ð°Ð±
áĥĲáĥ¨ áĥķ
Ġt ou
ĠÏĦ ÏĮ
à±įà°° à°®
ĠÐ´ Ð°Ð¿
ķ à¸´
Ġé ĩ
Ùģ ÙĬ
à¦¸ à§įà¦¯
Ġáĥł áĥĲáĥª
«à¸ ¡à¸²à¸
3 0
ĠÐ´Ð· Ñı
v ÃŃ
à°ª à±Ī
ķ à¹Į
àª¨à«įàª ¸
.. .
Ġà¦¬à¦¿à¦ ·
lo a
Ġà¤Ńà¤¾à¤° à¤¤
2 4
ĠJeho fa
Ġà®ī à®°
Ġà¤¦ à¥Ģ
ĠÎ¼ Î¿
à¤¦ à¥Ģ
ÑĥÐ² ÑĩÐ¸
çĲ ĥ
íĨ ł
owan ie
ĠÃ ĩ
ĠM it
ĠÐº ÐµÑĤ
ĠÑį Ð´Ð¸
Ġm Ãªme
an no
ĠÑ ľÐµ
ĠÑĥ Ð¼
il lÃ¤
ì Ī
owa Äĩ
ĠO n
v ie
di k
Ø¹ ÙĦ
Ġâ Ħĸ
Ġj wa
Ã«s i
ĠÐł Âµ
Ġàª¸ à«įàªŁ
Ġan fani
åº Ĺ
Ġê° ķ
ak s
Ġein em
Ġà®ķ à®¾à®°
Ġá»į dun
Ð½ Ð¸ÑĤÐµ
Ġni lo
ĠÐł Ñĳ
ĠÄĳ áº§u
ĠãĤ µ
Ñĥ ÑīÐµ
ĠÚ© Ø´
Ġìĺ Ī
ia s
v ar
ĠÚ© Ú¾
Ġi pin
ĠCa ut
Ġãģĵ ãģ®
Ġs ou
áĢĲ áĢ®
× £
àµĭ à´¦
Ġáĥ¨ áĥĶáĥľ
Ġà¸ ľà¸
Ġà°Ĩà°¯ à°¨
å° Ĩ
à§ĭ à¦®
ĠOn line
Ġn um
à´¨àµįà´¤ àµįà´¯
áĢ» áĢĻ
áĢĳ áĢ¬áĢ¸áĢ
ĠáĢ±áĢ Ļ
ĠÎ´ Î¹Îº
ÑĨÑĸ Ð¹
àµįà´ §
Ñı ÑĨÑĮ
Î¯ Ïĥ
à±įà°Ł à±įà°°
áĥĶáĥĳ áĥĶáĥļáĥĺ
äº ī
åħ ĥ
ĠÐ¿ Ð¾Ð·
Î¼ ÏīÏĤ
à´¿à´ Ĥ
Ġà¦¦ à¦¿à¦¨
Ð¶ Ñĭ
áĥ§ áĥķ
ĠÃº j
Î½Î± Î½
à±ģà°¨ à°¿
ĠÐ· Ð²
ģ à¸£à¸°à¸
Ġå Ĭ
Ġàª¸ à«įàª¥
à§ĭ à¦Ł
áĥĲáĥ Ķ
Ġà¸¥à¸ĩà¸Ĺà¸°à¹Ģà¸ļ à¸µà¸¢à¸Ļà¸
ÎµÎ¯ ÏĦÎµ
Ġ Ð°Ð³
ĠØ§ÙĦÙħ ÙĪ
à±ĭ à°Ł
ī à¸
Ġà®¤à¯Ĭà®Ł à®°
ÏĥÏĦ Î¹Î±
à¦¾à¦® à§Ģ
s p
Ġà¤ħ à¤¬
ÏĦÎ® ÏĥÎµÎ¹ÏĤ
Ã¡ ci
Å¡an Äģs
à¤® à¥ĩà¤Ĥ
ĠÎĶ ÎµÎ½
Ġà¤® à¥ĭ
Ð¸Ñı Ð¸
Ġà¤¬ à¥Ī
ëª ¨
ta an
Ġu ti
Ã¡n ak
Ð´ Ð°Ð¹
ÐĲ Ðł
ar olo
Ġprze d
ĠØ³ Ø¨
ĠÐ¸ Ð¶
Ġkati ka
´ ĳ
Ġs ay
Ġf ie
ĠÐ´ Ð¾Ð¼
an n
Ãł o
et an
ĠÐ¹ Ð¾Ð³Ð¾
Ġper o
Ġt as
Ð¼ Ð¾Ð¶
Ġa pa
Ġà®µ à®¿à®°
ìļ ´
Ġn ÄĽ
v y
Ø¬ Ùĩ
ĠP a
owan ia
Ġá¹£i á¹£e
E R
ub li
Ġm et
ÐµÐ» Ð¾Ð²
Ġàª® à«ĭàªŁ
ĠìĹ °
Ã©l y
ĠØ§ Ø¯
ãĥ© ãĤ¤
kun rin
itate a
larÄ±n Ä±n
or d
áĢĢ áĢ¯áĢŃ
×ĳ ×ľ
à´¾à´ ¶
Ġáĥ¡áĥĲáĥ® áĥĶáĥļ
Ġà¸¥à¸ĩà¸Ĺà¸°à¹Ģà¸ļà¸µà¸¢à¸Ļà¸ Łà¸£à¸µ
à±Ĥà° ª
æ¬ ¡
Ġà¦¶ à¦¿à¦ķà§įà¦·
ÙĪ Ø§
ĠÑı Ð·
Ġà´ª àµĬ
ĠáĢ±áĢ ľ
ĠáĢ± áĢĢáĢº
áĢķáĢ¼ áĢ®áĢ¸
Ġ á½
Ġà®¨ à¯ĩà®°
Ġà´Ĩ à´°
Ð½ Ñİ
ĠÎ± Ïģ
Ġà°¨à±ģà°Ĥà° ļà°¿
áĥĺáĥ «áĥļ
ç® ¡
æ ¡
Ġty re
ÏĨÎ¿ ÏģÎ¬
à´¾à´ ¨àµįà´
Ġà¦ķà¦° à§įà¦®
ÐµÑĢ Ñĭ
áĥ£áĥ ĵ
es nÄ«
ÏĢÎ¿Ïħ ÏģÎ³
g u
Ð± Ñĭ
à¸£à¸²à¸Ħ à¸²à¸
âĢ ľ
Ø® Øª
Ġà¦Ĩà¦® à¦¾à¦°
áĥĶáĥ¡ áĥĺ
Ġà¸ªà¹Īà¸ĩà¹Ģà¸ĩà¸´à¸Ļà¸ ļà¸²à¸Ĺà¹Ħà¸Ĺà¸¢
ĠÏĩ ÏģÎ·
ĠÐ ģ
lo ng
à±ĩà° ª
à¸´à¸ Ķà¸
áº¿ u
ĠÎ ŀ
à¦°à§įà¦ ®
Ġh u
à¤¾à¤ ·
ĠÎĿ Î¿
ĠE gy
Ġqar ÅŁÄ±
Ġà¤¦ à¤¿à¤¨
ĠA D
åį ļ
ĠÐ´ Ð¾ÑĢ
à¤Ĥ à¤Ł
í İ
àª° à«ĩ
Ġ×ľ ×ŀ×
la is
ĠÐĺ Ð½
ĠÐ¼ ÐµÐ½
ra u
ãģĹ ãģ¾ãģĻ
j em
ĠÐ¶ Ð¾Ð¹
Ġti en
ëł ¥
ti a
v en
Ġàª¹ à«ģàªĤ
Ġà®ĩ à®¯
p an
àª¾àª¤ à«įàª°
ar z
Ø¬ Ú¾
el ÉĻ
ãģĹ ãĤĩ
w an
ĠÑĥ Ð´
ì¹´ ì§Ģëħ¸
Ġr re
Ġl ui
ĠÙĦ Ùħ
Ġt in
Ġg li
Ġ201 7
à®¾à®² à¯ģà®®à¯į
Ġaz t
ÑĢ Ð¾Ð±
Ġz ur
ÛĮÚ© ÙĨ
ķ Į
ier s
ĠÐ¿ Ð¾ÑģÑĤ
g ar
Ġde er
Ġàª® à«ĭàª
Ø§Ø± Ø¯
ov an
ĠáĢľ áĢĢáĢ¹áĢ
Ġfe ela
à´¸ àµįà´¸
áĥĲáĥ® áĥļ
Ħà¸¸à¸ ĵ
Ġà°ħ à°Ĥà°¤
åı Ĭ
Ġà¦ķà¦¿à¦¨ à§įà¦¤à§ģ
so ane
ÉĻs t
Ġà´ī à´ª
ĠáģĤ áģĢ
áĢĻ áĢ¬
áĢģ áĢ«
ĠÏĢÎµÏģÎ¹ Î¿
Ġk ez
Ġà´¤ àµĨ
Ñĸ Ð½Ñĭ
Îº Î»Î·
Ġà°¸ à±įà°µ
áĥĺáĥ£áĥł áĥĺ
çĽ ´
åı ·
in es
ÏĦÏĮ ÏĤ
à´¿à´¯ àµģà´Ĥ
Ġà¦¸à¦° à¦ķà¦¾à¦°
ÑĥÑĢ Ñģ
áĥĲáĥł áĥĶ
Ġ×ĸ ×Ķ
ÎĻÎ Ŀ
Ġà°ħ à°²
ÑĤ Ð°Ð¼
Ĺà¸µ à¸
Ġä¸ į
Ð½ Ð°ÑĤÐ°
à¦¾à¦¨ à§ĩà¦°
ĠáĥĽ áĥĿáĥľ
Ĺà¸ ¸à¸
Î½ Îµ
ĠÐł Ñį
Ð¸Ð» Ð°
à°¾à°² à°¨à±ģ
ŀà¸Ļà¸ ±à¸Ļà¸
ÄĻ p
6 0
Ġà¦ķ à§įà¦·
ĠP e
Ġà¤ķà¤° à¤¤à¥ĩ
Î¬ Î¶
Ġn Ã³
ĠP Ã«r
ç» ¼åĲĪ
Ïĩ ÎµÎ¯
à¤¾à¤ §
ĠÑĪ Ð°ÑĢ
Ġà¤µà¤¿à¤ ¶
ì ¡
à«Ģàª Ł
ĠÙĥ ÙĦ
ek et
ĠÐ¸ Ðº
ĠÑģÐ¾Ð» Ð¸
Ġs pÄĵ
i x
Ġà®ļ à®¿à®²
ĠÒĽ Ð°Ð±
ĠÙĪØ² ÛĮØ±
ì² ´
g ÉĻr
ĠØ¬ Ø§Øª
à«įàª ¡
g er
Ġal l
ĠÃ®ntÃ¢lni re
ĠÐ¿ÑĢ Ð¾ÑģÑĤ
Ġktor Ã©
p ha
Ø¨ ÛĮ
Ġla arin
ãģ¾ ãģ§
ĳ Ĳ
Ġàªľ à«Ģàªµ
Ġde c
ÑĨÐ¸ Ð°Ð»ÑĮ
te d
Ġdu het
u ba
Ð» ÐµÐ½Ð½Ñı
ĠÙĥ Ø§ÙĨ
×ª ×Ļ
ĠN ie
h al
ĳ ľ
Ġaus si
ÐµÐ½Ð¸ Ñİ
j Äģs
Ġhun ter
àª¨ à«įàªŁ
Ò ĳ
to t
ĠáĢģ áĢº
Ġb lo
à´±àµįà´± àµį
áĥĲáĥł áĥĺáĥ¡
à¹Ģà¸ ķ
Ġà°ī à°Ĥà°¦à°¿
ĳ åħĭ
à§ĩà¦ ¡
ãģĵãģ¨ ãģĮ
ĠÐµ Ðº
Ġà´ªà´° à´¿à´
áĢ¯ áĢĶáĢº
Ġáģ ¾áĢĢ
áĢ¼ áĢ¸áĢ
Î´ Î¹Îº
ĠBak Ä±
Ġà´¸ àµĨ
ĠÐº ÑĸÑĢ
Î½Î± ÏĤ
à°¾à°² à°¨à°¿
ĠáĥĶáĥłáĥĹ áĥĺ
æ¬ ¢
æīĭæľº å®¢æĪ·ç«¯
f ÉĻ
Î¼ÏĨ ÏīÎ½
Ġà´¤à´¨àµįà´¨ àµĨ
Ġà¦¨à¦¿à¦ ľ
ÑĤÑĭ Ñŀ
Ġáĥŀ áĥĺáĥł
ĠÙħ Ø³
ĠÎ£ Îµ
à±ģà°¤ à±įà°µ
ĠÑĤ ÑĢÑį
¡à¸²à¸ ģà¸
é »
i den
à¦¿à¦ ī
áĥĺáĥľ áĥĺáĥ¡áĥ¢
łà¸²à¸ ŀà¸
Î´ Ïħ
ÑĢÑį Ð´
d nÃŃ
Ġà°µ à°°
à¸²à¸ ģ
cz a
ÏĢ ÎŃ
Ġà¦ ¢
Ð½ ÐµÐ¹
Ġà¤¬ à¤¾à¤¤
ĠHo tel
O N
Ġel le
Ġà¤ľ à¤¾à¤¨
Ġï¿½ï¿½ï¿½ï¿½ï¿½ï¿½ ï¿½
Ġà¤ķ à¥įà¤¯à¤¾
Ð°Ð» Ð°Ð½
à¥Ĥ à¤²
Ġë Ķ
Ġen a
ci os
Ġà®ª à®¿à®±
ĠÐ¿ ÐµÑĪ
Ð°Ð´Ð¸ Ð³Ð°Ð½
Ġis hte
áº£ o
Ġm ÉĻs
Ð¼ Ð°Ð³Ð°Ð½
Ġàª¤à«įàª¯ àª¾àª°à«ĩ
Ġìķ Ĭ
Ġ×ŀ× ª
Ã¢ t
Ġd itu
Ġk or
Ġr en
Ðł Ðħ
ĠÑĤ ÐµÐ¼
g l
Ġs eg
ĠÎĶ E
ĠN e
Ġà®ĩà®¨à¯įà®¤ à®¿à®¯
Ġ íķ´
àª¾àª ı
å£ ²
ĠÐ¼ Ð°ÑĤ
I N
à®¾à® Ļà¯įà®ķ
g áº¹
ĠÐ² Ð¸ÑĢ
è Ń
ĠÐº Ð°ÑĤÐ¾
Ġn na
Ġn ur
¦ ¬
Ġpe ut
Ð¸ÑĤÑĮ ÑģÑı
Ø¹ Ùĩ
ke yi
à«Ģàª §
ÑģÑĮ ÐºÐ¸Ð¹
ov Ã¡
áĢŃáĢ¯ áĢĦáĢºáĢ¸áĢ
im in
Ġà´ ³
áĥĲáĥ §
à¸Ļ à¹īà¸
Ġà°ħ à°Ń
è ¢
Ġà¦®à¦¾à¦¨ à§ģà¦·
à¯ģà®³ à¯į
Ġg agwe
à´²àµįâĢį à´ķ
áĢļáĢ¹áĢ ·
áĢ¼ áĢĶáĢ¹áĢ
áĢ½ áĢº
ĠÎļ Î¿
da ÅŁ
à´¿à´ķàµįà´ķ àµģà´Ĥ
ÑĢÑĭ Ñı
ÏģÎ± ÏĤ
Ġà°° à±ĭà°ľ
áĥĲáĥ¥ áĥ¢
ãĢ ģ
æĪ ĺ
Ġt ÉĻrÉĻf
Ïĥ Î¯
àµģà´ ¦
à¦Ĺ à§ģà¦²
ĠÐĳÐµÐ»Ð°ÑĢÑĥÑģ ÑĮ
áĥĽ áĥĺáĥ¡
ha ng
Î½Î¿ Ïį
Ġà°ļ à°¾à°²
Ðº Ð¾Ñŀ
à¹īà¸²à¸ ĩà¸
æľ į
Ø¹ Ø±
Ġà¦Ĩ à¦ĩ
ĠáĥĴ áĥĲ
à¸£à¸²à¸Ħ à¸²
ĠÏĩ ÏģÎ®
ĠÑģ Ñĥ
Ġso bre
à°Ĥà°¡ à°¿
ģà¸ ¥à¸
iá»ĩ c
ÏģÎ±Î³ Î¼Î±
à¦¡ à¦¼
ĠÐ¾Ð± ÑĬ
à¤¿à¤ ľ
ĠÎµ Î³
v or
Ġ×Ķ× ¤
Ġà¤° à¥Ĥà¤ª
ĠÏĮ Î»
à¤ļà¥įà¤ ļ
ĠÐ± Ð¾Ð·
Ġà¤®à¥Ī à¤Ĥ
ì¹ ´ëĿ¼
ĠÐ´Ðµ ÐºÐ°
ÅĤ e
on ne
ÑĥÐ¼ Ò³ÑĥÑĢ
Ð± Ð¸ÑĢ
àª¾àª Ł
Ġà®ķà¯Ĥ à®Ł
Ġsa h
ĠÒĽ Ð°Ð¹
Ø§ÙĦ ÛĮ
ê± ´
Ġp il
ĠÐł Ñķ
Ġpo ate
Ġex p
k Ã³w
Ñī Ð¾
Ð»Ð¸ Ñĩ
Ġp un
Ø³ Ùħ
àª¾àª£ à«Ģ
Ġi ro
nos t
ë° ©
Ã³ d
æ ©
Ġo vat
Ġo mi
Ġun ter
Ġgb á»į
ÑĥÐ¿ Ð¸ÑĤÑĮ
Ġp he
àª¾àª ī
Ġpo li
à®¿à®© à¯įà®©
ŀ Ī
Ġza man
ĠÐ¸ÑģÐ¿ Ð¾Ð»ÑĮÐ·
ul l
lá»į wá»į
Ð»Ñĸ Ð´
Ġpr Ã©s
ãģ¨ ãģĹãģ¦
áĢŀ áĢ¬
j iem
à´¾à´¤ àµĨ
áĥĲáĥª áĥĺáĥĲ
à¸Ńà¸ ģ
à°¾à°² à±ĭ
é ĵ
Ġà¦ĺ à¦Ł
Ġun tuk
Ø¨ Ùĩ
Ġà´® àµĤ
ĠáĢ±áĢ Ĩ
ŀ áĢĬáĢ¹
Ġáģ ģ
ÏĨ Î·
Ġs á»±
à´£ à´®
ĠÑĤ ÑĭÐ¼
ĠÎ¿ÏĢÎ¿ Î¯Î±
à°Ĥà° ¬
áĥĲáĥķ áĥĺ
Ġ áł
Ġå¤§åıĳ å¿«ä¸ī
te Ä¾
ĠÎķ Îº
à´¤ à´¿à´°
Ġà¦ª à§ľ
ĠÐ¿ÐµÑĢ ÑĪ
Ġáĥ¥ áĥĲáĥłáĥĹ
Ġpr es
Î³ Î·
à±įâĢĮ à°²à±ĭ
ÑĤÑĭ Ñĩ
à¹ĥà¸Ĭà¹īà¸ Łà¸£à¸µ
è¯ ´
àª Ŀ
Ġà¦¸ à¦Ļà§įà¦Ĺà§ĩ
áĥĶáĥ ¤
à¹ĥà¸«à¸ ¡
Ġhttp s
Ñį Ñģ
Ø§ÛĮ Ø§
à°¾à°Ĥà° Ł
à¹ĥà¸ Ī
×Ļ× ¦
Ġ5 0
à§įà¦ ŀ
ju k
çĪ ±
ÏĨ ÎŃÏģ
Ġà®ķ à®µ
Ð¶ Ð´
ĠæĹ¥ æľ¬
ÏĦ ÏĥÎ¹
à¤Ĥ à¤ļ
ĠÑģ Ð°Ð½
à· ı
Ġì µľ
Ġha u
Ġn eng
Ġp Ã¥
ĠÑĤÑŀÒĵ ÑĢÐ¸Ñģ
ĠÑĤ Ð°Ò³
ÅĤ Äħ
Ġa ber
ara q
ĠÑĤÐ¾Ð¼Ð¾Ð½ Ð¸Ð´Ð°Ð½
Ġàª¹ àªµà«ĩ
Ġìĥ Ŀ
ĠÙĨ Ø¸
Ġs em
Ġla ik
ĠpÅĻ ed
Ġà®ķ à¯ģà®Ł
ti m
ÐµÐ¹ ÑģÑĤÐ²
: :
Ġå¤ §
àª ł
Ġl ilo
tso eng
ĠìĹ Ĩ
Ġsz em
ĠØ§ÙĦØ «
Ġw szyst
Ġi tá»į
v re
áº¹ gáº¹
Ġm Ã¡
Ġm or
Ġàª¬ à«Ģàªľ
Ð¶ ÐµÐ½Ð½Ñı
ĠØ± ÙĪØ²
Ġí ĸ
Ġï½ ŀ
ut as
le ri
Ġi be
ĠÐ» ÐµÑĤ
al iz
Ã ®
Ġáģ Ģ
ĠkeÃ§ir il
Ġà´° à´¾à´ľ
áĥĺáĥ£áĥ ļáĥĺ
Ġà¸Ĺà¸Ķà¸¥à¸Ńà¸ĩ à¹ĥà¸Ĭà¹īà¸Łà¸£à¸µ
à±ģà°¨ à±ģ
èµ ·
à¦° à¦£
Ġha ben
×Ļ× Ĺ
à´¿à´¯ à´¿à´²àµįâĢį
ĠáĢ±áĢ ĲáĢ¼
áģ¿ áĢĻ
áĢĲ áĢ°
Ïģ ÏİÎ½
à®° à¯įà®µ
à´¤àµįà´¤ à´¿à´²
ÑģÐº Ñĥ
Îº Î¿Ïį
à°¡ à°¾à°¨à°¿à°ķà°¿
Ġáĥ¥ áĥĲáĥļ
à© ĩ
ç¾ ¤
Ġva ir
Î½ Î®
àµĭ à´ķ
à§ģà¦ ĸ
Ð¼ Ñĥ
áĥĲáĥ ©
Ġm Å±
Î´ Î¯
Ġà°ª à±Ĭ
Ð³Ð°Ð½ ÑĸÐ·
Łà¸¸à¸ķà¸ ļà¸Ńà¸¥
æ¯ Ķ
Ġpe u
Ġà¦¬à¦² à§ĩ
áĥĲáĥª áĥĺáĥĺáĥ¡
¢à¸ §à¸
y r
Ð½ ÐµÐ¼
ĠØ§Ù¾ ÙĨÛĮ
à±Ĥà° ²
Ġà¹Ĥà¸Ľà¸£à¹Ĥà¸¡à¸ Ĭà¸±à¹Īà¸Ļ
z io
ĠÎºÎ± Î»ÏįÏĦÎµ
Ġà¦ķà¦¿à¦Ľ à§ģ
Ġàªľ àª£
à¤¸ à¤¾
l l
Øµ Ø±
p owie
Ġà¤ķà¤° à¥ĩà¤Ĥ
Ġ4 0
Ġà¤Ĺ à¤Ī
ĠÑĪÑĥ Ð´Ð°
Ġà¤ªà¥įà¤° à¤¤
ìĤ¬ ìĿ´íĬ¸
Ġk ho
Ġmo k
cia l
ĠÑĦ Ð°Ð¾
ĠÒĽÑŀ Ð¹
å¥ ³
ĠÙĤ Ø±
ĠÕ ¢
ÑĢ Ð¾Ð½
Ġbil ÉĻr
ĠìĦ ¸
Ġs me
owe go
à«ĩàªµ àª¾
he z
Ġa an
ia c
à®¿à®Ł à®®à¯į
ãĥ¼ãĤ ¸
Ð¡ ÐĤ
ĠÐ¿ Ð¾ÑĢ
Ġ Ā
ar o
íĥ Ģ
Ø¯ ÙĬ
å½ ĵ
os sa
at á»į
Ġ×Ķ× ł
Ġt á»į
k eit
Ġs et
en do
Ġti mp
à®² à®ķ
Ã¡s a
ĠÑĢÐ¾Ðº Ñĥ
dad es
ĠÐ¿ÑĢ Ð¸Ð½
Ġi ba
Ġga da
al is
ãģĭ ãģ£ãģŁ
Ġáģ ĥ
Ã« z
Ġà´ĩ à´¨àµįà´¤àµįà´¯
Ġáĥ¡áĥĲáĥ ĳ
à¹Īà¸² à¸Ļ
à±ģà°Ĥà° ¡à°¾
æ ¼
à¦ ·à§įà¦Ł
ĠÙħ Ø·
àª¤ à«įàª¯
Ġà´® à´¾à´¤àµįà´°
áĢĲ áĢŃáĢ¯áĤĶ
áĢĲ áĢħáĢ¹áĢ
ĠáĢ»áĢĻáĢĶáĢ¹áĢĻ áĢ¬
Îĳ ÎĻ
cz Äħ
Ġà´ķ à´£àµįà´Ł
Ð³ Ñĸ
Î¼Î¿ ÏĤ
à°Ĥà°¦ à±ģà°ķà±ģ
Ġáĥķ áĥĶáĥł
çİ ©
å¼Ģ æĪ·
ë§Į ëĤ¨
Î¸ Î¿ÏįÎ½
à´¿à´° àµģà´¨àµįà´¨àµģ
à¦¿à¦ ¡
ĠÑı Ð½Ñĭ
Ġáĥŀáĥĺáĥłáĥ ķ
Ã© m
ÏĦÎµ Ïģ
Ġà°ļà±ĩà° ¶
Ñĭ Ñĩ
à¹ģà¸¥ à¹īà¸§
Ġ ć
Ñ ľ
Ġà¦¬ à§ĩà¦¶
áĥľ áĥĲ
Ġà¸ªà¸ ¥à¹ĩà¸Ńà¸ķ
Ġc yn
Ð½ Ð°Ðº
Ġt yÃ¶
à°° à°£
Ġà¹Ģà¸ ¡à¸
Ġim p
Ġ1 00
Ġà¦ħà¦¨ à§ĩà¦ķ
àª¨à«įàª ¡
éĿ Ĵ
ĠÏĨ Ïī
ĠÙħ Ø¬
Ġb á»ĭ
Ġ äºļæ´²
ĠÏĩ Ïİ
à¤¾à¤ «
Ð¸Ð½Ð³ Ð¸Ð·
Ġà¤ķà¥ĭ à¤Ī
ìĺ Ī
Ġr ona
Ġmo tho
Ġq a
ÑĤ Ð¸Ð¼
Ð°Ð± Ð°ÑĢ
åĲ į
ol g
Ġà®ª à®ķ
Ðµ Ò³
k Ã¤
Ġêµ Ń
Äģ l
k Ã«
ĠÚ© Ø§Ùħ
tz en
ĠÐµ Ð´
os z
×¨ ×Ļ×Ŀ
Ġi Ã§
ãģĹ ãģ¾
ÐµÑĢ Ñĸ
Ġeyi keyi
ĠpÅĻ i
is on
Ġbu de
à«įàª ¦
ti ke
Ġá¹¢ e
Ã¡ ciÃ³
Ġp in
ĠpÄĵ c
ØŃ Ø©
Ġë° ©
Ġle ng
Ġãĥ ĸ
Ġac est
ĠÑĩ ÐµÑĢ
Ġcz as
Ø§ÛĮ Øª
ĠL o
Ġàªľ à«ĩàª®
à® ·
ĠØ® Ø§ÙĨ
áĢĢ áĢ¬
Ġd urch
à´¾à´¨ à´Ĥ
ĠáĥĴ áĥĲáĥĺ
à¸´à¸ ĩà¸
à°® à±ģ
æĶ ¿
à§Ł à§ĩ
Ġg ratis
Ġha b
Ġà´¨ à´¿à´²
áĢ ī
áĢĢ áģ
áĢ¼ áĢ¬
Î´ Î±ÏĤ
ĠmÉĻ lum
Ġ àµ½
ĠÐ¡ Ð¿
Î¹ Î»
à±ĭ à°Ĥà°¦à°¿
áĥĲáĥĿ áĥĳ
æĺ İ
éĩ Į
ch i
Ïĥ ÏĦÎ®
Ġà´µà´¿à´ µ
à¦¤ à§ĭ
ĠÐ¿ Ð°Ð»Ñĸ
áĥľ áĥĿáĥĳ
Ġs ek
ÎĳÎ Ľ
à°¾à°² à±įà°²à±ĭ
ÑĨ Ñİ
à¸²à¸ ªà¸´
å Ļ
ĠÃ ģ
Ġà¦ķà¦¥ à¦¾
áĥľ áĥĶáĥļ
ªà¸ Ķà¸
Ïģ ÎµÎ¹
ÐºÐ° Ñħ
ov e
Ġà°® à°¾à°Ł
à¸£à¸²à¸ ¢à¸
à®² à¯įà®µ
ĠÎ¼ÎŃ ÏĥÎ±
Ġà¦® à¦¹
ĠØ±Ûģ ÛĴ
à¤Ĺ à¤°
Ġe u
ĠØ «
it Ã«
Ġà¤ªà¥įà¤° à¤¦
ĠÎ¼ Î·Î½
à¤ª à¥Ģ
Ð¾ÑĢ Ð°ÑĤ
Ġà¤ªà¤¹ à¤²à¥ĩ
Ã³ k
ĠgÃ¶ st
Ġà®® à¯ģà®±
v an
Ñĥ ÑģÑĤ
ĠÐ¼ÐµÐº ÑĥÐ½
Äħ z
Ã© ra
Ġàªķ à«ĭ
ĠÑģ Ð°Ð±
ta te
Ġb es
Ġë¬ ¸
di en
Ġch á»ī
àªĤàª¤ à«ģ
Ð¸ÑĤ Ð¾
ĠØ´ ÙĪØ¯
ĠÐ²ÑĢÐµÐ¼ Ñı
Ġve Ä¾
×Ļ× ļ
Ø§Ø± Ø§Øª
áº¹ áº¹
à®¿à®ļ à¯įà®ļ
ï¼ Ĳ
Ġãĥ ¬
ĠÑĹ Ñħ
j d
Ġw Ã¡
ãģĹãĤĩ ãģĨ
di o
ĠÚ© Ùħ
×¨ ×Ľ
dz o
ĠD a
Ã«n Ã«
à« ī
Ġs ans
ĠE z
ci ons
Ġá¹¢ i
Ġs wo
à®¿à®Łà¯įà®Ł à¯ģ
Ġëı Ħ
áĢĲ áĢ±áĢ¬áĢ·
ĠÑĸ Ð·
à´ª àµįà´°
Ġáĥłáĥ £áĥ¡
¤ à¸
Ġà°ªà±įà°°à°Ń à±ģà°¤à±įà°µ
åŁ İ
à§įà¦¬ à¦°
Ø¨ Ø¯
ĠÐµ ÑģÐ»Ð¸
à´¿à´ķàµįà´ķ àµį
Ľ áĢ½áĢŃ
áĢĢáĢ¹áĢ Ģ
áĢĳ áĢŃ
ĠÏĥÏĦ Î¿ÏħÏĤ
gg io
Ġà´¨ à´²àµįâĢįà´ķ
Ð°Ð² Ñĭ
ÏĢ Î®
à°Ł à±įà°²à±ģ
© áĥĶáĥķ
à¤¾à¤¹ à¥Ģ
ç ±
Ġm utta
ĠÎ±ÏĢÎ¿ ÏĦÎµ
Ġà´ľ à´¨
à¦¾à¦° à§ĩ
ÑĨ ÑĨÑı
ĠáĥĴ áĥĲáĥķ
ÅĻ i
ĠÎ» Î±
Ġà°ªà±Ĩ à°Łà±įà°Ł
ĠÐ³ ÑĸÑģÑĤ
¶ à¹Īà¸ĩà¸
à¨ ¿
Ġw ar
à§Ĥ à¦²
áĥĿáĥ ĸ
ªà¸ ¥à¹ĩà¸Ńà¸ķ
ĠÎļ Î±Î¹
ĠÐļ Ð°Ð»Ñĸ
to are
à±Ĩ à°ķ
ªà¸ ¹à¸
Ġà®İ à®²à¯įà®²
Ġ/ >
à¦¾à¦ «
ov Ã©
à¥ģ à¤¦
ĠÃ ¢
Ġe dib
Ġk ry
Ġæ ¬
ĠÎ±Ïħ ÏĦÎ¿
Ġà¤ľà¤¾à¤¤ à¤¾
ĠÐ± ÑĥÐ½
à¥ĩà¤ ¡
ĠG o
iyy at
Ġà®® à®Łà¯įà®Ł
Ġph a
ĠÐºÑŀÑĢ ÑģÐ°ÑĤ
ĠÑİ ÑĢ
Ġvi deos
a do
Ġle ur
ĠÑĤ Ð°ÒĽ
jum s
ÐµÑĤ Ðµ
ĠM at
en e
ĠÄĳá» ĵ
Øª ÙĬ
in iz
à«ĭàª ª
ĠÑĤÐ°Ðº Ð¶Ðµ
ÅĤa d
m Äĵ
Äį as
Ġn kan
Ġà®Ĩà®© à®¾à®²à¯į
ìľ ł
ãģ »
k ur
al Ã¡l
ĠT he
Ã©r ie
Ġp ese
ij n
ĠÐ´ Ð¾Ð¿
jer es
em ei
jÄħ ce
ĠØª Ú¾ÛĮ
f er
Ġ×ķ ×Ĳ
m is
ĠG b
Ø³ Ø¨
Ġà®ĩ à®¤à¯ģ
Ġnt le
áĢĲáĢ¼ áĢĦáĢ¹
Ã Ĳ
à´¤àµįà´¤ à´¿à´¨àµį
áĥĿáĥłáĥ ¢
Ľà¸£à¸°à¹Ģà¸ Ĺà¸
à°Ł à±įà°²
é¢ ĺ
Ġà¦¬ à¦¾
Ä ©
à«ĩàªµ à«Ģ
àµįà´ ķ
áĢĦáĢ· áĢ¹
ģ áĢ»
áĢľ áĢ¯áĢķáĢ¹áĢ
ÏģÎ¯ Î¶
p Ã«r
Ġà´ļ àµĨ
ĠÐº ÑĢÑĭ
ĠÎ¶ Ïī
Ġà°¨ à±Ģ
Ġáĥŀ áĥĿáĥļ
ĠAG çİ¯äºļ
ç» ĵ
Ġ38 09
ĠÎµÎ½ Ïİ
à´¿à´ķàµįà´ķ àµģà´¨àµįà´¨àµģ
à¦¾à¦° à¦£
ĠÐ¡ ÑĤ
ĠáĥĽ áĥĵ
Ġku wa
Îķ ÎĿ
Ġà°ħ à°¦
ĠÑı ÑĪÑĩÑį
¢ à¹Ģà¸
¥ ¿
ëĭ ¨
à§ģ à¦¦à§įà¦§
áĥ¡ áĥ¢
Ķà¸ ¢à¸
ÏģÎ¯ ÎµÏĤ
Ð´Ð· ÐµÐ»
ĠC u
à°¾à°Ł à±ģ
Ġà¸ ĸ
z at
ĠÎµÎº ÎµÎ¯
Ġà¦¸ à¦¾à¦®
Ġuti lis
à¥ĭ à¤ķ
ĠÎºÎ¬ ÏĢÎ¿
Ð½Ð¸ Ð¼Ð¸
Ġse in
à¥ģ à¤ķ
ÏģÎ¯ ÏĤ
Ġà¤¦ à¥įà¤µ
ĠÐ¾ Ð»Ð¸Ð±
à¤¬ à¤°
et to
ãģŁ ãĤģ
ÄŁ u
àª¾àª ļ
ĠÐ¾ Ð»Ð¸ÑĪ
Ð°ÑĢ Ð´Ð¸
l ho
Ã¼ let
ëĲ ľ
Ð¾ Òĵ
Ġj Äģ
ĠÄį o
Ġtse la
Ġme d
ĠÐ¾Ð± ÑĢÐ°Ð·
Ġ×ĳ ×©
Ø§ÛĮ Ø¯
Ġte go
ÑĥÐ²Ð° ÑļÐµ
Ñı Ð²
m Ã¤n
à®±à¯įà®ķ à¯ģ
Ġf ree
Ġdel s
el Ã©s
Ã¡l nÃŃ
en er
àª¿àª ª
Ġeyi ti
ĠÚ© Ø³ÛĮ
Ġila na
Øª ÙĪ
Ã ī
im it
Ġgi Ã¡
ĠÑĨ ÑĮ
te ko
ĠZ a
Ġde ux
ÐµÐº Ñģ
d s
un oa
Ġe d
ĠP ol
ĠáĢľ áĢ¯áĢķáĢ¹áĢ
ĠÑĥ ÑģÐ»
à´¿à´ ·
áĥľ áĥĶáĥĳáĥĲ
Ħà¸ ¡
à°¿à°¨ à±įà°¨
è£ ħ
Ġà¦ļ à¦²
Ġpo z
be tsi
àµĭ à´³
± áģ¾áĢĢ
áĢĽ áĢ²áĤķ
áĢ¯ áĢĶáĢ¹áĢ¸
ĠÂ µ
Ġàª¬ à«ĩàª
àµģà´ ²
Ò Ĳ
ĠÏĢÏģÎ¿ ÏĤ
à°° à°¿à°ķ
Ġáĥ¥ áĥķáĥĶáĥ§
èĢ ĥ
å¤ ĩ
Ġnh áº¥t
ÎĳÎ ļ
à´¿à´ķàµįà´ķàµģà´¨àµįà´¨ à´¤àµį
Ġà¦¯ à¦¾à§Ł
ÐµÐ»ÑĮ Ð¼Ñĸ
ĠáĥĲáĥĵáĥĲáĥĽ áĥĺáĥĲáĥľ
Ġmul t
Î» Ïİ
à±Ĩ à°¨
ĠÐ¼ ÐµÑģ
«à¸Ļ à¹īà¸²à¸
è· ¯
ÐµÑĢÐ¶ Ð°Ð²
à§įà¦° à¦®
ĠáĥĹ áĥĳ
«à¸£à¸ ·à¸Ń
2 5
Ðº Ð»Ð°Ð´
Ð¸ÑĢ Ð¾Ð²
à°¾à°° à°¾
Ġà¹Ģà¸ ĩà¸´à¸Ļà¸
ul t
ĠÏĮ Î»Î±
à¦¬ à¦¾à¦¦
ĠìĦ ±
çĥ Ń
Ġ2 7
ts he
à«ģàª ĸ
Ġà¤¸ à¤¾à¤®
Ġ0 8
à¶ º
Ð¸Ñģ Ð¸
à¥ĭ à¤¨
à®¾à® ª
Ø ¢
ÑĸÐ»ÑĮ ÑĪ
Ġ×Ĳ ×ľ
ĠÑħ Ð°Ð»ÒĽ
ĠÑĤ Ð°Ñģ
de re
Ġ Ã¡ll
Ø¯ Ø©
ĠÐºÑŀ Ð¿
ct os
Ġn om
Ġàªīàªª àª°
k Ä±
Ġì§ Ħ
à®© à¯įà®ª
ĠÙħ ÙĤ
ÅĽ cie
ï¼ ĳ
ãģ ³
ak e
Ð° ÑİÑĤ
Ġwi pe
om a
ëĭ ¹
ĠÑĤ Ð¾Ð²Ð°
Ġk Ã«r
åł ±
Ġor is
Ġàªªàª° àªĤàª¤à«ģ
ĠI lu
Ġt an
Ġlu c
ja m
Ġ×ŀ× Ĺ
é ħ
à®¿à®±à¯įà®ķ à¯ģ
Ġsp ra
l ÃŃ
Ð¾ Ñī
gbo gbo
u a
ĠÐ¯ Ðº
Ġâ Ĺ
áĤĢáĢĢ áĢ®áĢ¸
ĠÑģ ÑĢÐµÐ´
àµģà´ķ à´¯àµģà´Ĥ
áĥĿáĥļ áĥĿ
ŀà¸ ·à¹Īà¸Ńà¸
à±Ģ à°¡
åº Ķ
à¦ ı
Ã¡ ro
ÉĻs inin
àµĤ à´ª
ĠáĢģ áĢ¯
áĢĻáĢº áĢŃáĢ³
áĢ¡ áĢħ
ĠÎķ ÏĢÎ¹
e in
Ġà´ľ àµĢà´µ
ĠÐ½Ðµ Ðº
ĠÎ ĸ
Ġà°¸ à±įà°¥
áĥĶáĥĳ áĥĸáĥĶ
åĪĨ åĪĨå½©
æ º
ÙĦ Ø§ÙĦ
Ïį ÏĢ
à´¯ à´¾à´³
à¦¿à¦ Ń
ĠÑĢ Ð°Ñĳ
áĥ¡ áĥĲáĥ®
Ġàª¬àª¨ àª¾àªµ
ÏĮ ÏĦÎ·ÏĦÎ±
à°°à±įà° ļ
ĠÐ² ÑıÐ»Ñĸ
Ġ à¸Ļà¸
æİ ¥
p tion
à§ĩà¦ ª
ĠáĥĲáĥł áĥĲ
Ġà¸ ķà¸
ĠÎ» Î¯
Ñı Ð¼
z ia
à±ģà°² à°ķà±ģ
à¸Ńà¸¢à¹Īà¸²à¸ ĩà¸
jum u
.. ..
à¦ ¯
í ŀĪ
å¤ ľ
ia dau
dir il
Ġty l
Ġà¤ľ à¤¾à¤ı
Ïģ ÎŃÏĤ
à¤Ĥ à¤§
ĠÐº Ðµ
Ġà¤ħà¤ª à¤¨à¥Ģ
ĠØ¨ Ø§Øª
Ã »
Ġtl ho
Ġk ish
ĠÑħÐ¸Ð· Ð¼Ð°ÑĤ
ĠÑĥ Ð¹
Ġn Äĥm
Ġam ely
ÈĽ Äĥ
ĠÐ½ Ð¾Ð¼
ĠA uf
Ġmo ra
m ÉĻn
à®Łà¯įà®Ł à¯ģ
ĠØ§ÛĮØ± Ø§ÙĨ
Ġàª¸ à«Į
Ø§Ø® Øª
Ġs in
it Ã©s
jÄħ c
Ġà®ķ à®£
ÉĻr i
Ġn áº¹
ĠtÅ¡ o
fu ta
Ġë ¨
Ġne bo
ĠÙģ ÛĮ
Ġit an
×Ľ ×ľ
gb ara
inÄģ t
ĠÐº ÑĬ
ĠÐ· Ð°Ð²
ĠD i
ãĤĮ ãģ°
Ã© nÃ©
Ġques to
Ø¯ ÙĬØ¯
ĠD E
Ġis e
u er
Ġí Ĭ
Ġà® Ĳ
áĢ±áĢ« áĢº
lu t
àµģà´ ¨
áĥļ áĥĺ
ģà¸²à¸£ à¹Ģà¸
à±įà°Ł à±Ģ
Ġå ¥
Ġà¦¹ à¦¾à¦¸
à«ĩàª ª
ra m
Ġ àµ¼
Ķ áĢ¾
ĠáĢĲ áĢĽ
áĢ¬ áĢ¹
Î´ ÏĮ
Ġl en
Ġà´ §
Ð»Ñĸ Ð²
Î¹ Ïİ
à±ĭ à°¦
Ġáĥ¡ áĥ¬
4 4
Ġà¤Ĩ à¤£
ÅĤa m
Î»Î· ÏĤ
àµĩà´ ĸ
Ġà§¦ à§
Ðº Ð°Ð¼Ñĸ
áĥª áĥĲ
ĠiÃ§ in
ĠÎł Î¿Î»
Ġà°İ à°¨à±įà°¨
Ñģ ÑĨÑĸ
³ à¸Ļà¸
æµ ·
Ġtyl ko
Ġà¦ķà¦° à¦¾à¦°
ĠáĥĲáĥłáĥ ¡
·à¹Ī à¸Ńà¸ĩ
ĠÎºÎ± Î½
Ð± Ðµ
ĠØ§ ØŃ
Ġà°ķà±ĭ à°¸à°Ĥ
à¹Īà¸²à¸ ¢à¸
à«Ģ àª¨àª¾
Ïĥ ÏĦÏĮ
Ġà¦ªà§įà¦° à¦§à¦¾à¦¨
ĠÑĤ ÐµÑħ
Ġà¤ľ à¤¨
ĠÎ´ ÏħÎ½Î±
Ġm ÉĻh
ÅĪ a
Ġà¤ķà¤¿à¤¸ à¥Ģ
Ġ0 9
Ġà¤° à¤ĸ
Ñħ ÑĤ
ç ¦
Ġk ri
Ð°Ð· Ð¸Ð½
cz nie
ĠÑģ Ð°Ð¹
Ð» Ð°Ð¼
ÑĥÐ¼ Ð°Ð½
ar io
it tÃ¤
Ġà®® à®¿à®ķ
ĠÑį ÑģÐ°
ĠØ³ ÛĮ
ĠÐ³ Ð¸
Ġh ÉĻy
ĠÃ ³
Ġ×ŀ× ¢
ak an
ĠìĹ Ĳ
Ġj our
Ð°Ð»Ñĸ Ð·
Ġch i
Ġ Å¾
ĠÙĪ Ùĩ
Ġiá¹£ owo
Ġàª² àªĹ
ĠT e
ãĤ¹ ãĤ¿
ĠâĢĿ ,
em i
gb on
ĠÐ± ÑĥÐ»
Ġin u
ĠN o
h ur
Ġu 04
ĠÛ±Û ³Û
ĠØ§ÙĨ Øª
s te
ç ¶
Ã¼ b
Ġin t
a ju
Ġ) ;
p il
ĠØ± Ú©Ú¾
áģ µ
Ġìŀ ¥
ĠâĢĭâĢĭâĢĭ âĢĭ
áĥĲáĥ® áĥĶáĥĳ
Īà¸£à¸´à¸ ĩ
Ġà°ķ à°¾à°²
ä¼ ł
Ġà¦Ń à¦¾à¦°
àª°à«įàª ®
Ġz o
à´ķàµįà´ķ àµĨ
áĢĦ áĢ¶
áĢ¶áĢ¯ áĢ¸áĢ
áĢ¶áĢ¯ áĢ¸
Î½Î¿ Î¹
as ti
àµĥ à´¤
ĠÐ³ Ð°ÑĢ
Î» Î¹Ïĥ
à±ģà°Ĥà° ¡
áĥ® áĥĽ
æī Ģ
åĸ ľ
Û ķ
Î¹ÎºÏĮ ÏĤ
Ġà´ ¨àµįà´
à§ĭ à¦¸
Ð½Ñĸ Ñĩ
áĥ£áĥ ĳ
ĠÚ¯ ÙģØª
ĠÎ£ ÏħÎ½
à±ĩ à°²
ÑĢÐ° ÑĦ
Ĺà¸ ±à¹īà¸ĩà¸
æĦ ı
Ġi dÅĳ
Ġà¦¹ à¦ļ
Ġáĥ¬ áĥĺáĥľ
Ġà¸ŀ à¸Ļà¸
Î¯Î½ Î·
Ð°Ð² Ð°Ñŀ
Ġst r
à°¾à°· à±įà°Łà±įà°°
à¸£à¸ ¹
ÙĪ Ø¹
ĠÎ² Î¿
Ġà¦Ĩ à¦ľ
ÐµÑĢ Ð°
ç²¾ åĵģ
Ġ2 6
Ġme j
à®µ à¯Ī
à¥įà¤¯ à¥Ĥ
Î· Î³
à¤ķà¥įà¤ ¸
Ð¾Ñı Ð´
Ġà¤¦ à¥ĩà¤¶
g ji
ĠÐºÐ¾ÑĤÐ¾ÑĢ ÑĭÐµ
Ġc es
ĠÄ° n
Ð°Ð» Ð¸Ðº
ĠÑĳ ÐºÐ¸
Ġn tse
×ĵ ×Ļ
ÑĤ Ð¾Ð²
Ð¾Ð» Ð°ÑĢ
en ye
Ã£ o
fi ca
Ġt ÉĻh
ii k
íģ ¬
Ġa ss
à«ĭ àª®àª¾àªĤ
rz Äħ
Ã¼l t
ĠÙĪ Ùħ
f Ã¼
ĠR a
ia le
ÑģÐº Ð°
Ġpo t
ar Ã«
Ġba sh
ĠJeho vah
ĠØ¬ Ø§Ø¦ÛĴ
Ġja de
Ġtl ha
Ġm uy
ĠÑĤ ÐµÐ»
Ø§ÙĨ Ø¯
Ġ ÉĻn
te urs
j Äģm
Ġt uo
Ġpre j
Ġk ek
Ġba tla
Ã¡r os
Ġà®µ à¯Īà®¤à¯įà®¤
áĢļ áĢ°
Ġdá»¥ ng
à´¾ àµ½
ĠáĥĽ áĥĲáĥľ
Īà¸±à¸ Ķà¸
à°° à°Ĥ
Ġag äºļæ´²
Ġà¦Ĩà¦® à¦¾à¦¦à§ĩà¦°
ĠL os
àª¨ àª¾àªĤ
àµ º
ĠáĢ±áĢ ĲáĢ¬
ĠáĢĻ áĢº
áĢī áĢº
Î® Î¼Îµ
ë¹Ħ ìĬ¤
Ġà´ī à´£àµįà´Ł
Ð½Ð° Ñħ
ĠÎ´Ïį Î¿
Ġà°¨à±ģà°Ĥà° ¡à°¿
ĠáĥĶ áĥĻ
æĢ İ
Ġag çľŁäºº
ĠØŃÚ© ÙĪÙħ
Î´ ÎµÏħ
Ġà´ª à´¿à´¨àµįà´¨
Ġà¦ĩ à¦ī
ĠÐ¼Ð¾Ð¶ Ð½Ð°
áĥĲáĥļ áĥ£áĥł
Ġiz an
Î½ ÎµÏĤ
à°Ĺ à±įà°Ĺ
ĠÐº Ð°Ð»
Ġà¹Ģà¸ Ħà¸£à¸Ķà¸´à¸ķ
è¯ ķ
y y
Ġà¦ªà¦° à¦¿à¦¬
áĥ®áĥĿáĥķ áĥł
ģà¸ ±à¸Ļà¸
ĠÏĮ ÏĦÎ±Î½
Ðº Ð°Ð³Ð°
l Ã©
Ġà°Ĩ à°°
à¸Ńà¸ Ķ
Ġà®ħà®µ à®°
ĠÎ¼ Î¹Îº
à§įà¦¯ à¦®
ĠÐµ ÑģÑĤÑĮ
à¤Ĥ à¤ķ
ĠÎ¼Îµ Î³Î¬
ĠØ¥ ÙĨ
Ġd at
Ġà¤ ĳ
Ġ Ïİ
Ġà¤ħ à¤²
ĠÑĪ Ð°ÑħÑģ
Ġà¤¹à¥ĭ à¤¨à¥ĩ
el t
ĠÐ²Ñĭ Ð¿
ĠÙĦÙĪ Ú¯
ëŀ ĺ
ĠÐº Ð°Ñģ
ĠÐ¹Ñŀ Ð»
Ġb ja
ban e
àªµàª¾àª¨ à«ģàªĤ
ĠÐĲ Ð±
ĠP er
ĠãĤ ª
à®¾à® ªà¯įà®ª
ĠD o
ÐµÑĢ Ð¸
Ġmo Å¼e
Ġf in
à«Ĥ àª°
Ġà®ħà®µ à®°à¯į
ĠÐºÐ¾ Ð¸ÑĤÐ¾
æ Ł
Ġ Ã¡t
Ġb áº¹ráº¹
ĠØ¯ Ø§Ø´Øª
Ġka ik
ì Ķ
le rin
Ġc il
B A
Ùĭ Ø§
h á»į
hlo ko
Ġtra va
ĠÑĥ ÑģÑĤ
×¨ ×Ķ
Ãº ng
Ġy eni
Ġíı ¬
ÈĽ ie
àªĹ àª°
Ġi ye
ĠL E
ÙĪØ± Øª
ĠÑĺ Ð°
ĠáĢ Ĭ
Ġm iej
à´¿à´¨ àµįâĢį
áĥĺáĥ ®
ľà¸¹ à¹ī
à±ģà° ļ
åĻ ¨
Ġà¦¨à¦¿ à¦°à§įà¦¬
Ġà®® à®ķ
h men
Ġne ws
áĤ ĩ
áĢĲáĢ½ áĢĦáĢº
áĢŃáĢ¯ áĤķ
Îµ Î¹Î±
Ġs Ã©
Ġà´ķ àµĨ
Ð°Ð½ Ð½Ñĸ
Îº ÏģÎ±
à±Ĥà° ¨
áĥĲáĥļáĥĺ áĥĲáĥľ
Ġå° Ĭé¾Ļ
çī ¹
àª¤ à«įàª°
ĠÏħ ÏĢÏĮ
àµģà´®àµįà´ª àµĭ
à§ĭ à¦§
Ð» Ð°Ñŀ
ĠáĥĽáĥĹ áĥĲáĥķ
ova Å¥
ÏĦÎ¿Ïħ ÏģÎ³
elu gu
ÑģÐºÑĸ Ñħ
· à¹īà¸Ń
Ġ2 22
se re
Ġà¦¸ à§ģ
áĥĲáĥłáĥĹ áĥļ
à¸´ à¸Ļ
ĠÏĢ ÏģÎ±Î³Î¼Î±
ĠÐ¼Ð¾Ð¶ Ð°
Õ¡Õ £
à°¿à° ¡
ª à¸´à¸
Ġà®ķ à¯ģà®´
Î»ÎµÏħ ÏĦÎ±
à¦°à§įà¦ £
ĠÑĩ ÑĤÐ¾Ð±Ñĭ
Ġà¤Ĩ à¤ľ
ĠÎ±Î¾ Î¹Î¿
v v
Ġa ki
éĻ ¢
Î´ ÎŃ
ç ĭ
ĠÐµ ÑĤ
Ġà¤¸à¤ķ à¤¤à¥ĩ
Ġíĺ ¸
er Ã«
c ri
ks en
ĠÐ¼Ðµ ÑĪÐ°Ð²
ĠÒĽ Ð°ÑĤ
Ġdir a
h lah
àª¾àª ¥
Ð»Ð°ÑĢ Ð´Ð°Ð½
ÐµÑĤ Ð°
Ġa qu
ĠÙĪØ§ÙĦ ÛĴ
ĠâĢ ¢
ĠvÅ¡ et
Ä« s
n er
à«ĩàª ¬
ĠÐ»Ñİ Ð´
Ġê² Į
Ġ Å¼y
Ġc _
Ġi do
Ġter m
Ġà®ħ à®³
ÃŃ ch
ĠG r
g je
ĠNi gba
ë¥ ´
Ġpa da
Ġem pa
Ġ×Ķ ×ķ×Ĳ
p on
Ġk ir
Ø§Ø± ÙĬ
Ġblo ck
ãĥ§ ãĥ³
Ð½Ð¸ Ñı
= =
Ġki i
ha m
Ġm is
ÑģÑĮ ÐºÐ°
áĢ¬áĢ¸ áĢĢ
ĠÐ¿ÐµÑĢ Ð²
à´¡ àµį
Ġáĥ¨áĥĶáĥ¡ áĥĲáĥ®áĥĶáĥĳ
ŀ à¸´à¸
à±ģà°² à°¨à±ģ
æµ ģ
à¦¤ à§įà¦°
Ġto t
ĠØ´ ÙħØ§
à´ķàµįà´ķ àµģà´Ĥ
áĢĲáĢ½ áĢĢáĢº
áĢģáĢº áĢŃ
áĢŀ áĢ±áĢ¬
Îķ ÎĻ
ke j
Ġà´ª à´¿
Ð³ Ðĥ
Î¿Ïħ ÏģÎ³
à°° à°¿
ĠáĥĽ áĥĲáĥĺ
ĠåĪ Ĩ
éĢ ī
Ġàªª à«ĭàª²
ĠÎµÎ¯ ÏĩÎµ
Ġà´İ à´¨àµįà´¤
à§Ģ à¦¦à§ĩà¦°
Ð°Ð´Ð· Ðµ
Ġáĥ¨ áĥĶáĥĵ
à®® à¯ģà®®à¯į
ĠÎ³ Îµ
à±Ĩ à°Ĥà°Ł
ĠÐł Ð°Ñģ
· à¹īà¸Ńà¸
à¨ °
ÑĸÑģÑĤ ÑĮ
Ġà¦¸ à§įà¦¥
Ġáĥĺáĥľ áĥ¤
ķ à¹Īà¸²à¸
Î¯Î½ ÎµÏĦÎ±Î¹
ĠÐ· Ð°Ð¼
Ã¶ z
à°¾à°ķ à±ģ
Ķ à¸²à¸
lich en
2 9
¯ à§
Ġfun d
à¤°à¥įà¤ ·
Ġ @
Ġt ous
Ġo k
åĽ½ äº§
Î¿Î½ ÏĦÎ±ÏĤ
Ġà¤¸à¤° à¤ķà¤¾à¤°
Ò ļ
à¤¯ à¥ĭà¤Ĺ
Ġi ar
Ġà®µà®¿à® ³
Ùĥ ÙĪÙĨ
Ġjo ka
ĠÒ³Ð°Ð¼ Ð´Ð°
Ñĥ Ð´Ð¸
w ana
tsa ng
Ġàª¸ àª¹
Ð¸Ð½Ð³ Ð°Ð½
Ġf r
ãģŁ ãģĦ
âĢ ĺ
ĠÙĦ ÛĮÚ©ÙĨ
ĠÙĩ Ø±
ĠE t
ãĥ Ħ
Ġàª¨àª¹ à«ĢàªĤ
p Äģ
nÃ© e
Ġh iá»ĩn
Ã¼t Ã¼n
Ġs inu
ĠÑĢ ÐµÐ³
o re
ĠÂ ¿
Å¡ tÄĽ
Ġre c
ik un
ĠÐ´ Ð°Ð½
Ġo rin
st y
Ã¡ val
k Äģ
ëł ¤
Ñĺ Ð°ÑĤÐ°
ãģ® ãģ¯
Ġbo i
- -
Ġàª¨ à«Ģ
Ġme ji
Ġar t
ĠÐ½ Ð°Ð´
Ġà®ĩ à®²
ĳ áĢ¬áĢ¸áĢ
f en
Ġà´µà´¿à´ ¶
áĥĵ áĥĺ
à¸£ à¹Įà¸
Ġà°¸ à±įà°Ł
çĽ ¸
à¦Ń à¦¾à¦¬à§ĩ
c co
k on
Ġà´¨ àµĢ
áĢŃ áĢĻáĢº
áģ ¥
áĢ¬ áĢĻ
Ġá¼ Ģ
Ġ×ŀ× ¡
à´¨àµįà´¦ àµįà´°
Ñĸ ÑĨÑĨÐ°
ĠÏĮ Î¼ÏīÏĤ
à°¾à° ļ
áĥĿáĥļ áĥĿáĥĵ
æĢ »
Ġè Ģ
Ġk w
ÏģÎ¿ ÏįÎ½
à´ķ à´³àµįâĢį
Ġà¦Ĩ à¦¹
ÑĥÐ»ÑĮ ÑĤÑĥÑĢ
ĠáĥĵáĥĲáĥ Ļ
ĠØ¹ ÙĦÛĮ
ÏĦÎ¿ Î¹
à±ģà°Ĺ à±ģ
Ð°ÑĨÑĭ Ð¹
Ġà¸ Ĺà¸µà¹Ī
ç ¼
ĠØ Ł
Ġà¦ı à¦ĸà¦¨
Ġáĥ¡ áĥĲáĥĵ
à¹ĥà¸ Īà¸
ĠÎ´ Ïī
ĠÐĵÑįÑĤ Ð°
Ġàªª àª¾àª¸
à°°à±įà° ª
Ķà¹īà¸§à¸ ¢à¸
ĠF t
I d
Ġà¦¦ à¦²
gy ar
æĹł çłģ
6 9
Ġm Ã©
à®µ à®¿à®²à¯įà®²à¯Ī
Ġà¤ķà¤¾à¤° à¥įà¤¯
Î²Î¿Î» Î®
æĴŃ æĶ¾
Ð°Ðº ÑĤ
Ġà¤ ĵ
Ġce le
Ġs ok
è© ±
ĠbaÄŁ lÄ±
Ð°Ð´ Ð°Ð½
ĠÑŀ Ð¹
âĢĮ ÙĩØ§
ĠÄĳá»Ļ ng
ei te
ĠÑĤ Ð¾Ð¿
Ġs ui
d uk
ĠØª Ùħ
à«ĭàª ¸
qu i
ĠÐ½ ÐµÐ´
Ġpar Ã«
ant le
Ġà®ı à®±à¯įà®ª
Ġv z
owan e
Õ¡Õ °
Ġti tun
Ġies pÄĵ
ĠP ara
Ġde t
å® Ł
it te
Ġof in
ĠÑĥ Ð¶Ðµ
si waju
Ġì Ĥ
z ott
ĠÚ¯ ÛĴ
unoa ÈĻte
Ġt emp
lich e
Ġàªļ àª¾àª²
ĠtÉĻ ÅŁ
çľ Į
Ġa yi
çĦ¡ æĸĻ
ĠÑĩ ÐµÐ»Ð¾Ð²
í ĭ
áģ¿áĢķ áĢ®áĢ¸áĢ
Ð² Ð°ÑĤ
à´¿à´²àµĩ à´ķàµįà´ķàµį
áĥĿáĥĳ áĥĲáĥ¡
Ħ à¹īà¸²
Ġà°¨ à°¾
Ġ á
Ġà¦Ń à¦¾à¦²
Ġà®ī à®¯
Ġq al
à´¿à´Ł àµĨ
áĢ»áĢģ áĢĦáĢ¹áĢ¸
ĠáĢĸáĢ¼ áĢħáĢº
áģ ¢
Ïĩ Î·
Ġju Å¼
à´¿à´¯ àµĨ
ĠÐ°ÑĢ Ð³Ð°Ð½ÑĸÐ·
Î ¦
à±ģà°ķ à±Ĭ
áĥĲáĥĵáĥĴ áĥĶáĥľ
åķ Ĩ
è¯ ·
Ġha o
ÏĥÏĦÎ± ÏĥÎ·
à´¦ àµįà´¯
à§Ģ à¦¤
Ñĭ ÑĢ
Ġáĥ§áĥķáĥĶáĥļ áĥĲ
ant es
Ïĩ Ïī
Ġà°ħ à°¤
Ð¼ ÐµÐ½
Ġ à¹Ħà¸¡à¹Īà¸
ä» ĸ
ik ka
Ġà¦° à¦¾à¦ĸ
áĥĺáĥª áĥĺ
Ġà¸ §à¸´à¸
Ġs y
Ñŀ ÑģÑı
ĠÙ¾ ÙĪ
Ġà°® à±ģà°Ĥà°¦
Ġà¹Ģà¸ĩà¸´à¸Ļà¸ Łà¸£à¸µ
Ġm are
ĠÎ± ÏĨ
à¦¿à¦ ĵ
àªķ à«ĩ
é Ł
Â ¬
k ar
w Ã³
Ġà¤µà¤¾à¤² à¥ĩ
3 7
Ġà¤¬à¤¹ à¥ģà¤¤
ĠÒĽ ÑĥÑĢ
à¤¸ à¥įà¤¥
Ð¾Ð» Ð¾Ð´
Äį ÃŃ
j Ã¡k
h Ã«
ĠÑį ÑĢ
ĠÐº ÐµÑĢ
Ġc or
à®Ļà¯įà®ķà®³ à¯Ī
Ú© ÛĴ
ĠÐ±Ð¾ÑĪÒĽ Ð°
le le
Ġng Ãły
ĠíĨ µ
Ġo m
ÅĽ li
Ùĥ Ùħ
st en
ãĤ ¬
Ġ×Ķ× §
Äģci jas
Ð½Ð¾ Ñİ
ĠÕ ½
Ġo ke
Ð° ÑĩÐµ
Ø§ÙĨ ÙĬ
Ġqu el
ĠS lov
Ã¡ dz
Ġkek ere
Ġà®¨ à®¾à®Ł
Ġer o
àª° àª£
ãģ Ĵ
ĠÉĻ la
Ġs ena
ĠÙĦ Ú¯
ĠÐ½ ÑĥÐ¶
Ġ lar
ÄŁ i
Ã¨ n
Ġay eke
Ġk Ã©sz
no ÅĽÄĩ
Ġí ģ
áĢ¾ áĢŃ
Ð» Ð°Ð³
Ġà´¨ à´¿
Ġáĥ« áĥĲáĥļáĥĺáĥĲáĥľ
Ħ à¸²à¸£
à±ĩà° ¯
ä¸Ģ ä¸ª
à¦¿à¦ Ĺ
ĠØ§ÙĦ ÙĬ
Ġsex o
Ġà´İ à´²àµįà´²
ĠáĢ ĩ
Ľ áĢ¬
áĢ±áĢĽ áĢ¸
ĠÎķÎ»Î»Î¬ Î´Î±
ÈĽ ia
à´° à´£
ĠÐ¢ Ð°Ðº
Î¸ Ïħ
à°¾à° Ĥ
áĥĿáĥľ áĥĺ
æµ ĭ
æ ¢
k en
ĠÎĳ ÏĢÏĮ
àµģà´ķ àµ¾
à¦¿à¦¨ à§įà¦¨
ĠÐ² ÐµÐ»ÑĮÐ¼Ñĸ
áĥļ áĥĶáĥĳáĥĺáĥ¡
ari os
Ïĥ Î¯Î±ÏĤ
à±ĭ à°¡
ĠÐ¿ Ð°Ð¿
à¹ģà¸ ¥à¸°
ĠâĢ ķ
Ġàªķ àª²
Ġpro f
Ġáĥ¡áĥĲáĥ £áĥ
à¸Ńà¸ Ķà¸
Ġh yn
Ð°Ð»Ñĸ ÑģÑı
ãģª ãĤĵ
à°¾à°¨ à°¿
ģ à¹Ī
ĠÙħÙĦ Ú©
Ġ0 7
ãĥĩ ãĤ£
v Äģ
à¤¾à¤Ĥ à¤Ĺ
Ġf f
Ġmat la
Ġà¦® à¦¾à¦°
à¥ĭà¤Ĥ à¤¨à¥ĩ
Ġc y
Ġà¤¸à¤® à¤¯
ĠÐ· Ð°ÑĢ
à¤°à¥įà¤ Ł
Ġ, "
Ġj Ã³
Ã¡ nh
Ġa ur
Ð¼ Ð°Ð¹Ð´Ð¸
Ð· Ð¾Ð´
men ti
al itÃ©
is ha
Ñĩ Ð¸Ð»Ð¸Ðº
el Åĳ
ÅĤ em
Ġku in
Ġw sp
en Ã«
Ġà®ļ à¯ĩà®°
ĠK Äį
ãģĪ ãĤĭ
Ġjs em
ë¬ ´
diy i
Å¯ j
lo ad
ti ck
Ġv Ãµ
ĠÙĪ ÛĮ
ĠÐ¼ ÑĸÑģ
E N
Ġo un
O S
Ġi wá»įn
à«ĩàª ¦
Ø¯ Ùħ
ver s
Ð¸ Ð³
k ÄĻ
à¦¾à¦ ¡
Ġ×ľ ×¢
ãĢ Į
à«Ģàª ¡
yáº¹ whe
y an
à¯ģà® Ļà¯įà®ķ
Ġì ¶Ķ
áĢŃáĢ¯ áĢľ
Ã³ b
Ļàµįà´ ķ
ĠáĥĴ áĥĲáĥł
Ġà¹ģà¸ Īà¸
Ġà°ī à°¦
é¡ µ
ti sch
ĠÐ¿ Ð¾Ð¿
ad os
àµĢ à´¸àµį
áĢ¼ áĢ²
áĢĲ áĢĦáĢ¹áĢ¸
áĢ±áĢ Ĵ
ÎĹ ÎĿ
Ġal le
àµĨà´Ł àµģà´¤àµįà´¤
ĠÑı ÐºÐ°Ñı
ĠÏĥÏħ Î¼Î²
Ġà°ªà±įà°° à°ķ
áĥĶáĥ¡ áĥ¢
ç» Ł
ä¸Ń åĽ½
Ġba ng
Ïģ ÏīÎ½
à´¸ àµįâĢĮ
ĠÅ¡ o
ĠÐ¿ Ð°Ñŀ
Ġáĥ¡áĥĲáĥ¥ áĥĽ
Ġà®¤ à®°
Î¸Îµ ÏĥÎ·
Ġà°µà°¿à° µ
ĠÐľ ÑĸÐ½
¥à¸ ·à¸Ńà¸
Ć Ĉ
ĠG j
ĠÙĩ Ø³Øª
ĠáĥĲáĥ ļ
à¹ĥà¸Ĭ à¹ī
ĠÎ¼Îµ Î³Î±
Ñı ÑģÐ¿
è ¼
Ġà°ļ à°¿à°¤à±įà°°
Ġà¸ §
A R
Î¿Î½ ÏĦÎ¬
ĠFran ce
à«Ģàª ª
à¤ ģ
ĠÎ¬ Î»
ĠÄ ¾
ou ver
à¤¨ à¥ĭà¤Ĥ
Ġ> <
à¤µ à¤¾
ĠÑģ Ð¾Ð½
Ġà¤¸ à¥įà¤Ł
éĸ ¢
Æ°á»£ ng
Ã¡ d
Ø¨ Ø§Ø±
ĠÐĲ Ð¼
Ð»Ð°ÑĢ Ð¸Ð´Ð°
al s
ìļ ¸
ĠÐ¾Ñĩ ÐµÐ½ÑĮ
ĠÑĳ ÑĪ
Ġ ÉĻr
Ġt jer
à®Ł à¯įà®ļ
ĠLatvi jas
m Äģ
pa d
à«ĩàª¶ àª¨
ĠÐºÐ°Ðº Ð¾
Ġv uo
ĠÐ²ÑĬ Ð·
à®¨à¯įà®¤ à¯ģ
atz en
pe le
´ Ī
ÛĮØ§ Úº
Ġnel la
Ð¸ÑģÑĤ ÐµÐ¼
Ġto do
Ġi wadi
Ġc ar
G G
Ġd Ã¼ÅŁ
Ġà¦¦ à¦¿à§Łà§ĩ
Ġ×ĳ ×ª
ãģķ ãģĦ
ĠØ§ÙĦ Ø§
Ġbi ja
Ġlo c
ĠÐ² Ð·
ãĥ Ľ
Ã¹ n
an y
Ġà®®à¯ĩ à®²
Ġà¦Ĩà¦® à¦°à¦¾
ĠáĢ±áĢ ŀ
Ġàªķ àªĤàª
à´¯ àµĨ
Ġáĥ¡áĥ®áĥķ áĥĲ
« à¹ĩ
à±Ģ à°ķ
æĺ Ł
Ġë ©
Ùĳ Ùİ
Ġt jet
Ġà´ª àµģà´±
áĢĶáĢ¹áĢ Ģ
ĠáĢ±áĢ Ĵ
»áĢģ áĢĦáĢ¹áĢ¸
Î¹ Î²
ĠØŃÚ©ÙĪÙħ Øª
Ġà´ĩ à´Ł
Ð²Ð° ÑİÑĨÑĮ
Îº ÎµÎ¹
à±ģà° ¸à±įà°¤
ĠáĥĹáĥĳ áĥĺáĥļáĥĺáĥ¡
å± Ģ
æľĢ æĸ°
à¦¾à¦¨ à¦¾
Îķ ÎĽ
à´ķ à´¾à´°
eg en
ĠÑı ÑŀÐ»Ñı
Ġáĥĵ áĥĲáĥľ
ti vo
Î¾ Î·ÏĤ
à°¾à°Ĥà° Ĺ
ĠÐ¿ÑĢ Ð°Ð³
Ħ à¸Ļà¸
é¦ ĸ
u us
áº¯ c
áĥĺáĥĻ áĥ£áĥłáĥĺ
ª à¹Īà¸§
Ïĥ Î¼Î±
ĠÐ´Ð°Ð¿ Ð°Ð¼
Ø§Ø¯ Ø©
Ġà°¤ à°°
«à¸ ±à¸
Ġbar dzo
ÏĥÏĦÎ¹Î± ÏĦÏĮ
Ð¾Ð± ÑĢ
Ùģ Ø±
à¤¾à¤ £
ha u
à«įàª ¬
Ġcon s
Ġà¤²à¥ĭà¤Ĺ à¥ĭà¤Ĥ
ÏĦ ÎµÎ¹
à¥ĭ à¤°
ĠÑģ Ð°Ð²
à¤µ à¤¾à¤°
à¦¾à¦¥ à§ĩ
Ã¡s ok
Ġz as
Ġ×Ķ× ¡
Ð´ Ð¸Ð½
ĠÑįÑĤ Ð¸ÑĪ
Ġë ķĮ
y on
Ġjs ou
ĠÐ±Ñŀ Ð»Ð¸ÑĪ
t Ã¶
Ã¨ res
ÐµÐ½ Ñĸ
Ġn je
Ã ĭ
Ġnd ry
ni ka
à¯ģà®ķ à®¿à®©à¯įà®±
Ġe dÉĻ
bel isoa
Ġfum ana
ÑĨÐ¸ Ð¾Ð½
ja de
Ġàª°àª¹ à«Ģ
a ux
ĠÚĨ Ø§Ûģ
Ġàªľà«ĭàª Ī
ĠÐ´Ð¾Ð» Ð¶
b á»į
æ§ ĺ
ĠJi whe
Ġdes pre
iy o
ka is
os Å¥
ĠØ³ Ø§Ø²
Ġnu est
re k
c Ã©
ĀĀĀĀĀĀĀĀ ĀĀĀĀĀĀĀĀ
ĠJiwhe yáº¹whe
iÄĻ k
ãģ« ãĤĪ
Ð¿Ð¾Ð² ÑĸÐ´
áĢ¸áĢ±áĢ ĲáĢ¼
á»± c
àµĭ à´²
áĥĶáĥķ áĥĶ
ģà¸ ³à¸
Ġà°¤ à°®
Ġà¤Ĩà¤£ à¤¿
ĠA b
Ġa re
cia s
Ġà´® à´²
ĠáĢĽ áĢ½áĢŃ
áĢĦáĢ· áĢ¹áĢ
áĢ¾ áĢ¬
Î¶ Î¯
Ð¾Ð² Ðµ
à´¸ àµįà´¤
ĠÑŀÑģ Ñĳ
ĠÎĳ ÏĢ
à°¿à°Ĥà°ļ à±ĩ
ĠáĥĲáĥĵ áĥĴ
è ĥ
ç ģ
ÉĻr k
ĠÏĥÏħÎ½ Îµ
ķàµįà´ ·
la o
ÑĨ Ð°Ñŀ
áĥĺáĥľ áĥĺ
Ø´ Ú¯Ø§Ùĩ
ĠÎ¹ ÏĥÏĦÎ¿
à±ĩà° ľ
ĠÐ¿ Ð°Ð·
ª à¹Į
åį ģ
à¦¿à¦ ĸ
àªµ à«ĭ
ĠáĥĻ áĥķ
«à¸ ¥à¸²à¸
h y
Ð»ÐµÑĤ ÐºÑĸ
Ð¾Ð² Ñĸ
Ġà° ĸ
Ĥà¸¶ à¹īà¸Ļ
Ġz d
3 2
Ġpers on
ĠØ§Ø³ ÙĦØ§Ùħ
èį ī
Î¾ ÎµÎ¹
à®ļ à¯į
ÐµÐ½Ð¸ ÐµÐ¼
Ġà¤¤à¤° à¤¹
Ġ0 5
Ġà¤¦ à¤¿à¤²
ĠÐºÐµÑĢ Ð°Ðº
à¤ķ à¤¿
ĠØ¯ ÙĪØ±
Ġà¦ľ à¦¾à¦¤
×ķ× ĺ
Ġal t
Ð»Ð¸Ð³ Ð¸Ð½Ð¸
ĠÐ¼Ñĥ Ñģ
het Åĳ
ëł Ī
Ã¤ mÃ¤
ĠÒĽÑŀ Ð»
Ġme hr
Ġmiej s
Ġdi re
Ð¸ÑĢ Ð°
Ġàªľ àª¾àª¯
Ð¾ÑĢ Ð¸ÑģÑĤ
Ä«g a
me ve
Ġà¦ķ à§ĩà¦¨
ĠÙĩ Ø°Ùĩ
Ġcom m
em o
Ġ ă
Ã¢ u
m Ã¡ny
Ð¼ Ð¾ÑĤÑĢ
Ġni in
à®® à¯įà®®
Ġá¹£ áº¹
da k
Ġw Ãł
Ġàª¨ à«ĭ
ar Äĥ
ÉĻc ÉĻk
Ġà®® à®¾à®¤
Ú© Ùĩ
Ġà¦¤ à¦¬à§ĩ
z en
d Ä«
ë Ķ
gb as
U R
Ġno tre
Ð°Ð¶ Ð´
áĢŃ áĢĶáĢº
ĠÙħ ÛĮØ±
àµįà´ ¨
áĥĴ áĥĲáĥľ
¡ à¸Ļà¸
à±ĩ à°Ĥà°¦à±įà°°
æ ·
es sÃ¤
Ġt om
ĠÐ¾Ñģ Ð¾Ð±
à´¿à´ļàµįà´ļ à´¤àµį
áĢ¯áĢ¶ áĢ¸
ģ áĢ«
áĢ±áĢĲáĢ¬ áĢ¹áĢ
Î®Î¼Îµ ÏģÎ±
Ġt em
àµĩà´° à´³
ĠÐ±Ñĭ Ð»Ñĸ
ĠÎ² Î¬
Ġà°® à±Ĩ
áĥ§ áĥĿáĥ¤
Ġè ¯
Ġæĸ °
à¯įà®¨à¯įà®¤ à¯ģ
ÏĢ Î¹Ïĥ
Ġà´ĩ à´µ
Ø³ Ø±
Ð½ Ð°Ð»ÑĮ
áĥĶáĥĳ áĥĶáĥļ
Ġn da
Î´ ÎµÎ¹
Ġà°° à°¾à°·à±įà°Łà±įà°°
Ñĸ Ð¼Ñĸ
ļà¸ ±à¸
Ġ20 20
àªµàª¾àª¨ à«ĭ
Ġt el
Ġáĥ¡áĥĲáĥ ¨
à¸£ à¹Į
ĠÎºÏĮ Ïĥ
ĠÐ³ Ð¾Ð´Ð·Ðµ
ĠëĤ ¨
à°¿à°ª à±ĭà°¯
ª à¸£
Ġt ÉĻs
ĠÏĥÏħ Î³
cz enia
ĠÐĿ Ð¾Ð²
à¤Ĥà¤¤ à¥įà¤°à¥Ģ
go l
Ġà®ª à¯ģà®¤
Ġh lah
Ġà¤¬ à¤¤
Î½ Î¬
Ġà¤® à¥Į
ĠÐº Ð°ÑĢÐ´
Ġà¤ķ à¤¾à¤®
Ġà¦ķà¦¾à¦° à¦£
sch a
ÑĢÐµ Ð±
em a
ĠÐ½ Ð°ÑĢ
ĠÒĽ Ð¾Ð½ÑĥÐ½
ÙĬØ± Ø©
çĶ »
j mÃ«
ĠÐ¼ ÐµÐ³
da j
Ã² n
c ou
te g
Ð½Ð¸ ÐºÑĸÐ²
d ar
ĠÙħ Ø³ÙĦ
Ġ×Ķ× Ľ
ĠS uom
m at
Ġv os
è¨ Ī
Ġi ta
ĠÚĨ Ú¾
ë§ ¤
Ġàª¤à«ĩ àª¨à«ĩ
Ġë Ħ
à®µ à®°à¯į
Ġni bi
Ø§Ø¯ ÛĮ
om e
ÑĥÑİ ÑĤÑĮ
ÑģÐº Ð¸Ðµ
ÑĬÐ» Ð³Ð°ÑĢ
à®µ à®°
ãģ ¸
Ð² Ð°Ð½Ðµ
p l
ko lo
à¦¨à§įà¦ ¨
d uro
or s
ÉĻb ÉĻr
àªµ àª¾àª°
Ĳ áĢļáĢ¹
bu ie
à´ķàµįà´ °
Ġáĥ¡ áĥŀ
à¹Ģ à¸Ļà¸
à°¿à°ķ à°¾à°°
è¢ «
ĠÑģÑĤ ÑĢÐ°Ð½
á» ĥ
j Ã¡t
àµĬà´° àµģ
ĠáĢ»áĢķ áĢĬáĢ¹áĢ
áĢĳ áĢ²
ĳ áĢ²
Ïĩ ÏģÎ¹
ti va
àµĭ à´§
ĠÐºÐ°Ð¼ Ð¿
ÏĢÎ· ÏģÎµ
à°¿à°¯ à°¾
Ġáĥ£áĥ¤ áĥłáĥĿ
ç ¬¬
åº Ĩ
Ġro ku
ĠÎļ Ïħ
Ġà´¶ àµįà´°
go lo
ĠÐ³ÑįÑĤ ÑĭÐ¼
Ġáĥĵáĥĺáĥĵ áĥĺ
Ġvet Ã«m
Ïĥ Î¿ÏħÎ¼Îµ
à°°à±įà° ®
ĠÐŁ ÑĢÑĭ
à¹Ĥà¸£à¸ĩ à¹ģà¸£à¸
å ŀ
Ġà¦¸ à§ĩà¦ĩ
àª°à«įàª £
ĠáĥłáĥĿáĥĴ áĥĿáĥł
ŀ à¸´
Î¼ Î±Î¹
Ð· Ðµ
Øª Ùĩ
Ġà°ľ à°¨
łà¸ ±à¸
Ġdi en
ĠÎ½ Îµ
à®² à®¿à®²à¯į
Õ £
à¤Ĥ à¤ª
ĠÏĩÏī ÏģÎ¯ÏĤ
Ã¼r k
ny t
åķ ª
ĠÎ¬ Î½
à¥įà¤¯ à¥ĭà¤Ĥ
Ð°Ð¼ Ð»
Ġå¤ ©
Ġi tem
Ġìĸ ´ë
Õ¡Õ ¬
ĠÐł Ðħ
Ð»Ð¸ ÒĽ
Ð ĳ
re ich
Ġngo e
tso a
ĠÒĽÐ¸Ð» Ð¸Ð½
Ġfa ce
ĠÐ· Ð±
Ġc ol
Ġh asz
Ø· Ø©
à§Ģ à¦Ĺ
à¦¿à¦ ı
Ġ×ĳ ×Ķ
ä¾ ¡
Ġs ho
b ÃŃ
Ġàª¦ à«ĩàª¶
Ġnigba ti
ĠØ¨Ø§ Ø´Ø¯
do t
à®µ à®°à¯įà®ķà®³
Ġe mp
r en
h áº¹
Ø§Ø¨ ÙĤ
or un
ÑĤ Ñĸ
z o
ĠÐŁ Ð¾
j Ã¤
Ġãĥ Ĳ
Ġë° ľ
uy Ãªn
Ġloke la
Ġà¦¤ à¦¾
own load
ĠÛģÙĪ ÙĨÛĴ
Ġd ÉĻy
Ð°Ð» Ð¸Ð·
áĢĬ áĢ¬
ĠO d
àµģà´ķ àµĬ
áĥĲáĥ «áĥļ
à¸Ńà¸¢à¹Īà¸²à¸ ĩ
à±įà°° à±Ĩ
ç§ į
Ġan s
ãĤĵ ãģª
g Äģ
à´¯ à´¿àµ½
ĠáĢ¥ áĢ®áĢ¸áĢ
áģ ģáģ
áĢĲáĢ½ áĢ±
Î»Î¯ Î¿Ïħ
ĠkÃ¶n nen
Ġà´¨à´¿à´° àµįâĢį
ĠÐ³ ÑĥÐ»ÑĮ
ÏĨ Ïħ
Ġà°¸à°¿à°¨à°¿à°® à°¾
áĥĶáĥ ŀ
ĠãĢ Ĭ
ç¤ º
ĠÑĤ Ð¸
ĠÎºÎ±Î¸ ÏİÏĤ
Ġà´µ à´¿
Ġd it
ĠÐ±Ñĭ Ð»Ð°
ĠáĥĶ áĥ¥
Ġc el
Î¸ Î±
Ġà° Ĳ
Ð°ÑĢ ÑĤ
Ġ à¹Ħà¸Ķà¹ī
åľ° åĿĢ
à¦² à§įà¦ª
Ġà®İà®© à¯į
Ġáĥ¡áĥĲáĥ Ķ
à¹ Ĭà¸
ĠÏĦ ÏģÏĮ
ÑĢÐ° ÑĨÑĮ
Ã¡s t
Ġà°ħ à°Ĥà°Ł
à¸£à¸£à¸ ¡à¸
ĠbÄĻ dzie
Î¹Î½ Î®
Ġà®ķ à®¿à®Ł
ĠÕ ¾
à¤° à¤£
ĠÏĢÏģÎ¿Ïĥ Ïī
Ġdey il
Ġl is
à¤ķ à¥įà¤Ł
ĠÎ» ÎŃ
Ġæ¬ §ç¾İ
ĠÑĥ Ð½Ð¸Ð½Ð³
è ķ
ĠØ¨ ÙĬÙĨ
Ġà®ħ à®ªà¯įà®ª
Ġin c
v in
ĠÑĦÐ°Ð¾ Ð»Ð¸
ĠÐ¾Ð´ Ð°Ð¼
ãģĹãģ¦ ãģĦãĤĭ
×ķ ×Ļ
Ġàª¤à«ĩ àª¨àª¾
ĠÒ³Ð°ÒĽ Ð¸Ð´Ð°
ĠØ§ Ú¯Ø±
Ġt ÉĻm
ce j
m et
ĠÐ½ Ð°Ð¹
à§Ł à§ĩà¦°
ĠÐ¼ ÐµÑĤ
Ġw ur
Ġëį Ķ
Ġz ak
áº· c
ĠÑģ Ñĩ
Ġba yi
à¦¾à¦ ī
Ġàª¬ à«ĩ
à¯Ĥ à®°
ÅĨ a
Ùģ Ø©
rin a
éĸ ĭ
ĠI t
r Ã³l
Ð°Ðº ÐµÐ´
Ð¸ Ð¶
cion al
àª¾àª¨ à«ģàªĤ
end re
Ġtsa ma
Ġ×Ķ× Ĵ
à§ģà¦ §
st er
Ġw ana
Ã¶y Ã¼k
Ġes sere
Ľ áĢ½
le j
Ġà´ªà´±à´ŀàµįà´ŀ àµģ
ĠáĥĽáĥ® áĥĿáĥļáĥĿáĥĵ
«à¸£à¸ ·à¸Ńà¸
Ġà°ļà°¾à°² à°¾
å¾ Ī
Ġda u
ĠÚ¯ Ø¦ÛĮ
as t
àµ¼ à´¤àµįà´¤
ĠáĢ±áĢ ķ
ĲáĢ¼ áĢĦáĢ¹
áĢ ĵ
Î´ ÏģÎ¿
Ð½Ð¸ Ð¾ÑĤ
Ġà´¸ à´¿
Ð² Ñı
ĠÎ³ Î½Ïī
Ġà°ļà±ĩà°¸ à°¿à°¨
Ġáĥ¡áĥĲáĥ ĸ
çĿ Ģ
èµ Į
ĠÐ¿ÑĢ Ð¾Ð³
ĠÎĶÎ· Î¼Î¿
Ġà´¸ à´¹
ĠØ§ Ø¬
ÑģÐºÑĸ Ð¼
Ġáĥ £
Ġ ul
ĠÎ£ Î¥
Ġà°ª à°¦
Ð° ÑİÑĨÑĮ
à¹Ĥà¸ ¥à¸
åħ ¶
Ġà¦ı à¦²
à®¿à®¯ à¯ĩ
áĥĲáĥķáĥ¨ áĥĺáĥł
«à¸Ļ à¹īà¸²
Ġ3 6
ĠÐŁ ÐµÑĢ
Åĳ s
¸ à±įà°¥
ªà¸´ à¸Ļà¸
Ġts hw
3 5
Ġà®ī à®±
ĠÅ ļ
à¤¾à¤¤ à¥įà¤°
8 0
ĠàªŁ à«įàª°
Ġv ÄĽ
ĠåĽ ½
Î´ Ïİ
Ġà¤µ à¥ĩ
ĠÑį ÐºÐ°Ð½
Ġà¤ľ à¥Ī
C I
x i
ĠÛ °
ĠÛ±Û³Û ¹Û
ĠÑĤÐ°ÑĬ Ð¼Ð¸Ð½
Ð¸Ð» Ð¸ÑĪ
Ùĩ ÙĨÚ¯
à¯Īà® ®
ĠÅ¡ t
ĠÐŁÑĢ ÐµÐ·Ð¸Ð´
íĨ µ
Ġin i
wie t
lÉĻrin in
ÙĬ Ø²
Ġà¦¶ à§ģà¦°à§ģ
ĠÑįÑĤ Ð¾Ð¼
y or
ti ques
ier w
ni ng
ÑĢ Ð¾Ðº
Ġor iláº¹
Ġà¦ªà¦° à§įà¦¯
Ġm os
Ġà®ħ à®²à¯įà®²
æ© Ł
it ta
r is
Ð¡ Ðĥ
Ġa wá»į
Ñİ ÑĤÑĮÑģÑı
Ġàª¶ à«ģàªĤ
ÐºÐ° Ñĩ
ĠkÃ¶ r
Ù¹ Ú¾
rim on
b rie
à«Ģ àª¨à«Ģ
í Ĥ
Ãº n
Ø§ÙĦ Ùħ
ci i
Ġãĥ ŀ
áĢ±áĢĢ áĢ¬áĢĦáĢ¹áĢ¸
Ġsa j
Ġà´ķ àµĩà´°à´³
áĥĺáĥłáĥ ĵ
Ġà¸ ¢
à°°à±įà° ¥
à¥įà¤¯ à¤¾à¤ļ
ĠÕ¸ ÖĤ
Õ ¬
Ġin san
àµĨà´Ļàµįà´ķ à´¿à´²àµģà´Ĥ
ĠáĢ ¦
ĠáĢ±áĢ ¡
áģ ¤
ĠÎ¿ Î¼Î¬
Ġjak o
àµĤ à´°
ĠÑģÐ¿ ÑĢÐ°Ð²
Î Ĵ
Ġà°¸ à±įà°ª
áĥĶáĥĳ áĥĶáĥľ
å¦ Ĥ
è Ļ
ĠÐ¼ Ð¾Ð³
ĠÎ±Î½ ÏĦÎ¯
Ġà´ħ à´Ń
Ùģ ÛĮ
Ñĩ Ð°Ð¹
áĥĶáĥĳ áĥĿáĥĵáĥĲ
ĠV o
Î¼ Î¯
Ġà°¦ à±ĩà°¶
ÑĢ Ð°ÑĨ
Ĭà¸ ¸à¸
åĸľ æ¬¢
ĠàªĨ àªĹ
Ġ×ľ ×©
áĥ£áĥ ¥
Ĭ à¸µà¸
ĠÎº ÏģÎ¹
ĠÑĤ Ð°Ð³Ð¾
Ġpers onn
Ġà°ªà±įà°° à°ľ
à¹īà¸²à¸ ĩ
Ġdi k
Î½ Ïİ
Ġà¦® à§ģ
Äģr t
à¤¸ à¥įà¤Ł
ĠÏĦÎ¹ Î¼
Ġa po
h ta
à¶ »
Ġbo d
Ġà¤¹à¥ģà¤ Ĩ
ĠÐ¹Ñŀ ÒĽ
Ġà¤¹à¥ĭ à¤¤à¤¾
ãģª ãĤī
Ġà¦ª à§ģà¦²
ĠØ± Ø³
in k
ÑĥÐ¼Ò³ÑĥÑĢ Ð¸Ð¸
ĠÒĽÐ°ÑĢ Ð¾ÑĢ
Ġàª® à«Ĥ
z na
ĠF e
Ð ¨
éĢ ģ
Ġma gyar
es en
Ġm ol
ĠÐº Ð¾Ð¸
à§ĩà¦² à§ĩ
ĠÐ¾Ð± Ð»Ð°ÑģÑĤ
ĠØ¯ Ùĩ
Ã¡ p
m ay
ĠØ§ Ûģ
Ð» ÐµÐ¼
p áº¹
ë¡ Ŀ
Ġe ff
Ġà¦¹ à¦¿à¦¸
ãģĤãĤĬ ãģ¾ãģĻ
ca do
Ġ? ?
uks en
Ġimá»į ran
ĠÙĩ ÙĪ
\ "
cz ny
Ġala p
Ġàª¤ à«įàª°
ĠN u
ĠD om
ÃŃ as
us i
a ts
ĠÐ°Ð² ÑĤÐ¾Ð¼
ÈĻ ti
Ġaut res
áĢĲáĢ¼ áĢĦáĢ¹áĢ¸
Ġ×© ×Ĳ
àµģà´¤ à´¿à´¯
áĥł áĥĲ
Ħà¸£à¸Ķà¸´à¸ ķà¸
Ġà°® à±ģà°
äº Ľ
S T
ĠÙ¾ Úĳ
Ġà®ļ à®¨à¯įà®¤
à´ķàµįà´ķ à´¾à´°
áĢŃ áĢĲáĢº
áĢľ áĢ¯áĢķáĢº
ģ áĢ¯
ÎĻÎļ ÎĹ
ik e
Ġà´ª àµĨ
ĠÐº ÑĥÐ»ÑĮÑĤÑĥÑĢ
ĠÎ¬ Î»Î»
à±ģà° ¬
Ġáĥ Ń
æĽ ´
æł ·
ÃŃ s
Î¼Î¹ Î¿ÏħÏģÎ³
àµĭà´Ł àµĨ
p is
ĠÐ±Ñĭ ÑĨÑĮ
ĠáĥĽ áĥĿáĥķ
Ġya ÅŁ
ĠÏĩÏģÏĮ Î½Î¹Î±
à°¾à°¦ à±ģ
Ñĳ Ñŀ
à¹ģ à¸Ļà¸
å¯ ¼
Ġàªķàª¹ à«įàª¯à«ģàªĤ
ĠØ§ÙĦØ° ÙĬ
áĥ ©
¢ à¹Į
ĠÎµÏĢ Î±
ĠÑģÐº Ð»Ð°Ð´
Ġv iá»ĩc
à°¬ à±įà°¬
Ġà¸ ģà¸²à¸£
Ð½Ð¾ ÑĤÐ¾
ĠÎ¼ Î¯Î±
ÑĢÑĥ Ð¿
à¦ķ à§ĩà¦°
Ġà¤ī à¤¤
Î¸ ÏħÎ½
Ġà®ª à¯ĩà®ļ
Ġ0 2
Ġà¤ĩà¤¸ à¤ķà¥ĩ
Î» Î¹Î±
A V
ĠÐ°Ð¼Ð°Ð» Ð³Ð°
à¥Ĥ à¤¸
íķ Ń
jo t
ĠØ¨ Ø¯
Ã©n ek
Ð Ĺ
ĠÐ± Ð°Ð»
à«Ģ àª®àª¾àªĤ
Ġr Ã³w
c um
ĠÑĤÐ°Ð´ Ð±Ð¸ÑĢ
n om
Ġ×Ĳ ×ķ
nÃ© es
Ġà¦¤à¦¾à¦° à¦¾
Ġà®Ĩ à®°
b eit
Õ¥Õ ½
Ġq o
Ġh i
ë ¯¼
gli o
ÑĤ ÑĢ
Ġpa a
ĠS ek
te ng
èī ¯
ĠØ¨Ûģ Øª
Ã¸ r
Ġá»Į lá»į
Ġshqip tar
Ġh áº¹n
Ġm irÃ«
skie go
cz nych
Ġy hte
àª° àª®àª¾àªĤ
ce p
Ġâ ľ
à¯Ĭ à®°
ĠÐ¿ÑĢ Ð¸Ð¼
y á»į
Ġb is
le d
ĠãģĿ ãĤĮ
±áĢ ¡
Ġti kai
à´¿à´ķàµįà´ķàµģà´¨àµįà´¨ à´¤
Ġáĥ¬ áĥ§
ģ à¹ĩ
Ġà°µ à°¸à±įà°¤
è ¥¿
à«ģ àª¸
Ġs pe
Ġhlo ka
Ġà´µ àµĪ
áĢĽ áĢĦáĢ¹
áĢĻáĢ» áĢ¬áĢ¸
áĢħ áģ¥
ÎµÎ¹ ÏĦÎ¿ÏħÏģÎ³
Ġya z
Ġà´ķ à´°
Ñĥ ÑĩÑĭ
Ïħ Ïĩ
à°µ à±įà°µ
Ġáĥ£áĥ Ľ
æİ Ĵ
åĪ Ĺ
Ñĸ Ð¶
Î» Î¯Î±
Ġà´¨ à´¿à´¯
Ġt art
ĠÐ³ Ð°Ð»
Ġáĥł áĥĶ
ĠØ¬ Ùĩ
Î³ Î¼Î±
Ġà°® à±Ĥà°
Ð´ Ð¶
Ħà¸ ´à¸
éĿ ŀ
Ġà¦¨ à§ĩà¦¤
Ġr Ã©p
áĥĶáĥ £áĥļ
§à¸ ¥
Ġgy da
Ð°ÑĤ Ð°ÑĢ
e en
à°¬ à°¡
Ġà¸ Ī
ÉĻd ÉĻr
Ġme wn
ĠÑı Ð²Ð»Ñı
à¦¨à§įà¦¤à§įà¦° à§Ģ
Ġà¤Ĺ à¤ı
ĠÎ¼ ÏĢ
ĠM u
Ġë° ı
Ġà¤¦à¥įà¤µ à¤¾à¤°à¤¾
Ġ3 5
à¶ Ń
ĠÑĤ Ð°Ð²
Ġà¤Ĩ à¤°
à¦ŀ à§įà¦ľ
bb li
ĠìĽ Ĳ
m m
ĠÐ¼Ðµ Ò³
Ð°Ð¼Ð» Ð°ÐºÐ°ÑĤ
ĠSex o
d or
Øµ ÙĦ
Ð¸ÑĤ Ð¾Ð±
àª°à«įàª ¸
Ġpar t
Ġa da
Ġà®¤ à¯ĭ
k om
Ġph áº£i
Ġà¦¹à¦ļ à§įà¦Ľà§ĩ
i te
ĠÑģÐ» ÐµÐ´
ca to
Ġg ÅĤ
Ġel len
Ġk uro
æ´ »
Ġàª¨ àª¾àª®
Ġbo t
à®¿à®¯ à®¿à®©à¯į
le p
Ġo po
Ġja un
ĠE yi
m ak
ent os
c ch
ĠØ·Ø± ØŃ
àª° àª¸
m Äĥ
cj ÄĻ
om o
Ùĥ Øª
ĠC as
ĠãĤ ¤
N o
ì² Ń
áĢ¯áĢŃ áĢĢáĢ¹áĢ
ÑģÑĮ ÐºÑĸ
àµĩ à´¾
Ġáĥ¡áĥĲáĥ ĺ
Ĺà¸µà¹Īà¸ ªà¸¸à¸Ķ
Ġà°ªà°¾à°° à±įà°Łà±Ģ
æĢİ ä¹Ī
Ø¹ ÛĮ
lan d
ĠÐ± ÑĬ
àµĭà´Ł àµį
áĢ¯áĢŃ áĢĦáĢ¹áĢ¸
Ł áĢ¬
ĠáĢ¡áĢ² áĢĴáĢ®
Î±Ïĥ Î¯Î±
¦ à«įàª°
Ġà´İ à´Ĥ
ĠÐ´ Ñį
ĠÎŃ Îº
Ġà°®à±Ĭ à°¦
ĠáĥĻ áĥĲáĥłáĥĴ
å¾ ĭ
éľ ¸
×ŀ ×¨
ÏĦ Ïĥ
à´° àµĨ
ĠÑĢÐµ ÑĪ
ĠÑĥ Ð·
Ġáĥ¨áĥĶ áĥĺáĥ«áĥļ
ma tion
âĢ ¦
Ġà°® à°¾à°¤à±įà°°
Ð² Ðµ
Ġà¸ ¢à¸
åİ »
Ġà¦¸ à¦¾à¦¥à§ĩ
Äģd Äģ
Ġáĥ§ áĥĿáĥķ
à¹Ģà¸ Ĺ
ĠÎ¼ Î¬
ĠÐ ®
us s
Ġà°ľ à°°à°¿à°Ĺ
à¹Ģà¸ Ĭ
Ġà®ļ à®°
ĠÎ±Ïħ ÏĦÎ¬
k Ã¡
ĠS u
à¤Ĥ à¤ľ
ĠÎ²Î± Î¸
Ð° Ñĺ
Ġê± °
20 19
4 0
Ġà¤¸ à¥ĭ
Ð¾ÑĢ Ð¾
à¥ĩ à¤¨
Ã¡l ne
Ġà§ §
ĠÑĤÐ°Ðº Ð¾Ð¶
à¯Īà®ķà¯įà®ķ à¯ģ
ĠÐ¢ Ð¾ÑĪ
ĠÒĽ Ð¸Ñģ
ÛĮÚ© Ú¾
Ø§Ø «
u wa
ĠÐ¿ Ð°Ð¹
àª¾àªĤ àªļ
ĠC e
Ġà¦¸ à¦¦
ÑĢ Ð°Ñģ
ãĥ İ
Ġgjith Ã«
ÃŃt Ã³
Ġà¦ªà§įà¦° à¦¶
c or
Å¼ a
ĠC unoaÈĻte
Ġr om
ĠG bo
tor ul
Ġàª® àª¨
ĠÐ´ ÐµÐ½ÑĮ
ħ n
uu ta
ĠB i
à®Ł à¯į
Ġáº¹ ká»į
Ø® Øµ
ì° ¨
Ġt iek
lara q
Ġ' ).
ç Ł¥
Ð½Ð¸ ÐºÐ¸
Ã¡c ie
Ġak kor
f in
b ÄĽ
Ġi k
Ġest Ã¡
áĢ±áĢ¬áĢĦáĢº áĢ¸
Ġt ek
Ġà´ķ à´Ł
áĥĿáĥľ áĥĺáĥ¡
à¹Īà¸²à¸ ¢
Ġà°µà°¿à° ľ
ç§ ĳ
Ġth Ãłnh
ti ce
dh Ã«
Ġà´° à´£àµįà´Ł
áĢĬ áĢ·
áĢħ áĢ¯
ŀ áĢ¼áĢ¬áĢ¸áĢ
Îµ Î²
à«įàª¯ àª¾àª°à«ĩ
à´¦àµįà´¦ àµĩà´¹
ÑĨ ÐµÐ¹
Î¼Î² ÏģÎ¯Î¿Ïħ
Ġà°ħà°¯ à°¿à°¤à±ĩ
áĥĺáĥ¢ áĥĶáĥ¢
Ġç »
è Ħ
p ri
ĠÎµ Î¹Ïĥ
à´Ļàµįà´Ļà´³ àµģà´Ĥ
ĠÐ¾ÑĢÐ³Ð°Ð½ Ð¸Ð·
ÑıÐ´ Ð¾Ð¼
áĥĶáĥĳ áĥĹ
Ġj us
ĠÏĥÏĩ ÎŃ
à±ĩ à°¨
Ð´Ð· Ñı
Ġ à¹Ħà¸
æĭ ¿
à¦¥ à¦®
Ġz osta
ĠáĥĻáĥĿáĥĽ áĥŀ
Īà¸ °à¹Ģà¸
Î¯Î¶ ÎµÎ¹
ĠÐ³Ð°Ð´ Ð¾Ñŀ
Ġet mÉĻk
Ġà°ľ à°°
à¸£à¸µà¸ §à¸´à¸
à¯ĩ à®¯
G H
ĠØ§ ÙĨØ¯
×ŀ× ª
Ġà¤¹ à¤°
Ïĩ ÎµÎ¯Î¿
b les
Ġol yan
à¤µ à¥Ģ
ĠÎµ Î½Î·
Ġà¤® à¤¨
ĠÑĢ Ð¸Ð²
Ġà¤¨ à¤¾à¤®
ì§Ģ ë§Į
à¦¾à¦° à§įà¦¥
ĠUn ter
va d
ĠÑĤ Ð°Ð¹
ĠÐ¸ Ñĩ
ĠM e
ĠØ¢Ùħ ÙĪØ²
Ð¾Ð² Ð¸
Ñĥ Òĵ
Ġàªķ à«ĩàªŁàª²
ãģĪ ãģ¦
Ġa by
ĠÐľ Ð¾ÑģÐº
à®Ļà¯įà®ķà®³ à®¿à®²à¯į
Ġpar ti
à¦¾à¦ Ń
ÙĦ Ùĩ
Ġk lo
Ġt ul
l he
ãĢ ħ
Ġw hen
Ðµ ÑĩÐµ
Ġàª¤à«ĩ àª¨à«Ģ
Ð½Ð¸Ðº Ð¾Ð²
Ġf eta
em ents
i má»į
an ti
Ġsh ay
ĠÐ· Ð°Ñģ
Ø¹ Ùħ
Ġfo arte
± c
ĠÚ©Ø´ ÙĪØ±
Å«s u
ĠÐ¾ ÑģÑĤ
×ĳ ×¢
Ġà¦ªà§ģà¦² à¦¿à¦¶
Ġ. +
ĠgÃ¶st ÉĻr
ãģ§ãģį ãĤĭ
Ġm bi
áĢ±áĢ ĺ
Ġszer int
Ġà´Ĩ à´µ
áĥĲáĥłáĥ Ļ
łà¸²à¸ ŀ
à±ĩà°¦ à±ģ
èģ Ķ
Ġsi te
Ø£ ÙĨ
Ġw z
Ġà´¤àµģà´Ł à´Ļàµįà´Ļ
áĢ±áĢ ĳ
áĢĬ áĢ®
áĢ±áĢ Ĳ
ĠÎ£ ÏĦÎ·
à®¿à®ķà¯įà®ķ à¯ģ
Ġà´Ĩ à´¯
Ñģ ÑĨÑĮ
Ïĥ ÏĥÎ±
à±įà°¯ à±Ĥà°
áĥĵ áĥĶáĥ¡
å¸ ¸
ä¸ ľ
n ou
ÏĨ ÏĮ
àµĨà´¯ à´¾à´£àµį
Ñĥ Ñī
ĠâĢĿ .
ĠáĥĲáĥķ áĥ¢
der n
ĠÎł Î¡
Ġà°ķ à±įà°°
ĠÐ» ÑĸÑĤ
à¹Ģà¸ Ľà¹ĩà¸Ļ
èĢ ģ
Ġà¦¸ à¦Ń
te en
áĥĹ áĥ®áĥķ
Ħ à¸Ļ
Ġ0 1
Ñı Ñģ
àª° à«ĭ
à°¾à° Ĺà°¾
Ġà¸ ¡
x x
ĠR o
Ġpri mer
Ġìĭ ¤
Ġà¤īà¤¨à¥įà¤¹ à¥ĭà¤Ĥà¤¨à¥ĩ
ĠÂ §
ĠÐŁ ÑĢÐ¾
Ġpro pos
Ġà¤¸à¤ķ à¤¤à¤¾
ri f
Ġà¤ķà¤° à¤¨à¤¾
ĠÑĩÐ¸ÒĽ Ð°ÑĢ
in di
c ak
à¦² à¦¾
ĠÐ´ Ñĸ
Ġn ov
Ð°Ñģ Ð¸Ð½Ð¸
ĠÐ´Ð¸ Ð³Ð°ÑĢ
Å£ Äĥ
ti ve
ĠàªĨàªľ à«ĩ
ĠÒ¶ ÑĥÐ¼Ò³ÑĥÑĢÐ¸Ð¸
Ġà®ħà®µ à®°à¯įà®ķà®³
Ġka ma
a ele
ĠÐ´ Ð¾ÑģÑĤ
Ġli p
ĠØ§Ù ı
Ġà¦¬ à¦¿à¦°
×ĵ ×¨
Ġm il
ĠØ§Ø³Øª Ùģ
Ġk en
Ġàª¬ à«ĭàª²
Ġo ru
í Ŀ
ÙĨ Ø©
ĠëĤ ´
li mo
à¯Īà®¯ à®¾à®ķ
Ġy an
ĠÛģ Ø±
Ġb áº¹
Ġ38 0
Ð² ÑĸÑĤ
Ġàª° àª®
Ð°Ð½ Ð¸Ð¸
éķ ·
ëĤ ´
Ġs as
ur Äĥ
Ġà§§à§ ¦
to rina
ÙĦØ§ Ùģ
go k
at to
áĢĦáĢ¹áĢ ľ
Ġtra ba
Ġà´µà´¿à´ ¦
áĥĲáĥĵ áĥĺ
Ġ à¹ĥà¸Ļà¸
à°Ĥà° ľ
Ġæ Ŀ
Ġktor Ã½
Ġf on
Ðµ Ð±
à´® à´¾à´ķàµįà´ķ
áĢĶáĢ¹áĢ Ĳ
± áĢĢ
ĠáģĤ áģ
Î±Î¹ Î¿
in n
Ġà´ļ à´¿à´¤àµįà´°
Ð»Ñı Ð´
Î¸ ÏģÏī
à°§ à±įà°¯
áĥĲáĥĽáĥĵ áĥĶ
åĪĨ æĹ¶æĹ¶å½©
Ġ222 70
as a
ÎŁÎ ľ
à´· àµįà´Ł
ÙĪ Ø§Ùħ
ĠÐ¿ÑĢ Ð°Ð·
ĠáĥĲáĥ® áĥĲáĥļáĥĺ
Ġth Ã¬
Ïĥ Îº
Ġà°ħ à°¸
Ñį Ð·
Ĺ à¸£à¸
è½ ¯
Ġà¦¸ à¦ķ
Ġa tÃ«
ĠáĥĶ áĥļ
Ġà¸ ¥à¸
ÏģÎ¿ ÏĨÎ¿
Ñĩ Ð°Ñģ
à«įàª¯ à«ģàª
Ġà°ª à±Ī
§ à¸Ļ
à® ľ
ÏĥÎ¹Î¼Î¿ ÏĢÎ¿Î¹
ĠØ£ ÙĬ
ìĸ ´ë
èķ ī
Ġ... </
ali dad
ĠÙħ Ø±Ø¯
à¤ Ĩ
ĠÏĢ ÎŃ
à¤¾à¤ Ł
Ð² Ð°Ð»
à¥Ģ à¤¡
ĠdÃ© p
à¦¤ à¦¾à¦°
è¨ ĺ
Ġver il
Ð´ ÐµÐº
ĠÑĢ Ð°Ò³
v nÃŃ
Ġ×ľ ×¤
Ġàªªà«ĭàª² à«Ģàª¸
Ð¸Ñĳ ÑĤ
Ġv u
ĠS o
Ġjo ale
Ġdre j
Ġtlo ha
Ø§Ø¦ ÙĨ
Ġà¦ªà§įà¦° à¦¥à¦®
ĠØ® Ø±
à®ªà¯įà®ªà®Ł à®¿
Ð°Ð½ ÐµÑĤÐ¾
ĠK ey
Ġàª« àª¿àª²
Ġil áº¹
ĠÐ¿Ð¾ Ñĩ
at en
iek Å¡
le tsa
æĮ ģ
ĠLa ti
u ale
ĠC o
ĠØ§Ø³ØªÙģ Ø§Ø¯Ùĩ
ĠÆı liy
àª² à«Ģ
ĠgÃ¶ z
ĠN em
à®¿à® ¸
Ġhá»į c
li ca
Ġà¦Ĩ à¦Ľà§ĩ
á»į rá»į
Ġp jes
ĠD z
ÑħÐ¾Ð´ Ð¸Ð¼
áĢħ áĢ¬
Ġr Ã©g
Ġà´® à´±àµįà´±
áĥĺáĥĵ áĥĲ
Ġà¸ Ĭ
Ġà°µà°¿à° ¦
Ġè ®
un a
ĠÐ Ħ
ï ¾
àµĭ à´°àµįâĢį
áĢĸ áĢ½
áĢ¡ áĢĲáĢ¼áĢĢáĢ¹
áĢľ áĢĬáĢºáĢ¸
Î³ Ïĩ
ãģ« ãģ¤
à´¿à´ķàµįà´ķ à´¾à´¨àµįâĢį
Ð°Ð¶ Ñĭ
Ġá¼ Ĳ
à±įà°Ł à±į
ĠáĥĹ áĥĲáĥĽ
æ ¨
à¤¾à¤ ł
Ġë§ Ĳ
Ïĥ Î¹Î¿
Ġà´® à´¤
Ð°ÑĨÐ¸ Ð¾Ð½
ĠÐ¿Ð°Ð² ÑĸÐ½
áĥĶáĥľ áĥĺ
Ġz w
ĠÎµ Î»Î»Î·Î½
à°² à±įà°²à±ĭ
ĠÑĤ Ð²Ð¾ÑĢ
Ġà¸ Īà¸²à¸ģ
åĢ ¼
à§ģà¦ ľ
os ti
áĥĿáĥĳ áĥĺáĥĹ
Ġà¸ Ľà¸£à¸°à¸
ĠÐł Òĳ
ĠÑĪ Ð¼Ð°ÑĤ
Ġàª¬ àª¾àª¦
Ġà°Ĩ à°®à±Ĩ
à¸Ļà¸± à¹īà¸Ļ
ve zet
ĠÐ¡Ð Ĭ
ĠA d
ÙĬ ÙĪ
à¤ļà¥įà¤ Ľ
ĠÎµÏĢÎ¯ ÏĥÎ·ÏĤ
nie c
Ġà®ªà®¾à®° à¯įà®¤à¯įà®¤
Ġà¤ª à¥Ī
D R
à¤¾à¤° à¥ĩ
Ð½Ð¾ Ñģ
Ġà¤ª à¤¾à¤°
k ow
à¦¬ à¦°
Ð°ÑĨ ÑĸÐ¹
Ú¯ Ø§ÙĨ
Ðº ÑĥÑĢ
Ð¸Ñģ Ð¾Ð´
à®± à¯ģ
×ł ×Ļ×Ŀ
Ġàª® àª¾àª¨
ĠÑĩ Ð¾ÑĢ
for ma
Ġt arix
Ġb an
Ð¾Ð± Ñī
Ġfe to
ĠÑĤ ÐµÑĢ
Ġà¦īà¦ª à¦ľ
ĠÐ½Ð° Ñĺ
Å¡ Ä·
ìĹ Ī
Ġe ona
ĠàªĨ àª°
ĠF i
j an
b ei
Ø¬ Ùħ
Ġth us
Ð°ÑĨ ÑĸÑı
Ġat un
Ġtemp s
k Ãłn
â Ķ
ĠÛģ ÙĪÚº
Ġàªķàª° à«ĭ
b t
in y
ãĥª ãĥ¼
m as
ÈĽ a
Ġà¦¬ à¦¾à§ľ
ĠM ay
Ļ à¯įà®ķà®³à¯į
v ent
Ġbiz t
áĢ¸áĢ ķ
fa dÉĻ
Ġà´İà´¨àµįà´¨ àµį
áĥĶáĥ ¨
ªà¸ ±à¸
à°¿à°¸à±įà°¤ à±ģà°¨à±įà°¨
æī ĳåħĭ
ĠÐ¿ÑĢ Ð¸Ð²
Ġm es
áº± ng
Ġà´ķà´´ à´¿à´ŀàµįà´ŀ
ĠáĢĻ áĢ½
ĠáĢ¡ áĢĨ
Ġáģ Ħ
ĠÎĿ Î±
Ø¬ ÙĪØ¯
Ġà´° àµĤà´ª
Ð½ÑĸÑĨ ÑĤÐ²Ð°
ÏĨ Î¬
à°² à°ķà±ģ
áĥĿáĥĳ áĥļ
éĹ ®
à¥Ģ à¤²
ĠÐ¼ ÑĸÑģÑĤ
ĠÏĢÎµÏģÎ¹ÏĥÏĥÏĮÏĦÎµ ÏģÎ±
àµģà´ ·
ãĥ¼ãĤ º
ÑĦ Ð°ÑĢÐ¼
áĥĿáĥ ¥
un n
ĠÎĳ ÎĿ
à±ĭ à°µ
ĠÑģ ÑĮ
à¹ģ à¸Ļ
å¸ Ī
à§ĩà¦¬ à§ĩ
Ġmar rÃ«
áĥĹ áĥĲáĥķ
à¸²à¸ªà¸´ à¹Ĥà¸Ļ
ĠÏĢ ÏģÎ¬
ĠÐĲ Ð»Ñı
Ġàª¤à«ĩàª ĵ
Ġà°ªà±ĭ à°²
à¸£à¸°à¸ ļà¸
Ġgi or
G B
Ġz ijn
ĠÐķ ÑģÐ»Ð¸
Ġà¤ħ à¤®
ĠÐłÒĳ Ðł
eni u
Ġà®ªà¯ĭ à®²
Ġà¤¸ à¤¾à¤²
ĠÎº ÏģÎ¹ÏĦÎ¹ÎºÎŃÏĤ
à· Ķ
Ð¸Ð½ ÑĩÐ¸
à¤°à¥įà¤ ľ
ĠãĤ ¯
Ġà¦¶ à§ĩà¦·
agy ar
l ung
Ð¸Ð» Ð¸ÑĪÐ¸
ĠÑı Ñħ
il Ã¡g
ĠØ§ÙĦÙħ Øª
ĠÙĪ ÙĤØª
ĠÐ²Ð° ÒĽÑĤ
ĠÐ²Ð¾Ð· Ð¼Ð¾Ð¶
Ġk jo
Ġth a
Ġãĥ ¡
hloko a
jÃŃ cÃŃ
Ġà¦ªà¦¾à¦° à§ĩ
ion i
Ġta mbi
Ġn Ã¤
Ġli ng
àªª à«įàª°
ir in
Ġ×ĳ ×¨
m ie
ìŀ ĳ
p ali
Ġà®®à¯ģà®© à¯įà®©
Ġagb aye
l os
Ġche ats
ÑĬ Ðº
Õ¶Õ¥ÖĢ Õ«
ÉĻh ÉĻr
ĠÑĥ ÐºÑĢÐ°ÑĹ
Ð¾Ð½ Ñĥ
ãĥ ı
Ġdar b
Ð¸ ÑĺÐ°
ĠV or
á»į pá»į
Ġtel jes
ĠàªĹ à«įàª°
ÃŃ n
áĢľ áĢ½
Å£ ia
à´ ĸ
áĥĹáĥ®áĥķ áĥĶáĥķ
Ġà¹Ģà¸§à¹ĩà¸ ļ
Ġà°ķà°¾à°¨ à±Ģ
äºī éľ¸
Ġtre buie
ĠktÃ³ r
ĠÐ±Ñĭ ÑĤÑĮ
Ġà´ª àµĤ
ĠáĢĦ áĢ«
ĠáĢ± áĢĢ
áĢļ áĢ¬
ÏĢÎ¿ ÏĤ
Ġho r
Ġà´ħ à´±à´¿à´¯
ĠÑĤ Ð¾Ðµ
Ïģ Ïį
à±Ĥà°° à±įà°¤
ĠáĥĴ áĥĲáĥ¡
æķ Ļ
æº Ĳ
an ya
ĠÎĳ ÏģÏĩ
Ġà´µ à´²
Ä«b Äģ
ÑĢ Ð¾Ð´
áĥłáĥ£áĥ ľ
Ð² ÑĸÐ´
Î» Î¹Î¿
à±ģà°¤ à±ģà°Ĥà°¦à°¿
Ð¿ Ð°Ð²
ŀ à¸£
å· §
Ġà®ĩ à®±
ĠØ§ ÙĪ
ĠáĥĴ áĥĲáĥ®
Ŀ à¸²à¸ģ
ĠÎºÎ¬Î½ ÎµÎ¹
Ð² Ð°Ñŀ
ê· ¸
à°² à°¨à±ģ
ģ à¸£
ÐµÐ½ Ð¾
ĠÐłÑĳ Ð¡
co re
u g
à¥ĩà¤Ĥ à¤¦
ĠCym ru
Ġà§© à§
l lÃ¤
Ġà¤ķ à¥įà¤·
ĠÐłÂµ ÐłÂµ
Ġà¤¸à¤¬ à¤¸à¥ĩ
ĠÒ³ ÑĥÐ¶
à¤¿à¤ ¦
iy e
Ġà¦Ĺ à¦¤
Ġo ff
à« §
Ñģ Ð¸Ñı
ĠÑį Ð¼Ð°Ñģ
Ġàªľàª£ àª¾àªµ
c te
ĠÉĻs as
ĠÒĽÑŀ ÑĪ
ê¸ ī
×ľ ×Ļ
ak eng
ÙĤ ÙĦ
Ġsebel isa
Ġk r
à®Ł à¯ģà®ķà¯įà®ķ
Ġpo l
Ġà¦¸ à§ĩ
æ ®
Ġle tsatsi
Ġàª¬ àª¾àª³
Ġa pe
v ei
Ġm ay
on ie
Ġtse ba
Ġos e
c ts
à¯įà®ļ à¯įà®ļ
Ġm Ã¬
ĠÐ¿ Ð¾Ð½
ĠW ir
p or
z ik
ë¬ ¼
ĠÄĳ i
Ġà¦ªà§įà¦°à¦ķ à¦¾à¦¶
Ġsek Ã¤
ç« ĭ
ĠA f
Ð¾Ð½ Ð¾Ð¼
à«ĭàª §
Ø¦ ÙĬØ³
áĢĢáĢ¼ áĢ®áĢ¸áĢ
ÛĶ ÛĶ
à´ªàµįà´ªàµĭ à´³àµįâĢį
áĥĶáĥłáĥ ĵ
Ġà¸ §à¸±à¸Ļ
Ġà°ª à°¡
Ġä½ Ĩ
ĠÙĨ Ø§Ùħ
lÉĻr ÉĻ
Ġc er
Ġà´µ àµĩ
Ġáģ Į
áĢŀ áĢ½
áĢı áĢ¹áĢ
ĠÎ£ Ïį
à®¿à®¯ à®²à¯į
Ġà´® àµĨ
Ð°Ð¼ Ð¿
Î¾ ÎµÎ¹ÏĤ
à°°à±įà° ¸
áĥ¬ áĥ§
ç ¡
å¼ º
n is
ĠÎ£ Î¤
Ġà´¯ à´¿
Ġya p
ĠÐ¼ Ð°ÑģÑĤ
áĥĲáĥ¬ áĥĺáĥļ
Ġ Å¾i
ÏĦÎµ Ïį
à±ĭ à°°
ĠÑĤÑĢÑį Ð±Ð°
à¹ĥà¸«à¸¡ à¹Ī
åŁ º
Ġh ar
ĠÐ´ ÐµÑĢÐ¶Ð°Ð²
Ġáĥ¨áĥĶáĥĺáĥ«áĥļ áĥĶáĥĳáĥĲ
ľà¸ ¥à¸
ĠÎ³ ÏģÎ±
ÑĨ ÑĨÑĳ
ÙĪ ÙĬ
à°¾à°¨ à±ĩ
à¸Ńà¸¢à¸¹ à¹Ī
×ķ×ł ×Ķ
ĠÏĢÏģÎ¿ÏĥÏī ÏĢ
Ð¾ÑĢ Ð¾ÑĪ
in Äĥ
à¤ķ à¥įà¤°
ĠÎ³Î¹Î± ÏĦÎ¯
Ġà¦ķ à¦²
Ġà®® à®¤
Ġà¤¸ à¥ģ
2 7
Ġà¤Ĩà¤ª à¤ķà¥ĭ
Ð¾Ð¹ Ð´
à¤¯ à¥ĩ
Ø§Ø ¤
Ġà¦¨ à¦¿à§Ł
Ġna p
Ġàªħ àª¹
ĠÑĤ Ð°Ð±
ÑĪ Ð±Ñĥ
le ich
c Äĵ
ĠÐ¼Ð¾Ð¶ Ðµ
ÑĤÐ¸ÑĢ Ð¾Ðº
àª¾àªĤ àª¤
¥ ¼
tis isa
w ar
ĠF a
Ġc ui
ĠÃ¼z rÉĻ
å¼ ķ
à¦°à§įà¦ ķ
ĠÐŁ Ð¾Ð´
Ġkh et
Ã³ s
Ġv wo
h u
ĠØ¯Ø§Ø± Ø¯
Ġil s
Ġh antle
ĠÐĴ Ñģ
e de
à®¿à®ķà¯įà®ķ à¯ģà®®à¯į
ĠJ o
ÙĪ ÙĤ
mu ÅŁ
ãģĦ ãģĦ
ãģ« ãĤĤ
ĠÐ¿ÑĢÐµÐ´ ÑģÑĤÐ°Ð²
àª£ àª¾
ÅĦ st
Ã Ĭ
Ãº c
in rin
Ø§ÙĦ ÙĬ
à¦¬ à§ĩà¦¨
Ġs ÉĻ
áģ¿áĢĻ áĢŃáĢ³áĤķ
ĠÄ ¼
àµĢ à´¸
ĠáĥĲáĥ¥ áĥķáĥ¡
à¹Ģà¸ ĩà¸´à¸Ļà¸
à°¿à°Ĥà°ļ à°¿à°Ĥà°¦à°¿
éĴ ±
Ø¯ ÛĮ
à®¿à®°à¯ģà®¨à¯įà®¤ à¯ģ
×© ×Ķ
à´¤àµįà´¤ à´¿
áĢĲ áĢħáĢº
ĠáĢ¡ áĢģáĢ¯
áĢľ áĢ°
Î¸Î· ÎºÎ±Î½
Ã¼ le
Ġla ng
ĠÐ³ÑįÑĤ Ð°Ð³Ð°
ÏĦ Î¶
à±Ģ à°ľ
ĠáĥĴáĥĲáĥľ áĥ¡
º «
çĦ ¶
Ġmul te
á¿ ¦
à´¾à´¨ àµģà´Ĥ
ul i
Ðº ÑĤ
Ġáĥĵáĥ¦ áĥĶáĥ¡
Ġpue de
Î¼ÎŃÎ½ ÏīÎ½
Ġà°ĩ à°Ĥà°Ł
Ġ. ,
ĸà¸¶à¸ ĩà¸
è® º
ì ¸
ek si
áĥķ áĥĶáĥķ
à¸Ńà¸²à¸ «
Î´Î· Î³
ÐºÑĸ Ð¼
ĠI ST
Ġà°² à°ķà±įà°·
Ĺà¸²à¸ ĩ
ĠÂ ·
ÏĦÎ¿ Î³ÏģÎ±ÏĨ
ĠÐ²Ñĭ Ñģ
ĠktÃ³ ry
æľ¬ éģĵ
ĠÏĮ ÏĩÎ¹
Ġà¦¤ à¦¾à¦ģ
d dÉĻ
Ġà¤¸ à¤Ńà¥Ģ
ĠÏĢ Î¯
à¥ĩ à¤°
Ð· Ð¸
Ġà¤µ à¤¿à¤ķ
el d
Ġho d
ĠG i
Ġàª® àª¨à«ĩ
ĠÐ¼Ð°ÒĽ Ñģ
ĠÐ²Ð¸Ð» Ð¾ÑıÑĤ
ĠÑĥÐºÑĢÐ°ÑĹ Ð½
Ð¸Ð½ Ñĥ
Ġpar te
Ð»Ð°ÑĢ Ð¸Ð½Ð¸Ð½Ð³
ĠàªıàªŁàª² à«ĩ
ĠI ch
w eng
íĻĶ ìĿ´íĬ¸
íĶĦ íĻĶìĿ´íĬ¸
Ġíĺ Ħ
ãĤ ½
Ġw as
Ġà¦ķ à¦¿
ĠÑĦ Ð¾ÑĢÐ¼
Ġdau dz
Ġsz ak
ĠÃ Į
à§ģ à¦Ł
ĠØ¬ Ø§
ra ng
in de
Ø¬ ÙĦ
Ġdara dara
á»ĭ ch
Ġch aêŀĮ
ĠE UR
ĠmÃ´ Å¾e
Ġpro duk
k el
ĠÕ¥ Õ¶
àª¡ à«Ģ
Ġy ox
ãģ£ãģ¦ ãģĦãĤĭ
d es
os i
ĠÐº Ð°ÑĩÐµ
Ġà¦ĩ à¦¸à¦²
ĠÐ¼ Ð½
áĢħ áĢ¬áĢ¸áĢ
Äħ Å¼
Ġà´ Ĳ
áĥª áĥĺ
§ à¸Ļà¸
Ġà°¨à±ĩ à°¨à±ģ
ä» ·
dh ur
Ġne j
Ġz en
à´¦ àµĩà´¶
±áĢŀ áĢ¬
áĢĢáĢ¹áĢ ŀ
áĢŃáĢ¯ áĢ¸
Î³ Î¿Ïħ
×ķ× ŀ×
àµģà´ ¸
Ñĥ Ðµ
ĠÎľ Î±Ïģ
à°ķà±įà°ķ à±ģà°µ
áĥł áĥĿáĥĽ
å½© åĸľæ¬¢
æľ ¯
ĠãĤ ¨
ĠÏĢÏģÎ¿ Î²
Ġà´ķàµįà´ °
Ġp ubli
ÑģÐ¿ ÑĥÐ±Ð»Ñĸ
áĥłáĥĺáĥķ áĥĺ
ĠÙĪØ§ÙĦ Ùħ
ÏĦÎµ Ïħ
Ġà°¤ à±Ĩ
ÑĪ ÑĩÑĭ
¡à¸ ·à¸Ńà¸
ĠCOM å½©åĸľæ¬¢
ĠÐ¡ Ðĥ
ĠÐ· Ð°Ð³
ĠáĥĲáĥ Ĵ
à¹Ģà¸¥ à¹Īà¸Ļà¸
Ġ0 6
Ðº ÑĢÑĭ
Ġàªļ à«Ĥ
à°ªà±įà°ª à°Ł
Ġà¹Ģà¸ ģà¸¡à¸
Ø² ÛĮ
Ġ/> ...
Ġí ĽĦ
Ġà®¤ à¯ĩà®°
Ġà¤ª à¥ģà¤²
Ġ/"> </
Ġà¦Ĩ à¦¦
r Ã¨s
Ġà¤¸ à¤¹
ĠÎ² ÏģÎ¯
Ġà¤« à¤¿à¤²
ĠÐ³ ÑĥÑĦ
Ġà¤Ĺ à¥įà¤°
s ÉĻ
Ġg es
Ġ oso
Ġàª¥ àªĩ
Ðº Ð¾Ð½
ĠÒĽ Ð°Ð´
é£ Ł
sh Ã«m
Ñħ ÑĸÐ´
ĠÐ± Ð¸Ð·
¶ àª¨
ĠÙĨ ÛĮ
à®µ à®°à¯įà®ķà®³à¯į
ĠtÃ¶ rt
Ġm ose
Ùģ Ø³
Ġdes de
Ġby Äĩ
à¦ ĥ
Ġt eng
Ġç §
Õ¸ÖĤÕ©Õµ Õ¡Õ¶
ir a
à¦¾à¦ ł
ì ¤ĳ
Ġà®ªà¯Ĩ à®°
Ġp ou
Ð¼ Ñĭ
á»į kan
h er
ĠO hun
Ġau g
ĠÐ²Ñģ Ð¸Ñĩ
ÑģÐº Ð¸Ñħ
u p
Ġy ol
Ġàªķàª¾àª° à«įàª¯
Ġ×Ķ ×Ķ
å¤ ī
ÙĦ Ø¨
Ġgb áº¹
ĠÑı ÐºÐ¸Ð¹
Ġà¦¬à¦Ľ à¦°
Æ¡ i
áĢŃáĢ¯ áĢĦáĢ¹
gl ia
Ġà´ķ à´¾à´²
áĥĲáĥĵ áĥĿ
ļ à¸Ļà¸
à±ĭ à°¨
å½©ç¥ ŀ
Ġb ine
Ġë°Ķ ì¹´ëĿ¼
ì µľ
Ġà´¤ àµĭ
áĢ³ áĢķáĢ¹áĢ
ĠáĢĽ áĢ½
±áĢ ħ
ÎŁÎ ĵ
Ġq ÉĻdÉĻr
à´Ĺ àµįà´°
Ñį Ñŀ
ĠÎ³ ÎµÎ½
à±Ī à°¤
Ġáĥ¨áĥĶáĥĽ áĥĹáĥ®áĥķáĥĶáĥķ
Ĵ áŀ
ä» »
ch es
ĠÎ» ÎµÎ¹ÏĦÎ¿ÏħÏģÎ³
Ġlang _
ÅĽ my
ÐµÐ½ Ð½Ðµ
Ġáĥĺ áĥĴ
Ġcil vÄĵ
Î¸ Î¿
Ġà°¶ à±įà°°à±Ģ
ĠÐ°Ð´Ð· ÑĸÐ½
à¸Ļ à¹Įà¸
ç» Ħ
Ġd isa
Ġfe tisisa
ĠáĥĲáĥ¡ áĥĶáĥķáĥĶ
ķà¹Ī à¸Ń
ÏĬ ÏĮÎ½
ĠÐĲÐ»Ñı ÐºÑģ
Ġàª Ĭ
à°¨ à°Ĥ
à¹Ģà¸ ¡à¸
ĠVi deo
wy n
ìĻ ¸
Ġsu b
Ġà¤Ł à¥Ģ
ĠÎķ Î¯Î½Î±Î¹
Ġà§ ¬
ĠÐ¸Ð· Ð¿
à· ĥ
3 8
à¤¾à¤· à¥įà¤Ł
ĠÐ¸Ð½ ÑģÐ¾Ð½
Ġ ä¹ħä¹ħ
cz enie
æĽ ¸
ĠÐ±Ð¾Ð» ÐµÐµ
Ġàªħ àªŃ
ĠÒĽÐ¸Ð» Ð³Ð°Ð½
ĠÑĤÐ°ÑĢ ÑĤÐ¸Ð±
Ã¦ r
ĠG ratis
am os
ĠÐµ ÑĢ
àªļ à«įàªļ
Ð¡ Ð
ĠÃ©ta it
ĠÐł ÐĨ
ĠÐ´Ð¾Ð¿ Ð¾Ð¼
Ġl Ã¤h
ĠM ad
Ġha cer
Ġà¦¬ à¦¾à¦¸
ĠÛģÙĪ Ø§
Ġw enn
ĠØ§ÙĦÙħ ÙĨ
Ġshay ari
Ġà¦¨à¦¿à¦°à§įà¦¬ à¦¾à¦ļ
ìĨ į
m ek
et ta
ĠmoÅ¼ na
Ġs á»įn
nÃ½ m
Ġp á»į
à¯ģà®¤ à¯į
E L
Ġb on
×ķ× Ķ
ı ¾
Ġàªľ à«įàª¯àª¾àª°à«ĩ
ĠØ¨ Ø®
Ġdo ar
ĠÐ± Ð¸Ð´
Ġiro yin
r ia
Ġà¦ª à§Ĥ
ĠÐ²ÑĸÐ´ Ð¿Ð¾Ð²ÑĸÐ´
áĢĢáĢ¹áĢ ľ
la re
Ġà´ħ à´¦àµįà´¦àµĩà´¹
ĠáĥĲáĥ® áĥļ
Ġà¹ģà¸ ķà¹Īà¸
Ġà°ªà±įà°° à°¯
ä¼ ģ
Ã¡lt al
¶ Į
Ġa li
Ġà´® à´°
áĢŃ áĢĻáĢ¹áĢ¸
ķáĢ¼ áĢ²
áĢº áĢ¬
ĠÏĥÏħÎ½ ÎŃ
à¯įà®¸ à¯į
Ġà´² à´Ń
ĠÑŀ Ð²
á½ ¸
à°¾à°° à±į
áĥĲáĥľ áĥ¢
å° ĳ
¦ Ĥ
ĠØ¨ ÚĨ
ĠÎ¼ Î®
Ġà´ħ à´§
tÃ« n
ĠÐ¿ ÑĭÑĤ
ĠáĥĽ áĥĺáĥĸ
liy i
ÎŁÎ ¡
à°¡à±įà°¡ à°¿
ĠÐĲ Ð½
Ķà¹īà¸§à¸ ¢
è ±
te la
b l
áĥ£ áĥĲáĥļ
¹à¸ ģ
ar ch
ĠÐ´ Ð°Ð»
Ġàª¤ àª°
à±Ĭ à°ķà±įà°ķ
à¹Īà¸ ¡
Ġë Ĭ
ÏĥÏĦÎ· Î¼Î±
Ã³ Å¼
Ø³ Ø·
Ġà¤ķ à¤Ī
Ġne u
Ġà¦ħà¦Ń à¦¿à¦
ĠÐ¼ Ð½Ð¾Ð³Ð¾
Ġà¤« à¤¿à¤°
Ġ< /
à¶ ¸
ĠÒĽ Ð¸Ð·
à¥Ģ à¤°
m asÄ±n
zz o
Ġsa a
à«ĭàª°à«įàª Ł
ĠÐ¼ ÑĥÑĢ
ĠÐ¶Ð°Ð¼ Ð¾
Ġ×ŀ× §
A S
Ġpro du
ĠÒĽÐ°Ð± ÑĥÐ»
Äĥ n
ĠÐ¶ Ð¸ÑĤ
àª¯ à«ĭàªĹ
âĢ Ļ
Ø§ÙĨ Ûģ
Ð¾Ð² Ð¸Ñħ
Ġa Ã±os
ĠW o
Ġà¦ıà¦® à¦¨
Ġma ng
Åĳ sÃ©g
ĠÑģ Ð¸ÑģÑĤÐµÐ¼
Ġaw oran
Ġà¦¬ à§ĥ
Ġq y
Ø¹ Ø¨
à®ķ à®°
an to
ĠCas ino
Äĵ tu
Ġg áº¹gáº¹
ĠR es
ì¶Ķ ì²ľ
ê° ģ
ÛĮØ± ÛĮ
Ġha qq
Ġte Å¼
Ġmo Å¾
ĠMat rimon
Ġe le
ĠP áº¹lu
Ġpri x
Ġà¦Ł à§įà¦°
ĠÑĢ ÐµÐ·
áģ¿áĢķ áĢ®
Ġf ana
à´°àµįâĢį à´·
ĠáĥĻ áĥĺáĥĵ
¡à¸²à¸ ģ
Ġà°Ĺà±įà°° à°¾à°®
æį ®
al t
Ġs en
Ġ Ã©g
à´¤àµįà´¤ à´¿à´²àµĨ
áĢŀ áĢ¼áĢ¬áĢ¸áĢ
áĢŃ áĢķáĢ¹áĢ
ĠáĢĶ áĢ¾
ĠÎ´Î· Î¼Î¹Î¿ÏħÏģÎ³
ãĥ ļ
àµĢ à´¯
Ð°Ð²Ð°Ð½ Ð½Ðµ
ĠÎ¼ÎŃ ÏĩÏģÎ¹
Ġà°Ńà°¾à°° à°¤
ĠáĥĽ áĥĲáĥĽ
æĶ ¶
åĲ ĳ
Ġdo b
ĠÏĩ ÏİÏģÎ±
à´¸ à´Ĥ
Ø¯ Ø±
Ð½Ñı Ñŀ
áĥĲáĥ Ń
à«ģ àªµ
ĠÎºÎ¿ Î¹Î½ÏīÎ½
ĠT elugu
ĠÐ¿ Ð°Ð»
Ġà¹Ģà¸ Ĭ
æĬĢ å·§
Ġ×ľ ×ĳ
r ul
áĥĽ áĥĶáĥĵ
¸ à¹Īà¸Ļ
3 9
ÑĤ ÑįÑĢ
Ġcz ÄĻ
à°¨à±įà°¨ à°¿
ģà¸ §à¹Īà¸²
ut z
Î½ ÎµÎ¹
ĠÚ© ÚĨÚ¾
Ð» Ð°Ð¹Ð½
à¤¿à¤ ·
6 7
Ġà¦¦ à§ĩà§Ł
j el
Ġà¤Ĩ à¤µ
ĠÎºÎ¬ ÏĦÎ¹
Ġà¤ļ à¤²
Ð°Ñģ Ð¸Ð½Ð¸Ð½Ð³
à¥ĩ à¤¦
Ġà®ªà¯Ĩ à®±à¯įà®±
ë ŀĮ
ĠÑģÐ» ÑĥÑĩ
te ve
ÒĽÑĤ Ð¸ÑģÐ¾Ð´
Ñĥ Ð»Ð¸
ĠàªĽ à«ĭ
Ġan ni
p un
ĠÑħ Ð°Ð±Ð°ÑĢ
áº¡ o
ÑĶ Ñİ
ĠB er
ĠÃ© rt
Ġiz man
ĠE st
Ġbo lo
à¯Ĩ à®²à¯įà®²
Ġà¦¬à¦¿à¦ ¦
Ø± Ø¶
ĠV ous
ĠÑģ Ð¾Ð·
Ġma a
à¦¾à¦² à§ĩà¦°
ey n
lÄ± k
Ġc li
ĠÃŃ gy
gb á»į
Ġ×Ķ× ĵ
áº¹ wo
Ġàª¸àª¾àª® à«ĩ
ra g
ĠÙĨ ÙħØ§ÛĮ
Ġà®® à®±
Å¾ ÃŃ
Ġe be
Ġku to
Ġme di
Ð¾Ð´ Ð¸
un nu
ia t
Ġà¦ķà§ĭà¦¨ à§ĭ
Ð°Ð¶ Ðµ
áĢ±áĢ »áĢķáĢ¬
Ġha z
à´± à´¿
áĥĲáĥ¡ áĥĺ
à¹ģà¸ļà¸ ļ
à°¿à°¨ à°¾
å§ Ķ
Ġts oa
p he
ÃŁ e
Ġà´µ à´³
Į áĢ¬áĢĶ
áĤıáĢ¯áĢŃáĢĦáĢ¹áĢ ĦáĢ¶
Ġáģ ħ
ÎŁÎ ļ
ra i
Ġà´ķ àµĪ
ĠÐº Ð¾Ð¶
ĠÎºÏħ Î²
à±Ģ à°Ł
ĠáĥĽáĥĿáĥ ®
Ġk 8
ä½ ł
ÙĪ Ù¹
Ïģ ÏĨ
à´ªàµįà´ªàµĨà´Ł àµģà´¤àµįà´¤
Ġ} .
ĠÐ²ÑĭÐº Ð°ÑĢÑĭÑģÑĤ
Ġáĥ¡áĥĲáĥ®áĥĶáĥļ áĥĽ
ãĥ ľ
ÏģÎ· ÏĤ
à±įà° ľ
ÑģÐºÑĸ Ñı
Ġ à¹
è¿ ĺ
àªĤàª Ł
Ġb Ã«r
ĠáĥĹ áĥ£áĥĽ
à¹ģà¸ļà¸ ļà¸
ĠÎº Î¿Ïħ
ÑĢ Ð°ÑĪ
à®¾à®£ à¯įà®Ł
Ġà°ª à°¾à°²
ķà¹Ī à¸Ńà¸
ĠÙģ Ø±ÙĪ
Î¼ÎŃÎ½ ÎµÏĤ
Ġse hr
Ġf ran
Ġà¤¸ à¤¿à¤Ĥ
Ġ3 7
à¦¬ à§įà¦¯
Ġàªī àª¤
à¥ī à¤²
Î»Î¿Î³ Î¯Î±
à¤°à¥įà¤ £
Ðº ÐµÐ½ÑĤ
Ġà¤Ĩ à¤¦
ÙģØª Ùĩ
ÑĮ Ñİ
æ¥ ½
Ñļ ÐµÑĤÐ¾
ĠÐ± ÐµÐ»
ĠÐºÑĥÐ½ Ð¸
ĠM agyar
Õ º
ÉĻ q
Ð°Ð² Ð¸Ð¹
ĠA p
ĠÙĪ Ø¨
Ġf ol
ÄĻ t
ÑĢ ÑĬ
ÑģÑĮ ÐºÐ¸Ñħ
Ġb one
u to
Ġà¦ħ à¦¸
Ġàª°à«Ĥ àªª
j our
ãĤĮ ãģŁ
Ġs is
Ġqu y
ĠÐĿ Ð¾
ĠÐ¿ÑĢÐ¾ ÑĨ
í Ĺ
ia ÅĤa
Ġê ŀĮ
Ġdan n
iy esi
· à«įàª
à¦°à§įà¦ ·
v is
sk Ã©
×¨ ×ª
he la
ĠK om
ÙĪÙĦ Ø©
Ġs al
Ġ201 5
Ġà®ħ à®¤à¯ģ
Ġbi j
ĠÐ± ÐµÑģÐ¿
áĢ¸áĢ Ĩ
ĠØ§ Øµ
Ġà´ª àµĩà´°
áĥĺáĥ¡ áĥĹáĥķáĥĺáĥ¡
Ġà¸ ¡à¸µà¸
à°¾à°¬ à±ģ
åį Ĺ
ez et
ÐºÑĥ Ð²
Ġd h
Ġà´¨à´¿à´ Ļàµįà´Ļ
áĢ±áģ¾áĢĢ áĢ¬áĢĦáĢ¹áĢ·
áĢĶ áĢ²áĢ·
ĻáĢº áĢ¬áĢ¸
ÎµÎ¯ Î¿Ïħ
d ui
àµĭ à´·
Ġâķ §
ĠÎ¿Î¹ÎºÎ¿ Î½Î¿Î¼
à±ģà° £
áĥ¬ áĥĺáĥ¤
à¥įà¤¯ à¤¾à¤¤
88 8
l wa
Îµ Î¾
à´Ł à´¿
à¦ ģ
ĠÐ¼Ð°Ð³ ÑĩÑĭ
áĥĶáĥĽ áĥĳ
Ġ ÉĻl
Î³ ÏīÎ½
à°¾à°¨ à±į
Ð°Ð½ ÑĭÑı
¥à¸ °à¹Ģà¸
æł ĩ
à«įàª° àª®
ro d
áĥĲáĥłáĥ ©
ªà¸ ¡à¸
ĠÎ¼ÎµÎ³Î± Î»ÏįÏĦÎµ
Ñĥ Ð»Ñĸ
ĠØ¹ ÙĦØ§
à°¸ à±įâĢĮ
à¹ī à¸Ļà¹Ģà¸
ci p
Î» Î¼
k er
ãģĭ ãģª
à¤¹ à¤°
ĠÎ´ Î¿
Ã¢ m
à¯Īà®ļ à¯į
à¤¾à¤ ī
ĠÎµ Î¼ÏĢ
à¶ ļ
Ð°Ð¼ Ð¸Ð·
à¥ĩ à¤®
ÑĨ ÑĸÐ²
ÑĥÑİ ÑĤ
Ġn di
men ts
ĠÐ¸ÑĪ ÑĤÐ¸ÑĢÐ¾Ðº
ĠÑĤ Ð°Ð»Ð°Ð±
Ġì ¶
owa dz
ĠÐ¸Ð¼ Ð°
Òĵ Ð¸
àª¾àª Ń
æł ¼
g lich
em os
Ġf al
Ġ×ľ ×Ĺ
ĠÚĨ Ùĩ
çĶ °
v Ã©ny
Ġà¦¦ à§ģà¦ĩ
ĠÐ²Ð¸Ðº Ð¾ÑĢÐ¸ÑģÑĤ
ãĥ ¤
gbas oke
Õ¡Õ¶ Õ«
ĠÑģ ÑĤÐ¾
ÉĻs inÉĻ
¤ Ģ
Ð¾Ð± ÑħÐ¾Ð´Ð¸Ð¼
Ġsi waju
cz ÄĻ
ir o
à§ģ à¦¦
pu is
ti r
ÙĤ Ø±
Ġk ui
à«ĩàª¨ à«įàªŁ
iá»ĥ m
Ġà®ħ à®£
ion es
Ġw u
âĶ Ģ
Å£ ie
ĠÐ¿ÑĢÐ¾Ð¸Ð· Ð²Ð¾Ð´
ļ áĢ°
Ġni ci
à´¿à´¨ àµģ
Ġáĥĺáĥľ áĥ¢
Ġ à¸Ńà¸Ńà¸Ļà¹Ħà¸¥à¸Ļà¹Į
à°¾à° ¸à±įà°¤
è® °
p helo
Ø¬ ÛĮ
ĠÄį as
Ġà´ª à´²
áĢķ áĢ±áĢ¸áĢ
áĢ±áĢĲáĢ¼ áĢĢáĢŃáĢ¯
áĢĲáĢ¹áĢ ŀ
ĠÏĥ Î®Î¼ÎµÏģÎ±
ÃŁ en
à´¯ àµįà´¯
ĠÑĤ Ð°Ð¼Ñĥ
ĠÏĢ Î»Î±
Ġà°ĩ à°¦à°¿
ĠáĥĽ áĥĻ
ĠåĬ ł
ä» Ģ
Ġvair Äģk
Î¯ ÏīÎ½
à´Ļàµįà´Ļà´³ àµģà´ŁàµĨ
wi Äħz
ĠÐ¿ÑĢ Ð°Ð¿
áĥĶáĥłáĥ ķ
à¦Ľ à§ĩà¦¨
Ïģ Î¿ÏħÏĤ
Ġà°ª à°¨
Ð°Ð²Ð°Ð½ Ñĭ
Ĺà¸ ĺ
å ²
O R
Ġn ost
áĥ¥ áĥĿáĥľ
à¹Ī à¸Ńà¸ĩ
ĠÏĨ Î±
ĠÐĲ ÑĢ
Ġë¶ Ħ
à±Ģà° İ
à¹ĥà¸«à¸ į
Ġes et
ĠÏĩÏģÎ· ÏĥÎ¹Î¼Î¿ÏĢÎ¿Î¹
Ġda lam
è «
ç ¢
ĠÎĳÏħ ÏĦÏĮ
Ø« Ø±
on Ã«
à¥įà¤ ļ
20 17
à¥įà¤ ¬
ĠÑĳ Ð·
à¤µ à¤¨
Ġl int
ĠÑĩ ÐµÐ¼
hlah isoa
Ġle f
ĠÐ°Ð¹ ÑĤ
Ò³ Ð¸
al ia
Ġc rÃ©
Ġon un
ĠÐ½Ð°Ð¼ ÑĥÐ´
Ġà¦ķ à§įà¦°
Ġs uo
Ġca z
Ġn os
ĠàªŃ àª¾àªĹ
Ġ×Ĵ ×Ŀ
ĠÑĢÐ¾Ð· Ð²
Ġtambi Ã©n
Ġsa mo
Ñī Ð°
Ġles z
Ġser vi
Ġmon ster
Ġp ak
Ġí İ
Ð ¤
à®² à®®à¯į
Ð¾Ð¿ ÑĢÐ¾Ñģ
Ġiran lá»įwá»į
Ġo la
Ġáº¹ á¹£á»į
à¦¾à¦§ à§įà¦¯à¦®
et z
ãģķãĤĮ ãģ¦
vy o
ÑĤÐ¸ Ñĩ
Ùħ ÛĮÙĨ
it es
nik Ã³w
va a
Ġon line
Ġto ate
à®¾à®¤ à¯įà®¤
ĠÐ¾ Ð½Ð¸
áĢ±áĢ »áĢģ
Äį ky
Ġà´¸ à´¾à´§
Ġáĥ¡áĥĲáĥ ¤
à¸µà¸¢à¸ ĩ
à±Ģ à°¤
Ġï¼ Ľ
Ġse ng
ĠÐ² ÑĸÐ½
Ã©s e
àµĭ à´ķàµįà´ķ
áĢľ áĢŃáĢ¯áĢ·
áĢħ áĢ®
áĢĶáĢ¹áĢ ľ
ÏĢ Î±Î¹
Ġà¦Ĩà¦Ĺ à§ĩ
Ġà´¨ àµĩà´°
Ð°ÑĢ Ð°
Ïī Î¼Î±
à°¾à°Ĥà°Ł à°¿
áĥĵ áĥĿáĥĽ
éĻ Ĳ
ç ĸ
Ġàªħ àªª
ÏĢ ÏĦÏħ
à´¿à´ ³
Ġnie t
ÑįÐ½ ÑĮ
áĥ£áĥłáĥ ¡
tt Ã¶
Îº Î·ÏĤ
Ġà°¦ à±įà°µ
Ð¾Ð´Ð· ÑĸÑĨÑĮ
à¹ĩà¸ ģ
áŁ Ĵáŀ
Ġde gli
ĠÄį i
áĥĶáĥĳ áĥĶáĥĳáĥĺ
ķà¸±à¸ §à¸
Ġ3 1
ÑĤ ÑĢÑĭÐ¼
Ġ×¤ ×¨
à±Ĩ à°Łà±įà°Ł
Ġ25 6
ĠS ta
ĠÏĦÏĮ ÏĥÎ¿
ot os
c ta
é¦Ļ èķī
6 8
ÙĬ Ø«
Ġêµ Ĳ
ï¼ ¿
Ġ4 7
Ġà¤¶ à¥ģà¤°
ĠÑĪÐ°Ò³ ÑĢ
åł Ĥ
ĠM me
q a
le te
nie Å¼
ĠÐ½ Ð¸Ð·
Ġ Ð°Ñħ
à¯Ĩ à®©
Ġgr and
Ġn Æ°á»Ľc
ĠÐ¨ ÑĥÐ½
Ġàª«àª¿àª² à«įàª®
Ġle fa
à§ĭ à¦°à§įà¦
in ist
Ġp Ã¤i
Ġn ek
Ġv en
Ġ$( '
àª¥ àª¾
ĠÐºÑĬ Ð¼
p rav
Ġd om
Ġle gen
ĠÐ² Ð¾Ð´
ëĬ ¥
ĠÚ¯ ÛĮ
ĠØª Øµ
Ġà¦ħ à¦°à§įà¦¥
Ġs an
Ã³ r
Ġda ju
ĠÕ¸ ÖĢ
Ġe dÉĻn
ĠÃ ĸ
ale ment
Ġeg in
cs o
eit er
Ġ×Ľ ×Ļ
Ð² ÐµÑģÑĤ
Ġgi ga
ru ar
Ã¥ r
t Ã³w
ĠáĢħ áĢħáĢ¹áĢ
à¯įà®ķ à®¿à®±
Ġà´Ĵ à´¨àµįà´¨
áĥķ áĥĺáĥļ
Ħà¸£à¸Ķà¸´à¸ķà¸ Łà¸£à¸µ
Ġà°ī à°ª
Ġå¤§åıĳ æĹ¶æĹ¶å½©
me la
åł´ åĲĪ
Ġi li
à´¯ à´¿à´²àµĨ
áĢŁ áĢ¯
ĠáĢ ĲáĢ¬
áĢ¼ áĢļáĢ¹áĢ
Î³ ÎµÎ¹
Ġkan s
à´¿à´ ľ
Ð½ Ð°Ñŀ
ĠÎĶ Î¹
Ġà°¤ à°ªà±įà°ª
ĠáĥĽ áĥĿáĥĴ
æ »
è½¯ ä»¶
Ġàª« àª°
Îķ Î¤
Ġà´ª àµĩ
ì½ Ķ
ÐºÑĥ Ñİ
áĥĲáĥĹ áĥĲ
ÙĪ Ùĩ
ÏĢ ÏĦ
Ġà°¸ à°°
Ð°ÑĨÑĭÑı Ð½Ð°Ð»ÑĮ
à¹Ģà¸ ĭ
æĥ ³
Å¾ d
Ð½ ÐµÐ½Ð½Ñı
ĠáĥĽáĥĺáĥĽ áĥĲáĥłáĥĹ
Ĺà¸¸à¸ ģà¸
Ġ3 9
ÑģÑĤ Ð°Ð½
à§įà¦ §
à°¿à°Ĥà° ª
ĸà¸ ·à¸Ń
Ã¨n cia
ĠÎ±ÎºÏĮ Î¼Î±
Ġun s
Ġtien e
åį ¡
Ġ0 4
ÙĪØ± Ø©
à®¿à®µ à¯ģ
é» Ħ
ÏĦÎ¿ ÏįÎ½
à¤¾à¤ ¥
ÑĥÐ½ Ñĳ
à¤¡à¤¼ à¤¾
ck en
ĠKosov Ã«s
Ġmo lemo
Ġker es
ĠÐ¼ Ð°Ð·
ĠÑģ ÑĥÑĢ
A L
Ġtut ti
ĠÑĢÐ°Ð· Ð²
ÐµÐ½ Ð³
Ġàªª àª¾àª
ĠØ¯ ÛĮÚ©Ú¾
at Ä«
t are
áº¯ t
à¦¾à¦¨ à§ĭ
ĠS i
àªĤàªĹ à«įàª°
àªľ à«Ģ
Äį nÃ©
ÛĮÙħ Øª
ur y
ĠU S
íĺ ķ
Ø´ Ø§ÙĨ
Ġng ata
Ð² Ð¸
el ij
ĠB ib
um Äģ
h wo
Ġ×ķ ×ŀ×
à®¾à®µ à®¤à¯ģ
ĠØ§ÙĦÙħ ØŃ
Ġno i
Ġba x
uf en
r Åĳl
Ñĥ ÑĶÑĤÑĮÑģÑı
ul la
Ġlegen ds
Ð¿ÑĢ ÐµÐ´
Ġgj it
Ġdin tre
áĢĽ áĢ±áĢ¸áĢ
Ġà¦Ł à¦¾à¦ķà¦¾
à´¯ àµĭà´Ĺ
áĥĲáĥĹ áĥķáĥĺáĥ¡
Ĥ à¹īà¸²à¸
Ġà°ª à°Łà±įà°Ł
åı¯ ä»¥
Ġà¦¹ à¦¾à¦ľà¦¾à¦°
ĠA c
g n
à´¤ àµįà´¥
± áĢĢáĢº
áģ¼ áĢº
ĠáĢĢ áģ½
á½ ¶
Ġpe dig
Ġà´¦ à´¿à´µ
ĠÐŁ Ð°Ð´
Î» Î¹Îº
âĢĮ à°°
ĠáĥĹáĥ£áĥĽ áĥªáĥĲ
é¢ Ħ
çľ ģ
Ġàª¨ àª¿
ĠÎł Î¿
à´¿à´¨ à´¿à´®
Äį ka
Ð» Ñĥ
áĥľ áĥĺáĥ¨áĥķ
ie c
ĠÎŃ Î½
à°ª à±ģ
ĠÑŀ Ð¶Ð¾
Ġà¸ªà¸ ¡à¸±à¸
å·¥ ä½ľ
ìĶ ¨
Ø¨ Ø§Ø¯
Ġáĥĳ áĥł
à¹Ģ à¸£à¸²à¸
ÏģÏī ÏĥÎ·
ĠÐº Ð°Ð·
Ġkter Ã©
à°ļà±įà°ļ à±ģ
ļà¸²à¸ Ħà¸²à¸£
l ie
ĠÏĮ ÏĥÎ¿
Ġà¦ħà¦¨ à§įà¦¯
ì ¶
åģ ·
ĠÎµ Î¼ÏĨ
Ġd ari
Ġà®ķ à®¿à®°
Ġà¤ªà¥ģà¤² à¤¿à¤¸
ou n
Ġà¤Ł à¥įà¤°
Ð± Ð¸Ð¹
Ġà¤¹à¥ĭ à¤Ĺà¤¾
ĠÚ¯ Ø¦ÛĴ
b Ã«t
Ã¡s z
Ġ×Ĳ ×ķ×ª
ĠÐ¼ Ð°Ð¼Ð»Ð°ÐºÐ°ÑĤ
Ð°Ð¼ Ð¼
on es
v Ã¤n
ÑĥÐ»ÑĮ ÑĤ
Ð° Ò·
à«ĩàª Ĥ
ono lo
Ä± k
ë° ľ
Ġy ara
ĠkÃ¼l Ã¶n
p x
ãģ£ ãģ¨
ĠA k
ãĥĨ ãĤ£
Ġàª¤àª® àª¾àª°àª¾
c Ã³w
Ġá»į wá»į
áº¡ t
Ġa voir
Ð¾ Ñħ
Ġv it
ĠØ¯ Ø§Ø¯
Ġo j
à¦¨à§įà¦ ¡
Ġd ata
o ho
ĠÐ¸Ð¼ Ðµ
v as
ĠØ£ Ùĥ
ĠØ² ÛĮØ§
Ġàª¬ à«įàª°
×ĳ ×Ķ
Ġf ÉĻ
íĥ Ŀ
Ġtáº¹ láº¹
Ġke Äı
à¯Īà® ª
u te
áĢ±áĢķ áģļ
Ġà¦° à¦¹
àµĢ à´ķàµįà´·
Ġáĥ¢ áĥł
Ħ à¸£à¸²à¸°à¸
Ġà°µ à±ĩà°
æİ ¨
h ti
p y
T S
Ġà´®àµģà´ ĸ
áĢĦáĢ¹áĢ Ĳ
áĢŃáĢ¯áĢĦáĢº áĢĦáĢ¶
ļ áĢ¬áĢĢáĢ¹áĢ
Ïģ Î¯Î±ÏĤ
Ġm ak
Ġà´Ĩ à´¶
ĠÑĤ ÑĥÑĤ
ĠÎķ ÎĽ
à°Ĥà° ¡à±ģ
áĥĿáĥĳ áĥĲáĥ¨áĥĺ
å¸ ĥ
æģ ¯
Ġà¦¬à¦¿à¦Ń à¦¿à¦¨à§įà¦¨
ĠÎĳ Îł
à´¸àµįà´¥ à´¾à´¨
ÑĥÐ²Ð° Ð°ÑĤ
Ð°Ð´ Ð¶
áĥĲáĥķ áĥĲáĥĵ
ĠS an
Î¹ ÏİÎ½
à°¦ à±ģ
ĠÑı Ð½Ð°
Ġà¸ ģà¸£à¸
åı ª
ĠãĤ Ĵ
ĠÐ´ Ð¾Ñģ
ĠáĥĻ áĥĲáĥľ
ĸà¸ ¹à¸ģà¸
00 0
ĠÐ´ Ð¾Ð±
ëį ĺ
à±Ĩ à°¡
Ħà¸£à¸²à¸°à¸ «
Ġbe har
ĠÏĦ ÎµÎ»
Ġaqu est
Ġd os
åŃ Ĺ
ĠÎ± Î³Î¿
ich e
ÅĨ Äĵm
à¤¿à¤ Ĺ
Ġy w
åľ¨çº¿ è§Ĩé¢ĳ
ĠÑĢ Ð¾Ò³
Ġà¤® à¤¾à¤¨
àª¾àªĤ àª§
à¦¾à¦° à§Ģ
bb en
à¯ĭ à®ķ
ĠÐ²Ð°Ð· Ð¸ÑĢ
ĠÑĦ Ð¾Ð¹Ð´
em me
Ġa ff
ÑĢ Ð¾Ð¼
ĠÒĽÐ¸Ð» Ð¸Ð±
Ġàªµ àª¾àª°
Ġg om
Ġd Ã¶vlÉĻt
Ġt Ã¡r
Ġu d
ĠØ´ ÙĩØ±
è» Ĭ
Ġpro d
×ł ×ķ×ª
Ġp are
Ġà®ļ à¯Ĥ
ĠG es
Ġh an
Ġë ¦¬
Ġap ro
ĠA v
ĠÑģ Ð´ÐµÐ»
á»£ p
ko ko
à§ģà¦· à§įà¦ł
Ġpo dá»į
Ġb ana
Ġtak Å¼e
Ð°Ð»ÑĮ Ð½Ð¾Ð³Ð¾
Ġt ur
h ne
ÙĪ Ø§Øª
íķľ ëĭ¤
è² ·
Ġè ĩ
Ġk Ã¡
Ġàªĺ àªŁ
ĠN ous
ĠØ® Ø¨Ø±
áĢĦáĢ¹áĢ Ģ
Ġà¦¨ à§ĩà¦ĩ
à´¿à´° àµģà´¨àµįà´¨
áĥĶáĥ¥ áĥ¡
ķà¸²à¸ ¡à¸
à°¾à°Ĥà° ¡
Ġ æľī
ĠÐ¿ÑĢ Ð¾ÑĤ
ĠØ¬ Ø¯ÛĮØ¯
Ġba o
Ġà´¸à´Ĥ à´ĺ
áĢĲáĢ²áĢ· áĢ¡
ĠáĢĢ áĢ¯
ĠáĢĺ áĢ¯áĢĽ
ĠÏĢÎ± ÏģÎ¿Ïħ
an z
àµĭ à´¯
ĠÐ´ Ð°Ðº
ĠÎ¬ ÏģÎ¸
Ġà°µà°¿à° §
Ġáĥŀ áĥĲáĥ¢
åŀ ĭ
å¤ Ħ
Ġà¦¬ à¦¿à¦ķ
Î²Î¬ ÏĥÏĦÎµ
Ġà´ķ àµĭà´Ł
Ġs ous
ĠÐ¿Ð°Ñģ Ð»Ñı
áĥ£áĥłáĥ ľ
ro Å¡
ĠÎł ÏģÏĮ
Ġà°®à±Ģ à°¦
Ðµ Ñŀ
à¹ģà¸ ģ
ä¸ ¤
Ġmo t
Ġm ert
áĥĶáĥłáĥ Ľ
Ľà¸£à¸°à¹Ģà¸Ĺà¸ ¨
00 3
Ð´Ð· ÐµÐ»ÑĮ
à®±à¯įà®± à®¿
Ġà°ľ à°¿à°²à±įà°²
Ħ à¹īà¸²à¸
Ġka Å¼
Ġr ha
Ġk uf
Ġëª¨ íħĶ
Ġé Ŀ
Ïĥ Î®
ëĵ¤ ìĿ´
ĠØ®ÙĪ Ø§Ùĩ
ç¦ ı
Î»Îµ Îº
æĹ¥ æľ¬
Ð¸Ð¼ Ð°
Ġà¤ļ à¥ģà¤¨
Õ ¢
Ġà¦Ĩà¦ª à¦¨à¦¾à¦°
Ġd Ã¼n
j Ã¡n
ĠÑį Ð½Ð³
Ð¾Ð¸ Ð¹
Ġ×Ķ× ¦
ow ym
Ø ¡
ĠÑĤÐ°ÑĬ Ð»Ð¸Ð¼
Ġàªª àª¾àª°
Ġm ara
p f
Ġtu le
Ġà®®à¯ģà®Ł à®¿à®¯
ÑĨÑĸ Ñı
Ġlaik Äģ
d ÃŃ
lu ar
c tor
Ġf ir
ÐµÐ½ Ð´
á¹£i á¹£áº¹
b ur
à¯Īà®ļ à¯įà®ļ
Ġàª¸ à«įàªª
ĠÐ¶ Ð¸Ð·
ãĥĥ ãĥī
Ġná»į mba
Ġà®ªà¯Ĭ à®°
Ġa so
at la
Ġser a
is che
Ð° ÑİÑĤÑĮ
ĠÐº Ð¾Ð¹
skie j
l la
Ġti áº¿
ĠÑĥ Ð²
Ġche at
ØªØ± ÛĮÙĨ
Ã§ i
Ġdal la
áĢ¸áĢ ķáĢ«
Ġk m
à´ İ
áĥĺáĥĻ áĥĲ
Ġà¸ Ĺ
Ġà°¹ à±Ī
Ġéĩ į
Ġà¦ķà¦° à§ĩà¦Ľà§ĩ
ÙĦ Ùģ
Ġr ata
à´¤ àµįà´¯
áĢ½ áĢ±
ĠáĢ±áĢĶ áĢ¬áĢĢáĢ¹áĢ
ĠáĢĺ áĢ¬
ĠÎ± Îº
à«ĭ àª®
à´¿à´¤ àµįà´¤
ĠÑĪÐº Ð¾Ð»
Î³Î³ ÎµÎ»
à±Ģà° Ĩ
áĥĿáĥĵ áĥĶáĥ¡
å¾ ·
ä½ ķ
Ġd ou
Î½Î¿Î½ ÏĦÎ±Î¹
Ġà´ı à´±àµįà´±
um i
ĠÐ°Ñģ Ð°Ð±
áĥĵ áĥľáĥĶáĥľ
Ġnu e
ĠÎł Î±Î½
à°ª à°¡
Ð¾Ð» Ñĸ
ªà¸²à¸¡à¸²à¸£à¸ ĸà¸
è´ ¨
Ġth ata
Ġë ĺ
ĠáĥĴ áĥĲáĥ£áĥ
Ħà¸§à¸²à¸ ¡à¹Ģà¸
Ġca el
ÑĢÑĥ Ðº
×ķ× ĸ
Ġà°¤ à±ĭ
Ġà¹Ģà¸ ŀ
Ä¾ ad
ĠÎ¿ÏĢÎ¿ Î¯Î¿
Ġà¦ī à¦¦
Ġjet Ã«
Ġà¤¹à¥ģà¤ Ī
GH z
ĠkÃ¶ vet
n el
à¤¡à¤¼ à¥ĩ
ĠÎº Î¿Î½ÏĦÎ¬
à¤°à¥įà¤ ¥
Ð¸ÑĦ Ð°ÑĤ
å ©
Ġmej or
te go
ĠÐ¿Ð¾Ñģ Ð»Ðµ
Ġhaz Ä±r
ĠÑĤÑŀÒĵÑĢÐ¸Ñģ Ð¸Ð´Ð°
ĠÑĪ ÑĥÐ¼
à®¿à®ªà¯įà®ª à¯ģ
ĠÙģ Ùī
ĠØ§ÙĦ Ùĩ
ĠÑĥ Ð½Ð¸
Ã¡c ia
Ġp ho
ãģĿ ãģĨ
ĠÄ« pa
à§ĩà§Ł à§ĩ
ch te
Ġes pe
Ø§Ø± Øª
k Å¯
Ġàªľà«Ģàªµ àª¨
s in
ãĤ ¶
Ġfi dio
et ti
Ġàª¤à«įàª¯ àª¾àªĤ
k Äħ
u al
à®£ à®®à¯į
w are
Ġb en
Ġk in
Ġm ek
m ul
ĠU ne
×ŀ ×ķ
à§ĭ à¦ļ
ov Ã½
Ġt ÉĻd
Ġco lor
ãĤ Ģ
Ġi fi
Ġa ta
Ð¾Ñģ Ð¾Ð±
dzie j
áĢŃ áĢĻ
ÙĦ Ø¦ÛĴ
Ġà´ķ àµģà´Ł
áĥłáĥĴ áĥĲáĥľ
ªà¸³à¸« à¸£à¸±à¸ļà¸
Ġà°ľ à±Ģà°µ
æ° Ķ
Ġà¦° à§Ł
Ġh anno
Ġkh a
Ġà´® à´±
ĠáĢħ áĢ¬
áĢ½ áĢĦáĢº
áĢĻ áĢļáĢ¹
ĠÎĳ Î³
ÑĬÑĢ Ð¶
Ġà´¨à´¿à´¨àµįà´¨ àµį
ĠÐ½Ð°Ð² Ð°ÑĤ
ÏģÎ¹ Î¬
Ġà°ļ à°Ĥà°¦à±įà°°
Ġáĥĳ áĥĲáĥķáĥ¨
Ġå Ĩ
ä¾ Ľ
is et
Î¼ Î¼
Ġà´Ł àµĨ
ìĦ ¤
Ð´Ð· Ñĸ
ĠáĥĽ áĥĺáĥĶáĥł
ci jas
ĠÏħ ÏĢÎµ
Ġà°µà°¿à° ¶
Ð°Ð² Ð°Ð»Ñĸ
Ħà¸ ¥
è º«
Ġe ng
Å¡ te
Ġáĥ¨áĥĶáĥ £áĥ
Ħ à¸Ńà¸
Ġgyf er
ĠÐĴ Ñĸ
à®µ à¯įà®µ
à°¨à±įà°¨ à°¾à°°à±ģ
à¹Ħà¸ §
àª¿àª¤ à«įàª°
ĠÏĦÎµ Î»ÎµÏħÏĦÎ±
wia d
to ire
Ġà¤®à¥ģà¤ ĸ
Îº ÎŃ
Ġisti fadÉĻ
ko a
å¤© å¤©
Ġ3 4
Ġà¤īà¤¨ à¤ķà¥ĩ
ĠÐ³ Ð¸ÑĢ
à¥įà¤ ŀ
à¦ĵ à§Ł
Ġàª°àª¹ à«įàª¯àª¾
u es
ë ¸
Ðµ ÑĬ
ÐµÐ½ ÑĤÐ¸
ov at
Ùĥ Ø§ÙĨ
Ġk Ãµ
ĠÐ¢Ð¾ÑĪ ÐºÐµÐ½ÑĤ
ĠÛ² Û
âĢ Ķ
ĠÚ©ÙĨ ÛĮØ¯
el b
Ġà¦¨ à¦¤
áº© m
Äĵr t
ĠÐ¼ Ð¸Ð½
Ġma jd
ĠàªŃ àª¾àªµ
ĠÄ ı
ĠCh i
Ġaf ikun
c en
à«ģ àªª
lar ak
Ġn jo
Ġà®¨ à®²à¯įà®²
á»Į N
×© ×Ļ×Ŀ
ĠI á¹£
ham eng
ĠÐµ ÑīÐµ
à®³ à¯įà®µ
Ġh ier
Ġà¦¬à¦¿à¦ ľ
Ġë° °
ĠÐĶ Ð»Ñı
Ġel sÅĳ
Ä«g as
ay an
ĠD Ã©
ĠC z
ĠÃ®n tre
áĢĻáĢº áĢ¬áĢ¸áĢ
Ġwie der
Ġà´ĩ à´°
áĥ£áĥ ¢
¶ à¹Īà¸ĩ
à°¿à°¤ à±ĭ
Ġå ¼
ĠÃ© le
Ġi h
Ġme tsi
Ġà´® àµĭ
áĤ Ĩ
áĢĽ áĢ²áĢ·
ĠáģĤáģĢ áģģáģ
Î´ Î¬
Ġqu al
à´« àµį
Ñģ ÑĨ
ÏģÎ± Î½
Ġà°ħ à°¡
áĥĵ áĥĶáĥľ
èĢ Į
Ġå ¿
ĠØ±Ûģ Ø§
ĠÏĢ Î±Î½
Ġfi g
uy á»ĩ
ĠÐ¼ Ð°Ðµ
ĠáĥĶáĥłáĥĹ áĥĲáĥĵ
ÑĸÑģ Ð»Ñı
Î¼ÏĨÏīÎ½ Î±
Ġà°ªà±Ĩ à°¦à±įà°¦
ĠÐļ Ð°ÑĢ
§à¸ ĩà¸
æĭ¿ å¤§
Ġle o
it Äģ
Ġáĥ¡áĥĲáĥĶ áĥłáĥĹ
ķ à¹īà¸Ńà¸ĩ
ÏĩÎµ ÏĦÎµ
Ð°Ð½ ÑĤ
ĠW ar
Ġà°¸ à°¾à°§
¨à¸ ¶à¸
Ġàªľ àª°à«Ĥ
we dd
Ġà§ Ń
u jÃº
à¤ķà¥įà¤· à¤¾
ÏĥÏĦÎ· ÎºÎµ
Ġik ke
Ġà®ĩà®²à¯įà®² à¯Ī
à¤ Ľ
ĠÎºÏģÎ¹ ÏĦÎ¹ÎºÎ®
à¤¿à¤ §
Ð» Ð¾ÒĽ
à¤¿à¤ķ à¤¾
Ġu Å¼y
åĳ ³
à¦° à¦¿
in si
ĠÐ³ ÑĥÐ·
ĠÑİ Ð·
l ou
at ta
ĠÐ½ Ð¸
Ð¸Ðº ÑĢ
Ø± Ùģ
ĠT S
Ġs oll
Ġf ue
ìŀħ ëĭĪëĭ¤
Ġà®¤ à®µ
ĠmÉĻlum at
te tit
Ġãģĵ ãĤĮ
Ġe do
ÑĢÑĥ Ð·
àª¤ àª¿àª
Ġsá»į gan
Ġdi ff
Ã¢n Äĥ
Ġf Åĳ
ĠÑĤÐ¾ Ð°
Ġs áº£n
ĠA TI
Ġp iem
Ġri i
Ġse hlo
ĠÑĤ Ð¾Ð¼
ÙĪ Øª
Ġu it
v Ã½
ÉĻy ÉĻ
Ġà®¨ à¯ĭ
dh je
Ġ\ "
Ġdá»į má»į
g io
ÅĤ at
ĠÐ½Ðµ Ð¾Ð±ÑħÐ¾Ð´Ð¸Ð¼
áĢ¼ áĢĶáĢ¹áĢ¸
is ch
Ġà´¸à´Ĥ à´Ń
áĥĶáĥĳ áĥĲáĥ¨áĥĺ
Ġà¸ ļà¸
à°¾à°° à°¨à°¿
åĳ Ĭ
un do
es so
Ġn ka
Ġà´ħ à´¤àµį
Ġ áĤıáĢ½áĢħáĢ¹áĢ
ĠáĢ¡ áĢĶ
áĢŃ áĢĶáĢ¹áĢ¸
Î³Ïī Î³
ĠÐ¾ÑĢÐ³Ð°Ð½ ÑĸÐ·
Ġà´İà´¨àµįà´¨ à´¿à´µ
ĠÑĩÐ°Ð»Ð°Ð² ÐµÐº
ĠÏĢ ÏģÎ¹Î½
Ġà°ļà±ĩà°¶ à°¾à°°à±ģ
Ġáĥ¨ áĥĿáĥłáĥĺáĥ¡
æĸ ¯
æĪ ĸ
á»Ļ c
ÎĻÎ ¤
Ġà´ŀ à´¾à´¨àµįâĢį
Ġà¦Ĩ à¦ķ
Ð» Ð°Ð´Ð·
áĥĲáĥ« áĥĶ
Ġ×Ķ× ĸ
ĠÎ¤ Î¹
Ġà°ķà°¾à°° à±įà°¯
ĠÑĩ Ñĭ
à¹Ģà¸ Ľ
å· ²
" "
ratis la
ĠáĥĽ áĥª
à¸´à¹Ģà¸ Ħà¸£à¸²à¸°à¸«
ĠÏĦÎ± Î¾Î¹
ĠÐ· Ð°Ñŀ
Ġz Ã¡k
Ġà°ķ à°¿
à¹ Ħà¸£
ĠrÃ³w nieÅ¼
ÏĦÎ¹ Î¿
Ã§ a
p uri
Ġè ī
Î»ÎŃ Î¿Î½
d ek
ĠØ· ÙĪØ±
à¥ģ à¤¸
ÏĦ ÏģÎŃ
ä¸Ń æĸĩ
ÒĽ Ð¸Ð½
à¤µ à¤Ĥ
e tse
Ñı Ñħ
Ġb Äĵr
Ġam ba
Ð± Ð¾Ð»
ĠÐº ÐµÐ¹
g ie
Ġkish te
ĠÐľ Ð°ÐºÐµÐ´
Ð´Ð¸ Ðº
ÑĢ Ð¶
t lo
Ð¸Ð½ Ñĸ
ri d
Ð¾Ð²Ð°Ð½ Ð¸Ðµ
ent ro
àª®àª¾àªĤ àª¥à«Ģ
s sÃ¤
Å£ a
f el
ÙĢÙĢ ÙĢÙĢ
Ø±Ùĥ Ø©
Ġay á»į
×Ļ× Ĵ
Ġla b
ĠØ´ Ùĩ
Ġz mi
Ġv iac
Ġdi dara
d re
um á»į
Ġap ar
ĠãĤ Ń
Ġbo hlokoa
ĠÐłÐ¾ÑģÑģ Ð¸Ð¸
Ð» Ð¾Ð¶
Ñĩ Ñĸ
k ou
ĠØ¨ Ø§ÛĮØ¯
ãĤĭ ãģ¨
Ġá¹£e e
à®Ł à®¿à®¯
Ġtr ans
Ð½Ð¸ ÐºÐ°
áģĢ áģĢ
ĠM Ã¼
àµģà´¦ àµįà´§
áĥĶáĥ ¨áĥĺ
à¹īà¸Ńà¸¡à¸ ¹à¸
Ġà°ķ à°°
å± ±
Ġwur de
Ġv ol
ana ng
à´¨ à´¿
ĠáĢ¡ áĢĳ
áĢ¶ áĢ·
áĢĿ áĢĦáĢº
ĠÎ¤ Îµ
àªĤàª¤ à«įàª°
Ġà´ļ à´¿à´²
ĠÐ¿ÐµÑĢ Ð°Ð´
ÎŁÎ ¤
à±Īà°¨ à°¾
áĥĶáĥĳ áĥĽáĥĲ
à¤¾à¤Ĥ à¤¨à¥Ģ
å Ķ
st Äģ
Î¼Î± ÏĥÏĦÎµ
à´ ł
al lis
ĠÂ ©
Ġáĥ¡áĥĲáĥ®áĥĶáĥļáĥĽ áĥ¬áĥĺáĥ¤
Ġ raz
ÏĢÎ¿ Ïį
Ġà°® à°Ĥà°ļ
ĠÐº Ð½Ñĸ
¥à¸ ĩ
æ Ł¥
ĠÑĤ Ðµ
ĠÙĦ Øª
ĠáĥĲáĥ® áĥĲáĥļ
à¹Ħà¸ ĭà¸
Ġ Ïī
ÑģÐº Ð°Ðµ
ĠRes p
à°¾à°¨ à°Ĥ
Ġà¸ Ľà¸
Ġ×ĳ ×Ĺ
Ġ4 5
à¦¦ à¦¿
Ġt Ã¡
à¤¿ à¤Ĥà¤¦
ĠÏĢ Î¹
Ġp ierw
ĠÆıliy ev
à¤ķ à¥ĭà¤Ĥ
ÏĥÏĦÎ¹Î±ÏĦÏĮ ÏģÎ¹Î±
à¤°à¥įà¤ ¸
ĠÑħ Ð¾Ð½
à¤¨ à¤²
Ġli pa
Ġà® Ī
ĠvÃµ i
ë£ Į
ĠÑĢ Ñŀ
ĠÐ¼ Ð¾
âĶĢ âĶĢ
Ġn ou
àª³ à«Ģ
Ð°Ñģ Ð¸Ð³Ð°
Ġvi esnÄ«
Ġbo le
Ġn j
ĠL as
ĠÑĤ Ð¾Ð³Ð¾
Ú© Ø³
ç Ĭ
Ġd ÄĽ
v Ã¡
Ġt Ã´i
Ġso lo
Ġëħ ¸
Ġo ti
Ġàªµ àª¿àªķ
Ġen f
Ġv Äĥ
v u
Ä± s
ĠF ree
j al
iyan ju
ÄŁ Ä±n
Ð°ÑĤ ÐµÐ»
H O
Ø´Øª Ùĩ
à¯ģà® ¨
Ġë Ĩ
ĠJ ak
ÐºÐ°Ñĩ Ð°ÑĤÑĮ
Ðµ ÑĦ
Ġst art
áº¥ n
Ġà¦ĩà¦¸à¦² à¦¾à¦®
Åĳ r
áĢľ áĢŃáĢ¯áĤĶ
Ø¹ Ø¶
à´¯ à´¿à´²
Ġáĥĵ áĥłáĥĿáĥ¡
ªà¹Īà¸§ à¸Ļà¸
Ġà°²à±ĩà°¦ à±ģ
Ġå ¯
à§İ à¦¸
owan y
Ġse baka
Ġà´® à´¾
áĢ¡ áĢŀ
áĢľ áĢ¬áĢ¸
áĢ±áĢ ĸ
Î¼ÎŃÎ½ Î¿Ïħ
Ġin st
à´¨àµįà´ ®
Ð½Ð°Ñģ ÑĮ
Î¸ ÏģÏİ
Ġà° Ĺà°¾
Ġáĥ¡ áĥĺáĥĽ
Ġà¤ Ŀ
æī ĵ
Ġàªħ àª§
ÏĪ Îµ
Ġà´ļ àµĭà´¦
Ġà®¨ à®¿à®©
ĠÐ¿ Ð°Ð³
áĥĶáĥĳáĥ£áĥļáĥĺ áĥĲ
Ð½ ÐµÑĤ
ĠÎŃ ÏģÎ³
Ġà°ķ à±ĩà°Ĥà°¦à±įà°°
ĠÐ² Ð°ÑĢ
Ġ à¹Ĩ
éĤ Ģ
h ra
Ġ×ķ ×ľ
Ġáĥľ áĥĲáĥ®
Ġà¸ŀà¸Ļà¸ ±à¸Ļ
ĠÏĥ Î±Î½
Ġsp an
Ġdu e
Ġà°ķ à°¥
Ġà¸Ħ à¸²
Ġs ka
ÏĮÏĦÎ· ÏĦÎµÏĤ
Ġbe re
Ġut Ã¡n
à¤¾à¤ ĸ
wy s
ĠÃ© c
Ġà¦¨à¦¤ à§ģà¦¨
à¥įà¤Ł à¥Ģ
w m
Ġà¤¸à¤¿à¤Ĥ à¤¹
Ð½ Ð°Ð»
Ġà¤«à¤¿à¤² à¥įà¤®
ìĿ´ ìĬ¤
Ġ, +
Ġde ri
Ġà®¤à¯Ĩà®° à®¿à®µ
ĠÑģ Ð¸Ñĳ
ĠÐĳ Ð°ÑĢ
Ġt en
à«ģàª Ń
ĠÚ©Ø± ÛĮÚº
Ñģ Ð¸Ð½
ĠÙħ ÙĪØ±Ø¯
tla k
ìł Ĳ
Õ¡Õ Ń
ÐµÑĤ Ñĭ
Õ¥ÖĢÕ ¨
ÉĻn i
Ġv ii
ï¼ Ĵ
çĶ £
à¦¾à¦¨ à¦¿
r Äĵ
mu lo
at ure
ra k
Ġà®ª à¯Ĥ
Ã¡dz a
Ġk is
Ġd ownload
à«įàª¯ à«ģ
ĠN A
åķ ı
Ġs te
ut lo
ĠSa int
Ġx u
Ġ×ľ ×§
pra w
ĠÐ» ÑĥÑĩ
ti ng
Ġpaa pa
à«ĭàª ı
Ġà¦ªà¦° à¦¿à¦ļ
Ġc al
áĢĽ áĢ®áĢ¸áĢ
Ø§Ø± Ùĥ
à´¿à´Ĥ à´Ĺ
Ġáĥ¨áĥĶáĥ¡ áĥĲáĥ«áĥļ
« à¸²
Ġà°ªà±įà°° à°¤
Ġæ Ń
ĠØ´Ø± Ú©Øª
Ġbil dir
o f
àµĤà´Ł àµĨ
áĢŁ áĢ¯áĢĲáĢ¹áĢ
áĢĻ áĢ®áĢ¸áĢ
áĢ» áĢ¾
ÏģÎ· ÏĥÎ·
ÑģÑĤÐ² Ðµ
à´¿à´ ¦
Ġl t
á½ °
Ġà°ħ à°®à±įà°®
áĥľáĥĺáĥ¨áĥķ áĥľáĥĶáĥļ
à¨¿ à¨
áŀ ¶
a ires
ÏģÎ³ Î±Î½
à´® à´¾à´£
Ġmo g
ÑĢÑĭ ÐµÐ¼
ĠáĥĲáĥĽ áĥĳ
t Ã¤Ã¤
ĠÎµÏħ ÏģÏİ
Ġà°ķ à±ĩà°¸
Ð ģ
¥à¸ ¹à¸ģà¸
èĤ ¡
b Ã³l
k as
Ġáĥķ áĥĺáĥľ
Īà¸ ¸à¸
Ġ201 3
ĠÂ ¤
ĠìŀĪ ìĬµëĭĪëĭ¤
à±Ĩà°² à±įà°²
Ġà¸ ¡à¸µ
ĠÛģÙĪ Ú¯
ia eth
Ġso t
à¦¾à¦ ·à§įà¦Ł
à¥įà¤² à¥Ģ
ĠÎĺ Î±
Ġap rÃ¨s
ĠM ai
à¤¾à¤² à¤¯
Î» Ïį
à¤¾à¤¤ à¤¾
Ð³ ÑĥÐ½
à¥ĩà¤ ·
ĠØ£ Ùħ
Ñı Ð±
ÙĨ Ø§ÙħÙĩ
à¯ģà®Ł à¯Īà®¯
ĠÐ¼ Ð°ÑĪ
ĠÑģÑŀ Ð·
it ar
Ð°ÑĨÐ¸ ÑĺÐ°
ÈĽ ion
ÑĥÐ½ Ð¸Ð½
Ġgom me
le lo
Ġsch on
æĸĻ çĦ¡æĸĻ
c c
ĠbÃ«r Ã«
Ġv Ã¡la
he it
ãĥ» ãĥ»
çķ ª
Ġo laraq
ĠØ§Ùħ Ø±ÛĮÚ©
Ġibe ere
n s
ĠÑĩ Ð¸
Ġàªķàª° à«įàª¯à«ĭ
×ķ× ļ
à¯įà®¤ à®¾à®©à¯į
Ġd ur
Ġà¦® à¦¾à¦¸
Ġa fáº¹
ĠÙĬ Ùħ
Ñı ÑĤÑĮ
ĠM or
ku ar
Ġà®ªà¯ĭ à®Łà¯įà®Ł
ĠØ¨Ø§Ø² ÛĮ
o ti
Ġv Ã©
Ġl Ã¤
ĠÂ £
ãģ¡ ãĤĥ
ĠÙ¾ Ú¾Ø±
Õ¸ Õ¶
áĢ±áĢ¬ áĢĦáĢ·áĢº
Ġi c
Ġà´µàµįà´¯ à´ķàµįà´¤
áĥĺáĥĽ áĥĶ
Ġ à¹Ħà¸¡à¹Ī
Ġà°¨à°¿à°° à±įà°®
çķ Į
Ð¾Ð» ÐµÐ¼
esz cze
hi le
à´µ à´°àµįâĢį
ĠáĢħ áĢŃáĢĲáĢ¹áĢ
ĸ áĢŃáĢ¯áĤĶ
áĢ»áĢĸ áĢħáĢ¹
ÎĻÎ Ķ
Ġàª¸àª° àªķàª¾àª°
à´Ļàµįà´Ļà´³ à´¿à´²àµįâĢį
ĠÐ¿ÑĢÐ°Ð´ ÑģÑĤÐ°Ñŀ
ĠÎµ ÏĨ
à°¿à° ³
Ġáĥł áĥĲáĥĽáĥĵ
æ² ¡
åĨ Ľ
Ġv Ã¡l
ĠÎķ Îł
àµĢ à´¤
à®¾à® ¨
Ġg t
ĠáĥĽ áĥĶáĥĿ
à¦¦ à¦¿à¦¨
ÎŁÎ ł
Ġà°ķ à°¾à°µ
Ñŀ ÑĢ
Ķà¸ ¹
Ġç İ
Ġàªĸ àª°
ĠÐ¾Ð½ Ð»Ð°Ð¹Ð½
ĠáĥĽ áĥĲáĥłáĥ¢
¥ à¹Īà¸²à¸
ĠÏĥÏĦÎ¿ Î¹
ĠÐ²Ñĭ Ð´
Ú© ÙĦ
à±ģà°Ł à±įà°Ł
Ġà¹Ģà¸ Ľà¹ĩà¸Ļà¸
Ġb Ã¼tÃ¼n
ĠÏĢÏģÏĮ Ïĥ
Ġd ost
ĠN am
æĪĲ äºº
ĠY n
Ġà¦¬ à¦¾à¦°
Ġn jer
à¥ĭ à¤ª
ĠÏĢÎ¬Î½ Ïī
à¤Ł à¥Ģ
ĠÐ¼Ñĥ ÑĤ
Ġà¤® à¤¾à¤°
ĠÑģ Ð¾ÑģÑĤÐ°Ð²
Ã¦ re
Ġà« ©
Ġà®ªà¯Ĩ à®£
ĠÐ¼Ð°ÑĢ ÐºÐ°Ð·
Ò ²
ĠÐº Ð¾Ð³Ð´Ð°
Ġno teik
Ġkw enye
ĠÐ¸Ð» Ð¼
ĠHa e
Ġ×Ĳ ×Ĺ
Ġb ol
m b
Ġen s
Ġch ÃŃnh
Ðº Ð°ÑĤÐ°
ÑĢÐ° Ñħ
Ġfor ma
Ġm ie
Ġà¦¹ à¦¤à§ĩ
r Ã¤
Ġa á¹£áº¹
et la
Ġãĥ ĳ
Ġàª¨ àªµ
Ġj ar
à¯Īà®¯ à¯ĩ
ĠM i
ĠÑĹ ÑĹ
Ġ" >
va it
Ø¨ Øª
pan eng
Ġv el
à®ķà¯įà®ķ à®®à¯į
è¾ ¼
de m
Ġtjet Ã«r
Å¡an ai
Ġá»į dá»į
ĠÃ¶ n
Ġìĺ¤ íĶĦíĻĶìĿ´íĬ¸
ĠíĮ Į
ĠáĢĳ áĢŃáĢ¯
Ġi tu
à´¿à´Łàµįà´Ł àµģà´£àµįà´Łàµį
ĠáĥĶ áĥķáĥł
´ à¸Ļà¸
à°¤ à±įà°°
æ± Ĥ
ÙĤ Ø¹
ĠÑĤ Ð¾Ð¼Ñĥ
Ð°Ð¼ Ðµ
àµĩ à´±àµįà´±
áĢ±áĢĽ áĢ¬
áĢŀ áĢĬáĢ¹áĢ·
ĠáĢĲ áĢħáĢº
ĠÎĳ ÏĢÎ¿
Ġàª¸ àª¾àªĤ
à´¿à´ķ àµ¾
ĠÐ² Ð°Ð¹
ÎĳÎ ľ
à°ķ à°°
áĥĲáĥĽ áĥĶáĥľáĥ¢
Ġh g
à¤¾à¤ł à¥Ģ
à§ĩà¦® à§įà¦¬à¦°
ÏĦÎ¿ ÏĢÎ¿Î¹
Ġà´µ à´¿à´²
Ġà®ī à®²à®ķ
ĠÑģÐº Ð°Ð·
áĥĲáĥĽ áĥĺáĥ¡
Ġs Ã¶z
ÏĢÎ¿Î¯ Î·ÏĥÎ·
à±ģà°ķ à±ģà°¨à°¿
ĠÐ½ Ð°ÑĢÐ¾Ð´
Ĺà¸ ĩà¸
ä¸ ĸ
ĠàªĹàª¯ àª¾
Ġun ui
ĠáĥĿ áĥłáĥĴáĥĲáĥľ
§à¸¥ à¸²
ĠÏĮ ÏĢÎ¿Ïħ
Ñį Ðº
×ĺ ×¨
à°°à±įà°µ à°¾à°¤
ŀ à¸²à¸
à¦¹ à¦¾à¦°
A F
l Ã¡s
Ø§Ø¦ ÛĮÚº
à¤¡à¤¼ à¥Ģ
ĠÏĥ ÎºÎ¿
áº« n
Ġv ia
å½± éĻ¢
ĠÏĦ Î¯
Ġà¤ķà¤° à¤¤à¤¾
Ð¾Ñģ Ð¸ÑĤ
à¤ı à¤¸
Ġw ÅĤa
it us
à«Ģàª ¶
Ġk arolo
ÒĽ Ð¸
Ð¸ÑĢ Ð¾
Ġv om
ĠÐºÐ¾Ð¹ ÑĤÐ¾
ĠÙģ ÛĮÙĦ
ĠÐ±ÐµÐ» Ð³
ul li
Ġà®Ĩ à®¯
ÉĻ ÅŁ
í ĳľ
ĠÄ ĵ
Ġen core
ĠÙ¾ Ø§ÛĮ
Ġg ru
Ð¾Ñģ Ð¿
Ã¶ s
Ã´ tel
ĠÑĥÑĩ Ð°ÑģÑĤ
ĠK á»į
es to
ĠÙĪ ÙĬ
Ġàªķ à«įàª°
ise en
ĠëĲ ĺ
ĠA W
ĠØ¯ ÛĴ
da y
h Ã¡z
lÉĻrin i
cz as
à¯Īà®¯ à®¾à®©
te an
ĠÃ© t
ĠÐ¸Ð½ ÑĦÐ¾ÑĢÐ¼
b or
ÙĪØ± Ù¹
Ġtun tun
ĠÙĬ Ø¹
à¦¿à¦Ł à¦¿
Ġgj atÃ«
áĤ ī
Ġe ke
àµįâĢĮ à´¸
áĥĴ áĥĿáĥĽ
à¸Ńà¸¢à¸¹ à¹Īà¸
Ġà°µà°¿à°· à°¯
è° ĥ
Ð¿ Ð¾Ð»
Ã¡r t
Ġma z
à´ļàµįà´ļ àµį
ĠáĢŁ áĢ¯
áĢ¯ áĢķáĢ¹
ĠáĢĨ áĢĽáĢ¬
Î³ÏģÎ± Î¼Î¼Î±
àªķ à«Ģ
à´¯àµįà´ķàµįà´ķ àµį
ĠÑĨ ÑįÐ½ÑĤ
ÎŃÏģ Î½Î·
Ġà°¬ à±įà°°
Ġáĥ¡áĥĲáĥ Ĵ
é£ ŀ
à¤¾à¤² à¤¾
lo Äį
ĠÎ¶ Î·
Ġà´µ àµĩà´£àµįà´Ł
un den
ĠÐ´Ð·ÑıÑĢÐ¶ Ð°Ñŀ
áĥ£áĥłáĥ Ĺ
ĠØ± Ø§Ùĩ
Î´ Î¿Ïħ
à°Ĥà°Ĺ à°¾à°£
Ð° Ñİ
à¸Ńà¸ °
åıĳ å±ķ
Ġàªķàª¾àª° àª£à«ĩ
ãĥ³ãĤ ¿
áĥĲáĥł áĥĲ
à¸£à¸±à¸ ģà¸©
ĠÎº ÏģÎ±
Ñĳ Ð¹
Ã Ĵ
à±ĭ à°ª
µ à¹Īà¸
Ġh á»£p
2 6
Ġk dy
Ġho bane
Ġà¤ĺ à¤°
ĠÏħÏĢÎ¬ÏģÏĩ ÎµÎ¹
Ġë ¡
à§įà¦ Ń
à¥įà¤° à¥ĩà¤¸
f yd
à¥ĥ à¤¤
ĠÐ³ ÑĥÑĢ
Ġà¤ħ à¤ļà¥įà¤Ľ
Ø±ÛĮ Ùģ
Ġb el
Ġàªªà«ĭàª¤ àª¾àª¨àª¾
Ġ×ŀ× ĵ
ĠÐĳ Ð¸ÑĢ
ĠÐ¼ Ð¾Ð»
az Äĥ
Ġdon c
Äħ d
Ð¾Ð² Ð°ÑĢ
Ú© Ø§
ĠvÄĵ l
im iz
Ġbi le
Ġi hre
c teur
Ġãĥ ª
ÐºÐ¾ Ñİ
ik Ã¤
v iz
Ãª te
Ġà®ĩà®°à¯ģà®ķà¯įà®ķ à¯ģà®®à¯į
ur uf
ĠÙĤØ± Ø§Ø±
ĠP ri
ĠG u
ĠÙĪ Ø§
Ġ ãģĦ
Ġy ÃŃ
li j
Ġnigba gbogbo
Ġìł Ģ
k Ã©nt
ĠÐĿ Ðµ
ÉĻn c
ãĤĵ ãģ§
a ka
ĠÐŃ ÑĤÐ¾
Ġqu an
ÑĨÐ¸ ÑĺÐ°
bo ju
Ð¾Ð· Ð¸
Ġf ra
dz iaÅĤ
±áģ¾áĢĢ áĢ¬áĢĦáĢ¹áĢ¸
Ġts he
Ġà´® àµģà´¨àµįà´¨
áĥĲáĥľ áĥĴ
Ġà¸§à¸´à¸ ĺ
Ġà°¦ à±Ģ
é¡ ¹
Ġti dak
à§ģ à¦¤
Äģci ja
Ġà´¨à´¿à´¨àµįà´¨ àµģà´Ĥ
áĢĢáĢ¹áĢ Ĳ
áĢĦáĢ¹áĢ Ļ
ĠáĢ¡ áĢģ
ĠÎĶÎ¹Î± Î²Î¬ÏĥÏĦÎµ
Ġàªħ àªµ
àµįà´ ¦
ĠÑĨÑı Ð¿ÐµÑĢ
Î¼ Î¯Î±
à°¦ à±ĩà°¶
áĥĲáĥłáĥ ¯
Ġå¾ ·
åģ ļ
Ġpri ma
ĠÏĥÏħ Î³Îº
à´¶ àµįà´¯
y un
ĠÑĢ Ð°Ð±
ĠáĥĲáĥ ĺ
Ġsvo j
Î¾ Ïį
Ġà°® à°§à±įà°¯
ĠÑĢÐ°Ð· Ð¼
à¹Ģà¸¥à¸ ·à¸Ńà¸
ä»Ģ ä¹Ī
Ġàªµàª¿àª ļ
Ġer i
ĠáĥĽ áĥ¨
Ĳ à¸
ĠÎŃÎ½Î± Î½
ĠÐ¼Ñĥ Ð·
Å¯ Å¾e
à°Ĥà°Ł à°¿
Ħ à¸£à¸±à¸ļ
Ġcon c
Ġf od
ĠÃ ¤
Ġãĥ Ī
à¤¿à¤² à¤¾
Ġu 003
ÐµÑĢ ÐµÐ´
Ġà®ĩ à®©
à¥ĭ à¤§
ow s
Ġà¤ķ à¥įà¤°
Ð°Ð² Ð¾Ð±
à¤ķ à¤¾à¤°à¥Ģ
Ġeg Ã©sz
ìĹĲ ê²Į
Ġàªķàª° àª¤àª¾
Ø§ÙĦ Ø©
ĠÐ¼Ð°ÑĬÐ»ÑĥÐ¼ Ð¾ÑĤ
ÑĥÐº ÑĥÐ¼
on te
Ġp ay
Ġw ÅĤ
ĠÐĶ Ð°Ð²
× ¥
Ð¸Ñı ÑĤÐ°
Ġcu ando
Ġà¦¸ à§įà¦Ł
Ġb Å«
Ġe us
å¿ ľ
ĠÚ© ÙĨØ¯
Ġk Ã©t
ĠØ§ÙĨÛģ ÙĪÚº
Ġdu te
Ð° ÑİÑī
Ġdar d
ĠB ir
Ġà®İà®´ à¯ģà®¤
Ġàª ¥à«Ģ
O W
Ġod powie
Ġs iláº¹
Ġèĩ ª
Ġh áº¹
r ÃŃ
à¯Ĭ à®£à¯įà®Ł
Ġle baka
ĠW e
ĠÑī Ð¾Ð±
ÙĨ Ø³
ĠÃ®ntÃ¢l ne
atu it
Ġà®ī à®¤
Ġo kun
ì »
Ġre z
ĠÐº Ð¾Ñĺ
áĢĢáĢ¹áĢ ¡
ung u
Ġà´¸ à´¿à´¨à´¿à´®
áĥĲáĥ£áĥ ł
ģà¸ ¥à¸²à¸
à°¾à°Ĥà° ķ
çİ ĩ
Ġc os
Ġ×ŀ× Ľ
ìĺĪ ìķ½
àµĤ à´°àµįâĢį
áĢģáĢ» áĢĢáĢº
Ħ áĢ¼
áĢ¾ áĢ¯
Î»Î· Î¼Î±
Ġíı ī
Ġà´ļ àµĩ
Ð¾ÑĢ ÑĭÑı
ÎĹ Î¤
âĢĮâĢĮ âĢĮâĢĮ
ĠáĥĻ áĥļ
åĮ Ĺäº¬
åĬ ©
ĠÐ² Ð¾Ð¿ÑĢÐ¾Ñģ
Ïĥ Î¹Î¬
Ġà´ªàµįà´° à´¸
Ġàª¶ à«įàª°
ĠÐ¿ÑĢÐ°ÑĨ ÑıÐ³
ĠáĥĲáĥ Ļ
Ġk Ã©r
ĠÏĥÏĩ Î¿Î»
Ġà°¤à±Ĩà°² à°Ĥà°Ĺà°¾à°£
Ð¾Ð»ÑĮ Ðº
Ħà¸£à¸ ±à¹īà¸ĩ
æ Ĥ
ĠÐ´ ÐµÐ¹ÑģÑĤÐ²
cz eg
áĥĶáĥ £áĥļáĥĺ
ŀ à¸£à¸
2 3
ĠÐ² Ð°Ð»
Ġ Õ¡Õ¶
Ġà°µà°¿à°¦ à±įà°¯
à¹ģà¸ ¡
Õ¡Õ º
Î¯ Î´Î¹
ir lÉĻr
kÃ¶ z
Ġå¤© å¤©
Î»Î± Î¼Î²
Ġim mer
va Å¥
Ġà¤ħ à¤µ
ĠÎ´ÏħÎ½Î± ÏĦÏĮ
à¥ĩà¤ ¬
Ð¶ Ð°ÑĤ
Ġà¤¬ à¤ļà¥įà¤ļ
ĠÚ©ÛĮ ÙĦØ¦ÛĴ
Ġàªª à«įàª²
à¦¿à¦¬ à¦¾à¦°
j Å¡ÃŃ
Ð³ ÑĥÐ·
ĠÐ±ÑŀÐ» ÑģÐ°
Ġë¬ ´
Ġnh Ã¢n
ĠÙĨ ÛĮØ²
Ð± Ð¾ÑĪ
Ġbo lela
Ġv je
Ġàªµà«įàª¯ àªķà«įàª¤
ĠÑįÑĤ Ð¾Ð³Ð¾
ĠØ§ÙĦØ º
C J
à¯Ĭ à®´
à§ĩà¦ ¹
at ti
éģ ¸
Ġa st
el n
Ġd uro
ok at
tlak ase
Ð´ Ð°Ñģ
I E
k iem
P A
Ð´Ð°Ñģ Ð´Ð°Ñģ
Ġá»į kunrin
ĠÐºÐ¾ ÐµÑĤÐ¾
Ġ Õ¡Õµ
à¦°à§įà¦ ľ
Ã« ri
Ġto dos
h to
Ġmok hoa
Ġl um
ri j
Ġá»Į má»į
Ġo Ã¹
ĠíĶ Ħ
Ð°ÑĤ Ð¾ÑĢ
±áĢĽ áĢ¸
ek s
à´ķàµįà´ Ł
ĠáĥŀáĥĿáĥļ áĥĺáĥ¢
à¹Ī à¸Ļà¹Ģà¸
Ġà°µ à°¿à°¨
å¤ ´
àª¿ àªĤàª
bb e
Ġa ny
à´Łàµįà´Ł àµį
Ġ áĤıáĢŃáĢ¯áĢĦáĢ¹áĢĦáĢ¶
»áĢķ áĢ³
áĢĶ áĢļáĢº
Î¯Îº Î·
ĠÙĤ ÛĮÙħØª
Ġà´¨ à´®àµįà´®
ĠÐ°Ð´ ÐºÐ°Ð·
Î¸Îµ Î¹Î±
à°¿à°² à±į
Ġáĥ¬ áĥĶáĥļáĥ¡
åħ ī
éĤĢ è¯·
ÑĥÑīÐµ ÑģÑĤÐ²
Î³ Î¹
àµįà´ ľ
s _
ÑģÑĤ Ñĭ
ĠáĥĲáĥ £áĥ
Ġsi g
ĠÎĶ Î®
Ġà°¤ à°¿à°°
ĠÐ· ÑĢÐ°Ð±
ĵ à¹Įà¸
æŃ ¤
Ġje ho
Ġje go
Ġáĥĺáĥľáĥ¤ áĥĿáĥłáĥĽ
¹ à¹Ī
ĠÏĥÏĦÎ¹ Î³
ÐĨ Ðĵ
Ġb Ã¶yÃ¼k
Ġà°ĩ à°ļà±įà°ļ
ŀà¸ ·à¹Īà¸Ń
à¦¦à§įà¦ ¦
ĠÏĢÎ±Î¹ ÏĩÎ½
ĠØ§Ùģ Ø²
ĠÐ¿ÐµÑĢ ÐµÐ´
äºº äºº
ĠÎ» ÎµÏĢ
Ġh iyo
Ã Ģ
à¤ Ŀ
Î¬ Î²
à¤¿à¤ ¹
ĠÑį ÑĬ
à¥ĩ à¤¹
ĠÂ ¹
Ġàªķàª°à«Ģ àª¨à«ĩ
Ã Ķ
ng en
ĠÐ³ Ð°Ð¿
Ð¾ÑĪ ÑĤ
ĠÙ¾ÛĮ Ø´
Æ° a
gy an
Ð°ÐºÑĤ Ð°Ð±
ha ba
ĠE us
bi de
Ð¾Ð½Ð¸ ÑĺÐ°
p at
Ġ Å¼
Õ¥Õ ²
Ġq ay
ÙĬ Ùĩ
Ġ×ķ ×ĳ
Ġà¦Ĩ à¦¶
m me
Ġi w
à«ĭ àª¨à«Ģ
à®¤ à¯ģà®®à¯į
Ð² ÑĢ
ìĭ ¬
Ġtso hle
ĠJ u
à®¤à¯įà®¤ à®¿à®¯
Ġrá»į run
ĠZ u
Ġjed no
Ġl v
r s
Ø¯ Ø§
ĠnÃ« n
Ġà§ ·
à§ĭ à¦·
ãĥ¼ ãĤ¯
Ġfo onu
Ġìļ° ë¦¬
ĠÑĤÑĢ ÑıÐ±
ĠÃº gy
áĢ± áĢĢáĢº
Ø±ÙĬ ÙĤ
à´¿à´ ¡
ĠáĥĶ áĥł
Ħ à¹Īà¸
à°ª à±įà°°
åį İ
Ġl le
Ġh al
t Ãł
Ġà´µ à´¨àµįà´¨
áĢĢáĢ¹áĢ ħ
Ĳ áĢŃáĢ¯áĤĶ
ĳ áĢ¬áĢĦáĢ¹áĢ
ÏģÎ¹ Î¸
ĠÐ¾ÑĤ ÑĢÐ¸Ð¼
à´¾à´° à´Ĥ
ĠÐºÑĸÑĢ Ð°Ñŀ
ĠÎĿ ÎŃ
à°¾à°³ à±įà°³
áĥĲáĥł áĥĶáĥĳáĥĺáĥ¡
ç Ł
à¤ļ à¥įà¤¯à¤¾
Ġàª¶ àª°à«Ĥ
Î» Î®ÏĤ
ĠâĢĭâĢĭâĢĭ âĢĭâĢĭ
et Å¡e
ĠÐ¿Ð°Ð´ Ð»ÐµÑĤ
Ġáĥª áĥ®áĥĿáĥķáĥł
Å¡o ant
Î½ ÏĮ
Ġà°ħ à°®
ĠÑıÑŀÐ»Ñı ÐµÑĨÑĨÐ°
Ġà¹Ĥà¸ Ķà¸¢
èģ Į
lor s
Ä« vo
áĥľ áĥĺ
«à¸¥à¸ ±à¸ĩà¸
ĠÎµ ÏĦÎ±Î¹
Ð «
ĠB ratisla
à°¾à°² à°ķà±ģ
à¹ģà¸ Ĥ
vo d
ÏĩÎµ ÏĦÎ±Î¹
Ġà®ĩ à®ªà¯įà®ª
×ľ ×Ļ×Ŀ
ĠNe ws
4 5
Ġd ru
ĠÐ±Ñĭ Ð»
à¤¾à¤² à¥Ģ
ĠÏĩ Î»Î¼
à¤¾à¤ ¡
ĠÑģÐ°Ð± Ð°Ð±
à¬ ¾
Ġì Ī
ĠÄĳá»ĭ nh
ĠÙĨØ¸ Ø±
à§ĩà¦ Ĺ
ĠÐ¾ Ð¹
ĠÐľ Ð°ÑĢ
z ko
Ġentre pr
Ġg ran
ĠÐ± Ð°Ò³
Ġtse o
Äĥr Äĥ
Ġà®ª à¯ĩà®°
Ðµ Ñĺ
ĠZ eit
Ġh Ã¤n
àª¿àª §
Ġk und
ĠÐ² Ð¸Ñģ
ĠÚ¯ ÙĪ
mo ja
ĠØ¨ ÛĮÙĨ
áº¹n u
Ġf ois
Ġà®® à®£
ì ¶ľ
Ġk ar
Ġf ela
Ġbe ere
ĠØ¬ Ùħ
Ġy eke
Ġa Ã§Ä±
ãĥķãĤ ©
ĠPer soane
Ġh ay
a la
Ġn asz
ĠÑĢ ÑĸÐ·
àªĹ à«Ģ
é §
ĠGb Ã¨
Ġjed nak
u tsch
ÈĽ e
áĢŀ áĢĬáĢ¹áĢ
Ð² Ð¾
Ġà´® àµģà´¤
áĥĲáĥĵ áĥĲáĥ¡
Ġà¸ ļà¸²à¸Ĺ
Ġà°¤ à°°à±įà°µà°¾à°¤
åĪ Ľ
à¦°à§įà¦ ¶
å ĥ
Ġà®ª à®¾à®Ł
Ġà´² àµĭà´ķ
áĢ ¦
áĢ»áĢķ áĢ³
áĢļáĢ¹áĢľ áĢŃáĢ¯áĤĶ
ĠÎ£ ÎµÏĢ
Ġcon o
Ġà´¸ àµįà´±àµįà´±
Ñĸ Ð»Ð°
Î´ ÏīÎ½
Ġà°² à±ĩà°ķ
áĥ£áĥł áĥĺáĥ¡
å¢ ŀ
ä¸ ĵ
b r
Î¶ Î·
à´¿à´ķàµįà´ķ àµģà´ķà´¯
tso ho
Ð² Ð°ÐµÑĨÑĨÐ°
Ġáĥ§áĥķáĥĶáĥļ áĥĲáĥĸáĥĶ
Ġval Ã³
ĠÎľ ÎŃ
à±ĩà° ¦à°¿
ĠÐ¶ Ð°Ð½
Ġ à¸Ļà¸²à¸
ĠagåĽ½éĻħ äºļæ¸¸
Ġëĺ Ĳ
Ġz h
áĥĲáĥł áĥĶáĥĿáĥĳ
łà¸²à¸ ©
Ġe ich
ÐµÐ² ÑĸÑĩ
ĠNa ch
Ġà°®à±ģà° ĸà±įà°¯
à¸£à¸ ¹à¸
Ġ×ŀ× ¦
Îº Î¹Î±
à¯ģà®® à¯ĩ
Ġch am
à¤Ĥà¤¤ à¥įà¤°
ĠÎ²Î¿ Î·
àª¸ à«įàªŁ
Ġk il
Ġèī ²
Î¿ Î³
Ġà¤¬ à¤¢à¤¼
ĠÐ¼Ð¸Ð» Ð»Ð¸
Ġà¤Ĩ à¤¯
Ø¬ Ø±
ĠB at
ĠfÉĻ al
g ia
ĠÐº Ð¸ÑĤÐ¾Ð±
Ð¾Ð· Ð¸Ð¼
Ġãĥ ©
Ðµ Ð´Ð¸
la ire
ĠÐº Ð°ÑĤ
Ġnako ng
ĠÅŁ ÉĻx
Ġà¦Ńà¦¾à¦° à¦¤
Ġàªħ àª¥
en Ã©
ĠØ´ Ûģ
Ø³ Ø©
te il
Ġà¦ļ à¦¾à¦²
v il
Ã³w i
ÐµÐ½ÑĤ Ð¾Ð²
a bo
Ġà®ĩà®° à¯ģà®ªà¯įà®ª
Ø¸ Ùħ
×ĵ ×Ļ×Ŀ
ĠÐ²Ð¸Ðº Ð¾Ð½
Ġme futa
Ġy áº¹n
ĠØ²ÛĮØ§ Ø¯Ûģ
ĠGbo gbo
Ġx ÉĻbÉĻr
ãģ ĸ
Ġg al
Ð½Ð¸ Ðµ
Ġà¦ ł
cz nej
ĠÂ ¡Â
Ġs inh
ãĤ¤ ãĥ³
ul u
ra tion
ĠÐ±ÑĥÐ» Ð¾
Ġê³ Ħ
áĢĶáĢ¾ áĢħáĢº
Ã« l
à´¾à´¯à´¿à´° àµģà´¨àµįà´¨
ĠáĥĲáĥ¦ áĥĽ
à¸Ļà¹īà¸ ³à¸
à°°à±įà° ķ
é£ İ
Ġques ta
ĠéĢ ģ
ĠH er
à´Ł àµģà´¤àµįà´¤
áĢĻáĢ» áĢŃáĢ¯áĢ¸áĢ
ĠáĢķ áĢŃáĢ¯
ĠáĢ ĵ
ÏĦÎ¹Îº Î¿
Ġmu jeres
àµĩà´· à´Ĥ
Ñı Ñŀ
ĠÎ£ ÏĦÎ¿
Ġà°ħà°¨ à±ĩ
Ġáĥ¨áĥĶáĥ ®
20 20
Ġæĺ ¯
ci ona
ĠÎ¤ Î¿Ïħ
Ġà´ķàµįà´ ·
Ġbo phelo
ĠÑĳ ÑģÑĨÑĮ
áĥĽ áĥĺ
is te
Î´ Ïī
à±ĥ à°·
ĠÐ¶ ÑĭÐ²
· à¹īà¸Ļà¸
à¥ĩà¤ ļ
ia da
Ġà¦ķà¦° à§ĩà¦Ľà§ĩà¦¨
áĥĿáĥļ áĥĿáĥĴ
Ķà¸ ¹à¸
Ġy s
ĠÑħ ÑĤÐ¾
Ġnagy on
à°Ĥà° Ń
Ġà¹Ģà¸¥ à¹Īà¸Ļ
ĠØ§ ÙħØ§
Îµ Î½Î¿Î´Î¿
ĠÃ®ntÃ¢lne ÈĻte
ÈĻ o
à¤¬ à¥Ģ
Î¬Î» Î¹
Ġb elÉĻ
ÐµÐ½Ð¸ ÐµÑĤÐ¾
à¤Ĥ à¤¸
Î¯ ÏĦÎµ
à¤°à¥įà¤ ¶
ĠÐ¼ÐµÑĪÐ°Ð² Ð°Ð´
Ġà¤® à¤¾à¤®
ĠB il
ĠS et
Ġìĸ ĳ
Ġà®ħà®± à®¿à®µ
Ð¸Ð± Ð¸
ĠÐ¾Ð½ Ò³Ð¾
åĭ Ļ
Ä£ i
a cji
ĠÐ² Ð°Ðº
ĠS es
an ta
Ġà¦ª à§ģà¦°
Ð· ÑĭÐ²
ĠÑħ Ð¾ÑĢÐ¾ÑĪ
Ġdu pÄĥ
ĠSlov ens
la st
Ġh Æ¡n
Ġ×ŀ× ĳ
Ġt alÃ¡l
Ġà¦® à¦¨à§ĩ
Ġw á»į
ìĹ Īëĭ¤
m al
Ġs tre
ÑģÐº Ð°ÑĤÐ°
Ġts ena
Ġon ib
ĠÐ¿ÑĢ Ð¾Ð±
Ġin a
ĠØ° ÙĦÙĥ
ãģı ãģł
Ġr ou
c el
à¯Īà®¤à¯įà®¤ à¯ģ
Ġh asta
pp o
Ġo ver
ãĥª ãĤ¢
ay i
Ġau tre
à¦¿à¦ ¹
Øª ÙĪØ§ÙĨ
áĢ»áĢķ áĢĬáĢ¹áĢ
w et
àµĢ à´·
Ġáĥŀáĥł áĥĿáĥª
Ī à¹īà¸²à¸
Ġà°İà°¨à±įà°¨ à°¿à°ķ
è¿ ĳ
ĠÐ±ÐµÑģÐ¿ Ð»Ð°ÑĤ
sch en
k Ã©
Ġà´¨àµĩ à´¤
±áĢĨ áĢ¬áĢĦáĢ¹áĢ
áĢĢ áĢ±áĢĲáĢ¬áĢ·
áĢ¯ áĢĴ
Î´Î¿ ÏĤ
Ġb este
à´¾à´´ àµįà´ļ
Ñĳ Ð¼
ĠÎ±ÏĢ Î±
Ġà°°à±Ĩ à°Ĥà°¡à±ģ
Ġáĥ§áĥĿáĥķ áĥĶáĥļ
æĮ ĩ
Ć ć
Ġf er
Î±Î½ Î¬
Ġà´ķ àµģà´Łàµįà´Ł
àªĸ àª¤
ĠÐ´Ð· ÐµÐ¹
áĥĵ áĥĶ
Ġh ona
ĠÎļ ÎĳÎĻ
à°¿à° §
ĠÂ ±
ķà¸´à¸ Ķà¸
ĠèĢ Į
Ġnjer Ã«z
Ġà®ķà¯Ĭ à®³à¯įà®³
áĥĿáĥ¤ áĥļ
à¸£à¸¹ à¹īà¸
ĠÏĢÏģÎ¿ ÏĬÏĮÎ½
ĠÑĢ Ñĥ
Ġmol to
à± ĸ
· à¸Ńà¸Ļ
atu d
Î±Î¹ ÏģÎµ
Ġda Å¾
Ġal kal
à¶± à·Ĭ
Ġd d
×Ļ×¨ ×ķ×ª
d Äħ
Ġà¤ļà¤¾à¤¹ à¤¿à¤ı
ĠÏĢ Î¹Ïĥ
Ġà¤¸ à¥Ĥ
Ð°Ð½Ð´ Ð°Ð¹
Ġà¤Ĩ à¤Ī
ca le
fa tsa
ĠÕ Ħ
Ġt ÉĻk
ĠÑħ Ð°ÑĢ
ĠÐ¸ ÒĽÑĤÐ¸ÑģÐ¾Ð´
t ta
ĠF emei
ĠD es
Ð´Ð°Ð½ Ð¸
ate Ä¾
un ea
c one
àªĤ àª®
ĠÚ©Ø± ÙĨØ§
Ð½Ð¸ ÑĨ
ĠåĲ į
ãģ® ãģĭ
ĠØ§ÙĦ Ø²
à§ĭ à¦ª
Ġgjit ha
z ni
ĠU ni
ĠÐºÐ¾ÑĤÐ¾ÑĢ ÑĭÐ¹
ìłģ ìĿ¸
ĠÑģÐ² ÑĸÑĤ
dz y
Ġfi hle
Ġa gba
à®¾à® ¨à¯įà®¤
ĠI gb
nÃŃ ch
ĠãĤ Ĥ
Ġs it
à«ĭ àª¨àª¾
Ġm 2
Ġd Ã´
Ġnda j
da h
éĽ »
áº¹ hin
Ġi de
ion s
áº£ ng
áĢ±áĢķ áĢĻ
cz na
àµĨà´Ł àµģà´ķàµįà´ķ
Ġáĥ¡ áĥĻ
Ġà¸ «
Ġà°¤ à±Ĭ
Ġç Ľ
à¦¾à¦ Ľ
ĠÐ½ ÐµÑĤ
Ġk y
Ġà´¨à´Ł à´¤àµįà´¤
áĢĲ áģ
áĢĦáĢ¹áĢ ŀ
áĢħáĢ¹áĢ ħ
ÏģÏī ÏĢÎ±
Ġàªħ àª²
Ġà´ķàµĤà´Ł àµģà´¤
ĠÐ¿ÑĢÑĭ Ð·
ĠÎ½ ÏĮ
à±ģà°¤ à±Ĥ
ĠáĥĲáĥłáĥ ª
Ġ ą
è§ ģ
ĠØ§ÙĦÙħ Ø´
Î» ÏİÎ½
à´¨àµįà´¤àµįà´° à´¿
Ġm Ã¶
ĠÐ² Ð¾Ð±
áĥĺáĥĻ áĥĺáĥ¡
Ġm as
Îķ Î¥
à°° à±įà°²
Ð»ÐµÐ½ Ð½Ðµ
Ġà¸ª à¸´
åĬ ŀ
Ġhe Ã§
Ġk ont
ĠáĥĽáĥĿáĥ ¥
¹ à¹Īà¸
Î»Î¿Î³ Î®
ĠÑĩ ÑĭÐ¼
Ġne ces
à±ģà°² à±įà°²à±ĭ
à¸´à¸ Ķ
ĠÑģÐ¿ Ðµ
Î»Îµ ÏĥÎ¼Î±
Ã©t Ã©
Ø´ Ùĩ
à¤°à¥įà¤ ¦
we ith
Ġà§ ®
ĠÐ¾ Ð²
à¤® à¤¾à¤¨
4 8
Ġà¤ķ à¥įà¤¯à¥ĭà¤Ĥ
ĠÐ½Ð°ÑĦ Ð°ÑĢ
Ġà¤²à¥ĩ à¤ķà¤°
Ö ¼
ia l
Ġà¦ķà¦¾à¦ Ľà§ĩ
×Ļ×¨ ×Ķ
ÑģÐ» Ð¾Ð¼
ĠÐ· Ð¸Ñĳ
ĠÐ´ Ð¾Ðº
à¯įà®Ł à¯į
da p
Ð¼ Ð°Ð¹
Ġl Ã¡t
Ø³ Ù¹
ĠØ³ ÙĬ
larÄ±n Ä±
im mer
Ġm nie
ãģ«ãģ¤ ãģĦãģ¦
b ar
ĠÙĨ Ùħ
± ħ
Ä« tÄģ
Ġthus a
d ia
à¦¿à¦ §
Ð¾Ð¶ Ð´
Ġol la
ÑĸÐ´ Ð¾Ð¼
Ġàªĸ à«Ĥ
Ġonib ara
te ti
Ġiá¹£e duro
ãĥĥãĤ¯ ãĤ¹
ĠÃ© qui
jem y
ĠÚ© ÙĦ
ĠF or
Äĵ ja
jÄħcy ch
ãģĮ ãģĤãĤĭ
ëħ Ģ
Ġf á»į
à®ķ à®®à¯į
Ð°Ð»ÑĮ Ð½Ð¸Ñħ
Ġt ÄĽ
ī áģ
Ġmose betsi
à´² à´Ĥ
ĠáĥĲáĥĵáĥĴ áĥĺáĥļ
ĵ à¹Į
à°Ĥà°¤à±įà°° à°¿
éĢ ł
íķ© ëĭĪëĭ¤
ĠÐ¼ ÐµÐ½Ñı
le ur
Ġà´Ĩ à´£
áĢ¬áĢ¸áĢĻ áĢº
ĠáĢ±áĢ ħ
áĢĲáĢ¹áĢ ľ
ÏĨ ÏīÎ½
sk Ã¡
Ġà´¸ à´°àµįâĢįà´ķàµįà´ķ
Ðº ÑĢÐ°
ĠÏĦ ÏģÎ¿
à°¿à°ķ à±į
áĥł áĥĿáĥĳ
è İ
åħ ±
Ġt ho
ĠÎ´ Î¹Î¿
Ġà´¸ àµģà´
Ġà¦ĩ à¦¨
Ð² Ð°Ð»Ñĸ
áĥ£áĥł áĥĲáĥĵ
d ul
ÏĨ Î¹
Ġà°ª à±ĩ
Ð°Ð³ Ð¾Ð´
à¸µà¸ ģ
éľ Ģ
Ġgi bt
p s
áĥł áĥĲáĥ¤
¥à¸ ±à¸ĩà¸
ÏģÎ± ÏĥÏĦÎ·
Ð»Ñĸ ÑģÑı
à«Ģàª ¦
à°µ à°¿
·à¹Ī à¸Ļ
ÐµÐ½ Ð½ÑĭÑħ
na u
ĠØ§ Ø·
ĠÐĴ Ð¾
ĠH indi
ÎºÎµ ÎºÏģÎ¹
à«ĭ àª¨à«ĩ
×ķ×ł ×ķ×ª
æ¬ §ç¾İ
ĠÏĨ ÏħÏĥ
ç¢ °
Ð°Ð½ Ð´Ð¸
à¤¾à¤ı à¤Ĥ
Ġà®ķà¯Ĭà®£à¯įà®Ł à¯ģ
ow Äħ
ĠÙĬ Øª
Ð°Ð» Ð¾
Ñģ ÑĥÐ»
ĠÐĲ Ð·
Ġfa paneng
Ġnom bre
Ġà¦¨ à§Ł
ĠÒ³ ÑĥÐ´
k lad
Ġg el
Ġfund it
Ġà¦ľ à§Ģà¦¬
Å£ ion
Ã¢ r
s il
à®¿à® ªà¯į
àª°à«įàª ļ
os an
ĠÂ £Â¬
Ġca o
Ġtin do
Ġpra w
Ø± Ùħ
ãĤĪãģĨ ãģª
Õ ¹
dÄ± ÄŁÄ±
Ġi ya
ĠVi deos
ilo ju
ro l
ol lis
Ġta d
Ġà®ª à¯ģà®°
à¦¾à¦ĩ à¦¨
b ra
Ġig az
ĠShqip Ã«r
Ġk ush
Ġgb á»įn
Ġp m
ÙĤ Ùĩ
ĠÐĹ Ð°
ĠáĢ±áĢ ĸ
ë¥ ¸
Ġà´Ł àµįà´Ł
áĥĲáĥ¡ áĥĹáĥĲáĥľ
Ķà¸ ±à¸ļ
Ġà°ħà°§ à°¿à°ķà°¾à°°
Ġç ¬¬
ili cone
h lan
lo Å¾
à´Ļàµįà´Ļà´³ àµĨ
áĢ¬ áĢ·
áĢĺ áĢ²
áĢ½ áĢĢáĢº
ÏĦÎ¹ÎºÏĮ ÏĤ
ĠC um
Ġà´İ à´¨àµįà´±àµĨ
ĠÐ¿ÑĢ ÑĭÐ¼
ĠÎ² Î±Ïĥ
à±Ģ à°²à±ĭ
áĥĲáĥľ áĥĲ
Ġä¸Ń åĽ½
åı Ĺ
m Å±
ĠÎłÎ± ÏģÎ±
Ġà´ħ à´ª
li m
ĠÐ£ Ñģ
Ġáĥ¨ áĥĶáĥķ
à¦¿à§Ł à¦¾à¦°
ĠÎ± Î¹
à°¿à° ¬
ĠÐ³ ÐĤ
à¹Ģ à¸Ń
éĤĢè¯· çłģ
×ķ×¨ ×Ķ
ĠM are
áĥĲáĥľ áĥĺáĥĲ
à¸£à¸µà¸ ¢à¸
ĠÎ±ÏĢ Î±Î½
Ð°Ð¼Ð¿ Ð°Ð²Ð°ÑĨÑĮ
Ġàª² àªĪ
à°¿à° ¶
à¹Ģà¸£ à¸²
ĠÐ¼ Ð°Ð¹
ind ows
Ġà®İà®©à¯įà®ª à®¤à¯ģ
Ãª m
Ġà¤ľ à¤¾à¤¨à¥ĩ
ĠÏĩÎ± ÏģÎ±Îº
Ġàª¬ àª¦
Ø§ Ùĥ
ĠåĽ½ äº§
ÏĪ ÎµÎ¹
à¤ª à¥ģà¤°
ĠÐº ÑĥÑĩ
Ġà¤¬ à¥įà¤°
z u
Ġo ok
s ione
ĠÐ²Ð¸Ð´ Ðµ
ĠÐ¼Ð°ÒĽÑģ Ð°Ð´
Ð°Ò³ Ð¾Ð½
in as
en k
Ġà¦Ĩ à¦¨
ĠÒ³ Ð¾Ðº
Ġsu is
Ð¸Ð· Ð½Ð°Ñĩ
Ã©s i
Ġts wa
n Äĥ
ĠÃ§ a
m Ã©
ĠÐ¿ÑĢ ÐµÐ·
àª² à«ĩ
à§įà¦² à¦¾à¦¹
ĠØµ ÙĪØ±Øª
h Ä¾ad
wá»į le
Ð½Ðµ Ðµ
Ġb us
d Ã«r
Ð½Ñĸ ÑģÑĤ
ĠIt alia
ĠPro du
Ġn or
láº¹ yin
Ø Į
Ð¾Ð¶ Ðµ
Ã ĸ
ĠÄĳá» ģ
à¦¾à§ľ à¦¾
Ġãĥ Ĺ
ĠÄ¾ ud
ĠØ¯ ÛĮÙĨ
Ġo h
Ġá»Įlá»į run
Ġàª ł
Ġluc ru
Ġt ov
áĢĢáĢ¼ áĢ±áĢ¬áĢĦáĢºáĢ¸
×¨ ×Ĵ
Ġà´¨à´¿à´¯ à´®
ĠáĥĽ áĥľáĥĺáĥ¨áĥķáĥľáĥĶáĥļ
Īà¸ ³à¸
Ġà°¸ à°¹
Ġä» ¥
Ġso bie
ãĤģ ãģ¦
Ġpa Å¡
Ġà´® à´¾à´±àµįà´±
ĠáĢĢáĢŃáĢ¯ áĢļáĢ¹áĢ
ĠáĢľ áĢŃáĢ¯
áĢĨ áĢ±áĢ¬áĢĦáĢº
Î¹Ïĥ Îµ
Ðº Ð¾Ð¼
Ġà´Ł àµįà´°
ÑįÐ½ Ð½Ñĸ
Î² Îµ
Ġà°µà±įà°¯ à°ķà±įà°¤
Ġáĥ©áĥĶáĥĽ áĥĺ
æĶ ¹
æ¡ Ī
Ġsul la
ÏģÎµ Ïħ
à´¾à´¨ àµģà´³àµįà´³
Ġbe au
ĠÐ¿ÑĢ Ð°Ð±
ĠáĥĴáĥĲáĥľ áĥĽ
Ġà¦¨à¦¿ à¦°à§įà¦
Î´ Î·ÏĤ
Ġà°ı à°®
ĠÐĲÐ»ÑıÐºÑģ Ð°Ð½Ð´
Ĭà¸ ·à¹Īà¸Ńà¸
åİ ¿
ĠÃ µ
ĠØª ÙĪÙĦ
áĥĺáĥ ¬
¢à¸ ¸à¸
Ġ4 8
ĠÑģ ÑĥÐ¼
Ġàªªà«įàª° àª®
Ġà°®à±Ģ à°°à±ģ
à¸²à¸£ à¹Įà¸
Õ ©
ĠÎµ Î´Ïİ
iy ÉĻ
ĠÃ ľ
Ġà¤ª à¤¾à¤¸
A X
àª°à«įàª ¥
ÅĽ l
Ġà¤ Ī
ĠA C
Ġà¤° à¥ģà¤ª
ĠÐ¸ÑĪ Ð»Ð°Ð±
à¤ľ à¥Ģ
Ġkund Ã«r
Ġto i
Ġp Å¯j
z ent
Ñĥ Ð¹
ĠÐĳ ÑĥÐ½
ka ti
Ø§Ø± Ûģ
Ġà®µ à®³
Ð°Ð½ Ð¸Ð½Ð³
Ġv Å¡e
Ġle b
Ġcu al
la tion
ĠØ§ÙĦÙĬ ÙĪÙħ
Ø´ ÙĪØ¯
s al
Ġie g
à§įà¦¯ à¦¾
Ð¾Ð½ Ñĭ
Ġk os
ĠëĮĢ íķľ
Ġlá»į wá»į
Ġ ush
Ġye o
ĠT se
ĠÐ´ ÑĸÑı
ç Ĺ
Ġe mi
ĠâĢ ¹
ĠA gbegbe
ÑĢ Ñĸ
Ġà®µ à®ķ
szer Å±
b at
ĠÐľÐ°ÐºÐµÐ´ Ð¾Ð½Ð¸ÑĺÐ°
Ñ ľÐµ
Ġs Ã¥
ĠØ³ ÛĮØ§
à«Ģàª ¬
uruf u
Ġb un
is es
à§ ¨
áĤı áģ
Ġle k
àµįà´ ¡
Ġáĥ© áĥĲáĥĽ
à¸£ à¹Īà¸§à¸
Ġà°ļà±Ĥà° ¸
åºĨ æĹ¶æĹ¶å½©
Ġa bb
ĠØ§ÙĦØª Ø¹
ĠÐµ Ðµ
Ġà´ħ à´±
áĢĻ áĢĬáĢº
áĢĶáĢ¾ áĢĦáĢ·áĢº
áĢ» áĢĢáĢº
ĠÏĥÏħÎ¼ Î¼Îµ
à§ľ à§ĩ
Ġà´µ à´´
ĠÐ¿ÑĢ Ð°Ðµ
ĠÎ§ Î±
Ġà°ķà±Ĭ à°¤à±įà°¤
ĠáĥĵáĥĲáĥ £áĥ
åı ĺ
à¥įà¤¯ à¥ĩ
Ġcom ment
ĠÎµ Î¼
à´¿à´ļàµįà´ļ à´¤
Ġm Äĵ
Ð°Ð»Ðµ Ð¶
Ġáĥĺ áĥķ
Ġb ou
ĠÎłÎµ ÏģÎ¹
à°¾à°µ à±ģ
ĠÐ¿ÑĢ Ð°ÑĦ
ªà¸¸à¸ Ķà¸
è§Ĩ è®¯
Ġàªªàª¾àª¸ à«ĩ
la ciÃ³n
ĠáĥĵáĥĲáĥ ĳ
Ġà¸ªà¸ ¹à¸
ĠÎŃÎ½Î± ÏĤ
ĠÑģÑı Ð±Ðµ
×Ļ× ĸ
à±ģà° ·
¨à¸¶à¸ ģà¸©
cho d
Î»ÏĮ Î³
Ġà¦ħ à¦§
Ġdi ese
Ġà¤Ńà¤¾à¤° à¤¤à¥Ģ
7 5
a to
æľ ¨
à¤¿à¤¯ à¥ĩ
ĠÏĥ ÏįÎ½
Ġà¤īà¤¨à¥įà¤¹ à¥ĩà¤Ĥ
ĠÑŀÑĢ Ð¸Ð½
Ġà¤¶ à¤¿à¤ķ
Ð¾Ð² Ð¾Ð¹
Ġê³ ¼
ĠØ® ÙĦØ§ÙĦ
Ġdo or
ĠÑĤ ÑĥÐ¼Ð°Ð½
ĠÐ±ÑŀÐ» Ð°Ð´Ð¸
q Ã«s
Ġa ques
ÅŁ te
ĠÑıÐ½ Ð³Ð¸
p ort
Ø§ÙĨ Ø§
à«ĩàª ¥à«Ģ
äº Ī
ĠÐ¾Ñģ Ð½Ð¾Ð²
ub lik
à®¿à®ķà¯įà®ķ à®ªà¯įà®ªà®Łà¯įà®Ł
Ġm Ã¬nh
ĠÄ° s
man de
Ġbo k
ke en
k oso
Ð¾Ñģ ÑĥÐ´
b Åĳl
Ġàª® àª¾àª°à«Ģ
Ġj en
ĠâĢĻ âĢĻ
Ġim u
Ø¹ Øª
Ġis aláº¹
l Ã¼
ĠÐ´ ÐµÐ½
Ġdon de
Ġc ei
à¦¾à¦¦ à¦ķ
rÃ³ d
r Ã«s
Å¡ t
Ġàªªà«įàª° àªµ
Ġap áº¹ráº¹
ÑĸÐ»ÑĮ ÐºÐ¸
em bre
Ġà¦ħà¦¬ à¦¸à§įà¦¥
ĠáĢĴ áĢ¯
Ġìĺ ¨
Ġà´ª à´¿à´Ł
ĠáĥĲáĥ ŀ
Ġ à¸£à¸µà¸§à¸´à¸
à°² à±įâĢĮ
á ī
ĠL ai
Ġo ra
Ġl ona
Ġà´µ à´¾à´¯
áĢĽ áĢĦáĢº
áĢ¬áĢ¸áĢ ±áĢĲáĢ¼
ĠáĢ¡ áĢ±áĢĻ
Îº Î¿Ïħ
Ø§Ø¦ ÙĦ
Ġà´İ à´´
ĠÐ½ÐµÐº Ð°Ð»ÑĮ
ÏĦÎ· Î³Î¿
à°¾à°² à±įà°¸
áĥĿ áĥĲ
ä¼ ĺ
åĵ ª
Ġav ant
Î² Î¬Î»
Ġà´¬ à´¨àµįà´§
scha ft
ÑĢÑĭ Ñĩ
Ġáĥ¡ áĥ£áĥļ
ÑĨ ÐµÐ½
ĠÎº Îµ
Ġà°ķ à°¾à°¦à±ģ
ĠÐ² ÐµÐ´
¨ à¸²à¸
åħ Ī
ĠV iá»ĩt
go d
ĠáĥłáĥĲáĥĽáĥĵ áĥĶáĥľ
ķ à¹Įà¸
Ġ9 0
Ð°ÑĨÑĭ Ñİ
r at
à°°à±įà° Ĺ
à¸£à¸£à¸ ¡
Ġd ilo
ĠÏĢÎ»Î· ÏģÎ¿ÏĨÎ¿
Ã´ n
Ġbu a
å¤© åłĤ
ĠA S
Ġà®ĩà®°à¯ģà®¨à¯įà®¤ à¯ģ
íķĺ ìĹ¬
Ġåľ¨ çº¿
ÏĨÎŃÏģ ÎµÎ¹
àŃ į
ÑĥÑģ ÑĥÑģ
Ġà¤ ł
Ġ Ã¡ltal
en ne
Ġes hte
Ñĸ Ð³
ĠÐ¼Ñĥ Ð½Ð¾Ñģ
ĠÒ³ Ð°Ñĳ
Ġn do
Ġt iem
Ġsem pre
Ð¾Ð· Ð¸ÑĢ
ra j
Ġm Ã¶v
×© ×ª
Ð°Ð»ÑĮ Ð½ÑĭÐ¹
ĠÐ¿ÑĢ ÐµÑĤ
ĠØ¶ Ø±
Ġp en
ãĤĪãģĨ ãģ«
ĠÑģÑĬ Ñģ
Ġë§ İ
Ġa mo
Ð² Ð¾Ð»
a di
Ġà®®à¯ģà®¤ à®²à¯į
Ġà¦ħ à¦ªà¦°
Ġt Ã¤
Ã¦ l
Ġvi deo
Ġi ho
ÙĪ Ø¬
Ġti ti
re z
Ġc Ã¢nd
Ġs v
ĠF re
Ñģ Ñĭ
k k
c Ã«
à«įàª ¹
ere k
Ġitá»į ju
Ġà¦¤ à¦¾à¦ĩ
ĠT Ã¼rk
it er
áĢĢ áĢ¯
Ġàªķàª¾àª° àª£
Ġà´² à´ķàµįà´·
Ġáĥ£áĥĻ áĥķáĥĶ
Ħà¸ ¥à¸
Ġà°Ĵ à°ķà±įà°ķ
ä¼ģ ä¸ļ
Ġby ÅĤo
ĠÐ² Ð¸Ð±
e tsa
Ġà´ħ à´®
áĢ® áĢľ
áĢ»áĢĸ áĢĦáĢ¹áĢ·
áĢ¡ áĢ±áĢĶ
Î© Î£
ÉĻk il
Ġà´ķàµĬ à´£àµįà´Ł
ĠÑĸÐ½ ÑĦÐ°ÑĢÐ¼
ĠÎµÏģÎ³ Î±Ïĥ
à°¤ à±įà°¸
áĥĶáĥł áĥĶáĥ¡
ï¼Į ãĢĳãĢĲ
è® ®
Ġsta to
Î³ Î¿Î½
Ġà´ĩ à´¤àµį
Ġsav u
ĠÐ³Ñĵ Ñĺ
Ġáĥ Ł
ĠÐº Ð°Ð¶Ð´
ĠÎ¿ÏĢÎ¿ Î¯
à±Ĩà°Ł à±į
ĠÐ¿ÑĢ Ð°Ðº
à¹Ģà¸£ à¹ĩà¸
è¾ ¾
à®£à¯įà®Ł à¯ģà®®à¯į
Ġà¦¸ à¦¾à¦§
ĠáĥĻáĥĺáĥĵ áĥĶáĥķ
Ġà¹Ĥà¸ Ķà¸¢à¸
f ny
ĠÐ±ÐµÐ»Ð°ÑĢÑĥ ÑģÐºÐ°Ð¹
ĠÃ Ĺ
Ġà°° à°¾à°®
«à¸ ¡
Å¡oant Å¡o
9 0
Ġha be
Ġko p
Ġà¤¹à¥ĭ à¤¤à¥Ģ
ÏĢ Ïī
Ġ×Ķ×ŀ× ©
en de
à¤¿à¤µ à¤¾à¤°
AA AA
à¬ ¿
ĠÑĢÐ¸Ð² Ð¾Ð¶
à¥ĩ à¤¤à¥įà¤°
Ġm olt
Ø¨ Ø§
tit utas
ad or
ĠÐ´Ðµ Ð³Ð°Ð½
ĠÐ´Ð°Ð² Ð¾Ð¼
Ġd ro
Åĳ t
ãĥ¼ãĤ ¿
ĠÐ¸ Ò·
Ð½Ñĥ Ð²Ð°
Ð¿ÑĢ Ð¸
ĠW as
ĠÑĢ ÐµÐº
i Ãªn
do b
di tion
ĠN jÃ«
Ġàª®àª³ à«Ģ
ÙĤ Ø§Øª
Ġpha hameng
ĠÐºÑĢ Ð°Ñģ
Ġida gbasoke
ãģĹ ãģĭ
Ġm w
ch os
ĠÑģÐ² Ð¾ÑĹ
c uri
ar á»į
à®Ļà¯įà®ķ à¯ģ
Ġni báº¹
Ġfil es
Ġj Ã¤l
Ġìŀ ħ
Ã¶l d
ÐºÑĢ Ð°Ð¸
àª¸ à«įàª¥
Äį u
ĠÑģÐ°Ð¼ Ð¾
ĠØ¹ ÙĦ
Ġpar i
ð Ł
Õ¡Õ ¼
Ġl ors
áĢ½ áĢ±áĢ¸áĢ
Ġolu b
Ġà´ķ àµģà´
áĥ¦ áĥķ
à¹ĥà¸Ļà¸ ģà¸²à¸£à¸
Ġà°§ à°°
ç ª
r Äĥ
Ø¯ Ø¯
Ġe fe
Ġà´ª àµģà´¤à´¿à´¯
áĢĤ áĢ«
áĢĦáĢºáĢ¸áĢ Ļ
áĢĸáĢ½ áĢ²áĢ·
Ġ Ïį
Ġà®ĩ à®©à¯įà®©
Ġà´ķ àµĤà´Łàµįà´Ł
ÑĢÐ°ÑĨ Ð¾Ñŀ
ĠÏĥÎ· Î¼Î±Î½
à°¾à°¬ à°¾à°¦
Ġáĥ©áĥķáĥĶáĥľ áĥĺ
èĩ ³
åį ĵ
à¦ ĺ
Î½ ÏīÎ½
Ġà´¤ àµĢà´°
lar da
ĠÑĪ ÑĤ
áĥĶáĥĳáĥĺáĥ¡ áĥĲ
Ð³ Ð¾ÑĤÐ¾Ð²
ÎĻ ÎĳÎ£
Ġà°µà±įà°¯ à°µ
ĠÐľ Ñĭ
ľà¸ ¥à¸´à¸
áŀ¶ áŀ
Ġ×© ×ŀ×
Ġg dy
áĥĲáĥ¡ áĥ£áĥ®
Ľ à¸µ
ne ud
ÑıÑĢ Ð¾Ð´
ti min
à°Ł à°Ĥ
à¸Ń à¸Ńà¸ģà¸
Ġk ga
ĠÏİ ÏĥÏĦÎµ
in er
tu p
Ġà¤¨ à¤¿à¤ķ
Ġ3 2
an za
Ġn tho
à¥įà¤°à¥Ģ à¤¯
Î½Î¿ Î¼Î±
å¹ ķ
Ð¾Ñı ÑĤÐ¸
ĠéĿ Ĵ
Ġà®¤à®®à®¿à®´ à¯į
Ġà®µ à®¿à®Łà¯įà®Ł
ĠàªŃ à«Ĥ
ì ¢
ĠÐĲÐ± Ð´
ĠÐ´ Ð¾Ð´
ĠØ®Ø± ÛĮØ¯
t ul
Ø¯ Ùī
Ð¾Ð» Ð°ÑĤ
Ġun sere
ch ten
Ø² Ø´
ĠÐļ Ð¾Ð¼
Ġà¦¦ à§įà¦¬
Ġal gun
á»¥ c
ĠÙĪ ÙĤ
Ġg u
k ki
ĠÐµÐ´ Ð¸Ð½
ĠÐ· Ð°Ð´
Ġh indi
Ġæ °
Ġtlo aele
à«įàª Ľ
es sion
es sÃ©g
Ã³ Ì£
à¯ģà®± à¯Ī
Ġw h
Ø¹ Ûģ
Ġg Ã©nÃ©
Ġtut to
p se
Ð°Ð» Ð¾Ð³
Ġë Ŀ¼
n ut
Ġz gje
ĠÙĦ Ùĩ
Ġoris un
Ġq eyd
×ľ ×§
Ġàªķ à«ĩàª®
áĢĴ áĢ«
ĠP rze
àµĭ à´ª
áĥ¡ áĥĲáĥª
ĸà¸¶à¸ ĩ
à°ķà±įà° ¸
ä»£ çĲĨ
ĠmÃ« ny
ĠmÉĻ q
Ġmo ka
àµĢ à´ª
áĢ¬áĢ¸áĢ Ķ
ĠáĢŀáĢŃ áĢĽ
ĠáĢĢáĢº áĢ±áĢĶ
Ïĥ Ïį
Ġà®ļ à¯ĩ
Ġà´¤àµįà´¤ à´¿
ĠÐĵÐ ģ
ĠÎµÎ¹ Î´
à°° à±įà°¯
ĠáĥĵáĥĲáĥ Ĵ
ä¹ ¦
åİ Ł
Ġv ÃŃ
ĠÎ±Î½ Î¸ÏģÏİ
Ġà´ħ à´²àµįà´²
T O
ĠÐ»ÑİÐ´Ð· ÐµÐ¹
ĠáĥĽ áĥĺáĥľ
ĠÐº ÑĥÐ¿Ð¸ÑĤÑĮ
Î¶ Îµ
à±įà°² à°¾à°¡
ĠÐłÑį ÑģÐ¿ÑĥÐ±Ð»Ñĸ
´ à¸Ļ
Ġå ¦Ĥ
ĠR i
Ġa kan
áĥĶáĥł áĥĲ
ļà¸²à¸Ħà¸²à¸£ à¹Īà¸²
ĠÎŃ ÏĦÏĥÎ¹
ĠÐ½Ð°Ð² ÑĥÐº
Äĵ tÄģ
Ġà°µ à°¾à°Ł
ļ à¹īà¸²à¸Ļ
Ġmo ngwe
ÏĢÎ¿ ÏĦÎµ
ka ch
Ġfa c
Ġà¤ľ à¤°
ĠÏĨÏī ÏĦÎ¿Î³ÏģÎ±ÏĨ
ĠÙĪ Ø¹
eg a
Ġà¤ķà¤¾à¤° à¤£
9 5
à¥įà¤¯ à¤¾à¤¦
ĠÐºÐ¸ÑĪ Ð²Ð°ÑĢ
à¥Ĥ à¤®
Ġà®ħà®µ à®°à¯įà®ķà®³à¯į
à« «
Ġàªµàª¿àª ¦
Ġm ir
Ñĥ Ò·
Ð¸ Òĵ
ĠI hre
Ú© Ø§Ø±
Ġj os
ĠÐ±ÐµÐ»Ð³ Ð¸Ð»
as un
iy or
ĠH et
ĠÐ³Ð¾ÑĢ Ð¾Ð´
Ġngh iá»ĩ
Ø§Ùģ Ø©
ĠÑĤÑĢÑıÐ± Ð²Ð°
ĠÐ³ÑĢ Ð¾Ð¼
Ġde puis
Ã ľ
ĠtÉĻrÉĻf indÉĻn
ÑĢÐ° Ñī
Ġi pele
Ġâ ŀ
ita ba
Ġíĺ¸ íħĶ
a da
jara ti
Ġoru ká»į
è¨ Ń
Ġgbi gbe
dz enia
Ġl oro
ĠÑĸÐ½ ÑĦÐ¾ÑĢÐ¼
à§ĭ à¦ľ
ĠÑĢ ÑĥÐº
Ġp ov
à¯Īà®ķ à®³à¯Ī
íķ ¨
jum i
ĠH ome
ÙĪ Ø§ÙĦ
Ġg en
àª° àª¾
ĸáĢ¼ áĢħáĢº
tt u
à´¿à´¯ à´¤àµį
Ġáĥĳ áĥĶáĥķ
¢à¸ ±à¸ĩà¸
à°¿à°Ĥà° Ł
ç ħ
Ġmo ins
Ø± Ûģ
el lo
à´¾à´· àµįà´Ł
ģáģ ļ
áĢ¡ áĢĽ
ĠáĢŀ áĢĲáĢĦáĢ¹áĢ¸
ĠÎľ Î·
à¦¾à¦ĩ à¦²
Ġà´¸ àµįâĢĮ
Ð² Ð°Ð½
Îº ÏİÎ½
à°¿à°¨ à±į
áĥĺáĥľ áĥĴ
è¯ ģ
è Į
Ġte j
Ïĥ Î¼
Ġà´µà´¿à´ ľ
ur ilor
ĠÐ¼ ÐµÑĢ
áĥĲáĥļ áĥĲáĥ¥
Ġg ra
ÏĦ Î¯Î±
Ġà°µà°¿à° ¡
ĠÐ¼Ñı Ð½Ðµ
Ķà¸ ±à¸ļà¸
åĲ Ħ
Ø¨ Ø§ÙĨ
Ġjel ent
ĠáĥĲáĥ ĸ
ľ à¹Īà¸²à¸Ļà¸
ĠI I
ĠÐ³ÑįÑĤ Ñĭ
×ł ×ª
Ġà°ª à±Ĥà°°à±įà°¤
à¹ģà¸ «
ise belisoa
ĠÎ¼Î± Î¶Î¯
s ts
Ð¾Ð½ ÑĤ
à¤¯ à¤°
ĠÏĢÎ¬Î½ ÏĦÎ±
ĠÄĳá»ĵ ng
Ġga go
Ġà¤¦ à¥Ĥà¤¸
ĠW indows
à¤¿à¤¯ à¥ĭ
Ġ Ó¯
à¤¥ à¤¾
ĠØ§ÙĦØ¹ Ø§Ùħ
à«įàª¯ àª¾àª°
Ġàªªàª¾àª Ľ
ĠResp ublik
ÐĲÐ Ŀ
Ð»Ð¸ ÑĦ
lÉĻrin ÉĻ
it as
à®Łà¯ģà®¤à¯įà®¤ à¯ģ
ĠÐºÑŀ ÑĢÐ°
Ġè ²
tel len
ĠÑĢ Ð°Ð¹
Ġca m
æĻĤ éĸĵ
à¯ģà®³à¯įà®³ à®¾à®°à¯į
Ø§ÙĦ ÙĬØ©
à§ĩà¦² à¦¾à¦°
Ġby Å¥
Ñı Ð¶
ti mi
Ġsz ko
Ġto bi
Ġkans sa
ĠHae ba
ìħ ĺ
Ġde z
Ġà®ķà¯Ĥ à®Łà¯įà®Ł
Ġa wo
Ġàªª à«ģ
iy i
ez a
Ġà¦¨ à¦¿à¦°
Ġc our
ĠÐļ Ð¸
ĠÐ¿ÑĢ Ð¸Ð¹
ĠI m
c Ä«
á»ĳ t
ÃŃ cu
et á»įn
ĠÐ Ī
ĠC zy
Ġàªľ àªµ
áĢģ áĢĦáĢº
d t
à´Ļàµįà´Ļ à´¨àµĨ
áĥĶáĥĹ áĥĲ
Ŀ à¸
à±ĩà° ¸à±įà°¤
ç© º
à¦¿à¦· à§įà¦ł
Ġmi esz
Ġle ha
Ġà´®à´² à´¯à´¾à´³
áĢ¸áĢ±áĢ Ķ
áĤıáĢ½ áĢħáĢ¹
áĢŃ áĢĢ
ĠÎ´ Î®
ĠÐ¶ ÐµÐ»
Ġà´Ĺ àµįà´°
Ð°Ð´ Ñĥ
Î½ Î¿Ïħ
Ġà°ªà±įà°° à°¤à±įà°¯
Ġáĥ¡áĥĲáĥĻ áĥ£áĥĹ
é¢ Ĩ
Ġå ·
j c
ĠÎķ Î½
àµĩà´ ľ
Ġkter Ã½
ĠÐ»ÑĸÑĤ Ð°ÑĢ
ĠáĥĴáĥĲáĥľ áĥª
Ġsh ko
ĠÎ¹ ÏĥÏĩ
Ġà°ľ à°Ĺ
ĠÐŁ Ð°Ñģ
à¹Ģà¸ģà¸ ´à¸
æ² »
ĠØ¹ ÙħØ±
Ġê²Į ìŀĦ
Ġáĥ« áĥĲáĥļ
Ġà¸ª à¸²à¸
ĠA B
ĠÐģ Ð½
Ø³ Ùĩ
Ġà°®à°¾à°Ł à±įà°²à°¾à°¡
¢ à¹Įà¸
ĠC ar
Î¸ÏħÎ½ ÏĥÎ·
íĭ °
Ġà®¤ à¯Ĩ
Ġà¤ħ à¤Ń
ĠÎ¼ Î¿Î½
ĠØ§ Ø®
b akeng
ç¦ı åĪ©
A M
à¤ķà¥įà¤¤ à¤¿
ĠÐ½ Ð°ÑĤÐ¸
Ġà¤µ à¥ĭ
Ġà¦ľà¦¾à¦¨ à¦¾à¦¨
Ġàªķ àª®
Ġda ca
Ġ ÈĻ
Ð»Ð°ÑĪ ÑĤÐ¸ÑĢÐ¸ÑĪ
ĠÐ¸Ð¼ ÐºÐ¾Ð½
k us
ĠÑĢÐ°Ð±Ð¾ÑĤ Ñĭ
×¨ ×ĳ
ĠÑģ Ð°Ð»
Ð°Ð» Ð½Ð¾
ra it
Ġà«¨ à«¦
ĠÐ¿ Ð»Ð°Ð½
pa Ã±
y b
Ã¡l Ã³
Ġà¦¦ à§ĩà¦ĵ
Ã´ so
ĠT Ã«
Ġl uf
ĠØ§ÙĨ Ø³
Ġá¹¢ ugbá»įn
ĠÐ¼ Ð¸
Øª Ùī
to a
ĠÐ¿ÑĢÐ¾Ð³ ÑĢÐ°Ð¼
à®¾à® ¸
Ġs oke
Ġàª¬ àª¨à«Ģ
ĠOlu wa
ei x
al mente
à¦Ĺà§ģà¦² à§ĭ
Ġla t
ĠÙ¾ Ø§Ø±
Ġs ÉĻn
d Ã¡s
ĠÐº ÑĸÐ»ÑĮ
Ġthe o
Ġo mo
Ġh on
Ġìķ Į
àª¾àª ·à«įàªŁ
áĢľáĢŃáĢ¯ áĢĢáĢ¹áĢ
Ġsh ka
à´ķàµįà´ķ àµģà´¨àµįà´¨
áĥ¢ áĥł
ªà¸ ĸ
Ġà°¸à°Ĥà° ¬
Ġag æĹĹèĪ°åİħ
ĠW er
æ ħ
ĠPar is
Ġà´İ à´¸àµį
áĢĲ áĢļáĢ¹áĢ
áĢ¸áĢ Ķ
áĢĶ áĢ·áĢº
Î¹Ïĥ Î¼Î¿Ïį
ÑĮ Ñı
Ġà´¶ à´°
ĠÐ· Ð°ÑģÑĤ
ĠÏħ ÏĢÎ·ÏģÎµ
Ġà°¹ à±Ģà°°
áĥłáĥ ª
Ģ â
åĩ Ĩ
Ġka d
ÎºÎ¿Î» Î¿Ïħ
à´¾à´ Ļàµįà´ķ
Ġn ouve
ÑĢÑį Ñģ
áĥķ áĥĶáĥĵ
ma a
ÎĳÎ ĵ
à°² à°Ĥ
ĠÑĤ Ð¾Ð¹
à¸Ļà¸± à¹īà¸Ļà¸
ä» İ
ti cos
f ÉĻr
áĥĶáĥł áĥĺáĥ¡
§à¸±à¸Ļà¸ Ĺà¸µà¹Ī
ĠÎļ Î¬
ĠÐ¿ Ð»
ĠU m
Ġà°¨ à°¿à°²
à¹Ģà¸ ĩà¸´à¸Ļ
ĠØ¯ Ûģ
ĠÏĦ ÏİÏģÎ±
Ġda cÄĥ
Ġa insi
Ġà¤ķ à¥Į
Ġ6 0
tz eko
Ġs ia
Ġà¤¸ à¥įà¤ķ
Ġ201 2
ĠæĪ Ĳ
ĠÒ³ÑĥÐ¶ Ð¶Ð°ÑĤ
Ġà¤ħ à¤Ĥà¤¤
ĠG a
àª¤ à«ģàªĤ
wa ga
y ane
ĠÑĦÐ°Ð¾Ð»Ð¸ ÑıÑĤ
ĠÑĪÐ°ÑĢ ÑĤ
nÃŃ m
ĠÐ¼Ð°ÑĤ ÐµÑĢÐ¸
ki m
ĠÐ´ ÐµÐ¹
à®¤à¯įà®¤ à¯ģ
ĠB ar
à«Ĥ àªŁ
ĠÐ³ Ð´Ðµ
Ùģ Ø¶
Ġpor que
Ġna d
ĠØ³ Ùħ
Ġaz on
åĪ ĩ
bil ir
d Ã©
ĠY or
à¦¿à¦¤ à§įà¦°
v ÉĻ
ier ung
Ġk Ã¤
å± ĭ
Ġir iri
Ġàª¤àª® àª¨à«ĩ
ĠR un
ÐµÐ· Ð¿
Ġv ez
Ġv re
Ġà®ªà¯ĭ à®°
Ġtjer a
it za
×ķ×ł ×Ļ×Ŀ
ĠÑħ Ð¾ÑĤ
ìĹħ ìĨĮ
Ġn wá»įn
ìĥ ī
li g
ĠØ³ Ø§Ø®Øª
áĢĦáĢ¹áĢ ¡
vo t
àµģà´µ à´°
áĥĲáĥ¢ áĥĺ
à¸Ļà¸ ³
Ġà°ı à°°à±įà°ª
æĪ ¿
àª Ĩ
ãģ Ĳ
Ġà¦ıà¦ķ à¦Łà¦¾
à´¿à´ İ
áĢ® áĢĻ
áģ ¸
áĢĦáĢ¹áĢ ±áĢ
á¿ ¶
ìĦľ ë¹ĦìĬ¤
àµĩà´ ¦
ĠÐ´ ÑĥÐ¼
ĠÎ£ Î±
à°Łà±įà°Ł à±ģ
áĥĶáĥĳ áĥĹáĥĲáĥľ
åı Ĥ
¸ è¿Ĳ
Ġì ¦
ĠÏĥÎ· Î¼
Ġà´¨ à´²àµįà´²
Ġi ma
ĠÐĨ Ð½
áĥĶáĥĳáĥļ áĥĲáĥĵ
Ġa na
Îº Î®ÏĤ
à±įà°¸ à±įâĢĮ
ĠÐľ ÐµÐ½
à¹Ĥà¸£à¸ĩà¹ģà¸£à¸ ¡
Ġä» ĸ
ÙĨ ÙĬØ©
c ont
Ġáĥ¨ áĥĶáĥĴ
à¹ĩà¸ ģà¸
ÏĦÎ¹ Î¬
ĠÐĳ ÐµÐ»
Ġà¦® à¦¾à¦®
à±Ĩà°ķ à±įà°Ł
Ġ à¹ĥà¸Ļ
j te
ĠÏĦÎ±Î¾Î¹ Î´Î¹
Ġà®µà®´ à®Ļà¯įà®ķ
co ra
Ġà¤®à¥ģà¤ĸ à¥įà¤¯
ĠÏĢÏģÏİ ÏĦÎ·
Ġhae ba
ÅĽ nie
à¤¿à¤¤ à¤¾
ĠÏĨÎ¿ ÏģÎ¬
Ġà¤°à¤¾à¤ľ à¥įà¤¯
ĠÒĽ Ð°Ð½Ð´Ð°Ð¹
Ġà¤Ńà¤¾à¤°à¤¤à¥Ģ à¤¯
Ġà¦ħà¦¨ à§ģà¦·à§įà¦ł
m t
Ġp it
ĠÐ¾ Ð³
ĠÑĤÐ°Ð¹ ÑĳÑĢ
ĠÑĤ Ð°Ð¼
ĠÙħØŃ ÙħØ¯
ĠÙħØ· Ø§Ø¨ÙĤ
Ġy ake
ĠÑĦÐ¾Ð¹Ð´ Ð°Ð»Ð°Ð½
Ġc v
v es
à«ģàª ¶
ĠÖ ĩ
ĠÕ ©
iyy ÉĻti
c Äħ
Ã© vel
Ġa Å¾
ĠÙģÛĮ Øµ
á»© ng
ĠÃ©g alement
Ġaa bo
ÙĬ Ùĥ
à§ĩà§Ł à¦¾à¦°
Ġizman to
Ġv iel
ch Ã©
ĠBa wo
men i
Å ĭ
ĠÚ©Ø± Ø¯Ùĩ
h me
Ġb onolo
ĠÙħ Ûģ
Ġho zz
Ġs ar
Ġç§ ģ
Y W
íĸ Ī
Ġolu mulo
Ġj eszcze
ĠC am
Ġàª®à«ĩàª ³
ĠáĢ» áĢĸ
Ġà®®à¯ģà® ´
à´ķ àµ¾
Ġáĥĵ áĥĶáĥĵ
·à¸Ń à¸Ļà¸
Ġà°®à°° à±ĭ
å® ¹
Ġa ku
Ġke pada
Ġà¦¹à¦¿à¦¸ à§ĩà¦¬à§ĩ
àµĬ à´ķàµįà´ķàµĨ
Ġ áĤĲ
áĢ¬áĢĽ áĢ®
áĢĦ áĢļáĢ¹áĢ
ÎŃ ÏģÎ³
Ð¸ÑĤÐµÐ»ÑĮ Ð½Ð¾
Ġà´Ł à´¿
ĠÐ³ÑĸÑģÑĤ Ð¾ÑĢÑĭ
ÏģÏīÏĢÎ± ÏĬ
âĢĮ à°¨
ĠáĥĽáĥĺáĥ ¦
ĠãĢĳãĢĲ ï¼ĮãĢĳãĢĲ
ç± »
to Äį
ĠÎº Ïį
à´Ĥ à´¬
Ġca da
ĠÐ½Ðµ Ð·
ĠáĥĴ áĥĸ
k ka
ĠÏĥ ÏĦÏĮ
Ġà°Ĺà±ģà°° à°¿à°Ĥà°ļà°¿
ĠÐ°Ð´ ÑĥÐº
ķà¹Īà¸²à¸ ĩ
é© ¬
ĠØ§ÙĦ Ø§ÙĨ
Ġba ka
Ġáĥ§áĥķáĥĶáĥļ áĥĲáĥ¤
ªà¸²à¸¡à¸²à¸£à¸ ĸ
ĠâĢ º
Ð°ÑĢ Ð¾Ñŀ
Ġà¦® à¦¾à¦§à§įà¦¯à¦®
à°ķ à°¾à°¶
Ġ à¸Ńà¸²à¸
Ġm wa
Î½Î¿Î½ ÏĦÎ±ÏĤ
Ġ×Ĳ ×Ĺ×¨
a h
è¶ ħ
ĠÎŀ ÎµÎ½Î¿Î´Î¿
elle tt
Ġs to
à¤® à¤Ĥà¤¤à¥įà¤°à¥Ģ
Î» Î¹ÎºÎ¬
à¥ Ŀ
ĠÐĲÐ» Ð»Ð¾Ò³
Ġà¤µ à¤°à¥įà¤·
ĠS car
Ġf ar
Ġc Ã²n
Ġ ãģ¯
ĠÑĤ Ð¸Ð·
ĠÐĴ Ð°Ð·
ÚĪ ÛĮ
ÑģÐºÐ¸ Ð¾ÑĤ
ti cas
Ð»Ð°ÑĢ Ð¸Ð´Ð°Ð½
Ġà¦¦ à¦¿à§Ł
n as
Ġva z
Ġà®Ĩ à®¤
el lÃ¤
Ġun ei
ĠØ§ÙĨ Ø¬
Ã¤ hr
un ka
ĠÐĴ ÑĸÐ´
k ÅĤad
ĠE m
ĠE le
ĠØª ÙĨ
ÑģÐº Ð¾Ð¼
à¦¾à¦ĵ à§Łà¦¾
Ġ æľ¬
Ġs enza
êŀĮ o
or den
Ġof urufu
Ġmo hla
Ġà®ķ à®£à¯įà®Ł
Ġd ont
à«Ī àª¯
Ġpr os
Ġfe j
Ġle t
ĠÐ½Ñı Ðº
ĠÑģ ÑĥÐ´
Ġi j
ãģ¨ ãģ¯
Ġtiem po
à«ĩàªķ à«įàªŁ
áĢĲ áĢĦáĢº
c ciÃ³
à´§ à´¾à´¨
áĥĲáĥłáĥ ļ
à¹ģà¸ ķ
Ġà°¨à°¿à°° à±įà°µ
èĲ ¥
ĠÙĥ ÙħØ§
á»ĳ n
à¦¾à¦ķ à¦¾à¦°
àµĬ à´´
áĢĲ áĢŃáĢ¯áĢĦáĢ¹áĢ¸
áĢĻ áģ¼
áĢ®áĢ¸áĢ ķ
Îµ Î´
q e
à´¨ àµģà´Ĥ
ÑĩÑĭ Ñŀ
ÏģÎ± ÏĢÎµ
Ġà°īà°¨à±įà°¨ à°¾à°¯à°¿
áĥ®áĥķ áĥĲ
Ġæ Ĭ
åĪ «
Ð½ Ð½Ñı
ĠÎķ Î»Î»Î·Î½
Ġà´ ĸ
la k
ĠÐ½Ðµ Ð°Ð±
¬ áĥĽ
Ġme ille
ÏģÎµ Î¹Î±
Ġà°¸ à°Ĥà°¦
ĠÐ¿ÑĢ Ð°ÑĨÑĭ
à¹ģà¸ Ĺ
Ġà¨ ¦
ov o
Ġfe ti
Ġáĥ¨áĥĶáĥĵ áĥĶáĥĴ
à¹Ģà¸Ĥ à¹īà¸²à¸
Îº Î¯Î½Î·
ĠÐ½ Ð°Ðº
Ġà¦¬ à¦¨à§įà¦§
Ġà°Ł à±įà°°
à¸£à¸ ´
ĠÙħ Ø²
Ïĩ Ïİ
à«ĩàª¤ àª¾
Ġl or
à¤Ł à¤°
Î±Î¹ Î½
z d
ĠÑģÐ² ÑıÐ·
Ġà¤¬à¤¾à¤° à¥ĩ
te xt
Ġà¤ķà¥įà¤· à¥ĩà¤¤à¥įà¤°
ĠÑĤÐ°ÑĪÐºÐ¸Ð» Ð¾ÑĤ
à¥ģà¤ ĸ
Ġun o
Ġfiles _
il les
ĠÐ±ÑĥÐ´ Ðµ
ĠÐ½Ð°Ð· Ð°ÑĢ
Ð°Ð»Ð°ÑĢ Ð½Ð¸
dÄ± m
à¯ģà®ļ à¯į
Äģd u
ĠÐ¼Ñĥ Ð´
×ŀ ×Ļ
à§ĩà¦¤ à§ĩ
m ÉĻd
ĠÙ¾Ûģ ÙĦÛĴ
Ġàªµ àªĸàª¤
Ġje j
Ġl Ã©
Ġse va
Ġin for
ĠÐ³Ð¾Ð´ Ð¸Ð½Ð°
ãģł ãģ£ãģŁ
Ġfo ko
e ji
ki ÅŁa
Ø· Ø±
tt Ã¤Ã¤
Ġc ili
Ð½Ð¾ÑģÑĤÑĮ Ñİ
Ġi wá»į
åĵ ¡
Ġaá¹£ a
Ġdz iaÅĤ
ĠI z
v Äĥ
Ðµ ÑĨÑĮ
Ġà®ª à®¿à®©à¯įà®©
Ġs á»Ń
Ġpu bbli
c Ä±
v r
ik ini
Ġne pie
w ania
Ġk us
Ġáģ Ĩ
ĠàªĽ à«ģàªĤ
àµĨà´Ļàµįà´ķ à´¿à´²àµįâĢį
Ġáĥ¡áĥĲáĥĸ áĥĿáĥĴ
Ġà¸ĭà¸ ¶à¹Īà¸ĩà¸
à±Ģ à°®
æķ Ī
tic le
isi Ã³n
ti vi
à´¿à´¯ à´¿àµ½
Ħ áĢĶáĢ¹áĢ¸
áĢ¥ áĢ¹
»áĢķ áĢ¬áĢĦáĢ¹áĢ¸
ĠÎµÏĢ Î¹Îº
Ð°Ð»ÑĮ Ð½Ð¾Ð¹
à´¾à´£ àµįâĢĮ
Ð°ÑĤ ÐºÑĥ
Î Ĳ
Ġà°° à±Ĥà°ª
Ġáĥ¡áĥĲáĥ¨ áĥ£áĥĲáĥļ
åħ ļ
ç« ŀ
à¦¿à¦ķ à¦¾à¦°
ĠÎ» Î¹
Ġà´ķ à´³
be lo
ĠÑĤÑį Ñħ
áĥķ áĥĺ
ĠM er
ĠÎ¯ Î´Î¹Î¿
à°¸ à±įà°¸
ĠÐ°Ñŀ ÑĤÐ°Ð¼
¸ à¸Ļ
è¶ ³
Ø±Ø¨ ÙĬØ©
ìĺ¤ íĶ¼
áĥľ áĥĺáĥ¨áĥľ
µà¹Īà¸ ¢à¸§à¸
ÏĩÎ± ÏģÎ¹Ïĥ
ĠÐ¡ Ð²
ĠÙĤ Ø¯
à°¸ à±įà°¥
Ĥ à¹īà¸Ńà¸¡à¸¹à¸
di ng
ĠÎ±ÎºÏĮ Î¼Î·
àª ĺ
Ġìŀ ĳ
Ġà¤¹ à¤¾à¤²
Î» ÎµÏĤ
ĠÐ½Ð° ÑģÑĤ
sz ych
Ġà¤ī à¤¤à¥įà¤¤
ĠÎ³ ÏģÎ¬
Ġà¤ı à¤µà¤Ĥ
Ð³ Ð¸ÑĢ
Ġà¤« à¥Ī
Ġac um
Ġch er
ãĥĥ ãĤ·
ou lu
ĠÐ±Ð° ÑĬ
Ð¾Ñģ Ð¸
u z
j ours
×ŀ× Ł
ÑĥÒĽ Ð°ÑĢ
Ã¤r jes
Ġà®¤à®² à¯Īà®µ
Ġs or
Ġà¦® à§ģà¦ĸ
à«ĩàª¸ à«įàªŁ
Ø§ÛĮ Ø´
ãĥĥ ãĥģ
Ġk at
ĠÐ» Ð²
ÑĬ Ð½
ib il
ÉĻrk ÉĻz
Ġme je
ĠÐ¿ÐµÑĢ ÐµÐ²
Ġà®İ à®¨à¯įà®¤
ĠãĢ ı
Ġpu Ã²
Äģ ka
si báº¹
ãĤĪ ãĤĬ
iy ele
Ġà¦°à§Ł à§ĩà¦Ľà§ĩ
Ġs ty
Ø´Øª Ø±
ich er
Ñļ Ð°
A D
ca ciÃ³n
Ġê° Ļ
Ġin s
Ġ à²
ĠÐ± Ð°Ð³
ĠÐŁÑĢ Ð¸
Ġdz i
ĠáĢķáĢ¼ áĢ±áĢ¬
ĠàªĨàªª à«Ģ
Ġà´ªàµģà´± à´¤àµįà´¤
ĠáĥĴáĥĲáĥľ áĥķáĥĺáĥĹ
ªà¸ Ķ
à°² à±ĩà°¦à±ģ
Ġåı ¯
¹ àª¿àª¤
ÐµÐ½ Ð½ÑĭÐµ
ÙĪ Ûģ
à´ķàµįà´ķ àµģ
ľ áĢĬáĢ¹áĢ¸
áĢĲáĢ¹áĢ Ĳ
ĠáĢĺ áĢļáĢ¹áĢ
ĠÎµÏĢÎ¹ ÏĩÎµÎ¹
ĠR us
Ġà´ ļàµįà´ļ
Ð°Ñŀ ÑģÑı
ÏĦ Î¿ÏħÏĤ
à°¡ à°Ĥà°¤à±ĭ
Ġáĥĺáĥ¥ áĥľáĥĶáĥĳáĥĲ
æĭ Ľ
æľį åĬ¡
Ġo hne
ĠÏĥÏħ Î½Î¿
à´ªàµįà´ªàµĭ à´´
Ġmá» Ľi
ĠÐ°Ð´ Ð½
ª áĥ®
Ġtout es
ĠÏĢÎ±Î¹ Î´Î¹Î¬
Ġà°¦à±įà°µ à°¾à°°à°¾
ĠÐ³ Ð°Ñģ
Ġà¹Ģà¸§à¹ĩà¸ ļà¸
Ġag å¹³åı°
Ġà®¤ à¯Ĥ
Ġà¦® à§ĥà¦¤
áĥĺáĥļáĥĺ áĥĲ
ª à¸Ļ
Ġ5 5
ÑĩÑĭ Ð½Ñĭ
Ġ Ã¡
Ġà°ĩ à°Ĥà°ķ
à¸Ńà¸ ±à¸Ļà¸
Ġil dÉĻ
Ġy ng
àª¹ à«ĩàª°
Ġp el
æ¯ Ľ
ĠÎ¼ÎŃ ÏģÎ¿ÏĤ
ÙĨ Ø¬
Ġ×Ķ ×Ļ×Ĳ
Ġà¤ħ à¤Ĺà¤°
ĠD DR
Ġà¤¦ à¤¿à¤ĸ
ĠÐ´Ð¾ Ð¸ÑĢ
à¥ģà¤ ·
Ð¾ÑģÑĥÐ´ Ð°ÑĢ
et Ã«
ãģıãģł ãģķãģĦ
Ġà¦¸ à¦¾à¦°
ĠÑĪÐ°Ò³ ÑĢÐ¸
ĠÐľ Ð°Ò³
ĠE x
Ġra pp
Ġo ma
ĠÐ¼ Ð°ÐºÑĤÐ°Ð±
do tt
Ġr Ã³Å¼
ĠØ® ÙĦØ§Ùģ
ĠÃ§ do
Ġko lo
Ġà¦¯ à¦¾
Ġãĥ ĩ
ĠÄģ r
Ġàª¸à«Į àª¥à«Ģ
íĮ Į
ch ts
à®© à®®à¯į
ju we
we za
j at
ĠÑĨ Ð²ÐµÑĤ
ĠØµ ØŃ
Ġc at
Ġáº¹ n
Ġm al
Ġido go
Ġn Ãªn
Ġç µ
re t
ÑĶÐ¼ Ð¾
ar ii
Ġà®ĩ à®£
ĠU hr
ÑĬ Ñĩ
ãĥ¼ãĤ ·
Ġid iyele
ĠÐ¿ Ð¾ÑĤÑĢ
ÐµÐ½ÑĤ Ð°
ĠMatrimon iale
áĢŀ áĢŃáĢ¯áĢ·
ier b
Ġà´ª à´¤
áĥĶáĥľ áĥĲ
Ĺà¸µà¹Īà¸ ¡à¸µà¸
Ġà°¦ à±ĩà°µ
ĠãĢĤ ãĢĤ
Ġi th
ff en
ĠØ§ ÛĴ
à´¿à´¨àµįà´ ¤
ĠáĢ¡ áĢ¬
Ġ áĤı
áĢŀ áĢĬáĢ·áĢº
á¿ Ĩ
Ġd nia
Ġà´® àµĩ
ÒĲ Ðĵ
Î¼Î¿ Î½
à±ĥ à°¤
Ġáĥ¡áĥĲáĥĸáĥĿáĥĴ áĥĲáĥĵáĥĿ
å¥ ĩ
ç Į
ĠÐ¿Ð¾Ð¼ Ð¾Ñī
ÏģÎ¿ Î¹
Ġà´¤ à´¿
ÙĬÙĨ Ø©
Ð» Ñĳ
áĥĲáĥľ áĥĺáĥ¡
Ġcon tre
ĠÎŁ Îº
à°ªà±įà°ªà°Ł à°¿à°ķ
ĠÐ¿ÑĢÐ°Ð³ ÑĢÐ°Ð¼
à¹ģà¸¥ à¹īà¸§à¸
Ġæ ¯
Ġfal se
ĠÃ© n
áĥ¢ áĥĺ
Ġà¸ Łà¸¸à¸ķà¸ļà¸Ńà¸¥
ĠÎ±Î³Î¿ ÏģÎ¬
ĠÐ²Ñĭ Ð·
ĠÙħ Ø§Ùĩ
Ġà°¨ à°Ł
Ġà¸ «à¸£à¸·à¸Ń
Ġb Å«s
ĠÎ¿ Î´Î·Î³
íķĺ ê²Į
Ġm uu
Ġà¤¨ à¥Ģ
w l
ĠØ·Ø± Ùģ
ty w
Ġà¤¬ à¤¦
3 1
à¤µ à¤°
ĠÑĢ Ó¯Ð·
à¤¬ à¤Ĥà¤§
Ġ Ã¡r
ĠÐ² ÑĢ
Ġvy s
den te
ĠÐ¸Ðº ÐºÐ¸
ĠÐºÐ¸ÑĢ Ð¸ÑĤ
Ġàªħàª¥ àªµàª¾
k lÄģ
Ġm er
ĠÐ± ÐµÑĪ
ç¶ ļ
ĠÐ¼ Ð°ÑĶ
ĠSp ie
j Ã¼k
ĠÑģ Ð¾ÑģÑĤ
ÙĪ Ø³
×ķ×ª ×¨
Ġg ona
bele tso
Ġza p
à®¿à®ķà¯įà®ķ à¯Ī
ti u
as iláº¹
lÉĻr dÉĻ
Ġka m
Ġf am
ĠR eg
Ġchi ar
e e
ê¹Į ì§Ģ
Ġgbá»į dá»į
Ġst an
ãĤ¤ ãĥ«
Ġà®ħ à®²
Ð½Ñĸ Ð²
ĠÐĲ Ð²
ĠCh ina
sk Ã½
ĠÂ ½
ĠÃ ´
ĠK i
ĠÄ¼ oti
end ant
ĠØ¨ ÛĴ
áĢ¬áĢŀ áĢ¬
Ġk emi
Ġà´µà´¿à´¦ àµįà´¯
áĥĶáĥĳáĥĺáĥ¡ áĥĹáĥķáĥĺáĥ¡
ĵà¸ ĳ
Ġà°® à°¾
Ġå ¸
ĠÑıÐ²Ð»Ñı ÐµÑĤÑģÑı
ĠM ok
à§įà¦° à§Ģ
à´³ àµģà´ŁàµĨ
Ġáģ¿ áĢķ
áĢ±áĢĨ áĢ¬áĢĦáĢ¹áĢ
áĢ±áĢĶ áĤĶ
Îµ ÏģÎ¿
Ð¼ ÑĸÐ½
àµĨ à´²àµįà´²
Ð½Ñı Ð¹
ĠÎ´Î¹Î± Î´Î¹Îº
à°¦ à±įà°§
§ áĥķ
æŃ ¥
æķ ´
p ove
Î¼Î± ÏĦÎ¿
Ġà´¸ àµĤ
p te
ĠÑĤ ÑĢÑĭ
áĥĵ áĥĺáĥľ
Ġà¦ī à¦¤à§įà¦¤
Î¹Îº Î·
à°° à±Ģ
Ð°ÑĤÑį ÑĢÑĭÑı
à¸Ńà¸ ¸à¸
é» ĳ
ĠÃ© p
Ġ Ã¡l
áĥĸ áĥĲáĥĵ
Ġ2 55
ÏĢÏĦ ÏīÏĥÎ·
ĠÐº Ð°Ð»Ñı
ÛĮØ§ Øª
Ġà°ħ à°¦à°¿
à¸£à¸§à¸ ¡à¸
st vo
ĠÎ¾ÎµÎ½Î¿Î´Î¿ ÏĩÎµÎ¯Î¿
Õ¡Õ ²
kiÅŁa f
Ġà¤¦à¤¿à¤² à¥įà¤²à¥Ģ
ĠW M
Ġë§ ¤
v oro
à¤¾à¤¤ à¥ĩ
Ġo edd
Ġà¤¦ à¥Įà¤°
Ð» Ð°Ð³Ð°Ð½
à¤ı à¤®
lan do
er w
à®¿à®¯ à®¤à¯ģ
j ar
ĠÐ¾ Òĵ
Ð¾ Ð¸Ð·
ty y
Ġsu a
ãĥ³ ãĤ¹
ĠÐ¼Ð°Ñģ ÑĬ
Ä«g s
Ð¿ÑĢÐ¸ ÑĶÐ¼
Õµ Õ¡Õ¶
Ġel ler
Ð°Ð»ÑĮ Ð½Ñĸ
Ġsz olg
Ñī Ð¸
Ġma ik
l h
Ġrre th
ĠÃ®nt r
li wo
Ġip iláº¹
Ġs ÉĻr
ĠÙĪØ§ÙĦ Øª
ĠJa hr
Ġre aliz
Ġà¦ Ŀ
b ul
Ġm Ãµ
Ġv wáº¹
ĠÙ¹ ÛĮ
Ġa ho
Ñĭ ÑĪ
Ð°Ð½ Ñĸ
Ġd á»±
be la
ck Ã©
vien o
Ã©l Ã©
Ġala ba
b ili
al de
Ġpra cy
áĤĢáĢĢ áĢŃáĢ³
is sÃ¤
Ġà´ķ à´¥
áĥĵ áĥĺáĥ¡
Ġà¸ Ĥà¸
à°² à°¿
à¤¾à¤Ĥ à¤¨à¤¾
ë³ ¸
Ġsebe tsa
ĠÐ¿ÑĢÐ¾ ÑĦ
Ġà´ª àµįà´ª
ĠáĢľ áĢ½
ķ áĢ²
áĢĦáĢ¹áĢ¸ áĢŀ
ĠÏĥÏĦ ÏģÎ±
ĠØ§ÙĦÙħ Ø±
Ġà´ª à´ķàµįà´·
Ñĭ Ñĸ
Î¸ Î¿ÏĤ
Ġà°ĩ à°ķ
áĥĲáĥ Ł
à¤¾à¤ ³
å¸ ¦
Ġro dz
ĠÎ¼ÎµÏĦÎ± Î¾Ïį
Ġà´İà´¨àµįà´¨ à´¾à´²àµįâĢį
ĠØ´ Ùħ
ĠÐ¼Ð°ÑģÑĤ Ð°ÑĨ
ĠáĥĴ áĥĲáĥłáĥĵ
ĠÑģÐ¿ Ð¾ÑģÐ¾Ð±
Î³ÏģÎ¬ ÏĨ
Ġà°ļà±Ĩ à°Ĥà°¦
ĠÐ³ÑįÑĤ Ð°Ð¹
à¸£à¸²à¸ Ĭà¸
çº ¢
Ġàª² àªĸ
é ¨
ĠáĥłáĥĿáĥĽ áĥļáĥĶáĥĳ
Ĥà¸²à¸ ¢à¸
Î¬Ïģ ÏĦÎ·
ĠÑħ ÑĥÑĤ
à¯ĭ à®Łà¯ģ
Ġà°ļ à±ĩà°°
Ġà¹ģà¸Īà¸ ģ
Ġàª¤à«ĩàª® àª¨àª¾
Ġ! !!
at Ä±
Ã¼ c
à· ļ
Ġcon text
Ġà®ķà¯ģà®± à®¿à®ªà¯įà®ª
iem bre
à¤¿à¤¸ à¥įà¤¤
ĠÎ¼ÏĢÎ¿ ÏģÎ¿Ïį
Ġà¤¶à¥ģà¤° à¥Ĥ
ĠÐ¼Ñĥ Ð°ÑģÑģ
à¤¾à¤¦ à¥Ģ
à¦ª à¦¿
Ġre cher
ĠÐĳ ÑĬÐ»Ð³Ð°ÑĢ
ĠÐº Ð¾Ñı
ĠÐ¢ ÑĥÑĢ
Ð°Ð¼ Ð°Ð½
Ġà¦® à¦¨
Ġ×ķ ×¢
zion ale
ĠÒ³Ð¾Ð» Ð°ÑĤ
rze da
Ġemp res
Ġq enÃ«
Ġë ¹
Ġv Ã¤
ĠMa is
Ġpre t
Ġha ng
Ġna ar
Ġg ro
ãģĦ ãģ¾ãģĹãģŁ
Ġà¦¤ à§ģà¦²
ĠW i
z ar
Ð° ÑļÐµ
iá»ĥ n
ov Ã¡nÃŃ
Ġch ar
ĠG ba
r um
ĠI á¹£áº¹
Ø¹ ÙĬ
Ġpas i
ĠØªÙħ Ø§Ùħ
ts z
à«Ģàª Ŀ
ĠÑĤ Ð¾ÑĢ
on na
Ġac qu
Ġp owie
Ġmáº¹ he
×¨×Ĳ ×ľ
Ġà®¤ à¯Ģ
Ġse u
áĢĿ áĢº
atz eko
Ġà´īà´ª à´¯àµĭà´Ĺ
áĥĺáĥ Ń
à¹ĥ à¸Ļà¹Ģà¸
Ġà°¯ à±Ĭà°ķà±įà°ķ
á ĭ
Ġv ilÃ¡g
Ġ×ĳ ×¡
le tseng
Ġà´¸à´Ĥà´Ń à´µ
ĠáĢľ áĢĢáĢº
áĤ ĥ
áĢĢáģ ł
ĠÏĥÏħÎ½ ÎµÏģÎ³
ĠA m
Ġà´ªàµĭ à´¯
ĠÐŁ Ð°
ĠÎ½ÎŃ Î±
à°ķ à°Ĥ
áĥĲáĥł áĥĿ
ç½ ®
Ġå ĳ
ëĤ ľ
Âµ Î±
Ġà´® à´£
Ġàªħàª® à«ĩ
ÐµÐ´ Ð·
ĠáĥĲáĥĽ áĥĺáĥ¡
Ġund e
ÏģÏĮ ÏĤ
à°ķ à°¾à°²
ĠÐ°Ð´ ÐºÑĢÑĭ
Ġ à¹ģ
éĺ Ł
ĠÑĩÐµÑĢ ÐµÐ·
à¦¬ à¦¿
Ġáĥĵ áĥłáĥĿ
à¸Ńà¸ ±à¸
Î³ Î½Ïī
ĠÐ² ÑĥÑĩ
ĠØ¨ Ùħ
Ġà°ĩ à°ªà±įà°ªà±ģà°¡à±ģ
± à¹Īà¸ĩà¸
Ġp lan
Ġby dd
à«Ģàª ļ
Ø§Ø² ÛĮ
à¤¡ à¥Ģ
Ġ4 4
Ġme re
ĠÐºÐ¾ ÑĺÐ°
Ġà¤ļ à¥ģ
Î¹Î½ ÏĮ
Ġà¤¹ à¥Ĥ
ÐµÐº Ð¸Ð½
åħįè´¹ è§Ĩé¢ĳ
Ġà¦Ńà¦¾à¦² à§ĭ
Ġja lo
Ġmo la
sch ie
Ó¯ Ò³
ĠÐ±ÑŀÐ» Ð´Ð¸
Ġr ru
Ð°Ð»ÑĮ Ð½ÑĭÐµ
ĠÐ¶ Ð¸Ð²
Ð¸ÑĪ Ð´Ð°
Ġê° Ĳ
ĠØ¯ÙĨ ÛĮØ§
g os
Ø° ÙĦÙĥ
Ġat bil
Ļà§įà¦ ķ
Ġin f
Ġàª® à«ģàªĸ
Ġà®µ à®¿à®µ
Ġg ar
Ġê² °
Ġn Ã¡s
Ġe gbe
Ġc Ã¡ch
ĠÙģÛĮÙĦ Ùħ
ÄĻ d
à®ªà¯įà®ªà®Ł à¯ģà®®à¯į
Å¡ wa
áº¹ táº¹
es ab
Ġo ja
Ġo larak
i c
ĠØ¹ ÙĪØ§Ùħ
ĠÃ¶ssz e
ĠØ Ľ
×ŀ× ł
ĠÑĨÑĮ Ð¾Ð³Ð¾
Ġàªľ àª®
Ġç ´
Ġi ja
v ir
Ġà¦¬à¦¿à¦ ı
ĠÐ´ Ð°Ð¶Ðµ
áĢģáĢ¼ áĢĦáĢºáĢ¸
Ð°Ð· Ð¸
Ġà´ķ à´²
ĠáĥĶ áĥľ
à¹ģà¸ ķà¹Īà¸
Ġà°Ĺà±ģà°° à±įà°¤
Ġà¤ķà¤° à¤£
Ġ ÅĻ
Ġpod Ä¾a
bel i
à´ķàµįà´ķ àµģà´±
áĢĽ áĢĶáĢº
áĢĢáĢ¹áĢ ±áĢĶ
ĶáĢ¾ áĢĦáĢ·áĢº
ÏģÎ¹ Î¿ÏĤ
du ce
à´¨àµįà´± àµį
ĠÐ´Ð· ÐµÐ½ÑĮ
Î» Î±Î½
Ġà°µ à°¾à°°à±ģ
áĥ£áĥ Ļ
æ ¹
æĺ ĵ
st u
ĠÎ· Î¼ÎŃ
à´¾à´ķàµįà´ķ à´¿
íķĺ ê¸°
ĠÐ´ Ð°Ñģ
Ġáĥª áĥĶáĥľáĥ¢
ĠÛģÙĪ ØªØ§
ĠÎ£ ÏĦÎ±
à° İ
Ð½ Ð°ÑĢÐ¾Ð´
Ķ à¹īà¸²à¸Ļà¸
çł ´
Ġa sta
à¦¸ à§įà¦ķ
áĥ£áĥ ª
§à¹ĩà¸ ļ
ĠW N
Ð Ħ
ti ge
Ġà°ªà±ĭà°² à±Ģà°¸
Ġà¸§ à¸´à¹Ģà¸Ħà¸£à¸²à¸°à¸«
àª¾àª «
Ïħ ÏĦÏĮ
fi c
tu u
Ġà¤ªà¤¹ à¥ģ
Î¼ÎŃÎ½Î¿ ÏĤ
Ø« ÙĦ
à®¾à®± à¯ģ
à¶ ½
ĠÏĥÏħÎ³ ÎºÎµÎºÏģÎ¹
Ġà¤ĸ à¤¿à¤²
Òĵ Ð¾Ð½
Ġà¤ªà¤¹à¥ģ à¤Ĥà¤ļ
l Ã¼k
Ġy ona
Ġsz o
ĠkÃ« to
Ð»Ð°Ð½ Ð°Ð´Ð¸
Ð°Ð½ Ð´Ð°
ong o
ne hmen
ĠÅ ½
ĠÐº Ð¸Ð¼
Ġem ber
Ġ rze
ÙĪÙĨ Ùĩ
ĠÐ½ÑĥÐ¶ Ð½Ð¾
ĠV y
Ġãĥ ı
Ġs he
Ġà®ļà¯Ĩà®¯ à®²
ra l
Ðł ÑĶ
ÐµÐ½ ÐºÐ¾
Ð°ÑĤ Ð¸Ð²
il á»į
el lis
Ã¡ Å¡
Ġà¦¤ à¦¥
ĠG esch
Ú© Ø§ÙĨ
Ġv wá»į
Ġtr as
ĠNi torina
ÑģÑĤÐ² Ð¾ÑĤÐ¾
ç´ Ħ
ks Ã©g
Ġac este
Ġpil s
ĠD ans
ĠÐ¼Ñĸ Ð¶
Ġà¦¦à§ĩà¦¶ à§ĩà¦°
Ġ×© ×ĳ
á¹£e pá»į
Ð¸ÑģÑĤ ÑĢ
Ø§ÙĨ ÙĬØ©
Ġof er
áĢĬáĢ· áĢ¹áĢ
Ġvy a
à´¯ à´¾à´£àµį
Ġáĥł áĥĶáĥĴ
ķà¸ ±à¹īà¸ĩ
à±ģà°¤ à±ĭ
á Ĭ
Ġth áº¿
ĠvÅ¡ ak
àª°à«įàª ľ
Ġà´ħà´µ à´¸
áĢĺ áĢ¬
áĢĻáĢ» áĢ¬áĢ¸áĢ
ĠáĢľ áĢ¯áĢķáĢº
Ïĩ Î®ÏĤ
ĠÐ¾ Ð¿ÑĢÐµÐ´
à´¿à´ §
Ġâķ ĳ
ÎµÎ¯ ÏĦÎ±Î¹
à°ķ à±ģà°Ĥà°¡à°¾
áĥķ áĥĺáĥĵ
å¹ ¿
à¤² à¥įà¤¯à¤¾
Ġr Ã«nd
Îł Îĳ
Ġà´ª à´ł
p ar
ĠÐ¡Ð¿ Ð°Ð¼Ð¿Ð°Ð²Ð°ÑĨÑĮ
Ġáĥĺ áĥª
Ġà¦¸à¦¦ à¦¸à§įà¦¯
ĠÎĵ Î¹
à°¾à° ĸ
ÑĥÑİ ÑĨÑĮ
Ġà¸ªà¸ ³à¸«
Ġag è§Ĩè®¯
à®¯ à¯į
ì¡ ±
Ġáĥ¡ áĥĺáĥ¢
Ġà¹Ģà¸¥ à¹Īà¸Ļà¸
ĠÎĶ ÎµÎ¯ÏĦÎµ
Ð½Ñı Ðµ
à¦¨ à¦¾à§Ł
Ġà°¬ à°¾à°²
anti p
ÅĤu g
ÏģÎ±ÏĥÏĦÎ· ÏģÎ¹
i hin
ÐµÐ³ Ð¾Ð´
Ġà¤µà¤¿à¤ ¦
ĠÏĢÎ± ÏģÎŃ
Ġcer ta
à®ķ à¯ģ
à¥ĩà¤Ĥà¤¦ à¥įà¤°
7 8
à¤® à¤¾
Ð¸ÑĪ Ð½Ð¸
Ġà¤¬à¥Ģ à¤ļ
àªĤàª ¬
Ġd ÃŃa
Ġg ut
Ġpos si
ĠÑĤ Ð¸Ð»
ÒĽ Ð°
ĠÚĪ ÛĮ
id mÉĻt
Ġktor Ã¡
Ð»Ð°Ð½ ÑĤÐ¸ÑĢÐ¸ÑĪ
ãĥķãĤ ¡
ĠâĢ ¬
ĠØ¹ ÙĨØ¯
ti gen
ĠÛ° Û
ĠØŃ Ø³
ĠA t
Ø§ÛĮ ÙĦ
ĠÑį Ð»ÐµÐºÑĤ
ĠÐ¿ Ð¸ÑĤ
ĠÐ¿Ð¾Ð» Ñĸ
ĠÐ· Ð°Ð»
Ġti ta
Ġàª¸ à«ģàª°
or szÃ¡g
à¦¤ à¦¿à¦ķ
Ġts ona
ä» ķ
Ġo gun
Ðµ ÑľÐµ
Ġi yi
êµ °
à« ¨
iÅĨ as
ãģĵ ãĤį
ĠØ´ Ø§Ùħ
Ġbu en
Ġi tt
Ġà¦¬à§ĩà¦¶ à¦¿
×ľ ×ķ
Ġke re
ĠÐ´ Ð¾Ð²
Ġw at
ãģ« ãģĬ
áĢĦáĢ¹áĢ Ĩ
gan iz
Ġà´ķà´¾à´° àµįà´¯
ĠáĥĻ áĥł
©à¸ ±à¸
Ġà°İ à°ķà±įà°ķà±ģà°µ
ç® Ĺ
Ġta pa
à¯Īà®¯ à®¿à®©à¯į
àª¾àª·à«įàªŁ à«įàª°
àµģà´®àµįà´ªàµĭ à´³àµįâĢį
áĢĶ áĢĬáĢ¹áĢ¸
áĢķáĢ¹áĢ Ļ
áĢ±áĢĽ áĢ¸áĢ
ĠÏĥ Î¿
Ġver ir
àµĩ à´µ
Ñı Ñĩ
ÎŁ ÎĻ
Ġà°Ń à°¾à°µ
ĠáĥĽ áĥĶáĥł
åħ ·
Ġn et
ĠÐ±ÑĬ Ð´Ðµ
ÏĦÎ· ÏĦÎ±ÏĤ
à´¤à´¿à´° àµĨ
Ġva la
ĠÐ± ÑıÑģÐ¿
Ġáĥ¡áĥĲáĥ¥áĥĲáĥłáĥĹáĥķáĥĶáĥļ áĥĿáĥ¨áĥĺ
Æ°á» Ł
âĢ¦ âĢ¦
Ġà°¤à±Ĩà°² à±ģà°Ĺà±ģ
Ð¾Ð² Ð°Ð¹
Ĭ à¸Ļà¸
å® Į
Ð¸Ð± Ð¾
ĠÕ Ń
áĥĺáĥ£áĥ ļ
à¹Ĩ à¸
ĠÎµÎ¼ÏĨ Î±Î½
ĠÑģ Ð°Ðº
id ent
Ġà°¨ à°¿à°ľ
Ĥ à¹īà¸²
Ġpros titutas
ĠÎ³ Î¯Î½ÎµÎ¹
ib le
ì° ½
Ġà¤Ĺ à¤¾à¤Ĥ
Ïĩ Î¹Ïĥ
Ġm Å¯Å¾e
Ø¦ Ø±
à· Ļ
ĠÎ´Î¹Î± Î¸ÎŃ
Ġà¤° à¤¾à¤·à¥įà¤Ł
ÑĢ Ð¸ÑĦ
à¤ľ à¤°
à«ĭ àªĤàªļ
ĠÃľ ber
Ġha p
à®¿à®² à®¿à®°à¯ģà®¨à¯įà®¤à¯ģ
Ð´ Ð°ÑĤ
Ð± ÑĥÑĢ
f ele
ma z
ten er
Ð°Ò³ Ð¾
è² ©
Ġa ju
ë° ĺ
Ġm ona
al ne
ÙĬ Ø¨
à¦¾à¦·à§įà¦Ł à§įà¦°
Ð¸ÑĤ ÐµÐ»Ñı
h tÃ«
Ġgi o
i le
ĠØ¨ Ø³ÛĮ
Ġa ba
Ġàª§ àª°
Ð¼ ÐµÑĤ
Ġm us
Ġha pe
ãģĳ ãĤĭ
Ġo ye
ĠÐ±Ñĥ ÑĤÐ¸
re en
Ð±ÑĢ Ñı
Ġb esz
Ġli gne
é¡ Į
ĠØŃ Ø¶
ĠØ§ Øª
Ġv Ã¦re
ĠwiÄĻ cej
Ġà¦¬à¦¿à¦· à§Ł
ĠW a
is ti
Ġmon de
ÑĢÐµ Ð±Ð°
áģ¾áĢĢ áĢ®áĢ¸áĢ
å Ĥ
Ġà´Ń à´¾à´Ĺ
áĥĺáĥľ áĥĺáĥ¡
à¹Ī à¸Ńà¸
Ġà°ļ à°¿à°¨à±įà°¨
æŀ ģéĢŁ
Ġper Ã²
á»ĵ i
à«į âĢį
à´¾à´ ¬
áĢ» áĢ¬áĢ¸
ģáĢ« áĢĦáĢ¹áĢ¸
áĢĿ áĢĶáĢº
Î¹Î± Ïĥ
Ġq ÉĻb
àµĭ à´£
ĠÐ¼ ÑĸÐ½
ĠÎµÏĨ Î±Ïģ
Ġà°ķ à°¾à°Ĥà°Ĺ
Ġáĥľ áĥĲáĥĻ
æ¢ ¦
éĻ Ĩ
à«įàª ŀ
ĠÎ£ÏĦÎ· Î½
àµĪ à´µ
s g
Ð°Ð³ ÑĸÑĩ
áĥ£áĥļ áĥĲáĥĵ
ìĦ Ŀ
ÏĢ Î±Î½
Ġà°ªà±įà°° à°®
ÑģÑĤ ÑĢÑį
à¹Ģ à¸Ńà¸ĩ
à¥ĩ à¤¤
Ñĥ Ð³
m ir
áĥĲáĥļ áĥ®
à¸²à¸ ģà¸
ÏĦÎ¿Ïį Î¼Îµ
Ð°Ð´ Ð»ÐµÑĤÐºÑĸ
vv ÉĻl
Ġà°ļ à°¦
«à¸ §à¸
Ø§Øµ ÙĦ
Ġ3 3
ĠB Äĥr
×Ļ×ł ×ķ
à¥įà¤ ľ
ĠÎºÎ¹ Î½Î·
Ġper soane
ĠÅ ģ
à¤ ĺ
Ġs ydd
Ġà¤¬à¤¤ à¤¾à¤¯à¤¾
Ð¸Ð½Ð³ Ð´ÐµÐº
à¤® à¥įà¤®
Ġà¦ĵ à¦ĩ
ar p
fa ch
wa Äĩ
Ð½ Ð´
ĠÑģ Ð¸ÑĦÐ°ÑĤ
ter i
Ġà¦ī à¦ł
Ġbu d
Ġ Ð°ÑĦ
ëĿ¼ ìĿ¸
b res
Ã ĥ
Ġc Æ¡
f og
Ġdre jt
Ð¸ÑĤ Ñĥ
Ð°ÑĨÐ¸ Ñİ
Ġà¦Ĩà¦ª à¦¨à¦¿
T A
ĠÙħ Ø³Øª
Ġf are
iran á¹£áº¹
ra da
ĠÐ¸ ÑģÐº
ë ĳĲ
Ġàª®à«ĭàª ¦
Ġàª¥ à«ĭàª¡
ĠD uba
e bo
ĠDuba i
Ġà®ª à®´
Ġtou te
Ġ×ŀ× ł
ĠM an
ĠÐ²Ð¸ÑĢ Ð¾Ð±
çµ Ĳ
Ð°ÑĤÐ¸ ÑģÑı
Ġni ng
Ġche lete
o ju
u ta
ĠÐ¾ Ð½Ð°
Ġde ÄŁ
Ĳ áĢħáĢ¹áĢ
ĠL is
Ġà´ªàµįà´°à´µ à´°àµįâĢįà´¤àµįà´¤
áĥĶáĥļ áĥĺáĥ¡
ª à¸Ļà¸
à±ĭ à°²
å Ħ
Ġce a
ĠØ§ÙĦØ ¢
ÉĻr ÉĻk
à´® àµģà´³àµįà´³
áĢŁ áĢ¯áĢĲáĢº
Ł áĢ¯
áĢĸ áĢŃáĢ¯áĢ·
ĠÎ ©
Ġe zt
à´ķ à´Ĥ
ĠÐ· Ð½Ð°Ñĩ
ĠÎµÏģÎ³ Î±
à°¾à° «
® áĥĶáĥĵ
Ġà¤® à¥įà¤¹
b et
it en
Î¿Ïħ Ïĥ
Ġà´ªàµįà´° à´§à´¾à´¨
Ġspo loÄį
ĠÑıÐºÑĸ Ñħ
Ġáĥŀáĥĺáĥłáĥķ áĥĶáĥļáĥĺ
Ġà®ª à®¿à®Ł
ĠÎµÎ½ ÏĮÏĤ
Ġà°µà±Ĩ à°³à±įà°²
ÑĳÐ½ Ð½Ñı
Ľà¹ĩ à¸Ļà¹Ģà¸
åį ĩ
Ġàªħ àª¸
ĠE sta
Ġáĥ£áĥ ¡
Ķ à¹Į
no d
ÑĤ Ð°Ñŀ
ve lo
à°Łà±įà°Ł à°¿
à¸µà¹Īà¸ ¢à¸
ìĪ ł
ĠÏħÏĢÎ¬ÏģÏĩ Î¿ÏħÎ½
in cs
ĠÙħÙĪ Ø¬ÙĪØ¯
Ġà¤ļà¥ģà¤¨ à¤¾à¤µ
ĠÎ¸ÎŃ ÏĥÎ·
ĠÐ²ÑģÐ¸Ñĩ ÐºÐ¸
Ġw atu
à¤¾à¤ĩ à¤¨
ĠÏĢ Î»Î®
Ġà¤īà¤¸ à¤ķà¥ĩ
Ð»Ð°Ð½ Ð´Ð¸
Ġà¤µà¤¾à¤² à¥Ģ
Ġ: )
Ġc ie
Ġd ia
Ġà®¤à¯Ĩà®° à®¿à®¯
ĠÑĢ Ð°ÒĽ
ÑĥÑĤ Ð±Ð¾Ð»
Ġr áº¥t
tiv os
Ġd Ã«sh
ÐĺÐ Ŀ
Ã³ t
×Ļ×ł ×Ķ
Ġc ent
å¿ ħ
Ġà®ª à®Łà¯įà®Ł
ĠíĬ ¹
Ġà¦§ à¦°
Ġàªīàªª àª¯à«ĭàªĹ
ÐµÐ½Ð¸ Ñħ
is esti
le Äį
je ve
Ġto ol
ÐµÑĢ ÑĪ
ĠØ¬ Ûģ
ĠØ¨ ØŃ
Ġma in
k at
káº¹ láº¹
Ġlint ho
Ġi gbe
Õ¡Õ½ Õ¿
d Ã¼r
Ġà¦¬ à§įà¦°
Ġp het
ich tig
Ð¾Ð³ Ñĥ
ĠP od
Ġse c
cha ba
Ġb ii
Ġra ng
ĠÐºÐ¾Ñı ÑĤÐ¾
Ġà®Ĵ à®©à¯įà®±
Ġáģı áģĭ
ad as
à´® àµĩ
áĥĺ áĥĶáĥłáĥĹ
à¹īà¸ ¡à¸
à°¾à°¯ à°ķ
Ġå¯ ¹
Ð°Ð»ÑĮ Ð½Ð¾
d at
Ġuti li
àµģà´Ĥ à´¬
»áĢķ áĢ®áĢ¸
áĢĨ áĢ¯áĢŃ
áĢ¼ áĢĦáĢ¹áĢ¸
Ïĥ Î¼Î±ÏĦÎ±
ĠØ¨ Øª
Ġà´¸ àµįà´¤
â Ħĸ
ÏĮÏĦÎ· ÏĦÎ±ÏĤ
à°¸ à±įà°¯
áĥĺáĥ¢ áĥĿáĥĽ
åĽ Ľ
åĪĨéĴŁ å¿«ä¸ī
ĠÑģÐµÑĢ ÐµÐ´
Î»Îµ Ïį
Ġà´İ à´¨
na p
Ð½Ñĸ Ñı
ĠáĥĹáĥĲáĥľ áĥĲáĥĽ
j esh
Î´ ÏģÎ±
Ġà°ķà±ĭ à°°
ÐµÐ» Ñĸ
Ĭ à¸´à¸
Ġä¸ º
ar beit
ĠÑĥÑģÑĤ Ð°Ð½Ð¾Ð²
áĥłáĥ £áĥļáĥĺ
à¹Īà¸²à¸ §à¸
ĠC y
ĠÐ¼ÐµÑģ ÑĨÐ°
Ä¼ as
Ġà°ªà±įà°° à°¾à°°
¢à¸ ±à¸ĩ
Ġhaqq Ä±nda
ĠÏĢÎ¿ Î¹
Ġà®ļ à¯Ģ
ri que
Ġà¤ªà¥įà¤°à¤¦ à¥ĩà¤¶
Ïĥ Î±Î¹
ì¦ Ŀ
w as
åħįè´¹ è§Ĥçľĭ
ĠÎµ Ïį
à¤°à¥įà¤ ļ
ĠÐ¶ Ð°ÑĢ
à¬ °
Ġpo tre
Ã¡s i
çĶ º
Ġm y
ÑĤ Ð¸ÒĽ
Ñŀ Ð¶
à¦Ĥ à¦¶
ĠàªĹàª¯ à«ĭ
Ġ æľĢ
ĠÐ´ ÑĥÐ½Ñĳ
Ġthá» Ŀi
Ġk ul
Ð» ÐµÐ¹
Ġàªªàª¹ à«ĭàªĤàªļ
ĠÙĩ ÙĬ
z enÃŃ
Ġle urs
Ġc Ã¢
Ġj Å«s
Ġìŀ ¬
Ġqe ver
Ġgo dz
Ġá»į lá»į
Ð¸ÑĤÐµÐ» ÐµÐ¹
à¯ģà®µ à®¤à¯ģ
li ge
ĠN agy
Ġàªªà«ĭàª¤ àª¾àª¨à«Ģ
at uu
ts we
Ġe he
ÑĬ Ð¶
ĠØŃ Ø§ÙĦ
×ł ×¡
Ġas ÃŃ
Ġtem po
im et
ÑĹ Ð²
Ġc sa
ĠÐł ÑĹ
ĠE uro
ĠÑī Ð¾Ð´
Ġva xt
ãģ§ ãģĹãģŁ
áĢĻáĢº áĢ³áĢŃ
Ġpr iekÅ¡
à´ªàµįà´ª à´Ĥ
ĠáĥĴáĥĲáĥĽ áĥĿáĥª
à¹Ģ à¸Ļ
Ġà°® à°Ĥà°¦à°¿
Ġ ä¹Ł
Ðº Ð»ÑİÑĩ
Ġsp r
elb st
Ġà´¸à´Ĥ à´¸àµįà´¥à´¾à´¨
áĢĢáģ ¡
áĢ»áĢķ áĢ®áĢ¸
ĠáĢ¡ áĢŃáĢĻáĢ¹áĢ
ĠÎ² Î¹Î²
Ġë ¸
Ġà´®à´¨ à´¸àµįà´¸
ÑĤÑĭ ÐºÑĥ
ĠÎĻ Î±Î½
à°¾à°ķ à±į
ĠáĥĽáĥ¡ áĥĿáĥ¤áĥļ
çł Ķ
æ¶ Ī
Ġàª¤ àª°à«Ģ
Î¸ ÎµÎ½
Ġà´µà´¿à´ ³
Ġqy tet
Ð»Ñĸ Ð²Ð°
ĠáĥĽ áĥĲáĥ¨
Ġà¦¦à§ĩà¦ĸ à¦¾
ĠÎ¸Îµ Ïī
Ġà°ħ à°°
ĠÑĸ Ð´
à¹Ĥà¸ Ķà¸¢
åĬ Ł
ĠÐ½ Ð¸Ð²
Ġw an
áĥł áĥĶáĥĳáĥĺ
à¹Ħà¸Ķà¹ī à¸£à¸±à¸ļà¸
ĠÎ´ Ïħ
ĠÐ½ Ñĸ
ĠÐŁ Ð¾Ñģ
à°¡ à°¿
Ġp antip
Ġà®İà®©à¯įà®ª à®¤
Ġd de
Ġlo ng
Ġm ost
Ġà¤®à¥ģà¤ Ŀ
n t
ĠT Äģ
Ġva in
Ġà¤² à¤¿à¤¯à¤¾
ĠÎ±Ïħ ÏĦÎ¿Ïį
Ġà¤ľ à¤¿à¤¨
ĠÐ¼ Ð°ÑĢÐ´
Ġà¤Ĩ à¤§
Å¾ it
ir en
wa ng
Ġà¦¹ à¦¾à¦°
Ġ Ð°ÑĬ
ÒĽ Ð°ÑĢ
Ġse pse
os sz
Ö ĩ
ĠÐ¼Ð°Ò³ Ð°Ð»
Ġ ÖĦ
ĠM ÉĻn
Ġëĭ ¨
Ð°Ð»ÑĮ Ð½Ð¸Ð¹
ĠB es
Ġest u
Ġzna j
v eni
ÑĢ Ð°Ð±Ð¾ÑĤ
Ġà®¨ à®¿à®°
ĠS H
à¦¿à¦ «
Ġoti tá»į
ĠØ¢ÙħÙĪØ² Ø´
Ð¸ÑĢ Ð¾Ð²Ð°ÑĤÑĮ
Ø§Ø °
Ġin di
Ġtr Æ°á»Ŀng
ft ware
ĠÙħ Ùĩ
ĠS ho
in ta
Ġà¦¬ à¦¸
à«ĭàª ³
×¢ ×ª
Ġbo la
Ġpu jc
ĠÐ³ Ð¾Ð»Ð¾Ð²
st vÃŃ
Ð°Ð»ÑĮ Ð½Ð¾ÑĹ
Ġáº¹ láº¹
ĠB ash
ĠdÉĻ fÉĻ
ĠÐł ÑĶ
ĠáĢģ áĢ¶
ĠS te
à´¾à´Ł àµį
ĠáĥĲáĥ¡ áĥĶ
ŀà¸ ±à¸
Ġà°ķ à±ģ
æ¨ ¡
ĠÐ¾ÑĤ Ð²ÐµÑĤ
Ġà®ķ à®¤
ĠØµ Ø±Ùģ
Ġà´Ĩ à´¦
áĢĢáĢ¹áĢ Ĩ
±áĢĽ áĢ¬áĢĢáĢ¹áĢ
áĢĲ áĢĽ
Î»Î¿ ÏįÎ½
Äģci ju
àµĤ à´¹
ĠÐ¶ Ð°
ĠÎ¶Ïī Î®
Ġà°ķ à±Ĩ
áĥ£áĥļ áĥ¢
è ı
æ Ĳ
Ð°ÑĤ Ðµ
Ïĥ Ïĥ
Ġ àµ»
Ġsz a
ĠÐ´ Ð°Ð´
áĥĶáĥĽ áĥĲ
ĠØ¹ Ø§Ùħ
ÏĦ Ïį
Ġà°µà°¿à°ľ à°¯
ÑĢ Ð¾Ñŀ
ĭ à¸µ
åİ Ĩ
Ġà¦ħ à§įà¦¯
ê°Ģ ê²©
áĥĲáĥª áĥ®áĥĲáĥĵ
à¸Ńà¸Ńà¸Ļà¹Ħà¸¥ à¸Ļà¹Įà¸
WW W
ĠÐ¿ÑĢÑĭ Ñģ
Ġëĭ ¹
Ġà°¸à°Ĥà°¬ à°Ĥà°§
à¹Ī à¸Ń
czy Äĩ
Ïĥ ÏīÏĤ
ende le
à¯ģà®µ à®°
åģ· æĭį
Ġl l
il s
kan a
à¶ §
9 8
à¤Ń à¤¾à¤µ
Ð°ÒĽ Ð°ÑĤ
Ġà¤¸à¥įà¤¥ à¤¿à¤¤
ĠÐ³Ð¾Ð´ Ñĥ
c ek
in der
ouve z
ĠÐ± Ð¾Ñģ
ĠÐ³ÑĥÑĦ ÑĤ
he j
Ġàª°àª¹ à«ĩ
ĠN az
Ð±Ð¾ÑĢ Ð¾ÑĤ
Ġe v
Ġie k
ĠÙĪ Ø±
ĠÐ² Ð¶Ðµ
Ġpe tit
k Ã©p
gra f
Ġse e
Ġà®µ à®¿à®´
ÉĻt ÉĻn
ny i
Ġàªª àª¾àª£à«Ģ
Ġwhen ue
Ġ×Ĳ ×ł×Ļ
Ġle i
ÅŁ i
Ġm ari
ĠB ei
Ġkan na
Å ģ
Ġayá»į káº¹láº¹
Ġpra c
Æ°á»Ł ng
Ġà¦¹ à¦ĵ
Ġso it
à¯ģà® Ļà¯įà®ķà®³à¯į
ov anie
Ġ3809 2
Ġf Ã¶r
ĠÐ³ÑĢÐ¾Ð¼ Ð°Ð´
Ġká»į ja
×ķ× £
ìłģ ìľ¼ë¡ľ
ÐµÐ·Ð¿ ÐµÑĩ
áģ Ĥ
Ġin forma
Ġà´µà´² à´¿à´¯
ĠáĥĴ áĥ£áĥļ
¥à¸ ±à¸
à±ģà° Ń
å®ī åįĵ
ãģ İ
ĠÃ© let
ĠØªÙĪ Ø§ÙĨ
Ġà´ª à´Ļàµįà´ķ
áĢ¼ áĢ¬áĢ¸
áĢĢáĢ¼ áĢ®áĢ¸
áĢ±áĢľ áĢ¸
Ïģ ÎºÎµ
m inen
Ġà´¸ à´¾à´®
Ð°Ð² ÑĭÑħ
ÎĳÎ ł
Ġà°ķà°¾à°Ĥà°Ĺ à±įà°°à±Ĩ
áĥł áĥĲáĥĵ
æľ ª
èĬ Ĥ
Ġti es
Î½ Î¹
Ġà´¨ àµĭà´ķàµįà´ķ
Ġw eiter
ÑĸÑģÑĤ ÑįÐ¼
ĠáĥĹ áĥĺáĥĹ
Ġàª® àª¾àª°àª¾
ĠÎºÏħÎ² ÎŃÏģÎ½Î·
à±ĥà°· à±įà°£
ĠÐ² Ñĳ
Ħà¸ §
Ġà¤¨ à¤¾à¤¹à¥Ģ
h ely
ĠÕ° Õ¡Õ´
Ġ" ).
Ġà¸ ľà¸¹à¹īà¸
ĠÏĨ Î¯
Ġ. )
Ġàªµàª¿àª ¸
Ġà°¬ à±įà°¯
į à¸²
ÑĬ Ð¿
Ġon d
Ġk ita
ro b
à¤¾à¤ķ à¤°
ĠÎ´ ÎµÎ¯
Ġj p
ãģĳ ãģ¦
Ġà¤ľ à¤²
f an
åŃĹ å¹ķ
ĠÐ³Ð¸ÑĢ Ð¸ÑĦ
à¤® à¥Ģ
ĠÐº Ð»Ð°Ñģ
ĠØ¢ Ø²
ia re
Ġà®ªà¯Ĩ à®¯
ĠÐ°Ð½ Ð¸ÒĽ
Ð°ÑĬ Ð¾Ð»
an as
m aks
z ident
ĠÑģ Ð°ÑĦ
Õ´ Õ¡Õ¶
ĠÐł Ð°Ð·
ĠØ§ÙĦØ£ Ùħ
ĠÐ¼Ð¾Ð¶ Ð»Ð¸Ð²
elij k
v Ã¡n
k ich
Ð¾ÑĢ Ð¸Ð¸
wer t
Ġar asÄ±nda
Ġmay or
z ei
Ġigb esi
ĠØ³ Ø§ÛĮØª
Ġh el
Ġun i
ĠØ§ ÙĪÙĦ
Ġb rÄ«
ĠG oo
×Ĳ ×ª
Ġ Ď
h erÃ«
à¯ģà®¤ à®¾à®©à¯į
Ġh Ã¬nh
ĠÐĺ Ð·
ĠÅ¡ ko
at t
ĠÐ³ÑĢ Ð½
Ġ: #
ĠÐ ©
Ġy ou
à®¿à®¤ à¯į
à¦ŀ à§įà¦ļ
ĠÑĢ ÑĸÐ²
áĢ±áĢĲáĢ¬ áĢ¹
Ġzu en
Ġà´°à´¾à´ľ àµįà´¯
ĠáĥĴáĥĲáĥľáĥª áĥ®áĥĲáĥĵ
à¸£à¸ ĸà¸
Ġà°¬ à°¯
ä¹ °
ãģ® ãģĬ
con tre
ani u
ĠP M
áĢ¥ áĢ®áĢ¸áĢ
áĢģáĢ» áĢŃáĢĶáĢº
áĢ¬ áĢĲáĢ¹áĢ
ĠÎ±ÏĢÎ¿ Îº
ÙĪ ÙĬØ©
à´¾à´³ àµįâĢį
ĠÐĲ Ð¿
Î ŀ
à°ªà±įà°ª à±ģà°¡
ĠáĥĽ áĥĺáĥķ
æŀ Ĳ
è½ ¬
Ġàª¤ àª¥àª¾
Îķ Îļ
Ġà´¬ à´¿
Ġa ch
ÑĩÑĭ Ð½Ð°
áĥĶáĥĳ áĥĶáĥĳáĥĺáĥ¡
vÄĽ t
ĠÏĨ Î¹
Ġà°ļà±ĩà°¸ à°¿
Ð°ÑĤ Ðº
Ġà¸ŀ à¸£
Ġà¨ ķ
ĠÐ¾ Ð²Ð°
b ÉĻ
áĥĺáĥ¡ áĥ£áĥ¤
Ġà¹Ģà¸ Ħà¸£à¸·à¹Īà¸Ńà¸ĩà¸
ĠC R
Ð İ
Ġà®® à¯ģà®ķ
Ġà°° à±Ĥ
ļà¸£à¸´à¸ ©à¸±à¸
I S
hy w
ĠàªĨàªµ à«įàª¯à«ĭ
ĠK ur
Ġà¤ī à¤¸à¥ĩ
ĠÏĥ ÏĦÎµ
æĥħ åł±
ĠI D
Ġà¤µà¤¿à¤ Ń
ĠÎ¼Î· ÏĩÎ±Î½
à¤Ĥ à¤¬
ĠÑı ÑĪ
à¥ĩà¤Ĥ à¤Ĺà¥ĩ
ĠÐ³ Ð»
uks et
Ġë¶ Ī
Ġpiem Äĵ
ĠÐ¼Ñĥ Ð²
ĠÐ³ Ð°ÑĢÐ´Ð¸
Ġpri v
ĠveÄ¾ mi
un da
ĠÐ² Ð¾ÑģÐ¸ÑĤ
rz a
ĠÐ¶ ÐµÐ½
Ġqa la
ÑĥÐ² Ð°Ð»Ð¸
Ġge w
ÙĪ ÙĨØ¯
ĠÙħ Ùħ
ĠÐ· Ð°Ð½
v Ã¡ny
Ġàª¤àª° àª«
Ġtre g
ks et
ĠT a
à¯Īà®ķà¯įà®ķ à¯ģà®®à¯į
eg ru
ig n
Ġà¦Ń à¦¾à¦ĩ
Ġc ur
ĠI má»į
Ġ×ľ ×Ľ
Ġs ara
à§įà¦¦ à§įà¦°
Ġil let
dh i
ĠÐ³ Ð»Ð°Ð²
ĠpÅĻ e
Ġv last
Ð¾Ð² Ð¾ÑĹ
Ġãĥ Ľ
ĠÐ¡ ÐĤ
Ġif áº¹
Ġà®¤à¯ĩ à®µ
ĠL it
Ð¾Ð² Ð¾Ð³Ð¾
áĢĦáĢ¹áĢ Ľ
ĠE A
à´° àµģà´ŁàµĨ
áĥĶáĥĳ áĥĵáĥĲ
į à¸²à¸
Ġà° Ĭ
åŃ ĺ
ãĥ¬ ãĤ¹
p es
Ġme tso
àµįà´¯ à´¾à´ª
ĠáĢ¡áĢħ áĢŃáĢ¯áĢ¸áĢĽ
áĤĬ áĢĲáĢ¹áĢ
áģ¾áĢĢ áĢ¬áĢ¸áĢ
ĠÎĳ Î¸Î®
ĠK jo
Ġà´ªàµĭ à´ķ
Ð ¦
ÏģÎµ Î¯Î±
à±ģà°Ĥà° ¬
Ġáĥł áĥĲáĥĽ
å· ±
äºº æ°ĳ
larÄ±n a
ĠÎ¤ ÎŁÎ¥
à´µà´¿à´ §
Ġt our
Ð³ Ñĥ
ĠáĥĽáĥ¡áĥĿáĥ¤áĥļ áĥĺáĥĿ
Ġàª¤àª°à«Ģ àªķà«ĩ
ĠÎºÎ± á½¶
à°¿à°Ł à±Ģ
ĠÐ²Ñĭ Ð¿Ð°Ð´
¸ à¸Ļà¸
åĮ ħ
ĠG y
Ġà§§à§ ¨
áĥłáĥĹ áĥ®
ĺà¸ ¸
Î¬Î½ Ïī
ÐµÐ» Ð°
p al
à°¿à°¯ à±ĭ
à¹īà¸ ĩ
me le
ĠA M
à¦ª à§įà¦¤
Ġth Ã´ng
Ġà¤ħà¤¨ à¥įà¤¯
ĠÎµ ÎºÎ±
éĢ £
ces so
Ġà¤µà¤¿à¤¶ à¥įà¤µ
9 7
à¥ĩà¤¶ à¤¨
ĠÐ¸ Ñİ
à· Ħ
ol Ã³
i u
ĠØª Ø¬
Ġì¢ ĭ
ĠÑĤÐ°ÑĬ Ñģ
ĠÐĶÐ°Ð² Ð»Ð°ÑĤ
tÄģ v
ka z
Ġs aya
ĠÐºÐµÐ¹ Ð¸Ð½
ĠÐ²ÑĢÐµÐ¼ Ðµ
ol la
Ġm ich
ĠÐ½Ð°Ð² Ñĩ
itÃ¤ t
ue go
Ġl ena
Ġn r
ĠM eg
ĠÐ¼Ð°Ð³ Ð°Ð·Ð¸Ð½
Ġse Ã§
g na
Ġi já»į
Ġo rang
ei d
ÑĦ ÑĦ
à§ĩà¦ ¯à¦¼
ĠÙĪ Ø¥
ĠB uy
ĠéĢģ æĸĻçĦ¡æĸĻ
ek u
à¯ĭ à®°
ĠÃ©rt Ã©k
ĠFe te
ce a
ĠD et
Ġn ez
Ð¾Ð³ Ð¾Ð´
ãģĹ ãģı
ĠíĻ ķ
Ġs un
Ù¹ Ø³
Ġmara ng
Ã ¯
áĢľ áĢ¯áĢŃ
Ġ×Ĳ ×ł
Ġà´ľàµĢà´µ à´¿à´¤
ĠáĥĽ áĥĲáĥ¦
ª à¹Įà¸
à°¤ à±įà°¨
åĪĨ pk10
ãģ® ãģĮ
Ġtshw ane
Ġpe w
Ġà´¤ à´²
áĢĶáĢ¹áĢ ¡
áĢ±áĢĲáĢ¼ áĢĢ
áĢĸ áĢŃáĢ¯áĤĶ
ĠÎ Ħ
ĠØ§ÙĦ Ùī
àµĬ à´¨àµįà´¨
ĠÐ½Ð°Ð² ÑĥÑĩ
ÎĳÎ Ķ
Ġà°ªà±įà°° à°§
Ġáĥ¡áĥĲáĥĵ áĥĲáĥª
ç»ĵ æŀľ
åĽ ł
ĠÙĬÙħ ÙĥÙĨ
ĠÏĦ Î¬
à´¿à´¯ à´¾à´£àµį
Ġog ni
ĠÐ³ÑĢÐ°Ð¼ Ð°Ð´Ð·
áĥĲáĥ¨áĥķ áĥĺáĥļáĥĺ
Ġswo je
Î± ÏģÎ¯Î¿Ïħ
à±Ģà°ª à±Ģ
ĠÐ» ÐµÐ¿
Ķà¸ ³
æĿ ¡
ĠkÃ¶z Ã¶tt
ĠÐ¿Ð¾Ñģ Ð»ÐµÐ´
áĥ¬ áĥĲáĥķáĥļ
à¹Ĥà¸ ¢à¸
Ġ201 1
Ð°Ð¿ ÑĢÐ°Ñŀ
Õ¥ Öģ
Ġà°¸ à±Ĩ
à¹Īà¸²à¸ ĩà¸
Ġh Ã¼
ĠÏĥ Ïī
Ġàªı àª¸
jum a
Ġà¤¶ à¤¾à¤®
33 N
Ġmo d
å ³
à¤¾à¤ª à¥įà¤¤
2 1
à¤¿à¤¯ à¤¾à¤Ĥ
ĠÐ Ļ
Ġà¤ħ à¤Ĺ
k Ã¼l
Ġb ont
ĠN on
ëĵ ł
Ð°Ð¸ ÑģÐ¸
Ñĳ Ð»
Ġcon ta
Ġàªª à«ģàª°
hal ten
ĠÐ°Ð² Ð²Ð°Ð»
Ġt Ã¤y
Ã½ mi
Ñĭ Ð²Ð°
à®¿à®°à¯ģà®ķà¯įà®ķ à®¿à®±
Ġwy k
Ġà®® à®¾à®±à¯įà®±
Ġfum ane
Ġthá» ±c
Ãº l
Ġàª² à«Ģàª§
ĠÐ² Ð¾Ð½Ð¸
y ÉĻn
Ġiá¹£ akoso
Ġzh vil
Ġa Ã±o
v ant
ĠØ§ ÛĮÙħ
Å¡ as
g h
à§ «
Ġayi ka
Ġàªħ àªĤàªĹ
sk ich
Ġà¦¤ à§ĭ
ÐµÐ¼ Ð°
g al
in Ã¤
ãĥ³ ãĤ¯
à§Ģà¦° à¦¾
per a
Ġap áº¹
ĠÐ¾Ð±Ð»Ð°ÑģÑĤ Ð¸
ĠBa e
ĠØ± ÙĪÛĮ
ĠáĢ¥ áĢķ
Ġ×Ķ ×Ļ
à´¿à´¸ àµįà´±àµįà´±
Ġáĥ¡áĥĲáĥ®áĥĶáĥļáĥĽáĥ¬áĥĺáĥ¤ áĥĿ
Ĺà¸µà¹Ī à¹Ģà¸
Ġà°ªà±įà°°à°Ńà±ģà°¤à±įà°µ à°Ĥ
Ġæ ²
am il
y o
Ġà®µ à®¾à®°
à´¿à´ ¶
áĢķ áĢ±áĢ«áĢº
ĠáĢ± áģ¾áĢĢ
ĠáĢĻáĢ¼ áĢĶáĢº
ĠÎŃ ÏīÏĤ
Ġs lov
àµĤ à´±
ĠÐ· Ð½Ð°Ñħ
ĠÎ¤ Î·Î½
Ġà°¨ à°¾à°ķà±ģ
Ġ áĥĲ
ç» Ļ
à¤¾à¤µ à¤°
ĠØ³ Ø§Ùħ
Î¼Îµ Î½Î¿
àµ½ à´ķ
ĠÐ²ÑĬ Ð²
Ð»Ñı Ñħ
ĠáĥĲáĥ ĳ
Ġre t
ĠÎ¬Î½ Î¸ÏģÏī
Ġà°īà°¦ à±įà°¯
Ð°Ð´ Ñį
ªà¸´à¸Ļà¸ Ħà¹īà¸²
æ¼ ı
ĠÐ¾Ð´ Ð¸Ð½
Ġan der
áĥĺáĥľ áĥĿ
à¹ Ħà¸£à¸
ÎµÏį Î¸ÏħÎ½ÏĥÎ·
Ð°ÑĤÑĭ Ñĩ
ÃŃ tott
Ġà°ļà°Ĥà°¦à±įà°° à°¬
¥à¹ĩà¸Ńà¸ ķà¸
Ġal c
ĠÏĢÎ¿ Î»Î»Î¬
àª° àª®
ĠìĤ¬ ëŀĮ
à¤¦ à¤¾à¤°
ĠÎ· Î»ÎµÎº
Ġza Äį
f sh
à¥Ģ à¤ľ
Ġ1 B
à¤µ à¤¾à¤²
ĠÐ¨ Ñĥ
Ġà¤Ĳ à¤¸à¥ĩ
è£ ½
he o
tett u
c li
ĠÐ¾ ÑĪ
ĠÑħ Ð¾Ð´
Ġp Äĥ
ĠØ±Ûģ ÛĮ
Ø§Ø±ÙĬ Ø®
ĠÐ¼Ð°Ò³ ÑģÑĥÐ»
ĠtÉĻ lÉĻ
ai le
dz a
Ġinc lu
à®¿à®¯ à®®à¯į
Ġdiff Ã©r
ãģĳ ãģ©
ãĤĴ è¦ĭ
Ġk holo
à¦¾à¦® à§ĩà¦°
àª¨ àª¾àª°
Ã© z
p á»įn
ie dy
Ġ" ,
ÙĨ ÚĨ
Ñľ Ð¸
e ft
K O
Ġà¦Ĺ à§ĩà¦Ľà§ĩ
ĠProdu cts
Ġn es
à¯Ĭà®° à¯ģ
ĠØ§ÙĦÙħ Ø³Øª
Ġàªµ àª¡
ĠÐ´ ÑĢÑĥ
es s
ãģ¨ ãģª
áº¡ nh
Ãº b
Ã² Ì£
sta w
pe lo
Ġà¦¥ à¦¾à¦ķà§ĩ
áĢĽ áĢ²
ak se
à´¨ àµį
áĥĲáĥķ áĥĲáĥļ
· à¸Ńà¸ĩ
à°Ĺ à°²
Ġ áŀ
Ġàª² à«ĩàªµ
Ġt um
Ġla k
Ġà´¯ àµģ
áĢ¼ áĢĻáĢ¹áĢ¸
áĢĦáĢ¹áĢ ħ
áĢŃáĢ¯áĢ¸áĢ Ĳ
Î® ÏĦÎ·
×ŀ ×Ļ×Ŀ
à´°àµįâĢį à´¶
ĠÐ°Ð¿ Ð¾ÑĪ
Ïĩ ÏģÎ¿
Ġà°ħ à°Ĥà°Łà±ĩ
áĥĶáĥ £áĥ
æ¬ ¾
ĠåĬł æĭ¿å¤§
ti tu
Ïģ Î¹Îº
àµģà´® à´¾à´¯
wa Å¼
ĠÐ¿ÑĢ ÑįÐ·
Ġáĥŀáĥł áĥĿ
ĠØ§Ø³ ÛĴ
ĠÎłÎ¿Î» Î¹
Ġà°īà°Ĥà°Ł à±ģà°Ĥà°¦à°¿
Ñ Ĵ
ģà¸´à¸ Īà¸
ä¹ ł
ĠUn d
Äį e
Ġáĥ¡áĥĲáĥ Ń
à¹Īà¸ ¡à¹Ģà¸
Î¹Î½ Îµ
Ðµ ÐºÐ°
g el
Ġà°ķà°¨ à°¿à°ª
ģ à¸£à¸£à¸¡à¸
ĠØ¯ÛĮ Ú¯Ø±
ĠÏĢ Î¬Ïģ
Ġpre to
nÃŃ ho
Ġà¤¬ à¤²
ĠÏĦÏģÏĮ ÏĢÎ¿
à®ªà¯įà®ª à¯ģ
Ġmais on
Ġà¤ĩ à¤¤
Î¸ÎŃ Î±
Ġà¤° à¥ĭ
ĠÑĪ Ð°Ðº
åľ¨çº¿ æĴŃæĶ¾
ĠÙĪ ÙĦ
ov er
Ġso cial
à«ģàª ·
Ð¾ÑĢ Ó£
Ð¸Ð½ Ð´
Ġz er
p Ã©
Ġmu kaan
Ġâķ ķ
á» Ĺ
Ġvi da
ĠØ¹ÙĦÙĬ Ùĩ
à®¾à®Ł à¯ģ
c ÉĻk
ÅŁ ti
oun d
çĬ ¶
Ġu a
p ii
àªµàª¾àª¨ àª¾
ĠÙĪ Ùİ
Ġde ede
cz ki
ĠBu dap
Ã©s t
ĠÃ§ ok
Ñĥ Ð¶Ðµ
á»į lu
ch s
Ġy etá»įn
Ä«g Äģ
Ġmere ka
ĠÙĪ ÙĦØ§
Ġe qui
ì² ĺ
ĠÑģÐ¾ Ð¾Ð±Ñī
Ġà®Ĩ à®£à¯įà®Ł
Ġte ch
Ð² ÑĬÑĢ
Ġki kun
àª¾àªľ àªª
ĠEm pa
Ġka Å¾d
±áĢĲáĢ¬ áĢ¹
ãģĭ ãĤĬ
àµįà´µ à´¾à´¸
Ġáĥ¡áĥĲáĥĻ áĥĺáĥĹáĥ®
à¸Ļà¸µ à¸
à°¦ à°°
å®ī è£ħ
Ġàªļ àª¾àª°
ĠLE D
Ġtho tÃ«
Ġà´® àµģ
ĠáĢ¡ áĢĻ
áĢķ áĢ±áĢ«
áĢº áĢ¬áĢ¹áĢ
Ïĩ ÎŃÏĤ
em e
Ġà´° àµģ
Ð°Ð»ÑĮ Ð½Ñĭ
Î¼ ÏīÎ½
Ġà°ķà±Ĭ à°¨
Ġáĥ¡áĥĲáĥ£áĥ Ļ
æµ İ
æ± Ł
L E
á½ ´
à´¾à´¨àµįà´ ¤
p ul
ĠÐ³ÑĢÐ°Ð¼ Ð°Ð´
áĥłáĥ Ľ
en iem
ÏĪ ÎµÎ¹ÏĤ
Ġà°¦ à±Ĥà°°
Ð ¯
Ĥà¸¶ à¹īà¸Ļà¸
åı ²
Ö ¸
Ġ×ĳ ×§
áĥĺ áĥĶáĥļ
à¸£à¸§à¸ Īà¸
ĠÎ¬Î» Î»Î¿
ĠÐĲ Ðº
Ġà¦Ľ à¦¾à¦¤à§įà¦°
à°¾à°¯ à°Ĥ
Ġà¸Ĺà¸ ³
Ġperson as
ĠÎµÎ½ Î´Î¹Î±
ĠtÉĻ q
à¦¿à¦ķ à¦¾
à¤¸ à¥įà¤ķ
ĠÎ¬ Î»Î»Î±
ĠÑĤ ÑĸÐ»ÑĮÐºÐ¸
c tions
Ġà¤ķ à¤ª
Î·Î³ Î¿ÏįÎ¼Îµ
Ġà¤ķ à¤¾à¤Ĥà¤Ĺ
ĠÑĪÐ°Ò³ Ð°ÑĢ
Ġåħ įè´¹
ÙĪ Ùī
he tseng
Ġthá» ©
Ġàª® àª¾àª¤à«įàª°
ĠÐ²Ð°Ð· Ð¸ÑĦ
ĠÐ¼Ñĥ ÑĪ
bur g
ÙĤ Ûģ
ĠÙħØ¯ ÛĮØ±
ÒĽ Ð°ÑĤ
o i
ĠÐ²Ñģ ÐµÐ³Ð¾
Ø´ Ùħ
ta g
dz e
Ġma hd
íĤ ¤
Ñĸ Ñİ
isa ng
ĠÃ©r dek
Ġàª¤à«ĩàª® àª£à«ĩ
à¦¿à¦¯à¦¼ à§ĩ
Ġd ona
ãĥ¼ ãĥ³
Äį o
b ÉĻr
ge b
Ø¹ ÙĬØ©
Ġaso pá»į
Ġjs me
Ã¨ Ì£
ĠS ing
Ġm ÉĻk
à¯ģà®Ł à¯įà®Ł
ri le
Ġspra w
Ð± Ñı
Ġv iet
velo pp
ĠÑĤ Ð¾Ð·Ð¸
ĠÃ Ģ
Ġtak Ã©
Ġon a
Ġk um
ĠáĢķáĢ¼ áĢĬáĢº
à®¿à® £
à´¿à´¨àµįà´ ±
áĥĺáĥĵ áĥĶáĥľáĥ¢
Ĺ à¹Į
à°¨ à±Ĥ
æĶ ¯
Ġàªľà«ĭàªĪ àªı
Ġmo lao
to jnÃ«
Ġà´ħà´¦àµįà´¦àµĩà´¹ à´Ĥ
áĢ¸áĢĻ áĢº
áĢ±áĢķáĢ« áĢ·
áĢ±áĢ¡ áĢ¬áĢĦáĢ¹áĢ
ĠÎ± ÏģÎ¹Î¸
Ġha ce
Ġà´° à´¿
Ñĭ ÑĨÑĮ
Î¬Î½ ÎµÎ¹
Ġà°İ à°µà°°
áĥĵ áĥĺáĥļ
åĳ ¨
è§Ħ å¾ĭ
om Ã¡ny
ĠÎ£ Ïĩ
à´¾à´² àµģà´Ĥ
Øª Ø§Ø¨
Ð²Ñĭ ÑĩÐ°Ð¹
Ġáĥ£áĥ łáĥ
li o
Îķ ÎĻÎ£
à±Ī à°Ł
ĠÐ² ÑıÐ´Ð¾Ð¼
à¸Ńà¸²à¸« à¸²à¸£
Ġag èµĮ
Ġk Ãº
ĠÐ½Ðµ Ð¾Ð±
" #
à¸Ń à¸Ńà¸ģ
ĠÎµ ÏģÏī
Ð°Ð´Ð· ÐµÐ½
Ġcon st
à±ģà°ķ à±ģà°¨
± à¹īà¸Ļà¸
Äį nÃ½
ÏĦÎ® ÏĥÎµÎ¹
Ġà®µà®¾à® Ļà¯įà®ķ
Ġke ine
à¥ĩà¤Ĥ à¤Ł
r th
anz ania
Ġs ana
Ġà¤ª à¥ģà¤°
Ġï¿½ï¿½ï¿½ï¿½ï¿½ï¿½ï¿½ï¿½ ï¿½ï¿½
æ¯Ľ çīĩ
ĠÑĥ ÑĪÐ±Ñĥ
à¤°à¥įà¤ ¡
Ġu cz
Ġle go
ĠØ¯ ÙĦ
ĠÐ¸ Ñģ
ÐºÐ¾ÑĢ Ð»Ð¸Ðº
ĠÑŀÐ· Ð³Ð°ÑĢ
I C
Ġn ei
Ġà¦°à¦¹ à¦®à¦¾à¦¨
Ð» Ð°Ð´Ð¸
Ġà¦ķ à§įà¦¯
Ø¹ ÙĪØ¯
à®¤à¯įà®¤ à®¿à®±à¯įà®ķà¯ģ
Ġ×Ĳ ×Ŀ
Ã©sz et
ÑĬÑĢ Ð²
ut ako
Ġza m
Ġle ka
àª° àª¨à«Ģ
Ġm ÉĻr
u st
Ġká»į á»įkan
ãģ§ ãģĤãĤĭ
ÐµÑĢ Ð³
ÙĪ Ùģ
Ġg re
u jem
Ġá¹£a aju
o b
Ġy á»į
et as
Ġ":" "
Ġíķľ êµŃ
Ġíķ ł
Ã« mi
ĠÑı ÐºÐ°
ĠÕ ¨
k ÉĻm
Ð¾ÑĢ Ð°
ĠO r
Ġes to
Ġfihle la
Ġàª¦ àª°à«įàª
áĢĤ áģ¤
Ð¼ ÐµÑģÑĤ
Ġà´ħ à´®àµįà´®
áĥĿáĥª áĥĲ
à¸² à¸£à¸²à¸
Ġà°¨ à±Ĩà°²
è ĳ
Ġm unk
ĠS E
Ġbizt os
àµ¼ à´ķàµįà´ķ
ĠáĢ±áĢĢáĢº áĢ¬áĢĦáĢ¹áĢ¸
Ġáģ ĩ
áĢķáĢ« áĢĺáĢ°áĢ¸
ÎĻÎ ©
à®¾à®³ à®°à¯į
à´Ł àµģà´ķàµįà´ķ
Ñĸ Ð½Ð°
Î» ÏīÎ½
Ġà°ļà±Ĥà° ¡
Ġáĥ¥áĥĲáĥłáĥĹ áĥ£áĥļáĥĺ
ç½ĳ ä¸Ĭ
éª Į
ĠiespÄĵ ja
Î¼ ÏİÎ½
la ya
Ø± Øª
ĠÑģÑĤ Ð²Ð°ÑĢ
áĥĲáĥķ áĥĹ
à§ĩà¦Ľ à¦¿
Ïħ ÏĥÎ·
Ġà°İ à°¦
ĠÐĴ ÑıÐ»Ñĸ
ļà¸ ¸à¸
Ġæ ķ
Ġs ku
Ġon der
ĠáĥĴáĥĲáĥĵ áĥĲáĥ¬
Ĥà¸²à¸ ¢
ÏģÎµÎ¯ ÏĦÎµ
Ð°ÑĪ ÑįÐ½
ĠCh at
à°¾à° Ń
Ľà¸¥ à¸²
à§ģ à¦¸
ĠÏĩ ÎµÎ¹
ar ia
k ko
Ġà¤µà¤¿à¤ §
ĠÎ» Î¿Î³
Ġe uro
ĠØ¨ Ø§Ø±
à¥ Ľ
Ġ _
Ġà¤µ à¥Ī
ĠÐ¼ Ð°Ð±
à¤¤ à¤°
ĠëĶ °
Ġn ne
àª¨à«įàª ®
ÑĭÐ¼ Ð¸
Ð°Ð»Ð°ÑĢ Ð¸Ð½Ð¸
Ð¼ Ð¸Ð·
j Ã«s
Ġà®ķ à®¾à®£
to rii
Ð´Ð¸ ÒĽ
ĠÕ Ŀ
Ġàª¹ àª¾àª¥
ĠP ost
Ġpla ce
Ġ×Ľ ×Ĳ
Ġs tu
ĠÐ¿ÑĸÐ´ Ð¿ÑĢÐ¸ÑĶÐ¼
ĠÑģÑĤ Ð²Ð¾ÑĢ
Ġlefa tshe
Ġà¦® à§įà¦¯
Õ Ń
ĠÄĳ iá»ģu
Ġ??? ??
ĠÑģ Ð¸ÑĤÐµ
Ð¸ Ð¾Ð½
Ã¶ t
Ġfon ction
ØŃØ¯ Ø©
wan re
Ġàªµ àª¿àª°
el á»įpá»į
pa Ã±a
à§ģà¦¦à§įà¦§ à§ĩ
Å¡ et
ÛĮÙĨ ÛĮ
Ġj eg
ak in
Ġd ÉĻr
ÅŁa q
ĠÑĨ ÐµÐ½
Ġaw u
Ġre ci
Ġtou jours
Ġà®¨ à®©à¯įà®±
áĢĢáĢ¼ áĢ±áĢ¬áĢĦáĢ·áĢº
ÑĨ ÐµÐ²
à´¿à´ £
ĠáĥĿáĥłáĥĴáĥĲáĥľ áĥĺáĥĸ
à¸Ļà¹īà¸ ³
à°°à±įà° ·
è¯ Ŀ
Ġin d
Ġà®µ à®²
t Ä±r
Ġà´ Ļàµįà´Ļ
áĢ¸áĢ ĳ
áĢĶ áĢ±áĢ·
±áĢ ļáĢ¬áĢĢáĢ¹áĢ
Â »
Ġv Ã«r
à´°àµįâĢį à´ļàµįà´ļ
Ð°Ð²Ñĸ ÐºÐ°
Î¡ Îĵ
Ġà°Ĩ à°¸
ĠáĥĽ áĥĺáĥ£áĥ
æĢ ģ
éĹ® é¢ĺ
p ho
Î¯Î½ Î¿ÏħÎ½
Ġà´ĩ à´²àµįà´²
Ġca p
ĠÑģÐ² ÑıÑĤ
Ġáĥĺ áĥĹ
Ġà¦¯ à¦¦à¦¿
Î»Î» Î¹
Ġà°ª à±įà°²
ĠÐ½ÐµÐ°Ð± ÑħÐ¾Ð´
à¹īà¸ ³à¸
Ġà¨ ¸
le m
àª ¢
áĥĶáĥľ áĥĵ
ªà¸³à¸« à¸£à¸±à¸ļ
3 6
ĠÐ· Ð°Ñı
×ķ×ľ ×Ŀ
Ġà° ĺ
ª à¹Īà¸ĩà¸
Ġcont ra
ĠÎ± ÏĥÏĦ
Å« ras
Ġ ost
Ġà¤ľ à¥įà¤¯à¤¾à¤¦
ĠA E
Ġh er
Ġva lam
à¤¦ à¤¾
ĠÎºÎ± Î»Î¬
Ġà¤¶ à¥įà¤°à¥Ģ
ĠÐ±Ð¾ Òĵ
Ġà¤īà¤¤à¥įà¤¤ à¤°
éĩ İ
íı ī
ĠW A
Ġkwa mba
ĠÐ½ Ð¸Ñģ
ĠÐ±Ð°ÑĢ ÑĩÐ°
ĠÛģÙĪ Ø¦ÛĮ
Ã ı
ĠÂ ³
ĠÒ³ Ð°Ð»
Ġ ÉĻh
á»ķ i
ĠØ§ÙĦÙħ Ø³
ìĹĲ ëĬĶ
àªķ àª¾
ĠC s
ãģ«ãģª ãĤĭ
r je
Ã³ j
ĠÑģ ÐµÐº
h len
Ġàª¤àª® àª¾àª°à«Ģ
ĠKáº¹ wa
Ġse ba
à®¿à®© à®°à¯į
Ġdo l
ĠF il
ĠDom ni
Ġapáº¹ áº¹ráº¹
Ġp este
Ġo pin
ÙĪ Úĳ
Ġà¦ªà¦°à§įà¦¯ à¦¨à§įà¦¤
ĠÐ¿ÑĢÐ¾ÑģÑĤ Ð¾
ĠL ie
Ġcon f
ãģ ¶
Ġv Ã¤h
Ġwy s
ĠÑģ ÐµÐ¼
á»įn u
v om
pÄĵ c
Ġar ri
ĠáĢŀáĢ° áĤĶ
ÙĤ Ùħ
à´Ł à´¿à´¯
ĠáĥĿ áĥĹ
«à¹ĩ à¸Ļà¸
à±įà° ŀ
å½ ¢
×¨ ×Ļ
Ø¹ Ø§Øª
ĠÐ´ÑĸÑı Ð»ÑĮ
Ġà´ıà´±àµįà´± à´µàµģà´Ĥ
ĠáĢľ áĢ¬
áĤı áģµ
áĢĢ áĢ°
Ïĥ ÎºÎ¿
Ġà¦¬ à§ľ
à´¡ à´¿à´¯
ĠÑģÐ² ÐµÑĤ
Î¿Ïħ Î»
Ġà°²à±ĩà°¦ à°¾
ĠáĥĴ áĥĺáĥĿ
Ģâ Ļ
è¿Ľ è¡Į
is sen
ĠÎµÎ¾ Î±
àµįà´¯ à´¤
Ġà®¤à¯Ĭ à®´
ĠÐ½Ñı Ð¼Ð°
ĠáĥĽáĥĺ áĥĺáĥ¦
le tso
Î¶ Î±
à±ĥ à°·à±įà°Ł
Ð² Ð°Ð½Ð½Ñı
Ġà¸Ķà¸ ¹
æİ §
Ã¼ gy
ces o
Ġáĥ¡ áĥĲáĥľ
à¸´à¹Ģà¸ ¨à¸
ÏĢ Î¿ÏħÏĤ
ĠÐ» Ñĳ
Ġàªħ àªĤàª¤
Ġà°ļà±ĩà°¸à±įà°¤ à±ģà°¨à±įà°¨
Ĭ à¸µ
Ð½Ñĸ ÑģÑĤÑĢ
Ġ8 0
à§įà¦¯ à§ĩ
Õ¡Õ ¦
à¥ĥ à¤·
Î¸ Î±Î½
Ġs iy
g ÅĤ
Ġà¤Ĩà¤ª à¤ķà¥ĩ
ĠÎ¼ÎŃ ÏĥÏī
à¤ ĩ
ĠÑħ Ð¾Ò³
à¤ľ à¥ĩ
Ġn Ã«se
Ð°ÑĨÑĸ Ð¾Ð½
de a
Äĵ ta
ĠÑģÑŀ Ð½Ð³
ĠÑĤ Ð¸Ð±
Ġí ļĮ
Ġà®ªà¯ĭ à®©à¯įà®±
ĠÃ £
Ð¾ÑĦ Ð¸ÒĽ
Ã ĩ
Ã Ĥ
ĠÂ ´
lar dan
Ġse lemo
Ø±ÛĮ Ø¨
l le
en Ã½
Ġse con
ĠÐ²Ñģ ÐµÑħ
Ġà¦ħ à¦ª
Ġsi is
báº¹ ráº¹
w iÄĻ
Ġm ely
ãĥ¼ãĥ Ħ
ĠÑģÑĤ Ð°ÑĤ
ÙĦÙĬ Ùħ
Ġr an
tor ia
Ġatun á¹£e
cri ption
à¦¾à¦ ·
Ġpu is
Ġàªµ àªļà«įàªļ
Ö °
Ġ×ĳ ×ł
Å¾ o
Ġdies er
Ġsp Ã©
ĠO á¹£
Ġì »
ĠÙĪ ØŃ
ãĥĶ ãĥ¼
áĢ¡ áĢ¬áĢ¸
Ġna wet
Ġà´ªàµįà´° à´¶
áĥĶáĥłáĥ ¢
Ġà¸£à¸µà¸§à¸´à¸ §
Ġà°µ à±ĩà°¸
æĹ¶ éĹ´
ĠDo am
Ġin tre
ĠÐ¿ ÑĸÑģÐ»Ñı
Ġà´¸ àµĹ
ĠáĢ¡ áĢĲ
áĢķáĢ¼ áĢ¯
± áĤı
Î¿Ïħ Î»Î¯Î¿Ïħ
Ġshqip tare
Ġà´¨ àµ½à´ķ
ĠÐ¿Ð°Ðº Ð°Ð·
ÎĻ ÎŁ
à°° à°¿à°Ĥà°ļ
Ġáĥŀáĥł áĥĿáĥĴ
æ ĵ
Ġä¸ Ĭ
ĠpÃ«r b
ĠÎĽ Î±
Ġà´ķ à´£àµįà´£
an Äĥ
ÑģÐº ÑĥÑİ
Ġáĥķ áĥĲáĥł
Ġwe b
ĠÎ¦ ÎµÎ²
Ġà°° à°Ĥà°Ĺ
ĠÐĽ ÑĥÐº
à¸Ńà¸µà¸ ģà¸
ç¥ ¨
Ġà®ķà®° à¯ģà®¤à¯įà®¤
Ġp Ãµ
áĥĶáĥł áĥĺáĥĿ
à¹ĥà¸ ª
Ġl la
ĠÐ°Ñģ Ð¾Ð±
ĠÙ¾ Ø³
à°Ł à°¨
¢à¸ §
Ġam bay
Ġ ÏİÏģÎ±
Ġàª¸ àªª
ĠÑģÐ² Ð¾Ð¸
à¤Ń à¤¾
A C
mÉĻy ÉĻ
te lu
Ġà¤ī à¤¦
ĠÎ´Î¹Î± ÏĨÎ¿
à¥įà¤ ł
Ð¼ ÑĥÐ½
à¤¾à¤¸ à¥įà¤¤
Ġba ngwe
ĠT s
ĠØ§Ø³ ÛĮ
Ġëª ©
ĠÑģ Ð°Ò³
Ð»Ð¸ Ñģ
ãĤĵ ãģł
ĠprÃŃ s
Ġx e
ĠÑħ Ð¾ÑĢÐ¸
Ġche z
Ġnepie cie
th ane
Ġà®¤ à®ķ
ĠÐ² ÑĸÐ¹
ĠÙĬ ØŃ
Ġa sh
ta j
ĠÄı al
dan ia
ĠM en
Ġny t
ĠNI PA
Ġà¦¢ à¦¾à¦ķà¦¾
èª ¿
Ġma ar
Ġà¦® à§Ĥà¦²
Ġàªķàª° à«įàª¯à«ģàªĤ
ĠI la
rz ym
l d
T E
Ø§Ø¦ Ø±
Ġd Ã©s
×ĳ ×ķ×ĵ
Ġt al
Ð°Ðº ÑĤÐµÑĢ
Ġìĥ Ī
à¯Ī à®¤à¯į
ĠiÅŁ ti
Ġiy an
ĠBratisla va
ĠV Ã½
R E
áĢ±áĢ¸áĢ Ļ
ĠP Äĵ
Ġà´ķà´´ à´¿à´¯
Ġáĥŀáĥĺáĥłáĥķ áĥĶáĥļ
«à¸ §à¸±à¸
Ġà°ķà°¾à°° à°£
æł ¡
ĠÐ¿ Ð¾Ð»ÑĮÐ·
ese belisoa
Ã Ī
à´¨ à´¿à´¨àµįà´¨
ĠáĢĢáĢºáĢ±áĢĶ áĢ¬áĢ¹áĢ
ĲáĢ²áĢ· áĢ¡
áģ¾áĢĢ áĢĬáĢ¹áĢ·
ĠÎ¿Î¼Î¬ Î´Î±
iá» ħn
à´¤àµįà´¤ à´°
Ð°Ð¹ ÑĪ
ÏĦ Î¯Î±ÏĤ
à°¤ à±įà°µ
Ġáĥĵ áĥĲáĥª
Ġå½©ç¥ŀ äºīéľ¸
ç ı
Ðº Ð¸ÑĤÐµ
Î¼Îµ ÏģÎ¹Î½
Ġà´µàµĢ à´Łàµįà´Ł
cia les
ĠÐ²Ñĭ Ð±Ð°ÑĢ
áĥĲáĥĽ áĥĲáĥłáĥĹáĥļ
Ġàªĸà«Ĥ àª¬
Î³ ÎµÎ½
Ġà°ķà±Ĭ à°¨à±įà°¨à°¿
Ð³Ñĵ Ñĺ
ª à¸µà¸
Ġå Ń
×© ×ķ×ª
lan o
áĥ£áĥłáĥ ķ
Ġ à¸£à¸²à¸Ħà¸²
Ġc ym
ĠÐ³Ð°Ð» Ð¾Ñŀ
ĠØ§ÙĦÙħ Ø¹
Ġà°ħ à°ķà±įà°ķà°¡
¶à¸ ĩà¸
zet t
ĠÎ¼Î± ÎºÏģÎ¹
ĠP r
Ġa to
Ġà¤¬ à¤ļ
Ġf y
ĠØ² ÙħØ§ÙĨ
Õ« Öģ
Ġà¤¦à¥Įà¤° à¤¾à¤¨
ĠB B
Ġà¤¬ à¥ĭ
ĠÐ´Ð°Ð² ÑĢ
Ġà¤®à¥ĭ à¤¦à¥Ģ
Ġin kiÅŁaf
ĠÐ² Ð»Ð°Ñģ
i O
ĠÑģÐ¾ Ð¾ÑĤ
ĠÑĦ ÑĥÒĽÐ°ÑĢ
ĠÒ³Ð°ÑĢ Ð°ÐºÐ°ÑĤ
Ġ6 00
ìķĦ ê°Ģ
ĠT sa
Ñħ Ð¸ÑĢ
Ġtrava il
ĠH O
o tho
Ġdi ver
Ġà®®à¯ĩà®² à¯ģà®®à¯į
ê ¶Į
Ġà¦¬à¦¿à¦ ª
Ġpom o
Ð¸Ð» ÑģÑı
Ø± Ø§Ø¯
ĠÕ ¹
Ġf uer
g le
Ġp eng
vÄĵ t
uu d
ÑİÐ² Ð°Ð½Ð½Ñı
y t
Ġaj es
Ġaques ta
la ck
Ġa vait
ĠàªĨàªª àª£à«ĩ
ra gen
cz nego
Ġin tr
ĠØº ÙĬØ±
ãĤ ´
Ñĺ Ð°Ð²
Ġq az
Ġo ko
à§ģà¦ ģ
ëĶ Ķ
Ġvi Ãªn
±áĢ ĳáĢ¬áĢĦáĢ¹áĢ
Ñı Ð²Ð°
Ġà´ī à´±
§ áĥĶáĥľ
¡ à¸´à¸
à°ķ à±įà°°à°®
à© °
Ġ ÈĽ
o la
Ġti k
à´¿à´Łàµįà´Ł àµį
áĢ±áĢĽ áĢ¬áĢĢáĢ¹áĢ
áĢĲáĢ¬ áĢĢáĢŃáĢ¯
áĢĻáĢ¾ áĢĲáĢº
ĠÏĥÏħÎ½Îµ Ïĩ
ĠPro duk
à´° àµģà´Ĥ
Ð² Ñĥ
ÏĢÎ±Î¹ Î´ÎµÏħ
Ġà°¬ à°¾à°§
Ġáĥł áĥĲáĥ¡
à¤§ à¥įà¤¯à¥ĩ
Ġå İ
ĠàªŃ àª°
Î» Î±Î¹
Ġà´ķàµĩ à´¨àµįà´¦àµįà´°
Ġh is
ĠÐĳ ÐµÐ»Ð°ÑĢÑĥ
áĥ¡ áĥĺ
Ġb ul
ĠÎ ¨
Ġà°¦ à°°à±įà°¶
ĠÑģÐ¿Ðµ ÑĨÑĭÑı
ĵà¸ °à¸
åĨ ³
ĠÚ© ÙħÛĮ
ei ÃŁ
áĥĲáĥĵáĥĴ áĥĲáĥľ
Ġà¹Ģà¸ Ľ
ĠA F
ĠÐ½ Ð°Ð±
Ġai x
à°¾à°¸ à±į
¢ à¸´à¸ĩà¸
à¦¸ à¦¹
4 7
Ġg egen
Ġà¦® à§ģà¦ķà§įà¦¤
Ġà¤ķ à¤Ĥà¤ª
ĠÎ± Î³Î±
×ĳ ×Ļ×Ŀ
Õ¡Õµ Õ«Õ¶
ä¸Ģ çº§
ÏĨ ÏģÎ¬
ä¼ Ĭ
ĠÐ¼ Ð°Ð¶
à¤°à¥įà¤ ķ
qi q
Ġàªªàª¹ à«ĩàª²
g s
ĠØ¬Ø§Øª Ø§
ĠÐľ Ð¸ÑĢ
ĠÐºÐ°ÑĤ ÑĤÐ°
Ġì½ ľê±¸
íĥ ľ
Ġthe pa
ĠÒ³Ð¾Ðº Ð¸Ð¼
ÃŃt Åĳ
he ng
ĠÑĨ ÐµÐ½ÑĤ
Ġà®ļà¯Ĩà®¯à¯įà®¤ à¯ģ
r Å¾
ar Ã«t
Ġà¦¹ à§ĭà¦¸
Ġé Ľ
ÙĦ ÙĤ
ist as
Ġpro pri
à«ĩàª¨à«įàª ¡
ĠA ra
Ġà®ªà¯Ĩ à®°à®¿à®¯
Ġm unka
áº¡ ng
Äģ la
Ġmo i
Ġori á¹£
D F
ÃŃt á»įn
Ġquel ques
Ġhy vÃ¤
Ġkap cso
Ġst ar
ãĢ į
ĠÐ²Ð° ÑĪ
f anya
Ġf otos
Ġre g
Ġati láº¹yin
à§įà¦¤ à¦¾à¦°
ãĥ¼ãĤ «
ilo eng
ħ áĢ¯
Ñī Ð¾ÑĤÐ¾
à´¤ à´¾à´£àµį
áĥĿáĥ¡ áĥ¢
ŀà¸Ļà¸±à¸Ļà¸ ļà¸Ńà¸¥
Ġà°¸ à°Ń
å°± æĺ¯
ì§ ģ
Ġba la
Ġda go
àµĩ à´¯àµģà´Ĥ
ĠáĢĽ áĢ¾áĢŃ
áĢ¬áĢ¸áĢħ áĢ¯
ĠáĢĢáģ½ áĢ¼áĢĶáĢ¹áĢ
ÏĦÎ± ÏĥÎ·
ãĤ¤ ãĤº
Ġà´¶ àµįà´°àµĢ
Ð°Ð²Ñĸ ÑĨÑĮ
Î¬Î½ Î¹
Ġà°Ń à°¾à°Ĺ
ĠáĥĽáĥĲáĥĹ áĥĺ
çĶ ±
P P
Ġp lo
ĠÎł ÎŃ
Ġà´ªàµįà´°à´¤ àµįà´¯
ou pe
Ð½ÑĸÐº Ð°Ð¼
áĥĿáĥª áĥĺ
Ġo x
Î» Î¿ÏħÏĤ
Ġà°ķ à°³
ĠÐ¼ Ð°ÑĤÑįÑĢÑĭÑı
à¹Ģà¸£à¸µà¸ ¢à¸Ļ
à© ĭ
p Ã¤
ĠÑĢÐ¾Ð·Ð² Ð¸ÑĤ
áĥĲáĥ¥ áĥķáĥ¡
à¹Ģà¸£à¸ ·à¹Īà¸Ńà¸ĩà¸
ĠÎºÎ±ÏĦÎ± ÏĥÎºÎµÏħ
ÑįÑĤ Ð°
ĠÙĨ Ø¯
Ġà°µà°¾à°° à°¿
«à¸ ķà¸
à§ĩà¦ ·à§įà¦Ł
ĠT ri
à®Ļà¯įà®ķà®³ à¯ģà®ķà¯įà®ķà¯ģ
Ġà¦ī à¦ļ
Ġà¤ķ à¤²
ĠÏĢÏģÎ¿ÏĥÏīÏĢ Î¹ÎºÏĮ
ÑģÐº Ð¸ÑĤÐµ
ĠÐ³ Ð¾Ð²Ð¾ÑĢ
Ġà¤ķà¥Į à¤¨
ĠÎºÎ± ÏĦÎ·Î³Î¿
Ġà¤¸ à¥ģà¤¨
ĠÑĥ Ð»Ð°ÑĢÐ½Ð¸Ð½Ð³
Ġà¤ķà¤¾à¤Ĥà¤Ĺ à¥įà¤°à¥ĩà¤¸
ĠÙĤ Ø§ÙĦ
Ð¾ ÑĨÑĸ
k et
Ġà« «
ĠÐĳ Ð°
Ð°Ñħ ÑĤ
àª¾àª³ àª¾
en Ã¡
Ġma emo
ĠÑĤ Ð¾Ò·Ð¸Ðº
d roÅ¡
ur as
Ī ¬
ti mit
ÙĪ Ø©
ci es
Ð°Ð½ Ñģ
çµ Į
en da
ÉĻs ini
Ġen e
à¯ģà®£ à¯įà®Ł
w ari
Ø¨ Ûģ
Ġtr ze
Ġk de
ÐµÐ½ ÑĤÑĭ
ue il
tig ua
cou p
Ġit at
Ġsi mp
ĠÙĨ ÙħÛĮ
Ġàªªà«įàª° à«ĩàª®
ĠØ§ÙĦØ£ Ø³
Ġs el
Ġà¦¸à¦Ń à¦¾à¦ª
Ġàª¸ à«įàªķ
Ġl Ä«
gra m
Ġitat áº¹táº¹
Ġà¦¸ à¦°à§įà¦¬
×¢ ×Ķ
be di
±áĢ Ļ
á»ĵ ng
à´¿à´ķàµįà´ķ àµģà´ķ
Ġáĥł áĥĲáĥĵáĥĴáĥĲáĥľ
ŀà¸ ·à¹īà¸Ļà¸
à±įà°µ à°°
èī ĩ
ĠD Ã¶vlÉĻt
em ber
ÐµÐ³Ð¾Ð´ Ð½Ñı
à´ª à´°
ĠáĢģ áĢ»
áĢŃáĢ¯ áĢĢáĢ¹
áĢ±áĢĺ áĢ¬
ĠÎĶ Îµ
Ġà®µ à®¿à®ļ
Ġà´ī à´¯
ÑĤ Ñį
ÎĻÎ£ Î¤
à°¸à±įà°Ł à±į
áĥķ áĥĹ
¹ æŀľ
Ġåħ ¶
laÅŁ dÄ±r
ĠÎ» Î¿Î¹
àµĨà´¨àµįà´¨ àµģ
ĠÙĪ Ø¬Ûģ
ĠÐ¿ÐµÑĢ Ð°Ðº
Ġáĥł áĥĿáĥĵáĥĶáĥ¡
ĠÃ© l
ĠÎ¸ÎŃ Î¼Î±
à±ĭ à°®
ĠÐº Ð°Ð¶
ĸà¸ ¹à¸ģ
çĶµ æ¸¸
ĠDe utsch
Ġprof ession
ĠáĥĲáĥłáĥ¡ áĥĶáĥĳ
ģà¸ ¤à¸
ĠÏĦ ÏĮÏĦÎµ
ĠÐ°Ð´ Ð±Ñĭ
ëĭ ĺ
à°¿à°Ĺ à°¿
à¹Ģà¸Ĥ à¹īà¸²
Ġl Ã½
ĠÏĥ Î±
j on
Ġë° ĺ
à¤¾à¤µ à¤¾
ÏĦÎ® Î¸Î·ÎºÎµ
ĠÙĤ Ø¨ÙĦ
Ġe Å¡te
Ġà¤¤ à¥Ī
ĠÎŃ Î³
éŁ ³
Ð´Ð¸ Ò³
Ġè ¶
à§įà¦¯à¦¾à¦¨ à§įà¦¡
Ġg ener
ts che
Ã§ Ã£o
____ ____
ĠÑĪÑĥÐ¼ Ð¾
Ġk le
Ġàª¦ à«ĩàªµ
Ð°Ð»ÑĮ Ð½ÑĭÑħ
ĠÑıÑħ ÑĪÐ¸
à®¿à®ķ à®´
iyy ÉĻ
Ġma dh
ÑĬÐ» Ð¶
Ġspr Ã¡v
ÑĶ Ð½
ĠàªĹ àªĪ
Ġv ir
äºº æ°Ĺ
Ġtak ie
ĠÐ² Ð°Ð¼
Ġli lemo
ĠT ra
ĠMo limo
an eng
Ð¾Ð» ÐºÑĥ
ãģĿ ãģ®
Ġmo is
d ro
Äĥ se
Ġá¹£e to
ê ´ĳ
Ġv iz
g ht
Ġvo ir
Ġ×¨ ×Ĳ
ÑĥÐ½ Ðº
àª¤ à«įàªµ
ÙĤ Ø·
Ġsz czeg
Ġy Ã¬
ĠÂ ¼
ĠK h
b iso
áĢĦáĢ¹áĢ ĺ
ist ra
Ġà´µà´¿à´ ·
ĠáĥĽ áĥ¬
Ľà¸¥ à¸µà¹Īà¸
Ã¤l lÃ¤
ç ¬
Ġpre m
Ġi hr
ÐµÐ½ Ð½ÑĭÐ¹
àµģà´ķàµĬ à´£àµįà´Ł
Ġáģ İ
áĢĲáĢ¬ áĢķáĢ«
áĢ¥áĢ¹áĢ ¸
ĠÎĵ Îµ
ko zÃ¡s
à´¾à´ Ń
Ġâķ ĸ
ĠÎķ Î¹
ÑĤ Ð¸Ð²
ĠáĥĲáĥ ¤
æĿ ĥ
çī Ľ
ĠP rzy
ĠÏħ ÏĢÎ¿ÏħÏģÎ³
Ġà´¨àµįà´ ¯
Ġà¦¤ à§Ī
ĠÐ´Ð· Ñĸ
áĥĺáĥ« áĥĶ
ã ħ
ÏĢÎ¿Î¯ Î·
ov i
Ñĸ Ð½Ðµ
à¹ĥà¸«à¸į à¹Ī
éĽĨåĽ¢ å®ĺç½ĳ
Ġm Ã¼n
Ä±n dan
áĥĿáĥķ áĥĲáĥľáĥĺ
Ġà¸Ħ à¸²à¸ªà¸´à¹Ĥà¸Ļ
ĠÎ²Î±Î¸ Î¼Î¿
ĠÐ» ÑĸÑģÑĤ
ì ¼
ĠØ¬ ÛĮ
¨à¸ ±à¸
Ġada lah
fny d
Ġãĥĸ ãĥ©
Ġby ÅĤ
Ġç ¾
ĠÎ² Î»ÎŃ
u den
Ġta m
Ġà¤īà¤¤ à¥įà¤ª
Î³ÏģÎ±ÏĨ Î®
Ġà¤² à¤¿à¤ĸ
ĠÐ¾ ÒĽ
Ġà¤ªà¥Ĥ à¤°à¥įà¤µ
Ġjel en
ĠÑģ ÑĢÐµ
l in
Ġ×ľ ×ª
ĠÐ¼Ñĥ ÑģÑĤ
Ð»Ð°Ð½ Ð¸ÑĪ
Ġsvo je
àª¨à«įàª ¨
ĠÐ¦ Ðµ
ĠÑĦ Ð°ÑĬÐ¾Ð»
Ġta mb
bil itÃł
ĠãĢ İ
Ġà®° à¯Ĥ
tel lt
Ð¾Ð² ÑĭÐµ
Ġàªħàª¨ à«įàª¯
à®¿à®¨à¯įà®¤ à¯ģ
æŁ »
ĠÙĦ ÙĬ
ĠÚ¯ Ø²Ø§Ø±
bi tso
Ġen áº¹
h ana
iá»ĥ u
ish i
ov ÄĽ
Ġn x
ĠA á¹£
ĠÃ ļ
Ġnu he
pa la
Ġà°ªà±įà°° à°¾à°Ĥà°¤
Ġtr o
ĠÐ½ Ð¸Ðº
ì¦ Ī
Ġs elle
ĠÙĦÙĪÚ¯ ÙĪÚº
Ġser viz
Äĥs Äĥri
ĠT ur
Ġv ezet
æĦŁ ãģĺ
ĠØ§ÙĦØ¹ Ø§ÙĦÙħ
áĢ®áĢ¸áĢ Ľ
ĠØ¨ Ø²
à´ļàµįà´ļ àµģ
Ġáĥŀáĥł áĥĶáĥĸ
Ġà¸ Ķ
×ŀ× ©
Ĉ Ĉ
Ð°ÑĨÑĸ Ñİ
ĠÐ½Ðµ ÑģÐº
à¯ģà®ķ à®³à¯Ī
àµģà´ķ à´¾à´°
Ġáģ Ī
áĢĸáĢ¼ áĢ²áĤķ
ĠáĢŀ áĢ¶
Ïĥ ÏĮ
ĠÕ į
à´ķ à´¾à´¶
ĠÐ²Ñĭ Ñħ
ĠÎľ Î¬
Ġdi gÉĻr
ĠáĥłáĥĿáĥĵáĥĶáĥ¡ áĥĲáĥª
å·ŀ æīĳåħĭ
çĽ´ æĴŃ
Ġsebel isoa
ĠÎĺÎµ ÏĥÏĥÎ±
à´¾à´ ªàµįà´ª
Ġen cont
ĠÑŀÑģ Ðµ
áĥ¯ áĥĲáĥ®
Ġer ab
Î¹ÎºÎ¿Ïį ÏĤ
à¦ ¯à§ĭà¦Ĺ
ĠÑĸÐ½ÑĪ ÑĭÑħ
Ġà¸Ķà¸ ¹à¸
çĻ ¾
Ġfa ut
Ã¡c s
ĠáĥŀáĥłáĥĿ áĥĶáĥ¥áĥ¢
à¸Ļà¸ ³à¸
ĠÎ±Ïģ ÎºÎµ
ĠâĢļ âĦĸ
Ġdo po
ĠRom Ã¢n
à¸µà¸¢ à¸Ļ
Ġal te
a f
æ ¤
ÑĬ Ð²
èĩª æĭį
9 6
Ð» ÐµÐºÑģ
Ġk re
à¥ĭ à¤¡à¤¼
wa ith
éĿĴ èįī
ĠÐ±ÐµÑĢ Ð¸ÑĪ
Ġà¤¦à¥ĭ à¤¨à¥ĭà¤Ĥ
Ã© ko
ĠÐ¿Ð¾Ð² ÑĸÐ´Ð¾Ð¼
ĠÐ±Ð¸Ð´ Ðµ
ouv elle
ĠÑĥÐ¼ ÑĥÐ¼
ĠÐłÐ¾ÑģÑģ Ð¸Ñı
Ġàªµàªļà«įàªļ à«ĩ
Ġna le
ent lich
ÑĢ Ð¾ÒĽ
ë² Ħ
à°¾à°° à°£
Ġte h
Ġmis mo
ĠÐ± ÑĢ
h nen
Ġc ro
ja i
ä» Ĭ
Ġv ed
ĠÙħ Ø¬Ú¾
Ġjoalo ka
pa má»į
ho o
ĠØ¯ Ú¾
p ro
Ġà§¨à§¦à§§à§ ¯
Ġà¦ĵ à§Ł
Ġy atá»į
j Ã¡r
Ġoni we
ha le
Ġàª¯ à«ĭàªľ
å· Ŀ
ĠScar pe
ta to
Ġà®Ĩ à®ļ
ĠÐ¾ÑĤ ÐºÑĢÑĭ
Ø¬ Ø©
Ġx xx
Ġipin nu
Ġm undo
ĠØªÙĪÙĦ ÛĮØ¯
Ġà®ªà®ķ à¯ģà®¤
ĠáĢ ¤
Ġpro jek
Ġà´ļàµĨà´¯àµįà´¤ àµģ
áĥĶáĥĳáĥĶáĥļ áĥĺáĥĲ
ľ à¸´à¸
ĠÐłÑķ Ðł
ł áł
ÑĸÐ»ÑĮ ÑĪÐµ
Ġà¦ĩà¦ī à¦¨
éļ Ľ
àµįà´ ¬
áĢŀ áĢĻ
ĠáĢĽ áĢ¬
ĠáĢŀ áĢ¼áĢ¬áĢ¸áĢ
Î¿ Î´Î¿
Ġa lors
à´°àµįâĢį à´¨àµįà´¨
ĠÐ²Ñĭ ÐºÐ°Ð½
Î¬Î½ ÏĦÎ·ÏĥÎ·
Ġàªľ àªĹ
Ġáĥ¥áĥĲáĥļ áĥĲáĥ¥
å® Ŀ
Ġéĩį åºĨæĹ¶æĹ¶å½©
Å¯ m
Î» Î¹Î¬
Ġà´µàµĨ à´³àµįà´³
Ġkh Ã¡ch
ĠÐ·Ð½Ð°Ñħ Ð¾Ð´Ð·
áĥĶáĥĵ áĥĺ
ê »
Î³ ÎŃÎ½
Ġv jet
ĠÐĲ Ñģ
Ġà¸ªà¸ Ķ
Ġæ ±
re ng
ÙĪÙĨ ÛĮ
áĥ£áĥłáĥľ áĥĲáĥļ
«à¸¡à¸ Ķ
ĠÎ¼ÏĢÎ¿ÏģÎµÎ¯ ÏĦÎµ
Ð°Ð»ÑĮ Ð½Ð°Ð¹
ni ki
at ul
à¹Ĥà¸ Ľà¸£
Ġb ek
ĠÎº ÏģÎ¬
iem pre
Ġà¦ĸ à§ģà¦¬
à¤ª à¤°
ÏĥÎºÎµ ÏĦÎ±Î¹
Ġav is
ĠktÃ³ ra
Ġà¤ľà¥Ī à¤¸à¥ĩ
T H
à¤ª à¤¾
ĠÐ± ÑĥÐ·
éŁ ©
ĠÐļ Ð¾Ð½
Äį a
i di
Ġea u
ĠÐĲÐ¼ Ð¼Ð¾
Ð¸Ð» Ð¸Ð±
ierb inte
Ã©s ek
ĠA i
Ñŀ Ð·
Ġm un
ĠÐ¾Ð± Ñī
àª¾àª¤ àª¾
Ġc an
cu te
Ġnie k
×Ļ ×ķ×Ł
íĹ ĺ
Ã¤s sÃ¤
ĠÐ¿ÑĢÐ¾Ð´ ÑĥÐº
Ø¦ Ø©
en o
à ³
Ġlipa pali
àªļ à«įàªĽ
ÐµÐº Ð¸
Ġce la
as zt
ju ana
ĠK on
Ġá»į kÃłn
ĠH ona
ãģ§ ãģĹãĤĩãģĨ
ĠH el
ĠÙħ ÙĦØ§
ĠÅŁ ÉĻr
Ġke h
Ñı Ñī
Ġà°Ĩ à°«
ar on
Ġsu gbon
Ġà¦ľà¦¾à¦¤ à§Ģà§Ł
Ġà¦¬à¦¿à¦¶ à§ĩà¦·
as tÄĥ
áĢ¡ áĢĶ
Ġp ont
Ġà´Ĩ à´¦àµįà´¯
Ġáĥĺáĥ¡ áĥĶ
Ġ à¹ĥà¸«à¹ī
ov ej
æĸ ½
ĠÙĦ ÛĴ
Ã¤ ng
à®¾à®µ à®¿à®©à¯į
àµĪ à´¨
ĠáĢĽ áĢ²
áĢĿ áĢ«
ľ áĢ¯áĢķáĢ¹áĢ
Î¸ ÎµÎ¹
àªĤàª ľ
Ġà´µà´¿à´ ®
ĠÑĢÐ°Ñģ Ð¿
ĠÎł Î¬
Ġci la
áĥĲáĥł áĥĶáĥĳáĥĲ
à¨ ¤
ä¼ Ĺ
Ġalt ri
ĠÎ± Î¯
àµĨà´¨àµįà´¨ à´¾à´£àµį
Ġb Ã½
ĠÐ¼Ñĥ Ð¶
Ġáĥķ áĥĺáĥĵ
×Ĺ ×ª
ĠÎķ Îļ
ÑĸÐ¹ Ñģ
ĠÑģ ÑĸÑģÑĤÑįÐ¼
à¸²à¸ ¡à¸
à¥įà¤¯ à¤¾à¤¸
po lo
go t
ĠáĥĴáĥĲáĥľ áĥĲáĥªáĥ®áĥĲáĥĵ
Ġà¸Ľ à¸µ
B f
ĠÐ±Ð° ÑĨÑĮ
ĠÙģØ±ÙĪ Ø´
ÙĩØ± Ø§ÙĨ
à¹Ħà¸ Łà¸
ĠÚ¯ Ø°
et hau
la ma
ĠØ§ÙĦØ§ Ø³Øª
ĠåĪ ©
ĠÎľ ÏĢÎ¿
ie urs
Ñĺ Ðµ
ä¸į åį¡
ÏĩÎµ Î¹Î±
à¶ ¯
ĠÐ¿ ÑĥÐ»
Ġà¤ Ĭ
ÐµÑĢ Ðµ
ĠÃ Ķ
Ġv ad
Ġa lu
ĠÐ¼Ð°Ñģ Ð°Ð»
ĠÐºÑŀ Ð·
ĠØ¢ Ø¦ÛĮ
Ġto ho
Ġtamb Ã©
ĠÑĪÑĥÐ´Ð° Ð°ÑģÑĤ
àª¾àª §
ĠÐ± Ð°Ð½
ìķ ĺ
q et
Ġj ou
Ġc áº¥p
Ġave a
ĠØª Øª
d ores
ĠÑģÐµ Ð±Ñı
Ġà°µ à°¦à±įà°¦
Ġn ya
Ġod un
ts weng
ĠÐº ÑĢÐ°ÑĹ
Ùħ ÛĮØ±
à§Ģ à¦ķà§įà¦·
ĠÐ· ÐµÐ¼
Ġm ÃŃtá»įn
ÅĤa w
Ġidan iloju
Ġdz Ä«v
à¯Ĥ à®°à¯į
ck e
Ġci u
Ġd itÃ«
Ã¼ ksÃ©g
Ġprzy pad
åķĨ åĵģ
ĠÃº Äį
Ġd un
à±ĩ à°Ĥà°¦à±ģà°ķà±ģ
×¢ ×ķ×ª
åı ¤
áĢĶáĢ¹áĢĢ áĢ¯
ĠàªĨ àª¶
laya lam
ĠáĥĿ áĥ¥
ªà¸ §à¸
Ġin iz
è ħ
tif s
Ġde ze
Ġh esab
à´Ł à´¨
áĢĽ áĢĦáĢ¹áĢ
áĢ³ áĢķáĢ¹
áĢĻ áĢŃáĢ¯
Ïĩ Î¿ÏĤ
Ġà¦¸ à¦¾à¦¹
à´¨àµįà´ ¯
Ð¾Ð´ Ð»Ðµ
ÏĢ ÏģÎ¿
ĠØ§Ø· ÙĦØ§
ĠáĥĴáĥĺáĥĿ áĥłáĥĴ
ãĢ Ĭ
Ġé Ļ
Ġà°ļà±Ĥà° ª
ĠÎ± Î»Î»Î±
àµģà´Ł àµĨà´¯àµģà´Ĥ
Ġa ng
Ð³ ÐĤ
Ġáĥ¬ áĥĶáĥķ
Ġàª¦ àª¿àª²
ÏĦÎ® ÏģÎ¹Î¿
Ġàªµ àª¿àªµ
ĠÐ¿Ð°Ð² ÐµÐ´
ŀà¸ ±à¸ģ
åĮ Ĺ
ĠÑĢ Ð¾Ð´
ĠS er
ĠáĥĴ áĥĲáĥĴ
à¹Ĥ à¸Ńà¸
ĠÏĥÏĦÎ¹Î³ Î¼Î®
ĠÐº Ð¾Ð»ÑĮÐº
n jÃ«
Ġà®µ à®¾à®¯
à¹īà¸ ĩà¸
Ġatun ci
ĠÎµÏĢ ÎµÎ¹
ang o
ÚĨ ÛĮ
è Ĺ
Ġ4 2
à¦¾à¦° à¦¿
Ġà°¨à°¿à°°à±įà°µ à°¹
à¤¿à¤¯ à¤®
ĠÏĥ ÎµÎ¹
Ġà¤īà¤¨ à¤ķà¥Ģ
ĠÐ¼ÐµÐºÑĥÐ½ Ð°Ð´
Ġà¤ĩà¤¸ à¥ĩ
k r
Ã¼ y
ĠÙĦÙĦ Ùħ
ĠÚ©ÙĨ ÙĨØ¯
ĠÐ²Ð¸Ð» Ð¾ÑıÑĤÐ¸
Ð° Ð°ÑĤ
Ġà¦ª à¦¦
n on
ea zÄĥ
ĠÐ¼ Ð¸Ð½Ð³
ĠÐŀ Ð´
à«ģàª ¬
ìł Ģ
Ġà®®à®ķà¯įà®ķ à®³à¯į
ĠÙĪØ§ÙĦ ÛĮ
fa hr
Ġdal l
ita ts
si Ã³n
Ġdo ty
à°¾à°¨ à°¿à°ķ
ĠM Ã«
Ġak iyesi
uyá»ĩ n
i tion
Ġegy ik
Ġà¦ħ à¦¤
Ä«g u
ir isi
da w
Ġo á¹£u
e an
Ġ×Ļ ×ķ×ª×¨
ì¢ ħ
Ġlu gar
Ġzi le
ĠÐ¾ ÑīÐµ
ĠÑį ÑĤÐ¸
Ġko lej
Ġq iy
Ġiba mu
ãĤ» ãĥĥãĥĪ
ĠS ilicone
ts wa
áĢŀ áĢŃáĢ¯áĤĶ
Ġàª¹ àªľ
àµĢ à´¨
áĥĶáĥĹ áĥ¨áĥĺ
ªà¸ ¡
ĠØ¨ ÙĪ
à© ±
ĠH e
Ġé ģ
Ġndi h
Ġà´ķàµįà´ ²
ĠáĢĢáĢ» áĢ½áĢĶáĢº
±áĢķ áģļ
áĢ°áĢ¸áĢ ľ
Î¼Î¿Ïį ÏĤ
Ġà®ļ à®Łà¯įà®Ł
Ġà´ħà´¨ àµģà´
ĠÑįÐº ÑģÐ¿
Î¶ Î¿ÏħÎ½
si mo
Ġáĥ¯ áĥĶáĥł
ç İ¯
Ġ 88
Ġà°ªà±įà°°à°¾à°° à°Ĥà°Ń
ĠÏĥÎ· Î¼Î±
à´¾à´µ àµį
Ġs Ãµ
ĠÑĨ ÑĸÐº
áĥķáĥĶáĥļ áĥĺ
Ġàªķà«ĭàª ĩ
ĠÎ»ÏĮ Î³Ïī
àª°à«įàª ¤
ĠÐľ Ñĸ
ªà¸ °à¸
Ġé Ĥ
Ġm Äĥ
v ia
ĠáĥĿ áĥłáĥĺ
ļà¸£à¸´à¸ ģà¸²à¸£à¸
Ġga el
ĠÐ»ÑĸÑĤÐ°ÑĢ Ð°ÑĤÑĥÑĢ
in ter
Ġj ours
Ħà¹Īà¸ °
Äĵt as
f r
w is
Ġqu a
à¤¶ à¥įà¤¯
ÏĢÏĮ Î½
à¦ Ĩ
ĠEs te
Ġà¶ ļ
ĠÏĢ Î®
à¤°à¥įà¤ Ĺ
ĠÑħ Ð°Ð²
Ġà¤² à¥ĭà¤ķ
m alÄ±
d el
Ã´ t
Ġà§§à§ ¯à§
ĠÐĿ Ð°Ð²
ĠÐ» Ð¾Ð¹
ì ¤Ģ
Ø¶ ÙĪØ¹
Ð¾Ð³ Ð°ÑĤÐ¾
ĠÒĽÐ¸Ð» Ð¸Ð½Ð³Ð°Ð½
tel l
Ġàª¤à«ĩàª® àª¨à«ĩ
ĠÙħ Øµ
è³ ª
ĠÐ¸Ð½ÑĤÐµÑĢ ÐµÑģ
ĠK u
ĠS Äĥ
Ġshka k
ĠtÃ¶ r
ĠÐ¼Ð¾Ð³ ÑĥÑĤ
u sz
Ġà°ªà±įà°° à°¶
ĠGoo gle
à§ĩà¦¶ à¦¨
vo j
i ent
Ġpie dÄģ
à±Ĩ à°¡à±įà°¡à°¿
Ġw ith
Ġag o
Ġib ara
us am
Ġd ni
Ġà®®à®ķà¯įà®ķ à®³
Ġq an
Ġfi ind
ĠO b
ĠØ ¸
Ġíķ Ħ
Ġãģ ©
Ġgáº¹gáº¹ bi
g ai
Ġla voro
k Ã½ch
áĢĲáĢŃ áĢļ
Ġar ticle
Ġà´¬ àµįà´°
áĥĺáĥ ©
«à¸¡à¸²à¸ ¢
ĠØ§ÙĨØ¬ Ø§Ùħ
Ġà¤®à¥įà¤¹ à¤£
à®¾à®µ à®¿à®²à¯į
cia le
Ġn at
Ġà´ľ à´¿à´²àµįà´²
áĢ±áĢ¸áĢ Ĳ
»áĢķ áĢĬáĢ¹áĢ
áĢĻáĢº áĢ¸áĢ
ÏĦÎ¯ Î¿Ïħ
ä¼ļ ç¤¾
à´¤ àµģ
ĠÐ´ Ð°Ð·
ÏĦ ÏīÏĤ
Ø§ Ø§
Ġáĥ¢ áĥĶáĥ¥
à¤¾à¤ļ à¥įà¤¯à¤¾
à¤¾à¤Ĥà¤ļ à¥įà¤¯à¤¾
à±ģà°° à±ģ
ĠÎºÎ¿ Î¹
àµĩ à´ķàµįà´ķ
ĠØ£ Ø¨
Ð Ń
Ġáĥ¡áĥĲáĥ ŀ
Ġàª°àª¹ à«įàª¯à«ĭ
ĠÎĻ Î¿ÏħÎ½
Ġàªµàª¿àª¶ à«įàªµ
Ð°ÑĨ Ðµ
à¹Ģà¸ Ĺà¸µà¹Īà¸
Ġæ µ
Ġmin d
ba la
Ġáĥ§ áĥĿáĥ¤
· à¸
ĠÎłÏģÎ¿ Ïĥ
ÑĨ Ñį
à§įà¦Ł à¦¾à¦°
Ġsit ten
Ĺà¸ Ħ
k uu
ÏģÎµ Ïį
be c
ĠØ³ ÙĦ
Ġà¤īà¤ª à¤¯à¥ĭà¤Ĺ
ĠÏĨ ÏĮ
Ð¸ÑĤ Ð¾ÑĢ
Ġ uy
Ġà¤¤ à¥Ģà¤¨
ĠÎ¾ÎµÎ½Î¿Î´Î¿ ÏĩÎµÎ¯Î±
Ġà¤ªà¥įà¤° à¤¶
ĠÑģ Ð°ÒĽ
å© ·
Ġca d
Ġw orden
ĠEl s
ĠØ² ÙĨØ¯
ĠÐ¼Ð°Ð± Ð»Ð°
ĠÐ¼Ðµ Ð±Ð¾ÑĪ
Ð°Ð» Ð½Ð¸
ĠØ¨ Ø´
Ġuz ÅĨÄĵm
Ñħ ÑĪ
Ġpjes Ã«
Ġàª¥ àª¶à«ĩ
ĠLes eli
l lo
ĠÐ½ÐµÐ¾Ð± ÑħÑĸÐ´
Ġc and
ĠSex uale
ier on
re r
Ġìļ Ķ
ar zy
à°ķ à±Ģà°¯
Ġako onu
Ġme dzi
Ġh iss
Ġinc ont
k em
Ġà°Ĺ à±Ĭ
ĠO s
Ġà°¸à°Ĥà° ¸à±įà°¥
âĢ İ
ur Ã³
ç¢ º
Ġvá» ¥
à¯įà®ª à¯ģ
a pe
Ġs ys
ĠÐĳÑĬÐ»Ð³Ð°ÑĢ Ð¸Ñı
Ġpos s
Ġiz vÄĵ
há»į lu
ĠÑĤÐ°Ðº Ð°
Ð½Ðµ Ñģ
ĠJeho va
áĢļ áĢ·áĢº
Ġàªª àªĹ
à´ªàµįà´ª àµį
Ġáĥ¡ áĥĺáĥ¡áĥ¢
à¸Ļ à¸²
Ġ×ŀ× ŀ×
æ ĳ
ib u
ĠØŃ Ø§ØµÙĦ
Ġprz ek
Ġà´ī à´³àµįà´³
áĢĨ áĢ¯áĢ¶
áĢ° áĢ¸áĢ±áĢ
áĢģáĢº áĢĦáĢ¹áĢ¸
á½ Ĳ
à¦¿à¦ ·à§įà¦Ł
à´¸àµįà´±àµįà´± àµį
Ð¾Ð² ÑĭÑħ
ĠÎº ÏģÎ¯
ĠÑīÐ¾Ð´ Ð¾
ĠâĢľ ,
Ġå¹ ¶
è¾ ĵ
Ġà°ķ à°®
ĠÎ¬ÏģÎ¸ ÏģÎ¿
àµĥ à´·
c le
ÐŁ Ð°Ð´Ð»ÐµÑĤÐºÑĸ
ĠáĥłáĥĿáĥĽáĥļáĥĶáĥĳ áĥĺáĥª
Ġàª¬àª¹ àª¾àª°
ÏĢÎ¿Ïħ Î»Î¿ÏĤ
niec Ä«bas
ĠÐ¿ÑĢÑĭ Ð³
à¹Ģà¸ §à¸
å¹ ²
Ġj Ã¡r
us o
ĠáĥĲáĥ¦ áĥľáĥĺáĥ¨áĥľ
à¹īà¸Ńà¸ ¢à¸
ÏĦÎ¹ÎºÏĮ ÏĦÎ·ÏĦÎ±
ÑĥÑĩ Ð°Ñģ
ĠK Äģ
Ġà®ķà¯ģà®´ à®¨à¯įà®¤
à¹Ģà¸ģà¸ ¡à¸
Ġsho q
Ġd di
Ġdzie ci
Ġdal Å¡ÃŃ
à¤§ à¤¾à¤¨
ÏĥÎ± Î¼Îµ
ĠàªŃ àª¾àªľàªª
å³ ¶
Ġà¤Ĳ à¤¸à¤¾
Î¾ Ïī
Ġà¤¯ à¥ģ
ĠÐ¼ÑĥÐ² Ð¾ÑĦÐ¸ÒĽ
Ġà¤®à¥ģà¤Ŀ à¥ĩ
Ġsi ng
ĠÑĥÑģÐ» Ð¾Ð²
Ġot ros
em ein
ĠÐ¾ Ð¸Ð´
Ð´ Ð¸Ð»Ð°ÑĢ
Ġla n
ĠÐ¾ÑĤ Ð´
b rÄ«
ĠÐ±Ð¾ÑĢ Ð°Ð¸
Ġkul lan
Ġàªľ àª¾àª¹
Ġcs al
Ð¸ÑĪ Ðµ
ĠØ§ÙĦÙħ Øµ
ÉĻn d
v Ã¤Ã¤
Ġ":"" ,"
Ġê ´ĳ
li c
ci u
Ġà°µà°° à°ķà±ģ
ĠE mi
at Å¡e
Ġmon na
à§ĭ à¦ľà¦¨
ĠL and
Ġà®µ à®¯
ari juana
Ġà°¤à±Ĩà°² à°¿à°ª
Ġaá¹£ ayan
Ġpu tea
Ð¸ ÑĨ
Ġf ak
ĠâĢĺ âĢĺ
ĠØº ÛĮØ±
m Ä±z
Ġjo t
×ĳ ×Ļ
Ġo tt
Ġat áº¹
Ġc Ã¹ng
Ø« ÙĬØ±
ts ha
ĠáĢĻáĢŃ áĢĻáĢŃ
ĠàªĹ àª¾àª®
àµģà´ķà´³ àµģà´Ĥ
Ġáĥĸ áĥĿáĥĴ
à¹ģà¸ ģà¸£à¸
iÄĻ ki
æ¸¸æĪı å¹³åı°
Ġh um
Y n
ë¶ ģ
à´¿à´ķà´³ àµģà´ŁàµĨ
ĠáĢ±áĢĴ áģļ
áģ Ĭ
ĠáĢĶ áĢŃáĢ¯áĢĦáĢºáĢĦáĢ¶
ÎµÏĢ Î¹Ïĥ
åıĸ ãĤĬ
Ġà´¶àµįà´° à´®
Ð² ÑıÑĢ
á¿Ĩ ÏĤ
ĠPost Ã©
áĥĶáĥľ áĥĺáĥ¡
åİ ĭ
Ġä¸ ī
ui te
ĠÎĶ ÎĹÎľ
Ġà´ªà´°à´¿à´ ¶
Ġà®ļà¯Ĩ à®²
Ðµ Ð´Ð°
Ġáĥĺáĥ§ áĥĿáĥ¡
Ġàªª àªŁ
ĠÎ±Î½ ÎŃ
Ġà°µ à°¾à°¡
ĠÐ¿Ð°Ð´ ÑĤÑĢÑĭÐ¼
ŀ à¸´à¹Ģà¸¨à¸
æľī éĻĲ
ay ÉĻt
Ġt Äģs
áĥ¡áĥĲáĥ® áĥ£áĥł
à¸£à¸µ à¹Ģà¸
Î´Î® ÏĢÎ¿ÏĦÎµ
ĠÐ¼ Ð½Ðµ
Ġsh i
Ġ ÅĻÃŃ
ĭà¸ ·à¹īà¸Ń
Ġz iren
dy dd
p eng
Ġà°ª à°¿à°²à±įà°²
Ġà¤¨à¤¿ à¤°à¥įà¤®
f od
ĠàªķàªĤàª ª
ĠÐ´ Ð¸ÑĤ
Ġà¤ħà¤ª à¤¨à¤¾
AF 8
à¤° à¥ĭ
Ð°Ð» Ó£
Ġà¤¸ à¥ģà¤°
ĠÐ² Ð¸Ð¼
dui ts
Ġ Åĳ
Ġper met
ĠÐº Ó¯
ĠÐ¹ Ð¸Òĵ
ko rzy
Ġæ ĻĤ
Ġvend os
Ð¹ Ñħ
Ġne ch
Ġàª¬à«ĩàª ł
Ġbar ÉĻdÉĻ
Ġt Ãµ
Ġna pr
ĠÚ¯Ø²Ø§Ø± Ø´
ĠØ³ ÙĨ
Ġìł ģ
Ð¾Ñĩ Ð½Ð¾
áº¥ u
ĠW ie
Ġda x
ĠVi to
Ġts os
Ġka e
à¦¨ à§Ģ
Ġà°İ à°²à°¾
ny v
ĠK ini
ï½ Ĺ
Ġy en
ãĥĥ ãĤ°
Ġdu pa
o het
Ġf Äĥ
ĠvÅ¡e ch
om men
Ġna k
Ġbole h
Ġà®ļà¯Ĭ à®©à¯įà®©
Ġso ftware
à®¨à¯įà®¤ à®¿à®°
Ġimp ort
ts hw
ĠáĢŀ áĢĦáĢº
¬ àªĤàª§
Ġà´ħà´§ à´¿à´ķ
ĠáĥĽ áĥ£áĥ¨
Ī à¸´à¸
Ġà°ª à°¾à°Łà±ģ
è´ Ń
ĠÑıÐº ÑīÐ¾
Ġ×ķ ×Ľ
Ġni Å¼
Ġà´¸àµįà´¤ àµįà´°àµĢ
ĠáĢŀáĢ° áĢĲáĢŃáĢ¯áĤĶ
áĢĻ áĢ°
ĠáĢ §
ĠÏĢ Ïħ
åĪ ¥
à´¾à´ķàµįà´ķ à´¿à´¯
ĠÐ· Ð½Ð°
ĠÏĨ Ïį
Ġke d
Ġáĥł áĥĿáĥªáĥĲ
å¾ ®
Ġç º
Ġp on
ÎĻÎ ¡
Ġà´® à´¾à´±
ĠÙħ Ø°
Ñĥ Ð´Ð·
ĠáĥĶáĥł áĥĿáĥķáĥľ
Ġàª¬ àªĤàª§
Î¶ ÏĮÎ¼Îµ
ëł ¨
Ð²ÐµÑĢ Ñģ
à¹īà¸Ńà¸ ¡
èĩª å·±
Ġà®µà¯Ģ à®Łà¯įà®Ł
ĠØ¨Ø§ Ø´
ĠáĥĲáĥł áĥĲáĥ¡
à¹Ĥà¸£à¸ Ħà¸
ĠÎµÎ³ ÎºÎ±
ĠÑĢÑį Ð´
Ġpersonn es
Ùĥ Ø³
ªà¸£ à¹īà¸²à¸ĩà¸
it ti
ĠÎ»Î¯ Î³Î¿
Ġbei m
Ä¼ i
Ġà¤ı à¤¸
ĠÎ¼Î±ÎºÏģÎ¹ Î¬
ĠàªĨàªµ à«įàª¯àª¾
ĠÐ²ÑĭÑģ Ð¾Ðº
à¤¾à¤ Ń
Ġ4 1
à¤¾à¤ĩ à¤²
ĠÐ¤ Ð°ÑĢ
äºĶ æľĪ
ĠN uk
ng a
Ġà®ķ à®¾à®Łà¯įà®Ł
Ġà°°à±Ĩ à°Ĥà°¡
ĠÑĢ Ð°Ð²
ÑĪ Ð°
à§ĭ à¦¹
la l
×ľ ×ª
Ð¾Ð»Ð¾Ð³ Ð¸Ñı
Ġãģ¾ ãģŁ
Ġbash kÃ«
Ġnel l
g ÃŃa
ĠØ¯ÙĪ Ø³Ø±
ĠØ¹ Ø¨Ø¯
ĠØŃ ÙĬØ«
Ġs ÉĻh
Ġàªľàªµ àª¾àª¬
h iso
ì£¼ ì¶ľìŀ¥
Ġì° ¨
Ġan tigua
Ġk Ã«s
Ġà¦ª à¦¾à¦¶
Ġt x
ĠÅĽ wia
Ġtla se
ĠOá¹£ Ã¹
ct ul
âĢİ âĢİ
Ġm no
ĠH and
Ġph áº©m
Ä« st
Ð½ ÑĥÑĤ
f arÃ«
al Ä±ÅŁ
Ġac tu
à®¿à® Ļ
gu st
Ġle kan
ĠnhÆ° ng
Ġv Ã¡r
áĢģáĢº áĢĢáĢ¹áĢ
àªĤàªĹà«įàª° à«ĩàª¸
Ġà´¸à´¹ à´¾à´¯
ĠáĥĽáĥĲáĥ¨ áĥĺáĥľ
à¹Ĥ à¸Ļà¸
Ġà°ķ à°¾à°ķ
å¢ ĥ
Ġà¦¬ à§Ī
Õ¥Õ ¯
Ġs ÉĻb
à´ķàµįà´ķ à´Ĥ
áĤıáĢ½ áĢĦáĢ·áĢ¹
ĠáĢĲ áĢĢ
áĢĦáĢºáĢ¸áĢ ŀ
ĠÎ§ ÏģÎ¹Ïĥ
ĠÙħ ÙĬ
à´¾à´ Ļàµįà´Ļ
ĠÐ³ Ð°Ð·
ÏĢÎ± Î¯
Ø§ ÙĬ
áĥĿáĥ ļáĥĺ
éĤ £
Ć ą
Ø§Ø±ÛĮ Ø®
ĠÎµÎ¾ Îµ
Ġà´®àµģà´ ¨
ra re
ĠÐ¿ÑĢÐ°Ð¿ Ð°Ð½
Ġáĥĵ áĥĲáĥ®
Ġàª®à«ģàªĸ à«įàª¯
ĠÎĴ Î±Ïĥ
ĠT ag
Ñĭ Ð»
Ġà¸ Ħà¸§à¸²à¸¡à¸
ä¿¡ æģ¯
Ġth is
ch ar
áĥĶáĥłáĥ Ĵ
¶à¸ ģà¸
AX w
ĠÑģÐ» ÑĥÐ¶
×¤ ×ª
Ã» t
à¹Īà¸²à¸ §
ĠT as
ĠÏĩ Î¬
ãĤµ ãĤ¤ãĥĪ
Ġà°ħà°µ à°ķà°¾à°¶
ä¼ ¦
Î³ Î¼Î±ÏĦÎ±
Ġàªľà«ĭ àªµàª¾
ĠÃŃ r
ä¸ī çº§
Ġ201 0
à¤ľ à¤¼
ĠÐ¸ÑģÑĤ Ð¸ÑĦ
Ġà¤¸à¤® à¤Ŀ
Ġf Ã«mi
Ġko ko
Ġtr av
Ġo c
ĠÐĲ Ð³Ð°ÑĢ
ÐµÐ½ Ð³Ð°
Ġà®µà¯Ĩà®³ à®¿à®¯
Ġà¦ª à¦¾à¦²
b Äĥ
ĠÐºÐ¾ÑĢ ÑħÐ¾Ð½
Ġrend el
ï¼ ģ
çĦ¡ ãģĹ
Ġé «ĺ
ìĺ Ģ
à±Ĥà° ¤
Ġro kov
le go
Ġàª¸àªĤàª ¸
Ġtloaele hileng
an ut
owa ÅĤ
ĠP lus
kon om
p en
Ġà¦Ľà¦¿à¦² à§ĩà¦¨
ÛĮØ¯ Ùĩ
ĠÑĥ Ð³
ĠNA B
Ġn ngwe
Ġpi pe
à°°à±įà° Ń
à®±à¯įà®± à¯ģ
ÑĢ ÑĪ
ÙĤ ÙĪÙĦ
ÐµÐºÑĤ Ð¸Ð²
Ġv Ã¤l
ĠK inder
ĠÑĢÐ¾Ðº ÑĸÐ²
ĠÙ¾Ûģ ÙĨÚĨ
s iláº¹
à¯įà®µ à¯ģ
Ġà¦¬ à¦¿à¦¨
Ã¡b bi
ĠáĢĽ áĢ¾
Ã«sh t
àµĤ à´²
Ġáĥ¡ áĥĿáĥ¤
Ġ à¸Ļà¸µà¹ī
à±Ĩ à°Ĥà°¬
ä¹ĭ æĺŁ
ĠØ§ÙĦØ¬ Ùħ
ĠÅŁ ÉĻhÉĻr
ĠÐ² ÑĬÑĢ
Ġà´ŀ à´¾àµ»
áĢĽáĢŃ áĢĢ
áĢ¡ áĢľ
áĢ¯ áĢĲáĢ¹
Î¹Ïĥ Î¼ÏĮ
nge bo
à´¿à´² àµĤà´ŁàµĨ
ĠÐ¿ Ð°ÑĪ
ĠÎ´ Î¯
à¦ķà§įà¦· à§ĩ
Ġáĥ¬áĥĲáĥłáĥĽ áĥĿ
è® ¤
çĶµ åŃĲ
Ġy Ä±l
ĠÂµ Îµ
Ġà´ķ à´¿à´Łàµįà´Ł
Ġace asta
ÑĨ ÐºÑĸ
áĥĽ áĥĲáĥľ
Ġ×© ×ł
Ïģ Î¹ÎºÎ®
t Ã«s
ĠÐ¼Ð°Ð³ÑĩÑĭ Ð¼Ð°Ñģ
à¹Ģà¸¥ à¹Īà¸Ļ
Ġè µ
Ġver s
ĠP ra
áĥĲáĥłáĥ £áĥļáĥĺ
Ħ à¹Įà¸
ĠÏĢÎµ Ïģ
Ġ Ð°Ð»ÑĮ
l s
Ø§Ø¹ Ø©
Ľà¸ ±à¸įà¸
Ģ ìĿ´
ĠÎ´ Ïİ
ãĥ³ãĤ º
à°¯ à°Ĥà°²à±ĭ
à ¶ľ
Ġï¿½ï¿½ï¿½ï¿½ï¿½ï¿½ï¿½ï¿½ ï¿½
Ġwa kati
ÙĩâĢĮ ÙĩØ§ÛĮ
à¥ĩ à¤Ĺà¤¾
ry d
Ġ à·Ģ
ĠÐ´ Ð¾Ð½
Ġà¤¤ à¤¥à¤¾
la v
ĠØ¬ Ø§Ø±ÛĮ
Ġ( );
Ġàª¥àª¯ à«ĭ
ĠÒ² Ð°Ð¼
ĠÐº ÐµÑĩ
g atÃ¡s
Ġwar to
cli puri
ĠÐ½ Ð¾Ò³
Ġac es
ç ı¾
Ð² ÐµÐ´
Ġà®İ à®£à¯įà®£
Ġl Ãªn
ve j
Ġj in
Ġà¦ªà§įà¦°à¦¤ à¦¿à¦¬
si ÄħÅ¼
Ġit ali
Ð°Ð¹ ÑĤÐµ
dz Äħ
am u
Úĳ ÛĮ
ĠÐŁ Ð¾Ð»
li v
ĠD onna
O L
ĠJ an
I A
I D
enk il
Ġen cu
Ã¡ll ÃŃtÃ¡s
à°ª à°Ĥà°ļ
ÑĢ ÐµÑģ
Ġd um
àª¿àª Ŀ
ĠÙĩ ÙĨØ§
Ġãĥ Ń
Ġá¹£áº¹ da
Ã¼ tt
ĠÄ ·
Ġra yon
áģ ¶
Ġd Ã¶v
Ġ àµ¾
áĥ£áĥ ©
Ġà¸ «à¸£à¸·à¸Ńà¸
Ġì° ¸
ç®¡ çĲĨ
Ġp em
em ble
à®µ à®¿à®²à¯į
Ġà´ª à´¾à´°àµįâĢį
ĠáĢĢ áĢ¯áĢŃ
áģ »
áĢĸáĢ¼ áĢ²áĤĶ
ÏĢÎ¿ Î½
si Ã³
Ġà´¨à´Ł à´¤àµįà´¤à´¿à´¯
Ð°Ð² ÑĭÑı
ĠÎ» Îµ
Ġz v
Ġáĥ¤ áĥĶáĥ®
Ġæ İ
ç» Ń
Ġl Ã¶y
ĠÎ´Î¹ Îµ
Ġà´¤àµĢà´° àµģà´®
à§ ª
ĠÐ²ÑĭÐºÐ°ÑĢÑĭÑģÑĤ Ð¾Ñŀ
áĥ§áĥķ áĥĶáĥ¢
ĠSp iel
Î³ Î¬Î»
t za
Ð°Ñŀ Ð»Ñı
Ĭà¸ ±à¸
æŀ Ħ
Ã¶l t
Ġsh t
Ġáĥ¤ áĥĺáĥļ
ģà¸ ¡
ĠÏĢÎµÏģÎ¹Î¿ ÏĩÎ®
Ħ ¢
qu er
Ð» ÑĥÑĩ
ģà¸²à¸ ¨
ĠÑĸ ÑģÑĤ
ĠÏĩÏģÏĮ Î½Î¿
ĠíĻ Ķ
s to
Ġà¤¯à¤¹ à¤¾à¤Ĥ
ĠÎ¿ ÏįÏĦÎµ
Ġà¦ªà§Ĥ à¦°à§įà¦¬
r on
çĶ ·
ĠÎ³ Î½Ïİ
åĽ¾ çīĩ
ÑĢ Ð¸Ð±
Ġà¤ľà¥įà¤¯à¤¾à¤¦ à¤¾
Ø§Ø¯ ÙĬ
Ġ/ /
à«įàª¯ àª¾àª¨
Ġ×Ķ ×Ļ×Ķ
Ġâķ Ľ
ĠÐ¶ Ð°Ð²Ð¾Ð±
Ġtov Ã¡bb
ĠÙħ Ø§Ø±
Ġtr Ã¬nh
ĠÑħ ÑĥÑģÑĥÑģ
Ġor gan
re j
Ð¼ ÐµÐ½ÑĤ
à±Ī à°²
ĠdÉĻy iÅŁ
ĠÐ¿ÑĢ ÐµÐ´Ð¸
in ti
ĠC over
ĠL ig
Ġan cora
ĠÐ¿Ð¾Ðº Ð°Ð·
ĠJ oa
ĠÃ ±
Ġà®ħà®°à®ļ à¯ģ
ĠÐ³ Ð¾ÑģÑĥÐ´Ð°ÑĢ
à§ĩà¦Ľà¦¿à¦² à§ĩà¦¨
tiv itÃł
c m
Ġla báº¹
ä» ĭ
Ġgi di
Ġàª¸ à«įàª¤
Ġà®īà®° à¯ģà®µ
Ġvie lÃ¤
éħ į
Ġinfor m
e te
Ġà°ħà°µ à°¸
ĠÐºÐ¾Ð» Ð¸
ĠF Ã¼r
ĠA s
ì ´Ī
ĠØ¨ ÙĨØ¯
Ġan no
áĢķáĢ¼ áĢ®áĢ¸áĢ
ĠRomÃ¢n ia
à´¿à´¯ à´¾à´¯
áĥĲáĥļ áĥĵ
à¹ģà¸ ªà¸Ķà¸
È ĺ
åı ĭ
ĠØ£ Ø³
Ġh ui
àª¿àª¯ àª®
Ġà´¯ à´¾à´¤àµįà´°
ĠáĢĢ áĢ¬
áĢĳ áĢĻ
ĠáĢ±áĢ »áĢĻ
Î½Î¿ Î¯
×ŀ× ¦
àµĭ à´¸
ĠÑģÑı Ð¼
Î¿Ïį ÏĤ
Ġest Ã¡n
áĥĶáĥķ áĥĲ
ä¹ ī
Ġäºļæ¸¸ å®ĺç½ĳ
ch u
ÏĨ Î±Î½
Ġà´¤àµģà´Łà´Ļàµįà´Ļ à´¿à´¯
ÅĨ i
Ñı ÑĢÑįÐ´
Ġáĥ¨áĥĶáĥĽáĥĹáĥ®áĥķáĥĶáĥķ áĥĲáĥ¨áĥĺ
Ġgi bi
ĠÎºÎ± Î¸Î·
wi ck
ÑĨÑĭ Ñİ
Ħ à¹Īà¸²à¸
æ· ±
Ġast fel
ë£ ¨
áĥľ áĥĺáĥĶáĥł
Ġ à¹Ĥà¸Ļ
8 5
Ð· Ñı
z Ã«
co lo
Ĭà¸µà¸ §à¸´à¸
Ġiz ango
ÏĢÎ¿ Î¸Îµ
ãĤ¹ ãĥĨ
Ð°Ð´ Ðµ
Ġà¤¬à¥Ī à¤ł
ĠÏħ ÏĪÎ·
ĠC at
Ġrend szer
à¤Ĩ à¤Ī
ĠÏĦÎ± Î¾
à¤® à¤¤
ÐµÑĢ Ð¾
Ġà¤ħà¤§ à¥įà¤¯
Ġany s
Ġlie to
ts io
ĠÚ¯ Ú¾Ø±
ĠÐ·Ð°ÑĢ ÑĥÑĢ
ĠÐ´ Ñĥ
is in
Ġyax ÅŁÄ±
Ġf jal
ĠÐ´Ð¾ Ð´Ð°
Ġà®ªà®¾à®° à¯įà®ķà¯įà®ķ
á» «
dem Ã¡s
Ġex emp
Ġpo zy
Ø¨ ØŃ
Ġein es
Ġts h
à«ĩàª ¯
Ä º
Ġren de
Å¾ u
Ġt owe
Ġpe ti
Ġwa ar
Ġaur re
ĠØª ÙĩØ±Ø§ÙĨ
ãģ¨æĢĿ ãģĦãģ¾ãģĻ
Ġpaapa a
èª į
Ġav wanre
Ø§ ÙĪØ±
à°°à±įà° ľ
Ġer a
Ġh l
ÐµÐ· Ð¸
I tem
Ġë³ ´ë
ÛĮ Ùĩ
àªĹ à«įàª°
ĠI da
Ġà®® à®¾à®£
br and
ia tt
ĠáĢĻ áĢ½áĢ¬
w ier
Ġà´ħà´Ł àµģà´¤àµįà´¤
ĠáĥĽ áĥĶáĥª
à¹īà¸Ńà¸ ¢
Ġfam il
à¥ ¦
Ø§Ûģ Ø±
ĠÐ¼Ðµ Ð¶Ð´
ÑĥÐ² Ð°Ð²
Ġà´®à´¾à´¤àµįà´° à´Ĥ
ĠáĢ¡ áĢĵ
ļ áĢ¬
áĢ±áĢķ áĢ¸áĢ
ĠÎµ ÏĢÎ¿
Ä« m
à´® àµĨ
Ð´ Ð½
ĠÎķ ÏĢÎ¯
Õ¡Õ ·
áĥĲáĥłáĥļ áĥĲáĥĽáĥĶáĥľáĥ¢
åĽ½ å®¶
ç§ °
ra f
ÏĦÏħ Ïĩ
à´¿à´¨ àµģà´Ĥ
Å¡ we
Ðº Ð°Ðµ
Ġáĥ¥ áĥĲáĥłáĥĹáĥķáĥĶáĥļ
Ġmaik utlo
ÏĦÎŃ ÏģÎ±
ĠT amil
ĠÐ¿ÐµÑĢ Ð°Ð¼
¡à¸µà¸ ¢
Ġè ´
à¯ĭ à®ļ
ĠØ³ Ùĩ
Ġ$( "#
Ġà¸ Ħà¸¸à¸ĵà¸
ĠÏĦÎ· Î»Îµ
ĠÑģÑĥ ÑģÑĤÑĢÑį
aj t
à±ĩ à°¨à°¿
à¹Ĥà¸ Ķà¸¢à¸
ĠnÃ³ i
ĠÏĨ Ïħ
Ġol lut
Ġv rai
à¥Ģ à¤¯
ĠÎķ Î¯
Ġàª° à«ĭàªľ
×Ľ ×ķ×ľ
Ġà¤ª à¥ĭ
Ġgy n
åľ¨çº¿ çİ©
Ð¾ÑĢ Ð¸Ð¹
à¤¿à¤¸ à¥įà¤Ł
Ġju ga
iss ance
Äħ t
Ġà¦ªà§įà¦°à¦¤ à¦¿à¦·à§įà¦ł
Ð³Ð° ÑĩÐ°
ĠÐ¾Ð» Ð³Ð°Ð½
kez Åĳ
Ġà°ĩ à°¦
Ġdre pt
ĠÐ´Ð¾ÑĢ Ð°Ð´
Ġp ush
ĠÑĤ ÑĢÐµÐ±Ð°
Ġval sts
Ġà°®à°¾à°° à±įà°ļ
ĠØ± ÛĮ
ì§ Ī
c ur
Ġjo ang
ĠÐ·Ð°Ðº Ð°Ð·
Ġx Ã¼s
ãĥ¼ãĥ ĳ
ĠÃ§ alÄ±ÅŁ
Ġajes eku
Ġà¦¸à¦¾à¦§ à¦¾à¦°à¦£
Ġs itÃ¤
Ð¾Ð½ Ðµ
à®¿à®¯ à®¾
ĠLe ben
ĠMo bile
ĠÃ¼ gy
b un
ãģĹ ãģ¾ãģĹãģŁ
ĠÙĪ ÙħÙĨ
Ġs itu
ba pi
à«ģàª ĵ
ĠØ² ÛĮØ±
ĠÅĽ rod
Ġà°ªà±įà°° à°¸à±įà°¤
to het
Ġbo ya
im u
Ġgan z
ĠP ers
ģáĢº áĢ³áĢķáĢ¹áĢ
Ø® ÙĦ
à´¿à´¸ àµįà´¥
ĠáĥĶáĥķáĥł áĥĿáĥŀ
ª à¸µ
ez pie
æĬĢ æľ¯
ni co
Ġaj Ã¡n
us sa
Ġà´µ à´°àµįâĢįà´·
áĢ¬áĢ¸áĢŀ áĢĬáĢ¹
áģ ħ
¥ áĢ®áĢ¸áĢ
Î¹Î¿ Î½
ĠkÃ«s aj
à´¿à´ķàµįà´ķ à´¾àµ»
ĠÐŁ Ð°Ð²
Î»Îµ Î¹Î±
ĥ à®ª
áĥł áĥĶáĥ¡
å£ «
å¹ ¶
ÄĥsÄĥri cÄĥ
ĠÏĢÎµÏģÎ¯ ÏĢÏĦÏīÏĥÎ·
à´µ àµį
Ġy ena
Ġ" .
áĥĿáĥłáĥª áĥĺáĥĶáĥļ
Ġbolo ka
Î¶ ÎµÏĦÎ±Î¹
Ġpro ble
Ð»ÐµÐ½ Ð°
à¹ ĭ
Ġæ ³
la p
Ð¸Ð½ Ð°ÑĤÐ°
áĥ® áĥĶáĥĵ
à¹ģà¸ ľ
ĠÎ±ÏĨ Î¿Ïį
ĠâĢ °
Ã į
à±ĩà° ¡
Ħ à¹Į
ĠÄį er
ĠÎ ī
ÙĪ Ø§Ø±
Ãª t
å¤§ åħ¨
ĠÏĥ Ïİ
Ġein fach
Å¥a Å¾
Ġà¤Ĩ à¤¸
re d
Ġà¤ľ à¥ģ
Ð¶ Ð¾Ð½
Ġà¤¸ à¥įà¤ª
ĠìĤ¬ ìļ©
Ġbeau coup
Ġt Ã©
×¨ ×ĺ
ĠÐ± Ð¸Ð½
ĠÑĦ ÑĥÑĤÐ±Ð¾Ð»
x e
Ġà°¨ à±ģ
ĠÄĳ ang
Ð¾Ð½ Ó£
Ġà¦¯ à§ĭà¦Ĺ
ĠØ¨ Ø¬
Ġàªľàª¾àª¹ à«ĩàª°
Ġp Ã©n
Ġfa pt
Ġge Ã§
ĠR Ã©
Ġba se
ka mi
Ġan da
Ġh ii
Ġac tiv
Ġp áº¹
ĠK ui
ĠØª Ø§Ø±ÛĮØ®
es tÃ¤
àª¾àªĩ àª¨
f all
Ġláº¹ po
Ġc_ is
ĠNigba ti
Ġs vet
à¦¨ à§įà¦¯
ĠÐ¢ Ð¾Ð²Ð°
Ġjwa lo
Ġeg iten
el les
ĠÐ¿Ð¾ÑĤÑĢ ÑĸÐ±
ny mi
ĠMu jeres
ĠE to
ta do
ĠG er
Ġfin den
áĢŃáĢ¯áĢĦáĢº áĢ¸
j is
Ġà´± à´¿à´ªàµįà´ª
ĠáĥĲáĥ ¨
à¹ĩà¸ Ķà¸
ÑģÑĤÑĢ Ð¾Ð¹
æ²¡ æľī
Ã¡ ÅĻ
at lan
Ġà°ļà±ĩà° ¤
Ġà´®à´¨ àµģà´·
ĠáĢļ áĢ°
áĢĶáĢº áĢ¸áĢĻ
áĢķ áĢ¯áĢ¶
Î»Î» Î®
ĠÐ¼Ð½ Ð¾Ð³Ñĥ
Ġà´ĩ à´¨àµįà´¨
Ð¿Ð°Ð´ Ð°ÑĢ
ĠÎĶ ÎĻ
ÑĢÑĥÐ¿ Ð¿
ĠáĥĽ áĥĺáĥľáĥĺáĥ¡áĥ¢
äº ĳ
èĭ ¹æŀľ
Ð¡ Ñĵ
ĠÎ¯ Î´Î¹Î±
àµĢ à´±àµįà´±
ĠÐ²ÑĸÐ´ Ð±
Ð½Ñĸ ÐºÑĥ
ĠáĥĲáĥ Ĺ
×ĵ ×Ķ
Ïħ Î¼
t ÉĻb
ĠÐ¿ Ð°Ð±
à¹Ģà¸ Ħà¸£à¸Ķà¸´à¸ķ
à¥ ħ
tik us
àª¿àª Ĺ
Ġáĥ¬ áĥĲáĥĽ
ªà¸ ¡à¸±à¸
AXw Bf
ĠÐ· Ð³
ĠØ³ ÙĨÚ¯
s Äĥ
ķà¸²à¸ ¡
Ġà¦² à§ĩà¦ĸ
Î´Î¿ ÏĥÎ·
dar b
is ation
Ġà¤¸ à¤Ĥà¤Ĺ
ĠÎ±ÏĢÎ¿ ÏĦÎŃ
Ġkh Ã¡c
ì¸ ł
à¤² à¤¬
ĠÎºÏĮÏĥ Î¼Î¿
à· Ĳ
ĠÐł Ð°Ò³
Ġç¾ İ
kov Ã¡
Å¡ÃŃ ch
Ġà°ª à°µ
ĠMad rid
ĠÑĪ Ð°Ð²
ĠÑį Ð³Ð°
l ti
Ġà®® à®¾à®µ
ĠØ´ Ø±ÙĪ
ÑĥÐ² ÑĩÐ¸Ð»Ð°ÑĢ
lan t
Ġw al
ĠÕ ¬
Ġala tt
ad Ä±n
à¦¾à¦ĩ à¦Ł
à±ĭ à°¹
q ti
Ð°Ð» ÑģÑı
Ġdar ba
Ġm iÄĻ
Ġw ord
á¹£e yá»į
à®¿à®© à®¾à®°à¯į
Ġm uss
to ja
is ine
ĠØŃ ØªÙī
b ara
ĠK Ã¶z
Ġi bu
Ġà°İ à°²
Ġc en
ë¡ ł
Ġr rit
Ð¸ÑĤÐµÐ» Ð½Ð¾
Ġpre mi
ĠÐ¿ Ð»Ð¾
f ter
Ġpa ÃŃs
Ġo do
Ġan dere
Ġm ba
ĠÐ´ ÑĥÐ¶Ðµ
áĢ® áĢļ
dz Äĵ
Ń à´µ
ĠáĥĵáĥĲáĥĻ áĥĲáĥķáĥ¨áĥĺáĥł
à¸£à¹Īà¸§à¸ ¡à¸
ÙĦÛĮ Ø³
åģ ĩ
àª¾àªµ à«ĩ
Ġterm Ã©k
Ġà°®à°¾à°¤à±įà°° à°Ĥ
Ġà´ħ à´°
áĢĶ áĢ±
áĢĦáĢ¹áĢ¸ áĢķ
ĠáĢ¡áĢľ áĢ¯áĢķáĢ¹áĢ
ĠÎ±Î½ÏĦÎ¹ Î¼Îµ
×ĸ ×Ķ
àµįà´¯ àµĤ
ÑĢ Ð°Ð´
ÏİÎ½ ÏĦÎ±ÏĤ
pe ÅĤ
Ġáĥŀáĥł áĥĿáĥĳáĥļ
ä½ İ
à¨ ¨
Ġprod us
Ġ ÏĪÎ·
à´ªàµįà´ªàµĭ àµ¾
k uuta
ĠÐ²Ñĭ Ð³
ĠáĥĵáĥĲáĥ Ķ
Ġper io
ĠÎ¿ Î»Î¿
ĠÉĻ vvÉĻl
ĠÐ±ÑĥÐ´ ÑĥÑĨÑĮ
à¸µà¸¢à¸ ĩà¸
åı į
Ġc ÃŃm
Ġb ur
ĠáĥĿ áĥŀ
ļà¸ Ĺà¸
ÏĢ Î¹ÎºÎ®
ĠÑĢ Ñĭ
Ġíķ Ļ
Å¡e j
ŀ à¸£à¸°à¸
Ġt eg
ĠÏĥÏĩ ÏĮ
Ã¡ le
ĠprÃ©s ent
à¤¾à¤¡ à¤¼
ĠÎ¼ÎµÎ³Î¬ Î»Î·
Ġà¦¶ à¦¹
isi in
Ġà¤¦à¥ĩ à¤¨à¥ĩ
ĠÎµÎ½Î· Î¼Îµ
å°ıæ¸¸æĪı åľ¨çº¿çİ©
ĠÑģÐ¸Ñĳ Ñģ
à¤¾à¤Ĥ à¤¸
ĠØ§ÙĦÙħ Ø¯
Ġb Å«t
Ġà°Ĺ à°¤
Ġsa m
ĠÐ°ÑĬ Ð·
ĠÐĲ Ð¹
tet in
Ġà®¨à®¿à®± à¯ģà®µ
ĠØ§Ùģ Ø±Ø§Ø¯
ĠÑģ Ð¾ÑĤ
Ġan nÃ©e
Ġ×ľ ×Ļ
Ġàª¸àª® àªľ
Ġsz Ã¼ksÃ©g
Ġr ena
E A
Ġl isebelisoa
lis a
ĠBa ÅŁ
ĠÐ£ÐºÑĢÐ°ÑĹ Ð½Ñĸ
Ð¾Ð² Ð¸Ð¹
ĠwiÄĻ c
Ġile ra
ĠM ari
Ġs pa
ĠÑĩÐµÐ»Ð¾Ð² ÐµÐº
Ġà°¨à°¿à°° à±įà°£
Ð¾Ð»Ð¾Ð³ ÑĸÑĩ
á¹£eyá»į ri
Ġh Ã¡z
Ġw aye
×Ļ× ŀ×
ber g
àª ·à«įàªŁ
ti j
ÃŁ er
ia go
ĠP DF
Ġre pr
Ä± yor
Ġip ese
à±ĩà° ³
é¨ ĵ
ĠÑĢÐ¾Ð± Ð¾ÑĤÐ¸
ĠáĢ»áĢķ áĢ³
ĠØ§ Ø´
àµĨà´Ł àµģà´ªàµįà´ª
Ġáĥĺáĥ¡ áĥ¢
Ķà¸²à¸ §
ĠÐĴÑģ Ðµ
Ġå° ±
Ġp ik
p ont
ĠÐº Ð½Ð¸
Ġà´Ĩà´µ à´¶àµįà´¯
áĢģáĢº áĢĦáĢ¹áĢ
±áĢ¡ áĢ¬áĢĦáĢ¹
ĠáĢ¡ áĢĻáĢ½
ĠÎŁ Î¹ÎºÎ¿
ĠÉĻla q
Ġà´¤à´¿à´° à´¿à´ļàµįà´ļ
Ð°Ð¹ ÑĨÐµ
ÏĢ Î»Î±
Ġpot rze
Ġáĥĵáĥ¦ áĥĶ
è¿ ŀ
åĪ Ļ
t ri
Ïħ Î¼Î±
àµĩ à´¯
Ùģ Ø¹
ĠÑĸÐ½ ÑĤÑįÑĢ
áĥļ áĥĶáĥĳáĥĲ
Ġà¦Ĩà¦° à¦ĵ
ĠÏĥÏħ Î¼ÏĢ
Ġà°ķ à±ģà°Ł
ĠÐ¿ÑĢÐ°Ð± Ð»ÐµÐ¼
Ġ à¸£à¸²à¸Ħà¸²à¸
Ġà¨ ¹
Ġcon si
Ġby l
áĥĲáĥķ áĥĶ
Ĺà¸µà¹Īà¸ Īà¸°à¸
Î½ Î¿ÏħÏĤ
Ð°Ð½ ÑĭÑħ
àª¦ àª¾àª°
ĠÑģÐ¾Ð¾ÑĤ Ð²ÐµÑĤ
® à¸
ĠìĦ ¤
ÎŃÎ½ ÏĦÏģÎ¿
v Åĳ
b wa
ĠåĪ© æĿ¥
dd o
y w
Ġstr Ã¡n
à¤¾à¤« à¥Ģ
ĠIn tel
ä¸Ģ æľ¬éģĵ
ĠÐ¾ÑĢ ÒĽ
Ġà¤Łà¥Ģ à¤®
Ġà®µ à®¿à®²
Ġàª®àª¾àª £
Ġà°¸ à±įà°ķ
Ġkaik ki
ĠÒ³ Ð¸Ð¼
ĠÒ Ĵ
ĠØ´ Ø¨
Ġ ãģĮ
ĠÐ°Ðº Ð¾
Ð¸Ð» Ð°ÑĳÑĤÐ³Ð°Ð½
Ġì² Ń
Ġm om
ĠØª ÙĤ
ha us
ts ana
k wa
Ġsa ÄŁ
Ġë¡ ľ
Ġpo k
ĠÐ¿ÑĢÐ¾ÑĨ ÐµÑģ
ÐµÑĤ Ñĥ
le i
Ġi P
Ġàª¤à«įàª° àª£
con om
ĠÐ· Ð½
er mek
ãģķãĤĮ ãģŁ
d ari
Ã¼ Ã¼
á¹£i pa
ĠMor ena
Ġci lat
ĠW enn
Ġar v
Ġ) {
Ġn Ã©l
Ġà¦ļ à¦¾à¦°
ĠB A
Ġpal Ä«dz
w in
Ġà®Ĩà®ķ à®¿à®¯
ni ca
Ġf Ã©
±áĢ ķáĢ«
Ġbo li
à´® à´²àµįà´²
áĥ£áĥ ŀ
±à¸ĩà¸ ģà¸¤à¸
ĠÑĤ ÐµÐ¿
åĪĨ æŀĲ
à°¾à°° à±įà°¥
Ġch Ãºng
ĠÐ±Ñĭ Ð»Ð¸
à´¿à´Ĥà´Ĺ àµį
áĢŃáĢ¯áĢľ áĢ¹áĢ
áĢ¡ áĢĲáĢ½áĢĢáĢº
ĠáĢ¡ áĢĨáĢŃáĢ¯
Îº ÎŃÏĤ
ĠM on
àµĭ àµ¼
ĠÐ½Ð° ÑģÑĤÑĥÐ¿
ÎĻÎļ ÎĹÎ£
Ġj ash
áĥª áĥĺáĥĲ
å¤ į
Ġå¿ «
se ur
ÎĻÎ ĸ
Ġà´¶ àµĩà´·à´Ĥ
×¤ ×©×¨
ĠÐ²Ñĭ Ð±
áĥĲáĥĹ áĥĺ
Ġà¦¬à¦¿à¦ı à¦¨
Ïĥ ÏĨ
à¦¬ à¦¾à¦¸
Ñį Ð»
Ĺà¸ ±
é¦ĸ é¡µ
Ġsch im
Ø§Ùħ Ø¬
Ġáĥ¨áĥĶáĥ¡ áĥĲáĥĳ
à¹Ģà¸£à¸µà¸ ¢à¸
Ġ5 7
Ð°Ð² Ð°Ð»Ð°
Ġàªªà«įàª° àªķ
ĠÕ ·
à¸£à¸±à¸ Ĳà¸
ÉĻs s
Ġg weith
ë¶Ģ íĦ°
Ġà¦¸ à§įà¦ķ
à¥Ĥ à¤Ł
.... ....
ch as
Ġ Ã¡lla
Ġà¤ľ à¤Ĺ
ĠÏĢÎ¿Î» Ïħ
à¤¾à¤¯ à¤°
Ð°ÑĦ ÑĤ
Ġà¤ĸ à¥ĩà¤²
ĠÄ«pa Å¡
Ġàª¦àª° à«ĩàªķ
Ġà°Ĩ à°¦
ĠÃ§ at
Ð°Ð½ Ð±Ðµ
ĠÒĽÐ°ÑĢ ÑĪÐ¸
s iÄĻ
ÙĨ Ù¹
Ð¸Ð² Ð°
Ðŀ ÐĿ
ĠÅ¡ Ä·
ĠØ¹ ÙħÙĦ
il u
ĠgÃ¶ re
Å¡ oa
pe la
W A
ik ali
Ġà°¤à±Ĩà°² à±ģà°¸
éģ ķ
ĠT iran
esh me
s á»įna
Ġàª¦àª° àª®
Ġfran Ã§a
Ġwy st
ni c
ci dad
Ġg un
la g
ĠO lo
Ġli hlahisoa
ĠD I
Ġes p
Ġj ums
à®© à®¾à®²à¯į
ĠØ§ÙĦØ¹ ÙħÙĦ
ìľ ¡
ri ka
ĠÐ§ ÐµÑĢ
ĠE ng
×ķ×ł ×Ļ
Ġce ea
Ġm Ã©t
áĢķáĢ¹áĢ ħ
Ð½Ð¸ ÑĨÐ¸
à´¿à´ķ àµį
áĥļ áĥĶáĥĳáĥĺ
ļà¸£à¸´à¸ ģà¸²à¸£
ĠÙĥ Ùĩ
A PP
Ġà°ª à°¾à°Ł
Ġì½ Ķ
Ġn Ã¼m
Ġà´ķàµĬ à´£àµįà´Łàµį
áĢ¸áĢĢ áĢ»
áĢŃ áĢķáĢº
áĢŃ áĢħáģ¥
ĠÎ± Î´
Ġsu pp
àµĩ à´¤
ĠÑģÑĤ Ð°Ð½
Î¾ Î±Î½
ãĤ ®
Ġáĥĵ áĥĺ
åĨ į
áł łáł
ĠÃ© tu
ĠÏĥÏį Î¼ÏĨÏīÎ½Î±
Ġà´ħ à´¸
Ġs lu
ĠÐ»ÑİÐ´Ð· Ñĸ
Ġáĥ¬ áĥĺáĥľáĥĲ
Ġà¦¦ à¦¿à¦¤à§ĩ
ÎĻ ÎŁÎ¥
Ú¯ Ùĩ
ÑĩÑĭ Ð¼
à¸£à¸ ĸ
å¤§ å°ı
à°¿à°Ĥà° ¤
à®¿à®° à¯ģà®ªà¯įà®ª
Ġáĥ¨áĥĶáĥ¡áĥĲáĥĳ áĥĲáĥĽáĥĺáĥ¡
° à¹ģà¸Ļ
Ġ5 4
Ð½ ÐµÐ½
àª¾àªµ àª¾àª¦
Ġàª¸ àª¾àª°
ª à¸Ńà¸ļà¸
Ġr Ã¡
Î³Î³ÎµÎ» Î¼Î±
Ġn Ã¤y
Äĥse ÈĻte
à¥Ģ à¤¸
ĠÎ¼ ÏĢÎ±
ĠDomni ÈĻo
ich i
Ġà¤¹à¤® à¤¾à¤°à¥ĩ
Ġ 65
Ġà¤¤ à¥ģà¤®
ĠÒ³ Ð°Ð²
Ġà¤ķ à¤Ńà¥Ģ
Ġh erÃ«
Úĺ Ùĩ
ĠY A
Ġku p
ĠÐľ ÑĥÒ³
ÑĤÐ¸Ð¼ Ð¾Ð¸Ð¹
ĠÙĪ Ùĥ
àª¿àª¯ àª¾àª¨
Ġra kst
ĠÐ¾Ð» Ð´Ð¸
Ã¼ ks
Ġbi áº¿t
Ġos Ã³b
Ġà¦¤ à¦ĸà¦¨
Ġbo leng
al le
Ġà°¨ à±ĩà°¤
nÃ© l
à°ļ à°¨
ĠD u
we ise
den ie
á¹£ipa ará»į
Ġmu cho
us es
ĠÐ½ ÐµÐ¼
Ġna bÃŃ
ĠSing ure
ris ti
ĠØŃ ÙĤ
Ġid ar
ge la
Ġ×ŀ ×Ļ
Ġì ¶ľ
s ke
àª¬ àª°
à¯Ĩà®²à¯įà®² à®¾à®®à¯į
ĠÚ©ÛĮ Ø³
Ġbe ha
ĠØ£ ØŃ
ĠM áº¹
Ġà¦¯ à¦¾à¦ļ
Ġa de
ĠÐĵ Ð»Ð°Ð²
áĢĻáĢºáĢŃáĢ³ áĢ¸áĢŀ
an Ã©
Ġà´µà´¿à´ľ à´¯
áĥĲáĥĸ áĥłáĥĵ
à¹ Ĭ
Ġà®µ à®¿à®¤
å®ī åħ¨
à°¿à°¸ à±įà°Ł
ÑĸÐ½ Ð½Ñı
Ġm Äĵs
à´°àµįâĢį à´®
áĢĻáĢ» áĢ¬áĢ¸áĢĢáĢŃáĢ¯
áĢľáĢŃáĢ¯ áĢĢáĢº
áĢļáĢ¹áĢ ĨáĢŃáĢ¯
Îº ÎµÏĤ
bi or
à´¾à´° à´£
Ð°Ð²Ð°Ð½ Ð°
ĠÏĩÎ±ÏģÎ±Îº ÏĦÎ·
ĠÑĢÐµÐ· ÑĥÐ»ÑĮÑĤ
áĥĶáĥķ áĥ¡
æĪĳ ä»¬
Ġå¥ ½
ĠÙĦ ÛĮØ§
ÏģÎºÎµ Î¹Î±
Ġà´° à´¾à´·àµįà´Ł
Ã¡b Ã³l
ĠÐĵ ÐĨÐĵ
áĥĿáĥľ áĥĿáĥĽ
are kin
ĠÎķÎĽ ÎĽ
ĠP ie
ÑĢÑį Ð±
Ġà¹Ģà¸ ŀà¸·à¹Īà¸Ńà¸
æİĴ åĪĹ
Ø® Ø§Ø¨
d f
áĥĲáĥ¡ áĥ¢
Łà¸¸à¸ķà¸ ļà¸Ńà¸¥à¸
ÏĢ Î»Î·
ĠÐ· ÑıÐ¼
àªµ àª¾àª¥à«Ģ
bil itÃ©
ªà¸ ĩà¸
Ġë¬ ´ë
Ġh wn
ĠN aj
Ġne vo
Ġà¤Ĩ à¤¤
ĠÏĢÏģÎ¿ Î·Î³Î¿ÏįÎ¼Îµ
Ġà°Ĩ à°¡
ci ja
Ġà¤ľà¥Ģ à¤µà¤¨
ĠA A
Ġà¤¡ à¥ī
Ġâĸ ĳ
à¤ķà¥įà¤° à¤®
Ġà¦ķà¦° à§ĭà¦¨
à¦ª à¦¾à¦¤
Ġt ener
pa a
ĠÒĽÐ¸Ð» Ð´Ð¸
ĠÑħÐ¾Ð´ Ð¸Ð¼
u ch
Ġren contre
lerin i
ĠÐ¸ÑĪ Ð»Ð°ÑĢ
Ð°Ð½ Ð¾
ãģķ ãģĽ
Ã¡ ri
as cÄĥ
Ġith uta
Ġfi hla
Ġà°ĩ à°¤
Ġàª® à«ģàªķ
Ġà®ªà®¿à®° à®¤
Ùĩ Ø¯
Ġm ia
cel ona
Ġá»įmá»į de
Ġà¦¹ à¦²à§ĩ
uss ures
Ġs Äģk
ya br
Ġs Ã³n
Ġá»Į já»į
Äį enÃŃ
ti ri
tse la
Ġvit in
Ġb Ã¡r
Ġnel le
Ø³Øª Ùĩ
Ø¹Ùħ Ø§ÙĦ
p iel
u ti
Ġãĥ Ģ
á»į run
Ġà¦ªà§įà¦°à¦§à¦¾à¦¨ à¦®
j os
×¡ ×§
ĠáĢĽ áĢĶáĢ¹áĢĢáĢ¯
Ġh Ãłnh
Ġà´® à´¾à´¸
Ġáĥ¡áĥ¬ áĥĿáĥł
«à¸ į
ĠìĦľ ìļ¸
èĻ İ
´ Ŀ
àª¿àªĤàª ¹
Ġàª¸ à«Ĥ
à´ķàµįà´ ¸
áĢĳ áĢ¬áĢ¸
áģ Ī
áĢĻ áĢļáĢº
Îº Î±Î¹
Õ«Õ ¯
Ġà´± àµįà´±
ĠÐ°Ð± Ð°ÑĢ
Ïĥ ÏĦÎ¹
Ġe lÉĻ
©áĥĶáĥķ áĥľ
æ ļ
ç¡ ®
at an
ÏĢ ÏīÎ½
Ġà´² àµĨ
Ùĥ ÙĬ
ĠÑĢÐ°Ð· Ð²Ñĸ
ĠáĥĺáĥĴ áĥĺ
Ġk yl
Î¼ Î¹Ïĥ
ĠÐ¿Ð¾Ð· Ð²Ð¾Ð»
ĠÐ· Ð°Ð¹
łà¸²à¸ ¢
æĬ ¤
Ġt ento
c ement
Ġáĥĺáĥ¡ áĥĺáĥľáĥĺ
à¹ģà¸Ļà¸ °
Î»Î¬ ÏĩÎ¹Ïĥ
ĠÐĽÑĥÐº Ð°ÑĪÑįÐ½
Ġjet zt
ci le
Ġà¸ «à¸²à¸
ĠìĹ Ń
ĠÏĩ Î¬ÏģÏĦÎ·
ÄŁ Ä±nÄ±
us ed
é£ŀ èīĩ
Ġ5 8
Ġà®ħà®²à¯įà®² à®¤à¯ģ
ĠB et
Ġà¤ļ à¤¾à¤°
ĠÎ» Î¬
-- --
ĠÐ´Ð°ÑģÑĤ ÑĥÑĢ
Ġå° ı
Ġà¦¬à¦¿à¦ ¸
is mo
ĠÙĪ Ø¬ÙĪØ¯
it taa
ĠÐ¼Ð°Ð· ÐºÑĥÑĢ
Ġ Ð°Ð¶
Ġb eg
Ġcon se
pe Äį
ĠÒĽ ÑĥÐ²
à¦² à¦¾à¦°
Ġc Ã©l
Ġfie care
Ġz wiÄħz
Ġmora o
ĠÑĥ Ð¿
Ġàªľ à«ĭàª¡
Ġd or
Ġth ek
Ġkter Ã¡
a je
ãĥ³ãĥ Ĩ
Ġy io
à¦² à§ĩà¦°
Ġv ille
Ġfol os
Ġ×ľ×Ķ ×ª
à±ģà°µ à±ģ
Ġgb iyanju
Ġt Ã½m
I K
Ġth ib
ĠÑĤ Ð°Ð·Ð¸
Ġëĵ ¤
ĠÃº t
ĠÐ¼Ð½ Ð¾Ð³
Ġla yi
ĠØ§ÙĦØ¹ Ø±
Ġl ÃŃ
L CJ
Ġi wa
ÅĤ Ã³w
Ġmon ate
Ð¾Ð» Ð¾Ñģ
ģáĢº áĢĢáĢ¹áĢ
ÑĨ Ð¸ÑĤÐµ
àµģà´ ĸ
Ġáĥ£áĥ ĳ
ļ à¹īà¸²à¸Ļà¸
Ø§Ø¦ ÙĬØ©
äº ¿
ĠãĤ ¸
gen d
Ġà°¸ à°¾à°®
Ġà´ħà´µ à´°àµįâĢį
ĠáĢ¡ áĢķ
áĢ½ áĢļáĢº
áĢĻáĢº áĢ¸
Ïĥ Î¿Î½
Ġhy vin
à´ļ à´°
Ð»Ñĸ Ð·
ĠÎĿÎ¿ Îµ
dzi Äĩ
áĥĶáĥĿáĥĳ áĥĺáĥ¡
Ġà¤¹ à¥ĩ
åĦ ¿
va m
Îº ÏĦÎ·
Ġà´¨à´¿à´ ±
Ġj Å«
Ð°Ð²Ð°Ð½ Ð½Ñĸ
ĠáĥĿ áĥ¯áĥĲáĥ®
Ġdi fer
ĠÎĵ ÎµÎ½
Ġà« ª
ÑĢÐ¾ Ñħ
ķà¸ ¥
ç»ı æµİ
à«ĩàª® à«įàª¬
em mes
Ġáĥŀ áĥĲáĥ¡áĥ£áĥ®
Ħà¸ ³à¸
Ïī ÏĥÎ·ÏĤ
Ð°Ð³ Ñĥ
ëł ¹
el s
Ī à¸µ
Ġvje Ã§
ĠÎ¼ Ïħ
ĠÙħ Ú¯Ø±
à¦¤ à§įà¦¬
Ġà¤ľ à¤¹
ĠÏĦÎ¹Î¼ ÏİÎ½
×ľ ×ķ×ª
Ġà°¦ à±Ģà°¨
Ġà¤ľà¤¾à¤¨ à¤ķà¤¾à¤°à¥Ģ
Î´Î¹Î± Î¯ÏĦÎµ
à¤¾à¤¨ à¥ĭà¤Ĥ
ĠÒ³ ÐµÑĩ
Ġà¤Ĺ à¤¿à¤°
ĠmÃ¡ y
Ġs owie
ĠmÃ«ny rÃ«
Ø§Ø¨ Ø©
ĠÑĤÐ°Ñģ Ð´Ð¸ÒĽ
ĠÑħ Ð°ÑĤ
àªķ à«įàªķ
Ġdis pos
v Ãµ
Ð¾ÑĢ Ð°ÑĤÐ¸
ten i
Ð¸ÑĤÐ¸ ÑģÑı
Ð½Ð¾ ÑĪ
Ġd ÅĤu
ĠS em
ĠKo Å¡i
ĠV e
Ù¾ ÛĮ
ĠtÅ¡e o
Ġditu z
ich te
Ġë° Ľ
Ġgi ge
å¼ ·
lu tion
Ġt Ã½
Ġza idi
Ġi ki
ĠI wá»įn
ĠÐ£ ÐºÑĢÐ°Ð¸
h ari
Ġh Åį
ĠÐ¿ÑĢÐ¾ÑĤ Ð¸Ð²
âĢĮ à°²
ÙĬ Ø§ÙĨ
àª¾àª¡ à«Ģ
Ġquel lo
Ġà°ħà°¯ à±įà°¯
Ġes c
l Ã©s
ĠêŀĮ in
á» ¹
Ġse bele
te et
áĢĶ áĢ²áĤķ
Ġtie Å¾
à´¬ à´¨àµįà´§
Ġáĥ¤ áĥĲáĥ¥áĥ¢
ľà¸ ¥
Ø§Ø± Ø§ÙĨ
æī į
ãģ® æĸ¹
Ġà¦ħà¦Ńà¦¿à¦ ¯à§ĭà¦Ĺ
Ġà°ľà±Ģà°µ à°¿à°¤
à´¿à´ķàµįà´ķ à´¾à´¨
±áĢķ áĢ¸áĢ
áĢ±áĢ¸áĢ Ľ
áĢľ áĢĬáĢº
ĠÏĩ ÏģÎ¿Î½
d r
Ġà´İà´²àµįà´² à´¾
ĠÐ¿ Ð°Ð¼Ñĸ
ĠÎ¼ÏĢÎ¿ ÏģÎ¿ÏįÎ½
ĠÐ² Ð¿
ĠáĥĹ áĥķáĥĺáĥĹ
Ġåħ ¨
Ġå¤§åıĳ å¿«3
Ġy ks
ĠÎ¼Î± Î¸Î·
Ġà´µ à´¯
ĠØ´Ø±ÙĪ Ø¹
ÑįÑĢ Ð²
Ġáĥľ áĥĲáĥ¬
ÅĦ ski
ĠÎķ Î¸Î½
Ġàª¨ àªľ
ĠÐ¿ Ñĸ
Ġà¸ ĭ
åĽ Ń
Ġce va
n ement
Ġáĥ¡áĥĲáĥŃ áĥĺáĥł
ªà¸´à¸ Ĺà¸ĺ
Î»Î¬ Î²
ÑĮ Ð½Ñı
en y
en ces
«à¸¥à¸²à¸ ¢à¸
à¦¿à¦¤ à§įà¦¬
ĠÎŃÏĩ Ïī
ĠÑģÐ»ÑĥÑĩ Ð°Ðµ
ĠpÃ«r gj
à¤ª à¥įà¤°
Ïģ Î¹ÎºÎ¬
ĠÙħÙĨ Øª
Ġà°¤à±Ĩà°² à°¿à°¸
Ġà¤ľà¤¾à¤¤ à¥Ģ
20 16
Ġà¤¦ à¤°
ĠÑģ ÑĥÐ²
à¤¨ à¥įà¤¦
ĠÃ¶z Ã¼n
Ġde p
àª² à«ĭ
ç· ļ
ĠÐŁÑĢÐµÐ·Ð¸Ð´ ÐµÐ½ÑĤ
ĠÑı ÑĢÐ°ÑĤ
Ġzw ei
f Ã©r
Ġ×Ĳ ×ĳ×ľ
ÑĤÐ¸Ð± Ð¾ÑĢ
à¦¸ à§įà¦Ł
Ġnas t
ĠÐ¿ ÑĬÑĤ
Ġ| --
Ġma bapi
ĠÙĪ ÙĨ
Ġre la
ĠÐº ÑĤÐ¾
le ho
Ã¶ Ã¶
ĠE iro
ĠÐ±ÐµÑĪ Ðµ
Ġa fihan
æ± º
Ġíķ ¨
ĠP as
Ġà¦® à¦¤à§ĭ
ĠÃ ¥
ĠN inu
Ġ×Ķ× ĺ
bo ok
Ġbo ng
ÑįÑĤ Ð¾Ð¼Ñĥ
Ġà°ļà±Ĥà° ¸à±įà°¤
ĠØ¨ Ø¹Ø¶
ĠÃ ½
ÅĤo ÅĽci
Ġà°İ à°Ĥà°¤
àª¤ à«įàª¨
ĠÐ¿ÑĢ Ð¾Ð¿
Ġpa á¹£ipaará»į
qu ier
oa helo
it ty
áĢ±áĢ¡ áĢ¬áĢĦáĢ¹
Ã¡r om
Ġà´®à´¨àµģà´· àµįà´¯
Ġáĥª áĥľáĥĿáĥĳ
Ĭà¸²à¸ ķà¸´
Õ« ÖĢ
Ġà¤¤ à¥ĩ
ĠÅŁÉĻx s
Ġg esch
Ġà°ªà±įà°° à°ªà°Ĥà°ļ
àµ¼ à´·
ĠáĢľ áĢĻáĢ¹áĢ¸
ĠáĢ ¸
ģáĢ²áĢ· áĢĲáĢ²áĢ·
Î¯Î¶ ÎµÏĦÎ±Î¹
c ina
àµģà´ Ļàµįà´Ļ
ĠÐ²Ñĭ ÑĤ
Î¼ÎŃÎ½Î¿ Î¹
Ġbul un
Ġáĥŀ áĥĲáĥłáĥ¢
äº§ åĵģ
Ġé ĺ
Ä Ģ
Ïģ Î½
à´¨ à´¾à´¯
Ġb ie
ĠÑģ Ð°ÑĨÑĭÑı
ĠáĥĽáĥĶáĥĿ áĥłáĥĶ
ĠàªĨ àª®
ÎŃ Î»
Ġà®ª à¯ģà®ķ
ĠÐ¼Ð¾Ð³ ÑĥÑĨÑĮ
à¹Ģà¸ ŀà¸
Ġç Ļ
Ġl Ã«
ĠdÃ© velopp
áĥĲáĥ¦ áĥĽ
à¸´à¸ ĩ
AXwBf AF8
ĠÐ°Ð´ Ð¿Ð°Ð²
pe v
ĠCom ment
à¹ĩà¸ Ħ
ĠØ² ÛĮ
ĠÏĥ ÏĦÎ¬
Ã¢ ni
zz i
à¤µ à¤²
ĠÂ¬ ~
ĠãĢ Ĺ
íĺ Ħ
à¤¾à¤ĩ à¤Ł
0 5
Ġà¤Ĺ à¥ģ
Ð°Ð» Ð±
Ġà¤ħà¤¨ à¥ģà¤¸
ko Ä¾
Ġj Ã¡t
Ġàª®àª³ à«ĩ
Ġata u
ĠÑį Ò³
Ð°Ñģ Ð¸Ð´Ð°Ð½
êµŃ ìĿ¸
ya ge
ĠÃ® mp
Ð §
ĠÑĢÐ°Ñģ Ñģ
ĠE esti
ĠtÃ¶ Ã¶
ÙĨ ÛĮÙĨ
um e
Ġç ī
Æı R
Õ¡Õ ¤
ts ong
ĠÄĮ es
ÄĽ t
à°¾à°Ĺ à±ĩ
Ġiá¹£ oro
ĠÑĢÐ¾Ð± Ð¾ÑĤ
íİ ¸
ĠØ¬Ø§ÙĨ Ø¨
Ġàªĵ àª«
it os
ĠW á»įn
ĠÐ¿ Ð¾Ð±
ĠEuro pe
Ġn tla
á»ĩ nh
Ġmon d
à¯Ĭ à®³à¯įà®³
Ġgj y
Ġna hi
z eit
Ġl ii
Ġà°¹à±Ī à°¦à°°
Ġiyi pada
à±ģà°Ĥà°¦ à°¨à°¿
Ġmohla la
Ġà¦¦ à¦¿à¦²
áĢĨ áĢ¶áĢ¯
ĠàªĹ àª£
Ġà´¯ àµģà´µ
ĠáĥĽáĥĿáĥ «
¢ à¸Ńà¸
Ġoldu ÄŁ
ç» ľ
ĠpÃ«r p
ĠÙĬ ÙĪÙħ
Ġà¦ħ à¦Ĥà¦¶
à´¿à´² àµģà´³àµįà´³
áĢ¡ áĢ±áĢ¬áĢĦáĢº
ķ áĢŃáĢ¯áĢĦáĢ¹áĢ¸
ĠáĢĺáĢ¯áĢĽ áĢ¬áĢ¸áĢŀ
ÎĻÎļ ÎŁ
Ġm Ã¤Ã¤
à´¨àµįà´ µ
ÑĸÑŀ ÑģÑı
Î»Î± Î´Î®
×Ļ×ľ ×Ķ
áĥĲáĥĻ áĥĶáĥĹ
æĿ ¿
å®ĺç½ĳ ä¸ĭè½½
o bb
ĠÎĴ Î±
Ġà´® à´¹
ov al
ĠÐ»ÐµÐ¿ ÑĪ
Ġáĥŀáĥł áĥĿáĥ¤
ãģĵ ãģ®
ĠÎĳÏħ Î³
Ġhe eft
Ð¹ ÑĪ
Ġà¸ģà¸²à¸£à¸ ŀà¸Ļà¸±à¸Ļà¸
æľīéĻĲ åħ¬åı¸
ar y
Ġw el
áĥĲáĥłáĥ £áĥļ
Ġà¸ ¨
ĠÎ´Ïī Î¼Î¬
ĠÐºÑĥÐ»ÑĮÑĤÑĥÑĢ Ñĭ
Ġmo do
ĠÄ Ģ
łà¸±à¸ ĵà¸ĳ
ĠØ® Ø·
A d
Ġàªª àª¸
ÅĤo Å¼
Ġà¤¹à¥ĭ à¤¤à¥ĩ
ĠTri p
íĮ Ĳ
ë¦ ½
åħ Ń
ĠC yf
Ġà¤ħà¤² à¤Ĺ
ï »¿
à±ĩà°· à°¨à±į
ĠÐº Ð¾Ð³Ð°
un Äĥ
ÑĸÑĪ ÐµÐ½Ð½Ñı
Ġà®µà®° à¯ģà®®à¯į
Ð°ÑħÑģ ÑĥÑģ
Ð¾Ð´ Ð¸ÑĢ
Ġtan to
ÑģÐ¸ Ð¾Ð½
ÙĦÛĮ Ùħ
ĠÑį Ð½
o jnÃ«
áº¯ n
ĠÐ± ÑĸÐ»ÑĮÑĪ
Ġdies em
Ġne pa
Ġà®µ à®Ł
Ã¡ci u
O U
h ata
Ġcon na
b al
Ġ ãģ¨ãģĦãģĨ
Ġba ba
ĠÙħ Ø®Øª
is ten
g atÃ³
Ġà¤ª à¤¦
Ġx idmÉĻt
Ġaz o
Ġàª¬ à«įàª²
ĠP i
Ġba fu
ĠÑģÑĤ Ð¾ÑĢ
Ġà¦¬à§įà¦¯à¦¬ à¦¹à¦¾à¦°
ìĿ´ ëĿ¼
ãĥĹ ãĥª
Ġh ul
Ġz em
Ġ×ĳ ×Ĵ
Ġur ma
Ġti táº¹
Ġàªķàª¹ à«ĩàªµ
to lo
é§ ħ
áĢ¼ áĢĲáĢ¹áĢ
ĠÑģÑĬ Ð¼
Ġ, .
áĥ£áĥ «
à¹ī à¸Ńà¸Ļ
Ġl Æ°á»£ng
é¢Ħ æµĭ
owan ych
ĠÑĦ Ð¸Ð»ÑĮ
Ġà°µà°¿à° ®
Ġà´¤àµĭ à´¨àµįà´¨
ĠáĢļ áĢģáĢ¯
áĢ½ áĢĦáĢ·áĢº
áĢŀ áĢľáĢŃáĢ¯
ĠÎ±Î½Î± ÎºÎ¿
ĠÐ½Ð°Ð¿ ÑĢÐ°Ð²
à´¿à´ ´
ĠÐºÐ°Ð¼Ð¿ Ð°Ð½
ĠÎ±Î½ ÏĦÎ¹Îº
mer i
ĠáĥĽáĥĿáĥľ áĥĲáĥ¬áĥĺáĥļ
æķ° æį®
Ġä½ ł
ĠÙħ ØµØ±
ĠÎŃÏĩ Î¿ÏħÎ¼Îµ
Ġà´¡ à´¿
pr owadz
Ð°Ð»ÑĮ Ð½ÑĭÑı
áĥĺáĥł áĥĶáĥĳáĥĲ
Ġba ck
ĠÎ³ Î¯Î½ÎµÏĦÎ±Î¹
ĠØ§ÙĦØ¯ ÙĪÙĦ
Ð°Ð² Ð°Ð¹
³à¸ Ħà¸
è Ľ
le ction
Ġf our
áĥĲáĥļ áĥĺáĥ¡
à¹ģà¸ ¥à¸°à¹Ģà¸
Ġse arch
ĠÐĽ Ñİ
Ġsk al
an da
à¹Ī à¸Ńà¸Ļà¸
Ġàªªàª¹ à«ĩàª²àª¾
ĠFe b
Ġà®¨à¯Ģ à®Ļà¯įà®ķà®³à¯į
Ġ×ŀ× ¤
Ġæ Ģ
** **
l Ä«
ĠÚ¯ Ú¾
Ġà¤¯ à¤¾à¤¦
Ġw rth
Ġà¤¯ à¤¦
ĠÐ¸ Ð±
Ġsh Ã«r
à±ģà°¦ à°²
ĠÉĻm ÉĻk
Ø± Ø³ÛĮ
Ġz ro
ĠÐ¹Ð¸Ð» Ð´Ð°
ĠÑı ÒĽÐ¸Ð½
ħ ÖĢ
Ġà°Ĩ à°¶
sz ak
Ð»Ð°ÑĪ ÑĤÐ¸ÑĢ
Ġf emei
is ia
ë² Ī
d Äĥ
hal oso
ï »
Ù į
ma is
h are
b ier
Ġplus ieurs
ĠãĤ ¿
á»įn i
Ġà¦ķà¦°à§įà¦® à¦ķ
Ġpro g
ĠÐ³Ð¾Ð´ Ð¸Ð½Ð¸
Ġà¤¸ à¥įà¤¤
Ġr ÉĻh
káº¹ ká»į
ta ment
Ġla isi
Ġbe go
Ġc m
àª² àª¾
Ġà°ħà°¨à±įà°¨ à°¿
ãĥ³ãĥ Ĺ
Ġà¦¦ à¦¿à¦ķà§ĩ
ck Ã½
Ġl Ãµ
ĠÐ±ÐµÑģÐ¿Ð»Ð°ÑĤ Ð½Ð¾
ĠNe w
ĠÐ±Ð¾Ð»ÑĮÑĪ Ðµ
Ġí Ŀ
g r
áĢ¬ áĢķ
Ġs iempre
Ġà´µà´¿à´ §
ĠáĥĽáĥĲáĥĺ áĥľ
Ĥ à¹īà¸Ńà¸
ÑĤ ÑĤ
çħ §
ĠÑĢ Ð¾Ñģ
Ġsi pas
Ġy one
Ġà´µà´° àµĨ
ģáĢº áĢĦáĢ¹áĢ¸
ĠáĢķ áĢ¯
áĢ®áĢ¸ áĢĢ
ĠÎºÎ± Ïģ
Ġàª¤à«ĩàª® àª¨à«Ģ
Ġà´¤ àµĢ
ĠÑģÐ² Ð°Ðµ
ĠÎĺÎµÏĥÏĥÎ± Î»Î¿Î½
ÐłÂµ Ðł
áĥĲáĥ¨ áĥĿáĥłáĥĺáĥ¡
ä¾ ¿
ä¸ ¾
Ð¾Ð´ Ñĸ
Î± Î½Î±
à´¿à´ļàµįà´ļ à´¿à´°
Ġqu ando
ÑĩÑĭ Ñħ
Ġáĥ¡ áĥ®
Ġãģ ķ
Î¸ Î»Î·
Ö ·
[...]
