#version: 0.2
Ġ Ð
Ð ¾
Ð µ
Ð °
Ð ¸
Ñ Ĥ
Ð ½
Ñ Ģ
Ñ ģ
Ð¾ Ð
á »
Ð »
Ð º
Ñ ĥ
á º
Ñ ı
ã ģ
Ñ ĭ
n g
Ð° Ð
Ðµ Ð
Ġ d
Ġ t
Ñ Į
ĠÐ ¿
e s
Ñģ ÑĤ
Ġ c
Ġ ,
Ġ .
Ð ²
Ã ©
Ġ Ä
ĠÐ ²
ã Ĥ
Ñ ĩ
o n
n h
e n
Ðµ Ð½
ĠÄ ĳ
Ġ Ñģ
Ð ¼
Ġ l
ĠÐ ½
e r
Ã ł
ã ĥ
Ð¾Ð ²
ĠÐ ¸
i e
Ã ¡
Ð ´
Ġ p
ĠÐ ¾
Æ °
Ġ a
Ñ ħ
ĠÐ º
Ġt h
ã Ģ
Ġ w
Ġd e
Ðµ ÑĢ
Ġ s
Ð° Ð½
Ġ v
Ðµ ÑĤ
Ġ ãĢ
Å Ĥ
c h
ĠÐ ´
o u
Ð ¿
t o
Ġ h
Ð¾ ÑĢ
Ð° ÑĤ
ãģ ®
r e
Ġ Ã
Ġc h
Ð¾Ð »
Ġ z
o s
ĠÐ¿ ÑĢ
Ġ b
ãģ Ħ
Ñ İ
a n
ĠãĢ ģ
Ð¾Ð ¼
Ġ m
Ð¸ ÑĤ
i n
i á»
Ð½ Ñĭ
ãĥ ¼
Ð¾Ð ´
o w
i s
Ġ k
ãģ §
ĠÐ ¼
t i
Ðµ Ð»
ï ¼
Ġt r
ãģ Ĺ
Ð ±
Ġ n
Ð° Ð»
a s
Ġ ÑĤ
ãģ «
q u
Ñ Ī
Ä Ļ
Ġ S
Ġ Â
Æ° á»
Ñ Ĩ
ãģ ¦
l e
Ġ ÑĢ
Ġ ãĥ
u n
Ð ·
Ġ nh
Ä ħ
ãģ ¨
Ð½ Ð¾
en t
i ch
áº ¡
Ð¾Ð ³
ãģ ª
t a
Ġ -
ĠãĢ Ĥ
Ð ¹
áº ¿
c z
t e
Ñģ Ðº
e t
Ð ³
ãģ Ł
Ã ´
a r
Ð¾ ÑĤ
Ġ T
Ã ³
ãģ Ļ
Ð¸ Ñı
i t
Ð¾Ð ¹
Ġd i
Ġ g
ãģ Į
ĠÐ ±
Å ¼
u r
ÐµÐ ¼
Ã ª
ãĤ ĭ
e in
ĠÐ½ Ð°
Ġ â
o r
Ġk h
Ð° Ðº
ãĥ ³
Ġ '
Ð¾ Ð½
i a
Ġ å
Ã ¼
áº £
Ð¸ Ð½
c i
ãģ ¯
ÐµÐ ´
Ġ A
Ġ ng
o d
Ġ 1
ĠÐ ·
Ġ f
Ð° ÑĢ
Ġâ Ģ
Ġ ï¼
á» Ļ
un d
ãģ ¾
i l
Ġ Ñĥ
r z
a d
Ñ ī
ti on
áº ¥
Ñ Ħ
Ġ ãĤ
Ġ D
Ġl a
Ġ 2
Ð°Ð ²
ãĤ Ĵ
Ġp h
Å Ľ
Ð°Ð ¼
Ġ B
l l
Ð¸ Ðµ
Ġ C
Ð°Ð ·
Ġ æ
ou r
u ng
Ġ e
r a
Ñģ Ñı
ãģ ĭ
Ã ¢
Ð ¶
Ġn a
ãģ £
Ã ¤
ä ¸
á» ĳ
ĠÐ ³
Ġ et
Ġ j
Ð» Ð¸
ãĥ¼ ãĥ
Ġ en
iá» ĩ
l i
ãĤ Ĭ
Ġ M
Ġ :
Ð¾ Ñģ
Ã ¬
Ġ und
Ð¸ Ðº
Ġ o
ãĤ Ĥ
Ġ Ñĩ
Ãª n
Ġ un
Ġ ãģ
Ġ i
Ð¸ Ð¼
ãĤ ¹
Ã´ ng
u s
ĠÐ Ł
Ġ P
ãģ Ĩ
ÑģÑĤ Ð²
k a
Æ ¡
ãĤ Į
Ð¾Ð ±
i ÄĻ
ĠâĢ Ļ
t en
Ġ N
Ð¾Ð³ Ð¾
ãĥ ĥ
á» §
Ġ Ãł
Ġ in
ĠÐ ¡
ãĤ ī
ĠÐ Ĵ
qu e
Ä ĩ
áº Ń
ãĤ ¤
Ð» Ñı
i on
ä º
ÐµÐ ¹
Ġ ein
Ġv á»
Ð° Ñı
z y
ãĥ Ī
Ġ y
Ñ į
r i
ĠÄĳ á»
Ġ ç
r o
ãĤ ĵ
ĠÐ °
ãģ ı
e l
Ð¸ Ð¸
Ġv Ãł
ç Ķ
a k
Ġl e
Ðµ Ðº
æ ľ
Ġd er
Ã³ w
Ð¾ ÑģÑĤ
ãĥ «
o l
Ð°ÑĤ ÑĮ
áº §
ä »
Ġ L
Ð° Ñģ
n i
ãģ į
Ð¾Ð º
Ã Ń
Ġ /
Ġ è
Ġ E
Ð¾Ð ¶
k i
ãĤ ¯
o m
Ġ qu
ĠÐ »
ãĥ ©
ĠÐ ļ
g o
ãģ¾ ãģĻ
Ġ F
Ð¸ Ð»
Ġl Ãł
Ġ K
z ion
m ent
ãģ ĵ
ĠÐ¾ ÑĤ
Ġp rz
Ġd ie
ĠÐ½ Ðµ
æ ĸ
i áº¿
Ã ¨
å ®
Ð¸ Ð¹
c a
n e
Ġ é
Ã¡ c
ÑĤ Ð¾
ãģĹ ãģ¦
Ġ G
Ġp er
ÑĢ Ñĥ
Ġ W
ãĥ ª
Ġ x
Ġd es
d z
Ð¸ Ð²
ãģ ķ
Ġ es
Ġ Ñį
Ġ H
Ġ (
ãģ£ ãģ¦
y ch
ãģ® å
Æ°á» Ŀ
Ġc on
ĠÐ¾ Ð±
ÐµÐ» ÑĮ
t er
ãģ Ĥ
a m
Ðµ Ñģ
Ġth á»
Ġ ÑģÑĤ
Ġd o
ãģ§ ãģĻ
e i
Ð¸ Ñĩ
ll a
ä ½
r Ã©
t y
h r
Ġ )
ãģ ł
Ð°Ð ´
u y
å ı
Ġ que
ÐµÐ ²
c j
a l
ãģĹ ãģŁ
Ð¾Ð» ÑĮ
Ġt á»
i o
ĠÐ¿ Ð¾
u f
c e
Ľ i
å ¤
ÐµÐ ³
y m
Ġl es
Ġ il
å Ī
s ch
Ð¸ ÑĢ
ï ¿
ï¿ ½
Æ°á» £
å ħ
ĠÐ Ŀ
Ġp o
e it
ĠÐ ł
ĠÐ ľ
Ġãĥ »
áº¥ t
Ġ I
ÐµÐ½ Ð¸Ñı
Ġ 0
Ĺ ¥
Ġe l
n ie
ãģ ĳ
Ġ2 0
Ð¸ÑĤ ÑĮ
an t
Ġch e
Ð¾Ð ·
áº¡ i
ãĥ³ ãĥ
Ã ¶
Ġw y
Ð¸ Ð·
ãĤ ¢
zion e
Ä ĥ
ĠÐ ŀ
Ġ Ã©
Ġ R
ãĥ³ ãĤ
Ġ "
Ġz a
Ã³ n
ãĤ Ī
Ð°Ð» ÑĮ
Ġg i
Ġn ie
ãĥ¼ ãĤ
g e
ĠÐ² Ñĭ
m a
ãĥ ¬
Ġc á»§
å Ĳ
Ðº Ð°
Ðº Ð¸
Ġde l
n a
g en
Ð°Ð ±
v e
æ Ĺ¥
ãģ Ĭ
Ð½Ñĭ Ðµ
è ¨
Ġs iÄĻ
Ġc Ã³
ou s
ĠÐ µ
ãģª ãģĦ
Ġ V
ãģ£ ãģŁ
i d
Ð½Ñĭ Ñħ
äº º
o ÅĽ
b er
Ġa u
Ð¾Ð ¿
è ¦
Ġcá»§ a
Ġd a
Ð¸ Ñħ
Ġs e
w a
ï ½
å ¹
Ð°Ð ¹
é Ģ
u m
ÐµÐ ·
ĠÄ Ĳ
r es
é ĸ
ÅĤ a
Ã º
Ð½Ñĭ Ð¹
d er
ãģĻ ãĤĭ
ÑĢ Ð°
Ġp our
c o
z e
Ġh á»
Ð¸ Ñģ
ãģ ©
Ð½ Ð¾Ð¹
j e
z a
a u
ãģĭ ãĤī
ĠÐ Ĳ
ãĤ ģ
c k
ĠÐ Ķ
Ã £
Ġp ar
Ġ ÑĦ
ãģ Ī
l ich
Å¼ e
Ġa l
Ð° ÐµÑĤ
æ Ģ
m e
o ng
ãĤ Ħ
Ð½Ð¾ ÑģÑĤ
j Äħ
ä ¼
Ġ 3
ĠÐ¸ Ð·
Ġs u
ãģ® æ
á» ĭ
an s
Ð½ Ð¾Ð³Ð¾
Ã¼ r
é ģ
ÐµÐ½ Ð¸Ðµ
d i
ĠT h
Ġ u
Ġï¼ ī
ÐµÐ½ ÑĤ
Ã¬ nh
ãĥ ķ
a t
ĠÐ´ Ð»Ñı
ãģĵ ãģ¨
Ġes t
Ñĥ ÑĤ
áº ¯
d en
Ġprz e
s i
ãĥ Ń
Ð°Ð ¶
Ã¢ n
k u
Ġï¼ Ī
Ñĥ Ð´
t re
è ¡
ci Ã³n
Ñİ ÑĤ
iá» ģ
i r
ĠãĢ į
Ġc om
Å Ħ
s t
ãģ ¤
á» ¯
ĠÐ ¢
ĠÃ ¨
ÑĨ Ð¸
0 0
ãģ ¡
is t
Ð¾ Ñĩ
å º
c y
Ð° ÑģÑĤ
ãĤ ·
Ġ r
ãĤ ¿
d e
ĠÐ ¶
ãģ Ľ
ĠÂ »
Ð¸ Ð´
Ġ od
á» ±
å ¸
Ðµ ÑģÑĤ
Ġd u
ãĥ Ĺ
v a
å Ľ
es t
Ġ20 1
Ð¸ ÑģÑĤ
Ã ²
Ġd as
ĠÐ ĺ
å¹ ´
d o
Ðµ ÑģÐº
l a
Æ°á»£ c
ĠãĢ ĳ
Ļ Ĥ
w i
Ñĥ Ñİ
ĠãĢ Į
Ġun e
ãĤ £
ĠÑĩ ÑĤÐ¾
c ie
ich t
æ °
á» ¥
Ġa n
ĠÐ¿ Ð¾Ð´
Ġ O
ãĤ ı
Ġp or
æ ī
á» ©
Ñı ÑĤ
Ġt o
g g
s e
Ñĥ ÑĢ
ãģ ¿
Ġ Z
ãģĦ ãĤĭ
Ġd Ã©
Ð°Ð ¿
Ġs p
Ġc Ã¡c
ãĤ ³
Ġl os
ĠÑĢ Ð°Ð·
å Ń
an ie
Ðµ Ñĩ
Ġ re
á»Ļ t
é ĩ
ĠÂ «
Ð¾Ð² Ð°Ð½
Ġz u
k o
å ĵ
Ñĥ Ñĩ
ĩ º
n o
i re
Ġãģ Ŀ
ĠÐ ĳ
k ie
ãĥĥ ãĥĪ
Ð½ Ð¸Ðº
i nh
on t
çĶ ¨
Ġm it
Ġ 5
m o
ĠÑģ Ð²
å Ĩ
rz e
ç ´
ï¿½ ï¿½
Ġkh Ã´ng
Ġs i
Ð°Ð ³
Ġv on
å ĭ
ow e
Ġ 4
ĠÐ± Ñĭ
Ġch o
å ł
o b
m p
ãĥĥ ãĤ¯
Ãł y
ÐµÐ ±
æ Ŀ
Ġt e
Ġd en
Ġ ä¸
Ð½ Ð°Ñı
ç Ľ
ĠÐ¿ÑĢ Ð¾
an ia
Ġs ur
p p
Ā Ā
iá»ĩ n
è ²
Ġ Ñħ
è ª
Ġ ro
an d
ĠÐ² Ñģ
s o
á» Ł
ç µ
ĠÐ¿ ÐµÑĢ
Ġpar a
m i
å ¾
b en
Ð¸Ñĩ ÐµÑģÐº
ĠÐŁ ÑĢ
t Ã©
ãĥ Ĩ
Ġ J
Ð½ Ð°
er e
ĠÄĳ Æ°á»£c
ãĤ «
cz y
Ð½Ñĭ Ð¼
u e
ãģ¾ ãģĹãģŁ
Ġm o
ÑĢ Ð°Ð½
Ġ U
an o
Ã ¹
Ġg e
Ð¿ ÑĢ
å ¼
ow a
Ð ŀ
ĠÑĤ Ð°Ðº
ãģ® ãģ§
è Ģ
to s
a is
áº ·
t u
ĠÐ¿ Ð¾Ð»
Ġ er
æĸ Ļ
n y
ãģ¨ ãģĦ
Ðµ ÑģÑĤÐ²
ãĥ ¡
Ġj est
Ġd ans
Ã ±
ç Ħ
ãĥ £
i Ãªn
ĠÐ ĵ
ch en
å ¿
Ġ ri
r y
ÐµÐ ¿
c ia
Ð½ Ð¸
Ġãģ ĵ
Ġp ro
Æ° Æ¡
Ñĭ Ðµ
Ġ ist
Ġï¼ ģ
ãĥ ŀ
Ġ rÃ©
áº§ n
en ia
ÑĨ Ð¸Ð¸
ãģĦ ãģ¾ãģĻ
Ð¾ÑĤ Ð¾ÑĢ
e u
on o
Å¼ y
Æ°á» Ľ
å ĩº
ad o
Ġf Ã¼r
å Ĭ
ĠÐº Ð°Ðº
Ġp l
ÅĤ o
æľ Ī
Ġtr ong
Ġa uf
ä¼ ļ
a b
ĠÑį ÑĤ
ãĤĴ æ
Ġj e
ĠÐ¸ Ð½
a re
Ñĭ Ð²
åĪ Ĩ
Æ°á»Ŀ i
Ġl as
Ġp as
d y
ĠãĢ Ĳ
äº ĭ
Ð°Ð¼ Ð¸
Ã Ł
åĵ ģ
g li
ä ¿
ÐµÐ ¶
it Ã©
ãĥ ¥
cz e
i er
Ġ Ñı
a y
ãĤ µ
Ġde lla
ãĥ ī
ĠÑģ Ð»
Ġv er
æĸ ¹
Ġm á»Ļt
Ñħ Ð¾Ð´
Ġp od
. .
Ã© e
Ġï¼ ļ
ãĥ Ĳ
ç ī
a le
Ð´ Ð°
ci on
ĠS ch
oÅĽ ci
ãĥ ģ
Ð ł
Ñĥ Ð¿
en to
é Ľ
Ð ¡
ĠÐ¿ÑĢ ÐµÐ´
f f
Ġj ak
ĠC h
ãģĤ ãĤĭ
Ñĭ Ð¹
Ġein e
Ġqu i
áº¡ n
ÐµÐº ÑĤ
t Ã³
Ġun a
Ġæ ľ
Ð¸ÑĤ ÐµÐ»ÑĮ
æľ ¬
å ±
ĠÐ· Ð°
in e
æ ¥
Ġvá» Ľi
Ġ ä»
Ġ ÑĨ
an n
Ġprz y
Ġ ou
å ľ
Ñĥ Ð±
u l
Ð Ĳ
ĠÐº Ð¾ÑĤÐ¾ÑĢ
u t
Ġng h
ãģĦ ãģŁ
en ie
Ġn on
ãģ Ŀ
Ġn o
iá» ĥ
Ð½Ð¾ Ðµ
ãģ °
Ġi m
Ðº Ð¾
a z
Ġf a
æ ĻĤ
Ðµ Ðµ
å¤ §
m y
i g
iá»ģ u
ÃŃ a
ãĤĪ ãģĨ
ÅĤ y
a tion
ĠÐº Ð¾Ð¼
it Ãł
ĠÐ¿ÑĢ Ð¸
å ī
Ġa ve
ĠV er
Ð° Ñħ
a ng
ãĥ ĭ
cj i
Ã¡ s
Ð» ÐµÐ½
Ġv ous
v i
ãģ¨ãģĦ ãģĨ
dz ie
Æ°á»Ŀ ng
ÐµÐ½ ÑĮ
ãģ« ãģª
a ch
ol o
ãģķ ãĤĮ
ÐµÐ³ Ð¾
Ġs ch
Ġv o
Ñĭ Ñħ
a to
á» į
Ġk tÃ³
n en
Ġm e
Ð°Ð± Ð¾ÑĤ
å į
ĠÐ £
ur s
e c
Ñ ĳ
áº£ i
æ Ħ
ãĥ¼ ãĤ¹
ad a
å ¯
il le
s en
Ãł ng
Ġp i
Ñĥ Ð»
w o
ãģĤ ãĤĬ
Ġpl us
d ad
Ñģ Ð¿
á» ĩ
n ych
Ġn icht
Ñĥ Ð¶
Æ°Æ¡ ng
i ca
ä¸ Ń
ie l
ĠâĢ Ķ
v er
åĲ Ī
ĠÑģ Ð¿
áº£ n
Ġ Å¼e
i c
ãĤ ¦
m en
Ñĥ Ð¼
ãĤ į
ĠÐ¼ Ð¾Ð¶
Ġave c
Ãł nh
ãĥ¼ãĥ «
Ġl o
ĠÐ Ĺ
in d
æ° Ĺ
Ġ ÑĪ
Ġd z
è¦ ĭ
u x
Ð¾ Ðµ
ä ¾
ch e
i en
an e
Ġng Æ°á»Ŀi
Ð¾ÑĢ Ð¼
è¡ Į
Ðµ ÑĪ
Ġh a
s zy
ĠâĢ ĵ
åħ ¥
Ñĥ Ñģ
Ġe x
ĠÐ Ľ
å ½
ĠÑģ Ð¾
w ie
Ã¡ ch
Ġm a
ãĥ ĩ
s te
ãģĦ ãģ¦
Ð° ÑİÑĤ
l es
ç ļ
v o
h l
Ãł n
od z
Ðµ Ñħ
ment e
ĠÐº ÑĢ
æĢ Ŀ
c es
á»¯ ng
Ġ ?
Ġ 6
ãĤ Ń
ĠÐº Ð¾Ð½
Ġs ich
Ġc z
æ ķ
Ð½Ð¾ÑģÑĤ ÑĮ
ĠL e
Ð¸ ÑĨ
ãĥ ĸ
z za
Ġc u
Ġb y
ÑĤ ÐµÑĢ
Ġw ir
Ġc e
éĸ ĵ
Ġ 7
Ġ !
Ð½Ð¾ÑģÑĤ Ð¸
on s
ç Ļ
Ð° ÑĪ
Ġa us
Ãł i
d a
Ð½ Ð¾Ð¼
Ġ ï½
ÅĤ u
tion s
ä¸ Ģ
Ð°ÑĢ ÑĤ
ent e
áº§ u
ĠI n
Ð¸Ð» ÑĮ
ãģ ĺ
é ĥ
ou t
Ð ĺ
ĠÐ¿ Ð»
n ia
an do
ÑĢ ÐµÐ¼
Ġb e
ä¸ Ĭ
an ce
u b
a o
ĠÐ ķ
çĦ ¡
ãĥ³ãĤ °
p a
Ðº Ñĥ
å °
ÑĢ Ð¾
Ġnh Æ°
b y
Ã¨ s
ĠD e
ãģ Ķ
Ð¶ Ðµ
ĠE n
æ Ń
in a
f t
ĠÐ¸ Ð»Ð¸
æ ³
á» ĵ
u o
ow ie
l o
ãĤ ¸
Æ°á»Ľ c
ÑĢ Ð¾Ð²
ĠS ie
Ã© s
Ġ ÅĽ
zion i
Ġå ¤
ĠÐ ¤
Ġ 8
ĠÐ¿ Ð¾Ñģ
æ Ī
ĠE s
ll o
Ã¨ re
Ã¢ y
Ð½ Ñı
Ġs z
ãĥ §
ãģ§ ãģį
ĠÑį ÑĤÐ¾
cion es
ur a
ung en
Ġp r
áºŃ n
ĠãĤ ¹
Ñİ Ñī
es z
ãģ® è
Ġau ch
en d
ĠÐ¾ Ñģ
ĠÄĳ á»Ļ
Ġn e
å ¥
s z
ãĥ¼ãĥ Ī
ÐµÑĤ ÑģÑı
ãģ§ ãģ¯
c u
Ð» Ñİ
ĠD ie
Ġo b
Ð Ŀ
Ð°Ð½ Ð¸Ñı
t to
Ã´ i
Ġ ;
å Į
ĠÐ³ Ð¾Ð´
Ġh o
ç ¤
Ġa c
m er
ĠÐ¾ Ð´
ĩ ª
Ġt ak
or t
ãĤ °
ÐµÐ½ Ð¸
ãģ Ń
w ia
ãĥ ł
k t
in i
áº¿ n
Ð² ÐµÑĤ
qu es
ĠãĤ ¢
ĠÑĢ Ð°Ñģ
in o
Ġb ei
ãĥ³ ãĥĪ
Ð° Ñĩ
ãĤ »
a li
b le
Ðº ÑĤ
çĶ Ł
Ð°ÑĤ ÐµÐ»ÑĮ
ÅĤ e
ĠA n
Ġnh á»¯ng
ĠL a
Ð ļ
ĠÑĤ ÑĢ
ãĥ Ł
an i
åł ´
Ġs o
ĠÑĤ Ð¾
u ch
Ñģ Ð»
ãģķ ãĤĵ
å ·
Ġs t
i te
Ð°Ð» Ð¸
é ¡
Ġde m
a nh
Ġ |
t s
ĠÐ¸ Ð¼
é Ļ
k ow
ĠE l
iáº¿ t
Ð¸ Ð»Ð¸
p r
Ð ķ
å £
ĠÐ §
Ġp ra
Ð ¢
Ġ1 0
ãģ® ç
ĠÐ² Ð¾Ð·
á» ķ
Ġs ta
Ġa r
b e
Ð¿ Ð»
Ð°ÐµÑĤ ÑģÑı
m os
ĠS p
b re
ãģ« ãģ¯
Å ©
ÑĢÑĥ Ð³
r u
ĠÐ Ń
á» Ń
Ġ or
ãĤ ª
ĠR e
ĠÑĢ Ð°Ð±Ð¾ÑĤ
w y
is e
çļ Ħ
ÑĨ Ð¸Ñı
áºŃ t
id e
Ð¾Ð»ÑĮ ÐºÐ¾
ta r
Ã© r
Ðº Ð¾Ð²
Ġd la
Ġ 9
Ð¸ Ð±
t es
Ġm i
Ã¡ n
« ĺ
Ð¸Ð½ Ð°
Ð³ ÑĢ
el le
ĠÄĳ Ã£
ãĤ §
ĠB e
b i
ĠÑģ Ð¼
Ġro z
Ġ. ..
p e
Ð³ Ð¾
ãĥ ĳ
Ġ ich
is s
Ġãģ Ĭ
a hr
Ð½ Ð¾Ð²
å® ļ
p er
ÑĤ Ð¾ÑĢ
å ĳ
oÅĽ Äĩ
Ã£ o
ĠÐ° Ð²
Ġde i
a ge
ÃŃ nh
ĠÑģ ÑĢ
Ġp rÃ©
ãĤ ¨
Ġdi es
id ad
cz ne
ĠÐ½ Ð¾
Ġqu es
æĢ §
Ð°Ð¹ ÑĤ
ung s
Ġcom o
c tion
Äĥ ng
ĠÐ± ÑĥÐ´
n ym
ç ķ
et te
Ġw ie
Ñĭ Ð¼
t ti
Ġs a
ĠP h
ĠÑģ Ð°Ð¼
Ġm Ã¡s
ç ľ
ion e
Ã© es
èĢ ħ
Ð¾ÑĢ ÑĤ
ĠÄĳá» ĥ
Ġw er
Ġc zy
Ð´ ÐµÐ»
ĠÐ» Ñİ
cj a
s a
Ġ ãģ¨
on n
s kie
ĠS e
ĠÑĥ Ñĩ
ç Ĳ
Ŀ i
Ñĭ ÑĤ
os t
ar a
in s
ä½ ľ
ĠÃ ¼
a j
ĠÑģÐ² Ð¾
è ©
gg i
áº¿ t
os ta
Ð» Ð¾
g u
æ ł
ãģ§ ãĤĤ
Ġa v
et z
æī ĭ
Ñĥ Ñī
Ġes ta
ĠL es
Ġthá» ĥ
es ch
æ ĺ
Ġt y
ĠÑģ Ðº
al es
j a
Ġ #
æ Ľ
Ð¾ÑģÑĤ Ð°Ð²
ti g
g i
Ñģ Ð»Ð¸
è ³
en ti
Ð¾Ñģ Ñģ
æ¥ Ń
Ð° ÑĨÐ¸Ð¸
ie j
ĠG e
Ġ ent
ãĥ Ĭ
ĠÐ´ Ð¾
ĠT r
ãģ ļ
Ð¾ÑĤ ÑĢ
Ġs ono
ow y
Ġs ont
ãĤ ĥ
å Ģ
á»ĳ i
Ñ Ĭ
an te
to w
ãĥ ĵ
Ð°Ð½ Ð¸Ðµ
ll en
å¸ Ĥ
Ðº Ðµ
Ġ }
Ġ {
è ¿
Å º
áº ©
Ð°Ð» Ð°
Ġs er
Ġod er
Ġ ]
é ł
ĠÐ¾ Ð½
ĠN g
Ġa pp
s ze
ãģª ãģ©
Ġt od
Ð°Ð½ Ð¾Ð²
Æ¡ n
ãģ¾ ãģĽ
Ġg r
Ġ1 9
Ð¾Ð»ÑĮ ÑĪ
u je
er n
m es
ãĤ ĩ
r os
r on
ĠÐ¾ Ð¿
ĠN h
ãĤ¤ ãĥĪ
ÑģÑĤÐ² ÐµÐ½
k Ã³w
u re
çī ©
h e
j er
Ð½ ÑĥÑİ
Ġp re
w e
Ã¹ ng
ÐµÐ» Ñı
çĲ Ĩ
Ð¾Ð¼ Ñĥ
Ġpi Ã¹
te ur
g a
Ð¸ Ð³
ãģĹ ãģĦ
Ġ Q
Ġp eu
Ġ um
è »
t is
or es
Ð¾Ð»ÑĮ Ð·
Ġc Ã´ng
c er
s ki
Ġå ®
ĠÐ· Ð°Ðº
n Äħ
iá»ĩ t
ãĥ »
éĩ ĳ
Ġ res
ĠÐ²Ñģ Ðµ
ÑĢ Ð°Ð·
Ġå ħ
h en
Ġth u
é £
Ð¾ Ñı
s ta
ra tis
id o
é Ŀ
Ġ ra
ÑģÐº Ð¾Ð¹
ÐµÑģ Ñģ
Ġn as
ãĥ Ķ
to r
Ñĥ Ð½
ãģ¾ãģĽ ãĤĵ
Ġm ais
ĠÃ¼ ber
r Ã³
ÑģÐº Ð¸Ð¹
p o
ÐµÐ» Ð¸
áº ½
i v
è¨ Ģ
Ð Ĵ
ĠÐ´ Ð²
Ġ %
i res
ng e
åŃ Ĳ
ĠÐ¿ Ð¾Ðº
r as
ÐµÑĢ Ð¶
an y
l Ã©
ãĥ¼ãĥ ī
á»Ļ i
ĠE r
ÑĨÐ¸ Ð¾Ð½
Ġ [
ãĥ¼ãĥ ł
i Äħ
er o
Ġ1 2
ÑģÑĤÐ² Ð°
è ī
Ġs á»ĳ
Ġcom p
ãĤĮ ãĤĭ
Ð Ł
ĠÐµ Ð³Ð¾
er t
Ġvo tre
ĠP o
ci o
Ð¸ÑĢ Ð¾Ð²
Ġ on
ä½ ¿
Ġt out
ĠU n
Ġo p
ÑģÑĤ Ð°Ð²
Ġb áº¡n
åı ĸ
Ġprze z
d os
Ġ \
Ð» Ðµ
ãĥ³ãĥ ī
Ġs ind
l ia
Ġs on
Ð» Ð°
ad z
ç ¨
Ġde ll
á» ī
our s
Ð» Ð°Ð´
ĠÐ¿ Ð¾Ð¼
dz i
åī į
en n
ĠP or
ÑĥÐ» ÑĮ
l is
x o
åĭ ķ
ad os
Ġs c
Ġm á»
Ð¸ÑĤ Ðµ
Ġs k
ÑģÑĤ ÑĢ
ĠS t
u i
åĨ Ĩ
ãģ¨ æĢĿ
Ġ =
æ ´
Ġtá» «
Ġ ï¿½
rz y
Ð¾ ÑĪ
z z
ide os
Ġ Y
Ġp ue
s ion
ãĥķ ãĤ
Ġna j
Ġh at
ĠÐ¿ÑĢ Ð°Ð²
Ġm ar
è £
Ð¾Ð» Ð½
m ento
ä½ ĵ
o is
Ã¶ n
0 4
ĠÐ± ÐµÐ·
Ġt ut
ia ÅĤ
Ġn Ãły
Ñĥ ÑĪ
c ul
ãĤ¹ ãĥĪ
Ð¸ÑĢ Ð¾Ð²Ð°Ð½
jÄħ c
Ġf or
Ð» ÐµÐ½Ð¸Ñı
ãĥĥ ãĥĹ
Ġé Ģ
h n
au x
Ð¾ÑĢ Ð¾Ð´
ãĥ į
ĠI l
ĠÐ¿ÑĢ Ð¾Ð´
Ġå Ĳ
Ġk o
Ġ1 1
ĠÐ² Ð¸Ð´
ãĤ ±
er a
Ġwer den
Ġl á»
ĠÐ½ Ð¾Ð²
ç ·
Ġ Å
çĽ ®
ĠÐ² ÑĢÐµÐ¼
or a
am i
ou v
ä» ĺ
ent es
ãģł ãģĳ
Ã¡ i
ĠÐ¾ ÑĢ
Ġal s
é «ĺ
a g
Ñı Ð·
Ġp ow
c as
åĽ ½
Ġp os
Ð¾Ð¿ ÑĢ
ĀĀ ĀĀ
Ã¡ ng
Ð¾ÑģÑĤ Ð¸
Ñĭ ÑĪ
Ġn ous
ĠÐ¸ ÑģÐ¿
ti que
nie j
ar i
Ġhá» į
ç¤ ¾
Ġv or
Ð°Ñģ Ñģ
Ġï¼ Ł
ĠãĤ ·
Ġau x
u jer
an a
éĥ ¨
ĠÐ¼Ð¾Ð¶ Ð½Ð¾
ĠC on
ĠÐ¼Ð¾Ð¶ ÐµÑĤ
Ġna ch
Ã± o
Ġtr a
åĽ ŀ
Ð¾ ÑģÐº
ĠÐ´ Ð¾Ð»
n oÅĽci
æ ¸
ou ve
Ġn el
Ã¡ t
c ar
s er
ĠÐ´ ÑĢÑĥÐ³
ç «
ÅĽ ci
Ġs us
ein e
ti f
Ġ ãģ¾
Ð» Ð°Ð²
Ġ os
Ã ½
ĠÐ ¥
c os
Ġãĥ ķ
p os
te l
çĻ º
Ð¸ Ñİ
Äĥ m
Ã¼ n
ĠÃ ª
ne go
b a
ÑģÐº Ð¾Ð³Ð¾
Ġa d
ãģª ãģı
Ð°Ð½ ÑĤ
Ã¤ n
ĠâĢ ľ
t ra
ĠÐ¾ Ñĩ
æ Ĭ
Ñĥ Ñħ
é ļ
ne j
Ð°Ðº ÑĤ
t as
á»ĳ c
Ġa lla
tu re
Ð´ Ðµ
id a
ÅĤ ad
åŃ ¦
Ġa s
Ðµ Ñī
Ġs ie
Ġm on
Ð½ÑĭÐ¼ Ð¸
Ġor az
æ Į
â Ģ
Ġg iá»
Ġc as
od u
ãĥ Ģ
Ð°ÑĤÑĮ ÑģÑı
en i
c t
éĢ ļ
ant s
ÐµÐ½ Ð°
ĠA r
è ĥ
Ð¾Ð³ Ð´Ð°
i ta
u d
ĠE in
Ġkh i
ãģ§ãģĻ ãģĮ
ĠW y
Ð»Ñİ Ñĩ
ent a
ar d
ķ ·
Ġc o
Ð¾Ð± Ñĭ
Ġdas s
f or
æ µ
p h
ĠÑį Ðº
Ġa p
ä ¹
s ka
Ð Ķ
Ñĥ Ðº
ç §
ĠÄĳ áº¿n
en cia
er s
Ñī Ðµ
ÑĦ Ð¾ÑĢÐ¼
Ġk on
2 0
ĠÑģ Ð¾Ð±
Ġa i
ll es
ãĤĮ ãģ¦
Ġes te
Ġje d
et to
ĠâĢ Ŀ
ti v
ÐµÐ½ Ð¸Ð¸
ç Ł
ĠÐ½ Ð°Ð¿
g ar
Ġcom e
c on
Ð½ Ðµ
ĠãĤ ³
£ Â
Ġgi Ã¡
Ð¿ÑĢ Ð°Ð²
æ §
Ã© ra
ãĤ º
Ð¸ÑĤ ÑģÑı
ur ch
Ġ us
æ İ
Ð°Ð¶ Ð´
Ġvá» ģ
en s
æ ŀ
Ð¸ Ð¿
s p
ãĥ ¯
Ð° ÑİÑī
Ã© n
: :
åº ¦
Ġs Äħ
Ġr is
Ġa m
Ð¼ Ð¸
Ġå ı
áºŃ p
Ġpor no
u est
ãĥ Ŀ
u er
ÑĢ Ñı
Ġb es
Ġ" :
Ð ľ
ãĢ Ĳ
1 0
m u
ÑĤ ÑĮ
æ ĥ
Ã± os
ĠÃ© ta
ä¸ ĭ
à ²
Å© ng
Ġdel le
k on
Ð½Ð° Ñĩ
ï ¾
ĠãĤ «
i ng
Ã³ ÅĤ
Ġp res
ãģ ¹
ĠÑģ Ð¾Ð²
ch t
á»© c
ĠÐºÐ¾Ð¼ Ð¿
Ã §
Ġi mp
å ķ
Ġ1 5
ĠÐ¾ Ðº
j ÄĻ
ãĤĤ ãģ®
k e
re i
Ð¸Ðº Ð°
Ġt ym
ãĥ ¢
ÑĢ Ð°ÑĤ
Ġc a
Ġä» Ĭ
ÐµÑĤ ÑĮ
Ġwir d
ãĤĬ ãģ¾ãģĻ
iáº¿ n
ÑģÑĤÐ² Ð¾
on e
æ ¯
ci os
Ġãģ Ĥ
ĠãĤ µ
r an
ÑģÐº Ð°Ñı
Ð¾ Ñī
æĦ Ł
åĨ ħ
ĠÐł Ð¾ÑģÑģ
ment s
Ð² Ð¾Ð´
Ã¤ t
ĠÐ· Ð°Ð¿
ÄĻ p
Ġæ Ĺ¥
ad as
æ ı
¡ Â
Ġ á»Ł
u is
ĠÐ± Ð¾Ð»ÑĮÑĪ
è ¾
g t
Ġa le
on a
Ġent re
ãģ¾ ãģ§
is ch
ĠÑģ ÐµÑĢ
or s
cy j
è ĩª
ĠÐ ¯
i Ã³n
ĠÑĤ Ð¾Ð»ÑĮÐºÐ¾
Ġz e
ãģĹ ãģ¾ãģĻ
ÐµÑĢ Ð°
h t
a Å¼
ĠÐ² Ð¾
æ ±
ĠP ar
ob re
vo ir
ĠD as
en za
Ġth e
ãĤĩ ãģĨ
Ð¾Ð» Ð¾Ð³
ĠktÃ³ re
ĠÐ´ ÐµÐ»
Ġc am
a us
Ð³ Ð°Ð½
Ã© ri
ãģĵãģ¨ ãģĮ
i b
Ð¸Ðº Ð¸
ĠlÃł m
Ġa b
w w
Ġn i
ÑĢ Ð°Ð²
ÐµÐ½ Ð½Ð¾
Ġb ÄĻ
Ġg ia
ãĥ Ļ
ĠA us
ÑĤ Ð¾Ð¼
ãĥ© ãĤ¤
Ġdz ie
ur es
Ã¼ ck
ĠÐ¿Ð¾Ð» ÑĥÑĩ
Ġæ ĸ
Ġan che
ĠC om
szy st
æĿ ¥
Ġt ien
Ġb ien
ĠÐ¸Ð½ ÑĤÐµÑĢ
ç Ń
cj e
æ Ķ
is chen
iá»ĩ u
Ð° ÐµÐ¼
z ia
ow ych
on ne
Ð¸Ð¼ Ð¸
Ġin ter
åľ °
áº¥ y
Ġd is
ĠN ie
ÑģÑĤ ÑĮ
ÑĥÐ»ÑĮ ÑĤ
ab le
ra w
Ġt áº¡i
Ġp ri
åº Ĺ
ĠÐ¶ Ðµ
è Ń
os z
ĠP ro
a c
Ð» Ð°ÑģÑĤ
ĠÃª tre
Ð¾Ð² Ð¾ÑĢ
ãģ¨ ãģĹãģ¦
Ġein en
Ġc áº£
Ġs am
ÑĢ Ð°Ð¼
ci as
ĠÑĢ ÑĥÐ±
ĠÐ¿ÑĢ Ð¾Ð²
Ġk om
Ġf o
å¯ ¾
Ð¸ ÑĢÑĥ
Ġf il
å® ī
Ġper o
en ce
z en
ï¼ Ĳ
ãģĹ ãģ¾
Ð»Ð¸ Ñĩ
Ġa ll
Ġl ub
áº ±
ï¼ ĳ
æĸ °
u es
Ġb lo
Ġï½ ŀ
Ð¾ÑĤ Ð¾Ð²
Ġãĥ ¬
ÐµÐ½ Ñĭ
èĥ ½
i que
m as
Ġk ann
Ġp om
ÐµÐ½ Ð¸Ð¹
a in
ĠJ e
ãĥ¼ãĤ ¸
it s
ĠA l
ĠÐĿ Ð°
åı ¯
f er
ĠÐ»Ñİ Ð±
Ġs áº½
ĠM ar
il l
Ð¸ ÑĪ
å¾ Į
Ð°Ð½ Ð´
Ġc ette
Ġb ar
Ġw ar
ä¸ į
or i
on d
åĬ Ľ
Ð Ľ
Ġ) .
ÑıÑĤ ÑĮ
ni k
Ġãĥ ĸ
Ġp la
ĠÐŀ ÑĤ
Ð¼ ÐµÑĢ
ãģĭ ãģ£ãģŁ
Ġd á»¥
Ġs obre
p ie
Ġm Ã©
ĠÐ¡ ÑĤ
an no
å¤ ļ
Ġbe z
Ġz um
ĠÐŀ Ð±
ĠÐĴ Ñĭ
g es
ãģ »
ÐµÐ¼ Ñĥ
p is
f i
ĠÐ¿ Ð¾Ð²
Ãª u
ç ©
Ðµ ÑĨ
Ġfa it
ĠÐ² Ð½
ty cz
Ġg ratis
Ġper s
Ã² ng
ĠÐļ Ð°Ðº
ĠÑĥ Ð´
Ġz ÅĤ
ĠT e
Ġå¤ §
ãģŁ ãĤģ
Ð¿Ð» Ð°ÑĤ
Ġp e
ĠÑģÑĢ ÐµÐ´
W W
ĠÄĳ Ã³
Ġmo Å¼
ĠÐ½Ð° ÑĪ
Ð¾ÑģÑĤ ÑĮ
Ġh ab
te t
gg io
ĠÐ½Ð° Ñĩ
Ġpo z
j et
å£ ²
è¦ ģ
t h
Ð¸ Ð¾Ð½
ĠÐ¸ Ñħ
Ġw iÄĻ
Ãª me
ĠN o
Ġnh Ãł
t ro
Ġm an
ĠÐ±ÑĥÐ´ ÐµÑĤ
ĠÐ± Ð¾Ð»
ãģĹ ãĤĩãģĨ
e m
Ġ ont
g er
r ar
ÐµÑģ ÑĮ
an ti
Äħ d
Ġw p
ãģŁ ãģĦ
Ġm Ãł
ãģ® ãģ¯
h re
ĠÑĩ Ð°ÑģÑĤ
ãģ ³
j o
ad or
é ħ
Ġd al
Ġc Å©ng
Ġprze d
is ta
ãĤĮ ãģ°
Ġ20 0
Ġcom me
h al
ĠÐº Ð¾Ð»
mi ento
ĠâĢ ŀ
å½ ĵ
Äĥ n
Ð°Ð¹ Ð½
i ent
ãĥ§ ãĥ³
ÐµÐº Ñģ
ol a
ÑĤ Ð¾Ð±Ñĭ
© Ł
pa Ã±
ãģ Ĵ
e k
Ġv ideos
Ġh Ãłng
cia l
ĠD er
æ³ ķ
us z
Ð» ÐµÐ½Ð¸Ðµ
i to
a ciÃ³n
Ġfa ire
ĠÐº Ð»
g ra
á» ģ
Ġ1 3
Ðº Ð¾Ð¹
ĠãĤ ª
Ð² ÐµÑĢ
as z
Ġa t
ãĢ Į
sch a
Ġ1 8
Ð¸ Ð½Ñĭ
å® Ł
ti tu
ar z
Ġu 04
Ġ1 4
ĠÐ³Ð¾Ð´ Ð°
ãģª ãĤĵ
ãģķ ãģĦ
am os
ãĥ Ħ
c ciÃ³n
ĠÐ³ ÑĢ
us e
ow anie
æ Ł
ĠQ u
Ġ) ,
Ð¾Ð²Ð°Ð½ Ð¸Ñı
Ġw szyst
ou p
Ġt u
u g
åł ±
ÐµÐ¶ Ð´
Ġc or
çĦ¡ æĸĻ
ãģĪ ãĤĭ
s k
Ð £
Ð¾Ñģ ÑĮ
ĠvÃł o
t res
Ã¶ r
c l
çĶ »
ÐµÐ» ÐµÐ¹
ãĥĩ ãĤ£
Ġb o
ãĤ¹ ãĤ¿
ĠÐ¿ÑĢÐ¾ Ð¸Ð·
p owie
E R
z ar
Ġno ch
Ġz na
Ðº ÑĢ
è ģ
ãģ ¸
w er
en er
ÑĥÐ¿ Ð¸ÑĤÑĮ
éĸ ¢
ĠÐ° Ð½
Ð» ÑĮ
to ri
Ġ &
p ar
Ð» Ð°Ð³
ãĤ ¬
Ġein er
ĠÄĳá» ĭ
ĠP ol
Ġblo ck
è ¶
owe j
Ð² Ð»Ñı
ä¾ ¡
ti ca
Ġc ar
ÅĤ Äħ
ãģ« ãĤĪ
Ġac c
ĠÐ´ ÐµÑĤ
an ych
Ġk Ã¶n
Ð± Ð¾ÑĢ
or d
Ġ1 6
ĠÐ ¨
ãĥ Ľ
áº «
Ġ0 0
O M
Ġmo Å¼e
ĠÐ¿ Ð¾Ð·
å¤ ĸ
ĠÐº Ð¾ÑĢ
Ġan n
ĠD E
ujer es
ar io
t rz
ä» £
Ġe mp
Ġnh iá»ģu
Ġ +
ÐµÐ» Ð¾Ð²
r ie
Ġc os
g l
æķ °
ĠÐ ¦
ĠÐ¼ ÐµÑģÑĤ
Ġme j
b eit
Ġcz as
ãĤĵ ãģª
ĠÃ© tÃ©
è ¼
Ġs in
ç ¶
Ġeine m
il i
Ð¼ Ð¾Ð¶
Ġtr Ãªn
æĪ Ĳ
Ġp a
ĠÐ¼ Ñĭ
ĠÐ¼ ÐµÐ½
ç Ĥ
ÑĥÑİ Ñī
ow o
es s
ĠÐ´ Ð¾Ð¼
cz a
ĠÐ» ÐµÑĤ
e b
æ ²
g os
Ġl áº¡i
Ã¨ me
Ð½ ÐµÐ¹
Ġãĥ Ĳ
t t
te m
u en
ä¿ Ŀ
Ð¸ ÑģÐº
Ġm is
Ð¸ Ð¶
ĠN a
ia mo
åĲ į
Ġz ur
an de
ĠÐ¿ Ð¾ÑģÑĤ
áº »
or o
ĠP our
éĸ ĭ
Ġl le
ob ie
Ñĥ Ð·
Ġtr Ã¨s
k eit
ÑĨÐ¸ Ð°Ð»ÑĮ
b o
Ð¾Ð± ÑĢ
è Ĥ
áº· t
Ġm uy
le ment
Ġg li
æī Ģ
ĠÐ¼ Ð°ÑĤ
u jÄħ
ĠL os
ĠÑĤ ÐµÐ¼
Ð¸Ð» Ð°
Ĥ ¬
v en
f Ã¼
á»ĳ ng
ĠÐ¿ÑĢ Ð¾ÑģÑĤ
å® ¶
ĠÐ¾Ð± ÑĬ
Ġâ Ĥ¬
Ġm Ãªme
l ko
et ti
Ġv e
ãģĹãģ¦ ãģĦãĤĭ
ÐµÐ¹ ÑģÑĤÐ²
us s
u Å¼
ch er
ĠÐ¾ÑĢ Ð³Ð°Ð½
s za
li c
è¨ Ī
Ġpar ti
Ãł o
ÑĤ Ð¸
ÅĤe m
ãģĤãĤĬ ãģ¾ãģĻ
r od
m m
Ġt ou
dz o
Ð¸Ð· Ð½
t ta
Ġy a
Ġte go
Ġs es
Ġn ur
ĠÐ²ÑĢÐµÐ¼ Ñı
Ġu ti
Ì ģ
áº ¹
owa Äĩ
Ġun ter
e ch
áº¥ p
æľ Ģ
Ñģ ÑĮ
Ġe d
ent s
ĠÐ¸ÑģÐ¿ Ð¾Ð»ÑĮÐ·
ÅĽ Äĩ
m in
t Ãł
ĠÂ ¿
ant es
åħ ¨
Ġs ein
Ð¸ÑĤÑĮ ÑģÑı
i m
ãģª ãĤī
ĠÐµ ÑģÐ»Ð¸
å¥ ³
iá»ĩ c
w ar
Ġâ Ĺ
çľ Į
æ§ ĺ
Ġt am
Ġm od
ĠãģĿ ãĤĮ
ĠÑĥ ÑģÑĤ
owe go
Ġãĥ ŀ
o p
ĠÐļ ÑĢ
ÐµÑĢ Ð¸
ĠÑĥ ÑģÐ»
ãģ« ãģ¤
end re
Ð¸Ñģ ÑĮ
Ġz d
z i
ãģ§ãģį ãĤĭ
Ġc re
ĠK h
ĠÑĩ ÐµÑĢ
O N
te urs
Ġa ber
Ġm uch
ĠâĢ ¦
ãģĪ ãģ¦
ĠÐ¾Ð± ÑĢÐ°Ð·
Ġel le
ce j
éĢ ģ
Ñĥ Ð³
u to
ãĢ ħ
Ã¡ o
E S
g ne
ĠÐ¿ÐµÑĢ Ð²
ĠM e
Ġse xo
Ġn ue
Ġs wo
Ġç Ķ
Ã ®
è¨ ĺ
u el
ĠÑĤÐ°Ðº Ð¶Ðµ
Ġz ak
Ġc i
ç ¾
Ġha ben
Ġaus si
µ Ã
Ġn Ã³
ll i
æľ Ł
y s
ÑĥÑī ÐµÑģÑĤÐ²
Ġpeu t
en do
ãģĦ ãģĦ
é ķ·
g un
Ġz as
ÐµÑĤ Ð°
bi le
ĠÂ Ń
Ġme hr
or zy
Ġ *
al itÃ©
åĮ ĸ
Ð» ÐµÐ´
ec es
Ġcom m
ĠÐ· Ð°Ð²
áº£ o
gli o
ĠG r
ĠP ara
Ġs y
Ġques to
ãģ« ãĤĤ
Ð¾Ð½ ÑĤ
Ġtod o
Ã³ b
Ġr en
Ġd urch
ĠÐ½ Ð°Ð·
Ġcon s
ä» ¥
ĠÄĳ áº§u
k ÄĻ
ĠÐ¼ Ð¸Ð½
Ġex p
Ġun s
Ġty lko
Ð¼ Ð°
ĠH o
t ura
Ġãĥ ¡
ĠãĤ ¯
Ġs Ã©
ĠM it
Ð°Ð½ Ð¸Ð¸
w Ã³
ãģ£ãģ¦ ãģĦãĤĭ
A R
Ġn os
ti vo
Ñĥ ÐµÑĤ
an z
è© ±
Ġs ou
Ġo g
ĠA uf
Ġch á»ī
çŁ ¥
ĠÑģ Ð°Ð¹ÑĤ
Ġpr odu
ÑĥÑĩ ÑĪ
ĠP er
Ġe ff
le j
ãĥ¼ãĤ º
ĠA b
ĠÑĤ ÐµÑħ
ĠÐºÐ¾ÑĤÐ¾ÑĢ ÑĭÐµ
Ġt er
ı ¾
Ġw sp
ĠdÃ© c
h er
Ġb á»ĭ
Ġm iej
Ġ1 7
ĠÐ¿ÑĢ Ð¸Ð½
ÃŃ as
è Ī
t r
Ð ĵ
Ð ĳ
ÑĨ Ð°
ĠÐ³ Ð¾ÑĢÐ¾Ð´
ur o
k en
m et
Ġsu l
ĠÐ½ Ð°Ð´
Ġpers on
ni ka
ãĥ ı
Ġs ans
ĠÐµ ÑģÑĤÑĮ
Ġ Å¼y
Ã¤ r
Ä ©
Ġle ur
Ð°ÑĤ Ð¾ÑĢ
O S
Ġse g
å Ł
ĠÐŁ Ð¾
ow i
Ð¼ Ð¾ÑĤÑĢ
n er
ch i
ĠÐ´ Ð°Ð½
ÅĽ cie
bi Ã©n
ä½ ķ
is che
ĠÐ² ÐµÑĢ
Ġnh áº¥t
et ta
ti c
ãĥª ãĥ¼
ĠÑĤ ÐµÐ»
te ment
c to
b ie
Ġne lla
å¼ ı
r ance
wi Äħ
ic as
Ð° ÑĨÐ¸Ñı
Ġn uest
Ġde ux
E N
ari os
Ð¸ ÐµÐ¼
ĠãĤ ¤
ta l
Ġal le
ÃŃ s
ĠÐ¿ Ð¾ÑĤ
ow ania
ç« ĭ
Ġs á»±
on c
ĠÑĩ ÑĤÐ¾Ð±Ñĭ
an to
am y
Ġb is
Ġo k
Ġg ra
ãĥ İ
ou ver
ãĤĮ ãģŁ
a ll
Ð¸Ð½ Ð³
Ġl i
ĠÐ´ Ð¾ÑģÑĤ
æ Ĺ
g lich
s ere
in es
p i
Ãº ng
ĠÐ¸ Ð³ÑĢ
n oÅĽÄĩ
Ġç §
ĠÑĢ ÐµÐ³
h men
ta do
Ġque l
Ġ ãģ®
ĠÐ½ ÐµÐ´
Ġj uÅ¼
èĢ ĥ
e j
C I
Ġre c
ÑĨÐ¸ Ñİ
el t
ĠÄĳá» ĵ
Ð» ÐµÐºÑĤ
ãĤ ½
c ri
pr Ã¨s
Ð¼ ÐµÐ½
é£ Ł
ĠÑĥ Ð¶Ðµ
der e
cion al
ĠbÄĻ dzie
Ġh iá»ĩn
ĠÐ± ÐµÑģ
éĿ ¢
ĠÑĩ ÐµÐ»Ð¾Ð²
Ġo f
wie t
Ġn om
ĠÐ¾Ñĩ ÐµÐ½ÑĮ
on y
scha ft
å İ
t ri
ĠÐ½ ÑĥÐ¶
ani u
li ca
Ð°Ñģ ÑĮ
a i
Ġæ Ŀ
ãģĭ ãģª
ĠãĤ ¨
Ð¾Ð½ Ð°
Ġm ad
ĠD es
a ÅĤ
sch l
Ġes sere
å¿ ĥ
Ġc l
Ġ X
Ġn Äĥm
- -
æ ©Ł
Ġg es
ĠÐ´Ð¾Ð» Ð¶
p or
æ ®
z na
at z
Ð¸ÑģÑĤ ÐµÐ¼
ç ¥
Ġm en
Ã »
ĠÐ¿ Ð°ÑĢ
Ġsp o
èī ¯
er en
ÑĢÑĥ Ð´
ãĥ ľ
al is
Ġpri mer
kie m
Ã§ Ã£o
_ _
Ð°Ñĩ ÐµÑģÑĤÐ²
è «
eu x
ĠÐ² Ð·
Ġdá»¥ ng
k tu
Ġbar dzo
å¼ ķ
mp s
ÐµÐ½ Ð´
x x
aj o
b t
n ak
ãĥ ļ
Ġr u
ĠÐ¾Ð± Ñī
Ġn uo
ĠÐ° ÑĢ
Ġtr ab
Ġj our
cz Äħ
to re
Ġå °
en e
ĠÐ ĸ
ä¿ ¡
ĠÄĳá»Ļ ng
ĠÐ¼ ÐµÑĤ
ĠÃ ī
1 2
Ġest Ã¡
ĠÐ½Ð° Ñģ
f e
æ´ »
Ġmiej s
ti k
ĠÂ» .
ĠÐ¿ÑĢ Ð¾Ð³
ãģ£ ãģ¨
c ol
Ĩ åĵģ
æł ¼
f en
Ð¾Ð² Ð°ÑĢ
ãģķãĤĮ ãģ¦
ĠÐ¾Ð± Ð»Ð°ÑģÑĤ
Ġ >
Ġf in
Ð°ÑĤ Ð°
Ð°Ð» Ð¸Ð·
ym i
w ei
f ica
ĠÐĿ Ð¾Ð²
a it
Æ°á»£ ng
ĠÑĢ Ðµ
ãĥ ¤
ĠÐĺ Ð½
ĠkÃ¶n nen
le p
ĠãĤ Ĵ
g na
Ġc es
ĠÑģÑĤ ÑĢÐ°Ð½
g od
ãģĿ ãģĨ
ĠSe xo
as ta
Ġm ol
Ġå į
d u
ÃŃ ch
çĶ °
Ġ": "
/ /
ãĤĭ ãģ¨
Ġw ur
s ent
ĠÐ²Ñĭ Ð¿
ĠO d
ÐµÐ½Ð¸ Ñİ
è² ·
Ġw ww
ÅĽ li
ï¼ Ĵ
ãĤ Ģ
Ġo ff
Ãº n
£Â ¬
Ã¡ nh
Ð°ÑİÑĤ ÑģÑı
åĪ ©
Ġpro f
Ġw z
p tion
ti va
Ġpe ti
ÐºÐ° Ñĩ
è §
ĠÑģ Ñĩ
ÑĢÑĥ Ð¿
Ã¢ u
z o
A N
Ġt ous
å §
Ġw i
zz o
Ñĥ ÑģÑĤ
A S
Ġh ay
od e
Ġc ol
Ð°ÑĤ Ñĭ
, "
Ŀ Ģ
cz enia
Ð¾Ð± Ñī
au t
on i
å¤ ī
l os
Ñı Ð²
æĺ İ
Ġpre mi
lich e
ĠM ad
m b
ĠÐ¿ÑĢ Ð¸Ð¼
odz i
ou n
çĶ £
Ġdes de
ĠÑįÑĤ Ð¾Ð¼
p ri
áº¯ c
ĠÐ¼ Ð¾Ð³
ä» ¶
k s
Ġuti lis
am ento
è¡ ¨
Ġza p
ti co
l ine
ĠS ta
Ġä¸ Ģ
on es
ĠS z
Ġãģĵ ãĤĮ
Ġng Ãły
ĠÐ¿ Ð¾ÑĢ
ow adz
ÑĢÐ° ÑĦ
ti ve
Ġpue de
ÑģÐº Ð¸Ðµ
a ire
Ġg ÅĤ
an za
Ġs te
ĠÐ°Ð² ÑĤÐ¾Ð¼
è¾ ¼
Ġp ol
i x
ĥ n
ĠÑĢ ÐµÑĪ
j i
Ã¨ res
æ ¬
Ð»Ð¸ Ð²
ĠPor no
Ġs al
ĠÑģ ÐµÐ±
ãĥĨ ãĤ£
Ġro ku
ĠV or
ver s
d as
Ã² n
Ġla v
Ġ2 2
ãĢ Ĥ
Ġdi ff
ĠÐľ Ð¾ÑģÐº
Ð» ÐµÐ¼
ĠD i
Ġãĥ ĳ
Ġm ay
çĽ ¸
ÑĥÑĢ Ñģ
Ð½ Ð°Ðº
a w
ãĥĥ ãĥī
ĠÅ ļ
Ã¡ p
Ġch i
æĦ ı
ĠR Ã©
iÄĻ k
Ð¾Ð· Ð´
U R
is te
il d
ĠÐ¿ Ð¾Ð½
g el
Ġst ron
Ġãģĵ ãģ®
Ġno tre
Ġe m
ĠÐ¢ Ð°Ðº
Ġdi re
Ġv os
ÑĮ Ñİ
l u
ĠD Ã©
ĠF rance
è» Ĭ
l an
Ð ¤
Ð½Ð¸Ðº Ð¾Ð²
ou le
Ġgi or
á» ı
ĠÂ» ,
ĠÑı Ð²Ð»Ñı
ĠãģĿ ãģ®
ÅĤ am
ĠW WW
b ar
k ÅĤad
Ġv ol
Ġãĥ ª
l as
ãĥķãĤ ©
ĠÐ¼ Ð°Ð³
Ġ201 7
å¿ ľ
ĠÐ² Ð¾Ð´
is se
ĠD z
ĠãĤ Ń
o i
cz enie
á»± c
Ġan s
Ġ ãģĦ
f ec
ãĤĵ ãģ§
lich en
ÑħÐ¾Ð´ Ð¸Ð¼
ier w
Ġqu al
Ð¾Ð² Ð°ÑĤÑĮ
Ã© d
Ġè ĩª
qu i
ãģ¡ ãĤĥ
Ð¾Ð¿ÑĢ Ð¾Ñģ
ãĥ» ãĥ»
¬ ¬
Ġ2 5
ĠÐ¾ÑĢÐ³Ð°Ð½ Ð¸Ð·
ub b
ĠG ratis
Ġm as
ĠUn ter
ide o
Ġa Ã±os
p ad
uy Ãªn
ãĤ ¶
Ð½ ÐµÑĤ
ti ques
ta re
ĠÐ´ ÐµÐ½ÑĮ
éģ ¸
ĠD a
c el
ĠÐŁ Ð¾Ð´
Ġha cer
Ã³ l
ĠÐ±Ñĭ Ð»Ð¾
Ġch a
s ten
Ġp ub
éĽ Ĩ
p s
Ġm in
Ġph áº£i
ĠÑĢÐ°Ð· Ð²
çķ ª
\ "
Ġr Ã³w
ĠÃ© v
ur as
ut z
ĠÐ· Ð´
æĸĻ çĦ¡æĸĻ
ãģ ĸ
Ġcu i
x i
æĽ ¸
Ġg o
ĠÐ²Ð¾Ð· Ð¼Ð¾Ð¶
ĠC as
c tos
c en
Ġä¸ Ń
Ġw o
Ġau tres
Ð¾ÑĢ Ð¾ÑĪ
ãĥ¼ ãĤ¯
Ġ3 0
Ġv iá»ĩc
Ð½Ð¸Ðº Ð¸
ĠP r
ĠÐķ ÑģÐ»Ð¸
ãĥ³ãĤ ¿
ĠS o
ci p
k ty
re is
Ñĥ Ð»Ñı
Ġ äº
m al
ĠÑĩÐµÐ»Ð¾Ð² ÐµÐº
å ĥ
for ma
é §
Ġtam biÃ©n
ĠÑģÐ» ÑĥÑĩ
åĳ ³
ĠC e
ĠW o
áº· c
ĠÐ±Ñĭ ÑĤÑĮ
ãģı ãģł
d es
Ġãĥ ©
d ni
t ros
Ġw eit
men ti
åĭ Ļ
Ã© lÃ©
ÑİÑĤ ÑģÑı
ãģ«ãģ¤ ãģĦãģ¦
Ġse mp
skie go
Ġw as
ali dad
ig n
Ġj us
Ġ} .
Ġãĥ Ĺ
ĠÐ²Ñĭ Ñģ
c or
å ŀ
k Äħ
Ġv is
æĥ ħ
ĠÑĦ Ð¾ÑĢÐ¼
Ġi hr
ow ane
Ġãĥ Ī
ĠÐ· Ð°Ð´
v is
ãĢ ģ
ĠP rze
ĠÐ±Ð¾Ð» ÐµÐµ
ãģ® ãģĭ
ĠJ ahr
3 0
ĠktÃ³ r
O R
ion es
Ġå ľ
Ġpar t
Ã Ĳ
± c
z io
Ġtien e
Ð¼ ÐµÐ½ÑĤ
ç ½
ĠÐĴ Ñģ
Ġin tÃ©
Ġtr o
Ðµ ÑĦ
Ġz osta
ĠE t
Ġd os
Ġj u
ĠÑĢ ÐµÐ·
åĬ ł
ĠW ir
Ġpers onn
Ġpar te
und en
ĠÐ¼ Ð½
Ġan d
Ġâ ĸ
ãĤ¤ ãĥ³
m ie
ãģĮ ãģĤãĤĭ
áº± ng
un e
Ġmej or
ĠÐ¿ÑĢ Ð¸Ð²
ĠéĢ ģ
p x
ãĤĪãģĨ ãģª
cz nie
le ich
om b
ĠÐº Ð²
ĠåĲ į
æ¥ ½
und o
Ġen f
cj ÄĻ
1 5
ĠÐ¿ÑĢÐµÐ´ ÑģÑĤÐ°Ð²
ĠI ch
ĠÃ Ĺ
el d
æ º
ĠB er
ĠS u
ĠA u
ĠÑģ Ð¸ÑģÑĤÐµÐ¼
z u
å± ±
ãĤĪãģĨ ãģ«
Ġt i
Ð¸Ð½ Ðµ
Ġ ur
ale ment
ĠÐ· Ð°Ð¼
Ã³ Å¼
Ñı Ð´
Ġf ue
Ġg io
Ð¾Ð² Ð°
ĠãĤ Ĥ
ĠÐ¾ ÑģÑĤ
ãĤģ ãģ¦
ĠM a
r it
Ã³ r
ãĥª ãĤ¢
Ġth Ã¬
Ðº Ð°Ð·
Ð¾Ð± ÑħÐ¾Ð´Ð¸Ð¼
Ġl u
ĠÑģÐ» ÐµÐ´
g ie
Ġå ¹
on na
T I
ich e
éĽ »
ÑģÐº Ð¸Ñħ
i le
itÃ© s
Ġth Ãłnh
Ġw enn
ãģĹ ãģĭ
t ur
ĠÐº Ð°ÑĩÐµÑģÑĤÐ²
Ġa g
Ð¸ Ð½Ð¾
Ð¿ÑĢ ÐµÐ´
ĠãĢĳ ãĢĲ
Ġæĸ °
ãĥĥãĤ¯ ãĤ¹
ÅĦ st
ri d
Ġp are
ÑĤ ÑĢ
éģ ĵ
ĠI ta
Ġn ost
ĠS i
ĠÐ¿ÑĢÐ¾Ð¸Ð· Ð²Ð¾Ð´
Ġhá»į c
åĲ Į
Ð°Ð¶ Ðµ
a uf
Ġby Äĩ
ĠN ach
Ġsi te
Ġte mp
Ġæľ Ģ
ÑĮ Ñı
ĠJ ak
Ġte Å¼
Ġ is
æŀ ľ
ĠÐ¾ Ð½Ð¸
Ġa va
etz t
Ġæ ĺ
ĠÃ º
Ġwy b
Ãº c
t z
åķ ı
ĠmoÅ¼ na
Ġç§ ģ
Ġde gli
ĠÐ¿ÑĢÐ¾ ÑĨ
Ġb uen
Ġte mps
Ġ ãģ¯
ĠH er
Ðº ÑĢÐ°
ÐµÑģ Ð¿
áº¡ o
t ant
ĠL as
ĠãĢ ı
Ġæ °
ier t
Ġd om
Ð» Ð°Ð¹Ð½
ÑĤ Ðµ
Ġw e
Ġan ni
1 6
é ¨
an as
Ð Ĺ
ĠÑĥ Ð²
Ġe le
Ġm es
ÅĽ my
ãĤĪ ãĤĬ
I E
Ġdo b
l er
á»ĭ ch
Ð¼ Ñĭ
Ġc rÃ©
Ð¾Ð² Ð¾Ð¹
wa Äĩ
ĠÑĩ ÐµÐ¼
ãģ¨ ãģ¯
g n
on de
Ġse hr
ĠÐĿ Ð¾
Ġ: //
ãģ Ĳ
Ġda lla
ÐµÐ½ Ð½ÑĭÑħ
Ġpro pos
Ġè ²
A L
Ġres p
Ġw iel
è¨ Ń
ie le
Ġtod os
ÑģÑĤ ÑĢÑĥ
Ġfil es
a ires
ÐµÑĤ Ñĭ
ĠF o
Ġcu ando
Ġre g
Ġqu y
¢ º
Ġil s
Ð· ÑĭÐ²
Ð¾Ð½ Ð¾Ð¼
ãģł ãģ£ãģŁ
sch en
Ġos ob
ç Ĭ
Ð°ÑĢ Ð¸
Ġin c
Ġc er
ĠÐĲ Ð½
ĠM o
ĠÄĳ i
ĠÑģ Ð´ÐµÐ»
ç İ
Ġcz ÄĻ
ĠÐ¸Ð¼ Ðµ
der n
er i
Ġå Ī
Ġn ouve
ãĥ¼ãĤ ¿
Ð¸Ñı ÑĤ
ent ro
Ġv ie
Ð°Ð½ Ñģ
åĵ ¡
Ġh anno
cz ÄĻ
Ġtra va
il la
ĠÐ¿ Ð¾Ð¿
ãĥĥ ãĥģ
£ p
f ahr
an ta
çĤ ¹
Ġm ujeres
ie mp
Ġpo p
Ġâ Ħ
ĠÐ¿ÑĢ Ð¾ÑĤ
Ġæľ ¬
Ġv iel
ĠM ais
g ÅĤ
ĠV ous
Ã´ n
Ġâ ĺ
Ġç µ
Ġfor ma
ãģıãģł ãģķãģĦ
Ð¾Ñģ Ð¾Ð±
Ġfiles _
ĠrÃ© s
ç ³
ĠktÃ³ ry
Ġh tt
ç ®
ĠG es
Ġpri x
ĠÑĤ ÐµÑĢ
Ġtut ti
å± ĭ
Ġb as
ĠÐ¸ Ð³
è º
ter n
ÑĢÑĥ Ð·
odz in
ĠÐ½Ðµ Ð¾Ð±ÑħÐ¾Ð´Ð¸Ð¼
æĸ ĩ
ĠÐµ ÑīÐµ
ÃŁ e
v es
Ġm u
ĠÐłÐ¾ÑģÑģ Ð¸Ð¸
Ð» Ð¾Ð¶
dz ia
Ġd ann
ĠÐ± ÑĢ
åŀ ĭ
Ġas s
u al
iá»ĥ m
Ġå ½
ÃŁ en
Ġf r
Ġ2 4
ĠÃ©ta it
Ð² ÐµÑģÑĤ
v ol
C J
Ġk aÅ¼
Ġ2 1
nie Å¼
Ñı Ð±
Ġv i
Ġz mi
Ġç ´
ĠÑĤ Ð¾Ð¼
å ĸ
in as
ĠS ain
Ð°Ð½ Ð°
os ten
co re
æ° ´
Ġn ad
Ġcon o
ĠSp iel
Ġp u
ĠÐ¿Ð¾Ñģ Ð»Ðµ
j our
ç ĿĢ
ck en
ĠT o
om o
é ĺ
Ġ201 6
ĠÐ¸ ÑģÑĤ
ĠF ra
ĠA c
in t
Ġd od
æ ¨
ll t
od o
Æ¡ i
Ġt a
ig ne
ĠÑĤ Ð¾Ð³Ð¾
te k
i or
ãģĳ ãĤĭ
i tion
Ġs olo
Ġk a
ãĥĥ ãĤ·
ĠZ a
ãģ« ãģĬ
Ġf ir
k om
ĠâĦ ĸ
Ð¾Ð¶ Ð´
Ġc el
Ġãĥ ı
d ia
ĠÐĶ Ð»Ñı
ãĤĴ è¦ĭ
i gen
ãģĵ ãĤį
ÑĢ ÐµÐ´
wia d
ç´ Ħ
at to
ĠÃ© c
ĠÐ° Ðº
ÐºÐ°Ñĩ Ð°ÑĤÑĮ
ĠÐ¿Ð¾ Ñĩ
Ġh asta
Ġv ia
Ġser vi
Ġw ÅĤ
ãģĦ ãģ¾ãģĹãģŁ
Ã¶ glich
ÐµÐ½Ð¸ ÐµÐ¼
I N
Ġgr and
p u
Ã¢ m
Ð°Ð» Ð¾
Ġ Å¼
Ġb on
Ã© g
ĠÐ»Ñİ Ð´
è² ©
h ne
Ġå Ĩ
m bre
ħ n
é¡ Į
a Äĩ
c co
Ġb er
v el
ni kÃ³w
ĠÐŁ ÐµÑĢ
ä» ķ
iá»ģ n
ãģ§ ãģĹãģŁ
Ġd onn
Ñĥ Ð²
Ġh ier
Ġdu e
Ġu Å¼y
ng en
Ġ2 3
Ð½Ð¸Ðº Ð°
p uis
Ð¾Ñı Ð½
Ġn Æ°á»Ľc
ĠTh e
Ġa ff
un k
Ġn eces
ĠÑģÑĤ Ð¾
ä¸ ĩ
Ġtak Å¼e
ĠÐľÐ¾ÑģÐº Ð²
Ð°Ð» Ð¾Ð³
Ġen c
b ur
åĪ ĩ
ĠÐ¼ Ð¾Ð´
ĠÑģÐ¿ Ðµ
Ġpri ma
ll er
ãģĹ ãģı
æ ħ
ĠÐ¿ÐµÑĢ ÐµÐ´
t in
ĠN e
ĠR o
è µ
ÐµÐ½ Ð½ÑĭÐµ
li w
Ġper met
ĠÐº Ð°ÑĢÑĤ
ãĥ³ ãĤ¹
ut as
z Äħ
te il
ĀĀĀĀ ĀĀĀĀ
ĠV ideos
Ġes p
Ð¾Ñģ ÑĥÐ´
Ġre la
uy á»ĩ
skie j
Ġwie der
Ð½ ÐµÐµ
åľ ¨
ĠEs ta
el b
Ġl ui
ĠÐ¾Ñģ Ð½Ð¾Ð²
en ne
Äħ Å¼
áº¯ t
ia l
Ġsch on
ĠÐŃ ÑĤÐ¾
Ġwur de
ad y
Ġ it
Ġst r
ãĥķãĤ ¡
an os
ĠÃ© g
ĠC OM
wi er
Ġï¼ Į
ãģ® ãģĮ
ĠÐ½Ð° ÑģÑĤ
es so
ãĥ¼ãĤ ·
ĠC o
Ġb us
Ġh an
éĢ £
ĠÑĥÑĩ Ð°ÑģÑĤ
Ã¡ y
t Ã³w
Ð¾Ð²Ð°Ð½ Ð¸Ðµ
it as
Ġc li
Ã© tÃ©
Ġãĥ ĩ
ĠÐ² Ð¾Ð¿ÑĢÐ¾Ñģ
a zione
en tos
Ð³ Ð¸
ĠU ne
ĠÐº Ð¾Ð³Ð´Ð°
ĠW ar
áº¡ t
pp o
eni u
ç Ĺ
Ã¼ s
f ic
ãģĳ ãģ©
ãģ¨ ãģª
it es
ca to
Ġt en
ĠÑĤ Ñĭ
ĠDi es
ĠrÃ³w nieÅ¼
ĠÑģ Ð¾ÑģÑĤÐ°Ð²
il itÃł
Ð¾Ð» Ñı
çµ Ĳ
ost ÄĻp
an ces
Ġt iemp
ĠÐ´ ÐµÐ¹ÑģÑĤÐ²
ãģĳ ãģ¦
g no
Ġt iáº¿
Ġmol to
Ġso ll
ĠÐ¿ÑĢ Ð¾Ð±
Ġtr ans
wiÄħ z
ĠÐ° Ð´
ç¶ ļ
em me
Ġk m
Ð¼ Ñĥ
om me
ĠÐ¸Ð½ ÑĦÐ¾ÑĢÐ¼
Ġcu al
Ġg ut
ran Ã§
at ta
dzie j
ĠÐ¾Ð½ Ð»Ð°Ð¹Ð½
ÑĢÐ° Ñī
ĠI D
ãģ İ
l Ã¤
it u
O W
ÅĽ l
ãģĭ ãĤĬ
ĠÂ °
çĶ º
ĠÑħ Ð¾ÑĢÐ¾ÑĪ
Ġa voir
ãĤ¤ ãĥ«
Ġh i
as t
áº© m
ĠÐº Ð°Ð¶Ð´
Ġques ta
ĠÐ¼Ð°Ð³ Ð°Ð·
il idad
ĠÑįÑĤ Ð¾Ð³Ð¾
Ġé ĩ
ĠP od
Ġs áº£n
l au
titu tas
ĠU ni
ãģ® ãģĬ
ãģ ¶
ĠÐ² Ðº
ĠN ous
á»ģ n
Ġs ous
Ġ\ "
cz nych
æĻĤ éĸĵ
h eit
Ġab b
ad ores
Ð½ Ð¸Ð¼
t rze
Ġãĥ Ľ
Ġsp e
u dad
1 1
ĠÐ½ ÐµÑĤ
ãĤĵ ãģł
ch es
Ð»ÐµÐºÑĤ ÑĢ
å ¢
Ġin di
Ġv om
Ġp ierw
ĠÐ» ÑĥÑĩÑĪ
ĠB ar
Ñĥ ÑģÐº
Ġd onde
ãĥ³ ãĤ¯
mp le
re ich
is ti
Ł ³
ĠÐ±Ñĭ Ð»
Ġ201 8
m Ã©
Ġc en
Ġ0 9
Ġt Ã´i
æľ ī
ĠZ eit
d zy
b be
ÃŃ cul
Ġch ÃŃnh
Ġder ni
A D
Ġse x
ll as
in si
ĠãĢ İ
© ļ
cze g
ĠÐĲ Ð»
tion en
ĠC a
Ġé Ľ
ar es
Ġin f
Ðµ ÑģÑı
Ġpra w
ĠéĢģ æĸĻçĦ¡æĸĻ
å Ĥ
ĠV o
Ġbe au
ĠU m
áº¥ n
Ñı Ð¼
u ti
os e
Ġal gun
esz cze
ĠÃ© le
æ Ĥ
Ġim mer
jÄħ ce
å¿ ħ
ĠÐ· Ð°ÑĢ
ad e
eu t
Ð¾Ñģ Ð¿
Ġpr os
ist as
Ñį ÑĤ
b les
Ã¤ ch
ĠS car
at ti
Ì Ģ
Ġqu an
Ġz w
l ti
ĠÐºÐ¾ÑĤÐ¾ÑĢ ÑĭÐ¹
ãĢ į
b il
èª ¿
ĠSain t
Ãª te
m ar
cz as
ãģ«ãģª ãĤĭ
Ð° Ñİ
ĠÐµ Ðµ
Ġph o
ĠL o
el o
Ġãĥĸ ãĥ©
? ?
ĠÐ±ÐµÑģ Ð¿Ð»Ð°ÑĤ
ĠÐº ÑĥÐ¿Ð¸ÑĤÑĮ
Ð¾ Ñħ
ãĥ¬ ãĤ¹
le t
Ġç Ľ
ou l
ĠÑĤ Ð¾Ð²Ð°ÑĢ
ĠC ar
ÑıÑĤ ÐµÐ»ÑĮ
ãĥ¼ãĥ Ħ
r Ã¡
ation s
Ġu04 3
ÐµÑģÑĤÐ² Ð¾
hr en
g ia
ia ÅĤa
æĮ ģ
Ã´ tel
Ġx u
Ġve z
å ³
Ġp on
ĠÐ´ Ð¾Ðº
Ġs h
Ġen core
c ch
ĠS te
ĠÑĢ ÐµÐº
Ġa prÃ¨s
ĠIta lia
äº ¬
ÐµÑĤ Ðµ
c c
çµ Į
Ã± a
el n
Ġod powie
ĠÐ²Ð¸Ð´ Ðµ
Ġsu lla
c Ã³w
id as
Ðº Ð¾Ð¼
Ġ ï¿½ï¿½
á»Ļ c
in der
ĠC am
Ñı Ñī
Ġd onc
ÃŃ n
ãģ§ ãģĤãĤĭ
ÅĤa t
ĠP os
iv re
l Ã¨
Ñĭ Ð»
u ta
ier en
Ð°Ð»ÑĮ Ð½ÑĭÐ¹
Ġza w
Ð¾ÑĢ Ð¾Ð²
ia d
ÐµÑĢ ÑĤ
¢ ¨
Ġm al
ti cos
ĠÐĲ Ð²
Ġl ie
Ġr y
z ie
Ġtiemp o
ãĥ¼ãĤ «
ĠÐļ Ð¾Ð¼
æ ĭ
T A
Ð½Ð¾Ð¼ Ñĥ
Ġsta to
z n
de m
ãĥĶ ãĥ¼
ÑĥÑĤ ÑĮ
å¾ Ĺ
Ġp ay
Ã Ĭ
áº« n
ĠÐ² Ð°ÑĪ
Ġk il
ĠB es
ami ento
ãĤ ´
Ġsemp re
Ð³ Ð¾ÑĤÐ¾Ð²
T O
Ġtut to
f ach
ÑĦ ÑĦ
k ol
å° ĳ
Ġre ali
ĠÑģ Ð¾Ð·Ð´
Ġmo g
Ġnh Ã¢n
i an
Ġgi bt
d io
ãĤ¤ ãĤº
äºº æ°Ĺ
ĠÐ½ ÐµÐ¿
Ġc ada
Ġp ubb
Ġcon f
Ġcol or
åł´ åĲĪ
ÐµÑĢ Ñĭ
Ġm il
ĠÐĲ ÑĢ
m it
Ġhá» £p
Ð» Ð¾Ð²
Ġj ue
ĠÐ¾ÑĤ Ð½Ð¾
Ġl oro
å ģ
Ġpor que
n os
d t
ĠÐ¼ÐµÐ½ Ñı
è ±
Ġa h
Ġ0 1
ĠÐ° ÐºÑĤ
ou te
Ġl l
Ġje go
Ġor g
ĠÐ· Ð°Ð±
ĠæĹ¥ æľ¬
ĠN am
åĲ ĳ
Ð¾Ð» Ð¾Ð´
Ġch am
Ġh Æ¡n
ĠW as
ĠÑĦ Ð¾ÑĤ
Ġa tti
ĠÃ §
Ġf on
ãģ®å ¤
ĠÐĿ Ðµ
czne j
un to
Ð°ÑĤ Ð¸Ð²
Ġentre pr
g r
Ð¸ÑĤ ÐµÐ»Ñı
Ġcon tra
ÑĨ Ñĭ
Ġf ois
ĠD o
Ġãģ ©
Ġ0 5
ĠÐ¶ ÐµÐ»
wa Å¼
è¿ ĳ
Ġo Ã¹
Ð¾ Ð½Ñĭ
c tor
Ġs ia
Ã¤ l
ĠA d
ur ante
ÐµÐ½ÑĤ Ð¾Ð²
ãĥ¼ ãĥ³
ĠE x
ar ge
ow ym
Æ° a
Ð°Ð»ÑĮ Ð½Ð¾Ð³Ð¾
Ġj p
éļ Ľ
ion s
ÐµÐ½ Ð½ÑĭÐ¹
trz ym
Ġan der
Ð¸ÑĤÐµÐ»ÑĮ Ð½Ð¾
Ġc our
ta li
éĩ İ
ĠÐ¿ÑĢÐ¾Ð³ ÑĢÐ°Ð¼
Ġm nie
ch Ã©
Ġz am
ĠÑĢÐ°Ð±Ð¾ÑĤ Ñĭ
ãģ§ ãģĹãĤĩãģĨ
ĠÄĳá»ĭ nh
ĠÐ³ Ð¾ÑĢ
Ġf ar
ti cas
j u
ion i
ĠO n
Ð¾Ð» Ð¾Ð²
hl en
Ð¸ÑĩÐµÑģÐº Ð¸Ðµ
Ġgr an
it er
c m
å· ¥
ÐµÑĢ Ð³
Ġãģ¾ ãģŁ
Ã µ
Ġau tre
w or
Ð¸ÑĩÐµÑģÐº Ð¸Ñħ
Ġhab e
Ġ, "
k ar
en a
Ġ" ,"
é¨ ĵ
er w
Ġemp res
ĠÐ³ Ð´Ðµ
ri o
Ġjed nak
Ġg en
Ġs inh
Ġg Ã©n
Ġå Ľ
Ġd ru
Ġcon ta
ĠÑĢ Ñĭ
ä» Ĭ
Ġha ce
Ð¿ ÐµÑĢ
ĠK on
ï¼ ģ
çī ¹
áº£ ng
ÑĪ Ðµ
Ġs ar
it y
j os
ĠÃ§ a
Ġgra tu
Ġ0 6
to ire
ãĤ» ãĥĥãĥĪ
Ġ rze
ãĥĥ ãĤ°
za ciÃ³n
æŁ »
h nen
ĠÐ¼Ð°ÑĤ ÐµÑĢÐ¸
Ġs enza
ĠÑħ Ð¾ÑĤ
ĠÃ ľ
I S
ĠrÃ© p
Ġa y
Ġzna j
ä½ į
ĠÑģÐ² ÑıÐ·
Ġpu Ã²
Ġd ÃŃa
ĠK om
rÃ© e
Ñı Ð½
éģ ķ
Ġdies e
Ġes pe
Ġnom bre
i co
Ġngh iá»ĩ
Ġwy kon
ĠÐ¿Ð¾Ð¼ Ð¾Ñī
çķ Į
ĠW e
ĠÐ» Ð¸ÑĨ
ta to
w et
ÑĢÑĥ Ð¶
Ġpros titutas
tor ia
Ð°Ð»ÑĮ Ð½Ð¾Ð¹
Ãª m
ĠÑĨ Ð²ÐµÑĤ
Ð¼ ÐµÑģÑĤ
ĠD eut
Ġs to
ĠC u
Ġcom ment
ĠÐŀ Ð´
ãĤµ ãĤ¤ãĥĪ
Ġn eu
.. ..
Ġav ant
et as
èī ²
im mer
Ġm ir
ł ´
p f
Ġc ie
ar ro
ĠÑģ Ð¾ÑģÑĤ
ĠÄĳá» ģ
ei te
Ġun o
od y
ou pe
z eit
l us
åı Ĺ
Ð¼ ÐµÑĤ
Ã©r ie
p y
ÐµÐ½ Ð½Ð¾Ð¹
id os
ĠJ a
Ġcom un
Ġ0 4
Ġ201 9
Ð¾ÑģÑĥÐ´ Ð°ÑĢ
m an
ãģ¨æĢĿ ãģĦãģ¾ãģĻ
5 0
Ġm et
ãģķãĤĮ ãģŁ
ĠPar is
Ġm at
Ð¿ÑĢÐµÐ´ ÐµÐ»
d Äħ
sch ie
ca tion
v ent
Ð½Ð¾ÑģÑĤÑĮ Ñİ
ka z
á»¥ c
ÐµÐ³ Ð¾Ð´
ĠM i
çĦ¡ ãģĹ
Ġé «ĺ
jÄħc ych
å¥ ½
ãģĹ ãģ¾ãģĹãģŁ
gg ia
al t
Ġ1 00
ĠÐ¸ ÑģÐº
Ġh e
er os
cz ny
Ã¤ hr
Ð½ Ð¸Ð¹
Ġkh o
ob a
ĠÑĢ Ñĥ
Ġs obie
Ġcon c
Ð¸Ð± Ð¾
rÃ³ d
Ġin cl
n el
ĠÑģÐ¾ Ð¾Ð±Ñī
k ich
aus s
Ġm er
Ã¤ ng
Ġé ģ
ĠdÃ© p
ca l
ÐµÐ½ÑĤ Ð°
Ġpra c
is z
Ì £
Ġm Ã¬nh
ÑĨ Ð¸Ð¹
å· Ŀ
v ia
ÑĥÐ± Ð»Ð¸
äº Ī
ĠF or
ÐµÐ½ÑĤ ÑĢ
qu ier
il les
Ġla t
l in
Ñ ĸ
ĠÑıÐ²Ð»Ñı ÐµÑĤÑģÑı
Ġc ao
l ie
ç³ »
Ĵ Į
tiv os
Ġsp ra
å Ļ
Ġac qu
ich er
ĠV iá»ĩt
uy á»
ce p
ĠÑģÐ¿ Ð¾ÑģÐ¾Ð±
ĠI m
åı £
ä¼ļ ç¤¾
c teur
Ġk u
Ġas ÃŃ
ka ch
f in
ĠÃ £
á»ĳ t
is mo
Ġde puis
éĩ į
ĠÐ¿ÑĢÐ¾ ÑĦ
ĠÐ¾ Ð½Ð°
ĠU hr
Ġa by
ge b
Ġ0 7
an is
ĠÐ´ Ð°Ð¶Ðµ
idad es
en o
ç¤ º
Ġg ar
ĠÄĳá»ĵ ng
ĠÐ´ Ð¸
Ġn Ã©
te go
ar ia
ĠÑĩÐµÑĢ ÐµÐ·
is sen
éĻ Ĳ
Ġa Ã±o
p od
ĠÐ» Ð¸
Ġl ors
Ġn Ãªn
ĠÐ¡ Ð¿
Ġsu a
ĠP e
Ġes to
Ġãĥ Ń
ÐºÐ° Ñħ
ĠW er
Ġmay or
szy ch
li zza
ĠF re
ÑĨ ÐµÐ½
Ġå ¥
èª į
z ei
Ð°Ð»ÑĮ Ð½Ð¾
ĠS h
Ġpos si
Ġg ru
Ð°Ð»ÑĮ Ð½ÑĭÐµ
it z
æ¯ Ľ
ĠÐ½ÑĥÐ¶ Ð½Ð¾
å³ ¶
Ġmo ins
i O
p raw
Ġo hne
Ġte j
Ġmá» Ľi
ÑĨ ÐµÐ²
ĠS al
Ġv ida
Ġg ro
åıĸ ãĤĬ
ĠÐŁÑĢ Ð¸
ĠÑĤ Ð¾ÑĢ
Y W
ty w
Ãº b
Ġd ro
åı ¤
en di
á»ĳ n
ÑĢ Ð¾Ñģ
i ci
Ġãģ ķ
us t
ĠÑģ ÑĥÐ´
Ġ ãģĮ
ĠÐºÑĢ Ð°Ñģ
ta g
ãĤ¹ ãĥĨ
ĠÐ¡ Ð
Ġsu o
Ġmi esz
Ġcomm un
Ġg er
ãģķ ãģĽ
Ġthe o
ll os
Ġin forma
Ð¸ÑģÑĤ ÑĢÐ°
åĪ ¥
ĠÐ¶ ÐµÐ½
ÐµÑĢ ÑĪ
as s
ãģ® æĸ¹
Ġsam o
ff en
Ġa insi
ĠÐ¸ Ñģ
p on
ä» ĭ
Ġæ ĻĤ
li z
ĠÐ³ Ð»
ĠÃ©g alement
zion ale
ãĤ ®
ĠÃľ ber
Ġj eszcze
Ð¾Ð± Ð°Ð²
ĠR es
ci r
ĠÐ· Ð°Ð½
Ġdz iaÅĤ
Ġd nia
Ġf are
al mente
ĠC zy
Ġg dy
Ġc Ã²n
ãĥ¼ãĥ ĳ
ĠÐ¿Ð¾Ð· Ð²
¤ ľ
ich tig
ĠM er
Ġsu is
Ġperson as
m ble
ĠÐ³Ð¾Ð´ Ñĥ
sion i
èº «
es sion
u tion
ĠG esch
ĠÃ© qui
Ġc Ã¡ch
Ġtr as
Ġ ãģ¨ãģĦãģĨ
ki m
f a
è³ ª
ĠÐł Ð°Ð·
ĠCh at
ĠÐ¾ÑĤ Ð²ÐµÑĤ
om bre
Ãµ es
Ġin s
Ð¸ÑĤ ÐµÐ»ÐµÐ¹
ãģ® ä¸Ń
Ġm y
Ġfo ll
Ġme di
ĠÐĺ Ð·
Ġi ma
ist ra
Ð¸Ðº Ð¾Ð²
è§ £
ĠHo tel
Ġd y
is es
ĠÑĢ Ð°Ð¹
Ġre ci
ne hmen
c ora
p ra
pp e
iá»ĥ n
ĠÐ¼ Ð¸ÑĢ
Ġi d
ãĥĹ ãĥª
Ġr Ã³Å¼
Ġw eb
å Ħ
Ġ $
Ġ0 8
R E
L E
cri ption
Ġre p
f ol
ranÃ§ ais
Ġ. ,
Ð¼ Ð¸Ð½
éħ į
ĠÐ²Ñģ ÐµÐ³Ð¾
Ġme ille
Ġc al
elb st
Ġje j
å® ¹
T E
Ġd ont
ÑĢ Ð°Ð±Ð¾ÑĤ
ci dad
Ð¾Ð´ Ð°
Ġo fer
æĥħ åł±
r Ã¤
Ġ0 3
ĠÐŁ Ð¾Ñģ
Ġç ī
ĠÂ ¹
Ġth áº¿
Ġl ong
Ġ201 5
Ġc ze
ĠAr beit
w ert
b ei
ÄĻ d
ti r
ĠPr odu
Ġun ser
ĠãĤ ¸
Ġk eine
Ġv ideo
ĠÐ¾Ð±Ð»Ð°ÑģÑĤ Ð¸
an cia
Ð¿ Ð¾Ð»
Ġar tic
ĠD ans
s ione
Ġw ÅĤa
Ġãĥ Ģ
v id
é§ ħ
éĩ ı
Ġb i
Ġm ich
h a
ÐµÐ½ Ð¾
Ġog ni
Ġs zy
ç ı¾
Ġf un
Ġmon de
Æ°á» Ł
m ein
Ð°Ð´ Ð¸
w as
Ġ5 0
ĠÑĥÑģÑĤ Ð°Ð½Ð¾Ð²
Ġf uer
Ġpra cy
ãĥ³ãĤ º
Ġk ar
j ours
ÑģÐº Ð¾Ð¼
a ta
ĠH and
n ÄĻ
ç ¢º
ta tion
ggi or
Ð² Ð¾ÑĢ
li o
ti ge
ĠÐ³ Ð»Ð°Ð²
ĠÃ ´
ÃŃ o
s to
Ġc ul
è£ ½
ĠÐ¿Ð¾Ñģ Ð»ÐµÐ´
an k
ãģ¦ ãĤĤ
1 8
Ð°Ð¹ÑĤ Ðµ
ĠB ei
ãĤį ãģĨ
ĠÐºÐ» Ð°ÑģÑģ
Ġcon tre
Ġå Į
Ġfo tos
v ar
ĠÐ² Ð°Ð¼
hal ten
Ġè ¦
iá»ĥ u
Ð¾ÑĢ Ð¸Ð¸
c ado
ĠwiÄĻ cej
os a
Ġcer ta
çĬ ¶
ÑĭÐ¼ Ð¸
ĠN on
v or
ÅĽ nie
Ð¾ÑĢ Ð°
ĠS an
ĠÐ¿Ð» Ð°Ð½
ãģ¨ ãģĭ
ĠæĿ ±
ç¾ İ
ier z
Ġac tu
Ġtemp o
å° ı
ĠÑĨ ÐµÐ½
m t
Ġe qui
Ð¸Ð» ÑģÑı
Ġby ÅĤo
di ng
æŃ £
ĠC or
Ġser a
Ġs á»Ń
Ġs ol
Ġa k
w al
Ġå ¾
ÑĢ Ð¾Ð¿
ma t
ãģ®å ı
Ġenc ont
il s
Ġcon tro
ni ki
è ĳ
t kow
li er
ĠÐ¾Ñģ Ð¾Ð±
Ġma in
Ġ: )
Ã³ j
ç½ ®
ec to
dz iaÅĤ
Ġon line
ĠÑģ ÐµÐ¼
ĠB o
ĠR om
Ġv al
æ Ļ
ĠÐ± Ð°Ð½
I C
ÃŃ an
Ġd á»±
es e
Ġre cher
Ð°Ð»ÑĮ Ð½ÑĭÑħ
çľ Ł
ĠÐ²Ñģ ÐµÑħ
Ġ0 2
Ġde v
r ÄĻ
ti gen
ãĥ³ãĥ Ĺ
ÐµÑģÑĤ Ð¸
ia da
Ġch er
ç· ļ
it Ã¤t
Ġc Æ¡
ĠÐ¿ Ð¾Ð»ÑĮÐ·
et s
ï¼ ĵ
çļĦ ãģª
Ġpe w
ĠG i
s iÄĻ
pp ort
Ñĭ Ñĩ
Ġau to
end ant
ĠUn d
gen d
ĠÅ ģ
Ġpro pri
Ġu ma
Ġw ym
bur g
ĠT ra
ÐµÐ³Ð¾Ð´ Ð½Ñı
Ġmis mo
Ġge gen
Ġpr in
Ð¸ Ñī
Ġs au
Ġ2 6
ĠÑģÐ¾ Ð¾ÑĤ
ech o
Ñı Ð¶
Ġst an
ä¸ ĸ
Ġx xx
Ġm undo
ĠÐ ®
ĠEn t
Ġse con
cia les
Ð°Ðº ÑĤÐµÑĢ
za cji
Ġd ar
ÑıÐ± ÑĢÑı
ĠprÃ© s
ĠÐ¼ ÐµÐ´
Ġtr Æ°á»Ŀng
iÄĻ dzy
Ġt ener
ãģı ãģª
Ġc v
v ier
ĠÐŁ Ð¾Ð»
Ġdi ver
Ġ" ,
Ġl igne
ãĥ³ãĥ Ĩ
Ġswo je
v ir
ĠO r
ä¸ »
Ġ2 8
Ð» ÐµÐ¹
s I
Ġjak o
ĠÐ· Ð½Ð°Ñĩ
Ġci udad
ĠÂ ¡Â
Æ°á»Ł ng
Ġle urs
ï½ Ĺ
æ ¼
ĠÐ· Ð½
Ġh er
Ġï¼ ı
Ġãĥ» ãĥ»ãĥ»
åħ Ī
ow Äħ
Ġn ei
Ñı Ñģ
Ġpom o
Ġdies er
Ġtou te
Ġlu gar
ĠÐ¿ÑĢÐ¾ÑģÑĤ Ð¾
1 9
ÑĥÑĢ Ñĭ
Ġp ia
Ġ201 4
Ġsp os
é ¦
Ġthá» Ŀi
Ġso it
Ð°Ð» ÑģÑı
Ġin i
l ung
è Ħ
in ter
Äħ c
ĠÐ½Ðµ ÑģÐº
ĠãĤ ¿
ouve z
ĠB et
I A
g lia
åı¯ èĥ½
sch ein
st ru
ti vi
ĠÑĤÐµÑħ Ð½
ĠÐ³ Ð¾Ð²Ð¾ÑĢ
ĠC z
ra is
Ã Ĵ
áº¿ u
Ġc it
ol or
Ã³w i
ste ll
Ġa ch
ĠÑĥÑģÐ» Ð¾Ð²
rze da
èª ŀ
Ġpos i
ĠÑĪ ÑĤ
L CJ
czy Äĩ
ra i
Ġm ein
Ġpla ce
fÃ¼ hr
Ð¸ÑĩÐµÑģÐº Ð¾Ð¹
Ġc ent
k er
Ġ2 9
ĠÑį Ð»ÐµÐºÑĤÑĢ
nym i
ne ment
j as
Ġein fach
mp re
áº¡ nh
ĠÐ¾Ð´ Ð¸Ð½
c un
ĠM en
g ÃŃa
li que
w ania
Ð² Ð°ÑĢ
vel o
d or
Ġr áº¥t
ĠÐ² ÐµÐ´
Ġk li
ãģ«ãģª ãģ£ãģ¦
Ġtout es
è² »
Ġal tri
je m
ĠÑģÐµÐ± Ñı
ĠI hr
Ġo tros
om mes
:: ::
ãĥ¼ãĥ Ĺ
cz u
ĠãĤ »
ue il
Ġby ÅĤ
ĠZ u
Ġar ri
Ġ Ñİ
åĻ ¨
eit en
ãģª ãģĮ
Ġda ll
Ġ2 7
Ġte ch
ĠÐ½ Ð¸Ðº
rÃ© s
Ġth Ã´ng
Å¼ a
Ġv a
ch te
ÑĢÑĥÐ¿ Ð¿
Ġ ãģŁ
Ġsp raw
Ġh or
ãĤ¿ ãĤ¤
ĠScar pe
es ta
å¸ ¸
Ð¸Ð½ Ñĥ
uch t
ie dy
ĠÐ¾ÑĤ ÐºÑĢ
Ġtrava il
cia le
el a
Ġz n
Ġg ener
ĠP a
ĠÑģÐ»ÑĥÑĩ Ð°
g ung
Ġt our
ĠÐ¼ Ð½Ð¾Ð³Ð¾
Ġthá» ±c
Ġp owie
Ð¾Ð² ÑĭÐµ
ç´ ł
in n
Ð´ ÐµÑĢÐ¶
paÃ± a
ni ca
ãĤŃ ãĥ£
ent lich
Ġn u
ĠÑĤÑĢ ÐµÐ±
ran k
çµ Ħ
w iÄĻ
Ġpa ÃŃs
ang e
á»© ng
ĠR a
Ð¾Ñĩ Ð½Ð¾
ĠrÃ© g
ĠK o
ãģ® ãģ§ãģĻãģĮ
Ġ201 3
Ġæ ¥
Ġb ra
Ġç Ħ
Ð¸ÑĢÐ¾Ð² Ð°ÑĤÑĮ
Ġdo po
ãģĶ ãģĸ
é Į
cz ki
Ð°ÑĤ ÑĢ
Ġfon ction
ĠÐ¿ÑĢÐ¾ ÐµÐºÑĤ
Ġthá» ©
Ġj a
Ġi hre
ĠÐ¸Ð½ÑĤÐµÑĢ Ð½ÐµÑĤ
am b
ãģķãĤĮ ãĤĭ
Ġdzie ci
ÐµÐ½ Ð½Ð¾Ð³Ð¾
res s
es te
Ġtr ze
ĠdÃ© b
å¼ ·
ĠÐ²ÑĭÑģ Ð¾Ðº
ĠM ujeres
Ġest Ã¡n
ĠãĤ ¦
Ġche z
Ġne ll
Ð¸ÑĩÐµÑģÐº Ð¸Ð¹
Ġge w
ar zy
Ġdiff Ã©r
dem Ã¡s
ãĤ³ ãĥŁ
ĠÐ¼Ð¾Ð³ ÑĥÑĤ
Ġb ud
ãĥ³ãĥ ģ
Ġæ Ń
si mo
Ġ( "
Ġsz czeg
Ġen cu
Ġmais on
ĠP re
Ġs tu
ãģ£ ãģ
ãĥ¼ãĥ ĸ
t ent
oun d
æĿ Ĳ
Ġk le
ä¾¡ æł¼
è ı
ar y
Ġn Ã£o
ä½ ı
Ġnas ze
Ġm ie
Ġh Ã¬nh
Ð½ Ð¸Ðµ
Ġa nge
ĠgÃ©n Ã©ra
Ġg u
Ġpr odo
Ġå ¼
ĠF l
æĦŁ ãģĺ
Ġlav oro
Ġpro p
ÑģÐ» ÐµÐ´
) ;
ä½¿ çĶ¨
Ġk re
Å ģ
al ne
Ġpos s
ĠãĢģ ãĢĮ
Ġl ÃŃ
Ġsp Ã©
ÅĽ wiet
ĠMad rid
Ġtrab aj
ĠÐ¿Ð¾Ðº Ð°Ð·
czne go
ĠI hre
Ã ĭ
ĠÄĳ iá»ģu
Ġd ou
çŃ ī
Ġmo is
ĠÑĢ Ð¾Ð´
ãģ¡ ãĤī
ni co
å¸ ĥ
ä¾ Ľ
p l
ĠÐ´ Ð¾Ð¿
Ġt Ã©lÃ©
Ġm us
v itÃł
Ġmuch o
ĠG er
ĠÐ¸Ð½ÑĤÐµÑĢ ÐµÑģ
Ã Ķ
ĠÂ £Â¬
á»ķ i
Ġ ãģ«
s ter
Ð¾Ð² ÑĭÑħ
ĠJ u
Ġm om
1 7
ãģ¨ ãģĵãĤį
ÑĢÑĥ ÑĪ
ãĤ ¡
Ġs eine
Ġd ÅĤu
t ras
Ġtou jours
Ð ¯
ĠÐ¾ÑĤ Ð´
D F
Ġo c
Ð¾ ÑĦ
ãģĹãģ¦ ãģĦãģ¾ãģĻ
Ġm uss
ĠÐ·Ð°Ðº Ð°Ð·
tow e
Ã ĸ
Ġk á»
Ð° Ñī
Ġp ou
ĠL and
ĠÑģÑĤ ÑĢ
k l
dad es
Ġp uis
ÐµÑĢ Ðµ
Ġv ita
cz na
d re
ter e
Ġna wet
Ð± Ñĭ
ouv elle
ãģ ²
Ġ Ã¡
ĠãĢ ľ
åĮ º
ĠÐ½ Ð¸
Ġtro va
con tre
as se
Ġwy k
ÑĥÑĢ Ð³
Ġï¼ ĳ
è£ ħ
åĪ Ŀ
Ġmo i
ĠÐ³ Ð¾ÑģÑĥÐ´Ð°ÑĢ
Ġava it
g ro
und e
ĠÃº lti
Ġu lti
Ð² ÐµÐ´
ĠH a
Ġdi fer
ĠÑĩ Ð°Ñģ
Ġna le
Ġweit er
Ġl in
æĹ¥ æľ¬
Ġt in
Ġâĸ ł
ãĥ© ãĤ¹
h i
ĠÐ¼ ÐµÐ¶Ð´
Ġquel ques
Ġf re
ãĥŃ ãĤ°
o k
Ġ ãģª
ka uf
ĠÐº Ð°ÑĢ
å ²
Ġb ou
ta j
anie m
Ġk ein
ĠÑģÐº Ð°Ð·
Ġav is
ãģ© ãģĨ
re z
çĦ ¶
ei ÃŁ
c oup
Ġko lej
Ġc an
Ġz wei
ÐµÐ· Ð´
Ġ: #
Ġso cial
ä» ĸ
ĠktÃ³ ra
uyá»ĩ n
ĠA s
ta ciÃ³n
zz i
Ġimp ort
ĠÐ£ ÐºÑĢÐ°
Ð¾Ð³ Ð»
ī ĭ
Ġpro je
kom men
ĠÂ ½
Ã Ģ
áº¡ ng
ÑģÑĤÑĢ Ð¾Ð¹
Ġb u
Ġf am
g ht
æµ ·
ĠÐ¶ Ð¸Ð²
Ġtak ie
Ġpro jet
sk ich
di en
Ġ201 2
ĠÃ Ģ
ĠSe x
Ġsu per
ĠÐ´ Ðµ
ĠÐ¾ÑĤ Ð·ÑĭÐ²
ĠÐº Ð½Ð¸
æĪ ¦
ck e
Ð¾Ð½ Ðµ
p ro
t our
ÅĤa w
cel ona
Ġtrab ajo
Ġwy so
ar on
ĠH aus
ÑįÑĤ Ð¾Ð¼Ñĥ
ĠQ ues
tif s
Ġprzy pad
ig er
ãĤī ãģĦ
ãģ§ãģĻ ãģŃ
1 4
çļĦ ãģ«
ĠÑĢÐ°Ð·Ð² Ð¸ÑĤ
Ġf aut
ÐµÑĢ ÑĮ
ĠÂ ³
á»į n
ĠÅĽ rod
Ġe au
Ġ4 0
ĠÐ¼Ð½ Ð¾Ð³
ĠE uro
us am
ien do
ol es
á» £
Ġz ro
éĥ ½
Ġer a
is ter
ĠÐ· Ð²
Ġpo li
Ġbei m
ĠÐĴÑģ Ðµ
ĠÑĤ ÐµÐ¿
Ġæ Ĭ
Ġd ni
Ġv iÃªn
te z
ces o
ĠÑģÐ¾Ð¾ÑĤ Ð²ÐµÑĤ
èª Ń
t k
t on
Ð¸ÑĩÐµÑģÐº Ð¾Ð³Ð¾
ãģŁ ãģ¡
Ġvo ir
ĠÐ´ ÑĢ
Ġch icas
c an
n is
ÐµÐ½ÑĤ Ñĭ
Ġprof ession
pr owadz
Ġes o
Ġc ro
Ġt anto
ĠW ie
ĠÐ±Ñĭ Ð»Ð¸
ĠT ag
Â µÃ
Ġkh Ã¡ch
Ġh is
Ġi tali
ãĥĸ ãĥ©
Ġan cora
ĠL ie
Ġå ī
Ġd am
åħ ·
Ġest u
Ġal ors
iÄĻ ki
ad en
Ñĥ ÑĢÐ°
Ġâ Ļ
1 3
æ± º
g ni
Ġl Ã½
ĠF Ã¼r
ĠÑĢ ÐµÐ±
ÐµÐ´ Ð¸ÑĤ
Ġsy ste
Ð· Ñĭ
ĠÅĽ wia
osten los
Ġinc ont
a ck
te d
å½ ¢
h Ã¶r
c ur
gra m
Ġcel a
åİ Ł
Ð°Ñı Ð²
Ġvá» ¥
ie urs
k te
ti ci
Ġc ab
åı ·
Ġm am
Ġpow in
Ġein es
Ġj ou
Ð°Ð» Ð¸ÑģÑĮ
w is
ĠâĢĿ ,
Ġd ist
Ń Ĳ
ĠÐĵ Ð»Ð°Ð²
x t
çĽ ´
ÑĤ Ð°
om e
Ġle g
tÃ© s
ĠLe ben
Ġqu a
è ĸ
ĠÑĢÐ°Ñģ Ñģ
ĠP rzy
Ġg anz
l and
ĠãĤ ±
å§ ĭ
ĠÐ¾ÑĤ Ð»Ð¸Ñĩ
ka mi
Ã§ Ãµes
ri er
v Ã©
ĠÑĢÐµÐ· ÑĥÐ»ÑĮÑĤ
Ġk ra
b ili
ãĤ ©
Ġsie mpre
ta dos
schl and
ãģĵãģ¨ ãģ¯
i k
ÑħÐ¾Ð´ Ð¸ÑĤ
Ġris p
gu a
ĠPos tÃ©
ta ire
r er
p iel
ÐµÐºÑĤ Ð¸Ð²
å¿ħ è¦ģ
ĠB r
O U
c Ã©
as i
Ġc Ã¹ng
Ð°Ð½ Ð¸Ð¹
Ġd urante
f all
ÐµÑĢ Ð¾Ð²
ĠÐ½ ÐµÐ¼
z d
e ur
cj on
eu te
di tion
ĠnhÆ° ng
Ġwar to
ĠÐ´ Ð¾ÑĢ
ist es
ãĥ¡ ãĥ³ãĥĪ
ow any
ci miento
è ĭ
ÑĢ ÐµÑģ
Ġpersonn es
Ġni Å¼
ĠÐ¿ÑĢÐ¾ÑĨ ÐµÑģÑģ
Ġde ut
Ġan no
ĠÑĦ Ð¸Ð»ÑĮ
ĠÐ¿ÑĢÐ¾Ð± Ð»ÐµÐ¼
Ġdes arro
p t
Ġo per
Ġåħ ¨
O L
Ġpro g
ãĥķ ãĤ£
ĠK inder
ci u
ĠM il
Ġque llo
ĠÐº Ð°Ð·
ĠÐ±Ð¾Ð»ÑĮÑĪ Ðµ
qu er
ãĤ¤ ãĤ¯
enie m
ĠãĤ Ħ
Ġdo ve
ĠÂ ¼
Ġph áº©m
ãĥ¼ãĥ ĵ
Ã³ lo
Ġh ui
al a
omb res
Ð°ÑĤ ÐµÐ»Ñı
ãģĺ ãĤĥ
ãĤ· ãĥ£
Ġpo zy
ĠB us
Ġcu enta
Ġc áº¥p
ĠÐ²Ñĭ Ð±
ĠK a
ãĥ³ãĤ ¸
Ã ī
t te
Ð°ÑĢ Ð°ÐºÑĤÐµÑĢ
ĠG u
ãĤ ²
ĠÐ¼ Ð½Ðµ
ĠÑģÑĤ Ð¾ÑĢ
Ġp es
å ©ļ
id Ã©
Ġpro ble
Ġç Ļ
ĠÐ½Ð° ÑĢ
Ġãĥ Ŀ
ber g
å ¡
Ġfin den
ĠÐ½ Ð°Ð»
Ð½ ÐµÐ²
ç ¸
m ment
jÄħ cy
eit s
åĪ ¶
âĢ ¦
áº¥ u
ĠÐ¼ Ð°Ð»
Ġn elle
Ġf e
ra it
ĠK ar
Ġp ues
ĠP ers
Ñĩ Ð°Ñģ
Ġwy s
ãĥ¥ ãĥ¼
ĠU na
ç¨ ¿
é ¤
ĠÐ±ÐµÑģÐ¿Ð»Ð°ÑĤ Ð½Ð¾
ĠÐ¿ÑĢÐ¾ÑĤ Ð¸Ð²
ãģª ãģĭãģ£ãģŁ
t ni
Ġf al
* *
Ġex e
r en
ĠÐļ Ð¾Ð½
å ĩ
Ã» t
ĠD am
Ð¾ÑĤ Ð°
in di
ĠÐ¾ Ð¿ÑĢÐµÐ´ÐµÐ»
ãģĦ ãģĨ
Ġãĥ Ł
pu Ã©s
ç ¯
Ã Ĥ
Ġtr Ã¬nh
Ġpro b
sta w
Ġu cz
ãĥ³ãĥ Ģ
ĠÐ½ Ð¸Ñħ
g ang
ãĥ© ãĥ¼
ãģªãģĮ ãĤī
ĠD onna
Ġmod o
pe ÅĤ
ĠÐ» ÐµÐ³
åı İ
Ġth is
Ġj ours
Ġb et
bi or
Ġqu Ã©
Ã© v
z pie
åħ ¬
Ġc oup
ÑĨ Ðµ
á» «
Ġna u
gu i
Ġqu ando
ct ri
we ise
ãĤ¿ ãĥ¼
Ġin d
Ð¾ÑĤÑĢ ÐµÐ±
è ĩ
c is
ĠÑĥ Ð»
ĠÐº ÑĤÐ¾
ãģ¨ ãĤĤ
ĠÄĳ ang
ĠÐº Ð°ÑĤ
d Åº
Ġãĥ ī
Ġs ais
h m
Ġnue vo
ĠS er
Ð´ Ð¸Ð½
ĠN aj
ul ar
Ġãĥ Ļ
ĠP DF
Ġpay s
Ð»Ñı ÐµÑĤ
Ġå ¯
wi ck
Ġc ir
ĠÑģÑĤ ÑĢÐ¾
Ġãģ Ķ
Ã ģ
Ġh Ãłnh
¥ ¿
Ġos Ã³b
ÐµÑĢ Ð±
ter ior
ich te
ÐµÑĩ ÐµÐ½Ð¸Ðµ
ÑĢ Ð°Ñģ
Ġex per
ãģ¾ ãĤĬ
ÑĢ Ðµ
ÅĤu g
c cia
si Ã³n
ei m
ĠP reis
4 0
ĠÐ¿ÑĢÐ¸Ð¼ ÐµÐ½
b u
ï¼ ķ
Ġãĥ ģ
ĠÐ¸ Ñİ
sch e
I D
Ġt an
Ð° ÑĨÐ¸Ð¾Ð½
y ste
Ġé Ŀ
Ġp ag
ĠÑĤ ÑĢÐ°Ð½
ĠD I
ich i
Ġpo trze
Ġå º
ĠnÃ³ i
ĠA m
ar se
Ġb ack
è Ĭ
ĠÐ¾ ÑĦ
c le
g s
çĻ »
ĠÐ¼ ÑĥÐ¶
c Äħ
ĠÑĥÑģÐ» ÑĥÐ³
ãĥķ ãĥĪ
Ã¤ h
ĠãĤ °
ta ble
Ġs ÅĤ
ÐµÐ² Ð°
ĠÑģÑĤ Ð°ÑĢ
ĠÃ© tu
Ã§ a
Ð°Ð» Ð¾ÑģÑĮ
çµ Ĥ
ĠL i
Ġmen os
éĮ ²
Ġs owie
Ġ osta
ĠÂ ±
Ġl Ãªn
ĠW enn
Ġf atto
Ġhtt p
ĠÑģÑĤ Ð°ÑĤÑĮ
Ġver s
Ġza ch
å¤ ©
Ġqui en
Ġte c
è¡ ĵ
ĠÐ± Ð»
c ina
ĠÑĥ ÑĢÐ¾Ð²
o re
é ¢¨
Ð¸ÑĤ Ñĥ
ig lia
ĠÑĥ ÑĤ
iá» ħn
Ġann Ã©e
åĬ ¹
ow iÄħ
Ġ ãģ§
Ġsp iel
Ġe je
ach t
v ie
ãĥĨ ãĥ«
Ġv rai
ĠÐ´Ð¾Ðº ÑĥÐ¼
Ġbeau coup
ĠÐľ Ñĭ
ci Äħ
ĠP l
Ġcom pr
Ð «
ĠÐŀ Ñģ
ãĤģ ãĤĭ
auf en
Ġb iáº¿t
Ð¸ÑĩÐµÑģÐº Ð¸
f ten
Ġres ul
Ġwy d
èĤ ²
Ġqu alitÃ©
Ġo re
ti ng
Ġinforma ciÃ³n
ĠÑĪ Ðº
èģ ŀ
Ġe ur
Ġg us
Ġtra v
y w
å »
ĠÐ¸Ð· Ð¼ÐµÐ½
Ġpo i
ar beit
ĠprÃ© sent
Ð°Ð» Ð¸ÑģÑĤ
ĠOn line
Ġa o
Ġpropri o
ier ung
Ð°Ðº Ñģ
ĠwiÄĻ c
ci do
Ġãĥ Ĩ
ĠÑįÐº ÑģÐ¿
Ã ı
á»ĵ i
uf f
æ Ĵ
ĠÐº Ð»Ð¸
un que
O D
Ġs tos
Ð¾Ðº Ð°
ÃŁ er
Ġkh Ã¡c
Ð¼ Ðµ
ri r
Ġ" )
j az
ĠÐ½ Ð°Ð¼
con om
Ġè ª
Ġs elbst
gi que
w id
ãģĤ ãģ£ãģŁ
ĠÐ² Ð¾Ð»
ĠÐ³ ÑĢÑĥÐ¿Ð¿
Ġper chÃ©
l ub
Ġp utas
ĠCon ta
Ġes tar
2 5
æ³ ¨
c ca
l le
v ano
ï¼ Ī
ĠÐ· Ð°ÑıÐ²
S I
w ni
è ·
Ġprin cip
t ÄĻp
ĠH e
Ġw el
Ð¾Ð¶ Ðµ
ĠÅ »
a ga
Ð¡ Ð¢
Ðº Ð°Ð¼Ð¸
ar go
b au
ãĤ¤ ãĥ³ãĥĪ
ĠÐŀ Ð½
ĠCom ment
ĠN eu
Ġpeti t
ĠÂ ¡
ĠWar sza
ĠI I
Ġuns ere
ĠQ ue
Ġ0 00
v il
Ġorg ani
Ġå° ı
æľ ¨
n et
Ġat ten
æ ¶
Ð¾Ð³ ÑĢÐ°ÑĦ
åķ Ĩåĵģ
ķ ç¨¿
ãģ» ãģ©
auss ures
ÅĤo Å¼
Ġg el
m is
ÐµÐ¹ ÑĩÐ°Ñģ
ĠÑįÑĤ Ð¾Ð¹
ãĥ³ãĤ ·
Ġj etzt
ĠD u
Ġg esch
cu la
Ġch Ãºng
ĠÐ±Ñĭ Ð»Ð°
æĿ ±
g as
szy m
ãģ« åħ¥
ck er
ch ten
v re
Ġs ido
Ġs itu
ĠÐ½Ð° ÑħÐ¾Ð´
l s
èŃ ·
wa ÅĤ
Ġcas a
at t
Ġdies em
åı °
in en
Ġll am
d f
Ġd ur
éģ İ
ur y
ĠÐ¼Ð¾Ð¶ÐµÑĤ Ðµ
Ġcon na
Ġt uo
Ġph Ã¡t
Ġn um
b ra
Ðł Ñ
Ñĥ ÑİÑĤ
ķ Ĩåĵģ
ãĤī ãĤĮ
on der
ĠM an
ĠÑĥ Ð¿ÑĢÐ°Ð²
Ġp el
ãĤĵ ãģ§ãģĻ
éĢ ²
ĠP L
sz ta
Ġf ranÃ§ais
ÑĢ Ð¸ÑĤ
Ġe mb
is ten
Ġus ta
Ġpr owadz
ãģª ãģ®ãģ§
Ġdes s
Ġé ĸ
Ġt ych
ĠÑĤÐµÐ» ÐµÑĦ
c olo
ãĤı ãģĽ
Ġpas s
ĠÐ½ ÐµÐº
Ġæ µ
Ġl Æ°á»£ng
on ych
ãģĵãģ¨ ãĤĴ
y age
Ġs ab
Ġde j
Ġcon se
Ġet was
Ġes per
ĠÑįÑĤ Ð¾ÑĤ
ÅĦ ski
cu er
Ðº Ð¸Ð¹
g leich
y t
Ġy o
Ġcomp le
Ð¾Ð» Ð¶
ãĥ¼ãĥ ŀ
w es
odz ie
á»ĩ nh
ĠÐºÐ² Ð°ÑĢÑĤ
ÑģÐº Ð°Ð·
Ġo tro
ĠrÃ© alis
ĠçĦ ¡
Ġsp rzeda
Ġe uro
ãģĤãĤĬ ãģ¾ãģĽãĤĵ
p es
ĠÐ² ÑĤÐ¾ÑĢ
ĠVer s
Ġra g
r ow
Ġj eu
v ere
Ġmi es
ff e
áº¯ n
ĠÐ¼ Ð°ÑĪ
Ġnouve au
Ġcas o
ĠâĢ ¢
Ġemp lo
Ġdz i
Ġpue den
Ã¤ s
ĠdÃ© velo
æ® µ
ĠÐ¿ÑĢ Ð¾Ñģ
ãģ£ãģ¦ ãĤĤ
Ð¸Ð¼ Ð¾ÑģÑĤÑĮ
ãģį ãģŁ
Ã³ ng
Ġin sta
ĠA nge
ĠÐ°Ð²ÑĤÐ¾Ð¼ Ð¾Ð±
Ġse gu
el on
Ġ\" :
li ka
Ġè ¿
ĠS tu
si ÄħÅ¼
00 0
Ġå® Ł
em mes
c re
ĠF r
ze m
Ġ" .
us es
Ġg dzie
åĪ© çĶ¨
Ġb ie
li ng
Ġbes te
Ġv ille
ne a
ãģĮ ãģĤãĤĬãģ¾ãģĻ
á»ĵ ng
ĠbÄĻ dÄħ
Ġca p
h and
ÑĢÑĥ Ð±
ĠÃ Ķ
Ġo ko
la ge
ÐµÐ³ Ð´Ð°
Ġes e
ĠÐ¶ Ð¸Ð·
u he
áº£ m
o t
ĠÐ² Ð°Ñģ
Ġal go
ta ts
en den
Ġjak ie
Ð¾Ð´ Ð°ÑĢ
è¶ Ĭ
Ã© m
I jo
Ġz wiÄħz
ÑĭÐ² Ð°ÑĤÑĮ
çĶ ·
ç ²
ĠC ette
ti mm
ÑĥÐ»Ñı ÑĢ
éģ Ķ
os i
Ġn Ãło
ĠL A
ĠâĢĿ .
Ġt om
¼ åħ¥
Ġqu and
Ġac tiv
å® ¢
ĠTe il
ĠÑģÐ¾Ð¾ÑĤÐ²ÐµÑĤ ÑģÑĤÐ²
ĠÐ¼ Ð°ÑĢ
iss ance
Ġra pp
ĠÐ´ ÐµÐº
Ð½ Ð¸Ñħ
ol le
gr ound
ãĥĲ ãĥ¼
ãģ® ãģ«
ĠÐ¿ÑĢÐ¾ ÑĪ
Ġte ng
ĠB ild
Ġrecher che
j Ãł
ĠâĢ »
æł ¡
iste ma
Ġander en
e z
l y
ä»ĺ ãģį
å ĴĮ
ĠÐ¿Ð¾Ðº ÑĥÐ¿
Ġa nh
Ð°Ð½ Ñĭ
Ġszy b
æķ Ļ
ti er
Ġtr atta
ĠM as
Ñĳ ÑĤ
Ġse a
Ġd it
Ġnaj lep
Ġc áº§n
u a
Ġf our
ĠA k
sze j
Ġpho to
Ð°Ð½ Ð¾
ä¼ļ ãģĦ
ob ier
en ces
ta ch
ãĤĤ ãģĹ
ĠDa ten
ĠDeut schland
ĠÐ¾Ð± ÑıÐ·
l tre
Ġtod a
lan c
Ġc et
Ã¶ s
Ð¾Ñı Ñī
ãģĦãģŁ ãģł
æĦ Ľ
â Ķ
ç¨ ®
ei ra
olo gi
y a
9 9
ĠgÅĤ Ã³w
ab a
it re
ille t
ge ben
Ð¾Ð´ ÐµÑĢÐ¶
u ka
ĠÐ½ Ð°Ð±
Ġplus ieurs
ãģ¡ãĤĥ ãĤĵ
Ġback ground
¹ ä»ĭ
ces so
ãĤī ãĤĮãĤĭ
Ġpo co
ĠP ra
om i
ĠÐ¼ ÐµÑģÑı
Ġprof es
g esch
um e
åħ ĥ
und a
Ġdis pos
Ñĥ Ð¹
Ñĥ Ð»Ð¸
Ġko ÅĦ
Ġm Ã¡y
ĠÐ·Ð° Ñī
ta t
ä»¥ ä¸Ĭ
Ġd ostÄĻp
Ð¸ ÑĦ
ĠB l
Ġtod as
ci Ã©tÃ©
ite ment
ÐµÑģÑĤÐ² Ð°
in os
Ġmo y
Ġte le
ĠP f
Ġn Äĥng
Ð¸ÑĤ ÐµÐ»Ð¸
äº ¤
Ñĥ ÐµÑĤÑģÑı
ĠGr und
j ou
Ġorg anis
Ġge ht
ãģĦ ãģı
ĠÐ¶Ð¸Ð· Ð½Ð¸
b el
owa ÅĤ
ãģ® ãģ§ãģĻ
Ġl ib
Ð° ÑģÐº
ĠSt ra
ĠE st
è¿ Ķ
ĠÑģ Ð½
¬ ĳ
è¼ ī
Ã ĥ
ĠÄĳ Ã¢y
u ales
v as
ãĤĬ ãģ¾ãģĹãģŁ
Ġave z
Ġne ue
Ġcos Ã¬
ĠÐ¾Ð± Ð¾ÑĢ
uje my
Ã´ t
ĠÐºÐ¾Ð¼Ð¿ Ð°Ð½Ð¸Ð¸
h o
Ġca ÅĤ
Ġes tos
ta le
ĠA uto
ĠÑĥ Ð³
Ġso tto
qu Ã©
Ð°ÑĤÐµÐ»ÑĮ Ð½Ð¾
Ġlá» Ľ
Å¼e j
ãģĹãģŁ ãģĦ
Ġ <
ĠV al
Ġpod r
ĠÑģÐ² Ð¾Ð¹
ĠGe w
èª ¬
Ġtr ois
Ġfo to
ç´ °
ab e
ĠÐ¾ Ð³
ĠIn ter
ãĥ¼ãĥ Ĩ
Ġk iedy
sch ei
Ġartic le
Ġen vir
ãģĻ ãģĻ
è« ĩ
Ġqu anto
ãģ®å ħ
or y
ĠÐ¿ÑĢ Ð¸Ñĩ
ta d
li ck
ca m
Ġcual quier
ĠÐ» Ð¸ÑĪ
Z W
be zpie
Ã¼ ber
7 7
ĠÐ´ ÐµÐ²
Ġservi ce
Ġmon do
jÄĻ cia
Ġtr Æ°á»Ľc
Ð Ļ
ĠÑģÐ»ÑĥÑĩÐ° Ðµ
éĸ Ģ
Ġpremi er
ĠÐ¿ Ð¾Ð³
Z X
ÄĻ t
æĥ ³
Ġd ÃŃas
Ġti po
und es
ÐµÐ´ ÐµÑĢ
ĠK le
Ġ rz
ãĥĩãĤ£ ãĥ¼ãĤ¹
ãĤĴæ Į
Ð¸Ð² Ð°ÑĤÑĮ
it t
I L
Ã ¯
ĠÐ·Ð°Ðº Ð¾Ð½
Ġf u
ãģ§ãģį ãģ¾ãģĻ
Ġma chen
Ð ¬
ÑĭÐ² Ð°ÐµÑĤ
Ġbes o
idad e
ĠwÅĤ as
Ð°Ð»ÑĮ Ð½Ð°Ñı
ta mente
ta ge
Ð¸Ð² Ð°ÐµÑĤ
cj al
at ur
2 2
ĠåĲį çĦ¡ãģĹ
æŃ ©
se mble
ad ora
qu ÃŃ
Ġt Æ°
ĠJe an
ĠP lus
ĠÐ¡ Ð¾
æ ģ
Ġp ouvez
Ġhat te
Ġpro y
Ġav ons
k re
ãĤ¯ ãĥª
Ð½ Ð¸Ñĩ
ĠE ste
Ġsu ite
Ġnie z
Ġè »
Ã³ a
ĠÐ¿ Ð¾Ð±
od i
8 0
id ent
Ġk ier
ch a
Z I
z ien
Ġmom ento
äº Į
cyj ne
Ã¨ le
ĠMen schen
ĠA pp
ĠÐºÐ¾Ð¼ Ð¿Ð»
__ __
ĠÐĲÐ» ÐµÐºÑģ
ĠdÃ© jÃł
ĠD la
é¡ į
Ġah ora
Ð¿ Ð¸Ñģ
ãģĹãģ¦ ãĤĤ
Ġw ra
6 0
r Ãª
on as
-- --
ĠÑģÐ» ÑĥÐ¶
a ti
cj Äħ
è¨ ¼
ve au
ĠÐ¼Ð°ÑĤÐµÑĢÐ¸ Ð°Ð»
Ġch at
ĠS in
Ð¸Ð¼ ÐµÑĢ
ĠÃ ½
m ana
ãģĿ ãģ®
ĠÑĢÐ°Ð· Ð»Ð¸Ñĩ
Ġprodu its
l ar
Ġf er
Ġspos Ã³b
ÑĥÑĤ ÑĢ
Ġsy st
Ġå ·
Ġnuo vo
ĠS tar
ç§ ģ
åĤ Ļ
ĠÑħ Ð°ÑĢÐ°ÐºÑĤÐµÑĢ
Ã ĵ
c ort
us o
b ild
ĠÑĩ Ð¸Ñģ
Ġx e
ĠÃ ĸ
Ġwszyst kie
Ġc ours
ru ck
ĠÐ¾Ð± ÐµÑģÐ¿
Ġsar Ãł
åĥ ı
Ġof re
Ġk osz
ĠÑĢ ÑĥÑģ
Â µ
ĠÐ± Ð»Ð°Ð³
Ġal tro
åį ĺ
n ung
Ð» Ð°Ð¼
Ġcha que
Ġk olor
ĠA le
ĠÐ¿ÐµÑĢ ÐµÐ²
ãĥ« ãĥĪ
Ġp df
Ġjus qu
ĠOd powie
gl Äħ
z immer
Ġdo ch
ĠÑĤ Ð°Ð¼
ei ro
Ġmi gli
å¤ļ ãģĦ
Ġm ujer
Ġar t
en z
ÑĢÐ° Ñħ
åħ ī
ĠM us
Ġ201 1
eu re
ÑĢ Ð¾Ð±
Ġgr ande
Ġm Ã¼s
Ġma jÄħ
ĠÐķ Ð²
Ġes cri
Ġnh áºŃn
Ġpri mo
in ie
Ġcom ent
ÑĢ ÑĭÑĤ
ÑĢÐ° ÑģÑĤ
ĀĀĀĀĀĀĀĀ ĀĀĀĀĀĀĀĀ
Ġi de
la g
ar Ã¡
Ð°ÑĤ Ð¾Ð²
kt Ã³w
Ġè ¨
r ent
ze ich
å£ «
ĠÑģÐ¾Ð± ÑģÑĤÐ²ÐµÐ½
I i
wÃ³ j
ĠI N
Ġi ng
ÐµÑĤ ÑĢ
Ġsamo ch
Ð¸ÑĤ Ð°
ãģį ãģ¾ãģĻ
ĠÐºÐ¾Ð» Ð¸Ñĩ
m on
ĠÂ ´
Ã ĩ
ĠÂ ·
Ã Ī
6 6
Ġnghiá»ĩ p
è Ĳ
ch ts
Ġgi Ãł
d ÄĻ
Ġse u
ar Ã³w
Ġa lles
g io
ç ĻĤ
Ġch áº¥t
ĠÐ¿ÑĢ Ð°ÐºÑĤ
Ġsi to
Ġp Ãºb
Ð¾Ð² Ð°Ñı
ĠWo hn
Ġenf ants
éĻ ¢
ĠÐ³ Ð¾ÑĤÐ¾Ð²
Ġtut te
Ġde be
ra g
ĠU S
ÑĨÐ¸ Ð¿
ÑĥÐ½ Ðº
v in
ĠÐ¾Ðº Ð°Ð·
Ġpers one
zÄħ dz
ãĤ· ãĥ§
Ġm áº·t
s ÅĤ
Ġdam it
ÑĥÐ· Ñĭ
Ġh Ã´tel
Ġpe li
Ġå ĩº
Ð¾Ð´ Ñĭ
t ki
Ġç ¬¬
ĠV i
Ã¡ g
k owe
Ġg leich
èģ ·
é¡ ŀ
et er
ĠÐ² Ð¾ÑĤ
ÑĢÐ° Ñĩ
au te
orzy st
aj a
ĠÑĥ Ð·
ĠP ero
Ġren contre
iss ion
Ġan tes
Ñĥ ÐºÑĤ
Ġna m
Ð ¥
ĠÐº Ð°Ð¼
è» ¢
Ġin nych
m ann
am o
Ð° ÑĨÐ¸Ñİ
Ġf Ã¼
¿ Ģ
Ġfa ci
ĠÑį ÑĦÑĦ
Ġb á»Ļ
æĮ ĩ
ĠÑģÑĤ Ð¾Ð»
Ġi ci
ĠE N
p ues
al itÃł
elle ment
ĠwiÄĻ k
çĻ ½
Ġpro pr
ãģĻãģĻ ãĤģ
èī¯ ãģĦ
Ð» ÐµÐº
men tos
ĠF a
ĠÑģ Ð¾ÑĤ
Ã¤l t
è¶ ³
et tes
ĠÐ¡ Ð°Ð¼
Ġra p
åĢ ¤
rie b
Ġprimer a
ÐĿ Ðĺ
ĠÐ°ÐºÑĤ Ð¸Ð²
st Ã¤n
ãģ¨ ãģį
Ã© ro
áº¡ ch
ĠÐ½ÐµÑģÐº Ð¾Ð»ÑĮÐºÐ¾
Ġcon di
ãĤĪ ãģŃ
Ġæ° ´
za hl
b ilitÃł
Ġc r
Ġob ie
Ġv iele
ĠSu jet
res se
ÐµÐ½ Ñģ
ĠÑı Ð·Ñĭ
Ġ ãģĹãģĭ
Ġtá» ±
Ġnuest ro
Ġn or
ĠrÃ© f
ĠP as
Ġtr op
äºº ãģĮ
ĠÐºÐ¾Ð½ ÑĤÑĢ
ĠS a
áºŃ y
ĠRo z
Ġcomp te
Ð°Ð» Ðµ
éģ ĭ
ĠT ak
ĠÃ©qui pe
um p
ĠÑĥ Ð¼
cze j
tiv as
Ġs ti
ĠÐ½ Ð¾Ð¼
obier no
Ġdo it
ĠÐļ ÑĥÐ¿Ð¸ÑĤÑĮ
ĠÑįÐº Ð¾Ð½Ð¾Ð¼
ãģĹãģ¦ ãģĬ
li ÅĽmy
Ġtien en
ĠRe g
ĠktÃ³r ych
á»¯ a
na ge
ĠÑģÐ¼ Ð¾ÑĤÑĢ
ter ia
Ġpart ie
ÑıÑĤ ÑģÑı
ãĥ¼ãĤ« ãĥ¼
ĠL u
endi ta
ta ti
æı Ľ
Ġpol ÃŃ
ç´ ¹ä»ĭ
ĠâĻ ª
æ¸ Ī
ĠE ine
ti che
Ġob je
Ð³ Ð°
Ġxu áº¥t
ĠÑĥ Ð±
Ġz ad
w anie
ãĥ¼ãĥ ©
ck ie
ĠÑģ ÑĥÐ¼
Ġri cer
ĠPers on
Ð¸Ñı Ñħ
ĠA ve
Ġwie le
ĠM on
ĠRom a
Ġqu indi
Ð¸Ñģ Ñģ
ãĥĹ ãĥ¬
ĠS ur
å¼ µ
Ġn ouvelle
Ġmog Äħ
iv el
Ġsta ta
Ġp en
ĠÐ¼ Ð¾ÑĢ
Ãº t
ãģį ãģª
un ter
Ġsa voir
c Ãª
ph one
ãĥ¼ãĥĵ ãĤ¹
le c
ĠÐ´ Ð°Ð²
Ġman era
èĳ ī
id er
ri ng
ÐµÐ» Ð¸Ñĩ
Ġv Ã¬
Ġh in
¦ ı
Ġlo ka
åı Ĥ
Ġentrepr ise
Ð §
ĠÑĨ ÐµÐ½ÑĤÑĢ
Ġpe que
Ã¨ ne
Ġm Ã¶glich
Ġâĺ ħ
ĠãĤŃ ãĥ£
Ġb ene
ĠEl le
ĠÑģÐ» Ð¾Ð²
Ġé £
u la
Ð¸Ð·Ð½ ÐµÑģ
ĠÑģ Ð¸Ð»
ÅĽ wiad
ãĥ¼ãĥ Ĳ
Ð¸Ðº Ðµ
Ġsch ne
Ġcos a
u da
Ġk inh
or te
ĠÑģ ÐºÐ°ÑĩÐ°ÑĤÑĮ
ĠÐ¾ÑĤÐ½Ð¾ ÑĪ
ä¸Ĭ ãģĴ
Ġb a
Ġmej ores
tik el
an Äħ
Ġtr es
ĠÑĥ Ð¿
Ġm eine
é Ń
ĠSta dt
Ġso pra
Ġå ±
cz ka
Ġk to
ĠÐ²Ñģ ÐµÐ³Ð´Ð°
ch o
æ ¡
Ġvo it
ĠÐ½Ð°Ð¿ ÑĢÐ°Ð²
ue go
Ġpe ÅĤ
Ġå ¿
ĠÃ ¤
Ġn r
çĶ ±
in y
á»į i
en ze
ĠÐ´Ðµ ÑıÑĤÐµÐ»ÑĮ
Ġmil li
ĠÐ±ÑĥÐ´ ÑĥÑĤ
ma g
ï¼ Ķ
æħ ĭ
Ð¸Ð» Ð°ÑģÑĮ
ari as
8 8
ĠmoÅ¼ liw
an der
Ð´ Ð¶
os o
Ġs ty
{ "
Ð¾Ð³ Ð¾Ð²Ð¾ÑĢ
ta mento
å® ħ
ÐµÐ´ Ð¸Ð½
kie j
h aus
res sion
Ġp un
Ġb in
Ġch ar
ãĤĦ ãģĻ
ĠT i
Ġna ture
Ð½ ÐµÐ³Ð¾
Ã§ o
ãĤ¢ ãĥ«
keit en
Ġa mi
Ġin te
Ð¸Ð² ÑĪ
á» Ĺ
ç´ į
L L
as si
è¦ ı
Ġparti r
h b
ÅĤÄħ cz
ĠF emme
jour d
Ġa mp
n ku
m Ã¡
ich ten
ĠÑĤ Ðµ
Ġt re
ãģĦ ãģªãģĦ
Ġ9 0
åĢ ĭ
to wa
ĠÐł Ñ
Ðº Ð°Ð½
ra l
Ġnost ro
ĠÐ· Ð°Ð³
Ġsu c
áº¹ p
é Ł³
ĠÐ§ ÑĤÐ¾
ÐµÑĢ Ñģ
z ado
Ġapp ar
Ã³ d
Ġãĥ ¢
Ġd Ã¢n
ĠP ri
gra ph
ĠÑĤ ÑĥÑĢ
is ir
Ġæ ł
Ġå½ ĵ
lic ado
Ġge f
ier s
Ġgrand es
Ġpeu vent
Ġdod at
Ġo tra
çµ ¦
zza zione
Ġnas tÄĻp
Ġs eit
Ġâ Ĩ
ç§ ĳ
g ue
Ð¸Ð»Ð¸ ÑģÑĮ
Ġcz ÅĤ
ä¸ ī
Ġgi an
Ġdu Å¼
Ġda i
Ġæ Ĺ
isch er
ĠCh icas
g ur
ĠÑĢ Ð¾ÑģÑģ
Ġtra ta
Ð¾Ð½ Ð¾Ð²
Ãªn cia
b li
es en
ãģ¨ è¨Ģ
Ġh um
Ġf ino
Ġsta r
ãģĹãģ¾ ãģĨ
ĠEs paÃ±a
å® ¤
U E
Ġdes puÃ©s
æĸ¹ æ³ķ
ĠIn forma
ÑĮ Ðµ
u j
Æ°á»Ľ ng
ĠÑģÐ´ÐµÐ» Ð°ÑĤÑĮ
bi to
Ġor ig
ÐµÑĢ Ðº
ĠG ar
Ð½Ð°Ðº Ð¾Ð¼
ãģĶãģĸ ãģĦãģ¾ãģĻ
ç¥ ŀ
Ġn ar
Ġm Ã¶
ĠÐ¿ Ð¾Ð¶
schie den
Ġm ani
ĠÐºÑĢ ÐµÐ´Ð¸ÑĤ
æĸ ½
Ð°Ð² ÑĪ
ãģĿ ãĤĮ
ni enia
ĠÄĳ iá»ĥm
di g
Ð¾Ð± ÑĢÐ°Ð·
pod ar
æ ¤ľ
ÑģÐº Ð¾Ðµ
Ġn ec
Ġ201 0
Ġse p
Ġe igen
Ġparti cu
Ġencu ent
Ġwszyst ko
ĠÐºÐ¾ÑĤÐ¾ÑĢ Ð°Ñı
æ² »
Ġwsp Ã³ÅĤ
Ġb onne
ç ¿
s ÅĤu
f te
Ã¡ rio
ant Ã©
ĠÐ¿ÑĢÐµÐ´ Ð¿ÑĢ
Ð» ÐµÑĤ
g or
Ã´ le
Ġe k
ĠÑĥ ÐºÐ°Ð·
ĠF ar
z ent
ĠÐľ Ð¸Ð½
cul as
ãģĵãģ¨ ãģ§
Ġjour n
c ere
ÐµÐ¼ Ð¾Ð½ÑĤ
Ġho y
ĠÐºÐ¾ÑĤÐ¾ÑĢ ÑĭÑħ
Ġnas zy
Æ Ĵ
Ġb áº±ng
Ġb amb
I j
t ych
Ġexe mple
K A
za cja
in er
ãģį ãģ¾ãģĹãģŁ
Ġcom er
Ñħ ÑĢÐ°Ð½
Ġk ostenlos
Ġass ur
ÅĤ Ã³w
Ġw Ã¼r
Ġs co
Ġc iÄħ
xi co
en der
Ġpremi Ã¨re
ĠÐ¿ÑĢÐ¾ÑĦ ÐµÑģÑģ
2 4
ÐµÐ½ Ð½Ð°Ñı
ãĤī ãģªãģĦ
Ð¸ÑĩÐµÑģÐº Ð°Ñı
åĩº æĿ¥
æ° ĳ
ow is
ĠÐ° Ð¿
Ġpers onne
ĠÐ¿ÑĢÐµÐ´ Ð»Ð¾Ð¶
Ġs ku
ĠG ra
Ġnuest ra
ien cia
ĠÐ¿Ð¾Ð´ Ð´ÐµÑĢÐ¶
Ġm ui
ĠÃ© p
v enti
Ġï¼ Ĵ
å¢ Ĺ
am iÄĻ
Ġpod er
i ge
Ġk áº¿t
Ġnec ess
c ont
Ð°Ð¶Ð´ Ð°Ð½
Ġmiejs ce
å¹´ 0
ãģ« è¡Į
Ġeff et
Ð¸Ð½ Ð¾Ð²
Ġde b
æ ļ
ĠÐ¼ Ð¼
la ce
et y
ĠÑģ Ð¾Ð´ÐµÑĢÐ¶
ĠÐ¸ Ð´
ĠÑģÐ¿Ðµ ÑĨÐ¸
hal b
Ġcom mer
å¯¾ å¿ľ
mi entos
ĠÐ· Ð°ÑĤ
n iÄĻ
Ġéĩ ĳ
Ã©ra tion
ĠÐ²Ñĭ Ð±Ð¾ÑĢ
ĠâĹ ı
è³ ĩ
Ġthá» ĭ
Ġnue va
Ġc ost
glÄħ da
ti Ã¨re
Ð°Ð± Ð¾Ñĩ
åĪ ¤
usam men
ĠÐ² Ð°Ð¶
Ġes paÃ±
Ġm ont
Ġn ich
f ang
le i
Ġo ggi
Ġde cir
le ction
ĠÐł Ð¤
ĠÐ²Ð½ Ð¸Ð¼
s ce
å¸ «
Ġw ill
Ġpl an
ĠÐ´ÑĢÑĥÐ³ Ð¸Ñħ
Ġw en
æ¯ Ķ
c s
Ġm ill
or to
Ãº p
Ġnale Å¼y
ãģ£ãģ¦ ãģĦãģ¾ãģĻ
ber o
at s
Ġf ile
Ġfil m
ĠÑģÐº Ð¾ÑĢ
Ġmar s
Ġé ķ·
ĠK ra
ĠW eb
ti do
ÅĦst wa
el s
ç ¹
Ġs enti
Ġt Ã¢m
ĠP R
Ġprze ci
b ia
ĠE S
ti o
Ġdes cription
ill er
ĠÑģ ÑĥÑīÐµÑģÑĤÐ²
Ġdz iaÅĤa
Ġh echo
Ġcu is
å¾ ħ
Ġcon os
Ġen s
Ġk obie
Ã¼ t
2 9
cz es
Ġth áº¥y
ĠP are
Ġsu b
r icht
ĠãģĿ ãģĹãģ¦
Ġar ty
ci er
ÐµÐº ÑģÑĤ
Ġinter ne
Ã¶ ff
Ġa ura
è ħ
ÑģÑĤÑĢÑĥ Ðº
ĠÐŁÑĢ ÐµÐ´
Ġp al
ĠJahr en
ä¼ Ŀ
ĠÐ½ ÐµÐ²
Ġfo i
ma ty
Ġg Ã¬
Ð°ÑĤ ÐµÐ»ÐµÐ¹
ĠF e
ãĥĹ ãĥŃ
ĠÑģ ÐµÐ³Ð¾Ð´Ð½Ñı
Ġs ali
r is
Ġcz erw
rit to
la ciÃ³n
Ã¤ re
ku je
ĠÐ²Ñģ ÐµÐ¼
es sa
Ġpub lic
c ki
ç ¬¬
ĠÐ¼ Ð¾Ð¼
c ka
Ġr ou
ci ta
Ġpod czas
áº£ nh
k ann
.. .
Ġse ma
Ġn ada
v al
Ġãĥ¬ ãĥĩãĤ£ãĥ¼ãĤ¹
ç© º
Ð¸Ð¼ Ð¾ÑģÑĤÐ¸
b an
Ð¸Ð» Ð¾
ti en
Ġgior ni
ON E
Ġris ul
p ort
mit tel
ent Ã³w
ĠÐ¿ÑĢ ÐµÐ¿
r Ãł
Ġres te
ĠÑĢÑĥÐ± Ð»ÐµÐ¹
ĠÐ± ÐµÐ»
Ġg ay
ÃŃcul o
Ġk os
ĠÐ²Ðº Ð»ÑİÑĩ
Ġ ãģĻ
ĠMil ano
va to
ĠI hnen
Ġf emme
Ġpi Ã¨
w arz
ĠCom o
w end
Ġatti vitÃł
k cji
Ġch á»§
Ġe fec
Ġmom ent
Ġ äºº
ĠO p
ĠÐ¿ ÑĥÑĤ
ĠO b
Ġo ltre
Ġv en
ni cy
Ġpor te
ãĤ ¼
ĠD od
Ġto Ãłn
ic os
ve z
C H
Ġwy da
Ġãĥ ĵ
ãĤ¤ ãĥī
aj es
Ġte mu
eit er
æµ ģ
R A
Ãº s
ĠUnter nehmen
ÐµÑĢ Ñħ
Ġma i
la gen
Ã© b
na tion
Ġ20 20
Ġza le
ĠP ub
Ġpre cio
Ġn ivel
Ġph Ã²ng
ĠU omo
u zione
ãĤ¤ ãĤ¹
ĠÐ² Ð¾Ñģ
ĠA uch
i es
Ġje ÅĽli
ĠW elt
Ġdal le
ĠÑģÑĩ Ð¸ÑĤ
! !
Ġa fin
ä¿ ®
Ġper mi
Ġt áº¿
ä¸ĩ åĨĨ
ãģ µ
Ġte xt
æ ·
ÑĥÐ´ Ð°
Ġa zien
7 0
k ry
Ġl iv
ien e
ãģĵãģ¨ ãĤĤ
Ġse Ã±
r il
Ġp le
Ð°ÑĤ Ðµ
Ġor a
ĠAnge bo
Ġ6 0
m and
Ġè ©
ãģŁ ãĤĬ
Ã¤ uf
Ġa ni
ĠÐ²Ð¾Ð· Ð´
Ġt á»ĳt
ç© į
i Äĩ
Ġv ic
ĠÐ´ Ð¾ÑģÑĤÐ°Ð²
Ġ3 5
ãģª ãģŁ
ĠÑĢ Ð°ÑģÑĤ
ãĤ¤ ãĥ¤
qu il
åĳ Ĭ
ĠÃ© conom
Ġp is
Ð¸ÑĨ Ñĭ
et t
ĠÐ´ÐµÑĤ ÐµÐ¹
Ġfoll ando
ĠEs p
ĠT y
Ġs Ã³lo
Ã ķ
Ġh iá»ĩu
Ġc ali
j m
ĠU r
Ð» Ð¸Ð½
Ġgior no
Ġh omme
dad e
Ġcon tin
un i
ĠÑģÐ°Ð¹ÑĤ Ðµ
Ġå ¸
Ð½Ð°Ðº Ð¾
Ġng o
h ol
èĩª åĪĨ
Ġm ise
Ġ @
ĠD el
Ġh ombre
Ġsu pp
Ġf unk
ãģ¹ ãģ¦
Ġa unque
Ġczy li
Ġmet tre
Ġtr ad
ĠÐ²ÑĭÐ¿ Ð¾Ð»Ð½
ĠJe ÅĽli
s el
Ð ¦
ÐºÐ¸ Ñħ
Ġju in
ĠÑĦÐ¾ÑĤ Ð¾
ĠCom e
ä¿ Ĥ
ĠÐ½ Ð°Ð²
Ġpossi bile
Ġencont rar
Ġprodu it
Ġzw ischen
wy k
ab les
ĠÐ¸Ð½ Ð´
áº¯ ng
Ġãĥ ¯
æ¬ ¡
par t
ob y
ĠV ideo
Ġ. .
ca ciÃ³n
Ð¾Ð¿ Ð°Ñģ
Ġo tras
Ġn un
ĠãģĿ ãģĨ
Ġque lla
ĠT est
Ð°Ð» Ð°ÑģÑĮ
Ġm ÄĻ
ĠB uch
y d
dz a
ãģĻãĤĭ ãģ¨
ĠÐ¼ Ð¾
Ð¾Ð³Ð» Ð°Ñģ
Ġvo cÃª
en de
Ġby ÅĤa
ãĥ¼ãĤ· ãĥ§ãĥ³
ost ra
Ġes a
ĠÑĦ Ð¸Ð½
yste m
Ġb áº£o
ĠG ran
ãģ¿ ãģŁãģĦ
Ġèĩª åĪĨ
Ġrec enz
t ka
Ã© li
Ð¾ÑĢ Ð¸Ñı
s ty
æ± Ĥ
Ã¼ h
Ġtech ni
Ġi r
ĠÐ» Ð¸Ð±Ð¾
b G
ÅĤ od
ĠAve c
Ġs en
ä¾ ĭ
ĠÄĳ á»ĳi
Ġsc ar
Ġkil ka
st and
se z
ÐºÐ¾Ð² Ð¾Ð´
Ð¾Ð¼ Ðµ
Ġqu ali
Ġe di
è į
in nen
Ġle p
ĠÐľ Ð°ÑĢ
Ġ3 1
ĠdÃ© f
ĠÐ¾Ð±ÐµÑģÐ¿ ÐµÑĩ
ãĤı ãģĳ
r ado
ĠB il
Ġsu iv
Ġl is
c ture
sch utz
Ð¾Ð»Ð½ Ð¸ÑĤÐµÐ»ÑĮ
s am
Ġho tel
èµ ·
ĠDies e
Ġtiáº¿ p
Ġc Ã´
Ġm iÄĻdzy
Ġun os
ĠÐĶ Ð¶
Ġini zia
Ġs ÅĤu
Ġap ro
Ġf ra
ï½Ĺ ï½Ĺ
æĮģ ãģ¡
Ġricer ca
åº ĥ
nÄĻ trz
Ġou ver
Ġvol ta
Ġu l
ĠkaÅ¼ de
2 3
Ð°ÑĤ ÑĥÑĢ
t schaft
Ġ": {"
ĠÐ¼ Ð»
ĠÐ» Ð¸Ñĩ
un es
w u
Ġan te
Ġçī ¹
tiv es
ud as
ci l
Ð¾Ñĩ ÐºÐ¸
Ġna tion
m l
Ġprzypad ku
ĠÐ¿Ð» Ð°ÑĤ
is ce
Ġt Ã¡c
b es
ĠÑĤ Ð¸Ð¿
Ġtrav Ã©s
Ļ çľŁ
Ġw ol
ĠÐ² ÐµÑģ
ĠF ran
ĠÐ½ ÐµÐ±
ãĤ³ ãĥ³
ãĥķãĤ© ãĥ¼ãĥł
ł Ķ
us a
ĠF il
ĠsÃ© cur
ãģ«ãĤĪ ãģ£ãģ¦
ĠktÃ³ rzy
h me
g ent
ĠÑģÐ¿ Ð¾ÑĢÑĤ
Ġh á»Ļi
di ca
ĠCh aussures
ce ption
ĠB a
ĠÐ¿ Ð¾ÑģÑĤÐ°Ð²
ĠÐ´ ÐµÑĢ
f re
c in
ĠÐ² ÑģÑĤÑĢ
m F
Ġele kt
Ġgratu it
Ġc ier
ĠS ti
Ġs ouv
ĠP ow
Ġparti col
Ġprzy go
ãģ®å ł´
ĠÑģÐ»ÐµÐ´ ÑĥÑİÑī
Ġdies es
ces si
ĠÄĳ Æ°á»Ŀng
ĠÐ² ÐµÑī
ie m
si ca
j es
Ġåľ Ł
ĠK Ã¼
Ġt or
u chen
Ġæľ Ī
Ð»Ñİ Ð´
ãģĵ ãģ®
cor so
cz one
ĠÑĢÐ°Ð· Ð¼ÐµÑĢ
ĠÑĢÐµÐ± ÐµÐ½
Ð°ÑĢÐ¸ Ð°Ð½ÑĤ
Ġal cun
åľ Ĵ
Ġj an
ĠM in
ÐµÑĢ ÐµÐ´
ĠAc c
ä¾ ¿
er ie
Ð¾ÑĤ Ñĭ
Ġth iáº¿t
e d
ĠÐ²ÑĢÐµÐ¼ ÐµÐ½Ð¸
Ġg odzin
Ġal so
re chen
Ġp age
Ġdes e
lica tion
ard in
ãģ ¥
ĠW a
c itÃ©
ĠÑĨ ÐµÐ»
Ġbar dziej
ĠBar celona
an ol
ĠÐ³ Ð¾Ð»
Ġa f
Ġw id
Ġè ¡
Ġni veau
cze go
Ð¾Ð² Ð¾Ð³Ð¾
Ġtá» ķ
Ġu omo
t ku
gra f
Ġãģ ¡
ç ģ
ĠÑĩÐµÐ»Ð¾Ð²ÐµÐº Ð°
ĠM ont
Ġso ciÃ©tÃ©
ĠÐ½ Ð¾ÑĢÐ¼
pp en
ĠC ol
ĠÐ½Ð°Ð» Ð¸Ñĩ
re a
Ġas so
Ñĳ Ð½
æľ Ľ
ĠktÃ³r ym
Ġpro gram
ĠB au
ma tion
Ġ ä½ķ
ier re
Ġc ara
w ir
e x
Ġann Ã©es
Ġpro gra
è ¢
ĠÂ ¸
Ġc áº§u
ow n
Ġe ben
ato re
un a
Ġæ Ī
Ġber eits
ski m
Ð¾ÑĢ Ñĭ
å¿ µ
ĠÐ¿Ð¾Ð»ÑĮÐ· Ð¾Ð²
co le
ĠÐ³ Ð°Ð·
Ġer st
g ado
t Äħ
c ÃŃa
Ġt able
Ġcon stru
ĠÐ´ Ð¾Ð²
éĢ ł
e ll
ĠJa hre
Ð½ ÐµÐ¼
Ġl ung
ica ciÃ³n
to p
Ã İ
Ġlo áº¡i
ĠB on
cto bre
dzie l
åĸ ¶
ĠÑĤ ÑĢÑĥÐ´
Ġen semble
Ġc alidad
Ġå Ģ
le m
Ġhor as
is on
ĠÐ³ Ð°ÑĢ
ãĥķ ãĥ¬
in k
ĠÐ¼ÐµÐ¶Ð´ Ñĥ
éĢ Ł
Ġc y
re k
ech a
w ort
Ġan dere
uf fi
al ny
ĠÐ´Ð¾ÑģÑĤ ÑĥÐ¿
ĠFo tos
Ġam or
os podar
Ġj un
Ġt Ã¬nh
Ġv uel
Ġri en
Ġques tion
Ð² Ð¸Ð¶
rÃ³ Å¼
Ġæ īĭ
Ġgr oupe
ĠÑģÐ¿Ðµ ÑĨÐ¸Ð°Ð»ÑĮ
Ġri c
ĠK unden
Ð¸ Ð»Ñı
Ġwur den
åĦ ª
TI ON
rie ur
ĠÑģÐµÐ± Ðµ
es i
Ã© c
Ġs istema
ãĥ¼ãĤ ³
èŃ °
Ã§ on
ĠÂ ¾
7 9
ĠÂ ¶
á»Ń a
Ġ3 4
ĠÐ½ÐµÐ¾Ð±ÑħÐ¾Ð´Ð¸Ð¼ Ð¾
ĠâĢ ļ
ĠÐ²Ð½ ÑĥÑĤÑĢ
mer o
gen ce
ten ir
sz Äħ
Ð¸Ð» Ð¾ÑģÑĮ
ĠÑģÐ» Ð¾Ð¶
ãģ« éĸ¢
Ġb Ã¡n
ita l
Ġlas sen
Ġp ie
Ġvá» ĭ
ĠH ier
s atz
Ð°Ð· Ð´
Ġk ont
ãĤ¯ ãĥĪ
ch ar
Ġdem ande
ĠA ber
li Ã©
Ġï¼ģ ï¼ģ
ãĥĸ ãĥ«
se ur
ÑĥÑĤ ÑģÑĤÐ²
Ġg an
± ãģĦ
tem bre
ãĤĤãģĹ ãĤĮ
Ġsh ort
Ġ3 3
ra ge
Ġc oÅĽ
Ã¶ l
ĠÐ¿ÑĢÐ¾Ð² ÐµÐ´
Ġrap ide
d nia
Ġat tra
ujÄħ ce
áº¡ c
id ente
ĠãĤ Ī
Ð°Ð½ Ð¸Ñİ
Ġe llos
Ġservi ces
f Ã¼r
Ġæ ¯
Ã¡ ri
ĠÐ´ Ð¾Ð±Ð°Ð²
æŃ ¢
ĠN ue
Ġc oule
cze ÅĦ
v Ã©e
Ġc m
ÐµÐ½ Ð½Ð¾ÑģÑĤÐ¸
ĠB undes
ĠÐ¿ÑĢÐµÐ´ Ð¾ÑģÑĤÐ°Ð²
Ġson dern
Ġp ÅĤy
ĠR i
Ġs f
è ¬
Ġna y
am il
c Ã©d
ĠÐ¿ÑĢÐ¾Ð² Ð¾Ð´
C Z
Ġ4 5
orzy sta
as e
Ġ ï¾
åĲĪ ãĤıãģĽ
ĠÐ¶ÐµÐ½ Ñī
ĠÐ»ÑİÐ´ ÐµÐ¹
ĠS k
Ġstron y
Ġï½ ľ
ĠæĿ± äº¬
Ġç ·
èĲ ½
Ã³ mi
Ġpo tre
Ã©r ence
A T
Ġw al
Ġwar en
an ym
ĠT a
ien s
Ġãĥ į
Ġpers ona
ãĥ³ãĤ Ń
ĠãĤ± ãĥ¼ãĤ¹
èĸ ¬
Ġf ond
ÑģÑĤ ÑĢÐ¾
Ġsty le
è³ ¼åħ¥
Ġg ente
to ry
ĠÐ¸Ð¼Ðµ ÐµÑĤ
Ġwszyst kich
ãĤµ ãĤ¤ãĤº
éĻ ¤
Ġt iá»ģn
at ro
pa gne
Ġpr endre
ãĥģ ãĥ£
inh a
ĠÐ± ÐµÑĢ
Ã į
ĠÂ ²
Â º
Ġt ÃŃnh
Ġcor re
ei ght
ĠÐ¶ Ð¸Ð·Ð½
we m
ĠÐ¸Ð· Ð²ÐµÑģÑĤ
Ġs ei
Ġs our
Ġå¥ ³
Ġç ¾
ãģĪ ãģ°
mi er
ä¼ ģ
v os
ãĤī ãĤĮãģ¦
Ġlie u
Ġsecon do
ves tig
Ġk aufen
Ġj es
Ġd osta
Ġda bei
Ġr ÄĻ
ĠÐ°Ð² ÑĤ
ĠÃ´ ng
am t
li co
Ã¼ tz
ille urs
Ġo t
Ġsi gui
ĠÑģÐ¾Ð² ÐµÑĢÑĪ
Ġa li
ãĥ³ãĥ Ĳ
ĠT out
Ġp osta
ur z
ĠÐ¸Ð· Ð±
æĶ ¯
Ġa ng
ÑĢ Ð¸Ð¼ÐµÑĢ
¡ å¸ĥ
Ġæ ķ
un cios
Ġre mp
Ġque d
ÑĤÐ¾ Ñĩ
è¦ ³
Ð¡ Ð
ĠÑĥ ÑģÐ¿
ĠAr tikel
ĠG io
Ġl etz
ind ow
Äħ ce
Ġt ar
ĠÐºÐ°Ð· Ð¸Ð½Ð¾
Ġb r
ĠÑĢÑĭ Ð½
ĠÃ ģ
Ġli ve
uyá» ĥn
) )
ĠÑģÑĢÐµÐ´ ÑģÑĤÐ²
ĠrÃ©s ul
re dni
ĠÐļÑĢ Ð°Ñģ
k un
ĠÐ¢ ÑĢ
olo gie
w od
Ġs Ã£o
Ġtr ouver
ar ie
ĠB eit
ĠÐ¼ Ð°ÑģÑģ
ĠMe hr
ĠÐŁ ÐµÑĤ
z w
ÑģÐ¿ Ð¾ÑĢÑĤ
at h
g Ã©
Ġãģ ł
Ġæ Ħ
ÑĢ Ð°Ð¶
is en
Ġcon tent
Ġç ı¾
ĠÄĳ o
ĠÐ¸Ð³ÑĢ Ñĭ
Ġra pport
ggi ung
ten er
Ð°Ð¹ Ð´
Ð¾Ð² ÑĭÐ¹
Ġk las
ten ant
ÐµÑĢ Ð½
Ġä¸ Ĭ
ÐµÐ» Ð°
Ġpo int
Ġpres ent
ĠÐ´Ð¾Ð¼ Ð°
Ġzro bi
ãģ«ãģª ãģ£ãģŁ
Ġpo le
se ment
ãĥ ´
ĠÑĦ ÑĥÐ½Ðº
ca use
it h
Ġe u
Ġposs ono
ÑĥÑĤ Ð±
Ã¤t z
ĠwÅĤa ÅĽci
Ðŀ ÐĴ
Ð»ÐµÐ½ Ð¾
ĠM ujer
ci endo
Ġ Þ
Ġt áº¡o
le ÅĦ
ĠT am
ÐµÑĢ Ð²
om oÅĽci
Ġs elon
Ġinter es
tra g
Ġãĥ ľ
ĠX xx
Ġest as
Ã©n Ã©
ÄĻ zy
Ġall er
ĠÐ¿Ð¾Ð·Ð² Ð¾Ð»Ñı
ãĤ¸ ãĥ£
ĠP la
Ġesta ble
ĠÐ¼Ð¸Ð½ ÑĥÑĤ
Ġ _
ĠéĢ ļ
ĠS eite
tÃ© e
Ð¾Ð» ÐµÐ²
cion ales
Ġd onna
li ce
Ġb esch
Ġbe cause
Ġexp Ã©ri
Ðº Ð¸Ðµ
Ġb en
æĿ ¿
Ġhá» ĩ
ä»ķ äºĭ
Ġqu ier
Ġd ise
Ġdom u
ĠT ut
» Ĵ
Ġf Ã©v
ĠÑĢ Ð°Ð½
ĠL E
ve mbre
adz ie
å° Ĥ
Ġcuis ine
Ġj am
å ¦
Ġ, .
è± ¡
el h
ĠC an
ĠÑģÑĤ Ð°Ð½
ĠJ est
ab ri
ĠkÃ¶n n
gl Äħd
Ġc ad
z as
ane go
ç¨ ĭ
ĠÐ² Ð°ÑĢÐ¸Ð°Ð½ÑĤ
Ġde llo
fi ka
Ġb áº£n
Ġi phone
ĠãĤ¹ ãĥ¼ãĥĳ
Ġcos as
N E
Ġe ng
ãģ®å Ī
ow anych
li Ã¨re
ĠÐ¾ÑĤÐºÑĢ ÑĭÑĤ
Ġhab ÃŃa
I O
Ġch ia
Ġjak i
d lich
b 3
Ġn p
Ġlo ca
Ñĩ Ð¸Ðº
åŃ ĺ
ĠÐ³ÑĢ Ð°Ð¶Ð´Ð°Ð½
ĠJe d
ĠÑģ ÐµÑĤ
it te
ĠmÃ¼s sen
ĠÐ¿ÑĢ Ð¸Ñģ
ce mbre
A U
Ġf ais
ãĤ Ĩ
Ġ19 9
lÃ© ment
, \"
Ġdob rze
Ð¸ Ð¾Ð´
ãģ¨æĢĿ ãģĨ
ĠA ng
æ £
ĠÐ¾ÑĤ Ð´ÐµÐ»
Ġå Ĭ
èĢĥ ãģĪ
ĠÐ¡ Ð¾Ð²
Ġp elo
Ġna tur
c tions
Ġwid th
ĠÐ´ Ð¾Ð³Ð¾Ð²Ð¾ÑĢ
ĠÑĥ Ñģ
Ã¤n der
ĠÄ ĥn
Ġqu ale
ĠM Ã©
ĠÑģÐ² ÐµÑĤ
u p
â ĺ
ãģ®æ ĻĤ
Ġequi po
i zione
t nie
Ġda tos
Ġsal le
Ð² ÐµÑĢÐ¶
ä¸į åı¯
ãĤ¹ ãĤ¯
ĠZa pa
Ġme dio
Ġ200 9
Ġty pe
ĠczÄĻ ÅĽci
ãĤ± ãĥ¼ãĤ¹
Ġcol le
å¹ ³
Ġestu di
fahr en
ĠÑģÑĤÐ¾ Ð¸ÑĤ
Ì ī
Ã Ĩ
Ġth Ã¡ng
Ã¢ ce
d Ã¬
w il
Ġcho ix
Ġprz es
Ġãĥ ĭ
va tion
Ð½ Ñİ
o o
en cias
Ġmie ux
Ð» Ñĭ
Ġf ine
ĠÐ½Ð°Ð´ Ð¾
ĠÐ± Ð¸Ð·Ð½ÐµÑģ
ĠÐ¿Ð¾Ð» Ð¾Ð¶
Ġk siÄħÅ¼
te au
ãģŁãĤģ ãģ«
ow ana
Ġf az
Ġa gua
Ġe ing
at ter
ÑĭÐ² Ð°ÐµÑĤÑģÑı
Ġes pa
Ġte mat
io re
st ÄĻp
ĠÐºÐ¾Ð½ ÑĤ
ĠBe wert
f l
Ġprofession nel
ang er
Ġ3 9
bil itÃ©
Ġver dad
b res
Ġoff er
ĠÑģÑĤ Ð°Ð²
ane j
Ġqu áº£
Ġh eight
ĠÑĢ ÑĥÐº
Ġcit tÃł
Ġpossi ble
ãĤ± ãĥĥãĥĪ
cuer do
ĠBer lin
ĠÐº Ð¾Ð¶
ĠÐ³Ð¾ÑģÑĥÐ´Ð°ÑĢ ÑģÑĤÐ²ÐµÐ½
Ġsoll te
Ð¸Ð»ÑĮ Ð½Ð¾
ãģª ãĤĭ
r ada
sze go
Ã Ħ
ĠÃ ĵ
ĠÃ Ĵ
Æ° u
Ġ\ /
Ġh ombres
Ġoff re
Ð² Ð°ÑĤ
Ġempres a
u ÃŁ
é¡ ĺ
A M
Ãĵ N
ĠM Ã¡s
ĠrÃ© ser
al nie
ãĤı ãĤĬ
ĠWas ser
Ġ ãģĭ
Ġv eces
ÑĮ ÑİÑĤ
ni os
è²© å£²
ãĥ Ĵ
Ñĳ Ð¼
g ÄĻ
Ġc ou
ato ri
Ġd á»ĭch
åŁ º
n es
Ġte m
wor z
ĠConta ctos
Ġre f
Ð°ÑĢ Ð°
ĠåĽ ½
Ġnuo va
Ġna pis
Ġmad uras
Ġs ino
kow y
Ġden n
ĠÐŁÑĢ Ð¾
Ġv iene
m us
4 5
Ġin v
Ġinforma tions
ÐµÐ¼ Ð°
ĠÐ¸Ð¼ ÐµÐ½Ð½Ð¾
Ġhis toire
ĠÑģÐ¸ÑģÑĤÐµÐ¼ Ñĭ
K I
Ġrze czy
åĢ į
ãĤĴ ãģĬ
Ġmill ones
Ġrag az
Ġgi Ãºp
ãģ£ãģ¦ ãģĦãģŁ
ĠM Ã¤
ÑģÑĤÐ² Ðµ
i mento
Ġå ĭ
b r
Ġer sten
Ġdro it
Ġra c
ä¹ Ĺ
ÑĨÐ¸ ÐµÐ¹
ma ch
and a
Ġpar f
Ġz ei
ĠÐº Ð°Ð¿
t ÄĻ
ĠÐ¡ ÐºÐ°ÑĩÐ°ÑĤÑĮ
ĠÐ¡ Ð²
ĠÑģ ÐµÐ¹ÑĩÐ°Ñģ
Ġvrai ment
ent as
ĠN i
ãģ ŀ
au l
Ġderni er
ĠÐ¿Ð¾ ÑıÐ²
ĠE UR
k lich
ĠÄĳ iá»ĩn
Ġd in
ĠÑĤ Ð¾Ð¶Ðµ
ãĥ¼ãĥ ĩ
s etz
ĠÐ¾ Ð·
il es
Ġques ti
Ġmui to
szta ÅĤ
ãĥ¼ãĥ ģ
Ġtr ouv
ron a
f on
at ri
t ung
ãģł ãĤįãģĨ
li dad
ĠrÃ©g ion
ãĥķ ãĤ§
Ġpop rze
ĠSp e
ĠÄĳ áº¹p
Ġdes c
ĠÐĴ Ð°ÑĪ
Å¼ u
Ġe conom
b ung
ÑģÑĤ ÑĥÐ¿
Ġra z
ãģķãĤĮãģ¦ ãģĦãĤĭ
Ã¬ m
ĠAl le
ĠÃ ¶
od za
ĠÐĺÐ½ ÑĤÐµÑĢ
i om
Ã©r er
éĺ ª
ĠåĲ Į
un kt
ĠcÃ³ mo
ut es
si ma
ĠÐĳ ÐµÐ»
Ġznaj d
Ġeje mp
ĠÑģÐ¾Ð² ÑĢÐµÐ¼
Ġzur Ã¼ck
ta zione
æĽ ´
ĠÑĤÐµÑĢ ÑĢÐ¸ÑĤ
ä½ İ
ta ur
Ġann un
Ġto tal
Ðº Ð»ÑİÑĩ
Ġph áº§n
Ġgr os
Ð¿Ð¾Ð» Ð¾Ð¶
i ti
c ciones
Ġtam b
am e
Ġapp el
Ġp ost
2 6
g in
ä¼ ĳ
Ġå® ī
çİ ĩ
Ġs ÃŃ
Ġfun ction
Ġdo p
Ġaus ge
ĠÐ²Ñĭ Ð³
ww w
Å¼e li
ç´ ļ
Ġfun cion
ĠÐ¿ÑĢ Ð¸Ð´
2 7
ĠÐ¿ÑĢÐ¾Ð´ ÑĥÐºÑĤ
ÐµÑĩ Ð½Ð¾
u ali
Ġr odzin
ĠÐ·Ð´ ÐµÑģÑĮ
æĤ ª
la is
h Ã¤lt
va re
ĠÐ¿ Ð¾ÑĤÑĢÐµÐ±
ãĤµ ãĥ¼ãĥĵãĤ¹
Ġpor n
oles c
u ciÃ³n
Ġm ob
Ġneu en
Ġjan vier
Ġdz iÄĻki
ĠÐ· ÐµÐ¼
Ġp endant
es ti
ãĤ¿ãĤ¤ ãĥĹ
ãģĳ ãĤĮãģ°
Ġin for
Ã¼r lich
Â ¡Â
ĠÃ Ĭ
Â »
Ġhá» ĵ
olo re
Ġzaw sze
hl t
Ð¸ÑģÑĤ ÑĢ
ĠC al
vil u
f ern
ÑĢ Ð°Ð´
Ġt ow
Ġc ur
æ¼ Ķ
Ġch á»©c
e mos
Ġsk ÅĤad
Ġpre cios
Ġåī į
Ġl Ã©g
ÑĦ ÐµÑĢ
Ġf ol
Ġh as
æĸ Ń
Ġo czy
in iones
Ġp ens
is piel
ĠÐ¾ ÑĨÐµÐ½
Ġza pe
Ġkom men
ma to
Ð¾Ð¹ Ð´
Ġdi jo
Ġkom mt
ĠÃ Ħ
b ir
Ġtrze ba
ð Ł
Ġãĥ¡ ãĥ³ãĤº
å® ³
Ġser Ã¡
ĠÑĢ ÐµÐ¶
Ġo trzym
ĠÐ³Ð¾ÑĢÐ¾Ð´ Ð°
Ġann on
Ġtamb Ã©m
Ġer ste
Ġun i
Ġä» £
ãĥ¼ãĤ Ń
Ð¸ÑĢÐ¾Ð²Ð°Ð½ Ð¸Ñı
Ġtá» Ľi
Ġczas u
ãģĹ ãģªãģĦ
Ġsc on
Ġcono cer
wer k
Ġb ois
ĠB as
s es
ÑĥÐ¶ Ð´
Ġpotrze b
ãĤĴæĮ ģ
vo le
is me
ÑģÐº Ðµ
Ð°ÑĢÑĤ Ð°
ci Ã³
al en
ĠT wo
ĠÅĽ wie
ĠÐ²Ð¸Ð´Ðµ Ð¾
ãĥ¬ ãĥĵ
Ġst esso
ÐµÑĪ ÑĮ
ĠSp ort
ĠÃ ĥ
á»Ļ ng
ÐµÐ½ ÐµÑĢ
Ġt us
i as
ĠF ahr
ĠÐ°Ð² ÑĤÐ¾ÑĢ
åī ²
Ġesta do
ver so
Ġima ge
ÐµÐ½ Ð½Ð¾Ðµ
kun ft
Ġsk lep
Ġjam ais
k owa
Ġver schieden
äº Ĩ
Ġda ti
ÅĤe go
Ġo ctobre
Ð¸ÑģÑĤÑĢÐ° ÑĨÐ¸Ð¸
ent re
ĠÐ»ÑĥÑĩÑĪ Ðµ
ç ±
ĠÃ ¢
ro m
ĠÑĤÐ°Ðº Ð¾Ð¹
Ġfir my
ĠÐ½ÐµÐº Ð¾ÑĤÐ¾ÑĢ
Ġma ggio
te les
oba cz
Ġter az
f s
ka ÅĦ
Ġi f
ãģ«ãĤĪ ãĤĭ
Ġmuch os
st ra
il itÃ©
Ġinforma zioni
cas ion
Ġmod e
ck t
2 8
y er
Ġpro mo
ppe ment
Ġph ÃŃ
ĠÑģÐ²Ð¾ ÐµÐ¹
Ġuti lizza
æĹ¥ ãģ¯
Ġä» ¥
Ġpou voir
Ġpas ado
Ġp ela
ĠÅ¼e by
ãģĵ ãĤĮ
ze k
ĠãĤ· ãĥ£
Ġen d
åĭ Ŀ
ĠPro ble
ĠÑģÐ²Ð¾ Ñİ
Ġa que
ch io
ĠDz ie
ĠC Ã´ng
m ina
st wa
Ð°ÑĢ Ð¾Ð²
å¤ļ ãģı
ĠNo ir
da p
uf en
Ġth Æ°á»Ŀng
Ġ200 8
Ġsyst Ã¨me
p rze
Ġl ine
Ġservi cio
ĠÐĽ Ñİ
ab ile
ĠPol sce
Ġmo je
ÅĽ nia
ul o
Ġk onn
ãģı ãĤĭ
Ġc eux
Ġpo ko
Ġcam bi
ry wa
è© ¦
Ð°ÐºÑģ Ð¸Ð¼
u te
ĠÐ¼ÐµÑģÑĤ Ð¾
Ġes ti
ãģ ģ
ĠåĮ Ĺ
Ġpubb lica
Ġh eute
Y X
am a
Ġpoz iom
Ġï¼ Ĩ
ç® ¡
Ð°Ð»ÑĮ Ð½Ð¾Ðµ
ĠCh ar
ĠÐĴ Ð»Ð°Ð´
Ð°Ðº Ð¾Ð²
ce d
I T
Ġeff ec
ĠÐŀ ÑĢ
ãģ® äºº
Ġt al
Ġe lles
tu a
ĠÐ± Ð»Ð¸
Ġes cu
ĠG l
ion y
ĠÐ» ÐµÑĩ
ĠÐ½ ÐµÐ³Ð¾
v ento
ĠDam en
ĠAr t
Ġroz po
Ġsep tembre
Ġæľ ¨
Ñģ ÑĭÐ»
ĠÑĢÐµÐ³ Ð¸Ð¾Ð½
Ġan ci
æĿ ĳ
Ġa demÃ¡s
ĠãģĹãģĭ ãģĹ
Ġbas e
po zy
r um
ĠÐ½Ð°ÑģÑĤ Ð¾ÑıÑī
ĠG ro
ĠuÅ¼y tkow
Ġwe il
Ġk r
ĠÐŁÑĢ Ð¾Ð´
Ð¸ ÑĨÐ¸Ð°Ð»ÑĮ
á»Ł i
i esz
zza to
å¼ķ ãģį
ĠÃ© ch
stell ung
Ġuti li
ĠÐ¿ÑĢ ÑıÐ¼
Ġpoz osta
Ġå İ
as sen
ver o
Ġhtt ps
Ġdonn Ã©es
Ġcom men
Ð¼ Ð¾ÑĤ
cz nym
ĠS am
ĠÑģ Ñĭ
Ġno i
åº «
ãĥĥãĤ· ãĥ¥
c ono
ind a
ĠFo to
ĠãĤ ¬
por te
Ð¸ÑĨ Ð°
au d
us ch
Ðł ÐĲ
ĠÐ´Ð² ÑĥÑħ
Ġâĺ Ĩ
ãĤĴ è¡Į
Ġzak res
Ġï¼ ħ
ãĤĴæ İ
Ġob ec
Ġth o
ĠHo ch
ten ciÃ³n
Ġpeti te
Ġ. )
ĠÐ¼ Ð¾Ð»
g te
Ð½Ð¾ Ñģ
ĠT or
æĸĻ çĲĨ
en sioni
ci d
ĠÐ¾Ñģ ÑĥÑīÐµÑģÑĤÐ²
Ġu wa
ĠÐ·Ð°Ð² Ð¸Ñģ
ãģ® ãĤĤ
Ġkre dy
Ġtr ang
Ġ9 9
Ġpon ad
éģ ©
r ero
vi ent
Ð¾ÑģÑĤ Ð¾
ĠE L
ĠÑį Ð½
Ġhis toria
i fica
Ġpod e
Ġ3 6
Ġno ta
Ġza wi
ãĥ³ãĤ µ
Ġlin k
ãĤ¦ ãĤ§
Ġau jourd
ĠÐ¿ÑĢÐ¾Ð² ÐµÑĢ
Ġkon ie
Ã ļ
ĠÄĳ áº¡i
ĠÐ½Ðµ Ñģ
Ġs ca
Ġni Ã±os
Ñĩ ÐµÑĤ
ĠÑģÐ¾ÑĤ ÑĢÑĥÐ´
ĠCh am
Ġsich er
ĠÐ¿ÑĢ Ð¾Ñĩ
ĠW iel
å ´
ven ir
an ze
Ġme d
Ð¾Ð´ Ðµ
ĠB ere
ĠSt and
ĠdÃ© ta
Ġå® ¶
Ð± Ð°
Ġa gli
ĠnÃ© ces
äº ķ
ãģ®å Ĳ
m io
und er
ĠÐ¿ÑĢÐµÐ´ Ð»Ð°Ð³
Ġimport ante
Ġwiel u
tis ch
æ Ĳ
w s
Ġho ch
ĠÃ Ń
ĠÐĹ Ð°Ðº
ĠÐŁÑĢ Ð°Ð²
é«ĺ ãģĦ
Ġre tr
ĠÑĢÐ°Ñģ ÑģÐºÐ°Ð·
Ã¼n s
Ð»Ñı Ð´
Ã± as
Ġal tre
Ġf emmes
ĠÑģÑĤÑĢÐ¾ Ð¸ÑĤÐµÐ»ÑĮ
ĠÃ© l
Ġspo ÅĤe
ra gen
p ond
Ġv endre
C E
Ã® tre
Ġ3 8
ÐµÐ½ Ð·
kty w
åŁ Ł
Ġ} ,"
ĠÐ´Ð² Ð°
Ġprofes ion
onne ment
ĠR Ã¼ck
Ġespe cial
t out
od Ã³w
Ð»Ñı ÑĤÑĮ
ind et
Ġap lica
ĠÐ¿Ð¾Ð² ÑĭÑĪ
Ġv endita
ĠC i
Ð°Ð» Ñı
7 8
Ġcent re
ĠÐ¾Ð±Ð¾ÑĢ ÑĥÐ´
ka za
Ġspiel en
ĠF all
ĠÐ² Ð¾ÑģÐ¿
Ġgi áº£i
gen es
ĠÐ¿Ð¾Ð» Ð¸ÑĤ
Ġsu i
Ġv ente
Ġju illet
b ud
ÑĢ ÑĮ
ĠB uen
Ġde f
Ã© rÃ©
u ten
ãĤĴ ä½¿
b ol
Ð¸ÑĤ Ñĭ
ĠÃł s
Ġa quÃŃ
Ġh eure
j est
Ġçµ Ĳ
Ġposi ble
ĠÐ¾Ð± ÑĢÐ°ÑĤ
è¦ §
Ġdies en
Ð½Ñı Ñı
t tu
ron i
å¥³ æĢ§
Ġ ãģªãĤĵ
ãĥ¼ãĥ ķ
Ð½ ÑĥÑĤÑĮ
Ġur zÄħdz
Ġda zu
Ġb á»ĩnh
ĠA v
Ġp esso
ãģĹãģ¦ ãģĦãģŁ
ĠC H
ess age
ĠN r
ĠwÅĤa ÅĽnie
is tre
Ġfir m
ar ze
ĠÐ¼ Ð°Ñģ
Ð°ÑĢ Ð¾Ð´
Ġcomp ar
ar t
Ġbes ten
Ġnost ra
å² ¡
éĺ ²
Äħ dz
ĠV ia
c ce
ĠQu á»ĳc
ÐµÐ» Ð¸Ðº
z ug
p ol
Ġok re
ĠB ou
Ġno vembre
Ġalgun os
ÑĢ Ð°ÑĤÑĮ
Ġ ãģ§ãĤĤ
è ¥¿
Ġh u
ĠÑĤÐ¾ÑĢ Ð³
h in
Ð° ÑĦ
Ġna t
ak ter
æĿ ¡
x te
rÃ© sent
ĠÃ Ī
åī ¤
ãĤ¢ ãĥĥãĥĹ
æĶ ¾
Ġe lla
ĠdÃ© cembre
Ġse ul
ĠÐ½Ð°Ð· Ð²
dz ier
ĠD urch
Ġpre gun
al noÅĽci
i ciÃ³n
to wy
Ġph Ã¡p
Ġla ng
y ba
èŃ ĺ
Ð¸ ÐµÐ²
ĠÐºÐ²Ð°ÑĢÑĤ Ð¸ÑĢ
ci Äĩ
ĠSch ul
Ġf i
Ð¸ ÐµÐ¹
ĠIn tern
ÑĤ Ñĭ
Ð¼Ð¾ÑĤÑĢ ÐµÑĤÑĮ
æ§ ĭ
cyj nych
w Ã¤
ĠÐ¾ ÑģÑĤÐ°Ð²
Ġtrab al
ĠC ON
Ġj o
é Ĭ
Ġfin al
ĠÐ´ÐµÐ½ÑĮ Ð³Ð¸
Ð°ÑĤ ÐµÐ»Ð¸
Ġrep res
ĠA ll
Ġsz ko
ĠFo ll
Ġservi cios
ĠÐļ Ð¾ÑĢ
Ġãĥķ ãĤ¡
ĠT er
åį Ĭ
Ġpos iada
Ġd rei
urs os
Ġm Ã¡
ĠÐ¿ ÐµÑģ
ĠÐ¤ ÐµÐ´ÐµÑĢ
ÐµÐ½ Ð½ÑĭÐ¼
Ġi gu
Ġ4 8
ãĥį ãĥ«
Ġsi ng
kie go
Ġtr á»ĭ
ĠN el
ĠÐ±ÐµÐ· Ð¾Ð¿Ð°Ñģ
Ġus o
al d
ĠMer ci
1 00
le u
Ġz god
Ġl it
Ġkon ta
Ġein z
ĠÑĪÐº Ð¾Ð»
Ġho áº·c
il ia
ãĥ¼ãĥ ª
A CI
ues ta
Ġst ra
Ġed u
ĠfÃ©v rier
[ ]
qu oi
Ð°ÑİÑī Ð¸Ñħ
ãģ¦ ãģĦãĤĭ
ĠG ay
Ġd entro
Ġcas ino
wa re
for der
ma tique
ĠWy ÅĽwiet
Ġw a
åĮ Ĺ
ĠrÃ©p ond
Ġfor me
Ġsp or
olo gÃŃa
ĠÑģ Ð¸ÑĤÑĥ
Å ļ
l Äħ
ct ura
Ġm Ã³wi
ãģ¨ ãģĨ
éĽ £
Ġcel ui
ĠktÃ³re j
ĠM od
ĠÐµ Ð¼Ñĥ
n isse
Ġca pa
ĠÑģÐ²Ð¾ Ð¸
kl Ã¤r
åĳ ¨
ĠB y
ĠC Ã³
Ġn Ãº
ier a
ãĥģ ãĤ§
v ille
ãģ«ãģª ãĤĬãģ¾ãģĻ
Ġv Ã©
ĠÐ¿ Ð¸ÑĤ
ie f
Ġpon ie
ch nik
ĠÐ¿Ð» Ð¾Ñī
ve ce
ĠF in
Ġpo in
ĠÐ²Ñĭ ÑħÐ¾Ð´
Ð¸ÑĢÐ¾Ð²Ð°Ð½ Ð¸Ðµ
tori o
ãģ«ãĤĪ ãĤĬ
Ġas p
e ich
ĠÐĿ Ð¸Ðº
g le
ĠÐ²Ð¾Ð·Ð¼Ð¾Ð¶ Ð½Ð¾ÑģÑĤÑĮ
m Ã¤
ĠçĶ Ł
Ð² Ð°
ĠP i
Ġvo yage
j on
ĠQu Ã©
Ġav ere
Ġå £
çŃ ĸ
ĠÐ·Ð´ Ð¾ÑĢÐ¾Ð²
Ġgra cias
Ġj Ã¡
å Ŀ
ãģ« å¯¾
na hme
en da
ÑģÑĤ Ð°Ð½Ð¾Ð²
czy n
ĠwÅĤ os
ra re
ĠS E
un ta
ĠÐºÐ°ÑĩÐµÑģÑĤÐ² Ðµ
Ġal bo
ãģŁ ãĤī
Ã¤hr end
ãĥ³ãĥ ĳ
Ġseg ur
Ð°Ð¹ÑĤ Ð¸
æŃ ³
ĠÑĢÐ°Ð· Ð¼
Ġprodu ctos
Ġdes car
ter a
ĠÑĢ Ð°Ð±Ð¾Ñĩ
ãģ¾ ãģŁ
ĠÐ¸Ñģ ÑģÐ»ÐµÐ´
Ġpr Ã³
g Ãºn
.... ....
Ġb an
Ð Ń
ĠÑĥÐ´ Ð¾Ð±
sa ire
ĠÐłÐ¾ÑģÑģ Ð¸Ð¹
Ð»ÐµÐ½ Ð¸Ð¸
ãĥ¼ãĥ Ĭ
Ġv idÃ©
ian co
Ġservi zio
owiÄħ z
Ġãĥ Ķ
Ð¼ Ð°Ð½
Ġm io
ar si
ĠJ o
ĠÑĢÐ¾ÑģÑģ Ð¸Ð¹
ĠÑĤÐµÑħÐ½ Ð¾Ð»Ð¾Ð³
éł Ĥ
ĠÐºÑĢ Ð¾Ð²
ãģ®è ©
u le
ĠÑĢÑĥ ÐºÐ¾Ð²Ð¾Ð´
Ġmi ent
Ġf ak
Ð°Ð¶ Ð°
ç¢º èªį
ĠÐ½ ÐµÐ·
ĠF amil
Ġprac ow
Ġ ÅĤa
za Ã§Ã£o
sp iel
ĠAn t
ĠÐĿ Ð°Ð¿
ï¼Ĳ ï¼Ĳ
æ ¹
âĢ ľ
Ġdis p
ĠdÃ© s
ĠÐ² Ð¼ÐµÑģÑĤ
Ġk rÃ³
Ã «
Ġn ing
n Ã©
æĻĤ è¨Ī
ãģĮ ãģªãģĦ
ĠÐ¾Ð± ÑĭÑĩ
b as
ãģĭ ãĤĭ
lau b
vers idad
od en
Ġd Ã¹ng
Ġv in
Ġãģ ¤
ÅĤe j
isse ment
Ġver b
Ġcom b
Ġj Äħ
ç ĭ
in Ã©
Ã³ Åº
ĠS ol
Ġbeso in
ib ilidad
Ġï¼ İ
Ġãĥ Ĭ
ĠÐ´Ð¾ÑĢ Ð¾Ð³
Ġo tti
áº© n
Ġt on
ac ances
Ġnota mment
Ð¡ Ðļ
ï¼ ĸ
é º
Ġhab ita
Ð¸ÑĤ Ð°ÑĤÑĮ
ĠE le
å» º
char ger
Ġforma tion
Ġfam ille
cy d
Ġs os
Ġav ril
ÐµÑĢ Ð¾
c ine
ri ngen
Ġok res
c teurs
ãģĹ ãĤĥ
Ġä¸ į
Ġpro te
ĠV on
n elle
ma ge
ÑĢ Ñĭ
ä¸ĸ çķĮ
w orzy
Ġa si
f ort
vi ce
Ġa per
ĠCas ino
le ge
d s
ĠÐ´ Ð°
ÑĢ Ð¾Ð¼
Ġc ode
mar t
ÐµÐ» Ñİ
ĠNa cional
Ġs ens
ĠÑģÐ¾ÑģÑĤ Ð¾ÑıÐ½
c cio
Ġgiá» Ľi
Ġmient ras
il fe
Ġpho tos
Ġwo j
ĠÐ¿Ð¾ ÑįÑĤÐ¾Ð¼Ñĥ
do ch
ĠVo ir
ĠPri x
ãĤĩ ãģ£ãģ¨
ãģ¯ ãģªãģĦ
Ġm ul
ãģ®å ¥
Ġãģ Ĩ
is ation
Ġcon si
éĢ ±
cul ar
Ð¾Ð½ Ñĥ
åķı é¡Į
ven tion
Ġprodo tti
ug no
ĠÃ©le ctri
ĠR is
Ġabb iamo
Ġæ ¬
Ġ4 4
ĠÃª tes
ÑĢÐ°Ð½ Ð¸Ñĩ
ĠB ras
Ã¡ri os
den ti
Ġj ÄĻzy
åį ģ
Ġa ide
ta da
Ġsein er
Ġa se
Ġl ivre
Ð» Ð°Ð½
Ġstr ut
ĠsÃ©cur itÃ©
ãĥ© ãĥ³
ĠÐ·Ð°Ð½ Ð¸Ð¼
Ġk áº¿
Ã¡ m
Ġs Ã©rie
Ġj ug
Ġs vilu
ĠThe ma
Ġre tour
ert as
ĠProdu kt
lo ad
ĠInforma tionen
ĠÐ¿Ð¾Ð¼ Ð¾Ð³
Ġsie bie
b io
æĪ ¸
ãģ®å ¾
Ġste ht
ĠK re
Ġoc casion
ĠÐ½ Ð°Ð³
Ġprzeci w
r ut
bi anas
Ġseg Ãºn
ent en
x im
ĠÑįÑĤ Ð¸
st wo
ca re
æº Ģ
enn es
ĠÐ¼ ÑĥÐ·Ñĭ
Ð°ÐµÑĤ Ðµ
ãģĮ åĩº
ãģ® ä¸Ģ
Ġro bi
b et
Ġc entro
Ġschne ll
Ñĩ ÐµÑģÐº
r Ã³w
Ġservi zi
Ġha cia
Ġcar te
ĠÐĵÐ»Ð°Ð² Ð½Ð°Ñı
ĠÐ° Ð»
ĠB Ã¼
3 3
Ġs ort
Þ ¦
ï¿½ï¿½ ï¿½ï¿½
á»į c
ĠB esch
Ġse m
Ġä¸ ī
Ġè ³
f ique
ĠÐ¿ÑĢÐ¾ÑĦÐµÑģÑģ Ð¸Ð¾Ð½
Ġim mag
ĠW i
ĠãĤ ½
an den
Ð¾Ð² Ð°ÑĤÐµÐ»ÑĮ
Ġkh u
Ġsouv ent
tow ej
Ñı Ñħ
é Ł
r ad
Ã¤ ft
Ġ= "
ÐĿ Ðŀ
ĠÐ² Ð¾Ð¹
ar o
ĠH ol
ĠM al
Ġï¼ ŀ
ãģł ãģ¨
ĠN ero
Ġse mana
zy n
Ġm niej
Ġsc el
é ľ
lich er
Ġpro ceso
c ci
Ġç ¥
Ġin vestig
ĠÑĥÐ² ÐµÐ»Ð¸Ñĩ
om men
Ġcir ca
Ġkom p
Ġo ch
åĲĮ ãģĺ
ĠÐ´ÑĢÑĥÐ³ Ð¸Ðµ
Ġpo ja
ĠMe j
ĠC ont
ĠP utas
il lo
Ġbez pie
Ġreali zar
pr Ã¼
Ġcham bre
Ġa dap
ĠdÃ©c ouv
a Ã§Ã£o
CI 6
ien i
ÐµÐ» ÐµÐ¼
ech os
Ġæ ±
Ġren cont
æı Ĳ
ĠH Ãł
Ġnuest ros
Ġdifer entes
ĠÅ¼y cia
à ³
Ġlá»Ľ n
ĠÑģÐ¾ ÑĨÐ¸Ð°Ð»ÑĮ
ÐµÐ½ ÐºÐ¾
ĠÑĨ ÐµÐ½Ð°
Ġwir klich
Ġbes onder
cia lis
ĠÑĢ ÐµÐ´
Ġpre zzo
Ġfin ans
Ġresp ons
Ġcom paÃ±
un st
ĠrÃ© se
ĠãĤ ´
ĠI s
ĠÑĢÐ°Ð· Ð´ÐµÐ»
ĠÐľÐ¾ÑģÐºÐ² Ð°
ĠÐ¿ÑĢÐ¾ Ð¸Ñģ
åŃ Ĺ
Ġsul le
k ro
Ġåľ °
t tes
ĠW ei
Ġv ar
Ġcie ka
ĠA ug
Ġw aÅ¼
ĠB re
Ġao Ã»t
Ġsch Ã¶n
Ð°Ð· Ñĥ
Ġgio v
fol g
ei gne
Ġno ir
Ġ8 0
p Ã©
Ð¸ÑĩÐµÑģÐº Ð¾Ðµ
Ġpo czÄħ
Ġfre e
ĠMÃ© xico
Ġay ud
Ġqual itÃł
ĠéĽ »
f o
Ġfa ce
Ġunser er
ĠG eld
ĠÐº ÑĥÐ»ÑĮÑĤ
é¤ ¨
or gen
k oÅĽci
Ġmen o
Ġv ue
Ġæ ´
Ġdis f
Ġwel che
éĿ ŀ
á» ¹
Ġc ump
ĠC hr
Ġc la
Ġmar chÃ©
con Ã³mi
ĠÐ¼ Ð¾Ð»Ð¾Ð´
al ten
EN T
for m
Ð°ÑĢ Ñĭ
ie me
Ġsi mple
wa li
ĠÑĨ ÐµÐ½Ñĭ
ãģ®å Ĩ
ÑĭÐ² Ð°ÑİÑĤ
ĠC ons
Æ° ng
Ġou v
ĠdÃ©b ut
Ġsy tua
ĠwÃ¼r de
Ġp unto
æ¡ Ī
z ÄĻ
ĠP res
Ġle y
zza re
Ġdi a
ous e
ale ur
Ġå ķĨåĵģ
éĸ¢ ä¿Ĥ
Ġnh iÃªn
ti eren
Ġin vece
mo bil
Ġb ajo
Ġacc om
ĠCh a
ĠÐ½Ð°Ñĩ Ð¸Ð½
Ġqual che
Ġtu a
kow o
ĠçĽ ¸
al itÃ¤t
ĠÑı Ð½
ĠrÃ© du
ãĥĿ ãĤ¤ãĥ³ãĥĪ
Ġese mp
Ġwszyst kim
Ñı Ð³
Ġsur tout
ĠR E
Ġsal ud
Ðº Ñģ
Ġlu dzi
ĠPro je
Ġm acht
ãģłãģĳ ãģ§
us tr
Ġcad re
Ġa tÃ©
ĠÐ¿ÑĢÐ¾Ð´ Ð¾Ð»Ð¶
ien za
Ġgen au
Ġz ona
Ġä»Ĭ åĽŀ
op Ã©
æİ ¥
um mer
ĠÑĥ ÐºÑĢÐ°
Ġlle gar
ĠÑĢ ÐµÐ¼Ð¾Ð½ÑĤ
ĠÐ¸Ð³ ÑĢÐ¾Ð²
Ġz ÅĤo
gr und
ĠÐ²Ñģ Ñĳ
Ġha i
Ġp Ã©ri
es a
Ġdo tycz
ãģı ãĤīãģĦ
Ġgru po
Ġt ant
Ġle k
ãĥļ ãĥ¼ãĤ¸
ubb lica
Ġby ÅĤy
åıĹ ãģĳ
Ð½ Ð¸Ð²
Ġpres so
Ġgener al
fall s
l en
Ġdo cu
Å ĵ
Ð½ÐµÐ¹ ÑĪ
ro c
Ġczas ie
Ġsu jet
æķ ´
Ġdi r
Ġein mal
Ġtr ouve
ĠÐ¼Ð°Ð³Ð°Ð· Ð¸Ð½
ãģ§ãģ¯ ãģªãģĦ
Ð½Ð¾ÑģÑĤ ÐµÐ¹
rie ben
Ġsi Ã¨
nh o
Ġs etti
p ow
çĶ ³
ĠÑĥ ÑģÑĤÑĢÐ¾Ð¹
ĠJ an
ĠÐĹ Ð°
ĠH ome
Ġcon ten
ki ng
Ġjed no
ÃŃ vel
Ġè¦ ĭ
á»į ng
po li
è¾¼ ãģ¿
ĠO ber
ĠÐ¿Ð¾Ð¼Ð¾Ñī ÑĮÑİ
ette mbre
uo i
Ġni m
Ð¾Ð¶ ÐµÑĤ
ĠæĻĤ è¨Ī
ãģ« åĩº
Ġjue gos
Ġa ma
Ġse hen
Ġm ÃŃ
ica tion
ĠC er
sta wi
Ġl etto
cie tÃł
Ġspra wie
Ðł Ðŀ
ĠÐ½Ð° Ðº
çī Ī
v vero
Ġmuch as
es ten
ty czne
ĠÑģÑĩ ÐµÑĤ
ĠÐ¿ÑĢ Ð¾Ð¿
£ ãĤ³ãĥŁ
æī ķ
Ġa ver
Ġä¸Ń åı¤
éł Ń
ĠÐ² Ð¿
Ġpr Ã¨s
ĠÐ¿ÐµÑĢ Ðµ
ku ment
ãģ ¼
Ġcáº£ m
ĠD is
ll te
kow ych
Ñģ Ð¸Ñħ
ĠÐ¿ÑĢ Ð¾Ð¼
Ġnum ero
Ġa pr
ĠBes te
ãĥ¡ ãĥª
i nge
ĠÑħ Ð¾Ñĩ
ĠÐĲÐ»ÐµÐºÑģ Ð°Ð½Ð´
Ġx em
Ð°ÑĤ Ð¾ÑĩÐ½Ð¾
Ġ ÅĤ
Ġje der
Ġcomp os
åģ ´
Ġbuen a
Ġje doch
ĠIl s
Ġmus i
Ð ĸ
ĠÑĢ Ð°Ð²
Ġãĥ «
Ġdo v
Ġop iniones
Ġus u
ĠÐ¡ Ðº
Ġempres as
áº§ m
Ġ. -
Ġv enta
Ġmes es
Ñģ Ð¾Ð½
ä¸Ĭ ãģĮ
Ġz es
Ġsema ine
Ġde ber
Ð¾Ð» ÐµÐµ
Ġalle m
Ġkon k
Ġæ ³
Ġ uffi
Ġm elh
Ġn ic
Ġl ist
sion s
m Ã¶glich
Ð» Ð¾Ð½
Åº dzier
Ġs uf
7 5
ra in
Ġd onne
us i
Ġtr zy
æĶ ¿
9 0
Ġmeille ur
ĠS tre
Ġa ir
ĠÑĢ ÑıÐ´
Ġin ne
ĠÐ¿ Ð°ÑĢÑĤ
Ġsu oi
Ġch á»įn
ĠR en
Ġsi mp
ĠÐŁÐ¾Ñģ Ð»Ðµ
ãģ ľ
ĠR ec
it Ã¤
ĠlÃŃ nea
Ġp Ã¡g
ç© ¶
Ġs antÃ©
Ġa llo
ke hr
o tros
ĠÅ ĵ
Ä ĺ
Ġu zy
Ġthá»© c
Ġpare ja
æŀ ļ
Ġdes n
ĠÐŀ Ð¿
Ġf Ã¡
Ð¾Ð· Ñı
Ġw ichtig
ĠAcc ueil
or ation
Ġoper a
ãĥ ¦
Ġpor ta
ĠÐ¼ ÐµÑĢ
Ġ3 2
i Ã¨me
Ġor d
ãģĻãĤĭ ãģĵãģ¨ãģĮ
ĠÐ» Ð¸Ð½
y o
ĠÐľÐ¾ÑģÐºÐ² Ðµ
ĠÑĢÐ°Ð· ÑĢÐ°Ð±Ð¾ÑĤ
ĠÐĹ Ð°Ð¿
ĠâĢľ ,
Ġde ve
Ġw ska
c ter
Ġne go
_ c
Ð»ÐµÐ½ Ñĭ
Ġmar gin
ç Ĩ
uer to
Ð» Ð¾Ð¼
wi ÅĽcie
ĠH au
ene mos
Ġm iaÅĤ
cto res
ãģ® ãĤ¢
tto bre
on ces
ĠH omme
Ġch ose
ĠÐ²Ð¾Ð· Ð½Ð¸Ðº
r ia
ÅĤ ych
ng ono
p as
sta g
Ġs ommes
ĠÐº Ð°Ð½
Ġmu a
c ra
A C
S E
Ġcerta ins
Ġd ich
ÅĽ ni
Ġh and
ãĤĪ ãģı
fi co
ĠÑģÑĢ Ð¾Ðº
Ġc Ã¡i
ÑģÑĤÐ² Ð¾Ð¼
éł ¼
ĠK am
åħ ±
noÅĽci Äħ
ĠAl s
ĠÐ¿ ÐµÑĩ
Ġejemp lo
sI m
M D
Ġk ul
Ġa illeurs
ĠÐļ Ð¾Ð»
áº ³
åº §
ãģĭ ãģ«
Ġperson al
Ġg et
ĠâĢ ĭ
ĠÐµ Ð´Ð¸Ð½
Ġt Ã©c
Ġb Ã©nÃ©
Ġemb argo
Ġs toria
ĠS icher
uel a
cie l
ĠT ri
Ġper fec
ĠJu an
b or
Ð¸Ð² Ð°ÐµÑĤÑģÑı
° ¡
Ġcli ents
ĠÐ´ Ð½ÐµÐ¹
Ġv ou
Ġconta ctos
Ġesp ec
Ġje unes
ĠÐ¾ ÑĦÐ¾ÑĢÐ¼
ĠÑģ Ð¸Ð¼
to ra
gl ie
Ġç ľ
Ġdo anh
Ġinter nation
ĠÐ¼ Ð¾Ð½
Ġcen a
Ġmiejs ca
á» Ľ
ãĥĽ ãĥĨãĥ«
ĠT od
f ono
ĠÐ´ Ð°Ð»
Ãª s
Ġproy ecto
ĠÐ¼ÐµÑĤ Ð¾Ð´
Ġpropos e
ĠÅĽ wiad
Ġa po
ĠÐ´ ÐµÐ½
¨ ÐĲ
åĲ «
Ġcons ul
ĠG mb
ĠPo li
Ġt ay
ge ment
è¦ ĸ
Ġgra zie
Ġhe ures
Ġob ra
ĠespaÃ± ol
re zza
Ġç ¨
ĠAn d
ist ro
ch n
ĠD ien
åĽ £
illa ge
Ð¾Ð¼ ÐµÐ½Ð´
Ġs ym
ÑģÐº Ð°
Ġjue go
Ð¾Ð½ Ð´
Ã³ g
ol d
Ġtut ta
Ġbie tet
ib les
Ð¾Ðº Ñģ
ĠPol ski
ÅĤe k
Ġï¼ ł
ĠæĬ ķç¨¿
ãģĬ ãĤĬ
Ġt áºŃp
Ġweit ere
ĠÐĴ Ð¾
Ġf ont
Ġproble m
enn t
f ier
u ale
ĠP ue
ãĥª ãĥ¼ãĤº
ĠÐ¾Ð±ÑĬ ÐµÐºÑĤ
å® Į
Ġpi ano
Ġma ja
ĠÐºÐ¾ÑĤÐ¾ÑĢ Ð¾Ð¹
gl ÄĻ
Ġteng o
Ġde p
3 4
ul es
æĹ ©
w and
pp a
æ³ ģ
Ġinter no
l Ã¨me
Ġ áº£nh
Ġb lan
ti cias
00 åĨĨ
Ġè ī
Ġpoli tique
± æ¯Ľ
åĥ į
schl uss
ĠÐ¿Ð¾ Ñħ
le gen
ĠT Ã©lÃ©
ĠprÃ©s ident
Ġmis ma
ÑĢ ÐµÐ¶Ð´
ĠQues to
ãĥ©ãĤ¤ ãĥ³
an Ã§a
WW W
t ru
Ń ¦
k le
Ġihr er
ĠÐ¿ÐµÑĢ Ð¸Ð¾Ð´
Ð°Ð» Ñĭ
Ġex tra
ĠÐº ÑĥÑĢ
bar dziej
ĠÐĴ Ð°Ñģ
ĠÐ¸ Ð´Ðµ
ĠZ immer
ĠLeben s
Ġc elle
ĠA demÃ¡s
Ġz ami
Ġm entre
ĠÑģ Ð±Ð¾ÑĢ
Ġre pr
h Ã¶
ĠÐºÐ¾Ð½ Ðº
min ar
Ðº Ð°Ñı
Ġsou ha
ges te
Ġso li
ãĤ· ãĥ§ãĥ³
â Ĺ
ãĥĩ ãĥ«
ĠTr ung
Ġch ange
ĠÐ²ÑģÑĤÑĢ ÐµÑĩ
ãĤ¯ ãĤ»
Ġbus ca
ĠÐ± Ð¾Ð»ÑĮ
Ġpub li
Ð°ÑİÑī Ð¸Ðµ
Ġp ad
Ġç ¬ĳ
ãĥ³ãĥ ĩ
Ġnicht s
ĠD ar
Ġcu er
ĠCom m
Ġet c
ĠÑĤÑĢÐ°Ð½ ÑģÐ¿Ð¾ÑĢÑĤ
Þ¦ Þ
Ġqu Ã¡
ãģ¤ ãĤĤ
Ġkom ent
ier te
Ġv Ã©ri
Ġg ospodar
ĠÐ¿ Ð¾ÑĢÑĤ
Ð» Ð¸Ñı
es to
Ġä» ĸ
Ġdi v
Ġa cuerdo
Ġutilis ation
nh a
Ġdesarro llo
ĠÐ¿ÑĢ Ð¸Ð·Ð½
c ÄĻ
ind re
ti os
Ġsp az
Ġr ad
Ġãĥ ¦
iá»ĩ m
Ġog r
ĠGmb H
ĠD en
Ð»ÐµÐ½ Ð°
Ġgr Ã¢ce
âĶ ģ
ãģ® ãģ¿
ĠÑĦÐ¸Ð½ Ð°Ð½Ñģ
3 5
Ġtrav aux
Ġemplo i
b ach
ĠEn de
ĠC V
ĠPh o
ĠA prÃ¨s
ak i
mo re
tif ic
Ð°ÑĢ ÑĮ
n ow
Ġy Ãªu
?? ??
ĠÐº ÑĥÑĢÑģ
Ġper i
Ġf ut
ĠÐ»Ð¸ÑĪ ÑĮ
Ġli cz
Ġæ Ķ
ÑĢÑĥ ÐºÑĤ
Ã¤ng er
åĮ »
Ġt end
ĠÐĹ Ð´
ĠÑĦ Ð¸Ð·
çĹ ħ
Ġcon tr
u jÄħc
h eim
d ung
Ġesta ba
cia li
éļ İ
ĠÃ ĺ
ĠÂ º
Ã³ c
ĠÐ¿Ð¾Ð¿ ÑĥÐ»ÑıÑĢ
Ġan os
Ġdi ce
ĠÃ© ner
Ġå ģ
Ġha ber
äºº ãģ¯
Ġ Ã¡n
s icht
Ġl et
lo g
ding s
ĠÐ´ÐµÑıÑĤÐµÐ»ÑĮ Ð½Ð¾ÑģÑĤÐ¸
Ñĩ Ð°ÑģÑĤ
Ġp an
Ġæ Ģ
Ġv áºŃy
ĠÐ¾Ð¿ ÑĭÑĤ
an zia
ĠR Ã©s
Ġrec om
è© ķ
Ġcom pa
ÅĤ ow
al s
Ð¸Ð½ Ð¾Ð¹
ill as
z on
Ġn et
łĶ ç©¶
ĠFra uen
ĠÐ´ÐµÑĢ ÐµÐ²
ĠLe ist
Ġc in
ÑģÑı Ñĩ
å¯ Ħ
v on
Ã ¥
Ġth á»§
ĠPub licado
Ġl uego
éĽ ¢
nÄħ Äĩ
ĠÐ½ Ð¸Ñĩ
Ġrapp res
ĠÐº ÑĢÑĥÐ¿
Ġeur os
ĠE ng
ta ires
ei to
cyj ny
ĠD om
Ġ5 5
ÅĤu ma
tu bre
E L
Ġpop ula
è Į
è¼ ĥ
ĠÐ¿ÑĢ Ð¸Ðº
ĠM ay
ĠC ali
ĠI de
g abe
ï¼ ĺ
ç ĸ
ĠTr ans
ÐµÐ² ÑĢ
ĠÐºÐ¾Ð½ ÑĨ
Ġje dy
Ġv iv
ĠD ire
Ġe llo
Ã¶ ÃŁe
Ġt Äĥng
Ð» Ñĥ
Ġer halten
isten za
ĠczÄĻ sto
ĠÑĪ Ð¸ÑĢ
é£Ł ãģ¹
Ġseu lement
Ġsegur idad
al o
ĠãĤ³ ãĥĶãĥ¼
ãģı ãĤĮãĤĭ
ĠÐ¾ÑĢÐ³Ð°Ð½Ð¸Ð· Ð°ÑĨÐ¸Ð¸
79 66
Ġ07 7966
Ġv áº«n
ĠM ein
7 6
Ġp Ã©
Ð½Ð¸ ÑĨ
tif ica
ãģĭ ãĤĤãģĹãĤĮ
ĠPar t
Ñī Ñĳ
Ġprogra ma
se hen
Ġrisp etto
Ġdin ero
Ġm eu
Ġb elle
iss ant
Ġ ^
ĠâĹ ĭ
åĩ ¦
ĠV iel
est is
min istra
ĠÐ¼Ð¾Ð¼ ÐµÐ½ÑĤ
ÃŃ tu
ãģ£ãģ¦ ãĤĭ
ãģ¨ ãģ®
Ġg Ã©
ĠJ ue
sp rechen
ĠO s
li g
åĬ¹ æŀľ
° ·
ĠÐ°Ð´ ÑĢÐµÑģ
ĠB ad
ĠprÃ³ xi
Ġnat Ã¼rlich
âĢ ĭ
ç ħ
Ã¡m ara
ĠÐ³ Ð¾ÑģÑĤ
Ġt Ãłi
ĠF rank
Ġsa ber
ãģ®å¤ §
Ġam bi
Ġexper iencia
ĠBere ich
Z SI
Ġzd r
uf t
Ñĥ ÐµÐ¼
Ġrec ensioni
w iÄĻk
Ġparti ci
olo gia
d it
Ðŀ Ðŀ
Ð°Ð» Ð¾Ð²
Ġapp lica
ĠÐ¾Ð±ÑĢÐ°Ð· Ð¾Ð¼
oun t
ãģ®åł´ åĲĪ
kt ue
Ġinter na
Ġd ort
Ġch arge
p nia
Ġc á»©
ÐłÑ ķ
Ð½ Ð¾Ð·
Ġb lanc
s u
ÑĢ ÐµÐ²
cie mbre
Ġcer ca
Ġpod at
ç® Ĺ
scha ften
ti t
Ġutilis er
ĠB or
ãģ« ãģĹãģ¦
ãĥ³ãĤ »
ĠÐĿÐ¾Ð² Ð¾ÑģÑĤÐ¸
ĠÐ¿Ð¾ÑģÑĤ Ð¾ÑıÐ½
Ġapp ro
ka l
Ġãģĵ ãģĵ
Ġæ ²
éĻ º
de x
Ġi hn
Ġprogram ma
Ġprz est
ĠÐº Ð¾
ĠÐ¿ÑĢ Ðµ
d nie
Ñģ Ñģ
Ġw eiÃŁ
ĠdÃ©velo ppement
na io
âĢ¦ âĢ¦
Ġch u
ĠE ins
c ent
Ġele tt
ie mbre
ÐµÐ· Ð¸Ð´
Ġm ini
ro p
ÐµÑģÐ¿ ÑĥÐ±Ð»Ð¸
Ġfuer on
li ers
ici le
Ġz m
æ¶ Ī
1 æĹ¥
ĠÐĲ Ð´
Ð¸Ð² Ð°Ð½Ð¸Ñı
ste llen
Ġzaw od
Ġap ri
f ek
ĠdÃ© cl
ĠÐ´ Ð½Ñı
ĠM ai
Ġsta ti
ÅĤ ada
æı ´
Ġa ca
mÃ¤ ÃŁ
Î ¿
Ð¸Ð¼ Ð¾
Ġsá»ĳ ng
è²· åıĸ
å½ ±
ba ll
Ġp m
v illa
Ġpeli culas
Ġigu al
Ġf est
ĠÐļ Ð°ÑĢ
ÅĦst wo
Ġor den
ĠÑĩÐ°ÑģÑĤ ÑĮ
Ġattra verso
Ġs za
c Ã³
tig t
Ġè £
ierz ch
ãĥ¼ãĥĨ ãĤ£
Ġcas i
ç¿ Ĵ
Ġs ao
om mer
Ð½ ÑĥÐ»
t ina
Ġo kaz
a ine
Ð¿ Ð°ÑĢ
Ġw od
Ġau tor
ma cht
ĠÐ¿ÑĢ Ð¸Ð»
ta rio
Ġlie gt
ĠC re
Ġ Ñī
Ġpal ab
ĠÐ´Ð¾Ð»Ð¶ Ð½Ñĭ
Ġy ou
è¦ ļ
ĠH Ã¶
N G
uy á»ģn
nh eit
Ġcor so
Ġce le
Ġresp ec
ãģĺãĤĥ ãģªãģĦ
ä» »
ini Ã³n
Ġsi gni
Ġsz k
f eld
Ġb zw
Ñı Ñĩ
Ġk ons
Ġn Ã¤ch
ÑĢ ÐµÐ·
ãģĵ ãģĨ
ĠâĹ Ĩ
å½ ¹
Ġwp ÅĤy
ĠJ os
u tos
la uf
ĠC es
ãģª ãģĹ
Ġap ar
ĠÐ¾ÑĤ Ñģ
ãģ« ãģĭ
ĠM Ã¶glich
ran no
Ġpue des
Ġt ur
ĠÐ´ Ð°Ð»ÑĮ
ãĤĬ ãģĮ
ĠÐ¾Ð¿ ÐµÑĢ
ri ff
Ð´ Ð¸
å± Ģ
ri que
á» Ŀ
ĠG ut
ĠBil der
ĠÐ¸ ÑĤ
gra mm
Ġf abri
Ġm m
Ð¾Ð· Ð¼Ð¾Ð¶
Ġw or
å¥½ ãģį
Ġå¤ ĸ
Ġenf ant
Ð ħ
ĠÑĤ ÐµÐ±
Ġosob y
x e
Ð¸ÑĤ ÐµÑĢ
tar ia
ost rar
g rÃ©
Ġtr iá»ĥn
pt iembre
Ð°Ð½ Ð¸ÐµÐ¼
æ® ĭ
Ġmad rid
T R
Ġlle g
Ġc at
ni ct
Ġa llen
Ġwar un
é¡ Ķ
æ¥Ń èĢħ
ÑĢ ÐµÑĤ
Ġszczeg Ã³l
Ġ4 9
è¨ĺ äºĭ
era us
ãĥ¼ãĥ Ģ
Ġcol lec
ĠÐ¾Ð¿ Ð¸Ñģ
ĠÐ´Ð¾Ð»Ð¶ ÐµÐ½
so cia
Ġi o
Ġgiá» ¯
Ġe conÃ³mi
Ġalcun i
ãĤ¯ ãĥ©
Ġihr en
8 5
ĠÂ ©
7 4
sen ce
Ġmiesz k
Ġges tion
Ġjus te
Ġtak i
ĠÑģ Ð¾Ð³Ð»Ð°Ñģ
å¢ ĥ
Ġai me
Ġg ouver
ĠÐłÐ¾ÑģÑģ Ð¸Ñı
ĠPL N
cz nÄħ
c ando
au er
ĠÐ¡Ð ¨ÐĲ
ãģ£ ãģĭãĤĬ
è« ĸ
Ġnos otros
Ã¼n f
Ġemp le
Ġp iÄĻk
æł ¹
we is
ow aniu
æ° ı
Ã©d ia
Ġtr ud
ud io
le icht
lla tion
Ã§ as
ĠÐ³ Ð¾Ð»Ð¾Ð²
res o
Ġun ique
ĠÐ´ÐµÐ» Ð°ÑĤÑĮ
Ġvoit ure
« a
Ġbis o
ĠÐ¿Ð¾ÑĢ ÑıÐ´
Ġzosta ÅĤ
p re
ĠÐ½Ð° ÑĢÑĥÑĪ
uest ra
ti ert
ĠÐ¼ Ð¸Ð»
\ /
ĠnÃº mero
Ġpar la
Ġcomp Ã©
d W
Ġ") ,
Ġw ymi
Â ª
Ġmu á»ĳn
Ġwo hl
Ġpro ces
ĠWo chen
h rze
ma in
ĠÐĴ Ð°Ð¼
ĠG li
dzie Äĩ
le k
ãĤī ãĤĮãģŁ
Ġg as
Ġli p
Ġs mart
ĠÐ¿Ð¾ Ð¸ÑģÐº
a teur
Ġna praw
á» Ŀi
Ð°ÑĤ Ð¸
Ġpod ob
ĠP al
ĠÑģÐ¿ÐµÑĨÐ¸ Ð°Ð»Ð¸ÑģÑĤ
cie dad
c ours
ĠÐ¿Ð¾Ð»ÑĥÑĩ Ð¸ÑĤÑĮ
el Ã©
Ġæ¥ ½
Ġãĥĸãĥ© ãĥ³ãĥī
Ġæ İ
Ġes s
eu er
Ð°Ð² Ð»Ð¸Ð²
ne k
ora ciÃ³n
ĠåĲįçĦ¡ãģĹ ãģķãĤĵ
æº ĸ
Ġcomp ro
ĠÑģÐ²Ð¾ Ð¸Ñħ
iO i
Ġd anych
ti cia
ĠIn s
Ġp s
ag es
uy e
Ġs tycz
ĠÑĢÐ°Ð·Ð²Ð¸ÑĤ Ð¸Ñı
ÐµÑĢ Ð¼
gi i
vie mbre
ç ª
r ich
a mente
ĠÃ©c rit
ĠIntern et
ĠÐ± Ð°Ð·
ve is
schl ie
Ġl um
Ð¸ Ð³ÑĢ
ĠCh i
ãĥ ¨
ÅĽ rÃ³d
gen cia
Ġr ichi
Ġth i
ĠT op
ĠÐ¾Ð±ÑĬ ÑıÐ²
dz e
Z E
ĠW szyst
ãĤ¶ ãĤ¤ãĥ³
Ġsein en
ĠcÃ´ tÃ©
I I
Ġåħ Ī
Ġsz kol
áºŃ u
Ġrec ono
Ã¶r per
Ġc iÄĻ
Ĵ °
ÑĢ Ð¸Ð´
Ġgior na
áº¡ m
Ġentrepr ises
Ġmes mo
eb rero
bo ok
Ġ200 7
Ġar tis
Ġ) ;
åº ľ
Ð»Ñı ÐµÑĤÑģÑı
gent ina
fer encia
w alt
} ,
Ġch or
c tÃ©
Ð½ Ñĥ
ĠF rei
Ġm or
ĠEs tado
uni cip
Ġre d
ÑĤ Ð¸Ðº
ĠÐ¿Ð¾Ðº Ð°
Ġje den
çĶŁ æ´»
Ġte il
alitÃ© s
ĠO u
ĠY o
ÃŃ cula
Ġh Ã©
Ð¾Ð» Ð¾
Ġå¹ ³
æĽ ¿
ãģĪ ãģŁ
Ġmer cado
Ġh aut
Ġste hen
Ġpos to
Ġal ta
Å¼y Äĩ
çŁ ³
a je
m eld
it ur
ti l
Ġe inge
Ġacc ueil
jaz d
Ġsi tio
zion ali
Ġl iÃªn
Ġprob lÃ¨me
g et
Ġda ta
Ġ( )
ĠãģĿ ãĤĵãģª
ãģķãģĽ ãģ¦
ĠÐ¾ ÐºÑĤ
çĽ¸ è«ĩ
ĠU N
ĠTam biÃ©n
ï¼ ī
Ġfal se
ï¼ Ĺ
ĠçĶ ·
æ¬ ²
Ġw ith
æĸ¹ ãģĮ
Ġ) {
czy na
ere z
ĠÐ· Ð°Ñģ
Ġfam ilia
pe j
u do
æĢĿ ãģĦ
ÐµÐ² Ð¾Ð¹
Ġli ber
ri ft
ĠÐ½Ð°Ð· Ð°Ð´
Ġè ĭ
ĠB est
ĠMais on
Ġob jet
Ñı Ð»
ĠR ei
ĠEs to
ĠÑĥ Ð»Ð¸
ï¼ ļ
åīį ãģ«
wa hl
wÃ³ r
ĠÐ³Ð» Ð°Ð·
ÅĽ niej
I R
Ġv acances
Ġ7 0
Ġser ont
ÐµÐº Ð°
ĠTe am
ĠM ode
Ã©ri que
Ġd Æ°á»
wo hn
ec tos
3 6
Ġf ran
ĠÐ´Ð² Ð¸Ð¶
ãģı ãĤĬ
Ġeff ica
ĠC our
é Ĥ
c tif
Ġdist in
ĠÐºÐ¾Ð¼ Ð½
b n
Ġg odz
Ð¾ÑĤ Ð¾
tar beit
Ð¾Ð± Ð¸Ð»ÑĮ
Ġprog etto
ĠÑĤÐ°Ðº Ð¸Ðµ
³ ç´°
ag no
rei ben
ãģĭ ãģĳ
Ġconc ern
ali z
Ġbamb ini
Ġj ardin
Ġbes ser
Ġå ŃĲ
G E
ment ation
G V
cy z
Ġlist _
O UR
Ġpar ce
Ã§ os
Ġç ¶
a ter
Ġs il
ç´ ¢
ĠÐ´ ÐµÐ¿
Ġth Æ°Æ¡ng
Ġge hÃ¶r
Ġr end
Ġer o
Ġfam ili
ĠÐ¿ÑĢ ÐµÐº
ãģł ãģĭãĤī
é¡ĺ ãģĦ
ãģ¾ ãģ¾
Ġdo ÅĽwiad
Ġpas ser
Ġå¹ ´
ĠÐ½ ÐµÐ¹
Ġter ri
ia le
Ġãĥĸãĥ© ãĥĥãĤ¯
æĹ ı
M E
3 9
ĠDÃ© c
oni ble
ĠÐºÐ¾Ð¼Ð¿ ÑĮÑİÑĤ
Ġz usammen
ĠÃ©ta t
Ġlav or
tow ych
ÐµÑĢ Ð¾Ð¼
ĠÄĳá» ķ
ĠÐ·Ð°Ðº Ð»ÑİÑĩ
ĠCu ando
en en
Ġri ce
Ġbe m
Ġen vo
ĠÐ¿ÑĢÐ¸ Ð¾Ð±ÑĢ
Ġle gg
Ġd wa
Ġdire kt
ci ar
Ġt itre
ĠEuro pe
Ġtec n
ĠÑĩ ÑĥÐ²
c ura
z er
ans tal
ĠÑģ ÐµÐ·
Ġm Ãº
ãģĻ ãģİ
al y
Ġh ora
Ġf is
ãģ®å ŃĲ
Ġa do
Ġt Ã¬m
Ġmat Ã©r
tiv en
Ġnouve lles
ĠãģŁ ãģł
Ð¾Ð¶Ð´ ÐµÐ½Ð¸Ñı
ãĥ³ãĤ¿ ãĥ¼
Ġmin utes
Ġin ten
ĠãĤ¢ ãĤ¤
ãĥ³ãĤŃ ãĥ³ãĤ°
Ġ äººæ°Ĺ
é£ ²
Ð²ÐµÑĢÐ¶ Ð´
own load
sch n
ĠPol ska
tycz nie
ĠF ach
m Ã³
m el
Ġu p
Ð¼ÐµÐ½ÑĤ Ð°ÑĢ
ãĤĴ ãģĻãĤĭ
_c rop
ĠÑĤ ÐµÐºÑģÑĤ
ĠVers and
ĠTe le
ĠÃ© lÃ©
Ġde cis
Ġv u
ĠÑģ ÐµÐº
ÅĤ oÅĽci
ãģ« ãģĤãĤĭ
ĠÐ´ Ð¸Ð·
Ġcon ne
ĠKom ment
ĠÐ¾ÑĤÐ·ÑĭÐ² Ñĭ
ĠÐ¼ Ð¸Ðº
Ġm l
kt ur
gu ar
Ġsais on
un o
ĠÑĤÑĭ ÑģÑıÑĩ
Ġtak ich
Ġinf atti
Ã¶ ÃŁ
Ġb ao
Ġp amiÄĻ
Ð¾Ð¿ÑĢ Ð¸ÑıÑĤ
is er
Ġma teria
Ġis so
ff re
è¦ ª
te gor
ĠÑĤ Ð¾Ñĩ
b lis
Ġarty ku
Ġsz tu
ĠÐ¿Ð¾Ð´ Ð³Ð¾ÑĤÐ¾Ð²
ä¹ ħ
Ġfin an
ãģ®å ī
Ġinforma cji
ol tre
Ġãģ© ãģĨ
ãĤī ãģĹãģĦ
ÑģÐº Ð¸Ð¼
ĠK unst
Ġb ut
ï¼ Ł
la y
ãģ® ãģĤãĤĭ
Ġr Ã¡p
ĠA pr
wal a
Ġd or
ĠZ um
ĠÐ° Ð¿ÑĢ
un ku
Ġb Ãłi
ĠÐŁÐµÑĢ Ð²
Ġ4 6
ãĥĪ ãĥ©
ard s
ti llas
ta mos
Ġlo g
Ã Į
Ġm ang
Ġgu te
ĠÑĤ Ð¾Ð½
ĠÑħÐ¾ÑĢÐ¾ÑĪ Ð¾
Ġdo bre
ĠPl atz
Ġw rze
Ġres taur
Ð¾Ð±ÑĢ Ð°Ð¶
Ã³ ry
ck s
ä¹ ³
ure au
Ġcon fer
Ġen er
Ġge ben
æĢ ¥
ĠR ou
ĠÑĢ Ð°Ð´
Ġmes ure
ĠÐ¾ÑĤ Ð¿ÑĢÐ°Ð²
ãĥĪ ãĥ¬
Ġger ade
mi ast
åı į
st Ã¼ck
Ġtr á»įng
Ġpres idente
id s
ĠM ann
ÑĥÑĢ Ð½
Ġcel u
par ation
ÐµÑĢÐ± ÑĥÑĢÐ³
Ã¡ b
Ð¾ÑĢ ÑĥÐ¼
å¸ ¯
ĠÐ¿Ð¾Ð½ Ð¸Ð¼
Ġlle var
Ġas sez
li ci
ĠSh op
Ġd ara
o le
ĠÅĽ wiet
Ġval or
Ġmay o
Ġr odza
ĠÐ»ÑİÐ´ Ð¸
Ġa inda
Ġorig in
k us
ĠS to
Ġach at
ãĥ¼ãĤ³ ãĥĶãĥ¼
Ġç¾ İ
Ġna v
ĭ äºº
Ġw Ã¤re
Ġl ado
ĠGra cias
Ġjak oÅĽci
Ġele ct
ĠN utz
Ġæ¥ Ń
åĨ į
á»ĵ n
ÐµÐºÑĤ Ð¾ÑĢ
ĠZ d
at ura
Ġnombre ux
ÑĢ Ð¾Ðº
ĠÑģ ÑģÑĭÐ»
ĠÐ± Ñİ
C OM
Ġprze pis
b uch
ĠSe p
ĠÐĵ ÑĢ
Ġfol gen
Ġc res
ĠM Ã¼n
ĠH ei
Ġprodo tto
Ġdo kument
å± ķ
ant as
Ġp yt
Ġcz ar
am enti
gos to
pi Äĩ
vie w
ä¸ İ
ĠÐļ Ð°Ð·
ĠÐ¾Ð± ÑĥÑĩ
Ġmar zo
Ġ ung
min y
Ġe lement
Ġr á»ĵi
ĠÑĢÐ°Ñģ Ð¿Ð¾Ð»Ð¾Ð¶
c ta
ut zen
Ġcul ture
åĢ Ł
Ġgia o
Ġé£ Ł
Ġmus ica
Ġczy m
Ġs or
ãģ® ãĤĪãģĨãģª
Ġdi f
li we
ĠÐ¿Ð¾Ð¼ ÐµÑī
Ġsmart _crop
ĠÐ¾ÑĦ Ð¸ÑĨÐ¸Ð°Ð»ÑĮ
Ġco lla
li en
ens ione
Ġl áº§n
ĠâĢ ĺ
Ġnun ca
Ġcontin u
âĢĭ âĢĭ
Ġæµ ·
un idad
ĠÐºÐ¾Ð»Ð¸Ñĩ ÐµÑģÑĤÐ²Ð¾
Ġm ia
Ġser ie
Ġe ux
Ġte ma
ĠG ru
Ġno che
ci pa
è· ¯
Ġr und
Ð¸Ðº Ñĥ
ti ent
Ġcl assi
ia ge
ĠÐ¿ ÑıÑĤ
ist rz
ĠFra ge
Ġ3 7
Ġ7 5
Ġfa Ã§on
â ĸ
ãĤĴ ãģĶ
ĠEsta dos
le tz
c ow
è²· ãģĦ
åħ¥ ãĤĮ
il o
ĠÑįÑĦÑĦ ÐµÐºÑĤÐ¸Ð²
ãĤĬ ãģ«
ãĤĴ ãģĹãģ¦
ĠÐºÐ¾Ð¼Ð¿Ð» ÐµÐºÑģ
ĠÑģÐ¾ ÑħÑĢÐ°Ð½
cz ych
ãģĮ ãģĤãĤĬ
áº³ ng
ver no
ut ter
Ġb el
ÐµÐ» ÐµÐ½
ĠÐ²ÐµÑĢ Ñģ
ĠÐ´ Ð¸ÑģÐº
Ġsp rz
Ġ4 3
iel le
Ġch yba
ĠS ec
ene z
ĠÑĦ Ð°ÐºÑĤ
ĠÑĩÐ°ÑģÑĤ Ð¸
ãģ§ãģį ãģªãģĦ
Ġdo c
Ġdi ri
Ġk wiet
ª å¼ı
è¶Ĭ ãģĹ
ãģ§ ãģ®
iáº¿ u
ĠWarsza wa
ÄĻ dzie
U N
p le
odz enia
Ġs d
Ġï¼ ĵ
ãģ®æ Ħ
Ġbe f
ĠÐ²Ð¾Ð· ÑĢÐ°ÑģÑĤ
Ġqu er
Ġdes ta
é¦ ¬
p el
cze ÅĽniej
Ġt enemos
Ġcons ider
Ġan ti
ĠÐ½Ð°Ð¿ Ð¸Ñģ
Ġ$ (
Ġå½ ¼
Ġprogram me
Ġcor ps
ĠÐ·Ð°Ð´ Ð°Ñĩ
ÑĤ Ñĥ
ÂµÃ Ħ
Ġtá» ī
Ġger ne
ĠÐº ÑĥÐ¿
Ð¾ÑĢ Ð¾Ð¶
Ġz arz
ĠGesch Ã¤ft
ie u
Ġda fÃ¼r
Ġb Ã¡o
ĠÐ¿ÑĢÐ¸Ð½ Ð¸Ð¼
Ġproble mas
Ġderni Ã¨re
Ġh Ã¶
ĠÐ¼ÑĥÐ¶ Ñĩ
ĠÐºÐ°Ð¶Ð´ ÑĭÐ¹
ty ka
ĠexpÃ©ri ence
ĠÐµ Ð²
Ġdzie ÅĦ
re cht
æ¥½ ãģĹ
la ck
Ġeur opÃ©
Ð¾Ð· Ð½
Ġãģ ¿
ãĥĭ ãĥĥãĤ¯
Ġs ob
çķ °
ĠS ono
Ġmin utos
ĠF er
ĠÐ¾Ð´ Ð½Ð¾Ð¹
we g
ĠS y
rais on
Ġth Ã©
Ġsu ll
Ġcam bio
Ġz ost
k tion
ĠÑĩ ÐµÐ³Ð¾
Ġso i
Ġb iá»ĩt
ĠL ei
ĠÐ¶Ð¸Ð·Ð½ ÑĮ
v ista
Ġm amy
Ġsi er
Ġdesarro ll
ĠD r
ĠN uo
Ġwo llen
Ð¾Ð» Ð°
Ġspo tk
ĠA ch
Ġç§ģ ãģ¯
Ġf eu
ãĤ¢ ãĥĹãĥª
ĠÐ°Ð´ Ð¼Ð¸Ð½
Ġnaj bardziej
ĠÐŀÐ´ Ð½Ð°ÐºÐ¾
u di
¿Ģ å®ī
è» ½
Ġbe kann
Ġh ommes
b ym
Ġpa Åºdzier
Ġç ©
Ġqu oi
Ġesemp io
by wa
Ġl iste
ĠSer vi
å´ İ
ãģĮ ãģĤ
Ġè Ĥ
Ġla iss
°¡ åįĺ
Ġrela ciÃ³n
Ġh Ã³a
ĠÑĤÑĢ Ð¸
Ġt ito
Ġjourn Ã©e
Ġd ow
Ġjun io
Ð´Ð° Ñĩ
ãĤĮãģ¦ ãģĦãĤĭ
Ġpri m
ub e
Ð» ÐµÑĩ
Ġes ter
zei gen
ĠHer ren
h mer
k ten
Ġm ano
Ã©ri ca
Ĺ ¤
Ð°Ð»ÑĮ Ð½ÑĭÐ¼
ĠH am
æĺ ł
en nen
Ġa ktu
ÑĢ Ð¾Ð½
å¡ Ĺ
ĠÐ¾Ð±Ð»Ð°ÑģÑĤ ÑĮ
ĠC os
ãģĵ ãģ¡ãĤī
Ġç ģ
Ġsmart_crop _
ÑĢÑı Ð´
i i
ä»ĺ ãģĳ
ÑģÑĤÑĢÑĥ Ð¼ÐµÐ½ÑĤ
Ġan terior
le il
Ġnost ri
ĠdÅĤu go
Ġr in
ĠÐ¾Ñĩ ÐµÑĢÐµÐ´
Ġvo ll
Ġfu era
ĠÐŃ Ðº
Ġf ort
éł ĥ
gli ere
ĠÑģÐ¾Ð± Ð¾Ð¹
Ġth á»ĳng
Ġmar ca
ĠArbeit s
ĠF unk
Ġd Ã¨s
Ġpropr ie
Ġp Ã³ÅĤ
Ġletz ten
Ã¨ te
ĠG ener
Ġproble ma
ãģ®å ĩº
Ġta ille
Ġreali z
å± Ĭ
ĠprÃ© f
ãģĦ ãĤį
ĠÐ½ Ð¸Ð·
ĠNe gro
eb bra
ãĤĵ ãģ©
Ġes cort
Ġcon ver
ĠP ierre
Ġc ade
Ġmar que
ebbra io
Ġth Ãªm
etto re
b l
Ġpar ten
Ġf rais
ĠÐ½ Ð°Ð¹ÑĤÐ¸
hl er
Ġe ig
Ġpas se
ier ra
ĠÑĥÐ· Ð½
on nen
Ġngh Ä©
Ġg ag
Ġnasze j
ĠÑĢÐµÐ¶ Ð¸Ð¼
Ġch ce
le it
au en
ĠÐĶ Ð°
Z Y
Ijo i
w nÄĻtrz
ĠI mp
ĠÐ´ ÑĥÐ¼
Ġ' ,
de z
cu ola
Ġmo c
Ð¸Ð² Ð°ÑİÑĤ
Ġmu zy
Ġro k
Ġpare ce
Ġan al
ĠJos Ã©
Ġde ta
f il
an ni
u k
ĠS P
Ġstron ie
Ġper Ã²
Ġcompr ar
dos e
ĠK auf
ĠJu li
ĠÑĢÐ°Ð±Ð¾ÑĤ Ñĥ
ttu tto
Ġspe cjal
d et
Ð² Ð¾
ãĤĬ ãģŁãģĦ
ĠM ich
Ġmain tenant
ç· ¨
ĠA h
ĠBras il
ch ÄĻ
è °·
mer y
ĠÑģÑĢ Ð°Ð·Ñĥ
Ġse us
Ġdis pon
Ġãĥ ļ
Ġl á»±c
ĠÐ¿ Ð¸Ñģ
ze u
os es
ĠÐ°Ð²ÑĤÐ¾Ð¼ Ð°ÑĤ
ĠÐ¿Ð»Ð¾Ñī Ð°Ð´
çĻ» éĮ²
r era
p unkt
Ð°Ñģ Ð¸Ð±Ð¾
ĠÐ± Ð°Ð»
ZI ONE
Ġsc or
æĻĤ ãģ«
ĀĀĀĀĀĀĀĀĀĀĀĀĀĀĀĀ ĀĀĀĀĀĀĀĀĀĀĀĀĀĀĀĀ
v ado
ar od
Ã¤h ri
Ġl arge
ĠÑģÑĤ Ð°Ð»
å¤ «
Ġins ieme
Ĭ ±
Ġb ol
Ġcontro l
Ġda te
ãĥ¼ãĥĸ ãĥ«
ĠÐ¼Ð°Ð³Ð°Ð· Ð¸Ð½Ðµ
ĠÐ¼ Ñĥ
Ġs el
Ñĩ Ð¸ÑĤ
æİ ¢
zn es
Ġacc Ã¨s
ĠGe mein
ĠÐºÐ¾Ð¼ Ð°Ð½Ð´
Ġin ser
æľ Ŀ
Ġtr á»Ł
Ġn ier
Ġac er
m ber
m Ã©e
ĠR ic
a te
Ġch odzi
ãģ§ãģĹãĤĩãģĨ ãģĭ
Ġkonn te
èĢĥ ãģĪãģ¦
ĠÐ¿ Ð°Ð¼
Ġs iamo
Ġter m
ĠC ie
ĠL ub
or z
ĠÑģ Ð¿ÑĢÐ°Ð²
Ġnie j
wick lung
ĠÐ¿ÑĢÐ¸Ð¼ ÐµÑĢ
ach e
ãĥŃ ãĥ³
Ġus ÅĤug
æĬ Ģ
ab ilidad
Ġtemp or
la ng
å¤§ åŃ¦
Ð³ ÑĥÑģÑĤ
c itÃł
ĠczÅĤ owie
ĠJ uni
Ġs Ã»
Ð½Ð¸ ÑĨÐ°
ĠÐºÐ¾Ð½ Ñģ
li k
Ġra mach
ĠÐ¿ÑĢÐµÐ´Ð¿ÑĢ Ð¸ÑıÑĤ
ĠÐ½Ð° ÑĥÑĩ
ï¼ Ļ
èĪ ¬
Ġlib ro
) .
Ġr Ã¨
Ġfaz er
ĠO k
ĠE mp
Ġuti liz
ÐµÐ» Ð¾
Ġo l
Ġni es
ĠÅ¼y cie
Ġgro ÃŁ
ĠÃ İ
ĠÄĳ áº¥t
ĠÐ¾Ð±Ñī ÐµÑģÑĤÐ²
ci da
ãĥĬ ãĥ¼
ĠÐ¡ Ð°Ð½
Ġse mb
I n
Ġszczeg Ã³ÅĤ
ben d
ĠZ ak
ki er
ãĤī ãģ«
us to
ĠS ac
Ġacc ord
ĠF ir
om ini
ĠG obierno
Ġu b
ãĤģ ãģŁ
ĠWe g
Ġs are
Ð¾Ð± ÑīÐµ
ĠÐº Ð¼
cze k
ĠpiÃ¨ ces
ko ÅĦ
ĠP rÃ©
Ã¨ tres
ĠV ol
Ġ ÅĤat
ra to
æ ¢
éģķ ãģĦ
r ÃŃa
Ġver fÃ¼
az z
çĦ ¼
Ġparticol are
ĠÐ´Ð¾ÑģÑĤ Ð°ÑĤÐ¾ÑĩÐ½Ð¾
ĠR os
çµĮ é¨ĵ
Ġlive llo
U S
is iÃ³n
Ġti Ãªu
Ġvis ite
Ä Ħ
T Y
Ġsyste m
ĠH al
y j
Ġa tra
ĠÑįÑĤ Ð¸Ñħ
Ġmer cato
ãĤĦãģĻ ãģĦ
ra t
Ġdonn er
ĠE T
jou ter
Ġpres enta
Ġrep rÃ©sent
è² ł
tem ber
Þ °
Ġch á»ĭ
ĠGr and
men o
ĠÑį Ð»ÐµÐ¼
k oÅĽÄĩ
Ġge hen
ĠãĥĲ ãĥĥãĤ°
èĬ ±
Ġu 00
Ġinforma tion
Ġãģ »
5 5
Ġv ais
ĠÑĤÐ°Ðº Ð¸Ñħ
ux e
áº¯ m
reich en
Ġactiv itÃ©
om a
ĠÐĴ Ð¸Ð´
ĠÐ¼ÐµÑĤ Ð°Ð»
Ġver so
Ġach eter
ĠÑģÐ²ÑıÐ· Ð¸
Ġf ich
ri Ã¨re
Ġczerw ca
it zen
mobil ier
Ġwer s
Ġser ait
Ġcen y
ä¸ĭ ãģķãģĦ
2 00
ĠS Ã£o
Ġesp anol
Ġsegu ir
ĠÐ¿ÑĢ ÐµÐ²
ĠI ni
ĠÂ µÃ
Ġv áº¥n
Ġv ÃŃ
Ġr ue
Ġjed n
tive ment
ĠÑįÐ»ÐµÐºÑĤÑĢ Ð¾Ð½
Ġnav ig
çµĲ æŀľ
I G
Å »
Ġjes tem
Ġwy glÄħda
ter s
Ġsigui ente
Ġwen ig
ÐµÑĤ Ð¾Ð²
Ġty god
Ġdi ciembre
Ġp in
Ġé ĥ
Ð°Ðº ÑĤÐ¾ÑĢ
Ġgus ta
to res
Ġme glio
æ² ¢
åĽ ²
Ġpo Å¼y
Ġpo ch
Ġoc tubre
Ġ1 er
ĠÐ¾Ð± ÑĢÐ°Ñī
ol f
ĠEr fahr
ĠÐŁÑĢ Ð¾Ñģ
AL E
g ato
gu ir
Ġdisf ru
Ġdev ant
ĠÐ° Ð±
ĠÄĳ Æ¡n
ig lie
ãģĻ ãģĲ
Ġab ril
Ġus t
ĠE du
ĠÑĢÐ°Ð· ÑĢ
Ġo fi
ĠRe ise
Ġima ges
Ġmilli ons
ĠåĨ ħ
ĠãĤ¯ ãĥŃ
ãģ© ãĤĤ
Ġli bre
ãģ£ãģŁ ãĤĬ
Ġc itas
Ġv Äĥn
us iÃ³n
Ġl uo
Ã³ s
ĠÐ½Ð°Ð¿ ÑĢÐ¸Ð¼ÐµÑĢ
Ġag it
èĪ Ĺ
æĽ ²
dzi Äĩ
Ġan un
ĠSch la
ĠÐĺ Ð³
ĠÐ±Ñĭ Ð²
ãģ§ ãģĬ
ãĤ¸ ãĤ§
ĠÑģÐ¼Ð¾ÑĤÑĢ ÐµÑĤÑĮ
Ġlo i
ĠÐ´ÐµÐº Ð°Ð±
ĠÐ² ÑĢÐ°Ñĩ
pues to
Ñį Ð½
ÅĤ ÄĻ
Ġbez p
Ġb out
Ġincl uso
Ġprop re
Ġein ige
g Ã³w
Ġæ ¨
en dere
Ð¾Ð± Ð¾Ð´
ir s
Ġpod staw
jÄħ ca
ĠãģĵãĤĮ ãģ¯
Ġpr Ã¡c
Ġc ri
Ñģ Ð°
Ġz de
ĠBeit rag
pl atz
Ġm ort
Ġin wes
Ġop is
Â ¹
Ġho áº¡t
Ġh Ã¤t
Ġne gli
2 V
Ġmies iÄħ
ĠÐł Ð°Ñģ
ĠCÃ³ mo
de p
ĠÐ¿ ÑģÐ¸Ñħ
ĠÐ¸ÑģÐ¿Ð¾Ð»ÑĮÐ· Ð¾Ð²Ð°ÑĤÑĮ
ĠL in
Ġt Ãªte
ĠkaÅ¼ dy
ĠÅ¼ ad
Ð½Ð¸Ð² ÐµÑĢÑģ
Ġh t
é ī
ig keit
ĠNo tre
Ġnu it
odi ce
ä¼ģ æ¥Ń
Ġartic olo
Ġcara cter
ri ca
å½ĵ ãģ«
åį °
ĠÐ½ Ð°Ð»Ð¾Ð³
è¿ ½
ĠBe ispiel
Ġop ort
ĠPub liÃ©
Ġcham bres
Ġth at
Ġa fec
Ġsta tt
Ġcar atter
Ġza ba
ĠÐ¿Ð¾ÑĤ Ð¾Ð¼Ñĥ
Ġma ter
enn ent
Ġczy n
Ġsemp lice
pr asz
ZSI 6
Ġbud ow
æ°Ĺ ãģĮ
ĠÐ¿ÑĢ Ð¸ÑĢ
å¤§ ãģį
te dy
Ġ5 4
Ġpr is
ãĥĻ ãĥ«
Ġgiá» Ŀ
f Ã¤
Ġs vol
Ġele g
a W
Ġstycz nia
ĠMad uras
isten cia
Ġmie Äĩ
Ġver sion
Ð°Ð½ Ð½ÑĭÐµ
ĠR ad
Ġpoin ts
ãĥĸ ãĥŃãĤ°
Ġbe g
ĠÑĢÐµ Ð°Ð»Ð¸Ð·
Ðł Âµ
Ð¾ÑĢ Ð¾Ð½
Ġæ ¸
Ġnavig ation
ãĤ¹ãĥĨ ãĥł
Ġen fer
Ġvol te
Ġæ¬ ¡
ĠÐºÐ°Ðº Ð¾Ð¹
ĠÂ ¦
ĠÐ· Ð°ÑģÑĤ
ç Ī
Ġcab e
Ġk am
Ġ5 9
ĠdiffÃ©r ents
ĠÐº Ð¾Ñģ
Ġcal le
ien tos
Ġk ry
ãģĬ ãĤĬãģ¾ãģĻ
Ġæ° Ĺ
Ġsopra ttutto
Ġmani Ã¨re
Ð¸Ð½ Ð°Ð¼
ĠE m
ãĥ³ãĥ Ħ
ĠÐ¿ÑĢ Ð¸Ñħ
Ġwsp om
áº§ y
cri p
Ð¸ÑĢÑĥ ÐµÑĤ
Ġcons um
Ġwie m
ÅĦ ska
Ġofre ce
Ġviel en
Ã« l
Äħc ych
Ð» ÐµÐ³
ĠãĢį ãĢĮ
æ¨ ©
Ġenvir on
Ġg obierno
Ġa Å¼
Ġimp e
ÑĥÐ½ Ð°ÑĢÐ¾Ð´
Ġwz glÄĻ
Ã¬ n
ch s
è¡¨ ç¤º
çĲ ĥ
Ġami gos
uo le
Ġde ter
ĠÐŀ ÐŀÐŀ
Ð¼ Ð°ÑĤ
Ġbene fi
Ġo ft
ĠÐ±Ñĭ ÑģÑĤÑĢÐ¾
Ġo pp
Ġau tori
niej sze
ĠÐ² Ð»Ð°ÑģÑĤ
+ []
Ġmer ci
Ġpeti ts
Ġc Ã¡
Ġpol ity
Ġques te
Ġres s
Ġu04 4
ĠÐ¾Ñģ Ð½
Ġlis top
ãģ¹ ãģį
Ġau g
Ġt ÃŃch
Ġla nge
Ġra zem
re g
ĠÐ½ Ð¾Ð³
ĠÐ° ÑĤ
Ġbu dy
éĥ¨ åĪĨ
å£ ģ
Ġjo ven
ĠOdpowie dzi
wi Äĩ
ĠUni dos
ta ta
æ¸ ©
le gt
Ġp ein
ĠÑıÐ½ Ð²Ð°ÑĢ
Ġtr ung
Ġoff i
Ð¸Ð½ ÐºÐ¸
ÑĥÐ½ ÐºÑĤ
Ġw pis
ãĥ¼ãĥ« ãĥī
Ġpi cc
Ġ\": \"
Ġchar akter
ci ente
ĠA ir
Ġ ä¿Ŀ
åį Ĺ
Ġun as
Ð ¨
ĠÐ¿ÑĢ Ð°Ð·Ð´
ĠSicher heit
vers itÃ©
Ġexp res
ste ller
Ñı Ð²Ð»Ñı
ĠF eb
ĠSt rona
Ġw iad
ĠSch warz
ĠÐŁ Ð¾Ðº
Ã¤ ter
ĠÑģÐ»ÐµÐ´ ÑĥÐµÑĤ
ãģ§ ãģĤ
Ġ q
b lo
ĠÃ©ta ient
U L
ĠAs ÃŃ
ĠS anta
ĠÐŁÐµÑĤ ÐµÑĢÐ±ÑĥÑĢÐ³
Ð¾ÑĢ ÑĮ
Ġon ly
ãĥ ĺ
or ta
ĠÑĩ Ð¸ÑģÑĤ
ĠÑĢ ÐµÑģ
ĠÐ½ Ð¾Ñĩ
s cy
Ġsi cu
© ĭ
Ġqu á»ĳc
ĠG o
cion ado
Ã¼ hr
ent y
ãģ¾ ãģĹãģ¦
åĭ Ł
Ġmigli or
ĠæŃ £
ĠH ay
ĠÑĤÐ°Ðº Ð¾Ðµ
ĠOr t
ÑĢ Ð¸ÑģÑĤ
ĠY a
Ġencuent ra
Ġofer ty
ĠktÃ³re go
co li
½ ¢
ÑĬ ÐµÐ¼
Ðķ ÐĿ
ĠÐµ ÑīÑĳ
Ġm ach
Ġactiv itÃ©s
Ġme dia
ãĥ¯ ãĤ¤ãĥĪ
ĠâĨ Ĵ
ãĥ ¶
ãĤ¹ ãĥŀ
Ã® t
ãĤ¢ ãĤ¤
ãģª ãģĳãĤĮãģ°
ĠCom me
Ġa os
Ġr it
este ty
Ġi hm
ĠÑģÑĢ Ð°Ð²
Ġty pu
Ġad ministra
Ġ4 2
Ġm essage
Ġh y
ĠMÃ¤ rz
ĠgÃ©nÃ©ra l
Ġs ettembre
Ġpod sta
vis iÃ³n
ĠÐ· Ð½Ð°
Ġvis ita
ĠDes ign
ãĥį ãĥĥãĥĪ
ĠMa il
Ġkwiet nia
w ane
ĠÐº Ð°Ð±
ĠMil li
ber t
Ġno t
Ġç´ Ħ
ĠÐ¿Ð¾ÑĤ Ð¾Ð¼
Ġra ison
éĢļ è²©
Ġæ Ľ
ĠÑģÐ²Ð¾ ÐµÐ³Ð¾
èĤ ī
ĠPrze d
Ġ( '
ãģ¾ ãģł
Ġw sz
Ð¾Ð¼ Ð½
ŀ į
ÑİÑī Ð¸Ñħ
Ġprodu cto
by t
ia re
Ð° ÑģÑĤÐ²
ÃŃcul os
Ġdire c
ãģ¾ ãģ¨
Ġå¼ ķ
æ¸ Ľ
Ġnh au
hal t
Ġleg ge
ĠÐºÐ½Ð¸ Ð³
b m
Ġwrze ÅĽnia
ci mento
i ble
ÑĥÐ»Ñı ÑĤÐ¾ÑĢ
ĠÑĢÐµÐº Ð»Ð°Ð¼
osz enia
ĠÐŀ Ð½Ð¸
d ruck
ãĤ¦ ãĥ³
Ġwsp Ã³l
Ġu da
Ġqu o
Ġfr ente
Ġn owo
ĠãĤĤ ãģĨ
ĠHotel s
= =
ĠãĤ¹ ãĤ¿
Ġroz wiÄħz
Ġe jer
it ti
y ÅĤ
ĠEr geb
um en
Ġs ci
ãĥª ãĥ³ãĤ°
ion a
ãģŁ ãģı
bra uch
ĠmÃ¶ chte
ĠGar ten
âĶģ âĶģ
ãģªãĤĵ ãģ¦
ãĥĥ ãĤ«
ãģĭãģª ãĤĬ
ĠÐ¿ÑĢ Ð¾Ðº
Ġl Ã¤s
Ð¾Ð²Ð°Ð½ Ð¸Ð¸
Ġmelh or
Ġse ptiembre
Q iO
à ¸
Ġprzy sz
ĠÑģÐ°Ð¹ÑĤ Ð°
Ð°Ð¼ ÐµÐ½
Ĭ ãģ³
ãģłãģĳ ãģ©
ĠãģĿ ãģĵ
Ġsi m
ĠSp iele
ĠEn er
æĶ ¹
siÄĻ bior
Ġz do
Ġespa ce
ĠÐ´Ð¾Ð¿ Ð¾Ð»Ð½Ð¸ÑĤÐµÐ»ÑĮ
æľ «
isch es
Ġac tion
Ġpas o
ĠCon se
ro y
åĩº ä¼ļãģĦ
Ġw Ã¤hrend
æĬ ľ
ce ll
alidad e
Ġtiáº¿ ng
Ðº Ð¾Ð³Ð¾
ãģ« ãģ¨
r ÃŃ
ĠP el
Ġen ero
p endant
ĠÐºÐ¾ÑĤÐ¾ÑĢ Ð¾Ð³Ð¾
ĠduÅ¼ o
ara ciÃ³n
u ma
Ġ ðŁ
ãģªãģı ãģª
ĠP ER
it to
Ġcu atro
ĠÐ¼ Ð°ÐºÑģÐ¸Ð¼
ĠÑģÑĤÐ¾ÑĢ Ð¾Ð½Ñĭ
ãĤĴ ä½ľ
b bero
to waÄĩ
Ġa Ãºn
Ġtra itement
und i
Ñı Ð¼Ð¸
Ġpesso as
Ġgro ÃŁe
Ġmul ti
n ich
ç¾ ©
Ġme mb
olo g
en sa
3 8
Ġasso cia
ro id
ÑĤ Ð¾Ð²
uest as
ell schaft
Ġå¥³ æĢ§
ub o
Ġge mein
ĠvidÃ© o
åľ Ł
di r
ĠPro zent
ch y
åį ´
èª¬ æĺİ
ĠA ma
j ar
ĠÐ´ ÑĥÑĪ
å¸ °
ĠÐ¿Ð¾Ð´ Ð°ÑĢ
ĠÐŀ Ñĩ
Ġcli ent
at re
ĠÑĤ ÑĥÑĤ
Ġtu taj
c 3
Ġk ro
Ġmi asta
ĠÑģ Ð¸Ð½
Ð² Ð¸Ð½
ĠMit tel
Ġtr ÃŃ
å°ĳ ãģĹ
Ġpon er
Ġfa vor
Ġucz est
æľ į
Ã¶ff entlich
rÃª t
ĠW iÄĻ
ĠF ol
ous se
c om
Ġv it
Ġcze go
ãĥĥ ãĤŃ
i os
ta kt
ãģĹãģ¦ ãģ¿
Ġin ver
tycz nych
Ã¤ us
Ñĩ Ð¸Ð²
Ġj s
ãĤ² ãĥ¼ãĥł
ĠEs cort
Ġalgun a
y on
ais e
ĠÑĢ Ð¾Ð·
ĠÐ·Ð°Ð± Ð¾Ð»ÐµÐ²
an ten
ä½¿ ãģĦ
Ġcu á»Ļc
ĠDes de
Ð¸Ð· Ð¼
ĠG dy
Ġp elle
ãĥĿ ãĥ¼ãĥĪ
Ġincont ri
Ġso cietÃł
e urs
bild ung
r Ã¤n
å Ĥ¬
Ġj eux
iss ione
Ġparti do
Ġs ites
Ð¾ÑĤ Ð¸Ð²
qu is
Ð°Ð½ Ðº
Ġ} ,
ĠGro ÃŁ
ĠÐºÐ» ÑĥÐ±
Ġser wis
ĠH Ã´tel
la tion
pu ter
ãģ® ãĤĪãģĨãģ«
ĠÑĢ Ð°Ð´Ð¸
g hi
Ġwyb or
ra um
Ġalgun as
Ð¸Ðº Ð°Ð½
ĠkÃ¶nn te
r ont
ĠÅĽwia t
ãģ®å °
ĠÃ©tu di
Ġht ml
ãĥ³ãĥ Ķ
Ġcoment arios
Ġw issen
x to
Ð°ÑİÑī Ð¸Ð¹
ĠÃ į
ĠN á»Ļi
ro ng
Ġpotre bbe
Ġla bor
Ġry nku
ĠBewert ungen
sch uhe
il ar
Ġzna le
ber eich
ĠsÃ© jour
ĠÐ½ÐµÐ± Ð¾Ð»ÑĮÑĪ
es se
Ġz esta
Ġw nios
Ġnue vos
ĠAug ust
li cy
å¤ī ãĤı
Ð°Ð½Ð´ Ð°ÑĢÑĤ
Ġju lio
ĠMus ik
les s
los sen
Ġå¤ ©
Ġc anti
ãĥ³ãĤ· ãĥ§ãĥ³
ä½ľ åĵģ
ĠåĪ Ŀ
ĠRe gel
Ġgi ugno
Ġj este
ÑģÐ» ÑĥÐ¶
kow i
ãģĮ ãģĬ
ĠÐ²Ð½Ð¸Ð¼ Ð°Ð½Ð¸Ðµ
ola zione
ĠA nh
Ġst anie
ãĤī ãģļ
Ã§ u
ĠÑģ Ñħ
Ã¡ vel
ti Ã³n
ĠÐ¾ÑĤ Ð¼ÐµÑĤ
to ber
ĠDE L
ĠpÃºb lico
ĠÑĤ Ð²Ð¾ÑĢ
Ġcon cer
ĠÐĴ Ð¾ÑĤ
Ġå Ł
ĠC ono
ĠÐ¾ Ð³ÑĢ
ĠMar kt
Ġj unto
Ġacqu a
ĠMo Å¼
ãĥ¼ãĤ¿ ãĥ¼
Ġet wa
Ġam Ã©li
ªå¼ı ä¼ļç¤¾
ãģį ãģ¦
er on
ĠÐ¸ÑģÐº Ð»ÑİÑĩ
ĠA ut
te mps
Ã³r ia
ĠãģĤ ãģªãģŁ
ĠÑĢ Ð°Ð¼
Ġwy ra
ä¼ ¼
Ġph Æ°Æ¡ng
Ġ7 9
ÐĽ Ð¬
ĠÑĩÐ°ÑģÑĤ Ð¾
Ġre al
ĠEn tre
Ġques tions
k tÃ³
Ġpra tique
Ġå± ±
at te
è¾ º
Ġ ãģ£ãģ¦
ï¼ ¡
äºĭ æ¥Ń
ĠFra gen
ĠF uÃŁ
ãĤĦ ãģ£ãģ¦
æ »
ĠH ombre
Ġpr ue
Ġ... .
Ġje une
Ãª t
er as
Ã¼ns tig
Ġparti cip
** **
Ã¨ mes
Ġge macht
Ġtrova re
Ġbei den
ĠM ag
Ġau tour
cion ar
ĠB ra
ĠT age
ĠNe w
Ð¡ Ð¡
ĠÐĶ Ð¾Ð±Ð°Ð²
ĠÐĺ Ð¼
ï¼ ³
ãģĹãģŁ ãĤī
ĠA L
ĠCi udad
ĠB ien
Ðķ Ðł
ĠÐ¼ Ð°ÑĢÑĤÐ°
ĠM or
ĠUni versidad
Ġsicu rezza
Ġï½ ¥
ãĤĴ ãģ¤
ĠÑĥÑĩ ÐµÐ±
Ġs Ã³
ĠCh e
ÑĢÐ° ÑĪ
ĠÑģÐ²Ð¾ Ð¸Ð¼Ð¸
Ġsitu aciÃ³n
f rei
Ġcomun ica
w eit
Ð¿ Ð¸Ð¾Ð½
Ġactiv idades
è¨ ³
res so
ĠÐ¿ÑĢÐµÐ¿ Ð°ÑĢ
ĠÐĳ Ð¾Ð»ÑĮÑĪ
Ġf ebrero
ĠS Ã¼
Ġtra vers
ÃŃcul as
Ġma g
Ġcam bia
æĴ ĥ
Ġv arios
Ġpen se
Ġklas y
ĠCh er
iss ent
ĠÄĳá»ģ u
ĠS ystem
ĠÐºÑĢÐ°Ñģ Ð¸Ð²
ĠÐ½Ð°ÑĢ Ð¾Ð´
ĠÐ± ÑĥÐº
age m
Ġso ciales
Ġcon du
Ġp Ã³Åº
Ð¢ Ðŀ
ÑģÑĤ Ð°Ð½
Ġso gar
ĠÐ¼ Ð°Ñı
d is
Ġo ttobre
ÑĭÑĪ Ð»ÐµÐ½
pa gna
ÐµÐ¹ ÑĤ
Ð¾Ð½ ÑĥÑģ
Ð¸Ð´ Ñĥ
uni ka
ĠÐ²ÐµÐ´ ÑĮ
ĠÐł ÑĥÑģ
ĠÑĥ Ð¶
ĠG ia
ĠP au
Ġch ica
Ġb aj
Ãĥ O
ĠN Ã£o
ĠÑģÐµÑĢ Ð²
ãģ® ãĤ³
ĠMi tarbeit
ĠS Ã©
ĠÐ¡Ð¾ Ð¾Ð±Ñī
Ġfun zion
ĠsÃ© lection
ĠÐŁÐ¾ ÑįÑĤÐ¾Ð¼Ñĥ
met y
li cz
Ġlo cation
ng er
ĠÐĴÐ»Ð°Ð´ Ð¸Ð¼
ÑģÐº ÑĥÑİ
ĠFra u
Ġnapraw dÄĻ
ĠVer b
Ġgru dnia
Ġ Åº
Ġap are
ç§ »
ab or
Ð½ Ð¸ÑĤ
Ġan o
ĠÐ¢Ð°Ðº Ð¶Ðµ
our g
p om
ĠN icht
Ġno viembre
ĠN etz
Ð°Ðº Ð°
Ġsta mp
Ġb est
Ġre du
Ġau cun
ni enie
Ġpossi bilitÃł
ĠÑĤÐµÐ¿ ÐµÑĢÑĮ
ĠWyÅĽwiet leÅĦ
Ġokre ÅĽl
ĠMit glie
i Ã¨re
Ġd áº«n
st Ã¼tz
ĠÐļ Ð°ÑĤ
ÐµÑħ Ð°Ð½
ĠÐ¸Ð³ ÑĢÐ°
ãĤ« ãĥ¼ãĥī
Ġhe mos
M A
ti to
Ð¸ÑĢ Ð°
en as
åŁ İ
ĠÑħ Ð¾Ð·Ñı
Ġz ar
Ġr ichtig
Ġcuer po
ĠK ul
Ġcondi tions
Ġg ry
ĠÐ¿ÑĢÐ¾Ð³ÑĢÐ°Ð¼ Ð¼
Ġv ista
åĳ ½
Ð¸ÑĨ Ð¸Ð½
Ã ħ
Ġch Æ°a
O V
cu p
Å¼ Äħ
ĠÐ³ ÑĢÐ°Ð½
ster reich
ier ten
Ġpour rait
w ers
ãĥĸãĥ© ãĥ³ãĥī
Ġat tu
Ġç ¦ı
Ġå¤ ļ
Ġbesonder s
Ñİ Ð·
Ġl argo
Ġkra j
Ġde tta
Ġden en
Ġ! !
Ġl ire
Â ²
Ġb Ãªn
ĠT ous
c our
Ġazien da
Ð¾Ð½ Ñĩ
Ġag rÃ©
ra le
Ġa re
ĠfÃ¡ cil
ig h
Ðµ Ñı
ãģ» ãģĨ
ãĤª ãĥ³
ĠK ir
use ment
ĠPare ja
t ante
t he
ĠÐ½Ð°Ð· Ð½Ð°Ñĩ
ge mein
ĠÃ©ta blis
ĠÐ¼ Ð°ÑģÑĤ
Ġper f
ora zione
il t
ĠÐ¾ÑĤÐ´ ÐµÐ»ÑĮ
Ġdem and
Ġdi men
ãĥ« ãĥķ
Ġbie ten
Ġla ta
Ġpl u
ĠÐ¾Ðº Ð¾Ð»Ð¾
Ĵ° å¢ĥ
Ġac om
Ġpun tos
Å¼ enie
Ġtá» ¥
ĠGr Ã¼n
ãĤ¹ãĤ¿ ãĥ¼
Ġter ra
z ÅĤ
us za
Ġ ãģĹ
ãĤĴ èªŃ
å· ®
zia l
und heit
Ġpod emos
Ġm uer
Ij p
ĠÅĽ ci
ĠW eiter
Â ½
á» ħ
ne hmer
al na
Ġci Ã²
éĻĲ å®ļ
ĠKom m
ĠPor n
Ġad ul
omb ia
ĠP ag
Ġs um
ĠÐºÐ¾Ð¼Ð¿ Ð°Ð½Ð¸Ñı
å¤ ª
Ġlistop ada
ÑĢÑĥ ÑĤ
Ġmigli ori
Ġesto y
Å¼ enia
ĠP AR
ĠÃºlti mo
Ġdara uf
ãĥ© ãĥł
Ġsp esso
ri os
ĠÐ²ÑĭÐ¿ ÑĥÑģÐº
ãĤĮ ãģªãģĦ
Ġur l
Ġb or
éĥ ¡
åİ »
ĠÑĤ Ð¾ÑĤ
Ġex pos
on en
wy Å¼
Ä Ĳ
Ġb áº¥t
Ġ5 6
Ġat te
Ð¼Ð¾ÑĤ ÑĢÐ¾Ð²
ĠÐ¿Ð¾Ð·Ð²Ð¾Ð»Ñı ÐµÑĤ
Ġè Ħ
ĠÐ°Ð½ Ð³
o ÅĦ
ç· Ĵ
ãĤ¸ ãĥ¥
ei o
Ġçģ «
Ġfal ta
ĠÐ½Ð¸Ðº Ð°Ðº
und ial
Ġãĥ İ
Ġbes timm
vis ion
ow er
Ġprzygo tow
ĠãĤ¸ ãĥ£
ĠT rong
Ð¾Ð´Ð°ÑĢ Ñı
ĠA f
ĠÐ¿ÑĢÐ¾Ð´ Ð°Ð¶
Ð»ÐµÐ½ Ð¸Ð¹
: .
ous el
Ġç¥ ŀ
ÐºÐ¸ Ð´
ĠH ab
Ġre alidad
ĠÑĥÐ¿ÑĢÐ°Ð² Ð»ÐµÐ½Ð¸Ñı
4 6
va it
ty n
ĠÐ¿Ð¾Ð´ ÑħÐ¾Ð´
ni cas
å° İ
ĠWer k
Ġsitu ation
Ã¤t ze
Ġsouha ite
ĠÐŃ ÑĤ
Ġesper ienza
Ġart ÃŃculo
ĠB i
ĠC ent
ĠbÃ©nÃ© fi
Ġnie go
a ciones
Ġay uda
Ġar gent
si m
Ġda lej
ãģĿãģĨ ãģ§ãģĻ
Ġmod Ã¨le
Ġ/ /
ÑĢ Ð¾Ð¹
Ġent ra
Ġl Ãºc
Ġkann st
ĠSep tember
Ġè» Ĭ
mÃ¡ tica
Ġn owe
Ð¾ÑĢ Ð¾ÑĤ
u che
ĠÑģ ÑĥÐ±
age ment
i ores
çĶ¨ åĵģ
d el
it en
ĠåĲį åīį
åĲĪ ãģĦ
Ġs uff
Ġwy na
:::: ::::
Ġï¼ī ãĢģ
ĠÐ¼ÐµÐ½ ÐµÐµ
ãģ®å¾ Į
Ġmen sa
w ki
áº¥ m
ÃŃs ticas
Ġa ggior
Ġacqu is
ch ter
ĠOk tober
elÃ© fono
ĠpaÅºdzier nika
arÃ³w no
ãĤ ¾
wa ch
ĠÐ§ ÑĤÐ¾Ð±Ñĭ
ĠL ire
Ġb al
va ti
ĠÐĲÐ½ Ð´
ĠÐ²Ð½ ÐµÑĪ
Ġï¼ į
Ġåº Ĺ
Ġpre cis
æİ ²
ĠÐĲÐ² ÑĤÐ¾ÑĢ
ĠÐ§ ÐµÑĢ
or er
ÐµÑĢ Ð¸Ð½
æĬ ŀ
ĠW eit
ĠÐ¿Ð¾Ð´ Ð¾Ð±
nh aus
i ques
Ġch cia
ĠJu gend
ÑİÑī Ð¸Ðµ
Ġcost ru
esz k
uy áº¿n
ãĤĤ ãģ®ãģ§
ur t
am es
te ile
ĠÑģÑĤ Ð°ÑĤ
Ġre con
ĠS ommer
o z
ĠÑģ ÐµÐ½ÑĤ
ĠÐ¸ÑģÑĤ Ð¾ÑĢ
Ġne gro
ent al
Ġani ma
w it
åĬ ©
ĠVer ein
ãĥĬ ãĥ«
åĽ ł
si co
te j
h ic
ĠÑģÑĢÐµÐ´ ÑģÑĤÐ²Ð°
ĠDi os
Ġmes i
ĠÐ¿ÑĢÐ¾Ð´ ÑĥÐº
ÐµÐ½ Ð´Ð°
Ġch wil
st Äħ
u dos
ãģį ãģŁãģĦ
İ æĹ¥
ĠÑĤ Ð¾Ð³Ð´Ð°
ãģĨ ãģ¡
Ġbus car
Ġpro pie
ĠÐ½Ð¸Ñĩ ÐµÐ³Ð¾
ĠApr il
ĠL ou
r ou
qu ad
Ġna z
ĠÑĩÐ°Ñģ Ð¾Ð²
ĠF R
I ER
Ġa ider
ãĥ¢ ãĥĩãĥ«
ĠN atur
ãĥ© ãĥ³ãĤ¹
Ġnuo vi
ier on
for me
ĠÐ³ ÑĢÑĥÐ·
Ġapp lication
Ġapp are
ĠÐ¸Ð½ ÑĦ
Ġkil ku
las sen
Ġcit tad
ĠÑģÐ¾Ð² ÐµÑĤ
Ĺ i
liÃ¨re ment
ve mber
ÑĪ Ð¸Ð±
wÃ³ dz
t ente
M j
pos aÅ¼
ĠÐ²Ð½ÑĥÑĤÑĢ ÐµÐ½
Ġcu cina
it ud
Ġri con
on ym
u de
Ð¼ Ð°ÑĤÑĢ
Ġcar ousel
" ,"
å® ®
å¸¸ ãģ«
Ġmemb res
ĠÐļÑĢ Ð¾Ð¼Ðµ
Ġv ai
ie ÅĦ
ĠÃ©v ol
Ġse ctor
ft ware
ĠT re
Ġcoule ur
ĠÐ°Ð½ Ð°Ð»Ð¸Ð·
Ð½Ð¸ Ð¶
ĠW el
c us
ĠÑĤÐµÐ¼ Ð¿ÐµÑĢ
Ġay ant
et es
ĠÐ¿ÑĢÐ¸ ÑĪ
Ġh á»Ļ
z os
ĠÐ²Ð¾Ð» Ð¾Ñģ
ĠÐ²Ðº ÑĥÑģ
ÐµÐ» Ðµ
H o
Ġot ten
ĠSt Ã¼ck
ĠRe chts
inh o
Ġe li
g ani
ĠÐ¡ ÑĢÐµÐ´
onn es
Ġgro ÃŁen
Ġimport ant
ĠFre e
Ġmo vi
ĠÐ´Ð¾Ð» Ð³
Ġth am
al nych
ãģĵãģ¨ ãģ«
Ã¡ ria
Ġl ig
ĠÑĤ ÑĢÑĥ
Ð¾Ð» ÐµÑĤ
ib t
Ġna cional
la ire
Ġv elo
ãĤĭ ãģĵãģ¨ãģĮ
ĠÐ²Ð¾Ð´ Ñĭ
ĠDz iÄĻki
Ġre cht
Ġtech n
Ġab ord
ĠV ente
Ġcons om
r Ã¼ck
v ant
czy ÅĤ
ãĥ¼ãĥ ĭ
cia ux
ĠÑĢ Ð¾ÑģÑĤ
ĠÐļ Ð¾Ð³Ð´Ð°
ãģ® ãģł
Ġè ħ
sta tt
ç¯ Ģ
Ġç Ł
Ġquel que
Ġspe ci
è¡ Ĺ
ĠZ ug
pa ciÃ³n
ĠW inter
Ġzawi era
ĠãĤ¢ ãĥ«
c une
Ð» ÐµÐ¶
x y
jÄħce go
ĠÑģÐ°Ð¼ ÑĭÑħ
g an
ĠÃ ·
Ġho Ãłn
ãĥ© ãĤ¤ãĥĪ
äºº ãģ®
Ġbuen o
ador as
ĠWeb cam
Ġv an
olesc ente
gi co
Ð°Ð´ Ð°
schie d
ou re
Ġobje tivo
2 1
Ġg ens
ĠÑĩÐ¸Ñģ Ð»Ðµ
ĠÐº ÑĥÑħ
Ġprodu ktu
ki en
Ġb ad
Ð½Ð¸ ÑĨÐ¸Ð¿
ĠÑĢÐ°Ð¹ Ð¾Ð½
ge m
Â ´
Ġs Ã¡ng
ĠÑĢÐ°Ð±Ð¾ÑĤ Ð°
Ġw czeÅĽniej
Ġdire tta
ãģ£ãģŁ ãĤī
Ġop iniÃ³n
âĢ Ŀ
Ġt etas
Ġsi endo
ĠÐ² ÐµÑģÑĮ
_ in
Ġeigen en
Ġlin ks
çĹ ĩ
ÃŃtu lo
ie ux
ĠL un
Ġcl asse
Ð°Ð¼ Ð¿
Ġa tenciÃ³n
Ġwy sz
å½ ¼
Ġlo in
ĠÐ¿ÑĢÐ°Ð² Ð¾
ces s
Ġter cer
Ġe uch
ĠÃ¶ ff
cch ia
Ð»ÐµÐ½ Ð¸ÐµÐ¼
je wÃ³dz
Ġosta tni
ĠP an
k ra
ãĥĲ ãĥĥãĤ¯
Ġent onces
ĠÐ¾Ð³ ÑĢÐ°Ð½Ð¸Ñĩ
gg etti
åĳ ¼
us ion
Ġresul tados
ĠwspÃ³ÅĤ pra
Ġal um
Ġpr end
Ġenvir onnement
ib ili
Ġpod ej
Ġco ll
Ġtrad u
ste hen
ĠÐº ÑĢÑĥÐ³
r or
ĠS A
Ġid Ã©
Ġcre o
od es
ĠSu per
ĠrÃ©sul tats
ĠÐºÐ°ÑĤ ÐµÐ³
Ã ¦
Â ¼
ĠÃ£ ÆĴ
Â ¨
Ġl iá»ĩu
Ġon e
pi os
Ġlu glio
Ġl an
ĠÐ¼ Ð¾Ñī
Ġda von
ĠÐ²Ñĭ ÑĪ
Ġog ÅĤ
d ra
Ġc ura
ĠãĤ ı
ĠÐĲ Ðº
ĠÐ¾ÑĤ ÐºÐ°Ð·
Ġtr am
Ġdo kon
æ ©ĭ
ĠL uis
Ġsu e
ĠÐ³ÑĢ Ð½
ĠÐ¿Ð¾Ð» Ð½Ð¾ÑģÑĤÑĮÑİ
Ġau tant
Ġå¤§ éĺª
O K
Ġdisp lay
Ĵ æŃ©
å¹ ħ
ĠÄĳá»ĭ a
Ġinter net
ÐµÐ½Ð¸Ñı Ñħ
Ġw ych
Ġlip ca
ĠlÃ¤s st
ĠÅĵ u
Ġmol ti
Ġswo ich
Ġbor der
Ġåħ ¥
Ã³ vil
Ġt it
ĠVer gleich
Ġnue vas
Ð¸Ñģ Ð°
ta mi
Ġpodr ÃŃa
pp er
Ġè ¶
Ġäº Į
Ġè µ
ĠÑħ Ð¾Ð´
Ġlo gi
Ġto i
ĠR ob
ĠAr tic
Ġcon te
ĠprÃ© cis
ĠFl ug
éĻ į
ĠÑĤ Ð°Ð±
ĠÐ¿Ð» Ð°ÑģÑĤ
ĠÐ¸Ð½ÑĦÐ¾ÑĢÐ¼ Ð°ÑĨÐ¸Ð¸
Ġam Ã©rica
Ġr os
ĠÐ±Ñİ Ð´Ð¶
ĠÐŁ Ð¾Ñĩ
ĠÐĿ Ð°ÑĪ
Ġdi cembre
Ġa more
Ġapri le
æ ½
wÃ³ ch
ĠÐ²Ð¾ Ð¾Ð±ÑīÐµ
Ġgr ado
ÑĮ ÑĤÐµ
Ġma ior
9 6
Ġsy n
ĠãĥĢ ãĤ¤
åĽ ³
Ġa gosto
Ġch au
ia do
Ġf ast
ina ire
qu ent
ĠÐ»ÑİÐ± Ð¾Ð¹
ãĥĲ ãĥĥãĤ°
éħ ¸
Ġå ĳ
Ġku p
Ġv ir
tycz ny
ĠÐºÐ¾ÑĤÐ¾ÑĢ Ð¾Ðµ
Ġpo ÅĽ
ãĥĥãĤ· ãĥ§ãĥ³
ç± ³
Ġcor res
ien ne
ru z
ĠpolÃŃ tica
ĠB en
ĠS eiten
Ġpi en
ĠE ro
Ġres er
Ġblo g
ĠAl ors
owa ÅĤa
8 6
Ġid Ã©e
ĠC Ã¡c
w elt
le ist
Ġdiver si
ãĥĵ ãĥ¥ãĥ¼
Ġä¸ ĭ
ĠÑĤ ÐµÑĩÐµÐ½Ð¸Ðµ
Ġpo tra
ãĤĴæ Ħ
Ġpour quoi
Ð¸Ðº Ñģ
Ġmedi ante
ĠAb s
ãĥģ ãĥ¥
ĠÐ¾Ð´ Ð½Ð¾Ð³Ð¾
Ġinforma cje
i tos
Ġdes ign
ĠT our
Ġac cep
Ġloka li
ĠãĥĹ ãĥŃ
Ðº Ð°Ð¼
âĺ ħ
åĨħ å®¹
Ġdla tego
Ġest re
Ġex er
ãģªãģı ãģ¦
Ġava is
iv ent
ãĥ³ãĥ ķ
ĠÑįÐ½ ÐµÑĢÐ³
ÅĽ la
Ġconta cto
Ġt es
ut Ã´t
åı ĭ
gu es
et ro
Ġãģ ²
ãĤī ãģĽ
ãĢ ĳ
Ġæ Į
cz eniu
éĢ Ķ
ĠÐ± Ð¾
Ġtien es
Ġmod elo
Ġde ine
ĠdÃ©couv rir
Ġri fer
ĠpÃ¡g ina
ĠNo vember
ĠÐ°Ð½ ÑĤ
Ð¸ÑĨ Ðµ
Ġm asz
å£ °
r ur
fa ce
ÑıÑģ Ð½
ĠçĻ ½
us Ã¤tz
ĠÑĢÐµÐ³ Ð¸ÑģÑĤÑĢÐ°ÑĨÐ¸Ð¸
ĠÐĺ ÑģÑĤ
å®¢ æ§ĺ
Ġespa cio
ten ti
ï¾ ŀ
Ġæ ģ
ĠÐŀÐ± Ñī
Ð¾Ñĩ Ð½Ð¸Ðº
ı i
Ġc ine
lace ment
Ġex tÃ©
Ġcas os
Ġau ÃŁer
Ð¸Ð± Ð¾Ð»ÐµÐµ
Ġfor ni
dz enia
ãĤ¤ ãĥ¬
Ġat ta
ãĥ³ãĤ ³
éħ Ĵ
Ġde cl
ĠÑģÑĤ Ð°Ð½Ð¾Ð²
or ie
Ġtr ak
ĠÃ ķ
ĠÄĳá»ķ i
ÅĽ cia
æĴ ®
ĠVer fÃ¼
Ġmoy en
Ġtr itur
ĠÑħÐ¾ÑĤ Ñı
ĠL at
Ġprincip al
Ġc ount
åľ §
cz aj
Ġgen naio
ĠI nh
éŁ ¿
ĠSch wei
Ġes cl
ĠF u
ing o
Ġseg unda
geste llt
ĠÑĤÐµÑĢÑĢÐ¸ÑĤ Ð¾ÑĢÐ¸Ð¸
N 0
Ġw ÅĽrÃ³d
Ġf le
Ġimp res
Ð± Ð¸Ð½
ĠÐ¶Ð¸Ð² Ð¾ÑĤ
Ġpomo c
Ġf l
Ġstrut tura
Ġr áº±ng
le Å¼
ç¯ ī
ie z
ĠB u
ter i
ĠãĤµ ãĤ¤ãĤº
çŃ Ķ
ĠMe di
æĽ ľ
Ð¾ Ñĥ
ck o
Ġwym aga
wor ten
Ġpass Ã©
h au
Ġsc ri
va mente
th Ã¨
graf ÃŃa
ĠD ou
Ġpr ise
ĠZ iel
Ġt est
ĠpaÃŃs es
ĠÐ¾ Ð¶
ä½ĵ é¨ĵ
ĠH in
c chi
Ġkle ine
Ġsi gn
Ġæľ ª
ãģ®æ ķ
ÐµÑģÑĤ ÑĮ
Ġprz et
p lan
Ġnuo ve
4 4
Ġf ille
Ġple in
Ġcho Äĩ
å± ŀ
ĠÐ² ÑħÐ¾Ð´
ie b
va ta
Ġcher che
ĠÑĦÐ¸Ð»ÑĮ Ð¼
ĠÐ¿ÑĢÐ¸ Ð³
Å¼ czy
ãĥĥ ãĥķ
Ġ4 7
ie ur
Ġdisp onible
ad za
y si
æİ Ľ
ãģ®å ¯
ĠÑĢÐ°Ñģ Ð¿ÑĢ
Ġtele fon
ĠJan u
c Ã©e
ĠA y
Ġpas ar
ca le
ĠÑĢÐµÐ±ÐµÐ½ ÐºÐ°
ĠÐ·Ð°Ð¿ Ð¸Ñģ
Ġa ktue
Ġqu asi
æī ĵ
Ġseine m
as to
Ġind ustr
ĠÐłÐ¾ÑģÑģÐ¸Ð¹ ÑģÐºÐ¾Ð¹
ĠÐ½ÐµÐ¿ ÑĢ
ãĤĮ ãģ¾ãģĻ
Ġb ain
ĠB lanc
si er
Ġdes tin
ĠI hren
ĠÐ» Ð¸ÑģÑĤ
m men
Ġwra z
Ġgouver nement
ĠAr gentina
or n
ÑģÑĤÐ² Ñĥ
iv os
ĠÃ Ļ
ĠÃ Ĥ
Ð¼ Ð¾
ta Äĩ
Ġè¿ Ķ
åħ Ĳ
g h
Ġ5 00
ãģ¾ãģĽãĤĵ ãģĮ
ĠÐ¿ÐµÑĢ ÑģÐ¾Ð½
le cciÃ³n
Ġvi vi
ĠÐ¿Ð¾Ð´ ÑĤ
ĠM y
Ġo zna
Ġprimer o
Ġch ie
ge ber
æ©Ł èĥ½
Ġartic les
Ġpas sa
Ġad el
ÐµÐ´ Ð¶
ĠCh ica
Ġdes a
ĠLie fer
ĠK e
ĠZa hl
u tions
9 5
Ġvo y
ĠÑħÐ°ÑĢÐ°ÐºÑĤÐµÑĢ Ð¸ÑģÑĤ
ĠÑģÑĢÐ°Ð² Ð½
åĩº ãģĹ
Ġder echo
um s
Ġque lli
Ġé ĺ
ç łĶç©¶
or ia
ĠÐ²Ð¼ÐµÑģÑĤ Ðµ
Â £Â¬
Ġtr áº»
ĠÃ ³
ĠSch ne
Ġéĸ ¢
Y 2
ty m
ĠÐ¸ÑģÐ¿ Ð¾Ð»Ð½
å°Ĥ éĸĢ
di Ã³
E T
Ġ4 1
ĠÃ© tra
ĠÐ¼Ð¸Ð½ Ð¸Ð¼
çĶ· æĢ§
çĬ¶ æħĭ
Ġesta mos
ĠCas a
C A
Ġl ista
Ð¸ ÑĨÐ¸Ð¸
ri bu
ĠHol z
ĠDo ch
p en
ĠseÃ± al
ec ta
Ġri cor
ĠG Ã¤
ãģĪ ãģªãģĦ
Ġmes e
t ne
Ġth Ã¢n
Ã¶r der
ĠÐ¿ ÑĥÐ½ÐºÑĤ
ãģ£ãģ ±
ãĤį ãĤĵ
sto ff
Ġä¸ ĸ
Ġeffec tu
Ðļ ÐĲ
ĠÑĦ Ð°Ð¹
ĠÑĥÑģÐ»ÑĥÐ³ Ð¸
Ġsta g
Ġsp ort
Ġins titu
Ã¤n d
ĠÑĥÑģÐ»Ð¾Ð² Ð¸ÑıÑħ
t an
ÑĢ Ð¸
Ġdz is
ĠÃ ĭ
Ġs á»Ł
Ġ. âĢľ
ĠintÃ© rieur
O T
Ġzd jÄĻ
å¤ ľ
ÑĪ Ð¸Ñħ
ĠCa p
ĠLe y
ĠPe li
ĠAm or
Ġcapa cidad
Ġd wÃ³ch
Ġè² ·
æĸ¹ ãģ¯
ĠÐ¾ÑĤ Ðº
ä½ľ æ¥Ń
ĠintÃ© ress
ãģ®å Ĭ
ĠÂ §
Ġk urz
Ġir gend
Ġpre zzi
Ġayud ar
Ġde ci
Ġre m
Ġch uyÃªn
ig ung
ĠÐ¼Ð¸ÑĢ Ð°
en cji
Ġ9 5
ur en
on se
Ġãĥ ´
lis ation
Ġ Î
ra tion
Ho tel
ĠGra zie
Ġtrabal ho
9 1
Ġzape w
èµ °
ĠÐ² ÐµÑĩ
Ġincl u
on dere
ous s
Ã ĳ
Ġngo Ãłi
Ġave va
ç¥ Ŀ
Ġprodu ction
Ġsz uka
ĠÐĶ Ð¾Ð¼
ãĥĩ ãĤ¶ãĤ¤ãĥ³
Ġactiv idad
Ġre v
Ġro l
ãĤĬ ãģ®
Ġ}, {"
ĠMo tor
ĠC ela
Ġ! !!
ĠÐ£ÐºÑĢÐ° Ð¸Ð½Ñĭ
ĠÐ´Ð°Ð½ Ð½ÑĭÑħ
ĠGr Ã¶ÃŁe
ĠÐĺ Ð²
Ð¾Ð»ÑĮ Ð½Ð¾
gu ien
vo ll
dzi esz
_in dex
ze ug
åĭ ¤
Ġt et
d ro
ĵ ģ
ãģ®è ³
z ul
ra mi
ĠÐķÐ² ÑĢÐ¾Ð¿
Ġannun ci
Ġap res
Ġli mp
Ġve dere
ãĥ¡ãĥª ãĤ«
Ġqu ot
Ġus ted
Ġnaszy ch
Ġpoz wala
Ġg l
ĠÐ¸Ð½ ÑģÑĤÑĢÑĥÐ¼ÐµÐ½ÑĤ
Ġæ Ł
Ġnouve aux
Ġw prowadz
å® ¿
Ð¸Ð³ Ð¸Ð½
Ġqu ar
ĠÃ ı
Ã£ i
ĠÐ¾Ð¿ ÑĤ
cj ach
ĠB Ã¼r
ĠÐ´Ð² Ð¸Ð³
Ġswo jÄħ
ĠCom p
Ġpla isir
ĠW or
ĠÐµ Ñĳ
Ġdos kon
Ġcham p
ãĥ¡ ãĥ¼ãĥ«
ste in
gen s
Ã± ana
Ġitali ano
p Ã©rie
on ie
Ġæ Ļ
Ð¾Ð» Ð½Ñı
ĥ ħ
Ġch uyá»ĥn
si mi
Ġt un
Ġvis to
ĠÐľ Ð°ÑĤ
ĠÑĥÐ² Ð¸Ð´
éĩĳ ãĤĴ
g Äħ
Ġqui ere
ĠB el
ãģ®å į
ĠA t
ĠÐ½Ð¾Ð¼ ÐµÑĢ
Ġch oses
Ġima gen
Ġal tra
ÑĭÐ² Ð°ÐµÐ¼
ãģ®å¥ ³
I mage
è¨Ģ ãģĨ
ĠãĥĹ ãĥ¬
Ġè² ¡å¸ĥ
Ġãĥĩ ãĤ£
Ġa de
ĠÑĤÐµÐ»ÐµÑĦ Ð¾Ð½
w iel
ĠA ff
us si
Ġsoll ten
Ġfaci le
ĠãĤ¹ ãĥŀ
Äħ t
ĠÑģÑĤÐ¾ Ð¸Ð¼Ð¾ÑģÑĤÑĮ
N l
ĠmoÅ¼liw oÅĽÄĩ
ï½ ¥
ãģ¯ ãģĦ
Ġdej ar
Ġannon ce
Ġlors que
Ġtr i
Ġm ÅĤ
ĠÐºÐ¾ÑĢ Ð¿
ĠÑģ Ð±
{ \"
Ġoch ron
Ġb Ã³ng
ĠIta li
Ġpropr ia
Ġob ej
ĠÐ¦ ÐµÐ½Ð°
ĠÑģÑĤ ÑĥÐ´
Ġs an
ãĥ¼ãĤ °
ãģ® ãģŁãĤģ
Ã² a
M P
Ġcump li
om os
Ð¸Ð½ Ð¸Ð¼
Ġe vi
ĠÐ´ÐµÐ» Ð¾
Ġå£ ²
çİ ī
å± ħ
Ġpa pel
ĠC uis
ĠC las
ĠJ eu
ĠC rÃ©
ĠspÃ© cialis
ĠProdu kte
ĠÐĺ ÑģÐ¿
Ġ ï
ãĤ¶ ãĥ¼
ĠEin z
G l
Ġponie waÅ¼
Ġmayor ÃŃa
in do
ãĥ¼ãĤ ¶
Ġpubb lico
fica tion
Ð» Ð¾Ðº
Ġobie tti
schlie ÃŁ
ÑĥÐ½ Ð´
Ġt ari
ĠÑı ÑĢ
ãģ§ãģĻ ãģĭ
æ į
ĠÐ³Ð¾ÑĢÐ¾Ð´ Ðµ
Ġunser en
ĠBer uf
Ġgr Ã¶ÃŁ
Ġmon dia
ĠÐ² Ð»Ð°Ð´
ty tu
ı Ĳ
Ġquy áº¿t
ĠÐ¶ Ð´
ĠÐ¡ ÐµÑĢÐ³
Ð°ÑĢ Ð´
Ġkont ro
Ġhi zo
ĠÐ¸ÑĤ Ð¾Ð³
Ġlong ue
Ð°ÑĤ Ñĥ
ãĥĿ ãĥ¼ãĥĦ
ĠS elbst
ĠÐ¤ÐµÐ´ÐµÑĢ Ð°ÑĨÐ¸Ð¸
ĠÑĢÐµÐº Ð¾Ð¼ÐµÐ½Ð´
Ð¸ÑĤ ÑĢ
Ġx Ã£
ĠÐ½Ð°ÑĪ ÐµÐ¹
Ġsu as
Ġ á»©ng
Ġami ci
Ġpow ierzch
ĠÑĢ Ð¸Ñģ
Ġase gur
ãģĭ ãģªãģĦ
b lick
ÐµÑĨ ÐµÐ¿
Ġperson ale
Ġob tenir
ĠÑĢ Ð°ÑģÐº
ĠT ur
Ġa tto
ãģ®å Ľ
zo gen
Ġsar anno
Ġm áº¯t
f lÃ¤
ĠÐļ Ð¸ÐµÐ²
ĠÐ¿Ð¾Ð» ÐµÐ·
c la
ĠÐ¸Ð· Ð´ÐµÐ»
ĠÑĢÐ°Ð±Ð¾ÑĤ Ðµ
ĠÑģÑĤ ÑĢÐ°Ñħ
is simo
c ados
ic ol
ĠÄĳ Ã¡nh
ĠRe al
Åĵ ur
ĠÐ±Ð» Ð¾Ðº
t wier
Ã¤ te
ĠÐĴ Ð¾Ð»
ni cos
ter ial
ĠÐ¿ÑĢÐ¸Ñħ Ð¾Ð´
Ã¶ ne
Ġf ix
isti che
ĠT as
ĠÐ¼Ð¸Ð» Ð»Ð¸
id es
è ŀį
Ġwie ku
ĠSch uhe
Ġscar pe
Ġcanti dad
f as
Ġpr on
Ġle ft
ĠãĤ¯ ãĥª
ï¼ £
ãģı ãģ¦
è¶ ħ
di zione
ine ment
Ġcho is
Ġgran di
ãĥĥ ãĥĶ
alis ation
ãĤ· ãĥªãĥ¼ãĤº
ãģ¡ ãĤįãĤĵ
Ġth ÃŃch
be ding
Ġess ay
ĠÐ²Ð¾Ð¿ÑĢÐ¾Ñģ Ñĭ
ï½ į
æµ· éģĵ
åĭķ çĶ£
ãģ«ãģĬ ãģĦãģ¦
Ð²ÐµÑĢ Ð´
ÅĤu gi
åıĤ åĬł
mas ch
Ġde tto
i ra
Ã¤ d
ĠÐ¾Ð±ÑĢÐ°Ð· Ð¾Ð²Ð°Ð½Ð¸Ñı
ion ych
ĠÐ°Ð² Ð³ÑĥÑģÑĤ
zia le
Ġh Ã¡
Ġpermi te
ri mer
è Ĺ¤
ĠProble m
Ġdi man
Ð¸ÑĩÐµÑģÐº Ð¸Ð¼
ãĥĭ ãĥ¥
Ġch áº¿
par tement
m Ã©dia
Ġmiejs cu
ca ti
ĠSch l
ras se
Ġpl utÃ´t
ÑģÑĤÐ²ÐµÐ½ Ð½Ð¾
ĠDes n
f es
ĠÑĤ Ð¾Ð»
am me
ĠRe p
Ġãģĵ ãģ¡ãĤī
Ġåİ Ł
ĠÐĺ ÑĤ
di co
a teurs
er nen
pp ia
uyá» ħn
áº¯ p
Ġli mi
Ġre ce
Ġimp os
ĠÐ±Ñĭ ÑģÑĤÑĢ
Ġm ak
è£ ľ
ĠdÃ© si
ow ski
Ġa ktyw
mi ca
Ġ200 6
au che
ĠÐ· ÑĢ
Ġl im
åº ·
Ġsenti do
Ġv ier
ĠÑĤÐ¾Ð²Ð°ÑĢ Ð°
ĠÐ ¹
cie m
ãģĹãģ¾ ãģ£ãģŁ
ãģĻ ãĤĮãģ°
ãĤı ãĤĮãĤĭ
ĠÃ Ĳ
Ġn áº¿u
ĠH ombres
Ġseg undo
ĠÐ³Ð°ÑĢ Ð°Ð½ÑĤ
ĠÐ¿Ð¾Ð´ ÑĢÐ¾Ð±
Ġz arÃ³wno
at ten
ç ¦ı
ĠÑĤ ÐµÑģÑĤ
tig keit
æ Ĩ
Ġder echos
na hmen
ĠAn n
ist ance
Ġsigni fica
ĠÑģ Ð¾Ð¿
Ġv aleur
ĠU rz
ãģ«ãģª ãĤĬ
Ġh au
ĠrÃ©se au
ĠÐ½Ð°ÑĪ ÐµÐ¼
ĠÐ¸Ð½ ÑĤ
ĠÑıÐ²Ð»Ñı ÑİÑĤÑģÑı
Ġp iÄĻ
åŃ¦ æł¡
Ġpel ÃŃcula
d ar
Ġfam iglia
ĠK op
Ġåħ ¬
ĠprÃ©s ente
vin cia
um enti
Ġswo im
ĠMar t
Ġcu b
ĠT u
ĠÃ© cole
ãĤ¹ ãĥ¡
Ġé ł
Ġdise Ã±o
ĠÑĦ ÐµÐ²ÑĢ
ãĥĭ ãĤ¢
ĠÐº Ð¾ÑĤ
ĠÑįÑĤ Ð¸Ð¼
ĠM á»¹
Ġprzy kÅĤad
ĠBe au
ĠR ela
ĠC entro
ĠK li
ĠcrÃ© er
Ġcu anto
Ð°Ð½ Ð½ÑĭÑħ
ĠAu tor
Ġwy p
ĠN ouve
ĠP ubblica
D I
Ġsp ie
ĠcrÃ© ation
Ġquel le
Ġnum er
v ÃŃa
ĠÑįÑĤ Ñĥ
Ġapp r
mal s
ĠÐŁ Ð°ÑĢ
Ġoko ÅĤo
Ð½ Ð¾Ð³
ĠMar ÃŃa
el os
è¿ İ
ĠC itas
ĠA p
ãĢ İ
Ġ ãģªãģ©
Ġv ient
æŁ» å®ļ
èĤ Į
å¾ ¡
å® Ī
oni bile
Ġc ung
li car
b ilidad
Ġcondi ciones
pr it
ĠÑĩ Ð¸ÑĤ
ĠÐ² ÑģÑı
ĠÐ¿ÑĢÐ¾Ð³ÑĢÐ°Ð¼ Ð¼Ñĭ
ĠB ay
Ð· Ñı
ĠFil m
ÐµÐ½ÑĮ ÑĪ
Ġn ess
Ġca use
Ġé ħ
---- ----
Ġãģ¾ ãģļ
ĠAl ter
Ġpos ibilidad
lich es
ĠÐ¾Ð´ Ð½Ð¾
ĠA N
Ġgio co
Ġpow sta
Ġb re
ä¸ ¡
ĠÐ¾ Ð¿Ð»Ð°ÑĤ
ĠÐ´ÐµÐºÐ°Ð± ÑĢÑı
ĠÐ¼ÐµÑĢ Ð¾Ð¿ÑĢÐ¸ÑıÑĤ
v an
as tica
di to
Ġtechni que
u elle
Ġob owiÄħz
ĠIhr er
Ġrapide ment
ĠÐ¿ÐµÑĢÐ² ÑĭÐ¹
Ġvá» «a
ind est
Ġcli entes
Ġsuc cessi
sk Äħ
ï¼ Į
åı ²
Ġbar celona
D O
Ġoc ur
á»± a
Ġz war
Q UE
Ġu00 3
Ġse mble
Ð¾ÑģÑĤ ÑĢÐ°Ð½
ĠdÃ©cl ar
ff er
ĠFran ces
C O
Ġnor ma
i LCJ
ĠR y
cz ni
ĠÐ²Ñĭ ÑģÑĤÑĥÐ¿
Ġpom ys
Ġof ert
x ic
Ġrela cion
s s
ãģĹ ãĤĪãģĨ
Ġch Æ¡i
f el
Ð¾Ñĩ Ð½ÑĭÐ¹
ĠÐ½ Ð¾Ñģ
Ġn adz
ĠMin uten
Ġgru ppo
ÐµÐ½ Ð½ÑĥÑİ
ĠÑģÐµÑĢ Ð´
Ġsier pnia
ĠmÃ¡ xi
Ġsie ci
fÃ¼hr ung
ĠV is
ĠÐ¿ Ð°
Ġpr od
Ġpad ding
å «
ĠB lan
Ġmin uti
ĠH ola
qu ina
æĬ ķ
Ġent rada
ÑģÑı ÑĤ
Ġre kl
az o
ina ciÃ³n
Ġo cen
Ġsegu ito
Ġlu tego
ĠProje kt
cz ym
å¾ ´
ĠGe b
ãĤĤ ãģĤãĤĭ
ĠÐ´ÑĢÑĥÐ³ Ð¾Ð¹
Ġw h
Ġe fek
æĺ Ł
Ġdá»± ng
ci ÄĻ
ab an
Ġtu do
Ð¾Ð² Ð¾
Ð»Ñı ÐµÐ¼
ĠÃ© tant
j ahr
ĠÐ¿Ð¾Ð² ÐµÑĢÑħ
ini ng
en vol
Ġzrobi Äĩ
Ġzosta ÅĤa
Ġad resse
ĠÐº Ð¾Ð´
ĠBes uch
ĠÐ´ Ð»
Ġgi áº£m
Ġnu ll
Ġa cep
ron e
ãģ¨ ãģĹãģŁ
Ġorgani z
qu etas
Ġcos e
Ġri es
que l
ãĥ¼ ãģ®
ĠÑģÐ² Ð¾Ðµ
Ġlu z
ĠÐł Âµ
ĠÐ¿ÑĢÐ¸Ð» Ð¾Ð¶
Ġter min
ĠÐ½Ð¾Ð² ÑĭÐ¹
Ġãģĵ ãģĨ
ĠÐ¾ÑĤÑģ ÑĥÑĤÑģÑĤÐ²
Ġpres ente
one j
h na
ĠJanu ar
Ġl á»ĭch
ĠGesch ichte
Ġindi vid
ĠÑıÐ½Ð²Ð°ÑĢ Ñı
ç¨ İ
ĠÐļÐ¾Ð¼ Ð¿
Ġdob r
cre di
ĠÐ¿ÑĢ Ð¸Ð·
Ġde cyz
Ġz im
Ã¨ ge
Ġperson ali
ĠÑĦÐ¾ÑĤ Ð¾Ð³ÑĢÐ°ÑĦ
Ġou tros
Ġn ero
Ġmod ifica
ĠGe gen
ï¼ ı
ãģ¸ ãģ®
Ġl ien
sI n
ch u
ĠÐ¾ÑĤÐ½Ð¾ Ñģ
Ġgrand s
Ġa ggi
Ġmod el
Ġkto ÅĽ
å· ŀ
Ð¾Ð²Ð°Ð½ Ð¸Ð¹
ĠZapa tos
Ġ< /
Ġso ciedad
Ġh Ã´
P S
ĠSer vice
fa llen
Ġa ire
ujÄħ cy
ien ti
Ðº Ð¸Ð¼
Ġver sch
ĠUn is
Ġre un
N A
Ġr uch
ĠAn s
Ġdi p
ĠV e
ura ciÃ³n
ĠÑģ ÑĥÐ¿
lich t
Ġon de
Ġdes p
ĠÑģÑĢÐµÐ´ Ð¸
h op
ĠNe ws
Ġh inter
ĠW roc
ini i
on do
zem ber
le ben
ĠÐ¼Ñĥ Ð½Ð¸ÑĨÐ¸Ð¿
ĠÐ´ÐµÐ² ÑĥÑĪ
Ð» ÐµÑĢ
Ð¸ÑĤÐµÐ»ÑĮ Ð½ÑĭÐµ
Ġâ Ī
Ġä» ķ
ĠãĤ· ãĥ§
èį ·
Ġv eut
si ble
v io
Ġrou ge
Ð¸Ð± Ð¸ÑĢ
ĠÐ· Ð½Ð°ÐºÐ¾Ð¼
Ġmiesz kaÅĦ
Ġhab it
ĠÐ±ÑĥÐ´ ÑĥÑī
å· »
Ð¾Ñĩ Ð½ÑĭÐµ
Ġin ner
ĠÑĤ Ð¾Ð¿
Ġs m
us zy
Ġ5 8
uer re
Ã¤ glich
ĠÐºÐ°Ðº Ð¸Ðµ
Ġnaj wiÄĻk
meld ung
Ġauf ge
Ġnom e
ãĤĴæ Ĭ
Ġide a
ĠÐ² ÐµÑĤ
ĠF ern
ven es
Ġw indow
Ġob sÅĤu
ĠRe view
ĠçĻ º
ãĥ¥ ãĥ¼ãĤº
èĦ ±æ¯Ľ
Ġç ¤
ãĤ¯ ãĥŃ
Ġtar de
çµ ¶
Ġtá»ī nh
wie k
ĠdÃ©c is
Ð¾Ð»Ð¾Ð³ Ð¸Ð¸
Ð¾Ð² ÐµÑĢ
Ġoc cas
Æ°á»£ t
ni u
Ġent sprechen
ĠAngebo te
ÑģÐº Ð¸
ãĥĻ ãĥ³ãĥĪ
Ġcu ar
Ġh el
Ġf os
ĠÐŁ Ðŀ
Ð¸Ð² Ð°Ð½Ð¸Ðµ
h ung
ĠÐ¿Ð¾Ð± ÐµÐ´
é¦ Ļ
ãĥĻ ãĥĥãĥī
Ġç «
r ant
j cie
ment al
Ġso y
ci dos
ĠBet rieb
ĠrÃ³Å¼ nych
ĠN or
Ġlo gos
ç· ı
ĠÐ½Ð°ÑħÐ¾Ð´ Ð¸ÑĤÑģÑı
ä»¥ å¤ĸ
Ġsa p
Ġf ebbraio
Ġang lais
um ento
Ġãģ į
æĭ ħ
Ġr ich
fica ciÃ³n
te ll
ra te
U iOi
Ġw tedy
ĵ åĽ½
m ales
ÑĢ ÐµÐ½ÑĤ
Ðĵ Ðŀ
Ð¾Ñĩ ÐºÐ°
ĠÄĳ Ã¡
ĠÐ¿Ð¾Ñĩ ÑĤÐ¸
o ÅĤ
ç´ Ļ
cia is
ĠZ obacz
ĠW sp
Ġelect rÃ³
ro it
Ġz b
ĠãĤ ®
ti ene
ĠEle kt
ĠR et
Ġcon n
ĠÄĳ áº·t
z in
ÑĪ ÑĤ
Ð¾Ð¼ Ð¸Ð½
ç®¡ çĲĨ
Ġpierw szy
ĠPau lo
Ġcon t
Ã¤ nge
h os
å¯ Į
Ġneces ita
Ġç ļ
å ©
å¤ ±
Ġc and
Ġdiman che
ĠÐĶ Ð°ÑĤÐ°
ĠÐ± Ð¾Ð½ÑĥÑģ
ĠÐ½Ð¾Ð² ÑĭÐµ
ĠJue gos
Ġma tiÃ¨re
Ġunsere m
ÐµÑĩ Ð°ÑĤ
Ġf eira
Ġ ÅĤad
ĠK osten
Ð¾ÑĢ Ð´
ĠmoÅ¼e my
R O
Ġpare jas
Ġcon j
Ġmie mb
ĠFeb ru
Ġpa ar
ĠL iv
olo gique
ĠczÄĻ ÅĽÄĩ
£ i
Ġãĥ ĺ
Ġda vvero
ti re
Ġsch warz
ĠT ro
ch arge
Ġmod i
ĠÐĶ ÐµÑĤ
ÑĪ Ð¸Ð¹
Ġpre z
Ġha ciendo
ãģ¾ ãģĹãĤĩãģĨ
Ġdiri g
mm t
Ii wi
Ġk or
se mb
va ciÃ³n
áº± m
ĠS on
Ġsa gen
i Ã§Ã£o
is Ã©
ĠÐ¾ÑĤÐ´ ÑĭÑħ
Ġest udio
Ġs ettore
____ ____
ĠÐ² Ð´
te le
ï¼ ¯
ãĤĴ éģ¸
Ġinsta llation
cia to
CI ON
Ġvia je
çĨ ±
Ġeig entlich
Ġaller dings
ĠdiffÃ©r entes
Ġcam po
Ð¾Ð² Ð°Ð»
ĠC ena
mi ar
Ġini ti
Ġkh Ã³
ĠEins atz
ĠC ode
Ġdro its
Ġkonk urs
ĠT om
Ġtro chÄĻ
Ġprojet s
ĠP age
ĠAs s
ãĤ¹ ãĥļ
ĠÐ¡ Ð¼
Ġpros tu
ĠÐ¸Ð· Ð´
ĠQues ta
Ġes sent
Ġfunk cjon
ĠI B
Ġac ceso
ei ros
ag er
ĠÐĿ Ñĥ
ĠÐ¸Ð· Ð³Ð¾ÑĤÐ¾Ð²
Ñģ ÐµÐ¼
Ð· Ð¾ÑĢ
Ġes cen
h Ã¤ng
Ġna p
Ġto p
æľ ª
ĠÑĪÐ¸ÑĢ Ð¾Ðº
Ġst essa
Ġmus ique
ãĥį ãĤ¹
Ġse cteur
tur y
Ġcl aro
Ġoff res
ĠÐ±Ð¾Ð»ÑĮÑĪ Ð¾Ð¹
Ġal gÃºn
tif i
Ġme to
ÑĮ ÐµÑĢ
Ġt iáº¿t
si asi
Ġdo ty
ãģĤãĤĬ ãģĮ
Ġå° ĳ
ÅĤ asz
ĠÐŀÑģ Ð½Ð¾Ð²
ĠB lick
Ġsol ution
Ġap enas
Ġcon fi
ĠÐ·Ð°Ð½ ÑıÑĤ
ĠS pa
ĠPho to
qu et
çİ ĭ
ĠDe zember
hr t
Ġpre zent
at ure
ĠD ann
ĠmÃ© di
ĠÑĥÐ´ Ð°Ð»
wa gen
s ku
Ġreg istra
Ð¸Ñı Ð¼Ð¸
ĠL ig
ĠVi vo
ĠCar los
ras es
a Ã±o
ĠÑģÑĤÑĢÐ°Ð½ Ñĭ
ĠFr Ã¼h
Ġszyb ko
Ġtu á»ķi
u ite
Į æľĽ
éī Ħ
ĠAngebo t
Ġpo za
me dia
è²» çĶ¨
vers itÃł
ita tion
ĠmÃ© th
Ġes os
etz en
Ġ5 7
Ġsal on
Ġne uf
Ġç¨ İ
ge hen
b ro
Ġdess us
ãģ®å ķĨåĵģ
ä¸ Ī
æĹ¥ ãģ®
Ġse le
Ġd re
Ġw ido
ar do
Ġmil ioni
Ġresp ecto
Ġkh á»ı
ĠÐ´ Ð¾Ð±
Ġh aute
od a
Ġsi ze
éł ħ
åĭ ¢
inter es
ĠÐ¿Ð¾Ñĩ ÐµÐ¼Ñĥ
Ġzakres ie
ĠmoÅ¼liw oÅĽci
ĠÐ½Ð¾ ÑıÐ±ÑĢÑı
Ġzak oÅĦ
Ġdescar gar
er ÃŃa
ĠÃ© to
Ġ) :
Ð°Ðº Ð¸
Ġest Ã£o
çµ ±
Ġy our
Ġho teles
Ġau prÃ¨s
Ġulti mo
ĠÐ¾ÑĤ Ð²
Ġrac con
ig dy
Ġterri torio
graph ie
Ð ®
ĠÐ´Ð¾Ð¼ Ð°ÑĪ
Ġulti ma
ĠÑģÐ¾Ð± ÑĭÑĤ
ri do
Ġty tu
Ġri f
nos i
an ke
ãģ®æ °
ĠW and
ve ur
Ġdi vers
ĠFor m
Ġri guar
Ġt ÄĻ
Ġmes sa
Ġweb cam
l Ã©s
Ð¸Ñģ Ð»
æī ¿
ĠÐŀÑĤ Ð²ÐµÑĤ
Ġ3 00
ĠÐ²Ñĭ ÑĪÐµ
Ġcomp lÃ¨
Ġn á»Ļi
h le
Ġconf ron
ĠGener al
Ġf echa
Ð¸Ð² Ð¸Ð´Ñĥ
ĠÐ¾ ÑĪÐ¸Ð±
Ġå¾ Į
Ġp rywa
ĠÑĥ Ð½Ð¸Ð²ÐµÑĢÑģ
Ġquo ti
ãĤ· ãĤ¹ãĥĨãĥł
® éĢļ
è² ¸
ãĥ³ãĤ ¬
Ġad res
Ġrepres ent
ĠW issen
ĠF emmes
Ġaff aires
áº· p
Ġes se
ĠÑĩ ÐµÑĤ
Ġb agno
ĠS and
Ġvia ggio
æľŁ éĸĵ
Ġv ent
Ġdzie w
wi cz
Ġwy jÄħ
é »Ĵ
ĠÃ© lÃ¨
Ġim mobilier
Ġqu atre
ÐµÐ½Ð¸Ñı Ð¼Ð¸
mb ro
è³ ŀ
ĠÐ¸ÑģÐº ÑĥÑģ
Ġt ÅĤuma
Ã¡ genes
po is
å ¨
Ġex iste
ĠP om
jÄħc ym
Ġgut schein
Ġbe kommen
ĠÐŀ Ð½Ð°
Ġng ay
Ġha ve
Ġna tura
ãĤĤ ãģĨ
Ġen ti
Ġrze cz
Ġmein er
r ichten
ÑĥÑĤÐ± Ð¾Ð»
ĠÑģ ÑĥÑĤ
wa ÅĤa
; ;
é£ Ľ
T ER
Ġneces ario
Ġcze ka
ĠÐ¸Ð· ÑĥÑĩ
ob ra
Ġre ven
ur os
Ġpas sen
ĠM ona
ķ ı
Ġam ministra
ced ente
Ġzas tos
ni ku
Ġlu Ã´n
ĠÐ¾ÐºÑĤ ÑıÐ±ÑĢÑı
Ġin st
ĠÐł Ñĳ
ĠÑħ Ð¾Ð»Ð¾Ð´
Ġle icht
tiv idad
ĠE U
fÃ¼hr t
as za
ĠB á»Ļ
c les
Ġstu dio
Ġzd jÄĻcia
Ð² Ð¸
il a
ĠDes car
te ar
Ġtr y
Ġlle va
ĠÐ· Ð°Ð»
ĠÐ°ÑĢ Ñħ
Ġogr ani
Ġconc ours
Ġaura it
ãĥ¡ ãĥ¼ãĤ¸
Ġpue do
ves ti
æķ ħ
Ġb Ã¬nh
p ia
Ġd v
ĠO ri
ĠÐ¸Ð³ÑĢ Ð°ÑĤÑĮ
ĠÑħ ÑĢÐ°Ð½
gi Ã³n
Ġs tori
ĠRa hmen
ĠÐ¾ Ñħ
æ ¿
pp s
ä½ Ĳ
Ġcom une
Ġje we
ĠV ille
ĠpÃ©ri ode
æ´ Ĺ
éĬ Ģ
Ġswoje j
ĠÐ¼ ÐµÐ»
ĠÑĨÐµÐ½ Ðµ
Ġcon tri
Ġme isten
ĠÐ¾Ð± Ð»Ð°Ð´
Ġcon he
Ġdzi ÅĽ
ta zioni
ãĤ¼ ãĥ³ãĥĪ
ãĤ¦ ãĥĪ
ve ment
ĠÐ½ Ð¸Ð¼
éļĽ ãģ«
Ġcha uff
Ã± ad
ni mo
ta tions
Ġnh anh
Ġmal ad
Ġc uy
ĠÑĤ ÑıÐ¶
ãģ«éĸ¢ ãģĻãĤĭ
Å¼ li
ĠÐ²Ð¾Ð· Ð²
Ġperi odo
Ġ6 5
Ġr endre
ãĥĭ ãĥ³ãĤ°
è² ¨
Ã³ venes
Ġra zy
ãĥ¼ãĥ Ŀ
ç °¡åįĺ
Ġl Ã©
Ġlá» Ŀi
Ġch ac
Ñī Ð¸Ðº
ta les
wyk le
ĠÐºÐ¾Ð¼Ð¿Ð» ÐµÐºÑĤ
ĠÐ»Ð¸ÑĨ Ð°
Ġæ Ĥ
Ġpues to
D E
Ġt aux
ĠÐ¾Ð³ÑĢ Ð¾Ð¼
Ġpers Ã¶n
Ġfon da
ãģ¨ ãģ¦ãĤĤ
ãĥĭ ãĥ¼
Ġusu arios
Ġquien es
ite l
Ġappar tement
Ġf ic
czÄĻ ÅĽcie
uf e
Ð¾Ð· Ð°
Ð»Ð¸ Ð¹
Ġh Ã£
ĠdÃ© mar
re ur
Ġri us
Ġso ir
Ġb Ã¢
ãģ«ãģ¤ãģĦãģ¦ ãģ¯
ĠK ind
b are
ĠÐºÐ¾Ð½ ÐµÑĩÐ½Ð¾
Ð¾Ð» Ð¾ÑĤ
Ġza interes
ÑĪ Ð¸Ðµ
Ġma ggior
Äħd u
Ġ") .
ãģķãĤĵ ãģĮ
è Ķ
Ġan zeigen
ĠSch n
or f
Ġwen iger
Ġp at
ĠÑĢÐµÑĪ ÐµÐ½Ð¸Ðµ
ĠÐ¡ ÐµÐ³Ð¾Ð´Ð½Ñı
åį Ķ
Ġãĥ Ĵ
Ġse k
i tions
ÐĿ ÐĲ
Ð¸Ð³ Ð½
ĠK at
Ġind Ã©
ĠÐ¸Ñİ Ð½Ñı
Ġa qui
ĠW ert
áº· ng
tis che
ĠÐ´ ÑĥÑħ
Ġpre par
wia m
Ġzam Ã³wi
w ol
çĽ¸ æīĭ
Ñĥ ÐºÐ°
ãģ¨ãģĦ ãģ£ãģŁ
ĠPerson en
Ð¾Ð» Ð¸ÑĤ
ÐµÐ¹ Ñģ
Ġa ten
ĠæĬķç¨¿ æĹ¥
åł´ æīĢ
Ġdesc ub
id ence
Ġno ti
dzia l
un ek
vil ion
ind ung
ĠNg uyá»ħn
ĠÃ Ĩ
Ġm á»įi
Ã¨ les
Ġau ment
ĠM A
Ġatten d
ĠC entre
ĠQ ui
bi Ã³
Ġconse il
ĠÑĢÐ°Ñģ Ð¿
ĠQu el
cz ony
ĠÐ¸Ñİ Ð»Ñı
Ġdo ivent
ĠÐĽÑİ Ð±
ÃŃ cio
ĠGeschÃ¤ft s
Ġzde cyd
ĠÐ¸Ð½ Ð²ÐµÑģÑĤ
ĠÐ´Ð¾ÐºÑĥÐ¼ ÐµÐ½ÑĤ
Ġhat ten
ĠÑĢÐ°Ð·Ð»Ð¸Ñĩ Ð½ÑĭÑħ
Ġkier ow
ãĥ¬ ãĥ³ãĤ¸
rit ti
ĠAh ora
Ġreal tÃł
Ġï¼ī ãĢĤ
ur ent
ĠÑĢÐ°Ð±Ð¾ÑĤ Ð°ÐµÑĤ
ĠTwo je
Ġseg uro
ĠhÃ´tel s
ĠgÅĤ os
Ġf rom
Ġuwa gÄĻ
Ġf indet
Ġincont ro
ĠÐ· Ð¸Ð¼
Ġtratta mento
Ġdef ini
ĠWir tschaft
Ġè ĸ
ãĤĪãĤĬ ãĤĤ
ĠÃºlti ma
Ġ5 2
Ġv ite
ĠÄĳ áº·c
Ġes ca
ĠCan ada
ĠMo Å¼e
ĠT Ã¼r
ve ux
Ð¾Ð³ ÑĢÐ°Ð¼
ĠÑģ Ð¾Ðº
os p
ĠN A
Ġprzed siÄĻbior
Ġha cen
Ġsam e
est ra
Ġmin istre
ÑĪ Ð¸ÑĢ
ta Ã§Ã£o
Ġhand l
ĠG en
ter o
am ientos
dien st
b and
ais on
ĠÐ¼ÐµÐ´ Ð¸ÑĨÐ¸Ð½
Ġè Ģ
ĠP ie
is i
Ġfor am
c n
ĠZ am
éĽ ĳ
Ġinc re
Ġwska z
Ġb ord
ĠÑģ Ð¾Ñĩ
ÑĢ ÑĭÐ²
ag lia
Ġjed nym
Ġwyk orzyst
Ġal to
é ½¢
Ġb áº¯t
Ġg ilt
Ġpersonn el
æ¯Ķ è¼ĥ
ola ire
Ġcam era
ãģĦ ãģ§
Ð¾ÑģÑĤÐ¾ ÑıÑĤÐµÐ»ÑĮ
ĠÑģ Ð°Ð´
Ġv ac
Ġh ast
k el
ãģ®è ī
Ġp iel
Ġse cre
Ġ= \"
Ġten ÃŃa
hn t
Ġob lig
Ġsecon da
ĠÑģÑĤ Ð°Ð»Ð¸
ãĥ¼ãĥ ¡
Ġdes cu
Ġi le
cie Å¼
Ġau cune
Ġent wick
Ð¿ Ð¾ÑĢÑĤ
M z
Ġda w
ĠÐº Ð¾Ð¿
Ġcu ad
ĠmoÅ¼ esz
ar s
ãģĮ ãģĤãģ£ãģŁ
par tamento
ãģ®å º
Ġpes o
ĠÑģÐ¸ÑģÑĤÐµÐ¼ Ð°
Ġgu ida
ĠFamil ie
ĠPa vilion
ĠGl Ã¼ck
Ġorig ine
ĠÐ¿Ð¾Ð¼Ð¾Ñī Ð¸
j us
er ÃŃo
Ġtom ar
Ð½ Ð¾Ð¿
cz o
éĽ» è©±
dor f
ĠD ank
ĠWa hl
ĠÐ¡Ð°Ð½ ÐºÑĤ
ÐµÐ½ Ð½Ð¾ÑģÑĤÑĮ
Ġot war
Ġser rur
ĠTa ille
Ġprofessionnel s
ch Ã¨
ab ili
ĠF ranÃ§ais
m ission
Ġcor az
ĠÐ¿ÑĢÐ¸ Ð±
Ġr il
icht ung
ãĤ¤ ãĥ³ãĥģ
Ġbas tante
d ÅĤug
Ġäº Ī
Â ±
Ġh Æ°á»Ľng
ĠPart ner
Ġcomm ande
Ġri p
Ã¤ ge
Ġdocu ment
Ġimp ression
ĠFebru ar
Ġwe gen
Ġin sp
ç¨ĭ åº¦
Ġprote ction
Ġper form
ĠÑģ Ð¸Ð»ÑĮ
Ġpo ten
Ĳ Ĩ
l ent
Ġsu bito
çĹ Ľ
Ġpalab ras
Ġlung o
sta dt
Ġre tur
ÅĦ skiego
Ġx Ã¢y
ãĤı ãĤĮãģ¦
ĠÑģ Ð¿ÑĢ
ĠMar ie
ĠT able
ĠD U
Ġan aly
ia j
Ġm unicip
ĠR od
Ã¡ r
p ier
Ġpeu x
ĠnÃ©ces saire
ãģ® ãģĶ
ĠUni vers
ä½ Ļ
ĠÐľ ÐµÑĤ
Ġcon for
Ġm Ã³
ĠrÃ©p onse
ĠÐ¢ ÐµÐ¿
Ð¸ÑĤ ÐµÑĤ
Ã¡n d
Ġsz ero
Ġpro xim
ãĢħ ãģª
ĠãģĿãģ® ä»ĸ
schn itt
Ġam our
ĠÐ»ÐµÐ³ ÐºÐ¾
Ġg ol
Ġg ab
Ġris que
Ġretur n
kol wiek
ĠmÃł u
ãģ® ãĥĲ
ĠÄĳ áº¡o
ĠT odo
tar ÃŃa
ĠkaÅ¼de go
ĠC ul
ul ares
c rÃ©
Ñĩ Ð°ÑĤ
Ġk sztaÅĤ
ç² ¾
ĠL ong
Ġseu le
ĠÑģÑĤ ÐµÐº
por to
Ġk l
ĠÐ¿Ð¾Ð½ ÑıÑĤ
äºĭ åĭĻ
Ġw ier
Ð¼ÐµÑĢ Ð¸ÐºÐ°Ð½
ãģ®å ¹
Ġ6 4
Ã©b Ã©
ĠV oi
aul t
Ġ5 3
ĠÃ©le ct
ĠDo po
ente mente
ĠSt unden
Ġznajd uje
Ġmat in
Ġ ãģ§ãģĻ
ÐµÐ½ Ð½Ð¾Ð¼
Ġtá» Ń
Ġd Ã¼r
Ġe dad
Ġsa gt
é Ĺ
x ion
ãģ§ãģ¯ ãģªãģı
ĠÐ¡ Ð»
ĠWeit ere
Ġs ce
ĠKÃ¼ che
ĠÐ¼Ð°ÑĤ Ñĩ
ĠFar be
Ġz oba
Ġsie ht
Ġt Ã©
Ġsemb ra
wit ter
ĠReview Image
ãĥª ãĥķãĤ©ãĥ¼ãĥł
ãģĦãģ¦ ãģĦãĤĭ
Ġinte gra
æŃ »
lich keit
Ġu d
Ġst ru
A B
lis is
Ġnecess ario
I EN
Ġvi ol
ĠÐ¶ ÑĥÑĢÐ½
ĠÐ¿Ð¾ÑģÑĤ ÑĥÐ¿
r Ã¡s
ĠReg ion
ĠÐł ÐµÑģÐ¿ÑĥÐ±Ð»Ð¸
á» ĥ
Ġhay a
ĠÐ·Ð°ÑĢ Ð°Ð±Ð¾ÑĤ
ĠÐ±ÐµÐ·Ð¾Ð¿Ð°Ñģ Ð½Ð¾ÑģÑĤÐ¸
Ġpoz na
ãģ¨ãģĦãģĨ ãģ®ãģ¯
ĠF ranÃ§
va is
Ġparticu lier
æŁ ĵ
rz u
Ġacom paÃ±
b os
Ġkein en
ĠÐ± ÑĥÐ¼
d an
ĠB lack
Ġpie d
áº« u
ĠQu alitÃ¤t
Ã¨ de
fic ar
ĠrÃ© gu
ĠÐ¼ ÐµÑħÐ°Ð½
Ð¾Ð»Ð¾Ð³ Ð¸Ñı
Ð»Ñı ÑİÑĤ
Ġm usz
Ã¤ hlen
ãĥ³ãĥ Ń
Ġngh á»ĩ
S O
Ġlo cal
ĠJ etzt
ĥħ åł±
ĠNie der
ĠÐ°Ð¿ÑĢ ÐµÐ»Ñı
Ð½Ð¸ ÑĨÑĭ
Ġkle inen
ĠP ia
Ġv ost
Ġlep iej
« ª
¤ ĩ
Ð¸Ð² Ð°ÐµÐ¼
Ġph á»ĳ
ĠK Ã¶
ĠÐ¼ ÑĭÑĪ
Ġs quad
Ġ ğ
ĠdziaÅĤ ania
ckie go
Ġcier to
lÃ¨ mes
Ġal guien
Ġw ody
ĠCol ombia
Ġreg ist
ĠÐºÐ¾Ð½Ðº ÑĥÑĢÑģ
ĠÐ± Ð¾Ð³
Ġdiver se
ãĥ© ãĥ³ãĤŃãĥ³ãĤ°
ãĤ° ãĥ©
Ġl uch
id era
on Äħ
Ðº Ð°ÑĤ
Ð»ÐµÐ½ Ð¸Ñİ
ãĤ¦ ãĤ¹
es sen
rit t
Ġnombre uses
ãģ®å ĭ
m ado
ĠZ usammen
icher ung
Ġviel leicht
ÐµÐ² Ð¸Ñĩ
ÑĥÐ¹ ÑĤÐµ
I M
Ġde ben
cze ÅĽnie
ĠÐ¶ÐµÐ» ÐµÐ·
um n
Ġali gn
çµ ¡
å¸Ĥ åł´
Â ·
ĠÃ ĩ
Ġs á»©c
Ð°Ð½ Ð½ÑĭÐ¹
ĠciÄĻ Å¼
Ġent rÃ©e
ĠÐ¿ÑĢÐ¸ ÐµÐ¼
ter os
Ñı ÐµÑĤÑģÑı
ãģķãĤĮãģ¦ ãģĦãģ¾ãģĻ
ur i
ĠÐ½Ð°Ñģ ÐµÐ»
Ġens uite
res a
Ġzmi an
Ġprodu cciÃ³n
e hen
Ġf ÃŃ
Ġer klÃ¤r
Ġcomment aire
Ġapp rÃ©
Ð¸ÑģÑĤ ÑĢÐ°ÑĤ
Ð² Ñĭ
id i
ĠÑģ Ð°Ð»
Ð¸Ð± Ð»Ð¸
Ġsto p
Ġpis cine
Ġdou ble
Ġcorres pond
ĠprÃ© cÃ©d
Ð± ÑĥÑĢÐ³
ant wort
tel le
Ġab s
Ġm áº¡nh
ĠÐ¿ÐµÑĢ ÐµÐ¿
Ġza war
Ġis titu
Ġty le
ĠÐ± Ð°ÑĢ
Ġg rid
çµĲ å©ļ
Ġne ben
Ġ ÅĤÄħ
Ġas es
Ġdi as
ä¾ Ŀ
Ġve ngono
Ġf rei
ĠÑĥÑĩ ÑĢÐµÐ¶Ð´
ng o
ĠI st
ĠA G
Ġgemein sam
p reis
ga ben
Ġou i
tori as
at is
er ne
ko j
ħ è¡Į
ÐµÑģÑģ Ñĥ
on te
Ð¾Ð»ÑĮ ÐºÑĥ
ĠÅĽwie cie
anta ge
Ġtá» ·
lica ciÃ³n
icht s
Ġo cas
Ġab ier
ĠÐ² Ð»Ð¸Ñı
Ġcomun que
ĠNue va
pr uch
cesso ires
Ġuti l
7 3
ĠsÃ» r
Ġn á»¯
Ġgiov ani
ĠRa um
iáº¿ m
Ġi den
Ġka p
Ġwy posaÅ¼
ca Ã§Ã£o
tegor ia
ĠM iej
t ures
Ñĳ ÑĢ
Ġsa gte
Ġpew no
Åº Äĩ
oul d
Ġpo b
Ġf ron
Ġgen re
Ġdom aine
ig i
li kow
Ġn arz
Ġm ostra
Ġcons titu
Ð¾Ð¶ Ð½Ð¾
Ð¾Ð´ Ð°ÑĤÐµÐ»ÑĮ
ĠCon si
Ġqual siasi
ĠA g
d ido
Ġpra wa
v Ã©s
Ð¾Ð» Ñİ
Ġaplica ciÃ³n
ur so
Ġquier o
Ġv arias
Ġnh á»ı
Ġwy stÄĻp
ĠÐ¿ÑĢ ÐµÐ·Ð¸Ð´
Ġre co
ãģ¾ ãĤĭ
å¸ Ń
ĠCuis ine
li r
ĠÐ¾ÑĤ Ð¼
ĠAc tu
Ġfu ori
ãģ®å ľ
jer os
Ð½ Ð°Ð·
ĠpoczÄħ tku
ĠÑģÐ²Ð¾ Ð¸Ð¼
Ġcade au
Ġar ch
ĠÐ½ Ð°Ð¹Ð´
Ġse ja
mp f
ven ue
Ñı Ð»Ð¸
ci ÄħÅ¼
Ġcin co
gn et
Ġdispon ibles
ĠÑĢÐµÑģ ÑĥÑĢÑģ
ĠÑģÑĤ ÐµÐ½
ĠÐ¼Ð°Ð» ÐµÐ½ÑĮ
Ġinv est
ĠA U
Ġpour ra
Ġp ier
Ġdi vent
b s
me m
ĠrÃ© un
Ġmies iÄĻ
Ġæ ¶
ze pt
Þ ¬
Þ ª
Ġthu áºŃt
Ġab ge
Ġliv res
ĠÐ¾Ð¿ Ð°Ñģ
wy czaj
Ġå ²
ãģ®æ īĭ
ĠIni cio
tar on
ĠÃ©v Ã©
Ġf as
le g
ãģ®æ Ń
Ãº de
ĠÐ²Ð¾Ð·Ð´ ÑĥÑħ
Ġge b
Â ¿
Ġká» ³
ĠA R
Ġpro por
Ġproxim itÃ©
Ġas sim
te zza
Ġma Ã±ana
ĠL ors
Ġpoprze z
ãģ®åī į
Ð¸ÑĤÐµÐ»ÑĮ Ð½ÑĭÐ¹
bei tet
Ġinter ess
ãģ² ãģ¨
ãģ®æ Ķ
Ġl ing
sion es
Ġmedi os
ĠS ter
ÑĦ Ð¾ÑĢÑĤ
gr Ã¼n
ĠÑħ ÑĥÐ´
Ġsi tios
Ġon a
á»« ng
ay s
Ġcon cas
Ġg az
ĠÑĢÐ°Ð¹ Ð¾Ð½Ð°
ĠP lan
Ġdei x
Ġco cina
Ġpla ta
ĠÐ´ ÐµÑģÑı
ic ro
½ çī©
Ġte xte
g um
äºĪ å®ļ
cri re
ĠktÃ³r Äħ
ĠP ros
Ġe mo
Ġdich o
ĠtÃ©lÃ© phone
Ġ> <
Ã© ctri
b esch
Ðº Ð¾ÑģÑĤÑĮ
Ã¤n de
ĠÑĢÐ°Ñģ ÑħÐ¾Ð´
tu be
Ġle er
th er
Ġauto ma
ĠN O
a go
ĠÐ´ Ð¾Ð±ÑĢ
as a
Ġåı ĸ
ĠMej or
Ġresp uesta
ĠV ene
Ġpag ina
Ġï¼ģ ãĢį
ãģ¯ ãģļ
Ġth anh
re as
er ci
ĠÐĺÐ½ÑĤÐµÑĢ Ð½ÐµÑĤ
¥ åº·
ĠÃ©v al
Ġi Å¼
Ġsour ce
ĠÐ¸Ð³ÑĢ Ð¾Ðº
00 00
éĸĭ çĻº
Ġnh Ã¬n
ĠB ol
Ġtram ite
Ġtempor ada
Ġfunk tion
d l
Ġ ă
cyj nego
o c
ãģ®å ½
Ġsu pÃ©rie
ĠÑĦ Ð¾ÑĢÑĥÐ¼
ĠFor um
si te
ÑĥÑģ Ð°
ĠÐ¿Ð°Ð¼ ÑıÑĤ
Ġgi udi
Ġpo k
u h
ĠÐ¿ Ð°Ð½
Ġos iÄħ
ĠãĤ¹ãĥ¼ãĥĳ ãĥ¼ãĤ³ãĥĶãĥ¼
ãĥ¼ãĥ ľ
ĠmÃº sica
Ġbeso ins
ĠÐ¸Ð¼Ðµ ÑİÑĤ
Ġus ar
c rit
k ung
Ġé ¦
8 4
ĠBas k
c tez
Ġcho isir
Ġorigin al
Ġn Æ¡i
Ġscel ta
Ãºb lica
ĠN Ã¤
Ġfor um
Ġsame di
am er
Ġcommun au
Ġå ĴĮ
çħ §
Ġdz ien
ĠA M
Ġcre ar
ĠH is
Ġob ser
ĠÑĢÐ°Ð· Ð³
ä½ı å®ħ
Ġcam p
Z CI6
Ġsku te
ĠÐ¾Ð±ÑĬ ÐµÐ¼
ãĥī ãĥ¬ãĤ¹
Ġzei gt
èĮ ¶
ãģ«ãģª ãĤĬãģ¾ãģĹãģŁ
Ġda her
s ko
ĠÐ½Ð¾Ð² ÑĭÑħ
ĠGio v
va zione
ĠAn che
ĠCas erÃŃo
g les
ĠVer anstal
ni kiem
ĠNo ticias
ĠÐ¡ ÐµÐ²
æµ ľ
ca ciones
ï¼ ´
ãĥ« ãĥĢ
Ġre cu
ĠF est
ĠWiÄĻ cej
ĠP io
Ġe g
Ġmy ÅĽl
Ġcand id
or ter
ãĥ¬ ãĤ¤
ĠÐĳ Ð¾Ð³
ĠÐ¡ ÐµÑĢ
ti Ã³
Ġconse ils
ĠÐ¾Ñģ Ð²
Ġdo vre
ãĤĴæ ±
mi que
k ces
Ġcon cep
or en
Ġcl ub
ĠÐ¿ÑĢÐµÐº ÑĢÐ°Ñģ
Ġe her
te g
ĠçĽ ®
6 æľĪ
Ð°Ð± Ð°ÑĤ
tÃ© es
stru k
ori i
ãģĳ ãģªãģĦ
ĠQ UE
Ġdispos i
ĠÑģÐ¼ Ð¾Ð³
ãģĭ ãĤı
Ġm Ã³vil
ĠSchla f
at tro
aj as
ĠÐ¿ÑĢÐ¸Ð½ ÑĨÐ¸Ð¿
Ġrecenz ji
ĠBar dzo
Ġcam ino
Ð Ĩ
ĠÑĢÐ°ÑģÐ¿ÑĢ Ð¾ÑģÑĤÑĢÐ°Ð½
ti ers
d ym
Ã °
á» Ľi
ĠWo che
Ġzes po
Ġé »Ĵ
åĨ ĻçľŁ
ĠÃºlti mos
ĠvÃ© hic
Ġsi ti
one go
ĠH ilfe
ĠÐº Ð³
Ġr odz
Ġ- -
æĹ¥ ãģ«
ĠÑĢ ÐµÑĩ
Ð°ÑĤÑĮ Ñı
ĠÐ³ ÑĢÐ°ÑĦ
Ġpodsta wie
Ġa gu
Ġpi cco
Â ¸
Ġv áºŃt
Ġne hmen
ĠfranÃ§ais e
Ġprodu k
ÑĪ ÐµÐ³Ð¾
Ġnaszy m
ĠÃ© dition
Ġla tach
Ġvendre di
ĠrÃ© ussi
ÑĢ ÐµÐ¹
ĠÐ°Ð¿ Ð¿Ð°ÑĢ
ĠSe villa
Ġconcern ant
quil er
le b
ãģĦãģŁ ãģĹãģ¾ãģĻ
äºĪ ç´Ħ
Ġde di
Ġh il
ĠConse il
ĠÃ©ner gie
f ar
ĠÐ¿ÑĢÐ¾Ð±Ð»ÐµÐ¼ Ñĭ
Ġes col
Ġmater iaÅĤ
Ġsch wer
Ġprze de
AD O
Ġbe b
Ġprodu ct
Ġin se
ãĤĵ ãģ¨
Ġcol umn
ãĥ¬ ãĥĥãĥĪ
Ġna g
ĠæľĢ è¿ĳ
ãģĹãģ¦ ãģĦ
ĠÑģÐµÑĤ Ð¸
Ġen reg
Ġa rea
ĠJ es
enez uela
ich en
ĠÑģ Ð¾Ñģ
Ġprofesion ales
Ġpo ter
Ġa tu
è¨Ń å®ļ
Ġesti lo
Ġra ggiung
Ġn owych
æĪ ¿
Ġãĥķ ãĤ£
ä¸ ģ
w in
ãģ¿ ãģ«
ï¼ ¥
æŃ Į
æĸĻ éĩĳ
ĠÐŁ Ð¾ÑģÑĤ
ĠS us
ĠÑĢÐ°Ð· Ð±
ãģ¨ãģª ãĤĭ
Ã¡ lisis
Ġex cel
Ã¼ rz
ĠÃ©lectri que
k an
za ciones
Ġp y
Ġzak u
Ġpl anta
Ġparf ois
ĠãģĿãĤĮ ãģ¯
Ġejer ci
Ġpue blo
ĠÐºÐ¾ÑĤÐ¾ÑĢ Ð¾Ð¼
Ġel a
ZX J
Ġu ch
ada ÅĦ
èĭ ¦
Ġeff etti
G F
Ġk uch
Ġtrata miento
Ġa di
R l
Ġprzed stawi
Ġd ichi
Ġpro tÃ©
ãĥ¡ ãĥ©
n oÅĽ
Ġwy pad
Ġl undi
ãģĽ ãĤĭ
id encia
ĠZ ur
ĠRe cher
isse z
an owi
Ã¡n dose
Ð°ÑĢ ÑĥÐ¶
ĠT V
ĠMitarbeit er
Ġè ¥¿
Ġter re
ala xy
ĠC ze
Ġph á»¥c
Ġmad re
ĠD ia
Ġst and
ng ua
ãĥ¼ãĥ į
Ġnatur al
las se
ĠÑģ Ð½Ð¸Ð¶
ĠÑģÐ² Ð¾Ð±Ð¾Ð´
uer ra
usam me
tiv itÃ©
ĠÐ´Ð¾Ð»Ð¶ Ð½Ð°
Ġph á»¥
Ġnum Ã©ro
ĠD enn
Ġste llen
ãģĭãĤī ãģªãģĦ
Ð°Ð»ÑĮ Ð½Ð¾Ð¼
Ġroz wo
ç Į
Ġk orzysta
Ġso fort
ĠK Ã¶rper
ĠpiÃ¨ ce
ĠÐ¾Ð± Ð½
ãģĻãĤĭ ãģĵãģ¨
Ġevi tar
ei r
Ġeben falls
Ġb á»Łi
ĠM E
Ġher rami
ĠSp ra
ĠsiÃ¨ cle
ï¼ ¤
å¾ ©
ĠP ierw
ĠTra b
Ġdes envol
Ġrec ursos
ĠBus ca
Ġprop io
ta ura
Ñĥ ÑİÑĤÑģÑı
Ġçı¾ åľ¨
Ġps ych
Ġnasze go
Ġinwes ty
Ġzmi any
Ġconse guir
ĠD ec
Ġf unda
ĠTod os
Ð¸ÑĤ Ð°Ð¹
Ġãĥķ ãĤ§
ĠEsp anol
ĠZapa tillas
ĠB an
ĠAn uncios
ĠC r
Ġdu da
Ġinter ior
Ġexp lo
ĠCham bre
Ġsprzeda Å¼
Ġzw iÄĻk
æ´ ¾
ÐµÐ² ÑĭÐµ
ĠÐµ Ð¶
Ġprze j
Ġw ahr
f ois
Ġodpowie dni
ĠÐ²Ñĭ Ð´ÐµÐ»
ãģĮ è¦ĭ
ĠÑįÑĦÑĦ ÐµÐºÑĤ
ta te
Ġv iej
Ġ ~
Ġu trzym
Ġles bianas
L O
Ġutili zar
Ġacc or
ÐĽ ÐĲ
ÐµÐ´ Ð¸
Ġç´ ł
Ġç¶ ļ
ĠÐ³Ð» ÑĥÐ±
Ġå ĥ
éĢļ ãĤĬ
ĠP elle
on da
ĠÐ¾ÑĤÐ²ÐµÑĤ ÑģÑĤÐ²ÐµÐ½
ĠÐ½Ð°Ð»Ð¸Ñĩ Ð¸Ð¸
unk te
Ġenf in
ĠdÃ© part
ĠÑĢÐ°Ð·Ð¼ ÐµÑī
Ġkom puter
cu encia
Ġso leil
ĠÐ¼ÐµÑģÑĤ Ð°
glio re
Ġäº ¤
m Ã©s
ĠJe Å¼eli
æŁ Ħ
æ¥ µ
Ġdo is
c ano
t ten
ier o
m mer
am in
Ġbi znes
ĠÃ© qu
ĠÐ´ÐµÐ¹ÑģÑĤÐ² Ð¸Ñı
Ġth áºŃt
ĠÐ´ Ð¸ÑĢ
ĠÐ²Ñģ ÐµÐ¹
ca ch
ĠÐĺ ÑĢ
jÄħc Äħ
ĠKon takt
ĠÐ²Ñĭ Ð²Ð¾Ð´
ÑĢÐ¾ ÑĦ
Ġu omini
Ġque m
Ġpag es
Ġ' '
A P
Ġcoule urs
Ġph ysi
è¨Ģ èĳī
áº¡ y
ĠÐ³Ð¾Ð» Ð¾Ñģ
tor no
Ġihre m
Ġu dziaÅĤ
ÐµÐ¹ÑĤ Ð¸Ð½Ð³
ĠÐ¼Ð» Ð½
ĠÐ¼Ð¸ÑĢ Ðµ
Ã¢n cia
Ġwarto ÅĽci
Ġmeille urs
Ġist nie
Ġcerta ines
ĠIn f
éĥ İ
ãģĪ ãģ¾ãģĻ
te i
ĠO ut
Ġactu al
ĠG el
ĠÐłÐ°Ð· Ð¼ÐµÑĢ
ĠÐ¼ÐµÑģÑĤ Ðµ
ãģ®å ¼
Ġen se
Ġacqu ista
Ġkos mety
Ġdo kÅĤad
ĠM uch
ĠSu che
oule ur
éģķ ãģĨ
Ġs cuola
ĠT H
á»ķ ng
ĠÐ³ÑĢÑĥÐ¿Ð¿ Ñĭ
Ġenfer me
ĠVo tre
Ġca ÅĤy
hand lung
ĠS il
ãĥ¼ãĥ ¬
ĠL Ã¶s
ou ch
Ġsu cc
Ġpre fer
ãģķãĤĵ ãģ®
å®ī å¿ĥ
Ġtá»¥ c
Ġsp Ã¤ter
Ð°Ð»Ð¸ ÑĦ
§ ĺ
åĢŁ ãĤĬ
ĠJed nak
ï¼ ²
ãģ¯ ãģĬ
Ġå· ¥
Ġ ä¾¡æł¼
çĶ³ ãģĹ
ĠDie u
ĠÐ½Ð° Ð¸Ð±Ð¾Ð»ÐµÐµ
ĠS tiva
Ġpun ti
Ã® ne
Ġes sa
ãĤĴæİ ¢
Ġ our
di go
d ores
è² ¡å¸ĥ
ãģ« ãģ¦
ĠãĥĽ ãĥĨãĥ«
Ġdeb ido
çĤ º
Ġquy á»ģn
Ġmo re
Ġbe de
Ñĭ Ð½
our ces
u il
ĠBe z
Ġusta wy
ĠspÃ© ci
ÑģÐº Ð¾Ð¼Ñĥ
ĠÐ´ ÐµÐ¼
ĠÑĢÐ°Ð·ÑĢ ÐµÑĪ
Ġs ze
æ³ ¢
tiva mente
8 9
ĠdÃ©c ouver
Ġprzez na
pon der
ro l
ĠC Ã¡mara
5 1
cie li
Ġvi vo
zy d
Ġé Ļ
Ġpue da
Ġag ri
Ġprze prowadz
ĠC et
ĠÑģÐµÑĢ ÑĮ
cos a
ĠS ing
èª¿ æŁ»
Ġwor den
Ġc ois
Ġs ent
Ġph Ã¢n
Ġzost anie
Ġblan co
fic os
v res
cri zione
Ð½Ð¾Ð² Ð°
zza ta
Ġcontr Ã´le
åĬ ´
ĠÐŁ Ð¾Ð¼
cz ba
ãģĹãĤĥ ãĤĮ
Ġä¸ »
Ġgestion e
\ \
A K
Ġzak up
Ġs wÃ³j
ier i
ĠmÃ© dica
Ġla que
ĠÐ¼ Ð¾Ð±Ð¸Ð»ÑĮ
Ġda to
Ð» Ð°Ð¶
ĠGes undheit
Ġd ane
ĠÑĤ Ð¾Ð¼Ñĥ
ĠEuro pa
ĠK aÅ¼
è Ĩ
åį ĥ
Ġtr iá»ĩu
ĠÐºÑĢ ÐµÐ¿
ĠLand es
pp i
Ġf ig
Ġvo is
ÐµÐ½ÑĤ ÑĢÐ°
te li
Ġna zionale
ãĤĪãģĨ ãģ§ãģĻ
Ġpos ition
ĠÑģÐµÐ½ÑĤ ÑıÐ±ÑĢÑı
la ciones
le gÅĤ
æľĢ å¤§
Ġhab lar
ĠÐº ÑĢÐ°
ĠG re
ta ri
Ð°ÑĤÐ¾ÑĢ Ð°
ÑİÑī Ð¸Ð¹
Ġqual quer
ĠI ng
ãĤ³ ãĥ¡ãĥ³ãĥĪ
ĠPro f
Ðł Ðĺ
ĠÐ¸Ð½Ð´ Ð¸Ð²Ð¸Ð´Ñĥ
ĠÐ± Ð¸
Ġparte cip
è± Ĭ
Ġp ul
Ġle ben
ĠÑĤÐ¾ÑĢ ÑĢÐµÐ½ÑĤ
ĠÑģÑĤ Ð°Ð½Ð´Ð°ÑĢÑĤ
Ġsort ie
Ġnuest ras
å ¬
ç ¬ĳ
ãģĹãģŁ ãĤĬ
Ġade cu
Ġter me
ĠÂ ¬
Ġb iáº¿n
Ġ5 1
Ã© cu
na ire
Ġcompr is
ĠÐŁ Ð»
ÑĮ Ð¸
ĠS eit
ri gio
Ġsare bbe
ĠHo y
Ġb ureau
are k
Ġz g
sch er
ĠÐļ Ð»
Ġcl ass
Ġcomp ra
Ġprofesion al
Ġinvestig aciÃ³n
Ðº Ð¾Ð²Ð°Ð½
ĠÑĨ ÐµÐ»ÑĮ
Ġda re
Ġar beit
ĠBon jour
Ġter rain
ĠFa ce
Ġuni vers
gg etto
w ski
rz es
Ġsi gue
Ġcos titu
Ġnie ktÃ³
n ent
èĪ Ī
Ð»Ð¸ Ð·
Ġpod em
éģ £
Ġ000 åĨĨ
èĲ½ ãģ¡
Ġ à²
Ġg áº§n
Ġcap ital
ma is
Ġm Ãª
ĠSo ftware
Ġb il
ĠÑĥ Ð²ÐµÑĢ
æĻ ¯
ara go
li zar
ĠS ud
Ð± Ñĥ
Ġãĥķ ãĤ©
Ġdeta lles
ĠEnt schei
ĠÑįÑĤ Ð°Ð¿
ĠÐ´Ð¾ ÑħÐ¾Ð´
éĥ¨ å±ĭ
Ġl ar
ab ilitÃ©
Ġperson ales
ĠprÃ© v
ĠEner gie
ĠÐ°Ð² Ð¸
äºĭ ãģĮ
Ġini cia
ãĥĥ ãĤ»
é ³
ĠJ un
ĠEn cu
Ġa ta
ta ger
ĠdÃ©ta il
ĠRÃ© f
Ġr oute
cia re
Ġwer de
Ġå Ń¦
iss on
Ġv ari
Ð¸Ð· Ð°ÑĨÐ¸Ð¸
Ñĭ ÑģÐ»
ĠÑģÐº Ð»Ð°Ð´
ze p
Ã Ĺ
ĠB Ã¬nh
Ġpr Ã³b
al le
ĠÑģÑĤ ÑĢÑĥÐºÑĤ
ĠNach t
Ġh áº¿t
ãģĵ ãģĿ
ãĤ» ãĥĥãĤ¯ãĤ¹
Ġæľ ī
Ġal c
ĠN ord
ÐµÐ³ Ð¸ÑģÑĤÑĢ
Ġk urs
ĠÑĢ Ð¸ÑģÐº
ãģıãģª ãĤĭ
res z
Ġcon ser
ĠÐ¸Ð½ÑĦÐ¾ÑĢÐ¼ Ð°ÑĨÐ¸Ñİ
ãĥ¼ãĤ µ
a ÅĤa
Ð¸Ð· Ð²Ð¾Ð´
Ð¾Ð» Ð¸
ĠÐ»ÑİÐ± Ð¸Ð¼
teil ung
ĠAma zon
ĠAr ch
fi Ã©
Ġricon os
ĠÐ²Ð¾Ð·Ð¼Ð¾Ð¶ Ð½Ð¾
Ġpar is
Ġconstru ction
ãģ¦ ãĤĭ
g bar
åĭŁ éĽĨ
1 æľĪ
ci mientos
end u
Ġ' :
u ki
er mo
Ġb itte
ĠLa ge
Ġtechni ques
ab ilitÃł
ere m
3 æľĪ
ĠÐ° Ð³
Ġog Ã³l
ãģªãģ© ãģ®
ĠO ff
rÃ© es
ãģĳ ãģŁ
Ġdem as
k ur
cz ona
Ġbezpie cze
Ġz eit
Ġstr ada
Ġth eir
ll ig
m s
ĠPar k
ĠB leu
Ġsimp lement
ãģ§ãģĻ ãĤĪãģŃ
ãĤĦ ãĤĬ
ãģ° ãģĭãĤĬ
ãģ¨ãģĹãģ¦ ãģ¯
ĠÃ ¥
Ġtr á»£
t Ã¡
Ð½Ð¸Ðº Ð¾Ð¼
ĠNa poli
Ġver o
y n
ãĤĴ ãĤĤ
ĠÐ½Ð¾Ð² Ð¾ÑģÑĤÐ¸
arago za
ĠÃº nico
Ġgio ca
çĬ¶ æ³ģ
Ġsch le
ĠQu and
ĠÑĤÑĢ Ð°Ð²
gra fi
Ġverschieden en
ĠC at
Ġcat Ã©g
ĠãĤ¹ ãĥĨ
cz noÅĽci
Ġequi pos
t anto
Ġ2016 å¹´
ãĥ³ãĥĹ ãĥ«
Ġest ru
Ġæ ¿Ģå®ī
ç ł´
Ð¾Ð¼ Ð°ÑĤ
Ġz gÅĤ
Ã ĺ
Ġb Ãłn
iel s
Ġrisul tati
ire ment
ĠÑģÐ» Ð¾Ð²Ð°
ĠRes taur
V E
M ENT
ĠO ui
Ġam is
di ta
ĠÑĥÑĩÐ°ÑģÑĤ Ð¸Ðµ
iste mas
dep endi
ĠNi ke
vo li
p ub
ĠÑĢÑĥÐº Ð°Ð¼Ð¸
ĠÐ¿ÑĢÐ¾Ð¸Ð·Ð²Ð¾Ð´ ÑģÑĤÐ²Ð°
ĠÅĽwia ta
10 æľĪ
ĠÃ¢ ge
ĠÐ½ÐµÐ´ Ð¾ÑģÑĤ
Ġåį ĺ
Ġcon st
ĠPre ise
åĢ Ĵ
mar kt
ĠDe ta
ra u
ĠÐ±Ð¾Ð»ÑĮÑĪ Ð¸Ð½
Ġle ider
Ã¶ffentlich t
ĠTe chn
sch rift
ĠNe ben
Ġsetti mana
Ġfut uro
Ġk ol
Ġåı £ãĤ³ãĥŁ
æĿ ¾
å¥ Ī
åł´åĲĪ ãģ¯
Ġm áº¹
Â ¶
Ġth ay
z ess
Ġmar ch
ÅĽwiet l
Ġeje cu
ĠpÃ³Åº niej
ĠAn ton
Ãºs que
Ġa pos
Ġdire ction
ĠSpiel er
Ġal cune
Ġhis tori
ãĤĴè¦ĭ ãĤĭ
Ġpro ce
çµĦ ãģ¿
ĠHer z
ĠD im
Ġma gas
ĠN os
Ġz one
Ðķ Ð¢
ĠÐ¼ Ð°Ð¼
ĠÐ» ÐµÐº
ĠÐº Ð»ÑİÑĩ
ãĥ³ ãģ®
Ġdi gi
Ġsen ci
Ġso llen
Ð¿Ð¾Ð» Ð°Ð³
ĠKop f
Ġex cell
ĠÄĳ Ã¬nh
ĠDien st
Ġv ont
Ġz wier
ãĥ¬ ãĥ¼
Ġpr Ã¤
C h
Ġinf o
Ġche f
ĠÑĢÐµÑĪ ÐµÐ½Ð¸Ñı
Ġdesn udas
Ġaf ir
ĠKa tegor
èĭ ¥
ĠÐ²ÑĭÐ± ÑĢÐ°ÑĤÑĮ
ÐµÐ»ÑĮ Ð·Ñı
ĠÐ¿ÑĢ Ð¸ÑıÑĤ
ĠÐ±Ð¾Ð» ÐµÐ·
ĠÃ ¦
Ġv Ã´
Ġh eraus
Ġsvilu ppo
ãģĺ ãĤģ
Ġa na
ab el
ãģ£ ãģ¡
ĠPare jas
ada mente
ĠÃ©conom ique
® ĭ
k w
Ġtro tz
Ġc ouver
ĠÑģÐ°Ð¼ Ð¾ÑģÑĤÐ¾ÑıÑĤÐµÐ»ÑĮ
ĠÐ¸ÑģÑĤ Ð¾ÑĢÐ¸Ð¸
ĠæĦ Ľ
ãĥĲ ãĤ¤
ĠL icht
ise z
en ica
Ġnaj m
ter na
ch ain
ãģ®æ µ
ĠDE S
mo ire
ĠÂ ®
Ġch á»©ng
ien cias
ĠÐ£ Ñĩ
ne ak
ĠAb b
Ġfar ma
Ġs osten
Ġobje ctif
Ġ ÑĨÐ¸
ĠhÃ¤t te
ĠVoi ci
Ġpar mi
ĠÑģÐ¾Ð¾ÑĤÐ²ÐµÑĤÑģÑĤÐ² Ð¸Ð¸
ç« ¯
Ġs ir
ĠÐ¾Ð± Ð½Ð¾Ð²
Ð°Ð² Ð°ÑĤÑĮ
ĠGÃ¤ ste
us ione
Ġconta ct
Ġprop ia
ĠM Ã¤n
ĠEuro pej
Ġrela ciones
ĠDies er
d ida
Ãªte ments
Ġ2017 å¹´
Ġè ±
Ġpas a
Ð» Ð¾Ð¿
cyj na
ĠJ our
Ð°Ð»ÑĮ Ð½ÑĥÑİ
Ł ãģĺ
9 æľĪ
us se
ãģķ ãģ¾
Ġde fen
w z
cu pa
ation en
Ġm ouve
iáº¿ c
ĠÐ¼Ð¾Ð´ ÐµÐ»Ð¸
ĠÑĢÐ°Ð· Ð½ÑĭÑħ
Ġfinan ci
èĶ µ
Ġle kar
odz ien
Ġeffet tu
Ġspe cj
ãĥ³ãĤ° ãĥ«
Ã¢ teau
ci entes
Ġprodu zione
ĠMar ke
ĠFa hrze
Ġemplo y
Ġå¯ ¾
Ġza pa
5 6
ĠM eu
Ġdeux iÃ¨me
Ġmed ida
ĠÐ£ Ð´
ĠÑģÐ¾Ð¾ÑĤÐ²ÐµÑĤÑģÑĤÐ² ÑĥÑİÑī
Ġgiorna ta
ãģķãģĽ ãĤĭ
lie gen
Ġin dy
ãģ§ ãģĤãĤĬ
Ġou t
ĠÑĥÑģÐ»Ð¾Ð² Ð¸Ñı
ĠM ob
ĠÑģÐ¾ÑģÑĤ Ð¾
ato r
Ġav re
wend ung
ng th
dz enie
Ġning Ãºn
ere mos
Ġe llas
Ġw ei
ĠS ite
s us
Ġmin ut
Ã³g ica
zeich net
Ġpar fa
ina teur
ÑĢÑĥ Ñĩ
ĠÑĤÐ¾Ð²Ð°ÑĢ Ð¾Ð²
c 2
Ġwsz el
ru re
ĠÅĵu vre
ĠÐ¢ ÐµÐ»
ĠÐ½Ð°Ñĩ Ð°Ð»Ð°
Ġdire cciÃ³n
Ġpo ids
Ġlaque lle
ĠkaÅ¼ dym
ĠÐł Ð°Ð±Ð¾ÑĤ
ĠÑģÐ¼ Ð¾Ð¶
Ġvic ino
ĠÐ° Ð»ÑĮ
ĠCz ÄĻ
Ġoffer te
Ġl áºŃp
ill os
Ġcor po
Ġre des
pe ti
ĠÑĢÐµÐ·ÑĥÐ»ÑĮÑĤ Ð°ÑĤ
Ġkra ju
Ġin vi
ĠD ownload
lie ÃŁ
vol u
ĠMich el
ĠB ois
T S
ĠÃ©tu de
ĠÑĢÐ°Ð±Ð¾ÑĤ Ð°ÑĤÑĮ
Ġz usÃ¤tz
ni ng
ÐµÐ½ Ð½ÑĭÐ¼Ð¸
Ġse lec
ĠãģĬ ãģĻãģĻãĤģ
ãĥ¼ãĥ Ń
Ġde li
h Ã©
g ner
Ġh ist
Ð¿ Ð¾Ð½
Ġval uta
wend et
pr ise
ais se
ĠV in
Ġt el
Ġpro cÃ©d
Ġrecu per
Ġe ks
Ġb le
Ġmat ri
Ã© qu
ĠÐ¼Ð½Ð¾Ð³ Ð¸Ðµ
å¾Į ãģ«
Ġsen so
Ġu kÅĤad
Ġs Ã¡ch
oup es
Ġcondi zioni
ĠVerfÃ¼ gung
Ġ& &
w Äħ
ĠE di
Ġapo yo
Ġwy nika
Ð¾ÑĢ Ðµ
Ġas si
Ġob tener
ãģĳ ãĤĮ
g ru
Ġnation ale
ä¸Ģ çķª
ĠÑĥÐ´ Ð¾Ð²
ãĥª ãĤ¹
ĠÑģÐ¾Ð² ÑģÐµÐ¼
ÐµÑħ Ð½
ĠÐ¾Ðº ÑĢÑĥÐ¶
Ġeffica ce
Ã©b ec
ta gne
Ġnier uch
f urt
ĠHer r
Ġcie p
ÐĿ Ð«
Ð¸ÑĤÐµÐ»ÑĮ Ð½ÑĭÑħ
ar am
Ġstag ione
ĠÄĳ Æ°a
Ġal ma
ÑģÑĤÑĢÑĥÐº ÑĨÐ¸Ñı
ĠÑĤ ÐºÐ°Ð½
ĠÐ¼ Ð¸ÑĢÐ¾Ð²
Ġc ru
ĠKul tur
Ġop ie
Ġpra wo
Ġstra tÃ©
Ġrencont res
b ourg
ãĤ·ãĥ§ ãĥĥãĥĹ
Ġri ght
æĪ »
ĠÐķ ÑģÑĤÑĮ
Ñĭ Ð´
Ġpos z
ĠS ig
ar Ã¡n
8 7
Ġ200 5
ĠArtic le
Ġcul tura
O P
Ġtrad ition
ĠÐ¿ÑĢÐ°ÐºÑĤ Ð¸ÑĩÐµÑģÐºÐ¸
Ġe dy
ĠAus wahl
Ġmo t
ĠÐ¾ÑģÐ¾Ð± ÐµÐ½Ð½Ð¾
ĠM am
I K
zy ka
ÅĤ oÅĽÄĩ
Ġzas ad
ĠãĥĽ ãĥ¯ãĤ¤ãĥĪ
åĸ Ħ
Ġk lar
ĠCom une
Ġcam ere
Ġa bi
è¢ ĭ
ron ique
Ġstan owi
åĪĩ ãĤĬ
Ġj Ã³venes
ĠM at
Ġou ti
ĠI L
c endo
ä¸Ģ ç·Ĵ
Ġr Ã´le
Ġnu its
p he
ĠãģĤ ãĤĭ
Ġd á»ħ
ĠIhre m
Ġin tent
Ġassur ance
ãģĹãģ¦ãģĬ ãĤĬãģ¾ãģĻ
ãģ«ãģ¨ ãģ£ãģ¦
ĠÐĲÐ»ÐµÐºÑģÐ°Ð½Ð´ ÑĢ
ci en
ĠQu Ã©bec
ouv el
Ð¾Ð² Ð°Ð»Ð¸
si g
Ġar rÃª
Ġparti re
er st
ga ciÃ³n
cyj nej
é¤ Ĭ
Ġtet onas
ĠL ÃŃ
ri co
ĠÑĦÐµÐ²ÑĢ Ð°Ð»Ñı
ĠÐ¾Ð´ Ð½Ð°
Ġche min
Ġer ano
Ġod by
çĶ» åĥı
ĠÑĤÐ¸Ð¿ Ð°
ĠDe puis
çļ ®
} .
æĻĤ ä»£
ver a
ĠÐ²Ñĭ Ð´
Ġ; )
Ġprodu ktÃ³w
ĠmÄĻ Å¼czy
ab y
ĠD ab
Ġvá» ±c
Ġdif ÃŃ
ff t
cz or
ãģĦãģŁ ãģłãģĳ
ĠF le
h ein
ar en
ãĥª ãĥ³ãĤ¯
¸ ı
qu ant
Ð² Ð°Ð»
å© ¦
Ð°ÑĤ ÑĥÑĢÐ°
ãĥ© ãĥĥãĤ¯
ãĤĤ ãģĤãĤĬãģ¾ãģĻ
Ġcomun idad
ÑĨ Ð¾Ð²
Ð¾Ñĩ Ð½Ð¾Ð¹
ĠO sta
liw oÅĽci
Ġcomple to
it ze
Ġso ciale
Ġr oul
crip ciÃ³n
en ir
es zy
ĠL ib
ĠC D
et h
Ġ6 9
Ġra is
all er
Ġdisfru tar
ven ciÃ³n
ĠÐĳ ÑĢ
Ġg war
ĠÃ©c ran
ãĤ» ãĥ³ãĤ¿ãĥ¼
Ġne g
ĠÐºÐ¾Ð½ ÑĦ
ÐµÐ² Ð¾
ĠSp o
ãģĮ å¤ļãģĦ
ĠÃ©lÃ© ments
Ġwys tar
Ġman tener
S t
Ġbis her
ĠÑĦ Ð¸ÑĢ
åĭķ çĶ»
ĠÑģ ÑĦ
Ġg uerre
ãģ¨ãģĦãģĨ ãģĵãģ¨
Ã¼t zen
Ð°Ð´ ÑĮ
ma re
Ġthe y
ĠÐºÐ°ÑĩÐµÑģÑĤÐ² Ð°
Ġwyb ra
val u
Ġfuer te
ĠÐ¿ÑĢÐ°Ð² Ð¸Ð»ÑĮÐ½Ð¾
ĠÐ¼ ÐµÐ±
Ð¿Ð¸Ñģ Ð°Ð½Ð¸Ðµ
ĠÐ²Ð· Ð°
ãģ® æĹ¥
ĠRe d
ĠÑĩ ÑĤ
Ġç¤ ¾
ãģ¨ ãĤĵãģ©
ĠÐ¼ Ð°Ð½
ĠÐ°Ð²Ð³ÑĥÑģÑĤ Ð°
ĠFe der
v estis
Ġex cl
Ã¤r en
ĠÑĩ ÐµÑĤÑĭ
ĠNue vo
ologi i
jÄħ cej
ĠStar t
V A
ĠLo cation
Ġpar le
Ġpro che
Ġs tre
ci encia
Ġconf ir
Ġv iáº¿t
Ġy eux
Ġproble mi
Ðº Ð¸Ð½
est Ã£o
me ister
ori es
ĠÐ°Ð²ÑĤÐ¾Ð¼ Ð°ÑĤÑĭ
ĠÐ² Ð°Ð»
Ð¸Ð½ Ð°ÑĢ
ĠÑı Ð²
Ġu t
re de
pow iada
Ġpar ler
Ġprzed mio
Â ³
Ġt inh
Ġgratu ite
3 2
re t
Ġsu chen
indow s
Ġprob lÃ¨mes
ĠÐ²Ñĭ Ð·
ĠDab ei
s weise
tto re
Ġal meno
Ġsamoch od
Ã¼ ge
Ġm 2
1 l
Ġfor m
Ð°Ñĩ Ð¸
Ġ\": [
ĠszczegÃ³ÅĤ owo
Ġse zon
ĠMÃ¼n chen
ĠMÃ¶glich keit
ra m
Ġnh áºŃp
ĠÑĢ ÐµÑĨÐµÐ¿
Ġval ore
ĠÐĴ ÐµÐ´
ĠV enta
ĠÃº nica
Ġcon sta
ĠSch utz
Ðķ ÐĿÐĺ
ĠÑģÐºÐ°Ð· Ð°Ð»
m ane
wi z
ta ll
ãĥĢ ãĤ¤
ĠVer sion
Ġcomment aires
éĽ ¨
Ġb lei
Ġini zio
Ġtrans port
schei den
Ġdni u
in te
Ġus ÅĤugi
Ġprincip ales
Ð¼ ÑĥÐ½
Ġd iá»ĩn
YW x
Ġbra k
äº¤ æıĽ
Ġinter Ã©s
mit t
Ġpoli tica
ĠInter na
ĠÐ¿ÑĢÐµÐ´ ÑĥÑģ
ĠÐ¼ÐµÐ¶Ð´ ÑĥÐ½Ð°ÑĢÐ¾Ð´
towe go
ãĥ¼ãĥĩ ãĤ£
ill on
ord as
Ġvol ver
Ġcomm une
ĠÃ© du
Ã¤ch st
ĠK ur
itÃ¤ ten
Ġoccas ione
ĠçĦ¡ æĸĻ
ãģ£ãģ ±ãģĦ
Ġresul tado
ĠÐĳ ÐµÐ·
ĠÐ¿ÑĢ ÐµÑģÑĤ
tor Ã³w
5 æľĪ
Ġd iá»ħn
Ġre gar
Ġpre vis
N z
Ġpop ular
Ġver kauf
ç Ĵ°å¢ĥ
ĠÑģÐºÐ°Ð· Ð°ÑĤÑĮ
bie ter
ĠÐĿ Ð°Ð´
æ ¿Ģ
ĠBe g
Ġt ale
Ġdev rait
ĠÑĥÑĤ Ð²ÐµÑĢÐ¶Ð´
Ġres ol
et ter
ĠÐŁÑĢÐ¾Ñģ Ð¼Ð¾ÑĤÑĢÐ¾Ð²
ĠÐ½Ð°Ð¿ ÑĢÑı
ĠÐ´Ð¸Ð· Ð°Ð¹Ð½
Ġä»¥ ä¸ĭ
æ°Ĺ æĮģãģ¡
ãĥĩ ãĥ¼ãĤ¿
Ġso ggior
Ġpomo cy
å§ Ķ
Ġ7 6
l d
ĠÐ¿ÑĢÐ¾ÑĨ ÐµÐ´
ĠA mi
Ã© is
ãģ¡ ãĤĩãģ£ãģ¨
© æŁ»
Ġser ÃŃa
Ġmo ts
Ġd r
ĠÐ´Ð°Ð½ Ð½ÑĭÐµ
M T
Ġproje ktu
Ġkom unika
ĠçĽ ´
setz ung
ĠÑįÐºÑģÐ¿ Ð»Ñĥ
sch ule
Ġbekann t
Ð¾Ð² Ð¾Ðµ
Ġæĺ ¨
Ġgar anti
ÑģÑĤ Ð°
ĠÐ¿Ð¾Ñģ ÐµÑĤ
ar u
Ä© nh
ĠPh ili
ti ce
èĩ ´
do ba
ACI ON
Ġemp e
æ¯ į
ay a
ĠA S
qu Ã©e
Ġhu ma
Ġn á»¯a
Ġpor nos
Ġen car
ãģ®ãģ§ ãģĹãĤĩãģĨ
Ġpro v
ĠÃ©tu des
Ñı ÐµÑĤ
Ġgi us
Z S
ĠwiÄĻk sz
ĠÐ¼ Ð¾Ð¹
ĠÐ²ÑĭÐ³ Ð¾Ð´
Ġliv raison
Ġm au
Ð° ÑĨÐ¸Ð¹
ãģ® ä¸Ĭ
s eite
Ġcli enti
ï¼ °
ãĤ« ãĥ«
Ð¾Ð· Ð¸ÑĤ
ÑıÑĤÑĮ ÑģÑı
ĠV Äĥn
ti quetas
onc Ã©
Ġforma zione
ĠFoll ando
Ġs ola
lÃ¤ s
Ð»ÐµÐ½ Ð½ÑĭÑħ
¹ æŀľ
ĠM inh
ens ter
Ġv amos
Ġcab o
Ġk iá»ĩn
ĠÐ½ Ð°Ð½
ãĥ© ãĤ¯
ei ta
Ġpar ents
m ette
ĠÐ¶ Ð¸Ð»
ĠÐ¦ ÐµÐ½ÑĤÑĢ
ĠÐ²Ð¾Ð·Ð¼Ð¾Ð¶ Ð½Ð¾ÑģÑĤÐ¸
ĠP C
Ġa ur
çľ ģ
Ġhi jos
Ġn Ã¤
pa gn
Ġbiso gno
Ġdem Ã¡s
ĠÐºÐ½Ð¸ Ð³Ð¸
Ġun ico
ĠÐĳ Ð°ÑĢ
Ġcele b
ĠDer ni
Ġtrouv Ã©
ĠÐľÐ¾ÑģÐº Ð¾Ð²
ÑģÑĤÑĢÑĥ ÐºÑĤ
Ġca usa
ä½ľ ãĤĬ
Ã¶ bel
k osten
Ð°Ð½ ÑĮ
odz Äħ
Ġsp ecta
ãģ¤ ãģĭ
ĠW ien
ĠDies es
ĠÐ¿ Ð°Ð»
Ġder en
Ġé ¢¨
Ġjedy nie
åħ¥ ãĤĬ
ï¿ £
ãĥ¶ æľĪ
ãģ« ãģĻãĤĭ
Ġorganis ation
Ġver w
am entos
Ġï¼ Ķ
Ġãģķ ãĤīãģ«
ĠÐĳ Ð»Ð°Ð³
it an
ĠÐ¾Ð± Ñģ
ĠÅĽ wiÄĻ
ĠÑģÑĤ ÐµÐ¿
Ġm are
èģ ´
ãĥĳ ãĥ¼ãĥĪ
ĠG ast
ĠmÃ© de
Ġm inha
ãĤĴ åĩº
Ġb ras
éĿ ©
Ġg Ã¢y
ĠK rzy
tu je
ĠÑģÐµÐ· Ð¾Ð½
s os
ĳ ç´Ħ
sch lag
es si
Ġar te
iÄĻ cia
éł Ĩ
ctÃ© ris
ĠÑĤÑĢ ÐµÑħ
n Ã©e
ĠPro gramm
Z A
ĠG ior
éĸĵ ãģ«
al te
ĠgehÃ¶r t
Ġcommun ication
Ġbu on
ĠÐ² ÑĢ
Ð°ÑĤ Ð°ÑĢ
ĠÑĤÑĢ ÐµÐ½
f iche
Ġno vo
ĠBar dziej
Ġk siÄĻ
Ġtrabaj ar
Ġre tra
Ġc Åĵur
ĠÐ» ÐµÑģ
Ġindi ca
ĠÐ°Ðº Ðº
Ġng uyÃªn
Ġman ten
ĠTra vestis
ch os
ann t
ĠÐ¾ÑģÐ½Ð¾Ð² Ðµ
Ġproje k
anta lla
c te
ĠÑįÐºÑģÐ¿ ÐµÑĢÑĤ
Ġal gum
ãĥª ãĤ¨
ac to
ĠÐ¿ Ð¸ÑģÑĮ
ãĤĴèªŃ ãĤĢ
k m
f Ã©
ÅĤe ÅĽ
Ġp ostÄĻp
Ð»ÐµÐ½ Ð½ÑĭÐµ
Ġtro ppo
ĠãĤ ²
Ġcomp les
Ġmoy enne
c r
Ġna to
Ð¸Ð» Ðµ
Ġer folg
3 7
ĠdÃ©f ini
Ġr Ãª
Ġoport unidad
tig ung
Ġ( );
ãĤŃ ãĥ¥
fin den
ĠCh ile
ãģĦ ãģ¯
de aux
Q U
Ġv ivre
ak e
» çĻĤ
ĠÐĴ ÐµÐ»Ð¸Ðº
Ġluo go
Ġfor ce
ãĥ© ãĥ«
ri Ã³
ãģ®å ¿
èı ľ
Ġæľ Ŀ
ĠdÃ© partement
Ġs atis
Ġrecon na
ĠNa pis
Ġob sz
ÑĥÐ´ ÑĮ
ãģ®å £
no vation
ar ma
Ġl ou
ĠE tat
Ġnation al
ĠÐ¾Ð± ÑģÐ»ÑĥÐ¶
ĠçµĲ å©ļ
ãģĭ ãĤĤ
æĸ½ è¨Ń
ĠÐ¿ÑĢÐ°Ð² Ð°
Ð°ÑĤ ÑĥÑĢÑĭ
Ġre te
c ada
ĠnÃ¤ch sten
our ce
Ġte x
Ġm iá»ħn
or mais
Ðł Ñĳ
ĠÐ´ Ð¸Ñģ
ĠÑįÑĤ Ð°
na to
ãĤī ãģĹ
ĠTr Ã¨s
I RE
Ġdirec tement
dz Äħ
æ ĳ
ĠT etas
I B
ard ia
ãģ®å ·
anti ago
Ġmein en
Ġpes ar
Ð°Ð¼ Ð¸Ð½
Ġsp etta
Ġs Ä©
Ġdeut lich
ĠÐ¿ Ð¾Ð¿ÑĢ
Ġï¼Ł ãĢį
Ġç Ĺ
ĠW indows
m ande
Ġop Ã©ra
Ġsuiv ant
Ġproduct _
Ġma cch
Ġæ¥Ń åĭĻ
Ġæĸ ĩ
l ungs
ĠrÃ©pond re
ct ures
Ġdonn Ã©
Ġline a
Ġu waÅ¼
ĠS itz
ĠÐ¡Ð¾Ð¾Ð±Ñī ÐµÐ½Ð¸Ðµ
Ò ĳ
Ð¾Ñħ ÑĢÐ°Ð½
Ġcomun icaciÃ³n
ĠF rie
ĠÐ·Ð°Ð¼ ÐµÑĤ
ĠÐ´Ð¾Ð» Ð»
is tica
ĠJahr es
Ġæ ī
ĠGrand es
Ġre almente
l Ã©e
Ġt Æ°á»£ng
Ġsupp lÃ©ment
ĠÐ´Ð¸ Ð°Ð³
Ġå¹ ħ
cul o
Ġdi ritto
å¸ ³
éĸĭ åĤ¬
Ġf amos
n ess
Ð¾Ñĩ ÑĮ
ll ung
ciÄħ g
Ġau teur
ĠGut schein
ĠW eiÃŁ
Ġhel fen
Ð¸Ð¼ ÑĥÑīÐµÑģÑĤÐ²
Ð°Ð½ Ð½Ð¾Ð¹
Ñĥ ÐºÐ¾Ð²
Ð°Ð½ Ð°Ð²Ð»Ð¸Ð²
Ġg amme
czy k
ĠM ig
mon io
Ġg Ã¼nstig
ĠÐ¿Ð°ÑĢÑĤ Ð½
ĠÐ¤ ÑĢÐ°Ð½
ãĥ¼ ãģĮ
par er
Ġa socia
Ġnato miast
ter as
áº£ y
ĠFin anz
Ġqu est
titu de
Ġanci en
Ġdisp onibile
Ġt war
ĠH i
ne o
Ġï¼ ķ
æº Ĳ
rze j
Ġz nak
ĠÐ¿Ð¾Ð´ ÐºÐ»ÑİÑĩ
Ġcon cl
Ñģ ÐµÐ´
ol are
rze w
uer ta
ĠM AR
Ġcons id
om it
ãĤ·ãĥ£ ãĥĦ
éļ ľ
ĠA C
ĠÐ¿ Ð¸ÑĪ
ĠÐ¼ÐµÑģÑı ÑĨÐµÐ²
ĠPeli culas
Ġhabita ciones
Ġzmi eni
ĠÐ² Ð¸Ð·
Ġges tiÃ³n
az zo
mp o
Ġan uncios
ãĥ¼ ãĥ¼
» çĶ¨
Ġent ren
Ġitali ana
ãĤī ãģĭ
Ġindi ri
Ġb lis
ĠVer kauf
ein ander
Ġwh ich
Ġemb ar
ĠZ wei
Ġmer credi
Ð°Ð· Ð°ÑĤÑĮ
Ð³ Ð¾ÑĢÐ¾Ð´
ĠÐ¢ ÐµÐ¼
ara zione
ĠagrÃ© able
ç¤¾ ä¼ļ
Ġsali r
ue lles
Ġèī ²
ãĤ¹ ãĥ¼ãĥĳ
ãģª ãĤĬ
wid ual
Ġc olo
ru p
Ġopp ure
ĠrÃ©alis er
R p
Ġtr ady
fÃ¼hr er
Ġtr ou
ĠN áº¿u
ĠUS A
ÐµÐ½ ÑĨÐ¸Ð¸
Ġmi gliore
ĠÑĥÑĢÐ¾Ð² ÐµÐ½ÑĮ
ĠThe men
Ã ľ
oo gle
ma ten
ĠÐŀÑĩ ÐµÐ½ÑĮ
ĠFace book
Ġrec ord
f ass
ĠÐļ Ð°Ð»
ĠÐ¾Ð¶ Ð¸Ð´
Ġfor te
Ġinterna cional
ĠÐ¥ Ð¾ÑĤ
Ġhab l
Ġ. "
Ġspaz io
X X
Ġme dy
ãģ¯ ãĤĬ
ķ æĻĤè¨Ī
æ¬² ãģĹãģĦ
ãĥ´ ãĤ£
ãģĦ ãģ«
Ġmeille ure
graf ia
Ġcali ente
Ġre fer
Ġposi zione
Ġpor Ã³w
Ġava ient
Ġju gar
Ġgen era
12 æľĪ
ç¸ Ħ
ç Ŀ
ĠÑĢÐµÐ·ÑĥÐ»ÑĮÑĤ Ð°ÑĤÐµ
Ġcolla b
Ġsuc cesso
ĠM á»Ļt
Ġtr an
ĠPAR A
ul os
æ¨ ¡
Ġqual cosa
Ġnad ie
Ġroz um
Ġfoll ar
Ġincl uy
Ð¾Ð¹ ÑĤÐ¸
Ġc io
Ġm ÅĤod
Ġba Ã±o
Ġco che
Ġer z
Ġda gli
ber to
ÃŃs tica
b ution
Ġ' ).
ç ĩ
P E
Ð¾Ð²Ð°Ð½ Ð¸ÐµÐ¼
Ġor dre
owie m
å¯ Ł
Ġf ina
ĠH ar
Ġd oute
ter min
ĠÑĤÑĭ Ñģ
Ð² Ðµ
Ã¼ l
Ġt ard
Ġzdo by
z iert
Ð½ ÐµÑģ
ĠÐ° Ð·
Ġcu id
Ġpar ole
las s
ĠIB _
I CI
tor ial
ĠSe gur
Ġim Ã¡genes
ĠGew inn
ĠÐŁ Ð¾ÑĤ
ĠÐ²ÑĤÐ¾ÑĢ Ð¾Ð¹
ĠB itte
ĠIn d
ĠÐ¿ÑĢ ÐµÐ¶
ãģ£ ãģıãĤĬ
ord in
ķı é¡Į
Ġjp g
ĠFranÃ§ ois
Ġjeu di
Ġouver ture
al u
Ġm uestra
Ġpres enza
ĠIns titu
ĠAnton io
Ã³ gico
ĠÐ± Ð¸Ð»
Ġw ej
ri g
il Ãł
n as
5 9
Ġsitu Ã©
LL A
Ġpia ce
Â ¾
Ġt iÃªn
Ġdifer encia
letz t
cch io
ĠR io
ãģ«ãģĬ ãģĳãĤĭ
Ġco in
Ġs endo
ĠÑĥÐ» ÑĥÑĩÑĪ
ĠHau pt
cid ent
çĦ¡ ãģĦ
Ġçī¹ ãģ«
Ġhabita ciÃ³n
Ġd ado
ĠÐ» Ð¾Ð³
ĠAl so
Ġle ngth
szy scy
fe hl
Ð¾Ð² Ð°ÑĤÑĮÑģÑı
rei b
we j
ĠB and
ĠTor ino
Ġin oltre
Ġex ten
Ġv illage
ĠÑĩÑĥÐ² ÑģÑĤÐ²
Ġdess ous
ĠÅĽrod owis
ãģĤãĤĬãģĮ ãģ¨ãģĨ
ãģ£ãģ¦ ãģ¿
ĠÃ©v iter
b ank
Ãªn cias
ãĤĴ åıĹãģĳ
g anis
ĠÐ´Ð² Ðµ
Ġzosta ÅĤy
ĠcompÃ© ten
ĠÐ¿ÐµÑĢ ÐµÐ¼
Ġpres encia
m ont
ĠSal le
Ġes prit
Ġcu ales
tu al
Ġrec or
na ges
Ġvo ix
Ġb l
Ġmar iage
ĠÐ¢ ÑĥÑĢ
ch odzi
Ġãĥ Ħ
Ġpres enti
Ġcontra t
re ment
f rage
Ġw under
ĠT en
åĲį çĦ¡ãģĹ
ãĤĪ ãģĦ
Ġch ung
ĠprÃ³xi mo
Ġj ur
Ġnon e
éģİ ãģİ
den cia
Ġu bezpie
ĠSt r
å® ĺ
Ġv ec
Ġda ÃŁ
ĠW al
k reis
ĠBÃ¼r ger
Ð¾Ñĩ Ð½ÑĭÑħ
Ġsprzeda Å¼y
Ġdispos ition
ĠÑĤÐµÐ± Ñı
Ãĩ ÃĥO
an Ã§as
ĠW ita
Ġap lika
ĠÑĤÐ°Ðº Ð¾Ð³Ð¾
Ġsti le
est as
Ġc ra
Ġk iáº¿n
ĠÃĸ sterreich
ich ter
Ġd ys
ĠTr as
ĠÑħÐ¾Ð·Ñı Ð¹
Ġmay ores
ĠÑĤÐ°Ðº Ð¸Ð¼
ma i
Ġah ÃŃ
tar Ã¡
pond re
ti es
Ġcontin ua
Ġsam ym
r Ã¡n
Ġmeu ble
Ġf en
Ġin dex
blo ck
Ġpro c
ĠdziaÅĤ alnoÅĽci
ĠZ arz
ĠUr laub
ĠÐľ Ð¾Ð¶Ð½Ð¾
Ġroz m
æľĢ é«ĺ
ĠN ur
ĠÐ· Ð°Ð¹
ĠÑĢ ÑĥÑĩ
Ġz iel
Ġges am
ĠÐ´ ÐµÑĢÐ¶
Ð¸Ñģ Ð¾Ðº
k owie
it ure
ĠA vis
h 30
Ġassocia tion
Ġedu caciÃ³n
ĠP aul
ĠL yon
la i
Ġrapp orto
Ġosta t
Ġproy ectos
Ġv as
fic ado
ĠÐ¿ÑĢÐ¾Ð¼ ÑĭÑĪÐ»ÐµÐ½
Ġe cce
Ġnghiá»ĩ m
leit ung
Ġble ibt
ĠV en
Ġr ent
ĠÐ²Ñĭ ÑģÑĤÐ°Ð²
ãĥĳ ãĥ³
ãģª ãģ®ãģĭ
Ã³w ki
® ®
Ġpro chain
Ð¸ ÑĨÐ¸
n owa
ï½ ŀ
ãģĮ å¿ħè¦ģ
Ġcu ir
m ini
ĠEs pe
Ġpre o
um es
ti ble
ad es
ĠÑĥÑĢÐ¾Ð² Ð½Ñı
Ġe vid
Ġnie za
olo gna
ow ymi
Ġp az
sch ul
Ġlet tre
ĠÐĹÐ´ ÐµÑģÑĮ
ĠÐ¿ÑĢÐ¾ ÑħÐ¾Ð´
ĠâĢľ .
Ġche veux
Ġ| --
Ġarri ve
Ġsen si
ĠÐ±Ð»Ð¸ Ð·
Ã® te
d ale
Ã³ ra
t wa
Ġmo teur
ĠB lu
Ġpre cedente
ĠintÃ© rÃªt
Ġch iáº¿n
arbeit ung
Ġf ru
Ðľ Ðĺ
ĠÃ¼ b
Ġrecom mand
s y
3 1
Ġchac un
Ġconstru cciÃ³n
ĠÐ½ÐµÐ´ Ð²Ð¸Ð¶
Ġer war
ĠÐºÐ¾ÑĤÐ¾ÑĢ ÑĥÑİ
Ġatten tion
al az
ver si
Ġb om
Ġspe ÅĤ
ĠD ir
de ut
ĠM u
æĬ ķç¨¿
å¡Ĺ è£ħ
ãģŁãģı ãģķãĤĵ
Ð¾Ð·Ð¼Ð¾Ð¶ Ð½Ð¾
Ġdiff er
ni Äĩ
ãģ»ãģĨ ãģĮ
çª ģ
di gen
ĠprÃ¡c tica
ĠÐ² Ð¾Ðº
Ġconfi ance
ĠAu gen
ĠPor te
Ġdiff icile
Ġh om
Ġres to
ĠStu d
ĠÐ° Ð¼
Ġper corso
_ id
ĭ èŃ·
Ġè ģ
Ġes as
ĠÐ¸Ð· Ð¾Ð±ÑĢÐ°Ð¶
hb W
Ġje Å¼eli
ãĥ¼ãĤ ±
ĠãĤ³ ãĥ¡ãĥ³ãĥĪ
ãģ®ä¸Ń ãģ§
ib lio
IN E
ĠC olle
Ġper mis
è©ķ ä¾¡
ĠÑģÐµÑĢÐ² Ð¸Ñģ
gr ani
ĠH inter
ĠÐŀÑĤ Ð·ÑĭÐ²
ÐĲ ÐĹ
ĠÐ¿ Ð¸Ñī
Ġdi rei
Ġrac col
Ġeuro pe
c ych
ĠD re
Ð¸ÑĢÑĥ ÐµÑĤÑģÑı
ãģĬ ãģĻãģĻãĤģ
ãģ£ãģ¦ ãģĦ
Ġinner halb
N Y
Ġg or
çĽ Ľ
Ġdar f
ĠMode ll
ĠÐ´ Ð¶
ãĥī ãĥ©
rÃ¤ ge
k Ã¼n
ie ment
Ġm ur
è¨ İ
Ġmar di
Ġm eio
Ġfi zy
Ð¾ Ð¸
ÑĢÐ¾Ñģ Ð»
ĠÐ¾ÑĢ Ð¸Ð³Ð¸Ð½
ĠS c
Ġpri mi
Ġf ff
ãģļ ãģ«
ãĥģãĤ§ ãĥĥãĤ¯
ãĤ¿ ãĥ³
ãģ®è© ±
ĠT P
Ġvá» ĩ
Ãª tes
ĠÐ½ ÑĢÐ°Ð²
ĠSal ud
Ġb ia
Ġ15 0
wia jÄħ
ĠC ub
ĠÑĢÐ°Ð¹ Ð¾Ð½Ðµ
Ġvier nes
Ġacer ca
ges amt
Ġk ennen
6 4
f ie
ĠÐ¾ Ð²
Ġc olore
ÐµÐ² Ð¸Ð·
OR E
Ġass ol
Ġéĸ ĭ
Ġand are
ĠE u
Ã³ rio
Ġelekt ry
ues to
Ð°Ð½ Ð´Ð°
Ġorgani za
Ġè¿ ĳ
ĠfÃ¼ hren
Ġlegg ere
ĠÑģ ÐµÐ»ÑĮ
Ġb á»ı
ĠB ianco
Ġãģ µ
ãĥĥ ãĥĳ
ĠÐ¾Ð±ÑıÐ· Ð°ÑĤÐµÐ»ÑĮ
ĠS co
ĠÑĥÑĩ ÐµÐ½
Ġlu dzie
Ġav uto
Ġman os
Ġg auche
Ġt Ã©r
Ð»Ð¸ ÑĪ
Ã¤ hlt
Ġen vie
Ġ] .
es tiv
ĠÐºÐ°Ð¿ Ð¸ÑĤ
Ð¸Ð» ÐµÐ¹
ow ano
Ġblei ben
Ġl Ã²ng
ĠÐ¼Ð½ Ð¾Ð¶
ĠM ie
and onn
Ġpo is
æĮ ¯
au to
ĠIn nen
va te
Ġlá» £i
è¬ Ľ
Ġgay s
ÃŃ amos
Ġofi cial
ĠEx per
ĠÐµ Ð´
Ġus z
åıİ ç´į
Ġé §
éĢģ æĸĻçĦ¡æĸĻ
åĲ Ħ
x is
Ġfor se
ÅĤa ty
wi enia
:. :.
Ġãĥĸ ãĥ«
ag t
Ġp ouv
Ġdo ÅĽÄĩ
è¬ Ŀ
an nage
Ġjou er
Ġdur Ã©e
ĠI T
Ġprod ut
Ġmejor ar
te llo
è¦ĭ ãģ¦
ãģ¨ãģª ãĤĬãģ¾ãģĻ
ĠÐ´ÐµÐ½ ÐµÐ³
ĠÑĦ ÑĢ
ĠÐºÐ¾Ð¼ Ð¼ÐµÐ½ÑĤÐ°ÑĢ
ĠÐ¿Ð¾ÑģÑĤ ÑĢÐ¾
¡ ng
Ġve h
rei bung
op Ã¤
Ãĵ W
tycz na
Ġcompr endre
åº Ń
h ar
ĠÐ½Ð°Ð´ ÐµÐ¶
ĠÐľ Ð¸Ñħ
ĠÐ¡ ÑĤÐ¾
Ġa gen
ãĤ¿ ãĥ«
ÐµÐ´ ÐµÐ½Ð¸Ñı
mF t
Ġtr wa
ãģĦãģŁ ãģĦ
ä¿Ŀ éĻº
Ð± Ðµ
Ġpra tica
ãĥĥ ãĤº
ãĤĵãģ§ ãģĦãĤĭ
Ġc Äĥn
ĠÑĤÑĢÐµÐ± Ð¾Ð²Ð°Ð½Ð¸Ñı
Ġprze my
ĠFran cis
èĢħ ãģĮ
ĠC ab
ĠÐ¿ ÑĭÑĤ
Ġer fol
ne lles
ĠÃ¡ rea
ĠmÃ¶ chten
Ġwy j
Ġter enie
ĠR ab
f r
ess ione
Ġesta d
Ġgef unden
Ġsu ivre
Ġma gni
va ge
dz ÄĻ
7 æľĪ
Ġno tte
Ġm iÄĻ
ieni u
ÐµÐ¹ Ð½
arbeit en
ten u
ãĤ¤ ãĥĹ
ĠÑģ Ð¸Ð´
g iej
Ġè ĥ
ĠçĶ· æĢ§
æ³¨ æĦı
ĠL OS
ĠM undo
ĠHam burg
col es
Ġsch a
Ġentre tien
Ġch anger
Ð°Ñı ÑģÑĮ
Ġb Ã©
Ġforma t
ĠEinz el
ĠÑį Ð¿
lla re
Ã¡ l
äºº ãĤĤ
Ã ¸
ĠÃ Į
Ġkh iáº¿n
Ġens eigne
Ġpe au
Ġcro is
ĠÐľ Ð¾Ð´
ur re
un sch
z us
at es
ĠÐĴÐ»Ð°Ð´Ð¸Ð¼ Ð¸ÑĢ
ÐºÐ¾ Ðµ
Ġk ur
Ð¸Ð½Ð³ Ð°
cie j
Ġproces sus
ĠÑĤÐ¾ÑĢÐ³ Ð¾Ð²
Ġero ticos
ĠAn al
Ġcambi ar
Ġcul o
vi ar
ĠR ady
eu ille
Ġle cture
to ÅĽci
ĠPubblica to
Ġv uole
Ġdis se
ĠâĢ¦ âĢ¦
Ġ ä¼ļ
æ´» åĭķ
Ġho a
Ġh ors
ĠÐ¿Ð» Ð¾Ñħ
Ġm and
ĠZu kunft
Ġs od
owanie m
ĠMar ia
ion ale
Ġforma ciÃ³n
Ġener gÃŃa
ĠÐ¾ Ñī
Ġpom i
ance ment
Ġor y
Â °
ĠÄĳ á»§
ĠS onn
ĠÐ° ÑĥÐ´
Ġab out
Ġwy ÅĤÄħ
pp el
Ð°ÑĤÐ¾ÑĢ Ñĭ
Ġco eur
ĠV ie
Ð°ÑİÑī ÐµÐ¹
ĠJ us
Ġapp li
ÐĲ ÐĿ
ĠÐ¸Ð½ÑĦÐ¾ÑĢÐ¼ Ð°ÑĨÐ¸Ñı
ĠÐŁÐ¾Ð´ ÑĢÐ¾Ð±
ĠÐºÐ¾Ð½ÑĤ Ð°ÐºÑĤ
Ġpod rÃ³Å¼
bo ten
iss ions
åħ ¸
ĠSo cial
Ġque da
Ġtito lo
m ir
Ġf rÃ©
uy áº¿t
ĠÐ²Ð¾Ñģ ÑģÑĤÐ°Ð½Ð¾Ð²
Ġbe kom
Ġsi ano
ube hÃ¶r
ĠBewert ung
re iche
æ¨ Ļ
Ġpla ya
Ġb aja
ĠÐ°Ð²ÑĤÐ¾Ð¼Ð¾Ð± Ð¸Ð»Ñı
Ñĭ Ñģ
ĠÐĿ Ð°Ð·
ĠÐļ ÑĥÑĢ
ĠÐ¡ Ð¾Ð±
ĠÑģÐ¾Ð± Ð¸ÑĢ
Ã¡ri as
Ġin cor
ich tet
u ve
cess ori
ĠPri ma
ãĤ· ãĤ¢
ĠWei hna
ĠJ ob
ĠÐ½ÐµÐ¼ Ð½Ð¾Ð³Ð¾
ll ten
Ġman que
Ġsch e
ĠZ ent
Ġouti ls
ĠÐ´ ÑĢÑĥÐ·
ĠM uy
Ġsa c
x ito
Ġid Ã©es
Ġin no
Ñĥ ÐºÐ¸
Ġqu attro
Ã© ment
ä¼ Ĭ
æĤ ©
Ġäº ¬
åħ ħ
ĠG old
ãģ¨ ãģĻãĤĭ
ister io
Ġhi jo
ie g
Ð½ Ð¾Ðº
Ġinforma Ã§Ãµes
Ġatra k
L A
Ġreci bir
Ġama teur
ista d
Ġtu vo
Ġn utzen
ĠÑĢÐ°Ð¼ ÐºÐ°Ñħ
Ġdispon ibili
Ã¨ tre
ĠÃ©tablis sement
Ðł Ðħ
Ð° ÑīÐµ
Ġte k
Ġåı İ
ĠÂ ¨
Ġph im
Ġen or
ĠÃ© di
Ġhi ver
æĦı åĳ³
ĠI t
ĠD ach
ĠB ur
ĠÑģÐ¾Ð² Ð¼ÐµÑģÑĤ
Ġub ic
Ġo ben
ĠÐ¼Ð½Ð¾Ð³ Ð¸Ñħ
Ġf at
ĠA ktu
ÅĤ ym
ĠSe e
Ġmuch a
ĠS ar
om ma
Ġgener ale
Ġc idade
ĠÄĳ a
ĠApp ar
Ġb leu
ze ÅĦ
â Ī
åħ ļ
ge gen
o ir
ĠDÃ©c ouv
p end
stra ÃŁe
amer ic
ĠÐ° ÑģÑģ
Ġbeste ht
ĠgÅĤÃ³w na
rÃ³ t
èĭ ±
ĠHa ce
ÃŃ tica
Ġmed idas
W x
Ġis to
Ġamp lia
ĠÄĳá» ©
Ġmach ine
Ġc Ã©
ĠÑĥÑĩ ÐµÑĤ
ÑĥÐ±Ð»Ð¸ ÐºÐ¾Ð²Ð°Ð½
ĠÑģÐ°Ð¼ Ð¾Ð¼
Ġpr eno
ĠKa p
ĠÐŁÐ¾Ñģ Ð»ÐµÐ´
ĠÐ¡ Ð»ÐµÐ´
ĠÐ² Ð¾ÑģÑĤ
å¤ ®
ĠF euer
ĠciÄħ gu
ĠrÃ©f Ã©rence
Ġgar ant
Ġal b
Ġto ile
ne ments
Ġr ub
iv il
çĻº è¡¨
anti l
Ġindustr ia
Ð¾ÑĤ Ñĥ
Ġcabe za
ĠO fer
N j
Ġn igdy
ĠPros titutas
Ġconten ido
Ġi P
tor en
Ãª ng
z Ã¡
Ġcur so
ĠSte uer
ĠII I
Ġum owy
Ġti me
ĠBo ok
Ġent fern
ĠÐ³ Ð¸Ð¿
Ġu tenti
ĠczÅĤ on
Ġä¸ĸ çķĮ
ĠBus car
lic ÃŃa
Ð¶ ÐµÐ½Ð¸Ñı
tow anie
Ġe vent
5 4
Ġma il
ÐĽ Ðĺ
Ñĳ Ð»
Ġso ciaux
Ġlaiss er
Ġven ir
olesc entes
Ġex tre
ĠÐ²ÐµÑĢ Ñħ
vis o
ĠS ans
ou x
Ġdro ite
Ġo v
Ġnau czy
Ð¸ÑĤÐµÐ»ÑĮ Ð½Ð¾Ð¹
ĠP S
ĠA insi
tow ania
çļ Ĩ
ĠÐ¾Ð±ÑıÐ· Ð°ÑĤÐµÐ»ÑĮÐ½Ð¾
Ġâ ī
å¯¾ çŃĸ
ter iores
Ã¼ ler
Ġpour su
la cji
ãĤ ħ
Ġï½ ¤
è« ĭ
ĠV illa
ĠY ou
Ġmet ros
ĠWohn ung
ĠÐ¿ÑĢÐ¸ Ð³Ð¾ÑĤÐ¾Ð²
Ġzapew nia
qu Ãªte
Ġmode llo
Ġca us
Þ ¨
Ġc á»Ńa
Ġi hnen
Ġj as
ĠÐ¿ÑĢ Ð¾Ð¶
ãģ§ãģĻ ãģĭãĤī
ĠK iedy
ç«ĭ ãģ¡
Ġben Ã¶
ĠQu ando
Ġpos zu
Ġac ciÃ³n
Ġcor ri
ĠP O
od aw
Ġtow arzy
Ġsi g
Ã´ me
ĠÐ¿ÑĢ ÐµÐ¼
Ġfaci lement
ĠCz as
ĠWeb site
Ð¾Ðº Ð¾
Ġtá»« ng
Ð°Ð½ Ðµ
ĠÄ ĩ
¹ ¿
ä¸ ¦
ĠHÃ¶ he
Ġzak ÅĤad
Ġarri vÃ©e
g he
Ġsytua cji
ãģĻ ãģĶ
ĸ ç¸Ħ
Ġæµ· å¤ĸ
ge w
Ġucz ni
Ġâ Ķ
è¨ ±
ĠÑģÑĩ Ð°ÑģÑĤ
ĠNouve au
ĠrÃ©sul tat
ĠÐ¿ÑĢÐ¸Ð¾Ð±ÑĢ ÐµÑĤ
Ġgru pos
Ġc inÃ©
Ġord ine
id ung
Ġpremi ers
ni j
w endi
ĠÐ´Ð¾Ð² Ð¾Ð»ÑĮÐ½Ð¾
Ġv arie
usz cz
ĠNh á»¯ng
ĠTÃ©lÃ© charger
Ġrela tion
ĠG oogle
ust rie
ak Ã³w
Ġn is
æīķ ãģĦ
ãģĹãģ¦ ãģıãģłãģķãģĦ
ĠÐ¿Ð¾Ð· Ð´
Ġes f
ĠÑģÐ¼Ð¾Ð¶ ÐµÑĤÐµ
Ġterm ine
w Ã¼r
Ġpob laciÃ³n
ĠÑģÐº Ð¾Ð»ÑĮÐºÐ¾
ĠÐºÐ¾Ð¼Ð¿ÑĮÑİÑĤ ÐµÑĢ
Ġprim eiro
Ġmil ieu
ãģĳ ãģ°
ĠÐ½Ð°Ð± Ð»ÑİÐ´
Ġjed nej
Ġpa go
res as
Ġv es
Ġh ub
ĠS ach
ĠH el
tag s
Ġmar che
åĩº ä¼ļ
8 æľĪ
Ġsind a
Ġpow odu
ĠãĤ¯ ãĥ©
Ġsu p
ĠL ang
ĠD ruck
Ġdur ant
Ġ. :
ĠÑģÐ¾ÑģÑĤÐ°Ð² Ð»ÑıÐµÑĤ
ĠÐº Ð¾ÑģÑĤ
rod o
ĠÐ¿ÑĢÐ¾Ð¸Ñģ ÑħÐ¾Ð´Ð¸ÑĤ
Ġe mer
ãģŀ ãĤĮ
iss ons
ĠS ym
te ca
ĠLa uf
Ġt elÃ©fono
ãģ ¬
ĠÐŀÑģ Ð¾Ð±
Ġcu ore
ãĤı ãģªãģĦ
ĠS mart
cour t
Ġpro cha
ĠÐ¯ Ð½
ĠÑģ ÐºÐ¸Ð´
ãģªãĤī ãģªãģĦ
ll y
Ð¾Ð¹Ð´ ÐµÑĤ
ĠU p
Ġsu pport
Ġasso ci
ar za
ĠK reis
Ġcontro llo
Ġb Ã¡
Ã¤ f
ĠÐ² Ð¿ÐµÑĢ
ĠãĤµ ãĥŀ
éģ ł
ĠLie be
ni o
ĠB al
Ġali ment
ĠÑĥ ÑĢ
al noÅĽÄĩ
Ġ7 7
itÃ© e
Ġn owy
tre ten
è¨ ª
Ġm Ã³w
Ġop ciones
itu de
Ġnature l
ĠA less
ĠÐ´ ÐµÑĪ
ĠOri gin
G O
Ġdru gi
ie gel
Ġes sen
Ġho je
Ġsigui entes
ĠV ic
ĠCono cer
ĠL ES
Ġplu part
ĠÐ·Ð° Ñħ
ID AD
Ġof ertas
Ġlle v
ĠNÃ¤ he
ĠC l
ĠÐ°Ð²ÑĤÐ¾Ð¼Ð¾Ð± Ð¸Ð»ÑĮ
Ġnor mal
Ġries go
ãģ®æ İ
ĠÑģ Ñİ
Ġes erci
ĠKh Ã´ng
ĠÐ¾ Ð½Ð¾
ĠãĤ·ãĥ£ ãĥįãĥ«
Ġtit le
æ³ Ĭ
Ġher m
ĠwzglÄĻ du
Ġcr is
Ġambi ente
ĠÐ°Ð² ÑĤÐ¾
ĠÑģÐ°Ð¼ ÑĭÐ¹
Ġragaz zi
Ġbu ona
Ã¡n dez
pe z
........ ........
or ar
di miento
Ġo cze
Ġutili zzo
Ã¹ a
ĠÐĲ Ð·
re m
ig es
Ġt as
ce m
ãģ¾ ãģ£ãģŁ
ĠÑĤÑĢÑĥ Ð´Ð°
Ð¾Ð¿ Ð¾Ð»
Ġest Ã©
ma il
Ġob bli
Ġbezp oÅĽ
ĠLe der
ĠEnt wicklung
Ġdispos izione
ĠæĹ ©
çĽ ¤
ĠFre und
Ġpo chi
èµ· ãģĵ
Ġsuper ior
ĠM Ã¼
zei tig
lo t
Ġlie gen
åı ¸
ĠÐ½ ÐµÐ»ÑĮÐ·Ñı
Ġpub lique
ĠÐĽ ÑĥÑĩÑĪ
ĠÐ¸ÑģÐ¿Ð¾Ð»ÑĮÐ· Ð¾Ð²Ð°Ð½Ð¸Ñı
Ġrappres ent
ĠS zy
Ġum o
utz t
ĠÐ¿ÐµÑĢ ÐµÐº
æĲ º
Ġreg ard
éĩį è¦ģ
Ġconten u
Ġing lÃ©s
AN O
Ġqu ad
Ġro bo
ar ch
Ð¸ÑĤ ÐµÑģÑĮ
li cos
Ġpeti tes
a a
Ġcoment ario
Ġmuer te
ĠÐ¼ÐµÑģÑı ÑĨ
Ġpowin ien
ĠÐ´Ð°Ð» ÐµÐµ
g ry
Ġatten zione
da ten
Ð½Ð°Ð· Ð½Ð°Ñĩ
ĠrÃ© gi
ĠdÃ©s ormais
Ð¿ÑĢÐµÐ´ ÐµÐ»Ñı
ĠS Äħ
Ġéĺ ²
Ġlib ros
Ġauto matique
ãģĹãģ¦ ãĤĭ
ãģ® ãģĵãģ¨
ĠAd idas
ie za
Ġ- ,
ĠEs sen
Ġpres que
ĠÐ¼Ð¾Ð´ ÐµÐ»ÑĮ
Ð°Ð± Ð¾ÑĢ
ĠÑĨÐ²ÐµÑĤ Ð°
ĠÐµ Ð¹
D A
Ñĩ Ð¸ÐºÐ°
Ġd wie
ĠSe gÃºn
ĠÐ¡ Ð²ÐµÑĤ
Ð°Ð½ Ð³
çĻº çĶŁ
en zen
l mente
Ġp li
Ġog rom
Ġph ong
ĠLe hr
Ġex ception
ĠM ac
Ġcompr end
ĠCent rum
ĠH igh
w ych
ĠÐ¿Ð¾ ÑģÐº
k lus
fahr t
ÃŃ lia
ĠSe g
ĠPre mi
b st
Ã´ ne
ĠS neak
Ġat tes
na j
Ġimport antes
u tet
ĠÃ© po
ĠÐ° Ð¼ÐµÑĢÐ¸ÐºÐ°Ð½
ĠDa ta
Ġch uyá»ĩn
ĠCam p
Ġpierw sze
is cono
çģ «
Ġa men
Ġdzie cka
rz ym
fi ques
Ñĩ Ð¸ÐºÐ¾Ð²
Ð¾Ð´ Ñĥ
ĠT ar
we go
su ÅĦ
Ġpraw dzi
ĠTh is
ĠÐĽ ÐµÐ½
Ġh iá»ĥu
ard ino
ãĤĴ åıĹ
Ðº ÐµÑĤ
ĠÐ·Ð°ÑĤ ÐµÐ¼
Ġrichi esta
Ġznale ÅºÄĩ
Ġje dem
Ġac onte
Ġmater ial
ĠGes ellschaft
ĠÑįÐº ÑĢÐ°Ð½
Ġimp i
mes so
ĠS et
gen ommen
Ġedu ca
ÅĽ rod
ĠÑĥ Ð¿ÑĢ
ĠÑģÐ¿Ð¾ÑĢÑĤ Ð¸Ð²
ĠÐ¾Ð± Ð»
Ġzgod nie
Ġassur er
Ġbo ok
ei er
Ġz byt
Ġpres tamos
Ġde por
ĠEro ticos
Ġcar rera
Ġw elt
Ġ iss
ĠãĥĿ ãĤ¤ãĥ³ãĥĪ
ç¹ Ķ
ÑĤÐ¸Ðº ÑĥÐ»
ĠÐº Ð¾ÑĪ
ĠÑĥ ÑħÐ¾Ð´
ĠÐ²Ð»Ð°ÑģÑĤ Ð¸
ver saire
Ġsk Ã³ry
Ġd ol
m ut
Ġgan ze
je un
t Ã³n
Ġb ianco
v olo
ĠrÃ© c
ĠÐ¿ÑĢÐ°Ð² Ð¸Ð»ÑĮ
wach sen
Ġpo ÅĤÄħ
æ¸ ¯
Þª Þ
ĠNh Ãł
L e
Ġin stru
AL I
tag on
Ġp uoi
Ġeinz el
Ġe vento
to ires
ĠB is
ĠÐºÐ°Ð¶Ð´ Ð¾Ð³Ð¾
ÐĲ Ðŀ
ĠÑĢ ÐµÑģÑĤ
om oÅĽÄĩ
ãĥ¯ ãĥ¼ãĤ¯
bar en
Ġmob ile
Ġpropri Ã©tÃ©
qu ista
ĠgiÃ¡ o
Ġa te
ĠComment aires
Ġam Ã©
Ġin nymi
ãĤª ãĥª
Ġconc re
ĠV enezuela
c ode
ĠÑģÐ°Ð¼ ÑĭÐµ
lo go
Ġmin er
ĠÃ ļ
Ġcar go
Ġgu ten
ĠPr in
AN T
ĠM es
iv es
ĠÐ¾Ð± ÑĢÐ°Ð±Ð¾ÑĤ
ad er
ĠmÃª mes
ĠÐĵ Ð¾ÑĢ
ĠG on
ÑĪ ÐµÐ¹
ĠCh ina
ĠÑĥÐ·Ð½ Ð°ÑĤÑĮ
ĠA by
ĠH aute
Ġfil s
ĠÐ»ÐµÑĩ ÐµÐ½Ð¸Ñı
ÐµÐ½ÑĮ ÑĪÐµ
Ġall ora
h 00
9 4
Ġsui vi
ĠdÃ©cis ion
Ġstamp a
ĠC ro
Ã¢ te
Ġpermet tre
alis i
Ġme zzo
ba hn
ter y
tar se
ĠMa ÃŁ
ent lichen
ĠB our
Ġcin q
z ca
ãĥ³ãĤ «
Ġh eiÃŁ
Ġri vol
Ġob ras
Ġwe ek
ĠÐ·Ð°ÐºÐ¾Ð½ Ð¾Ð´Ð°ÑĤÐµÐ»ÑĮ
Ġsema ines
Ġpossi bilitÃ©
ĠÑĨÐ¸ ÑĦ
Ġtritur adora
Ġse an
ri c
ĠAf rique
ĠÑģ Ð½Ð¸Ð¼
Ġsyste mu
ĠTele fon
Ġãģ¾ ãģł
Ġra zie
ĠÐŃÑĤ Ð¾ÑĤ
Ġpo tem
Ġãģ¡ ãĤĩãģ£ãģ¨
ãģ®è ĩª
ĠZ o
Ġprof ission
Ġlu ce
or itÃ©
¥ ½
Ġcommer ce
ia Ã§Ã£o
ĠÐĴÐ¸Ð´ Ðµ
Ð¸Ðº Ð°ÑĨÐ¸Ð¸
ĠÐºÐ¾ÑĢ ÑĢ
ĠÐ¾Ð±Ð½ Ð°ÑĢÑĥÐ¶
M S
Ġpra wie
Ġpeque Ã±o
ĠS onnen
ita ire
ei ras
Â «
Ġmá» Ĺi
ring t
ÃŃ os
ĠO g
ĠUn sere
Ġg re
Ġå »
ere ch
ĠMilli onen
ĠÐĸ ÐµÐ½
ĠÐĶ Ð¸
ĠÐ¿ÑĢ Ð¸ÑģÑĤ
Ð¸Ð´ ÐµÑĤ
Ġpel ÃŃculas
ĠÐ½Ð° ÑĨÐ¸Ð¾Ð½
åĮ ħ
ĠÃ© xito
Ġf rance
ato ire
ãĤ¨ ãĥĥãĥĪ
ãģ®æĸ¹ ãģĮ
Ġpo twier
Ġtr uyá»ģn
Ġpag inas
Ġco le
Ġderni Ã¨res
ãģ®åĲ į
Ġal rede
pr Ã¤
Ñĭ Ð¿
Ġazien de
Ġcon to
8 3
Ġfour ni
x es
Ġsta te
Ġty s
sze ch
ĠÐĿ ÐµÑĤ
çļĦ ãģ«ãģ¯
rit ten
ĠÐ¿ÑĢ ÐµÑģÑģ
Ġdeut schen
Ġpres se
ĠÐŁ ÑĥÑĤ
Ġvor h
ĠK or
Ġcomp let
vi mento
ĠÅļ wiÄĻ
ow od
Ġpla te
ĠÐ² Ð¸Ð½
ĠÐºÐ¾Ð½Ñģ ÑĥÐ»ÑĮÑĤ
Ð¾Ð² ÑĭÐ¼
Ġlogi ciel
H Ã´tel
ĠGra tu
va in
... ]
ĠÃ©val u
æĿ± äº¬
Ġå¸ Ĥ
Ġadul tos
Ã¡b ado
ÐµÐ¼ Ð°ÑĤ
Ġvo i
Ġpra kty
ĠV ill
ĠS U
ĠÐºÐ»Ð¸ ÐµÐ½ÑĤ
Ġdist ribu
Ġles en
Ġou b
ĠÐ² Ð¸ÑĤ
ĠÐļ Ð¾Ð½ÑĤ
Ð°Ð» ÑĥÐ¹
ÐºÑĢ ÐµÑĤ
Ġå ĵģ
ãģ¯ ãģĵãģ¡ãĤī
Ġå® ļ
Ġag ora
ãģĬ é¡ĺãģĦ
è¼ ª
ACI ÃĵN
Ġnego cio
ĠStra ÃŁe
Ġç· ¨
Ġæĸ Ļ
ãĥŀ ãĥĥãĥĪ
Ġulti mi
k owego
Ġrespons able
Ġma j
Ġåº ĥ
ĠåĲ Ħ
i miento
tr odu
ĠÐ´Ð¾Ð»Ð¶ Ð½Ð¾
Ġk orzyst
ĠW est
Ġ2018 å¹´
æ³¨ æĸĩ
ãĥ¼ ãĤĴ
e e
Ġreci b
r ons
j mu
Ġ ãģĭãĤī
Ġca tegor
a ben
ti me
ko ÅĤa
ĠE ing
ĠÐº Ð°Ñģ
Ġav al
ãģı ãģ¨
Ġodpowie dzial
Ġod b
ĠÄĳ Äĥng
ĠB oden
ura ta
ic ul
Ġnos so
Ġkli entÃ³w
ĠÐ±ÐµÑĢ ÐµÐ¼
Ð°Ð¼ ÐµÑĤÑĢ
ĠÑģ Ð¾ÑĢ
Ľ ¸
Ġac ciones
k or
Ġter rasse
ĠCh ine
ĠÐ¡Ð¿ Ð°ÑģÐ¸Ð±Ð¾
Ġoffer ta
n arod
Ġcorres pon
ĠvÃŃ de
ir t
owo hl
ĠÐ¿ÑĢÑıÐ¼ Ð¾
ĠP OR
ĠEs paÃ±
Ġèµ ¤
Ġhá» ıi
Ġtecn ologÃŃa
ĠPe dro
Ġten ido
Ġrich ie
ï¼ĳ ï¼Ĳ
ãĥķãĤ© ãĥ³
Ġ{ "
ãĥª ãĤ¹ãĥĪ
ĠÐ¿Ð¾ÑĤ ÐµÑĢ
Ġdire ctor
Ġde pois
Ġ uro
gl ise
Ġchange ment
F F
æ´ ¥
ãĥ³ãĥĨ ãĤ£
Ġencu entro
ĠÐŁÑĢ Ð¸Ð¼
Ð¢ ÐĲ
ĠÐ·Ð°Ð² ÐµÑĢÑĪ
st an
Ġcáº£ nh
owa li
Ġt ierra
Ġtor na
Ġza hl
Ġno te
Ġlo gement
ãģ®æ Ĭ
i my
Ġ6 6
b W
Ġprze kon
Ġprincip io
Ð¸Ñħ ÑģÑı
Ġal o
ĠdÃ© li
Ġan ty
ast ÄĻp
è¨ º
ĠAnt wort
ĠÐ¾Ð¿ ÐµÑĢÐ°
ãĤ¹ãĤ¿ ãĥĥãĥķ
ei gnet
ĠÐ¿Ð¾ ÑĪ
ĠÐ² ÐµÐ»
Ġk wo
Ġk wia
Ġ7 4
in et
ĠÐļ ÑĥÑĢÑģ
ĠÐ¾ÑĤ Ð¿
re f
ĠÐ·Ð°Ð¿ ÑĢÐ¾Ñģ
Ġswoje go
ãĤ« ãĥ©ãĥ¼
Ġbut ton
éĿ Ĵ
s on
Ġ) )
ĠÐ°Ð½ Ð°Ð»Ð¾Ð³
ĠÑĥÐ´ Ð¸Ð²
ĠÐĳ ÐµÑģ
èĢĥ ãģĪãĤĭ
ĠJ ac
era it
ĠÐ³ ÑĥÐ±
Ġsc rit
ĠL uft
Ġre gi
ĠÐ¦ Ð²ÐµÑĤ
ĠÑĥÐºÑĢÐ° Ð¸Ð½
ĠÐ½Ð°ÑĪ ÐµÐ³Ð¾
ĠÐ²Ð·Ð° Ð¸Ð¼
ĠÑĦÑĥÐ½Ðº ÑĨÐ¸Ð¾Ð½
Ġacquis to
ãĤ° ãĥ«
Ġcambi os
Ġce lles
N O
Ġp ur
ĠP on
Ġfor za
Ġsucc Ã¨s
ĠÐĿ ÐĲ
ĠÐº Ð½Ð¾Ð¿
ĠÐº Ð°Ð»
c cion
Ġprimer os
ĠÐ² ÐµÐ»Ð¸Ðº
ĠÐ¿Ð¾Ð¼Ð¾Ñī ÑĮ
zy j
ãģķãĤĵ ãģ¯
Ã¤ mp
ĠprÃ© sence
Ġindy widual
Ġpos e
Ġm Ã¨re
Ġçµ Į
Ġil lus
Ð¸Ð³ Ð¸
Ġfuer za
Ġ ost
éŃ ħ
Ġd Ãłi
Ġmod Ã¨les
Ġy e
ĠHer steller
Ġmeine m
ita re
Ġou tras
Ãºsque da
Ã¼s sel
ĠRÃ© pondre
Ġop ti
Ġmoy ens
Ð°Ð¶ ÐµÑĤÑģÑı
ĠT isch
ĠGe bur
ãģ¤ ãģ®
hau pt
Ġf Ã©
k owej
ĠPri mer
Ġn etto
ĠÐºÐ¾Ð¼ Ð¸ÑģÑģ
Ġcol lection
n ant
ĠÐ² Ð°Ðº
Ġtakie go
si to
Ð¸ÑĤÐµÐ»ÑĮ Ð½Ð¾Ð³Ð¾
ĠK ran
Ġver t
Ġpoli tiques
Ġlokali zacji
âĺ Ĩ
ä¿Ŀ è¨¼
geb ung
Ġme ta
ĠãĤĪ ãĤĬ
Ġparticu liÃ¨rement
ĠW h
ĠÑĤÑĢÐ°Ð½ Ñģ
ĠÐ¼Ð°ÑĤÐµÑĢÐ¸Ð°Ð» Ð¾Ð²
ĠÐ²Ð· Ð³
ĠÐ¡ ÐµÐ¹ÑĩÐ°Ñģ
Ġpos sa
Ġ owo
çĽ Ĭ
Ġimp orte
Ġb rz
ĠD y
Ġdi o
ÐµÑĤ ÑĢÐ¾Ð²
Ãª che
a ct
Ġbe wer
ĠF i
Ġabs ol
Ġsitu azione
ãĥĥãĥĶ ãĥ³ãĤ°
ãĤ¹ ãĤ¹ãĥ¡
é į
ĠI S
il en
ow nie
Ġpre ve
ĠÑĦ ÑĥÑĤÐ±Ð¾Ð»
ĠÐ¿ ÐµÐ´
ĠÐ¼ Ð¾ÑģÐº
ãģ¾ ãģĦ
ta das
ĠÑĢÑĭ Ð±
z um
ĠÐł Ð¾ÑģÑĤ
ÐµÐ² ÑĭÑħ
5 7
11 æľĪ
ĠspÃ© cial
Ġconj unto
Ġcl ase
å° Ħ
ĠÂ µ
Ġch Ã¢n
Ġre mar
Ġpas sion
» ¿
ĠÐľ ÐµÐ´
Ġp Ã¨re
ĠÐ²Ñĭ Ð¸Ð³ÑĢ
Ġapro ve
ites se
å¤ī æĽ´
äº ī
Ġedi ciÃ³n
Ñģ Ð¾Ð»
N v
an Ã³w
Ġbus cando
Ġscon to
Ġper chÃ¨
ab il
Ġop ciÃ³n
Ġtr á»±c
Ð½Ð¾ÑģÑĤ ÑĢÐ°Ð½
IC A
pi ti
Ġobie ktu
ĠWy da
Ġop inie
Ġsz p
ĠPr Ã¤
na le
ĠVo ll
zahl ung
ĠRe cht
fi ci
Ġcomp et
ĠNe ue
Ġfait es
Ġp ierre
ĠÐ¿Ð¾Ðº ÑĢÑĭÑĤ
Ġver wendet
ĠÐ³Ð¾Ð²Ð¾ÑĢ Ð¸ÑĤ
u jÄĻ
ĠPag inas
Ġperi od
Ġutilis Ã©
Ġg Ã³r
Ġbuen as
ĠÐ²Ð¾Ð·Ð´ ÐµÐ¹ÑģÑĤÐ²
ãĥŀ ãĥ³
Ġa tiv
Ġt Ãªn
in ar
Ġaus ges
Ġåģ ½çī©
æķ µ
ÐµÐ· Ð´Ð°
Ġde dica
å± ¤
Ġactu ali
Ġcre a
at ung
Ġsch ein
r Ã³n
ĠFamil ien
Ġop Ã©ration
ob ec
Ġ[ ...]
ĠN ouvelle
ãĤĴæĦ Łãģĺ
ãģ«å¯¾ ãģĹãģ¦
Ġco per
ĠÐ¿ÐµÑĢÐµ ÑħÐ¾Ð´
mer ic
ä¿ º
Ġçľ Ł
Ġpeque Ã±a
ĠãĤ¨ ãĤ¢
ĠÐºÐ¾Ð¼ ÑĦÐ¾ÑĢÑĤ
ĠzwiÄħz ku
ami ng
Ġsc Ã¨ne
æ² ¹
Ã¤ llt
ĠÐ¿ ÐµÐ½Ñģ
ĠÐ» Ð¸ÑĤÐµÑĢ
ĠÄĳá»Ļ i
h ei
ĠMa terial
Ġgl ob
Ñİ Ñģ
cie ux
Ġac tions
Ð¸ÑĩÐµÑģÐº ÑĥÑİ
Ġdos sier
Ġmes ures
Ġpomo cÄħ
ãĤ¸ ãĥįãĤ¹
zza ti
ĠK Ã¼n
Ð¸ÑĤÐµÐ»ÑĮ Ð½Ð¾ÑģÑĤÑĮ
ĠgÃ©nÃ©ra le
éģ¸ æĬŀ
dzia ÅĤu
Ġest rate
ĠD ort
ĠBa um
de ck
ĠH D
Ġderni ers
ĠÐ°Ð½Ð³ Ð»Ð¸Ð¹
Ġcar ta
G G
Ġmani f
Ġrodza ju
çµĤ ãĤı
Ġverschieden e
ĠÐ¿Ð¾Ð´ Ð¿Ð¸Ñģ
ãĤ¹ ãĤŃ
ni c
les e
ĠÐ½Ð¾Ð² Ð¾Ð³Ð¾
Ġk Ã½
ĠÑģÐµÑĢ Ð¸
Ġel es
Ġpa cj
ãģ§ãģĻ ãģĹ
ãģ£ ãģ¡ãĤĥ
Ġï¼ ľ
åł Ĥ
åį ³
ãĤĴ å®Ł
Ġh Ã¤uf
ĠÐĴÑĭ Ñģ
ĠÑĥ ÐºÑĢ
ĠÐ¿Ð° ÑĨÐ¸
ĠE cco
Ġk lu
Ġappar tamento
ãĥ³ãĥ ĵ
ĠS elon
Ġç© º
ĠÐ¾Ð±ÑĢÐ°Ð· Ð¾Ð²Ð°ÑĤÐµÐ»ÑĮ
Ġimmag ini
je k
Ġh ref
ĠÐ½Ð°ÑĪ Ð¸Ñħ
Ġpyt anie
ĠÑģÐµÑĢ Ð¸Ð¸
ĠÐ¡ÑĤ ÑĢÐ°Ð½
k Ã³ÅĤ
åı¯èĥ½ æĢ§
Ð¸Ð· Ð¼Ð°
Â ¢
Ġqu áº£n
ĠIn sta
ost ante
tÃ© ra
Ġs ome
ĠMig uel
ĠMej ores
m Ã¡n
Ġhotel s
Ġ9 4
rie ure
Ġumo Å¼li
Ã¨ ve
Ġpl ante
ĠÐ¤ Ð¾ÑĤÐ¾
ĠÐľ Ð°Ð³
ĠÐ·Ð½Ð°Ñĩ Ð¸ÑĤ
Ġmen or
le y
ĠÐ¿ÑĢÐ¾ÐµÐºÑĤ Ð°
ĠdÃ© mo
ĠÃ©lÃ¨ ves
ĠvÃ©ri table
ĠÄĲ áº¡i
ĠÐ¾ÑĤÐ¼ ÐµÑĩ
Ġnowo czes
Äħd Åº
Ð¾Ðº Ð¾Ð¹
ig t
Ġfilm s
Ð½Ð¸Ðº Ð°Ð¼Ð¸
cor r
wi ce
i ÅĤ
ha ft
ĠG R
Ġmat ch
ĠcompaÃ± ÃŃa
ĠÑĤ Ð°Ð½
å¼ ģ
l am
ĠÐºÐ°ÑĩÐµÑģÑĤÐ² Ð¾
ĠÐ¿Ð¾Ð½ ÑĢÐ°Ð²
ĠÐ¿ÑĢÐ¾Ð²ÐµÐ´ ÐµÐ½Ð¸Ñı
ĠAn fang
Ġj ul
Ġkh ai
sch t
L I
Ġcre are
Y S
Ġstan owis
Ġæ¥½ å¤©
åĽ °
Ġexp li
ĠÐ¾Ð¿ÑĤ Ð¸Ð¼
Ġä»£ å¼ķ
æĽ¿ ãģĪ
åĽ Ľ
Ġde vis
Ġpos te
Ð¸ÑĤ ÑĥÑĤ
Ġprywa t
Ãºt bol
li d
ĠlÃŃ der
et ten
Ġ20 00
Ñĭ ÑģÐº
Ġi tem
å¹ ¸
w Ã¤r
ĠT ec
ĠA si
po co
le ts
ir ie
ÐµÐ½ Ð½
la re
Ĭ ¶
Ġm á»¥c
ĠÐĴ Ð¸Ðº
Ġel Ã©ctri
Ġt iss
Ġch ance
Ġe venti
ĠG da
Ġprz er
Ð¾ÑĢ ÑĥÐ¶
ĠAn ne
ven u
Ġv ig
ÄĻ dz
Ð¸Ñĩ Ð½Ð¾
ty ki
ti ma
Ġste llt
çĭ ¬
ĠÐ·Ð°Ñī Ð¸ÑĤ
Ġtrav estis
Ġen v
vo ca
ĠÐºÐ¾Ð¶ Ð¸
ĠÐ¾Ð´ Ð½Ð°ÐºÐ¾
Ġj az
ĠA unque
ĠEl tern
ĠAn dre
tico li
ãĥĥ ãĤ¸
Ġh alten
Ġsu d
V s
ÄĻ b
ĠÂ ¢
Ġs Ã¡t
ĠÐ±Ð»Ð°Ð³ Ð¾Ð´Ð°ÑĢÑı
Ġprac ÄĻ
Ġk an
ĠKomment are
fÃ¼ hl
ĠÐ¿Ð¾ÑģÐº Ð¾Ð»ÑĮÐºÑĥ
Ġpro cesso
K S
ĠWszyst kie
vol uciÃ³n
Ġh ina
czenie m
Ġpo ÅĤoÅ¼
åĿ ĩ
æķ £
b ao
ĠEdu caciÃ³n
Ġc ita
ĠEs per
Ġall ÃŃ
Ġs ang
Ġf Ã¼nf
ĠÑĦ Ð°ÐºÑĤÐ¾ÑĢ
å¸ ĮæľĽ
ĠåŃĲ ä¾Ľ
Ġle quel
ĠÐłÑ ķ
ĠÑħÑĥÐ´ Ð¾Ð¶
ĠåĮĹ æµ·éģĵ
éģ¸ æīĭ
ĠPoli zei
ĠÐ¸Ð¼ ÑĥÑīÐµÑģÑĤÐ²
ĠÐ·Ð°Ð²Ð¸Ñģ Ð¸ÑĤ
ĠÐ² ÑĢÐµÐ´
Ð°ÑĢÑĤ ÑĦ
nel s
ari co
ĠVo cÃª
ĠN au
Ðŀ ÐĿ
Ġco Ã»
ĠÑĢÐ°Ñģ ÑĪÐ¸ÑĢ
ĠS C
ĠNe lla
Ġspo tka
se e
g rÃ¡
G B
Ġzei gen
ĠÐ¼Ð°ÑģÑĤ ÐµÑĢ
ĠÅĽ mier
ĠTa gen
Ġmod erne
ĠÑĢÐµÐ³ ÑĥÐ»Ð¸
ĠÐ¢ÐµÐ¿ ÐµÑĢÑĮ
Ġte mas
Ð½Ð¾ ÑĪ
CI ÃĵN
Ġme xic
Ġer an
Ġapres ent
æ¤ľ ç´¢
it ten
Ġgra ph
Ġend roit
ĠÑĦ Ð»
ma ti
ãģ®ãģ§ ãģ¯ãģªãģĦ
ï¿ ¥
ª ¨
Ġc odzien
Ġanaly se
§ ĭ
Ġwo llte
Ġer hÃ¤lt
Ġsa it
ĠArtic olo
ga ti
bli Å¼
Ġw ho
Ġor o
ĠdÃ© termin
ĠÐ¾Ð´ Ð½Ð¸Ð¼
iss Ã£o
¯ u
Ġr ower
an ka
Ġang iel
Ġbe vor
Ġb Ã©bÃ©
Ġanima ux
en Ã§a
ĠT ener
ĠD O
Ġkonie c
gles ia
Ġrappres enta
Ġcá»© u
lic ante
ĠFrancis co
ĠÐ½ÐµÑģÐº Ð¾Ð»ÑĮ
Ġâĸ ¼
çĲĨ çĶ±
li Äĩ
åĲ Ľ
Ġåĭ ķ
Ġver siÃ³n
Ġsex ual
Ġdise Ã±
ĠÑĢÑıÐ´ Ð¾Ð¼
Ġfour nisse
Ġfa j
ĠkoÅĦ ca
ĠW Ã¼r
ĠPla y
ĠPoli tik
ĠbÃ¢ ti
ĠÐ¾Ðº Ð¾Ð½Ñĩ
Ġpop ra
Ġchi co
Ġam bos
ĠPf lege
ĠDam it
Ġãĥ ¤
Ġa Ã±ad
Ġsab e
Ġpi ÅĤ
ãĥĽ ãĥ¼ãĥł
ĠæĻĤ éĸĵ
ĠDeut sch
Ã¼ hren
ĠNaj lep
ĠPio tr
Ġsz t
Ġsk rzy
wi enie
ÑĢÐµÐ¼ Ñı
ÃŃ veis
Ã¡ tico
Ġsou ff
ĠÐ´Ð¾ÐºÑĥÐ¼ ÐµÐ½ÑĤÐ¾Ð²
Ġescl usi
Ġdar Ã¼ber
Ġse de
ĠWy sÅĤ
ces z
ĠÑĤÑĢ ÐµÑĤÑĮ
Ġf anno
te ments
ãģĽ ãģ¦
áº¿ p
ĠR ue
ĠP u
Ġaug ment
ãģĵ ãģĵ
Ð°Ð½ Ð¸
or as
er zy
Ġå¿ ħ
ĠÃī tats
ĠÐ½Ð°ÑģÑĤ ÑĢÐ¾
ĠpÃºb lica
z uf
Ġdi mos
ãģĤ ãģªãģŁ
ãĤĴè¦ĭ ãģ¦
Ġre qu
Ġmiejs c
é ®®
ĠMe dien
ĠÐ²Ð· ÑĢÐ¾ÑģÐ»
Ð¾Ð´ ÐµÐ¹ÑģÑĤÐ²
è§ Ĵ
Ð¸ÑģÑĤ Ð¾Ð²
Ġver sione
Ġcas e
Ġim mo
Ġfin ale
Ġdiretta mente
è£½ åĵģ
Ġfor o
ac ciÃ³n
ĠF Ã¼hr
ĠB áº¡n
Ġsol u
Ġsex y
ĠInterna cional
ad urch
ĠÑįÑĤ Ð¾Ð¼Ñĥ
å¯ º
ĠÑģÐ¼ ÑĭÑģÐ»
ĠFrances co
Ġcontri b
ĠÐķ ÐºÐ°ÑĤ
ĠÐł ÐµÐ³
ĠS ty
rÃ³ ci
Ġlog rar
ĠÐ¿Ð¾Ñģ ÐµÐ»
ĠÐ¿ Ð°Ð¿
ĠÐ¾ÑĢ Ð³
Ġãĥģ ãĤ§
æĬĢ è¡ĵ
ĠFir enze
Ġcos to
è» į
ach ten
ĠextÃ© rieur
ĠÐ¿ÑĢÐ¾Ð´ÑĥÐº ÑĨÐ¸Ð¸
ĠÐ³Ð¾Ð´ Ñĭ
Ġp oni
Ġbras ile
Ġpra tiques
Ð¸ÑģÑĤÑĢÐ° ÑĨÐ¸Ñı
ni Äħ
Ġthu á»Ļc
ĠAu ÃŁer
fica zione
Ġfor mu
ĠÐł ÐµÑĪ
c enza
Ġof ere
richt ung
ĠG Ã©n
onn er
ĠÐľÐ¾ÑģÐºÐ² Ñĭ
ÑĥÑĪ ÐºÐ¸
ĠÑĢÐ°Ð· Ð½Ð¾
ĠE d
Ġso ient
enta i
Ġestudi antes
ĠVer kehr
ĠÐ¿Ð¾ÑģÑĤÐ¾ÑıÐ½ Ð½Ð¾
ĠÐ¿ÐµÑĢ ÐµÑģ
Ġdo ble
Ġaque llos
ĠE ur
Ġco o
ĠD al
Ġt wo
ĠB ran
ĠIde en
Ġmon tre
sp ra
ĠC ia
tt ura
ve ill
ar di
ĠÑĩÐµÐ¼ Ð¿Ð¸Ð¾Ð½
Ġneces idades
Ġo lej
prasz amy
Ġtemp er
Ġpopula tion
ĠÐĿ Ð°Ñĩ
ÅĤ os
çĻ» åł´
ĠÐļ Ð°Ð¶Ð´
Ġweit eren
we ÅĤ
Ġza ÅĽ
Ġjed nego
ãģ®åı £ãĤ³ãĥŁ
çŁ Ń
Ġis ol
g nie
Ġgiá»¯ a
ai x
ĠdifÃŃ cil
ĠP ost
Ã¤s ident
Ð¾Ð½ ÐµÑĨ
Ð°Ð² Ð¸Ñģ
ç«ĭ ãģ¦
ĠI o
Ġp antalla
ãĥĹ ãĥ©
ĠM ur
ĠEs cu
ãģĤ ãģĴ
ãĤ¯ ãĤ·ãĥ§ãĥ³
Ġãĥ¡ ãĥ¼ãĤ«ãĥ¼
æ ¤
Ġes pos
Ġdeter min
Ġz ie
ĠT E
tur al
Ġchauff age
Ġutilis ateurs
ĠÐºÐ¾Ð½ ÐºÑĢÐµÑĤ
uel s
ĠB lo
Ġç ķ
AN D
Ġress ources
ĠPe tit
met tre
Ġparti cular
ĠH il
ĠÐķ Ð³Ð¾
f Ã¤h
is mus
Ġretr ouver
Ġtemp i
Ġhabit ants
Ġpu li
ĠGiov anni
m oni
wia Äĩ
ĠãĤª ãĥ³
ĠÐ¸Ð³ÑĢÐ¾Ð² ÑĭÐµ
ĠÑģÐ¾ÑģÑĤ Ð¾Ñı
Ġedi zione
ãģ£ãģ± ãĤĬ
ãĤĪ ãģ³
Ġt esta
ãĥ³ãĥĩ ãĤ£
ĠÐĲ Ð»ÑĮ
czeg Ã³l
Ġen tiÃ¨re
Ġsu gg
uyá»ĩ t
gu ay
Ġsuf ici
ĠE igen
ĠÐ¼ ÐµÐ½ÑĮÑĪÐµ
Ġor mai
pe lli
c ente
Ġoff en
è¡ Ģ
Ġek sp
itÃ¤ ts
ĠÃ©to iles
Ġpo te
åŃĺ åľ¨
Ġopp os
Ġper man
a el
ĠA bend
ĠTag es
Ġ8 5
vol ution
Ġprzy jem
ĠÄĳá» Ŀi
ĠM ain
Ġcal me
Ġex am
ãģ© ãģĵ
Ġin via
Ġk Äħ
ĠÐ¸Ð½ÑĦÐ¾ÑĢÐ¼ Ð°ÑĨÐ¸Ð¾Ð½
si Äħ
Ġâ ĳ
å¿ «
Ġt anti
owane go
Ã¨ ce
Ġfron te
Ġneces idad
ĠÐ·Ð°Ð²Ð¸Ñģ Ð¸Ð¼Ð¾ÑģÑĤÐ¸
Ġdi bu
r ano
Ġprofession nelle
ãģ®æ Ī
ĠK ri
Ġren for
ĠÑģ Ð´
Ġc á»ķ
Ġa cu
Ðŀ Ðł
Ð½ ÐµÐ½Ð¸Ñı
ĠÑĢÐ°Ð· Ð´
ÑģÑĤÑĢÑĥÐº ÑĨÐ¸Ð¸
Ġrepres enta
u z
ĠÐ§ Ð°ÑģÑĤ
c tifs
Ġsod dis
eni ng
ĠMen sa
ĠGay s
Ġmas ajes
Ġviv ir
ĠEr folg
ĠÐĿ Ð¸Ð¶
ĠÐĹ Ð°ÑĢ
Ġo pport
Ġb ringen
ĠÐ¼ ÑĥÐ»ÑĮÑĤ
Ġpar tes
ts eite
Ġrifer imento
Ġtre ÅĽci
ĠKra ft
ÑıÐ± ÑĢÑĮ
ÑģÐ¾Ð» ÑİÑĤ
h ait
Ġsquad ra
cia Å¼
fe hlen
Ġwe g
un cia
Ġlum iÃ¨re
ei le
ĠÐ³ Ð¾
ĠÑĤ ÑĢÑĥÐ±
ãģ£ ãģį
v ideos
Ġco lec
Ġvelo cidad
ĠÑģÑĤ Ð°Ð»Ð¾
Ġï¿½ï¿½ ï¿½ï¿½
ĠTh anh
Ġm á»©c
Ã¼ gen
Ġmol te
rz wi
2 æľĪ
çķ ¥
owane j
arz enia
Ð°Ð³ Ð¾Ð³
Ð¸Ð· Ð°ÑĨÐ¸Ñı
Ġm icro
ĠÑģÑĤÐ°ÑĤÑĮ Ð¸
ĠÐ½Ðµ Ðµ
ï½ °
ãģĭãĤī ãģ¯
ei gn
Ġæ¨ ª
Ġ ä½ĵ
ĠEn f
ĠÐ¿ ÑĥÐ±Ð»Ð¸
ĠA ni
Ð¾Ð· Ð²
p ones
Ġpropri Ã©
Ġmob il
Ð¾Ð³ ÑĢÐ°Ð´
Ð¸ÑģÑĤ ÐµÑĢ
ale za
ĠmatÃ©r iel
Ġ20 04
çŃ ĭ
ĠÃ ®
ĠT itel
ä¾¿ åĪ©
ĠC lub
Ġpla zo
Ġm ud
] ,
Ġdoty czy
ĠÐ¸ÑģÐ¿ ÑĭÑĤ
Ġé Ł
t ungen
ON I
ta lia
vi le
rz a
èª ²
ĠFoll ar
Ġtrad i
ĠÐ¢ Ð°Ð¼
Ð¡Ð Ĥ
ĠÐĴ Ð°Ð»
Ġch iáº¿c
ÑĥÐ» ÐºÐ°Ð½
UiOi J
Ġdzie cko
w ili
Ñģ Ðµ
ãĥ³ãĥ ĸ
Ġan y
Ġfun ciÃ³n
ÑĥÑİÑī Ð¸Ðµ
Ġentfern t
Ġhui le
Ġcoin vol
ter ÃŃa
Ġarch ite
Ð¸ÑĤ ÐµÑĤÐ°
Ġza bezpie
Ġusu ario
Ġod wie
Ġele mentos
ĠãĤ Ĩ
ti tion
æ±Ĥ äºº
ĠæĿ±äº¬ éĥ½
é «ª
æ¶ ²
ĠG las
r ados
E U
ĠtÃ© mo
ãģ®å ĳ
dar f
ci ence
ĠTut ti
Ġgi ng
ĠÐº Ð¾Ð³Ð¾
Ð¸Ð¼ ÑģÑı
ib ilitÃł
den za
Ġpro me
an ach
Ġtra in
or ge
ãģ£ãģ¦ ãģĹãģ¾
Ġf und
ĠÐ¿Ð¾Ð» Ð¾Ð²
æľŁ å¾ħ
Ġing res
ĠÐ´ÐµÐ» Ð°
ĠÐ´ÐµÐ¹ÑģÑĤÐ² Ð¸ÑĤÐµÐ»ÑĮÐ½Ð¾
ĠÐ¿ÑĢÐµÐ´ Ð½Ð°Ð·Ð½Ð°Ñĩ
Ġ: :
ÅĽ le
Ġlie ux
ĠC it
Ġprim eira
ãģĮ ãģĦ
ĠÐ¿ÐµÑĢÐ² ÑĭÑħ
ãģĭãģª ãģĭ
ãģ®è £
ue ll
ĠÐºÑĢ Ð°Ð¹
ra ca
setz en
ĠÑĤ Ñĥ
Ġpa ese
Ġdop iero
f y
ĠÑģ Ð¸Ð³Ð½
Ġ> >
æıĲ ä¾Ľ
Ð¸ÑĨ Ñĥ
ĠSta to
Ġkho áº£ng
ĠT ier
Ã¶ sen
Ġf ini
Ġst wier
Ġexer ci
ĠE X
qu Ã©s
å·¥ äºĭ
Ġæ¥ŃåĭĻ çĶ¨
çĻº å£²
Ġcris is
Ġad block
ĠkrÃ³ t
æ²» çĻĤ
ãĤı ãĤĮ
ĠÐ½ Ð¸Ð±
row ia
Ġmin ist
ĠTout es
an ne
Ġl y
Ġcl Ã©s
Ġprue ba
Ġtrava iller
j esz
li cas
ĠÑĩ Ð»ÐµÐ½
å¤ ı
bes ondere
Ġta ka
all y
Ġj orn
Ġher mos
ĠC y
8 2
Ġsol utions
Ġren dez
Ġ, '
Ġm ission
ĠÑģ Ð°Ð¼Ð¸
Ġsoggior no
ãģĹ ãģ£ãģĭãĤĬ
Ġä¸Ń åĽ½
or k
ĠÐ»ÐµÐº Ð°ÑĢ
ĠÐ±ÑĥÐ¼ Ð°Ð³
ĠH um
ĠD 0
Ð°ÑĤ ÐµÐ»ÐµÐ¼
Ġpi Äħ
Ġrecom end
ĠÑĤÑĢ Ð°Ð´Ð¸
Ġinter vention
Ġty pes
ĠD ig
Ġm ind
ĠM ol
Ġsz ans
Ġre jest
ĠC ong
z Äħd
ãģ« è¦ĭ
Ġmod er
ÐµÑĪ ÐµÑģÑĤÐ²
Ġelekt roni
to m
ara tos
ra ciÃ³n
Ġma xim
ta it
ãģ§ãģĻ ãĤĪ
åĲĳ ãģĳ
Ġtam aÃ±o
ĠW il
ĠR ein
si ert
Ġcam pagne
ang eb
Ġeigen e
Ġ19 6
Ġa j
ĠC ou
c ts
p Ã³ÅĤ
å¥³ åŃĲ
© çĶ¨
Ġe cc
è ¯
åĨ ·
wir tschaft
Ġrep as
Ġza pis
ment ale
ĠL Ã©
ĠEx p
Ġouver t
Ġde venir
d no
ãĥ© ãĥ³ãĥī
Ġgan ar
se ille
Ġlong temps
Ġro m
ĠH y
ĠB ade
Ġh ol
Ġac cesso
Ġou tro
ĠintÃ© gra
A d
Ġso ins
Ġcapa citÃ©
Ġfin de
we gen
ĠPre zzo
ĠConsi glio
Ġitali ani
AR E
Ġun ica
ĠR ub
ta ciones
ĠÑģÐµÑĢÑĮ ÐµÐ·
Ġconse gu
Ġa gence
Ã¨ rent
Ġle cz
ĠB ank
Ġref le
ĠÐŁÐ¾Ñĩ ÐµÐ¼Ñĥ
ĠÐĳ Ñĭ
Ġkh ÃŃ
ĠÐ¿ÑĢÐ¾Ð³ Ð½Ð¾Ð·
Ġcon sen
Ġentre ga
ÑģÑĤ ÐµÑģÑĤÐ²
ãĤ¹ ãĤ«
Ġpro ve
esten s
ãģ®åĨ ħ
Ð¸ÑĢÑĥ ÑİÑĤ
ãĥªãĥ¼ ãĥ³
w ka
I 6
Ġproje kt
Ġoczy wiÅĽcie
Ġloka l
ar beitet
ĠProble me
ĠÃ©po que
Ġloca li
ĠÐĶ Ð¼
Ð¸Ð¼ ÐµÐ½ÑĤ
Ġatra vÃ©s
Ð° ÑĨÐ¸ÐµÐ¹
Ġpad re
Ġdom icile
ãĥ©ãĤ¤ ãĥĸ
vis or
met ros
Ġdev ono
ĠD eux
ãģ®æĦ ı
ĠTh u
å« Į
f le
ĠÑĥÑģÐ¿ ÐµÑĪ
Ġm áº¡ng
z quier
bo x
rei fen
ãģķãĤĮ ãģ¾ãģĻ
lo ts
ĠZ e
Ġsig lo
ur er
ĠPour quoi
Ġpicc olo
Ġor ient
ĠÐ¼Ð°ÑĪ Ð¸Ð½Ñĭ
m un
Ġnos sa
ami que
ĠÐ¶ ÐµÑģÑĤ
Ġal Ã©m
Ġ5 C
Ġlang ue
or ti
ĠDla tego
Ġar re
si v
ĠÐ½ÐµÐºÐ¾ÑĤÐ¾ÑĢ ÑĭÐµ
Ġvost ro
5 hbW
Ġrequ ire
ĠkoÅĦ cu
Ġpro vincia
Ġh al
Ġa ggiung
i bile
Ġexe mp
OW E
Ġsp Ã³ÅĤ
g om
Ġru olo
Ġmog ÄĻ
Ġning una
Ġ12 0
Ġprzy ja
Ġprofes jon
åķ Ĩ
Ġunter schied
Ġaff er
Ġmul her
cie le
i tar
Ġgar de
b3 V
Ġch ÅĤo
ĠNg h
ĠBl ue
ign es
Ġlors qu
ĠÐ²Ñĭ Ð·ÑĭÐ²
Ð¸ÑĪ ÑĮ
Ð¾Ð»Ð½ Ðµ
Ġroz wi
Ġï¼ ĭ
ãĤĴ ä½¿çĶ¨
ÑĢÐµÐ¼ ÐµÐ½Ð½Ð¾
Ġd uro
cion a
Ġnh iá»ĩm
çī¹ å¾´
ĠVal encia
on ia
æ°Ĺ ãģ«åħ¥
Ġsou hait
Ð½ ÑĥÑĤ
Ġãģĵ ãĤĵãģª
ãĥŃ ãĥ¼
Ġje de
atter ie
Ġpass age
kar te
Ġalgun s
ĠSte llen
niej szych
ĠÐ¾ ÑħÑĢÐ°Ð½
ãĥķ ãĥ«
Ġè Ĭ±
ãģ¾ãģ¨ ãĤģ
å¤§ å¤ī
ãĤī ãģı
ĠmÃ© c
Ġcap ita
ĠÐ·Ð°Ð¼ ÐµÐ½
b ano
I V
ne z
ĠÐ¿ÐµÑĢÐµÐ² Ð¾Ð´
ĀĀĀĀĀĀĀĀĀĀĀĀĀĀĀĀĀĀĀĀĀĀĀĀĀĀĀĀĀĀĀĀ ĀĀĀĀĀĀĀĀĀĀĀĀĀĀĀĀĀĀĀĀĀĀĀĀĀĀĀĀĀĀĀĀ
Ġorgani zaciÃ³n
he ma
ĠÐ½Ð¸Ð± ÑĥÐ´ÑĮ
Ġ ä¹
ï¼ ¼
å±Ĭ ãģĳ
ãĥŀ ãĥ³ãĤ·ãĥ§ãĥ³
ãĥ¬ ãĥĥãĤ¯ãĤ¹
Ġchu áº©n
ĠC zar
Ġæ ·
c enia
ĠTe chnik
ĠRou ge
Ġprof iter
ĠÑĤÐµÐ¿ Ð»
Ġfr Ã¼
Ġpr Ãªt
Ã§ ons
ĠÐ±ÑİÐ´Ð¶ ÐµÑĤ
Ġwy god
åľ° åŁŁ
ĠSec re
Ġtotal mente
ĠÑĢÐ°Ð· Ð°
mi te
dy n
ĠLou is
ĠÑģÐ¾ ÐµÐ´Ð¸Ð½
Ġpub liÃ©
Ġde vient
Ġli ke
Ġpregun ta
Ġmensa je
Ġter en
Ġcorre o
d chen
ĠU l
Ġz uf
ĠD io
Ġç Ń
å¹´ ãģ«
ĠÐºÐ°ÑĤ Ð°Ð»Ð¾Ð³
ĠÐ³ ÑĢÐ°Ð¼
Ð¾ÑĢ Ð³
ut to
Ġt ÅĤ
Ġtoda vÃŃa
Ġde vez
ĠÐ¾Ð´ ÐµÐ¶Ð´
Ġdru giej
ÑģÐº Ð°Ð¶
ĠÐ¾ÑĦ Ð¸Ñģ
n al
ÐµÐ¶ Ð´Ð°
ÑģÑĤÐ² Ð¸Ðµ
ing er
ĠÐĿ Ð°ÑģÑĤ
ti go
ĠAnt worten
ĠÐ¿Ð¸ÑĤ Ð°Ð½Ð¸Ñı
ĠÐ¾Ðº ÑĢÑĥÐ³
Ð¾Ð» Ð´
ĠPor tu
Ġac or
Ġn á»ķi
we hr
f ia
ĠLi czba
ĠÐº Ð¸Ð½Ð¾
ĠÑģ Ñĥ
Ġord inateur
ĠÐ½Ð°ÑĪ Ð¸
Ġseg ment
Ġlav ori
Ġko le
lis ch
ĠP ort
ĠN ation
ĠEn fin
ĠAch eter
Ġz re
Ġpri v
ĠÐ´Ð°Ð² Ð½Ð¾
ÑģÑĤ Ð¾
ito y
ĠÐļ Ð¾Ð´
ĠÐ¼Ð°ÑĪ Ð¸Ð½
Ð¸ÑĤ Ð¾ÑĢ
Ġfos se
Ġozna cza
Ð¸Ð»Ð¸ Ð·
el as
ĠP ays
Ġph p
estiv al
HÃ´tel s
Ġgratu itement
ĠA P
IL LE
Ġdire ct
Ġsali da
Ġcerta in
ĠÑĥ Ðº
ĠÐŃ Ð»ÐµÐºÑĤÑĢ
ĠÐ¼ÐµÐ½ ÐµÐ´Ð¶
Ġdom ingo
ĠÐ¼Ð°ÑĢ ÑĪ
çĽ¸ åł´
Ġåĥ ķ
ï¼ Ń
Ġå¿ ĥ
ä¸Ģ è¦§
å¯ Ŀ
ĠDes puÃ©s
Ġent ro
ĠÃ ĳ
ĠThe o
ĠdÃ© cid
ĠDÃ©couv rez
ĠBask ets
ĠN um
ĠC li
æĺ ¥
ĠM ul
si f
ĠrÃ©se aux
ĠCu ir
Ġaff ich
ĠÐ³ ÐµÑĢ
o li
ÅĦst w
ĠãģĬ ãģĹãĤĥãĤĮ
ãĥĪ ãĥª
an che
ĠÐ§ ÐµÐ¼
timm ung
ĠÐ¿Ð¾Ð´ Ñģ
Ġqu anti
ĠK an
ĠÐ¿ÑĢÐ¸Ð² Ð¾Ð´
Ã³n de
ãĤĤãģ® ãģ§ãģĻ
ca mb
ĠÐ¿ÑĢÐ¸Ð² Ð»ÐµÐº
inn astica
cun o
cipa li
Ġmiemb ros
U B
Ġre pos
Ġinternation al
ĠÐ¸Ð´ ÐµÑĤ
Ð¾Ðº Ð¾Ð»
Ġk iá»ĥm
ĠBuen os
Ġin media
Ġris ol
stell ungen
ĠÐ½Ð¸Ðº Ð¾Ð³Ð´Ð°
Ġprze p
le z
ĠrÃ¡p ida
es ter
Ġappare il
ĠÐ» Ð¸Ð´
º å®ļ
is sima
Ġenc anta
cto ra
Ġaggior n
Ġris chio
kuje my
Ġza g
Ġw hen
Ġofer ta
ou d
Ð°Ð´ Ð»ÐµÐ¶
b 2
YW 1l
ĠP ani
Ġstron ÄĻ
jeun er
ĠÐ¸Ð·Ð¼ÐµÐ½ ÐµÐ½Ð¸Ñı
éĸĭ å§ĭ
ĠA li
Ġver ano
Ġge bra
Ðº Ð¾Ð³
Ġsto ck
ĠD etta
ĠUni versitÃł
cion ais
Ġjak im
p ens
ÑĭÐ² Ð°ÑİÑĤÑģÑı
ĠM ini
in ess
Ġpour rez
Ġkomp le
gen za
çĲĨ è§£
tig er
ĠÑģÐ°Ð¼ Ð¾Ðµ
z m
ĠGar cÃŃa
Ġb io
Ġpu issance
Ġt ent
ĠdÆ°á» Ľi
Ġefec to
Ġrestaur ant
ĠÐ¾Ð±ÑĭÑĩ Ð½Ð¾
fe kt
ste lle
Ġconf ort
Ġval ori
Ġai mer
Ġactu ellement
d ono
Ġtak im
Ġun ver
Ġjaki ÅĽ
Ġres pe
Ã¶ nen
ĠSch i
redni o
Ġdiff icul
è³ Ģ
ĠE tiquetas
ĠArt ÃŃculo
ri to
Ġsob Äħ
Ġdou ce
Ġquar tier
ãĤ¹ãĤ¿ ãĤ¤ãĥ«
Ġide as
ãĤ³ ãĥ¼ãĤ¹
Ġense Ã±
ĠÐ¡ÐµÑĢÐ³ ÐµÐ¹
Ġ4 00
ĠÑģ Ð¾Ð»Ð½
C om
Ġcono cimiento
Ġbas so
åŃ¦ çĶŁ
ĠGran de
Ð¸ÑĢÐ¾Ð² ÐºÐ¸
ĠÑĢÐ°ÑģÑģ Ð¼Ð¾ÑĤÑĢ
ĠÅļ lÄħ
Ġp owy
Ġw eni
ãģĤ ãģ£ãģ¦
Ġv eux
ĠD ur
æŃ ¦
ti Ã©
ĠÐ¾ÑĩÐµÑĢÐµÐ´ ÑĮ
ãĥĨ ãĥ¬ãĥĵ
Ġpl as
Ð»Ñı Ð½
ÐµÑĤ ÐºÐ¸
ĠG a
Ġus age
Ġv illes
Ã¼ f
ĠÐ¼ ÐµÑĩ
Ġka teg
ĠEr n
ĠÐĹ Ð°Ð¼
ĠBon us
mp er
tri ce
Ġotten ere
ĠÐºÐ² Ð°Ð»Ð¸ÑĦ
ĠÐ· ÑĥÐ±
ĠÑģÐ¸ÑĤÑĥ Ð°ÑĨÐ¸Ð¸
ĠD zi
ãģ®å ±
ili gen
Ġsouhaite z
ĠÐ´ÑĢ ÐµÐ²
ĠB ologna
Ġav ent
Ġpro va
â Ĩ
ĠåĪ Ĩ
Ġt áº¥t
ĠGru ppe
7 2
ĠS antÃ©
gi es
et Ã©
I m
Ġprogra mu
æ³ ī
åĪ Ĺ
Ð»Ð¸Ñĩ ÐµÑģÐº
ne as
Ġparf ait
ib ilitÃ©
f unk
ĠÃ¤ hn
Ġsal ari
ĠAu jourd
ĠDz iaÅĤ
Ġdob ry
Ġcom Ãºn
Ġsal ute
Ð¸ÑĤÐµÐ»ÑĮ ÑģÑĤÐ²Ð°
ãĥĭ ãĥ¡
ma ges
Ġorigin ale
ak ie
Ġmar ki
Ġpra cu
Ġmouve ment
Ġimport anti
ãĤĴ éĢļ
osp ital
Ġo jos
Ġb ac
ÑĢÐ°ÑĤ ÐµÐ³
ĠÐ¾Ð´ Ð½Ð¾Ð¼
ĠÐ± Ð¾ÑĢÑĮ
ĠÐ¢ Ð¸Ð¿
Ã©ro port
ĠÐ¾ Ð¿ÑĢÐµÐ´ÐµÐ»Ñı
Ġh id
ĠÐ³ ÐµÐ½ÐµÑĢ
Ġn iÄħ
ĠD ru
Ð»Ð¸ Ð¼
Ġcre cimiento
Ġc ic
Ġent scheiden
ĠszczegÃ³l nie
Ġç¶ļ ãģį
Ġãģ¨ æĢĿ
Ġ2019 å¹´
çī© ä»¶
ãĥ¢ ãĥ³
Ġpor t
ãģĻ ãģ¹ãģ¦
Ġm anger
Ãº a
ĠMÃ¤n ner
ĠLo ire
Ġfich ier
oule z
sch ung
ora Ã§Ã£o
Ġcollab orazione
ĠWar to
jer o
Ġpro tagon
Ġcer to
bie t
Ġth Æ°
Ġr ens
Ġam bito
Ġo ver
dzie ÅĦ
çķª åı·
ĠJu in
tiva tion
ct wo
ĠÅļ wia
Ġrespec t
Ð¼ Ð¾Ñģ
Ġmar ques
ĠI d
ĠNo Ã«l
Ġpersonn alis
ur Ã©
åĬĽ ãĤĴ
ĠidÃ© al
Ġmeille ures
ff i
Ġac cessi
Ġap Ã³s
Ġuzy ska
ĠV ors
ĠÐ¿ÑĢÐ¸Ð½ ÑıÑĤ
§ £
ce der
ĠÃ©conom ie
Ġåı Ĺ
Ġinterna zionale
ĠÐ¸ Ð½Ð¾ÑģÑĤÑĢÐ°Ð½
ĠR u
Ġåħ ĥ
Ġch ÃŃ
Ġet Ãł
Ġpod rÃ¡
Ġris ques
åĲ ¹
èª °
ĠB ro
Ġle ngua
ĠÐ²Ñģ Ð¿
Ġpermet tant
Ġod powiada
ĠK ont
Ġdy sk
ãĤ¤ ãĥĻãĥ³ãĥĪ
Ġch aussures
ĠÐķ ÑīÐµ
ÑĭÑĤ ÑĮ
Ġgru py
Ġlugar es
Ġver de
Ð» Ð¾ÑģÑĮ
Ã© l
Ġsc ritto
Ġãĥı ãĤ¤
Ġm inh
Ġb ian
li de
flÃ¤ che
¡ çĶ¨
Ñĩ Ð¸Ñģ
Ġdom anda
ĠPo zna
ÅĤ owa
ãģı ãģªãģĦ
è ´
çģ ½
Ġbe lla
Ġsi cura
Ġos p
ç´ł æĿĲ
iss age
ĠK od
Ġpowierzch ni
å®ī åħ¨
ÑĥÐ¼ ÑĥÐ»ÑıÑĤÐ¾ÑĢ
Ð½Ð¸Ðº Ð°Ð¼
Ġander s
ĠÐºÐ» Ð¸Ð½
Ð¸Ð¿ ÐµÐ´
ãĥĥãĥģ ãĥ³
ãģĭãĤī ãģ®
ĠÑĤÐ°Ðº Ð°Ñı
ĠÑĩÐµÐ»Ð¾Ð² ÐµÑĩ
ĠÐ¾ÑģÑĤ Ð°Ð½Ð¾Ð²
ãĥ¼ãĥĭ ãĥ³ãĤ°
Ġl unes
Ġpar c
Ġbi ur
Ġä»ĬåĽŀ ãģ¯
Ġãĥ© ãĤ¤
éĢ Ģ
Ġl anz
ĠÐ¼Ð°ÑĤÐµÑĢÐ¸Ð°Ð» Ñĭ
Ð¸ÑĢÑĥ Ñģ
si me
Ġzape wni
Ã¤ch lich
ĠK u
y J
Ġk as
ĠC Ã´
ma tiques
Ð¸Ð² Ð°ÑĤÑĮÑģÑı
a zioni
ter Ãł
ĠTer az
Ġprz ych
T C
ta ine
ĠÐ¿Ð¾Ð´ Ñĩ
ĠNie m
ãĥŁ ãĥ¥
Ġpas e
ãĤĴæ Ķ
Ġ100 0
ĠÐ¾Ð±Ð¾ÑĢÑĥÐ´ Ð¾Ð²Ð°Ð½Ð¸Ñı
v anti
in ner
ĠÐº Ð¸ÑģÐ»
Ġen ci
Ð¸Ð±Ð»Ð¸ Ð¾ÑĤ
ĠDe us
s age
ĠS ou
h am
Ñı ÑİÑĤ
Ñĭ Ð±
Ð¸ÑĩÐµÑģÐº Ð¾Ð¼
ĠPre cio
\/ \/
port es
pr odu
Ġå° Ĥ
Ġv ali
ĠÐ¿ÑĢÐµ Ð¸Ð¼ÑĥÑīÐµÑģÑĤÐ²
ĠÑĢ ÐµÐ¿
ĠC iÄĻ
ĠwÅĤos Ã³w
Ġum iej
b Ã¼
ĠHa llo
éº Ĺ
æ¸ ¡
Ġb Ãł
Ġefec tos
ĠSal z
Ġce ll
ĠÐ¿ÑĢÐ¾Ð¸Ð· Ð²ÐµÐ´
Ġka um
Ġd ung
Ġhina us
ĠåĨ ĻçľŁ
Ġper der
Ġd Ã³l
ĠÐ²ÑĭÐ± Ð¸ÑĢ
Ġop ra
è© ³ç´°
ĠÐ²Ð°Ð¶ Ð½Ð¾
ĠOdpowie dz
Ġdos tar
ĠÅĤa zien
Ġfir ma
æ´ ĭ
Ġc Ã¢y
ĠK urz
ujÄħce go
ĠÐ° Ñį
Ġte xto
ĠRÃ© pub
Ġsci enti
ĠH aut
zi p
Ġno cle
ab lo
I P
tori os
ief el
ĠÐºÐ¾Ð½ ÑĨÐµ
Ġno va
Ġpad res
ti lla
Ġespecial mente
g al
ber eit
bie g
ĠÐľ Ð½Ðµ
Ñİ Ð¼
ĠÑħÐ°ÑĢÐ°ÐºÑĤÐµÑĢÐ¸ÑģÑĤ Ð¸ÐºÐ¸
ĠÑģÑĤÐ°Ð½ ÐµÑĤ
Ġris er
ĠLa v
Ġg am
ĠZ as
Ġcon ven
ĠG et
tto m
æŃ ´
Ġpa pier
Ġma ÅĤo
Ġda je
ĠCom un
Ġriguar da
Ġgen ere
Ã¢ ng
Ġah or
wer b
ch ia
Å¼ d
Ġc Ã¢u
Ġth ere
g ada
ing en
ĠÐ¿ÑĢÐ¾Ð¸Ð· Ð¾ÑĪ
Ġvo glia
Ġcittad ini
Ġä»Ĭ å¹´
Ġim mÃ©dia
ue bles
Ġcli ente
ĠLÃŃ nea
gu en
Ġimp ri
ãģ®æ Į
ĠK r
u jÄħcych
ãĤ« ãĥĲãĥ¼
ä¼ ¸
ĠKom p
mobil ien
er Ãł
cier on
Ġer mÃ¶glich
Ġcr ise
ĠÑģÐ» ÑĥÑĪ
Ġæł ªå¼ıä¼ļç¤¾
ãģı ãĤĮ
Ġso lic
ĠÐ²Ñģ Ñİ
R L
å¯ Ĩ
Ġb ons
Ġsp a
ĠrÃ© alitÃ©
ĠJes Ãºs
ĠÐ°ÑĢ ÐµÐ½Ð´
Ġhacer lo
ä¸Ń ãģ«
Ġt iáº¿n
ĠK olle
uch te
ĠÑİ ÑĢÐ¸Ð´
Ġnum Ã©rique
Ã¤ um
Ġdem ander
H V
ĠÅº rÃ³d
Ġcoraz Ã³n
Ġa st
ĠÑĥ Ð½Ð¸Ðº
Ġvorh anden
h end
se ments
ĠSch w
Ġremp la
ĠÐĵ Ð´Ðµ
ÑĥÑĪ ÐºÐ°
ĠÐļÑĢ ÑĭÐ¼
Ð½Ð¸Ðº Ñĥ
Ġesf uer
Ġbe ge
ĠÑıÐ·Ñĭ Ðº
col are
Ġob li
Ġges te
Ġpoja wi
Ġstand ard
Ġg á»įi
Ġcom en
ĠTra ining
ĠÐ³ Ð¸Ð´
ĠÐºÑĥÐ»ÑĮÑĤ ÑĥÑĢ
am m
Ġf ica
ĠL eute
ti da
Ġprin cipali
Ġdis co
Ġobjet s
ãģ®æ ´
Ġd olor
Ġreali zacji
Ġcent rum
ãĤĴ åıĸãĤĬ
ĠFre ita
ĠA lles
gel d
ĠPerson al
Ġf antas
ĠK Ã¶l
Ġcal cul
ĠE tats
Ġsoi rÃ©e
Ġgr ad
Ġstar k
Ñį Ðº
ĠT oute
mFt ZSI6
Ġdu Å¼e
Ġami go
wo hl
ĠÐ¿ÑĢÐ¾ÑĪ Ð»
ãģł ãģĮ
Ġv anta
æĦĽ ãģĦ
ãģĺ ãģ¦
ĠA D
b ado
Ġmod elos
ĠDescar gar
om in
z ola
uis se
ĠÐ¿Ð¾Ð² ÑĤÐ¾ÑĢ
owa Å¼
ra nge
Ġãĥį ãĥĥãĥĪ
and es
ĠâĪ Ĵ
ï½Ĺï½Ĺ ï½Ĺï½Ĺ
ãĥª ãĥ³
ĠÐ¿Ð¾Ð»ÑĥÑĩ ÐµÐ½Ð¸Ñı
Ġpor tes
Ġro man
ĠdÃ© fen
Ġme m
Ġannon ces
Ġa jus
Ġv aria
ãģ¨ãģĹãģ¦ ãĤĤ
Ġmas tur
ĠMas ajes
Ġinte gr
Ġaff ir
ĠÐ½Ð¸ Ð¶Ðµ
Ġra czej
Ġcaracter ÃŃsticas
z ada
el es
ãģ® ãĥĳ
ĠÐ¼Ð¾Ð³ Ñĥ
ĠÑĢ Ð¾Ð¼
Ġthe m
Ñĥ ÑĢÑĥ
Ġloca le
Ġe ta
ĠCie bie
st w
ł çĶ»
Ġs et
Ġkateg orii
Ġdemas iado
Ġng u
Ġæ ©Ł
Ġne w
èı ¯
ÄĻ dzi
Ġb Ãºsqueda
èµ ¤
ç¥Ŀ ãģĦ
ãĥ¯ ãĥ¼
ãĤĴ çŁ¥
Ġtar get
osz enie
ĠD ere
Ġraz Ã³n
nho f
Ġs r
OW Y
ĠN as
niej szy
ĠP resse
ĠCont rol
ĠS ub
ÑĢ ÐµÐ¿
ĠÐ¢ Ð¾Ð»ÑĮÐºÐ¾
ĠæĪ Ĳ
titu d
ãĥĩãĤ£ ãĤ¢
eri es
5 3
ĠÃī tat
ÐµÐº Ð¸
ĠÐ»ÑİÐ± Ð¾Ð²
ĠÐ·Ð°Ð¼ ÐµÑĩ
ĠÑħ Ð¸Ð¼
Z hb
Ġzarz Äħdz
ient ÃŃ
ung e
ĠÐ´Ð°Ð½ Ð½Ð¾Ð¹
ĠÑģÐ»ÑĥÑĩ Ð°Ñı
k niÄĻ
ĠÐ¿ÐµÑģ Ð½Ð¸
ĠÑĢÑĭÐ½ ÐºÐµ
ĠÐºÐ°ÑĢÑĤ Ñĭ
Ġs áº¯c
Ġ9 11
we isen
Ġ8 4
Ġ7 8
Ã¢ tre
Ġcour se
Ð°Ð´ Ñĭ
ĠMar co
Ġcons idera
ãģĹ ãģªãģĮãĤī
i ro
ÑĨ Ñĥ
an na
ĠD ob
ĠÅ» y
Ġnaj waÅ¼
Ġcommun i
Ġdotycz Äħce
Ġg anh
âĢĭâĢĭ âĢĭâĢĭ
ĳ å¼µ
è¼ ¸
ĠTi pps
ĠamÃ©li orer
ĠÑĤ Ð¾ÑĩÐ½Ð¾
id en
ĠÐĴ ÑĤÐ¾ÑĢ
Ġposta ci
Ġx Ã¡c
Ġcl asi
Ġay er
ĠServi cio
ĠâĢ º
Ġgr oupes
Ġin kl
Ġbe ispiel
Ġd w
ĠS ant
Ġestudi os
les en
ĠSÃ¼ d
ĠÐĳ ÑĥÐ´
anz o
Ġreg ol
ãģĮ ãģĭ
Ġna ve
sa ires
Ġutil ise
Ġèª ¿
ĠRen contre
ĠP atri
Ġphysi que
ĠÐ¿ÑĢÐµÐ´Ð¿ÑĢ Ð¸Ð½Ð¸Ð¼
ĠÐ£ÐºÑĢÐ° Ð¸Ð½Ðµ
< /
ĠÐ¿ Ð°ÑĤ
n ione
æĻ ´
ĠMit t
ĠÐ¼ ÑıÐ³
å¾Į ãģ®
Ġconc ur
ĠÐº ÑĥÐ´Ð°
Ð¸ÑĢÑĥ ÐµÐ¼
sch rank
Ġg lau
Ð¸Ð² Ð°ÑİÑĤÑģÑı
den do
n Ã©es
ĠÐºÐ¾ÑĤÐ¾ÑĢ ÑĭÐ¼
Ð¾Ñģ Ð½
ĠB ri
ĠéĢļ è²©
å¥½ ãģįãģª
ãĤ· ãĤ§
Ġre jo
W y
Ġc iaÅĤa
ãĥĪ ãĥ³
è§ ¦
ĠÑĪÐº Ð¾Ð»ÑĮ
Ġfon do
ĠÐ¾ÑĤ ÑĤ
ei tos
ĠBer g
ĠÐ²Ð¾ÑģÐ¿ Ð¸ÑĤ
ĠÑĥÑĩ Ð¸ÑĤ
Ġto tale
cz onych
Ġé ļ
Ġnh u
Ġo eu
ĠP rÃ©s
Ġm q
Ġper mette
ĠMeu ble
ĠE dition
p les
Ġf ase
ĠW etter
ĠÑĦ ÐµÐ´ÐµÑĢ
ãģĵ ãĤĵãģª
ãĥĨ ãĥł
ãĤ½ ãĥ³
al er
Ġalb um
cul ture
Ġg áº·p
Ġd ra
Ġris pos
ĠÐ¼ÑĥÐ·Ñĭ Ðº
ãģĦ ãģ¤
º «
Ġcon ec
ĠÑĥÑģ Ð¸Ð»
ga ta
Ġ25 0
ÑģÑĤ ÑĢÐ°
± ³
ĠCh ico
cul ares
Ġre li
Ðº Ð¾ÑģÑĤÐ¸
ĠÐ¼Ð°Ð» ÑĭÑĪ
Ñĩ Ð¸ÐºÐ¸
" >
ĠÐ¿Ð¾Ð¼ Ð¾Ð¶ÐµÑĤ
ĠÑģ ÑĥÑħ
ĠÐ²Ñĭ ÑĢÐ°Ð¶
ĠÐ¿ÑĢÐµÐ´ Ð¼ÐµÑĤ
Ġsap ere
Ġling ua
ĠÐ·Ð² Ð¾Ð½
Ġâ ľ
Ġpla ge
Ġessent iel
ĠK la
á»Ń i
ĠLi ber
ĠåĢ ĭäºº
ĠS cra
n Ã©s
ÐµÑĢ Ð°Ð¼
Ġsex uales
Ġpartici par
ĠSonn tag
ĠÑĤÐ¾Ð²Ð°ÑĢ Ñĭ
ĠÑĢ Ð¾Ð¶Ð´ÐµÐ½Ð¸Ñı
Ġroul ant
Ġchau di
Ġav an
ĠAk tiv
ons es
Ð¸ÑĤÐµÐ»Ñı Ð¼
å¤§ ãģįãģª
ĠServi cios
Ġtemp Ã©ra
Ð¾ÑĢ Ð°ÑĤÐ¸Ð²
ĠT ym
ĠMan uel
ĠCom ent
Ġmo vil
Ġe valu
ĠÑģÐµÐ¼ ÐµÐ¹
ĠÅĽ lub
Ġ á»
vi ng
cep ciÃ³n
Ġjou eurs
Ġw ÄĻ
ues tos
Ġ9 2
Ãª tre
Ġnieruch omoÅĽci
ä¿® çĲĨ
ãģ¨ åĲĮãģĺ
Ġparti es
ĠmÃ³ gÅĤ
ane m
Ġï »¿
ĠÐ´ÐµÐ» Ðµ
ĠS antiago
ÐµÐº ÑĥÑī
ĠDire cciÃ³n
Ġs omos
Ġpu di
era pie
ĠUnter stÃ¼tz
Ġme mbre
ĠÐ¿ÑĢÐ°Ð² Ð¸Ð»Ð¾
Ġac co
ĠU ma
Ġt esti
Ġcara ctÃ©ris
Ġãĥ¦ ãĥĭ
Ġ ä¾ĭ
ĠNam en
ist ant
able ment
Ġrec ensione
ĠAs socia
Ġes igen
ãģ®è »
an ki
Ġcompar tir
r t
Ġrius ci
wa ÅĤy
Ġ> \
Ġcol ores
ĠRes ponder
Ġme z
Ġï¿½ï¿½ ï¿½ï¿½ï¿½ï¿½
Â ¯
Ġch á»ĳng
fas st
ĠÑĥÐ¼ ÐµÐ½ÑĮÑĪ
Ġc Ã¡mara
Ġmis ura
ĠWysÅĤ any
ÅĦ skiej
ven tos
ĠÑģÐ² ÐµÐ¶
ĠÐ¼ Ð°Ð»Ð¾
ï¼ ¿
ä¾Ŀ éł¼
Ġn our
ĠÐ±Ð»Ð¸ Ð¶
te lli
ï¼ ©
ãĤĴ åĪ©çĶ¨
Ð¸ÑĩÐµÑģÐº Ð¸Ð¼Ð¸
Ð°Ð½ Ð½Ð°Ñı
ĠÐ½ ÐµÐ¶
ggia re
ÑĤÐ¸ ÑĦ
ĠÐĺÐ½ ÑĦÐ¾ÑĢÐ¼
ĠÐ¡ ÐŁ
ĠÑĪ Ð°Ð³
re mos
Ġmehr ere
ÐµÑģÑģÑĥ Ð°ÑĢÑĭ
Ð¾Ð±Ñĭ Ñĩ
Ð¼Ð¾ÑĤÑĢ Ñı
kow ania
ĠÄĳ Ãºng
ĠÃ© n
Ġpein ture
Ġhist Ã³
ĠcompÃ©ten ces
Ġnu lla
ta cji
å¬ ī
åı Ĭãģ³
ãĤĴæ ķ
ĠBet t
Ġris or
Ġri le
Ġbe en
Ġcara ct
ac co
Ġãĥ ½
åĩºæĿ¥ ãĤĭ
Ġ( .
Ġå ĸ
Ġh áº¡n
ab b
ĠC odice
Ġuti le
ĠReg ione
Ġrisul tato
ãģĦãģ¾ãģĻ ãģĮ
Ġedi fi
h ilfe
Ġwy Å¼
ĠKÃ¶ ni
ĠC E
ti Ã¨res
ĠÐ½ Ð°ÑĤÑĥÑĢ
ĠÐ±Ð°Ð½ ÐºÐ¾Ð²
ĠÐĳ ÐµÑĢ
Ġwy ro
Ġcomun ic
Ġrec ru
Ġsprz ÄĻ
Ġpie ds
ĠÑĦÐ¾ÑĢÐ¼ Ñĭ
Ġpo bli
Ġconn u
ĠSp raw
ãģ®ç Ĥ
ĠÐ¿ÑĢÐµÐ´Ð»Ð°Ð³ Ð°ÐµÑĤ
Ġcol ori
u tare
Ġdom in
Ġed uka
Ġãĥĭ ãĥ¥
Ġu a
Ð°Ðº ÐµÑĤ
ĠÐĶ ÑĢÑĥÐ³
ĠÅĽrod kÃ³w
Ġjed nÄħ
Ġd an
ĠT ien
ma ciÃ³n
Ġespec ÃŃ
Ã¤uf er
ĠKh i
Ġvis uali
Ġas se
ĠÐ¿ÐµÑĢÐµÐ² Ð¾Ð·
å· ±
Ð¾Ð¶Ð´ ÐµÐ½Ð¸Ðµ
Ġbad ania
li ge
ĠPhili ppe
Ġur gence
w oÅĽci
ä¸į åĭķçĶ£
ãģ®è ¿
Ġan Ã¡lisis
Ġconsom mation
Ð¾Ñĩ Ð½Ð°Ñı
Ġing resso
Ġdu as
Ġpartici paciÃ³n
Ġb onnes
Ð¢ Ðĺ
Ð¢ Ðķ
ĠÐľ Ð°Ð»
ĠÐ½ÐµÐ´ Ð¾ÑĢ
et ri
ĠR und
Ã¶ hn
ĠUni versitÃ©
ĠNa v
ĠHa cer
Ġin ici
Ġrozwo ju
æī ±
ÑĢ Ð¾Ð´
ÐµÐ» Ð¸ÑĤÑĮÑģÑı
ĠÑĦÐ¾ÑĢÐ¼ Ðµ
Ġz bior
auss ure
Ġmini m
æķ Ĺ
teri ori
Ġhau teur
ĠS T
ĠJ ardin
ue ur
qu ette
Ġ200 3
Ġinst ant
Ð³ Ð¾ÑĢ
Ġprodu kty
ÑĥÑİÑī Ð¸Ñħ
Ġp ani
Ġkon kre
ãĥĭ ãĥ¥ãĥ¼
Ġä»Ĭ æĹ¥
Ġcapa citÃł
Ġczas em
ĠS au
id ores
Ġgag ner
wers y
vier on
Ð¸Ð² Ð°
ĠÐ½ Ð°Ð¶
ÐµÐ² Ð¸Ð´
èĩª åĭķ
Ġher vor
ro ffen
Ġcro issance
r ine
ec t
Ġmil h
éĩ Į
æ¸ ¬
Ġti pos
ĠD onne
Ġle i
Ġobietti vo
ĠÐº Ð°Ð´
ĠÐ´Ð°Ð½ Ð½ÑĭÐ¹
cj ami
tig es
ri eren
A J
Ġprogra mas
ĠAv ant
ĠPa olo
Ġu043 e
Ð½ ÑĮ
Ġpos ti
si ve
Ġfor mas
ite t
Ġsol uzione
ä¸ ¸
ãģł ãģª
ĠéĿ Ĵ
åħ¬ éĸĭ
ĠÃ©tra ng
Ġso le
stÄħ pi
Ġï¼ Ŀ
éĻ ½
Ġ áº¥y
Ġw ich
Ð· Ð´
Ġscor so
O i
ĠG miny
Ġwyso koÅĽci
Ġop tion
Ġp ÅĤat
Ġinter pre
Ġcont rar
ĠSex y
si cos
zy w
Ġpens ar
ÐµÐº Ð¾
Ġver gleich
Ġcommen ce
Ġmad era
Ġapo y
ĠS eine
Ġin t
Ġcar tes
Ġhá» ¯u
ĠÐĲÑĢ ÑĤÐ¸ÐºÑĥÐ»
ÑĭÐ´ ÑĥÑī
Ġspos ob
ãĤīãĤĮ ãģªãģĦ
it ter
ãģĭãĤĤãģĹãĤĮ ãģ¾ãģĽãĤĵ
ĠDetta gli
ti mento
ĠInforma ciÃ³n
Ġ, ,
je ta
ĠFar ben
b us
Ġs owohl
Ġ) ))
ĠÑģÑĤ Ð°Ð»Ð°
ologi es
ini que
Ġoff rir
Ġf era
Ġ Ã¡p
ar te
Ġmateria les
tal y
Ġconos cere
Ġ] [
äº Ķ
Ġå® Į
CI A
Ġpie dra
ĠRecher che
Ġpour tant
Ġex Ã©cu
Ġsou tien
ĠÐ¿Ð¾Ð´ Ð²
ĠÐ²Ð¾Ñģ Ð¿ÑĢ
Ġå Ĥ
Ġos ser
ãĤı ãĤĮãģŁ
Ġposi ciÃ³n
ĠÑģÐ¸Ð» Ñĥ
Ġsk ÅĤada
Ġf aud
ĠÐ¶ Ð¸Ð´
Ġbo ttom
ç į
Ġmis mos
ĠPe ti
L a
Ġs orte
ĠÐ´ Ð»Ð¸Ð½
Ġl á»ĩ
Ã¤n dern
Ġpass ato
Ġ2015 å¹´
è Ļ
ĠÑģÐ»ÑĥÐ¶ Ð±Ñĭ
Ġo ther
Ð»Ñı ÑİÑī
ĠR ze
ãģ®å¯ ¾
ĠelectrÃ³ nico
Ġpar cours
ĠCh o
g y
77 27
Ð°Ð± Ð¸Ð»
Ġç·¨ éĽĨ
ĩ Ĵ
éĢ£ çµ¡
ĠÐ¿ÐµÑĢ ÐµÑĩ
ãģĮ ãģ¤
Ð¼ Ð¼
Ġconsi gli
ĠÐ¡ ÐµÐ¼
Ġgo verno
Ġ":" .
æ¹ ¯
ãĥ³ãĥ ¬
Ġse is
Ġres ter
ĠÑģÑĤÐ°Ð½Ð¾Ð² Ð¸ÑĤÑģÑı
ãĤĴ çĽ®
Ãł m
Ġs istemas
ĠPR O
cul ta
Ġco Ã±o
ĠD urante
ĥ è²¸
ãĥĵ ãĥ¼
Ġl ut
t us
ãĤ« ãĥ©
ãĤ¤ ãĥ¼ãĥ«
Ġv n
Ġtr áº£
ĠF our
c ou
ĠSal on
ĠAppar tement
Ġh ar
ĠClas si
en ant
Ð¾Ñĩ ÐµÐº
ĠÐ¶ÐµÐ½Ñī Ð¸Ð½
Ð¸Ñĩ Ð½ÑĭÐ¹
che ment
Ġou til
Ġ7 30
ãĤ¤ ãĥ³ãĤ¿
ÐµÑĢÐ¸ Ð°Ð»
ĠÐ¿ÑĢÐ°Ð² Ð¸Ð»
h one
Ġsta tion
ĠÐ¿ÐµÑĢ ÐµÐ½
ĠÐ·Ð°Ðº ÑĢÑĭÑĤ
we k
Ð»Ð¸ ÑģÑĮ
Ġm áº¥t
ãģĮ ãģ§ãģįãĤĭ
Ġcon tar
ÅĤu Å¼
ĠÃ© li
Ð¸ÑĤÐµÐ»ÑĮ Ð½Ð¾Ðµ
ĠæĢ Ŀ
ãĥĲ ãĤ¹
Ġv ien
Ġpres sion
Ġk Ã¼
Ġdiv enta
Ġprodu kt
ĠDeta ils
ber icht
ĠZ w
ĠÑģÐ¾Ð²ÐµÑĢÑĪ ÐµÐ½Ð½Ð¾
Ġ05 7727
ĠÐ½ Ñĥ
ĠÐºÐ°ÑĤÐµÐ³ Ð¾ÑĢÐ¸Ð¸
Ġpe ur
Ġm iaÅĤa
¯ ãģĦ
lica ciones
ĠÑĢÐ°Ð·Ð²Ð¸ÑĤ Ð¸Ðµ
ĠÐ¿ÑĢÐµÐ´ Ð¿
Ġthu á»ĳc
Ġenf rent
Ġmagas in
ĠÐĲ Ð±
ĠÐ¿Ð¾ ÐµÐ·Ð´
Ġparte cipa
Ġt ÃŃn
Ġt els
Ġlib ri
rÃ³ b
Ġåį Ĺ
l aden
Ġm ale
was ser
Ġpa ti
d amento
an lage
Ġzw eiten
az io
Ġperf etta
Ġin fer
ka Å¼
Ġc Ã¡o
X B
ĠurzÄħdz enia
Ġdi pl
Ġpobli Å¼u
Ġre gel
Ġu k
Ġãĥ ¨
Ġprze wod
ÑĦ ÑĤ
Ġaff aire
c ola
ĠÑģÑĤÐ¾ÑĢ Ð¾Ð½
ãĥ³ãĤ ±
Ġhand elt
lo gue
Ġsur face
Ġpo kaz
ãģ«ãģª ãģ£ãģ¦ãģĦãĤĭ
ĠEscort s
r l
mi co
Ġå ¡
ĠÐ¿ÑĢÐ¸Ñģ ÑĥÑĤÑģÑĤÐ²
ä»£ è¡¨
ãģ¾ãģĹãģŁ ãģĮ
i fe
Ġm undial
ĠP eter
ĠÐ¢ Ð¾
Ð¦ Ðĺ
ĠÑģÐ°Ð¼ ÑĭÐ¼
ĠKle in
ĠA ller
ĠksiÄħÅ¼ ki
ĠU lti
Ġinter vento
ĠN astÄĻp
ĠMe ille
ĠAle x
ĠÐ´ÐµÐ½ ÐµÐ¶
04 23
ĠÐł ÐµÐº
Ġne llo
Ġå¹³ æĪĲ
ãĤ· ãĥ¼
ĠÐ¿ÑĢÐ¾ÑģÑĤ ÑĢÐ°Ð½
Ġmagni fique
Ġconta cter
Ġver re
Ġpuis que
ch ani
b ÄĻd
ĠÄĩ wi
Ġpublic s
ĠÐ±ÑĢ Ð¾Ð½
itel ist
Ġkobie t
ãģ§ãģĹãģŁ ãģĮ
ling s
Ġp ilo
Ġg Ã³
Ġbudow l
Ġde ja
ĠWe ise
ĠP K
Ġs ter
Ġåį ĥ
ÃŃ do
ĠçŁ ¥
Ġbe lles
Ġa jouter
èĩª èº«
áº ¢
Ġdist ancia
ort s
Ñĥ Ñı
Ġjedn ost
ç¤º æĿ¿
ãģ£ãģ¦ ãģįãģŁ
Ġm á»Ł
ĠConta ctez
Ġpl at
Ġpermet tent
Ġindiri zzo
æ· ±
ĠDeut sche
ĠMa x
ta dt
ĠB ud
U C
Ġser Ã¡n
ĠdÃ© g
ĠÑĤÐµÐ± Ðµ
ĠÑģÐ»ÑĥÑĩ Ð°Ð¹
Ġmas sa
Ġa zione
Ġ(" .
ka Äĩ
ãĤĤ ãĤĬ
Ġç ¢º
Ġh d
Ġcam paÃ±a
do b
ĠåŁ º
ĠAd ul
Ġrespons abilidad
ĠS istema
Ġimport ancia
Ġ3 A
Ġv itesse
Ġz y
ĠAnn un
Ġapp ena
ĠÐ°ÑĢ Ð¼
Ġåı ¤
pr ow
Ġcres cita
ĠNuo vo
Ġver ifica
Ġku piÄĩ
iÄĻ cie
ãģ« åĲĳ
ĠÄĳ áº¥u
ĠÑģÐ¾Ð·Ð´ Ð°Ð½Ð¸Ñı
Ġreg ion
nh eim
ĠFer ien
Ġer forder
ĠÐ·Ð°Ð´ ÐµÑĢÐ¶
gue z
Ġquier es
Ġcompro mis
Ġde mo
mina ciÃ³n
Ġ8 6
m ant
Ġcomple ta
ci de
Ġre giÃ³n
Ġsim il
ĠÐ´ÐµÑĤ Ð¸
Ġaff ron
ĠF on
ĠDa te
nage ment
Ġmal grÃ©
ĠMon te
Ġp kt
ĠO czy
ÑĭÐ² Ð°Ñı
ina zione
ĠM az
Ġza po
ĠB io
Ġho he
Ġgu ide
~ ~
thÃ¨ que
ãĥ³ãĥ ļ
ust and
5 8
Ġunique ment
ĠÐ¿Ð¾Ñģ Ð¼Ð¾ÑĤÑĢÐµÑĤÑĮ
Ġszko ÅĤy
Ġé Ĭ
Ġseg re
ĠD A
um i
Ġdist ance
Ġprodu tos
Ġconcer ne
ĠÐ» ÐµÑĩÐµÐ½Ð¸Ðµ
ĠÐ·Ð°Ð¿Ð¸Ñģ Ð¸
Ġquoti di
Ġvez es
Ġç ®
Ġæĺ İ
ĠAd ministra
at as
Ðļ Ðŀ
Ð¾ÑĢ Ð¸
Ġhá» Ĺ
ç ¦
r eno
ĠCom er
ĠZ ubehÃ¶r
ĠW ald
Ġdar an
ĠKo lej
ĠT Ã´i
ow ska
Ġwa ka
âĢ Ķ
çĿ £
ĠMin isterio
ĠChr is
Ġeff ets
Ġre gu
Ġsce gliere
ãĤ¢ ãĥ¼
Ðł Ðķ
Ġ79 0423
ÑĥÑģ Ð¾Ð²
ĠãĢ ĭ
éĸ¢ éĢ£
Ġngh i
Ġni Ã±o
Ġwh at
ĠB log
n der
ologi ques
Ġpag amento
Ġcap ire
Ġk g
çĽ £
ÑĥÐ¼ Ð°
Ð¾Ñĩ Ð½Ð¾Ð³Ð¾
Ġza czyna
ãģł ãģ¨æĢĿãģĦãģ¾ãģĻ
ãĥĥ ãĥĦ
m ia
Ġn ord
é£ ¯
ãĥĲ ãĤ¤ãĥĪ
ãģĭ ãģĦ
Ġcali entes
ĠÑģÐ² Ð¸Ð´ÐµÑĤ
id or
Ġwy po
ĠLes bianas
ĠA socia
Ð» Ð°ÑĪ
ĠÐ¿Ð¾Ñģ Ð²
t ran
ĠR olle
ĠÐ°Ð± ÑģÐ¾Ð»ÑİÑĤ
4 8
Ġjak Äħ
k ungen
¦ Ĥ
Ġty p
Ð°Ð² Ð½Ð¾
Ġ `
èº į
Ġtrabaj adores
ĠV á»Ľi
Ġt ab
ĠÐ¿Ð¾ ÑıÐ²Ð»Ñı
ĠÑģÐ°Ð¼ Ð¾Ð³Ð¾
Ġprodu kcji
Ġw ould
ci to
ãĥĥ ãĤµ
Ġan sehen
ĠÐ¸Ð¼ ÐµÑĤÑĮ
Ġrisp osta
s ung
Ġges tal
k unden
Ġgratu ita
ha ter
Ġprzest rz
ĠV endita
Ġnos tre
Ġgegen Ã¼ber
Ġdam skie
ÅĤ on
ãģ®æ Ŀ
Æ°Æ¡ i
Ġs ani
Ġconna Ã®tre
Ġpracow nikÃ³w
Ġa gg
ĠÐ¼ Ð°Ð»ÑĮ
Ġmo im
Ġpo je
ĠAm Ã©rica
èª Į
æĬ ĺ
te c
ungs ver
Ġfa ccia
Ġkonn ten
ĠÑģÐµÑĢ Ð¸Ñı
ĠÐĺ Ð³ÑĢ
ÑģÑĤÐ²ÐµÐ½ Ð½ÑĭÐ¹
Ġobec nie
vis ione
ĠS ÃŃ
Ã©r os
Ġc Æ°
ĠÐ¾ÑĤÐ² ÐµÑĩ
Ġt are
Ġarbeit en
ĠÑģÐ¼ ÐµÑĢ
ter iore
cz er
ten tion
Ġcl Ã¡
Ġho gar
Ġma Ã®
Ġstu di
å§Ķ åĵ¡
ĠS obre
camb io
Ã© tique
Ġin dependi
ÑģÑĤÐ²ÐµÐ½ Ð½ÑĭÑħ
Ð²ÐµÑĢ Ð³
ĠLe ggi
Ġmaggio re
J v
Ġb owiem
ãĤ¤ ãĥ¡ãĥ¼ãĤ¸
Ġprote cciÃ³n
ĠDz iÄĻ
Ġpierw szej
ĠU RL
ãĤ¦ ãĤ©
Ġproje to
æĺł çĶ»
Ġä»Ĭ æĹ¥ãģ¯
Ġsh are
è¦ĭ ç©į
Ġt Æ°Æ¡ng
Ġof ic
AR D
Ġexp lique
Ġdire cteur
ĠÑģÐ¸Ð¼ Ð¿
Ġqu alidade
ĠWarsza wie
ĠM aj
Ġn owego
å¼· ãģĦ
ãĥī ãĤ¢
alis te
Ø §
ma gne
ar ki
ãģł ãģĹ
äºº ãģ«
ĠStu di
ĠçĶ »
ho f
ĠÐ°ÑĢ ÑĤ
9 3
Ġb ran
Ġpue dan
tt gar
ĠÃĸ ff
ÐµÐ· Ð¶
Ġdom enica
wy ciÄĻ
Ġåľ ¨
Ġservi Ã§os
Ġpres u
ĠÐ³ Ðµ
èĬ ¸
ĠSch Ã¼ler
ĠGr is
o x
EN TO
Ġmas simo
Ġbre ve
Ġind ustrie
Ġsvilu pp
Ġcomer cial
te chnik
Ġvor her
unta miento
ba ciÃ³n
Ġz ÅĤoÅ¼
ç· ´
Ġne ed
âĶ Ģ
ãĥī ãĥ«
Ġcom ida
Ð½Ð¾ Ñĩ
ma ta
Ġfais ant
ĠR at
E n
Ġquoti dien
ĠÐ¼ ÑıÑģ
Ð°ÑģÑģ Ð°Ð¶
ĠÄĳ áº§y
ot he
ĠW ill
ĠPres ario
ĠK aufen
pie le
min ister
ĠT R
Ġexper t
ĠeuropÃ© enne
Ġodpowie dzi
end ido
iÃªn cia
ĠmÃ© to
ĠMar tin
ne y
ãģĹãģ¦ãĤĤ ãĤī
å¯Ħ ãģĽ
å Ķ
ĠÑįÐºÑģÐ¿Ð»Ñĥ Ð°ÑĤ
ĠÐ´Ð¾ÑģÑĤ Ð¸Ð³
d ÅĤ
ĠrÃ¨ gles
Ġinteres se
ĠM Ã¡
Ġp one
Ġc ere
ĠIn oltre
ĠK ostenlos
l ad
ĠÑĥÑģÑĤ Ð°Ð½Ð°Ð²Ð»Ð¸Ð²
Ġcon ception
ĠÑģÐ¼ Ð°ÑĢÑĤÑĦ
ãģĦ ãģ¾ãģĽãĤĵ
ĠMich ael
ĠInter nation
ĠÑģÐ¿ Ð°Ñģ
M O
Ġstu denti
Ġc Ãłng
Ã¼s s
T 00
ĠMar seille
Ġ6 2
Ã©r ant
Ġp ÅĤa
Ã³ pez
ex ual
Ġal terna
tis chen
ĠH ommes
ĠdÃ© jeuner
ĠÐĿÐ°Ð¿ ÑĢÐ¸Ð¼ÐµÑĢ
ng a
ĠÐ¿ÑĢÐ¾Ð³ÑĢÐ°Ð¼ Ð¼Ð°
ĠÑĢÑĥ ÐºÐ¸
al nego
ĠA o
ĠT oul
Ġpropos er
ãģ®ç ¨
ĠFunk tion
ĠStar tseite
ĠH Ã¼
Ġpol y
ĠdÃ© pos
Ġch icos
Ġg uerra
Ġtak iej
Ġdy n
ĠÐŀÑĤÐ·ÑĭÐ² Ñĭ
ĠÐĶ Ð¾
ĠAch at
Ġ6 3
Ġcontin ue
d am
Ì ĥ
Ã© p
ĠÐĺÐ½ Ð´
Ġsm ak
Ġza pr
ĠBÃ¼ cher
Ġobra z
Ġé ¡
f est
et en
Ġm Ã¨tres
ĠãĤ¢ ãĥ¡ãĥªãĤ«
Ġk lub
ĠA na
Ġlle ga
ver y
teil en
ÐłÑķ Ðł
ĠÐł Ðħ
Ð¾Ð²Ð°Ð½ Ð¸Ñİ
åħĪ çĶŁ
ä¾¡ åĢ¤
chi vo
ul er
Ġci ento
Ġjed es
st Ã¤r
Ġk wes
Ġsam a
ĠÐºÐ°ÑĢÑĤ Ñĥ
ĠÐ·Ð½Ð° Ñİ
ĠÐ°Ð³ ÐµÐ½ÑĤ
ul as
la in
Ġpro ches
Ġres taura
ĠVer tra
Ã¤hri ge
ãģ®æ ĺ
Ġb ru
ĠL ond
ãģ® æĸ°
ĠÐĵ Ðŀ
Ð¾Ð³Ð» Ð°ÑĪ
Ġvoyage urs
ĠKra kÃ³w
A W
Ġro ÅĽl
ĠãĤ¹ãĥŀ ãĥĽ
c ador
ĠV ir
éģ ħ
åĩº ãģĻ
r adas
ĠÐ¾Ð±Ð¾ÑĢÑĥÐ´ Ð¾Ð²Ð°Ð½Ð¸Ðµ
om as
ĠÐºÐ¾ÑĢ Ð·
ĠÐ²Ð¿ Ð¾Ð»Ð½Ðµ
Ð»Ð¸ÑĪ ÐºÐ¾Ð¼
Ġuffi ciale
Ġml n
ĠWy kon
ĠÐ¿ÑĢÐµÑģÑĤ ÑĥÐ¿
ĠWroc ÅĤaw
Ġsr c
J l
Ġzmi enia
Ġw ere
ĠD anke
Ġpermet tra
ĠS uch
ĠÐ´ÐµÑģÑı ÑĤ
Ġmom entos
Ġesper a
ĠLE D
ĠOrigin al
ĠCont in
lla zione
ķ çĶŁ
ĠBlan co
ĠKomment ar
s tre
om ie
ĠSo ciÃ©tÃ©
ĠO li
ph ie
Ġc á»±c
mp ora
Ġfond s
di entes
Ġali mentos
Ġarri Ã¨re
æľ Ń
ĠÐ±Ð¸Ð·Ð½ÐµÑģ Ð°
ĠÐ¼ÐµÑģÑı ÑĨÐ°
ãģĻãĤĭ ãģŁãĤģ
re ise
ĠUn ion
w ent
Ġtur ys
Þ¬ Þ
ĠÄĳ áº£m
un tos
ĠSe Ã±
ĠD on
ab oraciÃ³n
ĠÐ¼ Ð¾Ð½ÑĤ
ĠÐºÐ²Ð°ÑĢÑĤÐ¸ÑĢ Ñĭ
Ð² Ð¸Ð´
Ġtien da
or ca
di ente
Ġnor te
ĠÐ²ÑĭÐ³ Ð»ÑıÐ´
ĠAless and
ĠÐ²Ñĭ Ð¿Ð»Ð°ÑĤ
ÑĤ Ð¾Ð½
ĠJac ques
Ġra y
ĠÐļ ÑĤÐ¾
ĠÐ¿ÑĢÐµÐ¿ Ð¾Ð´
ãĤĵãģ§ãģĻ ãģĳãģ©
ãĥ¼ãĤ ¬
tes i
ãģĿãģĨ ãģª
Ġä»£å¼ķ ä¸įåı¯
Ġ ãģ§ãģ¯
éĿ¢ çĻ½
ãĤ» ãĥķãĥ¬
ãģ£ãģ ½
éĿŀ å¸¸ãģ«
p an
Ġinsta ll
Ġex tr
ĠÐ¿Ð»Ð°ÑĤ ÐµÐ¶
ĠÐ·Ð°Ð±Ð¾Ð»ÐµÐ² Ð°Ð½Ð¸Ñı
Ġsoddis f
ĠB amb
ra zione
ĠÐ´Ð¾Ð¿ Ð¾Ð»Ð½
ĠÐ´ÐµÐ¿ ÑĥÑĤ
ÑĢ Ð´
ĠÑĢÐµÑģÑĤ Ð¾ÑĢ
Ġgi áº£
Ġenreg ist
Ġg ara
al ter
ĠÐ¾Ð±ÑĬ ÐµÐ´Ð¸Ð½
ĠStiva li
Ġsos titu
Ġp ÅĤ
ĠHaus e
Ġing lese
ÑģÑĤÐ²ÐµÐ½ Ð½Ð¾Ð¹
Ġl iter
Ġl á»±a
Ġkle in
Ġcompa gnie
w us
ĠÐĿÐ¾Ð² ÑĭÐ¹
ĠÐ¼ ÑĥÐ·
Ġincl uye
ÑģÑĤ Ð¸ÑĤÑĥÑĤ
Ð¸ÑĨ Ð¸Ñı
ç¶ Ļ
ar lo
ici lio
Ġsu el
un Ã¤chst
Ġgru p
di ge
ma le
Ã©r coles
ĠÐºÑĢ Ð¾Ð¼Ðµ
Ð¸ÑĤ ÐµÐ»ÐµÐ¼
etta re
Ġper dere
Ġabb ia
Ġpel os
ĠGi Ã¡
ĠÃ ±
Ġl Æ°u
ĠSpa ÃŁ
ĠÐ¡Ð¾Ð² ÐµÑĤ
z j
Ġide al
ĠM utter
pe dia
Ġre cl
ĠC lau
Ġth Ã¨me
ani i
Ġå¾ ĴæŃ©
é¦ ĸ
ĠWohn zimmer
Ġge eignet
ÑĤ ÐµÑģÑĮ
ener dÃ¬
ggi ori
v am
ĠÐ´Ð°Ð»ÑĮ Ð½ÐµÐ¹ÑĪ
ĠÐ°ÐºÑĤ Ñĥ
Ġpre ten
ki r
Ġcommen cer
a ient
ĠÑĤ ÐµÐ¼Ñĥ
ĠGr Ã¼
re ch
ĠÐ¿ÑĢÐ¸Ð½ Ð°Ð´Ð»ÐµÐ¶
Ġofre cer
ÐµÐ¹ Ð´
ĠÑģÑĤ ÑĢÐµÐ¼
ĠÅĽ w
Ġjakie ÅĽ
w nÄħ
Ġent rar
Ġteng a
Ġw Ã¼n
Ġw es
Ġun be
Ġes ser
ĠÐĶÐ¼ Ð¸ÑĤÑĢ
ÑĤ ÑĢÐ°
Ġje mand
forder ungen
ĠM ons
Ġf ro
ĠÐ½ Ð¾Ð¶
ĠÐºÐ¾Ð½ÑĤÑĢ Ð¾Ð»ÑĮ
je my
ãģ®å İ
ĠL ivre
pis ode
ck iej
Ġins cription
Ġgr is
Ġdev ra
Ġtr anh
Ġnatur aleza
Ġsp ia
ĠsÅĤ owa
ĠV a
ĠL Ã³pez
as es
ãĥĸ ãĥª
Ġak tiv
Ð¸Ð½ ÑĤÐµÑĢ
ĠÐŁÐ¾Ð» ÑĥÑĩ
ãģ®å Ģ
ĠÐºÑĥÐ»ÑĮÑĤ ÑĥÑĢÑĭ
Ġf em
Ġnas z
Ġcom mento
Ġb lu
di mento
rod y
ĠL ink
ĠJo h
ĠSch ule
qu ite
it ant
ĠÐ´Ð²Ð¸Ð¶ ÐµÐ½Ð¸Ñı
Ġt ess
use ppe
ci lia
Ġutilizza re
æľ¬ å½ĵãģ«
æ°Ĺ ãģ«
Ġdecis iÃ³n
Ġc ia
Ġv oulez
åĸ ľ
Ġtend rÃ¡
o te
ĠÐ°Ð´Ð¼Ð¸Ð½ Ð¸ÑģÑĤÑĢÐ°ÑĤ
Ðº Ð¾Ð½
Ġze wnÄĻtrz
Ġwy t
ĠÐľ Ð°Ð¹
ĠéŁ ĵåĽ½
ĠÐ¿ Ð°Ñģ
pri re
ĠãĥĪ ãĥĥãĥĹ
Ġãģ ı
ãģı ãĤĮãģŁ
ĠF Ã©v
ient Ã´t
Ġrece voir
tu elle
I TE
Ġsuff it
Ġil oÅĽci
Ã©ra l
ÑĢ ÐµÑģÑģ
ãĥ¬ ãĥĻãĥ«
ĠmÃ¡xi mo
Ġtuo i
Ġfin anzia
Ġb ist
teil t
Ġg wia
Ġb ur
be x
ĠC ruz
Ġhum anos
tif ication
Ġæ ¼
ç¥ Ń
Ġl áº¥y
ĠHis toire
Ġhistori que
Ð°ÑĢÐ¸ ÐµÐ²
Ġcos ti
Ġloca les
f Ã¤l
ĠÑģÐº ÑĢ
ĠÐĿ ÐµÐ´
èĢħ ãģ¯
Ġcommunau tÃ©
ĠZ aw
or gani
ÐµÑī ÐµÐ½Ð¸Ðµ
ĠSta ti
Ġcele bra
Ġh Ã¶r
ĠL am
u ment
ĠÃ ħ
Ġká» ¹
ĠG ir
ĠprÃ© sta
che z
ĠPro fes
ch as
ĠKar ten
ÐµÐ½ÑĮ Ðµ
Ġth er
cz el
ĠP uerto
ĠÑĦ Ð¸Ð³
ĠÐ¿ÐµÑĢ ÐµÐ³
ba te
ĠS ource
rÃ© al
g Ã©e
Ð¾Ñģ Ð¸Ð±Ð¸ÑĢ
Ð½Ñİ Ñİ
Ġsu elo
l ungen
ĠÑĦ Ð¾Ð½
ĠÐ½ ÐµÐ³
lica tions
cie ls
ĠcatÃ©g orie
Ġzn alaz
ĠverfÃ¼ gbar
Ġmad ura
Ġencuent ran
Ġza tru
è¡ £
ĠÂ £
à³ į
Ġt á»ĳi
ä¸Ń ãģ§
he ur
f ond
Ġus un
mÃ¤ÃŁ ig
ĠcrÃ© dit
ĠÐĵ ÐµÑĢÐ¼
AN CE
ĠrÃ©gi me
ĠrÃ©du ction
Ġokaz ji
Ġterri toire
Ġencont ra
statt ung
ĠSz cze
Ġé Ł³
ĠCom pr
vel a
Ġsem anas
Ġquel qu
Ġza u
AD A
Ġalo j
Ġfre uen
Ġer reichen
cia lizza
Ġwym ag
Ġado p
ĠÐ²Ð½ ÐµÑģ
Ġ^ )
èĢħ ãģ®
ĠT uy
mp or
Ġesta te
Ġwsp ar
Ġ its
ĠZ us
ĠTag s
ur ation
ci pe
ĠÑĤÐµÑħÐ½Ð¾Ð»Ð¾Ð³ Ð¸Ð¸
ĠÐ¿Ð»Ð°Ð½ ÑĪ
Ð¾ÑģÐº ÑĢÐµÑģ
Ġt worz
Ġdes tina
ä» ²
Ð°Ð»ÑĮ Ð½ÑĭÐ¼Ð¸
ĠErgeb nisse
Ã¤n dig
I X
ãĥĥãĤ« ãĥ¼
ãģ£ãģ¦ ãģĹãģ¾ãģĨ
ft ung
Ġï¼ ¼
Ġèĭ ±
ĠÐ´ÑĥÑħ Ð¾Ð²
Ġtr Ãªs
Ġh yd
Ġmind estens
Ð± Ð¸ÑĢ
ĠÑĢÐ°Ð² Ð½Ð¾
Ġka ta
Å¼e k
ida Äĩ
ĠW Y
kow ski
Ġspotk ania
ber n
Ġc itoy
ĠÐºÑĢ ÑĭÑĪ
ĠÐľ ÐµÐ¶Ð´
Ġca tegoria
Ġni estety
Ġhistori i
Ġç ĿĢ
ĠTe ch
ag ue
Ġæķ °
ĠÐºÐ¾Ð¼Ð¿ Ð°Ð½Ð¸Ð¹
ĠC ara
Ġh ue
cia liz
ĠÑģ Ð¸Ð»ÑĮÐ½Ð¾
ĠO ggi
Ġdes sen
) ,
! +[]
Ġvo let
ĠCon f
P ro
Ġstru cture
è¢ «
Ġtrans porte
S ch
Ġbel ieb
Ġau th
ĠÑģÐ°Ð¼Ð¾ÑģÑĤÐ¾ÑıÑĤÐµÐ»ÑĮ Ð½Ð¾
ĠÐĴÐ¸Ðº ÑĤÐ¾ÑĢ
Ġcaratter istiche
Ġdovre bbe
G alaxy
Ġt Äħ
Ġbuen os
ĠÐ¶ Ð°Ð»
Ð¸ÑĤ Ð¾Ð²
ĠDes arro
Ġbien es
Ġ6 8
ĠprÃ© c
ta lement
ĠTy pe
ti le
ÑĨ Ð²ÐµÑĤ
ĠÑĢÐ°Ð·Ð½Ð¾ Ð¾Ð±ÑĢÐ°Ð·
æĪ ĳ
ĠNg Æ°á»Ŀi
Ġpromo tion
is ji
Ġapr endi
ĠRÃ©pub lique
Ġæ³ ¨
Ġp eine
ĠÐ¿Ð¾ÑģÑĤ Ð°Ð½Ð¾Ð²
ĠÐ¾Ñī ÑĥÑī
tur ale
at u
ĠkaÅ¼de j
ÑģÑĤ Ð°ÑĤÐ¸
Ð°ÑİÑī Ð°Ñı
åĸ¶ æ¥Ń
Ġä¸Ģ èĪ¬
Ġpop raw
Ġz onas
Ġal ten
Ġre mb
ĠÎ Ķ
Ġper d
Ġpan ne
ĠÐ¿ÐµÑĢÐ² Ð¾Ð¹
z ieren
rÄĻ cz
ä»ķ æ§ĺ
ĠL igne
gra phe
0 1
ãĤĴ åıĸ
ĠÐĴ ÐµÑģ
ar da
Ġpie di
Ġpar tager
Ð¾ÑĢ Ð¾Ð¼
æ¨ ª
ĠhÃ© si
Ġcoup le
ĠÐ· Ð½Ð°Ðº
odz enie
Ġconcas seur
Ġ" -
Ġop tions
zz ando
ãĥŃ ãĥ¼ãĥ³
Ġdigi tal
Ġtam poco
Ġexcel ente
Ġac cessoires
ĠR ose
ĠrÃ©f le
Ð¾Ð³ Ð¸
Ġs Ã¡bado
Ġge geben
Ġpar tage
A G
Ġmet tere
Ġan alisi
g ge
Ġk rzy
ãģ« ãģı
Ġtho áº¡i
Ġeleg ir
ĠAn bieter
ĠmatÃ©r ia
ĠV ari
Ġcons Ã©qu
ĠÐ²Ð·Ð³ Ð»ÑıÐ´
ĠÐ¶ Ð¸Ð»ÑĮ
Ġk al
ĠAl gun
Ġ^ ^
ten d
czy ny
Ġsu kces
ĠFrank furt
Ġneu es
ĠBe handlung
ĠG as
Ġu04 30
ÐĴ ÐĲ
ĠÐ¿ÑĢÐµÐ´ÑģÑĤÐ°Ð² Ð»ÑıÐµÑĤ
Ġri por
Ġéĩ İ
I d
Ġpoli ce
h Z
s ym
Ġris tor
cia ch
ĠåĪ ¥
ĠAd olescente
ĠP Ã¡g
Ġper u
ĠS olo
Ġpou co
ĠD ein
ita ciÃ³n
Ġsenti r
ĠÑĢ Ð¾Ð»ÑĮ
ĠÑĨÐµÐ½ÑĤÑĢ Ðµ
mm el
ĠÂ¡Â £
Ġda nh
ĠS O
ĠP in
Ãį A
Ġconsum o
rze Äĩ
Ġcla ve
ow ÄĻ
æŀ Ĳ
ãĥĪ ãĥĥãĥĹ
Ġad olescente
ĠSegur idad
ĠP is
ĠConta cto
Ġini cio
Ġge h
ĠÐºÐ»Ð¸ ÐµÐ½ÑĤÐ¾Ð²
QiO j
Ġob u
ĠÐĲÐ½ Ð³
ãģ¹ ãĤĭ
u ern
Ġmen tion
Ġmet ri
Ġpra ca
Ġu dziel
ĠÐŀ Ðĳ
Ñı ÐµÐ¼
nict wa
æļ ®
tor ie
Ġles que
Ñİ ÑĢ
Ġpes quis
åİ ļ
Ð¸ÑĤÐµÐ»ÑĮ ÑģÑĤÐ²Ð¾
Y m
Ġgdy Å¼
ãĥ¼ãĥį ãĥĥãĥĪ
ĠdÃ©p end
Ġacor do
ĠK l
ĠB aby
je kt
ĠSam stag
ru zione
ffe e
ÐµÑĩ ÐµÑģÑĤÐ²
ĠÑģ Ð½Ð¾Ð²Ð°
Ġprzy pom
ĠÃ ¯
Ġm áº«u
Ġdescu ento
Ġcom enz
Ġbenefi cios
Ġver gang
Ġc ong
ĠÑĢ Ð°ÑģÑĤÐ²
ĠÐ·Ð°ÑĢ ÐµÐ³Ð¸ÑģÑĤÑĢ
Ġc lÃ©
ãĥ¼ãĥ Ļ
ãģ®æ ¯
Ġh Æ°á»Łng
Ġparten aires
ale urs
ĠÐ³ ÑĢÑĥÐ´
ĠÐ¾Ð¿Ð¸Ñģ Ð°Ð½Ð¸Ðµ
Ð¸ÑĢÐ¾Ð² Ð°Ð»
Ġstr umenti
åº ķ
Ġmovi miento
Ġt Ã¤glich
ign on
ku jÄĻ
Ġjed na
7 1
Ġser rure
Ġacc ue
pa nh
Ġlie be
h el
Ġal t
ĠPro gra
Ġliber tad
ĠÑĢ ÐµÐ»
Ġnatur ale
ĠRe y
ĠHoch zeit
Ġdispos e
Ġlav ora
ç® ±
ï¼ ®
è¨Ī çĶ»
Ġart ÃŃculos
w issen
Ġdes halb
R e
Ġesp Ã¨re
Å¼y w
ta m
Ġokres ie
tes ten
iste mi
ca li
Ã¨ nes
Ġalrede dor
Ġaper to
Ġth an
ĠAuÃŁer dem
Ġbamb ino
m uje
ĠCas inos
Ġst essi
ãĤīãĤĮ ãģ¾ãģĻ
ĠÃ©vol ution
Ġtable au
ĠD onc
ĠÐļ Ð°Ð¼
Ġcomunica zione
Ġber eit
tal ie
Ð¾Ð² ÑĥÑİ
Ġpar i
ÅĤasz cza
ĠFreita g
dan ken
ĠÐ½ Ð¸Ð¶
Ã§ ar
ll ier
OU S
Ġtrois iÃ¨me
Ġpen si
ãĤ³ ãĥĶãĥ¼
Ġfaci li
ta rios
u ter
ĠÐ° Ð³ÑĢ
Ġmiejs cow
Ġç Ĩ
Ġy áº¿u
rz t
Ġt Ãº
Ġcontinu aciÃ³n
Ġsp iele
Ġbeispiel sweise
Ġtek st
ãĥĪ ãĥ«
ĠM ir
ĠCa tal
Ġva caciones
ĠÑģÐ¿ÑĢ Ð¾Ñģ
Ġimp ul
ĠW ein
ĠHau p
ĠÐ¿Ð» Ð¾ÑĤ
ĠÐ½ÐµÐ´Ð¾ÑģÑĤ Ð°ÑĤ
Ġtend ance
ĠÑħÐ¾ÑĢÐ¾ÑĪ ÐµÐ¼
ĠÐ²Ð¾Ð¹ Ð½Ñĭ
Ġpag ar
ĠDa vid
Ġåı Ĥ
Ġpremi Ã¨res
ĠsÅĤu Å¼
Ġor igen
Ġnadz iej
ãģĭ ãģĮ
se urs
Ġmod alitÃł
Ġwi zy
ãģĤ ãģ¾ãĤĬ
ĠV iele
que z
Ġacquista re
Ġserrur ier
Ġre Ã§u
Ġè¨ ĺ
c uro
Ġè Ī
ĠÑĤÐ°Ðº Ð¸
Ġimpres e
vo re
ĠÐĹ Ð°ÑĤ
Ġb at
Ġne m
ĠwaÅ¼ ne
Ġac ces
Ġprze czy
ow ol
ĠK in
do pod
Ġto Ã¡n
ĠÐ½ÐµÐºÐ¾ÑĤÐ¾ÑĢ ÑĭÑħ
Ġr áº»
g ados
æģ ¯
li ga
bur ger
Ġwel ches
ãģķ ãģ«
Ġle gno
Ġc odice
Ġos piti
OL O
t one
Ġposs ÃŃvel
ĠåĨ į
ĠæĪ ĳ
ãĤ¢ ãĤ¯ãĤ»
ĠM ostrar
F E
Ã¡ tica
Ġenseigne ment
Ġappr endre
l ado
Ġwy nosi
Ð¸Ð² Ð°Ñı
Ġtec nica
Ġfinan zi
ĠTra ng
Ġa go
éŃ Ķ
Ġæ ¡
Ġãĥŀ ãĤ¤
Â ¤
Ġkh áº£
ĠheiÃŁ t
ĠPo z
ĠãģĦ ãĤį
æĿ¡ ä»¶
li ngen
hal ts
al nej
ĠEn cont
Ġt ir
ĠCons ul
k ennt
ĠÐ¾ÑĤÐ½Ð¾ÑĪ ÐµÐ½Ð¸Ñı
Ġex isten
di gt
äºĭ æķħ
Ġbe ll
Ġt esto
Ġpowie dziaÅĤ
ĠCe pendant
ĠÐ½Ð°Ð³ ÑĢÑĥÐ·
Ġ9 78
ĠN un
ĠÑģÐ¾Ñĩ ÐµÑĤ
ĠG ian
Ġtras fer
par k
ĠÑģÐ¸Ð¼ Ð²
Ġti pi
ĠÐ·Ð°Ñī Ð¸ÑĤÑĭ
å§ ¿
Ġjus t
ĠSe hr
ĠN uest
mi eren
ĠÐ²ÑĭÐ¿ Ð¾Ð»Ð½Ñı
ĠC olor
Ġparti dos
Ġtr Æ°á»Łng
ãģ¤ ãģĳ
Ġol vid
f assen
ĠÐĹ Ð°Ð³
Ġam ar
ĠM undial
ĠÐľ Ð¸ÑĢ
s Ã©
ĠÐĲÐ² ÑĤ
ĠÐ¾ÑĢÐ³ Ð°Ð½Ð¾Ð²
d G
H R
Ġt worzy
ãĥ³ãĥ Ĭ
Ġsol che
Ġm idi
ãģ® ãĤ«
Ġimmag ine
ĠF ort
ĠÑħ Ð²Ð°ÑĤ
ĠÐ¸ÑģÑģÐ»ÐµÐ´ Ð¾Ð²Ð°Ð½Ð¸Ñı
b w
ĠTri p
mÃ¡ tico
Ġjur id
Ġd wu
ı ¡
ĠTh Ãłnh
es o
Ġsh ow
Ġpeque Ã±os
ĠÐŁÐµÑĢ ÐµÐ´
Ġo ggetti
Ġconna issance
Ġon et
Ġt zw
ĠL iter
Ð¾Ñģ Ð¸Ð¿ÐµÐ´
Ġd ados
ĠJ uÅ¼
Ġs ÅĤa
Ġs omit
Ġk na
de cken
ĠÑĥÐºÑĢÐ° ÑĪ
ĠD V
éł ĺ
te te
lic itÃł
ĠÐ¿ÑĢÐ¸ Ð±Ñĭ
Ġim media
iglia mento
Ġs ost
bilidad e
Ġc ouv
Ð¸ÑĤÐµÐ»Ñı Ð¼Ð¸
Ġav vi
ĠK ato
Ġw nÄĻtrz
Ġb á»ĳ
Ġfe men
ĠZ aragoza
ato rio
v ador
Ġper ten
ĠN at
Ð°Ð´ ÐµÐ¼
ĠÑģÐ¿ Ð¸ÑģÐ¾Ðº
Ġob ro
Ġescort s
Ġa zul
ĠSi tios
Ġzapa tos
ĠdÃ© n
Ġdi z
Ġwe dÅĤug
Ġmon ta
ĠG leich
ĠÐ¤ Ð¾ÑĢÐ¼
lan zen
Ġav enir
ĠÑĥÑģÐ¿ ÐµÑħ
Ġfo ot
ĠtÃ©lÃ© charger
b on
åĦ Ħ
Ġdocu ments
Ð¾Ñģ ÑĢÐµÐ´
mo ine
be wert
Ġt ats
ĠMÃ¤ dchen
ĠK urs
let te
f ait
ĠP rz
b ble
Ġutilis ateur
Ġdimos tra
Ġper te
ãģĭãģ£ãģŁ ãģ§ãģĻ
å¾ ĭ
Ġejerci cio
ĠcÃ³ m
ĠK al
ÐµÑĢ Ð½Ð¾Ðµ
Ġl ic
ĠÑĥÑĢÐ¾Ð² Ð½Ðµ
Ð¾ÑģÑĤÐ°Ð² ÐºÐ°
ÑĥÑģ ÑĮ
ku l
Ġqu Ã½
ĠRep Ãºblica
ĠÑĩ Ð°ÑīÐµ
ĠP ablo
Ġclassi que
tis ation
ĠÎĶ E
ĠO f
Ã©g Ã©
Ġcon dition
ĠK osz
ÅĤo Å¼y
Ġempe zar
ĠTor re
able mente
ĠSchwei z
Ġcom in
da ta
Ġr Ãµ
ĠJo hn
ĠÑģÐ»Ð¾Ð² Ð°Ð¼
ĠÐ·Ð°Ð² Ð¾Ð´
ĠÐ´Ð°Ð»ÑĮ ÑĪÐµ
Ġéģ ĭ
ĠÐľ Ð½Ð¾Ð³
w ym
æ± Ł
ãĥ¼ãĥª ãĥ³ãĤ°
ãģ» ãģĹãģĦ
ãģ® ãĥ¡
ãģ® ãģªãģĦ
ĠEmp lo
ĠAl pes
Ġmar i
w na
Ġumiej ÄĻt
ĠOr ganis
Ġind is
Ġa co
ĠÑĢÐ°ÑģÑģ Ð¼Ð°ÑĤÑĢ
mar as
ĠF ond
åĵģ è³ª
Ġch ino
Ð°Ðº Ð¾Ð½
Ġpr endere
Ġhist Ã³ria
ä¸Ń å¿ĥ
Ġfonction nement
Ġpr osz
Ġm Ã³j
ĠÅ¼y ciu
Ġngh e
Ġi zquier
Ġcla ir
ĠÐ¾ÑĢÐ³Ð°Ð½Ð¸Ð· Ð°ÑĨÐ¸Ñı
Ġscar ica
Ġw szyscy
ill ant
ĠCam era
ãģ§ãģ¯ ãģĤãĤĬãģ¾ãģĽãĤĵ
ĠGru po
Ġfi esta
Ġsor pr
ros o
Ġre cuer
Ġkobie ty
ĠT rze
ec er
IN G
Ġvis ion
Ñĭ Ðº
ÐĶ ÐĲ
Ð°Ð´ ÑĨ
Ġpro ced
Ġv ui
ĠLeist ung
Ġmalad ie
c ro
Ġin to
ĠUn ser
Ġge wor
Ġorgani zza
ĠDod at
Ġperfec to
Ġmod a
Ġc á»¥
ĠY ork
ĠM ala
uel o
Ġsa car
Ġpropie dad
Ġac teurs
t ons
ier ze
çĹħ éĻ¢
ãģĦ ãģ£ãģŁ
Ġsol uciÃ³n
Ġstron a
Ġdru gie
ãģ« æĿ¥
ĠWie der
ĠÐ²Ð°ÑĪ ÐµÐ³Ð¾
Ġcomple tamente
ĠC U
Ġp uerta
ĠGebur ts
ĠÃ©ta pe
Ġno ticias
ĠD eine
n ers
Ġf id
Ġe cco
ĠN E
ci uto
Ġéĩ į
Ġl un
hand el
ÑģÑĤÐ² Ð¸Ñı
ĠczÅĤowie ka
Ġwy cie
ĠfÃ¼ hrt
ĠãĥĹ ãĥ©
or g
Ġgan zen
ÐºÐ¾Ð² Ð°
Ðº Ð¸Ð¼Ð¸
ãģ» ãģ¨ãĤĵãģ©
Ġfa ible
ĠStand ard
un ti
ĠÑĤÐµÐ» ÐµÐ²Ð¸Ð·
á»ĵ m
ĠSpiel othe
ĠP s
Ġer hÃ¶
Ġpr ensa
Ġ3 D
um Ã©
Ġs omme
ĠUm gebung
ĠÐĹ Ð²
ĠdÃ³l ares
Ð°Ð» Ð¾Ð¼
Ġsele zion
Ġtrak cie
pf lich
Ġric ord
rei bt
Ð» ÑĥÑĪ
ĠÑģÑĤÑĢÐ°Ð½ Ðµ
Ġsp rze
ĠGes amt
Ġoc cu
P A
Ġpalab ra
sp iele
Ġar ia
Ġmus ste
Ġag rad
ĠConse jo
ti les
ĠC A
Ġpa iement
ĠComm un
ĠlÃ©g Ã¨re
Ġper mit
Ġespe ci
ĠW ort
Ġhum ano
ĠÐĶ ÐµÐ½ÑĮ
ĠÑĩÐ°Ñģ Ð°
Ġn ow
Ġç ±³
Ġcour ant
Ð¹ ÑĤÐµ
ĠD os
ĠAndre a
Ġgu ard
ĠÐ´Ð¾ÑģÑĤÐ°Ð² ÐºÐ¾Ð¹
Ð¸ÑĨ ÐµÐ¹
Ġcz war
Ġ5C u
Ġrep rÃ©s
ĠMa ggio
Ġti p
va Ã§Ã£o
Ġproces os
ĠErfahr ungen
ĠScra bble
ĠRob e
v aux
Ġescu ela
Ġaktue llen
Ġass ure
ti ere
ic ÃŃ
Ġch wili
ĠCh ÃŃnh
Ã¡ fico
ĠÐŀ Ð¿Ð¸ÑģÐ°Ð½Ð¸Ðµ
Ð¸Ð½ ÑģÐºÐ¸Ð¹
ĠÐ¾Ð´ Ð½Ñĥ
Ġdes te
ĠW ind
ĠCh em
ti enne
Ġas col
Ġesta va
ĠK rie
Ġrela tions
ĠÐ· ÐµÐ»ÐµÐ½
ĠÑĤ Ð°
ur al
Ġeff etto
Ġdzis iaj
Ġè ĳ
ĠÄĳ Ã¢u
ĠÐĳ Ð¾ÑĢ
ĠrÃ¡p ido
ĠÐ¿ÑĢÐµÐ´ÑĥÑģ Ð¼Ð¾ÑĤÑĢ
Ð³ÑĢ Ð°Ð´
Ġnaj wyÅ¼
Ġç Ī
Ġcomb at
ĠÑģÐ¾ÑģÑĤÐ¾ÑıÐ½ Ð¸Ðµ
Ġb ro
ĠRÃ© g
ĠÃ©qui p
ĠÂ ¯
Þ° Þ
Ġb ay
Ġm ara
Ġautori dades
Ġmaxim um
ĠMar s
ĠA V
Ġpos er
Ġenvo y
Ġin vesti
Ġener gia
éļ Ĭ
ĠÐ¿ÐµÑĢ ÐµÑĢ
ĠÐ» Ð¾Ð¶
ĠÐ·Ð´Ð¾ÑĢÐ¾Ð² ÑĮÑı
Ġpod z
Ð¾Ð¹ ÑĩÐ¸Ð²
Ġniez bÄĻd
ch at
Ġr ose
ve ille
ĠdÃ©cid Ã©
Ð½Ð°Ñĩ Ð°Ð»Ð°
Ġpowie trz
ĠEsta mos
AL ES
ĠH u
ĠD ise
ĠA ires
Ġr od
ĠB lau
mper atur
ĠBor deaux
Ġ7 2
ill y
Ġtari fs
ĠÑģÐ¾Ð± ÑĢÐ°Ð½
ĠÑģÐ²Ð¾ ÐµÐ¼
ĠGi useppe
ĠSand ali
Ġu tente
Ġaplica ciones
Ġbef indet
Ġvelo ce
Ġmeu bles
ĠÐº Ð¾ÑĢÐ¼
ĠÐ¿ÑĥÑĤ ÐµÑĪÐµÑģÑĤÐ²
Ġma ins
Ġalum nos
ĠGes chen
ie fe
ĠBo x
Ġnad al
Ã¤us er
os sen
Ġhoch wer
Ġsyst Ã¨mes
l it
Ġjourn al
Ġpros simo
Ġa meric
ks am
Ġ5Cu 04
Ġtechn ologie
Ġt elle
bi ana
ĠE je
re o
ĠM eine
ĠwÃ¼r den
ĠG ÅĤÃ³w
Ġp ill
Ġall Ã¡
Ġad qui
Ġelett ron
re d
Ġp atri
Ġrozpo czÄĻ
æ± ł
ãģ® ãĤª
ti mes
wa j
Ġãģ¨ è¨Ģ
Ġllam a
k enn
Ġs telle
ç¨® é¡ŀ
ĠLa ger
ĠH eute
ĠÃ© cri
ĠC ouleur
ĠBel gique
è² ¬
Ã¡c ter
ĠBay ern
Ġson st
ist rut
Ġo kaza
Ġgi ardino
æĺ ĵ
Ġt ÃŃtulo
ri bution
ĠGeb Ã¤
Ġf ou
Ġdo ll
Ġc ientÃŃ
ãĤīãĤĮãģ¦ ãģĦãĤĭ
ĠÐ¾Ð±ÑıÐ· Ð°Ð½
ĠzamÃ³wi enia
Ġus tal
ĠÐŁÑĢÐ¾ Ð¸Ð·Ð²Ð¾Ð´
ĠÐºÐ¾Ð» Ð»ÐµÐº
ĠÐ¿ Ð°Ð»ÑĮ
Ġpos iad
ãģ®æ ±
į ng
r uf
ord nung
ro ir
Ġcon vi
at um
ĠÐºÐ¾ÑĢ Ð¾ÑĤ
la ch
Ġè¿Ķ ä¿¡
éģ ¿
ĠKar te
ĠGe h
ĠR h
l itÃ©
ĠÐĵ Ð°ÑĢ
Ġstori co
is ant
Ġwe wnÄĻtrz
Ġre le
no ch
Ġm ent
Ð°Ð½ ÐºÐ°
ĠJ este
Ġtra fi
ãĥŀ ãĤ¤
er te
ĠÐ¡ÑĤ Ð°ÑĢ
ĠindÃ© pend
Ġnie co
Ġau tore
ç¤ ¼
Ġt iá»ĩn
Ġse par
ĠÐ¾Ð± ÑĥÐ²
Ġsco per
Ġprze ch
åı ³
ĠÐ´Ð¾Ð¼ Ðµ
Ġmo gli
Ġmar co
ĠÐŁ Ð°Ð²
Ð¾Ñĩ ÐºÑĥ
ac ch
Ġfre qu
Ġconc ent
Ð°Ð½ ÐµÐµ
4 æľĪ
Ġlu áºŃt
iel t
ĠmiesiÄĻ cy
å¹´ åº¦
ãĤ ¥
Ġc ob
Ð½Ð¸ÑĨ Ñĥ
ĠNi estety
Ġrekl am
ech as
ĠÐºÐ¾Ð» Ð»ÐµÐºÑĤ
Ġpod pis
di tos
Ġdirec tamente
ĠBen utz
Ð¸ÑģÑĤ Ñĭ
Ġsta tu
Ġh ad
Ġins gesamt
ĠD az
ouch age
iss ances
Ġfamili as
Ġnadziej ÄĻ
a ten
ÐµÑĢ Ñĥ
Ġwsp ania
Ġprodu c
wo li
owa ÅĦ
Ġprop res
Ġcour t
Ġnajlep iej
o ks
Ġvo ie
ĠÑģÐ¾ÑģÑĤÐ¾ÑıÐ½ Ð¸Ð¸
ĠVene zia
Ġt aglia
Ġmont ant
Ġb az
tif icaciÃ³n
ĠÐ½Ð¾Ð² Ð¾Ð¹
ĠÐºÐ»Ð°ÑģÑģ Ð°
Ġaff id
Ġg eni
Ġspe dizione
Ġdi ritti
ĠnghÄ© a
ĠCer ta
ri re
mi i
Ġè Į
Ġæ ®ĭ
Ġãĥķ ãĥŃ
Ġcon tes
Ġgu a
ĠSal a
r ador
ta urante
inn t
ĠÐ²Ð· ÑıÑĤÑĮ
Ġc lic
ĠM ostra
Ġsp er
ç¶ļ ãģį
Ġd unque
Ġreg ionale
Ġproprie tÃł
Ġk ana
Ġcomen zar
Ġza b
ak tion
ãģķãģĽãģ¦ ãģĦãģŁãģł
ãģ£ãģ¦ ãģĬ
ãĤ¨ ãĤ¢
åĩ¦ çĲĨ
ĠErfahr ung
Ð¸ Ð¾
ĠÐºÐ¾Ð»Ð¸Ñĩ ÐµÑģÑĤÐ²
Ġprincip ale
ãģĦãģ¾ãģĹãģŁ ãģĮ
ĠJ ul
ĠC O
ĠJe go
f Ã³
ãĤĤãģ® ãģ®
Ã©ri o
ĠS amo
ĠEncu ent
Ġma qu
Ġapr ender
Ġos z
Ġm orte
Ġung e
ç¸ ¾
ĠÐĴÐµÐ´ ÑĮ
ĠÑĢÐ°Ð½ ÐµÐµ
Ġmi mo
ĠÃ©tudi ants
ĠS ab
ĠAmi gos
li cidad
Ġest Ã¡s
Ġsimple mente
Ġmes a
ãģ§ãģį ãģŁ
Ġf rases
ĠS en
ĠPue de
ĠH á»ĵ
ĠRis i
Ġsch Ã¶ne
ĠhÃ¤uf ig
ĠÑģ Ð»Ð¸ÑĪÐºÐ¾Ð¼
Ã¡ logo
Ġes encia
ĠÐŀÑĤ Ð¿ÑĢÐ°Ð²
ĠÐ¿ÑĢÐµÐ´Ð¿ÑĢÐ¸ÑıÑĤ Ð¸Ñı
ĠÐ¿ÐµÐ´ Ð°Ð³Ð¾Ð³
Ð°Ð· Ð°
ĠÐ¿ ÑĤ
Ġmanif esta
z ze
ĠzwiÄħz ane
èį ī
ĠN go
çķ Ļ
Ġpol ski
Ġæ ļ
Ġu003 e
Ġsor tir
Ġpubblica to
ĠTe mat
odz iel
ĠÐ¸Ð¼ Ñı
Ġcin que
Ġple ine
Ġf im
ie d
Ġzu peÅĤ
ĠS ous
ĠC L
P ri
Ġfabri c
C M
áº© u
ĠT al
ĠS uisse
Ð°Ð»ÑĥÐ¹ ÑģÑĤÐ°
ĠÐ· ÐµÑĢÐº
Ġocze ki
ãĤĴ å¾Ĺ
ĠÑįÐº Ð·
ĠChar les
ĠÑģÑĦ ÐµÑĢÐµ
Ġd rzwi
ĠÐ·Ð² ÐµÐ·Ð´
tow ane
Ġ6 7
anta ges
ĠÃ©ta is
Ġloca ux
gen to
Ð´ Ñĥ
Ġpre ce
éģ Ĭ
ĠGran ada
mp e
ĠF enster
ÐĽ Ðŀ
ĠÐ² ÐµÐºÐ°
le ga
ĠÄĲ á»©c
Ġex terior
ĠeconÃ³mi ca
ĠCar te
ge ments
ãģĿ ãĤĵãģª
Ġï¼ ½
ĠåĬ ł
Ġlat est
ãĥ¼ãĥĢ ãĥ¼
ãĥĭãĥ¥ ãĥ¼ãĤ¹
da zione
Ġel en
Ġpor tal
ĠmÅĤ odzie
ĠDesn udas
Ġ\" >
Ġent ender
ĠFe hler
ĠdÃ¼r fen
Ġrad io
N D
Ġza jÄĻ
ĠErgeb nis
ĠCom puter
Ġtrouv erez
Ġrec ette
ĠdÃ©velo pper
Ġdob ra
ĠK oÅĽci
Ġcomp lÃ©ment
Ġan zi
I k
Ġz ob
Ġb ÄħdÅº
ãĤĴ åĲ«
schaft s
Ð¾Ð» Ñĭ
Ġad d
ar mente
IN T
Ġe aux
Ġ(" #
Ġme chani
Ġtr ening
an ca
Ġsal a
ĠL AS
ut ri
ĠÐĺÐ¼ ÐµÐ½Ð½Ð¾
ĠÐ¿Ð¾ÑĢÑıÐ´ ÐºÐµ
ĠãģĿãģĨ ãģĦãģĨ
ãģĮ å¢Ĺ
ĠMe d
ĠÐ¾ ÑĢÑĥÐ¶
Ã¤t zen
Ð¼ Ð¾Ð½
Ġt wÃ³r
Ġkolej ne
ÃŃs tico
Ġaccom pagn
Ġæĸ° åĵģ
ç« ł
Ġinternation ale
ĠÐ²Ð°Ð» ÑİÑĤ
ĠÑģÑĤ ÑĢÐ°ÑĤÐµÐ³
ĠÐ¿Ð¾Ð¿ ÑĭÑĤ
Ġlu dz
å£ Ĭ
Ġkwes ti
Ġpozy tyw
Ġvuel ta
I TA
en zia
Ġfil les
cula tion
Ġtá» ©
ĠÐ¿ÑĢÐ¸Ð¼ÐµÐ½ ÐµÐ½Ð¸Ñı
ĠW ett
Ġl iens
ĠÑģÐ°Ð¼ Ð¾Ð¹
ec u
Ġin nym
Ġ8 9
eure usement
ãģı ãĤī
é«ĺ ãģı
ĠÃ©po ca
ĠF it
Ġph arma
ĠM onde
Ġsch reiben
Ġsi x
ĠÐ³Ð¾ÑĢ ÑıÑĩ
ĠWo j
æĻĤ ãģ¯
ãģ®ç ¾
ĠKomm unika
Ġil oÅĽÄĩ
ĠcinÃ© ma
ĠÑģ Ð°Ð½
æĭ ł
Ã Ļ
Ã© t
un cio
ti dos
ĠEr st
ĠÃ¼ber haupt
ĠL et
Ġde in
Ġauf grund
de ment
kt ury
li minar
Ġexpos ition
ĠÐ´Ð°Ð½ Ð½ÑĭÐ¼
ĠTut to
Ġros so
Ġpri me
ane k
bex _
Ġval ores
ÑĭÐ² Ð°Ð½Ð¸Ñı
Ġrela zione
Ġg oÅĽci
ĠGu a
ti endo
Ġconten uti
ĠG ente
Ġv entas
Ġsu puesto
sz enie
Ġse pt
Ã¡ veis
Ġpodr Ã¡s
Ġp si
Ġeconom ÃŃa
ĠprÃ©sent ation
Ġc oupe
s itÃ©
Ġcal cio
Ġsab ato
U M
Ġ\" ,\"
Ġwysz uki
Ġtrova to
Ġnajm niej
ãĥĪ ãĥŃ
ÑĥÐ» Ð°
in ts
g ine
Ã³ m
ĠQu al
Ġprogram mes
Ġg os
la Ã§Ã£o
ĠE is
ĠVe di
Ġoc chi
Ġal quiler
Ð°Ð» Ð»
ĠP ues
EN TE
Ġb anda
Ġinforma tique
Ġalle z
gna to
Ġå¤ ı
Ġwor k
ĠFran cia
Ġins besondere
ĠB onne
Ġparfa itement
Ð°Ð» Ð¸Ñı
Ġdess in
Ġ9 6
Ġca fÃ©
ow anym
ĠÐ¿ÑĥÑĤ Ð¸
Ġc n
è ®
æĶ »
ĠE lles
ĠO der
we gs
Ġ19 4
ÑģÑĤÐ² ÑĥÐµÑĤ
Ġs ÅĤy
Ġng Ãłnh
Ġllam ado
rit te
Ñģ Ñĭ
via mente
ĠÐ² Ð¾Ð²
Ġprog etti
ines e
era i
Ġchi ff
Ġprof il
ĠÃ©qui pes
ĠrÃ©p onses
f ano
ci ano
æ£ ļ
ãĤ¦ãĤ§ ãĤ¢
å¯¾ è±¡
Ġemp fehlen
ĠL eit
Ġk osten
ĠFahrze ug
Ġanni versaire
Ġpe qu
Ð¾ ÐµÐ²
os en
fi kow
ãĤĬ è¿Ķ
Ġcre aciÃ³n
ĠEs tos
to ff
ĠAut res
gram me
Ġtari f
Ġver a
Ġer ne
Ġpicco li
ï¾ Ŀ
éĬĢ è¡Į
de d
en cie
iá»ĩ p
Ġmode le
Ġbud get
Ð¸ÑĢÐ¾Ð²Ð°Ð½ Ð½ÑĭÐµ
ĠMas ch
ann ten
ĠJ eux
ĠÐłÐµÑģÐ¿ÑĥÐ±Ð»Ð¸ ÐºÐ¸
ĠÑħÐ¾ÑĤ ÐµÐ»
ĠÐ´ Ð°ÐµÑĤ
ç ı
Ġéĥ ¨
ĠãĤ¦ ãĤ§
Ġtiemp os
Ġnot wendi
Ð°ÑİÑī ÐµÐ³Ð¾
Ġau mento
Ġfunktion iert
Ġm ostrar
Ġpro vo
ali zacja
Ġb iá»ĥu
ĠR ichtung
ĠÐ¸Ð³ ÑĢÑĥÑĪ
Ð¿ÑĢ ÐµÑģÑģ
Ð¸Ð½ ÐºÐ°
ĠÑĩ Ð¸ÑĤÐ°ÑĤÑĮ
ĠWy b
Ġw obec
Ġãĥģ ãĥ£
Ġman iera
Ñİ ÑģÑĮ
Ð¸ÑĢÐ¾Ð²Ð°Ð½ Ð½ÑĭÑħ
Ġhab la
Ð¸ÑĢÐ¾Ð² Ð°ÑĤÑĮÑģÑı
it ano
Ġ$( "
ãĤ½ ãĥķãĥĪ
ĠF C
r Ã¼
Ġpod kre
L 2
Ġzna cznie
ĠãĤĤ ãģ£ãģ¨
ĠB R
ĠA jouter
F A
Ġsecon de
ĠÐ³ ÐµÑĢÐ¾
Ðº ÑĥÑĤ
ĠÐ¿ÑĢÐ¸ Ð±Ð¾ÑĢ
åķı ãģĦ
Ġdifer ente
Ġmondia le
ĠÐµ ÑģÑĤÐµÑģÑĤÐ²
åı¯èĥ½ ãģ§ãģĻ
Ġwy peÅĤ
ĠTe xt
ĠÑģÑĤ Ð¸Ñħ
ĠÐŁÑĢ Ð¾Ð³ÑĢÐ°Ð¼
ĠÐ½Ð¸Ðº ÑĤÐ¾
om et
Ġmar cha
Ġjue ves
f icas
ĠÐ°Ð» ÐºÐ¾Ð³
Ġer es
m ados
ãĤ³ ãĥ¼ãĥī
¥½ ãģĹ
Ġro pa
ĠÐ£ÐºÑĢÐ° Ð¸Ð½Ð°
ĠÐ¡Ð Ĭ
Ð¸ÑĤ Ð°ÑĢ
Ð°ÑĤÐ¾ÑĢ Ð¾Ð²
Ð°Ð¹ÑĤ ÐµÑģÑĮ
Þ¨ Þ
ĠH á»Ļi
ier ungs
Ġb oule
Ġjug adores
Ġla isse
Ġco Ã»t
ĠÃ¢ m
Ġnatur ales
ĠGemein de
ĠÐĵ Ð¾ÑĢÐ¾Ð´
Ġarri va
Ġcr isi
z ig
Ġbou tique
Ġb ientÃ´t
Ġa it
Ð°ÑĤÐµÐ»ÑĮ Ð½ÑĭÐ¹
åĪ °
ĠÐŁÑĢ Ð¸Ñĩ
ĠÐ½Ðµ Ð¸Ð·
Ġdistin tos
ĠÐ½Ð°ÑģÐµÐ» ÐµÐ½Ð¸Ñı
res si
k rÃ¤
w any
åĢ «
Ġvaluta zione
ce u
ãĥ³ãĥ ŀ
Ġcom peti
ges sen
pozy cji
ï¼ ¾
è¨Ń ç½®
ĠC ada
ĠM me
Ġvo ici
Ġpor ter
Ñĥ ÑģÑĤÑĮ
Ð³ Ð°Ð»
Ġr and
Ġide ale
ĠIs titu
ĠPres idente
Ġgio chi
er ia
Ġpo tr
ĠÃ©du cation
ĠÑģÐ¿ Ð°ÑģÐ¸Ð±Ð¾
ĠÑĢÐ°Ð· Ð½ÑĭÐµ
Ġbudy nku
Ġauto mÃ¡tica
klÃ¤r ung
Ġco llo
Ġzro zum
ãģ«å¯¾ ãģĻãĤĭ
áºŃ m
ĠC AR
Ġpl antas
Ġfour n
ĠBor sa
wor k
ĠÐ°Ðº Ñģ
Ġu043 5
Ð» ÐµÐ²
Ġord in
Ġdiri ge
ãģ©ãģĨ ãģĭ
ĠÑģÐ¾ÑĤÑĢÑĥÐ´ Ð½Ð¸Ñĩ
Ð¸ Ð°Ð½
Ġg ui
ĠMe er
ĠÑĤ ÐµÐºÑĥÑī
Ġsk ar
Ġæ £
Ġtr ib
ĠÐ²Ð¾Ð·Ð² ÑĢÐ°Ñī
Ġãģł ãģĭãĤī
è± Ĩ
ãģĮ åħ¥
ĠrÃ³Å¼ ne
Ġ1 px
ĵ į
ĠÄĲ Ã´ng
ve d
Ġconsi glia
á» ³
z co
iel o
Ġcha uf
ĠmÃ© moire
ĠÐ½ÐµÑģÐºÐ¾Ð»ÑĮ ÐºÐ¸Ñħ
Ġè² ©
Ġæ¶ Ī
ĠFir men
ĠBes onder
ĠiP hone
åħ «
ĠçĽ¸ åł´
æİ² è¼ī
Ġav ance
ĠãĤ¦ ãĤ©
ĠE ben
ÑĮ ÑĪÐµ
èĪ ŀ
Ð¸ ÐµÐ½ÑĤ
Ġ\":\" ^
}, {\"
YW1l Ijoi
Ġnie mie
Ġges ehen
Ã¼s se
ĠdÃ©ta ils
ĠO ra
de ur
Ġens eign
åĩº ãģ¦
ãģ® ãģŁãĤģãģ«
tr itt
Ġentra Ã®
ÐµÑĢÐ¸Ð½ Ð±ÑĥÑĢÐ³
Ð² ÑĭÐµ
Ġgratu ito
Ġele menti
ĠO l
ub likow
s tar
Ð± ÐµÑĢ
ĠÑĥÑģÑĤÑĢÐ¾Ð¹ ÑģÑĤÐ²Ð°
l ak
cor si
Ġsicura mente
ĠÐ¸Ð½ Ð¾Ð³Ð´Ð°
Ġaccor do
Ġæľ¬ å½ĵãģ«
Ġdi ag
å¹´ éĸĵ
ĠcomplÃ¨ te
Ġ6 1
ĠÃ©v ent
ĠnastÄĻp nie
Ġab and
ĠD ist
ĠÐ¡Ð ĥ
Ð¾Ð² Ð¾Ð´
li za
L H
Ġâĺ ı
Ġs ka
Ġmit tel
Ð» ÑĥÐ¶
Ġposs iamo
v ola
ĠPri v
ĠgÃ©nÃ©ra lement
U T
Ġpicc ola
ĠÐ¸Ð¼ ÐµÐ½Ð¸
Ġexemp lo
ãĥ¼ãĤ¶ ãĥ¼
ĠÑĤÐµÐ» Ð°
» å®ļ
ãģķãĤĮ ãģ¾ãģĹãģŁ
Å ĥ
Ġrep rez
Ġener gii
Ġdi ario
zei gt
ĠÑĢÐµÐ°Ð»Ð¸Ð· Ð°ÑĨÐ¸Ð¸
ĠÐŃ Ð½
ĠX em
ĠÄĳ áº¡t
Ġse c
st ler
gie m
ĠÐĲÑĢ ÑĤ
Ã£ os
Ġreali za
Ġdru Å¼y
Ġm ost
ĠC osta
ta dor
Ðľ ÐĲ
ĠÐ½ÐµÐ´ ÐµÐ»Ñİ
ĠSta d
os s
ĠÐĲÑĢ Ñħ
Ġap re
yste me
und ert
p rÃ©
Ġenci ma
l ant
Ġ8 00
ĠÐ½Ð°Ð»Ð¸Ñĩ Ð¸Ðµ
ĠÐ¢ Ñĭ
Ð¸Ðº Ð¾Ð¼
Ġparla re
Ġvo z
ĠR us
Ð¡Ð¡ Ðł
Ð°ÑĤÐµÐ»ÑĮ Ð½Ð¾Ð¹
gen ti
3 00
Ġprin cipe
Ġst anno
Ġu lub
ĠÑģÐ¾Ð·Ð´ Ð°ÑĤÑĮ
Ġth áº§n
ĠÐ·Ð°Ð¿ ÑĢ
Ġra ff
ĠL is
Ġal ko
Ġre par
ĠdÃ©velo pp
cion ados
ĠÐļÐ¾Ð¼Ð¿ Ð°Ð½Ð¸Ñı
ĠK ata
Ġznaj dzie
use o
ĠwyÅĤÄħ cznie
ĠÐ²Ð¸Ð´ Ð¾Ð²
Ġcaratter i
Ġpo cos
Ġverw enden
Ġani males
Ġbeau tÃ©
ÐµÑģÑĤ Ð¸Ð²
Ġsuper iore
Ġimp re
Ġest ra
Ã¤nder t
Ð¾ÑĤ Ð²Ð¾ÑĢ
ĠÂµÃ Ħ
ĠdÆ°á» ¡ng
ĠSer ie
roy eur
Ġm ou
ĠÐ¾ÑĤ ÑĩÐµÑĤ
ĠÐ±Ð»Ð¸Ð¶ Ð°Ð¹
ãģ¨ãĤĤ ãģ«
ver stÃ¤n
Ġoffi ciel
ÑĢ Ð³
Ġgodzin y
ĠLi ve
ĠEn tr
ĠEsp ana
Ġac tri
Ġviol encia
Ġpes os
Ġal cal
ica l
Ð¿Ð» Ð°Ñĩ
ĠÑģÐ»ÑĥÑĩÐ°Ñı Ñħ
ĠMe tall
ĠÐļ Ð½Ð¸
ÑĦ Ð°
ĠÑħÐ¾ÑĤ Ð¸ÑĤÐµ
ãģ§ãģį ãģ¾ãģĽãĤĵ
Ġory gin
Ġdá»¥ c
Ġ" ]
une hmen
ÅĤa ch
Ġdetta gli
Ġgarant ie
Ġdi x
ĠÐ¥ Ð¾ÑĢÐ¾ÑĪ
ĠÐľ ÑĥÐ¶
an ymi
ĠãģĿ ãģ®å¾Į
Ġg ordas
ĠInstitu to
Ġcam a
ĠÐ§ Ð¸ÑĤÐ°ÑĤÑĮ
Ġ% .
ĠÑģÐ¾Ð¾Ð±Ñī Ð°ÐµÑĤ
ĠÐŁ Ð¾Ð±
Ġgr und
ĠÐĺ Ñİ
Ġfun zione
ĠÐ¿Ð°Ð¼ÑıÑĤ Ð¸
Ġjorn ada
Ġcontrar io
sa ciÃ³n
ÑĬ ÐµÐºÑĤ
ĠÐ¿ÐµÑĢÐ² Ð¾Ð³Ð¾
æ¸ ħ
åı¤ å±ĭ
åĪĿ ãĤģãģ¦
Ġcu á»ĳi
Ġexper i
zie hen
Ġdiff icol
Ġsel ber
Ġmit t
masch ine
za hlen
ĠÐ¾Ð±ÑĥÑĩ ÐµÐ½Ð¸Ñı
Ġprze cieÅ¼
ĠuÅ¼ytkow nikÃ³w
ĠLe er
Ġtrabaj os
ta us
or Ã©
Ġrem ise
ĠN icol
ĠA F
Ġb ri
Ð¾ÑģÑĤÑĮ Ñİ
Ġavre bbe
ãĤĤãģ® ãģ¯
ĠV este
ĠM essage
cula ire
Ġbef ore
ç £
f S
Ġkon cer
Ġten iendo
ãĥ¬ ãĥĥãĥī
ĠD ÃŃa
p are
Ġrapp el
st anden
Ġemple o
kar ten
Ġliber tÃ©
Ġit p
ala v
ro om
Ġutili za
ĠPro v
ĠP uis
åı£ ãĤ³ãĥŁ
ãĥĸ ãĥŃ
Ġwo jewÃ³dz
Ġo to
ĠCh á»§
ĠP unkte
ann es
Ð¡Ð ĥ
ĠÐĹ Ð°Ð´
une dÃ¬
ãģªãģ© ãĤĴ
P R
ĠB E
y e
Ã©r ences
ĠÐĲÐ² ÑĤÐ¾Ð¼
ĠÐ¿ÐµÑĢÐ² ÑĥÑİ
Ġpo cz
ä¿Ŀ èŃ·
ĠdÃ©mo cra
ĠdÃ© di
a p
ĠÐ²ÐµÐ´ ÑĥÑī
m uo
Ġch Æ°Æ¡ng
ãĥ¼ãĤ¹ ãĥĪ
ĠrÃ© cup
ÑģÐº Ð¸Ð¼Ð¸
ĠO ption
ĠAlle magne
Ġsupp orto
er y
Ġnapis aÅĤ
owie c
Ġconse jos
Ġcategor ÃŃa
Ġoc cupa
åĪ »
ĠDaz u
Ġliv ro
ĠR am
ĠÃ¡ m
ĠUm welt
ĠFuÃŁ ball
itu ation
ĠrÃ©alis Ã©
Ġav anti
ces oria
Ġpien iÄħ
Ġè¡ Į
Ġlu jo
Ġprocha ine
ĠÑģÐ» Ð°Ð±
ni cze
Ġæ² ĸç¸Ħ
Ġåı ¯
ĠP en
ori os
ĠTh omas
ĠMitglie der
Ġviv ere
å¤§ åĪĩ
gi as
Ġpresenta ciÃ³n
ri ert
ãģĦãģ¦ ãĤĤ
Ad visor
Ġadel ante
Ġinter ro
Ħ ª
ĠÐ¿Ð¾ÑģÐ»ÐµÐ´ Ð½Ð¸Ðµ
el ho
Ġsta ra
ĠF ue
Ġa voca
Ġlas cia
Ġprofession ale
ĠCon di
te o
Ġapplica zione
e le
ĠRab att
Ã³ le
Ġver ein
OR I
Ġver rÃł
ia m
ĠS aison
çĶŁ ãģ¾
S A
Ġaff ec
ch aÄĩ
Ġcas ero
Ġcar Ã¡cter
ĠÑĢ ÐµÐ¹ÑĤÐ¸Ð½Ð³
Ð¾ÑĢ Ð¸Ð¹
Ġli bero
Ġfa vore
pr Ã³
ĠT á»«
ĠLie b
pi as
ÐµÐ² Ð¾Ð³Ð¾
ĠÐ± Ð¸Ð±Ð»Ð¸Ð¾ÑĤ
tiv itÃł
ĠÃ© t
ĠS UR
Ġa che
ĠÑģÐ°Ð¼ Ð¾
ita to
ãģ® ãĤ¹
ĠS telle
cyj nym
Ġch á»©
ll s
Ġ200 2
onc tions
ĠÐĳÐµÑģ Ð¿Ð»Ð°ÑĤ
ĠÐ¤ Ð¸Ð»ÑĮ
ĠÐºÐ¾Ð½ÑĤÑĢ Ð¾Ð»
M C
ĠP raw
or ÃŃa
Ġb ringt
ĠUnterstÃ¼tz ung
ĠÐ¸Ð³ ÑĢÑĥ
Ġtras forma
ty cznej
nict wo
Ġali mentation
Ġ8 8
Ã¨ se
ĠÑģ Ð°Ñħ
Ð¼ÐµÐ½ÑĤ Ð°ÑĢÐ¸ÐµÐ²
c H
Ġwybra Äĩ
èĢ ģ
ãĥ³ãĥĲ ãĥ¼
ĠÐ·Ð½ Ð°ÑĤÑĮ
ĠA lla
Ġå®Ł éļĽ
Ġper dre
ĠdÃ©couver te
Ġinsta laciones
Ġgew esen
Ð°ÑİÑī Ð¸Ð¼
ĠÐ¿Ð¾ÑģÐ² ÑıÑī
Ġper dita
ĠE so
Ġb iblio
Ð¸ÑĢÐ¾Ð²Ð°Ð½ Ð½ÑĭÐ¹
ĠSand ales
ĠM ON
Ġcontri bu
Ð¸Ð² Ð½ÑĭÐµ
Ð°ÑĤ Ð¾Ð¼
ob en
ĠÐ¿ÑĢÐµÐ·Ð¸Ð´ ÐµÐ½ÑĤ
ĠIn cont
Ġdecis o
Ġcze mu
Ãł u
N I
Ġza trzym
Ġ9 8
ta bles
ĠÐºÐ½Ð¸Ð³ Ñĥ
Ġsim ili
ĠCub a
Ġbra ucht
ki es
ĠÃ©vÃ© nement
ĠÐ¢Ð°Ðº Ð¸Ð¼
ĠA quÃŃ
ĠpeÅĤ ni
ãĥ³ãĥ ľ
c Ã³n
Ð¸ÑģÑĤ ÐµÐ¼Ñĥ
Ġca po
Ġv ÃŃa
Ġdecl ar
ĠÐ¸Ñģ ÑħÐ¾Ð´
Ġob ja
ĠKÃ¶l n
Ġter mes
Ġb ÅĤ
Ã³ ÅĤy
Ġpol it
Ġf Ãªte
ĠÑĢÐ°Ð·Ð»Ð¸Ñĩ Ð½ÑĭÐµ
wnÄħ trz
æĮ Ļ
Ġch aleur
ĠAus bildung
sta hl
ĠhÃ¶ ch
g are
ĠI ma
ĠC ulo
is l
Ġsa int
Ġpart out
czÄĻÅĽcie j
ĠtÃ©c nica
Ġre ferencia
ĠZ eich
Ð¾ÑĤ Ðµ
c ana
an cio
ÃŃ cias
ĠSch lag
ttgar t
p lay
ĠWar um
Ġstra te
ĠEntschei dung
on ce
a ction
Ð½ Ð¾Ð´Ð°ÑĢ
ĠÑį Ð¼Ð¾
ĠÐŀÑĢ Ð³Ð°Ð½
Ġmie i
Ġso ftware
Ġvo ce
ĠvidÃ© os
Ġdimen sioni
ĠÐĲ Ð¼
ç¸ ®
es tion
ĠÐºÐ¾Ñģ Ð¼ÐµÑĤ
Ð½Ð¸Ðº Ðµ
ĠÐ¿ÑĢÐ¸Ñĩ Ð¸Ð½
ç§ °
ĠÐ²ÐµÑĢ Ð¾
ctri que
Ġde mi
ĠP aw
ĠB ia
Ġ( -
Ġwar szta
Ġpiel ÄĻ
ĠL Ã¶
ĠK siÄħÅ¼
K O
Ġent Ã£o
tow ym
ĠCong reso
ĠS icht
Ġo vvero
ĠCom par
i z
Ġex tran
Ġc ach
Ðļ Ðĺ
ĠÐ¿ ÑıÑĤÑĮ
Ġzoba czyÄĩ
0 7
è¿½ åĬł
ĠDaten schutz
sch au
Ġapplica tions
ĠSchlaf zimmer
da te
Ġfre und
Ġander em
ÐµÐº Ðµ
Ġreg ul
Ġf atti
ç´ Ķ
Ġdi ab
ort es
end as
ĠMar c
Ġdou che
Ġcha p
ni er
Ġa cier
per a
ero p
s uch
Ã¨ che
Ġv aleurs
Ġpla ces
Ġsing le
Ġpubb lici
ĠCh ies
Ġch cesz
ãģĶ ãģ¨
ig ar
ÐµÐ´ ÑĢ
ĠÑį Ð¼
ĠÐºÐ¾Ð½Ðº ÑĥÑĢ
ĠdÃ© fin
ig u
Ġf lu
ĠW Ã¤hrend
Ð¸ÑĤÐµÐ»ÑĮ Ð½Ð°Ñı
Ð´Ð° ÑİÑĤ
un itÃł
tica mente
Ġãĥ» ãĥ»
çµ µ
esz ka
ãĤĴè¡Į ãģĨ
ãģ® ãĤµ
Ġal can
at Ã³w
åĪĨ ãģĳ
Ġca ta
Ġartis an
Ġv entes
Ġf lo
ĠÑĤ Ð°Ð¹
ä¼ģ çĶ»
ī å¼·
ĠÐº Ð°ÑĦ
éĩĳ é¡į
åĪ ¸
N H
Ġc áº¡nh
ÑĨÐ¸Ð¾Ð½ Ð½Ð¾Ð¹
ĠÐĵ Ð¾Ð»
Ġa jou
heit en
ĠÐ´ÐµÑıÑĤÐµÐ»ÑĮ Ð½Ð¾ÑģÑĤÑĮ
ĠÑĪÐºÐ¾Ð» Ñĭ
EN TI
Ġri fi
ang es
Wx s
ia t
IL L
Ġat tri
ĠÐ·Ð°ÐºÐ°Ð· Ð°ÑĤÑĮ
ĠÑĢ ÐµÐ¼
ĠÐ¿Ð¾Ñħ Ð¾Ð¶
Ġin nego
ĠM Ãªme
Ġrin no
k g
pon di
Ġraggiung ere
r Äħ
ĠÐ´Ð¾ÐºÑĥÐ¼ ÐµÐ½ÑĤÑĭ
Ġnie wiel
èĩ Ń
ĠâĢ¦ ãĢĤ
æİ¢ ãģĹ
( ^
Ġãĥ ł
Ġ Ã¡o
ĠNach richten
ĠÐŁ Ð¾Ð¿
Ġcompromis o
ĠÐĹ ÐµÐ¼
ãģ® å®Ł
Ġå¤ ľ
ĠT á»ķng
ĠEncont rar
Ã¡n do
Ġins tytu
D AD
ĠvÃŃ c
Ġref us
ĠÄĳo Ãłn
Ġer sch
ĠBei m
Ġado re
âĢ¦ ]
äºº éĸĵ
ä¸Ģç·Ĵ ãģ«
pp ing
Ġappro che
Ġassol uta
ten do
Ġarri vo
Ġpom aga
ãģªãģı ãģ¦ãĤĤ
Ġobje to
ĠChr ist
èħ ¹
la nge
E UR
ĠF abri
uss ie
z ji
çĸ ĳ
Ġluch a
Ġnivel es
ĠÐ¿Ð¾ÑĢ Ð°Ð¶
Ġherrami entas
re icht
ĠvÃ©hic ule
Ġpl ane
ĠS iamo
Ġtec nico
ĠSec ondo
ÐµÑī ÐµÐ½Ð¸Ñı
l Ã¶s
Æ ¯
ĠUS D
Ã¼ck en
Ġch aud
ç¾İ åĳ³
Ġï¼ Ĳ
Ġm s
Ġè£ ½
æĤª ãģĦ
åĬ Ł
á»§ y
ĠAn aly
Ġdeut sche
ĠÐł ÐµÐ·
ĠÐ²ÑĢÐµÐ¼ ÐµÐ½
Ġroz p
z enia
op le
Ġbus can
ĠF und
Ġno c
ci das
cul os
wus st
ĠÐĿ Ð°ÑĤ
ĠÐĹ Ð°Ð²
ĠÐ¿ÑĢÐ¸Ð¼ÐµÑĢ Ð½Ð¾
k rank
ĠNicol as
tif ier
Ġjaz dy
Ġæ ¤ľ
Ġåĩº ä¼ļãģĦ
å¿ Ĺ
éĢ± éĸĵ
ÃŁ t
ĠNo t
Ġjedno czeÅĽnie
ĠAy untamiento
Ġac to
ĠHo teles
Ġun idad
p in
ĠNg Ãły
Ġwyso kiej
äºº ãģ§
Ġenferme dad
gru ppe
Ġretr ouve
Ġp au
na t
ĠS ci
ãĥ« ãĥ¡
ĠÐ¼ÐµÐ± ÐµÐ»ÑĮ
ĠÐ´Ð¾ÑĢ Ð¾Ð¶
va cy
Ġrisor se
Ġca pelli
Ġamp io
Ġaj ud
Ġsp ese
ä½į ç½®
Ġt Æ°á»Łng
Ġde fin
ĠAd resse
Ġtrans f
Ġk oÅĽci
ĠGe m
ÐĴ Ðŀ
ĠÑĢÐ°Ð½ ÑĮÑĪÐµ
IC O
Ġinver siÃ³n
Ġin trodu
ĠHand y
ĠHa ar
ĠLeist ungs
p Z
O d
Ġw ita
Ġs ow
Ð½ ÐµÐ¿
ĠÑĩ ÑĥÐ´
ca mi
ĠCas as
ĠÐĲ ÐºÑĤ
Ñ ĵ
Ð»ÐµÐ½ Ð½ÑĭÐ¹
Ġcon ex
Ġfam iglie
Ġbede utet
Ġsi gna
Ð²ÐµÑģÑĤ Ð¸
ĠÑħ Ð¾Ð´Ðµ
ãģĶãģĸ ãģĦãģ¾ãģĹãģŁ
ãģ¿ãģŁãģĦ ãģª
ĠãĤ· ãĥ«
è ¤ĩ
Ġexcell ent
ĠÐºÑĢÐ¾Ð² Ð¸
ĠÐ±Ð¾Ð»ÑĮÑĪ Ð¾Ðµ
ist Ã³w
ĠeconÃ³mi co
Ġâ Ĥ
ĠÐ¼Ð°ÑĤÐµÑĢÐ¸ Ð°Ð»Ð°
ÑģÑĤÐ²ÐµÐ½ Ð½Ð¾Ð³Ð¾
ĠÐŁ Ð¾Ð²
ĠÐľ ÐµÐ½
ĠÐ½ÐµÐ¾Ð±ÑħÐ¾Ð´Ð¸Ð¼ Ð¾ÑģÑĤÐ¸
Ġop in
áº µ
m ne
Ġsur pr
Ġinf os
Ġder riÃ¨re
Ġce pendant
ĠÐ¼ Ð¾Ð·
Ġcompos to
ãĥĨãĤ£ ãĥ³ãĤ°
Ġdoc umento
Ġcent ral
ãĤ± ãĤ¢
ãģ®ç ·
Ġgiov ane
ĠR ag
Ġris par
ĠMona te
Ġbas se
ĠÐ» ÑĮ
Ã³ sito
Ġrice vere
t ny
Ġsecon d
ion o
ri gen
ĠãĤ¹ãĥ¼ãĥĳ ãĥ¼
ĠrÃ©alis ation
Ġç· ı
æŀ Ĺ
ĠÃŃ t
min ist
Ġreali zado
ba ck
ĠF ak
Ġposs Ã¨de
Ġdor mi
ĠJu lio
Ġv id
Ġpor table
Ġmodi fier
Ġmateria le
Ġpa cientes
ĠEr satz
y l
Ġjewe ils
ĠÑģÑĥÐ´ ÐµÐ±
ĠRo y
Ġèª °
Ġçī ©
Ġdistin tas
Ġzesta w
organi z
ĠM eth
Ã©r itÃ©
ĠÑģÑĤ Ð°Ð´
ï¼ ¬
Ġåıİ ç´į
ĠãĤªãĥ³ ãĥ©ãĤ¤ãĥ³
9 2
Ġpo tent
ĠÐ¿ÑĢÐµÐ´Ð¿ Ð¾Ñĩ
Ġar ticoli
Ñī Ð¸ÐºÐ¾Ð²
Ġau ton
Ġ Ï
å®ī ãģĦ
ãĥ¼ãĥĬ ãĥ¼
ãĤ¸ ãĤ¢
ĠP ic
ĠÑĨ ÐµÐ½ÑĤÑĢÐ°
Ġquestion e
Ġdire cto
ĠKre dit
Ġt Ã£o
ier to
ken nen
ĠpolÃŃ ticas
Ġen viar
Ġjo li
ain es
ĠÐľ Ð¾ÑĢ
or u
ãģĭ ãģ¨
Ġcl ara
ĠEs cri
Ġs om
ĠÐ±Ð°Ð½ Ðº
ĠPow er
Ã¤ ger
Ġwar um
åŃĲ ä¾Ľ
ÐµÐ² Ð°Ñı
Ġprin ci
Ġp Ã©r
ĠL eu
ĠÐ²Ðº Ð»Ð°Ð´
Ð¾Ð² Ð¸Ñĩ
ĠÐŁ Ð¾Ð½
ĠÐ´Ð°Ð½ Ð½Ð¾Ð³Ð¾
ĠbÄĻdzie my
r ych
ĠespaÃ± ola
ĠF ait
Ġcomp on
iss ante
Ġi eri
sa zione
ãģ® ãĤ¨
auto maten
ĠUnternehmen s
ĠIde e
ĠÐ²Ð¿ ÐµÑĩÐ°ÑĤ
ĠÐ¼Ð½Ð¾Ð¶ ÐµÑģÑĤÐ²Ð¾
Ġri du
Ġpre p
h inder
Ġf aute
Ġcon sa
Ġcommer cial
Ġx á»Ń
Ġb all
Ã¤ tig
c Ã©s
Ġli Ã©s
Ġ ãģĦãģĦ
ç© ´
Ġb our
Ġanci enne
ĠÐĴÐ¸Ð´Ðµ Ð¾
ĠÐ·Ð°Ñī Ð¸Ñī
Ġin da
Ġjo go
Ġde k
Ð² Ð¾Ð¹
mÃ¶glich keiten
ger Ã¤te
ĠÐŁÐ¾Ð´ÑĢÐ¾Ð± Ð½ÐµÐµ
ĠÐ½ÐµÐ¿ Ð¾ÑģÑĢÐµÐ´
ãģ® é«ĺ
Ġtá»ķ ng
ĠSt rom
Ġn este
Ġca ÅĤej
Ġfun ciones
ĠBl ut
ĠMont rÃ©al
ĠDerni Ã¨re
ong e
Ġal gu
od ni
Ġç ²
èĦ Ĥ
åºĹ èĪĹ
ĠnÃ©ces saires
ĠÐ» ÐµÐ¶
ä¹Ĺ ãĤĬ
Ġd on
ĠPer Ãº
Ð² Ð¸Ð³
Ġterm ini
Ġcl ases
Ġ[ âĢ¦]
Ġme ist
ta in
m ine
Ġsa Ãºde
Ġngu á»ĵn
Ġouv rir
ĠNutz ung
Ġer reur
ĠN ombre
ĠÑĢÑĭÐ½ ÐºÐ°
ĠÐĸ ÐµÐ»
ĠÑĪ Ð°ÑĢ
ãĥĳ ãĥĥãĤ¯
ãĤ¸ ãĥ§
ĠJ orge
Ġp ais
Ġse zione
ĠG rigio
ga te
ĠSch o
ĠM ic
ĠCha que
ĠÑĤ Ð¾Ð¹
Ġza czÄĻ
Ġæķ Ļ
Ġrice v
ĠÐ¾ÑĤÐ½Ð¾ÑĪ ÐµÐ½Ð¸Ð¸
r ando
Ġcol om
Ġvia jes
ĠO st
ĠãģĿãĤĮ ãģ«
Ġv m
Ġç¶ļãģį ãĤĴèªŃãĤĢ
ĠåĲ Ī
Ġsimp les
ãģ¨æĢĿ ãģ£ãģ¦
çľ ł
ĠSch ritt
haus en
ĠEnt wick
ĠÐ½ÐµÐ´ ÐµÐ»Ð¸
Ġregar der
ĠÐ¸ÑģÑĤ Ð¾ÑĢÐ¸Ñı
Ġpowin na
ĠRo t
ĠDeut schen
Ġpotr Ãł
ĠNh áºŃt
ĠÐ´Ð¾Ð³Ð¾Ð²Ð¾ÑĢ Ð°
ĠÑģÐ¾Ð± Ð»ÑİÐ´
Ġparti ta
Ġn esta
ĠUni wersy
Ġéħ į
ĠåĨ Ĩ
çĻº éĢģ
æľī åĲį
Ã¤ hl
ĠmÃ©th ode
Ġau rez
g re
Ġadministra tion
Ġservi Ã§o
Ġrend u
con e
ĠÑĢ ÐµÐ²
Ġop ere
Ġmo tor
ĠMi eszk
ĠM ari
prÃ³ cz
Ġmessa ges
aria t
ĠhÃ©si tez
Ġarri ver
ĠÐĵ Ð¾ÑģÑĥÐ´Ð°ÑĢ
Ġg a
rar se
ÑĢÐ¾Ð¿ ÐµÐ¹
ĠA gen
ĠChies a
Ġge m
ĠW ahr
Ã¨ ces
Ġma je
zz ano
ĠR Ã¤
Ġrit ro
Ġalgum as
Ġges agt
Ġmieszk ania
Ġak cji
Ġi po
ĠKaÅ¼ dy
ãĥı ãĤ¤
Ġiden tific
ĠGr oupe
ĠB ern
Ġeffectu er
ĠÐ¿ÑĢÐ¸ÑĢ Ð¾Ð´
Ġr á»Ļng
Ġb ande
ĠMÃ¶glich keiten
ĠÑĨÐµÐ» Ð¾Ð¼
ĠBan co
Ġvis it
ĠRÃ©s ul
c ount
na ires
ĠÑģÐµÐ¼ ÑĮÐ¸
ĠKir che
ĠFir ma
ĠÐ¿ÐµÑĢ ÐµÑģÑĤ
Ġou tre
ĠÐ²Ð»Ð°Ð´ ÐµÐ»ÑĮ
is tico
Ġqui Ã©n
Ġj ard
ĠRei he
ĠMoÅ¼ na
Ġç İ
fÃ¼ hren
Ġfich iers
ĠcÃ© lÃ¨
Ñı ÑĢ
å°Ĥ çĶ¨
ĠÐ¡ Ð¸Ð¼
ist ente
Ġp ena
ei gen
Ġw idaÄĩ
Ġrodzin y
å®¶ æĹı
Ġinfor me
ĠprÃ¤ sen
Ð¶ Ð¸
GV y
Ġpoziom ie
ĠTe x
ĠÐ§ ÐµÑħ
Ð¸ÑĢÐ¾Ð² ÐºÐ°
ĠÐ´Ð¾Ð² ÐµÑĢ
ĠR hein
ĠMen sch
ĠÐĳ Ð°Ð»
ĠmoÅ¼ liwe
Ġa un
Ġpas so
Ġg ame
z ub
zia li
ç± į
ĠMod Ã¨le
ain t
ĠÃ© vo
m adz
Ġlu áºŃn
ak et
beding ungen
Ġto talement
Ð¸Ð½ Ð´
Ð°Ðº Ð¾Ð¼
Ġpr Ãª
ĠF oro
Ġsu cht
esso re
g ere
Ġod bior
Ġwy ja
Ġestre llas
ĠKin dern
con i
ĠX X
åį Ĵ
Ġfran ces
Ġèħ ķæĻĤè¨Ī
Ġtr ue
éĢģ ãĤĬ
na ch
Ġrespons abilitÃ©
Ġg á»ĵm
ĠE del
ĠB ack
Ġre chts
Ġmis es
Ġtwar zy
sz to
ĠporÃ³w n
leist ungen
Ġapp ara
ti llo
ont Ã©
ol ie
m ise
Ġretr ouv
æĬ ¼
ĠÐł Ð¾Ð´
Ġsu erte
ĠH ans
ver ein
ĠTeil nehmer
ãĥ© ãĥ³ãĤ¯
ti enten
ite z
Ġcontra tto
ãĤı ãģļ
Ġ/ ">
ĠÐ´Ð¾ÑģÑĤÐ°Ð² ÐºÐ°
ĠÑĤÐµÑħ Ð½Ð¸ÐºÐ¸
Ð¼ Ð°ÑĢ
ĠN U
enden ti
Ġpre Ã§o
h as
rÃ³ ciÄĩ
Ġpu ta
ĠRad io
Ġmol ino
Ġesta ban
ent ino
ĠDi men
Ġmode lli
ten za
Ġpreve de
ani que
ĠÑģ Ð¸ÑģÑĤÐµÐ¼Ñĥ
dzie la
um entos
A n
ĠF Ã¶rder
k Ã¼
ĠÐ¿ÑĢÐµÐ´Ð»Ð¾Ð¶ ÐµÐ½Ð¸Ñı
ĠrÃ©s ol
ĠÑĤÑĢÐµÐ± ÑĥÐµÑĤÑģÑı
b ÄĻ
000 åĨĨ
ãĤĤãģ® ãģĮ
Ġper fil
u Ã±a
Ġprue bas
Ġgesch rieben
Ġ ï¿¥
Ġãĥķ ãĥ¬
Ġc rit
ĠN om
Ġu003 c
Ã© der
ĠéĿ ŀ
Ġnego cios
Ġb lau
ĠSpielothe k
ĠMon tag
Ġv illa
Ġza tem
Ġwers ji
Ġw Äħ
ĠPla ta
ĠCo Ã±o
bi os
ĠÐŀ ÐºÑĤ
Ñĩ Ðµ
t ono
Ġprzy zna
ten ido
ER S
Ġmar tes
B ay
Ġna he
iss es
Ġl ud
Ġobje ctifs
çĦ¼ ãģį
ĠP M
ĠA zul
ngen ier
ãģĭãĤī ãĤĤ
er vi
ĠÐ¿ ÑĥÑģÑĤ
çµĤ äºĨ
ĠNa zionale
ĠO ffer
Ġimp osta
Ġthu Ãª
ĠdostÄĻp ne
ãģĲ ãĤīãģĦ
ãĤ¦ ãĤ£
Ġus e
Ġs etzen
te llen
ĠÐºÑĢÑĥÐ³ Ð»
ãĥ¦ ãĥĭ
anz as
ÑĢÐ¾ ÑĪ
Ġass istenza
Ġus er
çĪ ¶
Ġè²© å£²
ãĥ³ãĥ Ŀ
ĠB elle
ĠAn ti
ĠÑĦ ÑĢÐ°Ð½
t ano
ãĤ¸ ãĥĬãĥ«
ĠâĢ ķ
åĳ Ĥ
ä»¥ ä¸ĭ
Ġus ine
Ġminim um
Ġxu á»ĳng
Ġse lecciÃ³n
Ġmem oria
ie fer
ver gleich
Ġz da
º éºĹ
Ġæ´ Ĺ
Ġr ow
ãĤ· ãĥ¥
Ġhab ÃŃan
gang en
Ġlit tÃ©ra
Ŀ éĽ¢
Ġroz miar
Ġ] ,
is h
ĠÃ® le
s as
ĠÐ½Ð°ÑģÑĤÐ¾ÑıÑī ÐµÐµ
Ġjeste ÅĽ
Ġgewor den
Ġsu kien
kow ym
Ġerfolg reich
ĠEs pagne
Ġè² »çĶ¨
Ġç Ł³
Ġla ut
res sione
ĠLÃ¶s ung
id ÅĤ
ĠBas is
c Ã©es
Ġl Ã¡
Ġim g
Ġel se
ãģª ãģģ
ãģ®åľ °
ĠÐ´Ð¾Ð» Ð³Ð¾
di re
Ġro b
ĠMon at
ĠÐŃ ÑĤÐ°
ĠK rÃ³
AN S
Ġ8 3
b ec
Ġi denti
Ġfa ite
ĠBeit rÃ¤ge
il er
ĠprÃ©sent er
Ġen torno
este llt
Ġbekom mt
ĠÐĺÐ² Ð°Ð½Ð¾Ð²
ĠÐ´ Ð¸Ð²
ty ku
Ġinteres ante
ĠP ad
U rl
ĠpolÃŃ tico
Ġpis o
li gen
ĠÐ°Ð²ÑĤ Ð¾Ð±
ĠEst as
res e
tta re
Ġfru its
Ġph Ã¹
n om
ĠÑģ Ð¾Ð·
ĠS ign
ca ire
Ġna issance
ist Ãªncia
se m
ck ich
Ġde me
ĠE conom
Ġpia zza
en k
ĠSpiel en
Ġconte mpora
ĠPrÃ©s ident
ĠÐŁÑĢ Ð¸Ð²
ĠÑģÐ¸ÑģÑĤÐµÐ¼ Ðµ
Ġnecess itÃł
ãģĭ ãģ£ãģ¦
ĠC R
ad Ã©
Ġrec onn
Ñĥ Ð¿ÑĢ
am ica
Ġl ont
Ġd Ã¹
ĠCali ente
ĠAma teur
Ã¡n chez
lic Ã³
ĠÐĴ Ð¸ÑĤ
ĠÐº Ð°Ð¶ÐµÑĤÑģÑı
ĠÃŃ n
Ġpri vÃ©
ĠG I
ĠA mm
ĠC ina
ĠI talie
ĠÑįÐ»ÐµÐ¼ ÐµÐ½ÑĤ
m lich
ĠÐ² Ð²ÐµÐ´
Ġrela Ã§Ã£o
ĠwspÃ³ÅĤpra cy
Ð°Ð½ Ð½Ð¾Ð³Ð¾
w ÄĻ
k owaÄĩ
ãģ ĩ
ãĤ¦ ãĥ³ãĥī
Ġtom a
lis te
Ġge d
ĠW olf
Ġd pa
st ieg
ĠGu ide
ĠÃ©valu ation
Ġmod ern
Ġ Ĉ
æİ ¨
Ġgar der
Ġw ÅĤad
ĠRet our
ĠLiv raison
ini um
Ġsa uf
ĠÑĤ Ð¾ÑĩÐºÐ¸
Ġh echos
ĠDi nge
Ġfam illes
Ġspe ciale
åł± åĳĬ
ĠÑģÑĤÐ¾ Ð¸Ð¼Ð¾ÑģÑĤÐ¸
ĠÐŀ ÑģÑĤ
Ġra ggi
ĠA st
titu ciÃ³n
Ġde ver
ĠPon ad
os as
ĠÐļÐ¾Ð¼ Ð¼ÐµÐ½ÑĤÐ°ÑĢ
Ð¼ÐµÑĢ ÑĩÐµÑģÐº
ĠN Ãº
rÃŃ guez
Ġcent ros
rod ze
le a
Ġcar ga
Ġper fek
Ġdv 6
ĠM use
ĠLa urent
ĠG al
ĠÑħÐ¾Ñĩ Ñĥ
ĠÐĿÐ¾Ð² Ð¾ÑģÐ¸Ð±Ð¸ÑĢ
Ñį ÑĦÑĦ
Ð¾Ð²Ð°Ð½ Ñĭ
owa ÅĤy
sp l
ich ert
Ġcir cu
ãģ« ãģĹãģŁ
onn Ã©es
ĠÑĢ ÑĥÐ»
Ð°Ð» Ð¸ÑĤ
ĠÐŁ Ð¾ÑĢ
ĠÐ¿ÑĢÐ¾ÑĨÐµÑģÑģ Ðµ
ĠI f
Ġein igen
ĠÐ½ Ð¸Ð¼Ð¸
Ġma ga
ĠWWW _
prow adza
âĢ ķ
Ġãģ¨ ãģ¦ãĤĤ
Ġses iÃ³n
Ġmar cas
Ġrais ons
Ġpole ga
ãģĹãģ¾ ãģĹãĤĩãģĨ
ĠTrab ajo
Ġsuper fi
ĠÐ¼ Ð³
Ġpri vÃ©e
ĠÐ¶ÐµÐ½Ñī Ð¸Ð½Ñĭ
ĠÐ¿Ð¾Ð¿ Ð°Ð´
Ġde lika
Ġla it
Ġf iche
Ġt ellement
Ġpol skich
za Äĩ
ĠÐ²ÐµÑĢÐ¾ ÑıÑĤ
Ġpen ser
g ety
Ġbo hater
ĠN owy
e ÅĦ
Ġza jm
hÃ¤lt nis
ĠM om
Ġç Ĥ
Ġå ¦
è¿ °
vol le
ĠnÃ³ s
vi Ã³
Ġch ans
T T
Ġjus tice
Ġg Ã¡i
Ã ¿
Ġm Ã´
Ġvergang enen
ĠÑĥÑĩ Ð°ÑģÑĤÐ²
v amo
ĠV AT
cz noÅĽÄĩ
ĠSain te
Ġinter ven
ĠS im
Ġ6 00
Ġcommun es
Ġch ien
ĠF aire
Ġ7 3
las h
Ġmilli ards
Ġni mi
Ġlá»Ľ p
f eito
ir se
wei le
ĠSter ne
ĠÐ¿Ð» ÑİÑģ
ĠÑģÐµÐº ÑĢÐµÑĤ
ta menti
ĠT os
ra ta
Ġmas zyn
Ġby li
ĠÐ¿Ð¾Ð²ÑĭÑĪ ÐµÐ½Ð¸Ñı
ĠÐºÑĢ Ð°Ñı
wi esen
itz er
ĠÃ¡ gua
f ragen
ĠTh Ã©
Ġ" >
Ġchois i
L o
ĠÃ©lect ronique
Ġinsta ller
jou x
0 6
ĠÃ© mo
ĠOff i
ve aux
qu a
Ġdifficol tÃł
ĠD ol
Ġri Ãªng
Ġg al
Ġfor mes
Ġgr Ã¼n
ĠÑģÑħ ÐµÐ¼
ĠÑģÐ¸ÑĤÑĥ Ð°ÑĨÐ¸Ñı
Ġarri vare
Ġmak e
ĠAu teur
graph ique
ĠÐ¿Ð¾Ð¶ Ð°ÑĢ
Ġcent rale
5 k
ta ment
pe k
Ġpron to
ãĥģ ãĥ§
51 bG
Ġprz esz
Ġpregun tas
Ġtrava ille
Ð¾Ð³ Ð¾Ð´
ãģ¯ ãģĤãĤĬãģ¾ãģĽãĤĵ
Ġen ca
ĠÑģ Ð¾Ð¶
Ġc um
ĠÐĴ Ð¾ÑģÑĤ
i va
ĠIm mobilien
ĠO ct
on ique
Ġmo tivation
ĠÐ¾ÑģÑĤ ÑĢÐ¾Ð²
ĠãĤĦ ãģ¯ãĤĬ
éŃ ļ
Ġba ins
Ġ9 3
Ġè¡ ¨
is tique
ĠWo jewÃ³dz
Ġdz ia
ÅĤ ka
ĠEn d
ĠKli ma
ãģ¨ãģį ãģ«
op y
Ġza gro
ĠÄĳá»Ļ c
ĠC Ã¡
di os
ach sen
... )
ĠPre mier
ĠRod rÃŃguez
ĠA gu
ĠÃģ ng
ch ant
ĠprÃ©cÃ©d ent
ĠNa tale
le tti
Ġri pr
Ġreg istro
Ġen tier
ĠAbb iamo
t ino
Ġå°ĳ ãģĹ
è¡ Ľ
pr Ã¤ch
Ġgen ug
Ġs ale
Ġtrans por
Ġfi gli
Ġevi tare
lÃ© m
Ġh ow
ĠcrÃ© Ã©
Ġpowin no
ĠMein ung
Ġatten dre
æĻ ®éĢļ
ĠÐ±Ñĭ ÑĤ
Ðµ Ð¸
Ġcon vin
ĠZ ach
åī Ĭ
Ġobje tivos
Ġzap ro
Ġd ownload
ĠI r
ĠÐĳÐµÐ» Ð°ÑĢ
ĠÐ²ÐµÑī ÐµÑģÑĤÐ²
ãĥĥãĤ· ãĥ³ãĤ°
ãĥª ãĥ¥
é£ ¾
me ub
Ġv end
Ġent halten
ĠÄĲ á»ĵng
Ð¾ÑģÑĤ ÐµÐ¹
ĠSicherheit s
Ġconfor table
Ġpra k
Ġx in
ĠPra xis
Ġoeu vre
ĠmÃ© tier
ig ner
ĠÑģ Ð¾Ð³Ð»Ð°ÑĪ
Ġro ma
Ġni ente
Ġesigen ze
ãģ®å ¸
ĠL iste
ĠrÃ© par
Ġcine ma
Ġma ggiori
ĠpoÅĽ wiÄĻ
Ġconsom ma
ĠamÃ©rica in
° åĽ²
col at
Ġpartici per
ÅĤo ÅĦ
Ġpe ople
æĢĿ ãģĨ
ãĥ¡ ãĥ¼ãĤ«ãĥ¼
met ro
Ġvia jeros
ig keiten
Ġf roid
ĠÑĢÐ°ÑģÑģ ÑĩÐ¸ÑĤ
ĠÐĶ ÐµÐº
ĠÐ´ÑĢÑĥÐ· ÑĮÑı
åĤ ·
Ġve de
Ġso ggetti
ĠÑĩ ÑĥÑĤÑĮ
ĠA lÃ©m
ĠÐ¿Ð¾Ð´ ÑĢÐ°Ð·
ĠPa ese
Ġ2 C
**** ****
Ġfer me
Ġconcur r
m 51bG
Ġklu cz
Ġcono cido
Ġcaract Ã¨re
ĠTh á»ĭ
Ġeben so
ÑıÑī Ð¸Ðµ
ĠN IE
ĠK os
è¿Ķ ä¿¡
åī¤ å¸«
å¿ ĺ
u ty
ãĤ³ ãĥ¬
Ġç§ ĭ
Ġåį ³
ãĥĹãĥ¬ ãĤ¼ãĥ³ãĥĪ
0 2
ĠãĤ« ãĥ¼ãĥī
Ġåħ¨ åĽ½
æİĽ ãģĳ
Ġ= =
å£² åį´
å¦ »
ãģĭ ãĤĬãģ¾ãģĻ
Ġconfi anza
Ġinvest issement
Ġconf ig
va tions
ĠÑĤÑıÐ¶ ÐµÐ»
Ġm Ã´i
ĠStra ÃŁen
ĠÐ·Ð°ÑıÐ² Ð¸Ð»
ï¼ ¦
å¼ ¾
am p
Ġse ction
P ar
Ġli qu
ĠV all
rer as
mF s
Ġuzy sk
Ġbeste hen
Ġtor n
ãĤĴæ ıĲ
Ġl Ã£
ĠÑĦÐ¸Ð»ÑĮ Ð¼Ñĭ
ĠÐļÐ°Ð· Ð°Ñħ
Ñı ÑİÑĤÑģÑı
ĠL etz
Ġapp elle
ĠÑģÑĤ Ð¸Ð»ÑĮ
ĠÑģ ÐºÐ°Ñĩ
Ġjak oÅĽÄĩ
ĠÐ²Ð¾Ðº ÑĢÑĥÐ³
ud Wxs
bi es
t nych
B A
Ã¡s tico
ĠJa vier
Ġresul ta
sz eit
ãĤĴ ãģĹãģŁ
ĠGr Ã¢ce
ãģ®å ķıé¡Į
ĠÃ Ľ
Ġv áºŃn
Ġdom icilio
Ġcas as
ĠDesarro llo
est ro
ra ges
Ġx videos
ĠM unicip
enez ol
Ġfiles_ 6
r and
Vs b
Ġdro gi
Ġ() {
ron y
Ġn ouvel
ĠÑĥÐ¿ Ð¾ÑĤÑĢÐµÐ±
ĠCha tear
Ġsoli ci
f ter
ĠD onner
schlieÃŁ lich
ĠP y
ĠCom isiÃ³n
ex uales
Ġcu estion
ĠB ureau
onn Ã©
en y
ĠãĢį ï¼Ī
æ® º
ĠÐĴ Ð½
Ġpow od
ãĥĹãĥ¬ ãĤ¤
ãĥ³ãĥĨ ãĥªãĤ¢
ãĤĴæ ĭ
ĠÐ£ ÑģÐ»
Ð¿Ð» ÐµÐºÑĤ
ĠÑģÐ²Ð¸Ð´ÐµÑĤ ÐµÐ»ÑĮ
Ġmie do
ĠS onder
Ġv Ã©gÃ©
Ġcomp ter
te ction
ĠÐ¼ÐµÑĤ ÑĢÐ¾
ĠFran z
Ġso in
ï¼ ¢
çĶ¨ æĦı
Ġgo o
Ġessay er
ĠÐ²ÐµÑĢÑģ Ð¸Ñı
ĠÐºÑĢ ÐµÑģÑĤ
Ġeks per
ĠL O
ĠL le
Ð± Ð¸
Ġd ost
ar as
ĠTe ma
le o
ä¸Ģ åº¦
Ġwo hnen
ĠC C
ĠÃ©vÃ© nements
lieÃŁ lich
Ġå® ®
ĠãĢ Ĭ
è»¢ è»Ĭ
ãģ® ãĥŀ
Ð°Ð¼ Ð°
Ġzale Å¼y
k as
ĠwyjÄħ tkow
ĠÑįÐº ÑģÐº
Ġvia ggia
fi z
Ġpay er
ĠÑĥ Ñħ
TI V
Ġi ba
ÑĥÑĤ ÑģÑı
Ġéģ İ
Ġbon heur
ya ume
Ġsp ad
Ġkho a
Ġescri bir
Ġl ernen
ĠÐ·Ð½Ð°Ñĩ ÐµÐ½Ð¸Ðµ
is Ã©s
Ġsp an
Ġmas aje
Ġqu ieren
Ġnum eros
ĠsociÃ©tÃ© s
Ġfonction ne
èĸ Ħ
Ġpesso a
Ġop ar
ĠmieszkaÅĦ cÃ³w
ĠÐ³Ð»Ð°Ð· Ð°
ĠÐ£ ÑĢ
ĠÑĩÐµÑĢ Ð½ÑĭÐ¹
ĠÐĽ Ñĥ
åĳ¨ è¾º
ãĤĴ ãģĭ
Ġdur able
ĠPho tos
ĠrÃ© el
Ġk now
Ġin ny
Ġè¶ ħ
èı Į
ĠMe nge
ĠLors que
ĠM is
åı Ĭ
ĠIn cl
Ġbo a
ĠCas tell
Ġfe liz
ĠSex uales
ĠS Ã¡nchez
ĠMur cia
Ġvo tos
ĠH eraus
ĠÐ¿Ð¾ÑĤ ÐµÐ½
ĠZ ab
ĠK siÄĻ
Ġpres iÃ³n
ĠE inh
ĠBo ttes
ĠB ain
vo y
Ġpub lication
ĠÐ¿Ð¾Ð¿ÑĢ Ð¾Ð±
Ġpl omb
Ġextr Ãªme
Ġwyda je
Ġter zo
ãģ®æ ³
Ġc á»ĳ
ÑģÑĤ Ð¾ÑıÐ½
Ġcho ciaÅ¼
Ġt ube
Ġprop uesta
usamme nh
v antage
Ġstr umento
Ġblo que
sp ort
Ġschein t
ĠSte in
éŃħ åĬĽ
ĠPod czas
Ġklas s
ÑĢÐ¾ Ð¸Ð´
Ð¸Ð½ Ð³ÑĢÐ°Ð´
ĠÐĶ Ð¾Ð¿
Ġri mas
Ġemp re
Ġarri ba
Ġg est
ĠÃ©ta bli
ĠÐ¾ÑĤ ÑĢ
pues ta
Ġespe ciales
Ġer fahren
ĠÐ· Ð¾Ð»Ð¾ÑĤ
qu anto
ãģĬ ãĤĪãģ³
Ġãĥ´ ãĤ£
Ġcuid ado
ĠÑĥÐ¿ Ð°ÐºÐ¾Ð²
ĠÐ Ļ
Ġcom menti
æĹ ħè¡Į
ĠÃļ lti
Ġgus to
Ġalle in
Ġt Ã¢
Ġperform ance
Ð³ Ð¾ÑĤ
p Ã³n
ĠPro zess
Ġmais ons
Ġen quÃªte
ĠÐł Òĳ
ĠÐºÐ¾Ð¼Ð¿ Ð¾Ð½
ĠÐ¸Ð·Ð´ÐµÐ» Ð¸Ñı
ĠÐ¡ Ð¡Ð¡Ðł
Ð¾Ð· Ñĭ
ĠPia zza
ĠScar pa
Ġs istemi
Ġr ia
ra ti
jÄĻ cie
wi g
pa ck
gesch lossen
ĠÑĤÐ¾Ð¿ Ð»Ð¸Ð²
ane o
Ġser ii
Ġjeste ÅĽmy
Ġartyku ÅĤ
ĠOczy wiÅĽcie
ĠMas tur
ĠM ient
ĠOr d
ane a
ow iada
ĠRestaur ant
ĠgÃ© o
ĠÐ¿ Ð°Ð´
ma zione
je dno
Ġnoti zie
Ġespa cios
Ġcal or
s ystem
Ġdist anza
Ġï¿½ï¿½ ï¿½
ĠÂ ª
Ġph ÃŃa
ĠÐ´ÑĢÑĥÐ³ Ð¸Ð¼Ð¸
Ġate lier
pa ge
rou gh
ch mal
Ġpr osta
tu to
ĠTra vesti
Ã¡ nica
Ġiniti a
Ġchamp ion
ul le
Ġz ones
???? ????
ĠÐ½Ð°Ñĩ Ð°Ð»Ðµ
äºĭ ä»¶
ĠW ild
um b
Ġo tor
ĠÐ£ Ð¿ÑĢÐ°Ð²
i p
ĠÐº Ð¾ÑĦ
Ġinter essa
Ġda vanti
alis er
Ġur ba
Ð°ÑĤÐµÐ»ÑĮ Ð½ÑĭÐµ
ãĥĥ ãĤ±
åĢ ī
ãģ«ãģª ãĤĭãģ¨
Ġaccom pagne
Ġdel Ãł
ve m
Ijp udWxs
Ġproble my
ĠKategor ie
Ġre mer
Ġl our
ĠÐ¾ÑĤ Ñĩ
lla to
Ġlabor al
ÑĢÑĥ Ð½
ĠæĿ ¾
æ· ·
Ġf Ãºtbol
Ġcumpli r
Ķ è¼ĥ
Ġcom ien
ĠJahr h
Ġp ure
Ġexplo itation
Ã© nie
ĠÐł Ñĥ
ĠÐ¿ ÐµÑĤ
Ġãģķ ãĤĵ
ãĥª ãĥĨãĤ£
æ¬ ł
ti ens
ĠÐ¼ Ð°Ð¹
ÐµÐºÑĤ Ð¾ÑĢÐ°
ĠÐ½Ð°Ð·Ð² Ð°Ð½Ð¸Ðµ
cus sion
Ġvoit ures
Ġcar re
m ania
ĠÐ¼ ÐµÐ¶
ĠÐ³Ð»Ð°Ð² Ð½Ð¾Ðµ
ĠÐ¡Ð¿ Ðµ
ĠÑįÐºÑģÐ¿Ð»ÑĥÐ°ÑĤ Ð°ÑĨÐ¸Ð¸
ĠÑĥÑĩÐ°ÑģÑĤ Ð½Ð¸ÐºÐ¾Ð²
ÑĪ ÐµÐµ
Ġsegur anÃ§a
Ġmie ÅĽcie
Ġç¨İ è¾¼
ãĥĹ ãĥ©ãĥ³
Ġå¼ Ĭ
Ġ} );
Ġ" );
Ġãĥ¬ ãĥĵãĥ¥ãĥ¼
ãģ« ãģĤ
» Ħ
Ð¡ ÐŁ
ĠÐ·Ð°Ð¿ Ð¾Ð»Ð½
ĠãĤ« ãĥ«
ĠmÃ©di as
å¥ ĳç´Ħ
IN I
Ġo ggetto
Ġprecis a
bn Vsb
Ġod legÅĤ
ãģĤ ãģĤ
ãĥ¼ãĤ »
Ġmodifica tion
ĠÐ ©
ĠÐ¾ÑĢÐ³Ð°Ð½Ð¸Ð· Ð°ÑĨÐ¸Ð¹
Ġclassi fica
Ġacc ro
ãģĹãģ¦ ãģıãĤĮãĤĭ
ĠLun ettes
Ġâĺ İ
Ġo e
Ġlut te
ri ften
UR E
ĠtÃ©lÃ© ph
ÑĥÑĢ Ðµ
tu bro
Ġc aja
ĠF echa
Ġt aller
min os
Ġv Ã¹ng
Ġtre ffen
Ġé Ń
Ġth rough
Ġob st
ĠÑģÑĥÐ¼ Ð¼Ñĥ
ito lo
Ġpos so
Ġpia tta
Ġèĸ ¬
æĶ¯ æı´
Ġparticip ation
ĠP H
ĠH en
Ġ9 1
Ġro be
ĠC oupe
d itÃ©
ĠÃ©c oute
Ġv Ãªtements
ĠÐ¿ÑĢ Ð¾ÑĢ
ĠÐ¼ ÐµÑĢÐµ
Ġt Ãªm
ĠgÅĤÃ³w nie
Ġcor ris
Ġril as
Ġouver te
âĸ ł
ĠãĤ¸ ãĤ§
ĠStr and
Ġfle urs
ĠM oi
ĠCh amb
is Ã©e
Ġann oncÃ©
c enie
ĠfrÃ¼ her
T W
Ã³w ka
Ġzd rowia
Ġf ur
Ġb iaÅĤ
å¤§ éĺª
Ð¾Ð² ÐµÐ´
at ury
ãģ® ãģĭãģª
åķıãģĦ åĲĪãĤıãģĽ
Ġbeste llen
ĠBus iness
schein lich
ĠÐ¿ÑĢÐµÐ´ ÐµÐ»
Ġbezpiecze ÅĦstwa
ãģ®åł´åĲĪ ãģ¯
ĠãĤ¢ ãĤ¯ãĤ»
æµ ®
ĠP OUR
Ã§ ant
Ġk w
ĠÐľ Ð°ÐºÑģÐ¸Ð¼
Ð°Ñİ ÑģÑĮ
ĠÐ¡ÐµÐ² ÐµÑĢ
ä½¿ ãģĪãĤĭ
t ie
ãģ®æ ĥħåł±
ein ture
Ġvo te
ï¼ «
Ġéģ ¸
Ġd Ã»
ĠF OR
S S
ina ge
Ð¾ÑĢÑĤ Ð°
Ġe cht
Ã¤ ngen
Ġester no
Ġè²· åıĸ
ĠåĲĮ ãģĺ
ĠÑĨÐµÐ»ÑĮ Ñİ
ĠZ es
ĠZ we
Ġrecher ches
Ġv ostra
Å¼ noÅĽci
ãĥ¬ãĥĵ ãĥ¥ãĥ¼
ãģ® ãĤĴ
Ġpom iÄĻdzy
zeich en
Ġpeu ple
ãģª ãģ®ãģ«
Ġè ¢
Ġreg al
Ġpu ertas
Ġfolgen den
ĠK ann
ĠAu ÃŁen
Ġtele fono
ze mbro
Ġmelh ores
ĠNh Æ°ng
Ġwe ll
Ġestru ctura
ĠÑĢÐµÐ¶Ð¸Ð¼ Ðµ
è² ¡
lie ÃŁen
Ġeng ag
Ġav antage
ĠÐ½ÐµÐ´Ð²Ð¸Ð¶ Ð¸Ð¼Ð¾ÑģÑĤÐ¸
ĠÐ² Ð°Ð½
ĠÐ¡ Ð¸ÑģÑĤÐµÐ¼
Ġpor tare
áº¡ p
und os
ÐµÐ»Ñı Ð±Ð¸Ð½
ĠÐ¸Ð· Ð¼ÐµÑĢ
Ð» Ð°Ð½Ð´
ĳ ĳ
çı¾ åľ¨
ĠNam e
Ġ9 7
Ġinsp i
ĠfÃ© min
v et
Ġregi Ã£o
Ġop inii
Ġod kry
esti Ã³n
ct uras
ĠnÃ© go
ĠJ ou
ĠE ff
and is
ĠLe Ã³n
ĠMient ras
ĠBa hn
Ġmo tivo
Ġbe ein
æŃ ¯
ä½ľ æĪĲ
ãģ®å Į
Ġau dio
ĠEx e
Ġ8 2
oure ux
la it
ina li
[...]
