#version: 0.2
à ®
á ĥ
à ¸
à °
à ¤
à ¦
à ¯
Ġ Î
à¯ į
Î ±
à ±
áĥ Ĳ
à ¹
à ¥
Ġ Ð
Ġ à®
Ï Ħ
à §
Ġ áĥ
Î ¿
Ð ¾
à¯į à®
Ġ à°
à¸ ²
Î ¹
Ġ à¤
Ð µ
Ġ à¦
áĥĲ áĥ
à¸ Ļ
Î ½
à¯ ģ
Ð °
à± į
à¸ £
Î µ
Ġ Ø
à® ¿
Ġ .
ä ¸
à¤ ¾
áĥ ĺ
à¸ Ń
Ð ¸
à¦ ¾
Ï ģ
à±į à°
à¹ Ģ
à®¿ à®
Ï ĥ
Ñ Ĥ
à¹ Ī
ã Ģ
ä º
Ġ å
ï ¼
Ġ ï¼
à¤¾ à¤
Ø §
à° ¿
áĥ Ķ
à§ ĩ
Ï Ģ
à¯ģ à®
Ġ à¸
Ð ½
à¸² à¸
Ï Ĥ
Ġ ãĢ
å ı
à¥ į
à° ¾
à¦¾ à¦
à® ¾
Û Į
à¸£ à¸
áĥĶ áĥ
Ñ Ģ
Î ·
à¹Ģ à¸
à®¾ à®
Ï ħ
à± ģ
à§ į
Ñ ģ
à¥į à¤
à¹ ī
à¯įà® ķ
Î »
Ø ±
áĥĺ áĥ
à¸Ļ à¸
Ġ ÏĦ
à°¾ à°
à¥ ĩ
à® °
Ð¾ Ð
à§į à¦
Ù Ħ
Î º
Ġ ×
á »
à¯ Ī
à¸Ń à¸
à°¿ à°
áĥ Ŀ
Î ¯
Ð »
Ġ Ù
à® ¤
Ġà¤ ķ
ģ à¸
à¦ ¿
Î ¼
à¯įà® ¤
Ð º
Ġ c
Ġï¼ Į
å ®
w w
æ ľ
o m
Ġc om
ç ļ
çļ Ħ
å Ī
Ġ æ
Ħ à¸
ĩ à¸
ç ½
å ¤
äº ļ
å ħ
à¥ Ģ
Ĥ à°
áĥĿ áĥ
Ï Į
Ñ ĥ
à® ©
Ù Ĩ
à® Ł
Î ¬
à¤ ¿
Ñ ı
à¦ °
à±ģ à°
£ áĥ
á º
® à¯į
Î¿ Ïħ
à¸ µ
Ñ ĭ
Ù ĩ
å ½
ç½ ĳ
Ġ ç
å Ľ
à ¨
a g
± à¸
ä »
à¹Ī à¸
æ Ĺ
æ Ī
Ġ 2
ä ¹
à¤ °
Ġà® ª
áĥĺáĥ ¡
Ġ ÏĢ
à° ¨
Ð° Ð
É Ļ
× Ļ
à¦¿ à¦
à® ³
Ï ī
n g
Ðµ Ð
Ġ ag
â Ģ
æ ¸
æ ĸ
Ĥ à¤
à° Ĥà°
áĥĶáĥ ĳ
ĠÎ º
Ġà® ķ
Ñ Į
Ù Ĭ
Ġ d
Ġ Ïĥ
à§ĩ à¦
à¸ ´
à± ĩ
à¤¿ à¤
Ø ¯
à¯įà® ª
ã ģ
ł áĥ
ĠÐ ¿
¡ à¸
Î Ń
Ġ t
à° °
ķ à¯įà®ķ
Ġ ì
à¦ ¨
Ñģ ÑĤ
¥ à¸
Ġ è
å½ ©
ww w
å ľ
Ġ www
ĠãĢ Ĥ
ãĢ Ĳ
åı ĳ
Ġ 1
åĪ Ĩ
å ¹
à¥įà¤ ¯
Ġáĥ Ľ
ĠÎ ±
e s
× ķ
à® ²
à¥ ĭ
à¹ Ħà¸
Ġ ,
Ù Ī
à¹ ģà¸
à± ĭ
à¦¾à¦ °
Î ³
Ð ²
áĥ ķ
à¯Ī à®
ª à¸
Ġ Ä
Î ®
à§ ģ
à° ²
ĠÐ ²
Ã ©
à¥ĩ à¤
à¹ī à¸
áĥ £áĥ
Î± Î¹
à¯įà® Ł
Ø ª
à§ Ł
à± Ģ
Ä ±
Ñ ĩ
¢ à¸
n h
Ï ĩ
Ġ ë
Ġáĥ ¡
à ´
à¤ ¨
Ġà® µ
e n
Ġà¦ ķ
à° ķ
Ðµ Ð½
§ à¸
ĠÎ µ
áĥĲáĥ ľ
Ġà® ®
ĠÄ ĳ
Ġà° ª
Ġà¦ ¸
Ġ Ñģ
Ġà¤ ¸
à¹ Į
Ù ħ
×ķ ×
Î¹ Îº
o n
Ġáĥ ĵ
à¯ ĩ
à± Ĩ
à¸´ à¸
Ð ¼
ì Ŀ
i n
Ġà¦ ¬
ĳ ãĢĲ
è ½
ä ½
æ¸ ¸
å Ĭ
æ ī
å Ĳ
ç Ķ
ĠãĢ ĳãĢĲ
Ġ -
å® ĺ
å į
æ ĺ
è ¿
Ġ âĢ
è µ
è ®
Ġ :
ĠÎ ¼
İ ¯
à¹ ĥ
å ¿
ä¸ ĭ
æĹ ¶
Ġå ¤
á Ģ
ç «
İ¯ äºļ
ä¸ Ģ
äº º
Ġ é
ç »
ç ī
å ¼
Ķ à¸
ĠãĢ ģ
ä ¼
åĽ ½
ļ à¸
§ åıĳ
à¤ ¤
Ġà® ħ
Ġà° ķ
Ã ł
ĠØ §
áĥ ¡
ĠÐ ½
Ï į
à¦ ²
Ġà® ¤
à±įà° °
Ã ¼
Ĺ à¸µ
° à¸
à¤ ²
Ġd e
Ð¾Ð ²
áĥ ł
Î ´
à¦ ķ
Ġà® ļ
Ã ¡
Ġ ê
à°¾à° °
Ġà¤ ¹
ĠÐ ¸
Îµ Î¹
i e
ĠØ ¨
Ġ áĥĲáĥ
à® µ
ÉĻ r
Æ °
Ġà¦ ª
Ġà° µ
å °
é Ģ
æľ º
é Ļ
è ¯
Ġ 0
è½ ½
è §
ä¸ĭ è½½
á ŀ
ä¸ Ń
Ġå¤ §åıĳ
äºļ æ¸¸
å Ĩ
ç ¥
æĺ ¯
å®ĺ ç½ĳ
å İ
å¿ «
Ī à¸
à¤ ķ
Î¹ Î±
Ð ´
e r
í ķ
à¯ģà® ®à¯į
áĥ ļ
à±ĩ à°
×Ļ ×
Ï Ĩ
ĠÐ ¾
à§ĩ à¦°
Ġ l
æī ĭ
å º
å ·
Ĺ à¸
å¤ §
æ Ŀ
åľ ¨
å ¸
é ĩ
à¹ĥ à¸
Ĥ à¸
å Ń
æ Ĭ
à¥ ģ
Î ¸
Ú ©
Ġáĥ Ĵ
Ġà° ®
a r
à®¿à® ²
Ñ ħ
æ ³
« à¸
ç ľ
å¹ ³
æľ ī
ç º
å ¥
à¸µ à¸
Ġ à¨
¸ à¸
Ġà¤ Ĩ
à§ ĭ
ë ĭ
Ġ p
ĠÏĦ Î·
áĥĶáĥ ļ
ĠÐ º
Ġt h
Ġà° ħ
à®¿à® ¯
Ï İ
à¦ ¤
Ġ 3
æĸ ¹
Ġà¤ ª
áĥĲáĥ Ľ
Õ ¡
a n
Ðµ ÑĢ
Ġà° ¸
ÏĦ Î±
ì ŀ
Ø ³
Ġà® ĩ
Ð° Ð½
áĥ ĵ
åı °
à¥įà¤¯ à¤¾à¤
Ġ v
à¦ ¬
ì Ĺ
Ġ w
Ġà¤ ®
Ïģ Î¿
à° Ĥ
à¯ Ĩ
Ðµ ÑĤ
áĥ Ľ
ÏĦ Î¿
Å Ł
ĠØ§ ÙĦ
à§įà¦ °
Ġ í
à±įà° ¨
ĠÐ ´
× Ķ
Ġ h
¨ à¯įà®¤
à¥ Ī
ĠÙ ħ
áĥ ľ
Å Ĥ
ĠÎ ´
Ð ¿
à° ®
Ġ à¹Ģà¸
8 8
à¤ £
ã Ĥ
ìĿ ´
Ġà® ¨
ģ à¸²
à¥ ¤
áĥ ¢
ĠÎº Î±Î¹
Ġ s
Ð¾ ÑĢ
Ġà° ļ
Ïģ Î±
ìŀ ¥
áĥĲáĥ ĵ
ëĭ ¤
à¸£à¸ µ
Ð° ÑĤ
ª à¯įà®ª
à¦ ®
ŀ à¸
à° ¤
à¥ĭ à¤
Ġ Ã
ĠØ ¯
ÏĦ Î·
Ġc h
× ¨
Ð¾Ð »
à¹ Ĥà¸
áĥĲáĥ łáĥ
a p
ä¸ į
å ĩ
é Ľ
å ¾
Ġ2 0
è ¡
æīĭ æľº
Ġï¼ ļ
å Į
ç Ľ
Ġ 5
ap p
à ©
äº Ĩ
è ´
à¤ ¸
à°¾à° ²
à® £
ÏĦ Îµ
Ġ à¥¤
ê ³
o w
Õ¡ Õ
Ġ Õ
i l
ķ à¸
ĠÐ¿ ÑĢ
Ġ m
Ġáĥ ł
ì §
âĢ Į
à® ®
à¹Ī à¸²à¸
¿ ½
ï ¿½
ÏĢ Î¿
å¹³ åı°
à¥įà¤ °
Ð¾Ð ¼
à§įà¦ ¯
Ġà° ¨
áĥĶáĥ ľ
Ġ b
ë Ĭ
à® ±
Ñ İ
Ïĥ Î·
à¸Ńà¸ ĩà¸
à°¿à° Ĥà°
c h
2 0
å Ŀ
á ł
Ġç İ¯äºļ
æ Ģ
Ġ äºļæ¸¸
W W
à¤¾à¤ °
áĥĲáĥ ķ
Ïī Î½
Ġ× Ķ
Ġà¦ Ĩ
à¹ ĩ
o u
Ð¸ ÑĤ
o s
Ø ²
ì Ħ
à±įà° ¯
ĠÏĦ Î¿
áĥĲáĥ ¡
ä¸ ī
å ±
Ġ C
à¤ Ĥà¤
à¯įà® ±
à¸Ńà¸ ĩ
Ð½ Ñĭ
à¦¾à¦ ¨
i á»
Ø ©
ê °
Î¯ Î±
à° µ
Ĺà¸µ à¹Īà¸
t o
ļ áĥĺ
Ð¾Ð ´
å¼ Ģ
ç İ
ç« Ļ
ç Ļ
Ġà¤ ¤
i r
ëĬ Ķ
ĠÏĦ Î¿Ïħ
à§ Ģ
Ġà® İ
Ġ z
Ø§ ÙĨ
Ġ k
à¹Į à¸
à° ¸
ĠÐ ¼
Ġáĥ ĺ
Î¼ Î±
à¹ ĩà¸
à¤ ¹
à¯ ĭ
Ġ a
à° Ł
¶ ľ
ì ł
Ġà¦ ®
Ðµ Ð»
à¸£ à¸²à¸
ĠÎ ½
× ľ
Ġáĥ ¨
Ł à¸£à¸µ
ģà¸² à¸£à¸
Ġ Â
Ġt r
Ð ±
ì ķ
è Ģ
ä¹ Ĳ
ä¸ Ĭ
Ġc n
ï¼ Į
ĥ ½
æ ķ
éĽ Ĩ
æ ŀ
é Ĺ
å Ĵ
å ¯
æ ´
ç İ¯äºļ
æĪ ·
åĽ ¢
Ġà¤ µ
à° ¦
à¯įà®ķ à®³
Ġà¦ ı
Ġ à¹ģà¸
Î½ Î±
Ø ´
Ġì Ŀ
áĥĲáĥ ł
Ð° Ð»
Ä± n
´ à¸
à° ª
ĠÎ ¿
Ġ nh
Ġ n
Ġà¤ ¬
Ñ Ĩ
áĥ ®
à®¿à® °
Ľ à¸
¶ľ ìŀ¥
ë §
ã ĥ
i s
æ µ
ç½ĳ ç«Ļ
ä ¿
ç Ĳ
æ Ķ
à ª
à¤ µ
Ġà¦ ¨
Ïģ Î¹
à±įà° ¤
Ġ â
ì§ Ģ
Ġ ÑĤ
¹ à¸
Ø ¹
áĥĿáĥ Ľ
à®¤ à¯įà®¤
ìĹ Ĳ
± à¸Ļà¸
ĠÎ ³
à±įà° ²
à¦ ¸
Ñ Ī
ŀ ×
a s
Ġà¤¹ à¥Ī
Ġà¤ ħ
Ĭ à¸
Ġáĥĵ áĥĲ
Ø ¨
· à¹Ī
Î ²
à® ®à¯į
Ä Ļ
Ġà° ¤
r e
Ġà¦ ¹
Ġ ÑĢ
Æ° á»
íķ ĺ
Î ĳ
ï¿½ ï¿½
ĠÎ ĳ
à®¿à®² à¯į
Ġáĥ¡ áĥĲáĥ
³ à¸
ÉĻ n
à° ¡
ĠÎ¼ Îµ
Ð ·
ç §
æ İ
åĴ Į
à¥įà¤¯ à¤¾
à¸£à¸ ±à¸
áĥĺáĥ Ĺ
Ġà¦ ¦
Ġ S
Ĥ ¬
Î½ Î¿
ĠÙ Ī
t i
à® ķ
à¸£à¸ °à¸
Ð½ Ð¾
à°¿à° ¨
ÏĦ Î¹Îº
áĥĿáĥ ĳ
ë ¡
Ġ à§
áº ¡
Ġà¤ķ à¥ĩ
Ä ħ
à¹ī à¸²à¸
à§įà¦ ¤
ĠÎ½ Î±
Ð¾Ð ³
å¹ ´
å½© ç¥
æĪ ı
éĻ ħ
ä¸ º
çī Ī
0 0
é Ŀ
æ¸¸ æĪı
à¤ ®
× ª
à°¾à° ¨
à®¤ à¯ģ
q u
à¹Ī à¸²
Ġáĥ Ļ
Ø§ ÛĮ
ìĿ ĺ
u n
Ġà¦ķ à¦°
ĠÎ ķ
Ð ¹
ĠÎ ł
à¹Ħà¸ Ķ
áĥĲáĥ ļ
Î ¾
æ °
Ġ 4
é ¢
éĽĨ åĽ¢
Ġ |
æ ł
æ ĭ
æ Ń
å ĳ
å®ĺ æĸ¹
åĿ Ģ
åĽ½ éĻħ
ä¼ ļ
à¤¾à¤ Ĥà¤
à°¿à° ķ
Ö Ģ
i y
áº ¿
Ñģ Ðº
ì ĭ
à¹ī à¸²
à¯ Ĭ
i t
Î Ł
Î¼ Îµ
áĥ Ĺ
Ġà¦ ¤
c z
Ħ à¸£à¸
Ġì ŀ
Î Ļ
ĠÎ Ń
Ĺà¸µ à¹Ī
Ð ³
ĠâĢ Ŀ
çľ Ł
æĸ °
åħ ¬
ä¸ ª
Ġ (
çĶ ¨
å ¨
Ġà¤ ¨
à° ¯
Ġ×Ķ ×
Ø§ Ø±
Ġáĥ Ĺ
à®¿à® ©
l ar
ÏĢ ÏĮ
à¦ ¦
i ch
ľ à¸
Ã ´
Ð¾ ÑĤ
1 0
Ġ )
æĹ¶ å½©
åľ °
ĠâĢ ľ
è Ī
à¤¾à¤ ¤
à±įà° Ł
ìĿ Ħ
à¸Ń à¸Ļ
l l
áĥĶáĥ ¡
Î» Î¿
Ã ³
± à¸Ļ
Ġà¦ ħ
Ù Ĥ
Ð¸ Ñı
ģà¸² à¸£
à± Ĥà°
à®¾à® °
ÏĦ Î¹
l ÉĻr
çĻ »
å ĵ
Ġ A
å½©ç¥ ¨
O M
ä» ¥
æĹ¶ æĹ¶å½©
äº ¬
ä¸ ļ
åİ ħ
çº ¿
è¡ Į
æ ¬
¦ ģ
ĠC OM
Ġ20 1
åĪĨ å½©
å® ¶
à¤ ļ
áĥ łáĥ
ê ¸
Ð¾Ð ¹
ļ à¸Ńà¸
° à¹Ģà¸
ĠÎº Î±
à±ģà° ²
à µ
à¥ĩà¤ Ĥ
à§ĩà¦ ¨
e t
à¯Īà® ¯
¨ áĥĺ
´ ë
è½ ¦
å® ¢
å¤ ©
9 9
¡ à¸²à¸
ç ¾
à¥ Ĥà¤
Ġ Ú©
ĠÐ ±
Ġ T
ĠÏĦÎ· ÏĤ
Ġ× ľ
Ġà° °
à¦ ª
ĸ à¸
Å ¼
Ġd i
ãģ ®
áĥĺáĥ ľ
ì Ĭ
Îµ Î¯
æĿ ¥
è Ĥ
Ġà¤ ¯
Ġ g
à¯ģà® ķà¯įà®ķ
à± Ī
Ù ĥ
ÐµÐ ¼
à¹Ħà¸ ¡
à¦ Ł
o r
Îµ ÏĤ
Ġà¸ ªà¸
± ä¹Ĳ
æ³ ¨
çĶ Ł
å¿« 3
Ľ à¹ĩ
çĶ µ
6 6
Ġ /
å¿« ä¸ī
è ĩ
é ģ
è ¾
å¨ ±ä¹Ĳ
Ġag çİ¯äºļ
à¤° à¥įà¤
Ġáĥ Ķ
à® ¯
ĠÐ½ Ð°
ì ¶ľìŀ¥
íķ ľ
à°Ĥà° ¦
Ã ª
ĠÎ £
Ã Ń
áĥĶáĥ ł
§ à¸²à¸
Ú ¯
d ÉĻ
ĠÎ ļ
en t
à±į âĢĮ
Ð° Ðº
Ġà¦ ľ
Ġ× ĳ
Ġì ł
Î¿ Ïį
à¤ ª
à¯ģà® ¤
à¸Ļà¸ µ
Ġà° Ĩ
áĥĶáĥĳ áĥĺáĥ¡
ĠÏĦÎ· Î½
Ð¾ Ð½
à¸Ļ à¹Ģà¸
ì ļ
i a
Ġ ;
Ù ģ
èµ Ľ
å½ ķ
æ ²
è ĥ½
ä½ ľ
è® ¡
é Ĵ
ãĢ Ĥ
Ġà¤ ¦
à¦¿à¦ ķ
à±ģà° ¨
t e
Î £
Î ¶
à®Ł à¯įà®Ł
à¹ĥà¸ «
Ġáĥ ŀ
Õ ¸
d a
ë ı
à± Ĭ
Ġk h
Ð¸ Ð½
à¹ Ĥ
Ïİ Î½
éĢ Ł
å Ł
åĪ °
çĲ Ĩ
åĩ º
åĽ ¾
è ¦ģ
åį ķ
æ Į
æľ Ģ
é ¡
ç« ¯
ç½ĳ åĿĢ
Ġå ħ
æ ¯
ä ¾
Ġå ½
æĹ ¥
ä½ ĵ
2 2
ç ł
æ ĥ
Ġå °
ç Ń
èµ °
Ġå ı
æĪ Ĳ
« ĺ
åĬ ¿
Ġ WW
Ĺ äº¬
è ī
ĠWW W
çľŁ äºº
å®¢ æĪ·
çĻ» å½ķ
å ī
Ġè ¿
5 5
Ġà¤ ľ
à¦¾à¦ ²
ĩ à¹Ģà¸
ë¡ ľ
áĥĲáĥ ª
ÐµÐ ´
Î± Î½
à®¾à® ©
e in
a y
à±ģà° Ĥà°
Ġà¸ ª
Ġà¦ª à§įà¦°
ģ à¸£à¸
r z
Ġ× Ĳ
áĥĺáĥ ļ
Ð° ÑĢ
à¹Ħà¸Ķ à¹ī
Ø Ń
Ġ 7
æ ±
åĲ Ī
Ġ 6
é ĺ
æ´ ²
æ³ ķ
å¸ Ĥ
Ġå Ī
é ĥ
å®¢æĪ· ç«¯
åħ ¨
å Ģ
à¤ ¦
ĠÎ ¤
u r
ê³ ł
áº £
à±ģà° ķ
ĩà¸ ´
à¦¿à¦ ¨
Ħà¸ §à¸²à¸
Î¯ Î½
ĠÐ ·
áĥĶáĥĳ áĥĲ
à® Ļ
ÉĻ s
. .
å¤ ļ
å® ī
ç ®
åŃ Ĳ
à¥ĩà¤ ²
ĠØ ª
Ġà°ª à±įà°°
à¹ĥ à¸Ļà¸
ê° Ģ
Ġ '
à¦ Ĺ
Î ķ
Ġ ÏĮ
áĥ Ĵ
Ġ Ñĥ
o d
Ġ ng
Ġ y
ê ²
åĬ ¨
à¤¾à¤ ²
à¹Ī à¸Ļ
à® ¨à¯įà®¤
Ĺ à°¾
ĠÎ³ Î¹Î±
Ñ Ħ
Ġà¦ °
ãģ Ħ
Ķ à¸´à¸
¡ à¸µà¸
Ġ un
Ø³ Øª
áĥĶáĥ Ľ
ë ¦
ĠÎ ľ
× ĳ
Ñ ī
è ģ
Ġæ Ī
Ġå ĩ
ä¹ ĭ
å· ¥
ç¥ ŀ
ç ¨
& #
Ġï¼ ī
1 1
çİ °
ç Ĥ
Ġ 8
Ġå Į
à¤ ¯
Î» Î»
à®¾à® ķ
à¦¾à¦ ®
Å Ľ
· à¸Ńà¸
á» Ļ
Ġáĥ ¬
ĠÎ± ÏĢÏĮ
à°¿à°Ĥà° ļ
Ġà¦ ¶
Ġê °
Õ ¥
a l
é «ĺ
à¨ ¾
åı ¯
äº İ
åľ º
à¸Ńà¸ ¢
åŃ ¦
è ¶
åĪ Ĵ
åĨ Į
Ġ 9
æľ ¬
èµ° åĬ¿
å ģ
à¹ Ĩ
è ·
éĥ ¨
á Ł
à¹Īà¸ ĩà¸
æĹ Ĺ
à¤¾à¤ ¨
Ð°Ð ²
à¦° à§įà¦
áĥĿáĥ ¡
ĠÎ ·
à®¿à® ±
ì ĥ
Ð°Ð ¼
Ġ B
à°¾à°° à±ģ
ä¹ Ī
äºļ æ´²
Ġï¼ Ī
æ Ħ
åľ¨ çº¿
à¤¾à¤ ¹
ĠØ ±
Ī ëĭ¤
ĠÎ ¸
áĥĶáĥĳ áĥĺ
Ð¸ Ðµ
à°¨ à°¿
Ġ D
Ø§ ÙĦ
à¦¾ à§Ł
æľ Ī
ä¸ »
æ³¨ åĨĮ
å° ı
Ġ; &#
èĪ °
æ Ļ
è§ Ĩ
Ġå½ ©
æīĭæľº çīĪ
é ľ
èµĽ è½¦
å¯ ¹
à¤¾à¤ µ
Ġ à¹Ĥà¸
Ġ Ïĩ
× Ĳ
à¯ Ģ
Ã ¶
ļà¸Ńà¸ ¥
ļ à¸²à¸
áº ¥
Ġáĥ £áĥ
r a
Ġà¦ ¯
¥à¸ °à¸
Ð°Ð ·
à°° à±įà°
Ġ ä»
Ġà¤ °
ãĥ ¼
ÏĦ Î¬
Ġ f
ĭ à¸
áĥĿáĥ ľ
Ñģ Ñı
à®° à¯į
ìĿ ¼
à¤¾à¤ ļ
Ġà° ¬
Ïģ Î¬
ë ¥
Ġ j
±à¸ ĩà¸
Ġp h
ĠØ§ÙĦ Ø
à¦ ¼
áĥ£áĥ ł
ĠÏĥ Ïħ
à¯įà® ļ
ä¹ Ł
æĹĹ èĪ°
7 7
é ¾
Ġà¤Ĩ à¤¹
Ġà° ¦
Õ ¶
ÉĻ t
ĠÙ Ĩ
à¸£à¸ ´à¸
Ð ¶
ti on
ãģ §
Ī à¸²à¸
Ġn a
ĠÏĢ Î¿Ïħ
Ġà¤ ²
×ķ× ª
áĥ §
ì ľ
à® ªà¯įà®ª
Ð» Ð¸
Ġà° ĩ
Ã ¢
à¹ī à¸Ńà¸
u ng
Ġl a
Î¹ Ïĥ
Ä Ł
¥ à¸²à¸
áĥĺáĥ ĵ
åı Į
¶ à¸
ģà¸ ±à¸
Ġå ľ
ç ¤
è®¡ åĪĴ
é ķ
à¤¿à¤ ķ
ĠØ¯ Ø±
Ġë °
Ġ o
ÎŃ ÏĤ
² à±ĭ
ĠÐ ³
à® ļ
á» ĳ
Ġáĥ ķ
Ã ¤
à¦¿à¦ ¤
ê¸ °
Ïģ Î¯
Ġáĥ ĳ
¡ à¸²
à¹Ģà¸ Ľà¹ĩ
ä» £
à¥Ĥà¤ ¨
Ð¾ Ñģ
Ġà° ī
Ġ i
Ġà®İ à®©
Ø§ Ø
ãģ Ĺ
Ġà¤® à¥ĩà¤Ĥ
ĠÎ Ķ
ou r
ĠáĥĲáĥ ł
Ġì ķ
Ä Ľ
ÏĦ Î±Î¹
ç¾ İ
éĩ ĳ
å¥ ½
é¾ Ļ
äº §
è¿ Ľ
èµ°åĬ¿ åĽ¾
å® ŀ
é £
Ġà¤ ¶
Ð¸ Ðº
à¦¿ à§Ł
iá» ĩ
à¯ģà® ķ
Ġ e
áĥĶáĥ ķ
à¦ ¹
Ġ Ñĩ
Ľ à¸£à¸°à¸
i ÄĻ
Ġà° Ĺ
Î¹ Î¿
×Ļ× Ŀ
3 3
é ¦
Ġ ä½
åĲ İ
åħ ¥
æĬ Ģ
ä» ¶
à¤ ¡
Ġ "
ÛĮ ÙĨ
áĥĶáĥ Ĺ
Ã ¬
· à¸Ń
ìĦ ľ
ÎŁ Î
ĠÏĢ ÏģÎ¿
Ġ M
à¦¾à¦ ķ
Ġ et
à¸£à¸µ à¸
à±įà° ª
Îµ Î½
áĥĺ áĥĲ
ä¿ ¡
éĿ ¢
åĬ Ľ
è °
æ ı
à¹ī à¸Ļà¸
ç» ı
äº ĭ
Ġå Ľ
æŀ ľ
å §
å ¦
åº ¦
å° ±
à¹īà¸ §à¸
è Ĳ
è§ Ħ
ĠåĮ Ĺäº¬
à¥įà¤ ¤
Ġà® ī
Ð¸ Ð¼
Ġ ÙĦ
ì Ľ
Ġun d
Ġà¦ Ĺ
Ġ P
áĥĲáĥ ®
ĠÎµ ÏĢ
à°¨ à±įà°¨
Į Ģ
Ãª n
Ä ĩ
å »
ģ éĢŁ
åĮ ĸ
èĩ ª
p k
å® ļ
à¥ģ à¤
ĠÐ Ł
t a
áĥ£áĥ ļ
Ľ à§ĩ
Ïģ ÏĮ
ĠØ ³
§ à¸´à¸
ÑģÑĤ Ð²
à¯ Ĥ
à° Ĺ
ê µ
Ġäºļæ¸¸ éĽĨåĽ¢
à¥įà¤ ¹
ĵ à¸
à§ģ à¦
Î® ÏĤ
l e
Ġáĥł áĥĿáĥĽ
Ã´ ng
± à¹īà¸
ãģ «
ì ĸ
Ð¾Ð ±
Ġà° İ
ĠÏĥ ÏĦÎ¿
Ã §
à¦¾à¦ ¦
æ Ľ
è¿ ĩ
æĪ ĳ
æ į
ä¸Ń åĽ½
Ġå į
å¥ ĸ
Ġå ®
è £
Ĥ à¸Ńà¸ĩà¸
Ġà¤ Ĺ
à®¿à® Ł
ĠâĢ Ļ
Î Ĺ
Î¿Ïħ Î½
à°ķ à±įà°
áĥĲáĥ Ĺ
Ġà¦ ļ
ĠÙ ĩ
Ġ N
ë Ĥ
ĠÐ ¡
Ġ× ©
ä» ¬
æĸ ĩ
Ġ1 0
åĵ ģ
è¿ Ĳ
Ġà¤ª à¥įà¤°
à¹ĥà¸ Ĭ
à§įà¦ Ł
à®¾à® ²
Ð¾Ð³ Ð¾
áĥĲáĥ ¢
u s
ł à¸²à¸
ì Ĥ¬
Ïģ Î³
Æ ¡
ĠÙ ģ
à°¾à° ¯
Î¼ Î¿
ì ²
à¸Ń à¸²à¸
áĥ£áĥ ļáĥĺ
¬ ¬
ĠA G
åįķ åıĮ
å¿ ĥ
Ġag åĽ½éĻħ
ä¸ İ
à¹ī à¸Ļ
æĹĹèĪ° åİħ
¯ åıĳ
Ġå ¹
Ġå½© ç¥ŀ
åı ¸
ç ķ
à¥ĩà¤ ¤
Ġ in
ĠÐ Ĵ
¯ à¦¼
ë ĵ
à¤ Ĥ
Ġ q
Ïĥ ÎµÎ¹
¦ à°¿
k a
à®© à¯į
ĠÄĳ á»
Ð» Ñı
áĥ ĳ
ĠØ ´
Ġà¤ħ à¤¸
Îĳ Î
ĠÏĦ Î±
Å Ļ
Ġ Ãł
à¸Ń à¸£
z y
ÐµÐ ¹
c i
à¯įà® ²
áĥĲáĥłáĥ Ĺ
à¸² à¸Ļà¸
ìĿ Ģ
Ġà° ľ
t en
ĠÎ ²
áĥĶáĥ łáĥ
áº Ń
éĩ į
Ġ ä¸Ģ
Ġå Ĳ
Ł ¥
å®ĺæĸ¹ ç½ĳç«Ļ
åĬ ł
åħ ³
è§ £
åī į
è¿ Ļ
à¤¿à¤ ¤
¨ à¸
Ð° Ñı
Õ «
ÉĻ l
à°Ĥà° Ł
ĠÏĥ ÏĦÎ·
ĠØ £
× ©
Ñ į
áĥĶáĥ ĵ
Ġà¸ Ħ
à® ´
ãģ ¦
ĩà¸´ à¸Ļà¸
ÙĨ Ø¯
à¸Ļ à¹Į
Ġl e
Ħà¸ ¸à¸
Ġv á»
åĬ ¡
èĢ ħ
å ķ
Ġåľ ¨
à¨¾ à¨
Ġ Ĉ
à¤ §
Ġà¦¬ à¦¿à¦
Î» Î·
£ ¼
Ġà¸ ŀ
Ġ ein
Ł à¸
d z
i on
à±ģà°¨ à±įà°¨
ĠÐ °
Ġáĥ ľ
Ġà¤ķ à¥Ģ
Ġà¸ Ĺà¸
Ġ ÏĨ
ìĬ ¤
à¹ī à¸Ńà¸ĩà¸
Ġà°ļ à±ĩà°
Ö Ĥ
Ã¼ n
à® ķà¯įà®ķ
à¦¾à¦ ¤
á» §
à¹Ħà¸ ¥
Ð¸ Ð¸
Ġ en
à¸Ļ à¸²à¸
ĸ áĥĶ
ĠÏĢ Î±
Ġê ²
Ĺà¸ ¢
à°¿à° ¤
çľ ĭ
Ġç Ķ
ãĢ ĳãĢĲ
çŃ ī
æĬ ķ
Ġà¤Ĩà¤¹ à¥ĩ
a k
Ġà¸ ķ
à§įà¦ ¬
à®¿à® ķ
Ðµ Ðº
« à¸Ļ
à¥ĭà¤ Ĥ
Î± ÏĤ
r i
ģ à¹Ģà¸
áĥĿáĥ ķ
ĠØ¨ Ùĩ
Ġ ãĥ
à±įà° µ
ĠÎ Ł
Ð¾ ÑģÑĤ
Ġì Ĺ
Ġv Ãł
Ã³ w
±à¸ ģà¸
ç ³
è ĭ
åĲ Į
åĮ º
Ġ %
Ġà¤ķ à¤°
× ł
à¦¿ à¦°
Ġv ÉĻ
o v
áĥ ª
e l
Î¼ ÎŃ
ĠØ ¹
¸ à±įà°¤
à¹ĥà¸« à¹īà¸
Ð°ÑĤ ÑĮ
à¯įà®ķà®³ à¯į
ë§ Ī
ìĿ ¸
à¸Ń à¸Ńà¸Ļ
áĥ Ļ
à¸£à¸±à¸ ļà¸
à¦ ľ
Î½ Î·
éĴ Ł
pk 10
Ġåĩ ¯åıĳ
ĠæĪ ĳ
1 9
é Ĥ
Īà¸ °à¸
Ġæ ī
çĤ ¹
å¾ Ĺ
æ¯ Ķ
éĢ ļ
å± ķ
æľ Ł
äº Į
Ġæ ĸ
à¤¾à¤ ¸
¡ à±ģ
Ð° Ñģ
Ġde r
r o
ĠÏĥ Îµ
áĥ ¥
Ŀ ¼
à¦ ĩ
à°Ĥà° ¤
ľà¸ ¹
áº §
Ð¾Ð º
ãģ ¨
ĠØ ¢
à¯ģà® µ
æ° ĳ
éĩ ı
æ ¶
äº Ķ
Ġ ï¿½
éģ ĵ
åĳ ĺ
å¤ ĸ
éķ ¿
éĹ ¨
æĢ §
« à¸Ļà¸
à¹Ħà¸Ķ à¹īà¸
Ġæ ŀ
Ġ ä¸
å ĸ
è® ¯
æŃ £
èĤ ²
å ¢
Ġ á
§ à¹Īà¸²
ä¿ Ŀ
Ġæ ĺ
Ġ çļĦ
åħ ĭ
æķ °
Ġçİ¯äºļ ag
å¼ ı
çĲ ĥ
åĪĨ éĴŁ
Ġ à¥
Ġ L
Î¿ Î»
ÉĻ k
Ī ĺ
Ġà°µ à°¿à°
Ð¾Ð ¶
áĥĺáĥ ł
èµ Ħ
åĪ ¶
app ä¸ĭè½½
à¹Ħà¸¡ à¹Īà¸
§ à¹Īà¸²à¸
ĠãĢ ĭ
çł ģ
æ ģ
å» º
ķà¸ ±à¸
Ġà¤¤ à¥įà¤¯à¤¾à¤
n i
à¦¾à¦ ¬
Ù ī
Ġ Ïħ
à¤¿à¤ ¯
à° ļ
ĠÐ ļ
ĠÎ »
Ġ qu
Ġì ĺ
Ġà® Ĩ
Ġ× ŀ×
áĥĿáĥ ĵ
g o
à¦¾à¦ ¸
ĠÐ »
ĠØ Į
ç³ »
Ġà¤ ļ
à±ģà° ¤
ĠÎ± Î½
ë¦ ¬
Õ¸ ÖĤ
a q
Ġ F
Ġáĥ ®
à¦¾à¦ ĩ
Ð¸ Ð»
åĪ ©
Ĥ à¸Ńà¸ĩ
è¡ ¨
ģ à¹ĩà¸
éĹ ´
è® ¾
Ġè¿ Ļ
à¥Ģ à¤²
Ġà° ²
Ïī ÏĤ
Ġ x
o l
à®£ à¯įà®Ł
à¦ Ĥ
áĥ ¨áĥĺ
ëı Ħ
ĠÐ¾ ÑĤ
k i
ÏĦ Î®
ç ©
å¼Ģ æĪ·
çĽ ´
åħ¬ åı¸
é ĥ½
à¤ ¶
Å ¾
à°¨ à±ģ
Ġ E
i áº¿
Î¬ Î½
Ġáĥ ¥
ì ĺ
ÑĤ Ð¾
rz e
àµ į
Ġà¤ ī
à®¿à® ¤
ĠØ ®
ãģ ª
m ent
Ġë §
à¸Ńà¸Ńà¸Ļ à¹Ħà¸¥
à¹ĩ à¸Ńà¸
Îµ Ïħ
áĥķ áĥĶáĥļ
ªà¸ ¸à¸
× ĵ
à°ķ à±ģ
Ħà¸§à¸²à¸ ¡à¸
à®¿à®© à¯į
Ġà¦ ī
ÏĦ ÏĮ
Ġ K
áĥĺáĥ ª
à¤ Ĺ
ĠÐ½ Ðµ
i c
à¹Ī à¸Ļà¸
ë ħ
ÙĪ Ø¯
Ġl Ãł
d Ä±
2 8
æı Ĳ
à¤¾à¤ ¯
ĠÏĦ ÏīÎ½
à±Ĩ à°²
à¸² à¸£
Ð¸ Ð¹
ê ±
Ġd o
Ġáĥ ¤
Ġà¦ ĵ
à¹Īà¸ ĩ
Ġd ie
ìĭ ľ
à±įà° ļ
Ġ r
Ïĥ Îµ
à¤ ľ
Ø ¬
Ġà¦ Ń
ãģ Ł
à®¿à® ķà¯įà®ķ
ÑĢ Ñĥ
Ľ à¸£à¸
áĥĿáĥ ļ
Ġì ĭ
à°ª à±įà°ª
a t
4 4
Ġé ĩ
Ġ201 9
ç¨ ĭ
é Ķ
æ° ´
å¤ §åıĳ
èī ²
æ £
åĪĨ å¿«3
à¥ Ĥ
Î¯Î½ Î±Î¹
à¸Ļà¸µ à¹ī
Ð¸ Ð²
à¦ £
Ġáĥ ©
à°² à±ģ
à¹Īà¸ §à¸
ë °
à¯įà® ³
Ġd es
Ã¡ c
ÎĻ Î
Î» Î±
× ¢
n e
áĥĿáĥ ł
ª à¸´
Õ¡Õ ¶
ÉĻ m
à¹Ħà¸¡ à¹Ī
æĬ ¥
à «
æ Ĵ
åĨ ħ
ä½ į
Ġà¤ Ń
Ġ Ñį
à°² à±ĭ
ìķ Ī
z ion
í Ĭ
Î¿ Î½
à§ĩà¦ ķ
áĥ ¬
Ø§ Øª
«à¸ ¥à¸
ç® ¡
æĥ ħ
à¸µà¸ ¢à¸
ĠåĮĹäº¬ èµĽè½¦
è Ĭ
åı ·
å· ŀ
Ĭ é¾Ļ
ç Ŀ
åı £
à© Ģ
Ġ1 1
7 0
æīĭæľº å®¢æĪ·ç«¯
äº ī
ä¸ ĩ
é ĵ
Ġ1 2
é ļ
å° Ĩ
à¸Ńà¸ ¢à¸
åħ ĥ
å¼Ģ å¥ĸ
Ġ áł
âĢ ľ
Ġag äºļæ´²
æ ¡
åı Ĭ
é ª
åĲ Ĺ
Ġ ä¸į
æľ į
äº ¤
æĪ ĺ
æ¬ ¡
ç Ī
é ©
ãĢ ģ
è ¢
à¤ Ł
Ġì Ħ
Ġo l
ĠÐ¾ Ð±
à®¾à® ¤
ĠÎµ Î¯Î½Î±Î¹
à°¿à°ķ à°¿
a m
áĥĶáĥĳ áĥ¡
à§ ľ
ÐµÐ» ÑĮ
Ġ H
Ġag çľŁäºº
Ġå ¾
åŁ İ
ç ´
Ġæ Ĺ
Ġæŀ ģéĢŁ
æĶ ¿
à¸Ń à¸Ļà¸
è¯ ´
Ġ ć
à© ĩ
à¸Ńà¸¢ à¹Īà¸²à¸
à¸£à¸±à¸ ļ
Ġå¤§åıĳ å¿«ä¸ī
å Ļ
¡ à¸µ
æĺ İ
åĲ į
é »
éĩ Į
à¤¿à¤ ²
à® ª
ë¥ ¼
ĠÏĢ Îµ
à¦¿à¦ ²
Ø§ Ùħ
y ch
Ġà¤¹ à¥ĭ
Ġp er
à°¿à° ¯
ĠáĥĲáĥ Ľ
Æ°á» Ŀ
Ðµ Ñģ
× Ĺ
áĥĿáĥ Ĵ
Ġ ÑģÑĤ
Ïģ Îµ
à¯įà® µ
Ġ G
à¥įà¤ Ł
ì ¹
n ÃŃ
Ã ¨
d o
à§ģ à¦²
ÙĪ Ø±
áĥĵ áĥĲ
Î ¡
Î¯Î± ÏĤ
íķ ´
Ð¸ Ñĩ
Ġ W
Ġï¼ Ł
èĢ ĥ
é¢ ĺ
ª à¸²à¸
¥ ¿
à¹Ģà¸ Ĥ
ç ±
çİ ©
ç ²
à¨ ¿
ç Ħ
è· ¯
å¤ ĩ
è£ ħ
æİ ¥
èµ ·
æ º
à¤¾à¤ ľ
i m
à¯ģà® ®
Ï Ī
à°¿à° ª
áĥĿáĥ łáĥ
Ġth á»
à¸Ļà¸ ±
à¤¾à¤ ®
Ð°Ð ´
Î¿Ïħ ÏĤ
Ġê ³
à°Ĥà° ¡
ãģ Ļ
à§ĩà¦ ²
d ir
Ġl es
y m
áĥĺáĥ ¢
Ġà®ļ à¯Ĩ
ÐµÐ ²
ĠÎ ĵ
ĠØ§ÙĦ Ùħ
à¹Ģà¸Ľà¹ĩ à¸Ļà¸
åº Ķ
Ġ. ..
1 8
å £
Ġ àª
±à¸ ĩ
æ ¼
à¤ ³
ĠØ¨ Ø§
Ġc on
à§ĩà¦ ¶
ĠÎ± Ïħ
à±įà° ¸
ë ³
Ġ× ķ
Ġáĥĵ áĥĲáĥ
h r
Ð¾Ð» ÑĮ
Ġà¤ķ à¥ĭ
ÏĥÎ· ÏĤ
ë ¶
i z
u y
§ à§
à®² à¯į
ç» ĵ
çī ©
à¤¾à¤ Ĺ
à±įà° ®
áĥĺáĥ Ļ
à§ģ à¦°
Î ¤
Ïģ Î·
Ġp o
ĠÐ¿ Ð¾
à± Ĥ
ì £¼
à¸µà¸ ¢
à§įà¦ ·
à¥įà¤ µ
à° ¹
ĠáĥĴ áĥĲáĥĽ
ĠÙ ¾
í Ļ
t er
ĠÎ ¬
à¹ ģ
Ġt á»
à®¾à® Ł
l Ä±
ÐµÐ ³
à° ľ
¥ à¹ĩà¸Ńà¸
íĬ ¸
¥à¸ °
× §
Ïģ Ïī
Ġáĥ Ŀ
åķ Ĩ
åį ļ
à¹Ģ à¸£à¸
è¯ ķ
à¥įà¤ ·
à¦¾à¦ ľ
c e
ÙĬ Ø©
ë ł
ĠÐ Ŀ
à±ģà°² à±ģ
ÉĻ y
u f
Î Ŀ
ĠÏĦ Î¹
à¦ ¶
Ľ i
à¯įà® ©
Ð¸ ÑĢ
ķ à¸´à¸
n ie
i o
áĥłáĥ Ĺ
ãĥ ³
è´ ¹
à¹ģà¸ ¥
æµ ·
à¤¾à¤¹ à¥Ģ
Ø§ Ø¯
à°¾à° Ĥà°
ĠÎ¸ Î±
à ¶
Ġà¤¸ à¥ĩ
an t
Ġì §
à¯ģà®¤ à¯įà®¤
ĠÐ ł
Î¹ Î¬
Ġà¦ª à¦°
áĥĺáĥ ķ
ĠÐ ľ
à¸£ à¸£à¸
Ġà¤Ĩ à¤£
d i
áº¥ t
à°¿à° ²
ÐµÐ½ Ð¸Ñı
ï¿½ï¿½ ï¿½ï¿½
ĠÏĦÎ¿ Î½
ĠìĿ ´
e it
à¯ģà® Ł
Ķ à¹Ģà¸
c j
áĥĶáĥ ¢
Ġ es
Ġà¦ı à¦ķ
Ã ½
à°¾à° ¤
à¸² à¸Ļ
Ð¸ÑĤ ÑĮ
ĠÏĥÏĦÎ· Î½
ÛĮ Ø¯
Ġà¤ ĩ
× ¤
Ĺ à¸²à¸
d ÉĻn
áĥĺáĥ Ľ
Ð¸ Ð·
Ġn ie
Ġë Ĥ
Îº Îµ
à®² à¯įà®²
Æ°á» £
à°¿à° °
ãģ Į
ll a
à¦¤ à§ĩ
ĠÐ ŀ
áĥķ áĥĺáĥ¡
à¹ĥ à¸Ļ
s ch
ëĭ Īëĭ¤
ĠÎ Ĺ
Ø ·
à°Ł à±įà°Ł
åĪĨ åĪĨå½©
æĢ İ
æĦ ı
Ġå Ĭ
à¤¾à¤Ĥà¤ ļ
Ġw y
Ġ Ã©
Ð¾Ð ·
Ġà®ĩ à®°
à¹Ħà¸ Ĺà¸¢
à¸Ńà¸Ńà¸Ļà¹Ħà¸¥ à¸Ļà¹Į
à¤¨ à¥ĩ
à¹ģà¸ ¥à¸°à¸
Ġáĥ ¢
à° ¬
Õ¥ Õ
l i
Î± Ïĥ
Ġà¦ ²
Ð°Ð» ÑĮ
áº¡ i
Ġqu e
Î¸ Î·
ģ à¸²à¸
ĠAG çİ¯äºļ
æĢ »
åĻ ¨
à¤² à¤¾
Ġ I
áĥĶáĥ Ĵ
ĠÐ² Ñĭ
Ġà¦ ¥
à°¾à° ®
ÖĢ Õ
a ÅŁ
à®Ļ à¯įà®ķ
Ĭà¸ ±
çī ¹
Ġå ¥
ç ĥ
ç» Ł
à¤Ĥà¤ ¤
Ø ®
ĠÎ´ Î¹Î±
à°Ĥà° ²à±ĭ
ķ à¹Ī
× ŀ×
d en
Ðº Ð¸
áĥĶáĥļ áĥĺ
Ä ĥ
·à¹Ī à¸Ńà¸
ìŀ Ĳ
ÅĤ a
Ġà° Ī
à¦ ļ
Ðº Ð°
Ġ ?
à¹Ħà¸ Ľà¸
çĽ ¸
é ħ
æī Ģ
à¹Ħà¸ Ľ
1 2
Ġè Ģ
éĢ ī
ç ¼
ä¼ ł
ģà¸±à¸ ļà¸
Ġà¤ ı
à®± à¯įà®±
Õ¸ÖĤ Õ
Ġ il
Î» Îµ
Ä į
áĥ ¨
Ð°Ð ±
ìľ ¼
à°¾à° Ł
ĠÏĦÎ¿Ïħ ÏĤ
ãĤ ĭ
Ð½Ñĭ Ðµ
à¦ Ń
Ġg i
t y
ĠØ§ Ø²
ĠáĥĴ áĥĲáĥľ
Ġ R
çī Į
à¨ °
Ķ à¹īà¸§à¸
á Ī
å½ ±
Ġï¼ ģ
é¡ µ
Ġå° Ĭé¾Ļ
ç¾ ¤
æ ¢
ä» ĸ
Ć Ĉ
æµ ģ
ä¸Ģ ä¸ª
è į
å± Ģ
çĽ ®
ĠåĪ Ĩ
èµ Į
é¦ ĸ
Ġà¤ ĺ
Î¹Îº ÏĮ
à°¾à° ķ
ĠÃ §
ĠÐ µ
áĥĲáĥ Ĵ
Ø µ
Ġë ĭ
ĠÂ »
µ à¸
Ġè ¯
æµ ĭ
Ġæĸ °
Ġà¤µ à¤¿à¤
à° £
à¦¨ à§įà¦
ĠÂ «
Ġc á»§
áĥĺáĥ Ŀ
Ġs iÄĻ
d er
Ð½Ñĭ Ñħ
ÏģÎ¹ Ïĥ
Ġ× ¢
Ġà® Ĵ
à¦ §
áĢ ¹
éĿ ŀ
ĠâĢ ķ
Ġà¤Ĩà¤£ à¤¿
à ·
àµį à´
Ġà¤ Ķ
Ġm Ã¼
ìĽ Ĳ
v e
à°ķà±įà° ķ
áĥĺ áĥĲáĥľ
Ð¾Ð ¿
Î¿ ÏĤ
à¹ĥà¸Ĭ à¹īà¸
Ġe l
ë Ŀ¼
Å ¡
¡ à¹Ģà¸
ĠÎ Ŀ
Ġà¦¸ à¦®
áĥ ŀ
n a
Ð¸ Ñħ
Î¸ Îµ
Ġc Ã³
ĠÙ Ĭ
b er
© à¸
Ġê ·
Ġà° Ń
ÉĻ h
ou s
Îº Î±
à®³ à¯į
áĥ ¦
Ġà¸ ģà¸
åį ģ
æ ·
âĢ Ŀ
è ĥ
åº Ĩ
3 6
Ġ20 20
è¢ «
à¤¾à¤Ĥà¤ ¨
Ð°Ð ¹
ar e
Ġà¦¹ à§Ł
Î¿ Î¹
Ġà° ¶
Ġ u
¡à¸ ŀà¸
à¸£à¸²à¸ Ħ
Ġ à´
Ġà¤Ķ à¤°
Ġà¸ Ħà¸
ÐµÐ ·
ÏĥÎµÎ¹ ÏĤ
× ŀ
áĥĺáĥ ļáĥĺ
Ħà¸£à¸ Ķà¸´à¸
Ġì Ĥ¬
à¹Ĥ à¸£à¸
ãģ ¯
à±ģà° °
Ġa u
æĴ Ń
æľĢ æĸ°
åľ° åĿĢ
Ġç »
ç ¬¬
Ġà¤¹à¥ĭ à¤¤
a z
à¦¾à¦ ¹
à¹Ģà¸ ¥
ĠÎ± ÏĢÎ¿
Ã º
à®¿à® µ
Ð½Ñĭ Ð¹
áĥ £
à°Ĥà° Ĺà°¾
¥à¸ ĩà¸
ĠØ¨ Ø±
à§ĩà¦ Ľà§ĩ
Ħ à¸£
Ġ V
ç ģ
à¹ĥà¸« à¹ī
ĠãĢ Ĭ
å ŀ
è Ļ
å¾ Ī
åĽ ŀ
ķ à¹Īà¸
æ¬ ¢
ç¤ º
ç§ į
å¦ Ĥ
çĿ Ģ
à¥įà¤¯à¤¾à¤ ļ
Î¹Îº Î®
ÑĢ Ð°
ÉĻ b
Ġáĥ ª
ì Ĩ
o ÅĽ
à¯ģà® ±
Ġà¦ ĩ
Ð¸ Ñģ
Ïģ Ïĩ
ĠÙģ ÙĬ
Ġch e
Ĥ °
e i
åħ ¶
äº Ľ
è ¥¿
æł ·
éľ ¸
è¯ ·
ä¸ ľ
Ġ2 5
ĠãĢ ĳ
à¹Ģ à¸£
æĽ ´
Ġ0 2
à¤¾à¤ £
à°° à±į
Ġcá»§ a
a u
ë ŀ
áĥĲáĥ ĺ
ÏĢ Î±
Ð½ Ð¾Ð¹
Ġ Ã¼
Ġà¦ «
Ġ à¸Ńà¸
Ã³ n
e m
Īà¸ ±à¸
ĠÎ ®
Ġà¤ķ à¤¾
áĥĺáĥ £áĥ
à°¾à°² à±ģ
æĢİ ä¹Ī
èģ Ķ
è¶ ³
ç§ ĳ
t t
Ġæ Ŀ
åĪ Ĺ
Ġ2 2
éĻ ¢
æİ Ĵ
à¤¾à¤ ł
Ġà®ª à¯ĭ
ĠÙħ ÛĮ
¢ à¸²à¸
ĠÐ Ĳ
× Ľ
à§ ¦
Ġë ª
j Äħ
ĠÐ Ķ
Ĭ à¸²à¸
Î¼ ÏĮ
áĥļ áĥĺáĥ¡
Ġà° ¹
Ġà§ ¨
an s
à§ ĥ
à®¾à®° à¯į
Ġ ÑĦ
é¢ ĳ
æķ Ļ
èĢ ģ
åİ »
å¸ ¸
Īà¸²à¸ ģà¸
è Ħ
« à¸£à¸
à¸Ńà¸ ļà¸
Ł ³
äºī éľ¸
å¯ ¼
à¸Ńà¸¢à¸ ¹
Ġ1 9
å¾ ĭ
« à¸²à¸
ä½ĵ èĤ²
éĹ ®
à¹Ģà¸ ¥à¸
çľ ģ
æ ¨
å§ Ķ
æĮ ģ
à¹īà¸ §
æľ ¯
Ġè ®
æº Ĳ
ĳ åħĭ
Ġ1 3
Ĵ áŀ
ä» ·
Ġå¤ §
Ġä½ Ĩ
æĹ ł
æ´ »
çº §
1 6
åŁ º
1 5
à¥Ģ à¤ļ
ĠÎ´ ÎµÎ½
ë ©
Ġ. .
à°ļ à±įà°ļ
Ġà¤ª à¤°
in in
áĥĲáĥ ¨áĥĺ
Ð° ÐµÑĤ
Ġà¦ ĸ
ĠÎµ Î½
ĠÄ Ĳ
Ġà®ħ à®µ
zion e
à°¾à° µ
Ġb ir
Ġp our
ĠÙħ ÙĨ
Ġs e
ĠÂ Ń
Ġáĥ §
Ð½Ð¾ ÑģÑĤ
e j
Ġê ¸
à§ Ĥ
Ġh á»
Ïĥ Î±
ç ¡
«à¸ ¡à¸
å¼ º
å¸ Ī
æĺ Ł
Ġé Ģ
ä» »
º «
Ķ à¸µ
7 8
åĢ ¼
çĦ ¶
å° ĳ
å· §
è® º
è½ ¯
Īà¸ °
Ġ ä¸Ń
ä½ ¿
åį Ĺ
ģ à¹ĩ
áŁ Ĵáŀ
åĲ ĳ
åĪĨ æĹ¶æĹ¶å½©
åı ª
æĶ ¶
Ġà¤ ĸ
à±ģà° µ
à®¾à®© à¯į
s t
ĠÎµ Îº
ĠÐ¸ Ð·
à®¿à®¤ à¯įà®¤
áĥĲáĥ Ļ
× Ŀ
ì² ľ
ä¼ ģ
1 3
çī ĩ
æ »
å½©ç¥ ŀ
à¤² à¥Ģ
Ġì ¹
ÛĮ Ø±
à§ĩà¦ ĩ
ĠÎ¿ Î¹
à®© à¯įà®±
Ġáĥŀ áĥł
Ã £
Ġd a
Ġë ³
à° ³
åĸ ľ
æį ®
¦ Ĥ
20 19
è¿ ĺ
æł ĩ
Ġà¤¸ à¤Ĥà¤
ÐµÐ½ ÑĤ
Ã¼ r
à¦Ł à¦¿
Ġáĥĺ áĥ¡
ĠÎ Ĵ
Ġp ar
Ġz a
à¯ģà® ³
à±Ī à°¨
Ð½ Ð¾Ð³Ð¾
Î´ Î¿
éĻ Ĳ
ç» Ħ
à¤¿à¤ µ
Ġì Īĺ
ĠÏĦÎ¹ ÏĤ
l ich
Ġp rze
Ġ Ú¯
ÐµÐ½ Ð¸Ðµ
áĥ£áĥł áĥĺ
à¤² à¥ĩ
ÙĬ ÙĨ
qu e
o ng
ĠÏĥÏħ Î½
à®¾à®² à¯į
ĠÐ´ Ð»Ñı
áĥĽ áĥĲ
à° §
z a
à¤ ¬
Ġ ãĤ
Î¼ Î¬
Ñĥ ÑĤ
Ġà¦Ĩ à¦®
ë ¬
¥à¹ĩà¸Ńà¸ ķ
Ġà¸ Łà¸£à¸µ
ļà¸²à¸ Ĺ
à¹Īà¸ ĩà¹Ģà¸
Ïģ ÎŃ
Ġz u
ĠáĥĽ áĥĿáĥ
à¦¾à¦ ª
à°¿à°Ĥà° ¦à°¿
k u
Ġà®ķ à¯Ĭ
Ľ à¸£
Ġ× Ľ
Ø§ Ùĩ
è® °
à¥įà¤¯à¤¾à¤ ¤
á» ĭ
à¸£à¸ §à¸
m e
Ïģ Ïİ
Ð°Ð ¶
ì Ĥ°
Æ ı
Ġs u
Ġê µ
Ġà¦ Ľ
à¹Ģà¸ ģà¸
Ġáĥ ļ
ç ¦
æł ¼
Ġå ¯
Ġ !
à¸µ à¹Īà¸
ģà¸ ±à¸Ļ
ĠagåĽ½éĻħ äºļæ¸¸
Ġ1 8
ä½ ł
å± ±
88 8
Ġ1 5
4 5
å·¥ ä½ľ
å ²
Ġï¼ Ľ
Ġå ¼
à¹Īà¸ §
à¸Ń à¸Ńà¸
Ġå¤ ©
Ġà¤ķ à¥ĩà¤²
à° Ń
ĠÎŃ Ïĩ
à¤ ¼
e y
Ñĥ Ð´
à¯ģà® ¨à¯įà®¤
áĥĲáĥ ļáĥĺ
à±ģà° Ĺ
Å¼ e
ÏĢ Îµ
Ø ¶
ĠT h
à§įà¦ ª
iy y
ìĸ ´
Ñİ ÑĤ
Ġ2 22
ç ĸ
æĬĢ å·§
è ±
Ġå ¿
å¥ ³
å½ ĵ
æĥ ³
æİ ¨
à¹ĥà¸ «à¸
ç¤ ¾
ä» Ģ
Ġà¤¯ à¤¾
à°° à°¿à°
Ġes t
áĥĶáĥ ¥
ĠÎ± Î½Î±
Ã¬ nh
es s
çĻ ¾
ķ à¸²à¸
ķà¸±à¸ §
éĴ ±
Ġéĩ į
áĢ¹ áĢ
Ļ Ģ
å ł
å¤ Ħ
åŀ ĭ
åı¯ ä»¥
è´ ¨
æĶ ¾
ä½ ķ
áŀ ¶
Ĥà¸ ¶
æģ ¯
à¹ī à¸Ńà¸ĩ
à¤° à¥Ģ
áĥĺáĥ łáĥ
à¯Īà® ķ
à°¾à° ¦
ĠØ ¬
ÏĦ Î¯
ie r
à§įà¦ ¥
lar Ä±n
ĠÐ ¢
ĠÎ¼ ÎŃ
à°¨ à±į
å¸ ĥ
±à¹īà¸ ĩà¸
ä¸ ¤
¾ ³
à¹ģà¸ ļà¸
à¥ĩà¤ µ
áº ¯
es t
×ķ× ¨
áĥĶáĥĳ áĥ£áĥļáĥĺ
ÑĨ Ð¸
ãģ ¾
Ġde l
Å ¯
í Ķ
Ïĥ Î¹
Ġà¦¬ à¦²
ĸà¸ ¶à¸
Ġ æľī
Ġ ]
é¢ Ħ
ä¾ Ľ
è ¨
è º«
à¸Ļà¸µ à¹īà¸
Ġ à¸Ļ
Ġå Ĩ
æĪ ĸ
æ Ł¥
æ° Ķ
å· ²
Ġ2 3
è§Ĩ è®¯
Ġç İ
Ġà¤ Ŀ
Ð¾ Ñĩ
à¯ģà®ķà¯įà®ķ à¯ģ
áĥĶáĥĳ áĥĺáĥĹ
d e
Ġì ¶ľìŀ¥
¹ Ħ
Ġà° ı
á ½
ÏĦÎ± Î½
ĠÄ °
Å Ħ
ĠØ§ Ø³Øª
Ġà¦ Ł
Ã¢ n
Ð° ÑģÑĤ
è½¯ ä»¶
åĳ Ĭ
è° ĥ
ç² ¾
ç ĭ
æī ĵ
Ġ +
åĨ Ľ
ĠåĽ ½
æ² ¡
Ġå¤§åıĳ æĹ¶æĹ¶å½©
ç« ĭ
Ġæ Ń
à¤¾à¤ ª
Ġà° Ł
Ġà®İà®© à¯įà®±
ë§ Į
Ġg Ã¶
à¦¿à§Ł à§ĩ
ÙĦ Ùī
áĥĶáĥľ áĥ¢
ĠÎ Ļ
ow an
ĠÐ ¶
Ġa l
iá» ģ
t re
Ġà¦ħ à¦¨
Î Ľ
Î»Î¿ Î³
Ħà¸¸à¸ ĵà¸
±à¹īà¸ ĩ
æ± Ĥ
èĢ Į
å Ķ
Ĺà¸ ³
à¨¿ à¨
åħ ī
Ĥ à¸²à¸
å ĭ
à¸² à¸£à¸
ä¸ ĸ
à¤¾à¤ł à¥Ģ
à°¿à° µ
áĥ£áĥ łáĥ
à®¾à® µ
í ĸ
Ð¸ Ð´
Î ł
ĠÎ ¹
Ġáĥ¡ áĥĲáĥĽ
Ġà° Ĵ
w a
á» ¯
Ðµ ÑģÑĤ
i b
ÏĨ Î¿
Ġà§ §à§
Ġ× Ļ
Ġà®ħ à®¤
áĥĲáĥ ¨
çķ Į
åģ ļ
æĭ ¿
é¡ ¹
0 8
Ġ1 6
P P
Ġç Ľ
æĸ ¯
Ġ ą
åĮ Ĺäº¬
èĤ ¡
Ġà¤ «
à¦¿à¦ ¬
Ġd u
g en
ĠÎµÏĢ Î¹
Ġ Û
Ø± Ø¯
d an
áĥ® áĥķ
Ġìŀ Ī
ĠÐ ĺ
Ġp ÅĻ
Ġà°ļ à±Ĩ
à¦ ¯à¦¼
Ć ć
Ľà¹ĩ à¸Ļà¸
Ġ áĢ
åį İ
Ġç §
æŃ ¤
åıĳ å±ķ
Ġag æĹĹèĪ°åİħ
į à¸
èģ Į
åĪ Ľ
å¤ ´
/ /
ä¸ ĵ
20 20
ç Ł¥
à¥ĩà¤ ļ
Ġà®ļà¯Ĩ à®¯
Ð¸ ÑģÑĤ
Î´ Î±
Ġà°¸ à°Ĥà°
rz y
ĠÃ ¨
Ġà¤¹à¥Ī à¤Ĥ
Ù İ
Î· ÏĤ
áĥĲáĥ ¥
·à¹Ī à¸Ń
é£ İ
å¢ ŀ
ä»Ģ ä¹Ī
Ġh g
à¤¿à¤ Ĥà¤
Ã© s
Ðµ ÑģÐº
ĠÙ ĥ
is t
Ïĥ ÏĦÎµ
Ã ²
à¯įà® ®
à°¾à° Ĺ
áĥĲáĥ ĸ
Î»Î» Î¬
ĠÑĩ ÑĤÐ¾
Ġ od
Ġ ÅŁ
ÏĦ ÎŃ
¯ ¸
¡ à°¾
ci Ã³n
Ú Ĩ
× ĺ
á» ±
a ng
à®¾à® ¯
áĥ ĸáĥĶ
Îµ Î»
æ Ĥ
Ġ0 4
è¿ ĳ
Ġ0 1
Ķà¸ ¢
Ġ U
Ġæĺ ¯
Ġç ľ
Ġà¤ı à¤ķ
Ġë ĮĢ
Îµ ÏĦÎ±Î¹
à±ĩà° ¦
Ñĥ Ñİ
à®Ļ à¯įà®ķà®³
áĥĶáĥ Ŀ
ÏĢ Î¿Ïħ
ow a
à¦ ¥
ĠØ ¥
in dÉĻ
åĬ ŀ
ĠèĢ Į
ç« ŀ
Ġ ä¸ŃåĽ½
§à¸ ±à¸
à¤¾à¤ ¦
a tion
Ġì ĥ
ĠÐ¿ Ð¾Ð´
Î ľ
ÏĦÎ¹Îº ÏĮ
à±įà° ¦
Ġj e
ĠØ Ń
a to
Ġ0 0
à¤ Ń
à®¾à® ³
áĥĺáĥ ĸ
Ñı ÑĤ
Î¼Î± ÏĦÎ±
ë ª
Ġp or
à§ĩà¦ Ľ
Æ°á»£ c
ir e
à°Ĥà°¦ à°¿
æĮ ĩ
·à¹Ī à¸Ńà¸ĩà¸
éĢ ł
Ġç ¬¬
çİ ĩ
è§ ģ
ģà¸±à¸ ļ
±à¸ ļà¸
i ng
à¹Ģ à¸£à¸²à¸
ç ı
åĬ ©
Ġ >
à¥ ī
ĠÃ ¶
Îº Î¿
Ġà®ª à¯Ĩ
Ñĥ ÑĢ
áĥĺáĥ ¨
ë ĮĢ
Ġà°¤ à±Ĩà°²
ĠÎŃ Î½Î±
Ð°Ð ¿
j e
à°¾à° ľ
ich t
a b
áĥĿáĥ ¤
ĠØ§ ÛĮÙĨ
ê± ¸
ìł ķ
à±Ĥà° °
Ġà® °
× ¡
Ġà¹ģà¸ ¥à¸°à¸
áŀ¶ áŀ
éľ Ģ
é£ ŀ
Ġag å¹³åı°
åı Ĺ
åħ ±
å¾ ·
è İ
æ¡ Ī
åºĨ æĹ¶æĹ¶å½©
æ Ł
ä¼ ĺ
åı ĺ
à¥ģ à¤°
à¦¬ à§ĩ
Î¼ Î²
Ðµ Ñĩ
i ÅŁ
í ĺ
Ġà°ħ à°¨
Ġáĥ¡áĥĲáĥ ¥
Ġun e
à®¿à®Ł à¯įà®Ł
á» ¥
áĥķ áĥĶáĥľ
Î ¥
ÏĦÎ¹Îº Î®
Ġ an
åĸľ æ¬¢
Ġ2 4
Ġ ä»¥
è§ Ĥ
æĶ ¹
Ġ1 7
ľà¸¹ à¹īà¸
tt p
ĠåĬ ł
à¤ķ à¥įà¤·
ĠÑĢ Ð°Ð·
ãĤ Ĵ
k ie
Ġà¦ķà¦° à§ĩ
Îº ÏĮ
áĥĲáĥł áĥĺ
í Ĩ
à®¾à® ®
à¥ĩà¤ ¶
Ð¾Ð² Ð°Ð½
Ġà°ķ à±Ĭ
Ä± r
áĥ ĸ
ê² Į
ĠÏĮ ÏĦÎ¹
c y
Ġà®Ĵ à®°
ll e
k y
á» ©
ĠÙ Ĥ
Ġl os
à¦¿à¦ ¸
Ñĥ Ñĩ
Î¹Îº Î¬
à±įà°² à±ĭ
ä»£ çĲĨ
Ķ à¸µà¸
A PP
æĦ Ł
à¥ĩà¤ ķ
Ġ O
ĠáĥĶ áĥłáĥĹ
ê³ ¼
ĠÐ ĳ
ÏĦÎ¿ ÏĤ
à°¾à°¨ à°¿à°ķà°¿
Ġt o
à¦ķ à§ĩ
× Ĵ
c o
ÉĻ d
Ġc Ã¡c
Ð½ Ð¸Ðº
Î· Î½
Ġà®µ à®°
Ġáĥ¨ áĥĶáĥĽ
Ġë ¶
ĠÚ© Ùĩ
§ à¹ĩà¸
Ġ ï¿½ï¿½ï¿½ï¿½
Î ©
ÏĦÎ± ÏĤ
à¹ ģà¸£à¸
à¦ ĸ
ĻĢ â
èĲ ¥
æĭ Ľ
ģà¸ ¥à¸
åİ Ł
Ġag è§Ĩè®¯
Ġ1 4
e d
æ ®
Ġk 8
è® ®
Ħà¸§à¸²à¸ ¡
ï¼Į ãĢĳãĢĲ
à¸´ à¸Ļà¸
ī à¸
èĩ ³
á ī
è¾ ¾
ä¼ģ ä¸ļ
åħ Ī
Ġå ¦Ĥ
ä¹ ¦
åħ į
Ġ0 8
è¯ ģ
ç ħ
åĲ Ħ
åı Ĥ
åİ ¿
æ² »
åĵ ª
ç© º
b et
Ġ2 1
Ġå ·
Ġ: //
à¥ ĥ
ĠÑģ Ð²
ÙĬ Ø±
Ġ re
ĠÎ §
à®³ à¯įà®³
áĥ ¤
Î» ÎŃ
à°¿à° ®
Ġd as
Ð°Ð ³
ìķĪ ë§Ī
Ġê· ¸
Ļ à§įà¦
Ġ Z
à¥įà¤ ¥
à° ·
ĠÎº Î¬
£áĥ ļ
á»Ļ t
a ÄŁ
ĠÐ± Ñĭ
a is
à¦ ĵ
à°¿à° ¸à±įà°¤
Ġs p
Î» Î¬
áĥĺ áĥĺáĥ¡
à®¿à® ªà¯įà®ª
ÎŁÎ ¥
Ïį Î½
é¢ Ĩ
è§Ĩ é¢ĳ
è Į
Ġà¤ Ł
z ÉĻr
à±Ģ à°¸
al e
u l
ìĦ ±
ĠØ§ÙĦ Øª
« áĥļ
à§ĩà¦ ĸ
Ķà¸´à¸ ¡à¸ŀà¸
ł à¸
åĩ Ĩ
à¤§ à¥įà¤¯
Ð½ Ð°Ñı
à°¾à°¯ à°¿
Ïĥ Î¿
ÛĮ Ùħ
Ġ× ŀ
Ö ģ
Õ¸ Õ
i k
ìĹĲ ìĦľ
ĠÐ¿ÑĢ Ð¾
Ġà®µ à¯ĩ
§à¸ ±à¸Ļ
z e
ĠÏĢ Î¿Î»
ãģ ĭ
Īà¸²à¸ ģ
à¤¿à¤ ı
à¦¨ à§įà¦¤
Ġch o
Ġáĥ ĸ
ÐµÐ ±
Ø§ Ø¨
Ķà¸ ¥
Î» Î®
à¯ģà® ªà¯įà®ª
ĺ à¸
n o
Ġà¦ľ à¦¨
à¸Ńà¸£ à¹Į
dÄ± r
Ġà°ª à±Ĩ
Ġp l
Ġ Ñħ
ĠÎµ Î¾
à±ģà° ¡à±ģ
¥ à¸´à¸
Ġkh Ã´ng
áĥĲáĥłáĥĹ áĥķáĥĶáĥļ
Ġä» ĸ
ĠãĢĳãĢĲ ï¼ĮãĢĳãĢĲ
æī ĳåħĭ
æķ Ī
å¹ ¿
ä» İ
¡à¸²à¸ ģà¸
Ħ à¸Ļà¸
à¹Ģà¸ Ķ
¢ à¸Ļ
æĪ ¿
åħ ļ
±à¸ ļ
¥ à¸²
Ġæ Ĭ
à¹īà¸² à¸Ļà¸
Ġ [
ç Į
à¹Īà¸ ¡à¸
Ġà¨ ¦
åĪ «
å® ¹
ķ à¹īà¸Ńà¸ĩà¸
Ġ222 70
3 0
éĤ Ģ
ĠãĢ Ĳ
ç ª
ç± »
Ġ0 9
æľį åĬ¡
à¸£à¸ ¹
5 0
Ġå ¸
à¹Ģ à¸£à¸µà¸
æķ ´
à¹ĥà¸ Ī
ĠãĢĤ ãĢĤ
æ ¹
æŃ ¥
Ĺà¸ ³à¸
¡à¸² à¸£à¸
Ġæ ¯
å¸ ¦
à¤¤ à¤¾
ĠáĥĶ áĥ¡
c ie
ëĵ ¤
Ġà®ĩ à®¨à¯įà®¤
ĠÐ² Ñģ
Ïĥ ÏĦ
c k
à°¾à° ¡à±ģ
ÙĪ ÙĨ
Ġk i
áĥĲáĥ ¤
à§ĭ à¦¨
a d
Ġà¤Ŀ à¤¾à¤²
Ïĩ Îµ
ĠÐ¿ ÐµÑĢ
à¯ĩ à®°
à°Ĥà° Ĺ
m a
×Ļ× ª
áĥĺáĥ¡ áĥ¢
Ãł y
à°¾à° ¸
à¤¿à¤ ¸
Ġà¦¬ à§įà¦¯
Î± Ïģ
g e
ÑĢ Ð°Ð½
áĥĲáĥ ĳ
ãģ £
Î¿Ïħ Î¼Îµ
ª à¯į
à°ķà±įà° ·
Ġ íķ
ÎµÎ¹ Î±
áĥĿáĥ ª
ÙĦ ÛĮ
Ġp r
Ġåı ¯
Ġà¤® à¤¹
Ä± ÅŁ
Î¬ Î»
áĥĹ áĥĲáĥľ
Ġà° «
Ġà¦¨ à¦¾
Ġå ĳ
Ġ #
à¸Ńà¸ µà¸
Ġag èµĮ
¹à¸ ģà¸
é© ¬
áĢ ¬
æĸ Ļ
Ĭ à¹Īà¸§à¸
³à¸ «
éĻ Ĩ
1 7
Ġ =
éĺ Ł
¸ è¿Ĳ
çĽ´ æĴŃ
çĪ ±
àª ¾
æ¢ ¦
1 4
æĺ ĵ
ç® Ĺ
åį ĩ
Ġ3 0
åħ ·
à¤¾à¤ ³
ĠÐŁ ÑĢ
ÎŃ Ïģ
k o
Ð¸Ñĩ ÐµÑģÐº
á» Ł
à¯Īà® ķà¯įà®ķ
áĥĲáĥ ĸáĥĶ
à§ģ à¦¨
éĤĢ è¯·
ç½ ®
Ġà¤ķà¤° à¤£
Ïģ Î®
c a
Ġm it
à±įà°² à±ģ
Ð½ Ð°
ìľ¼ ë¡ľ
Ġ Ô
l ÉĻ
ĠÎ Ľ
on t
à§įà¦ ²
ĠØ± Ø§
ÏĦÎ¹Îº Î¬
Ø °
ãĥ¼ ãĥ
à¤¿à¤¯ à¤¾
ĠáĥĲáĥ ĵ
à®¿à® ´
×ķ× ľ
Ġà° ¯
Ð½Ñĭ Ð¼
h o
à¯ģà®³ à¯įà®³
ĠÎ ¦
a h
Ġà¦¬ à¦¾à¦
o b
ĠÎµ Î¯
æĭ¿ å¤§
¾³ éĹ¨
à¹Ģà¸Ľà¹ĩ à¸Ļ
Ġ ä¸º
åı ĸ
à¹ģà¸¥ à¹īà¸§
çł Ķ
å® Į
á ĭ
Ġäºļæ¸¸ å®ĺç½ĳ
å¥ ĩ
ä¹ °
§à¸ ±à¸Ļà¸
å½© åĸľæ¬¢
á Ĭ
Ġ 99
è½ ¬
Ġh ttp
ĠCOM å½©åĸľæ¬¢
æ£ ĭ
¸à¸ ģà¸
æ¶ Ī
æ¨ ¡
Ġ äºº
ä¹ ħ
à¹Ģà¸ ª
Ġ ä¹Ł
çº ¢
6 8
Ġà¦ ¡
åį ĵ
é» ĳ
æľ ª
Ġà¤® à¥įà¤¹
an o
Ġáĥ «
ìķ Ħ
iá»ĩ n
à§Ģ à¦°
Ð ŀ
à®ªà¯įà®ª à®Ł
ĠÐ ĵ
Ġv on
Î¼ Î·
åĽ Ľ
ĭà¸ ¶
Ġà¤¨ à¤¾à¤¹à¥Ģ
l a
áĥĿáĥĳ áĥĺáĥ¡
à± ĥ
Ġà¦¤ à¦¾à¦°
Ġà¤ĩ à¤¸
Ðµ ÑģÑĤÐ²
ĠÎ ĺ
Ø £
Î¹ Î½
Ġê° Ģ
æ¬ ¾
Ġå¯ ¹
ç½ĳ ä¸Ĭ
Ġ0 7
èĬ Ĥ
æ¸ ħ
Ġn et
éĢ ģ
æ± Ł
Ġå½©ç¥ŀ äºīéľ¸
åŃ ĺ
ç» Ļ
åĬ Ł
è ª
Ġ201 8
åĽ ł
æĿ ¡
æŀ ģéĢŁ
å Ħ
çł ´
ç Ĺ
åĮ ħ
Ġæ ²
3 8
è ı
Ń ¦
Ľà¸ ¥
æµ İ
ä¹ ł
è¶ ħ
Ġà¨ ķ
à¥įà¤¯à¤¾à¤ Ĥà¤
Ġ ro
Ã ¹
Ġáĥ¨ áĥĶáĥ
à®¤à¯įà®¤ à®¿à®²à¯į
Ġà°ļà±ĩà° ¸
Ġs ur
Ġpar a
ĠÏĢÏģÎ¿ Ïĥ
à§ĩà¦ķ à§ĩ
Ð¿ ÑĢ
Ġ Q
à¤¾à¤ ķ
áĥ£áĥ ľ
Î¼ ÏĢ
à±ĩà° ¶
cz y
ĠÑĤ Ð°Ðº
à®° à¯įà®ķà®³
ĩ à¸²à¸Ļà¸
ģà¸ ¥
ļ à¸£à¸´à¸
å· ±
6 0
à¤¤ à¥Ģ
Ġd en
a x
Ġ ÛĮ
íĻ Ķ
Ġ×© ×ľ
Ġá ¼
ÏĦÎµ ÏĤ
ĠáĥĹ áĥĲáĥķ
à¦ķ à§įà¦·
áº ·
Ġd Ã©
ÙĪ ÙĦ
on o
à°¤ à±įà°¤
ĠÐ¿ Ð¾Ð»
5 8
éª Į
çĥ Ń
æĶ ¯
ä¼ Ĺ
æŀ Ĳ
9 8
çĶµ æ¸¸
éĤĢè¯· çłģ
Ġæ ķ
à¤¿à¤ ¨
da d
à®® à¯įà®ª
ĠÏĥ ÏĦÎ±
Ġì ľ
Ġ J
Ġáĥĺ áĥľ
Ġd ÉĻ
à±ģà°Ĥà° ¦à°¿
ÎĻÎ ļ
ĠÎ¤ Î¿
Ļà§įà¦ Ĺ
Ġáĥĺ áĥĽ
Ġm o
à®° à¯įà®ķà®³à¯į
ÐµÐ ¿
æ Ĳ
éĹ® é¢ĺ
æł ¡
· à¥įà¤Ł
à¦ Ľ
ĠÎ¼ Î±ÏĤ
Ñĭ Ðµ
ãĤ Ĭ
ĠÏĢ Î¿
à§įà¦ ®
åĳ ¨
åĪĨéĴŁ å¿«ä¸ī
è¯ Ŀ
è¶³ çĲĥ
Ķà¹īà¸§à¸ ¢à¸
Ġ áŀ
å®ī è£ħ
Ġ0 5
à¹īà¸Ńà¸ ¡à¸
à¸Ńà¸ ļ
è¿Ľ è¡Į
åİ Ĩ
ĠâĢ ¦
æ¸¸æĪı å¹³åı°
ç»ĵ æŀľ
æİ §
åĨ ³
Ġ ä¸Ĭ
Ġ0 6
æ ¥
æĹ¶ éĹ´
à¹ĥà¸ Īà¸
è ĳ
¢ à¸Ļà¸
Ġç ¾
à¤¾à¤Ĥà¤¨ à¥Ģ
ĠáĥĴ áĥĲáĥĵ
à®¾à® ®à¯į
w i
ĠÄĳ Æ°á»£c
ì ½
as Ä±n
an d
ĠÎ ¾
Ġà° ¡
Ð½ Ð¸
ë ²
à§ĩà¦ Ł
Ġ äºļæ´²
å½ ¢
æ ĵ
æ£ĭ çīĮ
Ġ2 8
à© °
ł áł
æĢ ģ
´à¸ Ķà¸
à¤¾à¤° à¥Ģ
ĠÙĪ Ø§ÙĦ
à¯ģà® °
u e
Î± Î»
áĥĶáĥł áĥĺ
Ġà°® à±Ģ
Ġà¨ ¸
Ġå¾ ·
éĽĨåĽ¢ å®ĺç½ĳ
ģ à¸£à¸°à¸
Ħ à¸£à¸±à¸ļ
Ġ0 3
åĮ Ĺ
Ġæ µ
æĿ ĥ
Ġå İ
à¤°à¥įà¤ µ
ÑĨ Ð¸Ð¸
ow e
ìĥ µ
ë¶ Ģ
Ġà¦ı à¦¬
áĥĿáĥĳ áĥĲ
Ġ ri
Ġà® ı
Î³ Îº
à¤¹ à¥Ģ
× ¦
n ÄĽ
in i
Ð¾ÑĤ Ð¾ÑĢ
t Ã©
áĥĲáĥ ¦
u t
ĠÏĥ ÏĦÎ¹
Ġj est
Ø± ÛĮ
ìł ľ
Ġà°ķ à±ĭ
à®¾à®Ł à¯įà®Ł
i j
Ġ áĥĲáĥľ
Ùĩ Ø§
ģ à¹Ī
Ġéĩį åºĨæĹ¶æĹ¶å½©
à¥įà¤¯à¤¾à¤ ¸
ÎµÎ¹ ÏĤ
à´ ¿
Ġà¤¨ à¥ĩ
i Ãªn
Ġ er
ĠÏĢÎµ ÏģÎ¹
à±įà° ķ
ìĥ ģ
ĠÐº Ð°Ðº
Ġà®µ à¯Ĩ
i en
ÉĻ lÉĻr
ĠáĥĲáĥ ¡
Î³ ÏģÎ±
ìł Ħ
à¤¨ à¤¾
ĠÎ ¶
Ġà°® à°°
n y
Æ° Æ¡
Ġ× ł
ĠÑį ÑĤ
Ġà¦¨ à¦¿à¦
Ġáĥ¨ áĥĶáĥ¡
à®Ł à¯ģà®¤à¯įà®¤
Ø «
å°± æĺ¯
ç ¬
00 0
ĠÏĢÎ± ÏģÎ±
à¹ī à¸Ń
å ĥ
à¹īà¸² à¸Ļ
à© ĭ
æĸ ½
è´ Ń
Ġåħ ¶
Ġà¤¤à¥įà¤¯à¤¾à¤ Ĥà¤
Ġde lla
ëĤ ĺ
Ġn e
ĠÐ¸ Ð½
ÅĤ o
Î¯ Î¿Ïħ
à¦ķ à§įà¦¤
áº§ n
Õ µ
as Ä±
Ã ±
ĠâĢ ŀ
ãĤ ¹
Ġà®Ĵà®° à¯ģ
ĠÎºÎ± ÏĦÎ±
Ð°Ð¼ Ð¸
çĶ ±
à¤§à¥įà¤¯ à¥ĩ
Ġd ans
Ġà¤ ¥
c an
áĥĲáĥ ¬
in ÉĻ
í ĥ
ÎĹ Î£
ĠÎ± ÏĢ
ch en
Ñĭ Ð²
à§ĭ à¦Ĺ
Æ°á» Ľ
Ïģ Î¹Î±
áĥł áĥĿ
à±įà°¨ à°¿
Å¼ y
Ð ¡
ÐµÐ ¶
Ġl as
Ġ" :
ëħ ¸
ĠÎ¼ Î¹Î±
Ö Ħ
b ay
à¦¾à¦ Ĺ
lar Ä±
ë į
ag e
à®¿à® ļ
ĠØ§ÙĦØ £
Ġ× Ĺ
Ð ł
Ð´ Ð°
i g
ĠáĥĲáĥ ¦
ĠØ ²
à°¾à° ¡
Ġp ro
Ïģ Î¿Ïħ
Ġì¹ ´
Ġtr ong
Ġë ı
à´¿ à´
Ġà¤Ń à¥Ģ
à¨ ¤
Ĉ Ĉ
à¹Ģà¸£ à¸²
à¥įà¤ ķ
à¦¦ à§ĩà¦°
à®© à¯įà®©
ĠÎ´ Î·
Ġà¸ ļà¸Ńà¸¥
ŀ à¸Ļà¸
Ñħ Ð¾Ð´
Ķà¸´à¸¡à¸ŀà¸ ±à¸Ļà¸
ªà¸¸à¸ Ķ
à±įà° ¥
ãĤ Ĥ
Ġà®¨ à®Ł
áĥķ áĥļ
Ġs t
ÏĦ Ïħ
¸à¸ ķà¸
bay can
à¸Ńà¸£ à¹Įà¸
Õ¥ ÖĢ
Õ¡Õ ¯
u m
Ġà¦¸ à¦Ĥ
Ġ Ñı
ÏĦ ÏģÎ¿
Ġà®¤ à¯Ĭ
à¹Ĥà¸ ¡à¸
Ġáĥ ¯
2 3
åĪĨ pk10
ç İ¯
è§Ħ å¾ĭ
Ġé Ļ
åı ²
ŀ à¸´
ãĢ Ĭ
Īà¸ °à¹Ģà¸
Ġ ä¸ī
à¥įà¤ ª
ĠÎ¿ ÏĢÎ¿
ÉĻs i
í ı
Ġà°¸ à°®
Ø§ Ø²
ĠáĥĲáĥ łáĥ
×Ļ× ¨
Æ°á»Ŀ i
ĠÑģ Ð»
Ġà¦ı à¦ĩ
Ã© e
Ġìķ Ħ
çĶµ åŃĲ
à¸Ńà¸¢à¹Īà¸²à¸ ĩà¸
åŃ Ĺ
Ġé Ĥ
æľī éĻĲ
Ĥ à¹īà¸²à¸
Ġà¸ Ĺà¸µà¹Īà¸
æĬĢ æľ¯
à© ±
Ġæ ±
à¥įà¤° à¥Ģ
Ġ ist
Î ļ
ÏĮ ÏĦÎµ
k an
à¯Īà®¯ à®¿à®²à¯į
áĥĹ áĥķáĥĺáĥ¡
d y
Ñĥ Ð¿
à° ¶
Ġå¹ ¶
·à¹Ī à¸Ńà¸ĩ
åİ ĭ
- -
å® Ŀ
Ġ 88
Ć ą
Ġà¤®à¥įà¤¹ à¤£
ci on
Ġun a
à¦ «
ÏĢÎ¿ Î¹
Ñĭ Ð¹
zÉĻr baycan
à®ªà¯įà®ª à®Łà¯įà®Ł
Ġ Æı
Ø± ÙĪ
Ġ ãģ
Ġê¸ °
Ġáĥ£áĥ ľ
à° Ĺà°¾
Ġb u
ĠÐ¿ÑĢ ÐµÐ´
s e
Ġà¦¥ à§ĩà¦ķà§ĩ
à ¬
Ġà¤ķ à¤¿
Î´ Î¹Î±
Ľà¸£à¸ °à¹Ģà¸
Ġäºļæ¸¸ åĽ½éĻħ
Ī à¸£à¸´à¸
9 6
Ġè ´
Ġà¹ģà¸ ¥à¸°
å¹ ²
æ ĳ
ŀ à¸£à¸²à¸
è ħ
Ġè µ
Ġà¤ ¡
dz ie
ÙĦ ÙĬ
ĠâĢ ĵ
Ġáĥ¡áĥĲáĥ ®
à°¿à° Ĺ
ĠÎļ Î±
áº¡ n
Ġp as
Îµ Ïģ
Ġáĥ¡áĥĲáĥ¥ áĥĲáĥłáĥĹáĥķáĥĶáĥļ
Ġáĥ¨ áĥĶ
ç®¡ çĲĨ
Ġà¹ģà¸ ķà¹Īà¸
Ġè ĩ
ĠagåĽ½éĻħ åİħ
è® ¤
ä¹ ī
ªà¸²à¸ ¡à¸²à¸£à¸
à¹Ģ à¸Ļà¸
à¥ģ à¤ķ
¡ °
à¯Ī à®¤à¯įà®¤
iy a
Ð Ĳ
Ġà¦Ĩ à¦°
ĠÐ· Ð°
× Ł
Ø´ Øª
Ġf Ã¼r
ÏĢ Î¬
Ġå¿ «
æŀ Ħ
Ġ2 6
Ġç º
å®ī åįĵ
æ¼ ı
«à¸ ¥
åı ĭ
å¢ ĥ
èĩª å·±
§à¸ ¥à¸²
à¤Ĥà¤ ¦
à® ¸
ë Ł
en ÃŃ
r y
à¦¾à¦ ¶
f f
à±įà° ¡
Ġáĥĺ áĥ§
Ð¸ÑĤ ÐµÐ»ÑĮ
Î¼ÎŃ Î½
Ĺ à¹Īà¸²
ķ à¸£à¸
à¥įà¤ ¸
il m
Ġm á»Ļt
Ø§Ø ¡
à§ĩ à§Ł
Ġà®ķ à¯Ĥ
à°° à±ģ
ãģ Ĩ
ÐµÐº ÑĤ
Ġv an
ìĨ Į
ĠÎł Î±
ĠáĥłáĥĿáĥĽ áĥĶáĥļ
Ġqu i
à¦² à§ĩ
Ġj ak
Ïĥ ÏĦÎ·
Ġ ÑĨ
Ã¶ v
Ġa uf
en to
Ù ¾
Ġìł Ħ
à®Ļ à¯įà®ķà®³à¯į
à¦¾à¦¦ à§ĩà¦°
Ñĥ Ð±
Ġà° ²à±ĭ
oÅĽ ci
Îĳ Î£
Ïħ Î½
ģà¸ ±à¸Ļà¸
éĤ £
Ġåħ ¨
ç» Ń
ĠâĢ ĺ
à¥ ¦
ĠáĥĽ áĥĺáĥ¡
×ķ× ĵ
ĠÐº Ð¾ÑĤÐ¾ÑĢ
Õ¡Õ µ
Ġil ÉĻ
er e
Î³ Î¿
äº ĳ
Ġà¤Ĩ à¤ª
ĠØ§ÙĦ Ø¹
u x
à§ĩà¦ ¤
Ġà°ķ à±Ĥà°
ë Ĳ
c ia
áĥł áĥĺ
Î¸ ÎµÎ¯
ĠÄ į
æ· ±
Ġæ ³
äº ¿
ä¿¡ æģ¯
åº Ĺ
áĢ¬ áĢ
æ²¡ æľī
2 4
Ġæ İ
é¦ĸ é¡µ
à¸Ńà¸¢à¹Īà¸²à¸ ĩ
è¾ ĵ
æ¯Ķ åĪĨ
5 6
èī ĩ
±à¸ ģ
Ġäºļæ¸¸ ag
ç¥ ¨
å¹ ¶
åĽ½ å®¶
áł łáł
Ġæ ¾³éĹ¨
à¸Ļ à¹īà¸
à¥ ħ
à°¿à° ¸
Ùĩ Ø§ÛĮ
áĥĲáĥ £áĥ
Ð½Ð¾ Ðµ
Ġvá» Ľi
Ã Ł
t Ã³
u b
ÎŁ Î£
Ïģ ÎµÎ¯
à®± à¯įà®ķ
Ġà¦ªà§įà¦° à¦¤
ãĥ ĥ
Ġv er
Ðº Ð¾
ĠÎ¼ Î±
à±ĩà° ¸
ĠáĥĲáĥ ®
Ġ× ª
Ø± ÙĬ
Ġà¦ §
à°Ĥà° ļ
Ġ ou
Î¹Îº Î¿
os t
à¥ Į
ĠÐº Ð¾Ð¼
í ħ
áĥĲáĥ Ŀ
Ġng h
ĠA zÉĻrbaycan
Õ ¿
ĠÕ °
Õ¡ ÖĢ
e Ã§
à®¿à® ®
Ïĥ Îº
Ðµ Ðµ
ľ ê±¸
Ġ íķĺ
Ġ 66
å£ «
Ħ à¸Ļ
ĩ à¸²à¸Ļ
åĩ ¡
å¾ ®
¹ æŀľ
¶à¸ ģà¸
Ġç¾ İ
Ġå¤© å¤©
Ġ ï
à¨ ¨
ç§ °
æĢ Ŀ
à¹Ģà¸ ŀà¸
i p
Ġå° ±
à¤¾à¤ Ł
à¦¿à¦ ¶
áĥĺáĥĵ áĥĲáĥľ
ä½ İ
å¤ į
à¸Ńà¸¢à¸¹ à¹Ī
å¿ ħ
ç Ĭ
à¤¿ à¤°
Ġà°µ à±Ĩ
Ġn o
Î´ Î·
Ġà®ħ à®°
i nh
Ġ Y
Ð» ÐµÐ½
Ġà¦ ĺ
ÎŃ Î½
r es
à¯Īà® µ
Ġà¨ ¹
Ķà¸ ¹à¸
éħ į
åĪ Ļ
åı į
Ħà¸¸à¸ ĵ
åħį è´¹
ķ à¸´
áĢ ¯
t h
9 0
ç» ľ
Ġ äºļ
±à¸ įà¸
åĨ į
æĪĳ ä»¬
Ġà¸ ¡à¸
Ĺà¸µ à¸
çİ ĭ
¡à¸²à¸ ģ
à¥įà¤ ²
ĠØ¹ ÙĦÙī
êµ Ń
à°¾à° ª
×ķ× Ł
áĥĿáĥ Ĺ
Ġ is
Ð° Ñħ
ĠÎµ Ïħ
m o
iá» ĥ
Ïī ÏĥÎ·
Ġy ang
Ġà¦ıà¦¬ à¦Ĥ
Å¾ e
áĥļ áĥĶáĥĳ
Ġà°Ĵ à°ķ
Ùģ Øª
Ġà®® à¯ģà®
Ķà¹īà¸§à¸ ¢
«à¸ ¥à¸²à¸
ªà¸ ¡à¸
«à¸£à¸ ·à¸Ń
èĻ İ
àª¾ àª
çĻ» éĻĨ
è¿ ŀ
æ ļ
ç»ı æµİ
ķ à¸£
çī Ľ
æĬ ¤
é Ł³
à¤ļ à¥įà¤¯à¤¾
ìł ģ
ÐµÐ³ Ð¾
ÏĮ Î½
Ġs i
Ġg e
w ie
ãĤ Į
Ġà¤² à¤¿à¤ı
Ġáĥ§ áĥķáĥĶáĥļ
i d
ÐµÐ½ ÑĮ
ĠÎ¼ ÏĢÎ¿
Ļ à¯įà®ķ
åģ ĩ
¸ áĢ
æ ħ
ĻĢâ ĻĢâ
± áĢ
Ġà¸ Ĥ
łà¸²à¸ ŀà¸
à¥ģà¤ ³
áĥĶáĥĳ áĥ£áĥļ
Ġp rzy
lÉĻr i
Ð°Ð± Ð¾ÑĤ
iá»ģ u
it e
×ķ× ĳ
à¯įà® £
à°¤ à±ĭ
Î¾ Î·
Ø§ Ø³
Ñ ĳ
êµ ¬
áĥ£áĥ Ľ
à¸Ļà¸± à¹īà¸Ļ
åĵ į
ç¡ ®
å®ī åħ¨
Ġ3 6
æľīéĻĲ åħ¬åı¸
åĪĨ æŀĲ
æī į
Ġç ī
æĿ ¿
å¼ ķ
ä¸ ¾
è¶ Ĭ
Ġç «
Ġæ Ķ
a o
à¤ ĸ
à¯įà®¤ à¯įà®¤
Ïİ ÏĤ
ĠS ch
u re
il ÉĻr
à¯Ĩ à®°
à°¾à° ¬
Ġë ¬
ÃŃ a
Ï Ĭ
ĠáĥĲáĥ ¥
ÅĤ y
Ġà°ī à°¨à±įà°¨
Ġn on
æİĴ åĪĹ
Ġé ĺ
áĢ Ń
çħ §
Ġé Ŀ
Ġå¥ ½
à¤¾à¤ļ à¥įà¤¯à¤¾
Ø¯ Ùĩ
à¥ĭà¤ Ĺ
ÏĮ ÏĤ
áĥĺáĥ Ĵ
ĠÐ¿ÑĢ Ð¸
Ġi m
à¦ ¡
à®¾à® £
Ø§Ø ¦
ĠÎ ¥
n Ã©
Ġì ļ
ĠÏĥÏĦÎ¹ ÏĤ
áĥĺáĥļ áĥĺáĥ¡
Ñĭ Ñħ
Ġ× ¨
áº£ i
£áĥ ļáĥĺ
à°¦ à±įà°¦
ÉĻ z
Î¯ Î¶
Ġk tÃ³
Ġà®ª à®Ł
èĬ ±
à¤¾à¤ ¬
à¦¦ à§įà¦
an n
ĠÏĢ ÏģÏĮ
ic a
Ñģ Ð¿
Ġå¤§åıĳ å½©ç¥ŀ
Ġà¤ ł
áĥķ áĥĶáĥ
Ġì ĸ
Î¯ Îº
Ġr Ã©
Ġà°ª à±ĭ
Ø º
à¯įà® ¯
à¤¹à¥Ģ à¤Ĥ
Î¯ ÎµÏĤ
Ġv y
· à§įà¦Ł
ĠC h
à¤² à¥ĩà¤²
Ġà°µ à±įà°¯
Õ¸ÖĤÕ ´
o x
ĠÐ £
ti v
Ñĥ Ð»
áĥĲáĥľ áĥĺ
ĠÎ Ī
Ġà®İà®©à¯įà®± à¯ģ
u k
à±ĩ à°ķ
ļ Į
Æ°á»Ŀ ng
à¤¤ à¥ĩ
a ch
à¦¨ à§ĩ
Ñĥ Ð¶
ãĤ ¤
ĠÎºÎ± ÏĦÎ¬
áĥĲáĥĵ áĥĴ
it Ãł
×Ļ× ł
Ġf a
ë³ ´
Ġ ÚĨ
Ġà® Ł
à¦ķ à¦¾à¦°
Ñĥ Ð¼
à°¾à°¨ à±įà°¨à°¿
´ Ģ
Â µ
Î¼ Î®
ĠÑģ Ð¿
ĠV er
cj i
ĠáĥĽ áĥĲáĥĴ
Ġ on
à¹ĥà¸«à¸ ¡
Ġä½ ł
Ħ à¹Īà¸
äº§ åĵģ
éĺ ³
Ġà¨ ¨
ç½ĳ ç»ľ
à¹ Ĭà¸
æķ° æį®
æĬķ æ³¨
Ġà¤ §
ĠÏħ ÏĢÎ¿
Ã¡ s
ĠÙĦ ÙĦ
à¦¿à¦ Ł
áĥĶáĥ¥ áĥ¢
Æ°Æ¡ ng
in e
ĠâĢ Ķ
Ķà¸¥ à¸Ńà¸ĩ
Ġà¸ ģà¸²à¸£à¸
Ġà®ļ à¯Ĭ
Ġìĭ ľ
ĠØ± ÙĪ
Î¹Îº Î®ÏĤ
à°¿à° Ł
å¸Ĥ åľº
åħ Ń
Ġç Ļ
« à¹ĩ
ä¾ ¿
ć Ĉ
Ł ©
åĽ Ń
Ġà¤¤ à¤°
à®¤ à¯į
áĥ£áĥ Ĺ
ÏĦ ÏīÎ½
Ġp od
ĠÃ¼ Ã§
à¥Ģ à¤¤
Ġs ch
Ġà§¨ à§¦
ĠÐ Ĺ
Ġa ve
à¦¨ à§ĩà¦°
Ïĥ ÏĦÎ¿
ãĤ ī
à°¦ à°¿
Ġà¹Ĥà¸ Ľà¸£
¥à¸ĩà¸ Ĺà¸
á» į
Ġà¹Ģà¸ Ķà¸´à¸¡à¸ŀà¸±à¸Ļà¸
Łà¸ ¸à¸ķà¸
°à¹Ģà¸ ļ
Ġáĥł áĥĿáĥĴ
ĠÐ¼ Ð¾Ð¶
å¤ ª
Ĥà¸¶ à¹īà¸Ļ
4 0
å®ĺç½ĳ ä¸ĭè½½
ĠåĽ ł
å° Ķ
åĦ ¿
Ġà¤¹ à¥ĩ
ol o
Î¼ Î¹
ìļ Ķ
à®¾à® ±
Ġn icht
à¦¾à¦ ļ
áĥĲáĥłáĥ ĵ
e ng
àµ ģ
Ġà¤° à¤¹
it Ã©
ĠÙĩ Ùħ
Ġ ÑĪ
ÏĦÎ· ÏĦÎ±
Ø§ Ø¹
à¹Ĥ à¸Ļ
×ķ× ł
Ħà¸£à¸Ķà¸´à¸ ķ
à¸µà¸¢ à¸Ļà¸
à§įà¦ ¨
áĥł áĥĲáĥĽ
ìĹ ħ
cz e
Ġà¹Ģà¸ ¥
Ġà¸Ĺà¸ Ķà¸¥à¸Ńà¸ĩ
Ĭà¸± à¹Īà¸Ļ
Ġà¸ Ľ
Ð¾ Ðµ
Ãł ng
à°¸ à±įà°¤
Ġb e
al i
áĥĲáĥłáĥ Ľ
Ġì§ Ģ
Ġæ Ģ
Ĺà¸²à¸ ĩà¸
éĺ ²
ä» Ĭ
æĭ ī
ä¾ ĭ
à©± à¨
Ġà¤¸ à¤®
Ġà®ķ à®Ł
ĠÎ¸ ÎŃ
Ä± l
à±ĩà° µ
Ġv ous
Ġl o
ĠÎ´ Î¹
Ġà¦ª à¦¾à¦°
Ð¾ÑĢ Ð¼
Å¡ ÃŃ
áĥĶáĥ ª
Ðµ ÑĪ
à±ģà° ª
Ù Ģ
Ġà®ĩ à®¤
Ġåĳ ¨
å¤§åıĳ å¿«ä¸ī
æĬ Ĭ
å§ ĭ
à¥ĭ à¤ķ
Ïĥ Ïī
ĠØ§ÙĦ Ø³
Õ« Õ¶
Õ¥Õ ¬
ĠgÃ¶ r
ĩà¸´ à¸Ļ
áĥĶáĥĳ áĥļ
à¯Īà® ªà¯įà®ª
Ġth e
ļà¸Ńà¸ ¥à¸
Ġ à¸£
á ¿
Î³ Î³
Ø§Ø± ÛĮ
Ġà¹Ģà¸ §à¹ĩà¸
ch e
à±ģà°Ĥà° Ł
, "
ì§Ģ ëħ¸
Ġà¹Ģà¸Ķà¸´à¸¡à¸ŀà¸±à¸Ļà¸ Łà¸£à¸µ
ģà¸ ¡à¸
Ġí ĺ
Ð¸ ÑĨ
Ġan d
à¹Īà¸ĩà¹Ģà¸ ĩà¸´à¸Ļà¸
ļà¸²à¸Ĺ à¹Ħà¸Ĺà¸¢
Ġà¸ª à¹Īà¸ĩà¹Ģà¸ĩà¸´à¸Ļà¸
¥à¸ĩà¸Ĺà¸ °à¹Ģà¸ļ
Ġà¸ Īà¸
e c
à°® à±įà°®
Ġà¦ľ à¦¾à¦¨
ĠÎ±Ïħ ÏĦÏĮ
Ġà¸ ļ
Ġd z
åº ľ
à¤¾à¤² à¤¾
Ġi ÅŁ
à±ģà° ¡
Ħà¸£à¸ ·à¹Īà¸Ńà¸ĩà¸
Ġáĥ ¦
á» ĩ
Ïĥ ÏĦÎ±
ĠÐ Ľ
Ġà¤ħ à¤ª
Ġà¸ ŀà¸
ãĥ Ī
à¦¾à¦ Ł
à¯Īà®¯ à¯ģà®®à¯į
Ġà°ķà±Ĥà° ¡à°¾
Ã¡ v
a do
Ġáĥ¡áĥĲáĥ Ļ
¥à¸ĩà¸Ĺà¸°à¹Ģà¸ļ à¸µà¸¢à¸Ļà¸
Ġ à¸Ļà¸
Ïģ ÎµÏĤ
ur s
Ñĥ Ñģ
ìļ ©
Ġ Å¼e
Ãł nh
ĠÙĩ Ø§ÛĮ
×Ļ× Ķ
Ã¼ k
ment e
æĺ ¾
åĩ ł
à¹Ģ à¸Ń
èµ ¢
Ġ5 5
å®¢æĪ·ç«¯ ä¸ĭè½½
èĭ ¹æŀľ
à¤¤ à¥įà¤¤
ÙĬ Ø¯
à°ķ à°¿
Ā Ā
ÛĮ Øª
à¦¾ à§ľ
Ðµ Ñħ
n en
áĥĶáĥĿ áĥĳ
à¸£à¸²à¸Ħ à¸²
ªà¸ ³à¸«
à®¿à®± à®¤à¯ģ
Î´ Î¹
Ġà¦ī à¦ª
ĠÑģ Ð¾
à°¡ à°Ĥ
Ġv o
¤ ĳ
äºº æ°ĳ
ç© ¶
Ġæ Ľ
¢ à¸Ńà¸
ç³» ç»Ł
Ķà¸ ¹
à¤¦ à¥įà¤
Ïħ Ïĥ
Õ« Õ
iyy ÉĻt
áĥĶáĥĳ áĥĲáĥ¡
en ia
ĠÐº ÑĢ
à¹Ģà¸ ķ
il e
áº£ n
ĠÎŃÏĩ ÎµÎ¹
à¤ Ī
ĠØ§ ÙĨ
à¦¿à¦¤ à§ĩ
Ð° ÑİÑĤ
Ġà¸ ¥
ç ¢
ĠãĢĤ ï¼Į
Ġc c
ķ à¹Īà¸²à¸
¢à¸ §à¸
Ġà¹Ĥà¸ Ķà¸¢
à¥įà¤ ¨
Ġáĥ łáĥ
b en
ëı Ļ
Ġà®ħ à®®
s k
ãĤ ĵ
ĠÏĥÏĦÎ¿ Î½
Ġpl us
Ġà°¨ à°¿à°°
s o
áĥ ¯
Ġ ar
ĠØ£ ÙĨ
Ġ": "
Ġí Ļ
ä¸Ń å¿ĥ
Ġ2 7
Ġæ °
ć ï¼Į
è® ©
ĸà¸¶à¸ ĩà¸
æīĭæľºå®¢æĪ·ç«¯ ä¸ĭè½½
ä» ½
ä½¿ çĶ¨
Ġ20 0
èĪ ª
à¨ Ĥ
æŃ£ è§Ħ
2 5
çĽ ĳ
éĿ Ĵ
ĠåĬł æĭ¿å¤§
à¸£à¸¹ à¹īà¸
Ġè §
Ĺà¸ ±à¹īà¸ĩà¸
é ¥
è´ £
é¢Ħ æµĭ
ŀ å½©
«à¸Ļ à¹īà¸²à¸
ç¨ ³
à¸£ à¹īà¸²à¸
å ¡
åĮ »
Ġå¹ ¸è¿Ĳ
Ġà¸ ĭà¸¶
à¥ĩà¤ Ĥà¤
à¦¾à¦ §
ĠÎ± Î»Î»Î¬
Ġng Æ°á»Ŀi
Ġà®ª à®¿à®°
Î¿Ïį Î½
a ciÃ³n
Ġd an
ĠØ µ
Ġà°ħ à°µ
áĥĲáĥĽ áĥĵ
ÑĤ ÐµÑĢ
n ych
ì Īĺ
èĲ Ħ
A G
à¥ĩà¤ £
ÉĻ c
Ġ× ¤
ĠÐº Ð¾Ð½
in d
ÏĢ Î·
Î¼ ÏĨ
à¦¿à¦ ®
ĠáĥĹ áĥ£
à®® à®¾à®ķ
Ġ íķľ
Ùħ Ø§ÙĨ
c c
à°¿à°¨ à°¿
Ð½Ð¾ÑģÑĤ ÑĮ
Ġh a
ÏĪ Î·
åŁ Ł
ä¸ĸ çķĮ
à¸´à¸ Ķà¸
è¾ ĥ
à¤ķ à¤¾à¤°
áĥĺ áĥĶáĥł
Ã½ ch
à¦ Ļà§įà¦Ĺ
Ð° ÑĪ
Ġë ĵ
ÏģÎ¿ ÏĤ
w o
Ä± z
à°² à±įà°²
å¤ ±
Ġà¤® à¥ģ
à§ĩà¦ ĵ
áĥĲáĥķ áĥļ
Ð°ÑĢ ÑĤ
ãģ ı
Ġà¤¨ à¤¹à¥Ģà¤Ĥ
ĠÎ¼ Î¿Ïħ
Ġìł ľ
Øª Ø±
ÏĦ ÏİÎ½
ent e
á»¯ ng
Ġà® ľ
à¤Ĥà¤ Ĺ
Ġs ich
à±ģà°Ĥà° ¦
Ð½ Ð¾Ð¼
ÏĢ ÎµÎ¹
Ġc e
Ġà¦ķà¦° à¦¾
Ġc z
Ġ×Ĳ ×ª
æ¸ ¯
é£ŀ èīĩ
Ġ2 9
çº ¦
åĳ ½
¾ è®¯
Ġå½ ĵ
Ġ5 0
ĠçĶ µ
Ġà¥ §
Ġà°¨ à±ģà°Ĥà°
ĠÃ¼Ã§ Ã¼n
áĥĺáĥ£áĥ ł
Î¸Î· ÎºÎµ
Ð½Ð¾ÑģÑĤ Ð¸
í Ħ
à®ª à¯į
Ġc u
èĲ ½
ç± ³
åį ı
à¹Ģà¸ ¡à¸
à¹Īà¸²à¸ ¢
2 6
Ġä» İ
èĭ ±
Ġå¤§åıĳ å¿«3
Ķà¸ ¢à¸
Ġå° ı
Ġæī ĭ
à¥Ģ à¤¨
Ġa v
áĥĲáĥķ áĥ¡
Ð ĺ
Ð¸Ð» ÑĮ
çİ° éĩĳ
à¹ģà¸¥ à¹īà¸§à¸
çĻ ½
åł Ĥ
à¸Ńà¸²à¸ «
ç¦ ı
æ£ Ģ
à¨ ¹
Ġag äºļæ¸¸
åĨ µ
è Ľ
à¹Ħà¸ §
ģà¸ §à¹Īà¸²
ªà¸ ¹à¸
å ©
Ġ3 3
âĢ ¦
2 7
ĠåĪ ©
ç» ´
à¥įà¤ ®
Ġw ir
ĠÎľ Îµ
ÅĻ ÃŃ
à¦¾à¦ ģ
à±ģà°ķ à±ĭ
s zy
ĠØª ÙĪ
Î¹Îº Î¿Ïį
ë© ´
Ġà®µ à®¾à®
å¤§ å°ı
ĠåĲ Į
ä¿ ®
è¯ Ħ
ç ¯
èī º
è ŀ
· à¹īà¸Ńà¸
à¹Ĩ à¸
ç§ Ĵ
Ġà¤ķ à¤¾à¤°
ĠÐ¿ Ð»
Î¿Î¹ Î½
Ġáĥ£áĥľ áĥĵáĥĲ
Ù ĳ
Ġà®ª à®¾à®°
à§ĩà¦ ®
s te
Î»Î¿ ÏĤ
Ġave c
ÑĢ ÐµÐ¼
à°¾à° §
ĠØ§ Ùħ
Ġm en
Ïį ÏĦÎµ
Ġáĥĵ áĥĲáĥĽ
ĠìĿ ´ë
Õ¡ ÖĢÕ
ÉĻ f
Ġà¤ħ à¤¨
à¦¾à¦ ĵ
Ġà®ĩà®° à¯ģà®ķà¯įà®ķ
Ã¡ ch
ĠE n
en ie
Ïģ Î¯Î±
× ĸ
ãĥ «
ĠáĥĲáĥł áĥĺáĥ¡
ĠÐ ķ
en ti
à°¾à° £
Î¼ Î¿Ïį
e v
d u
Ø³ ÛĮ
ie l
à¦¿à¦ ¦
Ġà®ª à¯Ĭ
Ðº Ñĥ
Ġáĥĵ áĥ¦
åĩ »
áł ¢
ç Ł
çģ «
åħ «
ļ áŀ
å Ĥ
Ġà¸ Ĺà¸µà¹Ī
éĩ ĩ
à¸Ńà¸¢à¸¹ à¹Īà¸
à¤¾à¤Ĥà¤¨ à¤¾
ÏĦ Î¿Ïħ
ìĺ ¤
ĠÐ¿ Ð¾Ñģ
Ã¡ l
à§įà¦ ķ
Ġe x
ĠÎĳ Î½
à±Ģ à°°
ĠáĥĽ áĥĺáĥ
Ãł n
¶ Ķ
ÏĮ Î³
à¤ķ à¥ĩ
Ġà°ħ à°Ĥà°¦
ĠØ§ÙĦ ØŃ
Ġa us
à®¿à®° à¯ģà®¨à¯įà®¤
zion i
ä½ ı
ĠæĪĳ ä»¬
è¯ »
à¹ģ à¸Ļà¸
äº Ĵ
éļ ¾
à¤¾à¤µ à¤°
Ð¶ Ðµ
ÏĢ Î¹
áĥĲáĥłáĥ Ĵ
ëĭ Ī
à±Ģ à°µ
s z
Î» Î¹
ÉĻ ti
Ãł i
ĠáĥĽ áĥ®
ĠØ¢ ÙĨ
à±ģà°ķ à±ģ
ÏģÎ¯ Î¿Ïħ
il l
ĠÐ ¤
à¤ ı
à§ĩà¦ ¬
×Ļ× ľ
Ġìĺ ¤
Îµ Ïĩ
Ġp i
µ à¤°
à±įà°¸ à±į
à®ļ à¯įà®ļ
ÑĢ Ð¾Ð²
Îµ Îº
Ġo b
Ġáĥ °
ÙĬ ÙĦ
ĠI n
å¤ĩ çĶ¨
à© ģ
à¤¾à¤ Ī
à§įà¦ ļ
an Ä±n
Î ĵ
ÎĻ Îĳ
ĠÏĥ Î·
ë ¹Ħ
ĠÐ¸ Ð»Ð¸
à¯įà® ¨à¯įà®¤
ãģ į
áº§ u
à°¨ à±ĩ
ĠáĥĹ áĥ¥
æľ Ľ
èĮ ĥ
Ġagçİ¯äºļ éĽĨåĽ¢
ç½ĳ æĬķ
s c
«à¸ ¡à¸²à¸
à¥įà¤¯à¤¾à¤ ¨
Ġëª ¨
Ġà°ļ à±Ĥà°
ĠÎºÎ± Î¸
à§ĩà¦Ľ à§ĩà¦¨
m en
Ġà®ķ à¯ģà®±
Ġe d
à¤¸ à¥ĩ
v er
áĥĲáĥłáĥ ¢
ÑĢ Ð¾
à±ģà° ¦
à¦°à§įà¦ ¬
Î¼ÎŃ Î½Î¿
ìĿ´ íĬ¸
æĻ ¯
ç¤¾ ä¼ļ
ĠãĢĤ âĢĿ
Ħà¸ ¡
èĩ ´
é¦ Ļ
Ġå Ń
«à¸£à¸ ·à¸Ńà¸
Ġà¤Ĩà¤¹ à¥ĩà¤¤
Ù ĭ
Ð½ Ñı
ĠD e
Ġìł ķ
áĥ® áĥĿáĥķ
od z
an do
Î¯ Î¿
à§ °
Ġà¦¤ à¦¿à¦¨
Ġb er
Ġà°ħ à°¯
ĠÑį ÑĤÐ¾
Ġnh Æ°
Ġ× §
ÏĦ ÎŃÏĤ
áĥķ áĥĲ
c ÃŃ
ëĤ ¨
¢à¸ ±à¸ĩà¸
Ġä» Ĭ
åĮĹäº¬ èµĽè½¦
å¿« ä¹Ĳ
ģà¸ ³à¸
ĠâĢĿ ï¼Į
å»º è®¾
ķà¸±à¸ §à¸
Ć ï¼Į
Ġæ ł
è§£ æ¢¦
o k
Ġè ĭ
ĠAG äºļæ¸¸
à¹ģà¸ļà¸ ļ
ĠagèµĮ åľº
4 8
Ġ à¹Ĩ
à¥ĩà¤ ¨
à¦° à¦¾
ì °
Ã© r
Ġà®¨ à¯Ģ
Ùĩ âĢĮ
à°¿à°Ĥà° Ĺ
ĠÐ¾ Ñģ
Ġáĥ© áĥķáĥĶáĥľ
ãĤ ¯
Î² Î±
Å ŀ
ow ie
à¦¨ à¦¾
t os
Ġáĥ£áĥ ¤
f t
Ïĥ Î¯Î±
à¥ģ à¤¨
ìĬ µ
Ð Ŀ
il le
ÐµÑĤ ÑģÑı
Ġà¦ľà¦¨ à§įà¦¯
á» ĵ
cion es
Ġb aÅŁ
Î½ Ïī
à±ģà°¨à±įà°¨ à°¾à°°à±ģ
áĥ «
Ġt e
à®£ à¯įà®£
Ġà¨ µ
é ĸ
Ġè ħ
ª à¹Īà¸§
Ġag åľ¨çº¿
Ġà¤° à¤¾à¤ľ
à°Ĥà°¤ à±ĭ
Ñİ Ñī
ÏģÎ¿ Ïį
ou t
Æ°á»Ľ c
à®¿à®² à¯įà®²
Ġ æľ¬
à¹ĥà¸Ĭ à¹ī
Ġé «ĺ
æĸ Ń
à¹ģà¸ ¥à¸°
Ġ äºĶ
èİ ·
åı Ī
à¥ĭ à¤²
à°² à±į
ll o
áĥĿáĥłáĥ ª
ĠS ie
Î¬ Ïģ
Ġb y
Ð°Ð½ Ð¸Ñı
Ġ×ľ ×Ķ
ĠÎ¼Îµ ÏĦÎ±
m p
à§ Ī
áĥľ áĥĺáĥ¡
à±įà° ³
çĽ ĺ
å·ŀ æīĳåħĭ
Ġå¤§åıĳ æŀģéĢŁ
æķĻ èĤ²
èĲĦ äº¬
Ġå º
è± ¡
Ġå ±
ªà¸ ±à¸
Ġ æľĢ
à¤¾à¤¨ à¥ĩ
l iy
Ġà®¤ à®®
à¯ĩ à®©à¯į
Ð» Ñİ
Ġà®¤ à®¿à®°
Õ ¨
ÉĻ q
à± Į
Î¿ Ïģ
ĠØ¨Ø± Ø§ÛĮ
áĥĲáĥķ áĥ¨
ĠL e
Ġ2 55
æŀ ģ
Ġ201 7
éĹ »
æŀ Ĺ
à¹ Ħà¸£
å¼Ģå¥ĸ ç»ĵæŀľ
çŃ ĸ
d 88
æ¯ ı
Ĭ à¸µà¸
åĥ ı
2 9
æ² ³
à¨ ¦
b o
è¾ ¹
áł ¤
à¥ĩà¤ ¸
Ã¢ y
à®¿à®© à¯įà®±
Ð¸ Ñİ
ĠE l
à¦¬ à¦¾à¦°
Î³ÏģÎ± ÏĨ
g i
áĥł áĥĺáĥ¡
Ä °
ĠÕ §
li k
ĠåĪĨ åĪĨå½©
éĻ į
à¹Ģà¸ Ī
à¥ģà¤³ à¥ĩ
ĠÎ± Î³
Ġà°ķ à°²
à¦¸ à§įà¦¥
ÙĪ Ùħ
à´ ¾
Ġà¤ī à¤¨
Ġê² ĥ
ĠÐ³ Ð¾Ð´
ÏĢ ÏīÏĤ
Ġà®® à¯ĩ
ĠáĥĽ áĥĹ
es z
s en
áºŃ n
Ġp e
ĠÏĥ ÏĦ
m ÉĻk
«à¸Ļà¸ ¶
éĻ ©
à¨ ¸
æ® µ
å¼ ł
à¹Īà¸ ¡
Ġå Ĵ
è¯ ¥
å®ĺç½ĳ çĻ»å½ķ
à¤Ĥà¤ ¡
Ġ× Ĵ
Ġáĥ® áĥĶáĥļ
à°Ĥà° ª
Ð ļ
ĠÐ¾ Ð´
ãĥ ©
c u
ÏģÎ± Î³
à§ĩà¦ ¸
in a
à°¾à°° à°Ĥ
Î Ķ
ĠÎ ¡
Ġà®ĩà®° à¯ģà®¨à¯įà®¤
è ³
æıĲ ä¾Ľ
ĠéĤ £
à¸Ļà¸ ´à¸
ç½ĳ é¡µ
å® ¤
éª Ĺ
æ² ¹
à¸£à¸£à¸ ¡à¸
é£ Ł
æĿ ĳ
çĽ Ĭ
èģĮ ä¸ļ
è¨ Ģ
è Ń¦
Ġ à¸£à¸
à¥ĩà¤ Ł
áĥĿáĥ Ļ
Ø§ Ùģ
à¦¾à¦¬ à§ĩ
ĠÄĳ á»Ļ
ung en
Ñĥ Ðº
à±ģà°² à±ĭ
ÏĦÎ¹Îº ÎŃÏĤ
Ġáĥ¡ áĥ¢
Ð° Ñĩ
à±įà° Ĺ
t u
» ¿
Ġì Ĩ
Î² Î¬
Ð² ÐµÑĤ
Ġà®ķà¯Ĭ à®£à¯įà®Ł
Ð¸ Ð»Ð¸
ĠÎº Ïħ
áĥĲáĥ ŀ
p o
ÉĻ dÉĻ
åĽ ´
Ġà¤¤ à¥ĩ
Ġà°ļà±ĩà° ¯
or t
ĠÏĥ Î±ÏĤ
à¦ Ľà§ĩ
ëĵ ľ
Ġt er
ĠÑĢ Ð°Ñģ
± Û
Ø§ÙĨ ÛĮ
Ġ×Ķ× ŀ×
à´¾ à´
àµģ à´
Ġà¤¯ à¤¹
áĥĿáĥłáĥ Ľ
Ġà® ¯
Ù Ĳ
Ġein e
à§Ģ à§Ł
Ġh o
ĠÕ ´
Õ¸ÖĤÕ ©
ÉĻ ÅŁ
± ¼
à¤¾à¤ §
Ø ¸
ÅĤ u
à¯ģà® ª
Î¸ Î®
Ð°ÑĤ ÐµÐ»ÑĮ
ĠáĥĽ áĥĲáĥĹ
à¦¤ à¦¿
Î¼Î± ÏĦÎ¿ÏĤ
j ÃŃ
Ã¨ s
è¯ Ĩ
Ġ &
å ª
à¹ģà¸ ķà¹Īà¸
ä¾ Ŀ
ª à¸´à¸
Ġè¿ ĺ
à¤¾à¤ļ à¤¾
à±įà°° à±Ģ
ì½ ľê±¸
íĦ °
ÏĦ Ïī
Ð ķ
ĠÑĤ ÑĢ
a c
Î¿Ïħ Î»
à±ĩ à°°
à§ĭ à¦°
áĥĵ áĥĶáĥĳáĥĲ
èĭ ı
ç§ ¯
åİĨ åı²
å± ŀ
æĶ¿ åºľ
è¡ Ģ
Ġäºļ ç¾İ
æ¸ ©
à¸Ńà¸ ģà¸
Ġè ¡
à¹ģà¸ ¡
2 1
à¸Ļà¸± à¹īà¸Ļà¸
áł ¡
æĹ ħ
éĵ ¶
å£ °
Ĺà¸ ¸à¸ģà¸
Ġ ï¿½ï¿½
éĵ ¾
à¤¾à¤ļ à¥Ģ
à®³ à¯Ī
ĠÏĥ Ïĩ
ur a
Ġëĭ ¤
å¿ Ĺ
à¹Ģà¸ Ĭ
à¹Ģà¸ Ħà¸
à¨ ķ
a v
Ġå°Ĭé¾Ļ d88
à¥ĩà¤ ³
ĠÑĤ Ð¾
ĠÎ¼Îµ Î³
n ia
Ġáĥ¡áĥĲáĥ¥áĥĲáĥłáĥĹáĥķáĥĶáĥļ áĥĿáĥ¡
ĠáĥĻ áĥĿáĥĽ
å°ı æ¸¸æĪı
à¤¡ à¤¼
à±Ģ à°
Ã´ i
Ùħ Ø§
Ġà°ķ à°¾à°°
h l
Ð ¢
Ñģ Ð»
Ġà¦ı à¦°
áĥĵ áĥĶáĥĴ
Ġv i
Ġà®µ à®¿à®
Î¹Îº ÎŃÏĤ
Ġs z
æĻ º
Ġà¹Ģà¸ ¡à¸
æĭ į
å®¶ ä¹Ĳ
çı Ń
ç« ł
æ¼ Ķ
Ġ à¹ĥà¸Ļà¸
Ġæī Ģ
Ġåħ ¬
é º
Ġæ ¬
Ġè ¦ģ
à¨¾à¨ Ĥ
à¤¾à¤Ĥà¤ļ à¥įà¤¯à¤¾
à±ģà° ®
Ġ× ĵ
i q
i dad
ĠÐ §
ĠÚ© ÙĨ
ÏģÎ¹ Î½
ãģ ĵ
áº¿ n
ê ·
áĥĺáĥľ áĥĲ
Ġau ch
on s
ĠÐ¸ Ð¼
à¤¸ à¥įà¤¤
Ġà°¸ à°¿à°¨
à°¡ à±įà°¡
Ġ ÅĽ
Ġà®® à¯ģà®Ł
à¦¾à¦ķ à§ĩ
ĠÎµÏĢ Î¯
áĥķ áĥĺáĥĹ
in o
âĢ į
à¤¾à¤ ¥
Ġà°µ à°¾à°°
ë ¯¸
an ce
Ð°Ð» Ð¸
áĥĶáĥ Ļ
Ä± m
ĠØ¨ Ø§ÙĦ
Ġà®ī à®³à¯įà®³
ĠD ie
Î½Î¿ Î¼
ìĽ Ķ
Ġcom o
åıª ä¸º
é¦ Ĩ
¤ à¸
Ġ3 8
Ġæ ĭ
Ġà¨ ª
é ±¼
à¸´ à¸Ļ
çķ ¥
åº ķ
à¥ģ à¤®
it a
ĠáĥĻ áĥĺ
ÑĢÑĥ Ð³
Ġà°ļà±Ĩ à°ªà±įà°ª
Ä±n da
à§įà¦ ¡
Ã¨ re
Î´ Î®
Ġì Ĭ
ov Ã¡
ÙĨ Ú¯
à±ĭ à°ľ
an ie
ĠáĥĽ áĥĲáĥ¡
Ġ×ľ ×Ĳ
á» ķ
Ïİ ÏģÎ±
s i
Ġ à¶
à¤¾à¤ ĩ
Ġà°® à±Ĭ
Ð¿ Ð»
Ð°ÐµÑĤ ÑģÑı
Ġáĥ¡ áĥĲáĥ¡
Ġà¦ķ à¦¾à¦°
m er
Ø¨ ÙĬ
Ġà®µà¯ĩ à®£à¯įà®Ł
ÏĦÎ¿ Ïį
í ļĮ
ãģ¾ ãģĻ
Øª ÛĮ
b y
in dÉĻn
ĠÑĢ Ð°Ð±Ð¾ÑĤ
ĠáĥĽ áĥĿáĥĽ
Ġà°° à±Ĩ
ĠìĿ ¸
åį ¡
36 5
è ²
à¸Ńà¸Ńà¸ ģà¸
à¤£ à¤¾à¤°
ĠÏĥ Ïį
qu es
Ġm em
Ġà®¤à®® à®¿à®´
à¯ĩ à®ļ
a nh
ĠÐ² Ð¾Ð·
ĠA n
áĥĲáĥ «
à§ģà¦ ·
à¥ĭ à¤¨
ĠáĥĲáĥ ķ
Î¹Îº ÏİÎ½
à±ĭ à°Ĺ
Ù ı
al es
à®± à¯įà®ª
Ïĩ Î±
iáº¿ t
ÑĨ Ð¸Ñı
Õ¡Õ ´
Ä± q
ĠÎŁ Î¹
ìĹ ¬
Ġs o
×Ļ× Ł
áĥĺáĥ¨ áĥķ
ĠÐ Ń
Ġà¦Ĩ à¦²
Ġà¤¹ à¥Ģ
m i
áĥłáĥ «
ĠÙħ ÙĪ
Ġà°® à°¨
ìĤ¬ ì§Ģ
í Į
à¦Ł à¦¾
ĠÎľ Î±
à¯ģà®® à¯įà®ª
u ch
à¹ĥà¸«à¸ į
èŀ į
à¹Ĥà¸ ¥à¸
Ġà¸ ĸ
ŀ à¸£
Ġï¼ļ âĢľ
Īà¸£à¸´à¸ ĩ
ä¹ĭ æĺŁ
Ġà¸ ľà¸
è¶³çĲĥ æ¯ĶåĪĨ
à¸Ńà¸ °
Ġæ į
.. ..
Ġæ ¸
Ġæ ·
l o
æĿ Ĳ
à« ĩ
è ¦
à¤¾à¤Ĥà¤ Ĺ
à°° à±įâĢĮ
Ð¾Ð»ÑĮ ÐºÐ¾
Ïģ Îº
áĥĲáĥª áĥĺ
Ĥ à¦²
Ġà§¨à§¦ à§
Ġà°® à°¾à°°
à¦¦à§įà¦ §
à¤¯ à¤¾
íħ Ķ
Ġk eÃ§
Ġnh á»¯ng
Ġáĥ¡ áĥ®áĥķ
ÙĪ ÛĮ
íķĺ ëĬĶ
ÏģÎ¹ Î¿
ÑĤ Ð¾ÑĢ
Ľà¸£à¸°à¹Ģà¸ Ĺà¸
ľà¸¹ à¹ī
Ġæ ı
åĢ Ļ
à¹Ģà¸£à¸ ·à¹Īà¸Ńà¸ĩ
à¤Ĥà¤ ¬
Ø§ ÙĤ
Ã ¥
Ġ× ¡
Ġde i
k t
Ġà¦¬à¦¿à¦ ¶
c tion
à±ĩà° Ł
Ð¸Ð½ Ð°
Î´ Î¹Î¿
Ð¸ Ð±
Ġà¤® à¥ĭà¤
Î· ÏĥÎ·
¬ áĥ§
à®ķ à¯į
ĠL a
Ġt ak
Ã¼ ÅŁ
ĠÎ´ Îµ
ĠS p
ÑĢ Ñĭ
áĥ£áĥ ¡
ŀ à¸´à¸
w s
à¹Ģà¸ Ľ
Ġà¤¦ à¤¿à¤²
à°¿à° ²à±ĭ
à§ Į
Ð½ Ð¾Ð²
Ġìŀ Ĳ
Î¿Î½ ÏĦÎ±Î¹
å®ĺæĸ¹ ä¸ĭè½½
ĵ áŀ
åı¯ èĥ½
ļ à¥įà¤¯à¤¾
à¤ «
Ùĩ Ùħ
à¯įà® °
áĥĲáĥļ áĥ£áĥłáĥĺ
Ġm Ã¡s
ĠÑģ Ð¼
p r
Ġà°ħ à°¨à±įà°¨
Ä± b
Ġà¦¬à¦¾à¦ Ĥà¦²
à§įà¦ ¸
ĠáĥĽ áĥĿ
Ġde m
Ð³ Ð¾
Î»Î» Î±
ĠÕ ¯
Ġ Ö
Ġ X
à°¤ à°¿
Ġà¤¤ à¥ĭ
Å ©
Õ¸ÖĤÕ© Õµ
Õ ¾
ĠÕ ¸
ĠB u
ĠØ ·
×ĳ ×¨
w ia
ÎĻ Î£
Ïĥ Î±Î½
Ġê² ½
áĥĺáĥ ¥
Ġà®ļà¯Ĩà®¯ à¯įà®¤
à°¿à°Ĥà°ļ à°¿
a in
Ġà¦® à¦¾à¦¨
ĠÑģ ÑĢ
Ġqu es
Ġà¤ķ à¤¹
Î© ÎĿ
ÎĳÎ ¤
Îº Î±Î½
áĥł áĥĿáĥ¡
l an
à®¿à®° à¯ģà®ķà¯įà®ķ
à±ĭ à°¯
ĠÐ° Ð²
Ġà¦¨ à¦¿
á» Ń
éĩį è¦ģ
å¤§ åŃ¦
éľĢ è¦ģ
Ĺà¸²à¸ ĩ
å± Ĥ
Ġç§ Ĵ
åħ »
§à¸±à¸Ļà¸ Ĺà¸µà¹Ī
¸à¸ Ķà¸
Ġç ¥
Ġé ¦
ĠæĹ ¥
æĻ ®
é¡¹ çĽ®
Ġé »
Ġå¤§åıĳ ä¸Ģ
Ġà¤¸ à¥įà¤µ
ÅĻ e
ĠS t
à®¤à¯įà®¤ à¯Ī
à°¿à°Ĥà° ¦
Ġí ı
ĠáĥĹ áĥĲáĥľ
ĠÏĢ Î±Î¹
en d
ĠÑģ Ð°Ð¼
ĠÎ¸ Îµ
ĠØ¯ Ø§ÙĨ
ĠØ§ÙĦØ ¬
à°Ĥà°¦ à±įà°°
à¦ĸ à¦¨
ĠÕ ¥
Ã¼ m
áĥĶáĥ ĸ
Ġà¤ķ à¤¿à¤¯à¤¾
a da
à¤¾à¤ ¡
à°¾à°¤ à±įà°°
Ð°Ð¹ ÑĤ
×ł ×Ļ
ĠÛ ±Û
ĠÚ© Ø±Ø¯
Î¸ ÎŃ
ãĥ ª
ow y
Ġì °
ĠÐ½ Ð¾
ion e
à¯įà®ķ à¯įà®ķ
ç ¿
å ³
çİ© æ³ķ
åĨ ľ
Ġèħ ¾è®¯
«à¸ ±à¸
éĶ Ģ
ç¬¬ ä¸Ģ
äº ²
åŃ £
åĶ ®
à© Ī
ķ à¹īà¸Ńà¸ĩ
çĶ ³
Ġ4 4
·à¸Ń à¸Ļà¸
Ġè ½
æł ¸
à¨ ²
à¹Īà¸²à¸ ¢à¸
à© Ĥ
Ľà¹ĩ à¸Ļ
Ġ4 8
à¤ ¥
áĥĿáĥ ¢
áºŃ t
à°Ĥà°Ł à±ĩ
a j
à¦¨à§įà¦ ¦
r Ã©
Ð¾ÑĢ ÑĤ
Îµ ÏĢ
Ġà®ħ à®©
Ġol un
áĥ£áĥ ¨
Ġì ²
Ġ ich
Ïĥ Î¿ÏħÎ½
Ġb ei
Ġ4 0
ä» ĭ
à¤² à¥įà¤¯à¤¾
Ġà¦Ĩ à¦ª
Ð¸ Ð³
p er
à°® à±Ĩ
ĠØ§ÙĦ ÙĤ
Ġáĥĺáĥ§ áĥĿ
Ġj s
l es
æį ¢
Ġèĩ ª
çłĶ ç©¶
99 9
¢à¸ ±à¸ĩ
Ġs h
ľ à¹Īà¸²
éĿ ©
ä¸ Ķ
Ġæ Į
Ķ à¸²à¸
7 6
Ġ äºĮ
äº «
çĹ ħ
ç» Ĩ
ä¸Ń å½©ç¥¨
æ» ¡
ģà¸ ´à¸
à¹Ģ à¸Ńà¸ĩ
æ´» åĬ¨
ç ¶
Ġà¹Ģà¸ ŀà¸
Ġà¤® à¤¿à¤
à±ģà° Ĺà°¾
à®¾à® ķà¯įà®ķ
Ã¡ n
m y
ĠÎ Į
Ð´ ÐµÐ»
Ġà¤¹ à¥ģà¤
ìĸ ĳ
im i
Ġ×¢ ×ľ
ĠÐ± ÑĥÐ´
Î½Î¿ Î½
Ø² ÛĮ
Ġs c
èĽ ĭ
å° ¼
ä¼ł å¥ĩ
· à¹īà¸Ń
Ġ à¹Ħà¸¡à¹Īà¸
çº ª
Ġ3 5
à¹ģà¸ļà¸ ļà¸
Ġå ģ
æ ¿
à¤¾à¤¤ à¥Ģà¤²
Ġáĥ£áĥ Ļ
et z
ĠÄĳ Ã£
Ġë° Ķ
an ia
et te
Ġà¦¹ à¦¬à§ĩ
Ð» Ð¾
áĥĺáĥ ¤
ĠÎł ÏģÎ¿
ÏĦÎ· ÏĤ
is e
à±ĩà° ·
Ġéĩ ĳ
éĿŀ åĩ¡
åĲĪ ä½ľ
å¥ Ĺ
à¤ķ à¤°
Ġa z
à®©à¯įà®± à¯ģ
áĥĿáĥł áĥĺáĥ¡
Ġe en
Ġp ra
ìĭ ł
ÙĨ Ø§
Î¯ Î´
Ġà¦Ĩ à¦¸
è¯ Ģ
ç§ĳ æĬĢ
c om
åį ³
? ?
ç´ ł
Ġà¤¸ à¤°à¥įà¤µ
ĠÐ» Ñİ
Õ¸ÖĤ Õ¶
lÄ± q
ÏĦÎ¹Îº Î®ÏĤ
is s
ĠÛĮ Ú©
ĠáĥĴ áĥķ
Ġà°¸à°¿à°¨ à°¿à°®
à°Ĥà° ķ
à¤¨ à¥Ģ
à§įà¦¯ à¦¾à¦¨
Ľ Ħ
à¯Īà® ªà¯į
Ïĩ ÎµÎ¹
áĥł áĥĺáĥķ
Ġs ono
Ġ or
Ø§ ØŃ
ĠÎĳ Ïħ
ĠÑģ Ðº
w e
Ġ" ,"
ìĬµ ëĭĪëĭ¤
ÏĨ Î±
áĥĲáĥľ áĥ¡
× ļ
à°¿à°Ĥà°ļ à°¿à°¨
Ġv Ã½
Äĥ ng
ĠÑģÐ² Ð¾
Ïħ Î½Î±
èĦ ĳ
åı ¤
7 9
è¡¨ ç¤º
66 6
ç¦ »
«à¸Ļ à¹īà¸²
Ġåı ĳ
¥à¸ °à¹Ģà¸
çļĦ ä¸Ģ
à¤¾à¤ļ à¥ĩ
à¥ģ à¤²
Ġd la
m aq
à®¿à® ¨à¯įà®¤
ĠE s
Ġà§¨ à§
ãģĹ ãģ¦
Îµ Ïį
à¦§ à§įà¦¯
áĥ® áĥĲáĥĵ
Ġà°¤ à°¨
t s
Ġro z
Ð¾ÑģÑĤ Ð°Ð²
ĠÙħ Ø¹
Î³ Î®
à±įà° §
Ġà¤¸ à¤¾à¤¥
ĠáĥĻ áĥĿáĥľ
ĠS e
Ġá Ĭ
* *
æīĭæľºçīĪ ä¸ĭè½½
æľ ĥ
Ġçľ Ł
åĲ §
è´ ¢
åģ ¥
Ġà¹Ģà¸ ŀà¸£à¸²à¸
Ġà¥ ¨
Ġà®İà®© à¯įà®©
ĠÑĥ Ñĩ
éħ Ĵ
æĸ¹ éĿ¢
à¸£à¸±à¸ ģà¸
Īà¸±à¸ Ķà¸
łà¸²à¸ ŀ
3 5
éģ Ĺ
Ġà¹Ģà¸ §à¸¥à¸²
éĿ ł
à« į
åħ ħ
ķà¹Ī à¸Ńà¸
åħ ´
à¤¾à¤ ĸ
Î»Î¿ Î½
Ġà®ķ à¯ĩ
ÃŃ nh
Ġde y
ĠÎ±Î½ Î¬
ç» ĩ
å¦Ĥ ä½ķ
è§ ī
Ġè ģ
Ħà¹Īà¸ °
áĢ¯ áĢ
ķ à¹Į
¸ à¹Īà¸Ļ
à¥ĭ à¤°
£áĥ ¡
b re
à®¿à®¯ à®¿à®²à¯į
Ġc zy
à¦ ł
Ñĥ Ñī
áĥĶáĥĳ áĥ¨áĥĺ
n Ã¡
Ġy ar
a hr
Î¼Îµ Î½Î¿
cz ne
Ġà°ļà±ĩà° ¸à±įà°¤
Ġa c
åĢ į
à«į àª
Ġæīĭ æľº
ĠæĹ ¶
4 9
Ġçİ¯äºļ æ¸¸æĪı
à¹ģà¸ ģ
ĠåĪ© æĿ¥
å¤ ®
è®¾ è®¡
à¹ĥà¸«à¸¡ à¹Ī
å¯ Ĩ
è® ¸
èµ ļ
çĶ ·
é ¤
Ġà¸ ¡à¸µà¸
łà¸ ±à¸
à¤µ à¤°
ĠÎ´ Î¹Î¬
Ð¾Ñģ Ñģ
Ð° ÑĨÐ¸Ð¸
à¦° à§ĩ
Ġà®¤ à¯Ĩà®°
à°® à±Īà°¨
Ġ× ĸ
Ø¨ Ø±
Ġáĥ¬ áĥļáĥĺáĥ¡
ĠÄĳá» ĥ
Ïĩ Î½
Ñģ Ð»Ð¸
l er
Õ¡Õ ¿
Ġ Åŀ
i to
æŃ »
å¥ ¹
à¥ĭà¤ ¡
Ġà®ķ à¯ĭ
n ym
o ir
Ġk ter
áĥķ áĥĲáĥļ
Ġes ta
ar i
ĠÐ¾ Ð½
Ġà¤ª à¤¹
ÎĳÎ Ŀ
ĠÎ® ÏĦÎ±Î½
ĠÙħÛĮ âĢĮ
ĠáĥłáĥĿáĥĽáĥĶáĥļ áĥĺáĥª
Ġà¦¸ à§įà¦¬
ëħ Ħ
b e
Ġà®µ à®¨à¯įà®¤
ĠÃ§ ox
ĠÐ´ Ð¾
Ġà¤ķ à¤¾à¤¹à¥Ģ
à®µ à¯ģà®®à¯į
à°¿à°² à±įà°²
Ġ ent
Î¼Î± Î½
ÙĦ Ùĥ
Ġà¦® à§ĭ
oÅĽ Äĩ
Ŀ i
Ġà°µ à°ļà±įà°ļ
Ġà¦¦ à§ĩà¦ĸ
ãģ ķ
ÏģÎ¹Ïĥ Ïĥ
áĥĹ áĥĲ
Ñ Ĭ
Ġà¤ķà¤° à¤¨à¥ĩ
Ġï »¿
Ġì £¼
à°¸ à±į
ĠB e
é ²
åº ı
à¹ĩà¸ ģ
à¹ģ à¸Ļ
à¸Ńà¸ Ķà¸
å¤§ æĪĺ
ä¸į æĺ¯
æ¬ §
çĽ Ł
à¤£ à¥Ģ
áĥĶáĥłáĥ ¡
×ķ× Ŀ
Ġg r
ÏĥÎµ ÏīÎ½
à¦¨à§įà¦¤ à§įà¦°
Ð°Ð½ Ð¸Ðµ
à¯Īà® ļ
Ġáĥĺ áĥ¥
Îķ Î£
Ïĩ Î®
à§įà¦ ¦
à¤¤ à¤¾à¤¤
ov Ã©
ÉĻl i
à°¾à°¨ à±ģ
Ð°Ð½ Ð¾Ð²
Ġp re
ĠP h
Ġï¿½ï¿½ï¿½ï¿½ ï¿½ï¿½
Ġ ÏīÏĤ
Ġë³ ´
Ġà®ª à®²
Ġáĥĵ áĥĲáĥ¡
à°² à°¾
a ÅĤ
à¦° à§įà¦¤
Ðº ÑĤ
ĠL es
à°¾à° ³
ĠØ§ÙĦ Ø´
Ġdi es
áº¿ t
ÏģÎ¿ Î½
v ÄĽ
à°¿à°Ĥà°ļ à°¾à°°à±ģ
Ð¾ÑĤ ÑĢ
et to
à¤¾à¤ ı
Ġol an
ĠÎº ÏĮ
áĥ£áĥ ¤
Ġà¦Ĩ à¦Ĺ
ÏģÎ¹ÏĥÏĥ ÏĮÏĦÎµ
Ġt y
Ġà®® à®±à¯įà®±
Ð¼ Ð¸
à°¨ à±įâĢĮ
Ġáĥ¬ áĥĲáĥłáĥĽ
Ġs ta
×ķ× Ĳ
ì ĻĢ
à§ĩà¦ ·
Ġs er
Ø§Ø ¬
Ïģ Î¸
Ġw ie
à°¿à° ¦
çł´ è§£
à¥į âĢį
ĠÎ Ĩ
è§Ĥ çľĭ
Ġà¤¸ à¤ķ
Ð°Ð» Ð°
ãģ£ ãģ¦
Õ ½
ĠÃ¶ z
Î¾ Îµ
à¹Ĥà¸£à¸ ĩ
Ġthá» ĥ
æ´ ŀ
äº¤ æµģ
åľ ĭ
à¤°à¥įà¤ ®
à°¾à° ·
áĥĺáĥĲáĥľ áĥĺ
à¦® à¦¾à¦¨
Ġà¹Ĥà¸Ľà¸£ à¹Ĥà¸¡à¸
Ġà¸ ¥à¸ĩà¸Ĺà¸°à¹Ģà¸ļà¸µà¸¢à¸Ļà¸
à¸£à¸²à¸Ħ à¸²à¸
Ðº Ðµ
Î»Î» Î·Î½
Ġà¸¥à¸ĩà¸Ĺà¸°à¹Ģà¸ļà¸µà¸¢à¸Ļà¸ Łà¸£à¸µ
Ġà¸ªà¹Īà¸ĩà¹Ģà¸ĩà¸´à¸Ļà¸ ļà¸²à¸Ĺà¹Ħà¸Ĺà¸¢
à¸²à¸ ģ
ĠÎĶ Î¹Î±
ŀà¸Ļà¸ ±à¸Ļà¸
à¹ĥà¸Ĭà¹īà¸ Łà¸£à¸µ
Ġà¸Ĺà¸Ķà¸¥à¸Ńà¸ĩ à¹ĥà¸Ĭà¹īà¸Łà¸£à¸µ
Łà¸¸à¸ķà¸ ļà¸Ńà¸¥
Ġ $
Ġ à¸Ń
ĠR e
ĠÎ¤ Î±
ĠØ§ÙĦ ÙĨ
Ġà¹Ĥà¸Ľà¸£à¹Ĥà¸¡à¸ Ĭà¸±à¹Īà¸Ļ
à¸²à¸ ªà¸´
© à¸²
ĠáĥĽ áĥĺáĥĽ
Ġà°ħ à°¨à°¿
à¦¾à¦ ¯à¦¼
t ÄĽ
ÑĤ Ð¾Ð¼
Ġb il
Ġs ont
Ġm e
Ġà¸ªà¸ ¥à¹ĩà¸Ńà¸ķ
¡à¸ ±à¸
áĢ º
Ġå ī
§ à¸Ļà¸
å· ´
¢ à¹Į
èį ¯
æĥħ åĨµ
ķà¸²à¸ ¡à¸
åº ĵ
éĻ ¤
à¹ī à¸Ļà¹Ģà¸
ĠæĪ Ĳ
è´ Ł
è® ²
ç µ
æī ¿
Ġé Ľ
äºº åĳĺ
s h
æī ¹
Ġåı ª
ä¾ Ĩ
E T
æīĭæľº çĻ»å½ķ
Ġå® ī
ĠãĢĳãĢĲ ãĢĤ
å¯ Ł
ĸà¸¶à¸ ĩ
à¹Ģà¸£à¸ ·à¹Īà¸Ńà¸ĩà¸
ªà¸ Ķà¸
åª Ĵ
æīĭæľº app
à¤£ à¥ĩ
t r
Ġê³ ł
áĥĿáĥĳ áĥ¡
ĠÎº Î¹
Ġà°Ĺ à±ģà°°
ĠÐ¾ Ð¿
Î½Î· ÏĤ
ĠÎ¼ ÏĮ
áĥĲáĥľ áĥĵ
Ú¯ Ø±
Ð¾Ð»ÑĮ ÑĪ
×Ļ ×ķ×ª
os ta
ny a
ì¶ľìŀ¥ ìĥµ
ì¹ ´
Ġs on
å¾ Ģ
Ġà¤¹à¥ĭà¤¤ à¥ĩ
ļ à°¿
ĠØ§ÙĦØ ¥
ĠÎ½ ÎŃ
µ ľ
Ġáĥ© áĥĶáĥĽ
ĠÏĩ Î±
áĥĺáĥ §
Ġpi Ã¹
Ġà° ĵ
Îº Î¹
ĠT r
Ġà¤¹ à¤®
áĥĺáĥ ŀ
ÐµÐ» Ñı
s kie
ë¬ ¸
ĠÎĶ Î·
à§ĥ à¦¤
ĠÎ±Î½ ÏĦÎ¹
à¸£à¸ ¹à¸
Ġå° Ĩ
æĸ¹ æ³ķ
åħ¥ åı£
åħ¬ è§£æ¢¦
Ġà¤µ à¤°à¥įà¤
Ġà°° à°¾à°ľ
ĠÃ¶ l
ÑģÑĤÐ² ÐµÐ½
an te
ĠÃ º
Î¯Î½ ÎµÎ¹
à±ģà° Ł
Ġà®µ à®´
Ø² Ø§Ø±
áĥķ áĥ¡
ĠN g
Ġw er
Ð½ ÑĥÑİ
Ġm i
ĠØ§ÙĦ Ø¯
áĥĿáĥł áĥĺ
Ïĥ Î¹Î±
ä¹ Ŀ
Ġç Ī
Ġäºļæ¸¸éĽĨåĽ¢ å®ĺç½ĳ
à¥ĭà¤ Ł
à°¸ à±įà°Ł
à¦¾à¦ ĸ
ĠìĹ ¬
Õ¡Õ ½
Õ¶ Õ¥ÖĢ
Ġ ÉĻl
ĠÚ© Ø§Ø±
t es
á»ĳ i
Ð¾Ð»ÑĮ Ð·
Î» ÎµÎ¹
ĠáĥĽ áĥĶ
Îķ Î¡
Ïģ Ïħ
ãģ Ĥ
w y
ĠáĥĽáĥĲáĥĴ áĥłáĥĲáĥĽ
ĠÎº Î¬Î½
Ã ¸
à¦¿à¦ Ĥ
Ġ Å¾e
ĠæŃ ¤
Ġà¤ħ à¤¶
Ġà°ª à°°à°¿à°
áĥłáĥ £áĥļ
p e
à®¿à®ķ à®³à¯į
Î»Î» Î·
Ù Ĵ
ĠÐ· Ð°Ðº
ÛĮ ÙĦ
ªà¸ ¥à¹ĩà¸Ńà¸ķ
à¸£à¸²à¸ ¢à¸
Ø± Ø¨
×Ļ× §
à¹Ģà¸£ à¹ĩà¸
ĠåĴ Į
³ à¸Ļà¸
Ġåĳ¨ åħ¬è§£æ¢¦
Ġå¤§åıĳ äºĶ
à¤¾à¤ ¶
Ġáĥ¡ áĥĲ
Î¼ÏĮ ÏĤ
Ġà¦ħ à¦¬
ĠëĤ ĺ
lÉĻr in
ĠÐ²Ñģ Ðµ
à±ĩà° ®
Ġ app
y a
Ġà¤¥ à¤¾
áĥĶáĥ ®
ÑĢ Ð°Ð·
cj a
ĠÎ± Ïĥ
ti g
à°¤ à±įà°¯
áº ©
æĸĩ åĮĸ
à¤Ĥà¤¤ à¤°
Ġáĥŀ áĥĺáĥłáĥ
Î» Ïħ
Å º
ì§ Ħ
Ġà®İà®© à¯įà®ª
ÐµÑģ Ñģ
ĠÎµ ÏģÎ³
à§Ł à¦¾à¦°
Ø ¦
i v
ĠN h
à°¯ à±įà°¯
Ð¾ÑģÑĤ Ð¾
Ġáĥł áĥĲ
ĠÏĢ ÏģÏİ
es ch
ĠáĥĲáĥĵ áĥĲáĥĽ
§ à¸´
à±Ĩ à°Ł
Õ ´
m asÄ±
ä¸Ń çļĦ
ĠæĹ ł
Ġ ä¸ĭ
åĪĨéĴŁ pk10
Ĭ à¸´à¸
Ġå ĵ
ä¸» è¦ģ
å¯ Į
Ġ ĆĈ
u p
çĤ º
Ġæ ¢
èĢĥ è¯ķ
âĢ Ķ
æĮ Ĥ
à¸µà¸¢à¸ ĩ
20 0
4 6
è¿Ļ ä¸ª
åĿ ĩ
Ġà¤ī à¤ª
ÑģÐº Ð¾Ð¹
à§ İ
ĠÎ ¯
Ġì ¤ĳ
ia ÅĤ
áĥľ áĥĶáĥľ
çīĪ ä¸ĭè½½
à¥įà¤¯ à¤ķ
Ġà®ħ à®±
d os
ÑģÐº Ð¸Ð¹
ĠÎ± ÏģÏĩ
ou ve
×Ļ× ĳ
ÙĬ Ùħ
à§ĩà¦ ¦
à°¿à° ·
ĠØ¯ Ø§Ø±
ÉĻ v
Ñĥ Ð½
Æ¡ n
Ġà¹Ģà¸ ĩà¸´à¸Ļà¸
Ġà¸ ķà¸
dz i
Ġà¦¤à¦¿à¦¨ à¦¿
ĠÏĩ ÏģÏĮ
Ġà¸ ģà¸²à¸£
ll en
c es
ĠáĥĴáĥĲáĥĽ áĥĿáĥ
Ġë ²
ÏĦÎ· ÏĥÎ·
Ð Ĵ
à®¾à® ļ
Ġde ll
ÐµÐ» Ð¸
ĠpÅĻ ÃŃ
à§ģ à¦®
Î» Î¿Ïħ
Ġà¸ŀ à¸Ļà¸
Ġà¹Ģà¸ Ħà¸£à¸Ķà¸´à¸ķ
à¸£ à¹Įà¸
¡ à¸´à¸
éĢļ è¿ĩ
¥à¸ ĩ
å¤ Ł
Ĥà¸¶ à¹īà¸Ļà¸
«à¸ §à¸
à¸²à¸ ģà¸
Ġ5 8
å¤§ çļĦ
æĿ Ģ
ªà¸¸à¸ Ķà¸
Ħ à¹īà¸²à¸
ç½ Ĺ
Ġagäºļæ´² åĽ½éĻħ
ĠåĬłæĭ¿å¤§ 28
55 5
åį Ĭ
åº ·
ª à¸£à¹īà¸²à¸
¼ åĲĪ
Ġ äºĨ
ä½ ³
ķà¹Ī à¸Ń
æł ¹
Ġà¹Ģà¸ Ľà¹ĩà¸Ļà¸
Ġæ Ļ
æ ½
æŃ ¢
åĨ ł
à¸Ńà¸Ńà¸ ģ
Ġà¤² à¤¾à¤Ĺ
à°¾à° ¹
ĠÎ¼ÏĢÎ¿ ÏģÎµÎ¯
Ġ ÉĻs
au x
Ùħ ÙĦ
ĠÐ´ Ð²
áĥł áĥĶ
Ġv e
à®µ à¯ĩ
ni k
Ġà¨ ¤
åĴĮ åĢ¼
åį °
Ġb et
ĠéĢ ļ
à¹Ģà¸Ĥ à¹īà¸²à¸
Ĳ áĢ
é ł
Ġå¼ Ģ
çļĦ åĲĹ
åĲ ĥ
è¯ Ń
áŀ Ģ
ç Ł³
å± ħ
à¹ Ħà¸£à¸
Ġ1 åĪĨå¿«3
ç¼ ĸ
ĠÂ ·
è´ §
áł¡ áł
å·² ç»ı
æ± ½
åĢ ĭ
å¨ ģ
à¤¿à¤ ®
à°ķ à±įà°¤
ĠÏĢÎ± ÏģÎ¬
Ã¹ ng
ung s
à§įà¦ ľ
ĠÐ¿ Ð¾Ðº
Ġm ais
n Äħ
áĥĿáĥĵ áĥĲ
à®¿à®± à¯įà®ķ
ĠÏĮ ÏĢÏīÏĤ
t to
ê³ Ħ
ÐµÑĢ Ð¶
ĠãĢ į
¡à¸ ±à¸Ļà¸
áł¢ áł
Ħ à¹īà¸²
Ġè ¶
ª à¸Ļ
Ġ5 6
Ġå »
x x
Ġç Ħ
å¿ µ
ľà¸ ¥à¸
Ġé ģ
è¿ ľ
« à¸²
Ġà¨ ®
äºĨ ä¸Ģ
æ³ ¢
ªà¸²à¸¡à¸²à¸£à¸ ĸà¸
77 7
Ġà¥§ à¥
Ġg Ã¼n
×Ļ× ©
b i
Ġ \
Ġà¤² à¤Ĺ
ĠáĥĽ áĥĺ
à±Ģ à°¯
Ġod er
Ġà¦¹à§Ł à§ĩà¦Ľà§ĩ
ĠÎ± Îº
ĠØ¹ ÙĨ
ÑĨÐ¸ Ð¾Ð½
æĺ¯ çľŁ
çľ ¼
Ġà¸ Ī
¥à¸ ±à¸ĩà¸
Ġag æīĭæľº
æĻ Ĥ
à¸Ńà¸µà¸ ģà¸
ĠæĿ ¥
Ġ4 9
ķ áĢ
æ ©
åĿ Ľ
åĪ Ŀ
© à¸²à¸
Ġà¤®à¤¿à¤ ³
Ġcom p
Ġà¦ķ à§ĭà¦¨
£ Â
iá»ĩ t
Ġh et
ÏĦÎ¹ Ïĥ
Ġà°µ à±Ī
ìķ ¼
Ġáĥ¨áĥĶáĥĽ áĥĵáĥĶáĥĴ
ĠÐ¸ Ð³
Ġà®µ à¯Ģ
à¤¿à¤¯ à¥ĭà¤Ĥ
ie j
1 00
é» Ħ
ļà¸ ±à¸
ĠçĶ ¨
¥à¸ ¹à¸ģà¸
ç Ĩ
à¤¾à¤ ¢
ÅŁ Ä±
Ú¯ Ø§Ùĩ
ĠÎ´ Ïį
v ÃŃ
Ð Ł
Ġà°² à±ĩà°¦
ÑģÑĤÐ² Ð°
or m
Ġth u
çĶµ å½±
æĺ ¥
Ġçİ °
èĳ Ĺ
Ġæı Ĳ
Ġå¦Ĥ æŀľ
à¥Ĥ à¤°
Ġà®ħ à®Ł
áĥĶáĥłáĥ Ĺ
ĠØ§ÙĦ ÙĦ
ÏģÎŃ ÏĢÎµÎ¹
Ġà§¨à§¦à§ §à§
à§įà¦ ł
Ð¸ÑĢ Ð¾Ð²
Ġ3 1
åģ ľ
3 d
Ġæ± Ł
å¤ ľ
¹à¸ ģ
ç¾İ åĽ½
è Ĺ
åĪ ĩ
ć ą
éĤĢè¯·çłģ _
Ġà¤¯ à¤¾à¤Ĥà¤¨à¥Ģ
te ur
ĠÏĢÎµ ÏģÎ¯
íı ¬
ĠI l
ÙĪ Ø§ÙĨ
×Ļ× ĵ
Ġà¦ķà¦° à¦¤à§ĩ
Ðº Ð¾Ð²
áĥķ áĥĲáĥľ
Ġm ÉĻn
Ġu m
å¤ļ å°ĳ
Ġæ ĥ
è¦ģ æ±Ĥ
Ġå¹ ¿
à¤¿à¤¤ à¥Ģ
Ġs á»ĳ
áĥĺáĥ¨ áĥľ
ê° Ħ
à®² à¯Ī
or es
ĠÐµ Ð³Ð¾
Ø¹ Ø¯
Ġ ra
ĠÎŃÏĩ Î¿ÏħÎ½
à¸Ļà¸ °à¸
ĠAGçİ¯äºļ éĽĨåĽ¢
Ĺ à¸£à¸
Ġçİ¯äºļ éĽĨåĽ¢
à¤ļ à¥ĩ
Ġk e
à°µ à°°
al Ä±
Ð» Ðµ
Ġn as
ĠÏĢÎµ ÏģÎ¹ÏĥÏĥÏĮÏĦÎµ
Ġà°Ĩ à°¯
à®¾à®° à¯įà®ķà®³à¯į
ĠáĥĽ áĥ¡
u j
Ġà¤¹ à¤¾
à±Ģ à°ª
Ġà¦ıà¦ķ à¦Łà¦¿
Ġë¶ Ģ
t is
Ġr es
Ġà¤Ĺ à¤¯à¤¾
Ġm a
à°¿à°¤ à±įà°°
Îº Î®
ÑģÑĤ Ð°Ð²
à°¿à° ļ
Ġà®ħà®° à®ļ
ÎµÎ¯ Î¿
áĥłáĥ Ĵ
k l
Ġ×Ķ× Ĳ
Ġê ±
ĠØ§ÙĦ Ùģ
a it
Ð» Ð°
ÏĦÎ¹Îº ÏİÎ½
ĠÕ ¶
ÉĻ x
à¨ ®
¨ à¥Ģ
áĥ Ń
ĠÃ¼ ber
r on
ĠÙħ ØŃ
à®¿à®ķ à®³
ÏĦ Ïģ
à°¿à° ľ
Ð¸ ÐµÐ¼
Ġ ap
ĠáĥĽ áĥĿáĥ¡
ĠÏĢÎ¿Î» Ïį
Ġà¤ķ à¤¿à¤¸
ç» Ī
æĵ į
æķ ħ
¨ à¤¾
r Ã³
¡ à°¿
ÏĢ Î¯
n Ã½
ÑĥÐ» ÑĮ
ĠáĥĴáĥĲáĥĽ áĥĿ
Ġt ut
Ġc Ã´ng
ë £
Ġà®¤à¯Ĭ à®Ł
ÏĦ Ïİ
Ġà¤ī à¤¸
éĵ ģ
äºº çļĦ
Ġá ĭ
Ĺà¸µà¹Īà¸ ªà¸¸à¸Ķ
à¤¾à¤Ĥà¤ ¤
ãģ§ ãģĻ
ÙĪ Ø²
ra tis
to r
à¦¾à¦¦ à§ĩà¦¶
Îº Î¬
Ġà§ ©
ĠÐ¿ Ð¾Ð¼
áĥłáĥ ĵ
Ġê³ µ
à§Ł à¦¾
Ġt out
è¿ İ
è§ Ĵ
à¥ĭà¤ ľ
un d
Î´ Îµ
Ġh ÉĻr
Ð¾Ð± Ñĭ
Ġb áº¡n
Ú ĺ
Ø° Ø§
Ġà®® à¯ģà®¤
ÏģÎ¯ Î¶
áĥĺáĥ «
à¦¾à¦ķ à¦¾
in s
Ã¡ m
áĥĶáĥĹ áĥĺáĥ¡
à°¾à°² à°¿
ĠĈ Ĉ
åŃ ©
è¡Į ä¸ļ
æŁ Ĳ
çķ Ļ
p p
ĠâĢĿ ãĢĤ
æĭ ©
Ġà¤¸ à¥ģà¤°
i Äħ
Ġt od
ÏĦÎ¹Îº Î¿Ïį
à¦¿à¦ ľ
g io
ê ¹
Ġà° §
h en
×ķ× ¤
ÏĦÎµ Î¯
çĬ ¶
è´ µ
åĩ °
à« Ģ
ĸà¸ ¹à¸ģà¸
çĶŁ æ´»
ŀà¸ §à¸
çĻ» åħ¥
à¤°à¥įà¤ £
Ġà®® à®©
áĥłáĥ £áĥ
Ð¾ ÑĪ
c er
Å¡ e
à° «
à®© à®°à¯į
Ä±n Ä±n
ÙĢ ÙĢ
ÙĬ Ø§
à¦¾à¦¨ à§ĩ
ĠìĿ ¼
ĠÙģ Ø±
ĠÎºÎ± Î»
à¥įà¤¯à¤¾à¤ļ à¥Ģ
Ð» Ð°Ð´
Ġs k
àµ Ĩ
Ġà¤ Ľ
os s
áĥĺáĥ ¦
ci o
Ð¸ÑĤ Ðµ
ĠÎ£ Ïħ
Ġe dir
à±Ģ à°²
Îµ ÏģÎ³
à¯ģà®Ł à®©à¯į
Ġáĥĵ áĥĺáĥĵ
Ñĥ ÑĪ
ĠÎ±Ïħ ÏĦÎ®
s ki
áº ½
v a
a us
ĠÐ¿ÑĢ Ð°Ð²
Î¹Î¿ ÏĤ
à¦ľ à¦¨
à¤¾à¤ ·à¥įà¤Ł
à°³ à±įà°²
Î³ Îµ
ãģ ł
ĠØ® ÙĪØ¯
áĥĿáĥķ áĥľ
ow ych
ĠÏĢ ÏĮ
à¹Ģà¸Ĥ à¹īà¸²
Ġà¹ģà¸ ¥
æĮ ī
á Į
Ġ201 6
æĬķ èµĦ
à¥įà¤° à¤®
ĠÐ± ÐµÐ·
ĠE r
our s
à°°à±įà° µ
áĥ£áĥ ®
ì¹ ĺ
Ġà®ķ à®°
ien to
Ð¾Ð» Ð½
Ø± Ø©
ÏĨ Î®
áĥĿáĥ ŀ
os z
Ġz Ã¡
Õ¡Õ ¾
Ġq ar
à¦¾à¦¤ à§ĩ
0 6
Ġà¨ ľ
Ġå Ł
ç½ĳ _
çĶ »
Ġ à¹Ħà¸¡à¹Ī
7 5
à¸£à¸°à¸ ļà¸
à¤ ł
ng an
Ġvo tre
Ġà°ª à°¾à°°
ĠÎĳ Î½Î±
ĠÏĢÎ¿Î» Î¹
ÑĤ ÑĮ
à°· à±įà°Ł
Ġc o
×ķ× ©
Ġà®ª à®¤
ãģĹ ãģŁ
er n
è® Ń
¤ åĩ°
Ġé ļ
çļĦ æĺ¯
åŁİ å¸Ĥ
æī ¾
è¯ ¾
ä½ľ ä¸º
æĸ° éĹ»
Ġà¤ª à¤£
à¤ķ à¥Ģ
á»Ļ i
ÏĦ ÏģÎ±
à¦¿à¦ ¯à¦¼
Ø§Ø¯ Ùĩ
Ġë§ Ī
áĥĺáĥĿ áĥľ
Ġà°¤ à±Ģà°¸
Ã§ Ä±
à¯ģà®ķ à¯į
en s
ĠÏĢ ÏģÏī
ÑģÑĤ ÑĢ
Ïĥ Ïĩ
á» ī
Ġu 0
à· Ĭ
à¥ ľ
de os
Ġà¤¯ à¥ĩà¤
x o
ĠP or
áĥĿáĥ ¨áĥĺ
à°ªà±įà°ª à±ģà°¡à±ģ
Ġo p
d iy
ĠØ§ÙĦ Ø¨
ĠÎĵ Î¹Î±
à®° à®¿à®¯
ĠÐ¿ÑĢ Ð¾Ð´
ä¹ħ ä¹ħ
à¤¾à¤¯ à¤¾
Ġìĥ ģ
èģ ĺ
æĸ¹ å¼ı
à¤¤ à¥ĭ
ÏĦÎ¿ Î½
Ð» ÐµÐ½Ð¸Ñı
Ġprze z
er o
áĥĶáĥĹ áĥĺ
tion s
Ã¡ nÃŃ
Ùĩ Ø±
Ġh ab
ĠáĥĵáĥĲáĥ ĺ
ĠÏĦ ÎµÎ»
Ð¸ÑĢ Ð¾Ð²Ð°Ð½
à±įà° ·
×Ļ× Ĳ
¡ Â
Ġtá» «
ÎĳÎ ¡
ĠÎķ Ïħ
Ġu0 9
à¤ļ à¥įà¤
à¯ģà® £
Ġâ ĺ
Ġ }
íĶ Ħ
l ÉĻn
on n
Ġi Ã§
Î¿Î¹Î½ ÏīÎ½
ĠÙĨ Ùħ
áĥĺáĥ¡ áĥĲ
Ð¾ÑĢ Ð¾Ð´
Ġna j
Î¹ Î»
à° ¥
à®¿à®²à¯įà®² à¯Ī
ĠU n
Ġà¸ §à¸´à¸
Ġæ¯ ı
à¸Ńà¸ĩ à¹Ģà¸
Ġå® ŀ
åħ µ
Ġè °
Ġè® ©
«à¸¥à¸ ±à¸ĩà¸
ç ĵ
à¹ģà¸ «
à¸Ńà¸ Ķ
å® ĥ
à¹Ģà¸£à¸µà¸ ¢à¸
éĥ¨ åĪĨ
é ¸
è »
åį «
Ġä¸ ľ
áŀ Ħ
ĠãĢĳãĢĲãĢĤ ãĢĳãĢĲ
3 4
à¥įà¤¯à¤¾à¤¸ à¤¾à¤łà¥Ģ
Ġà°ī à°Ĥà°¡
Ã© ho
à§ģ à¦ķà§įà¦¤
ì¶ľìŀ¥ ìķĪë§Ī
ìŀ Ħ
ĠÐ² Ð¸Ð´
à´ ¤
Ġà¤¬ à¤¨
áĥĺáĥĹ áĥ®
ë§Ī ìĤ¬ì§Ģ
Ġâ Ļ
ìļ °
ĠÙĩ Ø§
áĥĶáĥļ áĥ¡
ar a
Ġà® ²
ĠÏĩ Ïī
Ø§ÙĨ Ùĩ
ĠÐ½ Ð¾Ð²
Ġt ÉĻr
en n
i u
Î¼ Î¼Î±
ĠØ¥ ÙĦÙī
à¦ª à¦°
ĠÐ² ÑĢÐµÐ¼
ir es
os ti
Ġ ÏĪ
ĠáĥĹáĥ¥ áĥķáĥĶáĥľ
à°Ł à°¿
¨ àµįà´
Ġà¤ľ à¤¾à¤¤
Ġn Ãły
ĠÏĦ ÎŃ
p a
Ø§ÛĮ ÛĮ
Ġà®®à¯ģà® ©
ĠìĿ ĺ
×¨ ×Ĳ
à¦¾à¦ ¥
ÏĢÎ¬ ÏģÏĩ
Ä±n Ä±
Ġn el
ĠáĥłáĥĿáĥĴ áĥĿáĥłáĥª
jÄħ c
ic o
Ġs ind
l Ã©
Ñı Ð·
Ġà°ħ à°§
ÏĦ Î®ÏĤ
Ġà®ħ à®¨à¯įà®¤
ĠÐ¾ ÑĢ
Ġáĥĵ áĥĲáĥķ
ĠÎĺ Îµ
Î»Î¿ Î¹
Ġìľ Ħ
áĥĲ áĥĲ
Ġy er
u c
Ġà¤® à¥Ī
à°¿à°¤ à±ĩ
ĠÎł Îµ
Ġà¦Ĺ à§įà¦°
Äį nÃŃ
Ð¾Ð¿ ÑĢ
à¥ĩà¤ ĸ
Î¬ Î¶
Ġo g
Ġs a
Ġà®¤ à¯ĩ
áĥĲáĥłáĥ ¡
u er
Ð°Ñģ Ñģ
à°¿à° Ĺà°¾
×ķ× ¢
ĠÎ¿ Î¹ÎºÎ¿
ÛĮ Ø´
Ġm á»
Ġà¤² à¥ĩà¤ķ
áĥķ áĥł
Øª Ùħ
Ġà¹Ģà¸ĩà¸´à¸Ļà¸ Łà¸£à¸µ
¥à¸ ·à¸Ńà¸
Ð¾ÑģÑĤ Ð¸
j a
Ġà¦ķ à¦®
Ġh at
ĠÎķ Î»Î»Î¬
Ïĥ ÏĦÎ¬
Ġà¹ģà¸ Īà¸
Ħ à¸²à¸£
Ġ Å¡
à°¾à° ¶
ª à¹Į
à¯Īà®ķ à¯į
ĠÐ¸ ÑģÐ¿
Ġn ous
áĥķáĥĶáĥ §
Ïĩ Î±Î½
ĠP o
¹ à¹Īà¸
Ġ3 2
à¹ĩà¸ ģà¸
à¤ ĥ
Ġl á»
à°¯ à°Ĥ
m es
à¦¨ à¦¿
ìĦ ¸
ent es
Ġ Å
Î½Î¿ ÏĤ
à¤¾à¤ Ĥ
åŁ ¹
ĠçĻ ¾
à¸Ļà¹īà¸ ³à¸
Ġå½©ç¥ŀäºīéľ¸ 8
ªà¸³à¸« à¸£à¸±à¸ļà¸
´ à¸Ļà¸
à¹ģà¸ Ĥ
ŀ à¸²à¸
äº§ ä¸ļ
à¸µà¹Īà¸ ¢à¸
æľĢæĸ° çĻ»å½ķ
à¤¾à¤Ĥà¤ļ à¥Ģ
Ø± Ùĥ
Ġà¤ħà¤ª à¤¨à¥ĩ
nie j
Ġãĥ »
ĠÐ¼Ð¾Ð¶ Ð½Ð¾
Î» Î¯
Ġwer den
ĠáĥĹáĥĲáĥķ áĥĺáĥ¡
Ġag äºļ
«à¹ĩ à¸Ļà¸
å¥½ çļĦ
æĤ ¨
µ à¹Īà¸
Ħà¸£à¸ ±à¹īà¸ĩ
Ġà¤¶ à¤ķ
Ġa lla
Ġà°ªà±įà°° à°Ń
ĠÔ ±
ĠÃ¼ z
ĠÐ¼Ð¾Ð¶ ÐµÑĤ
ÏģÎ± Îº
ad os
o is
ŀ à¯įà®ļ
Ø± Ú©
íķĺ ê³ł
áĥķ áĥĶ
à±ĭ à°¤
Ġà¦¸à¦® à§įà¦ª
Î¸ Î½
Õ¥ ÖĢÕ
ĠkeÃ§ ir
ĠáĥĽ áĥĶáĥ¢
×ķ× §
Ã¡ t
à±įà°¯ à°Ĥ
à¤¿à¤ ¶
Ð» Ð°Ð²
Ġà®® à¯Ĥ
Î §
Î»Î¿ Ïį
Ġde lle
ou v
ÄŁ Ä±
ĠÐ´ ÑĢÑĥÐ³
s ta
ĠØ§ÙĦØ ®
à°¿à°¯ à±ģ
uj er
Ġà¦¸ à¦¬
Ã± o
ìľ Ħ
áĥĺáĥ ĳ
ĠÏĢ ÏģÎŃÏĢÎµÎ¹
ÅĽ ci
Ã¶ n
ĠØ§ Ø³
Ġà¤Ń à¤¾à¤°
ĠÏĥ Î¿Ïħ
ĠÎ¼Îµ ÏĦÎ¬
Ġà®İ à®¤
à¥ĭà¤ Ĥà¤
ĠáĥĽáĥĺáĥ¡ áĥĺ
u est
ãģ ĳ
ĠÐ ¥
ti que
à¦ ·
Ġí Į
Ġ) ,
Î¼ÎŃ Î½Î·
Ã¡ i
Ġr is
m os
Ġ) .
Ä±n a
ĠÙħ Ø¯
à®© à¯Ī
Î¼Îµ Î½
Ġà¦¬à¦¾à¦Ĥà¦² à¦¾à¦¦à§ĩà¦¶
Ġà¦¯ à§ĩ
Ġà¤ľ à¥ĭ
an a
áĥĲáĥ¨ áĥķ
áĥĺáĥ «áĥļ
r u
Ġà®ĩ à®Ł
í Ĵ
Ñı Ð½
ĠÏĢ Î»Î·
ÙĬ Ø³
ĠØ¢ Ùħ
×ķ× Ĺ
u i
Î» ÎµÎ¯
Ġê ¹
Ħ à¹Ī
çİ¯ å¢ĥ
è· Ł
ä¸į åĲĮ
à¨¾à¨ °
Ġà¸ §à¸±à¸Ļà¸Ĺà¸µà¹Ī
è® ¿
ä¸ ¥
ĠæĽ ´
åī ¯
åĪĨ æİĴåĪĹ
à¹ģà¸ Ĺ
Ġï¼Į âĢľ
Ľ à¸µ
ª à¸Ļà¸
Ġç Ń
Ġà¤® à¥Ģ
Ġv or
Ġhá» į
Ã¶ y
ĠÐ´ Ð¾Ð»
åº §
ªà¹Īà¸§ à¸Ļà¸
Ġk8 å¨±ä¹Ĳ
çļĦ äºº
ç® Ģ
¡à¸ ±à¸Ļ
ģà¸ ¥à¸²à¸
8 0
Ġå¤§åıĳ äºĮ
å¸ ģ
Ġ <
9 5
33 3
Ġà¤¨ à¤µ
áĥĲáĥ Ķ
ĠìĦ ľ
Ġm ÄĽ
Ġs us
Ġk o
ĠÎµ Î¹
Ġau x
Ú© ÙĨ
é»ĳ å¤§æĪĺ
è®¾ å¤ĩ
Ġ Ć
éĢ Ĥ
å¸ Ń
Ġå¥½ è¿Ĳ
·à¹Ī à¸Ļ
ĠåĽ½ éĻħ
çĶŁ äº§
Ĺà¸ ĺ
à¤¡ à¥ĩ
áĥĶáĥĳ áĥĶáĥļáĥĺ
à®¿à® ª
ĠÏĥ ÏĩÎµ
ÑģÐº Ð¾Ð³Ð¾
à¦¤ à¦¾
ÉĻs indÉĻ
ãĥ³ ãĥ
ÙĦ Ùħ
ê³ µ
n oÅĽci
d as
ĠG e
à¥įà¤ ¦
áĥ§ áĥķ
Ñĥ Ñħ
ti f
ĠÏĢ Î¹Î¿
Ġcom e
Ġáĥł áĥĲáĥª
am i
à¤¿à¤Ĥà¤ Ĺ
à®® à®¾à®©
Ð¾ ÑģÐº
ĠÐ¾ Ñĩ
¯ à§ĭà¦Ĺ
Ġp ue
ĠØ§ÙĦ Ùĥ
à±ģà°¤ à±ģà°¨à±įà°¨
Äĥ m
b le
×ķ× ¡
ìķ ½
áĥĺáĥ£áĥł áĥĺ
ĠÎº Î¿
Ð¾Ð³ Ð´Ð°
à±įà° ¬
Î³ ÏģÎ¬
Ġì¹´ ì§Ģëħ¸
Ġë į
ĠÃ ª
ĠÄ Į
à§ģ à¦¬
Î¼ Î¿Ïħ
Ġal s
ess o
ÏĮ ÏĦÎ·
Ġáĥ¨ áĥĶáĥľ
ÃŃ m
Ġà¤® à¤¿à¤²
ç» ¼åĲĪ
åĸ Ħ
te d
å® £
åıĤ èĢĥ
Ġ ä¼
åħ °
ĠĈ ą
å·¥ ç¨ĭ
æī §
ģ à¸£
u u
çİ° åľº
åĨħ å®¹
A N
Ġà¤² à¥ĭà¤ķ
à±ģà°ķ à±ģà°Ĥà°Ł
áĥ£áĥ ĵ
un un
Ø ¥
t uk
ĠØ´ Ø¯
à±ĩà° ¤
Ð´ Ðµ
ne go
Î¼Î¬ ÏĦÏīÎ½
Ġà¦ħ à¦Ń
Ġà¤ķ à¥ĭà¤
Ġáĥ¡áĥĲáĥ® áĥĶáĥļ
Ġà°Ń à°¾à°°
Ïĩ Î¿
Ã¡ d
Ġà®ļ à®¿à®±
Ġg ÉĻl
à°Ĥà° §
ar d
áĥĲáĥł áĥĶ
Ðµ Ñī
Î³ Ïī
ãĤ ¢
ê ´Ģ
Ã¡ ng
à¦¿à¦ ª
ÎŁÎ Ľ
Îº ÏģÎ¹
èı ľ
å¤§ åİħ
à¹Ģà¸¥à¸ ¢
ĠæĿ İ
ç´ ¢
ªà¸ §à¸
Ġé ĵ
ć ć
è Ĵ
çº¿ ä¸Ĭ
7 3
ä» ħ
áł¤ áł
Ġà¤ªà¥įà¤° à¤¤
e k
Î½ Î¹Î±
on e
Ġà°ķ à°¾à°¨
Ð½ÑĭÐ¼ Ð¸
Ùħ ÙĨ
t ra
ì ¡°
ĠÏĢ Î¬Î½
áĥĶáĥ¡ áĥĺ
à®£à¯įà®Ł à¯ģ
Ġà¦¸ à¦°
Ġ× ¦
é Ń
à¤Ĥà¤ ļ
Ġì Ľ
w er
l u
à±ģà°ķ à±ģà°¨à±įà°¨
Ĭà¸ ·à¹Īà¸Ńà¸
à¥ģà¤ ĸ
Î ĺ
Î½Î± ÏĤ
áĥĲáĥ® áĥļ
p os
Ð°ÑĤÑĮ ÑģÑı
ÙĦ Ø§
ĸ à±įà°¯
Ġà¦¦ à§ĩà¦¶
à®Ł à®¿
Ä± x
Ġg iá»
à¥ĩ à¤°
ĠÎ¼ Î·
ant s
Î´ Î¹Î¬
Ġc as
Ġf or
Ġà®ĩ à®²à¯įà®²
ĠÙĨ ÛĮ
ĠÑį Ðº
à°¾à°Ĥà° ¤
íĸ ī
áĥĲáĥł áĥĺáĥ¡
Ġna ch
ÎŁÎ Ŀ
Î· Î³
à¤¾à¤¨ à¥Ģ
à¦¿à¦ Ľ
Ġ×Ķ× ©
Ð Ķ
Ġà®Ĩ à®©
c ÉĻ
ÑĦ Ð¾ÑĢÐ¼
ĠØ§ÙĦØ µ
Ð»Ñİ Ñĩ
in de
ĠáĥĽ áĥĿáĥľ
Ġor az
to v
Îº Î»Î·
Ġà°®à°° à°¿à°¯à±ģ
å® ¾
åľ Ł
¢ à¸´
Ġåį ģ
å¼Ģ å§ĭ
çĽ¸ åħ³
à¸Ńà¸²à¸« à¸²à¸£
åĩ ı
Ġ5 åĪĨå¿«3
Ĭà¸µà¸ §à¸´à¸
Ġå¤§åıĳ ä¸ī
¶à¸ ĩà¸
å¤© å¤©
æ¹ ĸ
Ġ1 00
ĵ à¹Įà¸
åĪĨéĴŁ æĹ¶æĹ¶å½©
æĻ ļ
åĳ ³
å® ģ
èª ī
æ¼ı æ´ŀ
åİ Ĥ
æĹ ©
· à¸Ńà¸Ļ
é¤ Ĳ
Ġç» ı
à¥ģ à¤¸
ĠÎ½ Î¿
ĠáĥĶáĥłáĥĹ áĥĺ
ne j
Ð°Ðº ÑĤ
or a
l ÉĻt
h e
ê¸ Ī
ĠÏĨ Î¿
ĠØ´ Ø¯Ùĩ
Ġà®® à¯Ģ
ÙĤ Ø¯
ÐµÐ½ Ð°
as i
à¦¨à§įà¦ §
Ġkh i
ãĥ³ ãĤ
Õ ¯
Õ¡Õ¯ Õ¡Õ¶
asÄ±n da
à¤ķ à¤¾
ÏĢÎ¿ Î¯
ti c
ì ¶Ķ
Ġáĥŀ áĥĺáĥł
is ch
Ġìķ Ī
Ð°Ð½ ÑĤ
Î¼ÎŃ Î½Î±
Ġm ar
éªĹ å±Ģ
Ġå¿« 3
ĠçĶ ±
Ġä½ ¿
ä¸Ĭ çļĦ
à¹Ģà¸¥à¸ ·à¸Ńà¸
Ġ4 5
åį ĥ
é¢ Ŀ
3 åĪĨå½©
Ġæī ĳåħĭ
Ġà¸ĭà¸¶ à¹Īà¸ĩà¸
æ ĩ
Ġ5 4
æĶ »
åĿ ļ
à¥įà¤¹ à¤¾
Ġn ÄĽ
à¦¾à¦¨ à§įà¦¤
ĠW y
à¯ģà® ²
ĠÐ½ Ð°Ð¿
áĥĺáĥľ áĥĺáĥ¡áĥ¢
íĶ ¼
ĠÏĢ ÏīÏĤ
×Ļ ×Ļ×Ŀ
áĥĲáĥ¥ áĥ¢
Ġa y
Ġp ow
ĠÏĥÏħ Î¼
ê² ½
Ġà¦® à¦§à§įà¦¯
ĠC on
ein e
Ġà¤² à¥ĭà¤Ĺ
áĥĲáĥ §
Ñī Ðµ
à¯ģà®ķ à®³
å½± åĵį
Ġà¨ ħ
Ġa m
è¿ °
è½ »
® à¥ģà¤³à¥ĩ
ÎĹ Îľ
Î» Ïī
ÐµÐ½ Ð¸Ð¸
Ġvo or
r as
ĠØ§ÙĦ Ø±
ëª ħ
áĥĽ áĥĺáĥ¡
Ġje d
Ø§Ø ®
m l
Ġà¤ħà¤¸ à¥ĩ
ab le
Ñĭ ÑĪ
á»ĳ c
Îº Î·
ĠÎ´Î· Î¼Î¿
Ð ľ
Ã¼ s
ĠáĥĴ áĥĲ
Ð¿ÑĢ Ð°Ð²
à· Ĵ
Ġà¤¬ à¤¾à¤¦
Ã³ ÅĤ
ĠÎ´ Î¹Îº
Ġan che
à¦¾à¦ Ĥ
s on
Ġè ¾
¢ à¹Ģà¸
ç ĩ
Ġć Ĉ
Ġà¸ ¡à¸µ
æ¹ ¾
ĠâĢ¦ âĢ¦
Ġag æīĭæľºå®¢æĪ·ç«¯
å¨±ä¹Ĳ å¹³åı°
à¹ĥà¸ ª
à¤ļ à¤¾
Ð¸ÑĤ ÑģÑı
ĠÂ» .
áĥĲáĥª áĥĺáĥĲ
Ġí Ĩ
ãĤ Ī
Ġs v
m ÉĻt
à§ģ à¦ķ
Ġà®ķ à®²
Ġa s
Ð¸ Ð¿
Ġáĥ¥ áĥĲáĥłáĥĹ
áĥĺáĥ£áĥ ļáĥĺ
ĠÏĦ ÏĮ
Ġ os
Ġç« ŀå½©
Ġà¤Ĩ à¤®
×Ļ× ¢
à¹Ĥà¸£à¸ĩ à¹ģà¸£à¸
Ø¹ Ø©
è¾ ħ
Ġå¥ ¹
à¹Ħà¸Ķà¹ī à¸£à¸±à¸ļà¸
ķà¹Īà¸²à¸ ĩ
Ġçİ¯äºļag 88
çļ ĩ
åĪ° äºĨ
å¹ ķ
à¸£à¸µà¸ §à¸´à¸
å· ®
à¤¤ à¥įà¤°
ĠØ§ Ø±
à¦¨ à¦¾à¦°
Ġáĥ¥ áĥĲáĥļ
Ġá ½
Î½Î± Î½
Ġà°Ĺ à±įà°°
Ġí Ķ
Ð° ÑİÑī
Ġa i
Ġm eng
Ġun s
à¯ģà®µ à®¤
ĠA r
æĹ ı
éĵ¾ æİ¥
å¤Ħ çĲĨ
èµĦ æºĲ
ŀ à¸£à¸
Ġæ Ħ
à¹ī à¸Ńà¸¢
å ĺ
à¤¦à¥įà¤ §
ÏĨ ÎŃÏģ
ĠJ e
ĠÄĳ áº¿n
áĥĶáĥ ¤
ĠÕ «
Ġk imi
à±ģà°ķà±ĭ à°µ
Ã© es
ĠÎ± ÎºÏĮ
Ð°Ð¶ Ð´
à¥ĩà¤ ľ
Ġes te
Ġs ie
íķ Ļ
Ġy ap
Ð½Ð° Ñĩ
Û °
ĀĀ ĀĀ
ĠØ¨ ÙĪØ¯
à§ĩà¦ ľ
áĥĲáĥķ áĥĺ
ĠÎµÏĢ Î¹Ïĥ
ÙĤ Ø©
Ã© n
áĥĲáĥ ©
à±įà° £
ªà¸ ĸ
æĹ¶ åĢĻ
ĠçĶ Ł
çľŁäºº æ¸¸æĪı
æ¸¸æĪı å®ĺç½ĳ
å® ¡
Ġå¤©å¤© ä¸Ńå½©ç¥¨
ç»Ħ ç»ĩ
ç§ »
éĿŀ å¸¸
æĪĲ ä¸º
áĢ Ģ
åįķ ä½į
æŃ ¦
· à¹īà¸Ļà¸
Ġçİ ĭ
Ĺà¸µà¹Īà¸ ¡à¸µà¸
Ġà¤¸ à¤°
Ġk on
íķ ł
à¦¾à¦¤ à§įà¦°
Ġà°¨ à±ĩ
à¯ģà®ķ à®³à¯į
Î¼ ÏīÏĤ
ÑĢ Ð°ÑĤ
Ġ× ĺ
ÉĻy ÉĻ
ĠáĥĴ áĥĲáĥĺ
Ġf r
è®º åĿĽ
åıĳ å¸ĥ
ç§ ģ
Ġà¸ «à¸£à¸·à¸Ń
Ŀ à¸
å¾ ħ
Ġåĩ ¤åĩ°
Ġà¤ķ à¤¾à¤¯
ĠÑģ Ð¾Ð²
à°¾à°° à°¿
i que
à¤Ń à¥Ģ
z o
ÏĥÎº ÎµÏħ
Ġáĥķ áĥĶáĥł
Ġvá» ģ
ĠÐºÐ¾Ð¼ Ð¿
Ħ áĢ¹áĢ
à¹Ģà¸£à¸ ´
åĬŁ èĥ½
Ġä¸ ¤
æĭ ¬
å² ģ
Ġåħ ³
Ħà¸ ·à¸Ń
åľ Ī
á Ĥ
¸à¸ Ķ
«à¸Ļà¸ ±à¸ĩ
çĶ¨ æĪ·
à¹Ģà¸¥à¸ ¢à¸
à¹Ģà¸ ĭ
¢ à¹Įà¸
è ©
Ġå¤§åıĳ åĪĨåĪĨå½©
Ġäºļæ¸¸ app
å® ³
«à¸Ļà¸ ±à¸ĩà¸
Ħà¸ §
Ġæĸ ĩ
Ġà¸ ¥à¸
b s
ĵ à¹Į
à¹ĥà¸Ļà¸ ģà¸²à¸£à¸
à¤¦ à¤¾à¤°
à°¿à°Ĥà°Ĺ à±į
à§įà¦ Ľà§ĩ
u je
Ġáĥŀáĥĺáĥłáĥ ķ
Ùħ Ø©
Ġa d
ÑģÑĤÐ² Ð¾
Ġà¤¨ à¤¿
Ġà¦¨ à¦¿à§Łà§ĩ
Î´ ÎµÏĤ
t ure
à®¿à®¤à¯įà®¤ à¯ģ
Ġà¦Ľ à¦¿à¦²
ÏĦ Î¹Î±
áĥĲáĥª áĥĺáĥĺáĥ¡
¡ à¸Ļà¸
à¤ļ à¥Ģ
Ð¾Ð¼ Ñĥ
f er
ĠØª Ø§
Ġà®ļà¯Ĩà®¯ à¯įà®¯
ÏĢÎ¿Ïħ ÏģÎ³
×ķ× ŀ
ÏĨÎ¿ ÏģÎ¬
Ġë Ĳ
Ð¸Ðº Ð°
Ġáĥ¡áĥĲáĥ ĳ
Õ¥ Õ¶
ĠgÃ¶r ÉĻ
Ġm et
à°Ĥà°¤ à±įà°°
Ġçľ ĭ
Ġd 88
ç¨ İ
ľ à¸´à¸
áĬ ķ
à¹Ī à¸Ńà¸
æ² Ļ
Ġag ç½ĳæĬķ
à¹ĥ à¸Ļà¹Ģà¸
à¸£ à¹Į
it y
ä¹ ¡
æİ§ åĪ¶
Ġæĸ° èĲĦäº¬
Ġà¹ģà¸ ķà¹Ī
çĻ¾ å®¶ä¹Ĳ
Ġé ķ
ĠçĦ ¶
3 9
à¸£ à¹Īà¸§à¸
à¤ ĺ
ĠÐ¾ Ðº
Ã¤ n
ll es
ÎĻÎ Ŀ
Î½ Î®
áĥľ áĥĲ
Ġà¤ķà¤¹ à¤¾
ØŃ Ø¯
à°® à±ĩ
à ²
á»© c
ler i
éĵ¶ è¡Į
æīĢ æľī
å¦ Ī
è®¡åĪĴ _
ĠagåĽ½éĻħäºļæ¸¸ å®ĺç½ĳ
å° Ĭé¾Ļ
à¹Īà¸²à¸ ĩà¸
ĠâĢ ĭ
à¥įà¤¹ à¥Ģ
en za
Ġ us
à¦¸ à§įà¦¤
Î¯ Ïĥ
à¯Īà®ķ à®³à¯į
áĥľ áĥĿáĥĳ
Ð² Ð¾Ð´
ĠØ® ÙĪ
a f
ëŁ ¬
Ð½ Ðµ
Å Ī
ÏĦÏĮ ÏĤ
Ġm on
Ġà¤µ à¤¾à¤²
ĠÑģ ÐµÑĢ
à°¸ à°Ĥ
Ġs Äħ
áĥĲáĥĿ áĥĳ
ĠÐł Ð¾ÑģÑģ
an Ä±
ĠÐ· Ð°Ð¿
ãĥ¼ ãĤ
è¯ ¢
Ġagäºļæ´² æ¸¸æĪı
äº ®
áŁ ĭ
ĠãĢ Į
APP ä¸ĭè½½
ä» ĺ
Ħà¸ ¥
ä»· æł¼
Ġåİ Ł
Ġç ¦
à¸Ļà¸ ³
à¥ĩà¤ ¹
Î´ Î¹Îº
à¦¿à¦ķ à§įà¦·
g u
Ø´ Ø¯
à¯ģà® ļ
n ost
ĠÏħ ÏĢÎ¬ÏģÏĩ
à°°à±įà° ¶
Ġt il
Ø ¤
ĠáĥĽ áĥĵ
ìŀ ħ
ĠåĪ °
Ġà¸ Ĭ
5 åĪĨå½©
Ġå¤§åıĳ pk10
à¥ģ à¤ª
ation s
áºŃ p
g ar
Ġà¦¬à§įà¦¯ à¦¬
Ñĭ Ð¼
Ġ×Ķ ×ª
Ġn ÉĻ
æĸ Ĺ
à¸Ńà¸ ±à¸
à¤¿à¤ ·
Ïĩ Î¹
Ġà®¨ à®¿à®²
te l
ĠÎºÎ¬ Î¸Îµ
à°°à°¿à° Ĺ
Ð¾ Ñī
åıªä¸º éĿŀåĩ¡
åħ¨ åĽ½
à¸Ńà¸ ģ
à¥Ģà¤ļ à¥įà¤¯à¤¾
ÎµÎ¯ ÏĤ
ÙĦ Ø©
áĥľ áĥĶáĥļ
ÐµÑĤ ÑĮ
g a
un u
ment s
ĠÏĢÎµÏģÎ¹ Î¿
à°³ à±įà°³
ĠØ§ Ùģ
à§ĭ à¦²
ĠE in
© áĥĶáĥķ
ÑĢ Ñı
Ġà®ª à®¯
à¸²à¸ ¡à¸
· à¸
ªà¸´ à¸Ļà¸
è´¨ éĩı
å½©ç¥¨ å¹³åı°
çª ģ
Ħà¸ °
ªà¸²à¸¡à¸²à¸£à¸ ĸ
¸à¸ ģ
åħ³ ç³»
Ġå¤ ļ
ï¼ Ī
ģà¸ §à¹Īà¸²à¸
æ¿ Ģ
à¤¾à¤ ±
Ġà¤¤ à¤ķ
Å© ng
ĠáĥĴ áĥĲáĥķ
Ã± os
Ð¾Ð» Ð¾Ð³
à°ķà±įà°ķ à°¡
d ÄĽ
ĠP ar
Ġêµ ¬
ÐµÑĢ Ð°
ÏģÎ± ÏĤ
à¦¾à¦ľ à¦¾à¦°
Ġáĥłáĥ £áĥ¡
ÙĦ ÙĪØ¯
c on
ĠØ§ ÛĮ
áĥĿáĥłáĥ ¢
Ġà°ª à°°
Ã¼ t
Ø§Ø µ
Î¼ÏĨ ÏīÎ½
×Ĺ ×¨
ĠÐ ¯
à¦ ŀ
a Å¼
Ð³ Ð°Ð½
or s
ÏĦÎµ Ïģ
Ġáĥŀ áĥĿáĥļ
Ġà¤ķ à¤®
à±ģà° ¸
Ġol m
iáº¿ n
Ġ Å¾
ur ch
ÑģÐº Ð°Ñı
Ġà¦¥ à¦¾à¦ķ
Î¼Î¿ ÏĤ
Ġì ¡°
Ġz ap
ĠáĥĲáĥĵáĥĲáĥĽ áĥĺáĥĲáĥľ
ar io
ĠÐ± Ð¾Ð»ÑĮÑĪ
Îĳ ÎĻ
Î¼Î± ÏĦÎ¿
Ġun tuk
Ġà°ī à°Ĥà°Ł
ãĥ ¬
ĠÎ¿ÏĢÎ¿ Î¯Î±
Ġpor no
ci os
a ar
Ġà®µà¯Ĩ à®³
Ġv ar
s p
ĠU U
éĥ¨ éĹ¨
à¥ĭà¤ ª
ÙĬ Ùģ
Ø§Ø± Ùĩ
áĥĿáĥ ĸ
Ġà¦ķ à§ĭ
ê² ©
o p
Î½Î¿ Ïį
Ġáĥ¥ áĥķáĥĶáĥ§
ĠÐ´ ÐµÐ»
ÏĨ Îµ
à¦ ī
Ġà®¤ à®²
a ire
an no
Ġçº ¢
ä» ¤
Ġà¤ħ à¤§
ĠÑĤ Ð¾Ð»ÑĮÐºÐ¾
Ġc i
ìĹ Ń
ÙĨ ÛĮ
Ġg ia
ĠÎ± Ïģ
Ġ×ŀ× ©
ĠÙħ Ø§
Ã© m
en cia
Ġdas s
áĥľ áĥĶáĥĳáĥĲ
Ġà®ĩ à®µ
s ka
ÑĢ Ð°Ð²
à¦¿à¦ķ à§ĩ
Ġà®®à®±à¯įà®± à¯ģà®®à¯į
áĥ¡ áĥ¢
Î¯ ÏīÎ½
ãģ Ĭ
ĠÐ² Ð¾
an e
ĠÎ¼ÏĮ Î½Î¿
Ġà°µà°¿à° ·
a dÉĻ
è° Ī
Ġç«ŀå½© è¶³çĲĥæ¯ĶåĪĨ
Ġå½©ç¥ŀ 8
Ġ3 9
à¥įà¤¯à¤¾à¤ļ à¥ĩ
áĥĿáĥļ áĥĿ
ì ¦
r os
u is
Ġà° ·
ķ àµįà´
ĵ à¤Ĥ
Î¸ Î¿ÏįÎ½
ÐµÐ½ Ð½Ð¾
ãģª ãģĦ
à±įà°Ł à±įà°°
ob re
áĥļ áĥĺ
Ġ×Ķ× Ĺ
å®ŀ çİ°
à¨ £
çĮ ľ
é Ł©
Ľà¸£à¸°à¹Ģà¸Ĺà¸ ¨
ĠåĽ Ľ
Ġæµ ·
å± Ĭ
åºĶ çĶ¨
Ġæ¢ ¦
§ à¸Ļ
«à¸ ¡
áŀ ĺ
çĭ ¬
ç´ §
h i
ĠèĢ ģ
Ġ à¹Ħà¸
Ħà¸ ³à¸
ç £
Ġà¤ķ à¤¾à¤®
Ġà¦ķ à¦¿à¦¨
Î³ Î±
b a
ĠØ§ÙĦ ÙĪ
Ġà°ķ à°¨
áĥ¡ áĥĲáĥ®
ĠØ¨ ÛĮ
Ġì¶ľìŀ¥ ìķĪë§Ī
íĴ Ī
Ġent re
ÏĮ ÏĦÎ·ÏĦÎ±
ĠÐ¸Ð½ ÑĤÐµÑĢ
ĠiÃ§ in
ÉĻ ll
åħŃ åĲĪ
å¤§ åħ¨
Ġæį ®
å¾ ģ
Ġ5 3
éļ ľ
Ġæ ¶
ħ è¯»
ç ĳ
à¹īà¸²à¸ ĩ
àª ¨
«à¸ ķà¸
à©Ģ à¨
Ġ5 1
Ġ3 åĪĨå¿«3
éĢ Ģ
Ġ4 6
ĠæŃ £
ķà¸ ±à¹īà¸ĩ
åĽ½éĻħ åİħ
m sc
Ġà¤ĺ à¥ĩà¤¤
ĠáĥĹ áĥĳ
áĥ£áĥ ĳ
Ġt ym
Ð¸Ðº Ð¸
Ġì ½
Ġà¦¬à¦² à§ĩà¦¨
Ġa le
Ġà¦ı à¦¸
Ġà¤ķà¥ĩà¤² à¥Ģ
Ã¶v lÉĻt
Ġin ter
ĠÐ¿Ð¾Ð» ÑĥÑĩ
ĠlÃł m
áĥĶáĥĳ áĥĸáĥĶ
Ïĥ ÏĦÎ®
à°ª à±Ī
Ġëĵ ±
Ġà¦ķà¦° à§ĩà¦¨
h n
Ġh ÉĻm
ĠÎķ Îº
Ġà¤¸ à¥Ģ
em p
Ð° ÐµÐ¼
ĠÎ±ÏĢÎ¿ ÏĦÎµ
í ģ
Ø§ Ùĭ
Ġà°® à°¹
¸à¸ ¡à¸
Ġà¸ ģà¹ĩà¸
à¹ģà¸ ķ
à¸Ńà¸²à¸ Īà¸
ĠN e
§à¸ ĩà¸
Ġag 88
ç¯ ĩ
Ġ3 4
Ġà¤Ĺ à¥ĩà¤²
Ġà¦¸à¦® à§Ł
Ġ×ŀ ×Ķ
ãģ£ ãģŁ
áĥ® áĥĽ
à±Ģ à°¨
ÑģÑĤ ÑĮ
Ġ á»Ł
Ġà¦Ĩ à¦¬
ÑĢ Ð°Ð¼
Ã¼ l
Ġb ien
áĥª áĥĲ
à±įà°° à°®
à Ń
àµį âĢį
à´ °
à¥Ĥà¤ ª
le d
ÏĢ Î®
ÄĻ p
ë° Ķ
Ð¸Ð¼ Ð¸
ÎĳÎ Ľ
ĠÎ» Î±
Ġà¦° à¦¾à¦ľ
Ġà°Ĩà°¯ à°¨
en ce
à±ģà°¨ à°¿
Ø± Ùħ
ìĺ ģ
ÏĨ Î·
ä¸ĵ ä¸ļ
æĽ ¾
à¤¸ à¥įà¤¥
ol i
Ã¤ t
Ġà¦¦ à§ģ
Õ¡ Öģ
u ÅŁ
Ġáĥ¡ áĥ¬
ãģĻ ãĤĭ
à°Ł à±įà°²
ĠìĬ ¤
ĠÏĥÏĦ Î¿ÏħÏĤ
ĠÐ¶ Ðµ
ur es
k on
ij n
ÙĪØ± Ø¯
Ġæ· ±
à¹Ĥà¸ Ķà¸¢
äºº çĶŁ
Ġà¸ Ľà¸
çº ³
¨ å¤©
à¸´à¸ ĩà¸
Ġo f
ĠagçľŁäºº æ¸¸æĪı
à¸Ļ à¹Įà¸
éģ ĩ
Ġæ¯ Ķ
ä»ĸ ä»¬
éĢī æĭ©
à¸£à¸§à¸ ¡à¸
Ġag å®ĺæĸ¹
Ġ ä¸İ
ªà¸´ à¹Īà¸ĩà¸
¨ à¸²à¸
Ġà¸ª à¸²à¸
à¸µà¸¢à¸ §à¸
æµ ª
à¤¾à¤¤ à¥įà¤°
Ġ×ĳ ×Ĳ
à® ¨
ÏĦ ÏĥÎ¹
Ġà¦ªà§įà¦° à¦ķ
áĥĲáĥ® áĥĶáĥĳ
Ġb aÄŁ
ÑĥÐ»ÑĮ ÑĤ
à±ĩà° ª
Ïģ ÏİÎ½
Ġp ri
´ à¸Ļ
Ġé ©
åĲ ¦
0 9
Ġà¤ĩ à¤¤
à±Ĥà° ª
à¯įà®ļ à®¿
k ow
Ġol du
ĠÎ¶ Ïī
Ġwir d
Ġde ngan
Ġáĥ¬ áĥĺáĥľ
à§ĩà¦Ľ à¦¿à¦²
ĠÃª tre
Ġà°¸ à±įà°µ
Îķ ÎĿ
ĠÎĿ Î¿
ĠÐ¿ÑĢ Ð¾Ð²
Îµ ÏĦÎµ
Ġâ Ĩ
Ġâ ĸ
Ġâ Ķ
Ġìŀ Īëĭ¤
ĠáĥĶ áĥĻ
ĠktÃ³ re
Ġn ej
ĠØ³ Ø§ÙĦ
à¯ģà® ´
åħ¶ ä»ĸ
å¤© åłĤ
Ġh t
Ġè ·
Ġé Ĺ
Ġçİ¯äºļ AG
Ġ ~
èĥ ľ
² à¤¾
Ð°Ð½ Ð´
Ã¡ o
ĠáĥĽ áĥĲáĥľ
Ġpr es
Ġà°¨à±ģà°Ĥà° ļà°¿
is chen
à¥ĩà¤ ®
ÎĳÎ ļ
ĠÎ ĸ
Ġà°ħ à°Ń
Ã© c
ĠâĢ İ
m Ä±ÅŁ
ĠÐ¿ Ð¾Ð²
à¯įà®ª à¯įà®ª
owan ie
ĠÂ µ
ĠÎµÎ½ Ïİ
v i
Ġà°ħ à°Ĥà°¤
ĠáĥĲáĥł áĥĲ
ëĲ ĺ
Ġä½Ĩ æĺ¯
¹ à¹Ī
Ġà¨ ¬
Ġ5 9
ä¼ļ è®®
Ġà¹Ĥà¸ Ķà¸¢à¸
åĨ Ļ
æ¥ Ń
Ġé ¢
Ġà¸ Ĭà¸
à¥įà¤¯à¤¾à¤ µà¤°
Ø§ Ø´Øª
ĠáĥĲáĥłáĥ ¡
Å¾ ÃŃ
Ġdz ie
×ķ× ¦
Ð» Ð°ÑģÑĤ
ĠÏĢÏģÎ¿ ÏĤ
ĠÙĦ Ø§
à¯įà® ¸
Ĥ à¹īà¸²
çĶµ èĦĳ
æĺ¯ ä»Ģä¹Ī
à¹Ģà¸ §à¸
ä½ Ļ
Ġ4 7
à¹īà¸ ĩ
12 3
Ġçİ¯äºļ å¨±ä¹Ĳ
è¯ ī
éģĹ æ¼ı
éķ ĩ
± à¹Īà¸ĩà¸
åľ° åĮº
Ġçī ¹
Ļ áĢ
æłĩ åĩĨ
ķà¸´à¸ Ķà¸
à¤¿à¤ £
ĠÕ ¿
m iÅŁ
Ġa ll
áº¥ y
Ð¸ ÑĪ
à°¾à°² à°¨à±ģ
Ġmo Å¼
ĠC om
Ð¸ ÑĢÑĥ
áĥĲáĥļ áĥ£áĥł
Î¹ Ïİ
ent a
Ġà¤īà¤¨ à¥įà¤¹
h a
Î» ÎµÏħ
Ð»Ð¸ Ñĩ
ĠF r
Ùĥ ÙĨ
áĥĲáĥłáĥĹ áĥļ
çļ ®
à¤¿à¤µ à¤¸
ĠÎ± Î¾
Ġd is
áĥ®áĥĿáĥķ áĥł
Ġ à¹
æĺ¯ ä¸Ģ
åĪĽ æĸ°
Ġå¾· å·ŀæīĳåħĭ
à¤¾à¤¨ à¤¾
Ġc áº£
ÏĨ ÎŃ
Ø§Ùħ Ùĩ
à°¾à°² à°¨à°¿
ĠÑģ Ð¾Ð±
à®¾à®³ à¯į
Ġz e
à¦¿à¦ ·
Ġau t
ë Ħ
ĠÎķ ÏĢÎ¹
Ġin i
ĠÎĶ ÎµÎ½
Ġ×ķ ×Ķ
ĠÃ ¥
ãģ ©
à¯Īà®¯ à¯Ī
áĥĲáĥļáĥĺ áĥĲáĥľ
Ïģ ÎµÎ¹
à±ģà°¤ à±įà°µ
ĠA us
âĢĮ ÙĩØ§ÛĮ
Ð Ľ
ÐµÐ½ Ð¸Ð¹
è¡ ¥
Ġà¨ ²
à© į
Ġà¨ ĩ
Ħ à¸Ńà¸
å¤ «
à¤® à¤§à¥įà¤¯à¥ĩ
Ġà°ī à°Ĥà°¦à°¿
áĥĺáĥ ®
Ġà§ «
u d
à§ĩà¦² à¦¾
ĠìĨ Į
ĠáĥĽáĥĹ áĥĲáĥķ
Ġà¤¬ à¤¾à¤°
Î´ ÏĮ
à¯Īà®ķ à®³
Ġà¦¬à¦¿à¦¶ à§įà¦¬
ĠÐĿ Ð°
Î»Î· ÏĤ
ĠD as
ĠáĥĽ áĥĲáĥĺ
Ġc ette
Ġt áº¡i
Ġà°ļ à°¾à°²
Ïį ÏĢ
Ġb ÄĻ
Ġáĥ¨áĥĶáĥ¡ áĥĲáĥ®áĥĶáĥĳ
ra v
ÐµÐ½ Ñĭ
l am
Ġìľ ł
Ġï¿½ï¿½ ï¿½
Î´ Ïħ
ĠÙĪ Øª
Ġa cc
à¤¾à¤° à¤¾
áĥĿáĥļ áĥĿáĥĵ
×Ļ× ĺ
à§įà¦¯ à¦¾à¦²
j ÄĻ
ãģ Ī
ĠÎł Î¿Î»
ĠÑĢ ÑĥÐ±
Ġc am
ier t
Ð¾ÑĤ Ð¾Ð²
à®¿à®¯ à®¾à®ķ
ĠpÅĻ ed
å®īåįĵ çīĪ
app _
éĶ Ļ
èĥ½ åĬĽ
æľ Ŀ
æĶ¿ çŃĸ
Ġag æ³¨åĨĮ
åħ³ æ³¨
à©° à¨
æ¯ į
æĢ» ä»£
ä¿Ŀ æĬ¤
e e
3 D
Ġè Ĥ
Ġ à¹Ģà¸£à¸²à¸
åĨ ·
à¥įà¤¯à¤¾à¤¨ à¥ĩ
ĠÏĮ Î»
ĠÐ»Ñİ Ð±
ĠáĥĵáĥĲáĥ Ļ
ĠÂ» ,
Ġ ÉĻm
cy j
à¦¤ à§įà¦¤
Ð¼ ÐµÑĢ
Ø¨ Ø©
iá»ĩ u
ÎŃ Ïĩ
Ġà¤°à¤¹ à¥ĩ
Ķ à¹īà¸²à¸Ļà¸
Ġè¯ ¥
Ġæīĳåħĭ ä¹ĭæĺŁ
èī ¯
æĹ¶ ä»£
Ġé ĥ½
Ġçİ¯äºļ å®ĺç½ĳ
Ġá Ī
åĬ¡ åĳĺ
å¼Ģ å±ķ
Ġà¤¸ à¤¾à¤Ĥà¤Ĺ
en i
ĠÃ© ta
à°Ĥà°¡ à°¿
Ġa da
Ġà®µ à®¿à®Ł
áĥĵ áĥĺ
ÐµÐ¼ Ñĥ
h t
ĠÏĩ ÏģÎ·
¡à¸ ·à¸Ńà¸
æĿ¥ çļĦ
å¢ŀ éķ¿
ĠæīĢ ä»¥
Ĺ à¹īà¸²à¸
h h
ĠçĽ ®
Ġå¼ ł
Ġà¤µà¤°à¥įà¤ ·
il i
ì Ļ
áº ±
áĥĿáĥĳ áĥĲáĥ¡
ĠÐŀ ÑĤ
ĠÐŀ Ð±
à¥ĩà¤ Ĺ
à°¾à°Ĥà° Ł
ĠÐĴ Ñĭ
Ġà¦ķ à¦¥
ant es
szy st
Ø§Ø ·
ÑıÑĤ ÑĮ
Ġáĥĺáĥľ áĥ¤
à¯Īà® ¨à¯įà®¤
ìĥ Ŀ
ch t
Î¹ÎºÏĮ ÏĤ
×ķ× Ĵ
Ġà§ ¦
Ġáĥ¡ áĥĲáĥĵ
Ġà§ ª
ĠÐ¡ ÑĤ
asÄ±n Ä±n
Î² Î¿Î»
Ġà¦ķ à¦¾à¦ľ
Ġà°ħ à°²
ĠN ie
Ġà¤¥ à¥Ģ
Ġn Ã¡
t ro
ãģĭ ãĤī
Î® Î¼Îµ
ê° ķ
ĠÐ² Ð½
íĨ ¡
ìĭ ¤
Ã¼ ck
ĠB ak
Ä± lÄ±
Ġc ar
Ġáĥ¨ áĥĶáĥĵ
Î³ Ïĩ
Ġà¦ı à¦®
Ð¾Ð² Ð¾ÑĢ
Ġà°° à±ĭà°ľ
ra w
Ø¹ ÙĦ
ìĦ ł
Ġà®ī à®Ł
æľº æŀĦ
åŃ¦ éĻ¢
å° Ħ
ä» ª
ªà¸ ¡
ä»£ è¡¨
ķà¸ ¥
ĠæĪ ĸ
åĪĨ å¿«ä¸ī
Ġà¸Ĺà¸ ³
Ġåį ļ
æĭ ħ
Ĺà¸µà¹Ī à¹Ģà¸
çŁ¥ éģĵ
Ġè ¥¿
Ġà¨¦ à©ĩ
åįķ èģĮä¸ļ
à¤¾à¤·à¥įà¤Ł à¥įà¤°
s an
ĠÎ¬ Î½
è´ ¦
Ġà¸ Ľà¸£à¸°à¸
ç» į
11 éĢī
å² Ľ
åħ ¸
Ġagäºļæ´²åĽ½éĻħ æ¸¸æĪı
à¥įà¤¯à¤¾à¤ļ à¤¾
Ðµ ÑĨ
ĠM ar
Ġfa it
à°¾à°² à±ĭ
à¶ ±
Ġà¤ Ĳ
ÏĢ ÎŃ
ìĿ´ ëĭ¤
Ð¿Ð» Ð°ÑĤ
Ġáĥ« áĥĲáĥļáĥĺáĥĲáĥľ
ĠØ§ ÛĮØ±
Ġs áº½
à¦¾à¦ £
ĠÐļ Ð°Ðº
cj e
ĠÙħ Ø´
×© ×¨
Ð¸ Ð¾Ð½
Ġà® ĵ
Ġein en
Ã½ m
áĥĿáĥľ áĥĺ
ĠÏĢ ÏģÎ±Î³
t il
ĠÐ½Ð° Ñĩ
Ġz ÅĤ
i f
à±įâĢĮ à°²à±ĭ
Ġl ub
ÏĥÎ¹ Î¼Î¿
ĠáĥĴ áĥĲáĥł
Ġà¤ķ à¥ģà¤
à¯ĭ à®¤à¯ģ
ĠÐ½Ð° ÑĪ
ë© °
ĠÃ§ Ä±x
à¦¿à¦ ļ
Ð¾ÑģÑĤ ÑĮ
ÙĬ Øª
ĠØ¯ Ø³Øª
4 3
Ġ ā
ä¸ª äºº
à¹Ī à¸Ļà¹Ģà¸
Ġæ³ ķ
è¿ĳ å¹³
Ġå» º
-- --
à¹Ģà¸Ĥ à¸²
Ġç§Ĵ éĢŁ
µà¹Īà¸ ¢à¸§à¸
Ġ5 åĪĨå½©
åį ĸ
st ar
Ġ3 7
ĠâĢĶ âĢĶ
Ġ5 2
ľà¸ ¡à¸
à¸Ļ à¹Īà¸²à¸
Ġag88 çİ¯äºļ
åĪ »
Ġåĩ¤åĩ° å¤§
çŃ ¾
Ġåĩ¤åĩ°å¤§ åıĤèĢĥ
â ²
à¹Ģà¸Ĥ à¸²à¸
à¥ĭà¤ ¬
áĥļ áĥĶáĥĳáĥĺáĥ¡
à±Ĥà° ²
ĠÎ¾ Îµ
Ġw ar
Ġáĥ¡áĥĲáĥ £áĥ
m ento
à¦¾à¦° à¦¾
ĠÑģÑĢ ÐµÐ´
il ÉĻn
c ul
ĠÎ£ ÏħÎ½
à¯Ģ à®°
ãĤ ģ
Ãª u
ĠÎļ Î±Î¹
Ġ Ćć
à¸µà¸¢à¸ §
Ĥ à¸²
20 18
ģà¸²à¸£ à¹Ģà¸
ä»¥ åıĬ
åį ´
h u
é¡ »
æĭĽ èģĺ
I N
ĠÎ´Ïį Î¿
åĿ Ĺ
åĢ ĳ
ï¼ ¿
Ġé ¡
Ġç Ĥ
«à¸¥à¸²à¸ ¢à¸
å¾® ä¿¡
Ġ0 00
ä¹ł è¿ĳå¹³
à¹ĥà¸«à¸į à¹Ī
Ħà¸§à¸²à¸ ¡à¹Ģà¸
ï¼ ļ
è¿ Ŀ
ä¼ ¤
è¡ £
6 9
ļ à¹īà¸²à¸Ļ
åī §
Ľà¸¥ à¸µà¹Īà¸
ļ à¤¾
Ġcom me
ĠÑĥ Ð´
ia mo
à°¡ à°¾à°¨à°¿à°ķà°¿
Ġs am
áĥĲáĥĵáĥĴ áĥĶáĥľ
g li
ĠØ º
Ġà®İ à®´
ĠÐº Ð¾Ð»
Ġï¿½ï¿½ï¿½ï¿½ ï¿½
ĠÎ±Ïħ ÏĦÎ¿
i Ã³n
Ã¼ z
ä¸ ½
æŀ ¶
ãĢ Į
Ġà¹Ģà¸ŀà¸£à¸²à¸ °à¸
à¤²à¥ĩà¤² à¥įà¤¯à¤¾
à¤¸ à¥Ģ
ic e
à®¸ à¯į
×Ļ× ŀ
ĠÎ£ Îµ
à§ģà¦° à§ģ
Ġë ¹Ħ
Ġd á»¥
ĠÐ¸ Ñħ
Ġm Ã©
Ġp rz
ĠÎ¼ÎŃ ÏĥÎ±
ag en
Ġà¤µ à¤¹
áĥĺáĥª áĥĺ
ĠâĢİ #
Õ¸ÖĤÕ©Õµ Õ¸ÖĤÕ¶
m ÉĻ
ÏģÎ¯ ÏĤ
Ġà®ķ à®¾à®²
k ov
a i
ÐµÑģ ÑĮ
à¦¾à¦² à§ĩ
Ġáĥ¡áĥĲáĥ¥ áĥĽ
ĠÏħ ÏĢÏĮ
Ø´ ÛĮ
Ġt ien
Ġb ar
áĥĶáĥ¡ áĥ¢
ļ à¸Ļà¸
Ġà¤Ĩ à¤ľ
Ġm an
Îķ ÎĻ
Ïģ ÎµÏħ
m ÄĽ
ĠØ§ÙĦØª ÙĬ
ĠÐ±ÑĥÐ´ ÐµÑĤ
íķ ©
Ġk om
Ħà¸ ´à¸
e b
ģà¹Ī à¸Ńà¸Ļ
æĻº èĥ½
æ ¤
ä¸į èĥ½
æĿ İ
Ġagçİ¯äºļ å®ĺç½ĳ
Ġè ¢
ä¸ °
Ġag æĹĹèĪ°
Ġ à¹Ħà¸Ķà¹ī
è¯ķ çİ©
Ġà¤ħà¤¸ à¤²
Ġáĥ§áĥķáĥĶáĥļ áĥĲ
Î» Ïİ
³ Û
ĠØ¯ ÙĪ
Ġà¤¬ à¤¹
Ġà¦¨ à¦¾à¦®
Ð°Ð¹ Ð½
×ł ×ķ
à°Ł à±įà°²à±ģ
Ġà®¨ à®¿à®±
Ġp om
ĠÐ± Ð¾Ð»
Ġáĥ¡áĥ®áĥķ áĥĲ
Õ¸ ÖĢ
l ay
iz za
ÏĦÎ¿Ïħ ÏģÎ³
Ãª me
à¦Ļà§įà¦Ĺ à§ĩ
Ġà°ļà±ĩà° ¶
Ġk ann
Ïĥ Î¯
Ġbe z
ĠÄĳ Ã³
ê± °
Ġà¤¸ à¤¬
à¦§ à¦¾à¦¨
Î¿Ïħ ÏģÎ³
Ġà®ļ à®®
×Ļ× ¤
åĩº çİ°
à¤¾à¤Ĥà¤ļ à¤¾
Ġà°µ à°°
ãĤ Ħ
Ø§Ø ¶
ĠáĥĲáĥ ļ
Ġq al
ÐµÐº Ñģ
or i
Ġá¼ Ģ
ĠÏĩ Ïİ
Ġà¦¤ à¦¾à¦¦à§ĩà¦°
ÑĤ Ð¾Ð±Ñĭ
g un
ĠØ¯ ÛĮ
à®ķà¯įà®ķ à¯ģ
Ġpar t
Ġáĥĵ áĥĲáĥľ
Ġpo z
ĠÎ» ÏĮÎ³
Ġzu m
à±ģà°Ĥà° ¡à°¾
Ġà¤¤ à¥ģà¤®
áĥĶáĥķ áĥĶ
¯ ¼
Ġà¤¦ à¤¿à¤¯à¤¾
ĠÎ¼ÎµÎ³ Î¬
à®¤ à®¿
ĠØ§ÙĦØ °
ĠP ol
Ġ ont
owa Äĩ
ol a
Ġà¦ķ à¦¾à¦
Ð¸ Ð½Ñĭ
à°Ĥà°¦ à±ģà°ķà±ģ
Ġì ¢
ĠÎµÎ¯ ÏĩÎµ
Ġà°ª à±Ĭ
Ġà®µà¯ĩà®£à¯įà®Ł à¯ģà®®à¯į
Ġnh Ãł
ĠØ¯Ø§ÙĨ ÙĦÙĪØ¯
Ġ×Ķ× ¢
Ðº Ð¾Ð¹
Ø± Ùģ
áĥĺáĥĻ áĥ£áĥłáĥĺ
ci as
Ġà¦¬à¦¿à¦ Ń
b eit
à¤Ĥà¤ ķ
Õ¸Õ ¾
Ġo lar
ĠÑĩ Ð°ÑģÑĤ
ĠÏĩ ÏģÎ®
ĠáĥĹáĥĳ áĥĺáĥļáĥĺáĥ¡
ĠáĥĲáĥĵ áĥĴ
Ġw iÄĻ
Ã¶ r
Ïĥ ÏĦÏĮ
à®° à¯ģà®®à¯į
Ã¡l nÃŃ
Ú¯ ÛĮ
or o
à±ģà°¨ à±ģ
Ġp Ã¥
à¤ ¢
ĠA l
à¦¸ à¦²
ì¶ľìŀ¥ ë§ĪìĤ¬ì§Ģ
ê° ľ
à¦° à§ĩà¦°
ãĥ ķ
Î¿Î½ ÏĦÎ±ÏĤ
à¯ģà® ªà¯į
Ġper o
ĠÏĢ Î¬
à°Ĥà° ¬
Ġà¤ľ à¤¿à¤¸
Ð» ÐµÐ½Ð¸Ðµ
Ã² ng
áĥĴ áĥĲáĥľ
Ġfa ire
´ë Ŀ¼
Ġy ax
ÏĦÎ¿ Î¹
Īà¸ ³à¸
èĪ ¬
ª à¸µà¸
Ġà¤° à¤¾à¤¹
Ø´ ÙĨ
Ġëı Ļ
Ġs obre
×Ļ× ¡
à°° à°£
h od
Ġà®ª à®°
_ _
ĠÐº Ð»
à¦¤ à§įà¦¯
u o
ĠØ£ ÙĪ
ÏĥÏĦÎ± ÏĥÎ·
u it
ar z
Ð¾Ð²Ð°Ð½ Ð¸Ñı
Ġà¦¸ à¦¹
ĠP ro
Ġm Ãł
ĠáĥĻ áĥķ
ĠÏĮ Î¼ÏīÏĤ
çŁ Ń
áŀ Ķ
à¹īà¸Ńà¸ ¢à¸
Ġæ ´
è¿ ½
æİ ¢
¨à¸ ¶à¸ģà¸
æľ Ĺ
Ġåį İ
åĲ «
çĸ Ĺ
æľ ¨
à¹īà¸ ¡à¸
Ġå¤§åıĳ å½©ç¥¨
à¸µà¸¢à¸ ĩà¸
ľà¸ ¥à¸´à¸
Ġà¤® à¤¾à¤
ou p
à±ĭ à°Ĥà°¦à°¿
Ø¨ ÛĮ
Ġà®ħà®¤ à®¿à®ķ
Ñı Ð²
à°¾à°² à±įà°²à±ĭ
Ġg li
áĥ§ áĥĿáĥ¤
Ġ à¸Ļà¸²à¸
é ¼
åŃ¦ çĶŁ
Ġé ĥ
çĻ ¼
æ© Ł
æ¶ ¨
¢à¸ §
Ġè ī
ä¸Ģ æŃ¥
Ġäºļæ¸¸ å®ĺæĸ¹
ľà¹Īà¸² à¸Ļà¸
Ġäºļæ´² æ¸¸æĪı
è´ ¸
Ġç¾İ åĽ½
ç»ı å½©ç¥¨
ģà¹Ī à¸Ńà¸Ļà¸
åĲ ¯
Ġ2019 å¹´
«à¸¡à¸ ·à¸Ńà¸Ļà¸
à¥ĭà¤ §
ut as
al iz
ĠÃ¶l k
Ã© ri
Ġs ein
áĥĺáĥľ áĥĺ
Ð² ÐµÑĢ
Î¯Î½ Î·
à¦¾à¦° à§ĩà¦°
ìĭ Ŀ
à°® à±ģ
Ġc Å©ng
Ġà°® à°¾à°Ł
à¥ĩà¤ ¦
ic k
ÐµÐ» ÐµÐ¹
en er
owan ia
11éĢī 5
Ġ ä¸»
àª °
Ĭ à¤¨
¹ Û
ĠÙħ Ø±
ÏģÎ¿ ÏįÎ½
à¤¾à¤ ĵà¤Ĥ
Ġà°ªà±įà°°à°Ń à±ģà°¤à±įà°µ
à§Ģ à¦¨
áĥĶáĥĳ áĥĶáĥļ
Ð¾Ñģ ÑĮ
Ġà®ļà¯Ĭ à®²à¯įà®²
Ġà°¨ à±Ģ
Ġcon s
Ġå® ĥ
æ± ī
ä¿ ĥ
ç» §
áł ¦
22 2
Ġà¤¯ à¥ĩà¤¤
à®¤ à¯Ī
ĠÕ Ģ
Ġ Õ¡Õ
lÉĻ ÅŁ
ak an
b ie
à±Ĩ à°¨
Ġìĭ ł
ĠÎķÎ»Î»Î¬ Î´Î±
Ĺà¸ ĩà¸
Ġà¸ «
éĢ ı
s un
11 1
Ġá ī
é¾Ļ èĻİ
Ġåľ °
Ġåı¯ ä»¥
à¥ĥ à¤¤
ĠÎ¼ Î¹Îº
Äĥ n
Ø¯ ÛĮØ¯
ÐµÐ¶ Ð´
ÄŁ i
×Ļ× Ľ
Ġ" )
Ġáĥ¡ áĥŀ
à®¿à®ķ à¯į
Ġne bo
ag es
us z
ãģĵ ãģ¨
à¦°à§įà¦ ¥
Ġa an
v o
Ġáĥ¡áĥĲáĥ ¨
ģ à¸£à¸£à¸¡à¸
ç§Ĵ éĢŁ
ç§ Ģ
³à¸ Ħà¸
èĥ Į
· à¸Ńà¸ĩ
à¸Ļà¹īà¸ ³
à¸´à¸ Ķ
¥à¸ ±à¸
Ġè ĥ½
à¸£à¸µà¸§à¸´à¸ §
à¹ģà¸ ķà¹Ī
æī ĺ
åĲ ¸
åıĳ çİ°
Ġà¤¹à¥ĭà¤¤ à¥Ģ
ĠÐ¿ÑĢÐ¾ Ð¸Ð·
ëį °
ĠÎ³ Îµ
el u
à°° à°¿à°ķ
Õ¸Õ ²
Ġson ra
ĠÙħ Øª
on d
ĠÐ³Ð¾Ð´ Ð°
Ġprze d
Ïĥ Î¯Î±ÏĤ
Ġim p
Ġáĥ£áĥ¤ áĥłáĥĿ
Ġh Ãłng
à±Ĩ à°ķ
à¹īà¸Ńà¸¡à¸ ¹à¸
áŀ Ł
Ġé Ł©
Ġå Ŀ
ä¹¦ è®°
Ġht ml
éĥ½ æĺ¯
p j
b b
Ĺà¸³ à¹ĥà¸«à¹īà¸
æį ķ
èį Ĳ
ç» Ŀ
± à¹īà¸Ļà¸
åĪ ¤
à¤¿à¤ Ł
à®¾à®¤ à¯ģ
Ġìĺ ģ
à§ģà¦ ĩ
Ïĩ Î·
ĠÐ´ ÐµÑĤ
Ġà°ªà±Ĩ à°Łà±įà°Ł
Î¸ Ïħ
Ġà¦ķ à¦¿à¦Ľ
as s
Ġà®¤ à®©
ĠÐ¼ Ñĭ
à°¿à°¨ à±įà°¨
Ġ×© ×Ķ
ow ej
Ð» ÑĮ
Õ¥Õ ¿
Ġis ÉĻ
Î¾ Î·ÏĤ
å³ °
Ġà¤ª à¤¾à¤¹
ÙĬ Ø§Øª
c ar
áĥĶáĥ ŀ
ĠÐ° Ð½
Îº ÏģÎ±
Ġë§ Į
á» ģ
ĠáĥĶ áĥ¥
Ð» Ð°Ð³
ĠÙħ Ø³
il er
Îķ ÎĽ
Î® Î½
ĠD er
k Ã³w
Ġper son
ey d
Ġà® ¸
Ġà°ħ à°¦
ĠÏĥÏħ Î¼Î²
ĠáĥłáĥĿáĥĴ áĥĿáĥł
Ġy aÅŁ
ĠÐ ¨
åº Ħ
Ġæĺ ¨å¤©
è ĸ
à¸£à¸£à¸ ¡
à¹īà¸ ĩà¸
à¹īà¸ ³à¸
Ġæ² ¡
èį ī
è¿ ·
Ġà¤ķà¥ĩà¤² à¥ĩ
Ġd on
åľ¨çº¿ è§Ĥçľĭ
Ġà¤ĩ à¤¨
à§įà¦ Ľ
et e
ÏĨ Ïħ
Ġê¹ Ģ
Ġë ¯¸
ĠáĥĽáĥ® áĥĿáĥļáĥĿáĥĵ
Ð £
ĠÐ¼ ÐµÑģÑĤ
à°¾à°Ł à±ģ
ÎĹ ÎĿ
Î¸Îµ ÏĥÎ·
an de
Î ¦
Î¹ Î²
at y
Ġà¤ľ à¥Ģ
à¦ª à§ģà¦°
ÙĨ Øª
à§ĭ à¦ķ
an ti
Îµ Î´
à®µ à¯ģ
elu gu
à°¾à°° à°¾
ĠdÃ© c
ĠÕ ¤
ari x
ĠÎĳ ÏĢÏĮ
Ġáĥ¡áĥĲáĥ Ķ
o t
ÏĢ Î¹Ïĥ
Ġ×ĳ ×¢
Ġà¤°à¤¹ à¤¾
Ġd ari
Ġáĥĵáĥĺáĥĵ áĥĺ
ĠÄĳá» ĭ
ĠÎ¹ ÏĥÏĦÎ¿
ì ħ
ĠÐº Ð¾ÑĢ
i cz
ÛĮ Ú©
is ta
ĠÕ º
Õ¸ ÖĢÕ
d ur
Ġà¦®à¦§à§įà¦¯ à§ĩ
Ġà°ªà°¾à°° à±įà°Ł
Ġà¤ķà¥ģà¤ Ľ
éļ ı
Ķà¸ ³
è¿ĩ ç¨ĭ
Ġé £
å¾Ī å¤ļ
è ĵ
Ġçİ¯äºļ æīĭæľº
æł· çļĦ
à¹Īà¸²à¸ §à¸
6 1
Ġçİ¯äºļ çĶµæ¸¸
Ġ5 7
é Ĩ
Ġà¸ ¢
Ġà¤¤ à¥įà¤¯à¤¾
à°°à±įà° ļ
ĠG r
Ġáĥ¡áĥĲáĥ ĸ
ĠÎºÎ± Î½
ãĥ Ń
ÙĬ Ø¹
à®¾à®± à¯įà®±
Ġì¹´ íĨ¡
Ġë ħ
ĠÐ³ ÑĢ
áĥĺáĥłáĥ ĵ
ĠÎºÎ±Î¸ ÏİÏĤ
Ġg ratis
ad as
Å¡ tÄĽ
lar a
à±ĭ à°Ł
è´ «
å§Ķ åĳĺ
Ġ4 3
åħ¬ åĬ¡åĳĺ
à¥ģ à¤£
ê¹ Į
g er
ĠÐ¿ Ð¾Ð·
áĥĲáĥ «áĥļ
Ġ7 7
æ¶Ī è´¹
Ġà¸ «à¸£à¸·à¸Ńà¸
Ġd88 å°Ĭé¾Ļ
ä¿ Ħ
à¹Ģà¸ģà¸ ´à¸Ķà¸
ĺ à¸µà¸
Ĺà¸µà¹Īà¸ Īà¸°à¸
Ġæ±Ł èĭı
è½ ®
į à¸²à¸
à¤² à¤Ĥ
ĠÛ ²
Ø§ÛĮ Øª
ªà¸£à¹īà¸²à¸ ĩà¸
æĥ ł
æĭĽ åķĨ
à¤¾à¤£ à¥Ģ
ÅĤa d
ĠÙĪ Ø£
ch er
ĠÎļ Ïħ
à§Ģ à¦¬
ÐµÐ» Ð¾Ð²
Ġà®ī à®£
Î®Î¼Îµ ÏģÎ±
Ġf o
ĠP our
Ħà¸ ´à¸Ķà¸
«à¸¡à¸ Ķ
åį Ī
ĵà¸ ĳ
0 5
Ġæİ ¨
Ġåĩ º
áŀ Ľ
Ġå· ¥
8 9
ç¡ Ģ
0 7
à¹Ģ à¸Ńà¸
ä¸Ń æĸĩ
Ġà¸ŀ à¸£
Ġç¥ ŀå½©
ĠåĲĮ æĹ¶
åĲ ¬
Ġè¿ Ľ
æĺ¾ ç¤º
æĹħ æ¸¸
è§Ħ åĪĻ
æ± ĩ
à¹Ħà¸§ à¹ī
à¸Ļà¸µ à¹Ī
éĴ ¢
à¤¿à¤¤ à¥įà¤°
ĠìŀĪ ëĬĶ
Î¯Î½ ÎµÏĦÎ±Î¹
ÙĨØ¯ Ùĩ
×ľ ×Ķ
à±Ģ à°¡
an y
ic as
Ð± Ð¾ÑĢ
Ġà¦Ĩà¦® à¦¿
Ã Ħ
ĠvÃł o
Ġtr Ã¨s
u ov
Ġáĥ £
Ġb es
à¥ģ à¤¤
l ica
Ùħ Ø±
Ã¡ z
Ġà¦¬ à¦Ľ
Õ¡Õ ®
Õ ¤
Ġda ha
ĠÐ´ Ð¾Ð¼
ĠÎ» Î¯
à°¾à°· à±įà°Łà±įà°°
à±ģà°² à°ķà±ģ
ÑĥÐ¿ Ð¸ÑĤÑĮ
ĠÐ ¦
áĥ£áĥ ¥
Ð¼ Ð¾Ð¶
Ġin f
à®¿à®¯ à¯ģà®®à¯į
ĠÎ¼ Î·Î½
áĥĶáĥĳ áĥĿáĥĵáĥĲ
Ø¨ Ùĩ
Ġà°¸ à±įà°¥
ãģ ¤
èĹ ı
åıĳ çĶŁ
åĵ ¥
ä¸ ´
Ġá ģ
à¸µ à¹Ī
Ġà¤¨ à¤¿à¤µ
ĠÏĥ Îº
à¦Ĺ à§įà¦°
r od
ÑĥÑİ Ñī
Ġvi deos
æīĭæľº çĻ»éĻĨ
å¼Ģ åıĳ
Ġi d
è®° èĢħ
ä¿¡ èªī
à¥ģ à¤µ
ÏĩÎµ Î¯Î±
áĥĶáĥĳ áĥĶáĥľ
Ġt u
à¦ª à§įà¦°
à®¾à®¯ à¯į
Ġno ch
ĠÐ» ÐµÑĤ
Ġr Ã©s
ÙĤ ÛĮ
am os
ĠÏĮ ÏĦÎ±Î½
Ġìļ °
à® ŀà¯įà®ļ
Ġà¤¦ à¥ĩà¤ĸ
k e
ÃŃ s
Ġw szyst
×Ļ ×ķ
ÙĨ ÙĬ
Ġáĥ Ń
à¦¿à§Ł à¦¾
ti ca
áĥł áĥĲ
Ñı Ñī
Ïģ ÏīÎ½
à±ģà°Ĺ à±ģ
à§ĩà¦¨ à§įà¦Ł
ĠT e
à¯ģà®ķà¯įà®ķ à¯ģà®®à¯į
Ġà°İ à°¨à±įà°¨
áĥĲáĥķáĥ¨ áĥĺáĥł
or d
Ġà¤ķ à¥Ī
ĠÎºÎ¬ ÏĢÎ¿
íĨ ł
Ħà¸ ·à¸Ńà¸
ĠãĢĳ ,
Ġ6 up
¸ à¸Ļ
æĿ ¯
Ġà¤® à¤¾à¤°
p ie
à±ĩ à°²
Ġà®µà®¾à® ´
ĠÛĮ Ø§
Ð¸ ÑģÐº
ÙĤ ÙĬ
íĸ Īëĭ¤
kl ad
Ġà®¨ à®¾à®©à¯į
owe go
Ġà¦¹ à¦¯à¦¼
ĠÐ¼ ÐµÐ½
Ġà®ķ à®Łà¯įà®Ł
ĠáĥĽ áĥĿáĥķ
ÏĢÎ· ÏģÎµ
di b
ãĤ ·
Ġà°ķà±ĭ à°¸à°Ĥ
Ġs ah
áĥĶáĥ £áĥļ
Ð¸Ð» Ð°
z i
áº «
Ïĥ ÎºÎµ
E S
éĽ »
ãĢ İ
à¹Ģà¸£à¸µà¸ ¢à¸Ļ
å· Ŀ
E R
Ġå¾ Ī
·à¹Ī à¸Ńà¸Ļ
à¹Ĥ à¸Ńà¸
à¤°à¥įà¤ ¥
Ã¨ me
ut sch
Ġáĥ¬ áĥ§
Ñģ ÑĮ
ĠØ °
Ġà°ķ à°¾à°²
g l
ĠÎµ Î³
ĠÎĶÎ· Î¼Î¿
Î¶ Î¯
ng e
ĠÐ¾ÑĢ Ð³Ð°Ð½
i os
Ľ áĢ
è¿Ľ åħ¥
p c
åĭ ķ
Ġà¸ªà¸ ³à¸«
æŃ Į
æĦ ¿
ĆĈ ą
à¨¿à¨ Ĩ
éĢ Ļ
äº¿ åħĥ
æĶ¯ æĮģ
6 åĲĪ
è ¼
Ġà¤¹à¥ĭà¤¤ à¤¾
ĠK Äį
Äį ÃŃ
×¤ ×¨
Ġâ ĩ
ë¶ Ħ
Ġà®Ĩ à®ķ
ĠÎ³ Î½Ïī
al is
Ð¸ Ð¶
et ti
al q
Ġáĥł áĥĶ
c t
ĠQ u
ĠÎ± ÏĨ
p owie
à°Ĺ à±įà°Ĺ
ÑĨÐ¸ Ð°Ð»ÑĮ
ÉĻc ÉĻk
Î³ Î·
ĠÃ© tÃ©
áĥ ©
Ġ2 åĪĨå¿«3
áĢº áĢ
ç³» åĪĹ
æľĢ ä½³
æ±½ è½¦
å¹ ¸è¿Ĳ
j j
ĠãĢĳ, ãĢĲ
à¹Ģà¸¥ à¹Īà¸Ļà¸
à¤Ĥà¤¤ à¥įà¤°
ob ie
Ñĥ Ð·
à§įà¦¤ à§ģ
ier en
Ġnh iá»ģu
à±ĭ à°¦
Ġ Ïİ
Ð¸Ð½ Ð³
s ze
Ġáĥ£áĥ Ľ
ķ à¹Įà¸
ªà¸ ĩà¸
Ġï¼ī ï¼Į
ļà¸²à¸ Ħà¸²à¸£
åĪ ·
Ġà¤ ĳ
Ã± a
ìĿ Į
Ø§Ø± Ø¯
Å¯ j
ÉĻn in
Ġà°Ĩ à°°
à¯ģà®³à¯įà®³ à®¤à¯ģ
Ġà¦¹ à¦²
ĠÑĤ ÐµÐ¼
p l
ĠÎ¿ Î¼Î¬
ĠØ¹ ÙĦÙĬ
ÑĤ Ð¸
âĢĮ âĢĮ
à±Ĥà° ¨
ĠÎ£ Î¥
Î´ Î±ÏĤ
×ŀ ×Ķ
ul y
al am
Ġjs em
Ġo k
t Ãł
ĠÎĳ ÏĢ
ĠáĥĻáĥĿáĥĽ áĥŀ
Î³Î³ ÎµÎ»
Ġà¤¸ à¥įà¤¥
Ġm ej
ìĹ °
ÙĪ ÙĤ
ÏĦ ÎµÎ¹
Ġein er
il ÉĻ
ë² ķ
Ġà°¨à±ģà°Ĥà° ¡à°¿
ÄĽ t
Ð½ ÐµÐ¹
à®¿à®² à¯ģà®®à¯į
ĠV i
Ġáĥ¨áĥĶ áĥĺáĥ«áĥļ
Ġe mp
es i
ãģ ¡
ĠÚ© Ø´
£Â ¬
Ġtr Ãªn
Ð¾Ð± ÑĢ
Î¾ ÎµÎ¹
ujer es
Ġà¦¹à§Ł à§ĩ
u es
Ġcz as
ĠÙĦ Ùħ
ĠÎ½ Îµ
Ġê ´Ģ
cia l
Ġáĥ§ áĥĿáĥķ
à¯įà® ¨
ĠÐ¼ Ð°ÑĤ
Ġà¤Ĩ à¤¯
Î´ ÎµÎ¹
il ib
Ġ×ĳ ×ŀ×
Ġà¦¦ à¦¿à¦¨
áĥĺáĥ¢ áĥĶáĥ¢
cz Äħ
Ð¸ÑĤÑĮ ÑģÑı
à®¤à¯įà®¤ à®¿à®©à¯į
ĠÃ ĩ
Ïĥ Î¿ÏħÎ¼Îµ
g ra
æ¥ ¼
çĶ³ è¯·
è Ń
n s
ļà¸²à¸ ĩà¸
ķà¸²à¸ ¡
ŀà¸ ±à¸
à¹Ĥà¸ Ķà¸¢à¸
ä¸Ń å¤®
ä¸ ĥ
ĠçĽ ¸
é¢Ĩ å¯¼
è» Ĭ
ļ à¥Ģ
ĠÎ² Î±
Ġáĥ¡áĥĲáĥ ĺ
à§ĭ à¦®
à°¿à° ¡
ķàµįà´ ķ
à· Ģ
Ġà¤¹à¥ģà¤ ı
áĥĵ áĥĶáĥ¡
Ð¸Ð· Ð½
ov at
Ø¹ Ùĩ
Ġà°¸ à±įà°Ł
h al
êµ Ĳ
Ġt ou
Ø¯ Ø©
ĠÏĦ ÏģÏĮ
Ġc or
ĠÐ²ÑĢÐµÐ¼ Ñı
ĠÕ £
Ġs ay
Ġl áº¡i
å¤ ı
å¤§åıĳ å½©ç¥ŀ
ä¼ Ł
ĠE 0
Ķà¸ ±à¸ļà¸
é ¹
Ġå Ģ
å®Į æĪĲ
Ġç¦ ı
èµĮ åľº
ä¸Ģ äºĽ
à¹ģà¸Ļà¸ °
ä¸» ä¹ī
¢à¸ ¸à¸
44 4
Ġåı °
® à¸
çĽ Ī
Ġç ®
ä» į
à¸² à¹Ģà¸
Ġéķ ¿
Ġà¸ ģà¸£à¸
æľ ĭ
åĵģ çīĮ
Ġç¥ŀå½© äºīéľ¸
Ġà¤Ĩ à¤µ
ĠáĥĻ áĥĲáĥłáĥĴ
ĠÎ±Î½ ÏĦÎ¯
Ø¬ Ùĩ
à¦¸ à§įà¦¯
as z
ĠáĥĲáĥķ áĥ¢
à®° à¯Ī
Î¯Î¶ ÎµÎ¹
ac aq
Ġm is
ĠìĦ ł
b ÃŃ
Ġâ Ĥ¬
ent s
áĥĺáĥĵ áĥĲ
ĠÏĩÏģÏĮ Î½Î¹Î±
à°° à°Ĥ
Ġa b
Ġà¦¬à¦¿à¦ ·
ĠÐ¾Ð± ÑĬ
ĠÎ´ ÏħÎ½Î±
Ġà®® à®ķà¯įà®ķ
Ġil e
jÄħ ce
áĥĲáĥĵ áĥĺ
Ġ201 5
á ģ
Ġåį ³
ķà¹Īà¸²à¸ ĩà¸
Ġagçİ¯äºļ çĶµæ¸¸
¡ áĢ
Ġç ²
èĤ ī
à¸Ļà¸ ³à¸
æľĢæĸ° ç½ĳåĿĢ
er star
è° ±
ç½ĳé¡µ çīĪ
æĢ ¥
Ľà¸ ±à¸įà¸
çŃ Ķ
Ī à¸´à¸
à¤ ·
Ø§ÛĮ Ø¯
áº· t
×ķ× Ľ
Ġ it
Î Ĵ
Î¼Î¹ Î¿ÏħÏģÎ³
à¥įà¤ ¡
ĠÐ¸ÑģÐ¿ Ð¾Ð»ÑĮÐ·
ĠP er
áĥĶáĥĳ áĥĹ
íĺ ¸
à¦¾à¦® à§Ģ
Ġjs ou
da ÅŁ
Ïħ Ïĩ
à§ĭ à¦Ł
Ġà®ħ à®´
ĠØ§ÙĦØ ·
in iz
Ġà¤ļ à¤¾à¤¹
ãĤ ¿
áĥĹ áĥ®áĥķ
à±ģà°Ĥà° ¡
Ġde t
Ġm Ãªme
Îº Î¿Ïį
Ġs in
Ġà°¨ à°¾
ĠM it
Ġê° ľ
à°¾à° ļ
Ġd at
te m
ÐµÐ¹ ÑģÑĤÐ²
Ø¨ Øª
Ġåī į
æĶ¹ éĿ©
à« ĭ
ï¼ Ľ
é ½
à¹Ī à¸Ńà¸¢
è± ¹
à¤¾à¤Ĥà¤ļ à¥ĩ
ĠÎ¬ Î»Î»
O N
Ġd al
á»ĳ ng
à±ģà° ļ
áĥĿáĥľ áĥĺáĥ¡
ÐµÑĢ Ð¸
à¯Ĩ à®¯
ĠÑĥ ÑģÑĤ
ŀà¸£ à¹īà¸Ńà¸¡à¸
å¹ ħ
à¸£à¸µà¸ ¢à¸
m m
Ġæ¾³éĹ¨ ag
¸ à¸Ļà¸
3 1
à¸²à¸ ¡
éĶ ®
«à¸Ļà¸¶ à¹Īà¸ĩ
Ġà¤ħà¤§ à¤¿à¤ķ
Ġl le
od e
ÎµÎ¹ ÏĦÎ¿ÏħÏģÎ³
u Å¼
Ġs es
Ġà¦¶ à¦¿à¦ķà§įà¦·
à°° à°¿
ĠÐµ ÑģÐ»Ð¸
ĠÎŃ Îº
dz o
í ĽĦ
ĠáĥĶ áĥļ
us e
l ko
Ġà°ļ à°¿à°¤à±įà°°
Ø³Øª Ø§ÙĨ
ÏĥÎµ ÏĦÎµ
Ġà¦ķà¦¿à¦¨ à§įà¦¤à§ģ
Ġà®ª à¯ĩ
ag gio
ĠÑĩ ÐµÑĢ
×ľ ×Ĳ
ì Ī
Ġà°ħ à°¤
r ar
ĠáĥĲáĥ® áĥĲáĥļáĥĺ
p ar
larÄ±n Ä±n
g t
ãĥ Ĺ
à®Ł à¯ģ
ĠÐ¾Ð± ÑĢÐ°Ð·
Ø® Ø±
ÅĽ Äĩ
à¦°à§įà¦ ®
end re
áĥĿáĥĳ áĥĺáĥĹ
à¸Ļà¸µ à¹Īà¸
ç²¾ ç¥ŀ
ŀà¸ ¹à¸
5 9
çĽ Ľ
à¹Ģà¸Ľà¹ĩ à¸Ļà¹Ģà¸
Ġé¦ ĸ
ç¤ ¼
é «
Ġ5 åĪĨ
æĬ¥ éģĵ
áŀ ĵ
Ġçİ¯äºļ çľŁäºº
Ġå¸ Ĥ
å§ Ĳ
à¹ī à¸Ńà¸Ļ
a a
Ĭ à¸Ļà¸
Ġà¤¹ à¥ĭà¤
à¯ģà®ķ à®¿à®±
l as
ëª ¨
à¤¢ à¤¼
áº »
Ñĥ Ð³
ìŀ ¬
ĠÎ¼ Î¯Î±
áĥĲáĥłáĥ Ļ
u z
Ġà®¤ à®¾à®©à¯į
ÑĥÑī ÐµÑģÑĤÐ²
ÙĪØ± ÛĮ
ÏģÎ¯ ÎµÏĤ
éģ İ
åħ¨ çĲĥ
åº Ń
æĸĩ ä»¶
åŃ¦ ä¹ł
å¤ĩçĶ¨ ç½ĳåĿĢ
èµ· æĿ¥
ģà¸³à¸ ¥à¸±à¸ĩà¸
à¹Ģà¸ ¢
Ĥ à¸Ļà¸²à¸
åĨ ²
à¹Ĥà¸ ¢à¸
à¹Ģ à¸Ļ
çĸ ĳ
Ġ! !
à¤ª à¥įà¤°
Ġà¦ķà¦° à§įà¦®
à±ģà°ķ à±Ĭ
à®¿à®¯ à¯Ī
m an
à¦¾à¦¨ à§ĩà¦°
Ġte go
Ġí ĥ
Ġpr Ã©
à¥Į à¤°
Î½ Ïİ
à±Ĩ à°Ĥà°Ł
å¹´ çļĦ
ç»Ł æĪĺ
Ġæ¢¦ è§ģ
æķ ĳ
ŀ áĢ
Ġà¸ ļà¸
åŁº ç¡Ģ
s s
Ġk8 å½©ç¥¨
éľ ²
à¨¾à¨ ²
à¤¿à¤ ¦
Ġ×Ļ ×©
áĥĿáĥĳ áĥļ
ĠÑĤÐ°Ðº Ð¶Ðµ
Ġk Ã¶n
l ÃŃ
Ø¨ ÙĦ
z za
áº¥ p
à¯ĭ à®®à¯į
Ġb o
ÎĻÎļ ÎĹ
ĠÎ² Î¬
Ġå ¨
éĽ Ħ
à¤¾à¤¸ à¥Ĥà¤¨
à®¿à® ³
ow o
Ġà¦Ĩà¦® à¦¾à¦°
áĥĶáĥľ áĥĺ
ĠtÉĻr ÉĻf
ãģ Ľ
Ïĥ Î¼Î±
Ġà¦¨à¦¿à¦ ľ
ier s
à±ĩà° ¯
Îº ÎµÎ¹
u el
Ð¸Ñģ ÑĮ
Ġc os
áĥĲáĥĽáĥĵ áĥĶ
ÅĤ Äħ
uly o
im ulyo
Ġng ud
Ġngud imulyo
u h
à®² à®¾à®®à¯į
Ġ {
Ġìĺ Ī
×ł ×Ķ
ĠØ³ Ø±
Ã£ o
Ġà¦ķ à§įà¦·
Ð¾Ð½ ÑĤ
Ġm ÉĻl
sk Ã©
Î½ ÏĮ
Ġr en
à°¾à°¨ à°¿
ĠÑĥ ÑģÐ»
à¤¿à¤ ĸ
Ġtr a
ĠØª Ø¹
áĥĿáĥ ¥
ĠÎ» ÎŃ
w ar
g ÉĻr
Ġà¤¸ à¤¹
Ð¼ Ð°
Ġaus si
Ġê° ķ
à¯ģà®ķ à®¿à®±à®¤à¯ģ
Ġs wo
ĠD E
Ġm uy
áĥĶáĥ ¨
Î±Ïĥ Î¯Î±
à°°à±įà° ª
Ð» ÐµÐ´
à¦Ĺ à§ģà¦²
an z
Ġe lle
Î» ÏĮ
Ø° Ùĩ
áº ¹
¨àµįà´ ¨
Ġà¤ľ à¤¬
ĠÐ· Ð°Ð²
Ġà¤µ à¤¾à¤Ł
à±ģà°² à°¨à±ģ
ĠáĥĹ áĥĲáĥĽ
ķ Į
em os
Ġz ak
Ġf il
Ġ×Ľ ×ľ
Ġz am
Ì ģ
ĠÄĳ áº§u
ig n
ãĤ £
áĥĶáĥłáĥ ĵ
Î» Î¹Î±
Ġà¨ °
Ġ% ï¼Į
èĥ½ å¤Ł
å½©ç¥¨ å¼ĢæĪ·
Ġà¸ ģ
Ġå¹ ´
Ġà¹Ģà¸ Ĭ
ªà¸ ³à¸Ħà¸
å¸ ®
Ĺà¸²à¸ ĩà¹Ģà¸
Ġà¤¦ à¥ĭà¤¨
et ta
Ø® Øª
Ġy a
k eit
ess ion
ĠÐ¿ÐµÑĢ Ð²
áĥĹáĥ®áĥķ áĥĶáĥķ
ÎµÏħ ÏĦÎ±
åĶ ¯
à¹Ħà¸ Łà¸
q q
4 7
Ġà¤ķà¤°à¤£ à¥įà¤¯à¤¾à¤¤
nÃŃ m
ĠÎµ Î¹Ïĥ
Ġpe ut
t rz
ll i
Ġà°µà°¿à° µ
Ġ om
da k
ĠL os
Ġà® Ĭ
¨ à¥ĩ
ÑĥÑĩ ÑĪ
à°¾à° Ĥ
Ġáĥĵáĥ¦ áĥĶáĥ¡
ĠÎµÏĢ Î±
Ġà°® à±ģà°Ĥà°¦
ig l
Ġà®ķà¯Ĥ à®±
æ¨¡ å¼ı
è¾ħ åĬ©
äº¤ éĢļ
«à¸ į
ä»ĭ ç»į
3 7
ï º
ĠåĲ İ
Ġà¤ķà¥ĩà¤² à¤¾
Ġs y
ĠÙĨ Ø¸
Ñĥ ÐµÑĤ
ĠÎ ŀ
ĠÎºÏĮ Ïĥ
ĠìĹ °
Ġáĥ¨áĥĶáĥĺáĥ«áĥļ áĥĶáĥĳáĥĲ
à¥Ĥà¤ ²
Ġein em
Ġ×Ķ ×¨
or zy
iá»ĩ c
ĠÎ£ ÏĦÎ·
à°¾à°ķ à±ģ
Ġu til
ĠØ§ÙĦÙĦ Ùĩ
Ùĥ Ø±
ĠÏĥÏĩ ÎŃ
Ð ĳ
ĠØª Ø±
ĠÑĤ ÐµÑħ
à°¾à°Ĥà° Ĺ
ãĤ ı
ĠÐ½ Ð°Ð·
ÏĦ Ïĥ
Ġà® ¹
ĠáĥĴ áĥĲáĥ¡
l Ã¡
Ġz na
à±ĭ à°¡
ĠN o
í İ
ÏĨÎ¿ Ïģ
à¤¿à¤ ª
el er
Ġa t
à±Ģ à°ķ
ĠÎł Î¡
ĠÎµÎº ÎµÎ¯
Ø§Ø¯ ÛĮ
ĠáĥĴ áĥĲáĥ®
ĠÑı Ð²
ad or
çĪ Ĩ
å¾· å·ŀæīĳåħĭ
åĽ¾ çīĩ
è´£ ä»»
æĹ §
ŀà¸ ·à¹īà¸Ļà¸
Ħ à¹Įà¸
Ġè® °
è§£ åĨ³
à¨ µ
Ġæī ĵ
Ġà¤¯à¥ĩà¤ ¥
ÏĨ ÏĮ
´ ĳ
a ll
Ùĥ ÙĦ
é«ĺ æ¸ħ
à¤¾à¤ ģ
Ġà°ªà±įà°° à°ķ
Ġ×Ķ× ŀ
ĠÏĮ Î»Î±
Ġà¦¸à¦° à¦ķà¦¾à¦°
áĥłáĥ£áĥ ľ
à®¤ à®¾à®ķ
Ãł o
åħ¬ åĳĬ
å¥ ¥
åĬł æĭ¿å¤§
ä½ľ çĶ¨
à¹Ħà¸¡à¹Ī à¹Ħà¸Ķà¹ī
Ġæĺ İ
à¸£à¸±à¸ Ĳ
à¤¿à¤ §
Ġc re
Ġz as
ÏĨ Î±Î»
à¦¿à¦ ī
í ŀ
Ġà°¤ à°°
nÃŃ ch
Ġty lko
ĠØ¨Ø§ Ø²
Î¾ Î¹
Ġà¦ ¢
áĥķ áĥĶáĥķ
Ġt am
Ġz ur
ÑĨ Ð°
ãĤ ³
Ġn ouve
Ġà¦®à¦¾à¦¨ à§ģà¦·
ĠåĨ į
Ġå¤ ĸ
ªà¸ °à¸
Ġà¤®à¤¾à¤ Ŀ
Ð ĵ
ą Ĉ
Ġà¤¦ à¥ĩà¤£
ĠÐ¼ Ð¸Ð½
Ġes s
áĥ¬ áĥ§
cz a
ĠBak Ä±
ÉĻs t
ÐµÑĤ Ð°
on a
Ġà¦ĺ à¦Ł
Ġpr Ã©s
ĠáĥĲáĥ¥ áĥķáĥ¡
ÙĪ Ø§
Ïĥ ÏĥÎ±
Ġ ä¹
æĿ ¾
ç Ĵ
å¼ Ĥ
łà¸²à¸ ¢
æľĢæĸ°çĻ»å½ķ åľ°åĿĢ
à¹Ģ à¸Ńà¸ĩà¸
d d
Ĺ à¸´à¸
éĺ ¿
åĵª éĩĮ
à¸µ à¹īà¸
æĭ ¾
ĠåĽł ä¸º
áŁ Ĩ
8 6
2 åĪĨå½©
à¹ģà¸ ¥à¸°à¹Ģà¸
ĺ à¸£à¸£à¸¡à¸
Ġà¸ ¡
åªĴ ä½ĵ
Ġà¤®à¥įà¤¹à¤£ à¥Ĥà¤¨
ĠÂ ¿
us s
áº£ o
ìļ ´
à®¾à® ľ
ĠÑģ Ð°Ð¹ÑĤ
Ġm uch
Ġà®İà®¤ à®¿à®°
ĠáĥĴáĥĲáĥľ áĥ¡
ĠÐ¿ÑĢ Ð¸Ð½
Î¸ ÏģÏī
Ġjak o
à§ĩà¦ ¡
Ġà°ī à°¦
st ÉĻr
Î±Î¹ Î¿
ĠÙħ Ø¬
k en
Ġ×ŀ× Ĳ
te urs
ĠÐŁ Ð¾
Î¸ Î±
à¹ģà¸ ªà¸Ķà¸
O S
èģ ļ
«à¸¥à¸²à¸ ¢
Ġ _
ç» ĥ
ç¬ ĳ
æ¶ ²
à¥įà¤¯à¤¾à¤ ª
à±ĩà° ľ
ĠÐ½ Ð°Ð´
ãģĦ ãĤĭ
ÎŁÎ ľ
ĠÎµÏĢ Î¹Îº
ì ¡
Ġn ue
ver s
áĥĹ áĥĲáĥķ
à®¾à®® à®²à¯į
Ġà¤ľ à¤¾
à±ģà° ¸à±įà°¤
Ġn Ã³
Ġà¦¸ à¦Ļà§įà¦Ĺà§ĩ
Ð¼ ÐµÐ½
w Ã³
is a
ĠØ´ ÙĪØ¯
Î½Î¿ Î´Î¿
Ġà®ª à®£
áĥł áĥĿáĥĽ
à¦° à¦£
ÙĪ Ø¹
ĠÎĶ E
Ġm ÉĻs
Ġà°° à°¾à°·à±įà°Łà±įà°°
ĠÏĩÏī ÏģÎ¯ÏĤ
ĠÐºÐ¾ÑĤÐ¾ÑĢ ÑĭÐµ
ÅĽ cie
Ġà°¤ à°®
áĥĲáĥ¬ áĥĺáĥļ
ia l
n ou
à¯ģà® ©
ÏĦ Î¶
Ã ®
Ī à¹īà¸²à¸
ç¬ Ķ
Ġ6 0
ç«ŀ çĮľ
à¸Ļà¸ ±à¸ģà¸
3 2
å§Ķ ç»ŁæĪĺ
¸ à¹Īà¸¡à¸
çĭ Ĥ
à¥Ģ à¤°
Ġun ter
à°¿à°Ĥà°ļ à±ĩ
ĠÕ ¢
el ÉĻ
ëł ¥
áĥª áĥĺ
Ġques to
ĠÎĳ ÎĿ
Ġá¼ Ĳ
Î³ Î¼Î±
ĠÐµ ÑģÑĤÑĮ
v en
ĠÙĩ Ø°Ø§
ä¹ĭ åĲİ
ĺà¸ ¸
ģà¸¥à¸ ±à¸ļà¸
Ġé Ĵ
ĠãĢ ı
Ġ4 2
å® ĩ
è Ĩ
Ġå ķ
Ġà¤ķ à¤¿à¤Ĥà¤
à¯ĭ à®¤
à¤ķ à¥ĭ
à§ģà¦ ĸ
Ġáĥĺ áĥĴ
Ã³ b
Ïĥ Î¹Î¿
Ġ×Ķ× ĳ
à±ĩ à°Ĥà°¦à±įà°°
Ġse xo
ĠÎµ Î»Î»Î·Î½
ĠÎĿ Î±
ari os
Ð°Ð½ Ð¸Ð¸
Ä± k
Ġà° ĸ
ess e
Ã Ĳ
Ġch á»ī
k Å¯
Ïĩ ÏģÎ¹
à§įà¦ ŀ
áĥĲáĥĵ áĥĿ
Ø³ Ùħ
iyy at
ì² ´
Î½ Î¬
Ġáĥ¨áĥĶáĥĽ áĥĹáĥ®áĥķáĥĶáĥķ
Ð°ÑĤ Ð¾ÑĢ
A R
E N
er a
Ġà¤²à¥ĩà¤ķ à¤¿à¤¨
Ġà®ī à®°
ĠÐ³ Ð¾ÑĢÐ¾Ð´
ãģ ¿
ĠÎĳ ÏģÏĩ
Ġj u
ĠÏĢÎµÏģÎ¹ÏĥÏĥÏĮÏĦÎµ ÏģÎ±
à°¿à°¯ à°¾
f Ã¼
ra m
Ġmo Å¼e
Î¼Î² ÏģÎ¯Î¿Ïħ
Ġtod o
ÏĢÎ¿ ÏĤ
il ir
ĠØ§ÛĮØ± Ø§ÙĨ
áĥĲáĥľ áĥ¢
Ġv z
Ø§ÛĮ Ø´
ur o
ĠÐ¿ Ð¾ÑĤ
à¦¡ à¦¼
et s
ì¹´ ì§Ģëħ¸
ĳ Ĳ
Ġs á»±
Ġà®® à®°
Ġà°ª à°¦
Î» Î¹Î¿
Ð° ÑĨÐ¸Ñı
Ġà¤¥ à¥ĩ
ĠáĥĲáĥ¡ áĥĶáĥķáĥĶ
Ġp oss
Î¼ ÏİÎ½
ãĥĥ ãĥĪ
s za
ĠgÃ¶ stÉĻr
ĠØª ØŃ
ĠÑĤ ÐµÐ»
tiv o
× £
Ïī Î¼Î±
Ġà®ķ à®¾à®°
Ġcom m
Ġw sp
à°¿à°ª à±ĭà°¯
Ġn ur
åį ł
ľà¸ ¡
_ app
Ġà¤Ĩ à¤°
Î¾ ÎµÎ¹ÏĤ
i dak
ĠÐ¾ÑĤ Ðº
n osti
Î¼ÎŃÎ½ ÏīÎ½
wi Äħ
ĠáĥĽ áĥĺáĥĸ
Ã© nÃ©
Ġà°ļà°¾à°² à°¾
Ø ¢
Ġb ilÉĻr
ĠÎ³ ÏģÎ±
Ġn os
Ġë Ķ
Ġà¦¬à¦² à§ĩ
å°±æĺ¯ åįļ
áŀ ı
Ġà¨ ī
Ġçİ¯äºļ å¹³åı°
ĠæŀģéĢŁ æĹ¶æĹ¶å½©
Ġâ ĻĢâĻĢâ
à¹Ģ à¸Ńà¸²à¸
Ġag ä½ĵèĤ²
áĢŃ áĢ¯áĢ
Ġà¤¤ à¥Ģ
ci p
ĠÐ´ Ð°Ð½
Ġa ber
ÏĦÎµ Ïį
áĥłáĥĺáĥķ áĥĺ
Ġà®ª à®¾à®¤
Ġãģ Ŀ
ĠÐ² ÐµÑĢ
Ġà¦ª à§ľ
kie m
á¿ ¦
Î¸Î· ÎºÎ±Î½
ov a
à¹Ģà¸£à¸´ à¹Īà¸¡à¸
ĠæŀģéĢŁ å¿«3
ĠåĲ Ħ
æ° ¸
Ġà¹ģà¸¥ à¹īà¸§à¸
Į æľĽ
Ĭà¹Īà¸§à¸ ¢à¸
Ġ4 1
çª į
åĽ °
Ġåº Ķ
Ġ1 11
áŁ ģ
Ĥ à¹īà¸Ńà¸¡à¸¹à¸
Ġè Ļ
ag æĹĹèĪ°åİħ
ķ à¸Ńà¸Ļ
Ġå°Ĭé¾Ļ äººçĶŁ
Ġ ç½ĳ
Ġè Ī
Ġà¸ Īà¸°à¸
æ´ ¾
Ġå½© ç»ıå½©ç¥¨
èĢģ èĻİ
à¥ §
Ø§Ø± Ø©
µ à¤¾
Ġn uest
ĠáĥĲáĥ® áĥļ
t ar
Ġà¤¦ à¥Ģ
à¦¿à¦ ¡
ĠÑĩ ÑĤÐ¾Ð±Ñĭ
ĠØ±ÙĪ Ø²
Ġhab en
Ġgi Ã¡
áĥĽ áĥĶáĥĵ
Ġm iej
ĠÎ£ Ïį
Ġà¤° à¤¹à¥Ģ
is se
Ġ×¢ ×Ŀ
ĠP ara
ÅĻ i
ĠÎ¼ Î¿
Ġà®¤à¯Ĭà®Ł à®°
ĳ ľ
Ġà¤¯ à¥ĩ
Ġz ijn
áĥĲáĥ¡ áĥĺ
on ne
Ġà¦Ĩ à¦ĩ
bi Ã©n
Ġb á»ĭ
à±Ĩ à°°
Ġpr od
Ġe dib
Î´ Ïİ
ÙĦ Ø§Ùħ
Îµ Î²
Ġà¤Ńà¤¾à¤° à¤¤
Ġáĥĺáĥľ áĥ¢
Ã¼ b
Û ķ
Ø§Ø® Øª
à´ ¯
Ġà¤¬ à¥Ī
b l
¦ ¬
Î¶ ÎµÎ¹
Ġà¦ķà¦¿à¦Ľ à§ģ
ĠÐ¿ Ð°ÑĢ
Ġ Å¼y
iy e
ÎŁÎ ĵ
ÏĦÎµ Ïħ
ĠáĥĲáĥ Ĵ
ÅĻ ed
Ġà®µ à®¿à®°
à°¿à°ķ à°¾à°°
Ġh aq
g ia
à¤¾à¤ «
Ø³ ÙĬ
ãĥĥ ãĤ¯
Ġáĥ¡áĥĲáĥ®áĥĶáĥļ áĥĽ
ĠÐ½ ÐµÐ´
Ïĩ ÎµÎ¯
tÃ© r
ni ka
a ft
Ġìķ Ĭ
áĥĲáĥ Ń
Ġà°ľ à°¨
Ġs al
ĠÑĢ ÐµÐ³
ĠÎ£ Î¤
ĠÏĢÏģÎ¿ Î²
Ġp ol
Ø´ Ø±
Ġ×ľ ×ŀ×
ĠáĥĽ áĥĲáĥĽ
à°°à±įà° ®
ĠÑĥ Ð¶Ðµ
ÎŁÎ ¡
á½ ¸
Ïģ Ïį
Ġà®ĩà®¨à¯įà®¤ à®¿à®¯
Ġà¤ħ à¤¬
áĥĺáĥ¡ áĥĹáĥķáĥĺáĥ¡
ĠØ§ÙĨ Øª
Ġs ou
Ġy ol
Ġes c
ÑĢ Ð¾Ð¼
Ġà®ĩ à®¯
cz nie
à¦ ·à§įà¦Ł
ãĥ Ĩ
Ġà¨¹ à©Ī
æĸ¹ æ¡Ī
åĳ ¢
èĩªå·± çļĦ
ä¹Ł æĺ¯
ä¸¾ è¡Į
à¹ģà¸ Ľà¸
«à¸Ļà¸¶ à¹Īà¸ĩà¸
ĠçĪ ±
ĠåĮ ħ
Ġà¤ķà¤° à¥Ĥà¤¨
Ġà¤¦ à¤¿à¤¨
Ãº ng
ĠÎ¬ Î»
Ġà° Ĳ
Ġme hr
ĠÐ½ ÑĥÐ¶
Ġ8 0
Ġp k
æİ ª
äº¤æµģ ç¾¤
à¹Ħà¸ ĭà¸
Ġä¸ ĩ
à¹ ĭ
ĠçŃ ī
Ġà¤¦ à¥ĩà¤¶
ĠÙĤ Ø±
áĥ¬ áĥĺáĥ¤
l ic
Ġà®ª à®¿à®±
ĠÎ» ÎµÎ¹ÏĦÎ¿ÏħÏģÎ³
o z
b u
Ð¼ Ð¾ÑĤÑĢ
Ġà¦¬ à§ĩà¦¶
áĥ£ áĥĲáĥļ
ĠÏĢ ÏģÎ¬
Ġ ÉĻr
me k
or ma
à±įà°° à±Ĩ
Ġs ans
ë° ©
ĠÑĩ ÐµÐ»Ð¾Ð²
ĠÙĥ Ø§ÙĨ
ĠÎ¼ÎŃ ÏĩÏģÎ¹
ÃŃ as
Ġd urch
ĠáĥĹ áĥ£áĥĽ
ÉĻh s
Î¿Ïį Î¼Îµ
à®¾à®² à¯ģà®®à¯į
ĠÐ± ÐµÑģ
¸ à±įà°¥
åĪ ļ
ä¸ļ åĬ¡
à¸Ļà¸µ à¸
Ġ *
å¤§ å®¶
à¹ģà¸ ľ
ï¼ ģ
èĦ ±
è®¤ ä¸º
åĤ ¨
à¤¦à¥įà¤ ¦
te ment
Ġ×ĸ ×Ķ
ĠÎ³ ÎµÎ½
Ġs om
az Ä±r
Ð¾Ð½ Ð°
ĠÛ±Û ³Û
ĠÚ¯ ÙģØª
Ġ íķ´
to ri
Ä ©
ĠÏĥÏħ Î³
à¤Ĥà¤ Ł
owan e
ãĤ «
Ġà°ªà±įà°° à°ľ
ĠáĥĻ áĥĺáĥĵ
ilm ÉĻsi
n er
ali dad
ĠÎ´Î· Î¼Î¹Î¿ÏħÏģÎ³
ÑĢÑĥ Ð´
ti co
ĠÚ© Ùħ
áĥĲáĥłáĥ ©
ÑĨÐ¸ Ñİ
al a
Î¸ Î¿
à§Ł à§ĩ
Ġà°¸à°¿à°¨à°¿à°® à°¾
ÉĻs inin
Ġì Ļ
u g
à°°à±įà° ¥
Ġà¦ħà¦¨ à§ĩà¦ķ
Ð» ÐµÐºÑĤ
ÎŁÎ ļ
ĠÎĳ Î³
×ĳ ×ľ
Ġà®¨ à¯ĩà®°
Äħ d
ĠÎºÏħ Î²
æĸ ¼
ģà¸´à¸ Īà¸
à¹Ģà¸Ń à¸²
à¸£à¸ ´
à¥įà¤¯à¤¾à¤ ¯
Ð°Ñĩ ÐµÑģÑĤÐ²
ĠØ§ÙĦØ «
r ÉĻ
ĠáĥĽáĥĿáĥ ®
Ġe ff
y or
Äį ka
Î´ Î¯
Ð°Ñģ ÑĮ
ĠÄĳá» ĵ
m in
Ġ à¬
Ġà¤µà¤¿à¤ ¶
ovÃ¡ nÃŃ
ĠÎº Î¿Î¹Î½ÏīÎ½
ÏģÎ· ÏĤ
Ġà°ļà±ĩà°¸ à°¿à°¨
is che
ĠÐ¾Ñĩ ÐµÐ½ÑĮ
Ġp en
on y
ãĥ £
Î¼ Î±Î¹
ĠÏĩ ÏİÏģÎ±
à¦¤ à§ĭ
ì¹ ´ëĿ¼
Ġìĥ Ŀ
áĥķ áĥĺáĥļ
Ġin c
Ġ×Ķ× ¤
Ø¯ ÙĬ
à°¬ à±įà°¬
Ð¸ÑģÑĤ ÐµÐ¼
Ġnh áº¥t
Ø§ÙĦ ÛĮ
à®¾à® Ļà¯įà®ķ
ĠáĥĽ áĥĻ
et y
Ġà¤¬ à¤¾à¤¤
Ġà°® à±Ĥà°
Ġle ur
ĠÐ½Ð° Ñģ
ĠÎ¼ Î¬
Ġçİ¯äºļ åĽ½éĻħ
åĪ ¸
å§Ķç»ŁæĪĺ éĥ¨
à¹Ģà¸ ¨à¸
à¹Īà¸ ¡à¹Ģà¸
à¤ķ à¥įà¤ķ
Ġar t
áĥĶáĥłáĥ ķ
k ÄĻ
Ġà®ļ à®¿à®²
Ġà°¦ à±ĩà°¶
der e
ĠãĢĤ âĢľ
èģĶ ç½ĳ
ä¸ĩ åħĥ
à¹ Ĭ
à¸Ńà¸µà¸ ģ
à¸Ńà¸²à¸« à¸²à¸£à¸
áĢŃ áĢ
Ġor g
å¼ ¹
Ī à¸Ļà¸
è¿Ļ äºĽ
«à¸ ¢à¸
à¸£à¸ ĸà¸
Ġè Ĭ
åľ ³
ç§ ĺ
à¥ĩà¤Ĥà¤ ¦
ê± ´
Ġà¦® à¦¹
áĥĵ áĥĿáĥĽ
ĠÐ² Ð·
Î½Î¿ Î¹
k k
5 00
Ķà¸ ±à¸ļ
éľĢ æ±Ĥ
çĿ £
ª à¹Īà¸ĩà¸
é¡ º
ç§ Ł
à©Ĥ à©°
å¾ Į
ĭà¸ ·à¹īà¸Ń
Ġ2 66
æ ¦Ĥ
éĽ ¶
«à¹ĩ à¸Ļ
1 åĪĨå½©
Ġè¢ «
¶à¸ ģ
Ġà¤® à¤¨
Î» ÏĮÎ³
m ÉĻn
æ¯ Ľ
åı£ è¯Ģ
å® Ī
Ħ à¹Į
äº¤ æĺĵ
à¥įà¤¯ à¤Ĥà¤¤
ĠìĹ Ĩ
Ġk ar
à¦¾à¦° à§ĩ
Î´ ÎŃ
Ùģ ÙĬ
áĥ¥ áĥĿáĥľ
Ð»Ñı ÐµÑĤÑģÑı
Ã¶ z
cion al
Ġv el
Ġà¤ľ à¤¾à¤¨
ou ver
Ø§ÙĨ Ø¯
Ġj uÅ¼
Î¼ Î¯
Ġ×ŀ× ª
Ġà¦ķà¦¥ à¦¾
áĥĶáĥĳ áĥĶáĥĳáĥĺ
at z
å «
Ġà¸ Ħà¸§à¸²à¸¡à¸
é¡ ¶
æĭ Ł
ļ à¹Ģà¸
ķ à¸²
è® ¨
Ġà¤ħ à¤Ń
ÉĻh ÉĻr
Ġw i
ĠÏĨ Ïī
Ġà°® à±ģà°
Ġn Äĥm
C I
Ġre c
Ġáĥ¡áĥĲáĥ ¤
ĠÐ ĸ
Ġà¤ª à¥Ģ
Ġà¦¬ à¦¾
íĥ Ģ
Ðµ ÑĦ
à¯ģà®³ à¯į
å° ģ
åŁº æľ¬
åľ° æĸ¹
æĽ´ å¤ļ
à¹īà¸Ńà¸ ¡
Īà¸ ³
Ġï¼Į ãĢĬ
Ġ9 0
à¸£à¹Īà¸§à¸ ¡à¸
à¤Ĥà¤ §
ĠbÄĻ dzie
r Ã¡
à°¾à°¦ à±ģ
ÎŃ ÏģÎ±
h er
Ġr u
ĠÐ´Ð¾Ð» Ð¶
ĠÙĪ Ùħ
Ġà®ķ à®µ
ale ment
Ġa lle
Ġà°ħ à°Ĥà°Ł
Î¬ Îº
ãģ¾ ãģĹãģŁ
am y
Îº Î¿Î»
áĥĶáĥĽ áĥĳ
Ġ ÉĻn
wie t
Ġì µľ
æĹ¥ æľ¬
Ĺà¸ ±
Ġçİ¯äºļag å¹³åı°
éĩį åºĨæĹ¶æĹ¶å½©
å° į
Ġå ¢
æ´ ĭ
Ġå¹ ³
à¤¾à¤¸ à¥įà¤¤
Ġà°¸ à±įà°ª
ion es
ÅĤ e
ĠáĥĽ áĥĿáĥĴ
ĠÙĥ ÙĦ
ĠØ³ ÛĮ
ÐµÐ½ Ð´
Ä± s
à®¿à®© à¯įà®©
ĠÎ¿Î¹ÎºÎ¿ Î½Î¿Î¼
×ª ×Ļ
Ġne lla
le p
ĠD es
ĠÐ¾Ð± Ñī
ĠA uf
ĠÏĢ Î»Î±
à°¬ à°¡
àµįà´ ¤
Ġà¤° à¥Ĥà¤ª
n oÅĽÄĩ
ĠÑĥ Ðº
Ġn em
Î¶ ÏĮ
de o
ĠØ¨ ÙĨ
ĠÐĿ Ð¾Ð²
t as
ĠìĦ ¸
ĠÏĥ Î®Î¼ÎµÏģÎ±
Ġáĥŀ áĥĲáĥ¢
ĠÐĺ Ð½
Ġà®ķà¯Ĥ à®Ł
Ġn om
ĠÏĢ Î¯
Ġåı Ī
Ġag ç½ĳä¸Ĭ
è´ ´
áŁĴáŀ ļáŀ
Ġåħ ±
æİ¨ èįĲ
ä¼ ¼
Ġå¾ ®
ç¨ĭ åºı
æ¯ Ĵ
Ġè¯ ´
ĸà¸ ·à¸Ń
ĠåĽ ¾
åŃ© åŃĲ
Ĺà¸ ±à¸
Ġåħ¶ ä¸Ń
Ġà¤Ĺ à¥ĭà¤
Ġh iá»ĩn
ĠÚ¯ Ø±
ut z
à¦¾à¦ «
la v
áĥĿáĥĳ áĥĲáĥ¨áĥĺ
Ø¨ Ø¯
ĠÐ¿ÑĢ Ð¾Ð³
Ġï¿½ï¿½ï¿½ï¿½ï¿½ï¿½ ï¿½
Î» Î¯Î±
×Ļ× ¦
Ġbar dzo
ĠÎľ Î±Ïģ
Ġf in
ĠÐ¼ ÐµÑĤ
Î´ ÏģÎ¿
áĥ£áĥłáĥ ¡
åħ· æľī
Ġag çİ°éĩĳ
ĠçĽ® åīį
©à¸ ±à¸
ç« ¥
Ķ à¹Į
Ġé© ¬
Ġç ĥ
æľĭ åıĭ
x t
Ġé ľ
è¿ĺ æĺ¯
å®ŀ æĸ½
ĠTh e
Ġ9 8
å° ļ
ŀà¸´ à¹Īà¸¡à¸
Ġà¸ ľà¸¹à¹īà¸
å¢ŀ åĬł
Ĭà¸²à¸ ķà¸´
Ġç Ĳ
à¸²à¸£ à¹Įà¸
åı ³
è¡ Ĺ
à¸Ļ à¸²
Ġà¸ «à¸²à¸
à¸£à¸ ĸ
o o
Ġå± ±
ć ãĢĤ
ļà¸£à¸´à¸ ģà¸²à¸£à¸
äºĨ è§£
åģ¥ åº·
ĵà¸ °à¸
à¥įà¤ §
ĠáĥĽáĥĺáĥĽ áĥĲáĥłáĥĹ
à§įà¦¬ à¦°
à®° à¯įà®µ
ĠÑģÑĤ ÑĢÐ°Ð½
n ak
ĠØ «
ĠÏĮ ÏĩÎ¹
à¦¾à¦° à¦£
ap at
ion i
ĠÎ² ÏģÎ¯
ĠáĥĹáĥ£áĥĽ áĥªáĥĲ
ĠS z
Å ¥
ìĤ¬ ìĿ´íĬ¸
ĠSe xo
Ġp os
iy or
à±ģà° ¬
ÉĻb ÉĻr
çº¢ é»ĳå¤§æĪĺ
à¹Ī à¸Ń
īà¸ ±à¸Ļà¸
åįģ åĪĨ
Ġà¤¤ à¤¸
Ġí ĸ
×Ļ× Ĺ
à®¿à®Ł à®®à¯į
Ã¤ r
Ġà¤ķà¤° à¤¤à¥ĩ
Ġà°µ à°¸à±įà°¤
ĠÄĳá»Ļ ng
Ð¾Ð² Ð°ÑĢ
j i
ÙĦ Ø³
ÏĢ ÏĦÏħ
à®² à®ķ
Ġà°®à±Ĭ à°¦
ÐµÐ½ Ð¸Ñİ
Ġáĥĳ áĥł
ĠÎŃ Î½
Ġh ÉĻy
Ø§Ø± Ø§Øª
ĠÎĶ Î¹
ion s
à§Ĥ à¦²
Ġpri mer
å¼Ģå¥ĸ åİĨåı²
å© ļ
±à¸ ĩà¹Ģà¸
à¤¾à¤¸ à¤¾à¤łà¥Ģ
ĠÎ±Ïħ ÏĦÎ¬
ch i
ym i
Ð°Ð» Ð¸Ð·
ri j
áĥľ áĥĺáĥ¨áĥķ
Õ¡Õ £
Ġy eni
el t
Ð°ÑĤ Ð°
Ġà°® à°¾à°¤à±įà°°
Ġëı Ħ
á½ ¶
Îķ Î¤
ÏĢ ÏĦ
×¨ ×Ļ×Ŀ
1 88
ļ à¹īà¸²à¸Ļà¸
æ ¦
Ġç ģ
à¨ Ł
Ġà¤µà¤¿à¤ ¦
Ġde ux
Ð°ÑĤ Ñĭ
an to
ÙĦ Ø§ÙĦ
Ã¼t Ã¼n
Ġà®ķ à¯ģà®Ł
áĥĺáĥĻ áĥĲ
ÏĢÎ¿Î¹ Î®
Ġà´ ª
à¤¿à¤ ľ
ĠÑįÑĤ Ð¾Ð¼
áĥĲáĥĹ áĥķáĥĺáĥ¡
ĠO d
ĠÐ¾Ð± Ð»Ð°ÑģÑĤ
Ġà¦¸ à¦¾à¦®
Ú© Ùĩ
áĥĶáĥ¥ áĥ¡
Î¹ ÏİÎ½
Ġà°ªà°¾à°°à±įà°Ł à±Ģ
Ġz d
Ġà°µà°¿à° ľ
ĠÑģ Ñĩ
m ak
tiv a
Ġdá»¥ ng
áĥĲáĥķ áĥĲáĥĵ
ÏĢ Î±Î¹
l ah
ĠÎĳ Îł
ÏĨ Î¬Î»
lich e
è§ Ī
à¥įà¤¯ à¤µ
Ġb iz
Ïĩ Ïī
au t
ĠÐ´ Ð¾ÑģÑĤ
Ġà°ľ à°°à°¿à°Ĺ
à§ģ à¦¦à§įà¦§
ĠbaÄŁ lÄ±
Ïģ Î¿ÏħÏĤ
Ġest Ã¡
ë§Į ëĤ¨
Ġêµ Ń
y s
à®² à¯įà®µ
Ġess ere
ĠØ§ÙĦÙħ ÙĪ
Ġt ÉĻÅŁ
à¹ĥà¸ ģà¸¥
Ġä¸Ĭ æµ·
Ġà¸ §à¸±à¸Ļ
_ å¤§åıĳ
èĪ ĩ
Ĺà¸ ±à¹īà¸ĩ
Ġà¤Ĩ à¤¤à¤¾
ĠÎ¼ ÏĢ
b ÄĽ
Ġpe u
Ġà°ľ à°°
à® ·
áĥ£áĥ ¢
9 7
çĽ´ æİ¥
ç¾İ åħĥ
ªà¸¡à¸ ±à¸
åŃĺ åľ¨
Ġà¸ Ħà¸¸à¸ĵà¸
ç© ¿
áī µ
Ġå· ²
à¹ĩà¸ Ķà¸
à¸£à¸¹à¹īà¸ ªà¸
Ĥà¸²à¸ ¢à¸
Ġ ä¿Ŀ
Ġagçİ¯äºļ æīĭæľºå®¢æĪ·ç«¯
à¥įà¤ ŀ
aj o
Ġn i
ĠÙħ ÙĤ
ĠÎºÎ±Î» ÏįÏĦÎµ
Ġà¦ļ à¦²
ÐºÐ° Ñĩ
ÑģÐº Ð¸Ðµ
Ġáĥ¨áĥĶáĥ £áĥ
Ġà®ª à®ķ
à°µ à±įà°µ
ĠÏĢÎ± ÏģÎ¿Ïħ
Ã¡ nh
is i
Ġ×Ķ× ł
jÃŃ cÃŃ
ÑĢÑĥ Ð¿
Ġt em
à±įà°¯ à±Ĥà°
ĠÎ¬ ÏģÎ¸
à¦ķ à§įà¦°
ĠÎ³Î¹Î± ÏĦÎ¯
Ġáĥ¢ áĥł
ä½ĵ ç³»
ï¼ Ł
ç¬¬ äºĮ
Ġç ĸ
ç½ ²
z z
Ġéļ ı
ç» ©
æĬ Ĺ
å· ¨
ĭà¸ ·à¹īà¸Ńà¸
ä¸Ģ æ¬¡
çŃ ĳ
æĬ¥ åĳĬ
æľª æĿ¥
Ġà¤ªà¥įà¤° à¤¶
ĠÎł ÏģÏĮ
el ij
lich en
ëĭ ¨
Î½Î¿Î½ ÏĦÎ±Î¹
Ġå Ń¦
à¸Ńà¸ ·à¹Īà¸Ļ
Ġç ł
Ġà¤ķà¤° à¤¤
Õ¡Õ °
Ġd Ã¼ÅŁ
ĠN a
Ùĥ Øª
Ð¾Ð± Ñī
Ġà¤¹ à¥ĭà¤Ĺ
ĠØ¯ Ø§Ø´Øª
à±ĩ à°¨
ĠÎ² Î¿
le c
áĥĵ áĥľáĥĶáĥľ
Ġë° ©
à®¿à®ļ à¯įà®ļ
Ġà¦¯ à¦¾à§Ł
ãĥ ¡
ĠÐ¼ Ð¾Ð³
p or
æį Ł
â ĸ
ç¼ ©
à¥įà¤¯ à¤®
à±ĩà°¦ à±ģ
ÃŃ ch
ĠÏĢ ÏģÎ¹Î½
ĠæĹ¥ æľ¬
é² ľ
æ¶ ī
Ġà¤¤ à¤¿à¤
Ã »
Ġà®® à¯ģà®±
Ġro ku
Ġb is
Ùħ Ø¯
Ġà¤ķ à¥įà¤¯à¤¾
×¨ ×Ľ
áĥĲáĥĹ áĥĲ
ĠÎķ ÎĽ
Î²Î¬ ÏĥÏĦÎµ
ĠÎł Î±Î½
Ġà°ķ à±įà°°
Ãº n
ÙĪ Ø¨
ay a
è±¹ åŃĲ
æıĲ åįĩ
à¥ĩà¤ ¡
Ġtr av
ĠÎ¤ Î¹
ĠÏĢ Î±Î½
áĥłáĥĴ áĥĲáĥľ
à®¿à®Łà¯įà®Ł à¯ģ
ĠH o
Ġà®ĩ à®¤à¯ģ
ĠÏĦÎµÎ» ÎµÏħÏĦÎ±
à¦¿à¦ Ń
it Ã©s
an i
ĠÎķ Î¯Î½Î±Î¹
Ġà°ħà°¯ à°¿à°¤à±ĩ
ãģ® ãģ§
áĥĶáĥĳ áĥĲáĥ¨áĥĺ
sch aft
ìĺ Ī
ÎŁÎ ¤
ÎĻÎ ¤
Î½ Îµ
ìľ ł
Ñĥ ÑģÑĤ
Ġáĥ¡áĥĲáĥĶ áĥłáĥĹ
à¤°à¥įà¤ ¤
Ġqar ÅŁÄ±
Æ°á»£ ng
Ġj our
ĠÐ¿ Ð¾ÑĢ
Î¼ÏĨÏīÎ½ Î±
à¦¬ à¦¾à¦¦
t ri
à°¿à°¸à±įà°¤ à±ģà°¨à±įà°¨
ĠÙĪ Ùĩ
\ "
iÄĻ k
Ð°ÑİÑĤ ÑģÑı
áĥ£áĥłáĥ ľ
à· ı
Ġà¤ķà¥ĭà¤ Ī
Ġsp o
ÏģÎ· ÏĥÎ·
áĥĵ áĥĶáĥľ
Ġà¤ ĵ
à¦ ı
Ġtr ab
ãĥ ŀ
Ġà®® à®Łà¯įà®Ł
à¦ ¯
ëĲ ľ
m et
Î¼Î± ÏĥÏĦÎµ
à°§ à±įà°¯
ÏģÎ³ Î±Î½
h re
ĠÕ ½
ey n
ĠÑĢ ÐµÑĪ
Ġn uov
e ch
×Ļ× ļ
Ġáĥĳ áĥĲáĥķáĥ¨
Ġw z
ĠØ´ ÙħØ§
Ġt ÉĻs
ĠÎµ ÏĨ
Øµ Ø±
ÑĢÐ° ÑĦ
Ġà¦Ń à¦¾à¦°
Ġ ä¼ļ
Ġ à¹ĥà¸Ļ
Ġ 888
¥à¸ ¢à¸
Ġà¤µ à¤¾à¤¢
Ġpro f
áĥĿáĥĵ áĥĶáĥ¡
Ġng Ãły
Ġw e
Ġà®İ à®²à¯įà®²
Ġà°ķà°¾à°¨ à±Ģ
ĠØ§ÙĦÙħ Øª
á½ °
Î» Î¹Ïĥ
Ġ×ĳ ×©
u to
ĠÐ²Ñĭ Ð¿
Ġm in
à¸£à¸¹ à¹ī
Ĭà¹Īà¸§à¸ ¢
çīĪ æľ¬
æŁ ĵ
æ¯Ķ è¾ĥ
Ħà¸ ¥à¸
ĠåĲ Ī
é¢Ĩ åŁŁ
Ġà¹ģà¸ ¡
äºĶ åĪĨå½©
à¹Ģà¸ ŀ
ä¸Ģ å®ļ
Ġæ¬ §
Ġà¨ Ĺ
èģĶ ç³»
à¤¶ à¥Ģ
ĠÎ¿ÏĢÎ¿ Î¯Î¿
Ġà¦¹ à¦¾à¦¸
Ġà¦ķà¦° à¦¾à¦°
Ġà®Ĩà®© à®¾à®²à¯į
ÑĢ Ð°Ñģ
A S
Ġæ Ĳ
äºĭ ä¸ļ
Ġà¸ ģà¹ĩ
Ġ à¹Ħà¸Ķà¹īà¸
ä¼ ¦
Ġç ´
Ġæ ¹
Ġèĭ ±
åħŃåĲĪ å½©
ä¸ Ŀ
æĵį ä½ľ
Ġà¸ª à¹Īà¸§
éĻ Ħ
à¹Ģà¸ŀà¸ ·à¹Īà¸Ńà¸
à¥ĩà¤ ¬
as ta
Ø§ Ú©
Ð½Ð¸Ðº Ð¾Ð²
ĠÃ© c
Î¸ ÏģÏİ
Ġà°¨à±ĩ à°¨à±ģ
Ġe dÉĻ
ĠÃ ĸ
p ad
Ġà°ħ à°¸
Ġáĥĵ áĥłáĥĿáĥ¡
ĠÐ°Ð² ÑĤÐ¾Ð¼
ĠìĦ ±
ĸà¸ ¹à¸ģ
±à¸ Ķà¸
ĠæĬ Ĭ
Ġà¸ Ĥà¸Ńà¸ĩ
éĸ ĭ
áŀ ·
çĬ ¯
ä¸» ç®¡
à¤¾à¤² à¥Ģ
ÏĢÎ¿ Ïį
is te
Ð½ Ð°Ðº
áº¯ c
ĠÎŃ ÏģÎ³
âĢĮ ÙĩØ§
ÏģÏī ÏĥÎ·
Ġà®ķ à®£
à°¾à° Ĺà°¾
Ġë¬ ¸
Øª ÙĬ
Ġg el
ĠáĥĶáĥłáĥĹ áĥĲáĥĵ
ĠÎĳ ÏĢÎ¿
Ġà¤Ĺ à¤Ī
Î¼ÎŃÎ½ Î¿Ïħ
Ġo ff
åĵª ä¸ª
ç® ±
åĽ º
à¥įà¤ ļ
à§ĩà¦ ª
ĠÐ¿ÑĢ Ð¸Ð¼
di ng
à°² à±įà°²à±ĭ
Ġpue de
Ġ×ķ ×Ĳ
ov ÄĽ
Ġq ÉĻd
à®© à¯įà®ª
à±ĭ à°µ
ĠáĥĴ áĥĲáĥ£áĥ
ÑĥÑĢ Ñģ
Ġd alam
Î³ ÎµÎ¹
Ġà§¦ à§
ÅĤ am
Ġà¦¨à¦¿ à¦°à§įà¦¬
Ã© d
Ñĭ ÑĤ
ãģ¨ ãģĦ
ĠD z
ĠÏħ ÏĢÎµ
Ġà¦Ĩà¦® à¦¾à¦¦à§ĩà¦°
§à¹ĩà¸ ļ
Ġè¿ ĳ
Ġ5 00
Ġå® ¶
åı ¬
è· Į
åĶ¯ ä¸Ģ
as h
·à¹Ī à¸Ļà¸
om e
4 2
ĠçľŁ äºº
éĶ ĭ
Ġç ĭ
ç ·
6 5
ĩ à¹Īà¸²à¸¢
Ġè¡ Į
æıĲ é«ĺ
16 8
æĶ¿ æ²»
å» ¶
6 7
Ġäºļæ¸¸éĽĨåĽ¢ æīĭæľº
Ġà¤®à¤¹ à¤¾à¤°
æ°´ å¹³
Ġà¤µ à¤¿à¤ķ
ĠáĥĻ áĥĲáĥľ
Ø¯ ÙĬØ¯
ĠÏĥÏħ Î³Îº
Ġâ Ĺ
ëĭ ¹
Ġà¦¹ à¦ļ
Ġm ol
ĥ n
k ou
Ġg ÅĤ
Ġà°ªà±ĭ à°²
å¤§ å¸Ī
Ġåį Ĺ
à¥įà¤¯à¤¾à¤ļ à¥įà¤¯à¤¾
ti k
Ð»Ð¸ Ð²
ÏĪ Îµ
ĠáĥĽ áĥĶáĥĿ
ĠEs ta
Ġà¦ªà§įà¦° à¦§à¦¾à¦¨
Ġ×ŀ× Ĺ
ĠV or
ce j
à®¾à® ª
p h
ĠÐ² Ð¾Ð´
ĠÎ´ Î¿
Ġà¦ªà¦° à¦¿à¦¬
Ġà°ª à±Ī
Ġkter Ã©
ĠG ratis
Ġm ay
ÏĦÎ¿ ÏįÎ½
Ġáĥ¡áĥĲáĥ®áĥĶáĥļáĥĽ áĥ¬áĥĺáĥ¤
Ġm ed
Ø± Ø¶
Ġà¤ªà¤¹ à¤²à¥ĩ
íŀ Ī
à®Łà¯įà®Ł à¯ģ
da t
Ġäºļæ¸¸éĽĨåĽ¢ ag
Ġe m
ç¿ »
è¡Į ä¸º
à¸µà¸¢ à¸Ļ
à¸£à¸¹à¸ Ľ
ļ à¥ĩ
Ġáĥ¡ áĥĺáĥĽ
ĠÐ¢ Ð°Ðº
ĠÏĦ Îµ
à®µ à¯Ī
Ġt emp
à§ĭ à¦§
Ġà°µà°¿à° ¦
Ð ¤
ĠÐ¾ÑĢÐ³Ð°Ð½ Ð¸Ð·
Ã² n
Õ £
k il
ÏĥÏĦÎ· Î¼Î±
ĠáĥĽ áĥĺáĥĶáĥł
ÅĽ li
ķà¸ ģà¸
Ġà¤ķà¥ĭ à¤£
ĠkÃ¶n nen
ĠÙĩ Ø³Øª
Ġà¦Ĩ à¦ľ
Ġ×Ĳ ×ľ
Î¼ Î¯Î±
ĠÐľ Ð¾ÑģÐº
Ð» ÐµÐ¼
ÎĳÎ ľ
ÎĻÎ Ķ
ĠÎķ Îł
ÎµÎ¹ Î±ÏĤ
Ġà°ª à°¡
Ġãģ ĵ
Ùĭ Ø§
p tion
áĥĶáĥłáĥ Ľ
Ġà¦ĩ à¦ī
Ġâ ķ
Ġì§ Ħ
d im
Î»Îµ Îº
a ires
ĠÑģ ÐµÐ±
Ġst ron
Ġà¤ªà¥įà¤° à¤¦
Äį ky
ĠÎ± ÏĢÎ±
à°² à°ķà±ģ
ov an
Ġla v
uy Ãªn
Ġë ¨
Ġd ÉĻr
lÄ± k
à®¿à®±à¯įà®ķ à¯ģ
ĠÃ ī
ĠÎ´ Ïħ
à¦°à§įà¦ £
Ġg ra
áĥĶáĥ ¨áĥĺ
r ie
ĠìĹ Ĳ
à±ģà°¤ à±ģà°Ĥà°¦à°¿
Ð¾Ð· Ð´
ĠéĿ Ĵ
é© °
ªà¸¹à¸ ĩà¸
æĸ° çļĦ
ļà¸²à¸Ħà¸²à¸£ à¹Īà¸²
ĠåĪ ĺ
Ġå Ķ
à¤ ·à¥įà¤Ł
ĠÅ ļ
ĠÙ¾ ÛĮØ´
Î» Î¹Îº
×Ľ ×ľ
Ã¼r k
Ð¾Ð¿ÑĢ Ð¾Ñģ
Ġr Ã³w
Ġu Å¾
ĠÐ´ ÐµÐ½ÑĮ
ÎŁÎ ł
ĠÏĦ ÏģÎ¿
Ġet m
Ġáĥ¨ áĥĿáĥłáĥĺáĥ¡
Ġk dy
on es
ĠÐ¼ Ð°Ð³
ĠÎºÎ¬Î½ ÎµÎ¹
à´ Ĥ
Ġà¤ħ à¤Ĺ
Ð½Ð¸Ðº Ð¸
a zione
Ġu it
Ġw ur
à®±à¯įà®ķ à¯ģ
cz enia
Øµ ÙĦ
ĠÎµÏħ ÏģÏİ
Î³ÏģÎ± Î¼Î¼Î±
ÑħÐ¾Ð´ Ð¸Ð¼
ĠáĥĲáĥ® áĥĲáĥļ
Ġà°Ĩ à°®à±Ĩ
Ġpe ti
Ġìŀ ¥
á»± c
à°Ĥà° ľ
à§ĭ à¦¸
Î¯Îº Î·
áĥĶáĥĳ áĥĽáĥĲ
Ġv ol
ĠÑĢÐ°Ð· Ð²
Õ¡Õ ¬
ĠÕ ¾
Ġt ÉĻm
ĠÎ¶ Î·
ç¼ º
ĠagçľŁäºº åľ¨çº¿
æ´ ¥
ªà¸ ³
Ħ à¸£à¸²à¸
ç ¹
à¤¾à¤ª à¤°
Ã³ l
Î¼Î¿ Î½
Ġà¤ľà¤¾à¤¤ à¤¾
à±Ģ à°ľ
t Ä±
Ġt idak
ÑĮ Ñİ
áĥľáĥĺáĥ¨áĥķ áĥľáĥĶáĥļ
ĠØ³ Ø§Ø²
à¦¤ à§įà¦°
Ġa k
Ġ×ŀ× ¢
ÎŃÏģ Î½Î·
Ġdes de
ØŃ Ø©
à°¾à°¨ à±ĩ
íģ ¬
ĠÐĿ Ð¾
Ġan n
ÏīÎ½ Î¹Ïĥ
Ð¾Ð² Ð°ÑĤÑĮ
à°ªà±įà°ª à°Ł
ÎµÎ¯ Î¿Ïħ
áĥĲáĥ« áĥĶ
Ġáĥł áĥĲáĥĽáĥĵ
ÙĪ Ø´
ĠÏĥÏĩ Î¿Î»
à§įà¦¯ à¦®
m ie
Ġà®ķ à¯ģà®´
Ã¢ u
Ġm od
Î»Î± Î¼Î²
ãģĦ ãģ¾ãģĻ
ĠpÅĻ i
ĠÐ¿ Ð¾Ð½
Ã¶y Ã¼k
Ø¯ Ùħ
ÅĤ em
cz enie
ĠÏĥÎ· Î¼Îµ
Ġå½© ç¥¨
Ć ãĢĤ
æī ĳ
10 åĪĨå½©
à¹ģà¸£à¸ ĩà¸
åŁ¹ è®Ń
ĠåĽ½ å®¶
æĽ ²
éĿŀ åĲĮ
Ġå¤§åıĳ ç§ĴéĢŁ
ľà¸ ¥
ä¸į ä¼ļ
æĺ¯çľŁ çļĦåĲĹ
«à¸ķà¸ ¸à¸
Ġçİ¯äºļ app
Ġà¤µ à¥ĩà¤³
Ġà¦ı à¦ĸà¦¨
Ġà¤¦ à¥įà¤µ
Ġáĥķ áĥĺáĥľ
Ġt ous
ĠÐŁ Ð¾Ð´
ĠPor no
ĠM ad
il la
Ð¾ÑĢ Ð¾ÑĪ
m u
Î¼ Î¼
ì Ķ
Ġà®µ à¯Īà®¤à¯įà®¤
áĥĺáĥĽ áĥĶ
à°¿à°Ĥà°ļ à°¿à°Ĥà°¦à°¿
ĠÙĩ Ø±
Ġgi or
Ġà¦¸ à§įà¦¥
en a
al itÃ©
Ġí Ĭ
ĠÐ· Ð´
×¨ ×Ķ
Ġà®® à®¿à®ķ
l aÅŁ
ĠéĢļ è¿ĩ
Ġ36 5
à¸Ńà¸° à¹Ħà¸£
¥ à¹Īà¸²à¸
è®° å½ķ
à¹Ĥà¸¥à¸ ģ
à¤°à¥įà¤ ľ
l ine
áĥĲáĥĽ áĥĺáĥ¡
ÏĢÎ¿Î¯ Î·ÏĥÎ·
à±ĭ à°°
Ùĥ ÙĪÙĨ
en do
Ġcon f
ĠÐ¿ÑĢ Ð¸Ð²
Ã¡ p
al t
ĠÎļ Î¿
Ġn ap
Ġper s
ĠÎĶÎ¹Î± Î²Î¬ÏĥÏĦÎµ
ÎĹ Î¤
á ¼
Ïĥ Î¹Î¬
ä¹ İ
Ġå°Ĭé¾ĻäººçĶŁ å°±æĺ¯åįļ
éĽ ¨
ªà¸ ļà¸
Ġæ ģ
Ġà¤®à¥ĭà¤ ł
ĠáĥĲáĥĽ áĥĳ
ĠÑĢ ÐµÐ·
le j
ÙĪ Øª
liy ev
ir lÉĻr
à±Ĥà°° à±įà°¤
Ïĥ Î®
Ġáĥľ áĥĲáĥ®
i es
Ġà¤¸ à¤¾à¤®
Ġha cer
Î»Î· Î¼Î±
Ġíı ¬
à°² à°¨à±ģ
Ð½ ÐµÑĤ
t ur
Ġà¦¦ à¦²
Ġb ij
áĥĲáĥłáĥ ¯
à¦Ń à¦¾à¦¬à§ĩ
áº· c
Î¾ Ïį
Ġm ÉĻr
ĠÐ±Ñĭ Ð»Ð¾
×ĵ ×Ļ
a ce
à®¾à® ªà¯įà®ª
em y
Ġíĺ ¸
ĠÎ£ ÏĦÎ¿
áĥĶáĥĳáĥ£áĥļáĥĺ áĥĲ
à¶ º
Ġà¤ľ à¤¨
ĠktÃ³ r
Î¿ Î³
ĠÙ¾ Ø±
aÄŁ Ä±
ĠÏĦ Î¯
ib le
Ġà®® à®ķ
ĠÏĮ ÏĢÎ¿Ïħ
g el
Ġà¤ķà¤¿à¤¸ à¥Ģ
Ġà®ħà®µ à®°
ĠáĥĽ áĥ¨
ÑĢ ÐµÐ´
à°°à±įà° ¸
ëŀ ĺ
Ġh od
Î¼Î¿ Ïģ
Ã© ra
Ġà®ħà®µ à®°à¯į
ÏģÎ¹ Î¸
áĥĲáĥĽ áĥĶáĥľáĥ¢
ãĥ ¥
Ġa Ã±os
Ð¼ ÐµÐ½ÑĤ
ÉĻlÉĻr i
áĥĲáĥł áĥĲ
Ġà°² à°ķà±įà°·
èĭ¹æŀľ çīĪ
å° ½
à¥ģà¤ ¢
Ġà¦¸ à§ģ
ĠÐ¼ Ð½
Ùĩ ÙĨÚ¯
Ġz osta
b ar
ĠÎŃÎ½Î± Î½
Ġm Ã¡
Ġà°ĩ à°Ĥà°Ł
à§Ģ à¦¦à§ĩà¦°
ti ve
ĠáĥĿ áĥłáĥĴáĥĲáĥľ
Ġà¤ľ à¤¾à¤ı
Ġà¸Ľ à¸µ
åŃ ¸
ķ à¹īà¸Ļ
çĶµåŃĲ æ¸¸æĪı
ļ à¤¾à¤°
ĠØ¨Ø§ Ø´Ø¯
Ġolar ak
ë¹Ħ ìĬ¤
Ø¨ Ø§Ø±
Ġà®ħ à®³
Î´ Î¿ÏĤ
Ġb isa
ĠÐ²Ð¾Ð· Ð¼Ð¾Ð¶
i ent
à±įà°Ł à±į
Ġv ÃŃ
ëł ¤
ĠI t
ĠáĥĽ áĥª
ĠÎĿ ÎŃ
ĠP rze
Ġcu i
à¸£à¸±à¸ ģ
à¤¡ à¥Ĥà¤¨
ãĥ ī
Ġà¦Ń à¦¾à¦²
f e
ÏĦÎ¹Îº Î¿
Ġà¤° à¤ĸ
a cji
ĠÑĩÐµÐ»Ð¾Ð² ÐµÐº
ÏĨ ÏīÎ½
Ġm as
m iento
Ùĥ Ùħ
Õ ¬
Ġd ÉĻy
7 2
Ġ ä¸ª
à¤¾à¤¯ à¤²à¤¾
Ġà® Ĳ
h men
à°ķà±įà°ķ à±ģà°µ
Î¸ ÎµÎ¹Î±
áĥĴ áĥĿáĥĽ
ÑİÑĤ ÑģÑı
Ġà¦Ĩ à¦¹
z na
Ùĳ Ùİ
ĠÎ± Î¹
à§Ģ à¦¤
Ġnie t
Ġæ° ´
èĤ ĸ
çľĭ åĪ°
Ġæ Ĥ
Ġà¸ ¡à¸²à¸
åĲ ī
) ;
Ġé» Ħ
Ġä¸ ĵ
ç§ĳ åŃ¦
èį £
ĠB 8
ªà¸³à¸« à¸£à¸±à¸ļ
« à¸£
ç½ ª
å· ¦
ç² ī
Ġà¤® à¤¾à¤¤à¥įà¤°
Ġ×ŀ× ¡
ĠØ§ÙĦ ÙĬ
ĠH G
è®¡ ç®Ĺ
à¸² à¸Ļà¹Ģà¸
y y
è§Ħ å®ļ
Ġæķ °
åĬ ³
à¤° à¥ĩ
Ġp a
ĠÏĥÏĦÎ¿ Î¹
Ã¸ r
Ġà¤Ĩ à¤²à¥ĩ
ĠØ§ Ø¬
Ġg es
ĠÑģÐ» ÑĥÑĩ
Î³Ïī Î³
Ġáĥ¨áĥĶáĥ¡ áĥĲáĥ«áĥļ
Ġet mÉĻk
ë¥ ´
Ø· ÙĦ
Î¶ Î·
¯ à§
à®µ à®¿à®²à¯įà®²à¯Ī
Ġph áº£i
Ġdi ff
ĠÎļ ÎĳÎĻ
Îķ Î¥
ĠÎĶ Î®
Ġ Ïī
Ġp ou
ĠÐ° ÑĢ
Ġà¤®à¥įà¤¹à¤£ à¤ľ
u ll
à¦¿à¦ ĵ
à´ Ł
Ġà¤ħà¤ª à¤¨à¥Ģ
g od
Î´ Ïī
ĠS ta
ÛĮ Ùĩ
ĠÏĢÏģÎ¿Ïĥ Ïī
à®® à¯ģà®®à¯į
ĠÐķ ÑģÐ»Ð¸
ĠÎ¤ Î¿Ïħ
Ġ201 4
æĿ¡ ä»¶
çı ¾
±à¸ Ķ
à¤Ĥà¤¬ à¤Ī
Ĺà¸³ à¹ĥà¸«à¹ī
ŀà¸´ à¹Ģà¸¨à¸
ļà¸£à¸´à¸ ©à¸±à¸
Ġå¤§åıĳä¸Ģ åĪĨéĴŁå¿«ä¸ī
ĠagèµĮ åŁİ
çĶµ ç«ŀ
åģ ·
ĠåĽł æŃ¤
à¥Ģà¤ļ à¥ĩ
Ġáĥ¬ áĥĶáĥļáĥ¡
Ġà®ı à®±à¯įà®ª
cj ÄĻ
ĠFr ance
ĠÛ °
ĠØ¯ Ùĩ
Ġm ad
Ġa kan
ÏĦÎ¹ÎºÏĮ ÏĤ
c as
ĠÐ±Ñĭ ÑĤÑĮ
g r
à±Ĩ à°¡
Õ¥Õ ½
ÉĻn c
à¹ĥà¸Ĭ à¹Ī
Ġà¸ Ĥà¸
è´ ·
Ġag æīĭæľºçīĪ
à¹Ģà¸Ķ à¸´à¸Ļà¸
< /
å¼Ģ æĶ¾
åħ³ äºİ
à¹Ħà¸§ à¹īà¸
ä¹ĭ éĹ´
Ġé¦ Ļ
èīº æľ¯
Ġäºļæ¸¸ ä¼ļ
çģ µ
à¨ ª
à¹Ĥà¸ Ľà¸£
Ġåı Į
ä½ĵ éªĮ
¡à¸µà¸ Ħà¸§à¸²à¸¡à¸
éĽ ª
Ķà¸ ±à¸ĩ
å¤§åıĳ å¿«3
Ġp j
è§ ¦
è ¸
j s
Ġà¤® à¤¾à¤¹
i x
ĠÎ½ ÏĮ
á» ı
Ġà®ĩ à®²
Ġqu al
Ġm ÃŃ
p ub
Ġà¦° à¦¾à¦ĸ
áĥĲáĥ£áĥ ł
Ġà°¶ à±įà°°à±Ģ
à°¨ à°Ĥ
diy i
Ã¨ res
Ġê² Į
d ni
ç²¾ åĵģ
Ġà¤ª à¥Ĥ
Ġde ÄŁ
Ġà®µà®¿à® ³
ãĤ µ
ÏĢÎ¿Î¹ Î·
Ġ×Ķ ×ķ×Ĳ
Ġde c
ĠÐĴ Ñģ
Ø³ Ø¨
Ġí ģ
à±ĭ à°¨
ÏģÏī ÏĢÎ±
Ġc es
ĠÐº Ð²
Î¹Î½ Î®
Ġà¦¦ à¦¿à§Łà§ĩ
ĠÐ²Ñĭ Ñģ
ĠáĥĲáĥ ĺ
à°¡à±įà°¡ à°¿
Ġà°ªà±įà°° à°¯
ĠØ¬ Ùĩ
Ġres p
an k
åĪĨ å¿«ä¹Ĳ
¸ à¹Īà¸¡
åħ¬ å¼ı
à¹īà¸ ¡
±à¸ģà¸ ©à¸
è· ĳ
Ġà¤Ĩà¤ª à¤²à¥įà¤¯à¤¾
àµ ĭ
à¥Ĥà¤ ¸
Î½ ÎµÎ¹
Ġp ier
Ġà¦® à¦¾à¦°
Ġáĥ¡áĥĲáĥ Ĵ
Î»ÎŃ Î¿Î½
ag gi
ĠíĨ µ
ent os
Ð¾Ð² Ð°
ĠÐ¾ ÑģÑĤ
ĠmÉĻl um
Ġqu el
Ġà®¨ à®¾à®Ł
ķ à¹īà¸Ļà¸
erstar s
Ġ à¸Ńà¸²à¸
áł¦ áł
Ĺ à¹Ī
Ġç ¡
å°ı æĹ¶
à¹Īà¸ °
à¹Ģà¸£à¸µà¸ ¢à¸Ļà¸
Ġè Ĳ
à¹ ĭà¸
Ľà¸ ģà¸
ļà¸£à¸´à¸ ģà¸²à¸£
ä¸Ĭ æµ·
¸ à¹Īà¸Ļà¸
Ġäºļæ¸¸å®ĺç½ĳ çĻ»å½ķ
Ġà¤ħà¤¨ à¥ĩà¤ķ
etz t
ĠÏĩÏģÎ· ÏĥÎ¹Î¼Î¿
ĠáĥĲáĥ £áĥ
Ġv iá»ĩc
ãĥ Ĳ
à¦¾à¦ ¡
ĠÛ±Û³Û ¹Û
ĠØ¨ Ø¯
ie m
ĠáĥĽ áĥĲáĥłáĥ¢
an da
Ġd ire
à±Ī à°¤
ĠÕ¸ ÖĤ
Ġbil dir
ĠÐ¿ÑĢÐµÐ´ ÑģÑĤÐ°Ð²
Ġì Ĥ
eit er
Î² Î¬Î»
áĥĶáĥ £áĥļáĥĺ
Ġà°Ĺà±įà°° à°¾à°®
Ġas s
Ġà¤ħ à¤²
à°¾à°° à±į
ÅĦ st
ĠÎ´ Î¹Î¿
Ġ×Ķ× §
v Ã¡
í ĭ
ĠÎµ ÏĦÎ±Î¹
Ġà®ī à®¯
Ġno tre
Ġb ul
à°¿à°¨ à°¾
ÙĪ ÙĬ
ĠáĥĶ áĥķáĥł
ĠUn ter
Ð¸Ð½ Ðµ
ãĥ ģ
Ġpers onn
elij k
ĠT elugu
Ġà°Ńà°¾à°° à°¤
im iz
ÙĦ Ùĩ
I j
is z
Ġs ig
Î¸ ÏħÎ½
áĥĲáĥł áĥĶáĥĳáĥĺáĥ¡
à°¨à±įà°¨ à°¿
ĠÑĦ Ð¾ÑĢÐ¼
ĠÄ° n
Ġà¤® à¤°
ĠÏħÏĢÎ¬ÏģÏĩ ÎµÎ¹
Ġth Ãłnh
Ġs te
Ġà®®à¯ĩ à®²
ĠáĥĲáĥ Ļ
à¦¿à¦ Ĺ
da h
Ã³ r
ĠÙĪ ÛĮ
ë¬ ´
ĠÐ¿ Ð¾ÑģÑĤ
6 2
à¹ģà¸« à¹Īà¸ĩà¸
à¥Ģà¤ļ à¤¾
Ġi c
ĠÎ² Î±Ïĥ
áĥĲáĥľ áĥĴ
ÙĪ Ùģ
ãģĤ ãĤĭ
nÃŃ ho
ÃŃ cul
odz i
U R
Ġv os
ĠÐ· Ð°Ð´
Ġì ¶Ķ
à¤¿à¤ķ à¥įà¤·
Ġoldu ÄŁ
à±Ĭ à°ķà±įà°ķ
b t
ĠC e
Î³ Î¹
à¦¿à¦¨ à§įà¦¨
lar e
ĠÐ±Ð¾Ð» ÐµÐµ
ip o
å¦ ĩ
à¥įà¤ £
Ġ×ľ ×¢
ĠÎ´ ÎµÎ¯
Ġà®ļ à¯ĩà®°
skie go
ĠáĥĻ áĥļ
ħ n
ĀĀĀĀ ĀĀĀĀ
ÙĪØ± Øª
ti ques
Ġà¤¸à¤ķ à¤¤à¥ĩ
an ya
ĠÏĥÏħÎ¼ Î¼Îµ
īà¸ ±à¸Ļ
ĠèĢĮ ä¸Ķ
Ġà¤¤à¥įà¤¯à¤¾à¤ ®à¥ģà¤³à¥ĩ
et a
´ Ī
k Ã¡
Ġ à¹ĥà¸«à¹īà¸
¶à¸ ĩ
Ġà¹Ģà¸ ª
Ġpo k
èİ· å¾Ĺ
áŀ ĵáŀ
æİ¨ è¿Ľ
æĪĲ åĬŁ
Ġ6 5
Ķ à¸Ļà¸
ãĢ į
à¤¾à¤° à¥ĩ
ÏĦÎ· Î³Î¿
à¯ģà®ķ à®¿à®©à¯įà®±
il d
Ġà¦Ĩà¦® à¦°à¦¾
Ñĥ Ð»Ñı
ĠáĥŀáĥĿáĥļ áĥĺáĥ¢
Ġsu l
Ġprod uk
ÙĦ Ùģ
Ġtam biÃ©n
Ġth Ã¬
áĥ£áĥłáĥ Ĺ
Ġser v
Ã³ Å¼
Ġà¦ľ à¦¾à¦¤
Î¹Ïĥ Îµ
re is
ĠÐº Ð°ÑĩÐµÑģÑĤÐ²
ìļ ¸
áĥ£áĥł áĥĺáĥ¡
ĠgÃ¶ z
Ã ¦
Ġ ans
ĠÎłÎµ ÏģÎ¹
Ð¸ Ð½Ð¾
ĠÎº Î¿Ïħ
± c
à¦¾à¦¥ à§ĩ
ĠÑģ Ð¸ÑģÑĤÐµÐ¼
ÏĦ ÏģÎŃ
un den
ti ck
ta c
Ġë ©
Ġ×ĳ ×ª
Ġin san
y w
li j
ĠÑĢ Ðµ
Ø® Øµ
tr os
Î© Î£
ĠÏĩÎ± ÏģÎ±Îº
áĥĲáĥĵ áĥĲáĥ¡
Ġp ub
àµ ĩ
Ġà¤¹à¥ĭ à¤¨à¥ĩ
à®Ļà¯įà®ķà®³ à¯Ī
ĠçĽ ´
ªà¸ĸ à¸²à¸Ļà¸
Īà¸ ¸à¸
ç»ĵ æŀĦ
Ġ @
Ġçİ ©
Ġ ä¸ĭè½½
æ´ Ĺ
åĪĨæİĴåĪĹ 3
Ġà¸ Ĥà¸Ńà¸ĩà¸
à¹Ĥà¸ ķ
à¹Ģà¸¥ à¹Īà¸Ļ
Ġä»ĸ ä»¬
åħ¨ éĥ¨
ŀà¸±à¸ Ĵ
åħ¨ éĿ¢
à¹Īà¸² à¸Ļ
·à¹Ī à¸Ńà¸Ļà¸
«à¸¡à¸²à¸ ¢à¸
ĠéĻ ¤
çļĦ å¤§
æ¶Ī æģ¯
ĠĈ ć
à¸Ńà¸ ±à¸Ļà¸
Ġ à¸£à¸µà¸§à¸´à¸§
èĩª åĬ¨
Ġç ©
åı «
» áĢ
· à¸Ļà¸
éĻ Ī
à¸Ńà¸° à¹Ħà¸£à¸
à¸Ńà¸¢à¹Īà¸²à¸ ĩà¹Ģà¸
åĪĨ é£ŀèīĩ
Ġà¤ª à¥ģ
ĠÐ· Ð°Ð¼
Î¿Ïħ Ïĥ
ä¼ Ĭ
à¥ĩà¤ ª
Ñı Ð´
ĠE t
ĠÃ© v
Î´ ÎµÏħ
ï ½
ãģ Ŀ
ÏĨ Î¹
Ġë ķĮ
à°¾à° ¸à±įà°¤
ĠW ir
ĠÑģÐ» ÐµÐ´
r ov
Ġç ¼
åĪ© çĶ¨
à¥Ĥà¤ ķ
ĠJ ak
ĠÏĢ Î¹
Ġáĥĺáĥľáĥ¤ áĥĿáĥłáĥĽ
Ġby Äĩ
à®® à¯įà®®
ĠØ§ ÙĨØ¯
om o
Ġt arix
ĠÐ¿ÑĢÐ¾ ÑĨ
Ġaut res
Ø§ÙĨ ÙĬ
Ġ×Ķ× ¡
à¯ģà® Ļà¯įà®ķ
Ġz w
áĥľ áĥĺ
Ġmej or
Ġs emp
ĠØ¯Ø§ÙĨ Ø´
Ġà¦¤ à¦¬à§ĩ
à±ģà° £
ĠÏĥÎ· Î¼Î±Î½
éĺ ¶
ą ï¼Į
à¤Ĥà¤ ª
Ð» Ð°Ð¹Ð½
à®µ à®°
Ð¼ Ñĭ
Ġáĥª áĥ®áĥĿáĥķáĥł
à±Ģ à°Ł
f ec
ĠÆı liyev
ĠB ir
áº± ng
Ð¾Ð² Ð¾Ð¹
Ġd ov
Î±Î½ Î¬
ĠØ¥ ÙĨ
Ð¾Ð± ÑħÐ¾Ð´Ð¸Ð¼
ĠAn da
ĠáĥĶ áĥł
ĠÎłÎ± ÏģÎ±
ĠÎ± Î³Î¿
O R
ĠC as
à±Ģà° İ
Ġà°ª à°¾à°²
Ð°Ð¶ Ðµ
ãĥ ĭ
ÙĪ Ùĩ
Ġdo b
áĥĲáĥł áĥĶáĥĿáĥĳ
c el
ĠÎµÏģÎ³ Î±Ïĥ
Ġà¤µ à¥įà¤¹
à¦² à§įà¦ª
ÏĦÎ® ÏĥÎµÎ¹ÏĤ
à¯įà®¨à¯įà®¤ à¯ģ
Ġd os
tif adÉĻ
l os
Ġit em
ë§ ¤
nÃ© es
ë Ķ
Ġo ver
Ġà°ĩ à°¦à°¿
ĠH er
ĠÎ¿ÏĢÎ¿ Î¯
Ĺ à¥ĩ
ÑģÐº Ð¸Ñħ
ĠØ§ Ø¯
à®¨à¯įà®¤ à¯ģ
ÅĽ my
×ķ× ĺ
áĥĿáĥļ áĥĿáĥĴ
¼ áĢ
Ġà¨¦ à©Ģ
çĶ ²
ä»» ä½ķ
à¹ĥà¸«à¸į à¹Īà¸
à¹ĥà¸«à¸¡ à¹Īà¸
Ġà¹Ģà¸ŀà¸ ·à¹Īà¸Ńà¸
g g
à¤ķ à¥įà¤¤
Î³ Î¿Î½
ĠáĥĲáĥ¦ áĥĽ
Ġte Å¼
Ġtien e
à§Ģ à¦Ĺ
Ġà¦¤ à¦¾
Ġë Ħ
s ten
ĠØ ¶
Ġex p
Ġpar te
ÏĦÎµ ÏģÎ±
Ġà®ª à¯ģà®¤
Ġp on
ay on
Õ¶Õ¥ÖĢ Õ«
di k
łà¸±à¸ ĵà¸ĳ
Ġ= '
ª à¸µ
Ġåı ¦
Ġ25 9
àª ¿
0 1
à¤¿à¤ ¹
ĠÑģÑĤ Ð¾
Ġj us
Ġp Å¯j
Ġv ÄĽ
Ġáĥ§áĥķáĥĶáĥļ áĥĲáĥĸáĥĶ
Ġà¦ķà¦¾à¦° à¦£
Ġ Ïį
ĠÙħ Ø±Ø¯
Ġà®¤ à®°
ãģ °
ĠÑĩ ÐµÐ¼
t ir
ÎºÎµ ÎºÏģÎ¹
æįķ é±¼
ä¼ł ç»Ł
Ġäºļæ¸¸ æ¸¸æĪı
äºĴ èģĶç½ĳ
ä¼ ´
à¤° à¤¾à¤¤
ĠëĤ ¨
æĴŃ æĶ¾
Ġà¤¸à¤° à¤ķà¤¾à¤°
ĠmoÅ¼ na
Ġi hr
Ã© lÃ©
Ø§Ø± ÙĬ
ĠÚ©Ø´ ÙĪØ±
Ġà´ ķ
åĽ½ äº§
Ġà¤¸ à¥įà¤Ł
Î¼Îµ Î½Î±
à®Ł à¯įà®ļ
Ã Ĭ
Ġhá»į c
ĠÐ¿ÑĢÐ¾Ð¸Ð· Ð²Ð¾Ð´
Î² Îµ
ĠáĥĲáĥłáĥ ª
Ġà®® à®¾à®¤
Õ¸ÖĤÕ©Õµ Õ¡Õ¶
Ġy ox
ĠÑĥ Ð²
à°¾à°¬ à±ģ
Ġà°ª à°¨
áĥĺáĥĻ áĥĺáĥ¡
v y
z ia
ou le
Ġp are
Ġw o
ëł Ī
à¦¨à§įà¦ ¨
ĠÏĥÏħÎ½ ÎµÏĩ
Ġf ue
ĠÙĩ Ø°Ùĩ
ĠÎµÎ¹ Î´
ĠÐ¾ Ð½Ð¸
à®µ à®°à¯į
ĠR Ã©
à±įà° ľ
Ġv is
Ġy az
Î¼ÎŃÎ½ ÎµÏĤ
Ġ×Ķ× Ľ
à¦¿à¦ ĸ
à¤° à¤¾
áĥĽ áĥĺ
l and
à®µ à®°à¯įà®ķà®³
ĠØ§Ø³Øª Ùģ
è¯Ģ çªį
ĠåĨ ħ
ĠåĪĨ åĪĨæĹ¶æĹ¶å½©
Ġà¤® à¤¾à¤¨
Ġà¦¸ à§ĩà¦ĩ
p u
Ġìĸ ´ë
Ġáĥ§áĥĿáĥķ áĥĶáĥļ
ãģĦ ãģŁ
ĠÎ¾ ÎµÎº
ÐµÑģ Ð¿
à±Ĩ à°Łà±įà°Ł
ÉĻ dÉĻn
Ø¬ Ùħ
l en
ï »
Ġè¿Ļ æĺ¯
Ġäºļæ¸¸éĽĨåĽ¢ ç½ĳç«Ļ
Ġà¸ Īà¸²à¸ģ
é¡ ¾
çīĽ çīĽ
¢à¸ ĩ
Ġà¨ ļ
Ġè ı
Ġà¸ ĭ
ªà¸´à¸ Ĺà¸ĺ
ç¶ ²
Ġà¨¨ à©Ĥà©°
à¥ĩà¤² à¥įà¤¯à¤¾
Ġáĥ¨áĥĶáĥ ®
à°¾à°Ĥà°Ł à°¿
in es
Ġà®ħ à®ªà¯įà®ª
à¦¿à¦ ı
Ãº c
Ġà®İà®© à¯į
ÑĤ Ðµ
áĥĵ áĥĶ
à®² à®¿à®²à¯į
Î³ Î¬
Ġcz ÄĻ
à¤°à¥įà¤ Ł
ĠÎº ÏģÎ±
à¦¾à¦¨ à¦¾
ĠB er
en e
à°¾à°¨ à±į
Ġà¦ªà¦° à§įà¦¯
Ġáĥŀáĥł áĥĿáĥª
Ġ×ĳ ×Ķ
Ġp ada
ĠÎ±Î½ Î¸ÏģÏİ
íĨ µ
Ø§Ø¯ Ø©
à¹ĥà¸Ļà¸ ģà¸²à¸£
Ġà¤ī à¤¤
to re
Ð¿ÑĢ ÐµÐ´
ãĥ¼ ãĤ¹
ĠØ¢Ùħ ÙĪØ²
ĠáĥĽáĥĿáĥ ¥
Ġt ÄĽ
ĠÃ¼z rÉĻ
à®ļ à¯į
Ïģ Î¯Î±ÏĤ
un e
ÎĻ ÎĳÎ£
ĠÏĢÏģÏĮ Ïĥ
áº¡ o
Ùģ Ø±
Ġt ÉĻl
Ð Ĺ
ÐµÐ½ Ð½ÑĭÑħ
Ġáĥ¡ áĥĻ
ĠÎº Îµ
Ïĥ Ïį
g es
Î¶ Îµ
Ġà¤¬ à¥Ģ
Ġà°¤ à°ªà±įà°ª
í Ĥ
Ġà¦¶ à§ģà¦°à§ģ
Ġ$ (
áĥĿáĥ¤ áĥļ
ãĤĪ ãģĨ
à¯Ĥ à®°
æĹ¥ æĬ¥
æĿĲ æĸĻ
Ġè ĥ
åĽ½éĻħ å®ĺç½ĳ
éĩĳ èŀį
Ġ ä½ľ
é« Ķ
à¹ģà¸ ŀà¸
Ķ áĢ
æľī åħ³
à¤µ à¤£
ĠÎµ Î¼ÏĢ
Ð°Ð½ Ñģ
Ġà°¸ à°°
al ia
k ol
Ġpas s
Ġà¤¸à¤® à¤¯
Ġd om
g lich
ĠÏĢ Î¹Ïĥ
ÐµÑĤ Ñĭ
t Ä±r
at ie
ia ÅĤa
×ķ ×Ļ
à®¿à®¯ à¯ĩ
à§Ł à§ĩà¦°
ĠØ Ł
ĠÏĨ Î±
áĥ£áĥł áĥĲáĥĵ
Ġà°ª à°Łà±įà°Ł
ĠqÉĻd ÉĻr
Ú¯ Ø§ÙĨ
uu å¿«3
çĥ Ī
ä¸Ń å¥ĸ
Ġè¯ Ħ
à¤ ±
ri d
Ð¸Ñı ÑĤ
ĠL as
Ġà¦ķ à§ĩà¦¨
ĠD o
à°¸ à±įâĢĮ
à±Ģ à°¤
Ñı Ð±
Æ¡ i
l us
à¯Īà® ®
ĠÎł Î¿
ĠáĥĲáĥĵáĥĴ áĥĺáĥļ
ty cz
å² ¸
ļà¸ ¸à¸
Ġè½ ¬
æ¯ ķ
Ħà¸£à¸ ·à¹Īà¸Ńà¸ĩ
Ġå ĸ
Ġ2018 å¹´
æļ ´
«à¸±à¸ §
± à¹Īà¸Ļ
æĹĹèĪ°åİħ ä¸ĭè½½
Ġ266 96
Ġà¤¤à¥įà¤¯à¤¾à¤Ĥà¤ ¨à¥Ģ
ÙĬØ± Ø©
ĠÎľ Î·
ĠÎ´ Î®
à°¿à°Ĥà° ª
ĠÐĲ Ð½
Ġëį Ķ
Ġà¦¹ à¦¿à¦¸
Ġen f
ÑģÑĤ ÑĢÑĥ
l ou
ich e
æĹł çłģ
Ġà¤µà¤¾à¤² à¥ĩ
ĠÐ¸Ð¼ Ðµ
à®¿à®¯ à®¿à®©à¯į
åħ¨ å¤©
æĮģ ç»Ń
Ġèħ¾è®¯ åĪĨåĪĨå½©
Ġäºº æ°ĳ
Ġ5 55
Ġé ħ
Ġç Ŀ
ĠæĢ »
åĪ¶ åº¦
ļ à¸£
pk æĭ¾
Ġpk 10
çĶ °
à¨ ¼
Ĺà¹Īà¸² à¸Ļà¸
éĿ Ļ
æ¼ «
åĩº äºĨ
å½ Ĵ
äº Ī
å¹² éĥ¨
ä¼ ĳ
Ġà¥¨ à¥¦
Ġ×© ×Ĳ
odz in
ĠØ§Ø³ØªÙģ Ø§Ø¯Ùĩ
ĠW o
é¦Ļ æ¸¯
ä¼ Ļ
0 3
çļĦ æĹ¶åĢĻ
è° ģ
ç» ¿
ç¬ ¦
Ĉ ï¼Į
ĠagæĹĹèĪ°åİħ ä¸ĭè½½
à¹īà¸²à¸ ĩà¸
à¹īà¸ ³
Ġagçİ¯äºļ æīĭæľºçĻ»å½ķ
ä¿Ŀ éļľ
æŃ£ åľ¨
® à¤§à¥įà¤¯à¥ĩ
it s
Îµ Î¾
Ġà°ī à°ª
Ġh ay
ĠÉĻs as
ov Ã½
Ġa tt
ĠáĥĴáĥĲáĥľ áĥĽ
ĠJ ahr
Ġo ok
ĠÑģ Ð´ÐµÐ»
ÏĦ Î¯Î±
ĠktÃ³ ry
j Å¡ÃŃ
A L
ic os
Ġde v
Ġà¦ı à¦²
Ð¾Ð½ Ð¾Ð¼
Ġà®ķ à®¿à®Ł
ĠáĥĽ áĥľáĥĺáĥ¨áĥķáĥľáĥĶáĥļ
Ġ×Ķ× Ĵ
Ø· Ø©
ĠÏĥÏĦÎ¹ Î³
ang an
ë¡ Ŀ
à¯Ĭ à®°
Ø±Ú© Øª
à¦¾à¦ ī
ĠÎ¼ÎµÎ³ Î±Î»
ab r
áĥĲáĥľ áĥĲ
Ġw iel
ĠÐ¿ÑĢ Ð¾ÑĤ
is ation
u a
ĠÕ¥ Õ¶
Ġq o
áĥĲáĥľ áĥĺáĥĲ
à§ģà¦ §
à¥ĭà¤Ĥà¤ ¨à¥ĩ
ãģ« ãģª
à±ĩà° ¸à±įà°¤
Îº ÏİÎ½
r an
Ġà¤¤ à¤°à¥Ģ
ĠØ§ÙĦ Ø§
ĠØ¨Ø§ Ø²ÛĮ
áĥł áĥĿáĥĳ
Ġà¦® à§ģ
Ġà®ī à®±
ÏĪ ÎµÎ¹
ain t
Ġdo or
à°¾à°Ĥà° ¡
Ġv ie
ÑĢÑĥ Ð·
Ġà¦¤à¦¾à¦° à¦¾
t ura
ĠÐ¿ Ð¾Ð¿
Ø§ÙĦ Ùħ
il a
áĥĲáĥ¡ áĥĹáĥĲáĥľ
ĠÏħ ÏĢÎ·ÏģÎµ
íķ Ń
Ġpro pos
çĶµ è¯Ŀ
Ĭà¸ ·à¹Īà¸Ń
Ġà¤ľ à¤¾à¤£
Ġos ob
ĠØ¯Ø§Ø± Ø¯
ĠR es
ĠO n
Î³ÏģÎ¬ ÏĨ
Ġà¤¬à¤¹ à¥ģà¤¤
ĠÎ±ÎºÏĮ Î¼Î±
Ġáĥ¨ áĥĶáĥķ
Ġà®ļ à®¨à¯įà®¤
Ð· ÑĭÐ²
Ġë° ľ
ãģ¨ãģĦ ãģĨ
Ð°ÑĢ Ð¸
Ġ×Ĳ ×ķ
ĠÃ§ ok
áĥł áĥĲáĥ¤
ÏģÎ¹ Î¬
ent ro
ig ne
owa dz
ĠÏĦÏĮ ÏĥÎ¿
Ð¾Ñģ Ð¾Ð±
ĠÕ¸ ÖĢ
ÉĻs inÉĻ
Ġà¦ª à§ģà¦²
ĠI ch
Ġan ni
Ġj en
der n
Ġà®ħ à®²à¯įà®²
o i
á»ĭ ch
à°ļà±įà°ļ à±ģ
à§ĩà¦² à§ĩ
p is
ÎŃ ÏģÎ³
Ġcu ando
Ġáĥ©áĥĶáĥĽ áĥĺ
Ø¹ Ùħ
Ġáĥ© áĥĲáĥĽ
Ġs ite
k Äħ
Ġà¤²à¥ĭà¤Ĺ à¥ĭà¤Ĥ
Ġon un
ĠÎ±ÏĢÎ¿ ÏĨ
Ġf on
Ġâ Ħ
à¦ŀ à§įà¦ľ
Ġà¤ª à¤¡
ĠÐ¿Ð¾Ñģ Ð»Ðµ
Ġj ej
á¿ ¶
ĠÎĺ Î±
æ° Ĺ
ĠØ¨ ÙĬÙĨ
à¦ķ à§ĩà¦°
ĠÎ¹ ÏĥÏĩ
ĠáĥĵáĥĲáĥ £áĥ
Ġtemp s
ë ¯¼
asÄ±n a
I E
o ch
ĠØ¨ Ø®
ĠÐ¸ ÑģÑĤ
ÏĬ ÏĮÎ½
çİ° åľ¨
Ġagäºļ å®ĺç½ĳ
Ġà¸ Īà¸²à¸ģà¸
à¥ģà¤ ·
Ġtod os
ĠÎº Ïį
áĥĶáĥł áĥĶáĥ¡
ĠW e
Ġc er
Ġà¦¨ à§ĩà¦¤
¬ áĥĽ
¡à¸²à¸ģà¸ ¡à¸²à¸
å¼Ģ åı·
ĠĈ ï¼Į
à¤¾à¤µ à¥ĩ
Ġâ ľ
Ġë° ı
Ġi k
Ġà¦¹à¦ļ à§įà¦Ľà§ĩ
Ġk un
or z
Ġv Å¡e
åį ±
0 4
Ķà¸ §à¸
Ġåĩ¯åıĳ ä½ĵèĤ²
Ġä¸ ĸ
Ġà¤ķà¤¿à¤Ĥà¤ µà¤¾
à¥ĭà¤¡ à¤¼
à°ª à±ģ
Î¼Î¿Ïį ÏĤ
áĥ¦ áĥķ
Ġà¦¸ à¦¾à¦¥à§ĩ
Ð°Ð½ Ð°
cz ÄĻ
Ø´ Ú©
Ġhaq q
ĠØ¨ Ø¹Ø¯
ĠÄĳ i
ĠA b
ĠÎķ Î½
Ġn ost
ì² Ń
Ġc ol
ãĤ ¦
l y
ĠÏĥ ÎºÎ¿
ĠÐ½Ðµ Ð¾Ð±ÑħÐ¾Ð´Ð¸Ð¼
nie Å¼
Ġà¤¤à¤° à¤¹
ĠáĥĵáĥĲáĥ ĳ
g ie
ag i
c Ä±
N o
ĠìĽ Ĳ
×ŀ ×¨
Ġà°¦ à±įà°µ
ĠÑĤ Ð¾Ð¼
Ġpar ti
ĠÎºÎ¬ ÏĦÎ¹
Ġà®¤ à¯ĭ
ÏģÎ¿ ÏĨÎ¿
ĠÑĤ ÐµÑĢ
Ġw enn
ĠáĥłáĥĲáĥĽáĥĵ áĥĶáĥľ
er w
Ġl i
Î¼ ÏĢÎ¿
Ġd Ã¶vlÉĻt
Ø±ÙĪ Ø´
ĠÐ° Ðº
à¯Īà®ķà¯įà®ķ à¯ģ
à¤® à¥ĩà¤Ĥ
ĠM ais
ĠÐłÐ¾ÑģÑģ Ð¸Ð¸
Ú¯ ÛĮØ±
ĠÐµ ÑīÐµ
Ġà¦¸ à¦¦
Ġb ax
ÙĬ Ø²
Ġch a
ãĥ¼ãĥ «
ì§Ģ ë§Į
Ġil s
à¦¨à§įà¦¤à§įà¦° à§Ģ
Ġde gli
ÎµÎ¯ ÏĦÎ±Î¹
i do
ĠÐĶ Ð»Ñı
à¦¾à¦° à§įà¦¥
Ġà®Ĩ à®°
ien ia
áĥķ áĥļáĥĺáĥ¡
à°¦ à±ģ
Ġqu y
Ð¾Ð¶ Ð´
ĠT Ã¼rk
in as
Ġà¦¸ à¦Ń
ĠÎ£ ÎµÏĢ
Îº Î®ÏĤ
Ġáĥ Ł
Ġm Å¯
à¦¥ à¦®
Ã¼ y
Ġw as
ĠØ§ÙĦØ° ÙĬ
Ġse g
ÏģÎ± Î½
Ġà®ļ à®°
Ð² ÐµÑģÑĤ
Ġo fer
à¤¸ à¤¾
áĥĿ áĥĲ
à°Ĥà° ¡à±ģ
Ġtrav a
Ġ×ľ ×©
ĠÏĥÏħ Î½Î¿
as t
Ġà®ª à¯ĩà®ļ
ãģķ ãĤĮ
ĠØ® Ø±
ÏģÎ¿ Î¹
Ġà¤® à¥Į
Ð» Ð¾Ð¶
Ġpri x
à°ª à°¡
ä¹ ±
Ĥà¸Ńà¸ĩ à¹Ģà¸
Ġà¥ ©
al mente
ĠáĥĲáĥ ŀ
Ġà¦¬ à¦¿à¦°
£ p
ÙģØª Ùĩ
ĠV ous
à®Ł à¯į
ĠÑĤ Ð¾Ð³Ð¾
Ġap ar
Ħà¸£à¸ ±à¹īà¸ĩà¸
à¥ĩà¤ ·
ĠM o
ĠÎŃÎ½Î± ÏĤ
Ġê± °
Ġáĥ©áĥķáĥĶáĥľ áĥĺ
Ġc el
Ġáĥ£áĥĻ áĥķáĥĶ
Ġa ta
ĠØ§ÙĦÙħ ÙĨ
à¦¾à¦ Ń
ĠáĥĻáĥĺáĥĵ áĥĶáĥķ
a uf
Õ º
ilm iÅŁ
Ġtut ti
ĠÎķ Î»Î»Î·Î½
âĢĮ à°°
à±Ģà° Ĩ
Ġà°ķ à°¿
Î»Î¿Î³ Î¯Î±
áĥĶáĥĳáĥĺáĥ¡ áĥĲ
el d
¨à¸ ±à¸
é£İ éĻ©
Ġè®° èĢħ
à¹Īà¸²à¸ §
Ġ' >
áŀ ¾
èı ²
åĵ Ī
åĩ Ģ
à¥ĩà¤Ĥà¤¦ à¥įà¤°
Î Ĳ
Ġfil es
ĠÃ©ta it
om b
ÐµÐ½ Ð¸
Ø§Ø³ ÛĮ
A T
Ġda lla
ÏģÏīÏĢÎ± ÏĬ
à®¿à®ķà¯įà®ķ à¯ģ
Ġp el
ll t
g ÅĤ
Ġè¿Ļ ä¸ª
Ġéĺ ħè¯»
Ġé» ĳ
ĠåĪ Ľ
ç©º éĹ´
æīĭæľºçīĪ å®ĺç½ĳ
½ çĦ¶
E D
B ET
Ġà¤¸à¤Ĥà¤ ª
Ġáĥ¡ áĥ£áĥļ
Ġà°µà°¿à° ¶
iá»ģ n
ĠÎµÏĢÎ¹ ÏĩÎµÎ¹
ĠÅ ł
Ġà§ §
áĥĶáĥł áĥĲ
×ĳ ×¢
ÎµÏħ ÏĥÎ·
ĠC ar
lÉĻr inin
Ñĥ Ð²
Ġà¦ķ à¦²
j em
Ġm ujeres
ÙĤ Øª
à´ ®
à¥ĭà¤ ¸
ì° ¨
Ġà°¹ à±Ī
i or
áĥĺáĥľ áĥĴ
ĠÏĥ ÏįÎ½
ÐºÐ°Ñĩ Ð°ÑĤÑĮ
ĠâĦ ĸ
ĠÐ¿Ð¾ Ñĩ
Ġà¦ªà§įà¦° à¦¶
Ġà®ħà®µ à®°à¯įà®ķà®³
Ġà°¤ à±ĭ
n Ã½ch
ĠÏĨ ÏħÏĥ
z en
Ã´ n
co re
un a
Ġà§§à§ ¦
ow ym
Ð°Ð» Ð¾
Ļ à¯įà®ķà®³à¯į
à°¿à°¤ à±ĭ
Î» ÏİÎ½
an Ã§
Ú© Ø³
ĠS i
Ġà¦ªà§ģà¦² à¦¿à¦¶
áĥĲáĥ¢ áĥĺ
éĴ Ī
è¾ ĳ
è°ĥ æŁ¥
īà¸ ŀà¸²à¸
Ġà¹Ģà¸ Ķ
à¨ Ĺ
Ġà¤® à¤¾à¤Ĺ
Ġáĥ¡áĥĲáĥĻ áĥ£áĥĹ
Ġìĭ ¤
Ġà¤® à¥ģà¤
ÎĳÎ ĵ
ĠÎ» Î¹
Ġà¦Ĩ à¦Ľà§ĩ
×ŀ× ª
ÑĤ ÑĢ
nik Ã³w
ĠØ§ ÙĪ
à°¨à±įà°¨ à°¾à°°à±ģ
ÙĨ Ø©
ere k
Ġ5 åĪĨæĹ¶æĹ¶å½©
åĨ °
ä¸į æĸŃ
à¹ģ à¸Ńà¸
à¸£à¸§à¸ Īà¸
à¤¾à¤± à¥įà¤¯à¤¾
ĠÏĢÎ±Î¹ Î´Î¹Î¬
Ġe dÉĻn
à¤Ĥà¤¤ à¥įà¤°à¥Ģ
ĠN ach
ĠÃ© qu
Ġc ap
ĠáĥĲáĥ ĸ
Ġà°ķà°¾à°° à±įà°¯
à¶ »
à¤ļà¥įà¤ Ľ
à®Ļà¯įà®ķà®³ à®¿à®²à¯į
ÐµÐ½ Ð¸ÐµÐ¼
Ġk aÅ¼
à¦¤ à¦¾à¦°
ÏĦ Î¿ÏħÏĤ
Ġë§ Ĳ
Ġà°µà°¿à° §
Ġtak Å¼e
Å¾ it
áĥĲáĥ¡ áĥ£áĥ®
ĠÐ¼ Ð¾Ð´
g os
ĠÎ¯ Î´Î¹Î¿
Ð½Ð¸Ðº Ð°
áĥĲáĥļ áĥĲáĥ¥
Îµ ÏģÎ¿
ĠÐ¿ÐµÑĢ ÐµÐ´
Ø£ ÙĨ
Ã¢ m
Ġprod uc
Ġæ¬§ ç¾İ
à´¿à´ ²
Ġà¤¹à¥ģà¤ Ĩ
p ri
×ĵ ×¨
iy ÉĻ
le ich
à¦¬ à¦°
Ġáĥ« áĥĲáĥļ
Ġf ir
à°¾à°° à°¨à°¿
ou l
ow i
Ġes p
Î» Ïį
à®ªà¯įà®ªà®Ł à®¿
in y
Ġà°ľ à±Ģà°µ
ĠÑģÐ¿ Ðµ
ìŀ ĳ
ĠáĥĽ áĥĺáĥľ
ãĥ ĸ
à¦¾à¦® à¦²
Ä±n dan
m as
ĠØª Øµ
à® ľ
Ġc rÃ©
á¿ Ĩ
ĠÎ´Î¹Î± Î´Î¹Îº
Ħ à¹Īà¸²
Ġ6 8
Ġåİ »
à« ģ
¥à¸ ¢
Ġà¤ª à¥ģà¤°
Ð°Ð» Ð¾Ð³
ĠS o
Ġà¦ªà§įà¦° à¦¥à¦®
Ġà°®à±Ģ à°¦
áĥ¡ áĥĲáĥª
iá»ĥ m
Ð¼ Ñĥ
Ġh anno
ÃŁ e
ĠÏĥÏĦ ÏģÎ±
è ķ
Ġà¤ľ à¥Ī
à¯ĩ à®¯
le ment
ĠÐº Ð°ÑĢÑĤ
Ġà°ļà±ĩà°¶ à°¾à°°à±ģ
í Ŀ
Ó Ļ
Õ¡Õ¶ Õ«
Ġd Ã¼n
ĠØ± Ø³
Ġáĥĵ áĥĶáĥĵ
æł ĳ
æĽ °
åĿ Ĳ
Ġæ² ³
å§Ķåĳĺ ä¼ļ
ä¸Ģ èµ·
Ĺà¸ ¢à¸
æĮ ¥
Ġà¤Ĺ à¥įà¤°
ter n
le Äį
ê· ¸
Ð³ Ð¸
Îº ÎŃ
Ġ×ľ ×¤
ÐµÐ½ Ð½ÑĭÐµ
Ġz o
Ġà°ľ à°¿à°²à±įà°²
Ġà¦ķ à§įà¦°
Ġà°¸ à°¾à°§
à¯Īà®¯ à®¾à®ķ
ĠA d
Ġse b
Ø§Ø «
li w
ĠáĥĵáĥĲáĥ Ĵ
Ġf un
Î¹Î± Ïĥ
ìĸ ´ë
Ġfiles _
j et
æĬ ĵ
ª à¸Ńà¸ĩà¸
Ġà¤Ŀà¤¾à¤² à¥Ģ
ĠÐ¾Ñģ Ð½Ð¾Ð²
ĠÏĥ ÏĦÏĮ
ãģĤ ãĤĬ
ÉĻf ÉĻr
in t
Î¹Îº Î·
ĠÎ· Î¼ÎŃ
ĠáĥĴáĥĲáĥľ áĥª
Ġse hr
ĠÐ± ÑĢ
Ġ\ "
ĠT o
ĠÚĨ Ùĩ
à§ģà¦ ľ
áĥ®áĥķ áĥĲ
Ġà¤¶ à¥ĩà¤¤
à¸Ńà¸¢ à¸²à¸ģà¸
ª à¹Įà¸
Ĺà¸µà¸ ¡à¸
Ġé Ķ
· à¸Ńà¸ĩà¸
ªà¸ ¡à¸²à¸
ĠåĽ ŀ
Ġè¯ ·
Ġå® Į
Ġag å®ĺæĸ¹ç½ĳç«Ļ
äºĭ ä»¶
æİ Ī
Ġag ç½ĳç«Ļ
Ġ1 99
Ĥ à¹īà¸Ńà¸
Ġèģ Ķ
Ġå® ĺ
Ġà¤®à¥ģ à¤Ĥà¤¬à¤Ī
æµĭ è¯ķ
ŀà¸ ¢à¸²à¸
Ġå §
æĪĳ çļĦ
à¹ģà¸ Ķà¸
Ġç ¤
Ġæł ¹
èĮĥ åĽ´
èĮ ¶
è± ª
è®¡åĪĴ ç½ĳ
çĽ® æłĩ
åŃ¦ æł¡
Ġè¶ ħ
Ġåģ ļ
Ġ7 8
¸à¸ Ľà¸
Ķ é©°
Ġå¤§åıĳ å¤§åıĳå½©ç¥ŀ
Ġà¤¨ à¤¸
Ġs Ã©
ÎŁ ÎĻ
ĠÎľ ÎŃ
ie mp
à§ĩà¦¬ à§ĩ
ÏĥÏĦÎ· ÎºÎµ
ĠA v
Ġ Å¼
Ġà¤ĩà¤¸ à¤ķà¥ĩ
ĠÐ¾Ð½ Ð»Ð°Ð¹Ð½
Ġà®®à¯ģà®© à¯įà®©
uj c
Ġt om
ĠÑģ Ð¾ÑģÑĤÐ°Ð²
ĠØ· Ø±
áĥ¢ áĥł
ĠÑĥÑĩ Ð°ÑģÑĤ
Ġà¦ªà¦¾à¦° à§ĩ
Ġà°ķ à±ĩà°¸
Ġd ann
Ġgr and
è´Ł è´£
à¥Ģà¤² à¤¾
ĠØ£ ÙĬ
ĠÎµ Î¼ÏĨ
Ġà°ķ à°°
ĠØ² ÛĮ
à¶ Ń
Ġà¤Ĺ à¤ı
Ġy an
Ġà°ħ à°¡
ĠÐŁ ÐµÑĢ
ĠáĥĽ áĥĶáĥł
am ento
Ġn Æ°á»Ľc
Î´ Î¿Ïħ
Ġà¤µà¤¿à¤ ļà¤¾à¤°
C J
ost ÄĻp
×ł ×Ļ×Ŀ
Ġáĥĳ áĥĶáĥķ
f ahr
Ġkter Ã½
ìĹ Ī
p on
à®± à¯ģ
ĠÐľÐ¾ÑģÐº Ð²
Ð¾Ñģ ÑĥÐ´
Ġà°ħ à°®à±įà°®
Ġà°ķ à±ĩà°Ĥà°¦à±įà°°
Î´ Î¬
r Ã¨s
Ġa Ã§
ĠØª Ùħ
Ġà°ªà±Ĩ à°¦à±įà°¦
es e
ĠÎ£ ÏĦÎ±
Ġà¹Ģà¸ Ľ
Ġà¤Ĩà¤ª à¤£
ĠÐº Ð¾Ð³Ð´Ð°
Î½Î¿Î½ ÏĦÎ±ÏĤ
Ġqu r
wiÄħ z
ĠH et
áĥłáĥ ª
Ġà¤¦à¥įà¤µ à¤¾à¤°à¤¾
ĠÏĥÏħÎ½ ÎµÏģÎ³
ĠÎ¼ÎµÏĦÎ± Î¾Ïį
Ġh ar
Ġà°ļ à°Ĥà°¦à±įà°°
Ġh asta
k Ã©
Ġà®ªà®¾à®° à¯įà®¤à¯įà®¤
éĸ ĵ
Ġà¤® à¤²à¤¾
Õ ¢
liy i
Ġà°ªà±įà°° à°¤
p uis
Ġz n
Ø§Ùħ ÙĦ
áĥľ áĥĺáĥ¨áĥľ
u te
ĠÎ½ÎŃ Î±
à®¿à® ¸
Ġà¸ Ķ
æī ©
è¯ į
ľà¸¥à¸´à¸ ķà¸
Ġà¤®à¥įà¤¹à¤£à¤ľ à¥ĩ
ÏĦÎŃ Î»Îµ
ĠÐ² Ð¾Ð¿ÑĢÐ¾Ñģ
ĠÃ ľ
ĠÐ½Ð° ÑģÑĤ
ĠÎ¼Î± Î¶Î¯
áº¯ t
ÛĮÙħ Øª
an za
Ġk ad
Ġà¦¬ à¦¾à§ľ
à±Īà°¨ à°¾
b ÉĻr
wia d
ĠÙĨ ÙĪ
Ġà¤¨ à¤¾à¤®
Ġf orm
ÏĮÏĦÎ· ÏĦÎ±ÏĤ
æ¯Ķ èµĽ
Ġà¤¦ à¤¿à¤µà¤¸
Ġà¦Ĺ à¦¤
ĠëĤ ´
ĠáĥĽáĥĺáĥ ¦
Ġav ant
ÏģÎ¹ Î¿ÏĤ
Îł Îĳ
Ñı Ð¼
Ġ×ĳ ×¨
il li
Ġà®ªà¯ĭ à®²
éģ Ń
ç ¦ģ
à¥Ģà¤ļ à¥Ģ
ĠØ® Ø¨Ø±
ĠØ¯ Ø§Ø¯
ÏģÏĮ ÏĤ
Ġà¤¹ à¤°
ëĤ ´
Ġáĥ¨ áĥĶáĥĴ
Ġà°® à°Ĥà°ļ
il idad
ĠÏĢÏģÎ¿ÏĥÏī ÏĢ
Ġà¦īà¦ª à¦ľ
Ġà¦¨ à¦¿à§Ł
Ġk a
ÎŃ Î²
c or
Ġà¤¦ à¤¿à¤¸
ÃŁ en
in di
Ġà¤¸à¤ķ à¤¤à¤¾
ĠÐŃ ÑĤÐ¾
ê¸ ī
Ġdey il
ĠáĥĴ áĥĸ
ĠVi deos
an as
Ġà®ĩ à®±
Ġper met
ti m
Ġà¦¸ à§ĩ
ĠÙĩ ÙĪ
ĠÎ ©
Ġne ces
áº¡ t
ķà¸ ģ
ç«ŀ å½©
áŀ ¸
à¹Ģà¸ģà¸ µà¹Īà¸¢à¸§à¸
ç¨³ å®ļ
Ġ% ãĢĤ
ŀ à¸£à¸°à¸
Ġåħ³ äºİ
Ġà¤¸ à¥įà¤ª
Ġà°ķ à°¥
ĠÎµ Î½Î·
Ġp owie
Ġbu de
ĠÎ²Î± Î¸
à±Ĩà°² à±įà°²
Ġk ull
áĥĶáĥĹ áĥĲ
it ar
ĠÑĤ Ñĭ
Ġt ÉĻd
à®¿à®°à¯ģà®¨à¯įà®¤ à¯ģ
Ġà¦ªà§įà¦°à¦ķ à¦¾à¦¶
ĠÎĵ Î¹
¥ ¼
áĥĶáĥĳáĥļ áĥĲáĥĵ
à°¾à°¨ à°Ĥ
×ľ ×Ļ
Ġs ous
i ci
ĠØ®ÙĪ Ø§Ùĩ
ÏĢ Î±Î½
ĠÐ¸Ð½ ÑĦÐ¾ÑĢÐ¼
Ġh eb
Ġà¦¤ à¦¾à¦ģ
Ġà° Ĺà°¾
Âµ Î±
ĠÎ£ÏĦÎ· Î½
ĠÐ»Ñİ Ð´
Øª Ùĩ
.... ....
Ħà¸£à¸ ĩà¸
æ± ł
Ġà¤ł à¥ĩà¤µ
Ġ201 3
ĠÎļ Î¬
Ġcon o
os ten
Ġà°²à±ĩà°¦ à±ģ
Äħ Å¼
ĠSp iel
ª áĥ®
Ġis tifadÉĻ
Ġà¤ķà¤° à¤¨à¤¾
Ġà°ķ à°¾à°µ
ĠÎµÏĨ Î±Ïģ
Ã¡ r
Ġà§© à§
em me
Ġl ui
Ġà¦ĩ à¦¸à¦²
at er
Î¸ Î¿ÏĤ
à§ģ à¦Ł
à¤¿à¤² à¤¾
ÙĪ Ø³
Ġa ff
uy á»ĩ
ĠÎµÎ½ ÏĮÏĤ
à°ķ à°°
ĠW ar
Ġáĥ¡áĥĲáĥĸ áĥĿáĥĴ
ä½į ç½®
«à¸ §
àª ¤
Ġ äºĳ
Ġäºļæ¸¸å®ĺç½ĳ ç½ĳç«Ļ
Ġà¨ Ĩ
ä¸Ģ ä¸ĭ
Ġà¸ªà¸ ¡à¸±à¸
ð Ł
Ġåį ķ
à¹Īà¸² à¸Ļà¸
4 1
Ġè į
Ĭà¸ ¡à¸
Ī à¸µ
åķ Ĭ
æĳ Ħ
ĠéĻ Ī
Ġà¸ ¡à¸²
ļ à¸£à¸£à¸
_ å®ĺæĸ¹
Ĭà¸²à¸ ¢à¸
Ġā ą
78 9
éĩĩ çĶ¨
æ §
à¤¿à¤ķ à¤¾
ĠÐ° Ð´
ĠrÃ³w nieÅ¼
ë¬ ¼
áĥĲáĥłáĥ ļ
à¦°à§įà¦ ķ
f en
ra z
Ġà¤ľ à¤¿à¤²
Ð½ ÐµÐµ
Ġk al
æľĢ é«ĺ
ç»§ ç»Ń
± à¹īà¸Ļ
æĮ ĳ
0 2
áŀ Ļ
Ġagçİ¯äºļ ç½ĳç«Ļ
éĽ ·
à¹Ħà¸¡à¹Ī à¹Ħà¸Ķà¹īà¸
Ġç§Ĵ ç§Ĵ
à¥ĩà¤ķ à¥įà¤·
§ áĥķ
×ķ×ł ×Ķ
áĥĶáĥĳ áĥĹáĥĲáĥľ
ĠÐ´ ÐµÐ¹ÑģÑĤÐ²
à®Ł à¯ģà®ķà¯įà®ķ
ill es
Ġfor ma
à°¿à° ³
ĠÎ£ Î±
Ġà°¨à°¿à°° à±įà°®
Ġt iáº¿
ĠÎµÏĢÎ¯ ÏĥÎ·ÏĤ
ĠD a
Ð¾Ð» Ñı
ĠÙĪØ§ÙĦ Ùħ
u jÄħ
vÄĽ t
ĠØ´ ÙĩØ±
Ġà®® à®¤
ĠM e
Ġp em
Ð¾Ð²Ð°Ð½ Ð¸Ðµ
áĥĺáĥļáĥĺ áĥĲ
à±ģà°ķ à±ģà°¨à°¿
Ġà¦¶ à§ĩà¦·
Ġà°µà°¿à°· à°¯
ĠÂ °
àµįà´ Ł
Ġà¤īà¤¨à¥įà¤¹ à¥ĭà¤Ĥà¤¨à¥ĩ
Ġav oir
ãĥ ĩ
ì ¸
d ar
Î³ ÏĮ
ÑĢÐ° Ñī
à°°à±įà°µ à°¾à°¤
om a
Ġ ä¹Ĳ
Ġp c
çĶµ è§Ĩ
ķà¹Īà¸²à¸ĩ à¹Ĩ
ĠAGçİ¯äºļ å®ĺç½ĳ
à¥Ģ à¤¸
ĠØ´ Ùĩ
Ġï¿½ï¿½ï¿½ï¿½ ï¿½ï¿½ï¿½ï¿½
Ïĩ Î®ÏĤ
Ġà¦ķ à¦¿
à®¿à®¯ à®²à¯į
áĥĺáĥ ¬
is ti
à¦¬ à§ĩà¦¨
ĠF re
à°Ĥà°Ĺ à°¾à°£
à°¤ à±įà°°
Ġíĺ Ħ
Ġà¸ ļà¸²à¸Ĺ
è¾ Ĩ
Ħ à¸Ļà¹Ģà¸
Ĭà¸µà¸§à¸´à¸ ķà¸
Īà¸°à¹Ģà¸ Ľà¹ĩà¸Ļà¸
Ġà¸ ¢à¸
æ± ¡
ĠéĿ ¢
æĿ Ł
èµĦ éĩĳ
æİ ī
æĪĺ çķ¥
åŁº éĩĳ
Ġæĥ ³
Ġà¤Ŀà¤¾à¤² à¥ĩ
×ķ× Ķ
ĠÑįÑĤ Ð¾Ð³Ð¾
ĠÏĢÏģÎ±Î³ Î¼Î±
åķ ª
Ġà¤ª à¥Ī
ÙĤ ÙĦ
åł ´
Ġh azÄ±r
Ġon der
j on
à®¿à®ķà¯įà®ķ à¯ģà®®à¯į
Ġà¦Ĩ à¦¦
à±ĭ à°ª
at to
Ġáĥ§áĥķáĥĶáĥļ áĥĲáĥ¤
Ïĥ ÏĦÎ¹
ĠS te
ĠÙĨ Ø´
áĥķ áĥĺ
Ġà¦¨à¦¿à¦°à§įà¦¬ à¦¾à¦ļ
ĠP ra
Ġk m
ĠÐ» ÑĥÑĩÑĪ
Ġà¤ķà¤° à¥ĩà¤Ĥ
ĠÎ¸Îµ Ïī
ĠáĥĴáĥĲáĥľ áĥķáĥĺáĥĹ
Ġà¦¸ à¦ķ
Ġáĥ¡áĥĲáĥ¨ áĥ£áĥĲáĥļ
Ġd ÄĽ
æ³¨åĨĮ ç½ĳåĿĢ
à¹ī à¸Ńà¸Ļà¸
Ġå¯¹ äºİ
å¡ Ķ
à¤¾à¤ Ĭ
ne ment
ÑĢ Ðµ
it as
à¯įà®ļ à¯įà®ļ
íĻĶ ìĿ´íĬ¸
íĶĦ íĻĶìĿ´íĬ¸
Ġë°Ķ ì¹´ëĿ¼
ìĨ į
à¦¾à¦ ł
c os
ĠÎº ÏģÎ¹
ĠC z
Î¼ Î¹Î±
èķ ī
Ġà´ µ
Ġà¤ª à¤¾à¤°
×© ×Ķ
h ne
y on
áº© m
à°¾à°Ĥà° ķ
ĠÐ¼Ð°Ð³ Ð°Ð·
à¦ ĥ
ĠN ous
ĠØ¬ Ø¯ÛĮØ¯
Ġáĥĺáĥ¥ áĥľáĥĶáĥĳáĥĲ
Ñĥ ÑģÐº
Ġs olo
dzie j
ĠÏĥ Î¿
ĠÃ© g
Ø¦ ÙĬØ³
Ġk r
Ġà¦¬à¦¿à¦ ¦
á»ģ n
Î¸ ÎµÎ½
Ġà°® à°§à±įà°¯
Ġx ÉĻbÉĻr
ll er
Ġáĥ¡áĥĲáĥĸáĥĿáĥĴ áĥĲáĥĵáĥĿ
ĠÐ¿ÑĢ Ð¾Ð±
ka z
ĠÙģ ÛĮÙĦ
ÏĨÎŃÏģ ÎµÎ¹
Ġà®¤ à¯ĩà®°
áĥķ áĥĶáĥĵ
Ġå¤§åıĳäºĶ åĪĨéĴŁå¿«ä¸ī
ç¡ ¬
Ġà¤Ń à¤¾à¤ľ
Ġí ĽĦ
çģ ¯
ĠçĻ ½
ĠåĪĨ åĪĨå¿«3
Ġà¤¨à¤¿à¤µ à¤¡
Î¼ ÎµÎ¹
Ġà¤ħ à¤®
ĠØ³ ÙĬ
Ġà¦¬à¦Ľ à¦°
l ie
Ùħ ÛĮÙĨ
áĥĲáĥ Ł
Õ¡Õ Ń
ĠmÉĻlum at
Ġch i
Ġu Å¼y
Î»Îµ Ïį
Ġb us
Ð½ Ð¸Ð¼
à®µ à®°à¯įà®ķà®³à¯į
Ġà°¤à±Ĩà°² à°Ĥà°Ĺà°¾à°£
à±ģà°Ł à±įà°Ł
Ġs ol
Ġáĥ¨áĥĶáĥĵ áĥĶáĥĴ
h y
Ïĥ Î¼Î±ÏĦÎ±
Ġà§ ¬
Ġf ÉĻ
à¥ģ à¤¦à¥įà¤§
ĠÎ¿ Î´Î·
Ġà¦ª à§Ĥ
Ġà®ªà¯Ĩ à®°
Ġà°¤ à°¿à°°
ĠÐº Ð°Ð¶Ð´
×ķ× ŀ×
s ÉĻ
Ġcu al
Ã¤ ng
¶ Į
ÏĦÎ· ÏĦÎ±ÏĤ
ĠÐ² Ðº
Ġtr ans
áĥĲáĥłáĥĵ áĥĲ
ÃŃ n
Ġï ½
Ø§ÙĦ ÙĬ
t ta
à¤Ĥà¤ ¸
Ġà¦Ł à§įà¦°
ÏĢ Ïī
t Ã³w
or den
ĠÐ±Ñĭ Ð»
Ġata u
ĠpÅĻ e
ĠÚ©ÙĨ ÛĮØ¯
ÏĦ Ïį
ãĤ į
ì ¤ĳ
áĥĶáĥĳáĥĺáĥ¡ áĥĹáĥķáĥĺáĥ¡
ĠU ne
Ġà¤¸ à¤¾à¤²
Ġà°® à±Ĩ
ce k
Î¯Î½ Î¿ÏħÎ½
¹ à¹īà¸
à¤¾à¤µ à¤¾
Ġolar aq
ig li
ty w
à°¦ à±ĩà°¶
st vÃŃ
ãĤ Ń
Ġà¦ıà¦® à¦¨
Ġdu e
Ġprod uit
Ġì ¶
è «
çī¹ èī²
çĪ ¶
ç¶ ĵ
å¯¼ èĪª
Ġà¤ħà¤¸ à¥Ĥà¤¨
ĠÎ¶Ïī Î®
áĥĵ áĥĺáĥ¡
Ġm es
à¥ĩà¤ļ à¥įà¤¯à¤¾
Î¼ ÏīÎ½
ĠRes pub
Ġ×Ķ ×Ķ
Ġà®® à®±
Ã¼ c
O W
dz iaÅĤ
ÎĳÎ ł
ĠÎºÏħÎ² ÎŃÏģÎ½Î·
ìĻ ¸
Ġà°µ à°¿à°¨
Ġs áº£n
ĠÐĲ Ð»
ĠÙĬ Ø¹
Ġwie der
Ã© g
ĠÎ±ÏĢÎ¿ Îº
ê° ģ
áĥĶáĥľ áĥĲ
Ġà°¬ à±įà°°
im o
Ġæķ Ļ
ä¸Ģ ç¯ĩ
20 17
éĿł è°±
é ŀ
à¥ĩà¤² à¤¾
Ġh ier
à¯ģà®¤ à¯į
ÛĮ Ø§
i gen
ĠÑħ Ð¾ÑĢÐ¾ÑĪ
ĠÎŁ Îº
Ġà¤®à¥Ī à¤Ĥ
ib ile
Ġt Ã´i
t ÃŃ
ĠÏĥ Î±Î½
Ġà¤¸à¤¬ à¤¸à¥ĩ
Ġà¦ħà¦Ń à¦¿à¦
Ġb Ã¼tÃ¼n
ĠÐ±ÐµÑģ Ð¿Ð»Ð°ÑĤ
à°Ĥà°Ł à°¿
u al
Ð¾Ñģ Ð¿
à¯įà®¸ à¯į
45 6
æķ £
éĩ İ
· à¸Ļ
Ġè¿ ĩ
¥à¸²à¸ ¢à¸
ľ à¸´à¸Ķà¸
ļ èĩ³
Ġà¸ŀà¸£ à¹īà¸Ńà¸¡à¸
çĽ´ èĲ¥
å® ľ
Ġà¤ªà¥įà¤° à¤ķ
Ġra z
ĠáĥĶ áĥľ
in si
ĠÎµ Î´Ïİ
ĠN am
ÐµÑģÑĤÐ² Ð¾
ĠÏĦ ÎµÏĩ
te k
ĠÎ² Î¹Î²
Ġà¦ķà§ĭà¦¨ à§ĭ
Ġ×ŀ× §
ì µľ
Î»Î¿ ÏįÎ½
ÙĪ Ø¬
t in
i ka
á»Ļ c
Ġë Ĭ
à¦¬ à§įà¦¯
éĢ Ĳ
æ¤ į
Ġà¤¡ à¥ī
à°¿à°² à±į
ÙĨ Ø§ÙħÙĩ
èĪ ŀ
æ£ ®
ä¸» å¸Ń
Ħ à¸²à¸
ä¸ĵ å®¶
Ġáł ª
çĮ ®
åĮħ æĭ¬
Ġà¤ħà¤¶ à¥Ģ
Ġt en
Ð° Ñİ
ĠÐ½ ÐµÑĤ
áĥĵ áĥĺáĥľ
Ġà¦¬ à¦¾à¦¸
re ich
Ġs Ã¶z
à®ķ à®°
à¹ģà¸Ļ à¹Īà¸Ļ
åĪ ĺ
ªà¸¸à¸ Ĥà¸
æī ¶
æħ ¢
áŀ ļáŀ
à¤Ĺ à¥įà¤°
Ġà°² à±ĩà°ķ
ÄĻ d
Ġc a
Ġbe au
ĠÐ´ Ð¾Ðº
æľī æķĪ
ä¸Ģ çĽ´
à¸Ń à¹Ģà¸
t v
é» ŀ
5 2
Ġà¹Ģà¸ Ľà¹ĩà¸Ļ
Ġà¤¦ à¤°
ĠÏĢÎ¬Î½ Ïī
Ã ľ
ac ak
ĠØ¨ Ø§ÛĮØ¯
Ġb as
Ð¾ Ñħ
ÙĪØ± Ø©
Õ¥ÖĢÕ ¨
Ġ Õ¡Õ¶
Ġs ÉĻn
b ur
Ðµ ÑģÑı
í Ĺ
à¦¾à¦² à§ĩà¦°
ãģĦ ãģ¦
áĥĲáĥľ áĥĺáĥ¡
Ġà°¦ à±Ģ
Ġsch on
Ġ×ľ ×ĳ
äº ¡
ª à¸²à¸£à¸
åĲĪ æ³ķ
å¯ ¦
å¨±ä¹Ĳ å®ĺç½ĳ
Ġ **
áŁ Ĥ
Ġï¼ī ãĢĤ
áĪ Ń
Ġà¤®à¥ģ à¤²
ÏģÎµ Î¯Î±
u en
sk Ã¡
Ġà¦¬ à§ĥ
Ġh an
ĠÐ· Ð°ÑĢ
y un
Ġwur de
Ø¯ Ø±
Ġà°ĩ à°ļà±įà°ļ
Îķ Îļ
! !
Î¼Îµ Î¯
er v
à¯Ĩ à®²à¯įà®²
áĥ¢ áĥĺ
ä»¥ æĿ¥
èĪ ¹
à¨ Ī
Ĺà¸µà¹Īà¸ Ķà¸µà¸
Ġà¸£à¸ ¸à¹Īà¸Ļ
Ġà¤ķ à¤¾à¤³
Ġpra w
Î´ ÏīÎ½
à¤Ĥà¤ ľ
à°¾à°³ à±įà°³
ĠÐºÐ¾ÑĤÐ¾ÑĢ ÑĭÐ¹
Ġà¦¦ à§ĩà§Ł
Î¼ÎŃÎ½Î¿ ÏĤ
sk Ã½
Ġà®ªà¯Ĩ à®±à¯įà®±
áĥĸ áĥĲáĥĵ
g gi
à°¾à°² à°ķà±ģ
Ġb on
Õ¸ Õ¶
Ġ Õ¡Õµ
ĠÅŁ ÉĻx
ĠÏĦ Î¬
ëŀ Į
Ġ×Ķ× ĵ
à¦Ľ à§ĩà¦¨
ie ux
y t
Ì Ģ
Ã Ĵ
Ġx u
ĠáĥłáĥĿáĥĽ áĥļáĥĶáĥĳ
ÛĮ Ø³
Ġà¤ļ à¤²
Ġf uer
ĠÏĢÏģÏİ ÏĦÎ·
Ġà¦¶ à§įà¦°
Ġwy b
Ġc l
ĠÐµ Ðµ
Ġà®ħ à®£
Ø« Ø±
Ġà°µà°¿à°¦ à±įà°¯
Ġz p
à¦°à§įà¦ ·
ĆĈ ć
çº ¸
Ġ ç½ĳä¸Ĭ
Ĥà¸²à¸ ¢
Ġåħ¬ åı¸
ä¸¤ ä¸ª
Ġæ° ĳ
Ġg 22
æľ «
åĩº çļĦ
à¸£à¸²à¸ Ĭà¸
Ġà¤Ń à¤¾à¤Ĺ
s a
ĠÎ Ħ
ĠÐ²Ð¸Ð´ Ðµ
ÏĢÏĦ ÏīÏĥÎ·
Ġs it
Ġáĥł áĥĶáĥĴ
d zy
ÐµÑĤ Ðµ
Ġna ar
ĠÎ¤ ÎŁÎ¥
Î½ Î¹
Ġà°¤ à°°à±įà°µà°¾à°¤
il itÃł
à¦ ģ
è¦ ĭ
ĠÎºÎ± á½¶
ÏĢÎ¿ ÏĦÎµ
Ġv a
ÑĥÑĤ ÑĮ
à´¤ àµįà´¤
à¤¯ à¥ĭà¤Ĺ
ou te
Ġb Ã¶yÃ¼k
ĠÛ² Û
ØªØ± ÛĮÙĨ
Ġáĥª áĥĶáĥľáĥ¢
à®¾à®£ à¯įà®Ł
à±ĩà° ¦à°¿
Ġch ÃŃnh
Ġc aÅĤ
ĠÃ¶ n
Î ŀ
ĠÏĨ Î¿Ïģ
×¨ ×ª
Ã§ Ã£o
Ġen s
ÐµÑĢ ÑĤ
Ġso ll
áĥĲáĥł áĥĿ
æ³ °
à¹Ģà¸ ĩà¸´à¸Ļà¸
Ġ äºİ
å ´
² áĢ
5 3
ĠP ok
ĠéĢ Ļ
à©ĭ à¨Ĥ
à¤¦ à¤¾
t ti
Ġm un
Ġà¦¦ à§ģà¦ĩ
Ðº Ð¾Ð¼
áĥ£áĥ Ļ
Ġà¤ķ à¥įà¤·
Ġ201 2
Î± ÏģÎ¯Î¿Ïħ
ĠÎŃ ÏīÏĤ
v al
s ce
à¦¾à¦¨ à§ĭ
Ġáĥĵ áĥłáĥĿ
ÙĪÙĦ Ø©
ì¶Ķ ì²ľ
ëĬ ¥
Ġver s
ÑıÑĤ ÐµÐ»ÑĮ
ĠÏİ ÏĥÏĦÎµ
ur as
ÐµÑĢ Ñĭ
ia le
Äħ dz
Ġq ay
ĠÙħ ÙĪØ±Ø¯
Ġdon de
à°ª à±įà°°
Ð°Ð»ÑĮ Ð½ÑĭÐ¹
ÅĽ l
k em
ĠáĥĻ áĥł
à¯Īà®ļ à¯į
ãĤ ¸
Ġ×ľ ×Ĺ
áº¥ n
ÎĳÎ Ķ
ĠÎº Î¿Î¹
Ġà¦Ĩà¦Ĺ à§ĩ
Ð¾ÑĢ Ð¾Ð²
áĥĺáĥ Ń
Ġà°İà°¨à±įà°¨ à°¿à°ķ
Ġà°ħ à°®
ĠÑĢ ÐµÐº
v od
ĠÎĳ Î¸Î®
¤ Ģ
ĠB ar
ĠÎ´ÏħÎ½Î± ÏĦÏĮ
osti t
Ġt iemp
Ġpri ma
Ġà´ ¸
à· Ķ
A V
à¤µ à¤¾à¤°
áĥĺáĥľ áĥĺáĥ¡
à±ģà°¤ à±Ĥ
ĠØ´ Ø±Ú©Øª
à¦¾à¦§ à§įà¦¯à¦®
ĠZ eit
os e
ĠÑĤ Ð¾Ð²Ð°ÑĢ
ĠÎ¬Î½ Î¸ÏģÏī
esz cze
Ð½Ð¾Ð¼ Ñĥ
Ġáĥ¡áĥĲáĥ¥áĥĲáĥłáĥĹáĥķáĥĶáĥļ áĥĿáĥ¨áĥĺ
Ġáĥĺ áĥª
Ġà¤® à¥ģà¤ĸ
lÉĻr ÉĻ
Ġs em
ĠÎĳÏħ ÏĦÏĮ
Ġà®ħ à®¤à¯ģ
ĠÙĦ Øª
Ġw ÅĤ
Ġà°¤ à±Ĭ
Ġí İ
áĥ£áĥ ª
al Ä±ÅŁ
Ø´Øª Ùĩ
Ġj i
ÑĮ Ñı
Ġap rÃ¨s
Ġà¤¸ à¤Ńà¥Ģ
áĥĺáĥ£áĥ ļ
åº Ĭ
åĽ½ åĨħ
éĢ ²
çĶŁ æĢģ
à¤¾à¤Ĥà¤ ¡
Ġà°°à±Ĩ à°Ĥà°¡à±ģ
skie j
à§ģ à¦¦
Ġ×Ĵ ×Ŀ
ĠÎ¸ÎŃ ÏĥÎ·
ÑĢÑĭ ÑĤ
k om
áº« n
ostit utas
ĠS an
«à¸ §à¹Īà¸²à¸
Ġå¿ ĥ
Ġà¤ª à¥ģà¤¢
Ġáĥ¡ áĥĺáĥ¢
ĠØ¨Ø§ Ø´
à®¾à®¤ à¯įà®¤
à°°à±įà° ķ
ien do
ĠÎ£ Ïĩ
Ïĥ Ïĥ
à§įà¦ §
ĠÐĲ Ð²
Ġse x
ĠF o
Ġen c
ÙĬ Ø«
Ġd ir
çĦ ¡
Ġêµ Ĳ
è¡Į åĬ¨
çĽ ĸ
æŁ¥ è¯¢
áŀ ĳ
à¤°à¥įà¤ ¶
ĠáĥĲáĥĽ áĥĺáĥ¡
ĠÐ² Ð°ÑĪ
Ġz m
à¯įà®ķ à®¿à®±
áĥķ áĥĺáĥĵ
k ar
à§ĭ à¦°à§įà¦
ãĥ³ãĤ °
or um
Ġbu d
Î¼Îµ Î½Î·
à± ĸ
g na
Ġh er
à®² à®®à¯į
a dÄ±
ĠÐļ Ð¾Ð¼
Ġ×Ľ ×Ļ
à°¿à° §
Ġë¶ Ħ
Ġä»Ĭ å¹´
å¦ ¹
à¹Ī à¸Ńà¸Ļ
ĠæĮ ī
Ħ à¸£à¸±à¸
æ¡ ¥
à¹ĥà¸ Ħà¸£à¸
à¸£à¸²à¸ ¢
ķà¸±à¸ Ķà¸
à¤¾à¤Ĥà¤ ¸
ch es
ĠÎ» Î¬
Ð» Ð¾Ð²
ĠØ± Ø§Ùĩ
áĥ£áĥļ áĥĲáĥĵ
Ġà¦ħ à¦¸
g no
ĠÙĪ Ø¨
Ð¾Ð» Ð¾Ð´
A D
Ġal gun
áĥĶáĥł áĥĺáĥ¡
Ïĩ ÏģÎ¿
ĠÂ ¹
Ġhá» £p
ÅĤ at
Ã¥ r
ĠS aint
Ġques ta
à¯Ĩ à®©
Ġp ujc
ku d
Ġdon c
Õ¡Õ º
larÄ±n Ä±
ĠÐº ÑĥÐ¿Ð¸ÑĤÑĮ
ÏĦÏħ Ïĩ
ĠÑģ Ð¾Ð·Ð´
ãģ ĺ
à¤¤ à¤¿
Ġen core
íĺ ķ
Ġáĥŀáĥĺáĥłáĥķ áĥĶáĥļáĥĺ
ĠÎ¤ Î·Î½
à±Ģ à°²à±ĭ
ĠW er
ĠÎłÎ¿Î» Î¹
Ġod powie
Ġà¦ħà¦¨ à§įà¦¯
ÑĨ Ñĭ
ĠD ies
Ġen v
à°µ à°¿
ÙĤ Ø±
ĠÏĥ ÏĦÎµ
Ġa bb
ĠC am
Ġà¤Ŀà¤¾à¤² à¤¾
Ġ×¤ ×¨
cz as
ist as
Ġit u
Î® ÏĦÎ·
ĠÑĦ Ð¾ÑĤ
ĠáĥĹáĥĲáĥľ áĥĲáĥĽ
ĠÙģ Ø±ÙĪØ´
æľ¬ éģĵ
Ġà¤Ĩà¤ª à¤ķà¥ĭ
ãģ Ķ
Ġb ilm
ĠÙĨÛĮ Ø²
ÙĪ Ø§Øª
á½ ´
ĠÏĮ ÏĥÎ¿
tiv i
l ov
ìĶ ¨
ĠU ni
ĠÐĿ Ðµ
Ġnh Ã¢n
ì½ Ķ
® áĥĶáĥĵ
à®¿à®µ à¯ģ
is h
åĽŀ è¡Ģ
åī Ĥ
à¥įà¤ Ĺ
Ġà¦¹ à¦¾à¦ľà¦¾à¦°
Ð³ Ð¾ÑĤÐ¾Ð²
ĠãĤ ¹
à°Ĥà°¤à±įà°° à°¿
Ġma ar
Îķ ÎĻÎ£
Ïģ Î¹Îº
Ġ ÉĻv
Ġà°®à±Ģ à°°à±ģ
Ġp ay
Ġà¦ħ à¦°à§įà¦¥
Ð»ÐµÐºÑĤ ÑĢ
en Ã©
ĠP od
ĠØ£ Ùħ
ĠÙ¾ Ø§ÛĮ
Î¬Î½ Ïī
íĥ Ŀ
à®±à¯įà®± à®¿
et as
ÐµÐ½ Ð½ÑĭÐ¹
ĠU m
Î³ Î½Ïī
Ġà¤¬ à¤¤
Ġ×ķ ×ŀ×
er os
ÑĦ ÑĦ
k s
ãĥ §
èĴ Ļ
äº§ çĶŁ
Ġà¹ģà¸ ¥à¸°à¹Ģà¸
à¨ ľ
èª ª
6 3
èµĦ æĸĻ
áŀ »
Ġà¨ķ à¨°
æ¶ ¦
à¤¾à¤¤ à¥Ĥà¤¨
ĠÎ³ Î¯Î½ÎµÎ¹
ì ¶
áĥĺ áĥĶáĥłáĥĹ
Ġqu an
ĠÙĪ ÙĬ
àµįà´ °
¦ à¥Ģ
à®¾à®µ à®¤à¯ģ
cze g
ĠÐ° ÐºÑĤ
c ak
Ġà¦Ł à¦¾à¦ķà¦¾
à¦¨à§įà¦ ¡
à¥ĩà¤Ĺ à¤¾
ĠS car
z zo
Ġl et
ĠÎ´ Ïī
Ġv om
Ġëª¨ íħĶ
Ġë ¦¬
Î´ ÏģÎ±
ĠÚ© ÙĨØ¯
Ð¸ÑĩÐµÑģÐº Ð¸Ðµ
ĠØ§ÙĦÙħ Ø³
_ å½©ç¥¨
ĠãĢģ ï¼Į
å·ŀ å¸Ĥ
à¤¤ à¥įà¤¨
Ġà¦° à¦¹
Ġmol to
Ġ×Ĳ ×ķ×ª
à¦¾à¦° à§Ģ
ĠA m
ta do
àµģà´ Ĥ
Ġà¤« à¤¿à¤²
ĠÐ½ ÐµÐ¿
al ne
ĠÏĨÎ¿ ÏģÎ¬
à¥ĩà¤Ĥà¤ Ł
áĥĺáĥ¢ áĥĿáĥĽ
à®ķ à®®à¯į
íķľ ëĭ¤
ãĥ ł
Ġà¦¨ à§ĩà¦ĩ
ĠáĥĹ áĥĺáĥĹ
ĠÎ» ÎµÏĢ
Ð¾ Ð½Ñĭ
j our
Ġjs me
ĠdÉĻ f
tic os
Ã¤ ch
Ġmo Å¾
Ġà®ķ à®¿à®°
Ġáĥľ áĥĲáĥĻ
Ġmo g
à±ģà°² à±įà°²à±ĭ
ĠØ§ÙĦÙħ ØŃ
ĠÎ±ÎºÏĮ Î¼Î·
Ġà¦Ĩà¦ª à¦¨à¦¾à¦°
Ġre g
ĠÙĤØ± Ø§Ø±
ëį ĺ
Ġ×ķ ×ĳ
Ġà°µà±įà°¯ à°ķà±įà°¤
ĠÑĢÐ°Ð±Ð¾ÑĤ Ñĭ
ĠvÉĻ z
el s
ĠÐ· Ð°Ð±
¡à¸ ·à¸Ń
æĲ ı
åĲĮ æĹ¶
ĠãĢģï¼Į ãĢģ
èģĶ åĲĪ
å½©ç¥¨ å¨±ä¹Ĳ
ŀà¸§à¸ ģà¹Ģà¸
¢à¸ ¡
Ĺ à¹Į
Ġåĩ¯åıĳ å®ĺç½ĳ
ç« Ł
Ľà¸£à¸°à¹Ģà¸Ĺà¸ ¨à¸
è¿ Ķ
Ĺà¸ĩà¸ ļà¸Ńà¸¥
Ġ9 7
çī Ļ
æĢİ æł·
à¥ģà¤ Ĺ
ĠÏĢ Î¿Î¹
Ġ uy
b ut
l ti
Ã Ģ
ĠÂ ¡Â
Ã Ķ
Ã ĭ
ĠÄĳá»ĭ nh
áĥł áĥĶáĥĳáĥĺ
ĠÎº Î¿Î¹Î½
ĠåĨ Ľ
ĠagåĽ½éĻħäºļæ¸¸ çĻ»å½ķ
åĭ Ļ
Ġć ą
Ġà¤¸à¤Ĥà¤ ¸
in der
ÏĪ ÎµÎ¹ÏĤ
Ð°ÑĤ Ð¸Ð²
Ãª te
áĥĲáĥļ áĥ®
Ġtak Ã©
ĠÎ± ÏģÎ¹Î¸
Ġgr an
I d
ìĦ ¤
Ġh eÃ§
à¯Īà® ª
Ð¾Ð» Ð¾Ð²
à°¿à° ¶
ĠØ§Ùģ Ø²
b st
×ł ×ķ×ª
áĥĶáĥļ áĥĺáĥ¡
ĠÐ¾ÑĤ Ð½Ð¾
ĠÏĥÏħÎ³ ÎºÎµÎºÏģÎ¹
ãģ§ ãģį
Ġà°¸ à°¹
Ø¬ ÙĪØ¯
Ġà¦¬à¦¿à¦Ń à¦¿à¦¨à§įà¦¨
Ã´ tel
Ġ ä¹ħä¹ħ
Ġà¤ª à¥ģà¤²
Ġ ÉĻ
ëĵ¤ ìĿ´
tic as
áĥ£áĥļ áĥ¢
Ġje go
ĠÐ¼ÐµÐ½ Ñı
b be
Îº Î¿Ïħ
ĠÄ ±
æľº åĪ¶
æ¢ °
ľ áĢ
Ġ Ćą
èĲ ¨
è´Ń å½©
çĸ «
à¤¾à¤ Ń
Ġim mer
Ð¸ÑĤ ÐµÐ»Ñı
r it
Â »
ĠÎ¼ÏĢÎ¿ ÏģÎ¿Ïį
ÐµÐ½ÑĤ Ð¾Ð²
à¹Ģà¸ Ķà¸
® áĢ
ªà¹Īà¸§ à¸Ļ
æĿ Ĥ
ľà¸´à¸ §à¸
ĠéĿ ŀ
Ġæ³ ¨
Ġå¥ ³
é© ¾
èĤ¡ ä»½
à¤° à¤£
Ġà®ļ à¯Ĥ
Î¿ÏħÎ» Î¯Î¿Ïħ
ĠáĥĴáĥĲáĥĽ áĥĿáĥª
Ġà¦° à§Ł
à±ĥ à°·
Î»Î» Î¹
Æ° a
à°¿à° ¬
ĠÐ¿ÑĢÐ¾Ð³ ÑĢÐ°Ð¼
ad ores
en iu
Ùģ Ø³
Õ¥Õ ²
Ġt ÉĻk
ĠÐ¶ ÐµÐ»
ĠÏĢÎ± ÏģÎŃ
áĥł áĥĲáĥĵ
ĠåŁ º
ĠäºĶ åĪĨå½©
Ġà¤ħà¤¸ à¤¤
à´ ¨
Ġà¤¸ à¤¿à¤Ĥà¤
Ġve z
Ġph o
ing en
Ġ×Ķ× ¦
Ð°Ð»ÑĮ Ð½Ð¾Ð³Ð¾
à¶ ¸
Ġà¤« à¤¿à¤°
à°Ĥà° Ń
Ġd ÃŃ
Ġà¦ī à¦¦
âĢ¦ âĢ¦
Î¬Î½ ÎµÎ¹
Ġáĥ£áĥ ¡
en ne
ĠÐĲ ÑĢ
owan y
Ø ¡
à®¿à®ªà¯įà®ª à¯ģ
le m
Î» ÏīÎ½
ĠáĥĽ áĥĺáĥķ
h eit
Ġà¦¬ à¦¿à¦ķ
ĠÑĢ ÑĥÐº
áĥĺáĥ¡ áĥ£áĥ¤
ĠfÉĻ al
à´ ³
Ġà¤Ĩ à¤¦
Ġsp e
ĠÏĦÏģÏĮ ÏĢÎ¿
Ġpor que
Ġà°ħà°§ à°¿à°ķà°¾à°°
Ġme di
ë ¸
Ġh Æ¡n
Ġs im
æī§ è¡Į
é½ Ĳ
çĶµèĦĳ çīĪ
Ġà¸Ħà¸ ·à¸Ń
Ġà¸ Ĺ
«à¸¥à¸ ±à¸ģà¸
à¹ģà¸ Ł
ĠagèµĮåľº åİħ
2019 å¹´
Ĭà¸µà¸§à¸´à¸ ķ
Ġ/ /
à¹Ĩ à¹Ĩ
ļ à¸Ļ
Ħ à¹Īà¸²à¸
Ġà¸ĸ à¹īà¸²à¸
Ġà¤Ĩ à¤²à¥Ģ
Ð¸ÑĤÐµÐ»ÑĮ Ð½Ð¾
ĠÏĢ Î»Î®
Ġà¤ķ à¤Ī
ĠáĥĴáĥĲáĥľáĥª áĥ®áĥĲáĥĵ
à¯Īà®ļ à¯įà®ļ
ĠãĤ ¢
à§ĩà§Ł à§ĩ
ĠáĥĴ áĥ£áĥļ
Ġs iy
Ġà®®à¯ģà®Ł à®¿à®¯
ĠÎ¾Îµ Î½Î¿Î´Î¿
ç»ı èĲ¥
à¨¿ à©±à¨
Ġäºļæ¸¸å®ĺæĸ¹ ç½ĳ
Ľà¹ĩ à¸Ļà¹Ģà¸
Ġç ¨
à¸£à¸°à¸ļà¸ ļà¸
çĨ Ł
å± ı
è¿Ĳ åĬ¨
àª Ĥ
Ġçİ° åľ¨
æĶ¶ åħ¥
æĢ Ģ
Ġæ±Łèĭı å¿«3
Ġà¹ģà¸ ļà¸
Ġæ¾³éĹ¨ æĸ°
ä¹ĭ ä¸Ģ
à¸Ļà¸ °
è´ ¥
æĤ £
ä»¥ ä¸Ĭ
Ġæ ĳ
å°¼ æĸ¯
áŁ Ħ
Ġà¤®à¤¹à¤¾à¤° à¤¾à¤·à¥įà¤Łà¥įà¤°
¨à¸²à¸ ªà¸
Ġb j
çľŁ åģĩ
à¹Ħà¸¡à¹Īà¸ ¡à¸µà¸
æĪĸ èĢħ
?? ??
Ġà¤ļ à¤¾à¤²
ĠÙ¾ ÛĮ
Ġo Ã¹
à°° à±įà°²
ay an
wa Å¼
ĠÑĢ Ñĭ
ĠáĥĽ áĥĲáĥ¨
ÏģÎ¬ ÏĤ
Ġà®¨ à®²à¯įà®²
Ġà¦ķà¦° à§ĩà¦Ľà§ĩ
ĠÎ¼ Î¿Î½
hr en
Ð¸ÑĩÐµÑģÐº Ð¸Ñħ
ato ri
Ġë° °
áĥłáĥ £áĥļáĥĺ
à®£ à®®à¯į
ĠC o
ĠØ§ÙĦ Ùĩ
ĠÎĻ Î±Î½
Ġr ayon
Ġb elÉĻ
è¶ £
à¸Ļ à¹Īà¸²
ªà¸¹à¸ ĩ
Ġéĺ ¿
æ³¨ æĦı
±à¸ Īà¸
z h
Ġà¤ıà¤ķ à¤¾
Ïħ ÏĦÏĮ
×ķ× ĸ
j o
at u
ĠÐ¾ Ð³
Ġà°ķà±Ĭ à°¤à±įà°¤
Ġáĥł áĥĲáĥĽ
ÏĦ Î¯Î±ÏĤ
in den
Ġre la
Ú© ÙĦ
à§ģà¦· à§įà¦ł
ĠáĥĽáĥ¡ áĥĿáĥ¤áĥļ
nÃ© ho
ĠÎµ ÎºÎ±
Ġà®ªà¯Ĭ à®°
ë° ľ
Ġà°ħà°¨ à±ĩ
Ġp u
à· ĥ
à¶ ļ
à¤¾à¤ ī
li g
Ġà¦¨ à¦¤
ÐµÑĢ Ð³
t rze
ÎĻÎ ©
ĠÎº Î¿Î½
Ġv ax
b or
×ŀ ×ķ
Ġà°ı à°®
ĠÐ³ Ð´Ðµ
Ġà§ Ń
Ġà¤Ł à¥Ģ
áĥĲáĥª áĥ®áĥĲáĥĵ
Ġj ue
ĠÙĬ Øª
Ġb Ã½
ĠÙĤ ÛĮÙħØª
à§ĭ à¦ļ
Ġv iel
Ġà°ª à±ĩ
am iento
Ġë ĺ
ÙĤ Ùĩ
à¥ĩà¤Ĥà¤ Ĺà¥ĩ
ĠA u
ĠÏĩ ÎµÎ¹
à¦ĵ à§Ł
Ġk il
ãĤ °
ä¹ ĺ
æĢ§ çļĦ
Ġà¹Ģà¸¡à¸ ·à¹Īà¸Ńà¸
æ¡ £
åİŁ åĽł
å® «
åĬ ±
Ġå¿ ħ
éĶĢ åĶ®
ĺà¸¸ à¸£à¸
à¥ĭà¤ ¹
ĠG i
Ġà¦¬à¦¿à¦ ľ
ei d
Ġà®¤ à®µ
à°¾à°µ à±ģ
ĠÏĦ ÏģÎ±
Ġà°ķ à°¾à°¦à±ģ
ĠIt alia
ĠÑħ Ð¾ÑĤ
Õ ©
Ġe v
ĠáĥĲáĥ¡ áĥĶ
ķà¸ °à¸
Ġu u
è® ¢
å®¢ æľį
ĺ à¸´à¸
Ġ- -
áĥĶáĥĳ áĥĶáĥĳáĥĺáĥ¡
à¹Ĥà¸Ńà¸ ģà¸²à¸
Ġè¿Ļ äºĽ
åıĤ åĬł
Ġ ç½ĳç»ľ
éħĴ åºĹ
à¹ģà¸£à¸ ģ
è¿Ļ ç§į
à©į à¨°
å·¥ ä¸ļ
ä¸ĭè½½ _
à¤Ĺ à¤°
B O
Ġ ä¼ĺ
çŁ¥ è¯Ĩ
à¹Ģà¸£à¹ĩà¸ §
àª µ
Ĺà¸ ±à¸Ļà¸
ç½ ļ
ç ŀ
à¸£à¸°à¸ «à¸§à¹Īà¸²à¸
Ġä¸Ģ ä¸ª
ĆĈ ï¼Į
å¤§å¸Ī èµĽ
Ĺà¹Ī à¸Ńà¸ĩà¹Ģà¸
ĠUU å¿«ä¸ī
çĶ ¢
Ħà¸ ĩà¸
Ġçİ¯äºļag æĹĹèĪ°åİħ
èĦ ¸
æķĪ æŀľ
ĠæŀģéĢŁ pk10
à¤§ à¥Ģ
Ġentre pr
Î³ ÎµÎ½
Ġà°ļà±Ĥà° ¸
ĠÎ§ Î±
Ġs inh
Ġf ois
Ġà¦ĩà¦¸à¦² à¦¾à¦®
ĠÐ³ Ð¾ÑĢ
à®³ à¯įà®µ
à§İ à¦¸
à°°à±įà° Ĺ
ia da
×© ×Ļ×Ŀ
ÛĮ Ùģ
ĠÎĽ Î±
Î¹Î½ Îµ
à¥įà¤ ¬
I C
im ento
Õ ¹
ĠÕ Ħ
Ġm ÉĻh
ĠØ¨ Ø¹
áĥłáĥĹ áĥ®
Ð°Ð· ÑĭÐ²
w et
Ġc our
Ġà°®à±ģà° ĸà±įà°¯
Ġk ur
Ġëħ ¸
à®µ à¯įà®µ
m al
ĠÎ¿Î¼Î¬ Î´Î±
à¦° à¦¿
Ġc ada
ãĥ¼ãĥ Ī
a ti
ÑĪ Ðµ
Ġa Å¾
ĠÏħ ÏĢÎ¿ÏħÏģÎ³
ĠÎ¼ÎµÎ³Î±Î» ÏįÏĦÎµ
áº£ ng
ĠÙĨ Ø§Ùħ
Ġà¤¦ à¥ĭ
ë£ Į
ĠáĥĽ áĥĲáĥ¦
à°¿à°ķ à±į
r en
om me
ªà¸´à¸Ļà¸ Ħà¹īà¸²
Ġèī ²
çĽ® åīį
d f
ŀà¸ ļà¸
Ĥà¸Ńà¸ĩà¸ Ħà¸¸à¸ĵ
Ġæ »
Ġå¤§åıĳä¸ī åĪĨéĴŁå¿«ä¸ī
æĥ Ĭ
6 4
Ĳ à¸²à¸Ļà¸
èĽĭ èĽĭ
Ġ ä¹łè¿ĳå¹³
æ£Ģ æŁ¥
ĠagåĽ½éĻħåİħ ä¸ĭè½½
ç¾¤ ä¼Ĺ
å½© éĩĳ
æľī ä¸Ģ
æ³ķ å¾ĭ
¢à¸´ à¹Īà¸ĩà¸
ŀ à¸Ńà¸
æĺ¯ åĲ¦
à¹Ī à¸Ńà¸ĩà¸
Ĺà¹Īà¸Ńà¸ĩà¹Ģà¸ Ĺà¸µà¹Īà¸
è®¾ ç½®
«à¸¡à¸²à¸ °à¸
à¹ģà¸ķ à¹Īà¸ĩà¸
Ġç ³
è³ ĩ
5 7
Ġà¤® à¤¤
Ġjed nak
ki ÅŁ
ĠÑģÐ² ÑıÐ·
à¹ģà¸Ļà¸ §à¸
æİª æĸ½
à©Ģà¨ Ĩ
æľº åħ³
åĮº åŁŁ
à¹Ģà¸ «à¹ĩà¸Ļà¸
à¸Ļ à¹īà¸Ńà¸¢
éľ ĩ
è ľ
åı ¦
áĪ Ŀ
¹ à¸Ļà¸
¸à¸ ĩà¸
ou n
Ġ7 0
Ġ20 10
Ġ î
èĥ½ æºĲ
è£ ģ
Ġç ķ
Ġà¤¬ à¤¸
ìŀħ ëĭĪëĭ¤
is er
ar beit
Ġà®ĩà®²à¯įà®² à¯Ī
áĥĶáĥĽ áĥĲ
is mo
Î» Î¼
çŃ ¹
åħ± åĲĮ
é Ł
çĶ¨ äºİ
Ġà¸ Ŀ
åĪ¶ éĢł
à¥įâĢį à¤¯
od y
re i
Ġ") .
áĥĶáĥĳ áĥĵáĥĲ
ĠtÉĻÅŁ kil
Ġà¸ Ķà¸¹à¸
è¾ĵ éĴ±
åĬŀ åħ¬
Ġæĸ ¹
Ġà¤ħ à¤µ
ĠÏĦ ÏİÏģÎ±
Ġau tre
Ùĥ Ø§ÙĨ
Ġà¦¨à¦¤ à§ģà¦¨
ĠÐ¼Ð°ÑĤ ÐµÑĢÐ¸
Ġà®¨ à¯ĭ
ĠÐ» Ð¸ÑĨ
ĠØ§Ùħ Ø§
ĠÎµÎ¾ Î±
Ð¼ ÐµÑģÑĤ
czne j
Ġ ÅĻe
à±ģà° ·
im mer
ik an
Ġáĥ¡áĥĲáĥ®áĥĶáĥļáĥĽáĥ¬áĥĺáĥ¤ áĥĿ
Ġpro p
Ġ×Ķ× ĸ
à¦¦ à¦¿
ÑĨ ÐµÐ½
Ġ áĥĲ
à°¾à°² à±įà°¸
Î¬Î½ Î¹
f orm
Ġáĥ¡áĥĲáĥĵ áĥĲáĥª
Ġsu lla
Ð°Ð»ÑĮ Ð½Ð¾Ð¹
ÎĻ ÎŁ
ĠÎ ¨
ÏĢ Î¿ÏħÏĤ
Õ¡Õ ¼
un da
à¤ Ĩ
l au
i Äĩ
Ã ĸ
ĠÂ £Â¬
ĠV iá»ĩt
Ð½ Ð¸Ð¹
Ġà® Ī
Ãª m
Ġw aar
à°Ł à°Ĥ
Î¸ Î±Î½
ar on
Ġ ä¹ĭ
à¥įà¤¯à¤ķ à¥įà¤¤
Ġch am
Ġ×ĳ ×Ĺ
Ġon line
Ġm Ã¶v
Ġm ain
ĠÑĨ Ð²ÐµÑĤ
Ġà¦ªà¦° à¦¿à¦ļ
Ġst r
Ø± Ø§ÛĮ
ĠÐŀ Ð´
ãĤ »
áĥ¬ áĥĲáĥķáĥļ
ich er
Ġà°Ĵ à°ķà±įà°ķ
Ġm nie
Î¶ Î±
n ÄĻ
à°² à±įâĢĮ
à¯įà®¤ à®¾à®©à¯į
ĠáĥĽáĥ¡áĥĿáĥ¤áĥļ áĥĺáĥĿ
à¤¾à¤° à¤ĸ
el n
ĠÄĳá» ģ
Ġà°µà±įà°¯ à°µ
Ġà´ ®
Ġà¤¶ à¥ģà¤°
Ð½Ð¾ÑģÑĤÑĮ Ñİ
Ġsemp re
Ïĥ ÎºÎ¿
à¦¾à¦¨ à¦¿
ĠÙĬ Ùħ
Ġà®ª à¯Ĥ
Ġol ub
ar ge
ĠØªÙĪ Ø³
em e
Ġwy kon
ĠìŀĪ ìĬµëĭĪëĭ¤
iyy ÉĻti
Ġsta to
Î¡ Îĵ
ĠÏĢÏģÎ¿ ÏĬÏĮÎ½
c ciÃ³n
Ð¼ ÐµÑĤ
ãģ§ ãģ¯
dÄĽ l
Î²Î¿Î» Î®
Ġà°° à°¾à°®
Ġà°µ à°¾à°Ł
ĠÎ» Î¿Î³
Ġà¦¹ à¦¤à§ĩ
Ġw ÅĤa
v r
Ġju ga
ÏĦÎ± ÏĥÎ·
ay Ä±
×Ļ× Ĵ
Ħ à¸£à¸±à¸ļà¸
æķ° åŃĹ
à¥Ĥà¤ ¤
Ġnom bre
ÑĢÑĥ Ð¶
eit e
Îº Î·ÏĤ
Ïĩ Ïİ
áĥĲáĥ¨áĥķ áĥĺáĥļáĥĺ
p x
Ġáĥ£áĥ łáĥ
ÎĻÎ£ Î¤
ĠÎ» Î¿Î¹
ĠÎºÎ± ÏĦÎ·Î³Î¿
Ñ ĸ
Ð¾ÑģÑĤÐ¾ ÑıÐ½
k ÅĤad
à¯ģà®Ł à¯Īà®¯
áĥĺáĥľ áĥĿ
l Ã¤
ĠØ¢ Ø¨
ab a
ĠÎ¸ÎŃ Î¼Î±
áĥĺ áĥĶáĥļ
à¤°à¥įà¤ Ĺ
Y W
ag a
Î¸ ÎµÎ¹
Ð¿ ÐµÑĢ
Ġdal Å¡ÃŃ
à°¾à°¬ à°¾à°¦
à±įà°² à°¾à°¡
ĠÎķ Î¹
à¦¦ à¦¿à¦¨
Ġà®ªà¯Ĩ à®£
Î»Î¿Î³ Î¹Ïĥ
à®Ł à®¿à®¯
ĠÑģÐ¾ Ð¾Ð±Ñī
Ġà¦¬ à¦¾à¦°
áĥĶáĥ £áĥ
ĠÄ° s
Ġtut to
ĠáĥĲáĥ ĳ
i i
Ġtiemp o
ĠÏħÏĢÎ¬ÏģÏĩ Î¿ÏħÎ½
Ġ×ķ ×ľ
Ġuns er
Ġáĥ¡áĥĲáĥ£áĥ Ļ
Ġå¤§åıĳ åįģ
Ġà¹Ģà¸ ģà¸
çŁ ¿
æīĳåħĭ ä¹ĭæĺŁ
à¨¤ à©ĩ
ĠæĬ ¥
Ī à¸²à¸£à¸
æ» ĳ
áŀ ĸ
à¹īà¸²à¸ ¢à¸
ģà¸¥à¸ ±à¸ļ
Ġæ ¡
æĭ ¥
æ½ ®
åİĭ åĬĽ
à¸£à¸±à¸Ĳ à¸
Ļ æ±Ł
Ġà¸ªà¸³à¸« à¸£à¸±à¸ļà¸
å® Ĺ
å¨±ä¹Ĳ åľº
äºº æīį
à¸Ńà¸¢à¸¹à¹Ī à¹ĥà¸Ļà¸
ģà¸ İ
Ġà¤¯ à¤¾à¤Ĥà¤ļà¥įà¤¯à¤¾
Ġk l
Ġm at
ĠÙģ Ùī
ĠØ¨ ÛĮÙĨ
Ġà¤ĺ à¤°
Ġc ao
ÙĨ Ø³
à°° à±įà°¯
ĠÎ± Î¯
à§ģ à¦¤
ĠÐ¿Ð¾Ð¼ Ð¾Ñī
ĠÏĦ ÏĮÏĦÎµ
ĠE x
Ġà®ªà¯ĭ à®Łà¯įà®Ł
ĠÃ§ a
Ġg Ã©nÃ©
Ġq eyd
Ġl oro
ĠÏĥÎ· Î¼Î±
à´ µ
é¦Ļ èķī
åľ¨çº¿ è§Ĩé¢ĳ
Ġà¤¹à¥ĭà¤Ĺ à¤¾
¥ à¸´
Ġć ć
ĠNe ws
éĩį çĤ¹
è Ķ
Ġç§ ĳ
Ġà¤®à¤¾à¤¹ à¤¿à¤¤à¥Ģ
Ġáĥŀáĥł áĥĿ
ÐµÐ³ Ð¾Ð´
Ġg o
Ġáĥ¥áĥĲáĥłáĥĹ áĥ£áĥļáĥĺ
áĥĲáĥķ áĥĲáĥļ
Ġà°ľ à°Ĺ
Ġà°µà°¿à° ¡
à¯ģà® ¨
at Ä±
Ġl ie
Ġåĩ¯åıĳ app
Ľ à¸µà¸
Ġæ¹ ĸ
Ġà¤¶ à¤¹
Ġn Ã¡s
Ø±Ùĥ Ø©
Ġada lah
Ġà¦® à¦¾à¦¸
Ġ×ľ ×§
Ġm Ã¬nh
Ġà®¨ à®¿à®©
Ġà°µ à±ĩà°
ni ng
ĠÎŃ Î³
ĠÐ¸ ÑģÐº
áĥĺáĥĵ áĥĶáĥľáĥ¢
ĠÅŁ ÉĻhÉĻr
Ġë Ĩ
Ġáĥ¡áĥĲáĥ Ń
r Ã¤
ki m
Äį e
ĠÎĵ Îµ
pa Ã±
Î½ Î¿Ïħ
à¯Īà®¯ à®¾à®©
ĠÙģÛĮÙĦ Ùħ
à¦¾à¦ ·à§įà¦Ł
ÐµÐ½ Ð½Ð¾Ð¹
æģ ©
à¹Ģà¸ Ĺ
ªà¸ Ķ
Ġæ £
Ġáĭ ¨
èµļ éĴ±
åĬł çĽŁ
æľĢ å¤§
æĪĲ æľ¬
éĢ Ķ
èĳ £
åĪ© æĿ¥
à¹Īà¸²à¸ ĩ
à¨¾à¨ ¨
à¤² à¥įà¤¯à¤¾à¤
Ġm Ã¶
ow Äħ
n os
Ġáĥ¡áĥĲáĥĻ áĥĺáĥĹáĥ®
ch Ã©
ÙĨ Ø¬
Î¹ÎºÎ¿Ïį ÏĤ
áĥłáĥ Ľ
ìł Ĳ
un to
Ġ ÅĻÃŃ
Ð¾ÑģÑĥÐ´ Ð°ÑĢ
Ġkh o
Ġà¤ķ à¥įà¤¯
Ġg eÃ§
Ġgra tu
×ķ× ļ
áĥĵ áĥĺáĥļ
ÏĢÎ¿Î¯ Î·
Ġgi bt
I S
Ġcom ment
à¦¹ à¦¾à¦°
Ġm ÉĻq
Ġcon tra
ĠØ¬ Ùħ
à°ķà±įà° ¸
¡ à¸´
ŀà¸£à¸ °
Ĺà¸ ¸à¸ģ
åĽ½éĻħ å¹³åı°
ĠæŃ ¦
Ġà¤ļ à¤¿à¤¤à¥įà¤°
Ġc v
f in
ĠÐ¡ Ð¿
Ġr y
ĠÎķ Îļ
Î¬Î½ ÏĦÎ·ÏĥÎ·
Ġs ia
ãĥ Ł
Ġj in
Î³ Î¿Ïħ
ÐºÐ° Ñħ
áĥĲáĥĽ áĥĲáĥłáĥĹáĥļ
ä¸ĭè½½ å®īè£ħ
à¤ ģ
ar t
Ġà°ªà±įà°° à°¤à±įà°¯
Ïĩ ÎŃÏĤ
ĠíĮ Į
à®¾à® ¨
ĠØ§ÙĦØª Ø¹
Ġe qu
Øª ÙĪØ§ÙĨ
ĠáĥĿáĥłáĥĴáĥĲáĥľ áĥĺáĥĸ
jÄħc ych
Ġà®ī à®²à®ķ
ĠÑĩÐµÑĢ ÐµÐ·
ĠÏĥ Ïī
ĠRespub lik
ĠR us
Ġan der
à¦¿à¦Ł à¦¿
Ġ×Ĳ ×Ĺ
áĥĲáĥ¬ áĥ§áĥķ
Ġà°§ à°°
Ø§Ø± Ùĥ
Ġg ener
ĠÎĺÎµ ÏĥÏĥÎ±
Î¼ ÎŃÏĤ
ãĥ³ ãĥĪ
ĠtÉĻrÉĻf indÉĻn
áĥĿáĥª áĥĲ
à°¤ à±įà°¸
Ġh e
ĠÑıÐ² Ð»ÑıÐµÑĤÑģÑı
Î» Î¿ÏħÏĤ
ĠëĲ ĺ
§ áĥĶáĥľ
an iz
Ì £
Ġngh iá»ĩ
ÎµÎ¯ ÏĦÎµ
Ø§ Ùĥ
à§įà¦ Ń
z enÃŃ
èĥ ŀ
å© ·
áĢ¬áĢ ¸áĢ
±à¸ ģà¹Ģà¸
å¿« éĢŁ
à¹Ģà¸¥à¸·à¸Ńà¸ ģà¸
à¤³ à¥Ģ
Ġm el
ĠÃ§ ÉĻk
Ġa ch
Î³ ÎŃÎ½
Ġf ar
à®ķà¯įà®ķ à®®à¯į
Ġáĥķ áĥĲáĥł
il itÃ©
Ġzna j
Ġà¤¤à¥įà¤¯à¤¾à¤Ĥà¤ ¨à¤¾
à´ ²
Ġà¤ªà¥ģà¤² à¤¿à¤¸
Ø¹ Ø±
Ġà°®à°¾à°Ł à±įà°²à°¾à°¡
Ġg ar
ĠÎ±Î¾ Î¹Î¿
Ġà®ī à®¤
ìĿ´ ìĬ¤
á»¥ c
" #
ĠáĥĿ áĥĹ
ÐµÐ½ÑĤ Ð°
×ĺ ×¨
er s
at ti
ĠvÅ¡e ch
ĠÎ»ÏĮÎ³ Ïī
Ġà¤ļ à¥ģà¤¨
ãģ Ń
Ġìł Ģ
ÉĻn i
Ø§ÙĦ Ø©
ãĤ §
Ġà¤¹à¥ģà¤ Ī
Ġin tÃ©r
ĠÐ» Ð¸
ĠÙĨØ¸ Ø±
è¯ ¯
æ ¾³éĹ¨
à¸²à¸ªà¸´ à¹Ĥà¸Ļ
Ġ3 åĪĨæĹ¶æĹ¶å½©
å¾Ĺ åĪ°
ĠçĤ ¹
Ġà¸ľà¸ ¡à¸
àª ķ
Ġèĩ ³
åı° æ¹¾
è§Ħ åĪĴ
Ġá į
Ġ) (
éķ ·
Ġ1 åĪĨæĹ¶æĹ¶å½©
è°ĥ æķ´
à¹Ģà¸Ļà¸ ·à¹Īà¸Ńà¸ĩà¸
Ĭ à¸Ńà¸ļà¸
Ġå¤§åıĳäºĮ åĪĨéĴŁå¿«ä¸ī
Ġà¤ªà¥įà¤° à¤®
ĠáĥĽ áĥĺáĥ£áĥ
Ġre aliz
ÑĨ Ð¸Ð¹
Ġs ar
Ġà¦Ĩ à¦¶
ĠÕ ©
ĠÖ ĩ
kiÅŁ af
Ð¸Ð± Ð¾
ÏĦÎ¹ Î¬
j u
Ġà®¤à¯Ĩà®° à®¿à®µ
à±Ĩà°Ł à±į
ĠPar is
to ire
Äį et
ĠØ§ Øµ
Ġemp res
Ġse Ã§
à´¿à´ ¯
Ġà¤Ł à¥įà¤°
Ġcom un
f ach
Î» Î±Î½
ĠÐ´ Ð°Ð¶Ðµ
í ĳľ
Ġà¦¸ à§įà¦Ł
ĠÄĳá»ĵ ng
Ġà®Ĩ à®¯
ĠP os
ĠrÃ© g
Ġs ÉĻr
ic ato
ÙĢÙĢ ÙĢÙĢ
ĠÙĪ Ø³
p ra
Ġáĥĺ áĥĹ
Ġë ¡
à°² à°Ĥ
ur ante
Ġg en
Ð¿ÑĢÐµÐ´ ÐµÐ»
Ø§Ø² ÛĮ
Ä ı
áĥĶáĥłáĥ ¢
Ġs obie
á»ĳ t
c ri
ĠdÃ© p
ĠÎµÏģÎ³ Î±
æĿ¥ è¯´
à¤¾à¤² à¤¯
à¯Īà®¯ à¯ĩ
ÑĥÐ± Ð»Ð¸
Î¿ Î´Î¿
à±įà°¸ à±įâĢĮ
ob a
à¥Ĥà¤ Ł
Ġ×ŀ× ĵ
Ġáĥŀáĥĺáĥłáĥķ áĥĶáĥļ
Ġik ke
ĠØ§ÙĦØ º
ĠÑģÐ¿ Ð¾ÑģÐ¾Ð±
ĠØª ÙĪÙĦ
Ġà°¸ à°Ĥà°¦
lar da
Ġ rze
it el
à¦°à§įà¦ ľ
ĠÎĶ Îµ
Ġìĺ¤ íĶĦíĻĶìĿ´íĬ¸
Ġíı ī
Ġà®ĩà®°à¯ģà®ķà¯įà®ķ à¯ģà®®à¯į
ck en
ÏĦÎŃ ÏģÎ±
i de
ĠÙ¾ Ø³
çľŁ å®ŀ
ag 88
ķà¸±à¸§ à¹Ģà¸Ńà¸ĩ
Ġà¹Ģà¸¡à¸ ·à¹Īà¸Ń
ĠI P
s b
æŀ ª
¡ à¸Ńà¸ĩà¸
è¿Ļ ä¸Ģ
èĢ ³
è· ¨
ä¸ĭ çļĦ
à¸´à¸ ĩ
éĽ ħ
ä¸Ĭ å¸Ĥ
à¥Ĥà¤ ®
Å¯ m
ÏĢ ÏģÎ¿
Ġáĥ¡ áĥĲáĥľ
Ïĩ Î¿ÏĤ
ìĹĲ ê²Į
Ġà¦Ńà¦¾à¦° à¦¤
Ġéĵ ¶
Ġà¤ł à¤°
ou pe
Ñĭ Ð»
ÏĦÎ¯ Î¿Ïħ
rÃ³ d
uy á»
Ġà°ª à±Ĥà°°à±įà°¤
Ð°Ð»ÑĮ Ð½ÑĭÐµ
à§ĩà¦ ¹
f ica
ÏĦÎ® ÏģÎ¹Î¿
Ġdies e
ãĤ ¨
is es
ĠÏĨ Ïį
ĠáĥĽáĥĺ áĥĺáĥ¦
Ġna d
Ġil dÉĻ
ÑĢ Ð¾Ñģ
bi h
ç»ı éªĮ
ä¼ļ åĳĺ
à¥ «
Ġl ors
à¦°à§įà¦ ¶
à°¿à°Ĥà° Ł
ĠØ§ÙĦÙħ Ø´
ĠÎŃ ÏĦÏĥÎ¹
à¤¿à¤ Ĺ
à®¤à¯įà®¤ à®¿à®¯
ĠÐ½ÑĥÐ¶ Ð½Ð¾
sch en
ĠÎº ÏģÎ¯
Ġthe o
ĠÚ© ÙĦ
Ġa h
ì ¶ľ
Ġy Ä±l
ĠÎł Î¬
áĥĲáĥĵáĥĴ áĥĲáĥľ
Ġg dy
× ¥
ĠÎ´ ÏģÎ±
Å¾ d
an cia
ĠÐ¿ÑĢÐ¾ ÑĦ
ĠÐ¡ Ð
Ġà®İà®´ à¯ģà®¤
Ľà¸£à¸ °
Ġå¿« éĢŁ
éĹ Ń
åıĤ ä¸İ
å®Ŀ é©¬
à¥ĩà¤¹ à¥Ģ
Ø¯ Ø¯
Ġà§ ·
à¦¿à¦¬ à¦¾à¦°
Ġà°ı à°°à±įà°ª
Ġs enza
áĥĶáĥł áĥĺáĥĿ
Ġà®ĩ à®©
Ġà´ ¨
Ġà¤µ à¥ĩ
à§ĩà¦® à§įà¦¬à¦°
ĠÏĢ Ïħ
ì »
Ġk Ã¶
Ð¸ÑģÑĤ ÑĢÐ°
Ã į
al o
à¦¦à§įà¦ ¦
Ġì Ī
Ø¨ ÙĨ
ãĤ ª
Ø§ÛĮ ÙĦ
à°¿à°¨ à±į
Ġa f
Ġà¤¯ à¥ĩà¤£
ĠÐºÑĢ Ð°Ñģ
Ġ×ŀ× Ľ
à¯Ĭ à®´
Ġl iv
ĠÐ´ Ð¸
ĠØ° ÙĦÙĥ
ĠK on
áĥĿáĥ¡ áĥ¢
ĠÎ± Î»Î»Î±
Ġà¦ķà¦° à§ĩà¦Ľà§ĩà¦¨
it er
ĠÐ¾ Ð½Ð°
á½ Ĳ
ÏĢÎ±Î¹ Î´ÎµÏħ
ÏĦ ÏīÏĤ
è´¦ åı·
æİ¥ åıĹ
å¦ »
¯ çĭĤ
Ġï¼ģ âĢĿ
è¨ Ń
åħ¬åĬ¡åĳĺ èĢĥè¯ķ
.. .
éĹ ²
Ľà¸ ı
è¶ħ è¿ĩ
çĥ Ł
æĲ ľ
ª à¸Ńà¸ļà¸
łà¸ ¹à¸
Ġå ¦
èĦ ļ
ä½ł çļĦ
Ġäºļæ¸¸éĽĨåĽ¢ app
éĺ µ
æĹł æ³ķ
å»º ç«ĭ
åºĶ è¯¥
Ġà¤® à¤§à¥įà¤¯à¥ĩ
cz nych
ĠíĶ Ħ
áĥĶáĥľ áĥĵ
Ġà°Ĺà±ģà°° à°¿à°Ĥà°ļà°¿
lÄ± ÄŁ
ĠÎĶ ÎĹÎľ
ÏĢÎ¿Ïħ Î»Î¿ÏĤ
à§ĭ à¦·
ÑĨ ÐµÐ²
Î»Î¿Î³ Î®
d t
z n
Ġin s
ĠÎľ Î¬
Ġáĥł áĥĲáĥĵáĥĴáĥĲáĥľ
aus s
ĠØ§ÙĨ Ø¬
Ġd ÃŃa
Ġde puis
ĠÑĤ Ð¾ÑĢ
ÎŃ Î»
Ġc Ã²n
at ta
ĠáĥĴ áĥĺáĥĿ
áĥĲáĥķ áĥĹ
Ġà¦ ł
Ġà°¨à°¿à°° à±įà°µ
Ġla t
ĠÐŁÑĢ Ð¸
da de
Ġà°¤à±Ĩà°² à±ģà°Ĺà±ģ
Ġà°¹ à±Ģà°°
id ent
ĠÐ£ Ðº
ÐµÐ½ Ð¾
Ġà°®à°° à±ĭ
Ġà¤īà¤¨ à¤ķà¥ĩ
à¯Ĭ à®£à¯įà®Ł
as iya
ĠÏĨ Î¹
ĠÃ§ alÄ±ÅŁ
ÙĬ ÙĪ
Ġìļ° ë¦¬
orma ciÃ³n
Ġà®ĩ à®ªà¯įà®ª
Ġà°īà°¨à±įà°¨ à°¾à°¯à°¿
gl io
Ġà¦ª à§ģà¦°
ĠÎ¬ÏģÎ¸ ÏģÎ¿
Ġd ro
ÏİÎ½ ÏĦÎ±ÏĤ
Ġáĥŀáĥł áĥĿáĥĴ
ĠÑģ ÑĥÐ´
ĠL o
ĠØ®Ø± ÛĮØ¯
áĥ£áĥłáĥ ķ
×ľ ×Ļ×Ŀ
Ġà®ª à¯ĩà®°
ÎµÏĢ Î¹Ïĥ
ar ro
Ġv Å¡
ìĭ ¬
à¤¯ à¥ĩ
Ġà¦ļ à¦¾à¦²
à¥įà¤Ł à¤°
Ġa ÄŁ
ĠDe utsch
ĠØ¯ ÙĪØ±
Ġcomm un
on i
Ð¸ÑĤ ÐµÐ»ÐµÐ¹
Ġf ra
ÏĢÏĮ Î½
ĠÏĨÏī ÏĦÎ¿
á»ĳ n
ĠÙĪ ÙĤ
ĠK om
Ġà®® à®£
ĠáĥĽ áĥ¬
Ġë¬ ´
ãģķ ãĤĵ
ĠÎ§ ÏģÎ¹Ïĥ
Î¿Ïį ÏĤ
à´ ¸
æĪĲ äºº
å½± éĻ¢
Ġà¤¬ à¤¡à¤¼
ÐµÑĢ ÑĪ
Ġáĥĵ áĥĲáĥª
Ġà°¸à°Ĥà° ¬
à§ĩà¦ Ĺ
Ã© tÃ©
ãģ« ãģ¯
áĥĲáĥ¥ áĥķáĥ¡
Ġáĥł áĥĲáĥ¡
ou w
ĠÏĨ Î¯
Ġhab e
Ġmi esz
Ġ259 45
ãĢ ĳ
ŀà¸£à¸²à¸ °à¸
ķà¸£ à¹Į
Ġà¤ªà¥įà¤° à¤µ
c en
ĠØ§ÙĦ Ø²
ÉĻy i
Ġmo ins
u kan
ĠB es
ÏĨ Î±Î½
Ġun o
Ġby l
Ġìĸ ĳ
à®¤ à¯ģà®®à¯į
Ð°Ð»ÑĮ Ð½Ð¾
ĠÏĢÎ±Î¹ ÏĩÎ½
áĥĿáĥķ áĥĲáĥľáĥĺ
= >
ĠÎĴ Î±Ïĥ
ĠÐ¶ ÐµÐ½
ĠÐ· Ð°Ð½
Ġgi bi
ĠC zy
Ġà°¨ à°¿à°²
Ġà®ª à®¾à®Ł
Ġt ej
Ġn Ãªn
×ĳ ×Ķ
ÏĮÏĦÎ· ÏĦÎµÏĤ
ìĺĪ ìķ½
ìłģ ìĿ¸
Ġà®ĩà®° à¯ģà®ªà¯įà®ª
ĠG es
à¥įà¤Ł à¥Ģ
ĠáĥĲáĥłáĥ¡ áĥĶáĥĳ
Ġm al
Ġde ze
à¦¿à¦ ¹
à¥ģ à¤¦
to p
Ø Į
ĠÎºÎ± Î¸Î·
âĢĮ à°¨
à±Ĩà°ķ à±įà°Ł
ĠÐ¿Ð¾Ð· Ð²
à°¸ à±įà°¸
Ġin d
ÏģÎµ Ïį
ĠÐ³ Ð»
áĥķ áĥĹ
szy ch
ĠØ´ ÙĨ
ÎĻÎ ¡
ĠÎ¬Î» Î»Î¿
Ġm ir
à°ķ à°¾à°¶
sch ie
ĠÐł Ð°Ð·
à¤°à¥įà¤ ¸
ĠÐ³Ð¾Ð´ Ñĥ
à¯ģà®® à¯ĩ
ab ilir
Ġ×ŀ× ĳ
á¿Ĩ ÏĤ
ĠÎ· Î»ÎµÎº
Ġáĥķ áĥĺáĥĵ
ĠØ§ÙĦÙĬ ÙĪÙħ
à§ĭ à¦ª
Ġà°Ł à±įà°°
Ġpr ostitutas
Ġha ce
k ÉĻz
di tion
ĠÎ¦ ÎµÎ²
iz io
Ġdz iaÅĤ
ĠÎ´ Î¯
ĠØ§ Ø®
ka ch
Ġëĺ Ĳ
Ġje ho
Ġbu en
t ant
ĠÏĢ ÎŃ
ĠÂ ½
Ġmá» Ľi
Ġà¤«à¤¿à¤² à¥įà¤®
ĠáĥĽáĥĲáĥĹ áĥĺ
à¤ķ à¥ĭà¤Ĥ
aÄŁ a
ĠØª ÙĨ
Ġpu Ã²
tiv os
Ġsp ra
ĠÎķ Î¾
ĠH e
ĠÏĢÎµÏģÎ¯ ÏĢÏĦÏīÏĥÎ·
à¦¿à¦ §
ĠÐ¼ Ð¸ÑĢ
Ġà®ħà®± à®¿à®µ
Ġa insi
áĥ¡ áĥĺ
las t
Ïĥ ÏīÏĤ
ka t
Ġãģ Ĭ
ĠM Ã¼
Ġà¤¸à¤¿à¤Ĥà¤ ¹
à¥įà¤² à¥Ģ
×ĵ ×Ļ×Ŀ
ti ng
Ġà¤ķà¤° à¤¤à¤¾
áĥķáĥĶáĥļ áĥĺ
Ġc Ã¡ch
idad es
Ġa by
à°¸ à±įà°¥
Ġm ein
Ġar tic
ãĥ ĳ
ĠÃ©qu ip
Ã¤ hr
Ø§Ùģ Ø©
Î¯Î¶ ÎµÏĦÎ±Î¹
ĠÐ¸ Ñģ
ĠÙħ Ùĩ
dad es
à¦¾à¦ĩ à¦¨
dÄ± m
Ġáĥĺáĥ§ áĥĿáĥ¡
Ġpr ov
Ġ201 1
Ġ ÏİÏģÎ±
Ġà®ķà¯Ĭà®£à¯įà®Ł à¯ģ
çĶŁ èĤĸ
áł Ń
«à¸¥à¸ ±à¸ĩ
åı· çłģ
à¹ĥà¸ Ħà¸£
Ġåħ ·
éĹ ľ
à¹ģà¸£à¸ ģà¸
Īà¸°à¸ ¡à¸µà¸
Ġà¤ħà¤¸ à¤¾
l Ã¼k
Ġê³ Ħ
Ð¾Ð± Ð°Ð²
Ġà¦® à¦¨à§ĩ
à°¡ à°Ĥà°¤à±ĭ
ĠÑĥÑģÑĤ Ð°Ð½Ð¾Ð²
à¤¨ à¤²
p en
Ġà°° à±Ĥà°ª
Ġà®µ à®ķ
p od
ÏĢÎ¿ Î½
ĠØ³ Ø§Ø®Øª
ĠÐĺ Ð·
Ø§Ø¹ Ø©
à°ªà±įà°ªà°Ł à°¿à°ķ
ie ur
áĥ¯ áĥĲáĥ®
Ïħ Î¼Î±
ìĹ Īëĭ¤
Ġ×ŀ× ¦
à§įà¦² à¦¾à¦¹
ĠÑĢ Ð¾Ð´
ag l
à¤ķà¥įà¤· à¤¾
à¦¾à¦·à§įà¦Ł à§įà¦°
ĠP re
Ġq ÉĻb
Îº Î±Î¹
Ġ ãģ¨
Ġà´ ħ
Ġà¤ħ à¤ļà¥įà¤Ľ
Ġáĥ¢ áĥĶáĥ¥
è¿Ĳ èĲ¥
æĺ¯ åľ¨
å¿ħ é¡»
Ġä»Ĭ æĹ¥
Ġw 66
åĪĨ 3d
åĢ Ĵ
äºĭ æĥħ
à¹Ģà¸Ī à¹īà¸²à¸
ªà¸ ±à¸ĩà¸
ç»Ł è®¡
±à¸Ļà¸ ĺ
¢à¸ ¸
Īà¸ ³à¸Ļà¸
ĠæĢ İ
è¾¾ åĪ°
à¹ĥà¸ ķ
à¹Ģ à¸Ńà¸µà¸
à¥ģà¤ķ à¥įà¤¤
il s
Ġw ym
ĠÐŁ Ð¾Ñģ
Ġsu a
ĠÎµ ÏĢÎ¿
ĠáĥŀáĥłáĥĿ áĥĶáĥ¥áĥ¢
Ġáĥĺáĥ¡ áĥĶ
Ġk an
ĠÃ ´
d es
Ġà®ª à¯ģà®°
Ã¼s us
Ġà¦ľ à§Ģà¦¬
ĠØ® ÙĦØ§ÙĦ
Ġáĥł áĥĿáĥĵáĥĶáĥ¡
Îµ Î¸Î½
Ġà¤Ńà¤¾à¤ľ à¤ª
æĲ Ń
à¸Ńà¸¢ à¸²à¸ģ
Ľà¸£à¸°à¸ ģ
ķà¸ ³
ģà¸²à¸ ¨
åĮ» éĻ¢
Ĺà¹Īà¸² à¸Ļ
Ĺà¸± à¹Īà¸§
Ġè İ
çĳ ŀ
Ġä¸į è¿ĩ
æ¸¸æĪı ç½ĳåĿĢ
åħ §
å¹´ æĿ¥
ä½ľ åĵģ
Ġà¤¸à¤Ĥà¤ ĺ
ĠØµ ÙĪØ±Øª
u ta
ÑĢ Ð°Ð±Ð¾ÑĤ
à¹Ģà¸ Ĺà¸
Ġà¸ªà¸ ¹à¸
Ġà¤¹ à¤ľ
wer t
Ġsu is
ĠÐ³ Ð»Ð°Ð²
Ïĥ ÏĮ
Ġà¦¨à¦¿ à¦°à§įà¦
ier ung
ĠM er
×ķ×¨ ×Ķ
Ġà®ķà¯Ĭ à®³à¯įà®³
à±Ģ à°®
Ġm er
Ġj eszcze
ĠØ Ľ
Î¹Î¿ Î½
Ġà¤µ à¥įà¤¯à¤ķà¥įà¤¤
Ġà°® à°¾
ĠÐ¾ÑĤ Ð²ÐµÑĤ
Ġr Ã³Å¼
Ð¼ Ð¸Ð½
Ġà°¨ à°Ł
à±ĥ à°¤
Ġc ent
Õ¡Õ ²
Õµ Õ¡Õ¶
lÉĻn dir
Ð¿ Ð¾Ð»
iá»ĥ u
± ħ
Ġs el
ĠÎ¬ Î»Î»Î±
áĥĿáĥª áĥĺ
ÅĻ ej
ĠÙħ Ø§Ùĩ
Ġas ÃŃ
áĥĶáĥĵ áĥĺ
ĠØ§ÙĦÙħ Ø¹
ãĥ Ĭ
å¸ Ŀ
åįı è®®
Ġà¤µ à¤°
ĠB aÅŁ
Ġl u
Îµ ÏĦÎ¬
íķ© ëĭĪëĭ¤
à¦® à¦¿à¦ķ
à¯įà®Ł à¯į
Ġo hne
ĠÃ©g alement
Î½Î¿ Î¯
ĠáĥĲáĥ ¤
l ad
×Ļ×¨ ×ķ×ª
à°Łà±įà°Ł à±ģ
Ġver ir
Ġà°ĩ à°Ĥà°ķ
ÑĢ Ð°ÑĤÑĮ
y e
à¦¿à§Ł à¦¾à¦°
ĠÏĢÎ¿ Î»Î»Î¬
ĠÐ¾Ð±Ð»Ð°ÑģÑĤ Ð¸
åľ¨çº¿ ä¸ĭè½½
Ī à¤²
m it
à¥ĩà¤¨ à¥ĩ
ĠØ¨ Øª
ĠáĥĲáĥ¦ áĥľáĥĺáĥ¨áĥľ
lla h
Ð¸Ðº Ð¾Ð²
Ġà¦ħ à¦§
ĠÕ Ń
ĠÅŁ ÉĻr
ÙĪÙĨ Ùĩ
on na
Ġac qu
ĠÎ±Î½ÏĦÎ¹ Î¼Îµ
ĠpÅĻ es
à¯ĭ à®ķ
ãģ§ ãĤĤ
ÑĢ Ð¾Ð¿
ĠÎµ Ïį
ĠØŃ Ø³
Ã¤ l
ĠØ¢ÙħÙĪØ² Ø´
à®¾à® ¨à¯įà®¤
Ġl ib
à¹Ħà¸ Ĺà¸¢à¸
Ħ à¸Ń
Ġå¾· æīĳ
Ġà¤¬ à¥ĭà¤²
ÅĤu g
Ġw orden
Ø¯ Ø§
ĠÏĢÎ»Î· ÏģÎ¿ÏĨÎ¿
Ã¶ l
Ġìĺ ¨
Ġà§ ®
ÙĪ Ùī
Ġmay or
Ġáĥ¤ áĥĶáĥ®
ĠÐ¿Ð¾Ñģ Ð»ÐµÐ´
Ġà¦¨ à§Ł
ãĥ ĵ
Î¯ Î´Î¹
à´ £
à¤ķ à¤¾à¤°à¥Ģ
anÃ§ ais
à¦¾à¦ Ľ
Ġáĥŀáĥł áĥĶáĥĸ
ë¥ ¸
Ġv ip
ªà¸ ·à¹īà¸Ńà¸
à¹Ģà¸ª à¸Ļ
§à¸ ¥à¸²à¸
10 æľĪ
ĸà¸ ·à¸Ńà¸
è° ¢
à¹Ģà¸ «à¸¡à¸·à¸Ńà¸Ļà¸
à¤¡ à¥Ģ
Ġáĥ¥áĥĲáĥļ áĥĲáĥ¥
zion ale
ĠÙħ Ø·
ĠÐºÐ» Ð°ÑģÑģ
Î½ ÎµÏĤ
i tion
Ã¡ ÅĻ
Ġs á»Ń
Î¼ Î¹Ïĥ
Ġm y
Ġ. ,
Ö ¼
×Ļ×¨ ×Ķ
Ĥà¹īà¸²à¸ ĩà¸
Ġà¸ª à¸´
áĭ į
Ġåħ Ī
Ġpok erstars
æı Ĵ
ä¸» é¢ĺ
àª ®
èĲ½ å®ŀ
Ĭà¸ ±à¸
Ġæ¾³éĹ¨æĸ° èĲĦäº¬
åĽł ä¸º
Ľà¸¥à¸µà¹Īà¸ ¢à¸Ļ
à¤ľ à¥Ģ
ÑĤ Ð°
Ġg io
Ġà¦ĩ à¦¨
à¯Īà®¤à¯įà®¤ à¯ģ
Ø±ÙĬ ÙĤ
Ġt ÉĻq
Ø¨ Ø§
ĠÏĢÎ¬Î½ ÏĦÎ±
à¤ª à¥Ģ
à±ģà°¤ à±ĭ
w od
Ġme ille
ĠâĢ ¢
Ġna bÃŃ
Ġtr as
ach t
ĠÎŁ Î¹ÎºÎ¿
ĠÎºÎ± Ïģ
Ð°Ð¹ÑĤ Ðµ
Ġkull an
Ġà¦Ĩ à¦¨
à°¦ à±įà°§
Ġd ont
ĠáĥłáĥĿáĥĵáĥĶáĥ¡ áĥĲáĥª
ÑĢ Ð°Ð´
Ġà¤°à¤¾à¤ľ à¥įà¤¯
Ã µ
ĠÎ±Ïħ ÏĦÎ¿Ïį
à®£à¯įà®Ł à¯ģà®®à¯į
es ab
cz ny
ãģ ļ
ĠØ¨ Ø³ÛĮ
ķ à¤¿
Ġes pe
ÎĻ ÎŁÎ¥
ĠÎ¿ Î»Î¿
à¦¾à§ľ à¦¾
ĠU hr
p rze
ĠÑĢ Ð°Ð¹
Ġsu o
Ġpr v
Î¾ Î±Î½
Ġà¦ķà¦¾à¦ Ľà§ĩ
ŀà¸ ±à¸ģà¸
æĬ ĺ
Ġåķ Ĩ
ļ à¹īà¸²à¸ĩ
à¹ĩà¸ Ķ
Ġå¦Ĥ ä½ķ
Ġæİ ¥
§à¸±à¸ Ķà¸
Ġà¸ Ĭà¸±
èĭ ¦
æ¬¢ è¿İ
ĺ à¸µ
æł¸ å¿ĥ
å®ŀ éĻħ
à¹Ģà¸ª à¸µà¸¢à¸
Ġà¸ ¨
è´µ å®¾
à¤¾à¤µ à¥Ģ
×ķ×ł ×ķ×ª
hl en
ue lle
Ġà°ļ à±ĩà°°
ĠÏĥÏħ Î¼ÏĢ
Ġy Ã¼k
ĠÐ¿Ð» Ð°Ð½
Ġè¯Ħ è®º
Ġåľ¨ çº¿
è¿ ª
æ· ·
åı¬ å¼Ģ
ç¢ °
ģà¸ ¤à¸
å¤§ ä¼ļ
ªà¸²à¸ §à¸
ļà¸²à¸ ¢
Ġ9 18
éĩ Ĭ
èµĦ äº§
ķà¸ ±à¹īà¸ĩà¸
é ĳ
ä¿Ŀ æĮģ
Ġà¨µ à¨¿à¨
Ġà¤µ à¤¾à¤ªà¤°
Ġd nia
Ġà¦ħ à¦ªà¦°
ul o
Ġà®İà®©à¯įà®ª à®¤à¯ģ
Ġ ÏĪÎ·
ol es
c Ã³w
Ġc li
Ġ" ,
ĠÙĪØ§ÙĦ Øª
ĠáĥłáĥĿáĥĽáĥļáĥĶáĥĳ áĥĺáĥª
ĠÎ± Î´
Ġfon ction
ÎĻÎ ĸ
Î» Î®ÏĤ
Ġà°ĩ à°ªà±įà°ªà±ģà°¡à±ģ
Ġge w
Ġa Ã±o
Ġà¤¬ à¤ļà¥įà¤
íķĺ ìĹ¬
Ã¡ le
à°² à±ĩà°¦à±ģ
à¦ ĺ
iá»ĥ n
i O
Ġd ru
ĠÎĶ ÎĻ
Ïĩ Î¹Ïĥ
ang e
ĠÙĪ Ø¹
ĠCh at
id mÉĻt
áĥĶáĥĳáĥĶáĥļ áĥĺáĥĲ
Ġvi da
à¬ ¾
à¤¾à¤¤ à¤¾
ĠÐ²Ñģ ÐµÐ³Ð¾
à°ķ à°Ĥ
Ġp eng
Ġë§ İ
×© ×ª
ĠP r
ÏĢ Î»Î±
à§įà¦¯ à¦¾
ãĤ ĥ
ÙĬ Ùĩ
Ġc an
ãĤ¤ ãĥĪ
Î¹Î¬ ÏĤ
Ġà°ªà±ĭà°² à±Ģà°¸
ĠÙħØ¯ ÛĮØ±
j ours
ee ft
è§Ħ æ¨¡
æľŁ éĹ´
à¹Ģà¸ķ à¸Ńà¸£à¹Į
§à¸ Ķà¸
à¥įà¤ ł
ti tu
Ð² Ð¾ÑĢ
ĠØ§ Øª
ĠáĥĿ áĥłáĥĺ
ĠÐ¿ÑĢ Ð¾ÑģÑĤÐ¾
k tu
Ġà®µ à®³
le ÅŁ
Ġà°Ĺà±ģà°° à±įà°¤
Äħ c
ĠÎķ ÏĢÎ¯
Ñı Ð¶
am b
ãģª ãģ©
à¦¾à¦¦ à¦ķ
à¤¾à¤£ à¥ĩ
ĠÎ¯ Î´Î¹Î±
Ġà¤® à¤¾à¤®
Ġà¦ħà¦¬ à¦¸à§įà¦¥
lÉĻr ini
i da
ĠÏĢÎ¿ Î»Î»
áĥ£áĥłáĥľ áĥĲáĥļ
áĥĿáĥ ļáĥĺ
t w
Ð¾ÑĢ Ð¸Ð¸
« à¹Į
Ĭà¹Īà¸§à¸ ĩà¸
ĠåĬ ¨
à¹Ģà¸Ļà¸ ·à¹īà¸Ńà¸
à¤¾à¤Ĥà¤ ķ
c ation
Ġà®ĩà®°à¯ģà®¨à¯įà®¤ à¯ģ
ĠH indi
Ġà¤¬ à¤¢à¤¼
Ġà°ļà±Ĩ à°Ĥà°¦
Ġch er
Ġin v
ÙĬ Ùĥ
Ġw eiter
Ġth áº¿
ĠÑģ ÐµÐ¼
áĥĶáĥĹ áĥ¨áĥĺ
ĠÏĢÎµ Ïģ
×¨ ×Ĵ
ª à¹Īà¸ĩ
ķà¸£à¸ ĩà¸
à¹ģà¸ Ħà¹Ī
Ġè Ħ
Ġagçİ¯äºļ å¹³åı°
ä¾Ľ åºĶ
ļà¸ ±à¸Ļ
Ġà¸Ħ à¸²
à¹Ģà¸ ļ
æļ ĸ
æĺ¯ åĵª
æĢİä¹Ī çİ©
å¸ ĮæľĽ
Ġàª ķ
æĽ´ åĬł
æĢĿ æĥ³
æ²» çĲĨ
Īà¸²à¸ ģà¹Ģà¸
Ġà¤¸à¥ģà¤° à¥Ĥ
u jÃŃ
ĠáĥĴ áĥĲáĥĴ
Ġà¤ļà¤¾à¤¹ à¤¿à¤ı
ÏĥÏĦ Ïħ
ĠØªÙĪ Ø§ÙĨ
à®¿à® ªà¯į
ĠÐ² Ð°Ð¼
es ta
Ġ à¸£à¸§à¸¡à¸
çİ ī
Ġçİ¯äºļag æīĭæľºå®¢æĪ·ç«¯
ä¸¾ åĬŀ
é¥ ®
èĻ ĳ
æĦı æĢĿ
Ġs un
«à¸±à¸ §à¸
åĢ Ł
æĳ ©
ĠãĢı ãĢİ
à¹Ģà¸ ģ
h g
Ľà¸£à¸°à¸ ªà¸ļà¸
Ġà¸¡à¸ ±à¸Ļà¸
Ġå¤ ª
æĪĲ ç«ĭ
é¥ °
æķĻ å¸Ī
æ ¾³
à¹Ģà¸ īà¸ŀà¸²à¸
¥à¸ Ķà¸
ĠĈ ĈĈ
Ġà¤ħà¤¶ à¤¾
p f
Ġà¦¸ à¦¾à¦§
Ġà°¦ à±ĩà°µ
Ġê³ ¼
ĠáĥĽ áĥ£áĥ¨
Ġà°¦à±įà°µ à°¾à°°à°¾
z ident
Ġg ro
ĠØ£ Ùĥ
m ÉĻd
Ġr app
ĠÎ¼ÎŃ ÏĥÏī
Ñı Ñģ
ĠØ§ ØŃ
lÉĻr dÉĻ
à®Ļà¯įà®ķ à¯ģ
Ġt a
ĠÑĨ ÐµÐ½ÑĤ
ãĤ ĩ
áĥĺáĥ ©
ĠE st
ä»· åĢ¼
à¸Ńà¸ ´
è¿Ľ ä¸ĢæŃ¥
ģà¸²à¸ ¨à¸
ç«ŀå½© è¶³çĲĥæ¯ĶåĪĨ
Ġ... .
åĨ³ å®ļ
å¤ĸ æĮĤ
ŀ à¸Ń
Ġà¤ī à¤¦
à®¿à®ķà¯įà®ķ à®ªà¯įà®ªà®Łà¯įà®Ł
te il
Ġst an
v el
ĠÏĨ Ïħ
Ġìŀ ħ
ĠÐ± Ð°Ð½
Ø´ ÙĪØ¯
Ġb el
¦ à¤¾
ĠÐ²Ñģ ÐµÑħ
×Ļ× ĸ
Ġà¦¦ à§įà¦¬
d or
áĥĲáĥł áĥĶáĥĳáĥĲ
Ġre cher
à°² à°¿
Ł à¹īà¸²
Ķà¸²à¸ §
ä»» åĬ¡
Īà¸£à¸´à¸ĩ à¹Ĩ
Ġ2 28
æŃ£ å¼ı
Ġå¤§åıĳ 2åĪĨå½©
§à¸´à¸ Ĺà¸¢
Ġä»¥ åıĬ
æķħ äºĭ
à¹Ģà¸ Ħà¸£à¸·à¹Īà¸Ńà¸ĩà¸
Ġs b
å½©ç¥¨ æ³¨åĨĮ
ģà¸²à¸£à¸ ĵà¹Įà¸
Ġagçİ¯äºļ æīĭæľºçĻ»éĻĨ
è¿Ļ æł·
å½¢ æĪĲ
à¸²à¸£ à¹Į
Ĥà¸Ļà¸²à¸ Ķ
ģà¸ µà¸
ç§ ĭ
Ľà¸£à¸° à¹Ĥà¸¢à¸
è´¸ æĺĵ
à¹Ħà¸ «à¸Ļà¸
à¸£à¸¹à¸ Ľà¸
ĺ à¸Ń
çĦ ¦
¢à¸ ¡à¸
9 2
åįģ ä¸Ģ
à¹Ī à¸Ńà¸ĩ
à¤ª à¤Ł
d Ã¼r
Îº Ïħ
à°¾à° ĸ
Ïĥ Î±Î¹
is sen
ĠÏĥ Î±
Ġtout es
Ġà¤¤à¥įà¤¯à¤¾à¤Ĥà¤ ļà¥įà¤¯à¤¾
à°ķ à°¾à°²
ĠV y
Îº ÎŃÏĤ
Ġà®ĩ à®©à¯įà®©
ĠáĥĴáĥĺáĥĿ áĥłáĥĴ
áĥ¡áĥĲáĥ® áĥ£áĥł
Ġf are
ĠëĮĢ íķľ
ĠÑĨ ÐµÐ½
Ġ: )
Ġs zy
ĠÏĥÏį Î¼ÏĨÏīÎ½Î±
Ġcon tre
ĠnÄĽ k
ar se
ĠÎ¿ ÏįÏĦÎµ
Ġal c
ĠÐ ®
Ġáĥ¡áĥĲáĥ ŀ
Ġà®®à¯ģà®¤ à®²à¯į
ĠÎºÎ¹ Î½Î·
ĠN az
Ġà°ħ à°¦à°¿
Ġ ÖĦ
ĠM ÉĻn
f ol
ni ki
Æ°á» Ł
ÏĦÎ¹ÎºÏĮ ÏĦÎ·ÏĦÎ±
Ġn ÉĻti
ÑıÐ± ÑĢÑı
ĠÙĦ Ùĩ
áĥĶáĥľ áĥĺáĥ¡
Ġmon de
Ã³ j
Ġa Ã§Ä±
Î³ ÏīÎ½Î¹Ïĥ
Ġà°İ à°ķà±įà°ķà±ģà°µ
ÐµÑģÑĤ Ð¸
ãģĹ ãģĦ
Ġà¤Ĩ à¤Ī
Î¯Î¶ Î¿ÏħÎ½
ì ¢
Ġp df
Ġa di
at an
ĠwiÄĻ cej
Ġà¤²à¥ĩà¤ķ à¤°
è¿Ĳ è¡Į
à¹Ģà¸Ńà¸µà¸ ¢à¸
ļà¸ ±à¸Ļà¸
ĠçĶ± äºİ
è· Ŀ
5 4
¥à¸ ±à¸ĩ
à¹ĥà¸ģà¸¥ à¹ī
7 1
Ġagçİ¯äºļ å®ĺç½ĳçĻ»å½ķ
ä¿ĥ è¿Ľ
ªà¸²à¸ ¢à¸
ĠæĶ ¿
Ġå¢ ŀ
ŀà¸¹à¸ Ķà¸
ķ à¸Ńà¸Ļà¸
ĠçĦ¶ åĲİ
Ġà¤ľ à¤¾à¤Ĺ
Ø¯ Ùī
ÏĥÎºÎµÏħ Î®
ĠÃľ ber
ĠÐ¼ ÐµÐ´
Ġ×Ķ×ŀ× ©
à§ ¨
Ġl igne
h led
Î´Î¹Î± Î¯
à¶± à·Ĭ
àµįà´ ¯
Ġà¤¦ à¥Įà¤°
à¯ģà®± à¯Ī
à§ľ à§ĩ
Ġperson as
ÙĦ Ø¨
áĥĺáĥ« áĥĶ
Ġáĥ¬ áĥĶáĥķ
ĠÐ¿ Ð¾Ð»ÑĮÐ·
ws ze
ĠmÃ¼ h
Ġcer ta
Ġáĥĸ áĥĿáĥĴ
ĠÎŃÏĩ Î¿ÏħÎ¼Îµ
Ġs aÄŁ
ÏĢ ÏīÎ½
ëħ Ģ
Ġà¦¤ à¦¾à¦ĩ
ĠÐ¾Ñģ Ð¾Ð±
Ġog ni
Ġà®ħà®µ à®°à¯įà®ķà®³à¯į
ĠÄĮ es
Ġpr os
un k
Ġíĺ¸ íħĶ
Ġd á»±
ãģ¾ ãģĽ
Ø§ÙĦ ÙĬØ©
ĠÏĩÎ±ÏģÎ±Îº ÏĦÎ·
Ġéĩį åºĨ
Ġé ¾
åĽ¢ éĺŁ
ä¸ĭè½½ app
à¹Ħà¸ «à¸Ļ
Ġç¥ŀå½©äºīéľ¸ 8
æī ¬
èµ ŀ
Ġ à¹Ģà¸£à¸²
æĸĩ ç«ł
æı ¡
à¹Ĥ à¸Ń
Ġé¦Ļ æ¸¯
5 1
Īà¸£à¸´à¸ ĩà¸
ĭ à¸µ
¡à¸ ŀ
Ġå¤§åıĳ 1åĪĨå½©
Ġà¤Ĩ à¤²à¤¾
Ġà¦¦ à§ĩà¦ĵ
Ġtr ov
ĠÏĢÏģÎ±Î³ Î¼Î±ÏĦÎ¿
Ð°Ðº ÑĤÐµÑĢ
Ã¡v a
Ġà¤ª à¤¾à¤¸
Ġë Ŀ¼
da w
ag o
Ġ×© ×ŀ×
Î¶ Î¿ÏħÎ½
ĠHo tel
ÐµÐ³Ð¾Ð´ Ð½Ñı
Ġh eeft
Ġà°ĩ à°ķ
Ġes to
Ġpra c
à° İ
Ġà®¤à®®à®¿à®´ à¯į
Ġà®ļ à¯ĩ
h nen
ĠØ¨ Ùħ
à¦¿à¦· à§įà¦ł
ç½ĳç«Ļ _
æ¦ ľ
çī¹ åĪ«
ä¼ĺ åĬ¿
ä¸Ģ è·¯
à¤¾à¤Ĥà¤ §
Ġà°¯ à±Ĭà°ķà±įà°ķ
Ġpra cy
an c
Ð¾ÑĤ Ð²ÐµÑĤ
Ø§Ø± Ø§ÙĨ
ĠáĥĴáĥĲáĥľ áĥĲáĥªáĥ®áĥĲáĥĵ
Ġg er
ĠÎĻ Î¿ÏħÎ½
á¿ ĸ
ĠÏĮ Ïĥ
à¦Ĺà§ģà¦² à§ĭ
å»º çŃĳ
à¸£à¸´à¸ ¡à¸
à¥ģà¤ Ł
ÑĢ Ð¾Ðº
Ïİ ÏĥÎµÎ¹
Ġsu iv
ÏģÎº ÎµÎ¹Î±
Ġo pp
Ġc Æ¡
Ø³ Ø±
Ġd y
ìħ ĺ
à¯Īà®ķ à®³à¯Ī
Ð¾ÑĢ Ð°
ĠD ans
ar Ã¡
im a
ĠÐ³ Ð¾Ð²Ð¾ÑĢ
Ġà¸ĭà¸¶ à¹Īà¸ĩ
Ġà¤ª à¥ĭà¤²
ĠÛ° Û
ĠØŃ Ø§ÙĦ
Ġhaqq Ä±nda
×ľ ×§
ĠÏĥ ÏĦÎ¬
ff en
Ġby ÅĤo
ĠN on
à¥ĩà¤ ¯
áĥĲáĥļ áĥĵ
Ġê²Į ìŀĦ
Îº ÎµÏĤ
ÑģÐº Ð¾Ð¼
à¥įà¤° à¥ĩà¤¸
íķ ¨
end ant
trz ym
ĠåĽ½ äº§
à¤µ à¤¨
an os
Å¯ s
Îº Î¹Î±
Ġà®µ à®¿à®Łà¯įà®Ł
Ġáĥĵ áĥĲáĥ®
à¥ĩà¤¤ à¤¾
c ato
Î± Î½Î±
ĠØ¨ ÙĦ
Ġs au
Ġà®İ à®Łà¯ģà®¤à¯įà®¤
ĠÏĥÏĦÎ¹Î³ Î¼Î®
à¦¾à¦ĩ à¦²
Ġg ut
ÑĥÑĢ Ñĭ
ĠgÃ¶ re
kie go
ay ÉĻt
Ġáĥł áĥĿáĥªáĥĲ
ce p
ri ng
ãĥ »
ãĥ¼ãĥ ī
Î¼ÎŃÎ½Î¿ Î¹
ĠáĥĲáĥł áĥĲáĥ¡
æĪĳ åĽ½
à¥įà¤¯à¤¾à¤Ĥà¤ ¨à¤¾
Ð°Ð· Ð°Ð»
Ġà¤Ńà¤¾à¤° à¤¤à¥Ģ
Ġà®¤ à¯Ĩ
ist ra
Ġà¤ľ à¤¾à¤¨à¥ĩ
ĠÎ³ Î¯Î½ÎµÏĦÎ±Î¹
ĠØ§ÙĦ Ø§ÙĨ
ÉĻt ÉĻn
sta w
Ġâ ŀ
Ġìķ Į
ĠK l
Ġáĥ§ áĥĿáĥ¤
Ġbul un
Ġtem po
Ġà¦ıà¦ķ à¦Łà¦¾
Ġpe w
ĠC u
ĠÏĩ Î¬
Ð°Ð»ÑĮ Ð½ÑĭÑħ
ĠØ³ Ø§ÛĮØª
ĠG esch
ol or
c p
ĠæĦ Ł
æ¬¢ ä¹Ĳ
åĲĦ ç§į
Ġà¤¨ à¤¾à¤Ĺ
Ġc ie
Ïī ÏĥÎ·ÏĤ
à¯ģà®³à¯įà®³ à®¾à®°à¯į
q a
ĠØ¢ Ø²
à§ĭ à¦ľ
×ł ×ª
ĠáĥĿ áĥ¥
Ð¸ÑĩÐµÑģÐº Ð¾Ð¹
Ã¡ Å¡
Ġà®ªà¯ĭ à®°
Ġl ong
ĠÏĩ ÏģÎ¿Î½
è¡Į æĶ¿
Ġà¨¨ à©ĩ
Ġ à¸£à¸²à¸Ħà¸²
à¹Ħà¸¡à¹Īà¸ ¡à¸µ
ĠçĶ ³
ĠåĿ ļ
Ġæ¸ ħ
Ġà¸Ńà¸ µà¸
Ġà¤ķ à¥ī
áĥĶáĥłáĥ Ĵ
Ġme er
Ø¹ Øª
ar ia
Î»Î± Î´Î®
Ġà¦ľà¦¾à¦¨ à¦¾à¦¨
ãĥ Ķ
ÎĻÎļ ÎĹÎ£
Î¿ ÏĢ
Ġà¦¨ à¦¿à¦°
ÅĽ nie
Ġspo leÄį
Ð¸Ð» ÑģÑı
Ġà°¬ à°¾à°²
Ġáĥ¯ áĥĶáĥł
om bre
Ö ĩ
v ÉĻl
ge b
as a
à§ĩà¦² à¦¾à¦°
Ġthá» Ŀi
Ġm ie
ĠÎ´Î¹Î± ÏĨÎ¿
Ġà®ķà¯Ĥ à®Łà¯įà®Ł
à°ķ à±ģà°Ĥà°¡à°¾
O L
Ġc it
Ġà¦¹à¦¿à¦¸ à§ĩà¦¬à§ĩ
ĠâĢľ ,
ãĥ¼ãĥ ł
tor ia
Ġtou te
å¹¿ ä¸ľ
lo g
Ġè Į
å®¶ åºŃ
ĺ à¸Ńà¸
Ġç² ¾
Ġà¸Ĺà¸ ±à¹īà¸ĩà¸
Ġà¤ª à¤ķà¥įà¤·
Ġì ¦
ĠÐ· Ð½Ð°Ñĩ
Ġà°µ à°¾à°°à±ģ
Ø· Ø±
à¦¿à¦¤ à§įà¦°
éĢ Ĵ
Ħà¸ ³
ćĈ ï¼Į
éĿ¢ çļĦ
å· ¡
ĠæĹ¶ æĹ¶å½©
Ġ æľª
á į
à¹Ĥ à¸Ļà¸
Ġáģ ĭ
Ġà¤¸à¥įà¤µ à¤¤
×¨ ×ĳ
à®¤à¯įà®¤ à¯ģ
áĥ£áĥ ©
ĠÎµÎ½ Î´Î¹Î±
k ich
Ġkter Ã¡
ĠÎ±ÏĨ Î¿Ïį
Ġser vi
ĠáĥĶáĥł áĥĿáĥķáĥľ
ag ne
ĠÏĨ ÏĮ
à´ ±
Ġà¤īà¤¨à¥įà¤¹ à¥ĩà¤Ĥ
it z
Ñĭ Ñĩ
el i
ãĥ³ãĥ ī
Ùģ Ø¶
Ġáĥ¨áĥĶáĥĽáĥĹáĥ®áĥķáĥĶáĥķ áĥĲáĥ¨áĥĺ
âĢ Ļ
à¦¾à¦ķ à¦¾à¦°
ne hmen
Î¼Îµ ÏĥÎ±
it os
Ġà¸ŀà¸ ¤à¸
Ġà¸Ħ à¸Ļ
ä¼ °
äºº çīĽçīĽ
Ķà¸ ±à¸ĩà¸
Ġ2016 å¹´
ç ĺ
ä»Ĭ å¹´
à¹Ī à¸Ńà¸¢à¸
Ġà¤ħ à¤¤
Ùħ ÛĮ
Ġle urs
Ġà®ķ à®£à¯įà®Ł
ĠÕ° Õ¡Õ´
ÉĻn d
íĭ °
à§ĩà§Ł à¦¾à¦°
l Ã¼
à¦¾à¦ĵ à§Łà¦¾
Ã ĥ
Ġr áº¥t
ĠÏĩ Î»Î¼
à°¸ à±įà°¯
ec to
iÄĻ dzy
Ġáĥ¡ áĥĿáĥ¤
ĠÐ¿ÑĢ Ð¾ÑģÑĤ
ĠÎº ÏģÎ¬
Ġw ord
Ġn ei
Ú© Ø±
Ġáĥ¬ áĥĲáĥĽ
is iÃ³n
Ð¸Ð½ Ñĥ
Ġà¦® à¦¾à¦§à§įà¦¯à¦®
ĠI m
ĠØ§ÙĦØ£ Ùħ
ic ation
à¥ĩà¤¤ à¥įà¤°
áĥĲáĥłáĥ £áĥļáĥĺ
__ __
Ð°Ð· Ð°ÑĤÑĮ
Ġà°ļ à°¿à°¨à±įà°¨
c aq
ĠÃ ļ
ĠÐ· Ð½
s iÄĻ
ĠD Ã©
il en
Ã ģ
n u
à®© à®®à¯į
ÏĨ ÎµÏģ
Ġle g
ìĹħ ìĨĮ
ì° ½
Õ¡Õ½ Õ¿
Ġar asÄ±nda
ÎĻÎļ ÎŁ
ÏĥÎºÎµ ÏĦÎ±Î¹
Ø¯ ÛĮ
ouve z
ìĦľ ë¹ĦìĬ¤
íĸ Ī
à¯ĭ à®Łà¯ģ
Ġáĥŀáĥł áĥĿáĥĳáĥļ
Ġpl ace
Ġà¦ħà¦¨ à§ģà¦·à§įà¦ł
ĠÐ½Ðµ ÑģÐº
×ķ×ł ×Ļ×Ŀ
Ġà®®à¯ģà® ´
¹ à¹ī
ķà¸ ¥à¸²à¸
Ġç» ĵ
éģ ¿
æķ ¸
æ¸¸ å®¢
Ĺà¸µà¹Īà¸ Īà¸°
ç¼ ĵ
Ġà¤¦ à¥ĩà¤µ
ÙĨ ÙĬØ©
s to
ŀà¸§à¸ ģ
Ġà¤¤à¥įà¤¯à¤¾à¤ ¤
ĠÎ±Ïħ ÏĦÎŃÏĤ
Ġcon c
ÙĪ ÙĨØ¯
Ġà°¬ à°¯
Ġm ÉĻk
«à¸¡à¸²à¸ ¢
çļĦ å°ı
æ°ĳ æĹı
å¹³åı° _
Ġäºļæ¸¸ag ç½ĳç«Ļ
èĥ Ĩ
æīĭæľºçīĪ app
æħ §
à¥ĭ à¤¤
Ġà¦¦ à¦¿à§Ł
áº¿ u
ĠáĥĴáĥĲáĥĵ áĥĲáĥ¬áĥ§áĥķ
Ġso it
ĠÏĥÏħ Î½Î±
ĠAr beit
ĠÐŁ Ð¾Ð»
ãģ¾ãģĽ ãĤĵ
áĥĽ áĥĲáĥľ
Ġà¦¬ à¦¨à§įà¦§
à¤Ł à¥Ģ
ĠP rod
ĠÎ² Î»ÎŃ
ĠÑĤÐµÑħ Ð½
à¯ģà®ļ à¯į
ich tig
Ð ¯
ĠÐ¾Ð´ Ð¸Ð½
ĠÎ¼ÏĢÎ¿ ÏģÎ¿ÏįÎ½
Ġà°ļ à°¦
Ġac tu
le h
Ø± Ø§Ø¡
Ġcon tro
I P
lÉĻr inÉĻ
Ġà¤¦ à¤¾à¤ĸ
Ġáĥ¡ áĥĺáĥ¡áĥ¢
Ġà¤° à¥ģà¤ª
Ġà¦® à§ģà¦ĸ
p rav
Ġà¤¬ à¥įà¤°
à±ģà° Ń
ĠÑĥÑģÐ» Ð¾Ð²
Ġpom o
eit en
a ine
ĠÙĥ ÙħØ§
Ġà®µà®´ à®Ļà¯įà®ķ
Ä±l an
Ġà¦°à§Ł à§ĩà¦Ľà§ĩ
Ġáĥĵáĥ¦ áĥĶ
Ġ Ñİ
ll os
ĠØ§ ÙĪÙĦ
Ġsp raw
ĠÎ¼Î± Î¸Î·
is on
à°¾à°¯ à°ķ
ĠáĥĽáĥĲáĥ¨ áĥĺáĥľ
Ġg j
a te
×ŀ ×Ļ
ĠÎ±Î½ ÏĦÎ¹Îº
à¤® à¤¾à¤¨
Ġh Ã¬nh
áĥľ áĥĺáĥĶáĥł
à°¾à°ķ à±į
ÑĢÑĥÐ¿ Ð¿
ĠÅ ģ
Ġse con
Ġà¦® à¦¨
Ġvi deo
Øª Ùī
Ġsp os
in cip
Ġd ar
ĠÂµ Îµ
Î¼ Î¹Î¿
çļĦ æĸ°
æĻ ĵ
æĺ ł
à¹Ģà¸ §
ļ à¸£à¸´
ģà¸£à¸ °
Ġå¹¸è¿Ĳ å¿«3
Ġà¹Ģà¸§à¹ĩà¸ ļ
Ġà¥ «
ĠÐ½ Ð¸Ðº
æ¬§ ç¾İ
à¤¿à¤¯ à¥ĩ
Äį ek
áĥĶáĥķ áĥĲ
Ġà¤¸ à¥ĭà¤
Ġà®Ĩ à®¤
ĠØ³ ÙĪ
à§ĩà¦¤ à§ĩ
Ġà°ķ à°¾à°Ĥà°Ĺ
Ġà°¨ à°¿à°ľ
f a
ĠÎ¼ÎµÎ³Î¬ Î»Î·
Ð» ÐµÐ¹
el en
ĠáĥĽ áĥĺáĥľáĥĺáĥ¡áĥ¢
ĠÐ½ Ð¸
à®ªà¯įà®ªà®Ł à¯ģà®®à¯į
l ÉĻy
ĠÄį as
ĠÎ³ ÏģÎ¬
áĥ® áĥĶáĥĵ
å·¥ åħ·
áĪ į
à¥įà¤¯à¤¾à¤¤ à¥Ģà¤²
nym i
à°¾à° «
Ð¾Ð² ÑĭÐµ
ĠÏĢ Î¬Ïģ
Ġà¤ Ī
f ic
×ķ×ª ×¨
ĠØ´ Ùħ
Ġáĥ¤ áĥĺáĥļ
ĠÐ² ÐµÐ´
Ïħ Î¼
Ġê° Ļ
t ÉĻb
Ġà¦¸ à¦¾à¦°
ãĤĮ ãĤĭ
ĠáĥĽ áĥĶáĥª
Ã¼ re
ĠÏĢÎµÏģÎ¹Î¿ ÏĩÎ®
p t
Ġåı į
Ġà¤ī à¤¤à¥įà¤¤
ĠÐ¸Ð½ÑĤÐµÑĢ Ð½ÐµÑĤ
Ġà¦® à§ĥà¦¤
Ġq iy
Ø¬ ÙĦ
Ġà°ªà±įà°° à°®
ad y
Ġà®ª à®¿à®©à¯įà®©
Ġtr Æ°á»Ŀng
áĥĿáĥłáĥª áĥĺáĥĶáĥļ
ĠÐ¼ Ð½Ð¾Ð³Ð¾
ie urs
à¦¿à¦ķ à¦¾à¦°
ĠÎ» Îµ
ĠQ ar
ĠR o
áĥĲáĥłáĥļ áĥĲáĥĽáĥĶáĥľáĥ¢
áĥł áĥĶáĥ¡
ÎĹ Î¡
ÏģÏħ Î¸
ch o
Ð¸ÑĢÐ¾Ð² Ð°ÑĤÑĮ
Ø±Ø¨ ÙĬØ©
ìĥ ī
ĠÎķÎĽ ÎĽ
ĠÎķ Î¸Î½
Ġà¦Ńà¦¾à¦² à§ĭ
« à¹īà¸Ńà¸ĩ
Ġà¹Ģà¸ŀà¸ ·à¹Īà¸Ń
èĵ Ŀ
Ġà¤ªà¥įà¤°à¤¤ à¥įà¤¯
Ø¹ Ø¨
Î³ÏģÎ±ÏĨ Î®
Ġà®¤à®² à¯Īà®µ
ĠdÉĻf ÉĻ
Ġìŀ ĳ
czy Äĩ
ĠÙĪ Ø±
it Ã¤t
Ġà°ķà±ĭ à°°
Ġáĥ¥ áĥĲáĥłáĥĹáĥķáĥĶáĥļ
áĥĿáĥľ áĥĿáĥĽ
Ġfo tos
c tor
v re
ĠÐ¿ÑĢÐ¾Ð´ ÑĥÐº
Ð¾Ð´ Ð°
Î³ Î¼Î±ÏĦÎ±
Ġpro pri
Ġto t
à®¾à® ¸
à¤ª à¥ģà¤°
à¬ ¿
à´ ¨àµįà´¨
àŃ į
Ġà¤ı à¤µ
à¦¸ à§įà¦ķ
ĠÎĵ ÎµÎ½
Î» Î¯Î¿Ïħ
Ġ" ]
ÎµÎ¹ Î¬
à°Łà±įà°Ł à°¿
Ġv ra
Ġà¤¨ à¤¿à¤ķ
Ġáĥ¬áĥĲáĥłáĥĽ áĥĿ
Î¸ Î»Î·
ÉĻs s
ĠÐ¸Ð½ÑĤÐµÑĢ ÐµÑģ
Ġd apat
Ġs av
Î» Î¹ÎºÎ¬
Ġre ci
ĠH and
ĠÑĪ ÑĤ
ĠÅ¾ iv
Øª Ø§Ø¨
Ãµ es
Ġby ÅĤ
Ġ6up æīĳåħĭä¹ĭæĺŁ
à¸£ à¹īà¸²à¸Ļ
æĩ ī
à¤¾à¤ ·
ĠÎ±Î½ ÎŃ
Ġà°ªà±įà°° à°§
Æ°á»Ł ng
ir i
l Ã¨
ãĤ¹ ãĥĪ
Ø§Øª ÛĮ
íķĺ ê²Į
Ð² Ð°ÑĢ
Ġmis mo
m t
Ġda v
ÙĪ ÙĬØ©
d ÃŃ
ĠÎ²Î¿ Î·
Ġà®¤ à¯Ģ
ĠScar pe
ĠD i
ĠÎłÎ± Î½Î±
Ġenc ont
ĠÐ¾ÑĤ Ð´
i an
à¦¬ à¦¿
ÏĦÎ® ÏĥÎµÎ¹
ta to
ar y
Ġà°Ń à°¾à°µ
Ġdiff Ã©r
ĠÎ³ Î½Ïİ
Ġ×Ĳ ×Ĺ×¨
ĠØ¯ÛĮ Ú¯Ø±
ĠÐ¼Ð¾Ð³ ÑĥÑĤ
Ġà¦¤ à§ģà¦²
Ġinf orma
Ġà¤ķ à¥įà¤°
ĠáĥĲáĥ ¨
Ġà°® à°Ĥà°¦à°¿
n et
Ġcom pr
ÏĢÎµ ÏģÎ¹
ìĺ¤ íĶ¼
ÙĬÙĨ Ø©
íĮ Į
ãĥ į
Ġq az
ÅĻ enÃŃ
Ġx xx
Ġmun do
Ä± yor
Ġà®İ à®¨à¯įà®¤
á»© ng
Î¼Î² Î±
à´ ª
Ġà¤¦ à¥Ĥà¤¸
Î´Î¿ ÏĥÎ·
ĠÎł ÎŃ
h eid
à¦ª à¦¿
ĠÎĺÎµÏĥÏĥÎ± Î»Î¿Î½
Ïİ ÏĥÎµÎ¹ÏĤ
Ġm ich
Ć ãĢģ
è¯ º
à¤¿à¤Ĥà¤ ¦
Ġà¦¬à¦¿à¦ ı
a w
Ġà¦¬ à§įà¦°
ĠáĥĵáĥĲáĥ Ķ
ĠæĬ ķ
Ġæ¬ ¢
ĠåĮħ æĭ¬
å° Ĭ
Ġà¤² à¤ķà¥įà¤·
ti ge
Å ģ
ie dy
mp re
ĠÎºÎ± ÏĦÎ¿
Ġà°µà±Ĩ à°³à±įà°²
Ġte k
ch od
hal ten
Ø§Ùħ ÛĮ
ĠÏĢÎ¿Î» Ïħ
ĠáĥĲáĥ Ĺ
Ġc iu
Ġd ou
ĠÎµÎ¯ ÏĩÎ±Î½
ëĤ ľ
Õ´ Õ¡Õ¶
ĠmÉĻs ÉĻl
Ġà®ĩ à®£
ĠÅŁÉĻx s
Ġt our
Ġm u
ĠÑģÐµÐ± Ñı
à°¿à°¯ à±ĭ
ç½ĳåĿĢ _
à¹ĩà¸ ¡à¸
Ġà¤ľ à¤Ĺ
a ta
Î¼Îµ ÏĤ
ĠÙĤ Ø¯
nÄĽ jÅ¡ÃŃ
Ġ×Ķ ×Ļ×Ĳ
ãģ¨ æĢĿ
Ġà¦¤ à¦¥
Ġë§ ¤
ĠáĥĵáĥĲáĥĻ áĥĲáĥķáĥ¨áĥĺáĥł
a Äĩ
ĠÎŃ Î¾
ĠÑģÐ»ÑĥÑĩ Ð°
ti gen
u zione
Ġthá» ±c
Ġà°ħ à°°
Ļà§įà¦ ķ
ãĥķ ãĤ
ĠØ¹ ÙĦ
ĠÑĤÑĢ ÐµÐ±
Ġà¤ķ à¤¾à¤¢
Õ¥ Öģ
larÄ±n a
ĠS u
ÏĦ ÏģÎ¹
wa Äĩ
Ïģ Î¹ÎºÎ®
à®¿à®ķà¯įà®ķ à¯Ī
ĠbÃ½ t
áĥ£áĥ ŀ
§à¸²à¸ ĩ
Ġag æ£ĭçīĮ
Ġè¡ ¨
çı ł
æĢ» ä»£çĲĨ
åį Ģ
¥à¸° à¹Ģà¸Ńà¸µà¸¢à¸
3 00
ľà¹Īà¸² à¸Ļ
¥à¸ ¥
Ġæĺ Ł
æ´ ģ
à¤µ à¤¾à¤¦
Ġà°ķà°¾à°Ĥà°Ĺ à±įà°°à±Ĩ
Ġp ia
à°¡ à°¿
c teur
áĥĲáĥķ áĥĶ
ĠØ§ Ú¯Ø±
Ġlu gar
Ġà¦¯ à¦¾
I T
Ġinc ont
ĠO r
Ġmais on
ÎºÏĮ ÏĤ
Ġà°ķ à±ģ
ĠÏĢ Î®
Ñĭ Ð¼Ð¸
à¤¾à¤ı à¤Ĥ
ë³ ¸
Ġà®ħ à®²
igl ia
ãĥĥ ãĥĹ
Ġè ĳ
ķà¹īà¸Ńà¸ĩà¸ ģà¸²à¸£à¸
Ķ à¸´à¸Ļà¸
éĺ¶ æ®µ
é² ģ
åģ ı
10 åĪĨ
Ġagçİ¯äºļ æ¸¸æĪı
è´ ¯
à¹Ĥà¸ Ķ
Ĭ à¸Ńà¸ļ
ç¬¬ ä¸ī
å¼ Ł
à¹ģà¸Ĥ à¹ĩà¸
Ġàª ª
é£Ł åĵģ
åı ¥
Ġäºļæ´² å®ĺæĸ¹ç½ĳç«Ļ
æı ´
åĵª äºĽ
à¤¾à¤ľ à¥Ģ
nie r
Ġword t
ĠÎºÎ± Î»Î¬
Ġà¤ķà¤¾à¤° à¤£
Ġ$( "#
ĠáĥĽáĥĶáĥĿ áĥłáĥĶ
Ïī Î´
sk ich
Ð¾Ñĩ Ð½Ð¾
ĠÎ¼ Ïħ
Ġin kiÅŁaf
im e
Ġte ch
R E
Ġtou jours
Î¶ ÎµÏĦÎ±Î¹
ê¹Į ì§Ģ
ĠáĥĶáĥķáĥł áĥĿáĥŀ
ĠÄ° l
×¨×Ĳ ×ľ
ãĤ ±
Ġth Ã´ng
ĠÐ¿ÑĢÐ¾ ÐµÐºÑĤ
×ŀ× Ł
et tes
Ġkad ar
ĠÏħ ÏĢ
Ġà°µà°¿à°ľ à°¯
Ã¦ r
Ġà®¤ à¯Ĥ
Ġar ri
ĠÐ²ÑĭÑģ Ð¾Ðº
ĠÎ´ ÏģÎ¬
Ġ ÉĻh
uch t
Ġm us
ÎµÏģ Î¼Î±Î½
ĠØ§ÙĦØ¹ Ø§Ùħ
Ġà¤ľ à¤°
Ġà°¬ à±įà°¯
ier on
áĥļ áĥĶáĥĳáĥĲ
Ø§ ÙĬ
Ø´Øª Ø±
Ġdo po
à¥įà¤°à¥Ģ à¤¯
ĠÎ ī
Ð¸ÑĩÐµÑģÐº Ð¸Ð¹
Ġáĥ¨áĥĶáĥ¡ áĥĲáĥĳ
à®¿à®¯ à®¤à¯ģ
em ein
d re
ÎºÎ± ÏĦÎ±
Ġê² °
ĠÑĥ Ð³
áĥļ áĥĶáĥĳáĥĺ
ĠÎ¿ ÏģÎ³Î±Î½
ar zy
à±Ģà°ª à±Ģ
à°ªà±įà°ª à±ģà°¡
Ġpro to
Ġge gen
Ġda ll
åĨ Ĩ
ne m
Ø« ÙĦ
ĠC or
ãĥ Ģ
Ġser a
Ġt ener
Ð°Ñı Ð²
àµ Ģ
à¤¿à¤µ à¤¾à¤°
Ġà°ļà±ĩà°¸ à°¿
d Äħ
ĠÕ Ŀ
k ÉĻm
Ġ×ķ ×¢
Ġáĥĺáĥ¡ áĥ¢
± à¹Īà¸ĩ
ªà¸³à¸Ħà¸ ±à¸įà¸
Ġæķ ´
Ġå¤§åıĳ åĪĨ
åĩº æĿ¥
å®ĺç½ĳ åľ°åĿĢ
· áĢ
ģà¸ ´à¸Ļ
æĮ ¯
å± ĭ
å¥ ¶
c l
à¤¿à¤ ¡
ĠÎ¼ Î®Î½
Ġinf orm
Ġë ¹
ĠÎ±Î½ ÏĦÎ±
Ġà°¸à°Ĥà°¬ à°Ĥà°§
Ú© Ø§ÙĨ
Ġà¦ī à¦¤à§įà¦¤
ÏİÎ½ ÎµÎ¹
áº¡ nh
Ġt Ã©lÃ©
kie j
Ïħ ÏĥÎ·
am il
Ġà®ķà¯ģà®± à®¿à®ªà¯įà®ª
ÉĻy y
Ð¸ Ñī
áĥĲáĥ¡ áĥ¢
Ã¼y Ã¼k
ĠÎ³ ÏħÎ½Î±
Ġal tri
Ġpo t
ĠÏĦÎ· Î»Îµ
Ð´ ÐµÑĢÐ¶
ĠØ§ÙĦÙħ Ø±
Ġáĥ¨áĥĶáĥ¡áĥĲáĥĳ áĥĲáĥĽáĥĺáĥ¡
Ġw eb
ŀà¸´à¹Ģà¸¨à¸ ©
Ġäºļæ¸¸ ç½ĳåĿĢ
Ġà¤¤à¤¸ à¥ĩà¤ļ
Ġ×© ×ĳ
à¤°à¥įà¤ ¦
ĠUn d
áĥĲáĥĹ áĥĺ
Ġk eine
Ġê° Ĳ
id os
ÐµÐ½ Ð½Ð¾Ð³Ð¾
Ġk re
à°° à±Ģ
Ġà¦¦à§ĩà¦¶ à§ĩà¦°
©áĥĶáĥķ áĥľ
á¿¶ Î½
ÏĦÎ® Î¸Î·ÎºÎµ
an iu
Ġ ãģ®
Îº ÏĦÎ·
ĠÄĳ iá»ģu
à¤¥ à¤¾
íķĺ ê¸°
Ġp uis
Ø° ÙĦÙĥ
Ġáĥ¬ áĥĺáĥľáĥĲ
Ð¾ ÑĦ
à¦¨ à¦¾à§Ł
Ġà¤® à¥ĩà¤°
Ġà°° à±Ĥ
à±ĭ à°²
Ġà¤Ńà¤¾à¤°à¤¤à¥Ģ à¤¯
Ġà®¨ à®¿à®°
ĠÕ ¹
Ġi di
ÛĮ Ø²
Ġà¦ Ŀ
v ent
w iÄĻ
ĠÎ¥ Îł
Î¼Î¿ Î¹
ĠÐ´ Ð¾Ð¿
à¤ı à¤¸
Å¾ enÃŃ
ĠãĤ ·
Ġd it
Ġà¤¸ à¥įà¤ķ
l in
áĥĲáĥĸ áĥłáĥĵ
ĠB et
Ð² ÐµÐ´
Ġne Å¾
ĠÏĩÏģÎ·ÏĥÎ¹Î¼Î¿ ÏĢÎ¿Î¹
à®¾à®± à¯ģ
Ġ×ĳ ×¡
cz ki
Ø§ÙĨ ÙĬØ©
v is
ĠÚ©Ø±Ø¯ Ùĩ
Ġdies er
ĠáĥĿ áĥŀ
ãģł ãģĳ
à¦ª à§įà¦¤
Ð¾Ð² ÑĭÑħ
Ġà°īà°¦ à±įà°¯
Ġà®ļà¯Ĩà®¯ à®²
Ġáĥĵ áĥĺ
tac tos
Ġo tros
à±ģà°Ĥà° ¬
Ã ı
ĠÃ £
Ġthá» ©
am a
rz ÄĻ
ĠáĥĺáĥĴ áĥĺ
Ð°Ð´ Ð¸
ÏĥÏĦÏħ Î½Î¿Î¼
à§įà¦¦ à§įà¦°
à¥ Ŀ
Ġà° Ĭ
Ġãĥ ķ
ì¡ ±
Ġna wet
à¸Ńà¸Ńà¸Ļà¹Ħà¸¥ à¸Ļà¹Įà¸
à¸£ à¹īà¸²à¸Ļà¸
§à¸ ¢à¸
Ġáł ¤
ä¸ĭè½½ å®ĺæĸ¹ç½ĳç«Ļ
à¹ĩà¸ ¡
Ġà¥ ¥
à¹Ĥà¸ Ħà¸£à¸ĩà¸
Ġæŀ Ĺ
Ġà¤Ń à¤°
ÐµÐ· Ð´
ei ÃŁ
c ora
ĠØ¹ ÙĨØ¯
Õ Ń
Õ¡Õ ¦
Ġm Ã¼n
áĥĶáĥķ áĥ¡
ĠÎ¹ Î´Î¹
ÅŁ aq
Ġà¦¸à¦¦ à¦¸à§įà¦¯
ĠØ² ÙħØ§ÙĨ
Ġà°ªà±įà°° à°¾à°°
ĠVer s
à®¿à®² à®¿à®°à¯ģà®¨à¯įà®¤à¯ģ
L CJ
Ġu cz
Ġto ho
Î» ÎµÏĤ
Ġà¦¬à§ĩà¦¶ à¦¿
åĩ¡ åĵį
à¹ĩ à¸Ļà¸
ia o
12 æľĪ
Ġè® ¾
èĤ ¥
à¹Ħà¸ Ĥ
ģ áĢ
Ġà¹ģà¸¥ à¹īà¸§
ªà¸²à¸ §
Ķ à¸µà¸¢à¸§à¸
ĠæĻ º
åıĺ åĮĸ
ªà¸Ļ à¹ĥà¸Ī
k 8
3 æľĪ
çľŁ éĴ±
æ£Ģ æµĭ
ä¿Ŀ éĻ©
ä¸į åĪ°
ļà¸ Ĺà¸
Ġå· ´
Ġå¤§åıĳ 5åĪĨå½©
U U
è´Ń ä¹°
åĬł å¼º
å¾ Ħ
ä½ Ĩ
à¥ĩà¤ Ĭà¤¨
bur g
ÑĢÑĥ ÑĪ
Î¿ÏħÎ» ÎµÏħ
Ġáĥŀáĥł áĥĿáĥ¤
Ġà¤ķ à¥Į
ag li
ĠÏħ ÏĪÎ·
Ġest Ã¡n
ĠáĥĹ áĥķáĥĺáĥĹ
Ġ×ŀ× ł
Ġ ãģ¾
Ġà¤« à¥Ī
ĠProd uk
Ġw el
ad Ä±n
ĠÑĩ Ð°Ñģ
di ÄŁ
lar dan
êµ °
ĠÏĥ ÏĢÎ¯
Ġáĥ£áĥ ĳ
Ġche z
ÅĽ wiet
Ġnie z
ĠÎ¼ Î¹
b ra
å½ »
à¹ģà¸ Ī
à¥įà¤¯à¤¾à¤ µ
à°¿à°Ł à±Ģ
Ġre pr
Ġáĥ¤ áĥĲáĥ¥áĥ¢
à¤¿à¤¤ à¤¾
ÐµÑĢ Ðµ
ÏĨÎŃ ÏģÎ¿Î½
Ġlav oro
Ġz v
Ġimp ort
czne go
Ġà¤¬ à¤¦
ĠÎĳÎ¸Î® Î½Î±
áĥª áĥĺáĥĲ
Ġg anz
ÎĻÎļ Îĳ
ĠÏĩÏģÏĮ Î½Î¿
ĠâĢ ¬
ĠØª Øª
ĠÙĨ Ø¯
Ġ= >
Ġáĥ¡áĥĲáĥŃ áĥĺáĥł
fÃ¼ hr
à°Ĺ à°²
ë° ĺ
ĠÐ£Ðº ÑĢÐ°
ĠÐº Ð°ÑĢ
Ï ĭ
çĻ º
ĠÕ ¨
ÉĻr ÉĻk
Ġg a
×ŀ× ł
à¦¤ à¦¿à¦ķ
ÑĢ Ð¾Ð±
ĠÏĢ Î»ÎŃÎ¿Î½
Ġkdy Å¾
di g
Ð½ Ð¸Ðµ
Ġáĥ¡áĥ¬ áĥĿáĥł
iz i
Ġsp rze
Î±Î¹ Î½
àµįà´ ª
à´¾à´ ¯
Ġà¤¹ à¤¾à¤²
ĠMad rid
pa Ã±a
ĠØ¹ Ùħ
ĠÎ¼Î¿Ïħ Ïĥ
Ġáĥª áĥľáĥĿáĥĳ
Ġe j
ĠÎ³Îµ Î³Î¿Î½
D F
ĠÃ© le
Ġà¦§ à¦°
ta j
ding in
ag ai
à®¯ à¯į
Ġtak ie
ÏĦÎ® ÏģÎ¹Î±
Ġu ma
Ġà°¤ à±Ĩ
ĠM en
Ġc al
ĠÚ¯ Ø²Ø§Ø±
Ġà¦Ĩà¦ª à¦¨à¦¿
Ã Ĥ
á»ķ i
ĠÐ¼ ÐµÐ¶Ð´
Ġtr ze
à°¤ à±įà°¨
à¯Īà®¯ à®¿à®©à¯į
st up
ĠÎµ ÏĢÏĮ
Ġmo i
ĠÙħ Ø³Øª
ìĪ ł
Ġçº¢ é»ĳå¤§æĪĺ
åħ¬ å®ī
ä½ Ľ
æĸ¹ åĲĳ
åĳ ¼
Ĭ à¸Ļ
Ħà¸ ¸
Ġą Ĉ
Ġà¤¶ à¥įà¤°à¥Ģ
Ġd Ã©s
Î¹ÎºÎ¿ Î¯
ĠáĥĿ áĥ¯áĥĲáĥ®
u ti
Ġd ur
à¹ģà¸£à¸ ĩ
à¥Ģ à¤¯
Ð± Ñĭ
Ġà°ļà°Ĥà°¦à±įà°° à°¬
Ġà°īà°Ĥà°Ł à±ģà°Ĥà°¦à°¿
áĥ£áĥ «
ni co
ĠÎ±Î³ Î±
ë ĳĲ
×ľ ×ķ
ĠÃ Ģ
Ġsz czeg
Î»Î¬ Î²
ĠÙĦÙĦ Ùħ
Ġà®ª à®´
Ð¾Ð³ Ð»
m uÅŁ
Î±Î¹ ÏģÎµ
Äį enÃŃ
ia d
us t
áĥĲáĥ¨ áĥĿáĥłáĥĺáĥ¡
ĠØªÙĪÙĦ ÛĮØ¯
Ġç İ¯
Ġà¤ª à¥ģà¤¨
Ġav ait
ÏĥÎ± Î¼Îµ
ÎµÎ´ ÏģÎ¿ÏĤ
Ġtrab aj
ĠÐ³ Ð¾ÑģÑĥÐ´Ð°ÑĢ
ÉĻs ini
Î¹Ïĥ ÏĦÎ±
Ġne ll
áĥĶáĥĿáĥĳ áĥĺáĥ¡
ĠØ±ÙĪ ÛĮ
Ġà¦ī à¦ł
à®ķ à¯ģ
re ib
ĠØª Ø¬
ĠÎ± Î»
ale Å¼y
Ġt in
Ġby la
ëĿ¼ ìĿ¸
in ter
ĠM ujeres
em Ã¡s
Ġà¦¬à¦¿à¦· à§Ł
ç¯ ®
88 88
Ġ à¸£à¸±à¸ļà¸
Ġæł¹ æį®
à¸Ńà¸Ńà¸ģà¸ ¡à¸²
Ĥ à¸Ń
åĬĽ çļĦ
Ġà¤ĺ à¥ĩà¤£
áĥĺáĥł áĥĶáĥĳáĥĲ
ÑģÑĤÑĢ Ð¾Ð¹
Ġìŀ ¬
Õ¡Õµ Õ«Õ¶
tir ak
y la
ÎŃÎ½ ÏĦÏģÎ¿
ĠØ§ÙĦØ£ Ø³
ÑĥÑĢ Ð³
ĠÎ±Ïģ ÎºÎµ
Ġfa c
Ġj es
Ġein fach
Ġpro je
áĥĲáĥ¦ áĥĽ
ĠÐ¶ Ð¸Ð²
Ġo x
k er
Ġà¦¦à§ĩà¦ĸ à¦¾
à¤¾à¤ĩ à¤¨
ĠíĬ ¹
ĠktÃ³ ra
Ġà®¤à¯Ĩà®° à®¿à®¯
Ġpa ÃŃs
ãģª ãģı
ĠÙĪ ÙĦ
Ġh is
ĠÂ ³
Ġk á»
Ġu 00
Î¶ Î¿
Ġh iss
Ġà¦¹ à¦ĵ
Ġà®µ à®¿à®µ
al izza
Ġáĥŀ áĥĲáĥ¡áĥ£áĥ®
ÑģÐ» ÐµÐ´
×Ļ×ł ×ķ
Ġà®® à¯ģà®ķ
à±ĥà°· à±įà°£
ÙĬ Ø¨
áĥĲáĥłáĥ £áĥļ
Ġà°ļà±Ĥà° ¡
ĠI hr
ä¸» ä»»
âĢ ķ
áĪ µ
çĮ «
Ħà¸£ à¸Ńà¸ļà¸
æł¹ æį®
ä¸ĭè½½ åľ°åĿĢ
Ġç¡ ®
Ġåħ¨ åĽ½
Ġå¸ ¸
à¥ ¨
ĠÎ±ÏĢÎ¿ÏĦÎµ Î»ÎµÎ¯
Ġt Ã©
d c
Ķé©° å®Ŀé©¬
Ġ1 88
éħ ¸
é į
æİ¨ åĬ¨
å®£ ä¼ł
ªà¸¡à¸²à¸ Ĭà¸´à¸
å¯¹ äºİ
Ħà¸§ à¸£à¸
Ġà¤µ à¤¿à¤°
ĠM a
áĥĲáĥĻ áĥĶáĥĹ
æľº åĻ¨
áŀ¶áŀ ĵáŀ
çĬ¶ æĢģ
Ġåį ´
Ġà¨¹ à©ĭ
ç§¯ æŀģ
Ķ à¸´
Ġà¸ Ķà¹īà¸§à¸¢à¸
Ġà¤¨ à¤¾à¤µ
Ġb ah
m enti
ĠÐ¼Ð½ Ð¾Ð³
à¯ģà®¤ à®¾à®©à¯į
Ġprof ession
×ł ×¡
Ġáĥŀ áĥĲáĥłáĥ¢
Ġmo is
Ġà°ªà±įà°°à°Ńà±ģà°¤à±įà°µ à°Ĥ
ĠØ§ÙĦØ ¢
ìĦ Ŀ
à¯ģà® Ļà¯įà®ķà®³à¯į
ĠáĥĽáĥĲáĥĺ áĥľ
Ġi hre
à´ ķ
Ġà¤ªà¤¹ à¥ģ
ç¨ ®
æ¸¸æĪı ä¸ĭè½½
åħ³ éĶ®
ĠåĮ Ĺ
åĶ Ĳ
Ġagè§Ĩè®¯ æīĭæľºå®¢æĪ·ç«¯ä¸ĭè½½
Ġéģ ĵ
Ġè§ £
Ġà¤¨ à¤¿à¤¯
Ġà°ķà°¨ à°¿à°ª
Ġko lej
ov Ã½ch
Ġdi ver
ler in
ĠÎµÏĨÎ±Ïģ Î¼Î¿
Ġáĥĺáĥ¡ áĥĺáĥľáĥĺ
Ġpre m
ÑĤÐ¾Ð¼ Ñĥ
Ġwy k
ÙĩØ± Ø§ÙĨ
ĠÚ¯ ÙĪ
ĠÎ±Î½Î¬ Î³Îº
Ã «
ì¦ Ŀ
Õ« Öģ
Ġh al
ĠÙħ Øµ
ĠÏĩ ÏģÎµÎ¹
Ġà°ħ à°Ĥà°Łà±ĩ
à§ «
ĠØ¨ Ø²
Ġà¦Ĺ à§ĩà¦Ľà§ĩ
Ġà®Ĵ à®©à¯įà®±
ĠÑĤ ÐµÐ¿
éķ ľ
ç ¸
åħĪ çĶŁ
9 1
à¥ĩà¤ļ à¥ĩ
Ġà°İ à°¦
Ġn enÃŃ
Ġëĭ ¹
Ġc ze
Ġà¤ķà¥įà¤· à¥ĩà¤¤à¥įà¤°
Ġsp Ã©
ÏģÎ¹ ÏĥÎ·
Ġà¦¬ à¦¸
ĠÐ½ ÐµÐ¼
Ġk ra
Ġit ali
Ġà®İà®©à¯įà®ª à®¤
Ïĥ Î¯ÎµÏĤ
à°¾à°¯ à°Ĥ
Ġp ov
ĠáĥĽ áĥĶáĥĴ
el o
ste ll
Ġim m
Ġà¦ħ à§įà¦¯
ĠK h
ÑĢ Ð¸
ãĥ ¯
ĠáĥĽáĥĶáĥ¢ áĥĺ
×¢ ×ª
Ġse v
ĠØ¨ ØŃ
Ġçľ ģ
Ġàª ¸
Ġà¤¨à¤¿ à¤°à¥įà¤®
Ġpr incip
ĠÎ¼ Î®
ent lich
ĠÐ´ Ðµ
à±ģà°ķ à±ģà°¨
ĠD Ã¶vlÉĻt
f i
Ġà®ªà¯Ĩ à®¯
Ġë ¸
Ñĥ ÑĢÐ°
ie le
ĠØ§ Ø·ÙĦ
Ġà°¦ à±Ĥà°°
ÏĨ Î±Î¹
ãĤ º
éĩı çļĦ
çĸ Ĩ
çª Ĺ
åį ·
ä¾ §
à¤² à¥įà¤²
Ġ[ "
Ïĥ Î¿Ïħ
ĠÐĵ Ð»Ð°Ð²
Ã Ī
ĠÂ ´
Ã ĩ
iá» ħn
ĠÎ±ÏĢÎ¿ ÏĦÎŃÎ»Îµ
áĥĿáĥļ áĥĺáĥ¡
Ø§Ø °
Ġu t
ĠÐº Ð½Ð¸
ĠtÉĻl ÉĻb
Ġf re
à¦ŀ à§įà¦ļ
Ġt ara
Ġà®ļ à¯Ģ
ÐµÐ½ÑĤ Ñĭ
li v
d em
ÏĥÏĦ Î¹Î±
Ġà°İ à°µà°°
Ġëĭ ¨
à¤Ĺ à¤¾
Ġ×Ĳ ×ł×Ļ
à°° à°¿à°Ĥà°ļ
Ø§ ÙĪØ±
áĥ® áĥļ
ĠÑĢÐµÐ· ÑĥÐ»ÑĮÑĤ
ĠÎ¿ Ïħ
ÙĤ Ø§Øª
Ġå¤§åıĳ çº¢é»ĳå¤§æĪĺ
çĭ ł
à¹Ģà¸ ĩà¸´à¸Ļ
Ġæ Ł
Ġäºļæ¸¸åĽ½éĻħ ag
Ġèµ °
Ġ7 77
ç§ģ æľį
ĠæĶ ¶
Ġto p
èĭ ¥
ģà¸¥à¸²à¸ ĩà¸
Ġå £
ä¸ľ è¥¿
à¹Ī à¸Ńà¸Ļà¸
à¹Ģà¸ ŀà¸´
Ġ à¹ĥà¸«à¹ī
è¡¨ çİ°
Ġå¼ º
Ġà¤¹à¤ľ à¤¾à¤°
×Ļ×ł ×Ķ
Ġà¤¦ à¤¿à¤ĸ
Ãº s
áĥ¤ áĥĶáĥł
ĠI hre
uyá»ĩ n
ç į
à¹ĩ à¸Ļ
Ġèģ ļ
Ġç» Ļ
Ćć ï¼Į
åĩ ¯åıĳ
åħ¬ å¼Ģ
Ġåħ į
Ġ à¸£à¸²à¸Ħà¸²à¸
å®ĺç½ĳ _
à¹ģà¸ ģà¸£à¸
Ġå¾ Ĺ
ĠP M
é¥ Ń
çİ¯äºļ çľŁäºº
ä¸Ģ çĤ¹
çº ·
à¥ĩà¤µ à¥įà¤¹à¤¾
ĠÚ¯ Ø°
à¯ģà®µ à®¤à¯ģ
Ïĥ ÏĦÎ±Î½
Ġquel ques
Ïģ ÎŃÏĤ
ãģ§ãģĻ ãģĮ
ĠÙĩ ÙĬ
a ciones
à§Ģà¦° à¦¾
ĠÑģÐ¾ Ð¾ÑĤÐ²ÐµÑĤ
à°¨ à±Ĥ
n iÄĻ
Ġà°ķà±Ĭ à°¨
ĠD onna
ĠM il
Ġu lti
m Ã©
Ð»Ñı ÐµÑĤ
Ġen cu
Î½Î¿ Î¼Î±
Ġà¤¬à¤¾à¤° à¥ĩ
áĥĲáĥľ áĥĻ
ìłģ ìľ¼ë¡ľ
Ġà°¨ à°¾à°ķà±ģ
ĠÂ ¼
áº¡ ng
ĠÐĴÑģ Ðµ
ĠÎ¼Î¹Î± ÏĤ
Ġk ein
tiv itÃł
à®¿à®°à¯ģà®ķà¯įà®ķ à®¿à®±
à±Ī à°Ł
ĠqÉĻb ul
ĠÐ±Ñĭ Ð»Ð¸
ĠB o
à®¿à®¤ à¯į
ĠáĥĽáĥĿáĥľ áĥĲáĥ¬áĥĺáĥļ
ĠÙ¾ Ø±ÙĪ
Ġj a
ĠãĤ ³
Ġni Å¼
Ġà¦¹ à¦¾à¦°
Ã§ ek
ĠÎº Î¿Ïģ
Ġno g
Ġà¤ıà¤µ à¤Ĥ
à¥įà¤ ľ
áĥ¢ áĥĶáĥłáĥĶáĥ¡
Ġc ro
Ġà®¤à¯ĩ à®µ
Ġdi gÉĻr
Ġáĥľ áĥĲáĥ¬
f or
ĠÏĦ Ïį
Ġà¦¤ à§ĭ
Ġdi fer
: :
ãĤĤ ãģ®
à¦Ĥ à¦¶
ĠÙĬÙħ ÙĥÙĨ
ĠÎ´Îµ ÏįÏĦÎµ
c oup
Ġan cora
Ġà¤µ à¥ĭ
ĠÚ©ÙĨ ÙĨØ¯
Ġà¤¸ à¥ģà¤
áĥł áĥĶáĥĳáĥĺáĥ¡
Ġ×Ĳ ×ł
Ã¶y le
Ġà°¨ à±Ĩà°²
ĠP rzy
ĠÏĮÎ» ÎµÏĤ
Ġpay s
ĠSe x
ni ca
Ð½ ÐµÐ²
ĠÎľ ÏĢÎ¿
Ġà®ª à®Łà¯įà®Ł
r ÄĻ
Ġà¤ħà¤Ĺ à¤°
ie re
ĠÑį Ð»ÐµÐºÑĤÑĢ
Ġáĥ¡ áĥ®
Ġë¶ Ī
ĠÎ²ÏģÎ¯ ÏĥÎºÎµÏĦÎ±Î¹
Ġà° ĺ
Äį as
Ġv iÃªn
Ġà¦ĵ à¦ĩ
ãĤĮ ãģ¦
ĠI S
à°Ł à°¨
Ġd Ã¶v
Ð¸ÑĩÐµÑģÐº Ð¾Ð³Ð¾
ĸ à¸²à¸¡à¸
Ġn bs
è£ ¡
¡à¸²à¸ ĵ
éĢł æĪĲ
å¯ »
ľ à¹īà¸²à¸
ģ à¸£à¸£à¸¡
§à¹ĩà¸ļ à¹Ħà¸ĭà¸
ĠåĲ ĳ
Ġä½¿ çĶ¨
Ġagçİ¯äºļ æĹĹèĪ°åİħ
ç¨³ èµļ
Ġ äºĭ
à¤¾à¤Ĥà¤ ª
sch l
Ġan no
à§ĩà¦ ¯à¦¼
Ġwy so
ĠTÃ¼rk iye
ĠáĥĽáĥĿáĥ «
t ie
ĠÐ¾ÑĤ Ð»Ð¸Ñĩ
Ġà®ķ à®¤
ca do
gen d
iy le
ĠØ§Ø·ÙĦ Ø§Ø¹
ÏģÎ¯Î¶ ÎµÎ¹
Ġ ÅĻ
Ġà¤¦à¤¿à¤² à¥įà¤²à¥Ģ
à¶ ½
à· Ļ
Ġà¤µ à¥Ģ
Å¼ a
I A
L L
I ON
Ġo per
Ïİ Î½Î±
Ġà®µ à®¿à®´
c ch
di en
Ġm om
áĥķ áĥĺáĥłáĥ
ĠiÅŁ tirak
ĠÑĥ ÑĤ
ja di
Ġà°¸ à±Ĩ
Ġl id
Ġ×ľ ×Ľ
ĠÏĥÏħÎ½ ÎŃÏĩ
ĠØ ¸
à¯ģà®µ à®°
ĠÏĢÏģÎ¿Ïĥ ÏĦÎ±
àµįà´ ļ
à¥Ĥà¤ ľ
is ter
ÛĮÙĨ ÛĮ
á» £
Ġil k
Ġmuch o
Ġà°ħ à°ķà±įà°ķà°¡
Ïģ Î½
ĠÐ¾ÑĤ Ð·ÑĭÐ²
Ġdzie ci
Ġáĥ¡áĥ®áĥķ áĥĲáĥĵáĥĲáĥ¡
ÑĢ ÑĭÐ²
§ à¹Į
éª ¨
à¹ģà¸¡ à¹Īà¸
7 4
Ġçĥ Ń
ĠæĦ ı
Ġå¤§åıĳ 3åĪĨå½©
Ġagè§Ĩè®¯ å¹³åı°
åĨ ¬
Ġà¸ ĭà¸
æıĲ çİ°
à¹Ĥà¸ Ľ
à¸Ńà¸ ´à¸
à© ľ
ä¸Ģ æł·
à¥ĩà¤³ à¥Ģ
Ġ":" "
ĠëĶ °
Ĭà¸²à¸ ¢
éĢļ çŁ¥
çľŁ çļĦ
ä¹Ł ä¸į
áŁ ĩ
à¤¾à¤Ĥà¤ µà¤°
ĠL and
r ow
Ġà¤Ĩ à¤Ĺ
ĠØ§ÙĦØ³ ÙĬ
à¯Ĭà®° à¯ģ
tr as
c co
Ġà°Ĩ à°¸
Ø§Ø± Øª
os a
Î±Î¹ Î±
ĠÎķ Î¯
Ñį ÑĤÐ¾Ð¼Ñĥ
ÏĢ Î»Î·
iÄĻ ki
à¦¿à¦ «
Î½ ÏİÎ½
Ġer a
áĥĶáĥłáĥ «
à°¾à° Ń
ĠdÉĻy iÅŁ
Ġkh Ã¡ch
u le
ÏĦ ÏĤ
Ġà¤® à¥ĩ
à°¤ à±įà°µ
ÄŁ er
ÎŁÎ Ķ
ÏĢÎ± Î¯Î´
Ġà¤ĸ à¤¿à¤²
Ġäºļæ´²æ¸¸æĪı ag
ç± į
æĢİä¹Ī æł·
į à¸²
åĲİ çļĦ
ä¹ĭ åīį
¨à¸¶à¸ģà¸ ©à¸²
ĠãĢĭ ï¼Į
åŃ£ åº¦
à¸£à¸¹à¹īà¸ªà¸ ¶à¸ģà¸
å®ĺç½ĳ å¹³åı°
à¤µ à¥Ģ
ÑħÐ¾Ð´ Ð¸ÑĤ
ĠØ§ÙĨØ¬ Ø§Ùħ
à¯Īà®ķà¯įà®ķ à¯ģà®®à¯į
ÏĦÎµ ÏģÎ¿
×Ĳ ×ª
owa ÅĤ
Ġà§§à§ ¨
Ġr ych
Ġà¦°à¦¹ à¦®à¦¾à¦¨
Ġà¦Ľ à¦¾à¦¤à§įà¦°
ĠáĥĴ áĥĿáĥĴ
ãĥ Ŀ
Ġáĥ® áĥĲáĥļáĥ®
ÏĢÎµ Î´Î¿
Ġà¦Ń à¦¾à¦ĩ
ĠÑĢÐ°Ð·Ð² Ð¸ÑĤ
ĠÎ±ÏĢ Î±Î¹
«à¸Ļà¸±à¸ĩà¸ ªà¸
c ity
äºº å·¥
Ġï¼Ł âĢĿ
Ġà¸ªà¸²à¸ ¡à¸²à¸£à¸
ĠA M
èµ Ķ
Ġæ·± åľ³
Ġà¤ªà¥ĭà¤² à¤¿à¤¸
Ġà¦ªà¦°à§įà¦¯ à¦¨à§įà¦¤
Ð°ÑĢ Ð°ÐºÑĤÐµÑĢ
Ġà®ª à®¿à®Ł
el f
à°¦ à°°
Ġda x
Ġà°ļà±ĩà°¸à±įà°¤ à±ģà°¨à±įà°¨
Ġm ont
ëĵ ł
áĥĲáĥĺ áĥľ
Ð¾Ð½ Ðµ
Ġà°ķà°¾à°° à°£
è¿Ļ éĩĮ
åıªä¸º éĿŀåĲĮ
å° ĩ
áŀ ħ
åİ ļ
ä¸Ģ èĪ¬
çļĦ éĹ®é¢ĺ
à¹ģà¸ ¥à¸
à¤® à¤§
ĠD et
à®¿à®¯ à®®à¯į
ig er
ĠÙĪ Ø¥
h ra
à¦¾à¦® à§ĩà¦°
áĥĲáĥļ áĥĺáĥ¡
Ġz ro
Ú© ÛĮ
Ġh or
á»į n
Ġà¤ªà¤¹à¥ģ à¤Ĥà¤ļ
Ġà¦¥ à¦¾à¦ķà§ĩ
Ġe au
ĠØ§ÙĦ Ùī
Ø® ÙĦ
Î² Î¿
à®¿à® £
ÐµÑĢ ÑĮ
iz z
à¤ķ à¥įà¤¸
Ġd ni
Î²Î¬Î» Î»Î¿Î½
à±įà° ŀ
ĠÃº lti
ĠÎķÏħ ÏģÏİ
Ġáĥ® áĥĿáĥļáĥĿ
Ġs ÉĻb
ĠÑĢ ÐµÐ±
Ð¾Ð² Ð¾Ð´
×ķ× £
à®¾à®³ à®°à¯į
ĠÅĽ wia
Ġa ia
Ġaia dingin
E W
Ġle bih
ÏĦÎ¹ÎºÎ¿Ïį ÏĤ
Ġm uss
ess i
ÐµÐºÑĤ Ð¸Ð²
Ġs or
ĠÂ ±
ĠÃ Ķ
Ġsu per
Ġl Ã©
à°°à±įà° ·
ì² ĺ
Ġáĥ¡áĥĲáĥĽ áĥĺáĥľáĥĺáĥ¡áĥ¢
ĠãĤ «
ÙĤ Ùħ
ĠÎ³ Î¹
ĠáĥĴ áĥĲáĥĹ
ĠÏĦ ÏģÎ¯
Ġà®® à®¾à®±à¯įà®±
ĠØª Ø§Ø±ÛĮ
ĠÏĦ ÏģÎ±Î³
Ð°ÑĤ ÐµÐ»Ñı
Ġl Ã½
un de
ĠÏĥÏĩÎŃ ÏĥÎ·
Ġvo ir
ĠáĥĴ áĥĲáĥĶ
Ġn in
ĠØ§ÙĦÙħ Ø³Øª
ĠÎ¬ Î»Î»Î·
Å¯s ob
è¨ Ī
è§ī å¾Ĺ
ä¸ ģ
Īà¸±à¸ Ķ
Ġè´ µ
Ġáł ¬
è´ Ŀ
à¤µ à¤³
Ġà°µ à±ĩà°¸
Ð· Ñĭ
Ġge b
Ġtrava il
Î¼ Î·Î½
i as
li que
áĥĺáĥ§ áĥķ
ÎµÎ½ ÏĦÏģ
à¯ĭ à®°
ĠÙħ ÙĬ
Ø§ Ø³Øª
à· ļ
ç¦ı åĪ©
åħįè´¹ è§Ĩé¢ĳ
åģ· æĭį
Ġà¤¬à¤¤ à¤¾à¤¯à¤¾
áĥĽ áĥĶ
Ġì¢ ĭ
Ġal ors
Ġpier w
ĠÏĥ ÎµÎ¹
Ġ×Ķ ×Ļ
qu ier
Ġà°²à±ĩà°¦ à°¾
Ġh esab
Ä±n Ä±z
h Ã¶r
à§ģ à¦¸
à¤ı à¤®
áĥĶáĥĳáĥĺ áĥĲáĥľ
Î³ ÎŃÏĤ
à¤ Ŀ
Ġav is
Ġr ag
Ġdes s
ĠãģĿ ãģ®
Ġvá» ¥
Ġque llo
Ø§Ø±ÙĬ Ø®
ÐµÑĢ Ð¾Ð²
ĠÚ¯Ø²Ø§Ø± Ø´
Î® ÏĨ
Ġíķľ êµŃ
ri que
Ġí ļĮ
ĠÑĦ Ð¸Ð»ÑĮ
à¦¿à¦¯à¦¼ à§ĩ
ĠáĥłáĥĿáĥĽáĥĶáĥļ áĥ¡áĥĲáĥª
Ġre p
ĠÎ¼Î· ÏĩÎ±Î½
ĠÐ½Ð° ÑĢ
jÄħ cy
Ġà®ªà¯ĭ à®©à¯įà®±
ĠH aus
Å¾ en
ÎĻÎ Ľ
ÏĦÎ¹ Î¿
Ľà¸£à¸°à¹Ĥà¸¢à¸ Ĭ
Ġà¸ Īà¸°
æīĭæľº æĬķæ³¨
æ² ī
æ® Ĭ
ç§¯ åĪĨ
Ġà¸ «à¸¥à¸±à¸ĩà¸
åĥ ¹
à¹ģà¸ªà¸Ķà¸ ĩà¸
Ġnbs p
ä»ĸ çļĦ
à¸£à¸²à¸ ĩà¸
ç´ ¯
æ¢ ħ
éĿ¢ è¯ķ
é© »
çĽĳ ç®¡
å¿ ĺ
å¡ ŀ
¥à¸²à¸ ¢
Ġåĩ¯åıĳ çľŁäºº
Ġà¸ªà¹Īà¸§ à¸Ļà¸
Ġ ä¼Ĺ
è¶ ĭ
å®¹ æĺĵ
äºĮ åħ«
à¤² à¥įà¤ª
aj es
Ġne lle
h et
ĠÐº ÑĤÐ¾
Ġe ing
Ø¨ ØŃ
iy et
Ġm il
ĠáĥĽ áĥĿáĥĵ
ĠÐ¿ÑĢÐ¾ÑĨ ÐµÑģÑģ
ÏĢ ÏģÏĮ
åįĩ çº§
à¸Ńà¸ļà¸ Ħà¸¸à¸ĵà¸
Ĺà¹Īà¸² à¸Ļà¸±à¹īà¸Ļ
Ġç¬¬ äºĮ
Ġå¤§åıĳ å¹¸è¿Ĳ
Ġçĸ ¯çĭĤ
Ġà¨¤ à©ĩ
è¯ ļ
åĬŀ æ³ķ
à¸µ à¹ī
à¤°à¥įà¤ §
ÛĮØ¯ Ùĩ
ê°Ģ ê²©
íĤ ¤
ÑĢ ÐµÑģ
ĠÎĿÎ¿ Îµ
×ŀ ×Ļ×Ŀ
ĠÎ¼ Î¬Î»
ĠáĥŀáĥłáĥĶáĥĸ áĥĺáĥĵáĥĶáĥľáĥ¢
ĠS al
à´ ķàµįà´ķ
à¤® à¥įà¤®
áĥĽ áĥľ
ĠÐ±ÐµÑģÐ¿Ð»Ð°ÑĤ Ð½Ð¾
ĠÑģÑĤ Ð¾ÑĢ
Ġt anto
Ġà¦® à§įà¦¯
Ġà®¤à¯Ĭ à®´
ÎŃ Î½Î±
ĠB l
Ġà¥ ª
Ġf aut
Ïī ÏĥÎµ
à¤¿à¤¯ à¥ĭ
à¹Ģà¸¡à¸ ·à¹Īà¸Ń
à¥ĭà¤ ·
Ġc áº¥p
Ġà¦ķ à§įà¦¯
Ġà®µà®¾à® Ļà¯įà®ķ
tif s
ĠáĥĴáĥĲáĥľ áĥ®
ĠÐ´ Ð¾ÑĢ
ĠÎµÏĢ ÎµÎ¹
Ġtrab ajo
Ġqu ando
Ġsy ste
ĠÙĨÙħ ÛĮ
ĠÎ±Î½Î¬ ÏĢÏĦÏħ
ĠE sc
us am
ĠÎķ ÎĿ
ĠÏĥÏĦÎ¿Î¹ ÏĩÎµÎ¯Î±
ĠáĥĲáĥ¥ áĥ¢
Ġsie mpre
Ġà®Ĩ à®£à¯įà®Ł
ĻĢâ ĻĢ
Ġà¨¦ à¨¾
éĺ »
à¹ģà¸Ļà¸° à¸Ļà¸³
§à¸ ļà¸
ĠçĶ ·
Ġà¹Ģà¸ Ħà¸£à¸·à¹Īà¸Ńà¸ĩà¸
éĺ ´
æĸĩ æĺİ
Ħà¸´à¸ Ķ
è· µ
æģ ¶
å¾ ½
ãĢ ĭ
áŀ¶áŀ ļáŀ
áĢŃ áĢ¯
§à¸´à¸ ĺà¸µà¸
Ġà¤Ĩ à¤¤
dan ia
ĠÙĪ Ùİ
ÙĪ Ùĥ
ĠÐ¿ÑĢÐ¾ÑĤ Ð¸Ð²
ic es
ÎĹÎ£ ÎĹ
ÎĳÎ ĺ
ĠC E
Î»Î¬ ÏĩÎ¹Ïĥ
cel ona
Ã³ lo
er d
ĠáĥĻ áĥķáĥļ
å®Į åħ¨
áŀ Ĭ
åı ¶
ia ng
Ġagçİ¯äºļ æ¸¸æĪıå®ĺç½ĳ
ĠagåĽ½éĻħäºļæ¸¸ æīĭæľºçīĪ
çħ ¤
à¥ ¬
Ġh ech
n is
ĠnÄĽ j
Ã´ t
ĠíĻ ķ
±à¸ĩà¸ «à¸
Ġh k
éŃ Ķ
æľº æ¢°
åĪ º
å° º
Ġçİ¯äºļåĽ½éĻħ å¨±ä¹Ĳ
ĠáĢ ¡áĢ
Ġ7 5
æĬ ½
æĢ ķ
å® ½
à©Ģà¨Ĩ à¨Ĥ
åķĨ åĵģ
Ġäºļæ¸¸éĽĨåĽ¢ æ¸¸æĪı
Ġà¸Ħ à¸Ļà¸
é¸ ¡
çĽĳ çĿ£
à¤µ à¤¾
Ð°Ð½ Ð¸Ð¹
ĠÎ¸ Î¬
áĥĺáĥ¡ áĥĻ
Ġà¦¯ à¦¦à¦¿
m ay
Ġwar to
g ÃŃa
ãĥ ¢
ÃŃ d
Ø± Ø³
Ö ¸
Ġ×ĳ ×§
ĠT ra
ÐµÑĩ ÐµÐ½Ð¸Ðµ
Ġà¤¹ à¥Ĥà¤
æ¸ Ĳ
åĪĽ ä¸ļ
±à¸ĩà¸ ģà¸¤à¸
ķ à¸Ńà¸ļ
ĠéĢ ī
«à¸¡à¸ Ķà¸
2018 å¹´
łà¸²à¸ ©à¸²
ļà¸£à¸´à¸©à¸±à¸ Ĺ
Ġà¸ĸ à¹īà¸²
Ġ1 10
è° ·
ĠãĢĤ .
Ġà¤¤ à¤¯
Ġcel a
ka uf
ĠÐ½ Ð°Ð»
ĠÅĽ rod
Î¬Î» Î¹
Ġï½ ŀ
à¥ĩà¤¶ à¤¨
Ġ6 00
ìĹĲ ëĬĶ
Ġà®ķ à®¾à®£
Ð° Ñī
ĠÎł ÏģÏī
Ġqu a
Ġa ma
f r
ÎĳÎ ¦
ĠÎĳÏħ Î³
áĥļáĥĶáĥĳ áĥ¨áĥĺ
Î´Î® ÏĢÎ¿ÏĦÎµ
ĠÐ· Ð°ÑıÐ²
ĠA s
Ġà°¬ à°¾à°§
Ġj ou
ĠØ¹ÙĦÙĬ Ùĩ
ĠØª ÙĩØ±Ø§ÙĨ
ÙĩâĢĮ ÙĩØ§ÛĮ
I D
ĠâĢĿ ,
an ta
à±ĥ à°·à±įà°Ł
ĠØ§ÙĦØ¬ Ùħ
Ġd ost
à§ĩà¦Ľ à¦¿
Ġes o
à¦¾à¦ ·
áĥ¡ áĥĲ
ll as
ãģ ¹
Ġmod o
ĠA z
ĠÕ į
Ġx Ã¼sus
ĠÎ» Ïį
ĠÎ± ÏĢÎµ
ch te
à®ªà¯įà®ª à¯ģ
Ġà¤ľ à¤¿à¤¨
ĠÑĢÐ°Ñģ Ñģ
ĠáĥĶ áĥĽ
ĠÎºÏĮÏĥ Î¼Î¿
Ġáĥ£áĥłáĥ Ĺ
ĠØ£ Ø³
ro b
con tre
Ġorg an
áĥĲáĥ¦áĥĽ áĥĵáĥĶáĥĴ
Ġà°¦ à°°à±įà°¶
ĠÎ¼ÎŃ ÏģÎ¿ÏĤ
Ġbe im
Ġà°ª à±įà°²
ĠÐ· Ð²
Ġà®µ à®¾à®°
Ġ×Ĳ ×Ŀ
Ġprzy pad
ê ¶Į
àµģà´ ¨àµįà´¨
Ġà¤īà¤¸ à¤ķà¥ĩ
Ġà°ķ à°³
h s
Ĭ à¸´
ĠagæīĭæľºçīĪ å®¢æĪ·ç«¯
éĨ Ĵ
æī £
çİ© å®¶
å½± è§Ĩ
ª åĬĽ
ĠçĶµ ç«ŀ
éĩį å¤§
Ĥà¹īà¸Ńà¸¡à¸¹à¸ ¥à¸
Ġà¸ķ à¸Ńà¸Ļ
ç¼ ĺ
åıĹ åĪ°
à¹ĥà¸ª à¹Ī
Ġà¤¯à¥ĩà¤¥ à¥ĩ
Ġg erek
Ġby lo
ll ando
Ġn ov
áĥĿáĥ £áĥ
ĠÐ±Ð¾Ð»ÑĮÑĪ Ðµ
Ġà°µà°¾à°° à°¿
ĠK inder
ica ciÃ³n
b res
Ġà¦¬à¦¿à¦ ª
ĠØª ÙĤ
ĠÎµÎ¯ ÏĢÎµ
åħįè´¹ è§Ĥçľĭ
Ġà¤¸ à¥ģà¤¨
cj on
íı ī
Ġt ÉĻh
Ġà®µ à®²
è®¡åĪĴ app
çļĦ éĩįè¦ģ
æĤ ī
8 5
éĻ ·
ç»ĵ åĲĪ
at hi
Ġå¤§åıĳ 10åĪĨå½©
Ġ æľĢæĸ°
èĩª çĦ¶
à¤Ĺ à¤³
Ġje g
ĠìĤ¬ ëŀĮ
ĠáĥĹ áĥķáĥĲáĥļ
d Åº
ĠL ie
Ġp ouv
ĠÎĳ Î¡
Î¼Î¿ Î¯
Ľà¸ı à¸´à¸
Ġagäºļ éĽĨåĽ¢
Ćć ą
ç®Ģ åįķ
åĿ ¦
¡à¸²à¸ģà¸¡à¸²à¸ ¢
Ĺà¸³à¸ ĩà¸²à¸Ļ
ķà¸£à¸ ĩ
éļ Ĳ
èģĶ çĽŁ
am e
Ġà¸ Ķà¸¹
ĠUU å¿«3
æľī çļĦ
åĲ¯ åĬ¨
Ġć ï¼Į
Ġagå¹³åı° å®ĺç½ĳ
¥à¸ ±à¸ģà¸©à¸
éĤ ®
åĳ Ī
« áĢ
7 99
Ġà¤ĺ à¤Ł
as jon
ĠB ei
ĠÑĥ Ð»
Ġà¦ħ à¦ª
r uc
Ġáĥ¡ áĥĺ
cz na
ĠÎ· Î¼Îµ
ÑĨ Ðµ
Ġãģ Ĥ
Ġan da
Ġb a
Ġà¦¬ à§ľ
ĠW ie
Ġpub lic
ĠÎµ Î¹ÎºÏĮ
Ġà°° à°Ĥà°Ĺ
å¯ ¾
Ġà¤®à¥ģà¤ Ŀ
à§ģà¦¦à§įà¦§ à§ĩ
h m
cri ption
is me
×¨ ×Ļ
Ġáĥ¢ áĥĶáĥł
Ġà°ķà±Ĭ à°¨à±įà°¨à°¿
Ġbar ÉĻdÉĻ
ĠÐ¾ ÑĦ
à¤¬ à¥Ģ
ul ta
à¬ °
Ġà¤µà¤¾à¤² à¥Ģ
ci u
ÎŁÎ¥ ÎĽ
ĠÎºÏħÎ²ÎŃÏģÎ½Î· ÏĥÎ·
ĠØ¹ Ø§Ùħ
Ġà®ļà¯Ĩà®¯à¯įà®¤ à¯ģ
æ¬§ æ´²
ª à¸²à¸£
Ġà¤¶ à¤¿à¤ķà¥įà¤·
ÉĻ ng
Å¡ enÃŃ
eler i
Ġp ag
Ïī ÏĦÎµÏģ
à§ĩà¦¤ à§įà¦°
Ġx e
ci miento
ĠÐļ Ð¾Ð½
Ġris p
ª áĥĺáĥļ
ĠÎ¹ Î´Î¹Î±Î¯
à®¾à®Ł à¯ģ
± à¹Īà¸Ļà¸
ĠåĲ į
Ġà¤µ à¥įà¤¯à¤µ
s I
an ych
Ġv last
ĠÐ¼ Ð°Ð»
ãĤĬ ãģ¾ãģĻ
z ei
iz ÉĻ
Ġáĥ¡ áĥĺáĥ¡
w as
Î³Î³ÎµÎ» Î¼Î±
à¯ģà®Ł à¯įà®Ł
ĠPos tÃ©
Ġj ours
åĿ ı
à¹Ģà¸ŀà¸ ·à¹Īà¸Ń
«à¸¡à¸ ·à¸Ńà¸Ļ
éº »
å² Ĺ
Ġå¼ ķ
Ġà¤ħà¤¸ à¥ĩà¤²
ĠÎ´ ÏģÏĮ
×ķ×ľ ×Ŀ
Ã¡v Ã¡
Ġch icas
Ġd ist
ÙĨ ÛĮÙĨ
ĠÐ¼ Ð½Ðµ
Ð¸ÑĤ Ñĥ
Ġs ÅĤ
ĠáĥĵáĥĲáĥ ¬
ĠÏĢÏģÎ¿Ïĥ ÏĢÎ¬
Ġà®¤ à®ķ
ĠáĥĴáĥĺáĥĿáĥłáĥĴ áĥĺ
ĠáĥĹáĥ¥áĥķáĥĶáĥľ áĥĺ
Ġg Ã¼
ĠÎ´Î¹Î¬ ÏģÎºÎµÎ¹Î±
in n
Ġà¦¢ à¦¾à¦ķà¦¾
à§Ģ à¦²
Ð¾ÑĤ Ð°
Ġà°ªà±įà°° à°¾à°Ĥà°¤
Ġs ÉĻh
Ð¸ÑĤ Ð°
ru ik
z pie
Ñĩ Ð°Ñģ
Ġsim p
Ġne z
Î¸ Î¬
Ġ'> </
ĠagçľŁäºº ç½ĳç«Ļ
åį« çĶŁ
å½¢ å¼ı
à¹ĥà¸ Ķ
ķ à¸£à¸§à¸Īà¸
Ġç¤ ¾
Ġà¤ķà¤® à¥Ģ
ĠáĥĽáĥĺáĥ ¬
eit s
ÏĥÏĦÎµ Î¯
Ġv ita
ka mi
à§įà¦¯ à§ĩ
à®¤à¯įà®¤ à®¿à®±à¯įà®ķà¯ģ
ĠÐ²Ñĭ Ð±
Ġíķ ł
Õ¡Õ ·
Ġq an
Ø¹ ÙĪØ¯
Î» Î¹Î¬
Ġà¤¬ à¥Ģà¤ļ
Ġd urante
Ġex emp
ĠN EW
P art
ĠNEW Part
el ah
ĠÐ¸ Ñİ
ĠãĤ µ
Ġc Ã¹ng
er i
Ġà¦¸ à¦°à§įà¦¬
Îº Î»Î¿
s ter
ĠÑģÑĤ Ð°ÑĢ
O D
ĠZ a
ÙĬ Ø§ÙĨ
ĠÎµ Î³Îº
Ġpersonn es
ĠáĥĳáĥĲáĥķáĥ¨ áĥķ
ĠÙĨ Ø³
Ġ×Ľ ×Ĳ
Ġì »
ĠÐ¿ÑĢÐ¾Ð± Ð»ÐµÐ¼
Ġ ur
ĠÎ¥ ÏĢÎ¿ÏħÏģÎ³
au m
Î»Î¿Î³ ÎŃÏĤ
Ġà°Ĩ à°«
ÎŁÎ¥ Î£
Î´ Î·ÏĤ
à§ģà¦ ģ
Ġà®®à¯ĩà®² à¯ģà®®à¯į
ÏĦÎ¿ Î¼Î±
à¶ §
à¤Ĺ à¥Ģ
áĥĲáĥ¡ áĥ¬
ãĥ Ļ
ĠF Ã¼r
ĠP a
Ġà¤µà¤¿à¤ Ń
Ġpo zy
ëĶ Ķ
dÄ± ÄŁÄ±
Ð¾ÑĤÑĢ ÐµÐ±
ĠnhÆ° ng
ÃŁ er
áĥ¨ áĥĺáĥł
Ġe ller
Ùĩ Ø¯
Ġà¦¤ à§Ī
Ġà¤ªà¥įà¤°à¤¦ à¥ĩà¤¶
Ġà¤¸à¥įà¤¥ à¤¿à¤¤
k Ã½
Ð «
ÐµÑĢ Ð±
al ny
ĠØ² ÛĮØ±
Ö °
×ĳ ×ķ×ĵ
ill as
ti j
qu er
ĠÐ¸Ð· Ð¼ÐµÐ½
à°¾à°¸ à±į
ĠÙĬ ØŃ
Ġ osta
Ġãģĵ ãģ®
Ġëª ©
ĠÎļÎ± ÏĦÎ±
ĠÐ¾ Ð¿ÑĢÐµÐ´ÐµÐ»
×© ×ķ×ª
ction s
ÏģÎ± Ïĥ
to res
Ġà¤² à¤¿à¤¯à¤¾
Ġne p
ĠÎ½ Î·
ĠN aj
ĠnÉĻti c
Ġà®ķà®° à¯ģà®¤à¯įà®¤
Ġein es
èĢģ å¸Ī
éĺ ħè¯»
èĤ¡ ç¥¨
à¤¾à¤Ĥà¤ ¬
ĠÐ» ÐµÐ³
Ġtara f
Ġì½ ľê±¸
ìķĦ ê°Ģ
Ġdes arro
Ġáĥ¡áĥ®áĥķáĥĲáĥĵáĥĲáĥ¡ áĥ®áĥķáĥĲ
ĠÙĪ ØŃ
Ġìĥ Ī
p ond
ĠÎ¿Î´Î· Î³
Ġà°¸ à°Ń
u tion
bi or
Ġka Å¾d
Ø¹ ÛĮ
Ļ àµįà´
à¥Ģ à¤ľ
à¯Ī à®¤à¯į
ist es
Ġpro ble
à°ķ à±įà°°à°®
ĠÎ±ÏĢ ÎŃ
Ġà¦ī à¦ļ
ĠÐº Ð°ÑĤ
ÏĦÎ¹ÎºÎ¿ Î¯
Ġw at
ÙĦÙĬ Ùħ
¥à¸ Ķ
Ľà¸¥ à¸Ńà¸Ķà¸
ĠâĦ ĥ
è¡ ¡
æĿ¥ è¶Ĭ
Ĺà¸µà¹Īà¸ ªà¸¸à¸Ķà¸
à¸µà¹Īà¸ Ľà¸
à¸£à¸°à¸ļà¸ ļ
ģà¸£à¸°à¸ Ĺà¸
å° ¾
Ġå°± æĺ¯
é Į
ĠS h
ç«ŀ äºī
ä¸ª æľĪ
à¹Ĥà¸£à¸ ĩà¸
Ĺà¸µà¹Īà¸ ¡à¸µ
ĠæĤ ¨
9 4
Ġæ¶ Ī
Ġäºļæ¸¸éĽĨåĽ¢ å¹³åı°
æıĲ åĩº
Q åĪĨåĪĨå½©
ģà¸´à¸ Ī
Ġç¥ ŀ
Ġà¤¦à¤¿à¤² à¥Ģ
ĠÏĨ Î¬
áĥĶáĥĿáĥĳ áĥĲ
à°¾à°° à°£
et er
Ġà¤µà¤¿à¤¶ à¥įà¤µ
Ī ¬
áº¥ u
Ġà®° à¯Ĥ
Ã» t
ĠÄį i
ĠÑģÑĤ ÑĢÐ¾
ĠÙĪ ÙĦØ§
Ġà®ļ à®Łà¯įà®Ł
ĠáĥŀáĥłáĥĿáĥĴ áĥłáĥĲáĥĽ
ĠwiÄĻ c
ĠÎºÎ± Î¯
ei g
ĠÎµÎ¾ ÎŃ
Ġ×ĳ ×ł
Ġl ay
áĥĲáĥĴ áĥĲáĥľ
Ġth is
e u
Ð°Ð» ÑģÑı
Ä Į
ov al
Î¯ Î´Î±
è¯ ¦
à¸Ļà¸ ±à¸ģ
æĺ¯çľŁ å®ŀ
Ġ; ï¼Į
ç¼ ´
ä»Ĭ å¤©
Īà¸±à¸ ļà¸
Ġæ ĵ
áłłáł Ń
´à¸ Ķ
çĭ Ĺ
à¤²à¥ĩà¤² à¥ĩ
áĥł áĥĲáĥ¢
áĥĲáĥ¨áĥĿáĥłáĥĺáĥ¡ áĥĿ
Ġ à
Ġà¤Ĩ à¤§
Ã ī
Ġc oup
ĠØªØ§Ø±ÛĮ Ø®
w is
ĠÙĤ Ø§ÙĦ
Õ«Õ ¯
ÉĻhs il
Ġp es
Ïĥ Ïħ
à¦¾à¦° à¦¿
ĠÐľ Ñĭ
ĠÏĮÎ» Î¿ÏħÏĤ
Î» ÏīÏĥÎ·
ĠáĥĴáĥĲáĥľáĥĲáĥªáĥ®áĥĲáĥĵ áĥĲ
asÄ±n Ä±
r er
Ð°Ð» Ð¸ÑģÑĤ
à§ĩà¦ ·à§įà¦Ł
s g
ã ħ
Ġë° ĺ
ĠÎľ ÏĢ
ĠÑįÐº ÑģÐ¿
ĠØº ÙĬØ±
ĠE uro
e w
à®¿à®© à®°à¯į
Ġd am
Ġpod le
ÐµÐ² Ð°
ĠÏĦ Ïħ
ĠÐ´Ð¾Ðº ÑĥÐ¼
ĠD I
z ie
ĠÙĨ ÙĤ
Ġph áº©m
×ĳ ×Ļ×Ŀ
ĠÐ¼ ÑĥÐ¶
ci Äħ
ill o
Ġà¤ľ à¤²
ĠáĥĲáĥ®áĥļ áĥĲ
ĠprÃ©s ent
ĠÑĤ ÑĢÐ°Ð½
io re
Ġjed no
à°¿à°Ĺ à°¿
Ġà¦ĩà¦ī à¦¨
á» «
ĠÎ´Îµ Î´Î¿
Ġ( "
ĠáĥĴáĥĲáĥĽáĥĿáĥ §áĥĶáĥľ
iy at
omb res
ì§ ģ
ĠÎ´Î· Î¼ÏĮ
Ġà®¨ à®©à¯įà®±
ĠÐ½ Ð¸Ñħ
Õ¥Õ ¯
v ar
ãĥ© ãĤ¤
à®Ļà¯įà®ķà®³ à¯ģà®ķà¯įà®ķà¯ģ
Ãª t
ĠÎĺ ÎŃ
Î¿ÏįÎ½ ÏĦÎ±Î¹
Ġà¤¶à¥ģà¤° à¥Ĥ
à§Ģ à¦ķà§įà¦·
ĠF e
Ø§Ø¨ ÙĦ
any ak
ab e
Ġc ir
ĠÎ£Ïħ Î¼Î²
Ð¡ Ð¢
ĠÑĥÑģÐ» ÑĥÐ³
ĠÎĵ Î±
Ġu ed
Ġagäºļæ´² éĽĨåĽ¢å®ĺç½ĳ
Ġ9 5
Ġå¤§åıĳ uuå¿«3
Ġà¤ħà¤¸ à¤¤à¥ĩ
áĥĺáĥł áĥĶáĥĳáĥ£áĥļáĥĺ
Ġà¦® à§ģà¦ķà§įà¦¤
Ã©r ie
ĠP L
Ġc en
ì ¼
ĠLe ben
Ġl Ãªn
Ġ"] =>
Îķ Îł
Î ĸ
ÏĨ ÎµÎ¹
lÉĻÅŁ dir
ĠÎ´Î¹Î±ÏĨÎ¿ ÏģÎµ
à¤¾à¤ķ à¤°
ĠÐŀ Ñģ
à§įà¦¯à¦¾à¦¨ à§įà¦¡
Ġb ou
ãģĹ ãģ¾ãģĻ
à®¿à®¨à¯įà®¤ à¯ģ
Ġnue vo
ber g
à· Ħ
à¤¾à¤ĩ à¤Ł
ĠÐº Ð»Ð¸
O U
st ru
iy i
áĥ£áĥł áĥĲ
ation en
Ġos Ã³b
ĠØ³ ÙĨÚ¯
ĠÐº Ð°Ð·
Ð¾Ð» Ð¶
ci dad
ĠÎ±ÏĢÏĮ ÏĨÎ±
áĥĺáĥ¢áĥĶáĥ¢ áĥĺáĥ¡
p iel
ÙĪ Ø©
Ð¸ÑĤ ÐµÐ»Ð¸
at ter
en de
ĠÎ¤ ÎŁ
ĠÎµ Î¸Î½
f Ã©r
íĥ ľ
à®¿à®ķ à®´
ar aq
ĠÙĩ ÛĮ
ĠÑĤÐµÐ» ÐµÑĦ
p s
áĥ¢ áĥĻ
ÏģÎ· Î¼Î±
ĠÄĳ ang
ow iÄħ
×¢ ×Ķ
Ġw p
ãģ¾ ãģ§
ĠV Ã½
ĠÏĥÏĩÎµ ÏĦÎ¹ÎºÎ¬
ĠÐ¿ÑĢÐ¸Ð¼ ÐµÐ½
uf f
Ø¶ ÙĪØ¹
Ø§ Ø§
ĠÙĦ ÙĬ
Ġáĥ¤ áĥł
it al
ĠÐ³ ÑĢÑĥÐ¿Ð¿
Ġà¤¶ à¤¾à¤®
Ġà¦ľà¦¾à¦¤ à§Ģà§Ł
Ġà°Ĺ à±Ĭ
ovÃ© ho
Ġà¦¸à¦Ń à¦¾à¦ª
Ġà§¨à§¦à§§à§ ¯
Ġà¦ĵ à§Ł
åĮ» çĸĹ
à¤£ à¤¾
Ġcu enta
Ġh ak
Ġcas a
ĠÏĦÎŃ Î»Î¿ÏĤ
Ð¾Ð¶ Ðµ
Ġà¦® à§Ĥà¦²
is ten
Ø§Ø² Ùħ
Ġbeau coup
ê ´ĳ
à°¸à±įà°Ł à±į
ĠÑĥ ÑĢÐ¾Ð²
ĠÙĤ Ø¨ÙĦ
) .
ĠvÃŃ ce
h am
ĠÎĳ Î¹
¥à¸ ¹à¸ģ
Ĭà¸²à¸ ķà¸´à¸
Ħà¸ ĩ
è¿Ļ ä¹Ī
Ġà¤ķà¤¾à¤° à¥įà¤¯à¤ķ
ĠÑģÑĤ Ð°ÑĤÑĮ
ĠÎµ á¼
ĠÎ´Î· Î»Î±Î´Î®
ĠP DF
Ġvra i
ĠÏĩÏİ ÏģÎ¿
ÏĦÎµ ÏĩÎ½
Ġ1 åĪĨpk10
âĸ ¡
ļà¸±à¸ ķà¸´à¸
Īà¸ ¶à¸ĩà¸
Ġå¸ ¦
å®īè£ħ æĿ¿
«à¸¥ à¹Īà¸²
Ġç³ »
éŀ ĭ
æ³ ½
æ² Ĵ
áŀ ¢
Ġagæīĭæľºå®¢æĪ·ç«¯ å®īè£ħæĿ¿
à©į à¨¹
¸à¸ ĩ
ĠĆĈ ć
Ġà¹Ģà¸Ĭ à¹Īà¸Ļ
æ¯ķ ä¸ļ
åľ £
áŀ ĩ
à¤°à¥įà¤ Ń
Ġk ay
Ġà°¤à±Ĩà°² à°¿à°ª
Ġn Ã¼m
Ġann Ã©e
ĠáĥĽáĥ£áĥ¨ áĥĲáĥĿáĥĳ
ĠÑĪ Ðº
ãģĹ ãĤĩ
Ġ×¨ ×Ĳ
Ġà®ªà¯Ĩ à®°à®¿à®¯
Ġz ag
ëĭ ĺ
Ġt ec
11 æľĪ
Ķ áĢ¹áĢ
Ġäºļæ¸¸éĽĨåĽ¢ åľ¨çº¿
éļ Ķ
åĪ ĳ
à¹Īà¸¡à¹Ģà¸ ķà¸´à¸
à¥įà¤¯à¤¾à¤ °
ì¦ Ī
Ġs ic
Î³Ïī Î³Î®
Ġac tiv
ĠÅŁ ÉĻk
Ġà°Ń à°¾à°Ĺ
Ġtr Ã¬nh
ap a
à¦¸ à¦¹
ĠÐ±Ñĭ Ð»Ð°
áĥĺáĥļ áĥĶáĥĳáĥĲ
ĠÏĦÎ¿ á¿¦
Î¯ ÏĦÎ·
Ġst ra
à¦¿à¦ ·à§įà¦Ł
ip ad
çļĦ é«ĺ
åĳ¨ å¹´
åıª æľī
Ġåħ ī
Ġ> >
h one
Ġà¤¨à¤¿à¤µà¤¡ à¤£
ĠÙĥ Ùĩ
Î¼Î¿Ïģ ÏĨ
è¿Ŀ æ³ķ
æĺ¯ ä¸Ģä¸ª
łà¸±à¸ ¢
Ġèĭ ¥
ĠçĿ Ģ
Ġv ns
Ġéĺ ²
åıĸ å¾Ĺ
Ġè§ Ĩ
ĠagåĽ½éĻħäºļæ¸¸ å®ĺç½ĳä¸ĭè½½
åĢ º
ªà¸±à¸ ¡à¸
Ġå¹¿ ä¸ľ
è¦ Ĩ
åħĪ éĶĭ
±à¸Īà¸ Īà¸¸à¸
13 8
Ġæī į
å¹¿ åĳĬ
Ġ) ;
áł £
Ġå¹¶ ä¸Ķ
Ġ áŁ
à¹Ģà¸Ħà¸ ¢à¸
à¹ģà¸ľ à¸Ļà¸
Ġé¾ Ļ
Ġà¤¸à¤¾à¤Ĥà¤Ĺ à¤¿à¤¤
ĠØ´ Ø¨
ĠáĥłáĥĲáĥĽáĥĵáĥĶáĥľ áĥĺáĥĽáĥĶ
ĠÃ© tu
Ġf atto
Î» ÏĢ
ĠÎ»Î¿Î¹ ÏĢÏĮÎ½
ĠÏĩÏģÎ® ÏĥÎ·
Äį nÄĽ
Ġpo trze
Ġà®Ĩ à®ļ
ĠÐ½ Ð°Ð¼
Ø¦ Ø©
×ŀ× ©
Ġà®µ à®¾à®¯
Ġo re
osten los
i ÅĤ
ĠÏĢÏģÏī ÏĦÎ¿
à¤¾à¤¯ à¤°
à±įà°µ à°°
Ġdo ÄŁ
ĠG er
I tem
ê »
Îľ ÎĳÎ¤
á½ ²
ĠÎ¼ ÎµÎ¹
Ġà°ļà±Ĥà° ª
Ġà¦¸ à¦¾à¦¹
ĠÑįÑĤ Ð¾Ð¹
n it
ï¼ ī
è®¡åĪĴ è½¯ä»¶
æĺİ æĺ¾
Ĥà¸Ńà¸ĩ à¹Ģà¸£à¸²
Ĥ à¸Ļà¸
Ġåĩ¯åıĳ æ³¨åĨĮ
åľ Ĩ
èĥ ¶
æĿ¥ äºĨ
= =
Ġà¤¨à¤µ à¥įà¤¹
ĠÎ½ÎŃ Î¿
Ġre m
Ġà®µ à®¿à®ļ
áĥĶáĥ¢ áĥĺ
åŃĹ å¹ķ
Ġà¤ħà¤¨ à¥įà¤¯
Ġper chÃ©
Úĺ Ùĩ
ĠÏĮ Î»Î¿Î¹
Ġe uro
y ste
Ġe ur
ĠØ§ÙĦØ¹ Ø§ÙĦÙħ
ĠÎł Î±Î¹
ĠÏĥ Î¹
Ð´ Ð¸Ð½
ĠnÃ³ i
Ġheb ben
íĹ ĺ
Ġà¦¹ à§ĭà¦¸
Ġà°¨à°¿à°°à±įà°µ à°¹
áĥ¡ áĥĶáĥľ
Ġà¦ª à¦¦
ÏģÎ¹Î± ÎºÎ®
Ġv al
Ġà°µ à°¦à±įà°¦
ĠáĥĽáĥĿáĥ Ĺ
owan ych
ĠØ§Ø³ ÙĦØ§Ùħ
Î¸ Ïį
ÃŃ t
ĠÎ»Î¯ Î³Î¿
Ġ Ą
22 6
Ġà¹Ģà¸ ģà¸¡à¸
Ġ3 33
ĩà¹Ģà¸ ģà¸
Ġà¤µ à¥Ī
Ġpre mi
ĠÙĪ Ø¬ÙĪØ¯
Ġà®®à®ķà¯įà®ķ à®³à¯į
ĠÃ§ at
Ð¸ÑĩÐµÑģÐº Ð¸
iem bre
Ġn Ã£o
kom men
ÅĦ ski
ĠÎµÎ¼ÏĨ Î±Î½
à¦ ¯à§ĭà¦Ĺ
ti ci
à±ĭ à°®
ĠÎļÎ± ÏĦÎ¬
ter ior
ones ia
Ġmen y
s ÅĤ
Ġpr Å¯
ĠÎķÏħ ÏģÏīÏĢÎ±ÏĬ
ĠÐºÐ² Ð°ÑĢÑĤ
ĠÃ¶z Ã¼n
Ġpr Ã©c
ĠÎ´Î¹Îº Î±Î¹
pr owadz
ĠS er
Ð¼ Ðµ
ĠÎĻÎ±Î½ Î¿Ïħ
Ġáĥ£áĥłáĥĹ áĥĺáĥĶáĥłáĥĹ
à¸Ńà¸ĩà¸ Ħà¹Įà¸
à¤¾à¤¸ à¤¨
ĠÎ¸ ÎµÏģ
pu Ã©s
ãģĵãģ¨ ãģĮ
à¯Ĥ à®°à¯į
Ġáĥ¡áĥĲáĥĶáĥłáĥĹ áĥĲáĥ¨áĥĿáĥłáĥĺáĥ¡áĥĿ
ģà¸²à¸ ¢
Ġèµ Ħ
éļ Ĩ
èĻ ļ
à¹Ħà¸¡ à¹ī
¶ à¥Ģ
Ġn um
×Ļ ×ķ×Ł
ĠÐ½ ÐµÐº
at t
Ġd Å¯
à§ĩà¦¶ à¦¨
ĠF ra
ĠØ§ÙĦÙħ Øµ
ÎĻÎ ľ
Î´ Î¯Î±
ë² Ħ
à°ķ à±Ģà°¯
Ġfin den
Ä±s Ä±
áĥĲáĥł áĥĺáĥĲ
à±ģà°° à±ģ
Ġb ra
ĠáĥĴáĥķ áĥĶáĥłáĥĵ
Ķ à¸²
åħļ çļĦ
36 0
ĸ à¹īà¸²à¸
éŁ³ ä¹Ĳ
Ġä» »
æİĴåĪĹ 3
¡à¸µà¸ ģà¸²à¸£à¸
6 æľĪ
Ġ200 9
åĬ© æīĭ
åĪĨ äº«
Ġà¸ ķà¸±à¸§
Ġà¤ħ à¤°à¥įà¤¥
con om
à®¨à¯įà®¤ à®¿à®°
Ġkh Ã¡c
ĠØ¨ Ø´
Ġà°ķ à°®
ĠÎ¼ ÏĢÎ±
te go
áĥĶáĥĽáĥĳ áĥĶáĥłáĥĺ
áĥĺáĥķ áĥĶ
f all
ĠÕ ¬
Ġi ki
em ble
sta v
ĠÎ± Ïį
Ġà®µ à®¯
Ð°Ðº Ñģ
Ġ×ľ ×ª
à¦® à¦¨à§įà¦¤à§įà¦°à§Ģ
Ïĥ Î¬
ĠÐŀ Ð½
ìł Ģ
à¦ Ĩ
ĠáĥĴáĥĲáĥĵáĥĲáĥ¬áĥ§áĥķ áĥĶáĥ¢
Ø® Ø§Ø¨
ĠB us
Ġmen os
áĥłáĥª áĥĶáĥļ
Ġsit u
Ġà°µ à°¾à°¡
Ġà¦ĸ à§ģà¦¬
Ġagäºļæ´² å®ĺæĸ¹
Ġag çĶµæ¸¸
éĢŁ åº¦
å¸® åĬ©
å¤ļ ä¸ª
å¤ĩçĶ¨ çĻ»å½ķ
Ġà¤µà¤¿à¤ µ
ĠÏĥÏħ Î¼ÏĨÏīÎ½
al nie
à¯ģà®ķ à®³à¯Ī
à°°à±įà° Ń
Ø±ÛĮ Ú©
ÏģÏĮ Î½
ì¢ ħ
li ng
ĠÉĻl aq
Ġs ais
ĠÎł Îĳ
ĠÎļ Î¹
Ġje Å¡tÄĽ
ĠÎķ ÏĢ
ĠM an
ĠáĥĵáĥĲáĥĺ áĥ¬áĥ§
æ¸© åº¦
ä¸Ń åįİ
æľ ±
æģ Ĳ
à¸£à¸²à¸ §
Ġà¤¹ à¤¾à¤¤
Ġag o
à°ª à°Ĥà°ļ
Ð° ÑĨÐ¸Ð¾Ð½
Ġà¤ī à¤¸à¥ĩ
ÏĥÎµ ÏīÏĤ
ĠÎļ ÏĮ
pe ÅĤ
×Ĺ ×ª
Ðº Ð°Ð¼Ð¸
Ġpr ost
ki ng
áĥĺáĥľ áĥĲáĥľáĥ¡
ĠÎ¿ÏĢÎ¿Î¯ Î¿ÏĤ
l et
Ø± Ø³ÛĮ
Ġåħį è´¹
Ġà¤ķ à¤¾à¤Ĥà¤Ĺ
Ġà¦¬à¦¿à¦¶ à§ĩà¦·
Ġà¤ķ à¤ª
Ð°Ð» Ð¸ÑģÑĮ
m bre
ÏĥÏĦÎµ ÏĤ
Ġpeti t
ĠØ§ÙĦØ§ Ø³Øª
à¤¿à¤¯ à¤¾à¤Ĥ
ĠáĥĽáĥĿáĥ Ļ
Ġà¤Ĳ à¤¸à¥ĩ
ìķ ĺ
çģ ¾
Ĭà¸± à¹Īà¸Ļà¸
éĤ Ħ
å®ļ çļĦ
Ĺ à¸£
ĭà¸¶ à¹Īà¸ĩà¸
Ġçİ¯äºļæīĭæľº ä¸ĭè½½
ĠagåĽ½éĻħäºļæ¸¸å®ĺç½ĳ æīĭæľº
çİ° ä»£
ä¸¥ éĩį
Ġà¸Ļ à¸Ńà¸ģà¸
å¯¹ è±¡
à¸£à¸±à¸ģà¸ ©à¸²à¸
å¥½ è¿Ĳ
ŀà¸ ±à¸Ļà¸
æĸ ¤
æ¨ £
à¹Ĥà¸ Ĭà¸
ĠáĢ ±áĢ
Ġà¸ Ħà¸£à¸±à¹īà¸ĩ
Ġà¸ «à¸
ç½Ĺ æĸ¯
Ġåį ĥ
Ġäºļæ¸¸ çĻ»å½ķ
éĿĴ å¹´
èħ ¾è®¯
ç¤¾ åĮº
áł ¨
Ġ ä½ľä¸º
é¡ ¿
¢ à¸µà¹Īà¸¢à¸
Ġæ²¡ æľī
æĺ Į
ķ à¸Ńà¸ļà¸
Ġæ¸ ¸
è¯ģ åĪ¸
å¼ Ĭ
äº ¦
ŀà¸ ±à¸ģ
į à¸µà¹Īà¸Ľà¸
èĤ ĥ
Ġéľ Ģ
Ġä¸ĸ çķĮ
ĠèĤ ¡
Ġæ ¾³
ĠåĪ ¶
Ġä¸º äºĨ
Ġag å¼ĢæĪ·
à¤° à¥įà¤¯à¤Ĥà¤¤
Ġag gi
à®¾à®µ à®¿à®©à¯į
ĠU na
Ġsp iel
Ġfr anÃ§ais
ÅĤo Å¼
ĠÎŃÎ³ Î¹Î½Îµ
áĥĺáĥļ áĥ¡
we ise
Ġinf ormaciÃ³n
åľ¨çº¿ æĴŃæĶ¾
Ġà¤Ĩà¤ª à¤ķà¥ĩ
re z
ĠÙĬ ÙĤ
à±ĩ à°Ĥà°¦à±ģà°ķà±ģ
Ġ×Ļ ×ķ×ª×¨
66 8
ĠæıĲ ä¾Ľ
Ī à¸Ļ
Ġà¤² à¥ĩà¤ĸ
ĠÐ² Ð¾Ð»
ÑĢÑĥ Ð±
Î´ Î¹ÎºÏĮ
ĠÕ ·
Ä± ÄŁ
Ġse gu
Î´ Î¹ÎºÎ®
áĥľ áĥĺáĥĹ
Ġà¤¦ à¥ģà¤¸
âĢĮâĢĮ âĢĮâĢĮ
ĠIS T
à°¾à°¨ à°¿à°ķ
Ġo cc
Ġà¦ª à¦¾à¦¶
Ðº Ð¸Ð¹
å£ ²
ĠT er
Ġ ÏģÏĮ
ãģ¨ ãģĹãģ¦
Ø§ Ø´
Î½ ÎµÏħ
Ð°Ð½ Ñĭ
Ã§ e
lij k
Ġqu ien
Ġà®ķà¯ģà®´ à®¨à¯įà®¤
à¥ Ľ
Î´ ÎµÎ¯
t et
Ġjej ich
ĠÎµÎº ÏĦÏĮÏĤ
Ġà¦ħ à¦¤
áĥ£áĥ¨ áĥĲáĥĿ
ĠÐ± Ð»
ap i
y abr
a cja
ra it
Ġ":"" ,"
Ġìļ Ķ
Ñĥ ÑİÑĤ
ĠÚ¯ Ø±Ø¯
Ġáĥ¤ áĥĿáĥłáĥĽ
Ġ8 5
Ġ20 08
Ġà¤¹à¥ĭ à¤£à¤¾à¤°
Ġà°ªà±įà°° à°¶
Î¥ Î¡
ĠÎ£ Î¬
ĠØ¹ ÙħÙĦ
Ġà°®à°¾à°° à±įà°ļ
Ġvax t
Ġà®®à®ķà¯įà®ķ à®³
g ang
Î´ Î¿Î½
ĠÏĢ ÎµÎ¹
owan a
ĠÎ±ÏĢÎ¿ÏĦÎŃÎ»Îµ ÏĥÎ¼Î±
åĪĨæİĴåĪĹ ä¸ī
à¥ĭà¤¬ à¤°
ĠÏĨÎ¿Ïģ ÎŃÏĤ
à¯ģà®£ à¯įà®Ł
Ġc ul
ick Ã©
Ø§Ø¯ ÙĬ
ĠÃ§ Ä±k
Ġà°İ à°²à°¾
à§įà¦Ł à¦¾à¦°
Ġb iáº¿t
áĥľ áĥĶáĥ¡
Ñĥ Ð»Ð¸
ĠWar sza
Ġm am
Ġe le
ä¸Ģ çº§
à¤°à¥įà¤ ¡
à±Ĩ à°¡à±įà°¡à°¿
à°¯ à°Ĥà°²à±ĭ
Ġst os
Ð¾Ð³ ÑĢÐ°ÑĦ
ĠÎĿÎŃ Î±
Ġáĥ¨áĥĶáĥ® áĥķáĥĶáĥĵ
ĠK ar
à®¾à®µ à®¿à®²à¯į
áĥĶáĥ ĸáĥĶ
Ø« ÙĬØ±
ĠÏĦÎ¿ ÏĢ
ĠW enn
ĠÐ½Ð° ÑħÐ¾Ð´
Ġt ych
ãĥ¼ãĤ ¸
er en
ì ¤Ģ
áĥ« áĥ¦
ĠgÃ©nÃ© r
sk Ã©ho
ĠÏĦÎµÎ»ÎµÏħÏĦÎ± Î¯Î±
i h
ĠØ¨ Ø§Ø±
Î· Î¼Î±
à§įà¦¤ à¦¾à¦°
Ġa x
ķ à¸Ļ
ĠagåĽ½éĻħäºļæ¸¸ å®ĺç½ĳçĻ»å½ķ
è¿ĺ æľī
å¼ ±
Ġà¤¬ à¤¾à¤ľ
áĥĴ áĥ£áĥ¤
Ġà°¸à°Ĥà° ¸à±įà°¥
Ġqu Ã©
ĠÎ¤ ÎĹÎ£
Ġá½ ģ
ÏĦÏģÎ¿ ÏĢ
ÅĤa w
à§ĭ à¦¹
Ġà¤ª à¥Ĥà¤°
Y n
Ġíķ Ħ
ĠÎľ Îķ
Î¼ Î¼Î±ÏĦÎ±
Ġà®ªà®ķ à¯ģà®¤
szy m
ĠÄį er
ĠA y
Ġm no
ĠÎľÎµ ÏĦÎ±
ĠáĥĶáĥĻ áĥĿáĥľáĥĿáĥĽ
Ð¼ Ð°ÑĤ
ÏĦÏģÎ¿ ÏĨ
Ġ×ŀ× ŀ×
ç¨ĭ åº¦
æĿ °
ªà¸ ±à¹Īà¸ĩà¸
Ĺà¸±à¹īà¸ĩà¸ «à¸¡à¸Ķ
å¸¦ ä¸Ģè·¯
ä¸į åı¯
Ġà¤ľà¤¿à¤² à¥įà¤¹
ĠØ¹ Ø¨Ø¯
ĠÙĬ ÙĪÙħ
æķ ı
¨à¸¶à¸ģà¸ ©à¸²à¸
ŀà¸Ļà¸ ±à¸Ļ
Ġå¾® ä¿¡
æĬ µ
Ġçİ¯äºļ appä¸ĭè½½
Ġç ¬
à¹ģà¸Ĥ à¹Īà¸ĩà¸
à¨ ¬
§à¸´à¸Ĺà¸¢ à¸²à¸
æľĹ æĻ®
Ġà¸ §
åĮĸ çļĦ
åĢį æĬķ
å»º è®®
ä¸ĭ éĻį
1 99
èģ Ĭ
è®¾ æĸ½
æĽ Ŀ
æĪĲ æŀľ
Ł à¸´à¸
ģà¸ ³
ĠæĶ ¯
Ġà¤ħ à¤ľ
at os
is Ã©
Ġt uo
Ġch Ãºng
Î¼ÎµÎ¯ ÏĤ
ÏĦÏģÎ¿ Î½
Ġà¦® à¦¾à¦®à¦²
Ġpropri o
ä¸Ģ ç§į
ä¸º äºĨ
à¤¾à¤® à¥ģà¤³à¥ĩ
Ġà°ĩ à°¦
Îķ ÎĻÎĳ
ĠÎļ Î¿Ïħ
Õ« ÖĢ
Ġr ÉĻh
cia les
ĠP reis
ĠÑįÑĤ Ð¾ÑĤ
Ġà§§à§ ¯à§
áĥĲáĥª áĥĶáĥĽ
à±Ĥà° ¤
ĠÎºÎ¿Î½ ÏĦÎ¬
dÉĻ t
Ø§Ø¹ Øª
Ġa ng
ar Ä±
ÐµÐ¹ ÑĩÐ°Ñģ
ãģĭ ãģ£ãģŁ
Ġà¤¸ à¥ĩà¤µ
Ġà°ħà°µ à°ķà°¾à°¶
Ġde j
ti es
à§ĭ à¦ľà¦¨
Ġex per
Ġu0 4
ĠÐ² ÑĤÐ¾ÑĢ
áĥĶáĥłáĥ ľ
ĠÏĥÏħÎ½ÎŃÏĩ ÎµÎ¹Î±
o le
ÎºÎ±Î½ Îµ
Ġà°ħà°µ à°¸
Ġsel bst
j Ã¸
ĠØŃ ÙĬØ«
Ġd ÅĤu
ë£ ¨
ab les
Ġà¤µà¤¿à¤ §
lo ck
ï¼ Ĳ
Ġãĥ ĸ
æ¯Ľ çīĩ
Ġà´ ¤
Ġà¤ľ à¥įà¤¯à¤¾à¤
ĠÎ£ÎµÏĢ ÏĦÎµ
ĠÑĥ Ð¿ÑĢÐ°Ð²
ĠØ³ Ùĩ
ĠÏĨÏīÏĦÎ¿ Î³ÏģÎ±ÏĨ
Ġà¤ķà¤¾à¤Ĥà¤Ĺ à¥įà¤°à¥ĩà¤¸
Ġpo i
Ġà¤īà¤¤à¥įà¤¤ à¤°
×¢ ×ķ×ª
ier no
Ġs owie
à®¿à® Ļ
áĥĶáĥĹ áĥĶáĥ¡
en ces
Ġy ak
Ïį ÎµÎ¹
ĠÐ¼ Ð°ÑĪ
n es
Î² Î´Î¿
b ei
ĠØ¨Ø± ÙĨØ§ÙħÙĩ
Ġcas o
in ie
ãģĹ ãģ¾
áĥĺáĥķ áĥĺ
ìĺ Ģ
Ġh Ãłnh
ĠÎ® Î´Î·
Ġkun nen
à¤¦ à¥Ģ
à¦¨ à§Ģ
Ġest u
Ġg esch
Ð Ļ
ĠÐ¼Ð¾Ð¶ÐµÑĤ Ðµ
z ÃŃ
ĠÏĥ Ïİ
sz ta
Ø¬ Ø©
c Ã©
ÙĪÙĨ ÛĮ
ĠáĥĽáĥĹáĥĲáĥķ áĥĲáĥłáĥĺ
ÑĢ Ð¸ÑĤ
ĠIn d
Ġà°ª à°¿à°²à±įà°²
Ġà®ļà¯Ĩ à®²
à¥Ĥà¤ ¬
ĠÎµÎ¯ ÏĦÎµ
ĠáĥĴáĥĲáĥľáĥĽ áĥĲáĥķáĥļ
ï¼ ĳ
Ġãĥ ¬
c Äħ
Ġa ÅŁ
ĠJ u
i zione
×ĳ ×Ļ
Ġk de
Ġà¤ļà¥ģà¤¨ à¤¾à¤µ
ĠOn line
ãģ »
Ġà¤ı à¤¸
Ġ, "
ĠÐ¶ Ð¸Ð·
Ġdo ty
Ġj etzt
áĥ¥ áĥķ
ut to
ÏĨ Î¯
ë¶ ģ
Ġà¦¬ à¦¿à¦¨
es ti
ëł ¨
à±Ī à°²
Ġg us
Ġáĥ¨ áĥĶáĥ¥
g ro
ru ck
à¥ĩà¤¨ à¤¾
Æı R
ir k
ci do
Ð¾Ð´ Ð°ÑĢ
t kow
Ïģ Î±Î¹
auss ures
ĠÙĪ ÙħÙĨ
Ġà¦¸ à§įà¦ķ
pa i
ĠÏĦ á½¸
ÏĦ ÏĥÎ±
ĠM on
Ð¾Ð´ ÐµÑĢÐ¶
Ðł Ñ
ĠÐ² Ð°Ñģ
à¯įà®ª à¯ģ
Ġà°¤à±Ĩà°² à±ģà°¸
ag er
Ġáĥ£áĥ ĸ
ĠÏĢÏģÏĮ Î³ÏģÎ±Î¼Î¼Î±
ÏĥÏĦÎ¿ Î¹
ĠÚ© ØªØ§Ø¨
Ġà¤ķ à¤Ĥà¤ª
ul as
ĠÙĩ ÙĨØ§
sz ej
ĠmÅ¯ Å¾
ĠØ¹ÙĨ ÙĪØ§ÙĨ
ÏģÎ± ÏĢÎµ
ĠíĻ Ķ
ĠÐ¿Ð¾Ðº ÑĥÐ¿
Ġo leh
ÏĦÎµ Î¯Î±
Ġat ten
Ð¸ÑĨ Ð°
á»ĩ nh
áĥĿáĥĵ áĥĺ
ĠD am
ĠI I
ĠÏĢÏģÎ¿ Î·Î³
Ġl ÃŃ
Ñĥ ÐµÑĤÑģÑı
×ľ ×ª
áĥ¢ áĥĿáĥĽ
Ġà°¨ à±ģ
on ych
Ġà¤¦à¥Įà¤° à¤¾à¤¨
Ġp ak
Ġà®ħà®°à®ļ à¯ģ
ĠSch w
Ġà®µà¯Ĩà®³ à®¿à®¯
ĠsÉĻb ÉĻb
Ġy o
ĠÂ ¡
Ġà¦¬ à§Ī
áĥĲáĥĻ áĥ£áĥĹ
auf en
ĠA cc
ãģ ³
ues to
Ġf er
Ð½ Ð¸Ñħ
ÙĤ Ø·
Ã¤ h
Ġh lav
Ïģ ÎµÎ¹ÏĤ
em mes
ÐµÐ³ Ð´Ð°
Ġà¤µà¤¿à¤ ·
Ġcon se
Ġà®İ à®£à¯įà®£
ì£¼ ì¶ľìŀ¥
Ġìł ģ
iss ance
ĠÎľ Î¹Î±
j az
ĠáĥĲáĥ¡ áĥĶáĥĹáĥĺ
ĠÐ·Ð° Ñī
ĠmÃ¡ y
s iniz
ĠÎ±Î³Î¿ ÏģÎ¬
Ġà¦ª à¦¾à¦²
à´¿à´ ķàµįà´ķ
äºº äºº
à¤® à¤¾
Ġ×ķ ×Ľ
Ġáĥĳ áĥĿáĥļ
åķĨ ä¸ļ
å¹ ¸
ĵà¸ °
ĠèĻ ½çĦ¶
Ġæ¯Ķ å¦Ĥ
éĶ ģ
æĺ¯çľŁå®ŀ åĲĹ
æĮĩ åĩº
Ġagçİ¯äºļå®ĺç½ĳ æľĢä½³
çĹ ĩ
ç¹ ģ
åĩĨ å¤ĩ
ķà¹īà¸Ńà¸ĩà¸ ģà¸²à¸£
Ġå¤§åıĳ 5
Ġagçİ¯äºļ æ¸¸æĪıå¹³åı°
é ¬
P K
å·¦ åı³
é© ¶
ç§» åĬ¨
à¹ĥà¸ ļà¸
ªà¸ ¹à¹Īà¸
Ġå® ļ
½ áĢ
da y
Ġ äº¬
èĪ Ĵ
à¸£à¸§à¸ ¡
m s
èħ Ĳ
§à¸ ¢
ĠU p
è¿ĩç¨ĭ ä¸Ń
è®¨ è®º
Ġéĩ ĩ
ĠéĤ£ ä¹Ī
è¯´ æĺİ
Ĺà¸µà¹Īà¸ Ķà¸µ
Ġ ä¾Ŀ
ĠáĬ ¥
éĥ¨ ç½²
çĹ Ľ
åĬĽ éĩı
à¤ķà¤° à¤£
ĠÐ¾Ð± Ð¾ÑĢ
Ġm ag
ĠÎ¤Î¿Ïħ ÏģÎº
Ġan i
ĠÑģÐ¾Ð¾ÑĤÐ²ÐµÑĤ ÑģÑĤÐ²
à¦ķà§įà¦· à§ĩ
Ġv ille
Ġtr atta
áĥĶáĥľ áĥ¡
Ð° ÑģÐº
ĠÎ¥ ÏĢÎ¿
ĠÎ¼ Î¹Ïĥ
at ur
è¿· å¤±
à¥ĭà¤ ļ
à¯įà®µ à¯ģ
Ġà°ªà±įà°°à°¾à°° à°Ĥà°Ń
ÏĨÎµ ÏģÎµ
Ġp utas
c al
ĠØ§ÙĦØ¹ ÙħÙĦ
áĥĸ áĥĲáĥķ
ĠÃ¶ ÄŁ
ÚĨ Ùĩ
ÑĢ ÐµÐ½
áº¯ n
×¤ ×ª
r Ã¡t
Î¬Î¶ ÎµÏĦÎ±Î¹
ãģĹãĤĩ ãģĨ
à¦¾à¦ĩ à¦Ł
Ġdies em
iz ia
æİ Į
Ľ à¹ĭ
Ġà¸ «à¸Ļà¸±à¸ĩ
à¸£à¸°à¸ ¢à¸
æ¬¢ä¹Ĳ çĶŁèĤĸ
à¸£à¸°à¸ Ķà¸±à¸ļà¸
ĠæĿ ¨
åĭ ĩ
åĪ Ģ
áŀ ¼
à¥ Ń
Z W
Ġnaj lep
èĩª æĭį
Ġà¤®à¥ĭà¤ ¦à¥Ģ
Ġà¤ķà¥Į à¤¨
ļ àµįà´ļ
Ġà¤īà¤¤ à¥įà¤ª
z eit
Ġ" .
Ġl lam
Ġì² Ń
ĠdÃ© vel
Ġà¤² à¤¿à¤ĸ
Ġà®ķ à®¾à®Łà¯įà®Ł
Ġu l
ĠÎłÎ± ÏĢÎ±
Î¯Î´ ÎµÏĤ
Ġj aar
tr ag
Ġà¤ªà¥Ĥ à¤°à¥įà¤µ
ĠìĤ¬ ìļ©
Ġà°°à±Ĩ à°Ĥà°¡
Ġdru h
Ġ\" :
Ġz wiÄħz
j er
nge bo
ÎºÏĮ Ïĥ
Ġáĥ¢áĥĶáĥ¥ áĥľ
ĠáĥĴáĥĲáĥľáĥĽáĥĲáĥķáĥļ áĥĿáĥĳáĥĲáĥ¨áĥĺ
Ġcon na
Ġph Ã¡t
Ġà®ļà¯Ĭ à®©à¯įà®©
en den
ĠT amil
à®¿à®¯ à®¾
dÄ± ÄŁ
ĠÙĩÙħ ÚĨ
Ġà¦¶ à¦¹
un que
S I
t ni
áĥĺáĥ¨áĥķ áĥĺáĥļáĥĺ
Ġáĥ¨ áĥĺ
Ġà¤¦à¥ĭà¤¨ à¥ĭà¤Ĥ
èĭ¹æŀľ çīĪä¸ĭè½½
åĪĨ åĪ«
å¸Ĥ å§Ķç»ŁæĪĺéĥ¨
å¤ļ çļĦ
ªà¸§à¸ ¢
x in
Ġæ ļ
Ġäºļæ¸¸ å®ĺæĸ¹ä¸ĭè½½
åħ ¼
Ĥà¸ ±à¹īà¸Ļà¸
Ġ5 åĪĨpk10
åŃ Ķ
ªà¸°à¸ Ķà¸§à¸
Ķ à¸´à¸Ļ
éĩĮ çļĦ
ļà¸²à¸ ¢à¸
Ķà¸³ à¹Ģà¸Ļà¸
Ġäºļæ¸¸å®ĺç½ĳ éĿŀåĩ¡
æķ ¢
èĳ£ äºĭ
èĤ ¯
è®¡åĪĴ å¸Ī
à¥įà¤¯à¤¾à¤ ķ
Ġ×© ×ł
ÎºÎµÎ¹ ÏĦÎ±Î¹
ĠáĥĽáĥĲáĥĺáĥľ áĥª
ier te
à°°à±įà° ľ
Ñĳ ÑĤ
Ã¡v ÄĽ
Ġà®® à®¾à®£
Ġdis pos
Ġda ar
áĥ¡ áĥŀ
Ġk em
ĠØ§ÙĦÙħ Ø¬
ku p
Î© Î¤
ĠÎ£ÎµÏĢÏĦÎµ Î¼Î²ÏģÎ¯Î¿Ïħ
Ġà¤ľà¥Ī à¤¸à¥ĩ
si Ã³n
Ġst ring
ĠÏĢÎµÏģÎ¹ÏĥÏĥÏĮÏĦÎµ ÏģÎ¿
ue il
à®¿à®© à®¾à®°à¯į
Ġà°ķ à°¾à°ķ
ĠrÃ© alis
Ġg dzie
Ġb l
ì ´Ī
Ġsi do
Ġà¦ªà§įà¦°à¦¤ à¦¿à¦¬
áĥ£áĥľ áĥĵ
Ġb lock
åł ±
ĠØ§ÙĦÙħ Ø¯
ĠØ® Ø§ÙĨ
à±Ĩ à°Ĥà°¬
ĠÐ¾Ð± ÑıÐ·
ĠÎŃ Î»Îµ
« à¹īà¸Ńà¸ĩà¸
Ġç ı
æĿ¥ æºĲ
æĿ ¨
æĮĩ å¯¼
å°¼æĸ¯ äºº
à¥įà¤¯à¤¾à¤Ĥà¤ ¨à¥Ģ
ĠÅ ½
iyy ÉĻ
v ol
Ġbes te
Ġbel ir
ĠÐ´ ÐµÐº
Ġà°Ĩ à°¦
Ġáĥ®áĥĶáĥļ áĥĺáĥ¡áĥ£áĥ¤
ĠÐ°Ð²ÑĤÐ¾Ð¼ Ð¾Ð±
Ġc r
Ġê ´ĳ
ĠÏĢÎ± ÏģÎµ
ĠáĥĽ áĥĲáĥłáĥĹ
ĠCom ment
il o
ĠÙĩØ³Øª ÙĨØ¯
Ġà¤¤ à¥Ī
Ġà°ª à°¾à°Ł
Ġjak ie
Ġà¦¸à¦¾à¦§ à¦¾à¦°à¦£
Î¹Î¿ Î¹
Ġà°ļà±ĩà° ¤
Ġemp lo
á»ĵ i
à¤¤à¥įà¤¤ à¥įà¤µ
ÐµÐ´ ÐµÑĢ
Ġáĥ¢ áĥĶáĥļ
ĠÅ »
Ġà®µà¯Ģ à®Łà¯įà®Ł
g ung
Ġì° ¨
m um
Ġv ia
gra m
ĠÎĳ Ïĥ
ĠÐ¼ ÐµÑģÑı
Ø± ÙĤ
Ġ×Ķ ×Ļ×Ķ
ĠÎµÏĢÎ¹ Î²
à±ĩ à°¨à°¿
Ġà®® à®¾à®µ
isse ment
Ġd ostÄĻp
Ġl Æ°á»£ng
à¥ĩà¤Ĺ à¥Ģ
Ñĥ Ð¹
Ġf our
_ åįķåıĮ
---- ----
Ġà¤¯ à¤¾à¤Ĥà¤ļ
al en
ĠÉĻm ÉĻk
Ð½ Ð¸Ñĩ
ĠÎ´Î¹Î± Î¸ÎŃ
Ġà¤īà¤¨ à¤ķà¥Ģ
Ġà°İ à°²
à®±à¯įà®± à¯ģ
ĠáĥĴáĥĲáĥľ áĥĲáĥĹ
Ġq ÉĻr
Ġs vÄĽ
Ġin sta
¢ à¸²
Ġag ä¸ĭè½½å®ĺæĸ¹ç½ĳç«Ļ
Īà¸°à¹Ģà¸ Ľà¹ĩà¸Ļ
Ġà¸ ģà¸±à¸ļ
à¤£ à¥įà¤¯à¤¾à¤¸à¤¾à¤łà¥Ģ
ĠÐ¼ Ð°ÑĢ
ey a
ĠáĥĲáĥł áĥĺáĥĲáĥľ
lan c
Ġrecher che
ien ie
à®µ à®¿à®²à¯į
c olo
ĠØŃ ØªÙī
à¤° à¥ĭà¤Ĥ
ãģŁ ãĤģ
y age
Ġà°®à°¾à°¤à±įà°° à°Ĥ
Ð¸Ð¼ Ð¾ÑģÑĤÑĮ
Ġet was
Ġáĥ¡áĥĲáĥĺ áĥľ
×ĵ ×Ķ
Ġà¦ªà§įà¦°à¦¤ à¦¿à¦·à§įà¦ł
Ġáĥĵ áĥĲáĥłáĥ
Ġà°ķ à±ģà°Ł
Ġì° ¸
ĠÐ¿ÑĢ Ð¾Ñģ
ĠÐ¿ÑĢÐ¾ ÑĪ
t ÄĻp
Õ«Õ ½
Ġh Ã¼
ĠÛĮÚ© ÛĮ
à§ ª
Ġáĥ¬ áĥļ
p ro
Ġà°µà°° à°ķà±ģ
T O
ost ra
ë¡ ł
Ġáĥ¡áĥŀ áĥĶáĥª
à¤¾à¤ª à¥įà¤¤
k owe
áº£ m
Ġà¦¬à¦¿à¦ı à¦¨
Ġà¦Ľà¦¿à¦² à§ĩà¦¨
áĥĲáĥĸ áĥĺ
Äį i
Ġáĥľ áĥĲáĥĹ
p raw
ĠÙĪ Ùĥ
á½ ·
Î¹Ïİ ÏģÎ³
à¯ĭ à®ļ
ĠP l
Î£ Î¤
ĠÎµÏĢ ÎŃ
Ġdov e
ari as
Ġqu and
ĠÐ¶Ð¸Ð· Ð½Ð¸
x alq
Ġje u
ÏģÎ¯ ÏīÎ½
Ã§ Ãµes
ĠD u
ch ten
Ġla in
áĥĺáĥ¡ áĥĺ
Ġt w
ì¸ ł
e ur
cÃŃ ch
×ŀ× ¦
Ġg u
ÐµÑģÑĤÐ² Ð°
Ġà¦¯ à§ĭà¦Ĺ
à¤¾à¤¤ à¥ĩ
ĠÏĢÏģÏİ ÏĦÎ¿
ªà¸£à¹īà¸²à¸ ĩ
Ġà¤Ĺ à¤¾à¤µ
Ùģ Ø¹
Ġà°ªà±įà°° à°ªà°Ĥà°ļ
Ġenv ir
Õ¡Õ ¤
dak Ä±
Ġutil iz
áĥ£áĥ¡ áĥ¢
ĠÐ» Ð¸ÑĪ
ĠØ§ ÙĬÙĨ
ĠØ§Ø³Øª Ø§ÙĨ
Ġà®ªà®¿à®° à®¤
à¤µ à¤¿à¤£
ÏĥÏĦ ÏģÎ¿
ĠÃ ½
ì§ Ī
ĠØ¢ÙĨ ÙĩØ§
Ġà¤¸ à¥Ĥà¤
k ovÃ¡
on der
Ð°Ð½ Ð¾
Î¯ Î½Î±
ĠgÅĤ Ã³w
sp ÄĽ
Ø³ Ø©
T I
Ġcos Ã¬
Ġà¦¯ à¦¾à¦ļ
Ġáĥł áĥĲáĥ¢
ĠâĢĿ .
cu er
Ġzw ei
Ïĥ ÏĨÎ±Î¹
Ġ7 6
éģ į
çĽ® çļĦ
ªà¸³ à¹Ģà¸£à¹ĩà¸
Ġà¤µ à¥ĩà¤Ĺ
ien e
Äį it
ĠÎŁÎ¹ÎºÎ¿ Î½Î¿Î¼
ĠÐ¿Ð¾ ÑıÐ²
Î¶ Î¹
Ġà®īà®° à¯ģà®µ
Ġáĥĵ áĥĶáĥĻ
Ġà¦² à§ĩà¦ĸ
ĠV o
Ð¾Ð² Ð°Ñı
Ġx idmÉĻt
ĠÎ£Ïĩ Î¿Î»
p ort
ĠÎ± ÎµÏģÎ¿
áĥĺáĥ ¯
ĠÐ¿ÑĢ Ð¸Ñĩ
Ġà¦Ĩà¦° à¦ĵ
áĥĶáĥĳ áĥĲáĥĸáĥĶ
à¤µ à¤¾à¤²
Ġà°ªà±įà°° à°¸à±įà°¤
Ġes per
Ġis e
ĠÑģ Ð½
Ġà¤ Ĭ
nÃ½ m
Ġplus ieurs
g ul
c am
Ġt eng
×Ľ ×ķ×ľ
ãĤĮ ãģ°
Ø§ Ø©
Ġà°¸ à°¾à°®
ÉĻlÉĻr in
áĥĲáĥļ áĥĺáĥĸ
ÏĦÎ· ÎºÎµ
ĠìĦ ¤
Ġb ie
ĠÐ¼Ð°ÑĤÐµÑĢÐ¸ Ð°Ð»
ÏĥÏĦÎ¬ ÏĥÎµÎ¹ÏĤ
ĠÐ¿ Ð¾Ð³
Ġc áº§n
ÏģÎ® ÏĥÎµÎ¹ÏĤ
r uk
ĠáĥĲáĥĽ áĥĺáĥ¢áĥĿáĥĽ
Ġre f
ess a
Ïĥ Î¿Î½
Ġi z
Ġà°Ĩ à°¡
ĠC ette
Ġà®ªà®¾à®° à¯įà®ķà¯įà®ķ
Ð¸Ð² Ð°ÑĤÑĮ
ëł ¹
áĥļ áĥĶáĥ¡
ĠÙĪ ÙĨ
ĠÎ· Î»Î¹Îº
à¤Ń à¤¾
ĠE N
im iento
b au
ĠmÅ¯ Å¾e
Ġà´ İ
Ġà¤®à¥ģà¤Ŀ à¥ĩ
à§ĩà¦Ľà¦¿à¦² à§ĩà¦¨
áĥĺáĥļ áĥĶáĥĳáĥĺáĥ¡
à±ģà°Ĥà°¦ à°¨à°¿
Ġqu alitÃ©
eyn ÉĻl
ĠDeutsch land
ĠÐ´ ÐµÐ²
Ġpro g
Ø§Ùħ Ø¬
Ð°ÑĤÐµÐ»ÑĮ Ð½Ð¾
Î» Î±Î¹
Ġà¶ ļ
Ġà¤īà¤ª à¤¯à¥ĭà¤Ĺ
an ces
Ġà®ª à¯ģà®ķ
en z
Ġáĥŀ áĥĶáĥłáĥĺáĥĿ
Ġë¡ ľ
Ïĩ ÎµÎ¯Î¿
ĠÐĲÐ» ÐµÐºÑģ
Ġà°ª à°¾à°Łà±ģ
ãĥ§ ãĥ³
Ø¨ Ø§ÙĨ
Ð¸Ð¼ ÐµÑĢ
Î¶ Î®
éĳ «
è¯¾ ç¨ĭ
11 8
Ġå ĭ
ç»Ł ä¸Ģ
æīĭæľº å¨±ä¹Ĳ
åĶ ±
Ġáī ł
ĠagäºļéĽĨåĽ¢ å®ĺæĸ¹ç½ĳç«Ļ
à¹Īà¸ °à¸
à¹ĥà¸ª à¹Īà¸
9 3
çĩ ĥ
æľº ä¼ļ
æĦŁ è§ī
à¥ ¯
Ïģ Î¹ÎºÎ¬
n ung
ĠØ£ ØŃ
Ġo tro
q tis
Ġà¤ĩà¤¸ à¥ĩ
à®¿à®° à¯ģà®ªà¯įà®ª
Ġmon do
áĥĺáĥĹ áĥĲáĥĵ
ĠS tu
Ġc et
ĠÐ·Ð°Ðº Ð¾Ð½
k ÅĤa
å¯ ¸
Ġåħ Ń
ĠagçľŁäºº å¹³åı°
à¸£à¸ °
am 8
Ġèµ ·
åħ¬ å¸ĥ
áĪ Ī
Ġäºļæ¸¸åĽ½éĻħ æ¸¸æĪıå®ĺç½ĳ
Ġà¤¸ à¤¾à¤§
×¨ ×ĺ
Ġa nh
Ġsu pp
ĠÏĢÎ± Î¯
Ġdan Ä±ÅŁ
à±ĩà° ³
Ġv eya
Ġander en
Ġíķ Ļ
ĠA c
Äħ da
ĠÎ²Î¬ ÏĥÎ·
gr ap
Ø¨ ÙĪ
Ġpra v
u ales
ÑĢÐ° Ñħ
ĠáĥĹáĥĳáĥĺáĥļáĥĺáĥ¡ áĥĺáĥ¡
ĠáĥĶ áĥĴ
Ġà°ª à°µ
Ġal go
ĠA llah
Ġyar adÄ±
àª¾àª Ĥ
Ĥ à¹īà¸Ń
æĩ Ĥ
å®ī æİĴ
à¹Ģà¸Ķ à¹ĩà¸ģ
ªà¸´à¸Ļà¸ Ħà¹īà¸²à¸
ªà¸´à¸Ĺà¸ĺ à¸´à¸
ģà¸±à¸ļà¸ ģà¸²à¸£à¸
Ġà¤® à¤Ĺ
Ġave z
si ÄħÅ¼
çĴ ĥ
åĢį çİĩ
ľ à¹īà¸²
ļà¸Ńà¸ ģ
ĠagåĽ½éĻħ éĽĨåĽ¢å®ĺç½ĳ
à¹ģà¸Ľà¸ ¥à¸
à¥įà¤ŀ à¤¾à¤¨
ÏģÎ¯ Î´Î±
Ġlá» Ľ
Ġà®µà®° à¯ģà®®à¯į
Ġà°Ĺ à°¤
ĠÐ¾Ð± ÐµÑģÐ¿
Ġmi es
ĠáĥĴáĥĲáĥĽ áĥĿáĥķ
c ess
Ø§Ø¨ Ø©
ĠÎ²ÏģÎ¯ ÏĥÎº
Ġà®µ à®¿à®¤
áĥłáĥ« áĥĶáĥļ
ĠãĤ ª
Õ¶ Õ¥ÖĢÕ¨
Ġdav am
Ġtr ois
Ġin n
Ð°Ð»ÑĮ Ð½Ð°Ñı
Ġpue den
Å¡ en
ĠÐ¼ Ð¾
d ÄĻ
Ð ¬
ĠÑģÐ»ÑĥÑĩÐ° Ðµ
ĠB r
áĥĶáĥ ¬
h an
ĠØ¨ ÛĮÙħ
ĠÐºÐ¾Ð¼Ð¿ Ð°Ð½Ð¸Ð¸
ĠØª Ø³
×Ļ× ŀ×
à¥ĭà¤Ł à¥Ģ
Ġà°¸ à±įà°ķ
Ġk up
Ġdu Å¼
áĥłáĥ ¡
Ġà¦ªà§Ĥ à¦°à§įà¦¬
à®© à®¾à®²à¯į
ĠÐ¡ Ð¾
Ġáĥ¬áĥĲáĥłáĥĽ áĥĿáĥĽ
ĠÏĩ Î¿
à¥ĭà¤ ³
Ġë³ ´ë
ãĥ Ħ
Ġs na
ĠÎ³ Ïį
Ġq Ä±z
ĠB ild
±à¸ į
bo ok
åĪĨ 6åĲĪ
ä¼ĺ æĥł
à¹Ģà¸Ķ à¸µà¸¢à¸§
ĠãĢĤ ãĢĬ
Ġagäºļæ´²åĽ½éĻħ éĽĨåĽ¢
à©° à¨¦
Ġè¿Ļ ç§į
Ġæ´ »
Ġh u
åĽŀ åºĶ
à¥ ª
ĠÑħ Ð°ÑĢÐ°ÐºÑĤÐµÑĢ
áĥł áĥĿáĥĳáĥĺáĥ¡
Ġqu anto
Ø± Ø§
Ġà¤ļ à¥ģà¤ķ
ĠfÉĻal iyyÉĻt
ĥ à®ª
go t
ĠÐºÐ¾Ð» Ð¸Ñĩ
¸à¸ ©à¸
° áĢ
20 16
ľà¸¥à¸´à¸ķà¸ łà¸±à¸ĵà¸ĳ
Ġä¸ Ķ
Ľ à¸£à¸²à¸
Ġà¸ ¡à¸´à¸
Ġà¤ĩà¤¤ à¤°
Ġmo y
g leich
à¦¬ à¦¾à¦¸
Ġà¤Ĩ à¤¸
à¦¨ à§įà¦¯
Ġs ax
olo gi
Ġà°¨ à±ĩà°¤
à±ĩà° ¡
Ø§Ø¯ Ø±
Ġs lu
ĠÎ¼Î¿ Î½Î±
ru tt
k ty
ë¶Ģ íĦ°
ĠáĥĲáĥ£áĥ ªáĥĺáĥļ
ãģŁ ãģĦ
Ġpo co
ĠGe w
ÏĥÏĦ Î¿Ïħ
Ġà°Ĩ à°¶
ãģ® ãģ¯
Ã³ a
ÎºÎ¿ Î¯Î½
Ġmo et
Ġpro ces
Ġáĥ¡áĥĲáĥ¡ áĥĲáĥĽáĥĲáĥłáĥĹáĥļ
Ġzam an
ĠÐºÐ¾Ð¼ Ð¿Ð»
ĠÐ± Ð»Ð°Ð³
Ġpart ie
Ġà¦¤ à¦ĸà¦¨
Î»Î® Î¼Î±ÏĦÎ±
Ã¶ glich
à°¿à°¸ à±įà°Ł
Ġà¤Ĳ à¤¸à¤¾
Ð¸Ð² Ð°ÐµÑĤ
áĥĶáĥĳ áĥĲáĥĹ
Ġes e
Ġob je
Ú© Øª
Øµ Ùģ
æ· »
åĨł åĨĽ
à¹Ĥà¸£à¸ĩà¹ģà¸£à¸ ¡
à¸Ńà¸ ¡à¸
à¸Ļà¸ Ķà¹Į
ĠA pp
èĢ Ĺ
æīĭæľºçīĪ appä¸ĭè½½
à¹īà¸²à¸ ¢
«à¸į à¸´à¸ĩà¸
Ġæ° ¸
Ġà¤ħà¤¸ à¤²à¥ĩà¤²à¥įà¤¯à¤¾
´ Ŀ
Ġ×ľ ×Ļ
ĠÎ± ÏĨÎ¿ÏģÎ¬
Ð ¥
ĠÑģÐ² Ð¾Ð¹
p i
à¦ª à¦¾à¦¤
ass er
ĠÎķ ÏģÎ³
ĠÏĥÎº ÎŃ
à±Ĥà° ®
Ġà¤¤ à¥Ģà¤¨
ĠìĦľ ìļ¸
Ġì ¶ľ
ĠÙĦÙĦ Øª
×¤ ×©×¨
Ã¡ ri
Ġáĥ¡áĥĲáĥĽ áĥ£áĥ¨áĥĲáĥĿ
å® Ł
ato re
Ġm Ã³w
ĠÏĢÎ¿Î»Î¹ ÏĦÎ¹ÎºÎ®
Ġà¦ļ à¦¾à¦°
ĠÐ½ Ð°Ð±
ĠÏĢÎ±ÏģÎ¿Ïħ ÏĥÎ¹Î¬
áĥĶáĥĳ áĥłáĥĺáĥķáĥĺ
Ã©m u
ĠØµ ÙĨ
Ġorg aniz
Ġs Ã¥
à¤¾à¤¡ à¤¼
Ġà®µ à®Ł
ĠÎĴ Î±
ab ile
Ġtr Æ°á»Ľc
ĠØ§ÙĨØª Ø®Ø§Ø¨
ĠÎĪ Î½Î±
ìľ ¡
áĥĺáĥļ áĥĽáĥĲ
ãģ Ĵ
u he
ĠÐ¿ Ð¾Ð±
ÏĦÏģÎ¿ ÏĢÎ®
ob il
Ġà¦¬à¦¿à¦ ¸
áĥĺáĥł áĥĺáĥ¡
à°ļ à°¨
Ġav ons
Ùĥ ÙĬ
Ġì½ Ķ
Ġm igli
ĠÙħØ±Ø¯ Ùħ
ĠN ET
è· ³
è ļ
å½© ä¹Ĳ
ļà¸ ¹
Ĺ à¸²à¸Ļ
Ġæ ¨
Ġ ^
è¯ Ĭ
ç¥ ĸ
æĻ ¶
æ³ Ľ
åĬŀ çĲĨ
Ľà¸£à¸°à¸ Ĭà¸²à¸
æģ Ĵ
« à¸²à¸£à¸
ĠæŃ¤ å¤ĸ
Ġw66 åĪ©æĿ¥
à¹Ħà¸ Ł
Ġà¨ħ à¨¤à©ĩ
ª à¸Ļà¸²à¸
Ġ ä½ĵ
ç²¾ åĩĨ
§à¸ Ķ
h ttp
Ġà¤ªà¥įà¤° à¤ķà¤¾à¤°
j Ãł
Î² Î¹
ge ben
odz ie
Ġáĥ¡ áĥĶáĥ¥áĥ¢
à±ĭ à°¹
×ĸ ×Ķ
Ġartic le
Ġcon cer
Ġáĥĺ áĥķ
ne a
ĠÑĢ ÑĥÑģ
Ġà¦® à¦¤à§ĭ
ar ÉĻt
ÑģÑĤÑĢÑĥ Ðº
à°¿à°Ĥà° ¤
ĠÐ´ ÑĢ
Ġnuov o
ÏģÎ¯ ÏīÏĤ
Ġáĥ° áĥ¥áĥĿáĥľ
ĠP f
w ania
Ġu w
ĠØ¢ ÙĩÙĨÚ¯
à¤Ĥà¤¬ à¤°
Ġfo to
Ø± Ú¯
ĠØ¹ Ø¯Ø¯
ite ment
Ġc ours
ĠÎºÎ±ÏĦÎ¬ ÏĥÏĦÎ±ÏĥÎ·
Ġëĵ ¤
Ġ×ŀ ×Ļ
Ġtod as
ÑĥÐ»Ñı ÑĢ
Ġà°¤à±Ĩà°² à°¿à°¸
id up
r ag
Ġge ht
ni ce
Ġsar Ãł
Ġà®¨à®¿à®± à¯ģà®µ
áĥ£áĥľ áĥ¥
Ġà¤¤à¥įà¤¯à¤¾à¤ ²à¤¾
ti mm
Ġà¤¦ à¥ĩ
âĢĮ à°²
Ġà°¨à°¿à°° à±įà°£
Ã¡ st
Ġto da
Ùĥ Ø³
Î¯ ÏīÏĥÎ·
Ġáĥ¯ áĥĴáĥ£áĥ¤
es to
ÄŁ u
ill et
ĠÏĥ ÏĦÎ®
à¤§ à¤¾à¤¨
ĠìĹ Ń
Ð¿ Ð¸Ñģ
ãĤ¹ ãĤ¿
Ġter se
Ġnie u
à°¾à°° à±įà°¥
ĠJe an
Ġnouve au
j as
Ġà¤ħà¤ª à¤¨à¤¾
ĠÎºÎ¬Î½ Î¿ÏħÎ½
h and
ĠÑĢÐ°Ð· Ð»Ð¸Ñĩ
qu Ã©
Ø§Ø¦ ÙĬØ©
Ø§ Ù¾
ĠáĥĽ áĥĲáĥ¢
á»ĵ ng
iste ma
ĠDa ten
ta ch
à¦¿à¦¤ à§įà¦¬
ĠÎĳÏģÏĩ Î¹ÎºÎ®
ĠÎºÎ¬ ÏĦÏī
ah re
ä¸ī çº§
à´ Ļàµįà´
¶ à¤¨
Ð» Ð°Ð¼
×¡ ×§
Ġà°İ à°Ĥà°¤
Ġsv Ã©
Ġà¦ħà¦Ńà¦¿à¦ ¯à§ĭà¦Ĺ
ĠÑĩ Ð¸Ñģ
Ġn Äĥng
us es
Î»Ïħ Î¼ÏĢ
Ġë° Ľ
éĻį ä½İ
à¥ĭ à¤²à¥Ģ
Ġm Ã¥
Ġprof es
áĥĶáĥľáĥ¢ áĥĺ
Ġà°µà°¿à° ®
ĠÙħØŃ ÙħØ¯
ĠÙĬ Ø¬
Ġà®µ à®¿à®²
ĠÑģÑĤ Ð¾Ð»
Ġk iedy
çĦ¡ æĸĻ
Ġt ipo
z immer
ĠT ag
è© ±
Ġà¦¹ à¦²à§ĩ
ĠdÃ¼n y
ĠæĪ ¿
à¹Ħà¸¡ à¹īà¸
à¹Ģà¸£à¹ĩà¸ §à¸
Ġåı° æ¹¾
Ġà¤µ à¤¾à¤ļ
à¦¤ à§įà¦¬
cz u
Ġáĥ¡áĥ¬áĥĿáĥł áĥĶáĥĵ
Ġgeb ruik
ĠÎ¼ÎµÎ³Î¬ Î»Î¿
Ã¼ ber
ĠÑģÐ» ÑĥÐ¶
ĠáĥĻáĥĿáĥľ áĥĻ
ä¸į åį¡
åľ¨çº¿ çİ©
à¤¾à¤ĩ à¤²
ĠI N
Ġgr ande
ĠØ¨Ø± Ú¯
Ġszy b
Ġà°ĩ à°¤
eynÉĻl xalq
ÑĢ ÐµÑĤ
Ġà¤¤ à¤¥à¤¾
à¶ ¯
Ġà¤ªà¥įà¤° à¤Ń
Ġr od
×ķ×ł ×Ļ
Ġáĥ¡áĥĲáĥ Ĺ
Ġi ng
ĠÎ´ÏģÎ± ÏĥÏĦÎ·
Ġæ ¿
ć ãĢģ
åĺ ī
å¨±ä¹Ĳ åŁİ
æĸ°éĹ» ç½ĳ
æį ·
åħįè´¹ ä¸ĭè½½
å¥ ĭ
à¥ ®
Ġn Ãło
ÑĥÐ· Ñĭ
à¯Ĩà®²à¯įà®² à®¾à®®à¯į
Ġserv ice
ess er
Ġà®Ĩà®ķ à®¿à®¯
ÑĢÐ° ÑģÑĤ
¸à¸Ľà¸ ģà¸£à¸
Ķà¸´à¸ ¡
Ġà¤Ĺà¥ĭà¤ ·à¥įà¤Ł
ĠpÅĻÃŃ pad
Ġà¦² à¦¾à¦Ĺ
Õ¾ Õ¡Õ®
ÉĻn dÉĻ
Ã ¯
áĥĿáĥ ®
Ġhat te
íĮ Ĳ
ÐĿ Ðĺ
ĠÑĥ Ð·
ãĥĩ ãĤ£
Ġà¤¸à¤® à¤Ŀ
ĠOd powie
ni enia
ÏħÎ½ Î¬
Ġà¦¦ à¦¿à¦¤à§ĩ
áĥĲáĥ ¯
am o
ĠÃ¼z er
Ø¨ Ø±ÛĮ
ħ ÖĢ
ĠÕ¡Õ ¼
in ci
Ø£ Ø³
Ð §
Ġpri mo
Î¼Îµ ÏģÎ¹Î½
ĠÐķ Ð²
Ġmiej sc
Ġë¬ ´ë
Ġáĥ® áĥ¨áĥĺáĥł
ĠQ ue
ÃŃ o
Ġ×ľ×Ķ ×ª
Ġà¦¬à§įà¦¯à¦¬ à¦¹à¦¾à¦°
ãĤ ¬
Ø¨ Ø§ÙĦ
ĠÎºÎ¬ÏĢÎ¿ Î¹Î±
Å¡ÃŃ m
ri c
Ð³ Ð°
æĺ¯åĵª ä¸Ģä¸ª
åħħ åĢ¼
appä¸ĭè½½ å®īè£ħ
56 7
Ġ ä¾¿
Ġagçİ¯äºļç½ĳç«Ļ æĺ¯åĵªä¸Ģä¸ª
ç®Ĺ æ³ķ
å½©ç¥¨ ç½ĳ
à¤¾à¤³ à¥Ģ
à°¾à°Ĺ à±ĩ
Ġperson ne
ĠØ¨Ø¹ Ø¶
ĠW as
Ġ à·Ģ
Ġà¤¬ à¤ľ
et t
Ġest os
ÐµÐ¼ Ð¾Ð½ÑĤ
ĠÐ³ Ð¾ÑĤÐ¾Ð²
ĠÎ² Î¹Î¿
Ġä»Ĭ å¤©
Ġà¤° à¥ĭà¤ľ
ĠMen schen
Ġíķ ¨
ĠÄĳ Ã¢y
à¯Ĭ à®³à¯įà®³
un dan
Ð¸Ð»Ð¸ ÑģÑĮ
Ġà°µ à±Ģ
ãģª ãĤĵ
ĠÏĥÏħÎ½ ÎŃ
×ľ ×ķ×ª
Ġse a
id Ã©
ir a
ãģĪ ãĤĭ
ÏĦ ÏģÎ¹Î±
ĠÎºÎ± ÏĦÎŃ
I i
Ġko ÅĦ
å®ĺæĸ¹ åħ¥åı£
à¹Ģà¸¡à¸ ·à¸Ńà¸ĩ
¹ à¥Ģ
ĠÚĨ ÙĨØ¯
Ġà¤ĸ à¥ĩà¤²
Ġsi to
à±ģà°¦ à°²
Ġs to
ĠáĥĲáĥĵáĥĲáĥĽ áĥĺáĥĲáĥľáĥĺ
ĠÑĥ Ð±
ĠÏĢÎ±ÏģÎ¿Ïħ ÏĥÎ¯Î±
à±ģà°µ à±ģ
Ġtut te
Ġ, ,
áĥĺáĥľ áĥĵ
ÑĤ Ñĭ
ĠÏĥÏĢÎ¯ ÏĦÎ¹
íİ ¸
Ġnh áºŃn
Ľà¸£à¸ ªà¸´à¸
Ġà¸ªà¸ ĸ
æ¸¸æĪı å¤§åİħ
ä¸į å¾Ĺ
à¸£ à¹Īà¸²à¸ĩà¸
I OS
Ġć ĈĈ
æĪĲ äºĨ
åħ ĳ
ä¾ µ
¨à¸ ¹à¸Ļà¸
33 5
Ġè º«
Ġäºļæ¸¸éĽĨåĽ¢ åĽ½éĻħå®ĺç½ĳ
Ġb m
ĠagçľŁäºº æīĭæľºæĬķæ³¨
Ġ2017 å¹´
Ġæ¾³éĹ¨ag çİ¯äºļçľŁäºº
åĿļ æĮģ
Ġáł ¶
Ġà¸ģà¸ ¥à¸
Ġà¤¸ à¥įà¤¤
Ġp ouvez
Ġà®ħà®²à¯įà®² à®¤à¯ģ
ĠÐ¿ÑĢ Ð°ÐºÑĤ
el a
Ġp ic
ĠÎ¿ ÏħÏĥ
Ġà¦¦ à¦¿à¦²
ĠÙģ Ø¹
Î¿Î» Î¿Ïħ
ĠÑģ Ð¾ÑĤ
Ġà¦¦ à¦¿à¦ķà§ĩ
ĠáĥĽáĥĵ áĥĴáĥĿáĥĽ
Ġà°ªà±įà°°à°¤à±įà°¯ à±ĩà°ķ
ĠÏĢ Î»ÎµÏħ
ĠL A
ĠG u
éĥ½ æľī
Ġçº ¿
ĠåĮĹäº¬ å¿«3
Ġagçİ¯äºļ æ³¨åĨĮ
èĤ ¤
çĶ¨ çļĦ
r r
Ġè¿ ŀ
Ġç» Ħ
Ġà¸ĭà¸¶ à¹Īà¸ĩà¹Ģà¸
Ġà¤Ĩ à¤ł
ĠÑĥ Ð¿
dÄ±r Ä±l
ÃŃ an
be zpie
j es
ë² Ī
ÏĢÎµ Ïģ
ĠÙħÙĨ Øª
ĠSt ra
å°ıæ¸¸æĪı åľ¨çº¿çİ©
Ġà¤ª à¤¡à¤¼
Ġ2020 å¹´
æ» ¤
à¹Ģà¸ģà¸ ¡à¸
Ī à¹īà¸²
Ġäºļç¾İ am8
Ġ4 44
Ġ3 00
ĠØ§ÙĦØ¹ Ø±
æĢ§ èĥ½
å¼ĢæĪ· _
à¹Īà¸§ à¹Ĥà¸¡à¸
Ġï¼ İ
Ġé¢ Ħ
Ġà¤ļ à¤¾à¤Ĥà¤Ĺ
ÙĪ Ø¶
ĠÉĻv vÉĻl
Ġz mi
u an
ÐµÐ½ Ñģ
ãģķ ãģĦ
ĠÏĦ ÏģÎ¹
ĠãĢ Ĺ
ë¦ ½
à±ĩà°· à°¨à±į
le x
ĠÑģÐ¾Ð± ÑģÑĤÐ²ÐµÐ½
ĠáĥĶáĥłáĥĿáĥķáĥľ áĥ£áĥļáĥĺ
×Ļ×ľ ×Ķ
ĠáĥĽ áĥł
ĠØ§ÙĦØ¯ ÙĪÙĦ
Ġà¦ħ à¦Ĥà¦¶
ĠÐ´ Ð°Ð²
ĠÎ³ Î±
à¤¿à¤¸ à¥įà¤¤
up po
Z X
Ġma jÄħ
Ġk iÅŁ
z d
ĠØ¨Ø® Ø´
Ġbes o
éĸ ¢
ĠE en
Ġma chen
ÑĢÐ° Ñĩ
n ut
Ïģ ÏħÏĥ
uj et
au d
Ð¸Ð·Ð½ ÐµÑģ
Ð» ÐµÐº
àµ ¼
àµįà´ ±
¬ à¤Ĥà¤§
end ita
Ġpro pr
Ġáĥ§áĥķáĥĶáĥļáĥĲáĥ¤ áĥĶáĥłáĥĺ
ìĿ´ ëĿ¼
Ġinter net
ĠÏĢÎ¿ ÏĦÎŃ
Ã ĵ
Ġm áº·t
áĥĲáĥķ áĥĺáĥ¡
Ð¸ ÑĦ
Ù į
ĠÎłÎ± ÏģÎ¬
ĠÙĨÛĮ Ø³Øª
ck e
Îµ Î¯Î±
ĠÎµÎ½ ÎµÏģÎ³
ĠÃº Äį
Ã¶ s
Ã¨ le
b les
or y
Ġ×Ĳ ×ĳ×ľ
Ġà°¹à±Ī à°¦à°°
à°¿à°Ĥà°ļ à°¡à°Ĥ
ÑĥÐ½ Ðº
Î¾ Î±
Ġà¤¬à¥Ī à¤ł
ĠÐ² Ð¾ÑĤ
Ġà¦¶ à¦¤
ĠÐ· Ð°ÑĤ
áĥĿáĥł áĥĺáĥĲ
Ġyax ÅŁÄ±
Î¯Ïĥ Î¹Î¿
Ã¦ re
ĠP lus
ĠÎŃ ÎºÎ±Î½Îµ
áĥĲáĥĻáĥ£áĥĹ áĥł
Ġ2 åĪĨæĹ¶æĹ¶å½©
Ġ** *
çĸ ¾
à¤°à¥įà¤ ļ
ĠO b
Ġ×ĳ ×Ĵ
ĠÐºÐ¾Ð½ ÑĤÑĢ
Ġjus qu
Ġr ich
ãĥ Ľ
ÙĩâĢĮ Ø§ÛĮ
Ġf al
s ÃŃ
Î±Ïĥ Î¯Î±ÏĤ
jÄĻ cia
éĿĴ èįī
Ġà¤ľà¥įà¤¯à¤¾à¤ ¦à¤¾
Ġpod r
ĠÎ± Î¹Ïĥ
Ġáĥ¡áĥĲáĥĳ áĥŃ
Ð°Ð· Ð°
ar ak
Ġà¤¯à¤¹ à¤¾à¤Ĥ
l d
ĠæĹ ©
Ġ ðŁ
èµĦ è®¯
åĬ¡ éĻ¢
å¡ ĳ
à¹ģà¸Ļ à¹Ī
s f
20 15
Ġà¸ ģà¸²à¸
ĠH ome
Ġ çļĩ
«à¸²à¸ ¢
in k
Ġåĳ¨åħ¬è§£æ¢¦ å¤§åħ¨
èį ·
Ġé£ İ
F A
Ġäºļæ¸¸éĽĨåĽ¢å®ĺç½ĳ çĶ³è¯·
Ġäºļæ¸¸éĽĨåĽ¢å®ĺç½ĳçĶ³è¯· ag
Ġà¤¸ à¤Ĺà¤³
ÐµÐ» Ð¸Ñĩ
ĠÎľÎ±Ïģ ÏĦÎ¯Î¿Ïħ
íĺ Ħ
à¦¸ à§įà¦Ł
áĥĺáĥľ áĥĵáĥĲ
Ġà¤µ à¤¾à¤¹
ĠÎ¼ Î¿Ïģ
Ã İ
Ġt Æ°
êµŃ ìĿ¸
Ġáĥ¨áĥĶáĥ£áĥ «áĥļ
Ġsy st
Ģ ìĿ´
lar la
ĠÐ½ÐµÑģÐº Ð¾Ð»ÑĮÐºÐ¾
à¤² à¤¬
cz ej
Ġ×Ķ× ĺ
à¦² à§ĩà¦°
Ġà°ļà±Ĥà° ¸à±įà°¤
Ġmen jadi
Ġal tro
Ġà°®à°Ĥà°ļ à°¿
Ġt an
ĠÏĦÎ¿ Ïį
Ġtr op
æ§ ĺ
ĠÎł ÎŁÎĽ
ĠÏĢ ÎŃÏģÎ±
Ġáĥ¡áĥĺáĥ¡áĥ¢ áĥĶáĥĽ
Ġà®®à®© à®¿à®¤
ĠÐ°ÐºÑĤ Ð¸Ð²
Ã ķ
ĠÂ ¶
Ġch áº¥t
à¤¤ à¤°
Ġz ar
ÏĦ ÏģÏĮ
Ġt ij
ĠGr und
it re
Ġà°ľà±Ģà°µ à°¿à°¤
çľ Į
at s
ãģ« ãĤĪ
Ġt ÃŃm
íĿ ¥
ĠáĥĽáĥĺáĥĽ áĥĵáĥĺáĥľ
ê° Ĳ
Ġà°µ à°²à±įà°²
Ġpro y
ĠÏĩÎ±ÏģÎ±ÎºÏĦÎ· ÏģÎ¹Ïĥ
Ġà®ķà¯Ĭ à®Łà¯ģà®¤à¯įà®¤
Ġte le
à§Ģ à¦¤à§ĩ
à®µ à®¿
ĠÎĵ Î¹ÏİÏģÎ³
ĠÑĤ Ð°Ð¼
ĠÎ¾ ÎµÏĩ
ĠTh em
áĥĺ áĥĲáĥĹ
åįļ å½©
à¸Ļà¸ ´
à¤¤ à¥įà¤µ
Ġprem ier
tion en
Ġà®¨à¯Ģ à®Ļà¯įà®ķà®³à¯į
Ġí Ŀ
ÏĪ Î·ÏĤ
Ð°Ð» Ðµ
Ġà¦ķà¦° à§ĭà¦¨
à¦¬ à¦¿à¦¦
á»¯ a
in os
ĠÎĮ ÏĦÎ±Î½
Ġ×ŀ× ¤
r icht
ÑĨÐ¸ Ð¿
Ġà°ķ à±Ĩ
ĠÑį ÑĦÑĦ
ag çľŁäºº
ģà¸ ģà¸
Ġäºļæ¸¸éĽĨåĽ¢ ä¸ĭè½½
Ġäºļæ¸¸éĽĨåĽ¢ appä¸ĭè½½
æĦı è§ģ
Ġå½ ±
Ġà¤° à¤¾à¤·à¥įà¤Łà¥įà¤°
ĠáĥłáĥĿáĥĽ áĥļáĥĺáĥ¡
orzy st
à¦² à§ĩà¦¨
ĠÏĦÎ¿ ÏĢÎ¿
Ġso tto
à±ģà°² à°¤à±ĭ
ev r
an v
Ð¸Ñı Ñħ
Ġà¦¦ à¦¾à¦¬
ir o
Ġsu ite
å®ŀ éªĮ
à¤¾à¤¬ à¤¤
Ġà¦¸ à§ĩà¦Ł
ĠE ste
Ġsch ne
Ġb á»Ļ
ĠPra ha
pl at
ĀĀĀĀĀĀĀĀ ĀĀĀĀĀĀĀĀ
ĠØŃ Ø¶
ĠtÉĻd b
dz a
ĠÐ§ ÑĤÐ¾
áĥĲáĥļáĥ£áĥł áĥĲáĥĵ
ªà¸ ±à¸įà¸
Ġçİ¯äºļ å¤§å¸ĪèµĽ
ĠæĶ ¹
ĠáĬ ł
éĢī äºĶ
è§£æ¢¦ åºĵ
æĿ¥ èĩª
ŀà¸ ¥à¸²à¸
ģà¸²à¸£ à¹ĥà¸Ĭà¹īà¸
ä¿Ħ ç½Ĺæĸ¯
±à¹īà¸ ĩà¹Ģà¸
Ġåĳ¨åħ¬è§£æ¢¦å¤§åħ¨ ä¹ĭ
åĬłæĭ¿å¤§ 28
äºº å£«
à¸£ à¸Ńà¸ļà¸
å¤§åıĳ æĹ¶æĹ¶å½©
Ġéĥ ¨
åįĹ çľģ
Ġå¤§ å®¶
Ġà¤ªà¥įà¤° à¤¸
ĠÐ½ Ð¾Ð¼
Ġà¦ªà¦¾à¦° à§ĩà¦¨
ĠÎ¿ ÏģÎ¹Ïĥ
ve au
à°¾à°² à°²à±ĭ
ĠÐº Ð°Ð¼
ê» ĺ
ch a
Ġgi Ãł
Ġk olor
ĠK r
Ö ·
Ġ×ĳ ×¤
Ġnas z
Ø³Øª Ùĩ
Ġspos Ã³b
ĠØª Ø´
Ġà¦ķà¦°à§įà¦® à¦ķ
Ġah ora
Ð°ÑĤ Ð¾Ð²
ĠÏĢÎ¿Î»Î» ÎŃÏĤ
áĥł áĥĿáĥķ
Ġà¦ķ à§ĩà¦
z zi
Ġmom ento
Ġpl an
ëŀ ĳ
ĠÐ¿ÐµÑĢ ÐµÐ²
Ġdo ch
à¹īà¸² à¸Ļà¹Ģà¸
à¹Ĥà¸ ŀà¸
à¤¾à¤² à¥ĩ
Ġà¦Ĺ à¦£
isch er
à§ĥ à¦·à§įà¦Ł
Ġk ap
áĥĲáĥŀ áĥĺáĥł
Ġh Ã´tel
ĠÐł Ñ
ĠÑģ ÐºÐ°ÑĩÐ°ÑĤÑĮ
Ð¾Ðº Ð°
ä¾ ¡
ÏĩÎ± ÏģÎ¹Ïĥ
à· Ĳ
àµ ½
à¤¾à¤¦ à¥Ģ
ÏĥÎ¹ ÏİÎ½
ĠÐ¼ Ð¾ÑĢ
Ġà®¤ à®Ł
ĠÚ©Ø±Ø¯ ÙĨ
ÏĢ ÏĦÏİ
ªà¸´ à¸Ļ
it h
Ľà¸±à¸įà¸ «à¸²à¸
Ĺ à¹Īà¸²à¸
ĠâĻĢâĻĢâ ĻĢâĻĢâ
Ġåı Ĥ
Ġà¤ª à¤¾à¤£à¥Ģ
×Ĺ ×§
Ġswo je
Ġtá» ±
mek te
ĠNaz ir
n el
à¤¸ à¥įà¤¯
à¦² à§įà¦²
Ä±lÄ± b
ì§ ĳ
à¯ĩà®¯ à¯ĩ
Ġd ÃŃas
ĠRe g
ĠdÃ© jÃł
Ġpers one
u jÃŃcÃŃ
Ġà°µà°ļà±įà°ļ à°¿à°¨
Ġz h
å¹ ¼
Ġagçİ¯äºļæīĭæľºçĻ»å½ķ åľ°åĿĢ
åĸ Ŀ
ä¼ ¯
Ġè´ ¢
Ġáł İ
Ġçİ¯äºļagå¹³åı° å®ĺæĸ¹åħ¥åı£
Ġà¹Ģà¸ŀà¸£à¸²à¸ °
ĠagçľŁäºº æĹĹèĪ°åİħä¸ĭè½½
åĪĨ ç±»
åĪ¶ ä½ľ
å« Į
ĠåĽ½éĻħ åİħ
å³ ¡
à¸£à¸°à¸«à¸§à¹Īà¸²à¸ ĩà¸
Ĭà¸ ¡
ĠåĲ ī
Ġä¼ Ĭ
Ġagäºļæ´² çĻ»éĻĨ
Ġ9 1
æŃ£ å¸¸
ĠæĮ ĩ
ĠåĨ ľ
Ġà¤¤à¥įà¤¯à¤¾à¤ ļ
ÙĬ ÙĬÙĨ
Ġáĥĺ áĥĲáĥľ
Ġist ÉĻy
Ïģ ÏĦÎ·
Ġà¤ľ à¤¹
Ġv ec
re t
Îķ ÎĶ
ÏĮ Î¼ÎµÎ½Î¿
ĠÑı Ð·Ñĭ
ĠÃ©quip e
ÎĳÎ£ Î¤
Î³ ÎºÎ±
Ġà¦®à¦¾à¦§à§įà¦¯à¦® à§ĩ
Ġus ta
ĠnÉĻ zÉĻr
Øµ Ø©
ĠáĥĴáĥĲáĥĽ áĥĿáĥĽ
Û° Û°
ĠØ§ Ø´
Ġà®¯ à®¾à®°
Ġà°¦ à±Ģà°¨
Ġenf ants
Ġà®ķà¯ĩ à®Łà¯įà®Ł
Ġna m
ĠìľĦ íķ´
Ġà®¤ à®¯
Ġza ch
ÏĮÏĦÎµ ÏģÎ±
ãģ ¸
Ġa lles
ĠÙģ Ø§Ø±
Ġa o
ĠC ons
ĠØ¯Ø§Ø´Øª Ùĩ
è¢ Ń
à¤µ à¥Ĥà¤¨
r Ã¼n
Ø§Øµ Ø©
Ġà®¨ à®®à¯įà®ª
×ķ×¨ ×Ļ×Ŀ
ĠÄ± n
Ġà¦¸à¦Ĥ à¦¬à¦¾à¦¦
ĠA k
Ġxu áº¥t
ÏĨ ÏģÎ¬
iv o
ĠÎ´Î¹ ÎµÏħ
Ġà°ħà°¯ à±įà°¯
ĠÐ¡ Ð°Ð¼
p ovÄĽ
¡à¸²à¸ģà¸ ģà¸§à¹Īà¸²
Ġà¤¨à¤¿ à¤°à¥įà¤£
Ġsam och
Ġm ujer
ment os
ãĤĵ ãģª
Ġà¦® à¦¤
ĠS ur
Î¹Ïĥ Î¼Î¿Ïį
ĠáĥĴáĥĲáĥĽ áĥĿáĥ¡
ĠÑĤ Ðµ
ãģĹãģ¦ ãģĦãĤĭ
à°¾à°® à°¨à°¿
Ġcha que
ĠAGçİ¯äºļ éĽĨåĽ¢å®ĺç½ĳ
æĿ¥ çľĭ
åħ¬ åħ±
ä½ĵ çļĦ
ĠS BO
çĶµåŃĲ çĻ»éĻĨ
æĳ ¸
à¤¦à¥įà¤¦ à¤²
à°¡ à±ģ
ĠAr tik
ĠpÅ¯j Äįka
ĠÄį l
iss ion
àµ Ĥ
à¤°à¥įà¤ ķ
Î¸Î· ÏĥÎ·
Ġà¦¤ à¦¾à¦ķà§ĩ
Ġà®¨ à®¾à®®à¯į
¸à±įà°¥ à°¿à°¤
ich te
Ġm ov
Ð¸Ñģ Ñģ
ung an
Õ ·
ti q
ĠT ak
ĠÏĦÎ¹ Î¼Î®
Ġáĥŀ áĥĲáĥłáĥļáĥĲáĥĽáĥĶáĥľáĥ¢
Ø¨ÙĬ Ø¹
nÄĽ nÃŃ
Ġà®ªà¯ĭ à®¤à¯ģ
áĥķ áĥĲáĥłáĥĺ
ĠÎ±ÏħÏĦÎ¿ Îº
Ġà¥¤ âĢĻ
à§ģà¦ £
lar es
Ġder nier
ot ti
áĥĽ áĥĺáĥĹ
ĠD la
g n
Ġà°ĩ à°²à°¾
Ô ±
Ġo ÄŁ
ĠÑįÐº Ð¾Ð½Ð¾Ð¼
ĠØ¯ ÙĪÙĦ
Ġà¦Ĩ à§Ł
Ġà°°à°¾à°ľ à°ķà±Ģà°¯
un i
Ġnghiá»ĩ p
wÃ³ j
Ġà°ħà°¨à±įà°¨ à°¿
Ã©c ur
à¦¾à§Ł à§Ģ
Ġáĥĳ áĥłáĥ«
Ġêµ °
Ġgo ed
Ġpres ent
g esch
ĠÐŁ ÐµÑĤ
Ã½ mi
ĠÎľ ÏĢÎ±
ÏĥÏĦÏĮ ÏĥÎ¿
ĠS ujet
Ġb r
Ð° ÑĨÐ¸Ñİ
ĠÕ« Õ¶
larÄ±n da
enie m
áĥĺáĥ¡ áĥĽ
ĠÑĢ Ð¾ÑģÑģ
ÙĪÙħ Ø©
áĥĺáĥķ áĥĶáĥłáĥ¡
ÐµÐ´ Ð¸Ð½
ĠÂ ²
áº¡ ch
Ø§ ÙĪ
Ġà¦¬ à¦°
à´ ¨àµįà´
Ġà¤² à¥ĩ
ê² ł
Ġi ci
ĠwÅĤ as
ĠM us
Ġãĥ Ĳ
Ġ×ĳ ×ĳ
Ġà°¸à°Ĥà° ª
ĠIn ter
Ã© ro
à¯Ģ à®¤
Ġv il
Î¬Î½ Î½Î·ÏĤ
ĠÎ¦ÎµÎ² ÏģÎ¿Ïħ
ìĸ ¸
áĥĿ áĥĶáĥĳáĥĺáĥ¡
Î¹Ïĥ Î¼ÏĮ
ĠwiÄĻ k
Ø¨ Ø¹
aj a
st ag
Ġèı ²
Ġåį °
Ġagçİ¯äºļ çĶµåŃĲçĻ»éĻĨ
Ġagçİ¯äºļçĶµåŃĲçĻ»éĻĨ ä¸ĭè½½
çĥ §
ç»ĵ æĿŁ
åįĬ å¹´
è¿Ĳ è¾ĵ
å¼ ĥ
ä¸ ¹
Ĺà¸µà¹Ī à¸Ļà¹Īà¸²à¸
åľ¨çº¿ å¹³åı°
Ġne ws
ç¤¾ä¼ļ ä¸»ä¹ī
æĪĲ ç»©
à¹ģà¸ķà¹Īà¸ ¥à¸°à¸
Ľà¸£à¸°à¸ģ à¸Ńà¸ļà¸
Ħà¸ ¡à¸
Ġçİ¯äºļag å®¢æĪ·ç«¯
Ġà¹Ģà¸ Ĥ
áłłáł ¨
à¹ģà¸« à¹Īà¸ĩ
Ġç ±
éĤ ¦
çĪ ¸
à¹ĥà¸Ĭ à¹Īà¸
¢à¸Ļà¸ ķà¹Į
ag äºļ
Ġà¥§à¥ ¯
Ġà¦¤à¦¥ à§įà¦¯
ĠÏĪ Ïħ
ÙĨØ¯ Ú¯ÛĮ
ĠÎ±Îº ÏģÎ¹
à¤ Ľ
à±Ģà°Ĩ à°°à±į
à°¿à°ª à±ĭà°¤
i ciÃ³n
ĠPer son
ĠÑģÐ´ÐµÐ» Ð°ÑĤÑĮ
Ġn Ã¶v
Ġpho to
à¯įà®ķà®³ à¯Ī
ÑıÑĤ ÑģÑı
Ãº t
áĥĶ áĥĶáĥĳáĥĺ
ĠÎ¤ ÏģÎ¯
Ġ( '
ëĭ¤ ëĬĶ
Ġà°Ĩ à°§
Ġproduit s
Ġt ari
zn am
Ġà¦ľ à§ĩà¦²à¦¾
ä¸Ģ æľ¬éģĵ
Ġà¤ľà¥Ģ à¤µà¤¨
Ġà¦¤à¦¾à¦ģ à¦°
ĠÎºÏħ ÏģÎ¯ÏīÏĤ
Ġáĥľ áĥĲáĥª
Ġà¤¸à¤Ĥà¤ Ĺ
×ľ ×ĳ
Ġp Ãº
Ã¤ s
ĠáĥĲáĥł áĥĲáĥ¤
ĠP as
Ġcomp te
{ "
ĠÐºÐ¾Ð½ Ðº
den ti
ĠØ¯ ÛĮØ¯
Ġge en
áĥª áĥĺáĥĺáĥ¡
Ġãĥ ŀ
ÏĨ Ïį
ÙĦ ÙĬØ©
ĠÎĳ Ïģ
Ĉ ą
Ćą ï¼Į
à¤£ à¥įà¤¯à¤¾à¤¤
ĠÑģ ÑĥÐ¼
à¥ĩà¤ķ à¥įà¤¸
Ġà¦¸à¦®à§įà¦ª à¦¾à¦¦à¦ķ
Ġà¦² à§Ģà¦Ĺ
Ġà¦¸ à¦¾à¦Ĥ
Ġexemp le
Ġy e
áĥĲáĥª áĥĺáĥĿ
ĠS in
za hl
Ð½ ÐµÐ³Ð¾
ĠÏĢÎ± Î³
Ġà¤ķ à¤Ńà¥Ģ
ê³ ³
ĠáĥŀáĥłáĥĿáĥĳáĥļ áĥĶáĥĽ
Ġà®¨ à®¿à®ķà®´
Ġcom ent
Ã¡c e
Ġin di
à¦¹ à¦£
ĠÃ ĵ
Æ°á»Ľ ng
ĠÑģÐ» Ð¾Ð²
hne d
or u
Ø±ÙĪ Ø²
Ġne ue
Ġê° Ħ
à°²à±įà°² à°¿
à±Ĥà° Ł
ãģª ãĤī
ĠV ÃŃ
ne k
Ð¸Ðº Ðµ
ÏīÎ½ ÏĥÏĦÎ±Î½
Ġ×ŀ× Ĵ
eit ere
au te
ĠÎµÎ½ ÎŃÏģÎ³
ĠEr mÉĻn
Øµ ÙĪÙĦ
» çĴĥ
Ġagäºļæ´²éĽĨåĽ¢å®ĺç½ĳ agäºļ
æ¶Īè´¹ èĢħ
«à¸¥à¸ ·à¸Ń
S C
Ĺà¸³à¸ ĩà¸²à¸Ļà¸
Ġè £
Ġç® ¡
Ġà¤¨ à¥ĩà¤¤
Ġda ting
v or
Ġs Ã¼r
à¦¸à§įà¦¥ à¦¾
Ġáĥ¡ áĥĿáĥªáĥĺ
Ġáĥ¡áĥĲáĥ£áĥ ĳ
Ġk osz
Ġprod ej
è¶Ĭ æĿ¥è¶Ĭ
æ ¾
¥à¸·à¸Ńà¸ Ķà¸
Ġå¥½è¿Ĳ å¿«3
Ġq q
Ġ7 2
Ġå®ŀ çİ°
Ġä» Ģ
Ġà¤ĸ à¤°
à±ģà°² à±į
ill er
ĠÑģÐ¼ Ð¾ÑĤÑĢ
Ġ ir
k ovÃ©
ëª ©
ĠÑģÑĤ ÑĢ
ÏĦÎµ Î¿
áĥķáĥĲáĥļ áĥĺáĥ¡
ãģĤãĤĬ ãģ¾ãģĻ
ĠØªÙĪØ³ Ø·
à±Ĥà°° à±ģ
Ð¾Ð´ Ñĭ
ÄĽ st
Ġpe ÅĤ
à°¿à°ļ à±įà°ļ
Ġof re
ĠR oma
Ġri cer
ĠÎĵ ÎĻÎĳ
ĠÏĢÏģÏĮ Î²
áºŃ y
Ġà¦ī à¦¨à§įà¦¨
çĤ ¸
åĨľ ä¸ļ
å¾ĭ å®¾
ä¸į è¦ģ
à¹Ħà¸ «à¸¡
¨ è¯¢
ĦáĢ¹áĢ ¸áĢ
æĽ´ æĸ°
ĺ à¸£à¸£à¸¡
ĠagåĽ½éĻħ é¦Ĩ
é Ĭ
Ġ8 9
å¦Ī å¦Ī
9 æľĪ
Ġà¤ħà¤¸ à¤Ĥ
ģà¸²à¸ ¢à¸
Ġag ç½ĳ
Ġ æľĪ
åĭ Ĵ
åī ĳ
à¹Ģà¸ ģà¹ĩà¸
1 æľĪ
ĠçĶµ åŃĲ
Ġçģ «
æĺ¯ æŃ£è§Ħ
åĳĬ è¯ī
¡à¸²à¸ģà¸ Ĥà¸¶à¹īà¸Ļ
Ĺà¸£à¸ ĩà¸
Ĺ à¹Įà¸
ĠèĬ ±
ĠåĬ ŀ
è¿ ¹
ç» ķ
y l
ĩ à¸²à¸Ļà¹Ģà¸
Ġà¤¶à¥ĩà¤¤ à¤ķ
Ġ à¹Ħà¸Ľà¸
æĶ¯ ä»ĺ
æ±Ł èĭı
à¸´à¸ ¥à¸
àª¾àª °
v ip
å Ĺ
Ġà¤Ĺ à¤°
à°° à±įà°²à±ģ
Ġr ap
ĠáĥĹáĥĲáĥķáĥĺáĥ¡ áĥ£áĥ¤
ÏĥÏī ÏĦÎµÏģ
Ġà¤¦ à¥ĩà¤¨à¥ĩ
ìĺ ¨
×ķ×ĳ ×Ķ
Ġsprze da
Ġkar ena
ĠR oz
ĠáĥĴáĥĲáĥľáĥ¡ áĥĲáĥĻáĥ£áĥĹáĥł
ÐµÑĢ Ðº
ÅĻe ba
Ġà¦¬à§įà¦¯ à¦ķà§įà¦¤
Ġà°ķ à°¦
ĠÐ½Ð°Ð¿ ÑĢÐ°Ð²
Ġk ier
Î³Îµ Î¯Î±ÏĤ
Ġc ost
Ã¤l t
à¥ĭ à¤°à¥įà¤Ł
ê¸ Ģ
Ġann on
ĠÎŁ Î»ÏħÎ¼ÏĢ
Ġà°ħà°¨à±įà°¨ à°¾à°°à±ģ
wi j
à®¿à® ¨
ÛĮÙĨ Ùĩ
ê· ¼
ĠktÃ³r ych
ÅĻ en
Ġà°®à±ģà°Ĥà°¦ à±ģ
ĠM in
Ùİ ÙĦ
ĠØ§ÙĦÙħ ÙĨØª
áĥ£áĥļ áĥĺáĥ¡
Ġ×¢ ×ĵ
Î»Î» ÎµÎ¹
Ġà¤¬ à¤Ĥà¤¦
ĠÐ±ÑĥÐ´ ÑĥÑĤ
Ã³ ng
Ġe lec
m ment
Ġil g
es en
ĠØ§ÙĦØ± Ø¦ÙĬØ³
ĠØ¨Ø± Ø®
Ġ ÏģÎµ
æ¥ ļ
à¹Ģà¸¥à¸·à¸Ńà¸ ģ
Ĥà¹īà¸Ńà¸¡à¸¹à¸ ¥
Ġå½ ¢
Ġà¤®à¤° à¤¾à¤łà¥Ģ
Ġà¤ª à¤¾à¤Ł
ĠC C
Ġ antes
ĠÐ¾ÑĤÐ½Ð¾ ÑĪ
å½© å½©ç¥¨
Ġä¹Ł æĺ¯
Ġà¤µà¤¿à¤ ľ
s Ã¥
Ġcon di
íĽĦ ê¸°
ë©´ ìĦľ
Ġterse but
Ġà¦¸à¦®à§įà¦ª à¦°à§įà¦ķ
ĠrÉĻh bÉĻr
à°¿à°¸à±įà°¤ à±ģà°Ĥà°¦à°¿
Ġn r
Î® ÏĥÎµÎ¹
ĠáĥĵáĥĲáĥ ¤
ze ich
ĠyÃ¼k s
Ð» ÐµÑĤ
os pod
ÙĤØ¯ Ùħ
à¯ģà®¤à¯įà®¤ à¯ģà®µ
Îľ Îĳ
ĠÎµÎº ÏĢÎ±Î¹Î´ÎµÏħ
Ġren contre
ĠE lle
Ġme zi
Ġà¤¨à¤¿à¤°à¥įà¤£ à¤¯
ĠÎĻ Ïī
ĠÎ±ÏĢÎ¿ÏĦÎµ Î»ÎŃ
agl ia
Ġm ak
Ġë Ī
Ġdo it
ĠÐºÑĢ ÐµÐ´
ĠÑģ Ð¸Ð»
áŀ ľ
Ġà¤Ĩà¤® à¥įà¤¹à¥Ģ
Ġà¤ķà¤¾à¤° à¥įà¤¯
ĠÎ» ÏĮ
Ġ×ľ ×¦
cia le
Ġu z
à®¾à® ´
à¥ĩà¤Ĥà¤ ¸
ĠÑĥ Ð¼
en ze
Ø§Ø¦ ÙĬ
æĬ ¢
æ½ ľ
Ľà¸±à¸įà¸ «à¸²
Ġï¼ į
Ġè¿ĺ æľī
Ġà¨ Ń
ĠagåĽ½éĻħ æīĭæľºå®¢æĪ·ç«¯ä¸ĭè½½
å¿ Ļ
Ĥà¸²à¸ §
Ġè¶ ³
A M
ĸ à¹Īà¸²à¸¢à¸
ħ à¤°
Ġob ie
áĥĲáĥķ áĥĲáĥļáĥĺ
ĠÐļ ÑĥÐ¿Ð¸ÑĤÑĮ
Ðº Ð°Ð½
à®©à¯įà®© à¯Ī
Ġa qu
Ġsav oir
Ġz em
Ġà®¤ à®¿à®Łà¯įà®Ł
st Ã¤n
ĠÏĢÏģÎ¿ ÎºÎ±
Ð¸Ð» Ð¾
à§įà¦¯ à§ģ
Ġà°ħà°Ĥà°Ł à±Ĥ
Ġà°¦ à°Ĺà±įà°Ĺ
Ġd Ã¢n
ÙĬ Ø¬
ic ar
Ġê²½ ìļ°
ĠP ri
ĠÎ± ÏĨÎ®
à§Ĥ à¦°à§įà¦£
r ir
ĠØ§Ø± Øª
ĠÎŃÏĩ Ïī
Î¹Î½ Î±Î¹
Î¸ ÏĮ
ĠáĥĹáĥĲáĥķáĥĺáĥ¡ áĥĺ
Ġ×¢ ×¦
è§Ĥ å¯Ł
ªà¸³à¸Ħà¸ ±à¸į
Ġç« ĭ
Ġæ ¼
Ġ à¸Ļà¸±
ç °
æİĴ åĲį
Ġï¼Į [
ç¬¬ åĽĽ
« à¹Įà¸
n n
_ å¤§å°ı
ģà¸³à¸ «à¸Ļà¸
ĠçĲ Ĩ
Ġà¤¶ à¤¿à¤µ
i Ã¨re
ĠÏĥÏħÎ¼Î¼Îµ ÏĦÎ¿
è½ ¨
äºĭä¸ļ åįķä½į
à¹Ĥà¸ Ĺà¸£à¸
à© Į
ŀà¸±à¸Ĵ à¸Ļà¸²à¸
Ġà¤² à¤¾à¤µ
Ïĥ ÏĢ
Î´ Ïį
ÐµÑĢ Ñģ
à±ģà°ķ à±įà°ķ
Ġà®ĩ à®©à¯įà®±à¯ģ
ĠI k
ĠÎĶ ÎµÏħ
à±ģà°¤ à±ĭà°Ĥà°¦à°¿
Ġp ens
Ġà¤¹à¤® à¤¾à¤°à¥ĩ
uj emy
Î¼ÎµÎ½ ÎµÏĤ
áĥĲáĥªáĥĺ áĥĲáĥ¡
Ùħ ÙĪ
Ġmog Äħ
Ġw ij
è½ ´
à¹Ģà¸Ľ à¸´à¸Ķà¸
à¸Ńà¸ ±à¸ĩà¸ģà¸¤à¸
łà¸²à¸ Ħ
ķ è¥¿
Ġà¤ªà¥įà¤° à¤¯
Ġà°ĩ à°µà±įà°µ
Ã¸ y
ĠÃ ¤
ĠÐ´Ðµ ÑıÑĤÐµÐ»ÑĮ
ĠÎł ÏĮ
à¯įà®® à¯Ī
áĥĶáĥĳ áĥĺáĥĵáĥĲáĥľ
ĠÐ²Ñģ ÐµÐ³Ð´Ð°
Ġla z
Ġi de
ĠØ¨ÛĮ Ø´ØªØ±
ìķĦê°Ģ ìĶ¨
ë¡ ¯
Ġà°¤ à°²
Ġnuest ro
ÑĤ Ð¾Ð²
à¤°à¥įà¤ ·
ues ta
áº¹ p
ĠÎĳ Îĵ
ĠÏĦ á¿ĨÏĤ
Î¼ Î¿ÏħÏĤ
Ġve el
ĠÙħ ØµØ±
Ġë¬ ¼
×ŀ ×ķ×ª
Ġne cess
ĠÙĪ Ø§ØŃ
Ġprimer a
is c
ĠF emme
Ġapp ar
Ġà°ĩ à°Ĥà°¡
Ã§ i
Ġpart ir
Ġà¦ķ à§ĩ
áĥ¨ áĥłáĥĿáĥĽ
Ġv Ã¬
ta tion
Ð¸Ð» Ð°ÑģÑĮ
à®Ļà¯įà®ķ à¯ĩ
Ġà°ļà±Ĩà°Ĥà°¦ à°¿à°¨
Ġdam it
ĠÏĢÎµÏģÎ¯ ÏĢÎ¿Ïħ
Ġáĥ¥ áĥ£áĥ©
as ib
Ġà¦¶ à§ĩà¦ĸ
ĠáĥŀáĥłáĥĿáĥª áĥĶáĥ¡
Ġà¤Łà¥Ģ à¤®
Ġv ur
ÑĪ Ð¸Ñħ
ch ts
ve z
Ġin nych
Ġde f
à¤ ĩ
à§ĭà¦°à§įà¦ Ł
ĠáĥĽáĥĶáĥĴ áĥĿáĥĳ
Ġ×ľ ×Ĵ
Ġs Ã¼re
Ġroz hod
ĠP ero
Ã¡ g
áĥĽ áĥĲáĥł
Ġà°¸à°Ĥà° Ĺ
l age
Ġà®ī à®Ļà¯įà®ķà®³à¯į
ĠÙħ Ø¤
Ġà°®à±Ĭ à°¤à±įà°¤
ĠãĤ ¤
Ġà¦ıà¦ķ à¦ľà¦¨
èĢģèĻİ æľº
à¹ĥà¸«à¹īà¸ ģà¸±à¸ļà¸
¢à¸ ĩà¸
Ġè® ¡
Ġå¨ ģ
åĵ ¡
à¹ģà¸ Ħà¹Īà¸
ĠåĮ »
Ć ĆĈ
è¯ķ éªĮ
åħ¬ éĩĮ
à¥ĩà¤ķà¥įà¤· à¤¾
ĠF ar
ÄĽ l
Ġáĥĺ áĥł
ĠAv ro
Ġf Ã¼
ĠÙĩÙħ Ùĩ
Ġp oli
Ð¾Ð½ Ð¾Ð²
iv el
áĥĺáĥłáĥĵ áĥĶáĥĳáĥĲ
ÙĦ Øª
ĠÎ¼ÎµÎ³ Î¬Î»
Ġf ilm
Ġà¤ķ à¤²
ê² °
ĠáĥĽáĥĵáĥĴáĥĿáĥĽ áĥĲáĥłáĥĶáĥĿáĥĳ
Î» Î¹ÎºÏĮ
Ø¨ ÙĬØ±
Ġco lle
Ġà°¤à±Ĩà°² à°¿à°¯
Ġt ah
Ġp ost
Î¼ Î®ÏĤ
Ġvo it
Ġà¤ļ à¤¾à¤°
ĠØ³ Ø§Ø¹Øª
Î² Î±Ïĥ
ĠAzÉĻrbaycan da
il ik
Ġk to
Ã ļ
ĠÃ Ĭ
á»į i
Ġtra ta
ĠWo hn
Ġà¦¬ à¦¾à¦¬
à±Ģ à°²à±ģ
Ð¾ ÑıÑī
ĠÎ¿Î¹ÎºÎ¿ Î³ÎŃÎ½
à§ ®
à®¿à®° à®¿à®¯
ĠáĥĻáĥĲáĥłáĥĴ áĥĺ
ĠN or
×¨×Ĳ ×©
is k
ĵ °
Ġà¤ľà¤¾à¤¨ à¤ķà¤¾à¤°à¥Ģ
à¦² à¦¾
Ġà°¹à±Īà°¦à°° à°¾à°¬à°¾à°¦
Ġà°° à°¾à°µ
Ġà®ļ à®ķ
ĠÏĢÎ»Î·ÏģÎ¿ÏĨÎ¿ ÏģÎ¯ÎµÏĤ
ĠáĥĽ áĥĶáĥ¡
ĠbÄĻ dÄħ
Ġman era
ĠÄį es
ĠÅ¡ kol
schie den
ĠÏĨ Î±Î½
Ġà¤Ĺ à¤¿à¤°
Ġà¦¸ à§Ĥ
ĠÐľ Ð¸Ð½
à¯ĭ à®Ł
Ġáĥł áĥĲáĥĺ
ĠB iz
íĻ ©
Ġvel mi
ĠáĥĲáĥĽ áĥĶáĥł
ĠØ§ÙĦÙħ ÙĤ
Ġ ÏģÎ¿
Ġest ar
Ġnouve lle
cj Äħ
Õ¡ ÖĦ
ÉĻt in
ĠÑģÐ¿Ðµ ÑĨÐ¸
b aar
Î¶ Î±Î½
Ġà°ªà±Ĭ à°Ĥà°¦
ĠãģĿ ãĤĮ
ĠØ¯Ø§ÙĨØ´ Ú¯Ø§Ùĩ
ìķ ł
Ġà®¤ à¯Ģà®°
ien s
Ġà¤ħà¤¨ à¥ģà¤¸
ĠÑĤ ÑĥÑĢ
ib ilitÃł
tiv as
Ġ| --
Ùģ Ø©
Î³ Î®ÏĤ
ë ¨
Ø± Ùĩ
ĠÎľÎ± ÎĲ
Ġà¦ħ à¦«
áĥĶáĥĳáĥĺ áĥĲ
Î»Î± Ïĥ
ue go
pr Ã¨s
Ġqu indi
á½´ Î½
ĠÎºÎ±Î¸ Î±
sk Ã½ch
ĠEn t
ĠÎ£Î¥ Î¡
Î¬ Ïĥ
Ġà®® à¯ģà®ķà¯įà®ķ
à¥ ©
cz ka
à¤Ĩ à¤Ī
Ġwie le
ĠÎļ ÎĳÎ¤
Î½ ÏīÏĥÎ·
Ġì¶ľìŀ¥ ìĥµ
ĠíĨ ł
ãģ§ãģį ãĤĭ
Ġåı Ĺ
è³ ¼
ļà¸²à¸ ĩ
Ġç ª
Ġåħ ļ
Ġä¸ ¥
çķ ¶
æĭ¥ æľī
æ¬ ²
å½ĵ åľ°
éĢģ å½©éĩĳ
å¯¼ èĩ´
à¤µ à¤¤
e h
iy asÄ±
ĠØ®ÙĪØ¯ Ø±ÙĪ
Ġsta ta
ĠÎŃÏģÎ³ Î¿
Ġu0 3
Î¯ ÏĥÎµÎ¹
Ġáĥ¬áĥĲáĥłáĥĽáĥĿáĥĽ áĥĲáĥĵáĥĴáĥĶáĥľ
Ã¨ ne
Ġà¦¹à§ĭà¦¸ à§ĩà¦¨
Ġà¦Ĩ à¦¬à¦¾à¦°
ØŃ ÙĬ
à¤¬ à¤°
ak t
ĠÏĮÎ» ÏīÎ½
à§ĩà¦ĸ à¦¾à¦¨à§ĩ
ë¥ ĺ
Ġà°ª à±ģà°°
ho p
Ġvie le
ÏĢÎµ Î¶
Ġà¤ľà¤¾à¤¤ à¥Ģ
Ġsk al
Î¼Îµ ÏģÎ¹Îº
ĠÐ¿ÑĢÐµÐ´ Ð¿ÑĢ
Ð¸Ð½ Ð¾Ð²
a Ã§Ã£o
×¤ ×§
áĥķ áĥĶáĥĹ
Ľà¸¥à¸µà¹Īà¸ ¢à¸Ļà¸
ĠéŁ© åĽ½
Ġà¤ªà¤° à¤¿à¤¸
ĠmoÅ¼ liw
Ġch ar
Ð°Ð± Ð¾Ñĩ
ti y
Î¹Ïĥ Î¼ÏĮÏĤ
E C
Ġespe cial
Ø´ Ùħ
ĠÐ¿ÑĢÐ¾ÑĦ ÐµÑģÑģ
ĠÃ Ĵ
Ġgi an
Ġdo dat
ĠÑģ Ð¾Ð´ÐµÑĢÐ¶
Ø§ ÙĬØ©
ĠáĥĳáĥĶáĥķ áĥłáĥĺ
ĠÐ± ÐµÐ»
ĠÏĮ Î»Î¿
Ġna ture
Ġ à¸£à¸±à¸ļ
è° ĭ
à¹ģà¸ §à¸
à¥Ĥ à¤°à¥įà¤µ
ÐµÐ½ Ð½Ð°Ñı
à®¿à® Ļà¯įà®ķ
Ġà°ľà°° à±ģà°Ĺ
Ð¸ÑĨ Ñĭ
wa ÅĤ
Ġpol ÃŃ
ĠTe il
Ġt i
Î± ÏĦÏģ
Ġà¤ĩ à¤²
Ġcos a
Ð°Ð¹ Ð´
h le
×Ĳ ×Ļ
ler ini
Ġh ui
Ġà°¸à°® à°¸à±įà°¯
ĠØ®ÙĪØ§Ùĩ Ø¯
Î½Î¿Ïį ÏĤ
Ġà®ĩ à®³
Ġde re
ĠÔ µ
ÉĻt ir
Äį en
Ð½Ð°Ðº Ð¾Ð¼
od u
Ġp un
è¨ ĺ
à¤¾à¤¨ à¥ĭà¤Ĥ
ëª¨ íħĶ
· °
à®µ à®©à¯į
ĠÑģÐº Ð¾ÑĢ
ÎµÏħ ÏĥÎ·ÏĤ
Ġì¶ ©
Ġà®® à®¾à®¨
ĠÙĪ Ùģ
ĠÎ¹ÏĥÏĦÎ¿ ÏģÎ¯Î±
Ġáĥĳ áĥĿáĥļáĥĿ
ĠmÃ¼ s
Ġà®¤à¯Ĩà®°à®¿à®µ à®¿à®¤à¯įà®¤
Ġs ouv
à¥ģà¤ Ń
ĠáĥĲáĥ®áĥĲáĥļ áĥĴ
v an
ĠìĬ ¬
à±įà°¯ à°¤
ĠíĶ ¼
Ġà¦¬à¦¾à¦Ĥà¦²à¦¾à¦¦à§ĩà¦¶ à§ĩà¦°
à¦¿à¦ķ à¦¾
ÏĨÎ¿Ïģ ÎŃÏĤ
ĠØ¨ ÙĪ
×ĵ ×Ŀ
áĥĳ áĥ£áĥłáĥĹ
ĠÃ ¸
Ġmej ores
ĠÛ µ
ĠØªÙĪ Ø¬Ùĩ
Ġri c
Ġáĥ¥áĥķáĥĶáĥ§ áĥľáĥĺáĥ¡
Ġpe que
Î¤ Îĳ
ĠÏĨÎ¹ Î»Î¿
Ġà°¨ à°¡
ÅĽ wiad
Ġà®ķ à¯ģà®°
ãĥ İ
an der
ĠÐ· Ð°Ð³
ĠÎ»ÎŃ ÎµÎ¹
à¦¿à¦¸ à§įà¦¤
Ġagå¹³åı° æľĢæĸ°çĻ»å½ķåľ°åĿĢ
çĽ´ å±ŀ
g le
Ĭà¸± à¹īà¸Ļ
ç»Ĩ èĥŀ
Ħ à¹īà¸Ļà¸
ä¼ĺ åĮĸ
à¹ĩà¸ ķ
¢à¸²à¸ §
Ġs bo
éŁ© åĽ½
æļ Ĺ
ä¼Ļ ä¼´
Ġæł ĩ
Ġ ç½ĳé¡µ
æ° £
à¹ģà¸Ĥà¹ĩà¸ ĩ
è¿ ħ
åĲ ´
ĠæĿ¥ æºĲ
Ġå¾·å·ŀæīĳåħĭ çİ°éĩĳ
Ġ à¹Ģà¸Ń
æĤ ł
åĽł ç´ł
äºĶ æľĪ
à¹Ĥà¸ ¥
¢à¸±à¸ĩ à¹Ħà¸
Ĺ à¸£à¸±à¸
è´µå®¾ ä¼ļ
åľ° äº§
à¹Ģà¸¡à¸ ·à¹Īà¸Ńà¸
Ġæĥ ħ
Ġ= "
æ³ ¡
à¥ĭà¤ľ à¤¨
áĥĿáĥ ©
ÏĨ ÎŃÏĤ
ÑĮ Ðµ
Ø§ØŃ ÛĮ
à®¤ à®¾à®²à¯į
Ġm ÉĻÅŁ
Ġnost ro
ê² ĥ
Ġà°ª à°¾à°¤à±įà°°
ÑģÐº Ð¾Ðµ
ĠÏĢÎ¹ Î¸Î±Î½
is ce
à§ĩà¦® à¦¨
à±ĭ à°¸
Ġa ir
Ġki nh
ÙĲ ÙĬ
ĠØ± ÛĮ
ÙĬ Ø´
Ġji Å¾
ĠÐ¿ ÑĥÑĤ
áĥĶáĥĳ áĥĲáĥĵ
Ġ×Ĳ ×Ļ×ļ
Ġtien en
ĠSta dt
Ġ×Ĳ ×ĳ
ĠMil ano
ter e
ÙĨ Ùĩ
§à¹Īà¸²à¸ Īà¸°à¸
Ġäºļæ¸¸åĽ½éĻħ éĽĨåĽ¢å®ĺç½ĳ
Ġà¤ĸ à¥ĩà¤³
Ġà¦ªà¦° à§ĩ
cyj ne
ĠÏĥÏį ÏĥÏĦÎ·Î¼Î±
à°Ĥà°ª à±Ī
Ġass ur
Ġb amb
Ġwsp Ã³ÅĤ
ãĢ ħ
ĠÕ« ÖĢ
Ġna z
ĠÃ Ĺ
Ã Ĩ
áº¯ ng
Ö ´
Ġ×ĳ ×Ľ
it es
Ġà¤ħà¤² à¤Ĺ
Î¸Î· Î¼Î±
ĠÏħÏĢÎ¿ Ïĩ
ĠAzÉĻrbaycan Ä±n
Õ ²
Õ¾ Õ¥Õ¬
m ÉĻsi
ob ierno
Ġsay a
à¯ģà®¤ à¯ģ
Ġk at
ë³´ ìŀ¥
ìĽ Į
à°Ĥà° ¶
ĠÏĦ Î±Î¹Î½
Ġe er
à±ģà°µ à°¾à°¤
Ãªn cia
ĠÎµ Î²Î´Î¿
ĠØ¬ Ø¯ÙĬØ¯
ĠCh icas
ĠEs p
ĠÚ© Ø¯
Ġse gun
ta mento
ÙĨØ¯ ÛĮ
à¯ĭ à®©
áĥĶáĥ ¯
ĠP e
Ġpeu vent
ĠÑģÑĩ Ð¸ÑĤ
Î¼ Î·ÏĤ
Ġe k
os to
Ġáĥ¥áĥķáĥĶáĥ§ áĥĲáĥľ
ĠÎķ ÏĢÎ¹Ïĥ
Ø±Ùĥ Ø²
ÏĮ Î»Î¹Î±
Ïĩ Ïį
Ġà¦¬à¦¿à¦Ń à¦¾à¦Ĺ
Ġg em
ãģĪ ãģ¦
×Ĳ ×Ļ×Ŀ
ĠÛ ´
ĠØ³ Ø±ÛĮ
æĴ ĳ
¸à¸ ¡
è£ Ŀ
¡à¸ ·à¹Īà¸Ń
Ġä¸Ģ å¸¦ä¸Ģè·¯
Ġä¸ľ äº¬
èĢ Ģ
è¯Ħ è®º
à¹ģà¸ ķà¸ģà¸
ä¹ ³
à¥įà¤¯à¤¾à¤¨ à¤Ĥà¤¤à¤°
Ġt ap
© ëĭĪëĭ¤
Ð¸ÑĩÐµÑģÐº Ð°Ñı
Ġda i
ĠE ine
ĠK o
Ġà¦®à¦¾à¦¨à§ģà¦· à§ĩà¦°
Ñħ ÑĢÐ°Ð½
Ġà®ªà¯Ĩ à®±
ad ora
Â º
ĠÂ ¾
ĠÄĳ iá»ĥm
ĠÙĨÙħ Ø§ÛĮ
m F
Ġst ar
ĠÏħ ÏĢÎ®
Ġtr es
ĠØ³ Øª
ãģ« ãģ¤
áĥĺáĥł áĥĶáĥĳáĥĺáĥ¡
Ġà°¨ à°¿à°¯
ĠÐ²Ñĭ Ð±Ð¾ÑĢ
Ġà¦¬à¦¿à¦° à§ģà¦¦à§įà¦§à§ĩ
Î¾ Î¿ÏħÎ½
ĠÖ ĥ
Ġk im
os i
¢à¸ ģà¸
B A
4 æľĪ
Ġ2 96
è± Ĩ
å¤© ä¸ĭ
ģà¸£à¸ °à¹Ģà¸
Ġåĵ Ī
Ġä» £
Ġà¥¨à¥¦ à¥§
ĠÐ²Ð½ Ð¸Ð¼
ä¸į äºĨ
à¸Ńà¸ ¡
ļà¸ ¸
ĠæĪ ĺ
æĻ® éĢļ
åĪ© äºļ
ŀà¸´à¸ ¡à¸ŀ
Ġå ĥ
Ġä¸Ń å¤®
Ġà¤µà¤¿à¤Ń à¤¾à¤Ĺ
Î»Î¿Î³ Î¯Î±ÏĤ
Ġi hned
ĠP ÅĻÃŃ
ĠØŃ Ø¯
r up
ÏĨ ÏģÎ±
áĥ® áĥĶáĥļ
çĮ ª
åŁº åľ°
åº Ł
äºº å¤§
à¹Ħà¸ Ĥà¸
±à¸ģà¸ ĩà¸²à¸Ļà¸
ç¨ ¿
å®ļ ä½į
à¤²à¥ĩà¤² à¥Ģ
Ð¾Ð³ Ð¾Ð²Ð¾ÑĢ
Ġà°¸à°Ĥà° µ
im y
Ġà¦ķà¦¾à¦°à¦£ à§ĩ
h ou
×Ĳ ×¨
ĠÐ² Ð°Ð¶
Ġb anyak
ÏĦÎ® Î¼Î±ÏĦÎ±
ĠáĥĹáĥĲáĥĽ áĥĲáĥ¨
Ġ rz
ÏģÏĩ ÎµÏĦÎ±Î¹
di do
Ġà®ļ à®¾à®¤
ĠÎĻ Ïĥ
Ġçİ¯äºļ çĻ¾å®¶ä¹Ĳ
å¦Ĥ æŃ¤
à¹Ģà¸ §à¸¥à¸²
à¤¾à¤Ĥà¤ ®à¤§à¥įà¤¯à¥ĩ
à´¿à´ °
Ġà¤® à¤ľ
Ġcu is
ie ra
ĠG ar
áĥ£áĥļáĥĺ áĥĲ
it ab
Ġcom mer
keit en
ĠÑģ ÑĥÑīÐµÑģÑĤÐ²
Ġf ÉĻr
à¤® à¥Ģ
Ġor ig
ĠÏĩÏİÏģÎ± ÏĤ
Ġà¦ķ à§Ģ
áĥł áĥĲáĥļ
ĠãĤ ¯
Ġà®ªà®¯ à®©à¯įà®ª
ĠÎłÎ±Î½ ÎµÏĢÎ¹Ïĥ
Ġà¤¬ à¤ļ
ĠáĥĴáĥĲáĥł áĥĶáĥĽ
à°Ĥà°²à±ĭ à°¨à°¿
Ġà¦® à¦¿à¦²
r ent
ÏģÎµ Î¬Î½
ĠU S
áĥĶáĥł áĥĲáĥ¢
ÎŁÎ ¦
Î» Î»Î¿Î³
Ġcon os
ĠÎ² ÏģÎ±
ĠÐ¿ Ð¾Ð¶
ãĥ¼ãĤ º
Ġk áº¿t
Ġà¤µà¤¿à¤¶ à¥ĩà¤·
Ġíķĺ ëĬĶ
Ġch at
Ġo tra
w anie
×ľ ×ĺ
áĥļ áĥĶ
Øª ÙĩØ§
Î¹Î½ Î¬
ĠÐ° Ð¿
ĠÎ±ÏĢÏĮÏĨÎ± ÏĥÎ·
di ÄŁi
ess en
ĠØ³Ø§Ø² ÙħØ§ÙĨ
à¦¾à¦¡ à¦¼
n ku
l ish
Ġà°¨ à°Ĺ
ĠÐ¸ Ð´
Î¸ÎŃ ÏĥÎµÎ¹ÏĤ
Ð¸Ð¼ Ð¾ÑģÑĤÐ¸
Ġn ar
Ġáĥ¡áĥĲ áĥĲáĥĹ
Ġãĥ ¡
ĠØ± ÙĤÙħ
ÏĦÎ¹Ïĥ Î¼Î¿Ïį
g ur
f ang
Ð°Ð¶Ð´ Ð°Ð½
Ġb ene
ï ¾
ãĥª ãĥ¼
Ġn ed
Ïĩ Î¬
Ùİ ÙĨ
Ø¨ Ø§Øª
Ġe igen
Î½ ÏīÎ½
ëĵ¤ ìĿĺ
ÉĻm iyyÉĻt
Ġà¤¬ à¤²
ĠÐ½ ÐµÐ²
Ġsu dah
ĠM ont
na tion
a ber
ĠÙħÛĮâĢĮ Ø´ÙĪØ¯
×ŀ ×ķ×ĵ
u da
ber o
ÅĻe b
Ġà°ªà°°à°¿à° ¸à±įà°¥à°¿à°¤
ĠÐ¿ÑĢÐµÐ´ Ð»Ð¾Ð¶
Ïģ Î¹ÎºÏĮ
T A
Ġin te
Ġlo k
áĥĿáĥĵ áĥ£áĥ¥
Ġb Ã¶l
Ġà®¨ à®¾à®³
ĠáĥłáĥĲáĥ¢ áĥĿáĥĽ
ĠÎ±Îº Î¿Î»Î¿Ïħ
Ïī ÏģÎ³
Ġà¤¯ à¤¾à¤¦
ĠÏİ ÏģÎµÏĤ
ĠÐºÐ¾ÑĤÐ¾ÑĢ Ð°Ñı
ëĭ ¬
áĥĿáĥĳ áĥĶáĥľ
Ġà®¨à®Ł à®¤à¯įà®¤
lica do
Ġdes cription
c le
Ġho y
Ġà°¨ à°¿
á» Ĺ
ĠÏĢÎ»Î± Î¯ÏĥÎ¹Î¿
ĠÎº Î¯Î½
à¥ģà¤® à¤¾à¤°
Ġà¤¯ à¤¦
r Å¾
c Ãª
ãĥ ı
Ġ×Ĺ ×©
ĠÙĪ ÙĦÙĥ
v Ã©
ĠÐł Ð¤
Ð¾Ð± ÑĢÐ°Ð·
ti che
ĠÎµ Î½Î±
ul a
Ġë¨ ¹
Ġà¦Ĩ à¦Ł
ff e
ĠÎ¬Î»Î» ÎµÏĤ
Ġà®¨ à®¾à®Łà¯įà®Ł
Ġáĥ¡áĥĲáĥĻáĥ£áĥĹ áĥĲáĥłáĥĺ
ĠÑģ ÐµÐ³Ð¾Ð´Ð½Ñı
Ġà¤ķà¥Ī à¤¸à¥ĩ
ĠA le
ë³ µ
ĠéĻ¤ äºĨ
ªà¸ °
Ġà¸Ĺà¸ ¸à¸ģà¸
Ġà¤² à¤¾à¤ĸ
ç½ĳ åıĭ
æĢ» ç»Ł
åıĳå±ķ çļĦ
à¤¾à¤¯ à¤ķ
à±ģà°ķà±Ĭ à°¨à°¿
ĠIn form
ĠÐ¼ Ð¼
Ġnuest ra
am iÄĻ
Ġk ita
ĠÎĵ ÏģÎ±
Ãº p
ĠÏĦ ÏĮÎ½
ĠÎĻÎ¿ÏħÎ½ Î¯Î¿Ïħ
Ġáĥ¡áĥĲáĥĽ áĥ¡áĥĲáĥ®
il es
Ð°ÑĤ Ðµ
à§ Ń
Î² ÏģÎ¯Î¿Ïħ
à±Ī à°µ
Ùİ Ø§
Ø¬ Ø±
Î² Î²Î±
×ķ×ľ ×Ķ
b el
ĠÎĻ Î¿ÏħÎ»Î¯Î¿Ïħ
áĥĴ áĥĶáĥľ
Î¹Îº Î±
Ġë ĳĲ
Ġà¦ļ à¦¿à¦ķ
Ġcz ÅĤ
ĠÎŃ ÏģÎµÏħ
ÉĻyy ÉĻn
ãģĦ ãģĦ
Ġs iz
un der
nÃŃ k
Ġf ino
ãģ« ãĤĤ
Ġà¤ļ à¥Ģà¤¨
Ġnas zy
b ul
ĠáĥĽ áĥĶáĥĵ
Ġy Ã¶n
Ġà®ħ à®Łà¯ģà®¤à¯įà®¤
Ð°ÑĤ ÐµÐ»ÐµÐ¹
Ġà§§à§ §
it t
Î»Î¯ Î´Î±
Ġà¦² à¦ķà§įà¦·
Ġk obie
à°Ĺ à±įà°°
ĠØ³ Ø¨
Ã³ d
ĠÐ² Ð¾Ñģ
Ġà¤ªà¤¾à¤° à¥įà¤Łà¥Ģ
à®¿à®°à¯ģà®ķà¯įà®ķ à¯ģà®®à¯į
Ġse p
nost ÃŃ
ĠÎµÏģÎ³Î±Ïĥ Î¯Î±ÏĤ
áĥĶáĥĴ áĥĽ
c to
ek en
ÏĥÎ¹ ÎµÏį
ĠÎľÎ±ÎĲ Î¿Ïħ
à´¿à´ ¨
à´¾à´ £
à¥įà¤¯à¤¾à¤ ²
Ġà°ª à±ĩà°°
Ġ×Ļ ×Ľ×ķ×ľ
ÏĦ ÏģÎµ
Ġà¦ªà¦° à§Ģà¦ķà§įà¦·
Ġentrepr ise
Ġb onne
ÐµÐº ÑģÑĤ
ĠÂ ¸
áº£ nh
à°¿à°¦ à±įà°§
od o
Ã¡ Å¾
±à¸Ļà¸ĺ à¹Į
365 bet
Ġàª ®
Ġà¤® à¤¦
à¦¸ à¦®
s y
ĠEs paÃ±a
ĠÐŁÑĢ ÐµÐ´
ĠdeÄŁ il
Ø® Ø¯
t res
ĠÎłÏģÎ¿ Ïĥ
ĠÎ± ÏģÎ³
Ġáĥķ áĥĺáĥ¡
ĠM as
ìĤ° ì¶ľìŀ¥
ĠìĥĿ ê°ģ
Ġcom er
ĠÐ´ÑĢÑĥÐ³ Ð¸Ñħ
Ġà®ļà¯Ĩ à®©à¯įà®±
ãĤ ½
el ing
ri g
ĠN ej
ĠáĥĻ áĥ£áĥļáĥ¢
Ġc iÄħ
Ġà¦ª à¦¾à¦ł
ĠÏĥÏħÎ¼ ÏĢÎµÏģÎ¹
Ġcual quier
Ġà°ļà°Ĥà°¦à±įà°°à°¬ à°¾à°¬à±ģ
Ġà°ªà°°à°¿à° ¶
Ġà¤¶à¤¾à¤® à¤¿à¤²
Ġà®ļ à®®à¯įà®ª
Ġbir i
Ġà¦¯ à¦¾à¦¬à§ĩ
la ce
Ġbud ou
é«ĺ çļĦ
æİ¥ åı£
æĮĩ æķ°
m g
Ġäºļæ¸¸éĽĨåĽ¢æīĭæľº appä¸ĭè½½
à¥ĩà¤ļ à¤¾
Ġwe er
Ġcomp l
al nych
ĠÎ¶Ïī Î®ÏĤ
Ġìĺ¨ ëĿ¼ìĿ¸
usam men
âĢĮ à°®
à±Ĩ à°ķà±įà°ķ
Ġà°Ĩ à°ķ
ĠÐºÐ¾ÑĤÐ¾ÑĢ ÑĭÑħ
à¦¨à§įà¦ ®
Ġà®µ à®ļ
Ġáĥª áĥķáĥļ
ì» ¤
ãģ£ãģ¦ ãģĦãĤĭ
ĠU omo
Ġra cc
Ø³ Ø§ÙĦ
ĠB und
ĠÃ© p
Ġb ed
ang at
ÎŁÎĽ ÎŁÎĵ
ÎĻÎĸ Îĳ
Ïĥ Î¯Î¿Ïħ
ì²ľ ì¶ľìŀ¥
Ġì¢ ħ
Ġza Äį
ĠÎ¾ ÎŃ
Ġnue va
Ġol tre
à¦¬ à¦¾
Ġs at
ag t
Ġso ci
Î»ÎµÏį Î¸Îµ
ÙĪ ÙĪ
Ø§Ø¦ ÙĦ
Ġ×¨ ×§
áĥĺáĥłáĥ ¡
¥ à¸µà¸
ķà¸ ¹
1 20
æķ° éĩı
áĬ ĵ
5 æľĪ
âĢľ ãĢĳãĢĲ
Ġà¸ªà¸¡à¸±à¸ Ħà¸£
Ġà¤¬à¤¦ à¤²
h b
ale Å¼
ĠÐ¿Ð¾Ð´ Ð´ÐµÑĢÐ¶
Ġà®µà®¨à¯įà®¤ à¯ģ
à®¿à®ķ à®³à¯Ī
ĠÃ© t
Ïĩ Î¿ÏħÎ½
Ġre t
Ġb áº±ng
uy or
à±ĭ à°§
Ġin st
Õ¸ÖĤÕ µ
ĠaÃ§ Ä±q
Ø§Ø º
ĠãĤ ¨
v at
áĥĲáĥł áĥĲáĥĻ
ĠÑģÐ°Ð¹ÑĤ Ðµ
Ġà¦Ĩ à¦ĵà§Ł
à¦¿à¦¤ à¦¾
ĠA Z
ĠM ÉĻr
ĠÐ´ Ð¾ÑģÑĤÐ°Ð²
Î»Î· ÏĥÎ·
áĥ¬ áĥĺáĥľ
Î» ÎŃÏĤ
Ġgrand es
u rz
ĠÑĦÐ¾ÑĤ Ð¾
ag na
à§ ©
à¤ļ à¤¾à¤°
Ð» Ð¸Ð½
dz ia
ÄŁ un
Ġr Å¯
ÏģÎ· ÏĥÎ·ÏĤ
ĠØ¨Ø§ Ø²Ø§Ø±
Ġà®īà®³à¯įà®³ à®¤à¯ģ
Ġà°µ à±Ĩà°²
Ġn l
in nen
ĠÎµ Î¹Î½Î±Î¹
ĠÎ´ Î¿ÏħÎ»
Ġà¦¤ à¦¾à¦¹
Ġà¤ĺ à¤¡
Ð½Ð°Ðº Ð¾
ĠÙħ Ùħ
ĠÎ¤ Î·
Ġáĥ£áĥľ áĥĺáĥķáĥĶáĥłáĥ¡
ĠG ra
×ª ×¨
te z
Ġdes puÃ©s
à±ģà°¤ à±ģà°¨à±įà°¨à°¾à°°à±ģ
Ġsc ar
Ġus t
å¤ ī
ĠÎľÎµ ÏĦÎ¬
à§ ¬
ra f
Ã´ le
Ġà¤¦ à¥ĩà¤¤
à°¿à°Ĥà°Ĺ à±įâĢĮ
ĠÎµÏĢ Îµ
ĠáĥĴáĥĲáĥľáĥķáĥĺáĥĹ áĥĲáĥłáĥĶáĥĳáĥĺáĥ¡
Ġì§ ģ
ĠáĥĽ áĥĶáĥĹ
Î¼Î® Î¼Î±
à§įà¦¯ à§ĩà¦°
Ġv ic
Ġdz i
Ġà°¤ à±Ģ
Ġmem ili
id ente
Ġà°® à°¾à°¨
ĠÎ´Î¹Î±Î´Î¹Îº Î±ÏĥÎ¯Î±
ÐºÐ¸ Ñħ
Ġáĥł áĥĶáĥ¡
Ġt Ã½
Ġ×§ ×¨
Ø¹ Ø§Ø±
à¤¾à¤¹ à¤°
gra f
Ġà®ķ à¯Ĩ
ÉĻl ÉĻ
Î½Î¿ Î¹Îº
ĠáĥĻ áĥĲáĥļ
à±ģà° ĸ
ãĥ ļ
ÎºÎ¿Î» Î¿Ïħ
Ġd onn
Ð ¦
ĠÐ´ÐµÑĤ ÐµÐ¹
Ø®Ø± Ùī
à¯ģà® ·
Ġë ł
Ġh um
Ġn ich
Ġb áº£o
à¯ģà®± à¯įà®±
ĠáĥĲáĥł áĥĲáĥĽ
Ġh in
Ġto e
ĠáĥĽáĥĿáĥ £áĥ
à°¿à° «
ÑĥÐ´ Ð°
Ġpremi Ã¨re
ÏĥÏĦ ÏģÎ±
Ġd d
áŁĴáŀ ļ
¬ à¤°
Ġg ay
Ġem bar
ĠÅŁ ek
à§Ģ à¦¯à¦¼
Ġda lle
ĠØ§ ÙĤØª
Ġw Ã¼r
Ġnas tÄĻp
ĠáĥĽáĥĹ áĥĶáĥļáĥĺ
ĠÐ¾Ð±ÐµÑģÐ¿ ÐµÑĩ
à¤¿à¤¸ à¥įà¤Ł
Ġhech o
ĠG E
áĥĶáĥļ áĥĺáĥĲ
ĠÉĻr az
à°Ĥà°¤ à°¾
ĠÐ²Ðº Ð»ÑİÑĩ
Ġwszyst ko
Ġog sÃ¥
n Ã©e
à°°à±įà°¸ à±į
Ġpujc ka
Ġn Ã¡m
áĥĿáĥ ¨
ĠØ² ÙħÛĮÙĨ
Î¸ ÏįÎ½
Ġp al
Ġt áº¿
ģà¸ ´à¸Ļà¸
Ġé Ń
à¤¸ à¥įà¤Ł
æĽ ¸
ich ten
ĠJ ed
ĠÎºÎ± Î»Î¿
ĠáĥĽ áĥ£áĥľ
áĥĶáĥķ áĥĺáĥ¡
Ġdax il
v ia
ë³´ ê¸°
Ġë¨ ¸
Ġla ng
à°Ĥà°¡ à±įà°°
à°¾à° ¦à°¿
Î» Î¯Î±ÏĤ
Ð°Ð» Ð¾ÑģÑĮ
×¤ ×Ļ
Ġdec ir
íĮ ħ
b av
Ġáĥ¤ áĥĿáĥ¢
íİ ĺ
Ġà°Ĩ à°¨
K A
ÅĤ Ã³w
ĠÎŁÎº ÏĦÏī
Ġà¤ĵ à¤°
Ġà°¤ à°Ĺà±įà°Ĺ
ent Ã³w
ĠÎµ ÏģÏī
x ico
Ùĩ Ùĩ
ĠÏĮ Î»Î·
Ġencu ent
ĠØ§ÙĦØ ¶
8 æľĪ
ľà¸ ±à¸
Ġà¤Ł à¤¾à¤ķ
Ġà°ħ à°®à±Ĩ
ãĥ ľ
Ġd Ã¼z
Ġà®İà®© à®ķà¯įà®ķà¯ģ
Ġà®ħ à®ķ
ĠÎķÎ»Î»Î¬ Î´Î±ÏĤ
Î¼ Î¼Î±ÏĦÎ¿ÏĤ
Ġdz iaÅĤa
Ġs l
w end
ĠÎºÎ±ÏĦÎ± ÏĥÎºÎµÏħ
Ġáĥ¬ áĥĶáĥ¡
Ġf Ã©
ÐµÑĢ Ñħ
Ġà¤ļ à¥įà¤¯à¤¾
Ġhab it
Ġs co
Ġ×ĳ ×Ļ×Ł
à°¾à°ķ à±įà°Ł
à¯Ĥ à®Ł
Ġáĥ¢áĥĶáĥł áĥĺáĥ¢
Ġth áº¥y
Ġë £
ni cy
ĠØ¹ ÙĦÛĮ
ĠÎ¸ÎŃ Î»
Î© Î¡
ĠÎ¹ Î´
ah l
ãĤĮ ãģŁ
Ġv ÄĽt
Î»Î¹ ÏĤ
ĠÐ½ Ð°Ð²
Ã¡ri o
dzi Äĩ
Ġdis pon
áĥľ áĥĶáĥĳáĥĺáĥ¡
Ġol ur
ĠØµ Ùģ
Ġi f
ĠìķĦ ëĭĪ
Ġà°ħ à°¤à±įà°¯
ang er
ĠÎ³ÎµÎ³Î¿Î½ ÏĮÏĤ
Ġà¤¸à¤ķ à¤¤à¥Ģ
ĠØ£ÙĨ Ùĩ
ÛĮØ± ÛĮ
ĠdÃ©vel op
ĠÐĶ Ð¶
Ġ3 åĪĨpk10
çĻ»åħ¥ _
Ġå¤§åıĳå½©ç¥ŀ 8
ä» Ļ
áŁ ħ
à¹Ģ à¸Ļà¸µà¸
ª à¸£
Ġáł ³
Ġà¤ªà¥įà¤°à¤¶ à¥įà¤¨
ni ct
Ïĥ ÏĥÎµ
à®Łà¯įà®Ł à®¿
å®īåįĵ çīĪä¸ĭè½½
äººæ°ĳ å¸ģ
¢à¸²à¸ ¡à¸
Ġåĩ ¯
Ġà¤¯ à¥ĭà¤Ĺ
Ġáĥ¬ áĥĺáĥĴ
×Ļ×§ ×Ķ
u ka
ëĦ ¤
ĠA ve
Ġwer k
i der
áĥ¢áĥĻ áĥĺáĥª
Ġw en
t ych
ĠÏħÏĢÎµ Ïģ
Ġà®ªà¯ĭ à®ķ
æ³ ī
ļà¸Ńà¸ ģà¸
Ġä¸ ĥ
åĪĨéĴŁ éĴŁ
Ġ ä¼ģä¸ļ
ç¥ Ŀ
æ³ķ éĻ¢
æ² ¿
Ġáł ²
çĲĨ è®º
åŃ Ļ
å¿«ä¹Ĳ 8
å·¥ èīº
å§ ĵ
ä½ľ å¼Ĭ
à¹ģà¸ ĸà¸
ģ à¸£à¸²à¸
Ġè§ Ħ
éģ ĭ
é¼ ĵ
è³ ª
à¤µ à¥įà¤¹
Øµ Ø¯
ÃŃcul o
ai ent
Ġn aleÅ¼y
Ġt iá»ģn
Ġà®ļ à®¾à®°
Ä± ra
ÏĥÎ¿ ÎºÎ¿
ÏģÎ¹Ïĥ ÏĦÎµ
ĠáĥĻáĥĲáĥľ áĥĿáĥľ
ĠÐ²Ñģ ÐµÐ¼
à¦¾à¦ Ļà§įà¦Ĺ
ĠInd onesia
ere ka
ĠÎł ÎĳÎ¡
ĠÎ£Î¥Î¡ ÎĻÎĸÎĳ
ÏĦ ÏģÎ¬
ĠÐľ Ð°ÑĢ
Ġpod er
etto re
Î¼ Î¹ÎºÏĮ
à¤ª à¤°
Ġph Ã²ng
ĠÐ´ ÐµÑĢ
Ġat tivitÃł
dan ie
Ġon ze
Ġìĺ ¬
áĥĲáĥ £áĥļ
Ġà°¸à°Ĥà°µ à°¤à±įà°¸
ĠÚ¯ Ø±ÙĪ
Ġà®° à®¾à®ľ
Ã³ m
Ġs eine
der land
elij ke
Ġà¦ķ à§įà¦²
ŀ à¸µà¸¢à¸ĩ
Ġà¸£ à¹īà¸²à¸Ļ
æĭ ľ
åĬ³ åĬ¨
à¸£à¸°à¸ Ķà¸±à¸ļ
ĠçĶ ļèĩ³
Ġà¸¡à¸ ±à¸Ļ
Ġà¸ «à¸Ļ
åĲ ¨
à¹ģà¸ªà¸Ķà¸ ĩ
à¤Ł à¤ķ
Î¯Î´ Î·ÏĤ
ĠÎĳÎ½ Î¬
à®£ à¯įà®ª
ĠÐ¼ Ð¾Ð¼
ospod ar
ĠÎľ ÏĮ
Ġ} .
áĥĲáĥ¡ áĥĲ
ĠÎ±ÏĢ Î±Î½
Ġà®ļà¯Ĩ à®²à¯įà®²
ĠÎ£Î¥ ÎĿ
ÎĻÎ£ Îľ
ĠÏĢÏģÏĮ ÏĥÏī
c ere
Ġd ne
ÉĻy in
ĠÎĶ ÎµÎ¯ÏĦÎµ
ĠÎµ ÏĦÏİÎ½
Ø§ÙĤ Ø©
Ġáĥ® áĥĵáĥĶáĥĳáĥĲ
du ca
ĠÐ¿ÑĢ ÐµÐ¿
Ġmiej sce
ÙĪ Øµ
Ġg ir
Ġ×Ļ×© ×¨×Ĳ×ľ
ĠÏĥÏĩÎµ Î´
Ġ×ľ ×ķ
kan n
ĠÑĦ Ð¸Ð½
Ġpub bl
Ġmar s
à§ĥ à¦·
Ġà¤¬ à¥ī
un o
à¤¨ à¥ĭà¤Ĥ
ìµľ ê³ł
Ġí Ĺ
Ġa fin
I O
Ġspe cj
Ġb ÄĽ
à±ĩà°· à±į
Ġà°İ à°¨
Ġvol ta
Ġtiáº¿ p
Ú¯ Ùĩ
ĠáĥĲáĥłáĥ¡áĥĶáĥĳ áĥĿáĥĳáĥ¡
Ġs Ã³lo
Ġà¦ķà§ĩà¦¨ à§įà¦¦à§įà¦°
Ġà°® à°Ĥà°¡
ien cia
Ð¾ÑĢ Ð¸Ñı
ĠÎ¿ÏĢÎ¿ Î¯ÎµÏĤ
×ŀ ×Ļ×ĵ
Ġà°ªà±įà°°à°§ à°¾à°¨
é© ±
åįı ä¼ļ
à«įàª ¯
¯ áł
U S
ĠæĶ ¾
æ² Ł
ķà¹Īà¸Ń à¹Ħà¸Ľ
Ġy h
æ¡ Ĩ
à¹Ģà¸Ķ à¸µà¸¢à¸§à¸
7 æľĪ
Ġå° ½
Ġà¸ Ħà¸§à¸²à¸¡
å¿ħ ä¸Ń
ä¸ĭ æĿ¥
à¨¿à¨ ²
Ġç¬¬ ä¸Ģ
ĠæĪĳ åĽ½
Ġ1 22
æ£ĭçīĮ æ¸¸æĪı
à¸£à¸±à¸ģà¸ ©à¸²
Ġåĵ ª
å¯¼ å¸Ī
å¢ ¨
áŁĴáŀ ĵáŀ
à¥ĥ à¤·
ĠÙħÛĮ ÙĦÛĮ
ĠÃ¶n ce
Ã¸ l
Ġh ij
k tor
Ġpro jet
Ġs eit
ĠÑĢÑĥÐ± Ð»ÐµÐ¹
Ñĳ Ð½
Ġs ab
ÅĦst wa
Ġà¤¸ à¤«
Ġà¦¸à§įà¦¥ à¦¾à¦¨
ed es
ÙĤ Ø¹
à¤¿à¤¦ à¥įà¤§
ÉĻl ik
Ġs ens
Î¯Î½ ÏĦÎµÎ¿
Ġáĥ¨áĥĶáĥ ª
ĠáĥĽáĥĶáĥł áĥĶ
ĠW eb
Ġ\ /
Ġsi ti
à® ¹
ãģĭ ãģª
ĠÏĢ ÏİÏĤ
áĥª áĥĶáĥĽ
Ġà®µà®° à¯Ī
ne lle
ĠK ra
ĠáĥĲáĥ®áĥĲáĥļáĥĴ áĥĲáĥĸáĥłáĥĵ
Ġà°ªà±įà°° à±ĩà°®
Î¸ÏħÎ½ ÏĥÎ·
Ã© t
Ġkon k
Ġà°µ à°¿à°ķ
ĠÙĥØ§ÙĨ Øª
Î»Ïİ ÏĥÎµÎ¹ÏĤ
ê°ķ ì¶Ķ
ë³ Ħ
ĠáĥĽ áĥĲáĥĵ
Ġà°ªà±įà°° à°¤à°¿
ĠdÃ© f
u ale
ĠáĥĽ áĥ£áĥ®
Ġsp ot
Ġa ura
ic ia
æ¥ ½
ck er
×ł ×ĺ
Ġáĥĵ áĥĶáĥŀ
Ġg leich
ĠØ§ÛĮÙĨ Ú©Ùĩ
b li
à¥ĩà¤¸ à¥įà¤Ł
Ġê² Ģ
ĠáĥĽ áĥĺáĥļ
à°¿à°ª à±Ī
Ġv ed
ĠÎ± ÏĥÏĦÏħÎ½Î¿Î¼
Ġw ill
os ial
Ġg Ã¼c
Ġn ivel
Ġ": {"
ĠÑĢÐ°Ñģ ÑģÐº
à¤¾à¤¡ à¥Ģ
Ã¤ uf
or to
ĠP R
Ġs ty
Ġà®¨ à®¾à®©
Ð¾Ð³Ð» Ð°Ñģ
Ġà§§à§ «
ãĥ ¤
Ġà¦¶ à¦¿à¦¶
«à¸ķà¸ ¸
Ľ à¸´à¸Ķà¸
ĸ áĢ
è§Ħ èĮĥ
æĪĲ åĳĺ
áĭ Ń
à¤ļ à¤Ĥ
¤ åħ¶
ĠæŀģéĢŁ é£ŀèīĩ
çĻ¾ å®¶
æķ´ ä¸ª
æīĵ éĢł
à¹ģà¸Ļà¸° à¸Ļà¸³à¸
U N
8 3
ģà¸²à¸£à¸ ĵà¹Į
Ġåĩ¯åıĳ çĻ»å½ķ
Ġà¸Ĺà¸ ³à¸
è¾ ī
çļĦ è¯Ŀ
åģ ¿
à¤Ĺà¥įà¤° à¥ĩà¤¸
ëį Ķ
ĠåŃ Ĳ
Ġk k
ç»ı çĲĨ
æ¹ ¿
à¥ģà¤¸ à¤¾à¤°
Ġà°¨ à°¿à°µ
f on
Ġt á»ĳt
Î¯ Î´Î¹Î±
à¤¾à¤« à¥Ģ
Ã§ o
Ð¾Ð»Ð½ Ð¸ÑĤÐµÐ»ÑĮ
áĥ¢ áĥĺáĥ¡
Ġf am
à®® à¯ĩ
ĠÎ¾ÎµÎ½Î¿Î´Î¿ ÏĩÎµÎ¯Î±
Ġà¦¬à¦¿à¦ ļ
Ġáĥ¡áĥĲáĥ® áĥļ
Ø± Ø§Øª
ĠÎŁÎºÏĦÏī Î²ÏģÎ¯Î¿Ïħ
ĠÎ±Î½Î± ÎºÎ¿Î¯Î½
cz es
Ġà¤ħ à¤§à¥įà¤¯
Ġà®ķà®Ł à®¨à¯įà®¤
ãģķãĤĮ ãģ¦
ti en
ĠS on
Ð¾Ñĩ ÐºÐ¸
Ġaz ien
ĠÎ£Ïį Î¼ÏĨÏīÎ½Î±
ĠìĻ ¸
áĥĲáĥ¨áĥķ áĥĺáĥļáĥĺáĥ¡
ĠáĥĿ áĥ¤
ar si
Ġb Ã¼yÃ¼k
Ġs atu
ĠÐ²Ð¾Ð· Ð´
Ġar ty
à¤²à¥ĩà¤² à¤¾
Ġres te
ĠO p
Ġà¤² à¤¡à¤¼
cze go
Ġt Ã¢m
Î® Î¼Î±
Ġà¦¸ à§įà¦ª
Ġb ych
Ġà°ķ à±įà°²
ĠÙ¾ Ø±Ø¯
s er
Ø§Ø¹ Ø¯
ĠPo kud
Ġà®ª à®¾à®²
Ġáĥ ĸáĥĶ
Ġá¼ Ķ
Î¿Ïħ ÏĥÎ±
Ã§ ilÉĻr
Ġch w
Ã¤ re
Ĺ à¸´
Ġà¤¦ à¤¿à¤µ
ĠCom o
ÐµÑĢ ÐµÐ´
Ġ×¤ ×¢
ĠÎ¼Î¹Îº ÏģÏĮ
Ġë° ķ
Ġà¤®à¤¾à¤® à¤²à¥ĩ
Ġwszyst kie
ÙĦÛĮ ÙĦ
ĠáĥĺáĥĽ áĥĺáĥ¡
ä»¥ ä¸ĭ
à¹Ģ à¸Ńà¸ģà¸
à¸£à¸§à¸ Ķ
« à¸²à¸£
Ĺà¸µà¹Ī à¸Ļà¸µà¹Ī
Ķ à¹Įà¸
Ġ ä¸»è¦ģ
éĶ ħ
è£ħ å¤ĩ
Ľ à¹īà¸Ńà¸ĩà¸
ĭ à¸´à¸
åĴ ¨è¯¢
åĮĹ çľģ
à«įàª °
à¨¤ à©Ģ
à¥įà¤ķ à¤¾à¤°
ĠÐ» Ð¸Ð±Ð¾
Ġpre cio
ĠdÃ© m
Ġque lla
Ġà¸ Ķà¸µ
Ġagçİ¯äºļå¹³åı° app
Ġ ä¹Ŀ
é¢ ľ
çī¹ æ®Ĭ
ç¡® å®ļ
æŃ£è§Ħ ç½ĳç«Ļ
Ġï¼Ł ï¼Į
Ġè¿ Ĳ
Ġà¹Ģà¸¥ à¹Īà¸Ļ
à¨¿à¨ ¸
Ħà¸§ à¸£
ĠåĲ ´
Ġåıĳ å¸ĥ
Ġà¸ ®
Ġà¸ «à¸¡à¸
èµĮ åįļ
æĶ» çķ¥
æīį èĥ½
ä¿Ŀ è¯ģ
à¥ħ à¤¨
ëĵ ±
Ġna da
Ġnue v
Ã¶ ff
Ġeff et
Ġch á»§
Ġz ich
ê²Į ìŀĦ
Ġìĥģ íĴĪ
Ġà®®à®¾à®µ à®Łà¯įà®Ł
Ġìĸ ´
ap e
ØŃ Ø±
ent r
Ġà®ħ à®ª
ti Ã¨re
ĠÐ½Ð° Ðº
à¥Ī à¤¨
ĠáĥĴ áĥł
Ġà°Ĩ à°²à±ĭ
ĠÏĢÏģÎ¿ Ïĭ
Ġes paÃ±
Ã§ a
à¯Ģ à®°à¯į
Ñı Ð»
j m
ĠÎļ ÏīÎ½ÏĥÏĦÎ±Î½
ĠÏĦÎŃ ÏĦÎ¿
Ġà¦ªà§įà¦° à¦ļ
im os
Ġpi Ã¨
Ġá½ ħ
Îº Ïį
Ġíĸ ī
Ġà®ĩà®¯ à®ķà¯įà®ķ
Ã³ g
Ġlaz Ä±m
ĠJahr en
×ŀ× ĵ
à®¾à®° à®£
Ġà°µà±Ĩ à°³à±įà°³
ĠÑĨ ÐµÐ»
ĠÎ±ÎºÏģÎ¹ Î²
tiv nÃŃ
ĠØ² ÙĨ
Ġmom ent
ĠÐ½ Ð¾ÑĢÐ¼
Ġgior no
Ġth iáº¿t
Ø§ØŃ Ø©
Ø± Ø§Ùĩ
ĠmÃ¼ ÉĻyyÉĻn
ĠC ol
Ïĩ Î¿ÏħÏĤ
à¦ķà¦¾à¦° à§Ģ
Ġáĥ¡áĥĻ áĥĿáĥļ
Ð¾Ð¿ Ð°Ñģ
ato r
om i
ĠÏĢÏģÎ¿Ïĥ ÏĢÎ±
Ġcon tin
åł´ åĲĪ
Ġà¤¸à¤Ĥà¤ ķ
áĥķ áĥĲáĥł
ĠÑĢ Ð°ÑģÑĤ
à±Ĥà° ¡
Ġtem u
az u
ĠÏĢÎ¯ ÏĥÏī
ĠÑĢÐ°Ð· Ð¼ÐµÑĢ
ìĨĮ ìĿ´ìĬ¤
Ġê± ´
Ġma i
×ŀ× ¢
ĠP ub
Ġa mp
ĠÐ¡ Ðº
Ġà¦² à§ĭà¦ķ
Ġà®®à¯Ĥ à®²à®®à¯į
ĠØ¨ Ø§ÙĨ
à±ĩà° ¹
ĠÏĨ Î¹Î»
ĠÐ¿ Ð¾ÑģÑĤÐ°Ð²
ĠÐ¸Ð½ Ð´
Ø² Ø©
ed y
Õ¡Õ ¢
Ġg ÉĻtir
ĠP are
T E
Ġan te
Ġáĥĳ áĥĺáĥĸ
at ri
à¤°à¥įà¤ ¨
à±Ĩà°Ĥà°Ł à±į
ob y
Î½Î¿ Î¹Î±
ĠáĥĹáĥĲáĥľáĥĲáĥĽ áĥ¨áĥłáĥĿáĥĽ
ĠA uch
Ġthá» ĭ
ĠØ® ÛĮ
ĠÎĳ Î¸Î·
ĠÎ¸ Ïħ
c uk
Ġt ar
Ġf ile
ĠÃ© conom
ĠÎµÏĢÎ± Î½Î±
ë ·°
ĠáĥĹáĥĲáĥķ áĥ¡
Ġk ostenlos
ë ĳ
ĠÐ» Ð¸Ñĩ
ĠâĢ ª
ĠÙĦ Ø£
ĠÏĢÏģÎ¿ ÎŃ
hal b
ov ou
í ļ
Ġáĥ£áĥĻ áĥĲáĥľ
Ġpre z
Ġà¦ªà§įà¦° à¦¦
Ġs ort
Ġà®ħà®® à¯įà®®
Ġà®µà¯ĩ à®²
ta ciÃ³n
ĠÎ´ Î±
el ig
ak ukan
ĠÅŁ ey
ĠÑĥ ÑģÐ¿
ĠÎ¼ÎŃ ÏĦÏģÎ±
Ġcz erw
Ġ×Ļ ×Ķ
Ġn Ã¡v
à¤¾à¤·à¥įà¤Ł à¥įà¤°à¥Ģà¤¯
ĠVi deo
Ġe fec
ce ption
ĠÚ¯ ÙĦ
Î¶ Î¿Î½ÏĦÎ±Î¹
Å¼ ej
ĠÑĤ Ð¸Ð¿
Ġì¶Ķ ì²ľ
Ġà®¤à®®à®¿à®´ à®ķ
à®£ à®¿
Ġáĥ¡áĥĲáĥĽ áĥĲáĥłáĥĹ
Ġë³ Ģ
Ġà°ķà±ģà°Ł à±ģà°Ĥà°¬
Ġmet tre
ĠÙĪÙĩ ÙĪ
ĠÎĵ ÎµÏģÎ¼Î±Î½
ãģ£ ãģ¨
áĥ Ł
tiv es
ĠÐ² ÑģÑĤÑĢ
Ġencont rar
Ġto Ãłn
ĠmÃ¼ d
Ġk os
ĠãĤ Ĵ
à¯ĭ à®°à¯į
en o
ÏĢ Î¹Î±
Ġ×ŀ ×¨
Ġp age
Ø´ Ø§Ø±
áĥķáĥĶáĥ £áĥļ
Ġu0 c
Ġà°µ à°¾à°³à±įà°³
Ġpro bl
Ð¸Ð» Ð¾ÑģÑĮ
à¤® à¤¤
Ġà¦® à¦¾à¦²
Ġan dere
Ġà°¨ à°®
ra da
Ġpoz w
Ñİ Ð´
Ïĥ ÎµÏĤ
ÎºÎ± ÏĦÎ¬
Ġà®īà®¯ à®¿à®°
Ġun os
ĠÙģØ¹ Ø§ÙĦ
ĠÎĻÎ±Î½Î¿Ïħ Î±ÏģÎ¯Î¿Ïħ
Ġà¤° à¤¾à¤®
Ġà¤¬ à¥ĩà¤¹
á½ ±
ĠÏĢÎµÏģÎ¹ Î»Î±Î¼Î²
ĠZ ap
Ġpod czas
ëĵ¤ ìĿĢ
à¦£ à¦¾
à°² à°¨
Ġog gi
Ġtrav Ã©s
ĠS a
ãĥĨ ãĤ£
Ġ×Ĳ ×¨
ĠÑĤ ÑĢÑĥÐ´
Ġà¤ī à¤ł
h em
ĠÎĹ ÎłÎĳ
Ø¶ Ø§
Ã© b
Ġng o
ÙĬÙĦ Ø©
Ġf emme
à®¾à®° à®®à¯į
Ã©ra tion
Ġà¦ī à¦¦à§įà¦¦
Ġáĥľ áĥĿ
ĠÐ³ Ð¾Ð»
Ġï¼Į ãĢĲ
Ġà¤¨ à¤Ī
à¥ĭà¤Ĥà¤ ķà¤¿
ĠØ§ÙĤØª Øµ
à°¯ à±ĭà°Ĺ
Î¿Î» Î±
áĥ¡áĥ¢ áĥĺáĥ¢
Ġet ter
Ġju in
Ġgior ni
Ġà®ªà¯ģà®¤ à®¿à®¯
alÄ± k
ĠD el
áĥĿáĥ¥ áĥĽáĥĶáĥĵ
Ġes a
ĠÎł ÎķÎ¡
ĠÎ»ÏĮ Î³Î¿
Ġpor te
Ġm ater
ĠÐ¿Ð¾Ð»ÑĮÐ· Ð¾Ð²
Ú¯ÛĮØ± ÛĮ
m ann
Ġà¦ķà§ĩà¦ ī
Ġyax Ä±n
Ġ ÅĤ
z w
ti t
Ð¾ÑĤ Ñĭ
ĠÐ½Ð°Ð» Ð¸Ñĩ
Ĺà¸µà¹Ī à¹Ģà¸Ľà¹ĩà¸Ļà¸
Ġà¤ķ à¤¾à¤ģ
áĥĽ áĥĲáĥª
æĺ¯ å¤ļå°ĳ
ä¸ĭè½½ èµ°åĬ¿åĽ¾
ä¸ĭè½½ åįķåıĮ
Ġäºļæ¸¸ æīĭæľºçīĪ
èĨ ľ
çĶµ çİ©
çº ¯
æĹĹèĪ°åİħ app
·à¹Ī à¸Ńà¸¢
ĸ à¹īà¸²
Ġà¹Ģà¸ Ĥà¸²à¸
Ġà¤¸à¤® à¤¾à¤ľ
c ont
ĠÐ²ÑĭÐ¿ Ð¾Ð»Ð½
Î¹Î½ ÏĮ
Ġà¤ªà¥Ĥ à¤°à¥įà¤£
à¦¾à¦¸ à§įà¦¥
Ġà®®à¯ģà®¤ à®²
ĠCom e
è² ·
ĠÑģÐ¿ Ð¾ÑĢÑĤ
Ġor a
ĠG Ã¼n
Î¸ Î¹
ĠU r
Ġh omme
à®¤à¯įà®¤ à®¿à®°
ãģĿ ãģĨ
Ġseb agai
Ġciu dad
Ġfo i
ØŃØ¯ Ø©
à¥ĭà¤ľ à¤¨à¤¾
Î¼Î® ÏĦ
ĠÎ³ Î¿Î½
Ġà¦ĩ à¦¤
ĠÎļ Î±Î»
ard in
ĠáĥĴáĥĲáĥĵ áĥĲáĥ¡
Ġb in
×ķ ×ķ
em bre
Ð½ ÐµÐ¼
Î» Î»Î¿Î½
b ild
ĠI hnen
Ġà¤ª à¤¿à¤
Ġà®¨ à®®
ãĥĥ ãĥī
ĠÎŁÎ»ÏħÎ¼ÏĢ Î¹Î±
çľŁ æŃ£
æĻ ¨
à¹Ģà¸ŀ à¸µà¸¢à¸ĩ
à¤£ à¥įà¤¯à¤¾à¤ļà¥Ģ
al d
v es
te g
ĠÐ² ÐµÑī
Ġg Ã¬
Ġà®® à®¾à®±
s el
ĠØ·Ø± ØŃ
Ġas so
Ø¨ ÙĬØ©
Ïī Î¸ÎµÎ¯
ĠáĥĶ áĥ¢
ĠØ¨Ø³ÛĮ Ø§Ø±
Ġw ol
Ġou ver
Ġà¤ĩà¤¸ à¤²
ĠÐ²ÑĢÐµÐ¼ ÐµÐ½Ð¸
Ġãģĵ ãĤĮ
áĥĿáĥĳ áĥĺáĥļ
Ġfun k
ib les
à§ģà¦ ¶
Ġà°ľà°¿à°²à±įà°² à°¾
ģà¹Ģà¸ ¥
èµĽ äºĭ
à¸£à¸²à¸ §à¸
Ľà¸£à¸°à¹Ģà¸ łà¸
Ľà¸£à¸°à¸ ¡à¸²à¸ĵ
Ĺà¸µà¸ ¡
Ġagçİ¯äºļ ä¸ĭè½½
Ġ6 2
çĤ ī
æĴ ¸
æ±¡ æŁĵ
å¤ª éĺ³
Ġéļı çĿĢ
Ġäºļæ¸¸éĽĨåĽ¢ æīĭæľºå®¢æĪ·ç«¯
Ġà¨ĩ à¨¸
Ĥà¹īà¸²à¸ ĩ
Ġà¸ª à¸µà¸
çļĦ åıĳå±ķ
ç»´ æĬ¤
à¸£à¸²à¸¢à¸ ¥à¸°à¹Ģà¸Ńà¸µà¸¢à¸
«à¸§à¸ ¢
Ķà¸³à¹Ģà¸Ļà¸ ´à¸Ļà¸
Ġà¤ķà¥ĭà¤£ à¤¤
ĠhÃ¼ qu
iv a
Ġà°ļà±Ĩà°ªà±įà°ª à°¾à°°à±ģ
Ġpow in
ÏģÏī Î¼Î±
ĠáĥĹáĥĺáĥĹ áĥ¥
ĠÄĳ á»ĳi
ro j
ÏģÎµ ÏĦÎ±Î¹
×¤ ×ĺ
Ġà¦Ĩ à¦¤
ĠW elt
Î¿Ïį Î¼ÎµÎ½Î¿
ĠÐ² ÐµÑģ
Ġà°ľ à°¾à°¤
ÙĨ ÙĬÙĨ
ĠáĥĽáĥĿáĥ¥ áĥĲáĥļáĥĲáĥ¥
ant Ã©
Ġt or
Ġà¦ķà¦° à§ģà¦¨
Ġì Ĥ°
Ġsp ol
ĠÎ±Î½ÏĦÎ¹Î¼Îµ ÏĦÏī
eig ht
ĠÐ²Ð½ ÑĥÑĤ
Ġà¤¯à¤¦ à¤¿
Ġà®¤ à®¿à®©
ĠáĥĻ áĥĲáĥ¢
Î¶Î® ÏĦÎ·ÏĥÎ·
Ġele kt
ÎĳÎĿ Î¤
Î· Î³Î®
Ø³Øª Ùħ
Ġà®¨ à¯Ĥ
anv ier
ĠÐ¼ÐµÐ¶Ð´ Ñĥ
ĠT y
Ġk li
áĥķ áĥĵ
Ġdon na
Ġu omo
Ġà¦¶ à§ģà¦§
Ġà°¤à°° à±ģà°µà°¾à°¤
Ġf ik
Î¯Îº Î·ÏĤ
t ent
Ġje ÅĽli
ĠÙĦ ÙĥÙĨ
áĥĲáĥ« áĥĺáĥ¡
ĠáĥĻáĥĲáĥłáĥĴ áĥĲáĥĵ
Ġà¤ķà¤°à¤£ à¥įà¤¯à¤¾à¤¸à¤¾à¤łà¥Ģ
Î»ÎµÎ¹ Î¿
Ġà¤ªà¥Ĥ à¤°à¥Ģ
ĠÏĢ Ïī
Ø¨ Ø§Ø±Ùĩ
Ġ×ľ ×ĵ
Ġl ung
Î¬Î¶ ÎµÎ¹
Ġis te
e g
Ġkl ein
ĠCh aussures
Ġm ise
ĠÐ¼ Ð»
ĠÑģÐ»ÐµÐ´ ÑĥÑİÑī
Ġtá» ķ
se z
ÏĮ ÏĦÎ¹
Ġà¦ªà§įà¦°à¦¤ à¦¿
Ġà®µà®³ à®°
Ġáĥ¡áĥĲáĥĻ áĥĽ
ÏĨ Î¬
Ġà¤ķ à¤¿à¤¤
ëŁ ī
ĠÐĺ Ð³
ĠÐ¿ÑĢÐ¾Ð² ÐµÐ´
Ġby ÅĤa
st ÄĽ
Õ¸ÖĤÕ ½
ĠA B
ãĤ Ģ
ar an
ĠØ® Ø¯Ùħ
Ġà¤īà¤¤à¥įà¤ª à¤¾à¤¦
r il
ĠÎ¼ÎŃ ÏģÎ±
ĠA ngebo
ĠAve c
ĠÑĢÐµÐ± ÐµÐ½
ĠÐ³ Ð°ÑĢ
Ġä¸Ģ æľ¬éģĵ
à¥Ģ à¤ķ
Ðł Ðŀ
ĠÑĩÐµÐ»Ð¾Ð²ÐµÐº Ð°
Ġ×© ×¢
Ġà®Ĩ à®£
áĥĲáĥ¤ áĥłáĥĹáĥ®
ic ulas
Ġo tras
Ġkil ka
ĠÎµÎ¾ ÏīÏĦÎµÏģ
Ġn un
Ġë² Ī
à§ģ à¦Ĺ
à±Ģ à°ķà±įà°·
Ġgratu it
Ġu0 43
ĠÐ¿Ð» Ð°ÑĤ
ĠâĢ ı
ĠØ± Ø¦ÙĬØ³
Ġà®¤ à¯ĩà®ļ
om p
ÏģÎµÎ¯ ÏĦÎµ
Ġer st
ĠÙħ Ø®Øª
ĠÐºÐ°Ð· Ð¸Ð½Ð¾
ov er
Ġà¦¬à§įà¦¯ à¦¾à¦ª
áĥĲáĥķ áĥĲ
ÑĢ Ð¸Ð¼ÐµÑĢ
Ġc at
ãĤĭ ãģ¨
Ġsp r
áĥļ áĥĲáĥĵ
ÏĦÎ¯ ÎµÏĤ
Ġà°¦à°°à±įà°¶ à°ķ
ĠhÉĻy ata
ĠÏĥÏħÎ½ ÏĦÎ±
Ġg odzin
Ġà°ĩ à°ķà±įà°ķà°¡
ÑĢ Ð°Ð¶
ĠnÄĽj ak
ĠÏĢÏĮ Î»Î·
Ġà¤¶ à¥įà¤°
à±ĭ à°·
à®¯ à®®à¯į
Ġu ÅŁaq
Ġà°µà°¿à° ²
Ġtech ni
ĠÐ¿ÑĢÐ¾Ð² Ð¾Ð´
Ġáĥ¡áĥĲáĥ£áĥĻ áĥĶáĥĹáĥĶáĥ¡
m b
Ġh á»Ļi
ĠUnter nehmen
à¦¾à¦® à§įà¦ª
Ġs Ã©cur
×ł ×Ļ×ª
Ġà®ķ à®´
un ter
ll ik
Ġn es
à¥Ĥà¤ ¦
Ð°Ð· Ð´
ĠØ§ Ø¹
Ġáĥ¥ áĥł
Ġna tion
ĠJe ÅĽli
à®© à¯ģà®®à¯į
on as
áĥĿáĥľ áĥĲ
Ġà°ªà±įà°°à°¸à±įà°¤ à±ģà°¤
ĠÐ´Ð¾ÑģÑĤ ÑĥÐ¿
Ġso pra
ÙĦ ÙĤ
ĠÎļ ÏįÏĢ
Î² Î·
nÃ¡ m
Ġáĥľ áĥĺáĥ¨áĥľ
à§ĭ à§Ł
çĶ £
Ġà¤¹à¥ĭà¤Ĺ à¥Ģ
à®¿à®® à¯ģà®ķ
Õ¥ÖĢ Õ«
iy anÄ±n
Ġesc ri
Â ¡Â
ĠÄĳ Æ°á»Ŀng
ĠÎĶ Î¹Î¿
à®® à®¾
à®ªà¯įà®ªà®Łà¯įà®Ł à®¤à¯ģ
ĠÏĢÏģÎ¿ ÎºÎµÎ¹
ë¦ °
Ġà¦ķ à§Ł
Ġà° Ľ
ĠÐ¶ÐµÐ½ Ñī
ĠÙħ Ø§ÙĨ
Ġà¤®à¤¾à¤° à¥įà¤Ĺ
ĠÐ½ ÐµÐ±
Ġu rz
ĠA ng
Ġà¦¸à¦® à§įà¦®
ÏĦÏģÎ¿ ÏĨÎ®
ĠáĥĽ áĥĴ
Ġde be
d ag
ĠB as
Ġan nÃ©es
ĠÎĮ ÏĢÏīÏĤ
ĠæĪĲ äºº
à´¾à´ °
Ġà¶ ´
Ġà¤¤ à¤¬
ÙĦ Ø§Ø«
ĠÎµÎ²Î´Î¿ Î¼Î¬
ï¼ Ĵ
ãĤ ¶
Ġ×Ĺ ×ĳ×¨
Ġrec enz
Ġm ÄĻ
Ġpar tico
à±ģà°Ĥà°Ł à±ĩ
kan ie
Ġà¦Ĩà¦ĵà§Ł à¦¾à¦®à§Ģ
Ġà¦¹ à¦¾à¦¤
Ġáĥ£áĥ¤ áĥļáĥĶáĥĳ
owan iu
Îº Î¿ÏĤ
Ġpujc ky
ĠP ÅĻ
à°µ à°¾à°°à°Ĥ
áĥĺáĥĹ áĥĺ
id th
Ð² Ð¸Ð¶
Ġd ol
h ol
ĠÙħØ¯ ÙĦ
Ġà¤ķà¥įà¤¯ à¥ĭà¤Ĥà¤ķà¤¿
Ú© Ø±Ø¯
ĠÐļ ÑĢÐ°Ñģ
Ġáĥ« áĥĺáĥł
ĠÑģÑĤ Ð°Ð²
as il
ĠÎļ Î¥
ĠÏĥÏħ ÏĩÎ½
Ġà®ªà®¤ à®¿à®µ
a Ã±
Ġczy li
Ġà°ĩ à°²
ĠãĤ Ń
à°°à±įà° §
ì¶ľìŀ¥ë§ĪìĤ¬ì§Ģ ìĥµ
´ë ı
Ġà§§à§ ª
ĠÐ´Ð¾Ð¼ Ð°
Ġposs ibile
e f
Øº ÙĬØ±
à¦¾à¦Ĥ à¦¶
ĠPos ted
¹à¸ ¥
2020 å¹´
Ġæĸ° åįİ
ĠåĶ Ĳ
ĠagçľŁäºº æīĭæľºçīĪä¸ĭè½½
çĤ İ
åĬ¨ æĢģ
åĩ Ŀ
å® ı
ŀà¸ ·à¹Īà¸Ńà¸
Ġà¤¨ à¥įà¤¯à¤¾à¤¯
Ġens emble
ÅĤÄħ cz
×¨ ×ļ
Ġà®ķ à®¾à®¤
ĠzÃ¡ klad
Ġà®Ĵà®° à¯ģà®µ
ĠÐ¿ÑĢÐµÐ´ Ð¾ÑģÑĤÐ°Ð²
à°¨à±įà°¨ à±Ģ
à°¾à° ł
Ö ĥ
ĠtÉĻq dim
Ġni veau
ĠBar celona
Ġçİ¯äºļå¨±ä¹Ĳ ag88
ĠåŁ İ
Ġà¤¬ à¤°
Ġa unque
è¾ ¼
kan ia
ĠìĨ į
Ġà®®à¯ģà®ķà¯įà®ķ à®¿à®¯
à°° à±Ĥ
ab en
áĥł áĥĶáĥĹ
Ġse u
ĠÃ ģ
Ø³ ÙĦØ§Ùħ
ÑĥÑĤ ÑģÑĤÐ²
Ġh iá»ĩu
Ġà¦¬à¦¿à¦ ¬
i ge
Ø¶ Ø¹
t nÃŃ
Ġprzypad ku
à°° à±įà°¤
Ġlang _
Ġà°®à°¾à°¤à±įà°° à°®à±ĩ
za d
ĠÑģÐ¿Ðµ ÑĨÐ¸Ð°Ð»ÑĮ
it to
ta ma
Ã¡ no
ĠÏĦÎµÏĩ Î½
à´° àµįâĢį
à¬¾ à¬
à¤¡ à¤¿à¤¯à¥ĭ
Õ¸ÖĢÕ ®
Ġqiy mÉĻt
ĠÑģÐ» Ð¾Ð¶
nÄĻ trz
áº¡ c
ĠÎľ Î¹
Ú¯ ÙĪ
ë¯¸ ëħĢ
ë° ķ
áĥĶáĥĳáĥĺáĥĹ áĥĺ
Î¼ÎŃ Î½Î·ÏĤ
r Ãł
æĸĻ çĦ¡æĸĻ
åķ ı
Ġ6 9
åĪ© çĽĬ
à¤¾à¤² à¤ķ
ci w
Ġsh ort
ta ire
Ġne b
Î´Î¹Î± Ïĥ
à¥ĩà¤¯ à¤°
à§ģ à¦ª
av ab
id as
Ġv it
ĠÙĪ ÙģÙĬ
×ĳ ×ª
à¦¬à¦¿à¦¦ à§įà¦¯à¦¾à¦²
Ġon s
ĠpÅĻ ip
ªà¸±à¸ ķà¸
Ġà¸ ģà¸£à¸°à¸
Ġx pj
ç£ ģ
æ¢ ģ
æ¡ Į
Ľ à¸£à¸±à¸ļà¸
ļà¸ Ĺ
Ġéĩ Į
Ġçİ¯äºļ æīĭæľºå®¢æĪ·ç«¯
Ġ9 6
ĭ à¹Į
Ġà¤ªà¥įà¤°à¤¤à¥įà¤¯ à¥ĩà¤ķ
Ġà®ļ à®¿à®µ
ĠB uch
Ġà¤Ĩà¤° à¥ĭà¤ª
ĠÑĢÑĭ Ð½
Ġtem at
ĠÎ¤ ÎµÎ»
Î´ Î¿ÏħÏĤ
ë¸ Į
Ġáĥŀáĥł áĥĶáĥĽ
ĠÔ± Õµ
Ġy ay
à¯įà®ļ à¯įà®ļà®¿
Ġj un
Ġz elf
Ġà¦« à¦¿à¦°
áĥĿáĥĳ áĥĵáĥĲ
Ð»Ñİ Ð´
sz Äħ
ĠØ¹ Ú©Ø³
ĠJ ahre
Ø§Ø³ Ø©
cu te
Ġhod no
à´¾à´ ¨
Ġà¤®à¥ĩà¤° à¥ĩ
in ar
åľ¨çº¿ çľĭ
Ġà¤ľà¤¾à¤ı à¤Ĺà¤¾
Ġ×ĳ ×ĵ
à±ĥ à°¦à±įà°§
te ÅĻÃŃ
Ġb en
Ġques tion
ĠØ¯ Ø§Ø¯Ùĩ
ĠÎµÏĢÎ± Î³Î³ÎµÎ»Î¼Î±
Ġdem ande
Ġfo llando
Ġpro gra
ten ir
Ġlo áº¡i
áĥĺáĥĻ áĥ£áĥł
Ġ ãģĦ
Î¬Îº Î·ÏĤ
Ġ ä¾ĭ
éĽĨ ä¸Ń
æĬĢ èĥ½
æī «
æµ ĵ
à¹ģà¸ ŀ
à¤ķà¥įà¤· à¤£
ĠÐ½ÐµÐ¾Ð±ÑħÐ¾Ð´Ð¸Ð¼ Ð¾
Ïĩ Ïħ
à®° à®¾à®ķ
ĠÙĪØ§ÙĦ Ø£
Ð°Ð½ Ð¸Ñİ
Ġà¦Ĺ à§ĩà¦²
Ġà°ī à°Ĥà°¦
Ġê²ĥ ìĿ´
ĠáĥĲáĥŀ áĥł
as it
Ġho tel
ÏĢÏĦÏİ ÏĥÎµÎ¹ÏĤ
Ġà¦īà¦ªà¦ľ à§ĩà¦²à¦¾
à¦Ł à¦¿à¦°
Ġà¤ľ à¤¾à¤°à¥Ģ
Ġáĥŀáĥł áĥĿáĥĵáĥ£áĥ¥
Ä±m Ä±z
Ġáĥ®áĥĶáĥļ áĥĽ
Ġà°ªà±įà°°à°¯ à°¤à±įà°¨
ĠØ§Ø¯ Ø§ÙħÙĩ
Ġà®® à®¾à®°
Ġãĥ ĳ
ka ÅĦ
Ġm ill
Ð¾Ð² Ð¾Ð³Ð¾
ĠÎ±Ïĥ ÏĨÎ±Î»
Ġà¤¬ à¥įà¤²
Ġ×Ķ× Ŀ
ØŃ Ùĩ
áĥĶáĥłáĥ ®
Ġ iyi
ĠØ« Ùħ
Ð½ ÑĥÑĤÑĮ
Ġsecon do
ĠÎµÎ½Î· Î¼ÎŃ
ĠÙĩ ÙĨ
em ber
ĠÎĵÎ¹Î± ÏĦÎ¯
ĠÏĩÎ± Î¼Î·
Ġà®ªà¯Ĭ à®¤
çķ ª
à±ģà°ķ à±ģà°¨à±įà°¨à°¾à°°à±ģ
Ġå½©ç¥ŀ app
Ġà¸ļ à¸²
Ġà¸ªà¸³à¸« à¸£à¸±à¸ļ
æ·± åľ³
åĲ Ľ
å®Į åĸĦ
à¤ª à¤£à¥ĩ
ĠØ§ÙĦ Ø¨Ø±
Ġà¤¤à¥Ī à¤¯
Ġzw ischen
ro p
ÐµÑĢ Ð¾
Ġb Ã¡n
Ġà¦¦à§ģ à¦°à§įà¦
áĥĲáĥĽ áĥĲáĥ¨
b ir
it eit
ĠÎŀ Îµ
Î³ Î±Î½
Ġà°¸ à°¾à°Ĺ
ëŁ ¼
à°¿à°¸à±įà°¤ à±ģà°¨à±įà°¨à°¾à°°à±ģ
j ets
ĠktÃ³ rzy
Ġt Ã¡c
ÏĢÎ¿Î¯Î· ÏĥÎ·ÏĤ
c ta
Õ¡ÖĢÕ ¤
Ġx alq
Ġatt ra
ĠÙĨ Ùĩ
ĠÎµÏħ ÎºÎ±Î¹
Ġáĥł áĥĲáĥ¦
Ġà°ħà°¦ à±ĩ
à´Ļàµįà´ Ļ
Ġà¤²à¤Ĺ à¤¾
mit tel
Ð»Ñı ÑĤÑĮ
Ġ ÏģÏħÎ¸
Ġà®¤à¯ĩà®° à¯įà®¤
ort s
ĠáĥĶáĥ¥ áĥ¡áĥŀ
q iq
ĠÏĢÏģÏĮÎ² Î»Î·Î¼Î±
Ġà¤ª à¤¾à¤ķ
Ġà°ļ à°¿à°µ
r Å¯
ĠÐ¸Ð· Ð±
per ti
à¯ģà®¤ à®²à¯į
Ġcor re
ãĤĵ ãģ§
ÙĪØ± ÙĬ
ĠÎ¹ÏĥÏĩ Ïħ
ĠÙħØŃ ØµÙĪÙĦ
Ø¬ ÛĮ
Ġà¤ª à¥įà¤²
Ġà¦¸à¦® à§įà¦Ń
ÑĥÑĤ Ð±
u jÄħce
ĠDies e
c re
íķĺ ì§Ģ
ÑģÑĤ ÑĢÐ¾
Ġà¤µ à¤ľ
[...]
