#version: 0.2
à ®
á ĥ
à ¸
à °
à ¤
à ¦
à ¯
Ġ Î
à¯ į
Î ±
à ±
áĥ Ĳ
à ¹
à ¥
Ġ Ð
Ġ à®
Ï Ħ
à §
Ġ áĥ
Î ¿
Ð ¾
à¯į à®
Ġ à°
à¸ ²
Î ¹
Ġ à¤
Ð µ
Ġ à¦
áĥĲ áĥ
à¸ Ļ
Î ½
à¯ ģ
Ð °
à± į
à¸ £
Î µ
Ġ Ø
à® ¿
Ġ .
ä ¸
à¤ ¾
áĥ ĺ
à¸ Ń
Ð ¸
à¦ ¾
à±į à°
à¹ Ģ
Ñ Ĥ
à¹ Ī
Ø §
à° ¿
áĥ Ķ
à§ ĩ
Ð ½
à¥ ĩ
à° ¾
à¦¾ à¦
Û Į
áĥĶ áĥ
à¤ °
à§ į
Ø ±
à¥ į
Ù Ħ
Ġà¤ ķ
Ġ ×
á »
Ġ Ù
à¤¾ à¤
à¥ Ģ
Ù Ĩ
á º
ã ģ
à¤ ¿
Ù ĩ
n g
É Ļ
× Ļ
Ġ d
Ġ t
Ù Ĭ
e s
Ġ ì
Ġ c
× ķ
Ã ©
ĠØ §
Ġ Ä
e n
Ä ±
ã Ĥ
n h
Ġ ë
ĠØ§ ÙĦ
o n
×ķ ×
Ġ l
i n
ì Ŀ
Ù ħ
Ã ¼
à®¿ à®
áĥĺ áĥ
Ġ à¸
à± ģ
ã Ģ
à§į à¦
à¯ģ à®
Ï ģ
à® ¾
Ï ĥ
à°¾ à°
áĥ Ŀ
ä º
Ġ å
Ñ Ģ
à®¾ à®
Ï Ģ
à¦ ¿
áĥĿ áĥ
Ï Ĥ
Ñ ģ
à¯įà® ķ
à°¿ à°
à¸² à¸
Î ·
ï ¼
Ð¾ Ð
à¦ °
£ áĥ
à¹Ģ à¸
Ï ħ
à® °
Ð »
Ĥ à°
à¸£ à¸
Î »
Ø ¯
à¯ Ī
Ġ ï¼
Ġ ãĢ
å ı
áĥĺáĥ ¡
à¹ ī
Ð º
à¦¿ à¦
à±ģ à°
à¸Ļ à¸
Ñ ĥ
à¸Ń à¸
Ù Ī
à° ¨
áĥĶáĥ ĳ
à§ĩ à¦
Ñ ı
à¥į à¤
à° Ĥà°
à¦ ¨
Ø ª
ł áĥ
à¤ Ĥ
à¦¾à¦ °
Ġd e
à¤¿ à¤
i e
à¥ ĭ
ĠØ ¨
ĠÄ ĳ
Ġ ê
à ´
à¤ ¨
ÉĻ r
Ã ł
e r
Ġà¤ ¸
×Ļ ×
Ã ¡
í ķ
Ġ p
Ú ©
Æ °
a r
ë ĭ
Ġ w
Ġt h
Õ ¡
a n
Ø ³
ì ŀ
Ġ ,
ã ĥ
ì Ĺ
Ġ v
ĠÙ ħ
Å Ł
Å Ĥ
Ġ í
× Ķ
o u
Ġ s
ìĿ ´
Õ¡ Õ
à® ¤
Ġáĥ Ľ
ģ à¸
à± ĩ
Ġï¼ Į
à§ ģ
à¯įà® ¤
Ġ ÏĦ
à® ©
Î º
à° °
áĥ ķ
o m
å ®
Ñ ĭ
® à¯į
Î ¯
à§ Ł
áĥ £áĥ
Î ¼
Ð° Ð
à® Ł
à± ĭ
ĩ à¸
Ï Į
æ ľ
Ðµ Ð
Ġà¦ ķ
Ġáĥ ¡
Ħ à¸
Î ¬
Ġà® ª
Ñ Į
à° ²
à¸ µ
Î¿ Ïħ
ĠØ ¯
à® ³
Ġc om
ç ļ
çļ Ħ
áĥĲáĥ ľ
± à¸
ĠÐ ¿
Ġà¦ ¸
à± Ģ
à¹Ī à¸
Ñģ ÑĤ
à¸ ´
Ġ Õ
à° ķ
Ġáĥ ĵ
Ġà¦ ¬
Ð ²
Ġà¤ ¹
Ġà° ª
à¦ ²
Ġ a
áĥ ¡
à¤ ķ
à¦ ķ
× ¨
Ġà¤ ®
Ø ²
à¤ ¤
o w
Ġ h
Ġ â
Ġà¤ ª
à¥ Ī
i l
Ġ m
Ø§ ÙĨ
à¤ ¸
ãģ ®
Ġc h
ìŀ ¥
c h
Ġ× Ķ
Ġ b
Ø ´
ëĭ ¤
Ġ z
i á»
ãģ Ħ
i r
t o
ì §
Ġ Ã
Ø ¨
ê ³
Ġ k
ĠãĢ ģ
o s
i s
ë Ĭ
× ľ
ĠÙ Ī
ãĥ ¼
ì Ħ
r e
Ġà® ķ
áĥ ł
¡ à¸
à± Ĩ
å Ī
Ġà¦ ª
à¯įà® ª
Ġ ÏĢ
ķ à¯įà®ķ
Ï ī
Ġà° ķ
Ġ áĥĲáĥ
Ġ æ
ç ½
ĠÐ ²
à® ²
ĠÎ º
à§ĩ à¦°
áĥ ļ
Ġ Ïĥ
Ñ ĩ
à¯Ī à®
à±įà° °
¥ à¸
Î Ń
äº ļ
Ðµ Ð½
à§ ĭ
Ġáĥ Ĵ
à¹ Ħà¸
ĠÎ ±
à¯įà® Ł
Ġ Ñģ
à°¾à° °
à¹ ģà¸
Î ®
Ø§ ÛĮ
Ġà® µ
å ¤
å Ľ
ç½ ĳ
áĥĶáĥ ļ
ª à¸
Ð ¼
à¦ ¤
Ġà° µ
à¹ī à¸
ĠÐ ½
¢ à¸
Ä± n
à±ĩ à°
áĥĲáĥ Ľ
à¦ ¬
Ð¾Ð ²
à¥ ģ
Ġà° ®
à§įà¦ °
Ġ n
áĥ ĵ
à¤ ¹
à¦ ®
ãģ §
à¤ ²
t i
à¥ĩ à¤Ĥ
Ä Ļ
Ġt r
ëĬ Ķ
à¤ ®
à¥į à¤°
ŀ ×
Ġ Â
Ø ©
à¤¾ à¤°
Ø§ Ø±
Ġ nh
ê °
ÉĻ n
Ġ S
Æ° á»
ãģ Ĺ
ì ł
q u
Ġ Ú©
Ä ħ
u n
áº ¡
¶ ľ
ãģ «
× ª
ì ķ
i ch
Ö Ģ
i y
Ú ¯
Ġì Ŀ
c z
áº ¿
e t
¶ľ ìŀ¥
a s
Ġà® ®
áĥ Ľ
§ à¸
Ġà° ħ
å ħ
à¥ ¤
à¯ ĩ
Î ³
Ġà® ħ
Î± Î¹
Ġà° ¸
áĥ ľ
Ġ ç
à ¨
ĠÐ ¸
Ġà® ¤
Ï ĩ
Ġ à¥¤
áĥĲáĥ ĵ
ĠÎ µ
Ð ´
Ġà® ļ
à° Ĥ
à¹ Į
Î¹ Îº
å ½
ĠÐ ¾
à§įà¦ ¯
áĥ ¢
à¸´ à¸
ĠÎ ¼
à® µ
Ñ ħ
à±įà° ¨
Ķ à¸
Ï į
Ø ¹
à¯ģà® ®à¯į
ä »
æ Ĺ
Ġa g
áĥĲáĥ łáĥ
à¹ ĥ
ĠÐ º
Ġà¦ Ĩ
à° ®
Ĺ à¸
Ðµ ÑĢ
ļ à¸
t a
Ġà° ļ
Ġáĥ ł
à§ Ģ
Ð° Ð½
Ġà¤ ¬
à° ¤
à¦¾à¦ ¨
Ġ×Ķ ×
áĥĶáĥ ľ
Ġà¤¹ à¥Ī
Ġà¦ ®
Ġ T
Ġà¤ķ à¥ĩ
l ar
à µ
ãģ ¦
Ã ´
ë §
Ġà¤ ¨
Ġà¤ ľ
ĠØ ª
en t
Ã ³
à¤ Ĺ
i t
Ġ ãĥ
ì§ Ģ
l ÉĻr
Ù ģ
l l
Ġ g
ìĹ Ĳ
ãģ ¨
Ġ× ľ
Ø³ Øª
Å ¼
Ã ª
íķ ĺ
t e
ãģ ª
Ĥ ¬
d ÉĻ
Ã Ń
ĠÙ Ĩ
ĠãĢ Ĥ
ë ¡
e in
Ġ× ĳ
i a
ìĿ ĺ
u r
à®¿à® ²
áĥĲáĥ ķ
Ġ à¹Ģà¸
â Ģ
æ Ī
Ġà¦ ı
à®¿à® ¯
Î ´
Ġà® ĩ
Îµ Î¹
à°¾à° ²
áĥĲáĥ ¡
æ ¸
ä ¹
Ðµ ÑĤ
à¯ Ĩ
Î¹ Î±
Ġà¦ ¨
ļ áĥĺ
Ï Ĩ
ĠÐ ´
¨ à¯įà®¤
Ġà° ¨
° à¸
Î ¸
Ġ 2
Ð ¿
à¦ ¸
Ġáĥ ĺ
à¹ Ĥ
ĠÏĦ Î·
Ġà® ¨
Ð¾ ÑĢ
âĢ Į
Ĺ à¸µ
Ï İ
Ù Ĥ
ª à¯įà®ª
æ ĸ
å ľ
w w
Ġáĥ ¨
¸ à¸
Ð° ÑĤ
Ġà¦ ¹
à±įà° ¯
ģ à¸²
Ð¾Ð »
à¸µ à¸
Ġk h
à°¿à° Ĥà°
áĥĲáĥ ł
Ġà¦ ¦
ĠÐ¿ ÑĢ
à¤ ª
à° µ
Ġ à§
Õ ¸
áĥ ®
Ġà¤ ħ
à§įà¦ ¤
Ġ -
Ġà¤ ¦
d a
Ġà¤ µ
Ġ '
r z
ì ĭ
Ġà¤ ²
Ġà¤® à¥ĩà¤Ĥ
áº £
ï ¿
ï¿ ½
Ġà¤ °
ãģ Ł
Ġ A
Ġì ŀ
ÉĻ s
Ù ĥ
Ġ× Ĳ
Ġ ng
ê ¸
Ġ o
un d
l e
ãģ Ļ
á» Ļ
ìĿ Ħ
Ġâ Ģ
Ġd i
´ ë
a y
× ĳ
Å Ľ
Ġ f
Ġ 1
Ø Ń
ãģ Į
Ġ D
ì Ĭ
ti on
à® £
áĥĿáĥ Ľ
Ī à¸
à° ¸
è ½
Ġà¦ķ à¦°
à® ®
ÏĦ Î±
à® ±
Ïģ Î¿
à° ¦
Ġáĥĵ áĥĲ
æ¸ ¸
Ġw ww
Ñ İ
à¯įà® ±
ÏĦ Î¿
Ġà¦ ¤
Ġáĥ¡ áĥĲáĥ
ĠÎ ´
Ð¾Ð ¼
Ġà® İ
à° Ł
à¹ĥ à¸
ĠÎº Î±Î¹
Ġ è
Ð¸ ÑĤ
à¦ ¦
áĥĺáĥ Ĺ
« à¸
Ïģ Î±
à¯ ĭ
Ð¾Ð ´
à±įà° ²
à¸£à¸ µ
ÏĦ Î·
áº ¥
à¯įà®ķ à®³
å ¹
à¥įà¤ ¯
ãĢ Ĳ
áĥĿáĥ ĳ
ŀ à¸
Ð½ Ñĭ
Ġà¦ ħ
à±įà° ¤
à¹Ĥ à¸
ĠÐ ¼
ķ à¸
o r
à° ª
Ġáĥ Ļ
à§ĩà¦ ¨
Ðµ Ð»
à¥ Ĥ
Ġà° ¤
à¦ Ł
Ġ y
áĥĲáĥ ļ
à¤ ¦
à¦ ª
ãĥ ³
à¤¾à¤ ¨
Ø§ ÙĦ
à¤ µ
× Ĳ
r a
ì ¶ľìŀ¥
à¥ĭ à¤Ĥ
Ġà¤ Ĩ
Ġp h
Õ ¥
Ã ¶
Ġà¤ķ à¥Ģ
d z
ãĤ ĭ
Ġì ł
Ġl a
Ä Ľ
Ã ¢
Ġ B
íķ ľ
ĠØ ±
ĠØ§ÙĦ Ø
u ng
Õ ¶
ÉĻ t
ì ļ
Ġn a
×ķ× ª
ë ı
ãģ ¯
Ġ C
ou r
ÛĮ ÙĨ
ë¡ ľ
Ã §
á» ĳ
Ã ¤
ê³ ł
Ġ e
à®¤ à¯įà®¤
áĥ Ĺ
à¹Ī à¸²à¸
à° ¡
ä ½
Ġà¦ ľ
à®¿à® °
ÏĦ Îµ
à® ®à¯į
ÏĢ Î¿
à°¾à° ¨
Ġáĥ Ĺ
ĳ ãĢĲ
åı ĳ
Ð ±
à®¿à®² à¯į
Ïĥ Î·
à¦¿à¦ ķ
áĥ łáĥ
Ïī Î½
Ð° Ð»
à® ķ
à°¿à° ¨
à¸Ńà¸ ĩà¸
ĠÏĦ Î¿
å Ĭ
Ġ ÑĤ
à¦¾à¦ ²
áĥĶáĥ ¡
à¹ ĩ
ĠÏĦ Î¿Ïħ
à¯ Ĭ
Ñ Ī
à° ¯
à¸Ńà¸ ĩ
Î¯ Î±
Ġ j
à®¤ à¯ģ
åĪ Ĩ
ç Ķ
æ ī
¨ áĥĺ
Ĺà¸µ à¹Īà¸
Ñ Ĩ
Ġà¦ª à§įà¦°
à°¿à° ķ
à¹Į à¸
Ġ ÑĢ
à¹ ĩà¸
Ø§ Ø
à±įà° Ł
áĥĺáĥ ľ
à¦¿à¦ ¨
Ð ·
à¥ĩ à¤
à± Ĥà°
à¦ Ĺ
iá» ĩ
Ġáĥ Ķ
àµ į
Ġà¦ °
r o
à¤¿à¤ ¯
Ġ M
à¤° à¥įà¤
×Ļ× Ŀ
ĠØ¯ Ø±
ê° Ģ
à¤ ¯
Ġà¤ķ à¥ĭ
Ġ et
Ġ in
Ã ¬
à¤¨ à¥ĩ
Ġ i
Ġ ÙĦ
ë ¦
Ġ ãĤ
Ãª n
k a
Ġ un
ê ²
Ä Ł
ãģ ¾
i ÄĻ
ĠØ ³
Ã´ ng
Ġê °
Ġ und
Ġ N
ì ĥ
ĠâĢ Ļ
Ġ q
ĠÙ ģ
Ġ× ©
Ī ëĭ¤
Æ ¡
Ġ P
ãĤ Ĵ
ë ¥
Ġ Ãł
à®¾à® °
áĥĶáĥ ł
à¸£ à¸²à¸
à±ģà° ²
å Ĳ
à¦¾à¦ ®
à®¿à® ©
Î¼ Î±
à¯Īà® ¯
ĠÎ ½
Ġà° °
áĥĶáĥĳ áĥĺáĥ¡
å½ ©
å® ĺ
Ð½ Ð¾
à® ¯
Î½ Î±
à¦° à§įà¦
Ġáĥ ŀ
ĠÎ ¿
Ð¾Ð ³
à¯ģà® ķà¯įà®ķ
à± Ī
Ł à¸£à¸µ
Ïģ Î¹
å į
Ð ¹
Ġà¦ ¶
áĥĲáĥ ª
Ġ à¹ģà¸
ĠÎ ³
à¯ģà® ¤
Ñģ Ðº
à°Ĥà° ¦
ģà¸² à¸£à¸
ï¿½ ï¿½
Ġp o
à®¾à® ©
ĠãĢ ĳãĢĲ
è µ
è ¿
áĥĺáĥ ļ
¹ à¸
Ð ³
à¦¾ à§Ł
à±į âĢĮ
´ à¸
Ð¾ ÑĤ
Ľ à¸
ĠÙ ĩ
Ġà° Ĩ
áĥĶáĥĳ áĥĲ
Ġà¦ ¯
Ð¸ Ñı
Ġà¤ ¤
à± Ĭ
à¦¿ à§Ł
u s
áĥ Ĵ
Ġà¤¸ à¥ĩ
à¦ ¼
á» §
Ġà¤ Ĺ
a l
Ġà¤ķ à¤°
ĠØ ´
i c
ì ľ
à¤ ¬
Ġà¤ ī
t en
áº Ń
Õ «
Ġà¤ Ń
ÉĻ l
ĠØ £
Ġë °
Ä ĩ
× ©
ĠÄĳ á»
ãģ ĭ
ê¸ °
Ġl e
ÙĨ Ø¯
Å Ļ
Ġ ein
Ġ :
Ġì ķ
Ö Ĥ
Ã¼ n
Ġ (
ãģ £
a k
i on
Ġv á»
ìĿ ¼
ãĥ¼ ãĥ
Ġ en
g o
Ġ "
ãĤ Ĭ
à®Ł à¯įà®Ł
áĥĶáĥ Ľ
± à¸Ļà¸
à±ģà° ¨
á Ģ
à¦¿à¦ ¤
à® Ļ
Î ²
à® ¨à¯įà®¤
Î ĳ
à±ģà° Ĥà°
Ġáĥ ¬
æ ĺ
İ ¯
ĠÐ ±
à®¾à® ķ
ĠÎ ĳ
à¦ ¹
áĥĶáĥĳ áĥĺ
ĠÎ¼ Îµ
Ð¾Ð ¹
à¯ Ģ
à±ģà° ķ
Ĭ à¸
Î½ Î¿
ä¸ ĭ
ÐµÐ ¼
à¦¾à¦ ķ
áĥĿáĥ ¡
· à¹Ī
ÏĦ Î¹Îº
à®¿à® ±
ĠÐ½ Ð°
Ġà°ª à±įà°°
à¸£à¸ ±à¸
ĠÎ½ Î±
Ġv Ãł
à®° à¯į
è ®
ç «
å ¿
Ġáĥ £áĥ
³ à¸
Ð° Ðº
Ġà¦ Ĺ
Ĺ à°¾
à¸£à¸ °à¸
Ð¾ Ð½
à¹ī à¸²à¸
ĠØ¨ Ùĩ
à°¿à°Ĥà° ļ
áĥĿáĥ ľ
Ľ à§ĩ
Ð¸ Ð½
à ¶
à°¾à°° à±ģ
à§ģ à¦
× ł
áĥ£áĥ ł
à¤ ľ
Ġà¦ ļ
e l
Ġà¤ ĩ
z y
à¤ ¡
Ġv ÉĻ
ĠØ ¹
ìĦ ľ
à¤ Ł
i o
Ġ L
à ·
Ã³ w
àµį à´
Ġde r
áº §
ì Ľ
ãĤ Ĥ
ĠØ ¢
ÉĻ k
Ġ qu
Į Ģ
Å ¾
ãĤ ¹
rz e
Ù ī
o l
ì ĸ
Ġ× ŀ×
ĠØ Į
ê µ
Ġ E
Ġ ãģ
Ġ x
k i
ë Ĥ
m ent
ãģ Ĩ
Ġd o
ì Ĥ¬
Ġ F
à¯įà® ļ
áĥ §
à¹Ī à¸²
à°¨ à°¿
æĹ ¶
à¦¾à¦ ¦
à® ªà¯įà®ª
ĠÎ ķ
à® ļ
ĠÎ ł
à°° à±įà°
áĥĺáĥ ĵ
äº º
İ¯ äºļ
ÐµÐ ´
Ġà®İ à®©
Î ¾
à§įà¦ Ł
Ġáĥ ķ
Î¼ Îµ
ĠÐ ·
à¯ģà® ķ
Ġà° ¬
à¹Ħà¸ Ķ
Î Ł
Ġ é
Ð° ÑĢ
¯ à¦¼
Ġáĥ ĳ
à¹ī à¸²
Î Ļ
Ġà® ī
Ġ Ñĥ
Ġà° ¦
Ħ à¸£à¸
ĠÎ Ń
Õ¸ ÖĤ
à¯ Ĥ
ä¸ Ģ
Ġå ¤
ç »
ĠáĥĲáĥ ł
Ĺà¸µ à¹Ī
Ñ ī
Ġà¦¬ à¦¿à¦
Ġà° ĩ
à¸Ń à¸Ļ
Ñ Ħ
ľ à¸
a q
Ġà° ī
áĥĶáĥ ķ
à§įà¦ ¬
Ð°Ð ²
Ġ à´
Ġà° Ĺ
à¦¾à¦ ¤
Ġl Ãł
áĥĶáĥ Ĺ
Ġà¤ Ķ
à¦¿ à¦°
r i
à¤¿à¤ ķ
ĠØ ®
Ġà¤Ķ à¤°
Ġd ie
Ġ W
ì ²
Ġà¤ ¯
Ã ¨
× ĵ
d Ä±
à¤¾à¤ ²
i áº¿
z ion
n e
ë ĵ
ãĤ Į
n ÃŃ
ÙĪ Ø¯
d o
ìĿ Ģ
Õ¡Õ ¶
a t
Ġà¤ ı
Ã¡ c
Ø ¬
£ ¼
y ch
Ġd es
ìĬ ¤
i m
ãĥ ĥ
× ¢
ãĤ ī
Ġì Ĺ
Ġ H
Ġo l
Æ°á» Ŀ
Ġê ²
Ġp er
à®¿à® Ł
áĥĺ áĥĲ
ģà¸² à¸£
² à±ĭ
åĽ ½
à¦ ľ
à®¾à® ²
ÏĢ ÏĮ
à®© à¯į
Î¿ Ïį
à±įà° ª
áĥĲáĥ ®
ç ī
å ¼
Ð°Ð ¼
à¯įà® ²
ÏĦ Î¹
à¦ ĩ
áĥ£áĥ ļ
ĠÎº Î±
Ð¸ Ðµ
à® ´
à°¨ à±įà°¨
± à¸Ļ
ĠÏĦÎ· ÏĤ
ä ¼
Ð°Ð ·
à¦¾à¦ ¬
Ġáĥł áĥĿáĥĽ
ļ à¸Ńà¸
Îµ Î¯
à®¿à® ķ
Ñģ Ñı
à° Ĺ
° à¹Ģà¸
Îµ ÏĤ
a m
à¯ģà® µ
é Ļ
å °
æľ º
áĥĲáĥ ¢
¡ à¸²à¸
Ð ¶
à¦¾à¦ ¸
Ġà° İ
ĸ à¸
ĠÐ ³
à¹Ħà¸ ¡
Ø§ Øª
à°ķ à±įà°
áĥĲáĥ Ĺ
à¦¾à¦ ĩ
Ð» Ð¸
à¥ģ à¤
à°¾à° ¯
à¦ Ĥ
y m
áĥ£áĥ ļáĥĺ
ç º
Ġà¦ ī
r Ã©
Ġà¤ķ à¤¾
Ø§ Ùħ
è §
Ġth á»
Ġ K
Ġ )
Ġà¤ª à¤°
Ġc on
× Ĺ
ãĤ ¤
à¤ ļ
n i
Ã ½
ÉĻ m
ë§ Ī
ÙĪ Ø±
Ġ G
ãĥ Ī
Ġl es
ìĿ ¸
d ir
n ie
Ġà¤ª à¥įà¤°
ãĤ ĵ
ll a
Ŀ ¼
d er
u y
Ī ĺ
ĠØ§ÙĦ Ùħ
ãģ ı
ĠØ¨ Ø§
Ġ es
Ġì ĺ
Ġ× ķ
c j
l Ä±
ë¦ ¬
Ġt á»
à¯įà®ķà®³ à¯į
áĥ ĳ
Ġà¸ ªà¸
¦ à°¿
é Ģ
Ġà¦ ĵ
à® ķà¯įà®ķ
Î» Î»
Ġà® Ĩ
ĠÎ ļ
Ġà° ľ
áĥĲáĥłáĥ Ĺ
§ åıĳ
è½ ½
Ð¾ Ñģ
à®£ à¯įà®Ł
ĠÎ £
Ġà¦ Ń
áĥĶáĥ łáĥ
ĠÏĦÎ· Î½
Ġ Ñĩ
à®¿à® ¤
à°Ĥà° Ł
§ à¸²à¸
Î ¶
è ¯
Ð¸ Ðº
à¦ £
áĥĶáĥ ĵ
Ľ à¹ĩ
Ïİ Î½
à®¿à®© à¯į
Ð¸ Ð¼
Ġà°ļ à±ĩà°
Ġ 0
Î £
c i
à®¿à® ķà¯įà®ķ
äºļ æ¸¸
ä¸ĭ è½½
å İ
ĸ áĥĶ
à¸Ļà¸ µ
ĠÐ Ł
à§ĩà¦ ķ
à±ģà°¨ à±įà°¨
à¹ĥà¸ «
ÑģÑĤ Ð²
à¸Ļ à¹Ģà¸
h r
à°¿à° ¤
áĥ ª
à§ ľ
Ð¾Ð ±
à¥įà¤ ¤
à±įà° µ
à¦¿à¦ ²
i z
Ġáĥ ľ
Ġà¤ ļ
à§ģ à¦²
ãĥ «
à¤ ¼
ĠÙ ¾
Ľ i
Ä į
ÉĻ y
ëı Ħ
an t
× §
ãģ į
Ġn ie
ÙĬ Ø©
t er
Æ°á» £
Ġ /
ì ĺ
ãĤ ¯
Ø§ Ø¯
d i
Ġw y
Ġë §
ãĥ ©
Ġà¤ ¶
u f
c e
áº¥ t
ë ħ
ãģ ĵ
Ġ il
ê ±
ÛĮ Ø¯
à¤¾à¤ ¤
× ¤
e it
ìĭ ľ
Ġz a
áº¡ i
v e
Ġì ĭ
ãģ¾ ãģĻ
à¯įà® ³
áĥĿáĥ ķ
ĩ à¹Ģà¸
¸ à±įà°¤
á ŀ
à§ĩà¦ ²
à®¾à® ¤
Î± Î½
à¯įà® µ
ĠÎ ¤
¡ à±ģ
áĥ Ļ
ä¸ Ń
å®ĺ ç½ĳ
ĠÐ ¡
Ġà®ļ à¯Ĩ
Î¯ Î½
à§ĩà¦ ¶
áĥĺáĥ ł
Î ķ
Ð¾Ð³ Ð¾
à®² à¯į
à°Ĥà° ¤
Ġà¸ ª
Ġ ÏĮ
å Ĩ
ĠÐ Ĵ
§ à§
áĥ ¥
ģ à¸£à¸
ĠÎ³ Î¹Î±
à® ª
Ð» Ñı
Ġà°µ à°¿à°
Ħà¸ §à¸²à¸
ĠÎ ľ
Ġqu e
à¯ģà® ®
æī ĭ
å º
æĺ ¯
áĥĿáĥ ĵ
à¹Ħà¸Ķ à¹ī
ÐµÐ ¹
à§ģ à¦°
à° ļ
ĩà¸ ´
Ð° Ñı
Ĥ à¸
d ÉĻn
à±ģà° ¤
Ġáĥ ®
à¦¾à¦ ľ
ĠÐ °
Ø ·
Ġà° ²
à¦ ¶
à¤¿à¤ ²
áĥ ¨áĥĺ
ÅĤ a
à§įà¦ ·
Ä ĥ
s ch
Å ¡
Ġ I
à¤¿à¤ ¤
l i
ë °
Ø ®
× ŀ×
Ġg i
Ġ Ã©
Ġà¤¹ à¥ĭ
Õ¥ Õ
a ÅŁ
n a
í Ĭ
ãĥ ª
Ġc á»§
Ġe l
Ġ R
Ġì Ħ
ãģĹ ãģ¦
åľ ¨
à¤¤ à¤¾
ĠØ§ Ø²
t y
ìķ Ī
ÖĢ Õ
Õ¸ÖĤ Õ
ì ¹
Ġ2 0
ar e
Ø µ
g en
ë¥ ¼
ou s
ãģ ķ
Ġà¤¹à¥Ī à¤Ĥ
íķ ´
Ġs iÄĻ
à®¾à® Ł
áĥķ áĥĶáĥļ
à¹ĥ à¸Ļà¸
à°¨ à±ģ
ç ľ
Ġà¦ª à¦°
à¯ģà®¤ à¯įà®¤
ĠÎ± ÏĢÏĮ
à¯įà® ©
Î» Î¿
à°ķ à±ģ
Ġáĥ ¤
ç ¥
Ġå¤ §åıĳ
Ñ į
à¯ģà® Ł
ĠÎ ¸
Ġà¦ı à¦ķ
áĥĺáĥ ª
Ġ Ïĩ
Ð¸ Ð¸
à®² à¯įà®²
à±Ĩ à°²
à¹Ī à¸Ļ
ĠÎ ·
å¿ «
Ðµ Ðº
à¦¤ à§ĩ
Ġáĥ ¥
Ķ à¸´à¸
ÏĦ Î¬
Ġà®ĩ à®°
Ð¾ ÑģÑĤ
Ġ. .
¡ à¸µà¸
Ïģ Î¬
Ġc Ã³
à®Ļ à¯įà®ķ
é ĩ
æ Ŀ
å ·
áĥĿáĥ ļ
Ġ à¹Ĥà¸
Ð°ÑĤ ÑĮ
Ġà¦ ²
à±įà° ļ
· à¸Ńà¸
Ð° Ñģ
ļ à¸²à¸
ĠÃ §
à°² à±ģ
Ġáĥ ©
Ġà¦ ¥
ĠÐ ļ
Ġ× ¢
à°ª à±įà°ª
à¦ Ń
Ġa u
áĥĿáĥ ł
Ġch e
à¦ ļ
o v
g e
o ÅĽ
çº ¿
à¥įà¤ Ł
Ġm Ã¼
Ġê ³
Ġcá»§ a
ĠÙ Ĭ
Ã³ n
ãģ£ ãģ¦
Ġ u
ÉĻ h
a z
ĠØ¨ Ø±
ë ³
à¤¿à¤ ı
× ŀ
ãģ Ĥ
an s
ë ¶
b er
Ã º
zion e
Ġà¤ĩ à¤¸
j e
ì £¼
ÉĻ b
ãģ§ ãģĻ
íĬ ¸
ĠÄ Ĳ
Ġd a
a u
ĠÙħ ÛĮ
í Ļ
ĠÙģ ÙĬ
à¤¿à¤¯ à¤¾
j Äħ
ë ł
ãģ ł
à®± à¯įà®±
áĥ ¬
ļà¸Ńà¸ ¥
à°² à±ĭ
å ¸
à¦¨ à§įà¦
Ġà® Ĵ
ĠÏĥ Ïħ
à®³ à¯į
ĠÏĢ Î¿Ïħ
à°¿à°ķ à°¿
áĥĶáĥĳ áĥ¡
å¹ ³
å¤ §
Ð¾Ð º
à®¿à® µ
Î¹ Ïĥ
à¦ §
ĠáĥĲáĥ Ľ
ÎŃ ÏĤ
Ð¾Ð ¶
à¯ģà® ±
à°¿à° ¯
à¹ī à¸Ńà¸
Ïģ Î¯
æ Ĭ
Ð¸ Ð»
Ġà¦¸ à¦®
áĥĿáĥ Ĵ
à¹Īà¸ ĩà¸
ĠÎ Ķ
Ġs e
ĠÐ »
à°Ĥà° ¡
Ġ 3
ÏĦ Î±Î¹
Ġ V
à®¾à®° à¯į
å Ń
æ ³
8 8
Ġáĥĵ áĥĲáĥ
¥à¸ °à¸
ĠÐ¾ ÑĤ
Ġà¦¹ à§Ł
à°¿à° ª
ĭ à¸
ÑĤ Ð¾
Ī à¸²à¸
× Ľ
à±įà° ¸
áĥĺáĥ ¢
Ġà¦ ĩ
ĠÐ½ Ðµ
à¤¿à¤ ¸
à±įà° ®
à¦¾à¦ ¹
Ġh á»
áĥĿáĥ łáĥ
Ġp our
à§ĩà¦ Ľà§ĩ
Ġà®ª à¯ĭ
lÉĻr in
d en
Ġ r
ÛĮ Ø±
Ġà¤¨ à¥ĩ
Ġì §
rz y
ĠÙħ ÙĨ
Ġ Ã¼
Ġs u
ãģĹ ãģŁ
à¤¹ à¥Ģ
Ġp ar
Ã £
ĠìĿ ´
Å¼ e
× Ŀ
d e
à¤¾à¤ ®
Ġë Ĥ
Ġ Ú¯
Ġb ir
Å ¯
à´ ¿
à¤¾à¤ Ĥ
ëĭ Īëĭ¤
w a
o ng
ìŀ Ĳ
Ġãĥ »
z a
m e
ÙĬ ÙĨ
ìľ ¼
e i
à¤¨ à¤¾
Ø§ Ùĩ
ë Ŀ¼
ãģ ĳ
à®© à¯įà®±
áĥĵ áĥĲ
±à¸ ĩà¸
à± Ĥ
æľ ī
Ġà¦ «
à®¿à®¤ à¯įà®¤
Î¹ Î¿
Ġà®ħ à®µ
ĠÏĢ ÏģÎ¿
à° ¹
ĠáĥĴ áĥĲáĥĽ
åı °
Ġ à¨
Ð¸ Ð¹
à®¾à®© à¯į
ÎŁ Î
à§ ¦
áĥĺáĥ Ļ
ĠÎµ ÏĢ
ÑĢ Ñĥ
à¯ģà® ³
à° ľ
à¸£à¸ ´à¸
Îµ Î½
é Ľ
Ð¸ Ð²
Ġà§ ¨
Ġáĥ Ŀ
¥ à¸²à¸
Î® ÏĤ
ĠT h
Ġ Ñį
à±ģà°² à±ģ
Ľ à¸£à¸°à¸
Ïģ ÏĮ
Æ ı
à®¾à®² à¯į
æĸ ¹
å ¥
æīĭ æľº
áĥĺáĥ ķ
· à¸Ń
ĠÐ¾ Ð±
à§ ĥ
à°¾à° Ĥà°
ģà¸ ±à¸
ÐµÐ» ÑĮ
¶ à¸
Ġp rze
à°¾à° ¤
áĥłáĥ Ĺ
Ġà¦ ĸ
Ðµ Ñģ
à¤ §
à°¿à° ²
à§ Ĥ
iy y
áĥĶáĥ ¢
qu e
à¦Ł à¦¿
á» ĭ
Ġà®ķ à¯Ĭ
Ã¼ r
Ġ× Ľ
m a
ĠØ ¬
ìĽ Ĳ
à¤¾à¤ ¯
k u
ãĥ³ ãĥ
es s
Ã¬ nh
l ich
Ġà¤ «
t re
Ġë ĭ
ci Ã³n
ãĤ ¢
áº ¯
Ġ |
Ġê ·
Ġ ï¿½
é Ĺ
z e
ĠØ§ Ø³Øª
lar Ä±n
Ġì Ĥ¬
åľ¨ çº¿
Ġà¤ı à¤ķ
ì Ĩ
Ġn e
Ġ ä¸
×ķ× ¨
Ø ¶
Ĥ °
Å Ħ
Ã¢ n
ãĥ³ ãĤ
Ġë ª
Ġes t
à¯ģà® ¨à¯įà®¤
áĥĺáĥ Ľ
¡ à¸²
à°¿à° °
å ĩ
à§ĩà¦ ĩ
à¯Īà® ķ
ĠÏĥ ÏĦÎ¿
a ng
Î¿Ïħ Î½
à° ¬
áĥĶáĥ Ĵ
Ġï¼ ļ
p p
Ġ ÑģÑĤ
à¯ģà®ķà¯įà®ķ à¯ģ
Î Ĺ
Ġà¦Ĩ à¦®
Ġáĥ ¢
Ïģ Î³
Ð¸ Ñĩ
ĠÄ °
à°Ł à±įà°Ł
§ à¸´à¸
Ïĥ ÎµÎ¹
è ¡
Ð°Ð ´
à¦¾à¦ ª
áĥķ áĥĺáĥ¡
à¸£à¸µ à¸
Î¼ Î¿
es t
ÐµÐ ²
à°Ĥà° ²à±ĭ
à¹ī à¸Ļà¸
ĠÏĦ Î±
Ġà¤ ¥
Ġà®İà®© à¯įà®±
à¤ £
å Į
å ¾
áĥĶáĥļ áĥĺ
± à¹īà¸
Ð¾Ð» ÑĮ
Ġà¦ Ľ
à°¾à° ®
ĵ à¸
ĠÐ¿ Ð¾
à¹ĥà¸ Ĭ
Ġz u
à°¾à° Ł
áĥ ¨
à§įà¦ ª
ĠÐ Ŀ
Ġp or
Ġà° Ī
à§įà¦ ¥
Ġg Ã¶
ĠáĥĴ áĥĲáĥľ
iá» ģ
à¦¿à§Ł à§ĩ
ÙĦ Ùī
Ġa l
à®¾à® µ
ow an
Ġj e
Ġ Û
ì² ľ
Ø± Ø¯
á» ¯
i b
Ġà®ħ à®¤
× ĺ
é ¢
à¤¿à¤ ¨
Ġd u
ë ŀ
ãĤ Ī
Ġ ÅŁ
d y
Ġde l
ë ©
Ġà®ļà¯Ĩ à®¯
s t
Ġà¤ ĸ
Ú Ĩ
ãĥ¼ ãĤ
Ġê ¸
ir e
Ù İ
Ġì ¹
á» ±
ĠÙ ĥ
ãĥ ¬
ie r
Ġë ³
à¥įà¤ µ
e y
ç Ľ
Ġì Īĺ
ĠÃ ¨
à¯įà® ®
áĥĲáĥ Ĵ
à¸Ń à¸²à¸
à° £
Ġ äºļæ¸¸
Ġà¦ Ł
à®¾à® ¯
Îĳ Î
ĠÃ ¶
ĠÎ ²
à°¾à° ķ
áĥĺ áĥĲáĥľ
Ġ 5
å¹³ åı°
Ð¸ ÑĢ
æĹ ¥
ĠÏĥ ÏĦÎ·
Ġà¦¬ à¦²
áĥĺáĥ Ŀ
Ġ ÏĨ
ÐµÐ ³
Ã ²
à°ķà±įà° ķ
ł à¸²à¸
Î» Î·
à ©
ĠÐ ł
Ġà¦ħ à¦¨
áĥ ŀ
Ĥ à¸Ńà¸ĩà¸
Î± ÏĤ
ĠØ Ń
ĠÐ ľ
Ġà° Ń
à¸Ń à¸£
ĠÎ Ł
k o
Ġun e
Ġç İ¯äºļ
äº Ĩ
2 0
áĥ ¦
à¸² à¸Ļà¸
ÐµÐ½ Ð¸Ñı
Ġà§ §à§
Ġà° ¶
Ľà¹ĩ à¸Ļà¸
Ð¸ÑĤ ÑĮ
¨ à¸
à®¾à® ³
à±ģà° °
áĥ £
à¦¿à¦ ¬
Ð¸ Ð·
Ġ× Ļ
Ġà° ¹
à¦ ¯à¦¼
à¤¾à¤ ¦
áĥĺáĥ ļáĥĺ
ãģ Ĭ
is t
à®Ļ à¯įà®ķà®³
è ¨
Æ°á»£ c
a h
ow a
à¦ ¥
ë ¬
Ġl os
è§ Ĩ
à´¿ à´
h o
ĠØ§ ÛĮÙĨ
à¤ Ī
ãģª ãģĦ
Ġ re
Ġê µ
Ġà® °
å ±
à¤ ¶
Ġà®ª à¯Ĩ
ì Ĥ°
ãģ£ ãģŁ
l a
ĠØ ¥
á» ¥
Ġ ï¿½ï¿½
ìĸ ´
å® ¶
Ġ an
0 0
× ¡
à¤¤ à¥ĩ
è ¦
ow e
Ġì ¶ľìŀ¥
ĠÙ Ĥ
à®¿à®Ł à¯įà®Ł
i ÅŁ
í Ķ
á» ©
c a
áĥĲáĥ ĺ
à¸Ńà¸ ¢
à°° à±į
å Ŀ
à§ĩà¦ Ľ
Ġà®µ à®°
ĠÏĢ Î±
ich t
Î¼ ÎŃ
à°¾à°² à±ģ
Ġáĥ ª
è ´
a pp
ĠÐ ŀ
Ġd Ã©
ĠÏĥ Îµ
Ġà¦ķà¦° à§ĩ
áĥĲáĥ ¨áĥĺ
Î½ Î·
Ð¾Ð ·
ï ½
à°Ĥà° Ĺà°¾
Ġà¸ Ħ
Î¿ Î»
æ Ģ
Ð°Ð» ÑĮ
k ie
ĠÂ Ń
à¹ī à¸Ļ
Ġ Ïħ
à¦¬ à§ĩ
ĠÐ² Ñĭ
à°ļ à±įà°ļ
ĩà¸´ à¸Ļà¸
ĠÎ »
Ġà¤ķ à¤¿
Ä± r
ç« Ļ
Ā Ā
á ł
áĥĺáĥ £áĥ
à¸Ļ à¹Į
Ðº Ð°
á»Ļ t
à°¾à° µ
Ħà¸ ¸à¸
Ðº Ð¸
Ġà¸ ŀ
Ġà®Ĵ à®°
à±ģà° µ
Ġáĥ §
ĠÚ© Ùĩ
Ð°Ð ±
ll e
à° ³
é ĸ
Ġo d
áĥļ áĥĺáĥ¡
à¦¿à¦ ¸
ä¹ Ĳ
d an
ä ¿
Ġà¤Ń à¥Ģ
Ġd as
Ġp ÅĻ
Ġ× ŀ
¹ Ħ
Ġp ro
ç İ
à¦ķ à§ĩ
à®¾à® ®
ãģĻ ãĤĭ
à ¬
é¢ ĳ
à¤¾à¤ ¸
ë§ Į
ÙĬ Ø±
à®³ à¯įà®³
ï¼ Į
à¦ ĸ
Ġìŀ Ī
Ġc Ã¡c
Ġ O
ä¸ į
on t
n o
í ĸ
à¥ Į
k an
¯ ¸
Ļ à§įà¦
ãģ ©
ÛĮ Ùħ
z ÉĻr
Ġë ĮĢ
æ °
Ġt o
à®¿à® ªà¯įà®ª
Ġì ĥ
in in
c k
Ġáĥŀ áĥł
à¹ Ĩ
à±Ī à°¨
éĽ Ĩ
à¦ ĵ
Ġà¤² à¤¿à¤ı
ĠÎ± Î½
× Ĵ
Ïī ÏĤ
à° §
áĥĲáĥ Ļ
ç Ļ
Ġc n
Ð½Ñĭ Ðµ
Ø§ Ø¨
ÏĦ Î®
i nh
Ġáĥĺ áĥ¡
Î¿ Î½
ĠÐ µ
c o
à°¿à°Ĥà° ¦à°¿
Ł à¸
Î¬ Î½
åĽ ¢
Ð½Ñĭ Ñħ
è Ĥ
áĥ£áĥł áĥĺ
Ġà¸ Ĺà¸
Ïģ Îµ
Ġk i
Ð¸ Ñħ
à±ģà° Ĺ
à¹Ħà¸ ¥
ÏĦ ÏĮ
Ġs p
Ġà®µ à¯ĩ
è Ģ
ç½ĳ ç«Ļ
å¼ Ģ
ĠáĥĽ áĥĿáĥ
ģ à¹Ģà¸
ÐµÐ ·
à§ĩà¦ ĸ
à° Ń
à¹ī à¸Ńà¸ĩà¸
Ð¾Ð ¿
« à¸Ļ
Ġm it
à°¾à° ¦
Ġáĥ ļ
Ġkh Ã´ng
Ð°Ð ¹
Ġs ur
à°¿à° Ĺ
Ġ20 1
in dÉĻ
áĥĲáĥ ļáĥĺ
à¤ Ń
i en
ÙĪ ÙĨ
à¯ģà® ªà¯įà®ª
à¦¨ à§įà¦¤
g g
6 5
æ µ
ë ª
Ġch o
Ġ Z
Ġà¦ľ à¦¨
è§Ĩ é¢ĳ
ÉĻ d
à¤° à¥Ģ
Ġà®ĩ à®¨à¯įà®¤
ĥ ½
ë ĮĢ
Ġ ro
t Ã©
Ġpar a
ĠØ± Ø§
í ĺ
Ãł y
à¥ĩà¤ ¶
ª à¯į
Ġv on
ãģĭ ãĤī
ê³ ¼
à§ĭ à¦¨
×Ļ× ª
ê² Į
ic a
u l
c y
ãģ Ī
Ġë ¶
à¤¾à¤ ľ
Ö ģ
ç Ĳ
í Ĩ
Õ¸ Õ
Ġà¦¬ à§įà¦¯
áĥĶáĥ ¥
Ĺà¸ ¢
à°¨ à±į
éĻ ħ
à¯Īà® ķà¯įà®ķ
ĠØ§ÙĦ Øª
ĠÏĦ ÏīÎ½
å° ı
Ïĥ Îµ
Ġà° ı
áĥĽ áĥĲ
ä¸ ī
æ ´
Ð½Ñĭ Ð¹
à¤Ĥ à¤Ĺ
Î» Îµ
á» Ł
áĥĺáĥ łáĥ
Î¯Î½ Î±Î¹
Ð¸ Ñģ
m p
Ġà° Ł
à¸Ļ à¸²à¸
Î» Î±
æ ķ
ÑĢ Ð°
c ie
áĥĶáĥĳ áĥ£áĥļáĥĺ
Ġà¸ ķ
ÎĻ Î
dÄ± r
ĠÐ Ĳ
à°¿à° µ
à¹ĥà¸« à¹īà¸
Îº Îµ
à¯ĩ à®°
ÙĦ ÛĮ
ä¸ Ĭ
æ ŀ
å Ĵ
áĥĶáĥĳ áĥĺáĥĹ
±à¸ ģà¸
Ð½ Ð¾Ð¹
à§ģ à¦¨
Ġà° Ĵ
à¸Ń à¸Ńà¸Ļ
ĠÐ Ķ
à¸Ńà¸Ńà¸Ļ à¹Ħà¸¥
Ġd en
Ġà°ļ à±Ĩ
áĥĲáĥ ĸ
Ġà¦¨ à¦¾
Ġ ÑĦ
an o
Ġà°¸ à°Ĥà°
l ÉĻ
i j
áĥ£áĥ łáĥ
à¤ķ à¥įà¤
i k
à®¿à® ´
a is
×ķ× ľ
Ġà¦¬ à¦¾à¦
Ø °
à¯ģà®³ à¯įà®³
ê± ¸
iá»ĩ n
ÅĤ o
à§Ģ à¦°
à¥ ī
k y
u t
ãĤ ģ
à§įà¦ ²
ìł ķ
à®ªà¯įà®ª à®Ł
Ä± ÅŁ
u e
ĠÄĳ Æ°á»£c
ìķĪ ë§Ī
à¤ķ à¥ĩ
Ġ ÛĮ
Ġ U
Ġm o
ãĤ Ħ
ìĦ ±
Ġà¦ ¡
à®¤à¯įà®¤ à®¿à®²à¯į
Ġê· ¸
Ø £
à¤¹à¥Ģ à¤Ĥ
a b
à®° à¯įà®ķà®³
Ġ íķ
à¤¡ à¤¼
a x
Ġt e
ìĹĲ ìĦľ
é ģ
à§ĩà¦ķ à§ĩ
áĥĲáĥ ¨
ªà¸ ¸à¸
à°¾à° Ĺ
æĪ ·
Ġ×© ×ľ
an d
ĠÎµ Î¯Î½Î±Î¹
Ã ¹
ĠÏĢ Îµ
à°¿à° ¸à±įà°¤
Ġáĥ¡ áĥĲáĥĽ
æĪ ı
å ¯
Ð° ÐµÑĤ
à®® à¯įà®ª
Î ¡
n ÄĽ
áĥĶáĥľ áĥ¢
Î¯Î± ÏĤ
Ð½Ð¾ ÑģÑĤ
ÙĪ ÙĦ
¡ à°¾
à¹īà¸ §à¸
Ï Ī
ç §
ĠÐ¸ Ð·
ä¹ ħ
áĥ® áĥķ
à¸£à¸±à¸ ļà¸
Î¿Ïħ ÏĤ
Ġà¤µ à¤¿à¤
ÐµÐ½ ÑĤ
à±įà° ¦
à¹ĩ à¸Ńà¸
ĠÎ ĵ
w o
à®° à¯įà®ķà®³à¯į
éĽĨ åĽ¢
ç İ¯äºļ
æ Ķ
áĥĲáĥ ¥
ľà¸ ¹
Ð½ Ð¾Ð³Ð¾
Ġà¦¤ à¦¾à¦°
à±ĩà° ¦
à¹Ī à¸Ļà¸
ÐµÐ½ Ð¸Ðµ
Ħà¸§à¸²à¸ ¡à¸
Ġ Q
à°¾à° ľ
áĥ ĸáĥĶ
Ļà§įà¦ Ĺ
Ñĥ ÑĤ
dz ie
à°¿à° ®
s e
áº ·
áĥĺáĥ ĸ
à¤¾à¤ ¹
Ġ Ô
Ġd ÉĻ
Ġ er
ãĥ ķ
à¦ķ à§įà¦·
à®¾à® ®à¯į
Ġd ans
ëĵ ¤
Ø± ÛĮ
en ÃŃ
à§įà¦ ®
à¤¸ à¥ĩ
cz y
à¯ģà® °
ãģĵ ãģ¨
à¦ Ľ
ìľ¼ ë¡ľ
ĠÙĪ Ø§ÙĦ
on o
Ġm e
as Ä±n
ìķ Ħ
Ġà® ı
àµ ģ
× ¦
i Ãªn
Ġp l
Ġì ľ
Ġà¦ı à¦¬
Ġ J
Ġê° Ģ
Ġï¼ ī
æ¸¸ æĪı
à®¾à®Ł à¯įà®Ł
ĠØ ²
íĻ Ķ
à¤ ı
r y
ĠâĢ Ŀ
ì ½
ĠâĢ ľ
lÉĻr i
áĥĶáĥ Ŀ
Ġ 4
à°Ĥà°¦ à°¿
å¹ ´
to s
Ùĩ Ø§
ÏĥÎ· ÏĤ
à®Ł à¯ģà®¤à¯įà®¤
ĠÎ± Ïħ
Ġà°¤ à±Ĩà°²
Ġáĥ¡áĥĲáĥ ¥
à¥įà¤¯ à¤¾
åĴ Į
ĠÐ´ Ð»Ñı
ÅĻ e
Ïģ Î·
Æ° Æ¡
áĥĺáĥ ¨
Ïģ Ïī
Ð°Ð ¶
ãĥ Ń
à±Ĥà° °
à¸² à¸£
ĠÎ ¬
æ İ
Ñİ ÑĤ
Ġà¤° à¤¹
áĥĿáĥ ¤
à¹Ħà¸¡ à¹Īà¸
Î ¤
ch en
Ñĥ Ð´
Ġà°ķ à±Ĭ
Ķ à¹Ģà¸
ĠÏĦ Î¹
da d
Ġà¤ħ à¤ª
é Ŀ
åĽ½ éĻħ
à ª
áĥķ áĥĶáĥľ
Ľ à¸£à¸
ĠÐ ¢
Ġ rÃ©
à±įà°² à±ĭ
à¹Īà¸ §à¸
ÑĨ Ð¸
Ĥ à¸Ńà¸ĩ
c an
Ġà°ħ à°¨
áĥ ĸ
à§ĩà¦ Ł
Ð° ÑģÑĤ
Ġ× ł
à° ·
Ġà®¤ à¯Ĭ
n y
Ġáĥ¨ áĥĶáĥĽ
Ġs i
as Ä±
Õ µ
Ġà¦¨ à¦¿à¦
áº§ n
Ġà¤¸ à¤®
Ø «
Ġj est
ë ²
Ġà®Ĵà®° à¯ģ
Ġg e
à¦ķ à§įà¦¤
ãģ ¤
Ġp as
ĠÄ į
Æ°á» Ľ
m o
ì Ļ
çľ ĭ
Å¼ y
Ġï¼ Ī
b ay
ìĥ µ
à¦¾à¦ Ĺ
à¤¾à¤ µ
it Ã©
Ġde lla
Ġ ist
Ġ" :
Ġà®µ à¯Ĩ
Ġ× Ĺ
ë¶ Ģ
ĠãĢ į
à¤¤ à¥Ģ
Ø§ Ø²
Ġtr ong
ìł ľ
a d
à§ĭ à¦Ĺ
lar Ä±
ìĥ ģ
Ö Ħ
bay can
ĠáĥĶ áĥłáĥĹ
à¸Ļà¸µ à¹ī
à°¾à°¨ à°¿à°ķà°¿
çī Ī
ãģ ¡
ĠØ§ÙĦØ £
Î Ŀ
Ã© e
ĠÎ¸ Î±
à°¾à° ¸
áĥĲáĥł áĥĺ
çľ Ł
æ ł
Ð¾ Ñĩ
à®¿à® ļ
Î¹ Î¬
cz e
áĥ ¤
ĠÏĥÏĦÎ· Î½
ĠÐ ¶
à´ ¾
à±Ģ à°¸
à¹Ħà¸Ķ à¹īà¸
ĠÏĦÎ¿ Î½
a g
ĠÂ »
Ġà¤ ¡
£áĥ ļ
ª à¸´
ĠÎ Ĺ
à¦¦ à§ĩà¦°
Ð¸ Ð´
à°¾à°¯ à°¿
à¹Īà¸ ĩ
Î± Ïĥ
Å¾ e
ãĤ ·
æ Ń
å®ĺ æĸ¹
æ ĭ
áĥĺ áĥĺáĥ¡
¡ à¹Ģà¸
Ðµ ÑģÑĤ
à¯Īà®¯ à®¿à®²à¯į
à°¾à° ¡à±ģ
à¸µà¸ ¢
Ð¸ ÑģÑĤ
Īà¸ °à¸
Õ¥ ÖĢ
Ġà° «
« áĥļ
en to
ĠÐ ĺ
Ġà¤¨ à¤¹à¥Ģà¤Ĥ
Ġà° ¯
Ġà¦¸ à¦Ĥ
Ġf Ã¼r
áĥĲáĥłáĥĹ áĥķáĥĶáĥļ
Æ°á»Ŀ i
Õ¡Õ ¯
u m
×Ļ× ¨
Ġà®¨ à®Ł
Ø± ÙĪ
Ġj ak
Ã ±
ìł Ħ
Ġà¤¸ à¤Ĥ
v a
Ġà¦¥ à§ĩà¦ķà§ĩ
à¯Ī à®¤à¯įà®¤
ãĤ ¿
o b
à®ªà¯įà®ª à®Łà¯įà®Ł
ãģ Ľ
ëħ ¸
Ġa uf
Ġà¦ı à¦ĩ
Ø´ Øª
a ÄŁ
ë į
t Ã³
Ġm á»Ļt
Ġà¤ Ł
r es
ÙĦ ÙĬ
ëĤ ĺ
ãĥ Ĺ
à¦ «
í ĥ
à®© à¯įà®©
× Ł
Ġun a
Ġà¤Ĩ à¤ª
Ġë ı
ãĤ £
f f
ÉĻs i
Ġì¹ ´
zÉĻr baycan
Ġ Æı
Ġáĥ ĸ
«à¸ ¥à¸
à±ĩà° ¶
å ĳ
à®Ļ à¯įà®ķà®³à¯į
à§ĩ à§Ł
Î¸ Î·
Ġy ang
ĠÎ´ Î¹Î±
à±įà°² à±ģ
ĠáĥĶ áĥ¡
è Ī
åĿ Ģ
ĠÑĩ ÑĤÐ¾
Ùĩ Ø§ÛĮ
ĠÏĦÎ¿Ïħ ÏĤ
à¦¾à¦ ¶
áĥĺáĥ¡ áĥ¢
ĠÂ «
Ðµ ÑģÐº
w ie
Ġà°ª à±Ĩ
ķà¸ ±à¸
Î¹Îº ÏĮ
ä¼ ļ
Ñĥ Ñİ
à¥įà¤ ®
áĥĲáĥ ¤
à¸µà¸ ¢à¸
Î¿ ÏĤ
Ã Ł
ĠÐ¿ Ð¾Ð´
à°ķà±įà° ·
¥à¸ °
Î¿ Î¹
Ø§Ø ¡
n Ã©
åİ ħ
æĸ °
å½© ç¥
áĥĿáĥ ª
à¸² à¸Ļ
Ñı ÑĤ
Ġà¦Ĩ à¦°
à± ĥ
à¸£ à¸£à¸
Ñĥ ÑĢ
¥ à¹ĩà¸Ńà¸
Ġb u
à±ģà° ¡à±ģ
áĥĲáĥ ĳ
à¥ĭ à¤Ĺ
Ð°Ð ¿
áº¡ n
à°Ĥà° Ĺ
Ġp rzy
à® ¸
áĥĹ áĥĲáĥľ
à¦¾à¦¦ à§ĩà¦°
il m
iy a
Ġv er
×ķ× ĵ
ĠãĢ Į
Ġà¤¸ à¤¾à¤
Ġà®ķ à¯Ĥ
í ı
Ġqu i
oÅĽ ci
à¦² à§ĩ
er e
ãĤ ı
ĠØ§ÙĦ Ø¹
os t
Ġvá» Ľi
Ġìķ Ħ
å¤ ©
Ġà¦ªà§įà¦° à¦¤
è´ ¹
Ã¶ v
Ġê¸ °
à®¿à® ®
ãĤ ³
Ġà¤ī à¤¨
Ġl as
Ġ× ª
¡ °
ãģĦ ãĤĭ
à§ĩà¦ ¤
ë Ł
ĠS ch
u x
Ġà®ħ à®°
w i
ìĨ Į
à¤¨ à¥Ģ
Ġng h
Ġil ÉĻ
ë Ĳ
Õ¡Õ µ
u b
áĥĲáĥ ĸáĥĶ
à¹ ģ
à°¤ à±įà°¤
çĶ ¨
Ø± ÙĬ
à®± à¯įà®ķ
ÏģÎ¹ Ïĥ
Ġà¦ ĺ
Î¸ Îµ
à°¿à° ¸
Ġáĥ «
O M
ä¸ º
ĠÑĢ Ð°Ð·
Ġv y
ĠÎ Ŀ
Ġn on
Ġáĥ¨ áĥĶáĥ
á ½
Ðµ Ñĩ
Ù ¾
Ġà°ļà±ĩà° ¸
à¸Ń à¸Ļà¸
ÏĥÎµÎ¹ ÏĤ
å ¨
Ð¾Ð² Ð°Ð½
Ġein e
ĠáĥĲáĥ ĵ
ķ à¸´à¸
Îº Î±
à´¾ à´
ĠÐ ĳ
Ġà° ¡
ª à¸²à¸
ĠÎ± ÏĢÎ¿
iá» ĥ
ãģ ¿
åħ ¬
äº ¬
è½ ¦
áĥ£áĥ ľ
§ à¹Īà¸²
Ñĥ Ñĩ
Ġ ou
à±ģà°Ĥà° ¦à°¿
« à¸Ļà¸
Ð½ Ð¸Ðº
¡ à¸µ
ĠA zÉĻrbaycan
Ġà°® à°°
áĥĿáĥĳ áĥĺáĥ¡
à¥ģ à¤°
ĠÑģ Ð²
à¦¿à¦ ¶
à±Ģ à°°
ÅĤ y
a le
ĠáĥĹ áĥĲáĥķ
Ġà®® à¯ģà®
in i
Õ ¿
å ł
c ia
×ķ× Ł
àµģ à´
ĠØ¹ ÙĦÙī
í ħ
Ġà¦ §
r Ã¡
Ġv an
Ùģ Øª
à¯Īà® µ
iá»ģ u
u k
å ĵ
Ġìł Ħ
è ī
Ġà¦ıà¦¬ à¦Ĥ
Ġ ?
ĠÕ °
Ġ íķĺ
it e
à¯įà® £
âĢ į
ãĥĥ ãĥĪ
Ġi m
êµ ¬
cj i
Ļ à¯įà®ķ
Ġë ¬
c ion
×ķ× ĳ
u re
Ġãģ Ŀ
ìł ģ
å°ı æ¸¸æĪı
Ø§ Ø³
Õ¡ ÖĢ
j ÃŃ
Ġ Y
in ÉĻ
Ġáĥĺ áĥľ
à¹ĥ à¸Ļ
à±įà° ķ
ĠC OM
Æ°á»Ŀ ng
i g
Î¹Îº Î®
à¯įà®¤ à¯įà®¤
Ïģ Ïĩ
Ġà°ķ à±ĭ
ĠáĥĴ áĥĲáĥĵ
æĹ¶ å½©
åľ °
ĠÐ± Ñĭ
à®¾à® £
ÏĢ Î±
êµ Ń
Ġáĥĺ áĥĽ
ĠÎ ®
Ð°Ð ³
Ġk tÃ³
à°¾à° ¡
Ĺ à¸²à¸
ÏĢ Îµ
çĻ »
ĠÐ¿ÑĢ Ð¾
it Ãł
áĥĶáĥł áĥĺ
·à¹Ī à¸Ńà¸
Î¼ ÏĮ
į è´¹
ÐµÐ ±
à±įà°¨ à°¿
à¸Ńà¸Ńà¸Ļà¹Ħà¸¥ à¸Ļà¹Į
ĠÎ´ ÎµÎ½
Ø¯ Ùĩ
in e
ä¸ ª
æĹ¶ æĹ¶å½©
9 9
áĥĿáĥĳ áĥĲ
à¹Ħà¸ Ĺà¸¢
Ð½ Ð°Ñı
à¯Ĩ à®°
à±įà° ¥
à¸£à¸±à¸ ļ
Ġ Ñħ
§ à¹Īà¸²à¸
Ġ is
Ġà°¸ à°®
Ġ áĥĲáĥľ
Ġà¤¯ à¤¹
ĠÐ² Ñģ
áº£ i
à° ¶
å ĭ
Ġn o
áĥĲáĥ ¦
Ø§Ø ¦
e Ã§
Ġ #
Ġ× ¨
à¦¦ à§įà¦
Ġf a
à¥įà¤ ²
Ġà®ª à®Ł
ľ ê±¸
an n
Ġd an
Ļ Ĥ
á» į
Ġ Å¼e
o d
à¦ķ à¦¾à¦°
Ġà® Ł
Ġì ļ
çī ĩ
ç ´
à¤ «
il ÉĻr
, "
ÃŃ a
Ġa ve
à¤² à¥ĩ
Ø º
ĠV er
ļ Į
· à§įà¦Ł
Å¡ ÃŃ
Ġì ĸ
æľ ¬
Ġv ous
à¯įà® ¯
Æ°Æ¡ ng
ch e
Ġ à¶
Ġí Ļ
ÉĻ z
æľ Ī
o x
Õ¸ÖĤÕ ´
ĠáĥĲáĥ ¡
à¹ģà¸ ¥à¸°à¸
à° Ĺà°¾
W W
×Ļ× ł
à¦ ¡
ĠÎµ Î½
Ġ ÚĨ
Î´ Î¿
à±įà° ¡
ĠâĢ ŀ
ä» ¥
çĶ µ
ĠÐ¿ ÐµÑĢ
Ġ !
Ïĥ Î±
Ġà®İà®©à¯įà®± à¯ģ
Ġáĥ¨ áĥĶáĥ¡
ĠÎ¿ Î¹
Ð¸Ñĩ ÐµÑģÐº
´ Ģ
Ġà°ª à°°
Ĭà¸ ±
ĠÎµ Îº
ĠW WW
ĠÐŁ ÑĢ
ol o
áĥĲáĥ ¬
ģ à¸²à¸
ĠÏĦÎ¹ ÏĤ
à¥įà¤° à¥Ģ
Ð½ Ð°
Ġà°ķ à±Ĥà°
à¹ĥà¸Ĭ à¹īà¸
ĠÏĥÏħ Î½
Ãł ng
ãĥĥ ãĤ¯
è¡ Į
à¤¾à¤ ļ
1 0
ĠáĥĲáĥ ¦
ķ à¹Ī
Ð½Ñĭ Ð¼
Ã¡ s
Ġà° ²à±ĭ
Ġ à¹Ģ
Ð ŀ
ģ à¹ĩà¸
ĠÃ¼ Ã§
à±ĩà° ¸
áĥł áĥĿ
à¤ ĸ
ÑĢ Ð°Ð½
a tion
à°Ĥà° ļ
à¦¨ à§ĩ
à®¤ à¯į
Ġáĥ ¯
Ġd z
Ġ on
ĠÙĦ ÙĦ
ĠØ± ÙĪ
ment e
ĠC h
Ġà¤¹ à¥Ģ
à¦¾à¦ Ł
ë³ ´
Ä± l
Ġm en
è ²
à®¾à® ±
Ġv o
Ġs t
Ġà§¨ à§¦
á» ĩ
ìļ Ķ
à¤¯ à¤¾
à¦¿à¦ Ł
Ġà¤¤ à¥ĭ
ĠãĢ ĳ
Ġìĭ ľ
è ª
ĠÙĩ Ùħ
à¤¾à¤° à¥Ģ
Ġb e
×ķ× ł
áº£ n
Õ« Õ¶
Ġà®ķ à®Ł
Ø§ Ø¹
à¦¨ à§ĩà¦°
ur s
Ġì§ Ģ
ç µ
n ych
à¤¿ à¤°
a to
i d
à¦¾à¦ ļ
ĠgÃ¶ r
Ãł nh
áĥķ áĥļ
Ġ à¸Ńà¸
à°¾à° ª
å® ¢
Ġà®ļ à¯Ĭ
à¯Īà®¯ à¯ģà®®à¯į
Î¼ Î¬
à¦¾ à§ľ
ĠÎ Ĵ
à°¾à° ¬
ĠáĥĲáĥ łáĥ
ä¸ ļ
± ä¹Ĳ
ĠÑĤ Ð°Ðº
Ġi ÅŁ
Ïģ ÎŃ
Ù Ģ
ĠâĢ ĵ
Ïģ Ïİ
Ðµ ÑģÑĤÐ²
ĠØ§ÙĦ Ø³
Ġà°ī à°¨à±įà°¨
¡à¸ ŀà¸
ĠÎŃ Ïĩ
é Ĵ
Ð¿ ÑĢ
i dad
áĥĹ áĥķáĥĺáĥ¡
à¸£à¸²à¸ Ħ
ĠÎ± Î½Î±
å½ ±
ĠÐ¿ Ð¾Ð»
Ġà°µ à±Ĩ
© à¸
ĠÎ¼ ÎŃ
Ø§Ø± ÛĮ
Ġpl us
æ³ ¨
çĶ Ł
Ġ ;
Ġáĥ¡áĥĲáĥ¥ áĥĲáĥłáĥĹáĥķáĥĶáĥļ
Ġà¸ ģà¸
ĠÐ ĵ
ì§Ģ ëħ¸
à°¤ à±ĭ
Ħà¸£à¸ Ķà¸´à¸
ÐµÐ ¿
à¹Ģà¸ ¥
ìĹ ħ
Ġà°Ĵ à°ķ
Ġáĥ£áĥ ľ
à¥įà¤ ¥
Ð½ Ð¸
Ġs ch
Ġà°µ à±įà°¯
Ġà¦ª à¦¾à¦°
Ġà®ĩ à®¤
ĠáĥłáĥĿáĥĽ áĥĶáĥļ
Ġí ĺ
Õ« Õ
Õ¥Õ ¬
Ġng Æ°á»Ŀi
c c
m y
Ġà¤ķ à¤¹
à¯Īà® ªà¯įà®ª
n en
iyy ÉĻt
ãĥ Ĩ
Ġl o
ĠÙĩ Ø§ÛĮ
à§įà¦ ¨
×Ļ× Ķ
ÛĮ Øª
Ã½ ch
ãĢ ĳãĢĲ
åħ įè´¹
éĹ ¨
Ġà¤² à¥ĩ
Ġ": "
Ġ =
ìļ ©
ÙĬ Ø¯
à¤¾à¤ ĩ
ä½ ĵ
Ġà®ħ à®®
en ia
Ã¼ k
il e
Ġå ħ
à¦¿à¦¤ à§ĩ
Ġn icht
Ġh a
¤ ĳ
à®® à®¾à®ķ
à¥ģ à¤²
ãĤ «
s zy
æ ²
Ġ ar
ĠØ§ ÙĨ
Ġáĥ¨ áĥĶ
Ġà¸ Ħà¸
Ġà°ª à±ĭ
æĿ ¥
Ġà¦ī à¦ª
b en
ÏĦ Î¯
Ġb er
Ïĥ Î¹
à°¦ à±įà°¦
Ġáĥ¡áĥĲáĥ ®
èµ Ľ
åĽ ¾
Ñĭ Ðµ
Ã¡ ch
ÏĦÎ± Î½
Ä± z
ĠáĥĽ áĥĺáĥ¡
ÏĨ Î¿
ÑĨ Ð¸Ð¸
Ġc e
à±ĩ à°ķ
à¹Ħà¸¡ à¹Ī
ĠÎ Ļ
å½ ķ
ĠÐº Ð°Ðº
Ġà®ª à®¿à®°
Ġáĥĺ áĥ§
Ħ à¸£
Î Ľ
à¤¾à¤ Ī
Ð¾ÑĤ Ð¾ÑĢ
à±ĩ à°°
à¹Ĥ à¸£à¸
ĠÎ ¹
ĠØ£ ÙĨ
åĩ º
ç ¾
6 6
å¿« ä¸ī
áĥł áĥĺ
¥à¸ ĩà¸
ĠÑį ÑĤ
ëı Ļ
à°¿à° Ł
à¸Ńà¸¢ à¹Īà¸²à¸
Ñĭ Ð²
à¹ĥà¸« à¹ī
ĠØ µ
Ġà°® à±Ģ
áĥĲáĥ Ŀ
à¤ķ à¤°
ĠÐ¸ Ð½
ì Īĺ
à°¾à°¨ à±įà°¨à°¿
Ġc u
à¦¿à¦ ®
ĠáĥĲáĥ ®
Ġc z
s k
Ġ× ¤
Ġave c
m en
Ġë ĵ
Ġà¤¹ à¥ģà¤
æĸ Ļ
à®¿à®± à®¤à¯ģ
à¦¾à¦ §
ÉĻ c
Ùħ Ø§ÙĨ
ãģ¾ ãģĹãģŁ
Ġe x
á»¯ ng
in d
ow ie
s o
à¤ķà¥įà¤ ·
Ġà¦ľ à¦¾à¦¨
Ġà¤ķ à¤¿à¤¯à¤¾
Ġìł ľ
ĠÃ¼Ã§ Ã¼n
Øª Ø±
Ġ íķľ
à¤¾à¤¨ à¥ĩ
à®ª à¯į
à¦ Ļà§įà¦Ĺ
v er
Ġb y
Ġà¦ķà¦° à¦¾
ë© ´
Ġ×Ĳ ×ª
æ ¬
Ġà® ľ
ãģ® ãģ§
ent e
à¤Ĥ à¤¦
å Ł
í Ħ
a ch
ĠØª ÙĪ
Õ¡ ÖĢÕ
áĥĲáĥ £áĥ
§à¸ ±à¸
à°¦ à°¿
å¨ ±ä¹Ĳ
ÉĻ f
Ãł n
Î ł
ĠL e
ĠÎµÏĢ Î¹
à°¸ à±įà°¤
áĥĺáĥĵ áĥĲáĥľ
è ĩ
Ġå °
Ð°Ð¼ Ð¸
à§ĩà¦ ĵ
Î´ Î±
Ġà®ª à®¾à®°
Ġáĥ§ áĥķáĥĶáĥļ
Ïĥ ÏĦÎµ
ÐµÐ ¶
Ġk e
à±ģà° ª
Ġ2 5
Î· ÏĤ
Ġå ½
ĠÑģ Ð»
en ie
áĥĿáĥ Ĺ
Īà¸ ±à¸
Î»Î» Î¬
à¤Ĥ à¤¤
Ñħ Ð¾Ð´
à°® à±įà°®
Ĥ à¸²à¸
ÏĦ ÎŃ
ĠØ§ Ùħ
ĠE s
åį ķ
è ĥ½
éĢ Ł
áĥļ áĥĶáĥĳ
Ĭ à¸²à¸
Ġ Ñı
ĠìĿ ´ë
à±ĩà° µ
¢ à¸²à¸
Ð ł
¥à¹ĩà¸Ńà¸ ķ
à¦¾à¦ ģ
à±ģà° ¡
áĥĶáĥĳ áĥ£áĥļ
è§ Ĥ
Ð´ Ð°
Ġà®µ à®¾à®
à±ģà°Ĥà° Ł
Ù ĳ
ÉĻ ti
áĥ£áĥ Ľ
Ãł i
Ġà®ĩà®° à¯ģà®ķà¯įà®ķ
il le
Ġ ri
t u
à§ĩà¦ ®
à¥ĩà¤ Ł
× ĸ
Ġs ich
l iy
Ø³ ÛĮ
¶ Ķ
d os
à§ °
es z
Ġ.. .
Ġà®ª à¯Ĭ
ÅĻ ÃŃ
èī ²
à¦¾à¦ ĵ
à¥įà¤ ķ
ãĥ ¡
áº§ u
m ÉĻk
ou t
à¤¾à¤ ķ
ìĺ ¤
zion i
Ġï¼ ģ
ç Ħ
ìĿ´ íĬ¸
à¦¿à¦ ¦
à®ļ à¯įà®ļ
ëĭ Ī
ÅĤ u
ãģ¨ ãģĦ
l es
Ġà¤¸à¤¾à¤ ¥
ĠØ§ÙĦ ØŃ
à§įà¦ ķ
s te
ĠØ¢ ÙĨ
ãĥ £
ĠáĥĲáĥ ¥
ļà¸²à¸ Ĺ
Ġà°ķà±Ĥà° ¡à°¾
è ¾
Ġp i
Ġà®¨ à¯Ģ
ÏĢ Î¿Ïħ
Å ŀ
Î»Î¿ Î³
Ġà°¨ à°¿à°°
áĥĺáĥ Ĵ
å¿« 3
ãĢ Ĥ
Ñĥ Ð¿
Ġìĺ ¤
Îµ ÏĦÎ±Î¹
e c
áĥĺáĥļ áĥĺáĥ¡
ÏĦÎ¹Îº ÏĮ
Ð ¡
×Ļ× ľ
à°¡ à°Ĥ
Ġà¸ Łà¸£à¸µ
Î¼Î± ÏĦÎ±
ä½ ľ
Ð Ĳ
Ġnh Æ°
áĥĲáĥľ áĥĺ
à¹Īà¸ ĩà¹Ģà¸
Î ľ
Ġà¤ķà¤° à¤¨à¥ĩ
ĠÐ· Ð°
à°ķ à°¿
Ľ à¸£
ĠÎŃ Î½Î±
Ġe d
l o
çľŁ äºº
é ¡
åĪ °
£áĥ ļáĥĺ
« à¸²à¸
Ñĭ Ð¹
ë ¹Ħ
Ġà°ħ à°µ
Īà¸²à¸ ģà¸
ĠÐ¿ÑĢ ÐµÐ´
µ à¸
Ġw ir
à°² à±įà°²
áĥķ áĥĶáĥ
ÙĬ ÙĦ
Ð¸ÑĤ ÐµÐ»ÑĮ
à§ĩà¦ ¬
à±ģà°ķ à±ĭ
Ġp e
n ia
áĥĲáĥĵ áĥĴ
Ġà®ķ à¯ģà®±
à¤¿à¤ µ
Ġëª ¨
a o
à§įà¦ ļ
Ġa us
Ġãģ ĵ
b y
Ġà¤ª à¤¹
d u
ĠØ¨Ø± Ø§ÛĮ
Ġìł ķ
á» ĵ
Ù ĭ
à§ĩà¦Ľ à§ĩà¦¨
c u
à®¿à®° à¯ģà®¨à¯įà®¤
ll o
à¦°à§įà¦ ¬
Ġ× §
à¤¾à¤ ı
ĠI n
ãĥ ŀ
Æ°á»Ľ c
Ġà¦¤ à¦¿à¦¨
tion s
ì °
ãģĦ ãģ¾ãģĻ
à¯įà® ¨à¯įà®¤
an Ä±n
ìĬ µ
à¤ķ à¥Ģ
c ÃŃ
à¦° à¦¾
ie l
Ġt er
à¥įà¤ ¸
Ġà®¤ à®®
à®¿à®² à¯įà®²
Ġà¦ľà¦¨ à§įà¦¯
p a
Ã¢ y
Ã¨ s
áĥĲáĥłáĥ ĵ
« à¸£à¸
Ġà°¨ à±ģà°Ĥà°
åĪĨ å½©
s en
Ġb aÅŁ
ÏĦÎ¹Îº Î®
ĠãĢ Ĳ
Îº ÏĮ
à°¾à° §
áĥĶáĥ¥ áĥ¢
èµ °
ç« ¯
Ġ ÑĨ
Ùĩ âĢĮ
ÏĦÎ¿ ÏĤ
in a
áĥĲáĥłáĥ Ľ
Î» ÎŃ
Ñĥ Ð±
æ Ħ
à°¿à°¨ à°¿
§ à¹ĩà¸
ĠÏĮ ÏĦÎ¹
æľ Ģ
ÐµÐº ÑĤ
à®£ à¯įà®£
áĥ£áĥ Ĺ
à¹Ģà¸ ģà¸
Î¹Îº Î¬
Ġà¤¹ à¤®
ĠÐº Ð¾ÑĤÐ¾ÑĢ
à±ģà°Ĥà° ¦
à¸£à¸ §à¸
Î¼ Î²
m i
Ġ× Ĵ
Ĺ äº¬
è¦ ģ
Ġag çİ¯äºļ
ĠáĥĽ áĥĲáĥĴ
à¸Ńà¸ ¢à¸
Ðº Ð¾
Ã ¥
à°¾à° £
Ķ à¸µ
Ð½Ð¾ Ðµ
ĺ à¸
Ġà®¤ à®¿à®°
à±ģà°ķ à±ģ
Ġáĥł áĥĿáĥĴ
ĠÄĳ á»Ļ
Ðµ Ðµ
Ġà¤¥ à¤¾
à±Ģ à°µ
à§ Ī
f t
áĥĶáĥ ª
ĠD e
à¯ĩ à®©à¯į
ĠE n
ur a
Ġê² ĥ
Ä °
ÉĻ q
Ġs z
à¦¬ à¦¾à¦°
Ġm a
Ġà¤¸ à¤ķ
ÙĪ Ùħ
æ ¥
áºŃ n
à¦¸ à§įà¦¥
li k
à®¿à®© à¯įà®±
an do
Ġ×ľ ×Ķ
Ã© s
ĠS ie
æ ĻĤ
Ġo b
ĠÕ §
Õ ¨
à¦¨ à¦¾
ãĥ ī
è§Ĥ çľĭ
Ġà®® à¯ĩ
ÉĻ dÉĻ
à¤Ĺ à¤¾
ëĤ ¨
» ¿
ï »¿
Ġì Ĩ
Ã´ i
Ø§ Ùģ
Ġà®ĩà®° à¯ģà®¨à¯įà®¤
çī Į
æ £
à§ĩà¦ ¸
in o
å¸ Ĥ
áĥł áĥĲáĥĽ
·à¹Ī à¸Ńà¸ĩà¸
à±įà°¸ à±į
ç½ĳ åĿĢ
Ġà®ķà¯Ĭ à®£à¯įà®Ł
Ġ \
Ġï¿½ï¿½ ï¿½ï¿½
à¤¾à¤ ª
Î· Î½
Ġà°ħ à°Ĥà°¦
Ġáĥ ¦
åĬ ¿
å½©ç¥ ¨
ĠÐº Ð¾Ð¼
e v
Î ¥
on s
áĥĶáĥĳ áĥĲáĥ¡
Îº Î¿
Ð» ÐµÐ½
Ġh o
à±ģà° ¦
à¹Īà¸ §
á ¼
çĲ Ĩ
ĠÐ¿ÑĢ Ð¸
à§Ģ à§Ł
áĥĶáĥĳ áĥļ
à¹ ģà¸£à¸
Î» Î¬
ëĵ ľ
Ð° Ñħ
à°Ĥà°¤ à±ĭ
į à¸
ÏĦÎ± ÏĤ
or t
à¦¾à¦¬ à§ĩ
ç Ń
çĻ» å½ķ
æ Į
Ġáĥ¡áĥĲáĥ Ļ
±à¸ ĩ
ÐµÐ½ ÑĮ
± Û
à°¨ à±ĩ
à¹ģà¸ ¥
ÐµÐ³ Ð¾
ģà¸±à¸ ļà¸
Ø§ÙĨ ÛĮ
Ġà°ļ à±Ĥà°
áĥĶáĥĿ áĥĳ
Ġà¤ķ à¤¾à¤°
Ð°Ð± Ð¾ÑĤ
Ġ ÅĽ
Ġà°ħ à°¯
Ġ× ĵ
à®³ à¯Ī
ĠáĥĹ áĥ£
v ÄĽ
ti v
Ø ¸
Ġ ]
íĦ °
ÉĻ ÅŁ
åĵ ģ
h l
ĠÕ ´
Ġà¤ ĺ
ãĥ ¥
Ġa v
áº¿ n
Ġà® ¯
à¦¤ à¦¿
Õ¸ÖĤÕ ©
an ie
ãĤ µ
Ġà®µ à®¿à®
Ġå ı
à¥įà¤ ª
ung en
s i
i q
à¦ Ľà§ĩ
Ùħ Ø§
äº ĭ
s z
Ġ×Ķ× ŀ×
Ä±n da
à§ĭ à¦°
ì½ ľê±¸
ë ¯¸
Ġëĭ ¤
à¯ģà® ª
à¥ ĥ
Ã¨ re
ĠE l
ãĥ Ĳ
Ã¡ nÃŃ
æ ±
ĠÚ© ÙĨ
Ġnh á»¯ng
áĥ ¯
Ķ à¹īà¸§à¸
à°¿à°Ĥà° Ĺ
æ ĥ
ĠD ie
Ġt ak
Î ©
ê ·
Î» Î®
à°² à±į
áĥĲáĥĽ áĥĵ
è® ¡
ä ¾
Ñĭ Ñħ
p er
ĠÎ §
à§įà¦ ¡
Ġáĥ łáĥ
ĠÎº Î¬
Ñ ĳ
Ġà¤ħ à¤¨
à±ģà°¨à±įà°¨ à°¾à°°à±ģ
à¹ī à¸Ńà¸ĩ
Ïĩ Îµ
æĪ Ĳ
ĠÐ £
Õ¡Õ ´
áĥĺ áĥĶáĥł
Ķà¸´à¸ ¡à¸ŀà¸
ĠÎµ Î¾
Ä± q
Ñĥ Ð»
Ġà°ķ à°²
ł à¸
Ïĥ Î¿
Ġà®® à¯ģà®Ł
an ce
æ´ ²
7 7
å®¢ æĪ·
áĥĲáĥķ áĥļ
Ħà¸¸à¸ ĵà¸
Ñģ Ð¿
í ļĮ
à± Į
à¸Ńà¸ ļà¸
Ñĥ Ð¶
à¸² à¸£à¸
Ù Ĳ
à±įà° ³
áĥĲáĥķ áĥ¡
Ġpo d
ĠÑģ Ð¿
al i
à°Ĥà° ª
Ġà®µà¯ĩ à®£à¯įà®Ł
ĠØ¨ Ø§ÙĦ
Ġáĥĵ áĥĲáĥĽ
Ã© r
Ġà¦ı à¦°
ç¾ İ
Ġì Ĭ
Ġà¤¦ à¥ĩ
Ä± m
Ġà®ī à®³à¯įà®³
ÙĨ Ú¯
Ġau ch
Ġk eÃ§
Ġ×ľ ×Ĳ
ar i
à¤² à¥Ģ
ĠìĿ ¸
å ī
á» ķ
qu es
à¦¾à¦ķ à§ĩ
Ġde i
m er
dz i
ÙĪ ÛĮ
Ø¨ ÙĬ
à¤¿à¤¯ à¥ĭà¤Ĥ
ãģĤ ãĤĭ
Ġà®¤à®® à®¿à®´
à®± à¯įà®ª
ch t
Ã¼ ÅŁ
r os
Ġà¦ķ à¦¾à¦°
ìĽ Ķ
Å ©
ìĹ ¬
ĠL a
Ù ı
ÅĤ e
0 9
à¥įà¤ ¹
Øª ÛĮ
×Ļ× Ł
à¯ĩ à®ļ
Ã¡ l
ĠáĥĲáĥł áĥĺáĥ¡
§à¸ ±à¸Ļ
à°¾à°° à°Ĥ
Ġ 9
ãĥ ģ
ĠA n
ÎŁÎ ¥
ìĤ¬ ì§Ģ
Î¿Ïħ Î¼Îµ
à±ģà°² à±ĭ
áĥĺáĥ£áĥ ł
ĀĀ ĀĀ
« ĺ
ĠâĢ Ķ
íħ Ķ
Ïģ Î®
à¦Ł à¦¾
Ġáĥ£áĥľ áĥĵáĥĲ
Îµ Ïħ
Ñĥ Ð¼
w ia
à±įà° Ĺ
ľà¸¹ à¹īà¸
Ïĥ ÏĦ
ç ł
ĠÐ Ĺ
Ġ X
áĥĲáĥłáĥ Ĵ
à¸Ļà¸ ±
ÎµÎ¹ Î±
iáº¿ t
ĠÐ¼ Ð¾Ð¶
à±įà°° à±Ģ
à¸Ń à¹Ģà¸
ÎŃ Ïģ
p r
à§ģà¦ ·
ç¥ ŀ
Ġè ¿
æĹ Ĺ
ĠáĥĹ áĥ¥
à¹ĥà¸ «à¸
Ġ ÑĪ
í Į
Ġà°ļà±ĩà° ¯
Ķà¸ ¥
Ð¾ Ðµ
Ġ 6
Ġ Ö
Ġà°ķ à°¾à°°
ĠáĥĽ áĥ®
ĠÕ ¯
Ð¾ÑĢ Ð¼
l an
à±ģà° ®
Ġà¤Ĺ à¤¯à¤¾
à®ķ à¯į
Ġáĥĵ áĥ¦
Ĥ à¦²
Ġà§¨à§¦ à§
Ø§ ÙĤ
íķĺ ëĬĶ
Ġà¦Ĩ à¦²
ãģ Ŀ
Ġs o
Ä± b
Ġà®ļà¯Ĩà®¯ à¯įà®¤
Ġcom o
ĠÕ ¸
Ġ× ¡
l er
Ġà¤ľ à¥ĭ
ãģĦ ãģŁ
e m
à¯ģà®® à¯įà®ª
à¦¦à§įà¦ §
a nh
ãĥ ĭ
ĠÙħ ÙĪ
Ġ" ,"
Ġs a
ow y
ion e
i de
a do
Ġà¤ķ à¤¿à¤¸
Õ¸ÖĤÕ© Õµ
á» Ń
à§ Į
Ġê² ½
k t
Ùĩ Ùħ
ãģ °
à¯įà® °
Ġìŀ Ĳ
Ġà¤ī à¤¸
p e
ĠØ ·
é ĺ
×ł ×Ļ
Ġde m
áĥ® áĥĿáĥķ
«à¸ ¡à¸
à°¿à° ļ
å®¢æĪ· ç«¯
Ġp r
áºŃ t
ĠÎ Ľ
ãĤĪ ãģĨ
ĠÏĢ Î¿Î»
à°¿à° ²à±ĭ
ĠáĥĽ áĥĺáĥ
èĪ °
& #
Ðµ ÑĪ
àµ Ĩ
ÏĦÎ¹Îº Î¬
Ġà¦¬à¦¾à¦ Ĥà¦²
Ġáĥ °
ĠÎ ¦
Ðµ Ñħ
à¤° à¥ĩ
à±Ģ à°
±à¹īà¸ ĩà¸
Î» Î¯
åĲ Ī
Ð° ÑİÑĤ
Õ ¾
áĥĲáĥłáĥ ¢
à¹Ħà¸ Ľ
Î± Ïģ
à®¤à¯įà®¤ à¯Ī
ĠÐ Ľ
à°¡ à±įà°¡
Īà¸²à¸ ģ
Î¼ Î·
Ġí ı
Ġà¦¬à¦¿à¦ ¶
Ġå Į
å Ģ
æ³ ķ
Ġáĥ© áĥķáĥĶáĥľ
±à¹īà¸ ĩ
ĠÐº ÑĢ
Ġp ra
Ġà°ļà±Ĩ à°ªà±įà°ª
à¹Ħà¸ Ľà¸
Ñĥ Ñģ
à¸Ńà¸£ à¹Į
ĠB u
à±ĭ à°ľ
áĥķ áĥĲ
ĠÕ ¥
ĠÑģ Ð¾
Ã¼ m
Ġà°° à±Ĩ
à¥ģ à¤¨
ĠÛ ±Û
áĥ «
à§įà¦ ¸
à¦ĸ à¦¨
ĠØ¯ Ø§ÙĨ
cion es
Ġs ta
à®¿à®° à¯ģà®ķà¯įà®ķ
Ã¡ n
im i
et te
ĠØ§ÙĦØ ¬
a c
à¥Ī à¤Ĥ
ĠS t
Ġë° Ķ
ĠÚ© Ø±Ø¯
à®©à¯įà®± à¯ģ
Ġà¦¨ à¦¿
×ĳ ×¨
ĠÄĳ Ã£
Ġì ²
ĠB e
en d
à¥įà¤ ¦
Ġà¦® à¦¾à¦¨
à¯įà®ķ à¯įà®ķ
an ia
¾ ³
à¤ķ à¤¾à¤°
Ġa z
Ġì °
èĤ ²
ĠâĢ ĺ
Ġà®ħ à®©
Ġå ĩ
ra z
ĠØ§ÙĦ ÙĤ
ä¸ ĩ
ng an
å· ¥
Ġà¤ §
a ge
Ø² ÛĮ
Ġv Ã½
áĥĲáĥķ áĥ¨
¥ à¸´à¸
Ġà°® à±Ĭ
æĹĹ èĪ°
¾³ éĹ¨
ç Ĥ
ĠÎµ Î¯
Ġ×¢ ×ľ
ĠÎ ĺ
Ġà°µ à°¾à°°
Ġáĥ® áĥĶáĥļ
é ĥ
é ¾
Ð¸ ÑĨ
Ġd la
ĠÏĢ Î¿
à¦¨à§įà¦ ¦
áĥĿáĥłáĥ ª
Î¹ Î½
ĠÐº Ð¾Ð½
ìĸ ĳ
Ġà°¸ à°¿à°¨
ķ à¸²à¸
ĠÏĢÏģÎ¿ Ïĥ
Ġ 8
ÑĤ ÐµÑĢ
lÄ± q
áĥľ áĥĺáĥ¡
Ľà¹ĩ à¸Ļ
Î¼ ÏĢ
Ġ ich
Ð½Ð¾ÑģÑĤ ÑĮ
à±ĭ à°Ĺ
à¹Ģà¸ ¥à¸
Ġ á¼
Ġqu es
Ġà§¨ à§
1 1
èµ° åĬ¿
æ ¯
Ġáĥ£áĥ ¤
Ġà¸ ļà¸Ńà¸¥
Ð½Ð¾ÑģÑĤ Ð¸
à®¾à® ķà¯įà®ķ
à°° à±įâĢĮ
à¹Ģà¸ Ľà¹ĩà¸Ļà¸
Ð° ÑĪ
³à¸ «
a v
Ġà°® à°¾à°°
Ġáĥ¡ áĥ¢
Ġde y
Ð½ Ð¾Ð¼
Õ¸ÖĤ Õ¶
Ġà°ħ à°¨à±įà°¨
Ġà¤ Ľ
Ġb ei
áĥł áĥĺáĥ¡
Ġà¦¹ à¦¬à§ĩ
à§įà¦¯ à¦¾à¦¨
is e
ìĭ ł
Ġm Ã¡s
Ġro z
Äĥ ng
Ġol un
ĠÛĮ Ú©
Ġp rÃ©
ÉĻ lÉĻr
Ġe en
Ľ Ħ
ÙĨ Ø§
à· Ĭ
à¤ķ à¤¾
æ° Ĺ
s kie
ic o
à®¿à® ¨à¯įà®¤
ÃŃ nh
Ġà¦Ĩ à¦ª
ìĬµ ëĭĪëĭ¤
w e
is s
ãĥ¼ ãĤ¹
Ø§ ØŃ
Ġk ter
m aq
à¯Īà® ªà¯į
à¤¿à¤ ¶
ãģ¨ãģĦ ãģĨ
cz ne
× ļ
Ġs c
ny a
åħ ¨
c tion
a j
et z
à¤¸ à¥Ģ
ĠÄĳá» ĥ
Ġæ ¾³éĹ¨
áĥĿáĥ Ļ
Ķà¸´à¸¡à¸ŀà¸ ±à¸Ļà¸
à±ĭ à°¯
2 2
Ġà¦Ĩ à¦¸
è ģ
ĠÏĥ ÏĦÎ±
t s
Ïį Î½
à±ĩà° Ł
ĠáĥĽ áĥĹ
åľ º
åĬ ¨
Ð°ÑĢ ÑĤ
et to
ĠÎ¤ Î¿
ãģ« ãģª
áĥĲáĥ ŀ
ÏĦÎµ ÏĤ
Ð ĺ
ĠÙħ Ø¹
à°¿à°Ĥà°ļ à°¿
ªà¸¸à¸ Ķ
ĠÎ¼ Î±ÏĤ
åŃ Ĳ
Ð¸Ð» ÑĮ
Ġ Åŀ
áĥĿáĥłáĥ Ľ
ļ à¸£à¸´à¸
ĠÎ ¾
à®¿à®¯ à®¿à®²à¯į
ĠÐ¿ Ð»
Ġà°® à°¨
à¹ģà¸ ļà¸
ÎĻÎ ļ
äºļ æ´²
à¤¾à¤ Ĺ
å¤ ļ
ç ®
çİ °
ĠáĥĻ áĥĿáĥĽ
ŀ à¸Ļà¸
Ġ 7
à¦° à§ĩ
à°Ĥà°Ł à±ĩ
ķ à¹īà¸Ńà¸ĩà¸
ÑĢ ÐµÐ¼
à¹Ĥà¸ ¡à¸
ĠS e
à±ĩà° ·
ĠáĥĽ áĥĲáĥĹ
Ġy ar
ĠÐ ķ
Ġc zy
à°¿à°Ĥà° ¦
n Ã¡
Ġs ono
Ġáĥ¡áĥĲáĥ¥áĥĲáĥłáĥĹáĥķáĥĶáĥļ áĥĿáĥ¡
o ir
Ġà®¤ à¯Ĩà®°
n ym
Ġà¤® à¤¹
al es
b e
ĠÃ§ ox
à¦§ à§įà¦¯
Ġà®ķ à¯ĩ
Ŀ i
Ġ× ĸ
ĠR e
Ø¨ Ø±
Ġà®ķ à¯ĭ
à¥ ľ
Ġà¤µ à¤¾à¤²
b re
ãģĤ ãĤĬ
ëħ Ħ
ĠÙħÛĮ âĢĮ
ĠÃ º
oÅĽ Äĩ
Ġà®İà®© à¯įà®©
Ġà¦¸ à§įà¦¬
Ġv e
à®µ à¯ģà®®à¯į
t es
ĠP h
ÉĻl i
à¦° à§įà¦¤
ÙĦ Ùĥ
Ġthá» ĥ
Ġ ï»¿
Ġì £¼
Ġu 09
Ġt y
a hr
a da
i v
à¦ ł
à¥Ģ à¤¨
Ġà®µ à®¨à¯įà®¤
×ķ× Ŀ
áĥĵ áĥĶáĥĴ
à¹īà¸ §
à°¤ à°¿
Ġå½ ©
åħ ¥
Ġ ent
ĠÏĥ ÏĦÎ¹
r u
ĠÎļ Î±
à°® à±Ĩ
áĥĵ áĥĶáĥĳáĥĲ
èµĽ è½¦
å® ī
ÑĢ Ð¾Ð²
ìĻ Ģ
Î³ Îº
à¦¨à§įà¦¤ à§įà¦°
áĥĶáĥ Ļ
ÎµÎ¹ ÏĤ
Ðº Ñĥ
Ġà¦® à§ĭ
à°¿à°Ĥà°ļ à°¿à°¨
à¸Ń à¸Ńà¸
ĠÎ ¶
é ľ
Ð¶ Ðµ
Õ¡Õ ¿
áĥĺáĥľ áĥĲ
à¹īà¸² à¸Ļà¸
ĠÏĢÎ± ÏģÎ±
à¯Īà® ļ
ÑĢ Ð¾
à°¾à°¤ à±įà°°
à¸Ńà¸£ à¹Įà¸
ĠÏĢÎµ ÏģÎ¹
Ġà¤² à¤Ĺ
æ Ĵ
é¾ Ļ
ç ¨
Ġå Ī
áĥķ áĥĺáĥĹ
Ľà¸ ¥
ĠÐ¿ Ð¾Ñģ
Ġà¦Ĩ à¦Ĺ
à°Ĥà°¦ à±įà°°
à¸´ à¹Ģà¸
ĠÐ ¤
à¸´ à¸Ļà¸
ĠÃ¶ z
à°Ĥà° ķ
ĠáĥĽ áĥĲáĥ¡
Ġp re
ĠÐ¸ Ð»Ð¸
ĠØ§ÙĦ Ø´
Ġà°¤ à°¨
os ta
Ġol an
Ġáĥ¡ áĥĲáĥ¡
×ķ× Ĳ
Ġà®µ à®´
áº¿ t
à¤¾à¤¯ à¤¾
Ġë³ ´
in s
ãĥ¼ãĥ «
Ġà¦¦ à§ĩà¦ĸ
à®¿à®ķ à®³à¯į
w y
i to
ĠØ§ÙĦ ÙĨ
h e
ãģķ ãĤĮ
à¤¾à¤ ¬
Ġà¤ª à¥Ĥ
in dÉĻn
Ġdi es
t ÄĽ
cj a
Ã ¸
à®µ à¯ĩ
y a
à§ĥ à¦¤
Ġê³ ł
Ġde ll
Ġm u
Ġs ont
Ġm i
à§įà¦ ¦
Ú¯ Ø±
ĠN g
Ġà®ħ à®±
Ġw er
à´ ¤
Ø§Ø ¬
ì¹ ´
Ġk o
×Ļ ×ķ×ª
à¦¾à¦ ĸ
à¤ļ à¥įà¤
Ġ ÉĻl
á»ĳ i
ĠáĥĽ áĥĿáĥĽ
¸à¸ ķà¸
à°¿à° ·
åĨ Į
Ġes ta
Ġ [
Î³ ÏģÎ±
ì¶ľìŀ¥ ìĥµ
ĠÎºÎ± ÏĦÎ±
à±ģà° Ĺà°¾
ĠáĥĻ áĥĺ
äº İ
Ġ; &#
Ð½ Ñı
µ ľ
Ïģ Î¹Î±
à§ĩà¦ ·
áĥłáĥ «
ĠÎ¼ Î¹Î±
ĠÑį ÑĤÐ¾
Ġpi Ã¹
à±įà° §
ķ à¸£
ÏĦ Ïħ
Ġæ Ī
Ð Ŀ
Ġà®ª à®²
áĥĺáĥ¨ áĥķ
Ľà¸£à¸ °à¹Ģà¸
Ïģ Î¿Ïħ
s ze
Ñİ Ñī
à°¿à° ¦
à¹Ģ à¸£à¸
ĠÎ´ Î·
¨ àµįà´
äº §
é «ĺ
à¨ ¾
æīĭæľº çīĪ
áĥĲáĥª áĥĺ
¹à¸ ģà¸
ÐµÑĤ ÑģÑı
Ġ Å¾e
à°® à±Īà°¨
ĩ à¸²à¸Ļà¸
ĠÐ¾ Ñģ
à¸µ à¹Īà¸
ĠØ§ÙĦØ ¥
Ġà°¸à°¿à°¨ à°¿à°®
áĥĺáĥ ¥
ĠL es
Ð» Ñİ
à¦® à¦¾à¦¨
à°µ à°°
ë¬ ¸
Ġw ie
áĥĲáĥļ áĥ£áĥłáĥĺ
Ġa c
à¦¾à¦ ¯à¦¼
Ġb il
Ġà¤ľ à¤¾à¤¤
ãĤ ¦
Ø² Ø§Ø±
áº ©
Ġà®® à®±à¯įà®±
ì§ Ħ
ung s
åł ´
ĠÚ© Ø§Ø±
Å º
ĠØ§ÙĦ Ø¯
à¥ĩ à¤²
ä¹ħ ä¹ħ
Ġs er
ĠT r
ÄŁ Ä±
ĠpÅĻ e
ll en
Ã¹ ng
Ú¯ Ø§Ùĩ
p o
ĠìĹ ¬
×Ļ× §
Ù Ĵ
Ø± Ø¨
è¦ ĭ
Ġà¦ħ à¦¬
Ġa pp
Ġs on
s ki
æĬ ķ
Ġà¤ħ à¤§
Ġå ®
es ch
Æ¡ n
íı ¬
r on
à¤°à¥įà¤ ®
as i
à¦¿à¦ Ĥ
¬ áĥ§
à¹Ģà¸ Ĥ
à°¿à°² à±įà°²
ä¹ Ī
Ġ ï½
ĠëĤ ĺ
ÎĹ Î£
ÙĬ Ùħ
Î¬ Î»
Ġà°µ à°ļà±įà°ļ
áĥĲáĥ «
åı ¯
5 5
Ð°Ð½ Ð¸Ñı
ĠØ¯ Ø§Ø±
ÏĢÎ¿ Î¹
Õ ½
ĠáĥĽ áĥĿ
ÏĦ ÏģÎ¿
ĠÐ³ Ð¾Ð´
ĠÃ¶ l
à°¨ à±įâĢĮ
Ġà¹ģà¸ ¥à¸°à¸
ĠÎł Î±
á Ł
Ð¸ Ñİ
j a
Ġáĥ¡ áĥ®áĥķ
Ġ à¸Ļ
ĠÎ¿ ÏĢÎ¿
ti g
Ð² ÐµÑĤ
à°¸ à±į
ķ à¹Īà¸
Ïħ Î½
à¤ ¥
Ġ >
å ģ
è ·
åŃ ¦
áĥ£áĥ ¡
à¹Ĥ à¸Ļ
ĠÐ¾ Ð´
p ie
à°² à°¾
Ķà¸¥ à¸Ńà¸ĩ
Ñĥ Ðº
±à¸ ļà¸
à§ İ
Ġà°ļà±ĩà° ¸à±įà°¤
ĠáĥĲáĥ ķ
ou ve
Ð° Ñĩ
ìķ ¼
à°¾à°¨ à±ģ
Ġz Ã¡
Ġg Ã¼n
áĥĶáĥ ĸ
ĠN h
×Ļ× ĳ
ni k
à¥ĩà¤ ĸ
à§Ł à¦¾à¦°
c es
Ġà®İà®© à¯įà®ª
Ø ¦
Ġo der
ÉĻ v
Ġ ra
Ġà¦¤à¦¿à¦¨ à¦¿
Ġë ²
ãģĦ ãģ¦
Ġà¤¬ à¤¨
Ġà¤° à¤¾à¤ľ
à§įà¦ ľ
i Äħ
ĠØ§ÙĦ ÙĦ
à®¾à® ļ
d as
ĠpÅĻ ÃŃ
Ġm ais
ÙĪ Ø§ÙĨ
ãĥ ĸ
m asÄ±
i ng
Ġà®ħ à®Ł
à§ĩà¦ ¦
an te
×Ļ× ©
à§ģ à¦®
Ùħ ÙĦ
Ġì ¤ĳ
Ġæ Ĺ
ĠP o
Õ¡Õ ½
Õ¶ Õ¥ÖĢ
h en
Ġc Ã´ng
Ġà¤ħà¤ª à¤¨à¥ĩ
ãĤ į
à®¿à®ķ à®³
áĥ£áĥ ¨
¡à¸² à¸£à¸
Ġà°ľ à°°
åı Į
n Äħ
Ġc o
Î´ Î¹Î±
ãĥ ĩ
ÏĢ Î¬
à°¾à° ·
ĠáĥĹ áĥĲáĥľ
éĥ ¨
ä¹ ĭ
ĠÑĢ Ð°Ñģ
à§įà¦ ł
ÏĮ ÏĦÎµ
ÅŁ Ä±
áĥł áĥĿáĥ¡
Ïĥ ÏĦÎ·
Ð ļ
Ġ ÉĻs
à°¾à° ³
Ġà¹Ĥà¸ Ľà¸£
Î¼ÎŃ Î½
æ³¨ åĨĮ
ĠÑĤ Ð¾
te ur
Ġáĥ£áĥ Ļ
Ġà¸ ģà¸²à¸£à¸
Î ļ
ê³ Ħ
Ð¸ Ð»Ð¸
à°¿à°Ĥà°ļ à°¾à°°à±ģ
±à¸ ļ
Î³ Î¿
à¤Ń à¥Ģ
à¤Ĥ à¤¡
èµ°åĬ¿ åĽ¾
å¯ ¹
Ġ ä»
áĥĿáĥ ¢
¢ à¸Ļ
Ð°ÑĤ ÐµÐ»ÑĮ
ĠØ¹ ÙĨ
Ġà°° à°¾à°ľ
¡à¸ ±à¸
Ð ¢
Ġà¹Ģà¸ Ķà¸´à¸¡à¸ŀà¸±à¸Ļà¸
Ġà¦¹à§Ł à§ĩà¦Ľà§ĩ
Ġà°ħ à°¨à°¿
Ġ %
iá»ĩ t
Ð ķ
Ġcom p
Ġà°Ĺ à±ģà°°
à¯Ģ à®°
Ġu m
áĥĺáĥ ¤
×Ļ× ĵ
Ġê ±
Ġm ÉĻn
Ġà¤Ń à¤¾à¤°
Ġà§¨à§¦à§ §à§
Ġb áº¡n
à®¿à®± à¯įà®ķ
k ov
a ciÃ³n
Ġh et
au x
Ġà¦ķ à§ĭà¦¨
ÙĪ Ø²
s ta
à¥ģ à¤ķ
à¤ ł
éĸ ĵ
en ti
Õ ´
Ġà¦ķà¦° à¦¤à§ĩ
Ġn as
ĠØ§ÙĦ Ùģ
r Ã³
l Ã©
à®² à¯Ī
ÉĻ x
Ú ĺ
Ġë¶ Ģ
b i
ĠÃ¼ ber
ãĤ Ń
Ġs á»ĳ
Ġo g
Ġ×Ķ× Ĳ
à¤¤ à¤¿
à®¾à®° à¯įà®ķà®³à¯į
Ġe dir
Ġà¦ıà¦ķ à¦Łà¦¿
Ġa t
Ø¹ Ø¯
à¤² à¤¾
ê° Ħ
æĢ Ŀ
ĠáĥĴ áĥķ
Ġà¸ ģ
Ġà° ĵ
3 3
v ÃŃ
a p
Îµ Ïģ
çĦ ¡
ĠÎ± ÏĢ
à±ģà° Ł
Ġáĥĺáĥ§ áĥĿ
Ġà¤Ĩ à¤¹
ä¹ Ł
ĠÑĤ ÑĢ
ãģ ĺ
Ïģ ÎµÎ¯
Ġà®ħà®° à®ļ
ĠáĥĻ áĥĿáĥľ
ĠÎ¼ Î±
Ñģ Ð»
ÛĮ ÙĦ
à°¤ à±įà°¯
¥à¸ĩà¸ Ĺà¸
ÎŁ Î£
åĪ Ĵ
Ð°Ð» Ð¸
ê ¹
áĥł áĥĺáĥķ
à¹Ģ à¸£
Î¸ ÎµÎ¯
ãĥ³ãĤ °
ĠÐ §
à°¸ à±įà°Ł
Ġà¸ Īà¸
Îĳ Î£
Ġ1 0
Ġà¤¦ à¥ĭ
ĠåĮ Ĺäº¬
é ķ
Ġà¤Ĩà¤¹ à¥ĩ
áĥķ áĥĲáĥļ
ĩ à¸²à¸Ļ
ĠÐ¸ Ð¼
or es
à±Ģ à°¯
Łà¸ ¸à¸ķà¸
ÑĢÑĥ Ð³
°à¹Ģà¸ ļ
Ġà®¤à¯Ĭ à®Ł
à±ĩà° ®
áĥĲáĥľ áĥ¡
ĠE r
Ð¿ Ð»
áº ½
à°¯ à±įà°¯
m es
to r
ĠáĥłáĥĿáĥĽáĥĶáĥļ áĥĺáĥª
ÙĢ ÙĢ
Ø° Ø§
ĠìĿ ¼
à¤ ·
m ÉĻ
ĠãĤ ¹
\ \
u je
à®© à®°à¯į
ĠØ® ÙĪØ¯
i que
i Ã³n
Ġà§ ©
Ġh ab
Ġà¤® à¤¿à¤²
Ġà¤ķà¤¹ à¤¾
ãģ Ķ
à¦¾à¦¦ à§ĩà¦¶
Ã§ Ä±
à¦¿à¦ ľ
l ia
ÙĬ Ø§
×ķ× ¤
Ġà®® à®©
Ġth u
Ġprze z
b le
à§Ł à¦¾
Ġà®® à¯ģà®¤
Ġh ÉĻr
ãĤ ¸
ë £
a us
Ã© ho
ç Ī
Ġt out
Ø§Ø¯ Ùĩ
à¦¾à¦ķ à¦¾
i ta
ì¹ ĺ
à¤¾à¤¨ à¥Ģ
à¯ģà®ķ à¯į
ãĥ §
áĥ® áĥĲáĥĵ
ķà¸±à¸ §
à°¾à° ¹
ç ¤
ĠU n
á»Ļ i
Î¿Ïį Î½
à¦ľ à¦¨
Î¹Îº Î¿
à°ķ à±įà°¤
áĥĿáĥł áĥĺáĥ¡
Ġå ľ
éĩ ĳ
ĠÑĢ Ð°Ð±Ð¾ÑĤ
Ġi Ã§
Îµ Î»
ow ych
£áĥ ¡
Î´ Î·
ĠÐ² Ð¾Ð·
ĠØ§ÙĦ Ø¨
Ġà°µ à±Ī
ģà¸ ±à¸Ļ
ÎŃ Î½
Ġag åĽ½éĻħ
Ð°ÐµÑĤ ÑģÑı
is ch
áĥĶáĥĳ áĥ¨áĥĺ
Ĥà¸ ¶
ĠÎµ Ïħ
á» ī
Ð¾Ð»ÑĮ ÐºÐ¾
à±Ĩ à°Ł
Ķ à¸µà¸
Ïī ÏĥÎ·
à¤¿ à¤Ĥà¤Ĺ
à¥ĩ à¤¸
à¥Ĥ à¤¨
é ¦
é £
Ġáĥĺ áĥ¥
ĸà¸ ¶à¸
ÑĨ Ð¸Ñı
à¯ģà®Ł à®©à¯į
à°¿à° ľ
Ġà¹Ģà¸ ¥
ĠÐ Ń
à¹Ģà¸ Ķ
Ġn Ã¡
à°¿à° Ĺà°¾
áĥĹ áĥĲ
d iy
ÑĤ Ð¾ÑĢ
ia ÅĤ
à°¾à°² à°¿
Ġvo tre
Ġt ut
áĥ£áĥ ¤
ĠÙħ ØŃ
Ġë§ Ī
à§ģ à¦ķà§įà¦¤
à¤¾à¤ ĵ
r an
our s
Ġà®ķ à®°
×ķ× ©
en n
Ġê³ µ
Ġn Ãły
Ġna j
à¦¾à¦¨ à§ĩ
ĠÙģ Ø±
à· Ĵ
ķ àµįà´
ãģ§ ãģį
ĠÕ ¶
Ä±n Ä±n
Ġà®ª à®¤
. .
Ġn ous
ĠI l
n Ã½
ŀ à¯įà®ļ
Ġâ ĺ
Ġìĥ ģ
ĠP ro
ãĥ¼ãĥ Ī
à¦¾à¦ ¥
c ÉĻ
Ø± Ø©
j er
ĠÙĨ Ùħ
Ġà¤¬ à¤¾à¤¦
Ġ Å
t uk
à¯ģà® £
jÄħ c
t is
à¥ĭ à¤ľ
Ġr es
å £
ĠáĥĽ áĥĺáĥĽ
à¸Ńà¸¢à¸ ¹
à±ĩà°¦ à±ģ
æĹĹèĪ° åİħ
Ġs ind
íĶ Ħ
Î¾ Î·
×Ļ× Ĳ
ÏĮ Î½
à°¿à°¤ à±įà°°
Ġáĥĵ áĥĲáĥ¡
Ġäºļæ¸¸ éĽĨåĽ¢
è¿ Ľ
Ð¸Ð½ Ð°
à®¿à®²à¯įà®² à¯Ī
Ïħ Ïĥ
Ùĩ Ø±
Ġáĥ¬ áĥĲáĥłáĥĽ
ĠÎ¼ ÏĢÎ¿
Ð¸ Ð±
ãģ§ ãģ¯
ļ à°¿
à¸µà¸¢ à¸Ļà¸
Ïİ ÏĤ
Ġå½© ç¥ŀ
Ð³ ÑĢ
ti que
Ġáĥ¬ áĥļáĥĺáĥ¡
Ħà¸£à¸Ķà¸´à¸ ķ
ĠÏĢ ÏģÏĮ
Ġm á»
ĠÑģ Ð¼
à°³ à±įà°²
ģà¸ ©
ÏĮ ÏĤ
æĴ Ń
Ġà¤² à¥ĭà¤Ĺ
éĿ ¢
åĲ İ
è °
áĥĶáĥłáĥ ¡
Ġà¸ ĭà¸
Ð½ Ð¾Ð²
e k
à° «
Ġà¸Ĺà¸ Ķà¸¥à¸Ńà¸ĩ
ĠÐ° Ð²
Ĭà¸± à¹Īà¸Ļ
à¦ª à¦°
Ġà°Ĩ à°¯
áĥĺáĥĲáĥľ áĥĺ
Ġn el
Ð³ Ð¾
ë§Ī ìĤ¬ì§Ģ
Ġà° §
ì¶ľìŀ¥ ìķĪë§Ī
à¯Īà®ķ à¯į
áĥĿáĥĳ áĥ¡
l ÉĻn
ìŀ Ħ
ar a
çº §
ĠÙĩ Ø§
à¦¾à¦¤ à§ĩ
Ġf or
Ø§ÙĨ Ùĩ
Ġtá» «
Ġ }
b o
à¦¿à¦ ¯à¦¼
ĠØ¥ ÙĦÙī
ir es
Ġà¤¤ à¤ķ
Ġà¤¸ à¥Ģ
Ø± Ú©
er n
Ġà®® à¯Ĥ
×¨ ×Ĳ
ĠãĤ ¢
l ÉĻt
i u
Õ¡Õ ¾
Ġt ÉĻr
ìļ °
Ġâ Ļ
Ġau x
m os
Ġà®ħ à®¨à¯įà®¤
è ©
Ġwer den
Ġl á»
g i
Ġà¤°à¤¹ à¥ĩ
Ø§ÛĮ ÛĮ
in de
v Ã¡
Ġy er
en ta
à¤¸ à¥įà¤¤
Ġà®İ à®¤
en s
áĥĲáĥľ áĥĵ
Ĺà¸ ³
à±Ģ à°²
å¥ ½
ãĥ ł
ĠìĿ ĺ
ĠÏĥÏĦÎ¹ ÏĤ
d n
ĠÎ ¥
¡ à°¿
Ġáĥ© áĥĶáĥĽ
å° ±
Ġ ä½
ĠÑģ ÑĢ
×ķ× §
ĠÎ Ī
à¦ ·
áĥĿáĥł áĥĺ
Ï Ĭ
ĠÐ½ Ð¾
Ġà® ²
à±Ģ à°ª
ģà¸±à¸ ļ
ĠÎºÎ± ÏĦÎ¬
ç» ı
Ð°Ð¹ ÑĤ
Øª Ùħ
áĥĺáĥ §
à¹Īà¸ ¡à¸
Â µ
c er
Ð¾ÑĢ ÑĤ
à° ¥
Ġà¸ Ĥ
Î¼ Î®
Ġà¤ķ à¤®
Ã¡ i
æ ı
åįķ åıĮ
å® ŀ
áĥķ áĥ¡
à¸Ļà¸µ à¹īà¸
Ñĭ Ð¼
Ġà¤ī à¤ª
à°· à±įà°Ł
Ġà¸ Ľ
ĠÑģ Ð°Ð¼
ģà¸ ¥
Ġo p
Ġà°¤ à±Ģà°¸
áĥłáĥ £áĥļ
gg i
Ð´ ÐµÐ»
Ġìľ Ħ
Ġà°ª à°¾à°°
ìĦ ¸
Ġs k
Ġáĥ¡ áĥĲ
il l
Ġà¦Ĺ à§įà¦°
ãģ Ń
çł ģ
ãĤ »
Ġhá» į
Ġà®®à¯ģà® ©
Õ¥ ÖĢÕ
Ã¶ y
Ø± Ùĥ
nie j
Ġh at
o is
ãĥ Ł
à¤¿à¤ ®
Ġí Į
ra tis
r as
ÛĮ Ø´
Ġà¦ķ à¦®
à¥įà¤ ¨
ãĥ³ ãĥĪ
Ġà®¤ à¯ĩ
ĠÃ¼ z
×ķ× ¢
d ÄĽ
c t
Ġà¦¬à¦¾à¦Ĥà¦² à¦¾à¦¦à§ĩà¦¶
à¦¨ à¦¿
Ä±n Ä±
íķĺ ê³ł
ĠG e
ãģķ ãĤĵ
Ġp os
à¥ģ à¤¤
ãĤ °
ĠØ§ÙĦØ ®
Ã¡ ng
à®© à¯Ī
ĠØ§ Ø³
j ÄĻ
Ġq ar
Ġà®ļ à®¿à®±
áĥĺáĥ ŀ
à¹Ģ à¸£à¸µà¸
à°°à±įà° µ
åĬ Ľ
Ġà¤ľ à¥Ģ
Ġm ar
Î¹Îº Î®ÏĤ
Ġà¦ħ à¦Ń
ÏĨ Î±
Ġà°ī à°Ĥà°¡
ĠáĥĽáĥĲáĥĴ áĥłáĥĲáĥĽ
Ġå Ľ
æ Ļ
ĠÐ± ÑĥÐ´
ìľ Ħ
ĠÏħ ÏĢÎ¿
Ã¶ n
ĠáĥĽ áĥĶ
ÏĦ ÏīÎ½
ĠÐ» Ñİ
ĠØ¢ Ùħ
à°ªà±įà°ª à±ģà°¡à±ģ
à¹īà¸Ńà¸ ¡à¸
ĠÎ¸ ÎŃ
è ¶
ĠÑģÐ² Ð¾
Å¡ e
Ġáĥł áĥĲ
à¸Ńà¸ ļ
Î¯ Îº
Ġ os
ĠÑģ Ðº
à°¿à°¤ à±ĩ
ļà¸Ńà¸ ¥à¸
Ïĥ ÏĦÎ¿
à¤° à¤¾
Ġà¦¸ à¦¬
ä» ¶
åº ¦
æĬ Ģ
Ġáĥŀ áĥĺáĥłáĥ
Ġth e
ĠÑĥ Ñĩ
ou v
Ġà°ħ à°§
ĩà¸´ à¸Ļ
Ð» Ð¾
Ħà¸§à¸²à¸ ¡
ÙĬ Ø³
à°Ł à°¿
ĠáĥĴáĥĲáĥĽ áĥĿáĥ
ê³ µ
Ñĥ Ñī
g u
à°¾à° ¶
à®¿à® ª
×ķ× Ĺ
áĥł áĥĶ
à¥ĩà¤ ľ
ĠÙħ Ø¯
ĠÔ ±
ĠkeÃ§ ir
Ġà¦¯ à§ĩ
ien to
Ġal s
à®£à¯įà®Ł à¯ģ
ti f
ĠÙĨ ÛĮ
à¥Ĥ à¤°
Äĥ m
í Ĵ
ic e
ãģ« ãģ¯
Ġa lla
Ġo raz
ìķ ½
ÙĦ Ùħ
Äį nÃŃ
à®® à®¾à®©
ĠP or
ê ´Ģ
Ġ1 9
Ġg ÉĻl
p os
ne j
ler i
à¦¤ à¦¾
àµį âĢį
à¤Ĺ à¥Ģ
×ķ× ¡
g a
Ġì¹´ ì§Ģëħ¸
à¥į âĢį
ĠìĦ ľ
Ġa s
Ø ¥
l Ã¡
Ú© ÙĨ
ãĤ ª
w er
¯ à§ĭà¦Ĺ
áĥĶáĥ ®
ķ à¸£à¸
à°¯ à°Ĥ
ä¸ »
à¥įà¤ ·
ant s
Î¯ Î¶
á»ĳ c
ÏĦÎ· ÏĦÎ±
à±įà° ·
áĥĿáĥĵ áĥĲ
ä» £
¦ Ĥ
Ñĭ ÑĤ
Ä±n a
ĠÎ´ Î¹
Ġê ¹
áĥľ áĥĶáĥľ
Î¼ Î¹
ĠÐ¾ Ð½
Ġv or
Ġà°ªà±įà°° à°Ń
Ĺà¸ ³à¸
á ¿
æŀ ľ
Ð¾ÑģÑĤ Ð°Ð²
x o
ĠáĥĴáĥĲáĥĽ áĥĿ
·à¹Ī à¸Ń
Î³ Î³
ide os
ĠÐ´ Ð¾
à°¿à°¯ à±ģ
Ġ à¸£
Ïĥ Ïī
Ġà¤īà¤¨ à¥įà¤¹
Ġp ue
åĮ ĸ
å §
ĠA G
ĠáĥĲáĥĵ áĥĲáĥĽ
Ġà¹Ģà¸Ķà¸´à¸¡à¸ŀà¸±à¸Ļà¸ Łà¸£à¸µ
Ñģ Ð»Ð¸
ne go
à±įà° ¬
Ġà¸ Ķà¸
Ð° ÑĨÐ¸Ð¸
§à¹ĩà¸ ļ
Ä± x
ĸ à±įà°¯
ĠáĥĽ áĥĺ
Ġë į
Ð¾ÑĤ ÑĢ
Ġà®ĩ à®Ł
à°Ĥà° §
Ġà¦¸ à¦°
v o
Ġáĥ¨áĥĶáĥĽ áĥĵáĥĶáĥĴ
ĠØ§ÙĦ Ùĥ
à¥Ĥ à¤ª
on n
Ġà¦¸à¦® à§įà¦ª
al Ä±
t to
s ka
ĠS p
Ġg iá»
à®° à®¿à®¯
Ġme ng
Ùħ ÙĨ
Ġ× ¦
ê¸ Ī
Ġm on
à§ģ à¦¬
l u
Ø§Ø ®
ì ¡°
à´ °
un un
am i
Ġì Ľ
Ġà®® à¯Ģ
er o
ĠÃ ª
à¦¿à¦ ª
ãĤ §
Ġna ch
à¤¾à¤° à¤¾
à Ń
ent es
ÙĦ Ø§
Ġ×Ķ× ©
ç ²
Õ ¯
ÉĻs indÉĻ
Ġvo or
Ġà®Ĩ à®©
Ġy ap
Ġ Å¡
Ġkh i
Ġìķ Ī
áĥłáĥ ĵ
à¸Ļà¸ ´à¸
à±ĭ à°¤
å® ļ
Ġà¤¬ à¤¾à¤°
Ġde lle
ĠÎ±Ïħ ÏĦÏĮ
à¦¨à§įà¦ §
Ïģ ÎµÏĤ
Ġà°Ń à°¾à°°
áĥłáĥ £áĥ
ģ éĢŁ
è Ĳ
Ð°Ð½ Ð¸Ðµ
Ã± o
Î¯ ÎµÏĤ
ĠW y
áĥĺáĥ¨ áĥľ
Î´ Î¹
Ð°Ð» Ð°
ĠØ´ Ø¯
Ġà°®à°° à°¿à°¯à±ģ
¢ à¹Ģà¸
Ïĥ ÏĦÎ±
èĩ ª
Ð°Ð½ Ð¾Ð²
íĸ ī
áĥ§ áĥķ
ģà¸ ¡à¸
ĠÏĥÏĦÎ¿ Î½
u ch
Ð¾Ñģ Ñģ
Ġà°ķ à°¾à°¨
Ī à¸£à¸´à¸
ĠÎ± Î»Î»Î¬
Ġà¤® à¥ĩ
Ġà¦¦ à§ĩà¦¶
å »
ä¸Ń åĽ½
æ į
ĠáĥĽ áĥĿáĥ¡
à¸² à¹Ģà¸
Ñ Ĭ
m ÉĻt
à±ģà°¤ à±ģà°¨à±įà°¨
à¹īà¸² à¸Ļ
Ðº ÑĤ
à¹Īà¸ĩà¹Ģà¸ ĩà¸´à¸Ļà¸
ar d
à°° à±ģ
áĥĶáĥĹ áĥĺáĥ¡
ĠØ§ÙĦØ µ
Ðº Ðµ
à®¿à®¤à¯įà®¤ à¯ģ
à±ĩà° ¤
ic k
à¯ģà® ²
áĥ Ń
b a
Ġà¤® à¥ģà¤
Ġa y
à¦¿à¦ Ľ
ie j
u i
×Ļ ×Ļ×Ŀ
Ġà®¨ à®¿à®²
te l
ÙĤ Ø¯
Ġí Ķ
ĠC on
Ã¡ t
Õ¡Õ¯ Õ¡Õ¶
Ġcom e
ĠJ e
asÄ±n da
a in
Ġs us
æĹ ł
ç ķ
ein e
à¦¾à¦¨ à§įà¦¤
Ġí Ĩ
à¯ģà®ķ à®³
f or
ĠØ´ Ø¯Ùĩ
Ġk imi
p h
§ ç¾İ
à¶ ±
à¦¾à¦ Ĥ
Ø¹ Ø©
ì ¶Ķ
Ġà¤¸ à¤°
íĶ ¼
ow o
ess o
an a
Ġãģ Ĭ
ment s
ĠÄĳ áº¿n
Ġà¦® à¦§à§įà¦¯
áĥĶáĥłáĥ Ĺ
Ġ à¸£à¸
à±ģà°ķ à±ģà°Ĥà°Ł
æ Ľ
Ġà¤¬ à¥Ģ
ëª ħ
ĠÎŃÏĩ ÎµÎ¹
×Ļ× ¢
ÏĢ Î·
à±įà°¯ à°Ĥ
áĥĺáĥĿ áĥľ
ä¿ ¡
è®¡ åĪĴ
Ð¾Ð»ÑĮ ÑĪ
p u
Î² Î¬
ĠÕ «
ĠáĥĽ áĥ¡
Î¯ Î¿Ïħ
ÑģÑĤÐ² ÐµÐ½
ÉĻy ÉĻ
à±ģà°ķà±ĭ à°µ
Ġan d
ĠÎľ Îµ
è¿ ĩ
ĠÐ¾ Ð¿
Û °
áĥĿáĥ ŀ
ļà¸²à¸Ĺ à¹Ħà¸Ĺà¸¢
Î³ Î±
ĠØ¨ ÙĪØ¯
ÐµÐ» Ñı
à°¾à°Ĥà° ¤
Īà¸ °
ÏĪ Î·
20 1
à¯ģà®µ à®¤
Ġå į
å®ĺæĸ¹ ç½ĳç«Ļ
p k
áĥĺáĥ ¦
Ġà¸ª à¹Īà¸ĩà¹Ģà¸ĩà¸´à¸Ļà¸
Ð½ ÑĥÑİ
ĠiÃ§ in
à±ģà°ķ à±ģà°¨à±įà°¨
¢ à¸Ļà¸
Ð¾Ð»ÑĮ Ð·
±à¸ įà¸
Ġs ie
Ġà°¨ à±ĩ
áĥłáĥ Ĵ
ĠØ§ÙĦ Ø±
Ð¾Ð¼ Ñĥ
Ġm ÄĽ
à°Ĥà°¤ à±įà°°
ĠÃ© ta
ê² ½
áĥ£áĥ ®
or a
à¤ ¢
ãĥ ĳ
à§ĩà¦ ľ
ĠgÃ¶r ÉĻ
ti c
ëŁ ¬
à§ģ à¦ķ
ÅĽ ci
Ġgi Ã¡
ãĤ ¨
ÙĤ Ø©
Ġm et
à®Ł à®¿
à¦¾à¦¤ à§įà¦°
Ġ× ĺ
t ra
h a
à¯ģà®ķ à®³à¯į
Ġà¤¸ à¤¬
ĠØ§ Ø±
íķ Ļ
è ³
£ Â
Ġvá» ģ
Ġj s
Ġun s
Ġà¦¨ à¦¿à§Łà§ĩ
Ġt il
Ġà¤µ à¤¹
æĭ į
n oÅĽci
ĠA r
Ġes te
à¤¾à¤ĵ à¤Ĥ
íķ ł
ØŃ Ø¯
à¦¸ à§įà¦¤
æĢ §
Ġan che
ll es
Ġk on
s on
áĥĺáĥ «
±à¸ ģ
à±įà° £
è§ Ħ
Ġà¤ķ à¥ģà¤
Ġà®ª à®¯
Î» Î¹
Ġ×Ķ ×ª
Î¸Î· ÎºÎµ
Ġà°Ĺ à±įà°°
áĥĿáĥ ¨áĥĺ
¬ ¬
ä» ¬
ÐµÐ» Ð¸
ĠØª Ø§
Î¼ ÏĨ
Õ¥ Õ¶
ĠáĥĵáĥĲáĥ ĺ
ÏģÎ¿ ÏĤ
ĠÐ· Ð°Ðº
Ã¼ s
à°¾à°° à°¿
«à¸ ¥
ÏĢ ÎµÎ¹
æĸ ĩ
ÑĢ Ð°Ð·
Ġà¦Ľ à¦¿à¦²
ĠáĥĹáĥ¥ áĥķáĥĶáĥľ
¥à¸ĩà¸Ĺà¸ °à¹Ģà¸ļ
Î² Î±
Ġa p
ĠÐ²Ñģ Ðµ
à°® à±ĩ
Ĭ à¹Īà¸§à¸
ÏĦ ÏİÎ½
à¤¾à¤¨ à¤¾
Ã¤ n
å¿ ĥ
æĪ ĳ
è¿ Ĳ
Ġáĥĵ áĥĺáĥĵ
ªà¸²à¸ ¡à¸²à¸£à¸
ÐµÑģ Ñģ
Å© ng
à±ģà° ¸
Ġà¸ ŀà¸
ÑģÐº Ð¾Ð¹
Ġà¸ Ĺà¸µà¹Īà¸
Ġs Äħ
à°°à±įà° ¶
áĥĿáĥķ áĥľ
c on
Ð¾ÑģÑĤ Ð¾
Ø ¤
à°ķà±įà°ķ à°¡
ĠØ® ÙĪ
ĠÄ Į
áĥĶáĥĹ áĥĺ
un u
éģ ĵ
or s
Ã© n
Ġme m
ìŀ ħ
à¦¿à¦ķ à§įà¦·
m ÄĽ
á»© c
èĢ ħ
×ķ× ŀ
Ġà®ķ à®²
Ùħ Ø©
Ġ us
Ø´ Ø¯
à¦¨ à¦¾à¦°
an Ä±
ĠE in
à¯Īà®ķ à®³à¯į
Ġà¤¦ à¤¿à¤¯à¤¾
Ã³ ÅĤ
u er
Ġn ÉĻ
ij n
Ġn ÄĽ
g li
Ã© es
ìĹ Ń
ÙĦ Ø©
æĥ ħ
Ġà¤¥ à¥Ģ
à§įà¦ Ľà§ĩ
iáº¿ n
ĠØ§ Ùģ
Ġ201 9
ur ch
Ġ ãģ¨
l am
Ġà¦¬à§įà¦¯ à¦¬
Ġà®ĩ à®²à¯įà®²
a Å¼
Ġ×ŀ× ©
f er
áĥĺáĥĹ áĥ®
Ġà¸ ļ
à°¿à°Ĥà°Ĺ à±į
Ġå ¹
æ¸ ħ
Ġent re
ĠÎ¼ Î¿Ïħ
Ġà®ļà¯Ĩà®¯ à¯įà®¯
ĠÎ¬ Î»Î»
à±įà°Ł à±įà°°
áĥĶáĥļ áĥ¡
è £
éĩ į
ÑģÐº Ð¸Ð¹
ĠØ§ ÛĮ
Î¿Î¹ Î½
Ġë Ĳ
áĥĺáĥ¡ áĥĲ
Ïį ÏĦÎµ
Ð Ĵ
Ø§Ø µ
Ġà°ī à°Ĥà°Ł
Ġà¹Ĥà¸ Ķà¸
Ġï¿½ï¿½ï¿½ï¿½ ï¿½ï¿½
åı ¸
Ñĥ Ð½
Ã¼ t
áĥķ áĥł
Ħà¸£à¸ ·à¹Īà¸Ńà¸ĩà¸
Ïģ Î¯Î±
ÃŃ m
Ð Ł
à°³ à±įà°³
à¸£à¸²à¸ °à¸
Î¼ Î¿Ïį
à¥ĭ à¤Ł
s p
å¥ ĸ
Ł ¥
Ġå Ĳ
Ġáĥĵ áĥĲáĥķ
à¹ī à¸Ń
ĠÐ´ Ð²
à§ĭ à¦²
à°¸ à°Ĥ
Ĺà¸²à¸ ĩà¸
ÐµÑĢ Ð¶
Ġà¸ ¥
ĠP ar
Ġà°® à°¹
ĠáĥłáĥĿáĥĴ áĥĿáĥłáĥª
Ġg r
ĠÐ¿ Ð¾Ðº
áºŃ p
Ġà° ·
à¯ģà® ļ
z o
áĥĲáĥłáĥ ¡
Ġì ¡°
Ġà¤ Ĳ
à¦ ŀ
m u
Ġ×ŀ ×Ķ
Ġb ien
Ġa d
Ġà®ĩ à®µ
ÙĦ ÙĪØ¯
ÙĨ ÛĮ
Ġà®µà¯Ĩ à®³
à¦¾à¦ľ à¦¾à¦°
Ø§ Ùĭ
ãģ§ ãĤĤ
Ġêµ ¬
Ġdas s
Ġt ym
Ġà¦¥ à¦¾à¦ķ
Ġin ter
à¤¤ à¥įà¤¤
Ġ {
ãĥ Ĭ
à ²
ĠlÃł m
Ġà®®à®±à¯įà®± à¯ģà®®à¯į
ÉĻ lÉĻrin
Ġtr a
æ¥ Ń
os ti
Ġà¤¬ à¤¹
çĶµ å½±
à§ĭ à¦®
Ġì¶ľìŀ¥ ìķĪë§Ī
ê² ©
à¥ģ à¤®
Ġun tuk
Ġv ar
k on
Ġ×Ķ× Ĺ
Ġ á»Ł
ur es
ãĥ ĵ
ì ¦
ĠáĥĽ áĥĶáĥ¢
ģà¸ ¥à¸
ĠâĢ ¦
åī į
à¤¿à¤ Ł
à¦ ī
ÏĦ Î¿Ïħ
an e
Î¹Îº Î¿Ïį
à±įà°° à°®
ĠáĥĹáĥĲáĥķ áĥĺáĥ¡
åħ ³
Ĭ é¾Ļ
Ð¸ Ð³
Ġc i
ÏĮ Î³
i ent
áĥķáĥĶáĥ §
ÏĢ Î¹
ÑĨÐ¸ Ð¾Ð½
Ã± os
à°ª à±Ī
Ġà¹ģà¸ ¥à¸°
ĠÎĳ Î½
åĬ ¡
Ð» Ðµ
Ø± Ùħ
áĥĺáĥ «áĥļ
ķ à¸´
Î»Îµ Ïħ
h n
ÑģÑĤÐ² Ð°
Ġà°µà°¿à° ·
ģà¸ ´à¸
Îµ Ïĩ
à¤¿ à¤Ĥ
à¦¿à¦ķ à§ĩ
è¿ Ļ
åĮ º
è® ¯
áĥĲ áĥĲ
Ġà¹Ĥà¸Ľà¸£ à¹Ĥà¸¡à¸
Ðº Ð¾Ð²
Ġëĵ ±
à±ģà°¨ à°¿
¥à¸ĩà¸Ĺà¸°à¹Ģà¸ļ à¸µà¸¢à¸Ļà¸
Ð¸ÑĢ Ð¾Ð²
Ġà¸ ľà¸
Ġa le
Ġà°ķ à°¨
Ġáĥł áĥĲáĥª
ĠØ¨ ÛĮ
ĠÐµ Ð³Ð¾
íĴ Ī
à±Ģ à°¨
×Ĺ ×¨
Ã¼ l
áĥķ áĥĶ
è »
à¤Ĺ à¥ĩ
a ar
Ġr is
í ģ
Ġp ow
ar io
Ġà¦ķ à¦¿à¦¨
Ġa m
g ar
Ġol du
ÙĪØ± Ø¯
owan ie
Å Ī
ãģ ļ
ìĺ ģ
Ġà¦¬à¦² à§ĩà¦¨
Ġà¦ı à¦¸
Ġg ia
à¤ķ à¥ĭ
ĠÙħ Ø§
Ġau t
Ġz e
Ġà¦ķà¦° à§ĩà¦¨
Ã¤ t
ãĤ ĥ
é ł
Ġpor no
Ġi mp
Ġà¤ľ à¤¿à¤¸
Ġà¤ĩ à¤¨
Ġde ngan
ë° Ķ
Ġì ½
à¥ģ à¤¦
à® ¨
Ġà¦¦ à§ģ
Ġ×ĳ ×Ĳ
ĠktÃ³ re
ãĤ¤ ãĥĪ
Ġà®¤ à®²
Ã¶v lÉĻt
ìĿ¼ 1
ĠáĥĽáĥĺáĥ¡ áĥĺ
ī à¸
Ġà°ħ à°Ĥà°¤
åĬ ł
å ķ
Ø§ Ø´Øª
Îµ Îº
is chen
ĠÏĥ Î·
à°Ł à±įà°²
áĥĶáĥĳ áĥĶáĥļáĥĺ
Ġ ä¸Ģ
à¨¾ à¨
ÑģÑĤ Ð°Ð²
Ġà¦¸à¦® à§Ł
ÎĻ Îĳ
o k
áĥĺáĥ ĳ
ĠÎºÎ± Î¸
Ð» Ð°
Ġb aÄŁ
Ġà°Ĩà°¯ à°¨
à¹Īà¸² à¸Ļà¸
Î ĵ
Ġç Ķ
Ð» Ð°Ð´
à¯įà®ļ à®¿
Ġáĥ¨ áĥĶáĥľ
«à¸ ¡à¸²à¸
Î»Î¿ ÏĤ
Ġ Å¾
Ð¸ ÐµÐ¼
à±Ĥà° ª
Ĺà¸µ à¸
Î¼ÎŃ Î½Î¿
à¥įà¤ §
ÙĬ Ùģ
ç ³
åĲ Į
è ĭ
áĥĲáĥ¨ áĥķ
ªà¸ ³à¸«
ÑĥÐ» ÑĮ
ĠìĬ ¤
à°ķ à°°
à¸£à¸²à¸Ħ à¸²à¸
ĠÐ¿ Ð¾Ð¼
ķ à¹Į
ic as
Ġà°¨à±ģà°Ĥà° ļà°¿
áĥķ áĥĲáĥľ
áº¥ y
Ð¾ÑĢ Ð¾Ð´
ĠÃ ¥
el u
ĠÃª tre
ĠâĢ İ
áĥĲáĥ Ķ
Ġ1 2
Ġà¤°à¤¹ à¤¾
m Ä±ÅŁ
Ġà¦° à¦¾à¦ľ
Ġc am
Ġâ Ķ
Ġâ ĸ
à¯ģà® ´
à¦¿à¦ ·
Ġb ÄĻ
ov Ã©
en za
ĠØ§ÙĦ ÙĪ
en i
Ġt áº¡i
Ġìŀ Īëĭ¤
âĢĮ ÙĩØ§ÛĮ
Ġc as
Ġà¦ªà§įà¦° à¦ķ
åľ¨çº¿ è§Ĥçľĭ
Ġh ÉĻm
Ġà®µ à¯Ģ
cy j
Ġwir d
×ķ× ¦
Ġp res
à§ĩà¦Ľ à¦¿à¦²
çī ©
to v
ĠæĹ ¥
Ġà¤¸ à¥įà¤µ
à¯įà®ª à¯įà®ª
Ġâ Ĩ
ë Ħ
à¤¤ à¥įà¤°
Ġdz ie
Ġd is
ĠÙĦ Ø§
iá»ĩ u
szy st
ĠM ar
a dÉĻ
Ġa i
áĥ£áĥ ĵ
Ġà¸ ¡à¸
à°¾à°² à°¨à±ģ
à¤¾à¤Ĥ à¤ļ
Ġà¤¯ à¤¾
à¯Īà®ķ à®³
Ïĥ Î¯Î±
Ġì Ļ
ÏĦ ÎŃÏĤ
à°¾à°² à°¨à°¿
áĥĺáĥ£áĥł áĥĺ
Ġåľ ¨
çŃ ī
Ð¾ ÑĪ
t il
ÏģÎ¯ Î¿Ïħ
ng e
Ġáĥŀ áĥĺáĥł
ĠÎ¼Îµ ÏĦÎ±
Ð¸ÑĤ Ðµ
ra w
à±ĩà° ª
§à¸ ±à¸Ļà¸
ĠÏĥ ÏĦ
æ° ĳ
ĠÐ± ÐµÐ·
Ùĥ ÙĨ
Ġáĥ¡áĥĲáĥ® áĥĶáĥļ
à¸Ńà¸ µà¸
Î½ Ïī
¡ Â
ĠÐ¿ÑĢ Ð°Ð²
Ġà°ħ à°Ń
Ġà¸ªà¹Īà¸ĩà¹Ģà¸ĩà¸´à¸Ļà¸ ļà¸²à¸Ĺà¹Ħà¸Ĺà¸¢
ÏģÎ¿ Ïį
Ġà¤ķà¥ģà¤ Ľ
Ġc áº£
Ġ Ĉ
è§ £
äº Į
ĠáĥĶáĥłáĥĹ áĥĺ
Ġ $
ĠÐ¿ÑĢ Ð¾Ð´
n ost
Ġà°¸ à±įà°µ
Ħà¸¸à¸ ĵ
Ð¸ÑĢ Ð¾Ð²Ð°Ð½
ģ à¸£à¸°à¸
Ġ×ķ ×Ķ
à°Ĥà°¡ à°¿
áĥĶáĥ¡ áĥĺ
Õ¡ Öģ
Ð¾Ð» Ð½
Ġa cc
à±ģà°¤ à±įà°µ
cj e
ĠÕ ¿
áĥĲáĥł áĥĶ
m iÅŁ
Ġin i
ĠA us
ĠìĨ Į
à¤¾à¤ ģ
à®¾à®³ à¯į
ob re
Ġh e
Ġl ub
asÄ±n Ä±n
à¯Īà®¯ à¯Ī
ãģĹ ãģĦ
Å¾ ÃŃ
ëĲ ĺ
Ġc ette
Ġ ÉĻm
ãĥ »
ãĤ ĩ
Ġs áº½
ĠD as
Ø§Ùħ Ùĩ
à¯įà® ¸
en cia
ÄŁ i
Ä± lÄ±
en ce
×ķ× Ĵ
owe j
à§įà¦¯ à¦¾à¦²
ĠÙĪ Øª
ĠØ³ Ø§ÙĦ
h t
ãģª ãģ©
d nÃŃ
ķàµįà´ ķ
Ġà¤µ à¥įà¤¯
ab le
t ro
a ÅĤ
Ġà¦Ĩ à¦¬
ĠC om
ĠÃ§ Ä±x
it s
áĥĲáĥ® áĥļ
à¸´à¸ Ķà¸
Ġà°ļà±ĩà° ¶
å± ķ
à¯Īà® ¨à¯įà®¤
ĠT e
Î¬ Ïģ
ãģ¾ ãģĽ
ÏĢ ÏīÏĤ
à±Ĥà° ²
ĠáĥĽ áĥĿáĥľ
1 8
éĴ Ł
ÑģÑĤ ÑĢ
Ø¨ Ø©
ÏģÎ± Î³
ìĭ ¤
áĥĲáĥł áĥĺáĥ¡
Î¸ Î®
Ñĥ ÑĪ
áº ±
à°¾à°² à±ĭ
à¹Ĥà¸£à¸ ĩ
Î Ķ
éĢ ļ
ĠÐ½ Ð¾Ð²
Ġà¤¦ à¥ĩà¤ĸ
áĥĲáĥ¥ áĥ¢
Ġà¸ ¥à¸ĩà¸Ĺà¸°à¹Ģà¸ļà¸µà¸¢à¸Ļà¸
ÏĦÎ¹Îº ÎŃÏĤ
à§ĩà¦² à¦¾
ĠÐ² ÑĢÐµÐ¼
Ġà°° à±ĭà°ľ
¡à¸²à¸ ģà¸
ĠÎ ¡
Ġa da
Ġm Ã©
çĤ ¹
æľ Ł
éķ ¿
áĥĲáĥ §
¸à¸ ģà¸
ĠÐ² Ð¸Ð´
Ġà§ «
Ġà°ļ à°¾à°²
Ġ0 0
Ð» ÐµÐ½Ð¸Ñı
Ġà¸¥à¸ĩà¸Ĺà¸°à¹Ģà¸ļà¸µà¸¢à¸Ļà¸ Łà¸£à¸µ
Ġìľ ł
Ġà°ħ à°²
áĥĽ áĥĺáĥ¡
i f
Ñı Ð·
Ø§Ø± Ùĩ
à±ģà°¨ à±ģ
à¦¤ à§įà¦¤
d ur
áĥĺáĥľ áĥĺáĥ¡áĥ¢
×Ļ× ĺ
ĠN ie
Ġà¤¸ à¥įà¤¥
ov Ã¡
Ġein en
ant es
à®¿à®¯ à®¾à®ķ
Ø§Ø ·
Ġs am
gg io
a f
Ġc ar
Ġà¦¬à¦¿à¦¶ à§įà¦¬
Ġne j
il er
l ay
Ġà® ĵ
Ġp rz
à¤°à¥įà¤ µ
Ġp la
ìĥ Ŀ
Ãª u
ĠØ¯ Ø³Øª
Ġa b
Ø¹ ÙĦ
Ġà§ ¦
il ÉĻn
×© ×¨
Ġà¦ķ à¦¥
Ġà®µ à®¿à®Ł
Ġb ar
ìĿ¼ 2
ê° ķ
¼ åĲĪ
Ġà¤ļ à¤¾à¤¹
Ġa an
íĨ ¡
íķ ©
t ure
Ġà¦ķ à¦¾à¦ľ
Ġp om
Ġd á»¥
ier t
ĠáĥĴ áĥĲ
à¹īà¸²à¸ ĩà¸
à°Ĥà° ¬
¯ åıĳ
åĭ ķ
Ġà®ī à®Ł
Î¿ Ïģ
ĠØ º
ĠÏĥ Î±ÏĤ
elu gu
Ġáĥ¥ áĥĲáĥłáĥĹ
ĠæĪ ĳ
äº Ķ
ĠÐ¾ ÑĢ
à¤¢ à¤¼
Î¼Î± ÏĦÎ¿ÏĤ
Ġfa it
áĥĲáĥª áĥĺáĥĲ
ĠÎº Ïħ
Ð¾Ð¿ ÑĢ
s an
Ġà°ī à°Ĥà°¦à°¿
ģà¸²à¸£ à¹Ģà¸
Ïħ Î½Î±
Ġæ ī
Ñĭ ÑĪ
Ġk om
áĥĲáĥķ áĥĺ
łà¸²à¸ ŀà¸
Ïĥ ÎºÎµ
à¦¾à¦² à§ĩ
Ð°Ñģ Ñģ
à°Ĥà°¦ à±ģà°ķà±ģ
à¸²à¸ ģ
ĠÏĥ Ïĩ
Ġp ri
ìĦ ł
Ġæ ĸ
å¾ Ĺ
app ä¸ĭè½½
áĥĶáĥ ¤
¢à¸ §à¸
Ð¾ÑģÑĤ Ð¸
à¯ĭ à®¤à¯ģ
Ġà°µ à°°
à¹Īà¸² à¸Ļ
ĠÐ¸ ÑģÐ¿
ŀà¸Ļà¸ ±à¸Ļà¸
à¥ģ à¤ª
à°Ł à±įà°²à±ģ
áĥĺáĥ£áĥ ļáĥĺ
on e
ĠÐ¼Ð¾Ð¶ ÐµÑĤ
Ġà§ ª
à°¡ à°¾à°¨à°¿à°ķà°¿
à· Ģ
Ġà¦ı à¦®
áĥĲáĥĿ áĥĳ
Ġë ¹Ħ
Ġnh Ãł
à¤ķ à¥įà¤¤
Ã¼ ck
Ã¡ m
j et
Ġà®ķ à®¾à®²
ĠâĢİ #
ĠB ak
Õ¸ÖĤÕ©Õµ Õ¸ÖĤÕ¶
Ġ1 1
×Ļ× ŀ
Ġfa ire
ĠØ§ ÛĮØ±
b ie
Ġo lar
à¦¿à¦ ļ
ÙĬ Øª
Ġà¤¹à¥ģà¤ ı
c ar
Ø´ ÛĮ
åı ĸ
Ġs v
Ġt ien
t k
Ġd ari
lÉĻ ÅŁ
Ġà¦¤ à¦¾à¦¦à§ĩà¦°
Ġcom me
ìĿ´ ëĭ¤
ãĥ Ķ
ĠÙħ Ø´
Ġw ar
¨àµįà´ ¨
à¤ķ à¤¿à¤¨
Ġà®ļ à®®
ãĥ¼ãĥ ī
Ġa ll
ĠÄĳ Ã³
Ġg o
ĠA l
Ġà®İ à®´
×Ļ× ¤
áĥĲáĥ ©
à¹ĥà¸Ĭà¹īà¸ Łà¸£à¸µ
à°¾à°Ĥà° Ł
pk 10
ãĥ¼ãĥ ł
ĠØ§ÙĦØª ÙĬ
ĠÎµÏĢ Î¯
ë© °
ÏĦ Ïī
à±įâĢĮ à°²à±ĭ
Ġáĥ¥ áĥĲáĥļ
åĳ ĺ
éĩ ı
ĠÐ¼Ð¾Ð¶ Ð½Ð¾
ĠØ¯ ÛĮ
Î³ÏģÎ± ÏĨ
à§ģà¦° à§ģ
ĠáĥĴ áĥĲáĥĺ
Î´ Î®
ĠÐ´ ÑĢÑĥÐ³
Ġà¤¤ à¤°
Ġper o
Ġà¸Ĺà¸Ķà¸¥à¸Ńà¸ĩ à¹ĥà¸Ĭà¹īà¸Łà¸£à¸µ
Î¹Îº ÎŃÏĤ
æ ¶
ĠÐ ¥
à±ģà°Ĥà° ¡à°¾
Ġáĥķ áĥĶáĥł
à¸²à¸ ªà¸´
Î½Î¿ Î¼
Õ¸ ÖĢ
Ñĥ Ñħ
Ġà®¨ à®¿à®±
à¸£à¸²à¸Ħ à¸²
ÏģÎ¹ Î½
Ġc ou
Ã½ m
å¤ ĸ
ä¸ İ
ĠåĮĹäº¬ èµĽè½¦
áĥľ áĥĶáĥļ
Ġà¹Ģà¸ ¡à¸
ĠÐ´ Ð¾Ð»
Ġil e
ĠP ol
Ġà¹Ĥà¸Ľà¸£à¹Ĥà¸¡à¸ Ĭà¸±à¹Īà¸Ļ
Ð» Ð°Ð²
Ġà¸ªà¸ ¥à¹ĩà¸Ńà¸ķ
Ġbe z
Ãª me
áĥľ áĥĿáĥĳ
Ġp Ã¥
Ñı Ð½
Ã£ o
i os
à°¾à°² à±įà°²à±ĭ
Ġà¦ķ à¦¾à¦
ĠáĥĽ áĥĵ
à¥įà¤ ¡
à®¸ à¯į
u o
Ġw iÄĻ
³ Û
ĠØ¯ ÙĪ
à¦¾à¦° à¦¾
Ġy ax
Ġà°ª à±Ĭ
is ta
ãĥ³ãĥ ī
é¦ Ļ
ç² ¾
Ġ ont
ĠØ§ÙĦØ °
me k
Ġson ra
Ġ×Ķ× ¢
à¤¿à¤ ĸ
Ã² ng
à®¤ à®¿
i da
´ë Ŀ¼
Ġm an
¯ ¼
à±Ĩ à°ķ
se m
à¯ģà® ªà¯į
p l
Ø± Ùģ
Ġà¦¨ à¦¾à¦®
Ġc Å©ng
ê± °
Ġà¤ľ à¤¬
à°® à±ģ
è¨ Ģ
Ġz ÅĤ
ĠpÅĻe d
ĠÃ¶l k
Ġà¤ħà¤§ à¤¿à¤ķ
Ġpo z
ĠØ¯Ø§ÙĨ ÙĦÙĪØ¯
Ġà®ª à®°
Ġáĥŀáĥĺáĥłáĥ ķ
à¹Ĥà¸ Ķà¸
à±Ĩ à°¨
äº ī
Ú¯ ÛĮ
Ġà¦¬à¦¿à¦ Ń
Ïİ ÏģÎ±
Ġk ann
Î¯ Î¿
×ł ×ķ
Ġáĥ¡áĥĲáĥ ĳ
æķ °
å ¢
ÑģÐº Ð¾Ð³Ð¾
il i
ĠÏĥ Ïį
Ġà°® à°¾à°Ł
áĥĲáĥª áĥĺáĥĺáĥ¡
Ïĩ Î±
Ð°Ð½ ÑĤ
Ġm Ãł
ê° ľ
à¹ĥà¸ Ī
ÏĦÎ¿ Ïį
4 4
ĠÐ¾ Ñĩ
Ġà®µà¯ĩà®£à¯įà®Ł à¯ģà®®à¯į
Ġáĥŀ áĥĿáĥļ
à¹ĥà¸«à¸ ¡
Î¹Îº ÏİÎ½
à¦§ à¦¾à¦¨
Ð´ Ðµ
ci as
à¹ģà¸¥ à¹īà¸§
Î» ÎµÎ¹
ÙĬ Ø§Øª
Ġà°ħ à°¦
ä¿ Ŀ
å¼ ı
Ġçİ¯äºļ ag
áĥľ áĥĲ
à¸Ļ à¹īà¸
Ð½ÑĭÐ¼ Ð¸
owa Äĩ
Ġzu m
Łà¸¸à¸ķà¸ ļà¸Ńà¸¥
Ð°Ðº ÑĤ
¶ à¹Īà¸ĩà¸
Ġcon s
à¦Ļà§įà¦Ĺ à§ĩ
© áĥĶáĥķ
Ø¨ ÛĮ
Ð¾ ÑģÐº
Ġà¤²à¥ĩ à¤ķà¤¿à¤¨
ì¶ľìŀ¥ ë§ĪìĤ¬ì§Ģ
Ġìĭ ł
×Ļ× ¡
ĠáĥĴ áĥĲáĥķ
Ġ Õ¡Õ
Õ¸Õ ¾
Ġq al
Ġà®¤ à®©
à¦° à§ĩà¦°
à±ĭ à°Ĥà°¦à°¿
Äĥ n
Ø§Ø ¶
Ġà°ªà±įà°°à°Ń à±ģà°¤à±įà°µ
Ġmo Å¼
Ġd at
Ġo r
as s
ëį °
ç ĥ
Ġà¤ľ à¤¾
à¦¾à¦ £
à®° à¯ģà®®à¯į
g ra
Ø´ ÙĨ
ĠÄĳá» ĭ
ãģ¾ãģĽ ãĤĵ
Ġëı Ļ
ĠØ£ ÙĪ
Ġà¤ª à¥Ģ
à°¿à° ¶
à®ķà¯įà®ķ à¯ģ
ut as
en er
p ar
Ä± k
à¦ª à§ģà¦°
é«ĺ æ¸ħ
à¤°à¥įà¤ ¤
à°¿à°¨ à±įà°¨
à§Ģ à¦¨
Õ¸Õ ²
Ã¼ z
b eit
Ġne bo
à® ŀà¯įà®ļ
ĠÙħ Ø±
à¥ĭ à¤²
áĥľ áĥĶáĥĳáĥĲ
à¸£à¸²à¸ ¢à¸
à°° à°¿à°ķ
Ġæ ŀ
g t
us z
ĠÎŁ Î¹
ĠdÃ© c
ÏģÎ¹ Î¿
à®¿à®ķ à¯į
áĥĿáĥłáĥ ¢
Ġ à¥
åĪ ¶
Ð°ÑĤÑĮ ÑģÑı
ìĭ Ŀ
Î¿Î½ ÏĦÎ±Î¹
Ġà°¸ à±įà°¥
Ġáĥłáĥ £áĥ¡
Î³ Î¬
Ð Ķ
Ġ×© ×Ķ
Õ¥Õ ¿
¤ à¸
Ïģ Îº
Ġag äºļæ´²
Ð¾Ð³ Ð´Ð°
Ġis ÉĻ
ĠáĥĹ áĥĳ
ªà¸ ¹à¸
ĠÎ¸ Îµ
¹ Û
ÐµÐ½ Ð°
ĠÙħ Ø³
ªà¸ Ķà¸
ĠÎ´ Îµ
à¦¾à¦° à§ĩà¦°
ic i
Ġ çļĦ
Ġag çľŁäºº
ç³ »
áĥĶáĥĳ áĥĸáĥĶ
Ġ à¸Ń
Ð¾Ð± Ñĭ
i cz
h al
Ľà¸£à¸°à¹Ģà¸ Ĺà¸
Ðµ Ñī
«à¸£à¸ ·à¸Ń
á» ģ
à°¾à°· à±įà°Łà±įà°°
áĥĿáĥļ áĥĿ
ç ·
Ð»Ñİ Ñĩ
Ġs obre
à¦°à§įà¦ ¥
à¤¿à¤ ª
à®¾à®± à¯įà®±
áĥĿáĥ ĸ
Ġ1 5
Ġy aÅŁ
ãĤĮ ãĤĭ
on d
owan ia
Ġà°ªà±Ĩ à°Łà±įà°Ł
Ġìĺ ģ
an no
à°¾à°Ł à±ģ
Ġd on
g er
Ø¯ ÛĮØ¯
Ã¡l nÃŃ
à§ĭ à¦ķ
Ġà¤¥ à¥ĩ
Ġprze d
ĠÕ Ģ
à®¾à®¤ à¯ģ
Ġper son
ak an
r ie
Ġì ¢
ãģ¨ æĢĿ
×ľ ×Ķ
Ġh Ãłng
à±ģà°² à°ķà±ģ
ÄĻ p
Ġà®ħà®¤ à®¿à®ķ
åĨ Ĩ
ĠÙħ Øª
ãĤ¹ ãĥĪ
sk Ã©
ĠP our
à¦¸ à¦²
à±Ģ à°¡
Ġà¤¯ à¥ĩ
ey d
lar a
à¦¿à§Ł à¦¾
ch o
ĠD er
ch er
à¦¤ à§įà¦¯
Ġáĥ¬ áĥĺáĥľ
ŀà¸ ·à¹Īà¸Ńà¸
à±Ĩ à°°
åĪĨ éĴŁ
Ġ à¬
ç» ¼åĲĪ
ĠÎľ Î±
Ġà¤¦ à¥Ģ
Îº Î±Î½
Ġé Ģ
Ġáĥ¥ áĥķáĥĶáĥ§
Ġà¤¤ à¥įà¤¯
èµ Ħ
ĠÑį Ðº
Ã¨ me
ÎĳÎ ¤
à°¾à°° à°¾
áĥ® áĥĽ
ÎĻ Î£
Ð ľ
Ġë§ Į
Õ ¤
à¸´à¸ ĩà¸
Ïĥ Î¿ÏħÎ½
Ġ á
ÑĦ Ð¾ÑĢÐ¼
ari x
ĠáĥĶ áĥĻ
Ġ à¸Ļà¸
Î´ Î¹Î¿
à§Ģ à¦¬
Ñī Ðµ
Ġf o
ªà¸ ¥à¹ĩà¸Ńà¸ķ
Ïĥ Î±Î½
Ġà¤ħ à¤¬
ĠQ u
å» º
Ġåĩ ¯åıĳ
ĠãĢ ĭ
ĠáĥĲáĥł áĥĲ
Ġà¸ ĸ
ĠÑģ Ð¾Ð±
Ġà®ļà¯Ĭ à®²à¯įà®²
ãĥķ ãĤ
Ġà¹Ģà¸ ĩà¸´à¸Ļà¸
ĠÐ½ Ð°Ð¿
à¹Ģà¸ ª
Ġà® ¸
à°°à±įà° ļ
Ġáĥ¡ áĥ¬
à§ģà¦ ĩ
Ð¸ Ð¿
as z
ad os
Ġà¤¨ à¤¿
ÙĨ Øª
áĥ¡ áĥĲáĥ®
di b
Õ¸ ÖĢÕ
Ġ×ĳ ×¢
ĠvÃł o
ĠÃ© tÃ©
à°Ĺ à±įà°Ĺ
Ġê¹ Ģ
ì ħ
Ġà¦¸ à¦¹
ãĥ į
ÙĨØ¯ Ùĩ
ar z
Ġà°¨ à°¾
Ã¶ r
à¤¾à¤ ¶
Ġg ratis
Ġda ha
al iz
Ġë ħ
p ra
à®¾à®¯ à¯į
ãĤ ±
k e
Ġà¦®à¦§à§įà¦¯ à§ĩ
ĠÛ ²
Ġà°ªà°¾à°° à±įà°Ł
ÛĮ Ú©
ÙĬ Ø¹
Ġà®Ĩ à®ķ
ë¶ Ħ
pa Ã±
os z
Å¡ tÄĽ
æ §
Ġà°¤ à°°
à¥Į à¤°
u d
y o
t t
/ /
Ġ: //
im ul
al am
áĥĲáĥ® áĥĶáĥĳ
³ à¸Ļà¸
ĠÙĪ Ø£
ç ©
à´ ¯
Ġà¤° à¤¹à¥Ģ
Î· ÏĥÎ·
à±ģà° ļ
Î¸ ÎŃ
×Ļ× Ľ
ĠáĥĲáĥĵáĥĲáĥĽ áĥĺáĥĲáĥľ
åĪ ©
Ġæ ĺ
Ð° ÑİÑī
Ġà´ ª
ĠÏĢ Î±Î¹
ÙĤ ÛĮ
áĥª áĥĲ
Î³ Î®
ÐµÐ½ Ð¸Ð¸
Ġtr Ã¨s
à§įà¦ Ľ
·à¹Ī à¸Ńà¸ĩ
Î© ÎĿ
Ġé ĩ
Ð¿ÑĢ Ð°Ð²
à±ĩ à°²
áĥĲáĥłáĥĹ áĥļ
à¸Ńà¸ Ķ
ĠÎł ÏģÎ¿
Ġà®ķ à®Łà¯įà®Ł
Ð¸ÑĤ ÑģÑı
ion es
Ĺà¸ ±à¹īà¸ĩà¸
Ïĩ ÎµÎ¹
à¤¾à¤ ·
Ġìļ °
èµ Į
æŃ £
è® ¾
áĥ¡ áĥ¢
Ġà¸ ķà¸
Ð°Ð¶ Ð´
áº «
at y
«à¸Ļ à¹īà¸²à¸
ÑĤ ÑĮ
Ħà¸ ¡
Ġs ein
Ùħ Ø±
áĥĲáĥļáĥĺ áĥĲáĥľ
ĠÕ º
Ð¼ Ð¸
Õ¡Õ ®
ÉĻ ll
is se
Ġà¦Ĩà¦® à¦¿
áĥ®áĥĿáĥķ áĥł
p is
à±ģà°Ĺ à±ģ
Ġt u
Ġà¦ķ à¦¿à¦Ľ
æĶ ¾
ĠÕ ¤
al q
ĠD E
u est
à±ĭ à°Ł
is ation
m ento
ĠìŀĪ ëĬĶ
Å¯ j
Ġà¤Ńà¤¾à¤° à¤¤
du c
ÉĻc ÉĻk
Ġw szyst
Ø¨ Ùĩ
k ol
à®¿à®¯ à¯ģà®®à¯į
et ti
×Ļ ×ķ
Ġt ou
Ġv ideos
Ġà°Ĩ à°°
ia mo
Ġl áº¡i
il ÉĻ
Ø§ÛĮ Øª
ÃŃ s
r ess
Ġz na
ÙĨ ÙĬ
à®¤ à¯Ī
à¤¦ à¥Ģ
à§ĩà¦¨ à§įà¦Ł
ti ca
us e
à°¾à°¨ à°¿
åĽ ŀ
ĠÛĮ Ø§
or d
áĥļ áĥĺ
Īà¸±à¸ Ķà¸
ê¹ Į
æ ģ
Ġà¤° à¥Ĥà¤ª
à¤® à¥ĩà¤Ĥ
ÏĦÎ· ÏĤ
à¯įà® ¨
ĠÎ Į
ĠØ °
áĥ£áĥł áĥĲáĥĵ
éĹ ´
æĬ ¥
Ð½Ð° Ñĩ
à§ĭ à¦Ł
Îµ Ïį
Ġà°¨à±ģà°Ĥà° ¡à°¿
áĥ£áĥ ĳ
Î½Î¿ Î½
ÑĢ Ð°ÑĤ
à®µ à¯ģ
ĠK Äį
Ġà¸ŀ à¸Ļà¸
ÏĦÎ¹Îº Î®ÏĤ
è¡ ¨
ĠÑģ Ð¾Ð²
k la
áĥĺáĥ ®
Īà¸£à¸´à¸ ĩ
Î¼Îµ Î½Î¿
p owie
ĠÐºÐ¾Ð¼ Ð¿
Ġtr Ãªn
à¹Īà¸²à¸ ¢à¸
ĠÎ±Î½ Î¬
Ġb es
owe go
é Ĥ
Ġè¿ Ļ
åħ¬ åı¸
ĠáĥĵáĥĲáĥ Ļ
à¸Ńà¸¢à¹Īà¸²à¸ ĩà¸
ÑģÑĤÐ² Ð¾
Ġâ ĩ
Ġë ¯¸
ķ à¹Īà¸²à¸
ĠÑģ ÐµÑĢ
ģà¸ ±à¸Ļà¸
el er
or o
ĠáĥĽ áĥĲáĥľ
m an
ÐµÑĤ ÑĮ
àµįà´ ¤
Ġà¤ķ à¥Ī
ä» ĺ
Ġs es
Ġáĥ¨áĥĶáĥ¡ áĥĲáĥ®áĥĶáĥĳ
ĠÃ ĩ
×¤ ×¨
Äį ÃŃ
ãĥĥ ãĥĹ
Ġm Ãªme
Ġà®ī à®£
Ġà¦¦ à¦¿à¦¨
ï¼ ¿
k Ã³w
æĦ Ł
ut sch
il ib
çĽ ®
Ġà¦¹ à¦²
Ġà¤¦ à¤¿à¤¨
or i
Ġê ´Ģ
Ġà°İ à°¨à±įà°¨
ĠØ¹ ÙĦÙĬ
larÄ±n Ä±n
Ġme j
à±Ĩ à°Ĥà°Ł
Ġno ch
Ġ20 0
Ã© ra
áº »
Ġj sem
à¯ģà®ķà¯įà®ķ à¯ģà®®à¯į
g un
ĠpÅĻ i
ãģł ãģĳ
ÙĤ ÙĬ
ob ie
ĠÚ© Ø´
ier en
Ġà¤¬ à¤¾à¤¤
Ġs ah
Ġr ic
Ġà®µà®¾à® ´
Ġmo Å¼e
ent s
ç¤ ¾
×ŀ ×Ķ
ĠáĥĲáĥłáĥ ¡
à¸£à¸ ¹
Ġà¦¹à§Ł à§ĩ
é ĥ½
è į
Ġà¤ľ à¤¾à¤¨
ĠÎ± Ïĥ
Ġì¹´ íĨ¡
ÏģÎ¿ Î½
íĸ Īëĭ¤
áĥĵ áĥĺ
æı Ĳ
Ġå° Ĭé¾Ļ
Ð² Ð¾Ð´
à±ĭ à°¦
ÏĥÎµ ÏīÎ½
Ġà®¨ à®¾à®©à¯į
ĠáĥĽáĥĹ áĥĲáĥķ
ĠÎ´ Î¹Î¬
Ð¸Ðº Ð°
à®¿à®² à¯ģà®®à¯į
áº· t
Ġà¹Ģà¸ Ħà¸£à¸Ķà¸´à¸ķ
ĠÎĳ Ïħ
ä½ į
ĠÐ¾ Ðº
Ġg li
Ġáĥ« áĥĲáĥļáĥĺáĥĲáĥľ
ľà¸¹ à¹ī
Îº Î¹
Ġà°¸ à±įà°Ł
Ð½ Ðµ
Ø¯ Ø©
Ġ25 6
ÎĳÎ Ŀ
Ġcz as
v y
é Ķ
åĨ ħ
æ° ´
Ġáĥĺáĥľ áĥ¤
à¹Ģà¸ ķ
ĠÐ ¯
E R
r ar
à¸£ à¹Įà¸
ĠÐ± Ð¾Ð»ÑĮÑĪ
ª à¸´à¸
Ġâ Ĥ¬
Ġr en
ĠáĥĲáĥ ļ
Ġein er
ĠÐ· Ð°Ð¿
Ġà¤µà¤¿à¤ ¶
à¦ª à§įà¦°
à¥Ĥ à¤²
m ay
Ġáĥ¨ áĥĶáĥĵ
v en
Ø§Ø± Ø¯
à®¤à¯įà®¤ à®¿à®©à¯į
ÅĤa d
ìĹ °
à¦Ĺ à§įà¦°
à°¾à° ļ
Ġs ay
Ġ1 8
Ġnh iá»ģu
íĨ ł
à¤¾à¤ §
×ķ× Ľ
cz Äħ
jer es
Ġà¦¬ à¦Ľ
c io
a i
à±įà°¯ à±Ĥà°
ĠÙĦ Ùħ
Ġc or
ì Ī
Ø¨ Øª
Ġpar t
Ġà¤ķà¤° à¤¤à¥ĩ
l ov
da ÅŁ
h er
à§įà¦¤ à§ģ
ĠãĤ ·
à¯ģà®³à¯įà®³ à®¤à¯ģ
owan e
d ar
íĺ ¸
g es
à±ģà°Ĥà° ¡
ï ¾
Ġ ãģ®
Ġà°ķà±ĭ à°¸à°Ĥ
Ġà¦¹ à¦¯à¦¼
end re
ÉĻn in
Ġï¼ Ł
áĥĿáĥļ áĥĿáĥĵ
à¸´ à¸Ļ
ãĥ Ģ
åŁ İ
Ġe mp
Ø¬ Ùĩ
Ïĩ Î½
ìĿ Į
ĠÏĩ Î±
l ÃŃ
Ġáĥ§áĥķáĥĶáĥļ áĥĲ
è¯ ´
ĀĀĀĀ ĀĀĀĀ
ÑģÐº Ð°Ñı
à¤¿à¤ ľ
ÏģÎ¹Ïĥ Ïĥ
Ġb o
Ġáĥ¡áĥĲáĥ¥ áĥĽ
Ïĩ Î®
Ð¾ Ñī
à®Ł à¯ģ
à°¿à° ¡
ŀ à¸´à¸
Î¾ Îµ
å¼Ģ æĪ·
ĠÐł Ð¾ÑģÑģ
ol a
áĥĿáĥĳ áĥĲáĥ¡
Ķà¹īà¸§à¸ ¢à¸
Î¼Î± Î½
Ġà®® à®ķà¯įà®ķ
ĠÑĤ Ð¾Ð»ÑĮÐºÐ¾
te m
Ġà¹ģà¸ Īà¸
Îķ Î£
à±ģà°² à°¨à±ģ
Ġ×ĳ ×ŀ×
ç¨ ĭ
ç Ŀ
è Ĭ
ĠáĥĽ áĥĲáĥĺ
Ġà¸ Ĺà¸µà¹Ī
ÑĢ Ñı
ĠìĦ ł
z en
· à¹īà¸Ńà¸
Ð¾Ð» Ð¾Ð³
Ķ à¸²à¸
ÙĪ ÙĤ
Ġà¤ķà¤° à¥ĩà¤Ĥ
áĥĶáĥķ áĥĶ
á»ĳ ng
ĠÐ¸Ð½ ÑĤÐµÑĢ
Ġre c
ÅĽ Äĩ
à¯Ĩ à®¯
Ġm ÉĻl
ĠáĥĴ áĥĲáĥł
Ø³Øª Ø§ÙĨ
ä½ ¿
ĠÕ £
ĠtÉĻr ÉĻf
Ġà¤® à¥ĭ
à°¾à°Ĥà° Ĺ
f ic
ier s
çĪ ±
çĲ ĥ
ÅĤe m
à· ı
êµ Ĳ
à®° à¯Ī
Ġà°ļ à°¿à°¤à±įà°°
ĠØ§ÙĦØ ·
jÄħ ce
à¦¸ à§įà¦¯
Ġk Ã¶n
w s
Ø¹ Ùĩ
et ta
Ġ *
Ġs ou
Ġà¤ķ à¥įà¤¯à¤¾
tt p
p at
ÉĻs t
Ġ om
Ġà®ª à¯ĩ
çĻ º
à¦¾à¦® à§Ģ
Ì ģ
Ãł o
Ġà¦¶ à¦¿à¦ķà§įà¦·
à°°à±įà° ª
cia l
Ġìĺ Ī
à°° à°¿
Ø§ÛĮ Ø¯
Ġà®ħ à®´
×ł ×Ķ
an ti
áĥļ áĥĶáĥĳáĥĺáĥ¡
Ġà¸ §à¸´à¸
in iz
å¤ §åıĳ
an y
Ġà¦ķà¦° à§įà¦®
ĠÎ® ÏĦÎ±Î½
O N
ĠÎ½ ÎŃ
Ġe lle
áĥĲáĥĵáĥĴ áĥĶáĥľ
à¤ ³
à© Ģ
ĠÐ¿Ð¾Ð» ÑĥÑĩ
Ġà¤® à¥Īà¤Ĥ
ÏģÎ¹ÏĥÏĥ ÏĮÏĦÎµ
à¦¾à¦¨ à§ĩà¦°
Ġáĥĵ áĥĲáĥľ
ĠÎ Ĩ
ĠÐ´ ÐµÐ»
Ġs Ã©
à±ģà°ķ à±Ĭ
Ġ à¹Ħà¸¡à¹Īà¸
Ïģ Î¸
å° Ĩ
ÑģÑĤ ÑĮ
ÄĽ t
áĥĿáĥľ áĥĺ
Ġà¸ §
Î»Î» Î·Î½
e b
Ð¸Ðº Ð¸
Ġ +
ª à¹Īà¸§
Îµ ÏĢ
Ġà°ī à°¦
l ko
æīĭæľº å®¢æĪ·ç«¯
é ļ
ç® ¡
Ġáĥ¡ áĥĲáĥĵ
à¹ģà¸ ¥à¸°
Ð° ÐµÐ¼
ĠØª Ø¹
ë² ķ
Ħ à¹īà¸²
ÐµÑĢ Ð°
¥à¸ ·à¸Ńà¸
à®¿à®¯ à¯Ī
å¥ ³
Ġáĥ¡áĥ®áĥķ áĥĲ
Ġs in
ÐµÐ½ Ð½Ð¾
ĠM it
Ġpe ut
dz o
ÙĪØ± ÛĮ
áĥĺáĥª áĥĺ
à¦°à§įà¦ ®
áº¥ p
ĠN o
l io
à¤ª à¥Ģ
à±ĩà° ¯
Ġê° ľ
Ġs wo
Ġà¤ķà¥ĭ à¤Ī
Ġà¤ªà¥įà¤° à¤¤
Ø¨ ÙĦ
à¤Ĥ à¤Ł
Ġà®¤ à®¾à®©à¯į
g ÉĻr
Ġà°° à°¾à°·à±įà°Łà±įà°°
Ġ×Ļ ×©
Ġz ur
à®¿à® ³
am os
Ġà°ħ à°¤
Ġà¦ķ à§ĭ
t Ãł
Ġaus si
u Å¼
Ġà¤ªà¥įà¤° à¤¦
j o
à¯ģà®ķ à®¿à®±
Ġte go
Ġí ĥ
v nÃŃ
Ġm is
Ġeine m
Ġà¦¸à¦° à¦ķà¦¾à¦°
Ġz am
Ġu til
Ġà°ķ à°¾à°²
Ġà¦ķà¦¿à¦¨ à§įà¦¤à§ģ
Ġ ãģ¾
ĠØ§ÙĦÙĦ Ùĩ
Ġà®İà®¤ à®¿à®°
iá»ĩ c
Ùĥ Ø±
×ľ ×Ĳ
áĥĺáĥĻ áĥ£áĥłáĥĺ
à¸Ńà¸ Ķà¸
ĠÙĨ Ø¸
Ġà¤ħ à¤¸
ÅĤ Äħ
Ġde t
ĠÎĶ Î¹Î±
Ġà¦ķ à§įà¦·
ĠÎ¤ Î±
à±ģà° ¸à±įà°¤
áĥĶáĥ¡ áĥ¢
åı ·
Ġ ć
ÑĤ Ð¾Ð¼
à¤¾à¤ «
ĠÎº Î¹
Ġm uy
ĠáĥĹáĥĳ áĥĺáĥļáĥĺáĥ¡
Î» Î¿Ïħ
Ð³ Ð°Ð½
ion s
à¯ģà®ķ à®¿à®±à®¤à¯ģ
à¹ĥà¸ Īà¸
ĠÎº ÏĮ
à «
ĠÐ¿ÑĢ Ð¾Ð²
Ø® Øª
áĥ§ áĥĿáĥ¤
Ġà¹Ģà¸ĩà¸´à¸Ļà¸ Łà¸£à¸µ
Ġ ÏīÏĤ
st ÉĻr
ÑĢ Ð°Ð²
ëª ¨
Ħ à¸²à¸£
Î» Ïħ
ãģª ãģı
à°¾à° Ĥ
åį ļ
âĢ ľ
åı £
ĠáĥĲáĥĵ áĥĴ
Ħ à¸Ļà¸
Ð¾Ð² Ð¾ÑĢ
ĠP er
Ġl le
à¹ĥà¸Ĭ à¹ī
Ð¸Ð¼ Ð¸
« à¹ĩ
w ar
Ġà¤ªà¤¹ à¤²à¥ĩ
Ġáĥ¡áĥĲáĥ £áĥ
Ġê° ķ
ĠÐ¶ Ðµ
Ġà°µà°¿à° µ
Ġn ouve
t rz
Ġà¦¬à¦¿à¦ ·
ĠáĥĻ áĥķ
k en
Ġ×Ķ ×¨
ìŀ ¬
áº ¹
Ġpe u
Ġà°ªà±įà°° à°ķ
Ġd al
l ica
Ø° Ùĩ
Ġm ÉĻs
ãģ§ãģĻ ãģĮ
Ġà¤Ĺ à¤Ī
Ġn Ã³
u j
à°° à°Ĥ
ĠØª Ø±
b ÃŃ
Ġà¦ĺ à¦Ł
ĠL os
ķ Į
Ġsp o
Ġãĥ ķ
Ġà®ķà¯Ĥ à®±
il ir
à¤ļà¥įà¤ ļ
cz a
Ġà¦¨à¦¿à¦ ľ
ĠãĤ ³
k eit
ĠØ³ Ø±
Ġc os
ĠÎĶ E
Ġe dib
ãĥ ¯
à°¾à°ķ à±ģ
à¤Ĥ à¤ļ
iyy at
Ġ×Ľ ×ľ
Ã ®
à®² à®¾à®®à¯į
Ġà¦ ¢
à±ĩà° ľ
à¤¸ à¤¾
áĥĴ áĥĲáĥľ
à¹Ģ à¸Ļà¸
ãĤĤ ãģ®
çĽ ´
à¦Ĺ à§ģà¦²
Ġy a
Î» ÎµÎ¯
Ġz ak
Î½Î· ÏĤ
ur o
áĥĶáĥĳ áĥĶáĥļ
ãĢ ģ
åı Ĭ
ĠÐ² Ð¾
ÙĪ Ø§
ĠÎĶ Î·
à±ĭ à°¡
Ġ" )
ĠÎ¼ ÏĮ
ĠÑĢ ÑĥÐ±
ĠÄĳ áº§u
à´ Ĥ
ģ à¹Ī
ĠÎ±Î½ ÏĦÎ¹
åħ ĥ
ÑĥÐ»ÑĮ ÑĤ
Ġ áĢ
áĥ£áĥ ¥
«à¸ ±à¸
Ïĥ Î¹Î±
í ĽĦ
ÑĢ Ð°Ð¼
s er
«à¸ ¥à¸²à¸
Î¯Î½ ÎµÎ¹
et e
Ġà°¨ à±Ģ
Ġå¤§åıĳ å¿«ä¸ī
Ġä¸ į
é ª
Ġáĥ¡áĥĲáĥ ¨
ļà¸ ±à¸
Ð» Ð°ÑģÑĤ
à¯ģà® ©
í İ
ģà¸ ³à¸
ĠÐ»Ñİ Ð±
¡ à¸Ļà¸
t ti
Ġ äºļæ´²
Ġáĥ¡ áĥŀ
Ġ1 3
Ð°Ð½ Ð´
à±Ģà°° à±ģ
Ø® Ø±
E S
al itÃ©
áĥĺáĥľ áĥĺ
Ġs y
Ġà® Ĭ
Ġ×Ķ× ŀ
Ġty lko
z za
ĠÙħ Ø¬
ĠìĹ °
c ul
ãĤĮ ãģ¦
Ġjs ou
Ġ &
áĢ ¹
us s
à®¾à® ľ
el ÉĻ
áº£ o
Ġà® ¹
ÅĽ cie
is te
Ġz ijn
ĠÙĨ ÙĪ
í ŀ
Ġh ttp
u h
Ġà¤ħ à¤Ĺ
à°° à°£
te urs
ãĤ º
a ll
iej s
Ġc re
Ã¼ b
à¯ĭ à®®à¯į
Ã¡ o
ãĥ Ŀ
Ġà¤ľà¤¾à¤¤ à¤¾
l as
Ø§Ø¯ ÛĮ
Ġà° ĸ
Ùĥ ÙĦ
à®¤ à®¾à®ķ
a it
à¥ĭ à¤ķ
áĥĲáĥ «áĥļ
à¹ Ĭà¸
Ġ×ŀ× Ĳ
æ ¡
ĠÕ ¢
Ġb ilÉĻr
Î¼ÏĮ ÏĤ
ì¹´ ì§Ģëħ¸
Îº Î®
ì² ´
Ġáĥ¡áĥĲáĥ ĸ
åĪĨ å¿«3
é ĵ
Ð¸ ÑĢÑĥ
ol i
ĠÎµ ÏģÎ³
Ġt am
- -
ĠÎ± Îº
ÐµÐ½ Ñĭ
à±įà°° à±Ĩ
å ¦
ª à¸£
ĠÎ ¯
2 8
Ð Ľ
Ġà¤¸ à¤¾à¤®
Ġáĥ¡áĥĲáĥ Ķ
ª à¹Į
ĠÎº Î¬Î½
à¦¿à¦ ī
Ð¾ÑĤ Ð¾Ð²
Ġun ter
Ĥà¸¶ à¹īà¸Ļ
Îķ Î¡
Ġ) .
: :
è ¢
ç ±
å· ŀ
áĥĺáĥłáĥ ĵ
à¸£ à¹Į
Ð¸ ÑĪ
Ġà¦®à¦¾à¦¨ à§ģà¦·
Ġg ra
«à¸£à¸ ·à¸Ńà¸
ÐµÐ½ Ð¸Ð¹
ŀ à¸´
ĠØ¨Ø§ Ø²
Ġæ ¬
áĥĲáĥķáĥ¨ áĥĺáĥł
à±ĩ à°Ĥà°¦à±įà°°
Ð»Ð¸ Ñĩ
ì ¡
Ġà°® à±ģà°Ĥà°¦
Ġe ff
u p
áĥĶáĥ ŀ
Ġà¦Ĩà¦® à¦¾à¦°
Ġch á»ī
à§ģà¦ ĸ
Ġz as
Ġà®ī à®°
Ġs ans
on a
ãģ ¹
à§įà¦ ŀ
ĠÂ ¿
Ø³ Ùħ
à¤Ĥ à¤§
Ġà°¸ à°°
ĠBak Ä±
ac aq
es i
Ġn ue
f Ã¼
Ġf r
Ã³ b
k Ã¡
Ġà®® à®°
´ ĳ
Ġ×Ķ× ĳ
à¥ĩà¤ ¡
u el
on ne
à°¿à°ª à±ĭà°¯
å¾ Į
Ø§ÛĮ Ø´
Ä ©
ĠgÃ¶ stÉĻr
à§ĩà¦ ¡
à¯ĭ à®¤
Ġà°ªà±įà°° à°ľ
à´ Ł
Ġse xo
Ġjak o
ia l
m ak
Ġë Ķ
Ã© ri
à¤Ĥ à¤¬
Ġáĥ £
à¸Ńà¸¢à¹Īà¸²à¸ ĩ
Û ķ
å Ļ
ĠØ§ÛĮØ± Ø§ÙĨ
ĠÙĩ Ø°Ø§
ÏĦÎ· ÏĥÎ·
ĠØ´ ÙĪØ¯
ĠÏĢ ÏģÏİ
Ġa ber
Ġáĥ Ń
æĶ ¿
à© ĩ
ÐµÐ¼ Ñĥ
à°¬ à±įà°¬
ĠÏĩ ÏģÏĮ
Ġ Å¼y
ĠáĥłáĥĿáĥĴ áĥĿáĥł
Ïģ Ïħ
Ð¼ ÐµÑĢ
Ġques to
Ġà¤¦ à¥įà¤µ
Ħà¸£à¸Ķà¸´à¸ ķà¸
ÏĢ Î¯
æ¬ ¡
ĠÐĿ Ð°
à¶ º
áĥĶáĥĳ áĥĶáĥľ
łà¸ ±à¸
ĠÏĢÎ± ÏģÎ¬
A R
ÑıÑĤ ÑĮ
Ġà¦Ĩ à¦ĩ
ģ à¸£à¸£à¸
ÏĦÎ¹ Ïĥ
Ã© nÃ©
Ġà®ª à®£
å¤ ĩ
æĺ İ
éĩ Į
Ġáĥ£áĥ¤ áĥłáĥĿ
Ĭ à¸µà¸
ĠÐ¡ ÑĤ
à°¿à°¯ à°¾
ÉĻh s
¢ à¹Į
ĠÐ² Ð½
Ĭà¸ ¸à¸
Ġnh áº¥t
à¥ĭ à¤¨
ĠáĥĶ áĥ¥
ĠF r
ĠÐŀ ÑĤ
ĠØª ØŃ
s za
n er
Ġà®¤à¯Ĭà®Ł à®°
ĠáĥĽáĥ® áĥĿáĥļáĥĿáĥĵ
Ġh aq
Ġà¦ª à§ľ
Ġn u
ìļ ´
w Ã³
× £
ari os
à°°à±įà° ®
d Ã¡
m as
Ġà¦¸ à¦Ļà§įà¦Ĺà§ĩ
» Ħ
Ġn ur
ri j
z i
Ġãģ Ĥ
Ġà¦¬ à§ĩà¦¶
O S
Ġà°¤ à°®
ĠãĤ «
imul yo
Ġng ud
Ġngud imulyo
is a
àµ ĩ
ÙĦ Ø§Ùħ
à®¾à®® à®²à¯į
le j
Ø§Ø® Øª
¦ ¬
t as
m et
Ġar t
Ġà°ª à°¦
wi Äħ
ĠæĹ¥ æľ¬
Ġà®ķ à®¾à®°
der e
ĠãģĿ ãģ®
Ãº ng
Ø³ ÙĬ
ver s
çĥ Ń
áĥĶáĥĳ áĥĿáĥĵáĥĲ
Ġà¸ ¢
Ġìķ Ĭ
åĲ Ĺ
à°¾à°¦ à±ģ
Ġ ÉĻr
ĠÎ± ÏģÏĩ
Äį ka
ĠÏĮ ÏĢÏīÏĤ
k Å¯
Ġáĥĵáĥĺáĥĵ áĥĺ
åĲ į
Ġæŀ ģéĢŁ
Ð¿Ð» Ð°ÑĤ
ni ka
Îº Î¬
Ġto do
áĥł áĥĲ
ĠÎ´ Ïį
ĠÐŀ Ð±
Ġà°ļà°¾à°² à°¾
Ġà¤ ĳ
à¹Ĥà¸£à¸ĩ à¹ģà¸£à¸
ĠÎ¼ÏĢÎ¿ ÏģÎµÎ¯
åħ ĭ
ĠÐļ Ð°Ðº
Ġà¤ķà¤¿à¤¸ à¥Ģ
Ġáĥ¡áĥĲáĥ ĺ
à¹Ĥà¸ ¥à¸
ĠÎ± Î³
iy e
ĠÐĴ Ñĭ
Ġ×¢ ×Ŀ
«à¸Ļ à¹īà¸²
ÏģÎŃ ÏĢÎµÎ¹
Ø ¢
Ġ1 4
Ġ áł
æľ į
å¼Ģ å¥ĸ
áĥ£ áĥĲáĥļ
Ġ à¹Ħà¸Ķà¹ī
Ð¾ÑģÑĤ ÑĮ
Ġà®ª à®¾à®¤
Ġle ur
Ĺà¸µà¹Īà¸ ªà¸¸à¸Ķ
Ðµ ÑĨ
à¹īà¸²à¸ ĩ
r ÉĻ
éĿ Ĵ
ĠáĥĻáĥĿáĥĽ áĥŀ
\\ \\
ĠÐ¿ Ð¾Ð²
cz nie
Ø§Ø± Ø©
tiv o
ĠH o
Ġáĥ¬ áĥ§
à¦° à¦£
Ġs om
a ft
jÃŃ cÃŃ
ilm ÉĻsi
y or
ow ym
Ã¶ z
it u
Ġà®µ à®¿à®°
ĠØ§ÙĨ Øª
àµ ĭ
ãĥ ¢
Ġb á»ĭ
ì¹ ´ëĿ¼
ëł ¥
Ġà¦¬à¦² à§ĩ
Ġ1 7
ĠãĤ µ
Ġ1 6
Ã »
ion i
kie m
ĠM e
à¤ķà¥įà¤ ¸
Ġn os
à¦¿à¦ ¡
Ø´ Ø±
Ġc a
Ġà° Ĳ
ãĤĬ ãģ¾ãģĻ
Ġ×ľ ×ŀ×
Ġy ol
ĠØ±ÙĪ Ø²
d uk
Ġà¤ľ à¤¨
Ġà®ĩà®¨à¯įà®¤ à®¿à®¯
E N
Ġn uest
Ġn om
à¦¡ à¦¼
Ġo k
éĻ ¢
áĥĿáĥľ áĥĺáĥ¡
ªà¸´ à¸Ļà¸
Ġà®ĩ à®¯
äº ¤
à°¿à°Ĥà°ļ à±ĩ
Ġ íķ´
Î´ ÎµÏĤ
d im
Î´ Îµ
ĠÙĥ Ø§ÙĨ
Ġáĥ¨áĥĶ áĥĺáĥ«áĥļ
çİ ©
¥ ¿
ĠÐ½Ð° ÑĪ
Ġhab en
ĠÏĢÎµ ÏģÎ¯
ĠÙĤ Ø±
áĥĵ áĥĶáĥľ
ĠÏĢÎ¿Î» Ïį
Ð¸ Ð¾Ð½
bi Ã©n
à¥įà¤¯ à¥Ĥ
ģ à¹ĩ
ĠÏĢÎµ ÏģÎ¹ÏĥÏĥÏĮÏĦÎµ
é ©
ĠÐ½Ð° Ñĩ
ç ĭ
Ġáĥ£áĥ Ľ
à¸Ńà¸ ģà¸
ĠÎŃÏĩ Î¿ÏħÎ½
Ġv z
ĠÑĥ Ð´
à®¿à®Ł à®®à¯į
§à¸ ¥
ÏĦ Ïİ
Ġà°® à±ģà°
Ġw sp
é¢ ĺ
ĠAG çİ¯äºļ
éľ ¸
Ġáĥł áĥĶ
Ġà¸ Ī
ĠÑģÑĢ ÐµÐ´
à®¾à® Ļà¯įà®ķ
à°°à±įà° ¥
à¹Īà¸²à¸ ¢
ĠÐ± Ð¾Ð»
à¹ģ à¸Ļà¸
az Ä±r
ĠN e
áĥĶáĥ £áĥļ
ĳ Ĳ
ĠÐ±ÑĥÐ´ ÐµÑĤ
y s
à®² à¯įà®µ
t ar
Ġà¦ħà¦¨ à§ĩà¦ķ
áĥĿáĥĳ áĥĺáĥĹ
×ª ×Ļ
Ġä» Ĭ
t r
ĠÄĳá» ĵ
ÉĻb ÉĻr
Ú© Ùĩ
å¯ ¾
Ġà®ª à®¿à®±
Ġà°ļà±ĩà°¸ à°¿à°¨
Ġy eni
el ij
Ġà¤ħà¤ª à¤¨à¥Ģ
Ġpos s
m ie
Ġj u
Ġãģĵ ãģ®
Ġà°® à±Ĥà°
m ÉĻn
ĳ ľ
Ġd urch
Ġs á»±
à¦ ·à§įà¦Ł
Ġk ar
ĠP ara
Ġà¤° à¤ĸ
er a
ĠØ¨ ÙĨ
Ġ×ĸ ×Ķ
Ġà®ķà¯Ĥ à®Ł
ÉĻs inin
à±ģà° ¬
C I
l Äħ
b ÄĽ
Ġà°ľ à°¨
A V
Ġde ux
ÃŃ as
Ġ ÉĻn
Ø¯ ÙĬ
à§Ł à§ĩ
ë° ©
Ġà¤Ĩ à¤ľ
áĥĲáĥĵ áĥĺ
Ġà¸ ¢à¸
ĠÛ±Û ³Û
æ º
Ø§ÙĦ ÛĮ
Ġs al
ĠÎĳ Î½Î±
à¦¤ à§ĭ
ĠÎºÎ± Î»
Ġj uÅ¼
áĥĶáĥĳ áĥĹ
é¡ µ
æĢ İ
Ð°Ð¹ Ð½
Ġme hr
ÏģÎ¯ Î¶
Ġà°ħà°§ à°¿à°ķ
áĥ ©
ÏĦÎ¹Îº ÏİÎ½
ĠÐº Ð¾Ð»
ĠbÄĻ dzie
åĽ½ äº§
Ġ à¹Ħà¸
ÏĦÎ¹Îº Î¿Ïį
åº Ķ
ÐµÑģ ÑĮ
Ġà¤¦ à¥ĩà¤¶
áĥĺáĥĵ áĥĲ
Ġà¸ ¡
ÏĦÎµ Î¯
à®¾à®² à¯ģà®®à¯į
ÐµÐº Ñģ
Ġin c
Ĺ à¸£à¸
ÏĦ Ïģ
Ġv el
ê± ´
à¨ ¿
èĢ ĥ
è· ¯
áĥĿáĥ ¥
Īà¸ °à¹Ģà¸
ĠÐ¸ Ñħ
×ĳ ×ľ
wie t
Ġà¸ ģà¸²à¸£
ĠÑĩ Ð°ÑģÑĤ
Ħà¸ ´à¸
Ġà°¸ à±įà°ª
Ġà¤ľ à¤¾à¤ı
Ġáĥ§ áĥĿáĥķ
on y
Ð» ÐµÐ½Ð¸Ðµ
Ġìĥ Ŀ
is che
Ġf il
ĠØ§ÙĦØ «
áĥĹ áĥ®áĥķ
Ġà¦ķà¦¿à¦Ľ à§ģ
in es
à°¿à°¸à±įà°¤ à±ģà°¨à±įà°¨
lÄ± k
Ø§ÙĨ Ø¯
Ġn Äĥm
n osti
ĠN a
u z
à®¿à®© à¯įà®©
Ġ×Ķ× ¤
Ġà´ ķ
ìĤ¬ ìĿ´íĬ¸
ãĥ Ļ
ĠÄ° n
ĠìĹ Ĩ
à±ĩ à°¨
Ġne lla
mp s
ta do
Ġà°¦ à±ĩà°¶
Ġb iz
l ah
Ġbar dzo
à¤°à¥įà¤ ·
ãģĹ ãģ¾ãģĻ
Ġà®ļ à®¿à®²
ĠÙĪ Ùħ
Ġh ÉĻy
pr Ã¨s
u g
Ġà¦® à¦¹
j i
Ã§ Ã£o
p or
å¤ ľ
íĥ Ģ
Ġà¦¬ à¦¾
Ùģ ÙĬ
ĠÚ¯ ÙģØª
åº Ĺ
ĠG r
Ġà¤ħ à¤²
ĠáĥĽ áĥĿáĥķ
à¸£à¸°à¸ ļà¸
Ã¶y Ã¼k
à¤¾à¤¹ à¥Ģ
ãģ¾ ãģ§
Ġp a
Î¹Î¿ ÏĤ
Ġ×ŀ× ª
Î³ Îµ
Ġà°® à°¾à°¤à±įà°°
ĠáĥĻ áĥĲáĥłáĥĴ
æ¯ Ķ
åĻ ¨
ÑĤ Ð¾Ð±Ñĭ
Ġì µľ
Î»Î» Î±
Ġh iá»ĩn
áĥĶáĥ ¨
Îµ ÏģÎ³
Ð¾Ð²Ð°Ð½ Ð¸Ñı
ĠØ³ ÛĮ
ç²¾ åĵģ
Ġ à¹ĥà¸Ļà¸
ĠÎ±Ïħ ÏĦÎ®
éĴ ±
ĠÐ ¨
Ġà¤¹à¥ĭ à¤¨à¥ĩ
áĥĺáĥ¢ áĥĶáĥ¢
§ à¸Ļ
ÏĨ Î®
ÙĪ Ø¹
Ðº Ð¾Ð¹
ĠA b
ŀ à¸£
Î¿Î¹Î½ ÏīÎ½
Ġà®ª à®ķ
Ġj our
æİ ¥
è¯ ķ
Ġà¤Ĩ à¤£
ĠáĥĲáĥ® áĥĲáĥļáĥĺ
à¸²à¸ªà¸´ à¹Ĥà¸Ļ
ÑĥÐ¿ Ð¸ÑĤÑĮ
Ġn i
Ġa lle
à¹Ģà¸ Ľà¹ĩà¸Ļ
Ð £
Ħ à¸Ļ
ÉĻh ÉĻr
Ġà¤¸à¤ķ à¤¤à¥ĩ
áĥĿáĥĳ áĥļ
à°¬ à°¡
ĠÐ¿ÑĢÐ¾ Ð¸Ð·
Ä± s
Ġkter Ã©
Ġm iejs
ëĭ ¨
áĥĲáĥłáĥ Ļ
ĠÙĥ ÙĦ
ãģĹ ãĤĩ
to re
b l
×Ļ× ¦
à®° à¯įà®µ
ĠÚ© Ùħ
à¦¾à¦° à§ĩ
Ġdá»¥ ng
ite m
Ġí ĸ
æĹł çłģ
ĠA uf
ad as
Ø¨ Ø¯
ll i
Ġà¦ķà¦¥ à¦¾
t h
Ġpo l
ãĥ© ãĤ¤
Ġà®¨ à¯ĩà®°
ĠbaÄŁ lÄ±
Ġà¦¯ à¦¾à§Ł
il la
à¤µ à¤¾à¤°
ĠD o
ida k
ĠØ «
is i
ĠS z
ÅĻ i
Ġà°µ à°¸à±įà°¤
Ġu it
Ã¤ r
×Ļ× Ĺ
à¤¯ à¥ĭà¤Ĺ
ĠÃ© c
ãģĵãģ¨ ãģĮ
Ġëı Ħ
ĠD es
Ġza p
à±Ĥà° ¨
à¥ĭà¤Ĥ à¤¨à¥ĩ
ĠáĥĴ áĥĲáĥ¡
à¸£à¸µà¸ §à¸´à¸
Ã¼t Ã¼n
è£ ħ
ti co
Æ°á»£ ng
ĠÏĢÎ¿Î» Î¹
ĠO d
ĠÏĢ ÏģÏī
Ġà°¸à°¿à°¨à°¿à°® à°¾
áĥĵ áĥĶáĥ¡
æµ ·
çī ¹
Ñı Ð²
Ġà¦ļ à¦²
ĠÎ£ Ïħ
Ġf in
áĥ¬ áĥ§
ĠÏĢ ÏĮ
Ġ) ,
ÙĦ Ø³
Ġà¤¸à¤° à¤ķà¤¾à¤°
à¸Ļà¸± à¹īà¸Ļ
ĠÎĵ Î¹Î±
ç» ĵ
Ð¸ Ð½Ñĭ
à¥įà¤¯ à¥ĭà¤Ĥ
áĥĹáĥ®áĥķ áĥĶáĥķ
Ġà¸ ¥à¸
ĠÎķ Ïħ
à°µ à±įà°µ
ÐµÐ» ÐµÐ¹
à°² à±įà°²à±ĭ
ªà¸ ±à¸
ĠÏĦ Îµ
à¯ģà®³ à¯į
Ùĥ Øª
åĪĨ åĪĨå½©
æĪ ĺ
åº Ĩ
ĠáĥĶ áĥļ
ª à¸Ļ
ĠÐ³ ÑĢ
iÄĻ k
Ġt ÉĻÅŁ
à¹ģ à¸Ļ
_ _
Ġà¹Ģà¸ §à¹ĩà¸ļ
à¦¾à¦° à¦£
Ġà¤µà¤¾à¤² à¥ĩ
ĠáĥĲáĥķ áĥ¢
Ġà°ľà°° à°¿à°Ĺ
ĠÐº Ð»
sch aft
Ġpro f
Ġêµ Ń
Ġà®ķ à®µ
Ġáĥ¨áĥĶáĥĺáĥ«áĥļ áĥĶáĥĳáĥĲ
p tion
t nÃŃ
×¨ ×Ļ×Ŀ
n oÅĽÄĩ
Ġà°µà°¿à° ¦
Ġm in
Ã Ħ
ĠÄĳá»Ļ ng
ĠÚ¯ Ø±
iy or
ÙĦ Ø§ÙĦ
à¤¨ à¥ĭà¤Ĥ
à® ·
Ġes s
k il
c ciÃ³n
à§įà¦° à¦®
è Ń
à®² à®ķ
g lich
te ment
al idad
z na
ĠìĦ ¸
à¤ ģ
Õ¡Õ £
Ġt ÉĻs
ĠÃ ī
Ġpri mer
Ø¨ Ø§Ø±
Ġje d
Ġà°¨à±ĩ à°¨à±ģ
ĠÃ ĸ
t ura
Ġb is
à¤¾à¤Ĥ à¤Ĺ
Ġo ff
Ġï½ ŀ
à®¿à®Łà¯įà®Ł à¯ģ
ÃŃ ch
ĠÕ ½
à°² à°ķà±ģ
à¤°à¥įà¤ Ł
áĥłáĥ£áĥ ľ
Ġà¸ Ĭ
Ġd Ã¼ÅŁ
æī Ģ
Ġ×Ķ× ł
à®¿à®ļ à¯įà®ļ
Î¼ Î¼Î±
ĠØ§ÙĦÙħ ÙĪ
ÏģÎ± Îº
Ġà°ħ à°Ĥà°Ł
áĥĲáĥĽáĥĵ áĥĶ
Ġ àª
æĦ ı
ÐµÐ¶ Ð´
ĠÙħ ÙĤ
ĠÎł Îµ
Ġw e
áĥķ áĥĶáĥķ
ĠÏĩ Ïī
Ðº ÑĢ
Ġpro du
à¤µ à¤¾
ľà¸ ¥à¸
ÏĦ Î®ÏĤ
éĢ ī
Ð² ÐµÑĢ
à¤¸ à¥įà¤¥
áĥĶáĥłáĥ ĵ
łà¸²à¸ ŀ
ÏĢÎ¬ ÏģÏĩ
Ġà°®à±Ĭ à°¦
ĠÐ³Ð¾Ð´ Ð°
Ġà°ħ à°¸
· à¹īà¸Ń
ĠÏĦ ÎŃ
à¦¾à¦ «
Ġà®ķ à®£
çĽ ¸
èµ ·
äºī éľ¸
ĠáĥĴ áĥĲáĥ®
à¸Ńà¸²à¸ «
ĠÐ° Ð½
ë§Į ëĤ¨
ìĺ Ī
Ŀ à¸²à¸ģ
Ð» ÑĮ
ķà¹Ī à¸Ńà¸
Ġë° ©
Ġes c
áĥĽ áĥĶáĥĵ
Ġme d
ĠÐ ¦
Ġà°² à±ĩà°¦
Ġt ous
æĴŃ æĶ¾
Ã¡ nh
Ġáĥĵáĥ¦ áĥĶáĥ¡
Ġà®ĩ à®¤à¯ģ
à§įà¦¬ à¦°
Ġpe ti
Ġg el
ce j
Å ¥
b u
âĢĮ ÙĩØ§
Ġqar ÅŁÄ±
à¦ ı
Ùħ Ø¯
à¥ĭ à¤°
à§ģ à¦¦à§įà¦§
el t
Ġ×ĳ ×©
Ġest Ã¡
ÙĪ Ø¨
\ "
ÅĤ am
A N
Ġan n
k ÄĻ
Õ¡Õ °
Ġd ÉĻr
à¥ģ à¤¸
ĠD z
ëĲ ľ
ic os
Ġess ere
Ġà®® à¯ģà®±
Ã¢ u
ti ck
au t
à§Ĥ à¦²
Ġb ij
à¤ķ à¤¿
Ġw z
Õ £
Ġe dÉĻ
ãģ¨ ãģĹãģ¦
A S
Ġtr ab
le ment
Ġáĥĺáĥľ áĥ¢
Ġà¸ §à¸±à¸Ļ
Ġà®ķ à¯ģà®Ł
åķ Ĩ
ĠÙĪ Ùĩ
ta l
Ïĥ Ïĩ
d or
ĠÎĺ Îµ
Ġà°ªà°¾à°°à±įà°Ł à±Ģ
ĠáĥĽ áĥĺáĥĸ
ç» Ł
Ġè Ģ
Ð¾Ñģ ÑĮ
Ġ×ŀ× Ĺ
ÎĳÎ ¡
à±ĭ à°µ
ĠáĥĲáĥ¡ áĥĶáĥķáĥĶ
ÏĦÎ¿ Î½
Ð» Ð°Ð³
at z
Ġà¦¸ à¦¾à¦®
à¹Ģà¸ Ĺ
Ġ ÏĪ
ç ¼
ĠÐ¼ ÐµÑģÑĤ
ti ve
ĠáĥĽáĥĿáĥ ®
à¹Ģà¸¥ à¹Īà¸Ļà¸
ÎµÎ¯ Î¿
t Ä±
ĠÐ´ ÐµÑĤ
Ġm Ã¡
Ġà¸ Ľà¸£à¸°à¸
Ïĥ ÏĦÎ¬
ëĭ ¹
à®¾à® ªà¯įà®ª
Ġå ¾
à¨ °
é ħ
áĥĲáĥľ áĥ¢
à¸Ļ à¹Įà¸
ĠÐ¿ Ð¾Ð·
Ġro ku
Øµ Ø±
à¸Ńà¸¢à¸¹ à¹Ī
ÐµÐ» Ð¾Ð²
¹à¸ ģ
Ġà¦Ń à¦¾à¦°
en a
Ġáĥĺ áĥĴ
Ġà°ķà°¾à°¨ à±Ģ
Ð± Ð¾ÑĢ
ĠØ§ÙĦÙħ Øª
ou ver
Ġà¤¸à¤® à¤¯
à®±à¯įà®ķ à¯ģ
áĥĲáĥĵ áĥĿ
Ġq ÉĻd
Ġng Ãły
an to
à¦¬ à¦¾à¦¦
l os
æ ©
Ġp u
ìľ ł
Ġ×Ĳ ×ľ
à°¾à° Ĺà°¾
à¦¿à¦ Ń
h re
ÅĽ li
Ã¡ d
Ġà°µà°¿à° ľ
å£ ²
di ng
ï¼ Ĳ
Ġãĥ ĸ
Ã¨ res
Ãº n
Ġà¤¬à¤¹ à¥ģà¤¤
u ÅŁ
Ġà®Ĩà®© à®¾à®²à¯į
i x
Ġm ol
Øª ÙĬ
Ġà§¦ à§
à°² à°¨à±ģ
Ġà¦¹ à¦¾à¦¸
Ġë¬ ¸
£Â ¬
áº¯ c
Ġà¦ķà¦° à¦¾à¦°
ĠØ¯ Ø§Ø´Øª
Ġp en
ãģĭ ãģ£ãģŁ
cz enia
Ġdi ff
k s
×¨ ×Ľ
k ou
ãĥ¼ãĤ ¸
Ġáĥ¨áĥĶáĥĽ áĥĹáĥ®áĥķáĥĶáĥķ
§ à¸Ļà¸
ç ¦
Ġå ¥
Ġà¤¸ à¥įà¤Ł
à®¾à® ª
ÏĦ ÏģÎ±
ti va
Ïĩ Î±Î½
ØŃ Ø©
ĠáĥĴáĥĲáĥľ áĥ¡
æ ¼
1 2
ĠÐ¼ Ñĭ
p ub
ĠÎķ Î»Î»Î¬
ĠìĦ ±
ĠáĥĹ áĥĲáĥĽ
Î½Î¿ ÏĤ
Ð¾Ð± ÑĢ
Ġà°Ĩ à°®à±Ĩ
ĠÕ ¾
à¹ĥà¸«à¸¡ à¹Ī
ĠÎµ Î¹
ä¼ ł
Ð¼ Ð¾Ð¶
ra m
ĠáĥĲáĥ¥ áĥķáĥ¡
ĸà¸¶à¸ ĩà¸
Îº Î·
ĠÅ ļ
ÑĥÑİ Ñī
ro v
Ġà¸ Īà¸²à¸ģ
Î¸ Î½
à°§ à±įà°¯
Ġg es
ä» ĸ
æĢ »
Ć Ĉ
áĥĲáĥ¬ áĥĺáĥļ
à¹Ģà¸ ĩà¸´à¸Ļà¸
Ñı Ñī
à¦ ¯
Ġà®İ à®²à¯įà®²
Ġà¹Ģà¸ ģà¸¡à¸
ĠÐº Ð¾ÑĢ
Ĺà¸²à¸ ĩ
Ġg ÅĤ
ĥ n
áĥĺ áĥĲáĥĹ
Ġd ÉĻy
ĠÐ´ Ð¾Ð¼
aj o
m un
Ø¯ ÙĬØ¯
íŀ Ī
áĥł áĥĿáĥĽ
é Ł
Ġà¤ ĵ
Ø§ Ú©
à®¿à®±à¯įà®ķ à¯ģ
Ġst ron
Ġqu el
Ġà°¶ à±įà°°à±Ģ
Ġà°ª à°¡
à§ĩà¦ ª
l ou
Ġm ay
an z
ien ia
Ã¼r k
Ġà°ªà±ĭ à°²
Ġà¦Ĩà¦® à¦¾à¦¦à§ĩà¦°
ãģĹ ãģ¾
ĠØ´ ÙħØ§
Ġnie t
ib le
Ã¡ p
l en
Ġ×ķ ×Ĳ
Ùĭ Ø§
à®© à¯įà®ª
Ġt ÉĻm
Ġà¦¨à¦¿ à¦°à§įà¦¬
Ġâ ķ
Ġíı ¬
Ġà°ķ à±įà°°
Ã³ l
Ġw p
ãģ ³
Ġà¦ĩ à¦ī
ti k
Ġ201 8
Ġà¤²à¥ĭà¤Ĺ à¥ĭà¤Ĥ
Ġla v
Ġc es
ĠÙĩ Ø³Øª
ĠV or
ï¼ ĳ
Ġb lo
ĠáĥĲáĥ® áĥļ
à¹ģà¸ļà¸ ļ
Ġãĥ ¬
éĿ ŀ
Ġíĺ ¸
to ri
ĠÎ¿ Î¹ÎºÎ¿
à±Ĩ à°¡
ĠÏĥ Î¿Ïħ
Ġà¦ªà¦° à¦¿à¦¬
áĥĹ áĥĲáĥķ
é¦ ĸ
æľĢ æĸ°
ĠÐ¼ ÐµÐ½
uy Ãªn
ĠÏĢ ÏģÎŃÏĢÎµÎ¹
×Ļ× ļ
ĠáĥĽ áĥĻ
Î¼ÎŃ Î½Î·
Ð¸ ÑģÐº
Ġà®µ à¯Īà®¤à¯įà®¤
k Ä±
ģ à¸£
ĠÎ¼Îµ ÏĦÎ¬
Ġå Ĭ
Ñģ ÑĮ
Ġà¤¤à¤° à¤¹
áĥĲáĥłáĥ ©
ģà¸ §à¹Īà¸²
ĠÎº Î¿
m in
0 4
Ġà°ħà°¯ à°¿à°¤à±ĩ
Ġà¹ģà¸ ķà¹Īà¸
Îº Î»Î·
Ġâ Ĺ
Ġì§ Ħ
ä½ĵ èĤ²
åį ģ
ç ¬¬
áĥĲáĥ Ń
¡à¸ ·à¸Ńà¸
Ð³ Ð¸
t ur
Ġà®® à®Łà¯įà®Ł
Ġ1 00
ĠÑĤ ÐµÐ¼
Ġ à¸Ńà¸Ńà¸Ļà¹Ħà¸¥à¸Ļà¹Į
×Ľ ×ľ
à¦°à§įà¦ £
Ġáĥ¡áĥĲáĥ®áĥĶáĥļ áĥĽ
ĠC o
Ð¸Ð· Ð½
ĠìĹ Ĳ
Ø± Ø¶
Ġd ire
à°°à±įà° ¸
áĥ¬ áĥĺáĥ¤
å½ ĵ
ĠØ³ Ø§Ø²
à¤¾à¤ £
Ġw ur
Ġser v
Ġz d
à°Ĥà° ľ
ĠÙ¾ ÛĮØ´
à®µ à¯Ī
Ġd alam
Ġo f
á» ı
Ã© d
Ġà°ª à±Ī
Ġà¤¦ à¤¿à¤²
Ġìŀ ¥
ãģ »
Ã© m
ch i
am y
Ġà¦¹ à¦ļ
Ùĥ Ùħ
à´¿à´ ²
à¤° à¤£
Ġr Ã³w
Ġ×ŀ× ¢
Ġà¦Ĩ à¦ľ
Ùĥ ÙĪÙĨ
l aÅŁ
ĠR Ã©
ĠÙ¾ Ø±
an i
Ġà°² à°ķà±įà°·
Ġå¤ §
à§ĭ à¦§
Ġà¤¬ à¤¤
íģ ¬
Äį ky
Ġno tre
n ic
ãģĹãĤĩ ãģĨ
âĢĮ à°°
à¶ »
áĥľ áĥĺáĥ¨áĥķ
¸ à¹Īà¸Ļ
Ġà®ķ à¯ģà®´
ĠåĪ Ĩ
h le
¯ à§
Î §
à±Ģ à°ľ
ĠÏĥ ÏĩÎµ
v i
ĠáĥĽáĥĺáĥĽ áĥĲáĥłáĥĹ
è ĥ
ä¸Ģ ä¸ª
ÑĤ Ð¸
Ġje dn
Î¼ Î¿Ïħ
ÄŁ a
ĠáĥĽ áĥĲáĥĽ
Î¼Îµ Î½
Ñĥ Ð·
Ġv iá»ĩc
ĠØ¨Ø§ Ø´Ø¯
Ġà¸ ¡à¸µà¸
Î» Ïī
Ġà¤Ĩà¤£ à¤¿
Ð¸ Ð¶
à¤¾à¤¤ à¥įà¤°
áĥłáĥĺáĥķ áĥĺ
ķà¸±à¸ §à¸
Î³ ÏģÎ¬
ĠFr ance
ĠÑĥ ÑģÑĤ
à°¿à°Ĥà°ļ à°¿à°Ĥà°¦à°¿
à¹Ī à¸Ńà¸ĩ
Î¼Î¬ ÏĦÏīÎ½
skie go
à§įà¦¯ à¦®
Ġæĸ °
å ŀ
á Ī
áĥª áĥĺ
Ķà¹īà¸§à¸ ¢
ĠÐ» ÐµÑĤ
Ġv ol
×ĵ ×Ļ
à¹Īà¸ ¡
ĠÐ¼ Ð°ÑĤ
ļ à¸Ļà¸
dz in
à®µ à®¿à®²à¯įà®²à¯Ī
ĠáĥĻ áĥĺáĥĵ
ĠprÃ© s
Ð¸Ð» Ð°
ì Ķ
Ã¸ r
ĠS u
à±ĭ à°°
ĠáĥĲáĥ Ĵ
Ġà¦ªà§įà¦° à¦§à¦¾à¦¨
ĠmÉĻl um
ĠkÃ¶n nen
Ġë ¨
Ġv os
Ġu Å¾
à¦¤ à§įà¦°
Ġk dy
Ġt idak
Øµ ÙĦ
à°ªà±įà°ª à°Ł
Ġà®® à®¿à®ķ
U R
í ĭ
Ġet mÉĻk
cz enie
à¤Ĥà¤¤ à¥įà¤°à¥Ģ
à¤ķ à¥įà¤Ł
iz za
ãģŁ ãĤģ
à§ĭ à¦¸
for ma
Ġolar ak
ĠSe xo
Ġh ay
ÙĪ Øª
in di
à´ ®
à¦Ń à¦¾à¦¬à§ĩ
men ta
Ġa k
li j
ëł ¤
à°¾à°¨ à±ĩ
x x
Ġà¤® à¥Į
Ġpue de
à±Ĥà°° à±įà°¤
ĠC e
lich e
ĠÕ¸ ÖĤ
ÉĻn c
Ġà¤¹à¥ĭ à¤¤à¤¾
áĥĺáĥ¡ áĥĹáĥķáĥĺáĥ¡
) ;
áº· c
Ġ20 20
Ġz osta
ho d
Î¹ Î»
à±ģà°¤ à±ģà°Ĥà°¦à°¿
Î»Î» Î·
Ġà®ħ à®³
ĠáĥĹ áĥ£áĥĽ
å± Ģ
è¢ «
Ð¸ÑĤÑĮ ÑģÑı
Õ¡Õ ¬
Î¬ Î¶
lÉĻrin in
áĥķ áĥĺáĥļ
ĠÏĢ Î»Î·
ĠÐ¾Ð± ÑĬ
ĠØ§ Ø¬
Ġgi or
Ħà¸£à¸Ķà¸´à¸ķà¸ Łà¸£à¸µ
Îº ÏģÎ¹
æµ ģ
ÑĥÑī ÐµÑģÑĤÐ²
ĠØ§ÙĦ ÙĬ
áĥĶáĥłáĥ ķ
à¹ĥà¸«à¸ į
ÏĮ ÏĦÎ·
ti ques
ĠÐ¾ÑĢ Ð³Ð°Ð½
ov at
à¹ī à¸Ļà¹Ģà¸
Î³ Ïī
ci os
Ùĩ ÙĨÚ¯
æ ·
æ ¢
âĢ Ŀ
ĠáĥĽ áĥĿáĥĴ
¥à¸ °à¹Ģà¸
ĠÐµ ÑģÐ»Ð¸
Ġà¦ı à¦ĸà¦¨
i es
¡à¸²à¸ ģ
ÐµÐ¹ ÑģÑĤÐ²
à¹ģà¸ļà¸ ļà¸
×¨ ×Ķ
diy i
Ġáĥĳ áĥł
Ġde v
ÑĨÐ¸ Ð°Ð»ÑĮ
Ġdes de
à±įà°Ł à±į
Ã© lÃ©
Ġí Ĭ
áĥĺáĥĻ áĥĲ
à®Łà¯įà®Ł à¯ģ
ĠM o
ĠÙĩ Ø±
à§Ģ à¦¤
Ġà¤ķà¤¾à¤° à¥įà¤¯
Ġà®ı à®±à¯įà®ª
Ùĳ Ùİ
Ġp ub
ãĤĮ ãģ°
Ø§Ø± Ø§Øª
p ad
Ġo ver
Ġ ans
Ġe m
à°¨ à°Ĥ
Ġà¦¸ à§įà¦¥
Ġà¤ķ à¤¾à¤®
Ġet m
om o
Ġà®µà®¿à® ³
Ġb isa
l ine
à°ķà±įà°ķ à±ģà°µ
ĠÛ °
ĠØ¨ Ø¯
ĠãĤ ª
f e
à¤µ à¥Ģ
ëŀ ĺ
is er
f ec
Ġ×ŀ× ¡
Ġqu al
b ar
Ġp Å¯j
Ġh od
ãģ® ãģ¯
Ġde ÄŁ
Ġper s
Ġw o
è ķ
à¤ Ĩ
Ø³ Ø¨
áĥ£áĥłáĥ ¡
à¹ĩà¸ ģ
Ġà®ħà®µ à®°à¯į
æİ Ĵ
u to
ë¥ ´
Î½ Î¹Î±
Ġà¤¹à¥ģà¤ Ĩ
Î´ Î¹Î¬
as ta
Ġáĥŀ áĥĲáĥ¢
äº Ľ
è Ļ
ĠÐ²ÑĢÐµÐ¼ Ñı
Ġà¦Ĩ à¦¹
ĠÏĢ Î¬Î½
Ġm ÉĻr
áĥĶáĥĳ áĥĶáĥĳáĥĺ
ĠÎ¼ Î·
ĠÐ¸ÑģÐ¿ Ð¾Ð»ÑĮÐ·
Ġv ÃŃ
Ġà¦¦ à¦¿à§Łà§ĩ
Ĺà¸ ¸à¸ģà¸
ÎŁÎ Ŀ
æµ ĭ
ĠÑĤÐ°Ðº Ð¶Ðµ
ãģŁ ãģĦ
áĥľáĥĺáĥ¨áĥķ áĥľáĥĶáĥļ
Ġ à¹
Î¼ÎŃ Î½Î±
Ġj us
Ð½ ÐµÐ¹
á»± c
Ħ à¸£à¸²à¸°à¸
ĠÏĨ Î¿
ãģ Ĵ
ĠØ¯ Ùĩ
Ġè ¯
å ¦Ĥ
ĠâĢ ķ
Ġáĥ¡áĥĲáĥ ¤
à¹Ģà¸ ĭ
ÐµÑĢ Ð¸
Ġa kan
Ġà¦° à¦¾à¦ĸ
ĸà¸ ¹à¸ģà¸
ĠÐ¾Ð± ÑĢÐ°Ð·
Ħà¸£à¸²à¸°à¸ «
an da
Ġà®¨ à®¾à®Ł
áĥĿáĥĳ áĥĲáĥ¨áĥĺ
Ġaut res
ĠÐļ ÑĢ
Ġà¤ĩà¤¸ à¤ķà¥ĩ
Ġà°ĩ à°Ĥà°Ł
im iz
ĠS ta
ĠáĥĽ áĥĺáĥĶáĥł
ĠktÃ³ r
åł ±
Õ ¬
Ġbil dir
Ġà¤Ĺ à¤ı
l y
Ġà¦¦ à¦²
ÙĦ Ùģ
cion al
à°¡à±įà°¡ à°¿
à§Ģ à¦¦à§ĩà¦°
à±ĭ à°¨
Ã² n
lar e
Ġ×ľ ×¢
Ġse g
Ġà°ĩ à°¦à°¿
çĶ »
Ġí ģ
ĠÃ© v
Õ¥Õ ½
Ġoldu ÄŁ
Ġà®ª à¯ģà®¤
ĠP rze
Ġà¤ľ à¥Ī
l ie
æ Ł
à¦¿à¦ Ĺ
d ni
on es
Ġà®ħà®µ à®°
Ø¯ Ùħ
Ġph áº£i
Ġì ¶Ķ
ov Ã¡nÃŃ
à¯ģà®ķ à®¿à®©à¯įà®±
elij k
ou p
lich en
Ø· ÙĦ
Ġà¤µ à¥ĩ
ad or
cj ÄĻ
Ġáĥ¨áĥĶáĥ £áĥ
Ġà¸ Ĺ
à¦² à§įà¦ª
ç ģ
ĠAn da
Ġex p
Î ĺ
Ġ×Ķ× §
ĠÏĢ Î¹Î¿
Ġcu i
áĥ¥ áĥĿáĥľ
ç¤ º
çĿ Ģ
Ð¸Ñģ ÑĮ
Ġì Ĥ
ĠÎ½ Î¿
ĠgÃ¶ z
áĥ£áĥłáĥ ľ
ĠÏĢ ÏīÏĤ
Ð» ÐµÐ´
ĠÛ±Û³Û ¹Û
ĠØ¬ Ùĩ
Ġà¸ ģà¸£à¸
ĠÎ´Î· Î¼Î¿
à¥įà¤¯ à¤¾à¤ļ
Ð¾Ð½ ÑĤ
nÃ© es
áĥĵ áĥĿáĥĽ
Ĥ à¹īà¸²à¸
ÏĢÎ¿ Î¯
Ġw i
ĠÐ¿ÐµÑĢ Ð²
d es
Ġà¹Ģà¸ Ĭ
ÎĹ Îľ
ìļ ¸
Ġà°Ńà°¾à°° à°¤
åħ ¶
ä¸ ľ
æĢİ ä¹Ī
ĠáĥĹáĥ£áĥĽ áĥªáĥĲ
à¹Ģà¸ ¡à¸
ĠÑĩ ÐµÑĢ
Ġà¦Ń à¦¾à¦²
ĠPor no
Ľà¸£à¸°à¹Ģà¸Ĺà¸ ¨
ĠÐ³ Ð¾ÑĢÐ¾Ð´
ªà¸ ¡à¸
Ġq o
i do
áĥĲáĥĽáĥĵ áĥĶáĥľ
Ġà®® à®ķ
ĠÑĥ ÑģÐ»
u ll
Ġà°ªà±įà°° à°¯
Ġp ier
g el
áĥ£áĥ ¢
Ġth Ãłnh
Ġà®ĩ à®²
ë¬ ´
ãĥ§ ãĥ³
Ġp ou
à¦¿à¦ ĵ
ĠÙĪ ÛĮ
à¥Ĥ à¤¸
Ġa Ã±os
Ġà®ī à®¯
Ġ201 7
Ġi c
ess ion
et y
å® Ł
Ġê² Į
Ġsu l
h men
Ġha cer
ĠE t
a ire
ÛĮ Ùĩ
ãģª ãĤĵ
ë¹Ħ ìĬ¤
Ġ2 2
çĦ¡ æĸĻ
ÅĦ st
ç ¶
à®Ļà¯įà®ķà®³ à¯Ī
tif adÉĻ
Ġ×ĳ ×ª
à±Ī à°¤
ÙĪ ÙĬ
ëł Ī
ħ n
à±įà° ľ
ĠØ§ ÙĨØ¯
ĠM ad
Ġin tÃ©
t ir
Ġæ¬ §ç¾İ
ĠG ratis
Ġà¤¸ à¥ĭ
áĥĶáĥĽ áĥĳ
à¹ģà¸ ģ
t Ã³w
ç§ į
m m
à¦¿à¦¨ à§įà¦¨
ĠÏĥÏħ Î¼
j Å¡ÃŃ
ÎŁÎ Ľ
ĠØ§ Ø¯
Ġáĥ¡áĥĲáĥĶ áĥłáĥĹ
æł ·
åĪ Ĺ
ÐµÑĤ Ð°
Ġse mp
ÏĨ ÎŃÏģ
Ġà®®à¯ĩ à®²
áĥĲáĥł áĥĲ
ÏĢÎ¿Ïħ ÏģÎ³
Ð¼ ÐµÐ½
ĠD Ã©
e d
Ġà¸ªà¸ ¡à¸±à¸
ĠÎ´ Î¹Îº
åľ° åĿĢ
ĠÐ· Ð°Ð²
Ġas s
áĥĲáĥĹ áĥķáĥĺáĥ¡
ĸà¸ ·à¸Ń
Ġ á½
± c
Ð ĳ
en do
à¸µà¸¢à¸ ĩ
Ïĩ Î¿
àµįà´ Ł
à¶ Ń
æĽ ´
èģ Ķ
è ¥¿
Ġáĥľ áĥĲáĥ®
Ħ à¹īà¸²à¸
ĠÐ¼ Ð¸Ð½
à¤¸ à¥įà¤Ł
Ġde c
ļà¸²à¸ Ħà¸²à¸£
ĠÑģ Ð°Ð¹ÑĤ
Ĺà¸ ĺ
ĠT elugu
à°¾à°° à±į
áĥĶáĥ ¨áĥĺ
ĠJ ak
ĠÐµ ÑģÑĤÑĮ
Ø§ÙĨ ÙĬ
ut z
k Äħ
ÙĪ Ø´
Ġáĥ¢ áĥł
Ġv is
ĠíĨ µ
Ġ×Ķ ×ķ×Ĳ
ãĥ Ħ
à°¨à±įà°¨ à°¿
da h
Ġà¦¸ à§ģ
g an
ĠÙħ Ø±Ø¯
æľ¬ éģĵ
Ġà¤¦à¥įà¤µ à¤¾à¤°à¤¾
Ġin san
Ġà¦Ĩà¦® à¦°à¦¾
ãģķ ãģĦ
Ġà® Ĳ
ĠÙĩ Ø°Ùĩ
Ø® Øµ
à¦¾à¦¥ à§ĩ
ãĤ¹ ãĤ¿
Ġë ķĮ
ĠUn ter
Ġch a
ie m
itÃ© s
Ġm ÃŃ
à±Ĭ à°ķà±įà°ķ
Ġt arix
è ¼
Ġs te
Ã³ r
áº± ng
Ġà®¤ à®°
Ġcon c
ÙĪØ± Øª
æ§ ĺ
c Ä±
Ġp ada
ãģĪ ãĤĭ
Ġen f
Ã³ Å¼
à¤Ĥ à¤ľ
Ġ×Ķ× ¡
Ġå¤ ©
Ġáĥĵ áĥłáĥĿáĥ¡
ķà¹Ī à¸Ń
à®® à¯įà®®
ĠagåĽ½éĻħ äºļæ¸¸
mu ÅŁ
Ġm ad
ÏĨÎ¿ ÏģÎ¬
Ġtam biÃ©n
ĠÎ± ÎºÏĮ
ÙĦ Ùĩ
áĥĶáĥ¥ áĥ¡
ç§ ĳ
ĠãĢ Ĭ
ĠÐŁ Ð¾
à®® à¯ģà®®à¯į
Î¯ Ïĥ
b t
Ġáĥķ áĥĺáĥľ
ÏĦ Î¹Î±
Ð ĵ
l us
à§Ł à§ĩà¦°
Ħà¸ ¥
ĠÏĦ ÏĮ
Ġ0 2
ĠÑĤ ÐµÑħ
ale ment
áĥĿáĥĵ áĥĶáĥ¡
¨à¸ ¶à¸
ĠÂ» .
Ġà®ļ à¯ĩà®°
Ñĥ ÐµÑĤ
´ Ī
Ħà¸§à¸²à¸ ¡à¹Ģà¸
Î»Î¿ Î¹
à¤° à¥ĭ
201 9
åİ »
å¾ Ī
è§Ĩ è®¯
áĥĺáĥĽ áĥĶ
Ħ à¸Ńà¸
ĠÐºÐ¾ÑĤÐ¾ÑĢ ÑĭÐµ
Ġà¤ī à¤¤
ĠØ¥ ÙĨ
Ġà¹Ģà¸ ŀ
ĠÑı Ð²
à¹Ģ à¸£à¸²à¸
à¦¾à¦¨ à¦¾
Ġt ÉĻl
Ġáĥ¡ áĥĺáĥĽ
I E
Ð°Ð½ Ð¸Ð¸
Ġpro duk
à¦¿à¦ ĸ
ãĢ Į
Ùģ Ø±
áĥĶáĥĳ áĥĲáĥ¨áĥĺ
Ġby Äĩ
à®µ à®°
v al
Ġà¦¤ à¦¬à§ĩ
Ġë Ħ
etz t
è© ±
Ġpar te
Ġte Å¼
Ġà¤īà¤¨à¥įà¤¹ à¥ĭà¤Ĥà¤¨à¥ĩ
Ġà¤¨ à¤¾à¤®
à±ģà° £
ĠS o
à¯įà®¨à¯įà®¤ à¯ģ
×ķ× ĺ
à±Ģ à°Ł
Ġy az
ÙĪ Ùĩ
Ġo ok
ãĤ ¬
s ten
Ġth Ã¬
ow i
n ou
ë Ķ
à¦¾à¦ ¡
I N
ig ne
Ġà®ļ à®¨à¯įà®¤
ay on
ĠÆı liy
ey n
Ġà°ª à°¾à°²
è¨ Ī
Ġd om
ĠK h
ĠØ¯Ø§ÙĨ Ø´
ĠB ir
í Ĥ
Ġp on
ä¸Ń æĸĩ
à¯Īà® ®
Ġà¤¹ à¤°
Ġáĥł áĥĲáĥĽáĥĵáĥĶáĥľ
§à¹ĩà¸ ļà¸
éĸ ¢
à¤¾à¤ ł
à°¸ à±įâĢĮ
c ri
Î¼ ÏīÏĤ
à°¾à° ¸à±įà°¤
Î´ Î¹Îº
Ġte mps
Ġáĥĳ áĥĲáĥķáĥ¨
åı ª
ç¾ ¤
ÑĥÑĩ ÑĪ
der n
Ïĩ Î¹
Ø¬ Ùħ
ĠáĥĲáĥ® áĥĲáĥļ
ĠÎµÏĢ Î¹Ïĥ
ĠÐ½ Ð°Ð´
an ya
à®Ł à¯įà®ļ
ªà¸²à¸¡à¸²à¸£à¸ ĸà¸
ÏĥÎºÎµ Ïħ
æ ¨
ĠÐ¿ Ð¾ÑĤ
Õ¶Õ¥ÖĢ Õ«
ĠáĥĶ áĥķáĥł
à¹Ħà¸ §
Î½Î± Î½
Ġf on
Ð¼ Ð°
à®µ à®°à¯įà®ķà®³
ķ à¹īà¸Ńà¸ĩ
ĠÏħ ÏĢÎ¬ÏģÏĩ
Ġà¤® à¤¨
à¤ļà¥įà¤ Ľ
èĢ ģ
éĹ ®
Ġæ Ŀ
áĥĲáĥĹ áĥĲ
ĺ à¸£à¸£à¸
ĠÐ½ Ð°Ð·
Ġà¤¸à¤ķ à¤¤à¤¾
Ġk a
Ġà¸ ļà¸
ĠÐ¿ÑĢ Ð¸Ð½
ķà¸²à¸ ¡à¸
Ġm as
à°¾à°¬ à±ģ
Ġáĥ¡áĥĲáĥ®áĥĶáĥļáĥĽ áĥ¬áĥĺáĥ¤
à°¿à°¨ à°¾
ĠÐ² ÐµÑĢ
ĠR es
ide o
Ġmej or
ĠÚ©Ø´ ÙĪØ±
áĥĲáĥłáĥ ¯
Ġà¦ªà¦° à§įà¦¯
Ġhá»į c
at ie
g ie
Ø§Ø± ÙĬ
t ros
ÅĽ my
ë¡ Ŀ
Ġs ite
Ġnu ov
Ġ×Ķ× Ľ
à±Ģ à°¤
Ġw ym
à®µ à®°à¯į
à¥ĩ à¤¨
Ġà°Ĺà±įà°° à°¾à°®
Õ¸ÖĤÕ©Õµ Õ¡Õ¶
d ÃŃ
Ġg io
ãĥ Ľ
Ġà®® à®¾à®¤
Ġb ul
Ġà¦® à¦¾à¦°
O R
i po
ÙĬØ± Ø©
ig n
Ġcon f
Ġos ob
ÉĻ dÉĻn
ĠÉĻs as
Ùģ Ø§Ø¯Ùĩ
Ġà°ī à°ª
eit er
Ġà®ħ à®ªà¯įà®ª
ãĥĩ ãĤ£
à¯ģà® Ļà¯įà®ķ
Ġv Å¡e
Ãº c
Ġà¤ķà¤° à¤¨à¤¾
er ca
ãģ« ãĤĪ
Ġìĸ ´ë
áĥĲáĥķ áĥĲáĥĵ
¶ à¹Īà¸ĩ
à§Ģ à¦Ĺ
Ġè ®
Ġà¦ľ à¦¾à¦¤
qu i
Î½Î± ÏĤ
à°¾à°Ĥà° ¡
Î¯ Î´
ĠS ain
ĠáĥĶáĥłáĥĹ áĥĲáĥĵ
æº Ĳ
88 8
Ð¼ Ð¾ÑĤÑĢ
Ġ3 0
ĠÎºÎ¬ Î¸Îµ
ty cz
ĠáĥĲáĥĽ áĥĳ
ĠÏĢÎµÏģÎ¹ Î¿
ÑĨ Ð°
ĠH er
à®¨à¯įà®¤ à¯ģ
à¸´à¹Ģà¸ Ħà¸£à¸²à¸°à¸«
ÏĦÎµ Ïģ
å¸ ¸
ĠÐ´ Ð°Ð½
Ġdo or
Ġáĥ¡áĥĲáĥ Ĵ
à¹Ģà¸ Ĭ
ÏĦÏĮ ÏĤ
Ġc rÃ©
ĠÐ½ ÐµÐ´
ĠO n
ªà¹Īà¸§ à¸Ļà¸
ĠÎ£ Îµ
Ġà¦¤ à¦¾
Ġ×ĳ ×Ķ
Ġéĩ į
ä» »
è Ħ
ĠáĥĻ áĥĲáĥľ
§à¸ ĩà¸
Ð° ÑĨÐ¸Ñı
en e
Ú¯ Ø§ÙĨ
ªà¸³à¸« à¸£à¸±à¸ļà¸
ĠÐ± ÐµÑģ
à¹Ħà¸ ĭà¸
à®ļ à¯į
Ø§Ø¯ Ø©
áĥĵ áĥľáĥĶáĥľ
Ġà´ µ
Ð°ÑĤ Ð¾ÑĢ
à¤¾à¤ Ł
ĠmoÅ¼ na
Ġv ÄĽ
Ġy ox
áĥĴ áĥĿáĥĽ
Ã Ĳ
Æ¡ i
t ri
g ne
Ġà¦ķà¦¾à¦° à¦£
Ġà¤¸à¤¬ à¤¸à¥ĩ
re is
Ġë ©
et s
à¯Īà®ķà¯įà®ķ à¯ģ
à±Ĩ à°Łà±įà°Ł
ĠW ir
Ġcz ÄĻ
ĠÃ¼z rÉĻ
im iento
a zione
ĠØ¢Ùħ ÙĪØ²
à°ª à°¡
Ġj en
Ġhaq q
Ġà®ī à®±
ĠW o
Ø· Ø©
×ķ ×Ļ
ë ¯¼
ĠØ¨Ø§ Ø²ÛĮ
Ġv ie
Ġpers onn
ia le
à¦¨à§įà¦ ¨
Ġt ÄĽ
ĠM u
Ġd os
ë§ ¤
Ġà°ķ à°°
èķ ī
à¤¾à¤° à¥ĩ
Ø±Ú© Øª
ĠëĤ ¨
à±Ģà° İ
à°ļà±įà°ļ à±ģ
Ġà¦¹ à¦¿à¦¸
ĠqÉĻd ÉĻr
Ġáĥ¬ áĥĶáĥļáĥ¡
ªà¸¸à¸ Ķà¸
à¯Ĥ à®°
æľ ¯
t Ä±r
ĠØ¨ ÙĬÙĨ
Î¼Î± ÏĦÎ¿
Ġil s
ÎĻÎ Ŀ
Ġtien e
ĠáĥĴ áĥĲáĥ£áĥ
è½ ¯
æķ Ļ
ĠÑĩ ÑĤÐ¾Ð±Ñĭ
à´¤ àµįà´¤
Îµ ÏĦÎµ
ç ¢
áĥłáĥĴ áĥĲáĥľ
Î¼ÏĨ ÏīÎ½
ĠÑĢ ÐµÐ³
ich e
rz Äħ
à¹ Ħà¸£
ÏģÎ± ÏĤ
à¥Ģ à¤²
ĠÑĤ ÐµÐ»
Ġ×© ×Ĳ
ĠáĥĽ áĥ¨
¥à¸ ¹à¸ģà¸
Î½ Î®
Ġqu y
ĠÐ¸ Ð³ÑĢ
Ġà®İà®© à¯į
Ġà¸ Ľà¸
ĠÎ¿ÏĢÎ¿ Î¯Î±
Ġz o
Ġà®ħ à®²à¯įà®²
æĮ ģ
æ´ »
Ĵ áŀ
Ġáĥ¨áĥĶáĥ¡ áĥĲáĥ«áĥļ
Ġ à¹Ĩ
ĠÑĩ ÐµÐ»Ð¾Ð²
il d
ĠØ§Ø³Øª ÙģØ§Ø¯Ùĩ
Ġà¸Ħ à¸²
ĠÑĥ Ð¶Ðµ
Ġà¸ŀà¸Ļà¸ ±à¸Ļ
ang an
Ġëį Ķ
Ġáĥ¨ áĥĿáĥłáĥĺáĥ¡
und o
ÑĢÑĥ Ð´
Ã¡ z
hr en
Ġl i
à§ģà¦ §
áĥĲáĥĽ áĥĺáĥ¡
Ø§ÙĦ Ùħ
à¥Ģ à¤¡
Ġ×Ĳ ×ķ
Ġpro pos
owa dz
ĠÕ¸ ÖĢ
Ġm il
à°¿à° §
Ġà¦¸ à§ĩà¦ĩ
áº¡ o
Ġà¤ª à¤¾à¤°
ĠØ Ł
ĠC as
Ġp are
ĠØ¯Ø§Ø± Ø¯
l and
Ġà¦¶ à§ģà¦°à§ģ
Ġë° ľ
Ġà°ª à°Łà±įà°Ł
Ġn ost
Ġà´ ¸
A L
ĠÃ© g
ĠI ta
cz ÄĻ
à°¿à°Ĥà° ª
liy i
t ta
ĠØ§ÙĦ Ø§
à¦¿à¦ ı
ĠÃ§ ok
Ġf ue
à¦ŀ à§įà¦ľ
ia ÅĤa
Ġb ax
à¤°à¥įà¤ ľ
Ġà¤¸ à¤Ńà¥Ģ
h eit
ãĤĵ ãģª
Ø¹ Ùħ
m ÃŃ
à®² à®¿à®²à¯į
ãģ ¸
ĠáĥĽ áĥĶáĥĿ
à¹īà¸Ńà¸¡à¸ ¹à¸
Ġte mp
Ġä½ Ĩ
Ġà¦¤à¦¾à¦° à¦¾
à°¾à°¨ à±į
Î¼Î¿ ÏĤ
á»ĭ ch
Î½Î¿ Ïį
ĠR o
áĥĶáĥĳáĥ£áĥļáĥĺ áĥĲ
çľ ģ
ä» ·
Ð°Ñģ ÑĮ
Ġblo ck
Îĳ ÎĻ
ä¾ ¡
ĠáĥĽ áĥª
ĠÏĥÏĦ Î¿ÏħÏĤ
ĠÐ½ ÑĥÐ¶
à· Ķ
Ġà¤¸ à¤¾à¤²
Ġà¹Ģà¸ Ľà¹ĩà¸Ļà¸
Îº Î¿Î»
ç ¡
ĠÐ¾Ñĩ ÐµÐ½ÑĮ
Ġ item
áĥĶáĥłáĥ Ľ
Ķà¸ ¹
ÏĨ Î·
N o
Ð¸Ð½ Ð³
íĨ µ
¥ à¹Īà¸²à¸
ÏĮ ÏĦÎ·ÏĦÎ±
ĠØ§ÙĦØ° ÙĬ
Ġà®¤ à¯ĭ
å½©ç¥ ŀ
å ĸ
å¯ ¼
ĠáĥĲáĥ ĺ
Ġà¸ «
ÑĨÐ¸ Ñİ
ĠØ¨ Ø®
dz y
´ à¸Ļà¸
ĠÐ½Ð° Ñģ
Ġ à¹Ħà¸¡à¹Ī
ĠÅ ł
s ÉĻ
áĥĶáĥĳ áĥĽáĥĲ
Ġ×Ķ× Ĵ
Ð°Ñĩ ÐµÑģÑĤÐ²
Ġc er
Ġm Å¯
Ġà¦ķ à§ĩà¦¨
ãģĹãģ¦ ãģĦãĤĭ
áĥĲáĥľ áĥĴ
Ġà°¹ à±Ī
ĠJ ahr
à®¿à®¯ à¯ĩ
à¤Ĥ à¤ª
Ġë° ı
Ġi k
Ġà°¦ à±įà°µ
Ġe le
Ġdo b
Ġk un
à¦¾à¦ ī
Ø±ÙĪ Ø´
ĠØ¨ Ø¹Ø¯
le p
Ġà®ª à¯ĩà®ļ
ess e
c el
éĸ ĭ
ì° ¨
à§ĩà¦² à§ĩ
ð Ł
Ġap ar
Ġà¤ħ à¤®
ĠT o
Ú¯ ÛĮØ±
à®¿à®¯ à®¿à®©à¯į
ta c
ĠÕ¥ Õ¶
di k
ĠL as
Ġà¦ı à¦²
ĠktÃ³ ry
£ p
Ġà°¤ à±ĭ
Ġz w
Ġpri x
Ġãĥ ŀ
Ġà¦® à§ģ
Ġà¤ķ à¥įà¤·
ĠT Ã¼rk
Ġan ni
íķ Ń
ÙĤ Øª
áĥĲáĥĽ áĥĶáĥľáĥ¢
Ħ à¸£à¸±à¸ļ
à¦ķ à§ĩà¦°
Ġag æĹĹèĪ°åİħ
×ŀ ×¨
Ġtra va
Î¸ Î¿ÏįÎ½
Ġà°¤ à°ªà±įà°ª
Î¯ ÏīÎ½
c ak
ĠáĥŀáĥĿáĥļ áĥĺáĥ¢
å¼ º
åŁ º
Ð¾Ð½ Ð°
p on
Ġï¿½ï¿½ ï¿½
Ġà®ķ à®¿à®Ł
ĠáĥĲáĥ £áĥ
ĠÎ¼ÏĮ Î½Î¿
Ð» ÐµÐºÑĤ
à°ª à±ģ
ti t
¥à¸ ĩ
ĠÎ±ÏĢÎ¿ ÏĦÎµ
1 3
ĠÐ´Ð¾Ð» Ð¶
Ġê± °
ĠáĥĲáĥ Ļ
à¸Ńà¸¢à¸¹ à¹Īà¸
Ïĥ ÏĦÎ®
Ġà¦ª à§ģà¦²
ĠÐ¾Ð± Ñī
Ġà®Ĩ à®°
Ħ à¹Īà¸
ÎµÎ¯ ÏĤ
Ġg ran
ãģª ãĤī
çĦ ¶
è® º
æĶ ¶
áĥĶáĥ £áĥļáĥĺ
Ħà¸£à¸ ±à¹īà¸ĩ
ĠÐ² Ð·
Ġbu de
Ã¢ m
ģà¸© à¸²à¸
Ð¸ÑģÑĤ ÐµÐ¼
à¸Ńà¸ °
un a
ĠB er
áĥ£áĥł áĥĺáĥ¡
à¤¿à¤ ¦
Ð»Ñı ÐµÑĤÑģÑı
ĠM ais
çľ Į
Ġà¦¸ à¦¾à¦¥à§ĩ
à¯Ĭ à®°
áĥĲáĥł áĥĶáĥĿáĥĳ
ĠÃ©ta it
ãģĤãĤĬ ãģ¾ãģĻ
a cji
à±ĩà° ¸à±įà°¤
ĠØ ¶
il a
und en
ent ro
nie Å¼
ĠåĽ ½
àµįà´ °
Ġà¤ª à¥Ī
iá»ģ n
Ġà°ļà±ĩà°¶ à°¾à°°à±ģ
ilm iÅŁ
ĠÂ ·
ì² Ń
Ġo fer
Ġâ ľ
ĠìĽ Ĳ
Ġà°µà°¿à° ¶
in t
ĠP ra
et a
Ø´ Ú©
Ļ à¯įà®ķà®³à¯į
je m
èį ī
Ġà¤µ à¤¿à¤ķ
ĠH et
Ġ×ľ ×©
ĠI ch
ĠÄĳ i
Ġà°ª à°¨
Ġà¦¹à¦ļ à§įà¦Ľà§ĩ
ĠØ§ÙĦÙħ ÙĨ
Ġw enn
Ġc el
Ġon un
Ã± a
Ġde gli
Ġà¦¸ à¦ķ
Ġto dos
áĥĲáĥł áĥĶáĥĳáĥĺáĥ¡
ŀ à¸£à¸
Ġà¤Ĩà¤ª à¤ķà¥ĭ
Ġag èµĮ
à¯ĩ à®¯
co re
ÏĨ Îµ
ĠØ® Ø±
ĠÎ» Î±
Ġa ta
ĠáĥĻ áĥļ
å¾ ĭ
7 8
Ġr u
à°¦ à±ģ
ĠÎ± Ïģ
Ġd Ã¼n
áĥĲáĥ£áĥ ł
Ïģ ÏİÎ½
ĠÐ¿ Ð°ÑĢ
ê· ¸
Ġà¦¨ à§ĩà¦¤
Ĺà¸ ĩà¸
ÏĦ ÏĥÎ¹
Ġç »
ĠÐ ĸ
Ø§Ø³ ÛĮ
ĠáĥĿ áĥłáĥĴáĥĲáĥľ
à¸Ńà¸Ńà¸ ģà¸
ĠÎ¶ Ïī
ov a
ÐºÐ° Ñĩ
ĠV ous
Ķà¸ ¹à¸
ÏĢ Î®
à¦¾à¦° à§įà¦¥
as t
Ġh g
å§ Ķ
ä¼ ģ
áĥĲáĥ« áĥĶ
łà¸²à¸ ©
ĠÐ° ÑĢ
à¯Īà®¯ à®¾à®ķ
ÙĬ Ø²
µ à¹Īà¸
ÐµÐ½ Ð´
Ĳ à¸
ì§Ģ ë§Į
Ġgr and
Ġáĥĺáĥľáĥ¤ áĥĿáĥłáĥĽ
à°Ĥà° ¡à±ģ
ĠÑģÑĤ ÑĢÐ°Ð½
Ġà¦¬ à¦¿à¦°
åķ ª
ÙģØª Ùĩ
Ġd Ã¶vlÉĻt
ĠáĥĽ áĥĲáĥłáĥ¢
in y
×ĳ ×¢
m al
Ġà°¸ à°¾à°§
Ġda lla
Ġ2 4
æ© Ł
Ġper met
à¦¥ à¦®
à¤ķ à¥įà¤°
Ã´ n
Ġfor ma
ÙĨ Ø©
Ã¼ y
Ġà¤ª à¥ģà¤²
à® ľ
Ã ¦
ĠØ§ ÙĪ
f en
éĢ ģ
g ÅĤ
pu is
àµģà´ Ĥ
n Ã½ch
ç Ł¥
à¦¨à§įà¦¤à§įà¦° à§Ģ
à®Ļà¯įà®ķà®³ à®¿à®²à¯į
à¥ĩà¤Ĥ à¤¦
à´ ¨
×ĵ ×¨
Ø£ ÙĨ
ìĹ Ī
Ġw as
f i
à¦¾à¦ Ń
Ġà°ħ à°¡
Ġtut ti
Ġc ol
ĠãĤ ¤
Ġà°ķà°¾à°° à±įà°¯
is z
Ġà¦¸ à¦Ń
ĠA v
ĠáĥĽ áĥľáĥĺáĥ¨áĥķáĥľáĥĶáĥļ
Ġà¸ ¡à¸µ
à´ ³
åĢ ¼
f ica
nÃŃ ch
ĠÎ ĸ
iá»ĥ m
ĠÂ µ
à±Ģà° Ĩ
Ġáĥª áĥ®áĥĿáĥķáĥł
é »
è¿ ĺ
ĠÐĿ Ð¾Ð²
Ġà°® à°Ĥà°ļ
Î· Î³
ĠU ne
ĠáĥĶ áĥł
ĠÎ± Î¾
ÐµÐ½ Ð¸Ñİ
ra u
Ġà¦ªà§įà¦° à¦¶
Ġà¸§à¸´à¸ ĺ
ÏĨ ÎŃ
æł ĩ
ĠÐ¾Ð± Ð»Ð°ÑģÑĤ
Ġà®ªà®¾à®° à¯įà®¤à¯įà®¤
áĥ£áĥłáĥ Ĺ
ŀ à¸²à¸
ĠÏĢÏģÎ¿ ÏĤ
ĠØª Øµ
ĠÐ´ Ð¾ÑģÑĤ
Ġ ur
Ġà¸ ļà¸²à¸Ĺ
Î» ÏĮ
ĠN ach
Ġà®ĩ à®±
æ Ĳ
å ²
áŁ Ĵáŀ
áĥĺáĥĻ áĥĺáĥ¡
§à¸¥ à¸²
ĠÐ¿ÑĢ Ð¾Ð³
Ġà¦¸ à¦¦
asÄ±n a
Ġà¹Ģà¸¥ à¹Īà¸Ļ
Ð°Ð» Ð¸Ð·
à¹Ī à¸Ļà¹Ģà¸
ri d
Ġcu ando
áĥĲáĥ¡ áĥ¢
Ġs ous
Ð¾Ð² Ð°ÑĢ
Ġà§§à§ ¦
à¤¯ à¥ĩ
×ŀ× ª
dzie j
Ġáĥ§áĥĿáĥķ áĥĶáĥļ
Ġà°ķ à°¥
à°¾à°Ĥà°Ł à°¿
is ti
ãģĪ ãģ¦
Ø§Ø «
Ġà®ħà®µ à®°à¯įà®ķà®³
li w
ê¸ ī
à¦² à¦¾
Ġà¤¸ à¤¹
ĠØ² ÛĮ
Ġe dÉĻn
le ich
Ġà°ľ à±Ģà°µ
Ġà¤ķ à¤Ī
ĠãģĿ ãĤĮ
Ġk aÅ¼
Ġse b
Ġv a
à®¿à®¯ à®²à¯į
Ġ\ "
Ġl ui
à¥ĩ à¤¦
ĠØ± Ø³
Ä±n dan
Ġà¦ªà§ģà¦² à¦¿à¦¶
ic io
Ġà¤Ĩ à¤µ
ran Ã§
éķ ·
Ġpro pr
Ġë§ Ĳ
ĠA u
Ġ Å¼
Ġà§ §
à±Īà°¨ à°¾
Ġ×ľ ×¤
Ġà®ļ à®°
uy á»ĩ
k Ã©
Ġà¤ļ à¤²
Ġà¦Ĩ à¦Ľà§ĩ
nik Ã³w
áĥĲáĥľ áĥĺáĥĲ
¹ à¹Ī
g os
º «
ol u
ĠÙĩ ÙĪ
Ïį ÏĢ
Ġà°ķ à±ĩà°¸
ÎĳÎ Ľ
à®¿à®ķà¯įà®ķ à¯ģ
ĠáĥĲáĥ¦ áĥĽ
æį ®
Ġï¼ Ľ
ĠÐ¼ ÐµÑĤ
ĠG es
Ïģ ÎµÎ¹
Ġna ar
Ġáĥ¨áĥĶáĥ ®
ÎĳÎ ļ
ĠÐĺ Ð½
Ġà°ķ à°¿
Ġà¦¬ à¦¾à§ľ
Īà¸ ¸à¸
ĠÎµÎ½ Ïİ
è® °
ĠÑįÑĤ Ð¾Ð¼
Ġtr ans
ĠáĥĲáĥĵáĥĴ áĥĺáĥļ
· à¹īà¸Ļà¸
Î¹ Ïİ
áº¯ t
Ð°ÑĤ Ð°
Ġà¤Ł à¥Ģ
à¹ģà¸ ¡
ĠÎķ ÏĢÎ¹
Ø§Ùħ ÙĦ
Ġà°®à±Ģ à°¦
åį Ĺ
å° ĳ
Ġç ľ
áĥĵ áĥĶ
Ġà¸ª à¸´
ĠÐ¼ Ð¾Ð³
Ġà¦ªà§įà¦° à¦¥à¦®
ÃŁ e
à¸£à¸ ¹à¸
ĠÐ¿ Ð¾ÑĢ
ĵ à¹Įà¸
ìŀ ĳ
Ġis tifadÉĻ
Ġáĥ§áĥķáĥĶáĥļ áĥĲáĥĸáĥĶ
Ġav oir
ÑģÐº Ð¸Ðµ
Ġà¦ªà¦¾à¦° à§ĩ
Ġà¤¬ à¥Ī
Ġsu o
à®Ł à¯į
Ġ$ (
Ġtak Å¼e
Ġkter Ã½
Ġse hr
ĠØ· Ø±
âĢĮ âĢĮ
om b
à±ĭ à°ª
ch a
ĠØ£ ÙĬ
Ġà¤« à¤¿à¤²
Ú© Ø³
×ł ×Ļ×Ŀ
ãģ« ãģ¤
ĠëĤ ´
Ġà¤« à¤¿à¤°
Ġp owie
ter n
ĠÃ ľ
à®± à¯ģ
Ġh ar
ÛĮÙħ Øª
A T
à¥ĩ à¤°
Ġh anno
v od
Ġpar ti
ĠØª Ùħ
Ġìĭ ¤
à°¨à±įà°¨ à°¾à°°à±ģ
ere k
áº¡ t
ãĢ ħ
Ġa ff
iy ÉĻ
le Äį
à°¾à°¨ à°Ĥ
it ar
à®Ł à¯ģà®ķà¯įà®ķ
Ġà¤¸ à¤¿à¤Ĥ
ëĤ ´
ÃŁ en
à¤¾à¤· à¥įà¤Ł
Õ ¢
Ġáĥŀáĥł áĥĿáĥª
« à¸²
ÉĻs inÉĻ
ç» Ħ
æ ®
Ġf ir
Î» Î¹Ïĥ
Ġà° Ĺà°¾
ĠÂ» ,
or den
áĥľ áĥĺ
å· §
åĪĨ æĹ¶æĹ¶å½©
Ð¾Ð± Ñī
ĠØ¯ Ø§Ø¯
ĠÎĿ Î¿
Ġà§© à§
áĥĽ áĥĺ
ĠÎĶ ÎµÎ½
Ñĥ ÑģÑĤ
Ġ2 1
Ġl u
¨ à¸²à¸
Î³ Ïĩ
Ġå ¿
Ðµ ÑĦ
à¦¤ à¦¾à¦°
áĥĲáĥľ áĥĲ
à¸µà¸ ģ
Îķ ÎĿ
Ġà°ª à±ĩà°°
ÑĢÐ° ÑĦ
í Ŀ
à¸´à¸ Ķ
ĠÏĮ Î»
à¯įà®ļ à¯įà®ļ
ìĸ ´ë
áĢ¹ áĢ
åĲ ĳ
ä½ ł
ĠáĥĴáĥĲáĥľ áĥĽ
à¹ģà¸ Ĥ
ĠÑģ Ñĩ
ov an
à°¾à°° à°¨à°¿
·à¹Ī à¸Ļ
Ð°ÑİÑĤ ÑģÑı
Ġ à¸Ļà¸²à¸
Ġà¤® à¥Ī
Ġy an
áĥĲáĥ¡ áĥĹáĥĲáĥľ
t in
ÑĢÑĥ Ð¿
Ġ×ĳ ×¨
O W
wiÄħ z
à§ĩà¦¬ à§ĩ
áĥ¦ áĥķ
ĠÚĨ Ùĩ
à®ªà¯įà®ªà®Ł à®¿
Ġk m
à¤°à¥įà¤ £
Ġà°µà°¿à° §
Ġà¦Ĺ à¦¤
Ġà®® à®¤
Øª Ùĩ
Ġk ad
ĠN ous
Ġà°ļ à°Ĥà°¦à±įà°°
Ġcom mun
Ġd ann
v at
ro d
Ġx ÉĻbÉĻr
è¨ ĺ
à¤¿à¤ ·
ĠØ® Ø¨Ø±
à¦¬ à¦°
ĠØ®ÙĪ Ø§Ùĩ
ĠÃ© le
Ġu Å¼y
Ġn Æ°á»Ľc
¥ ¼
ÙĪ Ø³
Ġdey il
Ġà®ªà¯ĭ à®²
à°¦ à±ĩà°¶
f ahr
Ġk ull
Ġà¤Ĩ à¤¦
×ľ ×Ļ
an za
à§ģà¦ ľ
Ġà°ªà±įà°° à°¤
Ġc l
èī ¯
Ġt om
ĠâĢ ĭ
Õ º
Ġa Ã§
Ġata u
Ġáĥ¡ áĥĻ
à¹Ģà¸¥à¸ ·à¸Ńà¸
à¤¹ à¤°
à¥įà¤¯ à¤¾à¤¤
Ġà¦īà¦ª à¦ľ
ãģ§ãģį ãĤĭ
Î»Î· ÏĤ
skie j
ĠÏĩ ÏģÎ·
k ar
ĠáĥĽáĥĿáĥ ¥
æ »
å¸ ĥ
Ð°ÑĤ Ñĭ
Ã© tÃ©
Ġï¿½ï¿½ï¿½ï¿½ ï¿½
Ġà¦ķ à¦²
áĥĺáĥ ¬
Î´ Ïħ
ĠÐ¿ÑĢ Ð¸Ð¼
Ġà®®à¯ģà®© à¯įà®©
ĠmÉĻlum at
à¸Ļà¹īà¸ ³à¸
ĠÎ¾ Îµ
Ġ ä¸Ń
Ð ¤
Ġà¦Ĩ à¦¦
áĥĶáĥł áĥĲ
ģà¸ ¥à¸²à¸
ĠÎķ Îº
Ġp uj
ĠÐ°Ð² ÑĤÐ¾Ð¼
t ÃŃ
à¸£à¸µà¸ ¢à¸
ĠÏĢ ÏģÎ±Î³
ll t
ĠÙĪØ§ÙĦ Ùħ
éĻ Ĳ
åŀ ĭ
å¸ Ī
áĥĿáĥļ áĥĿáĥĴ
à¹Ģà¸ Ľ
ĠÐ²Ñĭ Ð¿
es e
ë¬ ¼
Ī à¹īà¸²à¸
Ð¾Ð· Ð´
à¹Ģà¸£ à¹ĩà¸
wia d
ic iÃ³n
ĠáĥĵáĥĲáĥ ĳ
ĠÂ °
Ð½ Ð°Ðº
ÉĻf ÉĻr
Ġà°ķ à±ĩà°Ĥà°¦à±įà°°
à®¿à®°à¯ģà®¨à¯įà®¤ à¯ģ
Ġà¦¤ à¦¾à¦ģ
ĠáĥĲáĥłáĥ ª
ĠÙĨ Ø´
Ġt iáº¿
ĠSain t
Ġà°ħ à°®à±įà°®
à°¿à° ³
à¦°à§įà¦ ķ
Ġà¤Ĺ à¥įà¤°
×ķ× Ķ
à°¾à°Ĥà° ķ
em me
i or
in si
ov Ã½
ti m
ÙĤ ÙĦ
ty w
Ġà°ľ à°¿à°²à±įà°²
Õµ Õ¡Õ¶
à¶ ¸
à¥ĩ à¤®
j on
Ġbe au
u te
Ġd ÄĽ
ie mp
y on
lÉĻr ÉĻ
Ġon der
à°¯ à°Ĥà°²à±ĭ
Ġì ¶
Ġãĥ ¡
Ġãĥ Ĳ
ĠØ´ Ùĩ
Ġà¦ķ à¦¿
la v
Ġà¦ħà¦Ń à¦¿à¦
Ġd ou
un k
×ķ× ŀ×
Ġà°ªà±Ĩ à°¦à±įà°¦
Ġë°Ķ ì¹´ëĿ¼
ì ¸
om a
áĥĿáĥ¤ áĥļ
Ĭà¸ ·à¹Īà¸Ńà¸
ãĥ İ
ä» Ģ
g na
Ùħ ÛĮÙĨ
Î´ ÏĮ
Ġà´ ®
ĠÎļ Î±Î¹
Ġà¤¸ à¥ģ
Ġáĥ Ł
å·¥ ä½ľ
ç ĸ
Ð½Ð¸Ðº Ð¾Ð²
os e
Î² Î¿Î»
Ġà¦ĩ à¦¸à¦²
Ġáĥ©áĥĶáĥĽ áĥĺ
ÏĢ ÎŃ
Ð¸ Ð½Ð¾
à®¿à®ķà¯įà®ķ à¯ģà®®à¯į
Ġà¦ªà§įà¦°à¦ķ à¦¾à¦¶
¹ à¹Īà¸
Î» Ïİ
6 8
ĠÑĢ ÐµÑĪ
Ø¦ ÙĬØ³
áĥĶáĥł áĥĶáĥ¡
Īà¸ ³à¸
ĠÎ¬ Î½
h u
ĠÑģ ÐµÐ±
Ġíĺ Ħ
· à¸Ńà¸Ļ
ÏĥÎ¹ Î¼Î¿
Ġcon o
Ġt ÉĻd
æł ¼
ä½ ķ
Ġag è§Ĩè®¯
áĥł áĥĿáĥĳ
ķà¸´à¸ Ķà¸
ÑĮ Ñİ
Ġà¦¨ à¦¿à§Ł
ĠW ar
à¹Ģà¸£ à¸²
Ð»Ð¸ Ð²
ĸà¸¶à¸ ĩ
à¥įà¤ ļ
áº© m
áĥĲáĥ¢ áĥĺ
ie ux
ĠÐ² Ð¾Ð´
Ġsam o
à±ģà°ķ à±ģà°¨à°¿
os ten
Ø§ÙĦ ÙĬ
áĥł áĥĲáĥ¤
at to
uf en
en ne
Ġà°ķ à°¾à°µ
Ġà°² à±ĩà°¦à±ģ
á»ģ n
Ġk al
Ġà¦¶ à§ĩà¦·
à±Ĩà°² à±įà°²
ch es
à®µ à®°à¯įà®ķà®³à¯į
un e
Ġh azÄ±r
×ķ×ł ×Ķ
Ġp el
ĠrÃ³w nieÅ¼
Ġà°¨à°¿à°° à±įà°®
sk Ã¡
à¶ ļ
à¥Ģ à¤°
ĠØ¬ Ø¯ÛĮØ¯
ĠãĤ ¯
¶ Į
à¦¬ à§ĩà¦¨
à¯ģà®¤ à¯į
Ġm es
Äį e
Ġw iel
ĠD a
à¤¾à¤ ī
à°¿à°¤ à±ĭ
ĠRes pub
ãģĦ ãģĦ
ĠØ´ ÙĩØ±
Ã¶ glich
un da
Ġm at
ç« ĭ
Ġà¦¸ à§ĩ
Ġà®ªà¯Ĩ à®°
íĻĶ ìĿ´íĬ¸
íĶĦ íĻĶìĿ´íĬ¸
Ġë Ĭ
áĥĺáĥľ áĥĴ
«à¸¥à¸ ±à¸ĩà¸
e ft
æİ ¨
Ġmu jeres
v r
Î¹ÎºÏĮ ÏĤ
ĠC ar
ĠÎ´Ïį Î¿
à¤¡à¤¼ à¤¾
ĠáĥĵáĥĲáĥ £áĥ
Ġå ¼
å¤ Ħ
ĠÐ¢ Ð°Ðº
à°Ĥà°Ł à°¿
ÎŃ Ïĩ
ta tion
Ġáĥ© áĥĲáĥĽ
ĠÎł Î¿Î»
Ð» ÐµÐ¼
ÙĪ Ø¬
it as
à¸£à¸¹ à¹īà¸
Î® Î¼Îµ
è¯ ·
ÑĥÑĢ Ñģ
à§ģ à¦Ł
áĥĶáĥľ áĥĺ
à¸²à¸£ à¹Įà¸
ĠÎ±Ïħ ÏĦÎ¿
Ġh asta
ĠÐ¿ Ð¾Ð½
b ÉĻr
Ġà¸ªà¸ ¹à¸
ĠÏħ ÏĢÏĮ
Ġs olo
ay a
åı¯ ä»¥
1 5
Ġà¤ Ŀ
áĥĿ áĥĲ
ĵ à¹Į
ĠÐŁ Ð¾Ð´
ow Äħ
ÙĨ Ø§ÙħÙĩ
ľà¸ ¥à¸´à¸
ĠÐľ Ð¾ÑģÐº
à¸£ à¹Īà¸§à¸
Ġ×ľ ×ĳ
ll er
Ġáĥ©áĥķáĥĶáĥľ áĥĺ
iv re
Ð¾Ð¿ÑĢ Ð¾Ñģ
Ġà¦¨à¦¿à¦°à§įà¦¬ à¦¾à¦ļ
à°¾à°² à°ķà±ģ
ê° ģ
Å¾ it
áĥĺáĥļáĥĺ áĥĲ
Ġà§ ¬
Ġà¦Ł à§įà¦°
Ġb on
Ġt Ã´i
ĠÙĬ Ø¹
i gen
ãģ£ãģ¦ ãģĦãĤĭ
Äħ Å¼
à· ĥ
Ã© g
à¥įà¤ ¬
ĠÚ©ÙĨ ÛĮØ¯
am ento
à®¿à® ¸
à°¤ à±įà°°
áº¥ n
te k
å¼ ķ
ĠrÃ© s
Ġch i
ab r
×© ×Ķ
à°°à±įà°µ à°¾à°¤
st vÃŃ
ìĨ į
ka z
à¦¾à¦ ł
ãĥ¼ãĤ º
Ġs Ã¶z
à¤ķ à¥ĭà¤Ĥ
im o
Ġà¦ª à§Ĥ
Ġà°ĩ à°ļà±įà°ļ
el d
ãģ« ãĤĤ
Ġm al
ÙĪØ± Ø©
ra k
Ġà®¤ à¯ĩà®°
Ġà°® à°§à±įà°¯
ĠF re
Ġdu e
em os
áĥĲáĥ¡ áĥ£áĥ®
¢ à¹Įà¸
ÛĮ Ø§
Ġag å¹³åı°
ì ¤ĳ
Ġ2 3
ĠÎ£ ÏħÎ½
Ġà¦ķà§ĭà¦¨ à§ĭ
Î´ Î±ÏĤ
er w
Ġáĥ¨ áĥĶáĥķ
æĬĢ å·§
áŀ ¶
ĠÐ´ ÐµÐ½ÑĮ
Ãª te
ĠÎ¼ÎŃ ÏĥÎ±
il idad
Ġáĥ£áĥĻ áĥķáĥĶ
ÏģÎ¯ ÏĤ
ÑħÐ¾Ð´ Ð¸Ð¼
à´ µ
à¥ī à¤²
Ķà¸ ±à¸ļ
Ġá¼ Ģ
åºĨ æĹ¶æĹ¶å½©
ĠÐº Ð²
à¯Ĩ à®²à¯įà®²
áĥĶáĥĳáĥĺáĥ¡ áĥĲ
à¹ĥà¸Ļà¸ ģà¸²à¸£à¸
Î¯Î½ Î·
à¦ ĥ
ÑİÑĤ ÑģÑı
ĠS te
Ġà¹Ĥà¸Ķà¸ ¢à¸
ĠÏĩ Ïİ
ãĥª ãĥ¼
Ø¯ Ø±
æĥ ³
è½¯ ä»¶
çķ Į
Ġáĥ¡ áĥ£áĥļ
Ġ à¸£à¸µà¸§à¸´à¸
ĠÐĿ Ð¾
à±ģà°Ł à±įà°Ł
d Äħ
à¹Ģà¸ģà¸ ´à¸
ĠÐ¾ÑĢÐ³Ð°Ð½ Ð¸Ð·
Ķà¸ ±à¸ļà¸
à¯įà®¸ à¯į
u a
Ġáĥ¨ áĥĶáĥĴ
Ġí ĽĦ
ĠÐ¼ Ð°Ð³
Ġà¦¬à¦¿à¦ ¦
Ó Ļ
lÉĻrin i
Ġb as
áĥ¡ áĥĲáĥª
Ġ×Ķ ×Ķ
Ġà°µà°¿à°¦ à±įà°¯
Ġà¦¦ à§ĩà§Ł
l Ã¤
à¤µ à¤¨
Ġà¤¶ à¥ģà¤°
à¦°à§įà¦ ·
esz cze
à°ª à±įà°°
Ġs áº£n
it er
ÙĪÙĦ Ø©
ĠÙģ ÛĮÙĦ
à®² à®®à¯į
h y
í Ĺ
Ġw ÅĤa
h ne
Ġolar aq
ĠS i
Ġà°µ à°¿à°¨
ÛĮ Ø³
åł Ĥ
Ġà¤ªà¥ģà¤² à¤¿à¤¸
Ġà°¤ à°¿à°°
ĠC z
Ġà¦ıà¦® à¦¨
ĠN am
Ġ×ŀ× §
Ġu09 3
à®ķ à®°
ãĥ ı
sk Ã½
ĠÆıliy ev
Ġf ÉĻ
Ġwie der
Ġx u
Ġt en
ØªØ± ÛĮÙĨ
p f
Õ¥ÖĢÕ ¨
ÉĻx s
va it
ª áĥ®
¥à¸ ±à¸ĩà¸
Ġpro duc
åĮ Ĺäº¬
p en
t rze
Îķ ÎĻ
ĠÃ¶ n
Î¿Î½ ÏĦÎ±ÏĤ
Ġà°¸à°Ĥà° ¸
Ġáĥ« áĥĲáĥļ
Ġ æľī
ä¸ ĸ
ĠÑĢÐ°Ð· Ð²
ost ÄĻp
ĠÎ» ÏĮÎ³
Ġí İ
ĠáĥĻáĥĺáĥĵ áĥĶáĥķ
ĠÏĩ ÏģÎ®
ĠÐ±Ñĭ ÑĤÑĮ
é¦Ļ èķī
Ġà¤Ł à¥įà¤°
´ à¸Ļ
Î¿ Î³
ä¸ ¤
Ð½ ÐµÑĤ
Ø« Ø±
ĠáĥĲáĥ ĸ
Ġà¸ª à¸²à¸
ÏĦÎ¿Ïħ ÏģÎ³
à¦Ľ à§ĩà¦¨
ĠÐ±Ñĭ Ð»Ð¾
Ġh ier
ļà¸²à¸Ħà¸²à¸£ à¹Īà¸²
ĠÎ¼Îµ Î³Î¬
r Ã¤
g no
å· ²
à¤¾à¤Ĥ à¤¨à¥Ģ
4 5
Ġáĥĺáĥ¥ áĥľáĥĶáĥĳáĥĲ
ļ à¹īà¸²à¸Ļ
ĠÑĩÐµÐ»Ð¾Ð² ÐµÐº
Ã¡ r
Ġ itu
ķ à¹Įà¸
ĠÐ· Ð´
·à¸Ń à¸Ļà¸
à¦¾à¦² à§ĩà¦°
ig li
ĠáĥĵáĥĲáĥ Ĵ
à¯Īà®ļ à¯į
ĠÐ²Ð¾Ð· Ð¼Ð¾Ð¶
t et
Ã¼ c
Ġ×Ķ× ĵ
Ġne ces
Ġáĥ¡áĥĲáĥĻ áĥ£áĥĹ
à°Ĥà°Ĺ à°¾à°£
à± ĸ
Ġ0 8
im ento
Ġ ä¹ħä¹ħ
à¤¾à¤ ¥
w sze
vÄĽ t
Ġà¦¬ à§ĥ
Ġà°®à±ģà° ĸà±įà°¯
Ì Ģ
Ġch ÃŃnh
ëŀ Į
Ġen core
ĠTh e
à¦¬ à§įà¦¯
Ġmo g
in as
à°µ à°¿
ĠØ¨ Ø§ÛĮØ¯
Ġh om
å¤ ī
à´ ¸
à´ ²
Ġà®ªà¯Ĩ à®±à¯įà®±
Ġwur de
ib ile
Ġà¦ħ à¦¸
Ġj i
Ġà¤¹à¥ģà¤ Ī
Ġqu r
Ġen c
ÙĪ Ø§Øª
Ġa prÃ¨s
ı ¾
Ġà®® à®±
Ġ Õ¡Õ¶
Ġb Ã¶yÃ¼k
Ġb us
Ġà°İ à°µà°°
ĠV ideos
Ġes p
Ġ×ľ ×Ĺ
ĠáĥĽ áĥĺáĥľ
Ľ à¸µ
owan y
Ġ ą
Ġà°¬ à±įà°°
Ã ľ
Ïĥ Î¯
or um
Î¿Ïħ ÏģÎ³
Ġà¦¬à¦Ľ à¦°
áĥĶáĥĳ áĥĹáĥĲáĥľ
æ Ł¥
à¤¾à¤ł à¥Ģ
ĠÐķ ÑģÐ»Ð¸
Ġv ia
Îº ÎŃ
ĠÙħ ÙĪØ±Ø¯
ĠáĥĴáĥĲáĥľ áĥª
ĠÎķÎ»Î»Î¬ Î´Î±
Ñĥ Ð»Ñı
à´¿à´ ¯
Ġà¤¹à¥ĭ à¤Ĺà¤¾
Ŀ à¸
ÏĦÎ¿ Î¹
å± ±
ĠÑģÐ» ÑĥÑĩ
ĠØ³ ÙĬ
áĥĶáĥł áĥĺáĥ¡
¢à¸ ¸à¸
Î¸Îµ ÏĥÎ·
à®¾à®£ à¯įà®Ł
ĠÐ±Ð¾Ð» ÐµÐµ
ku d
ªà¸ ĸ
ĠÏĢ Î¬
á»Ļ c
C J
æĪ ĸ
æģ ¯
Ġç İ
áĥķ áĥļáĥĺáĥ¡
¢à¸ ±à¸ĩà¸
ĠÑĢ ÐµÐ·
cz as
al Ä±ÅŁ
Ġ à¸Ńà¸²à¸
ĠÐ¿ÑĢ Ð¸Ð²
à¹ģà¸ «
b ut
Ġà°® à±Ģà°°à±ģ
áĥľ áĥĺáĥ¨áĥľ
Ġà¦¬ à¦¾à¦¸
Ð½Ð¸Ðº Ð¸
ĠØ´ Ø±Ú©Øª
Ġs ÉĻn
ìĻ ¸
j our
Ġáĥĵ áĥĶáĥĵ
ĠãĤ ¨
Ġwy b
ì µľ
y e
à¤°à¥įà¤ ¥
à¤ķà¥įà¤· à¤¾
ĠD ies
il itÃł
Ġma ar
de m
Ġb Ã¼tÃ¼n
Ø´Øª Ùĩ
ì¶Ķ ì²ľ
Ġ0 1
ìĶ ¨
Ġà¦¹ à¦¾à¦ľà¦¾à¦°
×¨ ×ª
ĠÙĪ Ø¨
Ġë¶ Ħ
à¯įà®ķ à®¿à®±
æ¥ ½
à¦¨à§įà¦ ¡
é »Ħ
Ġà¤® à¤¾à¤¨
Ġdon c
Ġpri ma
al a
à®±à¯įà®± à®¿
ãĤ ½
Ġà´ ¨
ĠEs ta
à§ģ à¦¦
Ġen v
ĠÙĦ Øª
Õ¡Õ Ń
Õ¸ Õ¶
Ġ Õ¡Õµ
Ġq ay
Ġod powie
ì½ Ķ
ĠÙģ Ø±ÙĪØ´
Ġà®ħ à®¤à¯ģ
ĠÛ² Û
Ġáĥĳ áĥĶáĥķ
µà¹Īà¸ ¢à¸§à¸
ĠØ± Ø§Ùĩ
è ±
ÅĤ at
Ġ ÅĻe
Î¾ Î·ÏĤ
ĠS an
ĠÎĳ ÏĢÏĮ
Ġ×Ĵ ×Ŀ
ĠáĥĴ áĥĸ
æī ĵ
åĳ Ĭ
ĠÐĴ Ñģ
à¦¾à¦° à§Ģ
Ïĩ Î·
Ġà°² à±ĩà°ķ
áĥĲáĥłáĥĵ áĥĲ
Îº ÎµÎ¹
ĠÑĦ Ð¾ÑĢÐ¼
ç¢ °
åģ ·
ªà¸²à¸¡à¸²à¸£à¸ ĸ
ÏĨ Ïħ
è´ ¨
Ð¾Ð² Ð°ÑĤÑĮ
Ġhá» £p
áĥĶáĥĹ áĥĲ
à¸Ļà¸± à¹īà¸Ļà¸
Ïĥ Î¯Î±ÏĤ
Ġre la
ĠÐ²Ñĭ Ñģ
à¦ ģ
«à¸ ¡
ĠÏĮ Î¼ÏīÏĤ
Ã¥ r
ĠØ¨Ø§ Ø´
è º«
Ġæ Ń
Ġå ¯
áĥ®áĥķ áĥĲ
Ħà¸ ¥à¸
Ð¾ÑĢ Ð¾ÑĪ
ĠÄ ±
à®¿à®µ à¯ģ
Ġà¸ĭà¸ ¶à¹Īà¸ĩà¸
Ñı Ð´
¸ à¸Ļ
cze g
Ġh an
áĥĶáĥĳáĥļ áĥĲáĥĵ
ÙĤ Ø±
ĠÐ¿ Ð¾ÑģÑĤ
Ġà°¦ à±Ģ
Ġsch on
ëį ĺ
Ġver s
§ áĥķ
Ġr y
Ġ it
z n
Ġd ir
Ġà¤ļ à¥ģà¤¨
à¤ Ľ
Ġêµ Ĳ
ÙĬ Ø«
à®ķ à®®à¯į
Ġ×Ľ ×Ļ
Ġà¦Ĩà¦Ĺ à§ĩ
à±ģà°² à±įà°²à±ĭ
áº« n
Ġf uer
Ġà°¤à±Ĩà°² à°Ĥà°Ĺà°¾à°£
à°°à±įà° ķ
men ti
ĠU m
ir lÉĻr
Ġà®ħ à®£
ëĬ ¥
Ġk il
à¤¿à¤ §
Ġà¤īà¤¨ à¤ķà¥ĩ
Ġà¦ķ à§įà¦°
ei d
ĠÙ¾ ÛĮ
Ġin f
ãģĭ ãģª
áĢ ¬
Ùģ Ø³
Ġo y
ov ÄĽ
à°Ĥà°¤à±įà°° à°¿
Ġç §
Ġ×ķ ×ŀ×
Ġà°°à±Ĩ à°Ĥà°¡à±ģ
à¦¾à¦¨ à§ĭ
Ġso ll
o p
Ġëª¨ íħĶ
íĺ ķ
à®¾à®¤ à¯įà®¤
Ġáĥ¡áĥĲáĥĸ áĥĿáĥĴ
à¸Ńà¸Ńà¸ ģ
ĠÚ© ÙĨØ¯
æ± Ĥ
ĠØ§ÙĦ Ùĩ
Ã Ĭ
ÏĥÏĦÎ± ÏĥÎ·
Ġqu an
ĠÎµÎ¯ ÏĩÎµ
c Ã³w
áĥĲáĥļ áĥĲáĥ¥
åĨ Ľ
æ° Ķ
ĠÐ· Ð°Ð´
Ġques ta
Îº ÏģÎ±
ĠrÃ© g
¬ áĥĽ
ÏģÎ¿ ÏįÎ½
Ð¾Ð² Ð°
Ġè ī
åŃ Ĺ
ľ à¹Īà¸²à¸Ļà¸
Îµ Î´
åģ ļ
ĠÐ¿ÑĢÐ¾ ÑĨ
Ġà°µà±įà°¯ à°ķà±įà°¤
áĥĲáĥłáĥ ļ
à¹Ģ à¸Ļ
ĠÏĥÏħ Î¼Î²
Ġcu al
ĠÐº Ð°ÑĩÐµÑģÑĤÐ²
Ġà¦ħ à¦°à§įà¦¥
Ġ à¹ĥà¸Ļ
Î¸ Ïħ
s a
à¯Ĩ à®©
æ² ¡
ä¾ Ľ
è° ĥ
Ġáĥ§áĥķáĥĶáĥļ áĥĲáĥ¤
à¹ģà¸¥ à¹īà¸§à¸
ĠÑĢ Ðµ
b or
Ġ×¤ ×¨
ģà¸© à¸²
ĠÐ¿ÑĢÐµÐ´ ÑģÑĤÐ°Ð²
à¹Ģà¸ ĩà¸´à¸Ļ
Ġz p
Ġp ay
Ġáĥ¨áĥĶáĥĵ áĥĶáĥĴ
¤ Ģ
ĠÐ¾ ÑģÑĤ
Ġje go
ĠÙĨÛĮ Ø²
à°¿à°² à±į
ce k
áĥ£áĥļ áĥĲáĥĵ
ĠW e
Ġà¦Ł à¦¾à¦ķà¦¾
à§ĭ à¦°à§įà¦
i an
à¤¿à¤ Ĺ
Ġà¤®à¥ģà¤ ĸ
ĠØ£ Ùħ
æĽ ¸
z zo
Ġb ilm
Ġë ĺ
ur as
czne j
à°¾à°³ à±įà°³
Ġsp e
Ġà®ļ à¯Ĥ
ien do
à¦¾à¦§ à§įà¦¯à¦®
à±Ģ à°²à±ĭ
Ġ ÉĻ
Ġt iemp
ãĤĮ ãģŁ
æĪĲ äºº
å ©
Ø¬ ÙĪØ¯
Ġ×Ķ× ¦
à±ģà°¤ à±Ĥ
Ġnh Ã¢n
Ġv om
à¥įà¤ ŀ
Ġt ÉĻk
Ġab b
Ġh er
it y
à§įà¦ §
ĠØ§ÙĦÙħ ØŃ
à°¿à° ¬
it es
tiv i
Ġz n
à¯Īà® ª
ì ¶
Ġà¦¦ à§ģà¦ĩ
ĠáĥĽáĥĺáĥ ¦
à¹ĩà¸ ģà¸
à±Ģ à°ķ
Ġå Ĩ
ĠdÉĻ f
ros tit
ĠÎ² Î±
rostit utas
Î¯Î½ ÎµÏĦÎ±Î¹
Ġre g
ĠáĥĴáĥĲáĥľ áĥķáĥĺáĥĹ
åıĳ å±ķ
à¨¿ à¨
ĠÐ¼ Ð½
Ġà¦¬ à¦¿à¦ķ
ĠÎ¼ Î¹Îº
ĠÄĳá»ĭ nh
Ġáĥ¡áĥĲáĥĸáĥĿáĥĴ áĥĲáĥĵáĥĿ
Î¸ Î±
ĠÑģ Ð¸ÑģÑĤÐµÐ¼
à¥ĩà¤ ·
à¤¿à¤ķ à¤¾
à¸£à¸ ´
Î¹ Î²
à¤¾à¤² à¤¾
Ð¼ ÐµÐ½ÑĤ
Ġentre pr
áĥķ áĥĶáĥĵ
ķà¹Īà¸²à¸ ĩ
Ïĥ ÏĦÏĮ
Ġë ¦¬
Ð°Ð¶ Ðµ
ãĥ ľ
Ĺà¸µà¹Īà¸ ¡à¸µà¸
ÏĢ Î¹Ïĥ
Ġà°¤ à°°à±įà°µà°¾à°¤
Ġà¦ħà¦¨ à§įà¦¯
èĢ Į
çĻ ¾
Ġç Ľ
ĠáĥĲáĥ ŀ
ĵà¸ ĳ
ĠÑģÑĤ Ð¾
el s
ĠØ§Ùģ Ø²
anti p
ĠÐ¿ÑĢÐ¾Ð¸Ð· Ð²Ð¾Ð´
à¹ģà¸ ķ
Ġà®ķ à®¿à®°
Ġ ÉĻv
ĠáĥĻ áĥł
w et
Ð¼ Ñĭ
Ġ uy
ĠÙ¾ Ø§ÛĮ
Ġ×Ĳ ×ķ×ª
nÃŃ m
áĥłáĥ ª
Ġph o
Ġada lah
k om
Ġà°® à±Ĩ
å½± éĻ¢
å¤© å¤©
íķľ ëĭ¤
.. ..
Ġmol to
é£ Ł
ÙĪ Ùģ
ĠF o
Ġc v
à°² à±įâĢĮ
Ġf ois
p raw
u al
Ġà§ Ń
à±ĩà° ¦à°¿
ë° ľ
is mo
à§ģà¦· à§įà¦ł
à¤¡à¤¼ à¥ĩ
åį ¡
Ġm nie
ich er
ãĥ ļ
wa Å¼
k em
à¤ķ à¤¾à¤°à¥Ģ
×ĳ ×Ķ
Ġo Ã¹
à®¾à®µ à®¤à¯ģ
Æ° a
li g
à§ĩà§Ł à§ĩ
b ur
Ġtak Ã©
ĠZ eit
i p
ë ¸
ãĥ ¤
Ú© ÙĦ
Ġáĥ¡áĥĲáĥ¨ áĥ£áĥĲáĥļ
ªà¸ Ķ
à¦° à¦¿
à¤ļ à¥įà¤¯à¤¾
Ġà°İà°¨à±įà°¨ à°¿à°ķ
Ġdon de
Îº Î¿Ïį
ĠØ§ÙĦÙħ Ø³
ĠÎļ Ïħ
Õ¡Õ ¼
áĥĲáĥľ áĥĺáĥ¡
åį İ
Ć ć
ĠÐ· Ð°Ð¼
Ġm Ã¶v
ĠÎ¼ Î·Î½
Ġà°ķà±Ĭ à°¤à±įà°¤
áĥĲáĥ Ł
ÎĹ ÎĿ
ĠÑģÐ» ÐµÐ´
Ġà¤¸à¤¿à¤Ĥ à¤¹
à¤¿ à¤Ĥà¤¦
à¸£à¸§à¸ ¡à¸
ĠÎ³ Îµ
é¡ ¹
Ðº Ð°Ð·
à¯Īà®ļ à¯įà®ļ
Ġáĥł áĥĶáĥĴ
Ĥ à¹īà¸Ńà¸¡à¸¹à¸
Îķ ÎĽ
à®¿à®ªà¯įà®ª à¯ģ
Ð¾Ð± ÑħÐ¾Ð´Ð¸Ð¼
Ġw aar
Ġà¸ «à¸£à¸·à¸Ń
ÏĩÎµ Î¯Î±
ãģ£ ãģ¨
è «
æŃ ¤
P P
é£ ŀ
áĥĲáĥł áĥĿ
§à¸±à¸Ļà¸ Ĺà¸µà¹Ī
Ð» Ð°Ð¹Ð½
ar ge
A D
Ĥ à¹īà¸²
ĠÐ¾ Ð½Ð¸
à¹Ģà¸ ŀà¸
ĠB ar
Ġà°¸ à°¹
áĥĶáĥĳáĥĺáĥ¡ áĥĹáĥķáĥĺáĥ¡
×ł ×ķ×ª
ÑģÐº Ð¸Ñħ
ëĵ¤ ìĿ´
Ġpra w
Ġà®¨ à®²à¯įà®²
Ġh Æ¡n
Ġáĥ¡áĥĲáĥ¥áĥĲáĥłáĥĹáĥķáĥĶáĥļ áĥĿáĥ¨áĥĺ
I S
Ġch am
b be
ĠvÉĻ z
à´ £
åľ¨çº¿ è§Ĩé¢ĳ
l au
ci p
ĠØ¨ Ø¹
Ġà®¨ à¯ĭ
åł´ åĲĪ
Ġal gun
z enÃŃ
ĠÙĤØ± Ø§Ø±
Ġà¦¬à¦¿à¦Ń à¦¿à¦¨à§įà¦¨
Ġà°¤ à±Ĭ
ĠSp iel
larÄ±n Ä±
i Äĩ
à°° à±įà°¯
ĠL o
to ire
à¤¾à¤ ĸ
Ġà¤ħ à¤µ
Ġw ÅĤ
Ġjs me
à¦ĵ à§Ł
Ġà®ªà¯Ĭ à®°
×ŀ ×ķ
à¤¾à¤¤ à¤¾
et as
d ou
à°° à±įà°²
el b
Ġà¦¨ à¦¤
Ġjedn ak
ÙĤ Ùĩ
Ġr ou
Ġr ayon
Õ¡Õ º
c aq
Ġse x
çĶ °
áĥĲáĥļ áĥ£áĥł
à¹Ĥà¸£à¸ĩà¹ģà¸£à¸ ¡
ãģĿ ãģĨ
ä»Ģ ä¹Ī
ĠZ a
ist as
Î¶ Î¯
ãģķãĤĮ ãģ¦
Î³ Î·
ĠÙĪ ÙĬ
áĥĺáĥ Ń
æ Ĥ
ç Ł
ÑĤ ÑĢ
ìĦ ¤
ĠÎµ Î³
Ġà¦° à¦¹
áĥĿáĥ¡ áĥ¢
ĠÎºÎ± Î½
ÑĤ Ðµ
à¤¨ à¤²
à¥įà¤² à¥Ģ
Ġà¸§ à¸´à¹Ģà¸Ħà¸£à¸²à¸°à¸«
ĠÎ¹ ÏĥÏĦÎ¿
æĺ Ł
Ð¸Ð½ Ðµ
ta to
áĥĶáĥľ áĥĲ
à¹ģà¸ Ĺ
ÏĢÎ· ÏģÎµ
Ġau tre
ÐµÑģ Ð¿
Ġà¦¨ à§ĩà¦ĩ
à¹ģà¸ ķà¹Īà¸
Î® Î½
Ġh eÃ§
Ġwy kon
æ£ ĭ
20 20
åİ ¿
áĥĵ áĥĺáĥ¡
Ġà¹Ģà¸¥ à¹Īà¸Ļà¸
Ð¾Ð² Ð¾Ð¹
Ġk ur
ĠC am
Ġà¸ Łà¸¸à¸ķà¸ļà¸Ńà¸¥
Ð¿ÑĢ ÐµÐ´
à¸Ļà¸ ³
à°°à±įà° Ĺ
tic os
áĥĸ áĥĲáĥĵ
Ġd ÃŃ
ÐµÐ½ Ð½ÑĭÑħ
ĠW er
Ġt a
Ø ¡
I d
áĥł áĥĶáĥĳáĥĺ
ìł Ĳ
à§İ à¦¸
Õ ¹
Ġe v
à¥ĩà¤ ¬
à¤°à¥įà¤ ¸
à°Ĥà° Ń
Ġi hr
ia da
à®£ à®®à¯į
×© ×Ļ×Ŀ
Ø± Ø§ÛĮ
Ġju ga
Ġa Å¾
l ti
Ġà¦Ĩ à¦ķ
ĠÃ§ a
ĠP os
is es
Ġz m
Ġs iy
Ġb ou
à¤Ł à¥Ģ
à¤¡à¤¼ à¥Ģ
Ġà® Ī
Ġà°ķ à°¾à°¦à±ģ
in der
ĠU ni
ĠìŀĪ ìĬµëĭĪëĭ¤
Ġà´ ħ
Ã´ tel
ĠÙĨ Ø§Ùħ
Ġà°ħ à°®
n ÄĻ
ĠÙĬ Øª
k er
Ġm Ã¬nh
Ġnom bre
Õ¥Õ ²
Ġb elÉĻ
Ġà°§ à°°
en Ã©
Ġà®ĩà®²à¯įà®² à¯Ī
Ġáĥĵ áĥłáĥĿ
Ġà¸ Ĥà¸
Ġ201 6
åĪ Ľ
u jÄħ
à°ķà±įà° ¸
ĠÎĶÎ· Î¼Î¿
in den
Î»Î¯ Î¿Ïħ
Ġà¦° à§Ł
ĠáĥłáĥĿáĥĽ áĥļáĥĶáĥĳ
å¤ ´
åħ ī
ĠÐ¸Ð¼ Ðµ
Ġve z
ĠÎ¿ Î¼Î¬
à®³ à¯įà®µ
ĠáĥĶ áĥľ
Ïģ ÏīÎ½
Ð¸Ñı ÑĤ
Ġà¤ķà¤° à¤¤à¤¾
Ġà¤ħ à¤ļà¥įà¤Ľ
à¹Ī à¸Ńà¸
Î» Î¹Î±
å Ķ
ĠÑĥ Ð²
nÃ© ho
ĠáĥĹáĥĲáĥľ áĥĲáĥĽ
à¹ĥ à¸Ļà¹Ģà¸
ĠÎºÎ±Î¸ ÏİÏĤ
ĠØ§Ùħ Ø§
ĠÑĩ ÐµÐ¼
à°¾à°² à±įà°¸
ª à¸Ļà¸
Ïĥ Î¿ÏħÎ¼Îµ
Ġs inh
Ġsta to
é¢ Ħ
è½ ¬
Ġ ä¸ŃåĽ½
Ġáĥ¡ áĥĺáĥ¢
Ġ à¹ģ
Ð Ĺ
Ġv ax
tion en
Ĥà¸²à¸ ¢à¸
ĠÑģ Ð´ÐµÐ»
Ġà¹Ģà¸ §à¹ĩà¸ļà¸
Ġà¦ķà¦° à§ĩà¦Ľà§ĩ
c as
Ġáĥª áĥĶáĥľáĥ¢
Ġ×ĳ ×Ĺ
Ð¾Ñģ Ð¾Ð±
à¯įà®¤ à®¾à®©à¯į
Ġzna j
Ùĥ Ø§ÙĨ
Ġà°ı à°®
áĥĵ áĥĺáĥľ
rÃ© s
Ġm el
Ġna p
Ġà®®à¯ģà®Ł à®¿à®¯
Ġà¤® à¤¾à¤®
à¥įà¤° à¥ĩà¤¸
Ã¤ ch
Ġj ue
à°¾à°µ à±ģ
Ġge Ã§
Ġa f
Ġà¦ĩà¦¸à¦² à¦¾à¦®
áº£ ng
Ġà¦¬à¦¿à¦ ľ
à®Ł à®¿à®¯
v ÉĻl
Ġon line
Ġne m
ÛĮ Ùģ
ĠA m
pu es
ĠãĤ Ĵ
à¥ĥ à¤¤
Ġà¤ķ à¥įà¤°
Ġdo da
à±ĥ à°·
à¦¾à¦¨ à¦¿
an as
v u
à¤¿à¤² à¤¾
ë£ Į
×ķ× ĸ
à°¿à°ķ à±į
Ġim mer
Ġà®¤ à®µ
ĠÙĤ ÛĮÙħØª
Ġpor que
jÄħc ych
ni ng
ĠØ¨ ÛĮÙĨ
Ġëħ ¸
Ġà¦Ĩà¦ª à¦¨à¦¾à¦°
Ġà°µ à°¾à°Ł
áĥ£áĥ Ļ
Ġà¹Ģà¸ ŀà¸
ĠIta lia
Ġ0 4
è» Ĭ
Ġg Ã©nÃ©
Î ¦
el n
Ġ Ïİ
pp o
áĥķ áĥĺáĥĵ
Ġå½©ç¥ŀ äºīéľ¸
à¥ĩà¤ ļ
ĠÐĲ Ð½
Ġc ada
ĠÏĦ ÏģÏĮ
à¯ģà®Ł à¯Īà®¯
áĥĺáĥľ áĥĺáĥ¡
ĠÏĮ ÏĦÎ±Î½
Ðº ÑĢÐ°
à¥įà¤Ł à¥Ģ
ĠNe ws
Ġà¹ģà¸Īà¸ ģ
Î®Î¼Îµ ÏģÎ±
åĬ ŀ
Ñĥ Ð³
ĠtÉĻÅŁ kil
ĠáĥĹ áĥĺáĥĹ
à¹Ģà¸Ĥ à¹īà¸²à¸
ĠÎ» Î¯
ìŀħ ëĭĪëĭ¤
ÐµÑĤ Ñĭ
v Ã©
± à¹Īà¸ĩà¸
ĠÎºÎ¬ ÏĢÎ¿
ÙĢÙĢ ÙĢÙĢ
ĠØ¬ Ùħ
é£ İ
è¿ ĳ
7 0
ĠáĥĲáĥĽ áĥĺáĥ¡
à¹Ģ à¸Ńà¸ĩ
Ð°Ð½ Ñģ
en iu
m bre
Ķ à¹īà¸²à¸Ļà¸
ĠÐ¸ Ð³
à¸Ńà¸ ±à¸Ļà¸
ac ak
n os
áĥĺáĥ¢ áĥĿáĥĽ
Ġ×Ķ× ĸ
ĠÐ¿Ð¾Ñģ Ð»Ðµ
à¯Ĭ à®´
Ġsu lla
Ãª m
à°Ł à°Ĥ
Ġáĥŀáĥĺáĥłáĥķ áĥĶáĥļáĥĺ
Ġl ie
ĠÙĬ Ùħ
le m
lar da
à¥ĭ à¤§
æĹ¥ æľ¬
Ġà¦¨à¦¤ à§ģà¦¨
Ġcon tra
re ich
×Ļ× Ĵ
Ġ rze
Ġà°µà±įà°¯ à°µ
åĳ ³
ĠØ¢ Ø¨
Ġsemp re
Ġà§ ·
Ġà¦Ńà¦¾à¦° à¦¤
á»¥ c
g r
tic as
Ġà¦ªà¦° à¦¿à¦ļ
Ġà°ħà°§à°¿à°ķ à°¾à°°
à¤¾à¤² à¤¯
Ġé Ŀ
Ġmo Å¾
Ġà®ªà¯Ĩ à®£
Õ ©
ÉĻ lÉĻri
z ia
Ġà¤® à¤¾à¤°
ch os
à®µ à¯įà®µ
ti ng
ãĤ Ģ
Ġs obie
is Ã©
Ġà°ļà±Ĥà° ¸
Ġà¦ī à¦¦
Ġv iel
ÅĽ l
Ġ×ķ ×ľ
ĠØªÙĪ Ø³
à°¾à°¬ à°¾à°¦
Ġáĥĺ áĥª
ķà¸ ±à¹īà¸ĩ
Ġà°ħà°¨ à±ĩ
Ġå¤§åıĳ æĹ¶æĹ¶å½©
ĠS car
g ia
ĠÎ¼ Î¬
Ġpas s
ĠÎ£ Î¥
ãĥĥ ãĥī
áĥĺáĥ£áĥ ļ
æĸ ¯
æĮ ĩ
ĠÐ± ÑĢ
c en
Î½ Ïİ
ĠV iá»ĩt
áĥĺáĥ¡ áĥ£áĥ¤
ĠÎ³ Î½Ïī
ÑĢÑĥ Ð·
à¤¾à¤² à¥Ģ
Ġà¤«à¤¿à¤² à¥įà¤®
Ĭ à¸´à¸
Î¶ ÎµÎ¹
èĤ ¡
Ð¾Ð½ Ð¾Ð¼
ĠfÉĻ al
áĥłáĥĹ áĥ®
Ĭ à¸Ļà¸
Ïħ Ïĩ
Ġc ao
ÑģÑĤ ÑĢÑĥ
ĠÙģ Ùī
à¸²à¸ ģà¸
ÏĦ ÎµÎ¹
Ø±Ùĥ Ø©
ĠëĲ ĺ
ä¸ ĵ
éĢ ł
èĲ ¥
áĥ£áĥ ª
à¸Ńà¸ ģ
ĠÐ¿ Ð¾Ð¿
à¯Īà®¯ à®¾à®©
à§ĭ à¦ļ
à¸Ńà¸ ±à¸
Ð°ÑĢ Ð¸
à¹īà¸ ¡à¸
Ġy Ä±l
Ġn Ã¡s
ĠáĥĴáĥĲáĥĽ áĥĿáĥª
bi h
Ð· ÑĭÐ²
Ġà°īà°¨à±įà°¨ à°¾à°¯à°¿
Ġhe b
ĠRespub lik
Ġm ÉĻh
áĥĶáĥĽ áĥĲ
à¦¦ à¦¿
Ġm y
eit e
Ġs im
ç¦ ı
à¤ı à¤¸
Ġdal Å¡ÃŃ
Ø§Ø² ÛĮ
sta w
d Åº
Ġngh iá»ĩ
×ķ× ļ
Ġgi bt
Ġgra tu
ÙĨ Ø³
ĠíĮ Į
ag es
iyy ÉĻti
rÃ³ d
à°¿à°¨ à±į
Ġtiemp o
è² ·
Ġà¤ĺ à¤°
à¤¾à¤ ¡
ess a
ãĥ» ãĥ»
Ġãģĵ ãĤĮ
Ġb Ã½
ĠÙĨØ¸ Ø±
Ġà¤²à¥ĩ à¤ķà¤°
à§ģ à¦¤
el i
il itÃ©
Ġà®ĩ à®©
r it
Øª ÙĪØ§ÙĨ
Ġkh o
Ġby ÅĤo
Ġà°° à°¾à°®
à±įà°¸ à±įâĢĮ
Ġë° °
Ġà®ĩà®°à¯ģà®ķà¯įà®ķ à¯ģà®®à¯į
Ø§Ø± Ùĥ
ĠáĥĽ áĥĶáĥł
ŀà¸ ±à¸
Ġà°µà°¿à° ¡
Ġæĺ ¯
à¦¹ à¦¾à¦°
Ġte j
ĠÏĩÏģÏĮ Î½Î¹Î±
Ġ×ľ ×§
ĠÎ¼ Î¯Î±
Ġtut to
ĠáĥĲáĥ¡ áĥĶ
åı ĺ
çĶµ æ¸¸
ĠÑĤ ÐµÑĢ
ĠÃ§ alÄ±ÅŁ
Î´ ÎµÎ¹
un to
áĥĺ áĥĶáĥłáĥĹ
Î¾ ÎµÎ¹
ĠÑĤ Ð¾Ð¼
Ġèī ²
à¤°à¥įà¤ ¶
Ķ à¹Į
ĠÎ½ Îµ
ĠèĢ Į
Ñı Ð±
Ġav ant
ĠáĥĽ áĥĺáĥķ
Ľà¹ĩ à¸Ļà¹Ģà¸
ĠÎŃ Îº
à±Ĩà°Ł à±į
Ð°Ð½ Ð°
ĠØ§ÙĦØª Ø¹
Ġà¸ŀ à¸£
Î¿Ïį Î¼Îµ
I C
Ġa h
èģ Į
åħ ±
æĶ ¹
áĥĲáĥķ áĥĲáĥļ
©à¸ ±à¸
ĠÐ¿ÑĢ Ð¾ÑĤ
dz enia
a dÄ±
à¸Ńà¸Ńà¸Ļà¹Ħà¸¥ à¸Ļà¹Įà¸
ĠÐ½Ðµ Ð¾Ð±ÑħÐ¾Ð´Ð¸Ð¼
Ġà¸ªà¸ ³à¸«
Ġik ke
ìĿ´ ìĬ¤
áĥĶáĥĳ áĥĵáĥĲ
Ġde ze
Ġâ Ħ
ti tu
Ġë Ĩ
ar beit
Ø§ Ùĥ
áĥĶáĥĳ áĥĶáĥĳáĥĺáĥ¡
Ġg ener
Ġla t
Ġà®¤à¯Ĩà®° à®¿à®µ
ãĤĭ ãģ¨
à¤¿à¤ ¹
à¥ĩ à¤¹
Ġan der
× ¥
Ġà°ªà±įà°° à°¤à±įà°¯
à¦°à§įà¦ ¶
Ġol ub
Ġa ch
ki ÅŁ
Ġj in
Ġgi bi
í ĳľ
Ġg ar
ĠÄĳá» ģ
à®¾à® ¨
Ø¹ Ø±
Ġtrava il
ĠÕ Ħ
à¤°à¥įà¤ ¦
Ġà¤Ĩ à¤Ī
ĠtÉĻrÉĻf indÉĻn
Ġs ar
ki m
Ġà°Ĵ à°ķà±įà°ķ
âĢ ¦
à¤ Ŀ
ĠØ§ Øµ
ãĥĨ ãĤ£
Ġà®ī à®¤
ĠE x
il les
Ġë ¡
Ġà°Ĺà±ģà°° à°¿à°Ĥà°ļà°¿
Ġà¦¹ à¦¤à§ĩ
Ġ×ŀ× ĵ
Ø§ÙĦ Ø©
at ti
Ġg dy
lÉĻrin ÉĻ
áĥł áĥĲáĥĵ
à¹Īà¸²à¸ §à¸
Å¯ m
è§ ģ
ĠÙ¾ Ø³
Ġl oro
ĠÎ±Î½ ÏĦÎ¯
Ġà°¸ à°Ĥà°¦
ĠÎµÏĢ Î±
ka t
ĠáĥĴáĥĲáĥľáĥª áĥ®áĥĲáĥĵ
éľ Ģ
åı Ĺ
ÐºÐ°Ñĩ Ð°ÑĤÑĮ
à®¤ à¯ģà®®à¯į
Î½ ÏĮ
Ã¤ ng
áĥĲáĥª áĥ®áĥĲáĥĵ
Î¼Î¹ Î¿ÏħÏģÎ³
Ð¾Ð¶ Ð´
Ġà¤¸ à¥Ĥ
Ġà¤¬ à¤ļà¥įà¤ļ
¢à¸ ±à¸ĩ
ĠÎ² Î¬
Ģ â
Ġu 04
v el
ĠáĥĽ áĥĲáĥ¦
¸à¸ ģ
ÏĥÎµ ÏĦÎµ
Ġìĺ¤ íĶĦíĻĶìĿ´íĬ¸
ĠÐµ ÑīÐµ
Ġë¬ ´
¥à¸ ±à¸
Î»Î» Î¿Î½
ĠÙĪ Ø³
Ġà¦® à¦¾à¦¸
å¢ ŀ
Ġç ¬¬
ä¼ ĺ
ĠáĥĽ áĥĲáĥ¨
«à¸ §à¸
Ð» Ð¾Ð¶
Ġà®Ĩ à®¯
v es
à¸µà¹Īà¸ ¢à¸
ĠÐłÐ¾ÑģÑģ Ð¸Ð¸
Ġp antip
Ġm ÉĻq
d Ã©
Ġáĥ£áĥ ¡
Ġ201 5
Ð² ÐµÑģÑĤ
Ġa by
Ġà°¨à°¿à°° à±įà°µ
íĥ Ŀ
Ġà¦¬ à¦¾à¦°
áĥĺáĥĵ áĥĶáĥľáĥ¢
Ġà°¹ à±Ģà°°
à±ģà° ·
Ġ} .
ï¼ Ĵ
ĠH indi
àµįà´ ¯
çĶ £
ur ante
ĠØ§ÙĦØ º
à¯ģà® ¨
ĠÄĳá»ĵ ng
ri g
Ġ×Ĳ ×Ĺ
ĠÃ§ ÉĻk
ĠÚ© ÙĦ
ĠB aÅŁ
Ġì Ī
Ġà°®à°¾à°Ł à±įà°²
Ġà®¨ à®¿à®©
ç Ĭ
Ġw orden
aus s
Ġà¤ļà¤¾à¤¹ à¤¿à¤ı
äºº äºº
à¦°à§įà¦ ľ
v oir
Ã¶ l
ĠK o
Ġsp ra
à¤Ĥà¤¤ à¥įà¤°
Ġà®ª à¯Ĥ
á»ĳ t
ìĹĲ ê²Į
l ic
à±Ĩà°ķ à±įà°Ł
ĠØ³ Ø§Ø®Øª
à¦¾à¦ ·à§įà¦Ł
p s
Ġà°ĩ à°Ĥà°ķ
Ġãĥ ĳ
Ø¯ Ø¯
ĠM a
×ĺ ×¨
Ġ") .
à¹Ħà¸Ķà¹ī à¸£à¸±à¸ļà¸
te go
áŀ¶ áŀ
à§ĩà¦ ¹
Ġè ĩ
ĠÎ´ ÏħÎ½Î±
à¯Īà®¯ à¯ĩ
ÎµÎ¹ ÏĦÎ¿ÏħÏģÎ³
at ta
áĥłáĥ £áĥļáĥĺ
æ£ĭ çīĮ
å¾ ·
ÐµÐ½ Ð¸
ĠØ§ÙĦ Ø²
ÏģÎ¯ ÎµÏĤ
Ġre aliz
áĥ¬ áĥĲáĥķáĥļ
ĠÎ» ÎŃ
ĠÐĶ Ð»Ñı
à¶± à·Ĭ
Ġà¤¬ à¤¢à¤¼
à¸Ńà¸ ¸à¸
Ïĥ Î¼Î±
à¥įà¤¯ à¥ĩ
ĠÐ° Ðº
Ġc our
Ġáĥľ áĥĲáĥĻ
į à¸²à¸
ĠÎ± ÏĨ
Ġìł Ģ
Ð°Ð» Ð¾
Äį et
à¹īà¸ ĩ
Î±Ïĥ Î¯Î±
Ġà¦ª à§ģà¦°
ar t
åħ Ī
èĩ ³
åĲ Ħ
Ġ áĥĲ
à¸£à¸²à¸ Ĭà¸
ĠÐ¿Ð¾ Ñĩ
at u
Ġà®İà®´ à¯ģà®¤
à¹Ĩ à¸
ĠÑĤ Ð¾Ð³Ð¾
ª à¹Įà¸
am iento
Ì £
áĥĲáĥļ áĥ®
uy á»
ĠÐ¸ ÑģÑĤ
Ø§ÛĮ ÙĦ
Ġch er
Ġà®ħà®± à®¿à®µ
Ġà¦¸ à§įà¦Ł
áĥĶáĥļ áĥĺáĥ¡
k ÅĤad
Ġf ra
Ġs ia
Ä ı
Ġà¤ª à¤¾à¤¸
à¤¾à¤ı à¤Ĥ
ck en
Ġj eszcze
ì »
ĠÙĪ ÙĤ
ĠÄ° s
il s
ĠíĶ Ħ
á»ĳ n
Ġd ÃŃa
cz nych
ãĤ ¶
ĠvÅ¡e ch
à®ķà¯įà®ķ à®®à¯į
Ġmi esz
Ä± yor
di tion
Ġà¤Ĩ à¤¯
Ġå¤© å¤©
Ġà°ľ à°Ĺ
à±ĥ à°¤
Ġil dÉĻ
i tion
ĠØ§ÙĦÙħ Ø´
Ġà¤ķ à¥įà¤¯à¥ĭà¤Ĥ
c ch
à®¤à¯įà®¤ à®¿à®¯
d t
Ġ×ķ ×ĳ
ar on
æĸĻ çĦ¡æĸĻ
Ġ ãģĦ
à§ĭ à¦·
Ġf ar
åķ ı
ick Ã©
ĠC zy
szy ch
áĥĲáĥ¨áĥķ áĥĺáĥļáĥĺ
· à¸Ńà¸ĩ
Ã©r ie
æ¡ Ī
ch Ã©
Ġà®ī à®²à®ķ
Î» Î¯Î±
Ø Į
Î»ÎµÏħ ÏĦÎ±
ìĭ ¬
® áĥĶáĥĵ
5 0
åĬ ©
ĠÐŁ ÐµÑĢ
à°² à°Ĥ
ĠÏĥÏĩ ÎŃ
Ġs enza
Ġáĥŀáĥł áĥĿ
ÎĻÎļ ÎĹ
Ñĥ Ð²
Ġà¤ľ à¤¾à¤¨à¥ĩ
à¤ª à¥ģà¤°
à¹ Ħà¸£à¸
Î½Î¿ Î´Î¿
åİ Ł
ĠâĦ ĸ
Ġmá» Ľi
áĥ£áĥļ áĥ¢
Ĺ à¹Į
Ïĥ Î¹Î¿
à¦¿à¦Ł à¦¿
ÐµÐ½ Ð½ÑĭÐµ
Ġê³ Ħ
ģà¸£à¸£à¸ ¡à¸
ĠÎºÏĮ Ïĥ
Ġhab e
ĠÙģÛĮÙĦ Ùħ
Ġ ä»¥
è İ
ç© º
Ġáĥ¡áĥĲáĥ®áĥĶáĥļáĥĽáĥ¬áĥĺáĥ¤ áĥĿ
Ġà¸ ľà¸¹à¹īà¸
Ð¾Ñģ ÑĥÐ´
Ġq eyd
Ġd ro
ĺà¸ ¸
ÑĢ ÐµÐ´
Ġà¹Ģà¸ ĺà¸
Ö ¼
×ľ ×Ļ×Ŀ
ĠáĥĽáĥ¡ áĥĿáĥ¤áĥļ
Ġà°ı à°°à±įà°ª
ÐµÐ½ Ð¸ÐµÐ¼
Ġdies e
d f
Ġp df
u kan
Ġáĥł áĥĲáĥĽ
ĠØ¯ ÙĪØ±
iz io
Ã į
t ÅĻe
Ġà¤Ńà¤¾à¤° à¤¤à¥Ģ
à´ ¨àµįà´¨
Ġk an
ÉĻn i
Ġme di
Ġre p
Ġà¦Ĩ à¦¶
Ġn Ãªn
à°¤ à±įà°¸
ĠØ° ÙĦÙĥ
Ġb el
ìĹ Īëĭ¤
ka ch
t ant
Ġà®ĩ à®ªà¯įà®ª
os a
à§ĩà¦® à§įà¦¬à¦°
Ġse Ã§
æ¬ §ç¾İ
à¤® à¤¾à¤¨
im mer
à¦¦ à¦¿à¦¨
re i
Ġà®ªà¯ĭ à®Łà¯įà®Ł
Ġcom un
à´ ±
à§įà¦ Ń
ÙĨ Ø¬
cz ny
Ġl ors
Ġ ÅĻÃŃ
Ġq ÉĻb
Ġna d
à®£à¯įà®Ł à¯ģà®®à¯į
Ġpu Ã²
à°¡ à°Ĥà°¤à±ĭ
×ĵ ×Ļ×Ŀ
Ġg en
Ġà°¨ à°¿à°²
áĥ¢ áĥł
Ġà¸ ĭ
ĠØª ÙĪÙĦ
Ġç º
ka l
çķ ª
ÏĨÎ¿ Ïģ
Ġs ÉĻr
ĠÎ£ ÏĦÎ·
Ġha ce
ĠáĥĳáĥĲáĥķáĥ¨ áĥķ
Ġå ¦Ĥ
è¾ ¾
ĠÐ¼ Ð¾Ð´
ĠØ®Ø± ÛĮØ¯
ĠÎµÎº ÎµÎ¯
Ġà°¸à°Ĥà° ¬
áĥĺáĥľ áĥĿ
ĠÎ ŀ
ĠÑĥÑĩ Ð°ÑģÑĤ
Ġà¤ ł
Ġà¤ı à¤µ
ļà¸£à¸´à¸ ©à¸±à¸
ĠÎµÏĢ Î¹Îº
A PP
ĠÐ¿ÐµÑĢ ÐµÐ´
Ġà®ª à¯ĩà®°
áĥĲáĥĵ áĥĲáĥ¡
à¹Ĥà¸ ¢à¸
ĠÏĮ Î»Î±
Ġthe o
ĠÐ¾Ð½ Ð»Ð°Ð¹Ð½
Ġìļ° ë¦¬
à¸£à¸ ĸà¸
ĠÎµ Î¹Ïĥ
ĠØ§ÙĨ Ø¬
ĠC u
çİ ĩ
è® ®
è¯ ģ
áĥĲáĥĽ áĥĲáĥłáĥĹáĥļ
ģà¸´à¸ Īà¸
ĠÑĤ Ñĭ
ĠK on
Ø¨ ÙĨ
à¹Īà¸ ¡à¹Ģà¸
ĠÐº Ð°ÑĢÑĤ
Ķà¸ ³
à¦¿à¦¬ à¦¾à¦°
Ġde puis
áĥ£áĥļ áĥĺáĥ¡
im a
Ð°Ð» Ð¾Ð³
Ġà®® à®£
Ġà¦ķà¦° à§ĩà¦Ľà§ĩà¦¨
ĠØ§ÙĦÙĬ ÙĪÙħ
Ġp ros
Ġáĥ£áĥ łáĥ
Ġëĺ Ĳ
Ġ×ŀ× Ľ
å ĥ
Ġm ir
à¤¿à¤¯ à¥ĩ
Ġà¤īà¤¨à¥įà¤¹ à¥ĩà¤Ĥ
ĠK om
Ġà¦ļ à¦¾à¦²
Ġà°ª à±Ĥà°°à±įà°¤
ĠÃ©g alement
Ġun o
nÃŃ ho
Ġa Ã§Ä±
ĠØ Ľ
Ġà®ª à®¾à®Ł
Ã µ
ãģ¡ ãĤĥ
p rze
à¯įà®Ł à¯į
at Ä±
sch en
å¿ ľ
à¤¿à¤µ à¤¾à¤°
à¤¥ à¤¾
Ġà°®à°¾à°Łà±įà°² à°¾à°¡
à§ĩà¦ Ĺ
h eid
ar ro
ãĥ¼ ãĤ¯
å¤© åłĤ
ĠÕ ©
ĠÅŁ ÉĻhÉĻr
Ġg ru
ÙĬ ÙĪ
ĠØ´ ÙĨ
Ġjed no
ranÃ§ ais
Ġac qu
Ġà®µ à®ķ
à°¿à°Ĥà° Ł
ìĺĪ ìķ½
ìłģ ìĿ¸
ĠDe utsch
áĥĲáĥ¬ áĥ§áĥķ
Ħà¸ §
Ġa insi
ç ħ
Y W
dz iaÅĤ
ÏĨ ÏĮ
ĠØª ÙĨ
ĠÎł Î¡
Ġp rostitutas
ĠáĥĿ áĥĹ
è Į
ç Į
ĠÐ¾Ñģ Ð½Ð¾Ð²
Ġes pe
Î Ĵ
Ġk l
áĥłáĥ Ľ
Î¸ ÏģÏī
ĠÑģ Ð¾ÑģÑĤÐ°Ð²
à´ ª
à¥ĩà¤ ¯
¸ à¸Ļà¸
ĠÎĳ ÏĢ
æ² »
Ñı Ð¼
à¦¾à¦ĩ à¦¨
áĥĺ áĥĶáĥļ
à¸Ńà¸²à¸« à¸²à¸£
ÏĦ Ïĥ
Ġ×ŀ× ĳ
ĠÐŃ ÑĤÐ¾
ĠÃ© qui
į à¸²
Î¿ Î¯
Ġg er
Ġà°µ à±ĩà°
é¢ Ĩ
ä¼ģ ä¸ļ
ç« ŀ
Ġáĥ¡áĥĲáĥĻ áĥĺáĥĹáĥ®
Ľà¸¥ à¸²
ĠÑģÐ¿ Ðµ
ãĤĵ ãģ§
Ġc Ã¡ch
à¹Īà¸²à¸ ĩà¸
ĠÐ½Ð° ÑģÑĤ
«à¸ §à¸±à¸
Ġje ho
à¯Īà®¤à¯įà®¤ à¯ģ
Ġáĥŀáĥł áĥĿáĥĴ
Ø§Ùģ Ø©
ĠÐľÐ¾ÑģÐº Ð²
à§ĭ à¦ª
ta li
ĠM Ã¼
Ġemp res
ĠáĥĽáĥ¡áĥĿáĥ¤áĥļ áĥĺáĥĿ
Ġmo ins
3 0
Ġsu a
Ġd nia
à¬ ¾
à¥Ĥ à¤®
ĠÙħ Ùĩ
tiv os
Ġpe w
éģ ¸
Ġpe ng
Ġà®ķà¯Ĭ à®³à¯įà®³
Ġdz iaÅĤ
ĠV y
kiÅŁ af
ĠB es
on i
ì ¶ľ
à¦¦à§įà¦ ¦
Ø§Ø¹ Ø©
Ġt Ã©
Ġ×ŀ× ¦
Ġà¤¶ à¤¿à¤ķ
Ġà¤¬ à¥įà¤°
id ent
Ġy Ã¼k
Ġs to
ĠØ§ Ø®
Ġà°¦ à±ĩà°µ
Ġà¤ķà¤¾à¤° à¤£
c n
Ġbu en
Ġà°¨ à°Ł
Ġà°° à±Ĥà°ª
Ġãĥ Ī
Ġà¦ ł
us t
à°¸ à±įà°¥
ĠÙħ Ø§Ùĩ
Ġíı ī
Ġf are
idad es
Ġà®ĩà®° à¯ģà®ªà¯įà®ª
áĥĿáĥª áĥĲ
à¸Ļà¸µ à¸
Ġth áº¿
ĀĀĀĀĀĀĀĀ ĀĀĀĀĀĀĀĀ
Ġme ille
ĠP a
ĠÎĳ ÏģÏĩ
à¦¿à¦ §
ÎŁÎ ľ
p x
Ġáĥ¡áĥĲáĥĵ áĥĲáĥª
åĩ Ĩ
ä» İ
ĠÐ² Ð¾Ð¿ÑĢÐ¾Ñģ
ym i
Î±Î¹ Î¿
ÉĻy i
Ġáĥķ áĥĲáĥł
Î¾ ÎµÎ¹ÏĤ
Ð½Ð¸Ðº Ð°
à¤ľ à¥Ģ
Ġà¤° à¥ģà¤ª
Ġ25 5
ÏĦ Î¶
9 8
ĠÐĲ Ð»
Ġãĥ ª
" #
Ġà¹Ģà¸ Ħà¸£à¸·à¹Īà¸Ńà¸ĩà¸
Î¼ ÏİÎ½
ĠØ® ÙĦØ§ÙĦ
ĠÐ»Ñİ Ð´
Ġas ÃŃ
Ġà¹Ĥà¸Ķà¸ ¢
Ïĩ ÏģÎ¹
Ġê³ ¼
ĠH e
æĭ ¿
åħ ļ
Ġä» ĸ
§ áĥĶáĥľ
Ĥà¸¶ à¹īà¸Ļà¸
ĠÐ° Ð´
×Ļ×¨ ×ķ×ª
f a
ªà¸´à¸Ļà¸ Ħà¹īà¸²
ĠÐ¸Ð½ ÑĦÐ¾ÑĢÐ¼
ª à¹Īà¸ĩà¸
à°² à±ĩà°¦à±ģ
Ġs aÄŁ
áĥĲáĥĵáĥĴ áĥĲáĥľ
Ġl ib
Ð½ ÐµÐµ
Ġà¦ħ à¦§
ou w
ĠØ¨ Ø³ÛĮ
à°¸ à±įà°¸
áĥĶáĥ £áĥ
ic es
Ġa Ã±o
ĠÙĪ Ø¹
Ġà®ª à¯ģà®°
à¥įà¤¯ à¤¾à¤¦
Ġà¤ Ī
è¾ ¼
sch ie
Ġr Ã³Å¼
Ġìĺ ¨
ĠÄį er
Ġn Ã©
Ġà°®à°° à±ĭ
al mente
ĠpÅĻ es
Ø¯ Ø§
Ġìĸ ĳ
Ġà¦Ĩ à¦¨
Ġa di
as a
à¯ĭ à®ķ
Ã Ģ
Ġà¤¨ à¤¿à¤ķ
Ġà¤¦ à¥Ĥà¤¸
ĠÃ £
Ġc Ã²n
ĠØ§ÙĦÙħ Ø¹
ãĥķãĤ ©
à°ķ à°¾à°¶
àµįà´ ª
ing en
ĠR us
Ġà§ ®
íķ© ëĭĪëĭ¤
é §
ĠPar is
go d
à®¿à® ªà¯į
cri ption
ue lle
Ġà°ļ à±ĩà°°
tor ia
Ġà¦¨à¦¿ à¦°à§įà¦
ĠáĥĲáĥ ĳ
ªà¸³à¸« à¸£à¸±à¸ļ
es ab
ĳ åħĭ
ãĥª ãĤ¢
Ġkull an
ĠÎĿ Î±
×ķ×ł ×ķ×ª
ĠÏĩÏī ÏģÎ¯ÏĤ
m it
Ġáĥł áĥĲáĥĵáĥĴáĥĲáĥľ
ç½ĳ ä¸Ĭ
ä¹ ¦
ĠÐ±ÐµÑģ Ð¿Ð»Ð°ÑĤ
Ġà®ķà¯Ĭà®£à¯įà®Ł à¯ģ
Ġá¼ Ĳ
Ġcon tre
Ġáĥ¡áĥĲáĥ Ń
ÏĢÎ¿ ÏĤ
ĠÐ´ ÐµÐ¹ÑģÑĤÐ²
è¶ ħ
èī ĩ
¥à¹ĩà¸Ńà¸ ķà¸
ĠÎµ Î»Î»Î·Î½
åı Ĥ
ĠÐº Ð¾Ð³Ð´Ð°
ĠØ¨ Øª
Ġáĥĺ áĥĹ
Ĺà¸µà¹Ī à¹Ģà¸
Î» Î¹Î¿
à°ªà±įà°ªà°Ł à°¿à°ķ
ĠÑįÑĤ Ð¾Ð³Ð¾
Ġmay or
Ġ' )
ÏĦÎµ Ïį
Ġd y
lla h
Ġå ·
åĵ ª
Ġäºļæ¸¸ å®ĺç½ĳ
Ġáĥł áĥĲáĥ¡
«à¹ĩ à¸Ļà¸
ĠÐ±Ñĭ Ð»
Æ°á» Ł
k ÉĻz
Ġà¹Ģà¸ Ľ
ĠÐº Ð°Ð¶Ð´
à¸£à¸§à¸ Īà¸
Ġby l
à¯ģà®® à¯ĩ
áĥĿáĥķ áĥĲáĥľáĥĺ
Ġje j
ĠÐ¿ÑĢ Ð¾Ð±
Ġtr as
t ung
ĠÙĪØ§ÙĦ Øª
Ġà¦ľ à§Ģà¦¬
ĠáĥĿáĥłáĥĴáĥĲáĥľ áĥĺáĥĸ
Ġi ma
Ġhe eft
ĠÅŁ ÉĻr
ĠØµ ÙĪØ±Øª
Ġà¤ħ à¤Ń
à¥įà¤°à¥Ģ à¤¯
ÅĤu g
Ġíĺ¸ íħĶ
ĠHo tel
pp e
l Ã¼
à¦¿à¦ ¹
ĠØ£ Ùĥ
Ġìŀ ħ
ãģı ãģł
Ġsu is
×© ×ª
b ile
ÙĪÙĨ Ùĩ
âĢĮ à°¨
à°ķ à°¾à°²
ĠD i
Ġà¤ķà¥įà¤· à¥ĩ
áĢ ¸
à¯Ĭ à®£à¯įà®Ł
zion ale
ĠéĢ ģ
Ġãĥ ©
Ã Ĵ
à¤¿à¤¯ à¥ĭ
ĠÂ ¹
iá»ĥ u
Ġà®İà®©à¯įà®ª à®¤à¯ģ
g lÄħ
ĠØ¢ÙħÙĪØ² Ø´
Ġl ong
ĠwiÄĻ cej
ĠÙħ Ø·
ãģ ĸ
ol es
am b
ì ¢
Ġà°Ł à±įà°°
Ġáĥ¡áĥĲáĥ£áĥ Ļ
¡ à¸´à¸
hl en
ï¼Į ãĢĳãĢĲ
dÄ± m
ãĥ³ãĤ ¿
á½ ¸
à¦¾à¦ Ľ
Î¯Î¶ ÎµÎ¹
ĠÖ ĩ
áĥĲáĥ¡ áĥĺ
æĭ Ľ
æŃ ¥
Ð¾Ð²Ð°Ð½ Ð¸Ðµ
ĠP re
Î¾ Î¹
l Ã¼k
Ġáĥ¥áĥĲáĥłáĥĹ áĥ£áĥļáĥĺ
Î½ Î¬
Ð° Ñİ
Ġà¤¹à¥ĭ à¤¤à¥Ģ
àµ Ģ
à¹īà¸ ³à¸
Ïĥ ÏĥÎ±
æĪ ¿
Ð¾Ð» Ñı
Ġf un
Ġáĥķ áĥĺáĥĵ
à¸µ à¸Ļ
ĠÏĢÎµÏģÎ¹ÏĥÏĥÏĮÏĦÎµ ÏģÎ±
Ø¨ Ø§
Ð¼ Ñĥ
* *
ĸà¸ ¹à¸ģ
Î¼ÎŃÎ½ ÏīÎ½
Ġin forma
×ķ×¨ ×Ķ
Ġà¨ ¦
ç± »
á ī
Ġáĥŀáĥł áĥĶáĥĸ
à¸² à¸£à¸²à¸
? ?
Ġm ein
Ġë§ İ
à¹Ģ à¸Ń
ĠÐ· Ð°ÑĢ
Ġà¸Ĺà¸ ³
Ġà¦® à¦¨à§ĩ
di g
áĥĲáĥ¥ áĥķáĥ¡
ĠãĤ Ń
ĠÐ¼Ð°Ð³ Ð°Ð·
Ġfil es
Ġd ru
ĠØ§ Øª
Ġèĩ ª
ĠáĥĽáĥĺ áĥĺáĥ¦
ĠM er
Ġres p
Ġà®ļ à¯ĩ
à°¾à° ĸ
Ġà¤Ńà¤¾à¤°à¤¤à¥Ģ à¤¯
à¤ı à¤®
à¦ ĺ
Ġver ir
le ÅŁ
c Ã©
Ġà°¯ à±Ĭà°ķà±įà°ķ
ĠI m
Ġs á»Ń
ding in
Ġb a
Ã¼s us
åĭ Ļ
d ic
×¨ ×Ĵ
trz ym
Ġà®µ à®¿à®Łà¯įà®Ł
f ach
à¥įà¤¯ à¤®
Ġà¤¬ à¤¦
à¦¾à§ľ à¦¾
Ġog ni
Ġl et
Ġà®ĩà®°à¯ģà®¨à¯įà®¤ à¯ģ
Ø±ÙĬ ÙĤ
Ġà¤¸ à¥įà¤ķ
à¦¿à§Ł à¦¾à¦°
ãĤ¤ ãĥ³
dad es
ĠØªÙĪ Ø§ÙĨ
Ã¤ hr
à§ľ à§ĩ
± ħ
q a
Ġal c
ĠgÃ¶ re
R E
Ġs h
gan iz
ĠáĥŀáĥłáĥĿ áĥĶáĥ¥áĥ¢
Ĥà¸²à¸ ¢
ĠãĤ Ĥ
Ġæ Ĭ
ĠÙĪ Ø±
à¯Īà®ķ à®³à¯Ī
ÏĦÎµ Ïħ
ja di
Ïģ Ïį
Ġà¦ĩ à¦¨
Ġáĥŀáĥĺáĥłáĥķ áĥĶáĥļ
æķ Ī
Ġå ¸
Ñĥ ÑģÐº
Ġme er
ĠÎ³ ÏģÎ±
íķĺ ìĹ¬
áĥĶáĥłáĥ ¢
Î´ Î¯
ÐµÑģÑĤÐ² Ð¾
ĠåĽ½ äº§
Ġà¤ľ à¤°
Ġà¸Ħ à¸²à¸ªà¸´à¹Ĥà¸Ļ
Î¸Î· ÎºÎ±Î½
Ġ 99
ĠÐ» ÑĥÑĩÑĪ
ãģ«ãģ¤ ãģĦãģ¦
áĥĶáĥľ áĥĵ
± à¹īà¸Ļà¸
Ïĩ ÎµÎ¯
à§ĩà¦² à¦¾à¦°
ÑĢÐ° Ñī
is on
¢à¸ §
Î³ Î¼Î±
Ġc ent
Õ¡Õ ²
å¹ ¿
æ ¹
å® ¹
Ġáĥ¡áĥĲáĥ ŀ
ŀà¸ ·à¹īà¸Ļà¸
Ð½ Ð¸Ð¼
ĠN az
ÙĪ Ùī
à¹Ģà¸£à¸µà¸ ¢à¸Ļ
ĠÐ´ Ð¾Ðº
ĵà¸ °à¸
ĠØ¢ Ø²
Ġol m
ĠáĥĽáĥĲáĥĹ áĥĺ
×Ļ× ĸ
ĠÐ² Ð¾Ñģ
à§ ¨
Ġà®µ à®³
ĠA s
íĭ °
ĠáĥĽ áĥĺáĥ£áĥ
ĠÅ ģ
it el
ĠÙħØ¯ ÛĮØ±
Ġes to
à¤ ĺ
Ġà¤® à¥ģ
à§įà¦² à¦¾à¦¹
Ġd ont
iá»ĥ n
Ġ0 9
Ġ: )
ÅĽ nie
ĠØŃ Ø³
ĠØŃ Ø§ÙĦ
l in
à®¿à®ķà¯įà®ķ à®ªà¯įà®ªà®Łà¯įà®Ł
Ã¡ v
Ġv ida
Ġc ze
Ġãĥ Ĺ
ĠU hr
Ġu t
ĠæĪ Ĳ
à¥ Ŀ
à¦¾à¦ĩ à¦²
ØŃ Øª
Ġa ÄŁ
ãģ® ãģĭ
on na
à´ ķ
Ġà¦ħ à¦ªà¦°
ist ra
is sen
Ġ201 4
ĠëĮĢ íķľ
L E
Ġm er
ĠåĲ į
ĠÃ Ĺ
à°Łà±įà°Ł à±ģ
ãĤĪãģĨ ãģ«
à°¦ à±įà°§
Ġst an
Ġáĥĺáĥ§ áĥĿáĥ¡
«à¸¡à¸ Ķ
Ġperson as
ç½ ®
à§įà¦¯ à¦¾
Ġhaqq Ä±nda
Î² Îµ
ne ment
! !
×Ļ×¨ ×Ķ
ĠáĥĴ áĥĺáĥĿ
2 3
ĠãĢĳãĢĲ ï¼ĮãĢĳãĢĲ
ĠÐ½ ÐµÑĤ
Ġà®İ à®Łà¯ģà®¤à¯įà®¤
á¿ ¦
Ø§Ø± Ø§ÙĨ
ĠáĥĲáĥ¦ áĥľáĥĺáĥ¨áĥľ
Î´ Ïİ
ĠÐ² Ðº
Ġà¤ħ à¤Ĥà¤¤
te d
à¹ĥà¸«à¸į à¹Ī
ĠÎĳ ÎĿ
åĪ «
Ðµ ÑģÑı
Ġp rÃ¡
áĥĵ áĥĺáĥļ
Ġà¸£à¸µà¸§à¸´à¸ §
Î¼ Î¯
ier ung
Ðº Ð¾Ð¼
ĠN on
¨à¸ ±à¸
ĠÏĢÏģÎ¿ Î²
Ġd á»±
Ġà°¦à±įà°µ à°¾à°°à°¾
Ġæ ¯
à¤¾à¤Ĥ à¤¨à¤¾
Ġéĩį åºĨæĹ¶æĹ¶å½©
áĥ£áĥłáĥ ķ
ģà¸ ¤à¸
ĠÐº ÑĥÐ¿Ð¸ÑĤÑĮ
Ġw at
j ours
«à¸ ķà¸
ĠÑħ Ð¾ÑĢÐ¾ÑĪ
¢ à¸´à¸ĩà¸
ï º
Ú© Ø±
ĠáĥĽ áĥ¬
à¦¿à¦· à§įà¦ł
Ð»ÐµÐºÑĤ ÑĢ
Ġà®¤à®®à®¿à®´ à¯į
Ġà®¤ à¯Ĩ
ÙĬ Ùĩ
Ġìķ Į
áĥĲáĥł áĥĶáĥĳáĥĲ
p y
il en
Ġ0 6
is me
à¤¬ à¤°
áĢ º
Ġà¦¨ à§Ł
Ġcon tro
Ġn ÉĻti
Ġà¦¦ à§įà¦¬
Ġv las
r ÄĻ
ÙĬ Ùĥ
à®Ļà¯įà®ķ à¯ģ
Ùħ ÛĮ
×ŀ× ł
ĠâĢ ¢
Äį as
ĠM ÉĻn
ĠÃ ´
à¯ģà®± à¯Ī
ul o
Ġà¤µ à¤°à¥įà¤·
à¥ģà¤ ĸ
Ġc li
Ġpra cy
Ġà°ħ à°¦à°¿
lÉĻn dir
ff en
à¤¬ à¤Ĥà¤§
Ġs zy
Ø´ ÙĪØ¯
c tor
ãĤĪãģĨ ãģª
ĠØ¨ Ùħ
Ġc an
Ġfiles _
Ġv Å¡
Ġà®ħà®µ à®°à¯įà®ķà®³à¯į
à°Łà±įà°Ł à°¿
Ġst r
ëħ Ģ
Ä±l an
áĥķáĥĶáĥļ áĥĺ
¶à¸ ĩà¸
ar Ã¡
æľį åĬ¡
ë¥ ¸
éĽ »
ĠÎº Î¿Î¹Î½ÏīÎ½
ĠD ans
ĠÎ£ Î¤
ĠÙĦ Ùĩ
ĠáĥĴ áĥĲáĥĴ
ĠåĬ ł
Ġn et
Ð¾ Ñħ
Ġà°ļà±Ĩ à°Ĥà°¦
ĠÎ¼ÎŃ ÏĩÏģÎ¹
it z
áĥĿáĥª áĥĺ
ÎŁÎ ¡
ÑıÑĤ ÐµÐ»ÑĮ
à¤¬ à¥Ģ
à´¾à´ ¯
à¸Ńà¸µà¸ ģà¸
Ïī Î¼Î±
çł Ķ
ĠÐµ Ðµ
dz e
áĥĲáĥļ áĥĵ
ŀà¸Ļà¸±à¸Ļà¸ ļà¸Ńà¸¥
ĠÏĥÏħ Î³
ien tos
Ñį ÑĤ
a ta
Ħà¹Īà¸ °
ÎŁÎ ĵ
Ã Ķ
áº¿ u
ĠãĢĤ ãĢĤ
æ¸¸æĪı å¹³åı°
é© ¬
áĥ£áĥłáĥľ áĥĲáĥļ
Ġà¸Ķà¸ ¹
ÐµÑĢ ÑĤ
m t
Ġar tic
à¸Ļà¹īà¸ ³
Ñĭ Ð»
ªà¸ ¡
Ġà¦¸ à¦¾à¦§
ÙĦ Ø¨
Ġáĥĵ áĥĲáĥ®
Ġà®®à¯ģà®¤ à®²à¯į
ĠÐ²Ð¸Ð´ Ðµ
ni ki
Ġ×Ķ×ŀ× ©
Ġpom o
Ġà°ªà±ĭà°² à±Ģà°¸
áĥķ áĥĹ
Ġo hne
Ġk ay
Ġin s
Ġcer ta
Ġà¤ķ à¥Į
à´ ķàµįà´ķ
ãģĮ ãģĤãĤĭ
à±ģà°¤ à±ĭ
Ø¯ Ùī
Ġs ol
Ġm ie
er s
Ø§ÙĦ ÙĬØ©
lÉĻr dÉĻ
à°ķ à°Ĥ
ãĤģ ãģ¦
à¯ģà®³à¯įà®³ à®¾à®°à¯į
Ġna bÃŃ
Ġà¦ħà¦¬ à¦¸à§įà¦¥
Ġà®ĩ à®©à¯įà®©
à°² à°¿
×ľ ×§
à¤¿à¤¤ à¤¾
àŃ į
ar se
ĠB o
Ġà°¤à±Ĩà°² à±ģà°Ĺà±ģ
ĠØ¨ ÙĦ
Ġc ie
Ġà¤ıà¤µ à¤Ĥ
ãģĹ ãģĭ
Ġs au
à®¾à® ¨à¯įà®¤
Ġse con
Ã¼ re
dÄĽ l
Ġt ÉĻq
ìħ ĺ
ĠdÃ© p
Ġà°ĩ à°ķ
Ġpra c
ta g
le h
áĥĶáĥĳáĥĶáĥļ áĥĺáĥĲ
à¹ĥà¸ ª
s to
à¤² à¥įà¤¯à¤¾
Ø³ Ø±
Ġà¦¨ à¦¿à¦°
ĠÎ» ÎµÎ¹ÏĦÎ¿ÏħÏģÎ³
z ident
Î½Î¿ Î¹
íķ ¨
ĠáĥĽ áĥ£áĥ¨
å¸ ¦
1 6
Ð°Ð»ÑĮ Ð½ÑĭÐ¹
à°¾à°ķ à±į
ĠÎºÏħ Î²
Ġ ÖĦ
Ġáĥĸ áĥĿáĥĴ
ĠÎ£ Ïį
ÐµÑĤ Ðµ
àµįà´ ļ
Ġà¤¹ à¤¾à¤²
ŀà¸ ±à¸ģ
Ġï¿½ï¿½ï¿½ï¿½ï¿½ï¿½ ï¿½
Ġåı ¯
ĠÐºÐ¾ÑĤÐ¾ÑĢ ÑĭÐ¹
Ġk Ã¶
Ġáĥ¥áĥĲáĥļ áĥĲáĥ¥
à¸´à¹Ģà¸ ¨à¸
Î´ ÎŃ
Ġg ro
ÑĥÑĤ ÑĮ
Ġà¦ķà¦¾à¦ Ľà§ĩ
à¹Ĥ à¸Ńà¸
ĠÎ´Î· Î¼Î¹Î¿ÏħÏģÎ³
Ġmon de
Ġtemp o
ä»£ çĲĨ
à¤¾à¤ ³
Ġà¤ķà¤° à¤£
áĥĿáĥ ļáĥĺ
à¸µà¸¢ à¸Ļ
Ð¾ÑĢ Ð¾Ð²
à¯ĭ à®Łà¯ģ
ÃŃ cul
Ġà¸ Ķ
ĠÑĤ Ð¾Ð²Ð°ÑĢ
à¸£à¸µ à¹Ģà¸
Ġà®ĩ à®£
äº Ī
áĥĶáĥĵ áĥĺ
Ġà¦¦ à§ĩà¦ĵ
Ð½Ð¾Ð¼ Ñĥ
Ġkter Ã¡
ĠØ§ÙĦØ£ Ùħ
×ŀ× Ł
Ġà°İ à°ķà±įà°ķà±ģà°µ
ĠáĥĲáĥ ¤
f ol
áº¡ nh
t ÉĻb
Ġre cher
¸ è¿Ĳ
Ġà¤ī à¤¤à¥įà¤¤
Ġc al
ĠÛ° Û
ĠØ³ Ø§ÛĮØª
id mÉĻt
ĠØ¯ÛĮ Ú¯Ø±
Ġkad ar
Ġà¦¤ à¦¾à¦ĩ
Ġë Ŀ¼
k ich
c teur
Ġà°® à°¾
ce p
Ġge w
à±Ģ à°®
Ġo pp
Ø¹ Øª
Ġà¤µ à¥ĭ
Ġåľ¨ çº¿
ÉĻt ÉĻn
Ã ĸ
Ġtr Æ°á»Ŀng
à§ĭ à¦ľ
æľ ¨
à¶ ½
end ant
à®© à®®à¯į
Ġtr ov
ĠT ra
Ġà°Ĺà±ģà°° à±įà°¤
ç Ĺ
Ġw eb
âĢ Ļ
à¦Ĺà§ģà¦² à§ĭ
ĠÅŁ ÉĻxs
×ł ×ª
Ġà®ħ à®²
ĠP od
Ġáĥĵ áĥĲáĥª
it h
ĠCh at
åħ ·
Ġfo tos
ar ia
Î¼ Î±Î¹
Ġì ¦
ĠÎ³ ÎµÎ½
à°¸ à±įà°¯
Ġáĥ¡ áĥĲáĥľ
æķ ´
åį ĩ
ĠÐ² Ð°ÑĪ
ĠØ§ÙĦ Ø§ÙĨ
ÎŁÎ ļ
ne m
áĥĲáĥķ áĥĹ
ĠÏĢ ÏģÎ¬
ĠÑģ Ð¾Ð·Ð´
à¤Ł à¤°
à¬ ¿
à¹ī à¸Ńà¹Ģà¸
ÏģÎ· ÏĤ
Ġ0 7
ĠÐ· Ð°Ð±
d Ã¼r
Ġáĥĺáĥ¡ áĥĶ
Ġ à¹ĥà¸«à¹ī
ĠÏĮ ÏĩÎ¹
Ġw eiter
ÑĮ Ñı
Ġda pat
· à¸
ĠÏĢ ÎŃ
ĠÄĮ es
z ÃŃ
åĽ Ľ
ç® Ĺ
å¥ ĩ
ĠáĥĿ áĥłáĥĺ
à¹īà¸ ĩà¸
ĠÑĢ ÐµÐº
Ġswo je
ec to
à¸Ļ à¸²
ĠÐĲ Ð²
à¹Ĥà¸Ķà¸ ¢
à®¤à¯įà®¤ à¯ģ
Ġà°ħ à°°
áĥ¯ áĥĲáĥ®
Ġma in
ĠÐļ Ð¾Ð¼
ãĥĥãĤ¯ ãĤ¹
t w
Ãµ es
s ob
Ġáĥł áĥĿáĥªáĥĲ
Ġà¦¹à¦¿à¦¸ à§ĩà¦¬à§ĩ
ĠÕ Ń
ÉĻn d
Ø¹ Ø¨
à¤µ à¤°
Ġà¤¨ à¥Ģ
Ġè ²
Æ°á»Ł ng
Ġâ ŀ
Ġê° Ĳ
×ķ×ª ×¨
b ra
Ġç µ
Ġà°ªà±įà°° à°®
ĠØ§ ÙĪÙĦ
Ġy e
Ġà¦ıà¦ķ à¦Łà¦¾
el a
à®¿à®ķà¯įà®ķ à¯Ī
å± ĭ
ri ng
ìĥ ī
Ġà¤ķà¥įà¤·à¥ĩ à¤¤à¥įà¤°
à¤¾à¤¦ à¥Ģ
ig lia
Ġà¦® à¦¾à¦®
ìĹħ ìĨĮ
Ġê²Į ìŀĦ
æĻĤ éĸĵ
å¹ ķ
ĠÙĥ ÙħØ§
à§ĩà§Ł à¦¾à¦°
íĸ Ī
c to
Õ¡Õ¶ Õ«
ay ÉĻt
Ġac tu
Ã¤ l
Ġà®µà®´ à®Ļà¯įà®ķ
à¦¾à¦ķ à¦¾à¦°
Ã³ j
Ã¼y Ã¼k
à°ķ à±ģà°Ĥà°¡à°¾
ĠáĥĲáĥłáĥ¡ áĥĶáĥĳ
Ġ à¸£à¸²à¸Ħà¸²
ll os
æŀ ģéĢŁ
Ġl igne
Ġà¦ħà¦¨ à§ģà¦·à§įà¦ł
ĠÎ¼ Î¿
da w
ĠÏĨ Ïī
ĠmÉĻs ÉĻl
Ġáĥ¨áĥĶáĥĽáĥĹáĥ®áĥķáĥĶáĥķ áĥĲáĥ¨áĥĺ
1 9
ä¹ °
ÐµÑĢ Ñĭ
ÙĪ ÙĨØ¯
ĠÏĢ Î»Î±
Ġw ord
áĥĶáĥĹ áĥ¨áĥĺ
ĠÏĩ ÏİÏģÎ±
Ð³ Ð¾ÑĤÐ¾Ð²
Ġà¤¦à¤¿à¤² à¥įà¤²à¥Ģ
Ġà¤¦ à¥Įà¤°
Ľà¸¥ à¸µà¹Īà¸
ĠÏĢ Î¯
éĽĨåĽ¢ å®ĺç½ĳ
Ð» Ð¾Ð²
h nen
Ġáĥł áĥĿáĥĵáĥĶáĥ¡
à¹Ģà¸£à¸ ·à¹Īà¸Ńà¸ĩà¸
Î» ÏĮÎ³
di ta
ĠÑĦ Ð¾ÑĤ
is iÃ³n
à¹Ĥ à¸Ļà¸
Î´ ÏģÎ¿
ĠÕ° Õ¡Õ´
Ġm ÉĻk
éĻ Ĩ
å® Į
à¥ĩ à¤¤
ĠáĥłáĥĿáĥĽáĥļáĥĶáĥĳ áĥĺáĥª
«à¸¡à¸²à¸ ¢
ÑĨ Ñĭ
d re
Ġn ei
Ħà¸§à¸²à¸¡à¸ ªà¸
ĠÐĿ Ðµ
Ħ à¹Įà¸
Ġc Æ¡
Ġsp os
áĥ¡áĥĲáĥ® áĥ£áĥł
Ġà°ĩ à°ªà±įà°ªà±ģà°¡à±ģ
Ð¾Ð» Ð¾Ð´
Ġæ °
de j
Ġà¦® à§ĥà¦¤
ÙĨ ÙĬØ©
áĥ¡ áĥĺ
Å¡ enÃŃ
à° İ
ĠG esch
à¦¾à¦ĵ à§Łà¦¾
à· ļ
à¤¾à¤¤ à¥ĩ
Ġà°ªà±įà°° à°§
Ġpla ce
à®ªà¯įà®ªà®Ł à¯ģà®®à¯į
ag ai
Ġq iy
in cip
ãĥ¼ãĤ ¿
Ø±Ø¨ ÙĬØ©
ĠÄį as
aÄŁ Ä±
Ġà¦ľà¦¾à¦¨ à¦¾à¦¨
ÙĬÙĨ Ø©
Ġm undo
ess i
Ġh Ã¬nh
Ġç§ ģ
Ġà¤°à¤¾à¤ľ à¥įà¤¯
Ġà¤µà¤¿à¤ ¦
Ġà°ķ à°¾à°Ĥà°Ĺ
à¦¿à¦ķ à¦¾à¦°
ĠÃľ ber
Ġsp raw
Ø§Øª ÛĮ
à¤® à¥įà¤®
Ġà°µ à°¾à°°à±ģ
v ent
ãĤĪ ãĤĬ
Ġà®Ĩ à®¤
ÉĻs s
Ġh or
s iÄĻ
ler in
×¨ ×ĳ
Ġà¦® à¦¾à¦§à§įà¦¯à¦®
am il
Ġà®ª à®¿à®©à¯įà®©
ĠdÉĻf ÉĻ
áĥĶáĥł áĥĺáĥĿ
à¹Ħà¸ Łà¸
ĠØ§ ØŃ
Ġä¸ º
Ġenc ont
Ġv al
Ïĥ Îº
t ÄĻ
ĠÎ¿Î¹ÎºÎ¿ Î½Î¿Î¼
Ġg ut
áĥĺáĥ ©
æĺ ĵ
éĺ Ł
ÑĦ ÑĦ
Ġcol or
ÏĢ ÏĦÏħ
ĠãĢ ı
áĥĶáĥłáĥ Ĵ
Î¶ ÏĮ
Ð¸ÑĤ ÐµÐ»Ñı
Ġà¤¶à¥ģà¤° à¥Ĥ
à· Ļ
à¹Ģà¸ Ĺà¸µà¹Īà¸
ĠÎĶ Î¹
æ± Ł
Ð¸ÑĩÐµÑģÐº Ð¸Ñħ
æ ħ
áĥł áĥĶáĥ¡
à¹Īà¸²à¸ §
Î» Î¹Îº
ir i
ÐµÐ½ÑĤ Ð¾Ð²
Ġà¦ Ŀ
ľ à¸´à¸
á½ ¶
Ġc it
Ġà°ļ à°¿à°¨à±įà°¨
åĽ ł
æ¨ ¡
Ġ äºļ
áĥĶáĥľ áĥĺáĥ¡
ªà¸£ à¹īà¸²à¸ĩà¸
Ð°ÑĤ Ð¸Ð²
ich tig
Ġj a
Ġà¸ «à¸£à¸·à¸Ńà¸
ĠÐ° ÐºÑĤ
Ġà¸Ķà¸ ¹à¸
Õ¥ Öģ
Ġ ÉĻh
Ġáĥ¬ áĥĶáĥķ
Å¼ a
ĠÐ¾ÑĤ Ð½Ð¾
g ÃŃa
el en
Ø¬ ÙĦ
Ġà®ļà¯Ĩà®¯ à®²
ĠáĥłáĥĿáĥĵáĥĶáĥ¡ áĥĲáĥª
Ġthá» Ŀi
Ø¯ ÛĮ
Ġê° Ļ
iÄĻ dzy
Ġà¤ħà¤Ĺ à¤°
Ġà¤¬à¤¾à¤° à¥ĩ
elb st
an cia
at an
Ġà¦¸ à¦¾à¦°
Øª Ø§Ø¨
Ġà°ļ à°¦
e mp
à¦¾à¦¦ à¦ķ
ab ilir
Ġà¦® à§ģà¦ĸ
Ġà®ªà¯ĭ à®°
Ġpro p
Ø§Ùħ ÛĮ
ne hmen
ĠÅ¾ iv
ãģ Ĳ
Ġà¤¦ à¤¿à¤ĸ
é£ŀ èīĩ
czy Äĩ
Ùģ Ø¶
Ġda v
Ġà°¬ à°¯
Ġà¦¦ à¦¿à§Ł
à¤¡ à¥Ģ
t ie
ãģıãģł ãģķãģĦ
íķĺ ê¸°
Ġser a
Ġ×ŀ× ł
Ġspo leÄį
à¦¿à¦¤ à§įà¦°
Ġà®ķà¯ģà®± à®¿à®ªà¯įà®ª
Ġtout es
al ne
Ġ ãģ¯
Ã ĭ
Ġthá» ±c
ĠáĥĽ áĥĺáĥľáĥĺáĥ¡áĥ¢
¶à¸ ģà¸
es ta
äºº æ°ĳ
Ġà° Ĭ
Ú© Ø§ÙĨ
Îº Î·ÏĤ
ti ge
Ġu 00
Ġv ideo
Ġáĥ¯ áĥĶáĥł
ç» Ļ
èĬ Ĥ
Ð¸ÑĤÐµÐ»ÑĮ Ð½Ð¾
Ġne u
Î»Î¿ Î½
Ġmis mo
Ġáĥ¬áĥĲáĥłáĥĽ áĥĿ
ĠÎĳ Î³
ĠÐĲ ÑĢ
à¤¿à¤¸ à¥įà¤¤
à¥ģà¤ ·
Ġà¸Ľ à¸µ
ÏĢ ÏĦ
àª ¾
ÑĨ ÐµÐ½
Ġtou te
ĠáĥĲáĥ ¨
Ġ à¹Ĥà¸Ļ
ĠÏĥ Î®Î¼ÎµÏģÎ±
Ġà°µà±Ĩ à°³à±įà°²
ĠÑĢÐ°Ð±Ð¾ÑĤ Ñĭ
Ġar asÄ±nda
¢ à¸Ńà¸
ĠÎ² ÏģÎ¯
ĠâĢ ¬
ÙĪ ÙĬØ©
ĠagåĽ½éĻħ åİħ
åĮ ħ
æľ ª
Ġáĥ¤ áĥĺáĥļ
Ĺà¸ Ħ
Ð¸ÑĩÐµÑģÐº Ð¸Ðµ
do b
Ġà¦® à¦¨
Ġà¸ªà¸ Ķ
ĠÐ³ Ð¾ÑĢ
ļà¸ ¸à¸
ti gen
ĠC or
ĠáĥĴáĥĲáĥľ áĥĲáĥªáĥ®áĥĲáĥĵ
é ¨
ĠÐ¼ÐµÐ½ Ñı
×ķ×ł ×Ļ×Ŀ
id os
Ġle urs
à±ĭ à°²
ĠâĢľ ,
à¦¸ à§įà¦ķ
Ġp ia
à®¿à®¯ à®¤à¯ģ
Õ¡Õ½ Õ¿
æ¯ Ľ
Ġà¤ļ à¥ģ
ĠQ ar
ÄĻ d
ìĪ ł
v is
Ġi di
Ġb ah
Ġ æľ¬
Ġword t
ĠÙĤ Ø¯
s g
ë³ ¸
l ung
c ora
à°¿à°¸ à±įà°¥
ĠØ³ ÙĪ
ou pe
Ġà¤° à¥ĭ
áĢ ¯
it Ã¤t
åĵ ¡
Ġr áº¥t
Å¾ enÃŃ
nym i
Ġà¤ĸ à¤¿à¤²
à¦ª à§įà¦¤
p le
Ġà®ķ à®£à¯įà®Ł
Ġà°° à±Ĥ
Ġà°¬ à°¾à°²
ch od
y la
b lica
ëĤ ľ
Ġà°® à°Ĥà°¦à°¿
è¨ Ń
Ġ5 0
Ġso it
ĠáĥĴáĥĲáĥĵ áĥĲáĥ¬áĥ§áĥķ
à¹Ĥà¸ Ľà¸£
Ãº s
åŃ ĺ
ĠØ§ Ú¯Ø±
I T
Î¸ Î¿
Ġal tri
Îķ Î¤
Ġuns er
Ġáĥ¡ áĥĺáĥ¡áĥ¢
Ġà¤® à¥įà¤¹
ç ª
ĠÐ½ ÐµÐ¿
Ġà¦°à§Ł à§ĩà¦Ľà§ĩ
ĠÎ¼ ÏĢ
ÅĻe j
ĠáĥĴáĥĺáĥĿ áĥłáĥĴ
ĠÎ² Î¿
Ġ0 5
à¥įà¤ ľ
à¤® à¤¾
à¹Ĥà¸£à¸ Ħà¸
Ïĩ Ïī
Ġå¯ ¹
ĠÑĢ ÑĥÐº
Ġd ar
Ġáĥ¢ áĥĶáĥ¥
ļà¸ Ĺà¸
ĠÎºÎ±Î» ÏįÏĦÎµ
×¨×Ĳ ×ľ
Ð¾ Ð½Ñĭ
Ġ×ķ ×¢
à¹Ģà¸Ĥ à¹īà¸²
ÏĢÎ¿Î¹ Î®
Ġq az
íķĺ ê²Į
Ġà¨ ķ
è¯ Ŀ
æ¬ ¾
áĥĶáĥķ áĥĲ
à¹Ģà¸¥ à¹Īà¸Ļ
ĠÐ¿ÑĢÐ¾Ð³ ÑĢÐ°Ð¼
Ã ģ
ÅĻ enÃŃ
Ĭà¸µà¸ §à¸´à¸
Ð¾Ð» Ð¾Ð²
ģà¸ ¡
Ġcom pr
à¯ģà®ļ à¯į
Ġáĥ¤ áĥĶáĥ®
Ġà¦¬ à¦¨à§įà¦§
ÐµÑĢ Ð³
à°ªà±įà°ª à±ģà°¡
Ġtr av
Ã¦ r
Ġthá» ©
ĠáĥĵáĥĲáĥĻ áĥĲáĥķáĥ¨áĥĺáĥł
dz ia
nÄĽ jÅ¡ÃŃ
Ġ×Ķ ×Ļ×Ĳ
à°¾à°¯ à°ķ
Ġà¤ªà¥įà¤°à¤¦ à¥ĩà¤¶
Ġà¤° à¤¾à¤·à¥įà¤Ł
Ġm ich
à§ĩà¦¤ à§ĩ
p t
c co
Ġd ur
Ø§Ùħ Ø©
Ġà®®à¯ģà® ´
ĠØ´ Ùħ
larÄ±n a
à±Ģà°ª à±Ģ
Ġdo po
ien ie
ë° ĺ
Ġà°ķà°¾à°Ĥà°Ĺ à±įà°°à±Ĩ
Ġc iu
hal ten
Ġà¤Ĺ à¤¾à¤Ĥ
Ġà¤ªà¤¹ à¥ģ
ouve z
ĠV o
ãģ¨ ãģ¯
Ġv ra
Ġlav oro
Ġà¤¹ à¥Ĥ
à¦¨ à¦¾à§Ł
ÙĬ Ø¨
Ġà®¤ à¯Ģ
Ġà°īà°Ĥà°Ł à±ģà°Ĥà°¦à°¿
im e
Ġte ch
y w
Ġne Å¾
Õ´ Õ¡Õ¶
ï¿½ï¿½ ï¿½ï¿½
ad Ä±n
et tes
Ġda ll
áĥĿáĥľ áĥĿáĥĽ
à¸²à¸ ¡à¸
Ġà¦¤ à§ģà¦²
Ģâ Ļ
Ġt our
l ÉĻy
Î³Î³ ÎµÎ»
Ġx xx
ĠÏĢ Î±Î½
ic ios
Ġáĥ§ áĥĿáĥ¤
éª Į
à¤¾à¤µ à¤°
ĠÐ¶ ÐµÐ»
ĠÚ©Ø±Ø¯ Ùĩ
ĠÏĢÎ± ÏģÎ¿Ïħ
ie dy
áĥ¢ áĥĺ
ĠÎŃ Î½
ĠÐ» Ð¸ÑĨ
Ġà¤ªà¤¹à¥ģ à¤Ĥà¤ļ
Ġà¤ľ à¤¿à¤¨
ļà¸£à¸´à¸ ģà¸²à¸£à¸
ĠÎł ÏģÏĮ
6 0
Ð½ Ð¸Ð¹
Ġlu gar
áĥĲáĥłáĥļ áĥĲáĥĽáĥĶáĥľáĥ¢
à¹Ĥà¸Ķà¸ ¢à¸
Î¼Î² ÏģÎ¯Î¿Ïħ
ĠAr beit
ÑĪ Ðµ
Ġê² °
ª à¸µà¸
ĠÎ¤ Î¹
lar dan
ge b
ç ı
å°± æĺ¯
æµ İ
ĠáĥĽáĥĲáĥ¨ áĥĺáĥľ
Ħ à¹Īà¸²à¸
ÐµÐ½ Ð½ÑĭÐ¹
ãģł ãģ£ãģŁ
ĠØ§ÙĦÙħ Ø±
Ľà¸ ±à¸įà¸
ĠÑĨ Ð²ÐµÑĤ
à¹ģà¸ ªà¸Ķà¸
t are
ar zy
ĠáĥĵáĥĲáĥ Ķ
×Ļ×ł ×ķ
Ð°Ð»ÑĮ Ð½Ð¾Ð¹
ãĥĥ ãĤ·
à¦ª à¦¿
Ġd it
Ġà¦¬à§ĩà¦¶ à¦¿
©áĥĶáĥķ áĥľ
ta j
Ġà®ª à®´
j u
åĪ ĩ
à¤¾à¤ª à¥įà¤¤
Ġà¤ļà¥ģà¤¨ à¤¾à¤µ
eit en
Äį ek
ì° ½
ÛĮ Ø²
Ġpro do
Ġu ma
á»© ng
ç¶ ļ
Ø« ÙĦ
Ġ×Ĳ ×Ĺ×¨
Ġv en
ëĿ¼ ìĿ¸
à±ģà° Ń
Õ Ń
tir ak
à®¾à®± à¯ģ
Ġà¤ī à¤¸à¥ĩ
Ġà¤īà¤¸ à¤ķà¥ĩ
ang e
dz a
Ġne ll
Ã¡ le
ê¹Į ì§Ģ
ĠéĿ Ĵ
Ġte k
st ru
Ġà®¨ à®¿à®°
Ġà°īà°¦ à±įà°¯
ãģĦ ãģ¾ãģĹãģŁ
ĠK a
Ø´Øª Ø±
à°° à±Ģ
Ö ĩ
ĠÕ Ŀ
Õ¡Õµ Õ«Õ¶
à¦¬ à¦¿
Ġk re
ĠáĥĶáĥķáĥł áĥĿáĥŀ
à¹īà¸Ńà¸ ¡
ĠÂ ¡Â
çł ´
Ġth Ã´ng
Ġin kiÅŁaf
ĠÏħ ÏĢÎµ
mp re
Ïģ Î¿ÏħÏĤ
l Ã¨
áĥĲáĥłáĥ £áĥļáĥĺ
æ ĵ
Ġå ĳ
ĠÐŀ Ð´
Ø§ÙĨ ÙĬØ©
ĠÎ³Î¹Î± ÏĦÎ¯
iz i
Ġáĥĺáĥ¡ áĥ¢
ÏĨ Î¬Î»
ĠÐ³ Ð´Ðµ
Ġà¤« à¥Ī
à¤¾à¤ĩ à¤¨
à¹īà¸Ńà¸ ¢à¸
ĠÎ±Ïħ ÏĦÎ¬
Ġæ ²
ĠÑħ Ð¾ÑĤ
à®¾à® ¸
áĥĽ áĥĲáĥľ
Ġ à¸Ļà¸µà¹ī
ĠÎµÎº ÏĢ
Ġge gen
ÐµÐ³ Ð¾Ð´
wa Äĩ
Ī à¸´à¸
ĠÎł Î±Î½
íĮ Į
Ġà¦Ńà¦¾à¦² à§ĭ
åį ĵ
ä¹ ł
æ¶ Ī
áĥĲáĥķ áĥĶ
à¸Ļà¸ ³à¸
Ð¾ÑģÑĥÐ´ Ð°ÑĢ
Ġà°¸à°Ĥà°¬ à°Ĥà°§
an os
à¸µà¸¢à¸ ĩà¸
Ð¾ÑģÑĤÐ¾ ÑıÐ½
à¹ģà¸ ľ
Ġa ia
Ġaia dingin
ĠáĥĽ áĥĶáĥª
E W
ĠÑģÐ² ÑıÐ·
pa i
Ã¡ ÅĻ
Ġ2 8
Ġt Ã©lÃ©
ĠáĥĲáĥ Ĺ
à¦¾à¦·à§įà¦Ł à§įà¦°
Ġm Ã¼n
ĠScar pe
Ġin d
Ġà¤¬à¤¤ à¤¾à¤¯à¤¾
àµģà´ ¨àµįà´¨
âĢ¦ âĢ¦
ĠØ² ÙħØ§ÙĨ
or y
Ø· Ø±
ĠbÃ½ t
×ŀ ×Ļ
Ġt ener
Ġà®¤ à¯Ĥ
Ġìŀ ĳ
Ġà°¬ à±įà°¯
ag a
Ġà¦¯ à¦¾
di ÄŁ
ÉĻy y
ĠO r
Ġan cora
Ġà¤Ĩ à¤§
à¤Ń à¤¾à¤µ
Ġg a
ĠÙĦÙĦ Ùħ
uf f
Ġre ci
Ġà®İ à®¨à¯įà®¤
Ġà¤®à¥ģà¤ Ŀ
ãĥĥ ãĥģ
à±ģà°Ĥà° ¬
k ow
ĠÂ £Â¬
ĠÄĳ iá»ģu
ãģĳ ãĤĭ
nie r
ĠÕ ¨
ÉĻr ÉĻk
Ġtrab aj
ar y
ì¡ ±
ĠØ¹ ÙĨØ¯
ĠáĥĶáĥł áĥĿáĥķáĥľ
à¹Ī à¸Ń
à°Ĺ à°²
åĬ Ł
Ġdi ver
sk ich
Î¼Î± ÏĥÏĦÎµ
Ġfon ction
ĠÏĦÎµ Î»ÎµÏħÏĦÎ±
Ġle bih
Ġ$( "#
Ġà¤¨ à¤¾à¤¹à¥Ģ
Ġ ä¹Ł
ĠÑĢ Ñĭ
Ö ¸
ĠÎ± Î¹
×ł ×¡
Ġáĥ¥ áĥĲáĥłáĥĹáĥķáĥĶáĥļ
Î²Î¬ ÏĥÏĦÎµ
ÐµÐ½ÑĤ ÑĢ
à¤Ĥ à¤ķ
à¤ľ à¤°
à¹ģà¸ ģà¸£à¸
ĠÎ¬ ÏģÎ¸
3 8
ÐµÐ½ÑĤ Ð°
à¯ģà®µ à®¤à¯ģ
áĥĶáĥķ áĥ¡
à¹Ģà¸ §à¸
Î½Î¿Î½ ÏĦÎ±Î¹
ĠE uro
Ð¼ ÐµÑģÑĤ
Ġkdy Å¾
Ġà¸ Ħà¸¸à¸ĵà¸
ĠÎķ ÎĽ
Ã§ ek
ĠØ¹ ÙĦ
Ġç ¾
å· ±
éĹ® é¢ĺ
áĥĲáĥĸ áĥłáĥĵ
Ħ à¹Į
Ð°Ð»ÑĮ Ð½Ð¾Ð³Ð¾
ĠUn d
Ġdies er
à¹Ģà¸ģà¸ ¡à¸
ĠÐ¸ ÑģÐº
Ĭà¸ ±à¸
ou n
å Ĥ
Ġáĥŀáĥł áĥĿáĥĳáĥļ
ĠA d
ÑĢÑĥ Ð¶
Ġo tros
an de
Ġë§ ¤
à°¿à°Ĺ à°¿
áĥľ áĥĺáĥĶáĥł
Ġk á»
Ġmais on
ĠØ±ÙĪ ÛĮ
à¯ģà®µ à®°
à¥ĩà¤Ĥà¤¦ à¥įà¤°
ä¼ Ĭ
ĠtÉĻl ÉĻb
m Ã©
w iÄĻ
Ã¶y le
Ø¬ Ø±
gg ia
à®ķ à¯ģ
gen d
ãģĵ ãĤį
Ġg j
à§įà¦¦ à§įà¦°
Ġdiff Ã©r
Ġto t
ãĤ¤ ãĥ«
ier on
Ġ201 3
à¶ §
Ġà¤² à¤¿à¤¯à¤¾
i O
Ġu cz
Ġk eine
×ľ ×ķ
Ġë ¹
à¤® à¥Ģ
Ġà¦ī à¦¤à§įà¦¤
Ø° ÙĦÙĥ
Å ģ
Ġt ara
le d
ĠqÉĻb ul
Ġtou jours
é¡ Į
c os
à®¿à®¯ à®®à¯į
Ġna wet
ĠiÅŁ tirak
fÃ¼ hr
áĥ£áĥ ©
à¹īà¸Ńà¸ ¢
Ġsp Ã©
è¿Ľ è¡Į
paÃ± a
k tu
ÏĥÏĦÎ· Î¼Î±
Ġv ita
Î¼ÎŃÎ½ Î¿Ïħ
Ġto ho
ĠáĥĿ áĥ¥
å Ħ
Ġ áŀ
ĠÑģÐ¾ Ð¾Ð±Ñī
Ġìŀ ¬
á½ °
Ġen cu
Ġáĥ¬ áĥĲáĥĽ
ÏģÎ³ Î±Î½
ĠÐ¼Ð°ÑĤ ÐµÑĢÐ¸
à¤¿à¤¯ à¤¾à¤Ĥ
à¥ĩà¤Ĥ à¤Ĺà¥ĩ
¡à¸µà¸ ¢
ĠÎķ Î¯Î½Î±Î¹
è¶ ³
ĠÐ¿Ð¾Ð¼ Ð¾Ñī
ĠØª Øª
ĠáĥĽáĥĶáĥĿ áĥłáĥĶ
Ĺà¸ ±
ĠÎĳ Îł
ĠÕ ¹
ĠÑģÐ¿ Ð¾ÑģÐ¾Ð±
ÅŁ aq
ŀ à¸´à¹Ģà¸¨à¸
ĠÏĦ ÎµÎ»
Ġà¦¬ à§įà¦°
Ġà®ķ à®¾à®£
æİ §
æĶ ¯
á ĭ
Ġáĥ¡ áĥĿáĥ¤
à¹Ģà¸£à¸µà¸ ¢à¸
Ñ ĸ
tiv itÃł
ÙĩØ± Ø§ÙĨ
à¹Ī à¸Ńà¸Ļà¸
Ð½Ð¾ÑģÑĤÑĮ Ñİ
±à¸ĩà¸ ģà¸¤à¸
ĠÚ¯ ÙĪ
ĠPro duk
áĥĿáĥłáĥª áĥĺáĥĶáĥļ
re ib
Ð¿ÑĢÐµÐ´ ÐµÐ»
Ġmo i
Ġà°ķ à±ģ
ĠØ¹ Ùħ
ĠgÃ©nÃ© ra
áĥĲáĥ¡ áĥ¬
Ġt in
Ġno g
Ġs or
ì¦ Ŀ
åħįè´¹ è§Ĩé¢ĳ
à¤¾à¤ķ à¤°
ĠÃ ļ
bur g
d ow
Ġst ra
k ÉĻm
ĠÙĨ Ø¯
tac tos
Ġv iv
al t
Ġà®ķà¯Ĥ à®Łà¯įà®Ł
Ġpro to
Ġan da
ste ll
ĠN EW
P art
ÅĽ wiet
Ġà¤µà¤¾à¤² à¥Ģ
à· Ħ
\\\\ \\\\
Ġm us
ìĦľ ë¹ĦìĬ¤
ìĺ¤ íĶ¼
Ġà¦ħ à§įà¦¯
Ġà¤ľ à¤²
à°¤ à±įà°¨
êµ °
Ġsi g
Ġtr ze
Ġ×ĳ ×¡
Ġo x
Ø§ Ø§
ĠØ§ÙĦØ£ Ø³
Ġà®İà®©à¯įà®ª à®¤
ĠÚ¯ Ø°
in ter
ãĤĴ è¦ĭ
ĠTÃ¼rk iye
Ġáĥĵáĥ¦ áĥĶ
Łà¸¸à¸ķà¸ ļà¸Ńà¸¥à¸
Ġà°ķà±ĭ à°°
à¤§ à¥įà¤¯à¥ĩ
Ġe uro
á»ķ i
ÏĦÎ¿ ÏįÎ½
Ġh esab
Î»Îµ Îº
iy le
áĥĿáĥļ áĥĺáĥ¡
åĪĨéĴŁ å¿«ä¸ī
ć Ĉ
Ð¼ ÐµÑĤ
Ġãĥ ĩ
ÏģÎ· ÏĥÎ·
ë ĳĲ
áĥĺáĥ« áĥĶ
ĠÎĳ ÏĢÎ¿
ÑĥÐ± Ð»Ð¸
Ġà´ ¤
Ġà¤µà¤¿à¤ Ń
§à¸ ¢à¸
Î¼ÏĨÏīÎ½ Î±
Ġà¨ ¸
ÐµÐ½ Ð½Ð¾Ð¹
O L
áĥ£áĥ ŀ
Ķà¸²à¸ §
ÎµÎ¹ Î±ÏĤ
om e
ĠÐ´ Ð°Ð¶Ðµ
ĠÙĪ ÙĦ
Ġ à¸£à¸²à¸Ħà¸²à¸
ĠÎľ Î±Ïģ
Ġà°ªà±įà°°à°Ńà±ģà°¤à±įà°µ à°Ĥ
Ġà¦¤ à¦¥
Ġäºļæ¸¸ åĽ½éĻħ
à© °
Ġ0 3
áĥ® áĥĶáĥĵ
° à¹ģà¸Ļ
ÑĨ Ð¸Ð¹
Ġi tali
ĠNEW Part
ķà¹Īà¸²à¸ ĩà¸
ĠÐ¡ Ð¿
Ħà¸ ³à¸
el ah
Ġà®µ à®¿à®µ
Ġáĥ¤ áĥĲáĥ¥áĥ¢
Ġà°ħ à°Ĥà°Łà±ĩ
ĠÐºÑĢ Ð°Ñģ
Ġinc ont
è² ©
ãģ« ãģĬ
Ġà®ķ à®¤
Ġáĥ£áĥ ĳ
Ġh al
I A
dan ia
ĠÙĩ ÙĬ
à¥ģà¤ķ à¥įà¤¤
Ġà¤¬à¥Ģ à¤ļ
à§ «
Ġ æľĢ
Ø§ ÙĬ
ter e
Ø¹ ÛĮ
Ġà¦¬à¦¿à¦ ı
à°¿à°Ł à±Ģ
Ġà¦¦à§ĩà¦¶ à§ĩà¦°
r en
Ġà®¤à®² à¯Īà®µ
Ġ×© ×ĳ
Ġëĭ ¹
Ġà¦ī à¦ł
Ġimp ort
jÄħ cy
v Ã½
à¤ķà¥įà¤¤ à¤¿
Ļ àµįà´
à®¯ à¯į
à°¾à° «
uyá»ĩ n
à¦¤ à¦¿à¦ķ
ç´ Ħ
à¤¦ à¤¾à¤°
p ro
à®¿à®² à®¿à®°à¯ģà®¨à¯įà®¤à¯ģ
Äį enÃŃ
Ġj es
Ġche z
Ġpro je
ad ores
ei ÃŁ
Ļà§įà¦ ķ
Õ¡Õ ¦
ĠÄ° l
ĠktÃ³ ra
à°¡ à°¿
áĥļ áĥĶáĥĳáĥĲ
® à¸
ĠÂ ½
5 8
Ġu lti
iá» ħn
ĠÎŃ ÏģÎ³
Ġar ri
ÏĪ Îµ
Ġ":" "
Ġáĥ¡áĥ¬ áĥĿáĥł
1 4
ç ¬
ÐºÐ° Ñħ
Ġ6 00
ĠÎ¿ÏĢÎ¿ Î¯Î¿
íĤ ¤
áĥļ áĥĶáĥĳáĥĺ
Î³ ÎµÎ¹
ĠÑģ ÑĥÐ´
Ġà¤¸à¥įà¤¥ à¤¿à¤¤
Ġà¤µà¤¿à¤¶ à¥įà¤µ
à¹Ģà¸ Ħà¸£à¸Ķà¸´à¸ķ
Î½ Îµ
Ġä¸ Ĭ
ĠÑıÐ² Ð»ÑıÐµÑĤÑģÑı
ÉĻs ini
Ġáĥŀáĥł áĥĿáĥ¤
à¸£à¸±à¸ Ĳà¸
Î¸ ÏģÏİ
ĠI hr
ĠÐ¿ÑĢÐ¾ ÑĦ
ĠØ ¸
Ġà¸ «à¸²à¸
ÏĢÎ¿ Ïį
a ce
Ġà°¨ à°¿à°ľ
Ġå Ń
Ġå İ
åĨ ³
ĠáĥĿ áĥŀ
Ġ0 00
Ð¿ ÐµÑĢ
ĠMu jeres
dem Ã¡s
±à¸ĩà¸ «à¸§à¸±à¸
ĠÐ» Ð¸
¸à¸ ¡à¸
ĠÙħ Øµ
à§Ģà¦° à¦¾
áĥĲáĥ¦ áĥĽ
ĠD et
Ð¸Ð± Ð¾
czne go
ĠÚ¯ Ø²Ø§Ø±
Õ«Õ ¯
ĠdÉĻy iÅŁ
áĥĲáĥĻ áĥĶáĥĹ
×ŀ× ©
ĠM en
Ġo per
Ġa vait
Ġà¤ħà¤¨ à¥įà¤¯
åħįè´¹ è§Ĥçľĭ
Ġle g
Ġà°ªà±įà°° à°¾à°°
Ä±n Ä±z
Ġkh Ã¡ch
ĠØªÙĪÙĦ ÛĮØ¯
Ġby la
Ġà¦§ à¦°
ĠØ¨ ØŃ
Ġdi fer
ÅĤa w
ê ¶Į
à¦ŀ à§įà¦ļ
Ġan no
à°¦ à°°
Ġnas ze
ãģĳ ãģ¦
à¥Ģ à¤ľ
Ġà¤ķ à¤ª
ĠØ¨ Ø²
Ġà°Ń à°¾à°µ
o i
Ġsp rze
à¯Īà®¯ à®¿à®©à¯į
åģ· æĭį
Ġc ap
ĠB et
ÄŁ er
Ġëĭ ¨
cz ki
ĠØ§ÙĦØ ¢
Ġn enÃŃ
à°¾à° Ń
di en
ĠI S
c ka
ĠM il
à±ĥà°· à±įà°£
Ġáĥ¬ áĥĺáĥľáĥĲ
ªà¸ ¡à¸±à¸
ĠD onna
Ġ 88
u ti
áº¡ ng
ĠÎ´ Î¿
Ġà¦¹ à¦ĵ
ĠÎµ ÏĨ
ĠÃº lti
ĠáĥĺáĥĴ áĥĺ
Ġäºļæ¸¸ ag
è ı
ĠÑĩÐµÑĢ ÐµÐ·
v ol
ĠÏĢ ÏģÎ¹Î½
Ġ raz
Ġáĥŀ áĥĲáĥ¡áĥ£áĥ®
Î´ Î¬
ĠÐ¸ Ñģ
Ġà¤¶ à¤¾à¤®
Ġà¤Ĩà¤ª à¤ķà¥ĩ
Ġà¹Ģà¸ ŀà¸·à¹Īà¸Ńà¸
ĠÎ± ÏĢÎ±
æĿ ¡
ĠÐ¾ Ð½Ð°
à¯ģà® Ļà¯įà®ķà®³à¯į
Ġáĥ¨áĥĶáĥ¡ áĥĲáĥĳ
ķà¸²à¸ ¡
ĠÎķ Îł
Ġna le
ÑĢ Ð¾Ñģ
×ķ× £
·à¹Ī à¸Ńà¹Ģà¸
ÏīÎ½ Î¹Ïĥ
ĠVer s
Ġà°¨ à±Ĩà°²
å½ ¢
æĿ ĥ
åĳ ¨
áĥĽ áĥľ
Ĭà¸²à¸ ķà¸´
ĠÐŁÑĢ Ð¸
D F
ation s
³à¸ Ħà¸
Ð¸ÑģÑĤ ÑĢÐ°
à¹ī à¸Ńà¸Ļ
Ø§ ÙĪØ±
Ġil k
áĥĲáĥ¨ áĥĿáĥłáĥĺáĥ¡
Ġpa ÃŃs
ĠÐ¶ ÐµÐ½
ĠÚ©ÙĨ ÙĨØ¯
Ġë¶ Ī
n et
ÙĤ Ø§Øª
áĥĶáĥĿáĥĳ áĥĺáĥ¡
Ġà®ªà¯Ĩ à®¯
ca tion
ÅĻe d
Ġquel ques
ç¦ı åĪ©
à¤°à¥įà¤ ļ
Ġby ÅĤ
Ġà°ļà±ĩà°¸ à°¿
ĠÙħ Ø³Øª
Ġer a
te il
le ur
à®¿à® £
Ġbar ÉĻdÉĻ
×¢ ×ª
ãģ İ
n it
Ġra pp
á»į n
à°°à±įà° ·
Ġs ÉĻh
Ġà¦¦à§ĩà¦ĸ à¦¾
Ġà¤ĩ à¤¤
Ġà¤ª à¥ģà¤°
Ġs el
Ġà°İ à°¦
Ġà®¤à¯Ĩà®° à®¿à®¯
ĠÙĪ Ø¥
Ġsz czeg
ĠP M
ãĥ³ ãĤ¹
Ã «
Ġà®¤à¯Ĭ à®´
ar aq
ent lich
ĠíĬ ¹
Ġà¦ĵ à¦ĩ
à±Ī à°Ł
an iu
ĠØ§ÙĦ Ùī
Ø§Ø °
Ã ĥ
Ġv iÃªn
áĥľ áĥ¢
łà¸±à¸ ĵà¸ĳ
Ġr ych
æ¢ ¦
Ġà¦¸à¦¦ à¦¸à§įà¦¯
Ġi hre
ÎŃÏģ Î½Î·
Ġn in
ÏģÏī ÏĥÎ·
Ġà®µ à®²
Ġáĥ¨áĥĶáĥ¡áĥĲáĥĳ áĥĲáĥĽáĥĺáĥ¡
Ġåħ ¶
æł ¡
ĠÐ¡ Ð
c oup
ĠÏĥÎ· Î¼Îµ
Ġà¦¤ à§ĭ
áĥĲáĥľ áĥĻ
Î» Î¿Ïį
ĠÑĢ Ð¾Ð´
Ġà¤Ĩ à¤°
áĢ Ń
ģà¸²à¸ ¨
ÎĻÎ Ķ
ãĢ Ĭ
ĠÑĤ Ð¾ÑĢ
Ġko lej
Ġáĥª áĥľáĥĿáĥĳ
ŀ à¸£à¸°à¸
Î¼ Î¯Î±
×ĳ ×ķ×ĵ
ĠÑĥÑģÑĤ Ð°Ð½Ð¾Ð²
Ġà¦ªà¦°à§įà¦¯ à¦¨à§įà¦¤
Ĺà¸µà¹Īà¸ Īà¸°à¸
ĠÏĥÏħ Î³Îº
ÙĪ Ùĥ
Ġtak ie
æĹ¶ éĹ´
çĶ ±
à© ĭ
áĥª áĥĺáĥĲ
Ġà¸ Ħà¸§à¸²à¸¡à¸
Ð¾Ð± Ð°Ð²
vel o
ĠÙ¾ Ø±ÙĪ
à¸£à¹Īà¸§à¸ ¡à¸
ĠÐŁ Ð¾Ñģ
à¹ ĭ
Ġà°µà°¿à°ľ à°¯
Ġse v
ĠáĥĴ áĥĿáĥĴ
j as
ĠÐ´ Ð¸
u jÃŃ
Ġs ÉĻb
×Ļ×ł ×Ķ
Ġà°ļà°Ĥà°¦à±įà°° à°¬
Ġáĥŀ áĥĲáĥłáĥ¢
Ġà°¸ à±Ĩ
Ġpro jet
Ġà¦Ĩà¦ª à¦¨à¦¿
Ġmu cho
à¤Ĥ à¤¸
Ġà¤µà¤¿à¤ §
eler i
ob a
p ag
ĠI hre
à¯ģà®¤ à®¾à®©à¯į
Ġne lle
Ġd ni
á» £
Ġà°ķà±Ĭ à°¨à±įà°¨à°¿
ĠÃ Ģ
ìĹĲ ëĬĶ
Ġf e
Ġà®Ĵ à®©à¯įà®±
kie j
ãģ§ ãģĹãģŁ
ĠÙĬÙħ ÙĥÙĨ
Ġà¤ķ à¤¾à¤Ĥà¤Ĺ
à¤µ à¤¾à¤²
ĠØª Ø§Ø±ÛĮ
Ġpr incip
à®¿à®¤ à¯į
Ġk ap
und e
à¤°à¥įà¤ ¡
Ã ı
ĠÂ ³
Ġx e
Ġest Ã¡n
k ÅĤa
Ġà®¤ à®ķ
Õ« Öģ
Ġd Ã¶v
ÛĮØ¯ Ùĩ
Ġris p
ran k
Ġd Å¯
ar Ä±
Ġáĥ¡áĥĲáĥŃ áĥĺáĥł
ļ à¹īà¸²à¸Ļà¸
Ġà¦Ľ à¦¾à¦¤à§įà¦°
Ġæ ķ
ta ge
Ġà¦¹ à¦¾à¦°
Î¿Ïħ Ïĥ
ìłģ ìľ¼ë¡ľ
ĠÎ£ ÏĦÎ¿
Ġà°¦ à±Ĥà°°
Ġ _
b et
Ġæ ±
ĠÐ½ÑĥÐ¶ Ð½Ð¾
Ġz ro
Î»Î± Î¼Î²
ĠMad rid
ĠáĥĹ áĥķáĥĺáĥĹ
Î³ Î¹
ĠÐ¿Ð¾Ð· Ð²
à¤Ĺ à¤°
à¬ °
«à¸ į
ĠÎº Î¿Ïħ
á Ĭ
Ð¸ÑĤ ÐµÐ»ÐµÐ¹
en tos
ĠáĥŀáĥłáĥĶáĥĸ áĥĺáĥĵáĥĶáĥľáĥ¢
à¹ Ĭ
ĠÎ¶ Î·
Ġmo is
Ð°Ð»ÑĮ Ð½Ð¾
à®¿à®°à¯ģà®ķà¯įà®ķ à®¿à®±
à¹ĩà¸ Ķà¸
ĠÎµÏħ ÏģÏİ
Ġw el
i ti
à¨ ¤
Ġæ µ
à¥įà¤¯ à¤¾à¤¸
ĠáĥĿ áĥ¯áĥĲáĥ®
ª à¸µ
ĠÐ¾ÑĤ Ð²ÐµÑĤ
Ġà¦¬ à¦¸
Ġà®¤à¯ĩ à®µ
ķà¸ ¥
ĠÐ³Ð¾Ð´ Ñĥ
à¹ģà¸ ¥à¸°à¹Ģà¸
Ġ×Ĳ ×ł×Ļ
ÙĩâĢĮ ÙĩØ§ÛĮ
áĥķ áĥĺáĥłáĥ
t ras
ĠÐ¿Ð» Ð°Ð½
à°¾à°¯ à°Ĥ
Ġvo ir
cz na
Ġ×Ĳ ×ł
áĥ£áĥ «
Ġà§§à§ ¨
à¦¿à¦ «
c Äħ
Ġc ro
à¥ĩà¤¶ à¤¨
Ġà¤¬ à¤²
Ġf re
ï »
Øª Ùī
ĠmÅ¯ Å¾e
any ak
Ġà°ķà±Ĭ à°¨
Ġm uss
Ġa ma
Ġl Ã½
ÉĻhs il
Ġpow in
Ġç ´
à¦Ĥ à¦¶
rÃ© e
Ġà®ª à®Łà¯įà®Ł
à°¨ à±Ĥ
Ġà¤ī à¤¦
Ġè ¶
ĠD Ã¶vlÉĻt
Ġà°ªà±Ĩ à°°
iz ÉĻ
el f
Ġav is
à¤¦ à¤¾
Ġal ors
dz Äħ
ä» ķ
ĠF or
Ġà°ħ à°ķà±įà°ķà°¡
çµ Ĳ
Ġmo do
lam a
ĠØª Ø¬
ĠëĶ °
h ra
Ġà®µ à®¿à®´
Ġà°ķà°¾à°° à°£
ĠáĥĽáĥĶáĥ¢ áĥĺ
Ĺ à¹Įà¸
Ġk ein
ç İ¯
Ġpre m
×ŀ ×Ļ×Ŀ
ÏģÎ± Î½
ãĥķãĤ ¡
ĠÏĦ ÏģÎ¿
Ġm om
áĥĲáĥłáĥ £áĥļ
åİ Ĩ
Ć ą
ÐµÐ½ Ð¾
Ġc Ã¹ng
Î¼Î¿ Î½
à§ĩà¦ ¯à¦¼
áĥĺáĥł áĥĶáĥĳáĥĲ
ÎŁÎ ¤
Ð¼ Ð¸Ð½
Ġà¤ľ à¥įà¤¯à¤¾à¤¦
åľ¨çº¿ æĴŃæĶ¾
à¹Ģà¸£à¸ ·à¹Īà¸Ńà¸ĩ
ĠÎĶÎ¹Î± Î²Î¬ÏĥÏĦÎµ
ł áł
ĠÐł Ð°Ð·
Ø® ÙĦ
áĥ¤ áĥĶáĥł
łà¸²à¸ ¢
ĠÎ¼Îµ Î³Î±
à¯ĭ à®°
ĠÐ¼ Ð¸ÑĢ
Ġl Ã©
à¹Ģà¸£à¸µà¸ ¢à¸Ļà¸
ÎĻÎ ¤
ĠÕ į
Ġdi gÉĻr
ĠagèµĮ åľº
åĮ Ĺ
çº ¢
Ġ= >
à¹Ģà¸ģà¸´à¸ Ķà¸
Ð¸Ðº Ð¾Ð²
ĠK l
Ġwy so
« à¹īà¸Ńà¸ĩà¸
ĠÐ³ Ð»
ª à¸Ńà¸ļà¸
ica ciÃ³n
ĠB l
áĥ® áĥļ
à±ģà°ķ à±ģà°¨
Ð°Ð»ÑĮ Ð½ÑĭÐµ
owa ÅĤ
Ġtara f
Ġf aut
ĠØ£ Ø³
ĠáĥĽáĥĿáĥ «
ck y
Ġka Å¾
à°¿à°¯ à±ĭ
Ġc r
à¤¤ à¤°
åŃĹ å¹ķ
g ang
ãĥ¼ãĤ ·
Ġc áº¥p
id Ã©
er v
à¯Ĭà®° à¯ģ
ìĦ Ŀ
à°ķ à±Ģà°¯
iz ia
å¿ ħ
×Ĳ ×ª
is to
ĠØ¹ÙĦÙĬ Ùĩ
ĠSe x
ĠS al
à±ĥ à°·à±įà°Ł
à¥ĥ à¤·
ļ àµįà´ļ
ÙĨ ÛĮÙĨ
Ġda x
Ġsu per
Ġë ¸
Ġà¦® à§įà¦¯
à¥ Ľ
ĠÙĪ Ùİ
ĠØ§ÙĦØ³ ÙĬ
Ġein fach
à¯ģà®Ł à¯įà®Ł
Ġpay s
kie go
ĠT er
à¦¿à¦ķ à¦¾
Ġà®µ à®¾à®°
iy at
Ġà°¬ à°¾à°§
Å¾ en
is ter
Ġáĥĵ áĥĺ
Ĺà¸ ¢à¸
Ġà°¨ à°¾à°ķà±ģ
æŀ Ħ
Ī ¬
Ġà°ļà±Ĥà° ¡
ÎĳÎ ľ
Ġk ol
ĠÎĶ Î®
ĠnhÆ° ng
áĥł áĥĶáĥĳáĥĺáĥ¡
æĸ ½
è´ Ń
ÑĢ Ð°Ð±Ð¾ÑĤ
i as
Î³ÏģÎ± Î¼Î¼Î±
à¦¾à¦® à§ĩà¦°
áĥĺáĥ¡ áĥĻ
ĠÏĦ Î¯
ĠÐ· Ð°Ð½
Ġà¤¸ à¥ģà¤¨
Ġà¤¶ à¥įà¤°à¥Ģ
Ġw ith
ÎĹ Î¤
Ġ2 9
ÑĨ ÐµÐ²
ch te
Ġáĥľ áĥĲáĥ¬
à¸£à¸ ĸ
ĠÏĢÏģÏĮ Ïĥ
Ġà®ªà¯ĭ à®©à¯įà®±
ĠÐ¿Ð¾Ñģ Ð»ÐµÐ´
ĠP rzy
ģà¹Ģà¸ Ħà¸£à¸Ķà¸´à¸ķà¸Łà¸£à¸µ
Î» Î®ÏĤ
dÄ± ÄŁÄ±
Ġà¦°à¦¹ à¦®à¦¾à¦¨
Ġè ´
æĢ ģ
ç» ľ
Ġáĥĺáĥ¡ áĥĺáĥľáĥĺ
ŀà¸±à¸ Ĵ
Ð¿ Ð¾Ð»
Ġà¦Ĺ à§ĩà¦Ľà§ĩ
Ø§Ø± Øª
«à¸¥à¸²à¸ ¢à¸
ĠÐ³ Ð»Ð°Ð²
ªà¸´à¸ Ĺà¸ĺ
el o
Ġ×Ķ ×Ļ
áĥľáĥ¢ áĥĶáĥłáĥĶáĥ¡
p od
ÑĭÐ¼ Ð¸
h et
ĠH aus
ãģĹ ãģı
Ġãĥ ı
Ġáĥ® áĥĿáĥļáĥĿ
Ġà¦¬à¦¿à¦· à§Ł
à±įà° ŀ
Ġe ing
ul ta
à¥įà¤ ł
à¤Ĩ à¤Ī
ĠØ§ÙĦØ¬ Ùħ
ĠìĤ¬ ëŀĮ
ti j
m b
Ã³ lo
à®¾à®Ł à¯ģ
ia d
Ø§ Ø³Øª
Ġqu ando
Ġãĥ Ľ
Ġà°Ĺ à±Ĭ
Å¯ sob
Ġà¦ħ à¦ª
er os
ig er
ãģ¨ ãģª
Ġà¤¬ à¥ĭ
à¥ĩà¤Ĥ à¤Ł
cj on
ĠØª ÙĤ
Ġà®® à¯ģà®ķ
ĠÉĻv vÉĻl
à¦¾à¦ ·
à¤ ĩ
iy i
à°¤ à±įà°µ
qu ier
t ki
Ġvá» ¥
ko rzy
Ö °
Ġ×ľ ×Ľ
Ġe au
à®¨à¯įà®¤ à®¿à®°
at er
Ġà°° à°Ĥà°Ĺ
ĠL ie
Ġ201 2
ªà¸ ĩà¸
Ġque llo
æŀ Ĳ
er d
Ġà°Ĩ à°¸
ÏĨ Î¹
ĠÅĽ wia
ĠÎºÎ¬Î½ ÎµÎ¹
éĢ £
ĠáĥĴ áĥĲáĥĹ
ä¼ Ĺ
é» ĳ
ĠÐ¾Ð±Ð»Ð°ÑģÑĤ Ð¸
Ġtrab ajo
ĠÏĢÎ¿ Î»Î»
in n
ĠáĥłáĥĿáĥĽáĥĶáĥļ áĥ¡áĥĲáĥª
Î¼ Î¼
ĠÐĺ Ð·
Ġà¤īà¤¤à¥įà¤¤ à¤°
Ġà¤Ĳ à¤¸à¥ĩ
à¸£à¸²à¸ ¢
ĠÏĮ ÏĢÎ¿Ïħ
à¤¾à¤ļ à¥įà¤¯à¤¾
ÐµÑĢ ÑĪ
Ġà®Ĩ à®ļ
ĠáĥĹáĥ¥áĥķáĥĶáĥľ áĥĺ
Ħà¸£à¸ ĩà¸
Î¾ Ïį
Ġc ab
Ð¸ Ñī
ĠØ§ÙĦÙħ Ø³Øª
ľà¸ ¥
ĠÏĥÏĩ Î¿Î»
ĠnÄĽ k
ĠØ§ Ø·ÙĦ
Ġå¹ ¶
è ħ
åĪĨ pk10
ĠáĥĽ áĥĶáĥĴ
Ġà¸ģà¸²à¸£à¸ ŀà¸Ļà¸±à¸Ļà¸
ĠÐ³ Ð¾Ð²Ð¾ÑĢ
à®¾à®³ à®°à¯į
Ġà°ķà°¨ à°¿à°ª
à¹Ī à¸Ńà¸Ļ
ĠÐ± Ð°Ð½
ļà¸£à¸´à¸ ģà¸²à¸£
tif s
Ġb en
ĠáĥĽáĥĿáĥľ áĥĲáĥ¬áĥĺáĥļ
Ġà¦¬à¦¿à¦ ª
ĠÑĢ Ð°Ð¹
I D
Ġà®Ĩ à®£à¯įà®Ł
ĠØ§ÙĨØ¬ Ø§Ùħ
à°Ł à°¨
ĠáĥŀáĥłáĥĿáĥĴ áĥłáĥĲáĥĽ
Ġh iss
I ON
Ġpro g
Ġt anto
Ġà¤¦à¥Įà¤° à¤¾à¤¨
áĢ Ħ
Ġà¦ķ à§įà¦¯
ie urs
Ä±s Ä±
Ø§Ø±ÙĬ Ø®
Ġ×Ĳ ×Ŀ
Ġm am
Ġni Å¼
ĠíĻ ķ
ĠI D
æĥħ åł±
Ã Ĥ
Ġqu a
Ġcu enta
iz z
us am
Ġ2 7
à´¿à´ ķàµįà´ķ
Ġà¤ķ à¤Ĥà¤ª
li que
ĠnÄĽ j
ĠéĢģ æĸĻçĦ¡æĸĻ
ãĥ³ ãĤ¯
h an
Ġà¤µ à¥Ī
T O
Ġfa c
Ġà°Ń à°¾à°Ĺ
ØŃ ÙĬ
ì² ĺ
Ġein es
ĠO b
ĠØª ÙĩØ±Ø§ÙĨ
ĠÙħ ÙĬ
Ú© ÛĮ
ãģĳ ãģ©
ãģ® ãģĮ
à®¿à®ķ à®´
áĥĶáĥĳáĥĺ áĥĲáĥľ
¸ à¹Īà¸¡à¸
cel ona
à¤¾à¤Ĥà¤ļ à¥įà¤¯à¤¾
Ġsie mpre
à§įà¦° à§Ģ
ĠÏħÏĢÎ¬ÏģÏĩ ÎµÎ¹
v ou
Î»Î· Î¼Î±
èª ¿
Ġáĥ¡ áĥ®
å®ī è£ħ
çĶµ åŃĲ
Ð°Ð¹ÑĤ Ðµ
Ġà¦¢ à¦¾à¦ķà¦¾
ÏģÎ¹ Î¸
iÄĻ ki
áĥĲáĥ¦áĥĽ áĥĵáĥĶáĥĴ
ĠÎĿ ÎŃ
ĠÐ¾Ñģ Ð¾Ð±
l et
à§ģà¦ ģ
Ġà¸ ¨
Î´ Î¿ÏĤ
åİ ĭ
Ð² Ð¾ÑĢ
Ġcel a
ª áĥĺáĥļ
Ĺà¸ĩà¸ ļà¸Ńà¸¥
ÏĢÎ¿Î¯ Î·ÏĥÎ·
Ġes o
ÑģÐº Ð¾Ð¼
aj es
Ħà¸ ·à¸Ń
Î¼Î¿ Ïģ
Ġcas a
Ġà¤¬ à¤ļ
æ ĳ
à© ±
Ġé Ļ
áĥĽ áĥĶ
à¸´à¸ ĩ
ĠÐ²Ñģ ÐµÑħ
asÄ±n Ä±
Ġà°¦ à°°à±įà°¶
Ġà¸ ¡à¸²
ĠÐºÐ» Ð°ÑģÑģ
¡à¸ ±à¸Ļ
Ġ×ĳ ×§
à±ģà°° à±ģ
áĥĿáĥ £áĥ
ĠÙĨÙħ ÛĮ
ĠÐ²Ñģ ÐµÐ³Ð¾
Ø¹ ÙĪØ¯
ëĵ ł
Ã» t
à§ĩà¦Ľ à¦¿
ĠáĥĴ áĥĲáĥĶ
ll ando
à¦¿à¦¯à¦¼ à§ĩ
Ġà°Ĩ à°«
Ġt an
ĠD I
Ġp ag
u ka
Ġprof ession
ÙĤ Ùħ
qu er
Ġà¤¦à¥ĭ à¤¨à¥ĭà¤Ĥ
Ġs ic
n iÄĻ
c ur
ãģĭ ãĤĬ
ãĥ¼ãĥ Ħ
Ùĩ Ø¯
Ġà®®à®ķà¯įà®ķ à®³à¯į
Ġge b
or so
Ġà¤ķà¤¾à¤Ĥà¤Ĺ à¥įà¤°à¥ĩà¤¸
ĠV Ã½
à¤°à¥įà¤ ķ
Ġex emp
Ġph áº©m
Ġq an
Ġà°ªà±įà°° à°¾à°Ĥà°¤
Ġdzie ci
ĠØ² ÛĮØ±
ãģ ¶
Ġc ir
ĠÙĪ ÙĦØ§
Ġs m
Ġà¦¥ à¦¾à¦ķà§ĩ
áº¥ u
Ġëª ©
b les
pe ÅĤ
is ten
ãĥ¬ ãĤ¹
Ġà®ª à®¿à®Ł
ro b
Ø³ Ø©
ĠáĥĹ áĥķáĥĲáĥļ
à¸£à¸µà¹Ģà¸ ¡à¸µà¸¢
äºº æ°Ĺ
åĩ ¡
Ġh ak
×ķ×ľ ×Ŀ
Î³Ïī Î³
rz ÄĻ
ĠÎ´ Î¹Î¿
Ġíķ ł
áĥ¥ áĥķ
å¹ ²
Ġé Ĥ
ĠÐ ®
Ġà®® à®¾à®±à¯įà®±
Î¶ Î·
ãģ® ãģĬ
ĠáĥĵáĥĲáĥ ¬
ÏĢÎ¿Î¹ Î·
ÐµÐ³Ð¾Ð´ Ð½Ñı
Ġpod le
éĩ İ
à¹īà¸²à¸ ¢à¸
Îķ Î¥
Ġè µ
ĠÐ² Ð°Ð¼
p Ã©
ĠáĥłáĥĲáĥĽáĥĵáĥĶáĥľ áĥĺáĥĽáĥĶ
«à¹ĩ à¸Ļ
Î¯Îº Î·
ÛĮÙĨ ÛĮ
ĠÑģ ÐµÐ¼
Ġà¤ķà¥Į à¤¨
à¹ĩà¸ Ħ
ĠÎļ ÎĳÎĻ
Ġsy ste
Ã§ e
æĭ¿ å¤§
è ĳ
0 8
Ġáĥ® áĥĲáĥļáĥ®
à¸²à¸ ¡
ÐµÑģÑĤ Ð¸
à¤Ń à¤¾
æ¯Ľ çīĩ
à¹ģà¸Ļà¸ °
Ġ" ,
Ħà¸£à¸ ·à¹Īà¸Ńà¸ĩ
à¤ľ à¥ĩ
Ġà°ļà±ĩà°¸à±įà°¤ à±ģà°¨à±įà°¨
ĠáĥĻ áĥķáĥļ
Ġ4 8
ÑĤ Ð°
st up
Ġà°µà°¾à°° à°¿
con tre
Ġì »
áĥł áĥĲáĥ¢
Ġje g
ĠâĢĿ ,
omb res
ĠØ§Ø·ÙĦ Ø§Ø¹
Ġin n
ÉĻ ng
Ġà®µà®¾à® Ļà¯įà®ķ
O U
z pie
b res
à¤¸ à¥įà¤ķ
ĠÙĤ Ø§ÙĦ
Ġd urante
Ġth is
s I
Ġtr Ã¬nh
Ġí ļĮ
à§ģà¦¦à§įà¦§ à§ĩ
à¯ģà®ķ à®³à¯Ī
Ġbe im
Ġg erek
Ġby lo
×¨ ×Ļ
Ġpersonn es
Ġi ki
ÙĦÙĬ Ùħ
å ³
y t
Ø± Ø³
Ġà°¨à°¿à°°à±įà°µ à°¹
Ġà¦ī à¦ļ
à°¾à°¸ à±į
ĠL and
Ġà¤ľà¥Ī à¤¸à¥ĩ
Ġì¢ ĭ
ones ia
Ġor gan
ci u
dÉĻ t
ĠÙĦ ÙĬ
à¯Ĥ à®°à¯į
ĠÚ¯Ø²Ø§Ø± Ø´
Ġs ab
ĠáĥĴáĥĲáĥľ áĥ®
Ľà¸£à¸°à¹Ģà¸ łà¸
Ġ×Ľ ×Ĳ
æ· ±
Ġdes arro
çĬ ¶
ÏģÏī ÏĢÎ±
Ġprzy pad
Îº Î¿Ïħ
á» «
áĥĺáĥ§ áĥķ
ä¹ ī
Ġà¤®à¥įà¤¹ à¤£
ĠÐ¿ Ð¾Ð»ÑĮÐ·
Ġter se
ĠÏĢ Î¹
ê°Ģ ê²©
áĥĲáĥļ áĥĺáĥ¡
ĠÏĥÏĦÎ¿ Î¹
Ð°Ðº ÑĤÐµÑĢ
ìķĦ ê°Ģ
Ġà°¸ à°Ń
Ĥ à¹īà¸Ńà¸
Î¸ ÎµÎ¹Î±
åĽ½ å®¶
Ð¸ÑĤ Ð¾ÑĢ
Ġj ou
áĥĲáĥĺ áĥľ
ļà¸²à¸ ĩà¸
ÎŁÎ ł
Ġpr vnÃŃ
ÑĢ Ð¾Ð¿
Ġíķľ êµŃ
ĭ à¸µ
ÏĦÎ¹ÎºÏĮ ÏĤ
ĠwiÄĻ c
Ġà¦¯ à¦¦à¦¿
å¢ ĥ
åı ²
Ġä¸ ī
ĠáĥĶ áĥĽ
à¹Ģà¸ Ķà¸
Ñı Ñģ
ÙĪ Ø©
áĢ Ģ
Ġfun ction
ĠÐ¼ ÐµÐ´
łà¸²à¸© à¸²
Ġå¹ ¸è¿Ĳ
à¤¶ à¥įà¤¯
áĥĶáĥłáĥ «
Ġìĥ Ī
ĠÑģÐ¾ Ð¾ÑĤ
Ġwar to
à®¤à¯įà®¤ à®¿à®±à¯įà®ķà¯ģ
Ġà° ĺ
Ø§Ø² Ùħ
Ġáĥ¡áĥĲ áĥĲáĥĹ
ĠPos tÃ©
ru ik
ĠIS T
Ġà°ª à±įà°²
Ġd am
Ġch icas
ll as
Ġat ten
dz enie
ĠÙĨ Ø³
à°¸à±įà°Ł à±į
ri que
ĠÄĳ ang
Ġë° ĺ
×¢ ×ķ×ª
eit s
Ġpro ble
st ÃŃ
Ø¦ Ø©
à¯Ī à®¤à¯į
re z
à¤¾à¤¸ à¥įà¤¤
à§ģ à¦¸
w as
p ond
Ġ ÅĻ
Ġse gu
ĠØªØ§Ø±ÛĮ Ø®
Ġg Ã¼
Ġà°²à±ĩà°¦ à°¾
k Ã½
m at
ĠØº ÙĬØ±
ëĶ Ķ
à¯Īà®ķà¯įà®ķ à¯ģà®®à¯į
Ġà¦Ń à¦¾à¦ĩ
m ment
Ġnue vo
ĠF e
ãĥĶ ãĥ¼
Ġà¦¤ à§Ī
è£ ½
ä¸Ģ æľ¬éģĵ
Ġáĥ¡áĥ®áĥķ áĥĲáĥĵáĥĲáĥ¡
ķà¸ ģà¸
Ġåħ įè´¹
è® ¤
Ġà¤² à¤¿à¤ĸ
2 4
ĠÎŃÎ½Î± Î½
Ġc aÅĤ
Ġ Ïī
Ġd ist
Ġáĥ¢ áĥĶáĥł
èĻ İ
ç»ĵ æŀľ
Ð°Ð»ÑĮ Ð½ÑĭÑħ
ĠÕ ¬
Î³ÏģÎ¬ ÏĨ
Ġx Ã¼sus
ĠáĥĽ áĥĿáĥĵ
ĠÏĩÏģÎ· ÏĥÎ¹Î¼Î¿
ĠÐ¿ÑĢ Ð¾ÑģÑĤÐ¾
×© ×ķ×ª
ĠnÃ³ i
Ġ à¸£à¸²à¸¢à¸
ÏģÎ¹ Î¬
ç½ĳ ç»ľ
ĠÑĨ ÐµÐ½
Ġà®ļà¯Ĩà®¯à¯įà®¤ à¯ģ
áĥĺáĥļ áĥ¡
±à¸ģà¸ ©à¸
Î¹Î½ Î®
Ä Į
Ð°Ð´ Ð¸
Ġn ov
± à¹īà¸Ļ
ĠÏĥÏħÎ¼ Î¼Îµ
Úĺ Ùĩ
ĠB ei
é¦ĸ é¡µ
Ġç¾ İ
æľī éĻĲ
ĠáĥĴáĥĺáĥĿáĥłáĥĴ áĥĺ
à¸Ńà¸ ·à¹Īà¸Ļ
Ð¸Ð» ÑģÑı
çĶ º
ä¼ ¦
ĭà¸ ·à¹īà¸Ń
Ġ. ,
Ġ( )
à¥ĭ à¤¡à¤¼
Ġà¤ķ à¤²
Ġáĥ¡áĥĲáĥĽ áĥĺáĥľáĥĺáĥ¡áĥ¢
Ġà®¨ à®©à¯įà®±
ĠÐ· Ð½Ð°Ñĩ
íı ī
Ġãĥĸ ãĥ©
à®¿à®© à®°à¯į
Ġj ours
áĥļáĥĶáĥĳ áĥ¨áĥĺ
Ġv i
ĠH and
Ġ2 6
L CJ
ê ´ĳ
Ã¡ Å¡
ĠÙĪ Ø¬ÙĪØ¯
Ġheb ben
Ġ osta
ãģ§ ãģĤãĤĭ
Ġdo ÄŁ
r er
ĠØ§ÙĦØ¹ Ø§ÙĦÙħ
ĠW ie
ëĭ ĺ
Ġà®ķà®° à¯ģà®¤à¯įà®¤
ĠK inder
ĠÅ¡ kol
Ġs tos
ì§ ģ
à§įà¦¯ à§ĩ
à¤¾à¤µ à¤¾
ĠrÃ© al
n u
lÉĻÅŁ dir
ÃŃ o
s ter
à®ªà¯įà®ª à¯ģ
Ġ×ĳ ×ł
à§ĩà¦ ·à§įà¦Ł
li ng
Ġpo zy
Ġdo ve
ill as
ue il
íĥ ľ
ĠmÃ¼ h
ĠM on
Ġj p
ãĤĵ ãģł
Ġà®ļ à®Łà¯įà®Ł
ĠÙĤ Ø¨ÙĦ
Ġà¤®à¥ĭ à¤¦à¥Ģ
áĥĺáĥķ áĥĶ
¡à¸ ±à¸Ļà¸
èĩª æĭį
åı ĭ
Ġà¤ªà¥Ĥ à¤°à¥įà¤µ
ka mi
ĠÏĢÏģÎ¿Ïĥ Ïī
ist es
Î»ÎŃ Î¿Î½
h aus
ĠáĥĲáĥ®áĥļ áĥĲ
æĬĢ æľ¯
à¥ ¦
Ñı Ð¶
Ġmen y
Î´ Ïī
Ġn Ã£o
Ġáĥ£áĥłáĥ Ĺ
Î±Î½ Î¬
ĠÐ¾Ð´ Ð¸Ð½
ĠE st
Ġà¦® à§Ĥà¦²
±à¸ĩà¸ģà¸¤à¸ ©
ĠÎ¤ Î¿Ïħ
ç» Ń
ÑĥÑĢ Ñĭ
ãĢ į
áĥĲáĥ¨áĥĿáĥłáĥĺáĥ¡ áĥĿ
ĺà¸¸ à¸£à¸
Î¸ ÏħÎ½
kla d
Ð ¯
tÃ© s
à¹Ĥà¸¥à¸ ģ
Ïĥ Î®
owan ych
z ei
Ġå¿ «
äº ¿
æ²¡ æľī
áĥ¢ áĥĻ
Īà¸ ³
Ð¸ÑĩÐµÑģÐº Ð¾Ð¹
iem bre
Ġà¤īà¤ª à¤¯à¥ĭà¤Ĺ
ŀà¸Ļà¸ ±à¸Ļ
ĠÐ· Ð½
Ġà¸ªà¸¡à¸±à¸ Ħà¸£
à¤¿à¤¯ à¤®
Ġte cn
áĥ£áĥł áĥĲ
ĠG i
ÑıÐ± ÑĢÑı
Ġé Ľ
×¢ ×Ķ
Ġf atto
m iento
ĠáĥĴáĥĲáĥľáĥĲáĥªáĥ®áĥĲáĥĵ áĥĲ
ê »
ĠLe ben
O D
l ÄĻ
Ġo re
Ġt ÉĻh
Äį nÄĽ
Ġà°µ à±ĩà°¸
Ġbeau coup
Ø§Ø¨ ÙĦ
ãģ«ãģª ãĤĭ
à®¿à®¨à¯įà®¤ à¯ģ
a ti
ÃŁ er
Ġp es
á»ĵ i
en de
à¤ª à¤¾
ĠÃ§ Ä±k
Ġà¦® à§ģà¦ķà§įà¦¤
ì ¼
Ġà¤īà¤¨ à¤ķà¥Ģ
Ġà°ļà±Ĥà° ª
ĠÃ© tu
ĠÄį i
Ġà¦¸à¦Ń à¦¾à¦ª
Ġà¦ĩà¦ī à¦¨
ãĥ¼ ãĥ³
ĠÂ ¼
Ġl Ãªn
ĠØ§ÙĦÙħ Øµ
ci Äħ
Ġà®µ à®¾à®¯
Ġpr Å¯
c imiento
Ġà¦¬ à§ľ
ĠA z
v ar
ĠF Ã¼r
Ġà°ĩ à°¦
Ġ×Ļ ×ķ×ª×¨
ĠÙĥ Ùĩ
à¤¾à¤ Ń
_ c
Ġà¹ģà¸ ¥
ãĤ¤ ãĤº
Ġæ ³
à°°à±įà° Ń
ä¸Ģ çº§
ĠÎµ ÏĦÎ±Î¹
à¤Ĥà¤¬ à¤°
ĠÎ½ ÏĮ
à¦ Ĩ
ĠáĥĽáĥ£áĥ¨ áĥĲáĥĿáĥĳ
ç®¡ çĲĨ
¹ æŀľ
Ñĭ Ñĩ
ĠØ³ ÙĨÚ¯
ĠÎ§ Î±
Ø¶ ÙĪØ¹
Ġáĥ¡ áĥĺ
Î½ ÎµÎ¹
ĠÐ½Ðµ ÑģÐº
Ġà®µ à®¿à®ļ
ĠØ¨ Ø´
Ġà¸ Ŀà¸²à¸ģ
Ïĥ Î¹Î¬
Ġå¤§åıĳ å½©ç¥ŀ
ĠÐ¾ÑĤ ÐºÑĢ
ĠG er
ĠáĥĽáĥĿáĥ Ĺ
à¸Ńà¸²à¸ Īà¸
Î» ÏİÎ½
r ic
Ð¸Ð½ Ñĥ
à§Ģ à¦ķà§įà¦·
à¹Ī à¸Ńà¸ĩà¸
ĠÎ² Î±Ïĥ
Ġk ra
íĹ ĺ
èĩª å·±
1 7
è§Ħ å¾ĭ
áĥĲáĥĴ áĥĲáĥľ
Ġà¸§à¸´à¸ĺ à¸µ
Ġu04 3
ta ble
Ġà°ķ à°³
Ġà¸ Ĥà¸Ńà¸ĩà¸
ĠÑĤÐµÑħ Ð½
Ķà¸ §à¸
b au
à¤°à¥įà¤ Ĺ
ĠáĥĴáĥĲáĥĽáĥĿáĥ §áĥĶáĥľ
ĠvÃŃ ce
ĠÐ² ÐµÐ´
h m
gra m
Õ¡Õ ·
h am
ĠáĥĲáĥ¥ áĥ¢
Ġà§§à§ ¯à§
Ġà°µ à°¾à°¡
Ġà°ļà±ĩà° ¤
ãĤ ´
Ġà®®à¯ĩà®² à¯ģà®®à¯į
Ġs ais
ĠÚ¯ Ø±Ø¯
Ã Ī
Ġb iáº¿t
m um
ĠU na
à±įà°µ à°°
Ġà¤®à¥ģà¤Ŀ à¥ĩ
Ġe je
Ġvra i
Ġl ay
iy et
Ġà¶ ļ
Ġm ag
à§ĩà¦¶ à¦¨
ãĥ¼ãĤ «
Ġà¤¤ à¥Ī
à°ķ à±įà°°à°®
æĦŁ ãģĺ
kom men
Ġh is
Ġì½ ľê±¸
ã ħ
ìł Ģ
Ø§Ø¯ ÙĬ
ãģĿ ãģ®
Ġà¦¸ à¦°à§įà¦¬
Ġn um
Õ¥Õ ¯
ĠÙĨ ÙĤ
ov al
i h
ĠÃ¶z Ã¼n
Ġìļ Ķ
à±ĭ à°®
lij k
Ġà®° à¯Ĥ
éŁ ©
Ġáĥ¡ áĥĺáĥ¡
Ĺà¸ ±à¸
Ġch Ãºng
å¹ ¶
Ġà¦ĵ à§Ł
Ġà¤² à¥ĭà¤ķ
ĠÎ¿ÏĢÎ¿ Î¯
Ġà®ļ à¯Ģ
ĠÏĩÎ± ÏģÎ±Îº
àµįà´ ±
ĠáĥĽáĥĺáĥ ¬
à¥ ħ
ä½ İ
ĠÐ¿ÑĢ Ð¾ÑģÑĤ
osten los
ĠÎļ Î¿
ĠÅŁ ek
Ġ( "
ÏĦÎ· Î³Î¿
ĠÐ¼Ð¾Ð³ ÑĥÑĤ
à°¿à°Ĥà° ¤
ĠJ u
à¸Ļà¸²à¸ Ķ
ĠÎµÏģÎ³ Î±Ïĥ
ç§ °
ĠÐ¼ Ð½Ð¾Ð³Ð¾
à§įà¦¯à¦¾à¦¨ à§įà¦¡
Ġáĥ¤ áĥł
à¸µà¸¢à¸ §à¸
ĠÎ´ ÎµÎ¯
is ine
ĠÑĥÑģÐ» Ð¾Ð²
ĠÙĩ ÛĮ
ģà¸ §à¹Īà¸²à¸
ĠÎ± Î³Î¿
k l
ta le
æī ĳåħĭ
à¨ ¨
çİ ĭ
Ġáĥ¡áĥĲáĥĶáĥłáĥĹ áĥĲáĥ¨áĥĿáĥłáĥĺáĥ¡áĥĿ
§à¸´à¸ Ĺà¸¢
ĠÐŁ Ð¾Ð»
Ġo cc
×ĳ ×Ļ×Ŀ
¥à¸·à¸Ńà¸ Ķà¸
Ð°Ð» ÑģÑı
ľà¸¥à¸´à¸ ķà¸
ĠIn d
éŁ ³
áĥĲáĥł áĥĺáĥĲ
ĠØ§ÙĦØ§ Ø³Øª
Ð» ÐµÐ¹
Ġà°¤à±Ĩà°² à°¿à°ª
ĠP DF
Ġvax t
à®Ļà¯įà®ķà®³ à¯ģà®ķà¯įà®ķà¯ģ
áĥĺáĥł áĥĶáĥĳáĥ£áĥļáĥĺ
Ġinforma ciÃ³n
Ø§ Ø´
Ġà°ªà±įà°° à°¸à±įà°¤
Ġ":"" ,"
ë² Ħ
Ġs itu
ber g
p iel
ma in
ĠÙĬ ÙĤ
Ġà°ªà±įà°° à°¶
at t
Ġà¤īà¤¤ à¥įà¤ª
ĠN aj
Ġf ranÃ§ais
ki ng
ĠÅŁ ÉĻk
ä¸ī çº§
g ro
à±Ĩ à°¡à±įà°¡à°¿
ĠØ§Ø³ ÙĦØ§Ùħ
ä¸Ńæĸĩ åŃĹå¹ķ
à±ĩ à°Ĥà°¦à±ģà°ķà±ģ
ita l
Ø¨ Ø±ÛĮ
à¯ģà®£ à¯įà®Ł
Ġg anz
Ãª t
Ġà¦ª à¦¾à¦¶
Ġg u
ĠãĢ İ
è³ ª
ì¢ ħ
Ġkh Ã¡c
Ġpr ost
ĠdÃ© s
Ø± Ø³ÛĮ
ĠA y
Ġà®µ à®¯
à°¿à°¸à±įà°¤ à±ģà°Ĥà°¦à°¿
Ø¨ ØŃ
ĠB us
Ġà¤¤ à¤¥à¤¾
áĥľ áĥĺáĥĹ
ļà¸ ¸
Ġmen os
æİĴ åĪĹ
Ġj ÃŃ
Ġà¤ Ĭ
ĠÎł Î¿
à¦¾à¦° à¦¿
Î´ Î¿Ïħ
à¥Ģ à¤¯
Ġáĥ¨ áĥĶáĥ¥
ç½ĳ æĬķ
åı į
ĠÐ½ Ð¸Ðº
y ste
Ġ Ïį
ÅĦ ski
ĠáĥĵáĥĲáĥĺ áĥ¬áĥ§
ĠÎłÎµ ÏģÎ¹
ĠÑģÐµÐ± Ñı
Ġo leh
ĠW enn
Ġà¸ Ĥà¸Ńà¸ĩ
ÏĦÎ® ÏĥÎµÎ¹ÏĤ
äº ĳ
Ð¾Ñĩ Ð½Ð¾
raz ie
áĥĶáĥ¢ áĥĺ
Ġà¸ Īà¸°à¸
ÎµÎ¯ Î¿Ïħ
Ġqu alitÃ©
__ __
Ġà¦¹ à§ĭà¦¸
Ĺà¸²à¸ ĩà¹Ģà¸
ĠÏĥÏħÎ½ ÎµÏĩ
Ġc en
Ġà®µà¯Ĩà®³ à®¿à®¯
2 5
æīĭæľºå®¢æĪ·ç«¯ ä¸ĭè½½
Ġæ İ
áĥĺáĥ¢áĥĶáĥ¢ áĥĺáĥ¡
¨à¸²à¸ ªà¸
ĠÑĪ ÑĤ
Ã ī
Ġà¦ª à¦¾à¦²
Ġ( '
Ð¾Ð² ÑĭÐµ
à¹Ģà¸ ĺ
ig lio
à¥ĩ à¤Ĺà¤¾
ĠáĥĴáĥĲáĥĵáĥĲáĥ¬áĥ§áĥķ áĥĶáĥ¢
ari h
Ġ Ñİ
ti es
ica tion
Ġà°µà°¿à°· à°¯
ì¦ Ī
ĠáĥĶáĥĻ áĥĿáĥľáĥĿáĥĽ
Ġà¦ĸ à§ģà¦¬
ĠÃ§ at
Ġg us
Ġà®ªà¯Ĩ à®°à®¿à®¯
Ġag o
Ġpre mi
à±Ī à°²
Ġ×¨ ×Ĳ
h Ã¶r
z w
æŁ »
v ia
àµ ¼
ĠÃ¼z er
auss ures
Ġe ller
à°¾à°° à°£
åĽ¾ çīĩ
Ġest u
ĠØ³ Ùĩ
Ġa ÅŁ
à ¶ľ
ĠØ¹ Ø¨Ø¯
Ø« ÙĬØ±
ĠÅ¾iv o
j es
pr owadz
Ġsu iv
à®¾à®µ à®¿à®©à¯į
ÙĪÙĨ ÛĮ
Ġì² Ń
Ġà¦ħ à¦¤
Ã§ Ãµes
çµ Į
Ġk rÃ¡
Ġann Ã©e
×Ļ ×ķ×Ł
Ġper chÃ©
Õ«Õ ½
ir k
ìķ ĺ
Ġt uo
àµ Ĥ
ĠáĥĽáĥĿáĥ Ļ
· à¸Ļ
ow iÄħ
Ġåħ ¨
Ġpo i
Ġà¤¨à¤¿ à¤°à¥įà¤®
ĠÎ´ Î®
w ij
Ïħ ÏĥÎ·
Ġà¤ı à¤¸
áĥ¨ áĥĺáĥł
æī į
Ġç ī
ĠÐ¿ÑĢÐ¾Ð´ ÑĥÐº
an k
ĠÎµÎ¹ Î´
ÃŃ n
áĥľ áĥĶáĥ¡
Î¼Îµ Î½Î±
ĠÐ¸Ð½ÑĤÐµÑĢ ÐµÑģ
ĠÙĪ ÙħÙĨ
v or
à¹īà¸²à¸ ¢
ÎºÎµ ÎºÏģÎ¹
éĤ £
Ð¾Ð´ Ð°
à¦¸ à¦¹
Ġáĥ¤ áĥĿáĥłáĥĽ
à¸µà¸¢à¸ §
ÏĦ ÏģÎŃ
Ġcon se
ÑĢÑĥÐ¿ Ð¿
ĠT amil
ªà¸¹à¸ ĩà¸
ĠÏĥÎ· Î¼Î±Î½
Ġà®ªà®ķ à¯ģà®¤
à§įà¦Ł à¦¾à¦°
å¤ į
å®ī åįĵ
Ġå° ±
áĥĶáĥłáĥ ľ
à¹Ģà¸£à¸ ´
Ð¾ÑĢ Ð°
Ġpeti t
Ġos Ã³b
ļà¸Ļà¸ ±à¸
ĠÐ¸Ð½ÑĤÐµÑĢ Ð½ÐµÑĤ
ªà¸´ à¹Īà¸ĩà¸
ĠØŃ ÙĬØ«
åľ¨çº¿ çİ©
ĠáĥĽáĥĹáĥĲáĥķ áĥĲáĥłáĥĺ
×ŀ× ¦
Ð¾Ð² ÑĭÑħ
Ġra g
Ġsu pp
Ġqu Ã©
Ġfin den
Ġáĥ¡áĥ®áĥķáĥĲáĥĵáĥĲáĥ¡ áĥ®áĥķáĥĲ
Ġb ag
ĠØ´ Ø¨
lÄ± ÄŁ
ĠpÅ¯j Äįka
Ġje Å¡tÄĽ
ien s
0 c
Ġà°¸à°Ĥà°¸ à±įà°¥
ĠK ar
Ġíķ Ħ
Ġpropr io
pu Ã©s
àµ ½
g ung
Ġpu is
Ġm no
dzi Äĩ
Ġà¤¸ à¥ģà¤°
Ġà¦ľà¦¾à¦¤ à§Ģà§Ł
Ġà°¸ à±įà°ķ
æ ¤
Ġà¤¤ à¥Ģà¤¨
à¦¨ à§Ģ
f all
Ø® Ø§Ø¨
ĠÕ ·
ĠÉĻl aq
con om
à®¾à®µ à®¿à®²à¯į
ĠÂ ¡
Ġwy st
si Ã³n
Ġh Ãłnh
ĠØ¨ Ø§Ø±
we ise
em mes
i zione
Ģ ìĿ´
Ġ×ľ ×ª
Ġqu ien
Ø¬ Ø©
dÄ± ÄŁ
Ġà´ İ
Ġáĥ£áĥ ĸ
ģà¸ İ
å· Ŀ
å£ «
à§ĭ à¦¹
Ġà¤Ĳ à¤¸à¤¾
ĠÎ´Î¹ Îµ
Ġà°ª à°¿à°²à±įà°²
ÏĦÎµ ÏģÎ±
Ġ3 3
ĠáĥĲáĥł áĥĲáĥ¡
áł łáł
å®¢æĪ·ç«¯ ä¸ĭè½½
Ð°ÑĤ ÑĢ
a te
Î³ Î¿Î½
Ġpo trze
áĥĲáĥª áĥĶáĥĽ
Î¹Ïĥ Îµ
ÑĥÑĢ Ð³
Ġkun nen
Ġsv Ã©
à¸µ à¹īà¸
ĠÎº ÏģÎ±
Ġ5 5
ĠÐ´ ÑĢ
à¦¿à¦ ·à§įà¦Ł
áĥĺáĥķ áĥĺ
Ġà¸Ńà¸ ±à¸
ÏģÎ¹ Î¿ÏĤ
o t
ĠÐ¿ÑĢÐ¾ ÐµÐºÑĤ
ti ci
à¹ģà¸ Ľà¸
ĠÎłÎ± ÏģÎ±
ĠÙĩÙħ ÚĨ
s y
åĵ į
æĬ ¤
ä¸Ń å¿ĥ
áĥĴ áĥ£áĥ¤
ª à¹Īà¸ĩ
ÑģÐ» ÐµÐ´
lan c
Ġà®ļà¯Ĩ à®²
Ġà¹Ģ à¸£à¸²à¸
Ð² Ð°ÑĢ
à¹Ģà¸ Ī
Y n
Ġà¤Ĩ à¤¸
Ġáĥ£áĥłáĥĹ áĥĺáĥĶáĥłáĥĹ
Ġìł ģ
ĠÑį Ð»ÐµÐºÑĤÑĢ
×Ĺ ×ª
b il
à°¾à°¨ à°¿à°ķ
ĠØ¹ ÙħÙĦ
áĥĺáĥļ áĥĶáĥĳáĥĲ
ãģ§ ãģĹãĤĩãģĨ
c al
an ych
Ġsp iel
ĠØ¹ Ø§Ùħ
Ġdis pos
g s
Ġà¦¬à¦¿à¦¶ à§ĩà¦·
Ġl Æ°á»£ng
Ġà®®à®ķà¯įà®ķ à®³
ĠD am
Ġs lu
à¤ª à¤°
Ġà°¤ à±Ĩ
ĠprÃ© c
Ġ\" :
Ġt ych
Ġà¤¸à¤® à¤Ŀ
Ġ×ŀ× ŀ×
Ġex per
à®¿à®¯ à®¾
å© ·
n is
Ġà°®à°¾à°° à±įà°ļ
Ġor ta
z zi
Ġãģ ©
Ġin sta
Ġjej ich
ìĺ Ģ
ĠP reis
ĠK e
Ġn Ã¼m
à¦¾à¦ĩ à¦Ł
ĠØ¨Ø± ÙĨØ§ÙħÙĩ
Ġemp lo
Ġu 0c
Ġà°¤à±Ĩà°² à±ģà°¸
Ġuns ere
ut to
ä» Ĭ
nge bo
å°ıæ¸¸æĪı åľ¨çº¿çİ©
áĥ« áĥ¦
¡à¸·à¸Ńà¸ ĸà¸·à¸Ń
Ġà®ħà®°à®ļ à¯ģ
è¿ ŀ
Õ« ÖĢ
Ġà¤ĩà¤¸ à¥ĩ
ĠÏĨ Î±
Ġq ÉĻr
Ïĥ Ïį
Ġà¤ª à¥ĭ
Ġáĥ¨ áĥĺ
èĬ ±
åĪ Ļ
ĠÐ½ Ð¸
Ġc ul
ĠÎº Îµ
à®¿à® Ļ
áĥ£áĥ¨ áĥĲáĥĿ
Îµ Î²
Ð¸ÑĢÐ¾Ð² Ð°ÑĤÑĮ
ç ı¾
Ġbul un
Ľà¸ ¥à¸²à¸
ĠÎ¾ ÎµÎº
çĽ´ æĴŃ
ĠÑĩ Ð°Ñģ
Ø§Ø¹ Øª
Ġáĥ¨áĥĶáĥ® áĥķáĥĶáĥĵ
U S
Î¹ ÏİÎ½
Ġcon na
ĠÑģÐ»ÑĥÑĩ Ð°
Ġd ÅĤu
à¹ģà¸ Ī
ĠÎº Ïį
ĠÃ Ķ
à±Ĩ à°Ĥà°¬
åĨ į
00 0
æ ļ
ĠáĥĴáĥķ áĥĶáĥłáĥĵ
Ġ à¹Ħà¸Ķà¹īà¸
ĠÐ²ÑĭÑģ Ð¾Ðº
ra it
Ġla in
à¹ģà¸ ¡à¸
Ð¸ÑĩÐµÑģÐº Ð¸Ð¹
«à¸Ļà¸ ±à¸ĩà¸
sk Ã©ho
à¤§ à¤¾à¤¨
Ġáĥĳ áĥĿáĥļ
à±ĩ à°¨à°¿
ĠÑģÑĤ ÑĢ
Ġ×ķ ×Ľ
ĠdÃ© velo
ĠmÃ¡ y
ë¶ ģ
áĥĸ áĥĲáĥķ
ëł ¹
à¦ ¯à§ĭà¦Ĺ
ier no
Ã¤ h
Ġob je
à°ª à°Ĥà°ļ
ĠAzÉĻrbaycan da
Æı R
und an
ĠB r
ĠÙĬ ÙĪÙħ
à®¿à®© à®¾à®°à¯į
äºĶ æľĪ
ĠA cc
Ġqu and
owan a
Ġag gi
Ġà¤ľà¥įà¤¯à¤¾à¤¦ à¤¾
I tem
Ġ ~
Ġ×© ×ł
à´ Ļàµįà´
ĠØ® Ø§ÙĨ
z eit
Ġcos Ã¬
ì£¼ ì¶ľìŀ¥
ì ¤Ģ
Ġv ille
Ġn Ãło
ĠÅĽ rod
Ġà¦ªà§įà¦°à¦¤ à¦¿à¦·à§įà¦ł
ÙĤ Ø·
T I
Ġnuov o
kov Ã¡
Ġb et
Ġqu anto
Äį i
Ġà¦¸ à§įà¦ķ
Ġa x
isse ment
d ÄĻ
Ġà¤ħà¤ª à¤¨à¤¾
áĥĶáĥľ áĥ¡
Ġà¸Ń à¹Īà¸²à¸Ļ
à°°à±įà° ľ
ç¥ ¨
ëł ¨
à¤¾à¤ĩ à¤²
ĠÎ±Î½ Î¸ÏģÏİ
Ġà®İ à®£à¯įà®£
ÏģÎ¿ Î¹
à¤¸ à¤°
áĥĺáĥľ áĥĲáĥľáĥ¡
6 7
è¶ Ĭ
ĠÑĤÑĢ ÐµÐ±
ĠP L
ÏĦ Î¯Î±
bi or
Ġáĥ®áĥĶáĥļ áĥĺáĥ¡áĥ£áĥ¤
Î» Ïį
ĠÐ¾ÑĤ Ð´
v Ã¡nÃŃ
ta ciÃ³n
à¸£à¸´à¸ ¡à¸
Î¼ÎŃÎ½ ÎµÏĤ
éħ į
ÐµÐ· Ð´
g n
ĠáĥĲáĥ¡ áĥĶáĥĹáĥĺ
ŀà¸´ à¹Īà¸¡à¸
Î¿Ïį ÏĤ
Ġp ouv
ĠÐ³ Ð¾ÑģÑĥÐ´Ð°ÑĢ
ĠsÉĻb ÉĻb
Ġà¸ľà¸ ¥à¸
Î© Î£
ĠÅ »
cia les
ä¿¡ æģ¯
Ġ 66
Ĉ Ĉ
áĥĲáĥĸ áĥĺ
Ġà¸ ľ
ĠÐ¿Ð¾Ðº Ð°Ð·
ĠC ette
ĠÃ¶ ÄŁ
Ķà¸µà¸ Ĺà¸µà¹Īà¸ªà¸¸à¸Ķ
Ð°Ñı Ð²
à¹Ģà¸ ŀ
b ei
Ġà¤¸ à¥įà¤ª
áĥłáĥª áĥĶáĥļ
o le
ĠÐ¼ ÐµÐ¶Ð´
ĠWar sza
Ġà°µ à°¦à±įà°¦
da de
ĠÙĩ ÙĨØ§
ĠáĥĽáĥĲáĥĺ áĥľ
Ġs elbst
ÚĨ Ùĩ
ĠP e
a ciones
Ġíķ Ļ
Ġà®ķ à®¾à®Łà¯įà®Ł
áº¯ n
Ġà°ªà±įà°°à°¾à°° à°Ĥà°Ń
un que
Ġà¦¬ à¦¿à¦¨
åıĸ ãĤĬ
j Ã¸
à¤¾à¤« à¥Ģ
t ent
ĠÅ ½
s ÅĤ
×¤ ×ª
à· Ĳ
Ġà§¨à§¦à§§à§ ¯
à§ĭ à¦ľà¦¨
Ġan i
à¶ ¯
ru ck
Ã´ t
à®±à¯įà®± à¯ģ
ĠØŃ ØªÙī
ãĤ» ãĥĥãĥĪ
es to
åĪ ¥
j az
áº£ m
iss ance
Ġr ÉĻh
ĠM an
à¯įà®µ à¯ģ
Ġà°ħà°µ à°ķà°¾à°¶
mek te
x t
Ġà°¨ à±ģ
ë¡ ł
m ar
z u
à¤® à¤¤
ĠáĥĴáĥĲáĥľáĥĽ áĥĲáĥķáĥļ
à¹Ģ à¸Ńà¸
Ġ13 9
Ġà¨ ¹
ĠÙĩØ³Øª ÙĨØ¯
Ġà¤¯à¤¹ à¤¾à¤Ĥ
ĠÎ±ÎºÏĮ Î¼Î±
éļ Ľ
ĠÎµ Î¼ÏĢ
à´ ¨àµįà´
áĥĺáĥ¡ áĥĺ
ç¡ ®
ç»ı æµİ
ĠÑģÐº Ð°Ð·
ta ch
Ïģ Î¯Î±ÏĤ
id up
áĥłáĥ« áĥĶáĥļ
ĠÎ±ÏĢÎ¿ ÏĨ
ĠÐ´ Ð¾Ð¿
Ġà®īà®° à¯ģà®µ
ĠØ§ÙĦØ¹ ÙħÙĦ
ĺà¸£à¸£à¸ ¡à¸
Î¶ Îµ
Ġk 8
ÐµÐ½ Ð½Ð¾Ð³Ð¾
Ġtr atta
áĥĶáĥ ĸáĥĶ
Ġà¹ģà¸ ķà¹Ī
ÏĨ ÏīÎ½
y age
ÐµÑĢ Ðµ
Ġà¦¸ à¦¾à¦¹
Ġà¹Ģà¸ ĺ
ÏģÎ± ÏĢÎµ
d r
×ľ ×ª
ä¸ ¾
æĪĳ ä»¬
Ġå¥ ½
ĠáĥĴáĥĲáĥĽ áĥĿáĥķ
§à¹ĩà¸ļ à¹Ħà¸ĭà¸
Ð´ ÐµÑĢÐ¶
Ġi ng
Ġbel ir
à¹ģà¸ ŀà¸
ĠÐ´ Ðµ
Ġà¸ ģà¹ĩà¸
ĠíĻ Ķ
à¤ľ à¤¼
ĠáĥĴáĥĲáĥľáĥĽáĥĲáĥķáĥļ áĥĿáĥĳáĥĲáĥ¨áĥĺ
á»ĩ nh
Ð½ Ð¸Ðµ
z Äħ
ra gen
Ø§Ùħ Ø¬
Ġà¦¬ à§Ī
t ku
Ã¼ qu
Ġáĥĵ áĥĶáĥĻ
ĠB au
ç¢ º
ĠD u
Ġs owie
ien e
ta ma
Ġnouve au
ĠØ§ÙĦÙħ Ø¯
Ġpr Ã¡c
szy m
Ġ à·Ģ
Ġà°İ à°²à°¾
x alq
ier te
×ĳ ×Ļ
Ġà¤¯ à¥ģ
Ġac tiv
h ou
à§įà¦¤ à¦¾à¦°
Ġà¤ľ à¥ģ
Ġà®µà®° à¯ģà®®à¯į
ey a
ĠìĤ¬ ìļ©
Ã ĩ
ĠÂ ±
Ã³ ng
Ġà°ķ à±ģà°Ł
ĠÚ© ØªØ§Ø¨
Ġà®ļà¯Ĭ à®©à¯įà®©
à¯įà®ª à¯ģ
Ġà¦ª à¦¦
Ġsar Ãł
ĠÛĮÚ© ÛĮ
Ġplus ieurs
çĦ¡ ãģĹ
ï¼ ģ
Ġãĥ Ń
Õ¡Õ ¤
q tis
Ġà°®à°¾à°¤à±įà°° à°Ĥ
Ġà¤Ĺ à¥ĭ
áĥ£áĥľ áĥĵ
Ħ à¸²à¸ªà¸´à¹Ĥà¸Ļ
Ġso tto
ç± ³
ÅĤo Å¼
ä¼Ĭ äºº
Î¼ ÏĢÎ¿
à°¿à°Ĥà°ļ à°¡à°Ĥ
ÏģÎ¿ ÏĨÎ¿
± áĢ
Ġáĥ¡áĥŀ áĥĶáĥª
éĤ Ģ
ç³» ç»Ł
Ð± Ñĭ
Ġà¦¯ à§ĭà¦Ĺ
Î¼Î¿Ïį ÏĤ
Ġb l
Ġáĥ¢ áĥĶáĥļ
ĠÏħ ÏĢÎ·ÏģÎµ
ÑĢÑĥ ÑĪ
Õ¶ Õ¥ÖĢÕ¨
iyy ÉĻ
ļà¸£à¸´à¸©à¸±à¸ Ĺ
Îº ÏİÎ½
æĬķ æ³¨
Ð² ÐµÐ´
Ġsi do
Ùĥ ÙĬ
Ĺà¸³ à¹ĥà¸«à¹īà¸
ĠÏĥÏĦÎ¹ Î³
ĠáĥĴáĥĲáĥľ áĥĲáĥĹ
Ð¾Ð³ Ð»
Ġdies em
à¹Ģà¸ģà¸ µà¹Īà¸¢à¸§à¸
ĠÎºÎ¬ ÏĦÎ¹
Ġà®ķà¯ģà®´ à®¨à¯įà®¤
ti mm
Ġà¤¹ à¥ĩ
Ġé ĺ
d 88
Ġmon do
Ġà¸ Ĭà¸±
ĠÐĴÑģ Ðµ
Ġmo d
áĥĿáĥĵ áĥĺ
à¸² à¸Ļà¹Ģà¸
ĠÐ·Ð°Ðº Ð°Ð·
·à¹Ī à¸Ńà¸Ļ
Ġdes s
Ġà¤ªà¥įà¤° à¤¶
Ġáĥ¬ áĥļ
Ġda ar
Ð· Ñĭ
ari as
Ġ×Ķ ×Ļ×Ķ
Ġà¦¸à¦¾à¦§ à¦¾à¦°à¦£
ØŃ Ø±
ĠJe an
Ġc et
áĥ¡ áĥĲ
ĠÉĻm ÉĻk
Ġy o
Ġl ÃŃ
Ġj etzt
ĠØ§Ø³Øª Ø§ÙĨ
Ġa nh
Ġf our
ì§ Ī
Ġãģ¾ ãģŁ
Ø¨ Ø§ÙĨ
à¤¾à¤¡ à¤¼
à¯ĭ à®ļ
Ġx idmÉĻt
Ġg esch
Ġdo ty
Ġà¤ľà¤¾à¤¤ à¥Ģ
Ġp utas
Ġutil iz
pl at
Ġà¤¡ à¥ī
Ġmen jadi
ite ment
h i
ĠI I
Ġà°®à°Ĥà°ļ à°¿
Ġz wiÄħz
Ã¤ s
eyn ÉĻl
Ġp ak
ĠÙĪ Ùĥ
×¨ ×ĺ
Ġà®ªà®¾à®° à¯įà®ķà¯įà®ķ
Ġcas o
Ġmo y
Ġé ģ
er en
à±Ĥà° ¤
Ġà¦Ľà¦¿à¦² à§ĩà¦¨
Ġdan Ä±ÅŁ
Ġk de
è Ĺ
ĠáĥĲáĥĽ áĥĺáĥ¢áĥĿáĥĽ
Ġi f
on ych
çħ §
ĠÙĪ ÙĨ
Ġà¤¬à¥Ī à¤ł
ĠÏĨ ÏħÏĥ
Ġà®ªà®¿à®° à®¤
ĠÏĢ Î¹Ïĥ
Ġà¤ľà¥Ģ à¤µà¤¨
áĥĶáĥĽáĥĳ áĥĶáĥłáĥĺ
ä¸ĸ çķĮ
å®ĺç½ĳ ä¸ĭè½½
Ð»Ñı ÐµÑĤ
Ġtr Æ°á»Ľc
Îº Î®ÏĤ
Ġla ng
áĥĶáĥĿáĥĳ áĥĲ
Î´ ÎµÏħ
Ð¸ÑĤ Ñĥ
Ġà°ª à°¾à°Łà±ģ
Ġë¡ ľ
¹ à¹īà¸
ÎŃ ÏģÎ³
A G
ÑģÑĤÑĢ Ð¾Ð¹
ra l
ĠØ§ÙĦÙħ Ø¬
§à¸±à¸Ļ à¸Ļà¸µà¹ī
ÏĪ ÎµÎ¹
áĥĲáĥŀ áĥĺáĥł
ĠÑĤ ÐµÐ¿
Ġà¦¤ à¦ĸà¦¨
ŀà¸ ¹à¸
ÏģÏīÏĢÎ± ÏĬ
Ø± Ùĩ
Ġà®µà¯Ģ à®Łà¯įà®Ł
Ġæ Ģ
æ¸ ¯
æĭ ī
Ø§ Ø©
Ľà¸ ı
Ð¾ ÑĦ
Ġb ie
ĠáĥĽáĥĲáĥĺáĥľ áĥª
ģà¸³à¸ ¥à¸±à¸ĩà¸
ĠÑĢÐµÐ· ÑĥÐ»ÑĮÑĤ
Ġ à¹ĥà¸«à¹īà¸
c olo
à¥Ģ à¤¸
áĥĶáĥĳ áĥĲáĥĹ
Ġrecher che
ĠÐ¿ÑĢ Ð¾Ñģ
Ġe qu
Ġà°Ĩ à°¦
×Ľ ×ķ×ľ
Äį it
ĠdÃ© f
Ġà®® à®¾à®£
ĠáĥĽ áĥĲáĥłáĥĹ
ĠdÃ¼n y
ĠQ ue
la ciÃ³n
ort s
ĠØ³ Ø±ÛĮ
Ġà¦ªà§įà¦°à¦¤ à¦¿à¦¬
Ġà°¨ à±ĩà°¤
Ġà°ļà±Ĥà° ¸à±įà°¤
ĠOn line
ë¶Ģ íĦ°
Ġà¤ľ à¤Ĺ
ass er
ĠØª Ø³
Ġà®¨à®¿à®± à¯ģà®µ
sz ta
à¤¿à¤¸ à¥įà¤Ł
ĠâĢĿ .
ab a
nÃ½ m
Ġà¤ħà¤§ à¥įà¤¯
j Ãł
ĠA llah
ÉĻn dÉĻ
ĠØ¹ÙĨ ÙĪØ§ÙĨ
Ġà°µà°° à°ķà±ģ
Ġm igli
la ire
Ġq Ä±z
ir a
à§ ª
Ġæ ĻĤ
dÄ±r Ä±l
Ġo tro
ĠìĦľ ìļ¸
Ġì° ¸
g lio
usam men
Ġà¦¶ à¦¹
Ġne z
da y
à¤¾à¤ĩ à¤Ł
Ġáĥľ áĥĲáĥĹ
¥à¸ ¥
c ess
éĺ ²
Ã§ i
Ġà¤ľ à¤¹
ĠÎµÏĢÎ¹ ÏĩÎµÎ¹
ë£ ¨
ĠÎ£ Î±
Ġet was
ĠáĥĲáĥł áĥĺáĥĲáĥľ
å¤§åıĳ å¿«ä¸ī
Ġà¨ ¨
ĠÐº Ð°ÑĢ
ĠØ§ ÙĬÙĨ
ĠÎķ Î½
Ġà°ħà°µ à°¸
ĠáĥĲáĥ£áĥ ªáĥĺáĥļ
ÏĬ ÏĮÎ½
Ð°Ð» Ð¸ÑģÑĮ
Ø± Ø§
Ġà®µ à®Ł
Ĭà¹Īà¸§à¸ ¢à¸
ĠÎ¹ ÏĥÏĩ
àª¾ àª
Ð° Ñī
Ġes per
×Ļ× ŀ×
ŀà¸ ¢à¸²à¸
ÎĻ ÎĳÎ£
áĥĲáĥļ áĥĺáĥĸ
ĠÐ¶ Ð¸Ð²
åı ¤
«à¸¥à¸ ±à¸ĩ
á¿ ¶
eynÉĻl xalq
Ġn Äĥng
Ġå° ı
ç§ Ĵ
éĺ ³
Ġkar ena
Ġ, "
ĠÐ±Ñĭ Ð»Ð¸
ĠW as
Ġáĥł áĥĲáĥ¢
à¹Ģà¸ ģ
ÐµÐ½ÑĤ Ñĭ
Ġ à¸£à¸±à¸ļà¸
Ùģ Ø¹
Ġbes te
áĥ¡ áĥŀ
Ġs na
Ð°ÑĤ ÐµÐ»Ñı
Ġpue den
ĠØ¢ÙĨ ÙĩØ§
Ġà¤¦à¥ĩ à¤¨à¥ĩ
Ġu l
Ġf er
Ġà¦² à¦¾à¦Ĺ
áĥĲáĥĻ áĥ£áĥĹ
Ġmi es
ãģķãĤĮ ãģŁ
Ġs ax
à¤¾à¤¨ à¥ĭà¤Ĥ
ĠìĦ ¤
Ġà¦¯ à¦¾à¦ļ
Ġje u
Ġis e
Ġnie u
ĠÙĦÙĦ Øª
Ġenv ir
ĠP f
ay an
Ġt Ã½
ĠgÅĤ Ã³w
à±ĩà°· à°¨à±į
´ Ŀ
à¦ª à¦¾à¦¤
h and
ĠbÄĻ dÄħ
ì ´Ī
à¤² à¤¬
ff e
ĠÂ ´
Ġlá» Ľ
Ġk iÅŁ
à®µ à®¿à®²à¯į
ch as
Ø§Ø¨ Ø©
à¦ķà§įà¦· à§ĩ
zn am
Ġg dzie
o re
ĠÕ¡Õ ¼
Ġdav am
Ġterse but
der s
Ġë³ ´ë
p es
ãĤµ ãĤ¤ãĥĪ
à¤¾à¤¯ à¤°
áĥ¡ áĥĶáĥľ
Ĥ à¸²
ĠÙħØŃ ÙħØ¯
Ġag åľ¨çº¿
Ø¨ ÙĪ
×¤ ×©×¨
ĠÏĥ ÎºÎ¿
Ġà¦ªà§Ĥ à¦°à§įà¦¬
ĠÎľ Î·
d ia
áĥ£áĥ¡ áĥ¢
è¾ ĵ
æķ° æį®
ÑħÐ¾Ð´ Ð¸ÑĤ
Ġs Ã¥
ĠÏĢÎ±Î¹ Î´Î¹Î¬
ÅĤ Ã³w
Ġáĥ¡áĥĲáĥ¡ áĥĲáĥĽáĥĲáĥłáĥĹáĥļ
ÏĥÏĦÎ· ÎºÎµ
ĠÑģÐ¾Ð¾ÑĤ Ð²ÐµÑĤ
Ġal tro
ab e
ŀà¸ §à¸
ĠÏĥ ÏĦÏĮ
çĻ» éĻĨ
ĠÐ±ÐµÑģÐ¿Ð»Ð°ÑĤ Ð½Ð¾
v ier
ãĥ³ãĤ º
ª à¸²à¸£à¸
ĠÏĦÏĮ ÏĥÎ¿
áĥĶáĥĹ áĥĶáĥ¡
Ð°ÑĢ Ð°ÐºÑĤÐµÑĢ
çĶ ·
ŀà¸ ±à¸ģà¸
ĠÎķ Î»Î»Î·Î½
Ġà¤¦ à¤°
Ġà°İ à°Ĥà°¤
Ġæ Ķ
6 9
åģ ĩ
Ġjak ie
«à¸Ļà¸ ¶à¹Īà¸ĩ
ÐµÐºÑĤ Ð¸Ð²
Ġzw ei
áĥ¢ áĥĿáĥĽ
¨à¸²à¸ªà¸ ķà¸£
ÐµÑĢ ÑĮ
ķà¹īà¸Ńà¸ĩà¸ Ŀà¸²à¸ģ
Ùģ Ø©
Ġi d
Ġà°°à±Ĩ à°Ĥà°¡
à®© à®¾à®²à¯į
ĠÐ¾ÑĤ Ð»Ð¸Ñĩ
áĥĶáĥĳ áĥĲáĥĸáĥĶ
Ġs ku
g ique
Ġmo et
Ġal go
Ġë° Ľ
à¥Ĥ à¤Ł
Ġà¦² à§ĩà¦ĸ
ĠØ¨ ÛĮÙħ
wer t
it re
à¦¨ à§įà¦¯
Ġgran de
Ġà®¨à¯Ģ à®Ļà¯įà®ķà®³à¯į
áĥĶáĥ ¬
Ġnh áºŃn
Ø± ÙĤ
Ġ×ŀ ×Ļ
ĠA k
cz u
Ġé «ĺ
ĠtÉĻd b
c am
Ġà¤Łà¥Ģ à¤®
cu er
ge ben
Ġà°°à°¾à°ľ à°ķà±Ģà°¯
Ġav ons
åķĨ åĵģ
olu tion
é¨ ĵ
Ġv eya
Û° Û°
ĠØ¢ ÙĩÙĨÚ¯
Ġà°Ĩ à°¶
Ġor ganiz
ĠØµ ÙĨ
à¤µ à¤²
Ġfo to
à§ĩà¦Ľà¦¿à¦² à§ĩà¦¨
ĠØ¨Ø± Ú¯
Ġà°ĩ à°¤
ch ten
Ġr ich
ĠNaz ir
Ġserv ice
ĠØ¹ Ø¯Ø¯
Ġì° ¨
ĠáĥĻáĥĿáĥľ áĥĻ
à¹Ģà¸ Ħà¸£à¸·à¹Īà¸Ńà¸ĩà¸
Ġyax ÅŁÄ±
åħ Ń
Ġãĥ Ģ
ĠV ÃŃ
ÏĦ Î¿ÏħÏĤ
v an
ĠÏĥÏĦ ÏģÎ±
×ĵ ×Ķ
áĥĺáĥ ¯
åº ľ
åĽ Ń
Ð¸ÑĩÐµÑģÐº Ð¾Ð³Ð¾
T A
Î»Î¿Î³ Î¯Î±
Ġde f
Ġáĥ¢áĥĶáĥ¥ áĥľ
ĠÎŃÎ½Î± ÏĤ
ĠÐ£ ÐºÑĢÐ°
si ÄħÅ¼
Ġà¤Ĩ à¤¤
Ġà¹Ģà¸ ª
ĠÏĥ ÏįÎ½
å° Ķ
Ð½ ÐµÐ²
ĠÃ©le ct
iste ma
Ġà¹Ģà¸ŀ à¸£à¸²à¸°à¸
Î¹Î± Ïĥ
m l
ĠÐ¿ÑĢÐ¾ÑĨ ÐµÑģÑģ
ĠÙĪ ØŃ
Ġ') .
ĠÎ¼Î± Î¶Î¯
Å¼ Äħ
Ġà¤ľà¤¾à¤¨ à¤ķà¤¾à¤°à¥Ģ
ä» ½
èĪ ª
Ġà¤¤ à¥ĩ
Ġc áº§n
ĭà¸ ·à¹īà¸Ńà¸
ÐµÑĢ Ð¾Ð²
g leich
áĥļ áĥĶáĥ¡
Ľà¸£à¸°à¹Ģà¸Ĺà¸ ¨à¸
ĠÐ¾ÑĤ Ð·ÑĭÐ²
à¸£à¸°à¸ļà¸ ļà¸
S I
et er
ĠØ§ÙĨØª Ø®Ø§Ø¨
j m
ĠÑĢÐ°Ñģ Ñģ
Ġáĥ¡áĥĲáĥ Ĺ
ĠØ¨Ø¹ Ø¶
Ġave z
à¤¾à¤Ĥ à¤¸
ĠC ol
Ġà°ķ à°®
Ġes e
Ġà®ħà®²à¯įà®² à®¤à¯ģ
Ġì ¶ľ
Å¡ en
u le
Ö ·
×ĸ ×Ķ
Ġà¤ļ à¤¾à¤°
ĠáĥĻáĥķ áĥĺáĥł
Ú© Øª
larÄ±n da
Ġpo co
Ġà°ª à°¾à°Ł
Ġm Ã³w
âĢĮ à°²
Ã¶ s
à±Ĥà° ®
Ġde j
å³ ¶
Ġëĵ ¤
Ġpro ces
Ã¨ le
Ġà¤¸ à¤Ĥà¤Ĺ
Ġin v
×¡ ×§
Ġà¦¬à§įà¦¯à¦¬ à¦¹à¦¾à¦°
ĠÄĳ Ã¢y
Ġb r
Ùĥ Ø³
ry w
Ġà¤ĸ à¥ĩà¤²
ì¸ ł
l uss
Ø± Ú¯
Ä±lÄ± b
Ġs vÄĽ
Ġp ic
y abr
Ġ ãģĮ
Ġbes o
Ġà°Ĺ à°¤
ĠØ§ÙĦØ¹ Ø±
Ġáĥĵ áĥĲáĥłáĥ
Ġà¸ª à¹Īà¸§
ĠÙħÙĨ Øª
å®ī åħ¨
Ġo ÄŁ
Ã³ a
ĠÎĺ Î±
Ġt ah
Î Ĳ
íĮ Ĳ
Ġáĥ¬áĥĲáĥłáĥĽ áĥĿáĥĽ
æĿ ¿
ç© ¶
ÐµÑĢ Ð±
ĠM i
ĠÎ± ÏĢÎµ
ĠP l
ĠáĥĽáĥĵ áĥĴáĥĿáĥĽ
Î¹Îº Î·
ĠÑĢ ÐµÐ±
im y
Ġà¤Ĺ à¤¿à¤°
Ħ à¹Īà¸²
Îł Îĳ
å¸Ĥ åľº
ĠÐ¼Ð½ Ð¾Ð³
Ã ¯
×ķ×ł ×Ļ
±à¸Ļà¸ ĺ
ÎŁ ÎĻ
áĥĶáĥľáĥ¢ áĥĺ
ĠÐ½ ÐµÐ¼
Ø§Ø¦ ÙĬØ©
¢à¸ ¸
Îº Î¹Î±
Ġko ÅĦ
Ġse a
æĬ Ĭ
èĭ ¹æŀľ
ĠåĽ ł
en den
à¸Ńà¸µà¸ ¢à¸
Ð¾Ð½ Ðµ
Õ¾ Õ¡Õ®
Ġáĥ¡áĥĲáĥĽ áĥ£áĥ¨áĥĲáĥĿ
¡à¸ ŀ
Ð¾Ð² Ð¾Ð´
à¹ĥà¸ ģà¸¥
Ġk iedy
t on
Ġà¤ħà¤² à¤Ĺ
ë² Ī
ĠÐº Ð½Ð¸
Ġáĥ¯ áĥĴáĥ£áĥ¤
Ġà°İ à°²
la tion
Ġà¦Ĩà¦° à¦ĵ
i i
Ø£ Ø³
ãĥ¼ãĥ ĳ
ĠìĹ Ń
ĠnÉĻ zÉĻr
æ± º
qu Ã©
Ġgi Ãł
ĠÙħØ±Ø¯ Ùħ
×ŀ× ¢
áĥĺáĥĹ áĥĲáĥĵ
Ġà°ªà±įà°°à°¤à±įà°¯ à±ĩà°ķ
Ġprof es
ĠÙĬ Ø¬
en z
be zpie
ir o
uf t
ĠÚĨ ÙĨØ¯
ul as
ĠI N
ost ra
Ġê ´ĳ
T E
Ġm Ã¥
Ġartic le
ä¼ļ ç¤¾
Ġà¦ķà¦° à§ĭà¦¨
à¦¤ à§įà¦¬
à±ģà°Ĥà°¦ à°¨à°¿
sp ÄĽ
Ġus ta
Ġto das
Ä± ÄŁ
c ca
á»ĵ ng
il o
Ġà®¤ à¯Ģà®°
ĠÙĨÛĮ Ø³Øª
Ġì½ Ķ
Ġ×ľ ×Ļ
Ġ4 0
à±ĩà° ³
Ġander en
Ġáĥ° áĥ¥áĥĿáĥľ
¢à¸ ¡
ãģ¨æĢĿ ãģĦãģ¾ãģĻ
å¤ĩ çĶ¨
ãģĹ ãģ¾ãģĹãģŁ
Ġpri mo
Î´ ÏīÎ½
ĠL A
ĠÎ½ÎŃ Î±
ne a
áĥĺáĥļ áĥĶáĥĳáĥĺáĥ¡
à©± à¨
Ġä½ ł
ĠÐĵ Ð»Ð°Ð²
Ġszy b
ĠÎµ Î¼ÏĨ
Ġph Ã¡t
ĠáĥĽ áĥł
ĠÏĥÏħ Î½Î¿
ĠÐ· Ð²
a Äĩ
à°¾à°° à±įà°¥
à¹Ī à¸Ńà¸¢
ĠÎ´Î¹Î± Î´Î¹Îº
å§ ĭ
ÑįÑĤ Ð¾Ð¼Ñĥ
is ir
Ġà¤ħà¤¨ à¥ģà¤¸
Ġà¹Ģà¸¡à¸ ·à¹Īà¸Ń
ĠÎµ Î½Î·
áĥł áĥĿáĥĳáĥĺáĥ¡
ĠÐ±Ð¾Ð»ÑĮÑĪ Ðµ
×Ļ×ľ ×Ķ
łà¸ ¹à¸
ĠÎ» Î¹
jÄĻ cia
à®¿à®° à¯ģà®ªà¯įà®ª
è® ©
æĺ ¾
å® Ŀ
ÙĬ Ø§ÙĨ
à¸£à¸¹à¸ Ľ
ĠÐ¸Ð· Ð¼ÐµÐ½
Ġà¦® à¦¤à§ĭ
ĠáĥĽ áĥĲáĥ¢
à¹īà¸ ³
ĠÐ½Ð° ÑĢ
Ġà¸ Īà¸²à¸ģà¸
Ġyar adÄ±
u es
Ġu w
Ġv ec
ĠÑĢÐ°Ð·Ð² Ð¸ÑĤ
Ġgeb ruik
ĠÙģ Ø§Ø±
Ġc ours
go t
ĠÙģ Ø¹
r Å¯
Ġà¤¯ à¤¦
íİ ¸
Ġáĥ§áĥķáĥĶáĥļáĥĲáĥ¤ áĥĶáĥłáĥĺ
Ġà°µ à°²à±įà°²
Ġjus qu
lar la
ho p
ĠSch w
am o
Ø¶ Ø¹
áĥĿ áĥĶáĥĳáĥĺáĥ¡
ĠDeutsch land
Ġtut te
k ty
ìľ ¡
la ge
Ġà®Ĩà®ķ à®¿à®¯
ta zione
Ġto da
Å¡ÃŃ m
ĠDa ten
Ġp ouvez
ra ng
Ġtr ois
Ġà¤ķ à¤Ńà¥Ģ
×ľ ×ķ×ª
at ur
Ø¨ Ø§ÙĦ
Ġíķ ¨
Ġà°¨à°¿à°° à±įà°£
Ġsi to
ci do
ti y
Ùħ ÙĪ
Ġà¦ħà¦Ńà¦¿à¦ ¯à§ĭà¦Ĺ
Ġcon di
à±ĭ à°¹
cze j
ĠPra ha
Ġne p
Ġf al
ĠGe w
áĥĽ áĥĺáĥĹ
ĺ à¸´à¸
à¦² à§ĩà¦°
äº§ åĵģ
à°ļ à°¨
ĠØ¨Ø® Ø´
ĠÎ¯ Î´Î¹Î¿
Ġi z
Î» Î¼
en ces
áĥłáĥ ¡
Ġæī ĭ
à¨ Ĥ
ĠÐ¼ Ð°Ð»
Ġt Æ°
Î½Î¿Î½ ÏĦÎ±ÏĤ
ì§ ĳ
áĥĺáĥļ áĥĽáĥĲ
ĠÎµÏĢÎ¯ ÏĥÎ·ÏĤ
ĠÑĦ Ð¸Ð»ÑĮ
Ġt ipo
Ġà°ľà±Ģà°µ à°¿à°¤
Ġà¸Ħ à¸Ļ
Îµ ÏģÎ¿
Ġå°Ĭé¾Ļ d88
ĠÐ¼ Ð½Ðµ
Ġà¤µà¤¿à¤¶ à¥ĩà¤·
Ġà®® à®¾à®µ
à¹Ģ à¸Ńà¸µà¸¢à¸
ÎĳÎ ĵ
ĠáĥĹáĥĳáĥĺáĥļáĥĺáĥ¡ áĥĺáĥ¡
ĠÐº Ð°Ð·
Ġj aar
ªà¸ ¥à¹ĩà¸Ńà¸ķà¸
ÏĦÎŃ Î»Îµ
ÙĪÙħ Ø©
Ġà°ħà°¯ à±įà°¯
æľīéĻĲ åħ¬åı¸
ä¾ ¿
åŁ Ł
te z
à¹ įà¸²
ĠÐ· Ð°ÑıÐ²
ĠyÃ¼k s
ĠáĥĹáĥĲáĥķáĥĺáĥ¡ áĥ£áĥ¤
à¹ī à¸Ńà¸Ļà¸
ĠÐ¾ Ð¿ÑĢÐµÐ´ÐµÐ»
ļ à¸£
Å¾ ete
ĠØ¯ ÙĪÙĦ
à¯Ĩà®²à¯įà®² à®¾à®®à¯į
Ġz mi
ÑĢ Ð°Ñģ
Ġcha que
Ġà®µ à®¿à®²
Ġà°¸ à°¾à°®
Ġsy st
L L
Ġperson e
di do
ë¦ ½
áĥĲáĥ ¯
Ġ×ľ×Ķ ×ª
ĠÃ ½
as jon
ĠGr und
u he
à¦¬ à¦¾à¦¸
Ġro dz
áĥª áĥĺáĥĺáĥ¡
ĠF rau
ĠEs te
ÄŁ u
à¦² à§įà¦²
ĠB ild
Ġà°¹à±Ī à°¦à°°
ci Ã©tÃ©
Ù į
å¤§ åħ¨
Ġne ue
éĿĴ èįī
Ġà¤¸ à¥įà¤¤
ÙĩâĢĮ Ø§ÛĮ
ĠA le
Ġah ora
Ã¼ ber
à¦¸ à§įà¦Ł
Ġpart ie
à±Ģ à°ķà±įà°·
ĠOd powie
Ġnie z
ĠE en
à´¾à´ £
à¥ģà¤ ¶
ve den
Ġà°®à±Ĭ à°¤à±įà°¤
êµŃ ìĿ¸
Ġ×ŀ× ¤
Ġpro y
Ġà®®à®© à®¿à®¤
Å¼e j
ĠáĥĲáĥĵáĥĲáĥĽ áĥĺáĥĲáĥľáĥĺ
ķ à¹īà¸Ļ
ê» ĺ
à¤ļ à¥ĩ
Ġpl an
à¦¿à¦¤ à§įà¦¬
ĠÎľ ÎŃ
hne d
ĠÎ¼ÎµÏĦÎ± Î¾Ïį
n es
Ġáĥ¨áĥĶáĥ£áĥ «áĥļ
å¤ ª
æ¼ ı
ÐµÑĩ ÐµÐ½Ð¸Ðµ
Ġà°Ĩ à°¡
ÏģÏĮ ÏĤ
Ġm áº·t
áĥĿáĥĵ áĥ£áĥ¥
Î» ÏįÏĦÎµ
Ð¡ Ð¢
Ġà¦¬à¦¿à¦ı à¦¨
à§ģà¦ £
±à¸ Ķà¸
ĠÏĢÏģÎ¿ÏĥÏī ÏĢ
Ġçľ Ł
ĠÐ´ Ð¾ÑĢ
Ġp ens
à¯Ĭ à®³à¯įà®³
à¹Ģà¸¥à¸ ¢
ĠÎº ÏģÎ¹
Ġáĥĳ áĥłáĥ«
ĠÐ¿ÑĢÐ¾Ð± Ð»ÐµÐ¼
Ġí Ŀ
ªà¸ ļà¸
á¿ Ĩ
à°¿à°¸à±įà°¥ à°¿à°¤
Ġge ht
å¾ ®
åĮĹäº¬ èµĽè½¦
ç¨ ³
à¦² à¦¾à¦°
à¹Ģà¸ ŀà¸·à¹Īà¸Ńà¸
Ð°Ð½ Ð¸Ð¹
p ovÄĽ
áĥķáĥĲáĥļ áĥĺáĥ¡
ģà¸²à¸ ¨à¸
Ñĩ Ð°Ñģ
· à¸Ļà¸
Ġà¤¹à¤® à¤¾à¤°à¥ĩ
ĠG u
Ġ×Ĳ ×ĳ×ľ
ggi or
Ð¾ÑĤÑĢ ÐµÐ±
à°¾à°² à°²à±ĭ
Ġsi gu
-- --
ar ÉĻt
Ġosta t
kov Ã©
Ġà®ªà¯ĭ à®¤à¯ģ
ÃŃ an
Ġh t
Ġ×ĳ ×Ĵ
Ġt ÃŃm
Ġa o
Ġma chen
eit ere
à¦¬ à¦¿à¦¦
Ġz ar
Ġáĥ¡áĥ¬áĥĿáĥł áĥĶáĥĵ
Ġzam an
Ġtá» ±
Ġgo ed
Ġà¦ķà¦°à§įà¦® à¦ķ
s el
Ġpo da
Ġë¬ ´ë
Ġpuj cka
à¤ķà¥įà¤° à¤®
ĠR oma
Ġà¤¤ à¥ģà¤®
Ġà¤® à¤¦
ib ilitÃł
Ġsu ite
Ġp ost
b ili
à¦² à§ĩà¦¨
×Ĺ ×§
Ġperson ne
Ġk osz
ĠØŃ Ø¶
Ġa ng
à´¿à´ ¨
Ġà¤ķà¥Ī à¤¸à¥ĩ
rÃ¡ n
ìĿ´ ëĿ¼
Ġà®¤ à®¯
èª į
Ġà°ķ à°¾à°ķ
cia le
Ãº t
áĥĲáĥķ áĥĺáĥ¡
Ħà¸´à¸ Ķà¹Ģà¸
Ġp un
åĮ »
Ø±ÛĮ Ú©
Ġà¦¸à¦Ĥ à¦¬à¦¾à¦¦
ĠÎ£ ÏĦÎ±
s ÃŃ
ÏĨÎŃÏģ ÎµÎ¹
Ġà®¯ à®¾à®°
Ġáĥľ áĥĲáĥª
éĤĢ è¯·
Ġæ Ľ
ĠÐ½ Ð°Ð»
Ġà°Ĩ à°§
ÏģÎµ Î¯Î±
isch er
Ġ, ,
Âµ Î±
ĠÑģÑĤ Ð°ÑĢ
Ġà¦¦ à¦¿à¦ķà§ĩ
à§įà¦¯ à§ģ
Ġà¸ Ĭà¸
ĠÎµÎ½ ÏĮÏĤ
Ġ 77
Ð¾ÑĤ Ð°
Ġà®ķà¯ĩ à®Łà¯įà®Ł
Ġà®¨ à®¿à®ķà®´
«à¸¥à¸ ±à¸ģà¸
Î¼ ÎµÎ¹
áĥĺáĥ¨áĥķ áĥĺáĥļáĥĺ
ĠÐ¿ÑĢÐ¾ÑĤ Ð¸Ð²
sem ble
Ġà¸ªà¸¡à¸±à¸ Ħà¸£à¸
ÏĢ Î±Î½
ĠD la
ĠA pp
åĩ ł
Ġä» İ
åĦ ¿
Ġà¥¤ âĢĻ
ķ à¹īà¸Ļà¸
Ð «
Ġh u
ĠáĥĶ áĥĴ
l ub
ĠÐº ÑĤÐ¾
Ĺ à¹Īà¸²
Ġé ĵ
Ġ×Ķ× ĺ
at ter
Ġinter net
ĠÑģÑĤ Ð¾ÑĢ
Ø³Øª Ùĩ
Ġes tos
Ġà¤¶ à¥įà¤°
Ġ ãģ¨ãģĦãģĨ
Ùİ ÙĦ
ĠØ§ÙĦØ¯ ÙĪÙĦ
ess er
ê° Ĳ
Ġáĥ¡áĥĺáĥ¡áĥ¢ áĥĶáĥĽ
v re
j ou
ck e
Z W
Ġne ws
Ġà¦¦ à¦¾à¦¬
Ġspos Ã³b
áĥĽ áĥĲáĥł
à°¿à°¸ à±įà°Ł
Ġb á»Ļ
ĠT ak
Ġà¦ħ à¦Ĥà¦¶
éģ ķ
v id
Ø§Ø¯ Ø±
ĠãĢ Ĺ
à¥ģà¤® à¤¾à¤°
íĿ ¥
Ġà¤¹à¥ĭ à¤¤à¥ĩ
à¤ª à¥įà¤°
ah re
ĠS ur
íĺ Ħ
ar ak
Ġà¦¬à¦¿à¦ ¸
Ġo ra
us es
ĠìľĦ íķ´
ĠpÅĻÃŃ pad
Ġà°ªà±įà°° à°ªà°Ĥà°ļ
ä¸į åį¡
Ġà¤¸ à¤°à¥įà¤µ
Ġd ÃŃas
Ġn Ã¶v
ç· ļ
is ce
Ġà®µ à®¿à®¤
Ã§ a
ÙĦ ÙĬØ©
Ġáĥĺ áĥķ
à¹ģà¸£à¸ ĩà¸
ich te
çİ° éĩĳ
ĠE N
Ġà¦¹ à¦²à§ĩ
ĠÎ ©
im os
ÏĮÏĦÎ· ÏĦÎ±ÏĤ
Ø§ Ù¾
áĥĶáĥĳ áĥĺáĥĵáĥĲáĥľ
ć ï¼Į
¾ è®¯
ÑĢ Ðµ
Ġte le
Î» Î±Î½
ãģĵ ãģ®
Ġht ml
ĠÎļ Î¬
Ñĥ ÑĢÐ°
Ġà¦ļ à¦¾à¦°
Ġ×ŀ× Ĵ
ĩ à¹Īà¸²à¸¢
Î¸ Î¿ÏĤ
ä¾ ĭ
ÑĨ Ðµ
áºŃ y
Ġà®ļ à®ķ
ģà¸ µà¸
ĠÏĢÏģÎ±Î³ Î¼Î±
ĠáĥĶáĥłáĥĿáĥķáĥľ áĥ£áĥļáĥĺ
Ð° ÑĨÐ¸Ð¾Ð½
Ġi ci
ķà¹Īà¸²à¸ĩ à¹Ĩ
ĠÎ¿ Î´Î·
il lo
c re
ĠçĶ µ
à¥ģà¤ ³
åĳ ½
ĠSt ra
à¹Ģà¸ ļ
ĠÐļ Ð¾Ð½
Ġà¦Ĺ à¦£
Ġáĥ¡áĥĲáĥĳ áĥŃ
¢ à¸´
ĠÐ½ Ð¸Ñħ
à¸²à¸£ à¹Į
à¥ģà¤ Ń
ĠdÃ© jÃł
ĠØª Ø´
Ġà¦¦ à¦¿à¦²
ÐµÐ² Ð°
à®¾à® ´
Ġmom ento
Ġu09 4
Ġlang _
l is
Ġà°µà°ļà±įà°ļ à°¿à°¨
ic ie
×ķ×¨ ×Ļ×Ŀ
áĥĺáĥľ áĥĵ
Ġhat te
Ġà®¤ à®Ł
ĠJ a
Ġexemp le
I j
Ġà¦¤ à¦¾à¦ķà§ĩ
Ġd ostÄĻp
áĥĶáĥĳ áĥłáĥĺáĥķáĥĺ
Ġt ij
Ġa ir
Ã¦ re
Ġà¦Ĩ à§Ł
u ales
ëŀ ĳ
in os
á»¯ a
à¥ī à¤¨
ĠÚ©Ø±Ø¯ ÙĨ
à´¿à´ °
Ġà¤ªà¤¾à¤° à¥įà¤Łà¥Ģ
Ġà°¤à±Ĩà°² à°¿à°¸
à¯įà®® à¯Ī
ĠfÉĻal iyyÉĻt
ä» ĭ
Ġà¦® à¦¤
ov Ã½ch
r Ã¼n
ãģķ ãģĽ
Ġà°ª à°µ
b ilir
à¤ľ à¤¨
à¤¨ à¥įà¤¦
ĠwiÄĻ k
Ġprodu its
Ã ĵ
ĠP lus
Ġà°µà°¿à° ®
ĠIn ter
ve au
áĥĶ áĥĶáĥĳáĥĺ
à¹Īà¸Ńà¸ĩ à¹Ģà¸Ĺà¸µà¹Īà¸
Ġch áº¥t
çĽ ĳ
lar es
Ġà¦ªà§įà¦°à¦§à¦¾à¦¨ à¦®
ĠÎ¸Îµ Ïī
Ġsu dah
Ïĥ Î¼Î±ÏĦÎ±
Ġso cial
Ġáĥ® áĥ¨áĥĺáĥł
Ġc c
è¾ ĥ
ĠÐ²Ñĭ Ð±
Ġ: #
Î¯Î½ Î¿ÏħÎ½
ĠãĤ ¸
Ġáĥ¡ áĥĶáĥ¥áĥ¢
ĠÎ· Î¼ÎŃ
ĠÑģÑĤ ÑĢÐ¾
à§Ģ à¦¤à§ĩ
Ø§Øµ Ø©
Ĺ à¸´à¸
ÎµÎ¯ ÏĦÎ±Î¹
ĠãĢĤ ï¼Į
Ð¾Ð» Ð¶
Ġist ÉĻy
den ti
à¹Ħà¸¡ à¹ī
ĠÏĥÏħÎ½ ÎµÏģÎ³
Ġáĥŀ áĥĲáĥłáĥļáĥĲáĥĽáĥĶáĥľáĥ¢
ĠÐº Ð»Ð¸
à®µ à®¿
Ĭ à¸Ļ
Î»Îµ Ïį
ĠAr tik
Ġêµ °
Ġè §
çº ¦
à¥ĩà¤ £
ĠRe g
Ġ) ;
ĠÐºÐ² Ð°ÑĢÑĤ
Ġà¦®à¦¾à¦§à§įà¦¯à¦® à§ĩ
ĠáĥĽ áĥĶáĥ¡
ķ à¸²
Ð°Ð» Ð¸ÑģÑĤ
¸à¸ ĩà¹Ģà¸
Ġà¤ª à¤¦
ĠØ¯Ø§Ø´Øª Ùĩ
à¯įà®ķà®³ à¯Ī
ĠAv ro
ĠÐ¾ ÑĦ
cÃŃ ch
g as
Ġà¤¯ à¥ĭà¤ľ
à°¾à°Ĺ à±ĩ
ress e
ien cia
ta mento
ëĭ¤ ëĬĶ
áĥł áĥĿáĥķ
ĠÃ©qui pe
Ġsay a
Ġnghiá»ĩ p
nÄĽ nÃŃ
ãĤ¹ ãĥĨ
Ġt i
Ġcos a
áĥĿáĥ ®
Øµ Ø©
Ġà¦¶ à¦¤
Ġà°ħà°¨à±įà°¨ à°¿
ĠÕ« Õ¶
Õ ·
in ci
Ġder nier
Ġ×ĳ ×¤
Ġà¤µà¤¿à¤ µ
Ġa lles
Ġà¤®à¤¾à¤® à¤²à¥ĩ
Ġà¤° à¤¾à¤®
Ġof re
d io
cj al
å¼ ·
Ġà®ª à¯ģà®ķ
Ġê° Ħ
Ġt re
ĠØ§ÙĦÙħ ÙĨØª
am a
ne k
à´° àµįâĢį
à¤¿à¤ ¡
Ø´ Ùħ
ĠSu jet
Ġprem ier
Ġà°¦ à±Ģà°¨
Ġdo ch
Ġà¦¦ à¦¿à¦¤à§ĩ
ï½ Ĺ
ĠáĥĽáĥĺáĥĽ áĥĵáĥĺáĥľ
à¹Ģà¸ Ħà¸
ãĥ³ãĥ Ĩ
èĲ ½
Ø§Ø¦ ÙĬ
ĠM us
ĠÎ¶Ïī Î®
à¯ģà®¤à¯įà®¤ à¯ģà®µ
ĠÎĵ Î¹
ê² ł
áĥĺáĥ¡ áĥĽ
Ġå¾ ·
åĪĨ æŀĲ
ĠÐ´Ð¾Ðº ÑĥÐ¼
Ġob ie
ĠÎµÏģÎ³ Î±
ĠMen schen
ĠáĥłáĥĿáĥĽ áĥļáĥĺáĥ¡
ĠÎºÏħÎ² ÎŃÏģÎ½Î·
ĠÑĥ Ð»
Ġp Ãº
ti q
¥à¸° à¹Ģà¸Ńà¸µà¸¢à¸
ĠÎ£ÏĦÎ· Î½
åħ «
ĠÐ¸ Ñİ
Ã½ mi
×ľ ×ĳ
à¸Ļà¸ ±à¸ģà¸
Ġa mp
ĠáĥĽáĥĵáĥĴáĥĿáĥĽ áĥĲáĥłáĥĶáĥĿáĥĳ
ĠÐ» ÐµÐ³
Ġà¦ľ à§ĩà¦²à¦¾
à¹ģà¸ Ķà¸
ĠÎ²Î± Î¸
Ġge en
Ø¨ Ø¹
å¤ ±
è¯ »
è¯ Ħ
Ġà¦¬ à¦°
¹ à¸Ļà¸
Ð°Ð» Ð¾ÑģÑĮ
Ġv Ã¬
áĥ¨ áĥłáĥĿáĥĽ
ģà¸£à¸£à¸ ¡
ĠÐ¿ÑĢÐ¸Ð¼ ÐµÐ½
Ĥà¸Ńà¸ĩà¸ Ħà¸¸à¸ĵ
Ġà¤¶à¤¾à¤® à¤¿à¤²
ĠØ² ÙĨØ¯
à¯ĩà®¯ à¯ĩ
ĠíĨ ł
ĠÐº Ð°ÑĤ
à±ģà°µ à±ģ
Ġs Ã¼r
Ġä¸Ģ æľ¬éģĵ
Ġpo der
Ġ201 1
Ġenf ants
Ġso pra
ìĸ ¸
áĥĲáĥª áĥĺáĥĿ
à°¾à°® à°¨à°¿
à°²à±įà°² à°¿
Ġn r
à¯Ģ à®¤
à±ģà°² à°¤à±ĭ
à¦¸à§įà¦¥ à¦¾
in ie
áĥ£áĥľ áĥ¥
ĠS in
la d
é§ ħ
ãĤ ®
Ġ×¢ ×ĵ
Ø±ÙĪ Ø²
Ġre f
ĠØ¨ ÙĪ
à¤°à¥įà¤ ¨
Ġk ier
Ġà¤ĩà¤¸ à¤²
ìĺ ¨
Ġà®ķà¯Ĭ à®Łà¯ģà®¤à¯įà®¤
Ġà®ĩ à®³
Ġà¤¶à¤¿à¤ķ à¥įà¤·
à§ĥ à¦·à§įà¦Ł
à±ģà°² à±į
Ġdo it
ĠL u
Ġ antes
es en
à®¿à® ¨
cj Äħ
Ġà¤¯à¤¦ à¤¿
ê¸ Ģ
à°¿à°ª à±ĭà°¤
Ġsta ta
Ġst ran
ĠÄ± n
ë ¨
Ġin di
áĥĶáĥł áĥĲáĥ¢
lo t
ÙĤØ¯ Ùħ
Ġç Ļ
Ġà°ĩ à°Ĥà°¡
Ġà¦ªà¦¾à¦° à§ĩà¦¨
ÏĢ Ïī
ĠØ§ Ø´
Ïĥ ÏĦÎ¹
Ġxu áº¥t
áĥĲáĥĻáĥ£áĥĹ áĥł
åĨ µ
ä½¿ çĶ¨
ĠÑĤ ÑĢÐ°Ð½
Ġà¤¸ à¤«
Îķ Îļ
Ġë Ī
Ġáĥĺ áĥĲáĥľ
Ïĩ Î®ÏĤ
ĠÑįÐº ÑģÐ¿
Ö ´
×ķ×ĳ ×Ķ
Ġà¸ ¡à¸²à¸
Î¼ ÏīÎ½
åį ı
ĠÐŀ Ñģ
ĠmÃ¼ s
Ġb anyak
Ĭ à¸µ
ĠÎµÏĨ Î±Ïģ
áĥķ áĥĶáĥĹ
Ð¸ÑĤ ÐµÐ»Ð¸
ÅĻ en
Ľà¸ ģà¸£à¸
ÏĦ Ïį
ĠØ¨Ø± Ø®
Ġà¦ķ à§ĩà¦
è ŀ
4 0
å ¡
Ġm ak
Ġà¹Ģà¸ Ķ
ĠÑģÑĤ Ð°ÑĤÑĮ
ÙĦ Øª
ĠáĥŀáĥłáĥĿáĥª áĥĶáĥ¡
Ġà¸ķ à¹īà¸Ńà¸ĩ
ĠÐ± Ð»
à¹Ģà¸ ĺà¸
Ġà®ĩ à®©à¯įà®±à¯ģ
ta ire
Ġma jÄħ
Ġs at
ĠÐ² Ð¾Ð»
à±ĩà° ¡
Ġà¦¸ à§ĩà¦Ł
Ġpub lic
Ġè¶ ħ
Ġà¤Ĺ à¥ģ
Ġ| --
ĠØ§ÙĦØ± Ø¦ÙĬØ³
Ġren contre
áĥĺáĥľ áĥĵáĥĲ
à±Ģ à°²à±ģ
ĠE lle
Ġà¦¬ à¦¾à¦¬
Ġà¦ıà¦ķ à¦ľà¦¨
ĠT ag
Ġprimer a
Ġ×ĳ ×ĳ
ĠáĥĵáĥĲáĥ ¤
Ġà®¤ à®¿à®Łà¯įà®Ł
Õ¡ ÖĦ
Ġla z
Ġtr op
Ġà°ĩ à°µà±įà°µ
ê³ ³
Ġwo j
rie b
Ġà¤ĵ à¤°
Ø¨ÙĬ Ø¹
ãģ® æĸ¹
s ah
ëª ©
r icht
áº¡ ch
Ġà°ĩ à°²à°¾
as ib
Ġf am
o g
sk Ã½ch
à±Ģà°Ĩ à°°à±į
ĠEr mÉĻn
åı¯ èĥ½
ĠÙħ ØµØ±
Ġà®¨ à®¾à®®à¯į
à±Ĥà°° à±ģ
Øµ ÙĪÙĦ
it t
Ġà¦ī à¦¨à§įà¦¨
Õ ²
Ġm ÉĻÅŁ
áĥł áĥĲáĥļ
à¹Ħà¸§ à¹ī
c le
2 7
Ġà°¦ à°Ĺà±įà°Ĺ
ë©´ ìĦľ
Î ŀ
mes i
ÏĦÎ· ÏĦÎ±ÏĤ
Ġ×Ĳ ×ĳ
Ġáĥ¡áĥĲáĥ£áĥ ĳ
Ġ9 18
çĻ ½
ĠÐ¼ ÑĥÐ¶
Ġà®ī à®Ļà¯įà®ķà®³à¯į
ĠÏĢÎ¬Î½ Ïī
à¤ļ à¤¾à¤°
ĠáĥĴáĥĲáĥĽ áĥĿáĥĽ
ĠÎºÎ± á½¶
ĠÑĪ Ðº
Ġà¦¸à¦®à§įà¦ª à¦°à§įà¦ķ
ĠØ¯ ÛĮØ¯
§à¸ ¢
Î¼Îµ Î¯
Ġå½ ĵ
ĠÑĥ ÑĤ
ê² °
m ein
Ġà¹Ģ à¸Ļà¸
ĠÏĥ Î±Î½
Ġáĥ¡ áĥĿáĥªáĥĺ
ĠÐľ Ñĭ
Ġ×ľ ×¦
Ġ256 2
Ïĩ Î¿Î»
Æ°á»Ľ ng
ay Ä±
è´ £
èĭ ±
ĠåĪ ©
Ġà¤ī à¤ł
ļ à¸Ļ
Ð¾Ð³ ÑĢÐ°ÑĦ
en ze
áĥ£áĥļáĥĺ áĥĲ
Ĺ à¸£
Ð Ļ
Ġà¸Ħà¸ ·à¸Ń
ct r
n Ã©e
Ġsch ne
Ġà¤ª à¤¿à¤
ÑģÐº Ð°Ð·
à±ģà°¦ à°²
Ġpe ÅĤ
ĠI k
Ġc ost
Ġpho to
ĠØ®ÙĪØ¯ Ø±ÙĪ
ĠrÉĻh bÉĻr
da g
ĠáĥĲáĥł áĥĲáĥ¤
à±Ĥà° Ł
Ġmu jer
Ġesc ri
Ġpo tÅĻe
a cja
ĠZ u
Ġà®® à¯ģà®ķà¯įà®ķ
áĥĲáĥªáĥĺ áĥĲáĥ¡
r ir
m ÉĻsi
ÙĬ Ø¬
ë¡ ¯
à°¿à°ļ à±įà°ļ
×ŀ ×ķ×ª
wo d
à¦¾à§Ł à§Ģ
Ġà¤¬ à¥ĩà¤¹
Ġnouve lle
ĠWo hn
Ġgi an
ĠØ¨ÛĮ Ø´ØªØ±
íĽĦ ê¸°
Ġì¶ ©
Ġà°ķ à±Ĩ
s iniz
Ġki ta
Ġnuest ro
Ġ1 99
Ġà°¸à°Ĥà° ª
ill et
j te
Ġi de
Ġà¤®à¥ĩ à¤°à¥ĩ
Ġà°¨ à°¿à°¯
à§Ĥ à¦°à§įà¦£
z ie
Ġå ģ
à¥ģà¤ £
Ġ ir
áĥĿáĥł áĥĺáĥĲ
§à¸´à¸ ĺ
Ġmog Äħ
Ġag äºļæ¸¸
Ġë¬ ¼
au te
ĠÎµ Î´Ïİ
Ġl in
Î¼ÎŃÎ½Î¿ ÏĤ
ãģ¦ ãĤĤ
áĥĲáĥķ áĥĲáĥļáĥĺ
Ġà¥ §
ç ¯
ĠÑĥ ÑĢÐ¾Ð²
ĠÙĪ Ø§ØŃ
Ïĥ Ïĥ
Ġà¤¯ à¤¾à¤¦
ĠáĥĴáĥĲáĥĽ áĥĿáĥ¡
ÏĢÏĦ ÏīÏĥÎ·
ÑĢÑĥ Ð±
Ġw ij
Ġ×¢ ×¦
Ľà¸ ģà¸
ĠÎĳ Î¸Î®
à¤¾à¤ļ à¤¾
ÑĢ ÐµÑģ
Ġà°ķ à°¦
Ġtien en
Ġà¹Ģ à¸£à¸
ĠÎ² Î¹Î²
áĥķ áĥĲáĥłáĥĺ
ĠÑįÑĤ Ð¾Ð¹
Ġme zi
Ĭà¹Īà¸§à¸ ¢
Î³ ÏĮ
Ġnost ro
à®¤ à®¾à®²à¯į
çģ «
ļ áŀ
èĲ Ħ
Ġà¤¸à¤ķ à¤¤à¥Ģ
à¹ĥà¸Ļà¸ ģà¸²à¸£
ĠÐ² Ð°Ñģ
Ġb ene
Ġáĥŀ áĥĶáĥłáĥĺáĥĿ
à¹ģà¸« à¹Īà¸ĩà¸
ĠÐ¸ÑģÑĤ Ð¾ÑĢ
Ġà¹Ģà¸¡à¸ ·à¹Īà¸Ńà¸
g ul
Ġf Ã©
en o
Ġve el
Ðº Ð¸Ð¹
Ġà°¸à°Ĥà° Ĺ
ÛĮÙĨ Ùĩ
za hl
Ġd Ã¢n
ĠH om
ĠãĤ »
ler ini
Ġest ar
Ġáĥ¬áĥĲáĥłáĥĽáĥĿáĥĽ áĥĲáĥĵáĥĴáĥĶáĥľ
Ġà°ªà°° à°¿à°¶
ĠInd onesia
Ġmem ili
Øµ Ùģ
Ġà¤µ à¤¿à¤°
Ġè ¦
ĠEn t
ĠáĥĴ áĥ£áĥļ
iss ion
Ġà¦ķ à§Ģ
Ġ×ľ ×Ĵ
Ġm ov
Ġà°¹à±Īà°¦à°° à°¾à°¬à°¾à°¦
Ġi hned
Ġv ÄĽt
ĠØ§Ø± Øª
à®Ļà¯įà®ķ à¯ĩ
i Ã¨re
Ġsz ko
ìķĦê°Ģ ìĶ¨
Ġê²½ ìļ°
ĠÙħ Ø¤
j os
Ġà°° à°¾à°µ
Ġda i
Ġà¤¨ à¤Ī
ÉĻm iyyÉĻt
Ġra p
à°Ĥà° ¶
Ġà¦¸ à¦¾à¦Ĥ
ãĥĹ ãĥª
pe w
à¥Ģ à¤¤
Ġà°ªà°° à°¿à°¸à±įà°¥à°¿à°¤
Ġda ting
ur os
Ø¨ ÙĬØ±
Ġv il
ĠM in
ĠáĥĽ áĥĶáĥĵ
ŀà¸´ à¹Īà¸¡à¹Ģà¸
Ġà¤² à¤¡à¤¼
ĠåĲ Į
Ġvo it
Ġà¦² à§Ģà¦Ĺ
ĠÏĦ Î¬
Ġà¦® à¦¿à¦²
Î½ Î¹
à®µ à®©à¯į
ĠáĥĹáĥĲáĥķáĥĺáĥ¡ áĥĺ
èµ ¢
å¿« ä¹Ĳ
Ð¸ÑĤ Ð°
iv o
ĠÎ» Î¬
á»į i
ĠáĥĴáĥĲáĥľáĥ¡ áĥĲáĥĻáĥ£áĥĹáĥł
ĠÏĦ ÎµÏĩ
ĠÐ±Ñĭ Ð»Ð°
Ġà®¨ à®®à¯įà®ª
ÙĨ Ùĩ
ªà¸ °à¸
Î¼ Î¹Î±
èī º
Ñĥ ÑİÑĤ
Ġà°ħà°¨à±įà°¨ à°¾à°°à±ģ
Ġà¤ķ à¤¿à¤¤
à¹ĩà¸ Ķ
ĠÏĨ Î¿Ïģ
ĠáĥĲáĥ®áĥĲáĥļ áĥĴ
ĠÐ² ÑĤÐ¾ÑĢ
g esch
«à¸¥à¸²à¸ ¢
ĠÎ±ÏĢÎ¿ Îº
k re
Ġpo lÃŃ
ä½ ı
æ¯ ı
à¤¾à¤ļ à¥Ģ
il ik
à¹Ĥà¸ ķ
ĠÐ½ ÐµÐº
Ġà¤ĺ à¤Ł
Ġáĥ¥áĥķáĥĶáĥ§ áĥľáĥĺáĥ¡
T 00
ĠÑįÑĤ Ð¾ÑĤ
Ġ à¹Ĥà¸£à¸ĩà¹ģà¸£à¸¡
Ġmej ores
Ġsprze da
ĠwÅĤ as
ê· ¼
ÐµÐ¹ ÑĩÐ°Ñģ
Ġà°¤ à°²
Ġà¦¤à¦¾à¦ģ à¦°
Ã¤l t
ĠS a
×Ĳ ×Ļ
Ġà®® à®¾à®¨
Ġne cess
b an
áĥĶáĥĳáĥĺ áĥĲ
à°¿à° £
à¤¾à¤Ĥ à¤¤
on der
ĠØ³ Ø§Ø¹Øª
Ġna ture
w ania
à¯ĭ à®Ł
Ġà¦ķ à§ĩ
áĥĲáĥĹ áĥĺ
ħ ÖĢ
Ġbir i
ìķ ł
à°° à±įà°²à±ģ
ĠÄį es
Ġvel mi
Ġãģ ķ
à¦¿à¦¸ à§įà¦¤
à®¿à®° à®¿à®¯
Ġte ng
st Ã¤n
ĠrÃ© f
ĠØ§ÙĦÙħ ÙĤ
· °
Ġà°® à°¾à°¨
Ġwie le
ĠìĬ ¬
ĵ °
t res
Ġà¤¤ à¤¬
Ġà°¤à±Ĩà°² à°¿à°¯
Ġà¦¤à¦¥ à§įà¦¯
Ġch at
ãģı ãģª
×¤ ×§
à®©à¯įà®© à¯Ī
tiv as
Ġà®ķ à¯ģà®°
Ùİ Ø§
ÙĬ ÙĬÙĨ
áĥķ áĥĺ
±à¸ Ķ
ba ar
à¨ ¹
ĠB iz
h Ã¡
ĠÎŃ ÏīÏĤ
Ġà°ļà±Ĩà°Ĥà°¦ à°¿à°¨
ÏĢÎ¿ ÏĦÎµ
ĠktÃ³r ych
ĠáĥŀáĥłáĥĿáĥĳáĥļ áĥĶáĥĽ
æ£ Ģ
æĲ ı
ĠÐ½ Ð°Ð¼
Ġman era
Î´ ÏģÎ±
Ġil g
ĠØ®ÙĪØ§Ùĩ Ø¯
ĠÏĥ Î¿
Ð¾Ð¶ Ðµ
íĻ ©
ÉĻt ir
¢à¸´à¸ĩà¸ Ľà¸¥à¸²
ĠÎ¸ÎŃ ÏĥÎ·
ĠãĢĤ âĢĿ
Ð´ Ð¸Ð½
çĭ ł
Ġà¤¹à¥ĭ à¤Ĺà¥Ģ
±à¸ ĩà¹Ģà¸
ĠÎľ Î¬
Ġà¦¬à§įà¦¯ à¦ķà§įà¦¤
ĠÐ¼Ð¾Ð¶ÐµÑĤ Ðµ
ĥ à®ª
«à¸±à¸ §à¸
ĠÏĢÏģÏİ ÏĦÎ·
Ġm Ã¶glich
Ġespe cial
2 9
Ġåĳ ¨
à© ģ
ve z
ģà¸±à¸ Ķ
Ð¸Ð¼ Ð¾ÑģÑĤÑĮ
v in
Ġáĥĺ áĥł
à¹ģà¸ ķà¹Ī
ĠÐ³ ÑĢÑĥÐ¿Ð¿
ģà¸´à¸ Ī
Ùİ ÙĨ
ĠØ£ ØŃ
Ġãĥ» ãĥ»ãĥ»
ĠãĤ ¿
ÑĭÐ² Ð°ÑĤÑĮ
Ġì¶ľìŀ¥ ìĥµ
ëª¨ íħĶ
ĠáĥĳáĥĶáĥķ áĥłáĥĺ
Ġf u
×¨×Ĳ ×©
à¤¾à¤¹ à¤°
Ø¨ Ø§Øª
Ġv ur
á» Ĺ
ãģ¨ ãģĭ
ãĥ³ãĥ Ĺ
Ġà°¸à°® à°¸à±įà°¯
Ġk to
qu ÃŃ
Ġe er
Ġsa voir
k k
ĠPer son
ĠRo z
ĠÚ© Ø¯
ĠíĶ ¼
ĠØ± ÛĮ
Ġà¦¹à§ĭà¦¸ à§ĩà¦¨
à§ĩà¦¤ à§įà¦°
Ġs Ã¼re
Ġà¤® à¤¤
ĠA Z
Õ¸ÖĤÕ µ
ra f
uje my
ãģª ãģĮ
ëĬĶ ëį°
ĠáĥĽ áĥĶáĥĹ
ta d
dan ie
ĠP as
ĠprÃ©s ent
ĠØªÙĪ Ø¬Ùĩ
à±ĭ à°¸
ut ÃŃ
Ġà¤¹ à¥ĭà¤Ĥ
ĠP ero
ĠáĥĲáĥł áĥĲáĥĽ
et t
Ġáĥ¥ áĥ£áĥ©
Ġpe que
wÃ³ j
áº¯ ng
Ùĩ Ùĩ
à¹Ģà¸¥à¸ ¢à¸
áĥĺáĥķ áĥĶáĥłáĥ¡
éļ ¾
ĠÙĪ Ùģ
Ġr Å¯
ÎŃ Î²
ë¥ ĺ
ĠÎĳÏħ ÏĦÏĮ
Ġf Ã¼
Ġcom ment
ä¿ ®
Ġè ĭ
ĠÑĥ Ð¿ÑĢÐ°Ð²
g ue
Î¸ ÎµÎ½
ti ma
ĠÙĩÙħ Ùĩ
Î³ Î½Ïī
ĠÑĥ Ð¼
Ġna m
à°¡ à±ģ
Ġà¸ķ à¸²à¸£à¸²à¸
Î» Î¹Î¬
ç½ĳ é¡µ
Ð°Ð½ Ñĭ
ĠmoÅ¼ liw
Ġà¤ªà¥Ĥ à¤°à¥Ģ
à¹ĥà¸ ķ
ĠÎ¾Îµ Î½Î¿Î´Î¿
ĠáĥĲáĥĽ áĥĶáĥł
ĠÐŀ Ð½
ĠØ³ Øª
· à¸Ńà¸ĩà¸
ÎĳÎ ł
Ġpart ir
Ġcomp l
ç¤¾ ä¼ļ
ç» ´
Ġé ¦
ĠÕ« ÖĢ
Ĺà¸µà¸ ¡à¸
Ð¸Ð· Ð½Ð¸
ĠaÃ§ Ä±q
à§ĩà¦® à¦¨
ªà¸ ³à¸Ħà¸
Ð°Ðº Ñģ
Ġà¸ Ķà¸µ
à±ģà°ķ à±įà°ķ
Ġann on
ere ka
à±ģà°¤ à±ĭà°Ĥà°¦à°¿
Ð¾Ðº Ð°
ãĥ¼ãĥ Ĺ
Ġqu indi
Ġà®¤à¯Ĩà®°à®¿à®µ à®¿à®¤à¯įà®¤
×ĵ ×Ŀ
Ġà¤ķ à¤¾à¤«à¥Ģ
Ġà°µ à±Ĩà°²
ÄĽ k
ĠÖ ĥ
Ġà¦¬à¦¿à¦Ń à¦¾à¦Ĺ
ĠáĥĻáĥĲáĥłáĥĴ áĥĺ
pie le
Ġ ãģŁ
Ġt wo
ĠÛ µ
ĠØ³Ø§Ø² ÙħØ§ÙĨ
Ġo rig
ĠÃ ¤
Ġà°®à±ģà°Ĥà°¦ à±ģ
ìĽ Į
:: ::
ãĤ¿ ãĤ¤
Ġpier w
áĥļ áĥĶ
à¥Ī à¤¨
Ġà¦¸ à§Ĥ
ï¼ ĵ
ĠAzÉĻrbaycan Ä±n
ÄŁ un
ÉĻy in
çļĦ ãģª
ĠØªÙĪØ³ Ø·
à¯ĭ à®©
Ġtra ta
ĠáĥĹáĥĲáĥĽ áĥĲáĥ¨
Ġra cc
ĠP r
n el
ĠÄĳ iá»ĥm
ÙĲ ÙĬ
ÙĪ ÙĪ
ÙĬ Ø´
×Ĳ ×Ļ×Ŀ
Ġà°ª à°¾à°¤à±įà°°
Ġà¦¬à¦¿à¦° à§ģà¦¦à§įà¦§à§ĩ
aliz za
à°¿à°¸à±įà°¤ à±ģà°¨à±įà°¨à°¾à°°à±ģ
Ã¸ y
ê² ĥ
Ġde re
¡à¸ ·à¸Ń
áĥ¬ áĥĺáĥľ
èĭ ı
Ġvie le
ida de
Î± ÏģÎ¯Î¿Ïħ
w es
ĠÎłÎ¿Î» Î¹
I i
Ġm ont
Ġ äºº
èĮ ĥ
Ð¸ÑĩÐµÑģÐº Ð¸
na ge
Ïģ Î¹Îº
iy asÄ±
cyj ne
ĠÎ´ Ïħ
ĠÑĤÐµÐ» ÐµÑĦ
Å¾ i
Ġà°ľà°° à±ģà°Ĺ
«à¸¡à¸²à¸ ¢à¸
ÏģÎ¬ ÏĤ
Ġà¨ µ
ĠÐ¿ÑĢÐ¾ ÑĪ
Ġat tivitÃł
Ġwsp Ã³ÅĤ
ªà¸¹à¸ ĩ
Î¬Î½ Ïī
ĠZ Ã¡
Ðº Ð°Ð¼Ð¸
à¥ĩà¤¯ à¤°
ªà¸ĸ à¸²à¸Ļà¸
ĠÎ³ Î¯Î½ÎµÎ¹
r ent
Ġà®ķ à¯Ĩ
à¤¤ à¥ĭ
éĤĢè¯· çłģ
Ġà¤Ĩà¤¹à¥ĩ à¤¤
Ġna z
§à¸ Ķà¸
Ġ" .
à§ Ń
ĠáĥłáĥĲáĥ¢ áĥĿáĥĽ
Ġ$( '
ĠÐ¼ Ð°ÑĪ
à¹Ĥà¸ Ķ
e h
Ġf ig
Ġà¤ª à¥įà¤²
Ġà°µ à°¿à°ķ
Ð¾Ð´ Ð°ÑĢ
Ġà®µ à®ļ
à§ĭà¦°à§įà¦ Ł
áĥĺáĥłáĥĵ áĥĶáĥĳáĥĲ
iv el
Z X
Ġà°ª à±ģà°°
Ø§ØŃ ÛĮ
Ġà¤¯ à¥ĭà¤Ĺ
áĥ® áĥĶáĥļ
ch u
à´¾à´ °
Ġï¼Į ãĢĲ
dzie l
Ġà¤ļ à¥Į
ĠÉĻr az
ĠØ¯Ø§ÙĨØ´ Ú¯Ø§Ùĩ
Ġà¦Ĩ à¦¬à¦¾à¦°
áĥĶáĥ ¯
ĠE ine
da t
Ġu z
ĠìĥĿ ê°ģ
Ġ×Ĳ ×Ļ×ļ
à§ĩà¦ĸ à¦¾à¦¨à§ĩ
Ġà®ªà¯ĭ à®ķ
à´¾à´ ¨
×ľ ×ĺ
Ġáĥł áĥĲáĥĺ
am iÄĻ
Ø§Ø º
à°°à±įà°¸ à±į
à®¿à®ķ à®³à¯Ī
ob ierno
ĠáĥĽáĥĶáĥĴ áĥĿáĥĳ
Ġcomp te
ue go
gra ph
z ent
Ġh Ã´tel
Ø§ ÙĪ
ë³ µ
t Ã¡
Ġà°Ĩ à°ķ
un i
Ġ×§ ×¨
áº¹ p
Ġà®ªà®¯ à®©à¯įà®ª
ou l
Ġìĺ¨ ëĿ¼ìĿ¸
Ġà¸£à¸ ¸à¹Īà¸Ļ
áĥĴ áĥĶáĥľ
ĠåĪĨ åĪĨå½©
ĠÃ ¸
Ġk inh
Î³ ÎµÎ½
p ol
ĠÎ´ÏħÎ½Î± ÏĦÏĮ
Ġin nych
Ġcom mer
äº Ĵ
é¦ Ĩ
Ð½ Ð¸Ñħ
Ġà°ħà°Ĥà°Ł à±Ĥ
Î® ÏĦÎ·
ĠÛ ´
ĠØŃ Ø¯
á½ ´
Ñĥ Ð»Ð¸
ëĵ¤ ìĿĺ
à±ĭ à°§
à¹Ĥà¸£à¸ĩà¹ģà¸£à¸ ¡à¸
ĠÎº Î¿Î¹
ĠæĪĳ ä»¬
ĠÐ°Ð²ÑĤÐ¾Ð¼ Ð¾Ð±
ck er
ĠTe il
à¹Ģà¸Ķ à¸´à¸Ļà¸
ĠÎ Ħ
u da
Ñĥ Ð¹
à¥įà¤ŀ à¤¾à¤¨
Ī à¸²à¸£à¸
Îķ ÎĻÎ£
Ġpeu vent
ĠP ÅĻÃŃ
èĩ ´
ç§ ¯
æŃ£ è§Ħ
ç´ ł
Ġà¹ģà¸ ¡
Ñĥ ÐµÑĤÑģÑı
Ġn or
áĥĳ áĥ£áĥłáĥĹ
Ġy ou
ĠÐ½Ð° ÑħÐ¾Ð´
0 e
Ġji Å¾
à¦¹ à¦£
à¥Īà¤Ĥ à¤ķ
ëĭ ¬
ĠÐ¶ Ð¸Ð·Ð½Ð¸
à±ģà°µ à°¾à°¤
Ġk áº¿t
Ġáĥŀáĥł áĥĿáĥĵáĥ£áĥ¥
cz ka
Ġt ap
I jo
ÅĽ wiad
à¥Ĥ à¤¤
Ġáĥ¥áĥķáĥĶáĥ§ áĥĲáĥľ
Ġà¦ħ à¦«
Ġà¤ªà¥įà¤° à¤¾à¤ªà¥įà¤¤
Ġï¼ ı
oun d
èª ŀ
a ber
Ġf ÉĻr
ak t
Ġáĥĳ áĥĺáĥĸ
ëį Ķ
Ġ×ĳ ×Ľ
Ġà®¨ à®¾à®³
Ã¡ g
à¥Ĥ à¤¦
ĠIn forma
ĠØ¬ Ø¯ÙĬØ¯
Ġà§§à§ §
à¯ģà®¤ à¯ģ
áĥĶáĥĳ áĥĲáĥĵ
Ġà¦¶ à§ĩà¦ĸ
pod ar
b ul
uy or
Ġb ych
áĥĺáĥł áĥĶáĥĳáĥĺáĥ¡
Ġin te
Ġdam it
pra v
Ø§ ÙĬØ©
Ġà¶ ´
Ġà¤¬ à¥įà¤²
Ġà¦² à¦ķà§įà¦·
à®¿à® Ļà¯įà®ķ
à±Ĥà° ¡
Ġí Ĺ
Ġf ino
ĠcÃ³ mo
ĠÙĨÙħ Ø§ÛĮ
ze ich
ow is
ŀà¸£à¸ °
ĠáĥĴáĥĲáĥł áĥĶáĥĽ
ĠâĢĿ ï¼Į
ak ukan
Ġza Äį
ĠÎº Î¿Î¹Î½
Ġ×Ĺ ×©
ĠÎ¼ Î¿Î½
ion al
à±Ĩ à°ķà±įà°ķ
éĻ ©
æĻ ¯
Ð¾Ð´ ÐµÑĢÐ¶
for m
Î¡ Îĵ
ÙĨØ¯ ÛĮ
Ġà¦ªà¦° à§ĩ
ĠÎº Î¿Î½
ÐµÐ³ Ð´Ð°
Ġà®ļà¯Ĩ à®©à¯įà®±
à±įà°¯ à°¤
Ī à¸Ļà¸
ĠÏİ ÏĥÏĦÎµ
å»º è®¾
Ðł Ñ
Ġt Ã¢m
ni enia
¡ à¸´
ĠÎ¤ Î·Î½
ek en
Ñĳ ÑĤ
Ġà¤ĩà¤¸à¤² à¤¿à¤ı
à¹Ģà¸¥à¸·à¸Ńà¸ ģà¸
ĠÏĢ Î¿Î¹
a Ã§Ã£o
à±ģà°ķà±Ĭ à°¨à°¿
Ġæ ł
æľ Ľ
éĩ ĩ
Ġch ar
ķ à¸£à¸§à¸Īà¸
ÐµÑģÑĤÐ² Ð°
ĠdeÄŁ il
áĥĶáĥĴ áĥĽ
Ġà¸ľà¸ ¥
Ð¸ ÑĦ
Ġà¸ Ħà¸£à¸±à¹īà¸ĩ
Ġà®ļ à®¾à®¤
ber o
Ø±Ùĥ Ø²
n ku
ÑĥÐ»Ñı ÑĢ
ĠÙħÛĮâĢĮ Ø´ÙĪØ¯
Ġtr es
Ġáĥĳ áĥĿáĥļáĥĿ
ÉĻyy ÉĻn
Ġà°¨ à°Ĺ
gi i
Ġentrepr ise
Ġb áº±ng
Ġáĥ£áĥĻ áĥĲáĥľ
ĠN or
Ġà¤ª à¤¾à¤¨à¥Ģ
Ġs kal
Ġpro dej
Ġh ui
×Ĳ ×¨
ëĵ ±
ov i
Ġto e
st ÄĽ
Ġíķ ©
f ang
ĠØ§ÙĦØ¹ Ø§Ùħ
Ġà®¨ à®¾à®Łà¯įà®Ł
Ġwszyst ko
à§ ¬
áĥĿáĥĳ áĥĶáĥľ
Ġcon os
ra g
schie den
c uk
Ġnas zy
Ġà°ľ à°¾à°¤
U E
Ġp al
à¦¾à¦¡ à¦¼
ĠØ³ Ø¨
é º
Ġà¤ķ à¤¿à¤ı
Ġk obie
ĠA B
s Ã¥
Ã¨ ne
ĠEs paÃ±a
z immer
ach t
áĥ¢áĥĻ áĥĺáĥª
Ġà°¨ à°¡
le c
Ġn ar
à¹Ĥà¸£à¸ ĩà¸
Ġà®ļ à®¾à®°
Ġç ¥
Ø§Ø¦ ÙĦ
ti do
ÏģÎµ Ïħ
Ġáĥ¡áĥĲáĥĽ áĥ¡áĥĲáĥ®
ĠÎ¬Î½ Î¸ÏģÏī
à¬¿ à¬
áĢ¸ áĢ
à¤ļ à¥Ģ
éĹ »
Ð° ÑģÐº
s u
ĠÎ¤ ÎŁÎ¥
Ġà°ªà±Ĭ à°Ĥà°¦
r om
ĠÏĥ ÏĦÎµ
ĠÐ·Ð°Ðº Ð¾Ð½
áĥľ áĥĶáĥĳáĥĺáĥ¡
Ġà¤ķà¥įà¤¯à¥ĭà¤Ĥ à¤ķà¤¿
Ġu 0e
ĠÎ´ Ïī
à¤ļ à¤¾
Ð½ Ð¸Ñĩ
×Ļ×§ ×Ķ
Ãº p
ªà¸ ±à¹Īà¸ĩà¸
ĠÏĦ ÏİÏģÎ±
Ġs iz
ĠÑĥ Ð³
Ġæ ¥
à¹Ĥà¸ «à¸¥à¸
Ïĩ ÏģÎ¿
ĠÙĪ ÙĦÙĥ
ma g
å®ĺç½ĳ çĻ»å½ķ
åĩ »
4 8
Äħ d
à¹Ħà¸ Ĺà¸¢à¸
ĠÐ¿ÑĢ Ð¸Ñĩ
Ġà®° à®¾à®ľ
di ÄŁi
Ĺà¸± à¹Īà¸§
ĠÐ·Ð° Ñī
ªà¸ °à¹Ģà¸
ta mente
à®¿à®°à¯ģà®ķà¯įà®ķ à¯ģà®®à¯į
Ġáĥķ áĥĺáĥ¡
Ġco lle
ĠÑģÐ¾Ð¾ÑĤÐ²ÐµÑĤ ÑģÑĤÐ²
ãĥĥ ãĤ°
ĠSta dt
ãĤį ãģĨ
Ġpo li
Ġáĥ¡áĥĲáĥĻáĥ£áĥĹ áĥĲáĥłáĥĺ
ĠCh icas
el ing
ãģ® ä¸Ń
Ġà¦ļ à¦¿à¦ķ
Ã© ro
íİ ĺ
t wo
ÉĻt in
Ġs atu
Ġbu dou
Ġà°ªà±įà°°à°¸à±įà°¤ à±ģà°¤
Ġà¦¶ à¦¿à¦¶
Ġe k
Ġà¤Ĩ à¤°à¥ĭ
áĥĿáĥ ©
in nen
à¯ģà®± à¯įà®±
Ġse p
áº£ nh
Øª ÙĩØ§
Ġf ilm
æĪ ¦
à¥ĩà¤¸ à¥įà¤Ł
Ġà°¤ à°Ĺà±įà°Ĺ
ì» ¤
Ġà¦¤ à¦¾à¦¹
c Ãª
Ġencu ent
Ø¹ Ø§Ø±
à°¿à°ª à±Ī
áĥĲáĥ¡ áĥĲ
ë³´ ìŀ¥
Ġë¨ ¸
Ġo tra
Ġza ch
ĠØ¨Ø§ Ø²Ø§Ø±
Ġass ur
×ķ×ľ ×Ķ
ti che
b ild
ĠU r
ĠâĢ ª
ĠØ£ÙĨ Ùĩ
à¦¿à¦¤ à¦¾
ŀà¸£ à¹īà¸Ńà¸¡à¸
ĠáĥĴáĥĲáĥľáĥķáĥĺáĥĹ áĥĲáĥłáĥĶáĥĳáĥĺáĥ¡
å®ĺæĸ¹ ä¸ĭè½½
à¤¸ à¤Ńà¤¾
Ø³ Ø§ÙĦ
ĠÎ±ÎºÏĮ Î¼Î·
ĠáĥĻ áĥĲáĥ¢
ÎĳÎ Ķ
Ġà¤² à¤Ĺà¤¾
ĠÔ µ
Ġagçİ¯äºļ éĽĨåĽ¢
2 1
ĠÐĲÐ» ÐµÐºÑģ
an ces
ĠÏĩ ÎµÎ¹
ÉĻl ÉĻ
rÃ¡ t
ĠÏĥÏħÎ³ ÎºÎµÎºÏģÎ¹
ĠÐ¼ ÐµÑģÑı
íĮ ħ
à°¿à° «
Ĺà¸±à¹īà¸ĩà¸ «à¸¡à¸Ķ
ÏĦÏħ Ïĩ
Ġè ħ
Ð¿ Ð¸Ñģ
Ġà¦¯ à¦¾à¦¬à§ĩ
Ġà¤¤à¥Ī à¤¯
¨à¸¶à¸ ģà¸©à¸²à¸
ĠÏĦÏģÏĮ ÏĢÎ¿
ìĤ° ì¶ľìŀ¥
ĠÐ¿Ð¾Ðº ÑĥÐ¿
Ġë¨ ¹
¨à¸±à¸ ŀà¸
ĠÏĢÎ± ÏģÎŃ
b el
may a
Ġå¤§åıĳ æŀģéĢŁ
çŃ ĸ
Ġà¤Ŀ à¤¾à¤²
Ġcom ent
à¸Ńà¸ ¥
ÑĭÐ² Ð°ÐµÑĤ
ĠáĥĹáĥĲáĥľáĥĲáĥĽ áĥ¨áĥłáĥĿáĥĽ
Ġs co
¸ à¹Īà¸¡
ÑĥÑĤ ÑĢ
Ġà¹Ģà¸ ĩà¸´à¸Ļ
Ġnale Å¼y
ĠØ² ÙħÛĮÙĨ
à§ ®
ti en
ĠÐ¼ Ð°ÑĢ
sta v
ĠáĥĻ áĥĲáĥļ
un ter
à±Ĩà°Ĥà°Ł à±į
Ġpi Ã¨
Ġj un
×ŀ× ĵ
à¥ĩ à¤ķ
à¦¾à¦¸ à§įà¦¥
áĥª áĥĶáĥĽ
ì²ľ ì¶ľìŀ¥
Ġdz i
ĠG ra
Ġeff et
Ġl lam
Ġà¤¨ à¤µ
à§Ģ à¦²
ĠM ÉĻr
è² »
áĥĿáĥ¥ áĥĽáĥĶáĥĵ
Ġà®īà®³à¯įà®³ à®¤à¯ģ
ĠPo kud
ĠÃ© p
Ġs ty
Ġth áº¥y
Ġà¤µ à¥Ģà¤¡
Ġol tre
Ø® Ø¯
Ġdax il
Ġ <
ĠP ri
ĠæĿ ±
Ġà¤Ń à¤°
Ġy ak
Ġwe er
áĥĶáĥķ áĥĺáĥ¡
Ġë £
Ġë ĳĲ
Ġcz ÅĤ
ãģ® ãģ§ãģĻãģĮ
Ġà¦¬à¦¾à¦Ĥà¦²à¦¾à¦¦à§ĩà¦¶ à§ĩà¦°
ĠF emme
à¦¨à§įà¦ ®
ãĥ³ãĥ ģ
à°Ĺ à±įà°°
Ġ×Ļ ×Ľ×ķ×ľ
Ġspo t
Ġnuest ra
åĪ Ŀ
ŀà¸´à¹Ģà¸¨à¸ ©
áĥĲáĥļ áĥ£áĥłáĥĲáĥĵ
ĠAG äºļæ¸¸
Ġwer k
à°¿à°Ĥà°Ĺ à±įâĢĮ
ĠÎµÎ¾ Î±
Ã³ g
ÎĻÎ ©
keit en
à§ĥ à¦·
s c
æ¬ ¢
ĠÐ¾Ð± Ð¾ÑĢ
Ġapp ar
Î¬Î½ ÎµÎ¹
Ġà¤ľ à¤¾à¤°à¥Ģ
ĠØ§ ÙĤØª
Î» ÏīÎ½
ĠÐ¿ Ð¾Ð³
Ġst ar
Ġà°¨ à°¿
Ĺ à¹Īà¸Ńà¸ĩà¹Ģà¸Ĺà¸µà¹Īà¸
Â »
åı Ī
ĠÐ¾Ð± ÑıÐ·
ë³ Ħ
Ġà®ļ à®®à¯įà®ª
§à¸´à¸Ĺà¸¢ à¸²à¸
ĠÎ± ÏģÎ¹Î¸
Ġà¤īà¤¤à¥įà¤ª à¤¾à¤¦
ÐµÐ´ ÐµÑĢ
Ġáĥ¢áĥĶáĥł áĥĺáĥ¢
ķà¸ ±à¹īà¸ĩà¸
Î»Î» Î¹
aj a
à¦¾à¦ Ļà§įà¦Ĺ
æĸ Ń
è¯ ¥
Ć ï¼Į
ĠÅŁ ey
Ħ à¸Ļà¹Ģà¸
ĠÑģÐ² Ð¾Ð¹
Ġho y
Ġà¤ª à¤¾à¤ķ
·à¹Ī à¸Ļà¸
ĠÑĢ ÑĥÑģ
Ġà¸£ à¸Ńà¸ĩ
à¯Ĥ à®Ł
Ġê² Ģ
Ġn l
Ġdes cription
Ð¸Ð² Ð°ÑĤÑĮ
Ġh ij
ÅĦst wa
Ġáĥ¤ áĥĿáĥ¢
Ġog sÃ¥
la ce
or to
Ġch á»§
Ġà¤¸à¤¾à¤® à¤¨à¥ĩ
Ġà¦®à¦¾à¦¨à§ģà¦· à§ĩà¦°
ĠØ§ÙĦÙĤ Ø±
os ial
Ġol ur
tiv nÃŃ
Ġb onne
Ġb amb
ĠæĪĲ äºº
Ġì¢ ħ
Ġhe cho
ich ten
Ġà°¸à°Ĥà° µ
Ġmiejs ce
à¦¸ à¦®
Ġse ma
Ġà®µà®¨à¯įà®¤ à¯ģ
Ġà®ªà¯Ĩ à®±
à¤¤ à¥įà¤µ
áĥĶáĥļ áĥĺáĥĲ
Ġs Ã³lo
ĠE S
r uk
Ġ201 0
Øµ Ø¯
Ġ×¨ ×§
Ġáĥ¬ áĥĺáĥĴ
ãĤŃ ãĥ£
Ġb áº£o
áĥĺáĥłáĥ ¡
Ġs f
à§ ©
Ġn es
Ġdz iaÅĤa
Ġs ouv
ĠnÉĻti c
Ãªn cia
ãģ«ãģª ãģ£ãģ¦
Ġà¦ªà§įà¦° à¦ļ
i ge
ie ra
à¥Ģ à¤ķ
Ġà¸ģà¸²à¸£à¸ŀà¸Ļà¸±à¸Ļà¸ Łà¸£à¸µ
ĠØ¹ ÙĦÛĮ
åĥ ı
b li
ĠØ± ÙĤÙħ
ĠÎ» ÎµÏĢ
ĠáĥĽáĥĹ áĥĶáĥļáĥĺ
Î¼Îµ Î½Î·
Ġà°ļà°Ĥà°¦à±įà°°à°¬ à°¾à°¬à±ģ
Ġà°ĩ à°ķà±įà°ķà°¡
åıª ä¸º
çĽ ĺ
Ð°Ð»ÑĮ Ð½Ð°Ñı
Ġs ang
ĠÏĨÎ¿ ÏģÎ¬
Ġk am
ĠáĥĲáĥ®áĥĲáĥļáĥĴ áĥĲáĥĸáĥłáĥĵ
ĠÎ ¨
ĠÑĩ Ð¸Ñģ
à±Ī à°µ
Ġà®ħ à®ķ
à¹ĥà¸«à¸¡ à¹Īà¸
ĠÎ¼ÏĢÎ¿ ÏģÎ¿Ïį
èŃ ¦
ĠÐ´ ÐµÐº
Ġes paÃ±
ĠÙħ Ùħ
à¸Ńà¸²à¸« à¸²à¸£à¸
Îº Ïħ
Ġà¦ªà¦° à§Ģà¦ķà§įà¦·
Ð°Ð» Ðµ
Ġáĥł áĥĶáĥ¡
Ġà¸§à¸´à¹Ģà¸Ħà¸£à¸²à¸°à¸« à¹Įà¸
ĠÏĮ ÏĥÎ¿
Ġma i
×ŀ ×ķ×ĵ
Ġå º
æ² ¹
è± ¡
Õ¾ Õ¥Õ¬
Ġ5 00
Ð §
Õ¸ÖĤÕ ½
Ġh Ã¼qu
Ġà¸ģà¸ ¡
Ð¸Ð² Ð°ÐµÑĤ
Ġà¸ŀà¸£ à¹īà¸Ńà¸¡à¸
Ġgrand es
Ġà®ķà®Ł à®¨à¯įà®¤
t ych
à¬¾ à¬
ĠÐ½ Ð°Ð±
à¤¾à¤¤à¥įà¤° à¤¾
Ġà¦¬à¦¿à¦ ļ
áĥĿáĥ ¨
m and
nost ÃŃ
ĠìĻ ¸
Ġto Ãłn
Ġn ich
à±ģà°¤ à±ģà°¨à±įà°¨à°¾à°°à±ģ
e x
b ÉĻt
er i
à°¾à° ¦à°¿
Ġmar s
à® ¹
Ø§Ø¹ Ø¯
×ª ×¨
ĠM as
Ġà¦Ĩ à¦Ł
Ġà®ħ à®Łà¯ģà®¤à¯įà®¤
Ġc iÄħ
Ġì§ ģ
à°Ĥà°¡ à±įà°°
ang er
à°Ĥà°²à±ĭ à°¨à°¿
Ã§ ilÉĻr
áĥĲáĥł áĥĲáĥĻ
Ġcual quier
Ġpremi Ã¨re
Ġà®ª à®¾à®²
la g
c ere
é Į
Ġáĥ¬ áĥĶáĥ¡
ĠØµ Ùģ
cu la
ĠáĥĽ áĥĺáĥļ
Ġs eit
Ġh iá»ĩu
i ÅĤ
ĠNe j
Ġà¦ķà¦¾à¦°à¦£ à§ĩ
Ġ×ĳ ×Ļ×Ł
ĠØ§ÛĮÙĨ Ú©Ùĩ
Ġo ggi
ÙĤ Ø¹
Ġb Ã¶l
Ġë² Ī
on as
Ľà¸ı à¸´à¸
ct ure
à¨ ¦
Ġà®¨à®Ł à®¤à¯įà®¤
ĠP ÅĻ
Î¿Ïħ Î»Î¯Î¿Ïħ
ĠáĥĽ áĥĲáĥĵ
ĠÏħ ÏĢÎ¿ÏħÏģÎ³
à±ģà° ĸ
Ġg Ã¬
èİ ·
à¤¾à¤ļ à¥ĩ
ĠÐ± Ð»Ð°Ð³
Ġà°ªà±įà°°à°§ à°¾à°¨
ĠÎ¸ÎŃ Î¼Î±
und es
ĠG E
ÏĪ ÎµÎ¹ÏĤ
ĠÐ¾ Ð³
ĠU S
ãģķãĤĮ ãĤĭ
¨à¸¶à¸ ģà¸©à¸²
ĠÎĶ ÎĻ
æīĭæľºçīĪ ä¸ĭè½½
ÑĢÐ° Ñħ
Ġnue va
Ġmet tre
Ľà¸£à¸ °
Î¶ Î±
c ina
Ð ¬
áĥĲáĥ £áĥļ
Ľà¸ ±à¸
ĠÎĽ Î±
ĠØ§ÙĦØ ¶
Ġda lle
æŀ Ĺ
æĻ ®
Ġå Ĵ
à¤¾à¤¯ à¤ķ
«à¸Ļà¸ ¶à¹Īà¸ĩà¸
Ð°Ð½ Ð¾
Ã©ra tion
Ġ×Ļ×© ×¨×Ĳ×ľ
Ľà¸£à¸°à¸ Ĭà¸²à¸
Ð ¥
Ĳ à¸²à¸Ļà¸
Ġà¦¸à¦®à§įà¦ª à¦¾à¦¦à¦ķ
Ġà¦Ĩ à¦ĵà§Ł
Ġà¦² à§ĭà¦ķ
A M
ÑģÑĤÑĢÑĥ Ðº
×ŀ× Ĳ
Ġb ÄĽ
Ġáĥ¡áĥĲáĥĽ áĥĲáĥłáĥĹ
Ġe igen
Ġdis pon
per ti
h b
Ã³ d
Ġà®İà®© à®ķà¯įà®ķà¯ģ
à®Łà¯įà®Ł à®¿
Ġà¤ħ à¤Ńà¥Ģ
Ġdes puÃ©s
Ġph Ã²ng
Ġpor te
Ġà®®à¯Ĥ à®²à®®à¯į
Ã¡r io
Ġà° Ľ
Ø§ÙĤ Ø©
Ġyax Ä±n
Ġau to
c m
çµ Ħ
Ġw Ã¼r
il es
ĠÚ¯ ÙĦ
Ġà¤¬ à¥ī
Ġáĥł áĥĲáĥ¦
×¤ ×Ļ
Ġà¦¸ à§įà¦ª
Ġ] [
Ġà¤¬à¤¨ à¤¾à¤¨à¥ĩ
lÄ± ÄŁÄ±
Ġt iá»ģn
ĠáĥĻáĥĲáĥľ áĥĿáĥľ
Ġì¶Ķ ì²ľ
ĠA ve
Ġáĥ® áĥĵáĥĶáĥĳáĥĲ
ëĦ ¤
à°Ĥà°ª à±Ī
cz es
ĠØ² ÙĨ
Ġà¤ľà¤¾à¤ı à¤Ĺà¤¾
m ann
ent Ã³w
ÛĮØ± ÛĮ
Ġà®ªà¯ģà®¤ à®¿à®¯
Ġaz ien
Ġt á»ĳt
à°¿à°Ĥà°ļ à°¾à°¡à±ģ
ļà¸ ±à¸Ļ
Ġres te
é ¥
hal b
Ġsc ar
Î¾ Î±
ĠáĥĴáĥĲáĥĵ áĥĲáĥ¡
Î» Î¿ÏħÏĤ
Ø² Ø©
Ġ×ľ ×ķ
æ® µ
Ġ äºĶ
ĠÑħ Ð°ÑĢÐ°ÐºÑĤÐµÑĢ
à¤µ à¤¿à¤§
Ïħ ÏĦÏĮ
Ġwszyst kie
Ġáĥ¡áĥĲáĥ® áĥļ
ĠÎĶ Îµ
ĠÐ´ ÐµÐ²
Ġy Ã¶n
ng en
à¹Ĥà¸ Ħà¸£à¸ĩà¸
ĠÎŁ Îº
è¯ Ĩ
ĠÐ¿Ð¾ ÑıÐ²
ro j
Ġf emme
à¸£à¸²à¸ ĩà¸
Î¿ÏįÎ½ ÏĦÎ±Î¹
à§įà¦¯ à§ĩà¦°
ÑĢ Ð¾Ð±
ĠáĥĿ áĥ¤
Ġà¸ªà¸³à¸« à¸£à¸±à¸ļà¸
Î¸ Î±Î½
ĠMil ano
Ġv ic
à¨ ¸
ĢâĻ ĢâĻ
çı Ń
Ġìĺ ¬
Ġà¸ «à¸¡à¸
ĠÐ¼ Ð¾
as il
ĠØ¨Ø³ÛĮ Ø§Ø±
«à¸ §à¹Īà¸²à¸
ĠÐºÐ¾Ð¼Ð¿ Ð°Ð½Ð¸Ð¸
ģà¹Ī à¸Ńà¸Ļ
à¯ģà® ·
Ġs ens
ĠãĤ ¦
Ø§ØŃ Ø©
ĠÐ» Ð¸ÑĪ
à¥ĭ à¤¡
à®® à¯ĩ
à±ĩà°· à±į
âĢĮ à°®
Ġà°ħ à°¤à±įà°¯
áĥ¢ áĥĺáĥ¡
Ġpo k
×ŀ ×Ļ×ĵ
Ã§ o
Ġem bar
Ġà¤¯ à¥Ĥ
Ġaf in
Ġà®ļà¯Ĩ à®²à¯įà®²
Ġk up
ĠF ar
etto re
áº¡ c
gra ma
w end
Ġcz erw
æĿ Ĳ
is k
ÉĻl ik
ĠCom e
è ĸ
à¤¦ à¥įà¤§
ĠáĥĻáĥĲáĥłáĥĴ áĥĲáĥĵ
ĠF ran
ĠãĢ ľ
Ġ ãģª
Ø®Ø± Ùī
Ġà¦ķà¦° à§ģà¦¨
ĠÃ¶n ce
ĠáĥĽ áĥ£áĥľ
Ġà¶ ¸
à¥ĭ à¤°à¥įà¤Ł
Ġáĥª áĥķáĥļ
Ġmom ent
Ġar ty
Ġíĸ ī
ãĥ¼ãĥ ĸ
Ġnue v
ic y
ĠÙħÛĮ ÙĦÛĮ
.. .
Ġju in
Ġgior ni
Ġç Ħ
und er
«à¸ķà¸ ¸à¸
Ġdru h
æĹ ħ
Ġà¦ª à¦¾à¦ł
it to
ĠÎ¤ Îµ
áĥļ áĥĿ
ĠÎ» Î¿Î³
elij ke
×ł ×ĺ
áł ¢
å£ °
ĠÐ¡ Ð¾
à°Ĥà°¤ à°¾
ÏĢ Î¿ÏħÏĤ
ĠmÃ¼ ÉĻyyÉĻn
Ġg ay
Ïĥ ÎºÎ¿
ĠÑģÐ»ÑĥÑĩÐ° Ðµ
Ġh um
ĠáĥĽáĥĿáĥ £áĥ
Ľà¸£à¸ ªà¸´à¸
Î¬Î½ Î¹
æ¸ ©
ĠÐºÐ¾Ð» Ð¸Ñĩ
Ġseb agai
Ġà°µ à°¾à°³à±įà°³
à¹ģà¸ Ł
ĠÎ¿Î¼Î¬ Î´Î±
Ġs ort
ÑĢÐ° Ñĩ
kan ia
à¹ ĭà¸
Î¹Î½ Îµ
Ġgior no
Ġà¤ĩà¤¸ à¤¸à¥ĩ
è¾ ¹
æŀ ģ
çĽ Ĭ
Ġà¦® à¦¾à¦²
¢à¸ ¡à¸
ÑĥÐ· Ñĭ
Ġà°® à°Ĥà°¡
Ġdec ir
¥ à¸µà¸ģ
ĠÐºÐ¾Ð¼ Ð¿Ð»
¸à¸ ĩà¸
Ġà°ªà±įà°° à±ĩà°®
ĠáĥĺáĥĽ áĥĺáĥ¡
na tion
Ġte mu
ĠÑĨ ÐµÐ½ÑĤÑĢ
Ã İ
Ġthá» ĭ
à°¿à°¦ à±įà°§
Ġà¤² à¤¾à¤ĸ
Ġà¤¦ à¥ģà¤¨
gra f
à®£ à¯įà®ª
Ø´ Ø§Ø±
à¦ķà¦¾à¦° à§Ģ
Ġ/ /
ë ·°
Ġìĸ ´
à¯Ģ à®°à¯į
Ö ĥ
Õ¡Õ ¢
Ġg Ã¼c
Ġáĥ£áĥľ áĥĺáĥķáĥĶáĥłáĥ¡
ic ia
Ġà®ĩà®¯ à®ķà¯įà®ķ
c ont
li v
Ġrec enz
Ġk li
ÙĪ Øµ
à®¤à¯įà®¤ à®¿à®°
Ġl ung
Ġà°ķà±ģà°Ł à±ģà°Ĥà°¬
Ġk at
Ġê± ´
x ico
s ÅĤu
ĠáĥĽ áĥ£áĥ®
Ġre t
à¤¾à¤® à¥Ģ
à§įà¦¯ à¦ķ
áĥĿáĥľ áĥĲ
Ġà®ħà®® à¯įà®®
Ġà®ħ à®ª
Ġs eine
Ġfo i
cze go
Ġcom er
Ġå½©ç¥ŀäºīéľ¸ 8
åľ¨çº¿ çľĭ
Ġà¤ĩ à¤Ĥà¤¡
Ġà°µà±Ĩ à°³à±įà°³
áĥĺáĥĹ áĥĺ
ĠÚ¯ Ø±ÙĪ
Ġà®Ĩ à®£
Īà¸ ³à¸Ļà¸
ĠmÃ¼ d
æ² ³
Ġmat er
Ġb Ã¡n
ÏĢÎ¿Î¯ Î·
ĠÙĦ Ø£
Î» Î±Î¹
áĥ¡áĥ¢ áĥĺáĥ¢
Ġë ł
2 6
à¥ģà¤³ à¥ĩ
ĠÐķ Ð²
Ã´ le
ĠÎķ Îļ
ĠÄĳ Æ°á»Ŀng
Ġpre cio
ÏĦ Î¯Î±ÏĤ
ĠÑģÐ» ÑĥÐ¶
ĠA c
le dnÃŃ
à¸£à¸±à¸ ģà¸©à¸²à¸
ĠÎĵ Îµ
æķĻ èĤ²
Ð¸Ð¼ ÐµÑĢ
ĠáĥĶ áĥ¢
Ġ×¤ ×¢
Ġ à¸£à¸§à¸¡à¸
ĠÎķ Î¹
Ġb Ã¼yÃ¼k
ĠÑģÑĤ Ð¾Ð»
f on
ªà¸´à¸Ļà¸ Ħà¹īà¸²à¸
ĠÏĢÏģÎ¿ ÏĬÏĮÎ½
à¦¬ à¦¾
à¤µ à¤¾à¤¨
é¢Ħ æµĭ
åĽ ´
å¼ ł
ĠÙ¾ Ø±Ø¯
à¹īà¸ ¡
Ð°ÑĤÐµÐ»ÑĮ Ð½Ð¾
Ġà°µà°¿à° ²
Ġsu b
ªà¸ ±à¸ĩà¸
ĠÐ¿ Ð¾Ð±
īà¸ ŀà¸²à¸
Ġo rang
áĥĲáĥĽ áĥĲáĥ¨
Ġa nge
e j
ĠÐļ ÑĥÐ¿Ð¸ÑĤÑĮ
Ġhom me
ĠÙĥØ§ÙĨ Øª
Ú¯ÛĮØ± ÛĮ
Ġà¤µà¥Ģà¤¡ à¤¿à¤¯à¥ĭ
à¥Ĥ à¤°à¥įà¤£
Ġon ze
à®¾à®° à®®à¯į
ĠW eb
Ã¸ l
ãģ£ ãģ
ä¾¡ æł¼
Ġà°Ĩ à°²à±ĭ
Ġà®¤à®®à®¿à®´ à®ķ
der land
e f
Ġà¦¸à§įà¦¥ à¦¾à¦¨
áĥĶáĥłáĥ ®
id ente
Ġà®µà®° à¯Ī
il ler
ãģ¡ ãĤī
ãģ ²
Ġa ura
ĠnÄĽj ak
ìµľ ê³ł
ë³´ ê¸°
´ë ı
Ġà®®à®¾à®µ à®Łà¯įà®Ł
ãģĶ ãģĸ
Ġna da
ãĤ³ ãĥŁ
Ġ×Ĳ ×¨
Ġd ost
ä¹ Ŀ
à°¯ à±ĭà°Ĺ
ov er
à®¯ à®®à¯į
Ġáĥ¨áĥĶáĥ ª
ĠáĥĲáĥłáĥ¡áĥĶáĥĳ áĥĿáĥĳáĥ¡
Ã¶ ff
Ġ ãģ«
Ġe fec
à´¿à´ ļàµįà´ļ
à´Ļàµįà´ Ļ
Ġ à·ĥ
Ġà®ķ à®¾à®¤
ĠìķĦ ëĭĪ
Ġh in
à®¾à®° à®£
Īà¸²à¸ ģà¹Ģà¸
ant Ã©
Ġ2 22
cu te
Ġt ÅĻe
ĠÏĢ Î»Î®
Ġng o
Î²Î¿Î» Î®
ma ÄŁa
Ġk os
ĠéĤ £
å ª
ĠÑĥ Ð·
ĠØ® ÛĮ
ĠÎºÎ± ÏĦÎ·Î³Î¿
ti Ã¨re
ci dad
Î³ Î¿Ïħ
Ð¾Ð² Ð°Ñı
Ġì Ĥ°
Ġw ill
Ġà¸ ľà¸¹à¹ī
ÏĦÎ± ÏĥÎ·
å± ŀ
ĠÑģ Ð½
Ø± Ø§Øª
áĥĲáĥ¤ áĥłáĥĹáĥ®
Ġà¸ŀà¸Ļà¸ ±à¸Ļà¸
ĠÏĦ ÏĮÏĦÎµ
ĠCom o
ĠÐ³ Ð¾ÑĤÐ¾Ð²
Ġpod czas
Ġ' ,
Î¸ ÎµÎ¹
Ġw en
Ġà¤µà¤¿à¤ķ à¤¾à¤¸
Ġå¤§åıĳ å¿«3
èĲĦ äº¬
æĶ¿ åºľ
tiv es
¹ à¹ī
ĠÐ¾Ð± ÐµÑģÐ¿
Ġque lla
Ġd ne
ķà¸±à¸ Ķà¸
ÑĢÐ° ÑģÑĤ
¶ à¹Īà¸ĩà¹Ģà¸
Ġà¦ªà§įà¦° à¦¦
r ÃŃa
Ġpro bl
ĠáĥĻ áĥ£áĥļáĥ¢
Ð» Ð°Ð¼
Ġt or
Ø¶ Ø§
ÙĨ ÙĬÙĨ
Ġà¤ªà¤¿à¤ Ľ
Ġà¤¸à¤Ĥ à¤¬à¤Ĥà¤§
Ġ×ŀ×Ĺ ×Ļ×¨
Ġà®ķ à®´
n ice
el ig
Ġï¼ ĳ
å¿ħ è¦ģ
lÉĻrin dÉĻ
Ġà®¤ à®¿à®©
Ġáĥ®áĥĶáĥļ áĥĽ
ĠG Ã¼n
Ġ×ŀ ×¨
í ļ
ĠP R
à®¿à®® à¯ģà®ķ
Ġkil ka
c Å¯
Ġà¦ķ à§įà¦²
menta ires
un o
Ú¯ Ùĩ
ĠáĥĽ áĥĴ
à°¾à°ķ à±įà°Ł
Ġà®¨ à®¾à®©
ĠG ar
Ø¨ ÙĬØ©
ĠØ¨ Ø§ÙĨ
Â º
ĠÂ ²
Ġà¤® à¤ľ
ĠÄĳ á»ĳi
a ires
à®¿à®¯ à®¾à®©
Ġz ich
Ġm Ã¶
ì¶ľìŀ¥ë§ĪìĤ¬ì§Ģ ìĥµ
Ġë° ķ
ess en
Ġà¤¬à¤¦ à¤²
Ġà¤ĸà¤¿à¤² à¤¾à¤«
à¤µ à¤¾à¤Ī
t te
áĥļ áĥĲáĥĵ
ze m
ĠÙģØ¹ Ø§ÙĦ
Ĺà¸ ±à¹īà¸ĩ
Ġ×ľ ×ĵ
Ġè ¡
à±ģà°¦ à±įà°§
ìĨĮ ìĿ´ìĬ¤
ÎµÏħ ÏĥÎ·
íķĺ ì§Ģ
ĠÎł ÎŃ
ce ption
kan ie
Ġç§ Ĵ
æĿ ĳ
ĠÑı Ð·Ñĭ
à§Ģ à¦¯à¦¼
ĠÏĨ Î¹
Ġg ÉĻtir
Ã¤ re
ĠÎ¼ÎµÎ³Î± Î»ÏįÏĦÎµ
ĠÑģ Ð¾ÑĤ
Ġch w
ĠáĥĴáĥĲáĥĽáĥĿ áĥĺáĥ§
Ġ00 Z
ĠÎ» Î¿Î¹
ĠåĬł æĭ¿å¤§
ÑĢ ÑĭÑĤ
ab les
Ġvol ta
Ĥà¹īà¸Ńà¸¡à¸¹à¸ ¥à¸
ÏĦÎ¹ Î¬
ĠT y
ĠÐ¼Ð°ÑĤÐµÑĢÐ¸ Ð°Ð»
ĠÃ§ o
¶à¸ ģ
ĠÏĥ Ïī
C H
àµģà´ Ł
éĵ ¶
3 65
Ġ3 8
à¯ĭ à®°à¯į
ļà¸ ±à¸įà¸
ĠÐ¡ Ð°Ð¼
ØŃØ¯ Ø©
Ø± Ø§Ùĩ
Ġ à¹Ħà¸Ĺà¸¢
ĠÑĢÐ°Ð· Ð»Ð¸Ñĩ
¡à¸²à¸ Ĭà¸´à¸
ĠEs p
ti o
Ġge f
in ya
Ð¸Ñı Ñħ
Ġis te
Ġl iv
áĥĽ áĥĲáĥª
Ġà¤¬ à¤¸
àŃį à¬
Ġo tras
ĠB as
ne lle
ĠÂ ¶
Ġtiáº¿ p
×ł ×Ļ×ª
ãĤī ãģĦ
Ġà®µà®³ à®°
Ġqu ali
ãģĹãģ¦ ãģĦãģ¾ãģĻ
lÉĻr dÉĻn
ĠÙĪÙĩ ÙĪ
t Äħ
ÙĦÛĮ ÙĦ
Ġw ol
Ġà°¦à°°à±įà°¶ à°ķ
Ġg leich
ĠÃ© conom
áĥķ áĥĲáĥł
I O
ar si
Ġà°¨ à°¿à°µ
ov nÃŃ
ëŁ ī
à®£ à®¿
t schaft
Ġl id
Ġn ivel
à¤¿à¤¯ à¤¨
Ġáĥ ĸáĥĶ
Ġan nÃ©es
à¯ģà®¤ à®²à¯į
Ġx alq
Øº ÙĬØ±
ĠI hnen
Ġ×Ĺ ×ĳ×¨
ar an
Ġà¤ªà¥įà¤° à¤®
h ol
Ġric erca
ê°ķ ì¶Ķ
ĠìĨ į
Ġele kt
áĥĲáĥ¨áĥķ áĥĺáĥļáĥĺáĥ¡
§à¸ Ķ
Ġáĥĵ áĥĶáĥŀ
æıĲ ä¾Ľ
ĠÙĩ ÙĨ
à¤² à¥ĭà¤Ĥ
ĠÎ±Î¾ Î¹Î¿
ĠáĥĹáĥĲáĥķ áĥ¡
ĠÎ± Î¯
e ur
ĠJe ÅĽli
â ĸ
3 5
Ð°ÑĤ Ð¾Ð²
Ġposs ibile
ÏĦÎ® ÏģÎ¹Î¿
Ġcon tin
Ã ķ
Î½ Î¿Ïħ
ĠÑĤ Ð°Ð¼
wa ÅĤ
Ġth iáº¿t
ļ à¸£à¸£à¸
ĠÎµ ÎºÎ±
å® ¤
ĠÑģÐ¾Ð± ÑģÑĤÐ²ÐµÐ½
Ġà°ħ à°®à±Ĩ
Õ¡ÖĢÕ ¤
Ľ à¹ĭ
Î¿ Î´Î¿
Ġq or
ÐµÐ´ Ð¸ÑĤ
ĠáĥĽáĥĶáĥł áĥĶ
ļà¸±à¸ ķà¸´à¸
Î¹ÎºÎ¿Ïį ÏĤ
om i
ĠØ± Ø¦ÙĬØ³
à¨ ķ
Ġæī Ģ
æ¼ Ķ
ĠJahr en
Ĺà¸ ĩ
ĠÑį ÑĦÑĦ
à±Ĩ à±ĸ
ÙĬÙĦ Ø©
¸à¸ĩà¹Ģà¸ Ĺà¸
ĠÑĥ Ð±
à¸£à¸¹ à¹ī
Ġtrav Ã©s
au d
ë ĳ
Ġ×Ļ ×Ķ
Ð¸Ð·Ð½ ÐµÑģ
Ġà®µà¯ĩ à®²
Ġà°¤à°° à±ģà°µà°¾à°¤
ĠáĥĹáĥĺáĥĹ áĥ¥
ku je
ĠØ§ÙĤØª Øµ
Ġan dere
Ġn ÃŃ
Ġà¤« à¤¼
Ġìĥģ íĴĪ
Ġk im
Ġë³ Ģ
ĠhÉĻy ata
Ġà®ļ à®¿à®µ
Ġp age
ĠS on
Ø³Øª Ùħ
Ġà®¨ à¯Ĥ
al nie
me ye
ĠCh aussures
se z
Ġà§§à§ «
c in
áĥĶáĥĳáĥĺáĥĹ áĥĺ
×¤ ×ĺ
Ġà¦ķ à§Ł
Ġh á»Ļi
Å¡ i
Ġà¦ķà§ĩà¦¨ à§įà¦¦à§įà¦°
ĠP are
Ġencont rar
dÄ± q
Ġâĸ ł
ĠãĢģ ãĢĮ
áĥĺáĥł áĥĶáĥĳáĥ£áĥļ
ĠÃº Äį
ĠØ§Ø¯ Ø§ÙħÙĩ
ra ge
Ġj an
ĠG ran
Ú© Ø±Ø¯
ë¯¸ ëħĢ
ëĵ¤ ìĿĢ
ÙĦ ÙĤ
Ġà¦« à¦¿à¦°
Ġà®¤ à¯ĩà®ļ
Ġv Ã¡m
Ġ9 0
Ġáĥŀáĥł áĥĶáĥĽ
Ġà¸ Ŀ
Ġáĥ« áĥĺáĥł
Ġï¼ļ âĢľ
à±ĭ à°·
Ġà°®à°¾à°¤à±įà°° à°®à±ĩ
ĠÎŃ ÏĦÏĥÎ¹
Ġf ik
ÎĻÎ£ Î¤
Ġna tion
Ġs ÅĤ
èŀ į
Ġè¿ ĺ
ÑĥÐ½ Ðº
á»Ń a
ĠÎ´ ÏģÎ±
Ġhom bre
a pa
ĠÎ§ ÏģÎ¹Ïĥ
ÑĨÐ¸ Ð¿
Ġje ÅĽli
Ġho tel
ŀà¸´à¹Īà¸¡à¹Ģà¸ ķà¸´à¸
Ïĩ Ïİ
ç¬¬ ä¸Ģ
ÐĿ Ðĺ
ĠA ngebo
Ġ×© ×¢
ľà¸´à¸ §à¸
Î¼ ÎŃÏĤ
Ġy ay
ÐµÐ½ Ñģ
ĠÙĬ ØŃ
à¹Ħà¸ «à¸Ļà¸
Î¬Î½ ÏĦÎ·ÏĥÎ·
à¯ģà®ªà¯įà®ª à¯ģ
Ġa unque
à¤¾à¤Ĥà¤ļ à¥Ģ
éĻ į
Ġåħ ¬
kan n
Ġà¸ Ĭà¸¸à¸
ĠÐ´ Ð°Ð²
Ġf unk
à¦¾à¦® à§įà¦ª
à¸£à¸°à¸ «à¸§à¹Īà¸²à¸
ĠÐŁ ÐµÑĤ
b ob
áĥķáĥĲáĥļáĥĺáĥ¡ áĥ¬áĥĺáĥľ
ĠG io
hle d
Ġ3 1
ĠÐ½ Ð¾Ð¼
Ġpar tico
Ġt áº¿
Ġes a
z d
Ġà®®à¯ģà®¤ à®²
ĠáĥĹ áĥĶáĥĽ
ãĥ© ãĤ¹
ĠÙĪ ÙģÙĬ
ĠØ·Ø± ØŃ
ĠU omo
di zione
à¯įà®ļ à¯įà®ļà®¿
Ġáĥ¥áĥĲáĥłáĥĹ áĥ£áĥļáĥĲáĥĵ
Ġsou ha
Ġà¦¬à§įà¦¯ à¦¾à¦ª
Ġà°µà°¿à°µ à°°
Ġan te
Ġpoz w
ĠØ§ Ø¹
Ġd onn
Ġf ile
à±ģà°ķ à±ģà°¨à±įà°¨à°¾à°°à±ģ
Ġroz po
áĥł áĥĶáĥĹ
Ġat tra
Ġ×ĳ ×ĵ
l ÉĻm
Ġg ir
Ġk ostenlos
h em
Ġt ar
Ġà°¸à°Ĥà°µ à°¤à±įà°¸
Ø§Ø³ Ø©
ãģĵãģ¨ ãĤĴ
Ġbe d
Ġà¦¸à¦® à§įà¦®
Ġà®® à®¾à®±
Ġc Ã´
ĠsÃ© cur
ĠáĥĲáĥ¦ áĥĲáĥł
az u
ĠÙħ Ø®Øª
âĢ ĺ
Ġà¤ķ à¥ģà¤®à¤¾à¤°
Ġà¤¹ à¤¿à¤Ĥà¤¦
ĠV al
Ġm ill
Ġczy li
Ġáĥ¡áĥĲáĥĻ áĥĽ
Ġà¸ĸ à¸Ńà¸Ļ
à¤¾à¤° à¥ĭà¤Ĥ
çķ ¥
à¦£ à¦¾
we e
ĠÎºÎ± Î¸Î·
×ķ ×ķ
ĠÎł Î¬
Ġtá» ķ
w is
± ¼
æĻ º
Ð³ Ð°
Ġ iyi
Î»Î» Î¿
mit tel
Ġpub bl
ĠÏħÏĢÎ¬ÏģÏĩ Î¿ÏħÎ½
ĠÐ¿ÐµÑĢ ÐµÐ²
cz one
Ġd ÉĻn
bob et
ÎµÎ¯ ÏĦÎµ
è Ľ
Ð¸Ð»Ð¸ ÑģÑĮ
Ġrec ens
à§įà¦° à¦¾à¦¨à§įà¦¤
à¸Ļ à¹Īà¸²à¸
ĠÎ£ ÎµÏĢ
id as
ĠÐ½ÐµÑģÐº Ð¾Ð»ÑĮÐºÐ¾
ĠØ¯ Ø§Ø¯Ùĩ
ľ à¸´à¸Ķà¸
ÏĢÎ¿Ïħ Î»Î¿ÏĤ
áĥķ áĥĲáĥ¡
Ġà¤µà¤¿à¤ ľ
åĢ Ļ
4 9
Ġ3 5
Ġà°ľà°¿à°²à±įà°² à°¾
Ħ à¸²à¸
Ð¸Ðº Ðµ
ski m
Ġve d
à¹Ģ à¸Ńà¸²à¸
ĠÐ¼ Ð¾ÑĢ
à¹ģà¸£à¸ ģ
Ġà°ī à°Ĥà°¦
Ġdon na
à®° à®¾à®ķ
ĠS tu
ÐµÐ¼ Ð¾Ð½ÑĤ
Ġsecon do
is c
Ġprodu it
Ø³ ÙĦØ§Ùħ
íĻ ĺ
Ġà°ķà°² à°¿à°¸
ĠD el
ĠÙĦ ÙĥÙĨ
à§ģ à¦ª
m ana
Ġà¦ªà§įà¦°à¦¤ à¦¿
áĥĲáĥ« áĥĺáĥ¡
áĥł áĥĺáĥĴ
c tions
Ġà¤°à¥ģà¤ª à¤¯à¥ĩ
à¤¸à¥įà¤¥ à¤¾
ĠA uch
Ġs ÅĤu
à¯Īà®ªà¯įà®ª à¯ģ
ĠØ¬ Ø§Ùħ
Ġt ÉĻ
ï ¹
ë¦ °
der a
nÄĻ trz
ĠUnter nehmen
×ľ ×Ĺ
Ġáĥ£áĥ¤ áĥļáĥĶáĥĳ
ãĤ ¡
Ġà°µ à±Ģà°°
ĠØ® Ø¯Ùħ
ĠV ideo
Ä±m Ä±z
à±ĥ à°¦à±įà°§
Ġáĥ¡áĥĻ áĥĿáĥļ
Ġte mat
ib les
Ġd lou
ĠB il
Ġse u
Ġzw ischen
Ġvá» ĭ
ĠS am
à¦¬à¦¿à¦¦ à§įà¦¯à¦¾à¦²
Ġáĥł áĥĲáĥĿ
Ġà¤ħ à¤¤
gun akan
sz Äħ
ĠO p
Ġà¸ŀ à¸£à¸µà¹Ģà¸¡à¸µà¸¢
ĠØ¯Ø³Øª Ú¯Ø§Ùĩ
99 9
Ġà°ļà±Ĩà°ªà±įà°ª à°¾à°°à±ģ
Ġde be
Ïĩ ÎŃÏĤ
Ġà®®à¯ģà®ķà¯įà®ķ à®¿à®¯
ĠÎ»ÏĮÎ³ Ïī
Õ¥ÖĢ Õ«
Ġqo y
ä¾ Ŀ
çī Ľ
ĠÑģÐ» Ð¾Ð²
ĠBaÅŁ kan
Î´ Î·ÏĤ
à§ģà¦ ¶
y en
Ïĩ Î¿ÏĤ
ĠÐº Ð°Ð¼
te ÅĻÃŃ
Ø¬ ÛĮ
Ħà¸£à¸ ±à¹īà¸ĩà¸
ĠÎŃ Î³
à¤² à¥įà¤¯
ĠÑģ ÐºÐ°ÑĩÐ°ÑĤÑĮ
ÙĦ Ø§Ø«
Ġáĥ¬ áĥĽ
Ġà¹ģà¸ ªà¸Ķà¸
ĠÎº ÏģÎ¯
à°°à±įà° §
ĠÐ§ ÑĤÐ¾
r il
Ĭà¸ ¡à¸
Î¶ Î¿ÏħÎ½
c ce
Ġå ī
à¨¾à¨ Ĥ
çĶ ³
éª Ĺ
ê²Į ìŀĦ
Ġà¹ģà¸ ļà¸
ÐµÐ´ Ð¸Ð½
ë¸ Į
à¦¾à§Ł à§ĩà¦°
¸ à¹īà¸¡à¸
ĠÐ´Ðµ ÑıÑĤÐµÐ»ÑĮ
Ġà¸ªà¸¹à¸ ķà¸£
Ġm ise
Ã© b
à§ĭ à§Ł
Ô ±
ÐµÑĢ Ðº
za d
ĠM ont
ph one
à¥ģà¤ §
Ġáĥľ áĥĺáĥ¨áĥľ
à°¿à°¸à±įà°¤ à±ĩ
ĠÙħØŃ ØµÙĪÙĦ
Ġgo dzin
Ġlo áº¡i
ÙĪ Ø§Ø±
×¨ ×ļ
Ġh ans
Ġer st
Ġz elf
à§ģ à¦Ĺ
Ġà°Ĩ à°¨
ĠP ub
Ġciu dad
Ġou ver
Ġà´ ļ
¿ Ģ
èµĦ æºĲ
Ġå¹¸è¿Ĳ é£ŀèīĩ
à¤¿à¤ «
Ġu omo
Ġà¦¹ à¦¾à¦¤
áĥĲáĥķ áĥĲ
Ġà°¶ à±įà°°
à¯įà®© à¯ģ
Ġà°ªà±įà°°à°¯ à°¤à±įà°¨
Ġà®®à®° à¯ģà®¤à¯įà®¤à¯ģà®µ
áĥĿáĥĳ áĥĵáĥĲ
Ġger Ã§ek
Ġet ter
an der
Ġqu ale
at s
Ġby ÅĤa
ç ¸
ë° ķ
ĠØ§ÙģØ² Ø§ÛĮØ´
Ġhod no
Ġu ÅŁaq
Ġde llo
ĠÙĪØ§ÙĦ Ø£
Ġà¤ı à¤®
Ġà¦ķà§ĩà¦ ī
ĠmÅ¯ Å¾ete
à¯Īà®¨à¯įà®¤ à¯ģ
à¹īà¸Ļà¹Ģà¸ ¥à¸·à¸Ńà¸Ķà¸
ãģ¨ ãģĵãĤį
à¤¶ à¥Ģ
ĠÙħØ¯ ÙĦ
Ø¨ Ø§Ø±Ùĩ
ĠÏĥÎ· Î¼Î±
Ġfo llando
ÏĦÎ¯ Î¿Ïħ
Ġun os
ĠãĤ ±
Ġè¦ ģ
Ġæ ĭ
ĠÐ¿ÑĢ Ð°ÐºÑĤ
áĥĶáĥĳ áĥĿ
ĠÏĨ Î¯
Ġà°ħà°¦ à±ĩ
áĥķ áĥĵ
ĠÎ· Î»ÎµÎº
Ð¸Ð» Ð¾
pa da
ìĨ ¡
à¹Ģà¸£à¸´ à¹Īà¸¡à¸
ĠÎĺÎµ ÏĥÏĥÎ±
éľĢ è¦ģ
ĠÐ±ÑĥÐ´ ÑĥÑĤ
Ġà¦ī à¦¦à§įà¦¦
à®® à®¾
¡à¸²à¸ ĵ
ĠÏĢ Ïħ
Ġà®īà®¯ à®¿à®°
ĠÑģÐ´ÐµÐ» Ð°ÑĤÑĮ
Ġas so
ĺà¸£à¸£à¸ ¡
ÏģÎµ Ïį
Ġà°¦à°Ĺà±įà°Ĺ à°°
áĥĿáĥĳ áĥĺáĥļ
à¥ĩà¤ ³
éĿŀ åĩ¡
Ġà¨ ª
ĠBar celona
à¹Ģà¸ §
Ð» ÐµÐº
lica do
tov Ã¡nÃŃ
Ġ256 1
ĠÐ² Ð¾ÑĤ
à¸²à¸ªà¸´ à¹Ĥà¸Ļà¸
ĠC an
Ġtr ouver
ëŁ ¼
Ġko rzy
ÑĮ Ðµ
Ġ×ķ ×©
la gen
ãĥĸ ãĥ©
Ġà¤ªà¥įà¤° à¤ķà¤¾à¤°
ĠÙĬ ÙĥÙĪÙĨ
áĥķáĥĶáĥ £áĥļ
ĠÙħ Ø§ÙĨ
ĠAve c
ah n
Ġt Ã¬nh
ic ulas
ãģ§ãģĻ ãģŃ
åı İ
Ġà¦ķà¦°à§įà¦®à¦ķ à¦°à§įà¦¤
ĠmÉĻk tÉĻb
Ġli ve
Ġp ie
à®ªà¯įà®ªà®Łà¯įà®Ł à®¤à¯ģ
Ġkl ein
Ġà¤ª à¤¤à¤¾
iz met
Ġà¦¸ à¦¾à¦²à§ĩ
à°¿à°¸à±įà°¤ à±Ĥ
al ny
Ġà¤ªà¥įà¤° à¤§à¤¾à¤¨
Ġmar aq
Ġni veau
Ġvo cÃª
Ġà¤® à¥Ĥà¤²
Ġ ant
æĿ ±
Ġ×Ľ ×ļ
Ġp Å¯
Ġê²ĥ ìĿ´
Ġà°İ à°¨
Ġqiy mÉĻt
Ġbar dziej
à±ģà°¨à±įà°¨ à°¾à°¯à°¿
ll ik
ØŃ Ùĩ
Ġà°¨ à°¾à°²
s am
ĠáĥĴ áĥĲáĥłáĥĵ
Ġba ck
on Ã¡
ĠÙĨ Ùĩ
Ġ6 0
ĠhÉĻy at
cto bre
¸ à¹Īà¸Ļà¸
å© ļ
æł ¸
à±ģà°Ĥà°Ł à±ĩ
yste m
Ïĥ Î¿Ïħ
Ġperson a
ĠÏĨÏī ÏĦÎ¿
A CI
ĠpÅ¯j Äįky
Ġçİ¯äºļ æ¸¸æĪı
å¿ Ĺ
ÐµÐ» Ð¸Ñĩ
c enÃŃ
ĠÏĥ Î±
rÃ³ Å¼
Ġt Ã¡c
Î³ ÎŃÎ½
ĠÑģ Ð¸Ð»
ç¨ ®
Ġste j
«à¸±à¸ §
ÏİÎ½ ÏĦÎ±ÏĤ
åº ķ
ĠÑįÐº Ð¾Ð½Ð¾Ð¼
×ķ× ¥
Ġà°¸ à°¾à°Ĺ
à¸Ńà¸¢à¹Īà¸²à¸ ĩà¹Ģà¸
Ġï¿½ï¿½ï¿½ï¿½ï¿½ï¿½ ï¿½ï¿½
Ġáĥĳ áĥĲáĥĸ
ĠÑģÐ¼ Ð¾ÑĤÑĢ
Ã§ on
¥à¸ Ķà¸
ĠÎ± Î»Î»Î±
Ġà°®à°¹ à°¿à°³
à®© à¯ģà®®à¯į
à« ĩ
Ġà¤ħ à¤¸à¥ĩ
éĩį è¦ģ
ĠFo tos
à¹ģà¸ Īà¸
ĠÐ°ÐºÑĤ Ð¸Ð²
Ġv enta
ĠØ¢ Ø±
Ĥà¹īà¸Ńà¸¡à¸¹à¸ ¥
Ð¸Ñģ Ñģ
Ľà¸£à¸°à¸ ģ
Ġà´ ĩ
Ġà¤ª à¤¤à¥įà¤°
Ġà¦ķà¦° à¦Ľà§ĩ
ĠbaÅŁ qa
Ð¸Ð² ÑĪ
Ġà¤ķ à¥įà¤²
Ġb in
ĠL E
Ġsh ort
ĠáĥĹáĥĲáĥķ áĥĺ
f te
ĠØ§ÙĦ Ø¨Ø±
Ġserv ices
Ġà®® à®²
Ġáĥ¡áĥĲáĥ¥áĥĲáĥłáĥĹáĥķáĥĶáĥļ áĥĿ
ur idad
áĥ Ł
ĠØ§Ø± Ø²
Ġíķľ ëĭ¤
m on
Ġà¦¬à¦¿à¦¶à§įà¦¬ à¦¬à¦¿à¦¦à§įà¦¯à¦¾à¦²
Ġcor re
or u
Ġáĥľ áĥĿ
Ġz em
Ġà¦īà¦ªà¦ľ à§ĩà¦²à¦¾
Ġà¦¦à§ģ à¦°à§įà¦
Ġà°¬ à°²
ĠÂ ¸
Ġn ay
à¥ĭ à¤·
áĥ«áĥ¦ áĥķáĥĲáĥľ
Ġgratu it
Ġmem b
Ġe llos
ĠØ¯ ÙĦ
ĠØ§ÙĦ Ø§Ø³
Õ¸ÖĢÕ ®
ĠÖ ī
à±ĩà° ¹
Ġlay ih
al d
Ġà®ªà¯Ĭ à®¤
ĠØ« Ùħ
Ġà°ĩ à°²
Ġà°ķ à±ģà°®
×ĳ ×ª
Ġáĥ¬ áĥĶáĥł
Õ« Õ¿
k ÉĻn
Ġdies es
par t
à¤¿à¤ £
ØªÙħ Ø§Ø¹
Īà¸±à¸ Ķ
Ġsu cc
é¡¹ çĽ®
Ġà°īà°¦à±įà°¯ à±ĭà°Ĺ
Ú¯ Ø°
ĠÎĶ ÎĹÎľ
Ġs istema
á½ Ĳ
Ġíķĺ ëĬĶ
ĠØ¬Ùħ ÙĬØ¹
åİĨ åı²
éĶ Ģ
Ð¾Ð´ Ñĭ
Ġwy da
Ïĥ ÏīÏĤ
Ġà¦¶ à§ģà¦§
ĠÃ¥ r
ĠÎĻ Î±Î½
ÑĤ Ñĭ
ra da
ab en
ªà¸¸à¸ Ĥà¸
ÎµÏĢ Î¹Ïĥ
ç« ł
ĠÑģ ÑĥÐ¼
çļĦ ãģ«
he d
c lub
ĠÎ¬ÏģÎ¸ ÏģÎ¿
áĥłáĥ£áĥ ¥
ĠÐ¿ÑĢÐµÐ´ Ð¿ÑĢ
Ġ×ľ ×¡
Ľà¸£à¸° à¹Ĥà¸¢à¸
Î» ÎµÏĤ
à°¾à° ł
Ġà®ħà®¤ à¯Ī
æį ¢
Ġ äºĮ
çłĶ ç©¶
.... ....
ª à¸²à¸£
ÐµÐ½ Ð½Ð°Ñı
en cias
ci w
à¸£à¸²à¸ĩà¸ §à¸±à¸
ĠÐºÐ¾Ð½ ÑĤÑĢ
à¸£à¸§à¸ ¡
is en
i kan
Ġà¤¬ à¤¨à¤¾
Ġà®ªà®¤ à®¿à®µ
ĠÐ¾Ðº Ð°Ð·
ĠÙģ Ø¥
Ġà§§à§ ª
ni enie
Ġc áº§u
áĥĲáĥ§ áĥĿáĥ¤
Ġëĭ ¬
Ġà¦Ĩà¦ĵà§Ł à¦¾à¦®à§Ģ
à¦ķ à¦¾à¦²
K A
Ġáĥ¥ áĥł
Ġ @
áĥĺáĥĻ áĥ£áĥł
c ych
ard in
Ġà®¤à¯ĩà®° à¯įà®¤
Ġpo tre
an ol
Ġv ou
ĠáĥĲáĥĽ áĥĲáĥ¡
ÙĪÛĮ ÛĮ
Ġà®µ à®¿à®®
Ġ×ĳ ×Ľ×ľ
à°¾à°² à°¤à±ĭ
r Ã³w
tick Ã©
Ġso ciÃ©tÃ©
áĥĲáĥ¢ áĥĺáĥ¡
Ġà¦ĩ à¦¤
Ġà¤¸ à¤¦
Ġc alidad
ĠtÉĻq dim
ĠB on
tem bre
iler i
à±ģà° ľ
vo or
Ú© Ø§Ø±
i ques
va to
à°Ĥà°¡ à±į
à°² à°¨
ÙĪØ± ÙĬ
ĠáĥĶáĥ¥ áĥ¡áĥŀ
è¶³ çĲĥ
Ġà¤Ń à¤¾à¤Ĺ
cc io
æ¤ ľ
Ġc m
Ġro ce
ķà¸ ³
ĠJ ahre
âĢ ĭ
owan iu
ung an
ĠÏĢÎ±Î¹ ÏĩÎ½
Ġcon si
Î¿ ÏĢ
Ġk ÉĻs
ĠÙ¾ Ø§Ø³
å± Ĥ
å¤§ å°ı
Ð¼ Ðµ
×¨ ×ķ×ª
ÏĢÏĮ Î½
Ġprzypad ku
Ġt ÃŃnh
ĠÏĨ Ïį
ÑıÑĤ ÑģÑı
Ġhor as
ë¦ ¼
Ġà¹ģà¸ «
ÏĮÏĦÎ· ÏĦÎµÏĤ
Ġ4 9
ĠÐ¾ÑĤÐ½Ð¾ ÑĪ
Ġdem ande
ce ÄŁ
Ħà¸ ·à¸Ńà¸
ĠÎ±Î½ Îµ
ĠáĥĲáĥļ áĥĳ
ĠÑĥ Ð¿
Ġon s
à¸£à¸°à¸ļà¸ ļ
Ïĥ ÏĮ
ĠØ¹ Ú©Ø³
à°¾à°³ à±įà°²
åĨ ľ
Ġæ ¸
åĶ ®
Ġd ise
Ġ à¸£à¸±à¸ļ
Ð° ÑĨÐ¸Ñİ
Ã³ m
à¦¿ à§İà¦¸
à¹Ģà¸ķ à¸Ńà¸£à¹Į
ĠÐ¿ ÑĥÑĤ
à¹ģà¸ķ à¹Īà¸ĩà¸
Ġà®ľ à®©
à°µ à°¾à°°à°Ĥ
Ġm ÅĤo
Ġbr uk
ĠÐ²Ñģ ÐµÐ³Ð´Ð°
q iq
ĠDies e
ãĥŃ ãĤ°
Ġmak en
Ġáĥ¡áĥŀáĥĶáĥª áĥĺ
Ø¬ Ø¯
Ú¯ ÙĪ
ãĥ¼ ãģ®
os podar
ĠáĥĽ áĥĲáĥłáĥĹáĥļ
Ġp an
ĠáĥĲáĥ ª
à®¿à®° à®¿
man de
è§Ĩé¢ĳ åľ¨çº¿è§Ĥçľĭ
Ġà¤Ľ à¥ĭà¤Ł
à¯Ĥ à®ķ
Ġau c
Ġáĥª áĥ®
Ġam or
Ġà¦Ĺ à§ĩà¦²
Ġà°ī à°¤à±įà°¤
Ġà®ªà¯Ĭ à®±
à¦² à§ĭ
Ġì° ½
rie ur
Ø´ Ùģ
Ġà¦ªà¦°à¦¿à¦ļ à¦¾à¦²
ĠáĥĽáĥĿáĥ¥ áĥĽáĥĶáĥĵ
Ġv uel
Ġtaraf Ä±ndan
Ġposs ono
v lÃ¡
ĠØ® Ø§Ø±
ĠíĶĦ ë¡ľ
nic y
èª Ń
Ġ×Ķ× Ŀ
g ent
Ġà¦¸ à¦¾à¦¬
Ġà®¨ à®®
Ġf az
ĠáĥĽáĥĿáĥ¥ áĥĲáĥļáĥĲáĥ¥
ãģ© ãģĨ
st and
Ġcon stru
Ġà°ĩà°¤ à°°
ãĥ¼ãĥ ĵ
Ġëį °
«à¸¡à¸²à¸ °à¸
Ġà®¤à®© à®¤à¯ģ
é ±¼
ĠÕ¨ Õ¶
Õ¸Õ ½
Î»Î¿Î³ Î¹Ïĥ
as it
ĠÎµ ÏĢÎ¿
ka ÅĦ
Ġà¦Ĩ à¦¤
è§£ æ¢¦
ç ¿
Ð¾Ð³ Ð¾Ð²Ð¾ÑĢ
b av
Ġ ÏĪÎ·
ĠA ng
Ġà¤®à¤¹ à¤¿à¤²à¤¾
Ġ ÏİÏģÎ±
Ð½Ð°Ðº Ð¾Ð¼
à¤ķà¥įà¤Ł à¤°
Ġà¦¹à¦² à§ĭ
Ġà¸§à¸´à¸ĺ à¸µà¸
ÏĦ ÏīÏĤ
Ġæīĭ æľº
ÐµÑĢ Ñģ
ĠØ¨Ø² Ø±Ú¯
Ġex pl
à¹Ħà¸ Ĥ
Î¾ Î±Î½
ĠáĥłáĥĲáĥĿ áĥĵáĥĶáĥľ
ĠÑĥ ÐºÐ°Ð·
Ã Ĩ
§à¸ ¥à¸²à¸
Î³ Î¬Î»
Ì ī
Ġph ÃŃ
Ġå¤§åıĳ ä¸Ģ
éĿ ł
Ġæ į
ĠØ£ Ø®
Ġà¹ģà¸ ¥à¸°à¹Ģà¸
ĠÐ½Ð°Ð¿ ÑĢÐ°Ð²
à¤¹ à¤¤
Ġà¤ ¢
à¹Ģà¸ĩà¸´à¸Ļà¸ Īà¸£à¸´à¸ĩ
ĠÐ¿ Ð¾Ð¶
Ġà¸¥ à¸µà¸ģ
à®° à®µ
tij d
at ro
Ø§Øª Ùģ
ĠÐºÐ¾ÑĤÐ¾ÑĢ Ð°Ñı
s atz
il u
Ġà®Ĵà®° à¯ģà®µ
ille urs
áĥĺáĥ£áĥł áĥĲáĥĵ
ĠëķĮ ë¬¸
av ab
ĠÄ ĥn
p ÄĽ
áĥĲáĥłáĥ ¥
Ġn un
áĥĶáĥ¨ áĥĶ
Ġf Ã¸r
Ġsigu i
de k
çļ ĩ
à¤°à¥įà¤ «
Ġsel on
ĠÙĬ ÙĨ
Ġx ÉĻst
ãĥķ ãĤ£
Ġà®¤ à®¾à®ķà¯įà®ķ
ten er
Ġl icz
Ø§Ø¨ ÛĮ
ĠT est
au m
Ġrap ide
ci ta
Ġáĥĸ áĥĶáĥĵ
Ġà°¤ à±Ĩà°°
à¦¾ à§°
Ġà¦ªà§įà¦° à¦¾à§Ł
ĠÙĦ Ùĥ
Øª ÙĪ
Ġà°ķ à±įà°²
Ġs ÃŃ
v ano
Ġc Ã¼
Ġques tion
ĠÃ Ĵ
ĠÄĳ o
al s
ĠãĤ Ħ
Ġà¤ªà¥įà¤° à¤¸
ow n
d nia
ãĤ ²
ca use
à¸Ļà¸ Ķà¹Į
ch ar
áł ¤
ĠØŃ ÙĤ
ah l
ĠÎ¬Î»Î» Î¿
Ġre mp
= >
ma h
à®¾à®Ł à¯įà®ļ
Ġå ±
3 6
Ð°ÑĤ Ðµ
ĠktÃ³ rzy
ĠÏĢÎµÏģÎ¯ ÏĢÏĦÏīÏĥÎ·
al an
ĠvÅ¡ ak
ĠÂµ Îµ
Ðº Ð°Ð½
Ġì ´Ī
Ġ×Ľ ×ŀ×ķ
à¹Īà¸ĩà¸ Ĥà¸
ĠÎ¼ÎŃ ÏĥÏī
ĵ áŀ
Ð½ ÐµÐ³Ð¾
Ø±ÙĬ Ø¯
ĠN ue
Ġà¹ģ à¸Ńà¸
ĠÎµÎ¾ Îµ
àŃ ĩ
Ð¸Ð½ Ð¾Ð²
à¤¶à¥įà¤¯ à¤ķ
Ľ à¸µà¸
ÎĻÎ ¡
áĥ «áĥļ
Ġà¦§ à¦°à§ĩ
èģĮ ä¸ļ
âĢ Ķ
Ġèħ ¾è®¯
ad is
Ġ( );
ĠÑģÐº Ð¾ÑĢ
åĩº ä¼ļ
ãģªãģĮ ãĤī
¸à¸ Ķà¸
ĠÐ¿ÑĢÐ¾ÑĦ ÐµÑģÑģ
Ġà¹Ģà¸§à¹ĩà¸ļà¸ ŀà¸Ļà¸±à¸Ļà¸ļà¸Ńà¸¥
à° ĸ
ĠÚ© ÙĪØ¯
f re
Ġc y
Ð¸ÑĩÐµÑģÐº Ð°Ñı
Ġà®ĩà®² à®Ļà¯įà®ķ
Ġà®ª à®±à¯įà®±à®¿
ĠÙĨ ÙģØ³
à°ª à°°
Ġde utsch
Ġzd r
Ġmed io
ri os
áĥĴ áĥĲáĥł
Ġen semble
Ġíķĺ ëĤĺ
ãĤ¤ ãĤ¯
ĠmÃ¼n asib
i der
Ġm iÄĻdzy
pues ta
Ġáĥ¡áĥĲáĥ£áĥĻ áĥĶáĥĹáĥĶáĥ¡
ĠhÉĻm in
Ġexp Ã©ri
Ġb áº£n
Ġà¤Ĩ à¤Ĺà¥ĩ
it eit
rÃ¡ v
Ġà¦¸à¦® à§įà¦Ń
Ġa ten
ch n
Ġber eits
Ġãĥ Ł
ĠØ± Ø§ÛĮ
ĠaÃ§Ä± k
ĠØ£Ùĥ Ø«Ø±
Ġà®Ĩà®° à®®à¯įà®ª
Ġãĥ Ŀ
ĠPol s
Ġ3 9
Ġcit tÃł
à±Ī à°°
w ier
Ġáĥĳ áĥ£áĥľ
T R
te les
Ġà°ĩ à°Ł
ten ant
ãģĵãģ¨ ãģ¯
à®¿à®© à®¾à®²à¯į
Ġal so
Ġon u
ĠÙģØ± ÙĩÙĨÚ¯
à¥ľ à¥Ģ
ķà¸ ¥à¸²à¸
Ġ×Ĺ ×ĵ
à¨ ²
ves tig
ĠW elt
ĠÎ¿ Î»Î¿
Ġe ng
ĠÎµ Ïį
à¤ķà¥įà¤· à¤£
Ġê°Ģ ê²©
è´ ¢
Ġæ ı
ĠÑĤ Ðµ
áĥķáĥļ áĥĶáĥļ
Î¹Î¿ Î½
Ġn p
nÃ¡ m
ÏĦÎŃ ÏģÎ±
Ð´ Ð¶
Ġd ÉĻst
ĠT out
Ħà¸´à¸ Ķà¸
ÏĨ Î±Î½
åŃ £
Ð» ÐµÑĤ
Ġà®¤à¯Ĭà®Łà®° à¯įà®ª
Ġê¸ Ī
« à¸²à¸£à¸
ĠÎ¬Î»Î» Î±
as yon
ĠÑģ ÑĥÑīÐµÑģÑĤÐ²
ĠÙħ ÙĩÙħ
ļà¸Ńà¸¥à¸ ªà¸Ķ
ĠÏĢÎ¬Î½ ÏĦÎ±
Ġà°ļ à°¿à°µ
urs o
à¤® à¤§à¥įà¤¯à¥ĩ
åħ »
çº¿ ä¸Ĭ
ĠáĥĽáĥĿáĥ« áĥł
Ĺà¸³ à¹ĥà¸«à¹ī
ĠÑģ ÐµÐ³Ð¾Ð´Ð½Ñı
Ġà¤² à¥Ģ
Ġlie u
à¸´à¸ ¥à¸
ÑģÐº Ð¾Ðµ
ªà¸ ³
ĠktÃ³r ym
ĠÕ° Õ¥Õ¿
Ġbildir ib
Ġ ie
ÑĤ Ð¾Ð²
ĠtÉĻm in
Ġf ine
ãģŁ ãģ¡
à¤¿à¤¯ à¤°
×ĳ ×ķ×ª
Ġà¦² à¦¿à¦ĸ
ie re
à¦¾à¦¸ à§įà¦¤
Ø³ Ø§ÙĨ
Ġvy u
à±Ģ à°ķà°¿
T y
Ġëª ħ
à®¿à®ªà¯įà®ª à®Ł
ĠáĥĵáĥĲáĥĻáĥĲáĥķáĥ¨áĥĺáĥł áĥĶáĥĳáĥĺáĥĹ
C Z
Ġm ÄĻ
ic ar
Ġà¦ı à¦Łà¦¾
Ġà°¨ à°®
Ġbe cause
Ġm ieux
Ġc oÅĽ
Ġà¤ľà¤¾à¤¤ à¥ĩ
Ġe ben
Ġáĥ¡ áĥłáĥ£áĥļ
Ġgr oupe
ĠØ§ÙĦØ³ Ø¹ÙĪØ¯
ĠØ§ÙĦ Ø¨ÙĬ
ĠÃ´ ng
Ġdet te
Ġg ente
Ġwur den
Ġw al
áĥĺáĥª áĥĺáĥŀ
ĠáĥĿ áĥª
ra v
i om
Ø§Ø³ ÙĬØ©
ĠØ§Ø³ÙĦØ§Ùħ ÛĮ
Ġà°®à±Ĭà°¦ à°²
ĠÔ± Õµ
Ġt ÉĻhsil
Ġnuov a
ĠÚ© ÙĦÛĮ
Ġje jÃŃ
Ġà¦¨à¦¿à¦ ī
Ġáĥļ áĥĲáĥłáĥĺ
Ġoff er
Ġà¹Ģà¸ Ľà¹ĩà¸Ļ
ad ora
ĀĀĀĀĀĀĀĀĀĀĀĀĀĀĀĀ ĀĀĀĀĀĀĀĀĀĀĀĀĀĀĀĀ
Ġri en
ĠÄ° ÅŁ
Î¼ Î¹Ïĥ
ĠA ra
Ïĩ Î¹Ïĥ
Ġà°¬à°¯ à°Ł
g ado
7 9
Ġæ Į
ĠÐ²Ð½ Ð¸Ð¼
áĥĲáĥĵ áĥĲ
ĠÎĴ Î±Ïĥ
Ġ4 5
Ã¢ ce
Î» Î¹ÎºÎ¬
Ð¸Ð» Ð°ÑģÑĮ
à¯Ģ à®´
e g
à¹Ĥà¸Ńà¸ ģà¸²à¸
ĠÏĨ Ïħ
å¼Ģå¥ĸ ç»ĵæŀľ
ĠÑģ Ð¾Ð´ÐµÑĢÐ¶
ÙĦÙĬ ÙĦ
Ġques ti
Ġ `
Îº Î±Î¹
ĠÅŁÉĻk il
ĠÐľ Ð¸Ð½
Ġs our
à¸Ļà¸µ à¹Ī
á¿Ĩ ÏĤ
an bul
ci endo
à© Ī
äº ²
à© Ĥ
ĠáĥĴ áĥĲáĥłáĥĵáĥĲ
à¹Ģà¸ ¢
ĠÑĢ Ð¾ÑģÑģ
Ä ŀ
Ġk end
Ġà¹ģà¸Īà¸ ģà¹Ģà¸Ħà¸£à¸Ķà¸´à¸ķà¸Łà¸£à¸µ
ĠÑģÐ¿Ðµ ÑĨÐ¸
à¸£à¸±à¸ ģ
glÄħ da
ĠØ³ ÙĦØ§Ùħ
il y
Ġà¤ªà¤° à¥Ģ
ĠÐ¸ Ð´
mer o
ĠØª Øº
Ġà¤Ĩ à¤ı
à°¿à° ¦à°¿
Ġìŀ ĺ
Ġty pe
à¦ Ļà§įà¦ķ
Ġdi ce
ĠV i
Ġe conom
Ġà¤ĳ à¤«
Ġà¦¬à¦¿à¦ ¬
Ġà°® à°Ĥà°¤à±įà°°à°¿
à®ķà¯įà®ķ à®¿à®¯
Ġáĥĵ áĥĶáĥĽ
ÄĻ zy
Ġ×ĳ ×Ļ×ª
Ġà°ķ à°Ĥà°ª
Ġv Ã¦re
Ty pe
ten ir
ìĬ¤ íĬ¸
re chen
ĠØ§ÙĦÙħ Ø¤
por u
áĥĺ áĥĲáĥł
ĠÚ© ÛĮÙģ
Ġest as
Ä° N
ĠK ur
Ġà¤µà¤¾à¤² à¤¾
wy k
Ġ Þ
Ġt áº¡o
áĥķ áĥĺáĥļáĥĺ
ĠáĥĽ áĥĲáĥł
ãģĺ ãĤĥ
æĦ Ľ
åĪ© çĶ¨
Ġrag az
ĠÚ¯Ø±ÙĪ Ùĩ
à°°à±įà° £
ĠPre zident
Ġcos as
Ġda bei
g lie
Ø¶ Ø§Ø¡
Ġáĥ¡áĥĲáĥŃáĥĺáĥł áĥĿ
d ÉĻr
à¹Ģà¸Ļà¸ ´à¸Ļà¸
Ã¨ mes
å¦Ĥ ä½ķ
ÅĻÃŃ zenÃŃ
mak ta
ĠÎ¯ Î´Î¹Î±
×ĳ ×ķ×¨
Ïĥ Î±Î¹
à¦Ĺ à¦ŀà§įà¦ľ
Ġà§ ¯
66 6
æīĭæľº app
Ð¾ ÑıÑī
à®ķà¯įà®ķ à¯ģà®®à¯į
ĠÎķ ÏĢÎ¯
ĠT wo
Ġà°¸ à±Ĥà°
ÏĢÎ¿ Î½
Ð°Ð¶Ð´ Ð°Ð½
Ġdes c
sze j
¸à¸ ĩ
ĠÏĢÎ»Î· ÏģÎ¿ÏĨÎ¿
æ´» åĬ¨
ĠÐ° Ð¿
Ġà¤¹ à¤¾à¤¥
sch utz
Ġà¸ Ł
ĠÎŁ Î¹ÎºÎ¿
Ġkun t
ĠÐł Ñ
Ġà¦ľ à¦®
ģà¹Ī à¸Ńà¸Ļà¸
Îº ÎµÏĤ
ĠBu ch
nÃ© m
Ġ4 4
æīĭæľº çĻ»å½ķ
å®¶ ä¹Ĳ
s iz
¢ à¸²
Ð°ÑĤ ÐµÐ»ÐµÐ¹
ĠØ¨Ø± Ø±Ø³ÛĮ
inh a
à¹Ħà¸¡à¹Ī à¹Ħà¸Ķà¹ī
ĠÐ¼ Ð¾Ð¼
ģà¹ĩà¸ Ķà¹Ģà¸
Ġstron y
ë¦¬ ê³ł
à¦¨à§įà¦¤à§įà¦° à¦£
à¯Īà®ª à¯Ĩ
ĠÐ· Ð°Ð³
io re
áĥļ áĥĿáĥĴ
ãĥ³ãĤ ¸
Ġesta ble
ĠA ber
ÙģØ¶ ÙĦ
Ġm ereka
Ġall er
Ġà¦¸à¦Ńà¦¾à¦ª à¦¤à¦¿
à¦¾à¦Ĥ à¦¶
Ġd osta
Ġà¤¦à¥ģà¤¨ à¤¿à¤¯à¤¾
Ġà®ª à®¿
lis hed
à°¨à±įà°¨ à±Ģ
Ġk ont
Ġp ul
Ġà°İ à°Ĥà°ª
Ġãĥ ī
ĠØ§Ùħ Ø±ÙĪØ²
à¯Īà®ªà¯įà®ª à®Ł
Ġáĥŀ áĥĲáĥł
Ġpo int
Ġda ti
un cios
olo re
à°° à±Ĥ
Ġt ÉĻb
Ġna tur
Ġf ais
×Ļ×ĳ ×Ķ
ĠáĥĽáĥ£áĥľ áĥĺáĥªáĥĺáĥŀ
Ġáĥŀ áĥļ
Ġwar en
ëŀ Ģ
Ġs Ã£o
Ġqu áº£
ØŃØ¯ Ø«
Ġà°ªà±įà°° à°¸
li Ã©
Ġar ka
Ġestu di
Ġà¦Ĩà¦ĩ à¦¨
Ġpr endre
ãĤ ©
Z ION
Ġma ggio
Ġáĥ®áĥ¨áĥĺáĥł áĥĲáĥĵ
Ġdom u
± à¹Īà¸Ļ
Û İ
Ġagäºļæ´² åĽ½éĻħ
Ø´ÙĨ Ø¨Ùĩ
Ġà¤® à¥ģà¤¦
ĠÎµÎ½ Î´Î¹Î±
Ġet dir
ĠÎ±Î½ÏĦÎ¹ Î¼Îµ
i Ã§
w anie
éĿ ©
æ» ¡
Ð¸Ð¼ Ð¾ÑģÑĤÐ¸
à¤°à¥įà¤¶ à¤¨
ĠÎºÎ± Ïģ
ĠÃ ĵ
Ġgi Ãºp
ĠÏĥÏħ Î¼ÏĢ
ĠÐ²Ñĭ Ð±Ð¾ÑĢ
ĠMu jer
in ar
ĵà¸ °
ĠÎº ÏģÎ¬
E T
ĠÐ¿ÑĢ ÐµÐ¿
Ġder ni
, \"
à¹ĥà¸«à¸į à¹Īà¸
ĠÎ± Î´
om oÅĽci
Ð°Ð± Ð¾Ñĩ
Ġà®¤ à®©à¯į
Ġà¸ģ à¸£à¸°à¸
ĠÏĥ ÏĦÎ¬
ĠØ¬Ùĩ Øª
×Ļ×© ×Ķ
Ġæ Ĳ
Ġà¥ ¨
Ġç¥ ŀ
Ġpuj cky
¥à¹Īà¸²à¸ ªà¸¸à¸Ķ
ĠÐ´ÑĢÑĥÐ³ Ð¸Ñħ
d l
à°µ à°ļà±įà°ļà±ģ
Ġs bobet
ĠÐŁÑĢ ÐµÐ´
à¹ģ à¸Ńà¸
r io
Ġà¦ļà¦¿à¦ķ à¦¿à§İà¦¸
Ġà®ļà¯Ĩà®¯ à¯įà®µ
ĠÙĩÙħ Ø±Ø§Ùĩ
Ñħ ÑĢÐ°Ð½
Ġë³ ¸
ve mbre
ĠâĢ ı
ĠØ§ÙĦØ¹ Ø±Ø¨ÙĬØ©
ĠØ¥ Ø°Ø§
Ġna pis
ãĤ· ãĥ£
Ġà´ Ĩ
à¤¯ à¥Ģ
ĠgÃ¶r Ã¼ÅŁ
ier to
he im
Ġà¦¯ à§ģà¦ķà§įà¦¤
ĠArtik el
ĵ ľ
vr ier
Ġp ÅĤy
Ġm ijn
ĠH a
à¤Ĥà¤¦ à¤°
Ġlas sen
en Ã¡
ta ur
áĥĽ áĥĲáĥłáĥĹ
rz a
Ø§ÛĮ ÙĨ
ĠAB Åŀ
Ãĵ N
Ġl ar
Ġãĥ Ļ
Ġà®¤à®ķ à®µ
Ã©r ence
áĥĺáĥ ¬áĥ§
Ġà¤® à¤§
Ġb le
Ġhá» ĵ
· ¨
×Ľ ×Ŀ
ĠØ¯ÙĪÙĦ Øª
Ġsa lle
Ġáĥĵ áĥĲáĥĵ
ãģª ãģĭãģ£ãģŁ
Ġb ak
Ġcu isine
à¤µ à¤¾à¤¦
Ġc ali
à§ §
ver so
Ġà¦² à¦¾à¦ĸ
Ĭà¸ ¡
Ġà¦¦ à§Ĥ
Ġåı ĳ
ĠMe hr
Ġw il
ĠÎ±Ïħ ÏĦÎ¿Ïį
Ġnaj lep
ÏĥÏĦ Ïħ
à¯ģà®¤ à®¿
ĠM Ã¤
å¤§ åŃ¦
Ġæ ·
ĠÑĦÐ¾ÑĤ Ð¾
ĠØ¨ Ø£
ĠÏĩÎ±ÏģÎ±Îº ÏĦÎ·
ĠáĥĽ áĥĶáĥ£áĥ
ìĻ¸ êµŃìĿ¸
Î³ ÏīÎ½Î¹Ïĥ
ĠÐł Ð¤
Ġse Ã±
íĶ Į
à¹Ĥà¸ Ĺà¸£à¸
á¿ ĸ
à¤¾à¤¤ à¥Ģà¤²
ĠÑĤÐµÑĢ ÑĢ
I L
áĥĺáĥĻ áĥĿáĥ¡
ķ à¸µ
Î½Î¿ Î¯
Ã¼ f
Ð½Ð°Ðº Ð¾
ĠÃ ģ
Ľà¸£à¸°à¹Ģà¸łà¸ Ĺà¸
ĠÏĢÎ¿ Î»Î»Î¬
ĠØ§Ùģ Ø±
à¥Ģ à¤¦
æĸ¹ éĿ¢
ç¦ »
è¡¨ ç¤º
Ġk las
ļà¸Ļà¸±à¸ ª
ĠÐºÐ¾ÑĤÐ¾ÑĢ ÑĭÑħ
Ã¬ m
áĥĽ áĥłáĥĹ
à¹īà¸Ļà¹Ģà¸¥à¸·à¸Ńà¸Ķà¸ Ĥ
Ð¸ÑĨ Ñĭ
§ à¹Į
O V
à¤ ħ
Ġd ol
áĥĺ áĥĲáĥ¡
ĠÐ· Ð°ÑĤ
ĠB eit
Ġdro it
Ġíĥ ľ
ĠkaÅ¾ d
à¦Ł à¦¿à¦°
à°¾à°² à±į
ãĥ³ãĥ Ģ
Ġà¤® à¤Ĥà¤¤à¥įà¤°à¥Ģ
m F
Ġwszyst kich
à¶Ń à·Ĭ
cht s
Ġst esso
pp en
Ø· ÙĤØ©
Ġ20 09
gr ound
Ġãĥ ģ
ĠzÃ¡ kla
Ġà¤ı à¤¨
Ġà®® à®¾à®°
à°² à°¸
ĠB ou
ĠáĥĻ áĥĿáĥļ
ÉĻli f
Ġann un
ĠB y
Ġg an
Ġinforma zioni
ãĥ¡ ãĥ³ãĥĪ
ĠÙĤ Ø³Ùħ
er ie
Ġáĥ¡ áĥĲáĥķ
Ġà¤Ĩà¤µ à¤¶à¥įà¤¯à¤ķ
´ ī
Ä±m Ä±
Ġà®¤à®² à¯Īà®®
b lÃ©
Ġà¦ª à¦¾à¦ķ
Ġj am
le ÅĦ
Ġ×Ĳ×Ĺ ×ĵ
Ġà°ªà±įà°° à°¤à°¿
la is
Ġprzy got
Ã¼t z
ĠãĤ °
ĠÙħØ®Øª ÙĦÙģ
ë° °
Ġà¸§à¸´à¹Ģà¸Ħà¸£à¸²à¸°à¸« à¹Į
Æ Ĵ
ä¸ Ķ
uyá» ĥn
Ġà®ķà®¾à®° à®£
Ïİ ÏĥÎµÎ¹ÏĤ
ien za
ĠÏĢÏģÎ±Î³ Î¼Î±ÏĦÎ¿
Ġne den
à§įà¦ £
çĹ ħ
à¤¤ à¤¾à¤¤
Ð¾Ð½ Ð¾Ð²
Ä±lÄ± r
ÏĥÎºÎµÏħ Î®
is o
à¥ģà¤ Ĩ
Îº ÎŃÏĤ
ÐµÐº ÑģÑĤ
Ġáĥľ áĥĶáĥĳáĥĺáĥ¡
ron a
Ĥà¸ ±à¹īà¸Ļà¸
ĠÏĩ ÏģÎ¿Î½
å¥ Ĺ
ĠÑģÑĩ Ð¸ÑĤ
Ġpro gram
ĠìĿ´ ìļ©
łà¸±à¸ ¢
ĠÏĥÏį Î¼ÏĨÏīÎ½Î±
Ġà°®à±Ģ à°¡
ĠÐ² Ð°Ð¶
à§ģà¦ Ń
à¹ĩà¸ ķ
Ïħ Î¼Î±
Ġson dern
Ġart Ä±q
çº ª
çļĦ ä¸Ģ
Ġäºļæ¸¸éĽĨåĽ¢ å®ĺç½ĳ
à±Ĭ à°ķ
ªà¸°à¹Ģà¸ ģà¹ĩà¸Ķà¹Ģà¸
Ð°Ð² ÑĪ
Ġr ÄĻ
ĠS h
Ġà¹ģà¸ Ĺà¸ĩ
ĠÑĤ ÑĥÑĢ
°à¹Ģà¸ Ľà¹ĭ
ĠØ´Ø¯ ÙĨ
×Ĳ ×ķ×ª
Ġhab ÃŃa
ĠNe derland
ĠÐ¿ÑĢÐµÐ´ Ð»Ð¾Ð¶
ct ie
c s
Ġà¦Ĩà¦° à§ĭ
ĠáĥĽáĥĿáĥ¡ áĥĲáĥ®áĥļ
Ã¤t z
Ã¡ Å¾
à¤¸ à¥įà¤µ
ìł Ī
à®¤à¯įà®¤ à¯ģà®ķà¯įà®ķà¯ģ
Ġrze czy
Ġà¦Ń à§Ĥ
é ¤
Ø· Ùģ
ĠáĥĽáĥĲáĥĴ áĥĲáĥļ
Ġà®®à¯ģà® ¯
Ġoff re
ge v
Ġà°¸ à±Į
Ġn ÉĻfÉĻr
Ġback ground
ãģ¨ ãĤĤ
Ġhá» ĩ
ĠrÃ© ser
in u
Ġà¤¨ à¥Į
ĠS eite
ľ ëĵľ
_c om
ĠáĥłáĥĲáĥ¦ áĥĲáĥª
àµįà´ ²
Ġà¤¯à¥ĭà¤ľ à¤¨à¤¾
as se
à§į à§°
Ġà¦® à§ĩà§Ł
Ġà°ļà±Ĩ à°¬
d lich
ĠJ est
Ġãģ Ķ
Ġà¦¨à¦¿à¦ ¶
ĠCom ment
ãģ¾ ãĤĬ
Ġ×Ĳ ×Ļ×Ł
ĠáĥĲáĥŀ áĥł
Ġpar f
ĠÙĪ Ø§ÙĤ
Ġà¤µà¥įà¤¯ à¤µ
Ġpo le
Ġ8 3
Ġv iene
¡à¸µà¸ ģà¸²à¸£à¸
Ġà°ļà±ĩà°¸ à°¿à°Ĥà°¦à°¿
è¡ Ģ
ĠnÃ¼m ay
ĠD it
ĠÎŃÏĩ Î¿ÏħÎ¼Îµ
Ġà®ħà®¤ à®©à¯į
ĠÏĥÏħ Î½Î±
Ġsang at
ĠØª Ø¯
äº «
ĠåĪ© æĿ¥
ÑĢ Ñĭ
ov ou
ĠÎ¿ ÏįÏĦÎµ
Ġe h
Ġpr owadz
Ïģ Î±Î¹
ÑĥÐ´ Ð°
áĥĶáĥĳ áĥĶáĥĳáĥ¡
Ġà¦¨à¦¿à¦ľ à§ĩà¦°
ķ à¸Ńà¸Ļ
ĠÏĮ Ïĥ
áł ¡
Ð¾Ð± ÑĢÐ°Ð·
Ġg ros
ent re
à¹ĥà¸ ļà¸
ĠÏĢ Î¬Ïģ
à¤ļ à¤¨à¤¾
ĠÐ½ Ð°Ð²
Ġequ ipo
Ġà¹Ħà¸¡à¹Īà¸ ķà¹īà¸Ńà¸ĩà¸Ŀà¸²à¸ģ
ĠÎ» Îµ
tra g
×Ĳ ×Ķ
åĲ §
à¤¿à¤ ³
éĵ ¾
ka cji
à¹Ģ à¸Ļà¸µà¸
ĠÐ½ ÐµÐ²
Ã ļ
Ġth Ã¡ng
« à¹īà¸Ńà¸ĩ
ĠÐ´ÐµÑĤ ÐµÐ¹
Ġà¸ªà¸ ĸ
Ã¡ vÃ¡
Ġinter es
Ġà°® à°Ĥà°¦
ub e
Ñĳ Ð½
b ol
lica tion
ĠØ¢ Ø®Ø±
Ġáĥ¬áĥĺáĥľáĥĲ áĥĲáĥ¦áĥĽáĥĵáĥĶáĥĴ
ĠK unden
ĠA I
ë¦ ī
Ġl etz
ãģĦ ãģĨ
ãĥ¥ ãĥ¼
ë³ ´ë
çµ Ĥ
Ġà°¸ à±Ģà°İ
Ġà°ªà±įà°° à°ļ
oles c
Ġc las
ow ia
ĠgÃ¶ ster
à¤¾à¤¸ à¤¨
Ġà¦ı à¦Łà¦¿
Ġáĥ¬áĥĲáĥłáĥĽ áĥĲáĥ¢
à°¿à°¦ à±įà°¦
Ġcho ix
Ġte m
×ķ×ŀ ×¨
ĠuÅ¼y tk
Ġà°¸à°Ĥà° ķ
Ġà¤ĸ à¥ģà¤¦
Ġì§ ĳ
ĠBer lin
èī¯ ãģĦ
v Ã©e
áĥĺ áĥĶáĥłáĥĺ
Ġb esch
Äį ku
Ġser Ã¡
ĠT or
it are
ÙĲ ÙĨ
Ġhis toire
ĠØŃ ÙĪÙĦ
ÃŃs to
Ġáĥ©áĥķáĥĶáĥľ áĥ¡
ĠczÄĻ ÅĽci
ãģ£ãģ¦ ãĤĤ
ĠìķĦ ìĿ´
áĥĴ áĥĲáĥķáĥ¡
du ction
à®¾à®Łà¯įà®Ł à¯ģ
ĸà¸ ·à¸Ńà¸
Ġà°µà°¿à°¡ à±ģà°¦à°²
âĢĭ âĢĭ
Ġãĥ Ĩ
bu at
ĠÎ±Î½ ÎŃ
à¥Īà¤Ĥ à¤¡
Î¡ ÎĻÎ
ÄĽ st
Ġ×ķ ×ľ×Ĳ
åħ¥ åı£
æŃ »
ĠÐ¿Ð¾Ð´ Ð´ÐµÑĢÐ¶
ĠRus iya
ĠÎ³ Î¯Î½ÎµÏĦÎ±Î¹
Ġh ombres
ĠÙħØ· Ø§ÙĦ
Î¼ÎŃÎ½Î¿ Î¹
ÐºÐ¸ Ñħ
Ġà°ļ à°°à±įà°ļ
ĠH ÉĻr
Ķà¸²à¸§ à¸Ļà¹Į
ĠÎĵ ÎµÎ½
å¤ ®
ĠÐ± ÐµÐ»
Ġe u
ĠmÃ¼s sen
ļà¸¸ à¸£à¸µ
ÎĻ ÎŁÎ¥
ra Å¼
ĠÐ²Ñģ ÐµÐ¼
Ġtr ad
à¸£à¸°à¸ Ķà¸±à¸ļà¸
ĠÏĩ Î»Î¼
ĠØ§ÙĦÙĪ Ø·
Ġwy korzy
ç§ĳ æĬĢ
ĠæĹ ¶
Ġçİ¯äºļ éĽĨåĽ¢
ĠÙĩ Ø²Ø§Ø±
Ġda ta
Ð» Ð¸Ð½
Ġpou ze
Ġ×Ķ ×ľ
Ġà¸ §à¸±à¸Ļà¸Ĺà¸µà¹Ī
ĠÐ²Ðº Ð»ÑİÑĩ
à¹ģà¸£à¸ ĩ
ca ÄŁ
Ġph áº§n
Ġà°ªà±įà°°à°¶ à±įà°¨
± Ħ
ĠÐ´ Ð¾ÑģÑĤÐ°Ð²
Ġà®¨à¯Ģ à®¤
as ion
ĠX xx
Ġcomp ar
áĥĶáĥĳáĥļ áĥĿáĥĳáĥĺáĥ¡
e p
h me
cze ÅĦ
ĠØ±ÙĪ Ø´
ĠØ£ Ø¹
ĠErmÉĻn ist
Ġà®ķ à¯Ī
Ġà°¬ à±įà°²
à°¿à°ķ à±įà°ķ
áĥĲáĥķ áĥĵáĥĲ
Ġu ÄŁ
ica to
Ġsoll te
a dy
èģ ŀ
Ġda tos
à°Ĥà°§ à±įà°°
n al
ĠìĪ ľ
Ġpub li
mekte dir
à±įâĢĮ à°ķà±ģ
ĠVo or
ãģª ãģ®ãģ§
ĠáĥĹáĥĳáĥĺáĥļáĥĺáĥ¡ áĥĺ
Ġáĥĺ áĥ¢
à®¿à®ķà®³ à®¿à®²à¯į
ĠØ¯Ø§Ø± ÙĨØ¯
Ġhis toria
ãĤģ ãĤĭ
Ġte dy
×Ĵ ×ĵ
Ġsa at
Ġc ad
ÙĨ Ùī
ìĦ¸ ìļĶ
Ġczas u
ĠN Ã¡
ĠS pe
à¦¾à¦ĩ à¦ķ
lar i
Ġà®ª à®³à¯įà®³
Ġáĥłáĥ£áĥ¡ áĥĶáĥĹáĥĺáĥ¡
or te
à¸Ļà¸ ´
Ġà°ı à°¦
æľ ĥ
è¡ ĵ
ĠÙħ Ø«ÙĦ
Î¶ ÎµÏĦÎ±Î¹
ĠprÃ¡c e
Î´Î¿ ÏĥÎ·
Ġpos iada
Ġáĥľ áĥĲáĥ¬áĥĺáĥļ
åĲĪ ä½ľ
åħ ´
ÐµÑĢ ÐµÐ´
ĠM Ã¡s
ĠÎºÎ¹ Î½Î·
ick Ã¡
Ġka ufen
Î»Î± Î´Î®
ĠÐľ Ð°ÑĢ
Ġà°ħà°®à±Ĩ à°°à°¿à°ķ
ĠÄĳ iá»ĩn
à¹Ĥà¸£à¸Ħà¸ ªà¸°à¹Ģà¸ģà¹ĩà¸Ķà¹Ģà¸
ÏģÎº ÎµÎ¹Î±
Ġà¹Ģà¸ §à¸¥à¸²
ĠÑĢÐ°Ð· Ð¼ÐµÑĢ
à¤§ à¥Ģ
j en
Ľà¸¥à¸µà¹Īà¸ ¢à¸Ļ
Î± Î½Î±
à¥ĭà¤ľ à¤¨
Ð ¦
un kt
¨à¸ ¹à¸Ļà¸
ÏĨ ÎµÏģ
Ġ×ŀ× ĸ
Ġà¦¹ à¦¤à§įà¦¯
å° ¼
ä¸į æĺ¯
æĥħ åĨµ
Ġà¦¨à¦¿à¦°à§įà¦ ¦
ª à¸Ńà¸ļ
ĠÐĶ Ð¶
l uy
Ġvrai ment
Ġà¸ªà¸²à¸ ¡à¸²à¸£à¸
ĠÑģÐ°Ð¹ÑĤ Ðµ
à¸Ļà¸²à¸ ¢à¸
ãģ§ ãģ®
b ij
Ġà°ķà°¾à°Ĥà°Ĺà±įà°°à±Ĩ à°¸à±į
ce mbre
ĠÑĦ Ð¸Ð½
Ġjan vier
à¯ģà®® à®¾à®©
ê¹ Ģ
íħ Į
ĠG o
s ty
Ġposs ible
Ġpel o
as iya
ĠCon tactos
Ġfun cion
Ġzur Ã¼ck
Ġà°ĩà°Ĥà°ķ à°¾
Ġbu d
ĠáĥĶ áĥ¤
Ø· ÙĬÙĨ
ç¨ ¿
ãĥ³ãĤ ·
ÙĦ Ø§Øª
ĠW iel
Ġà¤ªà¥įà¤° à¤ķ
ĠáĥĹ áĥķáĥĺáĥ¡
Ġan im
Ġì ´Ŀ
à¦¿à¦¦ à§įà¦§
l ere
Æ° u
ĠáĥĴ áĥĲáĥĸ
iy anÄ±n
äºº ãģ®
×Ĺ ×ķ×ª
Ġà®¤ à®¿à®±
ĠíĻ ľ
Ġh ra
Ġà¦ļ à¦¾à¦ĩ
Ġà¦¶ à¦°
Ġdob rze
Ġd in
Ġer sten
áĥĶáĥ Ł
Ã© li
u w
ĠÙĨÙħ Ø§ÛĮØ´
b ia
ĠÙĪÙĦÙĥ ÙĨ
Ġà¤ĩ à¤²
à¦¾à¦ķ à¦¾à§Ł
ĠáĥŀáĥłáĥĿáĥ¤ áĥĶáĥ¡
Ġma jÃŃ
§à¸ ļà¸
Ġprz es
ç» ĩ
Ġvec es
áĥ« áĥĺ
ĠÎĴ Î±
au l
ĠÎ²Î¿ Î·
Ġà¦¤à§Ī à¦°à¦¿
ī ´
åľ ĭ
çĽ Ł
ĠÑĢÑĥÐ± Ð»ÐµÐ¹
Ġà¤ªà¥įà¤° à¤Ńà¤¾à¤µ
Î±Î¹ Î´ÎµÏħ
utsch ein
te llt
ÏĢ ÏīÎ½
ĠÑĢ Ð°ÑģÑĤ
Ġk siÄħÅ¼
ato ri
Ġà¹Ģà¸ ķ
ÏĦÎ¹ÎºÏĮ ÏĦÎ·ÏĦÎ±
ç» Ĩ
ĠÐ¿Ð¾Ð»ÑĮÐ· Ð¾Ð²
Ġdu Å¼
ĠÙĨ Ø±Ùħ
ªà¹Īà¸§ à¸Ļ
ĠÏĩ Î¬
ĠÄĳ áº¹p
Ð°Ð» Ð°ÑģÑĮ
Ú© ÙĨØ¯
Ġà¸ §à¸±à¸
ĠÏĥÏĦÎ¹Î³ Î¼Î®
ĠáĥĹáĥĲáĥķ áĥĵ
à¯ģà®® à®¾
èµ ļ
ä¼ł å¥ĩ
å¯ Ĩ
à®© à¯įà®®
Ġ are
Ð¾ÑĤ Ñĭ
ent as
Ġpouv oir
à¸Ńà¸ĩà¸ Ħà¹Įà¸
ĠÑĨ ÐµÐ»
ķà¹īà¸Ńà¸ĩà¸ ģà¸²à¸£à¸
Ġes cu
Ġd á»ĭch
ĠT L
tÃ© e
ĠÐ²ÑĭÐ¿ Ð¾Ð»Ð½
ĠCh am
Ġg et
ÙĬØ¯ Ø©
Ġíİ ¸
Ġto tal
à¤¿à¤¨ à¥įà¤¦
à¥įà¤° à¤¾
m us
Ġm ess
Ġu wa
à¯Īà®¯ à®¾à®³
z z
à¥Ĥ à¤°à¥Ģ
Ġpre cios
ĠáĥĿáĥĹ áĥĲáĥ®
à°® à±Ī
ta ta
Ġ×Ĳ ×ĸ
pie j
Ġlaz Ä±m
ci Ã³
áĥĶáĥĳ áĥĺáĥª
ut es
po z
Ġà°ĩ à°Ĥà°¤
è¿ Ķ
à°¸ à°¾à°Ĺ
Y X
ï¼ ķ
éĮ ²
Ġì¦ Ŀ
ĠA ll
Ġà¦ĺ à§ĭà¦·
Å ł
Ġa si
áĥ£áĥ Ĵ
ÅĤe go
Ġk az
ØŃ ÙĪ
à¥įà¤¯ à¤¾à¤¨
Ġp endant
ĠáĥĽáĥĺáĥ ®áĥĶáĥĵ
Ġà°µà±įà°¯ à°¾à°ª
Ġmu ito
×ķ ×Ļ×ķ×ª
ĠÕ Ĩ
ĠedÉĻ c
or ia
á»Ļ ng
ŀà¸ ļà¸
wi d
å¯ Ł
Ġà°¦ à±Ĭ
Ġv Å¯
ĠÎ¼ÎµÎ³Î¬ Î»Î·
Ġà®ħà®® à¯Īà®ļà¯įà®ļ
Ïī ÏĥÎ·ÏĤ
Ġf Ã¥
ier ten
èĦ ĳ
å·ŀ æīĳåħĭ
Ð¾Ñĩ ÐºÐ¸
Ġà®®à¯Ģ à®¤à¯ģ
ĠÎ¼Î± Î¸Î·
Ø§ÙĦ Ùĩ
Ġeje mp
Î¯ Î´Î¹
Ð¾Ð³Ð» Ð°Ñģ
ind ow
à¦¾à¦¹ à¦¿à¦¨
Ĺ à¸Ńà¸ĩ
ĠÏĢÎµÏģÎ¹Î¿ ÏĩÎ®
ä¸Ń çļĦ
ĠÐ²ÑĢÐµÐ¼ ÐµÐ½Ð¸
Ġur zÄħ
ĠØ§Ø·ÙĦØ§Ø¹ Ø§Øª
´ à¸Ļà¹Ģà¸
Ïģ Î½
áĥ®áĥĽ áĥĲáĥł
Ñı Ð»
Ġà°¹à±Ģà°° à±ĭ
Ġà¸ļ à¸²
ĠÎ² Î»ÎŃ
Ġcon ta
mÃŃ n
éĻ ¤
åº ı
æī ¹
Ġà°µà±Ĩ à°¨
Ľà¸£à¸°à¹Ĥà¸¢à¸ Ĭ
ĠÐ²Ð¾Ð· Ð´
íĸ ¥
áĥĶáĥĳáĥļ áĥĿáĥĳáĥĲ
ŀà¸ ¥
ÐµÑĢ Ñħ
¡à¸²à¸ģà¸ ¡à¸²à¸
ĠÙĦ Ø£ÙĨ
Ġà¤Ĩ à¤¨à¥ĩ
Ġden n
te Äį
Ðł Ðŀ
ĠH ier
in k
ĠØ¢Ùħ Ø±ÛĮÚ©
Ġà®¤à®¿à®° à¯ģà®®
Ġv ÉĻtÉĻn
Ġáĥ¡áĥĲáĥ ¯
Ġempres a
Ġme mp
ĠÃ Ħ
Ġb ra
m is
à¯įà® ľ
Ġà¦¬à§įà¦¯à¦¬ à¦¸
ĠyÃ¼ks ÉĻk
Ġáĥĵáĥ¦ áĥĺáĥ¡
Ġà°īà°ª à°¯à±ĭà°Ĺ
Ġas p
Ġ×ĳ ×¦
Ġo trzym
à¦¬ à¦°à§įà¦¤
Ø§Ø± ÙĬØ©
Ġáĥ® áĥĿáĥĽ
Ġdur um
Ø§Ø² Ùĩ
Ġà¤ªà¤° à¤¿à¤µà¤¾à¤°
Ġap lica
Ġm ass
g ÄĻ
lo Å¾
Ġkom men
ĠÂ ¾
ĠÃ Ĭ
Ġtá» Ľi
£ Į
est as
Ġáĥ¨áĥĶáĥ ¤
ww w
ç§ ģ
Ġa pr
Ġtr ouv
à¤ķà¤° à¤£
Ġed ilib
ĠB undes
ÛĮÙħ ÛĮ
Ġìĸ´ë ĸ
Å¡ Å¥
Ġà¦Ĩà¦¹ à¦®
à¦¾à¦ Ŀ
à¯Ģ à®°à¯įà®ķà®³à¯į
¥à¸ Ķ
Ġp osta
èį ¯
ĠN oir
te au
ĠÎ´ Ïİ
é¢ ¨
ĠÎķ Î¸Î½
Ġáĥ¡ áĥłáĥ£áĥļáĥĺ
h Ã¤lt
Ġag æīĭæľº
åģ ¥
ĠÐ¾Ð±ÐµÑģÐ¿ ÐµÑĩ
ĠÙĪ Ø²
ĠÎ±Î½ ÏĦÎ¹Îº
ab aÄŁ
Ġh un
ĠÎ±ÏĨ Î¿Ïį
ĠÐ¿Ð» Ð°ÑĤ
ier p
ĠH ÉĻm
Ġà¸Ħà¸ ³à¸
ĠÎķÎĽ ÎĽ
Ġå® ī
ĠÑģÐ»ÐµÐ´ ÑĥÑİÑī
bi Äĩ
Ġch ia
³à¸Ļà¸ ±à¸ģà¸
ÏĨÎŃ ÏģÎ¿Î½
áĥ¯ áĥĶáĥł
ĠÐ²Ð½ ÑĥÑĤÑĢ
à¦¨ à¦¿à¦ķ
Ġà¹Ģà¸ Ħà¸£à¸Ķà¸´à¸ķà¸Łà¸£à¸µ
ÏĢ Î»Î±
Ġ×© ×Ľ
ob raz
Ġå° Ĩ
éħ Ĵ
æĸ¹ æ³ķ
Ġà¤ħà¤ļà¥įà¤Ľ à¤¾
Ł à¹īà¸²
Ð¾Ð¼ Ðµ
Ġmus ÃŃ
ÙĪÙħ Ø§Øª
ķà¸ ģ
ĠÐ³ Ð°ÑĢ
Ķà¸ ·à¸Ńà¸Ļ
cuer do
ul es
fahr en
d Ã¼
ĠÑĤ Ð¸Ð¿
Ġn y
Ġà®ķà®² à¯įà®µ
Ġáĥ£áĥ ŀ
Ġà¤ħà¤¨à¥ģà¤¸ à¤¾à¤°
Ġà¦¨à¦¿à¦ ¯à¦¼
Ġag ua
ĠÙĩÙħÚĨ ÙĨÛĮÙĨ
à®© à®¿à®©à¯į
à°¦ à±įà°¯
Ġza pew
Ġth Æ°á»Ŀng
Ø± Ø§Ø¡
Ġëĵ ľ
áĥĲáĥŀ áĥĲáĥłáĥĲáĥĻ
Ã¤n der
A U
Ġmo de
Ġcou p
Ġt ow
áĥĻ áĥķ
Ġbas e
×¨ ×ĵ
Ġà¤Ĩà¤§ à¤¾à¤°
ĠâĢľ .
ĠØ¨Ùĩ Ø§
Ġà°ª à±Ĥà°
à±ĩà°Ł à±į
r um
Ġí Ĵ
r Ä±
Ġd ia
Ġà®ĩà®µ à¯įà®µ
Ġà®µà®¿à® ·
in iones
en der
Ġà¤ª à¤¤
Ġpier wsze
à¦¾à¦ĵ à§Łà¦¾à¦°
ãģĤ ãģ£ãģŁ
Ġeff ec
à±įà°¡ à±į
ÙĨ Ø§ÙħØ¬
ĠÚĨÙĩ Ø§Ø±
Ġ×ĳ ×ŀ
ĠáĥĲáĥ¨ áĥ¨
q q
ìľ¼ ë©°
Ġà®ĩà®° à®£à¯įà®Łà¯ģ
ĠW asser
ķà¸ °à¸
Ġo czy
Ġè ģ
Ġce ux
à¤¶ à¤¨
ĠÎ´Î¹Î± ÏĨÎ¿
Ġtech ni
ĠÎ¼ÏĢÎ¿ ÏģÎ¿ÏįÎ½
ib ili
ãĥķ ãĥĪ
å¯ Į
Ġåı ª
ĠÐ¼ Ð¼
Ġg od
Î´Î¹Î± Î¯
Øª Øµ
ĠÃ© l
ĠÎ´ Î¯
ĠÐ² ÐµÑģ
jÄħce go
zo ek
à¸Ńà¸° à¹Ħà¸£
ĠÎ¦ ÎµÎ²
à« į
ĠÐŀ ÑĢ
Ġdz iÄĻki
l at
ļà¸ ±à¸Ļà¸
ÏģÏħ Î¸
Ġà¤ª à¤¢à¤¼
ĠÐ¿ Ð¾ÑģÑĤÐ°Ð²
Ġè ª
Ħà¸ ³
ÏĥÎºÎµ ÏĦÎ±Î¹
Ġpo kud
ĠÚ© Ø±
è§ ī
éĢļ è¿ĩ
è® ¸
à±Ģ à°ķà°°
Ħ à¸£à¸±à¸
ĠÐ¼ Ð»
à§ĩà¦ķ à§įà¦·
Ġáĥ¡ áĥĺáĥª
Ġà¸ ķà¸±à¸§
{ "
±à¸Ļà¸ĺ à¹Į
ãģ« åħ¥
is Ã©e
ÙĪÙħ ÛĮ
å° Ħ
ĠÑĤ ÑĢÑĥÐ´
Ġà¤Ĩ à¤®
aÅŁ Ä±
Ġdi jo
ĠØ§ÙĦ Ø±ÙĬ
Ġà®¨à®Ł à¯Īà®ªà¯Ĩ
ĠkÃ¶n n
ĠC al
Ġl ine
Ġáĥ¡áĥ¢ áĥĲáĥ¢
ni os
Ġtom u
Ġà¦ĸ à§ĩà¦²
ĠáĥĻáĥĿáĥĽ áĥĶáĥľáĥ¢
Ġcono cer
à°¾à° ĸà±įà°¯
Ġhttp s
Ġr ess
ic iel
Ġpo ko
Ġsc on
Ġà®®à®Łà¯įà®Ł à¯ģà®®à¯į
Ġáĥ¡áĥĲáĥ¥áĥĽ áĥĶ
à®¨ à¯įà®¨
Ġà°¦ à°¿à°Ĺ
d et
×¢ ×Ļ×Ŀ
ĠMar et
Ġpo prze
ĠÚ¯Ø± ÙģØª
Ġà¤ķà¥ĩ à¤µà¤²
Ġà®¨ à®¾à®³à¯į
Ġv asit
ĠÙģÙĬ ÙĩØ§
Ġs ino
Ġnost ra
Ġcom ments
ion y
ĠáĥĽáĥĿáĥ«áĥł áĥĲáĥĿáĥĳ
Ġnieu we
li Ã¨re
ess ione
ing ga
à§ģ à§Łà¦¾à¦°
à°¾à° ¥
ãĤ¤ ãĥ³ãĥĪ
à§ľ à¦¾
à®° à®¿à®©à¯į
Ġà§¨à§¦à§§à§ ®
à¦® à§įà¦¯à¦¾à¦¨
Ġà¹Ģà¸ ¥à¸
m io
77 7
Ġ200 8
ï¼ Ī
ĠÎ³ ÏģÎ¬
Ġjam ais
Î¼Îµ ÏĥÎ±
Ġpro ti
Ġà¦¬à¦² à¦¾
åº ĵ
Ġ5 8
ĠÐ½ ÐµÐ±
Ġáĥ ļáĥĺ
Î³ Î¼Î±ÏĦÎ±
min istra
Ġé ĸ
Î¼ Î¹Î¿
ÑĢ Ð°Ð´
Ġpotrze b
Ġph Ã¡p
·à¹Ī à¸Ńà¸Ļà¸
Î³ÏģÎ±ÏĨ Î®
å· ´
Ð¾Ð»Ð½ Ð¸ÑĤÐµÐ»ÑĮ
ìŀ Ī
M D
Ķà¸ ±à¸ĩà¸
ĠÎ³ Î½Ïİ
er t
ĠÐ´Ð¾ÑģÑĤ ÑĥÐ¿
Ġà°µà°¿à°· à°¯à°Ĥ
à¸£à¸°à¸ ¢à¸
Î¯Î¶ Î¿ÏħÎ½
ĠSe g
ĠØª Ø£
è® ²
æī ¿
äºº åĳĺ
Ġà¤ĩà¤¸ à¤®à¥ĩà¤Ĥ
Īà¸ ±à¸ĩà¸«à¸§à¸±à¸
ĠÐ¿ÑĢÐ¾Ð² ÐµÐ´
ĠíĻ ĺ
ĠáĥĹ áĥĲáĥł
à¸£ à¸²
ĠÐ» Ð¸Ð±Ð¾
à¹ģà¸ ¥à¸
Ġol a
Ġo ctobre
Ġà®ħà®µ à®©à¯į
ĠC ons
ÐµÑĢ Ð¾
Ġà®ª à¯ģà®²
âĢĮ à°ķ
Ġà°İ à°®à±įà°®
×ĳ×ķ×ĵ ×Ķ
Ġà°µ à±Ģà°¡
Ġaus ge
os to
ãģ» ãģ©
Ġáĥ¡áĥĲáĥ£áĥĻáĥĶáĥĹáĥĶáĥ¡ áĥĿ
a w
ro dnÃŃ
Ġà¦ł à¦¿à¦ķ
å¤§ çīĩ
à´¿à´² àµįâĢį
à¤¿à¤ ¬
Ġhe ure
le urs
e z
Ġznaj du
Ġ×ŀ× ĺ
ĠÃ¶ nem
Ġà®ª à¯ģà®¤à¯įà®¤
Ġáĥ¡áĥĲáĥ ¬
ìĭľ ê°Ħ
à°¾à°¨ à±įà°¨
ato re
ĠáĥĴáĥĲáĥł áĥĶáĥ¨áĥĶ
ĠK Ã¼
Ġì§Ģ ëĤľ
Ġà®ķà¯ģà®Ł à¯ģà®®à¯įà®ª
à°¡ à±į
Ġmill ones
le it
tu ur
Ġà¦¯ à¦ĸà¦¨
Ġal tre
èŃ ·
Ġmo je
Ġza wsze
Ġima ge
Ġz ei
ĠØ§ÙĦØª Ø¬
Ġtam b
ĠÙĦ ÙĪ
áĥł áĥĶáĥĳáĥ¡
Ġà¤Ń à¤¾à¤ľ
Ġà¤ªà¥įà¤° à¤µ
æŃ ©
Ġgi áº£i
°à¹ģà¸Ļ à¸Ļ
ĠE UR
çľŁ éĴ±
Ġan ci
Ġs ag
Î¾ Ïī
Ã¡z ÃŃ
ÏĦÎ® ÏĥÎµÎ¹
Ġà®ª à®±à¯įà®±
Ġcent re
è®¾ è®¡
é ²
ĠÐ¿ÑĢÐ¾Ð² Ð¾Ð´
Ġkre dy
Ïī Î´
à± ¦
į ¼
ÎµÎ´ ÏģÎ¿ÏĤ
ĠÑģÐ¿ Ð¾ÑĢÑĤ
szta ÅĤ
ĠolduÄŁ unu
«à¸¡à¸ ·à¸Ńà¸Ļà¸
ĠÎ´ Î¿Ïħ
ĠåĴ Į
ĠÐ½Ð°Ð» Ð¸Ñĩ
ĠÙħØ´ Ú©ÙĦ
Ġpoz iom
Ľà¸¥ à¸Ńà¸Ķà¸
Ïħ Î¼
ig os
ĠÐ¼ÐµÐ¶Ð´ Ñĥ
ĠáĥĵáĥĲáĥķ áĥĺáĥĹ
¡à¸µà¸ Ħà¸§à¸²à¸¡à¸
ĠÏĦÎ· Î»Îµ
áĥķáĥļ áĥĲ
osti tu
æł ¹
à«į àª
çİ© æ³ķ
Ġ\ /
Ġà¹Ĥà¸Ľà¸£ à¹ģà¸ģà¸£à¸
Ð»Ñİ Ð´
Ġpu es
×Ļ× £
¨à¸²à¸ªà¸ķà¸£ à¹Į
Ð»Ñı ÑĤÑĮ
Ľ à¸´à¸Ķà¸
Ġà®¨ à¯Ĩ
ĠÃ ¢
Ġà¤¬ à¥ĩà¤Ł
ë° ±
Ð°ÑĤ ÑĥÑĢ
Ã¡ no
Ġà¤®à¥ģà¤ĸ à¥įà¤¯
il ar
ãĤī ãĤĮ
ĠØ¨Ø§ÙĦ Ùħ
Ġáĥĺáĥ¥ áĥľ
Ġh la
íķĺ ëĭ¤
Ġà¦ľ à¦¾à¦®
Ġro dzin
el se
ĠØ¨ÙĪØ¯ Ùĩ
Ġáĥ¤ áĥĲáĥ¡
por te
Ġk ami
Ġsyst Ã¨me
Ġà¦¶ à§įà¦°
Ġà®ķà®Ł à¯įà®ļ
ĠPols ce
Ġcom men
Ġs Ä±
Ġà¤¦ à¥ĩà¤Ĥ
Ġà¤ļ à¥Ģà¤¨
Ġà®¨à®Ł à®¨à¯įà®¤
×ŀ× Ĺ
Ġag li
Ġmemili ki
ØŃ Ùħ
Ġà¦¹à¦¾à¦¸ à¦ªà¦¾à¦¤
áĥļ áĥĶáĥĳáĥ¡
hl t
à§Ĥ à¦ª
v ky
c ÃŃa
ĠÙħÙĪ Ø¶ÙĪØ¹
à¯Īà®¯ à®¿à®²
e ll
Ġza le
Ġà¤¬ à¤¾à¤¹à¤°
ica do
Ġlo kal
ãĥ¼ãĥ ŀ
ì½ľê±¸ ìĥµ
ĠíĨµ íķ´
Ġtij d
Ùĩ Ùı
Ø® Ø¯Ùħ
stell ung
ĠN el
ļ à¸£à¸´
Ġsep tembre
9 6
ĠÃ Ń
Ø² Ø¯
ĠÎ±Ïħ ÏĦÎŃÏĤ
ĠáĥĽáĥĿáĥ ¬
ĠÎĺ ÎŃ
Ġf ond
Ġ×Ľ ×ĵ×Ļ
Ġå ĵ
Ġá Ĭ
ĠÑĩÐµÐ»Ð¾Ð²ÐµÐº Ð°
Ġà®¤à¯Ĭ à®ķ
Î¼Îµ ÏĤ
Ġáĥ¯ áĥĲáĥľ
u ten
Î¸ Î»Î·
ĠÑĢÐµÐ± ÐµÐ½
Ġob chod
à¦¿à¦ £
Ġà¹Ģà¸ ªà¸
Ġu00 3
55 5
ĠÐ½ Ð¾ÑĢÐ¼
ãĤĬ ãģ®
Ġn ik
à¸Ńà¸ ±à¸ĩà¸ģà¸¤à¸©
ĠÎ± Î³Î±
di da
Ð¾Ð¿ Ð°Ñģ
ĠáĥĽáĥ£áĥľáĥĺáĥªáĥĺáĥŀ áĥĲáĥļ
à¹ģà¸ªà¸Ķà¸ ĩà¸
ÏĦÎ® Î¸Î·ÎºÎµ
ĠáĥĵáĥĲ áĥĲáĥķáĥĲáĥĵ
Ġon larÄ±n
Ġäºļ ç¾İ
åħ ħ
c om
Ġesta do
à¸£à¸ °
Ð°Ð· Ð´
èĹ ¥
à¥ģ à¤Ł
à¹ĩ à¸Ļà¸
ĠÐ³ Ð°Ð·
à¸£ à¸Ńà¸ĩ
Ġà®ª à®¿à®³
ĠCh ar
A C
Ã©r er
ĠÐ¸Ð½ Ð´
ìĬ ¹
Ø§ÙĨ ÙĪÙĨ
å¦ ¹
à· ĵ
q ram
Ġáĥĳ áĥĲáĥľáĥĻ
à®¿à® ·
Ġob ec
ä»ĺ ãģį
ãĤı ãģĽ
m eld
Ġde g
Ġáĥ¤ áĥĿáĥľ
Ã¡l nÄĽ
le me
ĠrÃ©s ulta
Ġkom mt
ĠìĹ ħ
à§¦ à§¦
Ġv it
Ġfir my
Ġà¤ķà¤° à¤¤à¥Ģ
åĢ ĭ
b es
ĠÉĻm ÉĻl
Ġspo ÅĤe
Ġà¤ıà¤ķ à¥įà¤¸
Ġëł Ī
ĠE L
Ġáĥĳáĥĺáĥĸ áĥľáĥĶáĥ¡
Ġtr ang
re a
Ġq adÄ±n
Å¼ eli
Ġst ÅĻe
ĠÚ© ÙĪ
Ġil in
Ġy Ã¼z
ĠÙģÙĬ Ùĩ
à¤µ à¤°à¥Ģ
Ġà®ħà®¤à®¿à®ķ à®¾à®°
Ġneu en
Ġsi ng
t wa
¼ åħ¥
Ġfin al
Ġven dita
ca le
b ir
à¹ĩà¸ ĩ
ick Ã½
åª Ĵ
Ġt wee
Ø§Ø± Ø³
ĠÏĢ Î®
ĠáĥĲáĥłáĥ ©áĥĶáĥķáĥľ
ÎĻ ÎŁ
à¦¤ à¦®
K I
æĸĩ åĮĸ
å¤§ çļĦ
ÑĥÑĤ ÑģÑĤÐ²
ĠÅ¼e by
ĠÎ±Î½ ÏĦÎ±
ĠáĥĲáĥ ¢
Ġf ol
ĠÎłÎ± Î½Î±
ĠÐ¾ ÑĨÐµÐ½
Ġí ĳľ
ĠC ON
g et
ÏĦÎ® ÏģÎ¹Î±
Ġ ĆĈ
Ð½ ÐµÐ¼
á»Ł i
Ġv ente
Ġà¸Īà¸ ³à¸
ĠÏĩÏģÎ·ÏĥÎ¹Î¼Î¿ ÏĢÎ¿Î¹
ct ura
ĠÐ¢ ÑĢ
áĥłáĥĽ áĥĲ
Ĺà¸ ±à¸Ļà¸
Î¼Î² Î±
Ġv Ã©
ĠáĥĲáĥłáĥĲáĥĽ áĥĶáĥĵ
åĪĨéĴŁ pk10
Ġæ± Ł
åį °
ĠÅ ĺ
Ġà¸ ĺ
ĠÑģÐ» Ð¾Ð¶
à¤Ĥà¤Ĺ à¥ĩ
à¤¿à¤¸à¥įà¤¤ à¤¾à¤¨
Ĺ à¸£à¸±à¸
ĠÐ´ ÐµÑĢ
ĵ à¸²à¸
Ġi qtis
ĠÃ Ī
Ġpres enta
ĠG em
ĠÐ¸Ð¼Ðµ ÐµÑĤ
Ø§ÙĦ Ø§Øª
Ġinforma tions
Ġà¤ĩà¤¸ à¥Ģ
Ġà¤µà¥įà¤¯ à¤ķà¥įà¤¤à¤¿
Ġhe ute
ĠáĥĵáĥĲáĥ ĸ
ãĥĨ ãĥ«
t ÄĻp
Ġà®ªà®¾à®¤ à¯ģà®ķ
Ġada m
Ġzd ra
×¨ ×Ĺ
à¦¾à¦ ¯
u an
ĠdÃ©velo ppe
Ġc ï¼Ĳ
ĠìĬ¬ ë¡¯
Ġì º
Ġáĥĺáĥķ áĥľáĥĺáĥ¡
ÙĪØ± ÙĬØ©
res ie
Ġà¤®à¤¦ à¤¦
Ġz mÄĽ
v ille
Ġal Ä±n
b G
Ġfor me
èģ ·
Ġalgun os
áĥĲáĥļáĥĺ áĥĲ
à°¾à°ķ à±įà°·
ib ilidad
Ġà®ĩà®°à¯ģà®ķà¯įà®ķ à®¿à®±
Ġz ÅĤo
Ġpel a
Ã¼r lich
éģ İ
ĠØ® Ø·
Ġà® ·
Ġà°¤à±Ĩà°²à°¿à°ª à°¾à°°à±ģ
lÉĻr lÉĻ
ĠB a
à´Ł àµįà´Ł
st wa
Ġà¤¬ à¤¾à¤²
Ġà¦ª à¦¥
Ġt us
ka uf
Ġserv icio
Ķà¸´à¸¡à¸ŀà¸ ±à¸Ļ
is tre
Ġà¤ķ à¤¾à¤¹à¥Ģ
Ġno i
Ġk ni
Î¼Î¿ Î¹
áĥĿáĥłáĥ ĵ
Î² Î¿Ïħ
à°° à±įà°¤
ÅĤÄħ cz
áĢ Ĳ
è´ Ł
ĠÐ² ÑģÑĤÑĢ
Ġter az
ÎĻÎļ ÎĹÎ£
f ern
tor io
ÎºÏĮ ÏĤ
ĠÑģÐµÐ± Ðµ
Ġà®ķ à®³
à±Ģà°¸ à±į
ģà¸İ à¸
ÏĥÏĦÏħ Î½Î¿Î¼
33 3
Ð°Ð½ Ð¸Ñİ
Ġà®İà®©à¯įà®± à¯ģà®®à¯į
Ġpub blica
Ġà¹Ģà¸ ĭ
ĠÎĳÎ¸Î® Î½Î±
ĠvÅ¡ech ny
ĠÐ³ Ð¾Ð»
Ġáĥ©áĥĶáĥĽ áĥ¡
ģà¸³à¸ «à¸Ļà¸
ĠÎ¥ Îł
áĥĿáĥĳ áĥĹ
ÙĬ Ø§Ø±
åĿ Ľ
ç¼ ĸ
çĤ º
ĠÅŁ irk
¶à¸ ĩ
ĠÐ½ÐµÐ¾Ð±ÑħÐ¾Ð´Ð¸Ð¼ Ð¾
à¤° à¤¿à¤ķ
t out
à¹ģà¸Ļà¸ §à¸
ĠÐ² ÐµÑī
§à¸²à¸ ĩ
d ores
Ø³Øª ÛĮ
ce d
ë§ Ľ
ĠÐ¶ÐµÐ½ Ñī
´ë ¦
Ġà¦ĸ à¦¬à¦°
Ġà°ķ à°¾à°®
Ġproto Å¾e
à°¾à°¤ à°Ĥ
Ġmu chos
lie ÃŁ
Ġkon ie
Ġa be
Ġse perti
ĠÙĬ ØªÙħ
Ġà¦¸ à¦¾à¦²
Ġà®İ à®ªà¯įà®ªà®Łà®¿
áĥĲáĥ®áĥļ áĥĿ
lle ment
Ġch á»©c
ê¸° ë¥¼
à§Ł à¦¨
ãĥ© ãĥ¼
×Ļ×¢ ×Ķ
ĠDz ie
Ġà¦ Ĳ
ãģ¡ãĤĥ ãĤĵ
ĠÚ© Ø§Ùħ
Ġà®µà®¾à® ļ
Ġtrze ba
Ġà°°à±ĭà°ľ à±ģ
ver o
è» ¢
àµĩ à´
à¤° à¤¾à¤¬
il de
am t
oba cz
Ġà®¨à®¿à®² à¯Īà®¯à®¿à®²à¯į
Ġ iy
Ġver schieden
Ġc entro
form atie
ĠØº ÛĮØ±
d ro
ãĤĤ ãģĹ
t vÃŃ
anie m
Ġà¦ķà§Ł à§ĩà¦ķ
Ġà®ªà®¯à®©à¯įà®ª à®Łà¯ģà®¤à¯įà®¤
Ġh vor
Ġimport ante
à°ª à±ĭà°¤
«à¸ §
Ġà¤ĩà¤¸ à¤ķà¤¾
ä½ ³
à¦¿à¦ķ à§ĩà¦Ł
Ġà¦īà¦ª à¦¸à§įà¦¥
ÎµÏģ Î¼Î±Î½
Ġà°ĩ à°¦à±įà°¦
Î¯Î¶ ÎµÏĦÎ±Î¹
or g
d W
Ġ ä¸ĭ
çľ ¼
ĠÐ´ Ð¾Ð±Ð°Ð²
Ġna u
ĠÎĺÎµÏĥÏĥÎ± Î»Î¿Î½
×Ĺ ×ĵ
Ġíģ ¬
Î¹ÎºÎ¿ Î¯
ĠÐ» Ð¸Ñĩ
à°¾à°® à±ģ
k in
ŀà¸ ¥à¸²à¸
ĠÎľ ÏĢÎ¿
æĿ Ģ
ĠÐ¶ Ð¸Ð·Ð½
Ġáĥ£áĥ ª
Ġserv izio
à¸Ļà¸ °à¸
ĠÎ¿ ÏģÎ³Î±Î½
åĢ ¤
ÑĢ Ð°Ð¶
os o
Ġà¸¥ à¹Īà¸²à¸
ĠÎºÎ± ÏĦÎ¿
Ġà°¬ à±Ĩ
ĠØª Ø·
à¤¡ à¥ĩ
åį Ĭ
Ġà¤² à¤¾à¤Ĺ
Ġáĥĵ áĥĲáĥ¢
à¹ĩà¸ ¡
g ht
va tel
ĠØ¬ ÙĨ
Ĥ à¹īà¸Ńà¹Ģà¸
Ð°ÑĢÐ¸ Ð°Ð½ÑĤ
Ķà¸²à¸§à¸Ļà¹Į à¹Ĥà¸«à¸¥à¸
Ġz al
Ġmad uras
Ġa ca
ĠáĥĽáĥĺáĥ®áĥĶáĥĵ áĥķáĥĺáĥĹ
Ð² Ð¸Ð¶
gen es
Ġà¦ķ à¦¾à¦²
à±ĩà°¸ à°¿
Ġh y
Ġà°ħà°§ à±įà°¯
Ġ×ĳ ×ĺ
Ġk onn
w al
Ġí ħ
ĠÄ°l ham
Ġol acaq
à¦Ľ à¦¿
den za
ĠpÃº bl
ĠÃ© lÃ©
ä»¥ ä¸Ĭ
Ġà¤ħà¤® à¥ĩà¤°
à§ĩà¦ «
Ġtamb Ã©m
Ã± as
p i
Ġà¦ªà§įà¦°à¦¶ à§įà¦¨
k lich
áĥĺáĥł áĥĺáĥ¡
Ġno ta
c iÄĻ
Ġà°¤ à±Ģ
Ġho áº·c
Ø§ÙĦ Øª
ÖĢ Õ¡Õ¶
alÄ± dÄ±r
ĠAr t
à¯ģà® ¯
Ġv endre
ĠC hr
Ġáĥ¨ áĥĶáĥ¢
ĠdÃ© ta
×© ×Ļ
ĠØ¨ Ø£ÙĨ
áĥĿáĥľ áĥ¡
Ġju illet
ì ±ħ
ĠÅĽ wie
Ġver sch
Ġà¦ªà§įà¦°à¦§à¦¾à¦¨à¦® à¦¨à§įà¦¤à§įà¦°à§Ģ
Ø´ Ø§ÙĨ
sk e
r ero
à°° à°¿à°Ĥà°ļ
ªà¸²à¸ ¢à¸
da kÄ±
æľĢæĸ° çĻ»å½ķ
Ġà¦¬ à¦¹
à¦¨ à§įà¦Ł
Ïģ Î¹ÎºÎ®
à°¨ à°¾
ĠÎ¼ Î®Î½
ĳ ìĿ´
Ġà®ķ à®¿à®³
ä¾ Ĩ
çł´ è§£
Ð»ÐµÐ½ Ð¾
è¼ ī
Ïĥ Î¯ÎµÏĤ
ãģĤãĤĬ ãģ¾ãģĽãĤĵ
Ġkar ÅŁÄ±
ĠÎµÎ¯ ÏĩÎ±Î½
ÑĮ ÑİÑĤ
Ġk teÅĻÃŃ
Ġà¤¦ à¥Ĥà¤°
Ġà¹Ģ à¸Ļ
ĠÎºÎ± Î»Î¬
ĠæŃ ¤
Ġ": {"
ĠáĥłáĥĶáĥĴ áĥĺáĥĿáĥľ
ar o
à¹ģà¸ľ à¸Ļà¸
ĠÎ³ ÏħÎ½Î±
Ġà°ª à°Ĥà°ª
ĠÐ¼ Ð°ÑģÑģ
Ġpor n
à¹Ĥ à¸Ń
ĠÏĢÎ¿Î» Ïħ
ì¶ľìŀ¥ ë§ĮëĤ¨
Ġëª »
ç½ Ĺ
Ġag äºļ
å¤ Ł
Ġdo c
à¹ģà¸Ļ à¹Īà¸Ļ
ÑĢ Ð¸Ð¼ÐµÑĢ
Ö ¹
Ġ×© ×§
Ġ256 0
ÐµÑĢ Ð½
à¹Ħà¸¡ à¹īà¸
un ft
Ġt al
Ġpas ado
Ġà®¨ à®®à¯įà®®
ĠÐ¿ÑĢÐµÐ´ Ð¾ÑģÑĤÐ°Ð²
Ġa demÃ¡s
Ġà¦¹ à¦¾à¦®
áĥĶáĥ¢ áĥĺáĥ¡
Ġl Ã©g
Ġà¤° à¤¾à¤¹
à¤ľ à¤¾
à®¤ à®±à¯įà®ķ
à±ĭ à°ķ
ĠØ´ ÙĬ
ĠëĶ Ķ
Ġsu i
à¦Ł à§įà¦Ł
Ġk ons
Ġà¤īà¤¸ à¤ķà¥Ģ
menta ire
lau b
Ġcam bi
à¦¨à§įà¦¦ à¦°
Ġer ste
Ġjak i
Ġà°¸à°Ĥà° ĺ
Ġà¦¤ à§ĭà¦®
ch y
Ġà¤µ à¤¹à¥Ģà¤Ĥ
Ġe lles
ĠáĥĽáĥĺáĥĸ áĥĶáĥĸ
Ġà¤Ńà¤¾à¤ľ à¤ªà¤¾
æĸ Ĺ
×Ļ×ª ×Ķ
liy inin
ĠnÄĽ kol
ĠAI J
ë¦ Ħ
Ġolun ur
ĠT am
Ġpoz osta
áĥĲáĥ¬ áĥ§
ĠØ§ÙĦØ£ Ø®
ĠÙħ Ø±Ú©
mo re
Ġà®ļà¯ĩà®° à¯įà®¨à¯įà®¤
lu g
Ġbeso in
ia li
à§ĩà¦·à§įà¦Ł à¦¾
à°¨à±įà°¨ à±ģ
ors a
ub re
ĠçĦ ¡
à¸Ńà¸µà¸ ģ
ĠktÃ³re j
å± ħ
à¦¿à¦ ¥
Ġà°¨ à°µ
ĠÎ¹ Î´Î¹
ĠáĥĲáĥĵáĥĲáĥĽáĥĺáĥĲáĥľ áĥĺáĥ¡
ĠÏĨ ÏĮ
Ġdon nÃ©es
erca to
ç¾İ åĽ½
è¿Ļ ä¸ª
Ð¸ Ð»Ñı
Ġt Ã¼m
Î»Î¿Î³ Î®
Ġpo de
éģ Ķ
Î»Î¯ Î´Î±
ĠÐļÑĢ Ð°Ñģ
Ø§Ø±Ùĥ Ø©
à·Ĵ à¶º
Ĺà¸µ à¹Ģà¸Ķ
ĠÎ ī
1 00
ĠÐºÐ¾Ð½ ÑĤ
Ġà®ªà®¿à®° à®ļà¯įà®ļ
Ġà°µà°¾à°° à±įà°¤
Ķà¸³ à¹Ģà¸Ļà¸´à¸Ļà¸
ĠÏĥ ÏĢÎ¯
un es
Ð¸Ð» Ð¾ÑģÑĮ
den cia
à¹Ģ à¸Ńà¸ĩà¸
ĠÏĩ ÏģÎµÎ¹
Ġprodo tti
áĥĲáĥ¡ áĥłáĥ£áĥļ
å¥ ¹
çŁ ³
Ġçº ¿
ian co
±à¸ ģà¹Ģà¸
ĠÐ± Ð¸Ð·Ð½ÐµÑģ
ĠÙħ ÙĦ
Ġok re
Ĥ à¸Ļà¸
ĠÐºÐ°Ð· Ð¸Ð½Ð¾
Ġà¹ģà¸« à¹Īà¸ĩ
à¦£ à§ĩà¦°
Ġà°®à°¾à°° à±įà°ķ
Ġpeti te
Ġë¸ Ķ
ĠÐ¿ÑĢ Ð¸Ñģ
b eid
Ġp at
×ķ×ľ ×Ļ×Ŀ
Ġë© Ķ
àµģà´ ķ
à¥ľ à¤¾
Ġáĥ© áĥĲáĥ¢
ĠIn tern
Ø² ÙĬØ¯
Ġzp Å¯sob
er de
à°¿à°Ĥà°¦ à±ĩ
Ġà°ª à°¾à°ł
å¤§ é¦Ļèķī
ĠÔ ¿
Ġol maq
Ġà®® à¯Ĩ
áĥľ áĥĵáĥĲ
Ġm io
ĠÚ© Ø§ÙĦ
à°¾à°Ł à°¿
Ġë² ł
us ch
à¤® à¤Ĥà¤¤à¥įà¤°à¥Ģ
is ke
ãģį ãģŁ
Ġà¤¶ à¤¹à¤°
æĵ į
ĠÛ ³
Ø¨ Ø±Ø¯
Ġà§§à§ ®
ÅĽ nia
ØŃ ÙĨ
ĠáĥĽ áĥĲáĥļ
ir ÉĻm
ta q
is piel
ÙĤÙĬ ÙĤ
à¦¾à¦¤ à¦¾
Ġsv ilu
Ġà®ķà¯ĩ à®³à¯įà®µ
Ġcel ui
ro t
à®® à¯Ī
Ġdi v
âĢĮâĢĮ âĢĮâĢĮ
Ġd Ã¼z
áĥĲáĥĽ áĥĳ
à§ĩà¦¸ à§įà¦Ł
Ĭ à¸²
Ġwiel u
åĢ į
à®ªà¯įà®ªà®Łà¯įà®Ł à¯ģ
Ġà°ľà°°à°¿à°Ĺ à°¿à°¨
Î±Î¹ ÏģÎµ
ë§ Ĳ
ĠÎ¼ Ïħ
Ġà¦īà¦ª à¦°
ici p
å¤§ åİħ
å¾ Ģ
Ð² ÐµÑĢÐ¶
ĠÃº n
ĠÎ¼Î¹Î± ÏĤ
wer k
åį ĺ
ĠÎ¼ Î®
ĠÐ¸Ð· Ð±
ite z
à´ª àµįà´ª
Ĺ à¹Īà¸²à¸Ļà¸
ĠÏĢÏģÎ¿Ïĥ ÏĦÎ±
åº ·
ĠÑĥ ÑģÐ¿
áĥĺáĥª áĥĺáĥĺáĥ¡
Ġà°ķ à±įà°¯
Ġà¸£ à¹Īà¸²
ĠÎ´ ÏģÎ¬
Ġê°Ģ ìŀ¥
ÐµÑĢ Ð²
Ġà®ħà®°à®ļ à®¿à®¯à®²à¯į
§à¸´à¸ĺ à¸µà¸
ĠÏĩÏģÏĮ Î½Î¿
ĠÙĪ ÙĤØ¯
om men
éģ Ĺ
ĠãĢĳãĢĲ ãĢĤ
åĿ ĩ
Ġstr ut
l ass
ĠÑģÐ¿Ðµ ÑĨÐ¸Ð°Ð»ÑĮ
ĠC Ã´ng
Ø¸ Ùĩ
«à¸Ļà¸±à¸ĩà¸ ªà¸
ÑĤÐ¾ Ñĩ
Ġà¸ĭà¸ ¶à¹Īà¸ĩ
Ġ×¦ ×¨
à®¤à¯įà®¤ à®¿à®±à¯įà®ķ
Ġv idÃ©
b nÃŃ
Ð°Ð¹ Ð´
ĠáĥĽ áĥĲáĥłáĥ
ĠVÃŃ ce
u jÃŃcÃŃ
Ġj Äħ
ĠA M
à¤ľ à¤¾à¤°
Ġabe uk
da pat
Ġpos ible
Ġno vembre
ĠÄĳ áº¡i
Ġáĥķ áĥĺáĥĹ
am ÉĻt
Ġà¤¨ à¥įà¤¯
ãĤ¯ ãĥª
ĠDe ze
ĠáĥĽ áĥ¥áĥĿáĥľ
w ick
ÙĪ Ø·
Ġfac ile
Ġà°°à±Ĩ à°¡à±įà°¡à°¿
Ġà°¸à°® à°¯à°Ĥà°²à±ĭ
po zy
à¤ ĥ
ĠdeÄŁ iÅŁ
Ġsy tu
à´¾à´£ àµį
à¤ª à¤¾à¤²
×Ļ×ķ×ª ×¨
Ġà¦ıà¦¬ à¦¾à¦°
à¦Ĺ à¦°
à¦Ł à¦¾à¦°
å¤ļ ãģĦ
à®¿à®© à¯Ī
te g
in ts
Ġb ÉĻz
áĥļ áĥĲ
ÙĬÙĨ Ø§
áĥĲáĥĺ áĥ¡
Ġpon ad
Ú¯ Ø±ÛĮ
à¦ķ à¦®
Ġav ere
à®² à¯įà®ķà®³à¯į
ãĥ¼ãĥ Ĩ
ind et
áĥł áĥĶáĥĳáĥĲ
Ġp esso
Ĭ à¸´
Ġz de
à¤¾à¤® à¥ģà¤³à¥ĩ
ĠØ´ Ø±ÙĥØ©
Ġà¦® à¦¾à¦Ŀ
ÏĦ ÏģÎ¹
ĠUni vers
Î±Î¹ Î½
ĠC H
jour d
à¤¾à¤ ¢
Ġå¦Ĥ æŀľ
ĠÑģÑĤ Ð°Ð²
Ġ ãģ§
Î¹Ïĥ ÏĦÎ±
Ġà°Ĩ à°Ł
Ġhab ita
ÎºÎ± ÏĦÎ±
ÑģÐ¿ Ð¾ÑĢÑĤ
b 3
Ġà¤° à¤Ĥà¤Ĺ
¢à¸Ļà¸ ķà¹Į
ÏĦÎµ ÏģÎ¿
ć ć
ÑģÑĤ ÑĢÐ¾
áĥĲáĥ¡ áĥĺáĥĲáĥĹ
y ba
à¹Ħà¸ Ĥà¸
ĠÏĢ Î»ÎŃÎ¿Î½
Ġga an
ĠÑĢÑĭ Ð½
c ara
ļà¸²à¸ ¢
ÎĹ Î¡
à¦¾à¦ģ à¦ļ
Ġin ve
Ġà¤® à¤¿à¤³
è¯ Ń
å·² ç»ı
æİ ¢
ŀ à¸Ńà¸
ĠÐ¿Ð¾Ð·Ð² Ð¾Ð»Ñı
b as
Ġz ÃŃ
Ġà¸ªà¸¹à¸ ķà¸£à¸
ĠÐ¸Ð· Ð²ÐµÑģÑĤ
Ġà¸ªà¸³à¸« à¸£à¸±à¸ļ
¤ Ħ
ĠPro ble
az z
Ġed u
ĠÑģÐ² ÐµÑĤ
áĥ£áĥ ĸ
Ġà¦¬ à¦°à§įà¦¤
Ġre v
ĠWy ÅĽwiet
è¶ħ ç¢°
Ġà¤¨ à¥įà¤¯à¥Ĥ
ãĤĵ ãģ§ãģĻ
èª ¬
ĠÙĩÙĨØ§ Ùĥ
Â ¡Â
Ġd Ã¹ng
à¯ģà®ķà®³ à®¿à®²à¯į
Ġà°ħ à°ª
Ġà¤ľà¤Ĺ à¤¹
Ġf emmes
Ġp unto
áĥļ áĥĿáĥĳáĥĲ
in te
áĥĿáĥķ áĥĲáĥľ
Ø¬ Ø§Ø¯
Ġbil g
ãģ® ãģ§ãģĻ
Ġko le
áĢŃ áĢ¯
u ta
Ġal bo
Ġà¤¹à¥Ĥ à¤Ĥ
à¥Ĥà¤° à¤¤
un icip
Ġà¦ļ à§ĩà§Łà¦¾à¦°
Ġà¦Ĩà¦² à§ĭà¦ļ
Ġà¦ªà§įà¦° à§Ł
olo gÃŃa
Ġë ģ
à°¾à°¯ à°¨à°¿
sch ein
p ort
Ġnet t
Õ¡Õ¾ Õ¸ÖĢ
Ġh ey
Ġro d
Ġcu mp
éĢ ²
Ġgiá» Ľi
Ø§Ø® ÙĦ
Ġà°ħ à°²à°¾
Ġau jourd
Ġim mag
×ĳ×¨ ×Ķ
ľà¸¥à¸´à¸ķà¸ łà¸±à¸ĵà¸ĳ
Ġà°° à±Īà°¤
Ġç Ī
Ġà°¬ à°¾à°Ĺà°¾
ĠáĥĹáĥĲáĥł áĥĺáĥ¦
ĠÎ¼Î· ÏĩÎ±Î½
ĠM Ã©
ÏĢÎµ ÏģÎ¹
Ġmog elijk
ĠzÃ¡ kon
Ġà¨ ®
åĨ ł
Ð½ Ñİ
áĥĽ áĥĲáĥłáĥĹáĥķáĥĶáĥļ
ÎĻÎļ ÎŁ
larÄ± m
Ġrep res
Î¼ Î·Î½
ÑģÑĤÐ² Ðµ
u q
Ġà¤¤ à¥ĩà¤ľ
Ġà¸ģ à¹ĩ
ÏģÎ¯Î¶ ÎµÎ¹
ĠAGçİ¯äºļ éĽĨåĽ¢
Ð°Ðº Ð¾Ð²
Ã¶ ne
Ġ ÅĤa
ĭ à¸´à¸
ÏĥÎ± Î¼Îµ
Ġà¦¬à¦¿à¦ľ à§įà¦ŀ
ĠÑĥ Ñģ
ĠáĥĹ áĥ£áĥłáĥ
Ġg club
ĠÎµ ÏĢÏĮ
à±įà° «
ĠF ahr
Ġæ ĥ
æ ½
ĠéĢ ļ
Ġden ne
Ġà¸ŀà¸ ¤à¸
Ð¸ÑĨ Ð°
Ġpre gun
ĠØ§ÙĦØª ÙĨ
ģà¸²à¸£ à¹ĥà¸Ĭà¹īà¸
ĠÐ¾ÑĤÐºÑĢ ÑĭÑĤ
ļà¸²à¸ ¥
x te
ĠN ero
ĠØ³ Ù¾
Ġgra cias
ĠÑģÐ¾Ð² ÐµÑĢÑĪ
Ġ×ª ×§
Ġm m
â ĺ
ë ¹
ĠçĶ ·
à¤¾à¤¯ à¥ĩ
ĠáĥĹ áĥĶáĥĳ
áĥĿáĥĳ áĥłáĥĺáĥķáĥĺ
ĠnÃ¡ m
Ġà®¨ à®£à¯įà®ª
Ġabb iamo
Ġà°®à±Ĥà° ¡à±ģ
ĠDÃ© c
Ġà¤ķ à¥ģà¤²
Ġre tr
st anbul
Ġilg ili
ÉĻs iz
ĠÅ¾ Ã¡d
b ud
à¯ģà®ķà¯įà®ķ à®¾à®ķ
Ġqual itÃł
Øª Ø¨
à¤¿à¤¤ à¥įà¤°
Ġ×©×ľ ×Ĳ
Ġwe il
à¥įâĢį à¤¯
p da
Ġdes car
Ġvo yage
asi h
ì¶ľìŀ¥ìĥµ ìĺĪìķ½
ĠP el
ie w
ìĹ Ĩ
Ġà¦¸ à§įà¦¤
Ġà°ı à°ª
Ġà°¨ à°¾à°¯à°ķ
g lia
Ġíķ¨ ê»ĺ
Ġáĥł áĥĶáĥĻ
Ġdes e
arz Äħ
Ġsc el
Ġà®ļà®® à¯Ĥà®ķ
m asÄ±na
Ġj ÄĻzy
×ķ×¨ ×ª
à±ģà°¡ à°¿
Ĭà¹Īà¸§à¸ ĩà¸
ĠSt and
Ġà¨ ¤
ĠØ¨Ø§Ø² Ø¯ÛĮØ¯
Ġho e
ÏĥÏĦ Î¹Î±
Ġi gu
ÎĻÎļ Îĳ
à§Ī à¦¤à¦¿à¦ķ
Ġà®ĩà®°à¯ģà®ķà¯įà®ķ à®¿à®±à®¤à¯ģ
Ġ äºĨ
Ġà¤ķà¥ĩ à¤²à¥ĩ
ĠÐļ Ð°Ð·
Ġáĥ «áĥļ
Î¶ Î¿
Ùģ Ø§Ø¹
olu ciÃ³n
ÏĨÎ± ÏĥÎ·
ĠÐ³ÑĢ Ð°Ð¶Ð´Ð°Ð½
Ġsah ib
Ġà¤¡ à¥Ģ
ģà¸²à¸£à¸ ĵà¹Įà¸
á¿¶ Î½
0 6
ÑĥÑĤ Ð±
le gen
Ġcon ten
Ġà¹Ģà¸Ĭ à¹Īà¸Ļ
ĠÎ±Î½Î¬ Î³Îº
Ġpou Å¾ÃŃ
ÑĢ Ð¾Ð¼
ëŁ °
à¸£ à¹īà¸²à¸Ļà¸
ĠÏĮÎ» ÎµÏĤ
Ġà°Ĩ à°Ĥà°§à±įà°°
Ġà°¸à°Ĥà° ĸà±įà°¯
ĠE 0
Ġå »
æŃ ¢
Ġserv izi
Ĭà¸± à¹Īà¸Ļà¸
ĠÑĦ ÑĥÐ½Ðº
Ġà¦¨à¦¿à¦¶ à§įà¦ļ
Ġáĥĺáĥľ áĥĵ
¡à¸ «à¸²à¸
ĠÐŁÑĢ Ð¾Ð´
à¹Īà¸²à¸¢à¸ Ĺ
d s
ĠØ± Ø¯
ĠÙĦ ÙĨ
à¯Ĩà®° à®¿à®ķà¯įà®ķ
ĠâĢ ļ
ĠQu Ã©
Ġkh u
Ġhar us
Ġìļ ©
å¨±ä¹Ĳ åŁİ
Ġà¤¬ à¤Ĥà¤¦
urs os
à±ģà°ķ à±ĩ
ĠA uto
ie me
Ġ×¢ ×ķ×ĵ
à°® à°¨à°¿
ìĸ µ
Ġà¤ī à¤ļà¥įà¤ļ
Ġà¦ Ī
Ġtrab al
Ġà¦ª à¦¾à¦¨
Ø§Ø¦ Ø±
y i
EN T
Ã® tre
Ġsu lle
Ġb i
9 7
re t
Ø§Ùģ Ø¸
Ġà¤ħà¤² à¤¾à¤µà¤¾
Ġà¤ľ à¤¿à¤²
Ġni Ã±os
×ĺ ×Ļ
áĥĺáĥ¢ áĥĲáĥľ
Ġê°Ģ ëĬ¥
ab or
Ġga at
Ġrapp ort
ĠD urch
Ġà°Ĩ à°²
Ġmo c
Ø§Ø¶ ÙĬ
à§ ¯
¹ ä»ĭ
Ġo fic
Ġà®¨à®©à¯įà®± à®¿
ãĤĬ ãģ¾ãģĹãģŁ
Ġpo ÅĻ
ig lie
à¯ģà®ļ à¯įà®ļ
Ġà°ª à°¨à°¿
Ġbe f
Ī à¸µà¸Ļ
à¦¾à¦ª à§įà¦¤
è¦ģ æ±Ĥ
Õ¥Õ ´
Ġd il
ĠÎµÏĢ ÎµÎ¹
Ġt on
ĠÎķ Î¯
ĠrÃ© se
à°¦ à°°à±įà°¶
ä¸Ń å½©ç¥¨
è¿ İ
ĠÐ½Ð°Ð´ Ð¾
Ġkon ta
Îº ÏĦÎ·
Ø® ÙĪ
à¯ģà®µ à®¿à®Łà¯įà®Ł
ÏİÎ½ ÎµÎ¹
ĠÐº Ð¾Ð¶
az o
Ġà¤ķà¥Ģ à¤®à¤¤
ļ à¸´à¸Ļ
ĠÎ±ÏĢÎ¿ÏĦÎµ Î»ÎµÎ¯
Ħ áŀ
Ñĩ Ð¸Ðº
Ġà®ķà¯ĩ à®Ł
r is
à¸Ńà¸±à¸Ļà¸ Ķà¸±à¸ļ
ÏĢÎµ Î´Î¿
Ġà®ķ à®£à¯įà®£
ĠÐ´Ð¾Ð¼ Ð°
Ġserv icios
Ķ à¸´à¸Ļà¸
Ï ĭ
Ġdoda tk
áĥ¨ áĥĺáĥª
Ġéĩ ĳ
Ġå¤§åıĳ äºĶ
Ġd 88
Ġà§¨à§¦à§ ¨
Ġs lot
Ðº Ð¸Ðµ
Ġà¦¬ à¦¾à¦ľà¦¾à¦°
à®°à¯įà®ķà®³ à®¿à®©à¯į
à¸Ńà¸ ´à¸
ĠÑģÑĢÐµÐ´ ÑģÑĤÐ²
ģà¸ ¸à¸
ÙĬ Ø·
Ġ×ĵ ×ĳ×¨
ca to
Ġv id
ĠÐ»ÑİÐ´ ÐµÐ¹
pa ce
Ġà¦¦à§ĩà¦ĵ à§Łà¦¾
ĠáĥĽáĥĺáĥ ®
Ġte gen
Ġà¤¹ à¤¿à¤¸
à¥ģà¤¦ à¥įà¤§
Å¼ u
ì Ĥ
ci Äĩ
Ġáĥķáĥĺáĥĵ áĥĶáĥĿ
ul io
Ġe lla
ĠÃł s
Ġmen o
ka za
à¦¾à¦¹ à§Ģ
ĠáĥĲáĥĽáĥĳ áĥĿáĥĳáĥ¡
à±ģà°ķà±ģà°¨ à±ĩ
h in
qu oi
ĠáĥĲáĥľ áĥ£
Ġnh iÃªn
Ġà®ĩ à®´
ĠfÃ© vrier
ĠmÄĽ sÃŃ
à¦¾à¦Ł à¦¿
Ġë² ķ
Ġáĥ¨áĥĶáĥĴ áĥĺáĥ«áĥļ
Ġa quÃŃ
st ra
ÙĪ ÙĦÛĮ
à°² à°¤à±ĭ
ĠG ay
à¤¿à¤¨ à¤¾
an c
Ġspiel en
ion en
Ġáĥ¤ áĥ¡
Ġle k
ç´ °
Ġà°ľà°Ĺ à°¨à±į
ĠNa cional
à¯ģà®³à¯įà®³ à®©à®°à¯į
à±įà°² à±Ģ
×ķ×¨ ×Ļ
Ġy ok
ĠØª ÛĮÙħ
z io
ÅĤe j
ľà¸ ¡à¸
à®Ļà¯įà®ķ à®¿
åŃ ©
à±ĩà° ĸ
ĠÙħÙĪ ÙĤØ¹
ÏģÎ¹ ÏĥÎ·
in Ã©
ĠÏĥ Îº
ĠPri x
Ġà¦ª à§Į
Ġæ ¢
åģ ľ
ĠÐŁÑĢ Ð¾
im enti
ÏĢÎ± Î¯Î´
à°² à±įà°ª
niej sze
ĠÏĦ Ïį
ĠÐ¼Ð¸Ð½ ÑĥÑĤ
Ġus o
Ġå® Ł
Ġà¸ª à¸µà¸
ĠÎ¿ Ïħ
3 7
Ð¾Ð» ÐµÐ²
Ġìĭ ¬
Ġso ir
ŀà¸ ±à¸Ļà¸
Î½Î¿ Î¼Î±
ĠmÃ¼ ÉĻll
Ð¾Ð² Ð¾Ð³Ð¾
ĠC a
à¹Ħà¸¡à¹Īà¸ ¡à¸µà¸
Î»Î¬ Î²
à¥Ģà¤¡ à¤¿à¤¯à¤¾
áĥĶáĥĹ áĥ¡
3 4
èĢĥ è¯ķ
å° Ĭé¾Ļ
Ġn ic
Ħà¸ °
ĠÑĢ Ð°Ð½
asÄ± l
ĠØ§ÙĦØŃ Ùĥ
ļà¸Ĺà¸ §à¸Ļ
ÐµÐ» Ð°
ģà¸ µà¹Īà¸¢à¸§à¸
ĠÙĤØ³Ùħ Øª
Ġho ch
Ġà¦¸à¦Ĥ à¦ĸ
Õ¡ÖĢÕ ¯
ÐµÐ½ Ð½Ð¾ÑģÑĤÐ¸
Ġm ul
t Ã¼r
Ġáĥª áĥĿáĥ¢
Ġà¤¸à¤® à¤¾à¤ľ
Ġà¤¦à¥Ĥà¤¸ à¤°à¥ĩ
Ġha ar
Ġà°ħà°¯ à°¿à°¨
rz ch
te le
Ġáĥĺáĥ¡ áĥĶáĥĹáĥĺ
Ġproduc tos
Ġmi ent
Ġà®ħà®® à¯Ĩà®°à®¿à®ķà¯įà®ķ
Ø§Ø¬ Ùĩ
ei to
éĸ Ģ
Ġáĥ£áĥ¡ áĥĲáĥ¤áĥłáĥĹáĥ®
ĠFo to
Ġter m
Ġt able
Ø¯ Ø§Ø´Øª
un n
ãģĮ ãģĤãĤĬãģ¾ãģĻ
le x
Ġà¦¸à¦Ĥ à¦ķ
ĠÙĬ Ø³Øª
ĠáĥĹáĥ¥ áĥĽáĥĺáĥĹ
Ġ×ľ×Ķ ×Ļ×ķ×ª
Ġn ing
Ġìļ ´
Ġvlas tnÃŃ
ĠSp ort
ĠR ec
Ø¹ÙĦ Ø§Ùħ
ĠspÃ© cial
Ġb á»ĩnh
Ġal ue
Ġhar ga
ir ÉĻ
rij f
Ġpr esso
Ġd entro
áĥŀ áĥĿáĥłáĥ¢
ah a
Ġbes ten
Ġà¤¶ à¤¿à¤µ
à¦¸ à§įà¦ª
Ġpo czÄħ
ĠAl s
ģà¸¥à¸ ±à¸ļà¸
Ġv Ã¡s
Ġag å®ĺæĸ¹
ĠØ§ÙĦØ¨ ÙĦ
Ġà¶ ħ
ĠÎķ ÎĿ
Ġb ois
ÎŃÎ½ ÏĦÏģÎ¿
E L
Ġà¤®à¥Īà¤Ĥ à¤¨à¥ĩ
æ³ ¢
Ġà¥§ à¥
ĠÐ¸Ð³ÑĢ Ñĭ
Ġà¤ī à¤®à¥įà¤®
ĠÎł ÏģÏī
Ġà®®à¯ĩ à®±à¯įà®ķ
Ġà°ªà±įà°° à°µ
ÏĦÎ¹ÎºÎ¿Ïį ÏĤ
ĠÐĳ ÐµÐ»
az a
ĠíĮ Ĳ
Ġà¸ Ĥà¸²à¸¢à¸
Ïİ Î½Î±
ĠåĽ½ éĻħ
ĠÐ´ Ð¾Ð³Ð¾Ð²Ð¾ÑĢ
áĥ® áĥĺáĥ¡
Ġmo di
à¸µ à¹Ī
Î¸ Î¬
ĠØªÙħ Ø§Ùħ
ĠÐ± ÐµÑĢ
Ġpro blÃ©
ľà¸¥à¸´à¸ ķ
ĠÎ±ÏĢÎ¿ ÏĦÎŃÎ»Îµ
Ġà¦¡ à¦¿à¦¸
Ġp is
Ġ3 6
áĢ ķ
å® ĥ
áĥ® áĥļáĥĺáĥ¡
Ġà¸ģà¸ ¥à¸
ÑĭÐ² Ð°ÐµÑĤÑģÑı
à¤¿à¤ ļ
Ġà¦ı à¦ĸ
ļà¸¸à¸ Ħà¸
ĠÐ´ Ð¾Ð²
à¸Ńà¸ Ķà¹Ģà¸
áº© n
Ġfar k
as sen
à®¤ à®¿à®²à¯į
ÐĿ Ðŀ
g Ã©
ĠwÅĤa ÅĽnie
à§ĭ à¦¦
Ġes pa
ro c
Ġw aÅ¼
Ġk er
Ġë§ ŀ
ĠáĥĽáĥĺáĥ£áĥ ®áĥĶáĥĵ
Ġà°¤ à°¾à°ľ
ĠMil li
à±Ģ à°¦
ĠØ± Ø¦
×Ļ×ŀ ×Ķ
ĠV el
ent er
à¤« à¥įà¤¤
Ġà®ķà¯Ĭ à®Ł
Ġà°ķà°² à°¿à°Ĺ
Ġav ril
ĠC ont
ens a
Ġà¦ķà§ĭ à¦Łà¦¿
ta t
Ġà¦¸ à§ģà¦
ĠÅĽwia t
Ġà¤µà¤¿à¤ ļ
ĠìĤ ¼
ĠÙħÙĨ Ø§Ø³
Ġì² ´
ab ile
ĠP al
Ġm erca
Ġà®ĩà®©à¯įà®© à¯ģà®®à¯į
ven ir
Ġà¦ıà¦¸ à¦¬
ĠtÅĻe ba
Ġdies en
ãĤ¿ ãĥ¼
Ġ×ĳ ×Ļ
à°¨ à°¿à°µ
ĠV e
Ġà°ķ à°µ
Ġmient ras
Ú© ØªØ±
Ġà¤Ĺ à¥Ī
Ġà¦¬à¦°à§įà¦¤ à¦®à¦¾à¦¨
ĠJe g
k Ã¼n
Ĭà¸µà¸§à¸´à¸ ķ
Ġpre zzo
Ġè °
é¡ į
ĠØ§ÙĦ Ø§Øª
ĠÏĥÏĩÎŃ ÏĥÎ·
Ġpr omo
ÏĨ Î±Î¹
ĠMer ci
Ġëĭ¤ ë¥¸
Ġæ Ļ
è´ §
Ð»Ñı ÑİÑĤÑģÑı
ĠV ia
ĠÏħ ÏĢ
[ ]
Ġtu a
ĠÎķÏħ ÏģÏİ
ĠÑģ ÐµÑĤ
Ġà®®à¯Ģ à®£à¯įà®Łà¯ģà®®à¯į
Ġand re
Ġà¸ķ à¸´à¸Ķà¸
ĠÎ±Ïģ ÎºÎµ
ĠæĹ ł
ĠÐ³Ð¾ÑģÑĥÐ´Ð°ÑĢ ÑģÑĤÐ²ÐµÐ½
ĠB ere
ĠdÃ© cembre
Ġà¸ ¿
ĠÏħ ÏĪÎ·
ĠÂ º
ĠÑģÑĤÐ¾ Ð¸ÑĤ
Ġlá»Ľ n
à¹Īà¸²à¸ ĩ
ĠÎ³Îµ Î³Î¿Î½
Ġà¦ķà¦² à§ĩà¦ľ
ĠÙĪØ± Ø²
à¤Ĥà¤¤ à¤°
ą Ĉ
Ġå¹ ¿
fol g
à¸µà¹Īà¸ Ľà¸
ĠÐĺÐ½ ÑĤÐµÑĢ
ãĤī ãĤĮãĤĭ
Ġà¦¤ à¦¾à¦²
ģà¸£à¸ °
Ð» Ñĭ
Ġà¹Ģà¸ŀ à¸£à¸²à¸
Ġa ver
Ġ") ;
áĥĽ áĥĲáĥĵ
Ġà°ı à°¡
Ñĳ Ð¼
Ġcom b
à¶ļ à·Ĭ
Ġé »Ħ
Ġà¤ķ à¥ī
Å¾ dy
Ġà¦ľà¦¾à¦¨ à¦¾
Ġsie bie
Ġsch w
áĥł áĥĺáĥĹ
Ġà°¨ à°¾à°Ĺ
à®¿à®Ļ à¯į
Ø¨ ÙĪØ¯
Ġc ÃŃ
ĠâĢ »
ãĥĲ ãĥ¼
Ġpo ja
ãģĻ ãģĻ
éģ ĭ
ĠáĥĴáĥĲáĥľáĥ® áĥĿáĥłáĥªáĥĺáĥĶáĥļ
co le
ia ÅĤy
Ġà°µà±įà°¯ à°¾à°ĸà±įà°¯
à¦¾à¦§ à§Ģà¦¨
Ġt ant
ĠDam en
ĠA ug
xt ÉĻlif
Ġ×Ĺ ×Ļ
Ġà°İà°®à±įà°® à±Ĩà°²
à°¤à±įà°¤ à°¿
m el
ĠØ¨Ø´ ÙĥÙĦ
áĥĵ áĥĺáĥĹ
áĥ£áĥłáĥ ĵ
ĠsÃ©cur itÃ©
à¥įà¤¯à¤® à¤Ĥà¤¤à¥įà¤°à¥Ģ
Ġà¤®à¥Į à¤¤
h ov
Ġd us
ĠØ± ÙģØª
Ġà¤Ĺ à¥ģà¤°
Ġà¦¦à§ĩà¦¶ à§ĩ
it te
ĠN r
ow ski
Ġà°Ĩ à°¤
cyj nych
cu lar
ci Ã¡lnÃŃ
à¹Ĥ à¸£
áĥĽ áĥĶáĥľ
âĸ ¡
Ġà´ª àµįà´°
à±Ĩ à°¸à±į
ĠÎ±Î½Î¬ ÏĢÏĦÏħ
ib ilitÃ©
ĠÎ´Îµ ÏįÏĦÎµ
Ġa ide
do v
å¿ µ
ĠæĿ ¥
ĠÐ¡ ÐºÐ°ÑĩÐ°ÑĤÑĮ
Ġ ÉĻk
ĠÎµÏĨÎ±Ïģ Î¼Î¿
Ġs etti
Ġà®µà®´ à®ķà¯įà®ķ
Ïī ÏĥÎµ
ei ght
Ġt arih
uh an
ªà¸£ à¹īà¸²à¸ĩ
ÎŁÎ Ķ
åį ³
ĠÑģ ÐµÐ¹ÑĩÐ°Ñģ
ĠF all
Ġnota mment
«à¸ ¢à¸
Î¹Î¬ ÏĤ
×¤ ×Ļ×Ŀ
Ð° ÑĦ
j est
Ġà¸ ļà¸£à¸´à¸©à¸±à¸Ĺ
ĠÏĥ ÎµÎ¹
à§ĩà¦¤à§įà¦° à§ĩ
lij ke
äºĨ ä¸Ģ
è½ »
äºº çļĦ
ch s
Ġà¸¡ à¸´à¸
ĠÐĴ Ð°ÑĪ
ĠB ras
ĠØ´ ÙĪØ±
à¹ĩ à¸Ļ
ĠÐ²Ñĭ Ð³
Ħ à¹Ī
Ġj Ã¡
Ġáĥł áĥĲáĥĹáĥĲ
áĥĽ áĥĶáĥłáĥĹ
à±įâĢĮ à°¨à±ģ
ÐµÑĩ Ð½Ð¾
Ġcham bre
à¤¾à¤° à¤¿à¤¯à¥ĭà¤Ĥ
áĢ Ļ
à¤· à¥įà¤Ł
Ġsemp l
Ġth o
wie ra
Ġk val
áĥĺáĥ ¨áĥĺ
ÙħØ§ÙĨ ÛĮ
Ġca pa
Ġa lÄ±
Ġà®®à®¾à®¨ à®¿à®²
sch e
ãģ§ãģį ãģ¾ãģĻ
Ġproble m
Ġt is
à®µ à®Ł
ĠáĥĽáĥĺáĥ£áĥ®áĥĶáĥĵ áĥĲáĥķáĥĲáĥĵ
Ġfam ille
Ġfir m
×¤ ×Ķ
ah an
ĠHom me
z ial
ĠR Ã¼ck
à±ģà°µ à±įà°µ
Ġà°Ĩ à°µ
ĠS E
di Ã³
Ġà¦ħà¦« à¦¿à¦¸
Ø§Ø³ ÙĬ
Ġà®Ĩ à®Ł
u cht
Ġpho tos
ä¹ ±
Ġà¤°à¤¾à¤·à¥įà¤Ł à¥įà¤°
Ã¡ rios
Ġìłľ ê³µ
Ġà¦ªà§įà¦° à¦¬
ÙĩâĢĮ ÛĮ
s lu
Ø§Ø¨ Ø·
Z G
ma ch
ca ciÃ³n
czy n
à¤ľ à¤¹
Ġà®ķ à®¾à®µ
ŀà¸±à¸Ĵ à¸Ļà¸²à¸
ĠH ol
æķ ħ
Ġà°¸à°Ĥà°¦ à°°à±įà°Ń
li ÄŁi
ĠÎĴ Î¿Ïħ
Ġfa ce
ĠÎ±Ïĥ ÏĨÎ±
Ġl ivre
Ġa se
éĥ¨ åĪĨ
à¨ ®
ĠÑģÐ²Ð¾ ÐµÐ¹
Ġcir ca
ÏĦÎ¿ Î¼Î±
Ġtr á»ĭ
Ġn ovÃ©
ÏĦÎ¹ Î¿
Ġ. )
ĠØ§ÛĮ Ø¬Ø§Ø¯
à¯ĭ à®Łà¯įà®Ł
Ĺ à¹Īà¸²à¸Ļ
ĠÏĥÏħÎ½ ÎŃÏĩ
Ġà¤¯ à¤¾à¤Ĥà¤¨à¥Ģ
Ð¸Ð»ÑĮ Ð½Ð¾
Ġein z
Ġf ut
į à¸µà¹Īà¸Ľà¸
ĠÏĦ ÏģÎ±Î³
Ġs lov
ĠÑĤÐ°Ðº Ð¾Ð¹
Ġk rÃ³
ªà¸´à¸Ĺà¸ĺ à¸´à¸
Î´Î® ÏĢÎ¿ÏĦÎµ
Ġà°İà°¦ à±ģà°°
ĠØªØŃ Øª
ĠçĶ ¨
è¿ ľ
åĲ ĥ
Ġà¤īà¤®à¥įà¤® à¥Ģà¤¦
à¸£à¸±à¸ ģà¸©à¸²
ĠÐ· ÐµÐ¼
Ġge z
r Ã¥
¸à¸ĩà¹Ģà¸Ĺà¸ ŀà¸
ĠÑģÐ¾Ð² ÑĢÐµÐ¼
à¸´ à¹Į
ãģĦãģŁ ãģł
ĠåĲį çĦ¡ãģĹ
åĤ Ļ
áº§ m
Ð¸ Ð¾Ð´
Ġtr ouve
ĠÕĢ Õ¡Õµ
Õ¡ÖĢÕ ¿
Ġe y
Ġn Ãº
à¦¦ à¦¿à¦ķà§ĩ
owan o
áĥ¬ áĥĲáĥķ
do ch
à¥įà¤ Ĺ
×ķ×ľ ×Ļ
à±ģà°ķ à±ģà°Ĥà°¦à°¿
kov nÃŃ
Ġvy so
Ġà¦ķ à¦¾à¦®
Ġà¦ħ à¦ķ
Ġáĥ¨áĥĶáĥĵáĥĶáĥĴ áĥĲáĥĵ
Ġà°ļà°¿à°¤à±įà°° à°Ĥ
Ġà°ħà°² à°¾à°Ĺà±ĩ
Ġcomp os
Ġìŀ Ħ
è¨ ¼
à´¿à´ ķ
Ġacc om
à¥ĭ à¤¹
Ġprac ow
va jÃŃ
Ġz ou
Ġà¦¨ à¦¾à¦°
à®ªà¯įà®ªà®Ł à¯ģà®ķà®¿à®±à®¤à¯ģ
Ġqual che
Ġpon ie
Ġà¦¬à§įà¦¯ à¦¾à¦Ĥ
Ġnuest ros
ven tion
Ġà¤¦ à¤°à¥įà¤ľ
ĠC Ã³
Ġin vestig
Ġx ar
Ġg razie
ĠëĲ ľ
Ùİ ÙĬ
Ġ×ľ×Ĳ ×Ĺ×¨
ber apa
Ø± Ø¬
for der
ĠH ome
gu ar
ĠÙħÛĮâĢĮ ØªÙĪØ§ÙĨ
à¹Ħà¸§ à¹īà¸
Ġà¦® à¦¿à¦¨
à¥ĩ à¤µ
Ġà°¯ à±ģà°µ
al itÃł
Î»Î¬ ÏĩÎ¹Ïĥ
char ger
ÎĳÎ ĺ
Ġren cont
Ġáĥĺ áĥķáĥļáĥĺáĥ¡
3 d
ç Ĩ
ĠÑĤ Ð¾Ð¶Ðµ
es ti
ĠÎº Î¿Ïģ
áĥĺáĥļ áĥĲ
Ġà°ķà°¾à°°à±įà°¯ à°ķà±įà°°à°®
ĠÎ³ Î¹
ĠÐ¾ÑĤ Ð´ÐµÐ»
b io
áĥĲáĥ£áĥ ĳ
à¸Ļ à¹Īà¸²
ĠÎ±ÏĢ Î±Î¹
à¥įà¤¯à¤¾à¤ļ à¥Ģ
Ñı Ñħ
ĠolduÄŁ u
Ġv ue
Ġà¸Ĺà¸ ļà¸Ĺà¸§à¸Ļ
ĠÎ¥ ÏĢÎ¿ÏħÏģÎ³
Ġà¦ķà¦° à¦¬à§ĩ
ÑģÑĤ ÑĥÐ¿
eta il
à¹Ħà¸ Ł
ĠÎ¸ Î¬
Ġìł Ĳ
à°ª à±ĭà°¯
9 18
ĠĈ Ĉ
ĠâĢĿ ãĢĤ
ĠØ§ÙĦÙħ Ùħ
à¹Ģà¸£à¹ĩà¸ §
ĠÑĤÐµÑĢÑĢ Ð¸ÑĤÐ¾ÑĢ
à´ ¦
Ġà¤¨ à¤¿à¤µ
ģà¸µà¸ ¬
ĠÐ¿Ð¾Ð» Ð¾Ð¶
ĭ à¹Į
WW W
w u
áĥĳ áĥĺ
Ġ Ã¡
ĠÐº Ð°Ð¿
Ġdiff ic
Ġt elugu
Ġà¤Ľ à¤¾à¤¤à¥įà¤°
Ùĳ Ø©
te ll
Ġdifer entes
Ġm eine
æĮģ ãģ¡
ĠF amil
Ã³ Åº
à¦¸ à¦¿
à°¨à±įà°¨ à°¾
ĠáĥĻ áĥĲáĥª
èī² æĥħ
ë§ Ŀ
Ġà¦¦ à§ĩà¦¨
ãģĦ ãģı
Ġà°®à±Ĭà°¤à±įà°¤ à°Ĥ
Ġn Ä±n
Ġsouv ent
vo j
ĠáĥĴ áĥĶáĥľ
ç»¼åĲĪ ç½ĳ
Ġforma tion
Ġà¤¸ à¤ª
à§ĩà¦¦ à§ĩà¦°
à®° à®¿
in al
Ġo tti
ãģ® ãģ«
Äį en
áĥłáĥ£áĥľ áĥķáĥĶáĥļ
id d
Ġbus ca
ĠN ouve
ĠG ro
Ġmo re
Ġà¦¸ à¦«
rz u
ãģ¨ ãģ®
Ġc Ã¡i
Ġà¦° à§ĩà¦ĸ
Ġà¤ķà¤° à¤ķà¥ĩ
Ġà®µ à¯Ģà®°
ĠEs c
Ġart ÃŃcul
Ġd azu
Ġnum ero
Ġ×ķ ×ł
¡à¸ ŀà¸´à¸
Ġë¬´ë £Į
Ġag æ³¨åĨĮ
à°¿à°¨ à±Ģ
à¦¿à¦¸ à§įà¦Ł
Î» ÎŃÏĤ
ĠA ch
ĠÏĥÏĦÎ¿Î¹ ÏĩÎµÎ¯Î±
ĠdÃ©c ouv
áĥĺáĥ¢ áĥĺ
äºº çĶŁ
à¥įà¤¯à¤¾à¤¸ à¤¾à¤łà¥Ģ
Ð¸ÑĢÐ¾Ð²Ð°Ð½ Ð¸Ñı
Ġb lij
ĠÎ¬Î»Î» Î·
Ġáĥ¨áĥĶáĥ Ļ
Ġà°ļà±ĩà°¸ à±ĩ
ĠÎĻ Î¿ÏħÎ½
ĠÐ³Ð¾ÑĢÐ¾Ð´ Ð°
ĠP utas
íĻ ľ
Ġfal se
ĠÎ²ÏģÎ¯ ÏĥÎºÎµÏĦÎ±Î¹
è§ Ĵ
Ð¼ Ð¾ÑĤ
áĥĲáĥ¥ áĥ¡
Ġocc asion
Ħà¸§ à¸£à¸
Ïģ ÎŃÏĤ
Ġbl ir
ĠÐ¡ Ð¾Ð²
y un
ķ à¸Ńà¸Ļà¸
Î¼Î¿ Î¯
re k
ĠQu á»ĳc
æĺ ¥
Ġå Ł
åī ¯
à°® à±į
à¹Ģà¸ ¡à¸Ļà¸
ĠÑģÐ¸ÑģÑĤÐµÐ¼ Ñĭ
Ġà¤īà¤¨ à¤ķà¤¾
Ġpo t
à¹ģà¸Ĥ à¹Īà¸ĩà¸Ĥà¸
ĠÐ¾ Ð·
à¸Ļ à¸Ńà¸Ļ
ìĿ´ ëĤĺ
ĠÃ¼ st
áĥĺáĥł áĥĺ
rÃ¡ s
Ð°Ð»ÑĮ Ð½Ð¾Ðµ
Ġsur tout
Ġse cara
Ġà®İà®©à¯įà®ª à®¤à¯Ī
kl Ã¤r
li ÅĽmy
ac ter
å¯¾ å¿ľ
g lÄĻ
å¢ Ĺ
Ã¡ k
à¤¾à¤Ĥ à¤¡
ĠØ± ÙĨÚ¯
áĥ£áĥ¡ áĥĺ
à¦¿à¦² à§įà¦ª
Ġcas ino
Ġver b
à¯įà®ªà¯įà®ª à¯ģ
ÙĨØ¯ Ø§ÙĨ
Ġ×ĳ ×ľ
Ġser r
tto bre
Ġáĥ¡ áĥĺáĥ§áĥķ
à°¸ à°¾à°°à°¿
m ission
Ø±ÙĪ Ø¹
Ġà¤² à¥ĩà¤ĸ
Ġd ÄĽt
es o
Ġà¤ķ à¤¬
à®¤ à¯ĩ
ĠR ic
áĥĺáĥ¨áĥķ áĥĺáĥļáĥĺáĥ¡
Ġoper a
Ġse mana
le ction
à°¿à°Ł à±į
á» Ľ
à§ĭ à¦¬
uo i
ãģĹãģŁ ãģĦ
Ø±ÙĬ Ùĥ
Ġkita b
Ġa llo
ĠJ i
ion ales
ia les
Ġspe cjal
Ġà¤ħà¤§à¥įà¤¯ à¤ķà¥įà¤·
à¯įà®µ à¯ĩ
Ġà¸Īà¸ ³à¸Ļà¸
Ġè ¨
åĪĨ æİĴåĪĹ
Ġvy t
s ÉĻd
ÎµÎ½ ÏĦÏģ
Ġpo pu
ĠÎ· Î¼Îµ
Ġapp el
áĥĺáĥĵ áĥĺáĥ¡
Ġçİ °
æĸ° éĹ»
ĠÑį Ð½
Ġà¤ķà¤° à¥Ģ
ĠÎ±ÏĢ ÎŃ
áĥĲáĥł áĥĿáĥ¡
ëĭ ´
ĠÎĵ Î±
ĠÑģÑĤ Ð°Ð½
Ġà¦ķ à¦¬
gra mm
à¸£à¸¹à¸ Ľà¸
Ïĥ ÏĦÎ±Î½
çķ Ļ
ÑĨÐ¸ ÐµÐ¹
ĠáĥĶáĥłáĥĹ áĥĽáĥĲáĥľ
Ġì² ľ
ķà¹īà¸Ńà¸ĩà¸ ģà¸²à¸£
ĠÎµÎ¯ ÏĢÎµ
Ġà¦® à¦¾à¦¹
ÐµÐ¼ Ð°
Ġà¦®à§įà¦¯ à¦¾à¦ļ
Ġà¸ŀà¸Ļà¸±à¸Ļà¸ ļà¸Ńà¸¥
ĠÎºÏħÎ²ÎŃÏģÎ½Î· ÏĥÎ·
à°¨ à±Ģ
ber e
Ġà¤¹ à¤¾
Ġà¤ª à¤£
Ġ3 2
t ten
Ġà¸ «à¸¥à¸±à¸ĩà¸
ĠÐ¿ÑĢ Ð¸Ð´
é¡ ŀ
Ġà¤¸ à¤²
Ħ à¹īà¸Ļà¸
Ġw id
Ľà¸£à¸°à¸ ªà¸ļà¸
Ġdis f
á»į c
áĥĲáĥłáĥ ¨áĥĺ
à¦° à¦®
ĠÐ² Ð°ÑĢÐ¸Ð°Ð½ÑĤ
ĠÙħÙĨ Ø°
_ æĹ¥æľ¬
Ġ×ķ ×Ĺ
Ġsich er
ĠìĿ Į
Ġà®¨à®¿à®±à¯ģà®µ à®©
Ġha cia
Ġà°µ à°Ĥà°Łà°¿
a di
ĠØª Ø¹Ø¯
à¤¯ à¤¨
Ġà¦¨à¦¿à¦ ¹
áĥĵ áĥĲáĥĹ
Ġà¦Ľ à§ĭà¦Ł
Ġx em
Ġst rÃ¡n
Ġsi Ã¨
Ġ ðŁ
ak in
ĠA lle
Ã¤hr end
§ áĥĿáĥ¤
st wo
×§ ×¨
åĩº æĿ¥
Ġà¤¸ à¤¿
ãģ¨ ãģį
Ġda g
à¤¦ à¤¾à¤¨
Ġim kan
Ġs toria
áĥĲáĥł áĥĶáĥ¡
Ġbez pie
N Ãį
ĠpÅĻ ij
Ġì² ĺ
Ġà°® à±ģà°Ĺ
Ø§ÛĮ Ùĩ
ĠSam pai
Ġt elah
Ġwszyst kim
Ġus u
ĠÙħÛĮ Ø²
à®ªà¯įà®ªà®Ł à¯ģà®¤à¯įà®¤
ĠÅŁek ilde
Ø±Ùģ Ø©
à°·à±įà°Ł à°Ĥ
àµ Ĭ
Ġpr Ã³
à¹Ħà¸¡à¹Īà¸ ¡à¸µ
Ġmu a
Ġæı Ĳ
Ġtut ta
I G
Î³ ÎŃÏĤ
od u
ĠÎºÏĮÏĥ Î¼Î¿
Ġjue gos
ĠáĥĽ áĥĸ
äº§ ä¸ļ
Ġå¼ Ģ
ĠÐ¼ÐµÑģÑĤ Ð¾
Ġà¤¬ à¥Īà¤Ĥà¤ķ
Î² Î¿
ĠáĥĽáĥĿáĥĹ áĥ®áĥĿáĥķ
Ġin ten
ÏĥÏĦÎµ Î¯
Ð¿Ð¾Ð» Ð¾Ð¶
Ġâĺ ħ
è³ ĩ
¡à¸ ·à¸Ńà¸ĩ
Î» ÏīÏĥÎ·
çīĪ ä¸ĭè½½
ĠÐ·Ð´ ÐµÑģÑĮ
ê² Ģ
Ġà°¤ à±Ģà°µ
à¸²à¸£à¹Įà¸ Ĺ
Îº Î»Î¿
ka ce
ĠÐ·Ð°Ð² Ð¸Ñģ
ĠìĿ Ģ
Ġà¸ģà¸ ¥
ĠÎ´ ÏģÏĮ
Ġt ur
Ö ¶
Ġçİ¯äºļ å¨±ä¹Ĳ
Ġæ¯ ı
åľ Ł
×ª ×Ķ
Īà¸°à¹Ģà¸ Ľà¹ĩà¸Ļà¸
ĠÐ½Ðµ Ñģ
Æ° ng
à´¿ àµ½
à¹ģà¸ Ĺà¸ĩà¸ļà¸Ńà¸¥
ÑģÐº Ðµ
Ġà¹Ģà¸ŀà¸ ·à¹Īà¸Ń
Ġà®İà®²à¯įà®² à®¾à®®à¯į
ĠØ¯ ÙĪÙħ
Ġà¦ıà¦ķ à¦ĩ
Ġà®¤ à®±à¯įà®ª
ĠÑĢÐµÐ³ Ð¸Ð¾Ð½
ĠV oir
à¤ª à¥Ĥà¤°à¥įà¤£
ĠÃ© ch
ĠØ§ÙĦ Ø§Ùħ
gen s
ĠØ§ÙĦØ¬ Ø¯ÙĬØ¯
à°¿à°¤ à°Ĥ
Ġsim ple
áĥĶáĥļ áĥĶáĥĳáĥĺ
ĠØ£ Øµ
Ġà¤ľ à¤¾à¤¨à¤¾
Ġè »
Ġà¦ªà§įà¦°à¦¤ à§įà¦¯
Ġà®¤à®¯ à®¾à®°
Ġao Ã»t
Ġk áº¿
sp iel
ĠJ an
pag ne
×¨×Ĳ ×Ķ
ĠØª Ø±Ú©
Ġresp ons
m Ã¤
D etail
Ķ ëĭ¤
Ġà°ª à°²
olo gie
à¤¾à¤¤ à¥įà¤®
Ġà®ķ à®©
ĠáĥĻ áĥĺáĥĹ
æħ ĭ
Ġà¦Ĩà¦¦ à¦¾à¦²
Ġà°ķà±ĭ à°Łà±įà°²
à±Ĭ à°Ĥà°¦
Ġà¦ī à¦ĩ
ĠáĥŁ áĥ£áĥłáĥľáĥĲáĥļ
áĥķáĥĶáĥ £áĥļáĥĺ
Ã¡ st
Õ¸Õ ¬
Ġne cÉĻ
Ġà¦¨à¦¿à¦°à§įà¦¬à¦¾à¦ļ à¦¨
q an
Ã¤ uf
áĢ ¼
à¦Ĺà§įà¦° à¦¾à¦®
à¦¾à¦ª à¦¨
ĠëĬ Ķ
Ġå¤§ é¦Ļèķī
ĠØ¨Ø¯ ÙĪÙĨ
Ľà¸£à¸°à¸ ¡à¸²à¸ĵ
ĠP res
åŁİ å¸Ĥ
á»į ng
Ġà®®à¯ģà®Ł à®¿à®¯à¯ģà®®à¯į
ĠÎľ ÏĢ
Ġap ro
ÎŃ Î»
Ġà°ªà±ĩà°° à±ģ
×ķ×¦ ×Ķ
æĬķ èµĦ
Ġäºļæ¸¸ app
Ð¸ÑĤ Ñĭ
Ġà¤ĩà¤¸ à¥įà¤¤
ĠÏĢÏģÎ¿Ïĥ ÏĢÎ¬
nÃŃ k
Ġf Ã¸l
ÏģÎ± Ïĥ
ĠÐ¸Ð¼ ÐµÐ½Ð½Ð¾
re dn
áĥľ áĥĿ
Ľà¸±à¸ Īà¸
ĠÎ¿Î´Î· Î³
æĸ¹ å¼ı
Ð² Ð°ÑĤ
ĠtÃ© to
enn om
¥à¸ ±à¸ģà¸©à¸
Î³Î³ÎµÎ» Î¼Î±
Å ļ
ĠÑĢ ÐµÐ¶
\\\\\\\\ \\\\\\\\
Ĭà¸µà¸§à¸´à¸ ķà¸
ÎŁÎ¥ Î£
Ġin ne
à°Ł à±į
à¤¾à¤Ĥà¤ļ à¤¾
Ġé ļ
å¨ ģ
ĠMÃ© xico
Ľ à¸Ńà¸£à¹Įà¸
ĠÐ¿ÑĢÐ¾Ð² ÐµÑĢ
ĠáĥĻ áĥĿáĥł
ĠÃ¼ mum
ļ à¹Ģà¸
Ðº Ð»ÑİÑĩ
Ĺà¸ ¸à¸ģ
Ġgru po
ĠØ¥ ÙĦØ§
à¦¾à¦¨ à§ĭà¦°
Ġ×Ļ ×¦
ĠÐ°Ð² ÑĤÐ¾ÑĢ
Ġpr Ã¨s
ĠáĥĵáĥĲáĥĽ áĥĲáĥ¢
ale ur
etz en
Ġà®ķ à®¾à®®
Ġà®¸ à¯įà®Ł
Ġà°¬ à°¾à°Ĺ
Ġun i
Ġà°¦à±Ģ à°Ĥà°¤à±ĭ
ch nik
ãĥĩãĤ£ ãĥ¼ãĤ¹
ä¸Ĭ ãģĴ
ze llik
ëĵ¤ ìĿĦ
Ġl it
ĠJ o
ĠÙħÙĨ Ø·
ĠQar abaÄŁ
ĠMÉĻr kÉĻz
Ġáĥ¡ áĥĺáĥľ
ãģĹãģ¦ ãģĬ
×Ļ×Ķ ×Ŀ
ĠSch ul
Ġà¦¸à¦® à¦¸à§įà¦¯
ĠAm ma
Ġà°¸ à°¿à°¦à±įà°§
r Ãł
Ġà¤¸ à¤¾à¤¹
Ġk rij
Ã¡ tica
ei gne
ĠØ¨ Ø·
à±įà° Ń
ĠÄį in
ub le
Å ĵ
Ġà¤¬ à¤¿à¤²
w ort
Ġdi qq
à°Ł à±Ģ
Ġpi ano
al noÅĽci
f Ã¼r
Ġprze ciw
à ³
Ġthá»© c
Ġinter v
Ġáĥ¨ áĥĶáĥĹ
Ġpro grama
Ġà¸Ļà¸²à¸ ¢à¸
mÄĽ r
çĶŁ æ´»
Ġa per
à¯ģà®ķà®¿à®©à¯įà®± à®©
ÎŃ Î½Î±
ĠèĢ ģ
ÏĦ ÏĤ
Ġà°ªà±įà°°à°ķ à°Ł
à¶ ´
åį «
åħ µ
ÐµÑĪ ÑĮ
à¤¸ à¥įà¤¯
ĠÎ¼ÎŃ ÏģÎ¿ÏĤ
wi ÅĽcie
Ġj ste
ĠÎµ Î¸Î½
ĠÐºÐ²Ð°ÑĢÑĤ Ð¸ÑĢ
ĠìĺĪ ìķ½
ĠHo ch
à¸£à¸µ à¹Ī
ĠÎ´Î¹Î¬ ÏģÎºÎµÎ¹Î±
m sc
Ðł ÐĲ
Ġme e
ĠÅ¼y cia
Ġà¸ªà¹Īà¸§ à¸Ļà¸
Î¬Î» Î¹
Ġc ara
Ð¸ÑģÑĤÑĢÐ° ÑĨÐ¸Ð¸
ÙĬÙģ Ø©
Ġà¸Ļ à¸Ńà¸ģà¸
ĠÎµÎ¾ ÎŃ
Ġsp olu
à°¾à°¤ à±įà°®
ç» Ī
9 0
á Ĥ
ĠáĥŀáĥĿáĥļáĥĺáĥ¢ áĥĺáĥĻáĥ£áĥłáĥĺ
ľà¸ ¡
Ð¡ Ð
ÙĬÙħ Ø©
Ġà¦ĸ à¦¾à¦²
«à¸Ļà¸ ±à¸ĩ
ĠÐ°Ð² ÑĤ
à¹Ħà¸ «à¸¡
ng ono
ĠC i
Ġol uÅŁ
ÄŁ ul
ĠÐĴ Ð»Ð°Ð´
Ġ3 7
Ġìĭľ ê°Ħ
Ġc at
Ġsein er
à¦¾à¦® à§įà¦®
Ġà¦ĸ à¦¾à¦¨
ĠáĥĵáĥĲáĥĺáĥ¬áĥ§ áĥĿ
Ġco de
à§ ±
Ġà¦ľà¦¾à¦¨ à¦¿à§Ł
Ġc ena
it ie
Ġ×ŀ ×ľ
à¦ķ à¦¿
ĠdÃ© but
Ġfin ans
ĠØŃØ¶ ÙĪØ±
Ġon a
Ġne mo
Ġæ° ´
Ġà¤µà¤¿à¤Ń à¤¾à¤Ĺ
Ġà¤ķ à¤¾à¤¨
ĠáĥŀáĥĶáĥłáĥĺáĥĿ áĥĵ
ĠvÃ½ rob
Ġà°µà°¿à° °
Ġmu chas
ĠÙĬ Ø¯
ĠmÃŃ t
×Ļ×ª ×Ļ
ĠÙ¾Ø§Ø³ Ø®
ĠIl s
ĠInforma tionen
ãĥ« ãĥĪ
ĠmÃ¼nasib ÉĻt
Ġà¦Ń à¦¾à¦¬
ĠAvro pa
ĠmÃ© t
Ġcar te
×Ļ×ª ×Ł
à°¾à°Ĥà°¡ à±į
ĠSt ar
w iÄĻk
ĠÙħ ÙĦÛĮ
Ġãĥ ¢
ent en
ar ga
áĥĲáĥĸ áĥ¦
ÙĦØ³ Ø·ÙĬÙĨ
Ùģ ÙĦ
Ľà¸£à¸°à¹Ģà¸Ĺà¸¨ à¹Ħà¸Ĺà¸¢
à¤ĸ à¥įà¤¯à¤¾
å¸ ģ
ĠáĥĹáĥĲáĥķ áĥĽ
ĠìĿ´ë Ł
ÏĦÎ¹Îº Î¿Î¯
Ã¸ n
ÎĳÎ ¦
ĠáĥĽáĥ® áĥĲáĥłáĥĵ
Ġu zy
æī ¾
áł¢ áł
Ð¸ ÐµÐ²
et r
ĠÎļÎ± ÏĦÎ±
Ġob las
Ġb ajo
ĠÎ» Ïį
ĠÐ¿ Ð¾ÑĤÑĢÐµÐ±
ãĥ¼ãĥĵ ãĤ¹
Ġc avab
Ġà¹ģà¸¥ à¹īà¸§à¸
ĠÎ´Îµ Î´Î¿
åħ °
ÐµÐ½ Ð½Ð¾Ðµ
á» ¹
áĥĺáĥł áĥĶ
à¹Īà¸Ļà¹Ģà¸ ģà¸¡à¸
ĠÎ¹ Î´Î¹Î±Î¯
ĠÚ©ÙĨ ÙĨØ¯Ùĩ
ÐµÑĤ Ð¾Ð²
Ã¼n ki
ŀà¸´à¸ ¡à¸ŀ
ĠÎµÎ¾ Ïī
à¤ ĵ
Ø¸ Ø±
éĵ ģ
æ± ½
æ´ ŀ
Ġà®ĩ à®©à¯įà®±
Ľà¸£à¸ªà¸´à¸ ķ
ĠÐ²Ð¸Ð´Ðµ Ð¾
lo g
[...]
