#version: 0.2
á ĥ
à ¸
à ¤
Ġ .
Ø §
à ¦
e r
e n
Ġ ,
a n
Ġ d
à ®
i n
Ġ Ð
Ġ t
Ġ s
Ġ Ø
Ġ a
e s
Ġ p
o n
Ġ c
Ð ¾
ã ģ
a r
à °
Ġ Ù
Ð µ
Ø§ Ù
o r
Ð °
Ġ m
Ø ±
a t
Ð ¸
Ñ Ĥ
a l
e l
Ġ l
Ġ b
i s
Ġ n
à ¯
à ¥
Ġ à¤
Ġ -
Ġ Î
i t
a s
Ð ½
r e
Ġ ×
à ¹
Ñ Ģ
Ñ ģ
Û Į
à §
Ġ o
Ġ 1
Ð¾ Ð
Ġ 2
c h
Ø§ Ø
Ġ v
u n
Ġ h
e t
â Ģ
o s
ã Ĥ
Ġ f
i l
Ġd e
Ù Ĩ
Ù Ī
Ġ w
Ġ :
o m
Ø§Ù Ħ
Ù Ĭ
ã Ģ
ã ĥ
Ġt h
Ġ à¦
Ġ S
áĥ Ĳ
Î ±
Ù ħ
á »
Ø ¯
en t
Ù ĩ
u r
Ù Ħ
Ġ âĢ
e d
Ï Ħ
Ø ª
Ġ k
Ġ A
i c
Ġ áĥ
Ġ g
e m
Î ¿
a m
r o
a d
à¯ į
Ġ in
Î ¹
Ġ Ø§ÙĦ
Ġ C
Ġ P
Ä ±
Ð »
áĥĲ áĥ
Ġ M
áĥ ĺ
Ġ T
à ±
Ġ ãĢ
Ġ e
u s
in g
Ġ (
Ã ©
o l
an d
Ġ ï
Ġ B
i on
Ġ D
i e
Ġ à®
Î ½
q u
× Ļ
Ġ )
i d
Î µ
i m
ĠÙ ħ
Ð º
l e
à¤ ¾
u t
r a
× ķ
Ġ2 0
Ñ ĥ
ä ¸
Ġth e
áĥ Ķ
Ġ Ã
Ġ ì
à¦ ¾
Ġ y
Ġ å
i r
Ġ 0
Ã ¡
á º
à¯į à®
ĠØ ¨
Ï ģ
Ġ /
Ġ I
Ï ĥ
áĥĶ áĥ
Ġ E
u l
o t
es t
Ã Ń
Ñ ı
Ġ L
×ķ ×
Ñ ĭ
Ø ³
a k
Ġt o
Ø ¨
ĠÙ Ī
i g
a c
Ø ©
É Ļ
à¸ ²
Ð° Ð
Ġ r
Ðµ Ð
i a
à§ ĩ
áĥĺ áĥ
×Ļ ×
Ġï ¼
Ġ 3
Ġ un
Ġ "
Ġ à°
à¦¾ à¦
a g
Ġ N
Ï Ģ
Ġc om
Ġ Â
¿ ½
Ġ H
s t
à¸ Ļ
Ġ qu
Ġ z
Ø ¹
Ġ R
Ñ Į
Ï Ĥ
ĠÐ ¿
Ø§Ù Ĩ
e c
à¤¾ à¤
Ã ¼
ä º
Ġ G
Ġ j
Ġ F
Î ·
i v
Ï ħ
à¥ ĩ
Ġ en
Ġ20 1
n g
u m
a y
Ã ³
Ġ æ
t e
an g
Ñģ ÑĤ
à¸ £
Ġ and
Ġo f
Ġ K
Ú ©
i k
à¯ ģ
Ġ re
à§ į
à§į à¦
Ġc on
Ġl a
Ġ Ä
à® ¿
à¥ į
Ġa l
o d
Ġc h
o w
Ġ '
à¥į à¤
t er
Ù Ĥ
Ð ²
Ġ V
Ġ W
a b
ĠÐ ²
à¸ Ń
Ġ 5
Ø§ Ø±
a p
Ġd i
Ġ ë
áĥ Ŀ
à¦ ¿
Ñ ĩ
o u
Ġs e
. .
Î »
Ġ 4
Ø ´
Ġ i
à¹ Ī
à®¿ à®
Ðµ Ð½
Ġ ÏĦ
Ġ Ñģ
ĠØ ¯
is t
Ù ģ
Ġ O
ĠØ ª
ì Ŀ
er s
Î º
à¹ Ģ
à¸² à¸
å ı
à± į
Ġp ro
Î ¯
an t
0 0
ĠâĢ Ļ
Ã ł
Ġs t
Ð ¼
Ø§ ÛĮ
ĠÐ ½
Î ¼
Ð¾Ð ²
à¥ Ģ
Å Ł
à¦ °
áĥĿ áĥ
e g
Ġ Ø§Ø
Ġp r
o v
Ġ à¸
l i
Ġï¼ Į
e k
Ø Ń
Ġà¤ ķ
Ġ ç
en d
Ã §
à¹Ģ à¸
Ġ |
Ġp ar
ĠÐ ¸
à¤ ¿
o c
Ù ĥ
es s
r i
å ®
à¹ ī
à¤ °
a h
× Ķ
Ġf or
à¸£ à¸
à¯ģ à®
Ð ´
ĠÄ ĳ
æ ľ
Ġ J
Ï Į
ï ¿½
× ¨
i z
Ø ¬
Ġ on
à±į à°
c e
Î ¬
à¸Ļ à¸
ĠãĢ ģ
ĠÐ ¾
à° ¿
Î¿ Ïħ
ĠÙ ģ
Ñ ħ
ģ à¸
Ġqu e
Ġt r
o p
u d
a v
ãģ ®
à¸Ń à¸
Ġ is
el l
e b
ĠãĢ Ĥ
Ġ an
Ġ× Ķ
Ø ²
× ľ
Ġ U
ãĢ Ĳ
à® ¾
ļ Ħ
à¤¿ à¤
ĠÐ º
o g
o ur
å ¤
ĠãĢ ĳ
à¦¿ à¦
u p
Ġ ?
at ion
à° ¾
c i
å ħ
ĠØ ¹
os t
å Ī
ĠØ Į
or t
Ġï ¿½
Ðµ ÑĢ
ç ļĦ
Ġ 6
à± ģ
à®¾ à®
ĠT h
Ø§Ø ª
Ä± n
Ø§Ù ħ
à¤ Ĥ
o k
Ð° Ð½
Ġ Ú©
ä »
Ġ !
ŀ ×
Ðµ ÑĤ
Å Ĥ
in e
Ú ¯
un g
Ġ è
ĠÙ Ħ
Ġb e
Ġd o
Ġl e
i ch
ĠÐ ´
Ġ el
Ġn a
c t
ĠÙ Ĩ
er e
ĠØ ³
Ð ¿
ĠãĢĳ ãĢĲ
Ġ ÏĢ
à§ĩ à¦
Ð¾ ÑĢ
Ġ ê
£ áĥ
ãģ Ħ
a z
ĠÙ ĩ
Ð° ÑĤ
in d
u b
Ï ī
i o
Ġa t
ĠØ ±
Ġ 7
áĥĺáĥ ¡
ĠÎ º
Ġ 8
í ķ
áĥĶáĥ ĳ
Æ °
Ø µ
à¥ ĭ
er t
Ã £
à°¾ à°
ĩ à¸
Ġ. ..
Ð¾Ð »
Ø ®
Ġ Ïĥ
Î Ń
il l
p l
Ġ 9
n e
ĠÐ¿ ÑĢ
u k
Ħ à¸
× ª
Ø ·
ĠÎ ±
o b
Ð¾Ð ¼
Ġp er
Ä Ł
Ñ İ
æ ĸ
Ð¸ ÑĤ
i b
i f
al l
Ð½ Ñĭ
ä ¹
ar t
ãĥ ¼
Ã ¶
ç ½
Ð¾Ð ´
Ġ â
ï¿½ ï¿½
ĠI n
Î ³
Î ®
ĠØ ´
æ Ĺ
Ġ ;
ĠØ £
ĠÐ ¼
Ðµ Ð»
Ġa s
à¤ ¨
Ġ or
Ġ1 0
Ġ×Ķ ×
à¸ µ
en s
Î± Î¹
Ð ±
ä ½
Ù ī
ĠâĢ ľ
å Ľ
Ð° Ð»
Ġ est
Ġ é
Ñ Ĩ
Ġd es
à¯įà® ķ
± à¸
Ġ ÑĤ
Ñ Ī
l ar
Ġ et
d e
ł áĥ
à°¿ à°
Ġa d
ãģ §
Ġ ÑĢ
Ä Ľ
Ð ·
ç½ ĳ
Ġ× ľ
ç Ķ
Ġ es
Ð½ Ð¾
Ã ª
i p
ĠØ§ÙĦ Ùħ
ĠâĢ ĵ
Ï ĩ
v er
Ġ× ĳ
Ä Ļ
à® °
on t
å ľ
Ġs p
ãģ Ĺ
ĠÎ µ
å ½
Ġ1 9
Ġd a
an s
Ġn g
æ Ī
Ã£ o
Ġà¤ ¸
ãģ «
Ĥ à°
Ø§Ø ¯
Ġe x
ë ĭ
i j
as t
Ð¾Ð ³
à¯ Ī
ent e
u g
ÙĬ Ø©
ĠØ¯ Ø±
à¦ ¨
Ġm a
i er
Ġ %
à¤ ķ
Ġ× Ĳ
l a
as s
à ´
Î¹ Îº
å Ĳ
Ġ il
ÙĪ Ø±
Ġn e
Ġ it
ar d
å ¹
ĠÎ ¼
it h
f f
Ġ im
ĠâĢ Ŀ
Ġ ãĥ
à¤ ¤
× ĳ
âĢ Į
Ä ħ
à¹Ī à¸
Ġáĥ Ľ
ãģ ¦
× Ĳ
à® ¤
Ġd el
Ð ¹
Ñģ Ðº
à¯įà® ¤
t o
p r
ì ŀ
áĥ ķ
Ð ³
Ġ u
Ġo p
at e
i á»
en g
Ï į
ĠÙħ ÙĨ
i en
un d
ãģ ¨
Ġ1 2
Ø £
ĠØ ®
Ġ à¥
Ġp l
ãģ ª
Ġs u
Ð¾ ÑĤ
Ġs a
z e
Ġà¤ ¹
or m
Ġn o
×ķ× ª
å Ĭ
Ġa b
ĠC h
Î ´
Ġ Y
×Ļ× Ŀ
Ð¸ Ñı
n h
Ã ´
Ġ Z
Îµ Î¹
Ġw h
Ð¾Ð ¹
ec t
us t
ĠÂ »
Ġ× ©
ĠÐ ±
Ġa r
ar e
ÙĨ Ø¯
Ġà¥ ¤
áĥ £áĥ
2 0
Ã³ n
äº º
on g
Ġ #
Ġà¤ ®
Å ¼
ãģ Ł
z y
Ġun d
à¦¾à¦ °
ÙĪ Ø¯
Ġm e
ãģ Ļ
ãĥ ³
à§ ģ
Ġa g
ĠA n
å į
Ġ1 1
ĠS t
Å Ļ
Ġn h
ãģ Į
ĠØ Ń
Æ° á»
ï ¼
ãĤ ĭ
ÐµÐ ¼
Ġw ith
Ġpar a
Ã ¤
Ġ em
ĠÐ½ Ð°
¡ à¸
id e
Ġy ou
Ġv er
à±ģ à°
Ø ¶
a i
or e
Ġ er
ĠÙ Ĭ
s e
ì Ĺ
ad a
ĠØ¨ Ùĩ
e v
Ġth at
ç ī
Ġa v
ĠÃ ł
ãģ ¯
¥ à¸
à§ Ł
t t
Ð° Ðº
× ©
Ð¾ Ð½
ĠØ ¢
æ ī
Ġ í
× ł
Ġt e
Ã ½
Ġ =
or d
ĠØ ¬
Ġ ä¸
Î¹ Î±
Ð¸ Ð½
Ġs i
ad o
à¤ ²
y a
i al
Ġà¤ ª
Ï Ĩ
ÐµÐ ´
áº ¡
ĠÙģ ÙĬ
Ġp h
ĠÙ Ĥ
ĠTh e
Ø§Ø ¨
a ch
æ ¸
à® ©
Ġv e
l y
Ð° ÑĢ
áº ¿
æ ĺ
Ġà¦ ķ
Ø °
t h
ĠÐ ·
n o
it e
d a
Ġp or
Ø³ Øª
Ġ ãĤ
´ à¸
Ġáĥ ¡
§ à¸
ÙĪ ÙĨ
ig h
Î ¸
Ġd er
áĥĲáĥ ľ
Å ¾
ª à¸
ä ¼
i es
à¹ ģà¸
Ġf r
Ġ x
å °
w w
ãģ ¾
à¹ Ħà¸
Ġ× ŀ×
à¤ ¸
Ġa m
Ġb y
Ġà¦ ¸
Ã ¥
è ¿
Ġ Ã©
Ġ Ñĥ
Ġ Ñ
Ġa p
Ġd ie
l er
Ġ1 5
a u
Ġáĥ ĵ
® à¯į
à® Ł
ÙĬ ÙĨ
Ġcon t
m e
Ġs er
à¥ ģ
Ġg r
Ġà¦ ¬
ìĿ ´
Ñ ī
Ġ20 0
ĠÏĦ Î·
ĠA l
d u
Ï İ
Ð°Ð ²
ÏĦ Î±
¢ à¸
Å Ľ
áĥ ¡
ic a
i an
à¹ī à¸
em ent
Ġ ro
³ Øª
Ð°Ð ¼
n a
áĥ ł
ãĤ Ĵ
Ð¸ Ðµ
Ġ áĥĲáĥ
Ġa u
iv e
em b
h o
Ð°Ð ·
a in
n ÃŃ
u e
ÙĪ ÙĦ
Ø§Ù ĩ
Ĥ ¬
ag e
è ½
Ġ ]
Ķ à¸
à¦ ²
on d
e p
äº ļ
Ã¼ r
åı ĳ
Ġw ww
al e
Ã ¢
Ġà® ª
à¤ ¹
s k
ar i
Ġ [
åĪ Ĩ
Ġa c
× ĵ
à¦ ķ
ĠÙ ĥ
i y
ch e
áº £
é Ģ
ĠÙ ¾
ul t
å ¼
å ¿
m ent
ic e
Ñģ Ñı
Ġà¦ ª
Ä į
Ġa re
Ġ us
Ïģ Î¿
à® ³
Ġj e
Ġ1 8
u re
Ð ¶
Ù İ
å ¸
Ð» Ð¸
Ġk h
ĠÐ ³
ĠÂ «
z a
è µ
ä¸ Ģ
f t
ëĭ ¤
à¥ Ī
× ¢
è ®
Ġ1 3
Å ¡
ĠÎ ´
ÏĦ Î¿
Ø «
Ġw e
æ Ŀ
Ġ Ø§ÛĮ
× Ĺ
Õ ¡
å½ ©
ĠØ¨ Ø±
à§ĩ à¦°
Ð¾ Ñģ
ê ³
Ġ um
Ùĩ Ø§
ent o
et t
Ġd u
it y
Ã ¨
Ġ× ķ
å Ń
ë Ĭ
qu e
Ġo l
at a
on e
ĠÎº Î±Î¹
ÛĮ Ø¯
Ġv an
ç »
à§ ĭ
à¹ ĥ
ĠD e
ÉĻ r
Ġà® ķ
Ð¸ Ðº
l o
à¦ ¤
Ġ Ñĩ
a j
ãģ ĭ
ì §
Ġ1 6
å º
å¤ §
á» Ļ
ĠØ§Ø ²
f orm
Ġv o
Ġ Q
à° ¨
Ġ" :
è §
Ġh e
p ort
å Ĩ
Ġ1 4
Ġå ¤
ĠÐ Ł
Ð¸ Ð¼
ìŀ ¥
à¯įà® ª
Ġp re
ÑģÑĤ Ð²
áĥ ļ
ĠØ¹ ÙĦ
ÛĮ ÙĨ
à¥įà¤ ¯
ion e
u j
æ¸ ¸
Ïģ Î±
å ·
Ð¾Ð ±
ç «
Ġs o
e w
Ġd an
Ġáĥ Ĵ
Ã º
Ġt er
é ĩ
g r
ķ à¯įà®ķ
à¥įà¤ °
Ãª n
ì Ħ
ãģ £
à¦ ¬
t en
à¤ ®
m a
/ /
Ã¼ n
k e
Ġc o
à¤¾à¤ °
Ġ0 0
ar a
à® ²
áº ¥
ÏĦ Î·
Ġd is
Ġ &
Ġp o
ĠÐ ¡
k s
ëĬ Ķ
å® ĺ
Ġ +
i Ã³n
à° Ĥà°
ä¸ ĭ
d er
Ġl es
Ġm an
at o
Ð¾Ð³ Ð¾
Ã ¸
è ¯
ļ à¸
Ġr es
Ġs h
à§įà¦ °
a w
ÏĦ Îµ
à± ĩ
åľ ¨
k an
Ġ) .
u y
ê °
il e
ĠÐ Ĵ
ãĥ¼ ãĥ
à¦ ®
Ġ1 7
i re
à¹ Į
× §
åĽ ½
k t
ĠØ§Ø ³Øª
Ġl os
Ø§Ù ģ
tt p
r u
ì ł
av e
om e
u al
à¯Ī à®
am p
à° °
i el
è ¡
Ġo g
ãĤ Ĭ
Ø§Ø ²
ĠE n
g e
ç º
æ Ĭ
Ð» Ñı
Ġo b
ç Ľ
à± ĭ
ÐµÐ ¹
ĠØ ¥
ÏĢ Î¿
Ð° Ñı
Ã ¬
ÙĬ Ø±
Ġ: //
á» ĳ
æ ³
é Ļ
in a
à¯įà® Ł
Ĺ à¸
Ïĥ Î·
ĠÐ °
Ġ ra
ĠÙħ ÛĮ
Ġn ot
Ġl o
× ¤
° à¸
Ø± Ø¯
em p
Ġh ttp
ç İ
Ġì Ŀ
id ad
v e
1 0
Ġin ter
Ð¸ Ð¸
Ġà® µ
Ã§ Ã£o
Ø§Ø ³
ãĤ ¹
ĠØ§ÙĦ Øª
Ä± r
Ġe in
áĥĶáĥ ļ
k a
r y
× ŀ×
ĠâĢ ¦
Ġc an
Ġun a
ãĤ Ĥ
Ġï¼ ļ
Ïī Î½
áĥĲáĥ Ľ
Ġ201 9
r es
ĠÏĦ Î¿
Ġy our
ì ķ
igh t
ĠP ro
à§įà¦ ¯
Ā Ā
Ðµ Ðº
Ġ ent
¶ ľ
o ut
Î¯ Î±
Ġt ra
ac k
ĠU n
ĠÏĦ Î¿Ïħ
ç ľ
Ġal l
å ¥
Ġ3 0
Ġ ãģ
Ġ2 5
Ĺ à¸µ
Ġy ang
er n
Ġ Õ
Î¼ Î±
å ¾
Ġw as
Õ¡ Õ
Ġà¤ ¬
r an
Ø º
å ĩ
E R
Ġ× ¢
Ð¾ ÑģÑĤ
æĹ ¶
Ġ) ,
Ġm en
× ŀ
Ġch e
Ð°ÑĤ ÑĮ
Ġà® ®
t a
- -
Ð° Ñģ
Ġà¦ Ĩ
ĠÎ ½
iá» ĩ
Ġ201 7
Ġ Ú¯
× Ľ
Ä ĩ
ĠA r
Ġ2 2
× Ŀ
à¯ ĩ
is s
ic o
ĠÙĪ Ø§ÙĦ
Ġà¤ ¨
áĥ ĵ
à¥ĩ à¤Ĥ
h e
ĠM ar
å Į
Ġth is
m er
Ġ Û
ìĹ Ĳ
Ġà® ħ
Ġ" ,
Ð¾Ð º
Ġd en
ãģ Ĩ
Ġ >
ãĥ ĥ
A N
b er
æ Ģ
ĠÐ ļ
on s
in i
Ø§Ø ¹
Øª Ø±
æĺ ¯
ãĤ Į
à ¨
å İ
c o
Ð¾Ð ¶
and o
n y
Ġcom p
é Ĺ
ĠÐ »
Î½ Î±
Ð¸ Ð»
à¦¾à¦ ¨
ap p
à§ Ģ
å ±
ä¸ Ń
ãĤ ¤
ĠÎ ¿
ĠÐ¾ ÑĤ
Ñ Ħ
Ġ ed
ë §
s p
ãĤ ī
Ġà¤ķ à¥ĩ
Ġb ir
á Ģ
à¤ ª
Ġà¦ ®
ic k
Ĥ à¸
Ð¸ Ð¹
ÑĤ Ð¾
ĠÐ½ Ðµ
os s
Ø± ÙĪ
Ø§Ù Ī
ç ¥
áĥ Ľ
Ġà¤ ľ
Ïģ Î¹
ĠÎ ³
íķ ĺ
ì§ Ģ
ig n
l Ä±
Ġpar t
¶ľ ìŀ¥
Ġ201 8
Ġ à¹Ģà¸
æĸ ¹
Ġe en
Ġ2 1
p e
Ġà¦ ı
Ġà® ¤
à¤ Ĺ
h r
b e
c a
Ġà¤¹ à¥Ī
áĥ ľ
à° ²
ÑĢ Ñĥ
Ġà¤ ħ
ĠÃ §
u ch
Ð¸ Ð²
Ã´ ng
Ġ× Ľ
c ia
Ī à¸
ĠØ§ÙĦ Ø£
ĠÑ į
ĠL a
ķ à¸
b l
æ °
ĠØ µ
Ġm ed
p er
Ġà¤ µ
Ġà® ļ
ë ¡
æľ º
áĥ ¢
áĥĲáĥ ĵ
n i
à® µ
in t
Æ ¡
ãĥ Ī
Ġb u
f er
å¹ ´
ìĿ ĺ
p t
Ã© s
æī ĭ
Ġb l
ion s
Ġ Ø§ÙĨ
¸ à¸
Ġm et
Ġfr om
à µ
Î ²
Ġm ar
ĠC om
d en
Ġ2 4
ab le
à¯ģà® ®à¯į
è Ģ
Ġg i
Ú Ĩ
ä ¿
ĠÐ¾ Ð±
ìĿ Ħ
un t
Ġì ŀ
Å ¯
à¤ µ
Î ĳ
à®¿à® ²
Ø§Ø ¡
ì ĭ
ĠL e
è ´
ÐµÐ» ÑĮ
g a
ĠÄĳ á»
Ġ. .
ÙĪ Ùħ
Ġs on
r at
à¥ Ĥ
Ġå¤ §
ç Ļ
Ġh et
Ã ±
ĠØ§ÙĦ Ø¹
Ġh ave
ac e
×ķ× ¨
æĹ ¥
Ġà¤ Ĩ
Ã³ w
Ġ2 3
it o
im e
Ø§Ù Ĥ
Ø§Ù Ĭ
áĥĲáĥ łáĥ
Ðµ Ñģ
à¸µ à¸
ê ¸
Ġc ol
Ġà¤ ¦
s i
Ø ¸
áº Ń
à¹ĥ à¸
Ġ ÑģÑĤ
m i
c l
à®¿à® ¯
am b
Ð¸ Ñĩ
Ġv á»
s o
Ġà¦ ¨
á» §
´ ë
ĠØ§ÛĮ ÙĨ
ŀ à¸
Ġ X
« à¸
Ø± ÙĬ
æ ķ
Ġáĥ ł
× ĺ
ĠÎ ĳ
Ġ× Ļ
u c
æľ ī
Ġà® ĩ
Ø§Ø ¦
Ġl as
å ¯
ĠT r
an n
Ġm o
Ø± ÛĮ
an a
ģ à¸²
ich t
i ed
Ġc l
Ġp od
Ġv Ãł
i et
áĥĶáĥ ľ
à¦ ¸
Ġ0 1
à¤ ¦
è½ ½
Ø§Ø ´
å¹ ³
è ¦
it a
äº Ĩ
áĥĲáĥ ķ
in o
ĠÎ¼ Îµ
ĠØ ²
Ð°Ð ´
Ġà¦ ¹
Ġw ill
v en
áĥĲáĥ ¡
Ġt ak
ÐµÐ ²
ĠÚ© Ùĩ
Ġ \
å ĵ
ç Ĳ
ĠR e
é ģ
à± Ģ
Ġs ur
ĠS e
ãĤ ĵ
I N
am e
a il
Ġ $
Ġa ut
en e
ac iÃ³n
ell a
Î½ Î¿
h er
ĠÃ ¼
am a
ļ áĥĺ
.. ..
à¯ Ĩ
Ġp our
t i
Ġ201 6
Ã¡ c
c z
Ġ ist
åı °
k i
as e
Ġm od
ä¹ Ĳ
Ġáĥ ĺ
Ġï¿½ ï¿½ï¿½
an te
Ġd et
Ġg o
Ù Ģ
× ¡
ä¸ Ĭ
ä¸ į
ÏĦ Î¹Îº
at er
Ġ up
a ÅŁ
A R
ä¸ĭ è½½
Ð¾Ð» ÑĮ
ãģ ı
Ġk e
E N
ÉĻ n
Ġà¤ ²
ur a
Ġs ol
æ Ń
ĥ ½
áº §
íķ ľ
é Ľ
ĠØ¨ Ø§
ì Ĭ
× Ĵ
w e
ĠÂ Ń
à° ķ
Ġà¤ °
ĠÐ¿ Ð¾
8 8
Ġ× ŀ
Ġì ł
¨ à¯įà®¤
Ġà° ª
O N
ĠÎ½ Î±
Ġ0 9
ĠØ¹ÙĦ Ùī
Ġm in
is e
ĠÐ Ŀ
ÐµÐ ³
Ġs ch
ĠP r
Ð¸ ÑĢ
ĠÐ ł
al i
Ġp ers
ãĥ «
ĠÎ ķ
h a
l ine
s ch
j a
ĠÐ ľ
ac t
o y
Ġcon s
an o
å® ¶
at i
6 5
ì ļ
ĠÎ ł
æ µ
ä¼ ļ
é ¢
Ġà® ¨
à¤¾à¤ ¨
Î ¾
ÐµÐ½ Ð¸Ñı
ë¡ ľ
Ġl Ãł
er a
Ġre c
Î Ł
Ġ ÛĮ
Ġáĥ ¨
Ġà¦ ¦
an ce
æ Ķ
n ie
Ã¡ s
Ġs c
Î¼ Îµ
ê³ ł
Î Ļ
1 1
Ġo d
ï¼ Į
es e
å®ĺ ç½ĳ
ÙĦ ÙĬ
æ ł
å Ŀ
Ġo ut
Ġ }
Ġs k
Ð¸ÑĤ ÑĮ
li ch
el e
j e
áĥĲáĥ ł
Ð¸ Ð·
ĠE l
ë ı
ĠÐ ŀ
v el
ĠÎ Ń
Ġb r
Ġh a
Ø ¥
Ġ *
à¥ĩ à¤
ª à¯įà®ª
Ð¾Ð ·
us e
Ð°Ð» ÑĮ
Ġin d
Ġà¤ ¤
ÛĮ Ùħ
áĥ ®
Ġh o
ad e
ul l
æ ŀ
áĥĿáĥ Ľ
ĠÐ² Ñĭ
it t
eg o
Ðº Ð°
ol og
Ġg e
ÙĬ Ø¯
ĠØ± Ø§
Ã ¹
à¹ Ĥà¸
ct ion
Ðº Ð¸
ur s
æ İ
Ġ à§
ĠÃ ¶
ÏĢ ÏĮ
çĶ ¨
z i
æ ´
Ġ0 2
i áº¿
Ġ1 00
Ġáĥĵ áĥĲ
Ġp e
ì ¶ľìŀ¥
Ġw y
ul d
or s
Øª Ùĩ
ic i
Î» Î¿
k en
Ġm ak
Ð°Ð ±
E S
à® £
å¿ «
Ġb er
ĠS p
å ĳ
ot el
as i
Ä± l
à§įà¦ ¤
ÏĦ Î¹
am i
ê° Ģ
g en
ãģ į
c es
Ð½Ñĭ Ðµ
or k
×Ļ× ª
à® ®
Ġd as
il d
Ġp ol
ĠÙĦ ÙĦ
ë ¦
ĠÎº Î±
ê ²
ĠÐ µ
os e
ãĤ ¯
Ġ ang
é Ŀ
ÃŃ a
ĠÙħ Ø¹
ç §
à± Ĩ
ĠÄ °
Ø§Ø Ń
z en
à® ±
Æ°á» Ŀ
ĠÏĦÎ· ÏĤ
Ġ5 0
Ġ0 8
all y
Ġà¤® à¥ĩà¤Ĥ
Ġb o
à¯įà® ±
Ġn ie
Ä± m
ãĥ ©
Ġo s
ĠÃ ¨
Ġà° ķ
il i
Ö Ģ
ĠØ ·
id o
Ġth á»
5 0
l u
à¹Ī à¸²à¸
Ġà® İ
Ī ëĭ¤
à¯ ĭ
Ã© r
Ġar t
in k
Ġê °
n er
ÙĦ ÛĮ
Ð½Ñĭ Ñħ
çº ¿
Ġ ut
m o
Ġs om
er v
l es
ë ¥
ion al
Ġun e
Ġà¦ķ à¦°
ĠQ u
Ġre g
ĠS ch
è Ĥ
ad os
Ġà¦ ¤
à±įà° °
x t
Îµ Î¯
Ġ q
Ġh as
Ġt á»
Ġc Ã³
à¤° à¥įà¤
Ġm it
m in
Ø¨ Ø±
Ð¾Ð ¿
Ġáĥ¡ áĥĲáĥ
Ð°Ð ¹
Ľ i
ĠØ§ÙĦ Ø³
an y
Ġc ar
Ð¸ Ñħ
Îµ ÏĤ
à°¾à° °
ÐµÐ ·
Ġt y
æ ĭ
æĪ ı
Ġc u
_ _
Ã¡ n
æĸ °
Ø± Ø¨
Ġ2 6
ãģ ĵ
Ġ ä»
Ġ0 5
å¹³ åı°
áĥĺáĥ Ĺ
à¦ ¦
Ġf in
O M
à¸Ńà¸ ĩà¸
Ġ2 7
ĠI t
ĠÎ £
ow n
ãģ¾ ãģĻ
or a
è¡ Į
Ð½Ñĭ Ð¹
ing s
or es
ÛĮ Ø±
1 2
ì ľ
ÑĢ Ð°
w o
ãĥ ª
ĠÎ ļ
áº¥ t
×ķ× ľ
Ġp ÅĻ
Ġ0 7
å¼ Ģ
c ess
å¤ ©
Î¿ Ïį
à¹ ĩ
Ġv on
Ġ0 3
ation s
Ä± ÅŁ
Æ°á» £
æ¸¸ æĪı
Ġ2 8
Ġà° µ
Ġ0 00
1 9
Ð¸ Ñģ
Ġì ķ
åĩ º
is h
Ġ201 5
å Ĵ
ĠØ£ ÙĨ
Ġå ħ
Ä ĥ
ì ĥ
Ã ²
Ġáĥ Ļ
à±ĩ à°
Ġ0 4
ĠÐ Ĳ
Ġ", "
áĥĿáĥ ĳ
ĠÏĦÎ· Î½
Ġp as
m en
Ø¯ Ùĩ
Ð½ Ð¾Ð¹
Ġë °
Ġï¼ ī
ÙĪ Ø²
Ġ0 6
ãģĹ ãģ¦
Î £
áº¡ i
ç ¾
re d
Ġs up
p h
ĠÐ Ķ
Ġm y
ç« Ļ
Ġæ ľ
Î ¶
ĠâĢ Ķ
à¤ ¯
ê¸ °
Ùħ Ø§
Ġ×© ×ľ
ãģ ķ
Ġå¤§ åıĳ
à¯įà®ķ à®³
ìĦ ľ
k u
çĶ Ł
at t
Ù ĳ
à¸£à¸ µ
Ġz u
à¤ ļ
Ġde m
× ¦
e ar
Ġr el
end e
âĢ Ŀ
Ġ× ł
Ïİ Î½
ìĿ ¼
k y
Ġà¦ ħ
áĥĲáĥ ļ
ĠÑ Ħ
Î± Î½
ĠA s
Ġd Ã©
ĠÎ ¤
æĿ ¥
r it
Ġin form
er o
ä½ ĵ
Ġg en
å ī
ik e
Ġ {
áĥ Ĺ
Ġo m
Ù Ĳ
ĠA d
Į Ģ
al a
Ġo ver
r en
Ġap p
Ġcom o
Ġb ut
ãģ£ ãģ¦
ar y
n en
à§ĩà¦ ¨
ì ĸ
Ð° ÐµÑĤ
r as
è ĩ
st e
Î¯ Î½
ĠW e
à¦ Ł
Ġ2 9
Ġáĥ Ĺ
r os
à¦ ª
Ġc á»§
Ġc as
ie w
ub l
Ġser v
Ġd at
ÙĦ Ùĩ
ì Ľ
Ð½Ð¾ ÑģÑĤ
O R
Ġk om
ãģ Ĥ
ê µ
ĠÐ¸ Ð·
Ġcá»§ a
æ ¬
m an
ĠâĢ ĺ
¯ äºļ
ĠÄ Ĳ
à¥ĭ à¤Ĥ
Ã¢ n
Ġï¼ Ī
ol l
ĠP l
Ġà° ®
à¸Ńà¸ ĩ
ay a
ĠB e
ë Ĥ
à®¤ à¯įà®¤
à®¿à® °
Ġ": "
ä½ ľ
ĠÙħ ÙĪ
ãģ§ ãģĻ
n et
Ġà° ħ
æ ²
Ġm as
Ġ× Ĺ
Õ ¸
Ľ à¸
Î ķ
Ġà¦ ľ
ĠØ§ÙĦ ØŃ
ĠØ¨ Ø§ÙĦ
ch en
id a
ÐµÐ½ ÑĤ
u z
g i
æīĭ æľº
áĥ łáĥ
Ġf e
áĥĶáĥ ¡
ch t
ä ¾
Ð½ Ð¾Ð³Ð¾
Ġt il
æ Ļ
Ã¡ t
åĴ Į
à® ®à¯į
à®¿à®² à¯į
Ġch o
Ġpro du
Ġv ar
Ġm er
åľ °
v ent
ÐµÐ½ Ð¸Ðµ
ë ĵ
Ġà¤ķ à¥Ģ
3 0
ĠÎ Ķ
¨ áĥĺ
ek t
ìĿ Ģ
áĥĺáĥ ľ
g an
×Ļ× ¨
Ġh ar
at ed
u a
el d
Ġo u
A L
Ġ ÏĮ
Ùħ Ø§ÙĨ
en a
g o
Ã Ł
Ġ20 20
Ġ201 4
« ĺ
Ġh á»
Ġf il
iv ers
ĠÐ´ Ð»Ñı
ĠÎ³ Î¹Î±
Ġvo or
ãģ ł
Ġsi ÄĻ
Ä °
ĠÎ ľ
é ¡
if ic
Ø ¦
Ñĥ ÑĤ
Ġh er
à® ķ
ì Ĥ¬
Ĺà¸µ à¹Īà¸
Ġãĥ »
Ġà° ¸
or y
æ ĥ
åĲ Ī
å Ł
ÙĬ ÙĦ
c y
am ente
Ī ĺ
è ī
Ġpers on
Ġpr es
ĠV er
Ġáĥ Ķ
Ð°Ð ¶
å ¨
à¯ Ĭ
à®¤ à¯ģ
è ¨
r on
Ġå ı
n Ã©
Ùĩ Ø§ÛĮ
u x
å¸ Ĥ
ĠC on
Ġ äºļ
Ñĥ Ð´
Ø§Ø ¬
el le
ĀĀ ĀĀ
Ø± Ùģ
à¤ ¡
à®¾à® °
Ġf Ã¼r
y n
Î» Î»
Ġ4 0
Ġn on
à®¿à® ©
Ġ201 3
k o
Ġ ÚĨ
Ñİ ÑĤ
ì ²
re e
ĠÎ± ÏĢÏĮ
áĥĶáĥ ł
re t
ãģĹ ãģŁ
Ä± z
Ġc a
w a
9 9
ÙĪ Ø§ÙĨ
£ ¼
Ġà¤ Ĺ
à¤¿à¤ ¯
æľ Ī
Ġg Ã¶
A T
ĠÐ ¢
çī Ī
Ù ı
er i
ĠÎ ·
Ġê ²
ĠÎ ¸
æľ ¬
est a
en ce
Ġ Ïĩ
æ ±
or i
Ġì Ĺ
Ġ Å
l and
Ġas s
Ġs al
æ Ħ
ÑĨ Ð¸
ol e
Ġau f
ĠÙħ ØŃ
Ġh ab
ay s
Ð¾ Ñĩ
ig e
ĠÃ ¥
ìĬ ¤
Ġm i
ĠÙĩ Ùħ
Ġi f
áĥĶáĥĳ áĥĺáĥ¡
Ð° ÑģÑĤ
ĠÐ ¶
Ġf un
Ġd ur
åħ ¬
Ġâ Ĥ¬
us s
y st
è ¾
Ġà¤ ¯
ç½ĳ ç«Ļ
i h
ĠO n
ĠP ar
Ġà¤ķ à¤°
2 2
Ġa f
Ĭ à¸
ion es
ÏĦ Î¬
æ Į
à¤ ¬
á» ĭ
A S
à¯Īà® ¯
Ġb et
Ġ201 2
el s
ä¸ ī
Ïģ Î¬
ãģ ĳ
in s
çĲ Ĩ
Ã µ
Ġpro p
Ġà¤ķ à¥ĭ
Ġm ore
Ġc or
à¦¿à¦ ķ
× Ł
ent s
à¹ ĩà¸
ìĿ ¸
à¤ ľ
k et
Ġa ct
Ð¸ Ð´
àµ į
æ³ ¨
Ã¬ nh
à¤¨ à¥ĩ
1 5
Ġd ans
Ġp os
×ķ× ĵ
it s
áº ¯
åĵ ģ
Ġp ra
Ŀ ¼
à¤ £
Ġáĥ ŀ
Ġ Ø§Ùħ
Ġof f
1 8
à¤¾à¤ ¤
y s
Ø§Ø± ÛĮ
ë¦ ¬
à¯ģà® ķà¯įà®ķ
Ġse g
à° Ĥ
1 6
a is
à® ¯
ĠÏĥ Ïħ
ut e
Ġç İ
Ùħ ÙĨ
it ion
Ġ ik
Ø± Ø§ÙĨ
Ġ ÅŁ
ãĥ³ ãĥ
ãĤ ¢
an k
ĠP h
Ġp ost
Ġo ur
å° ı
d o
áĥĲáĥ ª
Ġ× ª
ÉĻ l
Ġ à¹ģà¸
t uk
Ùħ ÙĦ
Ġs el
ĠÏĢ Î¿Ïħ
Ðµ ÑģÑĤ
Ø¹ Ø¯
re at
ãĢ ĳ
d i
ÉĻ t
ĠÙĩ Ø§ÛĮ
an e
Õ ¥
×ķ× Ł
ul ar
Ġì ĺ
Ġp u
Î¹ Ïĥ
ĠÐ ĺ
à¤¾à¤ ²
ak t
ĠÂ ·
O S
Ġat t
az ione
éĹ ¨
o ok
in h
à¯ģà® ¤
Ġà¤ Ń
ĠB l
Ùĩ Ùħ
im a
· à¹Ī
ëı Ħ
Ð¸ ÑģÑĤ
ro l
k l
à¤ Ł
ĠG r
Ġà¤ ī
Ġpro f
à¦¾à¦ ²
Ðµ ÑģÐº
à¤¾à¤ Ĥ
Ä±n da
¹ à¸
ãĥ³ ãĤ
u h
b a
Ġma is
å Ģ
ÎŃ ÏĤ
Ġp Ã¥
ic al
ĠÑĩ ÑĤÐ¾
Ġp ag
Ġë §
ĠN o
n ÄĽ
åŃ Ĳ
Ġg et
ë§ Ī
à¸£ à¸²à¸
j i
Ïģ Î¯
z o
à¹Į à¸
Ġin t
at ur
×ķ× ĳ
Ġd al
ed e
p p
Ġf o
Ġb el
al iz
Ñĥ Ñİ
ĠS h
Ġå ĩ
ab il
Ġï¿½ ï¿½
Ġn u
m as
Ġ× ¨
âĢ ¦
Ġon e
é ĺ
é ĥ
c k
Ġes p
iv o
åħ ¨
ĠA m
ĠÐ¿ Ð¾Ð´
æ ¯
Øª Ùħ
ãĤ Ī
oc k
a f
ãĢ Ĥ
z ie
Ù ¾
Ġne w
ÙĪ ÛĮ
ģà¸² à¸£à¸
à¤¿à¤ ķ
Õ ¶
åĿ Ģ
pr es
×Ļ× ł
Ñĥ ÑĢ
i ra
Ġd on
Ġin v
è¦ ģ
Ġj ak
o h
eng an
Ñı ÑĤ
Ġà¤¸ à¥ĩ
×ķ× ł
äº ĭ
1 7
Ġb est
Ġin st
Ġin c
ì ĺ
Ð°Ð ¿
ÏĦ Î±Î¹
Ġà¦ª à§įà¦°
áĥĺáĥ ļ
á» ¯
Ġp i
el a
áĥĶáĥĳ áĥĲ
è ĥ½
Ġm ay
Ġthe ir
à¹ī à¸²à¸
à±įà° ¨
ĠT e
Ġd ella
Ðµ Ñĩ
1 4
á» ±
ç Ń
ot o
ĠÑĢ Ð°Ð·
I C
iá» ģ
en n
ÙĦ Ùī
Ã© m
ãĥ¼ ãĤ
Ġa us
g er
Ġì ĭ
ĠE r
åľ¨ çº¿
à¸£à¸ ±à¸
ĠW h
ro w
à¦¿à¦ ¨
æĪ Ĳ
ĠØ§ÙĦ Ø¬
Ġqu i
Î¹ Î¿
³ à¸
ä¸ º
Ġdi re
u i
ÎŁ Î
ĠØ§ÙĦ ÙĤ
Ġ× ¤
ÙĦ Ùħ
×Ļ× Ķ
ìĭ ľ
ãĢĳ ãĢĲ
à° ®
ç Ĥ
ç ł
± à¸Ļà¸
Ð¾Ð² Ð°Ð½
à¹Ī à¸²
Ġå ®
ä¸ ª
å½© ç¥
Ġon line
ĠØ¹ ÙĨ
ĠH e
6 0
Ġpro v
E L
ĠÐ ĳ
ion i
Ġd r
ĠO r
or n
ë ħ
à¦ Ĺ
emb er
åŃ ¦
ov e
Ġs it
Ġa y
ë¥ ¼
es i
ãĥ ¬
em a
Ġà¦ °
ä¸ ļ
an c
à®Ł à¯įà®Ł
Ñĥ Ñĩ
Ġs ec
ĠÏĢ ÏģÎ¿
i ÅŁ
à®¾à® ©
Øª ÛĮ
Ð½ Ð¸Ðº
g et
Ġ id
é «ĺ
± ä¹Ĳ
å¤ ļ
Ġde c
Ġv ol
à¹Ħà¸ Ķ
à® Ļ
é ĸ
Ġthe y
è Ī
Ġtr ans
Ġà° ļ
Îµ Î½
çľ Ł
Ġv is
Å Ħ
Ġm eng
y m
à¦¾à¦ ®
ä» ¥
ç ´
ĠÎµ ÏĢ
am ento
Ù Ĵ
Ġì Ħ
Æ°á»£ c
gr am
ĠÑģ Ð²
Ð°Ð ³
Ġin s
el y
Ø¨ ÙĬ
ç ¤
ij n
Ġk on
7 7
à° ¤
et e
Ġà¤ ĩ
Ġ×Ĳ ×ª
y ch
ê ±
çĶ µ
è ģ
1 3
Ïģ ÏĮ
ç¾ İ
Î® ÏĤ
ĠâĢ ŀ
ë °
ĠÐ± Ñĭ
t re
Ġst r
æĪ ·
íķ ´
ow e
Ġs oc
th er
lar Ä±
ĠM e
à ¶
Ð½ Ð°Ñı
om b
Ġå °
Ã© e
å ł
ĠÏĥ ÏĦÎ¿
Ġb ar
å®ĺ æĸ¹
ľ à¸
ist a
Ġfor m
áĥ Ĵ
ç ¨
Ġê ³
Ġ201 1
Ġ Ñħ
áĥĶáĥ Ľ
Ġæ Ĺ
éĩ ĳ
Ġw eb
Õ «
Ġ3 5
× ĸ
c c
ĠE s
í Ĭ
ĠÐ¿ÑĢ Ð¾
2 4
ÐµÐ ±
n ya
Ġin f
Ġab out
ĠI l
ĠØ§ÙĦ ÙĨ
Ø³ ÛĮ
à® ¨à¯įà®¤
Ġà¦ ¶
à°¾à° ²
Î Ĺ
Ġt u
Ġim p
à¦° à§įà¦
Ġáĥ ¬
åħ ¥
Ġw o
i x
et te
lar Ä±n
ÅĽ ci
Î¿Ïħ Î½
Å¼ e
à¸£à¸ °à¸
Ġi Ã§
ri b
al t
ol d
à¹ī à¸²
8 0
å¨ ±ä¹Ĳ
Ġd os
ãģ Ĭ
å® ī
ĠØ§ÙĦ Ø´
ĠØ¢ ÙĨ
æ Ľ
end o
em e
å· ¥
Ïģ Î³
ik a
6 6
á» ¥
ĠÐ² Ñģ
Ġà° ¨
áĥĿáĥ ¡
åĪ °
Ġå ½
Ġun tuk
U R
Ġt ime
Ġv i
Î¼ Î¿
Ġw er
Ãµ es
Ĺà¸µ à¹Ī
áĥĶáĥĳ áĥĺ
Ġv ide
ĠÐ¿ ÐµÑĢ
d an
r ic
á» ©
Ïĥ ÎµÎ¹
ì ¹
Ġp a
Ø§Ø ®
à°¿à° Ĥà°
ë ³
à±įà° ¯
æ £
Ġd engan
ak an
ĠF or
9 0
è§ Ĩ
I S
Ġum a
×Ļ× ľ
ÙĪ Ø¹
à¥įà¤ ¤
Ġin i
ÙĢ ÙĢ
Ġv al
ĠâĢ ¢
éĽ Ĩ
Ġáĥ £áĥ
Îĳ Î
Ġc Ã¡c
E T
ÑĢ Ð°Ð½
l ed
er en
á»Ļ t
a x
áĥĿáĥ ľ
Ġwh ich
ĠAn d
Ġà¤ª à¥įà¤°
é Ĵ
on a
ĠÏĦ Î±
Ġs m
Ġ× §
Ġà¦ ¯
ĠÐŁ ÑĢ
ra v
é £
à¦ ¼
ãģª ãģĦ
y t
ìķ Ī
Ġac c
Ð¸Ñĩ ÐµÑģÐº
ĠØ¨Ø± Ø§ÛĮ
ĠØ º
Ø¯ Ùħ
à¦¾ à§Ł
Ġ ant
ĠÎ ²
á ŀ
u f
Ġal so
ĠØ§ÙĦ Ø¥
ent i
Ġl oc
Ġr Ã©
ĠA b
ç ķ
4 0
Ð½ Ð°
il le
Ġf ir
p ar
Ġå Ī
it Ãł
æ³ ķ
Ġkh Ã´ng
æ ı
Ġà¤ ¶
ãģ£ ãģŁ
å ĭ
ĠIn ter
ç Ħ
c on
Ġè ¿
3 3
ë ¶
2 5
Ø§Ù ĭ
äº ¬
ci Ã³n
± Û
éĥ ¨
Ð ŀ
ĠÐ ĵ
Ð½Ñĭ Ð¼
ĠÃ º
Ãł y
Ġà¤ ı
à¦¿à¦ ¤
å ģ
p o
ĠTh is
g h
ÙĦ Ø§Ùħ
à¦¿ à§Ł
ĠP re
Ġm u
-- --
ë ł
ĠÙħ Ø´
Ġp ot
à ·
ĠØ§ÙĦ Ùģ
à®¾à® ķ
ÙĪ Ø¨
id er
Ġp ass
áĥ£áĥ ł
ĠÏĥ ÏĦÎ·
is a
Ġ ÏĨ
à° µ
á» ĩ
í Ļ
Ġs ob
ĠE x
Î» Î·
ç ®
Ġà¤ ļ
Ġ @
Ġa i
Ġw ir
Ð¿ ÑĢ
Ġ3 1
it Ã©
Ðµ ÑģÑĤÐ²
al es
Ġæ Ī
à¥ģ à¤
ĠU S
à¯ Ģ
Ġn icht
ent es
à®¿à® ±
éĻ ħ
l et
è ¶
à¦ ¹
á» Ł
2 7
à®° à¯į
Ġå Ĳ
Ġpl us
Ġì §
Ã© n
ĠÙħ Ø±
Ġï¼ ģ
ĠÑĤ Ð°Ðº
ĠP er
æľ Ģ
ĠÐ¿ Ð¾Ð»
Ġf l
y o
is i
¾ ³
Ġå į
Ġh el
ang e
od e
Ġ, "
Ä± k
ÙĦ Ùĥ
ĠD es
íĬ ¸
áº ·
ÐµÐ ¿
à° ¸
Ġres p
à¦¾à¦ ķ
ĠÄĳ Æ°á»£c
ĠãĢ Ĳ
l en
å ķ
n ing
åı ¯
èĩ ª
çī Į
! !
in in
Ġk an
Ñĭ Ðµ
at is
ÙĬ Ùħ
ĠØ§ÙĦ Ø¯
ĠØª ÙĪ
Ð½ Ð¸
Î± ÏĤ
à¯įà® ļ
Ġï¿½ï¿½ï¿½ ï¿½ï¿½
Ġal s
Ġk ar
Ø§Ø ·
Ġt emp
Ã¶ n
ĠC OM
ĠÎ Ł
ol a
ĠÏĢ Î±
Ø§Ø µ
00 0
Ġt ro
ì £¼
å® ļ
ĠN e
Ġc i
èĢ ħ
ĠìĿ ´
Ġm il
im i
ĠE st
ig en
Ġf a
ĠÙħ Ø¯
Ġ× Ĵ
ind e
Î¼ ÎŃ
i or
ĠÚ© ÙĨ
ÑĨ Ð¸Ð¸
Ġy ear
) ;
Ġ×ľ ×Ķ
Ġ <
at h
à¸Ļ à¹Ģà¸
Ġå ľ
Ġs im
é ķ
) .
Ġv ers
Ġ201 0
Ùĩ âĢĮ
ĠC o
Ġc r
à° Ł
ĠØ§ÙĦ Ø¨
I T
Ö Ĥ
à® ªà¯įà®ª
çĻ »
ai re
Ġs l
Ġw ork
ĠÄ į
Ġin cl
W W
àµį à´
áĥ §
à° ¦
Ġà¤ Ķ
ĠP ol
áĥĺáĥ ĵ
Î½ Î·
i os
ĠÏĥ Îµ
ëĭ Īëĭ¤
Î¿ Î»
Ġ à´
Ġà¦ Ĺ
ä¸ ĩ
ĠÐº Ð°Ðº
Ð¾ÑĤ Ð¾ÑĢ
ĠÎ »
iv a
Ġs ich
¡ à¸²à¸
èĤ ²
Ġs em
Ġ Ïħ
ĠC ar
Ġs ub
Ġent re
ÙĨ Ú¯
ib le
à® ļ
åī į
Ġà®İ à®©
è ²
Ġáĥ ķ
ĠD ie
Æ° Æ¡
Ġz a
Ġc ap
ov er
b o
Ġm ag
ãģĻ ãĤĭ
Ġor gan
ĠãĢ į
u er
áº§ n
ĠN ew
Ġáĥ ĳ
Ġà® ī
è½ ¦
Ľ à§ĩ
å½©ç¥ ¨
åĬ ł
Ġë Ĥ
Ð ¡
Ġà¤Ķ à¤°
à¯ģà® ķ
ĠÑį ÑĤ
Ġen c
Ġ× ĵ
Æ°á» Ľ
Ġ×Ķ× ŀ×
ĠÐ¸ Ð½
Ġqu al
Ġj ed
Ġ4 5
à±įà° ²
ãģ ©
Ġ Ø§Ø±
an i
at u
ad as
ä¿ ¡
Ġan y
Ð°Ð¼ Ð¸
Ð ł
l t
a ar
Ġà° ¤
Ġp oss
à±įà° ¤
à° ª
ĠÎ± Î½
Ø° Ø§
Ġà¤ª à¤°
am os
p os
Ġcom m
Ø§Ù ĥ
Ñĭ Ð²
Ġh ad
Ġg ro
Ïī ÏĤ
Ġæ ĸ
à° ¡
Ġ á
ÐµÐ ¶
? ?
ÉĻ s
im o
ĠH otel
A M
Ġc z
Ġ6 0
Ġ ess
ad i
er g
ĠáĥĲáĥ ł
ĠÂ °
ĠØª ØŃ
è ·
idad e
åĬ Ľ
à§ģ à¦
k er
v o
al ar
Ġal le
et s
ãģ Ī
es ch
à¤¿à¤ ¤
à¯ Ĥ
å £
Ġc ent
ìŀ Ĳ
Ġç Ķ
ç½ĳ åĿĢ
ÙĨ Ø§
est e
ÏĦ Î®
f e
è ª
ãģĭ ãĤī
Ġm em
áĥĶáĥ ķ
l d
çľ ĭ
Ġ×ľ ×Ĳ
ing en
ìľ ¼
ic as
Ġë ĭ
Ġc e
Ġtr ong
à¹Ħà¸ ¡
ãĤ ģ
Ġ Ñı
at s
Î¬ Î½
ĠØ¯ Ø§ÙĨ
Ð´ Ð°
Ġvo us
Ã¡ ch
Ġo t
Ġ ä½
Ġk n
Ġê ·
a ÄŁ
Ñħ Ð¾Ð´
Æ°á»Ŀ i
iá»ĩ n
Ġe v
ĠC l
ĠÑģ Ð»
ĠJ e
ĠÙħ Ø³
m l
Ġv ÉĻ
Ġc re
Ġà¦ ļ
Ġt en
ĠS ie
4 4
an ia
ç¥ ŀ
æĬ ķ
Ø§Ø ³Øª
Ġm al
å §
Ľ à¹ĩ
ĠÛ ±Û
à¦¾à¦ ¦
åĽ ¾
Ġm Ã¡s
Ġm Ã¼
è £
Ġk l
¾³ éĹ¨
Ã ¦
al s
ĠS o
5 5
Îµ Ïħ
am o
Ùĩ Ø±
Ã¸ r
i que
å¥ ½
Ġes c
y l
Ġt ut
an h
Ġæ ĺ
æĸ ĩ
w i
v a
Ø ¢
Ġs in
Ħ à¸£à¸
Ġt em
en ÃŃ
ic t
à§įà¦ Ł
áĥĶáĥ Ĺ
Ġb as
ĠØ¥ ÙĦÙī
ĠÚ© Ø±Ø¯
ë Ŀ¼
ãĤ Ħ
iz e
Ġà¤¹ à¥ĭ
è® ¡
ÏĦ ÏĮ
Ġm ot
Ġe ff
ĠB u
ĠB r
Ġw ar
ĠÏĦ ÏīÎ½
Ġb il
Ñĥ Ð¿
×Ļ× Ł
.... ....
ģà¸² à¸£
ĠÙģ Ø±
áĥĺ áĥĲ
æĸ Ļ
ÙĪ Ø´
Ġì Ĥ¬
Ġm ga
Ġà¤ķ à¤¾
ä¹ ĭ
Ġ3 3
Ġn ov
ur n
áº¡ n
Ġm á»Ļt
Ñĭ Ð¹
ĠB ar
Ð Ĳ
Ġå Ľ
Ġ× ¡
ĠØ§Ø ³
à®¿à® Ł
áĥĲáĥ ®
å¿ ĥ
ol o
ĸ à¸
am il
×ł ×Ļ
ĠÐ¿ÑĢ ÐµÐ´
ãĥ ķ
Ġåĩ ¯
Ł à¸£à¸µ
×ĳ ×¨
Ġ3 2
b i
à¤ §
E D
Ġn Ã£o
å® ¢
im ul
Ġl ike
Ġvá» Ľi
ÙĬ Ø³
åĽ½ éĻħ
ĠIn d
ĠØ§ÙĦ Ø®
Ïĥ Îµ
m ente
à¤¿à¤ ²
ÛĮ Øª
Î¯Î½ Î±Î¹
Ġn i
b et
ĠÐ· Ð°
pl ic
ĠF ran
Ġa an
¯ à¦¼
ĠÙħ Ø§
Ġre t
Ġm us
ÅĤ a
Ġ ÑĨ
Ð¸ÑĤ ÐµÐ»ÑĮ
Ġ×¢ ×ľ
é ¦
à°¾à° ¨
à°¿à° ¨
ra f
Ġst ud
Ġy ap
p s
ç Ł
Ñĥ Ð±
ÎĻ Î
ÐµÐº ÑĤ
Î» Î±
ĠÛĮ Ú©
ãģĵ ãģ¨
ìĽ Ĳ
am an
ung en
ä¹ Ī
ãĥ Ń
Ġb us
qu es
Ġqu est
Ġà¦¬ à¦¿à¦
j ect
b ar
Ġj est
ä» £
Ġse x
Ã¡ l
à®¾à® ²
d y
à®© à¯į
Ġä¸ Ģ
Ġav ec
Ġm at
ent a
Ġ à¨
ÙĪ ÙĤ
åĪ ©
ad ing
Ġe ine
áĥ£áĥ ļ
it er
ad or
Ġw ord
× ļ
m et
ÛĮ Ø´
Ġj ust
Ġad d
ë ŀ
ch n
ĠãĢ Į
ant o
ë ©
Ġâ Ĩ
à¯įà® ²
Ġáĥł áĥĿáĥĽ
ler i
Ġz e
ĠM an
ĠÙħÛĮ âĢĮ
ÃŃ t
Ġdi ff
åĽ ¢
Ġäºļ æ¸¸
ĠI m
it al
ì Ĩ
åº ¦
§ à¸²à¸
ug h
Ġê ¸
ri o
ot h
Ġg el
Ġå ¹
à¦¾à¦ ¤
Ġcon f
Ġcom e
áĥĲáĥ Ĺ
d uk
Ġto d
Ġc n
Ùħ Ø¯
2 3
ĠÐº Ð¾ÑĤÐ¾ÑĢ
áĥĲáĥ ¢
Õ¸ ÖĤ
Ġpro bl
Ð½Ð¾ Ðµ
Ġ× ĸ
ow a
Ġau ch
à§įà¦ ¬
æ ¥
ĠT o
2 8
Î¿ Î½
ĠØ§ÙĦ Ùĥ
à¸Ń à¸Ļ
c ar
Ġi ch
O L
Ðº Ð¾
Ġë ª
Ġçİ ¯äºļ
ĠY ou
ĠØ¨ Ø§Ø²
Ġt a
Ġh is
à°¿à° ķ
Ġ3 4
à° ¯
Ġæ ¾³éĹ¨
Ġ ur
ĠD E
éģ ĵ
Ġre m
ed er
áº£ i
Ġim port
on o
° à¹Ģà¸
Ġm es
Ġs et
Ġ Å¾
el t
and e
7 0
Ġr is
Ġs ome
âĢ ľ
Ġë ³
Ġ" .
çİ °
Æ°á»Ŀ ng
áĥ£áĥ ļáĥĺ
à¦¿ à¦°
Ä±n Ä±
×ķ× Ŀ
Ġ Ø§ÙĪ
Æ°Æ¡ ng
Ø§Ø± Ø¯
à¥įà¤ Ł
yst em
A D
ĠÐº Ð¾Ð¼
» ¿
iá»ģ u
Ã© t
ãĤ ·
à¸Ļà¸ µ
Ã¡ m
á» į
Ðµ Ðµ
ĠP ost
Ø¨ Ø§Ø±
* *
ãģ ¤
ĠÙĨ Ùħ
à¦ ľ
Ġne ed
ãĤ ¿
çĤ ¹
om m
Ġg er
on es
ĠØ§ÙĦ Øµ
áĥ ĳ
à¤¾à¤ ®
ut o
Ġ3 6
éĿ ¢
åĮ ĸ
Ġo ther
Ġex p
ar io
Ã¶ r
åĬ ¨
Ĥ °
à¦ ĩ
Ãł ng
ar s
Ġp el
as h
à¹ĥà¸ «
ð Ł
Ġì Īĺ
ãģ ¡
ĠÙħ Ø¬
Ġd ari
æŀ ľ
ap at
Ø± Ùĥ
v is
Ð° Ñħ
Ã§ Ãµes
à® ´
Ð» ÐµÐ½
ur o
ic es
ë ¬
Ġng h
ÙĦ Ø§
y d
ĠÃ ¡
ĠÎµ Î¯Î½Î±Î¹
y e
åľ º
à¦¾à¦ ¬
t s
ĠÏĢ Îµ
×ķ× Ĳ
Ø± Ø©
m ÉĻ
ÐµÐ½ ÑĮ
p a
Ġb ack
Ãł nh
ÐµÐ³ Ð¾
Ġp op
Ġk m
ä¸ »
áº£ n
Ġth em
Ñ ĳ
ec e
à¤¾à¤ ¯
áĥĶáĥ łáĥ
à®¿à® ķ
áĥĲáĥłáĥ Ĺ
Å¡ ÃŃ
Ïģ Îµ
Â µ
Ġsp ec
à¤ ¼
Ġn um
Ø§Ø¯ Ùĩ
ĠÐ £
à¯įà®ķà®³ à¯į
Ð°Ð± Ð¾ÑĤ
Ġt i
à¤¤ à¤¾
éĢ ļ
Ġà¸ ªà¸
ĠÐ¿ÑĢ Ð¸
Ùģ Øª
um ent
à® ķà¯įà®ķ
l Ã¼
à±įà° Ł
ud e
ĠR es
à¯ģà® µ
Ġd om
Ġn et
Î ¡
l ÉĻr
Ġm emb
Ñĭ Ñħ
z t
Ġwh o
ĠÃ ĩ
Ñģ Ð¿
Ø§Ø ¶
± à¸Ļ
èµ °
Ġ äº
ow s
c ul
ĠØª Ø¹
Ġde f
ĠAl l
I L
ĠG o
à± Ĥà°
ubl ic
Ġä¸ Ń
ãĥ Ĺ
ĠÚ© Ø§Ø±
Ñĥ Ð»
ÙĤ Ø¯
Ġh al
er d
Ġà® Ĩ
×Ļ ×ķ×ª
åį ķ
áĥĶáĥ ĵ
ÅĤ o
Ġm ost
Ġt ot
I D
Ġ. ,
Ã½ ch
Ø ¤
Ø§ÙĨ ÛĮ
ĠÃ ĸ
Ġj s
Ú¯ Ø§Ùĩ
Ġg u
an ie
à±ģà° ²
Ġáĥ ľ
ìĸ ´
ĸ áĥĶ
Ġl eg
å½ ķ
Ġm el
Ø³ Ø¨
ãģ Ľ
Ġf ra
Ġal t
Ġhttp s
b r
Ġcom pl
Ġ200 9
Ġng Æ°á»Ŀi
l am
b y
ĠP or
ant s
åĮ º
A C
áĥĿáĥ ķ
Õ¡Õ ¶
ĠH o
à¦¾à¦ ¸
ĠÙħ Øª
ä» ¶
Ġth ere
c ed
Ã§ a
å »
áĥ ª
Ġ19 9
ãĤ £
Ġro z
ar k
Ï Ī
à®£ à¯įà®Ł
à¦¾à¦ ĩ
b en
ec k
ow er
Î¯Î± ÏĤ
ĠE m
Ġpro gram
à¦ Ĥ
ĠØ§ÙĦ Ø±
as a
é¢ ĳ
ä¹ Ł
2 9
Ġz ijn
Ġà¦ ī
Ġwh en
Ġprodu ct
Ġìŀ Ī
Ġì ¹
Ġê µ
y le
ah a
ÙĦ Ø©
Ġ3 8
é ľ
æĹ¶ å½©
Ú ĺ
Ġåĩ¯ åıĳ
Ġbe en
Ġ9 0
Ãł n
Ġs us
ĠC ont
p le
ess o
Ġ8 0
Ġà¦ ĵ
×Ļ× §
á»¯ ng
Ñĥ Ð¶
Ġb ec
iv er
×Ļ× ĳ
è´ ¹
ĠT er
Ã¨ s
éĢ Ł
à®¿à® ¤
ri j
ĠØ® ÙĪØ¯
uj e
Ġc al
Ñĥ Ð¼
í ĸ
Ġy a
Ġpr z
¬ ¬
áĥ ¥
Î¿Ïħ ÏĤ
Ġå Į
Ġn os
ĠÎ ĵ
áĥ Ļ
èī ²
Ġh and
à ©
ì² ľ
ed en
Ġf ac
Ä± ÄŁ
j on
el ij
ç µ
ĠÑģ Ð¿
´ à¸Ļà¸
Ġ3 9
¹ Ħ
Ġwh at
ation al
ĠÎ± Ïħ
Ġà¦ Ń
áĥĺáĥ ł
×Ļ× ©
Ãł i
ç ©
ÏĥÎ· ÏĤ
Ã¡ v
ĠÐ Ĺ
Ġ Ø§Ùģ
à¥įà¤¯ à¤¾
Ġs v
ÅĻ ÃŃ
Ġà° °
å ¦
ĭ çīĮ
i ro
ell o
t on
ag es
å¤ ĸ
Ġ ÑĪ
Î ¤
¯ ¸
our s
à¤¾à¤ ¸
ĠÐ¼ Ð¾Ð¶
áº§ u
é ļ
ĠiÃ§ in
ĠAr t
æ Ł
ic os
s s
áĥĿáĥ ĵ
ĠC ol
å¿« 3
Ġpr zy
æĥ ħ
Ġì ĥ
à¦ £
à¤¨ à¤¾
Ġë ĮĢ
Ġê· ¸
ë§ Į
Ïģ Î·
ÙĤ Ø©
Ø³ Ùħ
à§ĩà¦ ķ
è °
äº §
4 5
Ġs am
Ġh an
c ie
il er
at es
Ø² Ø§Ø±
ãĤ ı
ãĤ ³
Ġm uch
à± Ī
a Ã§Ã£o
æĹ¶ æĹ¶å½©
Ġp en
Ġ5 5
í Ķ
Ø± Ùħ
Ð¾ Ðµ
Ġpart ic
Ã¨ re
U S
Ġde v
à§ ľ
åĲ į
Ġb aÅŁ
Ġ4 8
ĠÎ ¬
Ïģ Ïī
3 5
ì Ĥ°
Ġnh Æ°
åĬ ¿
ê² Į
ar m
ĠÙĨ ÛĮ
ur op
à¤¿à¤ ¸
ot e
lo ad
Ġv ia
in ci
Ġd ata
á» ĵ
Ġ3 7
Ġ ide
ed i
Ġáĥ ®
le g
Ð¾ÑĢ Ð¼
ci o
Ø§ÙĨ Ùĩ
ãģĦ ãĤĭ
à¹ĥ à¸Ļà¸
Î Ŀ
ãģ ¿
Ļ Ģ
Æ°á»Ľ c
çī ©
is ch
Ġæ Ŀ
w n
ÙĨ ÙĬ
Ġk t
ê³ ¼
à¤¹ à¥Ģ
Ã¢ y
Ġm on
d ÉĻ
Ġde i
Ħà¸ §à¸²à¸
×Ļ× ĵ
æ º
áĥ ¨áĥĺ
ou gh
ëĵ ¤
ra g
ìł ķ
Ġsob re
2 6
Ġe ver
æľ Ł
un a
Ðµ ÑĪ
Ġæ ī
ĠI s
ĠP o
í ĺ
ë ĮĢ
iá» ĥ
ìĹĲ ìĦľ
Ġë ¶
Ġ Ĉ
ĠW WW
r ist
æ£ ĭçīĮ
Ġn as
Ġwo uld
è ĭ
i Ãªn
Ġt id
ĠÏĦ Î¹
ä¿ Ŀ
ĠÎ¸ Î±
à¹ī à¸Ńà¸
w er
ë ª
el f
ĩ à¹Ģà¸
Ġg l
ur es
Ñĥ Ñģ
Î¹ Î¬
åĨ ħ
Ġk o
Ġw ere
Ġd oc
ĀĀĀĀ ĀĀĀĀ
Ġm is
et er
ant es
d f
Ð¸ ÑĨ
ìľ¼ ë¡ľ
ĠÐ Ľ
as Ä±
Ġb en
ãĥĥ ãĥĪ
and a
z ione
Ġd iv
Ġcon c
Ġ íķ
Ġit s
Ġth an
Ġf ind
Ġp ort
Ġï¼ Ł
ĠÏĦÎ¿ Î½
ÙĨ Øª
Ä± s
áºŃ n
at or
à¤¾à¤ µ
Ġ×Ķ× Ĳ
éĽĨ åĽ¢
7 8
ĠR eg
äº İ
Ġl ang
ĠL es
z er
ot t
p on
ell er
o x
imul yo
ĠA t
Ġáĥ ¥
áĥĺáĥ ª
Ø§ÛĮ ÛĮ
Ġáĥ ¤
Ðµ Ñħ
ĠÏĥÏĦÎ· Î½
ĠÄĳ á»Ļ
áĥķ áĥĶáĥļ
Îº Îµ
c el
ĭ à¸
u es
æĪ ĳ
ļ à¸Ńà¸
åĲ İ
r al
à¦¿à¦ ²
áĥĿáĥ ļ
Ã´ i
ÃŃ n
æ Ĵ
ÙĪ Ø³
å½ ±
ĠÑģ Ð¾
Ġãģ Ŀ
Ġus e
à¤¾à¤ ¹
çĲ ĥ
io us
ĠÐº ÑĢ
é Ĥ
Ġw or
Ġs te
E C
Ġut il
Ġb a
ĠØ °
l ik
Ð° ÑİÑĤ
à¤ ¶
Ġd ist
å¯ ¹
à§ģ à¦²
Ġì ¶ľìŀ¥
at ing
ìĦ ±
ov Ã¡
op le
Ġê° Ģ
n ik
ĠD o
åĨ Į
à¹Īà¸ ĩà¸
¡ à¸µà¸
å¾ Ĺ
Ġì ľ
ìķ Ħ
áº¿ n
Ġb ij
Ø¬ Ùĩ
ï ½
ro und
ĠÎ Ĺ
á» ķ
Ú¯ ÛĮ
Ġh at
ä½ĵ èĤ²
ĠØ¬ Ø¯
Ùħ Ø±
y w
×ķ× ¤
ic s
Ø¨ ÙĦ
Ġáĥ ©
im ento
os a
Ġop t
in es
í Ĩ
ÑĤ ÐµÑĢ
ä» ¬
Ġa le
Ġ4 4
ik an
Ġà¤¹à¥Ī à¤Ĥ
ĠÐº Ð¾Ð½
Ġkt Ã³
R O
æ° ´
æŃ £
à°Ĥà° ¦
ÙĬ Ùģ
Ð½Ð¾ÑģÑĤ ÑĮ
ĠØª Ø±
æ´ ²
Ġng ud
Ġngud imulyo
A P
Ġnh á»¯ng
Ġin to
Ġmak e
r ar
r z
Ġgen er
èµ Ľ
Ä±n a
è§Ĩ é¢ĳ
it en
un e
or te
æĻ Ĥ
Ġå½ ©
ĠÙĪ Øª
åĪ Ĵ
å° ±
å¿« ä¸ī
f ul
Ġ7 0
ÙĦ Ùģ
åı ¸
è Ĳ
çİ ¯äºļ
à®¿à®© à¯į
åĲ Į
Ġ200 8
½ ľ
Ġà¤¨ à¥ĩ
Ġc ur
åŁ İ
à±į âĢĮ
íĻ Ķ
Ð° ÑĪ
æ ¶
è¿ Ľ
pr ess
Ġåľ ¨
Å ©
6 8
Ð°ÑĢ ÑĤ
y r
Î± Ïĥ
ad y
ç ³
à¥įà¤ µ
Ġk al
l an
c ri
ĠÃ© t
áĥĿáĥ ł
à¤¿à¤¯ à¤¾
Ú¯ Ø±
as y
Ġu it
é ħ
Ġl ib
Ġà¤ «
en i
à®¿à® ķà¯įà®ķ
Î¸ Î·
à¯įà® ³
Ġto p
in ess
Ġl et
ment s
ĠA ng
iáº¿ t
á» Ń
is te
ir es
à¤¿à¤ ı
Ġex t
è Ĭ
å¼ ı
ny ch
à§ĩà¦ ²
åİ ħ
×ķ× ©
Ġn iet
ê± ¸
ç Ŀ
Ð½ Ð¾Ð¼
Ġse b
Ġi ÅŁ
×Ļ× Ĳ
ĠØ´ Ø¯
ĠF r
áºŃ t
Ġs ind
Ġlo ok
Ú© ÙĨ
Ġon ly
it i
à§ĩà¦ ¶
ĠG e
ë ²
en za
æ° ĳ
is ter
ãĥĥ ãĤ¯
Ø¹ Ø©
Ð½Ð¾ÑģÑĤ Ð¸
¥à¸ °à¸
ĠÎ´ Î¹Î±
I A
Ġ3 65
Î» Îµ
Ð ĺ
· à¸Ńà¸
Ġj u
ĠB er
åĪĨ å½©
Ġgr atis
Ġs ie
ÙĦ Ø¨
__ __
ģ à¸£à¸
im ent
ĠÏĦÎ¿Ïħ ÏĤ
ÙĬ Ùĩ
è¡ ¨
à®¾à® ¤
çŃ ī
æĢ §
ie j
o us
à¹Ħà¸Ķ à¹ī
æ³¨ åĨĮ
Ġ4 9
n es
Î¹Îº ÏĮ
Øª Ø¨
çĽ ®
Ġh igh
ot os
Ġà¤ ĸ
ah r
a ut
Ġd own
à±ģà° ¨
æı Ĳ
çĻ» å½ķ
Ġà¤ĩ à¤¸
æĢ Ŀ
Ġest e
Ġà° Ĩ
×¨ ×Ĳ
ro p
ãĥ Ĩ
æķ °
Ġf al
å® ŀ
éĩ į
ung s
ul a
f r
Ĺ äº¬
ç» ı
at eg
ak e
§ à§
el i
ĠH er
ĠF l
ĠØ´ Ø¯Ùĩ
áĥ ¬
u ÅŁ
ÙĦ Ø³
¥ ¿
ÃŃ m
Ùĥ ÙĨ
or ia
à¹ Ĥ
ĠÄĳ Ã£
v ers
à± Ĭ
é ĥ½
ìķĪ ë§Ī
Ġh ist
±à¸ ĩà¸
ØŃ Ø¯
ãĢ ģ
Ġhel p
E M
Ġo k
ĠÙħ ÙĤ
Ġa k
Ġil e
Ġt ri
it as
à® ª
o f
ç ²
Ġde p
Ġpr om
Ġson o
ëĤ ĺ
Ġà¤ı à¤ķ
ĠT ra
ter n
æ ģ
Ġsoc ial
Ð¸Ð» ÑĮ
Ġï »¿
à§ģ à¦°
åĽ ŀ
Ġ) ;
à§įà¦ ·
it ar
ÏģÎ¹ Ïĥ
à¦ ¶
al ah
à¦¾à¦ ľ
ĠÐ¿ Ð»
n ost
çī ĩ
j Äħ
Ġm om
Ġ4 3
áĥĶáĥĳ áĥ¡
ĠâĢĿ .
ÃŃ nh
if e
ãĤ «
O T
at iv
u w
Äĥ ng
Ġt el
×ķ× ¢
Ġs ite
×ķ× §
Ġé Ģ
in al
ĠæĪ ĳ
ä¹ ħ
åħ ĥ
à¯įà® µ
ĠØ «
é ¾
Ġà¦ª à¦°
Ø® Ø±
ĠI f
Ä± y
ÑĢ ÐµÐ¼
Ġen d
Ġo der
ç Ī
ë¶ Ģ
à ª
Ġh ay
ĠØ¨ ÙĪØ¯
ĠØ¨ ÙĨ
Ġl ist
ĠØ¢ Ùħ
ang an
ë į
ce pt
od y
4 3
Ùĩ Ø¯
Ġà®ļ à¯Ĩ
ìł ľ
ĠÄĳá» ĥ
à¯ģà® ®
Ġç ľ
æĬ Ģ
Ġund er
ĠÐ ķ
à®² à¯į
ĠD r
Ġm Ã¡
å ¢
Ġl ong
ĠáĥĲáĥ Ľ
ìĥ ģ
Î¿ ÏĤ
Û °
ç« ¯
ĠÙĩ Ø§
áº¿ t
Ġh ow
ĠØ± ÙĪ
j et
ĠØ Ł
ĠM in
Ġn eg
ÅĽ Äĩ
ĠÎ Ŀ
å± ±
Ġl iv
2 1
Ø® Øµ
ĠM er
à¤¿à¤ ¨
Ġìķ Ħ
à±ģà° Ĥà°
ĠØ§ÙĦØª ÙĬ
à¤¾à¤ ¦
ĠÐ ¤
Ġà¦ı à¦ķ
en c
ĠØ§ÙĦ Ø°
Ġâ ĺ
Î¸ Îµ
Ġd ell
o i
Ŀ i
Ġë ı
el er
Ġfir st
or g
ĠN ov
í ĥ
æ į
ĠM od
am s
ra w
v i
Îº Î±
Ùħ Ø©
æĺ İ
ag en
Ġbl og
à¹Ī à¸Ļ
ĠÐ¿ Ð¾Ñģ
à±ģà° ķ
çł ģ
Ġbe i
or o
Ðº Ñĥ
Ã© d
Î¿ Î¹
è¿ Ļ
Ġê¸ °
Ġ= "
Ġg ra
Ð¶ Ðµ
Ġb es
Ġcon st
Øª ÙĬ
ess e
ÏĥÎµÎ¹ ÏĤ
Ġpr ze
id en
ÑĢ Ð¾Ð²
Ġl og
èµ Ħ
ĠØ ¶
ÙĤ ÙĬ
Ġpi Ã¹
è¿ ĩ
u an
à®¾à® Ł
ĠØª Ùħ
ĠP a
Õ¥ Õ
åį ļ
ĠM a
ãĥ £
Ġm ont
ìł Ħ
ĠÎ± ÏĢÎ¿
ãĥ ¡
ĠÐ¸ Ð»Ð¸
Ã¼ m
å± ķ
¶ à¸
un ic
Ã¼ ÅŁ
ģà¸ ±à¸
Ġn ow
à´ ¿
áĥĿáĥ Ĵ
ĠØ¨ Ø¯
à¦¤ à§ĩ
Ġ9 9
at an
ÑĢ Ð¾
ãģ¾ ãģĹãģŁ
at ch
Ùģ Ø±
ë Ł
S T
st er
end er
ÄĻ d
Ġ Å¼e
âĢ¦ âĢ¦
re m
ĠA c
à¯įà® ©
Ġthá» ĥ
åı £
Ġà°ª à±įà°°
Ī à¸²à¸
ãĥ ŀ
ĠÃ ľ
áĥĿáĥ łáĥ
Ġu 0
Ġpe ople
ĠÙĦ Ø§
Ġdes ign
Ð½ Ñı
ĠR o
Ã¼ z
Ġcl ass
Î¹Îº Î®
áĥĵ áĥĲ
à¯ģà®¤ à¯įà®¤
Ġ4 7
çī ¹
ĠC ent
Ð Ŀ
Ġw ell
Ġáĥĵ áĥĲáĥ
ãģ® ãģ§
ib il
áĥĺáĥ ¢
.. .
à¤¤ à¥ĩ
it ies
Ġ íķĺ
ë Ĳ
à¯ģà® Ł
Ġv y
Ġt ar
¡ à¸²
Ġst art
le x
n d
Ġp df
ĠÑį ÑĤÐ¾
Ġæĸ °
ĠM as
Ġv ot
Ġb eg
Ġex per
æī Ģ
ĠM ed
ĠãĢ ĭ
Ġ5 00
Ĺ à°¾
at ive
em os
á»ĳ i
æĦ ı
in iz
å» º
ç¤ ¾
¡ °
s a
èµ° åĬ¿
ĠÐ¾ Ñģ
ÐµÑĤ ÑģÑı
ãģ¨ ãģĦ
ĠG i
Ġ ir
×ķ× Ĺ
áĥĺáĥ Ļ
çľŁ äºº
ro ugh
v ol
æµ ·
ĠØ¨ Ø§Ø´
Ïģ Ïĩ
Ġãģ ĵ
Ġd ia
· à¸Ń
Ġs ign
åı Į
é Ķ
ĠáĥĴ áĥĲáĥĽ
ä½ į
à¹ Ĩ
Ġa o
v al
Ġà¦ ²
f a
Ġres ult
Ġr u
ĠI N
, "
Ġà¦ ¥
ìĥ µ
Ġé ĩ
ĠÙĪ Ø£
ar an
è®¡ åĪĴ
ìł ģ
Ġre qu
Ġun s
Ġìł Ħ
à¸£à¸ ´à¸
Ñİ Ñī
Ġver y
il m
ĠÅ ŀ
æīĭæľº çīĪ
è§ £
à¤¾à¤ ľ
à®² à¯įà®²
å· ŀ
Ġs ho
Ġs ul
è§ Ħ
çĻ ¾
Ġl u
is che
ÙĬ Ø¹
Ġw ie
Ð ļ
ĠØ§ÙĦ ÙĦÙĩ
å¥ ³
Ġwer den
ĠâĢĿ ,
Ã¼ k
uk an
Ġn ec
Ġn el
Ġì ĸ
à°¿à°Ĥà° ļ
Ġ ul
áº ©
ÖĢ Õ
à¹ī à¸Ļà¸
ac iones
Ġal g
ÃŃ ch
åħ ³
Ð°Ð½ Ð¸Ñı
z n
Ã¥ r
å ĸ
ÙĦ ÙĪØ¯
ĠÎ ®
ÏĢ Î±
åº Ĺ
Ġpro t
í ı
ak i
Ð» Ñİ
åħ į
ĠG en
Ġ4 6
Ġs ay
e y
Ð¸ Ñİ
Ñĥ Ðº
Ġâ ĸ
ĠÐ³ Ð¾Ð´
Ġh otel
ç³ »
¥ à¸²à¸
ĠÐ¾ Ð´
£ Â
ãĥ ¥
l ig
×ķ× ¡
Ġë ¬
ĠÙħ Øµ
ãģĦ ãģ¾ãģĻ
åĪ ¶
Ð° Ñĩ
Ġt amb
idad es
ir t
à¦ ļ
ÙĪØ± Ø¯
ĠS er
à¦ Ń
Å¼ y
éķ ¿
ĠØ¬ Ùħ
d Ä±r
Ð ķ
Ð¸ Ð»Ð¸
et a
Ġprobl em
ĠS al
Ġon t
Ġk a
åķ Ĩ
êµ Ń
Ġä¸ į
id os
ĠM o
Ġth u
Ġ à¹Ĥà¸
Ġt est
Æ¡ n
Ġb ag
Ð² ÐµÑĤ
ĠØ§Ø ®
ĠE d
v ert
il a
åĬ ¡
at en
qu ip
ĠÑĢ Ð°Ñģ
Ġbe z
à¤° à¥Ģ
Ġç ļĦ
è ³
Ġfun ction
ĠV ide
ĠØ´ Ø±
Ø§Ùħ Ùĩ
Ġì ļ
ëħ ¸
ĠS up
Ġà®ĩ à®°
Ġå½© ç¥ŀ
id ent
x x
Ã¹ ng
p ro
Ġc li
ìĨ Į
Ġà¤ ¥
Ġre al
at ie
is k
à¤ķ à¥įà¤
Ġna ch
Ġb ul
çĽ ´
ĠA g
ĠÑĤ ÑĢ
Ġkn ow
Õ¸ÖĤ Õ
emb re
Ð ¢
ÙĬ Ø§
Ġb ien
eg en
ļ Į
Ä±n Ä±n
Ġ5 9
Ð°ÑĤ ÐµÐ»ÑĮ
Ġgo od
ãĥ ī
é¾ Ļ
Ġd ay
Ġ5 8
Ġå ¼
Ġin n
Ġs ist
ĠÃ ī
ĠØ£ ÙĪ
Ø¨ Ø¯
uj er
à®Ļ à¯įà®ķ
ĠD i
r am
Ġå ¥
ab a
à¦¨ à§įà¦
ĠØª Ø§
à¤ Ń
R E
éĩ ı
ĠÑĤ Ð¾
Ġì¹ ´
n ia
í ħ
ãĤ µ
Ġc ost
Ġj ug
¡ Â
h en
Ġg ar
ĠÐ §
ĠN h
Ġv Ã½
± à¹īà¸
ot a
êµ ¬
Ã ĥ
è¿ Ĳ
à¦ §
äº Į
Ġ× ¦
æ ¡
Ġvide o
ĠØ¨ Ø¹Ø¯
ch a
ìļ Ķ
Ñģ Ð»
á ł
Ġc el
o ol
Ġáĥ Ŀ
ĠA ut
Ġdal am
Ġà¦¸ à¦®
Ð°Ð» Ð¸
oc i
ĠA v
Ġc am
Ľà¹ĩ à¸Ļà¸
Ġìĭ ľ
Ġ×Ķ× ©
ÅĤ y
éĴ ±
ĠÐ¸ Ð¼
æ¯ Ķ
av a
l ÉĻ
Ġa ir
ĠA M
Ġfil m
Ġpl an
ĠgÃ¶ r
ĠD er
c an
ĠD et
Ã± o
Ġì§ Ģ
ĠØ³ Ø§ÙĦ
4 8
Ġs á»ĳ
Ġc Ã´ng
ra c
ĠP M
op p
7 5
à ²
à®± à¯įà®±
p or
ļ à¸²à¸
ĠN g
in er
k on
ĠS an
´ Ģ
Ć Ĉ
Î¼ ÏĮ
ĠG u
Ġf ree
ĠS i
ä» ĸ
Ġb áº¡n
Ġc m
ĠÂ» .
åİ ¿
Ø§Ø± Ùĩ
ĠÙĨ Ø¸
Ġ5 3
áº ½
à¤² à¥ĩ
ĠÃ¼ ber
ë³ ´
ÑĢÑĥ Ð³
Ġa ff
ãĥ Ĳ
ÄŁ i
id as
ĠO p
ĠB o
ĠSe x
ol i
Ġt ip
Ġï ½
ä¸ İ
Ġm ater
Ĥ à¸Ńà¸ĩà¸
Ġal la
it u
åı ·
ç¨ ĭ
Ð¿ Ð»
r ia
Ġà¦¹ à§Ł
ien e
ĠM on
Ġg eb
Ġdire ct
×Ļ ×Ļ×Ŀ
au x
åĳ ĺ
Ġk i
w ar
é »
á»Ļ i
ĠÎ´ ÎµÎ½
iá»ĩ t
c zy
åı ĸ
à°¾à°° à±ģ
Ð°ÐµÑĤ ÑģÑı
Ġ ðŁ
ci al
ĠA p
å¥ ĸ
âĢĮ ÙĩØ§ÛĮ
a use
v iew
Ġdis c
ĠW eb
ÃŃ s
ĠæĹ ¥
ens e
w ard
ĵ à¸
in n
ÙĨ ÛĮ
Ġc ert
ãĥ ģ
Ø¨ Ùĩ
ÙĤ ÙĦ
ç® ¡
Ġà® Ĵ
éĹ ´
ĠÎµ Î½
h t
à°¨ à°¿
ĠÂ ¿
áĥłáĥ Ĺ
ĠÑĢ Ð°Ð±Ð¾ÑĤ
á» ī
Ú© ÛĮ
áĥĺáĥ ķ
EN T
Ġd it
áĥĶáĥ ¢
Ġv or
Ġper m
ĠÐ² Ð¾Ð·
or um
ich e
×Ļ× ¢
å®¢ æĪ·
Ġd ig
è į
z ia
Ġl ar
ÑĨ Ð¸Ñı
Ġb ed
Ġcon d
à¦¾à¦ ¹
ĠÐ Ń
le ct
ĠN a
Ġí ĺ
z Äħ
Ïĥ Î±
eb ook
I M
é ĵ
Ġ' ,
à¸Ń à¸²à¸
m m
Ġ4 2
Ġw ant
ud i
Ø° Ùĩ
ĠØ§Ø ¹
Ã© c
Ã ĩ
Ġc amp
Ġs ing
Ľ à¸£à¸°à¸
Ġe ven
è ©
Ġ _
ãģĤ ãĤĭ
Ġop er
U N
Ġà¦ ĩ
ìļ ©
Ġb i
Ġà¤µ à¤¿à¤
Ġt al
Ø± Ø³
ĠÎµ Îº
ĠN E
Ġk ter
ĠÎ¿ Î¹
éĩ Į
à§ĩà¦ Ľà§ĩ
Ġtid ak
à¥ĩà¤ ¶
Ä± lÄ±
ect ion
ĠÎ Ĵ
ä½ ¿
Ð¾Ð»ÑĮ ÐºÐ¾
h l
Ġ5 6
ÑĤ Ð¾ÑĢ
og le
b al
j o
Ġcont in
ci as
Ġp at
it ed
Ġ5 4
s zy
Ġdel le
Ġh t
çĽ ¸
à¹ī à¸Ļ
Ġest Ã¡
ĠK ar
æ ¼
Ġtá» «
Ġs ystem
Ġth ese
ÙĬ Øª
à¸Ńà¸ ¢
Ġm á»
Ġn Ãły
Ġl á»
ur g
ÉĻ k
on y
Ġpl ay
Ð¸Ð½ Ð°
æ´ »
ìĹ ħ
ĠØ¯ Ø³Øª
A G
áĥĺáĥ Ľ
æĬ ¥
Ġever y
m ak
Î´ Î¿
åł ´
ĠØ§ÙĦ Ø·
à¸£à¸µ à¸
Ġà¦ «
am es
ĠÏĦÎ¹ ÏĤ
¤ ĳ
ĠØ¯ ÛĮ
elij k
3 8
ç ¦
ant i
½ľ ê±¸
à¤¤ à¥Ģ
äº ¤
ĠÏĥÏħ Î½
Ù ĭ
Ġdi es
Ġ ÅĽ
Ġ/ /
à¤ Ī
Ġdo or
Ø¬ Ùħ
Ø¹ ÙĦ
ĠS c
ĠS te
ĠÙĤ Ø±
Î¼ Î¬
Ã¤ t
à§ ¦
Ð¸ Ð±
Ġ$ (
Ġs z
f ore
Ïģ Ïİ
Ïģ ÎŃ
æĦ Ł
åħ¬ åı¸
ÄĽ t
Ġ... .
p ut
Ġhá» į
Ġæ µ
Ġà¤¸ à¤Ĥ
Ġs ont
ĠR ed
Ã¼ t
l ad
Ã¡ p
b le
ÑĢ Ñĭ
ĠØ§Ø ¨
Ġinv est
ub e
Ġå ¾
w are
ter s
à°° à±įà°
ro v
ĠM ay
ĠP ara
ÙĪ Ø§
Ġ× ĺ
Ġv a
Ġ íķľ
Ġà° ¬
en cia
Ġar r
ut ion
Ø¯ ÙĬ
Ġë ĵ
ill a
p k
Ġsu a
ĠE urop
g l
it es
áĥķ áĥĺáĥ¡
éĸ ĵ
ĠØª ÙĨ
u is
ĠUn ivers
æ¬ ¡
ë© ´
ĠE sp
à¥ ī
×ķ× ŀ
å Ļ
at ure
Äĥ m
Ð½ Ð¾Ð²
á ½
Ġæ Ń
Ġpro cess
ç ±
éĻ ¢
é ©
ĠC as
ar ch
è ¢
ĠÎŃ Ïĩ
iy e
èµ°åĬ¿ åĽ¾
ł à¸²à¸
ãĥ ĭ
å½ ĵ
³ Û
ÙĨØ¯ Ùĩ
ĠI I
å ŀ
m es
Ġáĥ ¢
Ã¡ ng
Ġa kan
ĠP ort
ĠÑģ Ð¼
li j
Ġc er
ÏĢ Îµ
ĠÙĦ Ùħ
h ing
áĥĶáĥ Ĵ
Ġp ublic
Ġí Ļ
Ġà° ¦
Ġr ight
ĠA pp
Ð³ Ð¾
ob il
h or
ëı Ļ
§à¸ ´à¸
pl y
Ġb isa
ĠO b
Ġ×Ķ ×ª
à¥ Į
Ġ( "
ik i
Ġt wo
Ġà§ ¨
ì Īĺ
Ġl i
ĠÎ± Î½Î±
Ġd ar
æĹ Ĺ
Ġìł ľ
ãģ Ŀ
Ġ5 7
Ġt im
Ø´ Ø±
h al
ĠìĿ ´ë
g io
el en
Ġre aliz
í Ħ
ch er
Ġp al
ĠÎ¼ ÎŃ
Ġà° ĩ
ÏĦ Î¯
Ġd est
Ã¼r k
Ġâ Ļ
ĠÑģ ÑĢ
ed a
und o
áĥĶáĥļ áĥĺ
ĠØ¯ Ø§Ø±
ĠÐ° Ð²
ap a
Ġtr ad
Ġo lar
ĠM ad
Ġ200 7
æĶ ¿
ĠH a
çĿ Ģ
ãģ °
Ġg iá»
è· ¯
ĠAn da
ie f
Ø§Ø± Ø©
¨ à¸
èĢ ĥ
Ġkh i
ĠC an
Ð°Ð¹ ÑĤ
Ġâ Ĺ
ĠØ¯Ø§ÙĨ ÙĦÙĪØ¯
áĥ ¨
ur t
I ON
u el
ĠÑģ Ð°Ð¼
à¤¾à¤ ļ
3 6
Ġpr im
Øª Øµ
Ïĥ Î¹
p g
ĠH ome
Ð¾ÑĢ ÑĤ
ĠáĥĴ áĥĲáĥľ
ãģĦ ãģŁ
ĥ n
Ġ×ŀ× ©
ĠÐ½ Ð¾
ç ģ
ĠÙĩ Ø°Ø§
à¹īà¸ §à¸
ell en
h i
à®³ à¯į
v ar
Ð¸ Ð³
ìĬ µ
Ġê² ĥ
ir i
Ġh ome
ut t
Ġt it
ow y
ĠØ§ÙĦ ÙĪ
Ġan che
à¸² à¸Ļà¸
er m
ac i
×Ĺ ×¨
ÏĦÎ± Î½
Ġart ic
Ġb is
á»ĳ c
Ġse e
c u
ĠE t
áĥĲáĥ Ĵ
ãĥ¼ ãĤ¹
ĠÄĳ áº¿n
mi ÅŁ
e z
Ã¼ l
Ġ×Ķ× Ĺ
ãĤĪ ãģĨ
Ġs ab
ãĤ ¦
Ġaf ter
Ñ į
¶ Ķ
áĥĺáĥ Ŀ
Ġman y
Ġch ar
ĠC or
Ġç »
ĠS a
áĥĺ áĥĲáĥľ
Ġ×ŀ ×Ķ
Ġà¸ ª
3 65
Ġp ou
è¯ ´
ĠÅ¾ e
re g
m y
æł ¼
Ð´ ÐµÐ»
Ġcol or
ic z
Ġt an
ëĭ Ī
å®¢æĪ· ç«¯
Ġ×ĳ ×Ĳ
Ġre f
i ÄĻ
ï¼Į ãĢĳãĢĲ
áĥ ŀ
ĠÐ± ÑĥÐ´
c er
èµ ·
Ġà¦ ĸ
9 5
æ ¨
ÙĪ Øª
Ġpor no
Ì ģ
ĠÎ Ļ
à§ ĥ
Ġvá» ģ
è ¥¿
ĠØ§ÛĮ Ø±Ø§ÙĨ
Ġm ad
Ġg Ã¼n
ç ĥ
ãģ« ãģª
Ġth rough
ãĥ¼ãĥ «
à¹ĥà¸ Ĭ
ãģķ ãĤĮ
ĠÚ© Ø´
Ø§Ùħ ÙĦ
æ° Ĺ
æĮ ģ
à§ Ĥ
ì§Ģ ëħ¸
ãģ¨ãģĦ ãģĨ
Ø¯ Ø©
j or
×ķ× ¦
Ġp an
Ġ7 5
à´¿ à´
Ã¦ r
Ġè¿ Ļ
á»© c
Ġest a
Ġk am
ĠP art
åħį è´¹
am ent
ĠB el
² à±ĭ
Ġl im
Ġde g
ay an
Ġb ah
os p
Ġs ou
áĥ ¦
Ġà¤Ń à¥Ģ
è¦ ĭ
Ġd in
áºŃ p
Ġe vent
Å© ng
Ķà¸ ´à¸
Ġh um
ag a
Ð» Ð¾
Ġp ok
ĠOn line
Ġà° ī
Ġìł ķ
Ã¡ i
iáº¿ n
Ġt re
Ġo ok
ãĥ ĸ
çĦ ¡
ĠM il
ĠØª Øµ
ĠÐ» Ñİ
Ġbo ok
Ġ×ķ ×Ķ
I R
an z
à ¬
st and
Ġp ada
ement s
Ġf amil
à®¿à® µ
ĠÑģ Ðº
ar n
Ġè Ģ
ĠãĢĳãĢĲ ï¼ĮãĢĳãĢĲ
Ġw ay
om en
om o
end a
à§ĩà¦ ĩ
Ã© ho
Ġk r
au f
Ġà¦Ĩ à¦®
ĠÑģÐ² Ð¾
Ġpar te
à¯ģà® ±
çŁ ¥
ĠAs s
Î Ľ
Ã Ħ
Ġìĺ ¤
Ġà° Ĺ
ĠÃ Ĺ
Ġorgan iz
à¦Ł à¦¿
áĥĺáĥ ļáĥĺ
Ø± Ø¶
Ġà¤ķ à¤¿
ãĥ ĩ
ĠA z
çİ ©
ĠÙĥ Ø§ÙĨ
Ġn orm
Î»Î¿ Î³
ĠlÃł m
ĠØ§ÙĨ Øª
Ġd ass
Ġëª ¨
Ġprof ess
ãģĤ ãĤĬ
Ð¾ÑģÑĤ Ð°Ð²
Ħà¸ ¸à¸
Ġç Ļ
Ġsh ow
Ġs ent
Ġre d
æ¥ Ń
ĠÑĥ Ñĩ
Ð¾Ñģ Ñģ
æķ Ļ
Ġg ia
ĠÙĪ ÙĤ
u le
9 8
Ñĥ Ñī
Î ł
Ġb al
Ùĥ Ø±
áĥ £
è§ Ĥ
ë ¹Ħ
ĠV al
×Ļ× ĺ
Ġ4 1
ÉĻ y
Ġw id
ãĤ Ń
con om
Ø² ÛĮ
ĠÎ ¹
Ñ Ĭ
é Ł
Ġs es
Ġcom pr
à¤¸ à¥ĩ
Ġ á»Ł
k ing
Ġol an
Ġper f
º «
Ġk un
ond er
Ġ! !
ìĺ ¤
Ġì Ĩ
ĠIn st
p x
è® ¾
à±įà° ª
it or
ÙĦ Ø§ÙĦ
ast a
s ite
Ã ģ
×ķ× Ĵ
Ð° ÑĨÐ¸Ð¸
å ²
h od
Ġáĥ ª
Ã ľ
Ñģ Ð»Ð¸
ert a
um p
h ip
ÏĨ Î¿
Ġ ~
le y
ĠÐ¾ Ð½
ĠS erv
¹ Û
ì °
åį Ĺ
é ª
Ġå Ĩ
à¤¨ à¥Ģ
Ġor ig
Ø¯ Ø±
Ġb on
ĠÐ´ Ð¾
y g
áº¥ y
Ġinter n
ĠØ³ Ø±
om a
×© ×¨
Ġ ć
áĥĲáĥ ĺ
ãĤ į
ar ia
à°¨ à±įà°¨
ãģĦ ãģ¦
Ġg ib
ï¿½ï¿½ ï¿½ï¿½
à¦¾à¦ ª
Ġ Ø§
åı Ĭ
4 6
è »
Ġyear s
Ġf re
Ġà®ª à¯ĭ
Ġht ml
Ð°Ð½ Ð¸Ðµ
Ġm ov
id s
×Ļ× ŀ
Ġ( '
åįķ åıĮ
Ġc áº£
ĠØ§ÙĦ Ø«
ele f
Ġt áº¡i
ÃŃ c
C H
r ess
ĠÎµÏĢ Î¹
Ġëĭ ¤
Ã± os
ert o
ĠJ an
is mo
Ð°Ð½ Ð¾Ð²
ĠÂ» ,
çº §
e j
Ġb re
ost a
Ġw p
emp re
å° Ĩ
Ġper o
is c
end en
Î´ Î±
ĠE in
Ð¾ÑĤ ÑĢ
Ðº ÑĤ
à¸Ń à¸£
Ġ. "
ag s
Ġn eb
ĠH ar
à¹ĥà¸« à¹īà¸
æľ į
Ġik ke
Ð°Ð» Ð°
æ ·
à®¾à®° à¯į
Ð¼ Ð¸
Ä±n dan
Ø§Ø± ÙĬ
ĠO s
l ing
ëĵ ľ
Ġr est
Ġto ut
å° ĳ
Ġpr iv
Ġol du
Ġpr inci
om p
Ġ5 2
åį ģ
è£ ħ
Ġw el
w ay
ĠÃ¶ n
áĥĺáĥ £áĥ
ot s
Ġà¦ Ľ
Ã§ o
ĠÙĩ ÙĪ
Ùģ ÙĬ
áĥļ áĥĺáĥ¡
ĠJ ul
Ġà¤² à¤¿à¤ı
áĥĲáĥ ¨áĥĺ
åĻ ¨
ĠD on
re en
æĴ Ń
è Ń
é ł
Ġte chn
al th
à¤¿à¤ Ĥ
×Ļ× ¤
is chen
Ġà®ħ à®µ
Ðº Ðµ
Ġa kt
Ø® Øª
Ġg reat
ind en
Î· ÏĤ
Ø§Ø± Ø§Øª
Ġt ur
esta ur
Ïĥ ÏĦÎµ
I G
« à¸Ļ
ìĿ´ íĬ¸
Ġç §
Ġch i
Î»Î» Î¬
×ł ×ķ
Ã¡ d
Ã «
f or
Ġwh ere
íĦ °
ç« ĭ
ĠD as
à®¾à®© à¯į
éĢ ģ
Ġwir d
à®© à¯įà®±
Ġv el
ÉĻ h
ag er
áº ±
à®¿à®¤ à¯įà®¤
ul o
ÑĤ Ð¾Ð¼
ian o
Ġå ¯
Ġáĥ §
ĠN am
æµ ģ
Ġs áº½
à¯ģà® ³
Ġwe ek
Ġn Ã³
Ġst a
ÏĦ ÎŃ
à§įà¦ ª
U L
ãĤ ¸
ĠÂ ²
è¨ Ģ
ÉĻ m
Ġd id
ģ à¹Ģà¸
c m
Ġp ow
mas Ä±
im iz
Ġ×Ķ× ¢
Ð¾Ð»ÑĮ ÑĪ
Ġgi Ã¡
Ġ3 00
ĠÐ¾ Ð¿
w it
ĠÛ ²
Ġincl ud
Ġexper ien
Æ ı
ÐµÐ» Ñı
Ġbec ause
à®¾à®² à¯į
ĠÃ ª
Ġsu ch
ĠM al
æº Ĳ
Ġag çİ¯äºļ
e e
ĠÙħ Ø·
Ġmar ket
ãĥ³ãĤ °
Ġesp ec
Ã ĸ
Ġp un
Ġh ier
×Ļ× ¡
ÑģÑĤÐ² ÐµÐ½
Ġvide os
ãģ ĺ
Ġat au
Ãª u
Ġau x
Ġvot re
ãģ Ķ
Ġor g
Ġd á»¥
I n
à° Ĺ
à§įà¦ ¥
à¹ī à¸Ńà¸ĩà¸
Ġco uld
ĠÙĪ Ùħ
ĠA mer
Ã į
Īà¸ °à¸
in ter
Ġth en
ĠãĤ ¹
Ġact iv
Ã ®
à¥įà¤ ¹
o j
Ġç Ľ
ĠS u
ra k
áĥĲáĥ Ļ
Ġk ont
Ø³ ÙĬ
Ð½ ÑĥÑİ
Ġmin ut
ÑģÐº Ð¸Ð¹
à¹Ħà¸¡ à¹Īà¸
ch i
ê ·
Ġh eb
20 19
Ã© es
Øµ ÙĦ
Ġsup er
ou d
ik k
ÉĻ d
è Ħ
á» ģ
Ø§Ø «
Ð¾Ð»ÑĮ Ð·
ĠE ng
ĠC al
ÛĮ Ùĩ
T A
Ġà¤ Ł
Ġz um
Îµ Î»
Ġf oll
ad er
ov a
æ ®
am in
Ł à¸
Ġáĥŀ áĥł
und a
ĠÄĳ Ã³
Ġbus iness
æİ ¥
Îµ ÏĦÎ±Î¹
Î ľ
oh n
ur ch
ÏĢ Î¿Ïħ
Ġnh Ãł
Ġ6 5
×Ļ× Ľ
Ġsho uld
ant a
Ġpl ace
en z
Ġen g
Ã² ng
ļà¸Ńà¸ ¥
äº ī
Ġsh e
ãĥ §
ëĤ ¨
Ġst and
ch o
èµ Į
ĠS el
ÏĦÎ¹Îº ÏĮ
un u
ĠM et
ĠÐ· Ð°Ðº
Ġm Ãł
ust om
Ġ×ĳ ×¢
ĠÐ²Ñģ Ðµ
az ioni
ãĥ ł
ç ¬¬
Ġz o
à¹Ħà¸Ķ à¹īà¸
is m
j em
y k
y cz
ç¤ º
Ġein en
ne j
Ã¼ y
vel op
Ġà¦¬ à¦²
Ġà¤ ¡
ĠØ§Ø ¬
Ġ×© ×Ķ
Ġà¦ Ł
st en
Ġb ek
Ġà¤¸ à¤®
c ent
à¦¿à§Ł à§ĩ
Ġì Ĭ
ÑĢ Ð°Ð·
ĠìĿ ¸
Ġk ur
Î¼Î± ÏĦÎ±
ĠÙĥ ÙĦ
ut as
±à¸ ģà¸
Ø§ÛĮ Øª
æĹ ł
Ġc zy
ĠÙĪ ÛĮ
Ġb ud
r ent
Ġ! !!
Ġ( )
Ġà¦ħ à¦¨
í ļĮ
×ľ ×Ķ
ĠØ§Ø Ń
Ġh ac
Ð Ĵ
Ġinform ation
Ġ- -
Ġd la
Ġb in
---- ----
ĠR ec
à¤ķ à¥ĩ
iv id
Ġc Å©ng
IN G
Ġáĥĺ áĥ¡
ÐµÑģ Ñģ
Ġi h
æ Ĥ
Ð¾ Ñı
ra z
Ġt ab
ac a
åĲ Ĺ
Ġï¿½ï¿½ï¿½ ï¿½
ÑģÐº Ð¾Ð¹
Ġà° İ
Ġk ann
Ġ5 1
Ġ19 8
à¤¹ à¥ĩ
Ġc ou
Ĥ à¸Ńà¸ĩ
×¤ ×¨
Ú© Øª
ĠM ag
æĢ İ
min ist
Ġt ek
à¸Ļ à¸²à¸
Ġà§ §à§
Îº Î¿
×Ļ ×ķ
Ġno us
Äĥ n
Ġå Ĭ
à°ķ à±įà°
ìĹ ¬
Ħà¸§à¸²à¸ ¡à¸
ç ĭ
Ġp ay
Ñĥ Ð½
Â º
Ġà®ķ à¯Ĭ
ĠØ® ÙĪ
al an
Ġit u
íķĺ ëĬĶ
å¸ ĥ
Ġim m
à°¾à° ¯
k in
à¯ģà® ¨à¯įà®¤
Ġn atur
Ġìŀ Ĳ
ÙĦ ÙĪ
Â »
Ùĳ Ùİ
Ġpr ost
Ã´ n
Ġy er
çĦ ¶
y on
à¦¿à¦ ¬
Ġf az
i as
ĠØ§ÙĦ ÙĬ
Ġ Ø§ÙĬ
ãģ§ ãģį
if t
Ġan al
Ġsit u
ĠH et
Ġsa id
Ġr ic
Ġ9 5
ad ores
ie g
Ġfal se
r id
Ġv oc
ĠÎŃ Î½Î±
à¦ ¯à¦¼
ĠãĤ ¢
e ft
ķà¸ ±à¸
Ġh Ãłng
Î ¥
Ġçľ Ł
um b
Ġk ap
Ø§ÙĨ ÙĬ
Ã¢ m
ro om
Î¼ Î²
Ø¨ Ø©
Ġm ol
ÐµÐ» Ð¸
à¸£à¸±à¸ ļà¸
Î¹Îº Î¬
ig er
Ġà° ľ
Ø´ ÙĨ
ĠÐ´ Ð²
Ġa z
ë ¯¸
4 9
ÃŃ st
ĠÄĳá» ĭ
ir m
Ġè ĩ
Ġc all
ind i
ìĽ Ķ
Ġv ari
åİ »
ãĤ »
ĠÐ¿ Ð¾Ðº
à¦ ¥
Ġà¸ Ħ
à¥ģ à¤°
¦ à°¿
ru ct
lÄ± k
ind ows
ĠåĮ Ĺäº¬
ĠvÃł o
Ġ) :
ãĤ °
Ġserv ice
æĶ ¾
l os
L E
al Ä±
ãĥ¼ãĥ Ī
ÏĦÎ¹Îº Î®
Ø¹ Ùĩ
ĠÙĪ Ùĩ
U T
ri end
ãĥ Ł
Îº ÏĮ
Ġm ill
ç§ ĳ
ig o
ĠF ac
sk i
ÐµÑĢ Ð¶
4 7
« à¸Ļà¸
n ess
ĠA pr
Ġte xt
Ùĥ ÙĦ
ĠD a
§ à¹Īà¸²
áº «
Ø§ÛĮ Ø¯
ĠL os
ĠS ep
à¤¹à¥Ģ à¤Ĥ
ĠD u
×ŀ ×Ķ
ĠÏĮ ÏĦÎ¹
ÏĦÎ¿ ÏĤ
ass e
A B
ĠIt al
í Į
l in
ig li
Ġà¤Ĩ à¤ª
Ø¨ Øª
Ġ×ĳ ×ŀ×
à§ĩà¦ Ľ
ç² ¾
×ķ× Ľ
Ġp om
Î· Î½
è º«
Ġpres ent
è ĥ
Ġ Ø§ÙĤ
Ø§ÛĮ Ø´
à°Ĥà° Ł
ĠA G
ier en
£Â ¬
ĠØ§Ø ª
n is
Ġc our
Ġa pr
à¹Īà¸ ĩ
cri pt
l em
ĠA us
èĪ °
ĠãĢ Ĭ
ĠØ¯ ÙĪ
Ð Ł
ĠZ e
ÑĨÐ¸ Ð¾Ð½
ãģ§ ãģ¯
3 9
ìĬµ ëĭĪëĭ¤
Ġre ce
Ġs n
à±ģà°¨ à±įà°¨
Ġnh iá»ģu
ì ½ľê±¸
Ġno ch
ir s
áĥ£áĥł áĥĺ
Ġì °
Ã ĵ
ĠØª ÙĤ
ĠÐ¸ Ð³
ĠO l
er ing
ÑģÑĤÐ² Ð°
Ġra p
ĠA N
×ľ ×Ĳ
è ±
ãĤ §
Ġà°ļ à±ĩà°
à¤ ı
à¸µà¸ ¢à¸
Ġl ast
Ġit em
Ġtr Ãªn
åĲ ĳ
Ġl áº¡i
Ġ×Ļ ×©
og raf
t r
Ġê² ½
Î ©
ãĥ³ ãĥĪ
×ł ×Ķ
ÙĬ Ø²
Ġæ ŀ
Ġjug a
Å¡ t
ĠØ± ÙĪØ²
ãĤ ¨
Ġolar ak
å¸ ¸
Ġad alah
à¯Īà® ķ
Ð¸ÑĢ Ð¾Ð²
ãģ Ń
ÙĬ Ø§Øª
ĠG rat
ç» ĵ
áº· t
Ġm ade
Ø§ÙĦ Ùħ
ik t
et en
ĠD ec
ãĤ ª
Ġo wn
3 7
ĠáĥĽ áĥĿáĥ
ĠL o
áĥĶáĥ ¥
áĥĲáĥ ļáĥĺ
Ðº Ð¾Ð²
Ġf ut
Ġa Ã§
ĠÙĪ Ø¨
Ġgr and
Ġâ Ħ
çķ Į
áĥĽ áĥĲ
ud ah
Ġe k
Ġp eng
å®ĺæĸ¹ ç½ĳç«Ļ
Ġs il
áº »
Ġáĥ ļ
åŀ ĭ
ĠÐµ Ð³Ð¾
iy or
Ð» Ðµ
á»ĳ ng
ÑģÑĤ Ð°Ð²
Ð» Ð°
z d
Ġl eb
y i
ìĭ ł
éĻ Ĳ
6 9
ĠD an
Ġcont ent
à°¿à° ¤
à¯ģà®ķà¯įà®ķ à¯ģ
ra ct
Ġå ·
ľà¸ ¹
Ġs ang
ĠS on
Ġdiff er
ac ional
Ġaut om
à¥įà¤ ®
c is
ed ia
à¤¡ à¤¼
ind ÉĻ
à¹Īà¸ §à¸
ĠØ¬ Ùĩ
ç ı
at her
ķ à¹Ī
Ġì ²
Ġprinci p
å¼Ģ æĪ·
ĠT Ã¼rk
app ä¸ĭè½½
Ġto do
Ġ äºº
Ġí ı
Ľ Ħ
à±įà° µ
è¶ ³
c ol
Ġpro duk
ÑĥÐ» ÑĮ
è¿ ĳ
Ø³Øª Ø§ÙĨ
ĠN ot
Ð¸ ÐµÐ¼
ĠB ut
Ġg est
áĥĺáĥ łáĥ
Ùĭ Ø§
Ġg j
å¤ ĩ
ĠP al
Ġmod el
Ġsup port
æĽ ´
I V
d Ä±
O D
ÏĦÎ± ÏĤ
ªà¸ ¸à¸
Ġh ere
ĠÐ¿ Ð¾Ð¼
Ġde ÄŁ
Ġ×Ľ ×ľ
Ð¾ ÑĪ
b or
Ð¾Ð± Ñĭ
§ à¹Īà¸²à¸
b el
iz z
Ġinter net
Ġä» Ĭ
ãģķ ãĤĵ
ĠÎ §
Ġb it
Ġc le
áĥĶáĥĳ áĥ£áĥļáĥĺ
Ġa qu
ĠNE W
Ġt om
Ġan s
il s
Ð» Ð°Ð´
Ø´ Ø§Ø±
Ã© l
é¢ ĺ
Ġà¤ħ à¤ª
in as
Ġg li
Ġ×Ķ ×¨
ĠT V
Ć ć
ä¸ ĸ
iel e
à¦¬ à§ĩ
ĠØ³ ÛĮ
Ġp ap
Ġ. )
Î» ÎŃ
å¼Ģ å¥ĸ
Û ķ
pk 10
Ġc ir
å± Ģ
a Ã±
æ ¢
g es
O P
Ġà¦ķà¦° à§ĩ
Ð¸ÑĤ Ðµ
æĪ ĺ
ä¸ ľ
íħ Ķ
áº¥ p
Ñĥ ÑĪ
Ġm ult
Ġbe fore
ĠA ir
Ùĥ ÙĪÙĨ
Ġop en
à¦¿à¦ ¸
ĠM us
ĠãĢ ı
Ġl at
i i
Ġk ol
Ġn am
Ġl ine
æ »
ÙĪ Ø¬
èĢ ģ
6 7
Ùħ ÛĮ
Ø§Ø¯ ÛĮ
éĢ ī
áº ¹
Ġpo int
ĠÎº Î¬
Ġtak e
à¤² à¤¾
ĠD en
à¸Ń à¸Ļà¸
Ġz d
à¦ķ à§ĩ
Ã¡ nÃŃ
ah an
Ġwor ld
p ert
ØŃ Ø©
Ġter m
ĠS P
Ġà¸ Ĺà¸
Ġè ¯
ij d
ĠM en
Ġë³ ´
ķà¸ ´à¸
¸ à±įà°¤
ä½ ķ
æĹĹ èĪ°
ĠM art
ĠS T
à¦ ĸ
Ġì £¼
Ġan n
ĠØ´ ÙĪØ¯
Ġpol it
av or
ĠK on
áĥĶáĥĳ áĥĺáĥĹ
Ãł o
¡ à¹Ģà¸
Ġà®İà®© à¯įà®±
Ġ; &
pl ay
it os
Ġtod os
ĠÐ¿ÑĢ Ð°Ð²
f ort
as on
Ġd ol
ĠÄĳ áº§u
æĥ ³
iá»ĩ c
Ùħ Ø§ÙĦ
Ãª m
Ġna ar
çĽ Ł
Ġå ¿
Ġ8 5
Ġn av
Ġp es
Ġë° Ķ
ĠÐ± ÐµÐ·
Ã Ĳ
ì ĻĢ
Ġãģ Ĭ
å®¶ ä¹Ĳ
Ġpro d
f ic
Ġst at
Î» Î¬
ÎŁÎ ¥
ÉĻ b
à¤² à¥Ģ
ãĥ ĳ
ëħ Ħ
Ġo c
r Ã³
Ø§Ø ©
àµ ģ
Ð¾Ð» Ð½
«à¸ ¥à¸
ĠI B
ÑĤ ÑĮ
ãģ« ãģ¯
Ïį Î½
Ġein er
o o
Ļ à§įà¦
co unt
à®¾à® µ
Ġt in
æĢ »
Ġv iew
à¥ĭ à¤Ĺ
ial e
áº£ o
i em
n Ã½
Ġl l
ÑģÑĤ ÑĢ
ģ à¹ĩà¸
t y
Ġk Ã¶n
¡ à±ģ
Øª Ø§Ø¨
ª à¸²à¸
Ġ200 6
s z
Ġb an
Ġp et
åĭ ķ
C I
à¹Ī à¸Ļà¸
ìĤ¬ ì§Ģ
ĠU m
Ïĥ Î¿
s h
Ġde velop
b ay
Ġna j
ĠÐ¿ÑĢ Ð¾Ð´
ĠÏĢ Î¿Î»
e h
ÛĮ Ú©
Ġh or
ĠØŃ Ø§ÙĦ
Ġà®ħ à®¤
u v
ov Ã©
Ð» ÐµÐ½Ð¸Ñı
ĠÐ² Ð¸Ð´
Ġk ad
æ¬ ¾
ind a
Ġg a
Ġ×Ķ× ŀ
Ġf ar
è Ļ
Ð¾ÑĢ Ð¾Ð´
ĠD el
ç ¼
ĠÐ½ Ð¾Ð²
Î» Î®
ell es
Ð¸ÑĢ Ð¾Ð²Ð°Ð½
Ãªn cia
âĢ į
ĠA f
Ġn ur
Ġsol o
áĥĶáĥľ áĥ¢
Ġon der
ìĸ ĳ
à¸² à¸£
ĠG l
ÙĨ Ùĩ
P art
ĠÎµ Î¾
Ġå Ń
Ġm m
ĠØ¨ ÙĬÙĨ
ĠM y
ĠÙĪ Ø¬
Ïĥ ÏĦ
Ã ī
d ir
ac ji
ĠK h
Ġz ur
áĥ£áĥ łáĥ
Ġus ed
ä¼ ģ
Ġáĥ¡ áĥĲáĥĽ
à¸Ļà¸µ à¹ī
ĠC H
at al
ĠB us
ĠGo ogle
f o
f l
= =
¥à¸ °
id es
all a
ri p
as an
oc o
Ġd aha
iy y
Ġd apat
´ à¸Ļ
ĠÐ² ÑĢÐµÐ¼
g est
Ïĩ Îµ
ro d
ĠS k
Ġ×ŀ× Ĳ
Î± Ïģ
Ġæľ ī
Ġs ens
áĥĲáĥ ¨
Ġsu c
à¤ ĸ
Äį nÃŃ
ay Ä±
Ġch á»ī
áĥ® áĥķ
ĠÐ¾ ÑĢ
Ġmen j
Ġd im
à§ĩà¦ ĸ
à¦ ĵ
ud a
áĥĲáĥ ĸ
uj Äħ
Ãº ng
à°Ĥà° ¤
Ġ Ö
c ion
à¤Ĥ à¤¤
R A
ÙĪ Ùģ
ĠÙĩ Ø°Ùĩ
ap t
\ "
Ġs á»±
áĥĲáĥ ¥
Ġn ull
ÎµÎ¹ Î±
Ġg ew
Î¿Ïħ Î¼Îµ
ost en
iz i
Ġå¤ ©
ĠÂ ³
ĠåĽ ½
il y
ĠØ± Ø³
ĠR ep
¡ à¸µ
Ġê³ ł
al d
ĠØª Ø¬
Ġb á»ĭ
Ġam p
Ġ. âĢĿ
å ĥ
ĠpÅĻ ÃŃ
Ġ×Ķ× ĳ
Ä ©
Ñı Ð·
ç ĸ
ĠS ol
Ã Ĭ
ĠÄĳá» ĵ
ers on
Ġein em
um e
Ø§Ø¯ Ø©
ç ·
Ġà¤¸ à¤¾à¤
ĠAn t
Ķ à¹Ģà¸
ĠØ§Ø µ
Ġp ens
ĠØ§Ø ¯
èµĽ è½¦
Ġm ass
Ġà®ļà¯Ĩ à®¯
æĬķ æ³¨
Ġc ult
ain t
ĠëĤ ĺ
Ġp le
Ø³ Ø±
åİ Ł
Ġnh áº¥t
est o
ģ éĢŁ
ĠV ol
Ø§Ùĩ Ø¯
Ð¾Ð¿ ÑĢ
äº Ķ
ä¾ Ľ
à¹ ģ
Ġæ °
× £
s en
ë¬ ¸
Î¬ Î»
ĠØ§ÙĦÙħ Øª
åŁ º
æ ©
s er
iv al
Ġd ÉĻ
Ġæľ Ģ
ç ¶
Ġty pe
ĠD om
Ġd op
è ĳ
à¹Ħà¸¡ à¹Ī
ÙĬØ± Ø©
Ø· Ø©
ÙĨ Ø©
Ø± Ø§Øª
ĠS m
Ľ à¸£à¸
ĠT op
à¯įà® ®
Ð°Ñģ Ñģ
Ġfor ma
r ie
Ð¾ÑģÑĤ Ð¸
3 4
........ ........
à¥įà¤° à¥Ģ
à¤ķà¥įà¤ ·
Ġof fer
ÎŃ Ïģ
à¸Ļ à¹Į
Ġn Äĥm
Ġà°µ à°¿à°
à¸£ à¸£à¸
Ã¡ rio
Ġè µ
à¸£à¸±à¸ ļ
est er
Ïģ Î®
Ġå ¸
ĠÎ Ľ
ĠÄ Į
áĥ ĸáĥĶ
è¢ «
åħ ĭ
é¡ µ
ä» »
ĠI D
Ġ×¢ ×Ŀ
Ġæ Ĭ
ĠÎ ¦
ĠÐ¸ ÑģÐ¿
åħ Ī
µ ľ
Ġjak o
ĠÛ±Û ³Û
à®¾à® ¯
iv es
Ġn ap
a it
ĠØ¨ ÛĮ
la ÅŁ
ĠÂ ´
Ġsec ond
is er
s c
I P
é¦ ĸ
ĠÐ ¥
3 2
à´ ¾
à¥įà¤ ¥
ort h
Ġla v
Ġma in
Ġd ir
em en
in en
Ġà¤¨ à¤¹à¥Ģà¤Ĥ
ĠO ff
Ġ Ô
æĢİ ä¹Ī
Ġind ust
Å º
Ġl ife
st r
à¤¾à¤° à¥Ģ
ĠØ§ÙĦ ÙĦ
ÙĤ ÛĮ
à¸² à¸Ļ
à¥įà¤ ²
æ¸ ħ
åı Ĺ
ÏĦÎ¹Îº Î¬
Ġà¸ ŀ
Ġt am
ĠIn form
ĠØ¨ ÙĦ
à° ļ
Ú© Ùĩ
u ar
Ġe quip
Ġh iá»ĩn
ĠÃ¶ z
ob ile
Ġin de
ĠTh ere
ĠÄĳá»Ļ ng
Ġ Å¡
Ġg ir
Ġer a
ìķ ¼
ä¸Ń åĽ½
ett i
Ġdá»¥ ng
ĠK om
ÙĨ Ø¬
ĠB y
Ġ8 8
un i
Ġl ig
m Ä±ÅŁ
áĥĶáĥ Ŀ
ä» ĺ
å¸ Ī
ĠÎµ Î¯
ãĥ Ĭ
ÙĪ Ùĩ
Ġl ink
ĠPro f
ĠÐ¼Ð¾Ð¶ Ð½Ð¾
Ø« Ø±
ag ement
ĠØµ ÙĪØ±
Ġb ak
ì§ Ħ
ĠÐ¼Ð¾Ð¶ ÐµÑĤ
Ð» Ð°Ð²
Ġë ²
Ġ ãģ¨
ĠØ³ ÙĬ
ut a
Ĺà¸ ¢
Ġve z
à¦¨ à§įà¦¤
ra ph
Ġab er
Ġco unt
Ġm ÄĽ
Ġè ®
Ġn ad
Ġex pl
ĠÐ´ ÑĢÑĥÐ³
Õ¸ Õ
Ã³ r
Ġcom ment
omb re
il t
ĠÛĮ Ø§
ujer es
áĥĺáĥ ĸ
Ġb ene
ĠO d
Ġs ett
Ġp m
Î¼ Î·
1 00
iel d
Ġd ivers
i ent
æ ¹
Æ°á»£ ng
ÙĪ ÙĬ
ĠìĹ ¬
Ġe ach
Ĺ à¸²à¸
å Ħ
Ġê ±
Ġjed n
Ġé Ŀ
Ġz Ã¡
ĠØ§ÙĦØ° ÙĬ
Ġng Ãły
ĠC ons
Å¡ e
æ± Ĥ
ac y
ĠÎ ĺ
Ġweb site
c om
j er
Ãº c
el n
Ġì ¤ĳ
Ġch ild
áº¯ c
Ġà¤ ĺ
Ġz ap
å§ Ķ
Ã² n
Ġy aÅŁ
Ġo cc
Ġac cess
ĠìĿ ¼
ĠÃ§ ok
ê³ Ħ
Ġol m
Ġa ch
eb ut
g in
ê° Ħ
Ġword en
Ø¨ ÛĮ
à¸Ńà¸ ¢à¸
ĠF re
Ġà¦ľ à¦¨
ect ed
Ġ×ľ ×ŀ×
áĥĺáĥ ¨
Ġdo es
ĠÐ´ Ð¾Ð»
áĥĿáĥ ¤
Ġg ame
é ¤
iá»ĩ u
Ø± Ùĩ
×ĳ ×ľ
Ġ15 0
Ġ×ĸ ×Ķ
Ð Ķ
ĠB en
ÑģÐº Ð¾Ð³Ð¾
Ġ: )
Ñĥ Ñħ
id d
ãģ§ ãĤĤ
k ol
ĠD ire
äºļ æ´²
olog y
Ġhab en
Ð¾ ÑģÐº
2 00
ĠdÃ© c
ĠØ§ÙĦÙħ ÙĨ
æĸ ¯
Ġä¸ Ĭ
ĠD is
Ã¢ u
á»± c
Ġ6 00
ĀĀĀĀĀĀĀĀ ĀĀĀĀĀĀĀĀ
v ir
n al
ÙĦ Ø§Øª
iss ion
ĠÐ¾ Ñĩ
ĠØ§ÙĦÙħ ÙĪ
5 8
å ©
åħ ī
Î¹ Î½
Ùĥ Ùħ
Ġ×Ķ× ¤
pres ent
áĥķ áĥĶáĥľ
à¹Ħà¸ ¥
Ġbe ing
ê ¹
è® ¯
Ġz w
ì¹ ĺ
Ġë¶ Ģ
ĠØ¯ Ø§Ø´
9 7
à±ģà° ¤
Ġ×ŀ× Ĺ
ot her
Ġ×ŀ× ª
ĠÏĢÏģÎ¿ Ïĥ
I d
Ġcont rol
us h
æ Ĳ
Ġth ink
Ã »
Ġáĥ¡áĥĲáĥ ¥
Ġ ÉĻ
Ġá ¼
Ġn ame
Ġand a
à¤¾à¤¨ à¥ĩ
ë £
Ġloc al
ĠA S
×ª ×Ļ
al u
ĠâĢ ĭ
áº· c
Ø¹ Øª
ĠÙħ Ø³Øª
Ġd ok
Ġm uy
ĠB ir
l at
et o
b aj
ĠØ£ ÙĬ
Ä±ÄŁ Ä±
ro id
Ð¾Ð³ Ð´Ð°
Ġph áº£i
åº Ķ
ĠNew s
Ġcom b
á» ı
Ö ģ
Ġê³ µ
Ġd am
Ġme hr
ĠØ Ľ
Ġæ ²
ì¹ ´
ĠÂ µ
×Ļ× ¦
Ġtra v
Ġpartic ip
ud io
Ġp s
à¹ĥ à¸Ļ
Ð´ Ðµ
à¹ģà¸ ¥à¸°à¸
Ġv iá»ĩc
on i
ÙĤ Ùĩ
à§ĭ à¦¨
ç Ĺ
ab e
Ġc ustom
Ġag ain
Ġver d
Ġsp ort
Ġs or
ä» Ģ
Ġma ar
ħ n
Ġth Ãłnh
Ðµ Ñī
aw a
ĠH D
ĠTr ans
h an
Ø Į
ag i
Ġcons ider
ah l
ï »
Ð°ÑĤÑĮ ÑģÑı
à®¾à® ³
Î¼ ÏĢ
Ġìĥ ģ
ach t
Ġst yle
ny m
± c
ab or
Ġth Ã¬
Ġid ent
ĠGrat is
Ð½ÑĭÐ¼ Ð¸
ĠL as
à¤¿à¤ µ
ĠØŃ Ø³
u ally
Ġp age
×Ļ× Ĺ
ĠA L
à®Ļ à¯įà®ķà®³
Ġan im
áĥĲáĥł áĥĺ
Ġmed ia
Øª ÙĨ
Ġind ivid
×¨ ×Ļ×Ŀ
Ġà® °
r ad
å¦ Ĥ
ind er
6 4
áº± ng
à¤¿ à¤°
g eb
e x
ãĥ ĵ
Ġfo i
Ġh av
ag ai
A K
à¤¾à¤ ª
Ġä» ĸ
ĠÑį Ðº
Ġm Ãª
áĥ ĸ
Ġà®ª à¯Ĩ
3 1
Ġà¦¨ à¦¾
ä½ ł
Ġë§ Ī
ĠáĥĶ áĥłáĥĹ
Ġgro up
Ġn ÄĽ
à§ģ à¦¨
ÑĦ Ð¾ÑĢÐ¼
ĠV o
ar es
ĠØ¨ Ø¹
ĠCh rist
Ġà¦¬ à§įà¦¯
Ġl itt
j ÄĻ
uy Ãªn
Ð»Ñİ Ñĩ
Ġtot al
è¯ ·
ĠÙĪ Ø±
äº Ľ
Ð°Ðº ÑĤ
ÐµÐ½ Ð°
ĠP D
Ġresp ons
ÏĦÎµ ÏĤ
ur y
Ùģ Ø³
aj Äħ
Ġhá»į c
Ġ×Ķ× ł
ĠÏĥ ÏĦÎ±
æİ Ĵ
èģ Ķ
ap e
ĠS ec
Ġáĥ¨ áĥĶáĥĽ
Ġ\ /
ĠØ´ ÙħØ§
Ġem pres
à¤ «
Ġ;& #
il en
ĠG er
Ġth ose
Ġc os
Ġgr up
ì¶ľìŀ¥ ìĥµ
ek a
p et
Ð°Ð½ ÑĤ
è® °
Ġun ter
Ð ľ
z w
du ct
h and
ĠÂ ±
ÎĻÎ ļ
Ġad a
ĠÎ¤ Î¿
ĠÐ½ Ð°Ð¿
ĠØ¹ÙĦ ÙĬ
Ġen s
ĠI S
ĺ à¸
ard s
Ġs Ã¶
at ter
Ġb ro
Ø§ÙĨ Ø¯
ĠR ev
Ġoldu ÄŁ
å·¥ ä½ľ
ĠÎ ¾
Å Ī
Ġde ze
Ġbl ock
Ã© g
re am
ĠØ¹ Ùħ
ç ¢
ÐµÐ½ Ð¸Ð¸
el li
Ñī Ðµ
Ġ ą
ĠA ug
ĠR ob
Ġv ed
à®¿à®Ł à¯įà®Ł
íı ¬
ĠP R
ost o
à¤¾à¤ Ĺ
×¨ ×Ľ
ĠÙĨ Ø´
ĠÃª tre
ĠÙģ ÛĮ
Ġfin al
ç» Ł
Ġà¦¬ à¦¾à¦
im m
Ġse u
{ "
ĠÎ¼ Î±ÏĤ
at z
æī ĵ
à§įà¦ ²
Ð¸ Ð¿
Ñĭ ÑĪ
ãģ ļ
l ag
ĠÏĢ Î¿
Ġà° ²
ÙĪØ± ÛĮ
×Ļ× ļ
S t
ĠÙĩ Ø±
Ð¿ÑĢ Ð°Ð²
æł ·
à°¨ à±ģ
Ġeff ect
ĠÙ¾ ÛĮØ´
Ġç ī
ud o
Ġ×ĳ ×©
Ð¸ÑĤ ÑģÑı
å¯ ¼
å¼ ķ
Ġ×ķ ×Ĳ
ĠS port
æĮ ĩ
ĠÙĩ Ø³Øª
à®¾à® ®
íĶ Ħ
±à¸ ĩ
å¾ Ī
ìļ °
áº¡ o
Æ¡ i
·à¹Ī à¸Ńà¸
Ġap plic
ĠCom m
Ġqu y
ģ à¸²à¸
á»ĭ ch
ĠÄĳ i
c ze
Ġà¦ ¡
ÑĢ Ñı
s el
Ġi P
Ġcont act
d ay
ï º
ph one
T E
Ġde b
Î± Î»
à§Ģ à¦°
ĠP e
ĠØ¨ Ø®
ail able
ç Ĭ
Ġà¤ī à¤¨
ĠD ep
¢ à¸Ļà¸
ĩà¸ ´à¸Ļà¸
l ia
Ð° ÑİÑī
A Y
à´¾ à´
à°ķ à±ģ
ad an
Ġdur ch
Ġr ad
Ð½ Ðµ
p re
ãĤ ĥ
li che
er y
ç ¯
åģ ļ
à±Ĩ à°²
Ð°Ð¶ Ð´
I E
ĠØ ¸
ra b
Ġ×Ĳ ×ľ
ĠS l
Ã¤ n
ĠÙĪØ§ÙĦ Ùħ
æİ ¨
Ġpr os
ç© º
áĥ ¤
ĠG ro
P S
iv i
Å¾ e
Ġà®Ĵ à®°
Ø¦ ÙĬØ³
Ð½Ð° Ñĩ
Ġìľ Ħ
£ p
á»ĩ n
h at
ĠF in
Î³ Îº
æ §
Ġf am
y p
ĠÏĥ ÏĦÎ¹
A V
Ġ9 8
Ġpro ject
un ity
ov at
Ġre view
ä¸Ģ ä¸ª
ÑĢ Ð°ÑĤ
Ġd ro
Ġw ater
íķĺ ê³ł
ĠÑģ Ð¾Ð²
f in
Ġad v
Ġà¦¤ à¦¾à¦°
Ġ à¹Ģ
ĠpÅĻ ed
O W
Ġsex o
Ġà®µ à®°
à¥Ĥ à¤¨
ä¼ ł
ĠØ³ Ø§Ø²
ĠÂ ©
Ã¡ o
z in
Ġh om
ĠÎ ¶
Ġgr ande
iá»ģ n
ĠÐºÐ¾Ð¼ Ð¿
à§ĩà¦ķ à§ĩ
ÑģÑĤÐ² Ð¾
ÎµÎ¹ ÏĤ
ãĤ¤ ãĥĪ
æ² »
ĠC am
Ġs ah
ar ak
Ð¸Ðº Ð°
ĠØ· Ø±
Ġsp e
ap i
éĹ ®
i Ã©n
Ġleb ih
à®³ à¯įà®³
Ø¯ Ø¯
Ð¾Ð¼ Ñĥ
Ġun o
r Ã¡
ading in
ĠÏĢÎµ ÏģÎ¹
ow ie
Ġai adingin
ĠØ¯ ÙĪØ±
ãģª ãģ©
ĠÂ ¹
ain s
Ġl ot
ĠÃ ģ
j ekt
Ġæ ķ
Ġnu ev
Ġà¤¹ à¥Ģ
ĠÑģ ÐµÑĢ
ĠÐ¾ Ðº
an ces
Î³ ÏģÎ±
le h
Ġdef in
ĠØ§Ø ´
Ġr un
rat eg
Ġl and
ĠS E
å°ı æ¸¸æĪı
Ġd ue
Ġf ull
æĪ ¿
Ġs an
ĠÏĢÎ± ÏģÎ±
Ġæ ±
ĠÐł Ð¾ÑģÑģ
ãĤ ĩ
no ÅĽci
Ã¡ nh
Ð² Ð¾Ð´
£áĥ ļ
ĠìĿ ĺ
iá»ĥ m
ĠÐ· Ð°Ð¿
æ± Ł
ac ak
t ur
äºļ æ¸¸
àµģ à´
nie j
Ãº n
ĠØ¥ ÙĨ
×Ľ ×ľ
ĠS ur
à¦ķ à§įà¦·
l ass
Ġ×ŀ× ¢
ĠS il
æ ħ
Ġdes de
ÐµÑĤ ÑĮ
Ġf act
Î¯ Î¿Ïħ
ad es
ĠW indows
ìŀ Ħ
à¤¾à¤ ķ
Ñĭ Ð¼
Ġl ove
Ġt ers
Ļà§įà¦ Ĺ
r om
Ð¾ Ñī
ĠâĨ Ĵ
Ì Ģ
ĠJ ak
Ġ uk
p u
à¸Ń à¸Ńà¸Ļ
Ġin te
Ġcas a
f Ã¼
ing er
m ar
ull an
ĠØ´ ÙĩØ±
ĠM ont
ĠO ne
g u
Ġquest o
ĠÐ ¯
å® ¹
al Ä±ÅŁ
à¦ Ľ
Ð¾Ð» Ð¾Ð³
æ° Ķ
æĭ Ľ
×¨ ×Ķ
Ø¯ Ø§Ùħ
ÑģÐº Ð°Ñı
Ġå ¦
áĥĺ áĥĺáĥ¡
Ø§Ø® Øª
ĠB as
âĢ Ļ
Ġä» ¥
ĠT H
Ġn Æ°á»Ľc
ÐµÑĢ Ð°
ĠÃ ĺ
ĠÎºÎ± ÏĦÎ±
ĠØ¨Ø§Ø´ Ø¯
il o
ãģĹ ãģĦ
ĠA k
à®¿à® ªà¯įà®ª
à¤¾à¤ Ī
ch es
à±įà° ļ
Ġper form
ri os
ãģ¾ ãģĽ
éĢ ł
į à¸
éľ ¸
à¸Ńà¸Ńà¸Ļ à¹Ħà¸¥
Ġdoc ument
Ġsist em
ĠBl ack
ç¾ ¤
ĠT el
à§įà¦ ®
Ġj our
as jon
ĠÙħ Ø«
lich en
ãĥ »
æģ ¯
×ĵ ×Ļ
åĳ Ĭ
Ġb Ã¶
çľ ģ
ÎĹ Î£
x im
Ð³ Ð°Ð½
Ġ ä¹
b u
Ġ20 00
ÅĤ ad
z k
Ø§Ù ¾
ian a
Ġm ent
ĠÐ± Ð¾Ð»ÑĮÑĪ
à¹ĥà¸« à¹ī
è¿ ĺ
Ġà¤¯ à¤¹
áº¯ t
r up
Ġâ Ķ
ÑĢ Ð°Ð²
Ġí Į
ĠÐ´ ÐµÐ»
ìĦ ¸
ish ed
Ġà®µ à¯ĩ
ĠÑĤ Ð¾Ð»ÑĮÐºÐ¾
ĠØª Ø´
Ġseg u
end i
Ġmont h
Ġ\ "
O C
Ġc ette
Ġimport ant
Ġä½ Ĩ
n Ã¡
ĠE N
ĠS oc
Ġ9 7
ĠÐ² Ð¾
à¤ķ à¤°
in c
et y
ÙĢÙĢ ÙĢÙĢ
Ġprze z
r um
Ĵ Ī
á» ĥn
w ays
åħ ¶
Ġs um
Ġæ ¯
ÐµÐ½ Ð½Ð¾
ĠInter net
Ġvoc Ãª
à§ĩà¦ Ł
Ġ4 00
Ġwh ile
v ÃŃ
Ø¶ ÙĪØ¹
am en
ĠÎ± ÏĢ
Ġw aar
áº¡ t
Ïģ Î¹Î±
Ġà¦ı à¦¬
âĢĮ ÙĩØ§
ĠÛ °
à¹ģà¸ ¥
ĠÐ¸Ð½ ÑĤÐµÑĢ
art a
Ġre ally
Ġà¦¨ à¦¿à¦
Ġà¤¤ à¥ĭ
t u
Ġë į
ow ych
Ġp ad
cl us
?? ??
Ø· Ø±
ateg or
Ð¸Ðº Ð¸
à¯ģà® ªà¯įà®ª
t ir
l ie
g al
Ġnec ess
Ġa round
ĠÎ¼ Î¹Î±
Ġt iáº¿
is on
åĮ Ĺ
à°² à±ģ
à°ª à±įà°ª
at r
ĠFac ebook
Ġch a
Ïģ Î¿Ïħ
ĠNEW Part
Ø ¡
im in
æĹĹèĪ° åİħ
ĠÎ´ Î·
Ġ à¶
ìľ Ħ
ÏĦ Ïħ
ÏĦ ÏģÎ¿
t il
Ġor az
µ à¸
og o
Ĥ à¸²à¸
å¾ Į
du c
Ġop p
Ġn em
ÑģÑĤ ÑĮ
å Ķ
Ġret urn
Ð° ÐµÐ¼
Ġ×ŀ× ¡
ĠÛ±Û³Û ¹Û
Ħ à¸£
Ġro om
Ġj eg
ĠÐ¿Ð¾Ð» ÑĥÑĩ
z u
Ġm ens
è¯ ķ
Ġserv ices
Ã Ģ
è§Ĥ çľĭ
ãĥ¼ãĥ ī
un ci
Ã¤ r
b ol
Õ µ
ec n
Ġp ast
ut s
od a
U M
v es
ĠÙĪ ÙĬ
å¤§ åıĳ
Ġdiffer ent
Ġ200 5
Ø§ÙĦ ÙĬ
ç§ į
h ol
ãĥ Ķ
ur as
ĠF e
ÑĢ Ð°Ð¼
p ad
Ã´ t
ĠØ³ ÙĪ
Ġne j
: :
© à¸
Ġr en
åħ ±
ê³ µ
ĠÙĨ ÙĤ
Ð¸Ð¼ Ð¸
Ãº bl
è ı
ic ial
Ġd ag
ĠC r
b an
à¦ķ à§įà¦¤
Ġ×Ķ ×ķ×Ĳ
è® º
ra y
ĠM ich
ĠØ§ÙĨ Ø¯
ĠÎ¿ ÏĢÎ¿
ĠA B
Ġç ¾
ĠÐ¶ Ðµ
Ġh im
Ġfin an
æł ¡
Ġh ot
ÃŃ as
ĠìĦ ľ
ĠØ¯Ø§ÙĨ Ø´
« áĥļ
ì¶ľìŀ¥ ìķĪë§Ī
à¥ģ à¤²
Ġb ase
ĠØ¯ ÙĪÙĦ
Ã Ķ
ÑĥÐ»ÑĮ ÑĤ
ĠÙĪ Ø³
lar a
Ġê ¹
è Į
g ar
Ġc are
ĠØ§Ø³Øª Ùģ
é£ Ł
ģà¸±à¸ ļà¸
ĠÂ ¡Â
ur an
à°² à±ĭ
ç½ ®
á»ģ n
id ente
Ķ à¹īà¸§à¸
Ġs ame
Ġåħ ¨
h one
ist as
Ã Ĵ
ie go
ones ia
ĠåĪ ©
¢ à¸²à¸
à¤¯ à¤¾
Ġnu est
Ġ6 8
ĠP C
áº© m
Ġte am
à¸Ńà¸¢ à¹Īà¸²à¸
Î ļ
ĠÐ¿ÑĢ Ð¾Ð²
Ġáĥ ĸ
ĠÙħ Ø±Ø¯
ç ¡
v ed
Ġt ent
Ġe u
ÏĮ ÏĦÎµ
Ġst ill
ä» ·
Ġ×Ķ× §
Ð°Ð½ Ð´
Ġèĩ ª
à§ĭ à¦Ĺ
à¦¾à¦ Ĺ
Ġs Ã³
æĺ Ł
ÏĢÎ¿ Î¹
Ġsa at
Ġ×ľ ×¢
Ġ×ĳ ×ª
n t
r or
a ft
Ġl in
Ġæĺ ¯
ãĥ¼ãĥ ł
ĠØ¢Ùħ ÙĪØ²
Ġs áº£n
åĪ Ĺ
ĠF eb
O K
Ø§ÙĬ Ø©
à¸Ļà¸ ±
Ġfo und
à¥ ĥ
Ġì Ľ
Ġt Ã´i
or ge
Ġreg ist
Ġk at
ë§Ī ìĤ¬ì§Ģ
Ġy az
Ġ6 4
ĠØ® Ø±
ov ern
ĠÐ¿ Ð¾Ð²
Ġy ar
Ã© ri
á»Ļ c
od o
ÙĦ Øª
re a
Øµ ÙĪÙĦ
Ð» Ð°ÑģÑĤ
Ġx u
Ġdes c
áĥĲáĥłáĥĹ áĥķáĥĶáĥļ
Ġå İ
ĠØ£ Ùħ
Ġmen y
m al
ĠV i
ä»Ģ ä¹Ī
Ã½ m
ĠL ib
ĠÂ ®
éĿ ŀ
ig a
Ð Ľ
l k
Ùĥ Ø©
ï¼ Ĳ
Ð¸ ÑĪ
íķ ł
ĠV ers
åĬł çĽŁ
Ġn ella
it ions
Ġï¼ Ľ
ĠÚ©Ø´ ÙĪØ±
Î´ Î¹Î±
Ġsa u
k at
ãĥ³ãĥ ī
Ġspec ial
å¼ º
à¤¹ à¤¾
Ġ7 8
æľ ¯
Ð»Ð¸ Ñĩ
Ġhe eft
Ġcas o
sk a
ak s
Ġ×Ķ× ¡
g el
Ġd ost
Ð¸ ÑĢÑĥ
we en
Ġæ Ļ
h ar
ĠÎļ Î±
li o
Ġj pg
Ġm or
Ġà¸ ģà¸
è İ
Îµ Ïģ
Ġë Ĳ
à¹ĩ à¸Ńà¸
ĠW ith
Ø§ÙĦ ÛĮ
ÏĢ Î¬
ĠD own
à°¿à°ķ à°¿
lÄ± ÄŁ
ÃŃ cul
Ġb eb
Î¼ÎŃ Î½
å· ²
ê ´Ģ
Ú© Ø³
Ġare a
al o
Ġab s
Ùĩ ÙĨÚ¯
Ġch ÃŃnh
u en
à¨ ¾
ĠJ o
Ġs ize
ne y
Øª Ø¯
åĪĨ å¿«3
ì ¡°
Ġí Ķ
Ġf ot
áº¥ n
Õ¥ ÖĢ
ĠÐĿ Ð°
ra ft
ĠØª Ùĩ
ĠÑģ Ð¾Ð±
áº« n
ĠÑĢ ÑĥÐ±
íĸ ī
ĠáĥĶ áĥ¡
Ã ĭ
ĠØ® Ø¨Ø±
Ø±ÙĪ Ø´
aj e
one y
ĠØ£ Ùĥ
ÐµÐ½ Ð¸Ð¹
ob er
à¦¦ à§ĩà¦°
ĠÎł Î±
ĠS im
çĶ »
Ġà®ĩ à®¨à¯įà®¤
7 9
ÐµÐ½ Ñĭ
Ġg es
ĠN et
ĠÂ ½
éĴ Ł
ĠT ur
Ġhá» £p
Ġç ½
ĠÐ»Ñİ Ð±
6 3
ëŁ ¬
Ġen erg
Ð¾ÑĤ Ð¾Ð²
Ġqu an
ãģ¾ãģĽ ãĤĵ
Ġus ing
ĠP od
Ġtemp o
Ã³ ÅĤ
Ġï½ ŀ
f en
ĠC amp
Ġnh Ã¢n
ier a
å Ĥ
um a
Ð¼ ÐµÑĢ
ĠØ´ Ùĩ
p i
Ġdis pon
à¹Ħà¸ Ľ
Ġb le
ìŀ ħ
éĺ ³
à¯ĩ à®°
Ã¶ v
Ġà¦¸ à¦Ĥ
Ġch eck
Ġol d
Ġav ailable
Ïĥ ÏĦÎ·
æĹ ©
el o
à°¿à° ¯
Îĳ Î£
os o
è½ ¯
en o
ĠÐŀ ÑĤ
Ġse in
ÐµÐ¼ Ñĥ
à¤¾à¤ ĩ
Õ¡Õ ¯
Ġc in
ft ware
Ġse k
ê¸ Ī
ĠÙĤ Ø¨ÙĦ
à¯Īà® ķà¯įà®ķ
el ing
åį İ
Ġà¸ Ħà¸
åŃ Ĺ
Īà¸²à¸ ģà¸
out h
Ġâ ľ
ĠThe y
Ú¯ Ø§ÙĨ
ĠÐŀ Ð±
ĠWh at
æ² ¡
« à¸²à¸
I O
Ĭ à¸²à¸
Ġc ada
ĠP ra
×ķ× ĺ
áĥĲáĥ ¤
Ġv en
ÙĪ Ø§Øª
ª à¯į
Ġç ¬¬
any ak
Ġé «ĺ
Ġà¦ı à¦ĩ
Ġsom et
ãĥ į
æĶ ¶
åħ ·
ç ħ
ĠØ§Ø³ØªÙģ Ø§Ø¯Ùĩ
ÅĻ e
Ġt elef
x y
Ùĥ Ø§ÙĨ
ĠÐĴ Ñĭ
ĠL u
Ġk le
ek i
and er
ĠØ§ÙĦ Ùĩ
6 2
à¦ «
Ġí Ĩ
Ø¯ ÙĬØ¯
ari os
ĠInter n
ie k
ãĤ¹ ãĥĪ
ĠkÃ¶n nen
à¹Ħà¸ Ľà¸
Ġh ard
ëª ħ
es k
Ġy o
Ø£ ÙĨ
Ġw ur
Ġæľ ¬
ĠÐ¡ ÑĤ
áĥĺáĥ¡ áĥ¢
ÑıÑĤ ÑĮ
ic io
Ġà¸ ķ
ìķ ½
å£ «
« à¸£à¸
Ġf avor
Ïħ Î½
à¥ĩà¤ Ł
ê² ½
Ġm og
ãĤĮ ãĤĭ
ĠF orm
ĠT or
ĠP res
Ġ" ).
Ġh app
çİ ĩ
ĠW or
Ġ ult
íķ Ļ
äºī éľ¸
æľĢ æĸ°
r er
é£ İ
Ġmater ial
ut sch
Ġl ug
ber g
Ġà¦¥ à§ĩà¦ķà§ĩ
Î³ Î¿
ami ento
ab l
à®¿à® ´
Ġs at
å¿ ħ
ĠØ¨Ø§Ø² ÛĮ
ac ion
ĠM ic
ĠÚ¯ ÙģØª
Ġm ir
is ation
li y
I F
ĠåĪ Ĩ
ĠâĢ ¬
ä» Ĭ
ĠIn t
ak k
Ġìķ Ī
ĠÙģ Ùī
ĠØ§ÙĦÙħ ØŃ
y pe
Ġå° ı
Ġd il
ĠÐ² Ð½
Ġcom me
à°¿à° ª
Ġth ough
áĥĲáĥ ĳ
Ġg od
ec ek
Ġ×Ķ× Ľ
Ġenc ont
Î¸ ÎµÎ¯
Ġutil iz
ĠÂ §
ĠØ¯ Ø§Ø±Ø¯
em y
Ð¾Ð² Ð¾ÑĢ
Ġb oth
am m
un un
Ġartic le
Ã³ d
Ġf aire
Ã Ĥ
ĠC ap
åĨ Ľ
Ġb ig
Ġper i
ĠA ct
Øµ Ø±
Ġdown load
Ðµ ÑĨ
ĠÄĳá»ĭ nh
ÎŁ Î£
Ġäºļ ç¾İ
at ic
à°Ĥà° ¡
Æ° a
Ġs Äħ
Ġà¦Ĩ à¦°
ÛĮ Ø³
à¯ģà®³ à¯įà®³
Ġor d
ĠM it
æ© Ł
Ïģ ÎµÎ¯
Ġpel o
Ġr om
ĠØ¹ ÙħÙĦ
æ¡ Ī
Ġs av
ÉĻr bay
Ġ×ĳ ×Ķ
Ð¿Ð» Ð°ÑĤ
ra p
Ġç ĭ
à¥įà¤ ª
Ġs inh
Ġz ak
ĠG ar
Ġì ¡°
ĠV iá»ĩt
ĠR E
Ð¸ Ð¾Ð½
ä¸ ĵ
ĠÃ ´
Ġrequ ire
p en
Ġh Æ¡n
Ġf ol
ĠÐļ Ð°Ðº
ĠÐ½Ð° Ñĩ
ĠA uf
Ġfoll ow
áº£ ng
at iva
Ġz ÅĤ
Ġv ida
áĥĿáĥ ª
Ø² Ø´
Ġsuc cess
Ġy Ä±l
Ġca o
Ġsm all
art o
´à¸ Ķà¸
à±įà° ¸
iv os
èĬ ±
ãģ¨ æĢĿ
I I
ĠÐ½Ð° ÑĪ
à¥įà¤ ķ
ĠØ¨Ø± ÙĨ
Ġe conom
à¦² à§ĩ
ĠÃ§ alÄ±ÅŁ
Ġz n
×ķ ×Ļ
b ra
à¦¾à¦ ¶
op e
Ġp ub
à¤Ĥ à¤Ĺ
ĠK l
à¹Ģà¸ ¥
æł ĩ
Ġ Æı
à§ĩ à§Ł
ĠS in
Ġf und
Ð¾ÑģÑĤ ÑĮ
ãĥķ ãĤ
ĠÂ £Â¬
ÙĤ Ø§Øª
Ġf riend
Ġs empre
Ĭ é¾Ļ
Ġêµ ¬
ĠIB _
Ġs ar
åı¯ ä»¥
O V
Ġex c
ĠÎ¼ Î±
á Ł
ap an
o ir
Īà¸ ±à¸
ì ¦
ĠB est
Ķ à¸µ
à¥įà¤ ¸
in ÉĻ
is ion
æĶ ¹
áĥĹ áĥĲáĥľ
Ì £
Ġbet ween
Ġs en
g n
Ġt ah
Ø¹ Ø±
Ġess ere
à®ªà¯įà®ª à®Ł
zia ÅĤ
ĠØ¨ ØŃ
Ġj ob
ĠÑģÑĢ ÐµÐ´
zen ia
Ġet c
ãĤ ±
áĥĲáĥ ĸáĥĶ
ãĥĥ ãĥĹ
ĠÑĥ Ð´
c Ä±
à¦¾à¦¦ à§ĩà¦°
Î¹Îº Î¿
à±įà° ®
Ġk ullan
Ġk ho
Ġfamil y
iv en
ĠÄĳá» ģ
Ġsch ool
ĠçľŁ äºº
Ïĥ Îº
in ing
I K
à¹ĥà¸Ĭ à¹īà¸
ur al
Ġv end
Ġ' ).
imi ento
Ġm Ã¬nh
à± Ĥ
ĠÐº Ð¾Ð»
ĠáĥĲáĥ ĵ
Ġaut or
ĠK e
Ġæ Ľ
Ġcomp any
Ġe f
ĠÙĤ Ø¯
Ć ą
st ra
Ġ eller
Ġinst all
ÉĻl ÉĻr
Ġ6 9
ĠâĢ ı
Ġáĥ «
ĠØ§ÙĦÙħ Ø³
ĠÐ¸ Ñħ
à®¤à¯įà®¤ à®¿à®²à¯į
og raph
Ð°Ð¹ Ð½
il ir
Ġst or
ov o
v in
ĠÃ ¸
Ġ×Ķ× Ĵ
Ġëĵ ±
à° ¹
ĠÃ¼ Ã§
à¸Ńà¸ ļà¸
ÐµÑģ ÑĮ
Ġ×© ×Ĳ
Øª ØŃ
ĠCom p
ĠF ra
ĠØ³ Ø¨
åĬ ©
éĿ Ĵ
an za
é¦ Ļ
ond o
ol es
Ġs Ã£o
Ġ' '
Ġm ang
í ģ
Ġdat ing
ĠÙĬ Ø¹
v an
Ġel ect
ĠÐ±ÑĥÐ´ ÐµÑĤ
à§ĩà¦ ¤
Ĭà¸ ±
Ġ×Ĳ ×ķ
Ġperson al
ĠM ot
Ġor der
ĠØ§ÙĦØª Ø¹
Ġtr as
è ¼
Ġw al
íĶ ¼
ĠÙħØŃ ÙħØ¯
Î´ Î·
çĪ ±
×ŀ ×¨
Ġì¹´ ì§Ģëħ¸
4 1
ĠM or
Ġ×ľ ×©
Ã¼ c
Ġj o
Ġk ay
Ġs ig
ĠC u
Ġex ist
el ig
Ġdi b
ag em
Ġngh iá»ĩ
Ġæ ¬
éħ į
Ġáĥ¨ áĥĶáĥ
Ġn Ã¡
Ġä¸ ī
æĶ ¯
áĥĿáĥĳ áĥĺáĥ¡
á»¥ c
æķ ´
åĨ Ĩ
ĠÙ¾ ÛĮ
Ġb ur
ag o
áĥ£áĥ ľ
ÐµÐº Ñģ
ĠSex o
çł Ķ
ow i
Ġf oto
Ġä¸Ń åĽ½
¢ à¹Ģà¸
ÎŃ Î½
à° ľ
ĠM i
Ġfa it
ĠÐ± Ð¾Ð»
Ø² Ø±
Ġæ ³
Ġ12 0
oc a
åĲ Ħ
m ek
ĠÄĳá»ĵ ng
ĠE UR
Ġur l
Ġz am
ĠØ² ÛĮ
p is
Ġp la
ĠáĥĹ áĥĲáĥķ
Ġma il
ĠçĻ ¾
ĠÎµ Ïħ
Õ¡Õ µ
à¹Īà¸ §
as Ä±nda
st a
ic y
Ġà¦ªà§įà¦° à¦¤
ĠìĬ ¤
ÑĤ Ð¾Ð±Ñĭ
Ġé ĺ
ĠN ie
é© ¬
á»ĳ t
Ġj a
ied er
ord er
ĠU N
Ġr estaur
ĠÙĤØ± Ø§Ø±
ch od
ì ¶Ķ
ar o
à¤ķ à¥Ģ
ìĹ Ń
Å ŀ
Ġ à¸Ńà¸
¢ à¸Ļ
ê² ©
Ð¸ Ð½Ñĭ
er al
ou p
ĠÑĩ Ð°ÑģÑĤ
ĠVide o
Ðº Ð¾Ð¹
Ġk w
at ura
is me
Ġb ra
à®° à¯įà®ķà®³
Ïī ÏĥÎ·
Ġme er
ĠB il
é£ ŀ
Ġd Ã¼ÅŁ
ĠÙĪ Ø¹
ĠÙĬ Ùħ
Ġáĥĺ áĥľ
Ġre fer
ĠP our
Ġl ub
Ġre port
n s
×ĳ ×¢
ÏĮ Î½
Ġvis it
ul i
í ĴĪ
Ã¡l nÃŃ
v ious
Ġé Ľ
Ð» ÐµÐ½Ð¸Ðµ
Ġtr Ã¨s
Ġà¤² à¥ĩ
ĠH ol
ç ª
Ġà¦ §
Ġem pl
ĠS eg
å¾ ĭ
om i
ĠÎ¼ ÏĢÎ¿
ĠL eg
Î¾ Î·
w s
ãĥ Ģ
Ġn y
ĠA C
Ġt or
Ġà¤ķ à¤¾à¤°
Ġáĥĺ áĥĽ
å ³
Ïİ ÏĤ
sch aft
ÙĨ Ø³
ĠØ§Ø ·
Ġas p
ĠH and
ĠãĤ ·
Ġu w
Ġ7 7
ĠÚĨ Ùĩ
Øµ Ø¯
Ġil ÉĻ
å½ ¢
Ġ ãģ®
ĠD ev
h am
ĠÐº Ð»
ĠÎ ¥
Ġgr an
à¦¿à¦ ¶
ëĲ ĺ
ill er
Ġà¦ ĺ
Ġn og
å ¡
ĠâĢ º
Ð¾Ð²Ð°Ð½ Ð¸Ñı
Ġnew s
Ø±Ùĥ Ø©
Ġle vel
Ï Ĭ
Ġn ak
n ego
Ġhe alth
Ġäºļæ¸¸ éĽĨåĽ¢
ĠC ity
Å¡t ÄĽ
ØªØ± ÛĮÙĨ
Ġu z
ĠáĥĴ áĥĲáĥĵ
×ŀ× ª
ãĥ ¯
Øª ÙĪ
Ġthe o
Ġìŀ Īëĭ¤
Ġk or
Ã©r ie
Ġin sp
Ġaut o
Ġqu ando
ac ter
Ġãĥ ķ
Ġà¸ §à¸
ĠØª ÙĪØ§ÙĨ
Ø§ÙĦ Ø¨
Ġ: :
ar Ä±
ìĺ ģ
åħ ļ
ĠØ§ÙĦ Øº
un k
6 1
ÅŁ Ä±
ãģł ãģĳ
ĠB aÅŁ
Ġpr Ã©
à®® à¯įà®ª
å¤ ´
Ľà¹ĩ à¸Ļ
Ð ĵ
Ð² ÐµÑĢ
ro t
e f
Ġtra baj
ĠC ON
Ã¼ s
Ġl eng
ont o
áĥĶáĥł áĥĺ
ÃŃ d
ÄĽ l
è¶ ħ
Ġge Ã§
Ġmo Å¼
Ġc Ã²n
Ġn ost
ç ļ
Ġz m
ĠM at
ä¼ ĺ
Ġk j
Ġæŀ ģéĢŁ
Ġà¦ıà¦¬ à¦Ĥ
ab les
____ ____
Ġs ug
Ġto o
ov an
Ġis s
ÏĮ ÏĤ
Ġæ ¶
ut i
ĠI ch
×ĵ ×¨
ÐµÐ» ÐµÐ¹
ĠO ct
ar be
Ġc op
r is
ĠAz ÉĻrbay
D A
ch Ã©
à¹ī à¸Ńà¸ĩ
áĥĲáĥ ¦
èĢ Į
à±ģà°² à±ģ
¡à¸ ŀà¸
Ġ×ľ ×¤
áĥĿáĥĳ áĥĲ
Ġå º
j es
è½¯ ä»¶
Ġé Ļ
åıĳ å±ķ
r ing
á»ĳ n
ĠìĨ Į
ed ir
Ġty m
«à¸ ¡à¸
à¦ ¡
Ġ> <
Ġinc re
ĠÐ ¨
Ġn Ãªn
ÐµÐ¶ Ð´
Ġcompl et
ĠÏĥÏĦÎ¹ ÏĤ
Ġbu ild
en en
åı Ĥ
ä¸ ¤
ĠæĹ¥ æľ¬
ĠØ¢ÙħÙĪØ² Ø´
Ġ ^
Ø§Ø³ ÛĮ
** **
Ġmer c
ĠB ras
Ġtr ue
Ġmá» Ľi
Ġ áĥĲáĥľ
ĠÚ© Ùħ
Ð £
ovÃ¡ nÃŃ
à°¾à° Ĥà°
à¹Ħà¸ Ĺà¸¢
Ð¾Ñģ ÑĮ
l l
ĠT R
æ² ³
ĠÂ ¼
Ã¨ me
à¸£à¸²à¸ Ħ
Ġson ra
Ġn ou
Î¯ Î¶
ĠÃ £
½ Ķ
il es
Ġn in
ë Ħ
èī ¯
red it
Ð» ÑĮ
z za
Ġpr Ã³
ĠÏĢ ÏģÏĮ
éŁ ³
Ġpor que
Õ ¿
ãĢ Į
Ġå ±
Î¯ Îº
w an
Ø§ Ú©
Ġ ãģ¾
çĻ º
Ġke ep
ÙĬ Ø«
×ł ×Ļ×Ŀ
ĠUn ter
Ġword t
Ġ": {"
un to
ĠT ag
ĠÐ¿ÑĢÐ¾ Ð¸Ð·
åĽ Ľ
ĠI ng
I B
A d
à¤¾à¤Ĥ à¤ļ
ĠØŃ Ø¯
Ġl ive
ut er
Ġcu i
4 2
Ġk ind
Î¯ ÎµÏĤ
Ã¤ ng
st o
à¸£à¸ §à¸
ÙĪ Ø§Ø±
Ġæī ĭ
ĠPor no
¥ à¹ĩà¸Ńà¸
ĠÐ³Ð¾Ð´ Ð°
Ġà¤ķ à¤¿à¤¯à¤¾
Ġc Ã¡ch
ĠÎ Ī
Ġìľ ł
Ġå ī
am y
ĠÐ´ ÐµÑĤ
ĠÐ¼ Ñĭ
à¦¦ à§įà¦
à°¿à° ²
Ġk ung
Ġâ ĩ
æ ļ
Ġpl ac
Ġ×ĳ ×¨
ãģª ãģı
ÄĻ p
Ġre ad
Ġexperien ce
åĪĨ éĴŁ
ĠB a
ä¹ ¦
wit ter
ĠÐ° Ð½
ĠèĢ Į
·à¹Ī à¸Ńà¸ĩà¸
å¤ Ħ
Ġm ust
Ġgo ing
à°¾à° ¤
b re
Ġl ik
d ag
ÙĤ Ø±
Ä±m Ä±z
Ġl ight
ä¿ ®
Ġmom ent
Ġà¤¹ à¥ģà¤
· à§įà¦Ł
O G
æ¸ ¯
Ġs á»Ń
iá»ĥ u
Ġï¿½ï¿½ï¿½ï¿½ï¿½ ï¿½ï¿½
ÛĮÙħ Øª
à®° à¯įà®ķà®³à¯į
Ġem ail
O B
ĠA R
Ø§Ø± Ø³
Ġth áº¿
à¹Ģ à¸£à¸
à¹Ĥ à¸£à¸
ĠáĥĲáĥ ¡
Ġf u
ĠÎºÎ± ÏĦÎ¬
Ġneb o
w ork
Ð» Ð°Ð³
Ø¹ Ùħ
ķ à¹Īà¸
ĠØ¯ Ø§Ø¯
Ġnum ber
Ġf ab
Ġo leh
en ia
amp ai
ãĤ º
ç» Ħ
ic an
ĠA P
ĠS am
Ð² Ð»Ñı
Ġpu ede
Ġtr y
ĠU p
Ġgr atu
ĠWh en
å¾ ·
Æ°á» Ł
Ġ `
ĠW ir
Ġp ower
ĠãĤ ³
ĠP S
Ġd á»±
Ġch at
Ġå¤§åıĳ å¿«ä¸ī
ĠâĢ İ
ÙĤ Ø·
ĠP et
à¹īà¸ §
ĠP an
çİ ĭ
Ã Ī
Ġp ak
à¹ĥà¸ «à¸
t Ä±r
ĠktÃ³ re
Ġb uy
Ġp em
ĠÙĩ ÙĨ
Ġmu ito
ĠÐ¼ ÐµÑģÑĤ
Ġè ¦
íķ ©
ìĭ ¤
Ġk it
ĠM ac
ìĿ´ ëĭ¤
Ġà¤® à¤¹
ĠØ´ Ø¨
ç Į
à°¿à° °
Ġm ess
à¦¨ à§ĩ
Ġdet ail
ate ur
Î¼ Î®
ë© °
Ġw at
Ġdur ante
ec z
æµ ĭ
ĠÐº Ð¾ÑĢ
Ġre p
à¸Ńà¸Ńà¸Ļà¹Ħà¸¥ à¸Ļà¹Į
ĠÐ³ ÑĢ
ãģ§ãģĻ ãģĮ
à¤Ĥ à¤¦
Ġ6 7
at to
Ħà¸¸à¸ ĵà¸
ĠÃ©t Ã©
ÙĦ ÙĤ
é¡ ¹
g ed
Ġf ew
Ġun ivers
ĠØ° ÙĦÙĥ
æĸ ½
Ġc Æ¡
à®¾à® ®à¯į
ne h
è ħ
d ing
Ġcon n
Ġë ¹Ħ
Ġà¤Ĩ à¤¹à¥ĩ
ÙĪ Øµ
9 3
ë° Ķ
Ġp ert
Ġext ra
Ġn ag
×ľ ×Ļ
Å¾ ÃŃ
à¦ķ à¦¾à¦°
ĠÐ ¦
Ġf ont
ĠO ut
ĠW est
æĿ ¡
Ø´ Øª
Ġf er
æŁ ¥
ĠÕ °
Ġne xt
Ġáĥ¨ áĥĶáĥ¡
ĠÐ´ Ð¾Ð¼
Ġpo z
ĠØ¬Ø¯ ÛĮØ¯
ÐµÐ» Ð¾Ð²
ĠB re
ies z
æĿ ĳ
à°Ł à±įà°Ł
ĠÐ¿ Ð¾Ð·
Ġed uc
Ġæ Ģ
ĠÃ ¢
ãĤĤ ãģ®
åĢ ¼
if ica
id i
ìĥ Ŀ
Ã ı
å· ±
ÙĨ Ø§ÙĨ
ĠSup er
Ö Ħ
ĠÏħ ÏĢÎ¿
Ġa j
ĠR om
ìĦ ł
åĬ ŀ
Ġthá» Ŀi
Ġì¶ľìŀ¥ ìķĪë§Ī
Ġf ile
Ð± Ð¾ÑĢ
Ġb ÄĻd
en ie
æŃ ¤
ç¦ ı
szy st
ĠØ¨ ÛĮØ´
à°¾à° ®
und en
çĥ Ń
ĠØ§ÙĦ Ø§ÙĨ
g un
ÑĥÐ¿ Ð¸ÑĤÑĮ
à° ¬
ar Ã¡
vir on
Ġbas ed
à¦¿à¦ Ł
Ġje j
qu er
ol s
Ġr áº¥t
ÛĮÙĨ ÛĮ
å® Į
×ķ×ł ×Ķ
¹ æŀľ
à°Ĥà° ²à±ĭ
Ñģ ÑĮ
è» Ĭ
áº¿ u
ł à¸
Ġk il
5 7
éĸ ĭ
ķ à¸²à¸
æ¶ Ī
ke it
Î¹Îº Î®ÏĤ
) )
Ġh Ã¬nh
th ing
Ġì ¢
Ġs Ã¥
ĠãĤ «
Ġ200 4
g round
à¯ģà® °
Ġtr Æ°á»Ŀng
el se
Ġh ij
ĠU r
Ġ| --
ar on
Ð¼ Ð¾Ð¶
×ķ× Ķ
ab el
b all
×ķ× ŀ×
Æ°á»Ł ng
Ġç¾ İ
Ġpr ice
Ġà§¨ à§¦
×© ×Ķ
ÏĦ ÏīÎ½
Ã³ l
ek s
ĠI h
ãĥ Ŀ
T ER
our ce
ÑĥÑİ Ñī
ãĤĮ ãģ¦
ê± °
Ġj Ã¡
á»© ng
Ġé ģ
Ġ( );
¯ ¼
Ġob s
à¦¾à¦ ļ
çĻ ½
±à¹īà¸ ĩà¸
Ġch ang
æ¬ ¢
ĠK Äį
ĠW ar
Ġel e
ķ Į
in y
Ġa Ã±os
ac z
ĠS en
ĠÙģ Ø±ÙĪØ´
Ġs w
Ġs end
Ġinclud ing
cript ion
ĠÙħ Ùĩ
ĠÐ¿ Ð¾ÑģÑĤ
k om
ĠÐ» ÐµÑĤ
à¦¨ à§ĩà¦°
ãĥ ¢
ĠÚ©ÙĨ ÛĮØ¯
ob al
ĠÐ¿ÑĢ Ð¾ÑģÑĤ
Ġthá» ±c
Ð¸ ÑģÐº
T C
Ġp ut
åĪ Ľ
Õ¡ ÖĢ
Ġth Ã´ng
Ġgib i
à¤ķ à¤¾à¤°
à§įà¦ ¨
ĠO f
Ġà® ı
ĠPost ed
Ġca us
Ø§Ùģ Ø©
Ø§Ø º
ĠE v
Ø§Ø¹ Ø©
Ø§Ø¹ Ø§Øª
ĠÙħ ÙĪØ±Ø¯
ĠØ§ÙĦÙĬ ÙĪÙħ
ĠInd onesia
Ġà° Ī
ĠÐ¼ ÐµÐ½
ĠãģĿ ãģ®
Ġà¦ª à¦¾à¦°
ĠEs c
ç® Ĺ
åı ĭ
Ġla in
áº¡ nh
ëį °
Ġà¸ ¥à¸
æĺ ĵ
Ġf em
á ¿
Ġt ÉĻ
à¹ ģà¸£à¸
w ie
ì Ļ
Ġv ac
r il
Ġà¤ħ à¤¨
ĠØ® ÙĦØ§ÙĦ
à¦¾à¦ Ł
à°¾à° Ł
Ä±n Ä±z
ãĢ İ
Ð¸Ð» Ð°
áĥĲáĥ ¬
Ïĥ ÏĦÎ¿
Ø¹ Ø¨
å° Ķ
Ġ×ľ ×ĳ
áĥł áĥĿ
Ġd ou
Ġï¿½ï¿½ï¿½ï¿½ï¿½ ï¿½
ĠØ¨ Ø§ÛĮØ¯
ĠÛ² Û
emp o
Ġ25 0
Ñĥ Ð·
ĠØ¨ Øª
Ð¸ Ð¶
Ġà¦ľ à¦¾à¦¨
Ġ×Ķ ×Ķ
Ġle ft
ĠB al
ĠØ§Ùħ Ø§
èĩ ³
åľ° åĿĢ
ĠVide os
ç ¬
ĠH al
Ġpro gr
Î¼ Î¹
ĠmÃª me
åĳ ¨
g ang
ÙĪØ± Ø©
è¾ ¾
Ġph p
Ġp ubl
à¸² à¸£à¸
ĠW o
ĠÙĦ Ùĩ
Ġam b
id ing
G B
owe j
à¸Ńà¸¢à¸ ¹
an ya
ĠG ra
Ġwid th
ĠÐ¾ÑĢ Ð³Ð°Ð½
Ġ×ŀ× §
ìĭ Ŀ
·à¹Ī à¸Ń
Ð¸Ð½ Ð³
ÏĦÎ· ÏĦÎ±
ÑĨÐ¸ Ð°Ð»ÑĮ
ĠÎ¸ ÎŃ
ect or
åı ª
ard o
ab y
T R
Ġal ways
il ip
Ġar ch
ĠS et
ĠQ ue
Ð½ ÐµÐ¹
ĠÄĳ iá»ģu
Ġsh ort
ĠEn t
çĶ ±
Ġp ela
Ġg ev
h u
ÑĤ Ð¸
ĠF o
Ġå¦ Ĥ
et zt
à¦¾ à§ľ
Ġà¤ §
Ġinter est
en as
ê¹ Į
ĠA D
ol u
ant en
ê° ľ
Ġd ate
ĠØ¨ Ùħ
ung an
à¦¿à¦¤ à§ĩ
ĠPl us
Ġà¦ī à¦ª
Ġtamb Ã©m
ĠB on
Å¯ j
an Ã§
ĠÑĤ ÐµÐ¼
Ġthá» ©
i Ã§
ĠPD F
±à¹īà¸ ĩ
Ġm undo
ĠáĥĲáĥ ¦
id up
Ġi hr
ĠÙħ ÙĬ
Ġà¤ª à¤¹
Ġsa ÄŁ
Ġapp ro
Ġ100 0
Ġt et
Ġo h
Ġk el
Ġáĥ ¯
M S
ist o
em ente
è° ĥ
Ġem p
Ð¾Ð± ÑĢ
Ġw enn
áĥķ áĥļ
re z
Ġë§ Į
ak a
Ġm Ã¥
ĠÐ¼ Ð°ÑĤ
n Äħ
Ġãģ Ĥ
ãģ ¹
Ġ8 7
à¦¾à¦ §
é¢ Ĩ
ĠJ ohn
o ft
ĠL A
ÙĪÙĨ Ùĩ
Ġìĭ ł
art en
Ġro d
ĠìŀĪ ëĬĶ
Ġcom un
Ġag åĽ½éĻħ
Ġwith out
Ġv ÃŃ
os i
l ay
ĠÎ´ Î¹
Ð¸ÑĤÑĮ ÑģÑı
Ð¸Ð· Ð½
éĺ Ł
ul u
is es
Ã¼ ck
à¥ģ à¤¨
Ġim age
à®¾à®Ł à¯įà®Ł
Ġv l
Ø¬ Ø§Ùħ
Ġn un
ĠÐ²ÑĢÐµÐ¼ Ñı
åı ¤
Ïĥ Ïī
à¹Ģà¸ ģà¸
ĠPar k
Ġä¸ º
ĠK o
ut en
ĠktÃ³ ry
Ġëı Ļ
å¯ ¾
v or
åĳ ³
ĠÐ¾Ð± ÑĬ
w or
Ġ ort
á»ķ i
åł ±
Ġà®µ à¯Ĩ
à¤¾à¤ ¬
ĠP as
à¦¿à¦ ®
Ã ļ
Ġcur rent
ĠU s
à¥ĩ à¤²
ĠÐ¸ÑģÐ¿ Ð¾Ð»ÑĮÐ·
à¸µ à¹Īà¸
åĵ ª
u it
Ġg Ã¼
ass en
ÐµÐ¹ ÑģÑĤÐ²
ľà¸¹ à¹īà¸
ĠØ§ÙĦØ¹ Ø±Ø¨
Ġ ud
Ġs ed
ÐµÑĢ Ð¸
9 6
ĠS em
Ġst ar
id ir
ĠEurop e
Ġjs em
à¸Ń à¸Ńà¸
Ġìļ °
u at
t es
Ġg ot
à¹ģà¸ ļà¸
Ġdan n
Ø¶ Ø¹
ĠØ¢ Ø¨
Ġìĺ ģ
Ġè ´
ĠØªÙĪ Ø³
Ġcol le
pl es
Ä±l an
r ik
ĠV is
Ġth ree
Ø¬ Ø±
ê° ķ
ro b
ĠØ± Ø§Ùĩ
ak ukan
Î³ Î³
ìĿ Į
ir d
Ġlitt le
å§ ĭ
Ġë ¯¸
ĠÎ±Ïħ ÏĦÏĮ
Ġes per
ĠFran ce
Ġpl at
ĠØ§ÙĦ Ø²
Ġtamb iÃ©n
ĠÑĥ ÑģÑĤ
Ġ6 6
Ġt iene
ĠÐµ ÑģÐ»Ð¸
å¹ ¿
Ġm ul
ĠãĤ µ
à°¾à° ķ
íĸ Īëĭ¤
Ġpos it
à®Ł à¯ģà®¤à¯įà®¤
ri es
Ġk ita
Øª Ùī
ĠåĪ© æĿ¥
Ġw rit
Ïĥ ÏĦÎ±
Ġ, âĢĿ
ow o
Ġæ ł
Ġà®Ĵà®° à¯ģ
éĹ »
áĥĹ áĥķáĥĺáĥ¡
æį ®
ĠO ur
Ñĥ Ð³
ä¾ ¿
ĠØª Ø³
ĠÑĩ ÐµÑĢ
ĠáĥĲáĥ łáĥ
r ation
ĠL and
Ġfil es
Ġel le
Ġv ir
at ori
à¥įà¤ ¦
éĺ ²
ĠDown load
h n
I Z
Ġc ual
ĠÐ¾Ð± ÑĢÐ°Ð·
Ð¸Ñģ ÑĮ
Ð¾Ð½ ÑĤ
st ell
Ġáĥ£áĥ ľ
Ġk á»
à®¿à® ļ
à®© à¯įà®©
Ġæ Ķ
Ġse hr
Ġz aman
ion ale
Ġt as
à° £
ĠØ§ÙĦÙħ Ø¹
Ġs aya
çĶ °
ek en
ĠÙĨÛĮ Ø²
ÑĥÑī ÐµÑģÑĤÐ²
ĠØ§ÙĦØ¯ ÙĪÙĦ
Ġf our
Ġmom ento
Ġë ħ
ĠÑĤÐ°Ðº Ð¶Ðµ
ë¶ Ħ
åŃ ĺ
Ïģ ÎµÏĤ
Ġme jor
ar ing
f ol
ĠE le
ĠÙ¾ Ø§ÛĮ
an Ä±n
Ġd av
ĠÚ© ÙĨØ¯
ì ħ
áĢ ¹
Ġéĩ ĳ
ãĤĬ ãģ¾ãģĻ
Ġdi fer
â ĸ
Ġhac er
p ond
ol f
ä¼ģ ä¸ļ
Ð¼ Ð°
Ġp on
à¦ Ļà§įà¦Ĺ
Ġè ĭ
Ġà®¨ à®Ł
ĠØ§Ùģ Ø²
Ġåı ¯
ãĥ Ļ
Ġsm art
P R
ĠØ´Ø± Ú©Øª
èĤ ¡
Î´ Î¹
Ġg an
ĠØ¨ Ø´
ĠÑĥ ÑģÐ»
Ġs ans
Ġcont ra
Ð ĳ
ĠÎĶ E
Ġa h
ÃŁ e
Ġv iel
ĠÙĨ Ø§Ùħ
AN D
à¯Īà®¯ à®¿à®²à¯į
ie ve
ĠØ¯ Ùĩ
Ġcomp et
Ġà¤¸à¤¾à¤ ¥
ĠP L
Ġdur ing
im es
Ġà¤¦ à¥ĩ
Ġty p
Ġqu a
ĠØª ÙĪÙĦ
alar Ä±
ĠØ´ ÙĨ
à¹Ģà¸ Ľà¹ĩà¸Ļà¸
Ø§Ø± Øª
ĠP RO
à¹Ģà¸ ¥à¸
Ġkar ena
Ïħ Ïĥ
à¹Ģà¸ Ĥ
Ã¡ r
Ġæ İ
l ess
Ġma i
Ùħ Øª
it z
ĠF er
Ð» ÐµÐ´
à¯Ī à®¤à¯įà®¤
å· Ŀ
Ġ×Ķ× ĵ
le ich
à¤Ĥ à¤¡
Ġv ert
Ġà¤ħ à¤¸
Ġáĥ¡áĥĲáĥ ®
ĠÙĪ Ùİ
y c
à§ĩà¦ ĵ
Ġà®¤ à¯Ĭ
Õ¸ÖĤÕ ´
ĠDes ign
ĠS and
j oy
Ġters ebut
à°ķà±įà° ķ
ĳ ľ
Ø¹ ÙĪØ¯
Ġv il
Ġth ings
Ġj en
à®ªà¯įà®ª à®Łà¯įà®Ł
Ø® Ø§Ø¨
iv ing
ou w
p end
Ġp ul
ĠP erson
Ġ à¸Ļ
à¦¾à¦ ģ
uk a
×¨ ×ª
ĠS he
Ġê° ľ
al er
è¶ Ĭ
ĠãĢĳãĢĲ ãĢĤ
ĠÐ¿ÐµÑĢ Ð²
ĠÐ· Ð°Ð²
Ġê ´Ģ
ĠC D
Ġé Ĥ
è¨ Ī
Ġ] .
AN G
ĠI P
Ġbet ter
ĠÎŃÏĩ ÎµÎ¹
Ġfac il
ĠÏĥÏĦÎ¿ Î½
ĠÎ± Î»Î»Î¬
Ġç½ ĳ
Ġinf o
Ġac qu
ow anie
ĠÃ Ķ
ĠV or
ap s
Ġà¦ķà¦° à¦¾
Ġaus si
Ġsu re
Ġc amb
Ġ, ,
åĪ ĩ
à§ĩà¦ ®
Ġáĥ¨ áĥĶ
Ġáĥĺ áĥ§
ug e
Ġä¸ ĭ
un an
Ġ) {
Ġ> >
l as
ert y
ä» ĭ
en y
Ä±y or
8 5
Ġà¤ķà¤° à¤¨à¥ĩ
Ġáĥ¡áĥĲáĥ¥ áĥĲáĥłáĥĹáĥķáĥĶáĥļ
ĠÐ½ Ð°Ð·
Ġconst ru
ĠáĥłáĥĿáĥĽ áĥĶáĥļ
Ġãģĵ ãģ®
Ã ¯
ÑĥÑĩ ÑĪ
ìĹ °
à® ¸
Ġn ar
i u
Ġb iz
ÑĨ Ð°
Ġ×ľ ×Ĺ
à¤¾à¤ ı
Ġ ig
Ġw iÄĻ
uy á»ĩn
ĠÑĤ ÐµÑħ
Ø§Ø °
Ġà° Ń
ĠÙĤ ÛĮÙħØª
ĠP ok
è¯ Ŀ
ĠìĦ ł
Ġé ¦
ĠD em
20 20
à¦¾à¦ ĵ
re k
Ñĥ ÐµÑĤ
Ġis ang
Ġprz ed
Ġc ase
Ġê¹ Ģ
am er
Ġf ig
Īà¸ °
æĭ į
ad em
Ġel ement
ist s
es a
Ġag o
§à¸ ±à¸
ĠÂ ¶
Ġ} .
è¯ ģ
âĢ¦âĢ¦ âĢ¦âĢ¦
uc k
r Ã©
ai x
åĮ ħ
à¹Ģ à¸£
ĠV e
Î¿Ïį Î½
íĨ ¡
Ġk ep
Ø§Ùģ Øª
Ġpe ut
ar ly
ĠÐ¼ Ð¸Ð½
Ġre ci
íĺ ¸
Ġl ie
ĠN u
Ġè ¡
Ġbr and
ĠØ§ÙĦØ£ Ùħ
b ed
Ġval ue
te k
an Ä±
Ġå½ ĵ
im os
Ø§Ø¨ ÙĦ
ĠÑģ Ð°Ð¹ÑĤ
Ġb anyak
ĠD av
ķà¸±à¸ §
im al
Ġqual ity
åº Ĩ
ÐµÑĤ Ð°
êµ Ĳ
Ġprov ide
ĠSp iel
Ġc reat
ÛĮ Ùģ
ĠáĥĽ áĥĺáĥ¡
å· §
ÅĤ ug
Ġé »
ik el
Ġí ĥ
Ġs udah
æ ¿
Ġà®ķ à¯Ĥ
ow ied
ĠIn n
à¦¿à¦ ¦
iz ione
ĠÐ¿ÑĢ Ð¸Ð½
à®Ļ à¯įà®ķà®³à¯į
ĠÐ½ Ð°Ð´
Ð¼ ÐµÐ½
9 2
if y
ĠApr il
èĲ ¥
ç ¿
es z
il li
Ã¶ g
ĠÙĩ ÙĬ
ï¼ ĳ
ãĥ© ãĤ¤
ÏĢ Î·
Ùĥ ÙĬ
Ġg row
Î¼ ÏĨ
ìŀ ¬
í ŀ
Ġw r
ĠG es
Ø§ÙĤ Ø¹
om et
Ġ×¤ ×¨
áĥł áĥĺ
ĠÐºÐ¾ÑĤÐ¾ÑĢ ÑĭÐµ
ĠÙĦ ÙĪ
´ à¹Ģà¸
Ġm end
Ġc ab
áº¡ ng
Ġad minist
owe ver
Â ª
ur os
Ġ×Ĵ ×Ŀ
ob re
ĠF ir
Ġdis pos
eg a
ĠÙĨ Ø¯
Ġå° Ĭé¾Ļ
Ġvi Ãªn
ì Ī
Ġbene f
Ġ] [
owa Äĩ
j en
Ġw ind
à§ °
ĠG od
ĠÐµ ÑģÑĤÑĮ
åħ Ń
ic iÃ³n
er c
Ġ×Ľ ×Ļ
ãģĹ ãģ¾ãģĻ
è «
Ġel ekt
Ġde d
Ġà¤¹ à¤®
ľà¸ ¥à¸
Ġpod er
Ð°Ð½ Ð¸Ð¸
Ġcol l
á» £
åĩ Ĩ
Ø§ Ø§
Ġd ays
ë² ķ
Ġà¤¸ à¤ķ
Ġpro b
Ġx e
ĠAr ch
Ø§Ø² ÛĮ
è® ®
ĠÙĪ ÙĦ
ĠÃ Ń
ad s
ÙĤ Ùħ
Ġå ĳ
Ġkh Ã¡ch
ĠD I
Ġv it
Ġpr Ã©s
à§įà¦ ķ
Ġà° ¶
M A
c ak
) ,
ĠH ow
U D
Ùģ Ø¶
Ð°ÑĤ Ð¾ÑĢ
g t
íĨ ł
à¤Ĺ à¤¾
ĠÙģÛĮ ÙĦÙħ
ãģ¾ ãģ§
Ã¤ hr
ow ania
Ġìĺ Ī
Ùģ Ø¹
ĠÐ³ Ð¾ÑĢÐ¾Ð´
á»į n
N E
áĥĲáĥ £áĥ
ĠE S
´ë Ŀ¼
ĠCh ar
éķ ·
ĠáĥĲáĥ ®
r zy
é¤ Ĳ
à§ĩà¦ ¬
g ent
ãģĹ ãĤĩ
ec to
ĠÐ¿ Ð¾ÑĤ
à¥Ĥ à¤°
Ð° ÑĨÐ¸Ñı
ĠT ak
éľ Ģ
Ġind ic
Ġjs ou
eg u
ĠÙħ Ø§Ùĩ
Ġl Ã½
Ø±ÙĬ ÙĤ
Ġheb ben
Ĥà¸ ¶
áĥĲáĥ Ŀ
Ġpod e
ØŃ ÙĬ
0 1
ĠÃ ĵ
Ġ×ķ ×ŀ×
Ġy et
è´ ¨
ett a
Ġb ard
Ġd ent
Ġvers ch
Ġ ic
ĠØŃ ÙĤ
ĠÑĤ ÐµÐ»
Ġmenj adi
ĠÐ¾ÑĤ Ðº
Ġ. -
ĠÃ¼Ã§ Ã¼n
ĠÙ¾ Ø±
éĤ Ģ
ãģĵãģ¨ ãģĮ
Ġ8 00
Ķ à¸µà¸
9 4
C E
Ġtra bal
Īà¸²à¸ ģ
Ġcas ino
Ø®Øª ÙĦÙģ
ĠìĹ °
ìļ ´
Ġand ere
ÏĪ Î·
à±ģà° °
Ø§Ø¹ Øª
ĠD ies
à®¿à® ®
ĠF ree
ĠÐ² ÐµÑĢ
Ö ¼
ĠB et
é¢ Ħ
r t
U E
Ġhe ight
Ġb aÄŁ
ĠÐ´ Ð°Ð½
ëł ¥
æ ĳ
ev a
åĽ ł
à¹Īà¸ ĩà¹Ģà¸
Ġbe aut
Õ« Õ¶
ÏģÎ¿ ÏĤ
ÙĨ ÙĬØ©
Õ¥Õ ¬
m os
ĠÑĩ ÑĤÐ¾Ð±Ñĭ
m u
Ġp ie
ĠÙĥ ÙħØ§
à®± à¯įà®ķ
he id
åł Ĥ
Ġà¤¥ à¤¾
âĢ Ķ
Ġvá» ¥
ĠÎ¼ Î¿Ïħ
Ġal tern
à¯Īà® µ
iz ed
èĲ ½
ì¶ľìŀ¥ ë§ĪìĤ¬ì§Ģ
ib ile
ĠÃł s
ĠR ad
Ġbe h
ĠS ams
³à¸ «
æŀ Ĺ
Ġà®ħ à®°
et to
ĠPro gram
Ġ×Ĳ ×ķ×ª
à¥Ģ à¤¨
ĠÙĪ Ø§ØŃ
ĠØµ Ùģ
Ġcom mer
à¤ ·
Ġìķ Ĭ
Ġc áº¥p
ĠB an
Ġcu ando
ÏĦ ÏİÎ½
Ø§Ø¯ ÙĬ
à°Ĥà° Ĺà°¾
ĠÐŁ Ð¾
ĠA ust
Ġ< /
a a
ĠÚ¯ Ø°
áĥĺáĥĵ áĥĲáĥľ
id ed
ett ing
Ġg ive
o z
Ġ ust
Ġà¹ģà¸ ¥à¸°à¸
ªà¸ ´
ĠÙĪØ¬ ÙĪØ¯
æ ĵ
ĠÙĬ ÙĤ
Ġ200 3
å£ ²
ĠB ak
±à¸ ļà¸
à°¾à°² à±ģ
Ġæĺ ¨
à§įà¦ ļ
ĠÐ¿ Ð°ÑĢ
áĥĿáĥ Ĺ
it el
Ġâ ķ
ĠJ ah
à§ĩà¦Ľ à§ĩà¦¨
è© ±
ëª ¨
ãģ¨ ãģĹãģ¦
Ġg am
Ø§Ø±ÙĬ Ø®
à¥ģ à¤ķ
d ate
ĳ Ĳ
à°° à±į
åº ľ
ĠÙĨØ¸ Ø±
í ĽĦ
L C
Ġë Ķ
oc us
Ø§ÙĨ ÙĪÙĨ
ì² ´
ÏĢ ÎµÎ¹
ķ à¹īà¸Ńà¸ĩà¸
h op
ĠPl ay
ĠI k
ĠØ® Ø¯Ùħ
ĸà¸ ¶à¸
Ġcor re
Ġc ara
Ġ×ķ ×ĳ
ĠÐ½ ÐµÐ´
Ġ ä¹Ł
ä½ ı
mÉĻ k
re b
Ġs atu
ĠS ub
az a
Ġto ur
" ,"
Ġà®® à¯ģà®
Ġà° ¹
Ġc Ã¹ng
Ã¸ l
ĠÑĢ ÐµÐ³
ĠâĢ ķ
Ġpre z
ĠÑĥ Ð¶Ðµ
áĥļ áĥĶáĥĳ
Ġà¤¯ à¤¾
æĿ ¿
Ġê° ķ
Ġs Ã©
Ãº t
åĮ »
Ð¼ Ð¾ÑĤÑĢ
ĠK ur
Î¸Î· ÎºÎµ
ĠJ ust
ĠÃ Ī
U B
ÑĢ Ð¾Ð¼
ĠSep t
×ł ×ķ×ª
in ya
Õ« Õ
Ø§Ø± Ø¬
asy on
Ġp esso
ÃŁ en
ĠÐ± ÐµÑģ
ØªÙħ Ø§Ø¹
ĠÎľ Îµ
Ġt ecn
ĠM ais
Ġáĥ§ áĥķáĥĶáĥļ
à¹īà¸² à¸Ļà¸
Ø¨ ØŃ
Ġg em
à¦°à§įà¦ ¬
æīĭæľº å®¢æĪ·ç«¯
Ġæ ¸
g g
ĠÐ½ ÑĥÐ¶
ç®¡ çĲĨ
í İ
Ġposs ible
ãĥ¼ãĤ ¸
ĠÑĩ ÐµÐ»Ð¾Ð²
ì ¡
ĠØ§ÙĦØ¹ Ø§Ùħ
å¤ ª
Ġs ia
or no
ç± »
×ķ× ĸ
st at
Ġor ang
Î¹Îº Î¿Ïį
a Å¼
ĠØ¨ Ø§Ø±
Ġback ground
Ä±s Ä±
it an
Ġm obil
Ġfo od
å½©ç¥ ŀ
Ġpa ÃŃs
ĠØ¢ Ø®Ø±
ĠAnd roid
Ġqu el
re ich
ĠnhÆ° ng
Ã³ g
ĠB ay
Ð¾Ð½ Ð°
ÑĢÑĥ Ð´
an b
å® Ŀ
Ġ×Ķ× ¦
Ľà¸ ¥
ch ten
Ġdeg li
Ġseb agai
Ġos ob
Ġan h
ĠÃ ³
Ġse arch
Ġm ic
ä¼ Ĺ
áº¥ u
Ġà¤ľ à¥ĭ
Ġsist ema
ä» İ
ĠÃ Ģ
×ŀ ×ķ
¹à¸ ģà¸
Ġtip o
Î»Î¿ ÏĤ
ĠPro duk
Ġs un
Ã ķ
Î¿Î¹ Î½
ot to
×© ×Ļ×Ŀ
Ġh asta
Ġtit le
ĠÐ´ Ð¾ÑģÑĤ
Ġp in
Ġinte gr
ĠÙĪ ØŃ
ĠItal ia
Ð» ÐµÐºÑĤ
y b
à¯įà® £
ÑĨÐ¸ Ñİ
ĠWor ld
Ġph áº©m
y en
5 6
et i
us o
Ġan ni
çĶµ å½±
Ïį ÏĦÎµ
Ïģ Î¯Î±
Øª ÙĦ
à¤ ł
9 1
ĠØ®Ø± ÛĮØ¯
æĪ ĸ
ļ à¸£à¸´à¸
ĠJ u
ÛĮÙĨ Ùĩ
ÉĻ c
Ġtr at
æĿ Ĳ
Î¼ Î¿Ïį
Ġk er
ÏĦ Î¿Ïħ
d ÉĻn
ĠØµ ÙĨ
iy at
ĠÃ ½
Ð°Ñĩ ÐµÑģÑĤÐ²
Ġt anto
Ļ à¯įà®ķ
ĠÎĳ Î½
ĠØ± ÙĪÛĮ
Ġf est
æ¯ Ľ
ang er
§ à¹ĩà¸
ĠÐ¾Ñĩ ÐµÐ½ÑĮ
Ð°Ñģ ÑĮ
á» «
Ġpre mi
Ġbu h
èģ Į
Ġab le
o on
ĠìĹ Ĩ
and id
Ġ íķ´
Ø° ÙĦÙĥ
Ġì¹´ íĨ¡
æŃ ¥
Ġìĥ Ŀ
Ġw in
Ġcons um
Ã¡ z
Ġop in
Ġi z
Ø² Ùħ
Ġespec ial
Ġà¤° à¤¾à¤ľ
ĠL in
Ġwith in
âĢ ĭ
à¤ ¥
Ġperf ect
Ġel se
à¸Ńà¸£ à¹Į
Ĺ ä¸ĩ
Ġl Ãªn
zen ie
Ġà¦¤ à¦¿à¦¨
ÅĤ Äħ
ÏĮ Î³
ac ja
ĠØ¹ ÙĨØ¯
ãģĭ ãģ£ãģŁ
ÅĻ ed
Ø§ÙĦ Ø§Øª
ÏĢ Î¹
éħ Ĵ
m eld
ĠD ig
æĹ ħ
ĠÐ½Ð° Ñģ
Ġm ujeres
Ġy ak
Ġsol l
Ð¸ÑģÑĤ ÐµÐ¼
à¥ĩ à¤¤
Î» Î¹
ĠÚ© ÙĦ
à¦° à¦¾
Ġf ue
ĠF oto
nÃŃ ch
ev e
ĠçĶ µ
æľį åĬ¡
à¸Ļà¸µ à¹īà¸
ist i
ĠÐ ĸ
å¤ ľ
Ġ×Ķ× ĸ
ann ya
_ c
åĥ ı
Ġtr Ã¬nh
ent ly
ĠÄĳ ang
h as
æĹ¶ éĹ´
Ġc es
Ħà¸£à¸ Ķà¸´à¸
Ġme et
åį ĵ
Ġl ok
uch t
Ġ×ĳ ×Ĺ
à¯įà®¤ à¯įà®¤
æ· ±
un ter
ĠnÃ³ i
Ø§ÛĮ ÙĦ
A H
ĠN on
s on
à°ļ à±įà°ļ
ÛĮ ÙĦ
Ø§Ø¯ Ø±
Ġkh Ã¡c
ĠÐ² Ð·
Ġsomet hing
Ġì Ļ
Ġh u
y un
7 6
´ ĳ
Ã¡ rios
çł ´
æķ Ī
Ø§ÙĦ ÙĬØ©
Ġl ess
éĽ »
Ġod p
Ġit al
áĥ£áĥ Ľ
Õ¡ ÖĢÕ
Ġs ci
N G
¦ ¬
it Ã©s
×Ļ× Ĵ
f i
éĤĢ è¯·
iyy ÉĻt
Ġk ami
t em
ec er
Ġsk al
Ġ ill
ĠØª Ø¯
å¸ ¦
ĠÃ¼ z
ć Ĉ
ĠR a
ĠAzÉĻrbay can
áĥĶáĥĳ áĥ£áĥļ
Ġãĥ ĸ
å¹ ²
èĩª å·±
ĠBl og
Ġãĥ ¬
ent os
Ðµ ÑĦ
Ĺà¸ ³
Ġb iáº¿t
uh an
ĠB ook
Ġ×ķ ×ľ
çĽ´ æĴŃ
Ġk es
ĠL E
ĠØ§ÙĦ Ø¢
larÄ±n Ä±
ä»£ çĲĨ
Ġè §
Ġch Ãºng
ÐµÐ½ Ð´
ĠØ§ÙĪ ÙĦ
Ġv ra
ĠN ach
in os
ĠF ilm
Ľ à¸£
±à¸ ļ
ĠÙģ Ø¹
Ġd ot
Ġtut ti
Ġnatur al
Ġí ĸ
ĠâĢ ļ
ĠÐ´Ð¾Ð» Ð¶
ĠÐ¾Ð± Ñī
ĠM ax
ler in
ĠØµÙĪØ± Øª
Ġle ur
Ġh Ãłnh
ãģĹ ãģ¾
Ġé ķ
Ġd zie
Ġw szyst
Ġpr ess
ĠØ¹ Ø¨Ø¯
Ġì µľ
Ġcontin u
Ġnorm al
ĠÃº lt
s et
Ġ6 3
Ġçİ¯äºļ ag
à¯Ĩ à®°
æ¨ ¡
AP P
ĠPar is
Ġb and
åı ĺ
Ġr Ã©s
Ġb ody
à¤¿à¤ ¶
ãģ ³
á»ĩ nh
os c
N o
Ġlar ge
or sk
m ier
Ġd alla
åĨ į
ien ia
ur en
b ack
ÙĦ Ø§ÙĤ
Ú© Ø§ÙĨ
ĠØ® Ø·
ĠØŃ Ùħ
ÏģÎ¯ Î¿Ïħ
ad en
it ional
az on
ï ¾
Ġke y
Ġproduct s
ĩ à¸²à¸Ļà¸
è§ ģ
ÙĨ Ø¨
ãģ »
ç» Ļ
ĠÐĿ Ð¾Ð²
ĠÑĥ Ðº
Ġl ov
à¦¨ à¦¾
à°¾à° µ
Ġim pl
at y
Ġpr est
ĠØ¨ ÙĬ
ĠØ¹ÙĦ ÙĬÙĩ
ut z
Ġse v
ë° ©
íĥ Ģ
Ġà¦ľà¦¨ à§įà¦¯
à§ Ī
Ñ ĸ
ãģŁ ãĤģ
éĤ £
Ġan no
Ġl ay
Ġv om
ĠìĦ ¸
Ġà¸ ¡à¸
Ġ áĢ
ig t
ĠØª Ø¨
ä¹ħ ä¹ħ
Ġde ux
ĠáĥĲáĥ ¥
Îµ Ïĩ
ãģĹãĤĩ ãģĨ
ĠÐĺ Ð½
Ġst rateg
à¹ī à¸Ń
b urg
le ÅŁ
ist en
Ġc art
Ġdis play
çĶ ·
à¨¾ à¨
¡à¸² à¸£à¸
M T
ĠØ§ÙĦØ³ ÙĬ
ĠÐ¼ ÐµÑĤ
ãĥ Ħ
ĠH ab
ĠØ§ÙĦØ£ Ø³
olog ia
ĠØ§ÙĦÙħ Ø¯
ÙĬÙĨ Ø©
ĠCh a
ĠØ¹ Ø§Ùħ
s Ã¥
l av
æ® µ
à¤°à¥įà¤ ®
0 8
Ġc rit
on te
Ġro ku
m it
ĠmÃ¡ y
Ġkad ar
Î ĵ
ĠK al
áº¯ n
g ra
Ġph Ã¡t
im mer
Ġen viron
ĠS ant
Ġ×ľ ×§
ĠÐ¿ÑĢ Ð¾Ð³
Ġç ´
Ġà®ª à®Ł
æĬĢ å·§
×ķ× ļ
Ġëı Ħ
å¢ ŀ
Ġb ank
ĠC ast
åĸ ľ
ä¸ĸ çķĮ
em pl
Îµ Îº
Ð°ÑĤ Ð°
è¨ ĺ
re f
v est
Ġcont rib
ĠÑģÑĤ ÑĢÐ°Ð½
ual iz
à¦¬ à¦¾à¦°
é º
n it
i w
á»ĵ i
or u
ter i
ĠC op
ĠÂ ¾
ģà¸±à¸ ļ
ĠØ¨ Ø³ÛĮ
Ã¦ re
Ð¾Ð² Ð°ÑĢ
æĹ¥ æľ¬
Ġb ay
Ø§ÙĦ Ø©
ĠØ§ÙĦ Ùī
ÐºÐ° Ñĩ
Ġl Æ°á»£ng
Ġt ax
Ġà¤ħ à¤§
ĠCh at
7 4
Ġpr ima
re et
ĠÙĦ ÙĬ
at ivo
is p
ĠØ¨ ÙĪ
à¦¸ à§įà¦¥
ĠÙĬÙħ ÙĥÙĨ
Ġm ind
ĠgÃ¶ re
Ġç º
à®¾à® £
à¤¾à¤ £
Ġm iss
áº£ m
ÎĻ Îĳ
Ġhan no
Ø§ÙĪ ÙĦ
ãĢ Ĭ
Ġë° ©
åı ²
à¤¿à¤¯ à¥ĭà¤Ĥ
ad u
ÐµÐ½ Ð¸Ñİ
ard a
ĠÏĥ Î·
åĪ «
Ġ×ŀ× ĵ
ear ch
Ð°Ð» Ð¸Ð·
Ġrec ord
ĠÙĪ Ø¥
if i
ĠD ur
å® ¤
ĠãĤ ª
s g
Ġ ã
íŀ Ī
ĠØ§ÙĦÙħ Ø±
åı¯ èĥ½
ĠÎºÎ± Î¸
ãĤĮ ãģ°
Ð°ÑĤ Ñĭ
Ġ×Ĳ ×Ĺ
à§ĩà¦ ¸
Î¼ÎŃ Î½Î¿
áĥĺáĥ Ĵ
ç¥ ¨
ĠÙĨ Ùĩ
Ġma ch
å¢ ĥ
ĠÚ¯ Ø±Ùģ
Ġm ember
ĠB ro
ëĭ ¨
× ¥
Ġinde x
à±ģà° µ
s elf
ĠØ§ÙĦÙħ Ø³Øª
ĠÑģ Ñĩ
ĠÑįÑĤ Ð¾Ð¼
Ġpr ime
Ġnec es
ÑģÐº Ð¸Ðµ
ĠA cc
ros oft
Ġc áº§n
ãĥ§ ãĥ³
ill s
×ĺ ×¨
Ġà¸ ĭà¸
Ġà¤ Ľ
à° ³
if ied
ĠÛ° Û
Ġéĩ į
Î¯ Î¿
Ġl ow
ĠM el
Ġm ight
it et
åĬ Ł
Ð¾Ð± Ñī
Ġl ed
×ľ ×Ļ×Ŀ
Ġ6 2
ze it
Ġ8 3
Ġho use
ĠÐ¾Ð± Ð»Ð°ÑģÑĤ
Ġpe u
ìľ ł
ard en
ĠãĢĳãĢĲãĢĤ ãĢĳãĢĲ
Ġpra ct
Ġalg un
il iki
Ġw ieder
I m
Ġlá» Ľ
Ġfir m
Ã³ a
Ġ3 D
Ġv id
ĠÂ ¡
eb a
ĠÃ ·
ĠTe chn
Ġ8 4
Ø´ ÙĪØ¯
ÑĢÑĥ Ð¿
Ġn at
ĠB ur
ĠiP hone
æĽ ¸
ÙĪ Ø·
Ġsch on
ĠÙĪ Ø²
ES T
ëĲ ľ
ļà¸²à¸ Ĺ
Ñı Ð²
à¦¾à¦¬ à§ĩ
ĠÃ© c
m itt
ĠI T
op er
Ġ×ŀ× Ľ
ĠSt ar
Ñĥ ÑģÑĤ
Ġk em
Ġcont r
U P
ģà¸ ¥à¸
Ġb em
Ã İ
ĠÙĬ Øª
i um
ĠÐ¼ Ð¾Ð³
Ġtr Æ°á»Ľc
Ġçĭ Ĺä¸ĩ
ĠåĮĹäº¬ èµĽè½¦
7 3
ÏĦ ÎŃÏĤ
Ġdo ÄŁ
f all
b ir
ĠH igh
á»ĵ ng
ãģŁ ãģĦ
Ġa ra
ĠÐ¿ Ð¾ÑĢ
×ĳ ×Ķ
aj a
ĠT est
Ġcap ac
Ġan other
Ġap ar
Ġç Ħ
å® Ł
à¯įà® ¯
Ġtod ay
ê± ´
ov en
Ġwur de
Ġh ai
Î² Î±
om s
Ġà¤ľ à¤¾à¤¤
Ġch ange
ĠD at
ĠÙĦÙĦ Ùħ
Ġac count
Ġà® Ł
ĠÃ ĥ
ãģ® ãģ¯
ec ut
Ġh ol
ĠSt ud
ĠU na
nost i
Ġ7 2
ãĥ Ľ
ÉĻ ri
ĠØº ÙĬØ±
te ur
Ġêµ Ń
Ġå® ī
ç± ³
l im
åı į
ĠSt r
Ġan o
ĠO t
Ġmod ern
ap er
Ġn Ãło
Ġn Äĥng
S I
Ġh em
d z
Ð°ÑİÑĤ ÑģÑı
ç© ¶
Ġchild ren
à¦ Ľà§ĩ
Ø§ÙĪ Ø±
ÑĢÐ° ÑĦ
à±Ī à°¨
Ġpra c
ĠA T
ä½¿ çĶ¨
ãģ Ĵ
Ľà¸£à¸ °à¹Ģà¸
Ġë¬ ¸
è Ĺ
Ġl ÃŃ
ãĤ¹ ãĤ¿
ģ à¹ĩ
Ġà¤Ĺ à¤¯à¤¾
ĠTh at
Ġt end
æľ Ľ
ģà¸ ±à¸Ļ
A A
Ġà¤ī à¤¸
ĠUnivers ity
Ġà¤ķ à¤¿à¤¸
ÑĢ Ð°Ñģ
ĠÑĢ ÐµÑĪ
ĠÄĳ Ã¢y
Ġt v
Ïĥ Î¯Î±
ion n
j u
Ġb ad
Ġfe el
æ¼ Ķ
ĠØ³ Øª
Ã¼y Ã¼k
Ġnh áºŃn
Ġorig inal
Ġst ate
å± ĭ
åĭ Ļ
à¤° à¥ĩ
ĠS car
Î½ Ïī
Ġp ed
ĠØ¯ Ø§Ø®
Ġà®İà®©à¯įà®± à¯ģ
çĦ¡ æĸĻ
Ġn oss
ĠP ublic
Ãº s
Ġber b
ĠÐ²Ñĭ Ð¿
ĠìĦ ±
Ġs r
Ð½Ð¸Ðº Ð¾Ð²
Ġp Ãºbl
eb en
ĠØ£ Ø³
Ġ×ŀ× ĳ
æ ¤
£áĥ ļáĥĺ
S E
Ġm ÉĻ
7 2
ÙĬ Ø¨
èĬ Ĥ
ĠÂ ¬
áĥĺáĥļ áĥĺáĥ¡
ãĥĩ ãĤ£
ĠÙħ Ø®
ãĤ ¬
ut ions
Ġ Å¼
Ð ¤
ç½ĳ æĬķ
ĠÂ º
à§Ģ à§Ł
çĻ¾ å®¶ä¹Ĳ
çĬ ¶
à¦¾à¦ķ à§ĩ
ĠQ ual
à§ĭ à¦°
an an
Ġar m
à¦¤ à¦¿
ĠÙħ Ø¨
Ġ8 2
Ġx xx
Ġim mer
à¹Īà¸ ¡à¸
Ġà¦ı à¦°
Ġpre par
ì¹´ ì§Ģëħ¸
ÏģÎ¿ Ïį
Ġmod o
us i
ĠÐ°Ð² ÑĤÐ¾Ð¼
Î¬ Ïģ
Ġå¼ Ģ
ªà¸¸à¸ Ķ
Ã³ s
Ġsin ce
ĠåĲ Į
00 00
Ġkom m
abil ity
b on
Ġin g
Ð½ Ð°Ðº
ÙĪ ÙĬØ©
L A
Ġfor t
ĠA y
Ġv os
ÙĦÙĬ Ùħ
èĭ ±
ĠÙ¾ Ø³
ĠL ond
ãģª ãĤĵ
Ġhum an
Ġt on
ãģĪ ãĤĭ
éĤĢè¯· çłģ
ĠT ar
Ø¬ ÙĦ
ĠÐ¿ÑĢ Ð¸Ð¼
olog ie
ĠW er
ĠS ing
Ġ î
ĠM ens
åį ¡
Ġprop os
Ġb esch
Ġim ages
ëĭ ¹
×ĵ ×Ļ×Ŀ
ÑĥÑĢ Ñģ
Ñĭ ÑĤ
Ġåħ ¶
Ġh ost
å£ °
V D
ä¾ ĭ
à° §
Ð»Ð¸ Ð²
w ij
áĥĲáĥľ áĥĺ
ce j
Ġd ah
ĠÃ ļ
Ġst op
lÉĻ ri
áĥķ áĥĶáĥ
ight s
ich er
ĠP at
ĠÐ² Ð¾Ð´
ĠÎ¼Îµ ÏĦÎ±
ĠA u
à¥ĩà¤ ĸ
ĠJ os
ĠT od
×ķ×¨ ×Ķ
×Ļ×¨ ×ķ×ª
ĠÐ¢ Ð°Ðº
Ġcert ain
Ùĥ Ø³
ĠØª Ø£
Ġse pt
Ġp ier
çľ Į
Ġm áº·t
Ġ×ŀ× ¦
ÛĮ Ø±ÛĮ
Ġal m
Ġ9 6
Ġt ara
0 5
ĠSams ung
éĸ ¢
Ġal ler
ĠC re
ãģķ ãģĦ
ĠÑı Ð²Ð»Ñı
áĥĲáĥĵ áĥĴ
ĠS aint
ĠÐľ Ð¾ÑģÐº
bo x
à§įà¦ ¡
à¸Ńà¸£ à¹Įà¸
à¥įà¤ ¨
at ely
Ġra g
Ġat Ã©
he it
Ġloc ation
Ġlook ing
è½ ¬
D E
Ġ365 bet
ĠÐ¾ÑĢÐ³Ð°Ð½ Ð¸Ð·
æ§ ĺ
ze j
ort s
íģ ¬
Ġab y
Ġ$( '
ëŀ ĺ
end re
ĠÑģ ÐµÐ±
à¹Ģà¸ ŀà¸
Ð» ÐµÐ¼
ãģ« ãĤĪ
ķ à¸£
Ġà®ļ à¯Ĭ
à¤ļ à¥įà¤
Ġbest e
Î¿ Ïģ
Ġt ari
ĠB ank
Ġt Æ°
Ð¾Ð· Ð´
Ġí Ĭ
ĠÙĤ Ø§ÙĦ
ĠØ¹ Ø¯Ø¯
ĠK r
Ġto us
è ĸ
ic ally
Ġg overn
S S
Ġre present
Î³ÏģÎ± ÏĨ
ĠÂ ¸
æī į
Ġass ist
l s
Ġl le
Ġà¦ķ à¦¾à¦°
ĠÎ ¡
ild i
ĠìĹ Ĳ
ĠÎ± Î³
ĠØ² ÙħØ§ÙĨ
Ġdon de
Ġcz as
àµ Ĩ
Ġog sÃ¥
Î Ķ
as ed
Ã¼ ks
Ð¾Ð¿ÑĢ Ð¾Ñģ
ÏĢ ÏīÏĤ
à°¿à°Ĥà° ¦à°¿
ow any
Ġs ide
ma il
z z
ĠÐ´ ÐµÐ½ÑĮ
Õ ¨
ĠY ork
åĪ Ŀ
Ġç ¥
Ġäºļ æ´²
à±ģà° Ĺ
Ġå ģ
Ġco ok
è² ·
ĠÏĥ ÏĦ
p ie
ĠØ¨Ø¹ Ø¶
ĠâĦ ĸ
ĠL oc
ëł ¤
ĠÐ¼ Ð°Ð³
Ġf ant
Ġb ol
Ð½ ÐµÑĤ
ĠV an
ĠSept ember
ĠØ³ Ø§ÛĮØª
ĠØª Øº
ĠÃ Ĭ
ĠRe al
Ġà¸ Łà¸£à¸µ
à®¤ à¯į
ĠÙħ Ùħ
×Ļ×¨ ×Ķ
¥à¹ĩà¸Ńà¸ ķ
Ġempl oy
Ð½Ð¸Ðº Ð¸
Ġdiff ic
áĥĶáĥ¥ áĥ¢
ĠÙĦ Øª
ĠÙħÙĪ Ø¶ÙĪØ¹
ÑĮ Ñİ
à®¾à® ±
Ġo tt
ÑħÐ¾Ð´ Ð¸Ð¼
à§ģà¦ ·
à¦Ł à¦¾
ĠÕ §
Ġìŀ ¥
b st
ent ial
ÏģÎ± Î³
Ġc ard
ĠáĥĽ áĥĲáĥĴ
ĠÑĢÐ°Ð· Ð²
×ķ×ł ×ķ×ª
ĠCh ina
F F
h y
Ø§Ø² Ùħ
Ġp ur
0 2
Ġà¦Ĩ à¦²
Ġh un
ÏĦÎ¹Îº ÎŃÏĤ
à° Ń
Ġch áº¥t
Ġpart ir
ç´ ł
aÄŁ Ä±
ĠL ED
Ð¾Ð² Ð°ÑĤÑĮ
á»¯ a
Ĥ à¦²
Ġíĺ ¸
ou v
Ġsim ple
ĠÃ© l
Ð¾ÑĢ Ð¾ÑĪ
ul es
ì¹ ´ëĿ¼
Ã Ĩ
ÃŃ vel
Ġì§ Ħ
Ġc over
Ġmer eka
Ġe qu
¥ ¼
ä¾ ¡
Ġb á»Ļ
ĠÐ¿ Ð¾Ð½
Î² Î¬
ĠÐŁ Ð¾Ð´
¼ åĲĪ
k m
Ġæ ·
Ġb ere
ĠØ³ Ùĩ
ve z
ad Ä±r
ĠÎº Ïħ
Ĺà¸ ³à¸
Ġhab it
if ik
b and
ĠMad rid
ob a
Ġsang at
áĥ£áĥ Ĺ
Ø§Ø± Ø§ÙĨ
Ġáĥ ¦
Ġ" ]
Ġs ym
ĠØ§ Ú¯Ø±
ĠNov ember
ak er
ï¼ Ī
ĠÐ· Ð´
r Ã¼n
ed s
ĠP en
Ġ$( "
Ġáĥł áĥĿáĥĴ
Å¯j Äį
sk Ã©
ala xy
ãģ ¸
Ġkun nen
ĠÏĥ Î±ÏĤ
Ġå° ±
Ġt ag
Ø§ÙĨ ÙĬØ©
Ġè ¶
Ġy eni
×Ļ× ĸ
ost i
Ġen joy
Ġgar ant
ĠÐ±Ñĭ Ð»Ð¾
Ġpartic ular
ĠØ§ÙĦØ¬ Ùħ
ĠBras il
Î¸ Î®
ĠÐº Ð²
Ġåħ ¬
Ġwork ing
Ġcon oc
Ð¼ ÐµÐ½ÑĤ
it utas
ÑĢ ÐµÐ´
Ãº p
Å ¥
ĠØ§ÙĦØ¹ Ø§ÙĦÙħ
×© ×ª
f ach
Ġtá» ±
ĠÐ¿ÑĢ Ð¸Ð²
Ġne ver
Ġimport ante
ĠÙĪ Ùĥ
ĠÑĢ ÐµÐ·
ĠåĬ ł
×¨ ×Ĵ
Ġs yn
m el
Ġf ast
Ġvi ol
Ġå¯ ¹
Ġt urn
åĳ ½
Ġsing le
çģ «
ĠÐ° ÑĢ
Ġxu áº¥t
ĠCom o
iy le
Ġe ks
à· Ĭ
ä½ İ
Ġnghiá»ĩ p
Î¼Î± ÏĦÎ¿ÏĤ
åŁ Ł
b il
å¤§ åħ¨
æĭ ī
Ġà¤Ń à¤¾à¤°
Ġh od
Ġm ac
ĠÚ©Ø±Ø¯ Ùĩ
b um
Ġí ģ
ãĤĵ ãģª
ĠØ¨ ÛĮÙĨ
p art
Ö ¸
ĠT om
ĠÐ¼ Ð½
ĠR et
Ġà®ķ à®Ł
Ġà¤¤ à¥įà¤¯
en ces
à¥ĩ à¤¸
v ÄĽ
ru ik
åĽ Ń
Ġì Ĥ
ĠÑĩÐµÐ»Ð¾Ð² ÐµÐº
ĠÐ²Ð¾Ð· Ð¼Ð¾Ð¶
Ġe asy
ĠØ§Ø· ÙĦ
ĠÐĴ Ñģ
Ø¦ Ø©
Ġm emp
ter e
ìĤ¬ ìĿ´íĬ¸
ĠTÃ¼rk iye
ad ora
åį ĩ
ä¸Ń å¿ĥ
IN E
Ġà§¨à§¦ à§
áĥĲáĥłáĥ Ľ
Ġs Ã¼
Ġz aw
Ġt ego
ĠApp le
ÑİÑĤ ÑģÑı
Ġë ķĮ
Ġj an
Ġinter ess
Ġ×Ķ×ŀ× ©
ĠØ§ÙĦ Ø§Ø³Øª
lij k
Ð¾Ð² Ð°
áĥĲáĥłáĥ ĵ
t or
Ġg ut
áº¡ ch
à¤¤ à¥įà¤¤
Ġg re
ŀ į
ë¥ ´
Ġres earch
un o
Ġå½©ç¥ŀ äºīéľ¸
Ġm oney
ĠÙĤ Ø·
à°° à°¿à°
ord in
C lass
ĠC e
Ġà®ĩ à®¤
ĠÑģÐ» ÑĥÑĩ
ĠÐ±Ñĭ ÑĤÑĮ
ĠØ£ Ø¨
ĠÐķ ÑģÐ»Ð¸
ãģĹãģ¦ ãģĦãĤĭ
ĠíĨ µ
à¤ķ à¤¾
áĥł áĥĲáĥĽ
ÙĪ ÙĨØ¯
Ġd ik
ĠÙħ ÙĦ
s m
ìĺ Ī
åİ Ĩ
Ġl ui
à°¾à° ¦
Ġpop ular
a Ã§Ãµes
Ġtod as
k Å¯
Ġíı ¬
Ġbo x
Ġâ Ī
à¯Īà® ªà¯įà®ª
amp le
Ġopt ion
ĠÐ²Ñĭ Ñģ
id ay
at ore
é» Ħ
ĠØ± ÛĮ
Ġob jet
Ġãĥ ŀ
Ġed il
Ã¨ res
\ /
ens ion
ÙĬØ¯ Ø©
ĠÐ¾ ÑģÑĤ
à¯Īà®¯ à¯ģà®®à¯į
Ġë ¨
ģ à¸£à¸°à¸
ĠÃ§ Ä±k
ĠZe it
Ġv s
áĥĶáĥ ª
r ir
ar am
or en
Ø´ Ø¯
Æ°á»Ľ ng
ĠæŃ £
Ġj aar
on da
ØªØ± ÛĮ
áĥĶáĥĳ áĥļ
Ġdist rib
Ġmak ing
Ġcour se
çħ §
áºŃ y
ÏĦ Ïī
Ġãĥ Ĳ
Ġf otos
á» ħn
un n
à§ Į
Ð¸Ð½ Ðµ
Ġc ode
Ġm eg
ĠÐ¿ÑĢÐµÐ´ ÑģÑĤÐ°Ð²
ĠP op
à°¨ à±į
k ov
æĿ ĥ
Ġv Ã¬
n ot
çº ¢
ĠØ§ÙĦÙħ Øµ
ĠÏĥ Ïĩ
Î¿Ïħ Î»
ĠS ystem
Ġprof es
Ġsign ific
Ġmus ic
ī à¸
à¦¦à§įà¦ §
Ġà¦¬à¦¿à¦ ¶
æµ İ
Ġqu er
s l
ĠÐ· Ð°Ð´
ĠÕ ´
Ġå ĵ
ĠÃ Ĵ
Ġg ian
ÙĪ ÙĪ
ĠT ip
ĠÑĢ Ðµ
ow ego
Ġgo ed
nÃŃ m
ĠÑĦ Ð¾ÑĢÐ¼
Ġd Ã¢n
ĠAug ust
ĠT a
Ġt ing
Ñĥ Ð»Ñı
end ed
Ġre du
âĢ¦ ]
ĠÐ±Ð¾Ð» ÐµÐµ
ĠØ§ÙĦÙħ Ø´
Ġs wo
Ġindivid ual
ĠMar et
ãĥ İ
à¹Ģ à¸£à¸µà¸
Ø²Ø§Ø± Ø´
Ð¸ Ð½Ð¾
Ġra z
èĪ ª
ë¬ ´
à®¿à®± à®¤à¯ģ
vis or
ĠM P
Ġ×© ×ŀ×
Ġë ©
Ġhe ad
ĠB es
ĠÐº Ð°ÑĩÐµÑģÑĤÐ²
áº¹ p
Ã¶g lich
åĪĨ æĹ¶æĹ¶å½©
ĠÑģ Ð¸ÑģÑĤÐµÐ¼
ĠÙĥ Ùĩ
à¹Ģà¸ ª
Ġà¦¬à¦¾à¦ Ĥà¦²
ĠØŃ Ø¶
éª Į
Ġsp ot
ĠÙħÙĨ Øª
Ġæĺ¨ å¤©
ĠØªÙĪÙĦ ÛĮØ¯
ĠØª Ùģ
Ġbl ack
Ġpop ul
ĠÎ¼Îµ Î³
5 9
ĠãĢ İ
Ġf it
o unt
ì Ķ
Ġà° ı
à¹īà¸Ńà¸ ¡à¸
ĠT ab
is se
ĠA kt
j ar
Ġk ra
Ð» Ð°Ð¹Ð½
Ä±m Ä±
à¤¸ à¥įà¤¤
Ġà® ľ
í ĭ
Ġu 00
es h
à¥ĭ à¤ľ
Ġà®ħ à®®
Ġse pert
Ġsh are
Ġáĥ¡áĥĲáĥ Ļ
ë§Į ëĤ¨
æĸ° éĹ»
áĥĶáĥĿ áĥĳ
Ġgib t
Ġso ftware
Ġà¹Ĥà¸ Ķà¸
à®® à®¾à®ķ
ĠJ un
Ġro b
Ġ[ âĢ¦]
Ġbuh ok
Ġdo b
r ig
c in
ĠÐ· Ð°Ð¼
as es
Ġpos ition
Ġmen os
Ġ8 9
èī ĩ
Î¹Îº ÎŃÏĤ
Ġë Ħ
0 3
Ġab e
ĠãĤ ¤
ÏģÎ¹ Î½
à§įà¦ ¸
Ã¤ nd
Ġ200 2
Ġmem iliki
Ġà®ª à®¿à®°
Ġ8 6
ĠÎµÏĢ Î¯
Ð¼ Ñĭ
á»į i
ri ft
ĠR el
ĠØ¹ÙĨ ÙĪØ§ÙĨ
ĠOr gan
5 3
p li
Ġk et
ĠÑģÐ» ÐµÐ´
Ġpro ces
à¸Ńà¸ ļ
ac ÃŃ
Ġìĸ ´ë
Î½Î¿ Î¼
Õ¸ÖĤÕ ©
p at
à «
åĨ ³
Ġh az
un ch
Ġà° Ł
Ñı Ð´
ãģª ãĤī
88 8
if ul
ĠÐ¿ÑĢÐ¾ ÑĨ
Ġsit es
ÑģÐº Ð¸Ñħ
áĥĶáĥĳ áĥĲáĥ¡
us z
ĠÙĬ ØŃ
Ð¾Ð² Ð¾Ð¹
ĩ à¸²à¸Ļ
Ġt able
Ð°Ð¶ Ðµ
à¤°à¥įà¤ µ
¸ è¿Ĳ
Ġå Ĵ
op en
Ġà¤ī à¤ª
ãģĤãĤĬ ãģ¾ãģĻ
re i
Ġcom ent
ĠO m
ÄŁ u
Ö °
Ġgener al
Ġb oy
ë¹Ħ ìĬ¤
Ùģ ØªÙĩ
w eg
Ú© Ø±
Î´ Î®
5 4
Ð¾Ð± ÑħÐ¾Ð´Ð¸Ð¼
Ġáĥ łáĥ
iy et
ĠæĪ Ĳ
ĠC a
Ġk inh
Ĭ à¹Īà¸§à¸
ĠS ab
um an
Ġty l
Ġqu ot
rol l
ĠFeb ru
ent er
ĠÚ¯ Ø²Ø§Ø±Ø´
Ġm Ã©d
Ġser Ã¡
æľ ª
0 4
Ġhab e
Ġu yg
Ġk as
Ġ7 6
atur es
Ħà¸§à¸²à¸ ¡
ĠE en
Ġan os
k el
Ġt ay
ĠÃ Ħ
×ľ ×§
Ġpro te
Ġà¦® à¦¾à¦¨
ç ¹
ĠÙ¾ Ø±ÙĪ
Ġà¤¦ à¥ĭ
ĠÐĿ Ð¾
Ġrec omm
Ġcon v
ĠÑĩ ÐµÐ¼
áº¯ ng
ĠØª ÙĦ
ï¼ ģ
´ Ī
Ġdi ese
æľ ¨
ien en
Ġn ombre
Ġê² Į
Ġà¤² à¤Ĺ
ä¿¡ æģ¯
Ġl ic
ĠIn c
æ²¡ æľī
ĠÃ Ļ
ÄĻ t
ĠÄĳ iá»ĥm
à¤¸ à¥Ģ
ĠN av
Ġass oci
Ġag äºļæ´²
ĠE U
Ã ĺ
ed y
Ġæ ĭ
à¦ĸ à¦¨
à¥ ľ
Ïİ ÏģÎ±
ĠP u
ĠÚ©ÙĨ ÙĨØ¯
op t
Ġc ri
Ð Ĺ
ĠÙĬ ÙĪÙħ
Ġm ur
e i
al ing
Ġse ver
A Z
Ø§Ø¦ ÙĦ
áĥ ¯
0 6
C O
èģ ĺ
Ġp ic
ãģ§ãģį ãĤĭ
Ġn ett
ĠãģĿ ãĤĮ
ĠÃ ¤
Ġk áº¿t
ÃŃc ÃŃ
ĠØŃ ÙĬØ«
ĠÐ¿ÑĢÐ¾Ð¸Ð· Ð²Ð¾Ð´
à¤¿à¤ ®
ÐµÑģ Ð¿
ĠÐ¾ Ð½Ð¸
Ġp end
am ang
Ġäº Į
i ert
ĠÙĪ ÙħÙĨ
ĠÑĥ Ð²
8 6
Ã¤ ch
ãĢ ħ
us es
ĠÃ¥ r
â ĺ
ÑĤ Ðµ
ic le
×ł ×ª
0 7
Ġide a
ãĤ ½
×¨ ×ĳ
ìļ ¸
Ġstud ents
Øª ÙĪØ§ÙĨ
Ġf lo
ëł Ī
Ġcl ick
ÑĮ Ñı
à¹īà¸² à¸Ļ
æ¸¸æĪı å¹³åı°
Ø« ÙĬØ±
Ġà¸ ŀà¸
ar se
ĠUS B
ell ing
ĠT rip
ĠE L
Ġc at
ad t
Ġç «
ãĥ ı
á» Ĺ
ĠD al
Ġwor ks
Ġtelef on
li p
Ġprofess ional
Ġb ill
cel ona
ĠÙħØ« ÙĦ
Ġcle an
Ã¤ h
ĠãĤ ¯
il de
à¦¨à§įà¦ ¦
ä¹ ł
Ġf eb
Ø§Ø³ Ø¨
Ġì ¶Ķ
Ġà¦¨ à¦¿
Ġà¸ Ĥ
ĠáĥĹ áĥ£
×ķ×ł ×Ļ×Ŀ
Ð¿ÑĢ ÐµÐ´
áĥĲáĥĽ áĥĵ
ë Ķ
ĠãĢĤ âĢĿ
Ġå¥ ½
éģ ¸
ÏĦÎ¿ Ïį
Ġà¦Ĩ à¦ª
à®ª à¯į
ĠNe xt
Ø® ÙĪ
ç§ °
çŃ ĸ
Ġabe uk
Ġge en
Ġ9 4
Ġy ol
è¿Ľ è¡Į
ĠØªÙĩ Ø±Ø§ÙĨ
ĠÙĪ ÙĨ
ĠØ§ÙĦØ¹ ÙħÙĦ
Ġëį Ķ
ĠIn f
ÄŁ er
Ġãĥ ¡
Ġà®µ à®¾à®
ĠG re
æĸ Ń
ą ć
Ġlug ar
éĹ® é¢ĺ
ĠÙħÙĪ ÙĤ
áĢ¹ áĢ
Ġa way
ãģĪ ãģ¦
áº£ nh
pr ise
il ik
Ġter min
Ð¸Ñı ÑĤ
ĠÐĲ Ð½
Ġæ Ħ
Ġse Ã§
ĠØ´ Ùħ
ĠGr and
Ġsh op
ĠS w
Ġä½ ł
ĠÙħØ¬ Ùħ
ĠÏĥ Ïį
5 1
asi h
ĠÙħ Ø¤
Ġag çľŁäºº
ÐµÐ½ Ð½ÑĭÑħ
ÐµÑĤ Ñĭ
à°¿à° µ
Ð°Ð½ Ñģ
æĻ ¯
Ġmot or
Ġm l
Ġ6 1
Ġst ra
Ġd od
ĠåĲ į
æİ §
à¤¿à¤Ĥ à¤Ĺ
red i
Ø¬ Ø¨
é Į
ff en
Ġle v
ãĥ¼ãĤ º
0 9
Ġnot re
Ġcre ate
nÃ© e
Ġcons ult
è² ¸
åĮ Ĺäº¬
ãģ« ãģ¤
ÙĬ ÙĪ
un kt
áĥĺ áĥĶáĥł
à¤¾à¤¯ à¤¾
Ġsepert i
Ġw on
Ġ7 4
ĠC ur
Ġkter Ã©
ĠØ¨Ø® Ø´
Ġm ah
åķ ı
¡à¸ ±à¸
Ø¬ Ø©
ĠØ§Ø³ ÙĦØ§Ùħ
ĠØ¬ Ø§Ùħ
ĠPl an
×ŀ ×Ļ
w y
m p
ind o
Ġm am
Ġé Ķ
ç« ŀ
Ġen f
è¨ Ń
Ġo v
ĠSt and
×¨×Ĳ ×ľ
Ġmol to
í Ĥ
Ġë° ľ
j Å¡ÃŃ
ar ed
Ġb áº±ng
Ġb áº£o
Ġn om
Ġop port
Ġte ch
Ġda ar
Ġp ati
ĠC E
Ùİ ÙĦ
ĠØ¬ ÙĨ
il ar
Ø±ÙĪ Ø²
ãĥ ¤
Ġ, .
Ġs Ã¼r
áĥĲáĥķ áĥ¡
ë¡ Ŀ
T O
Ġall ow
ĠB i
Ïĩ Î±
Ġz ab
Ġqu esta
ĠØª Ø§Ø±ÛĮ
Ġå ¨
ĠØ§ÙĨ Ø¬Ø§Ùħ
ek er
Ãª s
Ġ Þ
Î¹Îº ÏİÎ½
w al
Ġà®ª à®¾à®°
art ment
Ã¡ st
Ġ ub
ì§Ģ ë§Į
ÑģÑĤ ÑĢÑĥ
¡à¸²à¸ ģà¸
ç»ĵ æŀľ
th ers
Ġas k
Ġminut es
è® ¤
áĥĲáĥķ áĥļ
Ġà®ĩà®° à¯ģà®ķà¯įà®ķ
Ġà¸ Īà¸
íĨ µ
en ci
Ġà¤µ à¤¾à¤²
áĥĺáĥ£áĥ ł
ĠÐ¸Ð¼ Ðµ
Ġà¤¬ à¤¨
ĠTh ese
ia ÅĤ
Ġbr uk
Ġth áº¥y
Ġt áº¿
Ġunder stand
ch ar
Ġf ond
ĻĢ â
Ã± a
ĠH ot
Ġà¦¹ à¦¬à§ĩ
×ķ×ª ×¨
Ù į
Ġs op
Ġ×Ĳ ×Ĺ×¨
Ġt iá»ģn
Ø¶ Ø§
éĩ İ
ici os
Ġf ocus
ĠJ a
ÙĬ Ø´
c iones
Ġph Ã²ng
Ġà¦Ĩ à¦¸
Ġu Å¾
à¥įà¤ ·
ĠØ¯ÛĮ Ú¯Ø±
à§įà¦¯ à¦¾à¦¨
ë ¯¼
5 2
ĠÑģ Ð´ÐµÐ»
ĠK am
Ġtiáº¿ p
ĠÙĨÙħ ÛĮ
ìĹ Ī
ĠP ower
ØŃ Ø±
ĠÙĦ Ø¨
Ġr i
Ġ9 2
Ġins an
Ġcel eb
æĢ ģ
ir os
Ð¾Ð½ Ð¾Ð¼
ĠP AR
Ġz al
ãĥª ãĥ¼
Ġtyl ko
ÑĢÑĥ Ð·
ģà¸ ¥
ĠMar ket
ĠØ² Ùħ
ĠM u
Ġger ek
ķ à¸£à¸
ĠAl s
Ġf Ã¸r
Â ¡Â
Ġcont ro
Ġam bi
à¦ ł
×ŀ× Ł
ĠDe utsch
Ġn ab
Äħ z
Ġquest ion
ĠF il
ĠB ah
à¦§ à§įà¦¯
Ġt á»ĳt
åĢ ĭ
Ġt Ã¢m
ent al
ĠP os
Ġè ī
Ġch á»§
ÙĪ Ùī
ĠRes p
ĠAr be
t Ä±
ĠB lu
Ġà§¨ à§
Ġpro c
æľī éĻĲ
çķ ª
ĠÎŁ Î¹
è¿ ŀ
Ùĥ Øª
ĠW y
ç ¸
Ġë§ Ĳ
ĠÎľ Î±
Ġ×Ķ ×Ļ×Ĳ
Ġr ich
ÉĻ f
Ġth iáº¿t
Ķà¸´à¸ ¡à¸ŀà¸
ĠDire ct
ĠãĤ ¨
ag ram
à¦° à§ĩ
Ġthá» ĭ
Ġ×ķ ×¢
Ġhar us
Ġv iv
Ġs ac
ĠA h
ĠÐ¿ÑĢ Ð¾ÑĤ
Ġus o
Ġf ace
r oss
Â ·
ĠëĤ ¨
Ġto Ãłn
m ed
Ġma x
N A
Ġ×ŀ× ł
Ġáĥ£áĥľ áĥĵáĥĲ
Ġim g
Ú© ÙĦ
Ġn ut
Ġk iÅŁ
Ġë° ı
Ïģ Îº
Ġk ab
è± ¡
Ī à¸£à¸´à¸
Ġv ent
Ġg esch
ang k
ĠL et
Ġ×© ×ĳ
Ġ×ĳ ×¡
Ð°ÑĢ Ð¸
Ġd ess
n ou
Ġspec ific
åĪĨ åĪĨå½©
[ ]
ĠØªÙħ Ø§Ùħ
d om
Ø± Ø§Ùĩ
Ġà®ª à¯Ĭ
ĠG R
Ħ à¸Ļà¸
ĠEng l
Ġent r
Ġáĥĵ áĥĲáĥĽ
Ġtra ck
Ġhar ga
Ġ ä¼
Ġg Ã¬
à¥Ģ à¤²
r ice
ĠÐ¿ Ð¾Ð¿
f ord
s ung
ĠU hr
ĠØŃ ØªÙī
Ġtá» ķ
ĠÄĳ á»ĳi
çŁ ³
×ŀ× ł
Ġh á»Ļi
Ġ Ä±n
Ġsec ara
Ġp oc
Ð· ÑĭÐ²
k ie
Ġt reat
Ġal c
ĠØ¯ ÛĮØ¯
ãģĦ ãģĦ
ci os
åľ¨çº¿ è§Ĥçľĭ
ĠëĤ ´
Ġw sp
ë§ ¤
æŀ Ĳ
æĪĳ ä»¬
ç Ĩ
ÏģÎ¹ Î¿
Ġk 8
Ġb lo
ĠM ore
Æ Ĵ
ÉĻ z
ĠØ§ÙĦÙħ Ø¬
er te
ĠáĥĲáĥł áĥĺáĥ¡
Î´ Î¹Î¿
Ġk dy
à¸£à¸ ¹
ĠHotel s
Ġn l
å¤ ī
à¥ģ à¤®
ĠÙĩ ÛĮ
×ľ ×ķ
Ġe igen
ĠÎ´ Îµ
ĠÄĳ Æ°á»Ŀng
Ġk Ã¶
Ġb or
ĠÙħ Ø®ØªÙĦÙģ
Ġà° Ĵ
Ġdet te
h old
ãģ« ãĤĤ
Î· ÏĥÎ·
ve is
Ġneed s
r im
Ġå¤§åıĳ æĹ¶æĹ¶å½©
Ġle arn
Ð¾Ñģ Ð¾Ð±
Ġà°ļ à±Ĩ
×Ļ×ł ×ķ
z ien
Ġtara f
Î»Î» Î±
Ġtim es
Ġà¦¦ à§ĩà¦ĸ
Ġng o
Ïĥ Î±Î½
Î¿Î½ ÏĦÎ±Î¹
ĠæĿ ¥
ÎĻ Î£
ĠÐ¿Ð¾Ñģ Ð»Ðµ
ĠÐ¸ ÑģÑĤ
ä¹ °
ĠS outh
ic ar
Ġti empo
Ġr um
ĠO ver
ĠT em
ri ed
Ð°Ð½ Ð°
ĠIntern ational
Ġê± °
Ġh iá»ĩu
ĠUS D
Ġst an
Ġv u
Ġ7 3
iv il
ward s
Ġ} );
ÙĪØ± ÙĬ
ĠL at
áº¡ c
×ł ×¡
Ġest ar
ĠCl ub
Ġ7 9
Ġå¹ ¶
Î© ÎĿ
ìĸ ´ë
é Ń
he im
áĥĲáĥłáĥ Ĵ
è¶³ çĲĥ
is en
Ġk ons
og en
ĠáĥĽ áĥĺáĥ
ĠCl ass
Ġ9 3
Ġap pe
Ġf all
åĦ ¿
å®ī åħ¨
à¥įà¤ §
ÎĳÎ ¤
ag gio
Ġc ity
ĠR em
å®ī åįĵ
à®¿à®° à¯ģà®¨à¯įà®¤
Ġáĥĵ áĥ¦
Ġlo áº¡i
ĠF est
Ġ: -
Ġà¤® à¥Ī
à´ ¤
Ø± Ø§
Ġt uy
ul as
à¥į âĢį
à§įà¦ ¦
Îº Î±Î½
Ġfe ed
Ġà¦® à§ĭ
Ġt Ã¡c
ãģ£ãģ¦ ãģĦãĤĭ
g ing
ģà¸ ©
Ġà¦¸ à§įà¦¬
el as
ĠÑĤ ÐµÑĢ
Ø§Ùĩ Ùħ
Ġe urop
ÙĪ Ø§Ø¹
Ġt ÃŃnh
ĠT ags
Ġs le
Ġm iej
ĀĀĀĀĀĀĀĀĀĀĀĀĀĀĀĀ ĀĀĀĀĀĀĀĀĀĀĀĀĀĀĀĀ
à¹Ĥà¸ ¡à¸
Ġk g
Ġet ter
Ġà¸ ģà¸²à¸£à¸
Ġk im
I j
ĠáĥĽ áĥ®
in ho
ĠÐ½Ðµ Ð¾Ð±ÑħÐ¾Ð´Ð¸Ð¼
Ġus er
et her
ĠÐ° Ðº
Ø§Ùħ Ø¬
iz io
Ñı Ð±
Ġb Ã¡n
Ã ħ
ê· ¸
ĠÐłÐ¾ÑģÑģ Ð¸Ð¸
ÅĽ cie
d r
ĠØ¨ Ø§ÙĨ
Ġm ich
ĠÑĤ Ð¾Ð¼
å°± æĺ¯
j ak
ĠØªØ§Ø±ÛĮ Ø®
à¦¨à§įà¦¤ à§įà¦°
Ġk os
Ġ8 1
Ġam a
à¹ĥà¸ Ī
×¢ ×ª
¨ àµįà´
ĠØ³ Ø§Ø®Øª
ĠI r
à®ļ à¯įà®ļ
M P
à¦¾à¦ ¯à¦¼
ug u
ĠÏĢ Î±Î¹
Ġe p
elij ke
Ġ200 1
Ø± Øª
Ã¡ g
Ġìĭ ¤
ĠÐµ ÑīÐµ
unic ip
Ø§ÙĦ Ùĩ
ĠN eg
Ġexp ert
ĠáĥĹ áĥ¥
n ers
Ġle ad
ì° ¨
Ġà¦Ĩ à¦Ĺ
Ġmes mo
b s
à¯įà® ¨à¯įà®¤
Ð¾Ð¶ Ð´
Ġw atch
Ġperi od
à§ĩà¦ ·
Ġp emb
à¦° à§įà¦¤
ŀ à¸Ļà¸
ãĥ ļ
Ġà®ķ à¯ģà®±
å¤§ åŃ¦
el es
Ð² ÐµÑģÑĤ
l ah
Ġt Ã¬nh
Ã¸ y
ĠÃ§ Ä±
Ġà®¨ à¯Ģ
ĠD ist
z on
k k
ĠØ§ÙĨØª Ø®Ø§Ø¨
Ġab b
ÙĨ ÛĮÙĨ
ĠÐĶ Ð»Ñı
Ġz we
Ġ×Ĳ ×ł×Ļ
Ġaut res
à°Ĥà° Ĺ
Ø¹ Ø§Øª
ĠAl le
id ence
ĠÎ¸ Îµ
æ¬ §
åĽ½ å®¶
Ġmo Å¼e
Ð» Ð¾Ð¶
M L
ÐºÐ°Ñĩ Ð°ÑĤÑĮ
ĠS H
est r
çİ ¯
Ø§Ø¨ Ø·
Î¸ ÎŃ
ĠY our
Ġt ijd
Ġg ay
h ou
ĠìĽ Ĳ
Ġà®¤ à®®
¸à¸ ģà¸
ul an
Ġ} ,
æĸ¹ æ³ķ
er os
×Ļ×ł ×Ķ
emb ro
ĠØ³ ÙĨÚ¯
à°¾à° Ĺ
à®£ à¯įà®£
Ġc la
Q U
ĠÙĦ Ø£
Ã³ m
åħ «
Ġáĥ °
Ġvá» ĭ
Ñĥ Ð²
Ġke Ã§
Ġh indi
ìŀ ĳ
à¦® à¦¾à¦¨
Ġç Ł
Ĉ Ĉ
ÐµÐ½ Ð¸
Ġst ore
ch te
Îµ ÏĢ
Ġmarket ing
Ġm obile
åĵ ¡
×ķ× £
Ġ×Ĳ ×ł
ĠM ur
ĠÙĪ ÙĦØ§
ĠP el
ĠÃ į
ãĥ ľ
Õ¡Õ ´
Ïĥ Î¿ÏħÎ½
×Ĳ ×ª
ov ÄĽ
ur ity
b it
v at
ag t
áĥĲáĥłáĥ ¢
à¤ ³
Ġs iz
Ġfr ont
T S
em i
ĠIn s
ĠÑĤ Ð¾Ð³Ð¾
ĠÎ Į
w id
ĠéĢ ļ
Ġ×ľ ×Ľ
Ġ9 1
à¤¾à¤¹ à¥Ģ
à§ĥ à¦¤
b ang
Ã³ ng
ik o
Ġe uro
Ġdec is
è´ Ń
st aw
if f
k ar
T V
ĠA le
Î½Î¿ Î½
Ġis so
na j
ĠM c
Ġà¤¤ à¤°
ĠØ§ÙĦÙħ ÙĤ
7 1
l ement
áĥķ áĥĲ
ĠG esch
Ġc áº§u
ãĤĮ ãģŁ
åĢ Ł
Ġn ay
à ³
¡ à°¾
ÏĦÎ· ÏĤ
áĥ® áĥĿáĥķ
Ġil k
in ar
Ø± Ø³ÛĮ
ig os
à¦¾à¦ ĸ
Ġph ÃŃ
az z
ĠI hr
ĠÎł ÏģÎ¿
Ġob ject
ï¼ Ĵ
ĠÃ© ta
Ġæ Į
ªà¸²à¸ ¡à¸²à¸£à¸
ĠUn ited
ill o
Ġ= =
à®¿à®² à¯įà®²
æıĲ ä¾Ľ
±à¸ įà¸
Ġáĥ© áĥķáĥĶáĥľ
Ġsul la
ä½ĵèĤ² æĬķæ³¨
±à¸ ģ
ia p
Ø® ÙĦ
± ¼
à¤¤ à¤¿
Ġa inda
Úĺ Ùĩ
Ã§ ek
á»Ń a
Ġp ack
à© Ģ
q q
H otel
Ġd Ã¶n
un que
ific ation
à¤Ń à¥Ģ
ĠM Ã¼
Ġk art
Ġs ort
E K
Ġempres a
ett en
à¸Ńà¸ µà¸
ĠÙĪØ§ÙĦ Øª
ĠÐ¿Ð¾ Ñĩ
ĠS pe
ĠUn d
×ŀ ×Ļ×Ŀ
Ã ĳ
à¦¿à¦ Ĥ
ind ÉĻn
ur ance
er min
ic ia
Ġst ato
Ġfor um
Ġd ra
ĠB ed
ass er
íķ Ń
Î¯ Î´
end ing
Ġ×Ķ ×Ļ
on n
Ġà¸ Ĺà¸µà¹Īà¸
ãģĭ ãģª
Ġ ÅĻ
æĬ Ĭ
Ġabs ol
ij k
à¹ģà¸¥ à¹īà¸§
Ġe c
à±ĩà° ¦
Ġacc ord
à¯ĩ à®©à¯į
ĠØ® Ø§ÙĨ
Ø§Ø¦ ÙĬØ©
«à¸ ¥
åģ ĩ
-------- --------
Ġà¤ķ à¤®
ì² Ń
Ġal ong
ÏĦÎ¹Îº Î®ÏĤ
ĠC i
w as
ar en
Ġà®¤ à®¿à®°
ĠØ² ÛĮØ±
æ¥ ½
ÑĤ ÑĢ
Ġ' );
un es
Ì ī
re ib
Ã¶ l
Ġà°¤ à±Ĩà°²
ĠN ational
Ġbre ak
Ïĩ ÎµÎ¹
Ð°Ð» Ð¾
à±įà° ¦
i q
ĠÄĳ o
ĠÎĳ Ïħ
ä¹ ī
Äį ÃŃ
ĠS ampai
Ġt áº¡o
Ġy an
ç» ¼åĲĪ
à¸² à¹Ģà¸
ĠÄ ĥn
Ġp oco
Ġáĥ£áĥ ¤
ĠB R
Ġju Å¼
Ġst ory
å¸Ĥ åľº
ÏĨ Î±
ç« ł
Ġpre v
Ġà¦ħ à¦¬
k em
ĠÃ¶ ÄŁ
ĠUS A
at Ä±
ĠÚ¯ Ø±Ø¯
Ġad i
nÃŃ ho
éĵ ¶
Ùģ ÙĤ
ÐµÐ½ Ð¸ÐµÐ¼
Ïħ Î½Î±
at ro
à°Ĥà°¦ à°¿
Ø´ ØªÙĩ
Ġis e
Ķà¸ ¥
â Ķ
ë¬ ¼
ĠÐ¼ Ð¾Ð´
abil ir
Ð¾Ñı Ð½
pl ik
Îµ Ïį
à§Ł à¦¾à¦°
Ġd Ã¼n
ģ à¹Ī
ĠG el
Ġr ip
Î³ Î®
ff e
Ġd ÃŃa
og a
Ùİ ÙĨ
Ð½Ð¸Ðº Ð°
Ġcont ain
Ġt w
å¥ ĩ
larÄ±n Ä±n
Ġv ie
ĠM ah
å© ļ
y al
et as
è¯ Ħ
Ġë Ĭ
m ann
ĠÃ´ ng
ac ks
ĠÙĤ Ø³Ùħ
ĠÐ¿ÐµÑĢ ÐµÐ´
ĠF i
ê¸ ī
ĠMic rosoft
Ø· Ùģ
ri er
äº ĳ
ÙĦ Ø§ØŃ
ĠR os
Ġtel ah
us to
Ġmay or
ed es
ĠâĢ ª
ĠÕ ¯
Ġstand ard
ĠÑģÐ¿ Ðµ
Ð¼ Ñĥ
Ð°Ð» Ð¾Ð³
Ã³ b
ill es
Ġ×ĳ ×§
Ġs ak
ĠW as
ĠS ar
Ġà¤® à¥ĭ
Ġ à¸£
ÙĬ Ùĥ
à§ İ
å¾ ®
áĥ «
Ġm ap
ĠK ol
ëĤ ´
ÙĪÙħ Ø§ÙĨ
c le
ç» ľ
Ø§ÙĦ Øª
Ġz ar
an j
Ġh iz
æĬ ¤
ro du
Ð³ Ð¸
ÉĻ dÉĻ
ro u
Ġve el
k r
ow ane
Ã©c n
ĠÐº Ð°ÑĢÑĤ
ĠP ag
ĠÐ¾Ð½ Ð»Ð°Ð¹Ð½
Ġà¤ħà¤ª à¤¨à¥ĩ
ĠØ§ÙĦØ£ ÙĪÙĦ
ĠE uro
Ġb áº£n
Ø§Ø¦ ÙĬ
Ġto get
Ġà¸ Ķà¸
no ÅĽÄĩ
er apa
Ġu y
é» ĳ
ĠéĢ ģ
Ġn ed
ĠMar ch
çı ¾
Î»Î¿ Î½
ĠÐŁ ÐµÑĢ
ĠÙģ ÙĤØ·
ĠB it
Ġcl ub
ÐµÐ½ Ð½ÑĭÐµ
áĥĿáĥłáĥ ª
Ġoh ne
Ġst ay
Ġs os
×ĳ ×ķ×ĵ
×¨ ×Ļ
ĠJan u
d aki
Ġpor n
ĠÅ ł
Ġqu áº£
ĠL ong
ĠÐ¾Ñģ Ð½Ð¾Ð²
our ces
ick Ã©
Ġf ur
at os
en er
çī Ľ
Ġæ ĥ
ĠT our
Ġé £
ĠAf ter
ç» Ń
ĠgÃ¶ z
å¤ ±
à°¾à° ľ
Ġgi Ãºp
Ġant es
Ġà¤¸ à¥įà¤µ
ĠØ³ ÙĨ
áĥľ áĥĺáĥ¡
Î¼Îµ Î½Î¿
ĠP le
ĠÎ±Î½ Î¬
Ġpro ced
ØŃ Ùĩ
Ġæ ´
ÛĮ Ø²
ĩà¸ Ĺà¸
Ġinst it
Ġpr Ã¡
om as
Ø¹ Ø§Ø±
Ġpol ÃŃt
ast ic
ĠC O
Ð¾Ð» Ñı
ĠØ¨Ø±ÙĨ Ø§ÙħÙĩ
Ġà®® à¯ĩ
ĠÑģ Ð¾ÑģÑĤÐ°Ð²
Ġd ov
èĭ ¹æŀľ
ĠÑĥÑĩ Ð°ÑģÑĤ
ê° ģ
à§ĩà¦ ¦
Ġl oro
à¹Ĥ à¸Ļ
Ġá ł
ĠÙĨ ØŃ
a el
ĠìĤ¬ ëŀ
ĠÐ± ÑĢ
Ġn ada
Ġorgan is
Ġprost itutas
ĠÚ© ØªØ§Ø¨
ian te
Â ´
Ġà®ĩà®° à¯ģà®¨à¯įà®¤
B O
é£ŀ èīĩ
ÄŁ ini
çĹ ħ
ÙĪ Ø©
end s
lar da
ĠÐľÐ¾ÑģÐº Ð²
ĠF a
à¤ ¢
Ð¾Ñģ ÑĥÐ´
Ġtut to
ĠÎ´ Î¹Î¬
Ġà¦¤à¦¿à¦¨ à¦¿
Ġtar get
åĽ ´
Ġ×Ĳ ×Ŀ
ĠM es
eder land
à®¿à®© à¯įà®±
Ġbard zo
C D
Ġd á»ĭch
ĠØ± ÙĤÙħ
Ø±ÛĮ Ú©
Äħ d
iv ed
ĠØ® Ø§Øµ
ĠF eder
Õ¸ÖĤÕ© Õµ
all eng
Ġar be
ÚĨ Ùĩ
áĥĲáĥķ áĥ¨
ĠØµ ØŃ
Ġc it
er de
Ġà®ķà¯Ĭ à®£à¯įà®Ł
Ġà¤¸ à¤°
Ġhá» ĩ
áĥł áĥĺáĥ¡
ÙĲ ÙĬ
h ad
Ġj un
Ġav ant
d Ã¼r
í Ŀ
us a
Ġà¹ģà¸ ¥à¸°
Õ ¾
ĠÙħØµ Ø±
Ġíĺ Ħ
ĠÙħÙĨ Ø·
ĠÐ½Ð° ÑģÑĤ
Ġmod er
ro ve
ãģķãĤĮ ãģ¦
Ø§Ø¨ Ø©
ĠÐ² Ð¾Ð¿ÑĢÐ¾Ñģ
Ã¬ m
åł´ åĲĪ
ĠÄĳ áº¹p
Ġc ell
ĠÐº Ð¾Ð³Ð´Ð°
ĠI de
à¤¾à¤¨ à¥Ģ
Ġcon se
Ïĩ Î½
ĠÑĤ Ñĭ
al en
è® ©
Ġtoget her
ĠÂ £
ĠH u
Ø¯ ÛĮØ¯
ab an
Ġå¿ «
ĠáĥĽ áĥĹ
20 17
à§ģ à¦®
ĠÐŃ ÑĤÐ¾
Ãº mer
à±Ĥà° °
Ø¨ Ø§ÙĨ
Ø± ÙĤ
Ad visor
c ji
Ġdisc uss
B N
ĠP i
ĠE xt
Ġ? ?
Ø± Ø§ÙĤ
ÎĳÎ Ŀ
Ġtrans form
Ġc ant
ĠØ§ÙĬ ÙĨ
ĠS Ã£o
ĠÐ¸Ð½ ÑĦÐ¾ÑĢÐ¼
Ġper d
ĠInst it
ĠâĢ¦ .
Î»Î» Î·Î½
Ġv ai
Ġincl ude
Ġt we
Ġdig ital
ĠÐ»Ñİ Ð´
Ġan c
à¥ģ à¤¦
×ķ×ľ ×Ŀ
ÅĤ em
Ġve ya
í Ĺ
ĠÑģÑĤ Ð¾
Ġbah wa
nÃ© es
ÙĩâĢĮ ÙĩØ§ÛĮ
et h
ĠÐ° Ð´
Øª ÙĩØ§
Ġï¼ļ âĢľ
n ah
ĠAn al
¶ Į
Ġà¤ľ à¥Ģ
å¿ µ
ì ¸
Ġwh y
ĠS eb
ĠÙĩÙħ ÚĨ
Ġse em
Ġm and
ĠÕ ¸
ĠÎ® ÏĦÎ±Î½
Ġk end
ĠB or
ĠA uto
Ð½ ÐµÐµ
å¤ į
Ġb ers
ÅĤ am
Î¼Î± Î½
Ġå Ł
Ġ% ,
Ã§ e
8 9
Ġ11 0
Ùİ Ø§
Ġpro jet
Ġ×Ľ ×Ĳ
ĠÃ¼ zer
ĠãĤ Ĵ
els er
Ġcomm unity
à¤Ĺ à¥Ģ
Ġopt ions
ag ue
ãĥĨ ãĤ£
T I
åį Ĭ
it Ã¤t
èµ ¢
ãģ£ ãģ¨
Ø³Øª Ùĩ
Ð¾Ð²Ð°Ð½ Ð¸Ðµ
k ap
Ġsp raw
é ±¼
è ŀį
ĠB ew
çĻ¾ å®¶
ĠÐ´ ÐµÐ¹ÑģÑĤÐ²
ĠAmer ican
éĻ ¤
a ires
Ġtemp er
Ġs enza
h ir
Ġáĥ® áĥĶáĥļ
Ġ":" ","
Ø¯ ÛĮ
ÏģÎ¹Ïĥ Ïĥ
ac o
ĠB and
çĶŁ æ´»
Ġt ub
Ġf as
ev en
ì ¤ĳ
ĠW al
Ġ" >
ĠServ ice
ÏĥÎµ ÏīÎ½
ĠsÃ¶ z
Ø³ Ø§ÙĨ
ÑĢÐ° Ñī
Ġof ten
Ġà°ħ à°¨
Ġåĩ º
¤ Ģ
à§įà¦ ľ
Ġph áº§n
Ġc c
Ġval or
ĠÛĮÚ© ÛĮ
ĠÙĩØ³Øª ÙĨØ¯
ĠØ§Ø³Øª Ø§ÙĨ
Ġas ÃŃ
ĠC R
ier ung
ĠN orth
ç» ´
Îķ Î£
ĠÕ ¥
Ïĩ Î®
´à¸ Ķ
ĠÙĬ ÙĨ
ĠÅŁ ek
ÑĢ Ðµ
ĠF ar
x _
Æ° u
ĠÃ İ
ter ior
anb ul
Ġ×ĳ ×ł
èį ī
Ġà¤ Ŀ
¶ à¹Īà¸ĩà¸
8 7
æĬĢ æľ¯
Ġtemp s
Ġà°ķ à±Ĭ
ĠÑįÑĤ Ð¾Ð³Ð¾
ĠA tt
ĠØ¨Ø± Ú¯
Ġprincip al
Ġæ ı
S P
if est
er er
à¹Īà¸² à¸Ļà¸
ìĨ į
Ġ àª
ĠÐ» ÑĥÑĩÑĪ
olog i
Ġj ul
á»Ļ ng
ĠO pt
Ġpre fer
áĥĿáĥ Ļ
æŃ ¢
le p
ang en
ĠM ak
å¹ ¶
Ġà¤µ à¥įà¤¯
Ġcount ry
ab ly
Ġc Ã´
Ġch u
ÏģÎ¿ Î½
çĶ ³
Ġhá» ĵ
ĠCom ment
Ġà¦ķ à§ĭà¦¨
Ġcol lect
Ġth Ã¡ng
Ġc andid
Ġà® ¯
Ġ ÏīÏĤ
ĠM ult
ĠM ost
Ñĥ ÑģÐº
Ġå »
Ġgrand es
Ġáĥ¡ áĥ¢
ĠØ¨ ÛĮÙħ
×© ×ķ×ª
à±įà°² à±ĭ
ib les
ĠÎº ÏĮ
ay Ä±n
ĠÐ¼Ð°Ð³ Ð°Ð·
Ġà¦¹à§Ł à§ĩà¦Ľà§ĩ
Ġl id
Ġto pl
Ð½ Ð¸Ð¼
Ġè ħ
é ¥
ĠÑħ Ð¾ÑĢÐ¾ÑĪ
Ð¾ Ñħ
r ado
ĠN ow
Ø§Ø¨ Ø¹
es p
ÏģÎ¹ÏĥÏĥ ÏĮÏĦÎµ
Ïģ Î¸
à¯ģà® ª
ĠT witter
ĠÐĲ Ð»
æĭĽ èģĺ
à°¾à°¨ à°¿à°ķà°¿
Ġreg ul
ĠÐ±Ñĭ Ð»
Ġ% .
à© ĩ
ĠÙħØ¬Ùħ ÙĪØ¹
áĥĲáĥ ŀ
at ti
ĠÐ¿ÑĢ Ð¾Ð±
Ġd all
ëĬ ¥
ĠH ist
ï¼ ļ
ĠFor um
ĠÐ² Ðº
ĠS ci
ĠÐº Ð°Ð¶Ð´
Ġf an
Ã§ Ä±
åĩ ł
Ġb Ã©
ach e
Ġcont en
Ġa Ã±o
Ġè ²
ĠH ay
Ġdet ermin
Ġm ut
ĠN ord
n ic
Ġà§¨à§¦à§ §à§
C h
åº ·
ĠÐ±ÐµÑģ Ð¿Ð»Ð°ÑĤ
Ġsa ja
ev o
Ġà®µ à®¿à®
à°¿à° ®
ĠÎ Ĩ
Ġfaz er
ĠS pr
ĠæĹ ©
Ġstud y
ĠS um
Ġf on
fÃ¼ hr
ĠÙĦ ØŃ
é §
¸à¸ ķà¸
à° ·
¢à¸ §à¸
à°¿à° ¸à±įà°¤
ĠØ¨ Ø£
Ġmas k
ĠH om
à¤¾à¤¨ à¤¾
d at
is ing
×ĳ ×Ļ×Ŀ
ĠK ont
ĠP ass
Ġ7 00
é į
ri cht
ĠD ia
Ġçİ °
Î¾ Îµ
Ġall es
à¥ĩà¤ ľ
ĠØ§ÙĦÙħ ÙĨØª
Ġstr ong
çĶ £
un de
çłĶ ç©¶
Ġcent ro
áĥĿáĥłáĥ Ľ
Ã¶ z
ãĥĥ ãĥī
à±Ģ à°¸
ç¤¾ ä¼ļ
ĠØ§ÙĦØ± Ø¦ÙĬØ³
Ġres erv
Ġà®ī à®³à¯įà®³
Ġà®® à¯ģà®Ł
ĠØ¢ÙĨ ÙĩØ§
à§įà¦ ł
ce p
Y W
ą Ĉ
kl ad
Ġå ķ
Ã Į
Ã³ j
×¢ ×Ķ
ĠÄĳ iá»ĩn
ĠL ink
ĠT L
Ø´ Ø§ÙĨ
Ġà¸ Ľ
Ġà¦ķà¦° à¦¤à§ĩ
Ġon s
ãģĿ ãģĨ
Ġun til
ĠÄ° ÅŁ
in ce
Ø§Ùģ Ø¸
ĠEurop a
Ġç ¦
Ġë¶ Ħ
à®³ à¯Ī
ÙĦ ÙĬØ©
Ð¾Ñģ Ð¿
ÐµÑģÑĤÐ² Ð¾
ĠÎĶ Î¹Î±
ĠRed ir
Ð° Ñİ
Ġdec or
Ġar k
ĠØ´ Ø®Øµ
æľīéĻĲ åħ¬åı¸
Ġâĺ ħ
Ġwind ow
ÅĽ li
ĠÎ¤ Î±
ÅĻ i
Ø³ Ø³
ĠPa ul
ĠÐ½ ÐµÑĤ
m b
in ed
ĠØ£ Ø¹
Â «
á Ī
è¡¨ ç¤º
ĠáĥĽ áĥĲáĥĹ
ĠA lex
ĠAG çİ¯äºļ
Ùĩ Ùĩ
Ġh on
Ġa ud
Ġw ij
Ġç ģ
ĠÎº Î¹
ÅĤ u
ĠT u
us u
ĠÙħØ±Ø¯ Ùħ
Ġbeg in
é¡ Į
Ġperson as
ĠØ¢ ÙĩÙĨÚ¯
Ġpr ix
ĠT im
à· Ĵ
Ġí ĽĦ
up akan
Ġæµ ·
Î½Î· ÏĤ
in ation
Ġagain st
ĠC L
ãĤ Ģ
Ġf are
ĠW i
ĠÐ´ Ð¾Ðº
Ġch á»©c
Ġãģĵ ãĤĮ
or ies
k n
Ġçī ¹
ëį ĺ
ib li
ĠáĥĻ áĥĿáĥĽ
Ġà¤¸ à¥Ģ
ĠÙħ ÙĩÙħ
ot er
ĠÙĨ Ø¨
Ġpub bl
Ġma jor
ist an
Ðµ ÑģÑı
Ġåī į
Ġp ob
ÙĦ ÙħØ§ÙĨ
ĠE k
is ke
Ġl ater
lich t
Ħà¸¸à¸ ĵ
Ġà¦ıà¦ķ à¦Łà¦¿
ĠM B
ĠG alaxy
om men
Ø¨ ÙĬØ±
Ġhan ya
Ĺà¸µ à¸
äº Ī
Ġp Å¯jÄį
ĠÎ¼ ÏĮ
Ġqu anto
Ġà¤® à¤¿à¤²
Ġde y
Ġd one
ĠÎ½ ÎŃ
Ġs ido
Ġà¤® à¥ģà¤
Ġtah un
ĠØª Ø¹Ø¯
à¥Ĥ à¤ª
ĠØ¯Ø§Ø´ ØªÙĩ
ĠS C
à¤¦ à¥Ģ
å° ¼
Ġkh u
Ã©l Ã©
æŃ Į
Ĺà¸²à¸ ĩà¸
ur i
ĠÐ²Ð¸Ð´ Ðµ
ĠÐ· Ð°ÑĢ
Ġhav ing
ĠK ap
ĠãĤ Ń
a q
Ġa ver
f ace
ĠCent er
ãĤĭ ãģ¨
Ġà®¤à®® à®¿à®´
u we
ĠG Ã¼n
Ġb ott
Ġí İ
ãĢ į
ãĤ ¶
ĠS n
Ã¤ l
i ÃŁ
ĠØªÙĪ Ø¬Ùĩ
ĠEngl ish
um ento
à°¾à°¯ à°¿
Ġf ine
ä¾ Ŀ
ĠC Ã´ng
Ġth Æ°á»Ŀng
ĠÐºÐ¾ÑĤÐ¾ÑĢ ÑĭÐ¹
ĠÏĩ Î±
Ġtá» Ľi
ĠÐµ Ðµ
ĠG eb
à¦¾à¦¦ à§ĩà¦¶
áĥĵ áĥĶáĥĳáĥĲ
ĠØ¢ ÛĮ
Ġà°ª à±Ĩ
à§Ł à¦¾
z el
Ġpu Ã²
Îº Î¹
Ġêµ Ĳ
à¤¿à¤ Ł
Ġorig in
Ġil s
ĠII I
ÉĻ si
ĠÙĩ Ø¯
Ġse us
à¥ĭ à¤²
Ġà§ ©
ĠÄĳ áº¡i
b es
ĠÎĶ Î·
ut h
ĠR estaur
ĠÚĨ ÙĨØ¯
Ġ×¨ ×Ĳ
un c
à¦¿à¦ ľ
à¤¾à¤° à¤¾
à±ģà° ¡à±ģ
Ġà°¸ à°Ĥà°
Ġtrans port
é Ĭ
ĠT ri
íĻĶ ìĿ´íĬ¸
à¹īà¸²à¸ ĩà¸
Ġì ¶
press ion
ĠØ£ ØŃ
ÐµÑĢ ÑĤ
ÐµÑĤ Ðµ
Ġ= >
ìŀħ ëĭĪëĭ¤
Ġh ace
ÑĥÑĤ ÑĮ
Å¯ m
Ġáĥ¡áĥĲáĥ¥áĥĲáĥłáĥĹáĥķáĥĶáĥļ áĥĿáĥ¡
Ġt ÄĽ
Ġm Ã©
Ġb á»ĩnh
å¤© å¤©
áĥĵ áĥĶáĥĴ
emb le
æķĻ èĤ²
à¥ģ à¤¤
à°¾à° ¡à±ģ
ĠÎ±Î½ ÏĦÎ¹
æŃ£ è§Ħ
íĶĦ íĻĶìĿ´íĬ¸
ire d
ent en
ba ar
Ġh ours
im p
Ġy e
Ġe er
ĠV ia
à¨ ¿
Ġs og
ĠØ§ÙĤ ØªØµ
cy ch
łà¸²à¸ ŀà¸
Ðº Ð¾Ð¼
Ġc ad
à¦¾à¦ķ à¦¾
Ġm ie
Ġyap Ä±l
×Ļ ×ķ×Ł
Ġæīĭ æľº
æĻ ®
ash ion
ĠÃ©ta it
Ġà®µà¯ĩ à®£à¯įà®Ł
á»Ł i
Ñı Ð¼
à¦¾à¦¨ à§ĩ
irs iniz
íķľ ëĭ¤
ëĵ¤ ìĿ´
ĠM ess
Ġãĥ ©
Ġ×ľ ×ª
è¾ ¼
Î¯Î½ ÎµÎ¹
Ùĥ ÙĪÙħ
Ġal go
ĠV ous
à°¾à° ¸
ĠìŀĪ ìĬµëĭĪëĭ¤
å± ŀ
Âµ ÃĦ
à¦¿à¦ ¯à¦¼
ĠAn n
áĥĺáĥľ áĥĲ
Ð°Ð»ÑĮ Ð½ÑĭÐ¹
èĻ İ
aÃ± a
æĻĤ éĸĵ
å¾ ħ
c as
ĠH P
Ġgi áº£i
à¯įà® °
Ö ·
ĠH el
ĠB ra
à¦¾à¦¤ à§ĩ
à±įà°² à±ģ
f ahr
Ùģ Ø§Ø¹
T ype
×ŀ× ©
Ġãĥ ĳ
Ġdis e
Ġtr ang
Þ ¦
Ġãĥ ª
Ø§ÛĮ ÙĨ
lÄ±ÄŁ Ä±
åį °
Ġen er
Î» ÎµÎ¹
Ġv Ã¦re
à¦ľ à¦¨
åº §
h ib
Ġso us
ament os
Ġé Ł
Ġn ight
áĢ ¬
ÐµÑĢ Ñĭ
Ïĥ Î¹Î±
ec a
Ġg ÅĤ
èª ī
enc ont
Ġsp ace
ÑıÑĤ ÐµÐ»ÑĮ
um i
èĩ ´
Ġmemb ers
Ġà¤¤ à¤ķ
ĠÙĨÛĮ Ø³Øª
Ġho áº·c
Ð¾ÑĢ Ð¾Ð²
æĹ ı
ĠåĽ ł
Ġl it
Ġ ãģĦ
æĸĻ çĦ¡æĸĻ
à¤¾à¤° à¥ĩ
ĠØ³ Ø§Ø¹Øª
à°ķà±įà° ·
Ġà° «
Ġd ic
Ġp ict
ĠK le
ĠØ± ÙĪØ´
ĠGro up
Ġse a
ĠF em
Îķ Î¡
åĢ į
I J
Ġa ction
ĠÑĢ ÐµÐº
Ġdevelop ment
j our
ĠÃ Ĥ
×Ĺ ×ª
Ïģ Ïħ
Ñı Ñī
Ġà¤¬ à¤¾à¤¦
Ġâ Ĥ
ĠS anta
ĠS ist
Ġresp ect
Ġposs ibil
ĠR od
Ġr end
Ġ9 00
ĠN r
ĠP ubl
ãĥ³ãĤ ¿
ĠÑĤ Ð¾Ð²Ð°ÑĢ
ĠÅ ļ
ĠÎº Î¬Î½
Ġ à¸Ļà¸
Ø® Ø¯Ø§Ùħ
20 18
b ook
Ġà¸ ļà¸Ńà¸¥
ÙĪÙĨ ÛĮ
à¯ĩ à®ļ
ag n
ĠÐĲ Ð²
ĠO g
Ġ7 1
pl a
in si
Ġv ÄĽ
ens ive
ãĥ» ãĥ»
ĠJ es
e ur
Ġgiá» Ľi
áĥķ áĥĺáĥĹ
er ca
Ġm Å¯
ĠØª Øª
Î»Î» Î·
ER S
ĠE ste
ĠCas ino
ĠÙħ Ø§ÙĨ
Ġph Ã¡p
å¿ ľ
Ġtra vel
Ġv Å¡e
od u
Ġf i
Ġc ateg
y an
Ġh old
Ġë ĺ
Ġst ron
ĠbÄĻd zie
Û° Û°
áĥĶáĥ Ļ
ìĻ ¸
Ø¨ Ø¹
ĠÙĨ Ø³
ÙĦ Ø§Ø«
Ġmen c
çµ Ĳ
ĠaÃ§ Ä±
Ġà°ļà±ĩà° ¸
az ar
ĠA V
ĠAm azon
à¥ĭ à¤ķ
Ķà¹īà¸§à¸ ¢à¸
Ġd Ã¹ng
ªà¸ ³à¸«
ĠK a
ĠÚ©Ø±Ø¯ ÙĨ
ãĤĵ ãģ§
Ġa ÄŁ
Ġ×Ļ ×ķ×ª×¨
Ġit o
ĠëĲ ĺ
å¿ Ĺ
Ġà° ¯
ĠÐļ Ð¾Ð¼
à±ĩà° ¶
Ġà¤² à¥ĭà¤Ĺ
à®± à¯įà®ª
à¤¾à¤ ĵ
·à¹Ī à¸Ńà¸ĩ
Ġth o
Ġj i
à± ĥ
ES S
wo od
Ġç µ
ÑĢÑĭ ÑĤ
Ġk ul
éĻ Ĩ
æĺ ¥
Ġà¤ª à¥Ĥ
Ġa ÅŁ
re c
Ġg eld
Ð½Ð¾Ð¼ Ñĥ
Ġãĥ Ī
at as
Ġ, -
Ġ' :
ĠD oc
ag ne
ent ar
ĠÄ° st
ure d
Ġrec on
Ķà¸´à¸¡à¸ŀà¸ ±à¸Ļà¸
Ġ18 0
íĺ ķ
à¸Ļ à¹īà¸
ĠD ay
à¹ĥà¸«à¸ ¡
ĠÎ± Ïĥ
Î¼ÏĮ ÏĤ
ess ion
Ġb aj
iá» ħn
Ġf ield
ĠáĥĻ áĥĺ
Ġver b
áº© n
Ġro l
Î» Ïħ
Ġlá»Ľ n
ig u
Ġinc ont
ill as
Ġk áº¿
Ġex tre
Ġtr á»ĭ
à¯ģà®® à¯įà®ª
ang g
æ¼ ı
ĠáĥĽ áĥĲáĥ¡
æ² ¹
à¹Īà¸²à¸ ĩà¸
à¹ĥà¸ Īà¸
ĠÎµ ÏģÎ³
ãģ¡ ãĤĥ
Ð» Ð¾Ð²
U C
ig ur
Ġdel iver
åķĨ åĵģ
ĠÅĽ wi
ĠæĪĳ ä»¬
åĨ ł
Ġinvest ig
h os
ĠÐ² Ð°ÑĪ
Ġba ik
ĠØ¨ Ø²Ø±
Ġr ele
Ġf Ã¥
Ġ: #
ĠHo use
×¢ ×ķ×ª
ma q
ĠH ier
æŀ Ħ
ĠÃ ħ
Ð¾Ð» Ð¾Ð´
ãĥ¼ ãĤ¯
à¤¾à¤ ·
åĪ Ļ
Ġà¤ķ à¤¹à¤¾
Ġ×ŀ× ŀ×
ĠAl t
8 3
à°¤ à±įà°¤
ÙĨØ¯ Ú¯ÛĮ
ä» ½
k il
ç½ĳ ä¸Ĭ
Ġäº Ķ
ĠAd d
Ġc ro
Ġc v
ãĥķãĤ ©
à¥Ģ à¤ļ
Ġbr ing
æ¸ ©
ud ad
à¦ª à¦°
Ġte ach
ĠáĥĽ áĥĿáĥĽ
ov Ã½
j ÃŃ
Ġd Ã¼
Ġs ays
Ġe as
ĠS z
ĠO R
Ġmis mo
æĶ¿ åºľ
ĠK n
Ġim ag
Ġog ni
à®ķ à¯į
ab ile
ĠM ass
Ġáĥ¡ áĥĲáĥ¡
ĠÐº ÑĥÐ¿Ð¸ÑĤÑĮ
Ġm g
ĠÃ¡ n
Ġà®ļà¯Ĩà®¯ à¯įà®¤
Ġà¤° à¤¹à¥ĩ
ĠØª Ø®
ĠÎ ¯
è´ £
ĠÏĢ ÏģÏİ
ĠOr ig
ķ àµįà´
Ġsp an
ë° ľ
ĠØªØŃ Øª
Ġpl ant
äºº æ°ĳ
Ġan ak
à§ģ à¦ķà§įà¦¤
Ġre pl
el ik
_ id
ĠØªÙĪØ³ Ø·
Ø Ł
ĠÙĩÙħ Ùĩ
ak u
à¦¾à¦ ¥
ģà¸²à¸£ à¹Ģà¸
à¸£à¸²à¸ °à¸
uj c
ĠÑģ Ð¾Ð·Ð´
Ġph otos
ĠÎ± ÏģÏĩ
Ġpre d
Ġæ¶ ĵ
ĠJ une
ĠD it
z ÄĻ
è¡ Ģ
å± ħ
an cia
auf en
ĠÏĩ ÏģÏĮ
Ġme ans
s ide
á»į ng
Ġre v
ĠÐĿ Ðµ
Ġqu ick
ÑĨ Ñĭ
ĠU K
×ĳ ×Ļ
ĠMar ia
ĠÑĦ Ð¾ÑĤ
çĶµ åŃĲ
ers e
j ek
Ùĩ ÙĪØ±
Ġg ast
ĠC P
Ġë° °
áº§ m
Ġp unt
ÏĦÎ· ÏĥÎ·
ç»ı æµİ
Ġs ama
Ġp ant
ĠN ederland
Ġr Ã³w
ĠSp ec
æŃ »
ģà¸ ±à¸Ļà¸
c am
à¤¾à¤ ¶
Ġè¦ ģ
ĠØ¨Ø± Ø®
Øµ Ø©
ĠPro t
ĠØ¯Ø§ÙĨØ´ Ú¯Ø§Ùĩ
ãģ ĸ
el eri
ĠK an
ÐµÐ½ Ð½ÑĭÐ¹
Ġquest ions
is o
Ġë Ĩ
ë ¸
ĠF R
Ð³ Ð¾ÑĤÐ¾Ð²
Ġìł Ģ
Ġà° ¡
à¹Ĥà¸ Ķà¸
à±ģà°Ĥà° ¦à°¿
ĠCol le
Ġâ ŀ
Ġcl os
Ġth ing
Øµ Ùģ
d s
ĠCo unt
ìł Ĳ
j al
ĠM em
ĠáĥĲáĥ ķ
Ġnh iÃªn
ĠM A
åħ ħ
Ġï¿½ï¿½ï¿½ï¿½ï¿½ ï¿½ï¿½ï¿½ï¿½
E G
Ġpre cis
Ġein fach
ĠInd ia
æł ¹
Î» Î¿Ïħ
ìĹĲ ê²Į
ĠQu á»ĳc
«à¸ ¡à¸²à¸
Ġsu o
urs os
ì ¶
ì µľ
Ġëħ ¸
ĠåĴ Į
Ġë ¦¬
Ð»ÐµÐºÑĤ ÑĢ
ìĦ ¤
ĠP ot
Ð¸ÑĩÐµÑģÐº Ð¸Ðµ
è¾ ĵ
è¯ Ń
Õ¸ÖĤ Õ¶
Ġcent er
ä¸ ¾
ÑĦ ÑĦ
Ä ŀ
Ġà°® à±Ģ
Ø± Ø¬
Ġaut hor
åĢ Ļ
Ġindust ri
ĠçĶ Ł
èŃ ¦
wer k
ĠÎ¼ÏĢÎ¿ ÏģÎµÎ¯
Ġgeb ruik
ĠÏĢÎ± ÏģÎ¬
×ľ ×ª
ĠÐ° ÐºÑĤ
st it
at if
Ġ" )
ler ini
Ġk osten
ì ½Ķ
ent ion
ĠØµ Ø¯
Ð¾ Ð½Ñĭ
z ioni
«à¸£à¸ ·à¸Ń
ë£ Į
Ú© Ø±Ø¯
Ġm ua
é¦ĸ é¡µ
åľ Ł
çĶµ æ¸¸
Å¾ it
Ġsa o
áº ³
Ġà¦Ĺ à§įà¦°
ĠØ·Ø± ØŃ
ĠÐ½ ÐµÐ¿
l ama
s ze
Ġl ing
Ġfiles _
Ġph oto
z em
Ġz or
ĠÏĮ ÏĢÏīÏĤ
Ġon ze
ĠD ol
ĠÐĲ ÑĢ
Ġbeaut iful
w ick
row n
ĠA nh
ĠZ o
Ã¤ s
ild ir
ĠÐ· Ð°Ð±
ĠF amil
Ġke h
ĠÑĢÐ°Ð±Ð¾ÑĤ Ñĭ
ĠØ¬ Ø²
ĠS un
Ð°ÑĤ Ð¸Ð²
al is
Ð¾Ð» Ð¾Ð²
Ã© p
Ġ×ķ ×Ľ
Ġpres idente
it ure
áĥĲáĥ «
ĠÛ µ
Æ° ng
ç¯ ĩ
ãĥª ãĤ¢
Ġg ed
Ġact ual
ĠØ®ÙĪØ¯ Ø±ÙĪ
Ġad ult
iet y
O U
Ġwh ite
Ġcáº£ m
ĠÐ¾ÑĤ Ð½Ð¾
×¤ ×ª
ĠâĦ ¢
b b
Ġä» İ
Â ²
Ġà¦ķ à¦®
å»º è®¾
} ,
ĠÐ¼ÐµÐ½ Ñı
ãĤ¤ ãĥ³
ĠO N
á»į c
Ø±ÙĪ Ø¹
ĠØ®ÙĪ Ø§ÙĩØ¯
Ġp il
Ġse par
ĠÃ Ĳ
à¥ĭ à¤Ł
ĠÙĪ ÙĦÙĥ
B C
à¦¨ à¦¿
Ġå¹ ³
Ġv eg
ĠS A
Ġë°Ķ ì¹´ëĿ¼
å¤ĩ çĶ¨
Ġde ve
ãģı ãģł
ab i
I AN
Ġl leg
äº ¿
ç´ Ħ
ĠÎ± Îº
íĥ Ŀ
Ð¸ÑĤ ÐµÐ»Ñı
v id
ĠðŁ ĺ
Ġs ad
áĥĺáĥ¨ áĥķ
í ĳľ
Ġke ine
Ġide al
á» ¹
c ciÃ³n
Ġc Ã¡i
Ġc od
ÐµÐ½ÑĤ Ð¾Ð²
Ø§Øª ÛĮ
ett re
ic ol
ĠÐ¶ ÐµÐ»
Ġè ¥¿
ĠÐ¿ÑĢÐ¾Ð³ ÑĢÐ°Ð¼
Ġde al
ĠØ¨Ø¯ ÙĪÙĨ
Ġinn ov
áĥłáĥ «
Ġg ol
ĠU ne
ĠM ill
Ġbec ome
Ġ×© ×ł
ÏĦÎ¹ Ïĥ
Ġè Ĥ
Â ¹
Ġà¤Ĩ à¤£
I X
ĠSoc ial
ĠNo us
ķà¸ ´
Ġa os
Ġåı ĳ
re ady
è¾ ¹
Ġmak es
ÙĪÙĦ Ø©
v d
ĠBus iness
ļ à¸µà¸
Ġne i
Ġ à¸£à¸
áĥĲáĥª áĥĺ
Ġmill ion
l og
Ġà¦¸à¦® à§įà¦ª
Þ¦ Þ
§à¸ ¥
Ġinv ol
ĠG ew
ĠT ek
Ġà°ķ à±ĭ
ìĹ Īëĭ¤
Ġà¦¸ à¦¬
åı Ī
¸ ı
um in
ĠI d
Ð°Ð»ÑĮ Ð½Ð¾Ð³Ð¾
ç§ ģ
ĠÙħØ¬ ÙĦØ³
Ġ. [
ç· ļ
p m
Ġ áº£nh
á» Ľ
o ch
ìłģ ìĿ¸
Ġè ģ
ĠíĮ Į
ĠíĶ Ħ
Ġi be
ĠéĿ Ĵ
ĠÙĨ Øª
Ġmer upakan
Ġë ¡
à¥ģ à¤ª
×ĵ ×Ķ
op h
ÙĨ ÙĬÙĨ
ĠÎ´ Ïį
Ġz ich
à±įà° ķ
Ġà¹Ģà¸ ŀà¸
vo or
ang i
ĠP H
ov i
Ãª t
ĠL og
ĠÑĢ ÑĥÐº
ĠØ³ Ø±ÛĮ
Ġol un
Ġcomm unic
ĠÛ ´
ĠI V
Ġsp o
à¦ ·
sk ie
Ġil g
Ñı Ð½
Ġcomp an
æĭ ¿
ĠÙĨ ÙĪØ¹
Ġman agement
Ġdo anh
Ø² Ø©
æ£ĭçīĮ æ¸¸æĪı
ĠCont act
ÃŃ l
éĻ į
à®¿à®° à¯ģà®ķà¯įà®ķ
Ġå Ģ
ĠN atur
ÏģÎŃ ÏĢÎµÎ¹
ĠÙĪØ§ÙĦ Ø£
ĠØ§ÙĦ Ø¨Ø±
Ġj us
Ġìļ° ë¦¬
å® ģ
Ġl iter
Ġx em
ï »¿
Ġà¹Ģà¸ ¥
Ġà°® à°°
Ġibe x_
ro f
Ġà¹Ĥà¸ Ľà¸£
Ġvers ion
ĠA li
Ð¸ÑĤÐµÐ»ÑĮ Ð½Ð¾
Ġperform ance
ĠS om
ĠD EL
ìĭ ¬
uz ione
ĠØ¹ Ø±Ø¶
çķ ¥
Ġf akt
Ġar g
Ġ ä½ľ
ĠM r
ÙĨØ¯ ÛĮ
ĠÙĨ ÙģØ³
ç¡ ®
Ð¸ÑĩÐµÑģÐº Ð¸Ñħ
ĠH or
å¯ Į
Õ¡Õ ¿
Ġà¦¯ à§ĩ
Ġel eg
Ġa plic
Ġlim it
Ġ×Ķ ×Ļ×Ķ
æ ¦
áĥ£áĥ ¡
ĠÐ¾ Ð³
ĠFl or
Ġdies er
Ġáĥ¡ áĥ®áĥķ
ĠØ¯Ø§Ø´ Øª
æī ¹
Ġ Å¼y
ÐµÑĢ Ð³
ĠÑĢ Ñĭ
éģ İ
Ġ{ "
ĠG ran
Ä±y la
Ġbeb erapa
ĠK it
à Ń
¬ áĥ§
Ġdis p
Ć ï¼Į
¢ à¸Ńà¸
Ġä¸ ĩ
ĠM AR
ĠÐ³ Ð´Ðµ
Ġë¬ ´
ÙĲ ÙĨ
ĠâĹ ı
Ġthá»© c
Ġqu Ã¡
ĠB ol
hal ten
Ġà¦¬à¦¾à¦Ĥà¦² à¦¾à¦¦à§ĩà¦¶
ĠM S
x ico
Ġf uer
Ġf ix
áĥĲáĥļ áĥ£áĥłáĥĺ
çĽ ĺ
ĠéĤ £
Ġ| |
Ġapplic ation
k ur
Ġé ĵ
ation en
ĠO per
Ġten er
Ġpr int
ÙĪ Ø§ÙĦ
is ed
ĠØ³Ø§Ø² ÙħØ§ÙĨ
b ers
à®¤à¯įà®¤ à¯Ī
íķ© ëĭĪëĭ¤
uts che
ĠÐ³ Ð¾ÑĢ
à¯įà®ķ à¯įà®ķ
Ġs pl
Ġà®ħ à®©
Ġz ona
´à¸ ĩà¸
ĠT emp
ann ing
Ġcl ose
ãģĮ ãģĤãĤĭ
ĠÑħ Ð¾ÑĤ
ha us
Ø§ØŃ Ø©
Ġconc ern
ãģ«ãģ¤ ãģĦãģ¦
ĠØ¬ Ø§ÙĨ
Ġch á»įn
Ã¡ b
Ø§ØŃ ÛĮ
Ġo ct
Ø¨ÙĬ Ø¹
Ġè ½
Ġl ek
ĠpÅĻ i
ai ent
è¯ »
×ŀ× ¦
Ġg ente
ìĶ ¨
m at
Ġgl obal
ĠN ike
à¦¤ à¦¾
Ġè ¾
Ð°Ð· ÑĭÐ²
ÙĬ Ø·
s b
ģà¸ ¡à¸
Ġs yst
Ø¹ ÛĮ
ÑĪ Ðµ
un j
Ġs ale
Ġge z
Ġav oir
à¤ķ à¥įà¤¤
ar ning
çº ¦
ãĥĥãĤ¯ ãĤ¹
èµĮ åľº
ĠãĤ Ĥ
ĠáĥĽ áĥĿ
Ġç§ ģ
ĠØ¨ Ø·
Ð½ Ð¸Ð¹
Ã¼ hr
out ube
ir an
Ġleng th
iá»ĩ m
est ra
ĠÑģÐ² ÑıÐ·
Ġëĺ Ĳ
ĠSt art
çĽ Ĭ
ªà¸ ¹à¸
Ġf arm
Ġãĥ Ĺ
ĠC our
Ġà¤® à¥ĩ
é ¨
§à¹ĩà¸ ļ
Ð¼ ÐµÑģÑĤ
ens ch
ãĤĪãģĨ ãģª
à§ģ à¦¬
iss en
ĠrÃ© g
ra it
à¨ °
ord en
ĠL uc
ĠH Ãł
ÙĩâĢĮ Ø§ÛĮ
Ø® Ø¯Ùħ
ĠÏĢÎµ ÏģÎ¯
ĠD VD
áĥĺáĥ ¥
Ã¼t Ã¼n
ĠÐ» Ð¸ÑĨ
çĽ ĳ
ess a
ĠÎŃÏĩ Î¿ÏħÎ½
×Ľ ×ķ×ľ
ĠÙģØ¹ Ø§ÙĦ
áĥł áĥĿáĥ¡
ĠUn tuk
Ø¯ Ùī
ĠØ¢ Ø±
lÃ¼ m
ì¶Ķ ì²ľ
à®©à¯įà®± à¯ģ
Ħà¸£à¸ ·à¹Īà¸Ńà¸ĩà¸
ĠK ing
Ġg egen
çĤ º
ĠÐ¼Ð°ÑĤ ÐµÑĢÐ¸
Ġo thers
áĥĿáĥ ¢
ĠáĥĹ áĥĲáĥľ
Ġæ° ´
Ġsol id
ĠSm art
ÑĨ ÐµÐ½
Ð°Ð»ÑĮ Ð½Ð¾Ð¹
×¨ ×ĺ
à±įà°¨ à°¿
ĠØ³ ÙĦØ§Ùħ
Ġch uy
ĠB ud
oc ol
ĠM ater
ĠÙħÛĮâĢĮ Ø´ÙĪØ¯
ĠK Ã¼
à¤¾à¤ ł
åĩ »
ri z
èª ¿
¯ à§ĭà¦Ĺ
éĢ £
å ª
ãĤģ ãģ¦
Ø² ÙĬ
Ġz as
Ġfut ure
à°¾à° ¡
Ø§Ø³ Ùħ
Ð½Ð¾ÑģÑĤÑĮ Ñİ
ĠR uss
ĠH all
Ġmin ist
ĠRe ad
Ġ" );
Ġme an
ĠTrip Advisor
Ķà¸¥ à¸Ńà¸ĩ
ĩà¸ ´à¸Ļ
Ġocc as
ĠR oma
ãģ® ãģĭ
ĠÑĨ Ð²ÐµÑĤ
Ġç¥ ŀ
Ġt eng
ĠÐŀ Ð´
ĠS S
ĠØ£ÙĨ Ùĩ
Ġà¦ħ à¦Ń
Ġy Ãªu
Ø§Ø¨ Ø±
Ġåį Ĺ
ĠH owever
ÑĢÑĥ Ð¶
Ð¼ ÐµÑĤ
áĥĶáĥ ĸ
Ø¬ Ø§Ø¯
ĠL ie
ot ti
R L
8 2
ĠM use
Ġà¤ Ĳ
à¤¾à¤ §
Ġæ į
Ø³ ÙĦØ§Ùħ
ĠÃ§ ox
Ġr ange
Â ¨
à®¾à® ķà¯įà®ķ
áĥ£áĥ ¨
Ġdr ug
Ã´ m
Ġå¹ ¿
m ir
ĠAl b
i qu
ĠV iew
ĠA qu
ë¥ ¸
Ø§Ø³ ÙĬ
Ġh ari
Ġv ec
ãĤĪãģĨ ãģ«
ĠG al
it im
ov al
und s
art amento
E B
ord an
Ġkter Ã½
Ġb ude
ĠX X
Ġáĥ£áĥ Ļ
Õ ½
Ġáĥĺáĥ§ áĥĿ
ĠSh op
ĳ åħĭ
«à¸Ļ à¹īà¸²à¸
ell ik
ĠÙĥØ§ÙĨ Øª
Ð¿ ÐµÑĢ
ĠWh ite
ĠÏĢÎµ ÏģÎ¹ÏĥÏĥÏĮÏĦÎµ
8 4
ì ¶ľ
Ú¯ÛĮ Ø±ÛĮ
ĠN ap
Ġal iment
E X
Ġì Ī
ĠâĨ ĳ
Ġæ ¥
ok o
ĠTr ung
à¦¿à¦ Ľ
ri ch
Ã³ Å¼
Ġmemb uat
Ø¬ Ø¯
ĠM ov
Ġwer k
åģ ¥
u ent
ĠP s
à¦¿à¦ ª
ÐµÐ³ Ð¾Ð´
Îº Î®
Ø² Ø§ÙĨ
Ġà¤īà¤¨ à¥įà¤¹
Ġd ere
Ð¾ÑģÑĥÐ´ Ð°ÑĢ
Ġal ready
ens a
ĠU lt
v ille
ĠØ§ÙĦÙĤ Ø±
Ġä¸ »
ĠÑģÐ¾ Ð¾Ð±Ñī
um s
Ġcom fort
ĠOp en
èī º
pl o
ĠÐ¸ ÑģÐº
Ġæī Ģ
×Ļ× ŀ×
at el
ĠãĢĤ ãĢĤ
Ġsel f
à¦¨à§įà¦ §
Ġt áºŃp
Ġen ough
Ø´ Ùħ
omb res
Ġ×ľ ×Ļ
ÎµÎ¯ Î¿
b ie
» ¤
ĠÙģ ÙĨ
Ġd z
ĠT al
Ġë§ İ
ĠÐ¿Ð¾Ð¼ Ð¾Ñī
Ġg ames
ĠE D
ĠØ± Ø¦ÙĬØ³
Ġv in
Ġp urch
ÏĦ Ïģ
Ö ´
ÐµÐ½ Ð½Ð¾Ð¹
ite it
ÏĦÎ¹Îº ÏİÎ½
åĪĨ æŀĲ
Äħ Å¼
Ġc á»©
ĠG ir
Ġm igli
Ġk az
à¤¾à¤² à¤¾
à¤° à¤¾
åĨ µ
ĠScar pe
Ġà¦¦ à§ĩà¦¶
ĠV en
ch an
è³ ª
sk iego
ec i
ĠP ed
ĠB L
ar kan
G R
Ġà¦¸ à¦°
ĠÐ¡ Ð¿
ãĥ¼ãĤ ¿
Ã¡ vel
Ġt ap
á» Ŀ
Ġot ros
Z W
Ġz elf
ik ip
im ana
ĠëĮĢ íķľ
ĠÙĨÙħ Ø§ÛĮ
à¯Īà® ªà¯į
ac je
ani u
Ġcon fer
íķĺ ìĹ¬
ot en
d d
×¤ ×©×¨
Ġíı ī
ĠáĥĴ áĥķ
Ġê³ Ħ
éĶ Ģ
Ùģ Ùĩ
ĠØ¨Ø§Ø² Ø§Ø±
à®¿à® ¨à¯įà®¤
à¶ ±
ĠÏĢÎ¿Î» Ïį
Ġlin ks
ĠBar celona
Ã³ ria
is an
áĥĿáĥł áĥĺáĥ¡
ĠR en
Ġc oc
u ff
Ġà¤¬ à¤¹
ÏĢ Î¯
áĥĺáĥ ¤
Ġv z
Â ¿
Ġpen y
± ħ
ĠSch ool
ul s
ip p
Ġà®ķ à¯ĩ
zi ÄĻ
ãģĹ ãģĭ
ĠØ£ Ø®
æķ ħ
Ġhaz Ä±r
Ġà¤ķ à¥ģà¤
Ġad min
à®¿à®¯ à®¿à®²à¯į
ÙĬ Ø§ÙĨ
Ġv áº«n
Ġfun cion
ĠBaÅŁ kan
à¤¾à¤ Ł
àµį âĢį
Ġest Ã¡n
×ĸ ×Ķ
ÐºÐ° Ñħ
Ġdent ro
ĠB ad
ĠD ata
Ġtaraf Ä±ndan
Ġy ok
Ġded ic
ĠG old
ÏĦ Ïİ
uy or
w ort
Łà¸ ¸à¸ķà¸
Ġ×ŀ ×Ļ
ĠF ab
h s
Ġpr ior
à¤Ĥ à¤ļ
ĠT re
Ġger Ã§ek
an ne
Îº Î¬
Î´ Îµ
Ġåľ °
Ġto da
Ġcom ments
ĠG reen
ÃŃ an
ier o
ĠØª Ø·
Ġpart ner
ĠGr up
Ġ... ..
Ġa ug
ç Ĵ
é ²
ÙĤ Øª
Ġadd ress
Ĭ à¸µà¸
ĠAust ral
Ġsever al
Ġf ire
à´ °
Ġà®İà®© à¯įà®©
¢ ħ
×¡ ×§
Ġ ell
Ġs ter
×ķ×ł ×Ļ
ĠÙĪÙĩ ÙĪ
Ġcom es
ett es
Ø¨ Ø§
å¤ ®
r Ã¤
Ġa ko
å¼ ł
ĠØ® Øµ
ĠÙħÙĪÙĤ Ø¹
åĶ ®
ĠÙĨ ÙĪ
Ã¡t ica
åº ķ
Ġà®¤ à¯Ĩà®°
Ġ% )
ÏģÎ¯ Î¶
à±įà° ¥
ĠÑģ Ð¾ÑģÑĤ
d ar
ĠE X
«à¸ ¥à¸²à¸
Ø±ÙĪ Ùĩ
ion en
Ġt Äĥng
ĠG B
ĠolduÄŁ u
áĥł áĥĺáĥķ
ĠÑıÐ²Ð»Ñı ÐµÑĤÑģÑı
ÐµÐ½ÑĤ Ð°
ĠÑĩÐµÑĢ ÐµÐ·
k or
Ġhist or
Ġi yi
éĩį è¦ģ
i Ã§Ã£o
ÑĥÐ± Ð»Ð¸
è£ ½
Ġà°¸ à°®
Ġà®ķ à¯ĭ
ĠÐ» Ð¸
Ġbel ow
Ð¸Ð± Ð¾
Ġé ļ
Ġmet hod
Ġh ref
ĠJul y
Ġìĺ¤ íĶĦíĻĶìĿ´íĬ¸
Ġmat ch
Ġprobl ema
ĠK ab
Ġcompl ete
è Ľ
ru ck
Ġb ran
Ġth i
Ú¯ Ùĩ
ĠãĢı ãĢİ
all er
ĠâĢ¦ âĢ¦
Ġch er
ĠM ujeres
ÏĦÎ¹Îº Î¿Ïį
ÑĨ Ð¸Ð¹
ĠG et
Ġcom er
æ ½
Ġth á»§
Ġå¹ ¸è¿Ĳ
Ø±ÙĬ Ø¯
Ñĭ Ð»
Ø¨ Ø§Øª
à¦¾à¦¨ à§įà¦¤
ÏĦÎµ Î¯
ĠÙĬ Ø§
h et
à¤Ĥ à¤¬
Ĭà¸± à¹Īà¸Ļ
Ġà®µ à®¨à¯įà®¤
Ġrel ig
ķ à¹Į
ĠáĥĻ áĥĿáĥľ
Ġmak en
ĠÐ´ Ð°Ð¶Ðµ
Ġ×ĳ ×¤
um en
ÙĦÙĬ ÙĦ
Ø³Øª Ùħ
OS T
Ĺà¸ ±à¹īà¸ĩà¸
Ġpre vent
ĠæĹ ł
éļ ¾
Ġal an
ĠL im
ĠØ® Ø§Ø±Ø¬
Ġëª¨ íħĶ
ĠDav id
Ġresult s
ĠF ol
Ð¿ÑĢÐµÐ´ ÐµÐ»
« à¹ĩ
v y
j Ã¸
................ ................
Ġà¦® à¦§à§įà¦¯
åĨ Ļ
áĥĲáĥľ áĥ¡
z ent
Ø¯ ÙĨ
Ġv áºŃy
Ã³ c
oc ia
Ġhor as
Ġh g
ĠRev iew
à¹Īà¸²à¸ ĩ
ÑĢ Ð¾Ñģ
Ġpesso as
æŀ ģ
Ġac ross
ÙĬÙĦ Ø©
ĠÐ¡ Ð
å¤ «
à§ģ à¦ķ
d zie
Ġor e
ĠÑģÐ¿ Ð¾ÑģÐ¾Ð±
ØŃØ¯ Ø©
Ħà¸ ¡
Ġmar k
ĠØ§ÙĦ Ø¶
åŃ £
em Ã¡s
à° ¶
Ġoff ice
åľ ĭ
åį ı
Ð°Ð»ÑĮ Ð½ÑĭÐµ
Â ¼
ĠÐ£ Ðº
on ia
C A
æİ ¢
Õ¡Õ ½
Ä° N
Ġà¤¸ à¥įà¤¥
áĥ® áĥĲáĥĵ
áĥĶáĥĳ áĥ¨áĥĺ
Ø³ Ø§ÙĦ
ĠØ± Ø¯
ri que
Ġç Ī
ĠÐ¿ÑĢÐ¾ ÑĦ
Ġv as
åĪ ¥
Ùģ Ø§ÙĤ
Ġsel ect
Ġ ãģ¯
à¦¾à¦ Ĥ
IC A
Ġà¹Ģà¸ ¡à¸
ĠC el
Ġser ie
Ø§Ùħ ÛĮ
é«ĺ æ¸ħ
Ú© Ø§Ø±
Ø¸ Ø±
ĠæĹ ¶
à° Ĺà°¾
Ġz aj
en ne
Ġcall ed
éĻ ©
ww w
ĠT P
ĠÐ½ÑĥÐ¶ Ð½Ð¾
ĠK at
å¿« ä¹Ĳ
Ġbet 365
opp ing
ĠáĥłáĥĿáĥĽáĥĶáĥļ áĥĺáĥª
ul os
Ġåİ Ł
t d
Ġgiá» ¯
Ġáĥ¬ áĥļáĥĺáĥ¡
Ġc ast
_ gr
Ġt Ãłi
áĥķ áĥĲáĥļ
Ġæĸ ĩ
æ² Ļ
Ġê° Ļ
Ġal Ä±n
ĠÎºÎ± Î»
ĠC N
Ġng ay
ard i
Ġç Ń
ĠD O
×ľ ×ķ×ª
Ġb at
Ġ×ľ×Ķ ×ª
à¹Īà¸² à¸Ļ
ĠOct ober
akt u
ĠÎ£ Ïħ
Ġla bor
ìĿ´ ìĬ¤
ĠÐºÑĢ Ð°Ñģ
ĠR us
à§ĩà¦ ľ
Ġoff ers
Ġmed ic
ĠW ie
Ġy Ã¼ks
Ð¸ÑģÑĤ ÑĢÐ°
ä» ķ
ĠJ ahr
Ġencont rar
ĠÙħÛĮ ÙĦÛĮ
à¦¨ à¦¾à¦°
éļ Ľ
Ġn ast
ĠP ak
5 00
ÑĨ ÐµÐ²
Ġê³ ¼
ĠÐ´ Ð¸
Ġà¤µ à¤°à¥įà¤
Ġv irt
Ġk unt
Îµ ÏģÎ³
Ħà¸£à¸Ķà¸´à¸ ķ
ĠÙĦ Ùĥ
×Ļ×ľ ×Ķ
¤ à¸
áº¡ m
ĠØ§ÛĮÙĨ Ú©Ùĩ
Ġmu á»ĳn
ĠÙ¾ Ø±Ø¯
b ud
Ġview s
ĠØ« Ùħ
ĠC asa
Ġh osp
Ġse ason
£áĥ ¡
Ã© o
ĠN as
ac es
ĠÑĤ Ð¾ÑĢ
ri as
Ġìŀ ħ
Ġè¿ ĺ
j as
Ġw all
ÅĦ st
Ġsá»ĳ ng
Ġ×Ĳ ×ĳ×ľ
n ement
Ġg etting
ĠJanu ary
Ġ×ĳ ×Ĵ
å® ³
Ġìĸ ĳ
ĠÐ¾ Ð½Ð°
ĠDon na
æ¹ ĸ
Ġw iel
Ġcli ents
Î³ Îµ
ĠØ¨ÛĮØ´ ØªØ±
ĠE ver
çĶ º
ÙĦÛĮ ÙĦ
og n
ith er
ĠÎ±Ïħ ÏĦÎ®
ĠC Ã³
ĠØ® ÛĮ
p ap
Î¹Î¿ ÏĤ
Ġë Ŀ¼
ÐµÐ½ Ð¾
ĠB und
idup an
Ġex ample
Ø§Ø³ Ø©
OR T
Ġhe art
Ġapr Ã¨s
ĠT ro
ĠI M
D R
Ġà¸ ļ
acy j
ĠV el
Ġìķ Į
qu ier
S A
Õ¶ Õ¥ÖĢ
ĠL ive
Ġ16 0
ãģ Ĳ
ric t
Ġæ¬ §
Ĥà¸¶ à¹īà¸Ļ
Ġun ique
áĥĶáĥłáĥ ¡
åİ ĭ
èĮ ĥ
u ah
n te
· à¹īà¸Ńà¸
Ġgi Ãł
Ġmuch o
ĠÐŁÑĢ Ð¸
ĠÏĢ ÏĮ
ĠK er
à§įà¦ Ľà§ĩ
ĠÑģ ÑĥÐ´
á» Ŀi
Ġl ag
ir it
Ġà¦Ľ à¦¿à¦²
Ġãĥ ı
ć ć
Ø¶ Ø§Ø¡
Ġu00 3
à¤ķ à¥ĭ
z ion
ĠÐ¼ Ð¸ÑĢ
Ġest ado
ĠD A
Ġå¤© å¤©
n ed
ĠÐ¶ ÐµÐ½
ç´ ¢
à®µ à¯ģà®®à¯į
Ġ×Ķ× ĺ
27 0
ÐµÑĢ ÑĪ
bar u
Ġíĺ¸ íħĶ
áĥĹ áĥĲ
le b
Ġdon c
Ð°Ð»ÑĮ Ð½Ð¾
Ð¸ÑĤ ÐµÐ»ÐµÐ¹
Ġà¤ħà¤§ à¤¿à¤ķ
Ġà¦¨ à¦¿à§Łà§ĩ
Ġn Ä±n
Ġenc ore
íĸ Ī
Ġáĥĺ áĥ¥
à¦¾à¦¤ à§įà¦°
c ont
Ġfriend s
c or
« a
ÏĨ Î®
Ġáĥĵ áĥĲáĥ¡
Ġ×ŀ× ¤
æī ¿
ĠÐ· Ð°Ð½
ĠÄĳá» ķ
ãģł ãģ£ãģŁ
à¯Īà® ļ
Ġple ase
Ġser a
à¸Ńà¸¢à¸¹ à¹Ī
èİ ·
ãĤ¤ ãĥ«
Ġà®ª à®²
Ġà¤¥ à¥Ģ
gun akan
ĠÐł Ð°Ð·
ĠGen eral
ĠÐĺ Ð·
áºŃ u
Ġé ĥ
Ġà®® à®±à¯įà®±
ĠÐ³ Ð»
Ġtri á»ĥn
íķĺ ê²Į
ĠØ¯ ÙĦ
à¤¾à¤ ģ
Ð¾Ð± Ð°Ð²
ç¬¬ ä¸Ģ
Ġprop erty
Ġplat form
Ġ\" :
aj es
ĠÐ¸ Ñģ
à¦¸ à§įà¦¤
h alt
Ġb Ã¼yÃ¼k
icht ig
ãģ¨ ãģ¯
Ġà¹Ģà¸ Ķà¸´à¸¡à¸ŀà¸±à¸Ļà¸
ĠÎĳ Î½Î±
ĠÐ¿Ð¾Ð· Ð²
ĠH y
ĠØ§Ø·ÙĦ Ø§Ø¹Ø§Øª
ĠL iv
åĪ ¤
Ġtro u
E _
et z
ert en
Ġà®µ à®´
ur u
Ġam er
ÙĬÙĨ ÙĬ
ne a
ĠT elef
ĠØ¯Ø§Ø® ÙĦ
à±įà° ¡
in ta
Ġfot ograf
ĠA gen
à¹Ģà¸ ķ
_gr id
Ġà¤¨ à¤¿
å¨ ģ
ĠÙĦ ÙĥÙĨ
Ġs qu
r d
l ung
å®ī è£ħ
ĠD ar
Ġon ce
ãģıãģł ãģķãģĦ
Ġy Ã¶n
Ġindust ry
ĠÐ³Ð¾Ð´ Ñĥ
ãĤĪ ãĤĬ
Ġj p
å¹ ķ
Ġ ÏĪ
ĠV ill
ac aÄŁ
or ial
ir k
Ġver g
Ķ à¹ĩà¸
Ġtra ining
uj ÃŃ
Ġprop ri
Ġl iÃªn
ĠØ§Ø® Ø¨Ø§Ø±
Ġve h
è² »
à¹ Ĭà¸
r ito
Õ ´
Ġdop o
Ġd us
Ġmel hor
Ġm ijn
à°¿à° Ĺ
Ġsz cz
Ġrap port
æĿ ±
Ã¡ le
m ark
Ø§Ø´ Øª
Ġup ang
ĠT en
éĿ ©
ĠÐŁ Ð¾Ñģ
uss en
ĠC at
åħ ´
áĥ£áĥ ¤
ĠØ§ÙĦ Ø§Øª
Ġinf lu
Ġu0 43
Ġsing aw
ĠÑĥÑģÑĤ Ð°Ð½Ð¾Ð²
ĠÃº n
à¥įà¤ ¡
åĨ ľ
Ġà¤¸ à¤¬
ãĥĥ ãĤ·
Ð¿ Ð¾Ð»
Ġb Ãłi
ĠÙĬ ÙĥÙĪÙĨ
ĠØ¨Ø³ÛĮ Ø§Ø±
ĠÑĢ Ð¾Ð´
Ġp ng
à¤¾à¤ĵ à¤Ĥ
Ġà¸ Ĺà¸µà¹Ī
åį ³
ĠBe ach
Ġáĥ¬ áĥĲáĥłáĥĽ
ÑĢ Ð°Ð±Ð¾ÑĤ
Ð¼ Ð¸Ð½
áĥĺáĥĲáĥľ áĥĺ
Ãĥ O
ĠU l
à°° à±ģ
×Ĺ ×§
Ġn ell
Ħ à¸Ļ
Ġv ic
ĠÏĢÎ¿Î» Î¹
à®¿à®ķ à®³à¯į
×ķ×¨ ×Ļ×Ŀ
Ġc ru
Ġn eden
ãĥĥ ãĥģ
ans k
ç¶ ļ
à®¾à® ļ
Ùĩ Ùı
Īà¸ °à¹Ģà¸
à¦¿à¦ķ à§įà¦·
Ġt ema
ÏĦ ÏģÎ±
Ġw z
C M
larÄ±n a
ĠÐ¾ÑĤ Ð²ÐµÑĤ
ung kin
Ġth Æ°Æ¡ng
Ġt Ã¬m
çķ Ļ
åĵ į
ĠÐ³ Ð»Ð°Ð²
Ġlav oro
ĠÙħØŃ ØµÙĪÙĦ
ĠÏĢ ÏģÏī
est i
Ġwe iter
Ġà®ħ à®±
Ïĥ Ïĩ
Ġ×ĳ ×ĳ
ien ie
ĠÎĵ Î¹Î±
ĠT i
ìħ ĺ
Ġf Ã¸l
ãĥ³ ãĤ¹
ÏĦÎ¿ Î½
Ġst ruct
Ġê° Ĳ
Ġmonth s
Ġby Äĩ
$ (
à¹Ģ à¸Ļà¸
m am
Ġà¤µ à¤¹
Ġdur um
Ġw a
Ġnav ig
Ùģ ÙĦ
Ġè Ĭ
Ġà¤Ĩà¤£ à¤¿
ĠÙĪ ÙģÙĬ
ĠK as
ĠÏĦ ÎµÎ»
Ġtr ading
Ġand re
ĠS K
room _grid
ada ÅŁ
ĠL eb
ĠâĢĿ ï¼Į
ĠáĥĽ áĥĺáĥĽ
Ø§Ø¬ Ùĩ
ÑĢ Ð°ÑĤÑĮ
Ġà®İà®© à¯įà®ª
ol ar
it ur
av i
Ġà¸ ĸ
Ġsem ua
Î¹ Î»
l ere
ÎĳÎ ¡
S H
iv as
ãĥ¼ãĤ ·
ĠP ri
zen ÃŃ
Ġì ¦
ir as
ÑĢ Ð¾Ð¿
ĠE lect
Ġam or
Î¿Î¹Î½ ÏīÎ½
ĠÎķ Ïħ
Ġrel ated
à®µ à¯ĩ
à§ĭ à¦²
Ľà¸£à¸°à¹Ģà¸ Ĺà¸
å·¥ ç¨ĭ
v Ã¡
å· ´
Ġà¦¬à§įà¦¯ à¦¬
è¯ Ĩ
áĥĿáĥĳ áĥ¡
d em
ĠW ord
w iet
c os
Ùģ Ø©
ĠÏĩ Ïī
ĠM ai
ĠÅŁ ey
ĠT O
Ġ? âĢĿ
Ġê² °
ÅĽ my
Ð¸Ðº Ð¾Ð²
el ess
ĠÙģ Ø¥
è¿ İ
ĠÐ¿Ð¾Ñģ Ð»ÐµÐ´
Ġeng ine
ÑĤ Ð°
ĠS it
íķ ¨
ĠK im
Ġcon ven
k ou
Ġìŀ ĳ
ĠC ab
å¼ ·
Ġtemp or
ĠÐ¾Ð±Ð»Ð°ÑģÑĤ Ð¸
Ġte Å¼
à¤¾à¤Ĥ à¤Ĺ
Ġìĺ ¨
Ġãĥ ĩ
æ¯ ı
Ġst ock
ÙĪÙħ Ø§Øª
Ġà¤¦ à¤¿à¤¯à¤¾
l ou
Ġad vert
ĠAn ton
Ġâ Ŀ
Ġà¹ģà¸ ķà¹Īà¸
´à¸ ķà¸
Ġs ource
Ġcomp os
un ik
B A
ĠÐºÐ» Ð°ÑģÑģ
Ġg ek
Ġre cht
Ø§Ø¨ ÙĤ
äº§ åĵģ
×ľ ×ĳ
ĠÑĢ Ð°Ð¹
Ġpun to
kt ober
Ġper cent
Ġqu ant
Ð°Ð¹ÑĤ Ðµ
Ġz p
Ġä¸ ľ
Ġant i
Ġë§ ¤
Ã Ĺ
ê¹Į ì§Ģ
ĠÙĪ Ø²Ø§Ø±
ÑĢ Ð°Ð´
em at
ãģĦ ãģ¾ãģĹãģŁ
à¤¿à¤ ª
ĠmoÅ¼ na
neh men
ĠØ¹ Ú©Ø³
Ġper man
ãģ« ãģĬ
ª à¹Īà¸§
Î¼ Î¼Î±
Ø£ Ø³
å¯ Ł
Ġcom unic
Ġp ujc
æĥħ åł±
ult ur
áĥĲáĥľ áĥĵ
Ġæ Ł
ekt edir
i ally
Ġáĥ© áĥĶáĥĽ
ļà¸Ńà¸ ¥à¸
uy á»ģn
Ġam ount
ÛĮØ¯ Ùĩ
Ġba o
ĠØŃ ÙĦ
Ġw en
Ġtrabaj o
Ġdi f
ãĥķãĤ ¡
ier on
ãģĵ ãĤį
ªà¸ Ķà¸
ĠÙĨ Ø³Ø¨
Ġà¤ĩ à¤¨
ëĤ ľ
k Ã³w
ien ce
Ġ×ŀ× Ĵ
ĠØ¨ Ø³
ĠØ¯ Ø§Ø¯Ùĩ
ut to
Ø®Ø± Ùī
æĻ º
åĲ §
å¯ Ĩ
à¸£à¸²à¸Ħ à¸²à¸
ĠB rit
ec ciÃ³n
Ġhal amang
Ġ ÉĻs
oc uk
ëħ Ģ
Ø§Ø¹ Ø¯
ĠÄ° n
Ġg ust
ĠÏĦ ÎŃ
Ġsi empre
ĠØ¬Ùħ ÙĬØ¹
íĭ °
uf act
ĠçĽ ¸
Ġreg ard
Ġmak s
Ãºmer o
Ġà¤ªà¥įà¤° à¤¤
ĠØ§Ø¯ Ø§ÙħÙĩ
Ġtr á»įng
Ġcon vers
Ã©n Ã©r
Ġc osa
li que
Ġ14 0
ÏĢÎ¬ ÏģÏĩ
Ġfab ric
è² ©
ãģĳ ãĤĭ
ÙĨ Ùħ
Ġcz ÄĻ
ĠP ers
ĠF Ã¼r
Ġg as
ag ing
Ġr it
Ġë ¹
ĠØŃ ÙĪÙĦ
Ġà° ²à±ĭ
ĠCh i
Ġ19 99
ÏĦ Î®ÏĤ
Ġà°ķ à±Ĥà°
Ġbe im
Ġé Ĺ
ĠDec ember
åĪ© çĶ¨
ĠØ§ÙĦ Ø¨ÙĬ
d ek
ĠÎĺ Îµ
ÙģØ¶ ÙĦ
od en
Ġo Ã¹
C C
Â ³
áĥĺáĥ §
Ġp am
ĠÐ¿Ð» Ð°Ð½
Ġdo ing
ĠPre vious
Īà¸£à¸´à¸ ĩ
ĠP age
Ġ$(" #
Â °
Ġt es
ĠEn erg
çı Ń
ÙĨ Ø§Ø¡
ed o
ë³ ¸
Î»Î¿ Î¹
Ġd Æ°á»
Ú¯ Ø°
Ð² Ð¾ÑĢ
ant al
ĠO k
Ġå¤ ļ
Ġ12 5
å¼Ģå¥ĸ ç»ĵæŀľ
Ġà¸ ¢à¸
ãģ İ
Ġm ula
ĠÐ²Ñģ ÐµÐ³Ð¾
Ġfam ili
Ġ3 60
om at
Ġcap ital
ĠSt a
ĠTe am
ĠM eng
c ell
ĠÕ ¶
å¸ Ń
ĠÎł Îµ
Ġe g
Ġ×ľ ×¦
8 1
Ġsp r
×ķ×ĳ ×Ķ
à°¿à° ¸
ÙĤ Ø¨
áĥĺáĥ ŀ
åį ĥ
Ġmen u
à®¿à®± à¯įà®ķ
F OR
á»ĵ n
ÄŁ Ä±
Ġhab er
Ġkn own
Ġæ± Ł
é¡¹ çĽ®
j ores
æ³ ¢
Ġy Ã¼z
Ã¼ h
Ġle ast
I tem
Ġ×¢ ×ĵ
íķĺ ê¸°
à¹ģà¸ ¥à¸°
Ġãĥ Ľ
Ġ ÅĤ
il eri
à¸Ńà¸¢à¹Īà¸²à¸ ĩà¸
Ġr am
up a
Ġà®µ à¯Ģ
Ġb all
ic ion
ĠÙħØ¯ ÙĦ
Ġd ru
± à¸Ļà¹Ģà¸
Ġe y
ç¨ ³
ÙĪØ¯ Ø©
ĠØ§Ø¬ ØªÙħØ§Ø¹
Ġar asÄ±nda
áĥķ áĥ¡
ĠÎķ Î»Î»Î¬
ģà¸ ³à¸
à¦¾à¦ľ à¦¾à¦°
P L
Ġà®ħ à®Ł
à¹ĥà¸Ĭ à¹ī
Ġpra kt
Ġobs erv
Ġd ont
el ah
áĥĿáĥł áĥĺ
ĠF otos
Ġreg ular
Ġfo is
ĠPro duct
Ġmin im
Ġ] ,
g am
ĠBl ue
ë° ĺ
áº³ ng
Ġan meld
ĠVo or
Ġimp act
led ge
ĠPle ase
Ġest r
Ġwar en
ĠçĻ¾ å®¶ä¹Ĳ
ä»¥ ä¸Ĭ
Ð¾ÑĢ Ð¸Ð¸
Ġdo ch
Ġpro y
ä¿¡ èªī
Ġik i
ĠFr om
ìĺĪ ìķ½
åĸľ æ¬¢
ĠÐ¿ÑĢÐ¾ÑģÑĤ Ð¾
Ġc itt
à¹Īà¸²à¸ ¢à¸
à¦ ŀ
ÃŃ o
it ect
ĠF OR
Ġc um
ãģĹ ãģı
Ġevery thing
ĠN Ã£o
k ÄĻ
Ġå¾ ·
Ġà¦¥ à¦¾à¦ķ
ĠÚ¯ ÙĪØ´
ĠCh o
äº Ĵ
Ġver w
Ġden ne
Î¬ Î¶
ĠáĥĽ áĥĶ
à¥įà¤¯ à¤¾à¤ļ
ĠÙģ Ø¶
ãģ§ ãģĹãģŁ
Ġëĭ ¹
ĠÑĨ ÐµÐ½ÑĤ
av en
èª į
Ġn ic
Å¾ d
g ende
p f
ke y
ĠÎ¿ Î¹ÎºÎ¿
H T
Ġser ies
ĠÚ¯ ÙĦ
ä¹ Ŀ
Ġå¤ ĸ
ãģĳ ãģ¦
bo ard
Ġé ¢
à®² à¯Ī
ĠâĢľ ,
Ġfac ebook
ĠØ§ÙģØ² Ø§ÛĮØ´
ĠU t
ĠìĤ¬ëŀ Į
ĠMed ia
ĠÐ ®
ĠÑģ ÐµÐ¼
ĠP ay
ang kan
it te
Ġm ort
Ġps ych
akt adÄ±r
ĠØ¯Ø³Øª Ú¯Ø§Ùĩ
Ġm ini
ĠØ§ÙĦÙħ Ø¤
ĠáĥĽáĥĲáĥĴ áĥłáĥĲáĥĽ
ëĵ ł
ĠÐ² Ð°Ð¼
Ġaut re
st vÃŃ
Ġs ÅĤ
ãĥ³ ãĤ¯
ìłģ ìľ¼ë¡ľ
am enti
j s
Ġdis se
Ġdes ar
ľà¸¹ à¹ī
Ġå® ¶
à¤Ĺ à¥ĩ
Ïĥ ÏĦÎ¬
Ġt Ã©cn
Ġl áº§n
Ø§Ø¦ Ùĩ
Ġ×¢ ×¦
æĺ ¾
Ġne ar
ÙĪÛĮ ÛĮ
Ġph ot
ĠØ§ÙĦØ¹Ø±Ø¨ ÙĬØ©
Ġein es
ĠF all
ĠT ot
ĠÙģ Ø§Ø±
Ġs b
Ñı Ð¶
ĠMar k
ord o
ĠÐ²Ñģ ÐµÑħ
Ġh ÉĻr
Ġà¸Ĺà¸ Ķà¸¥à¸Ńà¸ĩ
ĠD iv
Ø² ÙĦ
Ø² Ø¯
en ing
im ate
Ø§Ø¨ ÛĮ
Ġj ou
Ġes o
æ£ Ģ
ki em
er ek
Ġch alleng
Ġakt iv
Ã¶ net
ĠÙĪ Ø§ÙĤØ¹
ĠMot or
à¸²à¸ ģ
ĠL ang
à¤µ à¤¾
ĠØ§ÙĦØ³ Ø¹ÙĪØ¯
Ġs ic
ĠÙħØ´ Ø§Ùĩ
ĠJ eg
ÙĪ Ùĥ
ĠÐ± Ð°Ð½
æĸĩ åĮĸ
it ing
ac to
Ġå° Ĩ
íĮ Į
Ġmo et
ĠR io
ĠØ®Ø¯Ùħ Ø§Øª
Ä Ĳ
å¤§ å°ı
Õ¡Õ ¾
is is
ãĥ¬ ãĤ¹
ans e
Ġìŀ ¬
ĠÑĨ ÐµÐ½
Ġm ÃŃst
Ġdi p
èª ŀ
Ġfe atures
ĠÃ§ a
Ġà¤ľ à¤¿à¤¸
ĠL ev
çİ° éĩĳ
ÐµÑģÑĤ Ð¸
Ø§Ùħ Ø©
Ġà¤¦ à¤¿à¤²
æ± ½
!! !!
Ġalt ri
ĠÐ¼ ÐµÐ´
æĭ ħ
å¤© åłĤ
Ġch icas
Ġ13 0
ĠÃ ĭ
Î½Î¿ ÏĤ
ĠØ¨Ø²Ø± Ú¯
Ġl agi
ish ing
atal og
lÃ¼ k
Ġt ell
Ġb iá»ĩt
Ïĩ Î±Î½
act ion
ĠÐ¿ Ð¾Ð»ÑĮÐ·
Ġcompan ies
Ġb ang
Ġb az
ur ing
ĠF ort
Ġëĭ ¨
Ġqu Ã©
ÑģÐº Ð¾Ð¼
m az
Ġth á»ĳng
å¥½ çļĦ
åĪĨ pk10
ÉĻ ti
°à¹Ģà¸ ļà¸µà¸
ÐµÐ³Ð¾Ð´ Ð½Ñı
Ġì¢ ĭ
ok e
Ġcon te
Ġsem ana
Ø§Ø ¸
ĠÙĪØ§ØŃ Ø¯
«à¸£à¸ ·à¸Ńà¸
ain ed
Ġå §
à®¾à®° à¯įà®ķà®³à¯į
v ing
Ġdem and
ç¢ º
or io
ual es
è¯ ¥
ĠF ern
m on
r ont
Ã °
ãģ® ãģĮ
ĠÐ¾Ñģ Ð¾Ð±
ķà¹Ī à¸Ń
Ġte x
Ġs y
Ġcer ca
in te
Ġm uss
Ð°Ðº ÑĤÐµÑĢ
Ġf el
Ġë¶ Ī
ĠLond on
Ð¾ÑĢ Ð°
Â ½
v ik
f s
ĠÃ¶n em
t Ã¼
Ø¨ Ø±ÛĮ
nie Å¼
Î» Î¯
iel en
è³ ĩ
uk o
ç³» ç»Ł
Ġdefin it
ãģĳ ãģ©
ak ing
Ø§Ø³ ÙĬØ©
à¸£à¸²à¸ ¢à¸
ìĪ ł
å¤ļ å°ĳ
ĠíĬ ¹
ìĦ Ŀ
h es
AN T
×ŀ ×ķ×ª
Ġm Ã£
ç¦ »
do or
Ġal ta
ÏģÎ± Îº
am men
ON G
w h
ĠInd ust
Ġv ita
Ġbe au
Ġb Ã¡o
Ġmi x
Ġsta ff
Ġbar u
Ġg eg
ÙĤ Ø§ÙĦ
Ġr encont
ic amente
Ġwe it
éĢ ²
Ð¾ÑĤ Ð²ÐµÑĤ
u ur
Ġçİ ĭ
Ġkam u
Ġg rav
Ġc lar
ĠÃ© gal
ãģ¨ ãģª
ĠolduÄŁ unu
Ġem bar
ÑĢ Ð¾Ðº
Ġp ov
Ġos s
áĥłáĥ £áĥļ
iv itÃł
ĠV ir
Ġà¤¦ à¥ĩà¤ĸ
Ġtel ev
Ġh ast
Ġide as
ĠÐ³ Ð¾Ð²Ð¾ÑĢ
à¸Ļà¸± à¹īà¸Ļ
Ð ¯
m s
Î §
ak ter
Ġm p
Ġ×ľ ×Ĵ
æĽ ²
Ġbuild ing
} ,"
Ġà¦ķ à§ĭ
_ t
ª à¸£
ert as
Ġíķľ êµŃ
äºº çļĦ
æŃ ¦
ĠØ£Ùĥ Ø«Ø±
à¹Ĥà¸£à¸ ĩ
à¤¸ à¥įà¤¥
ĠÙ¾ Ø§Ø³
Ī ¬
Ġcle ar
ÑĥÑĢ Ñĭ
ë ĳĲ
ĠéĢģ æĸĻçĦ¡æĸĻ
Ġ×Ĳ ×ĳ
ĠØ¬ ÙĪ
== ==
Ġnuev o
ãĤĴ è¦ĭ
g od
Ġth Ãªm
Ġanc ora
ov nÃŃ
Ġíķ ł
ÑıÐ± ÑĢÑı
Ġal bum
Î¸ Î½
h ec
ĠN um
Ġj in
Ð°Ð· Ð°Ð»
à¹ģ à¸Ļà¸
Ġà¸ ķà¸
åħ µ
Ø±ÙĪ Ø³
3 00
Ġleg al
ĠR Ã©
ãģ® ãģĬ
Ġintern ational
ĠB M
Ġvol ta
Ġ Ø§Ùĥ
à®¿à®ķ à®³
kl am
Ġf ark
Ġfo ot
Ġse i
ĠØª Ø³Øª
ĠEn d
à¦¿à¦ķ à§ĩ
ĻĢâ ĻĢâ
Ġsu ff
Ġh y
Ġj ika
r uk
amp a
ĠÙģØ± ÙĩÙĨÚ¯
á»ĩ t
Ġesc ort
ĠÏĥ Î¿Ïħ
ĠL ast
Ø§ÙĤ Ø©
Î»Î¿ Ïį
Ġå¤§åıĳ å½©ç¥ŀ
iy i
çľ ¼
å³ ¶
iz a
Ġ×ŀ×Ĺ ×Ļ×¨
à±ĩà° ¸
Ġact ually
Ð¸ÑĩÐµÑģÐº Ð¾Ð¹
iáº¿ u
ĠëĶ °
ĠR ich
an ks
×¨×Ĳ ×©
L ER
ĠØ¯Ø± ÛĮ
à¦ ī
ĠN O
Ð¸Ð» ÑģÑı
Ð°Ð»ÑĮ Ð½ÑĭÑħ
Ġáĥ¡ áĥĲ
×Ĳ ×Ļ
ĠÙĤ Ø§ÙĨÙĪÙĨ
20 16
Ġpoint s
or f
ĠÏĢ ÏģÎŃÏĢÎµÎ¹
Ñĭ Ñĩ
ĠÙĪÙĦÙĥ ÙĨ
ĠÃ ı
Ġh Ã³a
ĠY o
b ij
Ġáĥŀ áĥĺáĥłáĥ
Ġê²Į ìŀĦ
ĠØ· Ø¨
Ġdo en
Ġ ä¼ļ
Ġà¤° à¤¹à¤¾
Ġcr Ã©
Ĥ à¹īà¸²à¸
è§Ħ å¾ĭ
ĠÐ· Ð½Ð°Ñĩ
Ġh ak
Ġf lex
Ġà®ħà®° à®ļ
Ġf ung
u est
Ġï¼ ı
Ġyo ung
à¸Ńà¸¢à¹Īà¸²à¸ ĩ
ĠdÃ¼ÅŁ Ã¼n
éĩ ĩ
Ġà®¤à¯Ĭ à®Ł
×¤ ×§
Ġre ason
Ġb ot
ĠD ate
è¾ ĥ
Ħ à¸£à¸±à¸ļ
Ø§Ø± ÙĬØ©
Ġ3 50
Ġà¦ķ à¦¿à¦¨
Ð¸Ð½ Ñĥ
Ġà®® à¯ģà®¤
Ġà®® à®©
ĠB ig
Ġngh Ä©
ĠåĽ Ľ
Ġhist ory
Ġ à¸Ń
áĥĶáĥ ®
ĠÐ· Ð½
ĠÎ¼Îµ ÏĦÎ¬
Ġpriv ate
Ġdes en
Ñı Ñģ
Īà¸±à¸ Ķà¸
ìĹĲ ëĬĶ
Ġd og
Ġæ Ĥ
Øº ÙĬØ±
à°Ĥà° ļ
åĸ Ħ
ĠS M
Ġ. :
Ã¤ lt
ich te
eng er
³ à¸Ļà¸
Ġto uch
Ġj ur
ĠØ§ÙĦÙĪ Ø·
Ð°Ð· Ð°ÑĤÑĮ
Ġí ļĮ
Ġl á»±c
eg os
Ġtrans fer
C om
ãĥ¼ ãĥ³
Ġrel ations
im b
Ġå± ±
Ġt ÃŃch
Ġà¤Ńà¤¾à¤° à¤¤
Ġr z
áĢ¬ áĢ
ĠC ong
Ġâĸ ł
ĠØ¨Ø± Ø±Ø³ÛĮ
Ġw onder
ÙĤÙĬ ÙĤ
ĠÂ ¦
ĠÙ Ģ
Ġwy s
Ġs ong
ĠK ind
ur b
ĠØŃ Ø±
ãģĭ ãĤĬ
Ġn Ã©
Ġ) )
×ĵ ×Ŀ
áº§ y
ìĥ ī
Ġcu enta
ĠN acional
ãģ§ ãģĤãĤĭ
Ġë ¸
ĠPro bl
Ġå¹ ´
ì¡ ±
Ġáĥł áĥĲ
ĠB ack
ĠÑĤÐµÑħ Ð½
Ġs ier
Ġ×Ĳ ×Ļ×ļ
Ġinst al
Ġtechn ology
Ġ Ñİ
v et
Ġgia o
ĠÐ½Ðµ ÑģÐº
Ġr ate
Ġad apt
Ø§Ø² Ùĩ
ow ym
Ġay r
iá»ĥ n
Ġka Å¼
eg n
ĠÙĦ ÙĨ
ĠFebru ary
Ġand eren
ĠÄĳ áº¥t
Ġr á»ĵi
Ġenc uent
· à¹īà¸Ń
êµ °
ĠÃ ķ
ì² ĺ
åĩº æĿ¥
åħ ¸
l ic
éĿ ł
ĠP ub
ĠØ§Ø³ÙĦØ§Ùħ ÛĮ
Ġk Ã¼
Ġà¦ı à¦¸
i O
x imo
ĠæŃ ¤
ëĭ ĺ
ĠáĥĲáĥĵ áĥĲáĥĽ
ĠDom ain
åħ »
Ø®Øµ Øµ
Ø´ ÛĮ
Ķ à¸²à¸
Ġà¦¬à¦² à§ĩà¦¨
ĠÐ¾Ð´ Ð¸Ð½
ĠPh ilip
Ġstart ed
Î¼ÎŃ Î½Î·
ob ier
íĤ ¤
Ġcon cept
Ġab ove
ĠO P
Ġr at
¡à¸²à¸ ģ
Ġw il
Ġh es
çµ Ħ
à¯ģà®Ł à®©à¯į
ĠØ¨Ø§ÙĦ Ùħ
at te
ĠíĻ ķ
ur er
ole Äį
ĠÐ½ Ð¸Ðº
è¿ Ķ
è§ Ĵ
æ± º
Ġtak Å¼e
ba ik
art h
Ġmar gin
ãģ«ãģª ãĤĭ
áĥľ áĥĶáĥľ
Ġà°µ à±Ĩ
Ġma xim
Ġw omen
Ġfinan ci
ÑĢÑĥÐ¿ Ð¿
ob y
ãģ ¶
ĠÑĥÑģÐ» Ð¾Ð²
Ġex clus
E x
åĲ ĥ
à¸£à¸£à¸ ¡à¸
ĠCol or
ĠáĥĴáĥĲáĥĽ áĥĿáĥ
à®© à®°à¯į
æ¢ ¦
as z
ĠÄĳ Æ¡n
Ã¬ n
Ġent er
Ġp ick
ç½ Ĺ
ĠÐŁ Ð¾Ð»
ib i
Ġbes ar
ĠPa ulo
Ġwe er
Ġna w
ĠâĨ Ĳ
Ġcam era
ÙĪÙħ ÛĮ
Ġjed en
Ġempres as
ra cht
Ġter ra
ĠA K
à°¾à° ª
Ġon de
ĠÚ© ÙĦÛĮ
Ġch á»ĭ
ĠØ§ÙĦØª ØŃ
éĵ ¾
æ¿ Ģ
Ġè °
Ġg anz
ing ton
Ġ×ĳ ×Ľ
ag on
Ġ à¹Ħà¸¡à¹Īà¸
l ers
Ġenviron ment
Þ °
Ġla w
à· Ģ
ou ch
Ġà¤¸ à¥ĭ
ĠFran k
Â £Â¬
Ġab i
Ġv est
ĠÐ½ Ð¸
zÄħ d
ê ¶Į
ĠÙħ Ùĥ
Ġdu y
we et
ĠP eng
Ð» ÐµÐ¹
p ect
Ġà¤ķà¥ģà¤ Ľ
ubl ik
as ing
ĠP ero
Ġfind en
Ġbl ir
×ľ ×ĺ
u elle
Ġho áº¡t
uÅŁ tur
Ġt Ã¼m
æĵ į
ãĥ¼ãĥ Ħ
Ġnh au
lÄ± q
Ġr iv
ì° ½
ëĶ Ķ
n am
ard Ä±m
on de
Ġb om
à¹Ģ à¸£à¸²à¸
ĠÔ ±
re ad
ãĤ ´
áĥł áĥĶ
Ġpa ano
«à¸ ±à¸
pu Ã©s
Ġexp ect
ĠG Ã¶
Ġà®ª à®¤
und er
Ð¾Ð² ÑĭÐµ
ĠB eg
s che
Ġmeng gunakan
Ġcustom ers
è ķ
×Ĳ ×Ļ×Ŀ
ãĤĵ ãģł
ĠæĻ Ĥ
Ġti Ãªu
Ã¡ Å¡
Ġtr ung
zie j
Ġi b
Ġsug gest
ri pt
Ġà®ķ à®°
Ġtr ÃŃ
Ġåĳ ¨
Ø´ Ùģ
ĠE T
Ġsa f
ÙĬ Ø¬
ãĥĶ ãĥ¼
ĠØ¨Ùĩ Ø§
Ġinform aciÃ³n
áĥĿáĥĵ áĥĲ
Ġtá» ī
ĠÂ ¨
å· ®
ĠÐ¼ Ð½Ð¾Ð³Ð¾
L I
Ġsoc i
ãĥ¼ãĤ «
Ġà¤ķ à¥Ī
Ġà¤µà¤¿à¤ ¶
Ġsi y
Î¼Îµ Î½
ĠØ§Ø «
ĠÐ¸Ð½ÑĤÐµÑĢ Ð½ÐµÑĤ
åĨħ å®¹
áº¯ m
y z
im s
Ġåı ª
Ð² Ð°ÑĢ
ĠØ§ÙĦ Ø±ÙĬ
ĠÏĢ Î»Î·
Ġg ift
Ġdetail s
Ġm Ã©t
ĠÃ© p
Ġz us
ĠØ± Ø§ÛĮ
ĠÐ² ÐµÐ´
Ġsu as
Ġcli ent
Ġ& &
li er
Ð¾Ð´ Ð°
ĠE duc
ĠB ag
à¸£à¸²à¸Ħ à¸²
ail le
z ar
Ġres ol
Ġz osta
ĠCh e
¢ à¹Į
ĠÎµ Î¹
ĠÙĦ ÛĮ
ä¸Ń æĸĩ
ĠÚ© ÛĮÙģ
Ġp k
Ð¸ÑĢÐ¾Ð² Ð°ÑĤÑĮ
Ġqu ien
ict ion
ç¨ ®
Ġbil g
Î» ÎµÎ¯
li f
Ġtiáº¿ ng
Ġnet work
×Ĳ ×¨
ĠÚ¯ Ø±ÙĪÙĩ
Ġn elle
Ġ* *
ĠØ¨ ÙĤ
ãģĿ ãģ®
ĠÐ¿ÑĢÐ¾Ð´ ÑĥÐº
ĠÐ¾ÑĤ Ð´
IS T
c ome
Ø± Ø§Ø¯
Ġéĩį åºĨ
s un
ĠåĮ Ĺ
ĠØ¥ Ø°Ø§
ĠF ore
éĥ¨ åĪĨ
ĠAll ah
mÉĻ si
Ġph one
Ġh v
Ø¸ Ùħ
ĠÏĥ ÏĩÎµ
Ġà¦ķà¦° à§ĩà¦¨
ĠÐ¸Ð½ÑĤÐµÑĢ ÐµÑģ
à°¤ à±ĭ
å± Ĭ
Ġo il
yn am
abe i
ĠéĶ Ľ
Ġliv ing
Ġexc ell
ĠE M
à¥įà¤¯ à¤¾à¤¤
Ġe ing
åī ¯
ĠÂ ¤
ĠF ull
è§Ĩ è®¯
æľ ĥ
ub a
ell t
è¿ ľ
put er
ers ch
_ m
ĠÑĪ ÑĤ
Ġs atis
E Z
Ġà¦¦ à§ģ
ĸà¸¶à¸ ĩà¸
12 3
Ġpro jekt
Ø§Ø¨ Øª
it ud
ìķ ĺ
ì¦ Ŀ
ĠS at
il ÉĻr
Ġmar ca
ĠÚ© ÙĪØ¯
un st
Ġà°Ĵ à°ķ
Ġm ata
Õ¥ ÖĢÕ
ag ed
Ĵ áŀ
ĠJe an
à¸Ńà¸²à¸ «
Ġgiá» Ŀ
à¹Ĥà¸ ¥à¸
ĠPr iv
Ġ? ??
ĠÏĢ Î¹Î¿
ĠÎº Î¿
ê »
à§ĩà¦Ľ à¦¿à¦²
Ġà¦Ĩ à¦¬
Ġà¦¸à¦® à§Ł
Ġc en
Ã¡ ria
ĠØ§ÙĦØ® Ø§Øµ
Ġdes cription
ĠÑģÐµÐ± Ñı
Ġcorre ct
Ġl ors
Ġal u
åŁ ¹
ķà¹Ī à¸Ńà¸
Ġë° ĺ
Ñ ķ
Ð¸ÑĩÐµÑģÐº Ð¸Ð¹
Ġv ille
ĠØ´ ÙĬ
Ġk op
ĠH an
ĠØ® ÙĪØ¨
S h
w in
it ung
Ġch em
Ġà¸ ¥
ĠÑĤÑĢ ÐµÐ±
Ġjs me
×ŀ ×ķ×ĵ
Ñĭ Ð¼Ð¸
ĠÐ¼Ð¾Ð³ ÑĥÑĤ
Ġn ature
â Ĺ
ĠMart in
ĠP ad
F A
ĠÑģÐ»ÑĥÑĩ Ð°
à¯ģà®ķ à¯į
m esi
ì§ ģ
ĠW ars
à°¾à° ¬
ĠC ome
ĠW enn
ĠAut or
Ø¯ÙĬ Ø«
à¤¿à¤ ľ
zy st
ĠS ky
Ġtrabal ho
ĠÙĨÙħ Ø§ÛĮØ´
ÄŁ lu
Ġà® ²
íĹ ĺ
Ð¾Ñĩ Ð½Ð¾
Ġà¦° à¦¾à¦ľ
ĠP ier
å¾ Ģ
Ġ×Ĺ ×©
áĢ ¯
Ġà¦ªà§įà¦° à¦ķ
ĠÐ¿ÑĢÐ¾ ÐµÐºÑĤ
ĠagåĽ½éĻħ äºļæ¸¸
Ġ- --
ĠÙĨ Øµ
Ġn ok
ĠEst ado
Ġv Äĥn
ĠØ§Ùħ Ø±ÙĪØ²
æ´» åĬ¨
Ġtr á»Ł
ier te
Ġv ista
à®° à®¿à®¯
ĠØ¬Ùĩ Øª
Ġè ·
ĠÐ²ÑĭÑģ Ð¾Ðº
Ġpart y
H A
ĠNg uy
ĠØ³ Ùħ
Ġus ers
ĠF u
ĠÃ© quip
Ġ* **
wi Äħz
Ġt ÉĻr
ãĤ¤ ãĤº
à¯ģà® £
o int
ç ĩ
as is
Ġgovern ment
Ð¾ ÑĦ
eri or
à¸£ à¹Įà¸
ĠG a
Ġr if
ĠG ame
ĠÑĥ Ð³
éķ ĩ
æŁ »
ĠØ´ Ø±ÙĥØ©
Ġdep uis
ĠM ach
ĠØ§ÙĦØª Ø¬
Ġt ant
Ġìĥ Ī
ĠB iz
Î¼ Î¿Ïħ
Ġå¥ ³
Ð¸ Ñī
Ð´ ÐµÑĢÐ¶
Î³ ÏģÎ¬
é ¸
ro k
ìĦľ ë¹ĦìĬ¤
ĠÙĩÙħ Ø±Ø§Ùĩ
Ġimpl ement
Ġinsp ir
ĠR am
Ġkeh idupan
Ġm 2
çµ Į
ĠáĥĽ áĥĺ
Ġà°ī à°¨à±įà°¨
ĠB ild
ģà¸ §à¹Īà¸²
ĠØ¯ Ú©
ĠMas ter
Ġ2 20
ĠCent ro
war z
×ķ×ľ ×Ķ
Ġãĥĸ ãĥ©
Ġs owie
ç§ Ĵ
à¦¿à¦ ·
ç ĵ
we ise
ĠÄ° l
Ġëª ©
Ġest o
ĠÐ£Ðº ÑĢÐ°
ÅĤÄħ cz
è´ ¢
ÏĮ ÏĦÎ·
Ġnou ve
ìĹħ ìĨĮ
ĠW ill
å®ĺç½ĳ ä¸ĭè½½
è³ ¼
Î¼Î¬ ÏĦÏīÎ½
ĠW ed
u u
st ru
b t
Ġmo Å¾
Ġcor res
oles c
Ġà®¤ à¯ĩ
Ġmo ins
Ġç¦ ı
b sp
Ġmerc ado
ĠK inder
Û İ
Ïĩ Î¿
Ð°Ð´ Ð¸
èĭ ı
ÐµÐ½ Ð½Ð¾Ð³Ð¾
an as
Ġtak Ã©
à°¦ à±įà°¦
Ð² ÐµÐ´
Ġ×Ļ ×Ľ×ķ×ľ
ĠC rist
ad Ä±
ĠÐ´ Ð¾Ð¿
z na
Ġáĥ¨áĥĶáĥĽ áĥĵáĥĶáĥĴ
Ġà°ª à±ĭ
Ġé ©
ĠØ§ÙĦØ¨ ÙĦ
ĠH il
pr im
Ġà®®à¯ģà® ©
ç½ĳ _
Ġa insi
ì ¼
à®¿à®²à¯įà®² à¯Ī
az ing
Ġqu ello
Ø§Øµ ÙĦ
à¥ģ à¤¸
Ġà®ħ à®¨à¯įà®¤
ķàµįà´ ķ
Ġsel bst
Ġnie uwe
å ĺ
Ġthough t
an Ã§a
Ġ ä¿Ŀ
à¤°à¥įà¤ ¤
æķ° æį®
à¹Ģà¸ Ľà¹ĩà¸Ļ
ed n
Ġreg ion
ĠæĿ ±
ÐµÐ· Ð´
ĠdeÄŁ iÅŁ
ĠØ´Ø¯ ÙĨ
æĦ Ľ
Î³ Ïī
Î ĺ
ĠP ER
Ð¾Ð² ÑĭÑħ
Ġdid n
à¤¿à¤ ĸ
oh l
ĠÑĩ Ð°Ñģ
Ġro t
ëĿ¼ ìĿ¸
ĠØ± Ùħ
Ġc Ã¡
èı ľ
ih at
ĠáĥĽ áĥ¡
Ġhiz met
áĥĶáĥłáĥ Ĺ
ç§ »
Ġperson a
Â ¸
Ġb order
ĠSt ate
Ġv áº¥n
en ze
Ġma ior
est s
Ġà§ «
ÑĢÑĥ ÑĪ
Ġk up
à¤¢ à¤¼
Ġp utas
Ù Į
n Ã½ch
ÎŁÎ Ľ
p es
Ġg iven
Ġed ir
à¸Ńà¸ ģà¸
Ġtech ni
Ġsu is
ì¦ Ī
Ġt Ã©
æĦŁ ãģĺ
Ġap enas
Ġ äºĨ
ŀ à¯įà®ļ
Îº ÏģÎ¹
¾ è®¯
ĠÏĢ Î¬Î½
E P
ĠÃ¶n ce
Ġcomp uter
Ġre ach
à¹Ħà¸ §
åİĨ åı²
Ġà¤ķ à¤¹
ĠrÃ³w nieÅ¼
ĠÙĨ Ø±Ùħ
Ġpres ente
Ġcont rat
Ġw ed
ĠC Ã¡c
Î½ Î¹Î±
Ùİ ÙĬ
à§įà¦¯ à¦¾à¦²
Ġà¦¬à¦¿à¦¶ à§įà¦¬
ĠÙģÙĬ Ùĩ
ÐµÑĢ Ðµ
ial is
Ġà¹Ģà¸Ķà¸´à¸¡à¸ŀà¸±à¸Ļà¸ Łà¸£à¸µ
Ġcons egu
in u
Ġb Ã½
áĥĺáĥ¨ áĥľ
Ħ à¹īà¸²
Ġcu á»Ļc
Ġà¤ª à¥Ģ
Ġpers one
Ġn r
ĠæĽ ´
Ġà¤ľ à¤¬
ah ren
Ġd y
Ġbr as
Ġcomm on
r iv
ĠÙħ ØªØ±
à§ĩà¦² à¦¾
ĠSt reet
Ġà¤ļ à¤¾à¤¹
ĠÙģÙĬ ÙĩØ§
áĥķ áĥĲáĥľ
ÙĨØ¯ Ø§ÙĨ
Ã¡ ÅĻ
Ġf ul
Ð½ Ð¸Ðµ
ÑĢ Ð¾Ð±
g em
ĠSt ra
Ġex pos
_ P
Ġb amb
â Ļ
ĠPol it
y or
ĠL ou
Ġc uk
Ø§Ø¶ ÙĬ
à¦¤ à§įà¦¤
¸à¸ Ķà¸
Ġqu á»ĳc
Ġfollow ing
å ´
ªà¸ ±à¸
Ġgrup o
ÙĪØ± Øª
ĠÐº Ð°ÑĢ
Ġph Æ°Æ¡ng
Ġad ip
ĠM ini
Ġh Ã¡
d es
Ġmic ro
ch os
il an
ĠØ± Ø¦
ĠP T
ĠáĥĴáĥĲáĥĽ áĥĿ
Ġb Ãªn
um at
ĠS ev
Ġ) (
Ġlog o
p ack
å®ĺç½ĳ çĻ»å½ķ
á» ħ
Ġbag i
ç²¾ åĵģ
ĠÚ© Ø¯
æł ¸
AR D
uch en
Ġ×Ļ×© ×¨×Ĳ×ľ
à¯Īà®ķ à¯į
Ġà¦ķ à¦¥
ip s
ìĺ¤ íĶ¼
ig keit
ĠD ans
áĥłáĥ Ĵ
Ġà¤¹à¥ģà¤ ı
Ġbon us
ĠE c
Î½Î± ÏĤ
ÃŃcul o
Ġà§ ¦
Ġ×¨ ×§
ate urs
ĠÐ¼ ÐµÐ¶Ð´
ĠC le
om an
vol v
Ġh ub
Ġha ir
áĥłáĥ £áĥ
ĠáĥĽ áĥĿáĥ¡
ĠÎ¼ Î·
ĠØ¢Ùħ Ø±ÛĮÚ©
Ġtá» ¥
Ġa Å¾
åİ Ĥ
Ġg az
¡ à¸Ļà¸
Ġot ro
is ine
ç¨ ¿
æĶ »
áĥłáĥ ĵ
Ġà®® à¯Ĥ
Ġm ÉĻn
Ġèī ²
Î´ Î¹Î¬
Ġà°µ à±įà°¯
Ġnum ero
íĥ ľ
ç¼ ĸ
G A
Ġ×§ ×¨
ĠO h
Ġr im
áĥ Ń
Ġr ub
×ª ×¨
ĠAd minist
Ġb are
Ġsp rz
ĠÙĥ Ùħ
ÑĥÑĢ Ð³
Ð± Ñĭ
´à¸ ķ
Ġj etzt
ĠHe alth
ãĤ» ãĥĥãĥĪ
ŀ à¸£
Ø§ÙĪ ÙĨ
Ġåı °
éľĢ è¦ģ
ch io
Ġag en
Ġsr c
ÑģÐ» ÐµÐ´
Ġiss ues
à¤Ĥ à¤Ł
ĠOff ice
Ð¾Ð³ Ð»
ĠÐ³ Ð¾ÑģÑĥÐ´Ð°ÑĢ
Ġc ort
áĥĺáĥ ¦
ĠÐ¶ Ð¸Ð²
à¤µ à¤°
ra gen
Ġre cher
Ġilg ili
æ» ¡
áĥĶáĥĹ áĥĺáĥ¡
áĥĺáĥ «
ÎŁÎ Ŀ
n sk
Ġà¤¯ à¥ĩ
Ġà¤ ĳ
ĠØ¯Ø§Ø± ÙĨØ¯
Ġsl ot
Ġç ļ
Ġb ent
Ġc ours
Ø² ÙĬØ¯
ĠØ¯ÙĪÙĦ Øª
ĠÙĪ Ø¶Ø¹
ĠÃ©gal ement
Ġo yun
ĠR oy
ĠJ our
Ġãģ ©
ĠÙĪ Ùģ
ho ut
ÉĻs indÉĻ
ë² Ħ
_ s
Ġme ille
×¤ ×Ļ
el ine
Ġdoes n
ĠO S
ãĤµ ãĤ¤ãĥĪ
Ùĩ ÙĦ
as ter
Ġtr es
ÑģÑĤÑĢ Ð¾Ð¹
il ib
Ġint ens
ĠQ U
Îº Î»Î·
Î· Î³
Ġi y
Ä±ÄŁ Ä±nÄ±
è® Ń
Ġmess age
b ut
ĠØŃØ¶ ÙĪØ±
æĴŃ æĶ¾
à¹Īà¸²à¸ ¢
ob ili
ĠÙĩ Ø²Ø§Ø±
ĠØ¢ Ø²
ĠÎ½ Î¿
ÙĬÙĨ Ø§
à±ĩ à°ķ
Ġ×ĳ ×Ļ×Ł
æİĴ åĪĹ
ÅĤ os
ĠÚĨÙĩ Ø§Ø±
wi ÄĻ
er ve
Ġd áº«n
h em
Ġhal f
ĠA st
ĠTr ong
è ¿½
ĠSt at
Ġsc reen
ÑĢ Ð¸
ĠØ³ ÙĪØ±
Ġcomp on
ìł Ģ
åıĸ ãĤĬ
Ġter rit
Ġà¸ª à¹Īà¸ĩà¹Ģà¸
ĠÐ¼Ð½ Ð¾Ð³
ĠEst a
anc ed
à®© à¯Ī
×Ļ×§ ×Ķ
¸ áĢ
ĠC la
«à¸Ļ à¹īà¸²
ĠÐ½ ÐµÐ¼
Ġà¸ Ĭà¸
ĠJ ac
Ġdal Å¡ÃŃ
ĠH av
Ġres ist
Ġor ient
Ġe arly
ÑĤÐ¾Ð¼ Ñĥ
Ġãĥ Ń
Ġmot iv
åħ °
Ġag gi
Ġìļ Ķ
ĠZ a
Ġà¤Ĩ à¤ľ
ĠÐĵ Ð»Ð°Ð²
é¨ ĵ
ĠØ¨ÙĪØ¯ Ùĩ
à¹ģà¸ļà¸ ļ
Ñĥ ÑĢÐ°
Ġáĥĵ áĥĺáĥĵ
ĠÏĨ Î¿
ĩà¸Ĺà¸ °à¹Ģà¸ļà¸µà¸
Ġd ziaÅĤ
ĠÄĳá»ģ u
ãģ§ ãģĹãĤĩãģĨ
on as
ĠÑĤ ÐµÐ¿
Ġm asih
r ze
Ġl Ãºc
Ġf atto
ĠCan ada
Ú© ÙĨØ¯
b ÄĽ
Ġcoll abor
eb y
ĠÙĦÙĦ Øª
å± Ĥ
à¥ĩà¤ ¡
Ġper chÃ©
áŁ Ĵáŀ
ĠÙĨ ÙĪØ´
d ur
Ġtent ang
à¥ĩà¤ ļ
åĲĪ ä½ľ
Ġà®İ à®¤
Ġmult i
Ġadd ition
i amo
Ġsab er
Ġes e
Ġc ame
ì ¤Ģ
Ġh id
ÏĢÎ¿ Î¯
Ġh ang
Ġ à¹ĥà¸Ļà¸
Ġ×ľ ×ķ
Ġcomp ar
¥à¸ ·à¸Ńà¸
Ġãģ¾ ãģŁ
ĠÙĬ ØªÙħ
è¡ Ĺ
Ġj ud
ut os
ĠN orm
ĠÐ´ Ðµ
Î¼ÎŃ Î½Î±
Ġf lu
f re
ut es
åĿ Ľ
ĩà¸´à¸Ļà¸ ļà¸²à¸Ĺ
Ġpod r
ĠEn tre
on om
ĠØ§ÙĦØ£ Ø®
Ġa st
h b
ÐµÐ½ÑĤ Ñĭ
ĠÛ ³
Ġy en
Ġåķ Ĩ
Ġag osto
Ġ Ø§Ùĩ
łà¸ ±à¸
Ġan i
¥à¸ ´à¸
íı ī
if s
Ġé¦ Ļ
Ġk en
Ġth am
Ġcustom er
ing o
Ġà®ĩ à®Ł
ĠÐº Ð½Ð¸
Ø¨Ø§Ø± Ùĩ
P rice
§à¸¥ à¸²
Ġà¤ ł
Ġk imi
nÃ© ho
Ä± cÄ±
Ġprov ides
Ġà§ ª
Ġpr is
ĠS or
¨àµįà´ ¨
ĠÄĳá»ĭ a
Ġh ope
l ang
ĠØ§ÙĦ ÙĴ
§à¸ ±à¸Ļ
u age
ien st
Ġá ½
ĠMich ael
Ġà¦ı à¦®
Ġpu eden
Ġm oc
atu ur
ĠÐĴÑģ Ðµ
ĠÏĢ ÏīÏĤ
Ġdies em
Ġlig ne
áĥ£áĥ ®
Ġà¦ķ à¦¾à¦ľ
ĠS O
ĩà¸´à¸Ļà¸ļà¸²à¸Ĺ à¹Ħà¸Ĺà¸¢
Ġè ¨
ĠÏĥÏħ Î¼
Ġch Æ°a
Ġbel ir
à®¿à® ª
ĠDeutsch land
è§ ī
Ġstud ent
Î» Ïī
Ġíķ Ħ
Ġdiffic ult
ØŃ Ø§Øª
li ÄŁi
ol are
ĠS D
lar dan
ÎĹ Îľ
sk Ã½
à¥Ĥ à¤²
Ġprop rio
ar g
áĥĿáĥķ áĥľ
am at
Ùħ ÙĴ
Ġf en
Ġb áº¥t
áĥĿáĥ ŀ
Ġm idd
un uz
Ġprogr ama
Ġm id
éģ ķ
Ġmon de
Ĺ i
ĠØª ÛĮÙħ
ä¹ ¡
b at
pl an
ĠÙģ ÙĦ
Ġas i
à¤ķ à¤¿à¤¨
ģà¸ ´à¸
áĥĺáĥĿ áĥľ
Ãª te
iy on
ĠÑĢÐµÐ· ÑĥÐ»ÑĮÑĤ
è Ĵ
re tt
à¥ĭ à¤°
à¤Ĥ à¤§
Ġrequire d
ĠØŃÙĤ ÙĪÙĤ
ĠÐ±Ñĭ Ð»Ð¸
ibil ity
Ġn ational
ĠØ¯ ÙĪÙħ
Ġup load
Õ¡Õ¯ Õ¡Õ¶
ĠÃ Ĩ
à¤Ĺ à¤°
Ġenerg y
Îº Î·
Ð½ ÐµÐ²
Õ ¯
Ġac cept
ud as
H z
Ġte j
ĠÑģÐ¾ Ð¾ÑĤÐ²ÐµÑĤ
à®£à¯įà®Ł à¯ģ
Ħ à¹Īà¸
Ġm ant
çĦ¡ ãģĹ
Ġpo i
å¿ħ è¦ģ
×ŀ ×Ļ×ĵ
ì ¢ħ
l iv
apat kan
à°¾à°¨ à±įà°¨à°¿
ĠÎ´Î· Î¼Î¿
ĠÙĩÙĨ Ø§Ùĥ
ĠìĤ¬ ìļ©
Ġsal ah
Ġk ole
ä¸į æĺ¯
ig i
ter a
Ð¸ÑĩÐµÑģÐº Ð¾Ð³Ð¾
sk iej
Ġæ ģ
à¦¾à¦ £
end ir
Ġ199 8
ill ed
ĠFir st
Ġcond itions
çº ª
ĠØ· Ø±Ùģ
j os
ĠbÃ¶ l
Ð°Ñı Ð²
Ġav is
ļà¸ ±à¸
ĠÑį Ð»ÐµÐºÑĤÑĢ
Ã³ t
Ġà®ļ à®¿à®±
Ġca use
Ġ' )
Ġris k
U t
Ä ı
ĠÙħØ´ Ø§Ø±
ÙĪ Ø¶
Ġç Ĳ
ìĺ Ģ
ï¼ ĵ
à°¿à° Ł
sk Ã¡
Ġmach ine
æĸ Ĺ
Ú¯ ÙĪ
li ed
Ùĥ Ø§Øª
ĠC V
Ġ ÅĻÃŃ
Ġp ied
åĲ ¬
ãģķãĤĮ ãģŁ
b are
à¦¿à¦ ļ
Ġof er
Ġh á»Ļ
ĠÐ¾ÑĤ Ð»Ð¸Ñĩ
ÙĦØ³ Ø·
ess er
Ð· Ñĭ
áº¥ m
ib er
ĠS ign
à§ģà¦° à§ģ
Äį ky
Ġwh ole
ver pg
ikip edia
ag gi
Ġi phone
Ġpar as
ĠÄĳá»ķ i
Ġ/ >
à®® à®¾à®©
×¤ ×ĺ
ĠÙĪ ÙĤØ¯
Ø³ ÙĨ
ĠÎ´ Î¹Îº
ÑĢ ÑĭÐ²
Ġt ol
à¦¾à¦° à¦¾
ze ug
Ġìł ģ
Ġd ove
al Ä±k
Ùħ Ùĩ
ĠÑĥ ÑĤ
Ġpok er
ï¼ ¿
Ġæ ¿
Ġåį ģ
oss o
ĠÐ¾ÑĤ Ð·ÑĭÐ²
Ġg Ã¼z
à¦¾à¦² à§ĩ
Ġna z
ĠC ult
iv amente
Ġdi as
ĠØ§Ø ¶
Ð¾ÑĢ Ð¾Ð½
on se
ãģĹ ãģ¾ãģĹãģŁ
Ġra cc
ÅĤ e
es ar
ãĤ¹ ãĥĨ
áĢ Ń
Ø± ØŃ
ĠN á»Ļi
ĠN or
Ġtout es
èĦ ±
è´ §
ĠvÅ¡e ch
Ġob lig
Ġ365 ä½ĵèĤ²æĬķæ³¨
uk i
ig ung
Ġà¦¨ à¦¾à¦®
g ens
Ġh in
3 d
ir im
Ġprodu ction
ĠV ert
ĠDig ital
áĥĶáĥĹ áĥĺ
ĠB ill
Ġ ĆĈ
ÑħÐ¾Ð´ Ð¸ÑĤ
Ġl Ã¡
Ġz ad
Ñį ÑĤÐ¾Ð¼Ñĥ
ch ter
èĳ Ĺ
Ã¸ re
é¦ Ĩ
ĠÑĢÐ°Ð·Ð² Ð¸ÑĤ
Ġm Ã¶
ĠC C
ĠÑĦ Ð¸Ð»ÑĮ
Ġho Ãłn
r el
Ġs Ã¡ng
à°¸ à±įà°¤
Äį et
Ġtro v
ĠIs land
ÙĪÙĦ Ùĩ
ĠM obile
ov ed
Ø§Ø¦ Ø±
st yr
ìķĦ ê°Ģ
Ð°ÑĢ Ð°ÐºÑĤÐµÑĢ
ĠØ¨Ø§Ø² Ø¯ÛĮØ¯
ud ar
ÙĦ Ø·
ĠáĥĵáĥĲáĥ ĺ
Ð Ļ
à¦Ļà§įà¦Ĺ à§ĩ
ãĥ³ãĤ º
Ġb iet
áĥĺáĥ¡ áĥĲ
Ġs and
Ġà¤¸ à¤¾à¤®
áĥĿáĥ ¨áĥĺ
à®Ł à®¿
isch er
Ġs Ä±
Ġl y
ĠT as
ĠA F
Y n
Ð¾Ð² Ð¾Ð´
ķà¸±à¸ §à¸
Ġ? "
Ġà¤¦ à¥ĩà¤¶
ĠProf ess
Ġsub ject
ĠáĥĹáĥ¥ áĥķáĥĶáĥľ
Ġà®ĩ à®²à¯įà®²
Ġse p
ĠÏĦ ÏĮ
ê ´ĳ
ag li
Ġh ip
up t
Ġge f
à°¦ à°¿
Ġà¤ľ à¤¾
ģ à¸£
ĠÙĩÙħÚĨ ÙĨÛĮÙĨ
èµ ļ
Ø§ÙĬ Ø±
un ia
Ġå· ¥
ĠÐ½Ð° ÑĢ
Ġpom oc
ĠP ap
ÐµÑĢ Ð¾Ð²
ar et
à¸£à¸¹ à¹īà¸
Ġc ategor
Ġn ice
ÐµÑĢ ÑĮ
ug g
:: ::
Ð°ÑĤ ÐµÐ»Ñı
éª Ĺ
ĠÑĢ ÐµÐ±
Ġmog elijk
Ġc redit
Ø¬ Ø§ÙĨ
ÐµÐºÑĤ Ð¸Ð²
ĠgÃ¶r Ã¼n
×ł ×ĺ
Ġ ãģĮ
Ġà®Ĩ à®©
ĠÐ¿ÑĢ Ð¾Ñģ
Ġmiej s
åĿ ĩ
ĠG Ã¼
kon om
ib a
Ø² Ùĩ
Ġn iv
al ia
Ġfre qu
Ġvo y
Ġà¦¤ à¦¾à¦¦à§ĩà¦°
Ġeff ic
st ar
Ġsec ret
åį ´
ãģ¨æĢĿ ãģĦãģ¾ãģĻ
×ŀ× ĵ
ĠÐ±ÐµÑģÐ¿Ð»Ð°ÑĤ Ð½Ð¾
Ġh it
áĥĶáĥļ áĥ¡
Ġå £
æ ĩ
åĽ½ äº§
ert i
à¯ģà® ²
op s
é¡ į
à¥įà¤Ł à¥įà¤°
Ġd Ã¶v
Ġt udo
Ġitem s
ç§ ¯
ĠØª Ø§Ø±ÙĬØ®
ĠGo od
Î½Î± Î½
ĠØ§Ø± Øª
Ġmel akukan
uk u
Ġet was
äº «
Ġn Ã¡s
à¦§ à¦¾à¦¨
ĠÐº ÑĤÐ¾
Ġà¤¦ à¥Ģ
ãģķ ãģĽ
ÏĨ ÎŃÏģ
Ġà®® à¯Ģ
ÑĢ ÐµÑģ
Ġà¦ķ à¦¾à¦
j el
Ġë Ī
ĠÎ± ÎºÏĮ
ãĥ¼ãĥ ĳ
ut an
áĥĺáĥĹ áĥ®
u he
l ast
Ġga an
Ġtro p
ĠÙĤ Ø¨
ĠDe ze
Ġv ier
Ġs amo
à¥Į à¤°
çľŁ çļĦ
Ġ×¤ ×¢
Ġæı Ĳ
v ÄĽt
Ġì° ¨
ÏĦ Î¹Î±
az u
ê°Ģ ê²©
Ġj og
l ant
ĠÕ «
Î¼ ÏīÏĤ
ç§ĳ æĬĢ
ÏĥÎº ÎµÏħ
Ġmak a
Î´ ÎµÏĤ
it ation
n der
ĠÎµÏĢ Î¹Ïĥ
à¤¸ à¤¾
r g
æĢ ¥
ĠbaÄŁ lÄ±
ĠgÃ¶ ster
Ġ×ŀ ×¨
Ġb ast
ĠØ¹ Ø¶
ĠÐ´ Ð¾ÑĢ
ï½ Ĺ
Ġ35 6
ĠÚ¯ ÛĮ
Ġest os
ĠÐ¿ÑĢÐ¾ÑĨ ÐµÑģÑģ
yr ight
ati que
ĠC ru
Ã©t Ã©
Ġha ar
Ġ[ "
Ġhapp y
ĠO K
Ġout ros
à¤° à¤£
×ŀ× ¢
la ub
Ġw ent
vent ion
ĠÐ¿ÑĢÐ¾ÑĤ Ð¸Ð²
Ġver z
ar ang
çļĦ ä¸Ģ
ĠáĥłáĥĿáĥĴ áĥĿáĥłáĥª
Ġà¤²à¥ĩ à¤ķà¤¿à¤¨
ç ĳ
ĠçĽ ®
m ÄĽ
ĠíĻ Ķ
ĠìĦ ¤
ç» ĩ
ãĥ³ãĥ Ĩ
form a
ë£ ¨
è® ²
Ġkar ÅŁÄ±
Ð° Ñī
er k
Ð°Ð½ Ð¸Ð¹
Ø±ÙĪ Ùģ
Ġ×Ļ ×Ķ
Ġà¤¬ à¥Ī
§à¸´à¸ ĺ
Ġb ert
ÏĢÎ¿Ïħ ÏģÎ³
r ant
ĠArt ikel
Ġg uer
ĠØ®Øµ ÙĪØµ
ist ic
Ġare as
ĠCon f
ãĤ ®
g ew
Ġà¦¬à¦¿à¦ Ń
ĠØ§ÙĦ Ø§Ùħ
æ¯ į
Ġc res
ÏĨÎ¿ ÏģÎ¬
Ã² a
Ã§ as
Ġe ig
æ¹ ¾
à¸²à¸ ªà¸´
Ġà¤ķ à¤¾à¤®
Ġ×Ĳ ×¨
Ú¯ Ø±ÛĮ
ĠÙĬ Ø¯
ÐµÑĩ ÐµÐ½Ð¸Ðµ
ĠdeÄŁ il
ç½ĳ ç»ľ
à¹īà¸²à¸ ĩ
s iz
à¦¸ à¦²
à¸Ńà¸¢à¸¹ à¹Īà¸
ĠÐ½ Ð°Ð»
Ġap a
Ġr ent
ëł ¨
Ġimp rov
< /
and en
æĸ¹ éĿ¢
ØŃ Ø§Ø¯
ĠÐ· Ð²
ĠEle kt
Ġmais on
à¤ª à¥Ģ
an ci
Ġé ¡
Ġaqu i
ĠBe i
Ħ à¸²à¸£
Ġï ¸ı
à±ĩà° µ
Ġprim er
ÐµÑĢ Ð±
ĠÙħØ¯ ÛĮØ±
Ġstat us
Ġà®ķ à®²
Ġsel v
Ĺà¸²à¸ ĩ
à¹ Ħà¸£
ÎĻÎ Ŀ
Ġto ute
Ġç ©
æ¯Ķ åĪĨ
ĠD am
ĠçĶ ¨
Ġter j
ĠØ³ Ù¾
Ġp ays
Ø±ÙĬ Ø¨
ĠÑĥ Ð»
ĠAr m
ĠØ¨Ø´ ÙĥÙĦ
Ġvar ious
ĠÑĢÐ°Ñģ Ñģ
ĠJ apan
Ġç ı
Ġtip s
ĠN az
ĠS ome
± áĢ
Ø±Ùģ Ø©
Ġcontin ue
ĠRob ert
B S
Ø§ÙĦ ØŃ
Ã¤ ft
æĥ ł
ĠãĤ ¸
Ġà®ļà¯Ĩà®¯ à¯įà®¯
Ã¦r t
ab r
cy j
ÑĨ Ðµ
ĠP P
ĠIn vest
Ġãĥ Ģ
Ġth Ã¢n
ĠÐ±Ð¾Ð»ÑĮÑĪ Ðµ
Ġn orsk
à¦° à§ĩà¦°
Ġto ok
à¤ļà¥įà¤ ļ
Ķà¹īà¸§à¸ ¢
Ġanal ys
à®¿à®¤à¯įà®¤ à¯ģ
ë¡ ł
Ġëĵ ¤
Ġv ill
z b
Ð «
Õ¥ Õ¶
ª à¹Į
Ġæ Ĳ
il ity
ĠZ w
Î½ Î®
ãĥĥ ãĤ°
ĠÅŁek ilde
áĥĲ áĥĲ
reb be
Ġy orum
æī ¾
ç¨ İ
ĠÐļ Ð¾Ð½
à¯ģà®µ à®¤
ĠÄ°st anbul
ien i
à±ģà° ª
å¦Ĥ ä½ķ
i ques
ual mente
Ġk ata
Ġà¤ķà¤¾à¤° à¥įà¤¯
est en
Ø§Ø¯ ÙĤ
ĠD ou
ĠC A
ĠÐ¾ ÑĦ
å·² ç»ı
ĠÙĪ Ø§ÙĨ
Ġà¤¬ à¤¾à¤¤
ĠkeÃ§ ir
Ġby l
Ġáĥĵ áĥĲáĥķ
à¦¤ à§įà¦¯
Ġl iá»ĩu
Ġtr áº»
Ġsu ite
ĠS ay
ï¼ Ł
áĥĲáĥłáĥ ¡
Ġle urs
Ð¾ÑĤ Ð°
ĠPr im
LC J
ĠAl so
è¡ ĵ
Ġess e
ĠÙĤØ³Ùħ Øª
ĠØ£ ÙĪÙĦ
ĠÐ¼ Ð°Ð»
ĠÙħØª ÙĨ
Ùħ ÙĬÙĦ
zy m
Ġjedn ak
ess en
ĠçĶ ·
Ã© v
l ÉĻt
à¯ģà®ķ à®³à¯į
zo ek
ĠÐ¼ Ð½Ðµ
ĠÐ¸ Ñİ
ĠçĻ ½
ĠÚ© Ø§ÙĦ
Ġcont re
ÙĬ ÙĬÙĨ
ian i
èµĦ æºĲ
Ġs á»Ł
èĪ ¬
Ġme as
Ã¼ b
Ġéķ ¿
ĠH ere
Ð¸ÑĤ Ñĥ
×ķ ×ķ
Ä± q
çº¿ ä¸Ĭ
Ġà¦¸ à¦¹
à°® à±įà°®
R o
Ġf ive
Î¯ Ïĥ
U K
Ġz ast
ĠØ¯ ÙĪÙĨ
à±ģà°Ĥà° Ł
Ġcomp lex
áĥķ áĥł
Ġga at
à¯ģà®ķ à®³
Ġngo Ãłi
Ð¸ÑĤ Ð°
Ġob j
Ġ ãģ¨ãģĦãģĨ
çļĦ äºº
à¦¾à¦° à§ĩà¦°
ĠÙĬ Ø³Øª
Ġv iene
ĠCh amp
Ġmon itor
ĠW el
Ġodp owied
Ġtab let
Ġg Ã©nÃ©r
§ à¸Ļà¸
ĠÙħØ± Ú©
ĠØ£ ØŃØ¯
Ġw i
h Ã¶r
ac zy
cha ft
ĠR ic
Ġam ong
ĠU k
es o
Ġì ½ľê±¸
Ġv Å¡
ãģĵ ãģ®
ĠD C
ors a
ĠèĢ ģ
Ġw aktu
Ú¯ Ø±Ø§ÙĨ
å¥ ¹
v l
Ġwh ether
Ġm ujer
Ġj ego
ĠCom ments
Ġm iá»ħn
ĠH indi
é¢ ¨
à¯Īà®ķ à®³à¯į
Ñĩ Ð°Ñģ
Ġtem pl
ĠP f
vo ir
EN D
ĠPre is
ØªÙĩ Ùħ
Ġm ange
ĠBer lin
Ġr und
ĠS au
ĠÐ²Ñĭ Ð±
Ġcos Ã¬
ĠãĤ »
Ġz b
ÏĦÏĮ ÏĤ
Î´ Î¹Îº
Ġ á»©ng
łà¸²à¸ ŀ
ĠáĥĽ áĥĶáĥ¢
re ci
Ø¢ ÙĨ
l agen
iz ia
cz as
m aya
ı i
Ġà®µà¯Ĩ à®³
ĠÑģÑĤ Ð°ÑĢ
av es
Ġ×ľ ×ĵ
Ġ>< /
Ġs ust
å¤§åıĳ å¿«ä¸ī
éĵ ģ
ä¾ Ĩ
or ni
ill ing
el um
Ġah ora
à¤¾à¤¤ à¥įà¤°
de j
Ġ×© ×¢
Ġà¹Ģà¸ ŀ
Ġrel ev
co in
ac er
Ġz ou
à§ģà¦ ĩ
Äį e
ĠÏħ ÏĢÎ¬ÏģÏĩ
à§įà¦ Ľ
Ġo ch
áĥķáĥĶáĥ §
Ġo w
ì§ Ī
çª ģ
ĠTH E
Ġà¤° à¤¹
z immer
à¯ģà® ļ
Ġì° ¸
ĠØ§Ùħ Ø§Ùħ
Ġ: "
Ġãģ ķ
Ġ×Ĺ ×ĳ×¨
Ã¸ k
à§Ģ à¦¨
Ġag æĹĹèĪ°åİħ
áĥķ áĥĶ
ĠåŃ ¦
Ġå¸ Ĥ
ĠÐ¿ÑĢÐ¾Ð± Ð»ÐµÐ¼
Ġer st
Ã© ment
er l
ak it
Ġd ÃŃas
à¦°à§įà¦ ¥
eh ir
Ġà¦ķ à¦¿à¦Ľ
Ġsim ilar
å° Ħ
ĠT it
E A
Ġp ang
Ġg al
Ġconc ent
ä¸Ģ ç¯ĩ
Ġ×ĳ ×Ļ×ª
ĠáĥĹáĥĲáĥķ áĥĺáĥ¡
Ïĩ Î¹
ĠB ij
ë¶Ģ íĦ°
Ø¯ Ø§ÙĨ
Ġm áº¯t
×ł ×Ļ×ª
Ġà¤¦ à¤¿à¤¨
Ġch uyÃªn
Ġver k
Ùĳ Ø©
Ġp c
à¹ģ à¸Ļ
à´ ¯
Ð¾ÑĤÑĢ ÐµÐ±
ĠP in
Ġpr v
Ġpag k
ĠÙħÙĪ Ø¬
Ġex act
Ġm ondo
Ġà®ª à®¯
Ġà®¨ à®¿à®²
ord s
Ġrel ativ
is l
um n
ĠIs ra
Ġso it
ĠJ ack
ia is
ĠãĤ ¿
Ġess a
Ġcont ract
Ã§ i
Ġgo ogle
Ġal d
Ø§ÛĮ Ùĩ
lar Ä±nda
Ġprov ided
à¸Ńà¸ Ķà¸
ĠØ§ÙĦØ¬ Ø¯ÙĬØ¯
Ġx Ã£
Ġr áº±ng
áĥĺáĥ ĳ
Ġà¤ľ à¤¨
ĠPre mi
ĠL ove
é§ ħ
Ġpap er
à±ģà° ¡
Ġ( +
Ġç Ĥ
ĠÐº Ð°ÑĤ
ĠÐ¸Ð· Ð¼ÐµÐ½
ĠÐ» ÐµÐ³
ĠS ul
×¨ ×ļ
Ġtr an
am t
ĠÙħ Ø¨Ø§Ø±
ĠÐ¾ Ð¿ÑĢÐµÐ´ÐµÐ»
Ġst o
×ĳ ×ª
Ġà¦Ĩà¦® à¦¿
Ġco ol
ĠÎºÎ¬ Î¸Îµ
G V
Ġà®ĩ à®µ
âĢ ĺ
Ø² Ø¨
Ġdev am
il ing
Ġæľ Ī
Ġje ho
ãĥĹ ãĥª
Ġà¤¥ à¥ĩ
ain ing
Ġé» Ħ
Ġtak ing
Ġpre c
Ġent ry
Ġpre cio
áŀ ¶
ÃŃ p
ĠÐľ Ñĭ
f il
Ġste p
åª Ĵ
st al
b ere
Ĺ à¸£à¸
Ġà®¤ à®²
Ġdi z
Ġpre mier
ĠFran cis
à§ĭ à¦ķ
ÐµÐ² Ð°
è´ Ł
z ial
r Ãł
ĠC um
à¹ĥà¸«à¸ į
ĠØŃØ³ Ø§Ø¨
Ġg eme
Ø´ Ùĩ
A l
un ya
à¦ª à§ģà¦°
Ġn Ãºmero
ĠC ond
ail s
ĠÙħ Ùģ
Ð¡ Ð¢
ĠgÃ¶r ÉĻ
Ġc red
èµĮ éĴ±
ÙĪØ³ Ø·
Ġì ¶ľ
os se
å¥ Ĺ
´ à¹Īà¸¡à¸
ĠM Ã©
ÙĪÙĨ ÙĬ
Ġë¡ ľ
Ġlat est
è® ¸
Ø§Ø¦ Ùħ
Ġçľ ĭ
Ġek stra
Ġd or
ÎµÎ¯ ÏĤ
Ġdifer entes
Ġl ado
ĠF ot
ĠÏĢÎµÏģÎ¹ Î¿
ik er
Ġag e
éĸ Ģ
a al
Ġr id
ĠÙħÙĨ Ø°
ĠÑģÑĤ ÑĢÐ¾
ÃŃ r
ĠT ut
Ð°Ð» ÑģÑı
Ġo stat
ful ly
Ġ×ĳ ×ĵ
åŃ ©
ĠM ol
d Ã¼
L AR
ĠC S
à¹ĥà¸«à¸¡ à¹Ī
Ġíķ Ļ
Ġs ant
à¹Īà¸ ¡
ÏģÎ± ÏĤ
Ġà¤ªà¥įà¤° à¤¦
Ġph ys
ä½ Ļ
ĠáĥĽáĥĺáĥ¡ áĥĺ
Ġà¦®à¦§à§įà¦¯ à§ĩ
Ġfe ira
Ġä½ ¿
all ery
Ġpar k
N D
lÉĻr in
Ġpr imo
Ð°Ð» Ð¸ÑģÑĤ
Ġih re
lar la
l age
Ġà¤ħ à¤¬
Ġsk in
ĠN i
iv ely
ìĿ´ ëĿ¼
Î¼ÏĨ ÏīÎ½
t ar
ç¬ ĳ
ÏĦÎµ Ïģ
Ġë° Ľ
b ah
à¤¿à¤ ·
Ã¼n Ã¼
ĠÑįÐº ÑģÐ¿
ĠÑĤ ÑĢÐ°Ð½
Ġbul un
te il
Ĺà¸ ¸à¸ģà¸
Ġà®®à®±à¯įà®± à¯ģà®®à¯į
Ġob ten
oll en
ĠÄĳ Ã¡nh
Ġevent s
Ġe uros
Ġà¤ ĵ
ĠØ§ÙĦ Ø§Ø³
Ġ à¹Ĩ
Â ±
ĠM ir
Î¼Î¿ ÏĤ
esz cze
ķà¸²à¸ ¡à¸
ĠØ£ Øµ
Ġno en
ĠCont rol
enn is
ĠÐ¼ ÑĥÐ¶
Ġser ver
Ġob t
åģ ľ
ĠH T
Ġme z
ĠB in
ĠØº ÛĮØ±
Ġt egen
à§Ģ à¦¬
ĠÐŀ Ñģ
Ġfe ature
Îĳ ÎĻ
ĠØ§ÙĨ ÙĪØ§Ø¹
Ĺà¸µà¹Īà¸ ªà¸¸à¸Ķ
ĠRe ply
Ġ×Ķ× Ŀ
Ġë³ ´ë
Ġà¤° à¥Ĥà¤ª
äº¤ æµģ
ĠÙħÛĮâĢĮ ØªÙĪØ§ÙĨ
ive au
é¢Ħ æµĭ
Ġch áº¿
ãĥ³ãĥ Ĺ
à¦¿à§Ł à¦¾
unicip al
ro c
ĠÐ½ Ð¸Ñħ
ĠH en
ĠÐ´Ð¾Ðº ÑĥÐ¼
Ġv ind
à¤® à¥ĩà¤Ĥ
Î¼Î± ÏĦÎ¿
ia ble
Ġà°ķà±Ĥà° ¡à°¾
ĠAmer ica
æ´ ¾
ff ee
Ġà¦¹ à¦¯à¦¼
Ġf at
ĠĈ Ĉ
Ġ×ľ ×¡
ĠÑĥÑģÐ» ÑĥÐ³
Ġç ®
Ġn ich
Ġinter p
Ùħ Ø³
b in
Ġc y
i embre
ĠØ¹ Ø¨
ĠC er
à¤° à¥ĭ
×ľ ×Ĺ
Ġà¦¬ à¦Ľ
Ġì² Ń
ĠØ´ ÙĪØ±
Ø±Ø¨ ÙĬØ©
Ġespec ially
Ćć ą
Ùİ Ø±
Ð»Ñı ÐµÑĤ
N S
à¤¾à¤ «
Ġi p
ĠÐºÐ² Ð°ÑĢÑĤ
ĠTr ump
ĠS U
à¦ª à§įà¦°
Ġge ht
bi amo
s il
ĠÎ¿ÏĢÎ¿ Î¯Î±
oc z
d et
Ġgj enn
Ġnu ovo
av y
Ġu0 9
ĠIh re
Ø±ÙĬ Ùĥ
æľ Ŀ
ĠL ight
Ġä½ ķ
Ġstr ing
à¦Ĺ à§įà¦°
áĥĲáĥ Ķ
ĠìĹ Ń
ĠÙĨØ¸ Ø§Ùħ
Ġdiff Ã©r
ĠHab er
Ġcond ition
äºº åĳĺ
up un
Ġm nie
Ġdo br
éģ ĭ
Ġ×ķ ×©
à¥įà¤° à¤®
Ġç ¼
Ġasp ect
à¯įà® ¸
Ð¾Ð» Ð¶
ff ic
Ġus u
ĠÐº Ð»Ð¸
á»ĩ u
Ġrem ove
ĠR p
áĥĺáĥ «áĥļ
ÙĨ Ùī
ĠØ®ÙĪ Ø§Ùĩ
Ġ ä¹ĭ
ow Äħ
le ur
æ´ ¥
L O
ĠØ§Ø¹ ÙĦØ§Ùħ
áĥĶáĥĳ áĥĶáĥļáĥĺ
ent lich
Ġ! âĢĿ
ĠÐº Ð°Ð·
Ġl ud
Ġdr ive
Ð¸ÑĤ ÐµÐ»Ð¸
ĠØ¯ Ø®
Þ ¬
Ġwe ight
Ġp ÅĤ
Ġde ix
ÏĨ Îµ
u ir
ĩà¸Ĺà¸°à¹Ģà¸ļà¸µà¸ ¢à¸Ļà¸
ãģ¦ ãĤĤ
Ġå¼ ł
Ð¾Ð¶ Ðµ
ĠÙĨ ÙĪØ±
Ġs ave
Ġn áº¿u
Ġfur ther
Ġà¤¹à¥ĭ à¤¤à¤¾
à® ¨
v od
Î½Î¿ Ïį
Ã©r ica
ĠÑĤÐµÐ» ÐµÑĦ
d ated
ĠØ± ÙĨÚ¯
Ġen n
Ä± b
à§įà¦¤ à§ģ
Ġà¤ķà¤° à¤¤à¥ĩ
Ġse en
el ingen
ĠØ§ÙĦÙħ ÙĦ
ĠÐ³ ÑĢÑĥÐ¿Ð¿
ĠÙĩ ÙĦ
Ġdest in
Ġad res
à¯įà®ļ à®¿
Ġà¤¸à¤° à¤ķà¤¾à¤°
Ġà¤° à¤¹à¥Ģ
Ġáĥł áĥĲáĥª
ĠÐ¿ÑĢÐ¸Ð¼ ÐµÐ½
åħĥ æ£ĭçīĮ
Ġà¹Ĥà¸Ľà¸£ à¹Ĥà¸¡à¸
ĠØ§ÛĮ Ø¬Ø§Ø¯
áĥ§ áĥķ
ĠÑĪ Ðº
ĠTe x
P A
Ġin gr
Ġ) ØĮ
Ġà¦¹ à¦²
ro uw
ĠÑģÑĤ Ð°ÑĤÑĮ
à°ķ à°¿
ĠW in
à§ĩà¦¨ à§įà¦Ł
g esch
ĠÎ± Ïģ
Ġp ath
Ġchuy á»ĥn
ra ge
ĠÐ½ Ð°Ð¼
à¤ķà¥įà¤ ¸
ŀà¸Ļà¸ ±à¸Ļà¸
à®¾à®³ à¯į
ĠÑĥ ÑĢÐ¾Ð²
ĠR ab
Ġb Ã¼tÃ¼n
×ķ× ¥
ĠØ« Ø¨Øª
à¤µ à¥Ģ
áĥĺáĥ£áĥł áĥĺ
ĠÐ±Ñĭ Ð»Ð°
Ġsome one
ãĤį ãģĨ
ĠB A
Ġà°¨ à°¿à°°
ĠB B
¥à¸ °à¹Ģà¸
ĠH az
ë¶ ģ
Ġc ut
Ġ×Ľ ×ļ
Ġl ung
Ġáĥ¨ áĥĶáĥľ
ëł ¹
ĠF ahr
Ġol ur
ĠM á»¹
Ġ à²
Ð´ Ð¸Ð½
å® £
l ÃŃ
ì ´Ī
áĥĲáĥ¨ áĥķ
Ġsar Ãł
Ġ& #
Ġíķ ¨
ÙĬÙħ Ø©
Ġdon ne
à§ĭ à¦®
ĠWh ile
ĠÑįÑĤ Ð¾Ð¹
Ġh am
Ġappro ach
à¹ģà¸ļà¸ ļà¸
à°¡ à°Ĥ
ãģı ãģª
Î¯ ÏīÎ½
Ġê ´ĳ
äº ²
áº¯ p
à¯ģà® ´
en Ã©
à¯įà®ª à¯įà®ª
Ġ10 5
le v
aj ÃŃ
Ġconf irm
Ġ×Ľ ×ŀ×ķ
ĠÐŀ Ð½
Ġà°ħ à°µ
Ġmar zo
get to
ĠSec ret
ĠMin ister
Ġç ²
è¡ £
Ġì ½Ķ
Ġdesign ed
Ġch Æ¡i
· ¨
ĠÎ¼ÏĮ Î½Î¿
Ðº Ð¸Ð¹
æĻ ļ
ard in
Ġz naj
Ġh ora
Ġs ito
ĠC ara
ĠB O
Ø³Øª Ø±
ak in
Ġb lij
Ġarr iv
à¥įà¤¯ à¥Ĥ
ĠK ad
Ð¼ Ðµ
ĠÐ· Ð°ÑıÐ²
×¨ ×ķ×ª
Î¸ Î¿ÏįÎ½
ªà¸ ´à¸Ļà¸
æĿ ¯
éĤĢè¯·çłģ _
ÑĢÑĥ Ð±
à¤ ĺ
Ġn ome
ĠM Ã¡
ãĥ¼ãĥ Ĺ
ĠS us
åŁİ å¸Ĥ
ĠH is
éļ ľ
Ð¸ÑĩÐµÑģÐº Ð¸
Äį ka
¸ à¹Īà¸Ļ
ĠÙĥ ÙĬÙģ
Ġà¦¦ à¦¿à¦¨
Ġg reen
ĠÙħ Ø±Ø¨
ĠÐ½ ÐµÐº
Ġc ung
ĠR ock
re w
Ġth ÃŃch
Ġet ti
Ġmes es
hing ga
Ġà¦¹à§Ł à§ĩ
Ð° ÑĨÐ¸Ð¾Ð½
Ġå¤§åıĳ å¿«3
ĠJos Ã©
Ð°Ðº Ñģ
áĥ£áĥ ĵ
Ġp Ã¡g
ĠV it
åĲ «
ic iones
ast o
íĺ Ħ
à· ı
ĠDan iel
ĠÙĦ ÙĩØ§
Ð¾Ð³ ÑĢÐ°ÑĦ
l ist
ĠÙħØ³ Ø¦
Ġe ither
r Ã¥
B ook
Ġé ĸ
Ġgi áº£m
Ġconn ect
£ i
Ġest Ã£o
ĠT amb
d ib
ĠM ain
Ø§ÙĨ Ø§Øª
Ġ×ĳ ×Ľ×ľ
Ġnuest ro
Ġass im
Ð°Ð» Ð¸ÑģÑĮ
ĠB ek
en os
Î³ Î±
¶ à¹Īà¸ĩ
Ġk eb
Ġf ly
ens i
Ġb atter
ªà¸ ¡à¸
ĠÙħ ÙĦÙĬ
ĠØ¹ÙĦ Ùħ
Ġiss ue
Ġbel ieve
Ġr in
Ġprim era
Ġint rodu
Ðº Ð°Ð¼Ð¸
ê» ĺ
Ð°Ð½ Ñĭ
Ġquy áº¿t
ĠMan agement
Ġbir lik
Ġå» º
ĠÙĨ ÙĤÙĦ
ĠdÃ¼n y
Ġk ec
ì¸ ł
en h
Ġre ady
ĠÐ² Ð¾Ð»
Ġáĥ¡áĥĲáĥ® áĥĶáĥļ
ĠÙħ ÙĩØ±
Ġprom ot
ĠØ³ Ùģ
Ġ à¬
Ġs erta
áĥĲáĥł áĥĶ
à¦¸ à§įà¦¯
Ñĥ Ð»Ð¸
Ġark adaÅŁ
ĠØ§Ø³Øª Ø®Ø¯Ø§Ùħ
ĠD im
ell ig
Ġneed ed
as Ä±nÄ±n
æĤ ¨
´ Ŀ
F C
ĠÐ± Ð»
éŁ ©
é¡ ŀ
c ing
ĠF oll
Ø± Ø§Ùģ
èĦ ĳ
ãĤ¿ ãĤ¤
ÅĻ ej
Äį enÃŃ
ìľ ¡
Ġto uj
àµįà´ ¤
ran k
à¸£ à¹Į
ĠMens chen
ķà¸´à¸ Ķà¸
Ġ×Ĳ×Ĺ ×ĵ
ĠC ert
Ġcho ose
ĠA ff
ĠÙ¾Ø§Ø³ Ø®
Ġé ĥ½
ÙĪÙĨ Ø§
ä¸ Ķ
Ġmet al
Ġal ign
é ½
äºĨ ä¸Ģ
K A
Ġhat te
ä¼ ĳ
un ities
ro g
Ġfon ction
ob e
Ġcolle ction
Ġadd itional
æĮ Ĥ
Úĺ ÛĮ
Ġtut te
ĠÙħ ÙĦÛĮ
Ĭ à¸Ļà¸
ÏĮ ÏĦÎ·ÏĦÎ±
at k
Ñĥ ÑİÑĤ
Ð¼ Ð°ÑĤ
ĠE conom
ĠÐ½Ð° ÑħÐ¾Ð´
Ġ} ,"
æĪ ¦
Ø¨ Ø±Ø¯
ĠÚ© Ø§Ùħ
âĢ ı
×ĳ ×ķ×ª
ĠØ¯Ø± Ø¨Ø§Ø±Ùĩ
Ġæĺ İ
à¯Īà®¯ à¯Ī
à¤§ à¥įà¤¯
Ġà¸ ¡à¸µà¸
ĠÙĦ Ø¹
ĠE C
×Ĵ ×ĵ
Ġà¤ľ à¤¾à¤¨
Ġin gin
ĠL ab
ier z
Ġtouj ours
à°¿à°¨ à°¿
Ġqu em
Ġne p
r ast
Ġa ang
ĠF it
Ġà¦¬à¦¿à¦ ·
Ġsol ution
ĠT am
à°² à±įà°²
Ġm ove
áĥĶáĥ¡ áĥĺ
re to
ĠìĦľ ìļ¸
Ġd ÄĽ
ĠD isc
à¦¾à¦® à§Ģ
Ïĥ ÏĦÎ®
à¤¾à¤ ĸ
ou ver
af e
ĠÑįÑĤ Ð¾ÑĤ
ĠØ§ÙĦÙħ Ø´Ø§Ø±
Ġrad io
æĥħ åĨµ
et ter
Ġle arning
ĠgÃ¶ st
éģ Ķ
Ġche z
ĠS ek
re as
Ġp is
Ġman era
ĠT rav
Ġé ħ
Ġq ar
Ġk amp
ãģ¨ ãģĭ
Ġbott om
Ã³ p
ĠÙĤ Ø¯Ø±
Ġer f
ĠM iss
×Ļ×© ×Ķ
iment os
i ar
d n
à±ģà°Ĥà° ¦
ien ne
Ġìĸ ´
èĤ ī
Ø² Ø§Ø±ÛĮ
Ġwszyst k
Ġh Ã£
ë¦ ½
×ĳ ×ķ×¨
er ne
Ġà°¨ à±ģà°Ĥà°
à¤¾à¤ł à¥Ģ
ĠØ¨ Ùĥ
ĠÎķ Îº
Æ°á»£ t
ci pl
Ġg ÉĻl
ĠÎ±ÏĢÎ¿ ÏĦÎµ
Ġtu á»ķi
Ġm ia
ĠA fr
ÐµÐ¹ ÑĩÐ°Ñģ
à¸Ńà¸ĩ à¹Ģà¸
ĠW ater
Ġe ÄŁ
éħĴ åºĹ
Ġex press
iy orum
ĠW ell
ĠØ¶ Ø¯
Ġz ach
à¤¤ à¥įà¤°
me z
ĠÎ» Î±
v c
ÎĳÎ Ľ
Ġà´ ª
ÏĢ Î®
¹à¸ ģ
ig lia
Ġ2 10
è®¾ è®¡
Ġ ãģŁ
Ġa w
ÏĨ Î·
ĠØ§Ø¬ Ø±
áĥĲáĥ® áĥļ
Ġc ep
ĠInst agram
Ġæ· ±
ĠÙĦ Ø¥
ĠK or
ass o
Ġç ¨
Ġ×Ĺ ×ĵ
ĠÐ² ÑĤÐ¾ÑĢ
ĠSt adt
ist es
leg g
za jÄħ
er w
Ġwal k
Ø· ÙĦ
ĠÙĪÙĤ Øª
åį «
Ġbe y
ĠÏĥÏĦ Î¿ÏħÏĤ
Ġwrit ing
à§ĭ à¦Ł
Ġbut ton
Ø³Øª ÛĮ
z cz
ĠMil ano
Ġma chen
R e
Ġme jores
çŁ Ń
ÏĦ ÏĥÎ¹
å¤ ı
iss ance
Ġutil is
íĮ Ĳ
ê° Ĳ
ov Ã½ch
ĠÙģ Ø±Ø¯
ĠØ¹ Ø¯Ùħ
à¸£à¸°à¸ ļà¸
ens ioni
ĠĈ ą
Ġzwe i
Ġv ur
Ġman ufact
ĠGen er
ĠÐ¼ Ð°ÑĪ
Ġinclud es
ĠTh anks
ÙĬÙģ Ø©
Ġth ird
ĠÚ©ÙĨ ÙĨØ¯Ùĩ
Ġsob ie
Ġag å¹³åı°
Ġdam it
f te
and s
Ġà¤Ĩ à¤¯
Ġl á»ĭch
ÑĢ Ð¸ÑĤ
Ġãĥ» ãĥ»ãĥ»
row ad
æŀ ģéĢŁ
ĠÐ¼Ð¾Ð¶ÐµÑĤ Ðµ
à¤¾à¤ ¡
ok s
Ġda i
à¸Ńà¸ Ķ
r ate
Ġdesar rol
Ġbe w
Ġp ain
ĠÑĥ Ð¿ÑĢÐ°Ð²
áĥĲáĥł áĥĺáĥ¡
or er
à¤µ à¤¾à¤°
h h
Ġ199 7
ĠÎ¶ Ïī
Ïģ ÏİÎ½
à¯Īà®ķ à®³
Ġ365bet å®ĺç½ĳ
ari as
Ġç Ĵ
g ot
ķ à¹īà¸Ńà¸ĩ
Ġë¬ ´ë
ĠØ·Ø± Ø§ØŃÛĮ
à¹Ģà¸£ à¸²
Ð¾Ð½ Ðµ
ĠìľĦ íķ´
Ġcir c
áº± m
ica Ã§Ã£o
Ġqu ite
Ġin ner
e a
Ġí Ŀ
ãģ® ä¸Ń
á»± a
åģ ·
ÙĪØ¯ Ùĩ
it able
ang s
Ġà¸¥à¸ ĩà¸Ĺà¸°à¹Ģà¸ļà¸µà¸¢à¸Ļà¸
ond en
I ER
ĠÃ¼ rÃ¼n
áº· ng
77 7
b ild
Ġt um
z as
ÛĮØ¯ ÛĮ
Ġt ua
à¤Ĥ à¤ķ
à±ģà°ķ à±ĭ
à¸£à¸µà¸ §à¸´à¸
ap ter
Ġé¦ ĸ
Ġvá» «a
Ġdo is
Ġsc ript
Ġà¦ķà¦¿à¦¨ à§įà¦¤à§ģ
Ä±z Ä±
Ġpe que
over no
ste ad
obier no
Ġw eg
Â ¶
Ġalt ro
ĠSh ow
ÛĮÙħ ÛĮ
à°¾à° £
th ough
Ġer g
ĠW ohn
çĭ ¬
Îķ ÎĿ
ĠSp a
Ġde pos
ĠS ho
Ġj am
ĠMus ic
ĠØ® Ø§ÙĨÙĩ
Ġà¦Ĩà¦® à¦¾à¦°
ste in
Ġst y
ick y
Ġw ide
Ġrecomm end
Ġno e
Ġm ec
ĠÃ¶ÄŁ ren
à¤¾à¤Ĥ à¤¨à¥Ģ
Ġn aman
à¹ī à¸Ļà¹Ģà¸
ĠÐ¶ Ð¸Ð·
F L
Ģ ìĿ´
ĠÃ£ ÆĴ
x s
u ell
Ġà¤ķ à¥įà¤¯à¤¾
ãģª ãģĮ
Y X
ĠãĤ ¦
ĠÎĿ Î¿
ĠGr ande
ĠF el
à´ Ĥ
ĠÐ² Ð°Ñģ
ĠCent ral
Ð¸ÑĨ Ð°
ĠÙĪØ§ÙĦ Ø¹
ze ich
ĠÙĪ Ø§Ø±Ø¯
Ġl ux
Ð¾Ð´ Ð°ÑĢ
ĠØ§Ùģ Ø²Ø§Ø±
Ġ[ /
Ġdá»± ng
Ġt ienen
Ð¾Ð´ ÐµÑĢÐ¶
N ame
Ġà¤ķà¤° à¥ĩà¤Ĥ
Ġsc ar
ê² ł
Ø¬ Ø§Øª
Ø¯ Ø§
ĠÙħØ¯ ÛĮØ±ÛĮ
Ġpra w
Ġç» ı
E V
çļĦ ãģª
à°¾à° §
ĠÃ§ ek
us ch
Ġci udad
æĹł çłģ
×Ļ×ĳ ×Ķ
Ġà¦¶ à¦¿à¦ķà§įà¦·
à¦°à§įà¦ ®
Ġcamp o
Ġp ew
ĠáĥĶáĥłáĥĹ áĥĺ
ĠM ond
ëĭ¤ ëĬĶ
Ġsch n
Ø± Ø®
Ġk rij
Ġde di
Ġà¸¥à¸ĩà¸Ĺà¸°à¹Ģà¸ļà¸µà¸¢à¸Ļà¸ Łà¸£à¸µ
ĠØ§ÙĦÙħ Øº
ĠEsp aÃ±a
íİ ¸
èµĦ æĸĻ
ĠáĥĽ áĥĿáĥľ
or ed
ĠÄĳ áº·t
à¹īà¸Ńà¸ ¢
Ġn á»Ļi
up e
Ġè Ī
à®¿à®¯ à®¾à®ķ
à¸Ńà¸Ńà¸ ģà¸
à¨¿ à¨
it ude
æ° ¸
ãĤŃ ãĥ£
è¦ģ æ±Ĥ
Ġh ing
Ġh ele
à¹ģà¸¥ à¹īà¸§à¸
Îµ ÏĦÎµ
ĠÚ© ÙĪ
à¤ ģ
ĠW illi
t n
Ġà¤®à¥Ī à¤Ĥ
ĠReg ist
è¿Ļ ä¸ª
m g
Ġne ue
Ġk uko
ĠC in
v v
ĠÛ±Û °
Ð½ Ð¸Ñħ
ĠAss oci
Ġkh Ã³
ë² Ī
ĠHar ga
Ġà¦¨à¦¿à¦ ľ
ĠØ¥ ÙĦØ§
åĤ Ļ
ent y
ĠÐ¿Ð¾Ðº ÑĥÐ¿
Ġs ector
Ú¯ ÛĮØ±
ÎĳÎ ļ
ĠÄĳ áº·c
Ġlá» Ŀi
ć ï¼Į
ä¼ļ ç¤¾
Ñĥ ÐµÑĤÑģÑı
ĠåĨ ħ
_ p
Ġsi x
Ġtá»ī nh
us ion
Ġå ĸ
à±Ģ à°°
ÄŁ a
Ġmo i
ĠPr ess
f ield
ĠØ¨ Ø¥
Ġà®µ à®¿à®Ł
áº· p
im as
èŃ ·
åį Ī
Ġáĥŀ áĥĺáĥł
ĠÎ ĸ
æį ¢
Ġsend iri
Ġcre ated
ĠRo ad
ĠF und
ĠT wo
Ġknow ledge
æī ĳåħĭ
Ñĳ ÑĤ
k g
b au
Ġà¸ªà¸ ¥à¹ĩà¸Ńà¸ķ
ĠAr gent
à¤Ĥ à¤ª
ĠOr t
???? ????
Ġà¸ªà¹Īà¸ĩà¹Ģà¸ ĩà¸´à¸Ļà¸ļà¸²à¸Ĺà¹Ħà¸Ĺà¸¢
ÐµÐ³ Ð´Ð°
a ult
Ð° ÑģÐº
Ġl ip
Ġap pr
ĠS av
ĠâĢİ #
Ġ×Ĳ ×Ļ×Ł
Ġadd ed
im at
b ec
Ġå ĭ
ĠF un
um mer
ĠØ¨Ùĩ âĢĮ
Ġsp oleÄį
×Ľ ×Ŀ
or r
Ġà¤ªà¤¹ à¤²à¥ĩ
ĠG ol
×Ĳ ×ķ×ª
________ ________
ĠÎµÎ½ Ïİ
b n
Ġsatis f
à¯Īà® ¨à¯įà®¤
Ġt un
ĠCh icas
Ġk ort
Ã¼n de
à¦¾à¦¨ à§ĩà¦°
is iÃ³n
re cht
ãģ® ãģ§ãģĻãģĮ
à¸µà¸¢à¸ ĩ
Ġà¦ķà¦° à§įà¦®
Ġkter Ã¡
Õ¡ Öģ
Ġgratu it
ĠÏĢÏģÎ¿ ÏĤ
ĠÙĩÙħ ÛĮÙĨ
Ġnot e
Ð½ Ð¸Ñĩ
ÑĢ ÐµÐ½
ģà¸²à¸£ à¹ģà¸
ĠÐ·Ð° Ñī
Ġc et
à¹Ģà¸ ¡à¸
z iel
p c
m ain
Ġh Æ°á»Ľng
Ġà¤ķà¥ĭ à¤Ī
Ġpo j
Ġn Ã¥r
Ġe au
ĠØ² ÙĬ
åŃ¦ çĶŁ
Ġmar s
ĠG reat
æĬķ èµĦ
à¥ĩ à¤¨
Î¹ Ïİ
Ġï¼ ĳ
Ġfor n
and ing
Ġh oy
Ġ12 8
å¸ Į
Î» ÎµÏħ
Ġb aw
ĠNguy á»ħn
Ġà¦ķ à§įà¦·
Ġè® ©
Ġtari h
ĠÐ´ ÐµÐº
ĠØ± ÙģØª
ĠB all
Ð¾Ñı Ñī
ĠâĢĻ ,
Ġ10 1
g ev
Ġä¸ ĸ
Ġsp Ã©
ĠV ar
ĠÑģÐ¾Ð¾ÑĤÐ²ÐµÑĤ ÑģÑĤÐ²
éĿŀ å¸¸
b est
Ġsec urity
×ķ×ŀ ×¨
ĠÎ± Î¾
Ġyour self
Ġes a
Ġcent ral
±à¸Ļà¸ Ĺà¸µà¹Ī
Ġpk 10
Ġh us
ÃŃ f
ĠÐ°Ð²ÑĤÐ¾Ð¼ Ð¾Ð±
Ġt iáº¿t
Ġseg undo
ili h
ĠS ER
ĠÐ¼ ÐµÑģÑı
áĢ º
ĠæĬ ķ
Ġh akk
éĢ Ģ
ĠÐ¼ Ð°ÑĢ
Ġà® ĵ
ĠÃĸ z
à¦Ĺ à§ģà¦²
ì£¼ ì¶ľìŀ¥
Ġà®ī à®Ł
Ġch ance
Ø³Ø¨ Ø¨
ĠÃ Į
ĠW all
Ġè ¢
Ġà¸ ľà¸
ĠÙĨÛĮ Ø§Ø²
Ġè ª
Ġot ra
Ġel ev
Ġtreat ment
Ġpost ed
Ġ() {
áĥĲáĥ §
ĠÐ¾Ð± ÑıÐ·
ah kan
z ig
Ġn ik
ĠÚ¯Ø±Ùģ ØªÙĩ
ĠMod el
Z X
Ġn one
à¥ĩ à¤°
uk s
Ġåħ ³
ĠÃľ ber
à¦¡ à¦¼
Ġà¤Ĺ à¤Ī
Ġn ale
ĠV ÃŃ
Ġseb uah
Ġ2019 å¹´
ÏĨ ÎŃ
Łà¸¸à¸ķà¸ ļà¸Ńà¸¥
ĠØµÙģ ØŃÙĩ
à¦¿à¦ ī
Ñĥ Ð¹
Ġkh á»ı
amb re
Ġav ait
Ġï º
ĠJ ames
ĠãĢ Ĺ
áĥĲáĥ¥ áĥ¢
ĠJes us
ĠB á»Ļ
Ġre ading
ÐµÐ´ ÐµÑĢ
Ġstr ess
ot y
i Ã£o
om in
ĠØ¥ ÙĦÙĬ
å² Ľ
Ġà¦ ¢
Ġ- >
à±ģà°ķ à±ģ
Ġkont akt
Ġest as
ic ip
Ġb ac
ĠT an
he ad
áĥĽ áĥĺáĥ¡
ÐµÑģÑĤÐ² Ð°
ĠÎķ ÏĢÎ¹
Ġsim ply
ÙĤ ÙĤ
c oup
Ġex cept
Ð¸Ð¼ Ð¾ÑģÑĤÑĮ
Ħà¸§à¸²à¸ ¡à¹Ģà¸
Ġl uc
ĠÎĶ ÎµÎ½
çŃ Ķ
Ķà¸ ¹
Ġs ÃŃ
Ġmo is
Ġà¦®à¦¾à¦¨ à§ģà¦·
ĠÐ¶Ð¸Ð· Ð½Ð¸
à§ĩà¦ ¡
Ġle ver
ĠÐ¿ÑĢÐ¾ ÑĪ
Ġth ro
Ġrec ent
ãģ® æĸ¹
igh et
Ġk ost
Z H
ĠØ¬Ùħ Ø¹
Ġ×ķ ×ľ×Ĳ
ī ´
Ġà°ħ à°Ĥà°¦
à±Ģ à°µ
tt y
mÉĻ y
Ut ama
ĠDomain Utama
Ġan te
ĠIm m
ì§ ĳ
Ġmain ten
ç £
Ġso on
Ïģ ÎµÎ¹
Ġg dy
Ġd w
à¤°à¥įà¤ £
ĠD ES
Ġcateg ory
áĥĺáĥľ áĥĺáĥ¡áĥ¢
E E
Ġquel ques
Ġn ang
Ø³ ÙĦ
Ġfor am
un akan
ĠL G
Ġà¦¸à¦° à¦ķà¦¾à¦°
Ġs emb
Ġbin nen
ĠGr und
Ġmult ip
è· Ł
ft ar
ĠÃ© v
ãģķãĤĮ ãĤĭ
ĠØ¯Ø± ØµØ¯
ÙĪÙĤ Ø¹
ĠÕ ¿
ĠE R
åº ĵ
Ġï ¾
n n
iz ar
ĠÃ ¦
ĠS L
åĦ ª
ane iro
Ġy outube
Ġsp os
Ġw ait
Ġvis ual
ĠÙħ Øº
ĠQu Ã©
ÛĮÙĨ Ú©
pres enta
Ġ à¹Ħà¸Ķà¹ī
à¯ĭ à®¤à¯ģ
Ð°Ð½ Ð¾
els en
Ġèħ ¾è®¯
Ġb áº¯t
ĠF C
Ġens ure
Ġcons erv
ĠB at
Ġb ab
ung e
verpg bel
Ġwy m
çİ© æ³ķ
Î´ ÏĮ
ãģ«ãģª ãģ£ãģ¦
ĠÐ» Ð¸ÑĪ
Ġà¤® à¤¨
at ies
ç» Ī
ĠW at
ĠN ote
å®¢æĪ·ç«¯ ä¸ĭè½½
Ġà¦ĺ à¦Ł
Ð ¬
Ġæ ¹
ãģ£ ãģ
à°¨ à±ĩ
ŀà¸ ´à¸
è¡Į ä¸ļ
à§ģà¦ ĸ
Ø§Øª Ùģ
Ġf iyat
und u
Ö ¹
ot te
ens o
L ist
Ġs ap
Ġ19 90
æį ķ
å® Ī
ãĥ³ãĥ ģ
Ïį ÏĢ
Ġmed io
Ð¾Ð² Ð°Ñı
Ġbook s
ĠW elt
ĠB uch
à¹ĥà¸Ĭà¹īà¸ Łà¸£à¸µ
Ġst av
Î»Î· ÏĤ
i ere
Ġd Ã©s
an ol
Ø§Ùĩ Ø´
×Ĳ ×Ķ
ÙĪ Ø§Ø¬
Ø· ØŃ
Ġf ail
Ġpag es
Īà¸ ģ
Ġè Ļ
Ġman ifest
Ġ= '
aca q
ĠB Ã¶
à±įà°¸ à±į
Ø¶ Ø±
eb il
ĠH ard
Ġen v
m alar
Ġnuest ra
ien za
y se
Ġibex_ room_grid
Ġm ist
or ie
Ġlu Ã´n
ĠI C
4 00
Ġb Ã¬nh
ãĤ ¡
uk t
à¯Ģ à®°
Ð ¥
ic iel
Ġà¦¸ à¦Ļà§įà¦Ĺà§ĩ
Ġth áºŃt
á ī
ĠØ§ÙĦ ÙĪÙĤ
ĠÐ¿ÑĢ Ð¸Ñĩ
n el
Ġb od
ĠH am
å®ĺæĸ¹ ä¸ĭè½½
ĠØŃ Ùģ
Ġs á»©c
g y
Ġloc ated
Î´ Ïħ
wit ch
Ġse ks
Ġn ation
ĠL ife
à¤¾à¤² à¥Ģ
Ùģ ÛĮ
Ġa plik
ĠÎł Î¿Î»
Ġn oc
ĠR ub
ie urs
ent ing
ĠØ§ÙĦØ¬ Ø²
ĠP ÅĻ
×ķ ×Ļ×ķ×ª
ĠÃ¡ rea
ĠL ine
ÙĥÙĪÙħ Ø©
ÅĤ aw
Ġmens en
çĻ» éĻĨ
r ato
im enti
æĮ ī
ãģ¡ ãĤī
Ġ×Ķ ×ľ
j ust
à¤¿à¤ ¦
ss en
Ġvo ir
à¦° à¦£
P C
Ġà¤¦ à¥įà¤µ
Ġrequ est
ĠFest ival
ĠE ST
cess o
Ġel a
X X
Ġæ¯ ı
ĠãĢ ľ
ĠØ³ÛĮ Ø³ØªÙħ
Ġst ars
å¤§ çļĦ
Ġå¦Ĥ æŀľ
ĠâĻ ª
Ġ×Ĳ ×ĸ
Ġpor te
Ġfa ut
å «
c ja
à¹ģà¸ ¡
ĠÑģ Ð½
Ġbed rij
ĠÏĮ Î»
Ġsystem s
Ġm art
Ġag è§Ĩè®¯
à±ģà° ¦
Ġà°ļ à±Ĥà°
Ġph á»ĳ
Ġà¸Ĺà¸Ķà¸¥à¸Ńà¸ĩ à¹ĥà¸Ĭà¹īà¸Łà¸£à¸µ
ĠmÃł u
ĠP em
Ġå® ŀ
ĠÑĢ ÑĥÑģ
æ´ Ĺ
Ġm Ãºs
h led
al og
Ġpr on
ĠÙĪØ± Ø²Ø´
ĠCh eck
ol it
Ġtrav ail
Ġpar e
out e
ĠÐ¿ Ð¾Ð³
èģ ŀ
ĠM obil
à§įà¦ ŀ
Ã¼n d
ĠÐ¼Ð°ÑĤÐµÑĢÐ¸ Ð°Ð»
çļ ĩ
iss ement
ed or
ĠÐĲÐ» ÐµÐºÑģ
m ÉĻt
_ n
ĠØ§ÙĦ Ø§ØŃ
à®¸ à¯į
Ð¸Ð² Ð°ÑĤÑĮ
ĠØ¯ Ø¹
Ġà¹Ĥà¸Ľà¸£à¹Ĥà¸¡à¸ Ĭà¸±à¹Īà¸Ļ
ĠÐ´ ÐµÐ²
Ġbas is
Ð°Ð»ÑĮ Ð½Ð°Ñı
est re
Ġà®ķ à®¾à®²
Ġgel iÅŁ
ĠS ony
Ġesp aÃ±
Ġso und
ãĥŃ ãĤ°
Ķà¸ ¹à¸
Ġà¤ī à¤¤
Ġf ino
ĠØª Ùĥ
§ à¸Ļ
C l
Ġer ror
ĠV in
ÅĽ nie
ë©´ ìĦľ
l ight
Ġcual quier
ÎŃ Ïĩ
ĠðŁ Ļ
ĠÐ¡ Ð¾
Ġrum ah
à±ģà°¨à±įà°¨ à°¾à°°à±ģ
Ġà®İ à®´
Ġà¦ª à§ľ
k es
Ġæ¬§ ç¾İ
Ð°ÑĤÐµÐ»ÑĮ Ð½Ð¾
ÅĻ enÃŃ
Ġany thing
ĠU RL
int age
Ġæľ ª
åŃ¦ æł¡
ĠProduk t
Ġà¦¬à¦² à§ĩ
Ġ ä¿
Ġb li
ied en
à¹Ĩ à¸
ÑĢÐ° Ñħ
EC T
ãģĶ ãģĸ
Ø¬ Ø§
Ġà¸ Ľà¸
áĥĲáĥª áĥĺáĥĲ
Ġinter es
Ġ ãģ«
Ġåį ļ
ĠØ² ÙĨØ¯Ú¯ÛĮ
Ġb ath
à°¿à°Ĥà° Ĺ
os ter
ĠáĥĴ áĥĲ
ĠÏĩ ÏģÎ·
G E
Ð¸Ð¼ ÐµÑĢ
Ġproblem s
ĠCal if
ĠC AR
emp or
IN A
ĠØ¯Ø± ÙħØ§ÙĨ
Ġob at
Ġà°ħ à°¯
r esse
ĠbÃ½ t
Ġat as
Î¹ÎºÏĮ ÏĤ
Ġê²½ ìļ°
Å¯ s
à°Ĥà°¤ à±ĭ
ant u
ĠÐ·Ð°Ðº Ð¾Ð½
Ġ×© ×Ľ
ĠÐ¾Ð± ÐµÑģÐ¿
Ġm á»įi
Ġhe el
ĠdÃ¼ zen
Ġc ela
è®º åĿĽ
vel le
Ġà¤ľà¤¾à¤¤ à¤¾
Ġb elle
áº« u
Ġ ãģª
Ä° R
ug hout
u ale
T 00
Ġs d
ĠG ab
Ã» t
æĲ ı
Ø±Ùĥ Ø§Øª
Î² Î¿Î»
ĠB ern
à¦¿à¦ ¡
ĠÃ¼ st
I H
Ġsal es
á» ĥ
Ġch iáº¿
æĸ°éĹ» ç½ĳ
Ġpar ents
Ġfun k
ãĥ¼ãĥ ĸ
ä»£ è¡¨
ÙĩâĢĮ ÛĮ
ĠÐºÐ¾Ð¼Ð¿ Ð°Ð½Ð¸Ð¸
ãĤ³ ãĥŁ
Ġà¦ķà¦¿à¦Ľ à§ģ
ĠR u
Ġk ids
ĠâĢĿ ãĢĤ
Ġtak en
Ġspe ed
ĠÑģÐ»ÑĥÑĩÐ° Ðµ
Ġx Ã¢y
ĠV illa
ĠP A
ĠÐºÐ¾Ð¼ Ð¿Ð»
ĠÚĨ ÛĮ
Ġs ond
ĠB oy
à¶ º
ian as
Ġ×ŀ× ĸ
Î® Î¼Îµ
Ġb un
ĠC up
ªà¸¸à¸ Ķà¸
Ġà¸ Ī
Ġpro to
ĠG T
ĠÑħ Ð°ÑĢÐ°ÐºÑĤÐµÑĢ
Ġal ors
ĠEn ter
ç» Ĩ
Ġr ing
×Ĺ ×ķ×ª
ĠP orn
Ġv iele
Ġr adi
ĠT oy
ĠF ire
ĠN ar
Ġ22 270
ÃŃ cio
ĠE ine
ol Ã³g
Ġnov embre
ÄŁ iniz
yn Ä±
Ġà¦Ĩ à¦ĩ
ĠA gr
ªà¸ ¥à¹ĩà¸Ńà¸ķ
ĠTe il
ĠB ul
orn ing
o ord
à¦ ·à§įà¦Ł
Î³ Ïĩ
ĠØ³ Ø§ÛĮ
Ġdivers e
Ġdes puÃ©s
ĠL av
Ġj eszcze
Ķ à¸µà¸¢à¸
ĠæĿ İ
Ġë¬ ¼
ĠÐ± Ð»Ð°Ð³
Ð¸Ð² Ð°ÐµÑĤ
Ġtá» Ń
Ø° Ø±
AL E
ä¾¡ æł¼
ĠÃ© lect
Ġinform atie
ĠØ³ Ø±Ùħ
Ġform at
Ø§Ø¹ Ø¯Ø©
ĠÐºÐ¾Ð» Ð¸Ñĩ
olog ÃŃa
Ġm s
ê· ¼
ĠK ir
åĨ ·
ĠW ash
Ġn Ã¥
Ġel imin
ĠÑģÐ² Ð¾Ð¹
Ġw Ã¼r
ĠCon c
Ã¸ p
ĠÄĳ áº¡o
Ġdev ice
ê² °
r ale
ç¾İ åĽ½
Ø§ÛĮ Ø·
ke iten
Ġà¤¬ à¥Ģ
ĠØ¬Ùĩ Ø§ÙĨ
Ùĩ ÙĲ
Ġevery one
Ġchar ge
åº Ń
à°² à±į
Ġà® ¸
Ġ ÉĻl
Ġ' .
i Äħ
ĠÐ¿ Ð¾Ð±
ĠØ¬ Ø±
Ġcorres pond
ĠA ra
ĠÐ´ ÑĢ
ĠRo z
ab en
ĠÐ½ Ð°Ð±
Ġn á»¯
Ġmod e
à¤°à¥įà¤ Ł
Ä±l masÄ±
Â ¤
Ġlib ro
å¸ «
qu is
åĪ »
Ġr Ã³Å¼
ĠT ime
à®¤ à®¿
ÑģÑĤÑĢÑĥ Ðº
Ġà®¨ à®¿à®±
ĠÙĨØ´ Ø§ÙĨ
Ùĩ ÙĨ
ê² ĥ
ch ange
m uÅŁ
ĠpÃºbl ico
Ġcompr ar
Ġst ata
Ġwy kon
à¹Ģ à¸Ń
ĠÎ¬ Î½
ĸà¸ ¹à¸ģà¸
ĠØ± ØŃ
Ð¿ Ð¸Ñģ
ÏĢ ÎŃ
Ġse ja
Ġ" ;
Ã¤ d
å® ħ
ªà¸²à¸¡à¸²à¸£à¸ ĸà¸
Ġà¦¬ à§ĩà¦¶
Ġà¤ħ à¤²
áĥĺáĥ£áĥ ļáĥĺ
ãģ ²
iz ioni
Þ ª
Ø® Ø§ÙĨÙĩ
Ġby la
ĠO F
Ġver di
Ġs lu
Ġhe cho
ĠLe ague
ĠR ap
à¸Ļ à¹Įà¸
Ġdig it
ĠS Ã¼
© ëĭĪëĭ¤
ÑĥÐ»Ñı ÑĢ
Å¾ enÃŃ
Ġáĥ¥ áĥĲáĥłáĥĹ
ec u
æĿ ¾
ĠÏĢ ÏģÎ±Î³
Ð §
Ġal to
ĠTh u
ÏĥÎ¹ Î¼Î¿
y er
G O
Ġà¦ħà¦¨ à§ĩà¦ķ
Ġse ine
ØªØ¨ Ø§Ø·
ur idad
Ġthu áºŃt
Ġma int
Ġê° Ħ
Ġn bsp
ëª ©
Ġnh á»ı
us aha
áĥĲáĥķ áĥĺ
Øº Ø©
Ġ×ĳ ×¦
ĠÎ¾ Îµ
w est
ar te
an ze
Ġfor ward
Ġà®ļ à®®
ĠL ux
ãģ¨ ãģĵãĤį
eg as
Ø§Ø· ÙĤ
Ãº de
Ġnh anh
ĠâĢ Į
ĠÎ£ ÏħÎ½
Ġtal k
ãĤī ãģĦ
à®ķà¯įà®ķ à¯ģ
ĠSo ftware
Ġne Å¾
à¦¤ à§ĭ
ÙĪ ØªØ±
Ġè¶ ħ
ĠØ¬ Ø§ÛĮ
ĠÑĢÐ°Ð· Ð»Ð¸Ñĩ
ĠOd p
ĠÅ¾ iv
èį ¯
Ġáĥ¥ áĥĲáĥļ
åĽ¾ çīĩ
ĠãĢģ ãĢĮ
ĠØ´Ùħ Ø§Ø±Ùĩ
Ġl inda
b ur
à¥ĩà¤Ĥ à¤¦
ĠB ox
Ġå½©ç¥ŀäºīéľ¸ 8
ĠsÃ³ lo
Ġdom in
ĠI st
å¤ Ł
Ġà®ª à®°
Ð³ Ð°
Ä° L
ann er
ãģĹãģ¦ ãģĦãģ¾ãģĻ
à¤Ĥà¤¤ à¥įà¤°à¥Ģ
ac ute
éĽ Ħ
Ð» Ð°Ð¼
ÃŃ z
Ġrun ning
ä¼ ¼
à§Ł à§ĩ
Ġro le
l or
Ħ à¹īà¸²à¸
Ġnun ca
ĠØ´Ø± Ø§ÛĮØ·
ĠR ot
Ġt Ã©lÃ©
Ġt rib
Øº Ùħ
Ġngh á»ĩ
Ġad am
ĠMar c
ĠÙĪ ÙĦÛĮ
li es
Ġà®µà¯ĩà®£à¯įà®Ł à¯ģà®®à¯į
ĠS ite
Ġdec ir
çīĪ ä¸ĭè½½
ÛĮ Ø§ÙĨ
ìĸ ¸
æ± ī
ch at
Ġv ys
ĠG az
ĠÑĩ Ð¸Ñģ
ens k
ĠÎļ Î±Î¹
áĥĲáĥ ©
ĠA uch
ĠØ§Ø³ Ùħ
Ġc ul
ov ers
ĠC os
ÐĿ Ðĺ
ĠÑģÑĤ Ð¾Ð»
Ø¬ ÙĬÙĦ
Ġv ig
æĿ Ģ
r l
b c
ÉĻ q
ional es
ĠÎ´Ïį Î¿
ÄĻ Å¼
ĠÄį l
Ġb row
er em
Ġà®ļà¯Ĭ à®²à¯įà®²
Ġs ino
Ġwar m
áĥĶáĥ ¤
Ġor a
Ġh idup
Ġh eld
kt or
ĠÃ§ ev
Ġâĺ Ĩ
Ġà¸ Ľà¸£à¸°à¸
ĠV a
ÑĥÐ· Ñĭ
Ġprocess o
ĠÑģÐ» ÑĥÐ¶
Ġwer d
Ġsub s
ĠáĥĴ áĥĲáĥĺ
ĠØ³ Ø§Ùħ
Ġmil it
Ġin ici
ÑĢ ÐµÑĤ
Ġs ud
Ġv ak
ãĥ© ãĤ¹
ep t
ĠE V
Ġj ours
ĠX xx
Ġãĥ Ļ
Ġ2 F
áº¡ y
ĠPost Ã©
èķ ī
r ica
ĠåŃ Ĳ
ĠÙĬ Ø³
ĠØ¬Ø¯ ÙĬØ¯
à¹ģà¸ ķà¹Īà¸
à®° à¯ģà®®à¯į
Ġv isto
C ont
Ġæ £
oc e
ĠServ ices
ĠÐ¾Ð± Ð¾ÑĢ
ĠÃ§Ä± x
Ġpre vious
Ġn acional
á»« ng
à±įà° ³
Ġkdy Å¾
ort un
Ä±l dÄ±
ãģĵãģ¨ ãĤĴ
é «
Ġnh Ã¬n
**** ****
ĠØ¹ÙĦ ÛĮ
ĠC zy
op o
ê¸ Ģ
Ġn ing
ĠåĲ Ħ
c ast
ĠC ou
à®¤ à¯Ī
Ġáĥķ áĥĶáĥł
Ġth anh
Ġeduc ation
Ġcent re
eng th
Ġsit em
Ġ×ĳ ×ŀ
áŀ¶ áŀ
ĠÙĪ Ø´
emp le
Ġåľ¨ çº¿
à®¿à®ķ à¯į
ĠØ§ÙĦÙħÙĪ Ø¶ÙĪØ¹
Ġd nia
Ġpol ic
à¯ģà® ªà¯į
æĹħ æ¸¸
ĠØ§ÙĦ Ø§Ø¬
Ġ12 3
å¹ ħ
Û ²
Ã¤ re
Ġpre m
ill et
èĽ ĭ
×¨ ×ĵ
Äį ek
ĠD S
ĠC all
ĠÐķ Ð²
Ġr Ã¡p
Ġb ug
ĠÙģØ¥ ÙĨ
ĠØ£ Ø¯
ÑĢÐ° ÑģÑĤ
à± Į
Ġà®ħà®¤ à®¿à®ķ
Ġnost ro
ĠØ±Ø¦ ÛĮØ³
ĠÑĥ Ð·
Ġb aby
Ġ365 æ£ĭçīĮ
Ġ à¹Ħà¸
ĠìĥĿ ê°ģ
Ġáĥŀáĥĺáĥłáĥ ķ
ç½ĳ é¡µ
up er
ĠD eb
Ġstud io
Õ¸ÖĤÕ©Õµ Õ¸ÖĤÕ¶
à®¾à®¤ à¯ģ
êµŃ ìĿ¸
Ùİ Ø¨
Ġl Ã©
B R
Ã© is
it ive
Ġã Ħ
è¼ ī
ĠãĤ ±
Ġr as
Ġf Ã¥r
Ġalm ost
Ġrel acion
èģ ·
ap on
Ġv áºŃt
iz en
ĠÎ±Ïħ ÏĦÎ¿
åı İ
Ġs zy
Ġcon j
h ttp
Ġà¤µ à¤¿à¤ķ
á» Ľi
á»ķ ng
Ġinter ior
ak ers
ĠåĪ °
ĠØ§Øµ ÙĦÛĮ
ut ter
m edi
1 20
Ġpar am
in et
ĠÎ£ Îµ
ĠB ere
ãĥ¼ ãģ®
ĠÐ³ Ð¾ÑĤÐ¾Ð²
Ö ¶
nÄĽ jÅ¡ÃŃ
ĠSt ates
Ġè į
Ġáĥ¡áĥĲáĥ ĳ
Ġà°ķ à°²
Ġmod al
×Ĺ ×ĵ
Ġph á»¥
Ġm áº¡nh
Ð°Ð· Ð°
áĥĲáĥª áĥĺáĥĺáĥ¡
ÐµÐ¼ Ð¾Ð½ÑĤ
AT ION
ĠÙĪ Ø¯
uk e
ograph y
Ġå Ŀ
Ġqu indi
ĠI ST
ĠAut om
Ġæ ¨
Ø§Ø· Ø±
ĠL ist
Ġsta at
Õ¸ ÖĢ
ag ens
Ġth ay
Ġperson nes
Ġinc or
áĥľ áĥĿáĥĳ
ic ato
Ġph á»¥c
Ġká» ³
ÑĤ Ñĭ
Ġph Ã¢n
iz er
ĠD Ã©
éģ Ĺ
id ge
Ġe con
×¢ ×Ļ×Ŀ
Ġíķĺ ëĬĶ
ìĽ Į
Ġåħ Ī
Ġv oll
ĠÙĦ Ø£ÙĨ
Ð¸Ð»Ð¸ ÑģÑĮ
×Ļ× £
ĠØ§ÙĦØ¹ Ø±Ø§ÙĤ
Ġex plic
ĠØ§ÙĦØª Ø¯
ĠSch w
à¤Ĥ à¤ľ
T e
ĠÑĥ Ð±
Ġby ÅĤ
ĠÎ¼ÎŃ ÏĥÎ±
Ġprom o
Ġà¤Ĩ à¤µ
ĠØ¹ Ø¨Ø±
Ġfinan cial
Ġdem on
Ġc ena
ĠPre z
ĠL ar
ol ina
ĠØ¨ Ø£ÙĨ
ff er
ìĺ ¨
æĸ¹ å¼ı
ĠÙħÙĪ Ø§Ø¯
M C
áĥľ áĥĲ
Ġ11 5
æ¤ ľ
Ġ24 0
ĠÑģ Ð¾ÑĤ
åī §
Ġw ays
ĠP eter
æĹ¶ åĢĻ
rÃ³ d
li ent
Ġt aÅŁ
à¸Ļà¸± à¹īà¸Ļà¸
is ir
art ement
Ġtá»¥ c
ØªÙħ Ø¹
s am
ĠU omo
ĠÐ¿ÑĢ Ð°ÐºÑĤ
ĠÂ ¢
Ġbe hand
Ġadminist rat
åĲ ī
Ġt orn
Ġbud get
ãĥķ ãĤ£
ÏģÎ¯ ÏĤ
ĠwiÄĻ cej
ĠK ore
f it
Ġv Ã´
Ġev ento
i Äĩ
ativ as
Ġć Ĉ
ĠÑĥ Ð¿
Ġtyp es
ĠC ode
çĽ Ľ
Ġç ¤
ĠÙĤ Ø§Ø¨ÙĦ
éĢļ è¿ĩ
à°Ĥà° ª
ler de
Ġe ÅŁ
åĩ ¡
ĠÙĥ ØªØ§Ø¨
Ġb ildir
ÉĻn in
Ġn Æ¡i
Ġs ection
Ø³ Ùĩ
c are
Ġ×ŀ× ĺ
Ġà®¤ à®©
à¥ĭ à¤¨
ĠÚ© Ø±
B L
Ġæ¯ Ķ
Ø£ Ø©
Ġw ÅĤa
Ġë ĳĲ
Ġpro j
ar si
Ġà¦® à¦¹
Ġá¼ Ģ
ian e
es inde
Ġag ar
Ã¶ ff
Ġà¤° à¤ĸ
rop ri
ĠØ§ÙĦ Ø§ÙĤ
ĠÐ´ Ð°Ð²
áĥĲáĥĿ áĥĳ
ĠØ§Ø± Ø§Ø¦Ùĩ
Ġd ice
ĠPr z
Ġt us
ĠØ¨Ø± Ø¯
æŁ Ĳ
ĠÑģ ÐºÐ°ÑĩÐ°ÑĤÑĮ
×ŀ× Ĳ
Ġh d
Â ¾
Ġêµ °
çĽ¸ åħ³
åĪĨéĴŁ å¿«ä¸ī
ĠÑģÐ¾Ð± ÑģÑĤÐ²ÐµÐ½
Ġ Úĺ
ÐµÐ½ Ñģ
ÑĢÐ° Ñĩ
Ġcou ple
ĠE vent
ĠDe f
Ġà¦¬ à¦¾
Ġins urance
Ġdib dib
ĠW ork
ë ¨
è¯ Ģ
re is
ĠØ¢ÙħØ±ÛĮÚ© Ø§
Ä± lar
Ġà¸ŀ à¸Ļà¸
Ġà¦ķà¦¥ à¦¾
Ġquy á»ģn
Ð¸ ÑĦ
Ġin iti
Ġincre ase
ĠR is
ç´ °
×¨ ×Ĺ
Ġser ve
ĠØ¯ ÙĩØ¯
Ġpra cy
ĠØ¢ ÙĦ
à´ Ł
b ank
Ġdal le
Ġæ ¡
me ye
Ġk lar
ĠM inh
a o
Ġdou ble
ï¼ ķ
Ġp ac
ĠB os
ãĥĸ ãĥ©
à¦¾à¦° à§ĩ
Ġt inh
Ġà¹Ģà¸ Ħà¸£à¸Ķà¸´à¸ķ
ĠÏħ ÏĢÏĮ
Ġun os
Ġsitu ation
çµ Ĥ
Ø¨ Ø§Ø¨
ãģ§ãģĻ ãģŃ
er ap
eb ilir
ĠØ² ÙĨ
Ġ×Ľ ×ĵ×Ļ
à¥ĩ à¤¦
Ð¸Ð·Ð½ ÐµÑģ
c Ã³w
Ġer ot
íĿ ¥
_ C
ĠØªØº ÛĮ
pl ement
Ġà¹Ģà¸ ĩà¸´à¸Ļà¸
p an
Ġè¡ Į
Îķ ÎĻ
ens es
hal b
Ġme u
¥à¸ ĩ
è° ·
ĠMarket ing
Ġflo or
att le
ëĵ¤ ìĿĺ
åħ¨ åĽ½
Î» Ïİ
Ġg leich
Ïģ ÎµÏħ
ĠBe z
ä¸Ń çļĦ
à¹Ĥà¸£à¸ĩ à¹ģà¸£à¸
Ć ĆĈ
ãģ© ãģĨ
ib ili
Ġse Ã±
íĻ ©
Õ¸Õ ¾
Ġse it
Ġby ÅĤo
Ġpet it
çļ ®
Ð» ÐµÐº
Ġv ale
ä»ĸ ä»¬
à®µ à¯ģ
E lement
âĢ ¢
ÑĥÐ½ Ðº
m Ã©
ĠØ´ ÛĮ
ĠÐ² Ð¾ÑĤ
k az
Ġ×ĳ ×ĺ
à°¾à°° à°Ĥ
à¦¾à¦ «
ªà¸³à¸« à¸£à¸±à¸ļà¸
h in
Ġà¤ķà¤¿à¤¸ à¥Ģ
à§įà¦¬ à¦°
Ġcontain er
Ġambi ente
ĠíĶ ¼
é Ĩ
ä» ¤
ak es
Ġpla ats
Ġfaz la
ãĤ ©
yt u
Ġà¤¸ à¤¹
Ġà¤ľ à¤¾à¤ı
Ġber k
ĠìķĦ ëĭĪ
ĠÚ©ÙĨ ÛĮÙħ
Ġv ag
ĠØ§ÙĦÙħØª ØŃØ¯Ø©
ĠÃ ĳ
Ġman o
ĠC ir
à®¾à®± à¯įà®±
Ġèĭ ±
ĠÑı Ð·Ñĭ
ĠÙħ Ø§Ø´
ĠÐ· Ð°ÑĤ
ë¥ ĺ
Ġseg unda
ub le
Ġä¸ İ
Ġar te
ĠM itt
Ġb á»Łi
Ġb id
e o
ĠÙģ ÙĪ
ë³ µ
Ġt ul
ÐµÐ» Ð¸Ñĩ
Ġrel ax
Ġimm edi
Ġ356 bet
ĠáĥĽ áĥĵ
çĻ Ĥ
_ M
Ġà¹Ģà¸ Ľà¹ĩà¸Ļà¸
Ġest ud
ĠRes ort
um ents
l us
Ġsignific ant
Ġà¤ħà¤ª à¤¨à¥Ģ
ĠÑĤ Ð°Ð¼
ĠN orge
Ġsam en
ĠÐºÐ¾Ð½ ÑĤÑĢ
ĠV ict
ell ow
Ø§ÙĬ Ø§
Ð°Ð» Ðµ
k op
Ġdzie ci
ĠT y
ĠI g
ĠFore x
éĽ ¨
iz aÃ§Ã£o
à¤°à¥įà¤ ľ
ÙĤ Ø§Ø¡
Ġs Ä±r
Ġmass as
ĵ °
Ġrelations hip
Û ±Û
Ġpl ast
I OS
ĠR un
¡à¸ ·à¸Ńà¸
ĠiÃ§ inde
ĠE u
Ġv ict
Ġc ot
ĠA ber
é ¹
Ø¨ Ø§Ø´
ÏĦÎ¿Ïħ ÏģÎ³
åº ı
ãĥ³ãĤ ¸
Ġapp ar
àµ ĭ
ĠÐ½ÐµÑģÐº Ð¾Ð»ÑĮÐºÐ¾
ĠÐ°ÐºÑĤ Ð¸Ð²
Ġproduk t
ĠHa us
×© ×Ļ
Ġest abl
Ġm áº¹
ĠØ¢ Ø²Ùħ
ĠÕ Ģ
il ia
Ïĥ Î¯
èª Ń
Ġexcell ent
Ġ áŀ
æ´ ŀ
Ð¸Ñı Ñħ
n ika
ĠÐ¿ÐµÑĢ ÐµÐ²
ĠÐ¼ Ð¾ÑĢ
è®¡åĪĴ _
Ø§Ø¯ Ø§Øª
N C
ĠÐº Ð°Ð¼
·à¸Ń à¸Ļà¸
st av
Ġkon uÅŁ
Ġen orm
è© ¦
c ÃŃ
Ġkep ada
à® ŀà¯įà®ļ
ãĤ¤ ãĤ¯
Ġsig ui
Ġb Ãłn
ĠMan ager
ĠÐ½ Ð¾Ð¼
Î¿Ïħ ÏģÎ³
Ġà¤¸ à¥ģ
áĥľ áĥĶáĥļ
à®¾à®¯ à¯į
is ce
ĠØªÙĨ Ø¸
ĠE p
Ġmember ikan
à¸£à¸ ¹à¸
Ġè ©
à¦¾à¦° à¦£
ÑĨÐ¸ Ð¿
Ġä» £
es is
ek k
Ã¢n cia
ĠØ´ Ú©
Ġcr oss
sp ot
ĠÐ§ ÑĤÐ¾
any ch
ĠÑį ÑĦÑĦ
Ġtr á»£
Ġn enÃŃ
Ġh áº¿t
ÙĪ ÙĬØ±
Ġ9 78
ĠâĢľ .
Ġ3 000
×Ļ×¢ ×Ķ
ĠØª ÙĪÙħØ§ÙĨ
© áĥĶáĥķ
Ġk ali
ch u
ĠØ® ÙĦ
Ġyap t
ĠÏĩ Ïİ
ĠA re
Ġà®ī à®£
Ġesc ol
å½© åĸľæ¬¢
ĠÑĤ Ðµ
à¯ģà®ķà¯įà®ķ à¯ģà®®à¯į
ik et
Ġchar acter
ĠJah ren
ĠÐ¡ Ð°Ð¼
l Ã¤
Ġ×ŀ×Ĺ×Ļ×¨ ×ķ×Ł
Ġro ad
Ġg áº§n
w end
ĠK em
à§Ĥ à¦²
Û µ
ÄĻd zy
ol en
ĠÎ» ÏĮÎ³
Ġuyg ul
Ġs ampai
ĠM os
à®¿à®¯ à¯ģà®®à¯į
ØªØ± ÙĨØª
Ġh owever
ĠØ§ÙĦØ´ ÙĬ
P T
Ġsol utions
Ġp aint
Ġbeau coup
Ġx ml
ç® ±
ĠÑįÐº Ð¾Ð½Ð¾Ð¼
at ors
ĠB Ã¬nh
te urs
um u
ug al
ĠÐŁ ÐµÑĤ
ĠTra vel
åľ Ĵ
Ġgjenn om
Ġåľ Ł
Ġre pr
Ġdirect ory
Ð°ÑĤ Ð¾Ð²
ĠD ok
è ĵ
ĠâĢ »
ĠÙĨ ÙģØ±
Ġbel ang
ê³ ³
Ġz at
ĠG est
ĠRe f
Ġtrav Ã©s
à±ģà°² à±ĭ
Ġà¦¸ à¦¾à¦®
Ð¸Ñģ Ñģ
Ġà®¨ à®¾à®©à¯į
Ġ17 0
è ¬
¢à¸ ±à¸ĩà¸
r itt
Ġk Ä±s
r ada
ĠÑģÑĤ ÑĢ
ĠÎ¼ÎµÎ³ Î¬
Ð¾Ðº Ð°
ĠÄ° s
ä¸ ĥ
Ġam azing
az o
Ġr us
çł´ è§£
åĩº ä¼ļ
ĠØ§Ø¹ Øª
ĠS v
Ġ4 50
Ġà®Ĩ à®ķ
ur so
ĠáĥĴ áĥĲáĥķ
Ġ×© ×§
èĥ ľ
99 9
ik ut
ron ic
Ġèµ Į
Ġsub st
à±įà° Ĺ
EN G
ĠÙĩÛĮ ÚĨ
ĠÄĳ Ã¬nh
ĠÅ ģ
Z A
Ġun g
Ġchang es
AR T
ãĤ· ãĥ£
à¤ļà¥įà¤ Ľ
ªà¹Īà¸§ à¸Ļà¸
Ġmend apatkan
ĠN A
Ã³ rio
ĠÑĢ Ð¾ÑģÑģ
Ð¼ Ð¾ÑĤ
Ġdon na
Ġà¸ ļà¸
i Ã¨re
ĠÛ ³Û
Ġst ran
ÐµÐ´ Ð¸Ð½
â Ĩ
ÅĽ l
ĠÚ©ÛĮÙģ ÛĮØª
Ġb iáº¿n
Q L
Ġà°ļà±ĩà° ¯
Ġà¦ļ à¦²
Ġproblem as
ĠíĨ ł
Ġà®µà®¾à® ´
ĠÑģÐ¼ Ð¾ÑĤÑĢ
ĠK en
Ġcor por
Ġ à¹
ãĥ¼ãĥ ĵ
Ã§ os
Ġ Õ¡Õ
D I
Ġc av
àµ ĩ
ĠB ang
ĠUn der
ÙĦÙĬ ÙĤØ§Øª
ens ione
_ d
áĥĿáĥłáĥ ¢
ĠÎµÎ¯ ÏĩÎµ
ĠAn k
ĠãĤ Ħ
Ġfoll ando
ëĭ ¬
Ġ100 00
ÉĻ li
E Y
ÉĻc ÉĻk
Ġlain nya
ĠAss ist
ĠØ¨Ùĩ ØªØ±ÛĮÙĨ
Ð° ÑĨÐ¸Ñİ
Ġg raf
Ġáĥłáĥ £áĥ¡
Ġch ia
b our
ul ation
Ġy ax
Ġp iano
Ġ×¦ ×¨
Ġr ess
el de
à§ģ à¦¦à§įà¦§
Ġminut os
ĠÙĦÙĦ Ø£
à¸Ńà¸ °
Ð¸Ðº Ðµ
ich ten
ÑıÑĤ ÑģÑı
ĠØ§ÙĦØ¥ Ø³ÙĦØ§Ùħ
Ġto ol
ãģŁ ãģ¡
ÐµÑĢ Ðº
ic ulas
ļ à¸Ļà¸
ĠÑģÐ´ÐµÐ» Ð°ÑĤÑĮ
Ïĥ ÏĦÏĮ
ĠIh nen
Ġ199 5
ãĤ ²
Ġà¤¸ à¥įà¤Ł
Ġex erc
Ġcom ing
Ã¼ ber
Ġtu o
Ġl áºŃp
ĠAng eb
ĠÏĩ ÏģÎ®
Ġeer ste
Ġh iÃ§
ĠRad io
ĠçĶ ±
Ġà¤¸à¤ķ à¤¤à¥ĩ
Ġst abil
Ġm ig
Ġ7 50
Ġ199 6
ny mi
al ui
ĠÚ© Ø§ÙĩØ´
Ġpes o
ĠÃ¶ lk
æ± ĩ
ĠÑģÐ» Ð¾Ð²
Ġbo ard
Ġn od
Î¿Î½ ÏĦÎ±ÏĤ
åķ ª
s u
Ġu cz
Ġh Ã´t
Ġot ras
ĠÑģ ÑĥÐ¼
ĠÙħØ¯ÛĮØ±ÛĮ Øª
Ġpic c
ied ad
áĥľ áĥĶáĥĳáĥĲ
Ð½ ÐµÐ³Ð¾
Ġst ream
Ġol tre
æĭ¿ å¤§
Ä±l Ä±r
Ġsu iv
Õ¸Õ ²
ĠÐºÐ¾Ð½ Ðº
on ne
Ġì§ ģ
Ø´ ÙĬ
Ð¾Ð´ Ñĭ
Ġà¤¬ à¤¾à¤°
ĠÂ ¥
Ġout side
Ùİ Ø©
ĠØ§ÙĦØŃ ÙĬ
Ġpati ents
em u
rav a
Ġsh ows
ĠØª ÙĥÙĪÙĨ
Ġoff re
ĠØ§ÙĦØ° ÙĬÙĨ
à¦ķ à§įà¦°
áĥĿáĥ ĸ
Ø§ÙĬ Ø§Øª
Â ¢
Ġde be
b ew
ĠÏĢ Î¬
f ik
ìķ ł
Ġí Ĺ
Ġãĥ Ł
ÏĥÏĦÎ± ÏĥÎ·
ic ks
Ġon un
Ġhist oria
ĠAustral ia
ĠAN D
áĥ¡ áĥ¢
ĠÙĬ Ùĥ
Ġact ive
Ġì¶ ©
ĠÐ½Ð°Ð¿ ÑĢÐ°Ð²
ä¸į åı¯
at ory
Ġãĥ ģ
Ġáĥ¥ áĥķáĥĶáĥ§
Ġdol lar
ĠIn de
ĠØª Ú©
Ġå¥ ¹
ĠØª Ø±Ùĥ
Ø´ÙĨ Ø¨Ùĩ
ãĥ³ãĥ Ģ
ÏĦÎ¿ Î¹
Ġso ft
æħ ĭ
à¦ ¯
ĠP ack
Ġà¦¯ à¦¾à§Ł
Ġup date
ĠáĥĲáĥĵáĥĲáĥĽ áĥĺáĥĲáĥľ
Ġdes p
à¥ĩ à¤®
Ġà®ķ à®Łà¯įà®Ł
Ġlos s
ĠÐ¾ÑĤÐ½Ð¾ ÑĪ
Ġsah ip
itt ing
à±Ģ à°
Ø§Ø§ Ø§Ø§
rat t
Ġåħ į
Ġáĥŀ áĥĿáĥļ
âĢĮ âĢĮ
Ø¸ Ø§Ùħ
Ġy at
ÙĪØ² Ùĩ
ĠMin ist
Ð» ÐµÑĤ
ind eki
Ġà¤ķ à¥įà¤·
å³ °
Î ¦
ĠY eni
ĠS ud
è Ĩ
à¦¿à¦ Ń
Ġlik ely
ŀ à¸²à¸
Ġìĺ ¬
ĠÐ±ÑĥÐ´ ÑĥÑĤ
· °
ĠÎķÎ»Î»Î¬ Î´Î±
ĠÙĪ ÙĥØ§ÙĨ
Ġatt ivitÃł
ÐµÑĢ Ñģ
g as
ĠM T
Ġa unque
ãģª ãģĭãģ£ãģŁ
Ġà¤¹à¥ĭ à¤¨à¥ĩ
ĠÑģ Ð¸Ð»
ĠØŃ Ø±Ùģ
et r
nis se
Ġextre m
Ðº Ð°Ð½
Ð°Ð¹ Ð´
Ġc asi
Ġà¤ħ à¤®
Ġcon form
çİ° åľº
åĪ° äºĨ
Ġn Ã¦r
ĠP om
Ġs Ã¸
bl es
all o
çŁ¥ éģĵ
ÅĻ eb
Î¯Î½ Î·
ib e
ĠÏĮ Î¼ÏīÏĤ
Ġãĥ Ŀ
Ġdispos it
Ġ à¹Ħà¸¡à¹Ī
æıĲ çİ°
ĠÑĥ Ð¼
áĥĿáĥļ áĥĿ
å¥ ¥
Õ¥Õ ¿
Ġr ych
Ġà´ ķ
ĠÙĩØ¯ Ùģ
Ġtri á»ĩu
ĠØ± ÙĬ
ho use
Ġs ik
it ter
ĠM ail
ĠÐºÑĢ ÐµÐ´
P G
ĠÐļ ÑĥÐ¿Ð¸ÑĤÑĮ
ĠN aj
Ġ7 20
ÙĢÙĢÙĢÙĢ ÙĢÙĢÙĢÙĢ
ÄŁ un
Ġpu is
Ġid i
ĠÛ² Û°
ÑĤ Ð¾Ð²
n ut
ĠØ§ÙĦØª ÙĨ
Ġan nÃ©e
A n
ĠD engan
Øª Ø§ÙĨ
ĠØªØºÛĮ ÛĮØ±
Ġap ply
Ġa ja
ÏģÎ¿ ÏįÎ½
å² ģ
f ast
Ð¸Ð» Ð¾
ĠÙĨ Ùģ
ativ es
ĠE ast
ëį Ķ
ar ma
ç§ Ģ
Ĺà¸µà¹Ī à¹Ģà¸
Ġà¤Ĺ à¥įà¤°
Ø§Ùģ ÙĤ
Ã Ŀ
è¦ ı
à±ĩ à°°
c al
Ġs Ã¡ch
à¦¬ à¦¾à¦¦
ĠV ene
D S
Ġcap t
é ¼
n ice
, ,
ĠpÅĻ es
Ġæ³ ķ
Ġmat ter
Ġprogr ess
åı ³
à¥ĩ à¤ķ
ĠØ§Ø¬ØªÙħØ§Ø¹ ÛĮ
ven ir
k Äħ
fa at
ĠD Ã¼n
à¤ Ĩ
Ġrece ive
is in
Ġa zi
ĠÚ¯Ø° Ø´ØªÙĩ
Ġk val
à¯ģà®³à¯įà®³ à®¤à¯ģ
ĠÚ© Ø§ÙħÙĦ
ĠC ard
ÑĪ Ð¸Ñħ
ong an
ĸà¸¶à¸ ĩ
Ġt ang
Ġis ÉĻ
Ġhapp en
ĠZ u
ĠãĢĳ ,
ĠO ther
ĠT uy
Å ģ
ĠÑĤ ÑĥÑĢ
ĠgÃ¶r Ã¼ÅŁ
Ġgi orno
Ġh ombre
ĠØ¯ ÙĬ
ĠÐ²Ñģ ÐµÐ³Ð´Ð°
Ġho e
à¦ ı
Ø¯ Ø§Ø±Ø©
ĠØ¨Ø±Ø® ÛĮ
ĠÎ¼ Î¹Îº
åĿ ļ
à¤°à¥įà¤ ¥
ĠÐ´Ðµ ÑıÑĤÐµÐ»ÑĮ
ĠÎ³ Îµ
Ġhad de
or ang
Ġà°ķ à°¾à°°
à±įà°° à±Ģ
Ã¼ ne
Ġpr Ã©c
Ð¸Ð» Ð°ÑģÑĮ
olog ical
ĠØ¯ Ùħ
H e
AS S
Ġc ob
ĠÐľ Ð¸Ð½
Ú©ÙĨ ÙĨØ¯
T o
ç® Ģ
ĠR S
orn ia
Ġfl ow
áĥ® áĥĽ
Ïĥ Î¯Î±ÏĤ
Ġzo als
ĠSer ver
à¹Ģà¸¥ à¹Īà¸Ļà¸
ue il
Ġd ÃŃ
ĠØ´ ÙĪ
Î¸ Ïħ
ĠÙħØ´ Ø®Øµ
Ġris ult
Ġins ide
Ġmas ter
ĠJul i
Ġv Ã¡
Ġse hingga
Ġrestaur ant
Ġqu ella
Ġnuev a
çµ ¦
Ïĩ Î·
Ġog gi
Ġl lam
Ġs ag
ĠY a
Ġn ya
Î¾ Î·ÏĤ
ĠÕ ¤
Ġë ł
Ġb ok
Ġopt im
Ħ à¸Ńà¸
Ġinde pend
Ġdi y
Îº ÏģÎ±
ra zione
Ľà¸£à¸°à¹Ģà¸Ĺà¸ ¨
ĠG overn
áĥ¡ áĥĲáĥ®
ĠãĢĤ ï¼Į
Ġv iáº¿t
Ġo x
Ä± da
ĠK ay
áĥļ áĥĺ
Ġl ista
Ġh yd
ese arch
ĠÙĬ Ùı
è¿ °
ĠG am
çļĦ ãģ«
ĠTh ank
ĠL an
ä½ ³
Ġn á»¯a
ra ck
ä¸ ¥
Ú¯ Ø±Ø¯
AT A
Ġï¼Į âĢľ
Ġkont rol
Ġj adi
«à¸ §à¸
ĠBel ed
Ġby lo
ĠC ore
Ġd á»ħ
Ġberb agai
ĠEx p
ĠCount y
à¤Ł à¥Ģ
ĠN ad
ĠÑģÐ¿Ðµ ÑĨÐ¸
Ġthro ughout
Ġpad ding
Ġalle en
ĠL aw
ëĦ ¤
ĠP ul
Îķ ÎĽ
at ta
Ġ10 8
Ġ01 68
Ã¸ d
Ã©m u
wid get
ĠSe e
aj ar
Ġé© ¬
Ġs Ã©rie
ãģĺ ãĤĥ
ĠÙħØ¹ Ø±Ùģ
n u
ĠÙ¾ Ø±Ø³
ĠØ¹ÙĦÙĬ ÙĩØ§
Ġdi á»ĩn
ĠÙħØµ Ø±Ùģ
uss ures
Ġà¦Ń à¦¾à¦°
Ġu ur
ĀĀĀĀĀĀĀĀĀĀĀĀĀĀĀĀĀĀĀĀĀĀĀĀĀĀĀĀĀĀĀĀ ĀĀĀĀĀĀĀĀĀĀĀĀĀĀĀĀĀĀĀĀĀĀĀĀĀĀĀĀĀĀĀĀ
à¹Ģà¸£ à¹ĩà¸
Ð¸Ð½ Ð¾Ð²
ĠB ot
ĠÄĳ Ã¡
ĠC anc
ãģĵãģ¨ ãģ¯
ãģªãģĮ ãĤī
Ð¾Ð½ Ð¾Ð²
ew s
åĽ °
ĠJ uan
Ĺà¸ ĺà¸
Ġme in
ent as
ĠáĥĹ áĥĳ
à¯įà® ¨
ĠçĦ ¡
Ġgi orni
Ġatt ention
ĠP are
ä¸ĵ ä¸ļ
áĥª áĥĲ
ĠnÄĽ k
ĠJ er
ĠEs s
æĹ© é¤Ĳ
Ð°Ð± Ð¾Ñĩ
ĠJah re
Ġt oll
à®¿à®² à¯ģà®®à¯į
Ġan ci
ĠTe xt
ÅĤ od
ĠØ§Ùħ Ú©Ø§ÙĨ
Î® Î½
Ġem er
áĥĶáĥĳ áĥĸáĥĶ
ĠÏĥÏħ Î¼Î²
Ġt ÅĻ
Ġem b
Ġus ually
ÏĨ Ïħ
Ġsk ills
ë³ Ħ
à±ģà° ®
Ùħ Ø¨Ø±
Ġpart ners
Ġbus ca
ĠÐ¿ÑĢÐµÐ´ Ð¿ÑĢ
è¯ ¾
um as
ĠÐ¿ÑĢÐ¾ÑĦ ÐµÑģÑģ
¥à¸ ±à¸ĩà¸
ĠØ§ÙĨØª Ø´Ø§Ø±
Ġf rem
á ĭ
ç¤ ¼
Ġch á»©ng
Ġä¸ ¤
ªà¸ ´à¸
Ġa udio
×ķ×ľ ×Ļ×Ŀ
ÎĹ ÎĿ
uj emy
Ġç ¬
Ġà¦¹ à¦¾à¦¸
Ġç§ Ĵ
l ÉĻn
Ġì¢ ħ
Ġåĩ¯ æĹ¶
Ġto wn
ĠS ac
ĠÙģØ§Ø± Ø³ÛĮ
ĠØ§Ùģ Ø±Ø§Ø¯
ĠÕ º
all en
ë¡ ¯
ĠåĲ Ī
Ġt at
èĤ ĸ
ac io
Ġg ur
ĠÑģ Ð¾Ð´ÐµÑĢÐ¶
ĠÐ± ÐµÐ»
Ø¨ Ø·
Ġáĥ¡ áĥ¬
Ø§Ø¨ Ùĩ
be eld
Ġin put
al am
ĠL ig
ÑģÐº Ð¾Ðµ
Ġe cht
Ġbes o
¨à¸ ¶à¸
ut styr
l uk
ied y
Î¸Îµ ÏĥÎ·
ĠÙĪÙĤ Ø§ÙĦ
Ġex am
ĠçĦ ¶
Ġg Ã¢y
in ha
Ġíĸ ī
Ġãĥ ī
áĥ£áĥ ĳ
Ø±ÛĮ ÙĤ
ÐµÐ½ Ð½Ð°Ñı
Ġse ul
ĠN ik
ĠG MT
à¥įà¤ ļ
Ġgel en
Ġatt r
pres a
f Ã©r
Ġè £
ĠgÃ¼ ven
Ġà¤ª à¤¾à¤°
ĠÙ¾ Ø²Ø´
æķ ĳ
Ġcon vert
Ġu omo
Ġà§¦ à§
« à¸²
ĠB ec
ä¼ ¦
ª à¸Ļà¸
Ġbl ue
ĠL td
ut y
×Ļ×ķ×ª ×¨
Ġqu ed
Ġell os
Ð¸ÑĨ Ñĭ
m ektedir
Ġ ā
ÑĮ Ðµ
Ġap art
Ð½Ð°Ðº Ð¾Ð¼
Ø¶ Ùħ
Ä±n daki
us te
Ġnh áºŃp
ëĵ¤ ìĿĢ
ÙĤÙĬ ÙĤØ©
Ġacc omp
Ã¼ f
ers o
ab ol
Ġcon duct
l ige
Ġt ir
ĠÙĨ Ø¬
Ġvá» ±c
à¤¿à¤ §
à°¡ à±įà°¡
ĠÑģÐº Ð¾ÑĢ
Ġm iesz
ãĥ¡ ãĥ³ãĥĪ
Ġë° ķ
ãĤĬ ãģ®
Ġben ar
ÙĪÛĮ Ø³
ĠP ut
èĮ ¶
ĠÐ¿ ÑĥÑĤ
à§ĩà¦ ª
ĠO L
ĠIn i
«à¸¥à¸ ±à¸ĩà¸
s d
Ġprofess ionn
li wo
à¥ ¦
ĠÐ· Ð°Ð³
k ek
id or
Ð¸ÑĩÐµÑģÐº Ð°Ñı
Ġà¤¸à¤® à¤¯
Ġt ick
Ġfund ament
Î¹ Î²
ĠEst ados
Ġrespons abil
à®¤à¯įà®¤ à®¿à®©à¯į
l uss
Ġres id
Ġbl an
Ġà¦ķà¦° à¦¾à¦°
Ġactiv ities
r Ã¡t
Ġà°¸ à°¿à°¨
äº ķ
Ġle ave
Ġdah il
ĠF al
Ġun it
Ġcurrent ly
Ù¾ ÛĮ
ĠÛĮ Ø§Ø¯
ÙİÙĬ ÙĴ
ĠÄĮ esk
Ġl um
íĽĦ ê¸°
Îµ Î´
ĠÃ¶nem li
ĠEver y
×¤ ×Ļ×Ŀ
iel le
ĠØ§Ø± ØªØ¨Ø§Ø·
è¯ į
Ø§ÙĦ Ø¯
Ġk si
Ġdi et
Ġáĥ¬ áĥĺáĥľ
Ġh vor
ĠAd idas
ip e
çĶŁ äº§
Ñħ ÑĢÐ°Ð½
em an
Ġë¨ ¹
è²¸ æ¬¾
Ùİ Ø¹
m ay
ĠØ§Ø´ Ø§Ø±Ùĩ
Ġ×©×ľ ×Ĳ
ÄŁ an
ant ie
ĠL i
ĠáĥĽ áĥĲáĥľ
Ġz ag
Ġd ni
à±ĭ à°ľ
Ġwr ite
Ø±ÙĬ Ùħ
Ġu c
Õ ¤
ÏĢ Î¹Ïĥ
×ķ×¨ ×Ļ
Ġa im
Ġa ument
ĠM aar
ĠÎĳ ÏĢÏĮ
à¥Ĥ à¤¸
Ġà¸ ģ
Ġ×Ĺ ×Ļ
ĠÑģÑĩ Ð¸ÑĤ
ĠÎ¹ ÏĥÏĦÎ¿
Ø¬ ÙĪ
Ġpod le
ãĥ¥ ãĥ¼
Õ¸ ÖĢÕ
Ġpod em
ĠDies e
ĠF L
×Ļ×ŀ ×Ķ
w ert
Ġà¦Ĩà¦® à¦¾à¦¦à§ĩà¦°
Ġr os
Ġà¤¬à¤¹ à¥ģà¤¤
Ġess ay
ĠáĥĶ áĥĻ
ĠFeder al
un ta
Ġà°µ à°¾à°°
è½ »
ĠØ§ÙĦØ³Ø¹ÙĪØ¯ ÙĬØ©
ĠÐ²Ð½ Ð¸Ð¼
Ġ! "
Ø±ÙĬ ÙĤØ©
å¼ µ
omm od
Ġf ic
á Ĭ
Ä© nh
Ã Ļ
Ġm ÃŃ
Õ¡Õ ®
Ġvl ast
Ġcar acter
æīĢ æľī
Ġà¤µà¤¾à¤² à¥ĩ
Ġpart s
×Ļ×ª ×Ķ
v gr
Ġê± ´
ĠÎºÎ± Î½
Ġutil izz
H O
ĠAn a
Ħà¸£à¸ ±à¹īà¸ĩ
Ġs f
T ube
Ġ×ĵ ×ĳ×¨
Ø· ÙĪØ±
B y
Ġgu ide
áĥĲáĥ® áĥĶáĥĳ
ĠáĥĲáĥł áĥĲ
ĠN áº¿u
áº£ y
i ya
áĥĲáĥļ áĥ£áĥł
Ġro ck
µ à¹Īà¸
il os
ĠÐ²Ñĭ Ð±Ð¾ÑĢ
Ġqu art
æı ´
ĠIS BN
Ð ¦
à®° à¯Ī
= >
Ġà¦¨à¦¿ à¦°à§įà¦¬
ĠÑģ ÑĥÑīÐµÑģÑĤÐ²
ĠÎºÎ±Î¸ ÏİÏĤ
Ä± p
ĠÐ² Ð°Ð¶
ĠÐ° Ð¿
Ġà¸ ¡à¸µ
ĠA ÄŁ
Ð¾Ð³ Ð¾Ð²Ð¾ÑĢ
H D
Ã¡n d
×ĺ ×Ļ
k Ã¼
S K
ĠâĻ ¥
Ġ0168 27
èī¯ ãģĦ
ra kt
g ere
èŃ °
Ġà°ļà±Ĩ à°ªà±įà°ª
Ġng uyÃªn
Ġm ungkin
Ġcal idad
ĠV oc
Ġch iáº¿n
Ġd ati
Ġà¦¹ à¦ļ
àª ¾
n ivers
à¥ĭà¤Ĥ à¤¨à¥ĩ
ific ar
Ġë³ Ģ
Ġà°® à±Ĭ
Ġê²ĥ ìĿ´
ĠÐ½ ÐµÐ²
Ġqual quer
Ġ19 0
×ĳ×¨ ×Ķ
Ġà°° à±Ĩ
äº§ ä¸ļ
Ġ$(' #
¥à¸ ¹à¸ģà¸
ĠáĥĲáĥłáĥ ¡
ĠÐ¿ Ð¾Ð¶
ëĵ ±
æĭ ¬
ĠìĻ ¸
ĠÐ¸ Ð´
ick Ã½
ĠM á»Ļt
zy ch
Ġãĥ Ĩ
il miÅŁ
ĠMater ial
Ð°Ð¶Ð´ Ð°Ð½
Ġvá» ĩ
Ġdies es
áĥ®áĥĿáĥķ áĥł
ÐµÐº ÑģÑĤ
or an
Ġï¿½ï¿½ï¿½ï¿½ï¿½ï¿½ï¿½ ï¿½
Ġans wer
c ret
ĠÎļ Ïħ
p ak
er ia
ĠPr om
Ġk iá»ĩn
ĠÐºÐ¾ÑĤÐ¾ÑĢ Ð°Ñı
ìķĦê°Ģ ìĶ¨
íİ ĺ
ick en
Ġw ish
ĠCOM å½©åĸľæ¬¢
Ġall en
ĠMer c
ĠSt ore
Ġev alu
Ġtak es
Ð¸Ð¼ Ð¾ÑģÑĤÐ¸
ĠÙĪØ§ÙĦ Ø¥
Ġ×ĳ ×Ļ
áĥĲáĥļáĥĺ áĥĲáĥľ
Ġde z
ĠL en
Î®Î¼Îµ ÏģÎ±
Ġg ang
å½± éĻ¢
ä»· æł¼
ģà¸ ¥à¸²à¸
ĠÐ¿ÑĢÐµÐ´ Ð»Ð¾Ð¶
à¥Ģ à¤°
Ð¾Ð± ÑĢÐ°Ð·
ĠØ¹ Ø±Ø¨
Þ ¨
ĠÑģ ÐµÐ³Ð¾Ð´Ð½Ñı
Ġdi ÄŁer
Î¯Î½ ÎµÏĦÎ±Î¹
era Ã§Ã£o
ĠÙģ Ùĩ
ĠD ette
Ġy ay
f Ã¸r
l Ã©
M AN
m aktadÄ±r
6 00
Ġ×ľ×Ĳ ×Ĺ×¨
Ġ×ª ×§
æĺ ł
Ġch ung
Ð°ÑĤ Ðµ
p ose
ĠÙħÙĨ Ø§Ø³Ø¨
ĠÎ» Î¯
ĠÏĥ Îº
à¤¹ à¤°
ici ent
Ġdire kt
Ġãģ Ķ
ĠÄĳ Æ°a
Ġdec lar
Ġfut uro
Ġde po
no ut
Ġpr ij
Ġbu ilt
áĥĲáĥłáĥĹ áĥļ
ĠÎ¼ Î·Î½
Ġa er
ĠÙĪÙĩ ÙĬ
ĠB is
Ġï¼ İ
ĠÐł Ð¤
ĠÐ¼ Ð¼
×ķ×ľ ×Ļ
Ġíķĺ ëĤĺ
ĠMe hr
Ġà¤® à¥ģ
ek si
ĠR ay
ĠØ¯Ø§Ø± Ø§ÛĮ
Ġopport unity
Ġà¦ªà¦° à¦¿à¦¬
Ġti Ãªn
ĠÐ² Ð¾Ñģ
Ġposs ibile
ĠìĬ ¬
à®Ł à¯ģ
Ġè Ĳ
Ä Į
abil irsiniz
Ġinterp ret
ĠJour nal
ÛĮØ´ Ùĩ
Ġà¸ ģà¸²à¸£
Ġword s
Ġpl ans
ĠÐŁÑĢ ÐµÐ´
ĠÐ´ÑĢÑĥÐ³ Ð¸Ñħ
Ġs Ä©
ÏĩÎµ Î¯Î±
ly mp
fol g
Ã© ro
ĠÂ ¯
ĠÏĮ ÏĦÎ±Î½
é ı
Ø§Ø¯ ÙĬØ©
Ð°ÑĤ ÐµÐ»ÐµÐ¹
N O
åıĳ å¸ĥ
ãģ¨ ãĤĤ
Ġè »
Ġ- ,
Ġå¤ ª
Ġà¹Ĥà¸Ķà¸ ¢
à¦°à§įà¦ £
ÙĪØ¯ ÛĮ
G U
Ġà¦Ĩ à¦ľ
ĠÙħØ¹ Ùħ
Ã¥ l
ĠF ig
äºº ãģ®
à¥ĥ à¤¤
ie c
Ġà¦ªà§įà¦° à¦§à¦¾à¦¨
Ïģ ÏīÎ½
à±ĭ à°Ĺ
è® ¿
à§ĭ à¦¸
ĠN el
Ġ×ķ ×ł
ĠWeb site
è¯ ¢
à¯Ĩ à®¯
ĠÎºÎ¬ ÏĢÎ¿
ë¦ °
Ġà®ħ à®´
ĠB erg
igli o
Ġap os
ĠM ake
Ġà¨ ¦
Ġtá» ·
il ai
Ġhigh er
à¯ģà®ķ à®¿à®±
Ġy ardÄ±m
ad ÉĻ
à¹ģà¸ ģ
à§ĭ à¦§
Ġì¶ľìŀ¥ ìĥµ
ĠPublic ado
h d
Ġzw ischen
Ġo vers
Ġà¤ª à¥Ī
Ġweek end
Ġ199 4
ä¸ °
ĠÄĳá» ©
Ġseb elum
ĠAd v
ÏĢÎ· ÏģÎµ
Ġà¦ĩ à¦ī
Ġ×¢ ×ķ×ĵ
Ġcon na
åĲ ¦
ĳ ĳ
Ġk ed
Ġfr ente
Ġya itu
Ġsci ent
on c
Ġê² Ģ
Ġà¸ Īà¸²à¸ģ
Ġbe ach
ĠChrist ian
ãģĦ ãģĨ
Ġr ather
à¤¾à¤µ à¤°
ĠD aar
Ïĥ ÎºÎµ
Ġdi á»ħn
à°° à±įâĢĮ
Ġreg ister
Ġmag gi
Ġà®ª à¯ĩ
èĥ½ åĬĽ
Ġà¤® à¤¾à¤°
Ġk Ã½
ĠÐ´ Ð¾ÑģÑĤÐ°Ð²
à¦¤ à§įà¦°
Ġ= \"
ĠØ§ÙĦ ÙĪØ²
ul y
å¼Ģ å§ĭ
un s
ĠÎµ Î³
Ġfor ex
çĸ ĳ
ĠÐºÐ¾ÑĤÐ¾ÑĢ ÑĭÑħ
Ġpag ina
à¤¯ à¥ĭà¤Ĺ
ĠØªØ¹Ø¯ Ø§Ø¯
re te
Ġqu and
ãĥ© ãĥ¼
und ial
ĠÐ¿Ð¾Ð´ Ð´ÐµÑĢÐ¶
éĺ ¿
Ð» Ð¸Ð½
ĠÐĶ Ð¶
×ķ×¨ ×ª
Ġà¤²à¥ĭà¤Ĺ à¥ĭà¤Ĥ
ĠÑĦÐ¾ÑĤ Ð¾
Ġb Ã³ng
ert ura
Ġl Ã¸
ì »¤
å® ¡
ĠÙĩ ÙħØ§ÙĨ
ĠØ¨Ø§ÙĨ Ú©
ĠE P
Ġnov o
ĠAn s
à¥ĭ à¤§
Ġt Ãªn
´ë ı
or gan
Ġkit chen
·à¹Ī à¸Ļ
ara q
Ġpract ice
Ġmen ing
íĮ ħ
ĠÙĤ Ø¶
Ġic on
Ġa ks
ÐºÐ¸ Ñħ
Ġà®¤ à®¾à®©à¯į
ĠÎĶÎ· Î¼Î¿
Ġper met
Ġd Ä±ÅŁ
ig ing
ĠAn ti
Ġ×ľ×Ķ ×Ļ×ķ×ª
ĠÑģÐ°Ð¹ÑĤ Ðµ
Ġb á»ı
Ġprob ably
Ī à¹īà¸²à¸
Ġrecher che
M B
æ´ ĭ
ĠÙĬ Ø´
Ġab ril
à§įà¦¯ à¦®
us her
ĠÙĩ Ø§ÙĬ
ĠØ§ÙĦØ£ Ø¹
Ġr and
Ħà¸ ¥à¸
rij k
Ġaccord ing
ĠÎ³ Î½Ïī
Ġl amp
Ġtemp at
Ġt av
Ġm anten
çĻ» åħ¥
Î¶ Î¯
pet to
m ing
P ro
ĠÎ± ÏĨ
ãĥ³ãĤ ·
Ġt Æ°á»£ng
çļĦ æĺ¯
ĠÚ©Ùħ Ú©
Î³ Î·
F T
ĠØ¨ Øµ
Ġla at
ĠR ol
ĠãĤ °
Ġord in
ĠG ay
Ġs ess
ĠÙĨ Ø®
ÑĥÐ´ Ð°
Ġresp onse
Ġg old
ëĬĶ ëį°
çº ³
Ġro k
à¸Ļà¹īà¸ ³à¸
Ġc ivil
ª à¸Ļ
Ġpre tty
c ular
áĥĺáĥ ®
nik i
Ð½Ð°Ðº Ð¾
ĠáĥĽáĥĹ áĥĲáĥķ
Ø§ÙĦ Ùī
Ġkh iáº¿n
æľ¬ éģĵ
ĠÙ¾Ø§ÛĮ Ø§ÙĨ
s an
Ġpot ential
í ļ
æĭ ©
ãĥĨ ãĥ«
Ġà®® à®ķà¯įà®ķ
ÙĨ Ø§ÙħÙĩ
Ġè ĳ
ĠÙĨØ³Ø¨ Øª
Ġlook s
ãģª ãģ®ãģ§
ãĥķ ãĥĪ
à®¿à®¯ à¯Ī
ek an
Ġà¤¤à¤° à¤¹
Ġåį İ
Ġ Ïİ
ĠM ujer
ï¼ ī
ÙĤÛĮ ÙĤ
ec zy
ĠÐ´ÐµÑĤ ÐµÐ¹
ĠV Äĥn
uj i
ler ine
K S
Ġconstru ction
íķĺ ì§Ģ
ĠáĥĽ áĥĲáĥĺ
¥à¸ ĩà¸
Ġav ons
åıĤ åĬł
Ä±l mÄ±ÅŁ
ĠiÃ§ er
ĠÙģ ØµÙĦ
ĠØ£ Ø®Ø±Ùī
Ġeffect ive
Ġder ni
èĥ Į
Ġd ark
Ġ ä¹ħä¹ħ
à¤¾à¤² à¤¯
ve y
ĠÎ¿ Î¼Î¬
ĠP es
ãĤ¤ ãĥ³ãĥĪ
Ġsecond o
ĠNh á»¯ng
Ãªn cias
Ġdisc over
Ġcons id
Ġrap id
ĠL is
ĵ à¹Įà¸
Ġint Ã©r
ÉĻ ÅŁ
Ġç ĥ
Ġf eder
ĠCh in
Ġà°® à°¨
Ġpas ar
t v
L INE
Ġpod ob
ëŁ ¼
áĥĿáĥļ áĥĿáĥĵ
Ġà¦ı à¦ĸà¦¨
al mente
ĠØª ÙĦÙĥ
èĹ ı
Ð¾ÑĢ Ð¸Ñı
ĠÐ¾Ð±ÐµÑģÐ¿ ÐµÑĩ
Ð°Ð» Ð¾ÑģÑĮ
Ġob ra
ĠâĢĶ âĢĶ
ĠÐ½ Ð°Ð²
Ġt amp
ĠN os
ĠÐ²Ðº Ð»ÑİÑĩ
ond s
Ġtry ing
Ġch amp
c r
Ġà¸ ģà¸£à¸
ĠÎ£ Î¥
Ġentre pr
è®¾ å¤ĩ
ãĤģ ãĤĭ
ç´ ¹
ĠDev el
Î´ Î±ÏĤ
ĠCar los
Ġtra in
ĠT id
ĠSt udio
à®¿à® ³
à¤¨ à¥ĭà¤Ĥ
ĠÐľ Ð°ÑĢ
ĠW il
ÐµÑĢ Ñħ
ĠØ¢Ø² Ø§Ø¯
çİ ī
und an
ëª¨ íħĶ
ĠØ§ÙĤ Ø¯Ø§Ùħ
Ġwant ed
l ak
Ġl Ã²ng
Ġ$(' .
â ķ
Ã¡v Ã¡
Ġm Ã¶glich
å¨±ä¹Ĳ å¹³åı°
45 6
Ġ×ĳ ×ľ
ĠÎĳ ÏĢ
ÏĦ ÎµÎ¹
Ġà¤® à¥Į
P N
ĠÖ ²
à¶ »
Î³Î³ ÎµÎ»
ĠC lar
ri f
Ġgu ard
éĢī 5
on ce
Ġà°® à°¾à°°
æ±½ è½¦
ĠØ¨ Ø§Ø¹
M I
ŀ à¸£à¸
ĠÐ²Ñģ ÐµÐ¼
ĠA rab
x i
ie u
Ġw orth
Ø² ÛĮÙĨÙĩ
Ġh Ã¶
ĠEd ition
ãģĤ ãģ£ãģŁ
st erd
ning er
AS T
Ġä¸Ĭ æµ·
Ùĥ Ø¯
w ad
Ġmin ha
iÃ§ os
Ġla z
Ġcho ice
ĠD in
Ġlá» £i
l ov
à¥įà¤¯ à¤¾à¤¸
Â ¯
Ħà¸ ¥
Ġnaw et
à¥įà¤ ŀ
az ine
Ġcan not
ç´ ļ
à¤ķ à¤¿
y la
ik si
Ġáĥ¨áĥĶáĥ¡ áĥĲáĥ®áĥĶáĥĳ
mas Ä±na
Ġproject s
Ġgrow th
Ġnghiá»ĩ m
w _
Ġcaus a
ĠN at
áĥĵ áĥĺ
ateg ori
Ġka Å¾d
Ġc up
Î¾ ÎµÎ¹
ĠN gh
Ġè¿ ĳ
çŃ ¾
Ġà¦Ń à¦¾à¦²
ĠAb s
ĠÛ ¶
åĢ ¤
Ġìĺ¨ ëĿ¼ìĿ¸
Ġoff icial
Ġlo ad
ĵ ľ
ç¶ ²
ã ħ
ĠáĥĵáĥĲáĥ Ļ
Ķà¸ ´à¸Ļà¸
Ġto ols
Ġk iáº¿n
ë¦¬ ê³ł
V A
Ġë¨ ¸
Ġm udah
ĠsÃ¼ re
Ä± t
ĠÎ½ Îµ
ĠT rib
ĠS uj
ĠÐ´ ÐµÑĢ
ç§ Ł
Î´ ÎµÎ¹
ed ere
ĠÐ¼ Ð¾Ð¼
à®² à®¾à®®à¯į
à¹Ģ à¸Ńà¸ĩ
em and
ĠÃ§ ocuk
ãģ§ ãģ®
à¯ĭ à®®à¯į
Ïĥ Î¿ÏħÎ¼Îµ
ÅĽ wiet
Ġho a
æı Ľ
à±ĩà° Ł
å· ¦
ĠÎ² Î±
ëŁ ī
Ġpol icy
unci os
Ġ×ķ ×Ĺ
åľ° åĮº
Ġë² Ī
Ġà¦¸ à§įà¦¥
Ø¨ ÛĮÙĨ
m ission
Ġt ung
Ġ äºĭ
Ġbere its
ç¢ °
Ġpie ce
a us
ĠíĶĦ ë¡ľ
ĠÙħÙĨØ· ÙĤÙĩ
ĠJ ob
éģ ĩ
Ġë £
åĵģ çīĮ
Ġà¦¦ à¦²
à¦Ń à¦¾à¦¬à§ĩ
Ġà¤¬ à¤¤
à¥ī à¤²
Ġu Å¼
ĠÏĦ ÏģÏĮ
ë³´ ê¸°
à´ ®
ĠëķĮ ë¬¸
Ġtri p
ĠBe it
Ä° Y
M E
id el
Ġà¦¸ à§ģ
Ġëĭ ¬
Ã¤n der
n os
R C
Ø« ÙĦ
Ġpost s
ë¸ Į
à°¿à° ²à±ĭ
ãĤī ãĤĮ
ÙĩØ§ÛĮ ÛĮ
sp re
Ġà¹Ģà¸ĩà¸´à¸Ļà¸ Łà¸£à¸µ
Ġp t
Ġåį ³
ĠÙĪ Ø®
Ġd abei
Ġcos as
Ġéĺ ¿
ĠS und
ĠF ut
Ã¡c il
Ġk ond
ĠMo unt
ers hip
Ġqu ale
Ġcuk up
å® ĥ
Ġëį °
ĠØ§ÙĨ Ú¯
Ġb ou
Ġfr esh
ĠEl le
ĠComp any
akt Ä±r
ĠN H
à¯ģà®ķ à®¿à®±à®¤à¯ģ
ļà¸²à¸ Ħà¸²à¸£
Ġdat os
ĠØ¬ ÙĪØ§ÙĨ
Ġch eg
ØŃØ¯ Ø«
ĠÐ¿ÑĢ ÐµÐ¿
ĠÙħÙĨ ÙĩØ§
ÙĬØ± Ø§ÙĨ
Ġc Äĥn
×¤ ×Ķ
ĠØ± Ùĩ
Ġf isc
Ġf av
Ä±lÄ± k
åľ¨çº¿ è§Ĩé¢ĳ
Ġáĥĺáĥľ áĥ¤
Ġl assen
Ġà°ħ à°¨à±įà°¨
ãģ¾ ãĤĬ
×§ ×¨
t id
i at
ĠÑĦ Ð¸Ð½
Ùĳ ÙĲ
Ġ×ķ ×ª
v ier
ro z
à§Ģ à¦¦à§ĩà¦°
ĠìĨ į
Ġè ĥ
uer do
Ľ à¸µ
Ġ( {
ĠÄį i
c aya
ĠØ§ÙĦØµ ØŃ
à°¤ à°¿
à¥įà¤¯ à¥ĭà¤Ĥ
Ġ10 4
ÙĢÙĢ ÙĢ
ĠgÃ¼z el
ĠCent re
à°¿à°Ĥà°ļ à°¿
Ñĳ Ð½
éĮ ²
áĥĿáĥĳ áĥĲáĥ¡
ĠØ¢ Ø³ÛĮ
Ġì Ĥ°
Ġà®ķà¯Ĥ à®±
ĠØ§ÛĮØ±Ø§ÙĨ ÛĮ
ĠÄĳá» §
Ľà¹ĩ à¸Ļà¹Ģà¸
y y
n ak
ĠgiÃ¡ o
ĠØªÙĨ ÙĩØ§
Ġv Ã©
ĠE ven
à¥Ģ à¤¡
Ġt witter
Ġs endo
ol is
ĠÛ ¹Û
Ġprofess ion
Ġart ikel
ĠGl obal
ific aciÃ³n
ë³´ ìŀ¥
Ġà¤® à¤¾à¤¨
Ġ×Ļ ×¦
Ġme e
à§Ģ à¦¤
Ġd ello
Ġn ah
¸à¸ ¡à¸
Ġà® ¹
ĠÑĢÐ°Ñģ ÑģÐº
Ġop ortun
ĠB lo
Ø§ÙĨ Øª
sk o
em ek
Ġqu ad
Ġplus ieurs
Ġdil akukan
Ġà® Ĭ
à¸Ńà¸Ńà¸ ģ
Ø¶ Ø§ÙģØ©
Ġmp 3
Ġà¦Ĩ à¦¹
ĠØ§ÙĦ Ø±ÙĪ
Ġtempl ate
ĠL ook
Ġà¤¨ à¤¾à¤®
ĠÙħ Ø§ÙĬ
Ã¹ a
ub re
Ġest able
ĠTh omas
ãģ£ãģ¦ ãĤĤ
Ġà¹Ģà¸ Ĭ
Ġp az
Ġinclud ed
Ġsp es
iv ity
Ġáĥ¡ áĥĲáĥĵ
à¦¿à¦ ĵ
ãģ» ãģ©
ĠX L
ĠNEWPart 9
ĠÎ±Î½ ÏĦÎ¯
à±ĭ à°¯
à®¾à® ľ
ÙĪ ÙĬÙĦ
Ð¾Ð³Ð» Ð°Ñģ
Ġáĥ¨ áĥĶáĥĵ
ĠÑĢÑĥÐ± Ð»ÐµÐ¹
Ġex empl
Ãª ng
Ġqual itÃ©
ĠØ² Ø¨Ø§ÙĨ
ĠÕ £
ĠÐ¼ Ð¾
Ġsc en
ĠY ang
áĢ¯ áĢ
Ġza Äį
à¶ Ń
Ġx o
Ġ11 2
Ġco ach
ĠCl ick
Ø§Ø¦ Ø¯
ia o
Ġk aufen
Ġd Å¯
ĠD 8
ler inin
em on
ĠS atur
Ãº a
Ġç Ģ
Ġwur den
Ġcon hec
ĠØ¯ÙĪØ± Ùĩ
ĠDo or
Ġh lav
ĠC ette
Ġ( -
ãĥ¼ãĥ Ĩ
Î¯Î¶ ÎµÎ¹
el and
ĠF A
ĠC F
Ġï »
Ġmo unt
er b
é¢ Ŀ
Ø±Ø¨ Ø¹
pl ace
Ð¾Ð»Ð½ Ð¸ÑĤÐµÐ»ÑĮ
ĠÛ ±
Ġvir us
d zi
ĠØ¶ ÙħÙĨ
ĠÏĩÏģÏĮ Î½Î¹Î±
Î Ĵ
à¤Ĥà¤¤ à¥įà¤°
Ĥ à¹īà¸²
Ġà¤¹ à¤°
ĠØ§ÙĦØª ÙĤ
ĠCop yright
E n
Ġ×ĳ×ŀ× §
Ġj ual
Ġbeh ind
íĻ ĺ
· à¹īà¸Ļà¸
eto oth
à°¿à°Ĥà° ¦
Ġkole j
Ġà¤ķà¤° à¤£
ĠÎ´ ÏħÎ½Î±
ĠP O
Ġ199 2
¯ à§
Ġnas Ä±l
Ġà¤ľ à¥Ī
Ġæ² ³
ĠBund es
ĠM E
ev ens
Ġim pr
Ð¾Ñĩ ÐºÐ¸
j Ãł
al and
ĠThe o
à¹Ģà¸¥à¸ ·à¸Ńà¸
il ang
Ġc uc
ĠØ£ Ø´
end as
Ġszcz eg
ç²¾ ç¥ŀ
à¯ģà® ©
Î¼Î¹ Î¿ÏħÏģÎ³
Å¡ enÃŃ
t te
ÙĬÙĨ ÙĬØ©
og li
ens chaft
Ġex iste
ë ·°
Ïħ Ïĩ
Øª Ùĥ
ven ue
Ġequip o
à¥įà¤Ł à¥Ģ
Îº Î¿Ïį
Ġáĥ« áĥĲáĥļáĥĺáĥĲáĥľ
ĠVer g
Ġlong er
ìĬ¤ íĬ¸
ĠP red
iel t
ĠÐ» Ð¸Ð±Ð¾
Ġeas ily
Ġcult ure
ë° ķ
ä» ħ
Ġlib re
ÐµÑĢ ÐµÐ´
ĠÐ²Ð¾Ð· Ð´
ĠO st
ĠÑĨ ÐµÐ»
Ùİ Ùħ
ĠÎ¬ Î»Î»
ĠV I
Ġìĥģ íĴĪ
v ia
Ġhab ÃŃa
P E
ĠPl at
ĠI L
Ħà¸£à¸Ķà¸´à¸ ķà¸
Ġwid get
d 88
ĠÐ½Ð° Ðº
Ġà¦° à¦¾à¦ĸ
ĠÄĳ a
Ġconst it
ujÄħ c
r ary
al q
Ġav ez
à¦¾à¦ ¡
×ķ×¦ ×Ķ
Ġre k
ĠØ¯ ÙĦÛĮÙĦ
ä½į ç½®
ÎµÎ¹ ÏĦÎ¿ÏħÏģÎ³
Ġíķľ ëĭ¤
ĠÐ¡ Ðº
Ãĵ N
Ġtá»« ng
ain es
Ġis n
ĠÙĦ ÙĬØ³
ĠØ´ ÛĮØ±
Ġup on
ĠT ari
Ġhist ori
Ø¹ ÙĬ
od es
Ġà¦¦ à¦¿à§Łà§ĩ
Ġsmart phone
Ġpros es
Ġd re
éĵ¾ æİ¥
m 2
à¸£ à¹Īà¸§à¸
led i
åķı é¡Į
iz in
ĠÄĳ Äĥng
áĥĿáĥľ áĥĺ
ĠØ° Ø§Øª
fer ence
un ft
ĠÙĪØ§ÙĦ ØŃ
ìĨ ¡
åŃ¦ éĻ¢
ãģ« åħ¥
ÏĥÎµ ÏĦÎµ
l oss
Ġì ´Ī
Ġass ess
è» ¢
à¤µ à¤¨
da ÅŁ
ĠÑĢ Ð°ÑģÑĤ
ç´ į
ĠÎŃ Îº
ĠW ind
Ġtim bang
Ġtr att
ĠBew ert
ç °
ĠÑĢÐ°Ð· Ð¼ÐµÑĢ
ĠáĥĴ áĥĲáĥł
Ġáĥ¡áĥĲáĥ £áĥ
Ð¾Ð¿ Ð°Ñģ
ĠåĨ į
Ġag re
à°Ĥà°¦ à±įà°°
Ã©rie ur
aliz z
Ġsum mer
Ġd raw
ĠO ri
ĠÐ½ Ð¾ÑĢÐ¼
Ġp ush
Ġà¤ĺ à¤°
ĠÅŁ ÉĻ
Ġlang uage
ĠJ ika
Ø· Ø§Ø±
Ġs ala
ä»ĺ ãģį
Ġà¦® à¦¾à¦°
Ġpo is
×Ľ ×ª
P O
ĠÃ ®
em as
Ġå ²
åº Ħ
Ġsch ed
g unt
ĠØ§ÙĦ Ø§Ø®
ĠPro ject
¢ à¹Įà¸
ĠÎ¼ Î¯Î±
it ori
ĠØ§ÙĦØª ÙĪ
qu Ã©
Ġm ies
ĠSe ite
m iss
èĲ Ħ
w agen
å® ¾
f ern
åĵ ¥
à°¾à°¤ à±įà°°
Ġv ard
ÙĬ ÙĤ
ìĤ° ì¶ľìŀ¥
lÉĻ ÅŁ
er es
åī ²
âĢ¦âĢ¦âĢ¦âĢ¦ âĢ¦âĢ¦âĢ¦âĢ¦
Ġperm it
Ġdi ye
ist ik
U Z
Ġh iss
Ġg h
ÏģÎ¯ ÎµÏĤ
Ġà¤¹à¥ĭ à¤¤à¥Ģ
ĠÐ¸Ð½ Ð´
Ġmed ical
Ġë³ ¸
ĠM and
Ġno i
Ġkosten los
uj ÃŃcÃŃ
Ġìŀ ĺ
Ġincl us
¹ à¹Īà¸
æī §
åŃ ¸
à¸²à¸ªà¸´ à¹Ĥà¸Ļ
ĠM O
à¹ģà¸ «
à°Ĥà°Ł à±ĩ
Ġæį ®
ç»Ħ ç»ĩ
Ġph im
èĳ ¡
ä¸Ń å¤®
à±ģà° Ĺà°¾
Ġp isc
ro j
ãĥ¼ãĥ ŀ
áĥĲáĥĵáĥĴ áĥĶáĥľ
Î½ Ïİ
Ġposs ono
k Ã¼n
ĵ à¹Į
ĠØ± Ø³Ùħ
ĠÐ» Ð¸Ñĩ
end ar
ĸà¸ ·à¸Ń
Ġà¦Ĩà¦® à¦°à¦¾
¡ ng
ĠÐ² ÑģÑĤÑĢ
æ¥ ¼
Ġç ķ
Ġäºļæ¸¸ åĽ½éĻħ
ĠÑĤ Ð¸Ð¿
ĠÐ¿ Ð¾ÑģÑĤÐ°Ð²
Ġa ce
Ġl ett
Ġà®ª à®£
ec ip
ĠæŃ ¦
ĠÑĥ ÑģÐ¿
ÎĻÎļ ÎĹ
Ġà¤Ĩ à¤¦
ĠØ§ÙĦØŃ ÙĦ
à®¤ à®¾à®ķ
ĠÎ² Î¬
Ġweek s
Ġposit ive
à¦¿à¦ Ĺ
lad Ä±
ia h
Ġê¸ Ī
Ġà¸§à¸ ±à¸Ļ
à¹īà¸Ńà¸¡à¸ ¹à¸
à¸£à¸µà¸ ¢à¸
Ð¸Ð» Ð¾ÑģÑĮ
à¦¿à¦¨ à§įà¦¨
um lah
ĠV Ã½
ul ing
D et
Ġh og
ĠSer ies
ĠPr zy
à´¿à´ ²
Ïĥ Î¼Î±
Ġmov ie
Ã ¾
Ġáĥ§áĥķáĥĶáĥļ áĥĲ
Ġde ep
Ñİ Ð´
à®¾à®® à®²à¯į
ÙĪ Ø³Øª
r ans
Ġp ont
Ġy g
è« ĩ
ĠãĢĳ, ãĢĲ
ĠgerÃ§ek leÅŁ
à¦¾à¦¥ à§ĩ
qu et
áĥļ áĥĶáĥĳáĥĺáĥ¡
à¹Ģà¸ ĭ
×ĳ×ķ×ĵ ×Ķ
ier i
ä¸ ½
ess age
ĠÅ ½
à±ĩà° ·
ĠÑĤ ÑĢÑĥÐ´
Ġtr uyá»ģn
ĠFr iday
v ide
è´ ¦
à°® à±Ĩ
Ġy Ã¶net
Ġc á»Ńa
à¦² à§įà¦ª
Ðł Ðŀ
an no
or ation
ĠÐ³ Ð¾Ð»
Ġl ate
ĠX V
ap os
ĠÐ¿Ð¾Ð»ÑĮÐ· Ð¾Ð²
Ġcommer cial
å¸ ģ
ĠMuse um
æŃ ©
Ã¨ ne
Ġst age
Ġprot ect
Ġme chan
ĠD aten
k Ã¡
Ġul aÅŁ
à¤¾à¤Ĥ à¤¨à¤¾
áĥĺáĥª áĥĺ
ĆĈ ą
Ø§Ø¯ ÙĦ
×Ļ×ª ×Ļ
Ð¾ÑĤ Ñĭ
ĠØ§ÙĦÙģ Ø±
Ġrece ived
Ġà®İà®¤ à®¿à®°
Ġses u
Ġsoll te
Ġest im
ĠCalif ornia
ØŁ ØŁ
æĪĲ äºº
sk ich
ĠØ³Ø±ÛĮ Ø§ÙĦ
ann el
Ġz ob
ĠĈ ć
Ġmá» Ĺi
à¯ĭ à®¤
er st
ani em
Ġç ĸ
ĠÎ» ÎŃ
å¤ļ ãģĦ
Ð½ ÐµÐ¼
Ġatt end
ĠStand ard
Ġ Ïī
åĪ© æĿ¥
Ġæ¾³éĹ¨ çĻ¾å®¶
Ġsond ern
Ġresult ados
Îº ÎµÎ¹
ĠáĥĲáĥ ļ
Ġà¤¹à¥ģà¤ Ĩ
ĠJ uni
Î½ ÏĮ
ikt ig
Ġkar ÅŁ
áĥĶáĥķ áĥĶ
à¹ģà¸ Ĺ
ĠktÃ³ ra
Ġà¦ľ à¦¾à¦¤
ĠP V
Ø§Ø¦ ÙĬÙĦ
×ĵ ×ķ×ª
Î±Ïĥ Î¯Î±
w ier
amb ar
Ġ3 20
ãĤ¯ ãĥª
Äį nÄĽ
Ġprot ection
Ġcli entes
ĠNh Ãł
ĠÑģÐ¿ Ð¾ÑĢÑĤ
ĠÐ½Ð°Ð» Ð¸Ñĩ
Ã¶ t
ĠðŁĻ Ĥ
Ġbag ian
æ¬ ²
ãģ¡ãĤĥ ãĤĵ
áĥĶáĥ¡ áĥ¢
ere z
é¦Ļ èķī
ãĤ¿ ãĥ¼
Î» ÏĮ
ĠÐ²ÑĭÐ¿ Ð¾Ð»Ð½
éĢ ı
Ġà¦¤ à¦¬à§ĩ
ĠéĩįåºĨ æĹ¶æĹ¶å½©
Ġà¦¤ à¦¾
Ġv rij
×Ĵ ×ľ
r ument
Ġmodel o
ici as
Ġrag az
ĠiÅŁ lem
ĠÐ²ÑĢÐµÐ¼ ÐµÐ½Ð¸
Äħ t
am ar
Ġà®® à®°
×Ļ×Ķ ×Ŀ
rag on
ĠWash ington
ĠB aby
Ġb ukan
Ġ? !
ĠÐ² ÐµÑģ
Ġma u
Ġag ric
ĠArt icle
ĠÐ² ÐµÑī
âĢĭ âĢĭ
Î» Î¹Î±
Ġç ł
Ġmas y
§à¸ ĩà¸
ep s
ĠÐĺ Ð³
åį ĺ
ĠÐ¼ÐµÐ¶Ð´ Ñĥ
Ġtek n
Û ¸
ãģį ãģŁ
ĠØ£ ÙĤ
Ġ ãģ§
ÎµÏħ ÏĦÎ±
Ġà¦ķà¦¾à¦° à¦£
ĠÙħØ´ Ú©
Ġt ÃŃm
Ġh ombres
à°¿à°Ĥà°ļ à°¿à°¨
Û Ĩ
×Ļ×ª ×Ł
¢à¸ ±à¸ĩ
ĠÐ²Ð½ ÑĥÑĤ
ik al
ä¹¦ è®°
Ġcitt Ãł
ĠBaÅŁkan Ä±
Ġag ua
×Ļ×ł ×Ļ
ir us
ĠØ· ÙĪÙĦ
ac ement
Ġáĥ¡áĥ®áĥķ áĥĲ
Ġà°¸à°¿à°¨ à°¿à°®
ĠÐ³ Ð°ÑĢ
Ġr ies
Ġindivid u
Ø· Ø¨
ãĤı ãģĽ
ĠÐ¼ Ð»
×¨×Ĳ ×Ķ
ĠØ§Ùģ Øª
Ġáĥ¡áĥĲáĥ¥ áĥĽ
Ġn ied
æĿ İ
äº ®
ä¼ Ĭ
ĠÑģÐ»ÐµÐ´ ÑĥÑİÑī
Ġn iveau
ĠRe cht
Ġà®ķ à®¾à®°
Ġl ower
à¦¨à§įà¦ ¨
Ġáĥĵ áĥĲáĥľ
l eme
Ġpag gam
b ert
ĠKh Ã´ng
à¹Ī à¸Ļà¹Ģà¸
Ġst ation
ĠZ ap
à°Ĥà° ķ
Ø§Ùĩ Ø±Ø©
ĠÎ ŀ
Ġv n
ĠH i
Ġre pro
à§Ģ à¦Ĺ
Ãĩ ÃĥO
å¥³ æĢ§
ĠÙħØ± Ùĥ
ĠÐ¿ÑĢÐ¾Ð² ÐµÐ´
Â Ń
ĠÙĪ ÙĦÙĬ
à¦¿à¦ ĸ
ĠçŃ ī
Ġon a
Ġmel alui
1 50
Ġl ect
ĠfÃ¸l ger
Ġartic les
Ä±l d
Ã¨ le
lich er
Ġà¦¸ à§ĩà¦ĩ
Ġm no
e yd
ĠJak arta
ì²ľ ì¶ľìŀ¥
y ar
Ġdef ault
Ġbirlik te
Ġ} }
lij ke
Ġs ir
Ġà¸ Ĺ
ĠÑĢÐµÐ± ÐµÐ½
il kan
à¥ ¤
Ĺà¸ ĩà¸
Ġà®ī à®°
Ġden n
Ġat mos
ĠÚ¯ ÙĪ
Ġel ett
ri an
Ø¨ÙĦ Øº
nik Ã³w
A pp
èĳ ī
Ġè ĥ½
c ando
ĠG ames
Ġ10 2
Ġvari ety
Ø° ÙĬ
Ġcom port
à¹ĥà¸Ļà¸ ģà¸²à¸£à¸
Ùİ Ø¯
Ġà¦¶ à§ģà¦°à§ģ
Ġcult ura
eg i
Ġà°¤ à°¨
Ġquest i
Ġà¤Ł à¥Ģ
Ġje Å¡tÄĽ
ĠCon se
Ġà¤ĩà¤¸ à¤ķà¥ĩ
Ġfark lÄ±
g ie
Ġå® Ł
Ġset iap
ĠmÃ¼ ssen
à¤¾à¤ ³
ĠÑĩÐµÐ»Ð¾Ð²ÐµÐº Ð°
Ġta o
Ġprzy pad
Ġin j
ëŀ Ģ
Ġsol d
Ġà¹Ģà¸ §à¹ĩà¸ļ
à¦¾à¦¨ à¦¾
is z
à¥ĩà¤ ·
Ġrealiz ar
Ġpict ure
Ġer sten
ĠÎµ Î¹Ïĥ
r in
Ġe jem
Ġch uyá»ĩn
Ĥà¸¶ à¹īà¸Ļà¸
sterd am
Ġright s
ìµľ ê³ł
Ġà¦ķ à§ĩà¦¨
Ġ13 5
Ø· ÙĦØ¨
ĠÐºÐ°Ð· Ð¸Ð½Ð¾
Ġut en
ĠÎµÏĢ Î±
à§Ł à§ĩà¦°
ĠÐ¿Ð» Ð°ÑĤ
Ġvol ume
Ġac ont
ĠSpec ial
à°¿à°² à±įà°²
Ġëª ħ
Ġà°ļà±ĩà° ¸à±įà°¤
Ø² ÙĬØ²
e il
´ ī
Ġà¦ªà¦° à§įà¦¯
èª ¬
à¥ĩà¤ ¬
ÑĢ Ð°Ð¶
Ġment ion
Ġh iá»ĥu
Ġà¤¦à¥įà¤µ à¤¾à¤°à¤¾
Ġanmeld elser
Ġdok ument
ra ciÃ³n
Ġget ir
ĠS ig
à¦¿à¦ ı
Ð°Ð· Ð´
D e
Ġm ÉĻl
Ġqu áº£n
Ġus ar
à±įà° §
wa Äĩ
ĠçĽ ´
ĠTh en
Ø³ Ùĥ
Ġt old
Ġed en
Ġle ading
Ġat rav
is ata
ĠC amb
Ġ9 99
ib at
Ġall ows
ere in
ĠÎºÏĮ Ïĥ
à¤ķà¥įà¤· à¤¾
Ġå¼ ķ
ĠD R
Ġ... ...
áĥĺáĥĻ áĥ£áĥłáĥĺ
Ġá¼ Ĳ
Ġà¤Ĺ à¤ı
ĠContact os
N H
Ġcáº£ nh
éĽ ª
Þª Þ
ÑĢ Ð¸Ð¼ÐµÑĢ
c ks
Ŀ à¸
ĠO ok
wi ad
AL L
ê²Į ìŀĦ
ĠR esearch
à¤² à¥įà¤¯à¤¾
Ø¬ Ø²
ĠÐ´Ð¾ÑģÑĤ ÑĥÐ¿
Ġm ik
ãĤĵ ãģ§ãģĻ
Ġde j
à¤¿à¤ķ à¤¾
ĠØªØ± ÛĮÙĨ
ind ing
ĠÎ£ ÏĦÎ·
... ]
ä¸į èĥ½
r ome
ibli ot
Ġdi per
ãģĤãĤĬ ãģ¾ãģĽãĤĵ
¨ à¸²à¸
j Ã¸r
Ġcre am
ĠFrancis co
ãĤĤ ãģĹ
r ero
Ġà¤µà¤°à¥įà¤ ·
ÄĻ k
Ġà®ª à®¾à®¤
ĠÙĪ Ø§
ĠÐ¿ÑĢÐ¾Ð² Ð¾Ð´
ç» į
Ġke in
ÙĨ Ø¹
Ġ10 3
ug a
Ġal ter
¡ Ù
ho od
Ġå¿ ħ
Ġà¦¹ à¦¿à¦¸
ê°ķ ì¶Ķ
n em
Ħà¹Īà¸ °
Ġà¤®à¥ģà¤ ĸ
à¤¯ à¥ĩ
Ġv uel
Ġelekt ron
ĠS ym
ĠØ§ÙĦØ³ ÙĦØ§Ùħ
Ġbir i
ĠCont in
he iro
Ġmultip le
à§ģà¦ §
Ġjej ich
Ġc iv
Ĭà¸ ´à¸
ĠvÃŃ ce
à¸²à¸ ģà¸
à¦¾à¦ ī
ĠÐ½ ÐµÐ±
Ġtwe e
Ġpos ible
Ġuns ere
Ġprop or
Ġp p
iz za
Ġ×Ķ×ŀ× §
ĠÐ¶ÐµÐ½ Ñī
ic l
ĠÙħÙĨ Ø¸
Ġpou vez
Ġåħ ±
ĠF ord
ĠÐ´Ð¾Ð¼ Ð°
ĠD od
Ġcomp art
w ia
m od
Ġ×Ļ ×ĵ
Ġim press
Ġro und
Ð² Ð¸Ð¶
Ġ. Â»
Ġol mak
à°® à±Īà°¨
AD A
à¹ Ħà¸£à¸
ĠÙĨ ÙĬ
ĠBr and
è© ķ
Ġsol ic
ĠIm p
it to
ĠÙ¾ Ø§Ø±
ĠØ®ÛĮ ÙĦÛĮ
v il
Ġca f
Ġv ast
Ġkon k
ĠØ³ Ø®
pr ia
ĠÐļ ÑĢÐ°Ñģ
Ġk re
ĠM Ã¡s
ĠC ook
Ġì¶Ķ ì²ľ
Ġaan b
à¥įà¤ ¬
Ġà¦ı à¦²
¸à¸ Ķ
ĠiP ad
ĠAnton io
Ø§Øµ Ø±
×Ļ×ľ ×ķ
ĠN ero
ĠM ig
ĠØ§ Ú©
ĠÏĥÏĩ ÎŃ
ĠÑģÑĤ Ð°Ð²
æīĭæľºçīĪ ä¸ĭè½½
ãģ® ãģ«
×Ķ ×ľ
ÏĦ Ïĥ
Ġsegu ir
Ġnouve au
Ġå¼Ģ åħĥæ£ĭçīĮ
Ø§ÙĦ ÙĦÙĩ
ĠáĥĹáĥĳ áĥĺáĥļáĥĺáĥ¡
ĠØ§ÙĦØ±ÙĬ Ø§Ø¶
Ġer h
Ġ8 88
æĺ¯ ä»Ģä¹Ī
Ġc ss
Ġç ¶
æīĭæľºå®¢æĪ·ç«¯ ä¸ĭè½½
y j
Ġobjet ivo
ÏĨÎ¿ Ïģ
Ġì§ ĳ
Ġequip ment
Ġat en
ĠØ´ ÙĪÙĨØ¯
Ã« n
Ġng u
Ġì° ½
Ġplay er
at akan
ĠÐ¿ÑĢÐµÐ´ Ð¾ÑģÑĤÐ°Ð²
Ġlet ter
Ġed it
ĠcÃ³ mo
Ġ. âĢľ
Ġà¸ĭà¸ ¶à¹Īà¸ĩà¸
ĠØ¢ ÙĤ
ĠOrig inal
u che
ĠÎł Î¡
ĠFem me
ĠÎµÎº ÎµÎ¯
Ġper lu
áĥĴ áĥĲáĥľ
ÏĨ ÏĮ
Ŀ à¸²à¸ģ
íĶ Į
Ġgi orn
Ġà®¤à¯Ĭà®Ł à®°
iler in
1 10
ĠáĥĲáĥĵ áĥĴ
Ġà®µ à®¿à®°
ĠB au
è° Ī
iz ation
ĠÏĮ Î»Î±
ar ik
Ġpar ece
ë¦ ¼
Ġf ashion
Ġà°µ à°ļà±įà°ļ
Ġl un
ÑĥÑĤ ÑģÑĤÐ²
Ïĥ ÏĥÎ±
Ġtrack ing
ÏĨ Î±Î»
ain an
Ġà¤µ à¥ĩ
Ġmad uras
ĠE ff
u esta
ĠÑģÐ¿Ðµ ÑĨÐ¸Ð°Ð»ÑĮ
Ġmeet ing
th e
Ġd Ãłi
×ķ×ĳ ×¨
ç¦ı åĪ©
Ġdr ess
Ġfr an
Ùģ Ø§Øª
Ð½ ÑĥÑĤÑĮ
Î¾ Î¹
land s
ĠØ± Ø¶
ãĤĬ ãģ¾ãģĹãģŁ
ÃŃt ulo
Ġquick ly
åŃ¦ ä¹ł
ãģĻ ãģĻ
ģà¸© à¸²à¸
Ġà¦® à§ģ
Ġm uk
ķ à¹Īà¸²à¸ĩ
Ġthu á»Ļc
Ġdi am
ãĤī ãĤĮãĤĭ
Ġà¤® à¥įà¤¹
Ġpal ing
ç§ ĺ
Î¸ ÏģÏī
Ġéķ ·
Ġcol oc
Ġc á»ķ
Ð»Ñİ Ð´
Ġà¤ķà¤° à¤¨à¤¾
ĠÙĪ Øµ
Ġ ia
Ġé ľ
ĠÙħÙĨ Ùĩ
ĠØŃ ÙħÙĦ
Ġpurch ase
ĠÑģÐ» Ð¾Ð¶
ĠIn sp
Ġcons ist
Ø¶ Ø©
il up
ĠØ£Ø¨ ÙĪ
ĠÃº Äį
ĠL iga
ziÄĻ ki
AT O
Ġtr á»±c
ãģĮ ãģĤãĤĬãģ¾ãģĻ
àµįà´ Ł
Ġkom en
Ġf is
ĠC M
Ġ à¸Ļà¸²à¸
Ġjus qu
ĠJ oh
¯ u
ĠP K
Ġìĸ´ë ĸ
Ġ×Ľ ×ª
Ġ×ĳ ×ķ
ĠÑĢÑĭ Ð½
Ġda ily
Ð°Ð½ Ð¸Ñİ
ĠÙħØ³Ø¦ ÙĪÙĦ
Ġinform asi
ĠYou Tube
Ð¾Ð² Ð¾Ð³Ð¾
ak at
Ġhand lers
Ø§ÙĦ Ø«
ħ è¯»
Ġre tt
Ġill ust
Ġé¦Ļ æ¸¯
Ġà¤¸ à¤°à¥įà¤µ
v as
ĠÕ ¢
Ġhotel s
owa ÅĤ
ãģĦ ãģı
ak en
ÑģÑĤ ÑĢÐ¾
ĠåĲį çĦ¡ãģĹ
Ġenc our
à§ĩà¦² à§ĩ
Î¸ Î±
EL L
ĠSuj et
Ġl ec
p in
Ġa ynÄ±
ÎŁÎ ľ
ĠÙ¾ Úĺ
Ø° ÙĥØ±
u Ã§
Ġinter no
f eld
Î±Î¹ Î¿
Ġjour nal
à¤¦ à¤¾à¤°
ÑĥÑĤ Ð±
ÑģÐ¿ Ð¾ÑĢÑĤ
Ġà¦¤à¦¾à¦° à¦¾
ĠÐ½ÐµÐ¾Ð±ÑħÐ¾Ð´Ð¸Ð¼ Ð¾
ĠÎµÏĢ Î¹Îº
Ĳ à¸
ĠEng ine
Ã¢ ng
Ġd ub
à°¸ à±į
ĠR um
ìł Ī
ĠÐ¸Ð· Ð±
Ġd ry
ãģ¨ ãģ®
ri ff
ÙĤÙĦ Ø§Ø¨
Î½Î¿ Î´Î¿
Ġ×ł ×ķ×¡
i Ã§o
all es
Ġ×Ĵ ×ĵ
Ñĩ Ð¸Ðº
ĠU U
çĻ ¼
Ì ĥ
ĠÙħØ³Øª ÙĤ
æĺ¯ ä¸Ģ
ĠáĥĻ áĥķ
ĠÐ¶ Ð¸Ð·Ð½
Ġc ialis
Ġvia gra
à¤¿à¤ ¹
r ÉĻ
aw y
çĿ £
ĠK op
Ġal ert
h ab
Ġis te
ĠR ah
à¦ŀ à§įà¦ľ
Ġex cel
E O
Ġ ign
ĠUn idos
æ§ ĭ
h ere
Ġt api
Ġfl ere
ĠÏĩÏī ÏģÎ¯ÏĤ
ĠíĻ ľ
Ġgl ass
Ġcá»© u
Ø® Ø´
Ġpart ie
ĠH osp
æĪĲ ä¸º
áĥ§ áĥĿáĥ¤
Ø§ÙĦ Ùĥ
n ung
Ġpubl ished
Ġpas ado
çĪ Ĩ
åĲ ¸
Ø¹ ÙĦØ§Ùħ
ĠmÅ¯ Å¾
å¯¾ å¿ľ
Ġà¤¸à¤ķ à¤¤à¤¾
Ġminim um
áĥĶáĥĳ áĥĶáĥļ
ĠÙħØ± ØŃ
ĠÙĦ ÛĮÙĨÚ©
áĥĺáĥľ áĥĺ
ĠprÃ©s ent
Ġbel ie
ãĥĲ ãĥ¼
it ch
ag na
Ġbras ile
ĠF ren
à¦ķ à§ĩà¦°
ĠV iet
æŁ ĵ
Ġ×Ļ ×ķ×Ŀ
Ġk ah
éĥ¨ éĹ¨
×¨ ×ķ
ÉĻs inin
Ġà¸ª à¸²à¸
æĹ© çĤ¹
à¹Ģà¸ Ĭ
ĠÙħÛĮâĢĮ Ú©ÙĨØ¯
ãģĦãģŁ ãģł
ze w
A r
Ġdu a
Ġdir ig
ìĨĮ ìĿ´ìĬ¤
ure au
is as
T P
ĠÙĬ Ø¬Ø¨
ĠÙģ ÙĪÙĤ
Ġac ab
ĠØ§ÙĦØ¢ ÙĨ
ĠÎĳ ÎĿ
Ġc idade
ÏĦ Î¶
ĠÐ¸Ð¼Ðµ ÐµÑĤ
Ð°ÑĤ ÑĥÑĢ
Ġà¦ª à§ģà¦²
ĠÑģÐ¾Ð² ÐµÑĢÑĪ
Ġenf ants
Å ł
z one
Ġt ert
Ġhá» ıi
Ġ10 6
ä¿ Ĥ
Īà¸ ³à¸
ĠÐ´ Ð¾Ð±Ð°Ð²
ĠC it
è¨ ¼
oc rat
ar is
66 6
ĠØº Ø°
ĠØ¨Ø§ÙĦ Øª
Ġni Å¼
Ġin it
Ġsa fe
ĠK unden
Ø¯ Ø§Ø¯
Î³ Î¼Î±
Ġam igos
Ġà¤¨ à¤¾à¤¹à¥Ģ
ë³ ´ë
d h
à°¾à°¨ à±ģ
×Ļ×ł ×Ļ×Ŀ
ÑĤÐ¾ Ñĩ
ĠÑģÐµÐ± Ðµ
Ġç Ŀ
ĠØ§ÙĦØ´ Ø±
Ġ×ĸ ×ķ
Ġent ire
Ġ ici
Ġterm s
è¯ ī
Ïĥ Î¹Î¿
in st
Ġw indows
ĠM id
Ġa ku
à· Ķ
Ġà¤īà¤¨à¥įà¤¹ à¥ĭà¤Ĥà¤¨à¥ĩ
Ġ×ľ ×ł
Ġ" "
stell ung
l ines
Ã© ra
e ÅŁ
Ġlav or
ĠØ¬Ø¯ Ø§
Ġæ »
Ġcal cul
åħ¥ åı£
Ġæ ¢
ĠÙĥ ÙĨ
Ġpow in
à®¾à®² à¯ģà®®à¯į
ĠØ§Ø± Ø³Ø§ÙĦ
ĠE du
Ġå¿ ĥ
Ġma jÄħ
à¤¿à¤ Ĺ
ìŀ Ī
cl es
ĠN ut
ĠÑģÐ² ÐµÑĤ
×Ĺ ×Ķ
ĠØ¨ÙĪ Ø§Ø³
Ġla b
åĳ ¼
ĠØ§ÙĦÙĨ Ø§Ø³
æ± ł
Ġå ¢
Ġjo in
Ġmuch os
ĠT S
Ġà®ª à®¿à®±
Ġfr am
ĠÎµ Î»Î»Î·Î½
Ġmaterial s
Ġbe f
ĠZ us
à¤¿à¤² à¤¾
er as
' '
Ĺà¸µà¹Īà¸ ¡à¸µà¸
ĠÙģ Ø§ÛĮÙĦ
à°² à°¾
ĠSE O
à¸µà¹Īà¸ ¢à¸
ÄĻ b
i ers
ann t
Ġveg et
è¦ ĸ
Ġà¹Ĥà¸Ķà¸ ¢à¸
Ġvia g
ĠÄĳá»Ļ i
ĠÙĨÛĮ Ø±ÙĪ
Ġè Į
Ġig ual
ĠB ab
Ø¨ Ø§ØŃ
ĠC ro
ØªØ¯ Ùī
Ġhas il
k ow
Ġà®ĩ à®¯
ï¼ Ľ
ĠìķĦ ìĿ´
Ġcomp ut
Ġ199 3
ãĤ· ãĥ§
ĠM aj
´ à¸Ļà¹Ģà¸
ĠÐºÑĢÐµÐ´ Ð¸ÑĤ
Ġfriend ly
ĠdÃ© jÃł
li ÄŁ
arak at
Ġph ong
Ġp and
à¤¾à¤ ¥
éľ ²
ĠÙħÛĮ Ø§ÙĨ
ĠÐ¸Ð³ ÑĢÑĭ
ĠÐ² Ð°ÑĢÐ¸
ĠTh anh
×Ļ×¨ ×Ļ×Ŀ
Ġáĥ¡ áĥŀ
ĠÙħØ· Ø§ÙĦ
ĠEurope an
Ġà¸ªà¸ ¡à¸±à¸
Ġg ab
Ġe ar
Ð¡ Ð
Ġlevel s
ãģ® ãģ§ãģĻ
×Ļ×¤ ×Ķ
ĠåĲ İ
b m
Ġáĥ¡áĥĲáĥ ¨
Ġà¦¹à¦ļ à§įà¦Ľà§ĩ
ĠpÅĻ ip
Äį as
ĠÄ° Ã§
ĠBM W
Ġà¦¸ à¦¾à¦¥à§ĩ
Ġdi jo
un al
Ġli qu
ĠÄĲ áº¡i
ĠÎĿ Î±
Ġà¦¨ à§ĩà¦¤
Ġm á»©c
ĠíĨµ íķ´
Ġvec es
ĠØªÙĪØ³ Ø¹Ùĩ
à¤¸ à¥įà¤Ł
× ³
ãģ¨ ãģį
Ã¡t ico
F E
ĠÐ¿Ð¾Ð·Ð² Ð¾Ð»Ñı
ĠÃ¼ ret
çİ¯ å¢ĥ
à¤ļ à¥įà¤¯à¤¾
Ġtar if
ÚĨ Ø³Ø¨
ĠP av
áº¿ p
ĠâĢĻ .
Ġ×Ĳ ×Ļ×©
è Ķ
ÙĨØ¯ ÙĤ
± Ħ
Ġfest ival
Ġ[ ...]
ä¹ ±
Ġmy e
ĠY ap
Ġà´ µ
ĠÙĬ Ø¬
Ġ×¨×Ĳ ×©
ĠM is
à¹Īà¸²à¸ §à¸
ÄĽ st
ĠØ³Ø§Ø² ÛĮ
Ġdire tt
Ġáĥ£áĥ¤ áĥłáĥĿ
ĠCon n
å¾ ģ
own ik
ĠØªØ¬ Ø±Ø¨
à¥ ħ
ual itas
ieg t
á¿ ¦
ous el
Ġtan pa
Ġis ol
Ð¸ Ð»Ñı
ÄĽ nÃŃ
sk ap
ay d
Ġw arto
Ġting gi
Ġs Ã¡t
Ġk de
Ġkh ai
Ġi o
ë° °
ĠÚ© ÙħÛĮ
ud es
į ¼
Ġf Ã¡cil
af a
ĠSci ence
ĠS ne
Ġæ² ¡
Ġinform aÃ§Ãµes
Ġ×ľ×¤ ×ł×Ļ
ĠÐ¾ ÑĨÐµÐ½
Ġh uis
Ġh all
äºĮ æīĭ
Ïĩ ÏģÎ¹
åħįè´¹ è§Ĩé¢ĳ
ãĥ¼ãĥ ©
Ã¤t z
ell om
Ġd orm
ĠBe aut
ĠB E
íĸ ¥
ĠØ³ Ø·ØŃ
Ġcha que
â Ī
Ġmill ones
Ġf urn
ÑĪ Ð¸Ð¹
p al
æ£ ®
å¢ Ĺ
Ã¶ y
¹ à¹Ī
Ġch Ã¢n
ĠQu ando
ãģĹãģŁ ãģĦ
Î½ Î¬
Ġà®ĩà®¨à¯įà®¤ à®¿à®¯
Ġgo al
ĠÎĳ ÏģÏĩ
W h
Ġt Ã¼r
å® ¿
Ã© f
Ġw w
à¸Ļà¸ ³
ĠÐºÐ¾Ð½ ÑĤ
ĠÏĢÎµÏģÎ¹ÏĥÏĥÏĮÏĦÎµ ÏģÎ±
ï¼ Ķ
ÐĿ Ðŀ
ÏĢÎ¿ ÏĤ
Ġæİ ¨
Ġà¸ «à¸£à¸·à¸Ń
Ġh ide
æ¸ Ī
à¹Ħà¸ ĭà¸
Î¼Î² ÏģÎ¯Î¿Ïħ
Ġ×ŀ ×ľ
Ġrec ogn
ãĥĩãĤ£ ãĥ¼ãĤ¹
Ġtran qu
Ġpr w_
Ġà¤¸ à¤¾à¤²
ĠØ· Ø±ÙĬÙĤ
ĠK el
Ġ Ć
ªà¸²à¸¡à¸²à¸£à¸ ĸ
Ġk ob
Ġtr end
Ø· ÙĤØ©
AD O
Ø¨ ÙĬØ©
Y A
ĠW omen
ĠÙĪ Ø°ÙĦÙĥ
Ġbil ÉĻr
Ã©c ur
Ġíİ ¸
st ellen
Ġj udi
Ġinform azioni
ĠG erm
id ores
Ġg if
ĠÐ¿ÑĢ Ð¸Ñģ
è¿ĳ å¹³
wo ord
n ier
Ġê°Ģ ê²©
Ġprz ek
âĺ ħ
Ġãĥ ¢
Ġ×Ĳ×ķ×ª ×ķ
Ġresp ond
ĠÐ¼ Ð°ÑģÑģ
Ġpag pap
ih an
Ġ2018 å¹´
«à¸ ¡
Ġme io
Ġk ut
ĠÙĦ Ø¯
Ġ×ĺ ×ķ×ĳ
ĠZ apat
Ð² ÐµÑĢÐ¶
Ġkho áº£ng
Ġ; )
Ġal tre
p as
ekt ir
ĠØ® Ø±Ø¯
Ġs ell
Ġh op
Ġ00 Z
mb H
ÑĮ ÑİÑĤ
lie ÃŁ
Ġà¹Ģà¸ ģà¸¡à¸
Ġà®¨ à¯ĩà®°
ìľ¼ ë©°
ç© į
IC O
ĠáĥĶ áĥ¥
ĠØ¨ÛĮ Ø§ÙĨ
ĠØ¹ Ø´
ĠIS O
n itt
ĠÑģÑĤ Ð°Ð½
Ġed ib
Ġà®ļ à®¿à®²
ĠM D
ãĥ¼ãĥ Ĳ
ØªØ± Ø©
ĠãĤŃ ãĥ£
ĠáĥĽáĥ® áĥĿáĥļáĥĿáĥĵ
ĠÑĤ Ð¾Ð¶Ðµ
Ġcert ific
es en
Ĭà¸ ·à¹Īà¸Ńà¸
ĠØ´Ø¨ Ú©Ùĩ
Ð°Ðº Ð¾Ð²
r Ã³n
ĠagåĽ½éĻħ åİħ
Ġå°Ĭé¾Ļ d88
ĠÅĽ rod
ĠÐ¸Ð· Ð²ÐµÑģÑĤ
Ġhing ga
ĠK ong
Î» Î¹Î¿
ĠÑģ ÐµÑĤ
Ġd ung
ĠSh are
Ġ10 7
à®¾à® Ļà¯įà®ķ
Ø§Ùĩ Ø§
Ġsu i
Ġnecess ary
Ġcir ca
Ġt ussen
Ġsup pli
Ð»ÐµÐ½ Ð¾
ì¶ľìŀ¥ë§ĪìĤ¬ì§Ģ ìĥµ
II I
Ġà¤¸ à¤¿à¤Ĥ
Ġz ien
Ġkle ine
Ð¸ Ð¾Ð´
Ïī Î¼Î±
od i
W R
ĠÐ± ÐµÑĢ
ĠìĿ´ ìļ©
Ġne z
ĠPh oto
ĠFo od
Î¼ ÏİÎ½
Ġliv re
ĠM any
ĠK et
ĠØ§ÙĦØ® Ø·
Ġfa ir
ĠRoy al
in nen
Ġbe oord
Î¾ ÎµÎ¹ÏĤ
ĠáĥłáĥĿáĥĴ áĥĿáĥł
æīĭæľº app
Ġho je
ĠV est
Ð°Ð· Ñĥ
Ġen vi
ĠV on
Ġsu e
ĠEsc ort
à¤¾à¤ ī
ed ing
Ġëĵ ľ
ĠOs lo
æĮģ ãģ¡
áĥĶáĥ ŀ
cz enia
Ġcas h
Ä° K
ĠD ek
ĠAs ia
è®° èĢħ
ist or
Ġà¦¸ à¦¦
Ġgiá»¯ a
Ġ+ +
ë¯¸ ëħĢ
à°¿à°Ĥà°ļ à°¾à°°à±ģ
Ġà¤¹à¥ĭ à¤¤à¥ĩ
Ġcres c
è¿ ·
ä¸ ģ
ell y
ĠØ§ÙĦØ¹ ÙĦÙħ
z ug
Ġà¨ ķ
ĠÐ¾ Ð·
Ġex ecut
ĠØ§ÙĦØ« ÙĦØ§Ø«
Ġem ot
à¹ĥ à¸Ļà¹Ģà¸
had ap
Ġáĥĵáĥĺáĥĵ áĥĺ
Ġáĥ¡áĥĲáĥ Ķ
ÐµÑĢ Ð²
ĠÑĦ ÑĥÐ½Ðº
Ġapplic ations
ĠØ¨Ø§Ø¹ Ø«
ĠÐ¡ Ð¾Ð²
Ġprodu its
á½ ¸
ª à¸µà¸
ĠØ¬Ø¯ ÙĬØ¯Ø©
à¥ĩ à¤µ
Ġsup erior
Ġpos i
ĠT ah
Øº Ø§Ø²
Ö µ
à¦¾à¦° à§įà¦¥
ĠCom pl
ĠÎ³ ÏģÎ±
Î¼ÎŃÎ½ ÏīÎ½
Ġ... ....
ļ à¹īà¸²à¸Ļ
ĠÑģÑĢÐµÐ´ ÑģÑĤÐ²
Äį it
Ġprogram s
ãĥĹ ãĥ¬
ãĥ« ãĥĪ
ÄŁ Ã¼
Ġniv el
Ġà¤« à¤¿à¤°
Ðº Ð¸Ðµ
ĠÐ½Ð°Ð´ Ð¾
ĠtÉĻr ÉĻf
ĠA Z
íħ Į
Ġsit us
à°¾à° ³
Ø§Ø¯ Ø«
ÐµÐ» Ð°
ãģĻãģĻ ãĤģ
à°¨ à±įâĢĮ
Ġprof it
Ġlang sung
ãģ§ãģį ãģ¾ãģĻ
Ġs int
Ġne uen
à®° à¯įà®µ
ĠØ§ÙĦØª Ø³
ĠØª ÙĤØ¯
ĠÐ»ÑİÐ´ ÐµÐ¹
ĠI R
à¦¥ à¦®
Ġà¤¸ à¥ģà¤°
ĠØ¨Ùĩ Ø¯
Ġnot hing
Ġliv es
ÏĦÎµ Ïį
ĠØ´Ùĩ Ø±ÛĮ
Ġ! )
Ùĩ Ø§Ø±
à¯ģà®³ à¯į
w el
ÅĤ as
ifik asi
T h
Ġchiáº¿ c
Ġh our
Ġè Ħ
×ķ ×ķ×ª
ol et
B I
ÙĦ Ø§ÛĮÙĨ
g end
ĠW atch
Ġtechn olog
Ġfr anc
Ġ15 00
as Ä±na
Ġà®ķà¯Ĥ à®Ł
Ġcont a
é Ĳ
à¦¨à§įà¦¤à§įà¦° à§Ģ
ig es
å½± åĵį
ION E
ĠWh y
ĠÐ³ÑĢ Ð°Ð¶Ð´Ð°Ð½
Ġev ol
Ġcomp te
Ġalgun os
Ġä½Ĩ æĺ¯
ĠÂ¡Â £
Ġany one
ĠÐ¼Ð¸Ð½ ÑĥÑĤ
Ġin vent
ĠR O
imi entos
à³ į
i Ã³
Ġfavor ite
áĥĲáĥ «áĥļ
ĠÂ ª
ĠG ast
fÃ¼ g
Ġå¥½ è¿Ĳ
ĠÐĺÐ½ ÑĤÐµÑĢ
éĢ Ķ
Ġk v
ĠS yn
Ġprime iro
ĠH uman
ĠFr ont
à®¿à®Ł à®®à¯į
Ġg ec
Ġ11 8
ÃŃst icas
ull en
ect os
Ġwir k
Ġserv icio
Ġ" }
Ġëł Ī
à´¤ àµįà´¤
st Ã¤nd
Ġvel oc
ĠS ou
® à¸
o or
Ġè¿ Ľ
à® ·
ĠÄĳá» Ŀi
Ġhe ute
ĠÐ± Ð¸Ð·Ð½ÐµÑģ
ÙĪ Ø«
Ġà¦¸ à¦Ń
Ø³Ø¨ Ø©
Ġwo od
Ġgra ph
Î¸Î· ÎºÎ±Î½
Ġå Ķ
Ġáĥ¡áĥĲáĥ ĸ
Ġk red
ĠP il
Ġfal ta
Ġdo it
ĠÑĥ Ñģ
Ġex emple
æ° ı
ĠÐĳ ÐµÐ»
ĠO pp
z ahl
iáº¿ m
g os
Ġz it
Ġsel ected
Ġo st
Ġm á»¥c
Ġz org
éĽĨåĽ¢ å®ĺç½ĳ
åįģ åĪĨ
anÃ§ as
Ġar gent
ni ÄĻ
ial i
ĠÙĪ Ø¸
Ġn es
Ø§Ùģ Ùĩ
æ¼ «
à¹Ģà¸Ĥ à¹īà¸²à¸
ĠØ¨ Ø§Ø¨
Ġm ÉĻs
ÑĢ ÑĮ
Ġà¸ «
ĠÙĥ Ø¨ÙĬØ±
à®¿à®© à¯įà®©
ora Ã§Ã£o
Ġsh all
Ġnavig ation
åį Ģ
áĥ£áĥ ¥
ìĦ¸ ìļĶ
æ ¾³éĹ¨
éł Ń
Ð° ÑĦ
ard ia
Ġà¤¸à¤¬ à¤¸à¥ĩ
Ġter baik
ÃŃ lia
Ġ×ķ ×Ĵ
Ġrealiz z
ĠÎ¼ Î¿
ĠÎ£ Ïį
à¦¾à¦ Ń
ĠÙģ ÙĤØ¯
Ġrencont re
Ġre cept
iniz i
ct ions
Ġad emÃ¡s
è´ µ
ç´¹ ä»ĭ
áĥĺáĥłáĥ ĵ
Äį i
ac ia
ÐµÑĩ Ð½Ð¾
on u
Ġplac es
Ġd ak
ent ras
Ġà¦ķ à¦²
æĶ¿ çŃĸ
à®² à®ķ
ĠØ§Ø¨ ÙĨ
mas Ä±nÄ±
Ġãĥ ¯
Ġcon cl
à°¾à° ·
Äħ g
Ã¡ k
åŃĺ åľ¨
rim on
Ġç¾İ åĽ½
Ġà¦¬ à¦¿à¦°
ÐµÐ½ Ð½Ð¾ÑģÑĤÐ¸
at re
Ġà´ ¸
ĠØ§ÙĦØ¹Ø§Ùħ Ø©
éļ ı
Î´ Ïİ
b ach
ãģĹãģ¦ ãĤĤ
ĠÚ¯ Ø±
ĠPremi um
ĠHo ch
åĴĮ åĢ¼
Ġou v
ick Ã¡
ãģį ãģ¾ãģĻ
Ġáĥ £
ĠÚ¯ÙĪØ´ ÛĮ
Ġversch ill
ĠÐĴ Ð°ÑĪ
ol t
Ġst esso
Ġric erca
Ġ10 9
ÑģÑĤÐ² Ðµ
Ġop pos
Ġde utsch
Ðł ÐĲ
Î¶ ÎµÎ¹
Ġbu en
Îµ Î²
Ġseem s
ĠK ung
Ġï¼ Ĵ
ĠØ¯ ÙĨÛĮ
ĠPro d
f ang
Ġà§ §
ĠÐ¡ Ð²
èĪ ŀ
èģĮ ä¸ļ
à°¿à° ¦
Ġà¦ªà§įà¦° à¦¶
ĠÛ ¸
Ġwrit ten
Ġoccas ion
ua Ã§Ã£o
ĠÙĨÙħÛĮ âĢĮ
ĠÙħÙĪØ¬ ÙĪØ¯
Ġprov iding
Ġaqu ÃŃ
Ġ, ...
ĠØ§ÙĦÙħ Ø®
ĠC OL
ĠÎ£ Î¤
åº ĥ
uch a
íķĺ ëĭ¤
Ġæķ Ļ
Ġb anc
à¤¬ à¤°
ÏĦÎµ Ïħ
ÎŁÎ ĵ
Ġà§§à§ ¦
ĠØ±Ø³ ÛĮØ¯
Ð¾Ð² ÑĭÐ¹
c za
Ġf ase
ĠColle ge
ÑĢ Ð°Ð»
ĠÐ¿Ð¾Ð» Ð¾Ð¶
M D
ĠØŃØ¯ ÙĪØ¯
ĠÐŁÑĢ Ð¾Ð´
åĪĽ æĸ°
ot ros
ÙĪ Ù¾
Ġà¸ ¢
Ġà®ķ à¯ģà®Ł
Ġconoc er
æľ «
ER T
ĠÙ¾ ÙĨØ¬
Ġíĥ ľ
à®² à¯įà®µ
Ġh en
Ïĩ ÎµÎ¯
U X
ĠØ¨Ø§ÙĦ Ø§
ĠK ami
æ® ĭ
Øª ÙĪÙĨ
ĠØªØ± Ú©ÛĮ
ĠØ£ Øº
à¸£à¸£à¸ ¡
ÎŁÎ ¡
isp iel
Ġà®ķ à®µ
Ġfor te
Ġe pis
ãģĹãģ¦ ãģĬ
ĠÙĨØ³ Ø®
EN S
ĠÏĢÏģÎ¿ Î²
Ġpo zy
è§ Ī
ĠíĻ ĺ
ĠpolÃŃt ica
Ġ199 1
éĢ Ĥ
ta il
Ġtr am
Ġ6 50
J A
Ġ Ë
ä¸Ĭ ãģĴ
¾ ¶
Ġad olesc
ĠMÃ© xico
ĠIsra el
ç¦ ģ
Ø§Øª Ø¨
le ction
ĠY az
à¤°à¥įà¤ ¶
ĠØ¨Ø±ÙĨ Ø§ÙħØ¬
Ġfor s
Ïģ Ïį
ian co
Ġca ÅĤ
ĠPres ident
ber o
ĠÑĢ Ð°Ð½
Ġk ry
Ġa x
Ð¾Ð» ÐµÐ²
Ġdi pl
P H
ĠV E
d am
Ġí ĳľ
ĠæīĢ ä»¥
Ġà¦Ĩ à¦Ľà§ĩ
Ġh ui
Ġà¦ªà§ģà¦² à¦¿à¦¶
Ġrem ember
ãĥ¼ãĥĵ ãĤ¹
Ð¾ÑĢ Ñĭ
ĠÐ²Ð¸Ð´Ðµ Ð¾
ik ir
igh e
ĠÐº Ð¾Ð¶
Ġa ura
rup t
ĠIn te
à¶ ¸
r Ã¡s
Ġëª »
áĥĶáĥĳ áĥĿáĥĵáĥĲ
Ġfor ce
Ġanalys is
ä½ľ åĵģ
Ġà¤« à¤¿à¤²
Ġvend ita
Ġcour t
ĠÚ¯Ø±Ùģ Øª
emp t
ĠÐº Ð°Ð¿
Ø§Ùģ ÛĮ
ģà¸© à¸²
ĠØªØµ Ùħ
ĠmÅ¯ Å¾e
Ġl an
Ã¼r lich
Ġso y
à¥Ģ à¤¤
Ð°ÑĢÑĤ Ð°
wa Å¼
ĠØ§ÙĦ ÙĦÙĬ
Ġ) -
ĠÐŁÑĢ Ð¾
×Ļ×ł ×ª
Ġan terior
ĠG mbH
ort a
ä¸Ĭ çļĦ
ĠÐ¡ ÐºÐ°ÑĩÐ°ÑĤÑĮ
ĠH as
\/ \/
Ġche ap
çĭ Ĥ
ab ili
ļ à°¿
ĠØ§ÙĦØ¨ ØŃ
w art
ĠÐ´ Ð¾Ð²
Ġpre oc
Ġimp rove
åįķ ä½į
Ġver m
ÙĦÙĬ ÙĤ
ĠÎ¬ Î»
ĠT ype
ĠM ann
äºº æ°Ĺ
à¸£à¸§à¸ ¡à¸
ÄĽ Å¾
ĠK rist
ĠB esch
ÅĤo Å¼
Ġà®ª à®ķ
ĠG eld
è´ «
åį ł
ycz ne
ĠØ¨ÙĪØ§Ø³ Ø·Ø©
Ġyap Ä±lan
Ġ5 000
r n
ĠØ§ÙĦØµ Ùģ
Ġol masÄ±
Ġen qu
oc ks
ĠÙĦ Ø§Ø²Ùħ
Ã¡v ÄĽ
Ġà¤¸ à¤Ńà¥Ģ
ĠÎ» ÎµÎ¹ÏĦÎ¿ÏħÏģÎ³
Ġlet z
ĠM am
Ø§Ø® ØªÙĩ
8 00
Ġ" ØĮ
Ġ×ł ×ª
ĠÏĢ ÏģÎ¬
ĠTe ch
ê¸° ë¥¼
V iew
ĠÎ¼ÎŃ ÏĩÏģÎ¹
Ġkomm t
Ġen k
ab led
ĠÑĢ ÐµÐ¶
Ġ' ;
×¡ ×ĺ
ĠÑģÐ¸ÑģÑĤÐµÐ¼ Ñĭ
Ġon es
Ġekstra utstyr
E l
Ġæľ ¨
áĥĶáĥĳ áĥĶáĥľ
à¸£à¸µà¸§à¸´à¸ §
Ġà°ħ à°¨à°¿
Ġcost s
ut or
Ġäºļæ¸¸ ag
Ġh ÉĻ
G F
ĠÑģÐ¾Ð² ÑĢÐµÐ¼
Ġh ÉĻy
ĠT ok
ĠØ® ÙĪØ´
Ġsam men
Ġgra cias
ĠEx press
éĶ Ļ
app en
Ġáĥ Ń
Ġà°Ĺ à±ģà°°
èĭ ¦
à¸Ļà¸ ´à¸
èį Ĳ
Ø¨ ÙĬØ±Ø©
ĠØ±ÙĪ ØŃ
Ð¸ÑģÑĤÑĢÐ° ÑĨÐ¸Ð¸
uy áº¿t
à®¿à®ļ à¯įà®ļ
Ġart ist
Å¯s ob
Ùĩ Ø§ÙĬ
an ita
ol id
Ġ23 0
ìĬ ¹
ÉĻl ÉĻri
ĠØ§ÙĦØ¯ Ø±
§à¹ĩà¸ ļà¸
ci u
Ġà¤ħ à¤Ń
å½ ¹
àµįà´ °
ĠH on
æİ Ī
Ġs ott
Ġcomb in
Ġaf in
ì ±ħ
ľ à¹Īà¸²à¸Ļà¸
Ġach ter
ĠÙĩ ÙģØªÙĩ
à¶ ļ
Ġd este
ĠÐ¿ÑĢ Ð¸Ð´
Ġdire ction
å£ ģ
ans a
iz aciÃ³n
ced es
Ġin gl
uk tur
Ġ×Ľ ×©
Ð² Ð°ÑĤ
Ġb Ã¥
ĠÙĪØ§ÙĦ Ø¯
Ġpl anning
ĠØ¶ Ø±
Ġs ense
st ag
s ites
ĠÐ¿Ð¾ ÑıÐ²
«à¹ĩ à¸Ļà¸
Ġsal ud
Ġm im
Ġhigh ly
Ġn ye
å§ Ĳ
à¦¤ à¦¾à¦°
ķà¸ ±à¹īà¸ĩ
Ġzur Ã¼ck
Ġcap it
áĥĲáĥķáĥ¨ áĥĺáĥł
Ġì ´Ŀ
Ġà¤ª à¥ģà¤²
Ġr ang
Ġm orning
àµģà´ Ĥ
Ġíģ ¬
sp ÄĽ
Ġtrans par
Ġsh opping
Ġla pt
ë¦ Ħ
ac jÄĻ
Ùħ ÙĪØ¯
Ð°Ð»ÑĮ Ð½Ð¾Ðµ
Ä±r Ä±m
łà¸²à¸ ©
Ġgu ar
Ġmur ah
Ġho ch
Ġcompl eto
Ø¹ ÙħÙĦ
Ġpag b
Ġhigh est
Î¿Ïį Î¼Îµ
an os
Ġnie uw
Ġn á»ķi
ĠPra ha
Ġnh iá»ĩm
Ġb out
ĠÎ³ ÎµÎ½
Ġsitem ap
ier ra
Ð¿Ð¾Ð» Ð¾Ð¶
utt ing
Ġà¤Ł à¥įà¤°
á»Ń i
o id
ĠØ£ ÙģØ¶ÙĦ
é¦Ļ æ¸¯
r s
Ġì§Ģ ëĤľ
ĠRestaur ant
Ġì¦ Ŀ
Ġo sp
ĠSt an
ç´ §
ĠÎ´Î· Î¼Î¹Î¿ÏħÏģÎ³
à¦¬ à¦°
Ġuz un
Ġm ÉĻh
ÙĦÙĬ Ø§Øª
Ġà°° à°¾à°ľ
Ġà° ĵ
Ġw it
ĠU TC
Ġsav oir
ĠB áº¡n
ĠArbe it
áĥł áĥĲ
à±ģà° Ł
Ø³ Ø©
ENT O
ÙĪØ¹ Ø©
ÎŁÎ ļ
Ġ×Ļ ×ĵ×Ļ
ch ester
ĠÏĥÏħ Î³
Ġres ources
om es
ĠO ld
ªà¸ ĸ
Ġkom t
ĠØª Ø¨Ø¯
ĠØ§ÙĦÙĪÙĤ Øª
Ġt áº¥t
ĠÐ²Ñĭ Ð³
ĠáĥĽ áĥĿáĥķ
à© °
ĠáĥĻáĥĿáĥĽ áĥŀ
ãĤĦ ãģĻ
ÐµÐ¼ Ð°
ÃŃ veis
ĠØ¨Ø§Ø´ ÙĨØ¯
ĠA ch
Ġil iÅŁ
Ġen se
ĠCons ult
Î¸ Î¿
Ġà¤² à¥ĭà¤ķ
Ġrele ase
Ġj unto
ĠÐºÐ²Ð°ÑĢÑĤ Ð¸ÑĢ
ĠwiÄĻ c
ãĤĪ ãģŃ
AC K
ÙĨ Ø´
eg t
åľ° æĸ¹
Ġtrans l
Ġcon clus
äºº çĶŁ
Ã½ mi
Ġsad ece
à· ĥ
Ġin ne
ĠPo int
Ġ ãģĹãģĭ
± à¹Īà¸ĩà¸
Ġì º
Ġwe il
Ġu0 4
ķ à¹Įà¸
ĠØ§ÙĤØªØµ Ø§Ø¯ÛĮ
c je
Ġí ħ
Ġï¼ģ ï¼ģ
Ġë© Ķ
Ġtar de
Ġp int
Ñĳ Ð¼
Ġï ½ľ
Ġà¤Ĩà¤ª à¤ķà¥ĭ
te xt
Ġnost ra
Ġautom atic
âĢĶ âĢĶ
ĠØ§ÙĦØ¯ÙĪÙĦ Ø©
Ġstor age
Ġc ore
à¸Ńà¸²à¸« à¸²à¸£
æĽ °
Ġà¦ªà§įà¦° à¦¥à¦®
ĠÑģ ÐµÐ¹ÑĩÐ°Ñģ
ĠD Ã©c
è¾ ħ
Ġed er
UN G
×ŀ ×ľ
# #
Ġpap el
à°¸ à±įà°Ł
pl at
ĠUn ion
ë§ Ĳ
ob by
ĠÎĳ Î³
Ġt ed
ĠDal am
Ġatt ract
ij ken
11 éĢī5
ĠâĪ Ĵ
ĠÐ· ÐµÐ¼
ĠÎºÏħ Î²
å· ¨
Î´ Î¯
c Ã¼
Ġä»Ĭ æĹ¥
Ġdepo is
Ð¸Ð»ÑĮ Ð½Ð¾
H E
Ġè¢ «
Ġà¤ļ à¤²
ĠÐĹ Ð°Ðº
éªĹ å±Ģ
Ġab ility
ĠR est
ĠPro du
¸à¸ ģ
i endo
Ġi OS
ag u
Ġà®® à¯ģà®±
ĠÐ´ Ð¾Ð³Ð¾Ð²Ð¾ÑĢ
æ¬§ ç¾İ
ĠP ac
ĠÐ¸Ð¼ ÐµÐ½Ð½Ð¾
Ġocc up
Ġcor r
ĠJ est
Ġw orm
Ġs áº¯c
Ġd unia
Ġan lam
WW WW
Ġäº ĳ
Ġfor e
ÑĭÐ² Ð°ÑĤÑĮ
Ñģ ÑĭÐ»
ÑĢÐ° ÑĪ
Ġcli ente
Þ¬ Þ
ĠØª ÙĪØ±
æ¶ ²
´ à¹Īà¸ĩà¸
L e
Ġ×Ĳ ×¤×©×¨
Ġnu ova
Ġm ong
Û ´
ĠÐ¾ÑĤ Ð´ÐµÐ»
ĠS y
ĠO ktober
Ġchu áº©n
ĠåĽ ŀ
ĠØµÙĨ Ø¹
ĠØ¬ ÙĦØ³
Ġrec om
Ġout ras
à¸Ńà¸ ģ
us us
ow l
Ġni ya
or ing
Ġsn el
Ø±ÛĮ Ùħ
Ø§Ù ī
ic ana
ant age
Ġg ag
áĥĶáĥ £áĥļ
Ġà¦ªà¦¾à¦° à§ĩ
Ġnou velle
ans ke
ĠS ed
×Ļ×¨ ×ª
Ġç ĳ
ĠÑĤÐ°Ðº Ð¾Ð¹
Ġgr ad
à§ĩà¦¬ à§ĩ
ĠèµĮ éĴ±
Ġch ÃŃ
ÙĬØ± ÙĬ
Ġserv icios
at ar
ľ ëĵľ
Ġà¦ķ à§įà¦°
à§ģà¦ ľ
ÙĪ Ø§Ø±Ùĩ
ÑĨÐ¸ ÐµÐ¹
Î¼ Î±Î¹
ĠÙħØ§Ø´ ÛĮÙĨ
ĠÐĴ Ð»Ð°Ð´
ĠÐ·Ð´ ÐµÑģÑĮ
Ġcommunic ation
ç² ī
ÑģÑĤ ÑĥÐ¿
Ġ×Ķ×ŀ× Ĺ
Ġl ange
éĴ ¢
Ġcas os
ĠK B
ĠØ±Ø§ÛĮ Ú¯Ø§ÙĨ
µà¹Īà¸ ¢à¸§à¸
Ġáĥł áĥĶ
Ġf le
Ú¯ ÙĪÙĨÙĩ
ĠÙĨ Ø§ÙħÙĩ
Ġalt ijd
ĠChrist mas
à¦² à¦¾
Ġà¦¸ à§ĩ
ĠÂµ ÃĦ
Ġter ror
ĠØ§ÙĦÙħ Ùĩ
Ġm áº¡ng
ï¿½ï¿½ ï¿½
Ġ": [
Ġos Ã³b
ä¸» è¦ģ
Ġà¦¬ à¦¾à§ľ
Ġà¤ħ à¤µ
ÙĦ Ø¹
Ġà¨ ¸
Ġpot rz
Ġgir l
Ġ ÉĻn
å° ģ
Øª Ø´
Ġc ub
Ġ ella
ĠÎº Î¿Î¹Î½ÏīÎ½
b ro
am ina
ĠÑģÑĤÐ¾ Ð¸ÑĤ
ÐµÑĪ ÑĮ
ajÄħ c
ĠìĪ ľ
ĠPort ugal
à®¿à®Łà¯įà®Ł à¯ģ
ĠÑĤÐµÑĢ ÑĢÐ¸ÑĤ
ãģį ãģ¾ãģĹãģŁ
à´ ¨
ac ing
Ġà¦Ĺ à¦¤
Ø§Ø¦ ÙĤ
ĠdÆ°á» Ľi
Ġag li
Ø§Ø° Ø§
Ġibex_room_grid _
Ġblog spot
ĠDevel op
Ġk u
Ġind ir
ĠG S
ĠBil der
ĠB akan
ÏģÎ· ÏĤ
Ġáĥ¬ áĥ§
ĠÐ°Ð² ÑĤÐ¾ÑĢ
Ø§Ùĩ Ø±
f Ã¼r
Ġtem at
Ġde ath
ĠT w
×Ĺ ×ł×ķ
Ĺ à¹Īà¸²
Ġs uk
Ġne v
ĠH ij
áĥ ©
ov ou
ĠAc cess
Ġl Ã£
Ġg Ã©
Ã ¿
ĠÎ¼ Î¬
Ġt ien
ĠLe on
ÙĲ ÙĦ
Ġäº ¤
Ġà°ª à°°à°¿à°
ĠÑģ Ñĭ
ĠÏĩ ÏİÏģÎ±
Ġet k
Ġni Ã±os
Ġm ud
ĠEx pl
Ġin stead
×Ľ ×ł
ĠC y
Ð½ Ñİ
Î½Î¿ Î¹
az io
Ķà¸ ±à¸ļà¸
ĠM emb
ä¸į åĲĮ
£ Į
Ġde k
ĠëĶ Ķ
Ġæ° ¸
Ġbenef its
ĠT ay
ĠØ§Øª ÙģØ§ÙĤ
ÙĬØ§ÙĨ Ø©
Ġdis cipl
Ð¸ÑĢÐ¾Ð²Ð°Ð½ Ð¸Ñı
vel opp
Ġáĥ£áĥ Ľ
Ġà¦¤ à¦¾à¦ģ
ĠL ok
ep h
" >
Ġsp ielen
Ġgro und
Ġcr ist
Ġad ik
ĠD ob
Î´ ÎŃ
Ķ à¹īà¸²à¸Ļà¸
Ġpr ices
ĠF ant
äºº ãģĮ
éĥ½ æĺ¯
à¤°à¥įà¤ ¸
à¹īà¸ ¡à¸
Ġà¤Ĺ à¥ģ
ĠØ®Ø§ÙĨ ÙĪ
ĠÐ°Ð² ÑĤ
ĠP ert
Ġdi j
äº¤ æĺĵ
ra in
Ġëĭ¤ ë¥¸
ĠØ´ ÙħØ§ÙĦ
Ġmin h
Î» ÏĮÎ³
ÐµÐ½ Ð½Ð¾Ðµ
it ement
ĠÙħÙĪ Ø¨
Ġm io
Ġrec ently
ĠD ub
ĠØ³ Ø¹
ĠH ost
C L
ĠÐ»ÑĥÑĩÑĪ Ðµ
Ġ ä¹Ĳ
æĶ¯ æĮģ
æī ĺ
ĠÑģÐ²Ð¾ ÐµÐ¹
Ġask ed
Ħà¸ §
Å ĵ
m ur
Ķà¸ ±à¸ļ
Ġpeu vent
ç« ¥
Ġ×Ĳ ×Ļ×ł
Ġsv Ã©
Ð°ÐµÑĤ Ðµ
ON T
æĦ ¿
Ã³ i
d c
os es
P K
ĠØª ÙĦÙģ
Ġpa ar
ãģį ãģª
o ire
ar lo
Ġl alu
Ġkra j
Õ¡Õ £
ze ch
åŁ¹ è®Ń
ĠÐ³Ð¾ÑĢÐ¾Ð´ Ð°
ĠW inter
Ġtr z
Ġter ug
ä¸Ģ æŃ¥
ÑĥÐ¶ Ð´
Ġçº ¢
Ġà¤¶ à¤¿à¤ķ
Ġsv ÄĽt
ĠÐ½ÐµÐº Ð¾ÑĤÐ¾ÑĢ
Ð¸ ÑĨÐ¸Ð°Ð»ÑĮ
S p
Ġabsol ut
R I
Ġat a
ĠC ustom
à±ĩà° ®
ĠWars za
ĠJ en
ł áł
ĠØ¯Ø±ÛĮ Ø§ÙģØª
ĠÃ ±
Ġfig ure
Ð» Ñĭ
ĠØ¹ ÙĤ
ĠR on
è° ±
ĠÏĨ Ïī
Ġth Æ°
Ġp ull
Ġdis k
us an
Ġcu isine
Ġçı ¾
Ġcur so
AT E
Ġ×Ķ ×¨×Ĳ×©
ĠÑį Ð½
Ġáĥ¨áĥĶ áĥĺáĥ«áĥļ
Ġatt rav
Î¼ Î¯
Ġáĥ§ áĥĿáĥķ
Ã± as
ĠØ§ÙĦÙĤ Ø¯
Ġinter view
Ġpremi Ã¨re
Ġor den
Ġg á»įi
Ġbon ne
ĠInt el
ĠØ§ÙĦØ¥ ÙĨØ³
Ġm use
Ġch á»ĳng
à´ ³
ĠØ¹ ÙħØ±
Ġm ij
åģ¥ åº·
Ø¹ ÙĬØ©
ĠÐ½Ðµ Ñģ
ĠÐ³Ð¾ÑģÑĥÐ´Ð°ÑĢ ÑģÑĤÐ²ÐµÐ½
Ġprogram ma
ĠK art
ïº İ
Ġag ora
ĠA sp
Ġà¦¨ à¦¿à§Ł
ÎŃ ÏģÎ±
ĠÑĢÐµÐ³ Ð¸Ð¾Ð½
Ġmem ang
Ġfem me
Ġproduct os
ï½Ĺ ï½Ĺ
Ø§Ø¦ ÙħØ©
à¤¡ à¥Ģ
à°¤ à±įà°¯
usaha an
çĭ Ĺ
åħŃ åĲĪ
Ġsus p
ĠO lymp
h m
ãģĦ ãģªãģĦ
d in
ĠD urch
ing u
ak ah
ĠÃ¡ p
Ġfor mer
æµ ª
Ú© Ø§Ø±ÛĮ
1 000
ĠìĹ ħ
æ³ ī
Ġà¦īà¦ª à¦ľ
Ð¾Ð¹ Ð´
rie b
on ces
d im
Ġà®ĩ à®¤à¯ģ
Ġwork ed
ëŁ °
ÙĪÛĮ Øª
Ð°Ð· Ð°Ð½
IC E
Ġdec ision
å¦ »
Ġà¦ªà§įà¦°à¦ķ à¦¾à¦¶
à¤§à¥įà¤¯ à¥ĩ
Ø¬ ÛĮ
ç³» åĪĹ
à¤¨ à¤²
ĠÙĪ Ø¬Ùĩ
Ġprodu ce
ĠB ran
ãģ¨ è¨Ģ
ÙĬ Ø§Ùħ
Ġnoss o
Ġcr Ã©d
ĠW ij
è´ ¸
çĪ ¶
åħ³ ç³»
ĠáĥĲáĥķ áĥ¢
Ġprov in
ĠK omm
ĠAm sterdam
ãĥ³ ãģ®
×ĺ ×Ļ×Ŀ
Ġp aci
ibil idad
Ġim per
éĶ ĭ
Ð± Ð°
ug no
id ers
ĠC are
ãĤ¤ ãĤ¹
iss imo
æŀ ¶
æĹ¶ ä»£
on av
Ġt iáº¿n
Ġest ate
Ã©r ation
à¸²à¸£ à¹Įà¸
à®¾à® ª
Ø§Ùĩ ÛĮ
ĠÐ² Ð¾ÑģÐ¿
ĠÐ± Ð»Ð¸
Ð½Ð¾ Ñģ
±à¸ Ķà¸
Ġroom s
ĠCol omb
ÙĪ ØŃ
åį ĸ
×ķ×¨ ×ļ
Ġà®® à®Łà¯įà®Ł
Ġautom at
Ġà®İ à®²à¯įà®²
Ġà§© à§
à¥įà¤° à¥ĩà¤¸
ĠØ§Ø³ Ø§Ø³
ĠØ¬ÙĨ ÙĪØ¨
ĠÐ½ ÐµÐ³Ð¾
Ġ Ćć
Ø§Ùģ Ø±
¸ à¸Ļ
Ġë¸ Ķ
Ġq verpgbel
Ġq al
Ġg in
à§ģ à¦Ł
ÅĤo ÅĽci
as ons
ĠÙĦÙĦ ØŃ
ĠD amen
Ġ11 4
icz ne
Ġterj adi
Ġpre t
Ġaver age
à°¯ à±įà°¯
Ø¯ Ø§Ø±
ë° ±
æĹ¥ æĬ¥
im y
à¹Ģà¸£à¸ ·à¹Īà¸Ńà¸ĩà¸
à±Ĩ à°Ł
Ð¸ÑĤ Ñĭ
ĵà¸ ĳ
ĠÃ¶z el
ĠPok er
Ġarch itect
Î¬ Îº
Ã´ le
Îº Î¿Î»
F or
ĠÙħØŃØµÙĪÙĦ Ø§Øª
Ġnum er
ë ¹
ĠáĥĻ áĥĲáĥłáĥĴ
ãĤ¤ ãĥī
×ĵ ×ª
Ġáĥ¡áĥĲáĥ ĺ
áĥĺáĥ¢ áĥĶáĥ¢
à¸Ńà¸µà¸ ģà¸
ĠÐ¿ÑĢÐ¾Ð² ÐµÑĢ
Ġaut h
ĠÐ¼ÐµÑģÑĤ Ð¾
å®Į æĪĲ
áĥĲáĥĵ áĥĺ
Ġg áº·p
ie z
ĠÎ¿Î¹ÎºÎ¿ Î½Î¿Î¼
Ġl uz
ond ers
c ode
Ġacc ommod
ĠØ§ÙĦØ¥ Ùħ
Ġdes car
ĠP E
Î¶ ÏĮ
´ë ¦
Ġ×ł ×¢
ĠÐ¼ Ð°Ñģ
Ġreview s
Ġqu ar
ĠÏĢ Î»Î±
ÐµÐ» Ð¸Ðº
ĠÙģØ¹Ø§ÙĦ ÛĮØª
Ġè ı
Ġl Ã©g
ĠÙħØŃ Ø¯
Ġ×ł ×©
ĠÑģÐ²Ð¾ Ñİ
Ġåħį è´¹
ativ os
Ġk rit
Ġï¼ ħ
Ġë ģ
Ġà¦ķ à¦¿
Ġpro per
èĩª åĪĨ
Ð°Ð» Ð°ÑģÑĮ
ador as
Ġb Ä±
à¦°à§įà¦ ķ
li z
Ġw 66
ãĤ¢ ãĥ«
qu ina
ĠÙħÙĤ Ø§ÙĦÙĩ
ĠZ ar
ĠK os
áĥĵ áĥĶáĥ¡
Ġhe y
uh kan
ok ol
en cial
Ġre vis
Ø¸ ÙĩØ±
Ġcl in
ĠH R
ema akt
ĠÏĥ Î®Î¼ÎµÏģÎ±
ĠÏĢ Î¯
O n
Ġentre prise
ĠL un
åĪ ¸
Ġà¦¶ à§ĩà¦·
ĠæľĢ æĸ°
Ġmod a
à© ĭ
Ð°ÑĢ Ð¾Ð²
iz m
Ġav ere
ÙĬ Ø§Ø±
35 6
ĠØ´ Ø§Ø±
ĠE ur
Ġæ° ĳ
Ġà®ķ à®£
Ġme ine
ĠC oll
à¨ ¤
Ġà¤ķ à¤Ī
æĽ ¾
ung i
Ġverd ad
ĠC B
áĥĶáĥĳ áĥĹ
Ð°ÑĢ Ð¾Ð´
any ang
ĠáĥĲáĥ® áĥĲáĥļáĥĺ
Ġà¥ §
Ð°ÐºÑģ Ð¸Ð¼
ĠP atr
ent emente
Ġ×ĳ ×Ļ×ķ×ª×¨
Ġ à¸Ńà¸²à¸
Ġê°Ģ ìŀ¥
ĠL ip
à¥įà¤¯ à¤®
ĠRes ult
IL L
Ġsaf ety
Ġpre ced
ÙĪØ± ÙĬØ©
ĠØ¯ ÙĪØ¨
åĪ ·
Ġà¤¹ à¥ĩ
Ġh áº¡n
ĠLou is
ä» ª
ĠÐ·Ð°Ð² Ð¸Ñģ
g ro
Ġperm ainan
åĩ ı
ĠOn ce
áĥĿáĥľ áĥĺáĥ¡
il ÉĻn
Ġà¦ĩ à¦¸à¦²
à¹Ħà¸Ķà¹ī à¹Ģà¸
Ġst os
áĥĺáĥĵ áĥĲ
ÄŁ imiz
eb o
ìĻ¸ êµŃìĿ¸
Ġç½ĳ ä¸Ĭ
ĠÐ¿ Ð¾ÑĤÑĢÐµÐ±
Ġê°Ģ ëĬ¥
ĠÃºlt imo
Ġset elah
Ġpel ÃŃcul
¶à¸ ĩà¸
ĠØ¨Ø± ÚĨØ³Ø¨
Ġmod ule
Ġà´ ®
Ġa present
Ġà®Ĩà®© à®¾à®²à¯į
Ġdi ret
Ġcar te
Ġat iv
å¯¼ èĪª
ĠÙħÙĤ Ø§Ø¨ÙĦ
Ġsv ilup
ĠAmer ika
Û ¶
ab Ä±
a ir
ĠçŁ ³
Ġhá» ¯u
Ġ á»
ĠØ¹Ùħ ÙĪÙħÛĮ
Ġc Ã¢u
ĠS af
od ar
ĠL ake
as k
ĠY ear
å½©ç¥¨ å¹³åı°
à¦¬ à§ĩà¦¨
to ut
Ġty ch
Ġ ãģĻ
aw at
è« ĸ
Ġn este
éĬ Ģ
el m
ĠJ Ã¡
é¡ ¶
à¹ĥà¸ ª
alt ung
Ġmi entras
áĥĹ áĥ®áĥķ
Ġgro te
ĠÑģÐ¾ÑĤ ÑĢÑĥÐ´
Ġvo z
ĠtÉĻ ÅŁ
Ġmen er
Ġef ekt
Ġst ad
Ġkl ub
Ġr este
é¡ º
b ev
Ġall em
ãģ¸ ãģ®
Ġm áº¥t
ãģĿ ãĤĮ
vol ution
Ġprod otti
à¹īà¸ ĩ
×ĸ ×ķ×¨
ĠÙħØ§ÙĨ ÙĨØ¯
l ayan
Ġb ile
åĢ Ĵ
al y
Ð°ÑĢ Ð°
Ġle y
à°¿à° ·
áĥĿáĥĳ áĥĺáĥĹ
ĠáĥĶ áĥļ
Ġab biamo
Ġ19 80
ÙĴ Øª
Ùħ ÙĨØ¯
ain ment
Ġ11 1
Î» Î¯Î±
ÙĦØ³ ÙĦ
ver o
r ang
ĠéĽ »
ãģĵãģ¨ ãģ§
ĠØ§ÙĦØ®Ø§Øµ Ø©
Ġsp ect
Ġkh ÃŃ
w ikk
uc u
ĠÙħ Ø§Ø±
ìĭľ ê°Ħ
Ñĩ ÐµÑĤ
port s
ĠÙ¾ÛĮ Ø§Ùħ
Ġn Ã¡m
á½ ¶
h ur
is inde
IT E
Ġp ig
Ø±ÙĬ Ùģ
os en
k ami
h oud
ãĤī ãģªãģĦ
à®© à¯įà®ª
ĠÙĩ ÙĨØ§
ĠØ¹ÙĦ ÙĪÙħ
Ġt ÃŃn
ĠS qu
¤ Ħ
ĠÐ¤ ÐµÐ´ÐµÑĢ
Ġcla im
Ġpaggam ot
Ġdies en
ãĤ ¼
ãģ« è¡Į
ĠÄį Ã¡st
ĠV y
B ay
ĠÐ½Ð°ÑģÑĤ Ð¾ÑıÑī
æĿ¡ ä»¶
U V
Ġæķ °
ĠÙħØŃ ÙĦ
Ġ áº¥y
ĠPh otos
ĠL ow
áĥĲáĥłáĥ Ļ
ĠÐ´Ð² ÑĥÑħ
éģ ©
Ġz ij
ĠN G
Ø³ Ø§Ø²ÛĮ
Ġcor po
è¼ ĥ
ĠãĢĤ âĢľ
ĠY es
ĠÑģÑĤÑĢÐ¾ Ð¸ÑĤÐµÐ»ÑĮ
ĠvÃŃ de
Ġv ÄĽt
Ġb ord
áĥĿáĥĳ áĥļ
à®¿à®±à¯įà®ķ à¯ģ
Ġ×ª ×©
Ġc ry
à¹Ģà¸£à¸ ·à¹Īà¸Ńà¸ĩ
ĠÎľ Î±Ïģ
ÑģÐº Ðµ
aw i
ĠØ¹ÙĨØ¯ ÙħØ§
ĠgÃ¶st ÉĻr
Ġà¦¸ à¦ķ
èĩªå·± çļĦ
Ġsent ido
Î´ ÏģÎ¿
Ġx Ã¡c
ĠØ¢ Ø´
Ġcamb io
è½ ®
à¹Ħà¸Ķà¹ī à¸£à¸±à¸ļà¸
à®Łà¯įà®Ł à¯ģ
iet Ãł
Ġà¤ĩ à¤¤
Ġwy b
Ġfir ma
Ġï ¹
Ġæµ ľ
Õ¡Õ °
ÐµÐ½ ÐµÑĢ
Ġ×ł ×Ľ
Ġma cht
Ġfor me
à°¾à° ¹
ac ie
ograf ia
Ġn ord
Ġ^ ^
å¼Ģ å±ķ
åĽ º
å¸ ®
od zi
12 æľĪ
Ġc Ã¢y
ĠB eb
ot ing
Ġserv izio
Ġfil ter
Ġcount ries
Ġ×© ×Ŀ
n oc
ĠÙĥ Ø±Ø¯
Ġcas es
ĠÐ¾Ð±Ð¾ÑĢ ÑĥÐ´
ĠÏĮ ÏĩÎ¹
ÐµÐ½ Ð·
Ġà¦Ĩ à¦¦
Ġn atuur
áĥĶáĥľ áĥĺ
Ð¼Ð¾ÑĤÑĢ ÐµÑĤÑĮ
e es
F l
Ġbel um
à®µ à¯Ī
eld ig
Ġ×Ĳ ×©×¨
ĠM ang
Ð»Ñı Ð´
ĠÐ¿ÑĢÐµÐ´ Ð»Ð°Ð³
ĠW eg
çĸ Ĺ
Ø§ÙĪ Øª
© ´
ĠÐŁÑĢ Ð°Ð²
Ġpre p
Ġpar ent
Ġappe ar
ĠM ath
Ġens emble
Ġc ust
è¡ ¥
ĠâĹ ĭ
ĠÕ ½
g ia
ĠO x
Ø« Ø§Ø±
ĠÅ »
Ùİ ÙĪ
M O
ĠK unst
ªà¸ §à¸
ĠÐ²Ñĭ ÑħÐ¾Ð´
ÙĪ ÙĬØª
ĠÐ´ÐµÐ½ÑĮ Ð³Ð¸
Ġm ond
ayan an
em o
Ġsocial e
Ġì »
Ġb Ãł
Ġk iá»ĥm
ĠÐ´Ð² Ð°
ĠÙĦÙĪ Ø§Ø²Ùħ
áĥĿáĥ ¥
ĠÙĨ Ú¯
ĠT OP
ĠPer f
áĥĲáĥĽáĥĵ áĥĶ
Ð°Ð¶ Ð°
Ġv ost
Ġtop ic
Ġpre cios
à¦¾à¦ ł
Ġà¤µà¤¿à¤ ¦
Ġin gen
Ġgroup s
ĠCh er
F i
Ġpier w
Ġpi Ã¨
Ġl ost
Ġlib ert
Ġg overno
Ġdes n
Ġconf ort
ĠMar y
Ġein mal
Ġà®® à®ķ
Ġà¦¨à¦¿à¦°à§įà¦¬ à¦¾à¦ļ
Ø¤ ÙĪÙĦ
Ġ×Ĳ ×ļ
ĠÐ¾Ñģ ÑĥÑīÐµÑģÑĤÐ²
ĠB C
æĿ Ł
à®±à¯įà®ķ à¯ģ
ĠØ³ ÙģØ±
us unda
M od
zn am
Ð Ń
ĠÙħ Ú©
ĠÎ² ÏģÎ¯
Ġtr ade
ĠTelef on
à°ķ à±įà°¤
Ġà°µ à±Ī
ĠB ell
Ġå¾ Ī
ĠÐ¿ ÐµÑģ
Ġk urs
OT O
ĠÙĪÛĮ ÚĺÙĩ
ĠÐ¿Ð» Ð¾Ñī
ĠçĪ ±
ĠáĥĹ áĥĲáĥĽ
ê¹ Ģ
zy Äĩ
Ġà®µ à¯Īà®¤à¯įà®¤
Ġçģ «
åħ³ æ³¨
Ġstr utt
Ġpol ice
ë¦ ī
Ġâ ĳ
ĠÙĪØ§ÙĦ ØªÙĬ
Ġm á»Ł
Å¡ÃŃ m
ç½ ª
ãģĶãģĸ ãģĦãģ¾ãģĻ
Ġè İ
áĥĶáĥ ¨
Ġ×ĸ ×Ĳ×ª
à±Ģ à°¯
Û ·
an cy
ĠpÅĻÃŃ pad
ëĵ¤ ìĿĦ
Ġtr ust
Ġsur face
ĠT in
ĠÐ²Ð°ÑĢÐ¸ Ð°Ð½ÑĤ
ä¼ ¤
ÙĥØª ÙĪØ±
or ter
à¤¾à¤Ĥ à¤¤
Ð¾ÑģÑĤ Ð¾
ĠÐ¿ÑĢ Ð¾Ñĩ
S D
Ġæī ĵ
Ġsa w
irt schaft
ĠÃ¼ lk
Ð¾Ð´ Ðµ
Ä° M
z v
Ġå® ļ
áĥĶáĥłáĥ ĵ
ĠÙĪ Ø·
N I
Ġincl u
×ª ×Ķ
if ier
ÐµÑĢ Ð½
aw ei
Ġprodu c
Ġà®® à®¿à®ķ
te z
ĠÙħØ¯ ÙĬÙĨØ©
Ġz ie
à¥ģà¤ ·
m ad
F R
fall s
Ġtr áº£
Ġãĥ ĵ
Ġconf l
ÉĻb ÉĻr
ĠâĢ ³
ĠØ§ÙĦØ§ÙĨ Øª
Ġdirect or
ĠØ§ÙĦØªØ¹ ÙĦÙĬÙħ
ĠÐļ Ð¾ÑĢ
Ġse iner
og el
art s
Ġ×ŀ×Ĳ ×ķ×ĵ
Ġment al
ĠæĪ ĸ
ĠpaÃŃs es
ĠH ans
Ġnh u
éĵ¶ è¡Į
åŁº æľ¬
åħ¶ ä»ĸ
ĠÕ ¾
ĠMas k
à¦ ĥ
sch ied
Ġà®ķ à¯ģà®´
ĠÐ¾Ð± ÑĢÐ°ÑĤ
Ġd esta
Ġcou p
ÏĢ ÏĦÏħ
Ġinter act
èĸ ¬
z h
ĠÐ¼ Ð¾Ð»
Ġu ang
ĠÙĪØ²Ø§Ø± Øª
ĠC osta
Ġwonder ful
Ġinterest ing
ĠM AN
åĨ ²
Ġseg Ãºn
Ġåı Ī
Ġë² ł
ĠçĶµ çİ©
ĠGe org
ÙĬ Ø§Ø±Ø§Øª
ÐµÐ½ Ð½ÑĭÐ¼
ir ket
à¸Ń à¹Ģà¸
ough t
33 3
Ġà® Ĳ
ĠÛ ·
Ġaltern ative
al im
Ġd ici
ĠÎŃ Î½
Ġla unch
ĠÐ·Ð°Ðº Ð°Ð·
Ġs ost
â Ĥ¬
Ġer r
n ings
ĠÙĪØ£ ÙĨ
ĠyÃ¼ks ek
Ġpers pect
ÙĩâĢĮ ÙĩØ§
×¦ ×ķ×¢
ĠåĽ½ äº§
Ġà¸ ļà¸²à¸Ĺ
Ġpod emos
Ġla bel
à´ ²
ema al
ĠÐ¿ÑĢ ÑıÐ¼
Ġbah an
è³¼ åħ¥
x ima
ĠÐ¿Ð¾Ð» Ð¸ÑĤ
Ġho og
ĠRep ort
Ġg uy
áĥĹáĥ®áĥķ áĥĶáĥķ
Ð¸ÑĢÐ¾Ð²Ð°Ð½ Ð¸Ðµ
ĠÐ» ÐµÑĩ
åĸ ¶
å°¼ æĸ¯
le ps
ÙĪÙĨ Ø©
Ġà¦¬à¦¿à¦ ¦
ĠÙħ Ø§ÙĦÛĮ
Ġu v
Ø± Ùī
ĠÐ¿ Ð¸ÑĤ
ĠÐ½Ð°Ð· Ð²
Ġplay ers
ãĥ¼ãĤ« ãĥ¼
à© ±
à¤ Ŀ
ĠÛ±Û ²
Ġ. ).
ĠÃ© conom
ĠT on
é¤ ¨
é¢Ĩ å¯¼
Ġì² ´
ĠØ´ÙĪØ± Ø§ÛĮ
t k
ĠpÅ¯jÄį ka
Ġhom me
ĠPro jekt
ĠÄĳ Ãºng
Ġbast ante
Ġa id
ĠD est
à¤¾à¤ļ à¥įà¤¯à¤¾
ĠKont akt
ir ing
ĠÙĤ Øµ
Ġsc el
Ġhosp ital
ĠáĥĴ áĥĲáĥ¡
Ġse j
Ġeff et
sel ves
Ġproces o
æł· çļĦ
eb be
Ġimm ag
Ġhand le
Ġcare er
Ø¯Ùĩ Ùħ
U G
ĠâĹ Ĩ
Ð½Ñı Ñı
Ġà¸ªà¸ ³à¸«
ĠØ§ÙĦØ±Ø¦ÙĬØ³ ÙĬØ©
Ġter hadap
ĠSing ap
ãĥĸ ãĥ«
Ġáĥ¨áĥĶáĥĺáĥ«áĥļ áĥĶáĥĳáĥĲ
Ġv et
Ġserv izi
Ġket ika
ol ine
iyor uz
ah oo
20 15
ĠN Y
ĠCh ic
ĠÑĢÐ¾ÑģÑģ Ð¸Ð¹
×ķ×¨ ×¡
t an
ist ics
Ġcook ies
Ġcom plic
Ġà®ħà®µ à®°
ĠP utas
ig an
Ġperm ett
å° ļ
áĥłáĥ£áĥ ľ
×Ľ ×Ł
ĠÑĪÐº Ð¾Ð»
å¤ĩçĶ¨ ç½ĳåĿĢ
ĠÎĶ Î¹
Ġk ne
Ġful ly
å§Ķ åĳĺ
ue z
ca Ã§Ã£o
Ġnuest ros
Ġà¦ıà¦® à¦¨
ĠëĲ ľ
Ġqu ali
ĠGer man
ĠØŃ ØªÛĮ
èĢĥ è¯ķ
æķ £
p orte
ĠÎ±Ïħ ÏĦÎ¬
Ġval id
ĠG li
or al
ĠÑĤÐ¾ÑĢ Ð³
Ġhand s
Ø§ÙĦ Ùģ
om ing
d ings
ĠTod ay
ĠMed ic
pl er
ĠÑģÐ²Ð¾ Ð¸
Ġver de
Ġthu á»ĳc
à®¾à® ªà¯įà®ª
Ĥ à¹īà¸Ńà¸¡à¸¹à¸
ĠãģĿ ãģĹãģ¦
Ġà¦¬à¦Ľ à¦°
Ġpro wad
ategor ie
çĶµ è¯Ŀ
Ġà®ħà®µ à®°à¯į
Îķ Î¤
g s
Ġà°² à±ĩà°¦
Ġà§ ¬
ĠÙĩØ§ÛĮ ÛĮ
æĽ ¿
ilm esi
Ġngh i
×¨ ×§
us er
ra j
ÙĦÙħ Ø©
lar Ä±mÄ±z
// //
Ġáĥĵáĥ¦ áĥĶáĥ¡
ĠÙĥ Ø§Ø±
ĠC av
ĠAn na
Ġab it
ien cia
Ġmil es
ĠTr ang
×ķ ×ķ×Ķ
Ġg ives
×ķ×ĵ ×Ķ
Ð»Ñı ÑĤÑĮ
Ġst yl
Ġ à¸Ńà¸Ńà¸Ļà¹Ħà¸¥à¸Ļà¹Į
à°µ à°°
il ig
ĠéŁ ©
Ġà®ħ à®³
Ġswo je
áĥ¬ áĥ§
×Ļ×ľ ×ķ×ª
Ã¡ Å¾
ĠÐ¿Ð¾Ð² ÑĭÑĪ
Ġà¸Ħ à¸²
Ġà¦Ł à§įà¦°
ĠÄĳ áº§y
ĠR iver
à¤¾à¤Ĥà¤ļ à¥įà¤¯à¤¾
am ment
ĠÃ ¯
Ġh und
Ġgl ob
ĠArbe its
ÙĦÙħ Ø§Øª
as al
Ð°Ð¹ÑĤ Ð¸
ĠæĿ¥ æºĲ
Ġà¦ª à§Ĥ
ĠÑģ Ð¸ÑĤÑĥ
Ġits elf
ĠU E
ĠBl an
A I
ĠÐ²Ð¾Ð·Ð¼Ð¾Ð¶ Ð½Ð¾ÑģÑĤÑĮ
Ø§Ø¹ Ø¨
Ġm ise
Ð»ÐµÐ½ Ð¸Ð¸
Ãł m
Ġå· ²
Ġäºļæ¸¸ å®ĺç½ĳ
ĠÐ¸Ð³ ÑĢÐ¾Ð²
Ġm ellom
ĠÃ¶z ellik
à¥Ĥ à¤®
Ġexper iment
78 9
ĠÐłÐ¾ÑģÑģ Ð¸Ð¹
ĠÐ¾ ÑģÑĤÐ°Ð²
Ġw ikipedia
ĠC ost
Ġr il
Ġk ok
×ŀ× Ĺ
ĠÐ´ Ð°
å¤§ å®¶
ãģª ãģŁ
k te
ÏĢ ÏĦ
il ÉĻ
ĠáĥĴ áĥĲáĥ®
ĠÙħ Ø²
Ġen h
ĠáĥĲáĥ¥ áĥķáĥ¡
ĠÙħØ¹Ø±Ùģ ÛĮ
Ġcompr om
çĶ ²
áĥķ áĥĶáĥķ
ĠÐ·Ð´ Ð¾ÑĢÐ¾Ð²
ÑģÑĤ Ð°Ð½Ð¾Ð²
iÅŁ im
Ð¸ÑĤ Ð°ÑĤÑĮ
Ġìł Ĳ
Ġinter v
Ġm ettre
ãĥĹ ãĥŃ
à±Ģ à°ª
ÃŃcul os
ĠØ²Ùħ ÛĮÙĨÙĩ
Ð°ÑİÑī Ð¸Ñħ
Ġs Ä±k
Ġcomp at
Ġn ÉĻ
Ġíķ¨ ê»ĺ
Ġo y
ĠpÃ¡g ina
Ð°ÑĤ ÐµÐ»Ð¸
Ġà¦¬ à¦¾à¦¸
ãģ«ãĤĪ ãģ£ãģ¦
áº ¢
¡à¸ ±à¸Ļà¸
Ġnov a
ì½ľê±¸ ìĥµ
Ġà¸ §à¸´à¸ĺ
Ġv ul
ĠLe e
Å¡ en
dek lar
Ġg dzie
æľ ĭ
Ã¤ ÃŁ
p ass
Ġè¯ ¥
Ġmeng h
Ġkw al
Ġcont empor
Ġapp ropri
ĠL amp
ĠåĽ½ éĻħ
Ġro ute
ìĸ µ
Ġme zi
g eme
ĠÐ½ ÐµÐ·
Ġhac ia
Ġà¤®à¥įà¤¹ à¤£
Ġdesen volv
è´¨ éĩı
ĠìĿ Ģ
Ġrec ursos
Ġr ib
Ġà°Ĩ à°¯
ĠÐĿ Ð¸Ðº
ÙĬ ÙĬ
ud ian
le c
Ġz em
å» ¶
ÏĢÎ¿Î¹ Î®
ÏĢ Î±Î¹
Î¹ ÏİÎ½
Ġè ³
ĠØ§ÙĦØ§Ø¬ ØªÙħØ§Ø¹
à¥įà¤² à¥Ģ
Ø§Ùħ Øª
ĠÐ¼ Ð¾Ð»Ð¾Ð´
ĠAssoci ation
Ġdirect ly
ĠSe arch
Ġà¦ķà§ĭà¦¨ à§ĭ
ĠØ³ ÛĮÙĨ
Ġto ch
Ġad opt
ĠR C
er ah
ĠØ§ØŃ ÙħØ¯
r era
ĠGen el
à¥ģà¤ ĸ
ĠëĬ Ķ
å° Ĥ
Ġ×Ķ×ĸ ×Ķ
ĠÐ° Ð»
Ġt ÉĻs
T T
ĠâĢ «
ĠÙ¾ ÙĨ
Ġkom pl
æľ Ĺ
æīĭæľº çĻ»å½ķ
larÄ±n dan
Ġ×©×ľ ×Ķ
Ġap ro
ĠGi Ã¡
áĥĹ áĥĲáĥķ
¿ ł
ĠáĥĴáĥĲáĥľ áĥ¡
Ġc á»±c
å Ĺ
Ã¨ n
ler inde
Ġà¦¬ à§ĥ
Ġf ib
ĠInform ationen
à§ģ à¦¦
ĠÑĢ Ð°Ð±Ð¾Ñĩ
ĠÐºÐ°ÑĩÐµÑģÑĤÐ² Ðµ
Ġtr itur
Ñı Ñħ
Ġæ¸ ħ
æ³¨ æĦı
Ġë§ ŀ
ĠÙħÛĮÙĦÛĮ ÙĪÙĨ
Ġte ÅŁ
Ø¶ Ø§Ùģ
Ġbu ena
ĠInform ation
ĠDe z
Ġà¦ħà¦Ń à¦¿à¦
ĠØ§ÙĦØŃ Ø±
ĠA ud
ul er
Ġc ade
ĠAp art
à¦¬ à§įà¦¯
à¤¦ à¤¾
Ġc Ã¡o
ãģ£ãģ¦ ãģĦãģ¾ãģĻ
ĠÙħØ¹ Ø¯
Ġstruct ure
H R
Ġk8 å¨±ä¹Ĳ
×¦ ×ľ
ÐµÑĢ Ð¾
erv ice
b ak
Ġåħ ¥
æľĢ é«ĺ
Õ £
omm es
Ġins er
Ġìłľ ê³µ
Ġad ire
Ġà®ı à®±à¯įà®ª
ĠÎĳ Îł
ĠØª Ø¬Ùĩ
áĢº áĢ
å¾Ī å¤ļ
d is
n ict
Ġrich i
Ġju in
ĠSund ay
ÙĨØ¯ Ú¯Ø§ÙĨ
ÏĨ Î¬Î»
ĠT il
Ð¸ÑģÑĤ ÑĢ
ĠÑĤÐµÑħÐ½ Ð¾Ð»Ð¾Ð³
Ġman e
Ñı Ð³
ĠØ§ÙĦØ« Ø§ÙĨÙĬ
ĠØ§ÙģØ² ÙĪØ¯
ĠG PS
ĠrÃ© al
Ġprez zo
ĠC art
ÉĻd ÉĻn
Ð² Ð°
Ġ×Ķ×Ĳ ×Ŀ
Ġr icht
o it
deklar asjon
Ġmil yon
à®® à¯ģà®®à¯į
à¦¾à¦² à§ĩà¦°
à¤ķ à¥įà¤Ł
Ð¡ Ðļ
Ġkad Ä±n
ĠÙħØ· ÙĦØ¨
Ġopin iones
Ïĩ Ïī
ĠÄĳ áº¥u
us en
ator io
S O
AR I
Ġhá» Ĺ
ay o
Ħà¸£à¸Ķà¸´à¸ķà¸ Łà¸£à¸µ
×Ļ×ľ ×Ļ×Ŀ
ĠØŃ ÙĪØ²Ùĩ
ĠÐ² Ð¼ÐµÑģÑĤ
Ġe konom
à¹ģà¸ ķ
à´ µ
à®µ à®¿à®²à¯įà®²à¯Ī
ie ke
ĠÐ² Ð¾Ð¹
Ġar qu
ĠÚĨ Ø±Ø§
ze ÅĦ
owany ch
ning en
Ġè® °
Ġáĥĺ áĥĴ
ĠáĥĲáĥ¡ áĥĶáĥķáĥĶ
na io
Ġæ¬ ¡
ĠEx cel
à°¿à°¤ à±įà°°
ĠÐĿ Ð°Ð¿
ĠFo und
con o
c n
Ġà¸Ĺà¸ ³
áĥĲáĥ¬ áĥĺáĥļ
ĠB ien
Ġel es
ĠJ i
Ø° Ø¨
ke z
Ġs ect
Ġb ia
ĠS ize
Ġsul le
áĥł áĥĿáĥĽ
sk Ã©ho
Det ail
ĠØ§ÙĦØ¬ Ùĩ
ĠgÅĤ Ã³w
Ġfor sk
Ġcomp aÃ±
áĥª áĥĺ
ĠÙĥ ÙĨØª
Ġpan el
ĠHe ad
å¦ ¹
Ïģ Î¿ÏħÏĤ
nÃ½ m
Ġà¦¦ à§ĩà§Ł
ĠÐµ Ð¼Ñĥ
ĠK hi
ev in
ĠØ§ÙĦØ£ ÙħØ±
Ġ×ŀ× ŀ
à¦Ľ à§ĩà¦¨
Ġr ank
apt op
çĬ ¯
Ġpr osp
ĠPro v
C R
li Ã©
Ġz wiÄħz
ĠN ak
¶à¸ ģà¸
ĠIn fo
· à¸Ńà¸Ļ
Ġsi ya
à¸£à¸²à¸°à¸ «
Ġv enta
Ð¸ ÐµÐ¹
gr ess
Ġpr esso
Ġinvol ved
ĠTh ema
à¦ ģ
a ine
Ġà®ī à®¯
Ġversch ied
ÃŃ te
nÄĽ nÃŃ
´à¸ Ķà¹Ģà¸
ĠC AS
àª¾ àª
Ġà¸ŀ à¸£
Ġ×Ļ ×¢
ĠÎ¼ ÏĢ
Ġsport s
ìĿ´ ëĤĺ
T ime
IN I
Ġmemb antu
Ġha ft
à¤Ĥà¤¤ à¤°
am 8
ab ase
Ġe ye
ĠdÃ¶n em
ļà¸²à¸Ħà¸²à¸£ à¹Īà¸²
į à¸²à¸
æĺ Į
ÑĪ Ð¸Ðµ
Ġà¤¶ à¥ģà¤°
Ĭà¸µà¸ §à¸´à¸
Ġl ut
Ġed itor
ãĤ¯ ãĥĪ
Ã© li
f g
, \"
Ġin kl
å® ĩ
Ġh ou
Ġcomplet ely
on ie
Ġ×© ×Ļ×©
ĠGe orge
ĠD or
æĮ ¯
ĠS ter
Ġ à¹ĥà¸Ļ
Ã§ on
ĠAv ec
Ġ11 6
ãĤ¤ ãĥ¤
ãģĹãģ¾ ãģĨ
Ø§Ø¡ Ø§Øª
Ġê°Ļ ìĿĢ
Ġq ÉĻd
Ġdig unakan
ä»¥ åıĬ
Ġsp end
Ġc Æ°
áĥĲáĥ¡ áĥĺ
ĠåĮ ħ
ëĭ ´
S L
èĭ ¥
g una
Ġed u
ĠC ad
ä¸ ´
à°¿à° ľ
j ons
al le
Ġà®®à¯ĩ à®²
ĠÑĥÐ´ Ð¾Ð±
ĠÑĢÐ°Ð· Ð¼
ĠÎºÎ±Î» ÏįÏĦÎµ
ãĥ Ĵ
Ġáĥ¨áĥĶáĥĽ áĥĹáĥ®áĥķáĥĶáĥķ
ek om
ĠÙ¾Ø±Ø¯ Ø§Ø®Øª
Ġz iy
æľº æŀĦ
ĠØ¬ ÙĨÚ¯
ĠS W
ä½ľ çĶ¨
«à¸ ķà¸
ĠØ§Ø ¸
ĠÑįÑĤ Ð¸
Ġk endi
ĠS os
ç į
Ġist if
Ġintern acional
ÙĪØ± Ø´
×Ľ ×Ķ
áĥĲáĥľ áĥ¢
à°¿à° ļ
ĠSa at
Ð¼ Ð°Ð½
Ġåı Į
ĠH oll
le k
ĠíĮ Ĳ
Ġc ï¼Ĳ
ĠMon te
ama is
ĠT Ã´i
ĠSport s
Ġ"] =>
Ø±Ùĥ Ø²
éĽ £
a ign
Ġà®¨ à®¾à®Ł
éĢī æĭ©
×Ļ×Ľ ×Ķ
che id
ĠH ong
Ġjen is
ĠS ong
ĠN ou
ãģĵãģ¨ ãĤĤ
ĠÑĢÑĥÐº Ð¾Ð²Ð¾Ð´
Ġre pa
ĠmÃ¼ ÅŁ
å°ı æĹ¶
Ġber main
ĠArgent ina
æ¢ °
Ġr ig
Ġkj Ã¸
ĠBar b
æ» ļ
si eme
ì Ĥ
à°¾à°² à°¿
Ġâ ī
Ġtrad itional
ĠéĿ ¢
ãĤı ãģĳ
Ħ à¸£à¸²à¸°à¸«
æº ĸ
us c
o is
Ġof icial
Ġac ces
ĠC ase
à¤ķ à¤¾à¤°à¥Ģ
ÃŃ me
¡ à°¿
Ġà®µà®¿à® ³
ĠÐ´ÑĢÑĥÐ³ Ð¸Ðµ
Ġsl ow
Ġà®ļ à¯ĩà®°
Ġà¤° à¥ģà¤ª
ĠÐ¿ÑĢÐ¾ÑĦÐµÑģÑģ Ð¸Ð¾Ð½
ĠÐ±ÐµÐ· Ð¾Ð¿Ð°Ñģ
Øµ Ø§ÙĦ
k ÅĤad
Ġpr end
ä¼ļ è®®
ĠÙħØ´Ø§Ùĩ Ø¯Ùĩ
ĠÐĵÐ»Ð°Ð² Ð½Ð°Ñı
Ġà¦¶ à§įà¦°
ĠÐºÑĢ Ð¾Ð²
ĠÏĢÎ± ÏģÎ¿Ïħ
Ġnoss a
ĠS V
ĠG on
ĠCom un
or re
Ġë² ķ
ĠØ§ÙĦØ¬ ÙĨ
Ġf ÃŃs
Ġ Ø§Ù¾
ãĤ Ĩ
Ã¤hr end
IN O
Ġà° §
ĠØ¨Ø±Ú¯ Ø²Ø§Ø±
ĠÎ¬ ÏģÎ¸
à±Ģ à°²
à°³ à±įà°²
Ġlapt op
Õ¡Õ ¬
ĠÎ³Î¹Î± ÏĦÎ¯
H U
ĠìĿ Į
ĠÙ¾ ÙĦ
ĠØ§Ø¨ ØªØ¯
Ġdest ek
Ġal Ã©m
ĠÐ¿Ð¾Ðº Ð°Ð·
Ġt ÉĻh
Ġm Ã³
ev ap
Æ°Æ¡ i
ĠÐ¿Ð¾Ð¼ Ð¾Ð³
Ġv ivo
ĠUnter nehmen
ul le
Ġà¹ģà¸ ¥
Ġmasy arakat
Ġarr ang
ĠN OT
à¤¡à¤¼ à¤¾
ual i
ĠMod ern
ĠFren ch
ĠØ¨Ø§ÙĦ Ø¥
ĠÎł ÏģÏĮ
ÑĢÐ°Ð½ Ð¸Ñĩ
Ġà¤ķà¤° à¤¤à¤¾
Ġant ara
m us
ek et
ar ab
Ġ/ ?
Ù ł
×¨×Ľ ×ĸ
ro bi
Ø§Ùħ ÛĮÙĨ
ĠÎ² Î¿
ie v
Ġhel ps
lan an
ÛĮØ¯ Ø§
ĠÑĢ Ñĥ
Ġz one
ĠáĥĽ áĥĺáĥĸ
áĥĲáĥĵ áĥĿ
ic les
Ġà¤ķà¤¾à¤° à¤£
ç» §
áĥĽ áĥĶáĥĵ
à®® à¯įà®®
± à¹īà¸Ļà¸
ak Ä±
Ġin izi
Ġdu Å¼
âĢľ ãĢĳãĢĲ
ØŃ Øª
Î½Î¿Î½ ÏĦÎ±Î¹
Ġplay ing
à¦°à§įà¦ ·
Ø§Ùħ Ø§Øª
Ġg iving
æįķ é±¼
Ġo gr
9 00
Ġäºļç¾İ am8
Ġstor ies
ãĥ¼ãĤ· ãĥ§ãĥ³
Ä±r s
Ġìĭ ¬
Ġwo j
åĢ ĳ
à° «
à®Ļà¯įà®ķà®³ à¯Ī
ĠJ ed
Ġinstall ation
Ġdom u
Ġ à
×¨ ×¡
st ed
Ġf iz
ĠSal v
ķ áĢ
Ġà®ĩ à®²
Ġv ib
Ġlok al
ĠÏĢ ÏģÎ¹Î½
Ľà¸ ´à¸Ķà¸
à¤ı à¤¸
ãģ¹ ãģ¦
ĠmÃºs ica
Ġbaj o
Ġë¬¸ ìłľ
Ġä¸ ª
Ġáĥĺáĥľ áĥ¢
Ġprot agon
Ġ5 åĪĨ
and Ä±r
Ġìļ ´
ĠrÃ© c
ĠØ® ÙĪØ§ÙĨ
Ġtr anh
Ġ; -
le j
ĠÎķ ÎĽ
áĥłáĥĺáĥķ áĥĺ
ra Ã§Ã£o
ĠS B
ĠØ´ Ú©ÙĨ
ĠBo ard
ĠáĥĲáĥ® áĥļ
ĠÙħØ±Ùĥ Ø²
Ġm Ã¸
ĠInd ian
æĹ©é¤Ĳ åĬłçĽŁ
Ġìĭľ ê°Ħ
Ġalgun s
ĠPro vin
ar at
Ġìļ ©
ĠH ill
ãĥ ´
Ġd azu
Ġch ocol
ĠÐ¿ÑĢÐ¾Ð´ Ð¾Ð»Ð¶
ĠÐ´Ð¾ÑĢ Ð¾Ð³
ĠÐ³ Ð°Ð·
Ġju egos
Ġå® ĺ
Ġgr adu
ĠCha ussures
ow ana
f as
ĠØ§ÙĨ ÙĤÙĦØ§Ø¨
Ġmen o
Ġmo eten
Ġ Ä±
èµ· æĿ¥
á½ °
à¹īà¸Ńà¸ ¢à¸
ĠÐ·Ð°Ð½ Ð¸Ð¼
à¤¤à¥Ģ à¤¯
ĠÚ¯ Ø±Ùħ
Ġconf igur
Ĥà¸²à¸ ¢à¸
Ġste ht
Ġpost o
ugh t
æľĢ å¤§
Ġà¦¦ à§ģà¦ĩ
Ġuyg un
Ġc abe
à¦¾à¦¨ à§ĭ
Y 2
ĠØ¯Ú© ØªØ±
ĠV ER
ĠØ¨Ø§ÙĦ ÙĨ
ĠÙħØ±Ú© Ø²
Ġout ro
èĪ ¹
Ã¶ s
ĠØ¬Ø§Ùħ Ø¹Ùĩ
Ġseg ment
Ġof re
Ġest amos
ç ŀ
h atan
ĠìĤ ´
ĠÚ©Ø§Ø± Ø¨Ø±
ä¼ģ æ¥Ń
à°°à±įà° µ
ĠØŃ Ø¬Ùħ
Ġu003 e
Ġh uge
Ġfin ans
ĠO ber
UL T
ìĹ Ĩ
Ġà¤¸ à¥Ĥ
ĠÎł Î±Î½
ĠÎ¤ Î¹
Ġká» ¹
Ġinf rast
Î²Î¬ ÏĥÏĦÎµ
za j
Ġfir my
ĠÐ¸Ñģ ÑģÐ»ÐµÐ´
çİ° åľ¨
áĥ£ áĥĲáĥļ
d al
ĠNg Æ°á»Ŀi
Ø§Ø¦ Ø¨
Ġà¤¹à¥ĭ à¤Ĺà¤¾
Ġà¤¬ à¥įà¤°
Ġmater ia
· à¸
ac aktÄ±r
ĠÐ½ Ð°Ð³
Ġembar go
íĻ ľ
à®µ à®°
Ġ×Ļ ×Ĺ
k Ã©
Ġmuch as
m ont
ing e
ĠÐ¼ ÑĥÐ·Ñĭ
Ġt Æ°Æ¡ng
ĠáĥĲáĥ Ĵ
Ġsc ale
ĠìĿ´ë Ł
Ġtho áº¡i
à§įà¦ §
Ġà¦Ĩà¦Ĺ à§ĩ
ĠsÃ¶ y
Ġbest en
à¯ģà® Ļà¯įà®ķ
Ñĩ ÐµÑģÐº
m t
ĠÛ° Û°Û°
ĠÏĢ Î±Î½
×ķ×ŀ ×Ļ
ic ano
Ķ ëĭ¤
Ġroz hod
åĿ Ĺ
sk y
Ġãĥ¬ ãĥĩãĤ£ãĥ¼ãĤ¹
ĠO tt
Ġ, '
Ġverschill ende
Ġv ou
ik u
Ġtro is
Ġresult ado
Ġd ÉĻy
ĠÚ© ÛĮ
Ġ. ;
i ente
Ġæĸ ¹
Ġm Ã³w
ĠP OL
ë§ Ŀ
ãģ µ
áĥĺáĥ¡ áĥĹáĥķáĥĺáĥ¡
ĠÙĪ Ø§Ø³Øª
Ġand roid
Õ ¬
itt ed
ĠÎķ Î¯Î½Î±Î¹
áĥĲáĥ Ń
ĠÏĦÎµÎ» ÎµÏħÏĦÎ±
Ġsp or
ÎŁÎ ¤
ĠØŃØ³ ÙĨ
ĠV á»Ľi
ĠC es
ĠåŁ º
Ø§ÙĬ Ø¯
Î½ Îµ
st re
å¤§ æĪĺ
us ing
pe z
Ġpart ecip
ĠVers ion
à¦¾à¦§ à§įà¦¯à¦®
ub er
iz ado
Ġbar n
uz z
Ġf elt
Ġpar c
Ġ198 9
ØªØ± ÙĪÙĨ
Ð¸ ÐµÐ²
l Ã¡
d el
Ġáĥ¡áĥĲáĥ®áĥĶáĥļ áĥĽ
ĠbÄĻd Äħ
çŃ ĳ
æĤ ª
ĠN ic
Ø¬ ÙĨØ©
ĠáĥĹ áĥ£áĥĽ
ĠProbl em
ĠBit coin
Ġà¦ħ à¦¸
ĠÃī t
ä»ĭ ç»į
po ol
Ġthan ks
Ø« Ùħ
ĠÐ¿Ð¾ ÑįÑĤÐ¾Ð¼Ñĥ
Ġthem selves
ĠTot al
ire ct
ĠáĥĻ áĥĺáĥĵ
Ġlim ited
ĠPri x
ÎĻÎ ¤
Ø§Ø¶ Ø±
Ġh va
Ġqual itÃł
ĠN ag
Ġ( $(
à§ĭ à¦°à§įà¦
W _
Ġkom mer
ì¶ľìŀ¥ ë§ĮëĤ¨
ob i
à¹Ĥà¸ ¢à¸
ĠÅ¡ kol
æ¯ Ĵ
m em
Ġà¦ħà¦¨ à§įà¦¯
Ġwirk lich
Ġmas a
Ġdan h
Ġco ordin
k amer
Ġà°ª à°¾à°°
Ġà®ª à¯ģà®¤
Ġrequire ments
à¥ĩà¤ £
Ġl áº¥y
Ġdel ic
ë ĥ
Ø§ØŃ ÙĦ
ĠÑĢ ÐµÐ¼Ð¾Ð½ÑĤ
×Ļ×ĵ ×Ķ
et ah
Ġà¤ķ à¥įà¤°
ne ws
åĳ ¢
à¥ĩà¤Ĥà¤¦ à¥įà¤°
à¤ Ľ
anne er
ĠØ· ÙĦØ¨
åĮĹäº¬ èµĽè½¦
la f
bet es
ĠÑĢ ÐµÐ´
Ġvel mi
IT A
ĠV id
Ġw ol
Ġprodu it
á»ĵ m
× ģ
ÄŁ in
Ã¼r Ã¼
ro te
g eg
Ġet t
ĠA IJ
å¸Į æľĽ
áĥĲáĥłáĥ ©
us se
Ġszy b
ëŀ ĳ
×ĸ ×§
ĠáĥĽáĥĿáĥ ®
ĠØ¹ Ø¯
æłĩ åĩĨ
ĠØŃ Ø¬
Ñģ Ð¸Ñħ
ui Ã§Ã£o
ec ie
Ġí ŀ
Ġìŀ Ħ
ĠL uis
éĩĳ èŀį
çĶ¨ æĪ·
ãĥķãĤ© ãĥ¼ãĥł
Ø§Ø¯ Øª
Ġsim ples
à¯ģà®ķ à®¿à®©à¯įà®±
H S
çĹ Ľ
à¤Ĥ à¤¸
ĠÙħÙĩ ÙĨØ¯
ĠáĥĽ áĥĲáĥĽ
ĠÙĨØ¯ Ø§Ø±Ø¯
ë§ Ľ
r and
Ġm ÉĻr
áĥ¬ áĥĺáĥ¤
Ġst re
Ġde ber
Ġà®¤ à®°
Ġà¤Ĺ à¥ĭ
Ġgro ot
ĠT able
ĠJ ud
éĽ ·
ĠA udio
Ġstr ength
Ġelect ric
Ġcomp re
ĠS ens
ici ente
ĠNam un
à®¨à¯įà®¤ à¯ģ
N Y
à´¿à´ ¯
Î¼ÏĨÏīÎ½ Î±
ĠÄĳ áº£m
Ġv Ã¦rt
Ġpl ug
Ġìĭľ ìŀĳ
Ġb ater
à¹īà¸ ³à¸
Ķ à¹Į
Ġì² ĺ
Ġà¤ªà¥ģà¤² à¤¿à¤¸
Ġperm ite
W S
Ġum um
èĲĦ äº¬
ì £
Å¾ en
Õ¥Õ ½
Ġà¦¹ à¦¾à¦ľà¦¾à¦°
Ġà¤° à¤¾à¤·
Ġg it
ãģĻãĤĭ ãģ¨
ÙĦ ÙĪØ¨
Î¼Î± ÏĥÏĦÎµ
ĠÙĨÙĪØ´ ØªÙĩ
à¯įà®¨à¯įà®¤ à¯ģ
ÏģÎ· ÏĥÎ·
lar e
ĠØ´ÙĨ Ø¨Ùĩ
ĠÐĲÐ»ÐµÐºÑģ Ð°Ð½Ð´
Ġvis ita
la uf
ĠØº Ø±Ø¨
Ġkh áº£
Ġen fer
um es
Ġåį ĥ
ĠM ust
¸ à¸Ļà¸
im on
Ġê¸° ìŀĲ
ĠG Ã¶r
z ek
Ġmil li
Ġdevelop ed
ĠU se
ik at
ÏģÎ³ Î±Î½
ĠÐ½Ð°Ñĩ Ð¸Ð½
à¸²à¸ ¡à¸
ie p
Ġmet er
à¤°à¥įà¤ ¦
Ġgra zie
ĠL itt
Ġsym bol
ĠE ÄŁ
ĠÐ¿ Ð°ÑĢÑĤ
Ġd agen
à¦¨à§įà¦ ¡
Ð» Ð°Ð½
urs a
ĠìĦľ ë¹ĦìĬ¤
Ġne u
Ġäº İ
Ġ×Ĵ ×ĳ
åħĪ çĶŁ
Ġatt ach
×ķ×¤ ×Ķ
Ġko ÅĦ
ĠPe ople
Î» Î¹Ïĥ
ĠOdp owied
ĠEm p
áĥķ áĥĺáĥļ
ĠØ§ÙĦ Ø§Ø¹
Ġ2017 å¹´
à¤® à¤¾à¤¨
I AL
ĠìĿ´ë ²
Ġä»Ĭ å¹´
ĠÑĥÐ² ÐµÐ»Ð¸Ñĩ
ĠÎµ ÏĨ
Ġà®® à®¾à®¤
Ġà¦ħ à¦°à§įà¦¥
Ġ×©×Ķ ×ķ×Ĳ
ĠMil an
ĠF inal
ent u
ĠDe us
æĪĲ åĬŁ
ĠÐ¿ÑĢÐ¾ Ð¸Ñģ
Ø² ÙĨ
Ġprime ira
Ġmin imal
Ġd ikk
æĸ ¼
Î¸ ÏģÏİ
ä¸ª äºº
à®µ à®°à¯į
ĠØ§ÙĦ ÙĪÙĦ
Ġbir th
ĠLeb ens
OR E
Ġà¤¹à¥ģà¤ Ī
Ġejem plo
P ress
ĠÐ¾Ð± ÑĭÑĩ
ĠÎ¿ÏĢÎ¿ Î¯Î¿
Ãºbl ica
Ġji Å¾
Ġorganiz ation
Ġcamb i
ĠD ra
b ind
U rl
Ġà¦Ł à¦¾à¦ķà¦¾
Ã¶ ÃŁ
men o
ĠØªØŃ ÙħÙĬÙĦ
Ġr áº»
Ġpo ol
ÏĢÎ¿ Ïį
ant or
anj ut
Ġm ission
ĠU V
ĠE g
Ġt Ã½
Ġmin ute
Ġal co
åĭ Ŀ
ket s
æĬ Ĺ
Ùİ Ø§ÙĦ
ĠD J
à¹Īà¸ ¡à¹Ģà¸
ÐµÐ» Ñİ
Ġì² ľ
ĠÐ²Ñģ Ñĳ
Ġener gi
Ġ!!! !
èį £
ç» Ŀ
å© ·
Ġgo es
Ġgi áº£
Ġg arden
Â ¡
Ġtechni ques
é¡ ĺ
à¤ľ à¥Ģ
ÏģÏī ÏĥÎ·
pp ed
Øµ ÙĪØ±
ĠB este
ĠìĬ¬ ë¡¯
ĠØ¨Ø§Ø´ ÛĮØ¯
Ġbul unan
ãĥ¼ãĤ ³
Ø¨ÙĬ ÙĤ
ĠÎŃ ÏģÎ³
Ġleg ge
æĽ´ æĸ°
Ġteng o
Ġpare ja
©à¸ ±à¸
Ġschn ell
Ġ12 00
ÅĤ Ã³w
Ġà°¤ à±Ģà°¸
áº© u
ach ten
Ġadi ars
Ġìķ ½
Ġl Æ°u
Ġ3 A
ê° Ŀ
Ùĳ Ùı
Ġà¸ Ĥà¸
Ġkel uar
Ġab ord
ĠW asser
un y
pt ion
h ot
Ġcar atter
ĠB ru
Ø³ Ø·
Ġd iri
åĲ ¯
¢à¸ §
ĠU ma
à°· à±įà°Ł
Ð½ Ð¸Ð²
Ð» Ð¾Ð¼
ĠØ¨ ÙħØ§
ĠNet work
ĠÑĢÐ°Ð· Ð´ÐµÐ»
ĠÎĳ ÏĢÎ¿
Ð¾Ð· Ñı
ĠãģĿ ãģĨ
Ġcom men
ĠÙĨÙĤ Ø´
Ġs Ã©cur
Ġmemp er
ÑĢ Ð¾Ð½
à¹ĥà¸«à¸į à¹Ī
ÐµÐ» ÐµÐ¼
ĠD os
ĠÑģÐ¾ ÑĨÐ¸Ð°Ð»ÑĮ
Ġmul ai
Ġdes e
it ura
ĠÙģ Ø§ÙĦ
Ġu Ã§
Ġ3 d
yt k
iÃªn cia
g nost
Ġl ider
Ġ] ;
A v
Ġecon Ã³m
Ġd l
ĠTr ad
áĥĶáĥłáĥ ķ
à¹Ģ à¸Ļ
uran Ã§a
Ġà´ ¨
iet en
Ġà®İà®© à¯į
ĠespaÃ± ol
ĠT imes
è¿ĺ æĺ¯
unc il
Ĥà¸Ńà¸ĩ à¹Ģà¸
ĠCh ÃŃnh
åĩ ¯
Ġä¸ĸ çķĮ
Ġag äºļæ¸¸
Ġë¯¸ êµŃ
eg li
ik en
ar Ä±m
ĠÙ¾Úĺ ÙĪÙĩ
æĬ ĺ
Ġto ho
Ġp ec
ET A
uj o
Ġpu es
à¤ļ à¤¾
is Ã©
ir se
Ġà¤¬ à¤¦
Ġih ned
ĠT out
ĠÕ¸ ÖĤ
Ġfl ash
ĠEx per
à¨ ¨
G S
ĠãĤ± ãĥ¼ãĤ¹
ĠØ¹Ø¶ ÙĪ
ĠB la
×ķ×¨ ×ķ×ª
Î³ ÎµÎ¹
Å¼e j
es c
Ġlie u
ĠK ey
ĠG olf
ĠÚ©Ø±Ø¯ ÙĨØ¯
Î¼ÎŃÎ½ Î¿Ïħ
al n
ĠìĤ ¼
Ġch am
ĠIm age
ĠAl f
çĹ ĩ
áł łáł
à®µ à®°à¯įà®ķà®³
ĠØ§ÙĤØªØµ Ø§Ø¯
ĠÄ° z
Ġch ose
Ð¸ÑĩÐµÑģÐº Ð¾Ðµ
ĠíķĦ ìļĶ
ĠK osten
li ance
ENT E
Ġà¦¨ à§ĩà¦ĩ
Ġop era
ĠCr oss
áĥĶáĥĳ áĥĶáĥĳáĥĺ
ÙĪØ² ÛĮ
Ġãĥ į
ĠÃºlt ima
áĥĵ áĥĿáĥĽ
Ùİ Ùĳ
Ġ. /
å¤Ħ çĲĨ
ĠØ§ÙĦØ³ Ø§Ø¹Ø©
Ġà¦° à¦¹
Ġintern ation
ĠT ER
Ø§Ø¡ Ø©
od er
ĠÏħ ÏĢÎµ
Ð ĸ
Ġà¤ļ à¥ģà¤¨
ĠlÃŃ nea
ÅĤ at
ĠÏĥÏħ Î³Îº
Ġqu Ã½
ÏĪ Îµ
Ķà¸ ³
à¸Ļà¹īà¸ ³
h us
ĠÏĦ Îµ
ĠãĤ Ī
à®Ł à¯įà®ļ
b z
Ã¼y or
Ã¼ ler
Ġà¤ī à¤¤à¥įà¤¤
ĠbÃ¶ y
Ø¬ Ø¹
ĠÎ´ Î¿
áĥ¥ áĥĿáĥľ
ri x
oss a
à¦¾à¦° à§Ģ
Ð¾Ð² Ð°ÑĤÐµÐ»ÑĮ
Ġà¦Ĩà¦ª à¦¨à¦¾à¦°
Ġcin co
ĠA j
éĢ Ļ
ĠM Ã¼n
Ĳ áĢ
Ġà¤ī à¤¦
Ġsou ha
ĠNo ir
ĠáĥĽ áĥĻ
Ġan nÃ©es
u esto
ìł ¸
à¯Ĥ à®°
10 æľĪ
ĠØ³ ÙĦ
Ġpict ures
Ġmul her
ĠVoc Ãª
ãĥ³ãĤ Ń
Ġà¤Ĩ à¤Ī
à±įà° ·
Ġåı¯ ä»¥
ĠÐľÐ¾ÑģÐºÐ² Ð°
ÏĦÎ¿ ÏįÎ½
ĠØ± Ø¨
ĠÑı Ð½
à¥ĩ à¤¹
ÑĢ Ð¾Ð¹
ĠØ¨ØŃ Ø«
r ico
Ġà¨ ¹
Ġalg u
Þ¨ Þ
f est
Ġs Ä±n
Ġinst rument
ron om
æ¬¢ ä¹Ĳ
Ã¡ f
Ġng he
ĠMar ie
ur re
ĠÑģÐ¾ÑģÑĤ Ð¾ÑıÐ½
Ġè ±
Ġser r
à¥ĩà¤ ¯
Ġinv ece
Ġí Ī¬
Ġáĥ¡áĥĲáĥ ¤
à°ªà±įà°ª à±ģà°¡à±ģ
à¤Ł à¤°
ĠØ²ÛĮ Ø§Ø¯ÛĮ
Ð¾Ð» ÐµÐµ
Ġæ ¼
Ġå® Į
ĠÚ© Ø³Ø¨
Ġqual che
Ġb ola
Ġ×ľ×ŀ× ©
Ġhay at
ãģ ¥
ĠéĿ ŀ
Ġter r
á ¼
est ro
Ġï¼ į
ĠØµ ÙĦÙī
à¸Ńà¸ ±à¸
Ġd rei
ĠP ada
à¤ļ à¥Ģ
ri al
alÄ± dÄ±r
Ġà®ķ à®¿à®Ł
Ġman ual
ÙĤ Ùī
Ġx in
Ġg Ã¥r
lo ok
ĠAr k
à´ ¸
Ġn or
n an
ĠSp an
à¤¾à¤¸ à¥įà¤¤
à¤¾à¤¤ à¤¾
art i
ĠN y
à¹ģà¸ Ĥ
ong eng
ı à¸
Ġèĩª åĪĨ
Ġris p
ĠE rot
ÐµÐ½ ÐºÐ¾
h eden
ĠÐĹ Ð°Ð¿
íķ ´ë
åº «
Ġà¤īà¤¨ à¤ķà¥ĩ
ĠR T
à¥įà¤°à¥Ģ à¤¯
Ġju ego
ko op
ÙĴ ÙĨ
ÙĤÙĬ ÙĬÙħ
Ġáĥĳ áĥł
Ġl á»±a
Ġdru h
à° ¥
Ġç¤ ¾
ĠP ast
Ġ ä½ĵ
ell as
ãĥķ ãĥ¬
Ġà°ħ à°§
ĠÚĨ Ø´Ùħ
h men
Ġr ien
ru it
p ot
il et
ĺà¸ ¸
ĠwÃ¼r de
Ġloc aliz
Ġtrad ition
ÏĥÏĦÎ· Î¼Î±
Î¼ Î¯Î±
nost ÃŃ
Ġc á»¥
ÎĳÎ ľ
Ġå½©ç¥ŀ 8
Ġtr Æ°á»Łng
ÑĦ ÐµÑĢ
o ff
ĠÑģÑĩ ÐµÑĤ
Ġren ov
Ġgr ado
ĠÐ² Ð¿
Ġing redi
Ġc est
ic on
ê² Ģ
szy ch
Ġd ÉĻr
ĠQu esto
à®² à®¿à®²à¯į
Ð°ÑĢ Ñĭ
Ġé£ Ł
ĠØ§ÙĦÙħÙĨØª Ø¯Ùī
if at
Ġë¬´ë £Į
ĠÐº ÑĥÐ»ÑĮÑĤ
ĠN ok
áĥ£áĥłáĥ ¡
Ø¹ Ø§Ø¯Ø©
ÎĻÎ Ķ
Ij oi
ĠíĬ ¸
Ġà¦¬à¦¿à¦Ń à¦¿à¦¨à§įà¦¨
Ġatrav Ã©s
ĠSatur day
ĠB uy
Ñģ Ð¾Ð½
st up
Ġqu elle
Ġdepos it
Ð» Ð¾Ð½
ĠØ· ÙĪØ±
ĠÎķ Îł
Ġm áº«u
Ġlib er
Ġjed och
ĠCh em
w ord
å¨±ä¹Ĳ åľº
ĠÙĨ Ø´Ø±
Ġmed iante
Ġf amos
ĠMil li
ĠDep artment
ÅĽ wiad
Ġdep end
emb ali
Im age
Ġ11 3
Ġst oria
Ġgod t
Ġà°ī à°Ĥà°¡
Ġdesc rib
ĠC reat
ĠáĥĽ áĥĿáĥĴ
ĠØ§ÙĦØ¨ ØªÙĩ
Ġsl ik
å° ½
Ľà¸¥ à¸µà¹Īà¸
Ġåı £
ĠÚĨ ÙĪÙĨ
Ġdem ande
ĠÑĨ ÐµÐ½Ñĭ
Ġf ans
å¯ Ħ
Ġr ond
å®ŀ çİ°
à¤¡à¤¼ à¥ĩ
ĠG L
n in
Ġlu áºŃt
ĠT A
Ġcomfort able
ĠG h
ãĥģ ãĥ£
out er
IV E
D O
Ġê·¸ ëŁ¬
Ġdefinit ely
ĠN ev
ÉĻh ÉĻr
èŃ ĺ
ia go
Ġst Ã¸r
Ġmaxim um
Ġbers ama
Ð¾Ð¶ ÐµÑĤ
ec ido
Ġè¯ ´
Ġvar ia
ĠSin ce
à¤°à¥įà¤ ļ
Ġr Å¯
ev ere
Ġk anyang
ĠTh Ãłnh
Ø¶ Ø§ÙĨ
Î»Îµ Îº
Ġà¦¬ à¦¿à¦ķ
Ġser ious
à°Ł à°¿
ÎµÎ¹ Î±ÏĤ
¨ ÐĲ
Ġà¦ī à¦¦
ĠØ§Ø® Øª
Ġà®ħ à®ªà¯įà®ª
Ġble ib
ĠJ ava
à°¿à°¤ à±ĩ
Øº ÙĦ
imm t
AR A
ĠÐ¼Ð°Ð³Ð°Ð· Ð¸Ð½
Ġmeng en
Ġdr iver
Î» Î¹Îº
Ġt á»ĳi
ion a
ĠáĥĹáĥ£áĥĽ áĥªáĥĲ
ĠÙħ ÙĤØ¯
Ġproy ecto
ĠM ul
ÙĪ ÛĮÙĨ
×ł ×§
ac Ä±
ĠÐľÐ¾ÑģÐºÐ² Ðµ
ĠÎ´ Ïħ
Ġru im
Ð½Ð¾ÑģÑĤ ÐµÐ¹
Ġë ¥¼
ĠÙĬ ÙĪÙĨ
à®¿à®¯ à¯ĩ
×¤ ×ľ
B l
ĠÎ± ÏĢÎ±
Ġf Ã¼hr
Øº Ø·
Ġà¦° à§Ł
Ġà¤¤ à¥ģà¤®
Ġto e
7 00
ĠØ§ÙĦØ£ÙĪÙĦ Ùī
Ġg ave
ĠRes erv
æĶ¹ éĿ©
Ġáĥŀ áĥĲáĥ¢
Ġmy self
Ġgro ÃŁ
áĥĿáĥĳ áĥĲáĥ¨áĥĺ
à¸£à¸ ĸà¸
Y T
ĭ à¸µ
Ġåĵ ģ
Ġform ation
Ġc Ãłng
ĠE mail
ĠØª ÛĮ
ĠReg ion
Ġà¦¨ à¦¤
åº Ĭ
Ġav alia
ĠR ose
áĥĶáĥĽ áĥĳ
ĠÑĨ ÐµÐ½Ð°
Ġal ue
N T
ĠìĿ Ħ
Ġé ¾
ĠdoÄŁ ru
à§ĩà§Ł à§ĩ
à¤ķ à¥ĭà¤Ĥ
Ø§Ø´ ÛĮ
Ġíķ Ń
ĠdÃ© f
Ġ×Ļ ×ľ
ĠG eme
Ġà¸ªà¸ ¹à¸
Ġs iden
ĠìĦł íĥĿ
ĠL ike
ĠK amp
ch y
ĠæĿ± äº¬
Ġà¤°à¤¾à¤ľ à¥įà¤¯
æĶ¿ æ²»
Ġorganiz z
į ng
Ġuns erer
ÎŁÎ ł
aix o
ĠÙħØ¬ÙħÙĪØ¹ Ùĩ
ĠÐŀ Ð¿
ĠyaÅŁ am
Ġpat tern
ĠBlu etooth
Ġ10 80
¡ å¸ĥ
ĠÐĹ Ð°
ĠR AM
g etti
ĠÙħØ¬ÙħÙĪØ¹ Ø©
åıĳ çĶŁ
à¯Īà® ®
ĠÏĦ ÏģÎ¿
ĠÎºÎ¬Î½ ÎµÎ¹
Ġmuk ha
Ġd ort
ĠY orum
ÑĢ ÐµÐ²
a Ã§
ĠáĥĽáĥĺáĥĽ áĥĲáĥłáĥĹ
Ġà¤Ĩ à¤®
ĠØ§ÙĦÙħ Ùĥ
ĠØ£Ùħ Ø§Ùħ
Ġà®ļ à®¨à¯įà®¤
ĠÚ©Ø§Ø± Ø´ÙĨ
åį ±
U U
ĠÐļ Ð¾Ð»
é¡ »
ä¸ĩ åĨĨ
ĠÐ» Ð¸Ð½
Ġk ek
áĥľ áĥĺáĥ¨áĥķ
à§ģà¦· à§įà¦ł
n io
Ġok ol
Ġ Æ
ĠÐŁÐ¾Ñģ Ð»Ðµ
ĠH á»ĵ
à§ĭ à¦ļ
Ġr y
Ġmed i
à¤¶ à¥Ģ
Ġà§ Ń
Ġj uni
Ġform ul
ĠW H
ìĿ µ
se ite
enn es
2 000
Ġà¦ķà¦° à§ĩà¦Ľà§ĩ
ĠØ§ÙĦØ´ÙĬ Ø®
ad el
ĠÐ¼ ÐµÑĢ
Ġto Ã¡n
Ġk s
åıĳ çİ°
Ġactiv ity
ĠP ant
ÙĨ ØªÛĮ
ĠÑĢÐ°Ð· ÑĢÐ°Ð±Ð¾ÑĤ
Ġdest ac
à®ļ à¯į
Ġclar o
é² ģ
áĥĺáĥĻ áĥĲ
Øª ÙĪÙħØ§ÙĨ
Ġreal mente
_ col
Ġsle ep
×ķ×¤ ×Ł
Ġëª¨ ëĵł
ĠÙħØ¹ ÙĦ
unt os
ĠprÃ³ ximo
3 D
Ġ×© ×ŀ
Ġblo od
ãģ« éĸ¢
it is
ek te
ãģ¿ ãģŁãģĦ
à®¿à®¯ à®¿à®©à¯į
Ħà¸ °
ĠÎµÏħ ÏģÏİ
Ø³Ø± Ø§Ø¦ÙĬÙĦ
Ħà¸ ·à¸Ń
ĠH onda
å¤§ åİħ
áĥĲáĥĹ áĥķáĥĺáĥ¡
ÄĽ k
ãģªãģ© ãģ®
Î¯Îº Î·
ĠÐº Ð°Ð½
Ġvez es
Ġmis ma
æ¡ ¥
Ùİ Øª
Ð¾Ð½ Ð´
Ġdu as
Ġbud ou
áĥĶáĥ¥ áĥ¡
Ø¬ ÙĨ
ipp ing
ĠÎ¶ Î·
Î³ÏģÎ± Î¼Î¼Î±
Ġãģ ¡
Ġver ir
Ġtr ata
Ġtet api
Î¼Î¿ Î½
ĠÙħÙħ Ú©ÙĨ
Ġfin ish
ĠAn y
ment ar
Ġà¤¸à¤¿à¤Ĥ à¤¹
Ġtrou ver
å®īåįĵ çīĪ
ĠÑģ Ð¸Ð¼
ese hatan
Ġç ¡
ĠÐ¼ÐµÑĤ Ð¾Ð´
ĠR ES
à¸£à¸²à¸ Ĭà¸
à³į à²
Ġà¦¬à¦¿à¦ ľ
Ġv ui
Ġsett ing
ĠO c
ĠF arm
ãĤ¸ ãĥ£
à¸Ļà¸µ à¸
m ot
Ġå¤§åıĳ æŀģéĢŁ
ĠØ§ÙĦØŃ ÙĥÙĪÙħØ©
à¦ĵ à§Ł
· à¸Ńà¸ĩ
ĠÙ¾ Ø°
ĠØ®Ø§Øµ Ø©
Ġemer gen
Ġ... "
å¼Ģ åıĳ
Øº Ø§ÙĨ
à°¾à° ¶
er int
ĠnghÄ© a
Ġin a
à¯Ĭ à®°
ĠØ· Ø¨ÛĮ
Ġl aten
Ġ" ),
à¥ĩà¤¤ à¥įà¤°
ĠÙħÙĪ ÙģÙĤ
Ùİ Ùī
ÏīÎ½ Î¹Ïĥ
Ã¨ mes
el ho
×ŀ× ĳ
ÎŃÏģ Î½Î·
Ġh ver
ĠÙĥ ØªØ¨
Ġmel h
Ġ25 5
Ġà®¤ à¯ĭ
Ġmag n
à® ľ
ug o
ic er
f un
Ġáĥ¨áĥĶáĥ £áĥ
ĠÐĴ Ð¾
ľà¸¥à¸ ´à¸ķà¸
Ġd v
ÎµÎ¯ Î¿Ïħ
ah u
Ġg t
Ġfr anÃ§
Ġdis s
ĠW ild
áĥ£áĥ ¢
æº Ģ
Ð¾Ð¼ ÐµÐ½Ð´
Ġcomp ra
ĠëĶ° ëĿ¼
Ġgeld i
à§İ à¦¸
Ð»ÐµÐ½ Ð°
ªà¸ ¡
ĠÑĥ ÑģÑĤÑĢÐ¾Ð¹
ĠP ÅĻÃŃ
åı ¬
ĠÑĢ Ð°Ð²
Ġau c
ÉĻs inÉĻ
S el
Ġcor so
è¿ Ŀ
ãģĪ ãģ°
à°¿à° Ĺà°¾
55 5
ĠÙĪØ² ÙĬØ±
ĠÏĥÏĩ Î¿Î»
Ġtoll deklarasjon
Ġroz p
Ġj amais
Ġ( ).
Ġà°ªà±įà°° à°Ń
ĠÆı liy
Ġl t
à¦° à¦¿
Ø§Ùģ ÙĬ
ĠL iter
ec o
c d
Ġles b
áĥĲáĥķ áĥĲáĥĵ
r ost
len ÃŃ
ĠPubl ished
ĠAd emÃ¡s
à¸Ńà¸ ±à¸Ļà¸
Ø®Øµ ÙĪØµ
Ġpar king
Ġ×ľ ×¨
ĠPart y
íķ´ ìĦľ
«à¸ ¢à¸
2 50
Þ° Þ
Ð°ÑĤ Ð¾ÑĩÐ½Ð¾
D P
ĠÏĥÎ· Î¼Îµ
ç» ĥ
ŀà¸ ±à¸
ĠN ur
ĠQu est
à¤¾à¤¦ à¥Ģ
Î»Î± Î¼Î²
on os
ĠÃ¸ nsk
Ġsu oi
Ġment re
à¯Īà®ķà¯įà®ķ à¯ģ
r ive
ĠÙĤ Ø§Ø¨
Ġre act
fe ito
cz enie
Ġé Ń
Ġspos Ã³b
Ġ2 C
å¹ ¸
à®Ł à¯į
Ġåĩ¯åıĳ ä½ĵèĤ²
Ġpel os
Ġo ud
ãģŁ ãĤĬ
st Ã¼t
eb ab
ap ia
ĠÙģ Øª
Ġv ente
ĠC Z
ÛĮ Ø·
Ħ à¹Ī
Ġwy p
Ġhakk Ä±nda
ĠfranÃ§ ais
ĠSch ul
ì¶ľìŀ¥ìĥµ ìĺĪìķ½
×¤ ×¡
11 1
Ġ×Ķ×ŀ× ª
ĠÐ´ÐµÑĢ ÐµÐ²
ĠÅ¾ Ã¡d
Ġpujc ka
Ġest aba
ĠÙħÙĨ ØªØ¯Ùī
Ġt iá»ĩn
à¹ģ à¸Ńà¸
Ħà¸ ³à¸
Ġáĥ¢ áĥł
Q u
Ġà®ī à®±
Ġseg uridad
Ġpart i
ĠMer cedes
æĹ §
Î¼ Î¼
ĠØ¨Ø± Ø§ÙĬ
ĠØ¨ Ø³Ø¨Ø¨
Ġd ne
Ġà¹Ģà¸ §à¸¥à¸²
ĠAnk ara
ĠÚ©ÙĪØ¯ Ú©
Ġ×ŀ×ŀ× ©
Ġ17 5
ãĤĤãģĹ ãĤĮ
æĻº èĥ½
à°¯ à°Ĥ
ĠÙĪ ÙħØ§
ãĥ ¦
b 3
ĠãĢĳãĢĲ ï¼ļ
Ġpal ab
Ġentr ada
ĠPr ost
à¹Ģà¸Ĥ à¹īà¸²
in form
ch as
ÄŁ raf
Ġåĩ ¤
ĠP OR
Ã§ u
åĪ¶ åº¦
ÏĢÎ¿Î¯ Î·ÏĥÎ·
ole h
Ġåİ »
ĠH Ã¶
ĠÎļ Î¿
ĠÅ ĵ
ĠFl ash
à¥ĥ à¤·
amp u
Ġà¦ĩà¦¸à¦² à¦¾à¦®
Ġy áº¿u
Ġp enting
Ġáĥ¡áĥĲáĥĶ áĥłáĥĹ
ĠØ¹ Ø§ÙĦÙħ
Ġ×Ķ×Ĳ ×Ĺ×¨
ĠÐ¿ÑĢ Ð¾Ð¿
Ġcult ur
æĺ¯ çľŁçļĦ
ĠÙ¾Ø±ÙĪ ÚĺÙĩ
Ġ5 50
ÉĻy ÉĻ
Ġë ¯¼
Ġz ah
Ġ11 9
ÎĹ Î¤
est is
Ġì° ¾
ĠÎĶÎ¹Î± Î²Î¬ÏĥÏĦÎµ
ĠDes de
åľ ³
Ïĥ Î®
Ã¡m ara
b d
ĠÐ¿ ÐµÑĩ
Ġalc uni
ĠCor por
ĠØ§ÙĦØ¹Ø±Ø¨ ÙĬ
ĠG as
å¡ Ķ
h ang
æ¼ı æ´ŀ
ĠØ§ÙĦØ¹ ÙĨ
ĠK az
ĠT ol
áĥĵ áĥľáĥĶáĥľ
à¦¦ à¦¿
Ïĥ Î¹Î¬
Ġdec ided
Ġb á»ĳ
app y
ĠØ± Ø§Ø¨Ø·
Ġap Ã³s
ìĪ ľ
Ġà®ª à¯ĩà®ļ
ĠS icher
ëŀ ¨
h aps
ad ow
ĠÃ© d
ĠAut hor
Ġsel ama
Ġm itt
Ġà®ħ à®²à¯įà®²
Ġ×ª ×Ĺ
Ġgen au
Ġan aliz
Ġà¸ ľà¸¹à¹īà¸
ĠEn de
Ġsup ply
Î»Î· Î¼Î±
ŀà¸ §à¸
Ġà¤Ńà¤¾à¤° à¤¤à¥Ģà¤¯
Ġincor por
ĠÙĪÙĩ Ø°Ø§
K T
Ġà¦¨à¦¤ à§ģà¦¨
ĠØ¨ Ø§Ø³Øª
ĠÐĹ Ð´
Ġs aran
áĥĶáĥĳ áĥĲáĥ¨áĥĺ
ĠÃ¢ m
ing t
Ġæ³ ¨
ĠÐĴ Ð°Ñģ
Ġs od
Ġin nen
×ª ×Ĺ
pp o
eb er
Ġà¤«à¤¿à¤² à¥įà¤®
ĠØ¢ ØºØ§Ø²
Ġle i
«à¸¡à¸ Ķ
Ġd Ã¡
×© ×ĳ
D C
áĥĵ áĥĶáĥľ
Ġper ÃŃ
Ġ9 18
Ġand ers
ĠG em
áĥĿáĥĵ áĥĶáĥ¡
ĠåĽł ä¸º
Î¾ Ïį
m F
Ġà®Ĩ à®°
Ġwed ding
áĥĲáĥĹ áĥĲ
Ġà®ļ à®°
Ġcult ural
ÉĻl ÉĻ
Ġê²ĥ ìĿ´ëĭ¤
ĠåĽ ¾
ĠÃ© Ã©n
Ġr Ãµ
Ġkl as
ers i
Ġáĥĵ áĥłáĥĿáĥ¡
g ua
Ġz ost
Ġãĥ ľ
Ġsh irt
áĥłáĥĴ áĥĲáĥľ
Ġì¹ ĺ
Ġà¤ª à¥ģà¤°
ĠØ§ÙĨØ¯ Ø±ÙĪ
ç± į
Ġéĵ ¶
ĠÙħÛĮ Ø²Ø§ÙĨ
ĠÙ¾ ÙĪØ´
Ġw ÅĤas
ber ry
Ġpod staw
ĠfÃ¸r ste
ØªØ± Ùĥ
Ġattrav erso
h im
Ġ×ľ ×ĺ
ĠWo od
ĠPAR A
éĿ Ļ
éĻ Ħ
åľ Ī
ĠS MS
ĠMond ay
ĠØŃ ÙĬ
ĠØ´ÙĩØ± Ø³ØªØ§ÙĨ
Ġthink ing
Ġk iedy
ëĲĺ ëĬĶ
ç¿ Ĵ
Ġdesarrol lo
ĠAng el
Ġsal le
Ġprogram me
ĠE th
ç¥ Ŀ
Ġd ÅĤug
ĠÙħ Ùı
ĠÄĲ á»©c
ĠF ur
Î¿ Î³
¥à¸ ±à¸
Ġáĥ¡ áĥĺáĥĽ
Ġ×Ľ ×ŀ×Ķ
Ġpr endre
ĠØ§ÙĪ ÙĨ
Õ¶Õ¥ÖĢ Õ«
ÑĪ ÐµÐ³Ð¾
ĠåĬł æĭ¿å¤§
Ġst ati
à¹Ģà¸£à¸µà¸ ¢à¸
ĠáĥĶáĥłáĥĹ áĥĲáĥĵ
ĠÙħØ´Ú© ÙĦØ§Øª
om ini
Ġê° ģ
Ġk ier
ãģ ŀ
ĠØŃ ÙĪ
Ġkar ar
ĠÐ´ Ð½ÐµÐ¹
Ġsci ence
Ġprod utos
Ġh Æ°á»Łng
ĠAn ne
×ķ×© ×Ķ
ÙĪÙĦ ÛĮ
Ġáĥĳ áĥĲáĥķáĥ¨
ĠØ§ÙĦØ§ÙĤ ØªØµ
Ġann unci
ĠAd am
é İ
Ã¤ng er
et ic
ĠD U
à®¿à®ķà¯įà®ķ à¯ģ
_ 1
H N
ĠáĥĴ áĥĲáĥ£áĥ
ĠÑħ Ð¾Ñĩ
P M
ĠÑĢ ÑıÐ´
Ġv inden
à¤ ĥ
ĠÐ¸ Ð´Ðµ
it Ã¤
Ð» Ð¸Ñı
Ġeff ort
ãĤµ ãĤ¤ãĤº
ond ere
Ġtá» ©
æĢ» ä»£
à¤ľ à¥ĩ
ĠÎ£ ÏĦÎ¿
c Äħ
an ter
åĲĪ ãĤıãģĽ
å¾® ä¿¡
à±ĭ à°¤
ĠáĥĽ áĥĺáĥĶáĥł
Ġre in
ĠÑĤÑĢÐ°Ð½ ÑģÐ¿Ð¾ÑĢÑĤ
Ġy Ã¼
Ġpe ÅĤ
Ġsex y
ÑģÐº Ð°
en st
ĠÐ¿Ð¾ Ñħ
Ġd ll
áĥĶáĥłáĥ Ľ
ÙİÙĨ ÙĴ
ä¼ Ŀ
×¤ ×ķ×ª
ad amente
d as
Ġfamil ia
Ġbas ic
Ġad il
ĠT ecn
ĠPr int
áĥ£áĥłáĥ ľ
Ð°Ð» Ð¾Ð²
ĠÉĻs as
Ø§Øª Ø±
ĠIl l
Ġ- %
åħ¨ éĥ¨
ĠÐĲ Ð´
Ġsich er
Ġred es
ĠP ur
å¤ļ ãģı
à±įà°¯ à°Ĥ
Ġç ±
Ġà¤ Ī
ĠgÃ¶ nder
çĶµ èĦĳ
aix a
Ġå Īĺ
×¨×Ľ ×ª
ĠÐºÐ¾ÑĤÐ¾ÑĢ Ð¾Ð¹
Ġr ust
ail ability
ĠëĨ Ĵ
Ġby ch
ĠPed ro
Ġ12 2
ĠáĥĽ áĥĶáĥĿ
ĠØ§ÙĦØ¨ ØŃØ±
ĠR ek
ĠÐ»Ð¸ÑĪ ÑĮ
ĠdÃ¶v lÉĻt
à¹Ģà¸£à¸µà¸ ¢à¸Ļ
O f
ĠáĥĻ áĥĲáĥľ
ĠÑģÑĢ Ð¾Ðº
Ġlu ego
ĠS AN
å° İ
ĠÐ¾Ð±ÑĬ ÐµÐºÑĤ
Ġw inter
Ġ22 5
×¦ ×Ķ
Î¼Î¿ Ïģ
ĠØ¢ÙĨ ÙĦØ§ÛĮÙĨ
ĠwiÄĻ ks
Ġinterest ed
å® Ĺ
Ðŀ Ðŀ
ĠH á»Ļi
ce an
ĠÙħ ÙĲÙĨ
ĠÏĦ Î¯
Ġmog Äħ
ĠÙĤ ÙĦØ¨
ĠÄĳ Ã¢u
Ġsp re
Ġdost ÄĻp
à¤¡à¤¼ à¥Ģ
Ġt áº£i
Ġin ch
Ġcolle ge
ĠSu ites
à¹īà¸ ĩà¸
ke hr
ĠåĲ ī
ĠÙģØ±ÙĩÙĨÚ¯ ÛĮ
Ġkom men
Ġfant ast
ig ne
ç¿ »
Ġà¦ªà¦° à¦¿à¦ļ
ĠØ§ÙĦØ¹ ÙĤ
Ġro ot
Ġra yon
ä¼ ´
à¹Ĥ à¸Ńà¸
Ùħ ÙĬ
ar p
Ġpopul ation
ĠPerson al
íķĺ ë©°
éĺ ª
×ķ×Ĺ ×ķ×ª
ĠÚ©Ø§ÙĦ Ø§
Ġdiv ert
áĥĶáĥ ¨áĥĺ
´à¹Ģà¸ Ħà¸£à¸²à¸°à¸«
ac c
Ġj orn
Ø§Ø¨ Ø§Øª
ÑĢ Ð¸ÑģÑĤ
ot i
av er
Ġol sun
Ġmin ister
Ġf ff
ãģ£ãģ ±
Ø± Ø±
ĠÐ²Ð¾Ð· Ð½Ð¸Ðº
Ġsu f
Ġn er
Ġcir cu
Ļ à¯įà®ķà®³à¯į
Ġinc ome
Ġhe at
ĠPok ud
ov Ã©ho
ĠìĺĪ ìķ½
Ġáĥ¨ áĥĿáĥłáĥĺáĥ¡
Ġà¤ª à¤¾à¤¸
Ġi ba
Ġgj Ã¸r
Ġe arn
ĠLoc al
ĠÙħØ¨ Ø§Ø´
ĠÐ´ Ð°Ð»
Ġà®ħà®µ à®°à¯įà®ķà®³
Ġi ets
ĠÐ¿ÐµÑĢ Ðµ
Ġslu Å¾
Ġh orm
à¦¾à¦¨ à¦¿
Ø§ÙĨ Ø§
p ed
Ġê· ¼
ĠU z
ĠMe er
Ġperson ne
ìĹĲìĦľ ëĬĶ
ĠãĢĳãĢĲï¼ļ ãĢĳãĢĲ
×Ĵ ×¨
cri be
ĠÄĳo Ãłn
Ġáĥ¡áĥĲáĥ®áĥĶáĥļáĥĽ áĥ¬áĥĺáĥ¤
ĠÏĮ ÏĢÎ¿Ïħ
Ġst em
Ġka Ã§
ØŃ ÙĨ
ĠÐ¿ÑĢ Ð¾Ð¼
Ġsel on
è· ĳ
ĠÐ¿Ð¾Ð¼Ð¾Ñī ÑĮÑİ
ÏĦÎ¹Îº Î¿
ÏģÎ¹ Î¸
Ġris petto
Ġcontact os
Õ¸ÖĤÕ©Õµ Õ¡Õ¶
Ġcommer ci
æ¸¸æĪı å®ĺç½ĳ
ÄĽ r
ĠÄĳ áº¡t
Ġbu at
ãĤī ãĤĮãģ¦
kon omi
ª à¹Īà¸ĩà¸
Ġï ¿
Ġman ager
ĠN go
ĠN ame
èģ ļ
à¹Ī à¸Ńà¸
Î´ Î¿ÏĤ
ĠÙģØ± Ùħ
ĠÎŃÎ½Î± Î½
Ġy ox
Ø¶ ÛĮ
Ġd rop
çĥ Ī
ira z
ëıĦ ë¡Ŀ
è¦ ³
ĠáĥĲáĥ® áĥĲáĥļ
ĠÐ¾ÑĤÐº ÑĢÑĭÑĤ
Ġq ur
ĠkiÅŁ i
ĠM ik
Ġ12 7
æł ĳ
W V
ĠÙĪ ÙĦÙħ
Ġsuccess ful
Ġch or
Øº ÙĬ
ly wood
BO OK
Ġï¼ī ãĢĤ
Ġexperien cia
ĠØ§ÙĦØª Øµ
ì¶ ķ
ç§ ĭ
ĠÎĿ ÎŃ
áĥľáĥĺáĥ¨áĥķ áĥľáĥĶáĥļ
à®ªà¯įà®ªà®Ł à®¿
Ø¨Ø§Ø´ Ø¯
Ġãģ ł
Ġkur ul
Ġar d
ĠJ ug
çĸ «
Ð°Ð» Ñĭ
ri Ã¨re
ĠÐŀ ÑĢ
Ġd ynam
ĠWest ern
èĢĥ ãģĪ
ol ta
ä¸Ģ äºĽ
il ah
Ġad idas
ĠÑ ī
ĠÐº ÑĥÑĢ
à¤ª à¥ģà¤°
n ienia
h Ãµes
Ġáĥł áĥĲáĥĽáĥĵ
Ġcon to
Ġt d
ĠMult i
Î¸ ÎµÎ¹Î±
Z S
Ġu ÄŁ
Ġtek st
ane j
ĠS to
Ġä¼ Ĭ
áĥĶáĥĳ áĥĽáĥĲ
ĠØ£ Ùģ
ĠÎ± Î¹
Ġs otto
ĠìĨ Ĳ
Ġà¦¹ à¦¤à§ĩ
ĠÐ½ Ð¸Ñĩ
ÙħØ§ÙĨ ÛĮ
ÏĨ ÏīÎ½
ĠØ« ÙĦØ§Ø«
ĠEduc ation
ĠB Ã¼
ÅĦ ski
Ġáĥķ áĥĺáĥľ
ĠÙ ¢
æĿ¥ çļĦ
ĠSil ver
Ġkl ik
Ġ: .
è¿Ľ åħ¥
æĸĻ çĲĨ
à®Ļà¯įà®ķà®³ à®¿à®²à¯į
ÑģÑĤÐ² Ð¾Ð¼
ģà¸ §à¹Īà¸²à¸
[...]
