#version: 0.2
á »
á º
n g
É Ļ
Ġ d
Ġ t
e s
á» į
Ġ c
Ġ a
Ġ Ä
áº ¹
Ã ©
Ã «
Ä ±
n h
e n
l e
Ġ n
ĠÄ ĳ
Ġ i
Ġ o
Ã ł
Ġd e
Ã ¼
Ġ b
o s
o n
Ã ¡
r e
Ġ k
ÉĻ r
e r
Æ °
i e
l a
Ä ĥ
á»į n
Ġ ,
Ġt h
Ġ p
h o
Ġt i
i n
Ġ .
a n
w á»įn
Ġ v
t i
Ġ w
Ġ l
Õ ¡
Å Ł
Å Ĥ
Ġ Ã
Ġ e
Ġ h
Ġ m
Ġ s
Ġ Â
i á»
Ä ģ
o w
c h
g b
Ġt r
Õ¡ Õ
Ġ Õ
Ä± n
o u
Ġ z
Ġc h
Ġ le
Ġn i
i r
u n
Ġ nh
g y
Ä Ļ
á ¹
Ã ¤
Æ° á»
a r
á¹ £
l o
i s
Ġa wá»įn
Ġ A
áº ¡
ï ¿
ï¿ ½
Ġ -
Ġ f
Ä ħ
ÉĻ n
ï¿½ ï¿½
Ġ y
áº ¿
Ġ I
l u
Ġa ti
Ġ la
o r
Ġ j
Ã ´
Ġ á»į
Ã ³
Ä «
Ġ S
i l
Ġ T
q u
t e
Ġs i
Ã© s
Ġ 2
Ġ O
Ġ g
Ġ á¹£
t s
Ġ 1
Ġ r
Ö Ģ
la r
Ġ N
ar a
p a
Ġ M
Ġ gb
c z
Ġla ti
Ã ª
e l
Ġ :
y e
Ġw a
j u
Ġ B
d i
Ġ áº¹
t a
áº £
Ġn a
â Ģ
Ġt Ã«
Ġf un
b i
r a
Ġk h
d e
l ÉĻr
Ġ P
Ġá¹£ e
gb a
k o
Ġ (
y i
u l
d a
á¹£ áº¹
Ġ ng
Ġ )
Ġ E
b a
Ġt o
Ġ K
Ġ L
Ġ G
Ġ C
r o
Ġk i
k á»į
m á»į
Ġ âĢ
w o
ï¿½ï¿½ ï¿½ï¿½
Ġ2 0
w a
ĠA wá»įn
d o
Ġr áº¹
á» Ļ
Ġ J
r i
d ÉĻ
Ġj áº¹
Å ĳ
k e
l áº¹
Ä ĵ
Ġk o
Ġ F
áº ¥
Ġ D
p á»į
en t
or i
o o
gb e
Õ ¸
l i
n i
t o
Ġk an
Ġp h
s i
k an
p o
gb o
h un
w á»į
Ã ¢
áº¹ lu
Ġb a
Ġp e
Ġ R
w e
Ġt a
Ġl áº¹
Ã ¶
Ġ 3
j a
m i
Ġb i
Ġ W
y a
á» ĳ
in u
Ġp a
Ġ ?
Ġp áº¹lu
Ġ20 1
ĠN i
k a
p e
k i
Ġd i
á» Į
Ġ /
n a
Ġ H
á¹£ e
Ġ "
h e
Ġ wá»įn
Ã Ń
u r
iá» ĩ
ĠÃ ®
Ġ '
Ã ¬
Å ¼
m a
Ãª n
ti on
Ã´ ng
ĠÃ® n
Õ ¥
Õ ¶
Ä Ł
Ġ un
Æ ¡
s z
l ÉĻ
á» §
i t
Å Ľ
Ã ½
m ÉĻ
Ġs z
áº Ń
s t
Ġe t
Ġv Ãł
a re
Ã¡ s
Ġun d
ou r
Ã« r
Ã §
i a
Ã¡ l
ĠâĢ Ļ
u ng
ĠÄĳ á»
Å ¡
È Ľ
r z
Ġ q
Ġ Ãł
Ġe in
t t
Ġv á»
c i
Õ «
Ö Ĥ
Ġv ÉĻ
Ġ qu
Ġ Î
Î ±
Ï Ħ
Î ¿
Î ¹
Î µ
Î ½
Ï ĥ
Ï ģ
Ï Ģ
Ï Ĥ
Î ·
Ï ħ
Ġ ÏĦ
Î »
Î º
Î ¯
Î ¼
Ï Į
Î ¬
Î¿ Ïħ
Ġ ÏĢ
ĠÎ º
Ġ Ïĥ
Î Ń
ĠÎ ±
Ï ī
Î± Î¹
Î ®
Î ³
Ï ĩ
ĠÎ µ
ĠÎ ¼
Î¹ Îº
Î¹ Î±
Ï į
Îµ Î¹
Î ´
Ï Ĩ
ÏĦ Î±
Î ¸
Ï İ
ÏĦ Îµ
ĠÏĦ Î·
ÏĦ Î¿
ĠÎ ´
Ïģ Î¿
ĠÎº Î±Î¹
ĠÏĦ Î¿
ÏĦ Î·
Ïģ Î±
ĠÎ ½
ÏĢ Î¿
Ïĥ Î·
ĠÎ ³
Ïģ Î¹
ĠÏĦ Î¿Ïħ
Î¼ Î±
Î½ Î±
Î¯ Î±
ĠÎ ¿
ĠÎ½ Î±
Ïī Î½
ĠÎ¼ Îµ
Î ²
ÏĦ Î¹Îº
Î½ Î¿
ĠÎ± ÏĢ
ĠÎ Ń
Ġ 0
Îµ Î¯
ĠÎº Î±
Î ¾
ÏĦ Î¹
ĠÎ ĳ
Îµ ÏĤ
Î¯ Î½
Î¼ Îµ
ĠÏĦÎ· Î½
Î» Î¿
ĠÎ³ Î¹Î±
ĠÎ±ÏĢ ÏĮ
Ġ ÏĮ
Î ¶
Î± Î½
ĠÏĦÎ· ÏĤ
ĠÎ ł
Ġ Ïĩ
ĠÎ ķ
ÏĦ Î¬
ĠÎ ļ
d d
Ġa z
d z
Ġde r
áº §
Ä Ľ
Ġi á¹£áº¹
Å ¾
l Ä±
Ġ en
y an
s h
r in
Ġp o
l á»į
Ġd ie
Ġ x
Ã¡ r
r á»į
Ġ ho
Ġi n
Ġf i
t á»į
Ġl o
a s
Ġni pa
Ġy i
b o
Ã¡ c
Ã¼ n
j á»į
o m
Ġl ori
Ġa la
Ġm i
Ġd a
à ¸
Ġo hun
ê ŀ
êŀ Į
Ì £
Ä ĩ
e m
Ġl Ãł
t Ã«
Ġd es
Ġ 5
áº¹ n
Ġn inu
k un
Ã¡ n
r u
Î¿ Ïį
ĠÎ ¸
Î ĳ
0 0
ĠÏĢ Î¿Ïħ
Ïİ Î½
ÎŃ ÏĤ
ĠÎ ¤
Ïģ Î¬
Ġ 4
ĠÏĦ Î±
ĠÎ ·
Î¹ Ïĥ
ĠÎ £
ĠÎµ ÏĢ
Î» Î»
ĠÏĥ ÏĦÎ¿
ÏĦ Î±Î¹
ĠÏĥ Ïħ
ĠÎ ľ
ÏĦ Î®
ĠÏĢ ÏģÎ¿
Îµ Î½
Ïģ Î¯
Ïĥ ÎµÎ¹
Ġ ÏĨ
Î¹ Î¿
Î¿Ïħ Î½
ĠÎ ²
ÏĦ ÏĮ
Î Ł
Ïģ ÏĮ
Î Ļ
ĠÃ ·
ĠÏĥ Îµ
Î¼ ÎŃ
. .
Î± ÏĤ
w y
j i
Ġm a
Æ°á» Ŀ
Ġ á»Į
Õ¸ ÖĤ
ÉĻ t
f i
Ġi le
e g
Ġgb a
Å «
Ġm áº¹
Ġl á»į
Ã ¨
Ġth á»
Ã© g
È Ļ
d Ä±
t en
Ã³ w
Å Ĩ
Ġ Ã©s
Ľ i
Õ¡Õ ¶
ÉĻ s
Ġl es
Ġn Ã«
z i
Î¼ Î¿
Î¬ Î½
Ġy n
Ġt á»
m u
Ġy oo
a l
an i
t u
Ġ Y
s áº¹
Ġ ï¿½ï¿½ï¿½ï¿½
d u
Ġa ye
Ġgb o
s e
u y
r an
Ġt á»įn
Ġd ara
in i
Ġa ra
á»įn a
Ġs o
Ġ U
k u
r áº¹
Ġgbo gbo
áº¥ t
Ġta bi
Ã© n
b e
a m
Ġi á¹£
ar i
Ġna a
y in
Ġ 6
Ġs á»į
a t
ĠâĢ ľ
es e
b áº¹
Ġd o
Ġa n
il áº¹
Ġe yi
Ġa w
Æ°á» £
c e
á¹ ¢
Ġn u
j o
j e
ĠT i
d un
ĠM o
m o
Ġo f
Ġo lu
Ġ á¹¢
h in
i g
u s
Ġs e
áº¡ i
t un
a a
Ġá¹£ i
Ġm u
r un
Ã º
Ø §
d ir
Ġa u
Ġp rz
e k
Ġg i
Õ¥ Õ
d ÉĻn
m e
Î¯Î½ Î±Î¹
ĠÂ ¬
ĠÏĥ ÏĦÎ·
ĠÏĢ Î±
Ïģ Îµ
ĠÎ± Î½
Î¿ Î»
ĠÎ »
t h
t Äģ
Ġc á»§
y ch
ÖĢ Õ
Õ¸ÖĤ Õ
ÉĻ k
v e
Ġ es
Ġcá»§ a
ie m
Ġm Ã¼
Ã© r
d er
Ġz a
Ġde l
ĠÃ §
ĠÎµ Î¯Î½Î±Î¹
Î ķ
Ġ Ð
ĠÎ Ķ
Ïī ÏĤ
Ïĥ Îµ
ĠÎ± Ïħ
Îº Îµ
Ġ Ïħ
Î¿ Î½
Î £
Ïģ Î³
Î» Î±
Î» Î·
Î» Îµ
Î½ Î·
ĠÎ Ł
ĠÏĢ Îµ
ĠÏĦ ÏīÎ½
ĠÎ¸ Î±
ĠÎ ¬
ĠÏĦ Î¹
Ï Ī
Ġ ;
y n
Ġ 8
n u
Ġe l
Ġc Ã³
Ġt un
Ġ %
Ġk e
i yan
Ġn o
áº ¸
d á»į
ou s
Ġn á»į
p in
ow o
t áº¹
h r
Ġ re
c k
Ã ²
Ġw y
Ù Ħ
Ġt ÉĻ
o l
ĠÄ Ĳ
Ġ Ã©
Ä į
Ã £
n e
Ä ¼
Ġ Ã¼
Ġc u
Ġm eg
t y
ÉĻ l
Ġ V
on e
t an
Ġm o
á» ĭ
ï ¼
Ġw i
Ġa ko
Ġ 7
? ?
ã Ģ
Ġa a
Ġi f
Ġm e
Ġr i
ĠM a
ir an
ir i
Ġe gy
Äģ s
Ġo n
Ġo wo
Å £
ent ru
ul á»į
Ġi s
Ã¬ nh
Ġ 9
gb á»įn
gb ara
Ġo ju
Ã ¹
ch t
a u
Ġo l
n ie
c a
d en
áº ¯
Ġp our
Ã¡ t
c u
Ġk a
la n
Ġ !
is i
Ġj u
ÅĤ a
áº¿ t
h an
Ġk u
v i
Ġnipa sáº¹
b u
j áº¹
t er
in e
Ġá»į má»į
Ġm á»į
b b
Ġd ÉĻ
gb áº¹
Î® ÏĤ
Ïģ Î·
Î¿Ïħ ÏĤ
ĠÏĦÎ¿ Î½
Ïģ Ïī
Ġ =
ÏĥÎ· ÏĤ
Î¸ Îµ
ĠÎ´ Î¹Î±
ĠÏĥÏĦÎ· Î½
ĠÎ ®
ÎŁ Î
Î¹ Î¬
Î´ Î¿
ĠÎ± ÏĢÎ¿
ÏģÎ¹ Ïĥ
ĠÏĦÎ¿Ïħ ÏĤ
Ïĩ Îµ
Î¹Îº ÏĮ
ÏĥÎµÎ¹ ÏĤ
Îº Î±
Î ¤
ĠÎ´ ÎµÎ½
Î¸ Î·
Ïĥ ÏĦÎµ
Î Ĺ
Ïĥ Î±
ĠÎ ĵ
Î½ Îµ
Ġ &
ÏĦÎ± Î½
ĠÎ Ĺ
Ïģ Ïİ
Ïģ ÎŃ
Ïĩ ÎµÎ¹
Î¯Î± ÏĤ
Î Ŀ
ÏĨ Î¿
ĠÎ¼ ÎŃ
ĠÎ Ŀ
Ïĥ Î¹
ĠÏĦÎ¹ ÏĤ
ĠÂ °
ĠÂ »
Î ¡
ĠÎµ Î½
Ġa r
á» ¯
Ġo ni
on u
Ġen iyan
g un
Ġn ie
s ch
Ġp Ã«r
z e
Ġ |
Ì£ n
Ġp ar
Ġni gba
Æ ı
Ġl i
Ġh e
ĠB a
Ġj ulá»į
g a
áº¹ ráº¹
m áº¹
Ġo r
lar Ä±n
Ã¢ n
Ġ á»įna
Ġi gba
Ġb o
Ġy in
Ġáº¹ rá»į
Ġdi áº¹
Ġi di
Ġi we
Ġ1 0
Ġk á»į
s o
wa ju
á¹£ i
Ġes t
á» ±
k áº¹
Ġc om
Ġy e
e re
h a
f áº¹
Ġd á»į
ĠL a
Å ¥
ĠâĢ Ŀ
b er
Ġt áº¹
g e
g o
y áº¹
os o
ĠÄ °
es i
v a
ĠB i
ĠI n
à ²
Ġyi i
g i
áº¿ n
d ara
á¹£ a
Ġa ká»į
ĠT o
or o
Ġj a
Ġy a
Ġ. ..
Ġj i
Ġ áº¸
on i
w u
Ġpa ta
Ġ1 9
Ġb e
Ġo ri
Ġ u
y á»į
h i
w he
k oso
âĢ Ŀ
Ãł n
Ġk Ã¶
Æ°á»£ c
Ġi gb
Ġw áº¹
il i
Ġ1 2
pá»į lá»į
Ġi da
Ġako ko
Ġp u
on a
s a
Ġi pa
in a
Ġw on
Î¼ Î¬
ĠÐ ł
ÏĦ Î¯
ĠÎŃ Î½Î±
ĠÎµ Îº
Î¹Îº Î®
Î± Ïĥ
Î¿ Î¹
Î¼ ÏĮ
ĠÎ± Î½Î±
Î¬ Ïģ
ĠÎ¿ Î¹
ĠÎµÏĢ Î¹
y d
à ¤
á¹£ u
Ġt e
gbe gbe
Ġgb e
f e
Ġá»į ká»į
o ng
qu e
Ġá»į já»į
Ġ ï¿½ï¿½
Ġa i
re e
a d
Ġ ãĢ
Ġf áº¹
ur u
f a
Ġpata ki
j ara
Ġ â
Ġa p
Ġa gbara
Ġ1 1
Ġi p
ĠN a
Ġi d
Ġ å
u gbá»įn
t or
Ġf a
t ori
w i
Ġi má»į
pá»įlá»į pá»į
É Ľ
ã ģ
ĠO lu
lu jara
á» ¥
Ġi bi
ÃŃ t
Ġg a
Ġb ir
Ġá»į rá»į
Ì Ģ
á» ©
Ġz u
Ã¼ l
Å Ļ
z y
Ġd u
Ġc Ã¡c
Å¡ an
Å ±
Ġg Ã¶
an s
Ġsi ÄĻ
Ã¼ r
ÈĽ i
Ġs h
á»Ļ t
Ġho gy
Ġi r
li ch
ĠÎ ¹
ĠÏħ ÏĢ
ĠÎº Î¬
2 0
Î¼ ÏĢ
ĠÎ ¾
Î¹Îº Î¬
Ïĥ ÏĦ
ĠÂ «
ÏĦÎ¹Îº ÏĮ
Î» Î¬
Î¼Î± ÏĦÎ±
Î»Î¿ Î³
Î»Î» Î¬
ĠÏĮ ÏĦÎ¹
ÎŃ Ïģ
ĠÏĥ Î±ÏĤ
ĠÎµ Î¯
Î¼ Î·
Îº Î¿
Îº ÏĮ
ÏĢ Î±
ÏĦÎ¹Îº Î®
ÏĦÎµ ÏĤ
Ïĥ Î¿
Î» ÎŃ
Ġ gy
o v
t re
in in
eg o
á» ĩ
Ġ ÅŁ
b an
Ġc on
Ġd as
Ġkh Ã´ng
y m
Ġi z
j Ã«
y y
Ã© k
Ä ¾
ĠÎ¤ Î¿
ÏĦÎ± ÏĤ
ÏĦÎ¹Îº Î¬
Î» Î®
ĠÏĢ Î¿Î»
Î ļ
Îµ ÏĦÎ±Î¹
ĠÎ¼ Î¹Î±
Î´ Î±
ĠÎµ Î¾
ÏĦÎ¹Îº ÎŃÏĤ
ĠÎ Ĵ
ĠÏĢÏģÎ¿ Ïĥ
ÏĦÎ¿ ÏĤ
Î¿Ïħ Î¼Îµ
Ïģ Î®
ĠÎ Ļ
ÏĦ ÎŃ
Ġ \
ĠÏĥ ÏĦÎ±
Â µ
y dd
Ġc ho
m ent
g en
Ã¤ Ã¤
Ã© l
j Äħ
Ãł y
ja s
Ġ ÉĻ
Ġm it
Ġd in
t Ã©
Ïį Î½
Ġ >
ĠÎºÎ± ÏĦÎ±
f f
n ÃŃ
b en
iá» ģ
Äģ r
ĠÃ ¶
Ġj e
Î³ Î¿
Î ł
w w
ÏĮ ÏĦÎµ
ĠÏĢ Î¿
Ïĥ ÏĦÎ·
Î± Î»
ĠÏĥÏħ Î½
ÏĮ Î½
ĠÎ¼ Î±
Î³ ÏģÎ±
Î¼ Î²
ÏĢÎ¿ Î¹
Î¬ Î»
Ïģ ÎµÎ¯
Ġ0 0
Î´ Î¹Î±
ĠÎ±Ïħ ÏĦÏĮ
Ġ <
e th
lo r
á» Ł
in dÉĻ
t Ã¤
Å¼ e
Ġn em
Ġp er
k s
Ġv on
Ġun e
z t
Ġd he
tt p
ĠÎ¼ Î±ÏĤ
/ /
Îµ Ïģ
Î¹ Î½
Î Ľ
ĠÏĥ ÏĦÎ¹
ĠÎ ¶
Ġ: //
Î± Ïģ
ÏģÎ¹ Î¿
ĠÏĢÎ± ÏģÎ±
ĠÎ¼ ÏĢÎ¿
Î· Î½
Îµ Ïħ
ÎµÎ¹ ÏĤ
Ġ1 5
Ġw ww
Îµ Î»
Ġh ttp
Ïį ÏĦÎµ
1 1
Î³ Îº
ĠÎ §
Î¸ ÎµÎ¯
ÏĦ Ïħ
Î´ Î¹
ĠÎ¿ ÏĢÎ¿
ĠÎ ¦
Î¯ Î¶
ÏĦ ÏģÎ¿
l y
d an
Ġs a
áº ·
lu i
Å Ħ
Ġqu e
Ã³ l
Î´ Î·
ÏĢ Î¿Ïħ
Î ľ
Ïģ Î¹Î±
ĠÎ¼ Î¿Ïħ
Ïİ ÏĤ
Î¼ÎŃ Î½
ĠÎ¾ Îµ
ĠÎ Ľ
ĠÎŃ ÏĩÎµÎ¹
Ïĥ Ïī
w n
Ġa l
m s
ĠÄĳ Æ°á»£c
Ã¡ g
ÅĽ ci
ch en
Ġp re
Ġ Ø
Ä± r
na k
Î¾ Î·
Ïģ Ïĩ
y s
Ġv i
Ö ģ
z ÉĻr
ÅĤ o
Ã« n
Ġc a
ÉĻ m
Ġd en
Ġaw on
ĠT h
Ġs ur
Å ¯
Ã©s z
Õ¸ Õ
dÄ± r
ĠS e
Æ° Æ¡
ÈĻ i
Ġe lo
Ġna do
Ġá¹£ a
Ġw h
Ġmi iran
Ġe re
k y
Ä« ba
Ġaa ye
an a
Ġa pa
Ġi po
Ġaye lujara
ã ĥ
Ġsi i
ĠÎºÎ± ÏĦÎ¬
y f
Ġan d
Ġth e
Ġi rin
Ġï¿½ï¿½ï¿½ï¿½ ï¿½ï¿½ï¿½ï¿½
b ara
Ġy áº¹
w áº¹
Ġprz e
t Åĳ
Ġ ï¼
Ġi la
Ġi ba
Ġw o
Ġp ro
ĠA la
Ġáº¹ gbáº¹
t ta
Ġe to
s Ä±n
i ng
ĠI le
áº§ n
Ġ20 0
Ġá»į kan
ĠR e
á¹£ á»į
ĠÃ ¬
Ġn e
Ġ Ô
s Ä±
Ġ er
Æ°á» Ľ
i re
Ã« s
Ġh a
ow a
Ġu z
Ġp r
Ã© p
Ġ Q
Ã¤ n
Î¯ ÎµÏĤ
Î¿ ÏĤ
ĠÎ´ Î·
ÏĦ Ïī
ÏĦÎ· ÏĦÎ±
ĠÎ± Î»Î»Î¬
ĠÎµ Ïħ
Ïĥ ÏĦÎ¿
ÏĢ Îµ
it h
es t
iá»ĩ n
Ġm in
lÉĻr i
j Äģ
v o
Ġi st
Ġtr ong
o k
Ġ ×
Î¸ ÎŃ
Ïħ Î½
ĠÏĢ ÏģÏĮ
Ġe i
Ġq Ã«
Ġc e
c y
Ġm ÉĻ
an t
c s
Ġ Z
Ġi l
Æ°á»Ŀ i
Ġo d
Ġf el
Ġf Ã¼r
u o
Ġa t
Ġn jÃ«
ÉĻ b
Ġp entru
Ã Ł
Ã³ n
s Ã©g
k ie
á» ĵ
Ġi lu
Ġd ans
n Ã©
in en
ho va
Ġáº¹ ni
es u
ar in
Ġb u
Ġï¿½ï¿½ï¿½ï¿½ ï¿½ï¿½
Ġ1 3
Ġa gba
Ġá»į ja
Ġ ï¿½
Ã³ Ì£n
Ġgb i
Ġm á»Ļt
ĠJ i
Ġp i
p u
Ġe de
Ġ æ
Ġg ig
Ã© t
is e
fi han
ĠÏĥÏĦÎ¿ Î½
e dd
Ġp ie
Ġr á»į
ĠA n
ĠF un
ĠA ti
Ġá»į pá»įlá»įpá»į
g an
U N
w on
ĠK o
ã Ĥ
Ġ= "
pa da
Ġs u
Ġ201 7
Ġ +
A N
ä ¸
Ġaká»į ká»į
Ì ģ
Ä± ÅŁ
le t
c ie
Ã¡ k
Ġau f
Ġv a
Ã½ ch
Ġ Ù
Õ µ
Ö Ħ
lar Ä±
áº¡ n
ow an
Ġc are
m m
ĠÎ¸ ÎŃ
ĠÏĥÏĦÎ¹ ÏĤ
ĠÎ Ī
ĠÎļ Î±
Ï Ĭ
o d
Ã« sh
l es
ba y
bay c
Õ¥ ÖĢ
Õ¡Õ ¯
Ġ Æı
bayc an
ĠA zÉĻr
y ÉĻ
ch e
in Äģ
Ġr o
Ġvá» Ľi
Ã¡ z
t Ã³
Ã¶ v
r es
Ġ ÈĻi
Î ©
Ïħ Ïĥ
ĠÎ ĺ
ÏĪ Î·
w r
iá»ģ u
Ġv er
v Äĵ
Ġng a
Ã¡n y
c o
Ø§ ÙĦ
Õ¡Õ µ
Ġi lÉĻ
Ġpa s
áº£ i
Ġg e
k or
t Ä«
Ïģ ÎµÏĤ
ĠÎŃ Ïĩ
Î ¥
er s
Ïģ Î¿Ïħ
Î¼ÎŃ Î½Î¿
Ġ1 4
ÏģÎ¹ ÏĦÎ¹ÎºÎŃÏĤ
ĠÏħ ÏĢÎ¿
ÏĢ ÎµÎ¹
ĠÎ´ Î¹
Ïĥ ÏĦÎ±
ÏĮ ÏĤ
ÎŁÎ ¥
Î¼ Î®
Î½ Ïī
re f
ĠÄ į
l Ã¤
d y
Ã©n y
Æ°á»Ŀ ng
Ġ1 8
Ġa m
in ÉĻ
d h
Ġd Ã©
Ġ Å¡
Ġch e
ow e
ci Ã³n
Æ°Æ¡ ng
Ġt Ã¶
mÉĻ k
Ġ1 6
te l
ĠÎ Į
Î³ Î³
ĠÎ¼Îµ Î³
Î» Î¯
1 3
Î¸Î· ÎºÎµ
ÏĦ ÏīÎ½
ĠÎľ Îµ
ĠÎ® ÏĦÎ±Î½
Î² Î±
Î¹Îº Î¿
1 5
Î¼ Î¹
Î» ÏĮ
ĠÏĢÎµ ÏģÎ¹
Ġw e
m Äģ
Ġe a
Ġg o
Ġt se
i k
u x
iá» ĥ
n o
Ġm Ã«
ĠSe x
Ġma i
l en
Õ ¿
ĠÕ °
ĠAzÉĻr baycan
Ù Ĭ
Õ¡ ÖĢ
Ġb il
on t
Ãł ng
dz ie
is ta
p Äĵ
t z
Ġp or
ÅŁ a
Å¾ e
Ãł nh
t Äĥ
da u
ĠS z
Ġqu i
ĠkÃ¶ z
Ġj est
ĠS ch
r ÉĻ
Ä«ba s
he t
áº£ n
zi one
s en
Ġl os
Ð °
c ÉĻ
k si
b le
n y
r Äģ
Ġng Æ°á»Ŀi
lu s
ĠA z
Ġv y
Ġa c
rz e
Ġ Ã«sh
n en
Õ¸ÖĤÕ ´
Ġ #
Ġn ÉĻ
l Äģ
cz y
ts a
z Åĳ
á»¯ ng
Ø§ Ø
o x
z a
Î³ÏģÎ± ÏĨ
ĠÎºÎ± Î¸
ĠâĢ ĵ
os t
Ïĥ ÎºÎµ
Ïĩ Î±
1 0
ĠÎµÏĢ Î¯
ĠÎ¼Îµ ÏĦÎ±
ÏĦ ÏİÎ½
ÎµÎ¯ Î¿
Îº Î·
Î¼ ÏĨ
ÏģÎ¿ ÏĤ
Ïĩ Î½
Ïģ Î¯Î±
ĠÎĳ Ïħ
Î» Î¹
Î¿Ïį Î½
ÏĦÎ¿ Ïį
ĠÏĥ Î·
ĠÎ´ Îµ
ĠÎº Î¬Î½
ĠÎ± Î³
ĠÎł Î±
ÎĻ Îĳ
ĠÏĦ Îµ
Î»Îµ Ïħ
l l
Ã© e
n ek
ĠB e
Ġk Äģ
n Ã½
Î½Î¿ Î´Î¿
Î´ Îµ
Ġr u
Îº Î¹
Î¿ Ïģ
wy d
v Ã¤
ĠÃ«sh tÃ«
i ch
Ã ¥
ĠÃ¼ Ã§
Ġo u
ze t
Å¼ y
Ã¡ ch
Ġi e
c Äĥ
Ġi m
Ġt sa
Îº ÏģÎ¹
ÏĢ ÏīÏĤ
ĠÎº Î¹
ÏĦ Î¿Ïħ
1 7
Ġ [
3 3
ĠÎ±Ïħ ÏĦÎ®
Ð ł
ÏģÎ¿ Ïį
Î³ Î¼Î±
Ïħ Î½Î±
Ïĥ Î¯Î±
Î¸ Î®
ĠÏĢÎ¿Î» Ïį
Ġ1 7
1 2
ÏĢ Î¹
ĠÏĢ Î±Î¹
ÏĢ ÏĮ
Ġy r
k Ã¶
Å Ī
is h
ĠÃ ¨
Ġj o
en ia
áº§ u
Ġs ch
ta l
ÅŁ Ä±
Ġv o
Äĵ r
Ġsi ch
ka t
Ġprz y
c ia
ÉĻ h
ta s
Ãł i
Ïĥ Î¿ÏħÎ½
ÎŃ Î½
5 0
ĠÎĳ Î½
ÏĦ ÎŃÏĤ
1 6
ĠÎ¼ ÏĮ
ÏĢ Î·
ĠÎ ¥
Î¼ Î¿Ïį
Ïİ ÏģÎ±
e d
Ġa ve
Õ¥Õ ¬
Õ« Õ¶
ÄŁ Ä±
m in
ke t
ko v
Ġni cht
Ġv ous
Ġnh Æ°
ti es
Îµ ÏĦÎµ
ĠÏĩ Î±
Î Ķ
Ġ ]
ĠÏĥ Ïĩ
Ġh ref
ĠÎ¼ÏĢÎ¿ ÏģÎµÎ¯
ĠÐ ¡
ne t
Ġp ost
r y
Ġs Äĥ
1 4
Î½Î¿ Î½
Î² Î¬
Ġ3 0
ĠÏĥ ÏĦ
ĠMa e
Ġw ir
z Ã©s
Ġp ri
Ä« g
Æ°á»Ľ c
Õ« Õ
yy ÉĻt
on s
ts e
te k
ĠV er
Ġc z
Ã« t
tion s
Ġp ara
Ġk tor
t to
ĠÃ¼Ã§ Ã¼n
Ġp ÅĻ
en d
ĠC h
y Ã¶
l Äĵ
Ã¡ m
dz i
u f
ĠP a
ĠJ e
Ã¢ y
Ġi wa
ĠD a
Ġi ru
Ġi ta
Ġk áº¹
Ã©r t
re a
Ġi ran
É Ķ
du ro
ĠN I
y en
Ġti n
Ġm ÃŃ
Ã¤Ã¤ n
Õ¡ ÖĢÕ
Ù ħ
Ġi ÅŁ
il le
Î¿Î½ ÏĦÎ±Î¹
ÏģÎ¹Ïĥ Ïĥ
Î»Î¿ ÏĤ
Î´ Î®
ÏģÎ¹ÏĥÏĥ ÏĮÏĦÎµ
Îº Î±Î½
Ġ2 2
Îº Î¬
ÏĦÎ· ÏĥÎ·
< /
Ïĥ ÏĨ
ĠâĢ ¦
ĠÏĥ Î¿Ïħ
Î¹Îº Î®ÏĤ
Î´ Î¹Î¿
ÏģÎ¹ Î½
ĠÎº ÏĮ
Î¼Î± ÏĦÎ¿ÏĤ
ter net
f er
g u
ĠN e
Ġo lo
ĠS a
Ġy Ã©
el i
ĠT a
Ġni tori
ĠJ esu
Ġb á»į
Ġ Ã¡l
Ġ201 9
b á»į
on o
Ġ Ø§ÙĦ
k ÉĻ
ur s
Ġala ye
áºŃ n
di a
Ġa á¹£a
Ġa gbegbe
Ġa us
Ġi ya
w an
Ġá¹£i á¹£áº¹
ĠR a
T I
ar t
Ġá¹£ ugbá»įn
in o
Ġt u
Ġi á¹£e
Ġá»į dun
is un
ĠI s
g h
ĠT I
f ani
á»į wá»į
Äģ m
v er
ĠK áº¹
ĠM e
Ġr a
Ġn la
Ġf o
en u
Ġw u
ĠD i
f un
Ġáº¹ ya
te d
Ġ. âĢĿ
Ġni kan
Ġláº¹ hin
Ġa s
u m
ĠO á¹£u
Ġ? ??
kun rin
u ba
Ġa jo
ĠS i
Ġwá»įn yi
or an
Ġet á»įn
Ġni lo
Ġo mi
c ji
Ġng h
j Ãº
Ð ¾
Ġq a
ĠÃ º
ĠÎ´ Î¹Î¬
ĠÎ¬ Î»Î»
Ïĩ Î®
Ġ us
Ġ/ "
Îµ Ïį
Î¹Îº Î¿Ïį
Ġ2 3
ĠÎŁ Î¹
Î» ÎµÎ¹
Ġ/" >
ĠÏĥ Ïį
Î¯Î½ ÎµÎ¹
ĠÎºÎ± Î»
ĠÎº Ïħ
ÏĮ Î¼Îµ
Ïī ÏĥÎ·
ÏĥÎµ ÏĦÎµ
ĠâĢ ļ
ĠÏĢ ÏģÏİ
7 7
Ġli ve
ĠÎł ÏģÎ¿
ÏģÎŃ ÏĢÎµÎ¹
i d
ĠÄĳ á»Ļ
Ġk tÃ³
Ã¡ ra
Ù Ĩ
Ä±n da
da d
ĠÃ®n t
Ġp lus
ĠS ie
ĠÎ ¡
Ïĥ Î±Î½
ÎĻ Îļ
ĠÎļ ÏģÎ¹ÏĦÎ¹ÎºÎŃÏĤ
Î¹Îº ÎŃÏĤ
ÏĨ Î®
ĠÎ±Î½ Î¬
Î· ÏĥÎ·
in ternet
* *
Ġlive internet
ĠÎ± Î¾
wy dd
Äģ k
Ġsz er
ta te
Ã´ i
ÉĻ d
Ġe z
b y
á» ķ
ts o
m en
l ine
hova h
Ġpu pá»į
Ġke ke
te t
Ġ201 8
Ġan fani
a êŀĮ
Ġá¹¢ i
g áº¹
li k
Îµ ÏĢ
9 9
Ġ2 4
ĠÏĢ Î¬Î½
Ġ0 00
Ä ·
ĠÎ ¯
Ġ2 5
Î¿Î¹ Î½
Î ĵ
Ġy m
Ġ Ā
di o
I N
t á»įn
m ba
er i
em ent
Ġi pin
Ġá¹£i á¹£e
Ġ ç
Ġi tá»į
Ġ X
Ġi se
áº¹ gáº¹
Ġi be
f u
á» ģ
lá»į wá»į
s iláº¹
Ġgb á»į
Ġla arin
Ġli lo
à ¹
8 8
Ġá¹¢ e
Ġila na
Ġ Å¼e
ĠC o
Ġb áº¹
Åĳ l
Ġave c
Å« s
in d
v at
os i
ĠF a
Ġn kan
ke yi
s an
os e
Ġnh á»¯ng
ar d
Ġp ese
Ġ $
Ġf or
Ġwi pe
m an
ir a
Ġa le
ow n
p p
Ġin u
gb on
ĠT he
Ġeyi ti
gbo gbo
Ġiá¹£ owo
ĠK a
Ġeyi keyi
si waju
c t
ro yin
s u
Ġva gy
Ġn áº¹
Ġ) .
as ino
Ġme ji
ĠI lu
ĠD e
Ġi tan
Ġt á»į
Ä £
Ġp in
om e
Ġkeke re
an u
Ġja de
Ġw Ã¡
n ÄĽ
Å ŀ
Ġnu k
ÅĤ y
Ġs t
Ġï¿½ï¿½ ï¿½
ĠL e
Ġá¹£ áº¹
Ġi ye
y o
Å ©
Ġf ree
Ġb áº¹ráº¹
Ġe d
Ġs inu
Ġla i
ng o
ĠW a
ĠJe hovah
Ġï¿½ï¿½ï¿½ï¿½ ï¿½
Ġki i
G B
Ġw Ãł
es z
ĠÎ½ ÎŃ
Î³ Ïī
ÏģÎ¯ Î¿Ïħ
Ġus ers
ĠÎ¸ Îµ
ĠÎ´ Ïį
ĠÏĢ Î¹Î¿
Î¯ Î¿Ïħ
ÏģÎ¿ Î½
ĠÏĢ ÏĮ
Î¼ÎŃ Î½Î·
3 0
ĠÏĦ ÎŃ
Ġg an
Ġein e
Ã ±
el y
á» Ń
Ġg j
ja de
Ġo b
ĠG b
Ġti tun
Ġo un
lÉĻr in
t ho
Ġi mu
Ġpa da
ĠM i
Ġnigba ti
ĠâĢĿ ,
Ġof in
ĠW e
ĠP ro
Ġni bi
ä º
Ã¹ n
áºŃ t
Ġ" :
Ġf e
Õ ¨
Ä °
ĠÕ §
Ä± z
ĠÅŁ i
Å£ i
Ġes te
Ġn d
sz er
Ġe x
Ġk as
á» £
Ġa j
Î³ Î®
Î¯ Î¿
ĠÏĩ ÏģÏĮ
Ġ ÏīÏĤ
2 6
Îº Î¿Î»
w ch
Ã¶ n
ĠD ie
Ġaye ke
Ġi do
Ġc o
á»į lu
Ġ201 6
ĠM ar
o ju
Ġer o
ĠÕ ´
mi ÅŁ
Ġa yi
n Ã¡
ĠÄĳ Ã£
ig h
f t
ĠNi gba
A R
or un
c es
Ġor iláº¹
Ġa wá»į
Ġ *
Ġy an
ou n
pe le
ko z
Ġku ro
ĠÎ¤ Î±
ÎĹ Î£
ĠÏĮ ÏĢÏīÏĤ
Î¬ Î¶
y l
s á»į
s Ã¤
Ġa fi
Ġi gbe
ĠS u
Ġi wá»įn
ĠL i
Ġo ru
lo v
Å¡an a
Ġpa a
ĠS h
Ġ è
Ġ? ?
bi le
ĠF i
Ġo ke
ĠLa ti
O N
yáº¹ whe
yáº¹ wo
ĠO n
ĠE yi
gb á»į
Ã¶ l
w ie
ÎŁ Î£
ĠÎ±Î½ ÏĦÎ¹
Î² Î¿Î»
do l
t es
Ġv Ã½
p h
q i
ĠG bo
Ġiá¹£ a
ko ko
ĠA l
ĠL o
Ġo rin
u ro
p áº¹
ie k
Ġk Ã«
ÃŃ nh
Ġt er
ĠA f
Ġimá»į ran
Ãº n
Õ¸ÖĤÕ ©
ma q
Ïĥ ÏĦÎ¬
ĠÎľ Î±
ÏĦÎ· ÏĤ
Ġb r
Ġv ol
Ġs p
ÏĩÎµ Î¯Î±
Î¼ÎŃ Î½Î±
ĠÎŃÏĩ Î¿ÏħÎ½
Î» Ïħ
8 0
ÏĥÎµ ÏīÎ½
Ġwe di
k in
Äĥ ng
Ã¨ s
Ġs Ã«
Ġau ch
n ych
la t
z Ä«
Ġla s
ĠÄĳá» ĥ
Ã¡s a
Ġo a
Ġt la
Ġba ÅŁ
Ġbe i
k Ã¤
Ã¨ re
n os
g li
ĠÃ®nt Ã¢
mi t
v al
ĠÃ®ntÃ¢ l
Ġc Äĥ
ÅĽ Äĩ
ĠÎ¼Îµ ÏĦÎ¬
ÏģÎ¯ Î¶
Ġ) ,
Ïĥ Î¹Î±
Ïĩ Î¹
6 6
ĠÏĢÎ± ÏģÎ¬
ĠÏĥÏħ Î½Îµ
y r
l Ã³
Ġt ou
Ŀ i
si ya
le r
Ġp Äģr
Ġn y
Ġt Å¡
t la
Ġ Å¾e
Ġdel la
Ø ±
Ã§ Ä±
ĠÏĢÎµ ÏģÎ¯
ĠÎ± ÏģÏĩ
2 2
ÏĢ Î¯
ĠÎ Ĩ
Î¾ Îµ
ĠÏĢ ÏģÎŃÏĢÎµÎ¹
Î¼Î± Î½
ĠÎĵ Î¹Î±
Ġg w
ci on
er t
qu es
ÅĤ u
Ġthá» ĥ
ĠJi whe
ĠJiwhe yáº¹whe
Ġo po
Ù Ī
ĠB u
Ġá»Į lá»į
Ġw á»į
Ä« dz
a k
Ġde m
es h
Ã¤ y
is o
t te
ÉĻr ÉĻ
Ġl u
is a
Ġc s
Ġv e
ĠH o
Ġ2 1
Ġ2 9
ĠÎ¼ÏĮ Î½Î¿
ĠÎ± ÎºÏĮ
7 0
ÏĦ Ïİ
ĠÏĩ Ïī
ÏĮ ÏĦÎ·
ĠÏħÏĢ Î¬Ïģ
ÏĦÎµ Î¯
! !
Ïĥ Ïĩ
4 0
ĠÎºÎ¬ Î¸Îµ
ĠÏĥ ÏĩÎµ
ĠÎµ ÏģÎ³
Ġ ÏĪ
ĠÏĢ ÏģÏī
Ïģ Ïħ
Î´ ÎµÏĤ
W W
Î½Î¿ Î¼
ĠÎµÏĢ Î¹Ïĥ
ĠÎ² Î±
á ½
ÏĦÎ¹ Ïĥ
ĠÏĢ Î»Î·
Î³ Îµ
ÎµÎ¯ ÏĤ
ĠÏĢÎµ ÏģÎ¹ÏĥÏĥÏĮÏĦÎµ
1 9
Î»Î¿ Î½
Ġg r
ĠÎ¾Îµ Î½Î¿Î´Î¿
ĠÎ± Ïģ
wy r
Õ¡Õ ´
Ġh ÉĻ
el le
Ġdara dara
E R
s in
Ġb y
Ġkh i
Ġiwa di
is ti
so ke
aa ju
Ġh an
Ġáº¹ ká»į
ĠJ o
Ġ2 6
e de
á»į kan
ĠA u
Ð µ
Ġke Ã§
Ġv wo
Ġg áº¹gáº¹
ĠH a
en e
Ġh áº¹n
Ġ à¸
f in
d Äĵ
ĠK i
Ġm Ã¬
at Ã³
re en
ĠO hun
Ġha ck
Ġba yi
b re
ar y
ĠJ a
Ġp á»į
Ġ201 4
ĠC asino
Å ĭ
ĠT e
Ġa tun
Ġi láº¹
Ã¼ ÅŁ
en ie
ta t
ÏĢ Î¬
ĠÎµ Î¹
Ġ2 8
ĠÏĢ ÏģÎ±
Ġma e
£ Â
á»ĳ i
Å¡an as
c tion
el l
Ġaw oran
y esi
ĠP áº¹lu
Ġi fi
ir in
Ġagba ye
Ġma a
Ġis a
Ġun a
Ġa so
un a
Ġsi waju
áº¹ áº¹
ir o
ĠS o
Ġa k
p i
Ġs á»įn
Ġgb áº¹
ĠãĢ ĳ
Ġr an
Ġgig a
k ini
Ġa pe
Ġ. +
Ġi royin
Ġda ju
áº ©
Ġa f
ĠÕ ¯
b ÉĻ
Ġ5 0
ĠÃ Į
en ÃŃ
ci Ã³
ie l
Ġr Ã©
Æ¡ n
t Äĵ
d Ã©s
Ġ Ö
lÄ± q
c ja
ĠO r
Ġch aêŀĮ
Ġ1 00
ng a
Ġsá»į gan
ĠGb Ã¨
l á»įn
ĠK e
t ra
f fe
Ġs an
h u
lan d
Ġiran lá»įwá»į
la y
Ġfi dio
lo ad
Ġ êŀĮ
Ġâ Ĥ
Ġná»į mba
Ġri i
ĠNe w
ĠO lo
Ġ" >
Ġa mi
gba soke
w h
á¹£i á¹£áº¹
Ġst art
ï ½
Ġgi di
ĠF ree
Ġtun tun
in rin
ĠU ni
Ġh i
Ġd ur
Ġ201 5
Ġá¹£e e
Ġda ta
wa re
G G
Ġï¿½ï¿½ï¿½ï¿½ï¿½ï¿½ ï¿½
Ġo kun
Ġwh enu
ĠU S
own load
Ġi na
Ġon line
Ġa v
Ġpo dá»į
Ġafi kun
l in
us u
Ġá»į wá»į
yi pada
Ġk Ã¡
un d
m y
Ã¹ ng
is an
Ġid ani
A B
Ġdi dara
mu lo
ĠA r
Ġtáº¹ láº¹
ti c
d Ä«
Ġibe ere
Ġdu ro
Õ¸ÖĤÕ© Õµ
Õ ¾
Ø ©
ĠÕ ¸
q a
ĠM u
p s
Ġo ti
Ġáº¹ á¹£á»į
Ġlá»į wá»į
wá»į le
Ġye ke
ÃŃ n
ni a
ĠP entru
v el
ĠÕ ¥
k Ä±
ÅĻ e
u ri
Ġth u
ÏĥÎ¹ Î¼Î¿
ĠÎ¼ Î·
Îº ÎŃ
Î¿Ïį Î¼Îµ
ĠÎº Î¿
× ķ
ĠÎĳ Î½Î±
Ġ ~
Î¹Îº ÏİÎ½
Î» Î¿Ïħ
ÏĦÎ¿ Î½
ĠÎł Îµ
Î»Î¿ Î¹
Ïĩ Î±Î½
ÏĥÎºÎµ Ïħ
ÏĦ Î¹Î±
ÏĨ Î±
ĠÎĶ Î¹Î±
Îĳ Î£
ĠA D
Î´ Î¯
ĠÏĢ ÏīÏĤ
3 4
Ġc yf
cz e
p r
Ä± l
m p
ts i
Ġc sa
Ġs k
Ġar Ä«
iá»ĩ t
il ÉĻr
ung en
ÃŃ v
Ġfo onu
d ro
Ġtin do
Ġa yá»į
ãĢ Ĳ
Ġ" ,
uru fu
Ġdá»į má»į
ĠA gbegbe
ĠJ u
Ġk aa
igh t
y ara
ti ng
Ġpaa pa
ĠB o
k Ãłn
Ġc Ã´ng
si on
ow y
i le
Îķ ÎĻ
1 8
Î»Î¿ Ïį
Îº Î®
Î½Î¿ ÏĤ
Î· Î³
Ïģ Î¸
ÏĦ ÏģÎ±
il l
Ġnigba gbogbo
Ñ Ģ
is á»į
in t
s k
Ġor isun
Ġap áº¹ráº¹
ĠP i
ĠC a
Ġa á¹£áº¹
ffe e
g ra
p er
Ġá»į kunrin
Ġy ÃŃ
Ã¼ k
¡ Â
Ġb áº¡n
Ġa d
Ġt Äģ
Ġs un
Ġoni bara
ki yesi
re i
s un
r Ã©
is Ã«
Ġho re
Ġ ÅĽ
ĠÂ £
Ġof urufu
Ġá»į dá»į
Ġ20 20
lo ju
R I
h wo
a ye
Ġh áº¹
ä ¼
Ġo mo
ta a
Ġk in
an d
Ġs in
bo ju
oo k
L E
Ġrá»į run
ĠY or
láº¹ yin
l d
à ¥
Ġáº¹ n
Ġy áº¹n
ne j
Ġe mi
ĠGbo gbo
Ġip iláº¹
Ġa gbe
Ġna gy
ĠL áº¹
en i
áº ½
ĠL es
æ ľ
Ġ2 7
lar a
Ġso ke
b ul
Ġa po
Ġoru ká»į
Ġa wo
Ġti ti
Ġfun 88
ĠBa wo
ĠH ome
Ġs iláº¹
ĠA W
ĠV i
Ġni báº¹
Ġf á»į
Ġaw u
ĠOlu wa
Ã³ Ì£
ĠÏĦ ÏĮ
ĠC ym
ÎµÎ¯ ÏĦÎµ
Ïĥ ÏĦÎ®
Ïĩ Î¿
6 0
Ð ¸
Î¾ Î¹
Î¼ÏĮ ÏĤ
.. .
ĠÏĢ Î¬
2 5
Î½ Î®
Î»Î» Î±
ÏĦÎ® ÏĥÎµÎ¹ÏĤ
ĠÏĨ Î¿
ÏĦ Ïģ
6 4
ÏĦÎ¹Îº Î®ÏĤ
ÏĨÎ¿ ÏģÎ¬
Î¯Î½ Î·
2 4
Î´ Î¹Î¬
Îµ Îº
ÏĥÏĦ Î¹Î±
ĠÎĿ Î¿
ĠÎĶ ÎµÎ½
ĠÎ ŀ
Ġ4 0
Î¿Ïħ ÏģÎ³
Îĳ ÎĻ
Ñ Ĥ
ĠÏĩ ÏģÎ·
Î¼ ÏīÏĤ
ÏĨ ÎŃ
Î¼ Î¼Î±
ĠÎ£ Ïħ
Î´ Ïħ
Î» ÎµÎ¯
ĠÏĩ ÏģÎ®
Î³ Î¹
ĠÎ» ÏĮ
Ġf f
Ġi wá»į
ļ Ħ
a ts
g er
P A
Ġa fáº¹
is z
f o
á»Į N
ĠK á»į
Ġgbi gbe
áº¹n u
Ġi ho
Ġiá¹£e duro
Ġi pele
j ÃŃ
is en
Ġitá»į ju
âĢ Ķ
ĠP e
Ġ ă
Ġo j
ĠE n
Ġgb á»įn
Ġá»Įlá»į run
ĠR o
Ġa ba
Õ¸ÖĤ Õ¶
Ġol un
Ġisa láº¹
á»į pá»į
Ġir iri
Å¡ e
t ti
á»Ļ i
Ġ201 3
ng e
si a
ar á»į
Ġá»Į má»į
Ġolu mulo
u a
ĠG ba
is t
Ġi ja
Ġp ari
E N
ĠâĢ ĺ
ĠG a
Ġaa bo
báº¹ si
Ġke re
báº¹si báº¹
já»į ba
Ġva i
Ġv wáº¹
káº¹ láº¹
Ġá¹¢ ugbá»įn
ĠA m
Ã¡ ban
it y
or a
Ġbe ere
Ġto bi
ĠI má»į
Ġkan na
ĠL u
Ġayá»į káº¹láº¹
Ġ à¤
ĠE le
ĠW i
ye le
iyan ju
Ġti ta
Ġa gb
á»ĳ ng
Ġs ont
mÉĻ t
Ġs Ãº
j n
Ġ é
i di
Ġá»į lá»į
Õ¡Õ ¿
ma sÄ±
uba i
Ġi tu
L A
ĠD ubai
ĠI á¹£áº¹
iran á¹£áº¹
Ġe he
wan re
g le
er o
Ġigb esi
Ġida gbasoke
Ġv wá»į
ĠC om
Ġm ar
Ġ à²
Ġmáº¹ he
Ġaso pá»į
Ġgbá»į dá»į
Ġv an
y áº¹n
Ġ": "
Ġg u
ĠH e
i má»į
å ı
tor ina
ĠBi b
w ari
g á»į
tu u
Ġs ara
Ġi yan
ĠP o
ĠT r
Ġ", "
Ġy á»į
Ġidi yele
Ġe e
ĠT ra
il á»į
Ġel Åĳ
Ġk un
Ġ Åŀ
Ġa wa
Ġe gbe
l Ã¡
Ġpo d
d Äģ
á» ī
Ä± m
Ġ ent
báº¹ ráº¹
Ġala ba
Ġche ats
c ts
Ġido go
Ġme je
Ġe le
ft ware
ĠC hin
Ġoti tá»į
ĠâĢ ¢
ĠI gb
ĠâĢ Ķ
ĠA ra
K O
Ġn wá»įn
ĠãĢĳ ãĢĲ
Ġo ko
il ÉĻ
ÏĦ ÏĥÎ¹
ĠÏĮ Î»
× Ļ
Ġhttp s
9 5
Ġs y
Ġo á¹£u
Ġká»į á»įkan
ï¼ Į
Ġm bi
Ġá¹£ aaju
Ã¨ Ì£
a nh
ÈĻ te
en a
Ġm Ã¡r
Ġ Ã©r
te ur
Ġn Ãły
ĠE uro
ĠÃ§ ox
j in
ju we
Ġde ede
Ġi ch
Ġ, +
Ġi bu
v u
Ġaá¹£a yan
Ġako onu
ti ri
á¹£e pá»į
Ġw ie
Ġa á¹£
Ġma is
Ġap áº¹
L O
ir isi
s sz
un e
p an
l owo
å ®
ĠâĤ ¬
Ġi ni
Ġif áº¹
Ã² Ì£
un k
Ġki kun
Ġbi i
Ġn on
ĠÃ Ń
je t
ÏĦÎ¹Îº Î¿Ïį
ĠHo tel
Ġc yn
Ġv ar
ĠG bi
w in
p á»įn
Ġh u
ho w
Ġiá¹£a koso
Ġati láº¹yin
Ġo gun
Ġk er
Ġp ra
Ġáº¹ láº¹
le ng
in s
ĠG oo
ng ba
Ġy ou
U R
a bo
or t
káº¹ ká»į
Ġayi ka
lu we
am áº¹
ãģ ®
Ġo ye
in di
ä »
Ġo ja
Ã¬ n
a te
Ã¡ b
ÉĻn i
Ġtá» «
ow ie
Ïĩ ÎµÎ¯
Î»Î» Î·Î½
Î½Î± Î½
ĠÎºÎ±Î» ÏįÏĦÎµ
ÏĨ ÎŃÏģ
Î½ Î¹Î±
Ïĥ ÏĦÏĮ
Ġe u
h re
jn Ã«
g gi
ÃŃ a
Õ ½
Ġo lan
gy ar
Ġle g
Å¡ i
w ia
Ġtr a
Ġw er
m Ã¤
ĠÃ¶ z
e ng
Ġs er
z z
n Ä«
Ġta k
Äĥ r
tu re
to k
Å¡ u
Ä± b
Ã¡ i
ĠÎµ Î³
ĠÏĨ Ïī
Î¯ Ïĥ
ĠÎµÎº ÎµÎ¯
ĠÎ¼ÎŃ ÏĥÎ±
Î³ ÏģÎ¬
ÏĦÎ¹Îº ÏİÎ½
ĠÏĩ Ïİ
ĠÎ±Ïħ ÏĦÎ¿
×ķ ×
ĠÎ¼ Î·Î½
Îķ Î£
ÏģÎ¯ ÎµÏĤ
Ġu 00
00 00
ĠÎļ Î±Î¹
3 7
ĠÃ ¢
e t
Ġapáº¹ áº¹ráº¹
ĠK ini
Ġen áº¹
Ġg un
Ġd z
Ä±n a
Ġi b
Ġs au
Ġo der
Ä¾ a
ti t
h lo
d ari
Ġatun á¹£e
am e
tá»į ju
an wo
Ġká»į ja
Ġa kiyesi
Ġwhenu e
ar o
ĠY i
ĠMo bile
êŀĮ o
f or
Ġye tá»įn
ka ti
ĠI da
Ġsu gbon
ä ½
Ġya tá»į
ĠY ou
á»įn u
Ñ ģ
Ġd ownload
Ġnu he
Ġo o
Ġoni we
d s
ĠKáº¹ wa
Ġgáº¹gáº¹ bi
å ¤
Ġláº¹ po
pa má»į
Ġn da
Ġipin nu
ĠI wá»įn
táº¹ táº¹
Ġgbi gba
ĠÃ ±
ĠR i
Ġï¿½ï¿½ï¿½ï¿½ï¿½ï¿½ï¿½ï¿½ ï¿½ï¿½
Ġá»įmá»į de
t ro
b un
Ġi bara
ĠK r
ĠÃ Ģ
tt Ã¤
Õ¡Õ ½
Õ¶ Õ¥ÖĢ
lÉĻ t
l Åĳ
sz y
Ġs on
ĠN h
to tt
Å¡ ÃŃ
ĠÎºÎ¬ ÏĢÎ¿
ÏģÎ¯ ÏĤ
Î³ Î±
Î» Ïī
O M
ÏĨ Îµ
ĠÎ±ÏĢÎ¿ ÏĦÎµ
ĠÎµÎ½ Ïİ
Î¯ Îº
ĠÎ¼ ÏĢ
ĠÎ¶ Ïī
ĠÏĮ ÏĦÎ±Î½
ĠÏĮ Î»Î±
ĠÎ» Î¯
Ġ0 7
Ġ0 9
ÏĮ ÏĦÎ·ÏĦÎ±
ÏĦÎµ Ïģ
ĠÎ´Î· Î¼Î¿
Îĳ Î¤
Ġ/ >
Îº Î»Î·
ĠÎ´ ÏħÎ½Î±
ĠÏĢÎµ ÏģÎ¹Î¿
ĠÎ» ÎŃ
Î»Î» Î·
Î¼Î¬ ÏĦÏīÎ½
Ġ0 6
Îº Î¿Ïį
.. ..
Î´ Î¹Îº
Î¹Î± ÏĤ
Î¹Î¿ ÏĤ
Ïĩ Î¿ÏħÎ½
3 5
ĠÏĢÏģÎ± Î³Î¼Î±
ĠÎ´ Ïī
ĠÎķ Ïħ
Î»ÎµÏħ ÏĦÎ±
ĠÎºÎ± Î½
Î¼ Î¿Ïħ
I d
ĠÎ¿ Î¹ÎºÎ¿
ĠÎ±Î¾ Î¹Î¿
f n
Ġpe u
Ġv is
Ġd la
Ä±n Ä±n
j en
Ġa da
ĠE to
ĠT ur
Ġh á»į
Ġita táº¹táº¹
å ħ
Ġo pin
Ġav wanre
h á»įlu
Ġyi o
Ġp áº¹
c at
Ã© re
Ïĩ Î·
ĠÎ´Ïį Î¿
3 2
Ġ Ïİ
ĠÎ± ÏĨ
Ġh yn
c ho
es ch
te m
Ã¤ h
Ġd ar
ka l
il mÉĻ
qi p
Ġed he
an o
i te
Äĥ m
Ġi es
Ġj el
h la
Õ ´
ca q
is irisi
Ġ3 5
el á»įpá»į
Ġá¹£e to
à¸ Ļ
Ġche at
h áº¹
d ani
dara ya
Ġá¹£áº¹ da
st an
Ġa b
Ġba ba
d áº¹
j es
ir es
ĠP lus
ĠY a
Ġo dun
Ġiba mu
Ġt an
ĠN u
à ³
er a
Ġi P
la ye
ĠE mi
A D
Ġi jo
O R
Ġy en
Ġpaapa a
Ġidani loju
ng an
ĠG reen
Ġa táº¹
ĠNi pa
ĠGoo gle
Ġo do
lá»į siwaju
Ć Ĉ
ĠMa y
ÃŃt á»įn
Ġbo ya
Ġo s
Ġa ya
á¹£ Ã¹
ka s
Î¯Î½ ÎµÏĦÎ±Î¹
ĠÎ¼ÎµÎ³ Î¬
ÏĦÏĮ ÏĤ
Ïį ÏĢ
ÏĢÎ¿ Î¯
Ïģ ÎµÎ¹
Î §
9 0
u d
Ġvo tre
Ġ??? ??
á¹£ iri
Ġm ul
Ù ĩ
Ġi yipada
e ji
Ġw ith
ĠYor uba
li a
Ã¡ ng
ĠK an
Ġ3 2
ĠU n
Ġso ftware
ĠI la
á¹£i pa
s á»įna
Ġd ona
á»įn i
ÉĽ n
ĠO ni
la ck
Ġi já»įba
d in
Ġï¼ Į
gb in
Ġm ÃŃtá»įn
isá»į rá»į
á¹£ipa ará»į
Ð ½
ki a
Ġ ÉĻs
Ġpi pe
Ġwa ye
r t
ĠM áº¹
ĠLáº¹ hin
ĠG e
c al
Ġke ji
t ini
7 8
ĠMo re
Ġá»Į já»į
E S
Ġo h
äº º
Ġla báº¹
á¹£iri á¹£i
Ġj in
Ġy Ã¬
j ÄĻ
m es
ke ng
Ã¼n k
Ġl ie
v ie
ng ine
ĠãĢ ģ
m b
á»ĳ c
ya t
Ġt owe
Ġ201 2
Ġpa á¹£ipaará»į
ĠN AB
ĠN inu
Ġapa kan
Ġiá¹£ oro
ç ļĦ
h á»į
Ġa li
ç Ķ
æ ĸ
Ġy u
oo l
Ġi ko
Ġaz o
Ġa fihan
ĠOn line
Ġile ra
on us
Ġi daraya
ĠW á»įn
Ã©n ye
å Ī
Ġla gbara
i j
Ġe wá»į
ĠO á¹£Ã¹
Ġ4 8
á¹£e yá»į
x i
Ġor isirisi
Ġo jo
ĠA s
ar s
ĠêŀĮ in
á¹£ owo
dan u
Ġláº¹hin na
wa di
Ġori á¹£iriá¹£i
ĠI rin
Ġta tuu
Ġi táº¹
Ġaa mi
k ara
A S
ĠNI PA
Ġla isi
Ġ0 1
Ġfa ili
Ġi t
Ġgbáº¹ tá»į
Ġ ^
ĠEuro pe
ĠA ye
Ġro z
Ġi lá»įsiwaju
á¹£eyá»į ri
es s
à¸ Ń
Ġ Ĉ
h one
Ġy ara
Ġk Ã²
ish t
ĠÃ© v
Ø ª
ĠÕ ¶
ÉĻ lÉĻ
Ġn el
s ki
te a
Ġ @
Î½Î¿ Ïį
Î³ Î·
Î´ ÎŃ
ĠÎ¿ÏĢÎ¿ Î¯Î±
ĠÎ´ Î¹Îº
ĠÐł Ñ
Î¿Î½ ÏĦÎ±ÏĤ
A A
ĠÎĳ ÏĢ
ĠÎ¼ Î¹Îº
ÏĦÎ® ÏĤ
Ġ0 5
ĠÎ² Î¿
ĠÏĥÏĦ Î¿ÏħÏĤ
ĠÎ½ Î¿
Î© ÎĿ
ÏģÎ± Îº
ĠÎµÎ¯ ÏĩÎµ
Î½Î± ÏĤ
ÏĨÎ¿ Ïģ
Â ¬
Î²Î¿Î» Î®
ĠÏĮ Î¼ÏīÏĤ
Î¹ Î»
ÎŃ ÏģÎ±
ÏĨ Î·
Î½ Î¬
Ġ0 8
ĠÏĢÎ¿Î» Î¹
Ġc y
our s
el ye
ĠÄĳ áº¿n
Ġgo re
e la
ÉĻ ti
Ã ¦
v an
Ġv Äĵ
ĠÃ¼ ber
p le
st er
ir ia
Ġo na
c ÃŃ
Ġja k
Ġo ro
u ar
ese ku
ĠNigba ti
ind ow
h en
Ġz o
ĠA b
Ġ4 5
un i
Ġako já»į
Ġgig e
Ġm on
Ġa je
á¹£a koso
áº¹ li
ĠWe ight
ĠBib lu
Ġ3 4
Ġ3 1
Ġti táº¹
Ġwa kati
Ġs áº¹
sz a
h ia
Ù İ
b ook
Ġá»į fáº¹
ĠE x
T A
Ġe yin
or u
Ð ¡
ÏĦ ÎµÎ¹
ĠÏĢÏģÎ¿ ÏĤ
h y
lo po
ho lo
Ġd un
Ġen i
á»ģ n
Ġa si
ĠIs la
d Åĳ
ĠI tan
la s
Ġip ese
Ġmáº¹ ta
ĠS E
Ġj á»į
sz e
Ġiá¹£ elá»įpá»į
Ġch a
ĠKáº¹ san
à¸ ²
w or
R O
Ġo orun
Õ¡Õ ¾
Ġe dir
al l
d on
Ġï¿½ï¿½ï¿½ï¿½ï¿½ï¿½ï¿½ï¿½ ï¿½
Ġpa to
Ġkan êŀĮ
áº¹n isá»įrá»į
Ġ... ]
Ġá¹¢i á¹£e
ver si
Ġw ar
Ġe we
Ġgb iyanju
z á»įn
p ona
á¹£i á¹£e
gu st
Ġiá¹£áº¹ láº¹
_ _
ar áº¹
Ġi waju
isun nu
Ġv áº¹
Ġ ãĥ
Ġy Ã¨
ĠF e
p ese
Ġa ni
ĠN o
ĠNi tori
Ġaj eseku
Ġa á¹£á»į
ĠÂ ³
Ġkaa di
ĠS t
ĠChin a
stan bul
m er
ĠM O
ĠL E
in k
ben i
Ġigba siláº¹
Ġa de
Ġoun jáº¹
Ġape juwe
Ġp Ã«
ĠpÃ« pe
B A
Ġa yen
Ã »
Ġka vi
de o
ki ng
ĠI we
Ġta idi
ĠJ anu
di ng
Ġko o
Ġa lu
gh t
ir u
K E
tion al
ka le
da ju
Ġy o
Ġba si
b irin
Ġne êŀĮ
Ġf u
Ġda bi
Ġpe lu
áºŃ p
ĠL at
Ġv ie
ĠW A
ĠJanu ary
H E
Ġá¹£ ie
w oran
Ġi yara
ĠA TI
Ġ6 0
U M
ĠAu gust
os s
ĠI stanbul
Ġi wu
ç ī
ti wá»į
Ġo su
ĠTo p
å ľ
Ġip ari
ng ana
ĠO wo
a mi
ĠEn áº¹
Ġla koko
Ġi fihan
¤ ¾
ĠW o
ä¼ ļ
Ġmáº¹ de
Ġ0 3
Ġid anwo
ĠS er
h am
Ġy Ã¢
t áº¹n
ri c
Ġla aye
Ð º
å Ĳ
T i
Ġda gba
ĠI gba
ri ka
Ġtáº¹ le
Ġfi la
ĠKr isti
ĠI ta
ce book
Ġï¿½ï¿½ï¿½ï¿½ï¿½ï¿½ï¿½ï¿½ ï¿½ï¿½ï¿½ï¿½
ĠNi torina
Ġidi je
D I
O S
Ġme dia
z an
C D
Ġa ri
Ġcsa k
x t
versi ty
Ġi gbo
Ġa se
ĠO ju
Ġai le
Ġku e
Ġgan do
ĠO gun
ĠD o
Ġwu lo
Ã¨ Ì£n
l Ã©
Ġc zy
Ġm á»
sz t
Ä« bu
ra z
Î» Ïİ
Î¸ Î¿ÏįÎ½
ĠÎ¹ ÏĥÏĦÎ¿
9 4
ĠÎº Î¿Î½
Ïĥ Î¯
ĠÎ¬ Î»
ri f
are a
Ġtáº¹ siwaju
ĠP u
ĠJi hova
Ġa yáº¹wo
ĠJ áº¹
ro ll
Ġ3 3
Ġi re
ĠB onus
Ġp Ã©
Ġpr ÃŃ
Ġn ous
Ã« m
ni k
Ġh ÉĻr
Ġg iá»
Ġr end
l Ä«
is sa
Î¶ Î¯
ĠÎºÏĮ Ïĥ
Î¯Î¶ ÎµÎ¹
Ïĥ Î¼Î±
Î¿Î¹Î½ ÏīÎ½
Ġ> <
Î¾ ÎµÎ¹
Î¼ Î±Î¹
Î½Î¿ Î¹
ÏĥÏĦÎ¹Î± ÏĦÏĮ
ĠÎĶ Î·
Î¡ ÎĻ
Ġbo d
it Ã©
z Äĥ
Å º
t l
ci jas
v ÄĽ
Ġvol t
Ġigb es
Ġfi han
Ġbá»į á»įlu
il li
Ġn ÃŃ
zi oni
Å¾ i
d os
ou v
ow i
ÉĻr i
Ġt l
he tÅĳ
Ġm und
á»© c
Î½ ÎµÏĤ
ĠÏĩÏī ÏģÎ¯ÏĤ
Ġ3 6
ĠÎ½ Îµ
Ġ. .
ĠÎ£ Îµ
Ïĩ Ïī
ÏĦÎ¿ Î¹
ĠÎºÎ±Î¸ ÏİÏĤ
00 0
ĠÎ» Î±
ĠÎ¼ÎµÎ³ Î±Î»
ÏĥÏĦÎ± ÏĥÎ·
ĠÎ¼ Î¿
Î´ Ïİ
ĠÏĦÎ¹ Î¼
ĠÎ³ Îµ
ĠÎķ ÏĢÎ¹
Ġ á
ĠÏĢÏģÎ¿Ïĥ Ïī
Ġd di
ÉĻ lÉĻr
Ġse x
Ġsun t
i ta
Ġau x
ma s
Ġs om
b ie
Ã© ho
z za
Ġe m
Ġg Ã¼n
Ġd d
s kie
au x
Ã¡ si
k Äģ
Ġvá» ģ
ĠÃ¶ l
en te
Ä ı
jÄħ c
Ġcom p
b el
ĠÐ¡ Ð
ĠÎµ Î¼ÏĢ
ĠÏĦ ÏģÏĮ
w s
Ġt s
Ġsz Ã¡m
Ġj an
Ä±n Ä±
da s
ti que
Ïĩ ÏģÎ¹
Î½Î· ÏĤ
Î ĺ
ar ch
u lui
Ã¤ l
Å© ng
ÅĻ ÃŃ
Ġ1 B
ĠÏħÏĢ ÏĮ
Î» Î¹Î±
ĠÎŃ Îº
ĠÎ¼ Î¯Î±
2 8
Î¹ÎºÏĮ ÏĤ
Î½ Ïİ
Ġgy da
rz y
Ã¡ la
ĠI l
r Ã¡
Ø ¯
Õ¥ ÖĢÕ
ĠÃ¼ z
ti i
Ġf ost
ĠE r
Ġsh um
ia ÅĤ
r Ä«
ĠÔ ±
ÉĻ si
di g
ĠP h
ĠÃ ª
Ġm Ã©g
os ta
ĠlÃł m
Ġb ona
ju mu
mi z
ĠgÃ¶ r
Ġg ia
v Ã©
on y
t Ãł
Ġu m
ĠÃ®ntÃ¢l n
Ä¼ u
t ul
Ġet tÃ¤
m Ä±ÅŁ
Ġme wn
t ar
Å¡ o
Å¡ a
h le
le ment
r Ã«
Ã¡ ro
ĠE s
Ä± x
ow ych
Ġya ng
ĠÃ®ntÃ¢ln iri
an e
áº¥ y
ĠÃ ī
ÃŃt Ã¡s
Õ¡Õ¯ Õ¡Õ¶
Õ ¯
Ġy er
Ġde i
ho z
Ã½ m
ta an
te le
b Äģ
cion es
Ġ á»Ł
m Ã«
ie j
Îµ Î²
ĠÎº ÏģÎ¹
Î³ Î¿Ïħ
Îĳ ÎĿ
ĠÎ²Î± Î¸
ĠÎ¼ Î¬
ĠÎ² Î¬
Îº ÎµÎ¹
ĠÐł Âµ
ĠÏĥÏħ Î³
Ïĩ ÎµÎ¯Î¿
Ïĥ Î¿ÏħÎ¼Îµ
Î´ ÎµÎ¹
9 8
Î¸ ÏħÎ½
ÏĦÎ¿Ïħ ÏģÎ³
Î ¦
ÏģÎ¿ ÏįÎ½
ĠÂ §
ĠÎ±Î½ ÏĦÎ¯
ĠÎµÏĢ Î±
ĳ Ðł
b l
lu ng
on n
Ġp rin
Ã©s e
Ġe ta
k Ã«
v Äģ
ti g
Ġje d
ment o
ĠkeÃ§ ir
te tt
ie i
ĠÐłÂµ Ðł
ĠÎ³ Î½Ïī
ĠÎ¬ Î½
3 8
ĠÎ±Ïħ ÏĦÎ¬
ÏĥÎ¹Î¼Î¿ ÏĢÎ¿Î¹
ÏĢ Î¹Ïĥ
Ġ0 2
- -
G H
7 6
Î¼ Î¯
Ġ... </
ĠÏĦ ÏģÎ±
ĠÎµÏĢÎ¯ ÏĥÎ·ÏĤ
ĠÏĥÏħ Î¼ÏĢ
Ò ĳÐł
ĠÐłÑ ĳ
ĠÐ¡Ð Ĭ
ĠÎµ Î½Î·
5 5
ĠÐł ÒĳÐł
ĠÂ µ
ĠÐłÑĳ Ð¡
Ġne u
en s
Ġq ar
Ġprze z
ĠE l
va Å¥
Ġda l
Ã¤ r
Ã¶ k
er Ã«
t Ãłn
Ġá»į ráº¹
Ġmo bile
ki ta
ĠI N
Ġt ene
Ġs ise
Ã¡ o
ĠLat vi
es te
ÅĨ u
Ġmi má»į
ĠCo ffee
Ġibara áº¹nisá»įrá»į
ĠBi kini
os á»į
eg e
Ã¶ tt
Ã¶ y
c tor
Ġes i
ka láº¹
g es
p ra
tse ng
Ġif ara
Ġibe re
Ġbi kini
Ġdu du
á»į mu
Ġá¹¢i gba
à¹ Ģ
Ġs ori
á¹£ in
t on
ĠBa yi
Ġaba jade
ĠB lack
Ġsá»į rá»į
Ð »
Ġm iran
ĠA d
à¹Ģ à¸
gi di
Ġ0 4
as e
Ġpin nu
Ġis in
ĠNa ij
láº¹ n
ĠO f
A L
Ġob inrin
ĠIla na
Ġnu de
Ġi mo
ĠF o
res s
B I
Ġi boju
Ġn lo
Ġ ą
Ġá»Į pá»įlá»įpá»į
ĠH D
Ġá»į pa
R E
Ġala koso
á»į láº¹
ĠG áº¹gáº¹
la i
æ Ĺ
ĠA M
an ce
Ġc f
Ġke de
n ego
Ġi rá»į
Ġá»į sáº¹
ĠUni versity
ĠDa vi
káº¹ le
Ã ¯
f á»įwá»į
Ġiá¹£ iro
ĠT u
ĠS how
y u
Ġáº¹ tá»į
ĠNaij iria
ĠAla koso
Ġki ka
ĠAn dro
AR A
Ġk pa
Ġa já»į
ĠSi báº¹sibáº¹
pu ta
b inrin
Ġhi áº¹
m ir
Ġáº¹ ri
g s
Y E
Ġfo ju
ĠAndro id
Ġre re
Ń Ĳ
Ġopo pona
Ġmeje eji
sh i
Ġe ti
p hi
b ili
ĠIs ra
Ġáº¹ da
Ġnu kun
Ġ ä¸
abo bo
ju mo
Ġo á¹£iá¹£áº¹
Ġawo á¹£e
ĠBi o
Ġ??? ?
f á»į
da y
ĠA ma
à¸ £
do ju
Ġáº¹ mi
ĠI ru
k iri
s Åĳ
Ġ Å
Ġc áº£
Ġe po
Ġs po
ke ji
Ġigb imá»į
Ġá¹¢ a
ar an
Ġki ká»į
Ġlo di
Ã© ra
âĢ Ļ
à¸ ´
D E
êŀĮ a
ĠF or
Ġto ol
ĠA won
ĠÕ «
ÉĻ li
Ã¡l l
wa y
oni c
ti ve
ch a
ĠRa il
Ġw an
Ġl oni
wu tu
áº¹ kan
tu tu
âĢ ĭ
Ġi ká»į
Ġshum Ã«
ÃŃ r
is es
Ġcom o
Ġt re
Ġki mi
iá»ĩ u
s ta
lo m
en ts
Ġs ta
ĠW or
Ã© Ì£
Ġt áº¡i
Ġh lo
v y
Ġk ell
ie t
c ÉĻk
nie j
ĠÐłÂµÐł Âµ
ÏĮ Ïģ
Î¸Îµ ÏĥÎ·
ĠÎ³Î¹Î± ÏĦÎ¯
Î¸ Ïħ
ĠÎºÎ¬Î½ ÎµÎ¹
Ïģ ÏİÎ½
ÏģÎ¿ ÏĨÎ¿
ĠÎº ÏģÎ¹ÏĦÎ¹ÎºÎŃÏĤ
ĠÎĿ Î±
ĠCym ru
9 6
ĠÎ³ ÏģÎ±
ĠÏĥÏħ Î¼Î²
ĠÎ² ÏģÎ¯
ÏģÎ± ÏĤ
ĠÏĢ Î¯
Ġ3 8
ĠÏĢÏģÎ¿ÏĥÏī ÏĢ
ĠÎł Î¿Î»
ÏĦÎ¿ Î³ÏģÎ±ÏĨ
Ġ/> ...
7 4
b r
lo ri
F A
Ġbá»į tini
ĠL ori
Ġá¹£a fihan
Ġdo po
ĠJ une
in aa
el áº¹
c r
Ġy á»įn
å ¼
W O
K U
Ġigba dun
ĠG u
Ġpa de
Ġi hwo
Ã© Ì£n
ĠT un
ĠC or
do po
ĠPro du
Ġita ja
tiwá»į ki
ng i
ĠJ Ã©
r en
Ġwáº¹ áº¹
n Ã«
Ġi w
Ġh un
Ġki a
Ġi gi
Ġent re
Ġ **
Ġe ngine
ĠS I
ĠC ar
ro m
li c
ĠNew s
Ġ Ď
po pe
ģ ´
Ġa we
ĠS p
ci d
ĠE ng
Ġâ ģ´
ĠI ya
Ġwi wa
Ġd an
Ġsz ere
ĠT it
ĠI D
ĠB lu
ow er
tor inaa
fá»įwá»į yi
ĠÃ ²
á» ı
ve t
m Äĵ
a ng
ĠgÃ¶ rÉĻ
re j
is s
Ġt ar
Ġ/"> </
ia d
t lo
Äĥ ri
Ġap p
n Ã½ch
ÅĨ a
Ġq e
Ġm Ã¡s
Ġs ind
Ġna j
Ġjan Ã«
ĠÏĮ ÏĩÎ¹
ĠÏĢ ÏģÎ¬
ÏĬ ÏĮÎ½
×Ļ ×
ĠA C
Î¼Î¿ ÏĤ
ĠÂ» .
Î½ ÎµÎ¹
ÎŁÎ Ŀ
Î¼Î¹ Î¿ÏħÏģÎ³
Ġu00 3
7 5
Î¼Îµ ÏģÎ±
ĠÏĩÏģÏĮ Î½Î¹Î±
ĠÎ¼ÎµÎ³Î±Î» ÏįÏĦÎµ
ÎµÎ¹ ÏĦÎ¿ÏħÏģÎ³
Î¶ ÎµÎ¹
wy n
Ġl Ä«dz
Ã Ħ
áº ±
t le
c on
Ġc i
is u
Ġmin den
Ã¡n ÃŃ
er en
Ã© es
Ġo raz
Î¹Î½ Î®
ĠÎķ Î¯Î½Î±Î¹
Î»Î¿Î³ Î¯Î±
Ïģ Ïį
ĠÎĳÏħ ÏĦÏĮ
ÏĥÏĦÎ· Î¼Î±
Î´ Î±ÏĤ
ĠÎº Î¿Ïħ
Î´ ÏĮ
ĠÎĳ ÏĢÏĮ
ĠÏĩÏģÎ· ÏĥÎ¹Î¼Î¿ÏĢÎ¿Î¹
ĠÏĥÏħÎ½ ÎŃ
Î´ ÏģÎ¿
ĠÎ¿ Î¼Î¬
ÏģÏī ÏĥÎ·
Î¼ÎŃÎ½ ÎµÏĤ
ĠÎºÎ¬ ÏĦÎ¹
ĠÏĨ Î±
ÏĦÎµ Ïħ
ĠÎ¼ÎŃ ÏĩÏģÎ¹
á Ģ
Î¸ ÏģÏī
ÏĢÎ¿ ÏĤ
Î· ÏĤ
Î¼Î¿ Ïģ
Î³Î³ ÎµÎ»
Ġ1 A
ĠÎ±ÎºÏĮ Î¼Î±
ĠÎ± Î³Î¿
Ïĥ Î®
Î¡ Îĳ
ia u
ÄŁ a
Ġp Äĵ
ks en
p re
Ġn Ã©
ĠL A
kan na
tra s
Ġd á»įna
ĠWe b
Ġáº¸ rá»į
amáº¹ ra
Ġid in
ĠR un
b s
Ġ" .
ju má»į
T E
Ġkoo du
Ġipa má»į
Ġa á¹£eyá»įri
ĠP M
Ġf ara
ĠAf iri
du ra
Ġor g
Ġi wo
la ng
Ġ201 1
Ġo gb
Ġiya tá»į
à² °
ĠA pp
Ġ8 0
z on
j láº¹
Ġaá¹£ oju
Ġ201 0
la si
Ġa lá»į
å ¹
ĠãĢ Ĳ
Ġi báº¹ráº¹
Ġati já»į
w er
Ġfi fi
ĠAfiri ka
Ê Į
Ġapo ti
Ġen ia
Ġwu tu
Ġibu do
Ġai gba
ĠÙ Ī
ĠA de
ĠD u
ĠÃĮ tÃłn
ĠP ar
Ġob irin
Å¡ áº¹
Ġa o
Ġco ffee
w it
Ġti to
Ġibi ti
ĠI ho
mi ted
ĠâĢĿ, âĢĿ
Ġw in
Ġá»į ba
ĠA pr
ĠI pele
Ġolo ri
ĠEle yi
let te
Ġgidi gidi
da i
Ġk iri
ĠA i
Ġ9 0
ku ro
Ġn yin
á»įn á»į
Ġm beni
at un
ĠA ir
Ġo tutu
indow s
Ġo g
Ġs áº½
un u
ĠQ u
æ ³
Ġwi wo
Ġaz Ã³Ì£n
l isti
Ġyi pada
ĠB ro
ili onu
ĠA gbara
Ġs isan
à¸ ±
am es
ar un
k uru
Ġas á»į
ĠI f
Ġ5 5
Ġ4 4
ĠA gba
Ġlo êŀĮo
à¸Ń à¸
Ġáº¹ni ti
t in
em ber
Ġade hun
B O
Ġn de
Ġiá¹£ an
ĠT O
à² ¿
ĠA á¹£a
ĠM an
Ġ5 00
Ġo máº¹
ng g
ká»į siláº¹
ch i
Ġá»į tun
ĠI pa
ou lette
Ġitan na
me eli
Ġoke ere
ç ¤¾
p to
I S
à ¦
Ġo se
ĠF ran
ĠT áº¹
ĠK listi
Ġd Ã¨
á¹£ an
táº¹ láº¹
om u
ĠtÃ« nÃ«
Ġn do
Ġa á¹£iá¹£e
Ġãĥ »
ĠT V
ĠI P
ĠS an
ĠAn kara
os an
ca tion
ĠH i
Ġgba ngba
ir áº¹
Ġi gbáº¹
Ã² Ì£n
Ġa yan
Ġn fun
Ġi run
L U
Ġdi de
CD D
Ġafáº¹ fáº¹
Ġo y
v Ã¡
Ġh ia
Ġiba tan
lo g
Ġá¹£i gba
Ġoju la
Ġisin mi
Ġsun má»į
æ ĺ
A M
Ġf in
Ġa ja
áº¹n áº¹
Ġpo pu
ĠT CDD
Ġda li
ĠO s
ĠDi áº¹
Ġá»į run
Ġn in
ir l
Ġo di
Ġá¹£áº¹ láº¹
ĠA máº¹
G Q
p ti
Ġwáº¹áº¹ bu
Ġo bi
Ġ. "
ä ¹
Ð¾ Ð
Ġpá»į ju
ĠO ri
f ia
ĠI royin
Ġo k
Ġ200 9
Ġif owo
Ġi jin
gbe ka
ć ą
aêŀĮ an
Ġkia kia
Ġaká»į á»įláº¹
ĠOlo run
ĠI p
Ġ Åĭ
ye wo
i wá»įn
Ġwh áº¹
Ġ9 9
Ġá¹£a laye
ĠFa cebook
I K
Ġga ngan
ĠI di
Ã² g
m puta
ol d
Ġipin le
Ġdin ku
ĠI mu
Ġá»į ran
Ġáº¹ sáº¹
ĠM in
Ġi ku
Ġala bara
ran s
li mited
Ġsi báº¹sibáº¹
Ġto ngana
ĠI po
ĠAmáº¹ rika
Ġtu má»į
Ġ3 D
Ġif e
ĠG er
á ĥ
ko hun
il la
Ġnu gbo
Ġbáº¹ áº¹
ĠGáº¹gáº¹ bi
doju iwá»įn
Ġg á»į
Ġfun fun
Ġt so
ĠE yin
Õ¥ Õ¶
Ã¼ m
ĠAm eri
vo ir
Ġn Ã¡
r Ã³
ng we
st Äģ
ÉĻ dÉĻ
Ġd á»¥
ou ve
ĠP or
tu ri
Ġe en
n Ã¡l
Ġis ti
Ġtou t
Ġpre d
Ġgy fer
Ġwer den
Ġm me
h te
ĠÄ ģ
ty cz
Ġd is
Ġsz a
Ãª u
ĠÎµ Î¼ÏĨ
Î¼ÎŃÎ½ ÏīÎ½
Ġy w
ĠÃª tre
k t
it Ã¤
lu l
n Äħ
ye v
l ÉĻn
ts Ã©g
ĠÄĳ Ã³
Ġvi en
Ġale bo
æ ł
á»į vo
w Ãł
Ã ģ
t Ã¡n
Ġde y
Ã¢n d
Ġj s
ent o
Ġf il
ou th
Ġal s
Ġbi en
men ts
l ish
Ġsi le
Ġs Äħ
Ġfá»į á»įmu
pin le
Ġta ara
Ġr in
D R
ÏĦÎ¿ ÏįÎ½
ĠÎķ Î»Î»Î¬
Î¹ Ïİ
ĠÎ± Îº
ĠÎ£ ÏĦÎ·
ÏĦÎµ Ïį
Î»Î· ÏĤ
ĠÏĦÏĮ ÏĥÎ¿
ĠÎĺ Îµ
ĠÏĦ ÎµÎ»
3 6
Ġ3 7
ĠÎ¼ Î®
ĠÎµ ÏĨ
ÏĦ Ïĥ
ĠÎ» ÎµÎ¹ÏĦÎ¿ÏħÏģÎ³
ĠÏĥ Î®
Ġg wa
ĠÂ Ń
sÄ±n da
kÃłn lÃ¡
Ġbe t
ĠyÃ¨ dá»į
Ġmáº¹ rin
ĠM Ã¬
ri d
mi i
Ġn pe
ĠS am
k á»įn
Ġa ng
ĠJÃ© hovah
Ġá»į á¹£á»į
ĠãĢ Ĥ
Ġr es
à¸ µ
Ġpi pa
ĠB ur
is áº¹
Ġ5 4
Ġwá»į le
ra l
Ġb osá»į
Ì ±
za pa
cia l
Ġe ko
di ti
w Ã²
Ġnh Ãł
Ã¡ j
i den
Ġba keng
Ġi sh
Ġna v
Ġka p
Ġs ono
Ã¶v lÉĻt
Ġm ÉĻn
Ġjo a
iso a
di mo
ur es
l t
£Â ¬
Ġm Ãł
Ġk on
Ġr ha
Ġoá¹£u wá»įn
ĠKá»į kÃłnlÃ¡
Ġz e
Ġrá»į yen
Ġp Ã³Ì£n
ĠI bi
Ġoo gun
si ng
ĠIn ter
Ġ ï
h á»įn
Ġá»į kÃłn
ĠA há»įlu
Ġiá¹£áº¹ ju
ä¼ļ ç¤¾
ĠW indows
a wá»įn
wi p
Ġá»Į na
Ġn di
lo pin
9 2
è ¦
Ġcs wip
ca st
à² ¾
Ġnáº¹ tiwá»įki
Ġda gbe
ĠG GQ
Ġláº¹ áº¹kan
Ġidi bo
ĠSe p
ke de
Ġi káº¹ká»į
Ġapa pá»į
ĠB er
Ġï¼ ļ
Ġi kun
Ġtu tu
Ġitá»į sá»įna
ĠO mo
Ġ. ,
Ġo p
Ġá¹£a koso
Ġfá»į to
Ġaká»į le
ĠE re
å °
v es
Ġv isunnu
z o
Ġo w
Ġol du
ti l
Ã² ng
Ġgba dun
Ġif oju
ĠG i
Ġt lo
Ġgba jumo
ĠI r
ĠC on
ĠApr il
ta tion
bi a
R á»Į
Ġ. âĢĶ
us a
Ġala gbeka
ĠM at
c c
Ġa bu
Ñ ĥ
Ġá»Į kan
Ġáº¹ni kan
ĠI sa
Ġ ì
å į
Ġohun kohun
ĠP re
Ġre luwe
Ġdi a
Ġ7 0
ĠA na
ÉĶ n
ĠAW á»ĮN
Ġoj láº¹
Ġawu já»į
ĠKe je
Ġo kan
Ġko ko
boju to
Ġipa lara
Ġf rom
Ġitu má»į
ĠA ba
Ġáº¹ bi
Ġk ini
eg i
ou t
c to
Ġá¹¢i á¹£áº¹
Ġk Ãº
ka i
Ã¶ r
ĠRe luwe
Ġ3 9
ĠG ra
ĠF S
Ġ. )
ĠY e
Ġs usu
Ġolu pese
Ġth at
g in
Ġi ti
li ng
æ Ī
Ġ ul
v en
Ġiyan u
æ ¥
ger ia
Ġija bá»į
ĠC he
Ġmi mu
Ġigbes áº¹
Ġi sáº¹
ĠGbi gba
ph y
Ġsin s
Ġe wu
Ġi ro
ĠE lo
go do
Ġa mo
ĠEnáº¹ wutu
Ġá»įjá»į gbá»įn
co in
ĠOlu dari
êŀĮ i
Ġpopu p
ĠNi báº¹
ĠH el
D A
Ġba tiri
ĠL oss
ul l
Ġara kunrin
Ġb ra
ĠBe an
à¸ ¡
is á»įna
ĠN zapa
æ ĥ
Ġo ku
Ġa re
Ġif iraná¹£áº¹
Ġm Ã»
Ġh lan
Ġfi fun
ĠUni ted
ke y
ar u
ĠR us
Ġc Å©ng
ĠIn dia
ĠI I
y á»įn
Ġgo do
ĠBa ba
ĠA da
Ġv u
ĠR E
à¤ ¾
ĠB it
em u
a mu
ĠI á¹£owo
h ari
Ġw or
Ġ4 2
ħ å
ĠT rans
âĢ ¦
gra m
Ġon iru
J á»Į
Ġp ool
Ġolu dari
ĠA S
di de
Ġo ma
ĠK ÃŃn
å Ľ
tá»įn isá»įna
om ina
Ġee yan
i mu
ĠKÃŃn nÃŃ
ki ki
ĠN á»į
gh áº¹náº¹
Ġá¹£a yáº¹wo
lo ngo
Ġs oro
ĠI yan
pa ta
Ġi pe
ĠU K
à³ į
u ra
ti s
ka si
R UN
Ġa yo
ĠM I
Ġagba la
ĠMa ch
Ġy our
ĠEng lish
Ġá¹£e un
Ġiá¹£ á»į
æ Ŀ
Ġa ma
min ira
Ġâ Ĩ
Ġy Ã³Ì£n
ĠR áº¹
ĠH ar
Ġni ngg
ĠN or
ĠI fi
ĠB ar
h n
ĠSE O
ĠS un
ĠR u
ng bi
Ġ200 8
p or
P E
Ġwi wá»įle
Ġo whe
Ġo re
ĠA tun
Ġ4 3
ĠA p
Ġ ese
lu m
K A
Ġá»Į ká»į
Ġá»Į gháº¹náº¹
Ġláº¹ n
p áº¹lu
ĠTo Ì£n
Ġa run
ĠS outh
Ġáº¹ jáº¹
Ġp lá»įn
Ġn ini
Ġm be
Ġgbi gbá»į
Ġe h
ĠC am
ãĢ Ĥ
Ġká»į mputa
ĠP C
ĠMe dia
ĠI se
ho p
Ġl owo
ĠG od
Ġ6 5
hun sa
Ġirá»į run
Ġgig un
m on
ji á¹£áº¹
Ġori le
ĠÎ± Ïĥ
ĠÎ´Î· Î¼Î¹Î¿ÏħÏģÎ³
ĠÎ¿ÏĢÎ¿ Î¯Î¿
Ġca el
Å¡ ie
Ġá¹£i i
ĠC ha
an c
Ġaile wu
ĠD ownload
bo l
å Ĭ
Ġodo do
tras onic
Ġaá¹£a ju
Ġa sa
à¹ Ī
Ġá»į pá»įlá»į
ĠL O
wi êŀĮ
ĠO ru
Ġb lo
Ġifoju si
® ï¼
ĠB an
Ġng u
Ġk amáº¹ra
ĠL á»į
ĠY an
ĠHa ck
Ġz i
Ġn ch
b uru
en er
al á»įna
UM X
sá»į tá»į
le a
Ġmi dro
Ġmidro ll
Ġláº¹ sáº¹
Ġigb ese
ĠE táº¹
Ġ4 9
æ¥ Ń
Ġh indi
ĠI z
Y IN
Ġáº¹ nu
ĠP ri
ĠA pe
è ¿
lo gy
Ġbi á»į
Ġidi le
Ġg h
Ġe ja
ĠF UN
ķ äºº
Ġke te
Ġirin á¹£áº¹
ĠiP ad
ĠH u
Ġmar un
Ġla ini
Ġ4 7
en ce
Ġáº¹ ru
Ġipa de
th er
at or
Ġigbe ga
Ġi meeli
ĠI tá»į
Ġ4 6
à¸² à¸
w Ã©
d ni
ĠN g
já»į pá»į
I A
Ġwi we
ĠiP hone
Ġi ban
Ġgá»į alá»įna
ĠB uy
é ĩ
ri ng
lo hun
M S
pa pá»į
Õ¡ Öģ
q q
B C
Ġl ilá»į
Ġb ere
Ġl á»
ĠI ba
ĠD an
ĠAma zon
káº¹ ni
ĠBro ad
Ġcom man
Ġatáº¹ le
Ġiya wo
ĠP lay
ĠK ing
W A
N I
Ġg reen
Ġale jo
Ġk ter
c an
Ġiya sá»įtá»į
Ġa isan
yan ju
ĠUS B
il owa
Ġc an
le e
is tan
Ġpa danu
Ġi yá»į
Ġali ho
Ġ** *
Ġj lo
Ġes o
ĠO kun
ĠÃ¶ ssz
ilowa ya
Ġtá»į ju
Ġa há»įlu
ĠPáº¹lu páº¹lu
Ġ5 8
ĠNi geria
ĠR oulette
Ġis o
ĠI S
Ġ6 4
ki ti
gra phy
Ġta bili
ĠA P
ĠAla ye
Ġayan fáº¹
Ġ6 6
ul i
I D
Ġi dun
ĠC hi
ãĥ ¼
li ance
N UMX
Ġá»Įlá»į hun
Ġáº¹gbáº¹ run
F UN
áº¹ si
ĠE ni
Ġáº¸ gbáº¹
Ġolu gbe
Ġkpa hen
Ġa ta
ĠDe c
le nge
l ÉĽ
d ÃŃ
Ã³ ÅĤ
Ġh la
Ġj au
Ġsz em
j iem
Ã¼ t
Ġre Ì£
Ġle ro
Ġi j
b Ã¢
T O
ĠB á»į
re d
isi ta
G o
ĠGer man
ri t
is tÃ¤
no ÅĽci
ba l
Ġa y
Ġp os
áº «
ta m
Ġv Ã©g
Ġe tsa
æ ī
s on
ol le
ĳ Ĺ
Ġl ul
Ġala i
Ġ7 5
M I
Ġï¼ ı
ĠÃł wá»įn
k st
Îµ Î¹Î±
Î´Î· Î³
ĠY n
Ġv Ã¡l
Å¥ a
Ġba ÄŁ
Ġh Ãłng
ĠÃ© ta
n ym
tu ar
c Ä«
ĠâĢ İ
ÉĻs indÉĻ
Ġk Ã¼l
Ġka pa
Ġz Ã¡
ĠvÃł o
ĠW y
ÈĽi i
Ġp la
ÏĢ ÎŃ
Ġd r
ĠÕ ¿
la ÅŁ
Ġta i
Ã¡ st
Ġt ym
en n
ĠN Ã«
ke j
ĠdÃ© c
Ġk ur
Ø ¨
ĠÙ ħ
Ġol ma
Ġdz ie
men te
Ġá ¼
ÏĦ ÏģÎŃ
w m
Ã©n t
ĠZ a
sÄ±n Ä±n
Ġmo Å¼
ĠtÅ¡ e
Ġna ko
Ġh at
g Äģ
Ġce tte
ĠÃ§ Ä±x
to v
Ġa ce
ĠÄĳá» ĭ
ĠÎķ Îº
Ïħ Ïĩ
ĠÏĦÎµ Î»ÎµÏħÏĦÎ±
ĠÎµÏĢ Î¹Îº
GH z
ÏĩÎµ ÏĦÎµ
wy s
ti f
Ġo le
Ã¡s ok
Ġqu es
z u
Ġs ÉĻ
Ġpr Ã©
me t
ĠÎºÎ¿Î½ ÏĦÎ¬
ĠÎľ Î±Ïģ
ĠÏĥÏĩ ÎŃ
ĠÎ´ Î¿
ĠÎµ Î¹Ïĥ
g ol
em e
un ÈĽ
Ġg ad
Ġ ur
Ġpe le
Ġna ch
zi k
Ø ¹
ĠâĢİ #
di yi
Ġb ÄĻ
Ġnh iá»ģu
Ġfa it
Ġpi Ã¹
Å¡e t
Î³ ÎµÎ¹
f yd
t os
ĠÃ İ
Ġz na
es sa
Ġmin t
tÃ« s
Ã© ri
Ġba tho
Ġm Äģ
Ġalaba á¹£epá»į
ĠM á»į
ĠIsla eli
11 0
Ġagb ese
ĠRa y
Ġa rin
Õ¸ÖĤÕ©Õµ Õ¸ÖĤÕ¶
lÉĻ ÅŁ
ig i
Ġimá»į láº¹
Ġi k
Ġa ga
ĠS ys
ar ia
A E
Ġáº¹ ran
Ġif a
êŀĮ ni
L ink
Ġnu u
Ġg ame
ĠU l
ĠI ká»į
ng u
Ġáº¹ já»į
Ġcomman der
ĠProdu cts
iráº¹ diti
Ġth is
ĠR áº¸
Ġde vi
láº¹ nu
Ġv or
bul áº¹
Ġapa jláº¹
os a
Ġku kuru
ĠI á¹£e
má»į ra
é ¢
du ta
Ġli le
Ġfáº¹ ran
ĠA wo
p lá»įn
Y A
ĠâĢ ĭ
Ġlo ke
c ro
si c
Ġiw osan
b ru
Ġá¹£a wari
Ġnibi ti
ĠA k
ulá»į á»į
Ġáº¹ ka
Ġtr Ãªn
ĠS ta
å ¸
oo d
fe fe
Ġï¿½ï¿½ï¿½ï¿½ï¿½ï¿½ï¿½ï¿½ï¿½ï¿½ ï¿½
Ġs ha
Ġa na
å ĵ
á¹£ o
I V
Ġáº¹ hin
p y
å¼ ı
Ġç ļĦ
è ī
ia l
Ġlá»įwá»į lá»įwá»į
ĠT an
à¸ ¥
ĠI fihan
me ji
m l
ĠC hr
Ġa to
dir áº¹si
H I
Ġnd Ã¶
at er
Ġero ja
ĠIgb imá»į
u t
U S
Ġi tá»įnisá»įna
Ġayi pada
ĠVi deo
ĠTur key
a i
ĠX NUMX
Ġ2 F
k oro
Ġá»įmá»į birin
ĠA po
Ġ1 x
ć Ĉ
ç ½
» ¿
Ġipin láº¹
Ġiba lopo
Ġ? âĢĿ
å ½
p el
ĠTe ch
ĠJu da
ĠC D
ĠAW IK
ĠAWIK ON
Ġ5 6
Ġida duro
Ġb oo
Ġan ti
Ġa ini
ĠAWIKON KO
Ġiran ti
ĠImá»į láº¹
Ġni torina
Ġido ko
Ġba ll
pa a
ng ers
Ġla ra
Ġa g
b us
as o
M O
ĠM on
ĠG r
Ġi duro
ke ti
Ġolo kiki
Ġgb ese
ĠG ig
Ġy ise
à ´
Ġá»Į dun
Ġijo ba
isi yi
er y
Ġn z
Ġde vo
Ġawu jo
Ġala wá»į
Ġtr ans
ĠI á¹£akoso
Ġs ho
å ·
b il
ð Ł
Ġlul Ãº
Ġh á»įn
Ġde láº¹
å¹ ´
Ġl Ã¡
ĠpÅĻ ÃŃ
Ã¡l y
nos Å¥
Õ¸ ÖĢ
Ä± q
Ġes ta
szy st
Ġai z
ka an
Ġl áº¡i
z Ã³
ĠÏĢ Î¹
Î¸Î· ÎºÎ±Î½
ĠÎº ÏģÎ±
ÏĥÏĦÎµ Î¯
ĠÏĢ ÏģÎ¹Î½
Î»Îµ Îº
ÏĦÎ¹ Î¿
Ġ Ïī
d di
s ka
un un
ta re
Ġfa ire
ta k
owe j
Ġnd Ã«r
Ġth i
Ġc ou
il ÉĻn
ĠÎ¤ Î¹
ÏĥÏĦÎ· ÎºÎµ
Î»ÎŃ Î¿Î½
Î» Î¼
ĠÏĥ Î±Î½
Î¸ Î±
Î½ ÏĮ
ĠÎ³ ÎµÎ½
Ïĥ ÏĥÎ±
ĠÏĢÎ¬Î½ Ïī
ĠÎŃÎ½Î± Î½
ĠÎ ĸ
Ïī Î½Î±
Ġgy f
ĠÅ ł
j er
v ÃŃ
ma an
Ġcom me
be le
Ġg ra
c je
mm er
c er
Õ¸Õ ¾
ĠÕ Ģ
Ġya x
e le
áº »
ko m
ĠE gy
p ie
ÏĮÏĦÎ· ÏĦÎµÏĤ
ĠÎºÏģÎ¹ ÏĦÎ¹ÎºÎ®
Ïĥ Î¹Î¿
ĠÏĦÎ± Î¾Î¹
Îº ÏģÎ±
ĠÏħÏĢÎ¬Ïģ ÏĩÎµÎ¹
Î½Î¿Î½ ÏĦÎ±Î¹
ĠÎ¤ Îµ
ĠÏĥ Îº
ÏĦÎ¿ ÏĢÎ¿Î¹
ÏĥÏĦÎ¹Î±ÏĦÏĮ ÏģÎ¹Î±
ĠÎ¿ÏĢÎ¿ Î¯
ĠÏĦ Î¯
ĠÎĺ Î±
Îµ Î½Î¿Î´Î¿
ÏĦÏī ÏĥÎ·
Î¯ Î´Î¹
4 5
ĠÏĥÏĦÎ¿ Î¹
Î» Î¹Îº
Î¬ Î²
Ïģ Îº
Î³ Ïĩ
ĠÏĥ ÎºÎ¿
ĠÎ» ÎµÏĢ
ÏĪ Îµ
ĠÏĢÏģÎ¿ Î²
ĠÂ» ,
Ġg we
ung s
ĠK oso
in Ã«
Ġm yÃ¶
ba ka
áº· t
t k
ov an
ĠÃº j
j s
Ġon t
Ġson ra
ĠÎŃ Î½
Îķ ÎĿ
ĠÏĥ Ïī
ĠÎ´ÏħÎ½Î± ÏĦÏĮ
Î¿ Î³
Î· ÏģÎµ
Î»Î± Î¼Î²
Î¼ ÏĢÎ¿
ĠÎµ ÏĦÎ±Î¹
ĠÏĢÎ±Î¹ ÏĩÎ½
Î±Ïĥ Î¯Î±
ĠÎĳ ÏĢÎ¿
Ġf od
ra s
Ġs ie
Ã« ve
Ġk Ã©p
ĠB áº¹áº¹
Ġ4 1
ï¼ ¯
ry pto
Ġwá»į pá»į
ĠM al
ĠFa cts
Ć ą
ĠM A
ĠI pinle
à² ķ
Ġè ĳĹ
Ġde er
tic le
ig n
Ġw áº¹n
Ġipo longo
Ġhun ter
Ġho máº¹
ĠI wá»į
à¸´ à¸
sá»į rá»į
c le
Ġnuk á»įn
ĠP aa
Ġa ir
ĠW in
t he
gb Ãł
cz a
áº¥ p
Ã µ
d ÄĽ
di k
tt u
te Ä¾
Ġdu ke
ci o
Å« t
ar en
Ġ Õ¡Õ
z ÉĻ
tate a
ÄĻ k
Ġva la
nos ti
de os
r os
ĠÏĮ ÏĥÎ¿
f r
d Ã³
Ġto i
Ġl it
Ġe o
tÃ« n
Ġs á»ĳ
ĠÏĢ Î±Î½
Ġei ch
Õ¸Õ ²
Õ¥Õ ¿
Ġis ÉĻ
Ġdi es
ĠâĢ ŀ
Ġo li
ch er
Ġh ÉĻm
Ġdel l
u re
or es
Ġch i
a h
ĠGbo gbogbo
ze d
cto ber
ŃĲ â
Ġbi o
ĠT á»įn
ĠEtáº¹ wáº¹
ĠC O
fi kun
A d
Ġkáº¹ káº¹
Ġi kan
ĠIsra eli
é Ģ
e e
Ġn du
Ġ ÅĦ
Ġti j
Äĵ s
he lo
m os
Ã¡l is
Å į
g we
Ãª me
ÉĻ x
al es
Äį i
ãĢ ĳ
ãĢ ģ
Ġp an
Ġ????? ??
Ġr onu
Ġif á»įwá»į
ĠN di
à²¾ à²
ĠP er
ĠO ro
ĠN wá»įn
ĠLA TI
Ġi kede
se d
ĠÕ ¤
f ÉĻ
Ġk or
ł ±
Ġl oo
ĠM ÃŃ
ĠI wadi
P S
ĠÂ ·
Ġfi fa
Ð° Ð
ulá»įá»į gi
c ar
Ġta un
ĠNa wáº¹
ĠH indi
ĠâĢĭ âĢĭ
ĠK O
ĠA bu
inu wa
GB A
wit ter
Ġï »¿
Ġgb Ã¨
th a
Ä« t
k ur
Ġpata pata
Ġo si
phi yá»į
Ġsins Ã¨Ì£n
ĠI ran
ng s
Ġire ti
Ġbu buru
u bu
es o
ĠSa le
Ġa bojuto
ĠJ an
à¸ ª
Ù ĥ
Ìģ n
ti v
Ġb ar
nÃ© ho
Ġbe z
t res
ĠÄĳ áº§u
Ġke z
l la
Ġdas s
o a
Ġz ÅĤ
owan ie
g j
Å¡an u
ĠMo dimo
ĠÕ º
Õ¸ ÖĢÕ
Õ ¤
Õ¡Õ ®
Ä± lÄ±
Ġha e
unÈĽ uri
ĠÏĮ ÏĢÎ¿Ïħ
ĠÎ²Î¿ Î·
ĠÏĢÏģÎ¿ ÏĬÏĮÎ½
Î¬Î» Î¹
ĠÏĥÏĦÎ¹ Î³
Î¿Ïħ Î»
Î¸ ÏģÏİ
ÏĨ Ïħ
Î¼ Î¼
ÏĦ Î¶
Î¾Î· ÏĤ
Î¹ Î²
ĠÏĢ Î¹Ïĥ
Ïĥ Î¯Î±ÏĤ
Ġy s
Ġin ter
Ġda ha
owa Äĩ
ÃŃt Ã©s
la h
t ÄĽ
at Äĥ
Ġd on
Ġs vo
Ġs em
Ã Ĳ
Ġn Ã³
k se
Ã ¸
le mo
Ġp l
ĠktÃ³ re
ÎĻ Î£
Î¸ Î½
Î¯ ÎºÎ·
ĠÏĩÎ± ÏģÎ±Îº
ĠÏĩ Î»Î¼
Î» Î¹Ïĥ
Î³ ÏīÎ½
ĠÎµ Î»Î»Î·Î½
Î¼ÎŃÎ½ Î¿Ïħ
ĠÎ±ÏĢ Î±Î½
Î»Î¿Î³ Î®
Î¼Î± ÏĥÏĦÎµ
ĠÎµÎº ÏĢ
ÏĪ ÎµÎ¹
ĠÏĢ Î»Î±
20 17
Î³ Î½Ïī
8 5
Îº Î¹Î±
ĠÏĨ ÏħÏĥ
ĠÎ± ÏĥÏĨ
Î»Îµ ÏĥÎ¼Î±
ÏĩÎµ ÏĦÎ±Î¹
ĠÎµ Î´Ïİ
ÏģÎ± ÏĥÏĦÎ·
ÏĢ Î®
Î» Ïį
ÎºÎµ ÎºÏģÎ¹
Î¾ Ïį
Î¾ ÎµÎ¹ÏĤ
na u
Ã¡ ciÃ³
ĠP our
sh me
Ġp ir
Ġr en
c ul
Ġm Å±
it Ãł
f en
Ġg ÉĻl
el la
Ġex p
owan ia
Ã¡ nak
Ãł o
ÅĨ em
9 7
Î±Î¹ ÏģÎµ
Î» Î¹Î¿
ĠÎ¼ Î¿Î½
ĠÏĥ ÏįÎ½
ÏĦ Ïį
ĠÏİ ÏĥÏĦÎµ
4 4
ÏģÎ¹ Î¸
Î´ ÎµÏħ
Î³ÏģÎ± Î¼Î¼Î±
ĠÏĢÎ¬Î½ ÏĦÎ±
Î Ĵ
ÏĦÎ· Î³Î¿
ne ud
ÃŃ m
Ġse o
Ġtr Ã¨s
er w
Ġt ÉĻrÉĻ
h l
Ã± o
ĠPor no
ĠÃ®ntÃ¢l ni
b les
Ġsh qip
tz en
ĠkÃ« tÃ«
ĠR om
j Äģs
he z
ĠC au
n Ãº
ĠÃİ n
Ġvo i
lo ng
Ġo ch
z Äħ
ĠÃ ģ
Ġkan Ã«
Ġal la
Ù Ĥ
di b
ĠÃ© tÃ©
áº£ o
ili b
ga z
Äį nÃŃ
ĠÎŃ ÏĦÏĥÎ¹
Î±Î¹ Î¿
Î½Î¿ Î¼Î±
ĠÎ±ÏĢ Î±
ĠÎ¶ Î·
ĠÏĨÎ¿ ÏģÎ¬
Ïĩ Î¹Ïĥ
ĠÎ£ ÏĦÎ¿
ĠÎµÎ¹ Î´
ÏĨÎŃÏģ ÎµÎ¹
Î¼ Î¼Îµ
ÎºÎ¿Î» Î¿Ïħ
Î¸Îµ Î¹Î±
ĠÏĦ ÏİÏģÎ±
ÏĢÎ¿ ÏĦÎµ
Î»Î· Î¼Î±
ÎĹ ÎĿ
Î»ÏĮ Î³
ĠÏĨÏī ÏĦÎ¿Î³ÏģÎ±ÏĨ
ĠÎ¼Î± Î¶Î¯
Î½Î¿Î½ ÏĦÎ±ÏĤ
ĠÎŃÎ½Î± ÏĤ
2 7
Îº Î¯Î½Î·
Î± ÏĦÎ±
ĠÏĢÎ»Î· ÏģÎ¿ÏĨÎ¿
ri p
ĠÏĥÏħ Î³Îº
Î¸ÏħÎ½ ÏĥÎ·
ÏĢ Ïī
ĠÎļ Î¬
ĠA B
Ïģ Î¿ÏħÏĤ
Ġy ng
Ġdo hia
ĠU p
ke le
Ġm Ã´
c om
Ġb an
ĠMe tro
Ġo hwo
Ġigb iyanju
Ġiba se
Ġa bo
osi le
Ġsá»į gbe
Ġifara han
ĠMach ine
ĠJo han
Ġ, âĢĿ
Ġá»į gbá»įn
Ġá¹£ o
Ġlu b
Ġpa pa
Ġo minira
Ġgb ona
Ġ3 00
si le
Ġå ı
Ġo á¹£e
Ġo ur
ĠL ose
Ġ200 7
ya wo
ri ca
ani c
å º
di c
ĠÄ «
ãĤ Ĵ
Ñ ĭ
Ġh Ã¹
d ur
Ġeh eláº¹
ĠNi bi
oun t
k á»įni
at es
Ġá»Į rá»į
à¥ į
Ġm ba
ĠK u
ä¸ Ģ
káº¹ sáº¹
gu e
ĠL ine
ĠI W
ĠA woran
Ø ³
ĠY Ã©
K I
Ġwu te
ani wá»įle
Ġw un
ĠLa i
Ġle het
w láº¹
lus an
h Ãłn
Ġwir d
ĠÄ Į
le la
Ġp ye
Ġf iraná¹£áº¹
ĠA le
usu lu
am an
at h
ĠO S
Ġu p
re re
au lu
Ġfi imu
Ġdi po
Ġar ticle
ĠU AE
wh áº¹
Ġimu dojuiwá»įn
Ġba ta
ju k
ĠWeb tal
ĠBa tiri
ĠS á»į
ĠSu gbon
ä¼ ģ
Ġt ÃŃ
a j
ĠÏĢÏģÏİ ÏĦÎ·
Î» Î¯Î±
ĠâĢ º
ĠÎŀ ÎµÎ½Î¿Î´Î¿
Ïĩ Ïİ
ÏĦÎµ ÏģÎ±
te xt
Ġl le
in te
m ÄĽ
áº¿ u
Ġp Ã¤Ã¤
Ġdel le
m Ã¡ny
ÅĤ e
Ġf um
ĠD as
ĠAn unÈĽuri
t ri
ma t
Ġj Äģ
Ġs am
an do
Ġfo g
Ġs es
Ġd y
ÉĻn in
p Äĥ
iá»ĩ c
ĠC e
hr en
Ġu Å¾
Ġjoa lo
Ġt y
Ġh au
v as
ĠÕ £
ĠÃ ĩ
Ġha holo
Ġa ki
Î´ Ïī
Î¸ Î¿
ĠÎŁ Îº
Î³ Î¬
ĠÏĥÎ· Î¼
it hi
Ġm ÄĽ
la d
Ġa tt
ÅĤ Äħ
en cia
di m
ar te
Ã¼ z
ĠE in
da l
jÄģ m
Ã¨ me
p owie
Ġb á»ĭ
sz Ã¡g
ti a
Äĥ s
ĠN ie
al q
ir Ã«
ent es
Ã¤ i
Ġw szyst
tu lui
el ÉĻ
ha la
Ġein en
Ġt Ã¡
Äģ ku
Ġm Ã©
cy j
Ã¡ ci
di t
cu m
Ġp ow
Ġth a
Ġk Ã¤y
Ġn ÄĽ
en ta
tz a
ĠÆı li
ÄŁ u
ci ja
Ġm Ãªme
Ã©n ek
ow ego
Ġm Ã¡
Ġse bel
ho a
Ġna ng
Ġm an
Ġf ie
Ġgj ith
ĠtÃ¶ bb
ÏĦÎ¹ Î¬
ĠÎ±ÏĢÎ¿ ÏĨ
Îķ Î¡
ĠÏĥÎ· Î¼Î±Î½
ĠÎ±Î½ Î¸ÏģÏİ
ĠÎ³ ÏģÎ¬
Ġcon text
ĠÎ£ Î¤
ÏĢ ÏĦÏīÏĥÎ·
ĠÏĦÎ±Î¾Î¹ Î´Î¹
Î»Î¯ Î¿Ïħ
ĠC y
b li
Ġcom e
Î² Îµ
ÎŁÎ Ľ
ĠÎ±Î³Î¿ ÏģÎ¬
Î±Î½ Î¬
ĠÎ¼ÎŃ ÏģÎ¿ÏĤ
ĠD DR
2 3
ĠÎ¼ÏĢÎ¿ ÏģÎ¿Ïį
ĠÎ¹ ÏĥÏĩ
ĠÎ¯ Î´Î¹Î¿
ÏģÎ³ Î¿
ĠÎµ Ïĥ
Î³ Î¿Î½
ĠC OM
ĠÎ¿ ÏģÎ³
ĠÎº Ïį
Ġ Ïį
ĠÎ±ÎºÏĮ Î¼Î·
ĠÏĨ Î¿Ïģ
Ġo edd
Ġv al
c as
Ġs ou
larÄ±n Ä±n
so ane
k ÅĤa
Ġktor Ã©
Ġkan n
Ġng o
Ġde c
Ġb Ã«
ĠtÅ¡ a
Ġse be
Ġaus si
Ġqar ÅŁÄ±
k Ã³w
mi ento
te urs
Ã¼ ck
ĠÏĢÎ± ÏģÎ¿Ïħ
ÏģÎ· ÏĥÎ·
ĠÎ¾ÎµÎ½Î¿Î´Î¿ ÏĩÎµÎ¯Î¿
6 8
Ïĥ Î¹Î¬
Ġ! !!
Î¬Ïģ ÏĦÎ·
ĠÎ± Î¹
Î´ Î¬
Î¶ Î·
ÏĩÎ± ÏģÎ¹Ïĥ
ĠÎºÎ¹ Î½Î·
ĠÎ³ Î¯Î½ÎµÎ¹
ĠÏĥÎ® Î¼ÎµÏģÎ±
ĠÎļ Ïħ
Î±Î¹ Î½
ĠÎ» Î¹
ÏİÎ½ ÎµÎ¹
ĠÏĢ Î¿Î¹
ÎĹ Îľ
Ġb ydd
Ġd rej
Ġs á»±
en za
vÃ¤ t
ze ko
Ġel le
ĠBa kÄ±
ĠÎĶ E
ĠmÉĻ h
m Ã©ny
Ġve i
ÄĻ p
Ġzu m
s Ã¡g
i ts
Ġcu m
ho d
ĠÎµÎ¼ÏĨ Î±Î½
ĠÎ´Î¹Î± Î¸ÎŃ
Ïħ ÏĥÎ·
Îµ ÏģÎ¿
Ġs ydd
p Ã«r
Ġm ÉĻs
Ġlu i
Ġs us
Ġs ka
Ġs me
v re
Ġk go
Ã ī
Ġna p
Ġg ran
Ġsa y
an ie
ĠMar ch
ĠBroad cast
à¥į à¤
ĠJ er
m ara
Ġida já»į
ĠG be
ĠA are
êŀĮ in
æĹ ¥
ĠA koko
E T
Ġaká»į siláº¹
r Ã¨
ĠÃ ³
Î¸ Î¿ÏĤ
ÏĢ Î¬Î½
Ïħ ÏĦÏĮ
ĠÎ£ ÎµÏĢ
ĠW M
ÏģÎ±ÏĥÏĦÎ· ÏģÎ¹
ĠÎ· Î¼ÎŃ
ÎµÎ¯ ÏĦÎ±Î¹
ĠÎķÎ»Î»Î¬ Î´Î±
Î¼ Î¯Î±
ĠÏĢÎ± ÏģÎŃ
Îĳ ÎĽ
ÏĦÎ¿Ïį Î¼Îµ
Î» Î¹ÎºÎ¬
ÏĨ Î¹
ĠÎĶ ÎµÎ¯ÏĦÎµ
ĠÏĨ Î¯
Î¼ÏĨ ÏīÎ½Î±
ĠW N
Ġd de
Ġs pÄĵ
ĠpÅĻ i
Ġcz as
it en
ia c
Ġb er
Ġz aman
tan t
Ä ©
Ġt sh
cu t
t ur
Ġs ul
qu i
Ã© ben
ÅĪ a
dz o
ÎŃ ÏģÎ³
ĠÎµÎ½ ÏĮÏĤ
ĠÏħÏĢÎ¬Ïģ ÏĩÎ¿ÏħÎ½
ĠÎµ ÎºÎ±
ĠÎ±ÏĢÎ¿ Îº
ĠÎ´ Ïħ
ĠÏĥÏħÎ³ ÎºÎµÎºÏģÎ¹
Ïĥ ÏīÏĤ
2 9
ĠÏĢ Î»Î®
ÏĦÎ¹Îº Î¿
ÎĻ ÎĿ
Î¼Î² ÏģÎ¯Î¿Ïħ
Ïĥ Îº
ĠÎµ Ïį
ĠÏĦ ÏģÎ¿
Ġon d
ĠSh qip
Ġg ja
da ÅŁ
yl ko
ze tt
Ġtre bu
Ã ®
Ġta s
v Ã½
ka a
ĠÕ ¢
g ÉĻr
Ġch á»ī
g ar
an ia
is on
n ost
Ġam b
g Ã¡l
is chen
Å¡an Äģs
tu s
tso e
me la
Ġt ego
al Äĥ
Ġan che
Ġy eni
st Ã¤
Ġpeu t
Ġhe t
Ġbu de
ĠKoso v
Ġsh k
Ã± os
Ġid Åĳ
ĠÄĳá» ĵ
ĠÏĢÎ±Î¹ Î´Î¹Î¬
ĠÎ´ ÎµÎ¯
Ġ< /
ÏİÎ½ ÏĦÎ±ÏĤ
ÏĦÎ® ÏĥÎµÎ¹
Ïĥ Î±Î¹
ĠÏĢÏģÎ¿ Î·Î³
Î¼ÎŃÎ½Î¿ ÏĤ
ĠÏĢÎµÏģÎ¹ÏĥÏĥÏĮÏĦÎµ ÏģÎ±
ĠÎ¶Ïī Î®
ĠÎ±Ïħ ÏĦÎ¿Ïį
ĠÏħÏĢ Î·ÏģÎµ
ĠÎ¸ÎŃ ÏĥÎ·
ĠÎł Î¿
ĠÎļ ÎĳÎĻ
ĠÎ±Î½ Îµ
Î» ÎµÏĤ
ĠÎº Îµ
á ¿
ÏĨ ÏīÎ½
Ïĥ Î¼Î±ÏĦÎ±
ĠÎ½ ÏĮ
ĠÎ¦ ÎµÎ²
Ïħ Î¼Î±
ÏģÎ· ÏĤ
ĠÎ¼ÎµÏĦÎ± Î¾Ïį
ÏĢÎ¿Î¯ Î·ÏĥÎ·
ĠÎĻ Î±Î½
ĠA E
hy w
Ġw s
ĠgÃ¶ st
ko a
Ġk wa
Å£i i
ĠÃ®ntÃ¢lni re
Ġj wa
c are
Ġve Ä¾
Ġti l
Ġve tÃ«
Ġpr Ã©s
Ġs wo
Ġpo ate
el Åĳ
Ġr is
Ġn Äĥm
ari o
de d
d Ã¹
Ġt Ã¤
d es
ĠÉĻs as
Ġr he
ĠWor ld
ĠHel ps
tÃ³ Ì£
Ġt Ã³
ÅĻ i
to m
os z
Ä¼ a
Ġh y
e a
Ã¼l t
Ã«n Ã«
y yat
g t
ĠÃ© c
cz ne
Ã¢ t
v ÉĻ
d nÃŃ
Ġpor no
Ã± a
end re
ĠP Ã«r
Ġaz t
Ġl en
st y
ĠA us
ÏĢ Î¿ÏħÏĤ
ĠÎµÏħ ÏģÏİ
ÎµÏį Î¸ÏħÎ½ÏĥÎ·
ĠÏĥÏħ Î¼Î¼Îµ
ĠA F
Î¹Ïĥ Îµ
ĠÏĥÏħÎ½Îµ Ïĩ
ÏĢ Î±Î½
ĠÏĦ ÏĮÏĦÎµ
Î½ Î¿Ïħ
ĠÎ¬Î½ Î¸ÏģÏī
ĠÏĢÎ¿ Î»Î»Î¬
Î¼Î¿Ïį ÏĤ
r th
n es
c ciÃ³n
ĠJe ho
Ġm oo
en ti
ise t
Ġnh áº¥t
Ġbil ÉĻr
Ġp il
Ġty re
Ġno ch
z na
on es
ĠD er
ÏĦÎ· ÏĦÎ±ÏĤ
ra u
z Ã¡s
ĠC u
is te
ÅĽ cie
ĠJeho fa
Ġli k
Ġfe ela
ĠÄį o
le ri
h at
z ia
Ġcon s
Ïį ÎµÎ¹
ĠÎµÎ½ Î´Î¹Î±
ĠÏĥÏħÎ½Îµ ÏģÎ³
Ïģ ÎºÎµ
f an
g ji
es nÄ«
Ġd ira
Ġsp ra
ke z
ko lo
Ġgi Ã¡
Ġr re
Ġga da
m Äĥ
ĠpÅĻ ed
Ġpro p
Ġe dib
Ġein er
Ã©l y
Ġr ona
Ù ģ
z Ä±r
ĠÎł ÏģÏĮ
6 5
l yn
ĠmyÃ¶ s
hi leng
Ġdá»¥ ng
ce j
Ġpro du
ĠpÄĵ c
Ġs ans
ĠÃ¶l kÉĻ
Ġc _
ĠF t
ĠE z
t v
ĠÏĩ ÎµÎ¹
ÏĦ Î¯Î±
ĠÏĢ Î¬Ïģ
Ïģ ÏīÎ½
ÏĦ Î¿ÏħÏĤ
ĠÎ¬Î» Î»Î¿
ĠÎ£ Ïį
Î³Ïī Î³
ĠÎľ ÎŃ
ĠC R
ĠÎ² Î±Ïĥ
ÏģÎµÎ¯ ÏĦÎµ
Î¹Î± Ïĥ
ŀ ×
ĠÎľ ÏĢÎ¿
ĠÎµ ÏģÏī
Îł Îĳ
2 1
Î¼Î± ÏĦÎ¿
ĠÏĨ Î¹
ĠÎ¼ÎŃ ÏĥÏī
ĠÎĶ Î¹
ÏĦÎ¹ÎºÏĮ ÏĤ
3 1
ĠÎ¼Î· ÏĩÎ±Î½
ĠÏĦÏģÏĮ ÏĢÎ¿
ĠÎ¬Î»Î» Î±
Î¬Î½ ÎµÎ¹
ĠÎ½ÎŃ Î±
ÏģÎ± Î½
ĠÏĥ ÏĦÎµ
ÎŁÎ ļ
ÏģÎ¿ Î¹
ĠÎ· Î»ÎµÎº
Î¶ Î®
ĠÎ´Î¹Î± Î´Î¹Îº
ĠÎ£ Î¥
ĠÎ¸Îµ Ïī
Ġgy n
Ġper o
j em
Ġdu het
isa tion
Ġel s
Ġk es
Ġt ylko
l ha
tso eng
Ġn na
a st
Ġs c
Ġh iá»ĩn
i b
Ġen a
Ġu til
ci os
Ġin san
vi en
Ġ }
Î¸ Î±Î½
we dd
Ġish te
w Ã³
er n
Ġ Å¾
Ã¡ val
Ġs eg
Ġprze d
to are
Ġga gwe
Ġmo ng
li tÃ©
il ir
ku u
Ã¡ va
ĠÎº Î¿Î¹Î½ÏīÎ½
Î ĸ
ĠÎĿ ÎŃ
ĠÎºÎ± Î»Î¬
Ġc ym
Ãº ng
tu ra
lo a
Ġk ho
Ġmo tho
Ġf on
Ġj Ã³
ĠÅ¡ o
ĠP ol
Ġmo Å¼e
Ġter m
Ġpa l
ĠkÃ¶ n
Îº Î¿Ïħ
ĠÎºÎ±ÏĦÎ± ÏĥÎºÎµÏħ
Îķ ÎĽ
Ġ ÏİÏģÎ±
Î» Î¿ÏħÏĤ
ĠÏĢ ÎŃ
ĠÎĶÎ· Î¼Î¿
ÏĦÏħ Ïĩ
ĠÎ´ Î¹Î¿
ĠÎ±Î³ Î±
Î¿Ïģ Ïħ
ĠÎ¿Î¹ÎºÎ¿ Î½Î¿Î¼
ĠÎ±Ïģ ÎºÎµ
ÏĥÎºÎµ ÏĦÎ±Î¹
ĠÎ± ÏĥÏĦ
Ġ _
ĠÏĩ ÏİÏģÎ±
8 4
ĠÏĥ ÏĦÏĮ
Î´Î¿ ÏĤ
ĠÎ²Î±Î¸ Î¼Î¿
ÏĦÎ® Î¸Î·ÎºÎµ
ĠÏĥ Î¿
ĠÏĢÏģÎ¿ÏĥÏīÏĢ Î¹ÎºÏĮ
ĠÎºÏħ Î²
ĠÎº ÏģÎ¬
ĠÎ» Î¿Î³
Ġr h
c ov
Ġle ur
ĠG o
ĠÉĻ la
Ġne ng
Ġv end
t r
Ġm en
wi Äħ
y or
Ġta l
ĠNe xt
å Ĩ
ÃŃ láº¹
Ġn tle
Ġva ir
li z
is Ã¤
Ã¡l nÃŃ
Ġti mp
ilmÉĻ si
ÏĢ ÏĮÎ½
ÏĦÎ¹ÎºÏĮ ÏĦÎ·ÏĦÎ±
ĠÎķ Î¯
ĠÎ¼Î± ÎºÏģÎ¹
ĠÎ² Î»ÎŃ
Î¶ Îµ
ĠÎº Î¿Î¹
Ïĥ ÏĮ
ĠÏĩ Î¬
ĠÎłÎ± ÏģÎ±
ĠÎ¬ ÏģÎ¸
Î ŀ
ĠÏĥÏĩ Î¿Î»
** **
ĠÎµÏĨ Î±Ïģ
ĠÎ¼ÏĢÎ¿ÏģÎµÎ¯ ÏĦÎµ
Ïī ÏĥÎ·ÏĤ
Î³ÏģÎ±ÏĨ Î®
33 N
ĠÎ£ÏĦÎ· Î½
Ġ ÏģÎµ
ĠÎ± ÏģÎ¹Î¸
ÏģÎµ Î¯Î±
ĠÎĳ Îł
ÏĦ ÏīÏĤ
ĠÏĢÎµ Ïģ
ÎŁÎ ¡
ĠÎºÎ± ÏĦÎ·Î³Î¿
Ġga el
ĠM it
j Ã¡t
Ġv Å¡et
Ġr Ã©s
tso a
w ana
Ġm iej
ĠÄ° n
Ġng Ãły
h Ã«
il lÃ¤
Ġein em
Ġpr es
Ġ ÉĻn
Ġne bo
te i
Ġolu wadi
ĠY o
ĠC ent
ĠO ctober
Ġter Ãª
ĠItá»į sá»įna
æĥ ħå
y ori
Ġfun ni
ĠS pe
wer an
Ġon Ãº
ĠI tá»įju
gu a
Ġa mu
ĠRail way
ĠBa i
r ÃŃ
Î´ ÏīÎ½
Î¬Î» Î»Î¿Î½
ĠÎ» Î¿Î¹
fn yd
Ã¼ let
Ġde ux
Ġwi ÄĻ
p il
Ġph a
s sÃ¤
Ġv en
ĠÄĳá»Ļ ng
Ġk Ã©sz
Ġac es
Äį ÃŃ
Ġtl ha
Ġi Ã§
owan e
Ġma g
w l
Äģ l
yan e
Ã©r ie
Ġz ur
ve j
os sa
un oa
Ġn j
Ġb ÉĻ
Ġvo or
l Äħ
ggi o
Ġs Ã©
ri le
ÅĨ as
la l
Ã¡ v
ĠÎ¿ Î´Î·Î³
ĠÎ ©
Ġl la
Ġju Å¼
Ġb on
ki ch
ck s
Ġng ba
Ġi wi
ĠI RO
ĠAn d
ĠâĢ ķ
Ġr ira
Ġmáº¹ máº¹
ĠNi torinaa
ĠFS X
à¥ Ģ
da gbe
Ġá»Į Já»Į
ĠÃ± a
Ġda a
Ã«n d
Ġai ye
ĠBio graphy
ĠA bi
den a
Ġpi páº¹
ĠN is
ten e
Ġye ars
Ġp lay
Ġng wa
Ġgba gbá»į
d Ã¡
Ġt ie
Æ°á»£ ng
Ġn om
Ġn ur
a li
Õ¡Õ £
ĠbaÄŁ lÄ±
ÈĽ ie
Ġ Å¼y
Ġláº¹áº¹kan si
ĠM aa
to ld
Ġo bo
om ono
__ __
ĠSa mu
t Ã²
lÉĻr inin
Ġ Ã¡t
Ġies pÄĵ
Ġun ter
Ġso bre
ĠÏħ ÏĪÎ·
Î¯Î½ Î¿ÏħÎ½
Î¾ Ïī
ĠÎµÏĢ ÎµÎ¹
Ïģ Î¯Î±ÏĤ
Î» Î±Î½
3 9
ĠÏĢ Î®
ÏĨ ÏģÎ¬
f od
Ġp Ã¥
ÅĤ em
ti ke
ħ n
tsa tsi
ti co
Ġbar dzo
Ã¼t Ã¼n
Ġt em
ÅĽ li
Ġpre roll
Ġpost roll
Ġko ja
ĠÎ¾ÎµÎ½Î¿Î´Î¿ ÏĩÎµÎ¯Î±
ĠÏĥÏħ Î½Î¿
ĠÎĻ Î¿ÏħÎ½
Îķ Î¤
ÎŃ Î²
ĠÏĥÏĦÎ¹Î³ Î¼Î®
ÏģÏĮ ÏĤ
ĠÎł Îĳ
ĠA G
ÏĩÎµ Î¹Î±
ĠÏĥ Î±
Î½ Î¹
ĠÎ´Î¹Î± ÏĨÎ¿
ĠÎ£ ÏħÎ½
ĠÎł Î¡
ĠÎ´ Ïİ
WW W
ĠÎµÎ³ ÎºÎ±
ĠÎļ Î¿
v is
ĠÏĥ ÎµÎ¹
Î³ Î¼Î±ÏĦÎ±
ÎµÎ¯ Î¿Ïħ
ĠÏĦÎ· Î»Îµ
ĠÏĥ Ïİ
ÏģÎ¹ Î¬
ÏĢÎ¿ Ïį
Î´Î® ÏĢÎ¿ÏĦÎµ
ĠÏĢÎµÏģÎ¹Î¿ ÏĩÎ®
ĠÏĩÏģÏĮ Î½Î¿
ĠÎŃ Î³Î¹
ĠÎļ Î¿Î½
Î´ Î¿Ïħ
Î¸ ÎµÎ½
A F
ÏģÎ± ÏĥÎ·
ĠIn tel
ĠÏĦÎ¿ ÏĢ
ĠÎŃ ÏīÏĤ
ĠÎ»Î¯ Î³Î¿
ĠÎ´Î¹ Îµ
ĠÎĶ Îµ
× ¨
Î»Î¿ ÏįÎ½
ĠÏĥÏĦ ÏģÎ±
ĠÎĳ ÎĿ
ĠÎ¼ Ïħ
ĠÎºÏĮÏĥ Î¼Î¿
Î¸ ÎµÎ¹
Î± Î½Î±
ĠÎ¼Î±ÎºÏģÎ¹ Î¬
Ġg al
áº¯ c
Ġb uru
ĠE ro
ãĤ ĭ
Ġi ri
Ġa go
it ha
r Ãłn
Ã¶ z
Ġo vat
h t
Ġv z
Ġj our
ÅĤ am
ni ka
Ġm ora
ĠtÉĻ ÅŁ
Ġr Ã©sz
ĠCau t
Ġc re
Ġa ber
cz Äħ
Ġn wa
Ġla t
Ġidi wá»į
ĠO ti
ĠMa le
pp ort
lo lo
11 T
Ġigbáº¹ káº¹le
ĠI á¹£
ĠF u
b ur
Ġni won
Ġmar vel
Ġal liance
æ ŀ
z un
Ġw hi
Ġb ulá»įá»įgi
ĠI ye
Ġpopup Ad
Ġala gbara
r isi
Ġave ngers
ĠI láº¹
Ġfe ta
ĠA wá»į
èī ²
oo jumá»į
ER E
Ġá»Į ja
Ġo ta
ĠAgba ye
es ter
UR KE
ĠAu st
ĠA ng
usulu mi
ar Ã«
á»± c
ĠJa pan
Ġc es
ÉĻr a
Ġ Åĳ
ĠLatvi jas
Ġbi ja
m ul
m ar
bo ard
ĠAá¹£a yan
å Ń
m be
l ow
i gb
Ġl in
Ġda hun
Ġ. âĢĻ
åľ ¨
or iri
m ÃŃ
Ġz ia
Ġis oro
Ġipo lowo
Ġdi dun
s Ã¡n
ĠJ ul
æĥħå ł±
ji ji
Ġa hun
ĠN kan
ini z
nÃ© e
ĠApp le
wan na
Ġm una
Ġdaju daju
Ġmon omono
ĠRe al
ĠL U
ç ķ
æĺ ¯
Ġnigba mii
Ġni fáº¹
Ġbi ba
Ġa tene
ĠÂ ²
Ġagbala gba
ĠLi lo
Ġpin pin
Ġn an
Ġlo do
ĠI BI
ĠÂ ®
Ġos ise
Ġle ge
ĠUn told
ĠP D
ĠI káº¹ká»į
ĠC ity
Ġim oriri
Ġaje ji
la tion
je Ì£
ini omu
Ġdan dan
am o
ĠJo hn
Ġáº¹ni káº¹ni
Ġy lan
à¹ ī
t d
le y
eg un
ĠA mi
ĠA ko
Ġtito bi
Ġti êŀĮ
Ġo run
ÏĢÎ¿ Î¸Îµ
Î»Îµ Î¹Î±
ÏĮÏĦÎ· ÏĦÎ±ÏĤ
ÏĥÎ± Î¼Îµ
ĠÏĦÎ± Î¾
ĠÏĢÎµÏģÎ¯ ÏĢÏĦÏīÏĥÎ·
ĠÎ¼ ÏĢÎ±
Î¼Îµ ÏģÎ¹Î½
ĠÏĢÎ¿Î» Ïħ
ĠÎĴ Î±
ÏĮÎ¼Îµ Î½Î¿
ĠÎ±ÏĨ Î¿Ïį
ÏģÎµ Î¹Î±
ĠA A
Ïĥ ÎµÏĤ
ĠÎ¼ÎµÎ³Î¬ Î»Î·
ĠÎ¿Î¼Î¬ Î´Î±
ĠÎ¿ ÏįÏĦÎµ
ĠÎ³ Î½Ïİ
ĠÏĦ Î¬
Ïĥ Î¼
ÏĪ ÎµÎ¹ÏĤ
Î½ Î¿ÏħÏĤ
Î½ ÏīÎ½
ÎŁ ÎĻ
5 4
ĠÏĥÏĩ ÏĮ
ĠÎ´Ïī Î¼Î¬
ĠÎ³ Î¹
Ġh wn
Ġk ri
Ġc am
ĠP A
ĠG ar
áº¹áº¹ si
lo de
Ġun limited
z er
weran á¹£áº¹
Ġo go
Ġnz oni
ĠWebtal k
ĠIRO YIN
ç Ľ
ç ´
Ġkáº¹ ta
á» ĥ
g Ã©sz
Ġi ra
Ġdi le
ĠOr iláº¹
ĠK aa
11 TI
Ġkáº¹ dáº¹
Ġá»į ke
Ġnda li
Ġa gun
ĠM art
ĠC r
u u
H a
Ġoku ta
Ġipiláº¹ á¹£áº¹
N i
Ġs isá»į
Ġr un
ĠI T
ju ká»į
c m
Ġni waju
Ġni do
Ġn se
Ġas ara
do ko
Ġiban u
Ġaz Ã¡n
ĠDavi d
Ñ Į
w un
Ġáº¹ bun
Ġz an
Ġy um
ĠNdi ose
ĠJ os
ĠC H
ĠB y
oun d
i ye
Ġyin yin
Ġo yin
Ġise da
ĠKáº¹ sÃ¡n
p ort
b Ã¡
Ġha ben
Ġtse la
Ã³ b
os Å¥
ti tu
Ġl l
Ġá»į ti
Ġka ka
Ġeja jeÌ£
yáº¹ yáº¹
Ġd Ã¼ÅŁ
Ġm b
Ġs aa
ju ms
Ġgra tis
dad es
Ġala p
esi waju
Ġi yáº¹n
ĠH ia
v áº¹
Ġso pá»į
ÈĽ Äĥ
ĠL oni
ĠA a
ĆĈ ć
vi ng
sun nu
re x
l Ãº
Ġt ous
si one
Ġst r
Ã¢ u
ik Äģ
Ġmo k
k Ã©nt
Ġp un
Ġse in
re r
p ha
k ÄĻ
b ÃŃ
Î´Î¹Î± Î¯
ĠÏĨ Ïħ
Î¸ Ïį
ĠÎĵ Î¹
ĠÎ ī
Ïĩ ÏģÎ¿
ÎŁÎ ľ
Î» Î¹Î¬
di ad
Ġk Ã«r
Ġar t
Ġpo z
Ġme t
Ġt yÃ¶
j d
ta ire
dz Äĵ
ti k
Ġin s
Ġn tse
cz enia
Ã¡ nh
in es
lu t
ĠÎµÏĢÎ¹ ÏĩÎµÎ¹
Î´Î¿ ÏĥÎ·
ĠÂ¬ ~
Î»Î¿Î³ Î¹Ïĥ
ĠÎ´ Î¯
ĠÎŃÏĩ Ïī
Î® ÏĥÎµÎ¹
ĠÎºÎ¬ÏĢÎ¿ Î¹Î¿
ĠÎµÎ½Î· Î¼Îµ
ĠR es
ĠÏĥÎ· Î¼Î±
ÎŃÎ½ ÏĦÏģÎ¿
Ġse arch
ĠÎĿÎ¿ Îµ
ĠÎ²ÏģÎ¯ ÏĥÎºÎµÏĦÎ±Î¹
Ġi a
Ġ, "
Ġt el
Ġg li
Ġmiej s
Õ¡Õ °
ĠM Ã¼
en do
ci ju
tta a
ÄŁ i
j Ã¡k
Ġtsa ma
an te
ĠÕ ½
ĠmÉĻ lu
ĠÄ ¾
k Ã©
Ġpo li
uy Ãªn
y on
da eth
Ġba sh
p Äģ
Ġt ÉĻs
st en
Ġro ku
Ġqu el
i i
Ġpre j
ts he
Î»Î» Î¹
Î© Î£
Î½Î· ÏĥÎ·
7 9
Ñ ı
Î³Î³ÎµÎ» Î¼Î±
Î± Î¯
ĠÏĨ Ïį
ĠÏĦÎ¹Î¼ ÏİÎ½
ĠÎ±Î½ ÏĦÎ¹Îº
ĠÏĩÏİ ÏģÎ¿
ĠÏĥ ÏĢÎ¯
Ġw rth
ÅĨ Äĵ
Ġvi deos
Ġme j
z s
Ġe dÉĻ
ou ver
Ġi ar
ÃŃt Ã³
jer es
ct os
áº· c
j Ã¤
ĠD E
c os
Î»Î¬ ÏĩÎ¹Ïĥ
Î²Î¬ ÏĥÏĦÎµ
ĠÏĮÎ» ÎµÏĤ
ĠÎ±ÏĢÎ¿ ÏĦÎŃ
ĠÎµ ÏĢÎ¿
Î»Îµ Ïį
ĠÏĥ ÏĦÎ¬
Î¯Î¶ Î¿ÏħÎ½
ĠÎµÏģÎ³ Î±
ĠÎĳÏħ Î³
ĠÏĢÏģÎ¿Î·Î³ Î¿ÏįÎ¼Îµ
ĠÎ» Î¬
.... ....
ĠÎºÎ± Ïģ
ithi o
Ġti kai
h al
\ "
Ġd zi
Ġc il
k el
Ġpro f
Õ £
Ã§ i
Ġd Ã©p
ĠK Äį
Å¡ tÄĽ
w ar
unoa ÈĻte
ÉĻb ÉĻr
Ã« si
Ġm uy
Ġpre mi
Ġtu d
Ġce le
Ġmu tta
Ġs tan
te g
fu ta
ĠÕ ¾
Õ¡Õ ¬
Ã¶y Ã¼k
b t
h au
ta ko
Ġt Ã²
Ġc or
Ã¡ sz
Ġlai fá»įwá»įyi
ç »
wa tá»į
Ġigbo hunsa
ä¼ģ æ¥Ń
á»į ki
mi ng
ki p
je ct
J I
Ġolu di
Ġiyan jáº¹
ĠO un
ke ja
Ġidani má»į
Ġida hun
ĠO po
is to
Ti me
Ġitáº¹ we
å® ¶
ta in
êŀĮ u
le bu
buláº¹ ti
Ġph i
Ġbi wi
Ġalaba pin
ĠI jo
ĠG B
Ġj á»įwá»į
ĠP an
ĠBit coin
ĠB ra
ĠA ri
ĠA li
è ®
p ress
Ġb Ãª
ĠM ini
na tional
der i
Ġul trasonic
Ġs ese
ĠE gi
Ġn á¹£e
Ġlo ju
le g
Ġk asino
ĠS pa
ĠÄį i
o ple
ĠLi ve
to ju
Ġme ta
Ġi je
ĠO ba
Ġp Ãł
la m
ĠtÅ¡ o
aro lo
ĠL os
v nÃŃ
it Äĥ
lÉĻr ÉĻ
Ā Ā
Ġpar Ã«
k Äģr
Ġdis p
k Ã¡
Ġ9 6
ĠÎ´Î¹Î±ÏĨÎ¿ ÏģÎµ
Ġ5 3
ĠÎºÎ± Î»ÏĮ
ĠÎ´Î¹Î¬ ÏģÎºÎµ
ĠÎ´ Î¿Ïħ
ĠW V
ÏĦÎ® ÏģÎ¹Î¿
ĠÏĢÎ¿ Î»Î»
ĠÎ± Î´
Îº ÎµÏĤ
ÏĨ Î±Î½
ĠÎºÎ¬ ÏĦÏī
Îº ÏİÎ½
ÏģÎµ Î¬Î½
Î»Î± Ïĥ
ĠÎĳ ÏģÏĩ
Î´ Î±Î½
Î¼Î¿ Î½
ĠÎ¿ Î»Î¿
ĠA X
Ïĩ Î®ÏĤ
5 6
ĠÏĩÎ±ÏģÎ±Îº ÏĦÎ·
ÏĢ ÏĦÏħ
Î¯Î¶ ÎµÏĦÎ±Î¹
ĠÏĩ Î¬ÏģÏĦÎ·
Î¹Îº Î·
ĠÎ±Î¾Î¹Î¿ Î¸ÎŃ
Îº Î±Î¹
Ġh yd
k ka
s te
Ġtl ho
c Ã©
Äį as
ku s
nga ta
ĠbÄĻ dzie
Ġláº¹sáº¹ káº¹sáº¹
Ġda ho
ä ¿
Ù Ĳ
nh anc
Ġy inuwa
Ġiá¹£e to
Ġikan ni
ĠBai bol
Ġta buláº¹ti
Ġni t
ĠmÃ¬ tá»įn
nhanc ement
er in
ĠTit un
Ã² n
g je
ar Ä±
m g
Ġmi ngi
Ġm y
ĠF aran
Ġha sz
L I
ĠâĢĿ âĢĶ
Ġláº¹ wa
ĠJ es
ĠBur sa
C C
Ġti i
ĠOr g
sta gram
Ġpu g
Ġláº¹ do
ç½ ĳ
³ ãĥ
y un
ung o
igb aniwá»įle
Ġga ju
ĠG ames
ĠAtun wo
t Ãºn
Ã« ri
vis or
ÏģÎ±ÏĥÏĦÎ·ÏģÎ¹ ÏĮÏĦÎ·ÏĦÎµÏĤ
ĠT rip
4 8
Î» Î®ÏĤ
Ġ ÏĪÎ·
ĠÎ³ Ïħ
Î»Î¬ Î²
ĠC X
Ġy d
Ġin t
H O
Ġp m
ĠK ur
à¤¾ à¤
keja do
Ġnkan kan
ĠÅ ļ
Ġb Ã¢
ĠD ara
bru ary
be re
Ġgb Ãł
Ġda u
Ġal l
Ġt uo
Ġm are
ĠO d
Ġja ko
ĠÃ§ a
Ã Ĭ
Ã¡ p
Ġdi re
ises ti
k on
ÏĦÎ· ÎºÎµ
ÏĨÎ¿ ÏĤ
ĠÎŃÏĩ Î¿ÏħÎ¼Îµ
ĠÎºÎ±Î¸ Î±
Î¼Îµ Î½Î¿
ĠÏĩÏģÎ® ÏĥÎ·
ĠÏĩ ÏģÎ¿Î½
ĠÎŀÎµÎ½Î¿Î´Î¿ ÏĩÎµÎ¯Î±
ĠÎ³ Î¯Î½ÎµÏĦÎ±Î¹
Î¼ ÎµÏĤ
Îµ ÏģÎ¹
ĠÎ¸ÎŃ Î¼Î±
ÏĢÎ¿Î¯ Î·
Î¼ ÏīÎ½
Îº ÏĦÎ·
ĠÎŃ ÏĩÎµÏĦÎµ
ĠÎµÏģÎ³ Î±Ïĥ
ĠW U
ĠÎ»ÏĮ Î³Ïī
ĠÎł Î±Î½
ĠÎ¼ÏĢÎ¿ ÏģÎ¿ÏįÎ½
ĠÎ²Î¿Î· Î¸Î®
ĠÎº Î¿Î¹Î½
ĠÎ£ ÏĦÎ±
Â »
y ll
Ġno tre
j k
ban e
Ġdur ch
Ġet mÉĻk
i x
ĠÂ ¿
Ġc ar
Ġma gyar
ĠkÃ¶ r
ĠVi to
Ġ- %
pin s
ou p
Ġo oru
ĠS lov
ĠMin isita
e gbá»įn
Ġk po
ĠE nhancement
Ġna sá»į
Ġif un
Ġase yori
Ã¡c ie
ĠG re
Ġd zÄ«
pa d
la o
Ġmul t
Ġv iá»ĩc
ran d
il d
de de
ĠMa lay
æ³ ķäºº
es ia
Ġnu e
en Ã«
Ġw ara
ĠO mi
è ¡
áº¹n do
° ï¼¯
Ġa arin
ĠFaran se
h d
å ¥
y Ã¬n
ĠFran ce
Å¼ a
Ã¨ res
c so
Ä« s
ĠÎ± Î»Î»Î±
we d
Õ ¬
Õ¥Õ ½
s ÉĻ
is mo
Ġdes pre
ĠA uf
Ġba tla
Ġac est
Ġa by
Ġv os
ĠB X
ĠÏĢ Ïħ
ÏģÎ® Î³Î¿
ĠÎķ Î½
ĠÎ¤ ÎŁÎ¥
ĠÎ£ Î±
Ġhe fyd
is se
Ġn je
j t
es c
ra m
ca do
Ġli pa
Ġle ng
Ġan s
to re
ÉĻd ÉĻr
m Ã©nye
ig en
i ke
ÈĻ ti
le rin
Ġph áº£i
ĠP ara
Ġr Ã³w
Î¹ÎºÎ¿Ïį ÏĤ
ĠÃ ´
or s
R A
ĠM ose
we ar
Ġáº¸ ka
Ġn ten
Ġï¼ ®ï¼
Ġisa koso
åĵ ģ
ing a
Ġy aa
ĠT witter
ĠH ol
ĠFe bruary
Ġ) :
as a
Ġi ma
Ġafáº¹ sáº¹
ĠS at
Û Į
ka li
un á»į
si an
Ġá»į gá»į
Ġh ely
Ã¡l ne
Ġy or
Ġni ra
ĠAhá»įlu duta
yi ng
ie d
Ġá¹£i á¹£an
Ġifowo pamá»į
bo bo
Ġs Ã¨
Ġsex o
cia s
Ġk au
j mÃ«
i o
no ÅĽÄĩ
la ya
Ġwa hala
Ġir ora
Ġa ÌĢ
ku ar
r Ã³l
mu ÅŁ
ari os
Ġme d
jo t
va li
Ġba t
fi ca
g at
ĠV o
ÄĻ dz
i ent
Ġt ari
me ve
lich en
Ġz osta
Ã¼ le
ik ka
Ġjs em
Ġth Ãłnh
Å¯ j
man to
ÈĽ ia
Ġq o
7 2
Î¬Î¶ ÎµÏĦÎ±Î¹
ĠÎłÎµ ÏģÎ¹
ĠÎºÎ± Î¸Î·
ĠÎ¿ Ïħ
ĠÎ» Îµ
Ïİ Î½Î±
ÏĨÎŃ ÏģÎ¿Î½
ĠÎłÎµ ÏģÎ¹ÏĥÏĥÏĮÏĦÎµ
ĠÎµÎ¼ÏĢ ÎµÎ¹
Ad visor
ĠÏĢÎ¿ ÏĦÎŃ
ĠÎ´Îµ ÏįÏĦÎµ
ĠA Z
ÏĨ ÏĮ
× ľ
ĠÎ´ ÏģÏĮ
Ïī Î¼Î±
ĠÎ¤ Î·Î½
ĠÎ¹ Î´Î¹Î±Î¯
ĠÃ´ l
l ÃŃ
men ti
Ġa an
be tsi
ti ca
ani u
d he
°ï¼¯ æ³ķäºº
a lá»į
Ë Ģ
Ġele yi
Ġalu m
ĠPi ta
ĠInter national
ĠF I
ĠBáº¹áº¹ ni
v ir
tt oo
atun á¹£e
Ġer u
ĠS te
ĠMi cr
oo t
do pá»į
Y I
ĠO fin
ĠO WO
Ġ à
çī Į
Ġi yi
lara q
Ġi ha
Ġb ja
t Å¡
Ġma tla
ĠPo dá»į
po pada
tor y
mp 4
Ġhu gan
ĠP ower
ĠA ká»į
ª å¼ı
ka we
Ha ber
Ġo m
ĠG báº¹
ĠÃł w
Ġak kor
Ġapa má»į
ĠO k
ĠO jo
le ti
Ġoj lo
ĠIsla m
y t
ĠA á¹£
Ġ5 9
ĆĈ ą
é ĥ
Ġja kejado
ĠL td
ĠI t
Ġ200 6
pe dia
M A
AN G
Ġá»į gbin
Ġw ill
Ġ6 9
S kip
Ġoju tu
Ġapa po
ĠY oo
ĠAf rica
ÉĽ lÉĽ
ani ng
Ġá¹£ee á¹£e
Ġwa s
ĠS ha
ĠBlu e
ªå¼ı ä¼ļç¤¾
yin ti
us in
to Link
s er
ku áº¹
_ mp4
Ti mer
Skip Timer
Go toLink
Ġgba gbe
la te
Ġá»į vo
Ġs ÃŃ
± c
r ie
z ir
Ġbil dir
Ġz d
ĠÎ¯ Î´Î¹Î±
ĠTrip Advisor
ĠB A
ÎºÎ¿ ÏĤ
Î³ ÎµÎ½
g r
Ġk Ã¤
Ġu003 e
ÏĥÏĦÎ¿ Î¹
Î¼ÎŃÎ½Î¿ Î¹
Î¼ Î¹Ïĥ
b yn
Ã ĭ
ĠvetÃ« m
Ġk en
el Ã©s
Ġg ÅĤ
Ġto do
Ġel len
ĠÕ¸ ÖĤ
pu bli
zz o
Ġt iek
Ġfum ana
v v
Ġm Ã©s
van ie
Ġjs ou
cz nie
bi Ã©n
lu ar
Ġfil es
Ġau tres
I n
ĠC yf
de re
Î¯ ÏĦÎ·
8 6
ĠÏĢ Î»ÎŃÎ¿Î½
Î Ĳ
Î¯ ÏīÎ½
ĠÎ Ħ
ĠÃ· -
ĠÎ³ Ïį
ÏģÎµ Ïħ
eth au
Ġmu u
Ġem pa
Ġv Ã¡r
ÄĻ t
ar Äĥ
ĠÄį as
Ġm irÃ«
ĠÎķ ÏĢÎ¯
Î» ÏİÎ½
ÏĦÎ± ÏĥÎ·
ĠÏĦÎŃ Î»Î¿ÏĤ
ĠÏĢÎ¯ ÏĥÏī
Î¶ Î±
ÏĦÏģÎ¿ ÏĨÎ®
ĠÏĢÏģÏĮ Ïĥ
ĠÎµ Î¹ÎºÏĮ
Ġf y
ĠÄĳ i
s ts
d or
li yi
c jÄĻ
en dan
Ġques to
ĠØ§ÙĦ Ø
ĠgÃ¶ z
Ġer a
m Ã¤n
inÄģ t
h atÃ³
Ġbo hlo
ara q
le j
ti vo
sh Ã«m
tu k
fa dÉĻ
f Ã¼
ki m
ĠA H
ĠÏĨ Î±Î½
x y
ĠÎ¼ÎµÎ³Î±Î»ÏįÏĦÎµ ÏģÎ·
Ġr han
eme i
Ġfa ce
ha ng
Ä£ i
Ġ Å¾i
Ġol yan
áº± ng
is er
ĠktÃ³ r
Ġka ik
Ġnu est
ta do
ig ne
cu ri
Ġk r
lich e
Ġfiles _
Ġtr o
tsa ng
lÉĻr ini
Ġsh p
ĠiÃ§ in
Ġk ir
ia le
Ġs pe
cion al
Ġktor Ã½
Å«s u
for ma
ĠÎ¬Î»Î» Î·
ĠÏĦÎ¹ Î¼Î®
Ïĩ ÎŃÏĤ
Ïĥ Î¿Î½
ÏģÎ¹ ÏİÎ½
Î³ ÎºÎ±
ĠÏĢÏģÏİ ÏĦÎ¿
ĠD y
Ġszer int
Ġjo ka
Ġm or
Ä« gi
Ġta m
ĠE t
m Ã©
Ġha o
Ġoju ami
Ġo gbon
Ġet mÉĻ
ĠRay Haber
Ġkáº¹ hin
Ġf esi
ĠW on
Ġv Ãµ
le p
Ġb es
Ġ8 5
n á»į
Ġpu pa
Ġifi we
Ġg irl
à¤ ¿
ha i
ĠD om
Ġj us
lo gun
Ġlu c
eni u
Ġth Ã¬
GB O
Ġpri ce
ĠO l
z at
c co
Ġv ÄĽ
r ar
Ġs ena
ĠIn stagram
à¥ ĩ
p en
78 T
Ġc rypto
ĠBu hari
t ch
Ġæ ľ
Ġjo ko
Ġran ti
Ġo de
Ġitu ra
ĠĈ ą
ĠNi ke
ĠE li
ãģ Ļ
ko pel
o pu
g Ã¡n
Ġiko le
ĠDec ember
é Ļ
T u
Ġmi ta
Ġjin láº¹
Ġdara pá»į
iek Å¡
ĠI ja
ÏĦÎ¯ Î¿Ïħ
Î¶ ÎµÏĦÎ±Î¹
ĠÎ»Î¿Î¹ ÏĢÏĮÎ½
Îº Î¹Î½Î®
ĠÎ±Ïħ ÏĦÎŃÏĤ
ĠÎ´Îµ Î´Î¿
ĠÎ² Î¹Î²
Ġ5 7
Î³ÏģÎ¬ ÏĨ
ĠÏĥ ÎºÎŃ
ĠÏĦ Ïį
ĠÎµÎ½Î· Î¼ÎŃ
ĠÎ³Îµ Î³Î¿Î½
ÎŃ Î»
ĠÎ´Î¹Î¬ÏģÎºÎµ Î¹Î±
Ïĥ ÎºÎ¿
Î¶ Î¿ÏħÎ½
ĠÎ´Î¹ ÎµÏįÎ¸ÏħÎ½ÏĥÎ·
ĠÎ´ Î®
n wys
k er
om en
fa ili
æľ Ī
wi m
i c
di an
b ra
Ġpa á¹£áº¹
ĠMar mara
ĠB ri
Ã¡r ÃŃ
Ġhá»į c
Ã¼n ya
n kan
Ã©g a
ĠN em
Ġla r
V C
Ġto di
è §
æł ªå¼ıä¼ļç¤¾
GB ARA
Ġa siwaju
Ġ ë
Ġtáº¹ táº¹
Ġm illi
Ġiwu wo
ĠS tate
ĠJohan u
os ti
Ġ8 6
Ġ ðŁ
Ġáº¸ ká»į
Ġolo gun
S I
E L
Ġï¼®ï¼ °ï¼¯æ³ķäºº
Ġf ere
ĠM usulumi
ĠIs land
Ġ8 4
Ġ12 0
vie w
Ġvi deo
Ġo v
Ġiran á¹£áº¹
Ġir Ãº
dz in
Ġco ins
ĠW á»į
ĠÏĢÎµÏģÎ¹ÏĥÏĥÏĮÏĦÎµ ÏģÎ¿
Î· Î¸ÎµÎ¯
ĠÎľ ÏĢ
ĠÎ± Î½Î¿
ÏĦÎµ ÏģÎ¿
ĠÎµÎ¯ ÏĦÎµ
T H
ÏĦÎ¿ Î¼Î±
ÏĢÎ¿ Î½
ÏĦ ÎŃÏģ
Î³ÏīÎ½ Î¹Ïĥ
Î¬Î½ Î¹
ĠÏĮÎ» ÏīÎ½
ĠÎ¼ ÎµÎ¹
Î¤ Îĳ
ĠÎ¸ Ïħ
ĠÏĥ Î¹
ĠÎĳ Î³
ĠÎ±ÏĢÎ¿ÏĦÎŃ Î»ÎµÏĥÎ¼Î±
ÏĦ ÏĤ
ĠÏĢÎ± Î¯
ÏģÎ¯Î¶ ÎµÎ¹
Î¼Îµ ÏĥÎ±
ĠB B
ĠÎ±ÏĢ Î±Î¹
Î¯ Î´Î¹Î±
ĠÏĢÎ± ÏģÏĮ
ĠÎµÎ¾ Î±
ĠÏĥÏħ Î¼ÏĨ
× Ķ
ĠÎł ÏģÏİ
Î»Î± Î´Î®
Î¹ ÏİÎ½
ĠÎ± ÏĨÎ®
Ïĥ Ïį
ÏĢ ÏīÎ½
11 2
Ġ5 2
ĠÎµ ÏĥÏĦÎ¹Î±ÏĦÏĮÏģÎ¹Î±
ÏĦ ÏĥÎ±
Ïĥ Î¯ÎµÏĤ
d f
Ġngo e
Ġloke la
7 3
Î¼ ÏİÎ½
ÎºÏģÎ¹ Î²
illi am
20 15
ÏĥÏĦÎ¬ ÏĥÎµÎ¹ÏĤ
Îº Î®ÏĤ
ĠÏĢÏģÎ¿Ïĥ ÏĦÎ±
ĠE R
5 8
ĠIn n
ĠÎ¾ ÎŃ
ĠÎ±Î½ ÏĦÎ±
4 6
ÏĨ Î±Î»
Ïģ ÏĦÎ®Î¸Î·ÎºÎµ
ĠÏĥÏĦÎ¿Î¹ ÏĩÎµÎ¯Î±
ĠÏĥÏħÎ½ÎŃ ÏĩÎµÎ¹Î±
Ïĩ Î¿ÏĤ
Î¤ ÎĻÎļ
ĠB D
ĠÏĥÏĩÎµ ÏĦÎ¹ÎºÎ¬
ĠÎŃ ÏĢ
ĠB C
ĠÏĩ ÏģÎµÎ¹
ĠÎ±Î½ ÎŃ
Ïģ Î¹Îº
ĠÎķ Î¾
ĠÎ¼ Î¹
ĠÎłÏģÎ¿ Ïĥ
ĠÎ¼Î¿ Î½Î±
ÏģÏħ Î¸
ĠÎ»ÏĮ Î³Î¿
ĠÎµÎ³ Ïİ
Î¹ÎºÎ¿ Î¯
ĠÏĥÏħ ÏĥÎºÎµÏħ
Î¿ ÏĢ
ĠW illiam
ĠÎľ Î¬
ĠÏĨÎ¿Ïģ ÎŃÏĤ
ĠÎĿ Î±Î¹
Ïģ Î¹ÎºÎ¬
Ġy ma
m iem
v in
j el
it er
ÎºÎ±Î½ Îµ
wi d
Ġpu e
z h
ho to
Ġaf á»į
Õ¶Õ¥ÖĢ Õ«
ÉĻh ÉĻr
ĠG lo
ja ck
fi isi
ĠêŀĮ a
Ġgbáº¹ káº¹le
ng aso
lar u
G UN
Ġng e
é Ľ
san ma
Ġgb Ã©Ì£
ĠktÃ³ ry
Ġan de
ĠIn don
Ġs egi
Ġifi jiá¹£áº¹
Ġfi pamá»į
Ġd ari
ĠY áº¹n
ĠIda abobo
wa si
ri a
owo po
2 00
ĠGe or
ĠCh ar
wa ys
ti le
d ul
Ġn ana
Ġlai lai
Ġi bo
di en
Æ¡ i
Ġagbe kaláº¹
Ġ????? ?
ow os
one y
Ġni torinaa
ĠSu per
ĠS al
è ¯
Ù ı
vi ce
sin yáº¹n
Ġr orun
Ġm ilionu
ĠEurope an
ĠA t
on al
kopel os
h ir
Ġw lea
Ġsha y
Ġm as
ĠJ Ã©s
Ġ8 1
Ã²g Ã¹n
j Ã¬
t Ã©s
Ã³ Å¼
Ġm os
Õ¸ÖĤÕ©Õµ Õ¡Õ¶
publi ka
ĠÎµÎ¯ ÏĩÎ±Î½
ĠÎ¼Î¹Î± ÏĤ
ĠÎ²Î±Î¸Î¼Î¿ Î»Î¿Î³Î¯Î±
Î¹Ïĥ ÏĦÎ±
Ġg or
is ch
Ġy ox
Åĳ s
bel isoa
th u
n om
Ġpar ti
Ġku in
Ġgj itha
Ġvi ÅĨ
skie go
ĠC unoaÈĻte
Ġc el
y ÉĻn
sch a
Ġtel jes
Ġsa j
te ng
Ġin c
ÅĦ st
Ġe gb
Ġape já»į
pan y
n d
fáº¹ fáº¹
Ġiwadi i
Ġ ãģ®
ă Â
er un
ĠE UR
da j
Ġte en
Ġe bi
Ġ> >
Ġ5 1
wan yi
re gbe
Ġm p
ma ti
kanna a
Ġyáº¹ whe
Ġle he
Ġido juká»į
Ġha ve
ĠG Q
Ġ uy
78 TI
ĠâĢĿ .
Î¶Î® ÏĦÎ·ÏĥÎ·
ĠÏĥÏĢÎ¯ ÏĦÎ¹
ĠÎºÎ¬ÏĢÎ¿ Î¹Î±
ĠÎµÏĢÎ¹ Î²
Âµ Î±
i f
ĠÎ³ ÏħÎ½Î±
ĠÎ³ ÏģÎ®Î³Î¿
Îķ Î¥
Î±Î¹ Î±
ĠÎŃÎ³Î¹ Î½Îµ
Ġx 64
ĠÏĦ ÏģÎ¯
ĠÎµÎ¾ Î±Î¹ÏģÎµ
ĠÎ±ÏĢÎ±Î½ ÏĦÎ®ÏĥÎµÎ¹ÏĤ
Î¯ Î½Î±
ĠÎ± Î¹Ïĥ
AA AA
Ġ {
ÏĢÎµ Î´Î¿
Ïĥ Î¿Ïħ
ÏģÏī ÏĢÎ±
ÎºÎ· ÏĤ
ĠÎ³ÏģÎ¬ ÏĨ
ĠÎĳÎ½Î± ÏģÏĦÎ®Î¸Î·ÎºÎµ
Ïĩ Ïį
ĠÏĢÎ±Î¹ÏĩÎ½ Î¯Î´Î¹
ÏģÎ± Ïĥ
ĠÏĢÎ»Î·ÏģÎ¿ÏĨÎ¿ ÏģÎ¯ÎµÏĤ
ĠÏĥÎµÎ¹ ÏģÎ¬
ĠÎ±Î½ÏĦÎ¹ Î¼Îµ
Ġne wydd
Ġáº¹ tan
ĠOr isun
ĠDavi di
yá»įn nu
ces s
Ġni ke
Ġmáº¹de vo
Ġigbe yewo
Ġt Ã³Ì£n
Ġb ara
Ġafáº¹sáº¹ gba
Ġa diráº¹si
ĠOru ká»į
ĠI bu
ĠFo rex
ĠEle ct
s s
owos owopo
iláº¹ gbáº¹
F I
Ġá»į gba
Ġo vi
ĠNe t
Ġ ć
à¤¿ à¤
fi c
ĠmÃ´ Å¾e
b lic
Ġw and
Ġsh are
Ġpu po
Ãº c
kse t
dh Ã«
Ġbi zt
ĠÃ¼z rÉĻ
em o
Ġgu á»įná»į
Ġgb Ã©
ĠÎĮ Î»Î±
b ly
Ġq ÉĻdÉĻr
Ġper s
Ġn Ã¤
ĠÎµ Î½Îµ
ĠÎ½ÎŃ Î¿
Ġd da
Ġya p
Ġf ol
u je
ĠN jáº¹
n er
Ġidun nu
ĠJ un
ĠA aye
ve y
hi te
a fia
áº¡ o
Ġj ara
Ġiká»į ká»į
Ġde pope
ĠJul y
Ġ9 5
usin ess
aêŀĮ a
a ch
Ġngo i
Ġawá»į sanma
Ġ' ,
ä¸ Ń
tá»į ka
ni ng
Ġoludi je
Ġasi ko
ĠTech no
ĠKlisti ani
ä½ ĵ
Ġol á»įn
Ġi já»į
Ġala isan
ĠN A
k wiêŀĮ
Ġti láº¹
ĠÄ ¼
Ġest Ã¡
ĠRe d
ĠLE D
ĠB en
Ù Ĵ
h lá»įn
Ġnin ja
Ġgb Ã³
Ġajá»į á¹£epá»į
ĠJo b
É ¨
Ġso lusan
ĠØ £
Ġyá»įn áº¹n
Ġt en
ĠKa vi
ĠJ á»įwá»į
ĠG omina
æ Ĭ
ya êŀĮ
Ġo wh
Ġida ji
Ġa báº¹
tl ha
ĠAye lujara
dani loju
Ġå ħ
Ġwh en
Ġte le
ĠZ i
ĠB el
ÙĦ Ùĩ
oso ft
GG GG
E C
Ġle gen
Ġko li
Ġk ÃŃ
h men
Ä« ga
j an
ĠÎµÎ¯ ÏĩÎ±
Î¿Ïį ÏĤ
Î»Î¹ ÏĤ
Î» ÏĢ
ĠÎĮ ÏĦÎ±Î½
ĠÎµÏĢÎ¹Ïĥ ÎºÎŃ
ĠÎ±Î½Î¬ Î³Îº
8 A
Îł ÏģÎ¿
Î¼Î¿ Î¹
ĠÏĨ Î¬
Ġg wy
y ÉĻt
Ġpar t
ant le
Ġp ou
Ġ Ã¡
Ġcil vÄĵ
ÅĤ at
á»ĭ ch
ĠÕ¥ Õ¶
in dÉĻn
s sa
Ġme hr
Ġtra ba
ĠMa gyar
k Ã©p
Ġdi tu
ow ym
Îº Î»Î¿
ÏģÎ¯ ÏīÎ½
ĠÏĥÏħ Î½Î±
ÎŁÎ ¤
Î»ÏĮÎ³ Î·ÏĥÎ·
Î³ Î¹Î±
ĠÎºÎ¬Î½ Î¿ÏħÎ½
Î¼Î¿Ïģ ÏĨ
Î»Î¯ Î´Î±
ĠÏĢ ÎµÎ¹
ÏĥÏĦÎµ ÏĤ
ĠÎķ ÏĢÎ¹Ïĥ
Ġ. Â¬
ĠW WW
ĠÎ·Î»ÎµÎº ÏĦÏģÎ¿
ĠÎµÏĨÎ±Ïģ Î¼Î¿
ĠÏĦÎµÎ»ÎµÏħÏĦÎ± Î¯Î±
ĠG w
Ġgjith Ã«
ĠÃŃ gy
ts we
ci i
ĠSex o
ÃŃ s
Ġr Ã©p
ĠÎ¿ÏģÎ³ Î±Î½
Ġ8 3
ĠÎµÎ¾ Ïī
ÏĨÎ¿Ïģ ÎŃÏĤ
ÏĦÎ® ÏģÎ¹Î±
ĠÏĦ Î±Î¹Î½
ĠAD E
fnyd dio
Ġv il
k en
Ġf ÉĻ
Ġby Äĩ
es ti
ÈĽ e
g ne
Ġd Ã¶vlÉĻt
Ġa tÃ«
Å¡ Ä·
Ġko m
d dÉĻ
se re
Ġcom m
nÃ½ m
Ġt j
sch e
as ta
Ġo so
Äĥ n
ÏģÎ³ Î±
Î² Î´Î¿
ĠÎļÎ± ÏĦÎ±
ĠÂµ Îµ
Ïģ Î¹ÎºÎ®
ĠÎ· Î¼Îµ
Ïħ ÏĢ
ĠÎŃ ÎºÎ±Î½Îµ
ĠÎ±Î³ ÏīÎ½
Ġ; &
ÎĻÎĳ Î£
ÎºÎµÎ¹ ÏĦÎ±Î¹
Î¬Î½ ÏĦÎ·ÏĥÎ·
el d
v ent
gy e
Ġiba jáº¹
ĠIyan jáº¹
ĠA pa
re ti
c ka
Ġ Ñ
Ġr ara
Ġfi fá»į
ĠW oo
ĠT ri
ĠPa y
ĠP hone
Ġng be
Ġk á»įn
ĠP rin
ĠMay or
ĠLa koko
p ro
ĠÃ Ī
j Ã¡n
Ġy ol
cz enie
ĠÎĳÏħ ÏĦÎ®
Ġ ÏģÎ¿
ÏĦÎ¹ÎºÎ¿Ïį ÏĤ
ÏĦ Î¯Î±ÏĤ
Î¸ ÏĮ
Å µ
Ġles z
Ġyi yi
Ġsi ta
Ġk Ãºn
Ġaile ra
jo it
ĠS lo
ĠEgi pti
Ġf á»įwá»į
Ġqu y
on ie
Ġc m
Ġ200 5
laru ge
Ġlai pe
Ġk iráº¹diti
Ġdo la
Ġda i
ĠQu e
ĠG áº¹áº¹si
li ght
ku a
ir oro
Ġyi yan
Ġne t
Ġdi da
ba láº¹
êŀĮ we
m art
Ġá¹¢ áº¹
Ġa di
Ġw ÃŃ
Ġf Åĳ
Ġshqip tar
Ġt jet
Ġdau dz
y ir
b ÄĽ
fe c
bs p
-- --
9 3
ĠÎ»ÎµÏĢ ÏĦÎ¬
Ġu003 c
ÏĮÏĦÎµ ÏģÎ±
ÏĥÏĨ Î±Î¹
Îķ Îļ
ĠÎĶÎ¹Î± Î²Î¬ÏĥÏĦÎµ
Ïİ ÏĥÎµÎ¹ÏĤ
Î± ÏģÎ¯Î¿Ïħ
ÏĦ ÏģÎµ
Î¾ Î±
Î¹Î½ Î±Î¹
20 16
ĠÏĥÏĩÎŃ ÏĥÎ·
Î¸ Î»Î·
ĠÎĪ Î½Î±
Î¯ Î³Î¿Ïħ
a f
ov Ã¡
u ts
ĠÃ ĸ
Ġmo Å¾
ĠÏĨ ÏĦÎ¬
ĠÎ¤ Î¿Ïħ
Ïĥ ÏĦÎ¹
ĠÎķ ÎĽ
ĠÎ±ÏħÏĦÎ® ÏĤ
ÎķÎĻ Î£
ĠÎłÎµÏģÎ¹ÏĥÏĥÏĮÏĦÎµ ÏģÎ±
Î¾ Î±Î½
li ad
x x
ÃŃ as
li ca
Ã³ d
Ġt ek
d Ã©
Ġfo arte
ĠkÃ¶n nen
m me
sh tÃ«
Ã¢ m
Ġo la
ÏĢ Î»Î±
ÎŃ Î½Î±
Î¸ Î¬
ĠÎł Î¬
wo d
tÄģ ju
h ta
Ġr om
Ġa va
Ġa ju
ÅĽ my
Ġdes de
ck Ã©
Î· Î¼Î±
ĠÎ± ÎµÏģÎ¿
ĠÎ¤ ÎŁ
ĠB ydd
Ġte Å¼
iá»ĥ m
st u
ĠÕ¸ ÖĢ
Ġon un
zi o
ua le
Äĥr ba
ÈĽ a
Ġk g
Ġel sÅĳ
el t
ul li
ÏĦÎŃ ÏģÎ±
Î¸ Î¹Ïĥ
Ïĩ Î½Î¿
Ïģ ÎŃÏĤ
Î¿ Î´Î¿
la en
Ġw z
Ġper son
Ġsan wo
Ġj w
Ġa yáº¹yáº¹
Ġq i
Ġni in
ĠS tu
ĠP aulu
ĠH ow
å ¯
ba sá»įrá»į
Ġpa má»į
Ġoni á¹£owo
Ġkaa kiri
Ù ĳ
ke d
a wu
Ġláº¹ zun
ĠW he
å Į
ye ye
da ho
ĠÃ¬ má»į
Ġsi te
zi ona
ya br
Ġai há»įn
ĠNis isiyi
ĠE ngine
ĠB I
k Ã³
es ta
Ġe dÉĻn
nÃ© es
li mo
Ġhlo ka
ĠÎĳ Î¸Î®
ĠÎ¹ Î´Î¹
ĠÎ¸ ÎµÏģ
ĠÎ³ Î»Ïİ
Ġ1 C
ff or
ja m
Äħ Å¼
Ġp jes
ĠV or
Ġpu ede
le d
Ġiz manto
Ġval Ã³
ĠmoÅ¼ na
Ġc er
Ġn Æ°á»Ľc
h ti
hla h
Ġba x
Ġph e
Ġw ur
dz a
Å£ Äĥ
Ġtrebu ie
ci ons
Ġáº¹láº¹ sáº¹
ĠTa gs
ĠPi pe
å ¾
áº¹áº¹ máº¹
r ow
Ġshay ari
Ġs he
ĠS ho
ĠC an
Ã²g Ã¬
A wá»įn
Ġáº¸ ni
ĠÐ ¿
ĠÃ± aêŀĮan
Ġki lasi
Ġi yáº¹
ĠN ÃŃ
Ġpe dig
ma k
Ġf r
ĠÃ©ta it
Õ º
ÉĻn c
Ġcz ÄĻ
Ġi eg
Ġmul te
es en
Ġal le
Ġha qq
jÃŃ cÃŃ
ĠÎ±ÏĢÎ¿ÏĦÎµ Î»ÎµÎ¯
ĠÏĦÎ¿ ÏĢÎ¿Î¸Îµ
ĠR W
ĠÏĥÏį ÏĥÏĦÎ·Î¼Î±
ĠÎļ Î¹
ĠÎµÏħ ÏĩÎ±ÏģÎ¹Ïĥ
Î² Î¿
ĠÎ¼Î¹Îº ÏģÏĮ
ĠÎ²Î¬ ÏĥÎ·
ĠÏĢ Ïī
ĠÎ´ ÏģÎ¬
ĠÎ§ Î±
ĠÏĮÎ» Î¿ÏħÏĤ
Ġ... .
ĠÎµÎº ÏĦÏĮÏĤ
Î½Îµ ÏĦÎµ
8 7
ĠÏĢ ÎŃÏģÎ±
ĠÎ±ÏĢ ÎŃ
ĠA N
ÏĥÎ¹ ÏİÎ½
ĠÎľ Î·
ĠÏĥÏĩÏĮ Î»Î¹Î±
ĠÏĢÏģÎ¿Ïĥ ÏĢÎ¬
ÏģÎ· ÏĥÎ·ÏĤ
Ġdr os
Äį ky
Ã£ o
Äį nÃ©
t Ã¶
Ġbo i
Ġa Ã±os
Ġk jo
nie c
Ġtem ps
Ġnel la
on Ã«
h ar
Õ¡Õ¶ Õ«
ĠgÃ¶st ÉĻr
d ar
áº¯ t
is ia
p l
pu ri
ch es
v w
ctor y
Ġá»įrá»į igbaniwá»įle
Ġya nga
Ġwh áº¹ndo
Ġmon ster
ĠMicr osoft
ĠG old
ir st
Z O
Ġse e
Ġpata ko
Ġolu pin
Ġigbe yawo
Ġa gbo
ĠNa egbá»įn
ĠA v
Ġá»į fiisi
ĠK on
ĠH igh
les s
Ġâ Ķ
Ġwar z
Ġsin sinyáº¹n
Ġiru gbin
ĠLáº¹hin na
ĠIn c
ĠA ni
ÉĶ r
Ġtá»į ka
Ġolu ká»į
ĠA kiyesi
ĠA h
æ Ń
L C
Ġigba gbogbo
ĠMart in
ĠLi fe
ĠGbi gbe
ĠG ener
å ±
ŃĲâ ŃĲâ
Ġawa ká»į
ta tÃ³
ĠF á»į
áº¹n á¹£áº¹
hu wasi
Tu be
Ġáº¹ sun
Ġo Ã²gÃ¹n
ĠM B
ç «
å ĩ
w le
il y
GB E
Ġolu á¹£e
ĠgbÃ³ Ã²gÃ¬
Ġaya fi
Ġ7 4
eg a
atun ká»į
A T
Ġijin láº¹
Ġgbogbo gbo
v wá»įn
r háº¹
Ġm ráº¹
ĠOlu á¹£akoso
áº¹ná¹£áº¹ n
rid ge
Ġt sen
IN G
Ġá»Į Rá»Į
Ġse yin
Ġg ege
ĠÎ» Ïį
ĠÎµÎ½ ÎŃÏģÎ³
ÏģÎ¹ ÏĥÎ·
ĠÏĥÏį Î¼ÏĨÏīÎ½Î±
Î¹Î½ ÏĮ
r hyw
Ġba a
ĠkÃ¼l Ã¶n
pa s
ĠMat ri
a zÄĥ
po ve
ĠI ro
ãģ ª
à²° à²¿
Ġya go
Ġatáº¹ gun
ĠW ar
ãĤ ³ãĥ
ter s
3 D
Ġno t
Ġer an
Äħ c
Ġ\ "
ki pedia
ca le
ĠM ana
ĠB as
è Ģ
ti u
W E
GG G
B et
Ġláº¹ ta
Ġe da
Ġai á¹£e
à¸± à¸
Ġá¹£ áº¹ná¹£áº¹n
Ġida abobo
Ġhu hlá»įn
Ġh Ã¹n
Ġaf oju
Ġa tu
Ġke Äı
ĠPro ject
ĠF ru
ĠF il
ĠD I
GGGG Q
Ġtr i
Ġok Ãº
êŀĮ an
Ñģ ÑĤ
Ð ²
Y O
Ġis á»į
Ġigbe laruge
Ġf Ãºn
Ġr Ã©g
Ġtse ba
áº¡ t
je k
er z
ÏģÏīÏĢÎ± ÏĬ
Î´ Î¹ÎºÏĮ
n od
c or
Ġfe to
Ó Ļ
Ġ ÉĻl
Ġtal Ã¡l
Ġe mp
te ik
sz ych
Ġmar rÃ«
Ġes sere
Ġb ine
Ġdi k
n ou
ÎŁÎ ĵ
ĠÎ± ÎºÏģÎ¹Î²
ÏĮÎ¼Îµ Î½Î·
Ġ- (
Îĳ Î¡
y g
am os
t ros
Ġv uo
ĠÄ« pa
Ġpo t
Ġho zz
sÄ±n a
ĠÏĮ Î»Î¿Î¹
ĠÏĮ Î»Î¿
ÎŁÎ ł
ĠII I
Î´ Î¯Î±
ĠÎŃ Î»Îµ
ĠÎ¼ Î¹Ïĥ
ĠÎļÎ± ÏĦÎ¬
Î³ ÏĮ
ĠÎķ Îł
Ïī ÏĥÎµ
ÎµÎ½ ÏĦÏģ
Ġc n
ĠÎķ Î»Î»Î·Î½
ÏĢÎ¿Ïħ ÏģÎ³
9 1
ĠÎµÏĢÎ± Î³Î³ÎµÎ»Î¼Î±
Î² Î¹
ĠÎ¿ÏĢÎ¿Î¯ Î¿ÏĤ
ĠÎºÎ± Î»Î®
ĠÎ´ ÎŃ
ÏĦ ÏģÎ¹
ÏģÎ¹Î¿ ÏĤ
ĠÎ® Î´Î·
Ġun rhyw
Ġil s
sh tu
r Åĳl
Ã Ĵ
Ġti áº¿
Å¡ te
nik Ã³w
Ġt Ã¡r
Ġha cer
Ġdey il
Ġla ikÄģ
m is
Ġh on
Õ ¢
il miÅŁ
Ġsz cz
Ġv iac
t Å¡o
Ġe ona
Ġs en
Ġm ert
Å¾ ÃŃ
Ġd isa
Ġz mi
zo tt
0000 0000
Îº ÎŃÏĤ
Î¶ Î¹
ÏĦÎ· ÏĥÎµ
ÏģÏī Î¼Î±
ĠÎºÎ± ÏĦÎ¿
ÏĥÏĦÏĮ ÏĥÎ¿
Îº Î¹Î½
ĠÏĦÎ¹Î¼ ÎŃÏĤ
Î¬ ÏĤ
ĠÏĩÎ±ÏģÎ±ÎºÏĦÎ· ÏģÎ¹Ïĥ
ĠÎ´Î· Î»Î±Î´Î®
Ïĥ Ïħ
Ġm yn
Ġm ol
l ie
Ġtlo ha
Ġisti fadÉĻ
ĠGra tis
ĠD es
ĠMatri mon
Ġdo ar
Ġma jd
lÄ± k
nie Å¼
ĠTun tun
ĠGerman y
Ġn os
bb en
Ġtam biÃ©n
n ya
te ve
Ġw he
Ġlegen ds
ĠC ho
æ İ
Ġáº¹ran ko
á»£ p
Ġaz on
me le
Ġile ri
k ou
ĠT er
ĠA so
Ġn r
Ġm ili
Ġi y
t zt
D O
ĠOf fi
áº¸ RI
mi kali
la sh
9 20
Ġte e
Ġn yen
ï¿½ï¿½ï¿½ï¿½ ï¿½ï¿½ï¿½ï¿½
ãĢĳ ãĢĲ
ti láº¹
ĠÙ ģ
Ġolu tá»įju
Ġa má»į
ĠM ul
ĠD is
æ µ
p on
ká»į s
Äĵ t
ir á»į
am ba
Ġw oo
ĠOrg anic
ĠO h
ĠE ko
v á»į
gu tan
gbon á»į
F un
Ġá¹£ ubu
Ġm ini
Ġe ya
Ġasá»į táº¹láº¹
æ °
ä¸ į
li an
gh wo
ana da
Ġne w
Ġlá»į su
ĠM ari
ĠIá¹£e duro
ng ua
gb Ã¨
Ġfor ma
tt re
Ġb en
go lo
Ġt ur
áº© m
Ġtra va
eg en
Ġko pa
ĠS il
ĠI gbo
æ Ķ
æ Ģ
ĠØ ¹
Ġyin dá»į
Ġyi wanna
Ġni yanju
Ġn dun
Ġbáº¹ báº¹
ĠCom ments
Ć ćą
áº¸RI KA
Ã ľ
si ko
oo tá»į
ka lo
Ġpro faili
Ġmáº¹máº¹ sunnu
Ġigba gbá»į
v ar
á»ĩ n
Ġala gba
ĠV ous
ĠPa pa
ĠAmeri ca
è ´
Ç İ
ju to
Ġsun nu
Ġo wanyi
Ġiwi regbe
Ġif owosowopo
à³į à²
Çİ n
Ġbe an
Ġa pá»į
æ ±
o ta
di dá»į
Ġidin ku
Ġho do
ĠY esu
à¸ «
uro opu
lolo bo
káº¹ hin
j Ã¡
pu is
Ġjoa le
Ġsebel isa
e tse
Ġiz an
k Äħ
Ġkter Ã©
ĠÎ± Î»
Ïİ ÏĦÎµÏĤ
Ġ- ****
Î´Î· ÏĤ
Ġ00 5
ĠÎ¼ÎµÎ³Î¬ Î»Î¿
ĠÎ¥ ÏĢ
8 2
ĠÏĢÏģÎ¿ ÎºÎ±
ĠÏĢÎ¿Î»Î» ÎŃÏĤ
Ġf ydd
do m
Ġbo le
Ġy hte
Ġs áº£n
Ġf ran
Ġm ÉĻr
Ġka Å¼
tt es
tis la
Ã¡c ia
vÄĵ r
Ġx u
Ġso k
co re
Ġtak Å¼e
Ġb is
Ġk lo
p un
Ġáº¹ á¹£áº¹
Ġi lo
tis isa
u k
or in
ĠâĶ ¤
Ġib us
Î»Îµ ÏĦÎµ
Î¶ Î¿
ĠG ym
Ġe f
ta rea
ĠD Ã©
ĠD r
pp ing
al th
M o
Ġogb Ã¨Ì£
Ġko ju
Ġpri x
Ġk m
Ġaw hÃłn
æľ ī
á¹£iá¹£áº¹ pá»į
mi c
ge d
gbe de
Ġolu wa
Ġigb i
ĠMalay sia
ĠLe a
p ar
láº¹ ba
l uná»į
eri es
Ġtin tan
Ġolu basá»įrá»į
Ġl Ãª
Ġa du
Ã± i
ye ed
gb ana
Ġran á¹£áº¹
Ġibu gbe
åĽ ½
bi kita
EN ER
ĠJÃ©s us
y Ãł
do v
Ïģ ÎµÎ¹ÏĤ
Î´ ÎµÎ¯
Î³Ïī Î³Î®
Ïĩ Î¬
Î¿ÏįÎ½ ÏĦÎ±Î¹
ĠÎ¸ Î¬
ĠÎµ Î¹Î½Î±Î¹
Î¾ ÏĦÎµ
ni g
Ġha zÄ±r
tt Ã¶
n el
Ġli ng
te la
Ġk ish
j our
Ġdi en
m ek
em os
ti in
sch en
ÄŁ Ä±n
an y
Ġti ene
ĠÂ £Â¬
Ã Ķ
ĠÂ ¡Â
áº¥ n
p ur
du st
Ġá¹£ á»į
le te
Ġhi nh
á»į yen
w una
v we
d Ã¡n
li on
nu t
dzie j
r Ã¨s
z ul
Ġne j
ĠÎľÎ± ÏĬ
Î¤ Îķ
ĠÏħÏĢ ÎµÏģ
ĠÏĦÎŃ ÏĦÎ¿
ĠÎ¿ ÏĦÎ¹
Î»Î¿Î³ ÎŃÏĤ
ĠÏĢÎµ Î»Î¬
d k
ĠÎºÎ± Î»Î¿
ÎłÏģÎ¿ Î²Î¿Î»Î®
ĠÎ»ÎŃ ÎµÎ¹
ĠÎľ Î¹Î±
ĠÎµÏĢÎ¹ ÏĩÎµÎ¯
ĠL ly
Ġi gun
Îµ ÏģÎ³
ĠÏĩÎ± Î¼Î·
ĠÏĢÎ¹ Î¸Î±Î½
ĠÎº ÎŃÎ½ÏĦÏģÎ¿
ÏĢÎ¿ ÏĦÎ±
Î» ÏīÎ½
ĠÎ¶ Î®
ĠÎ³ Î±
ĠÎµ Î³Îº
Î¼ ÎµÎ¹
Ġddi m
al Ã¡
ĠAM áº¸RIKA
è¦ ģ
X W
Ġà¤ ®
Ġta yá»į
Ã³ r
Ġm ona
ti m
Ġn nkan
Ġbe e
Å£ ie
Ġto ate
ĠI yáº¹n
ree t
Ġå ¤
ĠâĢĿ +
Ġwa li
Ġpi p
Ġo yi
ĠBib eli
ĠA ami
om áº¹
it u
Ġi si
Ġb ori
Ġa te
ĠK un
æĸ ¹
ne y
Ġnu gboná»į
ĠS KU
ĠI gbe
ĠCo in
Ġtu mo
Ġd os
Ġi won
Ġa láº¹
Ù ī
Ġya z
Ġkh a
Ġh antle
Ġa ke
ĠPor tu
ĠØ ¨
nu de
C H
Ġari wo
Ġafoju sun
ĠS yeed
è µ
Ð ¼
C T
á»Ļ c
Ġto p
Ġa ro
ĠIz mir
ĠGr oup
ĠD ra
ĠD ire
ĠAla ilowaya
ĠA á¹£á»į
Ġ200 3
en á»į
de x
Ġma bo
Ġles a
Ġh t
Ġd Ã¤
ká»įs ÃŃláº¹
gli o
ENER AL
Ġz áº¹áº¹máº¹
Ġma il
Ġk una
Ġiá¹£ aaju
Ġis an
Ġi ji
to t
ĠSys tem
Ġ20 00
p os
kun nu
f ara
Î» Î¹ÎºÏĮ
Ġ× ŀ×
ĠÎµÏĢÎ¹ÏĥÎºÎŃ ÏĢ
Î¬Î² ÎµÏĦÎµ
ng or
Ġc rÃ©
am b
Ġju lo
Î³ ÎŃ
ĠÎ¼ÎŃ ÏģÎ±
f on
ĠA LA
Ġ15 0
Ġ ÑĢ
Ã¨ rÃ¨
ĠÄ ı
cz ny
ĠÎĮ ÏĩÎ¹
ĠÎ± ÏģÎ³
Î¯ ÏĥÎµÎ¹
ĠÎ± Î¯
e f
ĠW Q
Ġ00 9
Îº Ïħ
Î¸Î· ÏĥÎ·
ĠÎºÏħÎ² ÎŃÏģ
Î´ Î¹ÎºÎ®
ĠÎµÎ¾ ÎŃ
ÏĦÏģÎ¿ ÏĨ
ĠÎłÎ¿Î» Î¹
ĠÎµ Î²Î´Î¿
Î® Î¼Î±
ĠÎľÎµ ÏĦÎ¬
ĠÎ±ÏĢÎ¿ÏĦÎµ Î»ÎŃ
ĠÏĢÏģÎ¿Ïĥ ÏĢÎ±
Ġ ÏģÏĮ
u e
il ia
Ġq y
Õ¡Õ Ń
m ÉĻn
Ġcu i
ĠUn ter
u ká»į
g ia
Ġyá»įn nu
Ġg á»įna
Ġd Ã¹
ĠO ke
ĠL on
ãĤ³ãĥ Ł
I I
Ġx i
Ġibi le
Ġang áº¹li
Ġa kan
ur ren
r cid
n ow
ĠEni yan
ă ă
ï¿½ï¿½ ï¿½
åı ·
ve d
tlo cale
k oni
Ġn ya
Ġla ni
Ġh er
Ġe ka
Ġagba sa
ĠC ir
ĠAn ti
ãģ «
ma l
Ġp enu
Ġidi wá»įn
ĠP ost
Ġ48 XW
æĸ °
Ġáº¹ sin
Ġpo ka
Ġand ro
Ġafi we
ĠBi ble
wor ld
lo kalo
Ġs hi
ĠG al
ĠE ar
ĠA w
ãĥ ª
à¸ §
te ms
ta ki
Ġn mu
ĠA c
£ ãĤ³ãĥŁ
der un
C o
Ġo we
Ġd je
Ġc ru
ĠS ci
ĠD uro
ĠD igi
ãĤ ¹
à¸ Ķ
c el
C r
Ĵ Į
ĠTa i
ĠI M
ĠCom pany
Ġoá¹£e re
Ġg em
Ġa h
ĠTi ta
ĠIn s
Ġki lo
ĠL in
ĠFru ity
Ġ9 7
Ġ11 0
á»į run
bi ye
Ġl or
ĠNá»į mba
ta ble
ĠE we
ĠBlack jack
ĠA ca
vu á»įvo
c ket
Ġá¹£ atuná¹£e
Ġg oo
ĠP in
K UN
C O
Ġp oun
Ġoun je
Ġ6 8
ç µ
ĠtÃ² daho
Ġoni á¹£áº¹
Ġmu si
Ġija mba
Ġi toju
ĠP s
ĠA abo
Ġ8 2
Ġku a
ĠP os
ĠE mir
Ġ9 8
ta ya
po t
C E
Ġá»įlá»į pa
Ġyi ka
Ġs ina
Ġr Ã¡n
Ġpug ri
ĠA ÌĢ
Ġb Äĵr
em ents
R IN
ĠÃłw Ã¡rÃŃ
ti va
ĠM as
æŀ ľ
zá»įn watá»į
ĠãĢ į
ĠãĢ Į
Ġnáº¹ rháº¹
Ġgu e
Ġb ro
ĠS kopelos
ĠGlo bal
à¹ ĩ
om o
K AN
Ġon is
Ġog orun
Ġiya láº¹nu
Ġd áº¹
ĠSt ar
ĠB áº¹
tiláº¹ jáº¹
Ġp Ã²
Ġir isi
tÄģ s
Ġarin rin
ol gÃ¡l
j te
ĠDa y
ĠA lum
Ġ7 6
Ġ200 2
æ Ļ
tt er
Ġá¹£e tan
Ġitá»į kasi
Ġibanu jáº¹
Ġfin áº¹
Ġati láº¹ba
ĠTa g
ĠChin ese
Ã Ī
ye ba
be t
b la
G O
Ġá»į pá»į
Ġip arun
Ġgb ia
Ġala afia
ĠI wo
ĠChe at
Ġ8 9
æ ķ
bo x
N A
Ġráº¹ ÌĢ
lÉĻr dÉĻ
he la
em me
au t
ĠÎ¹ÏĥÏĦÎ¿ ÏģÎ¯Î±
ĠÎ ¨
ÎºÎµ ÏĨ
dia dau
Ġes pe
Ġv la
Ġm es
d ow
ĠÃ©r de
u se
Ã«r Ã«
Ġt Ã´i
ia ÅĤa
o ti
Ġm ose
Ġc as
Ġk ga
Ġk is
Ġose lu
Ġfáº¹ rÃłn
ĠTechno logy
Ġ6 7
Ġ1x Bet
å İ
ngua ge
RE E
ĠÃ¬ f
Ġch ÃŃnh
In tel
20 14
ÏĦÎ¹ Î½Î¬
4 7
ĠÏĢÏģÎ¬ Î³Î¼Î±ÏĦÎ±
ĠJ A
ĠÎºÎ¿ Î¼
ĠÏĢÏģÎ±Î³Î¼Î± ÏĦÎ¿ÏĢÎ¿Î¹
ĠÎĵ ÎĻÎĳ
ĠÎº ÏģÎ¯
ĠÎµÎ¯ ÏĢÎµ
Î¸ÎµÎ¯ ÏĦÎµ
ÎµÏģ Î¼Î±Î½
ÏĢ Î»Î·
l wy
ĠP rze
Ġsa h
v aa
Å£ ia
st ru
Ġz Ã¡k
Ġto o
Ġo jÃº
ĠÎ±Î¾Î¹Î¿ Î»ÏĮÎ³Î·ÏĥÎ·
ĠÃ· Â¬
Ġ) -
ĠWilliam s
Î¬Î» Î¹ÏĥÏĦÎ±
ĠÏĢÎµÏģÎ¯ ÏĢÎ¿Ïħ
ĠÏİ ÏģÎµÏĤ
Ġ- -
ĠÎļ Î±Î»
ĠÎºÎ±ÏĦÎ¬ ÏĥÏĦÎ±ÏĥÎ·
Î´ ÏĮÎ½
ĠÎľ Î¿Ïħ
ÏĦÎ® ÏĥÏĦÎµ
Î¶ ÏĮ
de b
c Ã³w
Ġv Ã¡la
dh je
l lÃ¤
ĠN ous
c Ä±
n s
Äį o
Ġd ou
kÃ¶ z
Ġia wn
Ġf ir
der n
Ġvi esnÄ«
Ġsam o
Ġc li
Ġfe tisisa
ĠmÉĻlu mat
Ġpers onn
áº« n
ĠÅ¡ t
Ä«g as
ĠL as
q e
Ġv Ã¤
Ġv Ã©
Äį ka
s Äĵ
ĠtÉĻ d
ĠÅĽ wia
sk Ã©
Ã¡ gi
Ġte ng
u i
ĠÏĨ ÏĮ
ĠÎºÎ¬Î½ ÎµÏĦÎµ
ĠÎµÎ¯ ÏĥÏĦÎµ
ĠÏĢÏģÏĮ ÏĥÏĨ
ĠÎķ ÏĥÏĦÎ¹Î±ÏĦÏĮÏģÎ¹Î±
ĠÎºÎ±Î»ÏįÏĦÎµ ÏģÎ·
ÏĢÎ¿Î¹ Î®
Î¬Î¶ ÎµÎ¹
ĠÎ² ÎµÎ»
4 2
ĠÎ± Ïį
Î¹Î¿ Î½
Î¯Î¶ Î¿Î½ÏĦÎ±Î¹
ĠÎ¤ ÎŃ
ĠÎµÏĢÎµÎ¹ Î´Î®
bo daeth
Ġde t
ĠZ e
Ġn ká»į
Ġla a
Ġiwu lo
ĠYou Tube
ĠMa c
ĠEngine er
Ć ć
k Ãł
Ġser a
ĠÏĦ Ïħ
ĠÏĢÏģÏĮ Î³ÏģÎ±Î¼Î¼Î±
i dd
ent os
li yin
T M
Ġæ ĺ
Ġáº¸ ya
Ġá¹¢ E
Ġtita ja
Ġti ráº¹
Ġori á¹£i
Ġla papá»į
ĠK ar
à² ¡
G A
Ġra yen
Ġmá»į dá»į
Ġmeje ji
ĠA ll
Ġ200 4
äº Ĩ
à¸£ à¸µ
o ke
d Ãł
ĠKosov Ã«s
Ġv je
ce p
Ġbo lo
ma a
b ÉĻt
Å¡ana i
Ġf al
Ã Ģ
ĠÂ ¹
ĠN am
Ġu tÃ¡n
dh ur
Ġs ous
mi yyÉĻt
Ã³w i
Ġdin tre
Ġf ana
Ġnh Ã¢n
Ġgi or
cz nych
Ġsu êŀĮwe
Ġsu pport
Ġpa pá»į
Ġli ngbi
Ġiba lo
Ġa gutan
ĠJ ose
ĠFo onu
la a
Ġz h
Ġndi êŀĮin
Ġn Ã¬
Ġmej or
Ġi c
ĠZ u
Ġker es
Ġb Å«
Ġn lá»į
Ġdo gá»į
Ġbara mu
ĠC re
Ġb Ã¼tÃ¼n
Ġke mikali
Ġimu lo
å ¿
un ina
do do
a y
U L
Ġáº¹láº¹ gbáº¹
ĠÅ¡ i
Ġf ini
t Ã³w
ĠOti tá»į
ĠO LU
ĠG ENERAL
ĠA sia
k Å¯
çĶ ¨
ong o
ma d
Ġyor uba
Ġj ina
ĠW est
ĠK ara
ĠF ull
ĠD ia
ĠA gbe
Ġ ä¼ģæ¥Ń
Ġ Ñģ
ká»į taya
Ł à¸£à¸µ
Ġn á¹£iá¹£áº¹
Ġmáº¹ wa
ci ona
Ġmuna doko
Ġipa d
Ġib inu
Ġai lopin
ĠDigi tal
è £
vi es
gb onu
Ġá¹¢ aaju
Ġu se
ĠI ma
ĠAD I
à ª
Ð ´
Ġt esiwaju
Ġt ara
v ers
Ġira wá»į
ĠRE ZO
Ġ7 8
tiláº¹jáº¹ pe
LO S
Ġą ĆĈć
Ġir onu
Ġdá»į ho
Ġd ard
ĠMu ham
ä¸ ª
p lay
ki bi
is m
ir un
cka ge
Ġre d
Ġko koro
p he
Ġi g
ĠN áº¹
ĠIya tá»į
ĠDi le
á»įn áº¹n
y Ãłn
is che
Ġc os
ĠÎºÎ±Î»ÏįÏĦÎµ ÏģÎ±
Ġ) Â¬
ra eth
z it
Ġh á»£p
Ġo laraq
Ġu Å¼y
d re
Ġb one
Ġja un
ĠÃ© le
di on
ĠKe y
e lo
Ġb ol
l Ã¼
Ġla v
Ġk dy
tu it
Ġkr ye
h Ã¡z
ĠÄ ĵ
Ġap ro
Ġa voir
m ie
b Ã³l
Ġpar te
Ġmo lemo
Ġqu an
ĠrÃ³w nieÅ¼
yi ÅŁ
Ġje tÃ«
ono lo
Î³ ÎºÏĮ
ĠÎ± ÎºÎ¿Î»Î¿Ïħ
Ïĥ ÏĢ
ĠÎº ÎµÏģ
ĠÎ¸ÎŃ Î»
ĠÎ¤Îµ Î»ÎµÏħÏĦÎ±
ĠÎ´Î¿ ÎºÎ¹
ĠÏĥÏħÎ¼ÏĢ ÎµÏģÎ¹
f no
u den
Ġb el
Ġsa vu
jÄħ ce
Ġe be
ĠÎ½Îµ ÏģÏĮ
ys g
Ġv el
Ġe ffe
p helo
Ġun s
Ġto m
Õ¥ÖĢÕ ¨
Ġs Ã¶z
v un
i de
Ġn uy
ĠTo din
à¸ ¢
or áº¹
li te
a le
Ġy Ãłn
Ġoj oojumá»į
Ġne i
ãĥ Ń
k ar
be ere
G U
Ġè ¿
Ġri áº¹n
Ġnch ga
ĠAust ra
ĠÃ¶ssz e
lan t
å¤ §
ur á»į
táº¹ ri
ng bo
d el
ard s
P O
Ġyum bo
ĠTo ngana
ĠKo lopin
ĠEmir ates
Ġ6 3
ç ľ
æ ¤
wim wear
p ter
der s
P C
ĠâĤ ¦
Ġour world
Ġina wo
Ġi jáº¹
Ġc olle
ĠS he
ĠB ig
áº¹áº¹ ti
ungo qi
ke re
ji yan
Ġsur vey
ĠLon don
ĠBo ya
á¹£in á¹£in
dan wo
Ġá¹¢áº¹ da
Ġolu gba
Ġo e
Ġid áº¹
Ġba wo
ĠM ir
ç´ ¢
ku su
c en
h lan
c ra
aria ye
Ġti keti
Ġs isun
Ġng an
Ġbo dy
Ġafáº¹ yinti
ç §
kiti yan
ani yan
IN I
Ġă Â
Ġá¹£a fikun
Ġoru ko
Ġiwu ri
Ġgb la
Ġbiba si
yn e
ly the
in y
g ÉĽ
Ġn Ãº
ĠDi dara
ĠBu do
ãĤ °
¡ ï¼
r ÉĽ
li f
g al
c ture
Fun 88
Ġw indow
ĠZ o
ĠUn limited
ĠO dun
ĠFi dio
è¦ ĭ
ç Ĳ
tan áº¹áº¹ti
la ti
d ona
Ġid ana
Ġas u
ĠAl lah
Ġ? "
Ġ2 50
Ġ à¹Ģà¸
Ġáº¹ wÃł
ĠRus sia
ĠP r
Ġn jo
oo o
las s
ku e
gb Ã©
d nie
E B
ĠÎķ ÏĢÎ±
ĠÎĶ ÎµÎº
ĠJ B
ĠÎ´ÏħÎ½Î±ÏĦÏĮ ÏĦÎ·ÏĦÎ±
ĠÎ´Î¹Î± ÎºÎ¿
ĠÎµÏĢÎ¹ Î»ÎŃ
Î½Îµ ÏĦÎ±Î¹
ĠÎ±ÏĢÎ¿ ÎºÎ±
ĠÏħÏĢ ÎŃ
Î¼Îµ Î½Î±
Î´Î¹Î± Ïĥ
yn t
ĠU ne
Ã ĸ
Æ° a
ĠI ch
ĠÅŁ ÉĻx
Ġm un
Ġle fa
mm en
owan y
Ã¶ s
Ġse tan
Ġoyin bo
Ġibalo pá»į
ĠM ich
ĠB usiness
Ġ4 00
y ri
ste li
onu ká»įn
me d
Ġolu ká»įni
Ġh as
æĸ ĩ
r Ãº
mi ta
T C
Ġs is
Ġph p
Ġnga ngu
Ġe jo
Ġnd ry
ĠW h
ĠU k
ĠJ on
ĠA wu
ĠA I
¦ Ĥ
Ġá»įlá»į rá»į
Ġá»Į pa
Ġoh Ã¹n
Ġpi erw
Ġe ge
ĠN ov
Ġ4 K
v wo
IV E
AN I
Ġo to
Ġenáº¹ láº¹
ĠMa tiu
ĠB áº¹ráº¹
æ ¸
ä¸ Ĭ
ľ ç´¢
Ġá»Į ba
ta ires
Ġtáº¹ mp
Ġopo lopo
Ġnfun ni
Ġji je
ĠK A
Ġ100 0
ä½ į
um ber
Ġi báº¹
Ġdi ff
vir us
gbo gi
Ġs áº¹áº¹
r Äĵ
Ġgbi gbá»įn
y er
il enu
b in
Ġigba lode
ĠP Ã³Ì£n
ĠNi kan
Ġ6 2
u ká»įsiláº¹
le láº¹
f ul
c urren
ĠêŀĮ Ã±a
Ġá»įgá»į run
Ġmilli on
Ġiá¹£e re
Ġb ur
go k
ĠÎ³ÏģÎ± ÏĨ
ĠÎµÏģÏī ÏĦÎ®ÏĥÎµÎ¹ÏĤ
ĠÎµÏĢ ÎŃ
wyd do
Ġsi nh
ĠE wá»į
p S
ba jáº¹
Ġn won
Ġgb lá»įn
ĠW hite
ĠPa ul
ĠI ge
por tation
l ou
it á»į
gbede v
Ġin ki
Ġgbo lohun
Ġada á¹£e
ĠI wa
yan jiyan
wor d
vi ous
hin wh
M P
Ġsáº¹ hin
Ġil Ã©
lo Äį
Ã¢n Äĥ
Ġto dos
Ġmo g
Ä«g u
hlah isoa
Ġle f
z en
Ġ Õ¡Õ¶
Ġg Ã¼
m inen
ant es
ĠT S
ĠM me
o ho
ĠÄĳá»ĭ nh
ĠT Äģ
em bre
Ġsu b
Ġje ho
be la
ĠÎĳÏĢ Ïģ
ÏģÎ· Î¼Î±
ĠÏĪ Ïħ
F B
ĠÏĩ ÏģÏİ
ÏĦÎµ Î¯Î±
ĠÎº Î¿ÏģÏħ
Ġb yd
ĠK om
Ġk Ã©r
Ãª te
Ã³ k
Õ¸ Õ¶
Ġ Õ¡Õµ
Ġb Ã¶yÃ¼k
Ġde ri
Ġse kÃ¤
Ġcu ando
it Äģ
jÄħ cy
Ġba o
ĠW ir
Ġno i
Ġbe au
lo Å¾
ĠÃ®n tre
bb an
ĠSa int
Ã§ a
ke it
g no
Ġhlo ko
tu d
is tu
in si
ÏĥÎ¯ ÎµÏħ
ĠÎľ ÏĮ
ra eg
6 7
ĠÎ¼Î¿Ïħ Ïĥ
ĠÏĢÏģÏĮ Î²
ĠÏħÏĢ Î¿ÏħÏģÎ³
ÏĥÏī ÏĦÎµÏģ
mi f
Îĳ Îļ
ĠÎķÏħ ÏģÏİ
ĠÎ¿ ÏħÏĥ
Î¼ ÎµÎ¯ÏĤ
ĠÎĶ Ïī
ÏĦ ÏģÎ¬
ÏĦÎ· Î¼Î±
Î³ ÎŃÏĤ
Ġu00 26
ĠÏĢ Î»Î¬
ĠÏĢ ÏİÏĤ
ĠÎķ Î¹
ÏģÎµ Ïį
ĠÎµÎ¾ Îµ
ÏĮ Î»
ĠÎ¤ÎµÎ»ÎµÏħÏĦÎ± Î¯Î±
Ġch w
Ġm ara
pra w
Ġle tsatsi
li dad
Ġkish te
gli a
le ur
ĠRes publika
Ġh Æ¡n
ĠB ir
Ġw ÅĤa
er on
Ġder ni
Î½ ÏĦÎ±
ĠÎ²ÏģÎ¯ ÏĥÎº
Ġ. /
ÏĨÎµ ÏģÎµ
ĠÎ´ ÏħÏĥ
Î· Î³Î®
ĠÎ¼ÎµÏĦÎ± ÏĨÏģÎ¬
ĠÎµÏĢÎ± Î½Î±
ĠÎ² ÏģÎ±
Î¹Î¬ ÏĤ
Ġm wy
do tt
Ġho d
Ä« ju
Ġn ou
Ġes in
dz enia
ĠO R
ĠG irl
Ġ ÙĦ
w áº¹n
ren ch
ar be
Ġsáº¹áº¹ li
Ġre ti
Ġm eri
Ġgbla máº¹
Ġer i
Ġe g
ĠTa bi
ĠP E
ĠNa tional
ĠLu ku
ĠB raz
ku lu
b ro
2 10
) .
Ġá¹£e tá»įju
Ġse le
Ġist ÉĻ
Ġr ou
Ġs are
Ġmo lenge
ĠS mart
ĠIjo ba
ĠF in
è ¨
ma il
Ġsi oni
Ġi huwasi
Ġg aa
Ġandro id
ĠIle ra
Å£ a
v Äĥ
ĠB lythe
Ġ48XW K
ç ł
ç º
åĲ Ī
we we
oru ká»įsiláº¹
it oni
I P
Ġv á»į
Ġas an
ĠU r
g on
Ġå ®
Ġá¹¢a yáº¹wo
ĠÃ Ĺ
Ġoni gb
Ġb 9
ĠT ru
ĠSe le
ĠS hi
Ñ ĩ
Ì ©
vie ws
tun e
is as
Ġku gbe
Ġigbohunsa fefe
Ġifá»įwá»į kan
ĠP S
ĠIndon esia
nude tá»į
li m
ho ho
Ġni i
Ġifi weraná¹£áº¹
ĠIn ternet
ĠB r
çķ ª
æ¤ ľç´¢
g ent
al yu
Ġibase po
Ġatun yáº¹wo
ĠY uroopu
ĠW u
ĠT Ã³
ĠBra tisla
h ra
ĠOlo hun
ĠO rin
ĠN la
ĠN U
ĠIpo lowo
ĠHi áº¹
ĠGGQ E
å ī
Ãº s
ĠÃº gy
Ġda t
esz cze
gh á»į
T S
Ġp iem
Ġpo po
Ġm il
Ġf áº¹ráº¹
Ġd ri
ĠYor k
ĠM E
ĠI fa
Ġ7 7
é¢ ¨
kun o
ĠÙ Ĭ
ĠÐ ½
Ġp á»įn
Ġja ck
Ġir on
Ġari yanjiyan
Ġab out
ĠIsa koso
ĠIgb esi
âĢ¦ âĢ¦
m bo
Ġoti to
Ġka lokalo
Ġi te
Ġada yeba
ĠI d
é ĸ
páº¹ áº¹ráº¹
itoni leti
J U
1 00
Ġå °
ĠÃ Ĵ
ĠSlov ens
v or
tl he
at la
skie j
Ġyan ju
Ġiko lu
Ġagbe kale
ĠS A
ĠKáº¹ rin
ĠA wa
yi ka
g ÉĶ
di da
M E
H A
B uy
Ġæ Ŀ
Ġy Ãł
Ġd om
Ġnga ta
Ġap rÃ¨s
Ġe gÃ©sz
Î²Î± ÏĥÎ·
Ġl ly
Ġjed no
Ġv Äĥ
ĠtÃ¶ rt
sh t
Ġfa cebook
Ġa kitiyan
ĠT ho
ĠO gb
ĠDa ta
ç İ
ãĤĴ è¦ĭ
ãģ ¾
Ġt áº¹n
Ġo ran
ĠNi gbana
ĠB ill
ĠA tá»įka
à¸ ļ
pá»įn na
káº¹ vuá»įvo
de go
Ġs pins
Ġala iláº¹gbáº¹
Ġ9 2
æ ¬
wo od
h Ã¹n
tt en
dz iaÅĤ
am ente
k la
áº£ ng
Ġæ ³
Ġolu ran
Ġn fa
Ġda we
Ġagbe lebu
ĠR an
ĠO ko
Ġ) ;
yen si
ÉĻs inin
y ÃŃ
ÎºÎ¬ ÏĦÏī
ng os
c teur
Ġk am
lor s
Å¡ ak
Ġgja tÃ«
Õ¡Õ º
Ġb elÉĻ
Ġl v
du s
Ġg ru
Ġk Ã©t
Ġ! !
ĠÏĢÎ¬ ÎµÎ¹
ĠÎĽ Î±
ĠÎºÎ±Î½ ÎµÎ¯ÏĤ
ĠÎµ Î±
ÏĨ Î¯
ch w
Ġw enn
re z
la re
h do
Ġw ÅĤ
Ġde ngan
Ġdel s
ĠÎĵ ÎµÎ½
ĠÎ±Î½Î¬ ÏĢÏĦÏħ
ÏĢ Î»ÎŃÎ¿Î½
Î¹Ïĥ Î¼ÏĮ
ĠÎ± ÏĨÎ¿ÏģÎ¬
Ġs g
Ġen core
Ġd Ã´
Ġfu e
cz as
v Åĳ
br ie
ĠÆıli yev
Ġa Ã§Ä±
Ġb ou
Ġan ni
Ġra ta
f el
Ġvair Äģk
Ġg om
Ġba ng
Ġd ÄĽ
Ġl Ã¤
Ġentre pr
lÉĻr inÉĻ
Ġdon c
Ġca o
Ġs tre
r ul
Ġg Ã©n
Ġg on
Ġpa re
Ġod powie
lu u
hin rere
ar ma
Ġá»įmá»į kunrin
Ġwh Ã¨
Ġijo ko
Ġht ml
Ġawa y
ĠL IVE
ĠH al
ĠC ard
ĠA R
pS hop
lan máº¹
ani ji
Ġiyi po
Ġe ji
Ġdu ti
ĠS MS
ĠIn te
Ġ7 2
é Ķ
á»į du
ty le
je pe
Ġcon o
ari i
12 3
ĠÐ ²
Ġmo re
Ġláº¹ ká»į
Ġk osi
Ġcon t
ĠWoo pShop
ĠTÃ³ kuno
ĠTÃ³kuno Ì£
ĠJ isas
ĠI ko
Ø Ń
Ê ¼
ÉĽn Åĭ
tu be
qu are
p t
ÏĥÏĦ ÏģÎ¿
Î¿Ïħ Î»Î¯Î¿Ïħ
e tho
o tu
Ġt láº¹
Ġsa laye
Ġoni ja
Ġis un
Ġai fá»įwá»įyi
ĠTe le
ĠT á»įki
ĠAti láº¹yin
ĠA sa
Ã¡ d
wn o
te tit
Ãª m
Ġde gli
Ġm 2
sk Ã¡
Ġa ur
Ġk Ã©
Ġjed nak
larÄ±n Ä±
Ġso t
Å¾ d
Ġd ru
ksi a
Ġnagy on
Ġtha ta
è ĥ
ç Ļ
tor ÃŃ
Ġo Ã¹
Ġv it
ĠÏĥ Î¯Î³Î¿Ïħ
ĠÎ¾ÎµÎ½Î¿Î´Î¿ ÏĩÎµÎ¯
ĠÎ±ÏħÏĦÎ¿ ÎºÎ¯Î½Î·
ma u
Ġda Å¾
ÃŁ e
ĠMa i
Ġmu jeres
Ã¸ r
Ġha y
Ġun ui
le lo
Ġáº¹ wa
Ġyi ya
Ġb ana
tion en
Ġj ego
ä½ ľ
á»į máº¹
mi a
lo gi
ist ri
Ġtáº¹ wáº¹
Ġni be
ĠlÃ¡ ti
ĠÄ° s
Ġi de
ta ciÃ³n
Ġse ng
l os
X w
ĠÎ¹ Î´Î¹Î¿
ĠÎ§ ÏģÎ¹Ïĥ
l wydd
dÄ± ÄŁÄ±
Ġa qu
Ġn ost
ĠV iá»ĩt
Ġse hr
da p
Ġ Ã©rt
Ã´ n
Ġs uo
Ġ Å¼
ru ar
j Å¡ÃŃ
Ġfo is
Ġa ts
ĠÃ®ntÃ¢l ne
o are
szer Å±
ham eng
is sÃ¤
Ġm Äĵ
Ä¾ ad
ĠÎºÎ± ÏĦÎŃ
Ġhyn ny
Ġtjet Ã«r
Ġh asta
cu e
Ġdan n
am eni
ho o
Ã´ tel
l Ã¡s
Ġm nie
am y
Ġhe Ã§
Äį a
Ġl Ã©
ow Äħ
a tion
te ko
Ã¨ n
ĠÏĢ Î¬Î»Î¹
ms er
Ġdal la
Ġp Ã¤i
ra t
ĠVi deos
Ġp osi
Ġx ÉĻbÉĻr
Ã´ so
na s
ÃŁ en
la ire
m Å±
p is
Õ¥Õ ²
Ġq al
ca k
ĠÄĳá» ģ
l ÄĻ
Ġle o
ise en
Å¯ Å¾e
Ġb Ã«rÃ«
Ġn ka
ke k
g ement
ti ce
Ġsh ka
J h
8 3
ĠÎ¼ÏĢ ÏģÎ¿
ĠÎµ Î½Î±
ĠÎŁÎº ÏĦ
ÏĦÎ¹ÎºÎ¿ Î¯
Î¼ Î¼Î±ÏĦÎ±
f yn
Ġc ol
Ġzi jn
b Åĳl
ch ten
Ġd ost
Ġby Å¥
Ġau tre
ch os
c Äĵ
ĠRom Ã¢
Ġco pi
y ini
Ġun tuk
Ġtu tti
va d
Ġk und
c j
l Äĥ
v Ã¡l
Ġhan no
0 4
ĠÎº Î¯Î½
ĠÎ´ ÏģÎ±ÏĥÏĦÎ·ÏģÎ¹ÏĮÏĦÎ·ÏĦÎµÏĤ
Ġu0026 n
Ġu0026n bsp
ÏĢÎ· ÏģÎµ
Ġd ra
le tsa
Ġb us
te en
Ġpo l
C I
c ri
ÅĻ ed
jem y
er ung
ĠÃ¡l tal
sze j
ĠG j
dz Ä«
ra it
Ġngh iá»ĩ
Ġs te
Ġse hlo
Õ ¹
ĠÕ Ħ
Õ ©
Ġsi ya
Ġdon de
ia da
ri m
Î¼ Î¹Î¿
s ana
Õ¡Õ ¼
ĠvÉĻ zi
jÄħc ych
Ã¨n cia
Ġw neud
Ġp ran
Ġjel ent
in de
is ten
Ġm Ã¬nh
ĠT Ã¼r
Ġn or
Ġse baka
Ïĥ ÏĦÎ±Î½
Î² Î¬Î»Î»Î¿Î½
ÏĢÎ¿Î¹ Î·
ĠÏĮ Î½Î¿Î¼Î±
ĠÏĢÎ± ÏģÎµ
ĠÎ¼ Î¿Ïģ
ĠÎ¬ Î½Îµ
ÏĦÎµ Î»
ÏĦ ÏģÏĮ
ĠÎ¶Ïī Î®ÏĤ
B f
Î¼Î² Î±
ĠÎ±ÏĢ Î»Î¬
5 3
ĠÏĦ ÏģÎŃ
ĠÏĢ Î»ÎµÏħ
ÏģÎ¹Ïĥ Î¼ÏĮ
Î»Î® Î¼Î±ÏĦÎ±
Ġnh w
ĠC z
b or
k lÄģ
ĠM ÉĻ
ck Ã½
Ġm Ã¶v
á»¥ c
Ġso bie
ĠnÃ« n
is san
tat Ã¡s
ĠkÃ² Ì£n
Ġfi f
Ġdu pe
Ġb eg
ĠSat ani
ĠS au
ĠBan k
ĠB ook
all s
U B
Ġwo le
Ġori á¹£a
Ġn Ã¹
Ġdo da
Ġala ilowaya
Ġa dá»į
ĠM er
ä ¾
ÉĽnÅĭ ÉĽlÉĽ
ye derun
v wáº¹
gbara di
a yi
Ġy ÉĽ
Ġitan ran
âĢĭ âĢĶ
á¹£i á»į
à ¶
ku gba
Ġji ya
Ġaw ari
ĠTra vel
ĠItan na
ĠF REE
ĠA GBARA
ÅŁ e
wi wa
oo th
ku fáº¹
h Ã³Ì£
X L
Ġwa la
Ġoh Ã³
Ġku u
Ġi lohun
ĠT win
ĠL áº¸
ĠK ik
ĠJer usa
ĠEx press
ĠAle x
d Ãºn
v Ã¡n
Ġta d
ca to
Ġa Å¾
Ġra z
me lo
Ġolu b
Ġs to
Ġ Ã¡r
ma ks
Ġtlo a
ĠE A
Ġe ng
yy ÉĻti
Ġpa k
Ġh am
Ġdu e
te ment
Ġcu al
Ġto t
ĠÄģ r
d Äħ
ĠÃ© qui
ro v
ĠÂ ½
ĠÄĳá»ĵ ng
Ã³ s
Äĥr Äĥ
Ġe gin
Äį u
Ġbohlo koa
ĠHa e
Ġso lo
Ġnom bre
Ġby ÅĤo
Ġ ÏģÏħÎ¸
ÎºÏĮ ÏĤ
Î¼ ÎŃÏĤ
C OM
ĠL lan
ĠW D
Î¼Î· ÏĥÎ·
Ï ĭ
ĠÏĩ Î¿
ĠÎ± ÎºÎ¿Ïį
Ġa dd
n yi
si z
Ġho bane
ĠÎ´ ÎµÎ¯ÏĦÎµ
ÏĦÎµ Î¿
Î¶ Î±Î½
Î¯Î¶ Ïī
ĠÎ±ÏĢÏĮ Î»Ïħ
Ġof fer
Ã ĥ
á»ĳ t
Ġbo b
Ġte j
ĠPer soane
Ġfa c
lar ak
v Ã¡r
Ġsa le
Ġkan kan
Ġnj erÃ«
ek si
lar da
Ġfá»įwá»į si
ĠOk luná»į
ĠMul ti
ĠD re
URKE Y
Ġá»į la
Ġm ek
Ġk Ãł
we t
Ġiro hin
ĠY ÉĽnÅĭÉĽlÉĽ
ĠU R
ĠG ol
ĠEnáº¹ godo
n ess
ia ng
Ļ Ł
Ġou t
Ġmabo ko
Ġi Å¡áº¹
ĠV isunnu
ĠP at
ĠN umber
ĠIn dust
G E
Ġá»į yen
Ġsi x
Ġor isi
Ġali ngbi
ĠUS D
ĠP en
ĠO we
ĠM os
ĠHe b
Ġ! âĢĿ
åĪ ¤
v ia
o mi
ilá»į láº¹
fi di
Åĳ r
Ġà¤ ķ
ĠAwo á¹£e
é Ĺ
za tion
tile jepe
Ġhla h
bi á»į
S S
Ġá¹¢e to
Ġmul áº¹
ĠJes Ãºs
ĠD A
ÙĪ Ø§
es áº¹
Ġç ¤¾
Ġs il
ĠÏĦÎ¿ Ïį
ĠÎ´Î¿Ïħ Î»ÎµÎ¹
Î¯ ÏīÏĥÎ·
ĠÎ´Ïī ÏģÎµÎ¬Î½
ĠÏĨÎ¹ Î»Î¿
ĠÎ¿ ÏĢ
ĠÎ¬ÏģÎ¸ ÏģÎ¿
Ïħ Î½Î¿Î¼
ÏĦÎ® ÏģÎ±
ĠÏĥÏħÎ½ Î´Ïħ
ĠÏĢÏģÏī ÏĦÎ¿
ĠÎµÎ²Î´Î¿ Î¼Î¬
Ġgy m
n Äĥ
Ġilohun soke
ĠF al
Ġ î
âĢ ľ
dopo lá»į
Ġá¹£i á¹£i
Ġni reti
Ġmo tor
Ġj ia
Ġe kun
ĠTra in
ĠPre vious
ĠI dani
da sile
Ġow urá»į
Ġas iri
Ġalaba á¹£iá¹£áº¹pá»į
ĠU N
ĠNor th
ĠDa ju
ĠB ul
© ķ
wor k
ul áº¹
da ka
ĠPaa pa
ĠO H
ĠH am
ĠA dd
ĠA arin
ï½ ħ
ä» £
à¥ĩ à¤
pu blic
ko pa
ini ng
Ġpu q
Ġnu j
Ġfoju si
Ġa gá»į
ĠT URKEY
ĠF rench
ÃŃt Åĳ
ĠApe já»į
é Ŀ
l s
Ġà¸ ª
Ġokun fa
Ġji jin
Ġde de
Ġa á¹£i
ĠV al
ĠTh is
ĠK I
å ķ
ti cs
lu b
cho ol
J A
ĠS KO
ĠAra b
ĠApe juwe
Ġ' .
á»į da
i êŀĮ
g os
dd y
PE LOS
Ġá»įlá»į jáº¹
Ġá¹£i á¹£u
Ġr irá»į
Ġm á»įn
Ġl ka
Ġgb ero
Ġbayi i
ĠP 3D
ĠCa li
å¤ ©
à¸ ·
tem ber
ba ll
Ġz in
Ġwe b
Ġsa yensi
ĠMi má»į
ĠM y
ĠI nu
Ġg dy
ãĥ¼ ãĥ
Ðµ Ð½
ká»į tá»įn
Ġwáº¹ wáº¹
Ġs isáº¹
b ÉĻr
Ġk ry
Ġoju se
Ġis anwo
Ġgbáº¹tá»į vi
Ġb c
ĠE S
ĠDa fidi
å ĴĮ
p ari
bu i
ĠâĨ Ĵ
Ġo ne
Ġnu yi
Ġi koko
Ġdi á»į
Ġda da
st ÉĻ
ĠS wa
ĠP ir
ĠB BC
ĠAustra lia
Î´ Î¹ÎºÎ¬
ĠÎĵÎ¹Î± ÏĦÎ¯
ĠÎĪ ÏĦÏĥÎ¹
AF 8A
11 1
ĠÎ´Î· Î¼ÏĮ
Ïĩ Î¿Ïħ
ĠÏĮ Î»Î·
ĠÏĢÎµÏģÎ¹ Î»Î±Î¼Î²
ĠÎĳ Î³Î³
ĠÎ·Î»ÎµÎºÏĦÏģÎ¿ Î½
ÎºÎ¿Î» Î±
ĠÏĢÏģÏĮ ÏĥÏī
ĠÎ´Î¹ ÏĮ
ÏĦÏİ ÏĥÎµÎ¹ÏĤ
ĠÏĨÎ± Î¯Î½ÎµÏĦÎ±Î¹
ĠÎłÏģÏİ ÏĦÎ±
Ïģ Î¹ÎºÏĮ
ĠÎ³Î»Ïİ ÏĥÏĥÎ±
Ġr ho
Ġthe o
ph ia
ng bá»į
Ġnit osi
Ġl Ã³
Ġ Ã©ga
os ten
sz ere
ĠtÉĻrÉĻ fin
Ïį ÏģÎ¹Î±
ĠÎł ÎŃ
ĠÎĿ Îĳ
ĠÎ´Î¹Îº Î±Î¹
Ġm er
Ġ5 P
Ġ' '
ĠÏĢÎ±ÏģÎ¿Ïħ ÏĥÎ¹Î¬
Î¾ ÎµÏĦÎµ
ĠÎ´Î¹Î±Î´Î¹Îº Î±ÏĥÎ¯Î±
Î¸Î· Î¼Î±
ĠÎľ Îķ
Ġ12 2
Î¼ Î¿ÏħÏĤ
ĠÏĦÎµ ÏĩÎ½
ĠÏĢÏģÎ¿Ïĥ ÏĨÎŃÏģÎµÎ¹
ĠÎĺ ÎŃ
ĠÎ¼ÎµÎ³ Î¬Î»
f b
ĠÏħÏĢ Î®
ĠÎķ Îļ
ĠÎµÎ¯ Î¼Î±Î¹
ÏĦ Î¿ÏħÎ½
Î¼ ÎµÎ¯
Î»Î¬ÏĩÎ¹Ïĥ ÏĦÎ¿Î½
ÏĨ Ïį
Îµ Î´
6 2
ĠÎķÏĢÎ¯ ÏĥÎ·ÏĤ
wy l
Ġg es
Ġau g
p ÄĽ
Ġbi le
z ni
en Ã©
ĠÃ®ntÃ¢lne ÈĻte
Ġluc ru
Ġqa y
Ġs as
Ġka ti
Ġc so
ka ch
ĠBa sh
Ġgom me
Ġe ke
Ġh ar
ch te
une a
us s
elle tt
Ġta kie
d rid
a ciÃ³n
am ento
tl ho
a litÃ©
ĠÎ´Î¹ ÎµÏħ
ĠÎ² ÏģÎ¬
ĠÏĮ Ïĥ
Ġp en
Ġtso hle
st vo
z Äĵ
h ur
rÃ³ d
Ġc Ã²n
nÃŃ ch
Ġdu pÄĥ
Ġfe j
Ġd ro
Ġbo lela
Ġs ÉĻn
Ġg en
rip tion
Ġde v
Ġfal se
Ġ Ã©n
Ġnda j
ts h
to i
Ġsz o
Ġpod Ä¾a
Ġt iem
Ø§Ø ª
Ġt ÉĻk
Ã¶l d
Ġsz ko
Ġmá» Ľi
ÄĻ Å¼
jÃº ci
g na
Ġm ie
g lich
ĠÏĢÏĮ Î»Î·
Ïĥ Î¬
wr s
ve i
Ġt ÄĽ
Ġho w
Ġb 1
ĠRe public
d ent
ĠL ight
Ġ3 A
ä¸ ļ
táº¹ áº¹li
lara ya
V I
Ġgun s
Ġai yipada
ĠWhe el
ĠPa taki
ĠAP C
ĠA T
æ ´
å ĳ
l ÉĶ
du du
M a
Ġwu ra
Ġme aning
Ġa fa
yi b
ĠÎ´ ÏĮ
ÎŁÎ¥ Î£
Î½ Î¿ÏħÎ½
ĠÎ³ÎµÎ³Î¿Î½ ÏĮÏĤ
Ïĥ ÏĥÎµ
Î´ ÏģÎ±
Î±Ïĥ Î¯
ĠÎ· Î»Î¹Îº
ĠÎµÎ¾Ïī ÏĦÎµÏģ
la u
ĠT Ãľ
ĠS owo
ĠRus sian
ĠLa arin
ĠL LC
Ã¹ bÃ¡
ung un
f ÉĻr
Ġâ Ħ
Ġpa y
Ġn Ã²Ì£
Ġaye ye
ĠR egi
ĠPar is
ĠP O
ĠAá¹£ oju
láº¹ m
ini ki
gu á»įná»į
Ġaká»į ta
ĠT hai
p po
ĠS ara
ĠM anu
ĠIta ly
titu tas
Ġal gun
á»© ng
Ã¡ dza
Ġav ant
ĠC J
ĠBa y
é ģ
Ã± aêŀĮan
s usu
ric an
on á»į
hu do
ha bi
ĠâĨ ĳ
Ġpáº¹ lÃº
Ġni le
Ã¢ r
Ġg omina
Ġda bobo
Ġbi t
ĠW el
ĠNi won
ĠM P
ĠCD U
ĠAba la
ç Ń
à¹ĩ à¸Ńà¸
Ġoriláº¹ ede
Ġhinh áº¹n
Ġbi g
Ġabu da
æľ ¬
ä» ¥
ä¸ º
g ga
d ie
ce d
Ġs Ã¨Ì£n
Ġiha má»į
Ġigbes oke
Ġb ilionu
Ġama yederun
Ġa báº¹ráº¹
ĠN E
ĠMir za
ĠImu dojuiwá»įn
ĠH er
à¹ĩà¸Ńà¸ ķ
H T
Ġá»į ÌĢ
p ont
Ġk y
Ġr ze
Ġfun dit
Ġma k
ta to
Ġna k
ĠtÉĻrÉĻfin dÉĻn
ÃŃ cu
ĠM are
á»ĳ n
ĠN jÃ«
Ġas s
ĠÏĢÎ±ÏģÎ± ÎºÎ¬ÏĦÏī
ĠC yn
Y W
Ġin forma
c si
ĠvÃµ i
Ġfe la
o t
× ª
ÏĢÎ± Î¯
w is
Ġv Å¡e
la k
Ġo ra
ĠÏĢÎ± Ïģ
ĠÎ´Ïħ Î¿
w f
en ne
Ġcon tra
v Ã¤n
Ã¼ b
ÏĨ Î¬
ĠÎŃÏĩÎµÎ¹ ÏĤ
Ġang en
Ġfa pan
Ġpa Å¡
ĠÅ ½
v Ã©ny
Ġkund Ã«r
Ġn Ãªn
sk Ã½
Ġr ÉĻ
Ġk il
Ġka d
Ġna d
c te
ĠÃ© p
pa Ã±
Ġdi tÃ«
ĠÕ ©
ĠÖ ĩ
h s
Ġso ll
Ã¦ r
Ġc our
l le
ti r
Ġk ra
ĠC um
ÅŁ te
ona le
Ġil dÉĻ
Ġs or
z ar
ĠpÅĻ e
Ġle baka
Ġl Ã¤h
Ġv ia
Ġe k
Ġs á»Ń
Ġde man
â Ķ
Ġni ci
Ġn ouve
Ġhi er
ze ti
ka se
Ġa st
ck en
Î¾ Î¿ÏħÎ½
ar n
Ġp Å¯j
ĠÎ¿ ÏģÎ¹Ïĥ
w ng
ti ques
Ġj en
r s
Ġts wa
ja l
ul la
Ġáº¹ yin
Ġni ye
Ġd ÃŃn
le i
ks Ã©g
Ġde puis
ck y
Ġba amu
ĠSKO PELOS
ĠOffi ce
à³ Ĩ
d onu
Ġma z
ĠRe view
ĠBraz il
Ġce i
è ĩ
Ã¬ wÃ²
ona virus
ju ana
O O
G c
Ġï¼ Ī
Ġç¤¾ é¢¨
Ġåı £ãĤ³ãĥŁ
Ġá¹£ Ãł
Ġs ÉĻr
ÅĽ nie
d Ã«r
ĠÏĨ ÎŃÏģ
ĠÎ±ÏģÎºÎµ ÏĦÎ¬
ÎĽ Îĳ
Î¤ ÎĹ
ĠÎ½Î¿ Î¼
ff er
Ġv ÃŃ
Ġera ill
Ġmi esz
Ġb un
Ġl ors
Ġmp 3
Ġkede re
Ġk Ã¬
ci pa
ch ts
tt Ã¤Ã¤
g Ã«
Äģ ka
iá»ĥ n
lo i
Ġj eszcze
we i
es a
Ġiá¹£ i
Ġgba gbo
sz ym
Ġa dura
Ġ8 00
å¤ ļ
áº¹ ri
Ã« l
©ķ åĪ¤
teg ori
na me
ma x
de ji
ĠYor Ã¹bÃ¡
ĠO ku
ĠMi cro
ĠG en
ĠC olle
ĠBá»į tini
ãģ ¯
Ã¬wÃ² ye
oo gun
j Ãł
Ġre la
Ġtse o
ĠÅ¾i vo
Ġem ber
ĠÎ³ Î¬
ĠÎ±ÏħÏĦÏĮ ÏĤ
ĠÎ¬Î»Î» ÎµÏĤ
Ïį Î¿ÏħÎ½
ÎĻÎļ ÎĹ
ĠÎ² Î³
Î¿Ïħ Î¼
ĠÎµÎºÎ± ÏĦÎ¿
ĠÎ±ÏĢÏĮ ÏĨÎ±
ĠÎºÎ±Î»ÏįÏĦÎµ ÏģÎ¿
Ġg all
k Ã½
ÅŁa f
Ġti en
ou lu
Ġas ta
us ta
Ġc Ã¢nd
Ġwie der
b be
Ġdz iaÅĤ
Ġver ir
ĠvÄĵ l
wi er
Î¯ Î´Î±
Î¬Î½ Îµ
5 2
ĠC E
Î±Î¹ Î´ÎµÏħ
Xw Bf
ĠÎºÎ¬ ÏĢÎ¿Î¹
ch u
tic os
ĠÃ¶ n
Æ°á» Ł
fa tsa
ent ro
ku mu
c king
Ġï¼ ī
Ġte te
Ġq ÉĻ
Ġs how
Ġifáº¹ kufáº¹
Ġida pá»į
ĠW ha
ĠSo ftware
ĠSele ct
ĠO birin
ĠK amáº¹ra
ĠIgb ese
ĠC anada
Ġwur de
Ã į
s Ã¬
ĠÏĦÎ¯ ÏĢÎ¿ÏĦÎ±
ĠÏĥÏħ ÏĥÏĦÎ®
Ïİ ÏĥÎµÎ¹
6 3
Ġgw neud
u tta
hi le
ĠtÃ¶ r
is Ã©
v r
Ġaqu est
Ġm Ã«n
Ġpr os
ter i
Ġi ek
Ġho r
Ã¥ r
Ġr Ã³Å¼
c ont
Ġmo ins
u al
Ġmok hoa
ĠM or
Ġd á»±
Ã¡r t
Ġat bil
Ġde z
Ġpri ma
Î¼Îµ Î½
ĠÎµÎ³ÎºÎ± ÏĦÎ±
ĠÎ±Î³Î± ÏĢÎ·
Ïĩ ÏĮ
ÏģÎµ ÏĦÎµ
wod raeth
Ġtsen a
Ġne pie
r Ã¹n
it tÃ¤
Ġktor Ã¡
mÉĻ si
j Ã¼k
Ġh el
j os
z Ã«
Ġsu is
Ġkati ka
ĠP ra
Ã© tÃ©
Ġye o
Ġbo phelo
ta ts
Ġ8 8
5 7
ĠÏĦÎ±Î¾Î¹Î´Î¹ Ïī
ĠÎ£ Î±ÏĤ
ÏħÎ½ Î¬
do dd
ke m
Ġre c
Ġws p
Ġc Ã¡ch
Ġa ho
ĠÃ ľ
Ġje j
es so
Ġme tsi
Ġh Ã¼
Ġo t
a za
Ġme di
Ġes hte
Ġtj era
p ia
Ġå į
Ġá»į sin
ĠY áº¹
ĠU ser
ĠGig un
ĠC iniki
ĠApo ti
åŃ Ĺ
fun ni
G reen
Ġáº¹ ja
ĠpÃł a
Ġn ene
Ġmáº¹ ho
Ġiá¹£á»į rá»į
Ġibus un
Ġpu j
Ġs v
Ġhá»įn wun
Ġe je
Ġato ká»į
Ġaf á»įwá»į
ĠTa ttoo
ĠKo ca
Ġ8 7
è Ĥ
æ £
à¹ Ħ
Ì£ N
wh ená»į
bá»į de
ĠÃĢ wá»įn
it Ã©s
Ä± k
ju mi
Ġda ca
Ġce a
Ġv Å¡ak
Ġts he
ĠC zy
Ġbi j
rze da
Ġsz ak
Õ¡Õ ²
Õµ Õ¡Õ¶
vv ÉĻl
y b
Ġsu i
Ġb Å«s
Ġpor que
Ã© vel
Ġa insi
Ġca da
Ġzh v
Ġsch on
is in
Y L
Î¶ ÏĮÎ¼Îµ
Î² Î·
Î¸ Ïİ
ĠÎĳ Î»Î»Î¬
ĠÎ¹ÏĥÏĦÎ¿ ÏĥÎµ
Î¬Ïģ Î¹Î±
ĠÎłÎ± Î½Î±
ĠÎĽ Î¬Î²ÎµÏĦÎµ
ĠÎĳÎ¸Î® Î½Î±
ÏĢÎ¬Î½ Ïī
ĠÎ½ Î·
ĠÎ¹ÏĥÏĩ Ïħ
Ġgwa ith
owa dz
Ġi tt
Äĵ tu
de t
Ġve z
Ġ ÈĻ
Ġspo loÄį
di tion
Î¹Ïĥ Î¼Î¿Ïį
ĠÏĥÏħ ÏĩÎ½
ĠÏĥÎ·Î¼ ÎµÎ¯Î¿
Ïĩ Ïħ
Î»Î» ÎµÎ¹
Î±Î¹ Ïĥ
ÏĪÎ· ÏĤ
ÏģÎ¯ ÏīÏĤ
ount ry
ĠÎķÏħÏģÏİ ÏĢÎ·
ĠÎ¼ÏĮ Î»Î¹ÏĤ
ÏģÎ¬ ÏĤ
Ġ9 4
Ïī Î´
ÏĮÏĦÎµ ÏģÎ¿
ĠÎ±Î½Î± Îº
Ġgwe ith
Ġz en
á»ĵ i
ĠÃ©ga lement
cz ÄĻ
la p
Ġnako ng
ĠFe b
ĠÏĦÎµ ÏĩÎ½Î¿
ĠÎ¾ ÎŃÏģ
ĠÎ¾ Î±Î½Î±
g or
ĠÕ Ń
id mÉĻt
tic as
Ġe zt
Äį e
Ġth áº¿
car pe
ti li
Ġi hre
ÅĨÄĵ mu
wan ia
Ã«t ar
es sÃ©g
Ġd ÉĻr
Ġkter Ã½
Ġo larak
Ġda cÄĥ
ĠÎµ Î¼ÏĢÎ¿
ĠÎµ Î»ÎŃ
ith as
Ġp ho
Î³ Î±Î½
ga eth
ad os
ta j
to Äį
Ġques ta
ĠÄ¼ oti
wa Äĩ
Ġva xt
Ġko pan
Ġf er
it te
Ġti t
Ġo ver
Ġimu dara
ĠUS A
ĠD ol
Ġ ā
ber t
T e
Ġw Ã¬
Ġifun ni
Ġho m
Ġgbo oro
ve lo
ti an
ci ble
Ġæ Ī
ĠÅ¡i Å¡e
Ġmu ra
Ġla siko
Ġimu ra
ĠSe arch
ĠP la
ĠO D
ÙĬ ÙĨ
z Ã³Ì£n
tá»į wá»į
ter one
ini bi
ĠT Ã«
Ġá»įlá»į gbá»įn
Ġá»Į dá»į
Ġko ta
Ġk Ã³
ĠÎŁ Î¹ÎºÎ¿
ĠÎĻ Î¿ÏħÎ»
ĠÎµÏĢÎ¹Îº Î¿Î¹Î½ÏīÎ½
ĠÎµÎ½Î´Î¹Î± ÏĨÎŃÏģÎ¿Î½
ÏĦÎµ ÏģÎ·
ĠÎºÏħ ÎºÎ»Î¿
ĠÎ±Î³ ÏİÎ½Î±
de ithas
z uar
s al
Ġg ol
Ä¼ as
Ġme futa
lu lui
Ġme ille
zi dent
ĠT Ã¤
b ir
li wo
Ġvil Ã¡g
eth a
nÃŃ m
den te
Ġz gje
t ÉĻn
Ġc Æ¡
Ġim p
Î»ÎµÎ¹ Î¿
ĠÎºÎ±Î¸Î· Î¼ÎµÏģÎ¹Î½
ÏĥÏĦ Î¿Ïħ
Î»ÎµÏį Î¸Îµ
P a
ĠÎ² ÏģÎµÎ¯ÏĦÎµ
ĠÎ±ÏħÏĦÎ® Î½
ÏģÎ¹ ÏĥÎ·ÏĤ
Ġrha i
b st
l is
ĠV y
Ġfi hle
te ti
vo d
Ġd Ãł
Ġku i
Ġof er
Ġv om
Ã©l Ã©
el lÃ¤
Ġs ku
vÃ¡ bb
Ġpha hameng
ĠK Äģ
Ġc ÉĽn
Ġala dani
Ġa gbáº¹
Ġr áº¥t
si oni
ĠW at
ĠHar ga
ĠC le
ĠAb ra
êŀĮi Ì±
ĠmÃ¬ wláº¹
Ġe ye
Ġawe tá»į
ĠS tory
ĠL á»įwá»į
ĠLá»įwá»į lá»įwá»į
ĠIN U
ĠG BO
ĠAna to
âĢ ĺ
Ãł w
ĠfÉĻ ali
Ġk at
Ġd ont
ta dos
da m
Ġáº¸ láº¹
Ġwoo lo
Ġakan á¹£e
Ġak ori
ĠO o
ĠO LO
ĠKaa di
ri es
le Ìģ
Ġna s
ÏĦÏģÎ¿ ÏĢÎ®
Îº ÏĦÎ¹ÎºÎ®
XwBf AF8A
ĠÏĢÏģÏĮÎ² Î»Î·Î¼Î±
ĠÏĥÎ·Î¼Î±Î½ ÏĦÎ¹ÎºÏĮ
ĠÎ³ÏģÎ®Î³Î¿ ÏģÎ±
ĠÏĨ Î¹Î»
ĠÎľÎ±Ïģ ÏĦÎ¯Î¿Ïħ
ĠH P
ĠA ber
ĠÏĢÏĮ Î»Î·ÏĤ
Ïģ ÏģÎ¿
Î»Î¿ Î¯
ÏģÎ¿ Ïĥ
Î¼Î¿ Î¯
ĠÏĦÎ±Î¾Î¹Î´Î¹ ÏİÏĦÎµÏĤ
ĠÏĢÎ±ÏģÎ± ÏĢÎ¬Î½Ïī
ÏģÎ® ÏĥÎµÎ¹ÏĤ
ĠC AS
Ïģ ÏħÏĥ
ĠÎ±Î½Î± ÏĢ
ĠÎ¯ ÏĥÏīÏĤ
Îľ Îķ
Îľ Îĳ
ĠÎ± ÏģÎ¹Ïĥ
ĠÎ¬Î½Î¸ÏģÏī ÏĢÎ¿Î¹
00 2
0 3
Î¼Î¿ Î½Î®
ĠÏĢÎµÎ»Î¬ ÏĦÎµÏĤ
ĠÎĳ ÏĨ
ĠÎ±ÏĢÎ± ÏģÎ±
Î¯Î½ ÏĦÎµÎ¿
ĠÎ¿Î»Î¿ ÎºÎ»Î·
ÏĨ ÏĮÏģ
ÎŃÏģ Î¹Î±
ĠÎĪ ÏĩÎµÎ¹
ĠÎµÏħ ÎºÎ±Î¹
ĠÎ² Î¹Î¿
Ġs yl
Ġh ona
el s
ck er
a g
Ġáº¹ wáº¹n
Ġse ed
Ġibase pá»į
le m
Ġdaa da
Ġd Ã¡
Å ģ
d ÄĻ
mÉĻ li
for mÄģ
ĠT se
Ġth o
mo k
ĠIta lia
Ġi mmer
Ġj Å«s
âĶ Ģ
ur Äĥ
ĠJ ak
j ar
Ġmol to
ti ra
Ġprodu k
at Å¡e
Ġga go
Ġe fe
Ġd nia
Ġtou tes
Ġbo la
de m
Ġl Ä«
n an
ĠdÉĻ fÉĻ
Î¾ Î¿
Î» ÎŃÏĤ
ĠÏĨÏīÏĦÎ¿Î³ÏģÎ±ÏĨ Î¯ÎµÏĤ
ĠÏĦÎ±Î¾ Î¯Î´Î¹
ĠÎ´ Î¯Î½ÎµÎ¹
ĠÎ® Î¸Îµ
Î´ Ïį
Î² Î®
ĠÎ¼Î¿Î½ Î¬
ÏĦÎ® Î¼Î±ÏĦÎ±
ÎµÏĢ Î¹Ïĥ
ĠÎ¿ ÏĨ
ĠÎ·Î¼ÎŃ ÏģÎ±
h ttp
ĠÏĥ ÏĦÎ®
ĠÎ¿ÏĢÎ¿ Î¯ÎµÏĤ
ĠÎºÏħ ÏģÎ¯ÏīÏĤ
ĠÎº Î»ÎµÎ¹
Î±Î» Î¹Ïĥ
o edd
ĠNa gy
Ġl ona
Ġbr own
Ġatu pa
ĠSys tems
ĠS tan
ĠS T
ĠE st
ãĥŃ ãĤ°
fi le
ell ow
Ġwhen áº¹nu
Ġoni hoho
Ġi ka
Ġdo kita
Ġdevi zá»įnwatá»į
çµ Ĳ
Ġä¼ģæ¥Ń ãĥŃãĤ°
Ġä¼ģæ¥ŃãĥŃãĤ° x
ĠÐ º
Ġw ho
Ġse êŀĮ
Ġalum iniomu
ĠIsra Ã«l
ĠIns titu
ÅŁe hir
tif ul
L á»Į
Ġï¿½ï¿½ï¿½ï¿½ï¿½ï¿½ï¿½ï¿½ï¿½ï¿½ï¿½ï¿½ ï¿½
Ġu k
Ġtá»į ká»įtaya
Ġti me
Ġse al
Ġp li
Ġnuj á»įnu
Ġlo kan
Ġlat á»įna
Ġh inga
Ġfor uká»įsiláº¹
Ġaya jáº¹
ĠWi kipedia
ĠO la
ĠB log
ĠA ká»įsiláº¹
Ġ6 00
gi c
FA FUN
Ġod Ã²
Ã¡b bi
Ġol la
Ġle e
Ġid ari
Äģ cijas
Ġeji ka
ĠL ong
ĠBer ry
Ġ á»įn
Ġbe har
es sion
Ġune i
Ġre cher
li t
Ġ ÖĦ
Ġhaqq Ä±nda
à¸¥ à¹ĩà¸Ńà¸ķ
sh a
Ġes tu
on do
AB A
Ġcolle ction
Ġak osile
Ã ĩ
ĠÃ £
Æ°á»Ł ng
ĠSt reet
ĠO B
Ġ6 1
Ġ/ )
z in
Ġya to
endan t
os sz
Ġnin á»įmáº¹
ĠM bi
p ment
oni cs
lo gbo
iel d
Ġá»Į gbáº¹
ch Ã©
Ġo ba
Ġk ori
ĠS c
ĠKun nudetá»į
ĠKon ya
ri ght
m áº¹n
g he
co t
b on
b ani
Ġwu yi
Ġe bun
ĠY u
ĠS we
ĠPri ce
ĠOlu mulo
ĠI BC
à ·
wo ÌĢ
Ïģ ÏīÏĤ
8 9
bil ir
ĠÏĥÏİ Î¼Î±
ĠÎ´Ïį Î½Î±
ĠÎ±ÏĢÎ¿ÏĦÎµÎ»ÎŃ ÏĥÎ¼Î±ÏĦÎ±
Ġ× Ķ
ĠÎĮ ÏĢÏīÏĤ
ĠÎĪ ÏĩÎµÏĦÎµ
ĠÎ±ÏħÏĦÏĮ Î½
Î³ ÎµÏĦÎ±Î¹
w g
lu sa
fa ani
e p
T o
M á»Į
Ġta a
Ġphi yá»į
Ġigba gbo
Ġge t
Ġere kusu
ĠPD F
ĠO á¹£iá¹£áº¹
ĠO tÃ³Ì£
ĠI na
ĠGra tuit
ĠFe der
ĠC al
ÅĨ i
ww w
m iran
la aye
ig a
ci ng
Ġoy ÃŃn
Ġmul ti
Ġf ÉĶ
Ġamo ye
ĠS eries
ĠRo ya
ĠNÃŃ torÃŃ
ĠDo kita
ĠAlum iniomu
à¸ Łà¸£à¸µ
ÄŁ lu
zá»įn yi
b ar
?? ??
Ġle ti
Ġiwa ká»į
Ġijin le
Ġet láº¹
Ġda ba
Ġd Ã¬
Ġpo tre
Ġal Ã¡
Ġpr iekÅ¡
wie t
Ġsh ko
ise belisoa
pa li
Ġmo ngwe
tso ho
si Ã³n
Ġpra cy
Ġam ely
k iem
ĠNa ch
k ki
Ġth usa
Ġm is
Ġthá» Ŀi
Ġr ru
ĠF emei
ĠMatrimon iale
Ġa cum
Ġno v
ant Å¡o
ba keng
Ġpra c
Ġqu al
ĠTI T
ĠPir ater
ĠBi i
si ve
cha in
Ġy ono
Ġnu hudo
Ġbi báº¹
ĠPa ge
rea k
ká»į ja
Ġç Ķ
ĠÃ¬f ilá»į
Ġn ungoqi
Ġe fa
Ġam Ã»
ĠT am
ĠL um
ĠC at
0 6
Ġá»į páº¹
ĠØ ª
Ġolu tá»į
Ġng bÃ¢
Ġi dena
Ġcru cible
Ġaye wo
ĠR A
ĠA L
å Ł
ãģĻ ãĤĭ
de máº¹
ari an
S how
Ġz Ã³Ì£n
Ġo tÃ³Ì£
Ġo gbo
Ġayi ha
ĠO ne
ĠK ÃŃ
ĠIgba keji
ĠI run
ĠA g
os in
ĠÎł ÏģÏī
ĠÎµÎ½Îµ ÏģÎ³
ĠÎ¼ÎŃ ÏģÎµÏĤ
Ġsi g
Ġun ig
si ÄĻ
Ġà² ķ
ĠÅĦ lÃ¡
Ġti tan
Ġsi táº¹ri
Ġolo lu
Ġiduro á¹£iná¹£in
Ġalu fa
à² Ĥ
Ã± an
c in
ath er
Ġáº¹ dun
ĠØ§ÙĦ ÙĦÙĩ
Ġw it
Ġran di
Ġfa daka
Ġdo ju
ĠS ky
ĠRo ad
ĠI R
ĠAu to
ĠA mo
à¸± à¸Ļ
Ñ Ī
Ðº Ð°
« ĺ
p osi
is hi
Ġnibi kibi
ke en
Ġmi cro
Ġg re
Ġab inibi
es to
ĠO MO
ĠK er
ĠDaju daju
åĲ Į
à¹ Ĥ
Ðµ ÑĢ
e bun
b á»įn
Õ¡Õ½ Õ¿
Ġx ÉĻ
F or
ĠÃł ti
Ġsp rÃ¡
Ġara sÄ±nda
scha ft
ch ni
le lÅĳ
Ġc ili
Ġbr Ä«
Ã ı
Ġth Ã´ng
Ã©s i
ĠD z
ĠÕ° Õ¡Õ´
sÄ±n Ä±
Ġk os
Ġchi ar
be lo
Ġi gaz
do b
ĠMa is
ĠÎµÏĢÎ¹ Î»Î¿Î³Î®
ĠÎµÏĢÎ¹ Î¸Ïħ
ĠÎ³Ïį ÏģÏī
Ġtr ue
ĠÎ³ ÎµÏį
Î¼Î· ÏĤ
Îº ÏĦÎ®
ĠÏĦÎ¿Ïħ Î»Î¬ÏĩÎ¹ÏĥÏĦÎ¿Î½
ĠÎ¹Î´Î¹Î±Î¯ ÏĦÎµÏģÎ±
ĠÏĢÏģÎ±Î³Î¼Î± ÏĦÎ¹ÎºÎ¬
ĠÎĿÎŃ Î±
ĠÎµ ÏĥÏīÏĦÎµÏģ
ĠÎ¡ Ïī
ÎºÎ¿ Î¯Î½
b m
ĠÎļÎ¿Î½ ÏĦÎ¹Î½Î¬
ĠÎ²Î¿ Î®
Ġc ys
j ours
ku t
to tta
ĠG es
Ġpiem Äĵ
Ġc au
Ġm Ã¶
Ġnie t
lan do
Ġl uf
iem bre
k ir
va la
Ġc v
bil itÃ©
Ġpos si
Ġv re
ng wa
Ġha b
ĠÎ±Î½ÏĦÎ¹Î¼Îµ ÏĦÏī
ĠS P
ĠR h
ĠtÉĻ lÉĻ
Å¡ as
ĠÅ ģ
ĠÅ¡ ko
Î´ Î¿ÏħÏĤ
5 9
ĠÏĥÎºÎ¿ ÏĢÏĮ
ĠÎ±ÏģÏĩ Î®
00 20
ĠÎ´ ÎµÎ¹
ĠÎ±ÏĢ ÎµÏħ
ÏģÎµ ÏĦÎ±Î¹
ĠÎŃ Î¾Ïī
ĠÎ´ÏīÎ¼Î¬ ÏĦÎ¹Î¿
ÏĦÏħ ÏĢÎ¿
ÏĥÏĦ ÏģÎ±
4 1
ĠCo re
ĠÏĢÎ±Î¹ Î´Î¯
ĠÏĢÎµ ÏģÎ¬
w ya
p f
ir en
Ġm em
ĠwiÄĻ cej
Ġpa si
ĠkÃ¶ vet
áº¡ nh
Ġgi bt
Ġch er
Ġvla st
Ġbu a
Ġper soane
ja t
ul t
za cji
tha ta
Ġcon tre
Ġpo mo
bil itÃł
bi er
Ġh Ã¬nh
ÅŁ i
Ġun de
ana ng
ĠDe uts
cz nej
Ġtiem po
Ġun i
k Ã¼l
ĠT iran
Ġd h
o lo
Ġdi ese
k ko
Ġik ke
ĠiespÄĵ ja
Ġdi lo
el lo
Ġa ques
Ġmon de
si t
ke zÅĳ
czy Äĩ
t ÃŃ
Ġsta to
Ġha be
g el
Ġm Äĥ
ĠveÄ¾ mi
p pu
ĠÃ§ do
Ġtsh wan
Ġtr Æ°á»Ŀng
st Ä«
Ġc ie
Ġch ar
Ö ĩ
yy ÉĻ
ĠÎ¥ÏĢ Î¬Ïģ
Ġser vice
Ġe cs
Î¸ Î¿Ïħ
Ġ× Ĳ
ĠÏī ÏģÎ±
ĠÏħÏĢÎ¿ Ïĩ
ÏĢ ÏģÎ±
ÏĥÎ¿ ÏĤ
× ĳ
4 3
ĠÏĦ ÏģÎ¹
ĠÏĥÏħÎ¼Î¼Îµ ÏĦÎ¿
Ġdo d
Å¯ m
isi Ã³n
Ġm ari
ze tÅĳ
Ġu it
cz na
am ent
h er
ze a
ra i
kan a
Ġma in
yr Ã«
Ġn Ã¡s
ÄĻ ki
Ġk ar
yan Ä±n
ĠÃ®nt r
ĠtÃ¶rt Ã©n
le tseng
Ġemp res
Ġsem pre
Ġser vi
Ġx e
ĠZe it
Å¾ it
ĠÏĥÏĩÎµ Î´ÏĮÎ½
ÏĩÎ½ ÎµÎ¹
Î³ ÎºÎ¿
ĠÎµ Î¬Î½
ĠÎ¤ Î¶
ÏĢÎµ Î¶
ĠÎ¼ÎµÎ³Î±Î»ÏįÏĦÎµ ÏģÎ¿
Î³ Î¿Ïį
ta f
Ġn tho
i O
Ġzna j
ĠÃ ¤
Õ¥ Öģ
ÅŁa q
l ti
p Ã©
Ġmun ka
ov Ã©
ĠM eg
Ġle hetÅĳ
za ciÃ³n
Ġsul la
Ġhae ba
Ġtou te
ĠÃ§ ÉĻk
on ych
Å£ e
ce a
Äį ia
Ġac este
ara e
ti min
Ġc ent
ĠE m
Ġfapan eng
Ġthá» ±c
ĠW as
gu i
k k
ĠkÃ¶z Ã¶tt
ĠÄ° l
ĠÎłÏģÎ¿ Î²Î¿Î»Î®
ĠÎĶ Î®
ĠÎ´ Î¯Îº
ÏĢ ÎŃÏĤ
4 9
ĠÎ¼ÏĢÏģÎ¿ ÏĥÏĦÎ¬
ÏĢÎ± Ïģ
ni ad
Ġpe ti
Õ´ Õ¡Õ¶
larÄ±n a
Ġd ÃŃa
Ġj Å«
Ġ: )
Ġdzie ci
Ġal kal
Ġf am
ĠÎ±ÎºÏģÎ¹Î² ÏİÏĤ
Ð ±
th yl
ĠÏĦÎ¯ ÏĦ
ĠÏĢÏģÎ¿ÏĬÏĮÎ½ ÏĦÎ±
ĠÎ¼ÎŃ ÏĦÏģÎ±
ĠÎ´Î¹Î¬ ÏĨÎ¿
Y S
ĠÏĢÎ±ÏģÎ¿Ïħ ÏĥÎ¯Î±
Ïĩ Î¸ÎµÎ¯
ĠÎµÏĢÎ¯ ÏĢÎµÎ´Î¿
ĠY s
kÅĤa d
Ġ ÅĻ
ÏĨ ÏģÎ±
ĠÏĢÏģÎ¿ ÏĥÎµ
ÏĪ ÏĦÎµ
ÏĥÏĦÎ¹Î±ÏĦÏĮ ÏģÎ¹Î¿
ĠÎļ Î¿Ïħ
ĠÎ½ÎŃ ÎµÏĤ
ĠÎ¤ Îĳ
Ïį Ïĩ
Î´ Î¿Î½
yd ym
ti d
ĠÏĢÎ¿ ÏĥÎ¿
ĠÎĻ Ïĥ
ĠÏĦÎ± ÏħÏĦÏĮ
ÏĦÎ· ÏĥÎ·ÏĤ
ĠÎºÎ± Î½Î¿Î½
ĠÎ±Î¾Î¹Î¿Î¸ÎŃ Î±ÏĦÎ±
ĠÎ¤ ÎĹÎ£
Ġdr wy
Ġn es
p Ã¤
na p
Ġnu o
Ġb onolo
âĶĢ âĶĢ
ÅŁ ti
Ġz ile
ĠP od
Ġva zh
ĠÕ ¹
Ġe v
Î¼ÎŃÎ½ Î¿ÏħÏĤ
Ġa mser
Ġe do
Ġh elye
p pe
Ġku wa
Ġli ta
Ġbo k
Ġcom men
z d
ta le
á» Ĺ
wa Å¼
n t
lÉĻn dir
eli jk
kov Ã¡
va teÄ¾
Ġma ng
mas sa
Ġq enÃ«
ca ciÃ³n
ĠÎŁ Ïħ
Î²Î± ÏĦÎ¿
Î¬ Ïĥ
o dol
ĠB Äĥrba
Ġo ameni
for m
Ġs tÄģ
Ġl oro
yan a
ti mi
ĠD ans
ĠÕ Ŀ
Õ Ń
Ġda v
ĠBu dap
Ġb esz
Ġpros titutas
tam os
Ġp it
ÅĤu g
ĠÎµÏĢ Îµ
Î² Î¯
ĠÏħÏĢÎ¿ Î»Î¿Î³Î¹Ïĥ
ĠY m
isa ng
ista s
t Ä±
z enÃŃ
Ġke mi
ri er
p se
Ġle urs
Ġpre to
Ġku sh
Ġmol t
ÏĥÎ± ÏĦÎµ
r yd
Ġu d
it ar
ĠL ie
tla kase
ol Ã³
je ve
Ġthá» ©
Ġwh Ã©
Ġn ari
Ġaa ya
ĠI á¹£a
ĠI yipada
ĠE ÌĢ
da k
Ġm ir
Ġle i
Ġp Äĥ
ĠHae ba
Ġ; +
ãĥ ³
ra Ìģn
A Åŀ
Ġå Ń
Ġy em
Ġta êŀĮa
Ġmba ge
ĠaÌĢ woÌĢ
ĠaÌĢwoÌĢ raÌģn
Ġa káº¹ká»į
Ġl igne
Ġa koso
c ono
ĠP ink
ĠHome T
ĠE N
ĠBa kannaa
od es
na m
Ġwi wá»įn
Ġpipa danu
Ġpe te
Ġp Ã¨
be i
Ġj Ã¤l
ĠÃ¡l l
dz e
ĠkÃ« to
Ġbu en
ĠU m
Ġpu bli
ts wa
ĠÏĨÏħÏĥ Î¹ÎºÎ¬
ĠÏĥÏħÎ¼Î² Î±
ĠÎ¹ Î´Î±Î½
ĠÏħ Î³Îµ
ĠÏĢÏģÎ¿ ÎºÎµÎ¹
ĠÎ´Î¹Î¬ ÏĥÏĦÎ·Î¼Î±
etho l
z es
lar dan
st vÃŃ
n on
cho d
tiv os
j esh
Ġpa t
ĠI hre
Ġtu tto
Ãº l
Ġt our
w ni
k lad
Ġiru fáº¹
Ġima ge
Ġiba á¹£epá»į
Ġf Ã³Ì£n
Ġapa ta
ĠW omen
ĠPe ople
ĠI yara
ĠH ua
ĠD ou
ĠC N
ĠAÌĢ ká»į
ĠAÌĢká»į leÌģ
éĥ ¨
å¸ Ĥ
à¹Ī à¸Ļ
C A
Ġsi báº¹
Ġpe ko
Ġla san
Ġigba la
ĠSu b
ĠI tu
ver y
ung u
oo gi
ĠÕ ¨
Ġd Ã¼nya
Ġogb Ã¨
Ġagb ari
Ġun o
Ġqe ver
ĠT E
ĠOLU WA
ĠJe lusa
ĠJelusa láº¹m
ĠIran lá»įwá»į
ĠDu du
b rÄ«
20 13
ĠÎ¬Î»Î» Î¿ÏħÏĤ
ĠÎŃ ÏģÎ³Î¿
ĠÎ¿ Î´Î·
ĠÎ² Î¿Ïħ
S i
ĠÏĥÏħÎ¼ÏĨ ÏīÎ½
Ġcyn nwys
ĠB O
ko ooo
ces sing
Ġáº¹ guá»įná»į
Ġwa wa
Ġle a
Ġiá¹£a wari
Ġatun se
ĠMe di
tÅĳ l
Ġh Ã¤n
ĠLea gue
ĠB est
Ã© Ã¨rÃ¨
Ġo ok
s to
Ġd Ã«sh
rin e
jer he
Ġspra y
Ġonis owo
Ġn ina
ĠOmo de
ĠIsland s
Ġ. [
Ġ ãĤ
å ŃĲ
âĢ İ
yri cs
as y
Ġver sion
Ġif ilá»įláº¹
Ġara binrin
ĠGBO GBO
ç ¾
æ ĭ
o ko
an isi
Ġáº¹ dá»į
Ġy áº¹ráº¹
Ġmili á»įnu
Ġb rand
Ġ7 3
æľ º
æ ²
istan ce
ind onuká»įn
Ġî ĻŁ
Ġå ľ
Ġáº¹ bá»į
Ġo sun
Ġndu k
Ġkan lin
Ġk ariaye
Ġit ara
Ġch ia
ĠSta tes
Ã¼ s
ĠSer vice
ĠK ua
ĠE ast
ĠAu dio
ja w
ge de
eri ko
c tive
Ġyáº¹ whená»į
Ġis ise
Ġi tun
Ġfa ye
Ġde ji
Ġaw in
Ġapamá»į wá»į
Ġa ku
ĠWa la
ĠW á»ĮN
ĠIda gbasoke
ĠGb á»įn
åľ °
ÉĶ gÉĶ
ĠÐ ¾
Ġolo rin
Ġob oráº¹
Ġbo á¹£e
Ġanti gua
ĠO F
ĠMo tor
Ġ3 F
zi ng
nu ká»įn
la na
Ġmáº¹ já»į
Ġifi leláº¹
Ġb 4
ĠY HT
ĠS in
ĠS H
ĠOlu ko
ĠO orun
ĠB lo
pi c
ÏĦÎ± Î¾Î·
or th
s pe
ok Ã¹
er ba
curren cy
T T
ĠØ ¥
Ġt Ã¢
ĠnÃ¡ Ãł
re k
Ġpri m
ĠP Äĵ
ĠÎł Î±Î¹
ĠÎķ Î¸Î½
ho edd
Ġm ost
c Ã«
gy an
Ġv ys
d t
con tre
Ġs al
ĠÄĳ iá»ģu
ĠÏħÏĢÏĮ Î»Î¿Î¹
Ïī Î¸ÎµÎ¯
ÏĦÎµ ÏĩÎ½
Î»Î± Îº
Î¹Îº Î±
ĠÎŁ Î´Î·Î³
ÏĦÎ¹Ïĥ Î¼ÏĮ
oun ty
ÏĦÎ¹Ïĥ Î¼Î¿Ïį
Î»Î»Î· Î»Î±
Y D
ĠÏĩÏģÎµÎ¹ Î¬Î¶ÎµÏĦÎ±Î¹
c f
ĠÎķ ÎĿ
L e
ĠÏĮ Î¼Î¿Ïģ
ĠÎµÎ¼ÏĢÎµÎ¹ ÏģÎ¯Î±
ĠÎ¬ ÏĦÎ¿Î¼Î±
ÏĦÏħ ÏĢÏī
Î» Î»Î¿Î½
ĠÏĢÎ± Î¯Îº
ĠÎĻÎ±Î½ Î¿Ïħ
Ġ7 9
Î¬Î½ ÏĦÎ±
ĠÎºÎ±ÏĦÎ± ÏĩÏİ
ĠÎ´ Î±
Ġf yn
ta ge
ro re
ri i
Õ¡Õ ¦
mÉĻ yÉĻ
ouve z
Ġim por
Ġbizt os
h to
Ġu cz
ch an
ju ma
l wa
Îľ ÎĳÎ¤
ÏĨ ÎŃÏĤ
ÏģÎ¹Ïĥ Î¼Î±
ÏģÎ¹Î± ÎºÎ®
Î¼ Î¹Î±
ĠÏĥÎ·Î¼ ÎµÎ¹
Ïĩ Î¿ÏħÏĤ
ÏĦÎ¹Îº ÎŃ
w el
Ġs lov
tel len
ie dy
Ġinki ÅŁaf
d Ã¡s
Ã Ĥ
ĠÂ ´
á»ķ i
liz ar
Ġc at
p te
Ġm Å¯Å¾e
es sÃ¤
ÅĦ ski
Äį nÃ½
Ġq ÉĻb
ad Ä«
mm t
ll Ã«
Ġdiff Ã©r
Ġpu bb
g ÅĤ
Ġq an
Ġdo l
Ġse va
Î¼ÏĢ Î¹Î±
Î¸ÎŃ ÏĥÎµÎ¹ÏĤ
Î¶ Ïī
ys gol
Ġda lam
Ġs el
v om
Ġur ma
Ġas ÃŃ
tÄģ js
Ġtr ze
Ġtloa ele
Ġg ona
Ġmo hla
ĠÎ±ÏħÏĦÎ¿Ïį ÏĤ
Ġbo bl
en ye
ĠC as
Ġa Ã±o
Ġsi a
Ġja lo
Ġtso a
Ġle ha
ĠW er
Ġc Ã¢
Ġk ont
iá» ħn
n ye
Ġoh ne
Ġvi da
il s
Ġd l
r Ã¤
qi q
Ġkap cso
rÄģ dÄģ
Ġsebe tsa
Ġrre th
Î¼ÎŃÎ½Î· ÏĤ
Î» Î±Î¹
w b
Ġso it
Ġp lan
ku d
Ġgi o
á½ ¶
ĠÏĨ ÎŃ
ĠÏĦÎ¿ÏĢ Î¹ÎºÎ®
ĠÎŃ ÏģÎµ
ĠW EB
ÏĮÎ½ Î¹
ÏģÎ¯Î¶ ÎµÏĦÎ±Î¹
Î½Î¿Ïį ÏĤ
n ol
Ġwy k
Ġes to
Ã¡ Å¡
ĠÃ§ ok
ĠÂ ¼
ĠÃ Ķ
bele tso
Ġsz olgÃ¡l
ke ta
tt ura
mi te
ta g
ĠvÃ½ ro
Ä«g s
áº¡ ng
t ka
be ng
Ġse pse
fa q
Ġv iel
Å¾ u
Ġe qui
Ġdo b
Ġku wari
Ġiá¹£ aro
Ġiy okÃ¹
Ġako pá»į
ĠS O
ĠPi pa
ĠLá»į gan
ĠB aa
d is
S E
Ġji já»į
Ġiye biye
Ġb lack
ĠW al
ĠG bá»į
ĠCom m
ĠAmeri can
ĠAla ga
çķª åı·
j Ã²
ĠÃ ļ
ĠÏĢ Î·Î³
wa ith
Ġma yor
cz ki
or szÃ¡g
Ġya ÅŁa
Ïĥ Ïĥ
Î¸ Î¿ÏįÎ¼Îµ
ĠÏĢÎ¹Ïĥ ÏĦÎµÏį
ĠN gh
Ġof f
w d
eg ru
Ġ ÈĽ
ur Ã³
Ġse u
Ã¤ hr
Äģ dÄ«
Ġna wet
ĠÎ¸ÎŃ Î»ÎµÎ¹
Ġm wyn
te an
ĠD on
Ġs enza
Ġil let
c one
Ġmo ka
ili cone
ha ba
Ã¼ ksÃ©g
Ġby ÅĤ
Ġmais on
j tÃ«
Õ¡Õµ Õ«Õ¶
Ġo x
ĠÎ²Î¿Î·Î¸Î® ÏĥÎµÎ¹
ĠÏĮ ÏĥÎ±
ĠÏĢÏģÏī ÏĦÎ±
Ġ á½
ĠÎ¼ Î¬Î»Î¹ÏĥÏĦÎ±
ĠÎ»ÎµÎ¹ÏĦÎ¿ÏħÏģÎ³ Î¯Î±
Î½ ÎŃ
ese arch
ĠÎµÎ¯ ÏĥÎ±Î¹
Î»Î» Î®
ĠÎº Î¹Î½
Î³ Î½Ïİ
ĠÎ¼Î± Î¸Î·
Î½ ÏĦ
ĠÎµÎ¾ Ïħ
Î½ ÏİÎ½
Î¶ Î¿Î½ÏĦÎ±Î¹
c d
ĠÎłÎ± ÏģÎ¬
ĠÎµÎ½Î·Î¼ÎŃ ÏģÏīÏĥÎ·
Ġgal lu
ma z
c ription
ou pe
de ÌĢ
Ġf at
le Äį
ĠÂ ±
á»ĵ ng
ar ro
alá»į yi
Ġáº¹ yáº¹
ty s
t our
p rze
Ġvi Ãªn
Ġper Ã²
ri j
Ġy ÉĽn
Ġr ar
Ġp hoto
Ġowh Ã©
Ġmáº¹ fa
Ġs ve
Ġkáº¹ alá»įyi
ĠOni bara
ĠI GBA
ĠG ame
ĠADI FAFUN
Ġ200 1
ç Ĥ
æī ĭ
å½ ©
mon d
hi áº¹n
gb Ã¨Ì£
ck chain
Ġwa ya
Ġngwa Ã±aêŀĮan
Ġi káº¹hin
Ġgi lasi
Ġewe ko
Ġat Ã²Ì£n
Ġa bi
ts ing
Ø ¬
Õ« Öģ
ĠtÉĻ q
Ġperson as
Ġj os
run d
ĠK jo
nÃŃ ho
Ġszcz eg
per a
lÄ± ÅŁ
dÄģ vÄģ
ĠW I
ĠC A
ï½ ģ
áº¹ ká»į
yi i
ya a
nu pá»įn
ar k
Ġà¸ £
Ġr oro
Ġf lin
Ġasá»į ye
ĠUk ra
ĠSer ver
ĠRi i
ĠO N
ĠO E
ĠHomeT URKE
ĠE gbe
ĠBá»į á»įlu
in os
for nia
Ġrá»į á»įrun
Ġita lolobo
Ġip ara
Ġf aa
Ġbu ebun
ĠSci ence
ĠPu pá»į
ĠKoca eli
ow osi
or á»į
ba je
anisi á¹£áº¹
V D
Ġba kanna
Ġai máº¹
Ġah on
ĠWi wa
ĠKan na
ĠInstitu te
ĠD en
Ġ/ .
çµĲ æŀľ
åĪ Ĩ
å Ģ
âĢİ âĢİ
à¸´ à¸Ļ
ÑĢ Ð°
ja gun
Ġd Ã©s
gba ga
Ġá»į ga
ad y
Ġfo ko
Ġwháº¹ ho
Ġle yin
Ġqu ali
Ġala á¹£áº¹
Ġak ero
Ġagbe yewo
ĆĈą ć
èĥ ½
ãĤĴè¦ĭ ãĤĭ
ng er
c ome
Ġz indonuká»įn
Ġpe ople
Ġo ya
Ġi gbaradi
Ġbáº¹áº¹ ni
ĠOá¹£u wá»įn
ĠK en
ĠA já»į
o la
o f
ER I
Ġsa ba
Ġk Ãµ
Ġkan ssa
iá»ĥ u
Ġku êŀĮni
Ġiyá»į á»įda
Ġi OS
Ġgaa si
en iem
Ġpla ce
Ġj Ã¡r
ĠNov ember
ĠL ara
ĠF ri
ta tuu
o ma
ke ting
al s
ĠÐ ¸
Ġsáº¹ yin
Ġh esa
Ġli ho
Ġida keji
ĠE G
ĠAf ara
ĠAca i
ĠA kin
á»įn vwá»įn
ká»į we
de on
Ġy lá»į
Ġsi mbe
Ġr on
Ġoá¹£u pa
Ġnigba kugba
Ġmidroll AD
Ġgbe de
es it
Ġeran ko
ĠÄı al
Ġau to
Ġdi do
ĠTi mo
ĠSpe ed
ĠK AN
ĠE kiti
æ¤ľç´¢ çµĲæŀľ
à¤ °
¢ ă
Ġà² ª
Ġy iri
Ġu ko
Ġmáº¹de pope
Ġho gbe
Ġda pá»į
Ġboá¹£e wa
Ġakojá»į pá»į
ĠY in
ĠK iráº¹diti
ĠJapan ese
do d
ĠIká»į ja
ĠF A
ĠB oo
ĠAwu já»į
Ġ( '
à¹ Į
om an
le mu
k Ãºn
Ġar ri
e bo
ar z
Ġle k
gi lee
fi cation
ari ng
al ly
U T
TI ON
Ġæ ĸ
Ġãģ® æ¤ľç´¢çµĲæŀľ
Ġãģ®æ¤ľç´¢çµĲæŀľ ãĤĴè¦ĭãĤĭ
Ġon iro
Ġiá¹£e dede
Ġiá¹£a fihan
Ġdi d
Ġad Ãł
Ġa ru
ĠUl tra
ĠT en
ĠI won
ĠA cc
çĲ Ĩ
Ð ¿
v win
p la
or ts
J O
Ġw uni
ĠÃ© l
Ġto din
ĠseêŀĮ en
Ġari wa
lÉĻÅŁ dir
ĠS wit
ĠO RI
ĠI bus
ĠAda m
ara y
OR U
ĠâĢ ²
Ġá»Įmá»į de
Ġà¤ ¹
Ġo gbin
Ġak pá»į
ĠNipa sáº¹
ĠC ro
ĠAz erba
ĠAs so
po li
ng b
Ġjs me
a la
jaw iri
enu e
ber g
Ġà¸ §
Ġà² ¹
ĠÐ ´
Ġy un
Ġngba nga
Ġb re
Ġabu le
ĠF ur
ĠD C
ĠCali fornia
Ć ï¼Į
ti me
b Ã¹
Ġ ÅĻe
Ġpra w
ig e
ĠD Ã¶vlÉĻt
ĠÎļ ÎĳÎ¤
R e
ĠÎ±ÏĢÏĮÏĨÎ± ÏĥÎ·
Î¼Îµ Î¯Î±
ĠÎŃ ÏĨ
ÏĥÎ¹ ÎµÏį
ĠÎµ ÏĦÏİÎ½
ĠÎ´Î¹Î± ÏĦÎ·
ÏĦÎ¬ ÏĥÎµÎ¹ÏĤ
0 8
ĠÎºÎ±ÏĦÎ·Î³Î¿ ÏģÎ¯Î±
Ġa ff
ĠÏĦ Î¼Î®
ĠÎĺÎµ ÏĥÏĥÎ±
ĠÎµ ÏģÏİ
Î¼Î¿ ÎºÏģÎ±
Î¯ ÎºÎ±
b f
ĠÎ¥ ÏĢÎ¿
ĠG or
ÉĻs s
s ti
ar ie
on in
pa t
Ġba ka
Ġnuy á»įnáº¹n
Ġm m
Ġkaa bo
Ġirin na
Ġdar uká»į
Ġa Å¡áº¹
ĠWa gga
ĠSep tember
ĠG ege
ĠB ridge
Ġ äº
åħ ¬
ĠÅĭ a
Ġvu áº¹
Ġr oulette
Ġny ara
Ġji êŀĮiÌ±
Ġiá¹£ ura
Ġitu mo
Ġfif iraná¹£áº¹
ĠMar ia
ĠIS O
ĠI pese
ĠHe alth
ĠH y
ĠCent ral
ĠÎ±Î½ Î®
na l
ç ®
à µ
à ¨
ng Ã¡n
fáº¹ láº¹
L áº¸
Ġâ Ĺ
Ġáº¹ ga
Ġyi yá»į
Ġye de
Ġo wu
Ġn á¹£iá¹£e
Ġmá»įn ká»įtá»įn
Ġida gba
ĠV ir
ĠMich a
ĠLa báº¹
ĠJerusa lemu
ĠJ or
ĠI lÃ©
ĠBratisla va
k Ã½ch
ĠÅĽ ro
ĠG PS
ĠD ri
Ð ¹
shi p
p Ã²
ÉĻr ÉĻk
Ġc áº¥p
ĠFe te
Ġd re
l Ã©s
Ġk arolo
Ġus ta
ill s
di le
Ļ ä¸ª
Ġá»įrá»į Ã¬wÃ²ye
Ġz un
Ġs pa
ĠÎĵ Î±
f al
Ġkon aa
Ġg ener
Ġdopo dopo
Ġan faani
Ġa gbá»įn
ĠTi me
ĠMe ji
ĠÎµÎºÏĢ Î±Î¹Î´ÎµÏħ
ĠÎµÎºÎ±ÏĦÎ¿ Î¼Î¼
ĠÎ¬Î»Î» ÏīÎ½
Ïħ Îº
ÎŃÎ² Î±Î¹Î±
ĠÏĦÎµÎ» Î¹ÎºÎ¬
ĠÎ·Î¼ÎŃ ÏģÎµÏĤ
ĠÎ±ÏģÎ¹Î¸ Î¼ÏĮ
ĠÎ¤Î¿ ÏĢ
ÏĨ Î¹Î±
ÏĢÎ¿Ïħ Î»Î¿ÏĤ
bly gu
ĠKi i
ĠC ol
ĠAká»į ká»į
ĠAW O
ï½ İ
rij land
Ġpa ckage
Ġg Ã¡n
Ġco de
Ġala má»į
ĠUR L
ĠT L
ĠPa k
ĠH an
ĠB E
ãĤ ¤
p iláº¹
ko to
est os
Ġyi zan
ĠtÃ³ kÃłn
Ġsitáº¹ri á»įdu
Ġnuyi wa
Ġma c
Ġm ani
Ġiso pá»į
Ġidi bajáº¹
Ġhom onu
Ġfara han
ĠV rijland
ĠV ol
ĠTo ngaso
ĠPD P
ĠF l
ĠB al
V A
Ġå Ĳ
Ġy eri
Ġlo jo
Ġke t
Ġch á»įn
Ġbeg hi
Ġb inu
ĠW hat
ĠTi m
ĠRegi on
ĠO se
ĠI so
à¤ ¨
Åĭ a
tra ct
ma i
ber u
ĩ à¸´à¸Ļ
Ġylan do
Ġre views
Ġm s
Ġ( "
st ÄĻp
Ġg Ã¯
ĠO GUN
ĠMáº¹ he
ĠIp ari
ĠI já»įba
ĠAng el
à¹Ģà¸ ĩà¸´à¸Ļ
ÉĽ li
osi waju
eg as
di won
bil ity
Ġto ngaso
Ġnitori pe
Ġiláº¹ kun
Ġg lá»į
Ġegb oogi
ĠProdu ction
ĠNigba gbogbo
ĠAa go
Ġ. *
nh o
Ġáº¹ mÃŃ
Ġph ia
Ġp c
Ġiá¹£ ini
ĠE f
ĠCh ild
ĠCh am
yá»įn áº¹n
r on
de tá»įn
Ĭ Ĥ
Ġá»į ta
Ġá¹£áº¹ á¹£áº¹
Ġà² ¸
Ġt Ãº
Ġla ngo
Ġi os
Ġh Ãº
Ġgbe kaláº¹
Ġda gbasoke
ĠV a
ĠM c
ĠL or
ĠKua la
ĠAn na
æ ı
zá»įnyi zá»įn
ta min
sch er
di es
Ġáº¹ gba
Ġá¹£iá¹£áº¹ da
Ġt Ã±an
Ġmu sic
Ġkaka jáº¹
Ġimu kuro
Ġegbe he
Ġad ie
Ġa ge
ĠMa x
ĠI yá»į
ĠI bara
ce k
ĠE d
ĠAra bia
ĠA ja
é ħ
ÌĢ n
Ġb Ã½
ĠÎºÎµ ÏĨ
ĠÎ´Î¿ÏħÎ»ÎµÎ¹ Î¬
ĠÎ´Î·Î¼Î¿ ÏĥÎ¯ÎµÏħ
Î¡ÎĻ Î£
ys gu
Ġk de
sz Äħ
ten er
li puri
r Äĥ
Ã¼ gy
Ġl ig
ĠÎµ Î¸Î½
ĠÎ¤ ÎĹÎĿ
ĠÏĢÎ¿Î»Î¹ ÏĦÎ¹ÎºÎ®
Î¼Îµ ÏģÎ¹Îº
Î¯Îº ÎµÏĤ
Î® ÏĥÎµÏĦÎµ
Q u
Ġyd ych
Ġsvo j
Ġi ki
z ko
is tra
Ġvi i
ku tlo
h erÃ«
Ġf ru
Î³ Î¹Î¿
ĠÎµÏĦÎ±Î¹ ÏģÎµÎ¯Î±
ĠÎ³ Î»Ïħ
ĠÎ±Î½Î¸ÏģÏİ ÏĢÎ¿ÏħÏĤ
ĠF f
vi er
Ġna le
ĠDom ni
Ġe uro
Ġi thu
uy á»ĩn
ĠDo am
Ġp este
Ġqi y
Ġjel en
Ġo ike
Ġfon ction
r Ã«s
ÏģÎµ ÏĢÎµ
ĠÎ£Ïħ Î¼Î²
Î¼ Î¹ÎºÏĮ
ĠÎ¼ÏĢÎ¿ÏģÎ¿Ïį ÏĥÎµ
Ïģ Î¹ÎºÎŃÏĤ
_ 15
ĠÏĢÏģÎ¿Î² Î»Î®Î¼Î±ÏĦÎ±
ÏĦÎ¯ ÎµÏĤ
ÏģÎ³ Î±Î½
Î¸ Ïī
ĠÏħÏĢÎŃ ÏģÎ¿
ÏĦÏī Î²
ÏĢ Î®ÏĤ
ĠÎļ Î¬Î½
ĠÎµ Î³Î³
ĠÎ³Î½Ïī ÏģÎ¯Î¶
ĠÎ±ÏĢ Îµ
Ġpost 2
Ġff or
ĠU hr
Ø§ ÙĨ
h ÉĻ
pÄĵ c
Ġr Ã«nd
oro v
Ġava it
la g
ĠS ing
Ġc ad
ul lan
ĠktÃ³ ra
Ġmose betsi
Ġl Ã½
ch tig
Ġin tre
us o
ta ti
Äĥs Äĥri
k il
ÅĨ Å¡
go t
er b
ĠÃº Äį
de a
r je
ku wa
ĠV Ã½
d Ã¨
Ġre ci
h nen
Ġi h
cu te
Ġe Å¡te
Ġv Äĵr
k ow
Ïĩ Î¿Î»
Î´Îµ Î¹Îº
ĠÎµÎ± ÏħÏĦÏĮ
Î´Î¹ ÏİÎ½
Î³ÎºÏĮ ÏĥÎ¼
ĠÎµÎ»Î»Î·Î½ Î¹ÎºÎ¬
Î¼Îµ ÏģÎ¯
Î³ ÎµÏĤ
ĠÎ´Îµ ÎºÎ±
ĠA U
Î¸Î® ÎºÎ·
ÏĢ ÎµÏģ
ÎµÎ¯ Î¼ÎµÎ½Î¿
11 3
ĠÎļ ÏĮ
Î¼Î¹ ÏĥÎ·
ĠÏĥÎ·Î¼Î± Î¯Î½ÎµÎ¹
ĠÏĥ ÏĦÎŃ
Ġ ÏģÎ±
Î» ÏīÏĥÎ·
ĠÏĢÏģÎ¿ Î¿
ĠÎŁÎº ÏĦÏīÎ²
ĠÎ±Ïħ Î¾
Ġsi cr
Ġrend el
Ġb ont
Ġy ona
c ciÃ³
c chi
Ġsh u
ĠiÅŁ tira
Ġkh Ã¡ch
en Ã½
Ã§ Ã£o
c esi
ĠP rzy
ĠJa hr
Äĵ ja
Ġtou jours
ĠRo edd
Ġz am
Ġshqip tare
tet in
ĠÕ į
Ġtari x
pa Ã±a
Ġpu Ã²
Ġja kie
ĠgÃ©n Ã©ra
Ã©s zet
c ta
be c
Ġe us
Ġtho tÃ«
Ã¤r jes
Äĥ se
Ġh al
Ġdu te
es cu
me a
Ġtak Ã©
Ġst ar
Ġha ce
mu lui
ĀĀ ĀĀ
Ã« mi
Ġac qu
Ġqu a
ci u
ke zÃ©s
Ġaques ta
za do
erb inte
mo ng
z are
Ġmo i
Ġme ng
Ġsi mp
te go
Ġb ul
Ġd Ã¶v
ff en
Ġo tt
Ġshka k
d ores
dro Å¡
Ġche z
Ġk re
ÏĦÎ¯ ÏīÏĥÎ·
Î¬Î» Ïħ
ĠÏĢÎ±Î¯ Ïģ
ĠÎºÎ± Î»Î»Î¹
Î³ÏīÎ³ Î®ÏĤ
ÏĦÎ¬ Ïģ
ÏĦ ÏģÎ¹Î±
Î´Î¹ Î¿Ïį
Î¯Î¶ Î¿ÏħÎ¼Îµ
o dd
Ġpri v
Ġlin tho
ka re
AR I
24 24
Ġy ia
Ġifara da
Ġif oruká»įsiláº¹
iem pre
Ġdu kia
ĠS en
ĠS chool
ĠJesu cr
ĠE U
è¡ Į
tÃºn á¹£e
Ġsvo je
j itá»į
isi on
S t
ĠÃł Ã¬
Ġp owie
Ġr Ã¡
ĠÃ µ
Ġave a
Ġf ra
un da
Ġnepie cie
Ġai x
at z
Ġegy ik
Ġpipa de
Ġlá»į pá»įlá»įpá»į
Ġko dro
Ġiru o
Ġi yo
Ġh is
Ġee fin
Ġak Ãłn
Ġ\" :
ĠOri le
ĠJ ames
á»įnu kunnu
r áº¹n
S A
K á»Į
10 1
ĠÂ ©
Ġyá»į yá»į
Ġwlea wuna
Ġm á»įnukunnu
Ġif á»į
Ġba ck
ĠPar k
ĠOlu ká»įni
ĠLa isi
ĠI B
ĠHo t
ĠD O
ĠAnato lia
Ġ9 3
æ± Ĥ
à¸ ¹
kun do
dÃ¹ dÃ¹
Ġá»Į RUN
Ġáº¸ mÃŃ
Ġibara mu
Ġfáº¹ láº¹
ĠSau di
ĠOlu tá»įju
ĠOgb eni
ĠO p
ĠG uar
ĠC rea
ï¼ ¡ï¼
estos terone
era ga
do gbedev
ĠĀ Ā
Ġg ÃŃ
Ġatun ci
Ġs ÉĻb
ĠK h
o i
Ä¼ i
Ġmara ng
ori i
Ġala ini
Ġala bá»įde
ĠW ater
ĠS to
ĠI fe
ĠDes ign
Ġ, *
iel scher
W á»ĮN
H z
Ġá»Įgbáº¹ ni
Ġt on
Ġmá»įnukunnu jáº¹
Ġja si
Ġiá¹£ á»įn
Ġbáº¹ ru
ĠMicha el
ĠE de
Ġra ng
Ġk holo
ĠH O
th ane
ĠA ta
Ġ ï½
Ġ í
san di
oni fo
jara ti
ĠÃ¬ dÃŃ
s em
Ġhasz nÃ¡l
ĠSp ie
ie urs
Ġdal Å¡ÃŃ
bo d
cia les
ci es
Ġvá» ¥
Ġsu a
Ġv ir
Ġm ia
Å¡ t
cha ba
lo eng
Ġqa la
Ġg ro
Ġba jáº¹
v ol
Ġala tako
Ġa cid
ĠPe ter
ĠP H
ĠMi lan
ĠMa tt
ĠLat est
è ½
à² ®
d eláº¹
Ġæ Ĺ
ĠÐ ¼
Ġyou tube
Ġpaa ti
Ġngan ye
Ġin Ã¡
ĠShqip Ã«ri
n jÃ«
Ġsi tu
ĠÏĢ Î½Îµ
ĠÎ¸Îµ ÏģÎ±
ĠÎ² ÏģÎµ
Î¬Î» ÎµÎ¹
wr th
Ġts ona
ĠdÉĻ yiÅŁ
Ġil osiwaju
Ġe vo
Ġbua gi
Ġblo ckchain
ĠJesucr isto
ĠIslaeli vi
ĠIfi jiá¹£áº¹
ĠF irst
çī Ī
áº¹ t
k pa
dan a
Ġs ome
Ġs ini
Ġsp Ã©
Ġpáº¹ láº¹
Ġoy un
Ġl enu
Ġk Ãłn
ck Ã¡
f ol
ĠCh at
Ġpa sa
ĠnÃ« se
Ġiwo ye
Ġiran lowo
Ġtrava il
Ġi deri
ĠR am
ĠP VC
ĠNu he
ĠIn táº¹n
ĠIntáº¹n áº¹t
ĠI meeli
ĠH E
ĠG I
ĠA ji
é ĺ
çī ĩ
tira sandi
se y
pin láº¹
ou gh
oso ke
oni cation
lara da
b aru
I 92
Ġwu ti
Ġs ti
Ġos Ã©Ì£n
ĠnÃ¬ kan
Ġs ys
Ġc Ã¹ng
ĠE us
tu ko
Ġma y
Ġiá¹£ini popada
Ġap k
ĠR F
ĠL om
ĠIp iláº¹
ĠH ielscher
ĠGener ator
ĠChar les
ÅĤ ni
ĠAf rican
å Ŀ
ãĥ «
tt le
onifo ji
h ili
as u
an di
M B
Ġáº¸ mi
Ġri lara
Ġli ke
Ġfu un
Ġeti kun
ĠRa ma
ĠPos ted
ĠL an
ĠEar th
ĠCir cle
çĶ Ł
æĪ Ĳ
à¸Ń à¸Ļ
Ð¾ Ð»
w Ã¡
ma ine
Ġnie k
Ġen cont
ĠLes eli
ĠEm pa
Ã¼ y
Ġu u
v Ã¡ny
Ġal te
k wa
Ġa lors
ziona le
ÏĢÎ¿Î¯Î· ÏĥÎ·ÏĤ
ĠÎ¿ Î»ÏĮ
Î¼Î· Î½
ĠÏĢÏģÎ¿ÎºÎµÎ¹ Î¼ÎŃÎ½Î¿Ïħ
Î´ÎµÎ¹ Î³Î¼Î±
ĠÏĦ ÏģÎµÎ¹ÏĤ
ĠÎºÏħÎ²ÎŃÏģ Î½Î·ÏĥÎ·
ĠÎµÏĢÎ¹ÏĥÎºÎŃÏĢ ÏĦÎµÏĤ
ĠÎ¦ Ïī
6 9
ĠÎ² Î¯Î½ÏĦÎµÎ¿
ĠÎ£Ïį Î¼ÏĨÏīÎ½Î±
ÎĻ ÎĶ
ĠÏĢÎµÏģÎ¹ Î²Î¬Î»Î»Î¿Î½
ĠÎ¦ÎµÎ² ÏģÎ¿Ïħ
Ġro edd
he j
ĠG esch
Ġta mb
Ġp ont
Ġre ali
Ġquel ques
hdo ll
Ġese t
Ġc al
k Ãº
Ġm Ãµ
Ġph áº©m
Ġn ek
Ġyax ÅŁÄ±
Ġmun do
Ġc ro
Ġha pe
Ġtr Ã¬nh
Ġt Ã©
sch u
Ġj ar
Ġbu d
c ke
as sa
Ġg jÃ«
Ġfo tos
dura s
Ġvo ir
f fi
Ġm ismo
wi ÄĻ
ny v
ast Äĥ
ne hmen
Ġra yon
ad Ä±n
tori a
ly en
Ġqe yd
Ġz ro
or y
le ko
) ;
Ġsi po
Ġl oru
Ġiyáº¹ wu
Ġitun u
ĠEngineer ing
ĠC i
ro l
ķ à¸£
Ĥ ¨
Ġáº¹ áº¹kan
Ġwor k
Ġthe y
Ġpro cessing
Ġonigb á»įwá»į
Ġin fo
Ġij iroro
Ġida amu
Ġak os
ĠYa to
ĠIbus á»į
á»įyen a
à³į à²°
yo ta
ul f
plá»įn máº¹
la ba
gi ti
Ġá»Įjá»į gbá»įn
Ġyara yara
Ġsi áº¹ráº¹
Ġg old
ĠJ á»į
ĠI for
Ġ, ,
Ġ& #
jÃ¬ lÃ¡
ho máº¹
gba gbá»į
ga gbaga
di i
ES I
ĠÃ¬ b
ĠÃŃ r
f Ã©r
ĠNa zir
Ġse lemo
Ġh iss
er re
Äģ la
fa ch
Ġme dzi
ĠnhÆ° ng
Ġci u
Ġaj Ã¡n
Ġpo b
Ġve t
Ġg el
Ġren de
ouv elle
Ġti k
Ġdo or
Ġma l
ch s
Ġo tÃ²
Ġkori ko
Ġbu t
Ġala fia
ĠT at
ĠJa ck
ĠJ I
ĠI lo
Ġ ÑĤ
á»įna máº¹
ru s
S h
I 920
Ġori re
Ġf Ã¢
Ġa ka
ĠRi koooo
ĠO pen
ĠLum pur
ĠD habi
ĠD el
ĠC S
Ð¾Ð ²
É Ĺ
¥ à¹Īà¸Ļ
ya ma
et ooth
du gbo
Ġá¹£áº¹ gun
Ġpas s
Ġmá»į láº¹
Ġhá»įn tá»įn
Ġfor ce
ĠO RUN
ĠN aa
ĠMa il
ĠM T
ĠA ya
ung bi
ti de
p áº¹n
m Ãº
Ġmo la
ty y
g Äĥ
ci one
Ġti dak
dan ia
i la
bi ti
bi c
Ľ ´
Ġsá»į ta
Ġgbáº¹ zan
Ġalá»į wle
ĠA j
báº¹ wo
Ġæ³ ķäºº
Ġho táº¹áº¹li
Ġd áº¹n
Ġb est
Ġaya woran
ĠY ara
ĠTrans portation
ĠT R
ĠP á»į
ĠN ame
ĠMuham mad
ĠKe jÃ¬lÃ¡
ĠI FA
ĠF ar
t ÉĻb
åĩ º
à °
Ðµ ÑĤ
da ga
Ġáº¸ káº¹vuá»įvo
Ġten de
Ġmi mo
ĠI m
Ġláº¹ ngbá»į
ĠU sed
ĠP ho
ĠO wa
ĠE du
ĠA ar
Ġ ä»
ä¸ ĭ
ÙĪ ÙĨ
mer ce
lá»į run
bur g
bi an
a jo
pe lo
Ġda x
ģ à¸
Ġæ³ķäºº çķªåı·
Ġà¸§ à¸´à¸
Ġylan kan
Ġro ba
Ġoniru uru
Ġn and
Ġmá»į to
Ġká»į detá»įn
ĠSpa in
c am
Ġx xx
bili dad
Ġg ju
owa ÅĤ
Ġp Ã©n
a pe
ĠHua wei
ĠAsso cia
Ġ9 1
è ģ
ãĤ ĵ
à²¾à² ²
r Ã²
m Ã¡s
Ä«g Äģ
Ġ ÅĻÃŃ
Ã¦ re
Ġl ena
ĠWEB D
ÎµÎ² Î±Î¹
XwBfAF8A XwBfAF8A
ĠÏĨÎ± Î³Î·
ÏĦÏİÎ½ ÏĦÎ±ÏĤ
ym ru
ĠÎľÎµ ÏĦÎ±
ĠAM D
ĠÎł ÏİÏĤ
Ġ. :
Î¸ Î¹
ĠÏĢÎ¬Ïģ ÎµÎ¹
ĠÎº Î»ÎµÎ¯
ĠÎµÎ½ ÏĦÎ¿
ĠÎ±Î½Î± ÎºÎ¿Î¯Î½
ĠÎ±Î³ÏīÎ½ Î¹Ïĥ
ĠÏħÏĢÎ® Ïģ
ĠÏĢÎµ ÏģÎ¹Ïĥ
ĠÎ¤ Î·
ĠÎ Ĭ
Ġ5 V
ÏĥÏĦ ÎŃÏĤ
Î¼ Î®ÏĤ
Î¯ Î½Î¿Î½ÏĦÎ±Î¹
ÏĢÎ±Î¯ Î´ÎµÏħ
Î¼ÏĢ Î±
ĠÎŁÎºÏĦÏīÎ² ÏģÎ¯Î¿Ïħ
Î¼Î¬ ÏĦÎ¹
Ġ00 8
Î¹Ïĥ ÏĦÎ¬
Î´ ÏģÏĮ
ÏĢ ÏĦÏİÏĥÎµÎ¹ÏĤ
Î¯Ïĥ Î¹Î¿
ĠÏĥÏĦÎ± Î¸Îµ
ĠÏĢÏģÏĮ ÎºÎµÎ¹ÏĦÎ±Î¹
ĠÎºÎ¬ÏĢÎ¿ Î¹Î¿ÏĤ
ĠÎ±ÏĥÏĦ ÏħÎ½Î¿Î¼
Î» Î¹ÎºÎ®
ĠÎ¼Î¿Î½ ÏĦÎŃ
ĠÎµ ÏĥÏĦÎ¹Î±ÏĦÏĮÏģÎ¹Î¿
Ġc ountry
ĠÎ¼Î¿ Î½Î¿
ĠÎ± Î¸Î»Î·
× Ĳ
0 2
Î³ Î®ÏĤ
Î¬Î½ Î¿ÏħÎ½
ĠÏĨÎ±Î½ ÏĦÎ±
6 1
Ġ? .
Ïĩ ÏīÎ½
ÏĥÎµ ÏīÏĤ
ĠÎ£ÎµÏĢ ÏĦÎµ
ÏĨ ÏİÎ½
Î³ Î·ÏĥÎ·
Î¡ Îĵ
ĠÎ´ÏģÏĮ Î¼Î¿
Ïį Î¼Î±
n f
0 5
Ïĥ ÎŃ
7 1
ĠÎº ÏģÎµ
ĠÎ¹ Î±
ÏĦÎ¬ ÏĤ
Î³ÎŃ Î½Îµ
to d
Ġta pa
Ġtr as
Ġen ts
Ġce la
ya ng
áº¥ u
ĠS Äĥ
ĠEs te
vien o
Ġbar ÉĻdÉĻ
is b
Ġala tt
Ġna pr
Ġmo is
Ġche lete
l ho
Ġk w
ĠK in
Ġni ng
Ġc and
ĠSex uale
Ġpu tea
ĠÅŁ ÉĻhÉĻr
Ġf Ã¶r
z ÃŃ
Ġd ni
Ġlefa tshe
Ġcon tro
Ġndi h
gi on
tu a
Ġk ullan
Ġrend szer
ĠÅ¡ Äģ
Ġin di
ĠÃľ ber
c b
ÏĪ Î¿ÏħÎ½
Î¾ Î¹Î¿
ĠÎŃ ÎºÎ±
×ķ× ª
Ïģ Î±Î¹
ĠÎłÎ¿Î» Ïį
ĠÎĵ Îµ
ÏĪ Î±
ÏĦÎ¹ Î½
Î¶ Î¿ÏħÎ¼Îµ
ĠÎºÎ±Î¸ Î¿
ĠÎ¸ÎŃ Î»ÎµÏĦÎµ
Î»ÎµÏħ Î¸Îµ
ÎµÎ´ ÏģÎ¿ÏĤ
nh yr
Ġ ÅĤa
Ġav is
c oup
ĠÎ¼Î® Î½Î±
ĠÏĥÏħÎ½ Î®
ĠÏĢÏģÎ¿ Î³ÏģÎ¬
ĠÎµÏģÎ³Î±Ïĥ Î¯Î±ÏĤ
ĠÎĵÎ¹ Î¬Î½
ĠÎ±Î½Î¿ Î¯
ĠÎ¥ Îł
ÎĽ ÎĹ
ĠÎĳ Î¹
ĠÎ´Î¹Î± Î²Î¬
ia dau
Ġvis sza
Ġpie dÄģvÄģ
Ġwy so
Ġl Ãªn
Ġto ho
Ġj ou
ĠQ ara
ĠD zi
ĠAr be
v il
Ġu a
Ġle go
han a
Ġb este
Ġdi gÉĻr
C K
Ġà² ¶
Ġpi pin
Ġpa jawiri
Ġoá¹£e lu
Ġláº¹ yin
Ġka kiri
Ġiá¹£ á»įkan
Ġir orun
Ġeg ungun
Ġsz Ã³
Ġcom ments
Ġch alyu
Ġchalyu u
ĠI kun
ĠG A
ĠBe au
è ©ķåĪ¤
Ø £
mit oro
ku tu
di di
Ġte xt
Ġis una
Ġgbo do
Ġdo pá»į
Ġa lar
ĠV wáº¹
ĠTur k
ĠS D
ĠPortu gal
ĠOn iru
ĠO j
ĠIro hin
ĠD esi
ĠBo ard
ĠA to
æĹ ¶
Ðº Ð¸
p ho
ose lu
fu ye
er u
a di
U E
Q L
Ġáº¹ ÌĢ
Qu ery
ĠÏĥÏħ Î½Î±Î½
ĠÎ´ Î¹ÎºÎ®
Î³ Î¿ÏħÏĤ
r ych
Ġfi ind
Ġlu gar
ĠvÅ¡e ch
h Ä¾ad
or Ã«
Ġc_ isb
Ġke d
Ġf Ã©
Ġni Å¼
Ġn ne
gi o
ĠnÃ³ i
ĠÏĢÏģÎ¿ Î³ÏģÎ±Î¼Î¼Î±
ĠÎ¹ ÏĥÎ¿
ĠÎ± ÏģÎŃ
ĠÎ± Î³Î³
ĠÎŁ Î»Ïħ
ĠÎ£ÎµÏĢÏĦÎµ Î¼Î²ÏģÎ¯Î¿Ïħ
Ġo es
Ġf aut
Ġatt ie
Ġet wa
g ini
Ġm us
Ġn Åĳ
Ġch au
ĠÄ ±
min t
Ġdu pa
Ġsch i
ĠM Ã«
Ġti es
Ġl um
ĠL it
ngo lo
Ġf are
sz Ã¡
ĠÄ¾ ud
Ġprop os
Ġe lÉĻ
Ġ-**** (
Ġ- &
ÏİÎ½ ÎµÏĤ
ÏĥÏĦÎµ Ïħ
ÏĥÏĦ ÏİÎ½
Î¸Î® ÎºÎµÏĤ
ĠÏĥÎ¿ Î²Î±
ĠÎ±ÏĢÎ¿ÏĦÎµ Î»ÎµÏĥÎ¼Î±
ĠÎ¤ ÏģÎ¯
ed la
Ġv Ã«r
kuu ta
bi tso
kor zy
ĠÅŁ e
Ġest Ã¡n
ov o
il les
Ġiz vÄĵ
Ġle ka
Ġtamb Ã©
Ġu tili
ĠHe t
Ġs vÄĽ
ĠÏĢÎµÏģÎ¹ÏĥÏĥÏĮÏĦÎµ ÏģÎµÏĤ
ĠÎ± Î»Î®
ĠÎºÎ¬Î½ Ïī
Î² Î¿Ïħ
Pa ge
ĠÎ¹ Î´ÎŃ
ÏİÎ½ ÎµÏĦÎ±Î¹
wya f
m ine
h len
to a
Ġwar to
p ul
Ġkh Ã¡c
z pie
m Ä±z
si ons
Ġfe ti
Ġdar b
li tÃł
p iel
Äħ g
h tÃ«
Ġprof ession
Õ¡Õ ·
Ã¼n Ã¼
Ġen cu
Ġva in
da h
du ce
c tions
tu p
Ġal c
Ġt Äģs
wiÄħ zan
w ert
it za
ze it
Ġsz Ã¼ksÃ©g
c lipuri
Äĥri i
ek s
ĠmÃ¼ na
Ġm no
ts ha
Õ«Õ ¯
q ti
wan ie
ĠPos tÃ©
Ġcom pr
te il
ĠÃ§ at
Ġse ese
Ġprzy pad
re t
Ġf Äĥ
Ġo sin
Ġn unina
Ġlo po
Ġi win
Ġho me
Ġeni ti
Ġda abobo
Ġc ra
Ġb d
Ġana demáº¹
Ġamo lenge
ĠV egas
ĠJon at
ĠA fikun
áº¹ ro
wu mb
wumb ÉĶr
tu ral
lo t
le jo
dÃ¡n Ã¹
mm Ã¤
di do
ĠÃĮ dÃŃ
Ġmi ch
pa la
Ġo táº¹n
Ġká»į ká»į
Ġjáº¹ nuká»įn
Ġj p
Ġe gbogi
Ġdi di
Ġb Ã¨
Le vel
ĠÏĩ Î¹Î»
ĠÎ·Î¼Îµ ÏģÎ¿
ĠÎµÏĨÎ±ÏģÎ¼Î¿ Î³Î®
ĠÎ³ Î¿Î½
ĠK 00
ÎµÎ½ ÏĦ
ko o
Si ze
A I
ĠÎľ Î¹
Ġ7 15
Ġ& .
× ł
Î³ Î¿ÏħÎ½
yd dol
n is
Ã¡l t
Ġape ere
Ġa kuáº¹
ĠUl trasonic
ĠSe a
Ġda sh
ÉĻ ÅŁ
Ã«r isÃ«
ĠMa vá»į
ĠKe ji
ĠAmeri ka
tif s
Ġbash kÃ«
Ġo tros
Ġszer ve
ko Ä¾
Ġke ine
Ġdar ba
Ġci la
à¸Ńà¸ ĩ
rar aráº¹
má»į á¹£o
máº¹n ti
do gun
Ġá»į dÃºn
fi ci
Ġfihle la
ĠÏĢÏģÎ¿ Ïĭ
Ġbe th
Ġe au
cz yn
Ġpil sÄĵ
g atÃ³
si ÄħÅ¼
pe ng
Ġe ma
ĠN on
Ġk li
ĠÉĻ vvÉĻl
ĠRomÃ¢ nia
Ġace asta
te tÃ«
Ġba s
owi Äħ
Ġg egen
ct ul
ĠBe ach
ÎºÎµ Ïħ
ĠÏħÏĢÎ·ÏģÎµ ÏĥÎ¯ÎµÏĤ
Ġk el
Ġaff ilia
osi tion
ÏĦ ÏįÏĢ
Î½Î¿ ÏįÎ½
Î¼ Î¼Î±ÏĦÎ¿ÏĤ
ĠÏĨ Îµ
ĠÎ¤ ÏİÏģÎ±
Ġy ch
Ġki ta
li v
he tseng
ĠÄĳ ang
È ĺ
ch as
Ġn Ã©l
ÄĻ d
Ġast fel
Ġog ni
tv or
ĠMo k
jumu s
Ġpr esi
Ġke pada
ma lla
Ġma dh
elye k
Ġmo ch
ov er
Ġthe pa
Ġy ena
Ġs isi
Ġniye lori
Ġki kan
Ġkan we
Ġifa má»įra
Ġf ull
Ġa un
ĠSo cial
ĠPaa paa
Ġ2F www
Ã¡k iri
Ġiz a
niec Ä«bas
so to
fin der
Ġsá»į má»į
Ġolu gbo
Ġgbigba siláº¹
Ġemp ire
Ġb b
Ġan y
ĠPa da
ĠMari juana
ĠKaa bo
ĠBlu etooth
ĠA fihan
à¸ ĩ
pa láº¹
ko já»įpá»į
jáº¹ eji
di tor
S T
Ġy kwiêŀĮ
Ġti o
Ġnu ji
Ġna me
Ġile e
Ġf á»įn
g ung
Ã¢ ni
Ġafá»įwá»į ká»į
Ġaf onifoji
ĠO GBE
ĠMa drid
ĠA diráº¹si
Ġ7 1
ç ©
Ð ³
Ãłw Ã¡kiri
jÃ¡ pá»į
d Ã¬
LC J
Ġspra w
ĠmÉĻ q
is tÄ«
Ġsi is
or ul
Ä º
ĠÎĵ ÎµÏģÎ¼Î±Î½
Ġwa it
Ġsi t
ÏģÎ³ Î±Ïĥ
ĠÎķÏħ ÏĩÎ±ÏģÎ¹Ïĥ
Ġc tl
Ġ `
ĠÏĪ Î¬
ĠÎ±Î³ Î¬
ÏĥÏĦÎ· ÎºÎ±Î½
ÏĥÏĦÎ± ÏĥÎ·ÏĤ
ta ur
8 1
ĠÏĢÏģÏī ÏĦÏĮ
ĠÎ¼ÎŃ Î»Î·
× ĵ
Î¼ Î¿ÏħÎ½
5 1
ĠÎ±Î½ÏĦÎ¯ ÏĥÏĦÎ¿Î¹
Ġo ed
Ġfum ane
ch ar
cja l
Ġko mp
Ġbi áº¿t
Ġor gan
Ġt ul
ÃŃ tott
Ġu sh
Ġgu t
ba ye
J E
Ġu koko
Ġpe koni
Ġna bá»į
Ġki die
Ġijin na
Ġfun rararáº¹
Ġfi fáº¹
ĠMe ta
ĠKo rea
Ġb yl
ri o
ĠF ili
ĠF er
ĠD em
ĠA jo
Ġ1x bet
ur ve
pp er
p m
k wi
i yara
i pa
ĠêŀĮÃ±a an
Ġâ ŃĲâŃĲâ
Ġv oo
Ġta re
Ġomi iran
Ġn ko
Ġku ku
Ġida siláº¹
Ġg Ã³Ì£
Ġ[ ...
ĠLa ini
ĠH GH
ĠA á¹£eyá»įri
ãģ ¦
wi ng
Ġse Ã§
um b
land s
M C
Ġuy ota
Ġopo iye
Ġil osoke
Ġigbohunsa fáº¹fáº¹
Ġgb le
Ġet áº¹
Ġdopo lá»į
ĠTo yota
ĠTa ble
ĠIn tanáº¹áº¹ti
ĠI boju
ĠI beere
ĠH on
ĠA re
å½ ±
å° ı
ãĥ ĥ
à¸§ à¸¢
ÉĽ ÉĽ
s á»įn
ph one
ho ut
c us
Ġá»į ra
Ġá¹£ in
Ġta tu
Ġpa ti
Ġise diwon
ĠRa deon
ĠOH UN
ĠM il
ĠEÌĢ deÌĢ
é «ĺ
áº¸ N
p Ã¨
ovan ie
ÄĥsÄĥri cÄĥ
Ġpro ble
ĠÃ¼ gy
Ġn ngwe
kan la
ch ester
Ġá¹¢i á¹£a
Ġplay er
ĠnÃº dÃ¹dÃ¹
Ġlin láº¹n
Ġjack pot
Ġiya to
ĠG T
ĠD VD
ĠCu p
Ġ3 50
ï½ ī
çł ģ
ãĤ Ĥ
x in
u b
li ty
la ted
kal po
ja gan
e wÃ©
P al
ĠêŀĮ wan
Ġs owo
Ġololu fáº¹
Ġol oselu
Ġnu dide
Ġk wiêŀĮ
Ġisá»į dá»į
Ġijáº¹ risi
Ġgba dura
Ġe erun
Ġala ga
Ġagb anisiá¹£áº¹
ĠW háº¹
ĠU wumbÉĶr
ĠP R
ĠI LE
ĠGa la
ĠC ra
ĠA táº¹
Ġ2 20
Ć ĆĈ
v ille
sh are
nupá»įn do
m esi
ŃĲâ ŃĲ
Ġn fi
Ġlit tle
Ġigb eriko
Ġb ÃŃ
Ġt Ã½
it ti
Ã¡ ri
i m
s Äĥ
ri que
Ġh Ãłnh
ta ctos
ni co
ten i
rif ysgol
Ġsa v
ÏĥÎºÎµÏħ Î®
ĠÎµ Î»ÎµÏįÎ¸Îµ
Ġ96 94
ĠÎ±Ïį Î¾Î·
Ġrho i
Ġpersonn es
ni ki
Ġn x
Ġd vo
Ä±n dan
ĠwiÄĻ c
u te
ĠK Ã¶z
Ġna ar
ti vi
er d
lal koz
il we
Ġpre t
ĠÎł ÏĮ
ĠÎ²Î¬ ÏģÎ¿ÏĤ
Ġsearch Id
Ġoffer Id
Ġkel koo
Ġcontext Level
Ġcom Id
Ġcat Id
Ġaffilia tion
Ġaffiliation Id
ĠÏĦÎµ ÏģÎ¬
ĠÎļ ÏįÏĢ
Ġf wy
Ġb Ã¡r
Ġpers ona
Äħ d
ĠV e
Õ¥Õ ¯
Ã¼ ks
Ġe gi
en Ã¡
Ġpa ÃŃs
Ġch am
Ġlo c
Ġch Ãºng
Ġdies er
is ir
ar zy
ts z
ÏĦ ÏģÎ¿Ïħ
Î¬ ÎºÎ¹
ĠÎĵ Î¹Ïİ
ÏģÎ¿Ïį Î¼Îµ
ÎµÎ¯ ÏīÎ½
ch yd
Ġtem po
Ġzd ra
Ġj ours
Ġs Ã¥
ke dÃ©s
Ġd ir
j is
Å¡e j
Ġen e
Ġpot rze
Ġle bo
ka u
Ġwa t
ĠÎµÏĢÎ¹ ÏĦÏħÏĩ
r r
ĠÎµÎ¹ÎºÏĮ Î½Î±
lwydd yn
ĠÄį er
Ġv Ã¤l
Ġex em
j Ã¡r
sz ego
ia eth
zi m
hal ten
in Äĥ
Ġgran d
Ġro kov
ov at
ĠT as
ÄŁ Ä±nÄ±
Ġtr at
dzi Äĩ
ĠR Ã©
ĠMo limo
Ġm osa
is me
Ġba ngwe
le tso
Ġj Ã¡t
ĠÎ¾Îµ ÎºÎ¹Î½Î®
ĠÎµÎ¾ Î¿
ĠÎµ Î½Î¿
Ġ10 76
ÏĮ Î»Î¿Ïħ
ÏĨ Î¬Î½
ĠÎĻ ÏĦÎ±
ĠÎĶ ÎĻÎĳ
ĠÎ±ÏĥÏĨ Î¬
ÏģÏī ÏĥÎ·ÏĤ
r c
O ffer
ĠÏĢÏģÎ¿Î·Î³Î¿ÏįÎ¼Îµ Î½Î¿ÏħÏĤ
ĠÎĵ ÏģÎ¬
ÎŁÎ Ķ
Î¼ÎŃÎ½ ÎµÎ¹
Î³ÏģÎ± ÏĪÎµ
b d
0 1
Ġr hy
ĠÃ®n ce
Ġbo li
Ġse con
ÅĽ wia
ĠT sa
Å¡ ego
mo lo
Ġmo lao
Ġme re
á» «
ĠSi vas
ĠR os
ĠKanna da
ĠJ en
é ļ
è ¾
ãĥ Ī
à¥įà¤ ¦
yi da
ov win
lu g
lom iran
já»į ro
____ ____
G S
ĠâĢ ³
Ġáº¹ dia
Ġsá»į tá»į
Ġolo ro
ĠojÃº ewÃ©
Ġji ji
Ġiji ya
kov Ã©
Ġi ráº¹
Ġhyd ro
Ġa be
ĠÅŁ ÉĻk
ĠMu jeres
ci dad
Ġw ana
ĠWi wo
ĠTur han
ĠO ra
ĠM ers
ĠIf iraná¹£áº¹
Ġ0 a
åľ º
si ti
py right
i an
ĠÄ ·
Ã¡b Ã³l
em ose
X X
ĠâŃĲâŃĲâ ŃĲâŃĲ
Ġj Query
Ġf an
Ġa dir
Ġa aráº¹
ĠX L
ĠT ani
ĠS tyle
ĠS lee
ĠOlo ye
ĠI re
ĠC han
Ġ: ?
Ġ26 s
Ġ ê
æµ ·
t Ã³Ì£n
ol la
Ł ³
ŀ à¸±à¸Ļ
ĭ çīĮ
ĠÙħ ÙĨ
Ġvoo vo
Ġtee pu
Ġta wa
Ġra y
Ġmail to
Ġkan se
Ġin f
Ġh ard
Ġbáº¹ jáº¹eji
Ġb f
Ġang bÃ¢
Ġakos emose
ĠW all
ĠW E
ĠKi ka
ĠE p
ĠA aráº¹
Ġ: '
ãģ §
zer land
y lan
ho u
ĠÃł ká»į
ĠNu k
n Äĵ
Ġc Ã©l
do t
ĠmÃ¡ y
owan ych
Ġmu kaan
sa j
Î¬Î½Î¹ ÏĥÎ·
Î³ ÎŃÎ½
P osition
ĠÎł Î¹Ïĥ
ĠÎ±Î½Î¬ÏĢÏĦÏħ Î¾Î·
ÏĮÎ½ ÎµÏĤ
Ïģ Î¯Î½
ÎŃ ÏģÎ¹
ĠÏĩÏİ ÏģÎ¿Ïħ
ĠÎł Îķ
Î½Î· ÏĥÎ·ÏĤ
!! !!
ĠÏĨ ÏīÎ½
ĠÏĢÏĮ ÏĥÎ¿
ĠÎµÎ¯ Î¼Î±ÏĥÏĦÎµ
Î¬Î½ ÎµÏĦÎ±Î¹
o li
Ġm om
ÅĽ wie
x e
ÅĤo ÅĽci
the o
tel lung
Ġr oot
Ġoluran lowo
Ġh Ãłn
al mente
laÅŁ dÄ±r
Ġá¼ Ģ
Ġ× ĳ
ĠÏĥÏĩÎµ Î´Î¹Î±Ïĥ
ĠÎºÎ± ÏĦÎµ
Ġmer chan
ÏĦÎ¹Îº Î±
Ġá¼ Ĳ
ĠÏĥÏį Î³Ïĩ
ĠÎ¬ ÏģÏĩ
Ġsit esearch
Ġsitesearch Go
Ġsearch Query
Ġmerchan tid
Ġcontext Page
ĠcontextPage Size
Ġcontext Offer
ĠcontextOffer Position
ll un
ĠÃ© let
á» ¹
l on
p es
re ng
Ġgb in
la ma
Ġ[... ]
ĠV I
ĠT á»ĮN
ĠLa nguage
ĠL B
ĠH un
ĠDan iel
çĶ °
æ³ ķ
å· Ŀ
ãģ Ł
à¤ ¤
tegori es
p Ã¡
re ich
tsi o
Ġpjes Ã«
Ã» t
Äĥse ÈĻte
ĠDomni ÈĻ
ĠD in
Å¥a Å¾
Ġseg ÃŃ
ment os
ny mi
ĠUn d
ti er
Ġda go
lo o
H D
Ġâ ĬĤ
Ġwhi ch
Ġsina i
Ġnu di
Ġm Ã¤
Ġje ct
Ġin ch
Ġda y
Ġapá»į steli
Ġai má»į
ĠT ool
ĠP ort
ĠO sá»į
ĠO sun
ĠO do
ĠMers in
ĠI gbáº¹
ĠAr chi
ĠAla gbara
ĠA y
Ġ2F finder
Ġ26s rcid
Ġ26 w
Ġ26w tlocale
Ġ0 ah
Ġ0ah ttp
Ġ0ahttp s
éĩ ĳ
åī į
à²¾à²² à³Ĩ
Ã ĵ
y ÉĽli
y pe
teng be
ori wu
id s
b ric
ĠÅ¡ e
Ġwa lá»į
Ġund er
Ġr iri
Ġni s
Ġk áº¹n
Ġibe wo
ĠW O
ĠTi ti
f y
ĠS wimwear
ĠMarmara y
ĠHeb lu
ĠA yáº¹wo
ĠA gb
t Ã¤Ã¤
æĻ Ĥ
åħ ¨
ung bun
Ġne vo
nh áº¹
láº¹ má»į
is ha
fe e
Ġä¸ Ń
Ġá¹¢a wari
Ġre dio
Ġolugbe ja
Ġmeji la
Ġver s
Ġna bÃŃ
Ġla ye
Ã¡l Ã³
ĠM en
ĠÃ ½
ĠG we
Ġt ener
Ġitáº¹ wá»į
Ġgbigbá»į máº¹
Ġen u
Ġstr Ã¡n
Ġma emo
Ġb uy
ĠSi mp
ĠR O
ĠPay Pal
ĠGig a
ÏĢ ÏģÏĮ
ÎŁÎ¥ ÎĿ
Ġari an
po m
ĠGener al
Ġnu m
Ġ Đ
ì Ŀ
poli tan
ng be
má»į to
lang idi
kulu ku
eni ja
b oo
W N
IN A
Ġà²¶ à²¾à²²à³Ĩ
Ġpáº¹ páº¹
Ġme fa
Ġku tu
Ġf owo
Ġillet ve
c inÄģ
Ġdi gi
ĠM S
ĠIba dan
ĠAv wanre
æĢ §
p li
la ka
Ġç »
Ġon je
Ġmáº¹ jitá»į
Ġj amba
Ġgener ator
Ġaba la
Ġ12 3
Î¹Ïĥ Î¼ÏĮÏĤ
Î¤ ÎĻ
ĠÎĻÎ¿ÏħÎ½ Î¯Î¿Ïħ
Âµ Îµ
ĠÏĦÎ±Î¾Î¹Î´Î¹Ïī ÏĦÏİÎ½
ĠÎĶ ÎµÏħ
ĠÎĳÏĢ ÏģÎ¹
ĠÎ¼Î® Î½ÎµÏĤ
ĠÎ²Î¹Î² Î»Î¯
×Ļ× Ŀ
ÏĨ ÎµÏģ
ÏĦÏħ Î¿
ĠÎ¿Î»ÏĮ ÎºÎ»Î·
ĠÎºÎ±ÏĦÎ±ÏĥÎºÎµÏħ Î±Ïĥ
Îķ ÎĻÎĳ
95 13
ĠÎķÏħ ÏģÏīÏĢÎ±ÏĬ
ĠÎ¾ Î±Î½Î¬
ĠÎµÏħÎºÎ±Î¹ ÏģÎ¯Î±
ĠÎ´ Î¹ÎºÏĮ
Î¸Î· Î½Î±
ĠÎĺÎµÏĥÏĥÎ± Î»Î¿Î½
Ġ14 70
Î¼ÏĢ Î¬
ĠÏĢÎ»Î± Î¯ÏĥÎ¹Î¿
ĠÎĳÏĢÏģÎ¹ Î»Î¯Î¿Ïħ
w dd
Ã¡ro m
ĠÕ ¬
ĠM ÉĻn
Ġo sa
ĠS ur
den ie
ĠI sáº¹
dÉĻn i
ĠGba dun
ĠElect ric
à¤ ²
Ç ¹
b Äģm
mi ÄĻ
Ġu tlo
Ġs iempre
Å¡ÃŃ ch
ĠÃ©rt Ã©k
Ġme tso
á»ĩ nh
ĠÏĥÏįÎ½ Î´Îµ
ĠÎµÎ½Î·Î¼Îµ ÏģÏİ
ĠÎ´Î·Î¼Î¿ ÏĥÎ¹Î¿
ĠÎ±Î¾Î¹Î¿Î¸ÎŃ Î±
ÏĨ ÏģÎ±ÏĥÎ·
ĠÎķ ÏĢ
ĠÎ±Î³Î¬ ÏĢÎ·
ÏĨÎ¿ÏģÎ¬ ÏĤ
ÏĦÎ¹ ÏĤ
ÏĦ ÏĥÎ¹Î±
g rif
issan ce
ĠÃ©rde k
ĠÏĩ ÎŃÏģÎ¹Î±
ĠÎ±Î½Î¬ Î¼ÎµÏĥÎ±
Îµ ÏģÎ¬
ĠÏĢÏģÏİ ÏĦÎ±
ĠÎľÎ± ÎĲ
ĠÎŃÏĢ ÏģÎµÏĢÎµ
ĠÎ¸ÎŃ Î¼Î±ÏĦÎ±
Ġdd ar
ĠÃº lti
Ġval sts
Ġsk ÅĤa
ÄŁ er
qu er
d Äĥ
Ġs lu
c ca
nge bo
ÙĬ Ø©
ĠÉĻla q
ÏĪ Î®
ÏģÎµ Î¯Î±ÏĤ
ĠÏĢÏģÎ¿ Îº
ĠÎº ÎµÎ½ÏĦÏģ
ĠÎµ Î»Î±
ĠÎ±Ïħ ÏĦÏİÎ½
ĠÎ± ÏĨÎ¿
ĠÎ£ Î±Î½
Ġapp ly
ÏĨÎŃÏģ Î¿ÏħÎ½
ÏĦÎ¿ÏĢÎ¿Î¹ Î·
Î¯ ÏģÎ¹
ĠÎ¶ Ïİ
ĠÎ´ÏīÎ¼Î¬ ÏĦÎ¹Î±
ĠÎ´ ÎŃÏģ
ÏĥÏĦÎµÎ¯ ÏĦÎµ
ĠÏĢÎ± ÏģÎ¿
ĠÎ¾Îµ ÎºÎ¯Î½Î·
ĠÏĥÏħÎ½Î´Ïħ Î±Ïĥ
ĠÎºÎ¬Î½ Î¿ÏħÎ¼Îµ
ĠC lub
Ïĥ ÏĦÎ¹ÎºÎ¬
Î¬Î½ Ïī
wr dd
Ġf Ã«mi
he ng
Ġnin cs
t ki
si Ã³
ia s
ta mento
yin amáº¹
ba ck
ĺ à¸µ
Ġï¿½ï¿½ï¿½ï¿½ :
Ġáº¹n yin
Ġs Ã¡
Ġce va
u er
is ine
ĠvÃ¡l to
ĠrÃ© al
Ġl Æ°á»£ng
ĠÏĥ ÏĢÎ¿Ïħ
Ġpost 3
Î½Î± ÏĦÎ¿
ĠÎĹ ÎłÎĳ
ĠÎĳÎ½Î± Î¶Î®ÏĦÎ·ÏĥÎ·
ÏĦÎ· ÏĦÎµÏĤ
Î»Î¿Ïį ÏĤ
Î¹ Î¿Ïį
ĠÎ¾ÎµÎ½Î¿Î´Î¿ÏĩÎµÎ¯ Î¿Ïħ
ÏĮÎ¼Îµ Î½Î±
ÏĦÏģ ÏīÎ½
ÏģÎµÎ¯ ÏĦÎ±Î¹
ÎŃÎ½ ÏĦÎµ
ĠÎ² ÏģÎŃ
Ġ1470 9513
ÏĦÎµ ÏģÏĮ
ĠÎŃ Ïģ
ĠÎ± Î¼ÎŃ
ĠÎľ Î·Î½
ĠÎļ Î¯Î½Î±
ĠÎķ Î¬Î½
Îº ÏĦÎ¹ÎºÎ¬
ĠÏĩÎ±ÏģÎ±ÎºÏĦÎ·ÏģÎ¹Ïĥ ÏĦÎ¹ÎºÎ¬
ĠÎµÏĢÎ¹Ïĥ ÏĦÏģÎŃ
ĠÎ²ÏģÎ¬ Î´Ïħ
ĠÎ±Î½Î¬ Î»Î¿Î³
ĠO ct
F F
ĠÎµÏĢÎ¿ ÏĩÎ®
ĠÎ´Î¹ ÏĢ
ĠRes taur
ĠÏĢÎ±ÏģÎ¬ Î´ÎµÎ¹Î³Î¼Î±
Ġgwa sana
c ora
ĠSing ure
Ġper i
st Ã©
Ġpir ms
ÅĤo Å¼
Ġv rai
ad or
Ġpu is
Ð° ÑĤ
Îµ Î¹Î±ÏĤ
ĠÏĢ Î¹Î±
ĠÎĿ ÏĮ
ĠÎºÎ± Î¼Î¯Î±
ĠÎ²ÎµÎ» ÏĦÎ¹
ĠÎ¬ Ïĥ
ĠNgh ymru
Î½Î¿ Î¯
ĠÎºÎ¿ÏģÏħ ÏĨÎ±
Î» Î¹Î½
ĠÎ³Î½Ïī ÏĥÏĦÏĮ
ÏĦÎ¿ Î¯
wy th
Äį enÃŃ
ti mit
Ġce ea
Ġy h
Ġimpor tan
ti gen
Ġsz Ã¡z
ĠO b
ĠÎ±Î½Î± ÎºÎ±
ĠÎĺÎµÏĥÏĥÎ±Î»Î¿Î½ Î¯ÎºÎ·
ĠÎ»Î¹ Î³
Ġni fer
Ġne ch
Ġke y
Ġiwon tun
Ġaá¹£a láº¹
Ġara a
ov Ã½
Ġak pe
ĠYa we
ĠTho mas
ĠKáº¹ ta
ĠE ye
ĠA se
ĠA gbo
ãģ¾ ãģ
os u
oo m
da tion
Ġvi v
Ġt ere
Ġoni baje
Ġna wáº¹
Ġboo bs
Ġapá»į ju
ĠSwit zerland
ĠMa á¹£e
ĠE ri
ĠE po
ĠCa tegories
ĠAde hun
æ Į
å ĭ
our ces
lu e
dic ine
G N
Ġáº¹ lomiran
Ġà¸§à¸´à¸ ĺà¸µ
ĠÐ ±
ĠÃ¬ jÃ¡pá»į
ĠwÃł má»į
Ġv Ã³Ì£
Ġti tengbe
Ġth em
Ġsise to
Ġos Ã¹
Ġy ar
si es
Ġmo de
Ġme tro
Ġjá»į ja
Ġis iro
ĠY E
ĠV wá»į
ĠTra m
ĠN á»Į
ĠLo êŀĮo
ĠJos áº¹
ĠIW á»ĮN
ĠC C
ĠAf rika
Ġ7 00
äº İ
ä¸ »
ãģ Ĥ
à¸ Ľ
si te
os un
dá»į gba
Ġáº¸ Rá»Į
Ġthe ir
Ġolu tirasandi
Ġnr onu
Ġká»įn puta
Ġigbe kale
Ġgbi gb
Ġal so
ĠSu pport
ĠPo cket
ĠO BA
ĠFa gilee
ĠDi es
ĠC B
ĠAp áº¹ráº¹
ĠA K
Ĉ ą
má»įto lanmáº¹
m bi
la b
he d
anu máº¹
Ġá»įlá»į paa
Ġoh Ã²Ì£
Ġf irst
Ġdaada a
Ġb bl
Ġale kun
ĠSo lom
ĠS U
ĠOh Ã³
ĠMu sic
ĠGbáº¹ hin
ĠEto má»įá¹£o
ĠCor olla
ĠA do
à²¾ à²°à²¿
» ĳ
vi d
on d
mo le
ki i
isi á»įnu
ira mu
ili ki
g ori
Co in
Ġw omen
Ġnude pope
Ġkáº¹ rin
Ġf light
ĠTi i
ĠMetro politan
ĠM H
ĠLa gos
æŃ £
to ngo
tiwá»į á»įki
for d
ta ch
AB I
Ġpo ly
Ġpenu go
Ġoni má»į
Ġif itonileti
Ġfi fuye
ĠY á»į
ĠD ani
ĠChr isti
ĠAs iri
ĠAW ON
å¹ ³
à¸ª à¸¥à¹ĩà¸Ńà¸ķ
à²ķ à²¾à²°à²¿
Ð° ÑĢ
zá»įn lin
pa de
Ġâ ĸ
Ġá»įmá»į langidi
Ġá»Į Má»Į
Ġsex y
Ġof o
Ġitá»į wo
Ġimu daniloju
Ġigbáº¹ hin
Ġfin der
Ġa fe
ĠY ORU
ĠW ith
ĠP áº¹
ĠOku du
to jnÃ«
áº¯ n
ĠNi g
ĠI ráº¹
ĠHu má»į
ĠG un
ĠFor tune
ĠF X
ĠD ARA
ĠCa sh
ĠC V
çĶ ·
¬ ¬
m ani
g oro
g as
Ġwo li
Ġtri che
Ġin dex
Ġgbe jade
Ġdá»į dai
Ġch u
ĠbÃ¨ be
ĠT á»į
ĠT em
ĠS pins
ĠMar keting
ĠL am
ĠD un
Ġ à¦
à² ¨
Ãµ tá»į
tto os
se a
ro me
p ora
b reak
Ġwa ter
Ġres istance
Ġni êŀĮ
Ġji jáº¹
Ġimu larada
Ġida po
Ġgoo lu
Ġg Ã²
Ġege b
Ġb 5
Ġa bá»į
Ġ\": \"
ĠT or
ĠO re
ĠI w
ĠGeor gia
ĠAdd er
éĸ ¢
è Ń
ç® ¡
æĸ Ļ
à³ ģ
tin do
ou l
o g
ma re
kÃ¶ y
Ġä¸ Ĭ
Ġà²¸ à²°
Ġwáº¹n dagbe
Ġwo ye
Ġon ise
Ġo jiji
Ġla wá»įn
Ġl Ã£
Ġitáº¹ lá»įrun
Ġimo ye
Ġfol da
ĠY I
ĠS S
ĠOpo pona
ĠH is
ĠFeder al
ĠBa ng
ĠAr gent
æ£ ĭçīĮ
à º
Ã± aêŀĮa
ten a
la tor
k Ã²
Ġkter Ã¡
Ġmeg fe
Ġos Ã³b
Ġca p
ĠJe hova
ĠB at
t je
Ġan nÃ©e
Ïĩ Î¸Î·ÎºÎµ
ÏģÎ³ Î¿Ïħ
Î¤ Î¡
chw il
f arÃ«
Ġu t
th atÃ³
ĠKo Å¡i
ka z
Ġjwa lo
di ta
cue il
ggi or
Å« ras
ĠÏĪ ÏħÏĩ
Ġni d
Ġinc lu
an ts
Ġd ÃŃ
Ġt Ã½m
den ti
Ġto vÃ¡bb
ĠÕ ·
Ġk ÉĻn
pa l
Ġorg ani
bi de
Ã İ
Ġlá» Ľ
ĠÃ© tu
Ġla yi
isu us
Îķ Îł
ou se
ĠÎ±ÏĢÎ¿ ÏĥÏĦÎ¿
ĠÎ¤Î¿ÏĢ Î¹ÎºÎ®
Ġmyn d
Ġsz ÃŃn
ĠTÃ¼r ki
rit ur
Ã¦ l
Ġl Ã¡t
Ġsa ya
Ġdi fer
ja i
Ġn Ã¼
Ġcon c
ĠWar sza
c Äħ
Ġse ba
Ġy Ä±l
tel lt
mb Ã«
Ġm ÉĻk
Ã¡ le
Ġbeau coup
Ġzu en
Ã³ gy
tun k
g lÄħ
Ġre i
Ġla k
nia dau
Ġre pr
cz u
Õ« ÖĢ
c Ã¼
ĠÏħÏĢÎ¿ ÏĥÏĦÎ·
ĠÏĥÏħÎ½ ÏĦÎ±
ĠÎĳ Ïģ
ĠÎºÎ± ÏĦÎ±Î½
ĠÏĦÎ±Î¹Î½ Î¯Î±
ĠÏĢ Î¿Ïį
ÏħÎ½ Î±Î¹
ĠÎµÎ½Î·Î¼Îµ ÏģÏī
ĠÎ£Ïħ Î½Îµ
Ġhe b
tÃ© ben
Ġa ina
Ġtie Å¾
Ġmu cho
ka mi
Ġpe tit
Ġfam il
Ġph Ã¡t
c sa
Ġp ia
k Äģs
Ġi hr
Ġp Ãµ
ti j
Ġl ÃŃ
n ement
Ġaz i
mÉĻ s
Ġma hdoll
Ġt ych
ĠC F
Ïĩ Î½Î·
0 7
ĠÎ¼Î± Î³
ĠÎµÏĢ ÎµÎ½
ĠA th
ĠÎŁÎ´Î·Î³ Î¯ÎµÏĤ
ĠÎ±Î½Îµ Î¾
Ġys tod
Ġmia tt
ĠkÃ« saj
Ġal tri
ĠÄĮ es
pra v
Ġel ler
ĠG ran
n Äģ
Õ«Õ ½
ĠqÉĻb ul
Ġk le
tswe ng
el les
Ġh erÃ«
cel ona
Ġtraba jo
ÅĤ Ã³w
Ġren contre
ĠbÃ½ t
er to
x alq
Ġfran Ã§a
Ġsp rzeda
qui er
ĠBudap est
Ġcs alÃ¡
g ro
Ġpro ie
Ġse ura
ty re
lu tion
y Ä±
gi le
b our
Ġlie to
Ġáº¹á¹£á»į awá»įn
Ġw tlocale
Ġtáº¹mp li
Ġtáº¹ lif
Ġtr ial
Ġti le
ĠX P
ĠÎĮ Î»ÎµÏĤ
ĠÎºÎ±ÏĦÎ± Î½Î±
ĠÎ±ÏħÏĦÎ¿ÎºÎ¯Î½Î· ÏĦÎ¿
ĠF L
Ð½ Ð¸
Î½Î¿Î¹ Ïĩ
ĠÎľÎ±ÎĲ Î¿Ïħ
ĠÎĳÎ½ ÏĦÎ¹
ĠÎ¼Î¿Ïģ ÏĨÎ®
ĠÎº ÏģÏį
ĠÎµÏĢÎ¹ Î»Î¿Î³ÎŃÏĤ
ĠÎµÎº ÏĦÎµ
ĠÎ´Î¹Î±Î¸ÎŃ ÏĥÎ¹
] ]
ĠÎŁÎ»Ïħ Î¼ÏĢÎ¹Î±
lia dau
ti ge
ta ment
Ġs rcid
Ġrá»į po
Ġr hi
Ġm erin
Ġaiá¹£e dede
ĠOwa lá»į
ĠLa st
ĠC ont
Ġ12 5
ä¸ ĩ
ÙĦ Ø§
tori al
tal ya
ta ÅŁ
mi de
in á»į
de ede
be ti
aa le
Ġpass word
Ġose re
Ġmas á»į
Ġiá¹£a ju
Ġgb owo
Ġak ara
ĠTe am
ĠStan d
ĠP ers
ĠOlu á¹£e
ĠNa do
ĠF O
ĠBa ck
Ð¾ ÑĢ
Ë ¬
th i
p ir
as iláº¹
Ħ à¸£
Ġå ĵ
Ġolu kopa
Ġma jáº¹
Ġm une
Ġg Ãłn
Ġdi dan
Ġape re
Ġa anu
Ġ] ,
ĠD emo
ĠAssocia tion
k Ã©sz
çī ©
ç¾ İ
len u
gbá»į rá»į
gb i
f ini
Ġh uo
du le
Ġà²ª à³įà²°
Ġyan ilenu
Ġsho t
Ġro bo
Ġpenu kundo
Ġopo lo
ya ge
Ġolo pa
as cÄĥ
Æı R
Ø§Ø ±
ĠmÉĻs ÉĻlÉĻ
Ã¼ tt
Äģ t
Ġni yáº¹n
Ġláº¹n dá»į
Ġki chen
Ġid an
Ġz ar
Ġi kawe
qti sa
ces o
Ġa danwo
ĠS el
ĠIgb esáº¹
Ġ??????? ?
ç« Ļ
áº¹nu má»į
ro p
r isti
pp y
Ġï¿½ï¿½ï¿½ï¿½ï¿½ï¿½ï¿½ï¿½ï¿½ï¿½ï¿½ï¿½ ï¿½ï¿½
Ġá»įmá»į binrin
Ġom iran
Ġjijá»į ho
Ġj iroro
Ġiko re
Ġho t
Ġgbá»į á¹£i
Ġdu páº¹
ĠSp orts
ĠPro file
ĠMana ger
ĠMan chester
ĠE e
ĠB ox
ĠAn talya
Ġ3F do
Ġ3Fdo cid
Ġ3 DE
ăă ăă
è ³
çŃ ī
æ ¯
å® ŀ
à² ¯
tsa pp
p onu
k owe
esi mesi
88 8
Ĳ n
Ġå ī
Ġsá»įn u
Ġoyi mbo
Ġlai páº¹
Ġkáº¹dáº¹ dile
Ġini á»įvo
Ġg t
Ġfi re
Ġfa ctory
ĠYORU BA
ĠU P
ĠTo ken
ĠNi bo
ĠLa ke
ĠI C
ĠBa bil
ĠB or
Ġ3DE G
Ç Ĳn
© ï¼
th y
sh ing
o ku
má»į láº¹
má»į kunrin
ma tic
is ts
10 6
Ĥ à¤
ĠÃł dÃ¡nÃ¹
Ġyum bui
Ġt ori
ha sz
áº£ m
Ġigbo ya
Ġb Ã¡
Ġr ÉĻh
tet te
Ġur Äį
yn ÉĻl
ĠdaÅ¾ Äģ
z zi
Ġtan to
Ġtoi mi
li tate
Ġt ento
Ġnaj lep
Ġci lat
ĠÎºÎ¬Î½ ÎµÎ¹ÏĤ
ĠÎ¸ÎŃ Î±
ĠÎµÎ¹Î´ Î¹ÎºÎ¬
ĠÏĢÎµÏģÎ¹ ÎŃ
ÏĦÎµÎ¯ ÏĦÎ±Î¹
f le
ĠÉĻ mÉĻk
Ġc it
Õ¡Õ ¤
ili k
isi in
Ġa mit
be zpie
fa hr
Ġcam bi
Ġv ille
Ġcont inu
Ġa nh
ÅĻ enÃŃ
on te
Ġora ng
Ġg dzie
Ġst ran
Ġfie care
Ġx idmÉĻt
e ft
les zt
ĠlehetÅĳ sÃ©g
eri i
Ġen s
Ġne z
i ÃŁ
ĠÏħÏĢÎ¿Ïĩ ÏģÎµ
ĠÎ½ Î¯ÎºÎ·
ĠÎ±Î½Î¬Î³Îº Î·
ÎºÎ¿ Î»Î¿Ïį
Îº Î¯
Î±Ïģ Î¹Î±Ïĥ
Î±Î» ÏĮ
ĠY r
cu er
Ġle kan
Ġc áº§n
Ġ ÏģÎ¯
ÏģÎ¹ ÏĥÎµ
dia eth
Ġp Ã¤
Ġre pre
ĠEl s
" "
ÄĻdz y
Ġin formÄģ
Ġl Ã«
Ġdan Ä±ÅŁ
Ġchi cas
Ġcom ple
Ġmon d
ĠE iro
ĠÏĩ Î±Ïģ
ĠÏĢÎ¿ Î¹Î¿
ĠÏĢÎµÏģÎ¯ Î¿Î´Î¿
ĠÎī ÏĦÎ±Î½
ĠÎ¼ÏĢÎ¿ÏģÎ¿Ïį Î¼Îµ
ĠÎµÎ¾ Î±Ïĥ
ĠÎ¥ ÏĢÎ¿ÏħÏģÎ³
Îº ÏĦÎ¹ÎºÏĮ
ĠÎ´Î¹Î±Î¸ÎŃ ÏĦÎµÎ¹
Ïį Î¼Î±ÏĦÎ±
ĠÎ±ÏħÏĦÎ¿ Î¯
Ġjp g
ĠÎĹ Î½Ïī
ĠÎµÏģÎ³ Î¿
ÎµÎ¹ ÎµÏĤ
ĠÎŃ Î´Ïī
ĠÎ¼Î¬ ÏĦÎ¹Î±
ÏģÎ® ÏĥÎµÎ¹
han ol
Ġhy vÃ¤
Ġpo ve
ĠAzÉĻrbaycan da
Õ¶ Õ¥ÖĢÕ¨
Ġq Ä±z
der a
us es
y le
Ġd ÅĤu
ynÉĻl xalq
n ung
o bb
be di
Ġpri mer
Ġvje Ã§
Ġny t
Ġe ing
ta vo
Ġya ÅŁ
ĠmÃ«n yrÃ«
it ta
ĠGa y
Ġp Ã¢nÄĥ
tÃ© e
jÃº ce
ĠW ire
ĠPh ili
ĠO ye
Ġnie z
Ġtr Æ°á»Ľc
ĠK al
ĠDu tch
ĠDi po
ĠD istri
ĠColle ge
ĠCent er
ĠAf owo
Ø °
Ð½ Ð¾
ĠØ¹ ÙĦ
Ġwa a
Ġt yi
Ġni pinláº¹
Ġni láº¹
Ġmu q
Ġm oney
Ġla rin
Ġjáº¹ ri
ov Ã¡nÃŃ
ĠszÃ¡m Ã¡ra
Ġelo miran
Ġe mu
Ġbur andi
ĠUni on
s y
ÄŁ un
ĠT om
ĠN gba
ĠGbi yanju
ĠE ti
ĠE qui
ĠBa by
ĠB os
é ¡
Ã¬ yÃłn
v os
Ïĩ ÏİÎ½
Î¶ ÏĮÎ½
ĠÎºÎ±ÏĦÎ¬ Î»Î»Î·
ĠÏĥÏĦÎ± Î¸
Îº ÏĦÎ¿
gy l
Å¾ a
Ġi li
Ġcon na
Ġas em
ĠÅ »
ĠDeuts ch
Ġdur ante
Ġp owo
AAAA AAAA
ĠÏĥÏį Î½Î¿
ĠÏĥÏħÎ½ Î´ÎŃ
ĠÎļ Îĳ
Ġara ll
ng en
Ġhozz Ã¡
e tan
Ġyara dÄ±
Äį ne
Ġes z
tÃ« t
nh e
a z
b iso
ĠfÉĻali yyÉĻt
Ġrecher che
Ġko lej
v Ã¤Ã¤
ĠS carpe
si mo
Ġf ÄĥrÄĥ
Ġcon se
Ġlav oro
ÃŃt Ã¡sa
ĠÅ¡ Ä·
Ġp on
Ġsho q
cia le
Ġil k
ĠW ie
Ġnouve au
Ġmere ka
Ġl isebelisoa
Ġmai kutlo
ke a
Ġf our
ur ch
v s
oun tain
o le
le ra
Ġnue vo
ÏĢ Î¹Î±
Y R
Ġ5 J
Ġ ÏģÏī
× ©
Î¿Î¹ ÏģÎ±
Îº ÏīÎ½
ĠÏĦÎ± ÏĩÏį
ĠÎĽ Î¯
ĠÎĳÎł ÎŁ
ÏĦÎ® ÏĦÏīÎ½
Î¤ ÎĹÎ£
Jh bm
ĠÏĩÏģÎ® ÏĥÏĦÎ·
ĠÏĢÎ»Î® ÏģÏīÏĤ
ĠÎ»ÎµÏĢ ÏĦÎ¿
Ġho ll
mi entos
Ġn tlo
Ġm unk
ĠÂ ¶
Ã³ a
gbáº¹ run
bu lu
ba se
Ġtáº¹lif isiá»įnu
Ġti tle
Ġolu dasile
Ġláº¹sáº¹ sáº¹
Ġlor iláº¹
Ġli zá»įnyizá»įn
Ġho didá»į
Ġfoonu iyara
Ġdá»į la
Ġdi dá»į
Ġdes i
Ġbo jumu
Ġatupa le
Ġar aráº¹
Ġadu gbo
Ġaa go
Ã¼l Åĳ
cz nego
ĠBa e
ĠTai wan
ĠS ti
ĠM D
ĠI hinrere
ĠF C
åĬ ¨
tá»įwá»į dÃ¡
tt on
ká»į bu
ja h
d ra
110 3
Ĥ à¹ī
Ġyu won
Ġyem be
Ġigb eraga
Ġfun 123
Ġaf anumáº¹
ĠS pan
ĠMo vies
ĠM áº¸
ĠID A
ĠGre y
ĠE ski
ĠAfowo yi
ĠAb dul
z mir
y el
táº¹n máº¹
s na
il break
H U
ĠÃł tá»įwá»įdÃ¡
Ġwa ini
Ġti ye
Ġná»į gbÃ¨Ì£
Ġiya soto
Ġh osá»į
Ġban ki
Ġaá¹£ ÃłwÃ¡kiri
Ġad ani
ĠOse lu
ĠL ow
ĠKi m
ĠJa ká»įbu
ĠIda hun
ĠHa usa
ĠDara dara
ĠAye baye
Ġ19 99
Ġ12 8
ć ć
ï½ ı
ï¼ ¥
è Ī
ç ¨
ç ¥
æľ Ģ
å £
páº¹ láº¹
m ÉĶ
lá»į lá»į
ki di
ir t
ON I
L D
Ġwor ld
Ġol d
Ġnis isiyi
Ġme tal
Ġimudara si
Ġam beni
ĠY ellow
ĠO m
ĠMana gement
ĠKa ys
ĠIn dian
es se
ĠGu jarati
ĠB ou
ĠAbra ham
Ġ3 60
Ġ19 98
Ø µ
pos it
eri an
ba si
T V
ŀ ĭ
Ġâ ĺ
Ġzi p
Ġtodi do
Ġoniro yin
Ġng i
Ġháº¹n nu
Ġdes ign
Ġdara po
Ġno teik
Ġan e
Ġab Ã¢
ĠWat ch
ĠW S
ĠV illa
ĠS w
Ġspo lu
ĠRom an
ĠMor ena
éĿ ¢
æĿ ¥
æ¸ ¸
æ Ħ
ä¿ ¡
à²¿ à²ķ
v isunnu
ki kan
isi ki
gi an
esh me
Ġâ Ļ
Ġyáº¹whe gÃ¡n
Ġw ere
Ġtu be
Ġro godo
Ġre yá»į
Ġr ise
Ġnduk win
Ġlo jiji
Ġká»į lu
Ġvala mint
Ġkeji la
Ġjin na
Ġiká»į lu
Ġfun 2424
Ġdun ia
Ġch en
Ġc odes
Ġboo lu
h iso
Ġatáº¹ jade
Ġaba wá»įn
ĠV iet
ĠThai land
lÉĻr indÉĻ
Ġdi m
Ġswo je
ĠNáº¹ tiwá»įki
ĠNet work
ĠIfi weraná¹£áº¹
ĠG ulf
ĠE he
Ġ ä½
to nga
p ing
ov ern
Ġr ov
m á»įna
L L
Ġå ¾
ĠâĤ º
Ġwit hout
Ġoo já»į
Ġle ke
Ġkin kan
Ġikun a
Ġijo mitoro
Ġibanu je
Ġgan ji
Ġex a
Ġcrypto currency
Ġako jo
ĠW hen
ĠT our
ĠPortu gu
ĠOs Ã©Ì£n
ĠIsra el
ĠFá»į to
ĠDi os
ĠD eni
ĠChr ist
ĠA lu
èĢ ħ
ç Ħ
æ ģ
ãĤ ¿
à¸²à¸ ĩ
à¸ Ĺ
m á»įn
ler s
la ni
ká»į ká»į
g g
, \"
ĠâĤ ¹
Ġá»į gbáº¹
Ġá¹£a ja
Ġpos ts
Ġph one
Ġnu má»įtolanmáº¹
Ġlodo dun
Ġki ko
Ġijá»į sin
ĠKo ko
ĠJ am
ĠG an
ĠCrea tive
ĠA run
Ġ ãģ«
Ð ·
wh Ãłn
ms u
eth er
e á¹£e
d áº¹n
cal ly
20 18
Ġwhenu ena
Ġv s
Ġer á»įnvwá»įn
Ġe bu
Ġbe ts
ĠS hop
ĠMe xi
ĠL á»Į
ĠI báº¹ráº¹
ĠH il
ĠG O
ĠF ire
ĠBr own
ĠAko já»į
ĠAir port
ĠA á¹£áº¹
Ġ% .
Ġ uru
å· ¥
à¸² à¸£
³ »
y lá»į
ti sh
lar es
k Ã¹n
Ġdav am
mu s
wi ÄĻk
ĠrÃ©g i
j on
ma le
ci miento
Å¡ enÃŃ
Î¼ Î¹ÎºÎ®
Î¹Îº Î¿Î½
ĠÎ¹ ÎºÎ±Î½
ĠÎķ Î½Î·
ĠÎ¼ÏĢÎ¿ ÏģÏİ
Î¸ ÎµÏĤ
Î¡ÎĻ Îĸ
ĠÎº ÎŃÏģ
ĠÎµÎ½ ÏĦÏħÏĢÏī
Î¼Î¬ ÏĤ
Î»Î± Î²
ĠÏĢÏģÎ±Î³Î¼Î± ÏĦÎ¹ÎºÏĮÏĦÎ·ÏĦÎ±
ĠÎĻÎ±Î½Î¿Ïħ Î±ÏģÎ¯Î¿Ïħ
ĠÎ¿ Î½Î¿Î¼Î±
ĠÎµÎ¹Ïĥ Î±
ĠÎ²ÏģÎ¯ÏĥÎº Î¿Î½ÏĦÎ±Î¹
Î» Î»Î¿Î³
ĠÏĥÎº Î·Î½
ĠÏĢÏģÎ¿ ÏĥÎ±
ĠÎ½ Î¹Ïİ
ĠÎ» Î®
Ġ| |
â Ĥ
ĠÏĢ Î¹Î¬
ĠÎĿÎ¿Îµ Î¼Î²ÏģÎ¯Î¿Ïħ
li d
Ġnh áºŃn
Ġjoalo ka
Ġbo leng
ĠÎŃÏģÎµ ÏħÎ½Î±
ĠJ ones
ÏĦÏħ ÏĢ
g len
kie j
ĠOd pove
Ġv Ã¡m
Ġba se
lÉĻr dÉĻn
" ,
Ġ× ľ
ĠÏĦÎ¿ Î¼ÎŃ
ĠÎ¬Î½Î¸ÏģÏī ÏĢÎ¿ÏĤ
ï »
Ïĥ Î±ÏĤ
ne wid
ĠÎĴ ÎµÎ»
ĠÎ¼ÎµÏĦÎ±ÏĨÏģÎ¬ ÏĥÏĦÎ·ÎºÎµ
ĠÎµÏĢ Î±Î½
edla ethol
Ġvit in
ha hun
ch ua
00 1
ĠâĹ ı
Ġà²¸à²° à²ķà²¾à²°à²¿
Ġyiyi zan
Ġwi wÃł
Ġuy ono
Ġt ani
Ġs Ã¨Ì£
Ġm oriwu
Ġimu se
Ġigbi mo
Ġhi hÃ³Ì£
Ġgb u
Ġy ri
an eng
Ġetáº¹ wáº¹
ĠTa p
ĠStu dio
ĠQue en
ĠN ga
ĠKays eri
ĠIma ge
ĠH as
ĠA YE
Ġ? âĢĻ
éĸ¢ ãģĻãĤĭ
è ²
á»įn ju
á¹£ Ãł
ĠF atÄĥ
Ġin tr
Ġm Äĵs
lica ÈĽii
da Å¥
ĠC over
h are
Ġp el
Ġju de
34 1
ĠÎŁÎ¹ÎºÎ¿ Î½Î¿Î¼
ĠÎºÎ±Î¹ ÏģÏĮ
ĠÎ´Ïį Ïĥ
Î»Î¿Î³ Î¯Î±ÏĤ
Î³Î¿ ÏĤ
ch rau
Å¡ ia
ĠSi te
Ġs cr
ĠP ie
Ġgy er
em mes
Ġma m
Ġw p
ĠÕ¡Õ ¼
larÄ±n da
Ġkdy Å¾
Ġv Äģr
ĠP as
so ngi
s is
p ers
kan i
jáº¹ gbonu
I mg
Ġáº¹ kun
Ġh igh
ĠW il
ĠSwa hili
ĠSamu songi
ĠMa in
ĠM el
ĠImu dara
ĠF ish
ĠAra binrin
Ġ. âĢĭâĢĶ
Ġ ä¹
æ ¦Ĥ
à «
Ð¾Ð ¼
um bu
pi ti
p ara
i ja
AN A
Ġï¿½ï¿½ï¿½ï¿½ï¿½ï¿½ ,
Ġãģ« éĸ¢ãģĻãĤĭ
Ġá»į san
Ġà¤¹ à¤¿à¤
ĠÃł ká»įsÃŃláº¹
ci le
ĠK Ã¶
Ġisi yi
Ġgbe kele
Ġayo kele
ch el
Ġagbáº¹ já»įro
ĠSi m
ĠPak istan
Ġv isz
ĠE LE
ĠChristi an
ĠA je
é £
á»į dun
s ung
pu t
lá»į su
le ase
ho pá»įnna
f il
F i
E ye
ĠæĪ ĳ
Ġsá»į kaláº¹
Ġsi máº¹nti
Ġpáº¹láº¹ páº¹láº¹
Ġo ther
Ġn pa
Ġmbe le
Ġja ilbreak
Ġiye meji
Ġi wá»įle
Ġhack s
ĠV an
ĠM ilionu
ĠKr sna
ĠIsa ia
ĠE gba
Ġ19 96
Ġ. -
èĩ ª
à¥ ĭ
y Ã³Ì£n
ku la
c ent
a dura
D U
200 4
Ġá¹£i á¹£
Ġwháº¹ po
Ġse tiri
Ġsa êŀĮa
Ġpáº¹ ki
Ġop li
Ġon ká»įwe
Ġngu êŀĮ
Ġkutu kutu
Ġiko já»įpá»į
Ġho dá»į
Ġgbowo lori
Ġee ka
Ġawo táº¹láº¹
Ġate jade
Ġaso fin
Ġafáº¹ de
ĠV C
ĠSpa ce
ĠS ong
ĠO na
ĠN O
ĠK ame
ĠF oju
ĠF ara
ĠC ze
ĠAla gba
Ġ13 0
à¦ ¾
à¤ ¬
wi msu
we e
tho r
isa do
cha nge
ber o
EN T
Ġá»į tá»į
Ġà¸ Ħ
ĠÃłká»į á»įláº¹
Ġs at
Ġpáº¹ki páº¹
Ġpáº¹kipáº¹ ki
Ġo ga
Ġker áº¹
Ġkanwe ko
Ġido ti
Ġho ho
Ġh Ã²
Ġh d
Ġco in
Ġb ru
Ġa á¹£e
ĠT HE
ĠSamu áº¹li
ĠR onal
ĠO run
ĠNi t
ĠNAB Show
ĠN je
ĠN J
ĠM ara
ĠI mo
ĠH en
ĠFa ir
ĠEyi keyi
ĠElect r
ĠE k
èµ Ħ
æ Ĵ
à²°à²¿ à²¯
à²® à²¿à²ķ
rá»į ÌĢ
ĠÎºÎ±Î»ÏįÏĦÎµ ÏģÎµÏĤ
ĠÎ±ÏĢÎ±ÏģÎ± Î¯ÏĦÎ·
ĠÎ± ÏĤ
Ġde fnyddio
po lo
Ġna hi
Ġol dal
Ġpr Ã¡c
Ġi lyen
Ġen vir
Ġpo tom
Ġs elle
Ġk ÃŃv
jÄĻ cia
Ġqui en
Ġy li
Ġpro do
Ġlile mo
ĠÄĳ Ã¢y
nÄĽ jÅ¡ÃŃ
Ġr ena
ĠH ona
Ġli hlahisoa
Ġjo ang
Ġbolo ka
ĠgÅĤ Ã³w
Ġda ll
Ġtla se
p tul
Ġsp Ã´so
Ġc ÃŃm
us am
tei x
n Ã©l
ÅĤa w
ĠÎķ Î³
ĠÎ£ Î·
ÏĦÎ¯ Î¸Îµ
Ïĥ ÎºÎ±
ĠÏĢÏģÎ¿ÏĥÏĢÎ¬ Î¸ÎµÎ¹Î±
ĠÎĽ Î¹
ĠÎµÎ¾ Î¿Ïħ
ÎŃÏģ ÏīÎ½
ĠÎ¾ÎŃ ÏģÏī
Ġtr wy
bi or
tori i
ba pi
pe d
pa gbe
lite ji
end s
di yan
ma is
Ġsa x
Y AN
AS O
Ġæ µ
Ġáº¹ rÃº
ĠÅĭ ga
Ġwh la
Ġvla vo
Ġpin am
Ġo kunrin
ĠH and
Ġni fe
Ġm Ãº
Ã ķ
Ġn Ãło
Ġn ell
Ġap pr
Ġpro to
ni ÄĻ
tor ul
Ġcu enta
t Ä±r
Ġaki k
Ġsi pas
au f
Ġithu ta
lar la
Ġpal Ä«dz
la v
Ïį ÏĥÎ·
ÏĨ Î¯Î±
Î¸ ÏīÏĤ
ĠS ir
ÏĦÎ¹ÎºÎŃ ÏĦÎµÏĤ
ĠÏĢÎ¿ Ïĥ
ĠÎº ÏģÎŃ
ĠÎµÏĢÎ¹ ÏĦÏģÎŃ
ÏģÎ¿Î½ ÏĦÎ¯
Î¼ÏĮ ÏĦÎ·ÏĦÎ±
Î² Î¿Ïį
gr oup
ĠÏĥÏĦÎ± Î¼Î±
ĠÎĶ ÎĹÎľ
Î»Î± Ïį
........ ........
Ġim g
ĠÏĢÏģÎ¬ Î³Î¼Î±
ĠÏĢÎ¿Î¹ ÏĮÏĦÎ·ÏĦÎ±
ĠÎł ÎŁÎĽ
ĠÎĶ Î¹Î¬
ĠÎ»Î± Î¼Î²
ÏĩÏģÎ¿ Î½Î±
ÏĥÏĦÎ® ÏģÎ¹
Î¿Ïį ÏĥÏĦÎ¿Ïħ
di au
ĠL and
Ġmen os
Ġkaik ki
Ġka Å¾d
Ġko hÃ«
Ġsz yb
Ġla kue
Ġji Ã±aêŀĮa
Ġipa sáº¹
Ġdi bo
Ġaw h
Ġa jáº¹
Ġce t
ĠSam sun
ĠRa w
ĠJo a
ĠIndust ry
ĠEski ÅŁehir
ĠCa ble
ĠB ru
ĠB ABA
ĠAso pá»į
ĠA be
ĠtÃ¡ mo
Ġ, âĢĻ
é Ĵ
æ±Ĥ äºº
à²¾à² ¥
à²¾à²¥ à²®à²¿à²ķ
us tom
ti ti
o tá»į
mb Ãł
Ġz iren
turi le
las tic
is it
ir uo
ine d
g ara
es á»į
V E
C om
Ġwa y
Ġvu de
Ġma lu
Ġla nguage
Ġká»įn dopá»į
Ġgirl s
Ġgba jumá»į
Ġdo cid
Ġa ran
ĠTur ki
ĠR p
ĠQue chua
ĠP lat
ĠKo re
ĠI fáº¹
ĠI G
ĠI F
ĠH ong
à §
x el
um an
ma si
c ted
c ol
P P
Ġà²ªà³įà²° à²¾à²¥à²®à²¿à²ķ
Ġst ra
Ġs tu
Ġpa po
Ġnu go
Ġhu k
Ġb 3
Ġaa la
ĠMu q
ĠM una
ĠG et
ĠAbu ja
ĠAami Eye
Ð° Ðº
paÃ± ol
p eri
ma du
láº¹ ngÃ¡n
k h
gin al
cu iêŀĮ
Ġá»Į ti
Ġzáº¹áº¹máº¹ do
Ġt oun
Ġmáº¹ susu
Ġmo vies
Ġlá»į já»į
Ġki k
Ġdo táº¹nmáº¹
ĠS QL
ĠJe an
ĠJa de
ĠI ke
ĠI b
ĠCo de
ĠCh el
Ġ2018 å¹´
Ġ/ /
åĵģ çīĮ
å ģ
Ã§a is
y Ã¬
Ġje u
mi la
ka ye
gbá»įrá»į sá»į
dis play
b áº¹n
a kuáº¹
_ display
M G
AR E
Ġé Ģ
Ġå ¹
Ġáº¹ ro
Ġá¹£a á¹£eyá»įri
ĠÙ Ĥ
ĠØ ±
Ġwa zÃ³Ì£n
Ġpreroll _mp4
Ġpreroll SkipTimer
Ġpreroll GotoLink
Ġpostroll _mp4
Ġpostroll SkipTimer
Ġpostroll GotoLink
ĠpopupAd St
ĠpopupAdSt art
ĠpopupAdStart Time
Ġpopup Img
Ġp q
Ġoju lowo
ĠmidrollAD _display
ĠmidrollAD_display Time
Ġmidroll _mp4
Ġmidroll SkipTimer
Ġmidroll GotoLink
Ġma á¹£e
Ġiá¹£e eá¹£e
Ġiwo ngba
Ġibi kan
lu q
ĠÎ½ ÏįÏĩ
ÏģÎ¿Ïį ÏĤ
ÏģÎ· ÏĥÎµ
Î¹Ïĥ ÏĦÎ¿ÏįÎ½
ili o
Ġn Äĥng
Ġi go
Ġfáº¹ áº¹
Ġbo tiláº¹jáº¹pe
ĠS ki
ĠO yo
ĠDia mond
ï¼Į ãĢĳãĢĲ
ç ĥ
æĹ ı
æ±Ĥäºº æĥħåł±
åĪ °
vi vi
ti si
p it
o p
lá»į kan
gi ng
do i
c il
a ta
A pp
Ġæ ī
ĠãĢĳãĢĲ ï¼ĮãĢĳãĢĲ
Ġá»į wá»įn
ĠÐ¿ ÑĢ
Ġta ko
uss ures
Ġqu and
Äı a
Ġsa ve
Ġnu d
ĠlÃ£ rin
Ġka dara
Ġif á»įkan
Ġalum á»įni
ĠV ie
ĠMáº¹ máº¹
ĠK ra
é ķ
åĨ ħ
oo á¹£u
Ġá»Į wá»į
Ġplus ieurs
Ġyin yá»įnáº¹n
Ġvie w
Ġso koto
Ġsini ma
ge t
Ġnu hahun
Ġn ow
Ġip aniyan
ĠY our
ĠStand ard
ĠGol den
ĠDol l
ĠDire ctor
ĠAzerba ij
ĠAr sen
ĠAb la
Ġ10 5
Ġ ćĈ
á ŀ
Ùĥ Ùħ
pu d
ona te
láº¹n da
lin t
káº¹ cha
hu a
gba gbo
ba laba
a fin
To Link
ON A
Go ToLink
Ġy ori
Ġtra in
Ġti ps
Ġte mi
Ġta wá»įn
Ġsp y
Ġná»į visunnu
Ġn so
Ġjin de
Ġg ar
Ġe egun
Ġa do
ĠW áº¹
ĠT U
ĠSu pp
ĠOr isirisi
ĠO di
ĠMan ia
ĠL I
ĠAbla ham
æ¦Ĥ è¦ģ
æ º
à¸¡ à¸
w ÉĶ
me dia
isado de
in ts
i ti
Ġæ İ
Ġáº¸ni káº¹ni
Ġz á»įn
Ġyi ylá»į
Ġy ÉĶn
ĠpopupAd GoToLink
ĠpopupAd E
ĠpopupAdE nd
ĠpopupAdEnd Time
Ġo á¹£
Ġni pá»įn
Ġma ke
Ġko lu
Ġk now
Ġitáº¹ siwaju
Ġgem s
Ġdi an
Ġa yinamáº¹
ĠS tra
ĠR ome
ĠR en
ĠI daraya
ĠD ar
ĠBu lu
ĠAr t
won si
kidi jagan
k es
it es
is ter
gb erun
Ġā ą
ĠÃµ rÃ¹n
Ġs quare
Ġres ources
Ġo bá»į
Ġnukun dagbe
Ġma ma
Ġigbe kele
Ġgu ide
Ġc r
Ġap ani
Ġa lara
ĠSto ck
ĠR UB
ĠIta lian
ĠI do
ĠH ara
ĠEng land
ĠCze ch
ĠCr oss
ĠCle ar
éĩ Į
è ·
åı ¯
ä»£ çłģ
Ë ĩ
val s
tic al
ma te
es ara
B E
ĠÂ³ -
Ġy Ã¬n
tÃ© t
Õ¾ Õ¡Õ®
lÄ± dÄ±r
Ġw el
Ġoru ka
Ġitu paláº¹
Ġi jade
Ġg ames
Ġay er
ĠawhÃłn fun
ĠTimo ti
ĠMo vie
ĠA papá»į
Ġ Ø§
ï½ ĵ
Ð°Ð ·
ÉĽ rÉĽ
yel Ã©
wá»į rá»į
wá»į lu
ni fic
k po
i ki
b ari
a v
Buy Buy
Ł ¥
Ġá»į ya
ĠÐ ·
Ġwh Ãłn
Ġtitáº¹ si
Ġn jáº¹
Ġj Ã¹
Ã¡ci u
lo k
wa ng
ĠP L
Å¼e j
Ġt Æ°
Ġb Å«t
ne d
Ġsz Ã¡
Ġne Å¾
ħ ÖĢ
Ä±lÄ± b
Ġpo da
lÄ± ÄŁÄ±
Ġsz Ã¡ll
Ġza w
Ġz m
lu a
Ġm áº·t
ko t
b nÃ©
Ġan ys
Jhbm Q
ĠÏĥÏħ Î¶Î·
ĠÎĻ Î½
ĠÎ¿ Î¸ÏĮ
ĠÎ¾Îµ ÏĩÏī
ĠÎ¼Îµ Î»ÎŃ
) ,
ĠYn JhbmQ
ÏĮ ÏĦÎ±
Î»Î· ÏĪÎ·
ĠÎľÏĢÎ¿ ÏģÎµÎ¯ÏĦÎµ
ĠÎļÎ¬Î½ ÏĦÎµ
ĠÎĶÎµ ÎºÎµ
ĠÎµÎºÎµÎ¯ Î½Î·
ĠÎ²Î¹Î²Î»Î¯ Î¿
Ġpo bl
Ġper me
ĠN dÃ«r
ĠØ§ÙĦ Ùħ
Ġb iri
ni ca
Ġz as
Ã´ t
in ta
Ġqy tet
Ġn Ã¡m
Ġffor dd
Ġan ya
Ġza k
Ġno ast
Ġfáº¹láº¹ fáº¹láº¹
Ġd own
Ġa sia
Ġ] .
ĠSh are
ĠRail ways
ĠP ana
Ġac tu
I jo
ĠOd powie
Z X
Ã³ j
ĠP al
ĠKáº¹ já»į
ĠI ce
Ġar dh
éĽ Ĩ
åı ¸
å¾ Ĺ
à²¿ à²°à²¿à²¯
shi on
ri x
p ÃŃn
Ġa ÄŁ
Ã¡c s
Ġfi gy
tan ie
Ġte h
van ia
oot ball
máº¹ ji
mb ili
lou d
l Ãł
pu Ã©s
Ġcer ta
Ġb á»Ļ
ene a
on jÃ«
os Ã³b
Ġju ms
Ġon der
Ġs Ãµ
Ġsi tten
an ti
ĠiÅŁtira k
Î½Î¿ Î¼Î¬
Y N
ĠÏĨ ÏĮÏģ
ĠÏĥ ÎºÎ»Î·
ĠÎ´ÏįÎ½Î± Î¼Î·
ĠÏĥ ÎºÏĮ
ĠÎ© ÏĥÏĦÏĮÏĥÎ¿
ĠC L
Î»Îµ ÏĢ
ĠÎµÏį ÎºÎ¿Î»Î±
ĠRestaur ant
Î³ Î¹Î¬
Î® Î¼Î±ÏĦÎ±
Î® Î¸Î·ÎºÎµ
ĠÎ£ ÏĦÎ¹ÏĤ
ÎĻÎļ ÎŁ
B ox
ĠÎ¹ ÎºÎ±
Î¯Î¶ Î¿Î½ÏĦÎ±ÏĤ
ĠÏĥÎµ Î»Î¯Î´Î±
ĠÎµ Î»
ĠÎ³ÏħÎ½Î± Î¯ÎºÎ±
Î¯Î½ ÎµÏĦÎµ
uni o
sz ak
ck Ã½ch
r ÄĻ
ĠnÉĻ zÉĻr
ĠÏĪ Î®
ĠÏĢÏģÎ¿Î² Î»ÎŃ
ĠÏĢÎ»ÎµÏħ ÏģÎ¬
ĠÎł ÎĳÎ£
ĠÎ´ÎµÏįÏĦÎµ ÏģÎ¿
Ġr hyw
Ġav ut
Ġma dhe
Ġbei m
Ġmon na
ĠU na
Ġka e
Ġl isÃ¤
Ġvie tÄģ
ke ke
bi t
Ġáº¸ sáº¹
ĠÃ¬ r
li le
Ġh Ã¡z
Ġre g
tas un
Ð¸ ÑĤ
Â ·
ĠÎĳÏħÎ³ Î¿ÏįÏĥÏĦÎ¿Ïħ
ĠÎ¿Î¹ÎºÎ¿ Î³ÎŃÎ½Îµ
ĠÎ»Î¿Î³ Î±ÏģÎ¹Î±Ïĥ
Ġgwe ithio
Ġmo yen
Ġpod sta
Ġch áº¥t
Ġkh u
fo lo
Ġma jÄħ
Ġel Ã¤
Ġar ra
ya ta
Ġs Ã³n
ĠKin der
Ġka ma
ĠB M
Î½ ÏĦÎ¿
Y X
ĠÎµÎ½ ÏĦÏĮÏĤ
ĠÎŃ Î²
Ġse fyd
ĠDon na
tto re
Äį ek
Ġnek Äģ
Ġinforma ciÃ³n
la is
mo v
Ġt ÉĻr
Ã³ t
Ġinc ont
t ku
Ġwe iter
Ġpa ys
Ġr Äĥ
Ã³ lo
Ġgj y
Ġtloaele hileng
ĠT s
ve re
Ġdes arro
Ġgi bi
Ã©k en
Ġko ÅĦ
Ġse bele
to het
Ġan der
Ġle b
Ġan cora
Ġk iedy
Ġp se
Ġi ng
d hi
ĠE a
ge la
Ġko loi
Ġs vÃ©
cze j
ĠR Ã©sz
Ġbi z
mi en
ĠÃ¨ tÃ²
Î»Î· ÏĥÎ·
ĠÎ¹Î´Î¹ Ïī
ĠÎ´ ÏħÎ½Î¬
Ġlla wer
Ġpriv ind
dÄ± m
Ġde k
Ġv Ã¦re
Ġe chi
Ġhla v
Ô ±
Ã¼ su
I m
ĠNa j
ith u
he it
lu r
tak se
Ġsa jÃ¡t
ar Ãł
bie d
Ġke h
sz cz
ca te
Ġsh pre
Ġpin páº¹n
Ġpe háº¹
Ġmo juto
Ġmin isita
Ġ\" ,\"
ĠY O
ĠTIT UN
ĠRa dio
ĠR á»į
ĠP ese
ĠOl Ã¹
ĠpÅĻ es
pe la
Ġc en
ĠM oney
ĠM ega
ĠJ á»įn
ĠHD R
ĠAla ba
å® ¹
å® ¢
ur y
Ġc ul
gy en
oun dation
ik risti
fa cture
báº¹ wÃ²
ba ti
Ġà¸ Ĺ
Ġolu kuluku
Ġkor ira
Ġitáº¹wá»į gba
Ġbio tilejepe
ĠF Ã¼r
Õ ·
Ġap ar
Ġnh i
Ġg ere
Ġayer aye
Ġa ji
ĠWá»į le
ĠW ood
ĠPol y
ĠO su
Ġsi tÃ¤
Ġkh an
ha lang
ĠN Y
ĠH C
ĠBri tish
Ġsh tÃ«
Ġgad Äģ
ĠB re
ï¿½ï¿½ï¿½ï¿½ ï¿½
åĮ ĸ
åº ¦
ä¿ Ŀ
Ñ ħ
¥ ¿
mi má»į
láº¹ po
kun kun
di d
c ara
ara t
W á»Į
Ġé Ľ
Ġå Ī
Ġáº¹ wá»įn
Ġáº¹ gb
Ġy Ã¼ks
ĠÃ² ke
Ġw ÉĶ
Ġv 1
Ġma ta
Ġjáº¹ un
Ã©s t
Ġiá¹£ esi
Ġidun adura
Ġap eso
ĠUkra ine
ĠSpan ish
ĠSlo t
ĠR eg
ĠPH P
ĠJose ph
ĠItu má»į
ĠIr on
ĠH áº¹
ĠG ir
ĠChel sea
ĠC yr
ĠAnna bi
éħ į
çĽ ¸
åı £
t ara
n ers
ly wood
lo y
la di
ghwo ghwo
b we
0 9
Ġá»Į ke
ĠÄ° zmir
Ġsu per
Ġme lo
Ġlai le
Ġko be
Ġi ts
Ġgig Ã³Ì£
Ġfara má»į
Ġc asino
Ġb in
ĠW ell
ĠT C
ĠS aulu
ĠP hoto
ĠMáº¹ ta
ĠKá»į l
ĠH IV
ĠGeor ge
Ġ19 90
ä» ¬
ãģ Ħ
à¤ ķ
Ùĩ Ùħ
r or
pi tal
pa po
p ri
p art
n ÉĽ
lo run
laa si
ko la
ing s
hunsa fefe
f á»įn
di os
Ġï¼ ģ
Ġvi yá»įnnu
Ġtáº¹mp ili
Ġth an
Ġta len
Ġsisan wá»įle
Ġpor n
Ġn pÃ¨
Ġm bili
Ġlá»į tá»į
Ġlo j
Ġjá»į ba
Ġise re
Ġip á»įnju
Ġiká»į ja
Ġi lá»į
Ġgu usu
Ġwy st
Ġe du
Ġc ur
ĠS ol
ĠO u
ĠI pe
ĠF áº¹
ĠBe t
ĠB LO
ĠA te
ĠA go
ĠA di
Ġ- .
Ġ( )
ster dam
ru m
lai ti
j emu
ether lands
awu hia
Ġå Ľ
ĠâĢľ âĢĺ
ĠÙ ĥ
Ġto ki
Ġna wo
Ġn ran
Ġmbili mbili
Ġma do
Ġku xi
Ġku la
Ġit aniji
Ġhod Ã¨Ì£
ĠWi wá»įle
ĠTi keti
ĠSlo va
ĠRo bert
ĠRan ti
ĠC ell
ĠBar celona
è ¶
å §
à¸± à¸ª
à ®
Ú ©
we re
on to
li zed
la de
il á»įwá»į
ani an
ĠĈ Ĉ
Ġwh at
Ġmáº¹ áº¹
Ġláº¹ gbáº¹
Ġku ki
Ġk owe
Ġe ku
Ġcor onavirus
Ġburu ku
Ġbu lu
Ġbo ju
ĠRoya l
ĠPe lu
ĠO ff
ĠL yrics
ĠK ir
ĠC ur
Ćą ï¼Į
ç ±
æ ©
äº ĭ
á»įna má»įna
Ø ®
Ñ İ
ym an
ts u
ri al
le ry
k pá»į
iso de
ch ing
AN D
Ġá»į jÃł
c 3
ĠÏģÏĮ Î»Î¿
Ġchw arae
Å¾i Å¥
Ġáº¹n áº¹
Ġá¹¢a ja
Ġyáº¹whe ho
Ġyin ká»į
Ġsá»į awuhia
Ġru áº¹
Ġpi cs
Ġifá»į rá»į
Ġfun ÉĽ
Ġf t
Ġdoju ko
Ġada gun
ĠT al
ĠPar ty
ĠO ga
ĠNu gbo
ĠMe tal
ĠM us
ĠM p
ĠG U
ĠF lo
ĠAs s
Ġpo zy
æī Ģ
ä» ĸ
á¹£u a
mba bwe
ĠÕ« Õ¶
ÄŁ unu
la gbara
B ook
ĠâĦ ¢
Ġà¸ «
ĠØ Į
Ġud je
ĠsinsÃ¨Ì£n zá»įn
Ġs wimwear
Ġonija kidijagan
Ġon ÃŃ
Ġp Ã¡r
ĠÎ¼Î± Ïį
Ġal lan
Ġami kor
Ġd Ã«
je d
ĠÃ Ĭ
Ġnghiá»ĩ p
Ä Ģ
ga d
Ġsy stÃ©
Ġh in
Ġti r
Ġan no
pe c
ĠÃ ĵ
Ġxu áº¥t
Ġein es
ĠfÃ«mi jÃ«
ta ÅĤ
li ÅĽmy
b Äĥ
Ġne ja
Ġo lar
Å¾ o
lo re
ski ch
Ġl ina
hal oso
Ġc ours
fe la
× Ĺ
ÏĨÎŃ ÏģÎµÏĦÎ±Î¹
Î´ÎŃ ÏĩÎµÏĦÎ±Î¹
ĠÎĶÎµÎºÎµ Î¼Î²ÏģÎ¯Î¿Ïħ
ĠÎ¿ÏĢÎ¿Î¯ Î¿Î¹
ĠÎµÎºÎ±ÏĦÎ¿Î¼Î¼ ÏįÏģÎ¹Î±
ĠÎµ Î¼ÎµÎ¯ÏĤ
ĠÎ²Î»ÎŃ ÏĢ
ĠÎ±ÏįÎ¾Î· ÏĥÎ·
Ġhel pu
li g
Ġcon si
Ġlef atÅ¡e
Ġmona te
e tsa
Ġr od
sh k
dzÄ« vo
ÉĻ yy
Ġgo ba
kan e
Ġh isz
b lÃ©
Ġl Ã¶y
Ġolutá»į pa
Ġiá¹£ oogun
Ġigb an
Ġhun da
Ġfire emu
Ġex e
Ġdo alá»į
Ġbro ad
Ġaiá¹£e deede
Ġaf ara
ĠÏĥÏħÏĩÎ½ Î¬
ĠÎĶ Î¹Îº
ĠÎ¤ Î¿Î½
Ġb log
Ġ5 U
ĠÏĨÎ±Î³Î· ÏĦÏĮ
ĠÎĳ ÎºÏĮ
ĠÎ¦ÎµÎ²ÏģÎ¿Ïħ Î±ÏģÎ¯Î¿Ïħ
ĠM r
Ġtá» ±
Ġa arun
ĠT A
ĠSex y
ĠNE W
ĠJosáº¹ fu
ĠIdani laraya
ĠI k
ĠDre w
ĠD á»į
ĠC er
ĠAm sterdam
ĠF re
åı ĳ
å¼ Ģ
ãģ® ä¼ļç¤¾
láº¹ ÌĢ
cen z
ĠwÅĤ as
ĠL ed
le ho
Ġma ar
Ġvend os
Ġw en
Ġqu Ã©
ĠÎł Î»Î·
ĠÎĶ Ïħ
ĠÎ¾Îµ ÎºÎ¹Î½
Î» Î¯Î±ÏĤ
gy s
Ġoso b
ta zione
Ġet di
Ã¡s Ã¡r
ĠL isÃ¤
Ġc asa
Ġth Ã«nÃ«
Ġlipa pali
ĠtÅ¡e o
Ġn tlha
Ġvie lÃ¤
Ġwszyst kie
ts ana
Ġf jal
ni c
Ġti ka
ÏĦ ÏģÎ·
Ïģ Î¿ÏħÎ½
ĠÏĩÏİÏģÎ± ÏĤ
ĠÎľ Î¿Î½
ĠÎ¼ ÏĢÎ¬
ĠÎ´Ïİ ÏĥÎµÎ¹
ĠÎ³ÏħÎ½Î± Î¯ÎºÎµÏĤ
ĠÎ£ ÏįÎ½
ÏģÎ¯Î¶ Î¿ÏħÎ½
ÎŁÎ ¦
Î¼Î· ÏĩÎ±Î½
ĠÎłÎ± ÏĢÎ±
ĠÎ² ÎŃÎ²Î±Î¹Î±
ĠÎ¬ Î¼Îµ
Î¸Î® Î¼Î±ÏĦÎ±
d da
ko k
ĠÂ ¸
Æ°á»Ľ ng
Ġita li
lerin i
Ġpo Äįas
Ġse bakeng
Ġt Ãµ
i lor
Ã¤l lÃ¤
Ãº bli
Ġn elle
Ġspo leÄį
Ġos tat
ĠÎºÎ± á½¶
Î¼Î± ÏĦÎ¯
Îº Î±ÏĤ
h yd
t Ã«r
ĠÏĥÎ¯Î³Î¿Ïħ ÏģÎ±
ĠÏĢÎ±ÏģÎ± ÎºÎ¿Î»Î¿Ïħ
ĠÎŃÎ½ ÏĦÎ¿
ĠÎºÏĮÏĥ Î¼Î¿Ïħ
ĠÎºÏħÎºÎ»Î¿ ÏĨÎ¿
ÏĮ Î´Î¿Ïħ
ĠÏĢÏģÎ¿ Îµ
ĠÎĨ Î½
ĠÎ£ Î¬Î²
ĠR ha
ĠSp iel
Ġal go
z el
ÏĢ ÎµÎ¯
ĠÎ±Î»Î® Î¸ÎµÎ¹Î±
Ġc w
ĠdÃ© velo
Ġol lut
Ġmog Äħ
Ġu ti
Ġdo ve
Î½Î±Î½ ÏĦÎ¹
Î´ Î¯Î¿Ïħ
ĠÎľÏĢÎ¿ ÏģÎµÎ¯
ÏĨ Î®ÏĤ
Î¸Îµ Î¯Î±ÏĤ
ĠÏĥÎº Ïį
ĠÎ¼ÎŃ Î»Î»Î¿Î½
erd ydd
ĠÎ±ÏĢÏĮ ÏĥÏĦÎ±ÏĥÎ·
Ġsicr hau
Ġh Ã©t
Ġsh Ã«r
á»¯ a
Ġdi t
ĠAD 0
Î¿ÏĢ Î»Î¹Ïĥ
Î¾ Î¯Î±
ÎºÎ¿Î» Î·
wy si
ĠvÃ¡la sz
Ġn Ã¶v
ĠSch u
Ġc aso
fan ya
t ie
qu Ã©
i hin
Ġace astÄĥ
Ġd Å¯
Ġju ga
le k
Ġd Ã¢n
ka uf
Ġest ar
ĠndÃ«r sa
mi que
f sh
Ãº j
12 8
Ġar ben
ko mmen
Ġre a
fan ts
Ġk vali
Ġge Ã§
Ġm Ã³wi
po zi
ĠvÅ¡et ky
ĠÃ¡l la
Ġs Ã¼r
Ġn Ã¤y
u ka
Î½Ïī ÏĥÎ·
ĠÏĥÏħÎ½ Î¸Î®ÎºÎµÏĤ
ĠÎŃ ÏĥÏĦ
ĠÎŃ Î³Îº
ĠÎµ ÏĨÎ·
ĠÎ±ÏĥÏĨ Î±
ÏĪ Î±Î½
ĠÏĢÎ±ÏģÎ± ÏĦÎ·
ĠÎŃÎº Î´Î¿ÏĥÎ·
ĠÎļÏħ ÏģÎ¹Î±ÎºÎ®
ĠÎºÏħÎ² ÎµÏģ
ĠÎµÏĢÎµ Î¾Îµ
ĠÎ³ÏģÎ± Î¼
Îº ÎºÎ¹
ĠÎ± ÏĥÏĩ
ÏĦÎµÎ¯ ÏĦÎµ
Î¹ ÏĮ
Î¯Î½ Ïī
f d
ĠÏĩ ÏģÎµÎ¹Î±
ÎĻÎļ Îĳ
e b
Ġvi ta
ĠÏĢÎ¿Î¹ ÏĮÏĦÎ·ÏĦÎ±ÏĤ
× ŀ×
ÏģÎ¹ ÏĤ
Î´ ÏİÎ½
Î³ Î¹Ïĥ
r f
ĠÏĢÎµÏģÎ¹ Îµ
ĠÎļ ÏīÎ½
ĠÎķÎº ÎµÎ¯
ĠÎĳÎ½ Î¬
ĠÎºÎ¿Î¹Î½ ÏĮ
ÏĢ Î»Î¿
Îļ Îķ
ĠÏĢÏģÎ¿Ïĥ ÎŃ
ĠF el
ĠÂ ¡
Z W
ĠktÃ³r ych
ĠDe t
ves ti
Ã©rie ur
Ġhod no
Ġla tela
lo ru
li ck
i ce
do te
be d
P U
I we
Ġå¤ §
Ġáº¹ r
Ġur mÄĥ
ÏĦ ÏĦÎ±
we ud
Ġyá»įn basi
Ġyi yara
Ġro yin
Ġngi êŀĮni
Ġn uláº¹
Ġmo vie
Ġlo go
Ġip hone
Ġbe en
ĠTe xt
ĠSo lusan
ĠR ich
ĠR I
ĠIz ira
ĠIzira yÉĽli
ĠH Ã©
ĠH or
ĠFi fi
ĠF light
ĠAri wa
ï¿½ï¿½ï¿½ï¿½ ï¿½ï¿½
è Ĭ
ãģ® è©ķåĪ¤
áº¹n á»į
Ðµ Ð»
Ã³l Ã³
t Ã¬
Ġsu un
Ġst ru
Ã ļ
Ã Ĩ
áºŃ y
st va
ĠLe ben
Ġha bi
Ġs Äģ
Ġszere t
Ġsp osÃ³b
E FB
ĠÎĻ Î¿ÏħÎ»Î¯Î¿Ïħ
ÏģÎ¯ ÏĥÎµÎ¹
Î»Î± Î²Î±
ĠÏĦÎŃÏĦÎ¿ Î¹Î±
ĠÏĢÏģÎ¿Ïĥ ÏĨÎ¿ÏģÎŃÏĤ
Ġdde fnyddio
is sen
pp or
Ġk to
Ġh Åį
Ġmora o
Ġle t
as Äĥ
se t
osi wewe
ni ngs
hinwh Ã©Ì£n
g ged
ero on
ara da
Ġæĺ ¯
Ġá¹¢iá¹£áº¹ da
ĠÃł kÃ³
Ġada lah
Ġsi do
Ġhan em
li zza
ĠhÉĻ yat
Ġr Ä«
Ġqu alitÃ©
p ana
áº¡ ch
sz i
Ġf ins
ĠÎ¼Î¹Îº ÏģÎ®
Ġsu t
in ti
ĠÃ©le ct
Ġpu tas
Ġres ul
n un
g Ã³
Å¡ Äģ
Ġpre z
pa g
ith iau
Ġein fach
Ġere d
Ġh en
ÉĻm mÉĻ
Ã¼su si
b lik
ĠtÃ¶ Ã¶
ds ta
Ġby la
Ġs nie
Ġish in
Â º
Ġv Ã¬
Ġpue den
to ja
Ġ Èĺ
Ġmo futa
Ġk onu
v yo
in er
v Ã©s
v it
Ġqu ando
wi ck
Ġu wa
ĠwÃ¬ la
Ġv wer
Ġth ere
Ġsetiri ge
Ġn yi
Ġl il
Ġk oni
Ġjáº¹ wá»į
Ġgba ta
Ġele to
Ġde an
ĠWel come
ĠTu tu
ĠTe a
ĠS ul
ĠPro f
ĠLa dy
ĠJ in
ĠAn fani
Ġ11 110
êŀĮ un
çº ¿
· ¨
yo Ì£
yi u
uy ota
tan a
ķ ¡
Ġï ¸
Ġá»Į pá»į
Ġy êŀĮni
Ġt w
Ġpi ile
Ġpa ge
Ġma má»į
Ġlea ves
Ġka êŀĮan
Ġjáº¹ má»į
Ġv ed
Ġiwontun wonsi
Ġi ke
Ġd á»įn
Ġb ook
Ġada lu
ĠPortugu ese
ĠMe aning
ĠM iss
qtisa di
ĠLe Ì£
ĠK U
ĠJ um
ĠIko le
ĠI gi
ĠA yen
Ġ19 97
åĲĪ åĲĮ
à³įà² ¨
Ø§Ø ¨
Ð° Ð»
Ì£ yoÌ£
ÉĽ gÉĽ
y ÉĽn
sáº¹ pá»į
l Ã²
ĠPar tener
Ġfun c
ĠAv ro
pp i
ĠBe i
Ġave z
Ġwi ÄĻk
jo v
is ka
ĠS ena
y la
Ġav ons
j ell
sem ble
ĠmÃ´Å¾e te
ĠG ÄĥseÈĻte
Ġsp une
Ġk yl
ĠCe tte
Ġiza ngo
Ġl li
w ischen
Ġori ce
vi Å¥
Ġc Ã¼
Ġp Ã©l
Ġz em
a o
Ġmohla la
Ġy ksi
Ġac tiv
Ã³ ng
Ġquel lo
Ġk Ã«sh
tse la
isi o
Õ¡ ÖĦ
Ø ·
ĠÔ µ
Ø ´
Ä±l masÄ±
ĠCa tal
un ya
qu Ã¨
ts che
Ġp df
isto ire
Ġc_isb rand
Ã¶ ve
Ġkas u
ans Ä±
Ġcom uni
j eme
f alls
ban d
TM L
Ġá»Į run
ĠÃ± u
Ġtalen ti
Ġta won
Ġn indi
Ġgen era
Ġdi ke
Ġd una
Ġat in
ĠZi mbabwe
ho r
ĠYo Ì£yoÌ£
ĠSu ra
ĠOlu pese
ĠO ur
ĠMáº¹ de
ĠMedi cal
ĠLeÌ£ dogbedev
ĠLeÌ£dogbedev ome
ĠLeÌ£dogbedevome Ì£
ĠLe e
ĠJa co
ĠI ban
ĠC las
ĠAi ho
ĠAiho Ì£n
ĠAF RI
ĠA yika
Ġ? +
Ġ14 0
Ġ Ć
åı °
åĬ Ľ
áº¹ gbáº¹run
à¸Ńà¸ ¥
Ã³lÃ³ hÃ¹n
¨ à¥įà¤¦
va te
sá»įn ku
ho vwo
e ing
b es
AD E
Ġmi m
Ġloriláº¹ ede
Ġifi gagbaga
Ġif osiwewe
Ġida sile
Ġdáº¹ kun
Ġaz Ã²Ì£n
ĠMi iran
ĠLo ve
ĠGirl s
ĠG ri
ĠFá»į á»įmu
ĠD H
ĠBul g
è ª
çĶ µ
áº¹ ni
à¸Łà¸£à¸µ Fun88
à²¨ à³įà²¨
wan da
u du
fara mo
en ces
T un
E E
Ġá¹£e pá»į
Ġwh láº¹n
Ġta ttoo
Ġn un
Ġko man
Ġkan biá»į
Ġisá»įdá»į tun
Ġi wari
Ġbiba jáº¹
Ġap ps
Ġala abo
Ġa ise
Ġa fefe
ĠY eni
ĠRe a
ĠMe dicine
ĠL ou
ĠI A
ĠH TML
ĠGT X
ĠAP I
Ġ18 0
å®¶ æĹı
Ì£ t
nific ant
kin is
ir isáº¹
esti val
C S
Ġu káº¹cha
Ġso ju
Ġs iso
Ġpi c
Ġon jáº¹
Ġolo otu
ĠmÃŃ wláº¹
Ġmu st
Ġkan dai
Ġka nga
Ġitá»į si
Ġisun má»į
Ġe yo
ĠW oman
ĠOlo ri
ĠLe i
ĠInte gra
ĠIDA GB
ĠI ÌĢ
ĠEqui pment
ĠD M
ĠB S
ĠA yo
Ġ16 0
å¿ ĥ
ä¹ Ĳ
wimsu it
rÃŃ Ãł
lar i
ig irisáº¹
I L
Gc 50
, âĢĿ
Ġåľ ¨
ĠyÉĽ gÉĽ
Ġuru emu
Ġolu lana
Ġog iri
Ġl oun
Ġkini un
ĠhÃ¹n wháº¹
Ġebu te
Ġdo ayi
Ġdian áº¹
Ġch un
Ġbre qu
Ġa hi
Ġa bele
ĠT in
ĠSky pe
ĠS B
ĠOlo otu
ĠO ver
ĠM ountain
ĠM es
ĠLa yer
ĠInte Ì£
ĠInteÌ£ ne
ĠInteÌ£ne Ì£t
ĠI yika
ĠF oundation
ĠF la
ĠE F
ĠC ongo
æĸĩ åŃĹ
ãĤ Ĭ
Ð¾Ð ´
Åĭ go
Ã¡ ni
¨à¥įà¤¦ à¥Ģ
tre am
ru ba
m osi
iláº¹ rin
esi le
ba i
Ġå° ı
Ġá»į rin
Ġá»į báº¹
ĠÅĭ ÉĶ
Ġpáº¹ vi
Ġp ur
Ġni lu
Ġk ari
Ġipa da
Ġdi bu
Ġda baru
ĠSil ver
ĠP un
ĠN etherlands
ĠK arun
ĠJer sey
ĠIDAGB ASO
ĠCyr illi
ĠCH F
ĠBio tilejepe
ĠB ere
Ġ8 c
êŀĮ ya
éĩ ı
è ¢
çľ ĭ
å® ļ
Ð½ Ñĭ
w en
pu pu
káº¹ yi
b lo
V ID
C ha
Ġç Ļ
ĠÃ¬ wÃ©
Ġatt Ä«
c 0
ĠÏĨ ÏĦÎ¹Î¬
ĠÎº Î»Î¬
ĠÎ´Î® Î»Ïī
ĠÎ¯Î´Î¹Î¿ ÏĤ
ÏĨÏīÎ½ Î¿
ĠÏĢÎ¿ ÏģÎµÎ¯Î±
ĠÎŃÏģ ÏĩÎµÏĦÎ±Î¹
ĠC ounty
ÏĢÎµ Î´Î±
Î½Î¿ Î¹Î±
Î´ Î±Ïĥ
ddi ad
em y
Ġnj eri
Ġszem Ã©ly
ÅĽci Äħ
Ġdes s
tÄģ ji
Ġfun d
áº¯ ng
J o
ĠÎŃ ÏĦÎ¿Î¹
ĠÎł ÎŁÎ¥
ĠÎ´Î¹Îº Î±Ïĥ
ĠÎ±ÏĢÎ¿Îº Î»ÎµÎ¹
Ġs rc
ĠÎŀ ÎµÎº
ĠÎĶ Î¹Î¿
ĠÎĴ Î¿Ïħ
ĠÎĴ Î¿
ĠÎ¼Î± Îº
ĠÎ£Î¥ ÎĿ
Î»Îµ Î¯Î±ÏĤ
ĠÎĳ Î»
ĠÎº Î»Î¹Îº
ĠÎ§ Î¬Ïģ
ĠÎ¿ Î¹Îº
ĠS g
Ġla n
Ġtar tal
ÃŃv ne
ĠkÃ¶ l
Ġwlea wu
Ġolu ta
Ġn en
Ġmaa pu
Ġle wu
Ġki t
Ġkaka doi
Ġk uru
Ġimura siláº¹
Ġgba lejo
Ġe gbin
Ġde velo
Ġd ow
Ġaf ter
ĠWha tsapp
ĠTu be
ĠS quare
ĠMa g
ĠLe vi
ĠKey board
ĠIpa de
ĠG aa
ĠD umb
ĠCam eroon
ĠBi báº¹ráº¹
ĠA bo
ç ³»
æ³ ¨
ä½ ¿
à¥ĩà¤ Ĥ
th ing
p Ãº
l one
is co
Ġve Ã§
ĠÅŁÉĻx s
Ġhy vin
f ari
TO RI
Mo 3
H EN
22 Cr
Ġï¿½ï¿½ï¿½ï¿½ï¿½ï¿½ï¿½ ,
Ġye ar
Ġv we
Ġnáº¹ tiwá»įá»įki
Ġni luu
Ġng bero
Ġnch ka
Ġki ng
Ġke ta
ÏĦÎ¹Ïĥ Î¼ÏĮÏĤ
ĠÎ´ Î¿ÏįÎ¼Îµ
ĠÎ£ Î¿
ĠG wa
Ġip enija
Ġd ani
ĠT ro
ĠO K
ĠNe o
ĠMexi co
ĠÏĦÎ¿Î¼ÎŃ Î±
ĠÎºÎ± ÎºÏĮ
ĠÎ¶ ÏīÎ½
ĠÎ´Î¹Îº Î±Î¯
ĠÎ´ Î±Î½
ĠH ouse
ĠÏĦÎµÎ»ÎµÏħÏĦÎ± Î¯Î¿
ĠÎĵ ÏģÎ±
ĠÎĴ Î±ÏĥÎ¯
ÏĢ ÏģÎ¿
n n
ĠÎ¼ Î¬Ïģ
ĠÎµÏĥ Ïį
ĠÎµÏĢÎ¯ ÏĥÎ·
ĠÎ±Î¼ÎŃ ÏĥÏīÏĤ
Î»Ïİ ÏĥÎµÎ¹ÏĤ
ĠÏĦÎµÎ» ÎµÎ¹
ĠÏĢÏĮ Î´Î¹Î±
ĠÎĴÎ± Î¸
ĠÎĳ Îĵ
ĠÏī ÏĥÏĦÏĮÏĥÎ¿
ĠÏĢÎ±Î¹ÏĩÎ½ Î¯Î´Î¹Î±
ĠÎķ ÏĦÎ¹ÎºÎŃÏĦÎµÏĤ
ĠÎµÏĢÎ¹ ÏĢÎ»ÎŃÎ¿Î½
ĠL l
ĠOdpove dz
Ġpo k
ĠMa lia
ĠL eg
ĠKore an
ĠImá»į ye
ĠIW E
ĠHe y
ĠFran Ã§ais
ĠEx tract
ĠEp isode
ĠAra bic
Ġ7 50
Ġ) ãĢĳ
æ Ĥ¨
åħ ³
w ara
pto p
po re
ĠEs ta
oni an
gb le
ester n
cin ia
ca tions
as on
ar di
T a
P R
20 19
Ġá¹£ ina
Ġwáº¹áº¹ bÃ¹
Ġwháº¹ dida
Ġon Ã²Ì£
Ġon ly
Ġolo paa
Ġne ed
Ġláº¹ áº¹
Ġl on
Ġita laya
Ġimu posi
Ġe ar
Ġb onus
Ġay urve
Ġam p
Ġa kawe
ĠTitun to
ĠP T
ĠMal ta
ĠM ill
ĠI tele
ĠI ni
ĠI kede
ĠEdu cation
ĠCN C
ĠAb out
Ġ Æ
ćą Ĉ
åĪ ¶
à²¨à³įà²¨ à²¡
ÃŃn á»į
s ho
pir esi
ma ll
is ise
ie ved
h aa
gb oro
du piresi
ĠâĢ³ ,âĢĿ
Ġwa di
Ġtáº¹n pá»įn
Ġnr Ã²
Ġme wa
Ġ0 80
ÏĨ Î¿ÏħÏĤ
ĠÎ¼Î¹ Î»Î¬
ĠÎºÎ±ÏĦÎ± Î»Î¬Î²
ĠÎº Î¹Î½Î®
ĠÎ³ Î¹Î¿
Î¬Î¶ Î¿Î½ÏĦÎ±Î¹
ĠÎľ ÏĢÎ±
ĠÎ±Î½Î± Î¶Î·
ĠÏĥÏħ ÏĥÏĦÎ±
ĠÎķÏĢÎ¹Ïĥ ÏĦÏģÎ¿ÏĨÎ®
ĠÎ±Î½Î± Î³Î½Ïī
Y Y
ĠÎµÎ½ Î¹Ïĥ
ĠÎµÎºÎ± ÏĦ
ĠÎ´ÎµÎºÎ± Îµ
ĠÎ³ ÎŃ
ĠÎ§ Î¬
Ġdi g
Ġma ch
Ġm á»įnamá»įna
Ġki re
Ġin k
Ġdo te
Ġdean ana
Ġbu ra
ĠWor d
ĠSam sung
ĠKe kere
ĠH all
ĠGb ona
ĠG h
ĠFa ctory
ĠCa ta
ĠAz o
ĠAngel es
Ġ7 20
åĲ į
ÉĶ ÉĶn
ta i
se ts
ro gen
ok er
ku sa
kati má»į
fo onu
do hlan
ĠÃ± uu
Ġti wan
Ġk won
Ġin tanáº¹áº¹ti
Ġd il
ĠTit áº¹
ĠS wed
ĠOju Iwe
ĠO máº¹
ĠO NI
ĠN ini
ĠN ge
ĠH ung
ĠC oo
ĠA mu
Ġ1 st
Ġ' ).
çĤ ¹
æı Ĳ
Ùħ Ø§
Ð½ Ñģ
yne ws
mi cal
j ia
ill ynews
h áº¹n
g hi
curi ty
Ġà²¹ à²¿à²°à²¿à²¯
ĠÐ Ŀ
ĠÃ¬ gb
Ãº Äį
ĠK Ã«
ĠCatal unya
Ġal tres
du ri
Ġop ini
Ġo tro
ite ment
lan c
ve au
Ã¡n os
Ġpo ja
Ġp Ã´
Ã© b
ĠÃ® mp
Ġp y
Ġpo co
ĠmÅ± kÃ¶
Ġw iel
Ġm uss
den ia
ra k
Ġne pa
ĠB us
eg os
Ġx ka
Ġwi kipedia
Ġsi mi
Ġrirá»į po
Ġra illynews
Ġpip li
Ġod Ã¨Ì£
Ġn bo
Ġkwon 37
Ġkwon37 xi
Ġk al
Ġje ki
Ġale mo
ĠNig erian
ĠK iri
ĠI yáº¹
ĠI jáº¹
ĠEs paÃ±ol
ĠArsen al
Ġ03 æľĪ
ç ²
æ ¨
åĮ º
Ã³Ì£ sin
ul d
pa y
p áº¹ráº¹
Ġsi m
ch at
Ġint Ã©r
ng le
mar k
li p
gb Ã³
p tÄĥ
di tional
T ra
DI A
Ġï¿½ (
Ġru iruo
Ġoko ja
Ġod aran
Ġo ka
Ġlo ve
Ġla be
Ġkun nu
Ġkire diti
Ġka láº¹
Ġes an
Ġe má»į
Ġduna dura
Ġaraa lu
ĠT ara
ĠRi o
ĠN AD
ĠLe he
ĠHy per
ĠGba jumo
ĠE X
ĠE D
æĿ ¿
æ¬ ¾
å¥ ½
ä½ĵ å®¶æĹı
Ã³ Ã²
atla la
Î¥ Î¡
d do
Ġp ouvez
Ġau tÃ³
Ġbud Ãº
Ġn enÃŃ
ĠdÃ© jÃł
Ġest os
Ġki nh
ĠS ilicone
ĠLe ha
Ġven di
s ÃŃ
Ġprodu se
Ġan non
za te
f ts
Ġin nych
Ġma bapi
37 8
32 N
ĠÎº ÏģÏħ
ĠLly wodraeth
a jÄģ
Ïİ Î¸Î·ÎºÎµ
ÎµÎ½ Îµ
Î´ Î¿Ïį
tre f
Ġmo do
ĠkÃ« tij
Ġfin den
Ġjus qu
stu p
Ġper quÃ¨
Ġq ÉĻr
urÃ³ pa
ĠÂ ¾
Ġgi an
kse en
Ġs co
Ġse a
ĠW enn
Ä¼ au
Ġra st
r ch
Ġprodu its
za cja
Ġph ela
zÃ©s e
Ġtu aj
Ġcha que
c 2
C h
ÏĦÎµ ÏģÎ¬
Ġ× Ĺ
ĠÏĦÎŃ ÏĥÏĥÎµ
ĠÎµÏĢÎ¹ÏĩÎµÎ¯ ÏģÎ·ÏĥÎ·ÏĤ
ĠÎµÎ¹ÎºÏĮ Î½ÎµÏĤ
Ïİ Î¼Î±ÏĦÎ±
ÎĻ ÎŁ
Î»Îµ Î³
ĠÎ¼ÏĢÎ¿ÏģÎµÎ¯ ÏĤ
ĠÎºÏĮÏĥ Î¼Î¿ÏĤ
ĠÎ´ÎµÏįÏĦÎµ ÏģÎ·
Ġy na
Ġb eso
liz at
eli cu
iste ma
Ġde ze
c jÄħ
ĠÄ¾ud ÃŃ
ÏĦÎ¬ ÎµÎ¹
Î¼ Î¹Î½
ĠÎ¿ÏģÎ³ Î¬Î½
ĠÎ±Î½Î± Î¼ÎŃ
Ġc yd
Ġh Ã´tel
Ġegy Ã¼tt
to gra
t Å¡a
mo ho
wa da
te pe
pa mo
on ia
ĠmÉĻ ÅŁ
ma in
loru ká»į
li x
ger ing
e gbe
Ġj Ãº
h Ã¶
Ġt Ã©r
kil Ã¶
Ġun or
ĠÄĳ iá»ĥm
Äį et
Ġpremi er
ÅĨ Äģ
ĠBa ÅŁ
cts py
ba ba
T K
ĠĀ Â
Ġá»įlá»į run
Ġá¹£a ju
ĠÃł tÃºná¹£e
Ġl lo
Ġtiti ipa
Ġta ba
Ġof ee
Ġofee fee
Ġmáº¹máº¹ yá»įnnu
Ġko zo
Ġk ÉĽ
Ġjáº¹ risi
Ġiá¹£ á»įpá»į
Ġigba ti
Ġidapá»į má»įra
Ġid jerhe
Ġfo liteji
Ġele re
Ġda giti
Ġbi kita
Ġajo hun
Ġaj esara
ĠTrans port
ĠSi waju
ĠRama dan
ĠO kan
ĠMar y
ĠJ E
ĠGoo d
ĠFS 2004
ĠF ind
ĠF an
ĠF R
Ġ??????? ??
åŃ ¦
âĢ¦âĢ¦ âĢ¦âĢ¦
yd ar
we et
ti wa
or isi
lan de
en da
ek uru
dia c
T D
MI LA
AR S
Ġï¿½ï¿½ï¿½ï¿½ï¿½ ,
Ġá»įdá»į má»įkunrin
Ġáº¹ni pe
Ġá ĥ
Ġà¸ ļ
Ġwun máº¹
Ġol Ã¹
á¿ ¦
ÏįÏĢ ÏĦÎµÎ¹
Îµ ÏģÏĮ
ĠÏį ÏĪ
ĠÏĢÏģÏĮÏĥ Î²Î±ÏĥÎ·
ĠÎĳ Î¥
ĠÎ¶ Îµ
Ġgy d
Ġf Ã©r
Ġver sch
Ġgy a
ÅĤ ow
m ista
Ġsis tÄĵ
ĠgÃ¶ re
yf yr
Ġb ego
Åį na
p Å¡a
Ġn tla
ĠRu siya
ÅĤÄħ cz
Ġaho ra
Å¡ wa
lo e
lan o
Õ ²
ĠAzÉĻrbaycan Ä±n
ĠÕ« ÖĢ
Õ¾ Õ¥Õ¬
k tor
ori a
Ã¡s Ã¡t
Ġto da
Ġra kst
ba la
Ġo á¹£iá»į
Ġni kin
Ġiá¹£ u
Ġigba keji
Ġg lo
Ġca sh
ĠYa hoo
ĠSpe cial
ĠRF ID
ĠN in
ĠMo ham
ĠIDAGBASO KE
ĠC ars
éĽ ª
ãģ ķ
Ð¾ ÑĤ
ÉĽn nÉĽ
z hou
ou ld
m áº¹nu
lo mi
fi ti
ON G
ĠĎ ă
Ġá¹£ an
Ġyinuwa do
Ġp ÃŃn
Ġnum ber
Ġndi êŀĮi
Ġmani pud
Ġig igirisáº¹
Ġgbi gbáº¹
Ġgba gba
Ġgan dudu
Ġf lu
Ġexa ctspy
Ġb hari
Ġap ero
ĠSp ani
ĠSa uli
ĠR ara
ĠO li
ĠM X
ĠI daniloju
ĠI K
ĠEro ngba
ĠAla wá»į
ĠAcc ount
ĠA kan
Ġ4 G
Ġ17 0
Ġ/ %
êŀĮ wi
êŀĮ e
çķ Į
ç ¦
æīĭ æľº
åķ Ĩ
ÉĶ ÉĶ
Åĭ gba
we m
t ari
r Ãł
ĠÎłÎ±ÏģÎ± ÏĥÎºÎµÏħÎ®
ĠÎ´Î¹Îº Î±Î¹Î¿
Ġkelkoo group
Î»Î± Î²Îµ
ĠÏĦÏį ÏĢÎ¿Ïħ
ĠÎ¿ Î¼Î¿
Ïī ÏģÎ¯ÏĤ
ÏĦ ÏģÎ¯
ÏģÎ¹Ïĥ Î¼ÏĮÏĤ
ĠÏĩÏģÏİ Î¼Î±
ĠÏĩ ÏģÎŃ
ĠÏĢÏģÎ¿ Î²Î¿Î»Î®
ĠÎ£Î¥ Î¡ÎĻÎĸ
ÏĢÎ¿ Î»Î·
ĠÎºÎ¬ÏĢÎ¿Î¹ ÎµÏĤ
ĠÎ¹ÏĥÏĦÎ¿ÏĥÎµ Î»Î¯Î´Î±
Ïĩ Î¿Î½ÏĦÎ±Î¹
ÏģÎ¹Ïĥ Î¼Î¿Ïį
ÏģÎ± Î¼Î±
ĠÏĩÎ± ÏģÎ¬
ĠÎĳ ÏĦ
ĠÎ± ÏĦ
Ïĩ ÎµÏĤ
ÎºÎ¿ Î¼
ĠÏĨ Î±Ïģ
ĠÎºÏģÎ¬ ÏĦÎ·ÏĥÎ·
ÏİÎ½ Ïħ
Î¿Ïį Ïģ
Î¿Î» Î±
Î½ Î¹Î¿
ĠÎ¼Îµ Î¯ÏīÏĥÎ·
ĠÎ¹ÏĥÏĩ Ïį
ĠD D
Ïī ÏģÎ³
ÏĥÏĦ ÏħÏĩ
Îķ ÎĶ
_ 0
ĠÎķÏĢÎ± Î½Î±
ĠÎµÎº ÏĢÎ±Î¯Î´ÎµÏħ
ĠÎµÎ¹ ÏĤ
ĠÎ´ÎµÎ´Î¿ Î¼ÎŃÎ½Î±
Ïĩ Î¿Î¹
ÏĦÎŃ ÏģÏī
ÏĦÎ¬ ÏĥÏĦÎ±ÏĥÎ·
Î¬ ÏģÎ¹Î¿
g l
Ġr ych
dÄ± q
Ãª t
ĠÏĢÎ±ÏģÎ± Î´Î¿
ĠÎº Î¬Ïģ
ĠÎ¹Î´Î¹Î¿ ÎºÏĦÎ®
ĠH yd
elle ment
Ġc ine
Ġai ci
Ġmora go
Ġe 3
les a
Ġsa ÄŁ
oku ta
n Ãł
li i
Î¸Î· ÏĥÎµ
s m
ĠÏĢ Î»Î¿Ïį
Ġga y
Î´ ÏģÎ¬
ĠÏĩÏİ ÏģÎµÏĤ
ĠÏĢÎµÏģÎ¹ ÏĢÏĦÏİÏĥÎµÎ¹ÏĤ
ĠÎĳ Î£
fn ydd
Ġaho l
ĠB Äĥ
in Ã¤
Ġpart ie
Ġgan z
ge b
Ġz er
Ġse c
ĠÏĥÏħÎ¼Î¼Îµ ÏĦÎŃ
ĠÎļ Îµ
ĠÎ½ Î±Î¹
ĠÎ¼ Î¬Î»Î»Î¿Î½
ĠÎ² Î¹
ĠÎ£ Îķ
Ġch yf
Ġktor ÃŃ
Ġebe tso
int lha
Ġti á»ģn
thane teng
Ġes cri
Ġm Ã¤Ã¤
ĠRom ania
Ġc un
ĠÄ £
Ġwsp Ã³ÅĤ
Å¯ so
Ġs Ä±
ÏĢ Î¹Î½
ĠÏĥÏĦÏĮ ÏĩÎ¿
ĠÏĢÎ»Î·ÏģÎ¿ÏĨÎ¿ ÏģÎ¹ÏİÎ½
ĠÎµÏħ Î¸Ïį
ĠÎ±ÏģÏĩ ÎŃÏĤ
ĠÎ¥ ÏĢÎ·ÏģÎµ
á½ ¸
Ïĥ ÏĦÎ¹ÎºÎ®
Î³Î½Ïī ÏĥÏĦÎ¿
ĠÎµÎ¾ Î®ÏĤ
ĠÎ±Î¹Ïĥ Î¸Î·
Ġ5 M
ĠÏĩÏģÎ· Î¼Î±ÏĦÎ¿
ĠÏħÏĢ Îµ
ĠÎµÎ²Î´Î¿Î¼Î¬ Î´Î±
ĠÏĢÎ¿ Ïģ
ĠÎĽ Î¬
ĠÎ½ ÎµÎº
ĠÎ´Î¹Î± ÏĩÎµÎ¯
ÏģÎ¿ Î¯
Î¼ Î¹Î¬
Î»Îµ Î¹Î±ÏĤ
Î¸Î·ÎºÎµ Ïħ
Î³ ÏİÎ½
Î¥ ÎĿ
u lu
Ġfi hla
ĠbÄĻ dÄħ
ci do
Ġk áº¿t
Ġun sere
ĠkÃ¶ ve
Ġc ir
ie den
ĠÏĢÎ±Î¹ÏĩÎ½ Î¹
ĠÎŃ Î¾
Ġrh wng
Ġin ternet
ku ms
Ġla te
Ġi han
n Ã¡m
Ġsu ite
Ġv as
h Ã«s
ĠRo z
Ġs wan
Ġne te
Ġto das
ĠW ales
Î¿Ïį ÏĥÎµ
Î¸Îµ ÏĥÎ·ÏĤ
ĠÎ»ÏĮ Î³Î¹Î±
ĠÎ£ Î®
Ġd yf
po dar
lÃ³ Ì£
ÉĻyy ÉĻn
ĠKosov Ã«
Ġv jet
le gbe
k Ã¬
Ġje tzt
Ġne cesi
Ġaur re
Ġba l
Ġdies em
Ġbe ha
Ã¨ ne
Ġul ti
ÏĥÏĦ ÎŃ
Î¼ÎµÏģÎ¹Îº Î±Î½
wy ll
Ã¤ u
Ġti po
Ġr ok
le tse
nÃŃ k
q ed
Ġp lo
m Ã¤Ã¤n
Ġstar p
ona d
Ġi ci
Ġt áº¿
ĠÎºÎ± ÏĨÎŃ
ĠÎ£Î¥Î¡ÎĻÎĸ Îĳ
Ġ8 GB
do g
ts ong
Ġl uni
ĠKr ye
Ġsa voir
Ġv ler
Ġmom ento
ĠÖ ĥ
Ġf ÉĻr
Ġwie le
pe Äį
ki leng
nu d
Ġbole h
Ã³ z
Ġa co
ĠÏĢÏģÏī Î¯
ĠÎ½Î¿ Î¼Î¿
Î» Î¸
Ġ× ¢
ĠÏĢÏģÎ¿ ÏĦÎµ
ĠÎĳ Î¡
ĠÎ¹ÎºÎ± Î½Î¿
Î³ Î¿Î½ÏĦÎ±ÏĤ
yfyr wyr
Ġgran de
ĠMagyar orszÃ¡g
Ġha gy
gh ts
MS AÅŀ
5 00
ĠÃł láº¹má»į
ĠÃ±a yiu
Ġsins Ã©Ì£n
Ġre al
Ġolu á¹£akoso
Ġo san
Ġo gba
Ġlo yun
Ġifi yesi
Ġib on
Ġi yen
Ġgblá»įn do
Ġgbe dide
Ġg am
Ġai f
Ã« so
Ġ Å«
ĠV isa
ĠV in
ĠSwed ish
ĠSamu el
ĠS tation
ĠO ta
ĠN de
ĠMar k
ĠMa ster
ĠK ol
ĠJaco b
ĠIta lolobo
ĠIf itonileti
ĠI lá»įsiwaju
ĠEx change
ĠE M
ĠDies orá»į
ĠCor onavirus
ĠBe e
Ġmek hoa
man e
ĠAc cess
ĠA st
Ġ19 95
Ġ) ï¿½
á»į á»į
á¹£in á¹£an
à ©
wem wu
nga li
m láº¹n
láº¹n mláº¹n
il áº¹nu
il ding
i yáº¹
i in
g p
din wo
ct ures
che d
Ġæ ¶
Ġå ¸
Ġå ·
Ġà¸ ģ
Ġà² ®
ĠÃ¬b Ã©Ã¨rÃ¨
Ġw ani
Ġver y
Ġma x
Ġma wa
Ġm láº¹nmláº¹n
Ġkam era
Ġbaa gi
Ġake ko
Ġad ari
ĠY IN
ĠT el
ĠS and
ĠRi ver
ĠI duro
ĠI DI
ĠGre ek
Ġch ce
z te
ĠFl ower
ĠF estival
ĠAz Ã³Ì£n
Ġ2 10
ãĥ ¬
ÙĦ Ùħ
ton una
ra in
m ora
ind á»įn
ie f
ction ary
ber ry
be k
aro phiyá»į
a p
W U
Tun es
P I
ĠæĹ ¥
ĠåŃ Ĺ
Ġä¸ į
Ġáº¹ iyáº¹
ĠÙĪ Ø§ÙĦ
ĠÃĮ wÃ©
Ġai ka
x a
Ġul tras
Ġorun dun
Ġnit ootá»į
Ġmo d
Ġmbe to
Ġloj oojumá»į
Ġlo an
Ġká»į kanla
Ġiá¹£i á¹£áº¹
Ġirin Å¡e
Ġi Å¡
Ġi Tunes
Ġgoo gle
Ġgbo ngbo
Ġde he
Ġde e
ĠT own
ĠSa tide
ĠRe tr
ĠNa hu
ĠMa la
ĠMa h
ĠKá»į á»įkan
ĠIbu do
ĠB on
ĠÃ©qui pe
ĠHe ad
Ġa shtu
ĠHa ydar
ĠF ood
ĠA sh
ĠA ro
ĠA rea
Ġ10 4
è ¼
åĬ ł
åĪ ©
å¥ ³
ãģ į
à¸« à¸¡
ys tal
t ani
pi pe
gan da
ga log
bra hi
E FI
ĸ à¸Ńà¸Ļ
Ġï¿½ï¿½ï¿½ï¿½ ,
Ġáº¹ á¹£in
áº£ nh
Ġá¹£ina we
Ġzi ze
Ġsig nificant
Ġse tonuna
Ġmil es
Ġk pe
Ġk arun
l Ã¡n
Ġif ura
Ġl uo
cyj ne
Ġibu kun
Ġha gbáº¹
Ġba le
Ġay Ã©
wÃ³ j
Ġpro ye
pr Ã©s
Ġs owie
Ġne v
ar on
ff re
Ä¾ ov
el n
Ġvis u
ĠÃĸ n
Ġpo m
ĠBat ho
Ġj Ã³l
ĠSu jet
Ġtro p
Ġmi esi
Ġcomp te
k ke
tÃ« si
mÃ©nye k
Ġol isi
stÄģ v
Ġalá»į gá»į
Ġal ondo
Ġaká»į we
ĠWor k
ĠT hun
ĠP RO
ĠMáº¹máº¹ sunnu
ĠKá»į lint
ĠKá»įlint inu
ĠIyan u
ĠC osta
ĠBi báº¹
ĠBa kanna
ĠÃ§a lÄ±ÅŁ
ĠAust ria
ĠAnd re
Ġ9 00
èĤ ²
è °
æİ ¥
va da
cz ka
táº¹ m
pad Ãł
z n
aa ka
Ġbo etse
ĠEl le
v Ãµ
cÃŃ ch
j mu
Ġkgo tsa
ke lo
deithas ol
ĠÎµÎ¾ Î¿ÏĢÎ»Î¹Ïĥ
ĠÎ±ÏĢÎ¿ÏĨ Î±Ïĥ
ĠÎ±Î½Î± Î³Î½Ïİ
ĠÎ¬ ÏĢÎ¿
ÏĦÏįÏĢ ÏīÏĥÎ·
ĠÏĢÏģÎ¿ ÏĩÏī
ĠÏĢÎ¿ Î´Î¿
ĠÎłÎ±Î½ ÎµÏĢÎ¹Ïĥ
ĠÎºÎ±Ïģ Î´Î¹Î¬
ĠÎ¸ Î·
ĠÎ± Î½Î¿Î¹Ïĩ
Ġd dy
b res
Ġn cha
koa helo
ĠBa keng
ĠaÃ§Ä± q
ĠkÃ©r dÃ©s
da de
Ġk ul
ĠF emme
Ġentrepr ise
Ġr Ã½ch
Ġd iri
Å¡ we
Ġbo hle
ia t
Ġexem ple
Ġph ÃŃ
p Ãł
d Ã¼r
Ġva ja
gen d
Ġd ÃŃas
Ġper chÃ©
Ġdou Äĥ
Ġl Ã©g
Ġpo i
ĠTS E
Ġsi re
ĠB au
teri or
Ġma ks
k tion
Ġs ona
ĠÄ Ģ
ji ch
Ġwor den
áº¡ c
overn ment
ishi ng
dá»į ta
L S
Ġæĸ °
Ġá»į da
Ġá»Į Lá»Į
ĠÐ ŀ
Ġwa yi
Ġti wa
Ġsu pp
Ġpho tos
Ġpa aráº¹
Ġn ÃŃn
ÃŃ o
Ġsh Ã«n
Ġkapcso lat
Ġte c
Ġ ÉĻra
ÏĨÎ¿ Î¹
ĠÏĦ ÏģÎ¬
Ġse f
Ġprop rio
Ġl Äĵ
Ġbul un
Ġmu jer
la ciÃ³n
is tÄĥ
ki mi
ĠF r
Ġdu Å¼
ki le
Ġj Ã¤
Õ¸ÖĤÕ µ
lÉĻrin dÉĻn
ÃŃ tett
ĠnÄĽ k
ÏģÎ¿ Î½Î¿
Ïģ Î¸Îµ
wr nod
Ġn ouvelle
Ġin form
Ġsel bst
Ġeke tse
Ġfat to
Ġthi áº¿t
ĠprÃ©s ent
Ġp lÄģ
Ġku iten
Ġde ty
Ġber ri
Äįi Å¥
n eg
ta ve
Ġdost ÄĻp
g ina
Ġk osten
Ġkho ebo
Ġtem ple
Ġli jo
Ġsehlo oho
ĠF ra
ĠÏĩÏģÎ® Î¼Î±ÏĦÎ±
ĠÎ± Î¯Ïĥ
Î´ÎµÎ¹Îº Î½
---- ----
ĠÏĢÏģÎ¿Ïĭ ÏĢÎ¿
ĠÏĢ ÎµÎ¯
ĠÎŃ ÏģÎ¸
ĠÎļÏģÎ¹ÏĦÎ¹ÎºÎŃÏĤ ÎłÏģÎ¿Î²Î¿Î»Î®
ĠÎ±Ïģ Î½Î·
Ġ5 N
×ķ× ¨
Î¸ ÏįÎ½
ĠÏĩ ÎŃÏģÎ¹
ĠÏĥÏħÎ½ÎµÏģÎ³ Î¬
ĠÎ³ÏģÎ¬ÏĨ ÏĦÎ·ÎºÎµ
ĠÎ±ÏĢÎµÏħ Î¸ÎµÎ¯Î±ÏĤ
Ġne wid
Ġvi ÅĨa
s el
Ġolu r
raz ie
Ġata u
k Ã«s
Ġpo der
Ġg esch
Ġprze ci
tt y
Ġz men
Ġka ng
ĠRo ma
Ġf ar
Ġvol na
ĠP ero
Ġt Ã¢m
Ġvo it
maks as
dz enie
Ġan tes
Ġpre cum
Ġby lo
tiv itÃł
Ġz wei
gu ar
Ġes ku
Ġtan ul
Ġnepiecie Å¡
het he
Ġma li
Ïĩ Î¿ÏħÎ¼Îµ
ĠÎļÏīÎ½ ÏĥÏĦÎ±Î½
ĠÎĻ Ïī
p aru
I i
mi esz
ĠpÃ«r gj
Ġju st
Ġiran ran
Ġiboju wo
Ġi to
Ġhel p
Ġha tá»į
ĠgÃŃ ga
Ġth áº¥y
ces so
Ġd Ã¹n
Ġt Ä«
Ġpar tic
Ġre k
ĠÎŃ ÏģÎ³Î±
ĠÎļ Î±Ïģ
ĠÎ¼ ÏħÏĥ
ĠÎ±ÏħÏĦÏĮ Î¼Î±ÏĦÎ±
ĠG R
ÏĦ ÏģÎŃÏĢÎµÎ¹
A C
ĠÎł Î±Ïģ
ĠÎĴÎ±Î¸ Î¼Î¿
ĠÎĳ ÎĽ
ĠÎ»ÎŃ Î½Îµ
ĠG all
Ġof re
Ä Ĥ
Ġmom ent
Ġad min
ĠR yan
ĠR omu
ĠOra nge
ĠLu k
ĠLat in
ĠKristi ani
ĠK ong
ĠJo h
ĠI hwo
ĠI dáº¹
ĠI KU
ĠFI FA
ĠF OR
ĠDou ble
ĠCro a
ĠBabil á»įni
Ġ10 3
è§ Ĩ
åĲĪåĲĮ ä¼ļç¤¾
åĲ İ
åİ »
å »
ãģ Į
Ã³Ì£sin san
y Ã©
ĠH au
Ġle hla
Ġh Ã³
Ġ ÉĻr
ĠÏĢÏģÏĮÏĥÏī ÏĢÎ¿
ĠÎłÎ¡ ÎŁÎ£
ĠÎĻ ÏĥÏĦÎ¿
ĠÎºÎ¯Î½ Î·ÏĥÎ·
ĠÎ´ Î¬
ĠÎ± ÎŃÏģÎ±
Ġ4 GB
Î´ÏĮ ÏĥÎµÎ¹ÏĤ
Î® ÏĥÏĦÎµ
ro om
ĠÎľ Î¬Ïģ
ĠÎµÎ½ÎŃÏģÎ³ ÎµÎ¹Î±
Ïĥ ÏħÏĩ
Î¼ÏĢ ÏĦÎ·
Î´Îµ Ïį
e on
ch Ã¡dza
le id
Ġm Å«su
Ġmon do
Ġam ba
Ġj on
Ġma teix
ma ga
te va
Ġb Ã«n
et he
Ġmo hlo
Ġno droÅ¡
Ã§ ÉĻ
la do
Ġha j
Ġsp ie
ÃŁ er
Ġdo it
Ġpod le
Â ¡Â
Ġb áº±ng
ise d
tu tako
Ġj eg
Ġdou a
Ġpas ur
ĠÏĥÎ· Î¼ÎµÏģÎ¹Î½
ĠÎłÏģÎ¿ ÏĬÏĮÎ½
ĠÎĿ Î¯
ĠÎľ Î¿
ĠÎ»Ïį ÏĥÎ·
ĠÎ´ÏģÎ¬ ÏĥÎ·
ĠÎ±Î½Î¬Î³Îº ÎµÏĤ
ÏģÎ¹ Î¿Ïį
ÏĢÎ¿ Ïģ
Î¹ Îµ
ĠÎº Î¯Î½Î·
ï º
ÏĮÏĦÎµ ÏģÎ·
Î¹Ïĥ Î±
ĠÎ±Î½ Î·
ÏĢ ÎµÏĦÎ±Î¹
Î¼ÎŃÎ½ ÏīÏĤ
Îº Ïī
Îº ÏĦÎ¿Î½
Î²Î¬ Î»Î»
ĠÏĥÏħÎ¼ÏĢ Î»Î·
Ġrha id
Ġpro ti
ys ÅĤ
ĠÃ ¥
encia s
ÅĽwia d
c un
Ġlie lÄģ
yor um
Ġasem enea
Ġpoli tike
ĠS ant
Ġto ts
ĠnjerÃ« z
le le
di ÄŁi
ĠtÉĻd bir
c ch
Ġetwa s
Ġen fants
Ġu tl
Ġprim era
Ã¡ ÅĻ
Ã¤h Ã¤n
ĠsÉĻb ÉĻb
Ġs arÃł
ÏİÎ½ Î¿ÏħÎ½
ÏĦÎ® ÏĥÎ¿ÏħÎ½
Î¬ ÏĥÎµÎ¹ÏĤ
ĠÏĢÏģÏİ Î·Î½
ĠÎ¼ Ïī
ĠÎ¸ÎŃÎ» Î¿ÏħÎ½
ĠÎ¸ÎŃ Î»Ïī
ĠÎ´Î¿ÎºÎ¹ Î¼Î¬
ĠGym raeg
ÎºÎ± Î¯ÏģÎ¹
AI g
3 N
ĠÏĥÏħÎ¼Î¼ÎµÏĦÎ¿ ÏĩÎ®
ĠÏĢ ÎŃÎ½ÏĦÎµ
ĠÎµ Î»Î¬ÏĩÎ¹Ïĥ
ÏĦÎ· Î¸ÎµÎ¯
Î¯Î½ Î¿Ïħ
fi o
sk Ã©ho
ju ar
Ġwor d
Ġk siÄħÅ¼
táº¹ siwaju
s osu
sosu á»į
po ts
p ool
m ÉĽ
ha le
h os
h h
donu go
T P
106 1103
Ġá»į fa
Ġá¹£o fo
Ġá¹£ oju
Ġà¤® à¥ĩà¤Ĥ
Ġyor isi
Ġur l
Ġta b
Ġsan daga
Ġoni mo
Ġoni gun
Ġokun kun
Ġláº¹n nupá»įndo
ĠlÃ³ rÃŃ
Ġb ie
Ġm ellett
ces si
Ġtoi min
Ġnuest ro
Ġpo lÃŃ
Ġwa ar
Ġyap Ä±
gy a
Ġg er
Ġjo tka
Ġde re
ÄĻ pu
Ġku j
vÄĽ t
ÃŃ ch
Ġcom ment
Ġna ture
Ġes pa
Z I
Ġcos Ã¬
Ġsza b
Ġni ch
Ġsh pe
tik el
tiv as
cu lui
Ġmi gli
Ġander en
Ġma hala
Ġha ng
Ġla z
bier no
ĠÏĥÏħÎ½ÎµÏģÎ³ Î±ÏĥÎ¯Î±
ĠÎĶ ÎķÎĿ
Ïĩ ÏĮÎ¼ÎµÎ½Î¿
d dau
ĠE esti
Ã¶ Ã¶
Ġwy mi
Ġz aria
et Å¡e
Ġile ng
Ġbon ne
Ġsi ker
Ġquan to
ĠcÃ³ mo
Ġyax Ä±n
rzy ma
Ġpeu vent
Ġob sa
Ġman era
Ġdol go
ĠÎ³ ÏħÎ½Î±Î¹
Î¯Î½ ÎµÏĤ
ho ed
Ġto Ãłn
ire a
Ġmej ores
j iet
Ġma jÃº
ĠL ik
ese betsi
Ġlai bikita
Ġkilo mita
Ġk p
Ġis owo
Ġin to
Ġifá»įkan si
Ġiba láº¹
Ġgh wa
Ġg usu
Ġaá¹£ o
ĠJ N
Ġpe que
c ina
tÃ¤ t
Ġlar tÃ«
ĠW ild
ĠT ABI
ĠSwe den
ĠRetr ieved
ĠNigba mii
ĠNi ght
ĠKur an
ĠKA YE
ĠI á¹£á»į
ĠI toju
ĠF it
ĠAna ly
Ġ11 5
Ġ. ;
ć ï¼Į
ï½ģ ï½
ä¿ ®
ä¸ ī
ãĤ µ
à¸ ģ
àµ į
y eren
ua ng
stru ction
nh un
ku wo
f lu
cc er
Y áº¸
P o
G I
ĠêŀĮÃ±a Çİn
Ġåı£ãĤ³ãĥŁ æĥħåł±
Ġâĺ ħ
Ġâ ķ¡
ĠÃĢ páº¹áº¹ráº¹
ĠÃ¨ rÃ¨
Ġko bie
Ġban na
Ġw ell
Ġv ráº¹
Ġny orisi
Ġl Ã¢
Ġeeka deri
Ġe hin
Ġb ungbi
Ġatun ká»į
Ġajohun Å¡e
Ġa há»į
ĠWh enue
ĠSe ma
ĠP art
ĠO ja
ĠLa b
ĠKristi áº¹ni
ĠKing dom
ĠE se
ĠE mp
ĠDa sh
ĠCor pora
ĠBo eing
ĠBer lin
Ġpro ge
ĠBa kan
ĠAwa ká»į
ĠAw ards
ĠAl ways
ĠA min
åħ ¥
ãģ ı
si de
pa ÅŁa
ou ri
n áº¹
ka di
re m
han re
er gy
c lo
amb ling
a ge
ER S
AD I
Ġà ª
ĠÃĮdÃŃ lÃ©
ĠÃ¨ de
Ġx goro
Ġwh Ã©Ì£n
Ġvwáº¹ ro
Ġtu torial
Ġov wan
Ġla gba
Ġk á»įni
Ġiyan rin
Ġima ges
Ġibe ji
Ġi beru
Ġfun ction
Ġfa won
Ġegbe gberun
Ġco ck
Ġa jara
ĠU lu
ĠPá»į l
ĠO binrin
ĠNo a
ĠMa laya
ĠKAYE EFI
ĠIbara áº¹nisá»įrá»į
ĠIGBA GBARA
ĠH R
ĠG as
ĠD S
ĠC el
ĠB rand
ĠArchi ves
ĠAko pá»į
Ð°Ð ²
É ĵ
Ãº rÃ³
Ġuz ÅĨÄĵmu
Ġhlah isa
ÅĦst wa
Ġe ks
ĠmÃ¼ ÉĻyyÉĻn
Ġsza ba
hlo pha
ĠÎŀÎµÎ½Î¿Î´Î¿ ÏĩÎµÎ¯Î¿
ĠÎ²Î¿Î·Î¸Î® ÏĥÎ¿ÏħÎ½
ĠÎ¬ Î¼ÎµÏĥÎ±
ĠÎ±ÏĢ Ïİ
Î¥ Î£
y gu
yy s
Ġal tro
ne a
Ãº p
Ġsebel isoa
E A
Ġba la
zi oa
Ġan da
Ġtr es
ĠBae bele
Ġtlho ko
t Ã¡r
Ġl Ãµ
Ã§ e
Ġk ena
Ġf ont
Ġfa ta
ie re
Ġca ÅĤ
Ä Į
Ġt ÅĻe
r is
tett u
Ã¡ci i
ti o
ish me
Ġfol os
vi tation
u me
tu al
pa ko
jumá»į á¹£e
haa we
gb uyota
V AS
P H
M M
ET T
Ġáº¹láº¹ wÃł
Ġáº¹ báº¹
Ġt Ãºn
os ial
ĠEr mÉĻn
fÃ¼ hr
Ġdax il
Ġpr vnÃŃ
tel en
ĠÅ« den
Ġi tse
ĠvÃ½ s
dz Äħ
Ġas njÃ«
ĠÏĢÎ±ÏģÏĮ Î½
ĠÎķ Îķ
ĠÎ±ÏĢÎ¿ÏĦÎµ Î»Î¿ÏįÎ½
ĠÎ± Î¼ÏĨ
Ġda ys
Î³Î· ÏĥÎ·ÏĤ
ĠÎļÎ¬ Î¸Îµ
Ġme dd
ĠN Ã©
Ġph Ã²ng
Ġpro blÃ©
Ġkw enye
we ise
c cia
ĠÎĳÏģÏĩ Î¹ÎºÎ®
ĠÎ¼ ÏĢÎ¿Ïħ
ĠÎ±ÏĢ ÎµÎ¹
Ġen d
Î Į
ĠÎµÎ¼ÏĢ Î¹Ïĥ
ĠÎ´Î¹ÏĮ ÏĦÎ¹
ĠÎ¤Îµ ÏĦÎ¬Ïģ
ĠÎ£ ÏĩÎ¿Î»
Ġgyn nwys
du ar
Ġdz iaÅĤa
ĠH om
Ġpremi Ã¨re
Ġho limo
Ġthe ko
ĠÄĳ á»ĳi
Ġir oro
Ġigb ani
Ġh Ã²Ì£n
Ġfil m
Ġfara sin
Ġdi yi
Ġa ará»į
ĠW ed
ĠSa ngo
ĠMe h
ĠM áº¹nu
ĠLe vent
ĠHomeTURKE YI
ĠHomeTURKEYI pinle
ĠArgent ina
ĠA ce
è¿ Ļä¸ª
Ø ¶
z ona
v ani
tor s
t ungu
qu o
p lo
la wo
kin ni
du mare
at l
ı ¾
Ġï¿½ï¿½ï¿½ï¿½ï¿½ï¿½ï¿½ï¿½ ,
Ġá»įti á»įyen
Ġáº¹ yá»į
Ġnuji já»į
Ġnu Åĭgba
Ġm and
Ġko fi
Ġj Ã¡
Ġest Ãł
ĠS es
Ġka dar
da kÄ±
Îľ ÎķÎĿ
Îº Î»Î®
ĠÏĨÎ¿ ÏģÎ¿
ĠÎ±ÏĥÏĦ ÎŃÏģÏīÎ½
Î¼ Î½Î±
Î² Î±Ïĥ
Î© Î¤
ĠÏĥÎµ Î¾
ĠÎº Î»Î¯
ĠÎ±Ïĥ Î¸ÎµÎ½
ĠÎ¦ ÏħÏĥ
Î¿Î» ÏĮ
Ġ× ©
ĠÏĢÎ± Î³ÎºÏĮÏĥÎ¼
ĠÎ´ÎµÎ¯ ÏĩÎ½ÎµÎ¹
ĠÎ±ÏĢ Î±Ïĥ
Ġgor au
t Å¡e
het ho
Ġlate lang
ĠjÃ¤l keen
Ġparti r
bi amo
V i
Ġv Ä«
Ġvi tit
Ġge ht
Ġwszyst ko
ni Å¥
z ten
Ġdes cription
v ra
li que
Ġa kare
ÏĦÏģ Î¹ÎºÎ®
Åµ r
er te
Ġna m
v ano
ĠA ve
d nia
he q
Ġhe eft
Ġes tat
ta da
Ġs ÅĤu
ĠKoÅ¡i ce
Ġslu Å¾
kÄģr t
te z
Ġmb Ã«sh
Ġifá»įwá»į si
Ġi Å¡i
Ġhe ad
Ġfa de
Ġdri ve
Ġba kannaa
Ġai bikita
Ġa dun
Ġ[ âĢ¦
Ġ[âĢ¦ ]
ĠW estern
ĠTo tal
ĠTa idi
ĠSul tan
ĠSha ng
ĠSal mu
ĠS ri
ĠS ise
ĠS iria
ĠS ig
ĠK E
ĠI danwo
ĠAt lan
Ġm Ã©r
ç Ī
à¤ ®
or n
ca ted
W HE
N S
Ġá»įmá»įde kunrin
Ġto bá»į
Ġs onication
Ġolugbo hunsafefe
Ġog Ã¡n
Ġnya mb
Ġni ght
Ġn to
Ġn s
Ġn ca
Ġhe re
Ġha á¹£iná¹£an
Ġgi laasi
kan ie
Ġfu ra
Ġnale Å¼y
Ġth ek
l lo
ĠcÄĥ tre
Ġden a
Ġbb c
Ġba bÃ¢
Ġaja lu
ĠTru mp
ĠTo bi
ĠS DI
ĠO ut
ĠMa ma
ĠM SI
ĠIya wo
ĠIs una
ĠIp ara
ĠG il
ĠCha pter
ĠC are
ĠA má»į
Ġb áº£o
Ġ10 6
è »
ãĥª ãĥ¼
á¹£e re
à¸²à¸ĩ à¹Ģà¸
à² ³
Ùİ Ø§
uy u
uk pe
toa ina
th s
pu ter
po te
do pá»įnna
do ng
b oro
b lan
b ini
Ġå ¯
Ġá»įká»į á»įkan
Ġáº¹ fá»į
Ġáº¸ jáº¹
ĠÃ ħ
ĠÂ ¢
Ġyá»į kuro
Ġw ant
Ġsi ka
Ġsi be
Ġre háº¹
Ġop en
Ġn duro
Ġmáº¹áº¹ dogun
Ġikun ra
Ġga an
Ġh ra
Ġe very
Ġe te
Ġala faramo
Ġa nga
ĠW aray
ĠSw iss
yn ol
le urs
ĠS inga
ĠtÉĻ hs
ĠPat ri
ĠO gbo
ĠNe vada
ĠN Z
ĠMa ya
ĠK rix
ĠKrix tu
ĠGe b
ĠFa ce
ĠFa bric
ĠCh rome
ĠA jumá»įá¹£e
Ġ à¹
ãĤ ī
m inu
kar ya
f Ãºn
don á»į
cc arat
bi ng
P RI
N U
A r
Ġà¤¹à¤¿à¤ ¨à¥įà¤¦à¥Ģ
Ġsam isi
Ġs ÉĽ
Ġolo run
Ġni mi
Ġiwo kuwo
Ġi ga
Ġe B
Ġcont est
ĠPho tos
ĠP lan
ĠOun jáº¹
ĠN á¹£iá¹£áº¹
ĠMal ku
ĠM un
ĠM and
ĠKing s
ĠIW á»Į
ĠI g
ĠDie go
ĠC T
ĠA V
Ġ. '
Ġ% )
ï¼ ©ï¼
éĥ ½
èī² çļĦ
æĪ ·
âĢİâĢİ âĢİâĢİ
à¸±à¸ Ħà¸£
à¸¡ à¸±à¸Ħà¸£
à² Ĺ
wh enu
h Ã²Ì£
bo dy
arada gba
R áº¸
For ce
Ġä¸ Ģ
Ġâ ī
ĠÃł papá»į
Ġr este
ĠPre d
Ġis te
Ġtáº¹ jade
Ġs oo
Ġpar is
Ġolu fáº¹
Ġnud á»įnamáº¹
Ġlá»į á»į
Ġl ine
Ġki yesi
Ġiya lenu
Ġik Ãº
Ġpie e
ÅĻe j
ĠT ou
Ġlita ba
Ġlum ella
Ġdi ngwe
Ġken ya
Ġidani laraya
Ġdo toaina
Ġda ga
Ġbibáº¹ ká»į
Ġalagba ta
ĠK á»Į
ĠJonat han
ĠFu ji
ĠComm uni
ĠChr is
ĠAri zona
Ġ- --
è «
ç½ĳ ç«Ļ
æ° ´
æ ¶
v wá»į
ng ban
ira te
Ġto mu
da tá»į
Y U
Ġá»į lÃ¡
Ġá»Į sáº¹
ĠÄ Ĺ
Ġus er
Ġsi ki
Ġp oro
Ġorile ede
ĠÎºÎ± Î¸Îµ
ĠÎµÎ¾ ÎµÎ»
ĠÎ±ÏĢ Î¬Î½ÏĦÎ·ÏĥÎ·
ĠÏĢÎ® ÏģÎµ
ĠÏĢ Î»Î¿
ĠÎºÎ±Î½ ÎŃÎ½Î±
ĠÎ£ ÏĩÎµ
b 0
ĠÏĨ ÏģÎ¿Î½ÏĦÎ¯
ĠÏħÏĪÎ· Î»Î®ÏĤ
ĠÏĢÏģÎ¿Ïĥ Î¸ÎŃ
ĠÏĢÎ¿ÏĥÎ¿ ÏĥÏĦÏĮ
Ġ4 77
Î¸ Î±Ïģ
Î¶ Î¿Î½ÏĦÎ±ÏĤ
da len
isan o
ĠhÃ¼ qu
ĠÏĢÏģÎ¿ ÏĥÎ¿
ĠÎ¼ Ïį
ĠÎ»Î¬ Î¸Î¿ÏĤ
ĠÎ·Î¼ÎµÏģÎ¿ Î¼Î·Î½
ĠÎ±ÏĢÎŃ Î½Î±Î½ÏĦÎ¹
ĠÎ¬ Îº
Ġfel ly
Ġli fe
Ġku Ã¢
Ġiwa kusa
Ġgbáº¹tá»į gun
Ġg ood
Ġba d
Ġav Ã³Ì£sinsan
ĠWha ts
ĠViet nam
r end
Ġja shtÃ«
Ġo tra
Ġga z
ĠSa lom
ĠS K
ĠR U
ĠP ow
ĠOru ko
ĠK ha
ĠF M
ĠDre am
ĠC ase
ĠBio tiláº¹jáº¹pe
à¦¾ à¦
Ãªn Ã«
rip t
ra tion
ok pari
lin ks
is hed
en o
den u
c ount
Mo 2
Ġé ĺ
Ġá»Į kunrin
Ġyi ngo
Ġw Ã²
Ġtiáº¿ p
Ġk ge
Ġtrans lation
Ġso ng
Ġrá»į ye
Ġoh ia
Ġmá»į yi
Ġlá»į dá»į
Ġla balaba
Ġka ta
Ġis ubu
Ġis u
Ġin ira
Ġid ur
Ġi hinrere
Ġf Ã²
Õ¡Õ ¢
Õ¸ÖĤÕ ½
ĠH ÉĻ
Ġn eg
Ġu ÅŁaq
er ra
Ã¼y Ã¼k
Ġs kal
h tu
Ġe w
te au
la dÃ³
Åĳ sÃ©g
ts cha
Ä¼ Äģ
Ġc rea
Ġase kale
Ġan o
Ġak iri
Ġagbe jade
Ġ] [
ĠSi ze
ĠQ ua
ĠPhili p
ĠM em
ĠJa va
ĠJ ona
ĠId jerhe
ĠFi han
ĠF at
ĠElectr onics
ð Ŀ
è Ĳ
æł ¼
æ §
äº ¤
à¸²à¸ĩà¹Ģà¸ Ĥà¹ī
vi ces
p ani
ch y
káº¹ táº¹
ku lo
ir s
Ã¡ Å¾
fer i
ent ly
Ni 12
- Ď
Ġï¼ ¡
Ġè¿ Ļ
Ġá»į kie
ĠÙĪ Ùİ
Ġwe ight
Ġt estosterone
Ġsen sá»į
Ġpa mo
Ġo tá»į
Ġnu plá»įnmáº¹
Ġn po
Ġle hin
Ġitan jáº¹
Ġgba dopá»įnna
Ġfifi pamá»į
Ġe vun
Ġchun êŀĮ
Ġagbe de
ĠUser name
ĠTen der
ĠSe e
ĠSa la
ĠSa karya
ĠNahu atl
ĠN S
ĠIf ara
ĠC ant
êŀĮ na
è¨ Ī
æĥ ħ
æ »ĳ
ÊĮ ÊĮ
Ç¹ pÃº
Ç¹pÃº tÃł
yan i
vi c
p táº¹m
na máº¹
man ji
li kula
k le
T U
IN E
Ġá¹¢iá¹£e to
ĠÃ¨ dÃ¨
o tt
Ġ23 4
Î´ÎµÎ¹ Î¾Î·
ĠÏĦÏģÎ± Î³Î¿Ïį
ĠÎĶÎµÏħ ÏĦÎŃÏģÎ±
ĠÎµÏĢ ÏĮÎ¼ÎµÎ½Î·
ĠÎ±ÏģÎ³ ÏĮÏĦÎµÏģÎ±
ÏĦÎ· ÏģÎ¯Î¿Ïħ
i ff
ĠK y
ĠÄ¾ u
Ġsy st
ĠD um
as Ä±
Ġp ana
Ġde p
9 a
ĠÎļ Ïİ
ĠÎ¼Î¹Îº ÏģÎ¿
ÏģÎ³ Î¿ÏĤ
Îº Ïį
we dodd
Ġm end
r Ã¡s
ar b
Ġch á»§
Ġpi Ã¨
Ġpro jek
Õ¥ÖĢ Õ«
ĠhÉĻ yata
ÅĽ ni
la ge
Ġazon ban
Ġsa ÅĨem
p ta
Ġx Ã¼susi
log ÃŃa
ty w
Ġcon cer
Ġtla ase
Ġch at
pi o
by to
Ñ ĳ
ĠrÃ«nd Ã«s
ĠDa ten
Ġhat te
Ġt es
Ġt á»ĳt
Ġvi enu
ĠJ ed
de rea
Ġh are
Ġfe t
Ġeffe t
u ir
ki mit
ÉĻt in
ĠChi cas
p res
Ġd Ã¶n
ks mes
Ġh vor
Ġdisp oni
Ġwin nings
Ġw BuyBuy
Ġti an
Ġre mo
Ġol owo
Ġmá»įláº¹ bi
Ġmili mita
Ġlo pin
Ġla won
Ġla lo
Ġl ondo
Ġj oná»į
Ġgig o
Ġgbe le
Ġdar ÃŃ
Ġgra tuit
ES T
; ;
ĠÏĩÏģÏĮ Î½Î¿Ïħ
ĠÏĩÏģÎ® ÏĥÎ·ÏĤ
ĠÏĨÏīÏĦÎ¿Î³ÏģÎ±ÏĨ Î¯Î±
ĠÏĦ ÏĮÎ½
ĠÎ¼ Î¯
ĠÎ³ Î¯Î½Î¿Î½ÏĦÎ±Î¹
Ġp lant
ĠrÃ©p on
Ġk Äģr
C Z
ow ana
Ġab Ã¡ni
ĠY um
ĠWhats App
ĠS MP
ĠR od
ĠPi pin
ĠOlu dasile
ĠIta li
ĠI tá»įnisá»įna
ĠI bo
ĠH ard
ĠGe o
ĠEr do
ĠDistri ct
ĠCoin falls
ĠCh u
ĠAm Ã³Ì£
áĥ Ĳ
á¹¢ áº¸
ÙĬ Ùĩ
Ã± u
z li
yn on
we vwin
osin sin
jÃ¡ de
Ã¤ t
b bi
Ġal t
Ġa fin
Ġma ter
ese bben
s Ã¡
tÄģ jiem
Ġp onu
Ġmb ro
ĠÄĳ Æ°á»Ŀng
cz es
ÏĥÏĦÎ¿ Ïį
ĠÎĽ ÎŃ
ĠÎ´Î¯ ÏĢÎ»Î±
× §
Îļ Îĳ
ĠÏĮÏĥ Î¿ÏħÏĤ
Î¾Îµ ÏīÎ½
Î»Î» Î¿Ïħ
ĠÏĥÏħÎ³ÎºÎµÎºÏģÎ¹ Î¼ÎŃÎ½Î¿
ĠÎ¿ÏĢÎ¿ Î¹Î±
ĠÎ» Î¿
ĠÎ´Î¹Î± ÏĨÎ¿ÏģÎ¬
ĠÎ´ Î¹Ïĥ
ĠÎ´ ÎµÏħ
ĠÎ£Î¤ ÎŁ
ÏĦÎ· Î³
Î¯ ÏĦÎµÏĤ
ĠÎĵÏģÎ¬ ÏĪÏĦÎµ
ĠÎ¼Î± Î¶
ĠÎ¸ÎµÏģÎ± ÏĢÎµ
ĠÎµÎ½ÏĦÏħÏĢÏī ÏĥÎ¹Î±
Ġsa fle
ĠEs paÃ±a
Ġv od
Ġy one
Ġle ra
ik ki
Ġsig ur
p rin
Ã¼ ber
ar se
Ġwy da
Ġf emme
Ġbja lo
Ġkam oo
g orun
bb le
W C
OR O
L Y
Ġï¿½ï¿½ï¿½ .
Ġà²ķ à²¨à³įà²¨à²¡
ĠÃł yÃł
Ġcon f
Ġyiylá»į dá»į
Ġtun á¹£e
Ġsin yáº¹n
Ġp s
Ġon ÃŃná»į
Ġne ar
Ġma ga
Ġm g
Ġlodi di
Ġke e
Ġipa ta
Ġhá»į akuáº¹
Ġfoju inu
Ġdá»įn sáº¹pá»į
Ġcas inos
Ġai loruká»į
ĠX box
ĠWi Fi
ĠTan k
ĠTO P
ĠSinga pore
ĠSe t
ĠNi wá»įn
ĠMi x
ĠKur manji
ĠK ok
ĠIs in
ĠIM M
ĠI ra
ĠDa ho
ĠD R
ĠB ol
ĠB in
Ġ Ë
ě [
éĽª åľº
éĢ ļ
åı Ĭ
å ¢
tt ery
s inu
our ce
ji zá»įnlin
ini an
há»į máº¹
ga on
f ra
dopo do
ber s
ba le
b ba
IS T
Ġå Į
Ġå ¥
ĠâĦ ĥ
Ġá¹£a báº¹wo
Ġá¹£ elá»įpá»į
ĠØ ¯
Ġto daju
Ġta an
Ġt Ã¬
is Ã¤Ã¤
Ġve ik
s ce
v esh
Ġba sa
u tu
c ement
Ġpo le
ti Ã¨re
ys Ã©g
Ġsin mi
ĠNa ko
Ġoma má»į
Ġna ira
Ġka siya
Ġiko pa
Ġee wu
Ġe keji
Ġdo gba
Ġam Ã³Ì£
ĠVi max
ĠTra b
ĠSema lt
ĠOsá»į hia
ĠO de
ĠMat te
Ġ10 7
Ġ! "
æ© Ł
á»į ngban
à¥ ģ
Ãº rÃº
po l
Ġun Ã«
lu ba
ki gbe
UR A
T á»Į
ES S
Ġæľ ī
Ġáº¹gbáº¹ áº¹gbáº¹run
Ġà¸ Ĭ
Ġà¤ ¸
Ġya la
Ġsho uld
Ġsee king
Ġoj ise
Ġmi yÃ³Ì£n
Ġká»į we
Ġkin ni
Ã½ mi
sh te
Ġifi ji
Ġifiji Å¡áº¹
Ġháº¹n wa
Ġfe e
ĠSu ites
ÏĦÎ¿ Î¼Î¿
c 8
ĠÏĦ ÏĥÎ¹
ĠÎĶÏī ÏģÎµÎ¬Î½
ĠÎ¿Î¼Î¬ Î´Î±ÏĤ
ĠÎ»ÏĮÎ³Î¿ ÏĤ
w ria
kie go
Ġer in
Ã§ on
Ġc ËĢ
Ġbir a
Ġb la
Ġaw Ãł
Ġas sets
Ġani yan
Ġalaba pade
Ġala ja
Ġahá»įlu duta
ĠY iyan
ĠSMP TE
ĠS nap
ĠS mo
ĠS han
ĠS C
ĠPa ddy
ĠO YE
ĠM ur
ĠM beti
ĠLa w
ĠL ar
ĠK áº¸
ĠI L
ĠHon da
ĠHal ka
ĠGeb ze
ĠGa gli
ĠG ur
ĠE dition
ĠE NI
ĠE C
ĠDe part
ĠCir cu
ĠC ons
Ġpo p
ĠAn t
ĠAl pha
ĠAl liance
Ġ8 e
éĴ ¢
æľ Ł
áĥ ĺ
á»įkan baláº¹
á»į ta
Ãª tre
} ,
{ "
y es
wa ji
w hinwhÃ©Ì£n
q o
ia o
W IN
OR Y
OR E
N G
Ġá»Į yá»į
Ġà² ¨
ĠÂ ¢ă
Ġth r
Ġri vals
ĠnÃŃ pa
Ġu dhÃ«
je kt
ko ak
Ġtu lee
lÉĻr lÉĻ
Ġgre u
ke la
Ġhu i
mi er
tse bi
va tel
Ġc ara
Ġi er
Ġme er
Ġcom ent
Ġm Ã³
Ö ĥ
ĠM ÉĻr
el wa
e j
Ġu ri
Ġaix Ã²
ĠS ÉĻ
Ġnuest ra
je gy
tz ung
Ġo c
Ġpal jon
hasz nÃ¡l
Ġti ne
Ġnd yaa
Ġloru ko
Ġkáº¹n tá»į
Ġki gbe
Ġiwi funni
Ġidur osinsin
Ġi i
Ġgege bi
Ġfáº¹ áº¹ráº¹
Ġfi k
Ġde we
Ġbel ow
Ġba pti
ĠawhÃłnfun tá»į
Ġap an
ffre din
Ġt rei
Ġagbede meji
Ġa ghwoghwo
ĠV IP
ĠS ony
ĠORUN MILA
ĠMalaya lam
ĠM oo
ĠIs aa
ĠI bere
ĠClas sic
ĠCO VID
ĠB U
ĠA ka
Ġ: :
Ġ14 9
Ġ Ò
é Ł³
æ»ĳ éĽªåľº
ãĥ Ĩ
Ã³Ì£n unina
yi ya
táº¹ káº¹táº¹
sh u
r Ã¬
o kat
ĠmoÅ¼ liwo
tÄģ ja
ni t
Ġwy kon
Ã¡l ny
ĠÅŁ ir
ha lo
kan ia
Ġh iá»ĩu
Ġs ouv
h Ã¡ny
Äģ ri
Ġan dere
Ġpra cov
Ġcom er
gb oo
fo re
b ow
L P
Ġæ Ń
Ġæ °
Ġá»į share
Ġá»Į gbá»įn
Ġà¸ Ķ
Ġà¤ķ à¤¾
Ġvon á»įta
Ġvoná»įta un
Ġt uli
Ġpa i
ĠonÃŃná»į mbÃł
Ġná»į te
Ġngba an
Ġne ws
Ġma jemu
Ġjus ka
Ġire ká»įja
Ġhack er
Ġfi he
Ġf ood
Ġele tan
Ġd anu
Ġaá¹£i kiri
ĠSil k
ĠP lastic
ĠOni má»įn
ĠNu de
ĠI ku
ĠCat ho
ĠB eli
Ġ- ,
æĿ ĳ
ãĤ ¢
Ã¬n rin
z áº¹
wa l
vi v
to p
r g
lo le
ja bi
ine a
es day
K HE
B AN
AD A
Ġé ĸ
Ġè ³
Ġá»į pÃ¡
ĠÃ¬ lÃ©
Ġe gun
Ġya wu
Ġu sing
Ġto day
Ġt áº¹numá»į
Ġsisan wo
Ġs Ã¹
Ġso tto
ono mi
gra ma
Ġku to
ĥ n
12 7
ĠÎºÎ± ÏĦ
ĠPo int
ĠG wy
ĠB F
Î´ Î¹Ïĥ
Î² Î»Î·
si o
ki lat
h Ã«n
Ġin d
Ġar ty
Ġs Ã¬n
Ġma dopodo
Ġm ÉĶ
Ġitan kale
Ġher á»į
ĠcÉĽn lÉĽ
Ġaif á»įkanbaláº¹
Ġadir o
ĠYou ng
ĠUl tras
ĠTrab zon
ĠRonal do
ĠR ou
ĠN as
ĠIr iri
ĠIntegra tion
ĠGe Force
ĠEli ja
ĠE ks
ĠCam p
Ġ10 1
Ġ ĆĈ
ï½İ ï½
í ķ
çĶ· è£
ä¹ ĭ
à ±
Ã²Ì£ hÃ²Ì£
ta ct
mm y
men tal
log ne
Ġv Ã¡s
eso tho
du a
S ite
Ni12 Mo2
Ġá»įkie je
Ġá¹£a gbe
Ġà¸ ¢
Ġya yu
Ġtiwan tiwa
Ġsans an
Ġoá¹£ ooá¹£u
Ġolo mi
Ġnwa ye
Ġid ilá»įwá»į
Ġha i
Ġda wá»į
Ġbi êŀĮ
ĠawhÃłn pa
ĠalÃ¡ gbÃ¨
Ġala dugbo
Ġab áº¹nu
ĠgÃ¶r Ã¼ÅŁ
Å¼ u
Ġa láº¹nu
ĠZ ia
ĠTag ged
ĠT ar
ĠSer bian
ĠS lim
ĠM oro
ĠH os
ĠGal ili
ĠGa lati
ĠAs aale
Ġ11 2
é¢ ľ
æľ ¨
un ity
te ch
ox i
ma mo
las si
ik eni
gbe le
c ow
W in
ĠĈą ćĈ
Ġzan nu
ĠyÃ¬ ÃŃ
Ġtien en
Re view
ĠÎł Î¿Ïħ
ĠÎº Î»ÏĢ
ĠÎ±ÏĢÎ¿ Î»Î±Ïį
× ¢
ĠÏĦÎŃÏĦÎ¿ Î¹Î¿
ĠÏĢÏĮ Ïģ
ĠÎķÎ½Î· Î¼ÎŃ
ĠÎ£Î¬Î² Î²Î±ÏĦÎ¿
Ġlle ol
ko va
Ã¼n dÉĻ
Äį ov
ĠnÃ©l kÃ¼l
me ha
Äģ cija
Ġho y
re dni
ÏĢÎ¿Î¹Î® ÏĥÎµÎ¹ÏĤ
Î¼Îµ Î½Î·
Î¬Î½ Î·
ĠÎ¬ Î½Î¿Î¹
ĠT y
ÏĢÎ¿ Î¼ÏĢ
ÏĢ Î½
Îľ ÎŁÎ£
Î´Îµ Î¹Î±
Î¬Î¶ Î¿ÏħÎ½
c 4
Q A
ĠÏħÏĢ ÎŃÏģ
ĠÎ¬Î» Î»Î¿Î¹
Ġ10 8
Ïĥ Î¯Î¿Ïħ
e 5
13 2
ĠÏĦÏģÏĮ ÏĢÎ¿ÏĤ
ĠÎŃ Î³ÏģÎ±ÏĪÎµ
ĠÎºÏĮÏĥ ÏĦÎ¿ÏĤ
ĠÎ³Îµ Î¼Î¬
Ġ4 V
ÏĦÏħ Î±
ÏĦÎ¹ÎºÏĮ ÏĦÎ·ÏĦÎ±ÏĤ
ÏĥÏį Î½Î·
li o
ĠndÃ«r ko
h Ã©r
ĠÃ¤ r
Ġtej to
Åĳ t
ca ciÃ³
Ġzro bi
zi mmer
Ġce lor
Ġlit Å¡o
Ġj aaka
ĠS ek
st Ã¤n
Ġpow in
res te
Ġcual quier
Ġpa lo
Ä±l ma
fo dd
Ġgy ere
Ġsen se
ĠP rÃŃ
Ġnu ovo
rei z
Ãµ es
ĠBei bele
Ġse chaba
lo ko
Ġje ÅĽli
lu ri
Ġha p
ĠÕ° Õ¥Õ¿
Õ¸ÖĢÕ ®
Õ¡ÖĢÕ ¤
ĠÔ± Õµ
Ġqiy mÉĻt
Ġpri mo
ÅĪ u
Ġna hana
jour d
Ġak ar
Ġtáº¹ li
Ġz yr
Ġtur ari
Ġt v
Ġsi ga
Ġpá»įn dohlan
Ġpen dere
Ġoo fa
Ġoni gbagbo
Ġo piti
Ġnu mimá»į
Ġn wá»įle
Ġmáº¹ yi
Ġmu te
Ġma háº¹
Ġk n
Ġháº¹n di
Ġe ven
ĠalÃ¡gbÃ¨ Ã©k
ĠalÃ¡gbÃ¨Ã©k Ã¡
Ġaj inde
Ġag ekuru
ĠTÃľ VAS
ĠSun day
ĠSp ring
ĠP lu
ĠK id
ĠIndust rial
ĠH at
ĠGege bi
ĠG am
ĠG E
ĠFa lo
ĠF ol
ĠE th
Ã§ ilÉĻr
Ġs Äĵ
ĠE do
ĠCr isto
ĠAca de
ĠAFRI KHE
ĠAFRIKHE PRI
ĠA 3
Ġ11 9
Ġ11 3
éģ ĵ
Ñ Ĩ
te li
ru sa
p Ä±
le x
gori th
fiti wia
c au
bre u
be y
ak pá»į
L AN
F IN
ĠĈ ï¼Į
Ġä¸Ĭ æµ·
ĠÃ¬ á¹£
ve lu
pa i
Ġm ys
un to
Ã¼l Ã©s
ĠTe il
Äģ li
Ġshe ba
ta ciÃ³
Ã§ ek
gs Ã¥
Ġm ÅĤo
Ġthá» ĭ
Ġdec ir
Ġpartic uli
eme ie
ĠDoam ne
Ġb Äĥ
Ġd nes
Ġt Ãºl
Ġy le
Ġt emu
Ġq Ã«nd
to lo
ĠR Ä«gas
ĠEiro pas
Ġperson es
ĠyÃł rÃ¡
Ġtra ta
or d
Ġwi ki
Ġw ould
Ġtrans portation
Ġt oro
Ġsh yÉĽn
Ġsan ra
Ġsa be
Ġoo re
Ġolu yipada
Ġm For
ĠmFor tune
Ġláº¹ nu
ÄŁ ur
Ġlin lin
Ġiá¹£a kojá»įpá»į
Ġil owosi
Ġg ara
Ġf ur
Ġc lub
Ġaz ia
Ġal Ã£
ĠU s
ĠP li
ĠP alyu
ĠN at
ĠN F
ĠMp 3
ĠL UM
ĠK osi
ĠIgba dun
ĠI brahi
ĠHalka lÄ±
ĠD ig
ĠChe ats
ĠB rit
ĠAdo be
éĻ ¢
è¿ Ľ
è¡ ¨
ç ģ
å® Ŀ
ä» ¶
áº¹ laiti
ya me
wh Ã©
v ision
tun tun
mi re
ma di
logbo lori
lin es
lelo kun
lay sia
ist ry
h is
Ġç Ĵ
Ġæ ł
Ġå Ĩ
Ġá»įla ju
Ġá¹¢ áº¸
Ġtitan s
Ġti ra
Ġplá»įn nu
Ġplá»įn máº¹
Ġol did
Ġiso kan
Ġimu áº¹ro
Ġilee á¹£áº¹
Ġdo es
Ġaja lelokun
ĠY A
ĠO go
ĠNitori pe
ĠMa te
ĠK it
ĠG S
ĠDa ily
ĠC oun
ĠB il
Ġ24 110
Ġ! ,
Ġ à´
æ ®
åķ ı
å Ļ
á»į ÌĢ
Ġpr Ã¡
len ia
p Äģr
l Ã¡t
ĠsprÃ¡ v
in as
ĠÃ© rz
ia do
Ġtá» ķ
Å¾ ia
ĠbaÅŁ qa
sz ÃŃn
Ã¶y le
Ġdes puÃ©s
ĠB ild
Ġfi le
Ã©ra tion
ck ie
Ġtimp ul
Ã¼r k
v ard
ĠLatvi jÄģ
ĠbÅ« tu
tori es
to logbolori
re um
onu tologbolori
lopin pin
lai lopinpin
hu nhun
hin ti
h Ã¹
Ġje Å¡tÄĽ
Ġk eni
Ġtu tte
Ġvy u
ÄĻt rz
forma tion
d Ã²
Ã² ria
Ġj at
cep tion
Ġtso ang
c re
bu m
as in
an der
Ġo nu
Ġpre cio
va to
D UN
Ġï¿½ï¿½ ,
Ġá»Į la
Ġáº¹gb ukpe
Ġsara ngo
Ġoru a
Ġni pari
Ġn ano
Ġmáº¹ deláº¹
Ġka láº¹nda
Ġjack pots
Ġi kor
Ġhu wa
Ġhard ware
Ġgre at
re ÅĽ
isi tsoeng
Ġtsama iso
Ġejo bi
Ġe wa
Ġatun to
Ġakpe yeren
Ġak la
Ġafá»į dopolá»į
Ġafá»įdopolá»į ji
ĠW ho
ĠT ek
ĠSo ccer
ĠS now
ĠQ uo
ĠPu di
ĠPrin ce
ĠOlu gba
ĠO ma
ĠMos cow
ĠDepart ment
ĠAtáº¹ le
ĠAN D
ĠA qu
éķ ¿
æĪ ĳ
æ Ľ
äº §
à¸· à¸Ń
ÙĪ ÙĦ
Ùħ ÙĨ
wo le
w ell
t ru
r d
na lá»į
m A
# Ď
Ġé ĩ
Ġè¿ Ļä¸ª
Ġåĵ ģ
Ġá»Įti á»įyena
ĠÅ ¸
ĠÃ Ħ
Ġy cuiêŀĮ
Ġx a
Ġwa gering
ĠtÃº má»į
Ġto onu
Ġnda gba
Ġla lailopinpin
Ġjáº¹ na
Ġi gh
Ġi bá»į
Ġdu a
Ġb ini
Ġaz á»įngban
ĠW OR
ĠTÃľVAS AÅŀ
ĠTa galog
ĠR irin
ĠN C
ĠJohn son
ĠI KI
ĠBe ere
ĠA yi
ĠA fi
Ġ19 92
ì ĸ
è¿ Ļ
ç» ı
å° ±
å ĸ
à¤¾à¤ ¨
Ø ¥
y ar
w osan
v wu
v wer
us á»į
arte ment
Ġgi Ãł
sa ka
Ã´ z
pi wada
os hi
no va
má»į le
máº¹ po
lo ts
li tz
len a
ho bo
gbo diyan
Ã§ ka
tu ta
koz Ã³
Ġper met
gb Ã²
Ġencu ent
Ġen si
Ġbo emo
ĠE v
log ie
Ġmin dig
zz are
gb ese
ami ng
ak ers
P á»Į
N e
H AN
C U
Ġáº¹láº¹ á¹£áº¹
Ġà¹Ģà¸ ¥à¹Īà¸Ļ
Ġyia ga
Ġwi wá»į
Ġu 0
Ġr ig
Ġoni wun
Ġmáº¹ lá»į
Ġmi i
Ġláº¹n dai
Ġkáº¹ táº¹káº¹táº¹
Ġiya woran
Ġise le
Ġâ Ī
ĠÏĦÏģÎ± ÏħÎ¼Î±
ĠÏĥÏī Î¼Î±
ĠÏĥ ÎºÎ¬
ĠÎķÏħÏĩÎ±ÏģÎ¹Ïĥ ÏĦÎ¿ÏįÎ¼Îµ
ĠÎºÎ¯Î½ Î´Ïħ
Îľ Îł
ÎĶ Îĳ
lwy no
pi de
Ġigb anu
Ġibus o
Ġfun k
Ġib iláº¹
Ġi dá»į
ĠgÃ² há»į
Ġfa wá»įn
Ġf l
Ġadá»į kun
ĠVir gin
ĠTra de
ĠSo ft
ĠR oo
ĠPlay er
ĠL CD
ĠKa katimá»į
ĠFil ist
ĠEn ter
ĠChar ter
ĠBo li
ĠBeau tiful
ĠAte jade
ĠAli ho
Ĉ Ĉ
à¸ Ĭ
Ø ²
ylan kan
pe ye
ov wo
ku gbe
in da
g ege
fa fa
q li
ko ÅĦ
f fic
dÃ¡n wÃ²
h li
ĠD he
do máº¹
cat or
EN I
B U
ĸà¸Ńà¸Ļ à¹Ģà¸ĩà¸´à¸Ļ
ĠâĨ Ĳ
Ġá¹£e duro
ĠÃł piláº¹
ĠÃłpiláº¹ ká»į
ĠÃ¬ yÃŃ
Ġpe a
ĠÃ¬ sá»į
Ġshu me
ĠPr isht
Ġndry shme
Ġfol y
ĠU z
lus s
ĠwhÃ© do
Ġtatu ua
Ġsun mo
Ġnu mai
Ġw ena
Ġsi ze
Ġpe re
Ġn beere
Ġm ana
Ġlo ye
Ġlo ng
Ġle pa
Ġl orun
Ġiti ju
Ġibi má»į
Ġgba yi
Ġese gbuyota
Ġen ikeni
Ġayi donugo
ĠTit an
ĠTi ps
ĠS á»Į
ĠS ili
ĠRus s
ĠRe lated
ĠOl ym
ĠAp licaÈĽii
Ġsp re
Ġkil ka
g wa
Ġsc ri
n iem
Ġsi gui
ĠO tto
ĠO il
ĠMá»į wáº¹
ĠJÃ© rusa
ĠJ U
ĠIdani leko
ĠGbáº¹ tá»į
ĠGbi a
ĠFil m
ĠE rz
ĠDeni zli
ĠCa st
Ġje jich
Ġpre dsta
ĠC hun
ĠBa ccarat
ĠAz ure
Ġ: -
Ġ4 50
Ćć ï¼Į
ë ¦
æĬ ķ
à¹Ģà¸ ¥à¹Īà¸Ļ
à¸Ļ à¹Į
ÑģÑĤ Ð²
Ðº ÑĢÐ°
zan ia
wor akpá»į
si i
ra te
pi onate
pa ti
g ers
der ing
ari gi
_ w
W S
T Y
Ġè ¡
ĠÐ½ Ð°
ĠyÃ¬ yÃ¬
Ġya wo
Ġw Ã©
Ġph etha
Ġw om
Ġu sed
Ġta laka
Ġsá»į fitiwia
Ġsi mu
Ġpip Ã©
Ġpati kulu
ul es
Ġoni hun
Ġna êŀĮ
Ġmá»į ÌĢ
Ġgran des
Ġv de
Ġmegfe lelÅĳ
cz ego
li ge
ĠktÃ³ rzy
Ġkg ona
ĠTÃ¼rki ye
dda ngos
Ġres pon
Ġs Ã³lo
Ġt Ã¡c
ĠhÉĻm in
Ġne ces
Ġr Ã¶
Ġter az
Ġt onÃ«
as ti
ĠÃ§ Ä±
Ġsi to
k Ã«n
be z
c 5
ĠÏĨ ÏīÏĤ
ĠÎ¿ÏĨ ÎµÎ¯
ĠÎµÏħÏĩÎ±ÏģÎ¹Ïĥ ÏĦÎ¿ÏįÎ¼Îµ
ĠÎ±Î½ÏĦÎ¹ ÏĥÏĦÎ¿Î¹
Ġa elo
Ġs ko
Ġgi u
Ġak Ã¡r
q an
Ġexp eri
Ġmo del
Ġmbe ti
Ġm áº¹n
Ġláº¹gbáº¹ áº¹
Ġla ya
Ġfer an
ises ta
ĠÎ¿Î¼Î¬ Î´ÎµÏĤ
ĠÎµÏĢÎ¹ÏĩÎµÎ¹ ÏģÎ·Î¼Î±
Ġ000 1
Î¸Îµ ÏĥÎ¹
ĠÏĥÎºÎŃ ÏĨ
ĠÏĥÎ· Î¼ÎµÎ¯Î±
ĠÏĢÏģÎ¿ ÎŃ
ĠÏĢÎ± Î»Î¹
ĠÎļ ÏīÎ´
ĠÎ»ÎµÎ¹ÏĦÎ¿ÏħÏģÎ³ Î¯Î±ÏĤ
ĠÎ³ Î·
ĠÎ±Î½ Î¸ÏģÏī
Ïĥ ÏĩÎµ
Î¼Î¬ ÏĦÎ¹Î±
fa ith
Ġf ri
Ġdo doná»į
Ġd onu
Ġaá¹£ iri
Ġa gue
ĠSh ar
ĠPC B
ĠP U
ĠMeh met
ĠMand arin
ĠKer áº¹
ĠJÃ©rusa lem
ĠIráº¹ danu
ĠIn en
ĠIja bá»į
ĠFor um
ĠE kun
ĠE ditor
ĠC ana
ĠAm hari
ĠA dana
ĠA báº¹
Ġgad Ä«ju
Ġ60 8
ę Ď
é ¦
å± ±
Ð» Ð¸
y onu
wel ry
vw en
ti ki
Ġkor zy
pin nu
Ġpos ky
ma tion
lo ck
g lu
er ox
di mu
OM O
F U
F E
2 11
Ġáº¸ bi
Ġeg iten
Ġá¹£Ãł báº¹wÃ²
Ġá¹¢iá¹£a yáº¹wo
ĠÃĮ já»į
Ġpers one
ĠÃ¬ wÃ²
ite re
Ġle tt
ĠS eg
Ġb Ã¡n
ĠmÃ¼ ddÉĻ
ille r
mu ar
Å« tÄ«
le ges
Ġpod czas
fe lo
Ġlo áº¡i
Ġhe cho
tÅ¡o antÅ¡o
Ġbo holo
ent iel
ĠK Ã«sh
Ġz áº¹
Ġw indows
Ġtu m
Ġpro vi
Ġohun elo
Ġodo mo
Ġni wá»įn
Ġman y
Ġláº¹do gbedev
Ġláº¹dogbedev omáº¹
Ġlori le
Ġko da
Ġj lá»į
Ġimu dani
Ġib á»įn
Ġhe alth
Ġfu ck
Ġaá¹£o fin
Ġaz a
ĠT UN
ĠShang hai
ĠPlat form
ĠPa ckage
ĠLi ver
ĠLe v
ĠL au
ĠK Ãº
ĠIwadi i
ĠIba lopo
ĠG M
ĠD am
ĠChi tonga
ĠCE O
ĠBa la
ĠApp s
Ġ>> >
Ġ36 5
Ġ3 000
Ġ25 6
ë ĭ
æĺ İ
å Ħ
ÃºrÃº ju
§ Ģ
ze ma
tain ment
ta ttoos
ta li
le logun
iro táº¹láº¹
go dona
de e
c ked
bÃ¡ á¹£epá»į
00 5
ĠÎĽ Îµ
ĠÎ¿ÏħÏĥ Î¹Î±Ïĥ
ĠÎ´ÏħÏĥ ÎºÎ¿Î»
âĤ ¬
Î¿Ïħ ÏĥÎ±
Î¼ÏĢ Î¹
Î»Î¿Î³ Î¹ÎºÏĮ
14 8
ĠÎµÎ¼ÏĨÎ±Î½ Î¯Î¶Î¿Î½ÏĦÎ±Î¹
ĠCym raeg
ÏĨ ÎµÎ¹
Î½Î±Î½ ÏĦÎ¯
lyn edd
Ã¡ro d
a si
Y ERE
Ġè »
Ġå Ĭ
Ġá»įn Ãł
Ġno ti
Ġpr ost
ĠelÅĳ tt
vas ti
ĠMa qed
ĠKoso va
Ġm je
Ġtáº¹li foonu
Ġti mes
Ġsono tro
Ġse t
Ġs onu
Ġs ca
Ġow Ã³
ĠPre is
Ġpro bl
ĠÏĢÏģÎ¿ÏĬÏĮÎ½ ÏĦÏīÎ½
ĠÎĳÎ³Î³ Î»Î¹ÎºÎ¬
ĠÎµÎ¾ÎŃ Î»Î¹
ĠÎ¦ Î¹
Ġr y
cht ung
ĠvÃŃ ce
ĠCom o
Ġg je
Ġna da
ga do
Ã¡ ba
il en
zu t
ĠKu i
ÏĪ Î¹
ÏĢ Î±Ïĥ
Î¼Î± Îº
wan eg
Ġan te
ĠÅ¾ivo t
Ġby ÅĤa
Ġh á»Ļi
Õ« Õ¿
ĠÖ ī
Ã¼n ÉĻ
Ġte chni
Ġje b
Ġsi ng
ĠprÃŃ pade
Ġse us
lor es
Ġmar s
Ġo sáº¹
Ġo oo
Ġni nge
Ġn ul
Ġmáº¹n uba
ĠiÅ¡i popada
Ġipada bá»į
Ġimo le
Ġgb asiláº¹
Ġbáº¹ ni
Ġba ptáº¹m
Ġb usiness
Ġayi da
Ġav Ã³Ì£nunina
Ġaso ju
ĠVer sion
ĠV esso
ĠVesso ft
ĠSá»į lom
ĠS esotho
ĠS R
ĠNI GBA
ĠN an
ĠMa gic
ĠLa anu
ĠL ux
ĠI kan
ĠHol m
ĠFran c
ĠC ine
ĠBe at
ĠBe aring
ĠA ction
Ġ% ,
è¿ ĩ
æĪ ı
åħ ĥ
åº ķ
å® ī
å¤ ĸ
à¸´à¸ Ķ
Ä Ń
¨ å¤©
to to
si ta
qu ire
piláº¹ á¹£áº¹
ont arigi
na mes
mi á»įn
len e
le pá»įn
i z
gbonu gbo
fi cial
f s
f ield
aa gun
Po int
KI Y
E D
Ġï¿½ï¿½ï¿½ ,
Ġå ¨
Ġá»Į ga
Ġáº¹ káº¹vuá»įvo
Ġà² Ĺ
Ġta ke
Ġrá»į háº¹
Ġp ona
Ġmu dia
Ġm anu
Ġlagba ye
Ġká»į láº¹
Ġkáº¹ ká»į
Ġjá»į má»į
Ġjáº¹nuká»įn na
ĠhÃ¹ hÃ¹
Ġfi kun
Ġfara pa
Ġf onutologbolori
Ġf arma
Ġenáº¹ wutu
Ġemi tá»įn
Ġaun ti
ĠalÃ£ ye
Ġagb Ãł
ĠY ÃŃ
ĠPa de
ĠP ari
ĠP P
ĠNi co
ĠN AS
ĠMX N
ĠLu ci
ĠL áº¹áº¹
ĠK as
ĠJu st
ĠI je
ĠGe ox
ĠGbi gbá»įn
ĠDi de
ĠD NA
ĠCre dit
ĠBo ko
ĠA lo
Ġ ËĢ
ï¼¥ ï¼
èī² å½©
çĻ ½
åĬ ¡
ä¹ Ł
ÑĮ ÐºÐ°
us to
pi pa
m Ã¬
Ġker Ã¼l
Ġshk ru
I j
Ġs ty
ĠÕ¨ Õ¶
ĠtÉĻ hl
ĠpÃ«r fun
fe d
res se
Ġfol lando
uri dad
Ġroz hod
Ġt ÃŃnh
Ġn der
Ġke tÃ«
ĠSu omen
Ġmit Ã¤
du ction
os podar
Ġv Ã¡
j it
Ġp oss
istra tion
ho od
esi an
X I
V G
ANG O
ĠãĢ ĭ
ĠâĢĿ âĢĭâĢĶ
Ġà¸£ à¸«
Ġà¸£à¸« à¸±à¸ª
ĠÅ¡ ee
Ġwá»įn yáº¹n
Ġts aa
Ġpá»į máº¹
Ġnd uru
Ġkoman de
Ġiro keke
Ġikun sinu
Ġigban isise
Ġi wáº¹
Ġe gan
Ġd Ã³
Ġcont ent
Ġcheat er
ĠWhen áº¹nu
ĠSlee ve
ĠPan as
ĠP irate
ĠP I
ĠOE M
ĠMon day
ĠMa uri
ĠGB E
ĠDe velo
ĠCorpora tion
ĠChin e
ĠC I
ĠAar oni
ĠA bojuto
Ġ9 99
Ġ6 50
Ġ50 5
Ġ3 20
Ġ19 2
ï½ħ ï½
éĻ ¤
éĩ į
è» Ĭ
åį ļ
åħ¬ åı¸
å ¨
â Ħ
Ø§Ø ¡
Åĭ gb
ro x
m ina
h ie
ba a
ĠJ wa
B B
Ġè Ģ
Ġç ī
Ġta ta
Ġon kawe
Ġon isáº¹
Ġolu fara
Ġof e
Ġpa kalpo
Ġo z
Ġo bu
Ġng on
Ġn yo
Ġli lu
Ġigb ona
Ġi yin
Ġh Ã²Ì£
Ġg áº¹áº¹si
Ġe mail
Ġamá»į daju
ĠVi tamin
ĠU HD
ĠSá»įlom á»įni
ĠS k
ĠOlu ká»į
ĠNi ngbo
ĠMe je
ĠMP 3
ĠL áº¹n
ĠL oo
ĠK anada
ĠIwo ye
ĠInen ikristi
ĠG hana
ĠFun 88
ĠEl mas
ĠElmas taÅŁ
ĠDirector ate
ĠC ustom
ĠB and
ĠA tá»į
ĠA lan
Ġ5 77
Ġ43 9
ãģ Ĺ
ãģ £
à³į à²ķ
Ð¸ Ñı
£ ÐºÑĢÐ°
y ya
pu po
ph er
láº¹ nalá»į
l Ã¹
on na
Ġf emei
Ġcad rul
elicu las
Ġun os
Ġqu Ã¨
Ġan ul
Ġf Ã©l
Ã¼ h
Ġprin cipa
Ġte mat
ĠÏĥÏĦÏģÎ± ÏĦÎ¹
ĠÎµÏģÏİ ÏĦÎ·ÏĥÎ·
ĠÎ±ÏĥÏĨÎ¬ Î»ÎµÎ¹Î±
Ġwy bodaeth
Ġl iel
Ġma o
Ġh Ä¾a
Ġw ol
Å ·
Ġce z
Ġlik arolo
Ġpo tla
ĠRÃ©sz let
Ã¶ m
Ġe go
Ġm Äĵr
Ġwor dt
Ġh ul
Ġczy li
ila ble
il owo
gu an
er an
din logun
Ġt Ã¬nh
Ã¡s sal
ĠT l
ci fic
len ÃŃ
te tet
il iau
bla nu
S ale
C P
ĠðŁ ĺ
Ġï¼ İ
Ġç ģ
Ġæĺ ¨å¤©
ĠÐ½ Ðµ
ĠÄ Ń
ĠÃĢ ká»įsÃŃláº¹
Ġza nháº¹
Ġz ing
Ġyáº¹ dide
Ġtun to
Ġto mati
Ġsáº¹ pá»į
Ġsa id
Ġs oso
Å£ iei
ĠTe en
da t
ĠT lha
iss ement
Ġaiz s
Ġpo ku
Ġonis egun
Ġoni tu
Ġo be
Ġla ng
Ġki kopa
Ġka le
Ġi gbá»įn
Ġgenera teur
Ġf la
Ġdu vivi
Ġboo ks
Ġbi bi
Ġayida yida
ĠY II
ĠS ER
ĠQ at
ĠP id
ĠN Ãł
ĠMan as
ĠLife B
ĠL ilá»į
ĠKá»į mputa
ĠJu u
ĠI lá»į
ĠHÃ© breu
ĠG iri
ĠC anc
ĠC HE
ĠB all
ĠAu thor
ĠA pá»į
Ġ? ,
Ġ9 11
Ġ30 4
Ġ2 11
Ġ äºº
é¢ ĳ
è¿Ļä¸ª èī²å½©
è´ ¹
è ¥¿
åĻ ¨
ä»£çłģ æĺ¯
ãĥ¼ ãĤ
à¤¤ à¤²
Ñ Ĺ
Ð¾ Ð½
uni lori
ther n
row s
n ana
li tá»į
jÃŃ rÃŃÃł
gbe yin
fu ra
f ied
da ys
cu lar
ĠmÃ¼na si
ba k
ON U
M e
Ġá»įtá»į tá»į
Ġáº¸ já»į
Ġà¸Ĺ à¸²à¸ĩà¹Ģà¸Ĥà¹ī
Ġw uláº¹
Ġs tate
Ġs mati
Ġolo ye
Ġnch kwiêŀĮ
Ġmáº¹ láº¹po
Ġmo likula
Ġma Ì±
Ġma p
Ġiban isá»įrá»į
Ġg ov
Ġenáº¹ godo
Ġda le
Ġd láº¹nalá»į
Ġbá»į dego
Ġbo ngo
ĠatÃ« nÃ«
Ġako le
Ġa tá»įka
ĠSt ri
ĠPo li
ĠPa ck
ĠOniru uru
ĠOluwa di
ĠLifeB og
ĠLifeBog ger
ĠIpa d
ĠIdo go
ĠG idi
ĠFun d
ĠCircu it
Ġ6 s
Ġ10 80
Ġ! .
Ġ à¹Ĥ
ā Ď
ï¿½ï¿½ï¿½ï¿½ ï¿½ï¿½ï¿½
ìĸ ´
éĢ £
çİ °
ç ¼
ç ¬¬
å° ¼
à¥ĭ à¤
ÑĹ Ð½Ñģ
ÑĹÐ½Ñģ ÑĮÐºÐ°
£ÐºÑĢÐ° ÑĹÐ½ÑģÑĮÐºÐ°
ung bo
Ġm araq
te in
ra y
ous ly
ma p
kara hun
ira ki
gbi gbo
che wa
Ġï¿½ï¿½ï¿½ï¿½ï¿½ï¿½ :
Ġå ¼
Ġwi fe
Ġvu á»įvo
Ġt witter
Ġof ori
Ġná»į godona
Ġng ia
Ġl á»įna
Ġk ara
Ġj owo
Ġip anu
Ġidani leko
Ġhoho whenu
Ġdaa ká»į
Ġca vitation
Ġc oun
Ġb ani
Ġayi haawe
Ġara bara
ĠYi pada
ĠWell ton
ĠT H
ĠT AN
ĠR in
ĠPu re
ĠPor table
ĠP y
ĠNu hi
ĠNIGBA TI
ĠI YA
ĠH I
ĠFran k
ĠDi m
ĠAti láº¹
ĠAla iláº¹gbáº¹
ĠA fáº¹
ĠA O
ĠA KIY
ĠA GBA
Ġ3 gp
Ġ10 2
Ġ- >
ç ¤
å¯ ¹
ãģ ¡
à· Ĵ
yan mar
on de
nh a
k ose
ise x
em s
em ba
da la
ctor s
aêŀĮa Ì±
W I
Ġá»įn ana
Ġáº¹ dáº¹
Ġáº¹ dinwo
Ġá¹£iá¹£ atunká»į
Ġá¹¢ á»į
Ġà¤® à¤¤à¤²
Ġà¤®à¤¤à¤² à¤¬
ĠÃłw ÃºrÃºju
Ġwhi wháº¹
Ġp ower
Ġolu wo
Ġolo gba
Ġogbo logbo
Ġma de
Ġifá»įwá»į ra
Ġibara en
Ġf ind
Ġele ct
ĠTÃ¼rki yÉĻ
Ġee kanna
Ġd Ã²Ì£n
Ġbu luu
Ġbroad cast
Ġagba iye
Ġaf owo
ĠUser names
ĠTáº¹ le
ĠSer vices
ĠSa i
ĠSa fari
ĠS M
ĠOlo gba
ĠMa xi
ĠM U
ĠHara m
ĠG le
ĠChi chewa
ĠBer n
ĠAzerbaij ani
ĠAS I
Ġ23 0
Ġ ä¼
æģ ¯
áĥ Ķ
vani zed
v Ã³Ì£
s ara
lu si
k áº¹n
k isi
g ri
d oro
boo lu
bo gia
O T
ES U
Ġï¼ ¡ï¼
Ġá»Į ÌĢ
Ġse p
Ġc Ã´
ĠtÉĻ min
gb an
tlo lo
ĠÎ± Î»Î·
ĠÎ£Î® Î¼ÎµÏģÎ±
Ġgw er
ci Ã©tÃ©
Ġprzypad ku
Ã´ r
Ġba ngata
v ou
Ġli it
Ġtro is
Ġtara f
Ġvá» ĭ
Ġáº¸láº¹ da
Ġáº¸ ri
ĠÃł mi
Ġyáº¹wheho didá»į
Ġyan wle
Ġwhi wh
Ġvwer hen
Ġu che
Ġp lug
Ġow Ã¨Ì£n
Ġorisun tv
Ġnii á¹£e
Ġmo ti
Ġla na
Ġla ga
Ġke je
Ġitá»į ka
Ġgh wu
Ġdo pin
Ġco pyright
Ġb om
ĠaÌĢ wá»įn
Ġm ÉĻni
Ġun ul
Ġbildir ib
ka cji
ÉĻs inÉĻ
ti kai
l li
Ġac tivi
Ġse fa
Ġhla hlo
ĠI hr
ĠJe ÅĽli
Ġpro jet
Äį nÄĽ
ĠRes ort
ĠHotel _
Î¾ ÎµÎ½
ĠÏĢÎµÏģÎ¹Î»Î±Î¼Î² Î¬Î½ÎµÎ¹
ĠÏĢÎµÏģÎ¹ Î¼ÎŃÎ½
Ġcyn taf
Ġri cer
Ġac c
ku ma
es Ã«
ĠtÃ¡mo gat
ĠnÃ¼ ma
ĠP are
ÃŃcu lo
Ġma la
Ġsi itÃ¤
Ġc áº§u
ĠF rau
Ġb Ã¶l
ĠB es
Ġboi ma
Ġni vel
Ġbiz ony
ma ch
il let
m Äĵr
Ġala se
Ġagbasa lan
ĠYáº¹ whe
ĠYo ga
ĠW ol
ĠUn der
ĠTurk ish
ĠTrans lation
ĠTat ar
ĠRe ad
ĠPanas onic
ĠOun je
ĠO x
ĠO JU
ĠMuham madu
ĠMilan o
ĠM yanmar
ĠM AR
ĠLom unu
ĠLO RI
ĠL UN
ĠKa ori
ĠI ETT
ĠF lash
ĠCon struction
ĠCo pyright
ĠBa logun
ĠAi ye
ĠAcade my
ĠA BI
Ġ15 00
çĶ ³
ç« ¯
æķ °
æĶ ¿
æ Ĳ
åŁ º
à³ Ĥ
ÃĴ Ì£
wa yi
w ÉĽ
uru gu
uf u
m ise
s isi
ráº¹ y
ro ng
or hiáº¹n
ma la
logi cal
hu gan
del áº¹nu
be at
ba s
ari us
S O
DA FUN
Ġï¼ Ł
Ġï¸ İ
Ġç Ľ
Ġá¹£á»į ra
Ġyu u
Ġv 2
Ġtun má»į
Ġti tele
Ġprodu ct
Ġnugo pipe
Ġni pinle
Ġn ja
Ġmal ware
Ġlat est
Ġkey board
Ġcon di
Ġiá¹£a gbe
Ġiyan ju
Ġitu tu
Ġise jade
Ġif o
Ġfik iráº¹
Ġf it
ĠeB ay
Ġc ell
Ġbá»į wá»į
Ġamu aradagba
Ġala gb
Ġal gorith
Ġai pe
Ġa ci
ĠS UN
ĠRa in
ĠP lá»įn
ĠOjo bo
ĠO TT
ĠNI KAN
ĠN jagun
ĠMáº¹ di
ĠMáº¹di tar
ĠM usta
ĠIs á»į
ĠG BA
ĠF á»įwá»į
ĠF oruká»įsiláº¹
ĠDire ct
ĠDani áº¹li
ĠCham pi
ĠB la
ĠA tu
ĠA RI
Ġ3 G
Ġ24 0
Ġ20 210
Ġ( â
à²¾à² Ĺ
Ð ¶
vwo hwo
shing ton
sa ga
od y
lu lar
lin k
gi um
ff le
dun a
di um
bari c
bara k
b Ã²
Ã¡n o
are kin
Ġpri es
ĠMen schen
u ks
ga tavo
Ġbar dziej
Äį enie
at rain
am is
Sh ell
ERE FUN
Ġï¿½ï¿½ï¿½ï¿½ï¿½ï¿½ï¿½ï¿½ï¿½ï¿½ï¿½ï¿½ ï¿½ï¿½ï¿½
Ġç ı¾
Ġæ Ģ
Ġåı ¯
Ġå ½
Ġtu bu
Ġti re
Ġsáº¹ sáº¹
Ġsu re
Ġst reet
Ġs Ã¹n
Ġalap jÃ¡n
ta mente
Ġow Ã¹
Ġmáº¹ san
Ġma hopá»įnna
Ġhomáº¹ gble
Ġgb Ã¡
de j
ĠHotel_ Review
ÏĦÎ±Î½ Î¬
ĠÏĮ ÏĢÎ¿
ĠÏĦÎ¯ÏĦ Î»Î¿
ĠÎ»ÎµÏĢÏĦÎ¿ Î¼ÎŃ
ĠÎ» ÎµÏħ
ĠÎ²Î¿Î® Î¸ÎµÎ¹Î±
ĠÎ± ÎºÎ±
ĠÎ¬Ïĥ ÎºÎ·
ĠÎ§ ÏģÎ·
Ġmo dd
Ġne po
l Ã¨
Ġc ÉĻ
Ã¡b or
da tÄĥ
ÏģÎµ ÏħÎ½
Îµ Î¯Î±
ĠÏĢÏģÎ¿ ÏĢÎ¿
ĠÎºÎ±Î¹ Î½Î¿Ïį
Ïĩ Î¸
Î² ÏĮ
Î® Î»
ĠÏĨÎ¯ Î»Î¿ÏħÏĤ
ĠÎ´ ÏģÎ±ÏĥÏĦÎ·ÏģÎ¹
Ġdi wedd
ja a
Ġre zul
Ġh ansÄ±
ngo a
Ġsub way
tla lo
Ġg Ã¬
Ġs na
os to
Ġmo e
Ġa il
ĠÃ§ Ã«sh
li tat
Ġme ttre
Ã«s u
Ġs enti
Ġdes prÃ©s
Ġwo j
Ġo gsÃ¥
Ġes a
us te
ene j
mm es
Ġtse be
ĠK ho
jen o
ĠÃ§ farÃ«
Ġla b
Ġole h
Ġca zul
Ġca li
Ġsz Ã©p
o re
f at
p pa
sz Ã¡m
je ts
Ġgb ara
Ġj ÃŃ
Ġma chen
ĠÏĨ Î¿Î¹
ĠÎºÎ±ÏĦÎ¿ Î¹Îº
ĠÎ² ÏģÎ®
ĠÎ¤ÎŃ Î»Î¿ÏĤ
ÏĦÎ® ÏĥÎµÏĦÎµ
Ïģ ÏĨ
_ WWW
C he
ĠÏĨÏī ÏĦÎ¿
ĠÏĥÏį Î³Îº
ĠÏĢÎ±ÏģÎµ Î»Î¸
ĠÎ¸ÎŃ ÏĥÎµÎ¹ÏĤ
ĠÎ³ ÎºÎ¿Î»
ÏĩÎµÎ¹ ÏģÎ¹Ïĥ
1 a
ĠÏĩ Î¹
ĠÎ¿Î»Î¿ÎºÎ»Î· ÏģÏī
ĠÎµÎ¯ÏĩÎ± Î¼Îµ
ĠÎµ ÏĦÎ¿Î¹
Ġcyf le
h ely
Ġga du
ĠÅŁÉĻk il
áº¹ p
Ġpor te
ĠShqip Ã«risÃ«
ĠpÃ«r dor
Ġegy e
le ÅŁ
sk Ã½ch
á ¼
Î¬Ïģ ÏĦÎ·ÏĥÎ·
Î¤ ÎĳÎ£
ĠÏĨÎŃ ÏĦÎ¿ÏĤ
ĠÎĶ ÏģÎ±ÏĥÏĦÎ·ÏģÎ¹ÏĮÏĦÎ·ÏĦÎµÏĤ
Ġ0 x
ÏĪ Ïī
Î»Î¿Î³ Î¹ÎºÎ®
ĠÏĢÎ±Î¯Îº ÏĦÎµÏĤ
ĠÎ±ÏģÎŃ ÏĥÎµÎ¹
Î¸ Î¼Î¹ÏĥÎ·
Î´ÏģÎ¿ Î¼Î®
Î´Î¿ ÏĥÎ·ÏĤ
ĠÏĥÏħÎ½ Î±Î¹Ïĥ
ĠÎµÎ¯ Î´Î·
ĠÎ£ Î¿Ïħ
Ġys gol
Ġciu dad
du je
Ġhi yo
Ġj ossa
Ġou ver
á»ĥ n
ÈĽ iei
Ġdu buláº¹
Ġai lagbara
Ġa nge
ĠW áº¹áº¹
ĠTi g
ĠSh ona
ĠS ÃŃ
kor mÃ¡ny
Ġja ng
Ġcomm un
ÃŃt ani
Ġsur f
Ġham moho
Ġcys yll
Ġprzy got
ĠPower Shell
ĠPana ma
ĠDeutsch land
ĠMáº¹ditar enia
ĠManu facture
ĠM ia
ĠM G
ĠLi te
ĠKok oro
ĠE asy
ĠCh urch
ĠCh it
ĠB eg
ĠAla dani
Ġ30 3
Ġ20 3
æ Ľ´
æ į
ä¸ İ
á»įna litá»į
à¸ ĺ
Ñ ĸ
ÉĽ ri
ÉĶr ÉĶ
ych ic
ting s
tel lite
ring b
qu ie
pe ti
ni ture
ko á¹£o
k g
Ġs lim
Ġvii me
hos á»įnalitá»į
h ona
gboo gbo
fin ro
co de
br iel
ba li
an de
R P
Ġá»Į fáº¹
Ġá¹¢a koso
ĠØ ³
ĠÃĢ Wá»ĮN
Ġwhe deláº¹nu
Ġt yu
Ġt oni
Ġsá»į ha
Ġran se
Ġra ce
Ġr ÃŃ
Ġny el
Ġsi cu
Ġcil Ã«t
Ġso cial
ar is
ent ras
em ong
ĠviÅĨ Å¡
yn ie
ÏĦ ÏĥÎ¿
ĠÏĦÎ±ÏħÏĦÏĮ ÏĩÏģÎ¿Î½Î±
ĠÎµÎ¯ Î´Î±Î½
ĠÎ±ÏħÏĦÎ¿ ÎºÎ¹Î½Î®
ĠÎ§Î¬Ïģ ÏĦÎ·ÏĤ
ĠE TH
ĠD U
Ġnom Ã©s
ÏģÏİ ÏĥÎµÎ¹
Î¼Î¿ Î¹Î±
Î» ÏİÏĤ
r wydd
tr ie
da an
Ġpu sh
Ġx alq
Ġes ka
Ġni veau
Ã¤ ch
Ġam bi
ĠPre zident
Ġm l
Ġsk Ãº
Ì ī
Ġt áº¡o
Õ¸Õ ½
Ġet dir
Ġcon stru
k m
ÄŁ ini
ich te
Ġco ÅĽ
Ġm ira
ĠÎľ Îł
ĠÎķ Î¾Îµ
ĠÎĶÎ· Î¼Î®
ĠÎµÎ¼ÏĢÎµÎ¹ ÏģÎ¯ÎµÏĤ
Ïħ ÏĥÎ·ÏĤ
ra dd
Ġtla meha
12 5
ĠÎ¿ÏĢ ÏĮÏĦÎµ
ĠÎµÎ¾Î±Ïĥ ÏĨÎ±Î»
ĠR ow
ÏĨÎµ ÏģÏĮ
ÏĦÏģÎ¿ ÏĢÎ®ÏĤ
ĠÎļÎ¿Î½ ÏĦÎ¬
ĠÎ¼Ïħ Î±Î»ÏĮ
ĠÎ±Î½Î± ÏĨÎŃÏģÎµÎ¹
ĠÎľÎµ Î³Î¬
ÏĦÎ· Î¼Î¿Î½
ÏĦÎ¬ Î¾ÎµÎ¹ÏĤ
ÏģÎ¹ ÏĮ
Î¿Î½ ÏĦÎ±Î½
Î¼ ÎµÎ¹ÏĤ
Î¸Î·Î½Î± ÏĬ
l len
Ġza st
Ġqu indi
Ġpo ko
ĠErmÉĻn istan
Ġm Ã¥
lo in
ĠdÃ¶v r
ĠÏħÏĢÎ¿ ÏĥÏĦÎ®ÏģÎ¹
ĠÎµÎ¹ Î´Î¿
ĠÎ´Ïį ÏĥÎºÎ¿
ĠÎ±Î½Î¸ÏģÏİ ÏĢÎ¹
ĠÎ£ Î¬
ĠAD0 AIg
ÏĥÏĦÏĮ ÏĦÎ¿
ÏģÎ¯Î¶ Î¿Î½ÏĦÎ±Î¹
ĠÏĦ ÏģÎ¯Î±
ĠÏĢÎ¿Î» Î»Î¿Î¯
ĠÏĢ ÏĮÎ½
ĠÎļÎ± Î»Î®
ĠÎºÎ±ÏĦÎ±ÏĩÏİ ÏģÎ¹ÏĥÎ·ÏĤ
ĠÎµÎ¾Î±Î¹ÏģÎµ ÏĦÎ¹ÎºÎ¬
ĠÎ´Î·Î¼Î¹Î¿ÏħÏģÎ³ Î¯Î±
ella ch
Ġf Ã¼
ĠktÃ³r ym
Å ł
ĠÂ ¤
ĠvÃ½ro b
Ġi tseng
Ġc Ã¢t
Ġr ie
ĠÏĢÎ¬ ÏģÎ±
ĠÎĶÎ¹ ÎµÏįÎ¸ÏħÎ½ÏĥÎ·
× ĺ
ÏħÎ½ ÏĥÎ·
ÏĦ ÏĥÎµ
Î¾ Î¿ÏħÎ¼Îµ
ÎµÎ¯ Î¼ÎµÎ½Î±
ĠÎºÎ±Î»Î¿ ÎºÎ±Î¯ÏģÎ¹
ÏĦÎ® ÏĥÎµÏīÎ½
Îº ÏģÎ¬
Î¯Î½ Î¿ÏħÎ¼Îµ
b 5
ĠÏĩ ÏĦÏħ
ĠÎł ÎµÎ¹
ĠÎµ ÏĩÎµÎ¹
ĠÎ´Î¹Î±ÎºÎ¿ ÏĢÎŃÏĤ
ĠÎ£ Î¹
Ġer byn
Ġa che
Ġc osa
ni ce
Ġsi Ã§
tta va
er os
Ã´ le
jÃ« s
ĠPra ha
s pÄĽ
s ul
Ġsta ta
Ġre cenz
Ġn p
r Ã«n
Ġtar vi
Ġencont rar
Ġas so
Ġoju rere
ĠnÃ¬ dÃŃ
Ġnukun máº¹
Ġmata lab
Ġlá»į ra
Ġlaile wu
Ġiw unilori
Ġirin ajo
ĠG y
po vÄĽ
Ġan nak
ĠvÅ¡et ko
Ġm wa
Ġida jo
ma ÄŁa
Ġmi da
vo k
Ġib Ã¹
Ġsho rt
Ġprofession nel
Ġba ina
Ġprodu it
ÅĽ cia
k ti
mb res
t Å¡i
Ġre ka
Ġri en
uri le
Ġo tras
Âµ ÃĦ
á»Ń a
Ġtr ouver
ĠVe Ä¾
Î¹Î¿ Î¹
Î² ÎŃÏģ
ĠÏĢÎ±ÏģÎŃ ÏĩÎµÎ¹
ĠÎµÏĨÎ· Î¼ÎµÏģÎ¯
ĠÎ±ÏĢ Î¯
ĠL yn
ÏĢÎ· ÏģÎŃ
Î¿ÏģÏħ ÏĨÎ¿Ïģ
ĠÎĴÎµÎ» ÏĦÎ¯ÏīÏĥÎ·
ĠÎĵÎ± Î»Î»
ÏİÎ½ Î·
cra mento
ĠÎłÎĳ ÎŁÎļ
ĠÎķÏĢÎ¹ ÏĢÎ»ÎŃÎ¿Î½
ĠÎĴ ÏģÎµ
ĠÎ½ÎŃ Î¿Ïħ
ĠÎ¼Î± ÏĦÏĤ
ĠÎµÏĢ Î·ÏģÎµ
ĠÎ³ÏģÎ± Î¼Î¼
ĠÎ² Î®Î¼Î±
Î³Î³ Î¹
st yr
Ġg one
Ġpe lo
Ġgya kor
Ġt ÃŃm
v ky
v end
f ane
Ġfi yesi
Ġc le
Ġb Ãł
ÅĤu gi
ad is
Ġju in
Ġrre g
us sa
Ġvi zs
Ġde ci
se z
ĠEn t
Ġh Ã¡
g ÄĻ
Ġde ÄŁ
Äĵ ta
Ġte da
Ġaa ti
ĠYum bui
ĠX erox
ĠWá»į lÃ©
ĠTe x
ĠP ur
ĠOri ginal
ĠLiver pool
ĠLan ka
ĠKen ya
b 2
ĠÏĢÏģÎ¿ÏĥÏĦÎ± ÏĥÎ¯Î±
ĠÎµÎ»ÎŃ Î³Ïĩ
ĠÎ´ÎµÎ´Î¿ Î¼ÎŃÎ½ÏīÎ½
Ïĥ ÏĦÎ¿ÏĤ
Ïĥ ÏĦÎ¹ÎºÏĮ
yl ch
ĠA yan
Ġ? âĢ¦
Ġ16 8
è§ £
ç ¶
áĥĲ áĥ
à¸´à¸ ķà¸£
àµį à´
Ùİ Ùĳ
shi pping
ráº¹ l
pa w
lu tions
l ose
káº¹ ti
kue i
ko koro
ka ya
ho do
ha ze
e c
d ise
bo t
bo lic
ba yi
b ri
W AN
UR U
LE S
ŀà¸±à¸Ļ à¸ĺ
ŀà¸±à¸Ļà¸ĺ à¸¡
ŀà¸±à¸Ļà¸ĺà¸¡ à¸´à¸ķà¸£
Ġá»Į á¹£á»į
Ġá»Į ro
Ġá»Į nana
Ġá¹£Ãł dÃ¡nwÃ²
Ġá¹£a á¹£e
ĠÙ Ĩ
ĠÃ¬lÃ© pa
Ġwon yi
Ġv esz
Ġt eri
Ġsisan ra
Ġs hop
Ġpai pu
Ġo te
ĠnÃŃn Ãº
yn ku
Ġlai ka
ĠÃ´ ng
j ne
Ġgj end
te lor
Ġprz ek
tu ksen
y nau
Ġpon Ãº
ĠgÃ¼ c
Ġb ene
v Ã¡bbi
Ġv Ã«sh
Ġneu e
Ġt ant
Ġalu e
do edd
g lÄĻ
Ġperi oa
hle d
Ġnue va
it ung
Ġu gyan
ce re
j ke
Ġp unk
Ġkar ÅŁÄ±
Ġtra vÃ©s
ĠmÃ¼ s
ĠRÃ©szlet esebben
Ġmeg jel
ga i
ĠCha ussures
Ġan nÃ©es
ia mo
nÃ½ mi
c eri
Ġnost ro
la zione
ĠÃ©v es
ĠPr esi
Ġil in
Ġli te
Ġtra j
Ġtele le
Å¡ÃŃ m
be th
es el
Ġdez vol
d ha
3 a
1 20
ĠÏĢÎ±ÏģÎµÎ»Î¸ ÏĮÎ½
ĠÎŃÏĨ ÏĦÎ±
ĠÎķ Î£
ĠÎºÎ±Î½ ÎŃ
ĠÎ¹ Ïĥ
ĠÎµÏĢÎ¹ÏĦÏħÏĩ Î¯Î±
ĠÎµÎ½ Î´ÎŃÏĩÎµÏĦÎ±Î¹
ĠÎµ Î¼Î¬ÏĤ
ĠÎ¡ Î¿
Ġwy th
Ġaun que
v Ä«
ĠÃ į
Ġf ino
Ġt uy
g esch
Ġdeman de
curi tÃ©
Ġt est
ha to
Ġtar jo
Ġle in
Ġmu aj
Ġques tion
Ġde be
tÃ© z
Ġart Ä±q
× ¤
ÏģÎµÎ¯ ÏĤ
ĠÏĩÏģÎ¿Î½ Î¹Î¬
ĠÏĢÏģÎ¿ ÏĦÎ¹
ĠÎķ ÏĢÎµÎ¹
ĠÎµÏħ ÏģÏīÏĢÎ±ÏĬ
ĠÎ± Î¹Ïİ
ĠR he
fi er
Ġpi er
Ġba re
Ġda mit
ĠÃ¶ r
Ġe bile
Ġdur ant
ãĤ ª
ÏĪ ÎµÏĦÎµ
Ïģ Î¼Î¿
Î» Î¬Î½
ĠÏĥÏĩÎŃ Î´Î¹Î¿
ĠÎĵ Î¯Î½ÎµÏĦÎ±Î¹
ĠÎ¿Î¸ÏĮ Î½Î·
ĠÎ»ÏĮ Î³Î¿ÏħÏĤ
ĠÎ¹Î´Î±Î½ Î¹ÎºÏĮ
Î¯Î½Î· ÏĤ
77 7
ĠÏħÏĢÎ·ÏģÎµ ÏĥÎ¹ÏİÎ½
ĠÏĦÎ¼Î® Î¼Î±
ĠT re
Î¼Î± Ïģ
Î¼ Î¬Î½
Î»Î»Î·Î½ ÎµÏĤ
ĠÏĥÏħÏĥÏĦÎ® Î¼Î±ÏĦÎ¿ÏĤ
ĠÎĳ ÏĤ
Ġ[ "
Ïĩ ÏģÎ¿Î½
ĠÏĩÎ¹Î» Î¹Î¬
ĠÏħÏĢ ÎµÏį
ĠÎĮ Î¼ÏīÏĤ
ĠÎ¹ Î´
ĠÎ´Î¹ÎºÎ±Î¯ ÏīÎ¼Î±
ĠT w
ãĥ¼ãĥ ł
Ïĩ Î½Î·ÏĤ
Ïĥ Î¼Îµ
Î½ Î¯
Î¼ÏĢ Î¿ÏħÎ¼
Î¸ Î»Î·Î¼Î±
Î³Îµ Î¸Î¿ÏĤ
ĠÏĢÏģÎ¿Ïĥ ÏĨÎ¿ÏģÎ¬
ĠÎļ Î±Î½
ĠÎĻ Î±
ĠÎ¼Îµ ÏģÎ¹ÎºÎŃÏĤ
ĠÎ´Î¹ ÎŃ
ĠÎ´Î·Î¼Î¿ ÏĥÎ¹ÎµÏį
ĠÎ¤ÎµÏĦÎ¬Ïģ ÏĦÎ·
ĠÎ¤ ÏĮ
ĠAS US
ÎĻ Î¤
Î¸Î·ÎºÎµÏħ Î¼ÎŃÎ½Î±
Î´Î¯ ÏīÎ½
ol fan
Ġins titu
ĠJ est
Ġse da
Ġt art
f 0
2 20
ĠÎµÎº ÏĦÎ¹
ĠÎ´Î¹Î± Î½
Ġu chel
Ġwy p
j me
sh Ã«
Ġwa tu
Ġn ze
Ġká»į Ç¹pÃºtÃł
Ġko nge
Ġila j
Ġh il
Ġfaa gun
Ġda ya
as ca
c ur
Ġc oo
Ġbo juto
Ġap á»įn
ĠWin ner
ĠW Ã¡
ĠU omo
ĠTi to
ĠTi tii
ĠTO Ì£N
ĠR T
ĠPri vate
ĠPid gin
ĠM beni
ĠKi lode
ĠGar b
ĠGa briel
ĠG overnment
ĠE ric
ĠDra ma
ĠD rop
ĠCo tton
ĠC our
ĠAt Ã²Ì£hÃ²Ì£
Ġ34 4
Ġ2 33
Ġ" )
éĢ ł
å± ķ
á¹£u ra
à¸Ľ à¸Ńà¸ĩ
à¸¹ à¸Ľà¸Ńà¸ĩ
à³ ĩ
wá»į Ìģ
ÅĽ rÃ³d
Ġvy so
Ġva li
Äį nÃ¡
f ten
ph ani
Ġmiejs ce
Ġd onn
Ġon s
Ġpe th
Ġt Äĵ
Ã¡ ja
Ġca z
Ġn ull
Ġmin d
Ġlaz Ä±m
Ġv asta
Ġnd onjÃ«
Ġna ha
Ã¨ mes
Ġat ra
Ġpr Å¯
Ġdob rze
ĠNi d
ĠE ine
Ġr Ã´z
Ġqu áº£
Ä±lÄ± r
Ġal lo
nÄĽ nÃŃ
enn us
Ġst os
ĠM esa
an Äĥ
v res
Ġtr u
p Ã¤i
re l
g lÄ«
Ġta p
Ġro bi
ĠÄ ĥn
ille urs
Ġal les
tza ile
ÏģÎ³ Î·
Î»Î¿Î³ Î·
ĠÏĢÏģÎ¿ÏĬÏĮÎ½ ÏĦÎ¿ÏĤ
ĠÎµÎ¾ÏīÏĦÎµÏģ Î¹ÎºÏĮ
Ġam ry
Ġ\ /
Ġe con
nie ku
mi ast
Ġme zi
Ġ Ã¡ra
Ġsu c
isi Ã¤
va b
ĠV ers
ĠSi pas
ĠvÃ¤ Äį
Ġservi ces
u sz
ÉĻ cÉĻk
Ġat bal
ch ÄĻ
Ġdo ch
Ġstr ony
ĠNÃ« se
u do
rin a
phi c
onal d
n ish
mis sion
mamo ÄŁlu
j ini
Ġj y
Ġna y
h osa
g it
doko owo
bay o
\ \
Z A
Ġé Ŀ
Ġæľ Ģ
Ġá»Į gba
Ġáº¸ni ti
Ġà ¶
ĠÑ ĩ
Ġwe ka
Ġw le
Ġso fo
Ġolufara gba
Ġogb ontarigi
Ġo il
Ġn rin
ĠmÃŃ de
Ġla ptop
Ġl ili
Ġida láº¹nu
Ġg od
Ġex tra
Ġee fun
Ġe va
Ġb lebu
Ġaká»į rin
ĠTan zania
ĠT áº¹li
ĠT hi
ĠT B
ĠSolom oni
ĠS mi
ĠS aa
ĠPa pia
ĠOlu ran
ĠN do
ĠMu barak
ĠMatte u
ĠM id
ĠK iny
ĠJo bu
ĠJ owo
ĠIba á¹£epá»į
ĠI Å¡
ĠI phone
ĠHE VC
ĠFi ji
ĠE sin
ĠCe bu
ĠAp k
ĠAh madi
ĠA ke
Ġ11 1
é »
æº Ĳ
å· ŀ
ä¾ Ľ
á»į la
z oni
wi áº¹
st ers
po ponu
plá»įn tá»į
isen á»į
d ish
cie ty
bá»į á»įlu
by ÉĶ
b is
ar wanda
T ER
P IN
N C
Ġå ķ
ĠâĢ ĳ
Ġá¹¢ o
ĠÃĮ bÃ¡á¹£epá»į
Ġx in
Ġvi tamin
Ġto fi
Ġte ch
Ġsave atrain
Ġov áº¹n
Ġoni wadi
Ġolu á¹£á»į
Ġo pagbe
Ġn dara
Ġlo de
Ġlat ari
Ġla anu
Ġkeke ke
Ġitan kaláº¹
Ġisi mi
Ġise ju
ff ent
Ġhuhlá»įn ná»į
Ġhu kan
Ġfol low
ĠdÃ¨ nÃł
Ġc ik
zu je
Ġdu to
Ġdi ctionary
Ġde mo
Ġcu a
Ġayurve dic
Ġati pe
Ġan pe
Ġam ÃŃ
Ġam Ã¤
Ġala wo
ÏĥÏĦÏħÏĩ ÏİÏĤ
ÎŁÎ¥ ÎĽ
Îĳ Îĵ
re du
Ġol tre
Ġma thata
Ġahi nga
ĠV F
ĠT han
ĠSlo ts
ĠS HI
ĠR esearch
ĠPu po
ĠNor thern
ĠMá»į dopolá»į
ĠMo lenge
ĠMi mu
ĠM C
ĠLu ti
ĠLai pe
ĠKiny arwanda
ĠItan iláº¹rin
ĠIn di
bi q
Ġs Ã¼
ĠIgb esia
ĠIgbesia ye
ĠI jin
ĠI doju
ĠGur gaon
ĠG ambling
ĠFun fun
Ġel los
ĠE da
ĠE P
ĠDri ve
ĠCr ystal
ĠChan nel
ĠC ura
ĠBibáº¹ áº¹ká»į
ĠAd min
ĠA si
ĠA ringb
ĠAringb ungbun
Ġ13 5
Ġ1 X
èģ ·
å¤ ª
å ł
ãģ¾ ãģĻ
ãģª ãģ
ãģ ł
á»įn nu
á»į si
à² Ł
ÙĦ Ùĳ
Ã ĳ
yáº¹whe ho
ym n
w ard
un du
tun wá»įn
por ts
ph áº¹n
ph en
pe tá»į
lat ya
la lu
iro bo
h it
fáº¹ Ìģ
ĠÎķÎ»Î»Î¬ Î´Î±ÏĤ
ĠCy ngor
ãĥ Ł
Ġ× ķ
ĠÏĥÏħÎ½Î® Î¸ÏīÏĤ
ĠÏĢÏģÏĮ ÎµÎ´ÏģÎ¿ÏĤ
ĠÎķÎ½Î·Î¼ÎŃ ÏģÏīÏĥÎ·
ĠÎ¼ Î½Î·
ĠÎ¼ Î±Î½
ĠÎº Î¿Ïģ
ĠÎµÎ½ÎŃÏģÎ³ ÎµÎ¹Î±ÏĤ
ĠÎ±Î½ÏĦÎ¹Î¼ÎµÏĦÏī ÏĢ
ĠÎ® ÏģÎ¸Îµ
ÏĦÎµÎ» ÏİÏĤ
ÏĢÎ¹ ÏĥÎ·
Î¾ Î¹Î¬
Î»Îµ Î¯Î±
ÎºÎ± Î¼Îµ
ĠÏĥÏħÎ³ÎºÎµÎºÏģÎ¹ Î¼ÎŃÎ½Î±
ĠÎļ ÎĳÎĽ
ĠÎ¼Îµ ÏģÎ¹ÎºÎ¬
Î¿Ïį Î»Î¹Î¿
Î»Î» ÏĮ
ĠÏħÎ³Îµ Î¯Î±
ĠÎľÎ¿Ïħ Ïĥ
ĠÎĻÏĥ ÏĢÎ±Î½
ĠÎ¼Î® Î½
ĠÎºÎµÏģ Î´Î¯
ĠÎ¸ÎµÏģ Î¼Î¿ÎºÏģÎ±
ĠÎ¤Î¿Ïħ ÏģÎº
Ġr f
Ġma wr
Ġle p
Ġt Å±
res sion
Ġlik ho
ye tla
un Äĥ
ĠÄį es
Ġpot ÅĻe
co le
Ġwy b
ĠWo hn
Ġho ri
is ty
ãĥª ãĤª
Î½Î· Î¸Î¹Ïĥ
Î¸Îµ Ïħ
Âµ Î¿
yn u
ar Ã¡
Ġme le
ise tsa
ten ir
Ġris ul
ĠÃ ¸
ĠLo cale
Ġpre a
e te
y ni
Ġpos iada
und es
st and
ĠÃº t
Ġqytet ar
Ġj ul
Ġm ill
Ġam eri
am s
di á»į
ON O
H UN
D S
10 5
Ļ Ĥ
Ġè³ ª
ĠâĶ¤ â
ĠâĢ ł
ĠÄ° mamoÄŁlu
Ġto ju
Ġt ya
Ġprodu cts
Ġolu ko
Ġni hin
Ġloo re
ĠkÃºn kan
Ġker esimesi
Ġk ÉĶ
Ġiyáº¹ fun
Ġin ches
Ġibáº¹ wáº¹
Ġgb ÉĶn
Ġgb ing
Ġg hwo
Ġe gbo
Ġda hÃ¹n
Ġayan ilowo
Ġad ará»į
ĠWa y
ĠV wo
ĠTan kini
ĠS ign
ĠQat ar
ĠPapia mento
ĠOtto man
ĠOjo gbon
ĠO gbe
ĠLuci fer
ĠLin ked
ĠIda pá»į
ĠIda já»į
ĠI huwasi
ĠG láº¹
ĠFri day
ĠDa we
ĠCatho lic
ĠB R
ĠA báº¹ráº¹
Ġ19 60
Ġ áº½
èŃ °
çĽ ®
æ° ĳ
åħ ¶
ãĤ ģ
áº¹ na
à¸ ķ
à²ķ à³įà²ķ
à² ¦
Çİn êŀĮ
Ã³w Ã³
Ġno g
Ġwszyst kich
ĠP he
es tÃ¤
ĠÅŁ ek
Ġm ise
Ġdi ver
ĠÃ ĭ
Ġmo tlakase
Ġb áº£n
ĠAve c
Ġke q
ba u
tu ak
u si
tunwá»įn si
si p
si gbe
p han
Ġza pe
mÉĶ k
j áº¹ná»į
is ona
Ġnevo ie
ia li
ia h
hu áº¹ráº¹
h áº¹nu
de le
cra ft
a wuna
ĺ æĸ¹
Ĥ £
Ġï¼ ª
Ġå ¦Ĥ
Ġä¸ ī
Ġáº¹ rÃŃ
Ġáº¸ ru
Ġá¹¢i i
Ġá¹¢ atunká»į
Ġzanháº¹ máº¹
Ġwháº¹ whinwhÃ©Ì£n
Ġvi max
Ġv illa
Ġta ngan
Ġs ir
Ġpa kÃł
Ġoluta ja
Ġogo ji
Ġo je
Ġni cot
Ġng b
Ġmi ngg
Ġm áº¹nu
Ġlá»į dun
Ġka la
Ġk lan
Ġguá»įná»į re
Ġgb Ã¢
Ġf ori
lÄ± b
Ġdláº¹nalá»į do
Ġd lan
Ġbr orhiáº¹n
Ġb Ã©Ã¨rÃ¨
Ġvie le
ĠAB Åŀ
Ġaso tele
Ġada já»į
ĠO tÃłn
ĠMa latya
ĠK Ã²
ĠÏĥÏħÎ½Îµ Î´
ĠÎłÎŃ Î¼ÏĢÏĦÎ·
ĠÎºÎ¿Î¼ Î¼Î¬ÏĦÎ¹
ĠBu ild
Î»Î± ÏĥÏĥÎ±
ĠÎ½Îµ ÏģÎ¿Ïį
ĠÎ´Î·Î¼Î¿ÏĥÎ¯ÎµÏħ ÏĥÎ·ÏĤ
ĠÎ±ÏĢÎ¿ ÏģÎ¯ÎµÏĤ
ĠÎ¬Î» Î¼ÏĢÎ¿ÏħÎ¼
ĠÎ¥ÏĢÎ¬Ïģ ÏĩÎ¿ÏħÎ½
Ġn t
ÏĩÎ½ Î¿ÏħÎ½
ÏĦÎ¹ ÏİÎ½
ÎŁÎ §
ĠÎķ Î»ÏĢ
ĠÎ®Î¸Îµ Î»Î±
Ġym chwil
Ġhom bre
Ġins tal
Ä£ ist
Ġz ÅĤo
Ġva j
ki min
ĠkÃ¶z Ã¶s
Ġz p
Ġca pa
ĠK han
ĠIse ese
ĠIn fo
ĠI á¹£i
ĠF áº¸
ĠE ze
ĠDan ish
ĠCo lor
ĠC rypto
ĠAr men
Ġ ÏĤ
ÏĦÎ¯Î¸Îµ ÏĦÎ±Î¹
ÎºÎ¹ Î½Î·
go lion
m Ã©r
Ġja ki
ĠAp Ã¡
Ġ50 4
Ġ26 Cha
Ġ26Cha pter
Ġ26 Book
Ġ Ĝ
æľ į
æ¸¸ æĪı
æ ¼
åľ¨ çº¿
åĨħ å®¹
ä¸į éĶ
ãĥ Ķ
ãĢ ħ
Ð°Ð ¼
Ä Ĺ
ti la
st or
osi ta
oni o
o gbe
jo ba
Ġm Ä«
isten i
el f
d uru
d ri
ci ple
ca ster
c ript
T ype
H S
AN S
ľ ê
ĠĈ ć
Ġï¿½ï¿½ï¿½ï¿½ï¿½ï¿½ï¿½ï¿½ï¿½ ,
ĠØ ´
ĠÃł já»į
Ġz gji
ĠÅ¡ Ä«
ĠÎ¼ÎµÎ³Î¬Î» ÎµÏĤ
ĠÎµÏĢÎ¹Ïĥ ÎºÎµÏĨ
ĠÎ±ÏĢÎ¿ Î»Ïį
ĠÎ±ÏĢÎ¿ Î´Î¿
ĠÎ±Î½Î¬Î»Î¿Î³ Î±
Ïĩ ÎŃ
ÏĨÎ¬Î½ ÎµÎ¹Î±
ÏĦÎ¿Ïį ÏĤ
ÏĥÎºÎµ ÏĪÎ·
ĠÎŃÎ»Îµ Î³
ĠÎ» Î¿Ïħ
ĠÎ´Î¹Î± Î³ÏīÎ½Î¹Ïĥ
ĠOn d
ski m
ĠÃ± i
Ġwe kan
Ġv oro
Ġsá»į godo
Ġsara ga
ĠojÃº lÃ©
Ġna mbe
Ġn yan
Ġn su
Ġmo du
Ġmajáº¹ mu
Ġma tin
Ġm ase
Ġipa lá»įlá»į
Ġikor ira
Ġij osin
Ġmen ja
Ġigbani laaye
Ġgba a
Ġg lu
Ġbo á¹£iá»į
Ġaá¹£áº¹ pipa
Ġal á»įnu
Ġagba bá»įá»įlu
Ġa tá»įwá»į
ĠUkra inian
ĠU V
ĠTra ffic
ĠT wi
ĠSp y
ĠSmo ke
ĠSa tellite
ĠRe cor
ĠManu al
ĠLe yin
Ġh Ã¡rom
ĠL uo
ĠKur dish
ĠJ P
ĠIndon esian
ĠIn ch
ĠI fá»į
ĠHil iga
ĠHC L
ĠGu inea
ĠF ootball
ĠC os
Ġed ilib
Ġpoli tik
Ġpoli ti
ĠA RA
Ġ5 38
Ġ2 nd
Ġ13 4
ï¼ ļ
é ł
é ľ
çĶ·è£ ¤
åį Ķ
ä¹ Ī
à¸² à¸Ļ
à¸± à¹ī
Ø§Ø ³
Ñģ ÐºÐ¸
Ãª Ãª
wo lu
vwáº¹ ngba
st ra
pos h
lif ied
ili an
ha ti
g ie
fa 888
den amáº¹
V O
S u
DE MSAÅŀ
???? ????
Ń à²¾à²Ĺ
Ġą ć
Ġæ ķ
Ġå ĩ
Ġá¹£in á¹£in
Ġá¹£a já»į
Ġà¤ ľ
ĠÃł gbegbe
ĠÃ¬r Ã¬n
Ġmu ms
un tament
ĠQ e
Ġko l
Ġciu tat
Î´ÏģÏĮ Î¼Î¹Î¿
Î¬ Î½Î¿Î½ÏĦÎ±Î¹
ĠÏĥÏħÎ³ÎºÎµÎºÏģÎ¹ Î¼ÎŃÎ½Î·
ĠÎŃÎº Î¸ÎµÏĥÎ·
Ġen w
tsh me
Ġca lidad
ĠvÃ¡r os
c ciones
Ġv adÄ«
ĠM illi
Ġm iaÅĤ
Ã©ri a
Ġsou ha
Ġd osta
Ġdu ket
Ġgi Ãºp
za da
Ġpro te
tÅ¡o ao
Ġse bo
ÉĻli f
di ena
ĠbÃ« het
bili tat
ãĥŁ ãĥªãĤª
ãĥŁãĥªãĤª ãĥ¼ãĥł
ÏģÏĮ ÏĦÎ·ÏĦÎ±
ÏģÎµÏħ Î½Î·
ÎĹÎ£ ÎĹ
Î» Î±ÏĤ
gyl ch
Ġra pide
Ġdal le
esnÄ« cas
t iem
Ġsp us
Ġkuiten kin
ad es
cy jn
Ã©l ye
ge ng
Ġfeto la
Ġr rit
ma ya
Ġs istema
ĠÎłÏģÏĮ ÎºÎµÎ¹ÏĦÎ±Î¹
ĠÎľ Î±Î½
ĠÎĳÏĢÎ¿ Î¸Î·ÎºÎµÏħÎ¼ÎŃÎ½Î±
ĠÎºÏħ ÏģÎ¹
ĠÎ´ÎŃÏģ Î¼Î±
ĠÎ´Î®Î»Ïī ÏĥÎµ
Ġro i
ĠTa k
Ġkh ethe
Ġma ka
shi m
Ġzo hunhun
ĠyÃŃ yÃŃ
Ġw Ã¢
Ġta ya
Ġsat áº¹laiti
Ġs ms
Ġs eli
Ġpro mo
Ġodomo birin
Ġodi di
Ġo wn
Ġo da
Ġná»į tena
Ġny u
Ġng bani
Ġnan di
Ġna êŀĮan
Ġmu le
Ġms Ã±i
Ġma laysia
Ġk Ã¢
Ġjáº¹ a
Ġj láº¹
Ġita ge
Ġip ile
Ġgw eld
ci oni
Ġfá»įn sá»įnku
Ġd j
Ġbini b
Ġap aniyan
Ġake te
Ġafá»į ju
ĠWa shington
ĠVi c
Ġno tei
ĠV AL
ĠTi mes
ĠSupp li
ĠSh en
ĠR á»įrun
ĠR ose
ĠOlu gbe
ĠMetro bus
ĠMa k
ĠM ario
ĠLinked In
ĠIz ráº¹l
ĠIsin mi
ĠIru we
ĠHiliga ynon
ĠE j
ĠDe vice
ĠDe u
ĠBu ddy
ĠBas el
ĠB ara
ĠAra kunrin
ĠAr m
ĠAi fá»įwá»įyi
ĠAce tate
Ġ: âĢĭ
Ġ3 33
Ġ Ćą
Ġ Ñĥ
åı Ĥ
å ŀĭ
å ²
ãĥ ³ãĥ
ãĤ į
ãĤ ¯
ãģ ĳ
á¹£i wa
Ãº ká»įsÃŃláº¹
ye meji
v É¨
t ina
owi wa
os teli
má»įle má»į
mi cs
m orin
kun le
for Ãºká»įsÃŃláº¹
Ġza le
eso ke
em áº¹
co late
c ity
ķ å®ŀ
Ġï½ ľ
Ġè³ª åķı
Ġãģ«éĸ¢ãģĻãĤĭ åı
Ġãģ«éĸ¢ãģĻãĤĭåı £ãĤ³ãĥŁ
ĠâĢ¦ .
Ġá»įran yan
Ġá»į mu
Ġá»Įdá»į má»į
Ġwith dra
Ġwhe re
Ġsi gi
Ġsam ple
Ġr s
Ġoni yi
Ġon ir
k Ã¤Ã¤n
Ġolu dokoowo
Ġná»į táº¹n
Ġndu zu
Ġiá¹£i popada
Ġgb Ã³lÃ³hÃ¹n
Ġf ani
Ġeleyi i
Ġdá»įho do
Ġdá»į yáº¹wheho
Ġda wháº¹
Ġch in
Ġapa adi
Ġap ple
Ġala dun
ke iten
Ġadu ti
Ġa gin
Ġa bere
ĠTitii pa
ĠSH ANGO
ĠS á»įn
ĠPow der
ĠO le
ĠO bi
ĠNis san
ĠLo cal
ĠIá¹£ iro
ĠH omáº¹
ĠH ere
ĠGbá»įn má»į
ĠE shu
ĠCyrilli c
ĠBri tain
Ġoldu ÄŁunu
ĠBel gium
b Å«t
Ġk ni
ĠAir bus
ĠAba jade
ĠA hi
Ġ35 N
Ġ11 8
è« ĭ
åİ Ł
ãģ ¤
áº¹ l
à¸ Ħ
Ð¾Ð ³
É¨ vÉ¨
Ã¢ a
´ ï¼
± ă
the reum
st re
q n
pin es
p n
n us
me ter
lu gu
la ce
kan si
k Ã¨
isu u
ĠÄĳ o
ĠFo tos
cion ales
Ġe fec
Ġna u
Ġga pe
Ġnepa hetseng
he m
Ïĥ Î¼ÏĮ
Î¸ÎµÎ¹ ÎµÏĤ
Î® ÏĥÎ¿ÏħÎ½
ĠÏĦÎ· Î»ÎŃ
ĠÎµÎ¼ÏĨÎ±Î½ Î¹ÏĥÏĦÎ¿ÏįÎ½
ĠÎ´Î¹Î± Ïĥ
ĠÎ±Î½Î¸ÏģÏİ ÏĢÏīÎ½
Ġs tyle
ĠL ist
Ïħ Î³
ĠÏĥÏħÎ¼ÏĢÎµÏģÎ¹ Î»Î±Î¼Î²
ĠÎļÎ± ÏģÎ±
ĠÎĪ Î½Î±ÏĤ
ĠÎ¿ÏĢÎ¿Î¹Î± Î´Î®ÏĢÎ¿ÏĦÎµ
ĠÎ¾ Ïį
ĠÎ¼ Î½Î®
ĠÎº ÏĦÎ¯
ĠÎ´ÏįÏĥÎºÎ¿ Î»Î¿
ĠÎ§ Î¡
Î² ÎµÏģ
30 4
ĠÏĥÏħÎ½ ÎµÎ¹
ĠÏĢÏģÏĮÏĥÏĨ Î±ÏĦÎ±
ĠÎķÎ¾ Î±Î¹ÏģÎµ
ĠÎºÎ¿Î¹ Î½Î¿
ĠÎ·Î»Î¹Îº Î¯Î±
ĠÎµÎº ÏĨÏģÎ¬
ĠÎ²Î¿Ïħ Î»ÎµÏħ
Ġo gys
ĠX xx
inu te
Ġba mb
Ġbr enda
kan ye
ĠkÃ¼lÃ¶n b
ĠsÃº Äįas
Å¡ iem
gen cy
b osa
an da
ER O
C a
A n
ķå®ŀ ä¸ļ
Ġä¸Ĭæµ· å®Ŀ
Ġä¸Ĭæµ·å®Ŀ å¤
Ġä¸Ĭæµ·å®Ŀå¤ ķå®ŀä¸ļ
Ġá»Į ráº¹
Ġá¹£ ÃŃ
ÅĤ ych
ĠÃ®n cÄĥ
Ġob je
Ġk ons
Ġsurf ers
Ġle tsoho
Ġ000 0
na f
Ġmer r
ĠM Ã¡
kun tza
Ġcon os
Ġczas u
Ġpos led
Ġen semble
Ġver sen
Ġfeti leng
Ġko h
Ġhe bben
Ġá¹£ Ãłn
Ġà ¨
ĠÙģ ÙĬ
Ġwhe poponu
Ġwh Ã©Ì£
Ġwe wewe
Ġuser name
Ġtáº¹ do
Ġt own
Ġsi okpari
Ġsa ka
Ġr ind
Ġoh ÃŃ
Ġo gh
Ġnu tindo
Ġkáº¹ká»į á»į
Ġje i
Ġhi m
Ġdá»į hona
Ġdo do
Ġda pana
Ġav ase
ĠTra ditional
ĠTa y
ĠS ne
ĠR á»Į
ĠO O
ĠNuhi hÃ³Ì£
ĠNit ootá»į
ĠM AA
ĠLe hin
ĠJi je
ĠHow h
ĠHa i
ĠGa zi
ĠG D
ĠFal esi
ĠF all
ĠE cono
ĠE T
ĠDemo cra
ĠC ul
ĠC lar
ĠAa ya
Ġ6 64
Ġ2 D
Ġ19 91
ï¼¯ ï¼
è§Ĩ é¢ĳ
çĶ·è£¤ åĵģçīĮ
ç© º
æĬ ¥
å£ «
ãģ£ ãģ¦
á»į tá»į
Ð¾Ð ¹
yan u
8 00
ĠÏĥÏįÎ½Î´Îµ ÏĥÎ·
ĠÏĢÏģÏĮÏĥÏĨ Î±
ĠÎºÎ±Î½ ÏĮÎ½ÎµÏĤ
ĠÎº Î»Î¹
ĠÎ¬ Ïģ
Ġogys tal
na bles
lum bia
káº¹ ta
ngu e
fi k
di re
d á»įn
ar l
VI DIA
K a
Ġāą ĆĈć
Ġá»įjá»į Ìģ
ÖĢ Õ¡Õ¶
Õ¡Õ¾ Õ¸ÖĢ
Ġon larÄ±n
m isen
Å¡ Ä«
Ġde ti
ĠwÅĤa ÅĽci
r il
man n
ĠjÃ¡t Ã©k
pr owadz
ĠK or
d ori
Ġdec Ã¢t
Ġd á»ĭch
Ġli baka
hle lo
ÏģÎ® ÏĥÎµÏīÎ½
Î¸Îµ ÏĦÎµ
ÏĢÎ± ÏģÎ±
Î»Îµ ÏĥÎµ
ĠÏĥÎ·Î¼Î± ÏĥÎ¯Î±
ĠÏĢÎ±ÏģÎ± Î³ÏīÎ³Î®
ĠÎºÏģÎ¯ ÏĥÎ·
ĠÎ¤ Ïį
ÎĽ ÎĹÎĿ
ÎºÏĮ ÏĢÎ·
Î¹Î¬ Î¶ÎµÎ¹
ĠÏħÏĢÏĮ Î¸ÎµÏĥÎ·
ĠÎĳ Î»ÎŃ
ĠÎ´Î·Î¼ÏĮ ÏĥÎ¹Î±
ĠÎ±Î½ÏĦÎ¹Î¼Îµ ÏĦÏİ
ĠCOM _WWW
fnyd di
Ġw Ã¼r
ĠÔ ¿
Ġhesa b
pu esta
s ke
Ã©nye k
e y
c 6
ĠÏĦ Î±Î¹
ĠÎĴ Î¬
ĠÎ¼Î¿ÏħÏĥ Î¹ÎºÎ®
ĠÎ¹Î´ÎŃ Î±
ĠÎµÏĥ Î¬ÏĤ
ĠÎ³ Î®
Ġsy mu
z as
Ġdu gu
c ki
Ġtu le
o fela
Ġllo c
cau se
Ġlie u
Ġkra j
ia k
Ġu ma
ci endo
ku sh
Ġsen o
Ã«s uar
Ġes tas
co lo
Ġsebe tsang
Ġá»Įrá»į igbaniwá»įle
Ġá»Įro vwohwo
Ġá»Į tun
Ġà¸ ķ
ĠØ µ
Ġya êŀĮa
Ġur du
Ġu du
Ġta g
Ġt nun
Ġsu ch
Ġs Ã¬
Ġhen kilÃ¶
ĠNe u
Ġya ke
Ġ ÏģÎ¿Ïį
Ïģ Î¹ÎºÎ®ÏĤ
Îķ Îĳ
Î³ ÎµÏħ
ĠÏĢÏģÎ¿Îµ ÏĦÎ¿Î¹
ĠÏĢÎ±ÏģÎ± Î³Î³ÎµÎ»
ĠÎłÎĳÎ£ ÎŁÎļ
ĠÎ¾ÎµÎºÎ¯Î½Î· ÏĥÎµ
Ġ- [
ry p
b 4
ĠÏĦÎ¿ÏĢÎ¿Î¸Îµ ÏĥÎ¯Î±
ĠÏĥÏĦÎ¬ ÏĥÎ·
ĠÏĢÏģÏīÏĦÏĮ ÏĦÏħÏĢÎ¿
ĠÏĢÎµÏģÎ¹Î¿ ÏĩÎŃÏĤ
ĠÎŃÎ»ÎµÎ³ ÏĩÎ¿
ĠÎµÎ»Î»Î·Î½ Î¹ÎºÎ®
ĠÎ´Î¹Î¬ÏĨÎ¿ ÏģÎ±
ĠÎ²Î± ÏĥÎ¹
ĠÎ±ÏĢÎ¿ÏĨ Î¬Ïĥ
M u
ĠÎ¶ Î¿ÏħÎ¼
ĠÎ¬ÏĢÎ¿ ÏĪÎ·
ĠEn c
ÏĨ Î±Ïĥ
ĠÎ¿ÏĢÎ¿Î¯ ÏīÎ½
ĠÎµÎ½Î´Î¹Î± ÏĨÎŃÏģ
ĠÎ±Î½Î± Î³ÎºÎ±
ĠÎ§ ÏģÎ®
Ġam l
usam men
d inÄģ
era ele
Ġbe cause
Ġho mme
al le
ĠÕ Ĩ
z indÉĻ
Ġv enta
Ġw sz
Ġh á»ĩ
ĠN egru
f ie
Ġgy Ã³gy
Ġaz Ã©rt
Ġtj erÃ«
cuer do
kan yo
ĠÃ¶ ÄŁ
Ġace ea
Ġa ca
ĠspÄĵ lÄĵ
Ġez ek
Ġd omu
ÄĽ k
mit tel
Ġku du
ĠMo tlakase
hlo bo
m ero
ÄĻ zy
Ġme a
ĠQara ba
ĠDa cÄĥ
Ġva sit
ĠS po
Ġdrej t
Ġsor Ã¡n
Ġvol ta
Ġho lo
mm in
Ġsel on
Ã¤l t
Ġs tun
xi co
v ant
á»Ļ ng
bru ik
Ġla gun
Äį nÃ½ch
lu d
tl is
Ġp le
Ġo ggi
wysi g
n te
Ġho ras
os h
Ġya y
Ġla gi
tem bre
ĠFil me
ere a
Ġme la
b wa
d ora
ĠR Ã©p
Ġef ter
Ġpr endre
jÃŃ ma
Ġcos as
pe k
ĠÏħ Î»Î¹ÎºÏĮ
ĠÏĥ ÎºÎµÏĨ
ĠÎºÎ±ÏĦÎ± ÏĥÏĦÎ®
Ġ9 96
ÎĻ ÎŁÎ¥
Î»Î® ÏĥÎµÎ¹ÏĤ
Î¹Ïĥ Î±Î½
Î³Ïĩ Î¿ÏĤ
fno gi
Ġv aa
ĠC ele
Ġle bitso
ĠÏĥÎµ Î¶ÏĮÎ½
ĠÏĢÎµÏģÎ¹Î¿ ÏģÎ¹Ïĥ
Ġm wyaf
tÅĳ en
Ġam or
zÄ« mÄĵ
Ġt Ã½ch
ĠTiran Ã«
mbÃ« tare
Ġequi po
Ġo czy
ĠI tean
ĠItean ye
Ġtlha hiso
Ġat tivitÃł
Ġmosa di
li er
Ġcho ix
l Åį
Ġbatla ng
Ġve ya
Ġne p
on en
dan ie
qu ement
ĠG jer
Ġtre bal
Ġd ise
Ġb une
q ram
tk ow
ĠMesa je
ne ze
Ġs atunká»į
Ġre f
Ġpip Ãł
Ġo vu
Ġn jagun
Ġma je
Ġm usulumi
vi z
Ġla st
Ġl ink
Ġk Ã¹
eg na
Ġk iraki
Ġk are
Ġja gun
Ġbesz Ã©l
Ġi karahun
Ġg ráº¹y
Ġfaa ji
Ġdod owiwa
Ġbi ngo
Ġbe fore
Ġayi dego
Ġa lo
Ġaces ta
Æ° u
Ġa gbá»įrá»įsá»į
ĠTu esday
ĠT estosterone
ĠRo ck
ĠOs ise
ĠOffi cial
ĠO P
ĠMoham med
ĠK wa
ĠK ongo
ĠK am
ĠI e
ĠJohan nu
ĠIlo ko
ĠIgba siláº¹
ĠIbi ti
ĠIS E
ĠIN EC
ĠH in
ĠGala xy
ĠGB P
ĠG rand
ĠF on
ĠE ka
ĠE B
ĠC P
ĠAgo go
Ġ25 5
Ġ16 GB
Ġ ě[
Ġ äºĨ
Ġ ãģĤ
é ª
æīĭæľº çīĪ
åĽ ¾
å¿ «
å Ĥ
ãĤ¤ ãĥĪ
áĥĶ áĥ
ÄŁ an
Ã¬yÃłn jÃº
ÏĢ ÎµÏħ
ĠÎķÏĢÎ±Î½Î± ÏĨÎ¿ÏģÎ¬
ĠÎ¼Î± Ïģ
ĠÎºÏĮ ÎºÎºÎ¹
Ġed rych
tu ite
pan ya
ni os
Ġin ce
ĠFi erbinte
Ġcopi i
Ã¨n cies
ĠPu bli
Ġe di
Ġwy korzy
Ġexp Ã©ri
Ġna Å¡
va êŀĮa
uk osile
ti stan
so di
paw nables
m Ã¬n
Ġcyn nig
Ġba tz
Ġs jell
ne ho
Ġel Ã©g
u to
Ġbud ou
Ã¡m ara
sz taÅĤ
Ġperson ne
Ġje mi
da te
co ffee
ben e
M L
J áº¸
Ġçı¾ åľ¨
Ġá»į r
Ġá¹¢iá¹£áº¹ pá»į
ĠØ ®
ĠÐ Ĳ
Ġwo dupiresi
Ġti ata
Ġte di
Ġtatuua wá»įn
Ġspe cial
Ġsoo bu
Ġr Ã¬n
Ġet diyi
n Ã¤
Ġvar Äĵtu
Ġwy glÄħ
s ye
r ÃŃa
Ġj elle
ta b
cze ÅĦ
y elle
ĠÄĳ áº¹p
Ġcom en
Ġtshwan etse
Ïĥ Î¼Î±ÏĦÎ¿ÏĤ
Î¼ Ïİ
ent y
ĠÎłÏģÏĮ Ïĥ
ĠÎ» Î¬Î²
ĠÎ¹ÏĥÏĩ ÏįÎµÎ¹
ĠÎµ ÏĥÏĦÎ¹Î±
ĠÎ±Î½ÏĦÎ± Î³ÏīÎ½Î¹Ïĥ
ÏĥÏĦÎ® ÏĤ
ÏģÎŃ Î±
ÏģÎµÎ¹ ÎµÏĤ
Î»Î¿Î³ Î¹ÎºÎ¬
dd or
ten ant
zna m
Ã¤ ng
part ner
Ġir Ã¡ny
kolo i
Ġph áº§n
Ġpug rine
Ġpar un
Ġpa mosi
Ġna máº¹
Ġma gbe
Ġla wa
Ġkr isteni
Ġki ti
Ġka da
Ġisáº¹ po
Ġigbe jade
Ġib ori
Ġg ri
Ġes un
Ġe me
Ġbroadcast beat
Ġbapti si
Ġai baláº¹
ĠW ON
ĠV la
ĠTh at
ĠSi lo
ĠS ar
ĠR ol
ĠP it
ĠP ad
ĠK orin
ĠIt aniji
ĠIfor ukosile
ĠG ree
ĠE ver
ĠE thereum
ĠCor n
ĠCant on
ĠAbe okuta
Ġ0 22Cr
Ġ) ï¿½ï¿½
Ġ( +
Ġ ćą
çī ¹
æĺ ĵ
åĭ ķ
à¸ ¸
ÇĲn êŀĮ
Ã¨s Ã¨
ar ÉĻ
ĠÃ® m
ON E
pe tto
Ġde ÅĪ
n elle
ĠÏĢÎ±ÏģÎ±Î´Î¿ ÏĥÎ¹Î±
ĠÎµÏĦÎ±Î¹ ÏģÎµÎ¯Î±ÏĤ
ĠÎµÎ¹Î´ Î¹ÎºÏĮ
ĠÎ±ÏĢÎ¿ Ïģ
ĠÎ¤ Î©ÎĿ
Ġ00 33N
ÏĩÎ· Î¼Î±
ÏģÎµÎ¯ ÎµÏĤ
Î¿Î» Ïį
ÎºÎµ ÏĢ
ĠÏĥÎ·Î¼Î±Î½ ÏĦÎ¹ÎºÎ¬
ĠÎµÏĢÎ¹ÏĩÎµÎ¹ ÏģÎ®ÏĥÎµÎ¹ÏĤ
ĠÎ±Î¾ Î¯Î±
ĠÎ£Î± Î²
Ïī ÏĥÏĦÎµ
ÎºÎ¿ Î»Î¿
ĠÏĦÏģÎ± Î³Î¿Ïħ
ĠÎŃÎ´Ïī ÏĥÎµ
ĠÎ¼Î¬ ÏĩÎ·
ĠÎºÎ±Î¸ ÏĮÎ»Î¿Ïħ
ĠÎ£ ÏĦÎ¿Î½
ĠE w
tycz ne
Ġpun Ã«
Ġty pe
Ġva ikka
Ġter ve
do k
tro pin
te do
no êŀĮo
má»į ÌĢ
Ġo or
ho me
Ġkom un
Ġve ure
lay Ä±b
gen ce
Ġzhv il
esi Ã³n
Ġre mp
Ġd ys
ĠvÉĻ tÉĻn
l Ã¦
da lÄ«
ĠÃ® na
Ġvel mi
Ġki in
ĠK re
Ġg ente
Î» Î»Î¿
wyd dion
Ġrze czy
vo t
ĠmÉĻk tÉĻb
Ġse ine
Ġk Ã¼
Ġv ara
Ġtr ov
ix en
id os
ho l
v aux
mi tÃ©
les hen
ĠnÃ« pÃ«r
Ġth Ã¡ng
ĠÏĩÎ±ÏģÎ±Îº ÏĦÎ®ÏģÎ±
ĠÏħ Î³Î¹
ĠÎºÎ± Î¯
Ġby w
bi h
ĠÅĽ wie
Ġleg jo
ju Å¡i
nut ie
Ġs os
li jk
ane o
er wydd
ĠkÃ¤ si
Ġtr ouve
ĠVideo clipuri
ĠDomniÈĻ oare
Ġ Å£
Ġcu mp
Ġre ja
ĠÄ°l ham
Ġolun ur
Ġji Å¾
cto bre
g Ã¡
ĠBÄĥrba ÈĽi
Ġmo di
t zeko
Ġpre daj
st ro
Ġvei do
Äĥs pun
ri mi
Ġh ÃŃ
bel iso
Ġlo k
ku otá»į
ju lo
la gen
j j
ho ro
he mi
fer ence
es in
bi ile
V ER
17 Ni12Mo2
ĠĎ -Ď
ĠĈ Ććą
Ġï¿½ .
Ġéĸ ¢
Ġç ¾
Ġáº¸ steli
Ġà¸ª à¸¥à¹ĩà¸Ńà¸ķ
ĠÙ ĩ
ĠÃł gbÃł
Ġto d
is tre
ze u
ures ti
Ġtrebu i
ent Ã³w
ĠÃ¬ forÃºká»įsÃŃláº¹
Ġwa m
Ġtá»į gbo
Ġpinam byÉĶ
Ġngbani laaye
Ġna an
Ġn l
Ġl yrics
Ġiwá»įn tunwá»įnsi
Ġidari ji
Ġg Ã²Ì£
Ġfi de
Ġav Ã²Ì£
Ġasa yan
ĠX hosa
ĠTa ji
ĠS isá»į
ĠRoya ume
ĠProdu ct
ĠPeter u
ĠOr ÃŃ
ĠC ome
ga ng
Ġqu ella
Ġl Ã©p
ĠO ld
ĠO T
ĠN aru
ĠMo Ã¯
ĠMoÃ¯ se
ĠMo del
ĠMar ie
ĠMach in
ĠMa ke
ĠMa jáº¹
ĠK m
ĠK irun
ĠKirun di
ĠJo bs
Äĵ m
ĠJe le
ĠJ O
ĠIbu wá»įlu
ĠHaydar paÅŁa
ĠH em
Ġhab ÃŃa
ĠprÃŃ spe
ÃŃ ska
hlo oho
ĠGi lasi
ĠDe vi
ĠCon ver
ĠA ku
Ġ32 GB
Ġ3 16
Ġ20 5
Ġ12 1
Ġ12 00
Ġ11 7
Ġ11 4
Ġ) )
ć Ď
ì Ĺ
æĴ Ń
æĦ ı
æ® µ
æ¬ ¡
æ ¡
åŁ İ
åį ¡
à¸ªà¸¥à¹ĩà¸Ńà¸ķ Fun88
ÃŃláº¹ ÌĢ
Ġele kt
Ã©lÃ© char
ve z
fo ko
p oro
Ġzaw sze
Ġkh etha
Ġlu la
Ġba pala
Ġso pi
Ġal es
we za
ĠÄĳ iá»ĩn
ĠÏĥÏī ÏĥÏĦÎ¬
ĠÎłÎķ Î¡ÎĻ
ĠÎĶÎ¹Î± Î¸ÎŃ
ĠÎĳ Î¾Î¹Î¿
ĠÎ´Î¹Î±Î´Î¹Îº Î±Ïĥ
Ġym gy
Ġgior ni
log ji
ÏĮÎ¼Îµ Î½ÎµÏĤ
ÏģÎµ ÏĥÎµ
Î³ Î±Î»
est r
Ġasu pra
ĠA ngebo
ĠIn thaneteng
Ġso pra
Ġph atlala
ĠyÃ¼ks ÉĻk
Ġva an
ĠkÃ¶z el
Ä ĺ
Ġdoda tk
_ A
ĠÎŃÏĢ Î±Î¹
ĠÎ¿Î½Î¿Î¼Î± ÏĥÎ¯Î±
ĠÎºÎ±ÏĦÎ±Î½Î± Î»Ïī
ĠÎµÏĨÎ±Ïģ Î¼ÏĮ
Ġgwy bodaeth
f as
Ġsal le
Å« ra
Ġa q
Ġte hd
Ġho o
Ġdro it
Ġz wy
Ġl Ã¦
he id
Ġb Äĥrba
k r
Ġvi zi
Ġmil lor
g Ã©
Ġkh ona
Ġeke tsa
va i
ke te
ÏĮ ÏģÎ±ÏĥÎ·
Ïĩ Î¿Î½
ÏĦÎ® ÏģÎµÏĤ
Î¿Î¹ÏģÎ± ÏĥÏĦÎµÎ¯ÏĦÎµ
Î» Î¹Î¿ÏĤ
na eth
ĠvÃ¤l ja
ĠSo t
Ġtá» Ľi
Ġva lo
Ġq adÄ±n
te les
Ġgior no
Ġola caq
c tu
Ġd orÃ«
les c
Ġesta ble
ard in
tÃ« ve
ĠAr tikel
jÄħ ca
ĠrÃ©s ul
is Ã©g
Ġsa hi
gle ich
Ġm ine
Ġli ber
ts wana
tar Ã«t
Ġh em
Ġp lat
h on
Ġb or
Ġma sz
Ġh istoire
ĠAna l
Ġpu te
Ġha via
ĠÄį lÃ¡n
Ġth Æ°á»Ŀng
cht er
ol t
ÅĤ on
ÄįÃŃ ta
g ine
da Äĩ
il ta
Ġsh pÃ«r
ĠÎºÎ±ÏĦÎ± ÏĥÏĦÏģÎ¿
ĠÎµÎ³ÎºÎ±ÏĦÎ± ÏĥÏĦÎ¬ÏĥÎµÎ¹ÏĤ
Ġgall wch
ĠNu e
Ġma Å¥
ĠP ÅĻÃŃ
Ġtar to
da ÅĦ
ĠR ydym
á¿ ¶
Î³ Î¿Î½ÏĦÎ±Î¹
ĠÏĩÎ¬ ÏģÎ·
ĠÏĨÎ¿Î¹ ÏĦÎ·
ĠÎĽ Î¿Î½
ĠB TC
ÏĥÏĦÎµ Ïģ
di ant
ig er
Ġpo tri
Ġetsa ng
ĠV ÃŃ
ta ja
ÅĨ o
jÄħc ego
Ġih ned
Å¾ enÃŃ
Ġl ung
da lom
Ġli dhje
Ġol maq
it z
4 00
ĠÏĢÎµÏģÎ¬ ÏĥÎµÎ¹
ĠÎµ Î½Î±Î½ÏĦÎ¯
ÏģÎµ ÏĥÎ·
9 d
ĠÏĥ ÎºÎ±
ĠÎĳ ÏĥÏĨ
ĠÎºÏģÎ¬ ÏĦÎ¿ÏĤ
ĠÎµ Ïģ
ĠÎ¥ÏĢÎ¬Ïģ ÏĩÎµÎ¹
ĠÎ£Î¤ ÎĹÎĿ
ĠÎ¡Ïī ÏĦÎ®ÏĥÏĦÎµ
Ġwe ith
le u
Ġespe cial
ĠCom ment
Ġle mo
Ġpuj cky
Ġdru h
v rier
is tes
¢ èģ·
z hen
viv áº¹nu
rin morin
pá»į ÌĢ
Ġbe teg
Ġpo prze
ra do
Ġgo dimo
hoo folo
Ġk Ã¸
ĠD rej
Õ¡ÖĢÕ ¯
Ġeh ti
Ġri ce
Ġnjo hur
c ÃŃa
Ġmie ux
ĠCa erdydd
Î¿Ïģ ÏĦÎ¿
Î¸Ïħ ÏĢÎ¿ÏħÏģÎ³
1 e
ĠÏĥÏįÎ½Î¿ Î»Î¿
ĠÏĢÎ¿ ÏĥÏĮ
ĠÎ±ÏĥÏĩ Î¿Î»
ÏĥÎ¹ Î½
Î¼Î¬ ÏĦÎ¹Î¿
Î»Î¿Î³ Î¿
yd diaeth
Ġse it
tet Ã©s
ĠPol sce
Ġa yu
Ġmu ka
Ġv ente
mo ÅĽci
Ġcu isine
Ġdu en
ti en
Ġpi cco
ĠP ÄĥsÄĥricÄĥ
Ġr as
Ġfe te
Ġin tra
Ġaz ok
Ġpo int
Ġda tos
vie Å¡u
Ġr Å¯
mu la
ĠÏĦÎŃ ÏĦÎ¿Î¹
ĠÏĢ Î¿Î½
ĠÎłÎ¿Î» Ïħ
ĠÎ¼ÎŃ Î»Î¿ÏĤ
ĠÎ»ÎµÎ¹ÏĦÎ¿ÏħÏģÎ³ ÎµÎ¯
Ïħ ÏģÎ¿
ÏĥÏĦÎµ ÏģÎ±
Î¼Î¯ ÏĥÎµÎ¹ÏĤ
Î´Î¯ Îº
77 00
ĠÏĢÎ¿ Î¹Îº
ĠÏĢÎ¬Î½ ÏĦÏīÏĤ
ĠÎŃ ÏĦÎ¿ÏĤ
ĠÎĳÏĢ Î¬Î½ÏĦÎ·ÏĥÎ·
ĠÎĨ Î³Î½ÏīÏĥÏĦÎ¿
ĠÎ² Î¬Ïģ
Î³ ÎµÏĦÎµ
bar th
Å¡Ä· ir
Äıa ka
n ant
Ġkon ie
Ã¶ glich
ĠM Ã©
ese en
Ġhis tori
at re
c uresti
cat Äĥ
Ġe jem
Ã¡ hoz
Ġada m
Ġm esebetsi
j de
pÃ¤ e
n ul
ti us
ĠJa hren
cion it
fica ciÃ³n
Ġig Ã©ny
ni cy
Ġfe letseng
c tif
ĠPor n
Äĥ si
ye t
ma h
ĠÏĥÏĦÏģÎ± ÏĦÎ·Î³
ĠÎĮ ÏĥÎ¿
ĠÎĪ Îº
ĠÎ½Îµ Î±
ÏĦÎµ Î¯ÎµÏĤ
ÎĻ ÎĽ
Î¯ Î¿ÏħÏĤ
de g
Ġmus ÃŃ
xt ÉĻlif
Ġo pera
rÃ³ Å¼
ile ng
Ġpossi bile
Ã¢ ce
ĠÄĳ áº¡i
Ġc_ partner
ĠC s
ĠJ Äģ
ĠAu ch
k ku
Ġthu to
Ġpa ma
Ġt or
Ġv ya
Ġe ig
Ġta ble
sa ge
cu re
Ġsehlo pha
Ġpar tea
ra ve
Ġdi v
Ġv rÃ¡
Ã¤h kÃ¶
le l
h lung
ĠH ÉĻr
Ã¦ n
1 b
ĠÎķ Î¡
ĠÎ»Î¹Î³ ÏĮÏĦÎµÏģÎ¿
ĠÎµÏĢÎ¹ ÏĦÏģÎŃÏĢÎµÎ¹
ĠÎ³ÎµÏį Î¼Î±
ĠÎ±Ïħ Î¾Î·
ÏģÎ¹ ÎµÏĤ
Î»Î¿Ïį Î¼Îµ
ÎµÎ¹ Î¿
Î´ ÏģÎ±ÏĤ
Â ¸
ĠÏĥÏħÎ³ Î³ÏģÎ±ÏĨ
ĠÎķ Î´Ïİ
ĠÎµÎ¾ Î±Ïģ
ĠÎ±Î»Î»Î± Î³Î®
Îķ Î§
ĠÎĶÎ·Î¼Î¿ ÎºÏģÎ±
ĠÎ¾ Î±
ĠÎ±Î¹Ïİ Î½Î±
ÎºÎ· Î½Î¿
Î¸Î· ÎºÎ±
Î² Î±Î½
Î¯ ÏĦÎ±
ar fod
bil d
f te
anu t
o ane
Ġgon dol
lar en
r ys
Ġse ngwe
hla le
ĠtÉĻhs il
Ġre ce
ĠdÃ© bu
Ġkun nen
Ġti ll
Ġbo ela
Ġe ena
Ġl intlha
ts ho
Ġen cara
ĠÏħÏĢÎ·ÏģÎµ ÏĥÎ¯Î±
ĠÏĥ ÏĢÎ¹
ĠÎ¿Î¹ÎºÎ¿Î³ÎŃÎ½Îµ Î¹Î±
ĠÎµÎ½Î·Î¼ÎŃ ÏģÏī
ĠÎ´ ÏģÎ¿
ĠÎ¬ÏģÎ¸ ÏģÎ¿Ïħ
ÏĦÎ® ÏģÎ±ÏĤ
Î¹Ïĥ ÏĦÎµÎ¯
nh au
ck Ã©ho
ĠmÃ¼ ÉĻl
Ġro dzin
Ġhis toria
Ġrezul tÄģ
tra g
v Ã©g
ĠG rund
mak ta
ilmÉĻ s
Ġpossi ble
bu t
Ġc ri
k Ã½m
Ġmi jÃ«
ĠI hnen
Ġdzi ÄĻki
Ġho áº·c
Ġin dul
Äģl Äģs
ĠUnter nehmen
ny t
Ġs tat
le cular
G if
F M
ĠÏĩÎµÎ¹ ÏģÏĮ
ĠÏĢÏģÏĮ ÏĦÎ±ÏĥÎ·
ĠÏĢ Î»Îµ
ĠÎľÏĮ Î½Î¿
ĠÎĽ Î¿Ïħ
ĠÎĵ Î¿Ïħ
ĠÎ³Î¹Î¿ Ïģ
ĠÎ±Î½Î±ÏĢ ÏĦÏį
Ġy l
Ġi dd
Ġho tel
Ġkau t
ich er
ĠAvro pa
Ġf re
ju miem
tel l
Ġc ena
go ng
Ġv isi
pe ho
vÃ© tel
p oru
ĠDi ese
Ġf illi
ÃŃ klad
Ġp osta
Ġk ÉĻs
ĠfÄĥ cut
ÏĩÎµÎ¯ ÏīÎ½
Î¹ ÏĤ
Î³ÏģÎ± Î¼
Î¯ Î¿ÏĤ
ĠÏĦÎ±Î¾ Î¯Î´Î¹Î±
ĠÎĿ Îµ
ĠÎµÏĢÎµÎ¹ ÏĥÏĮ
ĠÎ± Î»Î»Î·
ĠÎ¦ Î±
Ġid do
Ġer Åĳ
Ä¼ iem
nost ÃŃ
Ġgr oupe
Ġdu ten
yn yt
Ġd ina
Ġz go
rz a
ĠÃ§ e
Ġddi wedd
Ġperioa da
ĠrÃ©s er
Ġta sh
ad Ã¡s
ĠpÅ¯j Äįka
st ÄĽ
der t
Ġa asta
Ġaces tu
Ġsz e
es si
ial Äĥ
m und
it taa
at ori
ba cz
d Åº
Äģ lu
ĠÂ¤ ,
Ġpr ie
Ġar tico
Ġp ul
Ġd dod
ÃŃt Ã©se
Ġsh te
Ġempres a
w es
ĠT wo
Ġvrai ment
Ġdon na
log ia
Ġbil mÉĻ
r Ã©e
ra re
Ġob iek
Ã³ mi
ko l
pe di
nh á»į
nam áº¹nu
logi es
lan dic
isit ani
gboro osi
erin kugbe
enta i
ber ries
Ġç ¬¬
Ġá»įmá»į láº¹yin
Ġáº¹láº¹ ya
Ġá¹£o ki
ĠÐ ļ
ĠÅ¡ ii
Ġviv áº¹nu
Ġsis os
Ġsisos iso
Ġro gbodiyan
Ġhul le
Ġpou voir
ĠJa hre
Ä«ba i
Ġpu ayi
Ġpin plá»įn
Ġpe ye
Ġomo kunrin
Ġnu gbonugbo
Ġnin de
Ġn á¹£akoso
Ġlo tiri
Ġkanlin má»į
Ġiyá»į risi
Ġisin ku
Ġipin funni
Ġip Ã²
Ġpuj cka
va cÃŃ
ts Ã¡g
Ġapro ape
Ġto tes
el se
Ġm essa
ĠÕĢ Õ¡Õµ
il di
Ġme dio
Ġo pa
Ġka luar
ist Ã¶
Ġam Ã©
Ġkr Äģs
tza ciÃ³
Ġp es
ter a
ist ro
Ġterm Ã©szet
ÏĦÎ® ÏģÎ·ÏĥÎ·
ĠÏĥÏħÎ¼Î²Î± Î¯Î½ÎµÎ¹
ĠÎł ÏģÎ¹Î½
ĠÎĶÎ¹ Îµ
ĠÎ±Î½ Ïİ
Ġf lwyddyn
Ġpas Äģku
Ġjedno du
pp en
Î¼Î²Î± ÏĥÎ·
ÎºÎ»Î· ÏĥÎ·
f 5
ĠÏĢÎ»Î· ÏģÏī
ĠÎĵ Îº
ĠÎĳ Î¼Îµ
Ġme thyl
ĠHotel s
ÏĦÎŃ ÏģÎ±ÏĤ
Ïĥ Î¼Î¿
Î»Îµ Ïĥ
9 13
ĠÎł Î¬Ïģ
ĠÎļÎ± ÏĦÎ·Î³Î¿
ĠÎºÎ±ÏĦÎ±ÏĥÎºÎµÏħ Î®
ĠÎµÎº ÏĢÎ¿Î¼ÏĢ
ĠÎ´Î¹Î¬ Î¸ÎµÏĥÎ·
Ġdda t
Ġk oulu
Ġob las
is ant
o arÄĥ
Ġháº¹ ji
Ġgbo gun
Ġeru ku
Ġb áº¹n
Ġava ilable
Ġata wá»įn
Ġakojo po
ĠVie w
ĠTÃľ DEMSAÅŀ
ĠSing le
ĠSalom on
ĠProf ession
ĠOn Ãº
ĠN ar
ĠMo a
ĠM am
ĠK wara
ĠIjáº¹ risi
ĠE rin
ĠE la
ĠC lass
Ġ5 12
Ġ(â Ļ
Ġ! âĢĻ
ăăăă ăăăă
è£ ½
çĶ³ è«ĭ
ç¦ ı
æ¯ Ķ
wa t
w lena
vun ráº¹
táº¹ nhá»į
t Ã¡
st ant
m Ã¹
Ã¤rjes tel
ĠN r
ĠÃ® i
Ġperme tt
ĠlÄ«dz ek
ÏĢÎ¿Î½ ÏĦÎ±Î¹
Îĳ Îĺ
Î´ ÏģÎ¿Ïħ
2 a
ĠÏħÏĢÎ¿ Î²Î¿Î»Î®
ĠÎłÎ±Î½Î± Î¸Î·Î½Î±ÏĬ
ĠÎµÏĨ ÏĮ
Ġfe wn
Ġzhv illi
Ġu omo
ese k
Ġpri mul
Ã«r inÃ«
Ġen f
wa ÅĤ
Ġko ke
Ġjan vier
á»Ł i
Ġsecon do
Å¡an os
ĠpÃ«r gji
kwi ÇĲnêŀĮ
ku le
Ġja mais
ÎŃÏģ ÏĩÎµÏĦÎ±Î¹
Î¼Î± ÏĦÎ¬
ithi ol
Ġdies es
Ġkwa mba
gu t
ista t
h ara
g Ã¹n
br os
ĠÅ¼e by
Ġoldu ÄŁu
Ġb li
Ġp endant
ta tud
res ie
Ġhloko mela
Ġho mbres
Ġkgo lo
ru ck
Ġtu tki
Ġinform Ã¡ciÃ³
ĠPo kud
Ġfin an
1 d
ĠÎ¾ÎµÎºÎ¹Î½ Î¬
ĠÎºÎ± Î¸ÎŃ
ĠÎ´Î¹Î± Î¼Î¿ÏģÏĨ
ĠÎ±Î½Î±Î¼ÎŃ Î½ÎµÏĦÎ±Î¹
Ġno d
Ġza p
Ãł ria
don ia
an an
amis isadode
N O
A K
10 2
ĠĐ ă
Ġè¿Ļä¸ª é¢ľ
Ġè¿Ļä¸ªé¢ľ èī²çļĦ
Ġç ½
ĠæĿ ±
Ġæ ²
Ġåķ Ĩ
Ġåĵģ çīĮ
Ġãĥ Ĺ
Ġá»įga ngan
Ġà¸ Łà¸£à¸µ
ĠØ ¢
ĠÃ¬dÃŃ yelÃ©
[...]
