#version: 0.2
Ġ Ð
á ĥ
Ġ .
á Ģ
e r
Ġ ,
e n
Ġ à
Ð °
à ¸
a n
Ø §
Ġ d
Ð ¾
i n
Ġ s
Ġ t
Ġ a
Ð µ
Ð ¸
Ġ p
e s
à ¤
a r
Ñ Ĥ
Ġ Ø
o n
à ¦
Ð ½
Ġ m
Ġ c
Ñ Ģ
à ®
o r
a t
Ġ Ù
Ñ ģ
e l
à ´
a l
ã ģ
i s
Ġ n
Ø§ Ù
à ª
Ġ l
Ð¾ Ð
Ġ b
Ġ -
e t
i t
a s
Ø ±
Ġ v
Ġ Î
Ġ k
Ġ o
Ġ 1
â Ģ
à °
Û Į
r e
Ġ h
Ġ 2
u n
Ð° Ð
i l
Ġ f
Ġ :
à ¯
o s
Ġà ¤
o m
Ġd e
Ġ S
i c
à ¥
Ġ âĢ
Ø§ Ø
Ñ ĥ
Ð »
Ġ ×
Ù Ī
a m
Ġ A
u r
Ġ e
Ġ w
Î ±
Ù Ĩ
à µ
a d
à §
en t
Ġ g
Ð º
e d
à ¹
Ï Ħ
Ã ©
c h
Ġ P
Ø§Ù Ħ
r o
e m
Ġ M
Î ¿
ã Ĥ
Ù Ĭ
Ã ¡
Ġt h
u s
Ġ C
Ù ħ
o l
Ġ in
Î ¹
Ù Ħ
ã ĥ
ã Ģ
Ø ¯
Ġà ¦
Ø ª
Ġ T
Ġ (
Ñ ı
á »
áĥ Ĳ
i d
in g
à «
Ġ B
u t
Ġ )
Ù ĩ
i m
Ġ D
i e
a k
Ð ²
u l
Ġ áĥ
Ġ2 0
an d
ĠÐ ¿
r a
Ð ´
Ġà ª
Ġ Ø§ÙĦ
à¯ į
Î ½
Î µ
Ġ Ã
Ġ 0
i on
l e
i r
Ä ±
o t
q u
i k
Ñ ĸ
Ð ¼
áĥĲ áĥ
Ġ ï
Ġ Ñģ
i g
Ġ y
áĥ ĺ
ĠÙ ħ
à ±
Ġ j
Ġ ãĢ
t e
i a
Ġ E
Ġ /
àµ į
Ġ L
Ġ I
Ġ r
t a
Ã Ń
Ú ©
Ï ģ
ĠÐ ½
Ï ĥ
Ã ¤
Ñ ĭ
Ñ Į
Ġà ®
ĠÐ ²
Ñ ĩ
Ġ 3
× Ļ
Ġ N
a g
Ġ H
Ġ "
¿ ½
à¤ ¾
ĠØ ¨
Ġ Â
Ġth e
Ð½ Ð¸
u m
× ķ
Ġ K
Ġ R
ä ¸
Ġ un
Ã ³
Ñģ ÑĤ
á º
a c
i v
Ġ F
áĥ Ķ
Ġ ì
à¦ ¾
Ġ å
Ø ³
Ï Ģ
Ġ20 1
Ġ i
Ġt o
Ġ z
Ġ en
es t
Ġ G
Ø ¨
à¯į à®
s t
an g
Ġà ´
Ï Ĥ
áĢ ¹
ĠÙ Ī
Î ·
Ġ qu
àµį à´
Ġs e
áĥĶ áĥ
Ï ħ
Ġc om
Ġl a
Ã ¼
×ķ ×
Ġ V
o d
Ġ áĢ
Ø ©
Ø§Ù Ĩ
Ð¾Ð ²
a p
e k
e c
Ã «
. .
Ġa l
ĠÐ ´
Ġ '
É Ļ
à¸ ²
Ø ¹
a y
Ġ 5
à§ ĩ
Ð° ÑĤ
t er
áĥĺ áĥ
×Ļ ×
Ġï ¼
Ġ 4
Ġà °
à¦¾ à¦
Ġ Ñ
a b
ĠÐ º
Ġ re
ĠÐ ¸
Ġ O
e g
Ã ¶
n g
àª ¾
ĠÐ ¾
Ġ Ú©
Ð ·
o v
à¸ Ļ
Ġc on
is t
à¤¾ à¤
áĢ¹ áĢ
Ð ¿
Ð° Ñ
ä º
Ġ and
u d
Ġo f
Ġ W
Î »
a h
Ðµ Ð½
à¥ ĩ
Ð ³
er s
Ġ ÏĦ
0 0
Ġc h
áĢ ¬
Ġ Ä
Ð° Ð½
Ġ æ
Ġd i
Î º
ÑĢ Ðµ
Ġp r
Ð ±
o w
Ø§ Ø±
Ġp ro
Ù Ĥ
ÑĢ Ð¸
ĠÐ ¼
Ġ J
en d
à¸² à¸
Î ¯
ĠâĢ Ļ
ï ¿½
à¯ ģ
o k
Ġ ÑĤ
an t
o u
i z
ĠØ ª
à§ į
à§į à¦
Î ¼
Ø ´
ĠÐ ·
ĠØ ¯
à® ¿
c i
à¥ į
Ġs t
à¥į à¤
o g
Ù ģ
el l
Ð°Ð »
r i
àª¾ àª
a v
Ġ on
Ġ |
u k
Ġp ar
o p
Ġf or
Ġ ë
áĥ Ŀ
à¦ ¿
Ð ¹
áĢ º
Ñ ħ
áĢ ¸
à´ ¿
Ã ¥
Ï Į
Ġ Ø§Ø
à¹ Ī
es s
à®¿ à®
Ġà ¸
Ã ł
e b
Ġ U
u p
à¸ Ń
Î ¬
Å Ł
Ø§ ÛĮ
Ġ ?
áĢ ¯
Ð¾Ð »
ì Ŀ
Ð¾ ÑĢ
Ġ el
Ġ an
Ġqu e
Ðµ ÑĤ
Î¿ Ïħ
Ð° ÑĢ
ĠÐ ±
Ð¾Ð ´
Ġa t
å ı
à± į
h e
Ġ is
à¸ £
Ñ Ĩ
áĢ Ń
Ø Ń
c e
Ġ 6
ĠÐ½ Ð°
à« ĩ
Ð¾Ð ¼
Ġn a
il l
Ñ Ī
Ġ !
à¥ Ģ
o c
Ã §
Ġt r
à¦ °
Ø ¬
Ðµ ÑĢ
áĥĿ áĥ
Ð¸ ÑĤ
Ġï ¿½
ic h
áĢ Ģ
os t
c t
in e
Ù ĥ
a z
Ð½ Ð¾
Ġ es
Ġï¼ Į
ĠØ ³
Ä ĥ
Ġà¤ ķ
Ġ ç
n e
à´¿ à´
or t
l i
Û ģ
Ģ à¸
à¤ ¿
ÑĢ Ð°Ð
u b
ï¿½ ï¿½
ĠÙ ģ
å ®
à¤ °
à¹ ī
Ú ¯
o b
er e
Ø ²
a i
Ġ 7
× Ķ
Ġ 8
d e
à¯ģ à®
Û Ĵ
Ġl e
Ġ. ..
ĠÄ ĳ
Ðµ Ð»
æ ľ
Ġp er
Ð¾ ÑĤ
± áĢ
at ion
ĠÙ Ĩ
× ¨
áĢ Ħ
ĠØ Į
Ġ 9
Ġ ÏĢ
Ð¾Ð ³
à±į à°
ĠØ ¹
Ø§Ù ħ
á ģ
ĠãĢ ģ
Ġ et
à° ¿
Ø§Ø ª
à¸ ±
s e
ar e
Ä ģ
ĠÎ º
i b
i o
Ñ İ
àµ ģ
o ur
un g
Ġb e
ãģ ®
al l
ĠÙ Ħ
i p
Ï ī
Ġ ;
ĠâĢ ĵ
ĠãĢ Ĥ
Ġ Ïĥ
Ġd o
Ġ1 0
Î Ń
Ġ× Ķ
× ľ
Ð¾ Ð½
n d
à¸ ĩ
áĢ¸ áĢ
ãĢ Ĳ
p l
a j
ĠâĢ ľ
ar t
à® ¾
in d
à¸ µ
Ġa s
ļ Ħ
à¤¿ à¤
ĠÎ ±
i f
å ¤
ĠãĢ ĳ
Ġ â
à¦¿ à¦
à¸ ģ
Ð ¶
à« į
à° ¾
å ħ
Ġ or
Ġ1 9
ĠÐ ³
à«į àª
ĠØ ±
å Ī
Ñģ Ðº
en s
Ġ u
à« Ģ
Ð°Ð º
v er
Å ¡
Ð°Ð ¼
ç ļĦ
à¹ Ģà¸
as t
Î ®
Î ³
à± ģ
à®¾ à®
Î± Î¹
ĠÐ °
à´ ¾
à¤ Ĥ
Ġa r
Ð» Ð¸
u g
en g
ä »
at e
Ġs p
ĠâĢ Ŀ
ŀ ×
Å Ĥ
Ø µ
à¸ ¡
Ġs a
e z
Ġ Ñĥ
l a
l ar
an s
Ġa d
Ġd es
Ð°Ð ²
Ġ è
Ø ®
i j
àµģ à´
Ġn e
Ġ %
Ġ er
Ï ĩ
ĠãĢĳ ãĢĲ
i er
à§ĩ à¦
Ã© s
Ð½ Ñĭ
Ġ ê
ĠÙ ĩ
ĠÎ µ
t o
ĠI n
£ áĥ
à´¾ à´
ãģ Ħ
Ø ·
ĠØ ´
n y
p r
áĥĺáĥ ¡
Ġd a
Ġ1 2
un d
í ķ
Ã £
Æ °
áĥĶáĥ ĳ
à¥ ĭ
h o
Ð½ Ð°
à°¾ à°
n a
áĢ Ĳ
Ġs i
Ġt e
áĢŃ áĢ¯
à¸ ¥
t t
ĠÎ ¼
k a
Ġe x
ad a
Ġd el
Ã ½
Î¹ Îº
Ġa m
Ġm a
àª ¨
× ª
ĠÂ »
ĠÐ ¡
Ġn o
ar d
Å ¾
i en
à¸Ļ à¸
ĠØ £
ĠÐ½ Ðµ
Ã³ n
Ġ im
Ä Ł
Ġ1 1
on t
or m
Ġm e
h t
ĠÐ¿ ÑĢ
ar i
Ġo p
æ ĸ
ãĥ ¼
Ðµ Ð½Ð¸
ä ¹
Ġp l
as s
us t
Ġn g
Ã º
Ù ī
e v
ç ½
áĢ ķ
Ï į
æ Ĺ
ĠÐ Ł
ÙĪ Ø±
à¤ ¨
r u
Ġ it
Ġ Z
Ð° Ñģ
id e
à¸ ´
à¸ Ķ
Ġ il
Ġ×Ķ ×
ĠØ ¬
Ø§Ø ¯
à« ĭ
f f
ent e
ä ½
Ñ Ĭ
Ð°Ð ´
Ġa v
Îµ Î¹
Ð¾Ð ±
Ġ é
áĢ ¼
áĢ Ļ
er t
à¯įà® ķ
Ġ Y
Ġ #
å Ľ
2 0
ÑĤ Ð¸
Î ´
Ġ Ñĩ
Ġs u
à¸ §
ĠØ§ÙĦ Ùħ
Ä Ľ
ł áĥ
Ã ª
à°¿ à°
Ã ¸
al e
àª °
Ġ =
or d
ãģ §
Ðº Ð¸
ĠÙ ¾
ç Ķ
Ġ× ľ
ç½ ĳ
ĠØ ®
âĢ Į
Ð¾Ð ¹
k e
Ġà ¹
Ã ¢
Ġ× ĳ
it h
Ðµ Ð¼
Ä Ļ
à¸ ¢
à® °
on g
Ġ1 5
m e
å ľ
Ġ20 0
ãģ Ĺ
Ä į
or e
i es
Ġa b
l y
e p
ĠS t
á Ĥ
ÙĬ Ø©
Ð¾ Ñģ
Ġ est
Ġe m
æ Ī
Î¹ Î±
Ã£ o
ĠØ¯ Ø±
Ä± n
it e
å ½
Ġà¤ ¸
ĠÐ Ĵ
ãģ «
Ġa p
Ġd ie
Ĥ à°
ë ĭ
Ġ ÑĢ
em b
ĠC h
ĠØ Ń
Ï Ĩ
à¯ Ī
an a
Ġo g
à¦ ¨
Ġ× Ĳ
ĠA l
Ġv er
s k
à¤ ķ
Ġ Ã©
ĠÙħ ÙĨ
å Ĳ
i y
Ġ x
áĢ Ķ
à¸ ļ
áĢĦ áĢ¹áĢ
d er
Ġ ãĥ
ar a
áĢ ±áĢ
Ã ´
Ġd u
ĠÐ ł
å ¹
à¤ ¤
Ġf r
at a
ec t
Ä ħ
× ĳ
Ġáĥ Ľ
Ñ ī
Ð¸ Ð½
Ġp or
m a
Ġa g
k s
ãģ ¦
Ġ ro
Ġs o
× Ĳ
Ġg r
Ðº Ð°
à® ¤
ic a
j a
d u
ul t
Î ¸
Ø £
Ġ áģ
à¯įà® ¤
ĠÐ µ
Ġpar a
n o
ĠØ ¢
Ġ1 8
ÙĨ Ø¯
Ñģ Ñı
ì ŀ
Ð¾Ð³ Ð¾
in a
áĥ ķ
et t
Ġa c
Ġd er
Ġs er
i á»
Ã¶ r
Ġ Ø§Ù
Ð¾Ð º
Ġb y
ãģ ¨
Ġ ]
Ã¡ s
Ú º
Ġà ¥
Ġm ed
ĠÐ ļ
ÏĦ Î±
n i
ĠÐ »
t h
ãģ ª
el e
z e
ÙĪ Ø¯
Ġ [
Ø ¶
ad o
ĠÏĦ Î·
Ï İ
n h
ĠÙ Ĥ
Ð° Ð½Ð¸
Ġp re
Ġ1 3
Ġà¤ ¹
l er
å Ĭ
Ø§Ø ¨
×ķ× ª
ĠØ§Ø ³
ĠÂ «
áĢ ½
×Ļ× Ŀ
Ð» Ñı
ĠÙħ ÛĮ
Ġv e
Ġ× ©
z y
il e
Ġà¥ ¤
Ġt er
ĠT he
áĥ £áĥ
Ñ Ħ
ÑĤ Ð¾
Ġo l
Ġ1 6
a u
äº º
Ġy ou
ÙĪ ÙĨ
Ġà¤ ®
Å Ļ
Ġ0 0
w w
Ġ1 4
ãģ Ł
Å ¼
à¦¾à¦ °
iv e
l o
ãĥ ³
ÑģÑĤ Ð²
ĠÙ Ĭ
ãģ Ļ
à§ ģ
å į
Ġs om
i an
àµ Ĩ
k an
áĢ ·
ĠT h
Ø³ Øª
Ä «
ï ¼
ãģ Į
in t
Ġm en
Ġn h
ãĤ ĭ
Ð¸ Ð»
Ġs h
ĠÐ¾ ÑĤ
Ġth at
Æ° á»
Ġp o
w a
Ġw ith
ic e
n t
Ġv an
on d
Ð¾Ð ¶
à±ģ à°
Ïģ Î¿
Ðµ Ð´
Ġp h
g e
ĠÃ ł
ç ī
Ø °
ì Ĺ
à¸ ķ
u j
Ĥ ¬
g r
ĠØ¨ Ùĩ
à¸ °
áĢ ²
ĠÐ ľ
ĠÎ ´
Ġd an
ÏĦ Î¿
Ġd et
ĠÙģ ÙĬ
ãģ ¯
Ġ us
æ ī
à§ Ł
à¸ Ĺ
u re
× ©
m ent
Ġ &
Ã ¦
Ù İ
× ł
Ø± ÛĮ
Ġ +
Ġ í
Ġa u
Ġj e
Ġ1 7
Ġ ä¸
à¤ ²
z a
Ġ Û
em ent
Ã ¨
Ġ" :
Ġà¤ ª
f t
Ġw ww
Ð°Ð ·
Ġ) .
Ġr es
k t
ĠÐ· Ð°
ĠÎº Î±Î¹
v e
Ġun d
Ð¾ ÑģÑĤ
f orm
Å ĳ
áº ¡
Ð°Ð ¹
i al
ÙĪ ÙĦ
Ġw h
Ġj a
à® ©
Ðµ Ðº
an y
ĠÐ Ŀ
Ġ Ø§ÛĮ
áº ¿
in i
æ ĺ
Ġy ang
Ġà¦ ķ
Ġ q
ad e
ĠD e
¨ àµįà´
Ġl es
Ġ ãĤ
Ð½ Ñı
âĢ į
Ä ĵ
áĢ ħ
u e
æ ¸
à¸ ª
Ġv o
ÏĦ Îµ
Ø§Ø ³
Ġáĥ ¡
n ÃŃ
it y
ÑĢ Ñĥ
Ð°Ñ Ĩ
a ch
ÙĬ ÙĨ
ĠÑģ ÑĤ
Ġd en
áĥĲáĥ ľ
on e
u i
Ïģ Î±
k o
ä ¼
å °
à¤ ¸
ãģ ¾
r y
/ /
is s
ĠâĢ ¦
Ð¾Ð ·
Ġ× ŀ×
Ġà¦ ¸
è ¿
Ġ3 0
h a
ag e
ac i
à´ ¤
am p
g a
Ð ł
àª ¿
r es
Ġáĥ ĵ
ÏĦ Î·
Ġcon t
Ġ Q
Ġ ra
® à¯į
à¥ ģ
à® Ł
Ġo b
Ġs k
p ort
Ġà¦ ¬
n ing
ìĿ ´
Ã µ
tt p
Ġ) ,
Ġ Ûģ
Ġ2 5
áĢ Ľ
Ġh e
ÑĢÐµ Ð´
Ġk a
Å Ľ
Ġa re
àµį âĢį
p er
áĥ ¡
u al
s i
Ġd is
Ġ201 9
ĠÐ Ĳ
Ġ Ú¯
Ġ ÑĢÐ°Ð
áĢ ®
Ð¸ Ð¼
Ã¼ r
Ã¡ l
áĥ ł
ãĤ Ĵ
ĠÙ ĥ
Ġ: //
Ġ áĥĲáĥ
ĠA r
à« ģ
Ġc o
t i
à¸ «
Ġw e
åı ĳ
è ½
Ġh ttp
Ġ2 2
à¦ ²
à¸ Ħ
it a
am a
à¹ Ħ
à«ĩ àª
ÏĢ Î¿
Ġin ter
Ġp Ã¥
Ðµ Ð¹
Ġ um
Ø «
åĪ Ĩ
m er
ĠÐ¿ ÑĢÐ¸
Ġ2 1
E R
Ġà® ª
áĢ Ĭ
ĠÏĦ Î¿
A N
à¤ ¹
ĠS e
ĠÐ¾ Ð±
Ġ201 7
ent o
Ġm an
Ú Ĩ
Ïĥ Î·
ĠÐ Ķ
à¦ ķ
Ġ Ñı
× ĵ
at i
Ġo m
ķ àµįà´
é Ģ
äº ļ
áº £
Ø§Ù ĩ
Ġk h
å ¿
Ġb l
r an
ĠP ro
e w
Ð°ÑĤ Ð°
å ¼
Ð°Ð ³
Ġ >
Ġ" ,
Ġà¦ ª
is h
b l
Ġun a
ĠM ar
r at
ĠÐ¿ Ð¾
ĠØ¨ Ø±
à® ³
y s
on s
ĠÎ ½
ĠØ¹ ÙĦ
ĠÏĦ Î¿Ïħ
i re
b er
å ¸
Ġh o
àª Ĥ
un t
àª ¤
× ¢
ä¸ Ģ
Ġ201 8
è µ
Î¼ Î±
av e
1 0
qu e
à¥ Ī
ëĭ ¤
è ®
Ïī Î½
Ø§Ø ¦
Ġ Ñĸ
á» į
ch e
Î¯ Î±
t en
b e
d a
ĠÑ Ħ
Ùĩ Ø§
ĠÃ ®
Õ ¡
Ð¸ Ð²
Ġh a
ÛĮ ÙĨ
æ Ŀ
Ġl o
Ġa f
× Ĺ
áĢ ±
em p
c a
Ġm u
Ġk e
i el
Ġàª ķ
à§ĩ à¦°
Ġ. .
ĠÐ ŀ
al i
à´ °
ĠÐ ¢
er a
ê ³
Ð¾Ð ¿
s p
ĠA n
al a
áĢ ļ
s o
Ġp e
Ġb er
Ġ× ķ
Ã¡ n
à¹ ģ
Ġ ent
Ġt il
ac k
å Ń
ë Ĭ
ÛĮ Ø¯
à§ ĭ
Ð¸ Ñı
i h
Ġt Ã«
å½ ©
Î½ Î±
ic k
ç »
Ġà® ķ
Ġs z
Ġ2 4
ÉĻ r
å¤ §
ĠÐ ĳ
o h
k u
Ø§Ø ²
- -
à¦ ¤
ĠØ§Ø ²
Ïģ Î¹
ãģ ĭ
ion e
Ġå ¤
ig ht
Ġt ra
ĠÎ ³
è §
á» Ļ
Ġ X
àª ķ
ì §
at o
m i
ĠL a
áĢ ŀ
Ġm ar
Ġm in
Ú ¾
.. ..
v a
å º
áĢ ľ
am b
à° ¨
ï¿½ï¿½ ï¿½ï¿½
ĠÂ Ń
Ġ Ø§ÙĨ
Ġn ot
ĠáĢ ¡
c ia
Ġal l
f er
ìŀ ¥
àª ®
ĠÎ ¿
å Ĩ
Ð¸ ÑĢ
Ġ2 3
à¯įà® ª
Ġh ar
ĠÑģ Ðµ
å ·
s a
Ġk an
à¥įà¤ ¯
p t
Ã¤ r
áĥ ļ
p e
ĠâĢ ĺ
àª µ
ic i
Ø± Ø¯
c o
Ġáĥ Ĵ
à¸²à¸ £
é ĩ
Ġàª ª
à¥įà¤ °
k i
ĠE n
Ġn i
ķ à¯įà®ķ
Ð½ Ñĸ
Ġb u
Ðµ Ñģ
ì Ħ
à¤ ®
à¦ ¬
ãģ £
ç «
à¤¾à¤ °
Ãª n
ĠC om
Ã¡ t
ĠÑ į
ur a
Ġl os
ik a
el s
áº ¥
à® ²
Ã ±
im e
Ġy a
ëĬ Ķ
Ġm et
ĠØ§Ø³ Øª
ä¸ ĭ
æ¸ ¸
à° Ĥà°
Ġc an
j e
à¸Ń à¸ĩ
er n
à§įà¦ °
à¸ ·
Ñĥ Ð²
Ñĥ Ð´
è ¯
Ð°Ð» ÑĮ
Ø± ÙĪ
Ġ ut
Ã© r
ãĥ¼ ãĥ
Ġat t
à± ĩ
ÑĤ Ðµ
Ġw as
åľ ¨
à¸ ¸
Ġe d
ion s
Ġcom p
å® ĺ
à¸µ à¹Ī
ê °
à¦ ®
u a
Ġp os
Ð°Ñ Ī
ĠØ ¥
áĢ¬ áĢ¸áĢ
Ġk om
à¹ Į
b a
Ġb a
v en
Ġc u
Ġm o
× §
y a
Ġv ar
Ø º
Ġa z
Ġ0 1
Ò Ľ
Ð¸ Ñĩ
ic o
Ð¸ Ñģ
åĽ ½
ì ł
ĠÑ ħ
Ġp ol
à¯Ī à®
Î ²
Ā Ā
ĠU n
à° °
ĠÙĪ Ø§ÙĦ
Ġt ak
ĠØ§ÙĦ Øª
ãĤ Ĭ
Ð¸ Ð´
è ¡
ķàµįà´ ķ
à¹ ĥ
l u
Ã ¬
à¹ ĩ
A R
Ġ201 6
ĠE l
I N
ÙĬ Ø±
ĠP r
ç º
ĠÐ´ Ð°
ĠØ µ
Ġb o
à± ĭ
Ġo s
Ġp ers
it t
Ð°Ð ¿
æ Ĭ
Ġy our
áĢĦ áĢº
Ġm od
¨àµįà´ ¨
à¯įà® Ł
Ġa ut
á» ĳ
ç Ľ
Ð°Ñ ħ
Ġe in
Ġh et
en e
ĠL e
w e
Ø§Ø ¹
× ¤
Ä± r
Ġpar t
Ð°ÑĤ ÑĮ
æ ³
áĢ ģ
Ġì Ŀ
d i
ãĤ ¹
ig n
Ñĸ Ð´
é Ļ
ç İ
Ġv i
Ã§ Ã£o
ĠâĢ ĭ
Ġà® µ
and o
is e
E N
áĢ «
Ð°Ð ±
Ġ \
ĠÃ ¼
áĥĶáĥ ļ
Ñ Ĺ
Ñ ĺ
Ã¼ n
or s
Ġth is
× ŀ×
Ġp od
as e
ap p
id a
Ã« r
ãĤ Ĥ
Ġ ÑĢÐµ
Ò ³
Ġb r
Ñĥ ÑĢ
ì ķ
ĠÎ¼ Îµ
z i
áĥĲáĥ Ľ
Ġï¼ ļ
ÑĤ ÑĮ
à§įà¦ ¯
Ġb ir
in o
å ¥
Ġàª ¸
ÑĢÐ°Ð ²
¶ ľ
Ðµ Ð²
c k
ĠÐ¸ Ð·
à¸ Ī
Ġ ãģ
áĢ ¶
Ð ¡
ç ľ
Ġ Õ
ĠÐ ¶
Ã¡ r
å ¾
Õ¡ Õ
Ľ i
us e
l ine
Ġin d
Ø ¦
at er
æĹ ¶
Ġ up
Ġà¤ ¬
ol l
Ġ ÛĮ
Ġ0 9
ĠR e
áĢ »
Ġ× ¢
it o
Ġ $
× ŀ
Ġch e
Î ĳ
el a
å ĩ
ĠÃ ¶
à¸ Ľ
Ġà® ®
ĠÎ ĳ
Î½ Î¿
ĠÑ Ī
ĠÚ© ÛĮ
Ġo ch
à¸ ¹
Ġà¦ Ĩ
Ð¸ Ð·
ac e
ĠÎ½ Î±
iá» ĩ
g an
ul l
en a
Ä ĩ
am e
ell a
ÏĦ Î¹Îº
× Ľ
à¯ ĩ
et e
ÙĪ Ùħ
aci Ã³n
× Ŀ
Ġà¤ ¨
O N
ĠÃ §
áĥ ĵ
ÐµÐ» ÑĮ
à¥ĩ à¤Ĥ
as i
ĠT r
t s
ãĥ ĥ
Ø ¸
l l
z en
ÑĤ Ð°
áĢ °
h r
Ø§Ù ģ
o ut
Ġà® ħ
ÑĨ Ð¸
ìĹ Ĳ
ãģ Ĩ
å Į
d en
Ġin c
Ġn u
æĺ ¯
Ġre c
æ Ģ
Ñ į
ĠÑ Ĩ
ãĤ Į
il i
m an
é Ĺ
à¦¾à¦ ¨
ãĤ ¤
Ġv a
or i
à§ Ģ
Ðº Ð¾
om e
Ġc l
Ġg o
ä¸ Ń
Ġe en
1 1
Ġ5 0
Ñĸ Ð²
ik e
Ñ ŀ
Ġs on
Ġ1 00
å İ
ë §
áĢĢ áĢ¹áĢ
å ±
Ġ *
àª¾àª Ĥ
Ð° ÑģÑĤ
ĠâĢ Ķ
ãĤ ī
Ġm ak
l Ä±
Ġà´ ª
Ġà¤ķ à¥ĩ
end e
ĠØ ²
Ġàª ®
Ġo d
Ġà¦ ®
à¤ ª
on a
Ġ0 2
Ġ0 8
Ġf in
u h
g y
à´ ¯
Ġfr om
Ġà¤ ľ
5 0
Ġ2 6
¶ľ ìŀ¥
ÑģÐº Ð¸
áĥ Ľ
am i
ĠØ§ÙĦ Ø£
ĠÐ ĵ
Ġ0 3
Ã¤ n
ì§ Ģ
íķ ĺ
Ġm as
Ġà¹ Ģà¸
Ð Ĳ
Ð¾Ð» ÑĮ
m in
es e
à¤ Ĺ
Ġt i
i x
Î ¾
ĠÎ Ń
Ġà® ¤
g i
Ġà¦ ı
Ġn ie
Ø§Ø ¡
ol og
at t
Ġ2 8
an te
Ġt y
is ta
E S
Ġà¤ ħ
Ð½Ð¾ ÑģÑĤ
in k
Ġ2 7
àª¾àª °
Ġh ave
Ġà¤¹ à¥Ī
s s
æĸ ¹
Î¼ Îµ
Ġl as
Ð¸ÑĤ Ðµ
l ig
áĥ ľ
à° ²
Ã´ ng
Ġ× Ľ
ĠS p
_ _
àµįà´ ¤
Ðº Ñĥ
Ġ0 00
æ °
y n
ĠÎ± ÏĢ
ĠÎ ķ
ak t
et s
or a
Ġ }
v el
Ġà¤ µ
ç ¥
ek t
ub l
ich t
Ġà® ļ
r os
Ġc ol
Ġcon s
Ġáģ ĭ
Ã¡ c
ë ¡
y t
ÃŃ t
h er
áĥ ¢
ãĥ Ī
æľ º
áĥĲáĥ ĵ
à® µ
an o
Ġt a
Ã ²
ĠÎ ł
Ġ0 5
r it
Æ ¡
Ġ0 7
m o
å¹ ´
ĠâĢ ŀ
Ġ201 5
ìĿ ĺ
Ġv al
Ġc a
u y
Ġs c
ĠØ§ÙĦ Ø¹
æī ĭ
Ġg i
Ġm er
n er
Å ¯
ĠÐ² Ñĭ
ä ¿
l es
ĠÎº Î±
c es
Ð½ Ð¾Ð³Ð¾
ct ion
Ġp as
à´ Ĥ
ĠÚ© ÛĴ
ÏĦ Î¹
è Ģ
à¯ģà® ®à¯į
ur s
g en
ìĿ Ħ
Ġå¤ §
Ø± ÙĬ
i ed
Ġs ur
à¤ µ
à®¿à® ²
Ġì ŀ
è ´
áĢĦáĢ¹áĢ ¸
o j
ì ĭ
Ġ0 4
m en
Î» Î¿
an i
Ġ ik
ĠÐ ĺ
n Ã©
in s
ÙĦ ÛĮ
á» §
Ġ0 6
È Ļ
u z
8 8
ĠÑģ Ð²
à¥ Ĥ
Ø§Ø ´
Ġh as
er v
a il
Ġ ist
n ie
Ð» ÑĮ
æĹ ¥
àµ ĭ
ç Ļ
Ġà¤ Ĩ
Ã³ w
ĠÐ £
×ķ× ¨
Ġà´ ķ
ÃŃ a
Ġ2 9
Ð¸ Ðº
Ġà¤ ¦
âĢ Ŀ
áĥĲáĥ łáĥ
ê ¸
Î Ł
Îµ Î¯
ĠØ§ÛĮ ÙĨ
Ġar t
k y
Î Ļ
áº Ń
ĠØ§Ù Ī
Ð¾ Ñĩ
à´ Ł
Ġm y
er i
at s
Ġre g
à®¿à® ¯
× ĺ
Ġw ill
ĠÏĦÎ· ÏĤ
Ð ŀ
ion al
r et
Ġk u
Ġà¦ ¨
´ ë
re d
1 2
Ġg en
Ġs ol
Øª Ø±
æ ķ
an e
em a
ĠÐ Ĺ
Ġw a
ĠØ ·
Ġ× Ļ
Ġáĥ ł
Ġ Ã©s
ab le
Îµ ÏĤ
æľ ī
Ġà® ĩ
ÐµÐ½ ÑĤ
ĠA d
å ¯
Ð°Ð ¶
Ġ", "
ĠÄĳ á»
áĢ ¡
Ġ201 4
Ġv Ãł
as h
o z
àµ ĩ
6 5
id ad
k en
à¦ ¸
Ġd at
à¤ ¦
è½ ½
A T
à«ĭ àª
áĥĶáĥ ľ
Ġs el
Ø§Ù Ĥ
or es
Ù Ģ
is i
Ġv á»
äº Ĩ
Ġs ch
Ġc ar
áĥĲáĥ ķ
A L
ĠS h
ÛĮ Ø±
è ¦
ny a
ĠÑģ Ð¿
ÐµÐ½Ð¸ Ñı
Ġm it
Ġà¦ ¹
n et
ĠÃ ¤
O R
ĠÃ® n
Ġ ÅŁ
áĥĲáĥ ¡
an ce
ĠÑĢÐ°Ð ·
x t
Ã¼ l
ig e
ĠÚ© Ùĩ
Ġo ut
k l
Ġàª ľ
å¹ ³
Ð° ÑĢÐ¸
il d
ãĤ ĵ
Ġp a
ĠC on
u c
Ñ ĳ
Ġ ÚĨ
ĠÏĦÎ· Î½
å ĵ
Ðµ Ð³
ay a
Ġâ Ĥ¬
é ģ
Ġs up
ĠÐ¿ÑĢ Ð¾
à± Ģ
áĢĶ áĢ¹áĢ
eg o
Ġ Å
r as
Ġp our
Ã© g
ļ áĥĺ
Ð´ Ð°
1 9
Ġin form
à¯ Ĩ
à´¿à´ ²
ĠÃ ¥
e h
Ġ201 3
Ġàª ¤
ing s
ot el
Ðµ Ð·
ul d
z t
Ġ ang
Ġ20 20
Î ¶
ĠÎ ļ
à«įàª ¯
o y
Î¿ Ïį
ĠáĢ ±áĢ
Ġ4 0
Ġáĥ ĺ
ç Ĳ
ĠØ¹ÙĦ Ùī
× ¡
as a
à¸ ³
ut e
ä¸ĭ è½½
ä¸ į
ĠØ¨ Ø§
à¸ ŀ
ä¸ Ĭ
im a
ä¹ Ĳ
O M
Ð°Ñ İ
e j
id o
p p
åı °
àµįà´ Ł
Î± Î½
ĠÎ £
ĠÙħ Ø¹
ĠA nd
Ñĥ Ð¼
ar s
Î¯ Î½
Ġà¤ ²
ãģ ı
ÛĮ Ùħ
ĠÐ´ Ð»Ñı
Ù Ĳ
íķ ľ
× Ĵ
áº §
Ð° Ñı
æ Ń
Ġpr es
ĠP l
at u
ĥ ½
or k
p os
ì Ĭ
c z
Ġz a
ad i
Ġà¤ °
à° ķ
Ðµ ÑĢÐµ
Ġ× ŀ
áĢ² áĢ·
à¸ Ĭ
Ġb et
Ġì ł
Ù ¾
é Ľ
ĠÐ¿ Ð¾Ð´
it s
¨ à¯įà®¤
p a
ãĥ «
Ġde m
Ġà° ª
Ð¸ Ñħ
ed e
à¸ Ĥ
Ïİ Î½
3 0
Ġ": "
áĤ Ķ
å® ¶
ÙĦ ÙĬ
Ġd in
Ø§Ø Ń
Ġ201 2
Ø§Ù Ī
Ġd as
ĠÎ ¤
ar k
Ġ {
el y
ĠÂ ·
Ġàª Ĩ
u ar
A S
Ġf un
é ¢
Ð½Ñĭ Ñħ
Ġm i
as Ä±
ad os
Ñĥ ÑĤ
el t
Ġf il
Ñĥ Ñĩ
ĠM a
Ã¸ r
ì ļ
Ġs al
Ø ¥
à´ ®
Ġà® ¨
à¤¾à¤ ¨
ent s
Ê »
Ġo ver
Ġ id
æ µ
p h
ÑĢ Ð¾
ä¼ ļ
ĠÎ³ Î¹Î±
Å ¥
Ġl Ãł
b en
ë¡ ľ
Ġáĥ ¨
Ġh er
if ic
àª¿ àª
Ð² Ð°
Ġà¦ ¦
Ġk on
r on
ĠÐ¾ Ð´
ÙĦ Ùħ
Ð¸ÑĤ ÑĮ
Ġ ÏĮ
ÙĬ Ø¯
æ Ķ
n en
Ġin t
ê³ ł
l d
à´ ³
Ð¼ Ð¸
Ġt u
Ø§Ù Ĭ
iv ers
ÐµÐ½Ð¸ Ðµ
ï¼ Į
r en
g er
el d
g o
Ġf Ã¶r
æ ł
Ġà´ µ
Ø¨ Ø±
Ġàª ħ
ĠE s
à«įàª °
Ġs y
áĢ ¾
å®ĺ ç½ĳ
ur i
Øª Ùĩ
å Ŀ
ë ı
Ðµ ÑģÑĤ
8 0
áĢĢ áĢº
áĥĲáĥ ł
ĠI t
Î £
ĠS ch
à¥ĩ à¤
ĠÎ±ÏĢ ÏĮ
áĢ± áĢ¬
Ġà¤ ¤
àª¨ à«ĩ
ĠØ± Ø§
Ġk o
Ã ¹
el le
ª à¯įà®ª
all y
Ñĥ Ñİ
ow n
Ð½Ñĭ Ðµ
ĠÃ º
gr am
Ġà §
it u
æ ŀ
áĥĿáĥ Ľ
áĥ ®
al t
Ã¢ n
àµģà´ Ĥ
Ã© n
ĠÑĤ Ð°Ðº
an k
Ã¥ r
ol d
c ess
Ġun e
l and
ì ¶ľìŀ¥
Ġpers on
å¿ «
çĶ ¨
æ İ
ĠA m
Ø± Ø¨
Ù ĳ
l et
Ġ Ïĩ
Ġàª µ
9 9
ĠÂ °
i et
Ġáĥĵ áĥĲ
ÉĻ n
áº ¹
Ðµ Ñĩ
b o
Ġa ct
Ġm eng
à¸± à¸ļ
ĠÎ ľ
æ ´
Ġ3 1
ch en
Ġse g
er o
h et
Ġàª Ľ
à® £
à§įà¦ ¤
oc k
å ĳ
y d
es ta
i i
Ġn Ã«
ĠÎ ¸
ê° Ģ
×Ļ× ª
ãģ į
Ġun t
al am
à® ®
os e
ie w
ĠØ± ÙĪ
ĠÛ Ķ
il le
ĠÃ ¨
Ð¸ Ð¸
ĠQ u
ê ²
ĠÙħ ÙĪ
ation s
Î» Î»
ĠB l
áĢ ĸ
ĠÄ °
Ġser v
ãĤ ¯
à¸²à¸ ¢
ë ¦
ÏĦ Î¬
Ġv ol
ç §
ĠÑģ Ð»
Ġde c
us s
à± Ĩ
Ġcom o
é Ŀ
Ö Ģ
Ġv on
ĠÎ Ķ
Ġà¤® à¥ĩà¤Ĥ
ãĥ ©
Æ°á» Ŀ
eng an
à® ±
Ġb ar
ĠO n
à ¨
Î ķ
ci al
ĠØ§ÙĦ Ø³
2 2
6 0
Ġs am
Ġe v
at ur
à¯įà® ±
ĠÎ ·
is k
à´ ¨
Ð¾ ÑĢÐ¸
Ġà´ ¸
ot o
Ã¡ m
Ġà° ķ
Ð¸ ÑģÑĤ
Ġ ir
emb er
à¹ Ĥ
es te
Ġà® İ
Ã© t
Ī ëĭ¤
ĠÙħÛĮ Úº
à¯ ĭ
ot t
Ïģ Î¬
ĠØª ÙĪ
Ù ı
at iv
Ġth á»
Ġm eg
w o
1 5
Ġv is
O S
Ġpro du
çº ¿
Ġk l
Ð° Ñĩ
Ġg e
Ġst r
Ñģ ÑĮ
Ġê °
Ġb ut
Ġc Ã³
E L
à¸ģ à¸²à¸£
ë ¥
Ġr el
ol a
or y
ĠN o
à¸²à¸ ģ
Ġà¦ķ à¦°
Ä± m
s z
Ġz u
Ġn on
an c
Ġà¦ ¤
à±įà° °
Ġc e
ĠâĢ ¢
à¤° à¥įà¤
Ġp u
Ð½Ñĭ Ð¹
è Ĥ
à´¤ àµįà´¤
ĠÏĢ Î¿Ïħ
ĠáĢ Ģ
Ð½ Ð¾Ð¹
ç ¾
Ġf e
æ ĭ
a in
à´ µ
Ġáĥ¡ áĥĲáĥ
ĠA s
à°¾à° °
ac t
ĠÄ į
ĠØ£ ÙĨ
Ġt á»
æĪ ı
à¸²à¸ ĩ
Ġpro f
Ġï¿½ ï¿½ï¿½ï¿½ï¿½
Ġ ur
Ð¸ Ð¹
Ġà´ ®
ĠÐ² Ð¾
àµįà´ °
ĠW e
Ġp ÅĻ
i ra
em e
ĠT e
ãģ ĵ
æĸ °
à¦ ¦
ĠÐ¸ Ð½
Ùħ Ø§
ÎŃ ÏĤ
à´ ²
Ġ201 1
Ġ ä»
Ġc or
Ð°ÑĤ Ð¸
4 0
Ñĥ Ð±
áĥĺáĥ Ĺ
ĠÏĥ Ïħ
ãĥ ª
k et
Ġap p
ãģ¾ ãģĻ
u x
ĠO r
ĠáĢ Ļ
re e
ak an
è¡ Į
Øª ÛĮ
ĠÐ´ Ð¾
Ġs in
1 6
at ed
ci Ã³n
al iz
Ġb el
ì ľ
Î¹ Ïĥ
×ķ× ľ
Ġå¤§ åıĳ
Ġa k
Ñı ÑĤ
Ġs l
áº¥ t
å¤ ©
Ø¯ Ùĩ
Ã© m
Ġin v
Ġfor m
Ä± ÅŁ
æ¸¸ æĪı
1 7
ent ru
Ø§Ø ¬
Ø§Ø± ÛĮ
b i
Ñĥ Ð¿
Ð ĺ
ĠÐ Ľ
Ġo u
Ã¶ n
ul ar
Æ°á» £
à¸²à¸ ¡
ĠB e
Ġì ķ
å¹³ åı°
å Ĵ
åĩ º
ì ĥ
Ġáĥ Ļ
Ġà° µ
Ġp ost
à±ĩ à°
Ø± Ùģ
Ñģ Ð¿
ÑĢ Ð°Ð½
Ġï¼ ī
ĠV er
u ch
È Ľ
ĠÐ¿ ÑĢÐµÐ´
Ġæ ľ
Ġd r
Ġs ta
áĥĿáĥ ĳ
Ġå ħ
Ġin s
à¤ ¯
y r
il a
Ð½ Ðµ
ÙĦ Ùĩ
Ġà´ ¨
Ġë °
å¼ Ģ
Ġi f
ĠG r
U R
1 8
áº¡ i
ol e
ĠÐ¿ Ð¾Ð»
ãģĹ ãģ¦
ĠÐ¼ Ð¾Ð¶
ĠáĢ ŀ
Å £
Ġp ot
ãģ ķ
y m
ê¸ °
àª¾àª ¨
Ð¸ Ð½Ð¸
Ġd ur
ĠÑģ Ð¾
à«ģ àªĤ
I C
âĢ ¦
Ġ×© ×ľ
pr es
l ich
ìĦ ľ
en n
çĶ Ł
k er
b an
ĠÙħ ØŃ
Ġd os
I S
Ïģ Î¯
Ġunt uk
Ġd engan
or n
Ġ3 5
ay s
à¤ ļ
is a
× ¦
ĠE r
à¯įà®ķ à®³
ĠÐ² Ñģ
Ġt ot
im i
Ġà´ ħ
ĠØ¨ Ø§ÙĦ
Ġ× ł
ĠS o
Ġm ai
ra v
ar y
Ġ Ø§Ùħ
Ġf o
Ġs em
áĥĲáĥ ļ
ç« Ļ
Ġà¦ ħ
am ente
ÏĦ Î±Î¹
ĠP er
ir i
Ġàª ¹
Ġh ab
Ñ Ķ
d o
ĠØ§ÙĦ ØŃ
Ã¤ l
áĥ Ĺ
å ī
g et
Ġin f
Ġàª ¨
ÛĮ Úº
áĢĬ áĢ¹áĢ
æĿ ¥
ä½ ĵ
E T
áĢħ áĢ¹áĢ
Į Ģ
am ent
ĠÎµ ÏĢ
Ġk i
o ok
ìĿ ¼
en ce
ell er
æ ¬
Ġ ant
Ġin i
ĠSe x
ãģ£ ãģ¦
v is
s h
à§ĩà¦ ¨
ĠÙĦ ÙĦ
Øª Ùħ
ÑĢ Ð°Ñ
1 3
à«Ģ àª
Ġv ide
Ġon line
à´ £
ì ĸ
ul a
Ġvo or
1 4
Ġm ag
Ġc re
à¦ Ł
Ġc á»§
7 7
v al
Ġáĥ Ĺ
Î¹ Î¿
è ĩ
à¦ ª
en i
Ġ @
ĠP ar
ì Ľ
Ðº Ð¾Ð²
ãģ Ĥ
9 0
Ġcá»§ a
es i
ê µ
Ġtr ans
ĠÏĢ ÏģÎ¿
Ġï¼ Ī
un a
Ä± nd
ĠÄ Ĳ
u f
ĠP h
Ġch o
ĠàªĽ à«ĩ
Ġs m
Ġin st
Ġp Ã«r
it ion
Ù ¹
à¥ĭ à¤Ĥ
Ġà° ®
Ø¹ Ø¯
Õ ¸
? ?
æ ²
à®¤ à¯įà®¤
Ñĥ Ð½
Îµ Î½
ä½ ľ
Ġ× Ĺ
ë Ĥ
ĀĀ ĀĀ
Ġà° ħ
v o
à®¿à® °
ãģ§ ãģĻ
ĠÑ ŀ
Ã½ ch
j i
Ġà¦ ľ
Ġt re
ä ¾
Ð°Ð¼ Ð¸
b u
æ Ļ
ĠÏĥ ÏĦÎ¿
r ic
áĥ łáĥ
áĥĶáĥ ¡
ĠÐº Ð¾Ð¼
æīĭ æľº
Ð Ŀ
Ġes te
à¹ Ģ
à® ®à¯į
à®¿à®² à¯į
à´¿à´ ¯
Ġ201 0
åĴ Į
ak o
¯ äºļ
Ð°Ð» Ð¸
ĠD et
ÙĬ ÙĦ
Ġm at
Ġà¤ķ à¥Ģ
Ø± Ø§ÙĨ
Ã¤ t
à¸Ĺ à¸µà¹Ī
ë ĵ
Ġp ag
Ã Ł
Ġne w
ÑĨ Ñĸ
il it
åľ °
Ïģ ÏĮ
×Ļ× ¨
ìĿ Ģ
ĠH e
à¸£ à¸°
áĥĺáĥ ľ
¨ áĥĺ
2 5
Ä °
Ġn ov
l ik
ĠÑ ī
Ġw eb
Ù Ĵ
Ġ <
« ĺ
áĢ¬ áĢ¸
ol o
et a
Ġse x
ãģ ł
z o
and e
é ¡
ĠÐ¿ ÑĢÐµ
I T
Ġãĥ »
al s
à® ķ
ĠÐº Ð°Ðº
Ġsi ÄĻ
Ġl oc
Ġ, "
Ġd Ã©
ĠÏĦ Î±
ì Ĥ¬
à¹Ī à¸Ń
ÑĢ Ð¾Ð²
Ð¸ Ðµ
Î¿Ïħ Î½
ĠÙĩ Ùħ
å Ł
Ġà° ¸
Ġf Ã¼r
2 4
à¸£ à¸µ
åĲ Ī
.... ....
Ġl i
æ ĥ
c on
Ġàª ¬
Ġf a
Ġï¿½ ï¿½
p ar
ÏĦ Î®
è ī
Ġf l
Ġc as
Ġd ans
Ïĥ ÎµÎ¹
6 6
à®¤ à¯ģ
Ġof f
Ġm ore
Ī ĺ
è ¨
ĠP re
Ġáĥ Ķ
à¯ Ĭ
y ch
Ġm em
Ùħ ÙĦ
Ð³ Ð°
a f
à¤ ¡
Ġå ı
3 3
y l
Â µ
om b
Ġt id
Ø³ ÛĮ
2 7
à¸Ķ à¹ī
àªĤ àª
Ġl eg
an n
Ġd on
Ùĩ Ø§ÛĮ
Ðº Ñĸ
ed er
çī Ī
Ġs v
à®¾à® °
à®¿à® ©
ov e
y e
! !
å¸ Ĥ
ì ²
å ¨
ig h
ion es
àª ²
it i
Ġàª °
ĠIn ter
Î¼ Î¿
áĥĶáĥ ł
Ġi z
Ġà¤ Ĺ
æľ Ī
ĠÎ ²
un e
æľ ¬
Ġp i
à¤¿à¤ ¯
Ġa i
ãģĹ ãģŁ
Ñĥ Ñģ
à´ ¨àµįà´¨
£ ¼
Ġb il
Ġ Å¾
Ġà¹ ģ
) .
u v
p o
ĠÛģ ÛĴ
Ġk ar
Ġ äºļ
Ġc are
Ġ4 5
Ġb es
ÎŁ Î
ĠF or
Ġê ²
Ġdi re
Ġï¿½ ï¿½ï¿½
Ðµ ÑĢÐ¸
Ä± z
ÑĢ Ñĭ
Ð¾Ð¼ Ñĥ
00 0
an ia
Ð½ Ð³
Ġì Ĺ
Ġau f
à´ ±
A M
à´ ¸
Ġse c
Ĳ áĢ¬
Ð¸ Ð»Ð¸
ic al
Ñĥ Ð»
Ġm ot
Ùħ ÙĨ
æ ±
ra f
el i
æ Ħ
Ġ ÏĨ
Ð ķ
ĠD es
ĠÐ± Ñĭ
Ġg ro
Å «
Ø§ Ú©
Ġor gan
Ïģ Î³
ra c
áĢĢ áĢŃáĢ¯
ìĬ ¤
Ġà¤ ¯
ĠB ar
od e
ĠE x
ĠU S
Ġn em
id er
áĥĶáĥĳ áĥĺáĥ¡
ĠC ar
è ¾
ĠÚ© ÙĪ
Ġa j
Ð ¢
åħ ¬
àª £
Ġo ur
s ch
Ġà¤ķ à¤°
ÑĢ Ð°
× Ł
à¤ ¬
a w
àµįà´ ¯
Ġa le
æ Į
Ð½Ð° Ñı
Ġ6 0
áĤ ı
àª ¹
ĠÐ¸ Ð¼
à¯Īà® ¯
ä¸ ī
Ġal t
á» ĭ
Î± ÏĤ
ãģ ĳ
m et
à¹Ī à¸ĩ
Ġas s
ĠáĢ ľ
ÙĪ Úº
ĠØ§ÙĪ Ø±
ĠÃ¤ r
Ġma is
Ġs im
à¦¿à¦ ķ
Ġà¤ķ à¥ĭ
àµįà´ ª
ĠM e
à¤ ľ
Ġs ob
ÐµÑĤ Ð¾
ĠÏĥ ÏĦÎ·
Ð¾ÑĢ Ð¼
ĠB r
çĲ Ĩ
ìĿ ¸
Ã« s
Ġc ap
Ùĩ Ùħ
Ġy e
à¤ £
Ã¬ nh
à¤¨ à¥ĩ
Ðµ Ð¶
ç½ĳ ç«Ļ
ĠN e
ĠÚ© Ø±
Ŀ ¼
×ķ× ĵ
Ġn os
à¤¾à¤ ¤
Ġes c
Ä± l
Ġs ub
Ġpro p
ãĥ³ ãĥ
ĠA b
áº ¯
åĵ ģ
à¯ģà® ķà¯įà®ķ
Ġáĥ ŀ
Ġt em
Ġv ers
Ġon e
Ã¦ r
s te
ĠÐ ¤
Ðµ ÑģÑĤÐ²
ĠÐ ķ
ãĤ ¢
ĠW h
ë¦ ¬
à° Ĥ
à® ¯
ch t
Ġg et
Ġk at
Î¼ ÎŃ
Õ ¥
any a
Ġh el
ang e
Ð» Ð°Ð´
Ġt ro
Ñĸ Ð½
Ġà¸ ª
å° ı
Î» Î·
ĠI nd
Ġes p
Ã¤ Ã¤
Ġ× ª
ĠÏĥ Îµ
Ġres p
áĥĲáĥ ª
ãĢ ĳ
Î Ĺ
ĠÏĢ Î±
à´ ª
ÉĻ t
ĠÐº Ð¾Ð½
×ķ× Ł
Ø§ÙĨ ÛĮ
in n
-- --
ĠáĢ Ĳ
) ;
Ġì ĺ
ĠÙĩ Ø§ÛĮ
Ġr et
à¸· à¸Ń
d uk
ÙĨ Ø§
áº¿ t
à¤¾à¤ ²
Ġk r
æ³ ¨
Ġam b
éĹ ¨
ĠÑĩ ÑĤÐ¾
á» ¯
Ġ3 3
at is
Ġà¤ Ń
in en
d z
Ġc ent
Ġm ay
Ġç İ
b et
ĠN ew
Ã¶ z
à¯ģà® ¤
4 5
Ġd he
ĠP ol
Î¬ Î½
à¤¾à¤ Ĥ
Ġà¤ ī
ëı Ħ
ĠØ º
à¤ Ł
ãĥ³ ãĤ
um ent
å Ģ
lar Ä±
Ġb i
ĠM an
à¦¾à¦ ²
al ar
ion i
áĢ® áĢ¸áĢ
Ð» ÐµÐ½
c c
ë§ Ī
Ġ3 2
àµ Ģ
Ñĥ Ð¶
Ġë §
åŃ Ĳ
Ġf am
y o
ĠÎ »
Ð½Ð¸ Ðº
v i
ÃŃ m
Ġb est
Ġå ĩ
ro l
ĠD ie
Î¿ Î»
E D
Ñħ Ð¾Ð´
Ã¡ v
Ġ. ,
ÙĨ Ú¯
at h
ĠÎ± Î½
am ento
l ed
Ġf ra
Ġthe ir
ĠÎ Ł
ÑĨ Ð°
ÙĦ Ùī
Ġ Å¡
ĠØ§ÙĦ Ø¬
ĠC o
Ġ× ¨
f a
×ķ× ĳ
ĠÐ¾ Ñģ
åħ ¨
àµįà´ ļ
ĠØ§ÙĦ ÙĤ
Îĳ Î
ĠE ur
Ġm il
en c
Ġ á
ĠØ¹ ÙĨ
à´ ķàµįà´ķ
é ĺ
Ġ Ïħ
Ġk un
àµģà´ ¨àµįà´¨
Ġqu i
Ġt ill
s ta
ud e
ÙĪ Ø¨
Ġf ir
Ġd ar
Ġm us
à´ ķ
ig a
Õ ¶
ãĤ Ī
Ġt ur
Ġj u
end o
ÏĦ ÏĮ
et te
é ĥ
ĠP or
ãĢ Ĥ
Ġm es
Ġp el
×Ļ× ł
Ġd it
at or
Ġpro v
Ð ļ
à¤¿à¤ ķ
it al
Ġà¤¸ à¥ĩ
ÙĦ Ø§Ùħ
à´¾à´ ¯
×ķ× ł
Ļ àµįà´
ĠÐº Ð¾
è¦ ģ
Ġo t
ĠC l
ĠI l
Ġà¦ª à§įà¦°
åĿ Ģ
äº ĭ
Ïī ÏĤ
Ĳ áĢ¼
Î® ÏĤ
Ð°Ð½ Ð´
ì ĺ
áĥĺáĥ ļ
id ade
Ġ" .
Ġt en
Ġà´ ¤
ĠØ³ ÛĴ
Ġm al
th er
á» ±
p s
Ġa us
n ÄĽ
Ġàª ı
ãĥ¼ ãĤ
Ġ3 6
Ġd ella
7 0
Ġim p
Ġs Ã¥
Ġ3 4
Ġw y
áĥĶáĥĳ áĥĲ
id en
u er
à±įà° ¨
ç¾ İ
è ĥ½
ç ł
ç Ń
Ġâ Ĩ
åľ¨ çº¿
Ġd om
ec k
ç Ĥ
Ġthe y
iá» ģ
áĢĲ áĢ¹áĢ
Ġ× ¤
Ð°Ð½ Ð½Ñı
Ø± Ùħ
ÑĬ ÑĢ
¾ áĢĢ
ri b
Ġpr z
Ġp ass
ak e
à¦¿à¦ ¨
Ġì ĭ
Ġk t
l t
ÙĪ Ø²
al m
Ġ200 9
O L
áĢ¯ áĢŃ
Ġt el
ÛĮ Øª
Ġ19 9
æĪ Ĳ
Ð» Ð¾
i ro
æ ¯
az ione
Ïģ Îµ
Ġpro bl
ed en
á» ĩ
Ġac c
×Ļ× Ķ
Ġt ime
Ġå ®
à° ®
l am
Ġhttp s
ãĢĳ ãĢĲ
Ġn um
ìĭ ľ
ĠÐ¾ Ð¿
ë ħ
iv o
iv er
ä¸ ª
ĠT o
al d
Î¯Î½ Î±Î¹
à¸² à¸Ļ
Ġm emb
Ġa y
ä¸ º
ãĥ ¬
Ġs et
Î½ Î·
ar en
ubl ic
ÐµÐ½ ÑĮ
ð Ł
Ġm on
ÃŃ n
er k
Ġab out
Ġà¦ °
à¦ Ĺ
ë¥ ¼
ĠP ost
2 3
b y
im o
áĢ Ĩ
ÑĢÐµ Ð¼
Ġc i
ov er
Ġ ud
áº¿ n
b r
Ġent re
å¤ ļ
Ø¯ Ùħ
ä¸ ļ
é «ĺ
ĠÙħ Ø´
Ø§Ø ®
A D
ĠØ§ÙĦ Ø¨
àª ª
à®¾à® ©
à®Ł à¯įà®Ł
I L
m l
Ã¡ g
ĠØ§ÙĦ ÙĨ
Ġ ÒĽ
Ïĥ Îµ
ig en
åŃ ¦
Ġk m
ent es
I D
f r
h i
k in
é ĸ
à® Ļ
Ġal s
Å Ħ
and a
çľ Ł
ä» ¥
l en
ç ´
Ġan y
an ie
à¦¾à¦ ®
Ġà° ļ
ra g
j o
ij n
ap at
om m
ç ¤
Ġà¤ ĩ
Æ°á»£ c
ik an
Ġì Ħ
ent i
Ġ×Ĳ ×ª
2 8
Ġt ar
ĠØ¢ ÙĨ
Ñĥ Ðº
Ġal le
Ġf ac
à° ¤
ÐµÑĤ ÑģÑı
ç¥ ŀ
ĠØ§ÙĦ Ø´
ing en
ê ±
Ø§Ø µ
Ð¾Ð² Ð°
ĠS a
ot e
Ġen c
âĢ ĭ
àª ¸
ĠF ran
Ð¸ ÑĪ
Ġw o
4 4
à¸ ĸ
Ð°Ð½Ð¸ Ñı
± ä¹Ĳ
ed i
Î» Î±
ÙĪ Ø¹
è Ī
Ġp en
an ta
à¸¥ à¸°
Ã© e
og y
ÙĢ ÙĢ
ĠÏĦ ÏīÎ½
ĠÐ³ Ð¾Ð´
Ġes ta
ĠÙħ Ø³
Ġm el
Ġsp ec
Ġ5 5
çĶ µ
ĠÙħ Ø±
Ġh and
íķ ´
è ģ
* *
ë °
å ł
Ġm Ã¡s
Ġn et
er g
ç ¨
er en
Õ «
est i
on i
Ġæ Ĺ
ah a
× ĸ
ar m
Ġê ³
Î» Îµ
Ġå °
pl ic
éĩ ĳ
Ġn y
Ġv y
iz e
ÉĻ l
Ġg j
ĠH o
áĥ Ĵ
ent a
Ġ8 0
áĥĶáĥ Ľ
ov a
ĠI m
Ġt ut
ad or
áĢķ áĢ«
ak a
í Ĭ
Ġcon c
Ġb as
Ġà¦ ¶
Ø§Ù ĭ
æ £
ĠÐ² ÑĸÐ´
b le
Ġ9 0
Ġ3 8
à® ¨à¯įà®¤
á» ©
ĠC OM
ĠI s
w i
à°¾à° ²
Î¿ Î½
k on
ic s
W W
ĠAl l
ãģ Ĭ
Ġáĥ ¬
åħ ¥
Ġst ud
ro w
b ar
ÙĪ Ø§ÙĨ
á» ¥
Ġpro gram
å® ī
ÅĽ ci
Ġi Ã§
ÐµÐº ÑĤ
ĠTh is
à¦° à§įà¦
ang an
ad as
Ð¾ÑĤ Ð¾
Ãµ es
Ġàªķ àª°
3 5
ĠA z
Ġa an
åĪ °
Ġwh ich
È Ľi
Ġp op
Ġa w
áĢĦ áĢ¹
Ġpl us
å· ¥
Ġc r
ĠD E
áĢĶ áĢº
æ Ľ
àª® àª¾àªĤ
ik i
Ġw ord
ĠT er
ĠØ§ÙĦ Ùģ
Ġd ari
re m
ÛĮ Ø´
ĠáĢ ķ
Ġal so
ib le
æĪ ·
Ġà° ¨
Ġh an
Ġt emp
ag i
Îº Îµ
al it
f or
ĠÎµ Î¯Î½Î±Î¹
ĠÐ §
qu es
t u
áĥĿáĥ ¡
A C
ul ui
Ð» Ñİ
iv a
áĥĶáĥĳ áĥĺ
Ġp entru
ic t
Ġe gy
ì ¹
ĠØ§ÙĦ Ø¥
al es
ul e
è§ Ĩ
Ġå ½
à°¿à° Ĥà°
ë ³
ĠB u
é Ĵ
áģ ¾áĢĢ
Ã³ l
± Û
Ġum a
Ġk er
à¥įà¤ ¤
áĢķ áĢ¹áĢ
à±įà° ¯
à´¿à´ ķàµįà´ķ
×Ļ× ľ
áĢļ áĢ¹áĢ
å®ĺ æĸ¹
ap a
ÙĬ Ùħ
st er
ĠâĢĿ ,
å¨ ±ä¹Ĳ
ĠH otel
ut o
ĠØª ØŃ
Ġ ÈĻ
é £
Ð³ Ð°Ð½
Ġ3 9
Ġ3 7
ļ àµįà´ļ
Ġc Ã¡c
áĢļ áĢ¹
à¸± à¸ĩ
al ah
Ä ¾
Ġà¤ª à¥įà¤°
à¹Ģà¸ Ľ
Ġáĥ £áĥ
n es
Ã¼ k
ĠG o
Ñĭ Ñħ
Ġc er
Ð´ Ð¸
áĥĿáĥ ľ
Ġp al
Ġáģ Ĭ
ĠÙ¾ Ø±
á»Ļ t
Ġ ide
in de
ìķ Ī
Ġ× §
ĠR es
à¸¡ à¹Ī
il m
ĠÙħ Ø¯
ĠÐ¿ Ð¾Ñģ
Ġh ad
is te
à¦ ¼
± Ð¾ÑĤ
ãģª ãģĦ
Ĺ à¸µà¹Ī
Ġà¦ ¯
c ar
ÙĨ ÛĮ
ĠÐ ¥
ÑĨ ÑĮ
ç¥ ¨
ĠÏĢ Îµ
U S
à¸± à¸Ļà¸
à¦¾ à§Ł
à¸± à¸Ļ
ĠØ¨Ø± Ø§ÛĮ
st em
in in
ç ķ
æ ı
Ð½ Ð¾Ð²
or g
Ġà¤ ¶
Ø§Ø ·
éĽ Ĩ
Ġå Ī
Ġs en
ĠÑģ Ð°Ð¼
æ³ ķ
Ä±n Ä±
ãģ£ ãģŁ
Ġt al
ĠE st
Ġg l
Ġè ¿
å ĭ
ç Ħ
Ġk n
Ã§ a
Ġ Ø§Ø±
Ġkh Ã´ng
ĠÑĤ Ð°
ch n
ak s
ĠÑĤ Ð¾
ĠØ§ÙĦ Ø¯
ÙĦ Ùĥ
ë ¶
áĢ ³
áĢĬ áĢº
ut a
Ãł y
Ġà¤ ı
ĠáĢ Ľ
å ģ
çī Į
àª¨ àª¾
ak i
Ð°Ñ ŀ
ta in
Ð» Ðµ
Ġw ir
Ġg er
à¦¿à¦ ¤
ic as
Ġpro j
ĠJ e
u an
Å¼ e
p le
v ar
Ġà´ İ
Ġ Ò³
o f
à¸ ¶
d y
ĠâĢĿ .
à¦¿ à§Ł
à®¾à® ķ
Ġet a
ill a
Ġv ir
ë ł
ĠÎ± Ïħ
ĠE m
éĥ ¨
ai re
is ter
àª¨ à«Ģ
Ġe g
Ġ4 8
Ã¡ ch
Ã© p
Ġà¤ ļ
n s
áĥ£áĥ ł
í Ļ
it er
Ðµ Ñħ
äº ¬
Ġ ul
à° µ
ant s
z er
ĠAr t
Ä± k
Ġæ Ī
à¥ģ à¤
à¦ ¹
á» Ł
Ġd ia
Ġun der
os a
à®¿à® ±
Ġro z
uj e
ag a
ÐµÐ½ Ð½Ñı
Ñĥ ÑĪ
Ġì §
à´ Ļàµįà´
Ñĭ Ðµ
Ġà¸ ģ
à®° à¯į
à¯ Ģ
ĠÚ© Ø§
Ġï¼ ģ
¾ ³
ÙĪ ÛĮ
f e
Ġ200 8
Ġå Ĳ
Å Ĩ
ĠÚ© Ûģ
Ġl ang
ç ®
Ġd ig
Ġex t
Ð» Ñĸ
ĠM in
ĠãĢ Ĳ
Ï Ī
à¦¾à¦ ķ
Ġv ia
ÛĮ Ú©
at an
æľ Ģ
åı ¯
ĠÃ ĸ
áº ·
ÎĻ Î
j Ã«
íĬ ¸
Ġto d
» ¿
ĠÄĳ Æ°á»£c
am os
ĠÚ© ÙĨ
Ġs it
or ia
àª¾àª ®
Ġå į
áĢ ĳ
Ð¾ÑĤ Ð¾ÑĢ
èĩ ª
as ta
à° ¸
ig t
Ġj ust
Ġb en
å ķ
ĠÚ© Ø±Ø¯
» áĢķ
Ġ× Ĵ
Ñģ Ð»
I A
Ġw ork
ot a
Ð Ĵ
s en
Ø ¢
on o
Ġe ff
à¯įà® ļ
Ġu z
Ġb us
j on
á»į n
à¹ī à¸Ń
Ġc el
p or
Ðµ Ð¿
èĢ ħ
le g
å® ļ
Ñĭ Ð¹
Ùħ Ø¯
à« Ĥ
ĠØª Ø¹
Ġse b
2 9
Ġl u
ch a
ĠA t
ov Ã¡
éĻ ħ
2 6
f in
Ġh is
ĠìĿ ´
ì £¼
Ġcom m
Ġ ich
âĢ ľ
l an
Ð³ Ð¾
à¹Ħ à¸Ķà¹ī
Ġå ľ
é ķ
7 8
Ð¸ Ð½Ð°
r al
Ø¨ ÙĬ
Ġik ke
Ġ×ľ ×Ķ
Ö Ĥ
Î¿Ïħ ÏĤ
Ġs us
Ġg re
ot h
on es
am o
Ġin te
im ul
ĠÐ¿ Ð¾Ð²
Ġc at
à° Ł
Ðµ ÑĪ
ag y
Ġm Ã¡
Ġim port
àµ Ĥ
Ġc al
5 5
à¸± à¹ī
Ñĺ Ð°
r ist
ä¸ ĩ
Ã¡ z
à® ªà¯įà®ª
Ø° Ø§
Ġà¤ Ķ
Ùĩ âĢĮ
à° ¦
a ut
ant o
Ġh at
av a
áĥ §
è ¶
ĠÎ ¬
ÏĥÎ· ÏĤ
Ġl ike
Ġà¦ Ĺ
áĥĺáĥ ĵ
ÑĤ Ð¾ÑĢ
Ġ4 4
Ġ7 0
Ġh al
Ġd alam
Ġ ess
ëĭ Īëĭ¤
Ġinc l
un i
Ġs ich
ĠÐ¿ ÑĢÐ°Ð²
Ġp at
__ __
c ul
è ²
ow s
Ġe f
àµįà´ ±
Ġh u
op e
åĬ ł
ĠÑĥ Ñĩ
Ġà®İ à®©
åī į
ĠÐ¸ Ð»Ð¸
à® ļ
Ġd ata
Ġ× ĵ
Ġp ra
à¸µ à¸¢
ĠãĢ į
ek s
Ġj o
Ġk ur
aj a
Ïģ Î·
Æ° Æ¡
à¹ĥ à¸«
èĤ ²
ä¿ ¡
Ġáĥ ķ
ĠC ol
Ġm is
Ġn icht
Ġad d
Ð» Ð°
çĻ »
Ġà¸ Ħ
ab il
ĠÐ¿ Ð»
ĠÈĻ i
ãģĻ ãĤĭ
um a
è½ ¦
Ġë Ĥ
Ġd iv
im in
ol i
o a
Ïģ Ïī
Ġm Ã¼
Ñı Ð²
Ġà® ī
Ġà¤Ķ à¤°
áº§ n
Ñĸ Ð¹
Ľ à§ĩ
Ġpr in
à¸ ĵ
Ã¤ m
at es
ĠÙħ Ø§
Ġàª ¦
è ª
Ġáĥ ĳ
ĠÎ¸ Î±
à¯ģà® ķ
ĠÙħ Øª
à ·
ĠÏĦ Î¹
Ġf al
il y
ĠY ou
Ġ×Ķ× ŀ×
Ġp un
Ġe i
Æ°á» Ľ
ãģ ©
du c
Ġà¤ª à¤°
Ġet t
Ġ= "
à±įà° ²
c el
ĠÛ ±Û
Î¯Î± ÏĤ
ÑĢÐ°Ð ·
ĠP a
p on
Ġl ib
à° ª
ĠÃ® nt
k el
à±įà° ¤
Ġen d
Å ±
Ġç Ķ
Ġm ost
Ġz e
Ġà° ¤
Ġj ed
ĠÙħ Ø¬
om a
ĠS ie
à° ¡
Ġw at
ĠáĥĲáĥ ł
ÄŁ Ä±
Ġw er
it en
Ġæ ĸ
ĠM ed
ĠÎ ĵ
à§ģ à¦
Ùħ Ø§ÙĨ
ri j
ãģ Ī
Ã© l
åĬ Ľ
à¯ Ĥ
ĠF r
çľ ĭ
Ġsob re
im ent
ÐµÑĤ Ðµ
à¤¿à¤ ¤
6 8
àª° à«įàª
è ·
ĠB er
ĠR eg
u es
z ie
Ġk as
Ġ×ľ ×Ĳ
ìŀ Ĳ
ãĤ ģ
áĥĶáĥ ķ
å £
ÙĪ ÙĤ
áĢ® áĢ¸
r ar
Ġv ÉĻ
ad ing
ç½ĳ åĿĢ
y le
O T
ãģĭ ãĤī
Ġë ĭ
ĠÏĦÎ¿ Î½
Ġs ig
Ð Ł
ĠØ¥ ÙĦÙī
est o
ĠÐ± ÑĥÐ´
Ġg u
E C
Ġ ä½
uk an
ìľ ¼
Ñĸ ÑĤ
ic ip
et er
Î ¡
Ġvo us
Ġgen er
Ġa ta
Ġê ·
ÙĦ Ø§
Ġcom pl
áĢĻ áĢº
Ġtr ong
Ġa qu
Ġ eller
å¥ ½
ĠP o
ow er
Æ°á»Ŀ i
ÐµÐ½ Ð°
Ġ4 9
am s
à´° àµįâĢį
ĠF l
iá»ĩ n
á ŀ
à¸ ľ
Ġg el
åĽ ¾
Ġ4 3
¾³ éĹ¨
Ġà¦ ļ
ĠØ¯ Ø§ÙĨ
æĸ ĩ
z n
Ġex p
Ã« n
Ġs Äĥ
Ð Ķ
à¦¾à¦ ¦
E M
Ð» Ð°ÑĢ
ation al
at ing
ĠÑģ Ðº
ĠÚ© Ø§Ø±
us h
Î¹ Î¬
ÐµÐ» Ð¸
Ġàª ²
ĠØ§Ù ģ
Ð³ Ð¸
am an
ow e
Ġbl og
ĠØ§ÙĦ Ø®
Ã¡ k
i em
im it
ro p
Ġh ogy
áĢ½ áĢ¬
à´¾à´ £
ĠáĢ ħ
è® ¡
è £
ĠN a
ĠÑģ ÑĬ
ÙĬ Ø³
ed a
ĠÏĥÏĦÎ· Î½
Ġ) ;
ä¹ ĭ
ell o
Ġt ek
æĬ ķ
Ġh ist
Ġe ur
Ġre m
à§įà¦ Ł
Ġo le
Ð¾ ÑĪ
Ġf i
Ø§Ø ¶
ãĤ Ħ
Ġk ont
Ð¾ Ð½Ð¸
ci o
v ol
ë Ŀ¼
ĠÙĨ Ùħ
ĠD r
å §
Ġà¤¹ à¥ĭ
Ġn eg
áĥĶáĥ Ĺ
Ġcon f
×Ļ× Ł
æĸ Ļ
Ġæ ĺ
Ġåĩ ¯
ĠÑģ Ð¼
lo ad
Ġà¤ķ à¤¾
Ġne ed
ri o
Ú¯ ÛĮ
Ġm ga
in h
ĠH er
Ġì Ĥ¬
á» ĵ
ĠD o
áĥĺ áĥĲ
Ġc z
et i
ĠL es
à®¿à® Ł
ĠÐ½ Ð¾
Ġch i
Ġ9 9
Ð°Ð» Ð°
Ġ× ¡
Î ¤
áº¡ n
Ġm aj
ÅĤ a
Ġm á»Ļt
áĥĲáĥ ®
ic he
ãĥ ķ
v ers
ĠA c
Ġpos s
ĠA nt
r ia
Ł à¸£à¸µ
ler i
Ã¨ s
Ġg ar
Ġå Ľ
ar io
×ĳ ×¨
Ø¨ Ø§Ø±
an h
å¿ ĥ
×ł ×Ļ
ĠÛĮ Ú©
ĠS u
Ġd oc
Ġdi ff
à¤ §
ec e
Ġtid ak
Ġb ack
pr ess
ar ch
ĠA p
Ġn Ã£o
Ð½Ñĭ Ð¼
ung en
Ġy ap
à¹Ģà¸ ¥
ĠS er
Ú¯ Ø±
à¤¿à¤ ²
ĠB o
Ð¸ Ð±
Ġprodu ct
ãĥ Ń
S T
Ġvá» Ľi
ud i
ĠØ§ÙĦ Ùĥ
ic es
ÙĪ Ø³
Ä±nd a
ÉĻ s
¯ à¦¼
ĠV i
Ġv Ã½
Ġr is
ÃŃ s
ĠÑģÐ² Ð¾
Ġk or
ĠÐ° Ð²
áĤ ķ
ie k
Ãł n
Ġ×¢ ×ľ
R O
à¸± à¸ģ
.. .
Ġth em
Ġo k
Ġc n
Ð½Ð¾ Ðµ
Ġs te
Ú Ī
g u
ĠD i
l ag
ĠH a
Ùģ Øª
à°¿à° ¨
ä¹ Ī
ow a
4 3
ĠM as
ç Ł
Ùĩ Ø±
é ¦
Ø§Ø³ Øª
à´ ¨àµįà´
à°¾à° ¨
ĠØ °
g h
ãģĵ ãģ¨
ĠØ¨ Ø§Ø²
Ġà ¨
Ð² ÐµÑĤ
ìĽ Ĳ
Ġav ec
Ġa kt
Ġàª ¶
ta g
ug a
d f
en ÃŃ
Ġä¸ Ģ
Ġj est
Ġt im
à®¾à® ²
Ġj ak
ĠÃ ĩ
Ġop t
c l
à®© à¯į
Ġd ist
å® ¢
Ð°Ð½ Ðµ
ur es
Å¡ ÃŃ
åĪ ©
A P
Ġà¦¬ à¦¿à¦
ĠÃ ī
Ġe ine
ic os
ĠÎ´ Î¹Î±
ÑĢÐ°Ð ¼
ĠÐº Ð¾ÑĤÐ¾ÑĢ
ĠØ¯ Ø§Ø±
en er
ĠØ§ÙĦ Øµ
Ġcom e
áĥ£áĥ ļ
Ã¼ m
ac a
Ġr u
æ ¥
à´¿à´ °
os s
ĠãĢ Į
Ġo ther
Ġqu al
Ġl et
Ġpl an
ĠÙģ Ø±
w n
à´¿à´ ¨
on y
× ļ
iv it
ĠÙħ ÙĤ
åĽ½ éĻħ
Ġto p
Ġt an
à¯įà® ²
v ent
Ġm om
ë ŀ
Ġáĥł áĥĿáĥĽ
å½© ç¥¨
Äģ s
Ġsom e
Ġ4 7
Ġde p
Ġe k
ĠÎ Ĺ
r t
ĠØ¨ ÙĨ
ĠÙħÛĮ âĢĮ
à¦¾à¦ ¤
ë ©
in es
2 1
ĠÐ ¯
c ie
åº ¦
Ð¸Ñĩ Ðµ
Ġê ¸
Ġk al
ĠÐ° Ð´
Î Ŀ
Ġå ¹
Ð¼ Ð°
Ø§Ù ĥ
ä» £
ì Ĩ
Ð°Ð½Ð¸ Ðµ
Õ¸ ÖĤ
Ġb eg
ĠÏĦÎ¿Ïħ ÏĤ
Ġ× ĸ
ĠÐ» Ñİ
Ã¤ h
Ġ4 6
o i
áĥĲáĥ Ĺ
re g
Ġd ag
m as
à¹Ī à¸Ļ
Î± Ïĥ
à§įà¦ ¬
l as
Ð¶ Ðµ
Î¸ Î·
Ġau ch
el f
c y
Ġæ ¾³éĹ¨
Ã© d
Ð½Ð¸ Ñħ
st r
ment s
Ø± Ø©
Ø± Ùĥ
áĥĲáĥ ¢
ÑĢÐ°Ð ´
Ġw ho
à° ¯
Î¹Îº ÏĮ
Ġë ª
ĠÛģ ÙĪ
j et
à°¿à° ķ
ĠM od
Ġb ij
áº£ i
Ġ5 00
ĠV ide
éģ ĵ
ÏģÎ¹ Ïĥ
Ø ¤
çİ °
il er
çĤ ¹
el se
Ñĸ Ð»ÑĮ
Ġn d
Ġë ³
ĠÐ¿ ÐµÑĢÐµ
Ð ľ
Ġf ind
ÑģÑĤ Ð°Ð²
ĠØ¯ ÛĮ
áĥ£áĥ ļáĥĺ
ĠÑĢÐ°Ð ±Ð¾ÑĤ
Ġk ap
ãĤ ¿
Ð½Ð° Ñĩ
Æ°á»Ŀ ng
ĠÐ² Ð°
à´¾à´ °
à¦¿ à¦°
ÑĤ Ð¾Ð¼
Æ°Æ¡ ng
t re
s er
U N
Ġà¸ £
ĠE d
n ak
Î¸ Îµ
ãĤ ·
à¤¾à¤ ®
Ġj s
ãģ ¤
×ķ× Ŀ
à¦ ľ
à¥įà¤ Ł
Ġàª Ĺ
ĠØ® ÙĪØ¯
áĥ ĳ
o us
Ġc ur
à´¾à´ ¨
iá»ģ u
ĠA ng
åĽ ¢
es k
Ġgr atis
all a
Ġd ir
ãģ ¡
ik t
åĮ ĸ
Ð¿ Ð»
Ġel s
ĠÐ± ÐµÐ·
Ð» Ð°Ñģ
r ess
Ġçİ ¯äºļ
ĠâĢ ļ
éĿ ¢
io us
ÙĪ Ø´
Ġu it
ķ áĢ«
ĠÐ· Ð°Ðº
à¦ ĩ
Ĥ °
áĢĻ áĢ¹áĢ
l ad
à ¶
åĬ ¨
n ost
ant es
Ġb at
Ã§ Ãµes
m m
ĠÐ½ Ð°Ð¿
Ð¸ Ð³
Ġb ec
Ġth ere
ĠN ov
x x
à«ģ àª
Ġì Īĺ
Ġ ðŁ
Ġf el
Ġk ol
à´Ļàµįà´ Ļ
æŀ ľ
c ri
×ķ× Ĳ
ë ¬
Ġbe z
à® ´
Ġc m
Ãł ng
Ø³ Ø¨
op p
il iz
ĠÙĨ ÛĮ
v or
ĠÙĨ ÛĴ
Ø² Ø§Ø±
Ġ5 9
Ã© k
ĠÐ¿ ÐµÑĢ
ur n
al an
at ive
Ġwh en
à¦¾à¦ ¬
Ø§Ø¯ Ùĩ
ĠB a
le x
Ãł nh
ĠC ent
èµ °
áº£ n
à¤¾à¤ ¯
ÙĦ Ø©
ĠÅŁ i
Ġc s
ĠM on
à®¿à® ķ
Ð² Ð¾
à® ķà¯įà®ķ
ĠÐ´ Ðµ
Ġit s
åį ķ
Ð² ÐµÑĢ
áĢĶáĢ¹áĢ ¸
à¤ ¼
áĢħ áĢº
Ġn as
à±įà° Ł
Ä ¼
ĠÎ± ÏĢÎ¿
Ġ äº
à¯ģà® µ
ĠA ut
ĠI N
Ð Ľ
ĠØª Ùħ
ÏĥÎµÎ¹ ÏĤ
Ġcon st
ĠG e
Î´ Î¿
Ø³ Ùħ
ek a
à¯įà®ķà®³ à¯į
i or
à¤¤ à¤¾
ä¸ »
áĥĶáĥ łáĥ
ÑĤ ÐµÑĢ
ut t
Ġbe en
áĥĲáĥłáĥ Ĺ
Ġg a
Ġv il
Ġbe h
ĠA M
ãĥ Ĺ
Ġus e
Îº Î±
c u
Ġvide o
ĠOn line
it ar
åľ º
Ġt ip
éĢ ļ
Ġa o
é¢ ĳ
ab a
ĠÅ¾ e
I M
ĠØ§ÙĦ Ø±
id ent
7 5
Ġä¸ Ń
is m
end er
Ġwh at
¥ à«Ģ
j er
ĠÐ ¹
×Ļ ×ķ×ª
ÑĢ Ð°ÑĤ
Ġà® Ĩ
Ġáĥ ľ
c ed
à± Ĥà°
ce pt
Ú¾ ÛĮ
aci Ã³
ĠI I
p ro
Ġ4 2
ĭ çīĮ
Ñĥ Ñħ
Ġ... .
ãģ Ľ
ìĸ ´
Ð°ÑĨ Ð¸
à¹Ī à¸²
Õ¡Õ ¶
ÅĤ o
ĠÎ Ŀ
áĥĶáĥ ĵ
Ã¶ l
à±ģà° ²
ä» ¶
Ġs ist
Ġ5 8
Ú ĺ
ci Ã³
ĸ áĥĶ
Ð°ÑĢ ÑĤ
Ġl og
å »
ĠS k
n Ã½
ik o
or ld
æĹ¶ å½©
à¦¾à¦ ¸
ar an
ug h
ãĤ £
Ġâ Ħ
Ġng Æ°á»Ŀi
Ġl iv
our s
ĠÎ ®
Ġk am
è´ ¹
Ġm ater
åĮ º
Ú¯ Ø§Ùĩ
éĢ Ł
Ġp ort
áĥ ª
Ġåĩ¯ åıĳ
à´¿à´² àµįâĢį
un k
áĥĿáĥ ķ
Ð½Ð¾ÑģÑĤ Ð¸
ĠP M
j u
ĠÐ´ ÑĢÑĥ
áĢļ áĢº
Ġ5 3
Ġm ill
Ġz ijn
Î¹ Î½
are a
Ġpr om
ot os
Ġì ¹
Ġa kan
ÑĢ Ñı
à®£ à¯įà®Ł
ch i
à¦¾à¦ ĩ
áĢĢ áĢ¹
Ġse k
Ġv or
ä¹ Ł
Ġà¦ ī
Ġd al
à¦ Ĥ
ÅŁ t
Ġï »¿
Ġit u
Ġê µ
Ġn ec
é ľ
ÙĤ Ø©
ĠS up
Ġt it
Ġ5 4
ĠÂ» .
us i
ĠT ra
ag es
ĠÐ ¨
ter n
ÙĤ Ø¯
Ð½Ð¸ Ð¹
Ġfil m
Ġìŀ Ī
ĠÐ½ Ð¾Ð²
d an
b b
ÑģÑĤ ÑĮ
×Ļ× §
Ġà´ ĩ
àµįà´ ²
Ñĩ Ðµ
ad y
l ÉĻr
Ġq Ã«
Ñĸ ÑĹ
å¿« 3
Ġ200 7
Ġà¦ ĵ
Ġ Ã¡
Ġde v
à¹Ģà¸Ľ à¹ĩ
g un
el o
Ð°Ñİ ÑĤ
eb ook
å½ ķ
h at
ĠD er
Ġ5 6
á»¯ ng
ì² ľ
áĥ ¥
×Ļ× ĳ
ç µ
Ġal la
ÙĨ Øª
à®¿à® ¤
ad es
og le
Ġäºļ æ¸¸
f ul
í ĸ
¬ ¬
áĥ Ļ
Ã© ny
ĠK ar
ĠS i
ch er
Ã¶ v
r ie
eb ru
end a
Ð°Ð½ Ð¾Ð²
ÉĻ k
uk s
Å Ī
R E
, "
àª¾àª µ
Ġm Ã¥
et o
ci p
g es
Ø¨ ÙĦ
Ġe ver
Ġå Į
×Ļ× ©
um p
ĠC or
Ñĸ Ð·
ç ©
j en
¹ Ħ
ĠS an
Ġt ri
y k
à ©
à¥įà¤¯ à¤¾
c er
ĠÐ· Ð°Ð¿
Ġpr im
Ġà¦ Ń
áĥĺáĥ ł
Ãł i
ĠM en
å¤ ĸ
Ġà° °
ĠH ar
å ¦
¯ ¸
ĠO p
Ġt est
à¤¾à¤ ¸
ra z
od y
æĹ¶ æĹ¶å½©
op le
Ġà´ ļ
it or
ĀĀĀĀ ĀĀĀĀ
ĠV al
èī ²
Ġs ite
áº§ u
à¸²à¸ Ħ
Î¹Îº Î®
A G
é ļ
ĠiÃ§ in
iz i
Ġv ed
æ£ ĭçīĮ
à¸¡ à¸µ
Ġàªħ àª¨à«ĩ
Ïģ Ïĩ
àµģà´ Ł
ro und
æ Ł
ÉĻ d
Ã©s z
Ġw ere
Ġm ol
Ġê· ¸
an z
ul i
à´¿à´ ļàµįà´ļ
áĥĿáĥ ĵ
Ã¨ re
à¤¨ à¤¾
Ġb ol
Ġë ĮĢ
à¦ £
Ø§ÙĨ Ùĩ
Ġth an
ãĤ ı
ĠØ Ł
Ġl ist
um e
Ġb ed
Ġpr zy
il or
í Ķ
ãĤ ³
Ġprobl em
in ess
Ġpar te
el ij
4 8
Ġm ind
ro v
Ñĭ Ð²
et h
ĠC as
Ġil e
âĢ¦ âĢ¦
åĬ ¿
à§ĩà¦ ķ
ë§ Į
ÙĦ Ùģ
Ġì ĥ
ne j
Ã© ho
Ġà¹ Ĥ
ĠÐ¼ Ñĥ
ĠS al
Ã¡ d
ĠW WW
ĠÐ ¦
ĠM o
æĥ ħ
è °
ÐµÐ³ Ð¾
Ġo c
à¸£ à¸´
Ġwo uld
à± Ī
à¤¿à¤ ¸
äº §
Ġu 0
ĠD a
ÑģÑĤÐ² Ð°
ĠA g
à§ ľ
j es
Ġr Ã©
y w
uk a
Ġp ada
ĠÐ¿ÑĢ Ð¾Ð´
Ġmu ch
ny ch
Ġh ay
ì Ĥ°
Ġg Ã¶
ÅĻ ÃŃ
ur t
åĲ į
Ġst art
ê² Į
c s
it as
ele f
Ġà¸ Ń
Ġba ÅŁ
Ð½ Ñĥ
3 8
Ð¼ ÐµÐ½
Ġm ad
l ing
ÙĬ Ùĩ
Ä±n Ä±n
ãģĦ ãĤĭ
ir m
r z
if e
3 6
el en
ĠÐ¾ ÑĢ
ik k
ÙĦ Ø³
ãģ ¿
j s
Ġnh Æ°
Ġâ ĺ
Ġde i
Ġen g
à¸µ à¹ī
Ġhel p
Ã« t
ÙĦ Ø¨
ĠØ¬ Ø¯
Ġ5 7
Ñĸ Ñı
ĠD en
ur g
Ġáĥ ®
Ġt amb
Ð°Ñ Ķ
ĠÐ° Ðº
çī ©
Ã ģ
Ġæ ī
i que
ĠÃ ľ
ĠÐ¿ Ð¾Ðº
Ġ' ,
Ð°ÑĨ Ð¸Ð¸
il t
ĠM er
os ta
Ð°Ð³ Ð°
Ġmak e
ĠÎ´ ÎµÎ½
Ġpor no
ĠG u
Ð½Ð¸ Ð¼
Æ°á»Ľ c
×Ļ× ĵ
ĠÑĢ Ð°Ñģ
Ã¢ y
ëĵ ¤
Ġpr iv
Ñ ķ
Ļ Ģ
Ġg ra
Ġe z
Ð¸ÑĤ ÐµÐ»ÑĮ
àª ¯
ï ½
à¸§ à¸²à¸¡
à¤¹ à¥Ģ
àµģà´ ķ
l at
iá» ĥ
Ġæ Ŀ
áĥ ¨áĥĺ
ĠØ ¶
er ing
ë ĮĢ
Ġë ¶
Ð´ Ðµ
Ġso cial
m u
áģ Ģ
ĠA v
Ġfun ction
Ġn orm
ìĹĲ ìĦľ
à¹ī à¸Ńà¸ĩ
ìł ķ
Ġ Ĉ
Ð¸Ð» ÑĮ
ê³ ¼
à¸£ à¸±à¸ļ
ot s
ÙĬ Ùģ
b al
Ġex per
e e
æ º
Ġc am
í ĺ
ãĥĥ ãĥĪ
in ta
åĨ ħ
o x
ä¿ Ŀ
Ð¸ÑĤ ÐµÐ»
áģ ¿
è ĭ
ud a
ÑĤÑĮ ÑģÑı
ĠÐ¿ Ð¾ÑĤ
m es
Ġp eng
id as
Øª Ø¨
Ġs ab
ë ª
Ġ4 1
ĠÎµ Î½
r is
Ð°Ñ ī
ĠØª Ø±
ĠP e
at ie
æľ Ł
Ġin to
Ġc Äĥ
Ġï¼ Ł
áĢĦáĢº áĢ¸áĢ
Ġsa u
ìľ¼ ë¡ľ
Ġs ind
EN T
Ġm ult
p re
Ġ íķ
b or
eg a
Ġ×Ķ× Ĳ
Ġp ublic
Ġ. )
im ento
ĠM al
ÑĪ Ðµ
ĠØ «
ĠJ an
Ġáĥ ¥
Ġ7 5
er es
Ïĥ Î±
à¤¾à¤ µ
áĢĦáĢ¹áĢ ·
Ġs ie
áºŃ n
ir es
om en
áĢ¯ áĢ¶
n ik
Ġb al
ĠØ§Ø ¨
Ġse e
Ġng h
ĠH ome
Ġn jÃ«
g g
at en
Ð°Ñ ļ
æĪ ĳ
Ġh y
äº İ
Ġh otel
ĠØ¨ Ø¹Ø¯
ĠÄĳ á»Ļ
ĠS te
Ġà´ Ĩ
Ġ$ (
Ġd own
ĠÑĢ Ð¾Ð·
åĲ İ
áĥĺáĥ ª
Ġ/ /
in al
à¸£ à¹Į
Ġs ho
Ã± o
ØŃ Ø¯
à¸· à¹Īà¸Ń
ĠUn ivers
Ġp df
é Ĥ
áĢŃáĢ¯ áĤĶ
Ð¾ Ñı
Ø¬ Ùĩ
imul yo
áĥķ áĥĶáĥļ
áĢĢ áĢ¼
Ġãģ Ŀ
à¦¿à¦ ²
à¹ĥà¸« à¹ī
Î¼ ÏĮ
Ġ Ò
p g
áĢĬ áĢ¹
à¤¾à¤ ¹
áĥĿáĥ ļ
U L
Ġn av
Ġlo ok
Ã³ d
ĠÃ®nt Ã¢
Ø§ÛĮ ÛĮ
Ġáĥ ¤
ĠØ´ Ø¯
ĠØ¬ Ùħ
Ã´ i
ap i
à¤ ¶
Ġp an
I R
ĠM at
è§Ĩ é¢ĳ
Ð½Ð¾ÑģÑĤ ÑĮ
ĠÂ» ,
ĠÐ² Ð¸Ð´
Ġh ot
Ġm ul
er d
ÙĨ ÛĴ
ek o
Î¿ ÏĤ
Ġon ly
Ġw ar
Ġs ul
Ġ( "
Äĥ m
Ïģ Ïİ
Ïģ ÎŃ
as y
à§ģ à¦²
à¹Ī à¸²à¸
Ġì ¶ľìŀ¥
o ol
à¹ī à¸²
Ñĭ Ð¼
å½ ±
ĠM ad
Ø® Øµ
Ġart ic
ĠÑı Ðº
n Ã¡
v at
em os
ta ct
Ġdes ign
Ġpol it
å¯ ¹
á» ķ
Ġì ľ
Ø¯ Ø±
ìĦ ±
Ùħ Ø±
Ġê° Ģ
y i
ĠM ay
åĪĨ å½©
og raf
å¾ Ĺ
al is
ÄŁ i
ĠÏĦÎ¹ ÏĤ
Ġor g
ĠO b
à¹Ī à¸§
Ġpro duk
ìķ Ħ
×ķ× ¤
Ġn el
Ġk w
ÑģÑĤÐ² Ð¾
um s
Ñĸ Ñĩ
6 9
Ð £
ar ia
ĠÎŃ Ïĩ
åĪ Ĵ
æ Ĵ
Ġ3 65
p ut
ver t
ĠÙĪ Øª
æŃ £
Ùĥ ÙĨ
h en
Ġáĥ ©
ĠK om
Ġg Ã¶r
ä½ĵ èĤ²
Ø¹ Ø©
Ġ _
ÑģÐº Ð°
Ġl ong
æ° ´
æĻ Ĥ
ĠÎµ Îº
èµ Ľ
éĽĨ åĽ¢
Ġà¤¹à¥Ī à¤Ĥ
åı ¸
Ġin g
à°Ĥà° ¦
idad es
Ġm ob
A K
ĠÐ¾ Ð½
ĠÐ Ń
ä» ¬
ĠØ§Ø ¹
l in
Ġs ing
Ġkt Ã³
Ġ Ø§
ĠÑĸ Ð½
Ġh t
Ñĥ Ð»ÑĮ
ĠÎ¿ Î¹
Ġe qu
ĠR o
Ġ ig
Ġres ult
Î¼ Î¬
Ġop er
ra w
Ġnh á»¯ng
å¿« ä¸ī
Ġng ud
Ġcont in
í Ĩ
Ġngud imulyo
um b
Ġl ar
ĠI f
åŁ İ
Ġb ul
id os
å° ±
½ ľ
emb re
à¥įà¤ µ
íĻ Ķ
Ġâ ĸ
Ð» ÐµÐ´
Ġv ot
Ġåľ ¨
áĢ±áĢ Ķ
à¸´ à¸Ļà¸
à±į âĢĮ
è Ĳ
Ġà¤¨ à¥ĩ
ÙĬ Ø§
à¸Ĥ à¸Ńà¸ĩ
Ġ( '
Ġc amp
Ġfir st
Ã¤ nd
Å ©
à®¿à®© à¯į
ĠÙĦ Ø§
áĢ¬ áĢĢáĢ¹áĢ
ĠÎ¼ ÎŃ
å¼ ı
ÏĦÎ± Î½
a is
à¹Ģà¸ ģ
ĠØ§Ø ®
àµ ½
åĲ Į
Ð¸ Ð¿
4 9
ĠD an
ell en
Ġt ab
Ġcon d
à¤¿à¤¯ à¤¾
ĠÏĥÏħ Î½
áĥĿáĥ ł
àµ ¼
Ġv Ãµ
æ ¶
Ġin n
Ġ5 2
à¯įà® ³
Ġà¤ «
ĠP art
ĠW eb
en cia
à´Ł àµįà´Ł
ĠÐ¿ Ð¾Ð¼
Ġs ay
á» Ń
Ġk wa
è¿ Ľ
ist r
Ġå½ ©
é ħ
ĠS c
Ð¾ Ðµ
ant i
à®¿à® ķà¯įà®ķ
åĨ Į
ad er
ĠÐº Ð¾Ð»
Ø³Øª Ø§ÙĨ
Ġre d
ÏĦ Î¯
it Ã©
Ã Ħ
in ter
à¸Ń à¸¥
ed ia
ÑĤÐ¸ Ð²
Ġa pr
×ķ× ©
Ġc li
à¹Ī à¸²à¸ĩ
ĠO s
è Ĭ
à¤¿à¤ ı
Ġi h
à§ĩà¦ ²
×Ļ× Ĳ
Ã ĥ
ÃŃ nh
ê± ¸
Ùģ Ø±
çĲ ĥ
n ia
ĠD u
Ġinv est
ç ³
ĠÃ®ntÃ¢ l
ç Ŀ
Ġ ~
ah r
Ġa ir
ãĥĥ ãĤ¯
Ġorgan iz
àª Ĺ
ÙĬ Øª
Ġdire ct
Ġm m
ÑĬ Ð»
áĢĬáĢ¹áĢ ¸
çİ ¯äºļ
Ġn ap
Ġh ow
Ð°ÑĤ Ð¾
àµ Ĭ
ĠP ers
à«įàª Ł
ĠØ¨ Ø¯
áºŃ t
ÏĢ Î±
v es
Ð ĵ
à§ĩà¦ ¶
Ġç ľ
ĠÎ± Î½Î±
c ent
ÑĢÐµ Ñģ
7 9
ĠÐ¿ Ð¾ÑģÑĤ
Ġ19 8
æ´ ²
è¡ ¨
æı Ĳ
æ° ĳ
Ġs ign
à®¾à® ¤
ĠÙĨ Ø¸
Ġn ow
ë ²
à´ª àµįà´ª
us ta
3 9
ĠE t
à¸Ń à¸¢
am es
u w
çŃ ī
it z
Ġre v
A B
ĠÑī Ð¾
Ġà¤ ĸ
Ø¯ Ø§Ø±
Ġng a
Ġl l
Ġb ah
Ð¸ÑĤ Ð¸
pl y
Ġl eb
ÛĮ ÙĦ
çĽ ®
æķ °
Ġt om
ãĥ Ĩ
Ġà¤ĩ à¤¸
j ect
ÙĬ Ø¹
ĠÅ ŀ
§ à§
à¸Ń à¸Ļ
à¸´ à¸Ķ
d ag
ĠÎ Ĵ
Ã¼ z
×¨ ×Ĳ
ÑĦ Ð¾ÑĢÐ¼
å® ŀ
ĠR ed
al o
æĢ §
à±ģà° ¨
ìķĪ ë§Ī
æĢ Ŀ
id i
os p
Ġj eg
Ġh or
Ġà° Ĩ
ĠØ§ÙĦ Ø°
ĠE sp
Ġs itu
¥ ¿
éĩ į
Ġ. âĢĿ
U T
Ã¡ p
ĠØ´ Ø¯Ùĩ
ç» ı
Ġw ell
Ġb on
Ġb ud
Ùħ Ø©
ĠØ³ Ø§ÙĦ
Ð°Ð½ Ð°
Û °
Ġon t
à± Ĭ
Ġ! !
Ġ3 00
Ã¤ Ã¤n
Ġ. "
áĢ¬ áĢĦáĢ¹áĢ¸
Ġre aliz
á» £
Ġà¤ı à¤ķ
ĠØ§ÙĦØª ÙĬ
áĥ ¬
åĽ ŀ
Ñī Ðµ
ãĤ «
Ġson o
Ġpe ople
çī ĩ
Ġdis c
h or
ĠáĢ Ĩ
Ĺ äº¬
à§ģ à¦°
à® ª
ĠØ¢ Ùħ
é ĥ½
ãĢ ģ
ĠÙħ Øµ
ëĤ ĺ
ç ²
ĠÄĳ Ã£
4 6
b il
Ø¨ Ø¯
am m
Ġm or
ĠC ont
Ð¾ÑĢ ÑĤ
ĠD is
à§įà¦ ·
Ø¦ ÛĮ
ç Ī
áĢĲ áĢļáĢ¹
à¦ ¶
Ø±ÛĮ ÙĨ
Ġé Ģ
I ON
Ä± s
ÏĨ Î¿
×ķ× §
ĠæĪ ĳ
Ġs or
k at
áĢ¶ áĢ¯
ut s
Ġver y
æ ģ
Ġd ob
ĠT ag
ĠF ac
áĢ±áĢ Ľ
Ġre qu
ÑĢ Ð¾Ñģ
Ðµ Ð±
ess a
in er
à¦¾à¦ ľ
ĠÐ¾ Ðº
ĠÐ¡ Ð
àª¾àª ¯
Ø± Ø§Ø±
ĠÐ²Ñģ Ðµ
Ð½Ð¸ ÑĤÐµ
Ġni et
àª ¦
l em
Ġbe i
à¯įà® µ
ĠG i
ÏĢ Îµ
×ķ× ¢
çł ģ
ĠÛģ ÛĮÚº
ÑģÐºÐ¸ Ð¹
å ¢
áĥĶáĥĳ áĥ¡
Ġs ent
Ġo der
ter s
Ñĩ Ð¸
is en
áĢĲ áĢº
Ð´ ÐµÐ»
é ¾
ĠØ´ Ø±
ÃŃ v
Ġ6 5
Ġf ol
Ġar r
Ġ5 1
Ġter m
Ð¾Ð» Ð¾Ð³
I G
er m
Ð°ÑĨ Ð¸Ñı
Ġà¦ª à¦°
ĠØ¨ ÙĪØ¯
çĻ» å½ķ
ë¶ Ģ
ë į
j t
æ³¨ åĨĮ
Äħ c
y or
ĠÄĳá» ĥ
Ïĥ ÏĦÎµ
Ġà®ļ à¯Ĩ
ÛĮ Ø§
à®² à¯į
ĠC an
Ð» Ð°Ð²
Ġse p
Ġ! !!
il s
ĠS ep
Ġcl ass
à¯ģà® ®
Ðµ ÑĨ
à¤¿à¤ ¨
Ġb ek
ĠÃ ·
à¹ī à¸²à¸
ìĥ ģ
ĠÂ ¬
ĠA pp
à´¾à´£ àµį
ìł ľ
ien e
w ar
ĠÙĩ Ø§
ĠáĥĲáĥ Ľ
Ġf ree
à¤¾à¤ ¦
à¸¹ à¹ī
åħ ĥ
Ġata u
áĢ· áĢº
ub e
Ġb an
æĬ Ģ
ÅĽ Äĩ
h al
æ į
ĠS z
te k
ä¹ ħ
Ð½ Ð¾Ð¼
w er
Ġìķ Ħ
ĠØ§ÙĦ ÙĦÙĩ
Ġm und
Ġà¸ «
Ã¼ t
st en
ĠD ec
ÙĪ Ø§
Ġtr ad
à±ģà° Ĥà°
Ġh av
ung s
h od
Ã¤ tt
åİ ħ
Ġd ell
ĠK e
Ð¸ ÑĨ
å± ±
ĠÎ ¹
ess o
åį ļ
Ġë ı
b el
le ct
Ġg es
Ŀ i
Ġad alah
àª ¡
Äĥ ng
ĠE ng
ĠÐ² Ð¾Ð·
è¿ Ļ
àª ľ
Ġà¦ı à¦ķ
Ġp ok
Ùĩ Ø¯
Ġà¸ ļ
Õ¥ Õ
Ġs es
ãĥ £
ĠM ag
å ĸ
Ġth ro
Ġê¸ °
í ĥ
ard s
Ġan n
Ïĥ Î¹
o o
ç« ¯
p i
it es
ĠÐ½ Ð°Ð´
r ing
à«ĩàª ²
Ø® Øª
à±ģà° ķ
à¸ ©
ÃŃ c
ãĥ ¡
Ġb re
ĠØ³ Ø±
Ġi ÅŁ
ĠáĢ ģ
Ì ģ
ÑĢÐ°Ñ Ĺ
à®¾à® Ł
al u
un n
IN G
Ã¤ ng
ĠÎ Ļ
áĢķ áĢº
è¿ ĩ
Å¡ an
à¸´ à¸ķ
ĠÎµÏĢ Î¹
Ġj ag
èµ Ħ
Î»Î¿ Î³
ĠN E
æĺ İ
àµĩ à´
å· ŀ
Ġpi Ã¹
Ġd ay
Ġc ost
ĠÐĿ Ð°
ht Ã«
id s
à¸ į
Ġdi es
Ð¡ Ð
Ġfal se
ĠÑį ÑĤÐ¾
áĥĿáĥ Ĵ
Ġgo od
ÃŃ ch
el er
áĢ ĺ
ĠÙĪ Ø£
ĠP ort
ìł Ħ
ãĥ ŀ
å± ķ
Ã¡ ny
Ġp ak
ĠG re
Ġ) :
d s
ĠM y
Ġt am
ĠS l
Äģ k
ë Ł
iy a
ĠÐ¼ Ñĸ
à¯įà® ©
Ġ Å¼e
ĠÑį ÑĤ
Ġp ap
áĥĿáĥ łáĥ
à¦¤ à§ĩ
h l
........ ........
Ġh igh
ĠB el
ĠáĢ Ķ
Ġà°ª à±įà°°
èµ° åĬ¿
åı Į
Ġper f
Ġp ou
ĠÙĪ ÙĤ
ãģ¾ ãģĹãģŁ
Ġa ff
Ġn atur
w an
Ġest Ã¡
Ġna ch
Ġsy stem
Ġthá» ĥ
à¤¤ à¥ĩ
am in
is ch
à¹Ħ à¸¡à¹Ī
ÑģÐº Ð¾Ð¹
est er
Ġ9 5
ĠÐ´ Ð²
Ġp ut
à¯ģà®¤ à¯įà®¤
ul o
åı £
e a
ÑģÑĤ ÑĢ
ĠJ a
çĻ ¾
ãģ® ãģ§
ĠD om
ĠÃ¥ r
Îº Î¿
è®¡ åĪĴ
æī Ģ
ik u
p x
à¯ģà® Ł
áĥĵ áĥĲ
áĥĺáĥ ¢
Ø¦ ÛĴ
å» º
à´¿à´ ķ
Ġen s
ut ion
ĠÃ© t
Ġ íķĺ
åħ į
Ġo ok
ĠA mer
Ø® Ø±
ci as
Ġkh i
ë Ĳ
Ġj uga
b as
ĠÐ² ÑĢÐµÐ¼
æīĭæľº çīĪ
az a
Ġbe f
4 7
Ġáĥĵ áĥĲáĥ
eg en
Ġad a
C H
j em
Ġt ah
ĠÐ£ Ðº
çī ¹
b at
Ĺ à°¾
ĠÂ £
ĠØ¨ Ø§Ø´
è§ Ħ
ç¤ ¾
Ġprof ess
Ġw ie
ä½ į
Ġà¹ Ħ
æĦ ı
Ġht ml
×ķ× Ĺ
ĠO l
Ġe ven
Ġkn ow
Ġãģ ĵ
p et
ìĥ µ
em i
á»ĳ i
k k
it Ãł
ĠT V
¡ °
ĠØ§ÙĨ Øª
ãĥ ¥
Ġà¦ ¥
ÐµÐ½ Ð¾
ĠãĢ ĭ
Ð Ĩ
Ġæĸ °
ÑĢÐµ Ð±
Ġinter n
Ġesp ec
ĠáĢ Ĵ
à´³ àµįâĢį
ãģ¨ ãģĦ
Ġin de
c an
ĠáĥĴ áĥĲáĥĽ
à¤¾à¤ ľ
à¸ ł
Ġk es
Ġn eb
Ð¾Ð½ Ð°
Ð´ Ð°Ð½
Ġ: )
ĠÑģ Ð¸
il o
ĠA pr
æµ ·
ÏĦ ÎŃ
ÖĢ Õ
Ġìł Ħ
áĤ Ī
Ġì ĸ
Ġh um
Ġà¦ ²
Î»Î» Î¬
áĥĺáĥ Ļ
à®² à¯įà®²
Ø§Ùħ ÙĦ
Ġre f
w are
è§ £
Ġor ig
Ġcol or
ìł ģ
Ä± lÄ±
é Ķ
å¥ ³
Ġgr up
Ġh ier
ĠØ£ ÙĪ
Ġd ok
Ġch eck
Ġv el
b in
Ġth u
Ġpl ay
ĠØª ÙĨ
ĠH ot
Ñ ĵ
c is
Ġso ci
ĠC at
Ġd Ã¼
í ı
Ø¹ ÙĦ
Ġv u
Ġ200 6
Ġf ar
con om
Î´ Î±
Ð³ Ð¾Ð²
i u
Ð² Ð¾Ð´
Ã¡l l
Ġg od
ÉĻ m
j as
Ġë ¬
ĠS el
ĠP ara
ar n
à¸ ĭ
à°¿à°Ĥà° ļ
Ġwer den
Ġï¿½ï¿½ï¿½ ï¿½
áĢĻáĢ¹áĢ ¸
áĢĲ áĢ¬
at ure
çľŁ äºº
áĢ Ŀ
åº Ĺ
ĠÐŁ ÑĢÐ¸
Ġé ĩ
Ġàª Ń
ap t
Îµ ÏĦÎ±Î¹
Ġb ien
ĠA f
Ð°ÑĤ ÐµÐ»ÑĮ
ĠJ ul
ÙĤ ÙĦ
Øª ÙĬ
à¹Ģ à¸£
Ġf re
áº ©
c m
Ġw ant
ĠN g
Ú ĳ
es h
Ġk ep
ĠA N
Ġan s
m al
Å¼ y
ĠÎŃ Î½Î±
ag er
T A
ess e
åĪ ¶
Ġp om
ob er
h ol
à¦ ļ
à¹ī à¸§
Ġ- -
êµ Ń
Ñģ Ð¸
áĢ± áĢ¸áĢ
um u
Ġse u
ãģĦ ãģ¾ãģĻ
Ġä¸ į
ĠR om
Ġst at
éķ ¿
Ð½ Ð°ÑĤÐ°
ĠD on
Ġàªª à«įàª°
ig o
Ġà¸ ¡
à¦ Ń
à´ ¦
ĠÂ ¿
Ġg y
×ķ× ¡
áĢŃáĢ¯ áĢ·
ĠR ec
ÑĢ Ð°Ñģ
è¿ Ĳ
ĠÐ½ Ð°ÑĪ
Ġs n
ult ur
ÑĢ Ð¾Ð¼
ie f
Ġà¸ Ļ
Ħ à¸£
ĠØ§ÙĦ ÙĦ
Ã ī
Ġpro te
Ú© Øª
I V
Äĥ r
ÏĦÎ¹Îº ÏĮ
Ã ®
Ġsup er
und a
m asÄ±
8 5
v in
Ġç ļĦ
Î ł
Æ¡ n
Ġå ¥
ur o
Ġmen j
ĠÐµ Ð´
à¤° à¥Ģ
r Ã¡
åĬ ¡
Ġw id
ëħ ¸
h an
Ġh ome
Ġà¤ ¥
è ³
k ov
ĠÙħ Ø·
t y
Ã ĸ
Î¼Î± ÏĦÎ±
àª¾àª ¤
Ø´ ÙĨ
ìĨ Į
Ġì ļ
Ġm ont
ãĥ ī
Õ¸ÖĤ Õ
ç³ »
Ã¹ ng
m ak
ÙĦ ÙĪØ¯
áĢŃáĢ¯ áĢĦáĢ¹áĢ
éĴ ±
Ġf ut
à¸Ń à¸ģ
Ð»Ð¸ Ðº
le y
Ġp m
ÙĤ ÙĬ
l os
åħ ³
Â »
r id
Ġà®ĩ à®°
k om
ĠS erv
Ùħ ÛĮ
Øµ ÙĦ
Ġb iz
Î¹Îº Î¬
Ġv ari
ĠC al
Ġå½© ç¥ŀ
Ġd ol
v an
un ic
ĠÃ¼ ber
à¤ķ à¥įà¤
à¤ Ń
Ġpro cess
ĠÙĨ Ûģ
ĠÐºÐ¾Ð¼ Ð¿
Ġì¹ ´
Ġna j
Ġn Ã¤
ļ Į
Ø§Ùħ Ùĩ
Ġï ½
ĠâĢĭ âĢĭ
à´¤ àµį
Ġn ak
Ġre al
Ġv Ã¦
Ġà´ª àµįà´°
à¦¨ à§įà¦
Ġinter net
Ã± a
Ġà´ °
à®Ļ à¯įà®ķ
en z
Ġmin ut
åķ Ĩ
7 6
Ġ× ¦
ãĤ µ
Ġà¸ Ĺ
is che
ÙĪØ± Ø¯
é¾ Ļ
ĠL u
ĠG rat
à¹Ħ à¸Ľ
Ø¬ Ùħ
Ġ( )
äº Į
Ù ĭ
Ġer a
éĩ ı
L E
Ã ĩ
Ã³ s
Î· ÏĤ
Ġ8 5
àª ³
ĠÐ¡ ÑĤ
Ð»Ñİ Ñĩ
ĠB y
Ġpres ent
en y
à¦ §
ĠØ¨ ÛĮ
Ġáĥ Ŀ
ÑĢ Ð°Ð½Ð¸
Ġk el
ĠÐ° Ð±
êµ ¬
ĠØ¨ ÙĦ
Äģ m
à¹Ģà¸ Ķ
Ġå ¼
iy e
w it
is er
ĠØ³ ÛĮ
Ġr om
ĠM art
Ġà¸ ķ
à¹Ī à¸Ńà¸ĩ
ass a
é »
Ã ĵ
or o
Ġpro d
í ħ
Î Ľ
¡ Â
ie g
ev a
ìļ Ķ
Ġà¸ ŀ
Ġà¸ Ī
à¸Ħ à¸§à¸²à¸¡
æ ¡
ĠÚ© Ø´
Ġà¦¸ à¦®
Ġc Ã´ng
ĠÐ¿ ÑĸÐ´
Ġâ Ļ
Ġb ak
Ġì§ Ģ
= =
ul u
ĠØ¯ Ø³Øª
O P
ĠØ§ÙĦ Ø·
Ġl ig
ÙĨ ÙĬ
Ø² ÛĮ
Ø¨ Ùĩ
ĠÐ¿ Ð°ÑĢ
à¸± à¸Ķ
Ã¶ s
Ġye ar
Ã į
áĢĸ áĢħáĢ¹áĢ
Ġever y
ãĥ Ĳ
Ġr ight
st and
Ġ×Ķ× ©
ĠÃ¶ n
ĠØ§Ø Ń
Ã¥ n
Ð¾ Ð¸
Ġìĭ ľ
ok o
Ġj an
ÙĪ Ø¬
çĽ ´
Ø° Ùĩ
Ðº Ðµ
ĠS T
iv al
Ġad min
om at
à®± à¯įà®±
Ġ uk
ç¨ ĭ
Ġb in
á ½
Ġb áº¡n
I K
áº ½
Ġf er
Ġs il
ĠæĹ ¥
Ġst and
ĠK a
Ġp et
Ć Ĉ
ÏĦÎ¹Îº Î®
ĠE nt
ro om
ÐµÑĢ Ð¶
it et
ac iones
p k
m y
---- ----
ÅĤ y
´ Ģ
à¤² à¥ĩ
Ġs á»ĳ
Ġth ese
Ġsh ow
ë³ ´
àµģà´ ¤
Ġand a
Ġz o
Ġt as
Ġà¦¹ à§Ł
ä» ĸ
op a
r ad
ap e
ä¸ İ
Ø¯ ÙĬ
Ġcom pr
h u
ind ows
Ġâ Ĺ
iá»ĩ t
ãĥ ģ
åİ ¿
à´£ àµįà´Ł
á»Ļ i
àµĨ à´¯
Ð° ÐµÑĤ
Ġbo ok
emp re
×Ļ ×Ļ×Ŀ
Ġv end
Ġr end
ĠÙĦ Ùħ
Îº ÏĮ
Ġå ¾
à°¾à°° à±ģ
à¸¸ à¸Ķ
å¥ ĸ
Ú© ÙĨ
âĢĮ ÙĩØ§ÛĮ
ÉĻ y
iv id
ĠÃ ģ
ĠÐ¸ Ð³
åı ĸ
Ġch ar
é ĵ
Ġàª¹ àª¤
Ġb le
k ar
ĠK on
ĠÏĮ ÏĦÎ¹
9 5
if t
ĠÎº Î¬
àµģà´ ®
ri p
ÏĢ Î¿Ïħ
Ġb ag
éĹ ´
áĢ½ áĢŃ
ĠÙħ ÙĦ
ok a
om o
c ion
åĳ ĺ
Î» ÎŃ
Ġper o
a use
ĠÃ Ĺ
et y
ĠJ oh
ĠT ur
è į
áĢ² áĤĶ
ĠÐ³ Ð¾
Ð¾Ð»ÑĮ ÐºÐ¾
á»į c
Ġà® Ĵ
Ð½ ÑĥÑİ
Ø´ Ø±
ĠÐ´ Ð¾Ð±
Ġte chn
×Ļ× ¢
Ġde g
3 2
Ð½Ð¸ Ð½Ð³
ement s
ian o
ÑĥÐ² Ð°
Ġk ter
ĠÑĪ ÑĤÐ¾
Ð» Ð°ÑģÑĤ
Ã ľ
ro d
ĠR ep
Ġâ ķ
à°¨ à°¿
Î» Î¬
f en
Ã¶ t
Ġn ull
Ġk Ã¤
ud ah
áĢ±áĢ ĲáĢ¬
áĢĲ áĢ²áĢ·
áĥłáĥ Ĺ
t on
ĠM us
á» ī
áĥĶáĥ ¢
Ġn am
áĥĺáĥ ķ
ĠAnd a
Ġs ang
è ©
3 4
Ú© ÛĮ
os i
au x
à¹ģ à¸¥à¸°
ĠN h
Ġz d
Ã½ m
Ġv id
Ġà¤µ à¤¿à¤
á ł
æ ¼
Ġan al
ĠÐ· Ð°Ð²
ĠÐ´ Ð¾ÑģÑĤ
O D
à¦¾à¦ ¹
Ã© c
à¹ĥ à¸Ļ
Ïĥ Î¿
ru ct
ĠÐ½Ð° Ñģ
ĠÂ ²
ãģĤ ãĤĭ
ĠáĢ ĳ
ĠØ¯ ÙĪ
Ïĩ Îµ
ett i
m ar
ĠA k
Ð¸ÑĢ Ð¾Ð²
Ġí ĺ
à¸ ¨
g ar
Ġà¦ ĩ
Ð°Ñ ĺ
s ite
f l
à¥ĩà¤ ¶
à¸±à¹ī à¸ĩ
éĩ Į
ä½ ¿
à§ĩà¦ Ľà§ĩ
Ð½Ð¾ ÑĹ
ìļ ©
ç® ¡
Ġdel le
od a
à¸± à¸§
ĠÐ¿ÑĢ Ð¾Ð²
Ġf ot
Ġpo z
ĠÄ Į
ĠV ol
Ġ15 0
f ic
Ġd id
æ´ »
m it
Ġmen y
ĠS ol
ĠA ir
åħ¬ åı¸
ÏĦÎ¿ ÏĤ
ĠM et
Ġn ad
n is
iy or
Î· Î½
Ø§Ø± Ùĩ
Î¼ Î²
áĢ±áĢ ĲáĢ¼
åł ´
ĠP entru
Ġaf ter
³ Û
Ø¯ Ø©
Ġn Ãły
Ġv ez
ìĹ ħ
Ġp es
åı ·
à¸Ī à¸°
Ø± Ø¶
Ġt wo
ĠØª Ø§
çĽ ¸
æĬ ¥
Ġm á»
3 7
ag ai
ĠÃ Ń
Ġàª ¥
ac ional
å®¢ æĪ·
Ġr ad
Å¾ e
f o
al th
b ol
li j
à¤ Ī
ĠC ons
Ã¶ k
ÑĨ Ñĭ
äº ¤
à§ ¦
Ġk ad
ç ¦
¤ ĳ
½ľ ê±¸
à¤¤ à¥Ģ
ez a
Ġm ov
Ġ ÅĽ
Ġs ont
Ġdo or
Ġà¦ «
Ġtá» «
Ġm Ã«
Ð°Ð» Ñĸ
in y
Ã¡ ng
áĥĺáĥ Ľ
à¸Ľ à¸£à¸°
Ġb isa
Ã¼r k
ist en
n ek
¹ £
Ġc ir
áĢŃ áĢ³
Ġl at
ĠA S
ĠS P
èµ°åĬ¿ åĽ¾
ĠÐ Ĩ
Ġte xt
ier t
Ġinform ation
Ð» Ð°ÑĢÐ¸
Ġv ai
is mo
Ð¼ ÐµÑĢ
Ð°Ñ Ħ
Ġsu a
c ol
âĢ Ļ
ĠÙĩ Ø°Ø§
æĦ Ł
Ġæ µ
Î ľ
àª ¥à«Ģ
Ġà¤¸ à¤Ĥ
v et
ÏĦÎ± ÏĤ
nd a
ĠÏĢ Î¿
ĠÑĩ Ð°ÑģÑĤ
ÙĨØ¯ Ùĩ
à«įàª ¤
à°° à±įà°
Ġà° ¬
ic z
áĢŃáĢ¯ áĢ¸áĢ
I I
ig er
Ġvide os
éĸ ĵ
t r
Ġæ Ń
Ġ× ĺ
Ùĳ Ùİ
Ġb is
id es
Ø§Ø¯ ÛĮ
áĤı áĢ½
Ġ íķľ
ra ct
Î» Î®
é ©
i os
Ġch a
æ¬ ¡
Ġm any
Â ¬
ÃŃ st
ç ±
d el
ut ta
cri pt
áĥķ áĥĺáĥ¡
ÐµÐº Ñģ
à¸ Ł
ãĥ ĭ
I P
×ķ× ŀ
å ŀ
Ã± os
Ġpr ost
Ġë ĵ
ĠÑģ Ð°
b all
àª ¶
à¥ Į
R A
Ð ĳ
ÏĢ ÏĮ
Ġw ay
ĠI B
ĠP al
à¸´ à¸Ļ
Äģ r
ĠA L
è ¢
ĠK at
å½ ĵ
Ð¾ÑĢ Ð°
al ia
Ġm ig
ë© ´
Ã¤ ll
ĠI S
å Ļ
Â º
um i
im m
áĥĶáĥ Ĵ
ĠØ§Ø ¬
am en
z ione
ind i
ind en
ĠØ§ÛĮ Ø±Ø§ÙĨ
Ñĸ Ðº
Ð´ Ñĥ
Ġb ur
end en
n ess
ĠS m
à¥ ī
k or
Ġ `
Ġp ens
ëı Ļ
Ġà§ ¨
ÙĪ Øª
Ġs Ãº
ĠS y
im iz
Ġthro ugh
ĠØª Øµ
Ġn og
ĠL o
ĠÐº Ð°ÑĢ
it os
æ¯ Ķ
Ġí Ļ
Ġd apat
ÑģÐº Ð¾Ð³Ð¾
ÑģÐº Ð°Ñı
ÄĽ t
Ġà° ¦
Ġáĥ ¢
ÙĤ ÛĮ
ãĤ ¦
Ġt ag
Ġ×Ķ ×ª
à¸Ļ à¸µà¹ī
ĠD el
Ġl ast
Ġ ia
Ïį Î½
áĢķ áĢ¼
ÑģÑĤÐ² ÐµÐ½
ãģ Ŀ
Ð¾Ð´ Ð°
ĠA ug
Ġìł ľ
3 65
Ġt ul
n u
áĢĶ áĢ¹
áģ¿ áĢķ
Ġo lar
ãģ °
ev e
Ġà° ĩ
sk i
ĠG l
in ing
ì Īĺ
aj e
ĠÏĢ Î¿Î»
Ġp le
Ġo h
Ñİ ÑĤ
åħį è´¹
Ġm ah
I n
àª¿ àªķ
ĠìĿ ´ë
it at
í Ħ
lar Ä±n
ou gh
U M
ç ģ
áĢĻ áĢ¾
Ġkan n
re a
ĠÐ² Ð¸
Ùħ Ø§ÙĦ
Îµ Ïħ
áĥĶáĥļ áĥĺ
Ġw p
áĢģ áĢº
à¹Ģà¸ Ĥ
Ð°ÑĤ ÐµÐ»
ĠS E
ĠN u
Ġsk al
ÑĨÐ¸ Ð¸
iss a
éĻ ¢
ĠC H
y g
Ã³ r
r ent
Ġg iá»
Ġh i
Ġun s
Ġs an
¶ Ķ
çĿ Ģ
r ik
Ġàª ļ
ow y
è· ¯
ãĥ¼ ãĤ¹
à´ ķàµįà´
p u
Ġs ed
ĠÐ¿ Ð¾ÑĢ
ĠGo ogle
à¤¾à¤ ļ
Ġpart icip
Ġs he
ĠO d
à¸Ħ à¸£
Ġd z
ÙĪ Ùģ
Ġê² ĥ
3 1
ãģĦ ãģŁ
ĠØ§Ù Ĥ
æĶ ¿
ĠE UR
áĥ ¨
èĢ ĥ
ÙĪØ± ÛĮ
ĠÎµ Î¾
Ġr i
Ġp ay
Ñī ÐµÑģÑĤÐ²
e y
ĠÙĥ Ø§ÙĨ
a a
Î ¥
à®³ à¯į
Ïĥ ÏĦ
Ġf und
ut i
Å¡ e
ĠáĥĴ áĥĲáĥľ
ĠØ§Ø ¯
Ġ×ŀ× ©
Ġol d
Ġan che
Ġprin cip
ur an
6 7
Ġye ars
os h
ĠØ§Ø ª
×Ĺ ×¨
ĠÐŀ Ð±
ĠNew s
Ġv Ã¤
ust om
á»ĳ c
Ġf oll
Ġàª® àª¾àª
Ġl and
Ġd est
ĠÄĳ áº¿n
ĠÃ ¸
Ġp ie
Ã¡ i
à¹Ģà¸ ŀ
Ð°Ñļ Ðµ
at z
ĥ n
áĥĲáĥ Ĵ
ìĬ µ
èµ ·
ãĤĪ ãģĨ
Ġa ra
ĠM il
in iz
ĠT op
u el
ãĥ¼ãĥ «
àª Ł
ĠØ® ÙĦ
Ġs av
Ñģ Ð»Ð¸
Ïģ Î®
áĥĺáĥ Ŀ
æ ¨
ĠÐ½ Ð°Ð²
ĠP R
ĠÎµ Î¯
Ġv iew
ad ores
áĥĺ áĥĲáĥľ
Ð°Ð´ Ð¸
Ġ×ŀ ×Ķ
Ġv en
Ġ×Ķ× Ĺ
Ġpl ace
9 8
ĠÐ¼ ÐµÐ½
ast i
Ġsp ort
ï¼Į ãĢĳãĢĲ
ind a
els er
Ġexper ien
Ġç »
áĢĽ áĢ¬
w s
ĠÐ· Ð´
Ø§Ø «
æł ¼
ëĭ Ī
Ġ×ĳ ×Ĳ
æ¥ Ń
Ġl ink
ì§Ģ ëħ¸
à§ ĥ
æ° Ĺ
à§ Ĥ
ĠJ o
áĥ ŀ
à´¿à´ Ł
ç ĥ
on der
ÑĢÐ°Ð ¶
è ¥¿
Ġç Ļ
×ķ× ¦
ĠàªĨ àªµ
Ø³ ÙĬ
ãģķ ãĤĮ
el m
ĠÃ «
Ġà¦ ĸ
r im
Ġcont ent
ãģ« ãģª
ÐµÑĤ Ð°
ah an
Ùĥ Ø±
àª §
à¸Ń à¸ļ
Ġv it
è¯ ´
Ġg ia
Î¿Ïħ Î¼Îµ
ÑĬ ÑĤ
Ġm ir
ÏĦÎ¹Îº Î¬
l ÉĻ
Ġd re
ak u
à ²
çİ ©
r om
æĮ ģ
Ñĥ Ð·
f i
ãĥ ĸ
ĠÎ §
ĠÑĩ Ðµ
Ġra p
Ð°Ð½ Ð¾
Ġfor ma
Ø§ÛĮ Øª
Ġè¿ Ļ
ĠÐ½ Ð°ÑĢ
ri end
ÑĢÐ¸ ÑģÑĤ
ãģ¨ãģĦ ãģĨ
Ð»Ð¸ Ð²
on n
² à±ĭ
ĠØ¯Ø§ÙĨ ÙĦÙĪØ¯
è§ Ĥ
Ð°Ð² Ð°
çĦ ¡
àµįà´ ³
ĠÐ ĸ
ĠÙĩ ÙĪ
Ġh om
Ġìł ķ
ĠÎ ¾
à®¿à® µ
á»© c
Ġà¤Ń à¥Ģ
ĠÙĪ ÛĮ
ĠÐ´ Ð¾Ð»
ĠØ§ÙĦ Ø«
æĹ Ĺ
áĢ Ł
av or
áºŃ p
ĠÐ¿ Ð¾Ð·
Ġk ita
Ġsa id
è¦ ĭ
ÎµÎ¹ Î±
Ġserv ice
Ġm Ãł
Ġìĺ ¤
ĠÐ³ Ð¾Ð»
Î¬ Î»
Ġvá» ģ
Ñı Ð¼
ĠPor no
k ol
r am
Ġk Ã¶z
Ġ×ķ ×Ķ
Ġf Ã¥
Ò ĵ
Ġgre at
áĢŃáĢ¯ áĢĦáĢº
Ġà° ī
áĥ ¦
Ġw el
à¦Ł à¦¿
c om
Ġà¦Ĩ à¦®
à§ĩà¦ ĩ
Ġàª «
uk t
ÑĢÐ°Ð º
ĠC u
ir t
Ð¸Ð» Ð°
Å© ng
un u
ĠÑĩ Ð°Ñģ
S t
ĠãĢĳãĢĲ ï¼ĮãĢĳãĢĲ
çŁ ¥
à¯ģà® ±
ĠN am
¹ Û
Ġàªķ à«ĩ
ad s
Î ©
ĠN ot
ul le
ĠØª ÙĤ
å®¢æĪ· ç«¯
×Ļ× ĺ
ag en
Ð² Ð¾ÑĢ
ĠlÃł m
Ð»Ð¸ Ñĩ
er y
Ġàªª àª°
ãĥ ĩ
áĥĺáĥ ļáĥĺ
ĠØ® ÙĪ
åįķ åıĮ
Ġd ass
p en
ĠB en
Ġè Ģ
it ed
?? ??
ov Ã©
à´ Ĺ
ÎŃ Ïģ
ov an
Ñı Ð·
ãģĤ ãĤĬ
à¤¸ à¥ĩ
ay an
áĥ £
ĠÛĮ Ø§
r er
ĠÐ´ Ð¸
Ġt v
Ġs ou
i ÄĻ
ĠÐ´ÑĢÑĥ Ð³
Ġà° Ĺ
ĠÑģ Ð¾Ð±
Ġà¤ķ à¤¿
ĠáĢ »
Ġsu ch
Ð¾Ñģ Ñģ
ĠâĦ ĸ
Ġwh ere
è® ¾
Ó £
us a
ãĤ Ń
Ðº ÑĤ
s el
Ġëª ¨
ĠA G
Ġincl ud
ë ¹Ħ
ĠF in
Ġb ro
Î± Ïģ
à«ĩàª ®
ĠÐ¼ Ð°ÑĤ
Ġáĥ ª
eb ut
Ġe u
Î¼ Î·
º «
elij k
20 19
Ġqu est
é Ł
Ġf ig
ĠH D
Ġp s
Ġt elef
è »
Ġå Ĩ
Ġol an
×ķ× Ĵ
al k
Ġb it
à¤¨ à¥Ģ
Ġh eb
à¸ ĺ
ìĺ ¤
æķ Ļ
6 4
áĢ» áĢķ
é ª
Ġim m
Ġ á»Ł
on te
ĠÐ· Ð°Ð±
in as
å ²
Ð¸Ð¼ Ð¸
Ġ8 8
Ġg ib
ĠT el
ĠÛ ²
ĠâĢ º
à±įà° ª
ĠÐŁ ÑĢ
Ġy o
Ġì Ĩ
Ã§ o
×© ×¨
ãĤ į
Ġleb ih
Ġs ens
eg or
iv i
ĠÂ ±
Ġà´ Ĵ
áº¥ y
ir s
Ġ ć
pl ay
à¹ Ĩ
Å¡ t
Ø´ Ø§Ø±
es c
Ġto do
Ġï¿½ï¿½ï¿½ï¿½ï¿½ ï¿½ï¿½
as an
ell es
ĠPro f
ĠD as
à¹Ģà¸ Ĺ
Ġid ent
ĠS am
ĠL os
om i
Ġ20 00
ĠØ§ÙĦ ÙĪ
×Ļ× ŀ
Ġs aya
Ġbec ause
áĢĲ áĢ½
ãģĦ ãģ¦
à¦¾à¦ ª
2 00
Ġth en
Ã¢ m
Ġc op
Ġk ut
ia ÅĤ
åį Ĺ
Ġo li
áĥĲáĥ ĺ
O C
ÐºÐ¸ Ð¹
ell i
Ġ Ê»
ì °
Ġs ar
ÏĦÎµ ÏĤ
ĠáĢ ĺ
ĠI D
çº §
Ð¼ Ñĥ
Ġr est
T E
Ð¼ Ñĸ
Ġm ent
c zy
Ġh em
Ġc áº£
à¹Ģà¸ «
à°¨ à±įà°¨
Ġà®ª à¯ĭ
Ä±nd an
à¸Ļ à¹Į
Ġco uld
ĠIn form
àµį âĢĮ
h ar
ĠâĨ Ĵ
åı Ĭ
Ġut iliz
Ġëĭ ¤
Ġbus iness
ĠÎ ¦
Ġit em
ĠT a
Ø¨ Øª
á» ģ
Ġto ut
Ð¿ ÑĢÐ°Ð²
ĠFac ebook
un ci
å° Ĩ
ĠS port
Ġno us
Ø± ØŃ
Ġ200 5
Ġt áº¡i
ur ch
Ġç §
ëĵ ľ
ĠÐ° Ð½
ĠÎ¤ Î¿
Ġsho uld
ÎŁÎ ¥
Ġà¦ Ľ
Ðµ ÑĢÐµÐ´
I E
ĠÏĢÏģÎ¿ Ïĥ
Ġl Ã¤
åį ģ
æľ į
Ðµ Ðµ
ĠÙ¾ ÛĮ
v ed
à®¾à®° à¯į
é ł
æ ·
Ġol du
ĠÐº Ð¾ÑĢ
å° ĳ
Ġz n
ÅŁ Ä±
Ð¿ Ð¾Ð»
à¤¿à¤ Ĥ
ĠÂ ´
è Ń
ab or
s htÃ«
ĠÙĪ Ø¬
Ø§ÙĦ Ùħ
Øª Øµ
{ "
Ġp ow
iv es
Ġà®ħ à®µ
ĠM i
ĠÙĪ Ùħ
Ġà¤² à¤¿à¤ı
ĠÑī Ðµ
ĠF re
r um
s Ã¥
åĻ ¨
h am
ìĿ´ íĬ¸
Ġc all
áĢ¬ áĢĦáĢ¹áĢ
Ġà¸ §
ç« ĭ
Ġh ere
Ġsu c
Ø§ÙĨ ÙĬ
Ð³ Ð°Ð½Ð¸
áĥļ áĥĺáĥ¡
Ġ6 00
ĠO ff
áĥĺáĥ £áĥ
ĠA ss
ĠØ¨ Ú¾ÛĮ
Ġn ou
Ð² Ð¸
ĠÎ Ľ
Ġma ar
Ġh ac
ĠCh rist
Ġáĥ §
Ġde b
áĥĲáĥ ¨áĥĺ
Ġwir d
×Ļ× ¤
Ġàª ĸ
x im
as on
Ð ħ
ĠP D
Ġl ine
æµ ģ
5 8
éĢ ģ
Ġd op
à¯ģà® ³
Î» Î¯
è£ ħ
ãĤ ¸
ĠVide o
×ł ×ķ
Ġor d
Ġd ivers
à®¿à®¤ à¯įà®¤
ĠÑ İ
Ġ4 00
Ġå ¯
íĦ °
Ġj ob
Ð°Ð½ ÑĤ
Ġau x
ĠÏĥ ÏĦÎ±
Ġb ra
Ùģ ÙĬ
à®© à¯įà®±
à®¾à®© à¯į
Ġm ass
Ġt ers
1 00
ĠR ev
ĠÐ´ ÐµÐ»
ib il
à§įà¦ ª
à´¾à´ ¤
ik s
\ "
vel op
è¨ Ģ
áĢ¯ áĢķáĢ¹áĢ
Æ ı
ĠØŃ Ø§ÙĦ
ĠB as
ĠE N
Äĵ t
á» ı
ÙĪØ± Øª
ĠH et
Ġy er
y en
à¸ģ à¸±à¸ļ
d Ä±r
Ġind ust
Ġk il
is c
v ir
áĢ Ĵ
Ġmar ket
áº ±
ĠÐŀ ÑĤ
Ġor ang
Ġå Ĭ
×Ļ× ¡
ĠÃ ª
Ġçľ Ł
ĠA B
Ð» ÐµÐ¼
Ġs áº½
Ð¾Ð»ÑĮ Ð·
Ġpre d
ĠK o
ber g
Ġ×Ķ× ¢
eb er
Ġs ah
Ãªn cia
Ġk Äģ
ĠØ±ÙĪ Ø²
Ġi P
Ġma in
A V
à¸£ à¸¡
à®¾à®² à¯į
ãĥ³ãĤ °
Ãª u
Ġd á»¥
ĠE in
Ã¡ st
ĠÐ¸ ÑģÐ¿
ĠU m
ĠÂ §
ĠPost ed
ãģ ĺ
og o
O K
ĠÑį Ðº
Î¼ ÏĢ
ĠG ro
ĠD ep
A Y
Ġequ ip
ãģ Ķ
Ġvot re
P S
ĠG er
ĠV o
Ã¶ g
ort h
or te
à§įà¦ ¥
ĠÐ± Ð¾Ð»ÑĮ
Ð¸ÑģÑĤ ÐµÐ¼
Ġd im
Ðł Ñķ
Ġr en
Ġ\ /
Ġgi Ã¡
is chen
ĠÐ³ Ð¾ÑĢ
Ġa h
ĠTr ans
Ġj pg
Ã© es
ĠN et
Ġ9 8
ert i
ĠS il
ĠÛĮ Ûģ
ĠP at
O V
Ġel ect
à° Ĺ
Ġdoc ument
à¥įà¤ ¹
ãĥ ł
æĴ Ń
Ġa ch
à¹ī à¸Ļ
æº Ĳ
Ġl in
it ut
ap an
ĠÂ ©
ĠC am
áĥĲáĥ Ļ
è Ħ
äº ī
ĠãĤ ¹
e i
Ġn ost
ad an
Ġmed ia
ĠÐ¸ ÑģÑĤ
Ġf az
ĠØ§Ù Ĭ
Ġind ivid
Ġp ed
ĠZ e
ê ·
Ġàª¤ à«ĩ
w y
à¹ĥ à¸Ĭ
Ø§Ø± ÙĬ
ug ar
ĠL at
es z
Ġgr and
Ø¨ Ø©
p at
Ġd la
ĠÙĥ ÙĦ
Ġtod os
Ġç Ľ
ĠU r
ĠÅ ł
Ġz um
à¸¸ à¸ĵ
ro id
ÑĥÐ»ÑĮ ÑĤ
Äģ t
àª¿àª ¯
Ġex pl
Ġp ad
à¸² à¸Ļà¸
Ð» Ð¾Ð²
à¸²à¸ §
ĠB us
ãĥ §
Ġk ul
ativ a
æ ®
ĠÄĳ Ã³
Ġp ubl
àµģà´Ł àµĨ
Åĳ l
Ġ×ĳ ×¢
Ñĭ Ñı
Ġà´ ¬
Ġáĥŀ áĥł
Ġof fer
ç ¬¬
Ð¸ ÑĢÐ¸
at Äĥ
ëĤ ¨
Ġein en
ĠL as
y on
Ġem pres
Ġà¤ Ł
Ġà¤ ¡
et ta
Û ķ
ĠÃ« shtÃ«
Ġa ko
ÙĨ Ø¬
Ġn ag
Ġà¦ Ł
n os
Ġc os
ĠC re
æĹ ł
l ia
Ġà¦¬ à¦²
Ãº bl
h ip
ĠS ec
Ġaut or
ÑĢ Ð¾Ð¿
Ġnh Ãł
×Ļ× Ľ
ĠÂ ®
Ã² ng
Ġty pe
Ġì Ĭ
Ġole h
Ġà¤¸ à¤®
Ġk Ã¶n
ç¤ º
r up
åĲ Ĺ
Ġm end
ĠìĿ ¸
ÙĬ Ùĥ
ie c
Ġ×© ×Ķ
ĠIn st
ĠÐ¾ Ñĩ
×ľ ×Ķ
ĠÎ¼ Î±ÏĤ
æİ ¥
Ġà¹ģ à¸¥à¸°
Ġc zy
à¦¿à§Ł à§ĩ
í ļĮ
à¸« à¸Ļ
Øª Ø§Ø¨
Ġh v
Ġc le
Ġk ir
Ġm ade
g al
Ġr ic
Ñģ Ð°
Ġst or
ĠØª Ø¬
Ġg Ã¼n
Ð½Ð¸ Ñı
a Ã§Ã£o
im al
Ã¡ b
ĠÐ½ Ð°Ð¼
Ð± Ð¾ÑĢ
Ġcon tact
Ã´ n
7 4
ÎµÎ¹ ÏĤ
Ġb ene
ÑĨ Ð¸Ñı
Ä« t
Ġà¦ħ à¦¨
ĠÎ ĺ
à¤¹ à¥ĩ
æ Ĥ
h s
ĠÙĪ Ùĩ
et en
Ġà¸ Ľ
Ġáĥĺ áĥ¡
rat eg
Ġ6 4
ĠW indows
å¸ ĥ
ĠÙģ ÛĮ
l ass
ij a
Ġà§ §à§
ÐµÐ½Ð¸ Ð¹
u en
Ġ; &
Ġag çİ¯äºļ
ãĤ °
×Ļ ×ķ
à¤ķ à¥ĩ
ĠBl ack
×¤ ×¨
Ðº Ð°Ð·
e ft
Ġc our
ĠØ§Ù ¾
k r
ĠØ§ÛĮ Ú©
ç ĭ
Ġt Ã¶
ĠB ut
Î³ ÏģÎ±
Ġc Å©ng
Ġt in
ĠÎ¼ Î¹Î±
ĠÐ° ÑĢ
ĠÐ² ÑĬ
ro ll
Ġàª ī
os o
ĠÐ½ Ð°Ð·
Ġsec ond
Ġà° İ
Ġde fin
Ġw orld
ĠÏĥ ÏĦÎ¹
ĠP res
ĠIn t
ĠS im
Ùĭ Ø§
ãĥ Ł
ĠãĤ ¢
ĠØ§ÙĦ ÙĬ
æĢ İ
he id
ĠÐ½Ð° Ñĩ
Ġm un
ud io
Ġg ew
ĠÐ´ Ð°ÑĢ
Ø¨ ÛĮ
íķĺ ëĬĶ
Ð² Ð°ÑĢ
à¸ģ à¸¥
oc o
ĠØ³ ÙĪ
ĠØ± Ø³
Ġop en
e x
Ġres ta
ĠÏĢÎµ ÏģÎ¹
Ø§Ø± Ø§Øª
ĠÑģÐ» ÐµÐ´
èµ Į
à°ķ à±įà°
g el
any ak
ĠÐ¿ÑĢ Ð¾ÑģÑĤ
Ġb or
± àµĨ
çĦ ¶
ìĹ ¬
om s
ĠÑģ ÑĢÐµÐ´
Ġal g
áĢ±áĢ¬ áĢĦáĢº
ĠØ¯ ÙĪØ±
à´¿ àµ½
ĠØ¬ ÙĨ
ÙĬ Ø²
ĠØª Ú¾
Ġà®ķ à¯Ĭ
à°¾à° ¯
ĠÎºÎ± ÏĦÎ±
ë ¯¸
Ġaw á»įn
ĠÐ½ Ð°Ð¹
Ġg eb
à¹ĥ à¸Ļà¸
Ġìŀ Ĳ
ĠG es
i ent
ĠÎ ¶
à¦¿à¦ ¬
àªµ àª¾
Ġ' '
à¯ģà® ¨à¯įà®¤
Ð Ĺ
Ġpo int
ĠB ir
ĠC ap
ĠÐ¿Ð¾ Ñĩ
Ġà «
Ġpr os
Ġspec ial
ud en
Ġd il
ĠV is
ÙĬ Ø§Øª
I d
à¦ ¯à¦¼
ĠG ar
h te
Ñı Ð´
sk ie
Ġè ĩ
ÈĻ te
Ġd ÉĻ
ĠG al
ĠÐ± Ð¾Ð»
ãģ§ ãģį
Ġsup port
à¦ ¥
Ø¹ Ùĩ
ho ut
ĠÃ ³
à¥ģ à¤°
Ġà° ľ
ra ph
Ġàªª àª£
ĠÙĪ Ø¨
ĠÐ¼ ÐµÑĤ
Ġn in
ĠInter net
ing er
d ay
ãĥ¼ãĥ Ī
Ġo wn
Ġl á»
ĠÄĳá» ĭ
Ġdiff er
Ġp il
Ġog sÃ¥
ìĽ Ķ
ĠÑĤ ÐµÐ¼
ĠÏĢÎ± ÏģÎ±
ĠNE W
Ãº c
Ġtak e
ãĤ »
ĠÑĤ ÐµÑħ
ĠÐ´ Ð¾Ð¼
àª¨ à«įàª
åİ »
r d
ut en
ier en
Ø§ÛĮ Ø¯
m at
h d
áĢ±áĢ ľ
Ġwe ek
es a
Ġn ed
ĠØ§Ø µ
z Äħ
Ġmer eka
à¸Ń à¸£à¹Į
ro t
áº «
Ġd ro
ost en
at her
pres ent
Ġà¸ Ĥ
Ġcons ider
ĠvÃł o
Ġev ent
ĠI ng
àª ¬
Ġpre v
r or
Ġresp ons
à´ ´
ĠÂ ³
Ùĥ ÙĦ
ĠM ot
b ay
à¹Ģà¸ ª
t or
Ġbef ore
Ġh Ãłng
¦ à°¿
ĠÐ· Ð½
ĠÐµ Ð³Ð¾
Ġæ ŀ
à¤¹à¥Ģ à¤Ĥ
áĢĻ áĢ½áĢ¬
ak k
ĠM or
Ġs at
Ġh am
ĠP et
ç² ¾
am at
Ġn ame
ĠD ire
Ġì °
Ã ¯
alm ente
g t
Ð± Ðµ
Ġà¤Ĩ à¤ª
Ġà´ ī
Ġno ch
ãĤ §
à¸Ĺ à¸¢
Ġ×ĳ ×ŀ×
il is
×ķ× Ľ
I O
à§ĩà¦ Ľ
A H
×ŀ ×Ķ
ĠÑ Ķ
áĢĲ áĢ¼
ľ Ðµ
Ġl ik
è º«
Ġab s
Î³ Îº
à°Ĥà° Ł
b aj
ãģ§ ãģ¯
ĠåĮ Ĺäº¬
Ø§ÛĮ Ø´
Ġa ku
Ð¾ÑĤ Ð¾Ð²
ç§ ĳ
í Į
p ad
Ġv oc
è ĥ
ĠÐ¿ÑĢ Ð¾ÑĤ
ros s
è ±
pk 10
ì ½ľê±¸
áĢľ áĢŃáĢ¯
ĠS ur
æĶ ¾
ĠÎº Î¿
Ġ' ).
ĠK r
ãĤ ª
Ġac cess
v Ã¤
Ġpart ic
ĠL ib
mi ÅŁ
Ġà´ ľ
is on
ĠÎļ Î±
Ġon der
Ġma il
Ġ12 0
Ø³ Ø±
ĠÃ İ
ĠØ³ Ø¨
Ġnh iá»ģu
×ł ×Ķ
Ä± na
ĠS ta
y ar
×ľ ×Ĳ
Ïģ Î¹Î±
olog y
Ġ6 8
ar o
Ġà¹ ĥ
Ġf ont
Ġfin an
Ã¡l t
à¤ ı
Ñį Ð½
co unt
Ġel ekt
áĥ£áĥł áĥĺ
ch o
ĠInter n
ĠãĢ Ĭ
Ġn at
à±ģà°¨ à±įà°¨
Ġl áº¡i
ìĬµ ëĭĪëĭ¤
Ġtr Ãªn
Äį nÃŃ
Ġa Ã§
Ġà°ļ à±ĩà°
Ġolar ak
Ġfo i
Ġn ur
Ġ×Ļ ×©
ãĤ ¨
àª¾àª® àª¾àªĤ
Ġcom ment
ĠT Ã¼rk
Ġn uk
Ñĸ Ð¼
Ã² n
app ä¸ĭè½½
ãĥ³ ãĥĪ
å¸ ¸
ĠØ¹ Ùħ
du ct
ãģ Ń
Ġla in
áĢ¸áĢ ±áĢ
ÏĮ ÏĦÎµ
Ġê² ½
Ġth i
Ġc asa
åŀ ĭ
à¯Īà® ķ
ĠP C
ĠA us
ĠM ic
ĠáĥĽ áĥĿáĥ
Ġs um
Ø§ Ûģ
ĠM ich
Ġs w
ÙĦ ÙĪ
ĠH ol
l av
ÏĢÎ¿ Î¹
Ġkt or
ĠO m
åĲ ĳ
k ez
åħ ĭ
à´¾à´ ²
Ġde velop
ĠÙ¾ ÛĮØ´
ĠØ¬ Ùĩ
i as
an an
Ġmom ent
áĥĽ áĥĲ
Ġh on
ĠS on
ç» ĵ
in c
Ġa ug
å®¶ ä¹Ĳ
áĥĲáĥ ļáĥĺ
____ ____
en o
Ġver d
Ġáĥ ļ
ĠO ne
Ġre p
I F
Î´ Î¹Î±
Î¹Îº Î¿
l us
ind er
Ġk et
àª¨ à«ĭ
ÏĦ Ïħ
à¯ģà®ķà¯įà®ķ à¯ģ
e f
Ð¸Ð´ Ð°
end i
çķ Į
Ġf em
Ġå ·
áº· t
Ġartic le
à¥įà¤ ®
l ah
éĻ Ĳ
Î³ Î¿
ÏĦ ÏģÎ¿
y cz
Ġ7 8
Ø§Ø ©
áĥĶáĥ ¥
ok s
ìĭ ł
ag ement
lÄ± k
Ġ> <
ĠØ¬ ÙĪ
Ġk Ã¶
Ð» Ð°Ð³
Ã³ g
ØŃ Ø©
ind ÉĻ
ag o
en ie
à±įà° µ
à¤¡ à¤¼
omb re
Ġc ab
ĠÐ»Ñİ Ð±
Å£ i
á»ĳ ng
áº »
Ġfin al
Ġ6 9
Ġde f
ĠØŃ Ø³
ĠA C
Ġnew s
Ľ Ħ
à°¿à° ¤
ĠF il
ost i
ic ial
Ġst yle
Ġm Ã©s
ÐµÐ½Ð¸ Ð¸
Ġpre z
Ġà¸ ¥
Ġsa at
ar te
ĠT or
å¼Ģ å¥ĸ
Ïĥ ÏĦÎ·
Ġz ap
ĠÐ½ Ð¸
iss ion
Ġg li
Ġdi fer
Ġt ent
Ãº n
Ð¾ÑģÑĤ Ð¸
Ġmod el
à¸¹ à¹Ī
ÑģÐºÐ¸ Ðµ
Ġâ Ķ
å¤ ĩ
Ø± Ø§Øª
Ġkom m
h one
7 3
Ġe ks
Ø§ÙĨ Ø¯
Ã¸ l
Ġ äºº
Ġí ı
Ð°Ð¹ Ð½
6 3
Ġab er
æĽ ´
ãģķ ãĤĵ
lig t
ĠÐ³ ÑĢÑĥ
áĥĺáĥ łáĥ
Ġ ult
Ð¼ Ð¾Ð¶
Ð¼ Ð¾
Ġre fer
ĠP S
ç ı
re f
ch es
Ġà´µ à´¿à´
Ġ×Ľ ×ľ
Ġt et
Ġsz er
g est
àµ »
Ġp age
ÃŃ as
Ïħ Î½
ĠC amp
Ġï¿½ï¿½ï¿½ï¿½ï¿½ ï¿½
Ġz Ã¡
Ġà¤ħ à¤ª
Ð½ ÐµÑģ
ĠÑģ Ð¸ÑģÑĤÐµÐ¼
az ioni
Ġus ed
Ġì ²
ĠÐĿ Ðµ
è¿ ĳ
Ġsol o
à¹Ģà¸ ĩ
Ġper i
à¤² à¤¾
Ġn Ã³
ĠÐļ Ð°Ðº
Ñĥ ÑĢÐ¸
Ġdes c
Ġwa ar
áĥĶáĥĳ áĥ£áĥļáĥĺ
áº¥ p
Ġco unt
ĠãĢ ı
ĠÃ ĺ
ĠP od
Ġä» Ĭ
Ø± Ø³
Ġt or
Äĥ n
Ġna ar
Ġ×Ķ ×¨
Ø§ÙĦ ÛĮ
ĠR ob
ÑĢ Ð¾Ð±
ĠÎ¿ ÏĢÎ¿
Ãª m
P art
ra b
à¦¬ à§ĩ
as te
ĠGrat is
à¦ķ à§ĩ
Ġà´ ²
Ġe p
Ġg est
áĤ Ģ
ä¸ ĸ
é¢ ĺ
Ġà¦ķà¦° à§ĩ
Ġmater ial
æ »
ĠØ¨ ÙĬÙĨ
il ar
ĠÑĤ ÐµÐ»
Ġch ild
ĠÎ´ Î·
æĪ ĺ
6 2
àª¾àª ¸
O W
ĠÄĳ áº§u
ĠÙħ Ø³Øª
ëħ Ħ
ÑĥÐ² Ð°Ð½Ð½Ñı
Ġl ife
Ġs ett
im p
ier a
Ć ć
Ġaut o
à¸²à¸ ª
ĠA ct
Ġm ens
ĠÐ· Ð°Ð´
Î¼ÎŃ Î½
Ġè ¯
æ ¢
Ïģ Î¿Ïħ
s l
Ġp la
ä½ ķ
Ġì £¼
Ð» ÐµÐ½Ð¸Ñı
Ġ. -
à¦¿à¦ ¸
ĠÐ¼ Ð°Ð»
ol u
ÙĨ Ùĩ
Ġãģ Ĭ
Ïģ ÎµÎ¯
Ġweb site
Ġg an
àµģà´ ³
Ġà®İà®© à¯įà®±
íħ Ķ
Ø« Ø±
çĽ Ł
el n
iá»ĩ c
ĠÚ© Ùħ
Ġl ok
Ġd av
Ġë³ ´
4 1
Ġg al
Ġc ada
ce p
ÑĢÐ°Ñ Ħ
m ente
Ã« m
Ñı Ð½
ĠÐ£Ðº ÑĢÐ°ÑĹ
E G
å± Ģ
Ã¡ ri
ĠØ´ ÙĪØ¯
ãĥ ĳ
¸ à±įà°¤
ud o
ĠÐ· Ð°Ð¼
à¥ĭ à¤Ĺ
ÎĻÎ ļ
à¦ ĸ
ÃŃ r
Ġl ot
g io
áĥĶáĥĳ áĥĺáĥĹ
Ġë° Ķ
Ġgr an
èĢ ģ
re z
æĥ ³
Ġl ive
Ø ¡
Ã »
Ã Ĳ
à«įàª µ
Ġf ull
åĭ ķ
áĢĻ áĢ»
ĠF e
ĠU N
ĠÑı ÐºÑĸ
ì ĻĢ
ĠÑĥ Ð´
Ġme j
Ġz ur
ĠØ§ÙĦÙħ Øª
Ġå ¿
ĠÙĦ ÙĪ
Ãł o
ra ft
ä¸ ľ
iy y
Ġs unt
ĠÙĩ Ø°Ùĩ
à®¾à® µ
Ġloc al
Ġl eng
li o
Ļ à§įà¦
Ġ\ "
èĪ °
uk o
Ð² Ð°ÑĤ
ÏĢ Î¬
Ġimport ant
Ø§Ø¯ Ø©
ĠÎ¼ Î±
Ġh ol
éĢ ī
Ġein er
ģ éĢŁ
ost o
Ġ ill
Ġæľ ī
Ġ: :
Ðµ Ñī
er ne
ĠáĢ ĸ
ãģ« ãģ¯
g l
à¹Ī à¸¡
Ġper m
ĠA D
ä¼ ģ
ay Ä±
Ã© ri
Ã ĭ
¡ à±ģ
Ñĥ ÑģÑĤ
ìĤ¬ ì§Ģ
im b
ĠÂ µ
ĠO ct
ÐµÑĢ Ð°
Ġm ie
Ġp ul
Ġseg u
à¸« à¸¥
Ġe a
ad u
ĠA R
w ay
el or
Ġ Ö
áĥ£áĥ łáĥ
r il
Ġam p
à¤² à¥Ģ
áº¿ u
Ġ×Ķ× ŀ
Ġà®ħ à®¤
ad en
ug u
Ġc ou
ĠB al
ÙĬØ± Ø©
ĠÑ ĺ
ĠB il
áº£ o
ĠÐ± Ð¸Ð»
Ø· Ø©
Ä± ÄŁ
áĤĢ áĢĢ
v ÃŃ
re k
áĥĶáĥľ áĥ¢
Ġk op
ĠM it
à´± àµįà´±
ar be
ĠT H
y tt
ÉĻ b
and er
Ġ200 4
Ø¹ Øª
ÙĨ Ø©
us k
Ġr un
zen ia
ĠÐ² Ð¾Ð´
è Ļ
ÑĢ Ð¾Ðº
ĠL eg
ĠpÅĻ ÃŃ
at ori
ĠÙĪ Ø±
à¹Ģà¸Ľà¹ĩ à¸Ļà¸
oc a
x y
ek i
Ġl ui
ta c
I B
Ġå Ń
Ġc ustom
Ġsist em
æĢ »
Ġd am
àµ ¾
ï »
à§ĩà¦ ĸ
Ġáĥ¡ áĥĲáĥĽ
Ġd aha
ĠÙĦ ÛĮ
Ġk it
Ġst ar
7 2
Î¸ ÎµÎ¯
ĠP ark
ĠS eg
ĠTh ere
ĠÑģ Ð¾Ð²
æ¬ ¾
y st
ìĸ ĳ
à¤ ĸ
h as
ur u
ĠÐ¿Ð¾Ð» ÑĥÑĩ
áĥĲáĥ ¨
Ġs á»±
à´¾à´¯ à´¿
ç ¼
à¦ ĵ
Ġ×ŀ× Ĳ
ij d
Ð° Ò³
ĠÐ¢ Ð°Ðº
ac y
az i
ic io
à¤Ĥ à¤¤
å®ĺæĸ¹ ç½ĳç«Ļ
Ð¾ ÑģÐº
Ñį ÑĤ
àµĨ à´¨àµįà´¨
Ä ©
ĠÙĨÛģ ÛĮÚº
ĠØ ¸
Ġbl ock
áĥĲáĥ ĸ
ĠV e
Ø´ Øª
Ġo cc
Ġdes de
Ġê³ ł
Ã Ĭ
Ġas p
ç ·
Ġun ivers
Ġle v
à°Ĥà° ¤
ov ern
ĠF orm
an za
ĠG en
ĠÐ¿ÑĢÐ¾ Ð¸Ð·
ist as
à¹Ģà¸Ľà¹ĩ à¸Ļ
à¸²à¸ Ĺ
ai x
ĠÛ±Û ³Û
Ġe ach
Ġk os
Ġ25 0
o on
ĠS ant
à¸ļ à¸ļ
ĠÐ¿ÑĢ Ð¾Ð³
m eld
ir d
ĠM u
f Ã¶r
st ra
àª¿ àª¤
ĠÐ¿ Ð¾Ð¿
Ġch á»ī
ov at
Ġb á»ĭ
ç ĸ
áĥĲáĥ ¥
or ge
ac ion
ish ed
áĥ® áĥķ
ĠÄĳá» ĵ
å ĥ
à¸£ à¸ĩ
ç ¶
Ġp on
Ã¥ g
as se
Ġ×Ķ× ĳ
Ġæľ Ģ
Ġæ °
Ġá ¼
Ġein em
äº Ķ
Ġc um
z k
åİ Ł
Ġk em
ol g
ä¾ Ľ
ĠÐ± Ñŀ
Ġj ako
zy st
Ġqu an
Ġnec ess
Ġag ain
ph one
4 2
ĠÎł Î±
Ġ Ô
à´¿à´ ¨àµįà´
Ġà¤¸ à¤¾à¤
ĠëĤ ĺ
Ġtot al
ĠÐ´ ÐµÑĤ
Ã¼ nd
ĀĀĀĀĀĀĀĀ ĀĀĀĀĀĀĀĀ
Ø§Ø¦ ÛĮ
Ġg ame
å¼Ģ æĪ·
ĠF er
ĠØ§Ø ´
Ã¨ n
ny m
ĠU nd
à¥įà¤° à¥Ģ
Ġen er
Îµ Ïģ
ë¬ ¸
ĠåĽ ½
à´¨ àµįâĢį
à¹Ģà¸ ¡
Ġpl at
is me
Ġà®ļà¯Ĩ à®¯
Ñĸ Ñģ
O G
ĠÎ¼ ÏĢÎ¿
Ø Į
èµĽ è½¦
ari os
à¹ĥà¸Ĭ à¹ī
ĠÃ¶ z
ÑĨ Ðµ
ĠáĢŀ áĢ°
à ¬
ĠØ¨ Øª
ÑĪ Ð¸
Äĵ j
ĠØ¨ Ø¹
Ġà´İ à´¨àµįà´¨
Ġå¤ ©
Ð¼ Ð¾ÑĤ
ĠÐ´ Ð¾Ðº
6 1
u u
ĠÐ¼Ð¾Ð¶ Ð½Ð¾
åŁ º
ĠÙĨ Ø´
ĠU p
Ġon s
ĠB est
Ùģ Ø³
ï º
ici Ã³n
Ġdo es
Ġt Ã¤
à¤ķà¥įà¤ ·
è ĳ
Ġnh áº¥t
ÑģÐºÐ¸ Ñħ
Ġpro t
Ġæ Ĭ
ĠÑĥ ÑģÑĤ
Ãº s
ĠØ§ÙĦØ° ÙĬ
à¯įà® ®
µ ľ
Ġm uj
Ġet c
Ġk ab
Ġn Äĥm
Ð¾Ð² Ðµ
Ä« bas
Ġå ¸
Ð°ÑĨ ÑĮ
à¸· à¹Īà¸Ńà¸ĩ
li p
ĠØ§ÙĦÙħ ÙĨ
Ġp ast
ãĥ Ĭ
ÑĢÐ¸ Ð¼
è¢ «
oc ia
× £
Ġcont rol
ĠK h
ĠØ² ÛĮ
Ġin sp
Ġ×¢ ×Ŀ
æĬķ æ³¨
à¥įà¤ ¥
ĠÐ° Ð¿
A d
Ġà°µ à°¿à°
Ġw it
Ð¾Ð½ Ð¾Ð¼
æ¸ ħ
±áĢ ĲáĢ¬
áĢĦ áĢ·áĢº
áĥ ĸáĥĶ
Å º
ĠÙĪ Ø³
t ar
Ġdat ing
æĹĹ èĪ°
Ġph p
åħ Ī
Ġà¸ Ķ
) ,
Ġv ida
l ie
ģ áĢº
ĠØ± Ûģ
ĠÐĿ Ð¾Ð²
uk e
Ãº ng
Ġgro up
ill er
ĠIB _
ol s
in te
ĠC ity
Ġdá»¥ ng
ĠS en
Ã¢ nd
à®¾à® ¯
Ġà¤¨ à¤¹à¥Ģà¤Ĥ
it ies
Ġbe ing
Ġà´ ¯
Ġfr Ã¥n
Ġb ig
å¸ Ī
ĠØ Ľ
Ġè µ
é¦ ĸ
Ð¾Ñģ ÑĮ
é¡ µ
ev o
ĠvÃ¦ re
àµģà´¨àµįà´¨ àµģ
T C
ĠJ os
àª° à«Ģ
ist i
àµ Ī
ĠE S
à° ļ
Ġb ill
h n
ĠÐ¼ ÐµÑģÑĤ
g ang
ĠV ers
ĠÐ¿ÑĢÐ¾ ÑĨ
G B
æĢİ ä¹Ī
f Ã¼
Ġm ÄĽ
ĠÐ² ÐµÑĢ
Ð¾Ð± Ñĭ
k ur
Ġs ize
Ð¾ÑģÑĤ Ð°Ð²
Ġé Ŀ
à¥įà¤ ²
Ġ ãģ¨
o ft
Ġv et
ÏĮ Î½
ä» »
à¤¾à¤° à¥Ģ
ed s
ĠdÃ© c
ÎĹ Î£
ad em
Ġth ink
Ð°Ñİ Ñī
ac ji
Õ¸ Õ
à¸ģ à¸£
à¸ģ à¹ĩ
Ġf oto
ì§ Ħ
æ ©
Ø§Ø± Ø¯
Ġproj ect
ĠØ£ ÙĬ
Ġv Ã¤l
àª ļ
Ð°Ð½ Ñģ
Ø§Ø± Ø©
åı Ĺ
Ġh iá»ĩn
à¦¨ à§įà¦¤
Ġd ou
à¹Ħ à¸¥
Ð± Ð°
or ks
ist o
Ġh ard
ic ia
ìķ ¼
Ùĥ ÙĪÙĨ
A A
à«ĩàª µ
od o
áĥĶáĥ Ŀ
à¸§ à¸¢
al og
ĠÄĳá»Ļ ng
Ġàªı àªķ
Ġfam il
iv os
ur y
ir l
Ä± ÄŁÄ±
Ġë ²
Ġè ®
red it
Ġrev iew
d ÉĻ
Ġs end
ĠìĹ ¬
ĠÐ¡ Ð¿
å Ħ
Ġf u
AN D
ä¸Ń åĽ½
ĠCom p
Ġng Ãły
à´¿à´ ¤
ur as
Ġgr atu
ra p
Ã¼ y
ä» ĺ
ĠÑģ Ð°Ð¹
Ġf avor
ĠT ak
è¶ ³
Î´ Î·
us te
Ġmu y
Ġm ell
Ġ9 7
Ïİ ÏĤ
iel d
Ġw ater
ĠÐ· Ð²
Ġl ove
Ġm ang
Ġk ind
ĠÐ¼ Ñĭ
Ġdel s
T ER
** **
U D
il en
ĠM ac
à´¨àµįà´ ¤
Ġê ±
Ġad v
Ġà¤ ĺ
é ¤
ĠÐ¾Ñģ Ð½Ð¾Ð²
áĥĺáĥ ĸ
æ± Ĥ
Ġ" ).
s m
Î ļ
ĠÙĤ Ø±Ø§Ø±
Ġan i
Ġword en
y pe
ĠÙĪ Ø²
ĠÎµ Ïħ
Ġe conom
Ġur l
i ÅŁ
à¸´ à¸¡
Ġm id
Ġpl ac
im es
ĠÑ ĳ
ne y
Ġäºļ ç¾İ
Ã¡ rio
Ġper form
ĠÑĢÐµ Ð·
Ġav ail
æĸ ¯
Æ°á»£ ng
áº¯ c
r ak
ĠØ¨ Ø®
Ð°ÑĤÑĮ ÑģÑı
Ã¢ u
ĠÐ¼ Ð°Ñģ
i Ãªn
lar a
Ú© Ùĩ
Ġì ¤ĳ
ĠÐ» Ð¸
áĢ±áĢ ŀ
ĠÃ§ ok
ĠS em
Ġl itt
ĠØ§ÙĨ Ø¯
áĥĿáĥ ¤
iá»ĩ u
Ġhab en
×ĳ ×ľ
ĠD own
ĠìĿ ¼
à¸Ī à¸²à¸ģ
Ġà¦ľ à¦¨
ĠÐ¾ ÑģÑĤ
Îµ Î»
Ġ8 9
h y
Ð¾Ð³ Ð´Ð°
ĠE le
ê° Ħ
Ġb ase
ec n
Ã¼ s
ĠÐ¼ Ð°ÑĢ
Ð¾Ð² Ð¸
ĠP ublic
j ar
un ity
ãģ§ ãĤĤ
ov o
Ġpro pos
ĠS in
ĠJ ak
n ot
f el
ê³ Ħ
Ġsp e
ÐµÑĢ Ð°ÑĤ
Ġv ÃŃ
Ġqu y
AN G
Ì £
ect ed
ÐµÐ½ Ð´
æ Ĳ
Ġth ose
Ġ×ľ ×ŀ×
Ġ> >
j ak
g n
á»± c
re b
Ġt ing
Ġpro gr
ĠÙħ Ø«
Ðº Ð¾Ð¼
Ġn om
st an
ut er
Ïī ÏĥÎ·
Ïħ Ïĥ
Ġsex o
Ġ, âĢĿ
Ġn ing
áĢ¸áĢ Ļ
Ġs empre
ĠK l
ì¹ ĺ
Ġë¶ Ģ
Ġà´ ¶
æ ¹
Ġ×ĸ ×Ķ
Ï Ĭ
Ġä¸ Ĭ
Ä ı
ĠP as
Ġme hr
ÎŃ Î½
ĠÐ² Ð·
ĠA P
áº· c
Ġk up
ĠP an
áĥķ áĥĶáĥľ
is u
Ġf act
Ġap plic
à´² àµįà´²
áĥĺáĥ ¨
ĠÙħØŃ ÙħØ¯
Ð½Ñĭ Ð¼Ð¸
ĠØ¯ Ø§Ø´
Ġ100 0
ill i
us es
ĠM ob
àµįà´ ŀ
om p
Ġp rac
Ġ×ŀ× ª
×ª ×Ļ
ĠD av
áĢ±áĢ ķ
j ÄĻ
u at
ĠÐ´ Ð¾Ð¿
å ©
Ð¸ ÑĨÐ¸
ĠCom m
à¤¾à¤¨ à¥ĩ
id ente
Ð» ÐµÐºÑĤ
Ġv agy
ĠØ¹ Ø¯
g j
ta a
ê ¹
ah l
ĠÐ¼Ð¾Ð¶ Ðµ
ÐµÐ½ ÑĤÐ¸
Äģ d
ĠØª Ø´
c r
Ġæ ²
à¸Ĺ à¸³
ĠM ont
ĠT ar
ro b
ä» Ģ
Ġ×Ķ× ¤
Ġv l
ë £
ÙĤ Ùĩ
g ed
aj Äħ
Ġj ou
ĠE v
Ñı Ñħ
àªĤàª Ĺ
n al
Ì Ģ
ĠÐĴ Ñĭ
à±ģà° ¤
Ġph áº£i
Ġv iá»ĩc
ħ n
à§ĭ à¦¨
Ð¸ÑĢ Ð°
Ã©r t
wit ter
Ö ģ
Ġh id
an Ä±
ĠG ener
Î± Î»
Ġz am
Ġef ter
ç Ĺ
Ġn ÄĽ
Ġd un
w ard
åº Ķ
ì¹ ´
Ġh im
Ġd ik
Ġê³ µ
if ik
Ġ×ŀ× Ĺ
ĠÙĨ ÙĤ
Ġáĥ¡áĥĲáĥ ¥
Ġeff ect
å§ Ķ
Ð°Ð» Ð¾
ip s
×Ļ× ¦
el ig
åħ ī
iz z
up a
d ir
ĠSt r
ÐµÑĢ Ð²
Ġs atu
à¸¹ à¸ģ
Ġf ost
Ġ ^
Ġc in
áĥĲáĥł áĥĺ
à¹ģ à¸¥
ov ed
ĠÎºÎ± ÏĦÎ¬
Ñģ Ðµ
ÙĦ Ø§Øª
Ġk oh
Ġth Ãłnh
h m
b ra
ĠÐĺ Ð½
Ġett Ã¤
Ġex c
æİ Ĵ
m p
ĠØ³ Ø§Ø²
Ġme er
ä½ ł
ĠSup er
è¯ ·
ĠÑĥ ÑģÐ»
áĢ¬ áĢ¹áĢ
m Ä±ÅŁ
Ġtr ue
Ø§Ù ¾
Ġresta ur
is ke
Ġop p
w ays
ol f
ĠÏĢ ÏģÏĮ
à¤¾à¤ ª
Ġ6 6
à¤¿ à¤°
ĠÑĦ Ð¾ÑĢÐ¼
Ġperson al
Ł à«ĩ
Ġàª¸ àª¾àª
Ðł Âµ
ning en
ÐµÐ½ Ð½Ð¾
ãĥ ĵ
×Ļ× Ĺ
Ġd ah
Äĵ r
à¸Ķ à¸µ
Ð°ÑĤ Ñĭ
ar es
ĠL A
±áĢ Ķ
Ġl ag
ĠÏĥÏĦÎ¹ ÏĤ
ĠÎ±Ïħ ÏĦÏĮ
ĠÚ©ÛĮ Ø§
Ġ7 9
ĠG od
± c
Ñĸ Ð»
áĢĻ áĢ½
à¤¿à¤ µ
à¸²à¸ Ķ
ĠU s
à®¾à® ³
Ð² Ð¾Ð»
ĠÐ¾Ð± Ð»Ð°ÑģÑĤ
i at
Ġk le
ĠT R
ot her
ed d
Ġu Å¾
Ġm Ãª
Ġ": {"
à§ģ à¦¨
à®Ļ à¯įà®ķà®³
×¨ ×Ļ×Ŀ
ĠÐ¼ Ð¸
Ã Ģ
ÐµÑģ ÑĮ
k ap
Ġ×Ķ× ł
Ġë§ Ī
Øª ÙĦ
å¦ Ĥ
Ġìĥ ģ
Ġex ist
Ġà®ª à¯Ĩ
ĠH and
ì¶ľìŀ¥ ìĥµ
Ã¼ ck
áĥ ĸ
ĠEur ope
Ġä» ĸ
à¤ «
ones ia
iv en
ĠR a
è® ¯
ĠØ¨ Ø§Ø±
ac ter
Ġà¦¬ à§įà¦¯
Ġà¦¨ à¦¾
Ġà® °
ĠØ´ ÙħØ§
Ġth Ã¬
one y
Ġob s
Ġs Ã³
op er
ĠÎ Ī
Ġ] .
Ġun ter
ĠIn n
äº Ľ
ĠØ³ ÙĬ
O B
t es
àµģà´³ àµįà´³
Ġh á»įc
ak at
íı ¬
áĢ±áĢ¬ áĢĢáĢº
Ð¸Ñģ ÑĮ
áĢŀ áĢĬáĢ¹
áº± ng
uy Ãªn
ic an
Ġdown load
ez e
ĠáĥĶ áĥłáĥĹ
Ġdis pon
E K
ĠÐ¼ Ð°Ð³
ĠÙĪØ§ÙĦ Ùħ
Îĳ Î£
Ø¯ Ø§Ùħ
00 00
Ġinf o
Ġj our
Ġl id
ĠS et
ĠÐ¼ Ð¾Ð´
Ġar g
aj i
) )
äºļ æ´²
Ð» Ð¾Ð¶
àª¾àª ľ
Ġan im
Ã¡ j
ra y
ung an
Ġáĥ¨ áĥĶáĥĽ
ÙĨ Ø³
Ġà¦¬ à¦¾à¦
Ġy ar
ģ áģ
Î¾ Î·
it an
å¯ ¼
Ġde ze
áĢĸ áĢ¼
in ya
àª¾àª ²
Ġret urn
ĠÐ¼ Ð½
ÄŁ u
à¹Ģà¸ §
Ġàªµ àª¿àª
ĠÐĹ Ð°
ĠØ¨ ØŃ
ĠÐ¶ Ð¸Ð²
Ġk g
Ġs ka
f ord
Ġcas o
Ø¦ ÙĬØ³
à¤¾à¤ Ĺ
ar ing
×Ļ× ļ
ri es
Ġtemp o
T R
ĠC ON
Ñī Ð¾
Ġst ill
f ort
Ġprz ez
Ġn un
Ġact iv
íĶ Ħ
×¨ ×Ľ
ÙĪ ÙĬ
ĠÑĢ ÑĥÐ±
Ġ ÑĢÐ¸
Ġb ers
Ġb ere
è® °
à®¿à®Ł à¯įà®Ł
Ø§Ùĩ Ø¯
ç ¢
Ġ( );
ãģ ļ
Ð½Ð¸ Ðµ
Ĳ áĢ²áĢ·
ç ¯
åģ ļ
Øµ Ø±
it el
ĠW est
ÏĮ ÏĤ
à¹Ī à¸Ļà¸
dz ie
Ġ200 3
Ø· Ø±
5 9
à¸¶ à¸ĩ
i Ã³n
Î¯ Î¶
áĢ ¥
l ay
å·¥ ä½ľ
j ekt
Ġç ī
Ðº Ð»ÑİÑĩ
à®¾à® ®
ÎŁ Î£
Ðº Ð¾Ð»
ĠáĢĢ áĢŃáĢ¯
å¼ ķ
ãĤ ĥ
ĠØ¹ ÙħÙĦ
èģ Ķ
Ġt ai
h old
Ġ ą
æī ĵ
ĠÃª tre
ÙĢÙĢ ÙĢÙĢ
ft ware
z d
so ci
ning s
ĠÙĩ Ø±
æł ·
Ã¥ d
ĠÐł Ð¾ÑģÑģ
Ġ;& #
Ġun o
à°¨ à±ģ
ĠS M
ÙĪ Ùĩ
ç© º
Ġe duc
Ġprof es
Ġà° ²
Ġm l
ç¾ ¤
ĠÐ³ Ð¸
Ġ ÉĻ
Ġgr ande
ab y
ug e
I Z
Ġu ch
Ġd ate
ect ion
Ġáģ ı
ĠÐ½Ð° ÑģÑĤ
Ð¾ Ñİ
ŀ àµįà´ŀ
Ñĸ ÑĢ
Ã¥ l
áĢ² áĤķ
Ã¡ nÃŃ
à§Ģ à¦°
ÙĤ Ø§Øª
Ð½Ð¸ ÐºÐ°
Ð¸ ÐºÐ¸
æĮ ĩ
Ġ ÚĪ
ìļ °
Ġà¦ ¡
u ally
Ġâ ľ
Ġdur ch
ĠÙĩ Ø³Øª
Ġv iel
c le
ĠS ing
à§įà¦ ²
Æ¡ i
ĠÐ¶ Ðµ
à¸²à¸ ŀ
à°ķ à±ģ
Ùĥ Ùħ
ob a
Ġ×ķ ×Ĳ
Ġcont ra
à¸²à¸ °
z z
Ð¾Ð½ ÑĤ
á»ĭ ch
É Ľ
å¾ Ī
Ð ¤
Î´ Î¹
ç Ĭ
Ġcom un
ĠÑ Ĺ
Ġya ÅŁ
àµįà´ ®
out h
â Ķ
ĠÙĤ Ø¨ÙĦ
Î¼ Î®
ĠÐ¼ Ð¾Ð³
Ġr um
Ġdu e
áº¡ o
s Ã©g
ÑĮ Ñİ
ä¼ ł
Ãº t
v y
ĠÏħ ÏĢÎ¿
ĠK ur
Ġ×Ĳ ×ľ
Ġj ul
á»ĩ n
Ġinde x
Ġk ull
Ġn ar
ĠC D
ĠM el
à¥Ĥ à¤¨
Ġd ost
Ġ×ĳ ×©
ĠO ut
ç» Ł
Ø§Ø³ ÛĮ
Ġf at
ĠB ur
Ġìľ Ħ
Ġà¤ī à¤¨
Ïĥ Ïī
ĠâĢ ¬
ĠÃ ļ
ub a
ĠÃ®ntÃ¢l n
Ġy n
æ §
Ð½Ð¸ ÐºÐ¸
Ġconst ru
íķĺ ê³ł
ĠÐ¿ÑĢ Ð¾Ð±
ĠÄĳ i
Ġseb agai
j ek
Ġte am
ĠØ§ÙĦÙħ ÙĪ
æİ ¨
al Ä±
Ġre ally
ion ale
Ð½ Ð¾Ð¼Ñĥ
Ġà®Ĵ à®°
ĠÙĨ Ø§Ùħ
áĥ ¤
ĠÐŁ Ð¾
Ð² ÐµÑģÑĤ
r Ã©
ĠB es
ä¸Ģ ä¸ª
Ġb este
àµįà´ µ
Ġc and
ÏĦÎ· ÏĦÎ±
P R
ĠÑģÐ» ÑĥÑĩ
Ġwh ile
Äģ j
Ġpos it
un ta
à±Ĩ à°²
áĢ±áĢ¬ áĢº
v est
ch od
Ġtr as
à´ ¶
Ġtit le
Ġ3 80
Ø¶ ÙĪØ¹
ter i
Ġï¿½ï¿½ï¿½ï¿½ï¿½ ï¿½ï¿½ï¿½ï¿½
ª àµįà´ª
ĠCh ar
Ġà¹ Ģ
Ġz w
à®³ à¯įà®³
ÑĤ Ñĭ
Ġà®µ à®°
ĠÂ ¹
ĠÎ¸ ÎŃ
Ġ< /
à¹Ħà¸¥ à¸Ļà¹Į
ak ukan
Øª ÛĴ
Ġàª Ł
c at
áĢ¼ áĢ¬áĢ¸áĢ
Ã¡ o
Ġavail able
Ġcompl et
à§ĩà¦ķ à§ĩ
ĠÃ Ħ
ĠÙħ Ø±Ø¯
Ġmenj adi
ĠÙĪ Ûģ
à«ĩàª ¶
ĠÎ ¥
iy at
Ġ8 00
Ġf ace
ond o
y ing
ia p
ĠÐĲ Ð½
Ïĥ ÏĦÎ¿
Ñĥ Ð³
ĠApr il
Ġx u
Ġf Ã¸r
Ġà¦¤ à¦¾à¦°
ãĤ ĩ
Ġ, ,
Øµ ÙĪÙĦ
Ġàª° àª¹
C I
ĠF o
Ġæ ±
ÃŃ d
Øª ÙĨ
Ġà¤¹ à¥Ģ
Ġters ebut
en as
em pl
un to
æ ħ
en en
iá»ģ n
à¹Ģà¸ ķ
Ġf est
ĠP ra
ĠÙ ¹
st o
ĠÐ¿ÑĢÐµÐ´ ÑģÑĤÐ°Ð²
Ġare a
iz a
áĢŀ áĢĬáĢº
àªµ àª¾àª¨
Ġf ab
Ġdiffer ent
Ġb ad
Ġa round
ir an
Ġm am
æĪ ¿
Ð°Ð» Ð¸Ð·
Ġæ ķ
å°ı æ¸¸æĪı
Ġs Ã«
ez i
ĠB re
j al
no ÅĽci
ĠÐ¼ Ð¸Ð½
à¦ķ à§įà¦·
æ² »
U B
iá»ĥ m
Ġb anyak
ãĥ »
Ġm ur
ìŀ Ħ
y p
ar on
ĠF ree
ãĤ¤ ãĥĪ
ig i
à¸Ķ à¸¢
ĠÂ ½
ÏĦ ÏīÎ½
Ġfo und
à¤¾à¤ ķ
ĠK am
ĠìĿ ĺ
ÑĥÑĢ Ñģ
Ã¶ d
éĹ ®
ãģª ãģ©
áĢģ áĢ²áĢ·
ĠK al
Ġch at
å® ¹
Ã¡ nh
à¸ķ à¹Ī
ading in
ĠÑĤ Ð¾Ð»ÑĮÐºÐ¾
as jon
ĠÏĥ Î±ÏĤ
£áĥ ļ
ÄĻ d
Ġai adingin
og raph
×Ľ ×ľ
Ġk ons
ĠU t
ĠI P
Ġs ame
it ate
k il
Ġfam ily
m ek
à¸Ľ à¸£
Ð³Ð°Ð½Ð¸ Ð·
amp ai
ĠÐ° Ð·
eg u
à¤¾à¤ Ī
g in
Ļà§įà¦ Ĺ
Ġm ic
áĥĺ áĥĺáĥ¡
ĠØ´ ÙĩØ±
cel ona
Ġserv ices
ãģĹ ãģĦ
Ġu 00
Ġfor t
Ø§ÙĦ Ø¨
Ġ×ŀ× ¢
ar Ã¡
ĠâĢ İ
ou g
åĳ Ĭ
Ð» ÐµÐ½Ð¸Ðµ
ĠØŃ Ø¯
Ġs ak
ĠEs c
éľ ¸
7 1
Ð½Ð¾ Ñģ
ĠB on
Ø§ÙĦ ÙĬ
ip p
we en
àµģà´ µ
al Ä±ÅŁ
ĠÐ´ Ð°Ð½
ÑĢ Ð¾Ð´
Ġre z
æ± Ł
ĠP L
Ġqu esto
Ġp em
ãģ¾ ãģĽ
z u
à¹ĥ à¸Ī
Ġkep ada
Ġext ra
ĠSep t
Ðº Ð¾Ð¹
Ġå ¦
Ġes per
Ġh app
ĠÃ®ntÃ¢ln iri
à¦ Ľ
ĠÛ °
Ġàª®àª¾àª Łà«ĩ
à®¿à® ªà¯įà®ª
á ¹£
ĠÐ¾Ð± ÑĢÐ°Ð·
ĠØ¯ ÙĪÙĦ
ĠÐ´ Ð°Ð²
h and
ĠL oc
ĠÐ± Ð°
Ð°ÑĢ Ð°
Ġcomp any
ÙĪ Ø§Ø±
è§Ĥ çľĭ
Ġinst all
ĠN ie
ct or
Ġä» ¥
Ð°Ñ Ĭ
j an
Ð¾Ñģ Ð¿
Ġz m
Ïģ ÎµÏĤ
il es
à«ĭ àªķ
ĠÎ± Î»Î»Î¬
at Ã³
iv el
ĠÎ´ Î¹
éĢ ł
ĠØ¨Ø§Ø´ Ø¯
ĠØ¥ ÙĨ
r in
ĠÙģ Ø±ÙĪ
Ġk v
ĠpÅĻ ed
ĠÐºÐ¾Ð½ ÑĤ
ĠO f
Ġn Æ°á»Ľc
Ġk ami
ib ilit
v ez
s g
ĠPl us
Ġk ay
uh an
à§įà¦ ®
×ĵ ×Ļ
Ġc ette
àª¾àª £
æ° Ķ
Ġal tern
Ġse in
it Ã¤
Î¼ Î¹
à±įà° ļ
Ġv ac
ĠØ® Ø¨Ø±
à§ĩà¦ Ł
ĠÐ½ Ñı
Ġt ÉĻ
æģ ¯
Ġtel ah
ĠR ad
Ø´ ÛĮ
ĠÛ±Û³Û ¹Û
Ð¼ ÐµÑĤ
nost i
è¿ ĺ
Ġim age
Ġà¤¯ à¤¹
ec i
ĠÎŃÏĩ ÎµÎ¹
en za
is es
s u
ĠWh at
Î¯ ÎµÏĤ
à¤ķ à¤°
Ð¼ Ð°ÑĤ
Ġvol t
Î¯ Îº
Ġ) {
m ark
Ġæ ¯
Ġà¤¤ à¥ĭ
Ġu w
×¨ ×Ķ
ek en
å¤§ åıĳ
ÐµÐ½ Ñĭ
áĢ Ĥ
9 2
Ġ ub
Ð¾ ÑĹ
if ica
à¸Ńà¸Ļ à¹Ħà¸¥à¸Ļà¹Į
Ġag o
Ġí Į
Ġpod er
Ġà®µ à¯ĩ
Ġl ed
âĢĮ ÙĩØ§
ĠÐº ÑĥÐ¿
Ġä½ Ĩ
Ġnu est
Ġg ay
ĠR os
Ñ ļ
Ø¹ Ø±
Î³ Î³
ìĦ ¸
j uk
åħ ¶
ĠØ¬ Ø§ÙĨ
àª Ń
ĠØ£ Ùħ
Ġfoll ow
ĠÑĤ ÐµÑĢ
ĠD ev
à¹Ģà¸ Ħà¸£
Ø§ÙĬ Ø©
ĠÎ¼ Î¿Ïħ
is o
ĠS ub
im et
at ura
áº¯ t
ĠÂ ¶
Ð´ Ð¶
Ġà¦ı à¦¬
Ġï½ ŀ
Ġem ail
ĠÏĥÏĦÎ¿ Î½
ĠÙĪ Ùİ
ĠÃ© l
Øª Ø§
áº¡ t
ic y
Å¡ i
Ġf riend
ĠR E
ãĥ¼ãĥ ī
Ïĥ ÏĦÎ±
ol t
Ã Ĵ
ÛĮ Ùĩ
ĠÑĤ Ðµ
Ġus ing
ÐµÐ¹ ÑģÑĤÐ²
Ġvoc Ãª
i Ã©n
Ġ ä¹
Ġor az
å¾ Į
ÑĤ Ñı
Ġap ar
ow ych
ãĥ Ķ
ĠâĢ ı
ob al
ìľ Ħ
ĠÑĥ Ð²
á»£ p
ĠF oto
r ig
Ġpr Ã³
àª¾àª ¦
Ð°Ð½Ð¸ Ð¸
ĠD em
Ġor der
ĠC ast
Ġm og
Ĵ Ī
æĺ Ł
om et
Ġà¦¨ à¦¿à¦
Ò ·
r Ã³
ÏĦÎ¹Îº ÎŃÏĤ
Ġal c
ĠI k
Ġë į
ì¶ľìŀ¥ ìķĪë§Ī
ĠNEW Part
Ñĥ ÑģÐº
áĢ¬ áĢĽ
à¯ģà® ªà¯įà®ª
ĠM ai
Õ µ
ÐºÐ¸ Ñħ
Ġf Ã¥r
å Ķ
Ġr ak
ĠØ§Ø³Øª Ùģ
Ġpro ces
Ġje j
á» ĥn
à°² à±ģ
Ġti áº¿
ĠØ§ÙĦ Ùĩ
ÅŁt ir
à°ª à±įà°ª
Ġh j
ç§ į
é£ Ł
Ðµ ÑĨÐ¸
Ð½ ÑĮ
Ġs udah
Ġem p
ĠÐĲ Ð»
Ġ×ŀ× ¡
Ïį ÏĦÎµ
iv at
Ú¯ Ø§ÙĨ
qu er
ĠÐ°Ð² ÑĤÐ¾Ð¼
Ð¾Ð³ Ð°
Ġen erg
es p
5 6
à¦ķ à§įà¦¤
m ed
Ġdet ail
åĪ Ĺ
Ġel e
±áĢ ĲáĢ¼
à¥ģ à¤²
ÙĪ Ø§Øª
æĭ Ľ
Ñĩ Ñĭ
ĠS and
Ġwid th
Ġà ¶
Ã Ķ
ĠF ra
ÛĮ Ø³
ÙĪ Øµ
ĠÑ ľÐµ
g eb
Ġinte gr
ĠW ith
à¤¯ à¤¾
Ġaut om
ÑĢÑĥ Ð´
ĠØ£ Ùĥ
Ø±ÛĮ Ø¯
åĮ Ĺ
åħ ±
Ã¤ s
Ġl an
Ġpr Ã©
0 1
ĠÃ ¢
ĠV en
Î¹Îº Î®ÏĤ
±áĢ Ľ
Ġç ¾
ĠÐ· Ð°ÑĢ
as z
U P
ĠìĦ ľ
zen ie
ĠB et
ĠThe y
è® º
is se
Ðµ ÑĦ
Ġs ort
Ġ×Ķ ×ķ×Ĳ
Ġh ai
ter e
Ġèĩ ª
à´² àµįâĢį
Ø± Ùĩ
à´Ļàµįà´Ļ à´³
ĠB i
Ñı ÑĤÐ¸
ĠPers on
cript ion
Ġsm all
ot i
Ġmar k
Øª Ø¯
Ġj en
Ã´ t
éĴ Ł
ĠØ§ÙĦ Ø²
è Į
ç½ ®
áĢ¸áĢ ŀ
os c
è ı
uk u
Ġà¸ ľ
Ġdi b
Ùĥ Ø©
åĪĨ å¿«3
Ð· Ðµ
Ġcom ent
Ġc ult
ãĥ³ãĥ ī
Ġm ÉĻ
ãĥ¼ãĥ ł
Ġáĥ ĸ
à°² à±ĭ
Ġm ust
ç ¡
Ġ6 3
ard a
àª¤ àª¾
Ġy az
áº© m
à¸Ń à¸Ķ
lich en
áĢ¸ áĢĢ
« áĥļ
Ġ×Ķ× §
b re
Ġenc ont
Ġl ub
ĠØ¯Ø§ÙĨ Ø´
à«ĩàª Ł
Ø¹ Ø¨
ä»Ģ ä¹Ī
Ġkom mer
Ġm ac
ĠN eg
è¯ ķ
à¹ī à¸²à¸ĩ
á»ģ n
Ġà¸ Ĺà¸µà¹Ī
à¸Ļà¸ ķ
ĠÐ³Ð¾Ð´ Ð°
er c
ê³ µ
Ġre ce
ĠØ¢Ùħ ÙĪØ²
ĠDown load
ap s
à¦¾à¦ Ĺ
çľ ģ
ĠS he
ĠÐº Ð°ÑĤÐ¾
Ġê ¹
h ir
Ã Ĥ
ek et
ĠBl og
b es
Ġæĺ ¯
un an
à¹Ī à¸²à¸Ļ
Ġkat ika
Ñĥ ÑĤÐ¸
ĠÃ© ta
Ġk ans
ÑģÑĤ ÑĢÑĥ
æł ¡
ĠçľŁ äºº
ah i
ë§Ī ìĤ¬ì§Ģ
ert y
Ġb oth
ĠB an
à§ĭ à¦Ĺ
Ġ7 7
Ġï¼ Ľ
Ġ7 2
Ã ļ
Ð¾Ð½ Ð°Ð»ÑĮ
à¤¹ à¤¾
åĬł çĽŁ
Ġg am
Ġs áº£n
Ġh od
our ce
ĠÃ ´
á»Ļ c
Ġhe eft
à¸¥ à¹ĩ
áĢ¯ áĢķáĢº
ĠI r
Ġtr at
ĠØ§ÙĦÙħ Ø³
re as
ang er
ami ento
ï¼ Ĳ
Ġh un
à¥ ĥ
Ġrequ ire
Ġåħ ¨
Ġ×ľ ×¢
ĠàªĨ àªª
ĠÐ½Ðµ Ð¾Ð±
Õ¥ ÖĢ
ik el
Ġnec es
re am
ĠW ir
Ð¸ÑĤ ÑģÑı
Ġì Ľ
or en
Ġ×ĳ ×ª
eb a
ĠØ´ Ùĩ
ĠÐ¼ ÐµÐ´
Ġp ub
ĠÚ©Ø´ ÙĪØ±
er ta
Ġå İ
st at
Ġdis pos
ĠPro gram
w ie
und en
ĠÎľ Îµ
Ġt Ã´i
áº¥ n
ĠL and
Ġk ok
à¸§ à¹Īà¸²
9 3
ĠPD F
Ð¸ÑĤ Ð¾
ĠÐº Ð°Ð¼
Ġbet ween
ä» ·
ĠÙĪ ÙĬ
Ġ6 2
Ġæ Ļ
Ġp Ãºbl
ĠL ond
Ġp Ã¤
Ġ×Ķ× ¡
ÏĢ Î·
Ġ8 3
ĠÑı Ð²
Ġtelef on
ĠÙĤ Ø¯
ĠF a
s c
ĠØ§ÙĦÙħ ØŃ
ĠA ust
Ñĥ ÑĶ
ģ áĢ²áĢ·
ĠáĢ »áĢķ
Ã¼n k
Ġpor que
à¨ ¾
ent er
ĠQ ue
à¦¦ à§ĩà¦°
ÐµÑĢ Ð³
em m
ĠÑĢÐµ ÑĪ
Ġ? ?
ĠåĪ ©
ĠÐ¸ Ñħ
å· ²
ĠÂ ¡Â
ĠF ilm
9 7
ĠP RO
íķ ł
à´ ¹
un kt
Ġsuc cess
Ġv ill
Ùĥ Ø§ÙĨ
è İ
Ġv in
Ã¼ ÅŁ
Ġch ÃŃnh
Ø£ ÙĨ
çĶ »
áĥĲáĥłáĥĹ áĥķáĥĶáĥļ
áº« n
ac ak
å¼ º
à°¿à°ķ à°¿
Î¿Ïį Î½
ES T
Ġç ½
Ġë Ĳ
Ġn ella
ĠE k
w ork
Ġo tt
Ġk ell
Ġj et
ĠS ams
à¸ļ à¸Ńà¸¥
ra j
l iche
m os
Ġí Ķ
Ġà®ĩ à®¨à¯įà®¤
ÅĤ ad
Ġre ad
Ġf akt
Ã¸ d
Ġb ank
Ġsch ool
ĠW ar
ãģ¾ãģĽ ãĤĵ
x e
Ġda ar
ì ¡°
ec to
u it
ĠC e
Õ¡Õ ¯
ÙĨ Ø§ÙĨ
ÙĪØ± Ø©
ÑĤÐ¾ ÑĢÐ¸
Ġ8 2
ĠØª Ùĩ
ĠL in
Ġz ak
Ġel ement
ĠV an
Ð¸ÑĤÑĮ ÑģÑı
å Ĥ
ĠÙģ Ùī
lar i
Ġc ara
æĹ ©
ĠM ak
Ġty p
ĠB ras
n it
Ġsm art
Ñĥ Ð»Ð¸
Ùħ Øª
Ġs ug
Ġl ight
Ġh á»£p
ê¸ Ī
ê ´Ģ
Ð°Ð· Ð¸
ëŁ ¬
g round
Ð¾ Ñī
Ùħ ÛĮÙĨ
Ð¿ ÑĢÐ¸
Ð¾Ð»ÑĮÐ· Ð¾Ð²
ĠÐ¾Ñģ Ð¾Ð±
ĠØ§Ø ·
è½ ¯
Ġv ert
Ġl is
àµģà´ £
Ġs Ã¼
ĠÚ¯ ÙģØª
Ġk ed
ĠáĥĶ áĥ¡
à«ĩ àª°
à¸¡ à¸²à¸ģ
Ø¹ ÙĪØ¯
Ġnh Ã¢n
5 2
ĠDes ign
is ion
æľ ¯
áĥĲáĥ ¤
âĢ Ķ
ma in
ate ur
à¯ĩ à®°
Ġde d
íĸ ī
éĺ ³
h ing
ĠA T
ĠÐ¿ Ð°Ð´
Ġà¦ı à¦ĩ
ĠÐ¼ Ðµ
d ate
ĠE L
Ġp ob
ãĥ į
ª à¯į
ĠØ§Ø³ØªÙģ Ø§Ø¯Ùĩ
Ġd ot
à¸ Łà¸£à¸µ
ĠåĪ Ĩ
äºļ æ¸¸
ab i
ij as
Ġn Ã©
åŃ Ĺ
y y
à´ ·
v ik
Î¼ ÏĨ
Ġ8 4
Ġne j
9 6
Ġà¸ģ à¸²à¸£
ìŀ ħ
ĠE U
à¤¾à¤ ĩ
og a
ÏĢ ÎµÎ¹
p end
ov en
Ġà¦¸ à¦Ĥ
ĠÑģ ÑĥÐ´
æĶ ¶
n Ã½ch
Ġ6 7
à°¿à° ¯
olog ia
Ġl le
Ġl im
ĠG ra
Ġr as
ĠPl ay
k Ã©
æĹĹèĪ° åİħ
Ġé «ĺ
Ġvis it
à®¿à® ´
äºī éľ¸
Ġar be
ÑĥÐ² Ð°ÑļÐµ
ĠØ¢ Ø¨
ĠT i
Î¸Î· ÎºÎµ
iz ione
íķ Ļ
ÏĪ Î·
æ² ¡
ìķ ½
Ġw ur
ĠH al
çİ ĩ
Ġpel o
à¦ «
ur en
d d
ĠkÃ¶n nen
Ġç ĭ
is Ã«
Ġf ast
k em
Ġk ho
éĿ ŀ
u ÅŁ
Ġv Å¡
à¯Īà® ķà¯įà®ķ
Ġt ap
Ġ| --
Ġpr ice
×ķ× ĺ
Ġç ¬¬
is et
ÏĦ ÏİÎ½
æľĢ æĸ°
Ùĩ ÙĨÚ¯
Ø§Ø¨ ÙĦ
Ġå° ı
å£ «
à¸£à¸µ à¸¢
ãĤ¹ ãĥĪ
áĢĨ áĢŃáĢ¯
Ġhe ight
ĠL ED
Øµ Ø¯
Ð°Ð³ Ð¸
à¸Ħ à¸¸à¸ĵ
Ġper t
imi ento
ëª ħ
Ġc it
ard o
ĠÑĥ Ðº
Ġle ft
áĥĺáĥ¡ áĥ¢
un un
åħ ·
à¥ĩà¤ Ł
ê² ½
Ġol m
Ø§Ø º
ÏģÎ¿ ÏĤ
b ul
Ġà¦¥ à§ĩà¦ķà§ĩ
Ġn Ã¡
ĠB or
Ġ8 7
æ¬ ¢
Ġb ot
Ġl ie
Ġf aire
ĠØ§ Ú¯Ø±
Ġmer c
é£ İ
å¿ ħ
Ġne xt
ĠH ab
ĠÐ ®
Ġí Ĩ
ĠI T
ç ħ
Ġ9 6
Ġæľ ¬
ä» Ĭ
A Z
Ġg eh
åį İ
ĠD ar
ĠS w
ĠC he
Ġcom me
Æ° a
art o
Ġp ower
Ø§Ø¹ Øª
Ġdur ante
ond a
ĠD ur
ĠSt ar
ĠS H
Ġhe alth
ãĤĮ ãĤĭ
5 3
Ġal d
Ġab y
us ed
ĠÐŁ Ð¾Ð´
ist rat
áĤı áĢŃáĢ¯áĢĦáĢ¹áĢ
N E
c Ä±
ow ie
ĠA uf
Ġs ik
Ġìķ Ī
à¯ģà®³ à¯įà®³
áĢ±áĢĲáĢ¬ áĢ·
ĠÐ½Ðµ Ð´
Ġ$( '
à°Ĥà° ¡
ÉĻr bay
ĠØ¯Ø§Ø± Ø¯
ĠAr ch
Ġà´Ĵ à´°
ĠB ud
ĠAll ah
Ġcas ino
il ik
Ã¶ tt
à°¿à° ª
Ġespec ial
ĠÄĳá»ĭ nh
áĥĲáĥ ĳ
Ġà¦Ĩ à¦°
Ġca o
ĠV iá»ĩt
Ġke h
Ġ×Ķ× Ľ
ÑĢÐµ ÑĤ
×ķ ×Ļ
Ġz ÅĤ
Ġnum ber
à¤Ĥ à¤Ĺ
ĠAnd roid
ĠÃ© v
Ġa ce
Ġt on
ĠP en
Ġp ela
ĠÑĢÐ°Ð ´
Ã³ ÅĤ
à¥įà¤ ª
n ego
ĠáĢ ±
ÄŁ er
ĠÃ ħ
æ© Ł
Ñĸ Ð±
it ions
áĥĿáĥ ª
et an
ÃŃt Ã¡s
ÐµÑĢÐµ Ð·
am il
ĠØ¹ÙĦ ÙĬ
em at
Ġpr ime
ul es
Ġar ch
ĠV a
Å ŀ
à¸Ń à¸ķ
ĠÐ² Ð°ÑĪ
Ġh ari
èĬ ±
àª¾àª° à«ĩ
ist Ã¤
od i
Äģ l
Ġ Æı
Ġà¸ Ĭ
à¥įà¤ ķ
Ġ×ĳ ×Ķ
ãĤ ±
Ġal gun
ĠP op
Ġ11 0
c in
âĢ¦âĢ¦ âĢ¦âĢ¦
ĠÒ³ Ð°Ð¼
ens ion
Ġt art
Ġs Äħ
ĠÃ§ alÄ±ÅŁ
id an
Ġb and
ĠçĻ ¾
åĨ Ľ
Øª ØŃ
Ġn r
Ġì ¡°
Ðº Ð°Ð½
Ġsin h
åı¯ ä»¥
Ġpre m
d om
ĠÐ¼ Ð½Ð¾Ð³Ð¾
Ø§ÙĤ Ø¹
Ð½ ÐµÐ¹
Ð¾ ÑĦ
Ġa st
ãĥķ ãĤ
ĠD ig
Ð¾ Ñħ
Ġar m
à±įà° ¸
ĠW o
ä¸ ĵ
ĠÐµ Ðº
Ġp ier
S S
ĠÐ± Ð°ÑĢ
5 7
æ¡ Ī
áĢ¬áĢ¸áĢ Ļ
el ing
à¦² à§ĩ
ĠØ¨Ø± ÙĨ
Ġval ue
ĠCh at
ĠÂ£ Â¬
Ġh Æ¡n
ãģ¨ æĢĿ
Î» Î¹
Ø¯ ÙĬØ¯
ĠÐ» ÐµÑĤ
Ġ8 6
ĠÑĢÐ°Ð· Ð²
Ġbr and
áº£ ng
Ġto o
ĠW orld
Ġêµ ¬
à¥įà¤ ¸
ĠÃº lt
ÑĤÐµÑĢ Ð½
b ack
ĠÐ¿ ÐµÑĢÐµÐ´
um an
áĢĽ áĢ¾
ĠN av
ĠD at
Ġl agi
ied er
bo x
Ðº Ð¾Ð³Ð¾
Ã¡ ly
Ġo v
æĶ ¹
áĥĲáĥ ĸáĥĶ
ì ¦
à¦¾à¦ ¶
à§ĩ à§Ł
ou p
áĥĹ áĥĲáĥľ
ÉĻ si
Îµ Îº
à´¾à´ µ
ÛĮÙħ Øª
Ġh vor
y er
ĠÐ¾ÑĢ Ð³Ð°Ð½Ð¸Ð·
Ġm ess
Ã©r ie
ze j
ĠK ol
Ġact ual
ĠÐ· Ð°Ð³
ãĥĥ ãĥĹ
Ø¹ Ùħ
ĠH y
asÄ± nda
Ġ ell
ĠÐĲ Ð²
ĠSex o
ĠInd onesia
à¸£ à¸·à¸Ń
ĠB ook
Ġ19 0
à®¤à¯įà®¤ à®¿à®²à¯į
ÅĻ e
Ġsel v
Ġæ Ľ
ĠJoh n
áĢŀ áĢ°
Ġ] [
Î¯ Î¿Ïħ
Ġ3 D
Ġmot or
Ġ200 2
ĠØ± ÛĮ
ĠB ro
à¹ī à¸Ļà¸
Ġem pl
Ïģ Î¯Î±
ĠJ ust
à´¿à´¨àµįà´ ±àµĨ
Ð¾ Ñŀ
Ġim pl
æł ĩ
à° ¹
Ñĭ ÑĪ
Ġw an
Ĭ é¾Ļ
Ġess ere
éĿ Ĵ
ĠD I
ĠÄĳá» ģ
Ä« g
à± Ĥ
Ġs ama
ĠO t
Ġbu ild
ÄĽ l
íĶ ¼
id ir
Q U
ĠC a
Ø± Øª
é£ ŀ
s ka
Ġf ant
Ø§Ùħ ÛĮ
ov i
Ġ×Ķ× Ĵ
Ġà´ Ł
Ġm Ã¬nh
ĠâĢĭâĢĭ âĢĭ
à¦¾à¦¦ à§ĩà¦°
ĠÐĺ Ð·
à®ªà¯įà®ª à®Ł
Ġmund o
ĠØŃ ÙĤ
Ġpre mi
Ġm iss
C E
Ġsh ort
åĬ ©
in ÉĻ
Ġc y
à±įà° ®
ÑĢÐµ Ð·
Î¼ÎŃ Î½Î¿
ĠØ§ÙĦ Øº
Ġáĥ «
áĢ¬áĢ¸áĢ ŀ
Ġì¹´ ì§Ģëħ¸
ĠF ebru
Ġc ui
à§ĩà¦ ¤
Ġ×Ĳ ×ķ
Ùħ ÙĥÙĨ
à¹ĩ à¸ļ
und o
é¦ Ļ
ĠB ay
Ġcontin u
Ġs Ã£o
ĠJ u
ĠáĥĲáĥ ĵ
Ã¼ ks
Ġsep erti
à¸±à¹ī à¸Ļ
ÑĤ Ð¾Ð±Ñĭ
Î¬ Ïģ
Õ¡Õ µ
ĠØ§Ø³ ÙĦØ§Ùħ
ĠÃ¼ Ã§
ĠP our
ÉĻl ÉĻr
: :
Ð° ÐµÑĤÑģÑı
Ð½ Ñİ
k ing
Ġm b
ÏĦ Î¿Ïħ
Ġst rateg
em ente
Ġf ile
åĨ Ĩ
ĠI ch
q ip
Ġg az
âĢ¦ ]
Ð°ÑĤ Ðµ
áĥĿáĥĳ áĥĺáĥ¡
ĠB ak
Ġæŀ ģéĢŁ
á»¥ c
è ¼
un s
ĠT u
Ġm ik
ĠiP hone
is p
Ġä¸ ī
Ġc ase
Ġ×ľ ×©
od en
Ġap a
ma il
Ġëĵ ±
ĠÐ¸Ð¼ Ð°
ar ta
Ġáģ Ĥ
éħ į
la ÅŁ
ĠÐ¿ÑĢÐ¾ ÑĦ
Ø±Ùĥ Ø©
im os
ÐµÑģ Ð¿
Ġæ ¬
Ġngh iá»ĩ
å¾ ĭ
S I
Ġl ek
Ġ×© ×Ĳ
í ģ
ĠØµ ØŃ
à¹Ī à¸²à¸¢
ĠÙĦ ÙĦÙħ
Ġl imit
ĠÐ¼ Ð¾Ð»
ĠEs te
Î¯ Î¿
in ar
ĠÎĳ Î½
ĠÐĿ Ð¾
Ġ18 0
Ġáĥ¨ áĥĶáĥ
re c
D A
Ġâ ĩ
ĠÐļ Ð¾Ð¼
à° ľ
à«įàª¯ àª¾
à¹Ħ à¸Ĺà¸¢
×ŀ ×¨
o ir
ish i
is ka
ec ek
p art
ĠF ir
Ġk ung
Ã¡l nÃŃ
à´¿à´² àµįà´²
ÐºÐ¾ ÑĹ
áĥ£áĥ ľ
Îµ Ïĩ
k al
Ġact ivit
à´ ¬
ĠáĥĹ áĥĲáĥķ
ĠAug ust
un de
ie i
Ġæ ³
Ġ[ âĢ¦]
Ġw ind
ĠÑĢ Ð¾Ðº
æĶ ¯
ĠÙ¾ Ø§Ú©
Ġs ag
ĠÄĳá»ĵ ng
Øª ÙĪ
Ø±ÛĮ Ú©
Ġé ĺ
Ġfa it
Ġpro b
ĠCh ina
à«įàª ²
Ã¡ ra
Ġàª ¡
ĠPro duk
Ġty m
ê² ©
Ġx xx
Ġan ak
Ġ7 6
id ing
r ice
h op
ä¼ ĺ
ÏĢ Î¹
áĢĬáĢ¹áĢ ·
à¸§ à¸´
ÑĤ Ñĥ
Ġàª¤ à«ĭ
ĠNov ember
Ġsang at
æķ ´
ç ª
ĠÂ ¼
Ð½ Ð°Ðº
b on
j Äħ
ĠT ab
ì ¶Ķ
us o
Ġãĥ ķ
à«įàª¯ à«ĭ
ĠìĬ ¤
Ġke ep
ÑĤ Ð¾Ð²
Î² Î±
ĠT om
Ġpod e
Ġ ãģ®
à«ĩàª ķ
çĪ ±
æ² ³
åĲ Ħ
Ġà¦ §
ĠÐ¿ÑĢÐµ Ð·
ĠS ab
ĠS ar
çł Ķ
ros oft
Ġtra v
ĠÎºÎ± Î¸
Ã¶r t
ÑĢ Ð¾Ð½
Ð°ÑĨ ÑĸÑĹ
Ġj el
8 6
ĠÐł Âµ
Ġbene f
Ġà¦ªà§įà¦° à¦¤
Ġg em
Ġà¤² à¥ĩ
ĠÐŁ ÑĢÐ¾
Ġc art
Ġx e
Ġro om
áĢħ áĢ¹
Ġmod ern
Ġtr Ã¨s
é© ¬
å ³
×ĳ ×¢
á»ĳ t
Ġà¤ķ à¤¾à¤°
Ñı ÑĢ
an ces
áģ¿áĢķ áĢ®áĢ¸
ĠNe xt
Ð» ÐµÑĤ
Î¼ Î¿Ïį
im at
Î»Îµ Ïħ
Ġä¸Ń åĽ½
id ay
Ð°Ñħ Ð¾Ð´
Ġeur o
à¦¿à¦ ¶
Ġg ive
ist s
en ci
Ø§Ø± Øª
" ,"
Ġ: -
em en
ĠSept ember
Ġc amb
Ġv ec
Ð¸ÑĤ Ñĥ
Ć ą
ĠK an
Ġexperien ce
à¤ķ à¥Ģ
Ð°ÑĤ Ð¸Ð²
à¸ķ à¹īà¸Ńà¸ĩ
al er
un o
Î»Î¿ ÏĤ
Ġå º
Ð¿ Ð¾Ð²
àª¿ àªµ
×ŀ× ª
Ġgo ing
Ġq il
Ġàª¸ àª®
le p
Ġáĥĺ áĥľ
à¹Ģà¸ ļ
Ġà¦ ĺ
ĠWh en
à¸µà¹Ī à¸¢
å½ ¢
ĠÑį ÑĤÐ¸
ìĹ Ń
Ã Ī
åĪĨ éĴŁ
th ing
ĠæĹ¥ æľ¬
à´¾à´ ķàµįà´ķ
l ess
Î¹Îº Î¿Ïį
Ø® Ø§Ø¨
Ġmak s
Ð· Ñĭ
Ġáĥĺ áĥĽ
ãĥ Ģ
áĥĶáĥł áĥĺ
á Ł
ere a
à®° à¯įà®ķà®³
ÙĤ Ø·
à´ ļàµįà´ļ
ĠãĤ ·
ĠÚ© ÙĦ
Ú© Ø³
Ð°ÑĢ Ñĭ
Ġre port
ĠÐº Ð°Ð¶
à´ Ń
Ġan o
Øª Ø±ÛĮÙĨ
ĠÚĨ Ùĩ
l ement
Ġthe o
Ġf it
Ġcomp et
ÙĬ Ø«
å¾ ·
à¸« à¸¡
Ġæ ¶
Ġg ot
Ġm ant
ĠØ§ÙĦØª Ø¹
Ġr Ã©s
ĠÑĤ Ð¾Ð²Ð°
Ġm Ã¡r
Ð½Ð¸ ÑĨ
8 9
L A
à¹Ģà¸ Ĭ
Ã© se
í ĴĪ
Ġp ur
Ġne p
ãĢ Į
à¸Ńà¸¢ à¹Īà¸²à¸ĩ
ta ble
ĠÙĬ Ø¹
Ġàª¤ àª®
ach t
ãĥ ¯
ëĲ ĺ
èĢ Į
Ġp end
Ġìŀ Īëĭ¤
Ġf ew
ĠT re
ĠÙĪ Ø¹
b ud
ass en
Ġro ku
ĠÐ· Ð½Ð°Ñĩ
ow i
ĠÐ¾ÑĤ Ðº
Ġind ic
Ġé Ľ
ĠÐº Ð¸
ãģł ãģĳ
ak in
z em
áĢĲ áĢļáĢº
à¹ģà¸¥ à¹īà¸§
ĠâĢ¦ .
Ã³ t
Ġpa ÃŃs
Ð¾ÑĢ Ð¾Ð²
ĠáĥĴ áĥĲáĥĵ
ĠØ¬Ø¯ ÛĮØ¯
r ada
ne h
i ar
ow o
el ik
ĠÐ´Ðµ ÐºÐ°
ĠÐ³ ÑĢ
Ġil ÉĻ
ìĺ ģ
Ġb em
ĠFran ce
ĠÐ±ÑĥÐ´ ÐµÑĤ
à®® à¯įà®ª
b ed
åħ ļ
ĠO g
ĠA qu
Ð½Ð¸ ÑĤ
ĠA le
ĠØª Ú©
Ð¿Ð» Ð°ÑĤ
ĠÐ»Ñİ Ð´
ĠP ok
Ä ·
Ø®Øª ÙĦÙģ
ĠÐ° Ñģ
ĠJ eg
Ġnatur al
M A
ĠØª Ø¨
ĠS om
Ñĸ ÑĪ
Ġge Ã§
åıĳ å±ķ
å ¡
ovÃ¡ nÃŃ
å¤ ´
Ġk Ã¼l
Ġcons um
Ġsp r
Ġcur rent
ĠØ® Ø§ÙĨ
è½¯ ä»¶
art en
à¦ ¡
Ġsist ema
ĠÏĥ Î·
á»© ng
ĠáĢĴ áĢ®
z at
Ġà¦ıà¦¬ à¦Ĥ
áĥĿáĥĳ áĥĲ
Ġc Ã²n
Ġg ev
Ġsam t
ĠM ah
Ġtra baj
Ġim g
ĠBar celona
ÐµÐ½ ÑĤÐ°
Ġé Ļ
â ĸ
ĠÐł Ñĳ
5 4
ç ļ
Ġs oll
à¹ī à¸³
ch Ã©
áĢŃáĢ¯ áĢĦáĢ¹áĢ¸
à±ģà°² à±ģ
Ã¥ de
or u
Õ ¿
Ã¨ me
Ġp emb
Ġl en
Ġbas ed
ĠÐ° Ð¼
×ĵ ×¨
Ġmo Å¼
ĠU na
ĠAz ÉĻrbay
ä¸ ¤
ĠS eb
á ¿
àµĨ à´Ł
ir os
áĢľ áĢ¬
Ġneb o
Ġl it
ĠN on
Ġ} .
áĥĲáĥ ¦
Ġt eg
Ġpu ede
Ġb ord
Ġma x
ĠVide os
ĠUn ter
Ġ×ľ ×¤
Ġqu ando
ĠPl an
ro f
ĠØ° ÙĦÙĥ
èī ¯
ĠÐŀ Ð´
ĠC r
à«įàª¯ à«ģàªĤ
Ġ6 1
á»ĳ n
Ø§Ø¹ Ø§Øª
ÑĥÐ² Ð°ÑĤÐ¸
áĢ° áĢ¸áĢ
åĽ Ľ
ĠØ§Ù ĵ
ĠìĨ Į
Ġse arch
ÙĦ ÙĤ
Ġå ±
ĠØ¯ Ø§Ø¯
è¶ ħ
Ġpr ess
j Ã¸
Ġs á»Ń
Ã¥ ng
Ġrec ord
Ġmá» Ľi
ok at
çĻ º
Ġt ud
Î³ÏģÎ± ÏĨ
ĠPar is
Ġpro c
Ġal b
ÃŃ cul
Ñı Ð³
Ġb ay
Ġcel eb
åı Ĥ
Ġn Ãªn
ÏĮ Î³
ĠI h
½ Ķ
Ġà´ ¦
Ġword t
Ġ áĥĲáĥľ
Ġmem il
n Ã«
Ã³ m
ĠÎ¼Îµ ÏĦÎ±
Ð» Ð°ÑĪ
ĠÙĨØ¸ Ø±
ĠÙĩ ÙĨ
ĠØ¨ Ùħ
Ġse us
ĠK os
ĠÑĥ Ð¼
emp o
ĠA kt
ĠâĨ ĳ
z et
Ð» Ð°Ð¼
ĠÐ½ Ð°Ð»
éŁ ³
ativ o
Ġk ry
ĠØ§ÙĦ Ø§ÙĨ
Ġk ui
ë Ħ
Î½ Ïī
Ġpr i
à¦¦ à§įà¦
it ud
Ġà¤ķ à¤¿à¤¯à¤¾
à¤¾à¤Ĥ à¤ļ
ĠÐ¾ Ð³
ÙĬ Ø§ÙĨ
Ð¾ÑĤ Ð°
ab b
iá»ĥ u
Ð¾Ð³ Ð¾Ð²
ĠÃ £
Ġæī ĭ
ĠãĤ ³
Ġ î
iz ed
Ðł Ñĳ
am er
ãģª ãģı
Ð°Ñ ĳ
Äģ ci
à°¿à° ²
Ø±ÙĬ ÙĤ
k ie
ord in
Ġ ãģ¾
v ious
ĠØª Ø³
ĠSams ung
Ð» Ð°ÑĤ
æ ļ
Ø§ÙĨ ÙĪÙĨ
à´ķàµįà´ ·
ĠUS A
×ł ×Ļ×Ŀ
ä¿ ®
à°¾à° Ĥà°
Ġgar ant
Ã¡ ban
Â ª
Ġ9 4
Ú© Ø±
è ħ
Ä £
Ð½Ð¾ ÑĤÐ¾
Ġìľ ł
Ġy et
Ñĥ Ð»Ñı
Ġà¤¹ à¥ģà¤
c as
ç» Ħ
kl ad
Ġå ī
Ġproj ekt
Ø§Ø¦ ÙĦ
Ġs ans
ist an
ĠèĢ Į
Ø² Ø±
ib li
ĠØ¨ ÛĮÙĨ
iv ing
Ð¾Ð» Ð¸
h in
Ġa Ã±os
ÏģÎ¯ Î¿Ïħ
ÄĻ p
Ġj Ã¡
ies z
àª¿àª ²
Ïĥ Î¯Î±
Ġmom ento
Ġm and
ab les
Ġke y
ĠÛ² Û
s on
Ġinclud ing
Ġ×ĳ ×¨
is ha
Ġd á»±
Ġv eg
· à§įà¦Ł
å¤ Ħ
ĠØ¨ ÛĮØ´
ĠÐ¼Ð¾Ð¶ ÐµÑĤ
ĠØ¨Ø§Ø² ÛĮ
n ou
ec ut
5 1
ÑĥÑĢ Ð°
ke it
ÏĦ ÎŃÏĤ
Ġc Ã¡ch
à°¾à° ¤
ãĤ º
à®° à¯įà®ķà®³à¯į
Ä±m Ä±z
áĢĲ áĢ¹
Ġpr ima
Ðĺ Ð
ĠáĥĲáĥ ¡
Ġk Ãµ
à¸²à¸ ķ
Ð°Ñĩ ÐµÑģÑĤÐ²
ĠÑĢÐµ Ð³
Ġel Åĳ
ĠØ® Ø·
æ¸ ¯
ĠÐĳ ÐµÐ»
ĠÐ½ ÑĥÐ¶
Ġc oll
Ġinter est
Äį ky
ĠÎĶ E
Ġl ugar
ig ur
ĠÐ±Ð¾Ð»ÑĮ ÑĪ
Ġmu ito
us u
ä¹ ¦
ad t
Ñı ÑĤÑĮ
os sa
Ö Ħ
Ġorgan is
Ø§Ø¹ Ø©
Ġv s
Ġth áº¿
è» Ĭ
à¹īà¸Ń à¸¡
Ġwit hout
Ġm ut
le ction
á»ĵ i
Æ°á» Ł
ĠÙĪ ÙĦ
Ð½ Ð°Ð¹
Ġel se
à¸Ļà¸ ´
Ð» Ð°Ð¹Ð½
Ġc ad
ĠBa ÅŁ
åĢ ¼
l ish
æµ ĭ
àµģà´ ±
g ra
Ġè ¦
×ľ ×Ļ
Ð± Ð¸
ĠK Äį
à¸³ à¸«
Ġà¤® à¤¹
É Ķ
Ġ200 1
ĠD it
ĠHot els
Ġà¤Ĩ à¤¹à¥ĩ
ĠáĢľ áĢ°
Ġam er
Ġ ic
Ġw s
ÏģÎ¿ Ïį
Ġw r
n Äħ
à´¾à´¨ àµįâĢį
N G
ĠÃ©t Ã©
b urg
àª¾àª ³
ìĭ ¤
ĠÕ °
ĠdÃ¼ ÅŁ
S E
Ġáĥ¨ áĥĶáĥ¡
Ġkar ena
ìĿ´ ëĭ¤
Ø§Ùģ Ø©
Ġdet te
à¦ķ à¦¾à¦°
íķ ©
à«įàª ¸
9 1
F F
à¤Ĥ à¤¦
Ġs op
Ġw rit
Ġp in
ĠØ§ÙĦØ¹ Ø±Ø¨
Ġ9 2
à¦¨ à§ĩ
àµģà´¤ àµįà´¤
Ġal ways
à«ĭàª ²
Ó ¯
ĠD V
Ġsp an
Ġc rit
ÈĽi i
å· ±
ĠMa x
ri ft
Ġë ¹Ħ
Ġtah un
y un
sk Ã©
æĿ ĳ
Ġå¤§åıĳ å¿«ä¸ī
ĠL i
Ġz aman
ĠK u
ĠØ®ÙĦ Ø§ÙĦ
Ġa pl
ĠJ es
Ġ8 1
à°¿à° °
ov Ã½
ĠÐ¾Ð± ÑĬ
ĠktÃ³ re
ĠØµ Ùģ
ĠÐ· Ð°Ñģ
Ġd ays
ÑĦ ÐµÑĢ
Ø¬ Ø§Ùħ
Ġaqu est
al en
Ġt av
Ġ7 4
àª Ī
Ġd ent
ĠH ow
ĠÎ± Î³
Ġc ert
ĠÙĦ Ùĩ
ĠãĤ «
Ġà´ħ à´µ
ãģ§ãģĻ ãģĮ
D E
Ġse pt
à°Ł à±įà°Ł
ĠS v
ar Ä±
Ġ" ]
Ġta x
Ġc Æ¡
Å¡t ÄĽ
Ã ı
à®¾à® ®à¯į
ç Į
nÃ© ho
ìĥ Ŀ
ĠM P
ĠØ´ Ø¨
æŁ ¥
Ġup p
ë© °
b ir
æĸ ½
ĠB ank
kon om
h ad
é¡ ¹
st ell
Ġâ Ī
ĠM es
Ġm p
Ġ7 3
ĠÙ¾ Ø§ÛĮ
Ġro b
Ð² ÐµÐ´
ĠØ§ÙĦÙĬ ÙĪÙħ
ç¦ ı
ĠY ork
Ġt w
ÏĢ ÏīÏĤ
à´ ¡
Ġ, .
åĬ ŀ
ĠÛģ Ùħ
c ak
ib ile
ers te
ĠÐ¿ÑĢÐ¾Ð¸Ð· Ð²Ð¾Ð´
m b
à¸²à¸ «
ÐºÐ° Ñĩ
Ġm ere
Ġg Ã¼
ut sch
ãĤĤ ãģ®
ìĦ ł
à° ¬
ĠÃ µ
_ c
ĠH or
ĠØ¹ Ø§Ùħ
à¦¿à¦ Ł
Ġr áº¥t
à¸µ à¸ģ
×ķ× ŀ×
IN E
Ġz ab
Ġt un
y an
ard en
ĠW at
Ġs yn
ë° Ķ
çİ ĭ
Ġun ha
à¸ķ à¸£
¹ æŀľ
Ġh os
ĠÎ¼Îµ Î³
Ġì¶ľìŀ¥ ìķĪë§Ī
çĥ Ń
Ġn agy
Ð°Ñģ Ð¸
Ġi hr
à°¾à° ®
×ķ×ł ×Ķ
ĠÐº ÑĬ
re et
áĢ± áģ¾áĢĢ
re en
Ġæ Ģ
9 4
ĠÐ¿ÑĢÐ¾Ð´ ÑĥÐº
Ġas i
áĢ¬áĢ¸áĢ ľ
ĠR et
Ġthá» Ŀi
à°Ĥà° ²à±ĭ
áĢĽ áĢ½áĢŃ
ic ally
Ġì ¢
Ġé ģ
Ġà§¨ à§¦
ĠEur o
n em
um at
Ġbl ack
Ġlitt le
ĠÙĤ ÛĮÙħØª
az on
ĠD ies
Ġber b
Ġcon n
Ġth ree
Ġcap ac
à¸²à¸ Ī
áĢĶáĢ¹áĢ Ļ
ot ta
Ïĥ ÎºÎµ
T M
Äį ÃŃ
ĠáĢ±áĢ Ľ
Ġre present
Ġç¾ İ
ÏģÎ± Î³
Ġl ak
å® Į
ĠÃ Ģ
Ġpra ct
×© ×Ķ
Õ¡ ÖĢ
ĠÃ ĵ
àª¾àª Ĺ
Ġtr Æ°á»Ŀng
Ġà¸ ĭ
Ġal ler
Ġs r
æ¶ Ī
ĠÑĢÐ°Ð ¹
v id
Ġäºļæ¸¸ éĽĨåĽ¢
æŃ ¤
à¤ķ à¤¾à¤°
Ø§Ø® Øª
un ÈĽ
ĠãģĿ ãģ®
ĠIt alia
ĠÐ¿ÑĢÐ¾Ð³ ÑĢÐ°Ð¼
à¯ģà® °
Ø§Ø± Ø¬
Ġs un
Ġv ra
ĠÐĲ ÑĢ
ÅŁ a
Æ°á»Ł ng
å° Ķ
æĿ ¡
Ġt ecn
çĻ ½
à¦¨ à§ĩà¦°
Ġc ual
×ķ× Ķ
Î¸ Î®
ĠØ¨ Ø´
Ġh Ã¬nh
Äĥ t
vis or
ĠØµ ÙĪØ±Øª
ãĥ Ŀ
Ġm ember
ĠMad rid
Ø§Ø¦ ÛĴ
Ġed he
Ġà¹Ģà¸ ŀ
ĠJan uar
Ġf oc
ãĤĮ ãģ¦
Ð° Ðµ
Ġdur ing
Ġ. :
¯ ¼
Ġgib i
Ġàªķàª° à«Ģ
els en
am is
ãĢ İ
Ġk im
Ġth Ã´ng
Ïħ Î½Î±
à¦¾à¦ Ł
ê± °
Ø¬ Ø±
ot to
ãĥ ¢
ĠÐľ Ð°Ðº
Ġh ref
à§įà¦ ¨
ĠÚ©ÙĨ ÛĮØ¯
Ġv os
Ð°Ñģ ÑĮ
Ò ĳ
ĠÐº Ð»Ð°Ñģ
Ġme et
ĠÑĤ Ð¾Ð³Ð¾
ĠÑģ ÐµÑĢ
Ġthá» ±c
ĠTe chn
ĠO ur
ĠÙħ ÙĪØ±Ø¯
ĠK ont
Ø¶ Ø¹
áĥĲáĥ ¬
Ð¸ Ð¶
l Ã¼
Ø§Ø °
Ġm w
ih an
Ġ×Ķ ×Ķ
Ġd ra
Ġk art
ĠØ´Ø± Ú©Øª
Ġson ra
ĠN i
C lass
Ġà° Ī
Ġse v
re v
Ġt anto
åı ĭ
ĠÃ¼ z
Ġback ground
ĠCas ino
ij k
áº¡ nh
ĠâĢľ ,
Ġh ij
àª¾àª Ī
l im
Ġden ne
ĠJ ah
ëį °
æĺ ĵ
Ø§Ø± Ø³
Ġà¤ħ à¤¨
d es
oug ht
ĠØ¨ Ø§ÛĮØ¯
Ġos ob
ĠT est
Ġt iene
ĠÐ¿ÑĢÐ¾Ð± Ð»ÐµÐ¼
ĠØ¹ Ø¨Ø¯
ĠÑģÐ°Ð¼ Ð¾
k ed
Ġà® ı
Ø§ÙĪ ÙĦ
Ø§ Úº
áĥł áĥĿ
Ġ×ŀ× §
Ġb ody
ì Ļ
à¦¾à¦ ļ
Ġdis play
à´¿à´ µ
Ð¾ÑģÑĤ ÑĮ
ĠApp le
Ġch ang
Ä±n Ä±z
Ġb az
ab e
ks i
ìĭ Ŀ
Ġv Ã¡l
Ġ×ľ ×ĳ
çĶ ±
ĠUnivers ity
á» Ĺ
h ok
Ġl uc
ĠP u
N A
Ð» Ð°Ð½
Ġf our
à°¾à° Ł
er ia
ĠÏĥ ÏĦ
ĠÑģÑĤ ÑĢÐ°Ð½
à¸± à¸¢
Øª Ùī
è¾ ¾
Ġbe aut
Ġt end
ĠØŃ Ø¶
Ġpop ul
Ġà¤ §
ĠD ia
éĸ ĭ
T S
ç® Ĺ
ĠÑĩ ÐµÐ»
ĠN or
Ġr am
n ed
Ð¸ ÐºÐ°
àµģà´£ àµįà´Ł
in os
ĠB at
åĪ Ľ
à¦¾ à§ľ
ĠmÃª me
ar ak
Ġan os
Ġl um
Ġà¦ª à¦¾à¦°
at os
ĠP el
à´ķàµįà´ķ àµį
ĠÎµÏĢ Î¯
ç ¬
ÏĦ Ïī
ĠP os
Ä« dz
Ġs Ã¶
ĠH igh
Ø§ÙĦ Ø§Øª
Ġs Ã©
Ġà¦ľ à¦¾à¦¨
åĳ ¨
z on
Ġ9 3
àªĤ àª¤
Äį ka
Ġtamb iÃ©n
ĠOr gan
ĠM uj
ho z
Ġbet ter
Ġorig inal
ap er
ĠÐ¸ ÑģÐº
àµįà´ ¥
Î ĵ
il ir
Ġel le
àª¾àª° à«Ģ
20 20
Ġh az
ĠÐ²ÑĢÐµÐ¼ Ñı
ĠL et
Ġáĥ ¯
åı ¤
åĵ ª
áĥķ áĥļ
Ġs j
ĠØ´ ÙĨ
Ġw enn
ĠC ur
ĠØ§ÙĦØ¯ ÙĪÙĦ
Ġu y
Ð°ÑĨÐ¸ Ð¾Ð½
ĠØ§ÙĦÙħ Ø¹
èĩ ³
ÙĪÙĨ Ùĩ
Ð½Ð¾ÑģÑĤ Ñĸ
Ġthá» ©
ĠII I
Ġhac er
id d
ĠÐ± ÐµÐ»
Ġtamb Ã©m
Ġà¦ī à¦ª
ãģ ¹
ĠA u
ê¹ Į
Ġmed ic
ik ip
B A
is l
ĠH an
Ġposs ible
el es
ÑĤÐµ ÑĢÐµÑģ
ÑĢÐ°Ñ ī
Ñĥ ÑīÐµÑģÑĤÐ²
Ġmej or
ĠÑĨ ÐµÐ½ÑĤ
ĠÑĥÑĩ Ð°ÑģÑĤ
ĠÄĳ iá»ģu
ort s
Ġëı Ļ
Ġan meld
ĠC op
Ġim ag
Ġë§ Į
à¦¿à¦¤ à§ĩ
Ã¦ l
Ġjs em
Ġth ings
ķ Į
à´¸ àµį
Ġìĭ ł
ĠÐµ ÑģÐ»Ð¸
à¤¾à¤ ¬
Ġæ ł
Ġi b
áĢģ áĢ»
Ġis s
ĠØ§Ùħ Ø§
Ġãģ Ĥ
Ġä¸ º
Ġ9 1
k m
Ġd y
à¥ģ à¤¨
Ġl ic
if i
Ïĩ Î±
ĠÑĢ Ð¾Ð±
ĠÐ± Ð°Ð½
z el
åł ±
Ð°ÑĨ Ñĸ
ĠáĥĲáĥ ¦
Ġdan n
à¦¾à¦ §
C O
Ðº Ð°ÑĤÐ°
Ġå¦ Ĥ
Ð°ÑĢ Ð°Ðº
ala xy
ÐłÑķ Ðł
Ð¿ Ð¸
ê° ľ
Î² Î¬
ĠÐ¿ Ð¾Ð½
ĠA fr
Ġn Äģ
ĠT rip
ĠÐ¸Ð½ ÑĦÐ¾ÑĢÐ¼
Ġsa ÄŁ
Ġh ang
Ġsu re
à¥ĩ à¤²
ÏĦÎ¿ Ïį
ĠÙĬ ÙĤ
à®¾à®Ł à¯įà®Ł
ĠÐº Ð²
ĠÙģØ±ÙĪ Ø´
Ġh ak
Ġpre par
ĠÐĶ Ð»Ñı
ÎĻ Îĳ
ĠCh a
»áĢķ áĢ¬
Ġv ie
éĺ Ł
Ø§Ø² ÛĮ
à¥įà¤ ¦
Ġco ok
çĶ °
ĠUS B
Ú© ÙĦ
áĢķáĢ« áĢĲáĢļáĢ¹
j oy
ĠÑĤ Ð¾Ð¼
ĠRe al
ĠÑĤÐ°Ðº Ð¶Ðµ
rib ut
ett ing
Ġà¤ª à¤¹
ĠCl ub
å¯ ¾
Ġvi ol
uk i
em y
lig a
Ġìĺ ģ
ĠÎ ¡
åĳ ³
Ġal m
ĠÙ¾ Ø³
Ġst ore
æį ®
ÙĬ Ø¨
Ùģ Ø¹
à«įàª ·
un ik
ĠktÃ³ ry
ĠT ot
è° ĥ
Ñĭ ÑĤ
Ġà®µ à¯Ĩ
ĠÙħ Ùĩ
ĠìŀĪ ëĬĶ
Ġs ide
ÑĢÐ°Ð ¹
à¸ģ à¸±à¸Ļ
v u
ê° ķ
alar Ä±
Ð°Ð»ÑĮ Ð½Ð¾
Ġhab it
Ġ. [
ä¾ ¿
Ġ} ,
åĸ ľ
Ġqual ity
ĠÑģÐ¿ ÐµÑĨÐ¸
ad ora
ĠI M
Ġìļ °
L C
et as
Ġpol ÃŃt
ĠÚ© ÙĨØ¯
Ġod p
à¦¿à¦ ®
ÑĥÑİ Ñī
Î¼Î± ÏĦÎ¿ÏĤ
ĠØ§Ùģ Ø²
Ġse hr
á»ķ i
à¸¸ à¸ģ
ĠÙĨÛĮ Ø²
Ġf ond
ĠÏĥ Ïĩ
áĥĹ áĥķáĥĺáĥ¡
à°¾à° ķ
ĠØ± Ø§Ùĩ
àª «
is ed
íĸ Īëĭ¤
ÑĢ ÑĬ
ĠSa int
h ur
Ġma ch
Ø³ Ø·
Å¯ j
Ġë ¯¸
v Äĵ
op t
Ġle het
ĠÐŁ Ð¾Ð»
ill s
ubl ik
Ð² Ð°Ð½
ĠãĤ µ
ĠEur opa
Ð° ÒĽ
ÑĢ Ð°Ð»
Ġåı ¯
Ð³ Ð¾Ð´
f ar
ord an
à®¿à® ļ
åı ª
à¸¥à¹ĩ à¸Ńà¸ķ
à®© à¯įà®©
ÃŁ e
ĠÐ± Ð¾
T V
ĠUS D
Î¸ ÎŃ
Ġqu a
ä¼ģ ä¸ļ
ÐµÐ½Ð¸ Ñİ
ĠÙħ ÙĬ
à®Ł à¯ģà®¤à¯įà®¤
Ġgener al
Ġë ħ
ĠA lex
ang o
áĢŃáĢ¯ áĢĢáĢ¹áĢ
ÐĲ Ð
Ġv om
Ġt ay
å§ ĭ
à¹ī à¸²à¸Ļ
ĠÙ¾ Ø±ÙĪ
ĠÐ±Ñĭ Ð»Ð¾
ill o
a el
ic le
T I
we i
Ġfo od
éĹ »
ãĥ Ļ
éĺ ²
ìĿ Į
Ä±s Ä±
b ek
ĠÐ· ÐµÐ¼
ĠÐ³ Ð°ÑĢ
Ġpop ular
ÙĤ Ùħ
Ġs iz
ĠN ord
ĠÎº Ïħ
ĠB ah
Ú© Ø§ÙĨ
Ġk val
Ġà®Ĵà®° à¯ģ
Ġ, -
Ġja ar
ãĤĬ ãģ¾ãģĻ
ul an
Ġpart ir
Ø± Ø§
ĠÐ¾ÑĢ Ð³Ð°Ð½
Ã¢ t
ip e
ĠI d
Ġd od
Ġv as
à° £
Ġac qu
Ġè ĭ
Ġk á»
y la
Äĥ ri
Ġtip o
v Ã¡
Ã¼ d
åľ° åĿĢ
Ġ16 0
ĠM ur
ens a
ĠØª ÙĪÙĦ
it us
å· Ŀ
Ġà®¨ à®Ł
Ø§Øª ÛĮ
ĠáĥĲáĥ łáĥ
ĠÚ¯ ÛĮ
ÏģÎ¹ Î¿
un ya
ë¶ Ħ
àª¨ à«ģàªĤ
p an
Ġáĥ£áĥ ľ
Ġm ap
Ġè ´
ter ior
Ø® ÙĦ
ie ve
Ð¾ÑĢ Ð¾Ð½
le ich
ĠMar ia
Ġà¤¦ à¥ĩ
ĠØ® Ø¯Ùħ
ĠÐ´ ÐµÐ½
ÑĢÐµÐ´ ÐµÐ»
Ùģ Ø¶
ĠA cc
ĠÐ´ ÐµÐ½ÑĮ
Ġim ages
Ġpr est
ĠN r
ÏģÎ¹ Î½
åŃ ĺ
ĠÐ¼ ÐµÐ¶
ÏĨ Î±
Ġp ov
ĠC i
ĠC el
à¤Ĥ à¤¡
Ġve el
å¹ ¿
all s
w at
Ð¼ Ðµ
à¯Īà®¯ à®¿à®²à¯į
u ur
ì ħ
Ġæ Ķ
B N
ĠåĪ© æĿ¥
Ġh ost
ĠØ§ÙĦØ£ Ùħ
ek si
Ġg ol
om as
à¯Ī à®¤à¯įà®¤
ĠØ¯ Ùĩ
Ġ% ,
Õ¸ÖĤÕ ´
Ġc il
Ġpr Ã¡
am y
à¦ Ļà§įà¦Ĺ
Ġbu y
ĠTag s
âĢ ĺ
Ġàª ¯
on ia
Ġaus si
Ġu00 3
ĠÙħ Ø¨
Ġat i
ĠK ir
áĢ ı
Ä±l an
Ġsec ara
Ġg ebru
Ġæ İ
Ġà¤ħ à¤¸
it te
Å¾ ÃŃ
ĠÙĪ ØŃ
Ġj ur
Ġsz Ã¡m
olog ie
ri bu
Ġl ÃŃ
Ïİ ÏģÎ±
Ġáĥ¡áĥĲáĥ ®
ĠK er
owe ver
ar ly
Ġm Ã¶
Ġ×Ķ× ĵ
à¸´ à¸ĩ
ĠÎ Į
ab ilit
Ġà¸ ¢
ĠG R
Ġv ast
id ed
f s
Ġnorm al
Ġf og
Ø§ Ø§
áĢģ áĢ¼
ĳ ľ
Ġt eng
Ġç½ ĳ
ĠáĢ ļ
ĠB ol
Ġabs ol
Ð· Ñĸ
Î´ Î®
Ġh en
Ġk ah
Å¡an as
Ġprov ide
Ġp ic
ang g
Ð½ Ð°ÑĤ
ĠÙĪ Ø§ØŃ
ĠÂ ¡
ĠØŃ Ùħ
un ter
ĠV ar
Ġto ur
eth ing
al y
Ð»Ð¸ Ð·
Ħ áĢ¶
Ġà¤¸à¤¾à¤ ¥
Î¹Îº ÎŃÏĤ
ĠÃ Ķ
è¨ Ī
uj Äħ
Ġs is
Ġ' );
Ġp ati
Ġ% .
à®ªà¯įà®ª à®Łà¯įà®Ł
ĠV or
re di
er b
ĠãĢĳãĢĲ ãĢĤ
Ġm 2
Ġé Ĥ
ä» ĭ
à§ĩà¦ ĵ
à¦¾à¦ ģ
D R
Ġpor n
Ġba ik
ow ej
ĠØ· Ø±ØŃ
ob re
é¢ Ĩ
ning er
à´¿à´Ł àµįà´Ł
Ġd v
èĤ ¡
ĠáĥłáĥĿáĥĽ áĥĶáĥļ
i q
×¨ ×ª
ĠMar ch
ri an
Ġpr et
ĠSt ud
ac z
Ġhist or
ow anie
ĠÑĥ Ð¶Ðµ
Ġt ik
à§ĩà¦ ®
Ġw al
Ġg overn
ĠÐºÐ¾ Ð¸ÑĤÐ¾
Ġde z
Ġw in
ĠC E
Ġê ´Ģ
Ġcon v
Ġà¦ķà¦° à¦¾
ĠM A
Ġhum an
Ð¾Ð± Ñī
ĠÙĨ ÙĪ
ÑĢ Ð°Ñħ
Î Ķ
Ġà®¤ à¯Ĭ
à°ķà±įà° ķ
ĠM ari
Ø² Ø´
ĠIn c
Ġãģĵ ãģ®
ØªÙħ Ø§Ø¹
éĤ Ģ
íĨ ¡
o ch
Ø§ÙĦ Øª
åĪ ĩ
ìĹ °
Ñ ľ
ĠØ¢ Ø²
ĠV ir
ight s
Ġáĥ¨ áĥĶ
à¸²à¸ Ĭ
Ġdis p
ÑĥÐ½ Ðº
à® ¸
Ġt s
Ġê° ľ
Ġl ov
ick Ã©
Ġ×ľ ×Ĺ
u ale
à¦¾à¦ ĵ
I m
ĠÐºÐ¾ÑĤÐ¾ÑĢ ÑĭÐµ
ĠSp iel
à¤¾à¤ ı
Ġtrans port
m el
Ġpe ut
n ah
è¶ Ĭ
Ġè ¡
Ġä¸ ĭ
åħ Ń
è¯ ģ
éķ ·
Ġc ard
r ast
Ġb ard
ĠìĦ ł
lig e
ĠIntern ational
emb ro
Ã ķ
Ø§ÙĦ Ø©
ect or
ĠØ¯ Ø§Ø®
e arch
ĠF ar
Ġà° Ń
n ic
Ġtr y
à¸¥ à¸ĩ
Ġpr Ã©s
Ġà¤ķà¤° à¤¨à¥ĩ
Ġé ¦
un ch
ĠÐµ ÑģÑĤÑĮ
å· §
ĠM ore
ĠÙĥ ÙħØ§
ĠÐ¿ÐµÑĢ Ð²
à´¾à´° àµįâĢį
Ġáĥĺ áĥ§
Ġ7 1
c ze
Ġand re
ĠH ist
ç ¿
ĠÐº Ñŀ
Ġn Ã¤r
ĠÚ¯ Ø±Ùģ
Ġ ie
r ir
\ /
ĠÚ¯ Ø°
ãĥ© ãĤ¤
Ġperf ect
il an
d at
Ã¶ m
T O
Ġå½ ĵ
Ġis ang
Ġo kt
êµ Ĳ
ĠP ower
Ġst op
Ġé »
Ð½Ð¸ Ñĩ
Ġáĥ¡áĥĲáĥ¥ áĥĲáĥłáĥĹáĥķáĥĶáĥļ
ĠT od
Ġw iÄĻ
Ġ| |
ĠáĢķ áĢ¼
ĠÎĳ Ïħ
à´¾à´ ¸
ĠÑĨ ÐµÐ»
ih at
l k
us z
Ùİ ÙĦ
Ïģ Ïħ
a it
Ġê¹ Ģ
ĠâĦ ¢
ìŀ ¬
ut z
isi Ã³n
ĠB lu
è¯ Ŀ
ett y
ĠA y
Ġ×Ĵ ×Ŀ
ĠJ ag
Ġm g
Ã³ p
Ġm ange
Ġl ing
Ġí ĥ
ĠÑħ Ð¾ÑĢ
u is
ĠL E
ÑģÑĤ Ð¾Ð½
l ov
Ãº p
Ġ×¤ ×¨
ĠÐľ Ð¾ÑģÐº
Ġm art
ÛĮ Ø²
ĠÑģ ÑĤÐ¾
Ġà®ķ à¯Ĥ
ĠÙĪØ¬ ÙĪØ¯
is ht
áĥĺáĥ¡ áĥĺ
8 7
c iones
Ä± yor
Ġs ci
Ġt ara
Ġjs ou
it ional
ler in
Ġcom mer
or um
íĺ ¸
ĠØ³ Ùħ
ĠÏĨ Î¿
Ġà´¸ à´Ĥ
Ġàª §
Ð¾Ð· Ð¸
ĠÏĥ Ïį
ĠâĢ ķ
ĠÑĢ Ð¾Ð´
Ġf otos
åº Ĩ
ãģĹ ãģ¾ãģĻ
ow ied
or no
Ġprz ed
Îµ Ïį
Ġb ude
Ġno i
ĠN y
ÏĮ Î¼Îµ
Ð¾ ÑĢÐµ
if ied
y z
é¤ Ĳ
ĠÏĢ Î±Î¹
ĠÂ ¸
ĠÙħ Ø§Ùĩ
ÙĨ ÙĬØ©
Ġsem ua
Ġb ert
cha ft
à¦¿à¦ ¦
Ò³ Ð¾Ð¸
ĠÙĩ ÙĬ
Ġv iz
Ð² ÑĢÐ¾Ð¿
à®Ļ à¯įà®ķà®³à¯į
ĠÑĤ ÑĢÐ¸
æ ¿
Ö ¼
z za
ï¼ ĳ
Ġhas ta
Ø§Ùģ Øª
Ð¼ Ð°Ð½
R L
Î· ÏĥÎ·
ĠP ot
åĩ Ĩ
ĠÎ® ÏĦÎ±Î½
Ġst ra
Ġà¤¹ à¤®
áº¡ ng
C C
Ġtem per
en ia
Ġa plic
Ġà´¨ à´¿à´
Ġàª ĺ
Ã¤ v
ĠÎ´ Îµ
Ġvi Ãªn
Ġl ow
ĠF est
Ġ7 00
Ø§Ø±ÙĬ Ø®
pl es
ib a
ãģ¾ ãģ§
Ġk amp
Ġ á»į
Ġl Ã½
áĢĶ áĢ²áĤĶ
Ø§ÙĦ ÙĬØ©
owa Äĩ
Ġh anya
im mer
è® ®
Ġcu ando
ĠS A
Ġinter ess
Ġ14 0
í ŀ
ĠL is
Ġac est
Ġqu ot
à¥Ĥ à¤°
é¢ Ħ
ÙĪ Ø·
Ã ħ
ãģĹ ãĤĩ
Ġap ro
Ġt ub
ri ed
ĠÑĩ ÑĤÐ¾Ð±Ñĭ
Ġ×Ľ ×Ļ
ÐµÑĢ ÑĤ
á»ĵ ng
ĠÑĤ ÑĢÐµ
Ġfir m
b s
ĠÑĤ Ð¾Ð²
ĠSy stem
ec er
ĠR am
æĭ į
Ġà¹Ģà¸ §
Ġa ur
ic ar
ĠR el
ĠÐ¿ Ð¾Ð³
Ġà¤¸ à¤ķ
Ġpro ced
Ġn ett
áĥł áĥĺ
Ġéĩ ĳ
èĲ ¥
ĠB ed
ot er
ec z
Ġloc ation
Ġb aj
ÐµÐ¼ Ñĥ
ĠR us
Ġ" >
ĠÐ°Ð± Ð¾
áĢ° áĢ¸
ĠPh il
Ã³ k
ÐµÐº ÑĤÐ¸Ð²
Ã¤ hr
Ġå° Ĭé¾Ļ
Ġl iter
Ġìĺ Ī
ĠP AR
Ġà° ¶
Ġtra ck
Ġheb ben
Ø§Ø¨ ÙĤ
Ñĺ Ð°ÑĤÐ°
ang kan
Ġå ĳ
S A
Ġf ix
b and
à§ĩà¦ ¬
Ġan h
Ú© Ø§Ø±
à¸Ļà¸ §
Ð°Ñİ ÑĤÑĮ
Ġtra bal
è «
ì Ī
Ġm ana
Î» ÎµÎ¹
ĠSt and
´ë Ŀ¼
à¤Ĺ à¤¾
ÑĢÐ°Ð ±Ð¾ÑĤ
ĠáĥĲáĥ ®
ĠÑĨ Ðµ
Ġand ere
ÑħÐ¾Ð´ Ð¸Ð¼
Ġl ess
ĠØªÚ¾ Ø§
Ġproduct s
Õ« Õ¶
ĠØµ ÙĨ
ow ania
Ġt ari
Ġ Ø§Ú©
à§ °
Ð¸Ð½ Ð³
ĠÐ´Ð¾Ð» Ð¶
Ġà´ ±
à´¿à´² àµĨ
Ïĥ Î¿ÏħÎ½
Ġàª¤ à«ĩàª®
áĥĲáĥ Ŀ
Ġy ak
åł Ĥ
à§įà¦ ķ
áĥĲáĥ £áĥ
ìļ ´
ĠÐ£ÐºÑĢÐ°ÑĹ Ð½Ð¸
Ġen vir
8 3
ĠK or
Ġv ent
ĠIn f
ĠÃł s
ĠÃ Ī
Ġkh Ã¡ch
Ġvers ch
et to
à±ģà° °
Ġ×ķ ×ŀ×
Ġcl ick
Ġy an
w as
Ġimport ante
Ġc ant
à«ĭàª ¡
ĠK ap
ãģĵãģ¨ ãģĮ
Ġre ci
à¸ł à¸²à¸ŀ
ĠC R
à¯Īà® µ
ĠÐ± ÐµÑģ
Ð¾Ð· Ð´
à®± à¯įà®ķ
ĠØ¹ ÙĨØ¯
Ġchild ren
Ġapp ro
Ä± ld
éľ Ģ
à´¿à´ķàµįà´ķ àµģà´¨àµįà´¨
ed y
Ã¸ re
Ġmob il
æ ĳ
Ġc áº¥p
ut h
æ ĵ
ë² ķ
Ġ13 0
Õ¥Õ ¬
Ð½Ð¸ ÐºÐ¾Ð²
à¸ª à¸¸à¸Ķ
ĠÙħÙĪ ÙĤ
Î¿Î½ ÏĦÎ±Î¹
ent ly
à®¿à® ®
Ñĥ ÐµÑĤ
Ġn Ã¥g
Î´ Î¹Î¿
ĠP ag
Ø§Ø¯ ÙĬ
Ñĥ ÑĤÑĮ
ĠA tt
Ð² Ð°Ð»
ĠØ§ÙĦØ¹ Ø§Ùħ
ĠØ¨ ÙĪ
ĠìĹ °
Ð°Ð¼ Ðµ
unÈĽ uri
å£ ²
ĠÎŁ Î¹
Ġide a
Ġo ma
àµĭ à´Ł
Ġs ac
Î½Î¿ Î¼
ì¶ľìŀ¥ ë§ĪìĤ¬ì§Ģ
Ġest ar
z w
Ġwith in
ĠCl ass
ĠÃ ĥ
ëł ¥
Î»Î» Î±
uy á»ĩn
è© ±
Ġl y
ĠA li
è´ ¨
Ġ×Ĳ ×ķ×ª
åĽ ł
ak er
Ġho use
Ð¾Ñģ Ð¾Ð±
Ð°ÑİÑĤ ÑģÑı
ĠÑģ Ñĩ
Ġc iv
ĠØ³ ÙĨ
Ġà®ħ à®°
ĠØŃ Ú©
Ġìķ Ĭ
Ġbil an
Ġh iz
Ġà´ Ń
Ġreg ul
ĠGr and
Ø° ÙĦÙĥ
Îµ ÏĢ
æŀ Ĺ
ĠÎľ Î±
Ã¼l t
à¥ģ à¤ķ
ÑĢ ÐµÐ½
ĠÑĥ Ñģ
à°° à±į
Ġsh op
ĠÑĤ ÑĢÐµÐ±
Ġs ell
ĠIn s
ĠÃ¼Ã§ Ã¼n
Îº Î±Î½
al ing
ĠW i
ĠØ´ Ùħ
ĠS K
Ġà¤¥ à¤¾
Ġfil es
re ich
à¤ ·
Ġz ona
v as
áĢ±áĢ Ļ
Ġab le
Ġ$( "
à¹Ģà¸ĩ à¸´à¸Ļà¸
ĠÐ¿ÑĢÐ¾ÑĨ ÐµÑģ
Ġfr am
Äĵ m
åĮ ħ
ÃŁ en
C D
s et
ec a
à°Ĥà° Ĺà°¾
Ã³ b
r zy
Ġæĺ ¨
od u
Ð¼ Ñĭ
áĥĿáĥ Ĺ
Ġn Ã¥r
à´¾à´ Ł
at Ã¡s
v ia
ĳ Ĳ
Ġp Äģr
èĲ ½
Ġpre c
áĥĺáĥĵ áĥĲáĥľ
ĠÐ½Ð°Ð¿ ÑĢÐ°Ð²
ĠQ ual
à°¾à°² à±ģ
à§įà¦ ļ
um mer
ĠðŁ ĺ
ãģ¨ ãģĹãģ¦
Ø¨ ØŃ
Ġ} );
Ã Ĩ
ĠM ult
ĠÐ¿ÑĢ Ñĭ
ĠM c
ĠA w
Ġt ema
ÑĨ Ñı
al le
Ġáĥ§ áĥķáĥĶáĥļ
ĠÐº Ð°ÑĩÐµÑģÑĤÐ²
Ġqu el
Ġar Ä«
Ð°ÑĢ Ð¾Ð´
Ġà¤¯ à¤¾
Ġsom ething
Ġber k
M T
Ġmen c
Ġh Ã¤r
áĢ¯ áĢĲáĢ¹áĢ
Ġ ä¹Ł
ĠÐ¾Ñĩ ÐµÐ½ÑĮ
Ġindivid ual
Ġà´ Ĺ
ĠØ§ÙĦ Ø¢
Ġd ess
z in
ett en
Ġter min
Ĺ ä¸ĩ
Ġba ÄŁ
Ġku wa
Ġla bor
j at
Ġz ar
Ã¼ h
n as
ä½ ı
à¸Ń à¸Ńà¸Ļà¹Ħà¸¥à¸Ļà¹Į
Îº Î¹
ac ja
ĠÐ¾Ð½ Ð»Ð°Ð¹Ð½
ĠØª Ùģ
Ñı Ñģ
l Ã¤
éĤĢ è¯·
ĠØ³ Øª
Ġvá» ¥
Ġn or
Ġg ut
Ġà®® à¯ģà®
Ġlar ge
í ĽĦ
Ġc es
ent os
ent ial
à§ĩà¦Ľ à§ĩà¦¨
Ø§ÙĨ ÙĬØ©
he it
ç± »
ĠÃ ½
Ġt Ã©
Ġë Ķ
Ġê° ķ
d as
N o
ĠR em
Ġ9 00
Ġà° ¹
................ ................
Ġs os
à´¿à´ ªàµįà´ª
åº ľ
Ġa in
Î½Î¿ Î½
áĥļ áĥĶáĥĳ
×ĳ ×Ķ
Ġn ab
à¹ģ à¸ļà¸ļ
er te
æĿ ¿
Ïĥ Î±Î½
ĠÙģÛĮ ÙĦÙħ
Ġap art
Ġf an
oh n
×ł ×ķ×ª
Ñĸ Ñħ
Ġmuj eres
ĠÐ¿ Ð¾Ð±
Ġr ela
å¤ ª
» áĢģ
Ġinter es
ĠØ¹ÙĦ ÙĬÙĩ
ĠÑĤ Ð°Ð¼
Ð ¥
Ġf ue
Ġq e
àª ĸ
Ġc Ã¹ng
ãĥ¼ãĤ ¸
ĠT ek
Ġv ien
íĨ ł
ci os
us to
ĠÐł Ð°Ð·
Ð½ ÐµÐ²
àª¾àª° àª¾
Ġra g
q q
ind o
Ġst ate
ĠC O
amb a
ì² ´
áĢľ áĢĬáĢ¹áĢ¸
Ø® ÙĪ
Ġpers o
ĠN ach
Ġæ ¸
il di
ur ile
b it
Ġbl ir
ëª ¨
if y
Ġsim ple
ä» İ
à¹Ģà¸ Ī
ok u
×ķ× ĸ
ĠMic rosoft
åį ĵ
Ġd ÃŃa
ed es
r iv
à¤ ł
ro k
Õ« Õ
ĠAd min
Ð»Ñı Ð´
Ġopt ion
Ġk ort
ĠH om
ĠE xt
ĠØ¨Ø¹ Ø¶
ì ¡
ĠÑģ ÑĤÐ¸
Ġz i
Ġdeg li
U K
ec te
eng e
ĠÑħ Ð¾ÑĤ
Ġe c
ĠL eb
ç®¡ çĲĨ
Ġì¹´ íĨ¡
ĠY a
å® Ŀ
Ð°Ð»ÑĮ Ð½Ð¾Ð³Ð¾
nÃŃ ch
í İ
ok e
Ġk us
Ġn ut
ĠÐ° Ð»
Ġb Ã©
ent al
Ġà¤° à¤¾à¤ľ
Ġ×Ķ× ¦
Ġk en
ÑĬÐ» Ð³
à¦°à§įà¦ ¬
eg i
Ġv z
ĠÐº Ð°ÑĤ
æĪ ĸ
áº¥ u
ĠÙģ Ø¹
ek e
Ġtod ay
Ġfot ograf
Ġan ni
Ġb agi
å½© ç¥ŀ
à¥Ģ à¤¨
ed ir
ĠS outh
ĠR esta
ation en
ĠÐł Ñķ
ĠP ak
eber apa
ĠTh at
ĠØ® Ø±ÛĮØ¯
Ø§Ø¯ Ø±
åĮ »
E B
Ġag åĽ½éĻħ
à¯įà® £
Ġv iv
Ġstand ard
å¤ ľ
Ð°Ð´ Ð°
ot en
Ġresp ect
f ol
ĠÎł ÏģÎ¿
×© ×Ļ×Ŀ
Ïĩ ÎµÎ¹
×ŀ ×ķ
ĠÎ± Ïĥ
ĠØ¢ Ù¾
ĠØ¨ Ú¾
Ġph áº©m
Ġf ill
l Ã¡
Ġprofess ional
æĹ ħ
Ã¡ri os
Ã¨n cia
ĠnhÆ° ng
Ġne ver
à´ §
à¤ ¥
ÙĬÙĨ Ø©
Ġam bi
ik ut
cl us
Ġan no
Ú© Ú¾
Ġst an
ĠÐº Ð¾Ð¶
M S
Ðº Ð°Ñħ
Ļ à¯įà®ķ
à¹Ģ à¸Ń
ĠÃ į
ĠÙĬ ÙħÙĥÙĨ
ĠX X
Ġm Ã©
Ø¬ ÙĦ
Ø§ÙĪ Ø±
éĽ »
Ġà¤ľ à¥ĭ
Ø§ÛĮ ÙĦ
Ð°Ð¹ ÑĤÐµ
à¸± à¸į
olog i
à¸ľ à¸¹à¹ī
d ek
ĠÑĤ ÑĢÐ°Ð½
à¸³à¸« à¸£à¸±à¸ļ
ĠÂ ¤
Ġl Ãªn
æ¯ Ľ
à¸Ķ à¸´à¸ķ
Ġhe ad
Ġì Ļ
ĠÐ¼ Ð¾Ð¼
Ġs ia
ÑĢÐ°Ð ±
p as
Ġtod as
Ġtr Ã¬nh
Ġtemp s
Ð¾ÑĤ Ð¸
áĢ¯áĢŃ áĢĦáĢ¹áĢ
çĶµ å½±
à¸± à¹Īà¸Ļ
ĠAl le
Ġis e
ĠB ra
ĠØª ÙĦ
Ġs ad
ĠPa ul
Ġ íķ´
çł ´
Ġà¦¤ à¦¿à¦¨
ĠÑıÐ² Ð»Ñı
ĠØ§ÙĪ ÙĦ
atur es
Ġbo x
ve is
h ed
ig het
ĠC L
Ġà¸ ĸ
ĠìĹ Ĩ
á» «
à¥ĩ à¤¤
us an
ĠÐŀ Ñģ
ÉĻ h
´ ĳ
en ces
ĠÎº Î¹
Ġcs ak
Õ¡ ÖĢÕ
Ïĩ Î½
ãģĭ ãģ£ãģŁ
áĢģ áĢ¯
èĩª å·±
æľį åĬ¡
ĠV ill
Ġ= =
ĠT im
æĹ¥ æľ¬
ĠçĶ µ
æĿ Ĳ
ĠI de
ar se
Î¹Îº ÏİÎ½
Ġm ight
Ġkull an
ĠÎ¸ Îµ
åĥ ı
Ð°Ð½Ð¸ Ð¹
ĠM ens
ĠS anta
Ġk ez
ĠN ap
Ġch ange
end re
ĠB B
Ġpr akt
Ġìĥ Ŀ
og en
à¦° à¦¾
ĠEsp a
Ġkh Ã¡c
ĠnÃ³ i
Ġh ely
èģ Į
ĠÄĳ ang
ĠØ§ÙĦ Ùī
Ñĩ Ð°
er min
à°ļ à±įà°ļ
Ġh elt
ĠI V
áĤ Ĳ
Ġse ks
Ġb un
×Ļ× Ĵ
ĠÑĦ Ð°Ðº
ĠÙĪ Ø¥
Ð°Ð½ Ñĭ
Ġso ftware
Ø³ Ø§ÙĨ
v ad
Ġãĥ ĸ
Ġkad ar
Ø§Ø±ÛĮ Ø®
n ers
Ġãĥ ¬
ĠS n
ĠÐ¿ Ð°
Ġgo ed
Ġcom ments
Ġsh are
ang k
Åĳ k
Ġs Ã¤
à´¾à´ Ĥ
Ø³ ÙĦ
Ġn er
ãģĹ ãģ¾
Ġes pa
æķ Ī
à¯įà®¤ à¯įà®¤
Ġt we
æŃ ¥
Ġmo et
Ġc ode
Ġ×Ķ× ĸ
Ù¹ ÛĮ
j ud
àª¶ à«ĩ
Ã¤l t
ĠÐ²Ñĭ Ñģ
ĠUn ited
æĹ¶ éĹ´
es en
am u
8 4
Ġle vel
ĠØ§ÙĦØ³ ÙĬ
r el
Ġle ur
ĠM em
ĠØª Ø¯
Ðł Ðħ
Ã ĺ
à«ĩàª ¸
Ð°Ð¶ Ðµ
ĠP ut
éħ Ĵ
àª¾àª ķ
ek er
à¯Ĩ à®°
áĥ£áĥ Ľ
Ġtrans form
áĥĶáĥĳ áĥ£áĥļ
Ad visor
Ġbeg in
ÏģÎ¹Ïĥ Ïĥ
is ia
ĠÐ¿Ð¾Ñģ Ð»ÐµÐ´
ĠS pr
ĠCom o
ÉĻ ri
¥ à«ĩ
Ġé ķ
å¹ ²
ep t
Ġè §
ĠÙħÙĨ Øª
Ð°ÑĤ Ð¾ÑĢ
áĢ¸áĢ Ľ
à¸´à¸¡ à¸ŀ
ĠAzÉĻrbay can
ĠÙħ Ø®ØªÙĦÙģ
ĠÑĤ Ñĭ
Ġà¹Ģà¸ Ķ
Ġdig ital
ć Ĉ
ĠØªÙĪ Ø§ÙĨ
Ġtut ti
¦ ¬
Ġpos ition
Ġfe el
ÅĻ ed
Ġch Ãºng
å¸ ¦
Ġsp ot
Ġsing le
ff e
Ġws zyst
ĠÐ² Ð°Ð¶
Ġf all
Ġ×ĳ ×Ĺ
ÛĮÙĨ ÛĮ
ar ed
w id
Ã© ben
Ġì µľ
ĠÐ´ Ð¾Ð²
Ġan other
ĠÎ´ Î¹Î¬
Ġbi áº¿t
Ġf ly
æ· ±
Ð°Ð½ Ñĸ
Ġí ĸ
Ð¡ Ð¢
Ġw erk
ĠÐ· Ð°Ñī
Ġfr an
Ġos s
Ġh Ãłnh
ro u
8 2
li y
æ¨ ¡
c Äĥ
ÅĤ ug
lar Ä±nÄ±
ĠU nt
ĠO ver
ĠÎº Î¬Î½
Ġ ã
à´® àµįà´®
ĠAl t
ien ia
Ð¡Ð Ĥ
r Ã¤
ĠH el
ĠJ un
ag em
r s
Ùİ ÙĨ
ĠA h
Ġmaj or
Ġ×ķ ×ľ
ĠåĬ ł
ĠÂ ¾
Ġde ux
Ġàª¹ à«ĭàª
ÙĬ Ø´
Ġmes mo
ĠJ une
Ġob ject
Ä« bu
ĠØ§Ø· ÙĦ
Ġpartic ular
ko z
Ð¸Ð½ Ðµ
ĠØ¢ÙħÙĪØ² Ø´
çĶ ·
ÏĦÎ· ÏĤ
Ġf ur
Ġper c
ĠáĥĲáĥ ¥
Ġd alla
Ïģ Îº
ĠJ ac
is z
Ġmus ic
ĠÎ±Î½ Î¬
ĠB ad
à¸Ļà¸ °
ĠáĢ±áĢ Ķ
ĠÐ¼ Ð°Ð¹
ãģ »
åĨ į
ĠØº ÙĬØ±
ĠÎ±Ïħ ÏĦÎ®
iyy ÉĻt
asy on
ĠØ¯ ÙĦ
ãģ ³
ãģŁ ãĤģ
-------- --------
p li
æīĭæľº å®¢æĪ·ç«¯
Ġs aj
ÏģÎ¹ÏĥÏĥ ÏĮÏĦÎµ
ĠÐ·Ð°Ðº Ð¾Ð½
Ġà®ª à®Ł
ĠØ§ÙĦÙħ Ø³Øª
Ġà¦ľà¦¨ à§įà¦¯
Ġval or
j ut
é º
ãģĹãĤĩ ãģĨ
è§ ģ
ion en
ĠØ¯ÛĮ Ú¯Ø±
Ġb lo
ĠSo cial
Ġmen os
ĠmÃ¡ y
ĠÏĩ Î±
à°¾à° µ
Ġge en
ãĥ Ħ
æĬĢ å·§
Ġe h
à¦¨ à¦¾
ï ¾
ĠÛ° Û
ĠÎ¼ ÏĮ
à¸²à¸£ à¸ĸ
Ġd zie
Ġaut omat
à§ Ī
Ġres earch
Ġsh um
ĠÚ¯ Ø±Ø¯
áĢģ áĢ¶
he im
à¦¬ à¦¾à¦°
Ġçĭ Ĺä¸ĩ
x _
Ġc over
áĢ±áĢ «
ic ol
Ġà¹Ģà¸ Ľ
à¨¾ à¨
àª¾àª¨ à«Ģ
×ķ× ļ
ĠA uto
à¤¾à¤ £
Ð°Ð½ ÑĮ
p ert
Ġhar ga
ç» Ļ
Ġpr ÃŃ
ĠB R
Â £
Å¾ d
I X
Ïĩ Î®
Ġv ara
Ġ×ľ ×§
Îµ ÏģÎ³
ÑĨ ÐµÐ½
ĠÑģÐ» ÑĥÐ¶
áĢ» áĢĸáĢħáĢ¹áĢ
ar na
åı ²
az z
Ġsin ce
is an
ĠP ed
à¸ķ à¸±à¸§
Ġf as
ÙĪ Ø§ÙĦ
ÐµÐ½Ð¸ ÐµÐ¼
Ġop in
Ġp unt
à¸· à¹īà¸Ń
Ã İ
éĤ £
ik at
em s
ak ter
o unt
ĠÙĦ Øª
à¤°à¥įà¤ ®
Ø§Ø² Ùħ
ĠÙĨ Ùĩ
Ġç º
Ġser Ã¡
ik si
åı ĺ
Ġho Ê»
Î³ Î®
Ġv ad
ÎĻ Î£
Ġd ic
k ou
ĠÎº ÏĮ
ÐµÑĢ ÑĪ
ĠìĦ ¸
ÐµÑĤ Ð¸
Â ·
ĠÚ©Ø± ÙĨÛĴ
æ® µ
Ġà¤ħ à¤§
as zt
ĠãĤ ª
å® ¤
å¢ ŀ
Ùİ Ø§
Ġempres a
Ġà´Ĵà´° àµģ
az Äĥ
á»ĩ nh
Å« t
à¸ķ à¸´
Ð¶ Ð´
Ã¼ c
C A
ĠÑį ÑĤÐ¾Ð¼
Ġm Ã©g
à¤¿à¤ ¶
å¢ ĥ
ĠK ab
Ġë° ©
íĥ Ģ
ÙĦÙĬ Ùħ
ar kan
end ed
Ġ×Ĳ ×Ĺ
Ġk end
ãĤĮ ãģ°
Ġ= >
ĠÑģ ÐµÐ¼
at ud
áº¯ n
à¦¸ à§įà¦¥
oh l
ik ka
ĠØ¨ Ø³ÛĮ
Ġreg ist
Ñĸ ÑģÑĤ
ÉĻ c
Ġf eb
ĠÐļ Ð¾Ð½
Ġç Ħ
Ġd or
ĠT our
× ¥
up akan
il de
Ð¸Ñĩ ÐºÐ¸
if ul
ĠÑĩ ÐµÐ¼
Ġqu alit
und er
ĠBras il
æĽ ¸
ÙĬØ¯ Ø©
ĠN ational
Ø± ÙĤ
c ciÃ³n
0 2
ĠCon tact
Å¾ it
ce j
éĤĢè¯· çłģ
à¸ª à¸¡
ĠC um
Åĳ s
Ġç ´
Ġn od
Ġhan no
Ġlook ing
le ge
ĠÙħÙĪ Ø¬
ĠÙħÙĪ Ø¶ÙĪØ¹
k Ã¶
ĠÐ¼Ð½ Ð¾Ð³
ĠC er
d am
Ġspec ific
à«įàª ®
Ġ×ŀ× ĵ
Ġ... ..
ch ar
Ùģ ÛĮ
pl a
Ġmod o
çĻ¾ å®¶ä¹Ĳ
ul ta
Ġla vor
ĠR od
S P
×ĺ ×¨
ĠÑĤ Ð¾Ñĩ
è¨ ĺ
Ġperi od
ĠV ia
Ġëı Ħ
ĠP i
Ġà¹Ħ à¸¡à¹Ī
ul as
ĠÑĩ Ð¸
ä¸ĸ çķĮ
ĠB and
ë° ©
Â «
ĠT witter
ãĤ¹ ãĤ¿
an Ä±n
àª¾àª ĩ
à¤¿à¤¯ à¥ĭà¤Ĥ
Ġ? ??
Ġà¤ Ľ
ä¹ħ ä¹ħ
az io
Ġl Æ°á»£ng
Ġb id
à±ģà° µ
Ġà¤ķ à¤¿à¤¸
åı¯ èĥ½
Ġsign ific
ĠÙĬ Øª
lar da
Ġpen y
Ġh ele
áº£ m
à¤° à¥ĩ
ac ÃŃ
ĠS car
Ġc áº§n
Ġéĩ į
Ġcl ub
Ã¼y Ã¼k
ĠÐ¿ÑĢ Ð°ÑĨ
Ġcor re
iy et
ĠF i
en ing
Ġass ist
Ġfr ont
Ġbol eh
ĠPre vious
áĢĻáĢº áĢ¬áĢ¸
as k
Ġçİ¯äºļ ag
ãĢ Ĭ
åĪ «
ĠÐ¼Ð°ÑĤ ÐµÑĢÐ¸
Ġa ud
ĠAl b
ìľ ł
ê± ´
ÑĤÐµÑĢÐ½ ÐµÑĤ
Ġcat eg
áĢķ áĢ²
ĠÐ· Ð°ÑĤ
ĠÐ³ Ð»Ð°Ð²
wo od
ni re
Ù į
ÑģÐº Ð°ÑĤÐ°
ãĥ§ ãĥ³
Ø· ÙĦ
à®¾à® £
ĠãĢĳãĢĲãĢĤ ãĢĳãĢĲ
Ġlá» Ľ
l ak
ĠÐ´ Ð¾ÑĢ
Ġsy m
pl an
áģ ļ
ion n
ÑĨ ÐµÐ²
b ild
Ġph Ã¡t
ëĲ ľ
w eg
Ġk au
ĠP le
v iew
à¸²à¸ ¥
h us
ĠÐ¼ Ð°Ðº
ĠP eng
ĠL ink
íŀ Ī
nd er
b ur
Ġj og
Ġg ez
ĠÙĤ Ø±
Ġgro w
Ġ×ŀ× Ľ
Ġbar u
Ġë¬ ¸
åĬ Ł
à¯įà® ¯
Ġ" )
Ã³ a
man n
ëĭ ¨
Ġwur de
ĠÐ¿ÑĢ Ð¾Ð¼
ĠÑĩ ÐµÑĢÐµÐ·
Ñĭ Ð½
Ġac count
Ġà¤Ĺ à¤¯à¤¾
ĠQ U
ck et
Ġàª¶ àªķ
à¦¾à¦¬ à§ĩ
Ġat Ã©
ãģŁ ãģĦ
Ø´ ÙĪØ¯
Ġ×ķ ×ĳ
Ġf rem
áĥĺáĥ Ĵ
çľ Į
Ġhar us
ĠM AR
ĠØª Ø§Ø±ÛĮØ®
ĠÃ Ĭ
ĠÑĥ Ð¿
ĠHo use
×ľ ×Ļ×Ŀ
Ġm are
Ð½Ñĸ ÑģÑĤÑĮ
ĠF Ã¶r
ĠT ri
ĠM ill
< /
Ġw on
Ø±ÙĪ Ø¹
ĠÙĬ ØŃ
ĠÂ º
Ġdon de
Ġà® Ł
Ġà¤ľ à¤¾à¤¤
à§ĩà¦ ¸
is in
Ġar k
Ġw ieder
Ġr os
ikip edia
à¤¸ à¥Ģ
ĠÑĸÐ½ ÑĪ
ĠÃ© p
å® Ł
Ġvo i
Ġsch on
çĽ´ æĴŃ
à¸¡ à¸·à¸Ń
Ġcom er
ä¼ Ĺ
ow any
20 17
àµĩ à´°
ķ áĢ¼
ĠÙħ Ø®
ä½¿ çĶ¨
à¸ĩ à¸²à¸Ļ
Ġd og
ãĥ Ľ
Ð¸ÑĤ Ð°
ç± ³
ĠØ§Ø³Øª Ø§ÙĨ
Ġtr Æ°á»Ľc
ich er
ĠH P
à° ³
Ġl Ã¸
Ġc ast
Ñı Ñī
àªĤàª ¦
l og
ĠØ¹Ø¯ Ø¯
Ġmin im
ĠM B
ĠÐ± Ð¾ÑĢ
Ġêµ Ń
ãģ® ãģ¯
ĠV iew
ÙĤ Ø±
ĠØ§Ù ĩ
ĠÐ¸Ð¼ Ðµ
ÎĳÎ ¤
ĠÄĳ Ã¢y
Ġm oney
Ð· Ð¸
Ġå® ī
Ġf lo
è Ĺ
ÙĪ ÙĬØ©
ĠØ§ÙĨØª Ø®Ø§Ø¨
ÏģÎ¿ Î½
à¸¡ à¸²
Ģ áĢŃáĢ¯
Ã« ve
ot te
AP P
en Ã©
Ġmemil iki
ĠÐ½ÐµÐ¾Ð± ÑħÐ¾Ð´Ð¸Ð¼
áĢ¬áĢ¸áĢ ¡
Ġor a
amp le
Ġw ys
Ĥ à¸Ńà¸ĩ
ä»£ çĲĨ
ĠÃ Ĵ
itt el
ĠØ´ Ø®Øµ
ĠB iz
ĠF eder
ie j
ĠS C
à¸¶ à¸ģ
åı į
Ġo ct
ãĤ ¬
Ġ ere
à±Ī à°¨
Ð½Ð¸ ÑĨÐ¸
Ġp ia
Î»Î¿ Î½
Ġs ok
Ġn Ãło
ĠInd ia
» áĢĻ
Ġmy Ã¶s
çĦ¡ æĸĻ
Ġpre fer
ze it
Ġam a
æ¼ Ķ
est r
åį ¡
Ġà®İà®©à¯įà®± à¯ģ
Ġd l
Î¯Î½ ÎµÎ¹
Ġnh áºŃn
à¦¾à¦ķ à§ĩ
Î¼Î± Î½
Ġcom unic
ik en
ÑĨÑĸ ÑĹ
ĠÐ³ Ð¾Ð²
Ġ ÏīÏĤ
ÅŁ i
áĢ¸áĢ Ĳ
Ġ? âĢĿ
à§ĭ à¦°
ÑĢÑĥ Ð³
Ġna z
ĠT an
ĠÎ¤ Î±
ÙĨØ¯ Ú¯ÛĮ
Ġim mer
ĠÐ½ Ð°Ð±
ĠÑĥ Ð¿ÑĢÐ°Ð²
ĠÙĪ Ùĥ
à¦ Ľà§ĩ
ĠM ost
ĠG alaxy
Î¿ Î¹
åĭ Ļ
àµ ĥ
Ġla v
ĠåĮĹäº¬ èµĽè½¦
æľ Ľ
Ġd ov
ĠØ¬ Ø³
ãģ Ĵ
å± ĭ
Ġm Ãµ
ĠìĦ ±
Ðº Ð°Ð¼
Ġe asy
Ġdest in
ĠÑĪ ÑĤ
Ã© st
Ġper d
ç© ¶
Å¡ u
æ ¤
Ġp oc
ĠP ER
à¦¤ à¦¿
ĠÙĪ Ùģ
Ġn Äĥng
Ġmob ile
ĠØ§ÙĦØ¬ Ùħ
Ġsit es
£áĥ ļáĥĺ
ä¾ ĭ
ĠÙĪ ÙĨ
ÏĦÎ¹Îº Î®ÏĤ
à´¾à´ ®
ĠÃ Ĳ
ĠÎ½ ÎŃ
Ġus o
ì¹´ ì§Ģëħ¸
ĠØª Ø£
Ñĭ Ñĩ
it ta
d Ä±
it ur
ĠDav id
ro j
Ġleng th
Ġg as
Ġk y
èĬ Ĥ
çĬ ¶
ĠÎ¼ÏĢÎ¿ ÏģÎµÎ¯
ãĥĩ ãĤ£
Ġa os
ÏĥÎµ ÏīÎ½
f at
ĠEng lish
Ġ Å¼
Ð½Ñĭ Ñı
on io
ib i
m Ã©ny
Ġw ak
Ð¾Ð² Ð°Ð½Ð¸Ñı
ob il
ãģª ãĤĵ
ĠG B
Ġ×ŀ× ¦
Ġas ÃŃ
iz io
n ut
Ġp ied
à¥ĩà¤ ĸ
Ã§ os
Ñĥ Ñī
Ġw orks
in u
à° §
à´¾à´ ±
Ġg ed
Ġr at
Ġn ek
à«ĭàª Ł
à¤ļ à¥įà¤
×ĵ ×Ļ×Ŀ
land s
Ġcle an
ĠÐ¼Ð°Ð³ Ð°Ð·
à«ĭ àª¤
Ġ' :
à§Ģ à§Ł
ĠAn unÈĽuri
C h
Ġh ur
ĠåĲ Į
ĠÐ´ ÐµÐ¹ÑģÑĤÐ²
ĠMar ket
g ende
ĠG ran
i ad
ĠÑģ ÑĥÐ¼
ĠÎºÎ± Î»
S H
Ġ19 99
ĠØª Øº
Ġs le
Ļ áĢº
Ġ×ŀ× ĳ
ĠÐ²ÑĬ Ð·
ĠÛģ ÛĮ
ĠØ§ÙĦØ¹ Ø§ÙĦÙħ
Ġpr int
Ġmont h
p m
ici os
Ġàª¸àª¾àª ¥à«ĩ
ĠO R
ãģĪ ãĤĭ
Ñı Ð±
or ang
en ye
ch ten
Ġåħ ¶
Ġà®ļ à¯Ĭ
áĥĲáĥľ áĥĺ
Ġas soci
Îº ÏģÎ¹
Ġdo ÄŁ
k Ã¡
g ing
Ġà¦ı à¦°
ĠGro up
Ġ365 bet
Î»Î» Î·Î½
à¸²à¸¡ à¸²à¸£à¸ĸ
á»į ng
ĠCent er
ist es
Ö ¸
ĠÎ Ĩ
ĠJul y
ĠJanuar y
èĭ ±
Ġpart ner
ĠF R
nÃŃ m
ĠC aut
ĠØ§ÙĦØ£ Ø³
Ġm ilit
Ġ ust
er os
Ø§Øª Ú¾
éĸ ¢
ÏĦÎ· ÏĥÎ·
Ã ĳ
Ġn ombre
ÙĲ ÙĬ
ĠÐ¿Ð¾Ðº Ð°Ð·
out ube
ĠP ri
Ġn Ãº
ëĭ ¹
à¹ Ĭ
Îµ ÏĦÎµ
Ġmo Å¾
Ġcer tain
ĠAn n
ĠáĢĢ áĢº
áĢķ áĢ¹
ĠL ong
Ð¾Ð² ÐµÐº
Â ¡Â
Î© ÎĿ
Æ Ĵ
Ġto us
Ð³ Ð¾ÑĤÐ¾Ð²
ĠÑģÐ² ÐµÑĤ
nie j
ĠÐ´ ÐµÐº
Ġt ien
ĠÐ¿Ð¾Ñģ Ð»Ðµ
Ġb ild
ĠL ab
Ġdiff ic
Ġí Ĭ
è ĸ
ual iz
Ïģ Î¸
ĠB L
à¥įà¤ ¨
ĠÐ²Ð¸Ð´ Ðµ
è² ·
ãģķ ãģĦ
Ĥ à¦²
Ð¾Ð» Ð¾Ð²
×Ļ×¨ ×ķ×ª
à´Ļàµįà´ ķ
ĠáĢ¡ áĢŀ
Ġwork ing
ĠMed ia
Ġh old
Ġà´ļ àµĨà´¯
Ġempl oy
Ġcre ate
áĢĶ áĢ¾
à§įà¦ ¡
ast ic
å£ °
ag ue
à¸Ńà¸¢ à¸¹à¹Ī
±áĢ ķ
w in
áĥķ áĥĶáĥ
Ġtr es
x ico
Ġm Ã´
ç½ĳ æĬķ
8 1
Ġå¼ Ģ
Ġt Æ°
ol es
Õ ¨
ĠÑĤ Ð¾ÑĢ
ĠMar k
Ø¨ Ø§ÙĨ
ĠO N
æ§ ĺ
Ġm est
ĠÐ¶ ÐµÐ»
Ġh Ã¸
ĠÚ© ØªØ§Ø¨
ĠØ±ÙĪ ÛĮ
ĠØªÙħ Ø§Ùħ
Ġindust ri
åĪ Ŀ
Ġt able
ĠÐ² ÐµÐ´
ëŀ ĺ
ÐµÑĩ Ðµ
ĠÚ¯ Ø²Ø§Ø±
Ġ] ,
Ġtel ev
ĠØ§ÙĦÙħ Øµ
áĥĲáĥĵ áĥĴ
Ġà¸ Łà¸£à¸µ
ĠE z
ĠÐ½Ðµ Ð·
ĠOct ober
B O
ĠÐŁ Ð¾Ñģ
Ġà¦ķ à¦¾à¦°
ãģ« ãĤĪ
Ã§ ek
Ġb ang
ÃŃ vel
ĠÐºÐ°Ðº Ð¾
Ġå ģ
Ġf on
Ġcont ro
ĠU K
Ø¦ Ø©
æī į
ĠÐ İ
ĠÏĢ ÏģÏİ
ĠR u
Ġm Ã©d
Ġrec omm
Ġc ity
ĠÏĢÎ¿Î» Ïį
çģ «
up an
íģ ¬
y b
ĠÙħ Ùħ
Ġmarket ing
ĠE gy
ĠÐ¾Ð± Ñī
àªµ àª¾àª®àª¾àªĤ
Ø´ Ø¯
Ġmak ing
àª¾àª ¹
Ġse ver
th ers
Ġm áº·t
Ġus er
Ġì§ Ħ
é» Ħ
Ġs ale
ķáĢ« áĢĲáĢļáĢ¹
ĠáĢ» áĢĻ
ĠÑĺ Ð°
Ġdet ermin
ÃŃ z
w ah
Ùĥ ÙĬ
Ġy eni
Ã¤ st
Ġfe ed
ĠÑģÑĤ Ð°ÑĢ
Ġsi is
ir as
ĠAd d
Ġte ch
Ġen joy
Ġb eb
Ġd ru
Ø§Ø¨ Ø·
Ġcour se
Ġpr is
ĠìĹ Ĳ
w al
ert s
ĠÙħØ¬ Ùħ
Ġng o
ung kin
Ġç ¥
à±ģà° Ĺ
ĠáĥĽ áĥĲáĥĴ
à®¤ à¯į
Ġk 8
ÑģÑĮ ÐºÐ¾ÑĹ
ĠÙĤ Ø·
Ġn im
Ġgj ith
×Ļ×¨ ×Ķ
ĠÐ¾ ÑĦ
ul s
pr ise
ëł ¤
ĠN orth
à¸Ķà¹ī à¸§à¸¢
Ġcz as
Ð»ÐµÐ½ Ð½Ñı
ĠRes p
ÐĲ ÐĿ
m s
Ù¹ Ø±
×Ļ× ĸ
ĠÙĦ Ø¨
Ġf Ã¸l
ard i
Ġb á»Ļ
Ġ ort
ic ion
ĠO k
0 3
Ġáĥł áĥĿáĥĴ
à§ģà¦ ·
ĠK it
ĠAp art
â ĺ
n ica
ÙĪ ÙĪ
n am
à¸¶ à¹Īà¸ĩ
Ġme a
et Åĳ
Ġà¦Ĩ à¦²
Ġl ip
ĠÕ §
Ġel eg
Ġá ¹£
0 6
Ġm int
ig os
ĠØ£ Ø¨
ĠØ³ Ùĩ
ĠÎ±Î½ ÏĦÎ¹
ãģ ¸
Ġà¹Ģà¸ ¥
Ð¾Ð¶ Ð´
w erk
ĠK ing
×ķ×ł ×ķ×ª
ĠÐ²Ð¾Ð· Ð¼Ð¾Ð¶
Äį i
er na
ens i
Ġorig in
à°¿à°Ĥà° ¦à°¿
urs os
Ġãĥ Ĳ
Ġch áº¥t
Ã³ j
ig u
ĠÐ² ÑģÑĤ
Ñĩ Ð°Ñģ
è½ ¬
Ġæ ·
ĠÃ Ļ
à®¾à® ±
ä¾ ¡
áĥĶáĥ¥ áĥ¢
ĠÐ·Ð° ÑıÐ²
ĠC ab
f ach
Ġle ver
ĠM use
ĠÎ ¯
ĠÐº Ð½Ð¸
¥ ¼
h im
Ġaw ay
ĠØ¬ Ø§Ùħ
×ķ×¨ ×Ķ
à¦Ł à¦¾
b st
Ġìŀ ¥
Ġy ok
ĠÐķ ÑģÐ»Ð¸
ĠL iv
Ġt ant
Ġh us
ad Ä±r
Ġkun nen
ĠâĢ ª
ç´ ł
ÉĻ z
Ġmin ist
áĢ¸áĢ ¡
ul la
Ġè ¶
Ġfam ili
Ø§Ø³ Ø¨
ĠF em
Ġfor um
ĠÐ· Ð°Ñħ
ĠN atur
Ä« j
ar at
ĠÐ±Ñĭ ÑĤÑĮ
ï¼ Ī
Ġà¤Ń à¤¾à¤°
Ġbre ak
ĠS un
Ġdes en
ì¹ ´ëĿ¼
ar is
ĠØ³ Ø§ÛĮØª
Ġob jet
Ġáĥ ¦
ĠM S
ing o
Ġoldu ÄŁ
æĭ ī
Ä±m Ä±
ĠÐº ÑĢÐ°Ñģ
ec ial
ĠD oc
l ang
j el
å¤§ åħ¨
áĢŃ áĢĲáĢ¹áĢ
ĠÐ¸Ð· Ð±
ĠH all
Ø¯ ÛĮ
ta j
Ã¡l is
ib les
n ud
áĢĦ áĢ·
Ïĥ Î¹Î±
ĠK as
ĠæŃ £
Ġh all
itut as
m on
ĠDec ember
ĠÙĦ ÙĬ
Ġt um
te ur
åĪĨ æĹ¶æĹ¶å½©
à° Ń
ĠÐ² Ð¾Ð»
ff en
Ð½ Ð°Ð»
ĠM un
ĠE nd
ĠÏĩ ÏģÏĮ
ÑĢÐµ Ðº
Ġp am
ÙĨØ¯ ÛĮ
op h
ĠL og
áĥĲáĥłáĥ Ľ
ĠÎĶ Î¹Î±
c os
Ġà¤¤ à¥įà¤¯
ĠÐ½ Ð¸Ðº
à´¾à´¯ à´¿à´°
ÙĨ Ø¨
Ð¸Ñı ÑĤ
Ġn ay
akt u
Ã¨ res
Ġcon tain
ĠResta ur
Ġz v
Ġnghiá»ĩ p
ĠE en
×¨ ×Ĵ
ill Ã¤
Ġs aja
ĠE D
ĠN em
ĠâĢ ¹
Ġå¯ ¹
à· Ĭ
Ġå° ±
ĠO pt
ĠE M
ĠÐ¿ÑĢÐ¸ Ð·
Ñģ Ñĭ
Ġíĺ ¸
èī ĩ
Ġg Ã¥r
ĠÐ°Ðº ÑĤÐ¸Ð²
Ġp Ã¤Ã¤
ĠP ass
Ã§ e
iy le
ĠTÃ¼rk iye
Ø§Øµ ÙĦ
ĠAr g
åŁ Ł
ĠáĢ Ł
ĠØ£ Ø³
åİ Ĩ
Ñĥ ÐºÐ¾Ð²
Ġwind ow
l ut
Ġal um
ĠG a
ĠD ol
Ġì Ĥ
Ġtá» ±
á»¯ a
ĠÎ± ÏģÏĩ
Ø¸ Ùħ
ĠU lt
ĠK un
c ji
à¸¥ à¸±à¸ĩ
áĥ£áĥ Ĺ
ÑĥÐ´ Ð°
ĠAr be
à¸Ľ à¸¥
ìĺ Ī
Ġà¹Ģà¸ Ħà¸£
ĠA V
Ðŀ ÐĴ
Ġqu er
Ġen f
à¹Ĥ à¸¡
à¤ķ à¤¾
ãĤĵ ãģª
Ġcon ta
Ġà§¨à§¦ à§
Ġj i
Ø¶ Ø§
Ġà®ķ à®Ł
Ġm ich
Ġtim es
Ġt ego
ĠM ir
ĠM aj
ĠFl or
l iv
ĠBe ach
l ament
ìĤ¬ ìĿ´íĬ¸
Î»Î» Î·
ÑĢÐ°Ð ³
ar am
ŀ į
Ġj un
ĠÚ©Ø±Ø¯ Ùĩ
ë¥ ´
ak se
Ġà´ħ à´¤
ĠY our
ov al
Î½Î¿ ÏĤ
Ġxu áº¥t
×© ×ª
Ð¾Ð³ ÑĢÐ°ÑĦ
Ø±ÙĪ Ø²
ä½ İ
ĠÐľ Ð°ÑĢ
Ġv Ã¦r
ÐµÐ² Ð°
ic Äĥ
à¸Ĥ à¸¶
à¸§ à¹Īà¸²à¸
Ġm os
== ==
Ġv Äĵ
åĳ ½
à¤¤ à¥įà¤¤
ĠvÃµ i
27 0
ro g
Ġet m
Å¡ ana
Ġà®ĩ à®¤
ĠÐ½ Ð¾Ð¼
à¸´ à¹Īà¸ĩ
ÏģÎŃ ÏĢÎµÎ¹
Ġuch un
à°¨ à±į
à«įàª ķ
Îķ Î£
¸ è¿Ĳ
Îº Î¬
à¯Īà®¯ à¯ģà®®à¯į
Ġåħ ¬
ÑĢÐ¸ ÑĤ
Ġb eberapa
åĽ Ń
ĠØ³ ÙĨÚ¯
Ġd Ã¢n
ĠÐ±Ð¾Ð» ÐµÐµ
Ġg ast
Ġå½©ç¥ŀ äºīéľ¸
ĠÙĪÙĤ Øª
à§ Į
ĠM eg
áĥĲáĥłáĥ ĵ
Ġi be
and en
Ġt ie
lÉĻ ri
Ġë ¨
áĥł áĥĲáĥĽ
Ġ% )
Æ°á»Ľ ng
ke j
ĠØ¹ÙĨ ÙĪØ§ÙĨ
Ã¼l et
Ġf ung
ãģĹãģ¦ ãģĦãĤĭ
Ġ×Ķ×ŀ× ©
Ġcand id
ĠÙħ Ø¤
Ð¾ Ñĺ
ĠÑĤ Ñĥ
Ġwat ch
Ġp ant
ĠÃ ¦
ĠÃ§ Ä±k
ÎµÎ¯ Î¿
Ġà¦¬à¦¾à¦ Ĥà¦²
ĠÙĤ Ø³Ùħ
ĠMar et
ĠBus iness
ĠAl s
va il
Ġn l
Ġpl ant
áºŃ y
Ðº ÑĸÐ²
ou w
Ġí ģ
ĠÐ³ÑĢÑĥ Ð¿
Ġà¤ī à¤¸
áĥĶáĥ ª
Ð°Ð½ ÑĤÐ¸
Ġn ich
G A
n Ä«
ang a
Ġãĥ ŀ
ĠíĨ µ
à¸µà¸¢ à¸ĩ
ĠÙĪ ÙħÙĨ
ĠÎ´ Ïį
Ġminut es
à°° à°¿à°
à°¾à° ¦
à¯Īà® ªà¯įà®ª
Ġå ĵ
z Åĳ
e ur
áº¡ ch
Ġà´ª àµĭ
åį ĩ
Ùĥ Ø³
ĠØ§ÙĦÙħ Ø´
Ġne v
Ġíı ¬
Ġ12 5
ur ity
ĠØ® Ø§Øµ
Ġab e
ãĥ İ
re i
ĠÏĮ ÏĢÏīÏĤ
Äħ d
ĠO per
Ġfor sk
ĠØ² ÛĮØ±
ĠV el
r Ã¡s
èĪ ª
ci es
ĠÙ¾ Ûģ
ĠServ ice
ĠÐº Ð»Ð¸
ate a
ow ego
à´ ŀàµįà´ŀ
ĠÙĬ ÙĪÙħ
AN T
æľ ¨
Ġà´ª à´±
Ġâĺ ħ
Ġstud ents
áº¹ p
Ġë ķĮ
ä¸Ń å¿ĥ
à¦¦à§įà¦ §
à¸ķ à¹Īà¸Ń
Ġo vat
ÏĢ Î¯
ĠØ¹ÙĦ ÛĮ
Ø« ÙĬØ±
in Ã«
ĠB ag
ir it
Î» Î¿Ïħ
Ġz en
Ġty l
Ġmer upakan
un es
ĠS ci
à¤¸ à¥įà¤¤
ĠÑģ ÐµÐº
áĥĶáĥĳ áĥļ
r Ãł
ĠÐ² Ð¿
ĠÎµ ÏģÎ³
E Z
Ġg ian
at ro
Ġà µ
ĠØ§ÙĨ Ø¬Ø§Ùħ
ÎĳÎ Ŀ
or ta
ĠáĢ» áĢĸáĢħáĢ¹áĢ
ĠGr up
Ġte x
Ñĭ Ð²Ð°
ĠÕ ´
ĠAmer ican
ĠÐ½Ðµ Ð¿
Ġv Ã¬
á» ħn
ĠÙĥ Ùĩ
Î» Ïħ
ĠP ubl
end s
ë¬ ´
¼ åĲĪ
up un
ĠÐ´Ð¾Ðº ÑĥÐ¼
OR T
Ðķ ÐĿ
à«Ģ àª¤
ash ion
Ġinn ov
ck er
à¤°à¥įà¤ µ
Ġpr on
ch te
Î¼ÎŃ Î½Î·
Ġ×© ×ŀ×
Ġan a
z ent
Ġà¦¬à¦¿à¦ ¶
Ġbon us
Ġall es
ĠL ev
Ã¦ k
ĠC asa
ĠãĢ İ
ĠH ier
ung e
í ĭ
0 4
ĠD ay
Ġë ©
uch t
ĠT al
ĠÙħØ« ÙĦ
Ġmas a
Ġall ow
Ð¾Ð¿ ÑĢÐ¾Ñģ
Ġper Ã²
à®¿à®± à®¤à¯ģ
I J
_ id
ĠÑģÐ¿ ÑĢÐ°Ð²
Äĵ c
ĠP s
Ö °
ik er
ĠâĢľ .
ĠCon st
ÐµÑĪ Ðµ
ĠCom ment
Ãª s
ĠC C
éª Į
áĥĶáĥĿ áĥĳ
ĠØŃ ÙĬØ«
k n
Ñİ Ñī
ĠH am
Ġz al
æ£ĭçīĮ æ¸¸æĪı
ĠâĨ Ĳ
T ype
Ġæĺ¨ å¤©
à®® à®¾à®ķ
Ġal iment
Ġre du
à«Ģàª ı
ba ar
ĠÏĢÎ± ÏģÎ¬
ĠTrip Advisor
A F
Ġmemb uat
iy o
og n
à§įà¦ ¸
Ġw il
à«įàª ¥
ĠSo ci
Ġs Ã¸
æĿ ĥ
ãģª ãĤī
ĠÐ¾ Ð½Ð¸
ĠGre en
Ġà®ħ à®®
ĠOr ig
osp ital
Ð½Ñĸ Ð¹
ĠA F
ÑģÐº Ð¾Ð¼
ĠF eb
à¥ĭ à¤ľ
t te
áĥĶáĥĳ áĥĲáĥ¡
ĠØ® ÛĮ
ÃŃc ÃŃ
ĠÐ³ Ð»
c am
Ġins an
ë§Į ëĤ¨
Ġàª ĵ
áĢĦáĢº áĢ¸
Ġå Ĵ
ĠD in
Ã¡ le
ĠØªÙĪÙĦ ÛĮØ¯
æĸ° éĹ»
Ġn ya
çħ §
Ġent er
ç ¹
Ġp ack
Ġman if
Ġk Ã¶r
Ġint ro
Ġc la
id ence
ĠÐ¿ ÑĢÐ°Ðº
Ġs ays
Ġy ol
Ġs pl
Ġ Ã¡ll
ÑĢ Ð°ÑģÑĤ
Ġà° ı
ĠÐ° Ð³
sz er
ek l
Ġn ok
Ġle ad
ĠEs ta
æµ İ
ĠSt art
ĠÑģ Ð´ÐµÐ»
Ġb Ã¶l
ut an
à¸Ļà¸ ª
lij k
Ġë Ħ
ĠWh ite
ĠÑĥ ÑģÐ¿
ĠS ist
Ġgib t
Ġdec or
Ġáĥ¡áĥĲáĥ Ļ
ĠRe ad
sk ap
àª ¥
Ø± Ø§Ùĩ
g s
ĠÐŀ Ð¿
Ġor e
ĠPr in
Ġàªķ à«ĭàª
Ġra z
Ø± Ø§ØŃ
Ġm ond
Ġà® ľ
Ġt uy
ĠK le
ĠD ist
un c
v ille
à´¾à´ ³
àª¾àª¨ àª¾
ĠãĤ ¤
ĠÙĤ Ø§ÙĦ
Ġunder stand
ers on
Ġbu hok
Ġà¤¦ à¥ĭ
[ ]
à¸ģ à¸£à¸°
Ġant es
ÙĬ ÙĪ
Ø± Ø¬
ì Ķ
Ã§ as
ĠTh ese
ĠS S
Ùģ ØªÙĩ
el Åĳ
ĠZe it
Ġop port
Ġìĸ ´ë
Ġà®ª à®¿à®°
Ġ":" ","
Î¼ÏĮ ÏĤ
0 9
Ġå¥ ½
Ġhab e
á»į i
ÐµÑĤ ÑĮ
Îº Î®
ĠÐ² Ð¸Ñģ
ĠE X
Ġ ÅĻ
ĠS at
ss Ã¤
z es
i um
ë¹Ħ ìĬ¤
ĠAn al
Ġus ers
Õ¸ÖĤÕ ©
ĠØ§ÙĦØ¹ ÙħÙĦ
Ġà° Ł
ãģĤãĤĬ ãģ¾ãģĻ
ĠÐ¶ Ð¸Ð·
ib er
Ġf et
und s
à¥ĩ à¤¸
U C
el et
áº¯ ng
Ġh indi
åĨ ³
Ġà¤ī à¤ª
Ġk ata
ï »¿
ĠáĢ ¥
Å į
Ġmu a
à¹Ģ à¸£à¸µà¸¢
ific ation
ĠÐ¾ Ð·
ĠÐ· Ð°Ð»
0 7
Ġ" }
or de
ol it
Ġinst al
ÏĦÎ¹ Ïĥ
èģ ĺ
Ġæ ĭ
Ġäºļ æ´²
Ġto im
ter a
Ġê² Į
ãĥ ı
Ġhot ell
it ing
Ġ/ >
t em
il ib
ki em
Ġr ip
Ġàªķ àª¾àª°
à¥ ľ
Ġs ter
Ġk re
j ed
d al
Ġst ory
Ġperson as
H A
om an
OS T
Ġt es
ÑģÑĮ ÐºÐ¾Ð³Ð¾
ĠD ata
Ġm ys
æľ ª
ĠB M
E A
Ġde ix
à¸Ļà¸ Ķ
Ġdi p
ä¿¡ æģ¯
ĠãģĿ ãĤĮ
Ġáĥ łáĥ
ur al
Ġinvest ig
ĠÄĳ iá»ĥm
n at
×ľ ×§
Ġk Ã©p
áĢ¸áĢ ľ
Ġäº Į
Ġr Ã©g
à¸¥ à¸Ńà¸ĩ
ES S
ĠØ´ ÙĪ
Ġdi ese
åľ¨çº¿ è§Ĥçľĭ
Ġà¤² à¤Ĺ
à¦¨à§įà¦ ¦
Ð¾ ÑıÑĤ
ÄĻ dzie
Ġáģ ģáģ
Ã©s i
ĠÐ¿ÑĢÐ¾ÑĤ Ð¸Ð²
Ġpr ior
Ġf arm
Ð°ÑĢ Ð´
ĠM ater
Ġstr ong
ĠÎŃÏĩ Î¿ÏħÎ½
Ġibe x_
â ķ
ing an
Ġi p
Ġch u
E X
c ut
Ġâ Ĥ
ĠÐ½ Ð°Ðº
ĠN at
ĠD EL
æ²¡ æľī
Ġinst it
ĀĀĀĀĀĀĀĀĀĀĀĀĀĀĀĀ ĀĀĀĀĀĀĀĀĀĀĀĀĀĀĀĀ
Ø¯ Ø§
×ł ×ª
ëł Ī
Ġà¹Ĥ à¸Ķà¸¢
Ġk li
ĠÙģ Ø±Ùħ
ri er
Ã¡s a
ĠÐºÐ¾Ð½ Ðº
Ġla y
ĠFebru ary
Ġprop ri
x i
ĠÐ¼ Ð°ÑĪ
os k
il ity
ĠMart in
æĢ ģ
Ġc ell
Ã© ly
Ġk Ã«t
Ġd Ã¤r
nÃ© e
ãĢ ħ
ãĤ ½
ĠM ess
åķ ı
Ġk inh
Ġesc ort
ĠÐ¿ÑĢÐ¾ÑģÑĤ Ð¾
Äĥ s
ï¼ ģ
à¤¿à¤ ®
´ Ī
Ð¾Ð½ Ð´
Ġar te
d r
ĠØ¯ ÛĮØ¯
Ġk áº¿t
ĠH ay
Ġant i
Ġsy st
à ³
Ġr ich
ĠE lect
Ġbah wa
Ġc ultur
ĠH en
Ġà¦® à¦¾à¦¨
à« ĥ
ur ance
ĠØŃ ØªÙī
áĥ ¯
Ġä½ ł
áĢ± áĢĢ
Î¶ ÎµÎ¹
Ġcon oc
×¨ ×ĳ
Ġre pl
Ġj am
ĠI g
ìļ ¸
ç§ °
ĠãĤ ¯
ĠæĪ Ĳ
res p
Ġà¦Ĩ à¦ª
ĠN ike
am ine
Ġp it
ass er
ĠÐ¸ ÑĪ
ĠB ig
ult ura
ĠF ot
ĠB rit
éĩ İ
à¸Ļ à¹īà¸³
Ġà¸¡ à¸µ
çķ ª
Ġé Ķ
Ġse par
ä¹ ł
Ġì ¶Ķ
Ġne i
Å¡ ie
ĠÑĤ Ð¸
Ġcons ult
Ġap pe
ë Ķ
Øª ÙĪØ§ÙĨ
Ġquest ion
Ġs ht
ãģĪ ãģ¦
à«ģ àª°
ĠÏĢÎµ ÏģÎ¯
ĠCo unt
ĠáĥĹ áĥ£
Ġdi f
æĸ Ń
Ġn ivel
Ġcom bin
ĠÑĥÑģÑĤ Ð°Ð½Ð¾Ð²
Ġnot re
ãģ§ãģį ãĤĭ
0 8
Ġkter Ã©
à¦ĸ à¦¨
ĠÐ² Ð°Ñģ
ÙĲ ÙĨ
Ġte j
à®ª à¯į
×ķ×ł ×Ļ×Ŀ
éģ ¸
à¤¿à¤Ĥ à¤Ĺ
ÐºÐ°Ñĩ Ð°ÑĤÑĮ
çº ¢
Ġnot e
±áĢ ľ
Ġs ai
àµĤ à´Ł
Ø§Ùħ Ø¬
or ies
ĠØª Ø¹Ø¯
Ġneed s
ĠF ol
Ġse Ã§
ĠP orn
im ana
Ð¿ Ð°ÑĢ
Ġãĥ ¡
if f
end ing
d ing
ĠT y
è¨ Ń
Ð· Ñı
Ġtara f
Ġj Ã¤r
k im
ĠS ek
Ø± Ø§Ø¯
ÐµÐ½ Ðµ
av en
Ġd h
ĠÃ¶ ver
Ġseb el
ÙĪ Ùī
ĠÙ¾Ø§Ú© Ø³ØªØ§ÙĨ
Ġpre cis
à¹ĩ à¸Ļ
Ã© re
Î´ Îµ
Ġth ought
ĠåĲ į
Ġproduk t
IS T
Ġë° ľ
ĠUnt uk
æİ §
Ġh ip
ĠÚ©ÙĨ ÙĨØ¯
Å« s
d in
ÏĦÎµ Î¯
áĥĲáĥĽ áĥĵ
ĠE p
ÑĢ Ð´
ĠãĢĤ âĢĿ
ĠÐ³ ÑĢÐ°Ð´
áº£ nh
Ð¼ ÐµÐ½ÑĤ
Ġv Ã¤r
Ġà®µ à®¾à®
ãĥª ãĥ¼
Ġit al
Ġcent ro
ĠAut or
ent ar
ÑĪ ÑĤ
i ale
ĠÚ© Ø§Ùħ
Ġn ez
áĥĺáĥļ áĥĺáĥ¡
æĻ ¯
ĠC P
ãĥ ¤
Ġre k
ãĥ¼ãĤ º
ãģ« ãģ¤
ÏĨ Î®
Ġmind en
Ġàªħ àª®
ĠB ill
0 5
Ġal ta
ĠÐ¾Ð¿ ÑĢÐµÐ´ÐµÐ»
è¿Ľ è¡Į
ÙĦ Øª
é Į
áĢ¬ áĢŀ
Ġëį Ķ
our ces
ri pt
ĠSm art
ru z
Ġla b
Ġc lar
ĠÎĶ Î·
Ġt Ã¢m
à¤¾à¤¯ à¤¾
à°¿à° µ
à¸ľ à¸¥
Ġæ Ħ
Ġmol to
Ñĩ Ð¸Ð½
Ġti empo
ĠÐĴ Ð¾
Ġj ud
Ġt áº¿
ĠZ a
áĥĲáĥķ áĥ¡
à¥įà¤ ·
ir k
Ġenvir on
m is
Ġfac ebook
ĠP H
Ġb ott
ĠØ¨ Ø§ÙĨ
Äħ z
ĠAf ter
ĠØ£ ØŃ
it Äĥ
abil ity
d h
à«įàª ª
Ġà¦¨ à¦¿
Ġprobl ema
ĠÐº Ð°Ð½
×ŀ ×Ļ
uss en
è¿ ŀ
Ġopt ions
ÉĻ f
Ġà¤¬ à¤¨
Å¾ i
ĠF OR
Ġk dy
Ġb Ã¡n
×¨×Ĳ ×ľ
Ġ×Ĳ ×Ĺ×¨
Ġad ol
88 8
Ġà®ª à®¾à®°
Ġy g
Ġdok ument
gun akan
ĠØªÙĩ Ø±Ø§ÙĨ
ĠT ro
áĥĲáĥķ áĥļ
ĠÐ» ÐµÐ³
Ġb áº±ng
à¹Ģà¸¥ à¸¢
åĪĨ åĪĨå½©
ÑĥÑĢ Ñĭ
ĠØ§ÙĦÙħ Ø¬
Ġd ere
ĠD O
çŃ ĸ
a ft
ĠÏĢÎµ ÏģÎ¹ÏĥÏĥÏĮÏĦÎµ
Ã¥ nd
m ir
ach e
H z
Ġå¤§åıĳ æĹ¶æĹ¶å½©
h em
Ġsol id
Ġà¦Ĩ à¦¸
ĠÐ¼ Ð»
ĠÐ½Ð°ÑĢ Ð¾Ð´
ĠÃ¶ ss
ĠÃ®ntÃ¢l nire
Ġla i
Ġtyl ko
ìĹ Ī
Ġm utta
ĠL ive
ĠU hr
í Ĥ
ĠÑģ Ð¾ÑģÑĤ
Ġth áº¥y
Ġl ati
Ä« v
Ġd us
Ġmun icip
áĢ¬ áĢĦáĢ¹
ĠÚ¯Ø²Ø§Ø± Ø´
à§įà¦¯ à¦¾à¦¨
Ġà®ĩà®° à¯ģà®ķà¯įà®ķ
Ġcount ry
at te
j Å¡ÃŃ
ic amente
Ġl leg
ĠãĤ ¨
ç»ĵ æŀľ
ą ć
ĠÐ½ ÐµÑĤ
è² ¸
Ġga an
è® ¤
Ġro l
ĠBl ue
ÑĢ Ñį
à¦§ à§įà¦¯
ĠáĥĽ áĥĺ
Ġà¤µ à¤¾à¤²
ë¡ Ŀ
au f
ac ions
ĠN O
¸ ı
Ġqu esta
lo ud
×ŀ× Ł
ent en
Ġå ¨
éĹ® é¢ĺ
Ġà¦¹ à¦¬à§ĩ
Ġcon te
å®ī åįĵ
ĠÏĢ ÏĮ
ì§Ģ ë§Į
áĢ¬áĢ¸áĢ Ľ
æľī éĻĲ
ÙĪ Ø§Ø¹
è± ¡
Ġb ab
i ele
ĠÙĪØ§ÙĦ Øª
Ġt iá»ģn
ĠLond on
áĢĽáĢ¾ áĢŃ
Î´ ÎµÏĤ
ĠÐ± ÑĬ
Ġg rav
ro z
ĠëĤ ¨
Ġthi áº¿t
Å¯ m
Ġn en
ĠG old
Ġb áº£o
at ik
IC A
ĠÙĪ ÙĦØ§
Ġ! âĢĿ
ĠÐµ ÑīÐµ
íĨ µ
Ġc uk
ĠN ow
in st
G R
×ŀ× ł
Ġj ika
ĠA j
ĠëĤ ´
åĮ Ĺäº¬
à¦ ł
ar b
ek in
at ti
at ely
Ġw sp
ĠÙĦ Ø£
åĢ ĭ
in ho
i Ã³
ç ¸
Ġm ez
Ġ×ķ ×¢
Ġk az
Ġmas k
ÙĪÙĨ ÛĮ
r ich
ë ¯¼
Ġà§¨ à§
ŀ áĢ°
ord s
op s
à´Ļàµįà´Ļ à´³àµįâĢį
ĠT L
×ķ×ª ×¨
ĠÄĳ á»ĳi
ĠL ang
ĠA st
ĳ åħĭ
Ġ×Ķ ×Ļ×Ĳ
Ġà´¨ à´Ł
ÏĦ Ïİ
à¦° à§ĩ
Ñĥ Ð¹
ĠG el
Ġph Ã²ng
Ð¸ Ð½Ñĭ
Ä« b
à¥Ģ à¤²
Ġch á»§
ĠÑģÑĤ Ð°Ð½
Ġt á»ĳt
ĠÑģÐº Ð»Ð°Ð´
h ib
áĥĺáĥ£áĥ ł
Ġincl ude
Ã© v
Ġë§ Ĳ
ion a
ĠÐ¡ Ðº
Ġtiáº¿ p
Ġc od
Ġf ire
ĠT elef
Ð½Ð¸ Ð¾ÑĤ
ĠL ast
æŀ Ĳ
à¸Ļà¸ Ĺà¸µà¹Ī
Ġáĥ£áĥľ áĥĵáĥĲ
ĠÐ¸Ð½ ÑĤÐµÑĢÐµÑģ
à«Ģàª ĵ
ch an
s ung
Ġë° ı
Ġs ÃŃ
Ġs emb
ĠAm azon
Ø¹ ÛĮ
av i
Ġto Ãłn
uk sen
Ġp ict
st yr
Ġdi ra
à§įà¦ ¦
Ġsh k
Îķ Î¡
ĠØ· Ø±Ùģ
Ġmas ih
Ġt se
éĵ ¶
Ð² Ð°Ð½Ðµ
Ġsel f
áĢ¸áĢ ħ
Ð½ ÑĥÑĤ
ĠF el
Ġthá» ĭ
Ġ×ĳ ×¡
$ (
ĠØ§ÙĦÙħ Ø¯
f ter
Ġg ir
Ð¾ÑĢ Ð¾Ð´
Ġk ra
Ø¹ Ø§Ø±
Â ´
et es
ĠC N
Ø¯ ÛĮØ¯
Ġ Ä±n
oc ol
Ġà®ª à¯Ĭ
à¥ģ à¤®
ãģĦ ãģĦ
Ġáĥĵ áĥĲáĥĽ
à¥įà¤ §
on se
ant en
ĠÐ° ÑĤ
ĠF ab
ĠD ans
ĠZ o
r g
ĠØ§ÙĦÙħ ÙĤ
ite it
av ad
ĠÐ» Ð¸ÑĨ
ĠÐºÐ¾ Ð¸
Ġm ix
ĠM ol
Ġle i
Ġh iá»ĩu
Ġg ang
ĠH u
Ġe igen
row n
Ġcon se
å®ī åħ¨
ĠæĿ ¥
Ġtá» ķ
ĠÐł Ðħ
ĠÐ½ Ð°Ð³
ĠL ie
ess ion
Ġplat form
ĠÙĨÙħ ÛĮ
ĠB it
ĠÐ´ Ð¾Ñģ
Ùĥ Øª
Ġb Ã¥de
ĠFor um
Ġet ter
å¤ ī
Ġmak a
Ġal ong
I AN
ĠÐ±Ð¸Ð» Ð°Ð½
Ġà¦¦ à§ĩà¦ĸ
ĠÐ² Ð¸Ðº
à¹ĩ à¸ģ
Ġpo ate
ĠK n
d ÉĻn
ament os
Ġ ä¼
ĠÑħÐ¾ÑĢ Ð¾ÑĪ
à¹ģ à¸ģ
ĠP P
çŁ ³
Ñģ Ð¾Ð²
áº¡ c
ĠU k
Ġl ater
r Ã«
ãģ« ãĤĤ
Ġ3 50
l is
ĠS pe
ĠA K
Å¡ a
sk Ã¡
ĠÏĥ Î¿Ïħ
Ġt ol
en se
Ġ×© ×ĳ
ĠÄĳ Æ°á»Ŀng
ĠÃİ n
×ľ ×ķ
Ġg Ã¬
iv ed
x a
Ġà° Ĵ
Ġàªľ à«ĩ
Ġà¤® à¥Ī
Ġsk ulle
Ġ Þ
Ġa Å¾
ĠM ass
Ġh á»Ļi
ov ens
Ġtim p
à¦¨à§įà¦¤ à§įà¦°
Ġà¦¸ à§įà¦¬
Ġå¹ ¶
ĠÙĩ ÛĮ
æĪĳ ä»¬
×Ļ×ł ×ķ
ë§ ¤
Ġè ī
Äį as
à´ ľ
ĠÐ» ÑĥÑĩ
Ġv ille
Ġbes ar
ĠK i
ĠS ampai
Ġger ek
à¹Ħ à¸£
ĠI ST
ç Ĩ
az o
Ġà´ ¹
Ġgrand es
ĠW y
ut at
Ġ×ŀ× ł
ed o
ãģ£ãģ¦ ãģĦãĤĭ
ĠÑŀ Ð·
Ġt Ã¡c
Ġê± °
ÑģÐ» ÐµÐ´
Ð°Ð² Ð¸
ne a
Ġà°ļ à±Ĩ
Ġk ost
ing ton
Ø§Ø¦ ÙĬØ©
Ġà¦® à§ĭ
áĢ¯áĢŃ áĤĶ
ĠM ov
ĠÙħØµ Ø±
Ġvers ion
ĠÐłÐ¾ÑģÑģ Ð¸Ð¸
Ġmult ip
àµģà´ ķàµįà´ķ
ĠÙħ Ø§ÙĨ
s al
ĠÃ§ a
Ġat as
ig an
Ġpar ti
ab an
Ġtar get
Û Ķ
ÐµÐ½ Ð½ÑĭÑħ
ĠáĥĲáĥł áĥĺáĥ¡
Ġl Ã¡
àµįà´± àµįà´±
el u
åħ «
Ġale bo
at ore
Ġde ÄŁ
×ł ×¡
ìĸ ´ë
æ¬ §
×Ļ×ł ×Ķ
l ic
ĻĢ â
Ã¶g lich
Ġr it
Ġc c
à¥į âĢį
Ø± Ø§ÙĤ
ĠÚĨ ÙĨØ¯
ĠÐ¿ Ð°ÑĤ
ĠÐ± Ð¸
ĠÐŁ ÐµÑĤ
ĠÙħÙĪÙĤ Ø¹
Ġv ak
ĠáĥĽ áĥĺáĥ
Ġje ho
f il
Ġshum Ã«
as ed
ar ang
Ġv ier
Ġt ÃŃnh
Ġ Ã¡n
im s
er de
ĠU ni
áĥĲáĥłáĥ Ĵ
ori i
à§ĩà¦ ·
Ġà®¤ à®®
Ġlo áº¡i
and s
um ento
ĠOp en
Ð¾ÑģÑĤ Ñĸ
à¦° à§įà¦¤
ĠáĥĹ áĥ¥
Ġc en
Ġv ys
Ġbes ch
à¦¾à¦ ¯à¦¼
Ġcent er
ĠÏĦ ÎŃ
ĠW as
Ġto get
×¢ ×ª
Ð¼ ÐµÑģÑĤ
ff er
f ace
à´£ à´Ĥ
é Ń
Ġle arn
Ġ199 8
Ø§Ø¦ ÙĬ
ĠÑĢÐ°Ð¹ Ð¾Ð½
um en
ĠT O
Ð¸Ð´ Ðµ
Ġìĭ ¤
Ġ{ "
Ġà®ķ à¯ģà®±
ĠÐ¿ÑĢÐ¾ÑĦ ÐµÑģ
ell t
Ġres erv
ĠMa is
àªµ à«Ģ
ÑĢÑĥ Ð¶
ĠF und
ä¹ °
ans a
Ġà¦Ĩ à¦Ĺ
ĠÐµÐ´ Ð¸Ð½
áĢ±áĢ¬ áĢĦáĢºáĢ¸áĢ
Ġc red
à®¿à®° à¯ģà®¨à¯įà®¤
ik us
Ġal go
el ine
ĠIs lam
áĢ¬ áĢĢáĢ¹
ĠÐ½Ðµ Ð¼
à®ļ à¯įà®ļ
ĠáĥĽ áĥ®
ĠÑģÐº Ð°Ð·
_ gr
Ġà´ «
áĤ Ĭ
Ġacc ord
Ġb are
Ø§ÙĦ Ùĩ
Ġáĥĵ áĥ¦
lÄ± ÄŁÄ±
Ġm s
ĠÑĢÐ°Ð· Ð»Ð¸Ñĩ
ãĥ ļ
ĠSch ool
ÐĲ Ð¢
Ġà°¸ à°Ĥà°
ĠØ¢ Ø®Ø±
ĠÐĲ Ð´
å°± æĺ¯
Ġrec on
ì° ¨
×ķ× £
ê· ¸
Ġàª® àª¹
Ġmay or
Ġde y
ÙĨ ÛĮÙĨ
j est
Ġsul la
Ġaut res
20 18
à¯įà® ¨à¯įà®¤
çī Ľ
ĠÙħØ¬Ùħ ÙĪØ¹
à´¿à´¨ àµį
ĠÐ² Ð°Ð¼
åĦ ¿
ĠÙģ ÙĤØ·
Ġf iz
Ġç Ł
w ij
ĠØªØŃ Øª
Ġof er
Ġt Ã¬nh
press ion
ãĥ ľ
P L
ĠCh i
Ġf are
Ġ×Ĳ ×ł×Ļ
ĠÑħ Ð°ÑĢÐ°Ðº
ou v
et u
Ġvá» ĭ
Õ¡Õ ´
ol la
Ġmill ion
Ð¾Ð² Ð¾
ĠB all
àµįà´ ¸
Ġà®¨ à¯Ģ
Ġview s
áĢ±áĢ ·
l ama
Ġ3 60
ÏĢÎ¬ ÏģÏĩ
ÏĦ Ïģ
åĽ½ å®¶
Ð² Ðµ
Ã¤ Ã¤r
ĠØ¨ ÛĮÙħ
ĠÐ±ÐµÑģ Ð¿Ð»Ð°ÑĤ
Ð¾Ð´ Ð°ÑĢ
er al
à¤¾à¤¹ à¥Ģ
ĠØ§ÙĦ Ø§Ø³
is ing
ag s
H ot
ĠÃ§ Ä±
Ġinf lu
ĠÏĦ Îµ
ĠCon c
Ġa inda
ĠPro duct
is esti
Ġp oco
Ġjan Ã«
Ġph oto
ĠÐº Ð»
áĥĲáĥłáĥ ¢
Ø±ÙĪ Ø³
Ġà´ª à´°
Ġf ine
Ġb li
ĠSt at
ĠÙĪØ² ÛĮØ±
Ġn ada
áĢ±áĢ ¡
Øµ Ùģ
æĸ¹ æ³ķ
Ġph ÃŃ
åģ ĩ
áĤıáĢ½ áĢĦáĢ¹áĢ·
Ð½Ð¾ ÑĪ
ev en
ĠÙħ ÙĩÙħ
Ġkont akt
Ġc áº§u
é£ŀ èīĩ
ÑĢ Ð°Ñĩ
ĠéĢ ļ
ĠÐ°Ð²ÑĤÐ¾Ð¼ Ð¾Ð±
Ġser ie
Ġl Ã¦
Ġble v
Ġàªµ àª§
ÙĦÙħ Ø§ÙĨ
amp a
ĠÎĵ Î¹Î±
Ø§Ø ¸
ÙĪ Ø©
ÅĽ cie
åĵ ¡
Ļ áĢ½áĢ¬
ĠØ§ÙĦØ£ ÙĪÙĦ
Ġv Ã©g
ĠPr im
ĠìĽ Ĳ
ĠÑģ Ð¸Ð»
Ġke Ã§
ent ion
ĠØ± ÙĤÙħ
ĠK im
ÙĪØ± ÙĬ
à®£ à¯įà®£
Ġad ult
à¸ª à¸Ķ
ke y
ÐµÑĤ Ñĭ
ĠI hr
Ġk ama
Ġ2 20
ĠRe ply
Ġdis e
Ġà´ķ àµĬ
Ġv Ã¥r
Ġmot iv
Ġáĥ °
ĠÙĨ Ø¨
à§ģ à¦®
ĠGes ch
Ð± Ñĭ
!! !!
Ġinsp ir
Ġbr ing
ÐµÐ» Ð°
E _
áĢ» áĢĸ
Ġver b
± ¼
à°¾à° Ĺ
Ġà¤¤ à¤°
ĠE R
ĠÑģÐ¿ Ð¾ÑģÐ¾Ð±
ĠÃº j
à¦¾à¦ ĸ
ord en
à§ĥ à¦¤
Ĉ Ĉ
Ġà¤ķ à¤®
ĠT em
à´¿à´ ¸
×Ĳ ×ª
or ial
ä½ĵèĤ² æĬķæ³¨
ett u
å¾ ®
à´¿à´ļàµįà´ļ àµģ
ĠÐ¡ Ð²
ĠÐ±Ñĭ Ð»
Ġint ens
Ġis so
âĶ Ģ
ĠØ¨ Ûģ
Ġbeh and
à¹Ģà¸ Ħ
Ġb ok
ï¼ Ĵ
Ð¾Ñģ ÑĥÐ´
à© Ģ
ÏĦÎ¹Îº ÏİÎ½
ĠÐ¯ Ðº
Ġide al
ìŀ ĳ
Ð½Ðµ Ðµ
Ã¼n Ã¼
ĠÙĦ ØŃ
æ¥ ½
Ġt ell
Ġcomm unity
çİ ¯
à¦¿à¦ Ĥ
Ø¬ Ø©
Ð½Ð¾ Ñİ
ĠÐºÐ¾Ð¼ Ð¿Ð»
å¤§ åŃ¦
mer o
ure d
ay o
Ġfun cion
æıĲ ä¾Ľ
ĠÙĨ ØŃ
áĢ¬ áĢľ
iel en
ĠÐ³ Ð°Ð·
Ð½ Ð°Ð³Ð°
Ã¡ nd
¡ à°¾
Ġmo Å¼e
åĢ Ł
ob e
Ð°Ð»ÑĮ Ð½ÑĭÐ¹
áĥķ áĥĲ
v od
_ m
Ġ×Ĳ ×ł
ĠD iv
ĠAust ral
ĠÏĢ ÏģÏī
ĠÎĳ Î½Î±
Ġil k
Ġdis se
ĠÙĬ Ø¬
à¸ļ à¸£à¸´
Ġt sa
Ġh ours
à¦¾à¦¨ à§ĩ
Ġinc re
ÙĤ Øª
ÐµÑģÑĤÐ² Ð¾
Ġcap ital
Ġwh y
Ġ ÏĪ
ers e
Ġtoget her
á»Ń a
Ġh á»į
ĠÏĩ Ïī
å¥ ĩ
F OR
Ġ×ľ ×Ľ
Ġz or
ĠW a
ĠDe utsch
ĠC rist
Ġt ijd
Ġe y
ãĤĮ ãģŁ
ĠÐ±Ñŀ Ð»
ÉĻd ÉĻ
sk Ã½
_gr id
Ġ×Ķ ×Ļ
áĥ® áĥĿáĥķ
ÏĦÎ¿ Î½
il ia
Ð» Ñĥ
Ġph otos
ÙĦ Ø§ØŃ
ÑĤÐ¸ Ñĩ
ĠÐ³Ð¾Ð´ Ð¸Ð½Ð°
à¤¤ à¤¿
Ã³ ng
à±įà° ¦
ell Ã¤
ĠÐ¿ Ñģ
à¤ ³
at ta
à±ĩà° ¦
é» ĳ
à¯ĩ à®©à¯į
ish ing
Ġ: #
à¤Ń à¥Ģ
ar ning
ãģĭ ãģª
ĠT en
ĠÐº ÑĢÐ¸
Úĺ Ùĩ
ĠSe e
ER S
ĠÐŁ ÑĢÐµÐ´
Ġà¹ģ à¸ķà¹Ī
ĠC our
Ġæ Į
Ġma xim
Ġáĥ© áĥķáĥĶáĥľ
Ġà®¤ à®¿à®°
ĠÐ¡ Ð°Ð¼
Ġà´ ¡
ĠÑģÑĤ Ð°Ð²
Ġagain st
Ġcom b
ier ung
ĠÕ ¯
à¹Ģà¸ŀ à¸·à¹Īà¸Ń
ÏĦÎ¹Îº Î¿Ïį
ĠLat v
Ġd ich
om men
ÑĨ ÑĨÐ°
Ġded ic
ĠâĹ ı
ĠPol it
Ġk ec
Ġa ction
ĠÑĢÐµÐ· ÑĥÐ»ÑĮÑĤ
st ar
ac o
Ġdisc uss
Ïĥ ÏĦÎ¬
Ġdire kt
ĠRev iew
ĠÐ¿Ð¾Ð¼ Ð¾Ñī
Ġk eb
à®¿à®² à¯įà®²
æĬ Ĭ
Ġk Ã¼
Ġë Ĭ
ë¬ ¼
pr im
à´¯ àµģà´Ĥ
at as
Ġan v
Ø± Ø³ÛĮ
Ġst ato
ĠÐº Ð¾Ð³Ð´Ð°
Ġr in
ç« ŀ
Ġd iss
Ġver k
ind ÉĻn
u we
Ġs id
ĠR uss
Ġt Äģ
×ŀ ×Ļ×Ŀ
Ð¾Ð½ Ð°Ð»
Ġan c
Ġáĥ£áĥ ¤
Ġob lig
Ġil g
Ø´ ØªÙĩ
ĠÄ ĥn
Ġat ta
Ġn ik
Ġn j
Ġà¤® à¥ĭ
Ġk ek
ÑĢ Ð°ÑĤÑĮ
ĠÙħ Ø²
æĭ ¿
lar Ä±nÄ±n
eb b
à¹Ģà¸¥ à¸·à¸Ń
Ġtemp or
Ġ ÅĤ
ĠN Ã«
ĠØ¢ Ø±
ĠE duc
ÙĪÙħ Ø§ÙĨ
ck y
o it
ĠS ite
Ġà¦ħ à¦¬
Ġp uj
çĻ¾ å®¶
Ġt áº¡o
Ġf ebru
ĠO P
à°Ĥà°¦ à°¿
Ġ×ĳ ×§
Ġju Å¼
ëĤ ´
ĠÄ ģ
opp ing
Ġpar e
Ġq o
Ġte en
ĠGener al
nÃŃ ho
ĠÑĥ ÑĤ
Ġha ar
Î¹ Î»
l ant
Ġpers ona
áĥĿáĥłáĥ ª
Ö ·
ĠF ern
Ġkam u
ĠÐ¿ Ð°Ð¼
à«Ģ àªķ
ĠÙĪ Ø§ÙĤØ¹
ĠDV D
Ġcont en
ul os
ĠÑģ Ð¾ÑģÑĤÐ°Ð²
Ġ Ã¡t
at if
Ġinc ont
Ġgl obal
t al
t id
ĠN eder
ĠÃ¶ ÄŁ
íķ Ń
Ġj y
Ġt j
Ġu0 43
room _grid
5 00
Ļ áĢ½
est ra
h os
Ġpres idente
Ð¸ ÑĦ
E P
ĠS Ã£o
ĠÙĬ ÙĨ
Ġàª¸ àªĤàª
ĠÑĨ Ð²ÐµÑĤ
Ð½ ÐµÐ¼
ç« ł
à§Ł à¦¾à¦°
Ñĸ Ð³
S h
Ġg Ã¥
Ì ī
ĠÑĥ Ð·
ĠÃ´ ng
ĠÐ° Ð»Ðµ
Ġn ight
yd d
ast o
Ġleg al
Ġag çľŁäºº
ê¸ ī
Ø§Ø¨ Ø¹
Ġmemb ers
ì² Ń
Ġé £
Ġpr v
æĬ ¤
Ġoh ne
åĽ ´
ÃŃ an
ang i
Ġqu áº£
ĠF ore
ÚĨ Ùĩ
ĠL uc
áĢļáĢ¹áĢ ľ
im ate
Ġcol lect
ÑĥÑĢ Ð³
pp en
Ġtr an
Ġn Ã¡s
èį ī
im u
est en
ant u
Ġà¤¸ à¥įà¤µ
Ø· Ùģ
ow ane
Ùģ Ø§Ø¹
Ġsen za
b sp
ian te
Ġ ÑĢÐµÐ´
ĠG ay
ĠR ich
Ø§Ùģ Ø¸
int en
az ar
Ø§Ø¨ Ø©
Ġæ ĥ
Î»Î¿ Î¹
Ġp ont
up er
as es
áĥ «
Î³ Îµ
à¸« à¸§
ĠáĢ Ŀ
ĠP age
è¯ Ħ
å¸Ĥ åľº
Ġp esso
Ġof ten
Ġm ata
Ø´ Ø§ÙĨ
à«ĩ àª¨
ĠÑı Ð·
ĠC ho
ĠéĢ ģ
Ġà°¤ à±Ĩà°²
ÏĦ ÏģÎ±
ĠáĢ Ħ
ĠÙħÙĨ Ø·
è´ Ń
at y
ĠR oma
Ġhor as
Ð¸Ñģ Ð¸
ĠÐ¸ Ñģ
ĠìĤ¬ ëŀ
Ġàªķ àª¹
Ġd all
ĠÐ¿ Ð°Ðº
Ġg Ã¶z
Ð» Ð¾Ðº
Ġb ukan
å¤ ±
Ïĥ Ïĩ
ĠÐŃ ÑĤÐ¾
ĠP ad
ĠØ§ÙĦÙħ ÙĨØª
Ġd one
å© ļ
ak si
Ġm ini
ning ar
Ġad res
ĠÐĹ Ð°Ðº
ĠÐ· Ð±
ÄŁ ini
à§ĩà¦ ¦
ĠÎł Îµ
Ġk um
ĠÚ¯ ÛĮØ§
ĠT ut
y al
no ÅĽÄĩ
Ġà¤ħà¤ª à¤¨à¥ĩ
Ġl oro
×¨ ×Ļ
ĠÐ³Ð¾ÑĢ Ð¾Ð´
ĠÐ² Ð¾Ð¿ÑĢÐ¾Ñģ
ĠØ¯Ø§Ø® ÙĦ
Ġsend iri
Ġpub bl
ä¹ ī
Ġk is
r ado
Ð°ÑĶ ÑĤÑĮÑģÑı
Ġaut hor
he z
abil ir
on om
Ġn es
Ġf en
à§ İ
ĠÐ¾Ð´ Ð¸Ð½
çĹ ħ
ÑģÐº Ð¾Ðµ
Ġs ap
ĠÄĳ o
ĠØ® Øµ
Ġ×Ĳ ×Ŀ
eri or
Ġprost itutas
Ġtut to
çĶ ³
×ĳ ×ķ×ĵ
ÙĪÙħ ÛĮ
Ġæ ´
ĠP Ã¥
à±Ĥà° °
Ġb áº£n
Ð°Ð» Ðµ
Ġse a
Ġb ran
on as
à°¾à° ľ
ĠÙ¾ Ø§Ø³
à¤ ¢
ÑĢ Ð°ÑĪ
Ġm oh
Ġa ver
à¸¸ à¸ķ
ĠâĢ¦ âĢ¦
Ġunt il
ĠÏĢ Î¹Î¿
Ġs og
äº ĳ
Ðº Ð»Ð°Ð´
Ġà¹Ģà¸ ģ
Ġfin ns
Ġr ele
Ð¡Ð ĥ
Ġs Ã¼r
Ġprim er
EL L
Ġy Ä±l
çı ¾
Ã¬ m
_ t
or r
Ñı Ð»
ani u
z ar
Ġo st
èª ī
z ia
ĠO K
Ġma u
Ġa Ã±o
è® ©
Ġg ad
Ġper man
Ġc ro
f all
Ġcon fer
D S
à¥ģ à¤¦
ob b
áĥĲáĥķ áĥ¨
l ab
Ġgi Ãºp
Ġwh ite
Ġanmeld elser
Ġà¦¤à¦¿à¦¨ à¦¿
Ġ" );
ha us
à¸Ļ à¸±à¸ģ
Ġt ij
ĠÐ¿ Ð»Ð¾
Ġà®ĩà®° à¯ģà®¨à¯įà®¤
ÐµÐ½ Ð½ÑĭÐµ
ç» Ń
in Äģ
Ġd á»ĭch
Ġag äºļæ´²
Ġmat ch
Ø³ Ø³
Ġ×Ľ ×Ĳ
ÛĮ Ø±ÛĮ
à¸£à¸´ à¸ĩ
Ġå Ł
Ġà¤¸ à¤°
Ġ- ,
g em
nÃ© es
Õ ¾
Ġon d
èĭ ¹æŀľ
ĠØ¨ Ø£
å¿ µ
í Ŀ
ab u
Ñĳ Ð½
Ġà®® à¯ĩ
à¸ĵ à¹Į
ĠÑĤ ÐµÐ¿
w ia
ĠD A
ç» ľ
ĠÐº Ð°Ð±
ãģķãĤĮ ãģ¦
Ð¸ÑĤ ÐµÐ»Ð¸
Ġprogr ama
ĠØ§ÙĬ ÙĨ
Ġ* **
Î¾ Îµ
ett es
Ġe konom
åł´ åĲĪ
Ġrum ah
ì ¸
un oa
Õ¸ÖĤÕ© Õµ
ĠÐ» Ð¸ÑĪ
Ùĩ Ùı
ĠáĥĽ áĥĹ
ĠÙħ Ùģ
Ġh á»ĩ
Ġb all
pr et
Ġs Ã¶z
el ah
ĠØŃ ÙĦ
ĠØ¨ Ø§Øª
ĠN um
éĻ ¤
ĠÕ ¥
ĠÐ¿ÑĢ Ð¾Ñģ
Ġeur os
ĠP il
ĠY o
ĠÑįÑĤ Ð¾Ð³Ð¾
×ķ×ľ ×Ŀ
ĠÄį i
Ġcont rat
ĠÑĤ ÑĥÑĢ
ĠÎ¼Îµ ÏĦÎ¬
Ã§ Ä±
à®¿à®© à¯įà®±
ÑĥÐ± Ð»Ð¸Ðº
Î¹Î¿ ÏĤ
ê° ģ
T T
Ġv Å¡e
ed z
Ġve ya
Î¼ Î¼Î±
Ġr id
ĠI st
Ġt Ãº
é ±¼
Ġsp ace
Ġcon ven
Ġve h
Ðº Ñģ
Ġbard zo
áĥł áĥĺáĥ¡
ØŃ Ø±
ÐµÑģÑĤ Ð¸
à«ĭàª Ĺ
Ġdo en
ĠÏĢ ÏģÎŃÏĢÎµÎ¹
Ø³Øª Ùĩ
Îº Î¿Î»
Ġs ana
Ġd up
Ġà®ķà¯Ĭ à®£à¯įà®Ł
áĢŁ áĢ¬
b t
Ø Ł
Ġex pos
ĠB ew
è ŀį
ny t
Ġl Ã¤h
ĠÕ ¸
d ar
L ist
Ġàª¨ àª¥à«Ģ
ĠT am
Ġac ord
Ùĩ Ùĩ
Ä¾ a
ia go
Ġsp raw
Y W
Ġc osa
ĠØ§Ù¾ ÙĨÛĴ
Ġà¤ľ à¥Ģ
Ġsta y
ĠÐ¿ Ð°Ñģ
ĠK rist
Ð½ Ð¾Ð»Ð¾Ð³
us ia
at r
Ġdefin it
Ġaz t
Ïĩ Î±Î½
Ġv est
Ðº Ð¸ÑĤÐµ
à¤Ĺ à¥Ģ
Ġíĺ Ħ
åĸľ æ¬¢
Ġàª¹à«ĭàª ¯
ĠR en
Ġb Ã¶
ĠF u
Ð¸Ð² Ð°
Ġp ng
Ø¨ Ø§Øª
Ġmeng gunakan
ãĥĨ ãĤ£
à¸ Ŀ
ĠØ£ Ø¹
aj ar
ĠÑĤÐµÐ» ÐµÑĦ
ĠÐ¼Ð¾Ð¶ ÐµÑĤÐµ
Ġ×ĳ ×ł
à¤¾à¤¨ à¥Ģ
Î¹Î½ ÏīÎ½
ch u
Ġh it
Ġtre at
ol ar
ĠØ§ÙĦØ± Ø¦ÙĬØ³
Ġhav ing
ĠÑĤ ÐµÐº
àµĨ à´Łàµįà´Ł
Ġà°ħ à°¨
n k
Ġè ²
ĠØ¨Ø± Ú¯
ì ¤ĳ
Ġfac ilit
Ġsp re
Ġor ient
Ġc Ã´
ĠEur op
ĠØ¨Ø® Ø´
ĠO h
ur ing
ÅĤ em
um in
ot ti
ĠÐĶ Ð¶
ĠInd ust
ãģ£ ãģ¨
or io
ç» ´
à¸Ļà¸ ³
Ġo ly
ĠÏĢ Î¬Î½
Ã¡n ak
Ġï¼ļ âĢľ
Ġfor s
ĠT as
ĠCom ments
Ġà¹Ģà¸ ¡
Ġm emp
àª¿àª ¸
ç» ¼åĲĪ
ĠÑį Ð»ÐµÐºÑĤ
ĠÐ¾ Ð½Ð°
Ġon de
ĠãĤ Ĵ
r ant
à´µ àµģà´Ĥ
ra it
ĠáĢ¡ áĢħ
ÐµÐ¼ Ð°
á»Ļ ng
ĠV in
å¤ į
ĠÑĦ ÑĥÐ½Ðº
ĠÐ¼ Ð¸Ð½Ð¸
Ġåĩ º
Ġs ido
ĠK omm
Ġsp o
ĠðŁ Ļ
Ð· ÑĭÐ²
à¸£ à¸±
ist ra
ĠÐº Ð°Ð·
åį Ĭ
Ġå¿ «
í Ĺ
Ġsk r
Ġmie js
ol Ã³g
D I
ĠÙģ ÙĨ
Ġtent ang
çĶŁ æ´»
ĠÐ¿Ð¾ÑĤ ÑĢÐµÐ±
ĠM r
ĠØ² ÙħØ§ÙĨ
Ñı Ð¶
¶ Į
Ġà°ķ à±Ĭ
à¸Ĺ à¸²à¸ĩ
Ġt ir
Å£ ii
ĠÐ± ÑĥÐ»
r ation
Ġcir c
ÑĢÐµ ÑĪ
ĠÃ¼ zer
Ġdevelop ment
Ġg b
é ¥
enc y
Ø¯ Ø§ÙĨ
Ġï¿½ï¿½ï¿½ï¿½ï¿½ï¿½ï¿½ ï¿½
ï¼ ļ
ĠÑģÑĤ Ð°ÑĤ
Ġà¸ļ à¸Ńà¸¥
ĠÄĳ áº¹p
é §
æŃ ¢
à¯ģà® ª
Ġàª¹àª¤ à«Ģ
ĠO S
ĠÐ¹ Ð¾Ð³Ð¾
à´¦ àµįà´
ud ad
Ġè ħ
ĠÃ ķ
Ñĸ Ð¶
ĠØ§ÙĤ ØªØµ
ĠB und
ĠAG çİ¯äºļ
Ø² ÙĦ
Ġwe er
æĭĽ èģĺ
ĠØ¨Ø±ÙĨ Ø§ÙħÙĩ
Ġph áº§n
ĠInst it
Ġáĥ® áĥĶáĥļ
áĥĿáĥ Ļ
ĸ áĢ¼
ÑĢÐµ Ð²
» áĢĸ
èµ ¢
á Ī
Ġprincip al
ÙĩâĢĮ ÙĩØ§ÛĮ
Øµ Ø©
Ø§Ø¨ ÛĮ
ĠÐ¿ÑĢÐ¾ ÐµÐºÑĤ
Ī à¸°
ĠÙĩØ³Øª ÙĨØ¯
ĠÐ¸ÑģÑĤ Ð¾ÑĢÐ¸
Ø¯ Ø§Ø´
Æ° u
Ġb od
ÐµÑĢ Ñĭ
Ġà®µ à®¿à®
Ġh ace
à¸Ĺ à¸±à¹īà¸ĩ
Ġâ ŀ
ĠÎ£ Ïħ
p es
Ġth Ã¡ng
Ġbar n
à· Ĵ
Ã Į
Ġte ach
ĠM eng
" "
ĠF ort
à§įà¦ ľ
ĠÙĩÙħ ÚĨ
ib u
Ġh Ã¡
ØŃ Ùĩ
Ġcl os
ĠÎķ Ïħ
ĠC S
Ñļ Ðµ
áĢ¥ áĢ¹áĢ
¤ Ģ
ĠSh op
Ġtra vel
Ø¯ Ùī
Ġà¦¹à§Ł à§ĩà¦Ľà§ĩ
Ġu a
Ġn ye
Ġå »
ĠW ord
b ie
Ġt at
ĠP ap
Ġprov in
Ġim pos
q a
Ġv ind
Ġdes ta
Ġà¤ Ŀ
ĠÛĮÚ© ÛĮ
ĠH i
à¸Ħ à¸Ļ
ire d
à«Ģàª ¯
Ġsel ect
ĠæĹ ©
ãĥĥ ãĥī
ĠÐ²Ñĭ Ð±
ess Ã¤
ĠØ§ÙĦ Ø§Ø³Øª
k Ã¤
Ġlin ks
ĠáĢĢ áĢ¼
ci u
ah u
Ġà¦ķ à§ĭà¦¨
Ġk uj
ĠÐ¼ Ð¾
Ð°Ð¼ Ð°
Ġk rit
ĠÐ± Ð»Ð°Ð³
ĠãĤ Ń
ĠáĢŀ áĢŃ
ĠaÃ§ Ä±
Ġman agement
Ġh alam
ĠÐ²ÑĢÐµÐ¼ Ðµ
ĠÐº Ð°Ð¿
×© ×ķ×ª
ĠÒ ļ
elij ke
Ø¹ Ø§Øª
ĠÐºÐ¾ÑĤÐ¾ÑĢ ÑĭÐ¹
ÑģÐº Ð¸ÑĤÐµ
à±įà°² à±ĭ
Ġæ ı
Ġà§¨à§¦à§ §à§
Ġë¶ Ħ
ĠØ² ÙħÛĮÙĨ
ch ts
Ġà®ī à®³à¯įà®³
à© ĩ
Ú© Ûģ
Ð¸Ð½ Ñĥ
Ġik i
v il
Ġbeaut iful
à°¾à°¨ à°¿à°ķà°¿
ÅĤ am
ĠG az
ÙĬ Ø·
le v
ĠmÃ¡ is
×¢ ×Ķ
åĩ ł
åº ·
ĠÐĴ Ñģ
ĠÐ¸ÑģÐ¿ Ð¾Ð»ÑĮÐ·Ð¾Ð²
el as
ĠÏĢ Î»Î·
it ect
Ġh art
iv as
áĥĲáĥ ŀ
Ġá ł
Ġmol t
å¹ ¶
ãĢ į
t Ä±
àª Ľ
à° ·
Ġáĥ¡ áĥ¢
Ġà¤µ à¥įà¤¯
à« ¦
Ġdes pre
ìĨ į
æľīéĻĲ åħ¬åı¸
à«Ģ àª¨à«ĩ
ĠÐ¡Ð ĥ
ĠF C
ĠIs ra
ÑĥÐ± Ð»Ð¸
Î»Î¿ Ïį
áĢĻáĢ¾ áĢ¯
Ġatt r
j d
Ġto da
Ġà® ¯
ãĤ ¶
ÑģÑĤÑĢÑĥ Ðº
à°¿à° ®
ĠÙħØ±Ø¯ Ùħ
Ġpr ix
ÑĬÑĢ Ð¶
ĠF ull
àµĩà´ ·
a ires
Ġinv ol
ÑĢÐ°ÑĹ Ð½
ĠÃ© n
é¡ Į
ãģĿ ãģĨ
em in
à§įà¦ ł
ĠÐº Ð¾Ð¹
Ġabe uk
Ġå ķ
ÏĮ ÏĦÎ·
op o
K K
ĠS U
áĥĿáĥłáĥ Ľ
ĠÙĤ Ø§ÙĨÙĪÙĨ
ĠØª Ø®
Ġfl ere
ĠÐ± Ð¸ÑĢ
Ġw ij
ĠÐ½ Ð¸Ñħ
×ĳ ×Ļ×Ŀ
ãĤ Ģ
Ġges ch
Ðł Ðŀ
Ġk j
ĠV it
Ø® Ø¯Ø§Ùħ
ĠMot or
ing e
Ġn Ã¦r
Ġfaz er
ĠÐ´ ÐµÑĢÐ¶
ĠÏĥ ÏĩÎµ
ĠTe am
ĠSt reet
Ã¡ Å¡
ĠÏĢÎ¿Î» Î¹
à°¿à° ¸à±įà°¤
Ġst ock
ba ik
áĢĻ áĢ¼
Ġà®¤à®® à®¿à®´
ia u
ĠS Ã¥
ÅĻ i
ĠÐ¿ÑĢÐ¸ Ð²
ĠMich ael
ĠØ¬ Ø²
çĶ £
Â ¨
à´ķ à´°
ĠáĥĽ áĥĲáĥĹ
Ġà´ Ī
Ġsu o
ÑģÑĤÑĢ Ð¾Ð¹
ĠÃ ĭ
Ġs ÅĤ
ĠRed ir
Ġà®® à¯ģà®Ł
ĠÅ¾ iv
ÈĽ ie
ĠØ¢ÙĨ ÙĩØ§
ÑĬ Ðº
ar g
ĠØ¨ Ø²Ø±
Ġme u
vo or
ov Ã½ch
ĠÎµ Î¹
Ðº Ð°Ð¼Ð¸
ĠØ· Ø¨
ĠÃ Ĥ
ĠF t
ĠÑģÐµ Ð±Ðµ
l ers
ÐµÐ½ÑĤ Ð¾Ð²
s ide
Ġí ĽĦ
an cia
áĢĽ áĢ½
ac ute
Ġil s
c ont
à¥ĩà¤ ľ
Ø§Ø¦ Ùħ
ĠU ne
ill as
Ġser ta
ĠáĢĴ áĢ«
ÈĽ Äĥ
Ġdel iver
à¸´ à¸ģ
ÃŃ o
ĠÒĽ Ð¸Ð»Ð¸
Ġstud y
Ã¤ d
ĠÒ ·
Ġde al
l s
3 00
ĠCat al
stan bul
Ġà¦ķà¦° à¦¤à§ĩ
ip a
Ġç ģ
à¤¾à¤¨ à¤¾
Ġçī ¹
Ġæµ ·
Ġ( +
ĠL ight
m az
Ġv iss
ĠÑĢÐ°Ð±Ð¾ÑĤ Ñĭ
Ġm ula
Ġc ele
l or
ĠÐº Ð¾ÑĢÐ¸
ëĬ ¥
Ġt ÄĽ
ĠD ate
Ø¬ Ø¯
íĻĶ ìĿ´íĬ¸
è¡¨ ç¤º
ak it
F A
Ġà¤® à¥ģà¤
Ġs f
ĠN A
z ÄĻ
Ġçİ °
æŃ£ è§Ħ
à¤¦ à¥Ģ
id upan
Ġà¤® à¤¿à¤²
ĠØªÙĪ Ø¬Ùĩ
ĠY e
Ġà¤¸ à¥Ģ
àª¾àª ĵ
Ġcl ose
ĠK en
à«ĭ àª°
Ġv ÄĽ
ĠÄĳ iá»ĩn
ĠB eg
à¹Īà¸§ à¸¢
Ġgod t
à®³ à¯Ī
Ġãģĵ ãĤĮ
Ġter rit
ÐµÐ½Ð¸ ÑĤÐµ
ëį ĺ
Î¼ÎŃ Î½Î±
ĠÐ½Ðµ Ð²
Ġm az
áĢ¬ áĢĶ
C om
Ġd Ã¶n
Ġtá» Ľi
ĠÐ· Ð½Ð°
ol en
Ġà¹Ĥ à¸Ľà¸£
Ġfinan ci
Ġe as
Ġd zi
Ã©l Ã©
é Ĭ
form a
æĬĢ æľ¯
ĠÎ¿ Î¹ÎºÎ¿
Ġut ilis
íĶĦ íĻĶìĿ´íĬ¸
à¸ Ĳ
ÑĨÑĸ Ð¹
ĠÐļ Ð¸
Ġg all
ĠIn sta
à±Ģ à°¸
ĠT il
ĠØº ÛĮØ±
ĠCol or
à¦¾à¦¦ à§ĩà¦¶
Ġman era
ab ile
ÙĦ Ø§Ø«
ÑĢ Ð¾Ð»
Âµ ÃĦ
ĠÐ¿ÑĢÐ¸ Ð½
aj Äħc
ĠDan iel
à¥ģ à¤¤
Ñı ÑĤÐ°
Â ¿
Ġla p
é į
ĠÐ¿ Ð¸ÑĤ
Ã¡ ciÃ³
ĠØ¯Ø§Ø´ ØªÙĩ
Ġmend apat
ãĤĭ ãģ¨
ĠÄĳ áº¡i
Ġà¦ıà¦ķ à¦Łà¦¿
ĠÐ² ÐºÐ»ÑİÑĩ
Ġk lo
Ġin ici
ĠÐºÑĬ Ð¼
çłĶ ç©¶
à¥ĭ à¤²
t d
Ġol la
äº Ī
áĢĴ áĢ®
Ġí İ
ÏģÎ± Îº
Ð ¦
Ġp Å¯j
ĠØ¬ Ø¨
h es
Ġo or
Ġd int
Ġme ans
ĠFran k
æĻĤ éĸĵ
w ick
we et
ab ly
ĠØ³ Ù¾
Ġqu ick
ĠE ver
Ñį ÑĤÐ°
at k
ÚĨ Ú¾
ro ve
Ø§Ø¦ Ø±
Ð± Ð¾Ð»
Ġr y
Ġcomp an
ĠÃ©ta it
ĠR oz
Ð¶ Ð¸Ð¼
er st
ĠMas ter
ĠáĢ¡ áĢľ
ac Äĥ
Ġinc lu
Ġ) )
Ġåī į
Ġw alk
à¸£ à¸£
Ġprote ct
Ġp us
Ġà§ ©
Ġal k
æŃ Į
Ġà°ª à±Ĩ
ĠÐµ Ðµ
Ġm ort
Ġku in
v it
Ġsam men
ur er
à¸Ń à¸Ńà¸ģ
Ïĩ Î¿
E V
Ġqu anto
ah kan
Ã³ ria
Ġg irl
ĠØ³ ÙĦØ§Ùħ
ìŀħ ëĭĪëĭ¤
à¥Ĥ à¤ª
Ġch á»©c
Ã¶ nt
ĠC ong
à¨ ¿
ĠáĥĻ áĥĿáĥĽ
Ġ10 5
ç¤¾ ä¼ļ
ill es
ĠÑĤÐ°Ðº Ð°
Ġj Ã³
Ġdent ro
à¤¾à¤° à¤¾
ÐµÑĨ ÑĨÐ°
Ġpolit ik
ĠM ach
Ð¾Ð´ Ð¸
ag u
Ġth Æ°á»Ŀng
Ġr iv
ä¾ Ŀ
àª ı
Ġz as
áĥĵ áĥĶáĥĴ
Ġêµ Ĳ
Ġ×¨ ×Ĳ
ĠÃº Äį
Ġ? "
Ùĥ ÙĪÙħ
ĠJe an
Ġãĥ ©
ĠIt al
ĠÑģ Ð¾Ð»
Ø¯ Ø§Ø¯
ĠÅ ļ
Ġpriv ate
à¦¾à¦¤ à§ĩ
à´® à´¾à´¯
" >
bo ard
Ġreg istr
áĢ» áĢģ
n sk
Ġam or
Ġlog o
ĠI z
ÑģÐº Ð¾
ĠT P
ĠÄ° ÅŁ
ĠC Ã´ng
ÅĽ li
æ¼ ı
Ø³ ÙĨ
ia h
y stem
Ġex emp
ĠÑĥ Ð»
áĥĵ áĥĶáĥĳáĥĲ
O U
ĠÐ½ Ð°Ñĺ
ĠL ou
Ġth ing
ãĥ» ãĥ»
ÑĮ Ñı
á»Ł i
if er
ĠÙĤ Ø¨
Ġho áº·c
à¦¾à¦ķ à¦¾
ĠÙĨ Øª
Ð° Ð¸
b org
Ġãĥ ª
irs iniz
à±ģà° ¡à±ģ
ova Å¥
ĠØ® Ø§Ø±Ø¬
à¦¿à¦ ľ
ih in
à§Ł à¦¾
ay Ä±n
Ġtip s
ut ions
ĠØª Øª
ud z
à°Ĥà° Ĺ
ĠÐ¿Ð» Ð°Ð½
æĸĻ çĦ¡æĸĻ
Ġpos ta
Ġkh u
Ð §
Ġy r
Ø§Ø¨ Ø±
ĠÐºÑĥÐ¿ Ð¸ÑĤÑĮ
Ġq ar
Ġp ush
ĠN orm
d ien
ĠÑĥÑģÐ» Ð¾Ð²
ag n
Ġg ÅĤ
ĠÐ´ ÑĥÐ¼
à¦¿à¦ ¯à¦¼
ÃŃ l
èĻ İ
Ġãĥ ĳ
Ġà¦ķ à¦®
b ang
Ġé Ł
ĠÐĴ ÑģÐµ
Ġtem pl
Ġh il
±áĢ ŀ
Ġãĥ Ī
Ġ19 90
ÅĨ u
Ġperform ance
Ġtr ang
Ġk ali
à°¾à° ¸
Ġar v
Ġpu Ã²
àª¾àª ĸ
enc ont
Ã³ Å¼
Â ¹
n n
ĠM ik
à°¾à°¯ à°¿
im an
Ġquest ions
áĢĸáĢ¼ áĢħáĢº
Ġç «
ÏĦÎ® ÏĤ
Ġà®µà¯ĩ à®£à¯įà®Ł
Ġà¤¤ à¤ķ
ĠÐ¸ Ð´
Û° Û°
Ø¨ Ø§
f ik
ãĥ³ãĤ ¿
ëĵ¤ ìĿ´
ma q
ĠÅ¡ t
l ash
12 3
Ġal an
Ġm Å¯
AR I
áĤıáĢ½ áĢħáĢ¹áĢ
à¤¾à¤° à¥ĩ
it ure
ia c
Ġmis mo
iá» ħn
å¤© å¤©
Ð ¯
ĠV ous
Â ²
Ġ×ľ ×ª
Ġà° «
Ġk ot
Ø¸ Ø±
å° ¼
Ġmo i
Ġt l
à°¾à° ¡à±ģ
ĠÑĢÐ°Ñģ Ð¿
ĠB ez
Z W
ĠS av
Ð¾Ð½ Ð¾Ð²
ĠÑģÑĤ ÑĥÐ´
ĠÐ¿ÑĢ Ð¾Ð¿
à¤¿à¤ Ł
ĠÎ¼ Î·
àª¾àª ¡
Ġm Å±
ĠG et
ĠØ¹ Ø±Ø¶
×Ļ ×ķ×Ł
aj Ãº
Ġn ah
Ġm uk
Ġb om
æĻ ®
ÑģÑĮ ÐºÐ¸Ð¹
Ã¡t ica
re ady
ĠPre mi
ĠØ³ Ø§Ø¹Øª
ĠP ay
Ã¡ val
el ess
ĠÐ² Ð¸ÑĢ
Ġgi áº£i
ĠC le
ą Ĉ
áĢķáĢ« áĢĲáĢļáĢº
áģ ¼
Ġst ruct
å¾ ħ
ies e
ĠB A
Ġáĥ¡áĥĲáĥ¥áĥĲáĥłáĥĹáĥķáĥĶáĥļ áĥĿáĥ¡
Ø² Ø§ÙĨ
f Ã¸r
áĢĢ áĢ»
Ð½Ð¸ Ð¼Ð¸
ant al
K A
Ġakt iv
ãģ¡ ãĤĥ
Ä ŀ
ĠMob ile
ĠÚ¯ Ø±ÙĪ
à¯įà® °
s elf
zy m
Ġr isk
à¸Ĥà¸¶ à¹īà¸Ļ
Ø§ÛĮ ÙĨ
æĹ ı
Ġ ãģĦ
ÄŁ a
Ġsal ah
íķľ ëĭ¤
ir en
Î» ÎµÎ¯
åĢ į
ĠÙĨÛĮ Ø³Øª
ĠÐºÐ°Ð¶ Ð´
ÑĢ Ð¾ÑģÑĤ
nÃŃ k
ĠÙĩ Ø¯
è¾ ¼
áĥĶáĥ Ļ
ÉĻ li
à¦ľ à¦¨
Ã¼ hr
Ġsr c
Ġs lu
ÙĨ Ùħ
Îº Î»Î·
×ŀ× ©
à¸¡ à¸ª
ric t
ĠEle kt
ÑĢÐµÐ´ Ð¸ÑĤ
un que
Ġæīĭ æľº
ĠMin ister
_ P
ĠØ¢ ÙĩÙĨÚ¯
çµ Ĳ
ĠgÃ¶ re
Ð¿Ð¾Ð² ÑĸÐ´
sch aft
Ġit o
Ġb ÄĻdzie
à¯ĩ à®ļ
à«ģ àªķ
Ġl ett
åº §
ĠìŀĪ ìĬµëĭĪëĭ¤
ĠåĽ ł
Ġb á»ĩnh
Ġäº Ķ
ĠP eter
Ġfun k
ĠM ini
ìĻ ¸
ÑģÑĤ ÑĥÐ¿
ÎĳÎ ¡
ĠØ³ Ø§Ùħ
ĠN ik
áĥĺáĥľ áĥĲ
Ġra h
à±ĩà° ¶
ww w
ens ive
ad z
Ġç ¦
Ġv Ã¤h
b ers
åį °
à¤¾à¤ ·
or er
ht i
ĠR oy
Ã¦ s
Ġb os
ac es
Ñİ Ð²
ĠÐ½ Ð¾ÑĢÐ¼
un y
Ġiz an
Ġà¹Ħ à¸Ķà¹ī
Ġgiá» Ľi
Ġp Ãµ
áĥķ áĥľ
Ġobs erv
à°ķà±įà° ·
Ð¾ÑĤ Ð²ÐµÑĤ
Ã¡r t
Ġl Ã¶
Øª ÙĩØ§
unoa ÈĻte
Ġvol ta
ÙĬ ÙĬÙĨ
Ù °
u ari
à¥Ģ à¤ļ
Ġà¤¬ à¤¾à¤¦
ãĤĵ ãģ§
Ġë ĺ
Ġà¤ª à¥Ĥ
Ġbec ome
Ġà°ļà±ĩà° ¸
à¥ĭ à¤ķ
ĠÑĥ Ð±
à¯ģà®® à¯įà®ª
ĠÑģÐµ ÑĢÐ¸
Ġo thers
Ġj ug
å¿ ľ
Ġ199 7
æ² ¹
áĥķ áĥĺáĥĹ
à«ĩàª ¤
d em
Ø¶ ÙĪ
ĠÛ µ
ë° ľ
ĠÙģ Ø¶
ĠR as
×Ĺ ×ª
ĠJ uni
Ð½Ñĸ Ðº
èĩ ´
à¸´ à¸Ī
ĠA nh
Ġì ¶
ÙĬ Ø¬
ibli ot
áĢĻáĢ¾ áĢ¬
Ġs qu
Ġme an
ĠBer lin
bo ok
Ġdetail s
à¹Ģà¸Ĺ à¸¨
Ġ& &
è¾ ĵ
ial is
Ġk áº¿
Ġe b
Ġprodu c
ĠÅ ½
ĠÚ© Ø³ÛĮ
×¢ ×ķ×ª
Ġæ¶ ĵ
Ġal ap
Ġàªī àªª
åĨ ł
ĠÐ¶ ÐµÐ½
Ġdis k
b are
ĠP ier
áĢŃ áĢĻáĢ¹áĢ
Ø¨ ÙĬØ±
Ø² Ø©
Ġtrans fer
Ġj in
ung a
Ġà¤ķ à¤¹à¤¾
Ġj ar
Ġdesen vol
Ġ- --
ĠÃ© qu
Ġà¤² à¥ĭà¤Ĺ
ĠÚ©Ø±Ø¯ ÙĨ
Ġcli ents
Ġapplic ation
Ġ* *
ĠÙħØ¬ ÙĦØ³
ĠS ky
Ġl Ä«dz
ĠÙĨ ÙģØ³
ĠÅĽ wi
Ġalb um
à± ĥ
Ġv ic
Ġg ames
Î· Î³
Ġp ien
æĺ ¥
________ ________
ĠÒ ²
Ġto pl
Ġso us
uf act
ĠN as
ĠØ§Ø³ÙĦØ§Ùħ ÛĮ
ĠÐ± Ð¾ÑĪ
ĠØ³ Ø§ØªÚ¾
Ġk osten
ãĥ¼ ãĤ¯
åĪ Ļ
à±įà°² à±ģ
ou ch
EN D
Ġoff ice
Ġà° ¯
20 16
áĢ±áĢ¬ áĢ·
ĠáĥĽ áĥĿáĥĽ
Ġkun ne
Ġis h
ÑĥÐ²Ð° Ð°ÑĤ
à¸¢ à¸±à¸ĩ
ĠÐ´ Ð²Ð°
Ġest Ã¡n
it ti
Ġbr ug
ĠáĥĽ áĥĲáĥ¡
Ä¼ u
ĠÙģ Ø§Ø±
à¸£ à¸ģ
ĠE g
ĠëĲ ĺ
Ġph Ã¡p
ĠE ss
à´¤àµįà´¤ à´¿à´²àµįâĢį
Ġmak es
ĠØ§ÛĮ Ø³
ÙĪÙĦ Ø©
Ġun ser
Ġfab ric
ĠáĥĻ áĥĺ
ĠÑĨ Ñĸ
Ġd Ã¹ng
Ġmel akukan
ibil ity
ap o
P A
Ġlá»Ľ n
ĠÚ¯ ÙĦ
Ð»Ð¸ Ð½
ĠÐļ Ð°ÑĢ
Ġon ze
Ġsa f
Ġcomm unic
Ġ×ŀ× ŀ×
Ġ×Ļ ×ķ×ª×¨
m itt
Ġro d
ĠÙĪ ÙĦÙĥ
ĠÙĨ ÙĪØ¹
Ġj as
er ca
à´¾à´ ķ
à§ģ à¦ķà§įà¦¤
fÃ¼ hr
ĠÙĦÛĮ ÛĴ
Ġest r
æ¸ ©
à¤¾à¤ ĵ
Ġâ Ŀ
Ġv es
ĠÎķ Î»Î»Î¬
ĠÃ© c
ĠW al
ĠØ§ÙĦ Ø¨Ø±
åħ ħ
à¦¾à¦ ¥
eng er
ag gio
ĠÛ ´
åķĨ åĵģ
áĢ¬áĢ¸áĢ Ĳ
ĠØ³ Ø±ÛĮ
Ġex plic
Ġc v
Ġver g
áĢľ áĢ²
Ġå¾ ·
iss en
Ġç µ
ãĥķãĤ ©
ĠT ip
uts che
em o
ĠÐ¼ÐµÐ½ Ñı
ĠA gen
ĠÎ± ÎºÏĮ
Ġter ra
à®± à¯įà®ª
å¿ Ĺ
ĠæĪĳ ä»¬
à°¤ à±įà°¤
áĢ¯ áĢĲáĢº
ĠN acional
ĠHe alth
ĠB ild
áº§ m
ĠÐĳÐµÐ» Ð°ÑĢ
å»º è®¾
ĠK ad
àª£ à«ĩ
em as
Ġà¤° à¤¹à¥ĩ
Ã¤m Ã¤
è¡ Ģ
Î´ Î¹Î¬
Î½ Î®
æĶ¿ åºľ
ĠØªÙĪ Ø³Ø·
ĠE T
à¸Ķ à¸¹
à¦ª à¦°
áĢĻ áĤĪ
Îº Î·
à¸£ à¸§
ĠÎĺ Îµ
ĠçĶ Ł
ĠÎ¾ Îµ
íĺ ķ
à¸ĩ à¸²à¸Ļà¸
ler ini
ĠØ¯ ÙĪÙĨ
áĢĲáĢ¼ áĢĢáĢ¹
ĠÙĩÙħ Ùĩ
æķĻ èĤ²
áº© n
Ġbu at
Ġà®ļà¯Ĩà®¯ à¯įà®¤
Ġad i
ĠØ¨ Ø³
Ġdec is
Þ ¦
ĠÎµÏĢ Î¹Ïĥ
Ġ\" :
ĠG eb
à®ķ à¯į
Ã³ c
Ġi y
Ùĩ ÙĪØ±
ÑĢÐ¸ Ð²
ĠáĢĸ áĢ¼
Ġcon vers
Ġàªħ àª¨
Ġ>< /
r Ã¼n
Ġtr á»ĭ
ĠÙĪØ§ÙĦ Ø£
Ġmar ca
Ñĩ ÐµÐ½
Ġsa o
c ell
àµģà´ °
et z
ĠéĿ Ĵ
ĠNo us
à´¿à´ ®
Ñĥ Ð½Ð¸
l ÃŃ
im as
×ĳ ×Ļ
Ġla w
æł ¹
Î¼ Î¿Ïħ
ĠåĴ Į
àª¤ à«Ģ
à¤¾à¤ ¶
k es
Ġë Ĩ
Ġr ange
ì µľ
ĠÐ³Ð¾Ð´ Ð¸Ð½Ð¸
Ġef ect
Ġk unt
Ġc _
z ioni
ĠÙħÙĪØ¬ ÙĪØ¯
Ġpre vent
äºº æ°ĳ
ÙĪÙĨ Ø§
âĶĢ âĶĢ
è¯ Ń
ich a
Ġl ite
ĠTr ump
Ġstud ent
Ġsim ilar
ĠÐ² ÐµÐ»
ĠáĢĢ áĢ»
ĠØ¨Ø± Ø®
ĠÐ´ Ð¾Ð³Ð¾Ð²
Ġein fach
ĠW ill
t Ä±r
ĠáĥĲáĥ ķ
Ġà° ¡
Î³ ÏģÎ¬
p ap
ON G
ĠH av
Ġadd ress
ĠÐ¢ Ð¾
Ġqu ant
à¹Ĥ à¸Ļ
Ġmar gin
è´ £
Ġä» İ
ì ¶
on de
Ġsen se
zy ch
Ġr ub
Ġf lu
Ġog ni
Ġest ado
èŃ ¦
åĢ Ļ
Ġcompl ete
ĠG ew
Ġb Ã¸r
Äĵ s
est s
et ter
Ġnav ig
Ġkomm un
ĠN Ã¤
Ġin gen
Ú¾ Ø±
Ġàª® àª³
Ġper cent
Ġëħ ¸
Ġper lu
Ñī Ð°
ìł Ĳ
ĠÚ©Ûģ Ø§
ap on
ë ¸
Ø§ÙĤ Ø©
ĠÏĢ ÏīÏĤ
Ġro t
Ġcomp os
ÛĮÙĨ Ùĩ
ĠÐ´ Ð¾Ð´
Ġë° °
Ġper met
Ġk esk
é¦ĸ é¡µ
Õ¸ÖĤ Õ¶
er er
d ie
te a
Ġfut ure
Ġtek n
Ġz ad
Ġf uer
ĠT it
Ð½ ÐµÐ½
Ïĩ Î¹
å± ŀ
Ä« ba
ĠR ock
ç´ Ħ
ors z
m us
ãģ ĸ
ays ia
Ġà¦Ĺ à§įà¦°
ÑĤ Ð°ÑĢ
h h
ĠÂ ¦
áĤĢáĢĢ áĢ®áĢ¸áĢ
à±ģà°Ĥà° ¦à°¿
ĠØ§Ø ¶
æŀ Ħ
Ġa ang
à¸£ à¸²à¸Ħ
Ġem b
ĠS or
áĥĲáĥ «
Î½ Î¹Î±
Ġáĥ¡ áĥĲáĥ¡
Ġes o
ìĹĲ ê²Į
Î¼Î¬ ÏĦÏīÎ½
ĠÐł ÐĨ
Æ° ng
Ġìł Ģ
ë£ Į
ĠÑģ ÑĥÐ¿
å± ħ
p ect
Ġtur n
Ġcáº£ m
ĠDig ital
ç¯ ĩ
Ġë ¦¬
Ð ¬
Ġè¦ ģ
æŃ »
Ġse ctor
ĠOff ice
ĠÑģ Ð¾Ð·Ð´
s che
ĠÙĨ Ø³
Ġa er
ist on
E x
Ġal u
ĠPro bl
Ġv ita
åľ Ł
Ġ10 1
ãĤ¤ ãĥ³
à¸Ļà¸ Ĺ
ĠÙĨ Ú¯
Ġpo h
Ġg egen
ä» ½
Ġ×ķ ×Ľ
à´¿à´² àµģà´Ĥ
c are
ĠÃ© r
Ø³ ÙĦØ§Ùħ
Ġresult s
ist ic
Ġten er
ĠÏĦ ÏĮ
æ¸¸æĪı å¹³åı°
ÙĨ ÙĬÙĨ
Ġz osta
Ġk ultur
ĠFr om
×ľ ×ª
Ġ' )
Î §
Ġw en
Â °
ä¸ ¾
à¸Ĺ à¸°
ib en
ĠØ§Ø® Ø¨Ø§Ø±
Ġnh iÃªn
fa ult
Ġba o
Ġr ent
Ġj p
ì ½Ķ
éĻ Ĩ
le b
ĠtÃ¶ bb
ĠØ¨ Ø·
Ġth o
Ġkl ub
ÙĦÙĬ ÙĦ
ç»ı æµİ
id el
ìĦ ¤
it im
o in
ian i
ÙĪÙħ Ø§Øª
hing ga
Ġà°® à±Ģ
ĠÐ³ Ð´Ðµ
bar u
ÙĦÛĮ ÙĦ
ĠÑĪ ÐºÐ¾Ð»
ĠÐ¿ÑĢÐ¾Ð² ÐµÐ´
Ġsh qip
á» ¹
Ġke ine
it ori
Ġå¹ ³
Ġup load
omb res
in an
ĠQu á»ĳc
×¤ ×ª
Ġr Ã³w
Ġeng ine
Ġde ve
ay e
ĠÙĥØ§ÙĨ Øª
Ġs ource
n te
art h
Ġm uss
Ġv ah
Î» Ïī
Ġv Ã¥
Ã© b
Ġh ub
à¦¨ à¦¿
ÐºÐ¸ Ð½
Ġs and
ĠB E
Ġnd Ã«r
ĠIS BN
et ar
ĠG ame
ver n
C M
á» Ľ
Ġprim era
Ġz ich
ĠÐ¿Ð» Ð°ÑĤ
æī ¹
ÑģÑĮ ÐºÐ°
ĠÐ½Ðµ Ð³Ð¾
Ġcont ract
ÑĢÑĥ Ð¿
àª¿ àª¨
_ d
å¤ĩ çĶ¨
ĠØ£ÙĨ Ùĩ
v r
kl am
çĶµ åŃĲ
Ð¾ÑģÑĥÐ´ Ð°ÑĢ
s am
is y
on na
ĠB ul
ç§ ģ
ri que
g ens
ag ne
à¥ģ à¤ª
is ine
ãģı ãģł
Ġelekt ron
ç½ĳ ä¸Ĭ
à¸²à¸ ļ
Ð¸Ð» Ð¾
Ġsec ret
Ġ2 F
ag t
ĠØ¨Ø¯ ÙĪÙĨ
àª¾àª ª
Ġë°Ķ ì¹´ëĿ¼
í ĳľ
ĠÙģØ¹ Ø§ÙĦ
ÏĦ Î¹Î±
ÐĲ Ðł
Ð°Ð»ÑĮ Ð½ÑĭÑħ
Ġt api
áº ³
Ð¼ ÑĸÐ½
ĠÙ¾ Ø§Ø±
Ġal ready
Ð°Ð»ÑĮ Ð½ÑĭÐµ
ĠØ¯Ø§ÙĨØ´ Ú¯Ø§Ùĩ
Ġdies er
skie go
Ġinform aciÃ³n
Ġà¤Ĩ à¤£
Ġro k
ÑĢÑı Ð±
Ġ×© ×ł
ĠC V
ig li
ick y
íĥ Ŀ
Ð¾Ð² Ð°Ð½Ð¸Ðµ
ĠÎºÎ¬ Î¸Îµ
AL L
Ð°ÑĢÐ¸ Ñı
ĠH owever
atu ur
ie v
Ãª t
àµģà´ ª
ÑĤÐ° ÑĢÐ¸
Ġmen u
ãĥª ãĤ¢
àµģà´ķ à´³
Ġà´ ķàµįà´
Ġan te
ĠB ack
à¸Ĭ à¸±à¹Īà¸Ļ
i ÃŁ
Ġè ¥¿
ĠÑĢÐµ Ðº
Ñı ÑĤÐ¾
Ġpun to
Ġmet hod
Ġbel ow
Ġà¦¸à¦® à§įà¦ª
uz ione
Ġam ely
kt or
Ġcli ent
ru ck
ĠáĢĨ áĢŃáĢ¯
à±įà° ķ
ol as
ĠØ´ ÛĮ
ĠÎ½ Î¿
Î³ Ïī
Ġå Ģ
ĠÐ¼ ÐµÑģ
à¸Ķ à¸¥à¸Ńà¸ĩ
uv ent
Ġåı ĳ
Ø® Ø¯Ùħ
Ġs atis
Î¿Ïį Î¼Îµ
w h
à¸´à¸¡à¸ŀ à¸±à¸Ļà¸
Ġhe art
Ġg ente
Ġx em
à«ģ àª²
Ġmeg et
à¹Ģà¸ ĭ
à¸£ à¸¹à¹ī
Ġprop erty
Ġdu a
Ð´ Ð°Ñģ
Ġà¦¸ à¦¬
ĠÑĢÐ¾Ðº Ñĥ
ĠJ ack
áĥĲáĥª áĥĺ
ìĹ Īëĭ¤
Ġf ul
æ ¦
Ùħ ÙĴ
ĠØ¨Ø§Ø² Ø§Ø±
Ġoff ers
ĠØ§Ø «
ĠÑģÐ² ÑıÐ·
Ġg eg
Ð¾Ð» Ð¾Ð´
j ad
Ġrap port
ĠG ol
Ã© z
ĠÐ¾Ðº Ð¾Ð»
à¸Ħ à¸¥
à¥ĭ à¤Ł
Õ¡Õ ¿
Ġimpl ement
ĠFran cis
ĠÐ£Ðº ÑĢÐ°
Ġj eden
Ġc Ã¡i
ĠØ®ÙĪ Ø§ÙĩØ¯
n om
Ġà¦¬à¦¾à¦Ĥà¦² à¦¾à¦¦à§ĩà¦¶
Ð¼ Ð¾Ð²
ÃŃ p
Ġr adi
Ð½Ð¾ÑģÑĤÑĮ Ñİ
Ġv az
çĶµ æ¸¸
à¦ ·
ĠíĶ Ħ
Ġë ¡
pl o
Ġë¬ ´
Ġi ar
ÏĨ ÎŃÏģ
ĠÐ³Ð¾Ð´ Ñĥ
Ġgratu it
è¾ ¹
ĠÑĤ Ð¸Ð¿
Ġch er
Ġ ä½ľ
Ñį ÑĢ
id or
Ġç§ ģ
Ġ áº£nh
up t
d ur
Ġcall ed
Ġà°ķ à±ĭ
Ġpe u
f te
Ø§ÛĮ Ø§
ĠX xx
o int
å® ģ
Ġb ug
äº ¿
Ø³ Ø§ÙĦ
Ġer f
ĠN aj
ta b
ell ik
Ġn ic
ç¡ ®
Ġqu Ã¡
Ġp urch
Ġex empl
Ġpar as
Ġav oir
à¦¾à¦¨ à§įà¦¤
±áĢ Ĩ
ĠíĮ Į
Ġtrav Ã©s
op en
ÏĢÎ¿ Î¯
Ġè Ĥ
ÐµÐ· Ð´
Ġé ĵ
ĠÙ¾ Ø±Ø¯
àª¾àª ¬
Ġot ros
à´¾ àµ»
j ang
Ġj au
à®¿à®° à¯ģà®ķà¯įà®ķ
áĥ£áĥ ¡
Ú© Ø±Ø¯
u ff
s ob
ĠÐ´ Ð°Ð¶Ðµ
Ġsem ana
Ġbr uk
Ġform at
à¸±à¸ģ à¸©
Ġ×Ķ ×Ļ×Ķ
ĠY ang
ak ing
nÃ½ m
ep at
Ġt Ã©c
Î½Î· ÏĤ
r iz
l ist
ìĭ ¬
Ġen ough
Ġol un
Ġni in
ç· ļ
à¹Ĥ à¸¥
Ġmont hs
Ã½ mi
Ġs Ãµ
ment ar
icht ig
ĠÙĬ Ø§
Ġch á»įn
ãĥĥãĤ¯ ãĤ¹
ĠR io
Ġ Å¼y
Ġh g
Ġas k
ĠPr ess
ĠãĤ Ĥ
áĥłáĥ «
Ġh l
ĠéĤ £
ĠÐ» Ð¸Ñĩ
Ġaug ust
ĠÙĨÙħ Ø§ÛĮ
Ġadmin istrat
Ġrad io
éĻ į
le k
Ġãĥ Ĺ
Ġìļ° ë¦¬
ĠP T
am et
Ġst ad
ãģ® ãģĭ
Ð°Ð» Ð°ÑĢ
×¨ ×ĺ
Ġà¸ª à¹Īà¸ĩ
ĠS D
Ġà¤® à¥ĩ
ĠáĢķ áĢ«
ĠÙĪ Ø²Ø§Ø±
åı Ī
or f
ĠT amb
áĢ½ áĢĶáĢº
Ġes a
ÏĥÎºÎµ Ïħ
r ica
ac ks
Ġà°® à°°
ìłģ ìĿ¸
à¸ĸ à¸¶à¸ĩ
Ø´ Ùħ
Ć ï¼Į
ĠW illi
ĠØ§ÙĦÙĦ Ûģ
ĠÏħ ÏĢÎ¬ÏģÏĩ
Ġè ģ
ÑĥÐ» ÑĤ
à¤ķ à¥įà¤¤
Ġdec lar
å ª
Ð°ÑĪ Ðµ
éģ İ
âĢ ı
Ùģ Ø§ÙĤ
á»ĵ n
Ġf ik
çĽ ĺ
ÙĬÙĦ Ø©
ĠÙĦ Ø¦ÛĴ
ĠÐ½Ðµ Ðº
Ġt Ãµ
Î¼ ÏīÏĤ
Ġab b
Ġè ½
à®¤à¯įà®¤ à¯Ī
¬ áĥ§
Ġf lex
Î½Î¿ Î´Î¿
up e
ĠR ap
×ĵ ×Ķ
ĠS L
çĤ º
ì¶Ķ ì²ľ
åĩ »
Ġre cept
Ġdo anh
Ġáĥ¡ áĥ®áĥķ
Ġthá»© c
ĠP in
Ġè ¾
Ġple ase
Ġapl ik
Ġs ud
g as
ĠGo od
íķ© ëĭĪëĭ¤
Ġocc as
Ġh ing
ĠáĥĽ áĥĿ
ĠPle ase
ek an
Ġcom es
Ð² ÑĬÑĢ
ĠÑĦ Ð¸Ð½
ĠH Ãł
Ġä¸ ĩ
Ġmu ut
Ġj uni
Ġcent r
ãģ«ãģ¤ ãģĦãģ¦
Ø±ÙĬ Ø¯
Ġæ° ´
ĠÎ± Î¾
ĠÏĥÏħ Î¼
à¯įà®ķ à¯įà®ķ
Ġp is
ĠD C
à¹Ģà¸ĩ à¸´à¸Ļ
et her
×ŀ× ¦
ĠØ¯Ø§Ø´ Øª
Ġà¦¯ à§ĩ
Ø§Ø¨ Øª
ĠÐĵ Ð»Ð°Ð²
Ġp and
Ġel ev
Ġa x
è Ľ
Ð»Ð°Ð´ Ð¸
ĠØ§ÙĦ ÙĴ
à´¾à´ §
Ö ´
Ġsta ff
Î¯ Ïĥ
Â ¼
à¸¸ à¸¡
Ġse va
iá»ĩ m
à¤¾à¤ ł
áĢĻ áĢŃ
ÉĻ ti
l ung
ĠÐ± Ð¸Ð·
b ian
ĠO kt
à¨ °
rim oni
Ð½Ð° Ñģ
ĠÐ¡ Ð¾
Ġrel ated
å¯ Į
ĠÎ´Î· Î¼Î¿
ĠS ev
ĠD am
ĠØ¶ Ø±
Ġintern ational
ãģĮ ãģĤãĤĭ
à§ģ à¦¬
ar ik
Ġr und
Õ ½
eme i
Ġm ÃŃ
Ġdr ug
à´¤àµįà´¤ àµĨ
Ġà®ħ à®©
×Ľ ×ķ×ľ
ĠÐº Ð°Ð»
à¹ģ à¸Ĺ
ar et
à¸²à¸£ à¹Į
Ġc ul
à®©à¯įà®± à¯ģ
ãĤĪãģĨ ãģª
n an
ÑĢ Ð¶
ĠH ard
Ġ$(" #
Î½Î± Î½
X X
zn Ã¡l
Ġëĺ Ĳ
Ġà¸§ à¸´
ĠÑĸ Ð·
ĠÑĢ Ñį
à¦¤ à¦¾
ist ik
o e
co in
ug ht
ĠÐ± Ð°Ð»
av at
Ġa de
Ġà¤ Ĳ
ĠáĢĲ áĢħáĢ¹áĢ
ÏĨÎ¿ ÏģÎ¬
ĠÐ½ÑĥÐ¶ Ð½Ð¾
è¯ »
ĠPro te
ÑĪ Ð¸Ñħ
om in
et ik
Ùİ ÙĬ
ãĤģ ãģ¦
áĢ ĩ
put er
Ã¢ ng
ĠT emp
Ġn bsp
yr ight
ĠØ± Ø¦ÙĬØ³
áĥĲáĥļ áĥ£áĥłáĥĺ
à¸§ à¸ģ
Äģ v
ĠJ our
Ġmon itor
ĠÐ¼Ð¾Ð¶ Ð½Ð°
Ġser ver
áĥĺáĥ ¥
ast ur
Ùģ ÙĦ
Ñı Ð¼Ð¸
ĠÑģÑĤ Ð¾Ð»
Ġk urs
Ġàªµ àª°à«įàª
ĠV il
à« Ī
Ġza Äį
Ġrel ev
ĠÐļ Ð¾Ð»
es o
à¹ī à¸ĩ
¯ à§ĭà¦Ĺ
áģ ½
Ġh ora
çķ ¥
Ġsever al
em Ã¡s
ĠÐ ©
ens k
Ġse ason
ØŃØ¯ Ø©
} ,
Ġç¥ ŀ
Ġv ista
Ġk Ã¸
ĠC y
re me
Ġac ross
éĢ £
ĠÃ© rt
Ġdes cription
ĠpÅĻ i
ĠÐľÐ°Ðº ÐµÐ´
ĠB ot
w ort
ìĶ ¨
áĥĿáĥ ¢
Ġæī Ģ
Ġgebru ik
à¤° à¤¾
Ð°ÑĢ Ð¾Ð²
áĥ£áĥ ¨
Þ¦ Þ
Ġà¦¸ à¦°
Ġr Ã©p
ĠÙĪÙĩ ÙĪ
Ġm Ãºs
n ico
Ġáĥ£áĥ Ļ
ĠP ero
Ġt orn
Ġindivid u
çº ¦
ãĥ¼ãĤ ¿
ĠMuj eres
ĠÙħÛĮâĢĮ Ø´ÙĪØ¯
Ġhist oria
Ġszer int
ë¥ ¸
Ġï ¸ı
Ġcar acter
çĽ Ĭ
r ze
áĥĶáĥ ĸ
ĠØ± Ø¯
Ġs uk
Ġex clus
áĥł áĥĿáĥ¡
Ġtra ining
à¦¿à¦ ª
Äħ Å¼
ith er
Ġmig li
Ġd uke
or ie
lar dan
ĠSt ate
ĠÐĽ Ñİ
Ġåį Ĺ
ĠÐ¾ÑĤ Ð´
ĠÎ¼ÏĮ Î½Î¿
ĠB os
à±įà°¨ à°¿
Ġy Ãªu
ÙĩâĢĮ Ø§ÛĮ
ĠProf ess
ĠáĢĻ áĢŃ
Ġc res
Ð± Ñĥ
d n
ĠÐļ ÑĥÐ¿
à®¾à® ķà¯įà®ķ
Ġà¦ħ à¦Ń
Ã¦ g
Ġt all
áĢŃáĢ¯ áĢĢáĢº
Ã¡r ia
bl es
Ġb ent
Ð¾Ð¶ Ðµ
Ġen k
Ġv asta
r era
åĪĨ æŀĲ
Ġcon cept
Ġå¹ ¸è¿Ĳ
Ġj adi
èª ¿
ĠA ra
è£ ½
Ġne ar
g od
é ²
à¸Ļà¸ ¸
S K
ĠÎĿ Î¿
ĠÙĦ ÙĥÙĨ
qu ier
ĠÐ¿ Ð°Ð»
ĠØ§Ø³ Ùħ
ÑĥÑİ ÑĤ
ÐµÑĢ Ñħ
ĠëĮĢ íķľ
Ġw onder
Ġser a
ĠInsta gram
ÙĨ Ùī
Ġv aj
E O
ien ce
Ã¼t Ã¼n
Ġoc ks
Ġk und
ĠTr ung
» ¤
à¤¾à¤ §
Ã´ m
l ike
Ġà¤¬ à¤¹
çĽ ĳ
Ø¨ÙĬ Ø¹
Ġmen ing
à¹Īà¸²à¸ §
k od
Ġàª ĩ
ĠM ond
ĠÐ¾Ð±Ð»Ð°ÑģÑĤ Ð¸
±áĢĲáĢ¬ áĢ·
ĠÐ¶Ð¸Ð² Ð¾ÑĤ
Ġs ic
áĢ¸ áĢĢáĢŃáĢ¯
Ġun ique
Ļàµįà´ Ļ
ĠÐ² Ð¸Ð·
Ġo vers
à°¾à° ¡
ÑĢÑĥ ÐºÑĤ
åģ ¥
el eri
Ġä¸ »
à¶ ±
Ġc á»©
Ġinform a
Ó Ļ
ãĤĪãģĨ ãģ«
Ġà´ ĵ
Ø±ÙĪ Ùģ
c ka
Ð¶ ÐµÐ½Ð½Ñı
ĠáĥĹ áĥĲáĥľ
eb y
aj es
Ġà´ ı
Ġstat us
Ġdi z
emb le
f u
à¸ª à¸²à¸¡à¸²à¸£à¸ĸ
à¸¥ à¸²
ÄĻ t
Ú¯ÛĮ Ø±ÛĮ
Ġáĥĺáĥ§ áĥĿ
ĠØ· ÙĪØ±
ĠÃ§ ox
Ġs ong
ĠV ict
ĠØª Ø·
ĠDire ct
Ðµ ÐºÐ°
Ġvl ast
Ġc oc
Ð°Ð½ ÐµÑĤÐ¾
ĠJ apan
Ú¯ Ø±ÛĮ
Ġpol o
Ø§Ø¦ Ø¯
ĠØ« Ùħ
ĠRob ert
æķ ħ
à¹Ģà¸ ¢
j Ã¤
Ġh ope
Ġc up
r Ã¡t
or an
ÑĥÐ»Ñı ÑĢ
Ñĥ ÒĽ
Ġr ing
ict ion
eg os
Ġà¤īà¤¨ à¥įà¤¹
ĠÚĨ ÛĮ
Ġ×ľ ×Ļ
Ð°Ð»ÑĮ Ð½Ð¾Ð¹
Ġt áºŃp
èī º
Ġmem per
Ø³Øª Ùħ
à®¿à® ¨à¯įà®¤
Ġenc u
Ð ¨
ĠC AR
ÅĨ a
è³ ª
ĠáĢ Ĺ
ĠÙĦ ÙĨ
il ig
Ġch uy
f an
Ġinst r
ul is
Ġmak en
ĠØ® ÙĪØ¨
áĢĽ áĢŃ
×Ļ× ŀ×
×ĸ ×Ķ
Ð¸Ð± Ð¾
Ġmic ro
p ot
Ġe con
Ġmod ific
Ġp y
Ġon ce
Ġj oka
é«ĺ æ¸ħ
ĠÑıÐ²Ð»Ñı ÐµÑĤÑģÑı
ĠÐ¼ Ð¾ÑĢ
à¦¿à¦ Ľ
ÙĪ Ø§Ø¬
Ð¾Ðº Ð°
Ġåľ °
Ø¨ Ø±ÛĮ
H otel
ĠM Ã¡
ĠCent ro
Ġmar s
ĠP red
áĢ¬áĢ¸ áĢĢáĢŃáĢ¯
á» Ŀ
m g
ĠÑĨ ÑĮ
Ġìĺ¤ íĶĦíĻĶìĿ´íĬ¸
ÙĤ Ø¨
ĠÎ´ Î¹Îº
Ġv áº«n
Ġv ur
Ġra c
ĠT id
Ġê³ Ħ
Ġsub st
éĶ Ģ
à¤¾à¤² à¤¾
Ġáģ į
à¦¨à§įà¦ §
ĠðŁĻ Ĥ
ĠS ho
åĨ µ
A l
Ġà®¤ à¯Ĩà®°
à¤Ĥ à¤ļ
iss Ã¤
ĠÐº ÑĥÐ»ÑĮÑĤ
áĢ±áĢ Ĩ
Ġps ych
Ġk rij
ĠB O
Ġg raf
Ġanal ys
à¹Ģà¸£ à¸·à¹Īà¸Ńà¸ĩ
Ġà¦¦ à§ĩà¦¶
ĠEspa Ã±a
áĢ ´
Ð°ÑĨÐ¸ Ñİ
ĠJ er
é ¨
eg y
å¿« ä¹Ĳ
al ik
ĠÑģÑĤ ÑĢÐ°Ð½Ð¸
ÐµÐ½Ð¸ ÐµÑĤÐ¾
ert as
ĠÑĹ Ñħ
ĠF it
×ķ×ł ×Ļ
Ġph ot
Ã§ i
k g
id u
ĠØ§Ø·ÙĦ Ø§Ø¹Ø§Øª
ĠÑĤ Ñŀ
ĠáĥĴ áĥķ
ä¿¡ èªī
ÐµÑĢ Ð±
Ġdia g
ĠW ell
el em
ĠDon na
Ġà®ķ à¯ĩ
Ġhaz Ä±r
Ġbet 365
ÑİÑĤ ÑģÑı
Ġ199 6
on to
ĠE C
å¤ ®
Ġcam era
Ð¾Ð» Ð¶
ĠÐ¿ ÐµÑĢÐ¸
Ġpor ta
ãģĹ ãģĭ
u age
ra ge
Ġà®İà®© à¯įà®©
Ġsebel um
IN A
ĠÙĦ Ùĥ
Ġot ro
ĠF otos
Ä±l masÄ±
Ġg etting
Ġent ry
Ġcat egor
ĠG y
Ø§Ø± Ø§ÙĨ
ĠSt ock
ĠH on
Ïģ ÎµÎ¹
ent ing
Ġë§ İ
Ġl ect
Ġ áº¹
Ġtre bu
Ġæ į
ĠÙħÛĮ ÙĦÛĮ
yn am
io on
Ġpol ic
à®¿à®¯ à®¿à®²à¯į
ĠK ind
ĠÏĢÎµÏģÎ¹ Î¿
à¹Ģà¸ļ à¸µà¸¢
x imo
l al
Ð «
Ġcomp on
Ġì Ī
Ġy outube
Ġex ample
à¤¾à¤ Ł
ĠãĢı ãĢİ
Ġkeh idupan
ĠN ar
×¤ ×©×¨
k ara
ĠF un
Ġ9 78
ĠÐºÐ¾Ð¹ ÑĤÐ¾
Ġtr ading
Ġopt im
Ġc et
áĥĲáĥľ áĥ¡
ab r
ĠØ² ÙĨØ¯Ú¯ÛĮ
Ġw aktu
Ġger Ã§ek
ĠÐ¾Ñģ Ð²
Ġbo y
Ġz elf
íķĺ ìĹ¬
ÎŁÎ Ŀ
ÏĦÏĮ ÏĤ
Î¬ Î¶
ĠÙ Ģ
Ġs wo
Ġ[ "
Ġreg ion
b n
à«Ģ àªµ
ament i
U G
Ä° N
ç Ĵ
Ġpr ze
± ħ
an as
ì ¶ľ
àª ĩ
Ġ×ŀ ×Ļ
Ġà¤ķ à¥ģà¤
Ġmuch o
Ġh ast
Ġencont rar
Ø¨ Ø¹
Ð¸Ð½ Ð¾Ð²
on al
Ġoldu ÄŁu
nos Å¥
Ġasp ect
ÐµÑĩ ÐµÐ½Ð¸Ðµ
ÐµÑĢ Ðº
Ġà®ķ à¯ĭ
c al
Ġi yi
ĠW ie
à¯Īà® ªà¯į
Ð» ÐµÐ¹
ĠãĢĤ ãĢĤ
Ġíı ī
Ġw omen
Ġgrup o
ĠÑĤ ÑĢÑĥÐ´
Ġm ec
Ġt Äĥng
j Ã¡k
Ġpart y
Ġocks Ã¥
ĠL ove
ĠJos Ã©
Ġv áºŃy
ĠL ar
Î² Î¿Î»
led ge
Ġà¤¸ à¥įà¤¥
áĥĺáĥ ¤
¢ ħ
il ing
Ø¶ Ø§Ø¡
ĠL en
ĠÑįÐº ÑģÐ¿
à±įà° ¥
Ġàª¤ à«įàª¯
ĠU l
åĶ ®
ĠØ®ÙĪØ¯ Ø±ÙĪ
Ġb ola
ativ es
Ġpap er
æİ ¢
àµĨà´¨àµįà´¨ àµį
r Ã¥d
ho use
ĠC Ã³
AT A
ĠK Ã¼
×¡ ×§
Ġå¹ ¿
Ġx a
pr Ã©s
ĠScar pe
Ġtaraf Ä±ndan
ĠÐİ Ð·
Ġm áº¹
à¤Ĥ à¤¬
ĠÒĽ Ñŀ
Ġ199 5
æ ½
Ġyo ung
Õ¡Õ ½
Ġç Ń
Ù Į
Ġindust ry
Ø§Ø¹ Ø¯
ÑģÑĤ Ð°
P rice
Ġàª² à«ĭàªķ
áĥł áĥĺáĥķ
l ere
Ġad vert
ĠRad io
R e
ĠØ¨ÛĮØ´ ØªØ±
ĠÑĤÐ¾ Ð°
ĠX V
k az
à¸Ļà¸ «
Ġé ļ
Ġh akk
çĶ º
ĠÐ¿Ð¾ÑģÑĤ Ð°Ð²
ĠBaÅŁ kan
ĠL an
ĠØ¯ Ø¹
Ġth á»§
Ġreg ular
Ġfoc us
ĠU d
q t
Ñģ Ð¸Ð¼
Ð° ÑģÐº
Ã« sh
Ã« nd
ĠÐĶ Ð¾Ð±
ÛĮØ´ ÙĨ
Ġ[ /
ÛĮÚ© ÙĨ
ĠÐ² ÑĤÐ¾ÑĢ
Ġd ÃŃas
Ð´ ÐµÑĢÐ¶
ĠÐ³Ð¾Ð² Ð¾ÑĢÐ¸
à¸¹ à¸¥
Ġkont rol
Ġ12 8
B S
ÐµÐ½ Ð½ÑĭÐ¹
à Ń
Ð°Ð¼ Ñĸ
ĠâĢĻ ,
ĠIn vest
Ġpesso as
Ġà¦® à¦§à§įà¦¯
Ġapr Ã¨s
ĠF am
ĠÙĬ ÙĥÙĪÙĨ
ĠD 0
as ter
ĠC are
áĥĿáĥł áĥĺáĥ¡
Ġr ate
Ġà¸« à¸£à¸·à¸Ń
Ġcomp lex
Ġà°¸ à°®
ÑĦ ÑĦ
Ġà®µ à®¨à¯įà®¤
Ġob ra
Â ³
ĠI C
ier o
act ion
Ġj um
ĠáĥĻ áĥĿáĥľ
Ġs ampai
Ġo il
áĥĶáĥĳ áĥ¨áĥĺ
Ġz aj
sk o
Ġs ir
àµĭ à´Ĺ
Ø§Ø³ Ø©
ong an
oj i
ĠÐ´ Ð·
éĩį è¦ģ
ĠUnd er
ĠP oz
è¶³ çĲĥ
Ġh es
à¸± à¹Īà¸ĩ
ĠÐ¼ÐµÐ¶ Ð´Ñĥ
Ġk uk
ìĿ´ ìĬ¤
Ġh jem
àµįà´ ķàµįà´ķ
ĠÛģÙĪ Ø¦ÛĴ
ĠÙĨ Øµ
ĠØ¹ÙĦ Ùħ
Ġd Ã¥
åº ķ
Ð¾Ð³ Ð¸
à¸ŀ à¸Ļ
à¸¸à¸ķ à¸ļà¸Ńà¸¥
Ú¯ ÙĪ
ĠØ¯ ÙĨÛĮ
Ġto uch
Ġser ies
ĠM os
Ġp rav
ĠE conom
à¸Ļà¸ Ħ
ÙĨ Ø§Ø¡
áĥķ áĥĲáĥļ
áĥ® áĥĲáĥĵ
ĠG Ã¶
Ø§ÙĪ ÙĨ
Ã °
Ġad apt
åľ ĭ
å¼ ł
Ġp aci
ĠN ad
à§ģ à¦ķ
d ated
Ġempres as
Ø² ÙĬ
Ġsz cz
éĻ ©
åŃ £
ä» ķ
áĤı áĢ¯áĢŃáĢĦáĢ¹áĢ
Ã¡ vel
ĠDep art
ĠÐ½ Ð°ÑĤ
Ġà¸Ľ à¸£à¸°
Ġ×ĳ ×¤
à¸£ à¹īà¸Ńà¸¡
ÙģØ¶ ÙĦ
ĠáĥłáĥĿáĥĽáĥĶáĥļ áĥĺáĥª
ĠØ§ÙĦ Ø§Øª
Ġstr ess
éļ ¾
Ġ×ľ×Ķ ×ª
Ġrel ig
L I
Ġy hte
ens ch
Ġcent re
ĠG ab
éļ Ľ
à° Ĺà°¾
ĠÑĩ Ð¸Ñģ
Ġhist ory
å® ³
ir us
ĠæĹ ¶
ĠØ§ÙĦÙħ Ø±
Ġw z
Ġpl ast
Ġsab er
Ġde k
ĠØ®Ø¯Ùħ Ø§Øª
å¤ «
ãģ Ĳ
Ġh in
æ² Ļ
eg n
_ s
Ġb Ã½
ĠÐĹ Ð°Ð¿
à¤¾à¤ ģ
at re
ang en
ĠH ere
Ġya x
ĠMus ic
ĠØ¹ Ø±Ø¨
à° ¶
EN G
Ġhab er
ob s
Ġà¤µ à¤°à¥įà¤
ĠFir st
àµĩà´ ¶
ĠáĢ±áĢ »áĢķáĢ¬
Ġsi y
Ġser ve
Ġm ari
ĠR ub
x o
Ġh ul
à¸´ à¸§
Ð´ Ð°ÑĤ
ĠÙĨ Ø³Ø¨
Ġing in
Ġd iri
ĠOd p
ĠMod el
Ã© o
ĠB in
ÎµÎ¯ ÏĤ
Ġkter Ã½
áĢ¬ áĢ¡
Ñı Ñĩ
ĠÐ´ ÐµÐ²
ĠÎ¼ Î¿
Ġz b
Ġy Ã¼ks
Ġevery thing
åĨ Ļ
Î´ Î¹Îº
ĠÐ±Ñĭ Ð»Ð°
Ġ11 5
Ġr Ã©sz
ĠV I
à¦¾à¦ Ĥ
Ø§ÙĨ Ø§
ap ter
T e
Ġê³ ¼
sk y
Ġmen er
ĠCh amp
ÑĨÐ¸ Ð¾Ð½
Ġæ ¥
áĢŃáĢ¯áĢ¸áĢ Ľ
ĠÐ¾ÑĤ Ð²ÐµÑĤ
Ġ' .
ĠØ§ÙĦØ¹Ø±Ø¨ ÙĬØ©
Ġnum ero
Î ĺ
ÑĢÐµ ÑĤÑĮ
aj u
Ġa ÄŁ
æŀ ģ
Ġseg ur
Ġ ãģ¯
Õ ´
Ġng ay
àªķ à«įàª·
Ġt ad
Ġcer ca
ĠÐ¼ Ð¸Ð»
à¸Ī à¸³
ĠAr m
åį ı
Ġg ek
ĠØ§Ùģ Ø±Ø§Ø¯
Ġè¿ ĺ
ĠG all
Ġt Ãłi
Ġgiá» ¯
Ġëª¨ íħĶ
Ġæĸ ĩ
ĠÎ± Ïģ
×ľ ×ķ×ª
Ġenc ore
à¤ķ à¥ĭ
ĠØ¬Ùħ ÙĬØ¹
Ġmu á»ĳn
de j
au c
Ġ& #
Ð´Ð°Ñģ Ð´Ð°Ñģ
Õ¶ Õ¥ÖĢ
Øª Ø±ÛĮ
ĠÑģÐ» Ð¾Ð²
Ġn t
ĠÙĪ ÙģÙĬ
???? ????
p el
ĠÑĤ Ð¾Ð¹
Ġag ar
áº¡ m
Ñĸ ÑģÑĤÑĮ
te v
Ġåİ Ł
if a
Ġfo ot
ÙĦ ÙĬØ©
ĠÐ¼Ñĸ Ñģ
Ġst ron
Ġun g
Ø®Ø± Ùī
à¸ķ à¸²à¸¡
à§ĩà¦ ľ
eb en
ĠÐ¸ Ñİ
Ġam ount
Ġfe atures
à¸¢ à¹Į
ĠM erk
Ġd ub
ĠØ£ Ø®
áĥĹ áĥĲ
Ġin ner
ľ áĢ¬
av al
ĠÐºÐ¾ ÐµÑĤÐ¾
ĠÐ¾ Ñħ
ć ć
åĪ ¥
à¥įà¤ ¡
ĠÚ© Ø±ÛĮ
ç´ ¢
áĤıáĢŃáĢ¯áĢĦáĢ¹áĢ ĦáĢ¶
Ġc ena
st i
E E
ĠÚ¯ Ø§
ĠØ¨ ÙĬ
ĠC up
ÏĦÎµ Ïģ
Î´ Î¯
Ġ×Ĳ ×ĳ×ľ
£áĥ ¡
z ak
Ġë Ŀ¼
Ġæ¬ §
ÏĥÎ¹ Î¼Î¿
ÏģÎ±Î³ Î¼Î±
R I
ĠæĹ ł
Ġse i
Ġide as
en os
Ġcle ar
áĥľ áĥĺáĥ¡
Ð²Ð°ÑĢ ÑĤÐ¸
Ġz p
ĠA rab
Ð²ÐµÑĢ Ñģ
m ier
Ġê° Ļ
ĠSh ow
Ġáĥ¬ áĥļáĥĺáĥ¡
Ġà¸Ī à¸²à¸ģ
Ġgi Ãł
à¸²à¸ ¨
z iaÅĤ
ob y
bu ah
ĠØ®Øµ ÙĪØµ
Ġap o
ĠFest ival
Ø§Ùģ ÛĮ
ĠâĢ ¡
Ġla h
Ġ×Ķ× ĺ
áºŃ u
ÙĤ Ø§ÙĦ
uj Ãº
iy i
ĠÙģ Ø¥
ĠØ§Ø¬ ØªÙħØ§Ø¹
ãģ¨ ãģ¯
ÙĦ ÛĴ
Ġv ikt
èµĮ åľº
ag ing
L ER
ĠkÃ«t Ã«
áĢĲ áĢŃ
Ð¼ Ð¸Ð½
Ġà¸ĭ à¸¶à¹Īà¸ĩ
Ġà®ª à®²
Ġsá»ĳ ng
Ġpom oc
×Ļ×ľ ×Ķ
ai an
Ġkn own
Ġ? !
à¦¨ à¦¾à¦°
Ġáĥĺ áĥ¥
Ġtrabaj o
Ġp ac
Ġli Ãªn
à¦¾à¦¤ à§įà¦°
Ġconc ent
ĠS um
c ome
àªĤàª §
Î½Î± ÏĤ
Ø§Ø³ ÙĬ
ĠPa ulo
ik al
ĠÚ¯ ÙĪØ´
Ġakt u
Ġìŀ ħ
Ġres ol
ĠJ ahr
Ġh vis
áĢĦáĢº áĢ·
á» Ŀi
Ġáĥĵ áĥĲáĥ¡
Ġs me
ĠJes us
ĠÅŁ ek
Ġz at
ãģł ãģ£ãģŁ
um Äģ
ol le
Ġes e
è² »
Ġreg ard
ÐµÐ½ Ñģ
Ã¡s z
Ġav ant
ĠS ign
Ġb Ãłi
Ã©m u
an ks
em u
Ġà´¸ àµįà´µ
Ġdop o
Î½Î¿ Ïį
ĠÐ¾ Ð»Ð¸
ĠEst ado
èİ ·
at ter
ĠØŃ ÙĪÙĦ
Ġ×ĳ ×Ĵ
ĠÐ¿Ð¾Ð· Ð²Ð¾Ð»
Ġg ift
à¸Ħ à¹Ī
mu ÅŁ
Ïĥ ÏĦÎ®
Ġìķ Į
ãĥĥ ãĤ·
Ġà®µ à®´
áĢŃáĢ³ áĤķ
Ġ Ã¡r
end es
ĠS ay
èª ŀ
Ġsi empre
ĠTH E
Ġv ig
ÙĦ Ø·
ĠÐ´ ÐµÐ¿
Ġtab let
Ġk Ã¶v
íĸ Ī
Ø¬ Ø§Ø¯
Ð°Ð´ Ðµ
Ġà¤¥ à¥Ģ
ĠRo ad
å¹ ķ
Ġà¦Ľ à¦¿à¦²
Äį e
ut u
ĠØ§ÛĮÙĨ Ú©Ùĩ
Äį ek
ÅĦ st
Ġà¦¨ à¦¿à§Łà§ĩ
ĠÐ¡Ð Ĭ
Ġb Ã¼yÃ¼k
ĠS ER
æī ¿
å·¥ ç¨ĭ
ÙĪ Ùĥ
Ġìĸ ĳ
R o
Ġexp ert
ĠSp a
Ġé ĥ
ĠÑĤ ÑĢÑıÐ±
ãĥĥ ãĥģ
ib e
ĠÑĩ ÐµÑĢ
Ġcomp uter
å¨ ģ
èĮ ĥ
ent ina
ĠØ§Ùħ Ø§Ùħ
Ġ×ŀ× ¤
à¯Īà® ļ
à§įà¦ Ľà§ĩ
uj ÃŃ
ÑĸÐ»ÑĮ ÑĪ
à®µ à¯ģà®®à¯į
ĠÎ¿ÏĢÎ¿ Î¯Î±
Ġk and
Ġem bar
ĠF Ã¼r
áĢĬ áĢ·áĢº
Ġw iel
Ġdo ing
on av
ĠçĻ¾ å®¶ä¹Ĳ
ĠE qu
à¹īà¸Ń à¸¢
P ro
Ġle ast
Ġíĺ¸ íħĶ
ĠW all
Ġtemp at
ÑģÑĤ ÐµÑĢ
åĪ ¤
Ġf ej
ĠEl s
ĠCon f
t ur
Ġáĥ¬ áĥĲáĥłáĥĽ
Ġkan Ã«
p ack
ive au
Ġà¤ħà¤§ à¤¿à¤ķ
Ġ24 0
ra h
ien ie
Ġout ros
ĠE c
Ġdon c
Ġhid up
Îº Î¿Ïį
Ðķ Ðł
enn is
Î³ Î±
å¥½ çļĦ
Ġm ijn
Ġà¤¨ à¤¿
Ġn Ä±n
j os
Ġà¹Ģà¸Ķ à¸´à¸¡à¸ŀà¸±à¸Ļà¸
ĠÎ£ Îµ
à¦® à¦¾à¦¨
ç¬¬ ä¸Ģ
Ġtri á»ĥn
Ġm uka
Ã Ĺ
ress e
Ġç Ī
áĢ Ĺ
Ļ áĤĪ
Ġstart ed
oj en
ol at
agy ar
Ġãĥ ı
ÎŁÎ Ľ
ai o
Ġsing aw
æĿ ±
Ġmel hor
Ò³ Ð¾
b ere
Ġext rem
Ġch icas
Ã¡ Å¾
h av
à¹ĥà¸« à¸¡à¹Ī
ĠØ§Ù ĥ
Ġm oc
á»ı i
az ing
ĠC unoaÈĻte
ĠÑģÐ¾ Ð¾Ð±Ñī
Ġl Ã¡t
uy or
Ġbuild ing
Ø¢ ÙĨ
Ġsl ot
ud u
Ġâĸ ł
Ġtak Ã©
åİ ĭ
ĠÎĶ ÎµÎ½
ĠG T
Ġup ang
à¦¸ à§įà¦¤
ĠK re
ÐµÐ» ÐµÐ½
Î´ Ïħ
_ n
ĠÑĤÐµÑħ Ð½Ð¾Ð»Ð¾Ð³
Ãĥ O
ati i
áĢĺ áĢ°áĢ¸
Ġse buah
Ġl ista
ĠÐĿ Ð°Ð¿
larÄ± na
ĠØ¬Ùħ Ø¹
ĠnÃº mero
áĥĶáĥłáĥ ¡
ac je
k te
Ġp uh
ĠA na
« a
Ġn ell
ÏĦ ÏĥÎ¹
ud ar
ĠÐ¸Ð½ ÑĤÐµÑĢÐ½ÐµÑĤ
ĠC os
Ġ: "
Ġt Ã¬m
ĠC A
ĠÑĢ Ð°ÑģÑĤ
ãģıãģł ãģķãģĦ
ĠØ¹ Ú©Ø³
ĠÄĳá» ķ
Ġka Å¾d
Ġinde pend
g ot
f it
ãĤĪ ãĤĬ
à±įà° ¡
éĿ ©
Äį nÃ©
W A
N S
Ġen n
íķĺ ê²Į
Ġãĥ ĩ
ĠF L
im en
ĠÐ¿Ð¾Ð´ Ð¾Ð±
Ã¦ t
Ġæ Ł
ĠÐĲÐ» ÐµÐºÑģ
Ġn eden
ĠRes ort
Y A
Ġà®® à®±à¯įà®±
Ġg uer
ĠVo or
ĠJ ed
Ø§ØŃ Ø©
Ñĩ Ð¸Ðº
Ġein es
Ġmy cket
Ġch all
Ġ12 3
Ġà®ħ à®±
Ġth Æ°Æ¡ng
ãĤ¤ ãĥ«
Ġl ug
ĠÙħØŃ ØµÙĪÙĦ
Ġf elt
Ġd ont
Ġst y
ÑĤÐ¸ ÑĩÐµ
Ġà¤µ à¤¹
Ġeur ope
Ø§Ø³ Ùħ
à¦¿à¦ķ à§įà¦·
ĠÐŁ ÑĢÐ°Ð²
ÏĮ ÏĦÎ·ÏĦÎ±
uj Äħc
à°° à±ģ
ov ÄĽ
Ġ17 0
F L
ĠØ¨Ø³ÛĮ Ø§Ø±
Ã¡s ok
ĠÙĨØ¸ Ø§Ùħ
åħ ´
áĢĬáĢº áĢ¸
ĠØ¹ ÙĪ
ru it
ĠK em
ãĥ¼ãĤ ·
à§ĭ à¦²
Ð¼ Ð¾Ð½
ĠW ater
ÏĨ ÎŃ
ar Äĥ
Ġre duc
ĠD Ã¼
çķ Ļ
ÏģÎ± ÏĤ
acy j
Ġgo ogle
at ar
ç¶ ļ
Ġex act
ĠC it
åĨ ľ
ÐºÐ° Ñı
ĠÙħØ± Ú©
ĠØ¹ Ø¨
ĠØ¨Ø²Ø± Ú¯
Ġk ro
Ġex press
Ġbord er
ØŃ Ùħ
ãĥ³ ãĤ¹
un akan
TM L
Ġà¤¸ à¤¬
sp ot
à®¾à® ļ
Ġè Ĭ
Ġby Äĩ
Ġapr il
ä¸Ń æĸĩ
Ġà®İà®© à¯įà®ª
Ġmet al
à¸Ļà¸ ¶
Ùİ Ø±
ĠÎ±ÏĢÎ¿ ÏĦÎµ
à®¿à®ķ à®³à¯į
Ġver m
ëħ Ģ
Ïĥ Î¯
Ġwe iter
ĠS us
Ð¼Ð¸ Ð½Ð¸
F C
ĠÚ© Ø§ÙĦ
Ã©s ek
m od
ĠÐ²Ñĭ Ð¿
áĥĺáĥĲáĥľ áĥĺ
à°¿à° Ĺ
Ġà´® àµģà´
Ġte h
Ġf ok
Ð¾Ð± Ð¾Ð´
ill ing
ĠØ³Ø§Ø² ÙħØ§ÙĨ
Ġj os
Ġ! "
Ġd ÃŃ
Ġcompan ies
áĢ¼ áĢĢáĢ¹áĢ
áĥ£áĥ ¤
à¤¾à¤ĵ à¤Ĥ
ela in
à¤¿à¤ ª
ÏģÎ¯ Î¶
w end
ÏĥÎµ ÏĦÎµ
Ġ) (
Ġcent ral
ll Ã¤
Ġkom pl
do or
Ġà¤Ĩà¤£ à¤¿
àªķ àª¾àª°
Ġà¦¬à§įà¦¯ à¦¬
ĠÂ ¨
Ð°Ð½ Ð³
Ġh lav
ĠÐ± ÑĢ
×ķ×¨ ×Ļ×Ŀ
Ġm ungkin
ĠÑģÐµ Ð±
Ð¾ÑĢ Ñĭ
r ate
er as
à´ ļ
Ġw yn
ãĥķãĤ ¡
Ġê° Ĳ
ĠCent ral
íķ ¨
ĠÐ²Ñģ ÐµÐ³Ð¾
Ø£ Ø³
ans k
ed ad
ell ig
Ġàª¸ à«ģàª
æī ĳåħĭ
ÅĽ my
à¸£ à¸²à¸°
ĠÎ¶ Ïī
Ġinter ior
ĠC la
EC T
ĠJ ames
Ġå¤© å¤©
ĠÐ³ ÑįÑĤ
Ġlavor o
ĠF ut
Ġ×ĳ ×ĳ
å¯ Ĩ
ÑĤÐ¾ Ñĩ
ĠV illa
è¿ İ
ìħ ĺ
ed et
Ġn ice
Ġdes ar
è² ©
Ĩ áĢŃáĢ¯
ĠâĢĿ ï¼Į
Ġc redit
ĠM Ã¼
ĠR ah
Ïģ ÏİÎ½
Ġn ational
Ġ= '
å¼ ·
Ġnov ember
Ġdo ch
Ġho e
ĠØ¯ Ø§Ø¯Ùĩ
å®ī è£ħ
il eri
am men
Ġpro y
in et
Ġì ¦
ĠØ¨ Úĳ
æ¹ ĸ
Ġw or
ãģĦ ãģ¾ãģĹãģŁ
ĠçĽ ¸
ĠP ub
Ġ- >
um o
Ġkel uar
Ġfriend s
Ġn ature
à¤¾à¤Ĥ à¤Ĺ
ip ada
ĠCan ada
ĠÎµÎ½ Ïİ
à®µ à¯ĩ
neh men
æ¯ ı
ier no
al ui
Ġìŀ ĳ
Ø´ Ùģ
Ø±ÛĮ Ùģ
ÈĽ ia
er ek
æĥħ åł±
het en
B ook
ÏĨ Îµ
Ġ22 270
ÎĹ Îľ
ĠÙĪØ§ØŃ Ø¯
Î¸ Î¿ÏįÎ½
ĠØ§ÙĦØ³ Ø¹ÙĪØ¯
à¹ģ à¸ķà¹Ī
Ġs b
Ġpoint s
Ġa ix
ĠÐ½Ðµ Ð±
å¤§ å°ı
Â ¸
Ø§Ùħ Ø©
Ñģ ÑĥÑĤ
ĠP A
è¯ Ĩ
áĢ±áģ¾áĢĢ áĢ¬áĢĦáĢ¹áĢ¸
ĠáĢ Ĥ
Ġ×ŀ× Ĵ
Ġy Ã¼z
ĠÐ¼ ÐµÑĢ
Ġo Ã¹
Ġam i
Ġw ikipedia
Ġhalam ang
ĠA gr
å· ´
ual es
ol is
ĠØ¨ ÙĤ
Ġsug gest
íĭ °
áĥĲáĥľ áĥĵ
Ġset iap
à´ «
Ä Ĳ
Ġà¤ĩ à¤¨
eg as
Ġa yr
à°¿à° ¸
Ġå¤ ļ
Ġbe v
å¸ Ń
ĠIn i
å¯ Ł
Ġà« §
ĠÏĥÏĦ Î¿ÏħÏĤ
Ð°ÑĨÐ¸ ÑĺÐ°
Ġcon form
x s
ĠIs land
×ľ ×ĳ
ĠØµ Ø¯
Ã©n Ã©r
ĠÑĤ Ð°Ð±
áĥĿáĥĳ áĥ¡
w iet
Ġph one
åĲ §
Î¸ Î½
ÃŃ f
ĠU RL
áĢ¬áĢ¸áĢ ħ
ĠÑĤ Ð°ÑĢ
Ġë§ ¤
ĠmoÅ¼ na
Ġ() {
ĠS au
ãģ« ãģĬ
ec ciÃ³n
ĠáĥĽ áĥĺáĥĽ
Ġrel ations
ĠL ife
B C
Ġbe im
Ġfo is
Ġconf irm
ĠW ars
áĢ¯áĢ¶ áĢ¸áĢ
à¸Ļ à¸±à¹īà¸Ļ
Ġà¤ªà¥įà¤° à¤¤
ĠÃ Ĩ
×Ĺ ×§
n ice
ĠÐ¼ ÑĥÐ¶
å¼Ģå¥ĸ ç»ĵæŀľ
Î¼ÏĨ ÏīÎ½
ê¹Į ì§Ģ
à¸Ļà¸ ·
ĠM iss
ÐµÐ´ ÐµÑĢ
ĠÐ²ÑĭÑģ Ð¾Ðº
ĠK el
Â ½
em an
ĠÙħØ´ Ø§Ùĩ
ĠÐĲ Ð¼
Ġnu evo
ht u
äº§ åĵģ
åį ³
åĪĨ pk10
Ġìĺ ¨
Ã¤n n
Ã¶ net
ekt edir
Ġä¸ ľ
Ġdun ia
Ġc az
à«įàª° à«Ģ
Ġp ick
ÎŃ Ïĩ
Ġàª¸ àª°
Ġcr Ã©
áĥĺáĥ §
ĠØ± Ùħ
ĠØ§ÙĦÙħ Ø¤
ĠD eb
Ġé Ĺ
us sa
on ta
J A
Ġê² °
ĠP ul
Ġses u
Ġliv ing
Ġb ast
Ġtechn ology
on u
ĠÏĮ Î»
Ġte Å¼
à¸Ń à¸°
ÏĢ Î®
b est
Ð±Ðµ ÐºÐ¸
h ab
Ġ4 50
ĠÐ²Ñģ ÐµÑħ
Ġh d
Ġf ark
åį ĥ
h eden
Ġenviron ment
ij u
ĠÐŀ Ð½
Ġo w
àª¿ àª°
ìĺĪ ìķ½
ãģĳ ãĤĭ
ĠÐ¾ÑĤ Ð»Ð¸Ñĩ
Ġk od
Ġdig it
Ġ Ã¡l
Ġà¤¦ à¤¿à¤¯à¤¾
Ġag osto
ãģĵ ãĤį
Ġel imin
Ġd k
ell ing
it ude
H D
ĠØŃÙĤ ÙĪÙĤ
ĠÑĤ Ð¾Ð¼Ñĥ
Ġimp act
Ã© f
åĵ į
is ko
Ġë ¹
ro c
ore a
ho ud
ada ÅŁ
ĠØ¯ÛĮ Ø§
Ð¾Ð½ Ñĥ
ĠMar c
Ġtr á»įng
æ³ ¢
ĠØ£Ùĥ Ø«Ø±
à®¿à®± à¯įà®ķ
Ġl ung
Ġin a
ich te
Ø± Ø§Ø¡
ÑĢÐ¸ Ð³
M P
ĠÐ¼ÐµÑĤ Ð¾Ð´
Ġth ough
Ġcz ÄĻ
Ġconc ern
ĠSt ra
Îĳ ÎĻ
Ġãĥ Ľ
ĠÚ© ÙĦÛĮ
ci pl
ĠE u
ĠÏĩ ÏģÎ·
am t
ĠD ok
à¹Ĥ à¸Ķà¸¢
ÑĢÐ¸ Ð´
ĠØ§Ø¯ Ø§ÙħÙĩ
ĠK Ã¶
à«ĭàª ľ
ess en
Ġm ij
Ġæ± Ł
Ġh ulle
Ġà´ ŀ
ä»¥ ä¸Ĭ
ĠÐ± Ð°Ð·
åĪ© çĶ¨
Ð² ÑĢÐ¸
v ÄĽ
p ak
ĠÑĤ Ð¾Ð¿
Ð¸ ÑģÐº
Ġact ually
oc uk
in ci
ĠÑĩ ÐµÑĤ
Ġ10 8
ç¨ ³
Ġsu ur
Øº ÙĬØ±
ģ áĢ¼
Ġw aren
N ame
H e
Ġáĥ© áĥĶáĥĽ
à¦¾à¦ľ à¦¾à¦°
Ã¡s i
r ome
Ġà¹Ģ à¸£
çİ° éĩĳ
Ġà®ħ à®Ł
Ġm no
Ġha ir
ãģ İ
à¸Ī à¸±à¸Ķ
Ġaqu esta
Ġ ÉĻs
ãģ§ ãģĹãģŁ
ÑģÑĤÐ² Ð¾ÑĤÐ¾
ĠÐº ÑĢ
Ġg ab
ë³ ¸
m am
Ġs ov
anc ed
Ġed il
ëĤ ľ
Ġqu ed
Ð°Ð½ Ð½Ñĸ
ÑĪ Ð¸Ð¹
Ġà°ķ à±Ĥà°
Ø² Ùħ
st s
le ÅŁ
Ġn acional
Ġc ru
Ġ199 4
ÏĨ Î·
ot y
×ķ×ĳ ×Ķ
Ġk Ã©sz
Ġ×ľ ×¦
er et
Ġ7 50
Ø§Ø³ ÙĬØ©
Ġl em
Ġek stra
Ð½ Ð°Ð²
akt adÄ±r
Ġsek Ã¤
Ġest at
Ġc ut
à¹ĥà¸Ļ à¸ģà¸²à¸£
Ġh ig
æĺ ¾
j m
é¡¹ çĽ®
Ġfo arte
Ġdi en
ĠÕ ¶
ĠC ond
ĠâĢĻ âĢĻ
Ġd Æ°á»
Ð´ Ð¸Ð½
ans ke
Ġab ove
ĠØŃÚ© ÙĪÙħ
ĠD ES
4 00
is ation
Ġre ason
Ġnet work
ere z
ĠÑģÑĤ ÑĢÐ¾
ãĥ³ ãĤ¯
áĢ±áĢ ħ
Ġaut re
ãģĳ ãģ¦
Ġà®µ à¯Ģ
å¤© åłĤ
ÐºÐ¾Ð² Ð°
ĠÐ± ÐµÑĪÐµ
aj ÃŃ
Ġa iz
Ùģ Ùĩ
ak ah
ĠÐ½Ðµ ÑģÐº
ĠFore x
æ± ½
ĠØ´ Ú©
Ġac ces
à¥įà¤¯ à¤¾à¤ļ
Ø² Ø¯
ĠØ¯Ø³Øª Ú¯Ø§Ùĩ
Ġsu as
ĠTe x
ĠM T
ĠAfr ika
Ġpar k
ĠìĤ¬ëŀ Į
Ġar asÄ±nda
z ek
ÏĢ ÎŃ
Ġà° ²à±ĭ
Ġn oc
ĠØ§ÙĨ Ûģ
ĠNeder land
ĠØªÚ¾ ÛĴ
Ġh ver
íķĺ ê¸°
ĠÐ¼ Ð¼
ort un
Ġb ara
ĠÑĢÐ°Ð ¼
ĠÐķ Ð²ÑĢÐ¾Ð¿
w ang
Ġsc reen
Ġl ux
H T
Ġà¹Ģà¸ ĩ
ĠØ¢ ÛĮ
ĠÑģ Ð¸ÑĤÑĥ
±áĢĲáĢ¬ áĢ¹áĢ
æĻ º
à«ĩàª² àª¾
Ġàª¨ àª¹
Ġv Ã©
ļ à¸²à¸Ĺ
Ã³ i
Ġà¦¥ à¦¾à¦ķ
ĠÙħØ¯ ÙĦ
Ġn ation
ÅĤ u
ĠAn na
ĠÑģ Ð¾Ð´
Ġn Ã¥
Ġ" ;
ĠÎ¬ Î½
Ġk lar
à´¿à´ķ à´³
z ik
ent y
Ġh ÉĻr
ĠÑĩ Ð»ÐµÐ½
ĠN Ã£o
áĥĺáĥ ŀ
à¸ ¤
Ġà¤¦ à¤¿à¤²
ãĥ¬ ãĤ¹
Ġme ille
Ġi phone
ĠB ang
ĠÑĤÑĢÐ°Ð½ ÑģÐ¿
Ġab ril
èª į
ĠC ard
è§Ħ å¾ĭ
ÑģÑĤ Ð¸
ëĵ ł
ÐµÑĢ Ð¼
ĠØ±ÙĪ Ø´
or gan
Ġå¤ ĸ
ĠÐľ Ñĭ
Ð¾Ñģ Ñı
ze a
Ġàªª àª¹
áĥķ áĥ¡
Ġå® ¶
Ð°Ð± Ð¾ÑĤ
Ġst Ã¸r
ÏĢÎ¿Ïħ ÏģÎ³
ĠÐ¿Ð¾ ÑıÐ²
à¸Ń à¸¡
p f
Ġà¸Ĺ à¸Ķà¸¥à¸Ńà¸ĩ
Ġqu Ã©
Ġbr as
Ġ} ,"
Ġalt ri
à¦ ŀ
Ġza w
Ġfin ans
ĠL ine
Ð² Ð¸Ð´
ÏĩÎµ Î¯Î±
Ġ×¢ ×ĵ
Õ¡Õ ¾
Ġé ¢
áĢ¯ áĢĽ
st vÃŃ
Ġì¢ ĭ
Ġgovern ment
b ro
Ġpres ente
ë° ĺ
ĠáĥĽáĥĲáĥĴ áĥłáĥĲáĥĽ
Î¼Î¿ ÏĤ
Ġà¦ķ à§ĭ
Ġp k
ĠO F
æĸĩ åĮĸ
Ð» ÐµÐº
as is
Ġc itt
Ġexp ect
ĠÎ» Î±
Ġt Ã¤n
ĠáĥĽ áĥĶ
ge w
Ġun de
ÎĻÎ Ŀ
Ġv ag
t os
ĠÐł ÑĥÑģ
ĠE V
r ÃŃ
ãģ® ãģĬ
ĠF ire
áĥĿáĥł áĥĺ
Ø§Ø¦ Ùĩ
itt Ã¤
g am
ĠÐ¿ÑĢÐµ ÑĤ
ĠØ³ Ùģ
Ñĸ ÑĤÐ¸
ĠM are
Ġk ond
ĠáĢ»áĢĻ áĢĶáĢ¹áĢĻ
ĠáĥĽ áĥĺáĥ¡
ĠÏĢÏģÎ¿ ÏĤ
b ut
ĠÑģÐ°Ð¹ ÑĤ
ĠR ic
ĠÑħ Ð¾Ñĩ
çı Ń
amb ar
Ġn ang
ĠF ord
ìĦ Ŀ
p al
ing u
ĠV Ã½
ĠkÃ¤ ytt
ä¹ Ŀ
ĠL G
ĠK et
à¸£ à¸¹
Ġn yt
ĠØª Ø³Øª
Ġexc ell
äº Ĵ
Ġse hingga
Ġde ur
ĠV id
ĠC in
Ġor i
áĢ±áĢ ķáĢ«
Ã¸ j
s at
Ġà¤ľ à¤¿à¤¸
Ġo z
Ġu c
à¤µ à¤¾
ĠÙĪÙĦÙĥ ÙĨ
ĠÃ¤ n
ç¢ º
áº³ ng
Ġëĭ ¹
Ġw all
Ġencu ent
ĠØ§ÙģØ² Ø§ÛĮØ´
Ġw ana
ØŃ ÙĬ
Ġl Ãµ
íĮ Į
Ġ×¢ ×¦
å¤ļ å°ĳ
ĠÐ´ Ð°Ð»
à¸Ħ à¸£à¸±à¸ļ
Ġm ine
Ġb iá»ĩt
Ġ01 68
áĢ¬ áĢĦáĢ¹áĢ·
à¹Ģ à¸Ńà¸ĩ
Ġe ch
Ð¾Ð± ÑĢÐ°Ð·
Å ł
Ġf ie
ĠM id
à¤Ĺ à¥ĩ
ĠÐ± Ñİ
ĠMal aysia
Ġcu enta
áĢ±áĢŀ áĢ¬
ãģĹ ãģı
ĠíĬ ¹
ĠÙħ Ùĥ
aj Äģ
à®² à¯Ī
U Z
ç³» ç»Ł
Ïį ÏĢ
Ġëĭ ¨
Ġà¤¦ à¥ĩà¤ĸ
av y
ĠéĢģ æĸĻçĦ¡æĸĻ
ĠÑģÑĬ Ñģ
ĠÃº t
Ġcomp ar
ìłģ ìľ¼ë¡ľ
ĠÎļ Î¿
v ek
ez et
ĠØ¨Ø§ÙĦ Ùħ
g ets
ĠÙħ Ø§Ø±
æĭ ħ
Ġsol ic
Û İ
an se
ãĤĴ è¦ĭ
à¸ķ à¹Į
ĠL ux
Ġl áº§n
l Ã©
Ġut il
å³ ¶
ĠPort ug
Ġmerc ado
Ġktor Ã©
w et
è¯ ¥
ãģ® ãģĮ
Ġsig ui
ĠÐĶ Ð°
w ala
Ð½Ð¸Ðº ÑĸÐ²
li es
ĠÎķ Îº
Ġg ur
ĠB eh
U t
II I
H O
Ġpr iser
Ġå° Ĩ
Ġs ier
Ġaqu ÃŃ
ĠÐ¼ Ð½Ðµ
Ġm Ã£
Ġdep art
resp ond
Ġbeh ar
Ġar b
ĠØ§ÙĦÙĪ Ø·
Ġrem ove
on os
Ð½Ð¸ ÑĩÐµ
u ela
×ŀ ×ķ×ª
Ġàª¬ àª¨
å½© åĸľæ¬¢
ĠDom ain
àª¿àª Ł
Ġac cept
Î´ Î±ÏĤ
Ġz em
Ø§Ùĩ Ùħ
Ã¤ k
h ec
Ġwe it
op ort
ov nÃŃ
ÃŃcul o
Ġà¤Ńà¤¾à¤° à¤¤
Ùģ ÙĤ
m ad
Ġy en
Ð°ÑĨ ÑĸÑı
f ield
Ġw ÅĤ
ĠS ud
áģ ĭ
Ġìŀ ¬
à®¾à®° à¯įà®ķà®³à¯į
ÑĢÐµ Ð¿
Ġíķľ êµŃ
ari as
Ġë¶ Ī
Ġr encont
ĠDet te
à¤¸ à¥įà¤¥
Ġv ict
Ġserv i
åħ µ
Ġï¼ ı
ult at
ĠÃ ı
ĠE ST
Ġ11 2
ĠØŃØ¶ ÙĪØ±
ĠÐº Ð°ÑĢÑĤ
Ġs ala
ĠGre at
Ġt ÃŃch
Ġhapp y
Ġà´¸ à´®
ÙĤÙĬ ÙĤ
ĠØ¥ Ø°Ø§
ĠÐ¾ÑĤÐº ÑĢÑĭ
äºº çļĦ
ĠÙħØ³ Ø¦
ĠØ§ÙĦØ® Ø§Øµ
ĠØ§ÙĦ Ø¶
ĠÑĤ Ð°ÑĬ
Ġb Ã¡o
ÙĦØ³ Ø·
Ġà¤° à¤¹à¤¾
ĠÑĥ Ð³
ãģĳ ãģ©
hat Ã³
ĠÎķ ÏĢÎ¹
Ġdifer entes
éĿ ł
ç¦ »
ĠÐ¿ÑĢÐ¸ Ð´
ĠD un
ĠSec ret
ĠÐ³ Ñĵ
Ġj ard
ĠÑģ Ð¸Ð¼
der n
de z
ĠÎ±Ïħ ÏĦÎ¿
ìĪ ł
Ð¾Ð»ÑĮ ÑĪ
ĠÃ¤ ven
at akan
è³ ĩ
zen ÃŃ
Ġgro ot
ett re
ģ áĢ¶
ĠB erg
ĠØ¨ Ø¬
ĠÎļ Î±Î¹
Ġf os
ĠH az
Ġth Ãªm
Ġer ot
áĢ½ áĢ²
ÐµÐ½ Ð½Ð¾Ð¹
M I
Ġtet api
Ġst o
ÙĪØ¯ Ø©
z ien
ut os
und ay
m ag
ĠÐĴ Ð°Ñģ
ĠÐ² Ð½Ð¸Ð¼
æ£ Ģ
ĠÑħ ÑĥÐ´
Ø² Ùĩ
Ġanc ora
Ú¯ Ø°
iz ia
Ġg iven
ir il
ĠáĢ¡ áĢ²
Ġr and
li ed
P C
N D
áĢŀ áĢŃ
Ġå §
è¾ ĥ
Ã¬ n
ĠÑĢ ÑĥÑģ
ãģ¨ ãģª
Åĳ t
áĥłáĥ £áĥļ
et zt
ĠØ± ÙĨÚ¯
Ġac ab
ĠAmer ica
Ïģ ÎŃÏĤ
ĠJ uan
Ġà¸¥ à¸ĩ
it to
ĠáĢ ·
Ġfollow ing
Ġd w
ĠØ§ÙĦ Ø±ÙĬ
AR T
ĠÑģÐ¾ ÑĨÐ¸
ĠLe ague
ĠPr iv
Ð¡ Ðļ
at zen
Ġíķ ł
ĠF amil
Ġà®® à®©
éĢ ²
Ķ áĢ²áĤĶ
ĠÃ¼ l
ĠS ony
ĠL ig
Ī ¬
Ġo stat
lag en
Ġwe ight
ÑĥÑİ ÑĤÑĮ
ick Ã½
Ġth á»ĳng
Ġt ash
Ġh Ã¶
ĠÏĢ Î¬
Ġj Ã¤l
ĠP om
ë ĳĲ
Ñģ Ñĥ
à®¿à®ķ à®³
à´± à´¿à´¯
ĠD S
Ġmess age
çľ ¼
åĲ ĥ
à´¾à´¤ àµįà´°
z ec
pu Ã©s
Ġmag yar
ĠÔ ±
Ġ×Ĳ ×ĳ
Ġdem and
ĠW ed
nie Å¼
Ġnov a
Ġ199 2
ĠD alam
ĠØ¨Ùĩ Ø§
ĠD ip
et in
Îº ÎŃ
Ġ0168 27
ier on
ff ee
Ġprem ier
Ġ×Ĳ ×Ļ×ļ
Ġav is
Ġac um
Ġstr ing
ĠolduÄŁ unu
Ġ ä¼ļ
áĢĲ áĢ±áĢ¬áĢº
à¸ĺ à¸µ
Ġtro u
Ġæ Ĥ
Ġn ome
Ð¾Ð² Ð¾Ð¹
Ġmod er
×Ĳ ×Ļ
es ar
Ġå± ±
ĠU z
ìĥ ī
ĠM uh
ãĥ¼ ãĥ³
ãģ§ ãģĤãĤĭ
Ø¯ÙĬ Ø«
Ø®Øµ Øµ
Ġitem s
Ã©n ek
ĠåĽ Ľ
Ġà®® à¯ģà®¤
Ġf ail
à±ĩà° ¸
à¦ ī
Ġsu f
Ġh Ã³a
Ġh uy
à¦¿à¦ķ à§ĩ
ĠÑģ Ñĥ
Ð¸ÑĤ ÐµÑĤ
Ð¸ ÑĺÐ°
×¤ ×§
ie ct
ĠáĢ¡ áĢĽ
Ġpre g
ÑĨ Ð¸ÑĤÐµ
l ast
ÐµÐ´ Ð¸Ð½
Ġcomm on
Ġê²Į ìŀĦ
Ġsc ript
Ġs ant
Ġb amb
ĠÐ³ Ð¾ÑĤÐ¾Ð²
ĠÎ¼ÎŃ ÏĥÎ±
Ġsk in
Ġibex_ room_grid
Ġáĥ¡ áĥĲ
Ø¯ ÙĨ
Ġngh Ä©
ung i
k op
Ġse orang
Ġpost ed
Ġg eme
B L
Ġà®¤à¯Ĭ à®Ł
ĠÚ© ÙĪØ¯
ra cht
Ġiz m
Ġhal f
Ð°Ð» ÑĸÐ·
it ter
3 d
Ġà®ħà®° à®ļ
Ġ×ľ ×Ĵ
ĠÐ» ÐµÐº
Ġku f
Ġgia o
ise en
ĠÎµ Î³
_ M
Ġp ang
Ġex erc
or ni
á»ĩ t
ÈĻ ti
åĩº æĿ¥
en ze
war z
ĠfÃ¸r ste
æŃ ¦
t et
Ġprofes ional
ip as
Ġmar zo
ĠS ul
ëĭ ĺ
Ð¸ÑĤÐµÐ» ÐµÐ¹
ĠÙĤ Ø¯Ø±
Ġand eren
ier te
T o
Ġmem ang
ĠDis c
ÛĮ ÙĪ
ik kel
ab ad
ĠØ´ ÙĬ
ÙĪÛĮ ÛĮ
Ð°ÑĨ ÑĸÐ¹
ĠëĶ °
Ġà¦ķ à¦¿à¦¨
ĠÑĤ Ð°ÑĪ
ĠÑģ Ð¾ÑĤ
Ġqu ien
Ã¤nd er
ĠÄĳ áº¥t
Ġdom in
Ð¾Ð² Ð°ÑĤÑĮ
ÐµÐ½ÑĤ Ñĭ
åĸ Ħ
áĥĶáĥ ®
N O
á»£ i
ĠMan agement
Î¹ Ïİ
und u
ÑĨ ÐµÐ¿
c ast
Ġáĥŀ áĥĺáĥłáĥ
Ġu yg
×¨×Ĳ ×©
c ja
s ke
æĽ ²
Ġ= \"
ĠÎ´Ïį Î¿
ĠÐ¿ Ð¾Ð¶
ĠíĻ ķ
Ġçİ ĭ
Î½Î¿ Î¹
b ij
Ġre ach
ĠÐ»ÑİÐ´ ÐµÐ¹
Ġà¦¬à¦² à§ĩà¦¨
ĠÐ·Ð°Ðº Ð°Ð·
áº§ y
æĵ į
Ġ igen
hal ten
h ttp
Ġka ik
ari i
ãģĭ ãĤĬ
ub re
Ġm k
ĠÐ´Ð¾ÑģÑĤ Ð°Ð²
Ġincl us
b ind
ĠG Ã¼n
r l
oj u
ìĹĲ ëĬĶ
iá»ĥ n
Ġve Ä¾
ĠW ash
ĠÚ© Ú¾
è§ Ĵ
Ġáģ ¿
Ġy ard
à¯ģà®Ł à®©à¯į
ãģ ¶
Ð· Ð´
it ung
Ġ10 4
h ou
ov ers
Ġàªľ à«ĭ
ĠC ir
f ore
Ġcateg ory
ĠB ern
à¸±à¸Ļà¸ Ĺà¸µà¹Ī
ane iro
Ġë ¸
Ġb uk
q i
ÑģÑĤ Ð°Ð½
ĠæŃ ¤
b ah
ĠÙĦÙĦ Øª
Ġinc reas
ĠÙĨ Ø¯Ø§Ø±
ĠÄį as
æ¿ Ģ
ãģ«ãģª ãĤĭ
åħ ¸
×Ĳ ×¨
Ġà¦ı à¦¸
à¸²à¸« à¸²à¸£
Ê» i
U A
à¹Ģà¸Ħà¸£ à¸·à¹Īà¸Ńà¸ĩ
w ert
ks om
ĠÑģÐµÐ± Ñı
Ġtrebu ie
Ġdem on
è¿ Ķ
Ä± q
av es
ĠÙĩ ÙĦ
Ġig ual
ĠÙģØ± ÙĩÙĨÚ¯
ĠS ed
ĠÐºÐ¾ Ñĺ
Ġdi as
Ġ] ]
ĠM and
i ally
ĠÑħ Ð¾Ð´
ĠÐ¼Ð¾Ð³ ÑĥÑĤ
Ġpo is
íĤ ¤
×ľ ×ĺ
ĠÚ©Ø± ØªÛĴ
Ġcustom ers
Ġ$(' #
ol ah
à®© à®°à¯į
ì¡ ±
à¸²à¸Ħ à¸¡
à¸²à¸ Ń
Ñĳ ÑĤ
ÈĽ a
ĠØ¨Ø± Ø±Ø³ÛĮ
ĠÐ°Ð² ÑĤ
Ġpers one
Ġfind en
ĠS af
Ð°Ð¶ Ð°
Ġg anz
Ġb iet
à«ĭ àª°à«įàª
ĠEn ter
à°Ĥà° ļ
ĠPers o
â Ļ
Â£ Â¬
Ġí ļĮ
Ġin gr
ì² ĺ
Ġå¹ ´
ĠSh qip
ãĥ¼ãĥ Ħ
Ġl á»±c
Ø§ÙĦ ØŃ
çµ Ħ
×Ĳ ×Ļ×Ŀ
AT ION
ĠN az
Ġmul te
ĠT ime
Ġà®ª à®¤
Ġmed io
Ġest o
ÉĻ nd
ĠM ul
à°¾à° ª
éĩ ĩ
ĠÃ¶n em
Ġsub ject
ĠCent re
êµ °
1 20
Ġr á»ĵi
Ġkw enye
áĢ³ áĢŃ
Õ¥ ÖĢÕ
t ak
k as
ĠÐ¾ ÑģÑĤÐ°Ð²
Ġseg undo
Ġà°µ à±Ĩ
Ġm ate
li que
ĠéĶ Ľ
Ġ10 2
ÑĢÐ¸ ÑĪ
E lement
Ñĸ ÑĶ
ĠÚ¯ Ø±
à«ģàª ľ
Ġáĥł áĥĲ
Ġbil g
ÏģÎ¯ ÏĤ
è¿ ľ
Ð½ ÐµÑĢÐ³
H E
Ġart ikel
àµįà´ £
l Ã¸
ĠáĥĲáĥĵ áĥĲáĥĽ
ĠÚ©ÙĪ Ø¦ÛĮ
Ġad at
ãĤĵ ãģł
à¸´ à¹Īà¸¡
ag ed
ĠÐ¹ Ð¸Ð»
Ġk de
ç½ĳ _
ãĤ ´
Ġtr ung
ĠåĮ Ĺ
ĠÐ½ Ð¸Ð·
Ġtr ÃŃ
áĢ± áĢ¸
Ġs ot
Ġè °
ÑĢÐ°Ð ¿
Ġespa Ã±
×ĵ ×Ŀ
_ p
int i
ĠÙĨ Ø±Ùħ
à´¾ àµ¼
Ġà¦Ĩ à¦¬
Ġkal au
è ķ
Ġapp art
Ġins ta
ÑĤÐµ ÑĢÐ¸
Ġat en
ĠCom e
Ġti Ãªu
Ġch á»ĭ
ĠÄĳ Æ¡n
åħ »
ãĥĶ ãĥ¼
ow ym
ĠX L
ud es
ok rat
Ø¹ ÙħØ§ÙĦ
en ne
à¸± à¸ª
Ġ} }
Ð» Ð°Ð±
45 6
Ġå¤§åıĳ å½©ç¥ŀ
ĠÏĩ ÏģÎ®
Ø§Ø² Ùĩ
Ġinter pret
Ġàª¹àª¤ à«ĭ
ĠÑĢ ÑĥÐº
ĠÐĿ Ð¸Ðº
Ð¾Ð½ Ðµ
æ± º
à¸Ĺ à¸µ
ĠØ§ÙĦØª Ø¬
ĠPublic ado
ĠW el
ĠArt ikel
Ñĸ Ñİ
I tem
à¹ī à¸²à¸¢
Ġ3 000
Ð½ Ð´
Ã¦ nd
ici ent
iz o
Ġka Å¼
Ġtak Å¼e
ie go
ç§ Ĵ
Ġnh au
ĻĢâ ĻĢâ
iel t
Ġ×ŀ×Ĺ ×Ļ×¨
ÄŁ lu
Ġjs me
had ap
ĠÏĩ Ïİ
at kan
åĨħ å®¹
Ú© ÛĴ
n Ãº
Î¹ÎºÏĮ ÏĤ
lig en
Ġà®ķ à®°
àµįà´¯ à´Ĥ
ĠæĻ Ĥ
ĠÙĨ Ø¬
ĠM Ã©
Ð¾Ð» Ð½Ð¸ÑĤ
b ev
åī ¯
áĢĶ áĢŃáĢ¯áĢĦáĢº
ch os
ĠÐ¿ Ð°ÑĢÑĤ
al et
Ġdid n
ĠH ans
ç½ Ĺ
Ġà¤¸ à¥ĭ
ĠÐµÐ´ Ð½Ð°
ÙĨØ¯ Ø§ÙĨ
Ġput as
æľ ĥ
Ġt Ã¼m
li er
er ve
ĠÙģÙĬ Ùĩ
ĠC ara
Ġpa ano
Ġth a
ĠÐ Ħ
ĠÑĢÐ°Ð±Ð¾ÑĤ Ð°
alm az
ĠáĥĴáĥĲáĥĽ áĥĿáĥ
ìķ ĺ
à¹īà¸§ à¸¢
nt en
Ġà¤ķà¥ģà¤ Ľ
Ġkl ass
Ø³Øª ÛĮ
er ie
Å¡ ÃŃm
Ð¸ÑĤÐµÐ»ÑĮ Ð½Ð¾
ĠÑĦ Ð¾ÑĤÐ¾
Ġz us
Ġn elle
Ð· Ð°
Ð°ÑĢ Ð¼
ak ers
Ġt us
Ġj av
AS T
Ġdi per
à«Ģàª ľ
Ä« gi
i w
ãĥ¼ãĤ «
Ùģ Ø¸
Ġand ra
Î» Ïİ
aga imana
Ġs iden
Å£ Äĥ
Ġtro p
Ġp c
æ¢ ¦
Ġàªª àª¡
ĠÐ²ÑĸÐ´ Ð¿Ð¾Ð²ÑĸÐ´
ĠÙģÙĬ ÙĩØ§
Ġz ah
Ġr us
Î´ ÏĮ
h il
Ġrec om
Ġf ield
Ġmes es
ì¦ Ŀ
ĠA ff
ĠO ri
ĠAnd re
Ġc Ã¢
B R
ab ol
K S
Ġà® ²
Ġho áº¡t
Ġà¤µà¤¿à¤ ¶
Ø±ÛĮ ÙĤ
eh ir
ç¨ ®
Ġtiáº¿ ng
Ġperson n
Ġand er
à´¿à´ ±
Ðŀ ÐĿ
à¸Ĺà¸° à¹Ģà¸ļà¸µà¸¢
ĠS ver
ĠØ¯ÙĪÙĦ Øª
ĠW il
ëĶ Ķ
ĠÐĲ Ðº
â Ĺ
ÐºÐ¾ Ñİ
ec u
Ġsel le
Ġfor ex
ama an
ĠØ§ÙĦØ¨ ÙĦ
ĠÄ «
Ġde pos
Ġpa in
Ġak kor
ĠW enn
ĠÐºÐ¾Ð» Ð¸Ñĩ
Ġsel ected
lÄ± q
Ġá ½
Ġp ath
ãĤ¤ ãĤº
Ġiss ues
ĠK inder
ĠÙģ ÙĦ
ĠB ab
ĠÎł Î¿Î»
iz en
ĠØ§ÙĦØª ØŃ
ĠØ± Ø§ÛĮ
ĠÑģÐ² Ð¾Ð¹
Ġdivers e
Ä Į
áĥĿáĥĵ áĥĲ
Ġtil b
wi Äħz
az u
amb o
ÑĤÐ¸ Ð½Ð³
à¸Ĺà¸µà¹Ī à¸ªà¸¸à¸Ķ
àª° à«Ĥ
Ġe arly
Ġap enas
ĠCont rol
à°¤ à±ĭ
ut us
n ad
nie js
ĠÐ³ Ð¾ÑģÑĥÐ´Ð°ÑĢ
ĠL ip
çµ Į
å¾ Ģ
Ð°Ð» Ð¾Ð³
P T
AS S
æ´» åĬ¨
ĠW in
àµįà´¯ à´®
od s
Ð¸Ñĩ Ð°
Ġinc or
Ø§Ø ¤
Ã± as
_ C
Ġdi pl
ĠIn de
Ġo x
ê ¶Į
Ġà¹Ģà¸§ à¹ĩà¸ļ
Ġlig ger
ĠÐ· Ð°Ð½
l ight
ĠáĢĻ áĢ¼
Ġt ÉĻr
ĠD R
al de
Ġmod e
ĠCOM å½©åĸľæ¬¢
Ãĵ N
Ġde j
Ð°Ð» Ð¸ÑģÑĤ
re ci
áº¯ m
Ġv Ã¡r
Ġa ja
Ġ. âĢľ
à°¾à° ¬
Ġåĳ ¨
Ê» o
k am
ek u
ĠÎ² Î±
v Ã©
Ġm udah
v end
ĠK ong
áĢĶ áĢ¬
ĠÑĤÑĢÑıÐ± Ð²Ð°
iv amente
ĠÐ¿Ð¾Ðº ÑĥÐ¿
pres a
Ġcond ition
ch io
Ġà°Ĵ à°ķ
ĠR un
à¥įà¤¯ à¤¾à¤¤
ÅŁt ur
ill et
ĠÙĬ ØªÙħ
Ġmag az
Ġb aby
ĠH il
ĠÙħ Ø¨Ø§Ø±
Ġ á»
à¸´à¸Ļà¸ Ħ
ĠØ´ Ø±ÙĥØ©
ĠÐ³ÑĢ Ð½
å· ®
Ġcon j
Ġ35 6
Ġà¦ķà¦° à§ĩà¦¨
Ð´ Ð¸Ð²
Ã§ ar
r end
Ġener gy
Ġdoes n
inta ge
ativ as
ĠØ¬Ùĩ Øª
ĠÐ» Ð²
Ġtamb Ã©
ati que
ĠÐĴ Ð°ÑĪ
Ġgiá» Ŀ
à§ĩà¦Ľ à¦¿à¦²
ĠÙĩÙħ Ø±Ø§Ùĩ
Ø§ÙĨ Øª
×ŀ ×ķ×ĵ
ĠÒĽ Ð¸Ð»
ÑģÑĮ ÐºÑĸ
Ġå¥ ³
áĥł áĥĶ
Ġw eg
Ġben ar
ì§ ģ
à´¨àµįà´ ¦
f Ã©
Ġprez ent
ç ĩ
Ùģ Ø©
Ġà¤ķ à¥Ī
Ġrel acion
Ġ×ĳ ×Ľ
ĠÐ¿ÑĢÐµÐ´ Ð»Ð¾Ð¶
Ġtech ni
Ġd ak
ĠR ay
Ġåı ª
Ġtrabal ho
àª£ à«Ģ
ĠØ¯Ø± ÛĮ
Ġtá» ī
Ġéĩį åºĨ
Ġ$(' .
Ġco ol
æĦ Ľ
Ġnou ve
Ø±Ø§ØŃ ÛĮ
Î½ ÎµÏĤ
um ents
h j
ĠØ§Ùħ Ø±ÙĪØ²
ĠÎ¼ÎµÎ³ Î¬
Ġjo in
Ġb Ã«
Ð»ÐµÐ½ Ð¾
Ġàª° àª¾àªľ
ĠÐ° ÐºÐ¾
Ġh ud
ĠD im
à®° à®¿à®¯
Ġvir t
ĠÐ±ÐµÑģÐ¿Ð»Ð°ÑĤ Ð½Ð¾
Ġl ors
Ġfe ature
æķ° æį®
Ø§ÙĨ ÛĴ
Ġob ten
Ġo a
zie j
ĠÃ© gal
Ġth am
ÎĳÎ Ľ
Ġvis ual
åŁ ¹
ĠT all
Ġè ·
Ġc ours
Ġcustom er
av er
Ġë° ĺ
Ġol ur
Ġhiz met
int s
ĠÑĦ Ð¸Ð»ÑĮ
ĠC Ã¡c
áĢĶáĢ¹ áĤĶ
à¸§ à¸ĩ
m ÄĽ
æİĴ åĪĹ
if s
aca ÄŁ
Ġg eld
Ġac este
Ġt ang
ig es
Ġdo ar
Ġc ame
ĠNg uy
» áĢĸáĢħáĢ¹áĢ
Ġl Ã©
àµģà´¨àµįà´¨ à´¤àµį
ĠØµ ÙĪØ±
Ġdep uis
Îķ ÎĿ
el in
Ġà¦¦ à§ģ
ĠÙĪ Ø¶Ø¹
Ġc ie
Ġà¦ªà§įà¦° à¦ķ
ĠV ert
ìĦľ ë¹ĦìĬ¤
Ġsub s
¾ è®¯
Ġà¦° à¦¾à¦ľ
ĠE esti
é ¸
Ġn ast
Ġm ies
ÙĬÙĨ ÙĬ
b ank
Ġres ist
Ġrec ent
Ġb ac
Ġmach ine
Ġe erste
st Ã¤
Î»Î· ÏĤ
ĠÑĥÑĩ ÑĥÐ½
Ïģ ÏīÎ½
Ġmo ins
Î® Î¼Îµ
ĠMin ist
à¸ª à¸¹
ar u
ĠÙĥ Ùħ
Ġs eni
ra gen
à¹ī à¸¡
Ġki ÅŁ
ê »
ãģĿ ãģ®
Ñģ Ð¾Ð½
rat o
ĠÙĨ ÙĪØ´
ĠZ u
âĢ ¢
Ġa ks
åİĨ åı²
Ġ ä¿Ŀ
Ġtra in
à¯ģà® £
ÑĤÐ¸ Ð½
ell ow
ĠN ote
à°¦ à±įà°¦
Ġà¤ķ à¤¹
Ġtr á»Ł
Ġáĥ¨áĥĶáĥĽ áĥĵáĥĶáĥĴ
ĠÐĳ ÑĬÐ»Ð³
IL L
Ġ10 3
å± Ĭ
Ġd ab
à¦¿à¦ ·
à¹ģ à¸ķ
áĢĲ áĢ®
à´ªàµįà´ª àµĭ
es is
ĠÐł Òĳ
áĢ» áĢĻ
Ġur m
Ġm Ã©t
à¤¿à¤ ĸ
ĠÎ ĸ
ĠÙĨÙħ Ø§ÛĮØ´
Ġv Äĥn
íĹ ĺ
Ġãĥĸ ãĥ©
Ġsu is
ĠBo x
ivit Ãł
Ġon a
Ġìĥ Ī
ĠÙĦ ÛĮÙĨ
Ġe j
áĢĲ áĢŃáĢ¯áĢ·
Ð±ÐµÐºÐ¸ ÑģÑĤÐ¾Ð½
v ing
Ġwh ole
à¤¿à¤ ľ
Î¯Î½ Î·
ĠM E
ÃŃt Ã©s
à¯ģà®ķ à¯į
~ ~
Ġfin s
Ã¢n Äĥ
ot ion
ĠÙħ ÙĦÛĮ
ĠÑĦ Ð¾ÑĢ
Ġnie uwe
Ġ×Ļ ×Ľ×ķ×ľ
ĠD al
ft ar
Ġëª ©
ĠÚ¯Ø±ÙĪ Ùĩ
ĠÚ© Ø¯
ĠÄį o
ĠTra vel
Ø§Ø¯ ÙĤ
Ġà¦¸à¦® à§Ł
ĠÙħ Øº
ĠÄ° l
à¸¡ à¸±
ØŃ Ø§Øª
ĠP av
Ġà®¤ à¯ĩ
Ġà§ «
ĠÐ° Ð½Ð³
Ġener gi
ĠsÃº a
ĠÎµÎ¯ ÏĩÎµ
ĠD engan
ate urs
Ġvo y
ĠAb d
ÙĬÙĨ Ø§
ìĹħ ìĨĮ
à¤°à¥įà¤ ¤
Ð°Ð» ÐµÐ½
ed or
Ġprov ides
Ġcorre ct
Ġàª® àª¾àªĤ
Ġdes p
å ´
§ à«Ģ
ĠØ³ Ø§Ø®Øª
æŁ »
Ġ×Ĺ ×©
Þ °
c ur
Ð°Ð» Ð½Ð¾
v Ã¦r
èĭ ı
ÑĢÐ¾ ÑĪ
Ã« l
Ġc ri
p in
ĠO L
on z
ĠÐ¾ÑĤ Ð½Ð¾ÑĪ
Ġkat eg
k ÄĻ
Ġde ÄŁi
rimoni ale
Ġà´ªàµįà´° à´¤
Ġb ila
wi ÄĻ
Ġàªª à«ĭàª¤
Ġv áº¥n
Ġt ua
h b
ĠÑĤÐ°Ðº Ð¾Ð¶
éĥ¨ åĪĨ
á» ħ
Ġd ai
Ġc Ã¡
Ġà°ī à°¨à±įà°¨
×ķ×ľ ×Ķ
ĠA re
àµģà´£àµįà´Ł àµį
Ġku ch
f ahr
ĠÐº ÑĢÐµÐ´Ð¸ÑĤ
ĠÏħ ÏĢÏĮ
Ġà§ ¦
ĠÐ» Ð¸ÑģÑĤ
áĥĺ áĥĶáĥł
à¸¸ à¹Īà¸Ļ
Ġrap id
el ta
est Ã¤
ĠáĥĽ áĥ¡
P G
Ġto e
Ġmai or
Ġimp rov
à¥ģ à¤¸
Ġket ika
ri f
Ġà®®à¯ģà® ©
Ø±ÛĮÚ© Ø§
we ise
Ġdol lar
ì° ½
Ġm unk
ĠPl at
Ġà¦ķ à¦¥
Ġgr ad
ĠÎ¼ Î¹Îº
ĠRe f
ĠJ ika
Ġqu ello
Ð°Ðº Ð°
Ġà°ª à±ĭ
Ġà¹Ģà¸Ķà¸´à¸¡à¸ŀà¸±à¸Ļà¸ Łà¸£à¸µ
ew s
ĠT ah
áĢĢ áĢ¯áĢŃ
Ã¤r t
Ùĩ ÙĲ
à«įàª ¨
Ġsel bst
Ġs owie
à´¾à´¯à´¿à´° àµģà´¨àµįà´¨àµģ
ØªØ± ÙĪÙĨ
u est
f ast
ĠáĥĴáĥĲáĥĽ áĥĿ
ĠÛ ³
Ġes et
Ġ äºĨ
å®ĺç½ĳ ä¸ĭè½½
ukt ur
Ġrequire d
ĠS ome
Ġu v
Å¡an u
row ser
Ġà¤ª à¥Ģ
ĠØ¨ÛĮ Ø§ÙĨ
Â ±
ĠáĢ±áĢ Ļ
Ġjet zt
à¸ª à¸³à¸«à¸£à¸±à¸ļ
è´ ¢
à«Ģàª ¸
li f
ĠáĢ±áĢ ľ
Ġh yd
Ġà®ħ à®¨à¯įà®¤
ĠK op
áĥĶáĥłáĥ Ĺ
Ġn ego
Ġed ir
fr ont
ëĿ¼ ìĿ¸
Ġch eg
k un
L e
ĠM ig
I AL
77 7
ĠC s
ĠAs soci
ç ĵ
ers ch
ĠA Z
à¸Ī à¸ģ
à¤¢ à¤¼
oll en
ĠÐł ÑĶ
' '
Ġoly an
Ðł ÑĶ
id ge
ĠÏĮ Î¼ÏīÏĤ
Ġid i
ç¨ ¿
Ú¯ Ùĩ
eb e
Ġlat est
Ġain si
ÑĦ Ð¸Ðº
ta ge
Ġgl ob
à¸²à¸Ħ à¸²à¸£
ĠØ§ÙĦ Ø§Ùħ
Ġsz em
Â ¤
Ġz ach
Ġ10 6
Ûģ Ø±
ĠÐ¿ÑĢÐ¾Ð² Ð¾Ð´
Ġsu ite
Ġnov embre
Ġadd ition
ĠV ÃŃ
æĦŁ ãģĺ
Ïĥ ÏĦÏĮ
ĠV y
ÑĢÑĥ Ð·
Ð½ ÐµÐ½Ð¸Ñı
ĠÙĩÙĨ Ø§Ùĥ
áĥĺáĥ «
à¸ª à¸£
ĠÏĢ ÏģÎ±Î³Î¼Î±
Ġv Ã¡s
Ġz it
Ġcu á»Ļc
à¦¤ à§įà¦¤
Ð¾Ð½Ð¸ ÑĺÐ°
Ġent r
ì¦ Ī
Ġle p
ìĺ¤ íĶ¼
Ġb Ãªn
áĢĳ áĢ¬áĢ¸áĢ
Ùİ Ø¨
Ã³ z
ĠÑĥ Ð½Ð¸
Ġvir us
Ġc ort
Ġà´¨à´¿à´ ¨àµįà´¨
ĠH indi
éķ ĩ
ĠÑĤ ÑĥÑĤ
à®¿à®²à¯įà®² à¯Ī
ĠÙĨ ÙĪØ±
Ġpal ing
Ġ199 1
g ev
Ġà´ĩ à´¤
Ġpu eden
Ġdr ive
Ġdiffic ult
est re
ĠÑĩÐµÐ» Ð¾Ð²ÐµÐº
o ci
T ube
on c
Ġcoll abor
ĠØ§Ø± Øª
ĠÃ¶n ce
Ġe e
Ġcult ura
Ġpre cio
Ú© ÙĨØ¯
on en
ĠÐ¸ Ð´Ðµ
ĠB uc
du ction
ĠF oll
ÑĢ Ð°ÑĤÐ¸
áĥķ áĥĲáĥľ
il ah
ĠáĢ± áĢĢáĢº
ĠÑĢÐ°Ð·Ð² Ð¸ÑĤ
il ÉĻr
Ġa ki
íĥ ľ
ì ¼
è³ ¼
Ġev ents
ah ren
Ġà¹ĥ à¸«
Ġ×¨ ×§
ĠÐ¾ Ð²
Ġca use
áĥłáĥ Ĵ
à¹Īà¸Ń à¸¢
w ards
Ġj us
å ĺ
Ġà¤¹à¥ģà¤ ı
ÑģÑĤ ÑĢÐ¾
ÐĲ ÐĽ
Ġà¹Ģà¸Ħà¸£ à¸Ķà¸´à¸ķ
h alt
f al
ÑĢÐµ Ð¹
ĠáĢľ áĢĢáĢ¹áĢ
ĠS O
Ġà¦¬à¦¿à¦¶ à§įà¦¬
Ġph Æ°Æ¡ng
ĠG j
ĠJ uli
ĠEnt re
el it
Ġbott om
ĠK y
ĠØ¯ ÙĪÙħ
Ġde di
ĠG overn
ãĤ» ãĥĥãĥĪ
à´¾à´ ľ
Ð°Ð»ÑĮ Ð½Ð°Ñı
eg e
Ġåı °
at Ã«
Ġprodu ction
æł ¸
ĠØ´Ø¯ ÙĨ
ĠÐĴ Ð»Ð°Ð´
áĥłáĥ £áĥ
ĠM oh
b c
ĠH is
à¯Īà®ķ à¯į
al q
Ġà´µ à´°
ĠÎ¼ Î·Î½
Ġqu á»ĳc
à¸£ à¸ĸ
art s
Ġrestaur ant
Ġa ÅŁ
Ġre cher
Ġlib ro
×¤ ×Ļ
P N
Ġà¤¯ à¥ĩ
èı ľ
ic ks
ent u
ĠN os
Î¿Î½ ÏĦÎ±ÏĤ
an u
ŀ à¯įà®ļ
Ġé ©
Ġà¤ļ à¤¾à¤¹
à§ĩà¦² à¦¾
t ion
AD A
ĠáĥĽ áĥĿáĥ¡
ari an
ĠæĽ ´
Ġ199 3
áĢķáĢ¼ áĢ®áĢ¸
×Ļ×§ ×Ķ
ĠÙħØª ÙĨ
Ġ×Ļ×© ×¨×Ĳ×ľ
Ġro dz
Ġu003 e
Ð ĸ
Ġà®® à¯Ĥ
à¸§ à¸±à¸Ļ
ÑĬ Ð½
ĠÎ³ Îµ
skie j
Ġ×ĳ ×Ļ×Ł
Ġin j
ĠA ch
à´¾à´ ª
Ġlig ne
Ã¸ g
Ġen orm
Ġà¤ľ à¤¬
áĥĶáĥĹ áĥĺáĥ¡
b ert
Ġàª® à«ĩàª
Ñĭ Ð¼Ð¸
ĠÐ±Ð¾Ð»ÑĮ ÑĪÐµ
is zt
à¤µ à¤°
Ð°Ð» Ð½Ð¸
ĠØ²ÛĮ Ø§Ø¯
Ġe ing
ĠÐ±Ñĭ Ð»Ð¸
ĠÐŁ ÑĢÐµÐ·
ãģ§ ãģĹãĤĩãģĨ
Ä« s
Z A
ĠÎ» Î¯
Ġ9 99
Ã©t Ã©
Ġmember ikan
ÐºÐ¾ ÑĢÐ¸ÑģÑĤ
er to
Ġà´ķ àµĭ
Ġtá» ¥
zÄħ d
à¤Ĺ à¤°
ĠÑĢÐµ Ð±
ĠTh omas
Ä±ÄŁ Ä±nÄ±
ĠÙĪ ÙĤØ¯
ĠB ij
if at
×ª ×¨
ĠÃ©gal ement
Ġa ast
àª¾àª¨ à«ĩ
Ø§Ø¶ ÙĬ
Ġg ust
Ġw ent
Ġu ur
ĠpÃºbl ico
ë² Ħ
ç§ »
Ġb g
áĢĻ áĢ¬
if orn
ĠÚĨÙĩ Ø§Ø±
Ġm um
Ðĺ ÐĿ
æĶ »
un j
m ay
ie z
Ð³Ð¾Ð² Ð¾ÑĢ
Ġw yd
Ġbel ang
ÑĸÐ½ Ð½Ñı
ĠÐ¼Ðµ ÑģÑı
ĠÐ´ ÑĥÑĪ
ĠØª ÛĮÙħ
ĠrÃ³w nieÅ¼
Ð°ÑĨ Ñĭ
Ľ à¸£à¸°
Ġáĥĵ áĥĺáĥĵ
Ġr ang
N C
Ġr im
Ġm ia
áĥ Ń
Ð½ ÐµÑĢ
Ġç ļ
Ġd áº«n
Ã¤ ft
áĥĺáĥ ¦
Ġdint re
à¤Ĥ à¤Ł
à¸µà¸¢ à¸§
ÑĸÐ»ÑĮ ÐºÐ¸
ĠÐ² ÐµÑģ
æ» ¡
à§įà¦¯ à¦¾à¦²
ann el
Î¿Ïħ ÏģÎ³
ĠÎºÎ± Î½
Ġakt ivit
åĲĪ ä½ľ
Ã¸ n
ĠØ¨ÙĪØ¯ Ùĩ
ĠvÅ¡ et
Ġsp rz
Ġesta bl
áĥĿáĥ ŀ
ĠÐ½ Ð°ÑħÐ¾Ð´
ÏĦÎ¿ Î¹
Ġrela x
Ġ. /
ĠØŃ ÙħÙĦ
ÏĦÎ¿Ïħ ÏģÎ³
à´¾à´² àµįâĢį
Ð°Ñģ Ñı
Ġfig ure
ĠS ig
ĠC od
ÑĢ Ð¾Ð·
ĠØ¯Ø§Ø± ÙĨØ¯
Ġilg ili
Ġ7 20
ĠáģĤ áģĢ
ĠÐ¿ ÑĢÐ°Ð·
ĠChrist ian
ÉĻs indÉĻ
Ġà ²
Ġs eda
ĠAN D
Ġ10 9
Ø¨ Ø±Ø¯
Ġç Ĳ
Ġca us
Ġà¤Ĩ à¤ľ
Ġcons egu
ab at
Ġà°µ à±įà°¯
ĠTr ong
ĠÄĳá»ģ u
à« Į
Ð Ļ
Ġest os
ol are
Ġsv ar
ĠÎºÎ¬ ÏĢÎ¿
Ġcond itions
as in
ĠKos ov
l Ã³
Ġãģ ©
Î´ ÎµÎ¹
Ġcontin ue
ar ie
Ġpo i
st re
at ors
ĠÑģÐ¾ Ð¾ÑĤÐ²ÐµÑĤ
ĠÐ¤ ÑĢÐ°Ð½
Ø§ÙĬ Ø±
S el
Ġmed i
Ġed o
ĠØ§Ù¾ ÙĨÛĮ
Ġam ong
ãĥĥ ãĤ°
G V
ĠC iv
ÑħÐ¾Ð´ Ð¸ÑĤ
ole Äį
**** ****
Ĵ áŀ
Ġag e
à®© à¯Ī
Ġvar ia
Ġmater ia
ìł Ģ
Ġ×ľ ×ķ
Ġgre en
Ġer g
ĠA i
Ð»Ñı ÐµÑĤ
Ãª te
ĠÙħ Ú©
ĠÙ¾ ÙĨØ¬
Ġf ive
è® Ń
áĥĺáĥ¨ áĥľ
ema in
Ġdz iaÅĤ
ÐµÐ½ Ð½Ð¾Ð³Ð¾
A ll
Ġtu o
Ġk imi
ÙĪÙĦ Ùĩ
br and
ĠvÅ¡e ch
ç²¾ åĵģ
åħ °
ch ez
ĠàªĹ àª¯
Ġdes te
Ġb Ã¶r
áĢģ áĢ«
ĠæĿ ±
ĠAn s
k it
AR D
Ð¿ ÐµÑĢÐ°ÑĤ
Ġre ading
pl at
a al
ĠPre z
à´¿à´¨ àµĨ
ĠÐº ÑĤÐ¾
Ġto ok
ĠIn te
Î» ÏĮ
Ġag gi
à¥ĩà¤ ¡
Ùĥ Ø§Øª
Ġà¤ ł
ÏĥÏĦÎ± ÏĥÎ·
Ġste p
Ø±Ùģ Ø©
ĠÄĳá»ĭ a
ÉĻy ÉĻ
ĠR um
à´ªàµįà´ª àµĨà´Ł
Ð¿ Ð¾ÑĢ
an ne
ĠÙĩ Ø²Ø§Ø±
ĠÐº Ð²Ð°ÑĢÑĤÐ¸
Ġmuj er
Õ¡Õ¯ Õ¡Õ¶
ĠR p
ĠÚ© ÙħÛĮ
Ġto ate
Ġh á»Ļ
Ġo yun
Ġg ob
æĥ ł
ĠMa ar
ĠR ot
Ã¼z el
amb il
áĥłáĥ ĵ
ograph y
Ġdar ipada
éĵ ¾
Ġa ument
Ġl Ãºc
à´¾à´ Ĺ
ĠÐ¿ ÐµÑĩ
Ġà®ĩ à®Ł
Ġme as
à¸Ń à¸µà¸ģ
à±ĩ à°ķ
Äį et
Ġk ish
ĠÐ¿Ð¾Ð» Ð¾Ð¶
Ġ×§ ×¨
ĠAc cess
Ġ... ....
éľĢ è¦ģ
Ġb ine
ĠM agyar
×ł ×ĺ
ÐµÐ¶ Ð´
Ġåķ Ĩ
Ġ13 5
ï½ Ĺ
Ġer ror
è¡ Ĺ
i ques
ĠÎ± ÏĨ
Ġv Ã´
Ġr Ã¡
åıĸ ãĤĬ
al ta
por te
ĠÑģ Ñħ
Ġdies em
Ġãĥ Ń
Ġting gi
Ġà¸ª à¸¥à¹ĩà¸Ńà¸ķ
Ġp int
Ġneg ara
íı ī
áĥ£áĥ ®
Ġz h
Ġest as
è ¿½
ĠÐł ÐµÑģÐ¿
Ġmon de
or it
Ġæ ģ
Ġàªľ à«ĭàª
ÎĳÎ ļ
ĠD re
ess er
Ġà§ ª
Ġal Ä±n
ĠP V
áĥĺáĥĿ áĥľ
à¹Ģà¸ĩà¸´à¸Ļà¸ ļà¸²à¸Ĺ
Ġinter v
ĠTh u
ĠP ÅĻ
Ġè ¨
ĠÐ½ Ð¾Ñģ
ĠC F
Ġìļ Ķ
ĠÙ¾ ÙĪ
Ġn ord
Ġbut ton
Õ ¯
end ar
ass o
Ĺ i
Ġà¦ı à¦®
à¸ģà¸£ à¸£à¸¡
Ġch Æ°a
ĠD ub
ì ¤Ģ
ig keit
Ġtout es
Ġsp el
Ġ21 0
å± Ĥ
m edi
Ġ3 20
Ġ) -
åİ Ĥ
Ð¸Ð½Ð¸ Ð½Ð³
ide o
he ad
Ġso it
Ġprop rio
æĺ¯ çľŁ
ĠAl so
ĠR S
Ġn ici
ĠEn erg
ĠB ek
ĠØª Ø§Ø±ÙĬØ®
ĠØ¨Ø§Ø² Ø¯ÛĮØ¯
ÛĮØ¯ Ùĩ
ĠÙħÙĦ Ú©
Ġh au
Ġj uli
ĠL td
ĠE ast
ĠáĢģ áĢº
Ġfiles _
Ġef ekt
ĠBe i
av o
Ġfat to
Ġconn ect
I H
Ùĩ ÙĦ
Ġre ady
Ã¢ r
à¹Ģà¸ĩà¸´à¸Ļà¸ļà¸²à¸Ĺ à¹Ħà¸Ĺà¸¢
à¹Ģ à¸Ļ
ĠÙħØ´ Ø§Ø±
Ġkar ÅŁÄ±
à¤ķ à¤¿à¤¨
Ïĩ Î·
Ġíķ Ħ
F or
AN A
Ġut an
Ġfre qu
Ð¾ Ò³
ĠÚ©ÛĮ Ùģ
Ã¡r s
ab er
à´¿à´ļàµįà´ļ àµį
ÏģÎ¿ ÏįÎ½
or so
Ġper chÃ©
ĠEn er
à¹Ģà¸¥ à¹Īà¸Ļ
ĠV as
ãĤµ ãĤ¤ãĥĪ
Ġtan pa
em t
à¹Ħ à¸§
Ð°Ñģ Ñģ
Ð°Ð» Ð¸ÑģÑĮ
ese arch
Ã¡ ÅĻ
Ġt Ã½
æĭ¿ å¤§
Ð¾Ð² Ð¾Ð³Ð¾
ing i
ĠØŃÚ©ÙĪÙħ Øª
Ġp ir
æĴŃ æĶ¾
Ġeg in
Ġc ob
Ġé¦ Ļ
Ġãģ¾ ãģŁ
ĠD ir
à¸£ à¸²à¸¢
à°¿à° Ł
Ġt ale
ĠH as
Ġà®ļ à®¿à®±
is ie
ĠÎ£ ÏħÎ½
áĥĿáĥķ áĥľ
Ùħ Ø§ÙĨÛĮ
ĠT w
Ġby l
Ġpag es
ĠÎ ŀ
Ġb áº¥t
un uz
ĠF ig
å¿ħ è¦ģ
ĠÏĮ ÏĦÎ±Î½
è Ĵ
ÑĢ ÑĮ
Ġaqu i
ĠM ail
on ne
art i
ĠØ¨Ø´ ÙĥÙĦ
Ġph ys
ĠP em
ĠC all
Ġvar ious
Ã¸ m
Ġposs ibilit
Ġb aix
éģ ķ
ÑĸÐ´ Ð¾Ð¼
Ð»ÐµÐ½ Ð°
Ġag a
ï¼ ¿
Ġare as
Î¯Î½ ÎµÏĦÎ±Î¹
Äĵ ja
Ġåį ģ
Ġ365 ä½ĵèĤ²æĬķæ³¨
b Ã³l
ĠâĢ ł
ĠÂ¡Â £
èĳ Ĺ
Ġdu y
éª Ĺ
r ul
Ġà¦ķ à¦¾à¦ľ
à®® à®¾à®©
at ia
Ġw arm
å®ĺç½ĳ çĻ»å½ķ
Î¾ Î¹
Ġ Ïİ
áĥĲ áĥĲ
Ø² Ø¨
ĠgÃ¶ ster
Õ¥ Õ¶
Ġà¦ķ à¦¾à¦
Ġà¤ ĳ
ĠN á»Ļi
ĠW er
ÑĥÐ½ Ð´
ÐºÐ¸ Ð¼
v v
à¸Ħ à¹Į
ve y
Ġç¦ ı
Ġáģ ¾áĢĢ
Ġpres ident
Ġest udi
Ã¸ y
Ġà®İ à®¤
áĢ¼ áĢ¸áĢ
li ÄŁi
Ġà¦¨ à¦¾à¦®
ĠMil ano
à®¿à® ª
àª¾àª ¶
Îº ÎµÎ¹
Ġl t
ac ia
Ġà®Ĩ à®©
ĠR M
ĠInt el
à¦¾à¦° à¦¾
Ġty re
Ġ10 7
áĢ¯ áĢĶáĢº
ĠÑĤ Ð²Ð¾ÑĢ
ĠCh eck
ar ma
ä¹ ¡
Ġl ado
ĠâĻ ¥
Îº ÏģÎ±
se x
ĠHar ga
Ġ) ØĮ
Ġg ain
ì ¢ħ
è§ ī
Ġcol lection
à¥ĩà¤ ļ
Î¶ Î¯
ĠØ³ Ø§Ø®
Ġant ara
Ġ ÅĻÃŃ
Ġl alu
èĦ ±
ãĥ³ãĤ º
áº¥ m
Ø· ØŃ
Ø² ÙĬØ¯
Ġt ert
Ùħ Ø³
Ġcompr ar
us ion
r icht
Ġìł ģ
ĠÎĳ ÏĢ
ĠÐ¾Ð± Ð¾ÑĢ
ĠCl ick
og u
Ġl am
Ġesta ble
åĿ Ľ
Ġt la
Ġeff ic
à®£à¯įà®Ł à¯ģ
ĠÐºÐ¾Ð¼Ð¿ Ð°Ð½Ð¸Ð¸
çĦ¡ ãģĹ
ç¼ ĸ
ĠB lo
Ġt amp
Ġal ign
ĠM O
Å£ ie
Ä± y
itate a
I ER
Ġsitu ation
Ġro ll
iel le
Ġàªķà«ĭàª Ī
ĠJ am
à¥Ĥ à¤²
ĠC af
à¸ģ à¸³
ak es
ĠÙĤ Ø§Ø¨ÙĦ
Ġsta bil
ĠS aya
à§ģà¦° à§ģ
Ġmel alui
Ġdur um
Ä± lar
AT O
Ø±ÙĬ Ø¨
ng a
ik et
ĠØ£ ÙĪÙĦ
Ġkom p
Ġh eld
æĸ Ĺ
Ð½Ð¸ ÑĨÐ°
ĠÐ° Ð¹
à¦§ à¦¾à¦¨
à¤° à¤£
Ġå· ¥
Ġl iet
Ġ... ...
à¤Ĥ à¤§
ĠÎ¹ ÏĥÏĦÎ¿
Ġet was
áĥĶáĥĹ áĥĺ
ĠÅŁ ey
Ġtak ing
Ġcontain er
ï¼ ĵ
ĠØ§ÙĦØ¬ Ø¯ÙĬØ¯
Ġtro v
Ð°Ð» ÑģÑı
ze ug
ĠÙģ ÙĪ
à°¾à°¨ à±įà°¨à°¿
wit ch
te il
l Ã¡n
Ġï º
ĠÐºÐ¾Ð½ Ñģ
Ġtr uy
Ġl amp
ĠD P
Ð½ ÐµÐ½Ð½Ñı
ĠÐł ÑĹ
Ġ; )
ìĺ Ģ
à®Ł à®¿
ĠÑģÐº Ð¾ÑĢ
Ġèī ²
Ùĳ Ø©
Ġder es
à¦¾à¦² à§ĩ
åĲ ¬
ÑĬ Ñĩ
Ġun it
Ġh ans
ÑįÑĤ Ð¾Ð¼Ñĥ
Ð°Ð½Ð¸ Ñİ
ĠìĤ¬ ìļ©
Ġt unn
Ġse en
ĠL av
ĠF all
Ø¨Ø§Ø± Ùĩ
us aha
ĠÑģÑĤ Ð¾ÑĢÐ¾Ð½
ĠÑĢÐ°Ð´ Ð¸
l end
Ġadmin istr
ĠØ£ ØŃØ¯
ĠáĥłáĥĿáĥĴ áĥĿáĥłáĥª
áĢ¼ áĢĶáĢ¹áĢ
ê°Ģ ê²©
ØªÙĩ Ùħ
Î¸ Ïħ
áĥķ áĥĺáĥļ
Ð°Ð» Ð°ÑĢÐ¸
Ġmog elijk
Ġl un
Ġà¤¦ à¥ĩà¤¶
ĠÛĮ Ø§Ø¯
ges ch
Ġex cept
áĢļáĢ¹áĢ ·
ek te
Ð² Ñĭ
à´¿à´ ¨àµįà´¨
ok i
ire a
ac er
ĠÎ´ ÏħÎ½Î±
Ġvi et
ĠC M
Ġà¤¸ à¤¾à¤®
ful ly
y at
ĠGr und
à¦¿à¦ ļ
UN G
ĠÐ± Ñĥ
Ġin kl
ra in
al at
Ġà¤ľ à¤¾
çº ª
àª¸ à«įàª¤
Ð³ Ð»ÑıÐ´
à°¸ à±įà°¤
ier i
Ġ ĆĈ
Ġì° ¨
ĠØŃØ³ Ø§Ø¨
eto oth
ãĤ¹ ãĥĨ
Ġab i
um us
ĠÑĩ ÑĥÐ²
Ġho Ãłn
áĢŃáĢ¯ áĢĦáĢºáĢ¸áĢ
Ġàª¥ àª¯
ĠÙ¾ ÙĪÙĦ
Ġfant ast
à¸¸ à¸ĩ
or ter
Ġm ove
ĠÐ¼Ð°ÑĤÐµÑĢÐ¸ Ð°Ð»
ÑĢÐ°Ñ ŀ
Ã¦ ng
tag on
et Ãł
Ġà®ĩ à®²à¯įà®²
Ġ( {
ĠfÃ¶r s
k us
... ]
Ġcont rib
ĠStand ard
Â ¶
iz ar
ĠÙĬ Ø³Øª
Ġt Ã¶rt
Ġs Ä±
ĠÙħ ØªØ±
ĠÐ Ī
p Ã¤
ot u
ĠÄĳá»ķ i
s un
×ŀ ×Ļ×ĵ
Ġp ih
am ing
ĠÐº Ð¾Ñģ
Ġd ove
ãģķãĤĮ ãģŁ
Ġë Ī
Ġb osh
ĠEurope an
Ã¼ nt
b ÄĽ
ĠÎ² Î¬
×ŀ× ¢
ĠT ru
ĠÐ¾Ð± ÑīÐµÑģÑĤÐ²
è® ²
à¥Į à¤°
l age
Ġ×¤ ×¢
ĠÏĥÏħ Î¼Î²
ĠÎ» ÏĮÎ³
Ġah ora
ĠBM W
çļĦ ä¸Ģ
ĠÑĨ ÐµÐ½
Ã¶ ld
Ã¤ll Ã¤
Ġne Å¾
éĵ ģ
f un
Ä Ĥ
st ru
ĠpolÃŃt ica
æĢ ¥
ÏģÎ¯ ÎµÏĤ
Ġcons erv
ĠIsra el
ĠâĢ ³
ĠP ack
Ð°Ð» Ð¾ÑģÑĮ
Ïĩ ÎµÎ¯
i O
à°¦ à°¿
ĠáĥĹáĥ¥ áĥķáĥĶáĥľ
Ġà¤ķ à¤¾à¤®
Ġwh ether
Ġb ath
Ġin iti
ĠW omen
Ġg h
åĿ ĩ
Ġl or
ĠC ore
Ġop ortun
Ġ ãģĮ
up p
ĠÐŁÑĢ Ð¾Ð´
ĠÐ¿ÑĢÐµ Ðº
áĥĺáĥĹ áĥ®
ĠÐİÐ· Ð±ÐµÐºÐ¸ÑģÑĤÐ¾Ð½
Ġs Ã¡ng
áĥĿáĥ ¨áĥĺ
ĠØ±Ûģ ÛĴ
à¦Ļà§įà¦Ĺ à§ĩ
Î´ ÎµÏħ
à¥įà¤Ł à¥įà¤°
ĠSer ver
ĠpÃ¤ iv
ĠMan ager
ìķĦ ê°Ģ
à¤¸ à¤¾
aj t
Ġà¦¤ à¦¾à¦¦à§ĩà¦°
Ġmais on
Ġk in
ke en
Ġà´µ àµĢ
Ġan aliz
ick Ã¡
Ġn one
Ġfe ira
Ġact ive
âĢĮ âĢĮ
Ð»Ð¸ Ð¹
Ġtel jes
Ã¡lt al
Ġem ber
ê ´ĳ
ÑĢÐµ Ñī
áĢ½ áĢº
Ġà®® à¯Ģ
h el
eb o
Ġu0 9
ĠE P
ãĤ ®
Ã©r ica
orsz Ã¡g
ĠCar los
à¯ģà® ²
åį ´
äº «
ĠÃ ĳ
ÅĤ e
ell y
ĠØª Ø±ÛĮÙĨ
Ġs ito
à¦¾à¦ £
Î³ Ïĩ
Ã¼ b
ĠÄ ¾
Ġpot reb
ÑĤÐ¸ Ð¼
Ġl uk
Åĳ d
à¹Ħ à¸¡
AR A
Ġess e
Ġkon f
Î¸Îµ ÏĥÎ·
it ive
ĠÐµ Ð²
ĠvÅ¡ ak
ĠN Y
ĠI R
ï¼ Ł
ĠÕ «
Ġre gi
Ġat mos
é¨ ĵ
Ġjed n
ãģĹ ãģ¾ãģĹãģŁ
Ġprov ided
Ġm ert
ĠI L
ç» ĩ
Ø±ÙĬ Ùĥ
g b
Ġ×Ĳ ×¨
Ġà¤¦ à¥Ģ
ĠM is
ãģ¨æĢĿ ãģĦãģ¾ãģĻ
×ŀ× ĵ
Ġro ck
B y
Ġm iá»ħn
ÏĢ Î¹Ïĥ
Ġt udo
ĠD eze
h ang
ĠÐ½Ñı Ð¼Ð°
ĠÃľ ber
ĠSp ecial
×¤ ×ĺ
Ð± Ð¸ÑĢ
Ġla z
n ar
ik on
Ġãĥ Ģ
ĠáĥĵáĥĲáĥ ĺ
ç§ ¯
Ġsex y
Ġng hi
áĥĶáĥļ áĥ¡
Ã² a
ç ĳ
ĠN G
àª¾àª° à«ĭ
à¤ļà¥įà¤ ļ
Ġ×ŀ ×¨
ãĥ¼ãĥ ĳ
j de
Ġker ana
Ġfund ament
ĠÑĢÐ°Ð· Ð¼
ĠÐĲ Ð±
Ġnov o
ĠTh anks
áĢŀ áĢ¬
à¸· à¸Ńà¸ĩ
ĠÐ¿ÑĢÐ¾ ÑĪ
ĠÄ° stanbul
ier z
Ġv iene
Ġt witter
ãĥ³ãĥ Ĩ
or ed
ien i
Ġlib er
Ġto ute
ĠÐº ÑĥÑĢ
Ġç ı
Ġal te
à¹Īà¸Ń à¸Ļ
ĠN ou
ĠÐļ Ð°ÑĤ
à´¤àµįà´¤ àµį
Ð² Ð¸ÑĤ
Ġà¤²à¥ĩ à¤ķà¤¿à¤¨
Ġh Ã¤n
Ġap os
à´³ àµįà´³
v d
ĠÐ¿ÐµÑĢ ÑĪ
èĪ ¬
Å¡an Äģs
ens o
ĠãĤ ¸
ĠáĢ±áĢ Ĩ
m ÉĻ
ĠÐ¼Ð¾Ð¼ ÐµÐ½ÑĤ
Ġgen om
Ġcont re
ab el
ic l
ĠÎºÎ±Î¸ ÏİÏĤ
os an
æ ĩ
ĠÑģÐ¿ Ð¾ÑĢ
ĠÑģÐ¾Ð± ÑģÑĤÐ²ÐµÐ½
Ġcamp o
ëł ¨
à¯ģà®µ à®¤
ĠØ³ Ø±Ùħ
ĠØ® ÙĪØ´
ĠGr ande
Ðŀ Ðł
Ð¸Ð» ÑģÑı
Îķ ÎĻ
iment os
Ġel a
ÙĪØ³ Ø·
Ġà¦¬à¦¿à¦ Ń
é¡ į
æĸ¹ éĿ¢
ÏĦ ÎµÎ¹
ver pg
Ġæı Ĳ
ĠØ£ Øµ
ĠÐ½ Ð¸Ð²
à¸ ®
ÐµÐ» Ð¾
ĠSex y
ãģķ ãģĽ
vo ir
ĠØª Ú¾ÛĮ
Ġh iyo
f re
Ġped ig
Ġp ik
à¤ª à¥Ģ
ĠÐ´Ð¾Ð¼ Ð°
Ġle arning
ĠÑĥÐº ÑĢÐ°ÑĹÐ½
Ġr r
çº¿ ä¸Ĭ
Ġà¦¸ à¦¹
Ġf isc
à®¿à®¤à¯įà®¤ à¯ģ
àªĤ àªķ
ron ic
OT O
Ġà¤ķà¤¾à¤° à¥įà¤¯
Ġkon k
Å£ a
Ã¡ ci
t an
ĠØŃ Ø±
è¡ ĵ
ä¸į æĺ¯
ĠçĽ ®
ung u
à±ĩà° µ
Ġp t
Ġå £
ĠSt yle
ĠÐ² Ð¸Ð¿
ĠT oy
é¦ Ĩ
æ¹ ¾
áŁ Ĵáŀ
ŀ áĢĬáĢ¹
Ġk raj
Ð¾Ð¹ Ð´
ĠÑģ Ð¸Ð½
ĠÃŃ gy
Ġp av
ĠbaÄŁ lÄ±
het er
edd ing
ĠçĶ ·
Ġbat ter
Ġjed nak
ĠU E
ĠÙĬ Ø¯
ĠÐ² Ð½ÑĥÑĤ
à¸²à¸ª à¸´
ĠÙĩÙħÚĨ ÙĨÛĮÙĨ
Ġ23 0
ÑĢÑĥ Ð±
Ã¥ ll
k Å¯
ies nÄ«
Ġà¤¬ à¥Ī
ĠØ± ÙģØª
ĠÑģÐµ Ð·
anc er
áĥķ áĥł
ÈĻ i
Ġprom o
ĠMun icip
Y n
ĠÙĦ ÙĩØ§
Ġop ini
Ġb og
è§Ĩ è®¯
h k
ĠØ¹ Ø¯Ùħ
Ġter j
ĠÙĨ ÙĤÙĦ
áº¿ p
ÑģÐº Ð°Ð·
ian e
ĠçĶ ¨
it Ã¤t
Ġv ard
Ġpo ol
Ġespec ially
ç¨ İ
qu is
Ġà®ļà¯Ĩà®¯ à¯įà®¯
Ġsept ember
Ġh und
Ġj ot
Ùİ Ø¹
å·² ç»ı
à¥ĭ à¤°
Å¡ en
ĠìĦ ¤
el and
Ġd Ã¶v
ÅĪ a
te z
6 00
Ġrel ativ
Ð°Ðº Ð¾Ð²
Ġga at
Ġfur ther
ĠØ§ÙĦÙħ ÙĦ
Äį enÃŃ
Ġì° ¸
Ġiss ue
ĠÎĳ ÏĢÏĮ
Ġæľ Ī
ĠÙģ Ø±Ø¯
ĠÑĥÑģÐ»Ð¾Ð² Ð¸Ñı
st ad
Ġst ream
ÐµÐ½ ÐºÐ¾
ĠÐ¿ÑĢÐ°Ð² Ð¾
Ġà®ķ à®²
Ġt ung
Ġh op
è´ §
Ġáģ ģ
ĠÙħØ¯ ÛĮØ±
ĠØ´ ÙĪØ±
Ġspe ed
Ġ á»©ng
æī ¾
Ġy at
Ġfir ma
ĠO ly
éĤĢè¯·çłģ _
à¹ĩ à¸Ķ
Ġìĸ ´
å¥ ¹
à¦¤ à§įà¦¯
Ġrecomm end
é§ ħ
ç§ĳ æĬĢ
Å¾ ete
ĠØ§ÙĦØ£ Ø®
Ġe der
Ġblog spot
Ġ15 00
Ġmendapat kan
Ġ×Ļ ×Ķ
ĠBr and
à¸Ļà¸ Łà¸£à¸µ
Î¾ ÎµÎ¹
ĠçĻ ½
Ġnost ra
à¸Ĺ à¸¸à¸ģ
ug o
Ġt Ã¶r
ÐµÐ¼ Ð¸
vent ion
ĠÑĢ Ñĥ
ĠP Ã«r
ĠHab er
ĠAd v
Ð°Ð¹ Ð´
Î ¦
asÄ± l
Ġre pro
wa Å¼
ct ions
Ġéķ ¿
A r
Ġle urs
é¢ ¨
à¦¸ à¦²
ĠServ ices
ĠG MT
ĠØ³ Ø§ÛĮ
Ġl iá»ĩu
ĠJ en
Ø± ÙĨ
ok ol
Ġëĵ ¤
Ġmet od
Ġm ong
Ïĥ Î¿ÏħÎ¼Îµ
ĠÎ½ Îµ
ĠÎ³ Î½Ïī
Ġáģ Ģ
ĠM am
ĠãĤ ¿
Ġth Ã¢n
ĠíĻ Ķ
ä¾ Ĩ
à±ģà° ª
à¯ģà®ķ à®³à¯į
ĠÑģ ÑĥÐ±
Ġgr und
ĠSo ftware
Ð¸ÑĤÐµÐ» Ñı
Ð¸ Ñī
ĠÑĸ Ð¼
ĠÐ² ÑĸÐ½
àµĨà´¯ àµģà´Ĥ
ĠC ode
Ġe ig
Ġbook s
áĥĲáĥłáĥ ¡
Ġáĥĵ áĥĲáĥķ
ãģĵ ãģ®
ĠÏĦ ÏģÏĮ
ï¿½ï¿½ ï¿½
Ġso und
àµĨ à´Ļàµįà´ķ
Ñģ Ð¸Ñı
ĠØ´Ùħ Ø§Ø±Ùĩ
Ġbel ieve
æ¯ į
å¦Ĥ ä½ķ
à¹Ģà¸ģ à¸´à¸Ķ
et ail
ë¡ ł
Ġç ©
ĠÅŁek ilde
Ġso ft
ë£ ¨
ĠdeÄŁ il
Ġm ist
ÑģÐº Ð¸Ð¼
rag on
Ġer re
áĥķ áĥĶ
á¹£ áº¹
à¦° à§ĩà¦°
Î³ Î·
ĠÐ± Ð°Ð³
Ġmas ter
ÑĢÐ°Ð½ Ð°
ĠN ak
Ġ, ...
lo Å¾
Ġå¸ Ĥ
Ġmin ute
Ġm ondo
ç½ĳ ç»ľ
Ġge ht
Ġg Ã©nÃ©r
ĠáĢ±áĢ ĲáĢ¼
Ġà¹ĥ à¸Ļ
ĠÙħÙĨ Ø°
ĠEx press
is cher
ĠÙĤØ³Ùħ Øª
Ġp ays
ĠÑģÑĤ Ð°ÑĤÑĮ
Ġtwe e
à§ģà¦ ĩ
l ap
ik as
Ġn Ã¡m
Ġbers ama
áĥĺáĥ¡ áĥĲ
à¯Īà®ķ à®³à¯į
ĠåŃ ¦
Ġfor ts
ĠÙħ Ø±Ø¨
AT E
Ġkom ple
à¹Ĥà¸¡ à¸Ĭà¸±à¹Īà¸Ļ
Ġ×Ĺ ×ĳ×¨
ĠDeutsch land
ÙĬÙħ Ø©
×ķ ×ķ
ĠÙĦ Ø¹
Ġto ho
àµįà´° àµĢ
à§Ģ à¦¨
Ð°Ñļ ÐµÑĤÐ¾
ĠÐ¶ Ð¸ÑĤ
Ġ[ ...]
us ch
ĠÎµÎº ÎµÎ¯
ĠÙĨØ´ Ø§ÙĨ
ate Ä¾
Ġmater i
ĠÐ¼Ð¾Ð» Ð¾Ð´
Ġcos Ã¬
Ñĥ ÑĢÑĥ
r Ã¡n
Ġsome one
ĠC amb
Ġed it
Ġcor respond
åŃ ©
Ġæ ¿
Ġsta v
Ġord in
à¦¾à¦° à§ĩà¦°
ĠÐ¸Ð· Ð²ÐµÑģÑĤ
Ġ! )
ĠÐ² ÐµÑĩ
Ġs á»Ł
åĽ½ äº§
ij o
é¢Ħ æµĭ
ÐµÐ½ Ñĸ
ĠÐ·Ð´ Ð¾ÑĢÐ¾Ð²
ĠP O
ik ai
Ġter hadap
v Ã©ny
ĠÐ´Ð¾ÑģÑĤ ÑĥÐ¿
ĠÃ¼ n
Ġodp owied
áĢĲ áĢħáĢ¹áĢ
ac zy
à¤¾à¤¤ à¥įà¤°
Ġter ror
ish er
ĠØ§ÙĨ ÙĪØ§Ø¹
Ġo y
Ġv ores
ä¸Ģ ç¯ĩ
ab led
at to
Ġch uyÃªn
äºº åĳĺ
ĠØªØ¹Ø¯ Ø§Ø¯
g iv
Ġàª¸ àª¾àª®
ĠU TC
ced es
Ġabsol ut
ch ange
ĠãĤ »
Ġàªı àª®
Ġsta at
Ġst ars
ĠSt ore
à¸Ĺ à¸ĺ
à±ģà°Ĥà° Ł
j nÃ«
T 00
ĠÑĢÐµÐ³ Ð¸ÑģÑĤ
w _
èµ ļ
ÐµÐº ÑĤÐ¸
sh me
Ġà¤¥ à¥ĩ
Ġs itt
Ġdil akukan
Ġcor por
à¯ģà®ķ à®³
Ġp Ã©
Ġà®µà¯Ĩ à®³
Ġà¤¬ à¤¾à¤¤
Ġà¤ªà¥įà¤° à¤¦
Ġid Åĳ
ab ila
Ġaz i
ĠPro p
Ùİ Ø©
Ð¾Ñĩ Ð½Ð¾
iz m
Ġsatis f
à«ĭ àª¨
ĠÏĮ Î»Î±
Ġmp 3
ĠMater ial
äº¤ æµģ
áģ¿ áĢĻ
Ð¸Ð¼ Ð¾
ĠÄ° n
Ġ. ).
ĠÐ¾ÑĤ Ð·ÑĭÐ²
eng o
Ġo pl
Ġj ego
Ġint r
áĢĲ áĢŃáĢ¯áĤĶ
áĢĲ áĢ°
à§įà¦ Ľ
for table
Ġot ra
Ġbel ir
Ġappro ach
ĠZ w
cz as
iv ely
Ġà¤ ĵ
à¸§à¸´ à¸§
Ã© ge
Ġáģ ĥ
ĠÙ¾ ÛĮØ¯
Ġx Ã£
Ġv Äĥ
Ġdu het
ran k
à¦°à§įà¦ ¥
ÏĢÎ· ÏģÎµ
ĠA ber
Ġà¤¦ à¤¿à¤¨
Ð» Ñĭ
ì§ Ī
Ġæ Ĳ
Ġdirect or
Ã« z
Ġàª¹àª¤ àª¾
ĠØª ÛĮ
ĠL ist
èµĮ éĴ±
à´¿à´² àµĩ
ÅŁ ti
Ġì ½ľê±¸
Ġé ¡
M AN
ĠÃ¶ l
à¦ª à§ģà¦°
Ġà¦Ĩà¦® à¦¿
ĠÙħ Ø°
Ġsh p
ĠSt ates
å° Ħ
ĠCop yright
Ġadd itional
Ð½Ñĸ ÑģÑĤ
ĠØªÙĨ Ø¸
r Ã³n
oj nÃ«
att le
Ġ( -
es zt
Ġà®¨ à®¿à®²
ÙĪÙĨ ÛĴ
l on
ĠV ed
Ġer st
Ð¿ Ð¸Ñģ
ÐµÐ½ ÐµÑĢ
or al
Ġ×© ×¢
Ġngo Ãłi
hol m
Ġl ud
ĠPre is
à¯ģà® ļ
à§ĭ à¦ķ
ĠØ¨ Ùĥ
Ġ×ľ ×ĵ
ĠÐº ÐµÑĢ
à¸« à¸£à¸·à¸Ń
al Ä±k
Ïĥ Î¼Î±
ÚĨ ÛĮ
ÑĨ ÑĸÐ²
en cial
ĠØ± Ú©Ú¾
ĠB C
ë¶Ģ íĦ°
ac io
çª ģ
ord a
M E
ĠáĢ»áĢĻáĢĶáĢ¹áĢĻ áĢ¬
ĠÐľÐ°ÐºÐµÐ´ Ð¾Ð½Ð¸ÑĺÐ°
ĠÐ²Ñģ Ð¸ÑĩÐºÐ¸
ĠÐ±ÑĬ Ð´Ðµ
ãĥĹ ãĥª
à´¨àµįà´ ±àµĨ
iz ioni
Ġç Ĥ
anc y
Ð¸ÑĩÐµ ÑģÐºÐ¸Ñħ
ĠÑĤ Ð¾Ð»
ÐµÐ» Ð¸Ñĩ
Ġsc ar
ÙĨ Ø´
ĠáĥĽ áĥĶáĥ¢
ut to
Ġne u
Ġdal Å¡ÃŃ
Ä±l Ä±r
Ġe ither
Ġ3 A
Ġ ãģ¨ãģĦãģĨ
áĢĢ áĢ¬
Ġçľ ĭ
Ġu003 c
Ġ11 1
Ġcomp art
èµĦ æºĲ
ka ch
ĠØ³ ÙĪØ±
Ġ×ĳ ×Ļ×ª
ĠØ¬ ÙĨÚ¯
Ġtr áº»
Ġä½ ¿
ĠØ§Ø³Øª Ø®Ø¯Ø§Ùħ
ĠÐ± Ð»Ð¸Ð·
Ġdesign ed
Ġà¦ķ à¦¿à¦Ľ
ĠAustral ia
Ġpr ij
un ities
ĠÐ²Ñĭ Ð¿Ð¾Ð»
åª Ĵ
ĠâĢĻ .
ĠPr om
à¸Ļà¸¶ à¹Īà¸ĩ
Ġman ufact
ĠAmer ika
Ġeur op
en zi
l ÉĻt
àµģà´¨àµįà´¨ à´¤
V A
ĠØ§ØŃ ÙħØ¯
Ġh ou
×ĳ ×ª
ed ing
ĠØ§ÙĦ Ø§ÙĤ
Ġst re
Ġk Ã«
áĥķ áĥĺáĥļáĥĺ
à°® à±įà°®
i Ã§Ã£o
D e
áĥķáĥĶáĥ §
Ø´ Ùĩ
Î»ÎµÏħ ÏĦÎ±
qu et
L INE
ĠØ§ÛĮ Ø¬Ø§Ø¯
áĥĺáĥ ĳ
ÅŁt Ä±r
is el
Ġå¤§åıĳ å¿«3
Ġà¦®à¦§à§įà¦¯ à§ĩ
Ġsol ution
Ġcho ose
ĠW ork
Ø³ Ùĩ
ĠØ§Ø¹ ÙĦØ§Ùħ
ĠEx p
à±ģà° ¡
Î½ Ïİ
Ġde jt
åģ ľ
kÃ© nt
it able
Ġãģ ķ
ov anie
ĠÑĢÐµ Ð³Ð¸
ĠÐ¸Ð· Ð³
ĠÑı ÐºÐ¸Ð¹
ĠÐ² Ð°ÑĢÐ¸
Ã¤ ch
j our
Ġà¤ľ à¤¨
Ġmult i
Ġë³ ´ë
ĠÐ¿ÑĢ Ð¾Ðº
Ġb ash
ĠB ec
yt y
ic iones
ĠØ¬ Ø§Ø¦ÛĴ
ur so
ÙĪÙĤ Ø¹
ĠÐºÐ¾ ÑıÑĤÐ¾
Ġno en
àªµàª¾àª¨ à«Ģ
ĠWh ile
Ã© ment
un al
Ġà¤° à¤¹
Ġwrit ing
ĠÎ±Î½ ÏĦÎ¯
und i
oh et
Î¼ Î¯
iy on
eng th
ĠÂ ¥
Ã¼ ne
ĠâĢ Į
ĠàªĨàªµ à«Ģ
ĠÙĥ ÙĬÙģ
Ġtrack ing
×¨ ×ļ
Ð°Ð¼ Ð¿
Î¹ Î²
Ġç ®
Ġl ama
Ġk Ã©r
Ġp p
Ġz ob
ĠGl obal
áĢ ī
Î» Î¹Î±
Ġà®ª à®¯
Ġnuest ro
ĠgÃ¶r ÉĻ
Ð» ÑĥÑĩ
Ġàª Ī
Ġneed ed
ĠN d
éĸ Ģ
Ġà®¤ à®²
×ľ ×Ĺ
ãĥ³ãĥ Ĺ
Ġà¤ħ à¤¬
m aya
Ġ×Ķ× Ŀ
ĠK ami
Ġsec urity
ĠO ther
Ð Ĥ
j alan
g ia
Ġm ÃŃst
è´ Ł
ĠÐ¿ ÐµÑģ
Ġni i
st Ã¥
ą ĆĈ
à´¾à´ ¦
Ġà®ĩ à®µ
Ġ×ĳ ×ĵ
Ġç ¼
Ġnun ca
Ġm ud
une a
Ġper mit
Ġdev am
ĠAnt onio
ip o
ĠS ac
m Ã¤
Ġíķ Ļ
ĠÃ Į
Ġess a
Ġcon vert
ä½ Ļ
àªµ à«ģàªĤ
ìĿ´ ëĿ¼
ĠÎŃ Îº
à¤¾à¤ «
Ġr áº±ng
ĠSt udio
ĠJour nal
ici Ã³
Ġloc ated
à¦ª à§įà¦°
ÐµÐ³ Ð¾ÑĢÐ¸
Q L
ĠÎ¿ÏĢÎ¿ Î¯Î¿
ong o
Ġë¡ ľ
Ġp Ã¡g
ĠD ating
áĢĢ áģ
Ø¬ Ø§ÙĨ
Î´ ÏģÎ¿
å¤§åıĳ å¿«ä¸ī
à¸ ī
à¦¿à§Ł à¦¾
Ġ11 4
æ´ ¥
áĢ¼ áĢ¬
Äĥri i
ĠÎ¬ Î»Î»
Ġact u
ĠB aby
ĠÙĦÙĪ Ú¯
Ġch ance
Ġc est
×ł ×Ļ×ª
ens ioni
Ġt egen
ĠGal icia
Ïĥ Î¯Î±ÏĤ
ig ung
Ġih re
Ñĸ Ð»Ñĸ
Ä± b
A I
Ġet ti
Ġth re
Ð°Ñĳ ÑĤ
em and
ĠèĢ ģ
Ġinclud es
ĠB ere
Ø§Ø± ÙĬØ©
w or
Ġä½ ķ
Ġsz ak
Ġan terior
ĠÂ ¢
Ġm áº¯t
ÑīÐµ Ðµ
Åĳ r
Ãº a
ĠÐ´Ð¾Ð± Ð°Ð²
EN S
ĠáĥĽ áĥĺáĥ¡áĥĺ
IN I
à¤¿à¤ ·
Ġhu is
Ġhing ga
Ġê ´ĳ
ĠØª Ùĥ
Ġpok er
Ġ/ ">
à§Ģ à¦¬
ĠÙħ ÙĦÙĬ
Ġprin ci
Ġà´¨ à´¿à´°
Ġbl and
ĠØ² Ø¨Ø§ÙĨ
Ġz ast
Ġlang _
Ġbul un
Ġ' ;
igh ed
Ġ6 50
ar in
ĠÐ´Ð¾Ð¿ Ð¾Ð¼
ç¬ ĳ
ÙĬÙģ Ø©
Ġm Ã³d
ob ili
Ġsegu ir
à¸ª à¸³
Ġ×ľ ×¡
ĠD ob
Øº Ùħ
Ġse ction
Ġbud get
ek om
ĠÐ¼ Ñı
Ã¦ re
Ġà¦¬ à¦Ľ
ĠÑģÐ²Ð¾ Ñİ
à¤® à¥ĩà¤Ĥ
pl ement
Ġà´ķ àµĩ
el ez
ĠÐ¿ Ð°Ð²
Ġg ag
Ġdec ember
ÑĬ Ð¿
Å£ ia
Ġty Ã¶
ĠMarket ing
ĠÑĢÐ°Ð ²
ÐµÐ· Ð¸
at ic
Ġì ¶ľ
ĠÐ³Ð¾Ð» Ð¾Ð²
Ġqu ite
ĠRe fer
ë¶ ģ
Ġà´ķ à´´
ĠsÃ¶ yl
Ġh orm
à® ¨
ÐµÑĢÐµ Ð²
w d
c ÃŃ
Ġis hte
ĠÎ¿ Î¼Î¬
ĠK ul
ĠIn sp
Ġp ÅĤ
ÑĢÑĭ Ð¼
ĠagåĽ½éĻħ äºļæ¸¸
Ð¾Ð² Ð°Ð½
Ð» ÐµÐ³
Ãº de
ĠìĹ Ń
ĠÙħÛĮâĢĮ ØªÙĪØ§ÙĨ
ĠIh re
ĠD ou
à´¿à´ ŀàµįà´ŀ
1 10
Ġf urn
Ð» Ð°Ð³Ð°
ol ta
Ġàª¤ à«ĩàª
Ġbe y
ĠØ« Ø¨Øª
à¤° à¥ĭ
ÐµÐ½ Ð·
Ġnu ovo
ĠS R
esz cze
Ġ ä¹ĭ
àª¤ à«ĭ
ta v
lÉĻr in
Ġroz hod
ĠÑįÑĤ Ð¾Ð¹
è¡ £
Ġup date
Ġsar Ãł
ÏĨ Ïħ
1 50
Ġà¤ķà¤° à¤¤à¥ĩ
ĠÎºÏĮ Ïĥ
Ġstud io
Ġknow ledge
Ġà¦¹ à¦¯à¦¼
Ġev alu
Ð»Ð¸ Ð²Ð¾
ĠMa in
Î®Î¼Îµ ÏģÎ±
Ġà°ķà±Ĥà° ¡à°¾
ĠÑĥ ÑĢÐ¾Ð²
Ġsoci ale
Äģci jas
à¦Ĺ à§įà¦°
Ľ áĢ½áĢŃ
æ´ ¾
ĠÐ¿Ñģ Ð¸Ñħ
· ¨
Ġé» Ħ
p ie
ĠC ro
ol id
Ġpun kt
Ġgj enn
Ġadd ed
à¥įà¤° à¤®
Ġë° Ľ
Ġ11 8
åĲ «
at ies
é¡ ŀ
ÑģÑĮ ÐºÐ¸Ñħ
Ġseg unda
ĠÐ´ Ð¾Ð·
Ġmej ores
Ð¾Ð» Ð°
Ġz in
Ġp Äĵc
ĠD od
ĠB uch
Ġà®®à®±à¯įà®± à¯ģà®®à¯į
ĠØµ Ø±Ùģ
Ġof icial
Ġch em
ãĥ¼ãĥ Ĺ
ãĤį ãģĨ
Ð¸ ÒĽ
ai ent
ĠÑĩ Ð¸ÑĤ
ĠÐĺ Ð³
ĠR O
amb re
åħĥ æ£ĭçīĮ
à®¾à®³ à¯į
Ġpe que
ÙİÙĬ ÙĴ
Ġm Äģ
Ġhe el
ĠEd ition
ĠØµ Ø§ØŃ
ro uw
ĠĈ Ĉ
ĠT rav
è® ¸
áĢĲ áĢ±áĢ¬áĢ·
ÑĢÐµ Ð³
ĠS atur
z as
ĠÎ¼ Î¯Î±
Ġun ui
Ġsa a
ow Äħ
j am
Ġw ym
w el
C l
Ġpr imo
d im
ÃŃ me
yar akat
Ġà¤° à¤¹à¥Ģ
ĠÐ±Ð¸Ð· Ð½ÐµÑģ
ĠÎķÎ»Î»Î¬ Î´Î±
ĠiP ad
ig ing
Ġ×ķ ×©
Ġà¤¸à¤° à¤ķà¤¾à¤°
Ġin ten
Î¾ Î·ÏĤ
iz aciÃ³n
Ġdiff Ã©r
èĤ ī
ÙĤ ÙĤ
ĠÐ¿ Ð¸Ñģ
Ġt Ã¡
Ġlo ad
Ġc ot
Ġà¦¹ à¦²
Ġge f
æľ Ŀ
áĥľ áĥĶáĥľ
áĥĶáĥĳ áĥĶáĥļáĥĺ
áĢĲáĢ¼ áĢĦáĢ¹
Ä¼ a
Ġà¹ Ĩ
ĠÃ®ntÃ¢l ne
ÅĤ Äħ
wo ord
áĢĢáĢ¹áĢ Ģ
Ø§Ø¬ Ùĩ
ÎĹ ÎĿ
al in
ĠÐ½Ð°Ñĩ Ð¸Ð½
Ġa udio
×ķ× ¥
bi amo
Ġho zz
à¹ī à¸²à¸¡
à´¾à´ ¹
Ġv ul
Ð¸Ð´ ÐµÐ½ÑĤ
ĠSer ies
Î¼Î¹ Î¿ÏħÏģÎ³
} ,"
ĠN orge
Ġ È
éģ ĭ
WW WW
Ġfol k
Ġcre ated
Ð°Ñħ Ð°
æĮ Ĥ
ĠØ¯ÙĨÛĮ Ø§
à§ĩà¦¨ à§įà¦Ł
ĠP ir
Ġmaj d
Ġma ak
ĠW A
ĠF al
ĠÎµÏĢ Î±
ĠS W
à¸Ĭ à¸µ
, ,
ĠÐ² Ð¾ÑģÐ¿
Ġcons id
à¹ĥà¸« à¸į
ap ar
C L
ĠkÃ¼l Ã¶n
æŀ ģéĢŁ
áĢĳ áĢŃ
à¯įà® ¸
ĠÙĦ Ø¥
ĠÑı Ð½
Ġh Ã£
çļĦ äºº
Ð³ Ñĵ
à¹ģ à¸Ļ
Ð¾Ð³ Ð»Ð°Ñģ
ØŃ Ø§Ø¯
Ð°Ñĩ Ð°
ĠÙĦ ÛĮÚ©ÙĨ
ĠÄĳ Ã¡nh
Ġvia gra
Ġrequ est
ÙĪ Ø¶
Ġà¤° à¥Ĥà¤ª
ĠT ok
ĠÏĩÏģÏĮ Î½Î¹Î±
Ġg t
Ġch áº¿
P E
ĠÎ» ÎŃ
áĥĲáĥ Ķ
U F
ak ta
ac ie
Ġprobl Ã©m
å¥ Ĺ
Ġnu ev
Ġm use
Ġdon ne
Ġáĥł áĥĲáĥª
Ġpet it
Ġmeng en
Ġdi et
ĠY es
ä¼ļ ç¤¾
ÐĿ Ðŀ
lar ni
ĠCont in
ĠL ok
Ġcert ific
Ġbir lik
q ar
N Y
Ġà°¨ à°¿à°°
ĠBe aut
ud ian
os ter
Ġr ess
om es
Ġáĥ¨ áĥĶáĥľ
any ch
Ġíķ ¨
Ġpod em
ĠÃ¡ rea
Ġde be
æĤ ¨
Ġsal es
ord er
d ib
Ġà¸¥à¸ĩ à¸Ĺà¸°à¹Ģà¸ļà¸µà¸¢
ien ne
ĠÙħ Ø¶
à¤ ĺ
it se
ĠÐ¡ Ð»ÐµÐ´
Ġarr iv
ir im
ĠÐ¾Ðº Ð°Ð·
Ġmultip le
iss ance
Ġprod us
us us
ER T
à¯įà®ļ à®¿
Ïģ Î½
d Ã¼
ĠØ®ÙĪ Ø§Ùĩ
Ġquy áº¿t
Ġm nie
äº ²
à¸¸ à¸Ļ
Ð°Ð·Ð¸ Ð½Ð¾
áº¿ m
Ê» a
w est
à§įà¦¤ à§ģ
ĠØ¯ Ùħ
Ġn áº¿u
ì¸ ł
àª¿ àªĤàªĹ
ent lich
ĠØ¶ Ø¯
Ñħ ÑĸÐ´
Ġé ĸ
à· ı
ĠÙħ Ø§ÙĦ
à«ĩ àª¨à«įàª
Ġpod ob
Ġì ½Ķ
ĠÙĪ Ø§Ø±Ø¯
Ġkom bin
Ġhv ordan
ÑĤ ÐµÐ»
×¨ ×ķ×ª
Ġv ost
Ġelect ric
ì ´Ī
æĻ ļ
Ð»Ð°ÑĢ Ð½Ð¸
Ä±z Ä±
ĠØ§ÙĦÙħ Ø´Ø§Ø±
Ġci udad
ÐµÐ¹ ÑĩÐ°Ñģ
Ġs ave
Ã«n Ã«
ĠÙĪØ§ÙĦ ÛĴ
ĠK es
AL E
ĠYou Tube
ut ter
pres enta
ĠØ§ÙĦÙħ Øº
Ġprof il
pos e
Ġalt re
á»ĩ u
Ú¯ Ø²
Ġso on
íĺ Ħ
Ġs ess
Ġli ik
ìľ ¡
B I
Ġtreat ment
éŁ ©
po ol
alam an
Ġbas is
å® £
Îµ Î²
áĢľ áĢ¯áĢķáĢ¹áĢ
ĠÐ² Ð°ÑĢ
Ġb lij
Ġan ys
ĠR ez
äºĨ ä¸Ģ
áĢĦáĢ· áĢ¹
Ð¸ÑĩÐµ ÑģÐºÐ¸Ðµ
th ough
Ġà¤¹à¥ĭ à¤¤à¤¾
Ġby g
ÎµÎ¹ ÏĦÎ¿ÏħÏģÎ³
àª¤ àª¾àªĤ
Ġà¦¹à§Ł à§ĩ
Ġ×Ĳ×Ĺ ×ĵ
em es
ĠØ¨ Ø§Ø¹
Ø§Ø¯ Øª
ä¸ Ķ
ĠÑĦ Ð¾ÑĤ
Ġass im
ĠMens chen
q s
h ot
Ġà´¤ à´¿à´°
Ð ĥ
à§ĭ à¦®
ĠÐº Ð°Ñģ
Ġch Æ¡i
ĠH at
æĿ ¯
ĠÑĢÐ°Ð ±
Ġj Äģ
à´Ļàµįà´Ļ àµ¾
à°¡ à°Ĥ
Ġcomer cial
áĥĺáĥ «áĥļ
ho f
Ġex ecut
à¥įà¤¯ à¥Ĥ
Ġç ²
ãģ¦ ãĤĤ
×ĳ ×ķ×ª
ĠáĢľ áĢ¯áĢķáĢ¹áĢ
Ġfoll ando
æ° ¸
ĠM D
ĠØ¥ ÙĦØ§
ÙĦ Ø§ÙĤ
ÐµÑĢ Ð¾Ð²
ĠE rot
áĥ£áĥ ĵ
Ú© ÙĪ
Ġå» º
ond en
Ġf av
Ñ ľÐµ
Ġå¼ ł
Ġpros es
ĠÐ¡Ð Ĥ
ĠM á»¹
ãĤ¿ ãĤ¤
ĠÑįÑĤ Ð¾ÑĤ
ĠdÃ¼ ny
ul at
Ùħ ÙĪÙĨ
Ġé ħ
Ġ×Ľ ×ŀ×ķ
Ġm ÉĻn
áº¯ p
Ġkas ut
Ġhat te
à¸ķ à¹Īà¸²à¸ĩ
U E
Ġv ale
Ġcuk up
à¯įà®ª à¯įà®ª
Ñģ ÐµÐ´
get to
ĠØ² ÙĬ
ul ation
Ġ×Ľ ×ļ
ss on
Ġn il
ÑĢ Ð¾Ð¹
ek k
ĠPro vin
Ð»Ð¸ Ð³Ð¸
ĠØ¥ ÙĦÙĬ
à°ķ à°¿
Ð¼ Ð°Ñģ
olog ÃŃa
Ġáĥ¡áĥĲáĥ® áĥĶáĥļ
à¸²à¸ģ à¸²à¸£
ies ta
Ġàª¹àª¤ à«ģàªĤ
Ġz wei
Ġp Ã¡r
Ġf Åĳ
Ġch ez
lar Ä±nda
ĠÐ¸Ð· Ð´
Ġse ja
Ġk ub
emb rie
Ġà°ħ à°µ
Ġih m
Ġhand lers
à¦¸ à§įà¦¯
sta v
ko a
ĠØ¨ Ø¥
Ġc ung
Ġ5 000
ĠÐ³ ÑįÑĤÐ°
Ġdev ice
Ø¬ Ø§
Ġ×Ĺ ×ĵ
Ġ×ĳ ×Ľ×ľ
ĠÐ¾ ÑĪ
×ĳ ×ķ×¨
ÑģÐºÐ¸ Ð¾ÑĤ
Ġth ÃŃch
à«Ģ àª¨
a x
m alar
Ġà¸Ķ à¸¹
ĠN ic
ĠD or
é ½
ĠÐ² Ðµ
Ġcamp a
ģ áĢ»
éģ Ķ
ä¼ ĳ
ÑĨÐ¸ ÑĺÐ°
ÑĢ Ð¾ÑĤ
ĠÒĽ Ð°ÑĢ
ĠÃ© rd
Ġkap cs
ĠE ff
Ġ198 9
Åĳ sÃ©g
ĠÏĨ Ïī
ĠSt adt
à¤¾à¤ł à¥Ģ
Ġãĥ» ãĥ»ãĥ»
ĠÐ¿ÑĢÐ¸ Ð¼ÐµÐ½
Ïħ Ïĩ
Ġgi áº£m
Ñı Ð²Ð°
r ary
± áģ¾áĢĢ
rat t
ãģı ãģª
à¯ģà® ´
à¤µ à¥Ģ
Ġì² Ń
ĠComp any
çŁ Ń
Ġpar ents
Ġ365bet å®ĺç½ĳ
à¤§ à¥įà¤¯
Ġyour self
ĠFr iday
áĢ¯ áĢĶáĢ¹áĢ¸
Ð°ÑĤ Ð¾Ð²
Ġto uj
pos ta
ĠÐ¿ÑĢÐµÐ´ Ð¿ÑĢÐ¸
Ġre vol
ĠGe orge
áĥĶáĥ¡ áĥĺ
ob i
Ġfal ta
ĠK B
ĠN H
ÑĬÑĢ Ð²
Ġt oll
Ġfest ival
ĠTe xt
Ùĩ ÙĨ
r Ã³d
ĠÏĩÏī ÏģÎ¯ÏĤ
ÑĬ Ð¶
ĠÐ²Ð¸ ÐºÐ¾ÑĢÐ¸ÑģÑĤ
Ġpa ar
áĢĽ áĢ²áĤķ
Ñı ÐµÑĤ
Ġtut te
Ġde ÄŁer
Ġk uko
ĠGer man
ran e
ê» ĺ
à´¯ à´¿à´²àµįâĢį
Ùħ ÙĬÙĦ
Ð¿ ÐµÑĩ
Ġà´ļàµĨà´¯ àµįà´¯
Æ°á»£ t
eb il
Ġà¤ķ à¥įà¤¯à¤¾
èĦ ĳ
Ã© vel
ĠFrancis co
ĠÐ± Ðµ
Ġr ast
áĥĲáĥ® áĥļ
Ġap ply
ĠA ny
Ġë¬ ´ë
Ġold id
à¹Īà¸²à¸ ª
Î¯Î¶ ÎµÎ¹
in to
Ġv r
Ġ000 0
ond s
ik in
ens es
emp or
Ġe au
Ġb Ã¼tÃ¼n
à¹Ģà¸¥à¸·à¸Ń à¸ģ
ÑģÑĤ Ð°Ð½Ð¾Ð²
ut y
Ġà¦¬à¦¿à¦ ·
Ġfon ction
um ia
uks et
ĠÙ¾Ø§Ø³ Ø®
ĠÐĹ Ð´
ÃŃ lia
Ġdat os
la ub
Ġal to
Ġâ ī
Ġà¦¦ à¦¿à¦¨
æĹł çłģ
à°² à±įà°²
Ã§a is
p ass
ĠâĢİ #
ĠA si
uj i
ĠÐ´ Ð¸Ð·
Ġtouj ours
Ġchuy á»ĥn
ĠT ai
Ġtak en
Ġqu em
Ġm Ã©r
ĠÙĪØ§ÙĦ Ø¹
w agen
ry st
Ġk ids
Ġex cel
Ġç Ĵ
Ġl ad
ĠL iga
ĠC OL
c ore
à¸± à¸ķ
ik or
éļ ľ
IT A
Ġà´ªà´± à´ŀàµįà´ŀ
ĠPro t
Ġh Ã¤
Ġæ· ±
æĥħ åĨµ
Ã¡ gi
ĠC lar
Ð¸ÑĢÐ¾Ð² Ð°Ð½
st ed
Ġ19 80
ĠÐ¿ÑĢ Ð¾Ñĩ
Ġsim ply
all o
Ġpre j
ĠR i
ĠAd idas
Ġpor te
ÏĦ Ïĥ
ĠH ost
Ġ ãģŁ
áº· ng
Ð¾ ÑĢÐµÐ´
Ġà¸ Ł
Ġà°¨ à±ģà°Ĥà°
Ġà¦Ĩà¦® à¦¾à¦°
ĠÐ Ļ
ĠÑĦ ÑĥÑĤ
áĥĲáĥł áĥĶ
Þ ¬
Ä« m
M B
ĠÑĢÐ°Ñģ Ñģ
Ġproblem s
Ġf eder
ÏģÎ¹ ÏĦÎ¹ÎºÎŃÏĤ
Ġth ird
ĠØ§ÙĦØ¬ Ø²
Ġl Ã¤ng
ãģ¨ ãģĭ
ÑıÑĤ ÐµÐ»ÑĮ
iz za
ĠSh are
Ġå ĭ
ą ï¼Į
åŁİ å¸Ĥ
Ġsystem s
Ð¾Ð½ Ñĭ
b our
ĠØ¢ ÙĦ
ĠÐ¿ÑĢÐ¸ Ñĩ
Ġest Ã£o
à¤¾à¤ ĸ
ÐµÑĢ ÑĮ
Ġà¤Ĩ à¤¯
ĠÑĢÐ°Ð· Ð¼ÐµÑĢ
Ø³Ø¨ Ø¨
Ġà¤ľ à¤¾à¤¨
Ġtien en
ĠáĢģ áĢ¯
Ġne ur
ĠO ld
in Äĥ
Ġ11 6
áĥĺáĥ£áĥł áĥĺ
à§ĭ à¦Ł
Ġinstr ument
Ġb ied
ĠP E
ĠH vis
ÄŁ itim
Ġâĺ Ĩ
ÑĥÑĶ ÑĤÑĮÑģÑı
k ami
à¤¤ à¥įà¤°
A n
Ġh ati
à¤ķà¥įà¤ ¸
×Ļ×© ×Ķ
ÑĢÐ¸ Ð¼ÐµÑĢ
Ġc ross
à¸ª à¹Īà¸ĩ
Ä¾ ad
Ġ100 00
áŀ ¶
ar de
Ġkter Ã¡
ĠMob il
áĤĢáĢĢ áĢ®áĢ¸
à°¿à°¨ à°¿
Ã¼n de
Ġur Äį
ĠS it
à±ģà°ķ à±ĭ
ny mi
ĠÐ°ÑĢ Ñħ
Ġp ew
à´°àµįâĢį à´¤àµįà´¤
lar la
ĠÚ©ÙĨ ÙĨØ¯Ùĩ
ĠØ® Ø§ÙĨÙĩ
ĠØ§ÙĤ Ø¯Ø§Ùħ
ĠN el
po is
Y X
I j
ĠCount y
à´¯ àµģà´ŁàµĨ
ÑĢ Ñĸ
ĠÐ± Ð¸Ð´Ðµ
Ġk Ã¶t
ĠØ§Ùģ Ø²Ø§Ø±
Ġalt ro
à¹Ģà¸£ à¸²
v s
ĠÐ² Ð»Ð°ÑģÑĤ
M C
Ġas ta
ĠProduk t
æĪ ¦
Ġbl ue
á»± a
Ð¾Ðº Ð¾
Î¹Î½ Î®
ĠÃĸ z
ĠáĥĽ áĥĿáĥľ
Ġsi x
áĢĻáĢº áĢŃáĢ³
Ġá¹£ e
ĠDev el
Ġç ¨
ĠÐ¶Ð¸Ð· Ð½Ð¸
Ġzn aj
Ġva in
ĠPro ject
Î»Î¯ Î¿Ïħ
iforn ia
P O
ĠìĦľ ìļ¸
Ġé ĥ½
Ġk ron
l uk
Ã Ŀ
be eld
×Ĵ ×ĵ
ĠÚ¯ ÛĴ
iyor um
Ġdá»± ng
áĢ¡ áĢħ
Ġà´¤ àµģà´Ł
ĠØ¯ Ú©
ĠØ£ Ø¯
ĠÑĨ ÐµÐ½Ð°
à¯Īà®¯ à¯Ī
ãģ® ä¸Ń
à°¾à° £
Ð½ Ð¾Ð·
k Ã³w
Ġg eli
à¤Ĥ à¤ķ
ãĤŃ ãĥ£
çĭ ¬
Ġs Ã³n
Ġí Ŀ
ĠÐ¼ ÐµÑħ
Ġne ue
Ġe du
à¦¾à¦® à§Ģ
Ġæĺ İ
Ġà ¬
h ov
ĠW ind
:: ::
Ġno e
Ġl á»ĭch
z eko
Ġark adaÅŁ
ĠP es
on ial
oc ks
Ġins urance
Ġop era
Ġm iel
Ġtu á»ķi
ET A
ĠBud ap
èµĦ æĸĻ
Ġ×Ĳ ×Ļ×Ł
Ġmanif est
j ern
Ġy Ã¶n
ëł ¹
´ Ŀ
end as
ĠÐĲÐ½ Ð´
ĠÐ¾Ð± ÑıÐ·
Ġproj et
Ġma chen
ka an
ĠåĨ ħ
ĠØ¨ ÙĨØ¯
Ġdam it
Ġal ko
Ġca usa
ĠÐ¿ÐµÑĢÐ¸ Ð¾Ð´
ret o
Ġè Ī
Ġnuest ra
un tain
â Ĩ
ÐµÐ³ Ð´Ð°
ĠìľĦ íķ´
00 1
Î³ Î¼Î±
à¤¾à¤Ĥ à¤¨à¥Ģ
ĠÎ¬ Î»
Ġgu ide
à¸¥ à¸¹à¸ģ
ĠØ± Ø¶
ist or
Ġbul an
Ð¸Ð½ Ð°ÑĤÐ°
Ġap pr
ë¦ ½
is ce
Z X
åĤ Ļ
Ø§Ø¯ Ø§Øª
mal ink
ĠáĢĲ áĢĽ
ĠØ§ÙĦ ÙĪÙĤ
Ġhot els
ĠWash ington
Ø¸ Ø§Ùħ
Ġprogr ess
Ġin put
Ġbl iver
Ġàª¸ à«įàªµ
ÑĤ Ð²Ð°
ĠÑı Ð·Ñĭ
Ġjel ent
Ġer h
ĠÑģÐ¾ÑģÑĤ Ð¾Ñı
Ġweek end
Ġma a
ĠMuse um
ĠØ´ Ø§ÙħÙĦ
áº· p
à¯Īà®ķ à®³
Ġà¹Ģà¸ Ĭ
ĠW elt
à±ģà°Ĥà° ¦
Îķ ÎĽ
Ġdou ble
áĢ±áĢ« áĢº
à¹Ģà¸Ħà¸£ à¸Ķà¸´à¸ķ
ĠÑģÐ¾Ð¾ÑĤÐ²ÐµÑĤ ÑģÑĤÐ²
Ġtr end
Ġdo is
ĠE ven
Ã¡ va
s b
Ġà¸£ à¸²à¸Ħ
Ġp iano
Ġro le
Ġd ry
Ġ380 9
à¸ĵ à¸°
à®¿à®¯ à®¾à®ķ
Ø¨ Ø§Ø¨
Ġg old
Ġsah ip
Ġpk 10
ĠL y
Ġsob ie
ĠÐ¼ Ð¾Ð½
Ġlá» Ŀi
Ġar d
ĠOr t
ĠCh icas
Ķ áĢ¾
ĠâĪ Ĵ
ĠÃ¶ÄŁ ren
áĢ¬ áĢ¹
ĠmÃºs ica
Ø± Ø®
ĠÛ±Û °
à¨¿ à¨
Ġé¦ ĸ
ĠÐ³ ÑĢÐ¾Ð¼
ĠÎ² Î¿
Ġl Ã©g
Ġfor d
m 2
è¿Ļ ä¸ª
à¸· à¹Īà¸Ļ
Â ¾
ĠBon us
áĢ¶áĢ¯ áĢ¸áĢ
ĠØ§ÙĦ Ø§ØŃ
ĠÐ¾ Ð»
Ġokt ober
vel le
ob o
ĠÐ³ÑĢÑĥÐ¿ Ð¿
Ġsup erior
ĠI b
ê° Ĳ
ver k
ĠMer c
Ġt uk
Ġre alit
Ġfamil ia
çļĦ ãģª
Î¼ ÏİÎ½
Ġk Ã©t
Ġd Ã©s
ĠE du
Ġsch n
Ġg ada
Ã´ le
ik it
LC J
à´¿à´ ª
à´¾à´¤ àµįà´¤
à«ĩàª ¡
Ä±l mÄ±ÅŁ
lig ere
ell s
Ġc urs
ual mente
Ġà´µ àµĨ
ĠÙĪ ÙĦÛĮ
Ġho y
r ans
ĠÐ´ ÑĥÑħ
ĠÎļ Ïħ
Ġany thing
ĠÑĤ Ð¾Ð·Ð¸
Ġà¦ķà¦¿à¦¨ à§įà¦¤à§ģ
èĽ ĭ
ÅĻ ej
Ġà¤®à¥Ī à¤Ĥ
à¦°à§įà¦ ®
Ġà¦¶ à¦¿à¦ķà§įà¦·
çİ© æ³ķ
ĠÐ· Ð°Ð¹
ĠRoy al
ut ar
ovan Ã©
áº± m
à±Ģ à°°
iek Å¡
ON T
Ġï¼ ĳ
Øº Ø©
ÑĪ Ð¸Ðµ
ĠAs ia
Ø±ÛĮ Ùħ
Ġpubl ik
Ġprev ious
ĠH ur
áĢ¶áĢ¯ áĢ¸
à¹Īà¸§ à¸ĩ
over no
ĠÐ²Ð¸Ð´Ðµ Ð¾
Ġut Ã¡n
ĠW ohn
Ġk jÃ¸
Ùİ Ùħ
ch ester
ĠæĬ ķ
sk u
Ġst il
Ġ ellen
è®¾ è®¡
Ø¬ Ø§Øª
Ġd ark
àµĢ à´µ
ãģª ãģĮ
te en
ĠÐ² Ð´
Ġl iel
áģ µ
ĠÙĨ Ùģ
ĠÙĨÛĮ Ø§Ø²
Ġfor ward
ĠM ake
Ġro ad
Ġl lam
ĠO c
ec ta
ani i
Ġrun ning
Ġk red
Ġà¦ķà¦° à§įà¦®
ĠØ¯Ø± Ø¨Ø§Ø±Ùĩ
ĠÐļ Ð¾ÑĢ
Ġsp Ã©
à°¾à° §
Ð² Ð¾ÑĢÐ¸
Ġà¸¥à¸ĩà¸Ĺà¸°à¹Ģà¸ļà¸µà¸¢ à¸Ļà¸Łà¸£à¸µ
Ġart ist
ĠCh in
ãĥ³ãĥ ģ
ĠÚ¯ ÙĪ
Ġh Æ°á»Ľng
Ġb anc
ĠT wo
æį ķ
ĠÎ£ ÏĦÎ·
Ġeduc ation
Ġsp es
Ġma inten
Ġident ific
èŃ ·
Ģ ìĿ´
Ġkon kur
à¯Īà® ¨à¯įà®¤
at al
à¤µ à¤¾à¤°
íĮ Ĳ
f ect
ag gi
Ġl Ã¥
ĠØ¬ ÙĦ
Ã© gi
ĠÄĳ áº·c
ÙĪØ¯ ÛĮ
Ã³ ri
ĠArt icle
ss en
Ġpar lament
ĠT ub
à¸±à¸Ļà¸ Ĺ
×Ļ×ĳ ×Ķ
Ð¾ÑĢ Ñĥ
ĠÎĿ Î±
à¥ĩ à¤¨
ic ional
ĠN ej
å¤ ı
áĢĦ áĢ¶
à¤¾à¤ ¡
main an
ĠÙħ ÙĩØ±
ĠÐ´ ÐµÐ¼
Ġvá» «a
Ġk ak
Ġens ure
Ġ Ïī
àµĩ à´£àµįà´Ł
ĠØ§Ø¹ Øª
ĠÑĥÐ´ Ð¾Ð±
ĠÐ¾ÑĤ Ð´ÐµÐ»
Û ±Û
Ġd ni
Ùħ ÛĮØ±
ĠKe y
Ġav ait
erv ice
G G
ĠÙħØ¯ ÛĮØ±ÛĮ
Ġsc en
à¤ ģ
raz ione
m ist
ĠÐļ ÑĢÐ°Ñģ
Ø§Ø¹ Ø¯Ø©
ens en
íİ ¸
Î´ Ïİ
×Ľ ×Ŀ
olog ical
ess age
ar r
ĠÄĳ áº·t
Õ¡ Öģ
Ġd ÄĽ
Û ²
Ã© nt
Ġàª¦ àª°
éħĴ åºĹ
Ġè ª
Ġn á»Ļi
à¦¾à¦¨ à§ĩà¦°
éĿŀ å¸¸
ÙĪØ¯ Ùĩ
ĠØ¹Ø¨Ø¯ Ø§ÙĦ
×ķ×ŀ ×¨
ĠØª Ø¨Ø¯
ĠÐł Ð°Ñģ
Ġà¸ªà¹Īà¸ĩ à¹Ģà¸ĩà¸´à¸Ļà¸ļà¸²à¸Ĺà¹Ħà¸Ĺà¸¢
ĠÙħÙĪ Ø§Ø¯
à¸¢ à¸§
à´¨ à´Ĥ
Ġè® ©
Ġà®µ à®¿à®Ł
Ġà¦¸à¦° à¦ķà¦¾à¦°
ëĭ¤ ëĬĶ
f as
ĠÐ¿ÑĢÐ¸ ÑĢÐ¾Ð´
Ġs d
Ġdag en
Ġtek st
åŃ¦ çĶŁ
åį «
Ġproblem as
ĠMed ic
ĠãĤ ¦
ĠAb s
à¤Ĥ à¤ª
g una
ĠG h
ÛĮÚ© ÛĮ
Ú¯ Ø±Ø¯
ĠÕ ¿
Ġr Ã¡p
ê² ł
Ø° Ø±
Ġwer d
Î±Ïĥ Î¯Î±
zo ek
ÑĢÐµ Ñĩ
Ġprime iro
çŃ Ķ
ĠØ· Ø±Ø§ØŃÛĮ
Ġti áº¿t
åį Ī
g at
ĠÙĩÙħ ÛĮÙĨ
ĠØ¹ ÙħØ±
Ġà¦¨à¦¿à¦ ľ
ĠÐºÐ» ÑĥÐ±
ĠB á»Ļ
ÏĨ ÏĮ
Ġà¹Ĥà¸Ľà¸£ à¹Ĥà¸¡à¸Ĭà¸±à¹Īà¸Ļ
Ġà¤Ĺ à¤Ī
Ġpol a
Ġg ent
ãģ® ãģ§ãģĻãģĮ
à¦¡ à¦¼
×Ĳ ×ķ×ª
Ġf y
g ro
ĠáĢ±áĢ ĲáĢ¬
Ġpas ar
Ġà¤ķà¤° à¥ĩà¤Ĥ
à´® àµįà´ª
ert ura
ograf ia
ĠgÃ¶ st
Ð¸Ð» Ð°ÑĢ
ÅĨ as
z Ã©s
Ġh uk
Ġb elle
ĠK amp
ĠÐ² ÑģÑı
ì£¼ ì¶ľìŀ¥
åĦ ª
Ð»Ñİ Ð´
Ġà® ĵ
ĠÚ¯Ø±Ùģ Øª
ĠÐł Ð¤
Ġob at
ĠG ames
ÅĤ aw
Ġç» ı
ĠâĻ ª
è¦ģ æ±Ĥ
Ġ" "
Ġpag ina
ir ish
ĠÚ©ÛĮ ÙĦ
Ð¾Ð³ Ð¾Ð´
à´¤àµįà´¤ à´¿à´¨àµįà´±àµĨ
Â Ń
Ġèħ ¾è®¯
Ġåħ ³
ĠÚ¯Ø±Ùģ ØªÙĩ
ĠÐ»Ñİ Ð´Ð¸
Ġw iki
Ġå ĸ
ĠSE O
ĠS V
æĬķ èµĦ
ãĥŃ ãĤ°
p n
at Ä±
Ġà¤® à¤¨
ĠA ur
áĢļ áĢ°
Ġà¦ķ à§įà¦·
Ġc ela
à§ĩà¦ ¡
or ing
ĠIS O
ĠI ll
Ġ2019 å¹´
ĠÏĥÏĩ ÎŃ
v ie
kon omi
ĠÐ¼ Ð¸Ñģ
à´¨àµįà´¤ àµįà´°
osp od
éĢ Ģ
ers o
eri i
Ġest im
Ð½Ðµ ÑĪ
ĠÐ³ ÐµÑĢ
Ġà¸ľ à¸¹à¹ī
Ġk uh
Ġdem oc
Î¸ ÏģÏī
Ġc Ã©l
ĠÃ¸ nsk
Ġpad ding
o ord
ī ´
ĠÐ² Ð¾Ð¹
Ġx ml
Î¼ Î±Î¹
Ġmas uk
ĠLe on
ãģķãĤĮ ãĤĭ
ĠáĢĻ áĢº
ĠÐ¿ Ð¾ÑĢÑĤ
à¸ķ à¸±à¹īà¸ĩ
ug hout
ĠÐ²ÑĬ Ð²
Ġquel ques
ć ï¼Į
ãĤ ¡
Å¾ ÃŃv
ĠÃ®ntÃ¢lne ÈĻte
Ġ ign
Ġcual quier
à¯ĭ à®¤à¯ģ
Ġpol e
ãģ£ ãģ
Ġâĺ ı
Ġ×ķ ×ľ×Ĳ
ĠÐľ Ð¾Ð¶
ĠH els
um as
auc oup
ĠÐ³ ÑĢÐ°Ð¶
us se
àª¿àª¯ àª¾
eb ab
ÑĤÐ¾ÑĢ Ð°
Ġä¸ ĸ
ĠâĢ ²
Ġmo is
ĠH R
Ä° R
Ã«s ht
Ġev ento
à´ªàµįà´ª àµĨà´Łàµįà´Ł
ĠáĥĶáĥłáĥĹ áĥĺ
p c
áĥ§ áĥķ
ie urs
Ġg if
ĠÎµ Î¹Ïĥ
Ġà¤ķà¥ĭ à¤Ī
áĥĲáĥ §
Ġsu ff
ĠÎ£ Î¥
Ġv ere
ĠPres ident
ĠO le
b au
Ġ×Ĳ ×ĸ
Ġfa ut
ĠÐĲ Ð·
r ari
ov Ã©ho
Ġáĥŀ áĥĺáĥł
Ġd ute
ÑĢ ÑĪ
Ġa ika
Ġse ine
ĠReg ist
up u
U V
Ġcat al
ĠK ay
ĠÐĿ ÐĲ
ĠNguy á»ħn
20 15
Ġ( ).
å¸ Į
Ø¬ ÙĬÙĦ
ĠÊ» O
Ð½ ÑĤ
ug g
t are
ãģ® æĸ¹
àªĽ à«Ģ
à¦¿à¦ ī
Ġer r
Ġc ra
ĠTe il
æĲ ı
ist y
Ġdir ig
ĠP ac
ĠC ook
ĠÎĶÎ· Î¼Î¿
Ġimm edi
Ðĺ Ð¢
Ġàªµ à«įàª¯
Ġse Ã±
ĠSl ovens
Ġà¤ªà¤¹ à¤²à¥ĩ
ë² Ī
åģ ·
lÄ± ÄŁ
Ġtá»ī nh
Ġkl as
omm od
c ular
Ïĩ ÏģÎ¹
F T
Ġvo ir
Ġad ip
æį ¢
ÑģÑı Ñĩ
à¥ĩ à¤°
Ø±Ùĥ Ø§Øª
ich en
[ "
Ġv Ã¡m
Ġpro to
Ġdec ir
á ī
à´£àµįà´Ł àµį
ven ir
or ar
Ġà¦ ¢
Ġw ide
Ġad am
Ġv n
àªŁ àª²
ÄĻ k
ĠV est
ĠF A
Ġè Ļ
ĠÐ¿Ð¾Ð¼ Ð¾Ð³
Ġg dy
ol et
ĠÐĲ Ð»Ðµ
Ġv oll
Ġn je
F i
Ġtah u
Ġevery one
ĠC and
Ġsp os
Î¸ Î±
im enti
Ġminut os
ep h
à±ģà°ķ à±ģ
Ġè ¢
ĠãĢ Ĺ
ĠØ¨Ùĩ âĢĮ
Ġt ussen
ì§ ĳ
ÏĢÎ¿ ÏĤ
Ġà°ħ à°Ĥà°¦
ĠÐ³ Ð¾ÑģÑĤ
ĠÐ² Ð¸ÑĤ
Ġth áºŃt
U I
N I
ĠN ur
ÑĸÑģ Ð»Ñı
ĠS es
å® Ī
Ð²Ð¾ Ñĺ
v Ã¡r
ĠØµÙģ ØŃÙĩ
ĠØ³ÛĮ Ø³ØªÙħ
ĠÐ¿Ð»Ð¾ Ñī
ĠRestaur ant
Ġpost s
à¸« à¹Īà¸ĩ
ol y
Ġbe w
à±Ģ à°µ
àª¾àª ¥à«Ģ
Ġà¤¦ à¥įà¤µ
Ġker ja
ãģ¡ ãĤī
Ø¬ ÛĮ
Ġà¦®à¦¾à¦¨ à§ģà¦·
Ġbin nen
à¦Ĺ à§ģà¦²
Å¡ et
amp u
ab et
Ðº Ð¾ÑĢ
ua wei
ÑĶ Ð¼
Ġob j
Ñĥ Ð³Ð¸
Ð» ÑĸÐ²
Ġá¼ Ģ
Ġv ib
Ġc ss
Ut ama
ĠAc adem
à¤°à¥įà¤ £
Ð» Ð¾Ð¼
Ġprop or
Ġequip o
Ġambi ente
áĤ ĩ
à¹Ĥ à¸£
Ø³Øª Ø±
Ã» t
ku u
ĠDomain Utama
Ïĥ ÏĥÎ±
ĠE ine
Ð¸Ð´ Ð°Ð½
Ã¡l ne
Ã Ļ
à´® à´¾à´¯à´¿
Ġï ¾
Ġper nah
ĠÐº ÑĢÐ¾Ð²
áĥĲáĥ¥ áĥ¢
à¸Ħ à¸´à¸Ķ
iss ement
ĠÐ¿ÑĢÐµÐ´ Ð¾ÑģÑĤÐ°Ð²
ĠáĢ Ĭ
Ġd orm
à°¨ à±ĩ
Ġter us
Ø£ Ø©
Ġlos s
Ġf iyat
âĢ¦âĢ¦âĢ¦âĢ¦ âĢ¦âĢ¦âĢ¦âĢ¦
l icht
ĠØ§ÛĮØ±Ø§ÙĨ ÛĮ
ĠÐ½Ðµ Ð¹
ĠÐ±Ñİ Ð´Ð¶
è· Ł
à¸£ à¸£à¸¡
Ġprofess ion
áĢī áĢº
ĠØ¯Ø± ØµØ¯
à´° à´Ĥ
Ïģ Ïį
er ar
Ð¿Ð¾Ð» Ð¾Ð¶
ĠÐ² Ð¾ÑĤ
Ġinform atie
ĠPro d
Ġ. ;
å «
Ð° ÐµÐ¼
Ġvo z
Ġt Ã©r
ĠF ant
à±įà°¸ à±į
Ð°ÑĤÐµÐ»ÑĮ Ð½Ð¾
yt u
Ġmed ical
à¹Īà¸§ à¸Ļ
ĠÎ³ ÏģÎ±
ĠÃ£ ÆĴ
à¹ ĭ
Ã¡c ie
IC E
Ġp ig
ĠF ind
Ð½ ÐµÐ½Ð¸Ðµ
Ġàª¨ à«ĩ
ĠØ± Ø¦ÛĮ
áĥĺáĥľ áĥĺáĥ¡áĥ¢
ĠØ³ ÛĮÙĨ
à±ģà° ¦
à¤¿à¤ ¦
ĠÐºÐ¾Ð¼Ð¿Ð» ÐµÐºÑģ
ÑģÑĤ Ð¾
rop ri
ĠÐ¿Ð¾Ð» Ð¸ÑĤ
Ġy orum
Ġdup Äĥ
Ġdes puÃ©s
Ùİ Ø¯
am ar
Ġm itt
Ġà®ī à®Ł
Ġbed rij
ç» Ī
áĥĽ áĥĺáĥ¡
il gan
ĠØ¬Ø¯ ÙĬØ¯
Ġã Ħ
ĠÐ½Ð°Ð» Ð¸Ñĩ
çīĪ ä¸ĭè½½
ÙĦØ³ ÙĦ
er ah
Ġi esp
Ġalm ost
ĠA pl
ĠÎºÎ±Î» ÏįÏĦÎµ
áº« u
Ġtra vail
ja w
Ġf le
â Ħ
à¸ķ à¸´à¸Ķ
Ġà¹Ģà¸ŀ à¸·à¹Īà¸Ń
ÑĬÐ» Ð¶
Ġtempl ate
ĠOrig inal
Ġmens en
å®¢æĪ·ç«¯ ä¸ĭè½½
Ġæ¬§ ç¾İ
ĠØ§ÙĨØª Ø´Ø§Ø±
ĠÐ¾Ð± ÐµÑģÐ¿
Ġãĥ Ļ
ĠM Ã¡s
Ð³ ÑĥÑģÑĤ
ien za
ĠÐ² Ð¸Ð±
leg g
Ġm ali
Ġad j
Ġdet ta
Ġal i
åº ĵ
ãģ«ãģª ãģ£ãģ¦
z are
ĠÏĢ ÏģÎ¬
Ġhas il
Ġexemp le
ĠT rib
à°¿à°Ĥà° Ĺ
Ð°Ñİ ÑĨÑĮ
ep s
Ġb áº¯t
ĠÏĥÏħ Î³
à¶ º
ĠsÃ³ lo
ĠmÃł u
Ġl if
ç £
Ö ¹
ang s
Ġà¦Ĩ à¦ĩ
Ġchi ar
ĠV ID
ĠP la
ÙĥÙĪÙħ Ø©
ĠÑĥ ÐºÐ°Ð·
ĠÃ© let
Ġchar ge
æĮ ī
Ð¸Ð³ ÑĥÑĢ
u ck
99 9
8 00
Ġà ·
Ú¾ ÛĴ
ie b
er ap
Ġc ine
à¹Ģà¸Ĥ à¹īà¸²
ĠP ada
Ø§ÛĮ Ùĩ
Ð°Ð½ Ðº
ĠÙĥ ØªØ§Ø¨
à§ģà¦ ĸ
ĠÐĳ Ð°ÑĢ
Ġda ily
è¡Į ä¸ļ
à´ķ à´³
ĠÐ¾ÑĢÐ³Ð°Ð½ ÑĸÐ·
Ġfor n
ĠÚĨ Ø§Ûģ
Ġbus ca
ĠC osta
à¤¾à¤² à¥Ģ
uks ia
ĠbÃ½ t
×ķ ×Ļ×ķ×ª
ani em
Ġter d
Ġd ara
Ġàªµàª°à«įàª ·
Ġà¤ľà¤¾à¤¤ à¤¾
ĠÐºÐ¾Ð¼ Ð°Ð½Ð´
Ġs á»©c
Ġlu Ã´n
ĠG olf
Ġå® ŀ
Ġà¦ª à§ľ
ĠM az
AC K
ĠØ¹ Ø¨Ø±
ĠA A
×Ĳ ×Ķ
Ġcal cul
Ġb Ã¬nh
à®¸ à¯į
à±ģà°¨à±įà°¨ à°¾à°°à±ģ
Ġ ãģ«
Ġpas ado
ÙĲ ÙĦ
m esi
ĠØ´ Ø±ÙĪØ¹
ĠÐº Ð¼
Ġà¤ī à¤¤
Ġs ust
Ġmak an
Ġcons ist
ÙĬ ÙĤ
Ġæľ ª
Ġj Ã¡t
Ġag æĹĹèĪ°åİħ
Úĺ ÛĮ
Ġh ospital
Ġvil Ã¡g
Ġà¦¸ à¦Ļà§įà¦Ĺà§ĩ
ĠØ§Ø ¸
ĠM emb
ĠC AS
Ġ25 5
Ġà¦ĺ à¦Ł
Ġex iste
Ġenerg ia
Ġd ati
ĠâĢĭâĢĭâĢĭ âĢĭ
Ġl inda
Ġfl ow
ĠÐ¶ ÑĥÑĢ
Ġg ond
Ġj ual
Ġ3 d
à¸µà¹Īà¸¢ à¸§
ak as
ĠÑģÐ» Ð¾Ð¶
áĢĲáĢ½ áĢĦáĢº
Ø§Ùĩ Ø´
Ã¤ re
Ġà°ħ à°¯
Ġpl ans
Ø§Ø¦ ÙĨ
Ġn á»¯
Ġfinan cial
Ġà®ķ à®¾à®²
Ġph á»ĳ
Ã¤l le
m Ã©
Ġæ¯ ı
Ġya itu
Ġd raw
te in
ĠT S
à¹ĥà¸Ĭà¹ī à¸Łà¸£à¸µ
Ïĥ Î¹Î¿
Ġm Ã¸
à´¸ àµįà´¥
ĠM att
a Ã±
ĠÎ¼ Î¬
Ġlain nya
Ġto ol
à°² à±į
Ġf ino
Ġal ors
å² Ľ
ad el
åº Ń
ĠãĢ ľ
ĠÙĦ Ú¯
Ġincre ase
ÙĦÙĬ ÙĤØ§Øª
ÙĪ ÙĨØ¯
Ġs ino
Ġfr anc
Ġk ant
Ġam azing
Ġadol esc
Ð°Ð»ÑĮ Ð½Ñĸ
Ä° L
Ġem er
Ġ11 9
Øª Ø§ÙĨ
at ul
Ġv isto
Ġcou ple
Ġby la
ãĥ¼ãĥ ĸ
à§įà¦ ŀ
âĢ ĵ
Ġn it
à°Ĥà°¤ à±ĭ
all es
ĠÙĬ Ø³
ĠØ§ÙĦ Ø§Ø¬
Ġv and
ĠB og
Ġag ric
Ġn iveau
ĠV iet
ĠC art
à¹ģ à¸Ĥ
uny ai
ĠÃ¼ st
Ġ12 2
æ´ Ĺ
ä¾¡ æł¼
à¦° à¦£
ÅĽ nie
Ġà¤¬ à¥Ģ
ĠÐ¼ÐµÑģÑĤ Ð¾
Ġminim um
Ġ×ŀ× ĸ
ĠÃ© lect
Ġfor am
iy an
Ġw Ã¼r
ĠÐ¾ÐºÐ¾Ð» Ð¾
Ġpart ners
ĠAl f
åĪĨéĴŁ å¿«ä¸ī
àªµ à«ĩ
if ier
ica Ã§Ã£o
Ġàªµ àª¾àª¤
ĠÐ·Ð´ ÑĢÐ°Ð²
Ġx Ã¢y
Ġpr w_
Ġh ombre
ĠEng ine
à¸± à¹Īà¸§
ub le
ĠÑģÐ¼ Ð¾ÑĤ
Ġi ba
ĠØ§Ø¬ Ø±
ĠÐ·Ð° ÑģÑĤ
ĠS ne
Ġvi ele
ê· ¼
Ø§Ø· ÙĤ
k yt
ard ia
Ġà´ķ àµĤà´Ł
ĠÙ¾ ÙĦ
Ġon g
Ġbe ach
áĥĲáĥª áĥĺáĥĲ
áĢŃáĢ¯ áĤķ
à¹ĥà¸«à¸į à¹Ī
ĠâĢĿ ãĢĤ
ĠÙĪ Ø·
ë©´ ìĦľ
Ġsam en
Ġl ider
Ġa im
ĠS ala
asÄ± na
Ġà°ļ à±Ĥà°
Ġam en
ĠáĥĴ áĥĲ
ĠJ ud
ç» Ĩ
Ġin ch
ts Ã©g
è¯ Ģ
ĠÑģÐ»ÑĥÑĩ Ð°Ðµ
à´¨àµįà´¨ àµį
ÃŃt ott
ĠÐĶ Ð¾
Ġv yt
à¸§ à¹Ī
Ġ17 5
ur ut
ĠWeb site
Ġl el
ĠPerso ane
A pp
ĠEx pl
ãģĶ ãģĸ
Ñĳ ÑĢ
st Ã¤nd
sp re
ka uf
Ġpart s
ĠH uman
à®¤ à®¿
ak ar
Ġ ä¿
ÏĦÎµ Ïį
Ġ×Ķ ×ľ
as Ä±nÄ±n
ĠÙģØ¥ ÙĨ
Ġword s
ens ka
Ġà®İ à®´
ĠØ¹ÙĦ Ø§ÙĤ
ĠS qu
Ñĸ ÑĤÑĮ
h ere
áĢ¬áĢ¸ áĢĢ
ic ato
ĠÑģ ÐºÐ°ÑĩÐ°ÑĤÑĮ
ĠTh ank
ĠPremi um
áĥĲáĥł áĥĺáĥ¡
G E
Ġj eszcze
Ġcommer cial
ãĤ³ ãĥŁ
à¸´ à¸ļ
Ġtal Ã¡l
à¸Ń à¸²à¸«à¸²à¸£
Äĥr Äĥ
å¹ ħ
å¤§ çļĦ
Ð¾Ð¿ Ð°Ñģ
qu Ã©
Ġå¦Ĥ æŀľ
ĠØ¯ Ø®
Ġtá» Ń
Ġo ike
ĠTelef on
ĠT A
à¸ª à¸°
ĠÐłÑķ Ðł
Ïī Î¼Î±
Ġà¸Ń à¸¢
Ġm á»įi
ĠR ew
à®¤ à¯Ī
verpg bel
ÑĥÐ´ Ð¸
âĢĶ âĢĶ
à¯Ģ à®°
Ġter baik
Ġmind re
Ġexcell ent
èģ ŀ
Äģ rt
Ġ×© ×Ľ
ĠÑĤ Ñį
Ġmo z
ĠL ed
ut as
Ġà¸Ĺà¸Ķà¸¥à¸Ńà¸ĩ à¹ĥà¸Ĭà¹īà¸Łà¸£à¸µ
ĠØ¬ Ø§ÛĮ
ĠF ahr
ĠC ert
Ġkdy Å¾
Î» Î¯Î±
il kan
M od
ĠÐº ÐµÐ»
áĢģáĢº áĢŃ
Ġà¸Ĥ à¸Ńà¸ĩ
Ġver di
Ġes im
ĠC li
ĠAw á»įn
ëª ©
Å¡ o
et ah
ĠØ§ÙĦØ³ ÙĦØ§Ùħ
ĠÙĬ Ùı
Ġse em
Ġbo ard
à¤Ĥà¤¤ à¥įà¤°à¥Ģ
Î¼ÎŃÎ½ ÏīÎ½
Ġprof it
à¸Ļà¸ ¢
Ġcook ies
ĠT ER
ke iten
Ġen vi
Ġc idade
ÑĢÑĥ Ñģ
á» ĥ
×Ĺ ×ķ×ª
ing a
ba o
Ġk emb
ĠR esearch
Ø§Ø± ÛĴ
Ð¾Ð³ Ð°ÑĤÐ¾
Ð°Ð· Ð½Ð°Ñĩ
ĠàªŃ àª¾àª°
ĠÙĪ Ø¯
Ġr ig
Ġla ik
ĠAm b
å¸ «
ĠÙħØ¹ Ùħ
ĠÐ¸Ð· Ð¿
ĠDe f
áĢĲáĢ½ áĢĢáĢº
\ \
ĠØ¢Ø² Ø§Ø¯
Ġsp oleÄį
çļ ĩ
Ġà¦¬à¦² à§ĩ
ĠØ§Ùħ Ú©Ø§ÙĨ
Ġkans sa
Ġ. Â»
AR E
ĠÐ¼ Ð°Ð½
ĠØ§Øµ ÙĦÛĮ
Ð¾Ð² ÑĭÑħ
ĠG PS
ÃŃt ulo
z immer
Ġhe cho
Ġë¬ ¼
Ġãĥ Ł
Ø¯Ø§Ø´ Øª
ê² °
ÑģÑĤ Ð¾ÑĢ
port s
ĳ áĢ¬áĢ¸áĢ
Ġê²½ ìļ°
à¦ ·à§įà¦Ł
Ġà¹Ģà¸ Ĥ
Ġmin ister
Ø§ÙĬ Ø§
os es
Ġcas os
à«ĩàª² à«Ģ
Ð°Ð´ Ð·
ĠÙĦ Ø£ÙĨ
Ð½Ñĸ Ð²
es ch
Ġæ £
Ġg ÉĻl
ft en
Ġà® ¸
ĠInd ian
ĠC oll
ici as
Ġà´µ àµįà´¯
Ġchar acter
áĥĲáĥķ áĥĺ
S p
ĠØ¨ Ø£ÙĨ
ĠÐ¼Ñĸ Ð¶
ä»£ è¡¨
ster dam
ĠPh oto
yn Ä±
it is
Ġfut uro
Ð¸Ñı ÑĤÐ°
iv u
åŃ¦ æł¡
al and
áĢŃ áĢĻáĢº
ĠÑŀ ÑĤ
ĠÐ¿ÐµÑĢÐµ Ð²
Ġnagy on
ĠdÃ¼ zen
Ð¾Ñı Ð½
hal b
sta w
f g
ull ah
t at
Ġreg ister
Ġlib re
Ġf ase
è®¡åĪĴ _
àµ Ĺ
y j
Ġp id
ĠG irl
Ð¾Ð²Ðµ ÐºÐ°
ĠÐ¿ÑĢ Ð°
Ġr Ã³Å¼
ê² ĥ
ÑĤÐ¸ Ñı
U X
Ġresp onse
Ġor den
Ġles z
áģ ¥
à¹Ģà¸ ¨
áĢŀ áĢ±áĢ¬
Ġpes o
Ġn Ã¡v
ĠP are
se en
Øº Ø§ÙĨ
ĠH oll
ta an
Ġpar c
â Ĥ¬
Ø± ÛĴ
ab o
Ġw ays
Ġrelations hip
Ġcheck ed
Ġk ult
ĠT un
ĠP ert
Ð¾Ð² Ñĸ
it Ã©s
E l
Ġun os
Ġsam me
Ġm im
ÐµÐ» Ñı
Ø¨ Ø·
Ġà®¨ à®¿à®±
Ġ ãģª
Ġà®ļà¯Ĭ à®²à¯įà®²
ĠÐ´ÐµÑĢÐ¶ Ð°Ð²
à¦¿à¦ ¡
ĠØ§ÙĦØª Ø¯
Ġ+ +
à®ķà¯įà®ķ à¯ģ
Ġà¦ķà¦¿à¦Ľ à§ģ
Ġtr am
æĿ Ģ
ÙĩâĢĮ ÛĮ
E n
ĠÐ¿ÑĢÐ°Ð² Ð°
Ð¼ÐµÐ½ ÑĤÐ°ÑĢÐ¸
v n
l ines
Ġà¤ħ à¤²
r ett
ĠØ§ÙĦÙħØª ØŃØ¯Ø©
ĠM L
ĠtÃ¶ Ã¶
ĠA uch
à¸²à¸ ©
Ġtrans par
Ġdist rib
Î Ĵ
s in
b ew
ys zer
ĠÎµ Î»Î»Î·Î½
Ġsit em
Ġdesar rol
Ġberb agai
à¸£à¸ĩ à¹ģ
Ġp isc
Ġv at
Ġle h
Ġkl ik
Ġà®ļ à®®
ĠÐ²Ð¸Ðº Ð¾Ð½
ĠÙħÙĨ Ø¸
Ġs od
ìĸ ¸
æĸ°éĹ» ç½ĳ
ĠÎ¼ÎŃ ÏĩÏģÎ¹
Ġàªª à«Ĥ
ĠÑĢÐµ Ð¼
ĠÐº Ð¾Ð´
èķ ī
áĢ¬ áĢĻ
sk Ã©ho
ĠÙĪØ§ÙĦ Ø¯
ãģ ²
ĠÎ¼ Î®
Ġtyp es
Ġibex_room_grid _
åĨ ·
ĠÙĨ ÙģØ±
ĠEst ados
ĠÃ§ ev
Ø§Ø¯ ÙĦ
Ġæ ¹
Ġres id
áģ¿áĢķ áĢ®áĢ¸áĢ
ĠÑĹ ÑĹ
Ġthu áºŃt
Ġ12 00
å®ĺæĸ¹ ä¸ĭè½½
Ġev ol
ĠT E
ĠSt an
Ø§ÛĮ Ø·
Ġre pre
Ġpas a
ĠD um
ick en
m ond
Ġla pt
ÃŃ cio
Ġst ata
Ġor ta
Ø® Ø§ÙĨÙĩ
ÑıÐ² Ð°Ð½Ðµ
i ere
ĠAnt i
P ress
ĠÐ² Ð°Ð»
Ġlang uage
áĢ»áĢģ áĢĦáĢ¹áĢ¸
à«Ģ àªĤ
ĠÑĤÑĢÐµÐ± Ð°
sp ro
Ġj ours
Ġbel um
è®º åĿĽ
ç¾İ åĽ½
àµģà´ķ à´¯
ÅŁ im
Ġbah an
Ã© is
ĠÑĪ Ð¸ÑĢ
ĠÅ¡ kol
Ø§Øª Ùģ
Ġåľ¨ çº¿
ĠØ§ÙĦØ¹ Ø±Ø§ÙĤ
Ġk ij
ĠB rat
all en
ĠÑĩ Ð¸ÑģÑĤ
ĠÃº gy
ĠPortug al
Ġpa int
åĪ »
et ek
ĠÐµ ÑĦ
Ġp ute
ĠM AN
os z
Ġsh ows
at el
Ġq ay
ĠCar ol
à¯ģà® ªà¯į
ent ras
O n
ĠÛ² Û°
ĠÑĥ ÑĪ
ĠÏĢ ÎŃ
m id
Ġà¹ĥà¸« à¹ī
Ġy ake
Ġpati ents
ĠSport s
ÑģÐº ÑĥÑİ
Î¼Î² ÏģÎ¯Î¿Ïħ
ra i
Ġh r
ĠÐ² Ð°Ðº
Ġà®ª à®°
ĠØªØŃ ÙĤÛĮ
à¥ĩà¤Ĥ à¤¦
ĠÏĢ Î¯
Ð» Ð¾Ð½
ĠÐ°Ð´ ÑĢÐµÑģ
Ġme chan
áĥĺáĥ£áĥ ļáĥĺ
ÑĥÐ½ Ð°ÑĢÐ¾Ð´
ĠÐ» Ñĸ
Ġmel ihat
ÙĢÙĢÙĢÙĢ ÙĢÙĢÙĢÙĢ
ĠS B
ØªØ¨ Ø§Ø·
Ã¨ t
ick Ã½ch
H I
Ġspr Ã¡v
Ġpos ible
à¦¤ à§ĭ
ĠÚĨ Ú¾
Ġsj Ã¤l
Õ¸ ÖĢ
ĠÛģ ÙĪÙĨÛĴ
ĠP OL
k ek
Ġpier ws
ĠB ru
© ëĭĪëĭ¤
Ġh ade
ĠP ic
à´¤àµįà´¤ à´¿à´¨
ÑģÑĮ Ðº
Ġman o
Û µ
Ġáĥ¥ áĥĲáĥļ
ÏĦÎµ Ïħ
ick et
ĠkÃ¶v et
u he
ib ili
ĠÐº ÑĥÑĢÑģ
å¤ Ł
Ð½ ÐµÐ³Ð¾
Î¸Î· ÎºÎ±Î½
ev es
Ġáĥ¥ áĥĲáĥłáĥĹ
Ð¡ Ñĵ
Ġre j
Î´ ÎŃ
Ġs endo
Ġre cht
Ġin im
Ġag ent
ĠãĤ ±
Ú© Ø§Ø±ÛĮ
Ġà¦ħà¦¨ à§ĩà¦ķ
à´¯ àµįà´ķàµįà´ķ
ÑĢÐ¸ Ð½
ĠÄĳ áº¡o
Ð½Ñĸ Ñĩ
uh i
Ġsignific ant
Ġbir i
Ġph á»¥
Ġngh á»ĩ
ä¼ ¼
ler de
éģ Ĺ
ÑĮ Ð²
Ð¾Ð³ Ñĥ
ĠÐ¡Ð ¨
Ġ Åĳ
ãģ¨ ãģĵãĤį
Ð°Ð» Ð½Ð°
Ġà¦¬ à§ĩà¦¶
æĿ ¾
ĠÙĦÙĦ Ø£
ĠØ§ÙĦÙħÙĪ Ø¶ÙĪØ¹
ĠÎ´Î· Î¼Î¹Î¿ÏħÏģÎ³
Ø¬ ÙĪ
ĠØ¯ ÛĮÚ©
ĠPost Ã©
ot Äģ
ly n
ĠÎ±Ïħ ÏĦÎ¬
ĠL ook
ĠØ³ Ø·ØŃ
ĠØ¬Ùĩ Ø§ÙĨ
ĠØ¨Ø§Ø¹ Ø«
ĠÐ¾ ÑīÐµ
ÑĶ ÑĤÑĮÑģÑı
ab ili
ãĥ© ãĤ¹
ob by
Y S
Ġprocess o
Ġot ras
Ġnh á»ı
ãĤī ãģĦ
b ec
áĥĶáĥ ¤
Ġj on
ĠW inter
êµŃ ìĿ¸
ãģĹãģ¦ ãģĦãģ¾ãģĻ
Ġmemb antu
å® ħ
Ø§ÙĦ Ø¯
o are
Ġl er
à¹Ģà¸¥ à¹Īà¸Ļà¸
Ð¸ÑĩÐµ ÑģÐºÐ¾Ð¹
ÄĻ Å¼
Ġtr en
ĠS eks
Ġ365 æ£ĭçīĮ
Ġ11 3
×Ļ× £
d oll
Ġ×ĳ ×¦
ĠÃ§ ek
Ġzd rav
ĠPubl ished
à«įàª §
Î±Î¹ Î¿
ĠÐ¹ Ñŀ
ĠE i
an os
áģ ¢
ĠØ³ÛĮ Ø§Ø³ÛĮ
Ġslu Å¾
Ġsek ali
oc s
ĠØ§ÙĦØ° ÙĬÙĨ
Ġg ode
ĠB oy
Ð°Ð½Ð¸ ÐµÐ¼
Ġfil me
ÐµÐ¼ Ð²ÑĢÐ¸
ĠM eh
ĠJak arta
ØªÙħ Ø¹
Ð½ Ð¾Ð¿
ĠÄĮ esk
Ġj oy
Ġch c
Ġc ialis
und an
ĠØ¬Ø§ÙĨ Ø¨
Ġes k
Ġ12 7
if orm
Ġc un
à¤°à¥įà¤ Ł
Ð¾Ð± Ð¸
ag ens
ĠãĢģ ãĢĮ
Ġï »
ĠØ´Ø± Ø§ÛĮØ·
Ġqu ad
ĠB is
ÛĮÙħ ÛĮ
ĠY A
Ġdirect ory
ĠÎ» ÎµÎ¹ÏĦÎ¿ÏħÏģÎ³
Ġmar c
ir di
ĠáĢĸáĢ¼ áĢħáĢº
ĠR ak
ers hip
ĠP ur
Õ¸ÖĤÕ©Õµ Õ¸ÖĤÕ¶
ĠCon n
ĠCatal unya
Ð» ÐµÐ¶
ĠÎľ Î±Ïģ
ĠM w
ĠA da
æ± ī
pp o
Ġver z
Ġre form
Ġde fault
Ġb ÄĻd
ĠÙħ Ø§Ø´
Ġd ice
Ġchang es
ĠÐ¿ÑĢÐµ Ð²
Ġsol d
Ġpre oc
ĠEver y
à¸Ĺ à¸£
Ġà®ħà®¤ à®¿à®ķ
ãģĵãģ¨ ãĤĴ
Ø¯Ø§Ø± Ø©
is ir
Ġz Ã¡k
Ġkh Ã³
Ġáĥ¡áĥĲáĥ ĳ
Ġàª²à«ĭàªķ à«ĭ
ĠÐµ Ð»ÐµÐºÑĤ
Ġdes car
èį ¯
à´£ àµįà´£
à®° à¯ģà®®à¯į
Ġph á»¥c
n ika
Ġà®µà¯ĩà®£à¯įà®Ł à¯ģà®®à¯į
è¼ ī
Ġr áº¹
é «
n itt
ĠØ² ÙĨ
ĠÎ³ ÎµÎ½
Ġne ch
Ġal ue
ant ar
à¸ĸ à¸·à¸Ń
Ġè¶ ħ
ell ige
b w
Ġlang sung
ÑĢ ÑĸÐ±
Ġæ¯ Ķ
ĠN ut
ĠLatv ijas
æĹħ æ¸¸
Ġt ÃŃm
Î¯ ÏīÎ½
Ġim per
æ´ ŀ
à¸¡ à¸²à¸
ĠÐ¿Ð¾ ÑĪ
Ġd nia
ĠBl an
ĠC zy
à§Ł à§ĩ
aca q
ĠTot al
à¤Ĥ à¤ľ
Ö ¶
à®¿à®ķ à¯į
ul y
Ġth anh
Ġplay er
Ġintern acional
ãĥ¼ ãģ®
áĥĲáĥ ©
á»« ng
à¹Īà¸§ à¸¡
ĠÐŁ Ð°ÑĢ
ĠÐĳÑĬÐ»Ð³ Ð°ÑĢÐ¸Ñı
ĠÐ²Ð¾Ð· Ð´
ĠSci ence
Ð³ Ñĥ
Î» Î¹Î¿
ĠAut om
Ġ/ ?
à´¿à´¯ àµģà´ŁàµĨ
Ľ áĢ¬
èģ ·
áĥĲáĥª áĥĺáĥĺáĥ¡
ĠÐĴ ÑĸÐ´
Ġnost ro
ĠO x
ĠL Ã¦s
r ÃŃa
ie ke
ĠåĲ Ħ
Ġå Ŀ
ĠÐºÐ¾Ð½ÑĤ ÑĢÐ¾Ð»
Ġcom ing
ĠR is
åĲ ī
Ð¾Ð»Ð½Ð¸ÑĤ ÐµÐ»ÑĮ
Ġing redi
ĠMer cedes
Ġter ug
ĠF M
ÏĦ Î¶
alm as
Ġ. (
Ġê° Ħ
ĠÙħÙĤ Ø§Ø¨ÙĦ
ĠÅ ģ
Ġby ÅĤ
åķ ª
Ġà¦ķà¦¥ à¦¾
ĠÛ ³Û
ĠÐºÐ¾ ÑĺÐ°
Ġr ug
à¸£à¸ĩà¹ģ à¸£à¸¡
ep as
ĠÚ¯ Ø¦ÛĮ
Ġil i
ĠGe org
æĹ¶ åĢĻ
Ġè į
Ġout side
a q
Ġà°ķ à°²
ĠÙĬ Ùĥ
ç´ °
æıĲ çİ°
á»ķ ng
el ige
Ġtre ball
Ġk Ã¤n
ĠH aw
Ûģ Ùħ
Ð°Ñĩ Ð¸
uh kan
Ġà¦® à¦¹
ĠÑĪ Ðº
ĠÑĦÐ¸Ð½ Ð°Ð½Ñģ
Ġfun kt
ich ten
×¨ ×ĵ
ĠVen ez
àªĤàª ¡
ĠÙĪ Ø´
Ġsex ual
Ġmass as
Ġan ci
Ġf ic
éĽ Ħ
çĻ» éĻĨ
Ġwr ite
ĠU b
ĠMuj er
ĠD ez
Ø§ÙĬ Ø§Øª
Ġdes e
iv Ã¤t
ĠW it
çł´ è§£
Ïģ ÏĨ
j Ã¤r
ap os
ĠáĢ ĩ
Ġ×ĳ ×ŀ
ĠÐ¡ Ð¾ÑĦ
ĠÏĢÏģÎ¿ Î²
à± Į
ÙĪ ÙĬØ±
Ġdi jo
ĠV ent
ĠæĿ İ
Ġà¤Ĩ à¤µ
ĠØ§ÙĨ Ú¯
Ġsmart phone
Ġpro tagon
Ġo sa
11 1
ĠOkt ober
à®¾à®¤ à¯ģ
iz in
ĠØ¬ Ø§
Ġh owever
Ġs zy
Ġmas alah
Ġform ul
ê¸ Ģ
ĠÐ¼Ð°Ð³Ð°Ð· Ð¸Ð½
Ġr ych
Ġl ec
æ¤ ľ
j Ãł
ĠÐ´ÑĢÑĥ Ð³Ð¸
ĠÙħÙĨ Ø§Ø³Ø¨
Ġt x
ĠÏĮ ÏĩÎ¹
Ġth ay
Ġë ĳĲ
ĠØ§ÙĦØ¥ Ø³ÙĦØ§Ùħ
ĠvÃŃ de
ar as
ĠÐ¼ Ð°ÑģÑĤ
ĠÐ±ÑĥÐ» Ð¾
åı İ
á» Ľi
Ø§Ùģ ÙĤ
Ø§Ø´ Ø¯
ÃŃt Ã³
ĠØ· ÙĦØ¨
Ġstr Ã¡n
Ġprac y
Ġanv Ã¤nd
ĠÐ´Ð¾ÐºÑĥÐ¼ ÐµÐ½ÑĤ
×ŀ× Ĳ
Ġåħ Ī
at on
Ġpro per
Ġperson nes
78 9
Ġd Å¯
ĠåĪ °
Ġol masÄ±
Ġnh Ã¬n
Ġk Ã«r
ĠSM S
Ġ Úĺ
ãĥķ ãĤ£
Ġáĥŀáĥĺáĥłáĥ ķ
ĠØ§Ù ı
Ġmat ter
Ġbij a
Ġ... "
Ġp ill
à¥ĩ à¤¦
Ð Ń
Ġíķĺ ëĬĶ
Ġing l
à§įà¦¬ à¦°
ÑĢÐµ Ð¶Ð´
b d
Ġáĥķ áĥĶáĥł
Ġà¸ģ à¹ĩ
ĠKont akt
áĢ±áĢĽ áĢ¸
ØªØ± ÙĨØª
Ġà¸« à¸Ļ
ant ie
Ġst ation
ĠG S
ĠÎ¼ ÏĢ
Ġdi am
ĠR T
ĠPro jekt
×Ĺ ×ĵ
ic ulas
ĠØ§ÙĦØ´ ÙĬ
Ġse it
Ġhapp en
×¢ ×Ļ×Ŀ
ĠáĥĴ áĥĲáĥĺ
ĠÐ´ Ð½Ñı
ĠÐ¡ Ð¾Ð²
áĢ¾ áĢŃ
ÑĨÐ¸ Ð¿
åĽ¾ çīĩ
ĠåŃ Ĳ
Ġw ish
Ġv áºŃt
Ġdispos it
à¦¾à¦° à§ĩ
Ġć Ĉ
Ġká» ³
Ġh ide
àª¾àªµ à«Ģ
àª° àª¾àª¤
Ġà¸Ĺ à¸³
Õ¸Õ ¾
Ġcultur al
ĠL ag
D C
ĠÐ§ ÑĤÐ¾
Ġmill i
Ġdal le
Î¾ ÎµÎ¹ÏĤ
ĠÑįÐº Ð¾Ð½Ð¾Ð¼
ĠÐ¾Ð¿ ÐµÑĢ
Ġsol utions
Ġdru h
ĠFeder al
ib o
ad Ã¡s
Ġentre pr
áº¡ y
me ye
Ġmer k
ãĥ³ãĤ ¸
×¨ ×Ĺ
ÉĻn in
ĠÐŁ ÐµÑĢÐµ
ĠÐ² ÐµÐ»Ð¸
Ġtri p
Ġ[ [
ÉĻc ÉĻk
ĠÑĢ ÑĸÐ·
ĠTe ch
Ġà´ħ à´¨
Ġpre p
Ġco ach
ãĥĸ ãĥ©
Ð³ Ð°ÑĢ
g ere
Ġg leich
Ø³ Ø©
m iss
Ã¶ ff
re cht
Ġnh anh
çļ ®
ast r
Ġà¤µ à¤¿à¤ķ
ìĽ Į
ĵ °
ĠÐŁ Ð¾Ðº
Ġartic les
ĠS ym
à¹Ģà¸ģ à¸¡
ĠIn fo
ac ing
Ġêµ °
ĀĀĀĀĀĀĀĀĀĀĀĀĀĀĀĀĀĀĀĀĀĀĀĀĀĀĀĀĀĀĀĀ ĀĀĀĀĀĀĀĀĀĀĀĀĀĀĀĀĀĀĀĀĀĀĀĀĀĀĀĀĀĀĀĀ
ÄŁ an
à´Ĥ à´Ĺ
à±įà° ³
Øº Ø§Ø²
ĠZ d
yn n
ĠF ly
ĠÐ´Ð¸ ÑĢÐµÐº
Ġs int
ĠK ui
à¸ģ à¸±à¸Ļà¸
iv yo
d ig
IT E
Ġè ©
ĠN ag
áĢ¼ áĢ²
ĠÚ©ÙĨ ÛĮÙħ
Ġsk ol
Ġins ide
ĠMin h
ãģ© ãģĨ
c Ã³w
M O
Ġ×ŀ× ĺ
Ġt Ã©lÃ©
áĢŃáĢ¯ áĢľ
à¥ĭ à¤¨
Ġph Ã¢n
Ġmemp unyai
ĠA udi
à°¾à°° à°Ĥ
Ġquy á»ģn
Ġpubl ished
Ġcom port
ä»ĸ ä»¬
Ġä¸ İ
Ġep is
Ġdire c
ĠT OP
ŀ àµįà´ļ
Ġà¸ ł
ĠH it
Ã¼ g
ĠS ir
áĥĲáĥĿ áĥĳ
Ø±Ø¨ ÙĬØ©
ÎĻÎļ ÎĹ
p ost
Ġsta b
Ġle er
Ġh ap
Ġæ ¡
Ġà¸Ī à¸°
ĠÐ¿ Ð¾Ð»ÑĮÐ·Ð¾Ð²
ĠFr ont
ï¼ ķ
à§Ĥ à¦²
pl ace
AD O
ĠìĥĿ ê°ģ
Ġæ ¨
ĠØ¢Ùħ Ø±ÛĮÚ©Ø§
Ġmov ie
ë ¨
d Ã¶
Ġv og
Ġ Ã¡ltal
Ġalle en
íĿ ¥
æĸ¹ å¼ı
à¹Ħà¸Ķà¹ī à¸£à¸±à¸ļ
ĠØ§Ø¨ ÙĨ
Ġke er
åī §
Ġciv il
ĠB ug
ur uh
Ġèĭ ±
Ġh ÉĻ
ĠT uy
ĠH ad
Ġjour nal
ëĵ¤ ìĿĺ
ÑĢÐ¸ Ð¹
Ã¼ tt
Ġm áº¡nh
Ġh ore
Ä±r Ä±m
ven ue
ĠÚ© Ø§ÙħÙĦ
Ġger ne
Ġ Ã¡s
te xt
Ø±ÙĬ Ùħ
Ġuyg ul
Ġrealiz ar
Ġj alan
Ġe ar
Ä± cÄ±
ĠÎ² ÏģÎ¯
Ġ356 bet
Ġà¤° à¤ĸ
Ġn Æ¡i
Î½ Îµ
Ġç ¤
Ġ×ĳ ×ĺ
Ġw ÅĤa
ĠV oc
ana f
Ġch amp
et r
ĠÐĲÐ»ÐµÐºÑģ Ð°Ð½Ð´
Ġmeng h
ç½ĳ é¡µ
à¤°à¥įà¤ ľ
r ito
ot ing
et it
ĠØ§Ø± Ø§Ø¦Ùĩ
à´£ àµįâĢį
ĠÃ§Ä± x
ĠY eni
Ġåį ļ
Ġt ÅĻ
Ð»Ð¸ Ñı
è° ·
Ġf ed
ĠG L
v ien
Ġà¤ľ à¤¾à¤ı
ĠÎł Î¡
Ġintern ation
f y
×© ×Ļ
Ġà¦¬ à¦¾
Ġtá»¥ c
ece ÄŁ
Ġtrans l
Ġsu iv
Ġcar te
Ø§Ø§ Ø§Ø§
Ð°ÑĤÐµÐ» Ñı
Ġx o
Ġalgun s
ĠØ¨ Ø§Ø¨
ĠÄ° s
Ġt inh
Ġmod elo
ÃŃ te
id agi
Ġà¤ħà¤ª à¤¨à¥Ģ
Ġ×Ľ ×ĵ×Ļ
ĠÐ´Ð² Ðµ
ĠU P
r ero
Ġà®¤ à®©
Ġmas yarakat
Ġbe aucoup
Ðŀ ÐĶ
Ġsed an
Ġp enting
ĠM ath
ĠJah ren
èª Ń
ĠÏĢÎµÏģÎ¹ÏĥÏĥÏĮÏĦÎµ ÏģÎ±
Ġch ia
ĠCal ifornia
çµ Ĥ
Î» ÏĮÎ³
Ġval am
Ġu0 4
Ġmet er
Å¼ s
ĠÑĤ Ð°Ð½
Ġcomp te
áĢĲ áĢĦáĢ¹áĢ¸
Ġnu eva
Ġhv il
ekt iv
Ġtr im
Ġktor Ã½
Ġb ater
ìĺ ¨
åħ¨ åĽ½
ens ione
ĠvÃ¤l ja
Ġk s
Ġà¹Ģà¸ĩ à¸´à¸Ļà¸
çĽ¸ åħ³
ãĤ ©
Îº Î¿Ïħ
Ġpot ential
Ġlik ely
à¤ Ĩ
UL T
Ġfaz la
ĠU omo
_ 1
= >
ĠØ¯ ÙĩØ¯
Ø¯ Ø¯
Ø§Øµ Ø±
Å¾ en
ar p
ĠÐĲ ÐºÐ¾
Ġi OS
à®¾à®± à¯įà®±
qu Ã¨
Ġn enÃŃ
è ĵ
Ð°Ð´ Ñĭ
Ġo sp
Ñĩ Ð¸Ð²
Ð»Ð¸ Ð¼
ĠØª ÙĥÙĪÙĨ
è© ¦
Ùħ Ø¨Ø±
b ach
Ġvec es
Ġel k
ä¸Ń çļĦ
ĠT ype
m ÉĻt
Ġà¤ķà¤¿à¤¸ à¥Ģ
ĠØ§Ø¬ØªÙħØ§Ø¹ ÛĮ
Ġra cc
à®µ à¯ģ
à¤ļà¥įà¤ Ľ
Ð³ Ð¾ÑĤ
Ã¢n cia
ra va
o or
f ors
ĠTr ad
ĠSu ites
ĠL ow
à«įàª ļ
Ä±ld Ä±
ĠØ§ÙĦØŃ ÙĬ
ĠWat ch
y el
Ġby ÅĤo
áĢ±áĢ Ĵ
Ġd b
Ġal a
ilt on
Ġà®ī à®£
ĠÐ½ÐµÐ¾Ð±ÑħÐ¾Ð´Ð¸Ð¼ Ð¾
s led
ak en
ĠáĢ±áĢ ŀ
ĠØª Ø±Ùĥ
ĠÐ¸Ð½ ÑĤÐµÑĢ
Ġc Ã¢nd
ĠAng eb
eb ilir
Ġa unque
F R
ĠÙĪ ÙĥØ§ÙĨ
ĠÑī Ð¾Ð±
Ġyap t
ãĤ¤ ãĤ¯
à¦¾à¦ «
b ara
Ġkit chen
Ġè¡ Į
ĠÐ½ÐµÑģÐº Ð¾Ð»ÑĮÐºÐ¾
Ġm ara
Ġbl an
Ġactivit ies
ÏĦÎ® ÏĥÎµÎ¹ÏĤ
ĠÙħØ± ØŃ
Ġdib dib
l ou
ĠÑģÐµ ÑĢÐµÐ´
Ġm Ã¤Ã¤r
ãĥ¼ãĥ ĵ
ÐµÑĢÐ¸ ÐºÐ°Ð½
ĠÎ£ Î¤
ĠB ell
Ġ Ć
ĠÑį ÑĦÑĦ
ĠÑģ Ð°Ð»
Ġva ir
é Ĩ
ç® ±
Ġà´¤ à´¨àµįà´¨
ĠØ±Ø¦ÛĮ Ø³
ĠØ£ Ø´
Ġpu is
ÑĢÐµÐ¼ ÐµÐ½
Ðķ Ð¢
Ġqu indi
ÑĭÐ² Ð°ÑĤÑĮ
j us
ĠØ¯ ÙĬ
Ġ!!! !
ĠØŃ Ø¬
ĠK Ã¸
ë³ µ
Ñħ Ñĥ
Ã¼ ber
ĠÕ Ģ
ĠMar y
Ġ2 C
Ø± Ø²
Ġç§ Ĵ
ĠÙ¾ Úĳ
ĠiÃ§ inde
Ġout ras
Ġexp and
Ġdr ess
Ġb á»Łi
ÑĢÑĥ ÑĪ
eg ur
Ġ×© ×§
ĠÑĢ Ð¾ÑģÑģ
Ġs Ä±r
Ġoff ic
ĠkÃ¶z Ã¶tt
Ġd itt
ĠìķĦ ëĭĪ
Ġle ave
áĥľ áĥĿáĥĳ
mal Ä±
ĠmÃ¥ nga
Ð°Ð¹ ÑĤ
ĠK il
Þ ª
Ġho a
ĠT in
ĠB au
åº ı
ãģ§ãģĻ ãģŃ
Ġä» £
let es
h me
Ġn este
Ġdig unakan
íĻ ©
Ġent rada
Ġpla ats
Ġkom en
ĠD ek
ĠØªØº ÛĮ
Ġp ek
çĽ Ľ
Ġà®Ĩ à®ķ
Ġà¤¸ à¤¹
Ġpar ten
ê³ ³
Ø¬ ÙĨ
Ġag å¹³åı°
ĠH ill
è ¬
Â ¢
ĠÑĩ ÐµÑģÑĤ
ĠÐ½Ð°Ñģ ÐµÐ»
Ġnum er
ĠfÃ¸l ger
ĠPr z
ÑĤÐµ ÑĢÐ¸ÑģÑĤ
ĠwiÄĻ cej
à°Ĥà° ª
ĠZ apat
ĠB un
Ġ8 88
Ġg ard
Ġc asi
Ñĩ ÐµÑĤ
g Ã¥r
Ġr asa
Ġ ā
Ġ Õ¡Õ
áĢĶáĢ¹áĢ Ģ
ĠÐ¸ ÑĤ
Ø³ Ø§ÙĨÛĮ
ĠÐ¿ÑĢÐ¾Ð´ Ð¾Ð»Ð¶
Ġcompr om
åľ Ĵ
Î¸ Î¿
ĠÙħØ¹ ÙĦ
ĠÐ½Ðµ Ñģ
ĠC B
wa Äĩ
c d
æŁ Ĳ
Ġlok al
ĠH ong
ĠÐ² Ð»Ð°Ð´
àµģà´® àµįà´ª
ÙĤ Ø§Ø¡
t n
ĠÐ² ÑĬÑĢ
Ġell os
ĠZ ap
ag og
ĠJ on
ĠA sp
ĠM all
ĠÐ±ÑĥÐ´ ÑĥÑĤ
ĠáĢ±áĢ Ĵ
ĠF ren
à¸ Ĵ
à´¨àµįà´ ±
»áĢģ áĢĦáĢ¹áĢ¸
ĠÎ³Î¹Î± ÏĦÎ¯
ĠSp an
Ġdre jt
ĠSe arch
éĢļ è¿ĩ
à®¾à®¯ à¯į
ĠâĢ »
Ġpract ice
à¦¾à¦° à¦£
ĠØ¬ Ø§Øª
ë¥ ĺ
áĢĦáĢ· áĢ¹áĢ
Ú© Ø§
ĠÐ¡Ð¨ ÐĲ
Ġà¤¸ à¥ģ
ĠÐ² Ð¾Ñģ
Ġsk ills
à¹Ģà¸¡ à¸·à¹Īà¸Ń
Ġim pr
ĠN ok
F E
ĠIh nen
Ñĩ Ð°ÑģÑĤ
v alt
r and
áĢ¸áĢ±áĢ ĲáĢ¼
rÃ¥d et
is as
ä» ¤
àªķ à«ĭ
Ð¾Ð± ÑĢÐ°Ð¶
Ġcal idad
Å¾ u
o id
Ġass ess
Å ģ
ĠÑģÐ´ÐµÐ» Ð°ÑĤÑĮ
Ġag ora
Ġq ur
c ute
and ra
ĠØ¨Ùĩ ØªØ±ÛĮÙĨ
ĠÐ´Ðµ ÑıÑĤÐµÐ»ÑĮ
Ġg áº§n
ele a
ĠíĶ ¼
ĠâĢĺ âĢĺ
Ġh aj
ze ch
Ġrece ive
Ġp ec
Ġdzie ci
ĠáĢĽ áĢ½áĢŃ
Ġrom an
Ġmed lem
Ġà« ¨
Ġ15 5
ÙĤÙĬ ÙĤØ©
Ð°ÑĤ ÐµÐ»Ð¸
Ñĸ Ð»Ñı
ĠTer m
od es
ĠØ§ÙĦØª ÙĨ
ĠÑĦ ÐµÐ²
Ġprz ep
Ġjen is
W h
ri al
ĠC ultura
ÏģÎ¿ ÏĨÎ¿
Ġ19 70
Ġà¦¸ à¦¾à¦®
Ġtr á»£
Ġthro ughout
à§ģ à¦¦à§įà¦§
Ã¢ nt
Ġh áº¿t
ä¸ ĥ
ĠÙħØ¹ Ø±Ùģ
Ġpert ama
Ġ] ;
ici i
Ġapp ar
ĠB Ã¬nh
ÏĢÎ¿Î¹ Î®
Ġà¤¬ à¤¾à¤°
Ġis te
ĠÐ¼ ÐµÐ±
ĠÃ¶ r
ĠÑģÐ² ÑĸÑĤ
Ġset elah
Ġlar g
ĠT anz
ĠC ad
áĥĿáĥłáĥ ¢
Ġhab ÃŃa
à® ŀà¯įà®ļ
ÈĽ e
Ġad ik
ick ets
Ġs as
éĽ ¨
ual i
Ġinf rast
áĢ¾ áĢ¬
ie u
Ġà®¨ à®¾à®©à¯į
ĠpÅĻ es
à¸´ à¸¥
j ur
IV E
Ġk ob
Ġgjenn om
Õ¸Õ ²
at ge
ĠÐļÑĥÐ¿ Ð¸ÑĤÑĮ
Ġprofess ionn
Ġp ula
Ġin ne
Ġart ik
ãģŁ ãģ¡
ĠçĶ ±
é ¼
çĻ Ĥ
m Ã«
T h
EM A
Ġse zon
Ġf is
s st
ĠÑĢÐµ Ð¶Ð¸Ð¼
ĠÎ£ Ïį
Ġvol ume
Ġdis cipl
à¸ļ à¸¸
Ø§Ø¨ Ùĩ
H S
Ġà¸Ħ à¸§à¸²à¸¡
ĠÐº Ð°Ð·Ð¸Ð½Ð¾
Ġt rib
Ġs Ã©rie
Ġk ald
© áĥĶáĥķ
Ġsh opping
Ġmac am
à¸± à¸ŀ
ig lia
am me
Ġå¥ ¹
Ġm ab
ĠgÃ¶ ra
Ġels Åĳ
Ġãĥ ģ
Ġsel ama
à¥ĩ à¤®
C R
ĠãĤ Ħ
Ġd Ã©m
Ġatt ention
Ġà®µà®¾à® ´
Ġpie ce
Ð¿Ð¾Ð» Ð·
um n
ãĤ ²
ĠØªÙĪ Ø³
Îµ Î¾
ÅĽ l
ĠÐ´Ð¾ÑģÑĤ Ð°ÑĤ
Ġvy u
ÑĢÐ°Ð´ Ð¸
olog ies
ĠØ° Ø§Øª
ĠØ¨ ÚĨ
l oc
em ek
Ġz ag
àª¤ àª¿
ĠØ§ÙĦ Ø§Ø®
ĠÄĳ Ã¬nh
Ġtal k
×Ļ×¢ ×Ķ
j um
à¸Ħ à¸³
Ġàª¨ àª¾
Ġoff icial
Ġn ÉĻ
ĠáĥĴ áĥĲáĥķ
ĠO st
à¯ģà®ķà¯įà®ķ à¯ģà®®à¯į
à®¿à®¯ à¯ģà®®à¯į
Ġà°ļà±ĩà° ¯
Ġum um
Ġer ed
ĠEn s
Ġà¦ļ à¦²
Õ¥Õ ¿
ĠØ¹ÙĦÙĬ ÙĩØ§
Ġbi áº¿n
áĥĿáĥ ĸ
Ã ¾
ĠáĥĽ áĥĵ
ÑĢÐ¸ ÑĤÐµ
ìķ ł
é ¹
Ġà¤ķ à¥įà¤·
Ġby lo
Ġb anda
çµ ¦
æħ ĭ
ÑıÑĤ ÑģÑı
ĠÐ¿ÑĢÐ¸ Ð¹
Ġ11 7
à±įà° Ĺ
ĠÐ¿ÑĢÐ¾Ð´ Ð°Ð¶
ĠC ost
nis se
Ġæ³ ķ
ĠHa us
Ġc ub
Ġb Ãłn
ĠMar ie
ĠF arm
èĥ ľ
Ġra j
ĠM edi
äº ķ
Ð°ÑĤ ÐµÑĢÐ¸
ous el
od er
Ġexper iment
ëĭ ¬
Ġáĥłáĥ £áĥ¡
Ġag re
el de
ah oo
ĠÐ¸Ð· Ð²
ĠÃ¼ rÃ¼n
Ġgr os
Ġcur so
Ġmur ah
Ø±ÙĬ ÙĤØ©
os it
ĠçĦ ¡
Ġà¹Ģà¸¡ à¸·à¹Īà¸Ń
Ġr Äĥ
Ä± da
de v
Ġpro cent
Ġprime ira
Ġn aman
ãĤ· ãĥ£
á ĭ
Ø§Ø· Ø±
r us
gr und
Ġà¤ħ à¤®
ĠG D
ÑģÐº Ñĸ
Ġus ually
Ġt ug
à¹Ħ à¸ĭ
ue il
Ġus u
Ġj áº¹
Ñĳ Ð¼
ĠÐ¿ Ð¸ÑĪ
Ġwid get
Ġà¤Ĺ à¥įà¤°
ÎŁÎ ľ
ia o
ĠÐ¿ÑĢÐ¸ Ð¼ÐµÑĢ
Ġrec ursos
Ġcurrent ly
ĠInform ation
Ġkom unik
ĠJ ose
ģ áĢ«
Ġtari h
çŁ¥ éģĵ
à±ģà°² à±ĭ
ĠÐ» ÑĸÐº
Ġsed ang
Ġh ui
Ø§ÙĦ Ùģ
ÑĢÐ¸ Ð»
ic les
Ġåľ Ł
ĠAut hor
ãģª ãģĭãģ£ãģŁ
ÙĪ Ø«
Ø´ÙĨ Ø¨Ùĩ
T ime
à¹Ģà¸ŀ à¸´à¹Īà¸¡
n ung
ĠÐ¸Ð· Ð¼ÐµÐ½
Ġk si
Ïģ Î¿ÏħÏĤ
V iew
ĠØ¬ÙĨ ÙĪØ¨
Ø±ÛĮ Ø¨
ÏĢ ÏĦ
ĠSing ap
ĠO nt
áŀ¶ áŀ
Ġsp Ã¸r
ĠK R
ĠE ti
Ð°ÑĨ ÑĭÑı
Ġáĥŀ áĥĿáĥļ
Ġrom ant
Ġde ep
enn es
è¦ ı
Ĺ à¸²à¸ĩ
Ġà´ħ à´Ł
Ġfor me
Ġest ud
ĠT et
áĥ¡ áĥ¢
Z H
ĠÑģÐ¿ Ð¾ÑĢÑĤ
å² ģ
ĠÐł Ð¾Ñģ
Ġv re
ĠO ch
ĠàªŃàª¾àª° àª¤
ĠØŃØ¶ Ø±Øª
Ġfun c
ĠH um
Ð¾Ð² ÑĭÐµ
ler a
k ovÃ¡
ĠÂ ¯
Q uer
Ġl ate
Ġill ust
ĠDire ctor
ĠíĨ ł
Ġà¤¹à¥ĭ à¤¨à¥ĩ
áĢ±áĢĲáĢ¬ áĢ¹áĢ
r r
ĠÐºÐ¾Ð½ ÑĨ
ĠJah re
åĩº ä¼ļ
à´ ¥
ĠØŃ Ø±Ùģ
ĠÐ¿Ð¾ÑĢ ÑıÐ´
Ġl áºŃp
Ġàª¦ àª¿àªµ
ĠÚ© Ø§ÙĩØ´
ĠÐ²Ñģ ÐµÐ³Ð´Ð°
Ø§Ùħ Ø§Øª
Ġar qu
Ġãĥ Ŀ
ĠÕ ¤
Ġpol icy
à«Ģàª ²
Ġf ashion
Ġan nÃ©e
áĢ¯áĢ¶ áĢ¸
Ġz ou
ell ement
Ġsum mer
Ġst yl
Ġh ah
Ġdon na
à§įà¦° à¦®
ud as
Ġí Ĺ
Ġba ie
ĠÑģÐ°Ð¹ ÑĤÐµ
66 6
Ġàª° à«Ģàª¤
Ġp iel
ĠT ay
Ð´ Ð°Ð³Ð¸
ĠÙĪÙĤ Ø§ÙĦ
ĠÐ» ÐµÑģ
ĠÎĳ ÎĿ
å³ °
ĠÑģÐ¾Ð´ ÐµÑĢÐ¶
Ġsci ent
d et
anta ge
Ġ×¦ ×¨
Ð°Ðº ÑĤ
ĠØµØ§ØŃ Ø¨
ĠK ons
ÑĢÐ°Ð· Ñĥ
x ic
IC O
ĠÃ¶ lk
Ġon un
ar si
el ingen
Ġo so
Ġalt res
ĠV E
ĠD J
à±Ģ à°
Ġáĥ¥ áĥķáĥĶáĥ§
à´ķàµįà´ ¤
c ing
ĠS ad
ri x
re ib
ĠÎ´ Î¿
ĠIm m
l uss
ĠÎĳ ÏģÏĩ
Ġse ul
ĠEsc ort
Ġà¦¯ à¦¾à§Ł
ãĥ³ãĥ Ģ
OR D
ĠL ake
áĢŃ áĢĶáĢº
Ġìĺ ¬
ĠÑĤÐµÐº ÑģÑĤ
aciÃ³n s
ĠÃĸ n
Ġpr etty
à¦ ¯
Ð½ ÑĥÐ»
Ġì§ ģ
ĠÚ©ÛĮÙģ ÛĮØª
æĹ© é¤Ĳ
Ġdi á»ĩn
à«Ģ àª°
Ġint el
Ø§ÙĦ Ùī
Ġàª¤àª® à«ĩ
ĠÑģ ÑĢÐ¾Ðº
ĠÐ½Ð°Ð· Ð²
ĠP K
in ha
ĠÑĤ ÑĢÐ°Ð²
Ð» Ð¾ÑĤ
ĠÐµÐº ÑģÐ¿
Ġp Ã¤r
ĠM ent
ĠCom un
ĠÑĢÐµ Ñĩ
ÙĨ ÙĪÙĨ
ĠÙħØ¯ÛĮØ±ÛĮ Øª
Ġfr esh
Ġ22 5
Ġg or
Ġatt ivitÃł
Ġf ib
ne ws
eb i
Ġd aca
t v
ie kt
Î¹ ÏİÎ½
ĠÑĩÐ¸ ÒĽ
ä¸į åı¯
Ġu omo
ĠLe e
Ġà¸§ à¸±à¸Ļ
ĠdÃ¼ÅŁ Ã¼n
Ġcon duct
åĪ° äºĨ
p ont
è Ĩ
to h
ir ma
ind eki
Ġs Ã¡ch
Ġresult ados
ve j
or et
Ġà¤¸à¤ķ à¤¤à¥ĩ
à´°àµįâĢį à´ķàµįà´ķ
Ùİ ÙĪ
ĠÙĩØ¯ Ùģ
ĠMe hr
ÑıÐ± ÑĢÑı
ĠÏĢ Î»Î±
Ġm Ã³n
Ġol tre
ç§ Ģ
áĥĿáĥļ áĥĿ
à¦¬ à¦¾à¦¦
p il
Ġzo als
Ġh iss
Ġs ina
Ġfriend ly
ç¤ ¼
Ġd á»ħ
ĠÐµ ÑĤ
ro te
f eld
Ġis ol
ot es
on ce
Ġfl ash
am as
à¦¿à¦ Ń
ĠáĥĲáĥĵáĥĲáĥĽ áĥĺáĥĲáĥľ
Ġmaterial s
ĠC ustom
E Y
Ġåĩ¯ æĹ¶
Ġp asi
ĠL ad
èĮ ¶
ob ile
Ĳ áĢļáĢ¹
Ġpod le
Ġfil ter
ĠL ap
ĠG ast
· °
ĠÑĦ Ð¸Ð·
ĠÎķ Î¯Î½Î±Î¹
Ġhad de
ĠØª ÙĪÙħØ§ÙĨ
ĠØ§ÙĦØ³Ø¹ÙĪØ¯ ÙĬØ©
ĠA th
ãģĺ ãĤĥ
pr ia
r itt
ĠÐ² ÑĢ
ĠA ud
ç® Ģ
Ġver de
Ġtrad ition
Ġbu ilt
Ñĸ ÑĨ
ĠAn ne
Øº Ø±
Ġåħ į
ĠÐ¿ÑĢ ÑıÐ¼
çļĦ æĺ¯
à¦ ı
ant il
ëį Ķ
à±įà°° à±Ģ
ĠSver ige
ac ement
ĠÅ¾iv ot
Ġsp a
ĠB ran
ÅĻ enÃŃ
uj u
Ġpic c
ĠÑĥÐ² ÐµÐ»Ð¸Ñĩ
ĠK art
ĠØ§Ùģ Øª
Ġtak es
Quer y
ĠØ¯ ÛĮÙĨ
Ġj uh
Ñĸ ÑĨÑĮ
Äĵ tu
ĠãĢĤ ï¼Į
ĠÙĩÛĮ ÚĨ
Ġdisc over
ÙĦ Ø¹
Ðĺ Ðļ
ĠÑĨÐµÐ½ÑĤ ÑĢ
Ġveg et
Ġin om
Ġgu ard
\/ \/
Ġmass age
Ġm iesz
Ùĳ ÙĲ
ĠáĥĹ áĥĳ
Ġvi áº¿t
Ġopport unity
åı ³
zer w
ia i
Ġ×ŀ×Ĺ×Ļ×¨ ×ķ×Ł
ur ilor
ts chaft
Ġoff re
Ġdep end
Ġchi áº¿n
ativ os
ĠÙģ ØµÙĦ
Ġall t
Ġ14 5
è¿ °
à§ĩà¦ ª
ron om
Ġd Ã¡
ĠÐº ÑĥÑħ
Ġme e
Ġr ather
Ġim press
ĠC ase
âĢ İ
à«ģàª ¦
ÑĥÐ± Ð»Ñĸ
je j
ĠÐ¼Ñĥ Ð·Ñĭ
Ġl uz
Ġgi orno
ÄŁ un
ĠÙħØ´ Ø®Øµ
ĠÑĢÐµ Ñģ
ĠÐ¸ÑģÐ¿ Ð¾Ð»ÑĮÐ·
Ġtri á»ĩu
Ð¾Ðº Ñģ
AM A
ĠáĢ»áĢķ áĢĬáĢ¹áĢ
ĠÐ±ÐµÐ» Ð°ÑĢ
Ġz bek
Ð¸Ð»ÑĮ Ð½Ð¾
Ġàª¥ àªĪ
áĥĶáĥĳ áĥĸáĥĶ
unci os
Ġch od
à±ĩ à°°
ÑĢÑĭ Ð²
imit ed
ĠØ± ÙĬ
Ġhist ori
à¸Ĭ à¹Īà¸§à¸¢
×ķ×ľ ×Ļ×Ŀ
ÑĢÐ¸ Ð±
ĠØªØºÛĮ ÛĮØ±
ĠØªØ¬ Ø±Ø¨
Ġperm ite
Ġj az
Ġgel en
çĶŁ äº§
áĥ¡ áĥĲáĥ®
ĠÚ¯Ø° Ø´ØªÙĩ
Ġis ÉĻ
Ġcan not
ÙĪÛĮ Ø³
ĠÐ½Ð° ÑĥÑĩ
Ġw indows
ĠØ¹ ÙĤ
à¤°à¥įà¤ ¥
ib at
esti Ã³n
ĠÐ¼ Ð°ÑĬ
Ġpar ece
ĠDo or
Ġ5 50
Ì ĥ
Ġà®ķ à®Łà¯įà®Ł
Ġd acÄĥ
à¹Ħ à¸Ł
Ġèµ Į
Ġh ed
áĢĳ áĢ²
à±ģà° ®
m ot
á Ĭ
Ġàªµàª¿àª ¶
ĠÙ¾ÛĮØ¯ Ø§
à¸ŀà¸Ļ à¸±à¸Ļà¸
orm Ã¡ny
l ingen
ipp ing
I OS
ĠØ¨Ø±Ø® ÛĮ
ĠÐ´ ÑĸÑı
Ġac onte
Ñľ Ð¸
alit Ãł
uss ures
ler ine
Ġíĸ ī
Ġà¤¸ à¥įà¤Ł
ĠT ol
ĠT imes
ĠÐ¾ Ð²Ð°
Ġqu ella
Ġconstru ction
à¯ģà®³à¯įà®³ à®¤à¯ģ
Ñİ ÑĤÑĮ
ik es
ĠU ng
ĠH em
à´¤ àµįà´°
Õ¡Õ ®
l om
k ah
ĠR est
ĠF ors
Ġgi orni
Ġaccord ing
à¥ĩ à¤ķ
n oc
ab en
Ġl v
Ġd ine
Ġarg ument
ĠP f
Ġhi Ã§
Ġesc ol
or re
ĠÙħØ³Øª ÙĤ
ĠÐł Ñĺ
ĠUn ion
áº¿ c
U U
ĠØ¶ ÙħÙĨ
Ġpol i
Ð°ÑĤÐµÐ» ÐµÐ¹
Ġqu ery
Ð°Ð¼ ÐµÑĤ
f Ã©r
ĠDevel op
Ã¡v Ã¡
ĠÐ§ ÐµÑĢ
Ġsp ol
Ġak hir
Ġkon uÅŁ
Ġacc omp
Ġn ama
Ġi o
ÑĥÐ¶ Ð´
ut styr
il u
ĠÐ½Ð°Ð¿ Ð¸Ñģ
Ġto ols
à¤Ł à¥Ģ
no ut
el sk
M D
Ġë ł
ĠÖ ²
ÎµÎ¯ ÏĦÎµ
te i
Ġà°ķ à°¾à°°
ĠÙĪÙĩ ÙĬ
ĠK ep
d le
Äħ t
ĠÐ¢ ÑĥÑĢ
ÙĴ Øª
Ġn al
ĠCom pl
ĠÐ´ÑĢÑĥÐ³ Ð¸Ñħ
Ġn á»¯a
Ġkom pet
ane j
Ġhas znÃ¡l
ĠTid ak
à´¤àµįà´¤ à´¿à´¯
ĳ áĢ²
Ġposit ive
ĠJ ur
ĠÑĤ ÐµÐ±
ĠÐ¸Ð³ ÑĢÐ°
à®¿à®² à¯ģà®®à¯į
L AR
ĠØ£ Ø®Ø±Ùī
Ġud en
ÐłÂµ Ðł
ta h
ĠçĦ ¶
ĠÐ· Ð³
Ġk iv
Ġcult ure
Ġche ap
Ġag è§Ĩè®¯
ÃŃst ica
Ġà§¦ à§
â Ī
áĥ® áĥĽ
Ã¡t ico
ĠÙĪØ§ÙĦ Ø¥
ĠMat rimoniale
çĻ» åħ¥
ä¸ ¥
ÑĢ Ð¾Ñĩ
h ely
Ġà¦¹ à¦¾à¦¸
Ġà¤ª à¤¾à¤°
Ïĩ Ïī
ĠØ§ÙĨ Ø³Ø§ÙĨ
ĠÐ¸Ð· Ð¼
ãģĵãģ¨ ãģ¯
ĠÙĪØ³ ÙĦÙħ
Ġï¼Į âĢľ
ĠÐ¾ÑĤ ÑĢÐ¸Ð¼
Ġãĥ ī
Ġvi ÅĨ
Ġhig her
ĠU V
ĠS I
ÎŁÎ ¡
Ġà¤¬à¤¹ à¥ģà¤¤
ĠÑģÑĩ Ð¸ÑĤ
ë¡ ¯
åĽ °
ãģªãģĮ ãĤī
ov it
Ġw atu
in ek
ĠÐ¼Ñĥ Ð·
ĠÎºÎ¬Î½ ÎµÎ¹
Ġproject s
iz er
at ch
ĠÛģ ÙĪÚº
Ġw orth
à¸ªà¸Ķ à¸ĩ
ÑĮ Ðµ
Ġy ay
app y
Ġwe eks
Ġwant ed
Ġ, âĢľ
ult ure
Ġlook s
ud er
at ory
ë³ Ħ
çļĦ ãģ«
f est
ĠÑģÐµ Ð³Ð¾Ð´
à¥įà¤ ļ
ëĦ ¤
Ġà°¸ à°¿à°¨
our d
Ġà¤® à¥ģ
Ġ Ćć
IN D
ĠÙģ Ùĩ
Ġch á»©ng
ĠV end
ĠDet ail
à¸± à¸¥
à«ĩàª ĸ
ÎŁÎ ļ
ys z
Ġç ¬
ĠCh ic
Ø· Ø§Ø±
inter net
ĠØ³ Ø¹
ĠÕ º
åĿ ļ
Ġáĥ¡ áĥ¬
ĠÙħØµ Ø±Ùģ
ĠÙģØ§Ø± Ø³ÛĮ
ĠÑģÐµÐ³Ð¾Ð´ Ð½Ñı
Ġz av
áĢĬ áĢ¬
Äį nÄĽ
ĠE ins
Ġ3 30
ĠÛ ±
ĠÎŃ Î½
Ġ28 0
ĠÐĴ Ð¸
ÙĪØ± Ø³
ut es
is is
ĠÛ ¶
à¹Ģà¸« à¸¥
ĠÐ¢ Ð¾Ð²Ð°
Ġarr ang
àª¾àª¨ à«ĭ
f og
Ġàªª àªĽà«Ģ
ëĵ¤ ìĿĢ
or ation
Ġun i
Ġme in
Ġmad uras
å¥ ¥
ä½ ³
ãĤĬ ãģ®
ĠáĢ¥ áĢ®áĢ¸áĢ
Ġtik ai
ĠAd am
w ier
c n
AC I
ĠðŁ Ĵ
ĠáĥĲáĥł áĥĲ
Ġz gj
Ġg Ã¢y
ĠÑģÑĤ ÑĢÐ°Ñħ
Ġpers pect
ÏĨ Î¬Î»
ĠÐ± ÐµÑĢ
Ġess ay
áĥª áĥĲ
à«ĩàª ľ
Ïĥ Îº
Ġdi alog
ĠT ari
íĽĦ ê¸°
Ã© ro
ĠåĲ Ī
ĠØª ÙĦÙĥ
ĠÃ¶nem li
ĠN áº¿u
ĠÃ®nt r
à¯įà® ¨
Ã¼r Ã¼
us er
Ġè £
ĠÙĤ Ø¶
ĠBlu etooth
el ek
Ġup on
Ġog gi
ĠCol lege
Ú©ÙĨ ÙĨØ¯
oc ar
ĠØ§ÙĦ Ø±ÙĪ
Ġune i
ĠIm age
Ð»Ð¸ ÑĪ
Ġà¦ķà¦° à¦¾à¦°
Ġst ort
Ġgrow th
Ġd itu
áĥļ áĥĺ
ly wood
Ġtran qu
ĠS ong
à±ĭ à°ľ
àªĤàª ļ
ÏĦÎ¿ ÏįÎ½
ador as
çļĦ åĲĹ
à¸Ħ à¸§
à¤¿à¤ §
ÏģÎ· ÏĤ
ier ra
Ġà¦Ń à¦¾à¦°
ĠR C
ĠR AM
ER E
Ġì¢ ħ
à¹Ģà¸£ à¹ĩ
à¸ļ à¸Ļ
ÛĮØ¯ ÛĮ
Ð½Ð¸ ÑıÑĤ
è¯ ¾
ĠÎºÎ¿ Î¹Î½ÏīÎ½
ĠVer g
Ġpl ata
Ġin it
èĤ ĸ
Ġé© ¬
ĠØ§ÙĦØŃ ÙĦ
ĠÏĥ Î®Î¼ÎµÏģÎ±
ĠV ic
Ġå½©ç¥ŀäºīéľ¸ 8
Ġol ika
y in
ĠÙĬ Ø´
ĠØ§ÙĦØª ÙĪ
Ø§Ø¦ ÙĤ
ÃŃst icas
ĠÐ¾Ð¿ Ð¸Ñģ
Ġl li
×Ļ×ŀ ×Ķ
w art
Ġì¶ ©
Ġtr ying
Ġnh áºŃp
ĠA ku
ĠÑĦ Ð¸Ð»
Ġdia bet
Ġê± ´
Ø§Ø¯ Ø«
em ia
Øµ ÙĪØ±
Ġà¸£ à¸µ
ĠÑĢÐ°Ð· Ð±
um iem
ĠáĢ±áĢ ķ
ÃŃ cia
áĥľ áĥĶáĥĳáĥĲ
ÐµÐ´ Ð¸
ler inin
ĠÐ¿ Ð°Ð¿
Ġe gen
Ġdies es
×Ļ×ķ×ª ×¨
Õ ¤
s an
ag ian
èī¯ ãģĦ
ä¸ĵ ä¸ļ
ĠØ§Ø´ Ø§Ø±Ùĩ
Ġsm Ã¥
çİ° åľº
Ġï¼ İ
Ġh og
Ġáĥ¬ áĥĺáĥľ
Ġfr ente
ĠOs lo
à¸²à¸ªà¸´ à¹Ĥà¸Ļ
ĠÏĩ ÏİÏģÎ±
Ġt iek
Ġsp Äĵ
Ġment ion
Ġkval it
ĠPh otos
ãĥ¥ ãĥ¼
ãĥ¡ ãĥ³ãĥĪ
on ces
ĠÙħ Ø§ÙĬ
ĠÐºÐ¾ÑĤÐ¾ÑĢ Ð°Ñı
ĠPok er
Ġr an
Ġop s
ĠLu is
ĠB este
Û ¸
er va
ce an
Ġà¤µà¤¾à¤² à¥ĩ
Ð¾Ð´ Ð°Ð²
Ġë¨ ¹
ĠÐ¤ ÐµÐ´ÐµÑĢ
Ġed ilm
on er
Ġcre am
Ø· ÙĪØ±
_ S
ĠÙ¾ Ø²Ø´
à¸ª à¸µ
à¥Ģ à¤°
ÙĪÙĦ ÛĮ
ar l
Ġm t
áģ ģáģ
à¥ ¦
ÏĥÏĦÎ· Î¼Î±
Î³Î³ ÎµÎ»
ĠB uy
Ġà´ķ à´¾à´°
Ġ, '
ĠÐ¿ÑĢÐ¸ Ð±
uj emy
Ľ áĢ½
Ġsek arang
×ķ×¨ ×Ļ
Ġas c
ĠPro gr
áĥĲáĥ® áĥĶáĥĳ
à¸ª à¸Ļ
Ġà¹Ģà¸ ª
Ġj Ãº
Ġg uz
à®¤à¯įà®¤ à®¿à®©à¯į
Ä© nh
els es
Ġà°° à±Ĩ
ĠáĥĽ áĥĲáĥľ
ĠØ§Ø± ØªØ¨Ø§Ø·
ĠÐ´Ð² Ð¸Ð¶
Ġsh all
æīĢ æľī
Û Ĩ
ĠÙĨ ÙĬ
ĠÄĳ Ã¡
Ġvá» ±c
Ġtar de
Ġm ili
ĠMod ern
ĠJ ava
ĠìĻ ¸
ĠÑģ ÑĥÑīÐµÑģÑĤÐ²
Ġpict ure
à¹ģ à¸ŀ
×¤ ×Ļ×Ŀ
ĲáĢ¼ áĢĦáĢ¹
Ġall en
ĠReg ion
ĠP ast
Ġ:- )
Ġ ella
æķ ĳ
×Ļ×ª ×Ķ
Ã¡t or
Ġvy b
ĠáĥĲáĥłáĥ ¡
Ãºbl ica
ĠNam un
Ġà¤¸à¤® à¤¯
Ġright s
Ġlet ter
Ġdah il
Ġc ash
ov ou
ĠÑģÐ²Ð¾ ÑĹ
Ġwy kon
ÙĪ ÙĬÙĦ
ĠmÃ¥ l
èŃ °
áĥĲáĥļ áĥ£áĥł
g ie
Ġro oms
Ġc ore
à§ĭ à¦¸
Ø« ÙĦ
in Ã¤
# #
ĠR ose
ĠDies e
Î½Î¿Î½ ÏĦÎ±Î¹
eng en
Ġn ale
à°¡ à±įà°¡
Ġä¸ ¤
Ġà¦ªà§įà¦° à¦§à¦¾à¦¨
Ġfor mer
ĠL iter
àµģà´ķ à´³àµįâĢį
ĠØª Ø§Ú©
Ġr Ã¥d
Ġqual quer
áĢ±áĢĢ áĢ¬áĢĦáĢ¹áĢ¸
ÐµÑĩ Ð½Ð¾
ĠØ¯ ÙĪØ³
Ġti ed
Ġeffect ive
¡ Ù
ĠáĢ±áĢ ¡
Ġk Ã½
Ġe cht
Ġ Ë
Ð¾ÑĤ ÑĢÐµÐ±
v gr
ber ry
Ġkun st
áĥ®áĥĿáĥķ áĥł
áĢ ĵ
m ission
ĠÄĳ Æ°a
ĠG ob
kom men
Ġus ar
ĠM á»Ļt
Ġ12 6
Å¡ enÃŃ
ĠØ± Ø³Ùħ
Ġkol ej
ĠTh en
ĠT s
âĺ ħ
ĠÎº Î¿Ïħ
Ġem ot
Ġbeh ind
ĠK v
ĠØ±ÙĪ ØŃ
Ġsol u
Ġinclud ed
ĠZ ar
æ± ĩ
Õ¸ ÖĢÕ
eta an
Ġen am
áĢĲáĢ½ áĢ±
ĠáĥĶ áĥĻ
ĠÙĨ Ø®
f d
ĠÎºÏħ Î²
Ġà¹Ģà¸ŀ à¸£à¸²à¸°
Ġprob ably
am ina
Ġresp ond
Ġ×ĳ ×Ļ
Ġy al
Ġà´ ķàµįà´ķ
ĠAm sterdam
Ð» Ð¾Ð¿
Ġcho ice
Ð°Ð½Ð¸ Ð¼
ç§ Ł
r ick
M L
Ġsta ge
ÛĶ ÛĶ
Ø¨ ÛĮÙĨ
Ð¾ ÒĽ
f ang
áĥ£áĥ ĳ
el Ã©s
ec kl
ĠàªĨ àªľ
ĠáĢ ¦
ĠØ¯ ÙĦÛĮÙĦ
ed ere
ĠÐ·Ð°Ð² Ð¸Ñģ
à¥Ĥ à¤¸
ÛĮØ´ Ùĩ
ĠØ§ÙĦ ÙĪØ²
ĠP end
Ġ×Ĺ ×Ļ
Ġi i
li wo
Ġcos as
Ġag rad
å¼ µ
ĠÐ´ÐµÑĤ ÐµÐ¹
à¤¯ à¥ĭà¤Ĺ
S D
Ġè »
Ġà¦¹ à¦ļ
ĠÚ© Ø§ÙĨ
ĠÐºÐ¾ÑĤÐ¾ÑĢ ÑĭÑħ
ĠÏĢÏģÎ¿Ïĥ Ïī
Ġu cz
ØŃØ¯ Ø«
Ġ×ľ×Ĳ ×Ĺ×¨
Ġ×ĵ ×ĳ×¨
ĠÐ¿Ð¾Ð´ Ð´ÐµÑĢÐ¶
Ġãģ Ķ
è¯ į
ØŃ Ø«
ak or
ĠT ul
áĢĲáĢ¼ áĢĦáĢ¹áĢ¸
it ura
ĠÑĸÐ½ ÑĦÐ¾ÑĢÐ¼
Ġpar ent
æı ´
ag an
ĠìĬ ¬
Ġë³ Ģ
ĠÎł Î¿
Ġlong er
Ġg Ã¼zel
Ġà°® à±Ĭ
ĠÐ·Ð½ Ð°Ðº
Ġf um
Ġans wer
ÄĽ st
iler in
Ġà°µ à°¾à°°
à´® à´¾à´£àµį
à¥ĭà¤Ĥ à¤¨à¥ĩ
ill ende
ĳ ĳ
Ġre gr
Ùİ Ùĳ
Ø³ Ù¾
ìķĦê°Ģ ìĶ¨
Ð» Ð°Ðº
ÏģÎ± Î½
ĠD 8
áº£ y
ĠÐ± ÑĥÑĤÐ¸
Ġa id
ĠØ§ÙĦØª ÙĤ
ĠLa w
ĠEx cel
ĠA ÄŁ
x ima
fa at
Ġá¼ Ĳ
Ġw ake
Ġ×ķ ×ł
Ġseb ab
ĠØ§ÙĦØµ ØŃ
ĠÎ¿Î¹ÎºÎ¿ Î½Î¿Î¼
Ġk iá»ĩn
Ġcap it
ãģ¨ ãĤĤ
à¸§ à¸Ķ
ĠÙħÙĨ ÙĩØ§
ĠÑĤ Ð¾Ð½
ĠÑģÐ¸ÑģÑĤÐµÐ¼ Ð°
Ġob jekt
Ġj al
Ġtop ic
è²¸ æ¬¾
áģ ¤
ØŁ ØŁ
ri ff
ĠãĤ °
ĠÐ¾ÑģÑĤ Ð°Ð½
Ð¸ÑĩÐµ ÑģÐºÐ¸Ð¹
Ã¨ ne
Ġb oh
ĠEl le
ÙĬ ÙĪÙĨ
Ø§Ø¯ ÙĬØ©
ĠHot ell
Ġà°ļà±Ĩ à°ªà±įà°ª
Ġcomp ut
ĠV all
d ÄĽ
Ġë° ķ
Ġcer ta
ģ áĢ¯
Ġdi ÄŁer
an ol
Ġà¦Ĩà¦® à¦¾à¦¦à§ĩà¦°
ĠÐ³ ÑĢÐ°Ð¼
Ġ×ª ×§
ĠFin an
ĠBund es
×ĳ×¨ ×Ķ
ĠkÃ¤ yt
Ġint Ã©r
ĠG Ã¼
æĭ ¬
Ġà¦Ĩ à¦ľ
è½ »
×ĺ ×Ļ
Ġrag az
Ġp az
Ġn erv
ĠØ´ ÙħØ§ÙĦ
Ġsus p
Ġ16 5
éĺ ¿
ial i
ĠBit coin
on ie
is kt
Ġà¤ª à¥Ī
Ġvis ita
Ġe zt
ĠHe ad
à¸ĸ à¸¹à¸ģ
Ġì¶ľìŀ¥ ìĥµ
Ġà¹ģ à¸Īà¸ģ
Ġeg Ã©sz
Ġcompl eto
Äĵt Äģ
Ġà¨ ¦
ĠÏĦÎµ Î»ÎµÏħÏĦÎ±
ĠÎ¤ Î¹
Ġto h
Ġcli entes
à´± àµĨ
à¥ĥ à¤¤
Ú¯ Ø±Ø§ÙĨ
Ġê²ĥ ìĿ´
Ġp eg
Ġic on
Ġesc rit
×ķ×ľ ×Ļ
ekt or
Ġpar Ã«
Ġmen nes
æĺ ł
à¯ģà®ķ à®¿à®±
Ġå¤ ª
ĠÑĢ Ð´
ĠÏĢ ÏģÎ¹Î½
ÏģÏī ÏĥÎ·
il et
Ġà¤® à¤¾à¤°
Ġout ro
Ã´t el
l it
Ġà´ļàµĨà´¯ àµįà´¤
ĠØ¢ Ø®
ĠÏħ ÏĢÎµ
Ġce i
ĠS ah
Ġ) "
Ġ ula
ì »¤
è® ¿
ĠÏĢ Î±Î½
Ðŀ ÐĽ
r Ã³l
Ġíķĺ ëĤĺ
Ġê² Ģ
Ġ×©×ľ ×Ĳ
ĠMon te
Î¸ ÏħÎ½
Ġvari ety
Ġt Ãªn
Ġrece ived
å¼Ģ å§ĭ
áĥĲáĥļáĥĺ áĥĲáĥľ
Ġ12 4
áĥľ áĥĲ
à¸¥ à¸²à¸¢
zy Äĩ
Ġcom plic
ĠBe it
áĥĺáĥ ®
Ð² ÐµÐ½
itt y
Ġz g
Ġmo o
ĠUn idos
ã ħ
ĠÏĦ ÎµÎ»
Ġt old
uer do
b ia
Ġvel oc
Ġmag gi
áĢŃ áĢĲáĢº
×ķ×¨ ×ª
Ġupload s
Ġte hn
Ġposs ibile
äºº ãģ®
Ð¾Ð» ÐµÑĤ
p is
ĠÎĳ Î³
Ġs ine
à¸Ķ à¸±à¸ļ
ÙĢÙĢ ÙĢ
h it
ĠÎ¾Îµ Î½Î¿Î´Î¿
Ġg mail
Ġà®¤ à®¾à®©à¯į
ĠÑģÑĤ Ð°Ð½Ð¾Ð²
Ġti Ãªn
Ġav ons
ĠBel ed
ĠN ame
C ont
à¯Ĩ à®¯
Ð¸Ñĩ Ð½Ð¾
Î³ ÎµÎ¹
±áĢ ¡
os os
Ġver w
ĠN ova
íİ ĺ
Ð½Ð° Ðµ
ĠØ³ ÙģØ±
ĠG arden
äº§ ä¸ļ
à¥ĭ à¤§
Ġval id
à¸ĭ à¸·à¹īà¸Ń
ÅŁ ik
Ġà¦ĩ à¦ī
Ġng uyÃªn
Ġ×¢ ×ķ×ĵ
ĠÑĢ ÑĭÐ½
Ġà¸ŀ à¸Ļ
ĠÐ¾Ð±ÐµÑģÐ¿ ÐµÑĩ
à¸Ħ à¸·à¸Ń
1 000
ï¼ ī
Ã¢n ia
ĠØ¯Ø§Ø± Ø§ÛĮ
ĠØ¨Ûģ Øª
Ġflo or
Ġch ung
Ġà®ħ à®´
ĠÃī s
Ġè Ĳ
à¸ªà¸£ à¹īà¸²à¸ĩ
ÄĻ ki
ĠØªØ± Ú©ÛĮ
ĠOly mp
ëĵ ±
çĸ ĳ
uj eme
ĠØ¹ Ø´
à´¨àµįà´ §
Â ¯
ÙĴ ÙĨ
ÐµÐ½ ÐºÐ°
Ġst Ã¥r
Ġhj Ã¤l
Ġc av
ÑģÑĤÐ² Ðµ
Ġè ĳ
áĢľ áĢ¯áĢķáĢº
K O
Ġzw ischen
Ġsk y
à¸ķ à¸¸
ç¶ ²
z al
q iq
Ġs Ä©
åıĳ å¸ĥ
à«ĩàªŁ àª²
à§įà¦¯ à¦®
emp el
ĠÙĩ Ø§ÙĬ
ĠÑĤ Ð°Ð·Ð¸
Ġw ala
Ġm ing
ãĥ© ãĥ¼
Ġsch ed
Ġra y
ç´ ļ
à°° à±įâĢĮ
Ãªn cias
Ã¡ cia
ĠÐ½Ð°ÑģÑĤ Ð¾Ñı
Ġd Ä±ÅŁ
Ġ( $(
ÐµÐº ÑĤÐ°
ĠáĥĽáĥĹ áĥĲáĥķ
Ġso y
ĠN ev
se p
Ġà¦ªà¦° à¦¿à¦¬
Ġ12 9
à®Ł à¯ģ
ÑĢ ÑĤ
ĠØ£ ÙĤ
Ġto wn
ĠH uawei
à¸ļà¸£à¸´ à¸ģà¸²à¸£
ÙĤÙĦ Ø§Ø¨
Ġtek nik
Ġmod ule
ĠSil ver
ĠK L
ĠD os
à®¿à® ³
Ã©r ia
ad ÉĻ
Ġpl ug
à¸« à¹Į
ÐµÑĢ Ñĸ
ĠÑĢÐ°Ð º
Ġt Æ°á»£ng
à¤¾à¤² à¤¯
áĢĽ áĢĦáĢ¹
Ø¨ Ø§Ø¯
Ð½Ð°Ðº Ð¾
Ġpas se
Ġdi á»ħn
ĠResp ublik
ä¼ ¦
Î»Îµ Îº
Ġqu and
Ġed itor
Ġàª² àª¾àªĹ
Ġla at
Ġin di
íķĺ ì§Ģ
Ð°ÑĤ Ñĥ
Ã¶ Ã¶
ut or
Ġsz olg
Ġman i
ÙĬÙĨ ÙĬØ©
Ð°ÑĢ Ð¾
Î¼Î± ÏĥÏĦÎµ
Ġà¸ ¨
ĠÐ± Ð»Ð¾Ðº
Ġke in
Ġg Ã©
Ġder ni
Ġde ber
Ġbag ian
ĠLoc al
èĹ ı
Ñĭ ÑĨÑĮ
ENT O
ĠÙĨØ³Ø¨ Øª
Ġprote ction
Ġman ual
ĠR og
´ë ı
Ġr Ãµ
Ø§Ùħ Øª
ch at
ail y
IN T
ĠØ§ÙĦØ¹ ÙĦÙħ
Ġpol iti
Ġkar akter
ÙĨ Ø§ÙħÙĩ
Äį nÃ½
P K
è®¾ å¤ĩ
à±ĩà° Ł
Ð¸Ñħ Ð°
m aktadÄ±r
il io
al jer
ĠÐº ÑĸÐ»ÑĮ
æ±½ è½¦
à®° à¯Ī
ÑĤÐ¸ Ðº
ĠF emei
ĠBew ert
U H
Ġeas ily
ĠTe en
à±ĭ à°Ĺ
ĠÄĳ a
ĠÃºlt ima
ĠvÃ½ rob
à¤¹ à¤°
am 8
Ġpr Ã¡v
Ġb á»ı
åıĤ åĬł
ÑģÑĤÐ² Ð¾Ð¼
ÃŃt ica
Ġk av
Ġ; -
è¯ ¢
Ġplac es
ĠC ou
ëĬĶ ëį°
Ġà¦¸ à§ģ
Ġà¤²à¥ĭà¤Ĺ à¥ĭà¤Ĥ
ĠÙĨ Ú©
ĠØ³ Ø®
Ġ×ĳ ×ľ
ĠÎµÎº ÏĢ
Ġy il
ä»· æł¼
Ðķ ÐĽ
ĠÐĶ Ð°ÑĢ
ĠÐ¿ Ð°Ð·
Ġt Ã¤h
Ġh ana
Ġad opt
v Ã¤r
ch y
Ġà´ķ àµģà´±
ĠPed ro
ĠE th
åħįè´¹ è§Ĩé¢ĳ
Ġ( @
ë¦ °
uc ion
Ġgl ass
à§ĭ à¦§
Ġcon na
à¦°à§įà¦ £
Ġper mainan
Ġmum kin
Ġla bel
Ġè¿ ĳ
Ġprodu ce
Ġku ul
Ġ19 88
áĢĻáĢ» áĢ¬áĢ¸
Ġkhi áº¿n
Ġag ua
à¥įà¤¯ à¤¾à¤¸
à¤¾à¤µ à¤°
v ens
re j
IN O
ĠÙħØ· Ø§ÙĦ
if ter
_ 0
ĠØ´ Ûģ
ĠÑģ ÐµÐ´
Ġfor e
ãĥĨ ãĥ«
ãģª ãģ®ãģ§
Ġàª¸àª® àª¯
Ġà¦¨à¦¿ à¦°à§įà¦¬
ĠØ¨Ø§ÙĦ Øª
ĠØ¢ Ø³ÛĮ
ĠR ek
ĠL T
èĥ½ åĬĽ
ĠØ¬ ÛĮ
Ġcir ca
u in
Ġ×ķ ×Ĺ
å½± éĻ¢
áĢ¯áĢŃ áĢĢáĢ¹áĢ
à¸Ľà¸£à¸° à¹Ģà¸Ĺà¸¨
Ð¸ÑĩÐµ ÑģÐºÐ¾Ð³Ð¾
ement o
áĢħ áģ¥
ĠÐ¸Ð¼ ÐµÐ½Ð½Ð¾
ĠsÃ¼ re
Ġà¤® à¥Į
é ı
ĠÙĦ ÙĬØ³
ĠØ§ÛĮ Ùħ
c je
33 3
Ġà®ª à¯ĩ
ÙĬØ± Ø§ÙĨ
ĠÐĿ Ð°Ð²
Ġkau fen
ĠÚ©Ùħ Ú©
æĭ ©
ÙĨ Ø¹
Ø¶ Ø§ÙģØ©
à¥įà¤ ŀ
Ð´ Ñĭ
ĠØ®ÙĦ Ø§Ùģ
Ġvá» ĩ
à¦¤ à§įà¦°
Ùĥ Ø¯
ĠØ¨ Øµ
Ð¸ÑĩÐµ ÑģÐºÐ¸
ull en
sch ied
Ġtar if
ĠcÄĥ n
ĠS os
ĠNh á»¯ng
Ġro und
Ġb Ã³ng
ĠS ens
åĲ ¦
Å« su
us her
Ġst rat
Ġm ampu
ÃŃc ula
ot as
Ġob chod
ĠRom an
ç´ ¹
ãĥķ ãĥĪ
Ø² ÛĮÙĨÙĩ
ÏĪ Îµ
m ai
Ġsport s
ëŁ ¼
Ð°Ð½ Ð´Ð°
abil irsiniz
Ġë¨ ¸
Ġp ep
S O
ĠíĶĦ ë¡ľ
Ġë £
ĠãĢĳ ,
ãĤģ ãĤĭ
ĠThe o
èĥ Į
áĥĵ áĥĺ
ĠV on
ĠL un
ĠK ung
Ã¡c s
Ġà«§ à«
ĠH ak
å® ¡
Ð¸Ð» Ð°ÑģÑĮ
ĠÐ¡ ÑĬ
Ġmeet ing
p ed
nie c
ill ed
ck en
Ġà°® à°¾à°°
áĥĲáĥłáĥĹ áĥļ
Ġàª¦ à«įàªµ
ĠÙħØ´ Ú©
ĠS uj
Ġoc up
Ġnog et
à¹Ģà¸ķ à¸Ńà¸£à¹Į
g ers
Ġà¤¤à¤° à¤¹
ĠÐĳ ÐµÐ·
Ġng u
íĮ ħ
åĩ ¡
à®¿à®¯ à¯Ī
Ġr ies
Ġ4 80
Ġ00 Z
Îµ Î´
ĠØ¬ ÙĪØ§ÙĨ
ĠÑĤ ÐµÑģÑĤ
Ġcont ribu
Ġb ona
eg t
ĠÑģ Ð¸ÑĤÐµ
ãģĦ ãģĨ
ust en
Ġà®® à®ķà¯įà®ķ
Ġtá» ·
Ñĥ ÐµÑĤÑģÑı
ĠC ross
áĢ¯áĢŃ áĢĦáĢ¹áĢ¸
j Ã¼k
ĠÑĥ Ð¶
à¶ »
à«ģàªľ àª°àª¾àª¤
Ä« ga
Ãł m
inta h
Ġp asti
ãģĤ ãģ£ãģŁ
Ġa it
Ġki áº¿n
à¸± à¸¡
ko h
ka a
ĠÑĢÐµ ÐºÐ¾Ð¼
Ġel abor
ĠÐ¸Ð½ ÑĦ
Ġmin ha
Ġáĥ¨ áĥĶáĥĵ
ĠÄĳá» ©
ĠA ce
Ġ10 80
à¤¨ à¥ĭà¤Ĥ
Ġf Ã¡c
ĠP emb
ĠÐ±ÑĥÐ´ Ðµ
Ġfa ir
Ġd ello
í ļ
Ġur ban
Ġecon Ã³m
ĠGab ri
Ġ äºĭ
ÑĢÑĥ Ñĩ
ÄĽ k
W R
Im age
Ġç ĥ
Ġáĥ¨áĥĶáĥ¡ áĥĲáĥ®áĥĶáĥĳ
å· ¦
ÄŁ in
Ġm ati
Ġhot eller
à¹Ģà¸ ĺ
à¸«à¸¡ à¸Ķ
åĢ ¤
fer ence
W _
ĠS yn
ĠO ok
Ùİ Ø§ÙĦ
Ġåį ³
Ġis n
Ġcol abor
ĠMil an
Ä± p
ĠØ¹ Ø¶ÙĪ
Ġser i
ĠR iver
ĠH ospital
à¸Ĺà¸³ à¹ĥà¸«à¹ī
à°¿à° ²à±ĭ
Ø±Ø¨ Ø¹
Ø¨ Ø§ØŃ
ĠJ Ã¡
ÑĥÐ¶ Ðµ
Ġg ema
Ġdesenvol v
Ġéĺ ¿
Ġhand le
Ø° ÙĬ
C on
Ġäºļç¾İ am8
Ġà¹Ģà¸ĩà¸´à¸Ļà¸ Łà¸£à¸µ
Ġcap t
Î» Î¹Ïĥ
Ġsv oj
Ġli qu
Ġfor te
Ġcer c
Ġb Ãł
an ter
Ġà¤¹ à¤°
Ġsecond o
ĠgÃ¶r Ã¼ÅŁ
ĠPr int
Ġ×Ļ ×¦
Ġk la
Ġáĥĺáĥľ áĥ¤
Ġbere its
å® ĥ
ÐºÐ¸ Ðµ
h on
çİ ī
àª¿ àª®
ĠÏĢÎ± ÏģÎ¿Ïħ
Ġl ower
Ġkosten los
ĠgÃ¼ ven
ë³´ ìŀ¥
áĥĿáĥļ áĥĿáĥĵ
Ġà°® à°¨
ĠÐ¿ÑĢÐµ Ñģ
Ġm Ã¶glich
ĠG Ã¶r
á»¯ u
· à«įàªŁ
ens chaft
Ġfin de
Ġam igos
ëŁ ī
çº ³
Ïģ Î¯Î±ÏĤ
Ġãĥ Ĩ
ĠÑĢ ÑıÐ´
Ġb ile
ĠM any
ĠK az
à¹ģ à¸¡
à¥ī à¤²
Ø± Ø±
ied y
b us
S L
ĠáĢ¡áĢ² áĢĴáĢ®
ap ia
I i
ĠK ultur
à§Ģ à¦¦à§ĩà¦°
G o
Ġpre ced
ĠEx per
áĢĬ áĢ·
ÙĩØ§ÛĮ ÛĮ
ann es
ama is
ĠØ¯ÙĪØ± Ùĩ
ĠÃ¼ ret
Ġnghiá»ĩ m
Ġg uar
åĵģ çīĮ
Ø¹ÙĦ ÙĤ
ĠáĥĽ áĥĲáĥĺ
ĠÑĤÑĢÐ°Ð½ÑģÐ¿ Ð¾ÑĢÑĤ
ĠÑģ Ð¾Ð¿
Ġst em
Ġl á»£i
Ġk id
ĠS unday
ĠR af
d or
Ġ×ľ×Ķ ×Ļ×ķ×ª
ĠÕ £
¯ à§
ĠØ¯ ÙĪØ¨
Ġè ĥ
ĠWest ern
ĠV u
pet to
ks am
ett Ã¤
ĠÎµ ÏĨ
Ġj Ã¤Ã¤
gr up
and i
Ġä¸Ĭ æµ·
Ġ? ????
Ġplus ieurs
æ´ ĭ
ãģ§ ãģ®
à¦Ń à¦¾à¦¬à§ĩ
Î¼ÎŃÎ½ Î¿Ïħ
ko op
ĠR ES
Ã¹ a
l ings
Ġp Ã©n
à¹Ģà¸Ľ à¸¥
Ø± Ùī
l Ã¡d
Ġà¦¸ à§įà¦¥
Ġatt end
Ð°Ð½Ð¸ Ñħ
y es
Ł áĢ¬
ĠÐ¸ Ðº
ãĥ³ãĤ ·
ÏĢ ÏĦÏħ
iz aÃ§Ã£o
Ġà¦Ń à¦¾à¦²
Ġr ikt
ĠH ai
[...]
