#version: 0.2
á ĥ
à ¦
à ®
à °
à ¤
à ¸
à ¯
áĥ Ĳ
à ±
à §
Ø §
Ġ áĥ
Ġ ×
ã ģ
áĥĲ áĥ
áĥ ĺ
Ġ à¦
à¯ į
Ù Ħ
Ġ à¤
Ġ Ø
à ¥
Ġ Î
Ġ Ð
Ġ à°
Ġ à®
Û Į
áĥ Ķ
áĥĶ áĥ
à ¹
à¯į à®
áĥĺ áĥ
Ù Ĭ
Ð ¾
Î ±
à¦ ¾
Ø ±
× Ļ
Ø§ ÙĦ
Ù ħ
Ï Ħ
ã Ĥ
× ķ
É Ļ
Î ¿
Ù Ĩ
Ð µ
à± į
ã ĥ
Î ¹
Ð °
á »
à§ ĩ
Ù Ī
áĥ Ŀ
à¦¾ à¦
Ù ĩ
Ġ Ø§ÙĦ
×ķ ×
à¯ ģ
Ġ ì
Ð ¸
à® ¿
Ñ Ĥ
à±į à°
×Ļ ×
Î ½
à° ¿
Î µ
áĥĿ áĥ
Ø ¯
à®¿ à®
à§ į
à§į à¦
à° ¾
Ð ½
à¤ ¾
à± ģ
Ñ Ģ
a n
Ñ ģ
à¦ ¿
Ï ģ
Ø ª
Ï ĥ
Ð¾ Ð
Ä ±
à°¾ à°
à¯ģ à®
á º
à¦ °
Ø ©
Ï Ģ
Ø§ Ø
Ï Ĥ
à¥ ĩ
à® ¾
e n
Î ·
à°¿ à°
£ áĥ
Ï ħ
áĥĺáĥ ¡
áĥĶáĥ ĳ
à¸ ²
Ġ t
à¤ °
n g
ã Ģ
Ġ ë
à®¾ à®
Ĥ à°
à¸ Ļ
e r
Ù ģ
ì Ŀ
× Ķ
Ġ .
à¦¿ à¦
ĠØ ¨
× ¨
Ú ©
ĠØ§ÙĦ Ø
ł áĥ
à¸ £
Ð »
ä ¸
Ġ c
Î »
Ġ× Ķ
× ľ
à¥ į
Ġ ÏĦ
à±ģ à°
Ù Ĥ
Ġ Ùħ
Ù ĥ
à§ĩ à¦
Ġà¤ ķ
Î º
à¤¾ à¤
Ġáĥ Ľ
à¯įà® ķ
Ġ d
Î ¯
à¸ Ń
áĥ ķ
Ã Ń
Ġ ãĢ
ŀ ×
ä º
Ø§ ÙĨ
Î ¼
à¥ Ģ
Ø ¨
à¤ ¿
à® °
Ø ¹
c h
Ġ ÙĪ
Ð º
Ġ å
e s
áĥ £áĥ
Ø§ ÛĮ
à¹ Ģ
à¯ Ī
Ñ ĥ
ĠØ ¯
ï ¼
Ġ ,
à¹ Ī
Ġ à¸
à¸² à¸
à® ¤
Ï Į
à¯įà® ¤
à¥į à¤
× ª
Î ¬
Ġ Ä
Ã ©
à¤ Ĥ
o n
Î¿ Ïħ
Ø ³
Ġáĥ ¡
à¹Ģ à¸
Ġ ï¼
à¸£ à¸
áĥĲáĥ ľ
Ġd e
a r
Ġ×Ķ ×
Ġ s
Ġáĥ ĵ
i e
à¦ ¨
Ġt h
à° ¨
à¤¿ à¤
o s
Ġ ê
Ñ ı
Ñ ĭ
áĥ ¡
áĥ ł
Ġ áĥĲáĥ
Ġ× ľ
Ã ¡
í ķ
à° Ĥà°
à¹ ī
ĠÄ ĳ
an g
à± ĩ
Ġ× ĳ
Ġ p
n h
Ð° Ð
Ø§ Ø±
à¸Ļ à¸
Ðµ Ð
à° °
à® ©
Ġ l
à± ĭ
Ã ł
Ø ´
Ã ¼
à¸Ń à¸
Ġ Ø§Ø
Ġ× Ĳ
Ġ m
à¥ ĭ
à¦¾à¦ °
e i
ģ à¸
a s
à§ ģ
× ĳ
® à¯į
à® Ł
Ġ ÏĢ
Ġ Ú©
× Ĳ
ãģ ®
Ñ Į
å ı
ĠÐ ¿
Ú ¯
Ġ æ
à§ Ł
i n
Ï ī
ĠÎ º
áĥ ļ
Ġáĥ Ĵ
×ķ× ª
Ġ Ïĥ
Î Ń
Ġà® ª
×Ļ× Ŀ
à ´
Ġà¦ ķ
ÉĻ r
Ġ× ©
Å Ł
à® ³
ĠÎ ±
à° ²
Ġ n
Ñģ ÑĤ
à¤ ¨
t o
Ġà¦ ¸
ë ĭ
Ġï¼ Į
Ø Ń
Î ®
Ġ a
Î ³
ì ŀ
Ġà¦ ¬
áĥĶáĥ ļ
áĥĲáĥ Ľ
ĠØ ª
Î± Î¹
× ©
Ġà® ķ
× ł
Ġ ÙĦ
Ġ Ùģ
Ġ v
t i
à¦ ²
à¯įà® ª
Ġà¤ ¸
Õ ¡
ĩ à¸
o u
Ġth e
Æ °
ĠØ £
å ®
o m
ķ à¯įà®ķ
ãģ Ħ
à¦ ķ
Ġ w
Ð ²
áĥ ĵ
à® ²
ĠÐ ²
Ï ĩ
Ġà¦ ª
ĠØ ¹
à± Ģ
Ã ¥
Ġ b
Ġ e
a g
Å Ĥ
Ġc om
Ġ× ŀ×
ĠÎ µ
a l
Ñ ĩ
Ħ à¸
o r
áĥ Ľ
Ġà¤ ¹
à¯Ī à®
à¤ ķ
Ù ī
Ø§ Øª
ãĢ Ĳ
c i
ç ļ
Ġs a
à° ķ
à§ĩ à¦°
áĥ ľ
Ġà° ª
ĠãĢ ģ
ĳ ãĢĲ
Ðµ Ð½
à¯įà® Ł
Î¹ Îº
çļ Ħ
æ ľ
Ġ Ñģ
Ø ²
à§ ĭ
Ä Ľ
Ø ¬
Ġà® µ
áĥĲáĥ ĵ
à¦ ¤
áĥ ¢
ĠØ§ÙĦ Ùħ
¿ ½
Ġ h
ÙĬ Ø©
ĠÎ ¼
ì Ĺ
Ġ f
ï ¿½
r e
à¸ µ
ãĥ ¼
å Ī
Ġ í
× ĵ
Ġ ÙĨ
± à¸
ĠØ ±
áĥĲáĥ łáĥ
Ġd i
Ġà® ®
à¦ ¬
Ï į
e l
Ġà¤ ®
à¯ ĩ
a t
à§įà¦ °
ĠØ¯ Ø±
Ġáĥ ł
× ¢
Ġà® ħ
Ð ¼
ĠÐ ½
à¦ ®
à± Ĩ
à¥ ¤
Ð¾Ð ²
ĠØ ³
à¤ ¤
áĥĶáĥ ľ
Ġ k
ãģ §
Õ¡ Õ
× Ĺ
Ġà° ķ
Î ´
Ġ Õ
áĥĲáĥ ķ
a d
áĥĲáĥ ¡
Ġ Ùĩ
Ä± n
Îµ Î¹
Ġ à¥¤
ĠãĢ ĳãĢĲ
â Ģ
Ġ× ķ
à±įà° °
Ġ z
ìĿ ´
ļ áĥĺ
Ġà® ¤
i l
ĠØ ´
Ġc h
Ã §
à°¾à° °
Ġáĥ ĺ
ãģ Ĺ
Ù ¾
e t
ç ½
äº ļ
ĠØ Į
Ġà® ļ
à§įà¦ ¯
o w
à® µ
Ġà° µ
Ä Ł
ĠÐ ¸
ãģ «
à±ĩ à°
a h
Ġà¤ ª
Ġ an
å ¤
a k
i á»
à¯ģà® ®à¯į
Ø§ Ùħ
à®¿à® ²
Ġáĥ ¨
Ġ ng
i j
Ġà¦ Ĩ
å Ľ
Ð ´
Î¹ Î±
ç½ ĳ
Ġ Ã
Ï Ĩ
ãģ ¦
× §
áĥĲáĥ ł
à¹Ī à¸
i s
Ġ o
u e
à¥ Ī
Ä Ļ
à®¿à® ¯
å ħ
Ġ ç
áĥ ®
Ġà° ®
Ø ·
áĥĿáĥ Ľ
à§ Ģ
à¦¾à¦ ¨
i r
Å Ļ
Ġà° ħ
Ġáĥĵ áĥĲ
Ġà® ĩ
à¸ ´
Ġ ãĥ
ìŀ ¥
ĠÐ ¾
à ¨
i t
Ġà¦ ®
ãģ ¨
à¤ ¸
Î ¸
× ¤
ëĭ ¤
Ñ ħ
ãģ ª
Ġà° ¸
Ġà¦ ı
Ġ ÙĬ
× ŀ×
Ġ y
ì §
ê ³
Ø µ
à¯ Ĩ
ĠÙģ ÙĬ
a m
e d
Ġt r
Ġ S
âĢ Į
à¥ ģ
ĠãĢ Ĥ
ĠÏĦ Î·
ë Ĭ
ĠÙħ ÙĨ
Ġ× ¢
å ½
Ã £
Ï İ
ÉĻ n
Ġáĥ¡ áĥĲáĥ
× ŀ
Ä ħ
ĠØ¨ Ùĩ
à¤ ¹
Ġ Â
Ġ nh
ÏĦ Î±
Æ° á»
ãģ Ł
¡ à¸
ÙĨ Ø¯
áĥĺáĥ Ĺ
¨ à¯įà®¤
Ġt o
ä »
× Ľ
ãģ Ļ
ĠÐ º
æ Ĺ
× Ŀ
ãģ Į
ì Ħ
e m
u n
Ġ en
Ã£ o
ãĥ ³
ãĤ ĭ
à¤ ²
ĠØ ¢
áĥĿáĥ ĳ
Ġáĥ Ļ
Ġà® ¨
o v
c z
à° Ĥ
Å ¾
Ġa g
Ġan d
Ġà¦ ¨
ëĬ Ķ
ê °
áĥĲáĥ ļ
Ðµ ÑĢ
ãģ ¯
i ng
ª à¯įà®ª
áº ¡
Ïģ Î¿
áĥ Ĺ
ĠØ ®
ì ł
ÙĬ ÙĨ
à¦ ¸
¶ ľ
¥ à¸
Ġáĥ Ĺ
Ġ in
Ø§ Ø¯
æ Ī
Ð° Ð½
áº ¿
Ġà¦ ¹
ÙĪ Ø¯
Ã ³
à® £
Ġ× Ľ
Å ¼
ÙĪ Ø±
ì ķ
Ðµ ÑĤ
Ġn a
ÏĦ Î¿
ĠÎ ´
Ġ è
à® ®
Ġ T
Ġl a
Ã ´
n ÃŃ
áĥ łáĥ
áĥĶáĥ ¡
l ar
æ ¸
à® ±
Ã ½
Ġo f
Ġì Ŀ
à±įà° ¨
Ã ¸
a y
à¯įà® ±
à¹ Ħà¸
¨ áĥĺ
áĥĺáĥ ľ
ä ¹
Ġ g
Ġ -
Ġ Ù¾
à° ®
à¹ ģà¸
Ġà® İ
ĠÎº Î±Î¹
ĠÐ ´
Ġ 2
à¯ ĭ
Ġ ãĤ
en t
Ġáĥ Ķ
ãģ ¾
Ġ j
Ð ¿
¶ľ ìŀ¥
Ġà° ļ
à° ¤
áĥĶáĥ ł
Ð¾ ÑĢ
×ķ× ¨
q ue
à¥ĩ à¤Ĥ
Ä į
Ġ Ø§ÛĮ
Ïģ Î±
Ã ª
ë §
Ð° ÑĤ
à¤ ®
i ch
Ö Ģ
Ø ®
Ġà¦ ¦
à°¾à° ²
æ ĸ
ª à¸
Ġ â
× ĺ
áĥĶáĥĳ áĥĺáĥ¡
Ġ× Ļ
z i
Ġ i
Ø ¶
Ġà° ¨
k an
ÏĦ Î·
à¥į à¤°
o l
à±įà° ¯
à¯įà®ķ à®³
u r
à°¿à° Ĥà°
å ľ
ÛĮ Ø¯
w w
à¤¾ à¤°
ãĤ Ĵ
ì§ Ģ
e k
Å ¡
à¹ī à¸
Ġà¤ ¬
Ġà¤¹ à¥Ī
Ð¾Ð »
Ġáĥ ŀ
ìĹ Ĳ
Ġ à§
ÏĦ Îµ
ei n
Ġà¤ķ à¥ĩ
æ¸ ¸
Ġk h
Ġw ww
ĠØ§Ø ²
áº £
¢ à¸
è ½
r i
à§įà¦ ¤
ÛĮ ÙĨ
ĠØ§Ø ³
áĥĲáĥ ª
ĠÐ¿ ÑĢ
ÙĦ Ùī
à µ
å ¹
× ¡
Ġ ang
íķ ĺ
Ù İ
Ġ es
à° µ
à¥įà¤ ¯
en g
à®¤ à¯įà®¤
Ñ İ
à®¿à® °
r z
Ð¾Ð ¼
Ġo g
ÏĢ Î¿
Ïĥ Î·
l ÉĻr
Ĥ ¬
§ à¸
Ð¸ ÑĤ
Ġ× ŀ
× Ĵ
Ġ que
à® ®à¯į
Ġ 1
Ġ C
à° ¸
Ð¾Ð ´
à®¿à®² à¯į
ä ½
Ð½ Ñĭ
Ġà¦ķ à¦°
ë ¡
Å Ľ
Ø³ Øª
ĠØ¨ Ø±
Ġ Ùĥ
Ġà¦ ¤
à¹ Į
åı ĳ
Ïī Î½
à® ķ
áĥĺáĥ ļ
áĥĶáĥĳ áĥĲ
ĠÐ ¼
à° ¦
Ðµ Ð»
l l
ĠÏĦ Î¿
à° Ł
ìĿ ĺ
ì ĭ
ĠÏĦ Î¿Ïħ
Î¯ Î±
à¯ Ĭ
à®¤ à¯ģ
å Ĭ
i y
Ġà¤ ¨
à®¾à® °
Ġà¤ ľ
à®¿à® ©
Î¼ Î±
à¦ ¦
à¸´ à¸
Ġì ŀ
á» Ļ
Ġ é
åĪ Ĩ
Ķ à¸
ê ¸
Ð ±
Õ ¸
ìĿ Ħ
à±įà° ²
à¹ ĥ
Ð° Ð»
à±įà° ¤
ç Ķ
à° ª
Ġà° ¤
Ġ ÑĤ
à° ¡
Ñ Ī
ĠÙħ ÛĮ
Ñ Ĩ
ĠØ ¥
æ ī
ĠÎ ½
ãģ ĭ
Ġe l
ï¿½ ï¿½
ÙĬ Ø±
Ġ âĢ
l er
´ ë
un d
Ġ A
å Ĳ
å½ ©
Ġà¦ ħ
à¯Īà® ¯
Ġ ÑĢ
à¤ Ĺ
ĠØ§ÙĦ Øª
áĥ Ĵ
Ø§ Ùĩ
áĥĶáĥ Ľ
Ð ·
áº ¥
×Ļ× ª
Î½ Î±
Ġáĥ ¬
Ġ |
Ð½ Ð¾
à§ĩà¦ ¨
Ġp h
Ĺ à¸
Ø °
Ġ '
å® ĺ
à¤ ª
r o
áĥĶáĥĳ áĥĺ
à¦ Ł
à® ¯
ĠÎ ¿
à¦ ª
áĥĿáĥ ¡
Ġ :
à¯ģà® ķà¯įà®ķ
Ġ B
ãģ £
d ÉĻ
Ġ P
Ïģ Î¹
å į
à°¾à° ¨
Ġ Ú¯
Ø £
à°¿à° ¨
Ġ D
à¯ģà® ¤
Ġáĥ £áĥ
ĠÎ ³
g a
áĥĿáĥ ľ
Ġà¦ ľ
è µ
ļ à¸
Ġv an
ĠØ ¬
ÙĪ ÙĦ
Ġ à¹Ģà¸
y a
Ġ E
ì Ĭ
ti on
i d
ÉĻ s
Ã ¢
ãĥ¼ ãĥ
Ã ¶
à° ¯
á» ĳ
ĠÙĪ Ø§ÙĦ
ì ¶ľìŀ¥
à°¿à° ķ
u k
ĠØ§Ø³ Øª
t a
×ķ× ľ
Ġì ł
Ð¾Ð ³
áĥ£áĥ ł
Ġ Û
ĠØ Ń
Ġà¤ ħ
l i
íķ ľ
ãĤ Ĭ
° à¸
á Ģ
Ġà¤ ¦
æ ĺ
Ġ q
Ø± Ø¯
è ¿
Ã³ n
Õ ¥
u ng
Ġc on
Ġy ang
İ ¯
Ùĩ Ø§
ä¸ ĭ
Ġ×© ×ľ
ì ļ
iá» ĩ
ÙĪ ÙĨ
è ®
Î ²
à±įà° Ł
o or
Ġà¤ µ
Ø «
i a
s t
Ġà¤ ²
à± Ĥà°
× ¦
Î ĳ
à±ģà° ²
ë ı
Ø§Ø ²
áĥ §
Ġ "
ë¡ ľ
Ġ× ł
áĥĺáĥ ĵ
à®¾à® ©
à¹ Ĥ
ãĤ Ĥ
Ã ¤
à®Ł à¯įà®Ł
à® Ļ
ê³ ł
ç «
on e
Õ ¶
ĠØ§ÙĦØ £
Ġáĥ ķ
Ð ¹
Ñģ Ðº
å ¿
Ġà¤® à¥ĩà¤Ĥ
ãĤ ¹
Ġáĥ ĳ
æĹ ¶
à¦¿à¦ ķ
Ĺ à¸µ
äº º
Ġ ãģ
ĠáĥĲáĥ ł
Ð ³
İ¯ äºļ
Ġm ga
Ġe t
Ġà° °
Ġà¤ °
l e
áĥĶáĥ ķ
ĠÎ ĳ
ÉĻ t
u m
à® ¨à¯įà®¤
Ġf or
Ġ× Ĺ
Ú Ĩ
ê° Ģ
Ø§Ø ¨
Ð¾ ÑĤ
ä¸ Ģ
Ø± ÛĮ
ë ¦
Ġ un
ĠÎ¼ Îµ
ÙĦ ÙĬ
à¥ Ĥ
à± Ī
ê ²
Ġ Ø§
Ã ¬
ou r
à¤ ¦
à¦¾à¦ ²
Ãª n
Ġ M
áĥĶáĥ Ĺ
Ġå ¤
×Ļ× ¨
Å ¯
Ġ I
Ġ und
ãģ Ĩ
Ġ ÙĤ
ĠâĢ Ļ
Ð¸ Ñı
Î½ Î¿
áĥĺ áĥĲ
Ġp er
ãĤ Į
áĥĲáĥ ®
Ġv e
ĠÐ ±
ç »
Ø§Ø ¡
Ð¾Ð ¹
Ġê °
ĠØ§ÙĦØ ¹
Ġ Ãł
ãĥ ĥ
Õ «
ì ĥ
ÏĦ Î¹Îº
e b
åĽ ½
ĠØ§ÛĮ ÙĨ
¸ à¸
ãĤ ī
o d
ãĤ ¤
ç ī
à®¾à® ķ
Ġ K
Ī ëĭ¤
Ġà¦ª à§įà¦°
Ã´ ng
à¤¾à¤ ¨
a p
Ġl e
áĥ£áĥ ļ
ë ¥
à¤ µ
Ġáĥł áĥĿáĥĽ
à¯ Ģ
áĥĲáĥ ¢
Ġe en
ĠÎ½ Î±
ÐµÐ ¼
ĠÐ½ Ð°
à®¿à® ±
à¦¿à¦ ¨
à®° à¯į
áĥĲáĥ Ĺ
ĠØ¨ Ø§
Ġ L
Ġ N
ĠÎ ķ
ĠÚ© Ùĩ
ì ľ
Æ ¡
à¯įà® ļ
Ġë °
å ¼
à¦ Ĺ
ê¸ °
ĠÎ ł
à°Ĥà° ¦
u l
ä ¼
é Ļ
Ġà¦ °
Ø± ÙĬ
å °
Ġì ķ
Ġ (
ģ à¸²
áĥ£áĥ ļáĥĺ
ìĿ ¼
Ä ĩ
× Ł
a w
Î ¾
×ķ× ĵ
à±į âĢĮ
t e
à¸µ à¸
áĥ ĳ
Î¼ Îµ
áĥĲáĥłáĥ Ĺ
z y
à¦¾à¦ ®
Ī à¸
é Ģ
à® ªà¯įà®ª
Ð° Ðº
á» §
ìĦ ľ
à® ļ
æľ º
i c
à¥ĭ à¤Ĥ
i k
Ġ× ª
ì Ľ
Î Ł
Ã§ Ã£o
Î Ļ
u s
Ð¾ Ð½
Ġà®İ à®©
ãĥ Ī
ĠÎ Ń
à¯ģà® ķ
Į Ģ
áĥĶáĥ łáĥ
Ġà° Ĩ
i ÄĻ
Ð¸ Ð½
Ġà® ī
ÐµÐ ´
ì ĸ
Ġ ein
à¦° à§įà¦
à± Ĭ
ê µ
Ġà¦ ¶
áĥĶáĥ ĵ
à±ģà° ¨
áº Ń
ĸ áĥĶ
×ķ× Ł
Ġp ag
ÏĢ ÏĮ
ĠØ¹ ÙĦÙī
áĥ ª
ë Ĥ
Ġáĥ ľ
áĥĿáĥ ķ
ĠÄĳ á»
Ġà¤ Ĩ
§ åıĳ
Ġd o
Ġv á»
à¯ Ĥ
Ġà¤ķ à¥Ģ
Î¿ Ïį
è½ ½
×ķ× ĳ
ì Ĥ¬
áĥ Ļ
è ¯
t en
Ö Ĥ
ĠÐ ·
Ð° ÑĢ
ÏĦ Î¹
Ġ× ¨
Ġa t
ì ²
a ar
à¹ĥ à¸
ĠÎº Î±
Ġd er
Ø§Ø ³
áĥĺáĥ ł
áĥ ¥
à¦¾ à§Ł
Ġv Ãł
à±ģà° Ĥà°
i z
×Ļ× ł
äºļ æ¸¸
Ġ 0
Ġ ÛĮ
à±ģà° ķ
ä¸ĭ è½½
« à¸
Ġ er
Ġà¦ ¯
a ci
Ä± r
ĠÏĦÎ· ÏĤ
×ķ× ł
Ã¼ n
Ġs e
Ġh et
Ġd an
Ġà°ª à±įà°°
Ġ F
áĥĿáĥ ĵ
ë ĵ
à¦¿ à§Ł
à¦ ¼
à¸£à¸ µ
ìĿ Ģ
è §
à®¿à® Ł
ÙĦ ÛĮ
à¦¿à¦ ¤
Ġ re
£ ¼
Ġáĥ ®
ĠØ± Ø§
×Ļ× Ķ
Ġt il
Ġd ie
a ÅŁ
Ġv ÉĻ
Ġ× ¤
Ĺ à°¾
Ø§Ø ¦
à¥ĩ à¤
Ġ Ñĥ
Ñ ī
Ġa d
Ñ Ħ
Ù Ģ
å İ
Îµ Î¯
Ġ r
ÛĮ Ø±
Îµ ÏĤ
àµ į
ãĤ ĵ
u y
à¦ ¹
à°¿à°Ĥà° ļ
a b
à®¾à® ²
à¦¾à¦ ķ
á ŀ
Ġ G
ÛĮ Ùħ
Î» Î»
áĥ ¨áĥĺ
à¤¿à¤ ¯
ŀ à¸
ìĬ ¤
Ġ il
Ġp ar
à®© à¯į
Ġ×Ĳ ×ª
ä¸ Ń
áº §
à¹Ĥ à¸
Ġì Ĺ
Ġ W
Ø§Ø ¹
ÉĻ k
Ð°Ð ²
à¯įà® ²
Ġe m
à¤° à¥įà¤
Ġê ²
å®ĺ ç½ĳ
d e
Ġ )
ĠÎ ļ
áĥķ áĥĶáĥļ
Ġ is
ĠÙĦ ÙĦ
Ġáĥ ¤
à¤ ¯
ķ à¸
áĥĺáĥ ª
Ø º
å Ĩ
ÉĻ l
ĠÎ £
Ð°Ð ¼
ĠÏĦÎ· Î½
Ġáĥ ¥
Ø§Ø ´
Ã³ w
ë§ Ī
Ð¸ Ðµ
áĥĿáĥ ļ
ìĿ ¸
ãģ ı
i m
Ð°Ð ·
× ĸ
Ġà¤ķ à¥ĭ
Ġà¦ Ĺ
Ŀ ¼
æī ĭ
à® ´
Ġb ir
l Ä±
Ġáĥ ©
Î ¶
Ġm en
Ī ĺ
Ľ à§ĩ
å ·
å º
ĠØ ²
Ġo l
à®¿à® ķ
Ïİ Î½
æĺ ¯
Ġa v
à¯ģà® µ
à¯įà®ķà®³ à¯į
Ġ ï¿½
Î £
Ġì ĺ
Î± Î½
å ¸
à® ķà¯įà®ķ
×Ļ× ľ
áĥĿáĥ ł
à°¾à°° à±ģ
à§ģ à¦
åľ ¨
ãĥ «
Ġ x
ç ľ
ÙĬ Ø¯
ë¦ ¬
Õ¸ ÖĤ
ĠØ§ÙĦØ ³
t er
Ġà® Ĩ
Ġ× §
s k
à°¨ à°¿
ç ¥
Ġå¤ §åıĳ
à¤¨ à¥ĩ
ĠÎ ¤
Î¯ Î½
g o
a q
Ġ um
Ġp rz
s ch
å¿ «
Ġà¦ ļ
é ĩ
à¦¾à¦ ¦
ëı Ħ
Ġà¤ ¤
Ñģ Ñı
Ġde ll
à®£ à¯įà®Ł
æ Ŀ
Ã ¨
Ġl Ãł
i áº¿
d a
Ġd es
áĥ ¬
ar e
Ã¡ c
ì ĺ
ĠØ£ ÙĨ
Ġà¤¸ à¥ĩ
à®¿à® ¤
Ð ¶
ĠÐ ³
à§įà¦ Ł
Ġch e
Ġë §
å¹ ³
à°° à±įà°
Ð» Ð¸
å¤ §
áĥĶáĥĳ áĥ¡
ë ħ
zi one
Ġà° ¬
æ Ĭ
å Ń
Ġ Ã¥
Ġ H
Ġà° ¦
Ġp ÅĻ
Î ķ
Ġà° ĩ
Ġb er
ĠáĥĲáĥ Ľ
Ġà¤ Ĺ
o ng
é Ĺ
æ ³
Ġl es
8 8
Æ°á» Ŀ
Ġp Ã¥
Ġ ÏĮ
n e
ç º
ĠÎ³ Î¹Î±
Ġà¤ķ à¤°
ê ±
Õ¡Õ ¶
ĠT h
Ġth á»
ìĭ ľ
ãģ į
Ø± ÙĪ
¯ à¦¼
Ġ× Ĵ
Ġ×ľ ×Ķ
Ġì ĭ
i o
Ġà¦¬ à¦¿à¦
à¤ ¬
Ùĩ Ø§ÛĮ
Ð¾ Ñģ
áĥĿáĥ Ĵ
y ch
ĠÎ ľ
r a
d o
Ġáĥĵ áĥĲáĥ
áĥĺáĥ ¢
Ġo p
ÉĻ m
áĥĿáĥ łáĥ
u f
à§įà¦ ¬
à¦¾à¦ ¤
åı °
Ġà° ī
Ġ 3
ĠÎ± ÏĢÏĮ
áĥĵ áĥĲ
Ġà¤ ī
Ġt á»
Ġp or
Ġ Ø§ÙĨ
Ġà° Ĺ
Ľ i
Ġ à¨
Ġ /
Ġl os
é Ľ
ĠáĥĴ áĥĲáĥĽ
Ġ Ñĩ
Ġ2 0
ë °
Ð¸ Ðº
ãĤ ¯
áĥĺáĥ Ļ
í Ĭ
Î» Î¿
Ġ Ã§
æĸ ¹
à¦¿ à¦°
Ġà¤ Ń
u d
² à±ĭ
Ġd a
ĠÎ ¸
à¹Ī à¸²à¸
à¸Ńà¸ ĩà¸
Ġ Ïĩ
Ġì Ħ
ãĥ ©
à¦ ľ
ìķ Ī
à ¶
ĠÎ ·
à±įà° ª
å ¥
Ð¸ Ð¼
Ġq u
à¦ ĩ
ĠÐ Ł
Ġ× ĵ
ì ¹
Ġb e
Ġ×Ķ× ŀ×
ÑģÑĤ Ð²
Ù ĳ
v e
ë¥ ¼
Æ°á» £
ĠØ§ÙĦØ Ń
íķ ´
áº¥ t
an t
à¤ £
à°¨ à±įà°¨
Ġê ³
æīĭ æľº
Ġt er
Ùģ Øª
à¤ ľ
Ð¾Ð ±
Ġ×ľ ×Ĳ
à¦¾à¦ ¬
Ġà¤ ĩ
y m
å ĩ
Ġ ä¸
ÙĬ ÙĦ
ãģ ĵ
ÏĦ Î¬
áº¡ i
ãģ¾ ãģĻ
l y
Ïģ Î¬
à¹ ĩ
Ù ĭ
Ġï¼ ļ
Ä ĥ
ÙĪ Ùħ
à®¿à®© à¯į
à¤ ¡
à¦¾à¦ ¸
ë ³
Ġm em
Ġáĥ Ŀ
Ġ Ã©
è ¡
ãĥ ª
à¦¾à¦ ĩ
à° Ĺ
Ġ ÚĨ
Ġg i
ĠÏĥ Ïħ
×Ļ× Ł
ãģĹ ãģ¦
à¦ Ĥ
ĠÐ ¡
à®¿à® ķà¯įà®ķ
Ð¾Ð³ Ð¾
å Į
Ġà¦ ī
ĠÙĩ Ùħ
à¤ Ł
Ġ× ¡
Ġde t
Øª Ø±
c j
à¯įà® ³
ë ¶
×ł ×Ļ
à¸Ńà¸ ĩ
Ġà¦ ĵ
ĠØ± ÙĪ
ĠÏĢ Î¿Ïħ
à®¾à® ¤
ĠÐ Ĵ
×ĳ ×¨
å ¾
ãģ ķ
Ġ äºļæ¸¸
Ġpar a
Ġ 5
Ġ×¢ ×ľ
æľ ī
n ie
Î¹ Ïĥ
áĥĺáĥ ķ
Ø¯ Ùĩ
t h
ì £¼
Ġc á»§
áĥłáĥ Ĺ
c e
Ġc Ã³
áĥĶáĥ ¢
ç Ľ
à ·
ÎŃ ÏĤ
íĬ ¸
ar i
Ġà° İ
Ġà¦ Ń
a to
Ø§ Ùģ
å¹³ åı°
it h
ad o
Ġcá»§ a
í Ļ
à¦ £
ë ł
à°ķ à±įà°
Ã º
áĥĺáĥ Ľ
à§ĩà¦ ķ
à¯įà® µ
Ø ¸
à ©
ĠÄ Ĳ
àµį à´
× ļ
Ġj e
Ġ à´
Ġà®ļ à¯Ĩ
Ġç İ¯äºļ
s i
à°¾à° ¯
ãģ£ ãģ¦
Ïģ Î¯
à®² à¯į
h o
à® ª
Ġ× ĸ
äº Ĩ
à§ ľ
Ġs om
¦ à°¿
à¥įà¤¯ à¤¾à¤
Ġ R
à¯ģà® ®
a i
ou s
Ä± m
Ġà¤ Ķ
k e
Ð» Ñı
Ġp o
à¤¿à¤ ķ
ÐµÐ ¹
Ġà° ľ
ĠÎ Ķ
k y
Ġì §
Ù Ĳ
Ġv er
Ð° Ñı
2 0
Ġde l
áĥĶáĥ Ĵ
ãģ Ĥ
ĠÐ °
t re
Ä± l
Ñ į
Ø§Ø± ÛĮ
×ķ× Ŀ
Ġv oor
d er
à°Ĥà° Ł
à®¾à® Ł
å Ŀ
ap p
Ġ on
Ùĩ Ùħ
Ġà¤Ķ à¤°
è ´
ãģ§ ãģĻ
ÏĦ Î±Î¹
Ġh á»
Ġáĥ ¢
ĠØ¨ Ø§ÙĦ
a z
áĥķ áĥĺáĥ¡
ÉĻ y
à¤ ļ
Ġa u
Ð¸ Ð¸
Ġw y
Ġy ou
à¯ģà®¤ à¯įà®¤
d en
ĠìĿ ´
al e
Ġà°ļ à±ĩà°
Î¹ Î¿
ĠÙĩ Ø§ÛĮ
à±ģà°¨ à±įà°¨
áĥĶáĥļ áĥĺ
Ġ V
áĥ ¨
Ġm ed
Ġn ie
Ġà¤ ¯
ĠáĥĴ áĥĲáĥľ
à¯įà® ©
à°¿à° ¤
Ġth at
n ÄĽ
×ķ× Ĳ
à±įà° µ
æ Ģ
Ðµ Ðº
ç« Ļ
Ġp ro
ĠÏĢ ÏģÎ¿
u t
Ĺà¸µ à¹Īà¸
Ā Ā
à¦¿à¦ ²
ÎŁ Î
à¯ģà® Ł
áĥĲáĥ Ĵ
n ya
ãģ ł
áĥĺ áĥĲáĥľ
Ġ Y
a ÅĤ
ĠÎµ ÏĢ
áĥĺáĥ Ŀ
×Ļ ×ķ×ª
Ġw ith
Ù ı
áĥ ŀ
à§ģ à¦²
Îµ Î½
as i
å ±
Ð¾ ÑģÑĤ
Î® ÏĤ
à¹Į à¸
Ð°ÑĤ ÑĮ
Ġa y
Ïģ ÏĮ
Ġà¤ ı
¸ à±įà°¤
à®² à¯įà®²
Ð° Ñģ
Ġë Ĥ
à¤¾à¤ ²
Ø§ ÙĤ
×Ļ× §
ĠØ µ
áĥ ¦
áĥ £
á ł
áĥĺáĥ ļáĥĺ
¡ à±ģ
×Ļ× ĳ
b er
Õ¥ Õ
à¹ ĩà¸
ĠÏĥ ÏĦÎ¿
ãģĹ ãģŁ
h r
ëĭ Īëĭ¤
Ġà¤ķ à¤¾
à¸£ à¸²à¸
Ġ u
à§ĩà¦ ²
Ġà®ĩ à®°
ìŀ Ĳ
Ġp our
à°Ĥà° ¤
Ø§Ø Ń
Ġt e
Ġ ï¿½ï¿½
éĽ Ĩ
ç İ
à®Ļ à¯įà®ķ
à§ĩà¦ ¶
Î¿Ïħ Î½
Ã¼ r
Ø± Ø§ÙĨ
Ł à¸£à¸µ
ĠÐ ļ
áĥĲáĥ ĺ
Î Ĺ
á» ĭ
Ġà¤ª à¤°
Ã¸ r
Ġ à¹ģà¸
Ġáĥ ª
Ïģ Î³
ä¹ Ĳ
Ùħ Ø§
×Ļ× ©
i g
ģà¸² à¸£à¸
ìľ ¼
ĠØ§ÙĦØ ¨
ĠØ§ÙĦØ ¬
Ã¬ nh
ë Ŀ¼
Ð¾Ð º
ìĽ Ĳ
em ent
Ïĥ ÎµÎ¹
Î¼ Î¿
ç Ļ
d ir
Ð¾Ð ¶
à®± à¯įà®±
a tion
áĥĲáĥ ¨áĥĺ
§ à§
ĠØ§ÙĦ ÙĤ
áº ¯
Ġë ĭ
ÖĢ Õ
ĠÂ Ń
Ġãĥ »
áĥĺáĥ £áĥ
Ġà°µ à°¿à°
Ð¸ Ð»
à§ģ à¦°
Øª ÛĮ
¹ à¸
ĠÐ »
à° ļ
´ à¸
Ġà¤ª à¥įà¤°
ĠÐ¾ ÑĤ
Ľ à¸
ãģ ĳ
i en
ĠÄ °
à¦¾à¦ ľ
Ġc n
Ġáĥ §
à¥įà¤ ¤
Ġa l
à¦ ¶
l ich
ĠÃ ¨
t uk
à§įà¦ ·
a is
áĥļ áĥĺáĥ¡
åĽ ¢
Ø± Ø¨
Ġê ·
Ġì Ĥ¬
à¥ģ à¤
è Ģ
ÑĤ Ð¾
ä¸ į
ç½ĳ ç«Ļ
ĠÐ½ Ðµ
ì Ĩ
z a
Ġà¦ª à¦°
å¼ Ģ
Ġà® Ĵ
Ġà¤ ļ
ĠÏĦ Î±
Ġáĥŀ áĥł
± à¸Ļà¸
Ġs iÄĻ
Îĳ Î
Ġ O
ĠÙħ Ø¹
Ð¸ Ð¹
d ÉĻn
×Ļ× ĵ
Ĭ à¸
Ã ±
· à¹Ī
ï¼ Į
Õ¸ÖĤ Õ
áĥĲáĥ Ļ
éĻ ħ
Ġà¦ı à¦ķ
Ĥ °
ĠÎ ²
ä¸ ī
ÙĪ ÛĮ
ĥ ½
eng an
ÙĨ Ø§
Ã¢ n
v er
æ ´
ĠÏĥ ÏĦÎ·
Ġ Ø§Ùħ
ÙĪ Ø§ÙĨ
Ø³ ÛĮ
æ ķ
ä¸ Ĭ
Ġ×Ķ× Ĳ
Ġes t
Ġáĥĺ áĥ¡
Ġw h
ÑĢ Ñĥ
æ ŀ
Ġ it
Ġ ÏĨ
ãĥ³ ãĥ
à±ģà° ¤
à¦¤ à§ĩ
Ð¸ Ð²
Î» Î·
Ġë ª
å Ĵ
à¤ ¼
Ä± k
ì² ľ
ĠØ§ÙĦ ÙĨ
å® ¶
ë ŀ
Ġà¤ ¶
c t
Ġ Ñį
en ÃŃ
a Ã§Ã£o
ãĤ ¢
ĠØ§ÙĦØ ´
i ÅŁ
ÙĦ Ùĥ
å ¯
ë ©
Ġd u
o ÅĽ
Ġ J
Ġl as
Ġê ¸
æĪ ·
ĠÃ ¶
Ġs u
ĠØ¢ ÙĨ
iá» ģ
Ä± ÅŁ
á» ¯
Ġì ¹
Î± ÏĤ
Ä °
æĪ ı
Ø§Ø ¬
Ġà¦ ²
ĠÎ Ł
à®³ à¯į
ãĥ³ ãĤ
ent e
ĠÏĢ Î±
ĠØ¨Ø± Ø§ÛĮ
Ġà¦ ¥
à¸£à¸ ±à¸
ãĤ Ī
á» ±
³ à¸
ç §
×ķ× ¤
Ġë ³
Î¼ ÎŃ
Ġà° ²
éĽĨ åĽ¢
Ùĩ âĢĮ
à°¨ à±ģ
Ġì Īĺ
aci Ã³n
n a
Ã ²
ë ¬
ei t
ç İ¯äºļ
Ã© s
à¦ Ń
æ Ķ
ĠÏĥ Îµ
Ġk e
ä ¿
Î½ Î·
áĥ£áĥł áĥĺ
æ¸¸ æĪı
à°ķ à±ģ
à¸£à¸ °à¸
ĠáĥĽ áĥĿáĥ
Î¿ Î»
on i
ĠØ§ÙĦØ ¥
ĠÐ¾ Ð±
Ġ Ïħ
ÐµÐ» ÑĮ
0 0
×ķ× ©
Ġáĥ ļ
k a
à¦ ļ
áĥĲáĥ ļáĥĺ
os t
q u
å¹ ´
ĠØ§ÙĦ Ø¯
Æ°á»£ c
áĥĶáĥ ¥
± Û
à¹ī à¸²à¸
à¹Ī à¸²
c o
à¥įà¤¯ à¤¾
à±Ĩ à°²
Ġn e
áĥĽ áĥĲ
à®¿à® µ
×Ļ× Ĳ
à¯ģà® ±
æ µ
ĠÎ »
ÙĬ Ùħ
Ġm et
k i
åĴ Į
áĥĺáĥ łáĥ
Ġm eng
m e
æ İ
Ġê µ
d z
×¨ ×Ĳ
Ù Ĵ
à¦¨ à§įà¦
ĠÎ± Î½
Ġ20 1
Ä± z
Ġ 4
é Ŀ
ì Ĥ°
Ðµ Ñģ
ãĥ¼ ãĤ
åĽ½ éĻħ
Ïī ÏĤ
ìĸ ´
j Äħ
Ġun tuk
à ª
ij k
Ġ ÑģÑĤ
áĥĶáĥĳ áĥ£áĥļáĥĺ
à¦ §
Ġ. .
ÏĦ Î®
à±įà° ļ
el l
à¹Ħà¸ Ķ
çī Ī
Ġg e
Î¿ Î½
n o
Ġà¦¸ à¦®
×ķ× §
Ùħ Ø§ÙĨ
Ð¸ Ñĩ
Î¬ Î½
ĠÚ© ÙĨ
Ġì ¶ľìŀ¥
áĥĶáĥĳ áĥĺáĥĹ
ãĥ ¬
Ġd engan
Ġ as
Ġà¦¹ à§Ł
í Ķ
æ °
à¤¿à¤ ²
ij n
¹ Ħ
à°² à±ģ
à°ª à±įà°ª
ÉĻ h
à¤¾à¤ ¤
çľ Ł
ë§ Į
à¤¿à¤ ¤
æ ł
à¹ī à¸²
Ġìŀ Ī
à®¾à®° à¯į
í ĸ
é ¢
Ø ¦
Ïģ Îµ
Ġà®ª à¯ĭ
Ġm Ã¼
Ġà¤¹ à¥ĭ
áĥĲáĥ ĸ
×ķ× ¢
áĥ£áĥ łáĥ
u j
áĥĲáĥ ¨
á» ¥
Ã ¦
à°² à±ĭ
Ġin i
Ġn o
Ġáĥ¡ áĥĲáĥĽ
à®© à¯įà®±
áĥĶáĥľ áĥ¢
Ø¨ ÙĬ
á» ©
¯ ¸
à®¿à®¤ à¯įà®¤
Ġë ĮĢ
ÏĦ ÏĮ
Ġà®ħ à®µ
Ġà¦ ĩ
æĹ ¥
Ġì ĥ
áĥ® áĥķ
áĥĲáĥ ¥
à®¾à®© à¯į
ĠØ§ÙĦ ÙĦ
ĠÏĦ ÏīÎ½
ak an
Ġun e
ar a
lÉĻr in
Ùħ ÙĦ
ÙĨ Ú¯
à¦¾à¦ ¹
è Ĥ
Ð°Ð ´
ÉĻ b
á»Ļ t
à¯ģà® ³
ÙĢ ÙĢ
an d
c k
ĠØ¹ ÙĨ
ÐµÐ ²
à§ĩà¦ Ľà§ĩ
Ġa ll
Ġd as
ç Ĳ
à®¾à®² à¯į
Ïĥ Îµ
áĥ ĸáĥĶ
u p
Ø¨ Ø±
ĠÄ į
Ġà¦ «
æ Ń
à§ ¦
ë ª
ãģ Ĭ
Î» Îµ
es t
Ġ are
Ġc Ã¡c
à°¿à°ķ à°¿
Î¯Î½ Î±Î¹
ë ĮĢ
å®ĺ æĸ¹
ĠØ§ÙĦ Ùģ
d i
à°¿à° ¯
g en
6 5
Î» Î±
à¤¤ à¤¾
a u
í ĺ
Ø¹ Ø¯
Ġkh Ã´ng
æ ĭ
Ġ Ã¼
i nh
ĠTh e
ê³ ¼
Ġà¤¹à¥Ī à¤Ĥ
å ĳ
×ķ× Ĺ
ê² Į
ĠØ ·
Ġë ¶
ĠÙħ ÙĪ
áĥĺáĥ ĸ
í Ĩ
ê± ¸
Ġi Ã§
Ħ à¸£à¸
ìł ķ
ÛĮ Øª
Ġch o
Ġà§ ¨
Ãł y
Ð¾Ð» ÑĮ
çº ¿
è Ī
è ¨
áĥĶáĥ Ŀ
Ĺà¸µ à¹Ī
à°Ĥà° ¡
Øª Ùħ
es s
åĿ Ģ
ãģª ãģĦ
ìķĪ ë§Ī
ÎĻ Î
ìĦ ±
Ġê· ¸
Ġ íķ
ìĹĲ ìĦľ
Æ ı
×ķ× ¡
à°¿à° ª
à¸Ń à¸Ļ
Ġáĥ¡áĥĲáĥ ¥
Ġà®ķ à¯Ĭ
ä¼ ļ
à¤¾à¤ Ĥ
Ġun a
ÙĬ Ø§
à±įà° ¸
ľ à¸
áĥĺáĥ ¨
à¥įà¤ Ł
á» Ł
åİ ħ
Ø± Ø©
ëĵ ¤
ĠØ¯ Ø§ÙĨ
ĠÛ ±Û
áĥĿáĥ ¤
an o
à¯ģà® ¨à¯įà®¤
áĥķ áĥĶáĥľ
ĠÚ© Ø±Ø¯
ìľ¼ ë¡ľ
Ġh ar
Ġm it
Îº Îµ
Ġ or
Ø° Ø§
ãģ£ ãģŁ
à¤¿à¤ ı
ĠÐ¿ Ð¾
à±įà° ®
ĠØ¥ ÙĦÙī
ĠÄĳ Æ°á»£c
on o
Ã ¹
è ¦
ich t
ĠÐ Ŀ
Ð¸ ÑĢ
ÐµÐ ³
Ġa b
à± Ĥ
Ġp l
à° ¹
áº ·
ìķ Ħ
à§ ĥ
æĸ °
c a
ÃŃ a
Ġà¦ ĸ
à° ľ
t y
Ġì ľ
Å¼ e
Ġà¤ĩ à¤¸
Ġv on
Ġ ri
à¤¿à¤¯ à¤¾
à¤¿à¤ ¸
ĠâĢ ľ
Ġê° Ģ
Ġp r
íĻ Ķ
Å Ħ
à¯Īà® ķ
ĠâĢ Ŀ
à§ Ĥ
å½© ç¥
çĶ ¨
Ġà¤¨ à¥ĩ
à¤¹ à¥Ģ
Ġz u
áĥ ĸ
o t
ĠÐ ł
Ġ× ¦
ĠÎµ Î¯Î½Î±Î¹
Ġáĥ¨ áĥĶáĥĽ
O M
ĠáĥĶ áĥłáĥĹ
à¦Ł à¦¿
ĠÏĢ Îµ
ä¸ º
ĠÐ ľ
Ġ×Ķ× ©
ì ½
ÙĪ Ø²
ï ½
å ¨
i Ãªn
ĠØ§ÙĦØ ®
åħ ¬
ĠÛĮ Ú©
áĥĲáĥł áĥĺ
ë ²
ÐµÐ½ Ð¸Ñı
Ġd Ã©
ad e
Ġp a
à¤¾à¤ ®
on es
li g
à§ĩà¦ ĩ
er e
Ġà¦Ĩ à¦®
j on
Ġs ur
äº ¬
à¯ģà®ķà¯įà®ķ à¯ģ
Ð¸ÑĤ ÑĮ
Ġd en
Ġg Ã¶
×Ļ ×Ļ×Ŀ
ĠÙħÛĮ âĢĮ
à±ģà°² à±ģ
å¤ ©
ÙĬ Ø³
ch en
áĥ ¤
ģà¸² à¸£
en to
± à¸Ļ
Ùħ ÙĨ
à°¾à° Ĥà°
ĠC OM
Ð¸ Ð·
æĹ¶ å½©
ĠÐ ŀ
Î ¡
ÛĮ Ø´
n Ã©
ì Ļ
×Ļ× ¢
Æ° Æ¡
áº§ n
à¦¾à¦ ª
ìĥ µ
ļ à¸Ńà¸
ÙĦ Ùħ
à´ ¿
Ġ ÅŁ
Ø± Ùĥ
i h
Ð¾Ð ·
lar Ä±
Ġ" :
Æ°á» Ľ
l a
ë¶ Ģ
ĠØ¨ Ø§Ø²
Ġv y
åľ °
à°¾à° ¤
è½ ¦
çĻ »
Î¯Î± ÏĤ
é ĸ
Ġà¦ Ľ
Ð°Ð» ÑĮ
Ø ¥
Ġtr ong
à°¿à° ²
ãĢ ĳãĢĲ
ìł ľ
ĠØ§ÙĦ Ùĥ
£áĥ ļ
áĥĺ áĥĺáĥ¡
Ï Ī
à¤¨ à¤¾
ä¸ ª
ĠÐ² Ñĭ
Î¿Ïħ ÏĤ
ĠÎ ĵ
iá»ĩ n
ãģĻ ãĤĭ
Ġà®İà®© à¯įà®±
n i
ÉĻ d
à°¿à° °
ÏĥÎ· ÏĤ
æĹ¶ æĹ¶å½©
ìĥ ģ
à¤ §
s z
Ðº Ð°
Ġdell a
9 9
à®¾à® µ
á» ĩ
Ðº Ð¸
en e
ler i
Ġ U
ìł Ħ
éĹ ¨
à° ¬
W W
à§įà¦ ª
Ġo d
à°Ł à±įà°Ł
ëħ ¸
Æ°á»Ŀ i
ë į
Ġ× ĺ
ëĤ ĺ
ĠÎ± Ïħ
° à¹Ģà¸
ä» ¥
Ø§Ø± Ø¯
ãģ ©
à§įà¦ ¥
Ġà®ħ à®¤
e er
Ð°Ð ±
çĶ µ
ĠØ§ÙĦØ µ
å ĵ
ĠW WW
Ä±n da
in i
Ġà®ļà¯Ĩ à®¯
Å¾ e
à°Ĥà° ²à±ĭ
ãģĭ ãĤī
al i
í ĥ
à°¾à° ®
Ġa an
è¡ Į
es i
Ġë ı
ãģ Ī
ä½ ĵ
Ð½Ñĭ Ðµ
iy y
Ġ×Ķ ×ª
×ķ× ŀ
Ġì¹ ´
í ı
Ġm á»Ļt
« áĥļ
áº¡ n
as Ä±
Ïģ Î·
à°¾à° Ł
ÙĦ Ø§
Ïģ Ïī
ÙĤ Ø¯
Ġà° Ī
à¦¿à§Ł à§ĩ
ĠÐ µ
ãĤ ģ
Ġs k
ĠÎ ¬
à¯įà® ®
Ġà¦ Ł
e j
ad a
Ã µ
ĠÚ© Ø§Ø±
Ú¯ Ø§Ùĩ
Ġs i
Ġà¦¬ à¦²
Ã¡ v
Ø¹ Ø©
Ø§ÙĨ ÛĮ
1 0
Ã¡ s
ti ng
Ġà¦ħ à¦¨
ou t
¡ à¸²à¸
Ġà§ §à§
å® ¢
Ġ×ŀ× ©
at a
à®¾à® ¯
Î ¤
áĥĲáĥłáĥĹ áĥķáĥĶáĥļ
Ġìķ Ħ
Ġvá» Ľi
à¤¾à¤ ¯
Ġê¸ °
ä¸ ļ
¡ °
Ġng h
Ġ×ŀ ×Ķ
Ġà¤ «
ĠØ§ÙĦ Ø±
Ġ×Ķ× Ĺ
Ð½Ñĭ Ñħ
à¦¿à¦ ¬
Å¡ ÃŃ
à° £
Ġs p
×Ĺ ×¨
Ġis t
ĠÏĦ Î¹
Ġå ħ
ë Ł
Ġáĥ ĸ
Ġs t
Ú ĺ
ĸ à¸
ìĨ Į
Î Ŀ
Ãµ es
ãĤ Ħ
s e
Ġ×ĳ ×Ĳ
×ķ× ¦
ĠÎ¸ Î±
åľ¨ çº¿
c y
z ÉĻr
ë Ĳ
± ä¹Ĳ
ci Ã³n
í ħ
ĠáĥĶ áĥ¡
æ ²
ĠØ® ÙĪØ¯
Ġ Z
à°¾à° ķ
Ã½ ch
Ġìł Ħ
ĠD e
Ġd ari
in in
é Ĵ
Î¹ Î¬
Ġf Ã¼r
Ø§Ø¯ Ùĩ
æ³ ¨
al am
o k
ĠÙħ ØŃ
æĿ ¥
à¹Ħà¸ ¡
iá» ĥ
Ð¸ Ñħ
çĶ Ł
à¦ ¯à¦¼
à¦ ¥
il l
Ġum a
ÐµÐ ·
Ð¾Ð ¿
Ġa uf
Ġ ;
à°ķà±įà° ķ
Ġ×ķ ×Ķ
ĠÏĥÏĦÎ· Î½
Ġ íķĺ
ĠiÃ§ in
ĠÙĨ Ùħ
Ġb u
Ġy our
à§ĩà¦ Ľ
ĠÏĦÎ¿ Î½
é ģ
Ð°Ð ¹
èµ Ľ
ãĥ ķ
êµ ¬
×ķ× Ĵ
Ġà° Ń
áĥĺáĥ¡ áĥ¢
ãģĵ ãģ¨
Ġy ap
Ġë ¬
åĽ ¾
Ġà¸ ªà¸
m a
ìł ģ
êµ Ń
áĥĲáĥ ¤
×Ļ× ĺ
å½ ķ
Ġà¤ı à¤ķ
§ à¸²à¸
ç ¾
ľ ê±¸
iá»ģ u
6 6
Ġï¼ ī
Ġì ļ
Ð½Ñĭ Ð¹
ÙĤ Ø©
Ġà¤ ¥
Ã Ł
Æ°á»Ŀ ng
c ie
Ľ à¹ĩ
áº£ i
ÅĻ ÃŃ
áĥĿáĥ ª
, "
æ ¬
×© ×¨
à®¾à® ³
Ġà° ¶
ĠÎ Ĺ
Ø ¤
áĥĲáĥ ĳ
Ġe x
×Ļ× ŀ
à®Ļ à¯įà®ķà®³
Ġn on
Ùħ Ø©
å¿« ä¸ī
Ġdan s
à¤¿à¤ ¨
Ð¸ Ñģ
á» į
å Ł
áĥĹ áĥĲáĥľ
å¨ ±ä¹Ĳ
u h
Ã¥ r
ļ Į
Ġà® °
Æ°Æ¡ ng
Ãł ng
ĠC h
Ġì ĸ
in e
áĥĲáĥ ĸáĥĶ
à±ģà° °
Ġà®ª à¯Ĩ
Ġd at
ÑĢ Ð°
Ġà¦ķà¦° à§ĩ
×Ļ× ¤
Ġ ro
´ Ģ
Ġí Ļ
ÙĦ Ø©
Ö ģ
Ú¯ Ø±
Ø§Ø µ
Õ¸ Õ
lar Ä±n
ĠÐ Ĳ
ĠÙģ Ø±
Ġà¤ ĸ
Ġm ag
à¦¬ à§ĩ
Î± Ïĥ
Ġà° ¹
Ð½ Ð¾Ð¹
ãĥ Ń
Ġáĥ «
à°° à±į
ow an
ë³ ´
à¦¿à¦ ¸
à®¿à®Ł à¯įà®Ł
è ĩ
ĠÐ Ķ
áº£ n
Î¸ Î·
er s
Ġáĥ¨ áĥĶáĥ
ĠáĥĲáĥ ĵ
in dÉĻ
Ãł nh
ìļ Ķ
Ġå °
à¦ķ à§ĩ
à°¾à°² à±ģ
à°Ĥà° Ĺà°¾
Ġìĭ ľ
áĥ£áĥ ľ
Ġk ung
áĥĿáĥĳ áĥĺáĥ¡
Ġ×Ķ× ¢
Ġ ar
t p
×ł ×ķ
ãģ ¤
ĠáĥĹ áĥĲáĥķ
à¦ ĸ
Ġï¼ Ī
Ġå ½
ĠãĢ į
e y
Ġì§ Ģ
ĠÎ´ Î¹Î±
à¸Ļà¸ µ
ãģ ¡
ĠÙĩ Ø§
Ġh a
Ġ os
id ad
Ļ à§įà¦
l ÉĻ
e c
×Ļ× ¡
ì§Ģ ëħ¸
i er
à¥įà¤ µ
Ø§ Ùĭ
Ġ om
ØŃ Ø¯
Ġ ÑĦ
ĠÂ »
Ġà®µ à®°
Ġà®Ĵ à®°
åį ķ
ìĹ ħ
è ĥ½
k ke
Ġk i
è§ Ĩ
Ġáĥĺ áĥľ
y o
ĠáĥĴ áĥĲáĥĵ
ĠÏĦÎ¿Ïħ ÏĤ
Ġáĥĺ áĥĽ
Ġf r
ti v
ÙĪ ÙĤ
éĢ Ł
ĠÂ «
Ġ Ø§Ø±
Î¹Îº ÏĮ
è ¾
à®¾à® ®
Ġí ĺ
Ġng Æ°á»Ŀi
çī Į
al ah
ÛĮ Ø²
å¿« 3
ÙĬ Ùģ
à¹ĥà¸ «
im ul
Î¿ ÏĤ
áĥĶáĥł áĥĺ
Ġh t
Ġ×© ×Ķ
on t
/ /
æ £
Ġ: //
áĥĿáĥĳ áĥĲ
ãĢ Ĥ
Øª Ùĩ
o b
à°ļ à±įà°ļ
Ġ áĥĲáĥľ
Ġ Q
ãĤ ·
Ð° ÐµÑĤ
×ľ ×Ķ
ÙĪ Ø´
ä½ ľ
ãĤ ¿
à®³ à¯įà®³
Ġ": "
Ġo b
Ġ =
áĥĲáĥ ¦
ĠÙħ Ø§
Ã¡ ch
à¸Ļ à¹Ģà¸
Ġ×ĳ ×¢
ìļ ©
¤ ĳ
Ã¡ l
Î¿ Î¹
Ð½Ð¾ ÑģÑĤ
ÏģÎ¹ Ïĥ
Ġd ÉĻ
à¦ ĵ
åĩ º
á»¯ ng
Ãł n
d an
à®¿à® ªà¯įà®ª
Ġ Ô
×Ļ× Ľ
çľŁ äºº
n ing
é ¡
åĪ °
åĪĨ å½©
ĩ à¹Ģà¸
å¸ Ĥ
èµ °
à§ĩà¦ ĸ
Ġå ı
ãģ Ľ
ĠS ch
ëı Ļ
×Ļ ×ķ
ç« ¯
Ġà®µ à¯ĩ
æ ±
Î¸ Îµ
Ġ ut
Ġht tp
Ġp as
ĠÐ¸ Ð·
Ġi m
ãĥ Ĺ
Ĺ äº¬
at e
Ãł i
è¦ ģ
ĠáĥĲáĥ ¡
Ġl o
à°¾à° µ
ĠâĢ ŀ
à´¿ à´
Ġag çİ¯äºļ
ĠØª ÙĪ
ç½ĳ åĿĢ
Ø§ÙĨ Ùĩ
g i
Ø§ÛĮ ÛĮ
åĬ ¿
al a
Ùĥ ÙĨ
c ÃŃ
ĠÎ Ŀ
è ī
à¯ģà® ªà¯įà®ª
å½©ç¥ ¨
×¤ ×¨
Ã¼ k
i b
g h
à±ģà° µ
à¤ Ī
ÐµÐ½ ÑĤ
é ĺ
k u
ì Īĺ
Ð½ Ð¾Ð³Ð¾
Ø± Ú©
áº§ u
á ½
Ġáĥ¨ áĥĶáĥ¡
en ti
×ŀ ×Ķ
Ġë ĵ
ĠÙĪ Øª
ÏĥÎµÎ¹ ÏĤ
à¦¨ à§įà¦¤
à° ³
à¤ ¶
Ġìł ľ
ĠØ¢ Ùħ
Îº Î±
à¤¤ à¥ĩ
ĠÙĦ Ø§
ÐµÐ½ Ð¸Ðµ
Ġnh Æ°
ĠÎ± ÏĢÎ¿
Ġ íķľ
Ġm ay
à±Ī à°¨
ë© ´
Ø² Ø§Ø±
çĲ Ĩ
c c
l d
ĠÙħ Ø¯
Ġà¤ķ à¤¿
í Ħ
Î¹Îº Î®
Ġà¤Ń à¥Ģ
ç Ń
ch e
×ķ× Ľ
çĻ» å½ķ
á» ĵ
Ġà¦ľ à¦¨
Ġ×ĳ ×ŀ×
Ñĥ ÑĤ
æ Į
Ġz ijn
cz y
×ł ×Ķ
Ú© ÙĨ
à ¬
áĥĲáĥ ¬
Ġà¸ ª
ĠìĿ ´ë
ov Ã¡
imul yo
¾ ³
é¢ ĳ
Ú¯ ÛĮ
Ġ×Ļ ×©
×ľ ×Ĳ
Ø§Ø ®
ĠØ´ Ø¯
æ ĥ
ãĤ £
ĠØ´ Ø¯Ùĩ
Ġj est
Ø¨ Ø©
à° §
ĠãĢ Į
Ġà®ĩ à®¨à¯įà®¤
w a
ol o
ĠÐ´ Ð»Ñı
ou n
è® ¡
ä ¾
ag e
Ġp en
¶ Ķ
Ø§Ø ·
Ġis ang
z e
ìĺ ¤
Ð°Ð ¶
Æ°á»Ľ c
ìĿ´ íĬ¸
à¥ Į
ĠáĥĲáĥ ¦
in de
áĥł áĥĿ
Ġáĥ ¯
ãĤ ı
Ã¢ y
ëĭ Ī
ģ à¸£à¸
Ñİ ÑĤ
æĪ Ĳ
Ġc u
r ei
à°¿à°Ĥà° ¦à°¿
Û °
Ïģ Ïĩ
æ´ ²
ª à¯į
áĥķ áĥļ
ãĤ ³
Ħà¸ §à¸²à¸
Ñĥ Ð´
à¯Īà® ķà¯įà®ķ
à§ĭ à¦¨
Ġìĺ ¤
7 7
à¹Ħà¸Ķ à¹ī
ë ¹Ħ
ãģĦ ãĤĭ
ãģ ¿
ĩà¸ ´
lÉĻr i
Ġëª ¨
å®¢ æĪ·
Ġng ud
Ġngud imulyo
Ġs h
ĠÄĳ á»Ļ
Ġ 9
Ġìł ķ
it Ãł
à¤¾à¤ ¦
Ġ×Ķ ×¨
ÏĢ Î±
Ġæ ľ
ĀĀ ĀĀ
Ġà¤² à¤¿à¤ı
Ġ×Ľ ×ľ
ĠØ º
áºŃ n
« ĺ
Ã© e
Ġà¦¬ à§įà¦¯
à§ģ à¦¨
à¯ĩ à®°
ì °
al es
å ł
ĠáĥĲáĥ łáĥ
Ĥ à¸
er k
v en
Ġà¦¨ à¦¾
à¤ Ń
Ġb y
ĠâĢ ĵ
ĠÎ ®
à±ģà° Ĺ
ç ł
ĠA n
ĠØ¨ ÙĪØ¯
Ã´ i
à° Ń
áĥĹ áĥķáĥĺáĥ¡
à¹ĥ à¸Ļà¸
å ī
Õ µ
Ġa k
à¤¾à¤ ¸
ĠØ§ÙĦØª ÙĬ
èĤ ²
Ġm as
Ġha ve
b ay
Ġáĥ¡áĥĲáĥ¥ áĥĲáĥłáĥĹáĥķáĥĶáĥļ
ĠØ§ÙĦØ °
ÙĬ Ø¹
5 5
Ġå ĩ
è§Ĩ é¢ĳ
Ġm o
an h
ìĬ µ
Ġáĥ£áĥ ľ
n y
à¤° à¥Ģ
Ġê² ĥ
ĠÐ ¢
ëĤ ¨
à°¾à° ¦
Ö Ħ
Ã© r
à®¿à® ´
o p
Ã¦ r
c an
à°¿à° Ĺ
Ġ ï
à°¨ à±į
Ġn Ã£o
r es
ĠáĥłáĥĿáĥĽ áĥĶáĥļ
» ¿
ch t
ÙĬ Ø§Øª
ç¥ ŀ
Ġì Ĩ
à¯ģà®³ à¯įà®³
Ġáĥ¨ áĥĶ
Ġáĥ¡áĥĲáĥ ®
ĠØª Ø§
ä¸ ĩ
ÑĨ Ð¸
Ġà¦¬ à¦¾à¦
Ø§Ø ¶
a x
å· ¥
à¹Ī à¸Ļ
æĹ Ĺ
Å¼ y
Ð° ÑģÑĤ
Ø¹ ÙĦ
à§Ģ à¦°
à®ªà¯įà®ª à®Ł
áº¿ n
Ð¾ Ñĩ
Ġnh á»¯ng
Ġc an
à¥ĩà¤ ¶
ĠÙħ Ø´
Ķ à¸´à¸
¡ à¸µà¸
ĠT r
à§įà¦ ²
ĠÐ ¶
al ar
ÙĬ Øª
ĠáĥĽ áĥĺáĥ¡
Ġè ¿
á» ķ
Ġà° ı
Ġáĥĺ áĥ§
à®¤à¯įà®¤ à®¿à®²à¯į
Ġ×Ķ× ŀ
Ġqu i
Ġà¦ ¡
Õ¥ ÖĢ
ëĵ ľ
ãĥĥ ãĥĪ
Ġ×ŀ× Ĳ
ci a
Ġw as
à§ĩà¦ķ à§ĩ
¾³ éĹ¨
Å ©
áĥł áĥĺ
it y
áĥĲáĥ Ŀ
Ġh o
å®¢æĪ· ç«¯
Ġ ?
iáº¿ t
Ġ us
p p
ÏĢ Îµ
Ġà¦¤ à¦¾à¦°
bay can
ĠS t
Õ¡Õ ¯
ĠáĥĲáĥ ®
Ġk o
ĠØ£ ÙĪ
g e
Ġãģ Ŀ
Ġ à¹Ĥà¸
· à¸Ńà¸
Ġ×Ķ× ĳ
ĠÙĪ Ø£
Î¼ ÏĮ
Ġà° Ł
å ĭ
Ġ ]
èĪ °
à®° à¯įà®ķà®³
å° ı
Ġj s
á» Ń
& #
Ļ Ĥ
íĦ °
am a
Ļà§įà¦ Ĺ
ì½ ľê±¸
Ġth is
Ġn ag
w i
à°¿à° µ
áĥĲáĥ £áĥ
Ġfr om
Ð¸ Ð´
à¦ķ à§įà¦·
Ġj ak
ÄŁ Ä±
Ġk an
åĲ Ī
áºŃ t
à¤¾à¤ ľ
ĠÎ´ ÎµÎ½
ĠØ§ Ùģ
Ġz a
ç Ĥ
Ġå Į
el er
a j
Ġ Æı
ļ à¸²à¸
ie j
ĠÎµ Î½
Ġi kke
Ġw e
Ã¼ m
Ġp od
Ø± Ùģ
× £
ĠØ¨ Ø§Ø´
å Ģ
ļà¸Ńà¸ ¥
à§įà¦ ®
à¹ī à¸Ńà¸
on s
Ġp i
à¤Ĥ à¤Ĺ
y or
à¹Īà¸ ĩà¸
áĥĺáĥĵ áĥĲáĥľ
à¦ Ľ
ë ¯¸
ÄŁ i
Ġs eb
oÅĽ ci
g li
æ³ ķ
æĹĹ èĪ°
à®® à¯įà®ª
ĠE n
Ġáĥ§ áĥķáĥĶáĥļ
Ġëĭ ¤
ê ·
Ðµ ÑģÑĤ
é ĥ
é ¾
s o
áĥĿáĥ Ĺ
Ġs er
ĠA zÉĻr
Ã§ Ãµes
Ġ×¢ ×Ŀ
ÉĻs i
Ġ 8
áĥļ áĥĶáĥĳ
¥à¸ °à¸
an do
1 1
n en
Î´ Î¿
Ïĥ Î±
à¤ķ à¥įà¤
Ã¡ n
il m
èµ° åĬ¿
Ġs ch
d Ä±r
æ ¯
à¥ ī
í ļĮ
Ġì Ĭ
ÙĨ Øª
ĠÎ¿ Î¹
ĠÎµ Îº
2 2
åľ º
ĠÏĦÎ¹ ÏĤ
ĠØ§ÙĦ ÙĪ
åĬ ¨
ĭ à¸
Ġ×ľ ×ŀ×
Ġu it
Ġà¦ı à¦¬
à§ĩà¦ Ł
åŃ Ĳ
am p
Ð¸ ÑģÑĤ
×ª ×Ļ
u x
ĠD et
Å ŀ
Ġà¦¨ à¦¿à¦
ho k
ĠÄĳ Ã£
åħ ¨
å¤ ļ
à¤ķ à¥ĩ
ĠÐ ĺ
or e
r y
à®° à¯įà®ķà®³à¯į
ĠìĿ ¸
Ø± Ùħ
ĠÑĩ ÑĤÐ¾
ÙĦ ÙĪØ¯
Ã¶ v
äºļ æ´²
à¦ķ à§įà¦¤
à¤¹à¥Ģ à¤Ĥ
Ġ×ĸ ×Ķ
æľ Ģ
t Ã³
Ðµ ÑģÐº
Ġa p
è ģ
ad i
ìĽ Ķ
ĠÏĥÏħ Î½
Äĥ ng
Ġà° Ĵ
ç ®
Ġ 6
à¦¾à¦ Ĺ
Î¼ Î¬
Ġprz y
Ġil ÉĻ
u re
Ġ ou
×ĳ ×ľ
Ġ×Ķ× ¤
ĠÎ Ĵ
Ġ×ŀ× ª
ÙĨ ÙĬ
Ñĥ Ñİ
Ġà°ļ à±Ĩ
p er
u b
Ġr Ã©
Ġæ ¾³éĹ¨
ìĹ ¬
Ïģ ÎŃ
Ïģ Ïİ
zi oni
à¤¡ à¤¼
çİ °
Ã¼ z
ç ´
ìĤ¬ ì§Ģ
ä¹ ħ
Ø§Ø± Ùĩ
Ġå½ ©
ÃŃ nh
ÙĨ ÛĮ
áĥĶáĥĳ áĥ£áĥļ
à§ĭ à¦Ĺ
æĬ ķ
Õ¡Õ µ
Ã¡ ri
èµĽ è½¦
Ġil e
ĠÄĳá» ĥ
å® ī
r ij
Ġå ®
u z
à®¾à® ®à¯į
ĠÐ¿ Ð¾Ð´
íħ Ķ
Ġop p
à¯ģà® °
et t
í Į
Ġn icht
ic a
ãĥĥ ãĤ¯
Ġà¤µ à¤¿à¤
Ī à¸²à¸
ĠÙĦ Ùħ
áĥ£áĥ Ľ
íķĺ ëĬĶ
Ġ" ,"
±à¸ ĩà¸
ÅĤ a
ĠØ °
ĠÎŃ Ïĩ
Ñı ÑĤ
ĠÎ± Î½Î±
é ľ
in d
Ġd al
Ŀ i
×Ļ× ¦
ĭ çīĮ
è ²
ĠãĢ ĳ
à¸£à¸ ´à¸
Ġn i
n ik
Ġà°¸ à°Ĥà°
ĠØ¹ ÙĦÙĬ
f f
Ġ3 65
Ġà® ı
è ª
à°¾à° Ĺ
é¾ Ļ
Ġv Ã½
åŃ ¦
ad os
ç ¨
id ak
à°¿à° ¸à±įà°¤
ow e
à¦¦ à§ĩà¦°
×Ļ× Ĺ
à¤¾à¤ ¹
Ñĥ ÑĢ
in di
ĠáĥĲáĥ ¥
Ġê² ½
ĠÎ¼ ÎŃ
ç µ
ĠE l
Ġìŀ Ĳ
ãĥ Ĩ
Ġnie t
×¨ ×Ļ×Ŀ
Ġ ä»
ĠP h
ÏĦ Î¯
Ġå Ī
Ġb ij
Ġ×Ķ× ł
Ð°Ð ¿
Ġprz e
a it
s en
åĨ Į
äº İ
Ä±n Ä±
Ġw ill
ÙĪØ± Ø¯
à¤¸ à¥ĩ
Ġthá» ĥ
Ġà¦¸ à¦Ĥ
ĠÑĢ Ð°Ð·
åĬ ł
Õ ¿
Ïĥ Î¹
áĥĺáĥ Ĵ
¡ à°¾
c ak
àµ ģ
áº¿ t
Ġ; &#
Ġí ı
âĢĮ ÙĩØ§ÛĮ
Ġf ra
ĠAzÉĻr baycan
id ade
à±įà° ¦
Ġm ais
Ġë° Ķ
Ġà¦¥ à§ĩà¦ķà§ĩ
Ġæ Ī
é «ĺ
à®¾à®Ł à¯įà®Ł
à±ĩà° ¦
Ġà¦ı à¦ĩ
ÙĤ ÙĬ
Ðµ Ñĩ
à¦ «
Ø¯ Ø©
à°¾à° ľ
ãĤ «
m ent
Ø§Ùħ Ùĩ
a o
Ġ×ĳ ×©
à¨ ¾
e e
v ÄĽ
à°¿à° ®
æīĭæľº çīĪ
Ġ×ŀ× Ĺ
ĠØ³ Ø§ÙĦ
ĠØ® ÙĪ
Ġì ²
n Ã¡
Ð¾Ð² Ð°Ð½
Ġì °
Ġv ous
ÏĦÎ± Î½
ap at
Ġ×Ĳ ×ľ
ä¹ Ī
Ġc z
åı ¯
×¨ ×Ľ
æ£ ĭçīĮ
à°Ĥà°¦ à°¿
à§ĩ à§Ł
Ø¨ ÛĮ
Ġ×ķ ×Ĳ
Ġs ich
Ġt ak
à®Ł à¯ģà®¤à¯įà®¤
l o
cj i
is a
ĠØ¯ Ø³Øª
à¤ ı
Ġw or
k er
li k
Ġ 7
Ġà®¤ à¯Ĭ
æĸ Ļ
Ġk tÃ³
à¦¾à¦ ¶
Ġà¦Ĩ à¦°
á»ĳ i
Ġà°¤ à±Ĩà°²
à±Ĥà° °
d u
áĥĺáĥļ áĥĺáĥ¡
ĠÐ ĳ
Ġà¤° à¤¹
ãģ¾ ãģĹãģŁ
ìĸ ĳ
Ġà®Ĵà®° à¯ģ
ang an
×Ļ× ļ
áĥĲáĥľ áĥĺ
ìĭ ł
ĠØ§ÙĦØ ·
f or
ĠØª Ø¹
ÉĻ ti
á Ł
à¦¾à¦¦ à§ĩà¦°
Ġà®µ à¯Ĩ
å ģ
£áĥ ļáĥĺ
ÛĮ Ú©
ãģ® ãģ§
an ya
è ·
ãĥ ¡
åı Į
à®¿à® ļ
Ġà°ķ à±Ĭ
Ġk ter
Ġà¤ħ à¤ª
éĥ ¨
ĠØ´ Ùĩ
r as
à¯Īà®¯ à®¿à®²à¯į
à¦² à§ĩ
Ġbu hok
Ġà¤¸ à¤®
ä¹ ĭ
áº ©
ĠÃ ĩ
Ġ.. .
Ľ Ħ
ĠÕ °
çľ ĭ
Ġw ir
Ġà®¨ à®Ł
à±įà°² à±ĭ
Ñĥ Ñĩ
æ³¨ åĨĮ
Ġg j
k o
Ùħ Ø±
à¹ Ĩ
Ġà°ħ à°¨
à¯Ī à®¤à¯įà®¤
em b
×Ľ ×ľ
Ġj u
Ð½ Ð¸Ðº
áĥķ áĥĶáĥ
ĠÑģ Ð²
id e
Ġa us
ĠØ§ÙĦÙĦ Ùĩ
ĠV er
à®ªà¯įà®ª à®Łà¯įà®Ł
áĥĲáĥĵ áĥĴ
Ø§Ø± Ø©
Ä± s
à®© à¯įà®©
ur s
ìĬµ ëĭĪëĭ¤
Ġï¼ ģ
ÏĨ Î¿
ç Ħ
ëħ Ħ
Ġd alam
at ie
i an
ÙĪ Ø¹
ov Ã©
Ġà¦ªà§įà¦° à¦¤
ãģ¨ ãģĦ
Øª ÙĬ
¥ à¸²à¸
Ľ à¸£à¸°à¸
e ar
Ø¨ ÙĦ
ĠÎ Ļ
à¤¤ à¥Ģ
Î Ľ
Ġå į
à° ·
Ġpl us
ĠÐ± Ñĭ
Ã¹ ng
ãĥ £
ĠI n
Ġãģ ĵ
Ġï »¿
Ð°Ð ³
à§ĩà¦ ¤
ĠÎ ¹
èµ°åĬ¿ åĽ¾
Ø° Ùĩ
à®Ļ à¯įà®ķà®³à¯į
Î ł
Æ¡ n
n ych
Õ¡ ÖĢ
Ġ×ŀ× ¢
ĠÐ¿ÑĢ Ð¾
· à¸Ń
à°¾à°¨ à°¿à°ķà°¿
³ Û
ĠN h
el ijk
ÙĪ Ø§
Ġs c
áĥĲáĥłáĥ ĵ
áĥĶáĥ¥ áĥ¢
ģà¸ ±à¸
áĥĲáĥłáĥ Ľ
Ġà¦ ĺ
ÙĨØ¯ Ùĩ
Ġv o
ĠÎµÏĢ Î¹
ãĥ ŀ
áĥ£áĥ Ĺ
à´ ¾
à°¾à° ¸
Ùĥ Ø±
æ Ħ
à±Ģ à°¸
Ø³ ÙĦ
×ĵ ×Ļ
Ġì £¼
à® ¸
æľ Ī
à¤¾à¤ ļ
ie m
ä½ĵ èĤ²
ÐµÐ ±
ìĻ Ģ
Ùĥ ÙĦ
à¦¿à¦ ¶
Ġà¤ ¡
à¤¾à¤ µ
¶ à¸
Ġcom o
¡ à¸²
Ġà®ķ à¯Ĥ
ĠáĥĽ áĥĲáĥĴ
in ÉĻ
à°¾à°¯ à°¿
Ġà¦ §
Î´ Î±
Ð½ Ð°Ñı
Ġë³ ´
Ġê³ ł
ĠÙĩ Ø°Ø§
Ġáĥł áĥĿáĥĴ
Ġà¤¨ à¤¹à¥Ģà¤Ĥ
×¨ ×Ķ
Ġ×ŀ× ¡
Ġc Ã´ng
Ġ Ñħ
ĠØ¯ ÛĮ
Ġà¤¸ à¤Ĥ
Ġm er
ì¹ ´
à°¾à° ¡à±ģ
ĠL a
§ à¸´à¸
ai re
m ak
å¯ ¹
ĠÃ º
à¸£à¸µ à¸
iy a
Ã½ m
ãģĦ ãģ¾ãģĻ
ĠÚ© Ø´
Ġà° «
Ïĥ ÏĦÎµ
Ġb áº¡n
Ġà° ¯
áĥĶáĥ ª
Ġ [
áĥł áĥĲáĥĽ
Ġáĥ ¦
ì¶ľìŀ¥ ìĥµ
Î· ÏĤ
à®¿à® ®
áĥĶáĥĳ áĥĲáĥ¡
Ġà®ħ à®°
Ġà¤ Ł
ĠØ¯Ø§ÙĨ ÙĦÙĪØ¯
in o
à¹ī à¸Ļà¸
áĥĶáĥĳ áĥļ
f t
Ġs á»ĳ
Ø³ ÙĬ
à±ĩà° ¶
Ġ #
Ä±n Ä±n
à±įà°² à±ģ
Ġà°ª à±Ĩ
± à¹īà¸
Ġà¦ıà¦¬ à¦Ĥ
à®± à¯įà®ķ
s zy
ĠØª ØŃ
ĠãĢ Ĳ
il e
Î»Î» Î¬
t ÄĽ
3 3
é ķ
Ġav ec
à°ķà±įà° ·
ÙĦ Ø§Ùħ
ĠS ie
Ġà¤Ĩ à¤¹
m en
ĠÐ² Ñģ
µ ľ
áº ½
à± ĥ
ĠÐ¿ ÐµÑĢ
Ġt idak
à±ģà° ¡à±ģ
ÏĦ ÎŃ
Ġ×ľ ×¢
Ġth u
iá»ĩ t
ë¬ ¸
Ġ×Ķ× §
t t
Ġáĥ¡áĥĲáĥ Ļ
à°Ĥà° Ĺ
ä¹ Ł
ì§ Ħ
Ġ×ĳ ×ª
à¦¦ à§įà¦
ĠØ§ÛĮ Ø±Ø§ÙĨ
æ ¥
ç¾ İ
ĵ à¸
æ ĻĤ
á»Ļ i
à°¤ à±įà°¤
Ġm Ã¡s
is t
o x
Ġ×Ķ ×ķ×Ĳ
á» ī
Ġà¤Ĩ à¤ª
ay a
as jon
áĥĶáĥĿ áĥĳ
à°¿à° ¸
ti r
ãĥ ī
ĠìĹ ¬
Ġà°ļà±ĩà° ¸
åĵ ģ
Ø³ Ùħ
à¦ķ à¦¾à¦°
Ġà®® à¯ģà®
u ÅŁ
Ġæ ĺ
à¯Īà® µ
ĠáĥĹ áĥ£
· à§įà¦Ł
Ġà° ¡
íı ¬
e g
áĥ ¯
ãĥ ¥
åĪ Ĵ
ÏĢ Î¿Ïħ
à¦ ¡
i ci
s er
Õ¸ÖĤÕ ´
à¦¨ à§ĩ
à±ģà°Ĥà° ¦à°¿
al l
Î»Î¿ Î³
à¥įà¤ ®
Ġ×Ķ× ¡
ĠëĤ ĺ
in a
ìķ ¼
Ġë ²
ĠÃ¼ Ã§
ÛĮ Ø³Øª
Ġà°® à°°
à±Ģ à°°
it Ã©
à¹ĥà¸ Ĭ
Ġno t
Ġì ¤ĳ
Îµ ÏĦÎ±Î¹
i p
áĥĲáĥĽ áĥĵ
Ġáĥ łáĥ
ĠåĮ Ĺäº¬
ãĤ µ
ÏĦÎ¹Îº ÏĮ
à¥ĭ à¤Ĺ
äº ĭ
Ð¸Ñĩ ÐµÑģÐº
Ġà¤Ĩà¤¹ à¥ĩ
Î¼Î± ÏĦÎ±
Ø¯ ÛĮØ¯
Ġ Å¾e
ĠÐŁ ÑĢ
áĥĺ áĥĶáĥł
Ġ Å¼e
Ð½ Ð°
ê³ Ħ
ul a
ç ¤
Ġb ei
Ġo ver
Î ľ
Ġà¤¸ à¤¾à¤
Ġn Ãły
à¦¾à¦ Ł
à¸Ń à¸²à¸
t Ã©
ow a
Ġde i
Ġm á»
Ġå ľ
à±įà° ķ
¹ Û
Ã¡ i
ĠÙĥ Ø§ÙĨ
Ġtá» «
ł à¸²à¸
Ġà§¨ à§¦
à¦¿à¦ Ł
à¯įà® £
Ĥ à¸Ńà¸ĩà¸
ie l
ĠØ¯ Ø§Ø±
Ġl á»
Ø¬ Ùħ
×ķ× ĺ
iy or
ung en
Ġê ±
éĩ ĳ
Ġåĩ ¯
el d
à¦¨ à§ĩà¦°
Ġb isa
Ø® Ø±
t u
áĥĲáĥķ áĥļ
Ġà°ķ à±ĭ
Ġag åĽ½éĻħ
Ġa kan
à¦¾à¦ ļ
Ļ à¯įà®ķ
Ð½Ñĭ Ð¼
áĥĲáĥķ áĥ¡
Ġë¶ Ģ
à¯įà®¤ à¯įà®¤
iy e
Ġb aÅŁ
Ð ŀ
à¸Ń à¸£
il ÉĻr
il er
Ġ %
ãĥ Ĳ
ĠÙħ Øª
Ġ×Ķ× Ľ
ĠpÅĻ ÃŃ
Ġd os
ÑĢ Ð°Ð½
Ġáĥĵ áĥĲáĥĽ
à¦¾ à§ľ
à¥Ĥ à¤¨
ÛĮ ÙĦ
ä¿ ¡
Ġein e
à¸Ńà¸ ¢
v ÃŃ
ĠAn da
Ġl ang
Ġà¦ª à¦¾à¦°
il ir
é ¦
Õ« Õ¶
ê° Ħ
es z
à§įà¦ ¨
ĠáĥĲáĥł áĥĺáĥ¡
Ġp el
äº §
ĠÙħ Ø±
áĥĺáĥ£áĥ ł
u kan
é £
à¦¿à¦¤ à§ĩ
Ġhá» į
uy á»
Ġáĥ£áĥľ áĥĵáĥĲ
ê ¹
æĹĹèĪ° åİħ
ĠgÃ¶ r
ĠìĿ ¼
Ġi ÅŁ
ur a
Ġäºļæ¸¸ éĽĨåĽ¢
ĠØ¯ ÙĪ
è´ ¹
ĠØ¨ ÙĨ
ĠÑĤ Ð°Ðº
è¿ Ľ
or t
à¹Ģà¸ Ľà¹ĩ
Ġqu es
Õ« Õ
Õ¥Õ ¬
Ġà¤ī à¤¨
Ġà¦ī à¦ª
Ġau ch
ë £
ĠD ie
Ðµ ÑģÑĤÐ²
à®¾à® £
ĠÎŃ Î½Î±
ÏĦÎ¹Îº Î®
Ġ×ĳ ×Ķ
ĠE s
à¯Ĩ à®°
Ð¿ ÑĢ
ad or
à´¾ à´
áĥĲáĥłáĥ Ĵ
ÅĤ o
ĠÙĪ Ùħ
ĠáĥĹ áĥ¥
à¥ģ à¤°
à¸² à¸Ļà¸
ĠØ§ÙĦØ «
à¦¿à¦ ®
Ã¡ ng
ì¹ ĺ
à¦¾à¦ §
Îº ÏĮ
ĠÐ¿ Ð¾Ð»
Ġå Ĳ
Ġn el
Ġmem b
ãģĤ ãĤĭ
Ġà¦ľ à¦¾à¦¨
Ġë§ Ī
ÏĦÎ¿ ÏĤ
ĠÐ ĵ
Ġå½© ç¥ŀ
éĿ ¢
åĲ İ
Ġi to
à°¾à° ¡
×ķ ×Ļ
Î» ÎŃ
ãĥ ģ
ĠáĥĽ áĥ®
Ġc e
Äĥ m
Ø¯ ÙĬ
æľ ¬
Ġê³ µ
ĠÏĮ ÏĦÎ¹
j a
al ly
Î¹Îº Î¬
Î¼ Î²
Ġï¿½ï¿½ ï¿½ï¿½
Ġáĥĵ áĥ¦
ÛĮ Ùĩ
Ġâ ĺ
¨ à¸
ei d
à±įà°¨ à°¿
Ġìĥ ģ
Ġs z
è °
Ġ×© ×Ĳ
å¥ ½
Ġ×Ĳ ×ķ
å° ±
àµģ à´
d y
Ä±n a
íĶ Ħ
Ùģ ÙĬ
ÐµÐ ¿
Ġ !
Ġà¸ Ħ
Ã¡ t
Ġ ä½
æ ı
à¤¨ à¥Ģ
ou ld
Ġà®ª à®Ł
Î· Î½
à±įà° ¥
á»ĳ c
ti s
it e
a ch
Ġu p
ĠÃ¼Ã§ Ã¼n
Ð½ Ð¸
ĠÙĥ ÙĦ
Ñĭ Ðµ
Ġg iá»
âĢ į
ÉĻ c
Î ¥
Ġæ Ĺ
ĠÛ ²
áĥ® áĥĿáĥķ
Ġ×Ķ× Ĵ
×ŀ ×¨
ĠáĥĽ áĥĺáĥ
Ġkh i
Ġáĥ °
à¹ī à¸Ļ
a ÄŁ
Ã¡ m
w o
áĥĲáĥłáĥ ¢
Ġáĥ© áĥķáĥĶáĥľ
ç» ı
ĠÄĳ áº¿n
Îº Î¿
ãģ Ŀ
åįķ åıĮ
ë§Ī ìĤ¬ì§Ģ
h et
Ġ×ľ ×©
ing en
à¦ Ļà§įà¦Ĺ
áĥķ áĥĲ
å® ŀ
ì¶ľìŀ¥ ìķĪë§Ī
Ø§ÛĮ Øª
Ġà® Ł
åĬ Ľ
lÄ± k
ing in
à¤² à¥ĩ
Ġå Ľ
æ Ļ
ÑĨ Ð¸Ð¸
á ¼
è ¶
Õ¡ ÖĢÕ
ĠL e
ä» ¶
an ia
Ġà¦ķà¦° à¦¾
ig h
£ Â
åº ¦
Ġà°¸ à°®
æĬ Ģ
Ø¨ Ùĩ
Ġa ta
ĠÐº Ð°Ðº
å°ı æ¸¸æĪı
ĠØ «
į è´¹
ãģĦ ãģŁ
Ġp ada
ĩà¸´ à¸Ļà¸
à§ĩà¦ ĵ
it a
×ĳ ×¢
ä¸ »
à° ¶
ìŀ Ħ
ãĥ ĭ
Ġ }
Î» Î¬
à¯įà® ¯
ä» £
Ð¾ÑĤ Ð¾ÑĢ
à° Ĺà°¾
ãģ °
Ġk ar
at an
Ġvá» ģ
Ġ ÅĽ
Å© ng
Ġp e
à¦¾à¦ ģ
¦ Ĥ
t Ä±
Ġr a
d Ä±
ìļ °
à¸Ļ à¹Į
ĠÛĮ Ø§
Ø¨ Ø¯
Ġà®İà®©à¯įà®± à¯ģ
s p
Ġà¤¯ à¤¹
iáº¿ n
ĠA ng
à§ĩà¦ ®
á»© c
ÏĦÎ± ÏĤ
áĥ «
c Ä±
å §
áºŃ p
Î ©
ÅĤ y
Ġæ ĸ
×ĵ ×¨
áĥĲáĥķ áĥ¨
Ġâ Ļ
à®¤ à¯į
à¹īà¸ §à¸
Ġáĥ® áĥĶáĥļ
à§ °
à ²
æŀ ľ
×ŀ× ª
Ġs ono
ra v
Î» Î®
ĠìĿ ĺ
ãĤĪ ãģĨ
g g
ĠÎ §
åĮ ĸ
à¦¾à¦ ĵ
ĠÎº Î¬
à¦¿à¦ ¦
Ġs on
ĠA G
å® ļ
Ġp re
áĥĿáĥłáĥ ª
áĥľ áĥĺáĥ¡
Ħà¸ ¸à¸
à§įà¦ ķ
Ġáĥ£áĥ ¤
Ã¨ s
ģ éĢŁ
è Ĳ
am i
åħ ¥
Ġ×ľ ×¤
ell a
Ġà¸ ŀ
ÙĪ Ø¨
èĩ ª
an ie
Ġáĥ¡ áĥ¢
à®¾à® ±
å »
×ł ×Ļ×Ŀ
Ø¬ Ùĩ
à±įà° ¡
ĠlÃł m
Ġìľ Ħ
ìĦ ¸
Ġ á»Ł
Ġà®ķ à®Ł
Ø´ ÙĨ
ĠÙħ Ø³
ÙĦ Ø§ÙĦ
ä¸Ń åĽ½
Ġde m
à¥įà¤ ²
à§ĩà¦ ¬
Ġà®ļ à¯Ĭ
ĠÑį ÑĤ
áĥł áĥĺáĥ¡
æ° Ĺ
Ñĭ Ð²
en ia
çĤ ¹
æ į
th er
ãĥ¼ ãĤ¹
ĠÐ¸ Ð½
ãģ¨ãģĦ ãģĨ
ĠN g
Ġm el
Ð°Ð¼ Ð¸
Ø¨ Ø§Ø±
æ Ľ
Ł à¸
Ø§ÛĮ Ø¯
ãģ« ãģª
a in
Ġv ar
çī ĩ
è®¡ åĪĴ
ĠS p
à¤ «
áº¥ y
Ġe d
Ïĩ Îµ
Ùħ Ø¯
è¿ ĩ
Ġí Į
ĠØ§ÙĦÙħ ÙĪ
Ø§ÛĮ Ø´
er o
k en
l en
Ġ×ĳ ×¨
ÐµÐ ¶
ow ie
Ġ à¶
Ġpi Ã¹
Ġt áº¡i
à¯Īà®¯ à¯ģà®®à¯į
à¥įà¤ ¹
íķĺ ê³ł
Ġcom p
Ġà¸ Ĺà¸
Ã¡ o
n ia
ãģĤ ãĤĬ
à¹Ħà¸ ¥
áĥĿáĥ Ļ
em p
Ġà®ĩ à®¤
ìľ Ħ
ĠáĥĽ áĥĹ
ãĥ¼ãĥ «
y on
ãģķ ãĤĮ
Ã§ a
ãĤ ¦
ĠÎµ Î¾
Ùĥ Øª
à§įà¦ ļ
×ľ ×Ļ
ĠÑģ Ð»
Ïĥ Î¿
Ñħ Ð¾Ð´
¡ Â
. .
1 8
áĥĲáĥ ŀ
Ø¯ ÙĬØ¯
åİ ¿
Ġa c
Ġg el
Ġ Ñı
à§ĩà¦Ľ à§ĩà¦¨
à¹ī à¸Ńà¸ĩà¸
å®ĺæĸ¹ ç½ĳç«Ļ
áĥĿáĥłáĥ Ľ
à¯Īà® ªà¯įà®ª
à¥įà¤° à¥Ģ
Ġs o
ÎŁÎ ¥
Î¿Ïħ Î¼Îµ
p k
Ð ł
Ġà°ª à°°
ĠÙĪ Ùĩ
Ġc áº£
Ð´ Ð°
Ġata u
×ķ× Ķ
iá»ĩ u
ê³ µ
Ñĥ Ð¿
ÉĻ f
Ġk om
Ïģ Î®
à¤ ĸ
Ã© m
Ø¬ ÙĦ
í Ĵ
Ð ¡
è§ Ħ
Øµ Ø±
« à¸Ļ
ìķ ½
à¦°à§įà¦ ¬
Ġå ¹
Ġà°ķ à±Ĥà°
ĠØ§ÙĦÙħ Øª
Ġh indi
Îµ Ïħ
Ġà®ħ à®®
ê ´Ģ
ĠÃ¶ n
Ĺà¸ ¢
Ø´ Ø±
ĠáĥĻ áĥĿáĥĽ
Ġç Ķ
Ïĥ ÏĦ
Ġì¹´ ì§Ģëħ¸
ÉĻ q
Ã¨ re
ĠìĦ ľ
r os
i to
Ġg ia
Ġê ¹
¬ ¬
åł ´
è¦ ĭ
æĸ ĩ
×ķ× ŀ×
×ķ×ł ×Ķ
ĠÙĨ Ø¸
Ġà¤¹ à¥Ģ
ç ķ
à®® à®¾à®ķ
Ġà®ª à®¿à®°
Ġ ï½
Ø± Ø¶
Ġà° ²à±ĭ
ä» ¬
ĠáĥĽ áĥĲáĥĹ
Ġ1 0
Ġë į
ãģĦ ãģ¦
Ġ×ľ ×ĳ
ê¸ Ī
å¿ ĥ
Ġáĥ¡áĥĲáĥ¥áĥĲáĥłáĥĹáĥķáĥĶáĥļ áĥĿáĥ¡
ãĥ ĸ
Ġs áº½
áº ±
Ġg er
à®¿à®± à®¤à¯ģ
ÎµÎ¹ Î±
áĥĵ áĥĶáĥĴ
r u
m er
æĪ ĳ
áĥĵ áĥĶáĥĳáĥĲ
ãĤ į
ÎŃ Ïģ
iyy ÉĻt
ÉĻ dÉĻ
Ġà¦¤ à¦¿à¦¨
ĠÕ §
×© ×Ķ
ì ¡°
Ġo ok
è¿ Ĳ
et to
Ùĭ Ø§
Ġit u
ãĥ ĩ
à¤¯ à¤¾
Ġ×Ķ ×Ķ
Ãª u
à¦° à¦¾
è £
Õ ¨
Ùĥ Ùħ
Ġn am
éĩ į
Ø³ Ø¨
ĠÎ Ľ
Ġt ut
à¸Ļ à¸²à¸
Ġ×ŀ× §
ØŃ Ø©
Ùĥ ÙĪÙĨ
éĸ ĵ
åı ¸
ti c
å¥ ĸ
Ġn eb
Ġà¸ ķ
ĠÏĢ Î¿Î»
Ġd á»¥
ÉĻ z
à¤² à¤¾
ãĤ Ń
ÏĦÎ¹Îº Î¬
æĢ Ŀ
áĥĶáĥ Ļ
à®ª à¯į
Ð Ĳ
Ġà¤¤ à¥ĭ
Ø§Ø¯ ÛĮ
Ġì Ľ
ĠØ±ÙĪ Ø²
Ġà® ľ
áĥĺáĥľ áĥĲ
ĠÎ ¦
y ak
Ġd oor
qu es
à±ĩà° ¸
ģ à¹Ģà¸
Û ķ
Î» Î¯
Î± Ïģ
áĥķ áĥĺáĥĹ
ÙĤ ÛĮ
åį ļ
ĠÐ· Ð°
Ùĳ Ùİ
Ø§Ø± Ø§Øª
ĠáĥĽ áĥĲáĥ¡
Ġåĩ¯ åıĳ
Ġs ing
Ñĭ Ð¹
à°Ĥà° ļ
Ġìķ Ī
ĠÐ¿ÑĢ ÐµÐ´
Ġà¦ľà¦¨ à§įà¦¯
Ġin n
ĠØ§ÙĦ ÙĬ
Ł ¥
à¤¾à¤° à¥Ģ
d zi
ÉĻ ÅŁ
ĠØ´ ÙĪØ¯
çĦ ¡
à§ Ī
Ġáĥ¡ áĥĲáĥ¡
Î¼ Î·
íĸ ī
Ġh e
lar ak
åī į
Ð¸ÑĤ ÐµÐ»ÑĮ
ĠÃ ĸ
Ġnh Ãł
ĠÎµ Î¯
er t
ĠáĥĽ áĥĿáĥĽ
à°¾à° ª
Ø¯ Ùħ
à¦¬ à¦¾à¦°
ĠÄĳ Ã³
on n
w ie
ow n
Ã² ng
Ġí Ķ
Ġ ÑĨ
Ñĥ Ð±
à¹ĥà¸« à¹īà¸
Ġí Ĩ
rz e
Ġà®ª à®¾à®°
Ø§Ø³ Øª
à¦¸ à§įà¦¥
±à¸ ģà¸
à¤¿ à¤°
ì ¶Ķ
am o
Ġh v
å½ ±
íĶ ¼
Ġà®µ à®¾à®
Ġà®ĩà®° à¯ģà®ķà¯įà®ķ
åħ ³
ëª ħ
à¦¨ à¦¾
Ġc Å©ng
à°¾à° ¬
ĠáĥĻ áĥĺ
Ĭ é¾Ļ
ê² ½
in iz
ÅĻ e
ÐµÐº ÑĤ
ĠÎ ĺ
e ct
Ġm Ãł
ĠÏĢ Î¿
à§ĩà¦ ¸
à¸Ń à¸Ńà¸Ļ
ãģ ĺ
ĠØ³ Ø±
l ed
à¥įà¤ ¥
ÙĪ ÙĬ
Ġ ich
id o
Ġà®ª à¯Ĭ
Ġà°ī à°¨à±įà°¨
Øµ ÙĦ
ll er
Ġh as
ëŁ ¬
Ġà°µ à±Ĩ
à°¤ à±ĭ
Ġ×Ķ× ĵ
åĬ ¡
ÙĪ Ùģ
íķ Ļ
l ad
ãĥ³ãĤ °
Ġà°Ĵ à°ķ
r aw
íķ ł
ìŀ ħ
è¿ Ļ
åĮ º
ĠS e
¾ å®¶
ar d
è® ¯
ÙĦ Ùģ
ìĹ Ń
Ġje g
à¸Ńà¸Ńà¸Ļ à¹Ħà¸¥
Ġad alah
Äĥ n
Ġë Ĳ
Ġg r
Ġju ga
Ġ ä¸Ģ
am ento
ĠØª Ø±
à¨¾ à¨
z ie
ĠãĤ ¹
ĠI l
Ã¼ ÅŁ
Ġì ¡°
am ente
à®ļ à¯įà®ļ
ªà¸ ¸à¸
Ø ¢
ou gh
Ġà®¨ à¯Ģ
Ġ×ľ ×Ĺ
it t
ĠØ§ÙĨ Øª
Ø§ÙĨ ÙĬ
ç ³
à§Ģ à§Ł
áĥłáĥ «
Ġà¤ķ à¤¹
à¦¾à¦¬ à§ĩ
ĠÕ ´
alam ang
Ġêµ ¬
Î¹ Î½
ãģ Ķ
ĠØ¥ ÙĨ
b et
åħ įè´¹
ar t
èĢ ħ
Ġà®ķ à¯ģà®±
ĠÏĢÏģÎ¿ Ïĥ
ĠÐº Ð¾ÑĤÐ¾ÑĢ
Ġ Ĉ
åĲ Į
è ĭ
à¦¤ à¦¿
Õ¸ÖĤÕ ©
ĠÙĩ Ø°Ùĩ
ãĤ ¸
ĠÄĳá» ĭ
áĥĺáĥ¨ áĥķ
à¦ Ľà§ĩ
Ġåľ ¨
åŁ İ
Ġà¤² à¥ĩ
à¤¾à¤ ĩ
Ġì¶ľìŀ¥ ìķĪë§Ī
çŃ ī
à®¿à®° à¯ģà®¨à¯įà®¤
à¸£à¸±à¸ ļà¸
ĠQ u
Ðº Ð¾
×¨ ×ª
Ġp os
Ð½Ð¾ Ðµ
et z
Ø§Ø± ÙĬ
áĥĲáĥª áĥĺ
Ġh Ãłng
l am
é Ķ
à¹ĩ à¸Ńà¸
ľà¸ ¹
Ġ Åŀ
à¯įà® ¨à¯įà®¤
Ã¡ d
Ġ×Ĵ ×Ŀ
Ã¡ nÃŃ
ud ah
à¹Ī à¸Ļà¸
ê² ©
áĥĺáĥ ¥
Ġà°µ à±įà°¯
åĪ ©
Ġa o
ì ¦
Ħà¸§à¸²à¸ ¡à¸
áĥĲáĥļ áĥ£áĥłáĥĺ
ĠB u
ÙĬØ± Ø©
Ġr es
Ġà°ª à±ĭ
Ã© ho
æ° ĳ
à¸² à¸£
Ø§Ø¯ Ø©
à¹Ħà¸¡ à¹Īà¸
ĠvÃł o
¬ áĥ§
Ġsa m
Ġæ Ŀ
à°¦ à±įà°¦
Ġ×Ľ ×Ļ
è§ £
ah r
Î¼ ÏĢ
Ġ á¼
à§ĭ à¦°
al ak
áĥĲáĥ «
ĠáĥĽ áĥĿ
äº Į
uj e
à¤¾à¤ Ī
Ġëĵ ±
à§įà¦ ¡
Äį nÃŃ
an Ä±
Ø· Ø©
c tion
Ġáĥ¡ áĥ®áĥķ
Ġk a
Ġà®¤ à®®
áº «
áĥ£áĥ ¡
à®¿à®² à¯įà®²
ĠáĥĲáĥ ķ
áĥĶáĥ ĸ
m ÉĻk
é Ĥ
Ðµ Ðµ
ĠØ¨ ÙĬÙĨ
m o
Ġdi es
å± ķ
j er
áĥ£áĥ ¨
Ø§ÙĦ Ùħ
à±ĩ à°ķ
Ġ Å¡
ĠáĥĹ áĥĲáĥľ
à®£ à¯įà®£
Ġl áº¡i
Ġsing aw
Ġà¦ı à¦°
áĥł áĥĿáĥ¡
íĴ Ī
ĠÏĥ ÏĦÎ±
å ķ
Īà¸ °à¸
Ġpag k
í ģ
c es
Ġáĥ£áĥ Ļ
ãĥ §
áĥĿáĥ ¢
n er
à¦¾à¦ķ à§ĩ
en za
Ġtr Ãªn
éĴ Ł
ĠÐº Ð¾Ð¼
Ïį Î½
éĢ ļ
Ġz Ã¡
ãģ§ ãģį
Ġup ang
Ġ×ķ ×ŀ×
à±ĩ à°°
Ġb l
ĠÙĤ Ø±
i re
ĠÎ¤ Î¿
à°¿à° Ł
ei ra
ÏĦÎµ ÏĤ
Ġà¦ķ à¦¾à¦°
Ġal s
u ll
áº »
1 9
Ú© Ùĩ
Ġ×¤ ×¨
ĠÎ¼ Î±ÏĤ
ĠÛ±Û ³Û
à¥ģ à¤²
Ġà°® à±Ģ
ĠÎ ¾
ãĥ¼ãĥ Ī
ÃŃ ch
áº· t
c er
en ie
Ġall a
Ġnh iá»ģu
an ce
Ġn ak
å £
ĠÚ¯ ÙģØª
Ð» ÐµÐ½
os ti
ÙĪØ± ÛĮ
à¤ķ à¤°
ìĺ ģ
à¤ķà¥įà¤ ·
Ġà¤¹ à¥ģà¤
ãģ§ ãģ¯
ĠØ§ÙĦØ° ÙĬ
3 65
áĥĺáĥ ¤
ĠØ¨ Ø¹Ø¯
Ġ×Ķ× ¦
Ġà¤ķ à¤¿à¤¯à¤¾
à¤¾à¤¨ à¥ĩ
ë° Ķ
Ġà®¤ à®¿à®°
Ã¼r k
el ig
ĠáĥĴ áĥķ
ÎĻÎ ļ
Ġì ½
Ġáĥĺáĥ§ áĥĿ
ĠØ§ÙĦÙħ ÙĨ
à¦Ł à¦¾
à¯ĩ à®©à¯į
ĠÐ¿ÑĢ Ð¸
à§ģà¦ ·
ĠãĤ ¢
Ġ×Ĳ ×ķ×ª
Ð° Ñħ
Ø³Øª Ø§ÙĨ
à°¾à°¨ à±įà°¨à°¿
Ġb ut
éķ ¿
å· ŀ
ll e
ÃŃ m
á»ĳ ng
to w
¥ ¿
cz e
à°¦ à°¿
Ġdell e
Ĥ à¦²
à®¿à®© à¯įà®±
ĠáĥĻ áĥĿáĥľ
ÐµÐ½ ÑĮ
Ġç ľ
Ġr is
ĠØ ¶
ÐµÐ³ Ð¾
ÙĬ Ø²
ĠæĪ ĳ
éĴ ±
Ð°Ð± Ð¾ÑĤ
Ľ à¸£à¸
à¹Īà¸ §à¸
Ġw ie
äº Ķ
Ġh alamang
áĥł áĥĺáĥķ
Ĥ à¸Ńà¸ĩ
Ġæ ī
à¸Ļà¸µ à¹ī
Ñĭ Ñħ
Ñ ĳ
è ©
å¾ Ĺ
Ø¹ Ùħ
à¹Ħà¸Ķ à¹īà¸
ª à¸´
à¤Ĥ à¤¦
app ä¸ĭè½½
à°¸ à±įà°¤
ĠâĢ ĺ
Ġà®® à¯ĩ
×ĳ ×Ķ
à¹Īà¸ ĩ
áĥķ áĥĲáĥļ
ĠÙĩ ÙĪ
áĥĲáĥľ áĥ¡
ĠáĥłáĥĿáĥĽáĥĶáĥļ áĥĺáĥª
ĠÏĥ ÏĦÎ¹
ĠÎļ Î±
Ġà§¨à§¦ à§
Ø£ ÙĨ
×ł ×ķ×ª
ĠìĬ ¤
« à¸Ļà¸
Ġâ Ķ
ei ro
Ġà®ĩà®° à¯ģà®¨à¯įà®¤
èī ²
pk 10
Î³ Îº
áĥ® áĥĲáĥĵ
Ġi k
i q
ãĥ ł
ĠÙĪ ÙĤ
Ġâ ĸ
ÎµÎ¹ ÏĤ
Å¡ e
ĠÐ £
Ġà¦Ĩ à¦²
Ġìŀ Īëĭ¤
Ì ģ
Ġâ Ĩ
Ġcom e
à¸µà¸ ¢
áĥĿáĥł áĥĺáĥ¡
æĢ §
éģ ĵ
Ġ our
Ãł o
ãģ Ń
ĠÎ ¶
ow y
an te
×ŀ ×ķ
à¦¦à§įà¦ §
ĠÏĢÎ± ÏģÎ±
Ñĥ Ð»
ĠÏĢÎµ ÏģÎ¹
×© ×Ļ×Ŀ
r uk
Ġmen j
åĳ ĺ
áº¥ p
ĠØ¯ Ø§Ø´
ÙĨ Ø©
Ġg o
æľ Ł
Ġà®ķà¯Ĭ à®£à¯įà®Ł
ãĤ »
Ġa z
éĩ ı
Ø§Ø «
to v
ë Ħ
Ġw er
Õ¡Õ ´
Ġ×ĳ ×Ĺ
ãĥ Ł
ra tis
Ġ out
Ġì Ļ
×ķ× ĸ
Ñģ Ð¿
ĠÙħ ÙĤ
Î³ ÏģÎ±
ĠìĨ Į
âĢ ľ
iá»ĩ c
à±ģà° ª
Ġk un
à§ Į
£áĥ ¡
ëĲ ĺ
Ġo larak
à®³ à¯Ī
áĥĶáĥĳ áĥ¨áĥĺ
l em
æ ¶
t Ä±r
ĠÚ© Ùħ
Ġáĥĺ áĥ¥
å¤ ĸ
ĠÎºÎ± ÏĦÎ±
«à¸ ¥à¸
w ei
Ķ à¹Ģà¸
Ġro z
ä¸ İ
Ġà¦¬à¦¾à¦ Ĥà¦²
ĠåĮĹäº¬ èµĽè½¦
Ġà¦¬à¦¿à¦ ¶
Ġm ÄĽ
ãĥ³ ãĥĪ
ìĭ ¤
áĥĹ áĥĲ
sk e
áĥ£áĥ ¤
Ġ×Ķ× ĸ
d f
áº ¹
ti m
âĢĮ ÙĩØ§
Ġke Ã§
ķà¸ ±à¸
g u
es ch
äº ī
Ġn Ã³
Ġh eb
à°® à±įà°®
ĠÄĳ áº§u
ĠÄ Į
an Ä±n
Ġak o
Ġm ula
Ġp eng
Ġm a
ĠH et
à±ĩà° µ
§ à¹Īà¸²
m ek
u w
à¤Ĥ à¤¤
Ø§ Ú©
ĠØ£ ÙĬ
Ġà® ¯
ãģķ ãĤĵ
ĠáĥĽ áĥĺáĥĽ
ti g
æķ °
å ¢
×Ļ× Ĵ
Ġáĥĵ áĥĲáĥ¡
b ang
ei r
Ġìľ ł
4 4
ìĥ Ŀ
ï¼Į ãĢĳãĢĲ
Ġáĥ¬ áĥĲáĥłáĥĽ
ä¿ Ŀ
à¸µà¸ ¢à¸
áº£ o
å¼ ı
æı Ĳ
¥à¸ °
Ġçİ¯äºļ ag
Ġk on
an s
à§įà¦ ¸
ic o
à¸² à¸Ļ
à¸£ à¸£à¸
Ġáĥ¬ áĥļáĥĺáĥ¡
Ġp df
ãĤ °
Ġæ ŀ
Ġde ÄŁ
Ġ×ķ ×ľ
il a
Ïģ Î¹Î±
Ġ à¥
¥ à¹ĩà¸Ńà¸
Ø¹ Ùĩ
à±ģà° ¡
Ã¶ n
à¹ ģ
Ġcon t
ĠØª Ùħ
ìĿ¼ 2
åĪ ¶
Ġe ller
Ġan che
áĥĶáĥłáĥ ¡
à¦ĸ à¦¨
ĠÎ¼ Î¹Î±
Ġch á»ī
ê° ķ
ĠØ§Ø ¹
§ à¹Īà¸²à¸
Ġ X
Ġo der
ĠØ´ ÙħØ§
ÏĦ Ïħ
Ïģ Î¿Ïħ
à±ģà°Ĥà° Ł
à¸Ń à¸Ļà¸
ah an
eb ih
am b
èµ Ħ
b en
Ñĥ Ð¶
ãģ« ãģ¯
ķ à¸´à¸
Ġmas k
Ä ©
ĠÎ´ Î·
et te
Ġag äºļæ´²
ª à¸²à¸
Ġn ÄĽ
ÎĹ Î£
Ġà¦¨ à¦¿
Ġà®µ à®¿à®
Ġd la
ãĤ ª
ĠÑģ Ð¿
áĥĺáĥĲáĥľ áĥĺ
Ġ çļĦ
Î¬ Î»
íĨ ¡
íķ ©
ìĦ ł
ãĤ §
il ang
c u
Ġë ¹Ħ
çĲ ĥ
Ġgi Ã¡
áĥĿáĥĳ áĥ¡
ĠâĢ Ķ
ĠãĢĳãĢĲ ï¼ĮãĢĳãĢĲ
Ø§ÙĦ ÛĮ
Ġc zy
ÏĢÎ¿ Î¹
s a
Ġ Ö
à¯ģà® ª
ĠÙĩ Ø³Øª
Ġag çľŁäºº
ien to
Ġà®® à¯ģà®Ł
ĠÕ ¯
Ġà®µà¯ĩ à®£à¯įà®Ł
ÙĪ Ø³
Ġà®ī à®³à¯įà®³
Ñĥ Ð¼
ç³ »
v i
åĪĨ éĴŁ
×ķ× ļ
ìĿ´ ëĭ¤
Ġnh áº¥t
Ãº ng
ÏĦ ÏģÎ¿
cz ne
ĠÙĪØ§ÙĦ Ùħ
ĠÐ Ĺ
ĠÎł Î±
r Ã©
j e
ĠØ³ Ø§Ø²
Ġà¦® à¦¾à¦¨
st e
ĠÙ¾ ÛĮØ´
ÅĤ u
è§ Ĥ
à¥ĩà¤ Ł
h en
Ġãģ Ĭ
ĠÐ¼ Ð¾Ð¶
Ġ á
å» º
Ġà®¤à®® à®¿à®´
Ġb á»ĭ
Ġ×ľ ×§
as a
an a
ĠãĢ ĭ
ë© °
ĠÕ ¸
ĠÄĳá» ĵ
à¦¨à§įà¦ ¦
ÙĦ Ø¨
aw a
ç ©
à¥įà¤ ķ
áĥĲáĥľ áĥĵ
´ë Ŀ¼
Ġk j
Ġm ak
à®± à¯įà®ª
à¯ĩ à®ļ
× ¥
Ġà§¨ à§
ĠÙĪ ÛĮ
oÅĽ Äĩ
Õ¸ÖĤÕ© Õµ
çĽ Ł
ãĥ ĳ
Ġà¦¹ à¦¬à§ĩ
Ġáĥ© áĥĶáĥĽ
Â µ
Ġà°ķà±Ĥà° ¡à°¾
ãĤ ¨
Ġon der
ĠÎ¿ ÏĢÎ¿
ĠØ¨ ÛĮ
at ed
Ġn os
Ġna ar
Ġà°¨ à°¿à°°
à§įà¦¯ à¦¾à¦¨
Ïħ Î½
Ġé ĩ
Î´ Î¹Î±
¯ ¼
Ġ×ŀ× ĵ
x o
Ġà¦Ĩ à¦ª
ÏĢ Î¬
Ä±n dan
èµ Į
à°¡ à°Ĥ
áĥĿáĥł áĥĺ
Õ ¾
Ġs á»±
Ġm e
åħ ĥ
ĠÃ¼ ber
Ġ×Ĳ ×Ĺ
dz ie
Ġ ÑĪ
æŃ £
×ĺ ×¨
el le
Ġà¤¸à¤¾à¤ ¥
al Ä±
z o
à°ķ à°¿
Ġv i
Ġ×ķ ×ĳ
áĥĺáĥ §
Ġà¤ķà¤° à¤¨à¥ĩ
Ġà¦Ĩ à¦¸
ess o
áĥķ áĥ¡
ĠP or
ê± °
ÏĮ ÏĦÎµ
Ö ¼
Ġm ore
è® ¾
ê° ľ
Ġb ul
Ġth eir
ì¶ľìŀ¥ ë§ĪìĤ¬ì§Ģ
Ġpa ano
Ġà°ħ à°µ
×ľ ×Ļ×Ŀ
Ġìĭ ł
æ º
à¦° à§ĩ
ģ à¹ĩà¸
æ ģ
Ġn Äĥm
éĹ ´
Ġz o
ide os
l u
Ø¦ ÙĬØ³
è ³
à¦§ à§įà¦¯
à¤¾à¤ ķ
Ġà¦¸ à§įà¦¬
Ġh iá»ĩn
Ïĥ ÏĦÎ·
at t
à°² à±įà°²
à¤¿à¤ µ
æĬ ¥
Ð¾ Ðµ
ou v
×ĵ ×Ļ×Ŀ
à±ģà°ķ à±ĭ
Ġin ter
à®ķ à¯į
Ġà®ļà¯Ĩà®¯ à¯įà®¤
è¡ ¨
ëį °
Ġdá»¥ ng
ĠÚ¯ Ø±
an no
Ġà¤ª à¤¹
Æ°á»£ ng
Ġb il
Ġëı Ļ
Ð¾ÑĢ Ð¼
Ġè¿ Ļ
v a
Ã Ħ
Ġ1 3
ĠÕ ¥
áĥłáĥ £áĥļ
à¦° à§įà¦¤
Î¼ÎŃ Î½
Ġáĥ¡ áĥĲ
Ġp in
à¦ ł
Ġà°¨ à±ģà°Ĥà°
ìĭ Ŀ
Ġìĺ ģ
Ġì ¢
ĠN or
Ġs Ã¥
Ġd apat
Ã¡ nh
à¯ģà®® à¯įà®ª
Ġ×ŀ× Ľ
ĠÄĳá»Ļ ng
ĠE r
à°¾à° §
åħ¬ åı¸
é ĥ½
Ġt y
Ġol m
Ġ Å¾
Ġë§ Į
à¯įà® °
Î ļ
áĥĺáĥ ŀ
à¦¨à§įà¦¤ à§įà¦°
Ġ×ŀ× ĳ
ÙĪ Øª
¡ à¹Ģà¸
ĠpÅĻ ed
Ġp ue
Ġt im
ĠáĥĽáĥĲáĥĴ áĥłáĥĲáĥĽ
Ø¯ Ø±
t s
en a
æĥ ħ
l es
ĠáĥĽ áĥĶ
å± ±
ĠØ¨Ø§Ø´ Ø¯
uk o
am os
ol i
à°¿à°¨ à°¿
Ġv il
Ġê¹ Ģ
Ć Ĉ
Ġáĥł áĥĲ
Ã¼ l
ĠØ§Ø ¬
Ġs v
Ġà¦® à§ĭ
Ġáĥŀ áĥĺáĥłáĥ
Ø§ÙĦ ÙĬ
ÙĪ Ùĩ
ĠØ Ł
à¤¾à¤ ı
Ġh ab
Ġw aar
Ġes ta
Ġes p
Ġ ãģ¨
Ġ×ŀ× ¦
ì ħ
ĠÙ¾ Ø±
Ġå° Ĭé¾Ļ
ĠáĥĴáĥĲáĥĽ áĥĿáĥ
Ġà¦Ĩ à¦Ĺ
Ã¢ u
¡ à¸µ
Ġà¦¦ à§ĩà¦ĸ
Ðµ ÑĪ
Ġng Ãły
Ġë ħ
×Ļ×¨ ×ķ×ª
ĠÛ °
Î³ Î¿
ë¶ Ħ
Îµ Ïģ
à§ĥ à¦¤
à¤ķ à¥Ģ
Ġìļ °
à¹ĥ à¸Ļ
Ĺ à¸²à¸
à§įà¦ ¦
Ġol du
ĠÙĩ Ø±
è Ĭ
×ķ×ł ×ķ×ª
ag ai
à±ģà°Ĥà° ¦
à°¾à° £
ÉĻ li
ĠìŀĪ ëĬĶ
ê¹ Į
à¥įà¤ ¸
Ġp ri
Ġthe y
ĠÎ± ÏĢ
Ġ201 9
ä½ į
£Â ¬
Ġm aar
Ġâ ĩ
Ġë ¯¸
áº¯ c
à¦¾à¦ ĸ
Ġê ´Ģ
ĠØ¯ Ùĩ
Å Ī
à±ģà°ķ à±ģ
ĠØ¬ Ùĩ
g io
en d
åĨ ħ
ah a
im i
ĠK h
æ° ´
·à¹Ī à¸Ńà¸
Ġì¹´ íĨ¡
Ġà¤¹ à¤®
uy Ãªn
íĸ Īëĭ¤
áĥł áĥĶ
ĠÙĬ Ø¹
Ġm Ã¥
à¸Ńà¸Ńà¸Ļà¹Ħà¸¥ à¸Ļà¹Į
n ost
Ġà¤¥ à¤¾
à§ĩà¦ ·
ĥ n
áĥĶáĥ ®
ìĹ °
íĨ ł
Ã¡ p
×© ×ª
à±Ģ à°µ
ĠU n
à¹Ħà¸ Ĺà¸¢
à¹Ħà¸¡ à¹Ī
Ðµ Ñħ
à¦® à¦¾à¦¨
u a
è¯ ´
ì Ī
ĠÛ±Û³Û ¹Û
á» ı
à¸£à¸±à¸ ļ
ĀĀĀĀ ĀĀĀĀ
to r
Ïģ ÎµÎ¯
ic e
à¦¾à¦ ¯à¦¼
à±įà°¸ à±į
å¼Ģ æĪ·
ç¨ ĭ
Ġj ed
íĺ ¸
ou w
ìĿ Į
Ġ one
ĠÎ¼ Î±
ag i
ç Ŀ
áĥĿáĥĵ áĥĲ
Ġs ind
Ġim p
Ġà¤¸ à¤ķ
×ķ×¨ ×Ķ
Ġv iá»ĩc
Ø§Ø® Øª
Ð° ÑİÑĤ
ÎŁ Î£
áº· c
á»± c
à®¤à¯įà®¤ à¯Ī
ĠìĦ ł
Ġm i
êµ Ĳ
Ġ \
u an
to ri
Ã² n
Ġa m
Ġph áº£i
Ã¶ r
Î¸ ÎµÎ¯
ÙĪØ± Ø©
ÙĤ ÙĦ
è§Ĥ çľĭ
Ġìĺ Ī
p ap
Ġà°ħ à°Ĥà°¦
ĠÐ Ľ
n Ã½
ë² ķ
Ġà¦ħ à¦¬
×¨ ×Ĵ
áĥľ áĥĶáĥľ
Îĳ Î£
à®¿à®° à¯ģà®ķà¯įà®ķ
à¤ļ à¥įà¤¯à¤¾
à¦¿à¦ Ĥ
à¤Ĺ à¤¾
×Ļ× ĸ
Ġê° ľ
à¹ģà¸ ¥à¸°à¸
d ad
Ġth Ãłnh
Ġí ĥ
ĠÐº ÑĢ
y e
ĠØ§Ø ®
lÄ± q
ħ n
ĠáĥĴáĥĲáĥĽ áĥĿ
ĠØ§Ø µ
å¤ §åıĳ
Ñĥ Ñģ
± c
ĠáĥĲáĥĵ áĥĲáĥĽ
ëª ¨
ĠÃ§ ok
cj a
ent es
Ġm y
Ġ Ø§Ø¯
Ġa le
ĠØ¨ Ø¯
à¤ ³
ĠØ§ÙĦ Ùĩ
Ġê° ķ
à© Ģ
à±ģà° ¦
Ġà¤¤ à¥įà¤¯à¤¾à¤
ĠÑģ Ð¾
ìŀ ¬
Ġà¤ħ à¤¸
áº± ng
eb ut
Ġå ¼
oun d
Ġth Ã¬
Î¿Ïį Î½
o ir
à®©à¯įà®± à¯ģ
à§ İ
ĠáĥĽ áĥĺ
l an
Ġg eb
i ad
à¯įà®ķ à¯įà®ķ
ung s
Ĭà¸ ±
Ġà®ħ à®©
Î¹Îº Î¿
å° Ĩ
Ġwer den
ģ à¸²à¸
ÛĮ Ø³
ãģ§ ãĤĤ
à°Ĥà°¤ à±ĭ
ĠØ¯Ø§ÙĨ Ø´
à§Ł à¦¾à¦°
ĠÙħ Ø±Ø¯
ĠÙĪ Ø¨
×Ļ×¨ ×Ķ
à°¨ à±ĩ
Ġà°ļ à±Ĥà°
à¹ĥà¸Ĭ à¹īà¸
Ġa iad
Ġaiad ingin
E W
Ø® Øµ
æīĭæľº å®¢æĪ·ç«¯
à®¾à® ķà¯įà®ķ
ÙĪØ± Øª
âĢ Ŀ
ar an
ÙĪ Ø¬
k k
ĠP ro
Ġs el
çł ģ
ab a
Ġáĥ¨áĥĶáĥĽ áĥĵáĥĶáĥĴ
il i
ĠE in
ķ Į
Å º
ab le
æµ ·
Ġà¤ķ à¤¾à¤°
is i
Ġh at
u er
í ĽĦ
Ð¸ ÑĨ
ķ à¹Ī
Ġad a
am ot
ĠÚ©Ø´ ÙĪØ±
Ġf o
áĥłáĥ ĵ
n ym
ÙĪÙĦ Ø©
ĠÐº Ð¾Ð½
ĠØ¢Ùħ ÙĪØ²
é ļ
ç® ¡
Ġ {
Ġhá»į c
- -
ĠØ§ÙĨ Ø¯
Ġà°ħ à°¯
ÑĤ ÐµÑĢ
åı ·
Ġv or
Ãº c
Ġà¤ ĺ
ĠÙħ Ø·
Ġ à¹Ģ
à°¿à°Ĥà° Ĺ
ĠØ§Ø³Øª Ùģ
ak Ä±
ÉĻ lÉĻr
Ð½Ð¾ÑģÑĤ ÑĮ
Ø±ÙĪ Ø´
à°² à±į
Ġ ć
í İ
áĥłáĥ £áĥ
à¥įà¤ ª
Îµ Î»
Ġà¦¤à¦¿à¦¨ à¦¿
áĥĺáĥ¨ áĥľ
à «
au x
ÙĪ Ø§Øª
à®¿à® ¨à¯įà®¤
Î´ Î·
Ġç »
Õ¸ÖĤ Õ¶
à¥ ĥ
Ġà¤ħ à¤¨
Ġ à¸Ńà¸
Ú¯ Ø§ÙĨ
à§įà¦ ľ
à±ģà°¨à±įà°¨ à°¾à°°à±ģ
×ŀ× ł
Ġde y
Ùĩ ÙĨÚ¯
ĠìĹ °
Ġl ebih
à¯Īà® ªà¯į
à§ĩà¦ ¦
ci on
is e
áĥ§ áĥķ
ĠáĥĽ áĥĿáĥ¡
Ġ×Ķ×ŀ× ©
Ġà°ķ à°²
ĠØ³ ÙĬ
Ġol un
ÎŃ Î½
åı £
æ¬ ¾
ĠÎµ Ïħ
Ġa f
Ġp ang
Ïī ÏĥÎ·
ĠÙĦ Øª
à± Į
ĠC om
áĥĶáĥĹ áĥĺáĥ¡
à®¿à®¯ à®¿à®²à¯į
áĥ Ń
à§ģ à¦®
Ġ1 2
í ŀ
ÙĬ Ø«
b e
Ã Ĳ
Æ¡ i
çĽ ´
ãĥ Ĭ
er en
ĠT Ã¼rk
×ľ ×§
ãĢ ģ
áĥĶáĥłáĥ Ĺ
r Ã³
ĠÙħ Ùĩ
á»ĩ n
æ¥ Ń
d t
Ġà®¤ à¯Ĩà®°
uj er
áĥĺáĥĿ áĥľ
Ġä¸ į
áº¡ o
y r
Î¾ Î·
ĠáĥĽ áĥ¡
¡à¸ ŀà¸
ì¹´ ì§Ģëħ¸
×ŀ× Ł
Ø§ Ùĥ
á»ĭ ch
áĥĿáĥ ŀ
Ð½Ð¾ÑģÑĤ Ð¸
ĠØ¨Ø§Ø² ÛĮ
Ġne j
åı Ĭ
Ġà®ķ à¯ĩ
Ġwor k
Ø« Ø±
ĠØ§Ø³ØªÙģ Ø§Ø¯Ùĩ
à¸£à¸²à¸ Ħ
en n
Ġå¤§åıĳ å¿«ä¸ī
áĥĺáĥ ¦
ÏĮ Î½
à§įà¦ ł
Ø±Ú© Øª
£ p
Ð° ÑĪ
Ã¦ re
à±įà° ³
Ġà®ķ à¯ĭ
Ã¢ m
Ġà®İà®© à¯įà®©
ĠN EW
iy i
à®µ à¯ģà®®à¯į
ĠØ§ÙĦÙħ Ø´
×ł ×ª
Ġs ont
à°Ĥà° ª
ĠØ¯ Ø§Ø±Ø¯
Ïħ Ïĥ
Ġà®µ à®¨à¯įà®¤
Ã± o
áĥłáĥ Ĵ
ĠL es
áĥ£áĥ ®
© à¸
Ġà¤¦ à¥ĩ
iá»ģ n
ĠØ¨ Ø®
áĥĺáĥ «
é ª
P art
Ġà¦¹à§Ł à§ĩà¦Ľà§ĩ
ì² ´
ĠÎ¼ ÏĢÎ¿
p o
áĥĿáĥ ¨áĥĺ
éĩ Į
ì ¡
æ ¡
×ķ×ª ×¨
Ð½ Ð¾Ð¼
åĪĨ å¿«3
à¤² à¥Ģ
Ïİ ÏĤ
Ġà§¨à§¦à§ §à§
Ð°ÑĢ ÑĤ
ĠØ£ Ùħ
´ ĳ
Ġë Ķ
ĠÃ§ ox
Ġa pp
Ġà¦ķ à§ĭà¦¨
é ĵ
ĠØ§ÙĦÙħ ØŃ
Ġà¦ķà¦° à¦¤à§ĩ
ĠÏĢ ÏģÏĮ
à¤¿à¤¯ à¥ĭà¤Ĥ
al iz
ÏĮ ÏĤ
ĠÄĳ i
un u
Ġà¸ ģà¸
Ġy er
à¯Īà® ļ
2 8
Ġà®µ à®´
Ġà¦ıà¦ķ à¦Łà¦¿
Ã´ n
ĠáĥĵáĥĲáĥ ĺ
åĲ į
ĠNEW Part
ìļ ´
ĠÏĥÏĦÎ¹ ÏĤ
è ¢
Ġand a
ç ±
¦ ¬
ãĥ ĵ
ĠáĥĹáĥ¥ áĥķáĥĶáĥľ
è »
Õ¡Õ ¿
Ġáĥĵ áĥĺáĥĵ
u est
ti k
Ġ1 1
Ġìķ Ĭ
Ħà¸£à¸ Ķà¸´à¸
Ã¡ z
ta to
Ø® Øª
ç Ī
ì¹ ´ëĿ¼
ĠØ¨ Ø¹
on d
à¹Ģà¸ ¥
×¨ ×ĳ
ëł ¥
iá»ĥ m
ĠÎ ¥
Ġà¸ Ħà¸
å Ļ
Å¾ ÃŃ
a v
ĠÎ Ī
Ø§ÙĨ Ø¯
Ġm an
æĶ ¿
Ġs ek
ar u
Ġà§ ©
áĥĿáĥķ áĥľ
à®¿à®ķ à®³à¯į
Ġg Ã¼n
Ġ íķ´
Ùģ Ø³
áĥĶáĥĹ áĥĺ
ÙĢÙĢ ÙĢÙĢ
Ø ¡
Ï Ĭ
à°¾à°° à°Ĥ
b y
Ġ×ŀ× ł
ģ n
el ah
ĠÃ¶ z
ãģ ļ
Ã§ Ä±
áĥĺáĥĹ áĥ®
à© ĩ
ad as
à®µ à¯ĩ
×ķ×ł ×Ļ×Ŀ
Ð ĺ
à¦¾à¦¦ à§ĩà¦¶
áĥĶáĥļ áĥ¡
×¨×Ĳ ×ľ
ĠÚĨ Ùĩ
ĠÙĨ Ø´
ĳ Ĳ
ĳ ľ
ãĤ ĥ
0 9
æ¬ ¡
ell o
Ġol an
Ġà®ħ à®±
a ik
Ġ×ķ ×¢
à¦¿à¦ ľ
Ġk ad
à±ģà°² à±ĭ
Ġï¿½ï¿½ ï¿½
Ġ×Ķ ×Ļ×Ĳ
ĠÙĪ ÙĬ
à±įà° Ĺ
áĥĺáĥ¡ áĥĲ
ë° ©
åį Ĺ
Ġæ µ
à±įà°° à±Ģ
Ġà®ª à®²
ÄĽ t
ĠÙĬ Øª
×Ļ×ł ×ķ
Ø§Ùħ ÙĦ
å¤ ĩ
Ġ1 9
ê± ´
Ø§Ø± Ùĥ
à§Ł à¦¾
Ġ×Ĳ ×Ĺ×¨
a us
áĥķ áĥł
ie w
Ġà¤Ĺ à¤¯à¤¾
ĠI t
ti ve
Ã¶ y
×ŀ ×Ļ
ĠÎºÎ± ÏĦÎ¬
Ġà®® à®±à¯įà®±
Ġna ch
Ð¸Ð» ÑĮ
Ġìĥ Ŀ
Ġáĥĵ áĥĲáĥķ
in dÉĻn
en i
à¦¾à¦ķ à¦¾
æĺ İ
ĠÐ¿ Ð»
Ġà®İà®© à¯įà®ª
ĠØ¬ Ùħ
Ùĥ Ø§ÙĨ
Ġde ze
à¦ľ à¦¨
åĲ Ĺ
Ġà¤ľ à¥ĭ
ìĿ¼ 1
Ö ¸
Ġab out
é ł
Ġc ol
ÙĤ Ø±
Ġm u
Ġwh ich
ĠÙĬ Ùħ
Î¼ Î®
×ł ×¡
×ľ ×ķ
c or
à¸Ļà¸ ±
Ġpr es
à®¾à® ļ
Ġ×ĳ ×¡
Ġda ting
ĠØª Ùĩ
Î¹Îº Î®ÏĤ
ĠÙģ Ùī
el e
Ħ à¸£
Ġæŀ ģéĢŁ
ãĤ¤ ãĥĪ
áº¯ t
çī ©
à¹Ĥ à¸£à¸
Ġ áł
æĬķ æ³¨
Ã¸ l
ĠáĥłáĥĿáĥĴ áĥĿáĥłáĥª
Ã¡ y
áº¡ t
ÙĨ Ø³
Ø² ÛĮ
¥à¸ ĩà¸
Ġà°ļà±ĩà° ¯
ei ch
c Ãª
ÏĨ Î±
Ø² Ø´
ìĤ¬ ìĿ´íĬ¸
Ġ×© ×ĳ
ein e
Ġn Æ°á»Ľc
áĥĲáĥłáĥ ¡
×ŀ× ©
ĠØ® Ø±
Ġ Å
a zione
±à¸ ĩ
åĬł çĽŁ
Ġà®ħ à®Ł
×ķ× £
ag a
Ġà¤ķ à¤¿à¤¸
ÑĢ ÐµÐ¼
Ġà°ķ à°¾à°°
ic k
ĠìĹ Ĩ
ch i
ĠÃ ľ
ãģĹ ãģĦ
ãĥ »
Õ ½
ĠØ§ÙĦØª Ø¹
à§ģ à¦ķà§įà¦¤
Ġà¤ī à¤¸
×¢ ×ª
à±ģà° ®
à¸Ńà¸¢ à¹Īà¸²à¸
ĠáĥĽ áĥĶáĥ¢
×ĳ ×ķ×ĵ
å¼Ģ å¥ĸ
äº ¤
Ø¯ Ø¯
di b
ãĤ ĩ
Ġ ÉĻl
\ \
ol l
à¦¾à¦¨ à§ĩ
ĠÏħ ÏĢÎ¿
íĥ Ģ
ĠØ§Ø ¨
ãģª ãģ©
×Ļ×ł ×Ķ
aci ones
Ġk uko
Ã¸ y
Ġì µľ
çİ ©
à°¿à° ļ
Ġof f
ÏĦ ÏīÎ½
ãģ¾ ãģĽ
n Äħ
Ã§ o
à¦¾à¦ ¥
ÙģØª Ùĩ
é ©
é¢ ĺ
or i
ëĭ ¨
ĠáĥĹáĥĲáĥķ áĥĺáĥ¡
Ã¼ y
Ġn as
ĠÐ ķ
àµ Ĩ
à¦ª à¦°
ĠAG çİ¯äºļ
Ġp em
éľ ¸
à¦¾à¦¤ à§ĩ
à°¿à° ²à±ĭ
à¦¿à¦ ¯à¦¼
om b
es te
Ġ×Ĳ ×ł×Ļ
à¹ĥà¸« à¹ī
à¤° à¥ĩ
áĥķáĥĶáĥ §
Ġí ĸ
ĠØª Øµ
al u
åħ ĭ
om e
æ Ĵ
à±Ģ à°
Ġt iáº¿
Ġëı Ħ
áº© m
à°¡ à±įà°¡
ÑĢ Ð¾Ð²
ĠØ± Ø³
à®¿à®ķ à®³
Ġêµ Ń
ĠA r
é¡ µ
ĠÎ¸ ÎŃ
Ġ×Ĳ ×ł
s Ã¥
Ġter s
Ø§ÙĦ Ø©
nÃŃ m
×ŀ ×Ļ×Ŀ
à¥ģ à¤¨
à¯Ģ à®°
ĠìĦ ¸
Ġï¼ Ł
è ¥¿
à¥Ī à¤Ĥ
Ġs us
à¹Ģà¸Ľà¹ĩ à¸Ļà¸
id a
è· ¯
Î¯ Îº
Ðº Ñĥ
à¸Ńà¸ ¢à¸
à¦ ·
áĥĺáĥ «áĥļ
ĠØª ÙĪØ§ÙĨ
æĢ İ
åº Ķ
ÄŁ u
Õ¡Õ ½
à®¿à®± à¯įà®ķ
Ġt Ã´i
à¨ ¿
áĥĲ áĥĲ
èĢ ĥ
Ġà°ļà±Ĩ à°ªà±įà°ª
×Ĳ ×ª
à±ĭ à°ľ
Ġà°° à±Ĩ
Ïĥ ÏĦÎ¿
Õ¶ Õ¥ÖĢ
Ġe k
Ġáĥł áĥĲáĥª
Ð¶ Ðµ
ë§Į ëĤ¨
Ġk ull
Î¯ Î¶
áĥķ áĥĶ
Ġ×Ķ ×Ļ
ÏĦÎ· ÏĦÎ±
ĠØ· Ø±
Ġs ie
ÄĽ l
Ġà¦Ĺ à§įà¦°
ìĺ Ī
el se
ØªØ± ÛĮÙĨ
åĭ ķ
Ùģ Ø±
Ġë° ©
Ö °
ÑĢ Ð¾
Ġà°® à±Ĭ
ĠÎ´ Î¹
ç ²
ĠáĥĽáĥĺáĥ¡ áĥĺ
ĠÐ¿ Ð¾Ñģ
ä» ĸ
ëĲ ľ
áº¥ n
Ġp am
Ã¤ n
ëĭ ¹
ay Ä±
Ġ×ľ ×Ľ
à®² à¯Ī
à¤¾à¤ Ĺ
Ġs áº£n
à®¾à®° à¯įà®ķà®³à¯į
Ĥ à¸²à¸
æ¯ Ķ
áĥĶáĥĳ áĥĶáĥļáĥĺ
Ġà®ħà®° à®ļ
ĠÐ ¤
Ġin c
Ġà°µ à°¾à°°
ĠÐ¸ Ð»Ð¸
é »
ìľ ł
Ġ ÉĻs
áĥĺáĥ ĳ
ent s
Ġáĥ¨ áĥĶáĥľ
Î¼ Î¹
Ġà®¤à¯Ĭ à®Ł
Ø§Ùĩ Ø¯
zi on
ÛĮÙħ Øª
ak i
Ġx u
Ø±Ùĥ Ø©
Ġà°¸ à°¿à°¨
ĠN am
åĻ ¨
ĠØ¯ Ø§Ø¯
ĠØ¢ÙħÙĪØ² Ø´
Ġë¬ ¸
er n
le h
Ġà¦ķ à¦®
à±ĭ à°Ĺ
Īà¸ ±à¸
Î³ Î³
il le
c aq
áĥĲáĥ¨ áĥķ
Ì Ģ
Ïĥ Ïī
Ġch ÃŃnh
á»Ļ c
ĠìĦ ±
an yak
áĥķ áĥĲáĥľ
Ú© Ø³
el y
Ġ×Ĳ ×Ŀ
ĠØ§ÙĦØ º
ee ft
íŀ Ī
Ġæĸ °
Ġhá» £p
æİ ¥
Ð½ Ñı
ĠÎ±Ïħ ÏĦÏĮ
Ġwor den
è¯ ķ
ĠÑį ÑĤÐ¾
Ĭ à¸²à¸
Ġà¦¬à¦¾à¦Ĥà¦² à¦¾à¦¦à§ĩà¦¶
Ġà¤Ĩ à¤£
åı ĸ
Ð Ŀ
à¦¨ à¦¿
Ġå¤ §
Ġm ÉĻn
ãĥ Ķ
Ø¹ Ø±
Õ ´
1 2
or o
Ġg li
áĥĲáĥ Ķ
è£ ħ
Ġprze z
áº« n
¢ à¸²à¸
v o
çī ¹
ĠØ® Ø¨Ø±
Ã Ĭ
ÙĦ Ùĩ
áĥ£áĥ ĵ
ov at
Ø§Ø³ ÛĮ
Ġâ ķ
ç» ĵ
¥à¹ĩà¸Ńà¸ ķ
j ÃŃ
à¥įà¤ ¦
Ġ äºļ
E R
Ïģ ÎµÏĤ
h od
à®© à®°à¯į
Ġ×ĳ ×§
Ġà¦ħ à¦Ń
l as
Ġs em
åĪĨ åĪĨå½©
à¹ģà¸ ¥
á ¿
Ġt em
à¤ķ à¤¾à¤°
Ġtim e
Ġf e
ļà¸²à¸ Ĺ
Ãªn cia
Ġà®® à®©
Ñİ Ñī
Î¯ ÎµÏĤ
Ġíı ¬
Ġn or
Ġà¸ Łà¸£à¸µ
Ú© ÛĮ
ÐµÑĤ ÑģÑı
Ġà¤ §
áĥĺáĥ£áĥł áĥĺ
ĠØ§ÙĦØ ²
æĪ ĺ
ãĥ¼ãĥ ī
Ø±ÙĬ ÙĤ
Ġíĺ ¸
g un
Ġáĥŀ áĥĺáĥł
à¹Īà¸ ĩà¹Ģà¸
ĠÃ ¸
à°° à±įâĢĮ
Ġmen y
Ġæ Ń
Ġqu an
Ġâ Ĺ
à¹Ħà¸ Ľà¸
Ġà¦¸ à¦¬
Ġì§ Ħ
Ġsk al
Ġà°® à°¾à°°
Ġà°ħ à°¨à±įà°¨
×ķ×ľ ×Ŀ
Ġáĥ¡áĥĲáĥ® áĥĶáĥļ
Ľ à¸£
åº Ĩ
a al
ãĥ¼ãĥ ł
à±ĭ à°¯
ĠìĹ Ĳ
Î´ Î¹
Ġna j
Ġà¦¯ à§ĩ
ta v
ÉĻ x
Ġìŀ ¥
or um
Ø Į
à±ĩà° Ł
íģ ¬
Ġes te
ĠØ° ÙĦÙĥ
à¦¤ à¦¾
ĠÐ¾ Ñģ
æī Ģ
N G
Ïĥ ÏĦÎ±
Ã© n
Ġnh Ã¢n
ĠÙģ ÛĮ
Ġ àª
ĠIn d
Ġd zi
ì Ķ
æĦ ı
Ġà®® à¯ģà®¤
éĢ ī
¯ à§ĭà¦Ĺ
Ġdi b
Ġà¤ Ľ
Ð» Ñİ
u at
çĽ ¸
Ġk al
à¤¾à¤¹ à¥Ģ
æľ į
ĭ Ĺ
l ine
§à¸ ±à¸
m ÄĽ
Ð°Ð½ Ð¸Ñı
ĠÄĳá»ĭ nh
or es
à¯ģà®ķ à¯į
Ġà¦¸ à¦°
Ġë ¨
u ch
×¨ ×Ļ
ĠØ§ÙĦÙħ Ø³
« à¸²à¸
Ġà¦¸à¦® à§įà¦ª
Ã¡ri o
à°¿à°Ĥà°ļ à°¿
Ġh is
à· Ĭ
ãĥ³ãĥ ī
èµ ·
jÄħ c
è¨ Ģ
äºī éľ¸
åķ Ĩ
ĠáĥĶáĥłáĥĹ áĥĺ
ãģ¾ãģĽ ãĤĵ
c ar
el en
ÅĤ ad
Ġh ÉĻr
ĠÐ³ Ð¾Ð´
ÙĦ ÙĤ
Ġd aha
Æ° a
Īà¸²à¸ ģà¸
à§ģ à¦¬
áĥĶáĥ¡ áĥĺ
ĠÙģ Ø±ÙĪØ´
Ġal so
Ġà°® à°¨
as e
Ùħ ÛĮÙĨ
Ġsu a
à¯ģà®Ł à®©à¯į
ç ·
à°Ĥà°Ł à±ĩ
ĠØ¨ ÛĮØ´
ç ĥ
áĥĲáĥł áĥĶ
é ħ
Ð¸ Ñİ
áĥĲáĥ® áĥļ
í ĭ
µ à¸
Ð² ÐµÑĤ
ur ch
Ã ľ
ĠC on
ĠØ¬ Ø¯ÛĮØ¯
ç» Ł
Ġvo tre
Ġp ow
Ġà®ķ à®°
ĠÕ ¶
ĠáĥĽ áĥĿáĥľ
Ġt out
Ġ×Ľ ×Ĳ
ĠÏĥÏĦÎ¿ Î½
ĠÎ± Î»Î»Î¬
à±ĩà° ·
Ķ à¹īà¸§à¸
Ġà®ª à®¤
Ġneb o
áĥĲáĥł áĥĺáĥ¡
à¦¿à¦ ª
h a
ĠØ§ÙĦÙĬ ÙĪÙħ
Ġè Ģ
Ġ201 7
à°¿à°Ĥà° ¦
ĠÎŃÏĩ ÎµÎ¹
ÏĢ Î·
A R
ŀ à¯įà®ļ
ëł ¤
à°¤ à°¿
ci ones
ĠÐ¾ Ð´
Ġí Ĭ
Ġdas s
à¦¨à§įà¦ §
ç ¼
ÙĨ Ø§ÙħÙĩ
à°® à±Ĩ
Ġe dir
Ġå ¾
à¨ °
Ġs ob
Î² Î¬
Ġh Æ¡n
g er
à¤ķ à¤¾
à¯ģà® £
on y
ÙĬ ÙĪ
ĠTh is
Ñĥ Ðº
ĠÚ©ÙĨ ÛĮØ¯
áĥĲáĥ¥ áĥ¢
à°¿à°Ĥà°ļ à°¿à°¨
Ġm Ã¬nh
à®¿à®²à¯įà®² à¯Ī
×¢ ×ķ×ª
ëŀ ĺ
áĥĲáĥ §
à¤¾à¤ ª
ģà¸±à¸ ļà¸
« à¸£à¸
ë¥ ´
Ð° Ñĩ
ay an
ones ia
à¤¿à¤ ¶
Å¡ tÄĽ
ir es
à°¾à°¤ à±įà°°
Ġå ¥
§ à¹ĩà¸
à°Ĥà°¦ à±įà°°
Ġçľ Ł
à¹Ģà¸ ģà¸
à°Ĥà° ķ
Î¯ Î¿Ïħ
æ ¼
ĠÑĢ Ð°Ñģ
ĠÙĪ Ø³
×© ×ķ×ª
à¸£à¸ §à¸
Ã¤ t
ĠÙ¾ Ø§ÛĮ
Ġà¦¦ à§ĩà¦¶
u ov
Ġs inh
Ġç Ļ
Ġy ear
Ġh eeft
Å¯ j
ap a
Ð ļ
Ġí ģ
à¹Ħà¸ Ľ
áº£ ng
Ġ×ĳ ×ł
ãĤĮ ãĤĭ
áĥĽ áĥĺáĥ¡
×¢ ×Ķ
ĠÑĤ Ð¾
Ġl ik
ĠW e
Ġì ¶Ķ
Ġog sÃ¥
si on
Ġdib dib
ĠØ§Ø ´
y ong
Õ¡Õ ¾
Ø§Ø¹ Ø©
à¯Īà®ķ à¯į
Ãª m
Ú© ÙĦ
à¤¸ à¥Ģ
Ġà°¤ à°¨
Ġì Ĥ
Ø§Ùģ Ø©
à¦¿à¦ Ľ
Ð¸ Ð»Ð¸
Ġà®® à¯Ĥ
rz y
Ð°ÑĤ ÐµÐ»ÑĮ
ler in
à°¿à° ·
ä¼ ł
Ġà®ħ à®¨à¯įà®¤
ĠØ® ÙĦØ§ÙĦ
ĠÎľ Îµ
ìļ ¸
à¦¾à¦¨ à§įà¦¤
ë¬ ´
ĠØª ÙĨ
Ġan y
à±ģà° Ĺà°¾
Ġt ÉĻr
Ġà®İ à®¤
w y
Ġ uy
ĠØ¨ Ø§ÛĮØ¯
Ġm od
Ķ à¸µ
Ġê² Į
Ð ¢
is h
c ÉĻ
ë¹Ħ ìĬ¤
ĠÙħ ÙĪØ±Ø¯
ĺ à¸
áĢ ¹
Ð ķ
á»¥ c
al Ä±ÅŁ
Ġà¤® à¤¹
ĠV iá»ĩt
áĥĺáĥľ áĥĺáĥ¡áĥ¢
ÅĽ ci
æĢ »
in s
Ġà® ²
ĠM ar
et e
Ġsom e
à¦¾à¦ Ĥ
Ã± os
Ø¯ Ø§
à¤ļ à¥įà¤
Î³ Î±
ĠÙĪ Ø¹
ÏĪ Î·
·à¹Ī à¸Ńà¸ĩà¸
Ġà®®à¯ģà® ©
ĠÑĤ ÑĢ
ĠÛ² Û
Ġà¦® à¦§à§įà¦¯
nie j
Ñģ Ð»
p r
b i
à±įà° §
ĠØ§ÙĦÙħ Ø¹
Ġb ah
à¹Īà¸ §
à§ĩà¦ ľ
u ur
Ġa Ã§
à¥ ľ
ĠT er
ĠØ´ Ø±Ú©Øª
ĠØ¨ Øª
Ġm eer
Ġà¤µ à¤¾à¤²
à°¿à° ¦
Ġngh iá»ĩ
ĠÃ¶ l
ĠáĥĴ áĥĲ
Ð°Ð» Ð¸
Ġc ao
à§ģ à¦ķ
Î» Î¹
Ġkh o
à°® à±Īà°¨
k ov
ëł Ī
ĠÐ §
ei l
Ġáĥ¥ áĥĲáĥłáĥĹ
à¦¾à¦¤ à§įà¦°
Ġà®¤ à¯ĩ
ĠíĨ µ
Ġse g
ĠÐ¸ Ð¼
Ġà°¸à°¿à°¨ à°¿à°®
sk i
Ġç İ
ãģ¨ æĢĿ
ĠÄĳá»ĵ ng
Ġ×Ļ ×ķ×ª×¨
áĥĲáĥª áĥĺáĥĲ
ÙĬ Ùĩ
ÙĪ Ùī
à¹ ģà¸£à¸
åĨ Ĩ
n oÅĽci
×ĳ ×Ļ×Ŀ
Ġ +
c on
ãĤ¹ ãĥĪ
į à¸
ĠØ£ Ùĥ
ĠÙĪØ§ÙĦ Øª
éĿ ŀ
à®© à¯Ī
d os
ĠÙ¾ ÛĮ
Ġ×¨ ×Ĳ
Î¸Î· ÎºÎµ
à°µ à°°
Õ¥ ÖĢÕ
Î¼ ÏĨ
ĠØ± Ø§Ùĩ
our s
á»ĳ t
ĠÙĨ ÛĮØ²
Ì £
ĠÚ© ÙĨØ¯
Ġn ous
ÏģÎ¿ ÏĤ
ik a
Ġé Ģ
Ġë ķĮ
Ġb o
à¦¸ à§įà¦¤
Ġà¦¨ à¦¿à§Łà§ĩ
ÏĢ ÎµÎ¹
áĥĲáĥķ áĥĺ
Ġà¦Ľ à¦¿à¦²
Ġà®ļ à®¿à®±
Ġu 09
è į
ĠØ§Ùģ Ø²
çĻ ¾å®¶
sk ie
nÃŃ ch
Ø¬ ÙĪØ¯
Î² Î±
ÏĦ ÏİÎ½
a c
Ġpor no
´ Ī
Ġ Ø§Øª
áĥĶáĥ ¤
al ang
Ġ &
çĽ ®
é¦ ĸ
for m
Ġc i
ĠÎ¼ Î¿Ïħ
) ;
ĠK Äį
×Ļ ×ķ×Ł
ĠÎ¬ Î»Î»
Ø´ Øª
à°¿à°² à±įà°²
Î¿Î¹ Î½
ÑĢÑĥ Ð³
Ġà°µ à°ļà±įà°ļ
Ġà¤² à¤Ĺ
ãĥķ ãĤ
ek a
ĠØ³ ÛĮ
r an
ĠÃ¼ z
ĠØ§ÙĦØ¹ Ø±Ø¨
Ġå Ĭ
à¤¾à¤¯ à¤¾
à¥Ģ à¤¨
à¦¿à¦ķ à§įà¦·
à®¿à® ª
à¦¨ à¦¾à¦°
en de
n et
à´ ¤
Ã¸ p
ĠF or
à¤¾à¤ ¬
áĥĺáĥ£áĥ ļáĥĺ
áĥĲáĥĿ áĥĳ
ig li
×ŀ× ¦
à§įà¦ Ľà§ĩ
à°¨ à±įâĢĮ
g ar
Ġwir d
Ġo leh
Ġw at
Ġ×ľ ×ª
en s
Ð¿ Ð»
à°¸ à±į
ãĥ į
l Ã©
el s
? ?
v iew
si one
¨ àµįà´
à§ĭ à¦²
Ġà¦¬à§įà¦¯ à¦¬
Ġv ed
Ġë Ħ
à®£à¯įà®Ł à¯ģ
Ø¯ Ùī
à®® à®¾à®©
à°² à°¾
tion s
ĠD as
Ġà°ļà±ĩà° ¸à±įà°¤
ë Ķ
Ġà¤ª à¥Ĥ
áĥĲáĥ ©
à°¾à°¨ à±ģ
Ġ $
Ġà®ĩ à®Ł
Ġáĥ¥ áĥĲáĥļ
á»ĳ n
ãĤ ±
Ġo t
æ §
Ġjs em
a ck
åĽ ŀ
m asÄ±
ĠÄĳá» ģ
ĠÙĤØ± Ø§Ø±
ĠáĥĴ áĥĲáĥĺ
í Ĥ
ĠØ´Ùĩ Ø±
Ġmá» Ľi
ĠØ¨ Ùħ
Ġor az
åį ģ
Ġg et
Ġà¤ľ à¤¾à¤¤
ne j
ä» ĺ
à¹ī à¸Ńà¸ĩ
ĠÑĢ Ð°Ð±Ð¾ÑĤ
Ķà¸´à¸ ¡à¸ŀà¸
Ġk ur
æº Ĳ
Ïį ÏĦÎµ
ĠØ¨ ÙĦ
Ġn Ãªn
Ġà°ľ à°°
ĠÔ ±
l ÉĻn
ç ¬¬
e p
ë¡ Ŀ
ĠÐ² Ð¾Ð·
è ĥ
ĠåĪ Ĩ
Ġáĥķ áĥĶáĥł
ãĥĥ ãĥĹ
ek i
ĠÙĨ Ø§Ùħ
ä¸Ģ ä¸ª
Ġìĸ ´ë
Ġà¤Ĩà¤£ à¤¿
ar dz
à®° à®¿à®¯
ä¹ħ ä¹ħ
ar io
à°¾à° ·
f ic
m aq
Ð°ÐµÑĤ ÑģÑı
il ik
Ġn ang
Ġà¤ħ à¤§
Ġï¿½ï¿½ï¿½ï¿½ ï¿½ï¿½
áĥľ áĥĶáĥļ
ne go
Ġë ©
ł à¸
Ïģ Î¯Î±
ĠØ§Ùħ Ø§
Ġthe o
ë ¯¼
ë§ ¤
áĥľ áĥĿáĥĳ
ti que
æĦ Ł
Äį ÃŃ
Î¼ Î¿Ïį
uj ÃŃ
à¤°à¥įà¤ ®
d ade
ÏĦ Î¿Ïħ
ĠkeÃ§ ir
Î¹Îº Î¿Ïį
ĠØ² ÛĮ
Ø± Ø§Ø¡
×Ĺ ×ª
ou p
ĠÙĤ ÛĮÙħØª
sz e
Ø§ÙĦ ÙĬØ©
ĠáĥĽ áĥĵ
Ġáĥŀáĥĺáĥłáĥ ķ
Ġà®® à¯Ģ
Ð¾Ð»ÑĮ ÐºÐ¾
Ġa ir
ĠØ¢ Ø¨
u al
ĠëĤ ¨
Ġc os
ĠØ§ ÙĪÙĦ
å ŀ
Ġb el
z Äħ
d uk
Ġëį Ķ
Ġc Ã¡ch
Ġau x
ÑĨ Ð¸Ñı
Ġein en
Ġáĥ¡áĥĲáĥ ĳ
ĠB e
Ġà®Ĩ à®©
ah il
ÏĮ Î³
Ġë° ľ
ĠÐ Ń
Ġth áº¿
A N
Ġy ar
áĥĲáĥª áĥĺáĥĺáĥ¡
à¦ ŀ
Ġ×ŀ× ŀ×
à®¿à®¤à¯įà®¤ à¯ģ
Ã Ģ
ÏĢ Î¹
is s
Ġáĥŀ áĥĿáĥļ
à°¾à° ³
à¦¾à¦ľ à¦¾à¦°
á Ī
åº Ĺ
ĠÎĳ Î½
ĠÙĦ Ùĩ
à¯ģà® ²
áĥľ áĥĲ
t Ãł
Ġ20 20
Ø§Ø² ÛĮ
Ġà®¨ à®¿à®²
Ġc Ã²n
Ġ×ķ ×Ľ
ÙĬ Ø¨
å± Ģ
Ø¹ Ø¨
ak ukan
à¤ ¥
Æ°á» Ł
Ã Ĵ
Ġ×© ×ł
s on
© áĥĶáĥķ
à¯ģà®ķ à®³
y ang
Øª Ùī
à°¿à°Ĥà°ļ à°¾à°°à±ģ
è¢ «
ĠÃ £
×¤ ×ª
h n
Ġ >
à¯ģà®µ à®¤
æµ ģ
ãģł ãģĳ
æ ·
ĠÃ¥ r
à®Ł à®¿
ç¤ ¾
Ġnam an
ol d
Ġl i
à¥ĩà¤ ĸ
ÑĤ Ð¾ÑĢ
ĠÂ ¹
m y
à¯ģà®ķ à®³à¯į
iá»ĥ u
æ ¢
ei ter
Ġge Ã§
Ġy Ä±l
am an
Ħà¸¸à¸ ĵà¸
Ġs á»Ń
Ġà¤¬ à¤¨
er a
Î»Îµ Ïħ
Ġà°° à°¾à°ľ
ÙĨ ÙĬØ©
Ø³ Ø±
ÛĮ Ø§
ĠãĤ ·
ÉĻ v
Ġà®ª à®¯
Ġà®ķ à®²
Ġfo i
×ľ ×ª
ĠW y
à¯Īà®ķ à®³à¯į
Ġse u
ÙĬ Ø§ÙĨ
æİ Ĵ
Ġit em
Ġà®ĩ à®²à¯įà®²
à¸Ńà¸ ļà¸
äº Ľ
Ġk ay
ç ģ
Ġà¤° à¤¾à¤ľ
è Ļ
Ð¸Ð½ Ð°
iá»ĥ n
ch o
Ä± x
Ġè ¯
æµ ĭ
Ġà®ļà¯Ĩà®¯ à¯įà®¯
y i
×ĳ ×Ļ
m Ä±ÅŁ
ĠG r
íĨ µ
ÛĮ Ùģ
Ġla in
ti ca
ĠáĥĴ áĥĲáĥķ
Ġë° ı
ì° ¨
Ġne w
Ġt ien
Ġà°ħ à°¨à°¿
Ġkan n
Ġd á»±
Ø¨ Øª
ĠØ§ÙĦØ£ Ùħ
ol e
ĠÃ ´
ow ych
an n
Ġà°Ĺ à±ģà°°
å ¦Ĥ
ĠØªÙĪ Ø³
Ġet ter
à¥įà¤¯à¤¾à¤ ļ
Ð¸ Ð±
Ġà¦¥ à¦¾à¦ķ
ĠâĢ ķ
à¯ģà® ļ
ç ¦
áĥľ áĥĶáĥĳáĥĲ
N o
u to
ĠA us
ç¤ º
éĻ ¢
Ġà®ĩ à®µ
ĠØ§ÙĦ Ø§ÙĨ
çĿ Ģ
íķ Ń
Ġê± °
åħ ¶
ÙĤ Ùĩ
ĠÂ ·
id up
m es
à¸² à¸£à¸
ä¸ ľ
it as
Ġ ãģ®
ag em
ap i
Îµ Ïĩ
ĠØ§ ÙĪ
Ã³ ÅĤ
Ġ×Ķ ×Ļ×Ķ
à§ĭ à¦®
Ł ³
ì² Ń
Ġg od
Ã Ķ
Ġà° ĵ
Ġp an
u o
Ġà¤ħà¤ª à¤¨à¥ĩ
à±ģà° Ł
ĠØ¨ ÛĮÙĨ
æĢİ ä¹Ī
Ġy aÅŁ
áº¿ u
ol a
h eid
Õ ¯
Ġsa u
Ġâ ľ
áº¡ nh
Ġw ar
Ġà®µà¯Ĩ à®³
à¤Ń à¥Ģ
Ã ĸ
ÉĻy ÉĻ
Ġtr Æ°á»Ŀng
a Ã±
à¦ ī
Ć ć
Ġc o
Ġz um
Æ°á»Ł ng
ĠÚ© ÙĦ
ÉĻs indÉĻ
ĠÚ¯ Ø°
ãĥ Ģ
Ġc Æ¡
sk Ã©
os e
ĠÙĥ ÙħØ§
ĠìĽ Ĳ
el i
ä½ ¿
Ø§Ùħ Ø©
Ġh Ã¬nh
çĻ º
ÙĬÙĨ Ø©
áĥĿáĥłáĥ ¢
§à¸ ±à¸Ļ
Ġf Ã¸r
Ġthá» Ŀi
ľà¸¹ à¹īà¸
Ã ĭ
×¨ ×ĺ
Îµ Îº
æķ Ļ
Ġáĥłáĥ £áĥ¡
ê· ¸
Ġi b
Ùģ Ø¶
ĠÏĥ Î·
ti j
à¥ĩ à¤²
Ð³ ÑĢ
ç§ į
Ġ2 5
å ²
à°¤ à±įà°¯
ag en
ĠÙĨØ¸ Ø±
ĠáĥĹ áĥĳ
æł ·
áĥĶáĥĳ áĥĸáĥĶ
ĠG i
à°¸ à±įà°Ł
Ġthá» ±c
O N
ì§Ģ ë§Į
Ùĩ Ø±
Ġ0 2
at y
Ġr áº¥t
åĪ Ĺ
Ġ ãģ¾
sch a
ÎĻ Îĳ
ãģª ãģı
à¹ĥà¸ «à¸
åľ° åĿĢ
ìĹ Ī
ãģ§ãģĻ ãģĮ
ĠÎºÎ± Î¸
à¤Ĥ à¤¡
re e
áĥĿáĥļ áĥĿ
ung an
âĢ ¦
à¦¿à¦ķ à§ĩ
Ø± Ø§ÛĮ
Ġà®®à®±à¯įà®± à¯ģà®®à¯į
à¹Ģ à¸£à¸
Î ĵ
ê¸ ī
ĠâĢ ¬
Ġper o
ĠÑģ Ð¼
áĥĿáĥ ĸ
ķ à¹Īà¸
Ġb ruk
Ġáĥ¬ áĥĺáĥľ
es e
à® ¨
Ġà®¤ à®²
el t
Ð½ Ð¾Ð²
un un
Ġjs ou
Ġto t
Ġthá» ©
æĽ ´
Ġãĥ ķ
Ġë§ Ĳ
èģ Ķ
Ġáĥ¥ áĥķáĥĶáĥ§
ìŀ ĳ
ĠagåĽ½éĻħ äºļæ¸¸
Ġà¤Ń à¤¾à¤°
ĠëĤ ´
Õ¡Õ¯ Õ¡Õ¶
Î»Î¿ ÏĤ
v is
ç§ ĳ
Î¼ÎŃ Î½Î¿
ĠãĢ Ĭ
s ta
ĠÐ° Ð²
á»© ng
×Ľ ×ķ×ľ
Ġìĭ ¤
Ġf in
Ķà¸ ¥
Ð³ Ð¾
áĥ® áĥĽ
à±Ģ à°¯
Ġpag g
ÙĬ Ùĥ
Ġ0 9
Ġk á»
ëĤ ´
ab ilir
à±ĩà° ®
à¯įà®ļ à®¿
ĠØ§Ø ·
Ġc or
g r
ĠáĥĶ áĥĻ
Ġmenj adi
Ġà¦ķ à¦¿à¦¨
Ġà¦¬à¦² à§ĩà¦¨
Ø§ÛĮ ÙĦ
Ùħ ÛĮ
å¸ Ī
Ġg ro
i kan
ĠáĥĲáĥł áĥĲ
à¤¾à¤ £
Ġkar ena
ĠÙģÛĮ ÙĦÙħ
p l
ĠãĤ ³
ÉĻ lÉĻrin
í Ŀ
ĠÂ ¡Â
ĠØª ÙĪÙĦ
×Ļ× ŀ×
Ġà¦ı à¦¸
à¥ģ à¤ķ
ĠÙĤ Ø¯
Ø± ÙĤ
Ġsob re
ÙĪ ÙĬØ©
ãĥ ¯
Ġwor dt
ìĸ ´ë
à¯ģà® ´
Ġáĥ¡ áĥ¬
ĠØ¯ ÙĪØ±
ãĤĤ ãģ®
«à¸ ¡à¸
ed en
Ġv ol
áĥ¡ áĥĲáĥ®
×¤ ×©×¨
Ïĥ Î¯Î±
±à¹īà¸ ĩà¸
Ġ×ŀ ×Ļ
ĠÑģ ÑĢ
ĠÐ½ Ð¾
ĠÕ «
ÏĦ ÎŃÏĤ
Īà¸²à¸ ģ
Ġs Äħ
Ġth Ã´ng
ÙĤ Øª
×ĵ ×Ķ
Ġà¦ķà¦° à§ĩà¦¨
Ġters ebut
ãĤĮ ãģ¦
Ġvo cÃª
Ġl u
à¹Ģà¸ ¥à¸
amb i
Ġg a
ÙĨ Ø¬
Ġdi t
áĥĲáĥ® áĥĶáĥĳ
Ö ·
re at
à°¯ à±įà°¯
em os
ut as
ĠáĥĲáĥĵáĥĲáĥĽ áĥĺáĥĲáĥľ
à°¾à° ¹
áĥª áĥĲ
¥ ¼
ĠØ§Ø Ń
áĥ¡ áĥ¢
áĥĲáĥłáĥĹ áĥļ
m ente
ĠØ®Ø± ÛĮØ¯
Ġw el
åİ »
·à¹Ī à¸Ń
Ø« ÙĦ
li c
áĥĲáĥļáĥĺ áĥĲáĥľ
Ġà®µ à¯Ģ
à¤ ł
ĠÃ§ alÄ±ÅŁ
ij ke
à¤¤ à¤¿
an e
Ġà¦¦ à§ģ
ant s
×ĸ ×Ķ
Ġb ag
ĠØ§ÙĨ Ø¬
Ġk imi
Ġà¦¸à¦® à§Ł
ÏģÎ¯ Î¿Ïħ
ãĤ º
Ð°Ð¹ ÑĤ
ãĥ Ŀ
Ġques to
±à¹īà¸ ĩ
m an
ĠÎ¼Îµ ÏĦÎ±
Ð¾ÑĢ ÑĤ
æľĢ æĸ°
Ø³ Ø©
Ġne ed
Ġz ap
à¯įà®ª à¯įà®ª
Ġtim bang
à¯Īà®ķ à®³
ĠÃ ª
×¡ ×§
ĠÏĥ ÏĦ
Ġsa ya
ĠÙħ Ø¬
ĠØ Ľ
Ñĭ Ð¼
ĠØ´ ÙĨ
ĠÙĦÙĦ Ùħ
Î½ Ïī
ĠÑģ Ð°Ð¼
in ya
ë¬ ¼
áĥ®áĥĿáĥķ áĥł
Ġn ov
Ð´ ÐµÐ»
à¸Ńà¸£ à¹Į
Ġa cc
à°ķ à±įà°¤
Ġà°µ à±Ī
å¾ Ī
ĠØ¹ ÙĨØ¯
ent a
ÅĻ ed
Ġà¦° à¦¾à¦ľ
¥ à¸´à¸
ĠØ§ÙĦÙħ Ø±
ĠgÃ¶r ÉĻ
à®¾à®³ à¯į
à¦¿à¦ ·
Ġì ¶
Ã¼ ck
à¯Īà®¯ à¯Ī
ĠØª Øª
áĥļ áĥĺ
×ķ×ł ×Ļ
: :
ĠÐ± ÑĥÐ´
à±Ĩ à°Ł
ĠÂ £Â¬
Ġs udah
ãģ ¹
Ġà¦ªà§įà¦° à¦ķ
Õ¥ Õ¶
Ø° ÙĦÙĥ
ķ à¸²à¸
Ã© es
è§Ĩ è®¯
ĠÄĳ iá»ģu
×ŀ× ¢
l ÃŃ
Ġt in
Ġs ein
à¯įà® ¸
Ã¶ z
ĠD er
áĥ£áĥł áĥĲáĥĵ
Ġ2 2
à¯Īà® ¨à¯įà®¤
áĥ£áĥ ĳ
ÏģÎ¿ Ïį
v el
á»ķ i
Ġë°Ķ ì¹´ëĿ¼
ÙĪ Ùĥ
z za
Ġno g
à¤¾à¤ ł
Ġ×ľ ×Ļ
Ġgi bi
à§ĩà¦Ľ à¦¿à¦²
Ã «
Î¬ Ïģ
ang at
ation s
Ġà¤¦ à¥ĭ
ì ¸
is chen
×Ļ×ľ ×Ķ
áĥĺáĥ ®
Ø§ Ø§
im iz
ut sch
uy á»ĩn
Ú© Ø±
Ã¡l nÃŃ
1 3
åı ª
ri a
ĠP er
à®¿à®¯ à®¾à®ķ
à§įà¦¯ à¦¾à¦²
ÏĢ ÏīÏĤ
ÏģÎ± Î³
ÄĻ p
ĠÐ» Ñİ
Ġà¦Ĩ à¦¬
Ã¶v l
o g
Ġb anyak
Ġn Ã¡
å¾ Į
ç¾ ¤
ĠáĥĵáĥĲáĥ Ļ
Î¸ Î®
ap os
Ġà® ĵ
à¤ ·
Ġo k
æ ¨
ĠáĥĽ áĥĲáĥľ
Î Ķ
ĠØ¨ ØŃ
Ġíĺ Ħ
ĠÙħ Ø§Ùĩ
Ġw erk
Ġáĥ¨áĥĶáĥ¡ áĥĲáĥ®áĥĶáĥĳ
ÏĦÎ¹Îº ÎŃÏĤ
ti co
×ľ ×ķ×ª
Ġw ho
ĠÂ ½
ĠÑģÐ² Ð¾
Ġãģ Ĥ
ĠØ¨ Ø³ÛĮ
e en
Ġm es
ĠÙĨ ÛĮ
ĠãĤ «
¶ Į
Ġh er
Ġper son
Ġà¤® à¤¿à¤²
íĻĶ ìĿ´íĬ¸
ĠÙĪ ÙĦ
à§ĩà¦² à¦¾
ĠØµ ÙĪØ±Øª
Ġno ch
Ġà¸ ļà¸Ńà¸¥
Ġpag pap
Ġà®µ à®¿à®Ł
à°¿à° ľ
re t
èĢ ģ
Ġm ar
ĠáĥĲáĥłáĥ ¡
ĠÑģ Ðº
æĭ Ľ
Ġre c
Ġà§ «
Ġbe z
Ð» Ð¾
ĠÑĥ Ñĩ
Ġ×ľ×Ķ ×ª
à°¿à° Ĺà°¾
Ø§ÙĨ ÙĬØ©
Ġ×ŀ× ¤
ÙĪÙĨ Ùĩ
íĶĦ íĻĶìĿ´íĬ¸
ĠÎ ¡
oor d
Ġn ÉĻ
ĠÙĩ ÙĬ
Ġlik e
Ġë Ĭ
Ġk ita
éĹ ®
Ġ×Ĳ ×ĳ×ľ
Ġjak o
ĠJ e
à¦¤ à§įà¦¤
en er
áĥĵ áĥĺ
Ġà®ī à®Ł
ĠØ§ÙĦØ ¢
ê° ģ
ĠãģĿ ãģ®
Ġo ther
Ñĥ Ñī
ĠáĥĽáĥĹ áĥĲáĥķ
Ġà¤ķà¤¹ à¤¾
b le
Ġre view
7 8
Ġè ®
Ġà¦¬à¦¿à¦¶ à§įà¦¬
Î¿ Ïģ
Ġ ä¸Ń
Ġ×ĳ ×Ĵ
Ġà§ ¦
Ġt ym
ĠB aÅŁ
ãĥ ¢
ĠÏĥ Î±ÏĤ
à°¾à°² à°¿
88 8
as t
à±ĩà°¦ à±ģ
Ġthe m
ĠãĤ µ
ìĨ į
is ch
ĠÙħ Ø³Øª
à¹īà¸ §
å¸ ¸
ĠInd onesia
Ġéĩ į
Î¼Î± ÏĦÎ¿ÏĤ
ĠÙĪ Ø¥
à¤¾à¤¨ à¥Ģ
³à¸ «
Ñĭ ÑĤ
z en
à°¿à°¤ à±įà°°
Ġáĥ« áĥĲáĥļáĥĺáĥĲáĥľ
h er
çº §
ĠØ¹ Ùħ
Ġz ÅĤ
Ġi f
ĠØ§ÙĦ Ùī
Ġdet te
×Ĺ ×§
é ¤
Ġáĥĺáĥľ áĥ¤
Ú© Ø§ÙĨ
ì ¤ĳ
ļ à°¿
ar Ä±
à°³ à±įà°²
Ġa i
Ġí ĽĦ
ĠÎº Ïħ
Ġgo ed
Ġà¦ķ à¦¥
à° «
Ġà¦ķ à¦¾à¦ľ
e v
Ïħ Î½Î±
Ġ×Ķ× ĺ
Ġà°Ĩ à°¯
æ »
Ķà¸´à¸¡à¸ŀà¸ ±à¸Ļà¸
Ġà° §
1 5
ªà¸¸à¸ Ķ
Ø§Ø °
Ġ×ŀ× Ĵ
í Ĺ
n ou
ãĤĬ ãģ¾ãģĻ
à¥Ģ à¤²
ĠÐ¾ Ð½
à¤¿ à¤Ĥà¤Ĺ
ä» »
Ïĥ ÎºÎµ
ĠÙĬÙħ ÙĥÙĨ
ĠáĥĲáĥ ļ
Ð¾ÑģÑĤ Ð°Ð²
Ġí İ
æĹ ł
Ġk at
Ġv z
ĠØª Ø¬
Ġg ÉĻl
æ± Ł
ëŀ Į
Ġn ella
Ã¼ t
h al
Ġáĥ¨ áĥĶáĥĵ
ar y
ļ à¸£à¸´à¸
è Ħ
Ġein er
ul t
Ġq ar
ĠÐ´ Ð¾
å·¥ ä½ľ
ìĻ ¸
à¯ĭ à®¤à¯ģ
éĺ ³
Ñģ Ð»Ð¸
à¹ģà¸ ļà¸
e ci
ĠØŃ Ø§ÙĦ
à¥ĩ à¤¸
æĮ ģ
Ġä» Ĭ
æ´ »
å¯ ¾
ŀ à¸Ļà¸
ķ à¹īà¸Ńà¸ĩà¸
à¹Ĥà¸ ¡à¸
Ġà®ķ à®¾à®²
Ġkh Ã¡ch
Ĵ áŀ
à±Ģ à°²
¡ à°¿
áĥĿáĥļ áĥĿáĥĵ
ĠØª ÙĤ
b ÃŃ
ĠØ¢ Ø²
Ġáĥ§áĥķáĥĶáĥļ áĥĲ
an ti
à¹Ģà¸ Ĥ
Ġm ÃŃ
à· Ĵ
Ġth ere
×ķ×¨ ×Ļ×Ŀ
ĠÙĪ Ùİ
à¦¾à¦² à§ĩ
ĠA l
Ð° ÑĨÐ¸Ð¸
Ġà§ ª
el f
ĭĹ ä¸ĩ
Ġwh en
al an
Ġal t
Ġk l
Ġä½ Ĩ
r Ã¡
ķ àµįà´
Ġà¤¬ à¤¾à¤¦
Ð¾ÑĤ ÑĢ
Ø§Ø± Ø§ÙĨ
æľ ¯
Ġå ¯
ec ek
Ġáĥ¡áĥĲáĥ¥ áĥĽ
à¹īà¸² à¸Ļà¸
à¹ī à¸Ń
Ø¨ ØŃ
ĠÏĥ Ïĩ
Ġà¦ı à¦®
áĥĿáĥĳ áĥĲáĥ¡
ĠÎµÏĢ Î¯
çľ ģ
à¥ĭ à¤ľ
Ġ×ĳ ×¤
Ġg ratis
Ġt ah
×ľ ×ĳ
Ð°Ð½ Ð¸Ðµ
à±Ģ à°ª
Ø´ ÙĪØ¯
Ġà®ļ à®®
Ġsa tu
uyá» ģn
áº¡ ng
æĴ Ń
à¸Ńà¸£ à¹Įà¸
Ð°Ð» Ð°
Ľà¸ ¥
ĠáĥĽ áĥĲáĥĺ
á»į n
Ã ĥ
Ġà¤² à¥ĭà¤Ĺ
m et
ÏĦ Ïī
ĠæĹ ¥
ĠÛ° Û
Ð°Ð½ Ð¾Ð²
ĠØ§ÙĦØ³ ÙĬ
ì µľ
Ġà®İ à®´
Ġk Ã¶n
ĠØ§ÙĦØ¬ Ùħ
Î³ÏģÎ± ÏĨ
ĠØŃ Ø³
ä» ·
l and
áĥĶáĥķ áĥĶ
Ġv iÃªn
Ġè µ
Ġà¤¤ à¤ķ
Ġà®¨ à®¿à®±
zi o
ĠØ³ Ø§ÛĮØª
Ġt a
sk ap
Ġãģĵ ãģ®
ĠáĥĴ áĥĲáĥł
Ġber b
Ð¾Ñģ Ñģ
en ce
ĠktÃ³ re
Ġm on
ĠØ¹ÙĦÙĬ Ùĩ
per ti
à° ¥
ç ¡
áĥļ áĥĶáĥĳáĥĺáĥ¡
Ġter b
á» £
ì¶Ķ ì²ľ
Ġà¤°à¤¹ à¥ĩ
Ã ı
å½©ç¥ ŀ
Ñ Ĭ
Î´ Î®
áĥĲáĥĵáĥĴ áĥĶáĥľ
Ġáĥĵ áĥĲáĥľ
å¯ ¼
å ĸ
Ġag æĹĹèĪ°åİħ
å¼ º
ÙĪ ÙĨØ¯
ĵ à¤Ĥ
Ġbe en
ĠÂ ³
à¦¿à¦ ļ
à®¸ à¯į
ig e
Ġmo Å¼
Ġq uy
à¸´ à¹Ģà¸
æĸ ¯
Ġ0 1
à¸´ à¸Ļà¸
¸à¸ ķà¸
Ġà¦¤ à¦¾à¦¦à§ĩà¦°
áĥĿáĥľ áĥĺ
åŁ º
Ġ×¢ ×ĵ
ay s
Ġpag b
Ã ģ
Ġä¸ Ĭ
à§ģà¦° à§ģ
ķ à¸£
Ġáĥ¡ áĥĲáĥĵ
Ðº ÑĤ
Ġà¤ķ à¤®
Ġà¤ī à¤ª
Ľà¸£à¸ °à¹Ģà¸
ĠØ§ÙĦÙħ Ø³Øª
Ġz ur
Ø§Ø±ÙĬ Ø®
ci o
is k
Ġger ek
Ġf az
Ġáĥ¡áĥ®áĥķ áĥĲ
Ġprz ed
Î¹Îº ÎŃÏĤ
¹à¸ ģà¸
çĦ ¶
Ġb ÄĻ
Ġæľ ī
Ġx e
Ġein em
áĥĺáĥª áĥĺ
áĥĺáĥĻ áĥ£áĥłáĥĺ
Ġà¦ķ à¦¾à¦
ãĥ Ļ
à°· à±įà°Ł
6 8
à¦¾à¦° à¦¾
tiv o
à¸Ńà¸ ģà¸
ĩ à¸²à¸Ļà¸
ĠÙ¾ Ø³
Ġseb agai
ìĶ ¨
Ø§Ø¨ Ø©
Ġch i
ow i
at to
è® º
Ġà°¤ à±Ģà°¸
ti f
ing s
Ġë¶ Ħ
Î½Î¿ Î¼
æĶ ¶
Ġæ ¶
ì½ Ķ
ãģĹ ãģ¾ãģĻ
Ġag èµĮ
Ø§Øª ÛĮ
áĥĶáĥ¡ áĥ¢
n osti
Ġà°ª à°¾à°°
Ðº Ðµ
Ö ´
ÏģÎ¹ Î½
l aÅŁ
ëį ĺ
à®¤ à®¿
Ġà¦¨ à¦¾à¦®
×ķ×ĳ ×Ķ
k lad
å¾ ĭ
igh t
Ġêµ Ĳ
Ġà¤¸ à¥Ģ
ĠØ§ÙĦØ£ Ø³
Ġl Ã½
Ġt u
Ã¶ l
Ã¶vl ÉĻt
à¤¿à¤ ®
ĠÃ§ Ä±k
Ð¾Ð»ÑĮ ÑĪ
à°°à±įà° µ
à¯ģà® ªà¯į
Ġà®ª à®°
ĠáĥĹáĥĳ áĥĺáĥļáĥĺáĥ¡
es ar
Ġ×ĳ ×ĳ
Ġà¦¬à¦¿à¦ Ń
ĠÙĪ Ø±
Ġm at
ÄŁ r
áĥ§ áĥĿáĥ¤
or a
Ġà®µà¯ĩà®£à¯įà®Ł à¯ģà®®à¯į
à¥įà¤ ¨
Ïİ ÏģÎ±
Î¯ Î¿
Ġv Ã¦re
l Ã¡
h t
ĠáĥĲáĥĵ áĥĴ
Ġc Ã¹ng
Ġ×Ĳ ×ĳ
ëĬ ¥
Ġon t
Ġëª¨ íħĶ
ĠâĢ ¦
Ġc áº¥p
Ġn y
Ġæ ²
cy j
Ġà®¤ à®©
ÑģÑĤÐ² ÐµÐ½
Ġå ·
Ø¹ ÙĪØ¯
Īà¸ °
ĠØ´ Ùħ
ĠD E
ĠÙĪ ØŃ
å§ Ķ
ä¼ ģ
à¦§ à¦¾à¦¨
ilik i
ĠS a
Ġáĥ¡áĥĲáĥ £áĥ
Ġh g
åĢ ¼
Ġ×ľ ×¦
íĺ ķ
è½ ¯
Ġà°ī à°Ĥà°¡
à¦Ļà§įà¦Ĺ à§ĩ
Ġor ang
à¸µ à¹Īà¸
er d
ãģ¾ ãģ§
à¦° à§ĩà¦°
Ġ1 5
Ġen tre
è¿ ĺ
à¥ģ à¤¤
ą ć
ĠÙĬ ØŃ
er i
è® °
ĠÏĥ Ïį
æł ĩ
ĠnhÆ° ng
Ġà¤ľ à¥Ģ
æ Ĳ
ãģĹ ãĤĩ
Ġvá» ¥
Øª Ø§Ø¨
Ġb aÄŁ
Ġy az
Ġà¹ģà¸ ¥à¸°à¸
à®° à¯ģà®®à¯į
áŁ Ĵáŀ
à¦¾à¦ £
º «
r ar
ģ à¹ĩ
ras il
Ġäºļ ç¾İ
ĠP ag
×ŀ ×ķ×ª
ru ik
à¦ª à§ģà¦°
¤ Ģ
am it
Ġ×¢ ×¦
Ġall e
Ġë ĺ
à°ªà±įà°ª à±ģà°¡à±ģ
à¤° à¤¾
ãĥ© ãĤ¤
Ġ×ľ ×Ĵ
szy st
ĠáĥĻ áĥķ
j en
ĠÐ¾ Ð¿
ĠØ¨ Ø´
ĠÙĪ ÙĦØ§
à°¿à°¤ à±ĩ
à¤¸ à¥įà¤¤
æĹ ©
áĥĴ áĥĲáĥľ
Ġwh at
ì ¶
æį ®
ÐµÐ» Ñı
Ïĩ Î±
4 5
à®ķà¯įà®ķ à¯ģ
Ġ à¸Ļ
k at
Ã Ĥ
m ÉĻ
Ġqu a
Ġï¼ Ľ
à§Ģ à¦¨
ĠâĢ İ
ÏĦÎ¿ Ïį
20 19
ĠÙĤ Ø§ÙĦ
ãģĵãģ¨ ãģĮ
Ġv ideos
Ġë ¦¬
s ere
à® ŀà¯įà®ļ
r ie
ÙĦÙĬ Ùħ
Ġà°ħ à°§
à¥ĩ à¤¤
Ġç ĭĹä¸ĩ
à¦¾à¦° à§ĩà¦°
ov e
Ø® ÙĦ
å° ĳ
è Ń
Î¹Îº ÏİÎ½
×Ĳ ×Ļ
à¦°à§įà¦ ¥
m ÉĻt
Ð½ ÑĥÑİ
as Ä±nda
à¥ĩà¤ ľ
à®¿à®ķ à¯į
Ġph áº©m
à°Ł à°¿
ç» Ħ
cj e
å· §
st en
å¸ ĥ
Ġh ÉĻm
áĥĶáĥĳ áĥĶáĥļ
à®¾à®± à¯įà®±
íķľ ëĭ¤
åĪĨ æĹ¶æĹ¶å½©
à¸Ńà¸¢à¸ ¹
Ġl ub
Å¯j Äį
ë° ľ
×¤ ×§
ic as
ä» Ģ
ë ¸
à°¾à° ¶
áĢ¹ áĢ
Õ¡ Öģ
Ġyap Ä±l
ëĵ¤ ìĿ´
à¥įà¤¯à¤¾à¤ ¤
ìĦ ¤
ĠÙĦ ÙĬ
à§ĭ à¦ķ
Ġpro p
Ġm ej
à¦¸ à¦²
à°¯ à°Ĥ
ĠÕ ¿
Ð¾Ð»ÑĮ Ð·
åĲ ĳ
à¥Ĥ à¤°
ÙĪ Ø©
Ø§Ùħ ÛĮ
ä½ ł
k Å¯
y n
à±įà° ·
Ġv el
Ġs Ã£o
0 8
àµį âĢį
áº¥ u
Ġï½ ŀ
Ġå Ĩ
Ġà°ªà±įà°° à°Ń
à°¿à°¯ à±ģ
I d
ĠV i
ÃŃ s
à¦¿à§Ł à¦¾
Î» ÎµÎ¹
as an
à¦¤ à§įà¦¯
ovÃ¡ nÃŃ
s jon
áĥ£áĥ ¥
u is
Ġtr Ã¬nh
ĠÎŁ Î¹
Ø¦ Ø©
Ġes sere
à®¾à®¤ à¯ģ
ĠØ§ Ú¯Ø±
ÅŁ Ä±
Ð¾Ð¼ Ñĥ
ÏģÎ¹ Î¿
Ġb ien
m iÅŁ
å¥ ³
Ġà®ħà®¤ à®¿à®ķ
Ġ ÉĻm
á» «
à±įà° ¬
Ġáĥ¡áĥĲáĥ ¨
ãģ¨ ãģĹãģ¦
ĠØ±ÙĪ ÛĮ
p res
Ġà®ļà¯Ĭ à®²à¯įà®²
ĠÙħ Øµ
ĠØº ÙĬØ±
ĠP r
a cak
ĠÄĳ ang
ĠØ£ Ø³
Î¿Î½ ÏĦÎ±Î¹
à¹Ĥ à¸Ļ
ĠÚ©Ø±Ø¯ Ùĩ
or s
ìł Ĳ
Ġsa ÄŁ
×¨×Ĳ ×©
à§Ģ à¦¬
ÐµÐ» Ð¸
×ĵ ×Ŀ
Ġà® ¸
Î³ Î¬
Ġáĥ¡ áĥŀ
Ġth an
à¤Ĺ à¥Ģ
ĠìŀĪ ìĬµëĭĪëĭ¤
æ ©
ĠØ§ÙĦØ¹ Ø§ÙĦÙħ
Ġun ter
ĠnÃ³ i
áĥĺáĥľ áĥĺ
Ķà¸¥ à¸Ńà¸ĩ
Ġk n
±à¸ ļà¸
ĠÙĤ Ø¨ÙĦ
à®¾à®¯ à¯į
Ġn uov
ĠØ§ÙĦÙħ Øµ
à¥į âĢį
Ġa ber
áĥĲáĥ «áĥļ
Ø¯ ÛĮ
Ø· Ø±
à¥įà¤ ·
Ø¶ ÙĪØ¹
k t
á»ĵ i
ĠÂ ¼
f Ã¼
Ġl Ãªn
Ġp om
ë£ Į
Ġáĥ¡áĥĲáĥ ĸ
à¹Ģ à¸£
ur es
éĻ Ĳ
e h
il en
sk a
ĸ à±įà°¯
à§ģà¦ ĩ
åŀ ĭ
âĢ¦ âĢ¦
×Ĳ ×Ļ×Ŀ
Ġëħ ¸
ĠØ² ÙħØ§ÙĨ
å ¦
ĠÐ· Ð°Ðº
Ġd zie
Ġn ur
Ġn iya
in den
Ġà¦¸ à¦¹
Ġn ett
ìŀħ ëĭĪëĭ¤
Ġà®Ĩ à®ķ
Ġà¤īà¤¨ à¥įà¤¹
ĠëĲ ĺ
ĠíĮ Į
amb Ã©m
ÑĢ Ð°Ð·
Ã Ī
Ïģ Îº
Ġb iáº¿t
Ġë° °
¡à¸² à¸£à¸
ĠÃ§ Ä±x
Ġà¹Ĥà¸ Ľà¸£
Ġw ould
à¥Ĥ à¤ª
Ġch Ãºng
Ġ×Ĳ ×Ļ×ļ
on a
Ġn em
Ġà®ķ à®Łà¯įà®Ł
à¹Ģà¸ ª
Ġheb ben
æł ¼
Ġà¸ ģà¸²à¸£à¸
à®¿à®¯ à¯ģà®®à¯į
Ġà¦®à¦§à§įà¦¯ à§ĩ
à§įà¦ Ľ
ĠÐ²Ñģ Ðµ
ĠM ay
ç ĸ
Ġå¤ ©
Ġå ¿
ìĿ´ ìĬ¤
Ġkh Ã¡c
ĠÎ¸ Îµ
å£ ²
å½ ĵ
Ġå Ń
Ġh Ãłnh
ÛĮ Ø±ÛĮ
Ġm ol
à°Ĥà° §
±à¸ ļ
Ġáĥ¡áĥĲáĥ Ķ
ĠM as
ĠÙĬ ÙĤ
à´ °
ÐµÑģ Ñģ
¢ à¸Ļ
ei ten
×ľ ×ĺ
il d
ĠÎ´ Îµ
iy at
Ġë Ĩ
ï¼ Ĳ
Ġl Æ°á»£ng
ĠØ£ Ø¨
ĠÎľ Î±
b t
à®¤ à¯Ī
à±ĭ à°¤
à¯įà® ¨
a ce
Ġ1 8
m eld
ĠP ol
ujer es
la v
ĠÃ Ķ
Ä±m Ä±z
¡à¸ ±à¸
Ġ×§ ×¨
aw ala
Ġà¦Ĩà¦® à¦¿
Ġsa y
áĥĺáĥłáĥ ĵ
le ÅŁ
áĥĲáĥķáĥ¨ áĥĺáĥł
Îº Î±Î½
Ġç Ľ
ĠgÃ¶ re
Ġà¦ķ à¦¿à¦Ľ
à§ĩà¦¨ à§įà¦Ł
w erk
as Ä±nÄ±n
ÎĳÎ ¤
gun akan
c ul
Ġà¤® à¥ĩ
ÑģÐº Ð¾Ð¹
Ġãĥ ĸ
à§ĭ à¦Ł
Ġæ ±
Ġkull an
áĥĶáĥ ŀ
ÙĤ Ùħ
ä½ ķ
ÎĻ Î£
à¤¾à¤° à¤¾
Ġ×ĳ ×Ľ
Ïĥ Î¿ÏħÎ½
ĠØ³ ÙĪ
ur an
Ġà¦¦ à¦¿à¦¨
Ġà¦¹ à¦²
il ÉĻn
Ġag è§Ĩè®¯
ãģĭ ãģ£ãģŁ
Î´ Î¹Î¿
Ð¾ÑģÑĤ Ð¾
æİ ¨
Ġáĥ £
Ġà¹Ģà¸ Ķà¸´à¸¡à¸ŀà¸±à¸Ļà¸
Ġáĥ Ń
à®µ à¯ģ
Ġpr Ã©
Ġb le
Ïĥ Î±Î½
ab al
Î· ÏĥÎ·
Ġt ao
í ĳľ
Ġ áĢ
Ġë ¡
Ġà¦¹à§Ł à§ĩ
Î¸ ÎŃ
Ġà®ī à®£
Ġà°Ń à°¾à°°
Ġ×Ĺ ×©
Ø§Ø¯ ÙĬ
Ġìĺ¤ íĶĦíĻĶìĿ´íĬ¸
zi a
ar k
à¦ª à§įà¦°
in k
Ġë¬ ´
íĥ Ŀ
ĠÙĨ Ø¯
ĠáĥłáĥĿáĥĴ áĥĿáĥł
à Ń
Ġ13 9
ÑģÐº Ð¸Ð¹
ĠÃª tre
ver y
Ð Ĵ
áĥĶáĥĳ áĥĶáĥľ
Ġm Ã¡y
Ġpel o
Ñĥ Ð½
ÙĤ Ø§Øª
Ġì Ī
aci on
×Ĳ ×¨
ãĥ¼ãĤ ¸
à¯ģà®ķà¯įà®ķ à¯ģà®®à¯į
Ġå ¸
å¤ Ħ
à¦Ĺ à§įà¦°
Øª ÙĩØ§
è¯ ·
Ġáĥ£áĥ¤ áĥłáĥĿ
ìĹĲ ê²Į
ĠÏĢ Î±Î¹
ĠáĥĶ áĥ¥
à¹Ģà¸ Ķ
Ġhab en
åı¯ ä»¥
Ø²Ø§Ø± Ø´
Ġà¤¯ à¤¾
Ġà°®à°° à°¿à°¯à±ģ
ĠØ³ Ø§Ø®Øª
ĠáĥĽáĥ® áĥĿáĥļáĥĿáĥĵ
Ġla v
Ľà¹ĩ à¸Ļà¸
) .
¥à¸ĩà¸ Ĺà¸
Ġà®µà®¾à® ´
gh t
ĠâĢİ #
u es
Ġà¦¬ à¦Ľ
Ø³ Ùĩ
Î³ Î®
Ġd urch
Ġà°ķ à°¾à°¨
Î© ÎĿ
Ġà®¨ à®¾à®©à¯į
æ° Ķ
×Ļ×§ ×Ķ
ĠØ ¸
ent er
à±ģà°¤ à±ģà°¨à±įà°¨
Ġb et
à°° à±ģ
Ġp ra
Ġs in
×ķ×ľ ×Ķ
Ġn Ãło
Ġà¤¬ à¤¾à¤°
Ġtr a
Ùģ Ø¹
s an
ĠØ¨Ø® Ø´
Ħà¸§à¸²à¸ ¡
l Ã¼
Ġìł Ģ
ti es
à±ĩà° ¤
×ŀ× ĵ
à§įà¦¤ à§ģ
Ġcon s
áĥĶáĥĳ áĥĿáĥĵáĥĲ
Å ¥
Ġf Ã¥
Ġw p
Ġ365 bet
Ġà¤ Ŀ
ĠÎł ÏģÎ¿
áº¯ n
Ġme hr
Ġag å¹³åı°
ãģĹ ãģ¾
ĠØªÙĪÙĦ ÛĮØ¯
Ġà¦¹ à¦¯à¦¼
Ġd ahil
eb er
à¤ļ à¥Ģ
ãģ ³
ì »
Ġà¤® à¥ģà¤
ĠØ¨ Ø²
áº£ m
æĬĢ å·§
ï¼ ĳ
Ïĩ ÎµÎ¹
ak a
Ġb lo
à±ģà°ķ à±ģà°Ĥà°Ł
á»ĩ nh
Ġáĥĵáĥĺáĥĵ áĥĺ
áŀ ¶
Ã¸ n
ķà¸±à¸ §
ĠíĶ Ħ
à¦¸ à§įà¦¯
Ġpr ov
ìĭ ¬
à®¿à®² à¯ģà®®à¯į
áĥł áĥĲ
Ġ2 3
§ ç¾İ
Ð Ł
à¦¾à¦® à§Ģ
Ġãĥ ¬
é¤ Ĳ
åºĨ æĹ¶æĹ¶å½©
i v
ĠÐ´ Ð²
Ã ĩ
æĥ ³
ĠÚ©ÙĨ ÙĨØ¯
ãģ »
uk ha
o z
Ġw ere
Ġä» ĸ
ĠÂ ±
ed e
ĩ à¸²à¸Ļ
à¶ ±
Ġm ata
Ġ×Ļ ×Ľ×ķ×ľ
Ġê³ Ħ
Ã³ ng
ĠÙ¾ Ø±ÙĪ
Ä± yor
Łà¸ ¸à¸ķà¸
ìĹ Īëĭ¤
Ġìļ° ë¦¬
Ø± Ùĩ
aj ÃŃ
ĠØ¹ Ø¨Ø¯
Ġ×¨ ×§
Ġw iÄĻ
ĠØªÙĩ Ø±Ø§ÙĨ
Ġà¦¶ à¦¿à¦ķà§įà¦·
°à¹Ģà¸ ļ
Ø³ Ø·
i u
Ġan h
Ġit s
Ø« ÙĬØ±
Ġëĺ Ĳ
Ġáĥ¡áĥĲáĥ ĺ
ĠR e
Õ¸ÖĤÕ©Õµ Õ¸ÖĤÕ¶
Ġpagg amot
ĠÚ¯ Ø²Ø§Ø±Ø´
Ġf ait
çķ Į
Ġà¦ķà¦° à§įà¦®
ĠK ung
Ø§ ÙĬ
ÏĦÎ· ÏĤ
Ġas s
Ġtr Æ°á»Ľc
ov an
Ġà¤¸ à¤°
à±įà°¯ à°Ĥ
ÐµÑĢ Ð¶
ìĺĪ ìķ½
ĠÎ Į
åĮ Ĺäº¬
×ŀ ×ķ×ĵ
ĸà¸ ¶à¸
à°¾à°Ĥà° ¤
à±ģà°ķà±ĭ à°µ
ä¸ ĸ
æĶ ¾
ĠÙĪ ÙħÙĨ
ä¸ ¤
ģà¸ ±à¸Ļ
áĥ£ áĥĲáĥļ
Ġmen d
ãģĹãĤĩ ãģĨ
Ġn Äĥng
ĠáĥĻáĥĿáĥĽ áĥŀ
Ġà¤¬ à¥Ģ
ag li
Ùĩ Ø¯
ĠÂ ´
ìłģ ìĿ¸
ÙĤ Ø·
ĠØ¯ÛĮ Ú¯Ø±
ek en
Ġlá» Ľ
ì ¶ľ
Ġnh áºŃn
Ġz e
ĠØŃ ÙĬØ«
ĠÐ¿ Ð¾Ðº
Ġc áº§n
à¤ ¢
ĠØª Ø§Ø±ÛĮ
Ġíı ī
Îµ Ïį
å· ²
Ġm uy
Ø§ ÙĪØ±
Ġc ar
à±ģà°ķ à±ģà°¨à±įà°¨
æĪ ¿
Î½Î¿ Î½
ĠØ¹ ÙħÙĦ
Ã¼ re
Ø¬ Ø©
ĠÂ µ
el ser
à®¤à¯įà®¤ à®¿à®©à¯į
Ð¸ Ð³
Ġdi s
ĠÄĳ Ã¢y
Ġen t
Ã³ a
à¯ģà®³à¯įà®³ à®¤à¯ģ
Ġáĥ¬ áĥ§
ĠØ§Ø· ÙĦ
Ġê³ ¼
ãģŁ ãĤģ
×ª ×¨
Ġà¤¸ à¤¬
ĠåĽ ½
ĠØ¹ Ø§Ùħ
Ĥà¸ ¶
à¤¾à¤ł à¥Ģ
ç« ĭ
à®Ł à¯ģ
á»ĵ ng
Õ¸ ÖĢ
æ Ł¥
Ġà¤µ à¤¹
Ġph Ã¡t
Ġo lar
à¦¾à¦¨ à§ĩà¦°
æĭ į
l ag
Ġà°¨ à±ĩ
ing er
ĠÙĬ ÙĪÙħ
ÑĨÐ¸ Ð¾Ð½
ÙĨ ÛĮÙĨ
el p
ĠØ¯Ø§Ø´ Øª
æģ ¯
ĠA b
Ġìĺ ¨
Ġy ax
Ġs angat
it et
ou ve
Ķ à¸µà¸
æĪ ĸ
Ð» Ðµ
à¤¾à¤¨ à¤¾
Ġà®® à®ķà¯įà®ķ
Ġmu ito
à¦°à§įà¦ ®
Ġt id
Ġmer eka
Ġes c
ah l
Ø§Ø± Øª
am y
Øª ÙĪØ§ÙĨ
ãĤĮ ãģ°
ÏĦÎ¹Îº Î®ÏĤ
Ġà¦ķ à§ĭ
Ġà¦¸à¦° à¦ķà¦¾à¦°
Ġk el
Ġt ek
à¸Ļà¸µ à¹īà¸
ei s
r ough
ÑģÑĤÐ² Ð°
ĠãĤ ª
ÙĩâĢĮ ÙĩØ§ÛĮ
Î¼Îµ Î½Î¿
Ġìĸ ĳ
æ ¹
Ġà¦ķà¦¿à¦¨ à§įà¦¤à§ģ
ĠY ou
ĠØ§ÙĨØ¬ Ø§Ùħ
al is
ĠL os
Ġl le
Ðº Ð¾Ð²
k ow
ĠçľŁ äºº
íķ© ëĭĪëĭ¤
ä¹ ¦
ĠÃ¶l k
Ġs ta
Ġà¦ķ à§įà¦·
und a
ĠÙĩ ÙĨØ§
Ġíĺ¸ íħĶ
alar Ä±
Ġ Õ¡Õ
Ġà¤¦ à¤¿à¤¯à¤¾
Ġà¦¬à¦¿à¦ ·
Ġ×ĳ ×Ļ×Ł
Ġh ay
à¯Ĩ à®¯
Ð¸ÑĢ Ð¾Ð²
Õ¸Õ ¾
Ġà¤¥ à¥Ģ
è ±
Ġt Æ°
è½¯ ä»¶
p a
æī ĵ
al g
åĳ Ĭ
Ġkad ar
Ġà¦ĺ à¦Ł
Ġ×Ļ×© ×¨×Ĳ×ľ
à°Ĥà°¤ à±įà°°
os i
×ŀ× Ĳ
Ġju st
Ġk as
×¤ ×Ļ
ĠØŃ ØªÙī
à±įà° £
Ã© ri
ĠÃ ½
Ġm áº·t
ĠÐµ Ð³Ð¾
è´ ¨
æ¸ ħ
è º«
ãģ® ãģ¯
ãģŁ ãģĦ
ĠÙĨÙħ ÛĮ
ĠØ§ÙĦØ¹ ÙħÙĦ
Ġkter Ã©
Ġà¦¨à¦¿à¦ ľ
à®° à¯Ī
Ġà°Ĺ à±įà°°
Õ¸Õ ²
à¥ĭ à¤Ł
Ã¼y Ã¼k
Ġc ette
Ġà¤ Ĳ
ĠÎ±Î½ Î¬
ĠÎ± Ïĥ
Ġà¹Ģà¸ ¥
Ġy a
ÑģÑĤ Ð°Ð²
ãģ Ĵ
p e
ÏģÎ¿ Î½
åł ±
Ġsa at
ĠA uf
çĶ »
Ġìŀ ħ
ent os
Ġà¦ ¢
ÛĮÙĨ ÛĮ
l ov
aÅĤ a
Ø§Ø¨ ÙĦ
ed ir
Ġà®ª à¯ĩ
ãĥ§ ãĥ³
us s
Ø§Ùħ Ø¬
Ä±n Ä±z
Ð» Ð°
ĠØ§Ø·ÙĦ Ø§Ø¹
ap ag
ig n
à¦Ĺ à§ģà¦²
ì ¢
Ġë§ İ
à¤¤ à¥įà¤¤
b eid
ĠØ¯ ÛĮØ¯
Ð» Ð°Ð´
Ġin to
Õ¥Õ ¿
ÏĥÎµ ÏīÎ½
æ± Ĥ
åĨ Ľ
uh an
Ġç §
± ħ
Ð¸ ÐµÐ¼
Ġis ÉĻ
ĠØ§ÙĦÙħ Ø¯
Ġk em
ĠÎ´ Î¹Î¬
ĠØ² ÛĮØ±
à¸µà¸¢ à¸Ļà¸
Ġà®ħ à®´
Ġ×ľ ×ķ
Ġwor m
å® Ł
k ie
Ø· ÙĦ
åģ ļ
Ø¹ ÛĮ
i que
Ġà¤¬ à¤¹
Ø§Ø² Ùħ
æ² ¡
Ã¤ r
ĠÙĪ ÙĨ
çĶµ å½±
Ħà¸£à¸Ķà¸´à¸ ķ
íķĺ ìĹ¬
Ġà¤ķ à¥ģà¤
ĠÙĪ Ùĥ
et ti
Ĺà¸ ³
à®¿à®¯ à¯Ī
ĠÎĳ Ïħ
ant es
à¥ģ à¤®
ä¾ Ľ
Ġà®¤ à®¾à®©à¯į
b ÄĽ
è° ĥ
en cia
ãģª ãĤĵ
Ġh ad
Îº Î¹
íĭ °
ĠåĪ ©
ÑĥÐ» ÑĮ
ĠëĮĢ íķľ
çĦ¡ æĸĻ
ĠØªØ§Ø±ÛĮ Ø®
ç ¶
ek t
à¦¿à¦ ī
à®¿à® ³
Ġà¦®à¦¾à¦¨ à§ģà¦·
ti l
Ġìķ Į
ey d
os ta
åıĳ å±ķ
×ŀ ×Ļ×ĵ
ÎĳÎ Ŀ
à¯ģà®ķ à®¿à®±
Ġpel a
ĠB ir
à°¾à°° à°¿
Ïĩ Î½
Ġà¦Ĩà¦® à¦¾à¦°
ģà¸ ©
Ġde g
åĮ Ĺ
à§ģà¦ ĸ
ĠÐ¿ Ð¾Ð¼
ëħ Ģ
Ġà®İà®¤ à®¿à®°
p ad
ĠN o
à¯ģà®ķ à®¿à®±à®¤à¯ģ
ĠÏĩ Î±
Ġt ambÃ©m
amp ai
Ġs iya
à§įà¦ ŀ
Ġà®ķà¯Ĥ à®±
ĠÂ ¿
ģ à¸£à¸°à¸
Ġs ou
Ġà¸ ĭà¸
à®² à®¾à®®à¯į
ĠÕ Ģ
à°® à±ĩ
ç² ¾
ĠP ar
ÏģÎ¹Ïĥ Ïĥ
ãĥ Ħ
Ð¾ÑĢ Ð¾Ð´
Ġà¸Ĺà¸ Ķà¸¥à¸Ńà¸ĩ
æ Ł
Ïĩ Î®
aw an
à±ģà° ¸
us z
ing ga
Î¾ Îµ
×ł ×ĺ
u g
à§ĩà¦ ¡
à¤¿à¤ Ł
Î¼Î± Î½
ĠMar et
scha ft
Ġà¦Ĩ à¦ĩ
Ġhv or
Ġ×¤ ×¢
Ð¾ ÑĪ
à°°à±įà° ¶
à°ķà±įà°ķ à°¡
Ĭà¸± à¹Īà¸Ļ
Ġà¦ª à§ľ
Õ ¤
à°¿à°Ĥà°Ĺ à±į
Îķ Î£
à¨¿ à¨
à±įà°Ł à±įà°°
E S
Ġd Ã¼ÅŁ
Ã§ ek
Ġtá» ±
Ġà¦¸ à¦Ļà§įà¦Ĺà§ĩ
Ä±s Ä±
ĠÎ® ÏĦÎ±Î½
Ġn ue
ģà¸±à¸ ļ
ë¥ ¸
Ð¸ÑĤ Ðµ
ÉĻ ll
èĢ Į
Ġà¦¬ à§ĩà¦¶
Ġst r
Ġm is
Úĺ Ùĩ
Ġgi or
ĠÐ± ÐµÐ·
à¯ģà® ©
Ġà® Ĭ
Ø§ Ø©
à¦° à¦£
ï »
lÉĻ ÅŁ
v ar
ä»Ģ ä¹Ī
Ġà°ī à°Ĥà°Ł
à°³ à±įà°³
Ùĥ ÙĬ
Ãº t
Ġd ag
Ġ×Ĳ ×¨
ari x
on der
ĠÙĪ Ø¬ÙĪØ¯
à®¾à® ľ
Ġ×ŀ×Ĺ ×Ļ×¨
Ġf ir
à¤¿ à¤Ĥ
Ġz aman
à¤¾à¤ ĵà¤Ĥ
ãģķ ãģĦ
à¤Ĺ à¥ĩ
Ġà¦¬à¦² à§ĩ
ud i
alak i
ĠÐ¿ÑĢ Ð°Ð²
ãĤ¹ ãĤ¿
Ġb á»Ļ
ĠÎ½ ÎŃ
ĠÐ¿ÑĢ Ð¾Ð´
Ġqu al
à¹Īà¸ ¡à¸
Ð¸ÑĢ Ð¾Ð²Ð°Ð½
éĹ »
ìħ ĺ
è ¼
ad ÉĻ
ĠB er
à°¸ à°Ĥ
ÏģÎ¹ÏĥÏĥ ÏĮÏĦÎµ
Ð¾Ð» Ð½
ÉĻl um
Ġ×ŀ ×¨
ç Ł¥
Ã¼ s
Ġà® ¹
ĠÎ Ĩ
Ġu Å¾
Ġest Ã¡
æ§ ĺ
à¤ķ à¥ĭ
åį İ
áºŃ y
Ġk dy
ãģĪ ãĤĭ
á»¯ a
Ġser v
Ġch áº¥t
à¯ĭ à®®à¯į
Ġse c
Ïģ Î¸
ĠW h
íķ ¨
ĠÙĦÙĦ Øª
ur um
ĠØ§ÙĦ Ø§Ø³
Ġë Ŀ¼
Ġì ¦
à¦¿à¦ ¡
ĠÙĥ Ùĩ
à¦¡ à¦¼
ub b
é¡ ¹
ãĢ Į
Ġ×ľ ×ĵ
ĠØ£ ØŃ
Õ¸ ÖĢÕ
ag gio
ÑģÑĤ ÑĢ
ari os
æŃ ¤
P P
j Å¡ÃŃ
Ġà¦ħà¦¨ à§ĩà¦ķ
Ġk ami
Ġà¸ Ĥ
Î»Î» Î·Î½
Ġc re
Ã¸ k
ĠØ³ ÙĨÚ¯
Ñĥ ÑĪ
Ġà¤ľ à¤¿à¤¸
y la
ĠÙħØŃ ÙħØ¯
Ġmem iliki
ĠE st
é£ ŀ
æ Ĥ
×ł ×Ļ×ª
ï ¾
m i
æĺ Ł
ĠÕ º
Îµ ÏĢ
ĠãĢĳãĢĲ ãĢĤ
à®¤ à®¾à®ķ
ĠÚ¯ Ø±Ø¯
Ùģ Ø©
Øª Ø¨
ĠØ¹ ÙĦ
e uk
à¤ļ à¥ĩ
Ø¶ Ø¹
ÉĻn in
à¦ ·à§įà¦Ł
è© ±
Ġh elp
ĠÙĩ ÛĮ
Ġà®ī à®°
u gu
Ġà¤ĩ à¤¨
Ġà®® à®°
20 20
ĠÎĶ Î¹Î±
ĠÐ½ Ð¾Ð²
lar a
ãĤ ¬
Ġnghiá»ĩ p
Ġ Ù
ĠÎ¤ Î±
.. ..
Ġse perti
ÉĻc ÉĻk
à¥ģ à¤¦
åł Ĥ
lich en
Ġ×Ĺ ×ĳ×¨
Ä± lÄ±
ĠÎº Î¹
Ġ×Ļ ×Ķ
è¨ Ī
Ġab euk
åĪ Ľ
ĠØ¹ Ø¯Ø¯
Ġ0 0
lich e
å¤ ´
×¤ ×ĺ
Ġà¸ Ľ
à§Ł à§ĩ
Õ¡Õ ®
ĠØ´ Ø¨
åħ ī
å Ķ
h l
un n
à¥įà¤ §
à¯ĭ à®¤
à¹Ģ à¸£à¸µà¸
Ġâ ŀ
Ġê° Ĳ
Ġ1 00
éĸ ¢
Î» Î¿Ïħ
Ġse xo
ĠÎº ÏĮ
Ġ×© ×¢
Ġde v
ĠA s
Ġv Ã¬
Ġs or
Ġà®ª à®£
ĠÕ ¤
ĠÙħ ÙĬ
é¢ Ħ
Ġ ÏīÏĤ
Ġxu áº¥t
7 0
Ø± Ø³ÛĮ
ìĥ ī
à¹īà¸Ńà¸ ¡à¸
à¦¤ à§ĭ
áº¡ ch
Ġà°® à°¹
ĠØ§Ø³ ÙĦØ§Ùħ
Æ°á»Ľ ng
ler e
Ġà° ·
ìĹħ ìĨĮ
à¸Ńà¸ ļ
ti sch
Ġà¤°à¤¹ à¤¾
ãĥ Ľ
Ġt ara
Ġê²Į ìŀĦ
Î» Ïħ
asi h
íĸ Ī
Ġà¦ķà¦¿à¦Ľ à§ģ
Ġà®¤à¯Ĭà®Ł à®°
Ġ ä¸ŃåĽ½
à®¾à®® à®²à¯į
è İ
Ġh od
Ġ0 4
Ġå½©ç¥ŀ äºīéľ¸
Ġê° Ļ
à¥ĩà¤ ļ
Ġ×ĳ ×ĵ
ļà¸Ńà¸ ¥à¸
Ã į
u el
åľ¨çº¿ è§Ĥçľĭ
Ġcu i
i Ãªu
ĠÐ² ÑĢÐµÐ¼
ģà¸ ¥
×ķ ×ķ
Ġs ul
at z
Ġ ei
Ġs it
åĬ ŀ
al q
íķĺ ê¸°
al im
é£ İ
Ġd in
ìĪ ł
und o
è¿ ĳ
Ġ) ,
ĩà¸´ à¸Ļ
Ġ" .
ĠØ³ Ùĩ
Ġkan yang
ãĥĩ ãĤ£
Ġs emp
s g
Î» ÎµÎ¯
Ġc as
Ġb ardz
à±įà°° à°®
Ġà®ķ à®¾à®°
Î½Î· ÏĤ
Ġà¤¸ à¥įà¤µ
os z
ë³ ¸
×ľ ×Ĺ
ĠÐ² Ð¸Ð´
ãģ« ãĤĪ
Ð» ÐµÐ½Ð¸Ñı
Ø® Ø§Ø¨
ëĤ ľ
ik k
à°ª à±Ī
Ġm ukha
íķĺ ê²Į
a il
ĠÎĶ Î·
ķ à¸£à¸
O S
Ġå¤§åıĳ æĹ¶æĹ¶å½©
ë° ĺ
Ġà®ª à®¾à®¤
Ķà¸ ¢
ĠÙĩÙħ ÚĨ
æĮ ĩ
ãĤĵ ãģª
ãģ ¸
ĠØ¨Ø¹ Ø¶
ĠØ¨ Ø§Ø±
ĠÎ¼ ÏĮ
×¨ ×ļ
Ġê² °
Ñı Ð·
Ġ$ (
ed er
Ġm Ã¡
ç ı
Ġt ent
ĠØª Ø´
Ġblo ck
Ġà°µà°¿à° ·
Ġgi an
Ġà¦® à¦¹
à±ģà°¨ à°¿
Ġd Ã¢n
Ġà¦¬ à¦¾
Ġpar te
èĤ ¡
ä¾ ¡
Ĺà¸ ³à¸
à¦¾à¦° à§ĩ
ĠØ¨Ø± ÙĨØ§ÙħÙĩ
Ġto do
ä¸ ĵ
n es
en do
á»į i
ì° ½
éĢ ł
1 6
Ġhar us
Ġæĺ ¯
Ġv ÃŃ
j i
op le
ëĿ¼ ìĿ¸
Ġw szyst
Ġ1 6
ad Ä±
Ġ à¸£
ĠN ie
ĠÆı l
Ġan o
ĠÎ±Î½ ÏĦÎ¹
j ÄĻ
r Ã¥
ê¹Į ì§Ģ
Ġf Ã¸l
ta in
ãģĹãģ¦ ãģĦãĤĭ
Ïĥ Î¹Î±
ab aj
Ġ×ķ ×©
Ġd aar
Ġb ed
ang e
ĠØ® Ø§ÙĨ
Ø§Ø¹ Øª
Ġà°ķ à°¨
Ø±ÛĮ Ú©
ĠÙħÙĨ Øª
Ġà¦ķà¦¥ à¦¾
ĠTÃ¼rk iye
íĮ Į
ÚĨ Ùĩ
Ġus e
al s
éĸ ĭ
á» Ĺ
t es
Ġà¹Ģà¸Ķà¸´à¸¡à¸ŀà¸±à¸Ļà¸ Łà¸£à¸µ
Ġà¦¯ à¦¾à§Ł
Ġà¸ Īà¸
Ø§Ø¦ ÙĬØ©
Ġà¦ļ à¦²
u jÄħ
Ġf aire
èĲ ¥
ari h
Ġ0 00
Ã¸ re
Î¯Î½ ÎµÎ¹
Î¼ÏĮ ÏĤ
à¦¾à¦° à¦£
j es
åı ĺ
er ja
æ² ³
el ler
Ġmak e
Ġson ra
Ã ĵ
Ġ×Ľ ×ļ
Ġ2 4
à±Ģ à°¨
à§įà¦° à¦®
es k
ĠÐ¾ ÑĢ
Îº Î®
à¦¾à¦ «
Ġk r
Ġcom me
áº¯ ng
çĶµ æ¸¸
Ð¾Ð¿ ÑĢ
Ġà¤ķà¥ģà¤ Ľ
Ġà¸ Ķà¸
§à¹ĩà¸ ļ
×ķ× ¥
à§įà¦¬ à¦°
ĠèĢ Į
Ġìŀ ĳ
ÙĪÙħ Ø§ÙĨ
ì¡ ±
áº¹ p
ĠÄĳ iá»ĥm
Ġp ou
il ib
èģ Į
ÅĻ eb
iy le
Ġë§ ¤
ĠÎµ ÏģÎ³
Ġhar ga
×ĳ ×ª
à¦ ı
Ġë ¹
Ġìŀ ¬
à¸Ļà¸ ´à¸
ì¦ Ŀ
Ġà°ħ à°Ĥà°¤
le gg
åħ ±
ĠÎ± Îº
à°Ł à±įà°²
à¤¾à¤ ģ
æĶ ¹
è§ ģ
ĠÎ ¯
Ġãĥ ŀ
Ġà®µ à®¿à®°
éľ Ģ
ĠÙĩØ³Øª ÙĨØ¯
Ġà°Ĩà°¯ à°¨
Ġ×ľ ×¡
Ġkun nen
ìĦľ ë¹ĦìĬ¤
Ñĭ ÑĪ
Ġwy k
ĠÎº Î¬Î½
Ġk inh
à§ģ à¦¦à§įà¦§
ãģª ãĤī
om o
Ġà®ĩà®¨à¯įà®¤ à®¿à®¯
Ī à¸£à¸´à¸
ĠÚ© ØªØ§Ø¨
w e
Ð°Ñģ Ñģ
a f
Îķ Î¡
åı Ĺ
ìĺ¤ íĶ¼
Ġk áº¿t
Ġ×ĳ ×Ľ×ľ
Ġ à¸Ń
×¨ ×ķ×ª
ma in
ķàµįà´ ķ
çľ Į
owan ie
ĠÛĮÚ© ÛĮ
ĠI f
Ġt Ã¢m
g t
Ġ×Ķ× Ŀ
Ģ â
Ġn uest
êµ °
Ã¡ r
Ġsa h
inh a
te ur
ĠÃ© ta
å¢ ŀ
Ġà®ĩ à®¯
à¹īà¸² à¸Ļ
ĠØ§Ø³Øª Ø§ÙĨ
à±Ĥà° ª
ÏĦÎ· ÏĥÎ·
Ġ×Ľ ×ŀ×ķ
ģà¸ ¡à¸
ë ĳĲ
à§Ĥ à¦²
Ġ×Ĺ ×ĵ
Ġb áº±ng
ĠÙĬ Ø¬
Ġsu ll
ĠÏĢ ÏģÏİ
eler i
ambi Ã©n
Ġà¦¸ à¦¾à¦®
Ãº p
ah at
áº£ nh
Ð¾ÑģÑĤ Ð¸
ãģĤãĤĬ ãģ¾ãģĻ
Ġç ¬¬
ÙĬ ÙĬÙĨ
ĠÏĩ ÏģÏĮ
áĥĿáĥľ áĥĺáĥ¡
áĥĵ áĥĶáĥľ
Ġáĥ¨áĥĶ áĥĺáĥ«áĥļ
Ġáĥ£áĥ Ľ
Ġáĥł áĥĶ
áĥĶáĥ £áĥļ
áĥĿáĥĳ áĥĺáĥĹ
áĥĲáĥĵ áĥĺ
áĥĶáĥĳ áĥĹ
áĥ ©
áĥĺáĥĵ áĥĲ
áĥĿáĥ ¥
Ġáĥ§ áĥĿáĥķ
áĥĹ áĥ®áĥķ
ĠáĥĽ áĥĿáĥķ
ĠáĥĻ áĥĲáĥłáĥĴ
áĥĶáĥ ¨
áĥĺáĥ¢ áĥĶáĥ¢
ĠáĥĲáĥ® áĥĲáĥļáĥĺ
áĥĲáĥłáĥ Ļ
áĥĿáĥĳ áĥļ
ĠáĥĴ áĥĲáĥ¡
áĥĵ áĥĶáĥ¡
áĥ¬ áĥ§
áĥĹáĥ®áĥķ áĥĶáĥķ
ĠáĥĶ áĥļ
ĠáĥĲáĥķ áĥ¢
Ġáĥ¨áĥĶáĥĺáĥ«áĥļ áĥĶáĥĳáĥĲ
áĥłáĥ£áĥ ľ
áĥĲáĥĽáĥĵ áĥĶ
áĥķ áĥĶáĥķ
áĥĶáĥłáĥ ĵ
ĠáĥĴ áĥĲáĥ®
áĥĽ áĥĶáĥĵ
Ġáĥĵáĥ¦ áĥĶáĥ¡
Ġáĥĺáĥľ áĥ¢
ĠáĥĽ áĥĺáĥĸ
ĠáĥĲáĥ¡ áĥĶáĥķáĥĶ
ĠáĥĽáĥĿáĥ ®
áĥĲáĥľ áĥ¢
Ġáĥĺ áĥĴ
áĥĲáĥĵ áĥĿ
Ġáĥ¨áĥĶáĥĽ áĥĹáĥ®áĥķáĥĶáĥķ
ĠáĥĴáĥĲáĥľ áĥ¡
ĠáĥĹ áĥĲáĥĽ
ĠáĥĲáĥ¥ áĥķáĥ¡
áĥĲáĥ¬ áĥĺáĥļ
áĥĺ áĥĲáĥĹ
áĥł áĥĿáĥĽ
ĠáĥĲáĥ® áĥļ
áĥĹ áĥĲáĥķ
ĠáĥĽ áĥĻ
áĥĲáĥłáĥ ©
áĥĲáĥ Ń
Ġáĥ¡áĥĲáĥ®áĥĶáĥļ áĥĽ
áĥ¬ áĥĺáĥ¤
áĥľ áĥĺáĥ¨áĥķ
ĠáĥĽáĥĺáĥĽ áĥĲáĥłáĥĹ
ĠáĥĽ áĥĲáĥĽ
áĥłáĥĺáĥķ áĥĺ
áĥª áĥĺ
ĠáĥĻ áĥĺáĥĵ
ĠáĥĲáĥ Ĵ
áĥĺáĥ¡ áĥĹáĥķáĥĺáĥ¡
ĠáĥĹ áĥ£áĥĽ
áĥķ áĥĺáĥļ
áĥĶáĥłáĥ ķ
ĠáĥĽ áĥĿáĥĴ
Ġáĥĳ áĥł
Ġ1 4
×ĳ ×ķ×ª
ĠÐ¸ ÑģÐ¿
ĠS el
áĥĺáĥĻ áĥĲ
áĥ£áĥłáĥ ¡
Ġden ne
larÄ±n Ä±
Ġb a
ĠØª Ø³
Ġëĭ ¹
ĠP ara
ä¼ ĺ
Ġáĥŀ áĥĲáĥ¢
Ġh ow
à°ķ à°°
iye v
áŀ¶ áŀ
Ïģ Ïħ
ÙĪÙħ Ø©
Ġth áº¥y
à¹Īà¸ĩà¹Ģà¸ ĩà¸´à¸Ļà¸
Ġà°¨à±ģà°Ĥà° ļà°¿
Ġ":" "
Ø± Ú¯
ung k
Ù į
Ġch á»§
Ġ6 00
áĥĶáĥĳ áĥĶáĥĳáĥĺ
å° Ķ
Ġh an
Ġg Ã¼
Ġ1 7
Ġà¦Ń à¦¾à¦°
ien ia
Ġà¤¦ à¥ĩà¤ĸ
æ© Ł
ĠØ¹ÙĨ ÙĪØ§ÙĨ
à®¿à®Ł à®®à¯į
Ġ365 ä½ĵèĤ²
Ġg em
íĤ ¤
Ġ×ĳ ×Ļ×ª
×ĳ ×ķ×¨
é© ¬
à¤ļ à¤¾
Ġà¤¸ à¥įà¤¥
is er
E N
à®¾à® Ļà¯įà®ķ
l iy
am u
ĠÐ¼Ð¾Ð¶ ÐµÑĤ
à¦¬ à¦¾à¦¦
Ġ à¸£à¸
×Ļ×ĳ ×Ķ
Ùİ ÙĦ
à¤°à¥įà¤ µ
ĠØ³ Ø±ÛĮ
Ġæ Ĭ
Ġh j
ag an
Ġb áº£o
Ġb ar
Øª Ø±ÛĮ
ĠØ§ÙĦØ¯ ÙĪÙĦ
à¥įà¤¯ à¤ķ
ê ¶Į
Ġnie uw
Ġà¤¯ à¤¾à¤Ĥ
ei to
à®² à¯įà®µ
å¾ ·
áĥľáĥĺáĥ¨áĥķ áĥľáĥĶáĥļ
à¥įà¤¯ à¥ĩ
åħ Ī
ļà¸²à¸Ĺ à¹Ħà¸Ĺà¸¢
ÏĢ Î¯
Ġáĥ¡áĥĲáĥ ¤
ĠÕ £
Ġëĭ ¨
áĥĿáĥĳ áĥĲáĥ¨áĥĺ
Ġáĥ¨áĥĶáĥ £áĥ
ĠáĥĽ áĥĺáĥĶáĥł
Ġto Ãłn
Ġà®ª à®¿à®±
áĥ¥ áĥĿáĥľ
Ġè ĩ
Ġh iá»ĩu
Ġb i
Ġë¶ Ī
áĥ£áĥłáĥ ľ
Ġn in
Ġh al
ĠØ§ ÙĬÙĨ
l ijk
Ġà®ķà¯Ĥ à®Ł
ĠtÉĻr ÉĻf
h re
Ġmo et
ĠíĬ ¹
in t
Ùĥ Ø³
Ġp Å¯jÄį
à®¾à®² à¯ģà®®à¯į
à®¿à®© à¯įà®©
Ġg Ã¬
idad es
èĩ ³
ĠÐ¼Ð¾Ð¶ Ð½Ð¾
åĲ Ħ
Ãª me
ĠÏĢÎ± ÏģÎ¬
×Ļ×© ×Ķ
ìĹĲ ëĬĶ
nÃŃ ho
æ¡ Ī
ÏĦÎ¹ Ïĥ
Ġph Ã²ng
Ġp esso
ĠÎ± ÏģÏĩ
ĠÐ´ ÑĢÑĥÐ³
p owie
Ć ą
ìłģ ìľ¼ë¡ľ
Ġà¸ª à¹Īà¸ĩà¹Ģà¸ĩà¸´à¸Ļà¸
Ġà®ļ à®¿à®²
ĠÏĮ ÏĢÏīÏĤ
ĠëĶ °
áĥĵ áĥĿáĥĽ
Ġt iá»ģn
éĢ ģ
ìĦ Ŀ
Ġlo ok
* *
Ø§Øµ Ø©
ĠáĥĹáĥ£áĥĽ áĥªáĥĲ
C I
ĠÐ ¥
Øµ Ø©
ĠØ¨ ÛĮÙħ
ĠãĤ ¤
åĬ ©
åİ Ł
Îº Î¬
Ġt á»ĳt
à°¾à°² à°¨à±ģ
ti ck
tiv a
×Ľ ×Ŀ
Ġw ur
Ġtr abal
ãģĪ ãģ¦
Ġ ä»¥
p at
ĠÎ´ Ïį
Ġë ¸
ĠA ll
à°¾à°² à°¨à°¿
áĥĲáĥĽáĥĵ áĥĶáĥľ
Ġpod e
Ġm ost
áĥ£áĥ ¢
ti d
un ya
Û° Û°
Ø® ÙĪ
ÙĤØ¯ Ùħ
Ī ¬
Ġu w
à±ĩà° ª
cz Äħ
m in
¼ åĲĪ
ĠãģĿ ãĤĮ
ĠG e
Ñĥ Ñħ
ç© º
ĠkÃ¶n nen
áĥĶáĥĽ áĥĳ
ĠØ¹ ÙĦÛĮ
ĠìĤ¬ ëŀĮ
f er
ĠØ¢ ÙĩÙĨÚ¯
à¤¢ à¤¼
áº¡ c
ĠÃł s
Ġç º
Ġà°ħ à°Ń
ÉĻs t
Ġ×Ĳ×Ĺ ×ĵ
Ġà°¸ à±įà°µ
æ ®
t an
Ġ ä¹
Ġp ol
Ã İ
à¦¿à¦ Ń
ĠØ³ Ø¨
Ġáĥ¡áĥĲáĥĶ áĥłáĥĹ
éķ ·
ĠíĻ ķ
ì² ĺ
ÄŁ er
ãģ« ãģ¤
Ġå ¦Ĥ
Ġthá» ĭ
à¥ģ à¤ª
Ġà®ª à®ķ
à· Ģ
ÙĦ ÙĬØ©
áĥĲáĥł áĥĲ
Ø± Ø§
áĥĲáĥĹ áĥķáĥĺáĥ¡
ĠÐ´ Ð¾Ð»
ëĵ ł
è¾ ¾
Ġáĥľ áĥĲáĥ®
à®° à¯įà®µ
Ġëª ©
áĥĶáĥ ¨áĥĺ
f e
±à¸ įà¸
Ð» Ð°Ð²
ç ¯
ãĢ ħ
Ġb Ã¡n
Ġà¤ļ à¤¾à¤¹
Ġcz as
Ġng o
ĠÎ¼ÏĢÎ¿ ÏģÎµÎ¯
ÙĪÙĨ ÛĮ
Ñı Ð½
Ġíķ ł
ĠØµ ÙĨ
Ġæ Ľ
ar ga
Ġà®¨ à¯ĩà®°
Ġk ol
ĠÄĳ Æ°á»Ŀng
Ġsec ara
ct ie
Ġ| --
Ġáĥ¢ áĥł
à¯ģà®³ à¯į
A PP
il ÉĻ
Ġgeb ruik
Ġà§¦ à§
Ġì »
Ġí ļĮ
è¨ ĺ
èī ¯
ĠØ¨Ø± Ú¯
ĠØ§ÙĦØ± Ø¦ÙĬØ³
lar e
ï º
Ġj aar
Ġm ÉĻs
lig e
ell en
Ġà¤¹à¥ģà¤ ı
¨àµįà´ ¨
Ġs al
è² ¸
Ġà¦¹ à¦¾à¦¸
Ġáĥĵ áĥłáĥĿáĥ¡
Ġà®ķ à®µ
in da
ĠØ¢ÙĨ ÙĩØ§
ãģ§ãģį ãĤĭ
ĠØ§ÙĦÙħ ÙĨØª
áĥĶáĥ¥ áĥ¡
Ġãĥ ¡
à® ·
Ġáĥķ áĥĺáĥľ
çİ ĩ
Â º
Ġpro du
Äħ z
±à¸ ģ
è® ®
áĥĿáĥĵ áĥĶáĥ¡
áĥĺáĥĽ áĥĶ
à°Ĥà°¡ à°¿
Ġì¢ ĭ
st ÉĻr
ĠØ§ÙĨØª Ø®Ø§Ø¨
Ġà¦ķà¦° à¦¾à¦°
ĠÎ± Î³
et ta
ê°Ģ ê²©
Ġáĥ¡ áĥĺáĥĽ
áĥĶáĥĳ áĥĲáĥ¨áĥĺ
ÏģÎŃ ÏĢÎµÎ¹
è¯ ģ
Ġáĥł áĥĲáĥĽáĥĵáĥĶáĥľ
Ġáĥĳ áĥĲáĥķáĥ¨
à¦ ¯
à§ĩà¦ ª
Ø§Ø¦ ÙĬ
Ġr in
ÙĬ Ø¬
Ø´ ØªÙĩ
an j
Ġãĥ Ĳ
ĠáĥĲáĥ® áĥĲáĥļ
ĠÙħØ±Ø¯ Ùħ
ìķĦ ê°Ģ
ĠJ eg
«à¸ ¥
ĠM it
ĠáĥĶ áĥķáĥł
ĠÚĨ ÙĨØ¯
ĠS ampai
ĠÂ ²
Ġíķľ êµŃ
ç ħ
Ġb al
ĠÄĳ á»ĳi
Ġà¦Ĩà¦® à¦¾à¦¦à§ĩà¦°
×Ĳ ×ķ×ª
Ġt elah
ÑģÐº Ð¾Ð³Ð¾
Ġpam am
à±ģà°¤ à±įà°µ
Ġtara f
¥à¸ĩà¸Ĺà¸ °à¹Ģà¸ļ
à®² à®ķ
Ġà°ļà±ĩà° ¶
áĥĲáĥĹ áĥĲ
ĠÂ ¶
on na
áĥĲáĥłáĥ ¯
Ġáĥ¡áĥĲáĥ®áĥĶáĥļáĥĽ áĥ¬áĥĺáĥ¤
ĠE en
è Į
à±Ĥà° ²
Ġtiáº¿ p
¢ à¸Ļà¸
áĥĲáĥķ áĥĲáĥĵ
à°¾à°² à±ĭ
ĠÙĨ ÛĮØ³Øª
el ugu
ĠÙħ ØµØ±
Ġà¦¨à¦¿ à¦°à§įà¦¬
Ã ķ
ç Į
Øµ ÙĪÙĦ
æ² »
Ĭ à¹Īà¸§à¸
ĠE m
Ġand re
Ð°Ð½ ÑĤ
ĠÐ¾ Ñĩ
Ġa ma
é¢ Ĩ
ĠáĥĶáĥłáĥĹ áĥĲáĥĵ
ĠáĥĲáĥĽ áĥĳ
ĠÎĶ E
Î´ ÎµÏĤ
Ġáĥ¡áĥĲáĥ Ĵ
ĠÙģ Ø§Ø±
Ġth iáº¿t
Ġà¦ĩ à¦ī
ä¼ģ ä¸ļ
Ġ0 8
at en
Ġìĥ Ī
Ġà°° à±ĭà°ľ
Ġy ung
ç« ŀ
ĠáĥĻ áĥĲáĥľ
ÉĻn d
ãĥ İ
Ġcom m
Ġ×Ĳ ×Ļ×Ł
Ġà°ļ à°¾à°²
Ġm ÉĻlum
Ġh á»Ļi
ÅĻ i
Ġe dib
áĥĵ áĥľáĥĶáĥľ
Ġkn ow
Ġë° ĺ
á»Ń a
áĥĴ áĥĿáĥĽ
Ġáĥ¬ áĥĶáĥļáĥ¡
Ġm Ã©
ĠáĥĴ áĥĲáĥ£áĥ
×Ĳ ×Ķ
à¤ķ à¤¿à¤¨
Ð´ Ðµ
ĠãĢ ı
ĠB akÄ±
ëĶ Ķ
Ġt áº¿
ĀĀĀĀĀĀĀĀ ĀĀĀĀĀĀĀĀ
Ġé ĺ
×ķ×ŀ ×¨
Ġm in
em e
Ð½ÑĭÐ¼ Ð¸
g an
Ġà°ħ à°²
y un
¨ å¤©
Ġtá» ķ
ĠãĤ ¯
íı ī
áĥłáĥĴ áĥĲáĥľ
áĢ ¬
ĠÙĪ Ø§ØŃ
Ð°Ðº ÑĤ
ĠØ¨ ÙĪ
Ġà¤¤ à¤°
Ð¾ ÑģÐº
åĩ Ĩ
ä» İ
ĠáĥĽ áĥ¨
à±ģà°¨ à±ģ
Ġn ost
æĭ ¿
Ġt ij
em y
Ġpe ople
ãģĦ ãģĦ
ê ´ĳ
åħ ļ
Ġáĥ¨áĥĶáĥ¡ áĥĲáĥ«áĥļ
Ð°ÑĤÑĮ ÑģÑı
ĠÙħ Ø¤
à¥įà¤ ¡
ĠÙģ Ø¹
Ø¨ ÙĨ
Î´ Îµ
Ġà¦ªà¦° à¦¿à¦¬
z n
ëĭ ĺ
Øµ Ùģ
Ġ×ķ ×ľ×Ĳ
Ġ×Ķ ×ľ
à°Ĥà° ¬
à¦°à§įà¦ £
Ð Ķ
Ġvá» ĭ
to re
t ama
Ġth rough
Ġb es
ç ĭ
ÃŃ as
Ø§ Ù¾
ªà¸²à¸ ¡à¸²à¸£à¸
×Ĵ ×ĵ
al ia
Ġlo áº¡i
é¦ Ļ
Ø¨ Ø§ÙĦ
ī à¸
Ġb is
ÙĩâĢĮ Ø§ÛĮ
it an
ç½ĳ ä¸Ĭ
Ġà¦¹ à¦ļ
Ġà¦Ĩ à¦ľ
ãģ£ãģ¦ ãģĦãĤĭ
ĠØ§ÙĦÙħ ÙĤ
Ġke p
eber apa
Ġt Ã¬nh
ĠØ¯ ÙĪÙĦ
Ð¾Ð³ Ð´Ð°
å¼ ķ
Ġt Ã¡c
Ġáĥ¨ áĥĿáĥłáĥĺáĥ¡
ãĥ¼ãĤ º
Ġà°ī à°Ĥà°¦à°¿
áĥĲáĥĽ áĥĺáĥ¡
ì§ ģ
Ġh igh
Ã¡ri os
ĠÕ ¢
ãģ« ãĤĤ
Ġd on
Ġm al
Ġbl ir
à°Ĥà°¦ à±ģà°ķà±ģ
Ġon ly
owan ia
Ġ2 1
Ġb ilÉĻr
Ġw ell
à¤¿à¤ ĸ
re m
à§ĭ à¦§
Ø¨ ÙĬØ±
¯ à§
åı Ĥ
Ġn at
it s
ĠÏĢÎµ ÏģÎ¯
ĠØŃ Ø¶
ãĥª ãĥ¼
Ġà¸ ŀà¸
w ij
Ùİ Ø§
ĠáĥĽ áĥĶáĥĿ
áĥĶáĥĳáĥ£áĥļáĥĺ áĥĲ
Ùİ ÙĨ
ê »
Ġc ara
ĠáĥĽ áĥª
Ġà¤ľ à¤¬
áĥĶáĥłáĥ Ľ
íĥ ľ
ĠáĥĲáĥ ĺ
Ġà°µ à°°
à§įà¦¯ à¦®
Ġal ue
ÅĽ Äĩ
Ø± Ø³
ler ini
ĠÏĢÎ¿Î» Ïį
Ġi yong
v Ã¡
ØŃ ÙĬ
ĠÏĢÎµ ÏģÎ¹ÏĥÏĥÏĮÏĦÎµ
à°Ł à±įà°²à±ģ
ÐµÐ½ Ð°
à®¿à®Łà¯įà®Ł à¯ģ
Ġà¦ªà§įà¦° à¦§à¦¾à¦¨
Ø¨ Ø±ÛĮ
ĠgÃ¶ stÉĻr
áĥĶáĥĳ áĥĽáĥĲ
enn om
Ġà¸ Ĺà¸µà¹Īà¸
ĠÎŃÏĩ Î¿ÏħÎ½
Ð¾Ð± Ñĭ
ãĥ ı
k ou
ar ak
åĵ ª
à¦¤ à§įà¦°
Ġäºļæ¸¸ å®ĺç½ĳ
à§ĭ à¦¸
à¦Ń à¦¾à¦¬à§ĩ
Ġk v
id ir
ĠdÃ© c
k ol
ĠÂ ¸
à®¿à®ļ à¯įà®ļ
à°¡ à°¾à°¨à°¿à°ķà°¿
Ðµ Ñī
Ġà¤ħà¤§ à¤¿à¤ķ
v ing
Ġà¦ı à¦ĸà¦¨
ĠåĪ© æĿ¥
Ġh ak
Ġä¸ º
Ġà¸ ļ
el ik
ÉĻh s
o ÄŁ
ĠÚ©Ø±Ø¯ ÙĨ
ì ¼
d ag
Ġv ÄĽ
Ã¼ b
Ð»Ñİ Ñĩ
Ġge en
áĥĲáĥľ áĥĴ
Ø± Ø§Ùĩ
Ġj en
áĥĲáĥĽ áĥĶáĥľáĥ¢
Ġh aq
ĠáĥŀáĥĿáĥļ áĥĺáĥ¢
ĠáĥĲáĥ £áĥ
Ġ×ŀ× ĸ
Ġr Ã©s
Ġz aw
Ġæ¶ ĵ
ĠD i
æ¸ ¯
l ou
m un
à°¾à°Ĥà° Ł
ĠáĥĲáĥ Ļ
ĠÑį Ðº
Ġà®ķ à®£
oun t
Ġna y
à±įâĢĮ à°²à±ĭ
Ġc áº§u
Ð ľ
Ġs ar
ĠØ¯Ø§Ø´ ØªÙĩ
g eb
Ġà¤²à¥ĩ à¤ķà¤¿à¤¨
ÏĦ Ïİ
à±ģà°Ĥà° ¡à°¾
å¤ ī
T I
el li
ĠØ² ÙĨØ¯
íĹ ĺ
ÑĦ Ð¾ÑĢÐ¼
c ciÃ³n
Ġà®ĩ à®¤à¯ģ
Ø§Ø´ Øª
b eit
l ko
×Ĺ ×ķ×ª
Ġ ÉĻr
Ġfir st
à§Ģ à¦¤
Ġj Ã¡
Ø±ÙĪ Ø²
uyá» ĥn
Ġì½ ľê±¸
Ġt ÃŃnh
Ġ) .
ĠV or
Ø£ Ø³
ÙĨ Ùĩ
ĠP our
Ã Ĩ
Ġà¤ľ à¤¾
Ġà®® à¯ģà®±
Ġv is
Ġ×Ĳ ×ĸ
ĠØ¬ Ø¯ÙĬØ¯
×ķ ×Ļ×ķ×ª
ĠÎĳ Î½Î±
ã ħ
ĠÎºÎ± Î»
ĠãĢĳãĢĲãĢĤ ãĢĳãĢĲ
ÏģÎ¯ Î¶
ÏĦÎ¹Îº ÏİÎ½
Ġà¦¸ à§įà¦¥
Ñī Ðµ
l ie
Ġm ot
f a
æŃ ¥
à°¾à°² à±įà°²à±ĭ
ÏĦÎ¹Îº Î¿Ïį
etz t
áĥĶáĥ £áĥļáĥĺ
2 3
áĥ£áĥł áĥĺáĥ¡
ĠãĤ ¨
Ġ×ĳ ×¦
ĠÑģ Ð¾Ð±
ÏĦÎµ Î¯
l ing
Ħà¸£à¸ ·à¹Īà¸Ńà¸ĩà¸
ur o
g el
Ġ×© ×Ľ
Ġà¦Ĩ à¦¹
Ġà®ķ à¯ģà®Ł
Ġà¨ ¦
d aki
ĠÐ½ Ð°Ð¿
ut z
ÄŁ ini
à¸£à¸²à¸ °à¸
ĠÙĨ ÙĤ
Ġph ÃŃ
Ì ī
Ø¨ Ø§ÙĨ
s iniz
g ÉĻr
ĠÃ Ĺ
ìł Ģ
à¸Ńà¸ µà¸
Ġz ak
áĥĲáĥł áĥĶáĥĿáĥĳ
Ġà¤Ŀ à¤¾à¤²
Ġà°ª à±Ĭ
owa Äĩ
ĠÄ ĥn
ci as
à®¾à® ªà¯įà®ª
il ih
Ġbah wa
à±Ĩ à°ķ
ĠÙĪ Ùģ
áĥĲáĥł áĥĶáĥĳáĥĺáĥ¡
Ð¸ Ð¿
ĠØ®ÙĪØ¯ Ø±ÙĪ
à®±à¯įà®ķ à¯ģ
é«ĺ æ¸ħ
Ð° ÑİÑī
Ġà¦¦ à¦¿à§Łà§ĩ
à°® à±ģ
am iento
ĠÅŁ ek
ĠáĥĻ áĥļ
Ġs es
áĥĲáĥ£áĥ ł
æ¥ ½
ÏĦ Ïģ
à¤°à¥įà¤ ¤
Ùĩ Ùĩ
ç± »
Ġan ni
ÐµÐ½ Ð¸Ð¸
Ġà¤ª à¥Ģ
áĥĲáĥ« áĥĶ
ĠáĥĿ áĥłáĥĴáĥĲáĥľ
á ī
ĠÃ Ĵ
ãĤ ½
ĠØ¨Ø± Ø®
ĠÅ ł
Ġå¼ Ģ
ÙĬ Ø´
Ġde gli
¡à¸²à¸ ģà¸
ĠÄĳ o
Ġtr Ã¨s
ĠÃ© tÃ©
Ġm Å¯
Ġb áº£n
ĠUn ter
ic al
ĠÃ´ ng
Ġà¦¦ à¦²
Ġà¦° à¦¾à¦ĸ
us e
ÛĮÙĨ Ùĩ
Ġe very
Ġ äºº
Ġáĥĺáĥľáĥ¤ áĥĿáĥłáĥĽ
Ø§ ÙĬØ©
Ã¨ me
à§Ģ à¦¦à§ĩà¦°
Ġà®Ĩà®© à®¾à®²à¯į
Ø§Ø¦ ÙĦ
×¨ ×ĵ
at er
Ġte go
Ġ Þ
à®¾à® ª
Ð¿ÑĢ Ð°Ð²
5 6
Ġìļ Ķ
z z
Î¹Î¿ ÏĤ
Ġtah un
à¦¿à¦ Ĺ
à±Ĩ à°¨
al t
à¥ĭ à¤²
Î³ Îµ
Ø´ Ø¯
è¶ ³
Ġ":"" ,"
ãģĭ ãģª
æķ Ī
Ġt ÄĽ
Ġqu áº£
Ġt áº¡o
à¹ĥà¸ Ī
at ti
Ġà®İ à®²à¯įà®²
am il
à¤¿à¤ ª
ë² Ħ
ĠáĥĽ áĥĲáĥłáĥ¢
ĠØª ÙĦ
Ø³Øª Ùĩ
à¦² à§įà¦ª
si b
Ø§ØŃ ÛĮ
ĠÃ ĵ
ì¢ ħ
ÙĪ ÙĪ
Ð¸ÑĤ ÑģÑı
ÙĲ ÙĬ
Ġm ah
Ð°Ð¶ Ð´
il ip
Ġà¦Ń à¦¾à¦²
æĽ ¸
ot os
Ġm ab
Ġsp ot
ÉĻb ÉĻr
ĠØ®ÙĪ Ø§ÙĩØ¯
Ø¨ Ø¹
ì¦ Ī
ĠØ³ Ø§Ø¹Øª
Ġ×ĳ ×ŀ
Ġh ier
ĠÚ© Ø¯
ĠØ§ÙĦ Ø§Ø³Øª
Ĺà¸²à¸ ĩà¸
ĳ åħĭ
Ġà¸ ¥
Ġc el
×¢ ×Ļ×Ŀ
ĠD en
ĠØªÙĪ Ø¬Ùĩ
A S
ei st
T O
ÑĤ ÑĮ
ĠÙĩÙħ Ùĩ
à¦¿à¦ ĵ
ĠÛ µ
ilm ÉĻsi
ÉĻn i
à®¿à®±à¯įà®ķ à¯ģ
Ġl ahat
Ð¼ Ð¸
Î»Î» Î±
Ġ0 3
Ġà°® à°¾à°Ł
1 7
Ð½Ð° Ñĩ
à®© à¯įà®ª
ĠØ³Ø§Ø² ÙħØ§ÙĨ
ÉĻs inin
Ġgi Ãºp
Å¾ it
Ġà¤¥ à¥ĩ
ĠØªÙĪØ³ Ø·
Ġon line
Ġà°ħ à°¦
Ġdal la
Ġå İ
Ġâ Ĥ¬
Ġ201 8
ĠI k
r ÉĻ
Ġà®µ à¯Īà®¤à¯įà®¤
Ġ 99
Ø±Ùĥ Ø²
å¹ ¿
Ġì² Ń
Ġè ´
Ġtut ti
à¦¿à¦¨ à§įà¦¨
ÑĢ Ð°ÑĤ
Ġà®® à®Łà¯įà®Ł
Ġe v
×ĳ×ķ×ĵ ×Ķ
ab i
ĠØ³ Øª
ģà¸ ¥à¸
ìķ ĺ
Ø§ØŃ Ø©
å® ¹
ãĤĮ ãģŁ
ĠØ§ÙĦØ¹ Ø§Ùħ
iyy at
Ġv Å¡e
ĠáĥĽ áĥľáĥĺáĥ¨áĥķáĥľáĥĶáĥļ
ce j
ÃŃ n
ç½ ®
ĠÑģ Ð¾Ð²
Ġáĥª áĥ®áĥĿáĥķáĥł
A L
Ġíķ Ħ
Ģ ìĿ´
Ġbul un
à®µ à¯Ī
Ġ×ŀ× ĺ
à¸² à¹Ģà¸
æŀ Ĺ
ĠP ost
Îµ ÏģÎ³
à±ĭ à°Ĥà°¦à°¿
Ġà¦¸ à§ģ
ĠáĥĶ áĥł
d as
Ġhá» ĵ
ĠØ¯Ø§ÙĨØ´ Ú¯Ø§Ùĩ
up akan
Y n
t em
ot el
ĠÎ±Ïħ ÏĦÎ®
Ġà°ªà±įà°°à°Ń à±ģà°¤à±įà°µ
×Ļ× £
Ø§Ø º
Ã¬ m
ĠR edir
áĥ£áĥłáĥ Ĺ
ĠEs p
Æ Ĵ
v es
ķ à¸´
Ġà¦Ĩà¦® à¦°à¦¾
à¦¾à¦¥ à§ĩ
Ġìł ģ
Ġz d
à°¿à° ¶
Ġà®ķ à¯ģà®´
ãĥ ľ
ìĺ Ģ
r ag
à§Ł à§ĩà¦°
Ġtr abaj
åĪ «
×ŀ× Ĺ
Ġà¤¯ à¥ĩ
Ġhá» ĩ
é£ Ł
Ãº n
ãĥ ļ
Ġæ ¯
ë¶ ģ
ow ej
áĥĺáĥĻ áĥĺáĥ¡
à®µ à®¿à®²à¯įà®²à¯Ī
ĠÄ° n
Ã ļ
áĥĲáĥ¡ áĥ¢
Ġth Ã¡ng
Ġáĥ§áĥĿáĥķ áĥĶáĥļ
Ġ à¬
ĠÐºÐ¾Ð¼ Ð¿
owe go
ĠÛ ´
Ġm ad
Ġà¹ģà¸ ¥à¸°
Ġc ri
Ġ×Ľ ×ĵ×Ļ
×¨ ×Ĺ
ĠÙĪ ÙĦÙĥ
ç» ¼åĲĪ
à¦¾à¦¨ à¦¾
Ġéĩį åºĨæĹ¶æĹ¶å½©
Ġs wo
ÑģÑĤÐ² Ð¾
ÏĨ Î®
Ġ ÉĻn
d ur
Î¿Î¹Î½ ÏīÎ½
Ġt ou
Ġà¤¦ à¥Ģ
I tem
ch er
ëł ¹
Ġh anya
ĠÏĢÎ¿Î» Î¹
ĠåĬ ł
à¦¿à¦ ĸ
Ġn et
Ġà¤ħ à¤¬
Ġà¦¤ à¦¬à§ĩ
à¦¾à¦ ¡
áĥĲáĥľ áĥĺáĥĲ
Ġà®® à®¿à®ķ
Ġà¤¨ à¤¿
Ġà¦ªà¦° à§įà¦¯
ĠÑģ ÐµÑĢ
ÙĪ Ø§Ø±
ĠØŃ Ø¯
Ã¶y Ã¼k
Ġph áº§n
Ġ ~
à¥Į à¤°
à°¿à°¨ à±įà°¨
gli o
ĠÄĳ iá»ĩn
Ġz m
ĠÏĢ ÏģÏī
Ġà¦® à¦¾à¦°
Ġy ak
ct os
Ġæ °
ÐµÑĤ ÑĮ
ì£¼ ì¶ľìŀ¥
çł Ķ
Ġc er
ÉĻh ÉĻr
Ġw eb
Ġsu o
Ġà®ħ à®³
ĠÃ ģ
ĠãĢĤ ãĢĤ
ar kan
ĠH o
Ø¹ Ø§Ø±
ĠN e
à§Ģ à¦Ĺ
Ġà¦ľ à¦¾à¦¤
ĠSe xo
ĠáĥĲáĥ¦ áĥĽ
Ġà¦¤ à¦¾
Ġà¹Ĥà¸Ľà¸£ à¹Ĥà¸¡à¸
f ÉĻ
¥à¸ĩà¸Ĺà¸°à¹Ģà¸ļ à¸µà¸¢à¸Ļà¸
Æ° u
ĠâĢ ª
Ġsp raw
b a
s as
æ¸¸æĪı å¹³åı°
Ð² Ð¾Ð´
à®Łà¯įà®Ł à¯ģ
ì ¤Ģ
à°° à°¿à°ķ
k Ã³w
Ð¸Ðº Ð°
ĠØ± ÛĮ
ģà¸ ´à¸
Ġáĥ¨áĥĶáĥ ®
ĠÐ¾ Ðº
à¤² à¥įà¤¯à¤¾
Ġà®ı à®±à¯įà®ª
ĠÙħÛĮâĢĮ Ø´ÙĪØ¯
ëł ¨
Ð½ Ðµ
å¸ ¦
à´ ¯
Ġà®µà®¿à® ³
Ġà¸ ľà¸
Ġà¦ķà¦¾à¦° à¦£
Ġà®ħà®µ à®°à¯į
Ġà¤° à¤¹à¥Ģ
Ġà°¸ à±įà°¥
ĠÄĳ áº¹p
×Ļ×¢ ×Ķ
Ġà®¨ à®¾à®Ł
ĠÐ ¯
ĠbaÄŁ lÄ±
Ġà´ ª
ĠÎ£ Ïħ
Ġm Ãªme
ra u
à°¾à°· à±įà°Łà±įà°°
g elijk
à¦¨à§įà¦ ¨
èģ ĺ
à¤¾à¤ ·
ĠÏĢ ÏĮ
Ġbel ir
à¹Īà¸² à¸Ļà¸
ĠáĥĲáĥĵáĥĴ áĥĺáĥļ
Ġåı ¯
ĠÙħ Ùħ
Ġh ÉĻy
Ġà¦¹ à¦¿à¦¸
ãĥ ¤
à§ģà¦ §
Ø® Ø¯
x x
áĥĵ áĥĶ
an z
Ġdi a
ra ag
ad z
Ġáĥ§áĥķáĥĶáĥļ áĥĲáĥĸáĥĶ
Ġà®ª à¯ģà®¤
×Ĺ ×ĵ
ä»£ çĲĨ
Ġb en
Ġæĺ ¨å¤©
iy et
Ġà¤Ńà¤¾à¤° à¤¤
ĠØ± ÙĤÙħ
Ġd á»ĭch
Ø§Ø¹ Ø¯
t ur
Ú¯ÛĮ Ø±ÛĮ
Ġà¤° à¥Ĥà¤ª
Ġi z
a Å¼
Ġà¦¸ à§ĩà¦ĩ
Ġíķ Ļ
Ġà¦¶ à§ģà¦°à§ģ
à¦¿à¦ ı
Ġà°ªà±Ĩ à°Łà±įà°Ł
ĠÎĵ Î¹Î±
à°¾à°Ł à±ģ
ĠMas k
Ĺà¸µ à¸
à¤¦ à¥Ģ
ci p
l os
1 4
in y
Ã¼t Ã¼n
Ġà®ħà®µ à®°
à¦ŀ à§įà¦ľ
Ġis e
ĠÐ± Ð¾Ð»ÑĮÑĪ
is che
Ġà¤ķà¤° à¤£
à±ģà°² à°ķà±ģ
åħ ·
ĠÐ· Ð°Ð¿
Ġ î
in n
ªà¸ ³à¸«
á»Ļ ng
ĠØ² ÙĨ
ĠÂ ¾
Ġ×ĳ ×ĺ
ë¡ ł
t rz
Ġáĥŀáĥł áĥĿáĥª
à¤® à¥ĩà¤Ĥ
ĠíĻ Ķ
Ġth ese
à¯ģà®ķ à®¿à®©à¯įà®±
ÑģÐº Ð°Ñı
Ġt ÉĻÅŁ
«à¸ ¡à¸²à¸
æķ ´
×© ×Ļ
ich e
ĠÙħÛĮ ÙĦÛĮ
ur ah
à¸£à¸²à¸Ħ à¸²à¸
Ø§Ø¯ Ø±
åį ĩ
àµįà´ ¤
ĠÃ Ĭ
Ġà¦¤à¦¾à¦° à¦¾
áĥľ áĥĺ
Ġà¤ķ à¥Ī
ĠÃ¼z er
ãģ£ ãģ¨
Ð¾ Ñī
ï¼ ¿
ĠØ£ÙĨ Ùĩ
ĠpÅĻ i
Ġà¦ķ à§ĩà¦¨
à¦¾à¦ ī
à¤¾à¤ ³
ÙĨØ¯ ÛĮ
Ġ0 7
áĥĽ áĥĺ
ķ à¹Į
ĠÎķ Ïħ
Ġà®® à®ķ
ar z
ĠÏĦ Îµ
ĠÐł Ð¾ÑģÑģ
Ġé Ĥ
Ø§ÙĤ Ø©
à§ĩà¦² à§ĩ
Ġà¸ ¡à¸
Ġà¤¦ à¤¿à¤¨
å· ±
ĠØ§ÙĦØ ¶
Ġà®ĩ à®²
à±Ģ à°¡
Ġve el
Ġs en
Î¼ Î¼Î±
ĠìĤ¬ ìļ©
st yr
Ġé Ļ
ĠÑĤ Ð¾Ð»ÑĮÐºÐ¾
áĥĲáĥľ áĥĲ
g ia
åĽ Ľ
Ġsus o
ģ à¹Ī
al mente
ĠáĥĴáĥĲáĥľ áĥĽ
ÏģÎ± Îº
larÄ±n Ä±n
è¯ Ŀ
ì§ Ī
ador es
Ø³ Ø§ÙĦ
à¹ģà¸¥ à¹īà¸§
áĥĲáĥ¡ áĥĹáĥĲáĥľ
ie le
Ġpue de
ov a
áĥ¦ áĥķ
ow o
ĠÎł Îµ
Ġh anno
Ġk iÅŁ
Ġà¤¬ à¤¾à¤¤
g ul
§à¸ ±à¸Ļà¸
Ġke h
Ġà¦ı à¦²
Ġà¤ľ à¤¾à¤¨
Ġve ya
Õ¡Õ £
Ġà¸ªà¹Īà¸ĩà¹Ģà¸ĩà¸´à¸Ļà¸ ļà¸²à¸Ĺà¹Ħà¸Ĺà¸¢
è «
Ġà®ī à®¯
Ġt emp
ÑĢ Ñı
or zy
Ħà¸¸à¸ ĵ
Ġé Ķ
à®Ļà¯įà®ķà®³ à¯Ī
ci os
v ik
Ġà¤µà¤¿à¤ ¶
Ġ3 0
e ÅŁ
à¥Ĥ à¤²
Ö ¹
ĠÏĩ Ïī
Ð¾Ð» Ð¾Ð³
Ġsu pp
Ġáĥ¡ áĥĻ
im ento
Ġma aar
ĠØ² ÙħÛĮÙĨ
ÏĦ Î®ÏĤ
cz a
3 0
à±Ĩ à°°
ĠáĥĽáĥĿáĥ ¥
Ø² Ø©
ĠW ir
ÏĢÎ¬ ÏģÏĩ
Ġdes de
ĠØ¨Ø§Ø² Ø§Ø±
dir i
Ã¤ ng
ay Ä±n
Ġi hr
ĠM ad
Ġà®®à¯ĩ à®²
Ġë¡ ľ
Ø¬ Ø±
Ġà® Ĳ
ÙĦ Øª
ĠÏĦ ÎŃ
Â »
ĠÙĨÙħ Ø§ÛĮ
Ġpa a
áĥĺáĥ ¬
¸ è¿Ĳ
Ġ" ,
ç® Ĺ
áĥĶáĥł áĥĲ
Ġt ÉĻs
ĠÐ¸Ð½ ÑĤÐµÑĢ
å¥ ĩ
ĠÐ¿Ð¾Ð» ÑĥÑĩ
Ġty lko
áĥĿáĥļ áĥĿáĥĴ
ĠÐ´ ÐµÐ»
æŀ ģéĢŁ
à¸´à¸ Ķà¸
Ġæ ķ
ë¶Ģ íĦ°
ĠÙħÙĪ ÙĤ
at es
ÑģÑĤ ÑĮ
åł´ åĲĪ
Ġ×© ×§
Ð¸Ðº Ð¸
ĠáĥĵáĥĲáĥ ĳ
Ġà¦® à§ģ
Ġtá» Ľi
Ġsa ja
Ð° ÐµÐ¼
Ġb ack
Ġat Ã©
ĠÙĦ Ø£
à¹Ģà¸Ľà¹ĩ à¸Ļ
ĠáĥĲáĥłáĥ ª
cz nie
Ġà¤ķà¤° à¤¤à¥ĩ
Ġà®¤ à®°
à°¾à°° à°¾
à¹Ĥà¸£à¸ ĩ
çĶ °
à¤¿à¤ ľ
ãģĿ ãģĨ
à®® à¯įà®®
ĠN a
à¥ĭ à¤ķ
ĠÕ ½
Ä±m Ä±
Ġà¸ ¥à¸ĩà¸Ĺà¸°à¹Ģà¸ļà¸µà¸¢à¸Ļà¸
æł ¡
ÅĽ cie
ĠF r
Ġà¤ķà¤° à¥ĩà¤Ĥ
à®® à¯ģà®®à¯į
6 0
è ĳ
ĠìĦľ ìļ¸
ed i
à°°à±įà° ļ
ÐµÑĢ Ð°
Ġan meld
áĥĿáĥ¤ áĥļ
×Ļ×ª ×Ķ
or d
à¦ķ à§ĩà¦°
ë£ ¨
Ġì° ¸
Ġáĥ Ł
Ġà®ļ à¯ĩà®°
éĽĨåĽ¢ å®ĺç½ĳ
ak t
æĿ ĳ
und en
¸à¸ ģà¸
éĻ Ĩ
ĠØ§ ÙĤØª
Ïĥ Ïĩ
ĠM ga
ãģķãĤĮ ãģ¦
Ġb aik
ĠìĦ ¤
iej s
ĠÙĥØ§ÙĨ Øª
Ġth Æ°á»Ŀng
Ġw sp
à°Ĺ à±įà°Ĺ
Øµ Ø¯
å® Į
ÐµÐ½ Ð½Ð¾
Ø¨ÙĬ Ø¹
Ħ à¸Ļà¸
Ġà°¨ à°¾
ÑĤ Ð¾Ð¼
ĠÎĺ Îµ
ÎĳÎ ¡
w er
Ġ äºļæ´²
Ø¨ ÙĬØ©
áĥĶáĥł áĥĶáĥ¡
Ġáĥ©áĥĶáĥĽ áĥĺ
à¤¾à¤ §
´ Ŀ
ÏĦÎ¿ Î½
à¥įà¤¯à¤¾à¤ Ĥ
à¹Ģà¸ ķ
ÙĨ ÙĬÙĨ
è½ ¬
ì ´Ī
áĥł áĥĿáĥĳ
c ess
Ġex p
Ã¦r t
à®µ à®°
Ġà¦ª à§ģà¦²
Ġà¸¥à¸ĩà¸Ĺà¸°à¹Ģà¸ļà¸µà¸¢à¸Ļà¸ Łà¸£à¸µ
ØŃØ¯ Ø©
ĠÙħ ÙĩÙħ
Ġph Ã¡p
ĠãĤ Ĵ
Ġ ÏĪ
Ġgi áº£i
ÎµÎ¯ Î¿
b ar
ĠÙĪÙĩ ÙĪ
æĺ ĵ
ØŃ Ø±
Ġà¤® à¥ĭ
z zo
×ķ×ľ ×Ļ×Ŀ
à¹īà¸²à¸ ĩà¸
Ġkh u
à¸Ńà¸ ģ
éĺ Ł
ĠÚ¯ ÙĦ
Ïĥ ÏĦÎ¬
lÄ± ÄŁÄ±
d ar
Ð³ Ð°Ð½
Ġë³ ´ë
t res
áĥĲáĥ¢ áĥĺ
ĠPor no
j em
Ġà¦¸ à¦¾à¦¥à§ĩ
Ø¶ Ø§
Ä± q
áĥł áĥĲáĥ¤
Ġpo z
łà¸²à¸ ŀà¸
ĠØµ Ùģ
Ġà°ªà°¾à°° à±įà°Ł
à¸²à¸ ģ
ĠØ§ÛĮÙĨ Ú©Ùĩ
Ġ×¦ ×¨
Ġà¦¹à¦ļ à§įà¦Ľà§ĩ
ĠÐ¿ÑĢ Ð¾Ð²
åĽ ł
Ġë° Ľ
Õ¡Õ °
æ¨ ¡
ÑĢ Ð°Ð²
ĠO p
è» Ĭ
ÅĤ Äħ
uj c
ÄŁ a
ĠP en
Ġd ÉĻr
Ġì° ¨
äº ĳ
am e
Ġà°¤ à°°
Ġoldu ÄŁ
à±ģà° ļ
ÏĦ ÏģÎ±
Õ £
à±ĩ à°²
y st
ĠØ± Ø¦ÙĬØ³
Øº ÙĬØ±
æĸ° éĹ»
à¯įà®¨à¯įà®¤ à¯ģ
am ang
¢à¸ §à¸
×Ļ×ķ×ª ×¨
Ġtr ang
à· ı
Ïĩ Î±Î½
ĠÃ© c
Ġs olo
Ġha cer
Ġmel h
ĠI ch
ÙĬÙĦ Ø©
Ð¾Ð² Ð¾ÑĢ
à±ģà°Ĺ à±ģ
Ð¸Ð¼ Ð¸
Ġé Ŀ
Ġ ą
Ġd Ã¶n
åĳ ³
Ġk ap
Ġà¤ķ à¥įà¤¯à¤¾
ãĤ Ģ
ÙĪ Øµ
Ġz na
9 8
ĠÎķ Î»Î»Î¬
ç» Ļ
Ġw enn
Ġà®ļ à®¨à¯įà®¤
Ġdi ff
c ed
áĥĺáĥľ áĥĴ
ãĥĥ ãĥī
Ġç ī
à±ĭ à°Ł
á»Ł i
èĬ Ĥ
àª ¾
Ġà¤® à¥Īà¤Ĥ
Ġa Ã±os
ĠÐ¶ Ðµ
Ø¬ÙĦ Ø³
Ġch á»©c
ĠáĥĵáĥĲáĥ £áĥ
ĠagåĽ½éĻħ åİħ
à¯Īà® ®
an i
Î½Î¿ ÏĤ
Ġe dÉĻ
Ġ Å¼y
Ġmo Å¼e
ĠB rasil
Ġà¦¸ à¦ķ
è² ·
Ġq ÉĻd
åĮ ħ
Ġdi sp
à®Ł à¯įà®ļ
Ġà¦¨ à§ĩà¦¤
Ġho áº·c
à¤¾à¤ ¶
ĠÎµ Î¹
çĪ ±
Ã¼k s
ĠH er
èĬ ±
ĠØ¨Ø³ÛĮ Ø§Ø±
Ġcom un
Ġáĥ© áĥĲáĥĽ
ĠC Ã´ng
Ġì ¶ľ
à¤ª à¥Ģ
à¦¾à¦° à§įà¦¥
ang g
Ġà°Ĩ à°°
Ġà¦¬ à¦¿à¦°
ĠÄĳ áº¡i
Îº Î·
Ġth o
à®µ à®°à¯įà®ķà®³
Ġà¤ķà¥ĭ à¤Ī
Ġëĵ ¤
Ġ0 5
Â ¡Â
ement s
ĠÐ² Ð¾
Ġver y
az Ä±r
Ġæ ³
Î¸ Î½
Ġà¤ªà¥įà¤° à¤¤
à¦¥ à¦®
à¹Īà¸² à¸Ļ
à°¾à°¨ à°¿
an za
åŃ ĺ
v y
ĠÑĢ ÑĥÐ±
à®µ à®°à¯į
Ø´ Ø§ÙĨ
ì¸ ł
à¦¨à§įà¦¤à§įà¦° à§Ģ
Ġà°¨à±ģà°Ĥà° ¡à°¿
Ġà®® à®¾à®¤
Ġd Ã¹ng
à¤Ĥ à¤Ł
ĠÎ¿ Î¹ÎºÎ¿
áĥĶáĥľ áĥĺ
ÄŁ Ä±nÄ±
ÑĥÐ»ÑĮ ÑĤ
Ø´ Ø§Ø±
Ġà¤® à¥įà¤¹
ŀà¸Ļà¸ ±à¸Ļà¸
Ġd r
Ġà®ħ à®ªà¯įà®ª
à¹ĥà¸Ĭà¹īà¸ Łà¸£à¸µ
à¦¾à¦ Ń
Ġgiá» Ľi
Ġà°İ à°¨à±įà°¨
Ġbu de
Ġà¦¸ à¦Ń
ĠP o
ãĥ» ãĥ»
ÃŃ vel
b aar
rz ed
íĮ Ĳ
ĠÏĥ Î¿Ïħ
Ġà¤ªà¥įà¤° à¤¦
ë² Ī
ĠìĹ Ń
ĠØ§ÙĦÙħ Ø¬
b at
Ġà¦ªà§įà¦° à¦¶
Ġà¦¸ à¦¦
Ġse h
in ess
as il
ãĤĭ ãģ¨
ĠW o
Ġãģĵ ãĤĮ
ĠÚ¯ Ø±ÙĪ
as yon
ç ª
Ġà§§à§ ¦
à±Ĩ à°Ĥà°Ł
à¤¾à¤ «
Ġd om
Ã§ e
ØªÙħ Ø§Ø¹
vÄĽ t
Ġà¤ªà¤¹ à¤²à¥ĩ
Ġê ´ĳ
à¯ģà® Ļà¯įà®ķ
ĠÏĢ ÏģÎŃÏĢÎµÎ¹
ÑĢ Ð°Ð¼
×ĳ×¨ ×Ķ
äº ¿
Ġek st
Ġ×ª ×§
à¸£à¸²à¸Ħ à¸²
ĠÙĬ ÙĨ
Ġmem ber
Ġì½ Ķ
à®¨à¯įà®¤ à¯ģ
do t
áĥĿ áĥĲ
ĠD es
Ġå¯ ¹
Ġ×©×ľ ×Ĳ
Ġà¤Ĺ à¤Ī
ãĥĨ ãĤ£
à¤ļà¥įà¤ ļ
Ġà¸Ĺà¸Ķà¸¥à¸Ńà¸ĩ à¹ĥà¸Ĭà¹īà¸Łà¸£à¸µ
ĠÙ¾ Ø±Ø¯
Ġà¨ ķ
k eit
à®ļ à¯į
Ġnh iÃªn
Ġ} .
ĠaÃ§ Ä±k
×ķ×¨ ×ª
ĠG ratis
Ġáĥ©áĥķáĥĶáĥľ áĥĺ
ul o
Ġt om
\\ \\
ĠØ¨ÛĮØ´ ØªØ±
Ġmer upakan
à¸²à¸ ªà¸´
íİ ¸
áĥĺáĥļáĥĺ áĥĲ
áĥĲáĥ¡ áĥ£áĥ®
à±ĭ à°¦
Ġà°¸ à±įà°Ł
Ģâ Ļ
ìľ ¡
à°¾à° ļ
Ġkter Ã½
Ø¹ Øª
Ġd ue
éª Į
k ad
ch od
Ġe ll
Ġ×¢ ×ķ×ĵ
à±įà°¯ à±Ĥà°
Ð» Ð°ÑģÑĤ
Ġáĥ¨ áĥĶáĥķ
Ġíķ ¨
×ĺ ×Ļ
Ġà¹Ģà¸ ¡à¸
le y
ï¼ Ĵ
à¯Īà®ķà¯įà®ķ à¯ģ
Ġáĥ£áĥĻ áĥķáĥĶ
p f
à±ģà°Ĥà° ¡
Ã³ b
ĠÐ»Ñİ Ð±
Ð°Ð½ Ð´
Ú¯ Ùĩ
ti sk
Ġà¹Ĥà¸Ľà¸£à¹Ĥà¸¡à¸ Ĭà¸±à¹Īà¸Ļ
ĠØ® ÛĮ
Ð¸ ÑĢÑĥ
ÐµÐ½ Ñĭ
ì§ ĳ
áĥĶáĥĳáĥĺáĥ¡ áĥĲ
ä¿ ®
çĶ £
ç Ĭ
Ð Ľ
Ã³ r
ĠØ¬ ÙĦ
Ġà®ī à®±
Ãª s
Ġáĥ¡ áĥ£áĥļ
ĠÙĪØ§ÙĦ Ø£
le p
ĠÙĪ ÙģÙĬ
Ġà°ķà±ĭ à°¸à°Ĥ
Ġà¸ªà¸ ¥à¹ĩà¸Ńà¸ķ
ag gi
Ø§Ø³ Ø©
b r
ĠØ¨ Ø§ÙĨ
Ġ×ĵ ×ĳ×¨
å°± æĺ¯
Ġãĥ ĳ
Ġet m
ë¦ ½
à°¿à° ¡
Ġe lle
à¯Ĥ à®°
æµ İ
áº© n
Ġb á»ĩnh
Ġà®İà®© à¯į
×ķ×¨ ×Ļ
Ġpe ut
çł ´
æ ĵ
Ú© Ø§Ø±
Ġ Ä±n
çİ ĭ
à±ģà°² à°¨à±ģ
ou ver
Î¼ÎŃ Î½Î·
ĠÙĦ ÙĥÙĨ
à¦² à¦¾
à¤¸ à¤¾
Ġni to
Ġaus si
ĠÕ ¾
êµŃ ìĿ¸
Ġres p
iá» ħn
Ġ×ľ×Ķ ×Ļ×ķ×ª
Ġt al
à´ Ĥ
Ġe er
ĠÂ º
Ġà®ħ à®²à¯įà®²
à¹ĥà¸«à¸ ¡
ÙĦ Ø§Ø«
Ġy ol
Ġáĥ¨ áĥĶáĥĴ
áĥ¡ áĥĲáĥª
×Ļ×ŀ ×Ķ
ch ter
l et
k on
Ġ×ĳ ×Ļ
Ġå ĳ
is ke
å Ħ
Ġ×Ĺ ×Ļ
ov ÄĽ
ª áĥ®
Ġlá»Ľ n
ãĤ ¶
§à¸ ¥
×¤ ×Ļ×Ŀ
d ay
Ð¾ÑĤ Ð¾Ð²
à¸Ļ à¹īà¸
Ġáĥ« áĥĲáĥļ
b el
Ġpr Ã©s
Ð¸ ÑĪ
ĠáĥĻáĥĺáĥĵ áĥĶáĥķ
×¤ ×Ķ
an y
à®² à®¿à®²à¯į
Ġno en
ĠÎ¼Îµ ÏĦÎ¬
Ġtr á»ĭ
Łà¸¸à¸ķà¸ ļà¸Ńà¸¥
à¸£à¸ ¹
Ġà¦ªà§ģà¦² à¦¿à¦¶
ĠáĥĲáĥ ĸ
Ġb ud
Ġà®¤ à¯ĭ
áº§ m
à°¾à°Ĥà° Ĺ
åį ĵ
Ġd ÉĻy
Ġb eberapa
al idad
Ġc Ã¡i
ĠÙħØŃ ØµÙĪÙĦ
ĠQu á»ĳc
åĬ Ł
æ¶ Ī
Ġà§ §
×ķ×ľ ×Ļ
Ġáĥĺáĥ¥ áĥľáĥĶáĥĳáĥĲ
Ø³ÙĦ Ø§Ùħ
Ġe u
Ġt ÉĻm
Ġ Å¼
Ġ ÅĻ
Ġil g
è¶ ħ
Ġà¤¨ à¤¾à¤¹à¥Ģ
ĠáĥĵáĥĲáĥ Ĵ
Ġund er
Ġin f
Ġáĥ¡áĥĲáĥĻ áĥ£áĥĹ
Ġà°ļ à°¿à°¤à±įà°°
l ah
çĻ¾å®¶ ä¹Ĳ
æĸĻ çĦ¡æĸĻ
ĠáĥĽ áĥĺáĥľ
Ġpr aw
5 0
ê» ĺ
Ġ ãģĦ
à°°à±įà° ª
åķ ı
ĠÎº Î¿
Îº Î»Î·
Ġà¦Ĩ à¦Ľà§ĩ
à®¿à®¯ à¯ĩ
ÙĦÛĮ ÙĦ
ĠÙģØ¹ Ø§ÙĦ
ĠØ£ Ø®
Ġt ambiÃ©n
Ã ®
à°° à°¿
ad Ä±r
ĠÙĩ ÙĨ
Ġí Ŀ
Ġp emb
çķ ª
ĠÙĬ ÙĥÙĪÙĨ
g y
ĠØ§ÙĤØª Øµ
ÐµÐ½ Ð¸Ð¹
ĠA d
Ġë¬ ´ë
ìĿ´ ëĿ¼
Ġà¦¬ à¦¾à§ľ
á» Ľ
Ġ ä¹Ł
å ĥ
Ġor t
Ġc ap
á»į c
Ġà®ª à¯ĩà®ļ
à±ģà°ķ à±Ĭ
Ġs ig
Ð»Ð¸ Ñĩ
id en
f ul
Ġx em
ÐµÐ¼ Ñĥ
¶ à¹Īà¸ĩà¸
Ġm ua
ãģ¡ ãĤĥ
d im
å¿ ľ
t te
áĥĶáĥĳ áĥĹáĥĲáĥľ
Ġç ¾
Æ° ng
ĠØ§Ø¯ Ø§ÙħÙĩ
Ø¨ Ø§Øª
Ġà¦ªà§įà¦° à¦¥à¦®
Ġet mÉĻk
Ġ20 0
à®¿à®¯ à®¿à®©à¯į
Ġmeng h
ĠØ·Ø± ØŃ
ĠØ« Ùħ
Ġk áº¿
Ġ×ľ×Ĳ ×Ĺ×¨
éĹ® é¢ĺ
Ð¼ ÐµÑĢ
Ġs Ã¼re
ĠáĥĴáĥĲáĥľ áĥª
áĥĶáĥł áĥĺáĥ¡
ĠÐĿ Ð°
ĠÙħ Ø®Øª
ãĥ¼ ãĤ¯
áĥķ áĥļáĥĺáĥ¡
á»į ng
Ġà°ī à°¦
æľį åĬ¡
Ġris p
à ³
à±ĩà° ¯
Ġà¦ªà¦¾à¦° à§ĩ
uk a
ÑıÑĤ ÑĮ
Ġgj ennom
Ġt an
Ġex per
è¿Ľ è¡Į
ĠÕ¸ ÖĤ
ĠçĻ ¾å®¶
Ġà®ķ à®¿à®Ł
áĥľ áĥĺáĥ¨áĥľ
ĠS o
Ġà°° à°¾à°·à±įà°Łà±įà°°
Î §
ĠØ¬Ùħ ÙĬØ¹
Ø¬ Ø¯
Ġmej or
Õ¡Õ ¬
Ġà®Ĩ à®°
Ġp u
Ġà§© à§
Ġà°ħ à°¤
çĥ Ń
ĠUn tuk
ĠÐ¡ ÑĤ
à¸£à¸²à¸ ¢à¸
Ġla b
Ġ0 6
Ġáĥĵ áĥĶáĥĵ
Ġh ai
ĠÙģ Ø¥
à¯Ĭ à®°
Ġ áŀ
Ġu z
ÙĪÛĮ ÛĮ
end re
Ġthá»© c
á» ¹
¤ à¸
Ġ×ķ ×ł
ãĤĵ ãģ§
Ġáĥĳ áĥĶáĥķ
Ġ×ĳ ×ľ
ĠØ¯ Ø§Ø¯Ùĩ
Ġà°ķ à°¾à°²
ÙĪØ± ÙĬ
à±ģà° ¸à±įà°¤
ªà¸ ¹à¸
ĠØ¬ Ø§Ùħ
éģ ¸
Ġan os
ãĢ İ
ĠØ® Ø¯Ùħ
ê° Ĳ
Ġà¤ħ à¤Ĺ
ĠØ§ÙģØ² Ø§ÛĮØ´
áº ³
à°¾à° Ĥ
st vÃŃ
ĠÏĥ ÏĩÎµ
à¦¤ à¦¾à¦°
Ġt ay
ĠH e
Î¼ Î¿Ïħ
Ġãĥ Ī
ĠÙħØ¯ ÙĦ
h e
Ġà¤ľà¤¾à¤¤ à¤¾
ĠáĥĴ áĥĸ
Ġm ÉĻr
à¤§ à¥įà¤¯à¥ĩ
ĠÐ² Ð½
Ġ×ķ ×Ĺ
im o
ĠÚ¯ ÙĪØ´
Ġju Å¼
ĠH Ãł
æİ §
Ġgo od
Ġs l
ĠÐŀ ÑĤ
áĥĲáĥłáĥĵ áĥĲ
ç Ĺ
ist em
Ġb us
p x
Ð¿Ð» Ð°ÑĤ
×§ ×¨
æĶ ¯
ĠØ¯Ø³Øª Ú¯Ø§Ùĩ
ĠãĢ Ĺ
for ma
á ĭ
Ļ à¯įà®ķà®³à¯į
áĥĶáĥĹ áĥĲ
ĠØ¢ Ø±
Ġw eer
à¯ĩ à®¯
Ġãĥ ª
à§ĩà¦¬ à§ĩ
ide o
Ã©r ie
uy or
à¯Īà®¯ à®¾à®ķ
Ġà°µà°¿à° µ
Ġà°ªà±įà°° à°ķ
åĪĨéĴŁ å¿«ä¸ī
à® ľ
è¾ ¼
ĠÃ ī
v oor
Ġà¦Ĺ à¦¤
ãĥķãĤ ©
3 8
áĥ®áĥķ áĥĲ
Ġà¤¸ à¤¾à¤®
Ö ¶
Ú© Ø±Ø¯
Ġà¨ ¸
íĿ ¥
ªà¸ Ķà¸
ĠÐŀ Ð±
Ġäºļæ¸¸ åĽ½éĻħ
Ġæ ¬
Ġmemb uat
Þ ¦
ĠÐļ Ð°Ðº
Ġa qu
áĥĶáĥĳáĥļ áĥĲáĥĵ
Õ ¬
ien do
lÉĻrin in
Ã½m i
à¤Ĥ à¤§
Ġch á»įn
p g
à¦¬ à¦°
à© °
Ġc Ã´
Ġsel v
§ áĥķ
Ġm ange
ĠM en
m Ã¥
à§ģà¦ ľ
ell es
ĠÐĴ Ñĭ
Ġà¦īà¦ª à¦ľ
Ø§Øª Ùģ
à¥ĩà¤ ¡
Ġáĥ¡áĥĲáĥĸ áĥĿáĥĴ
ÙĪ Ø¹Ø©
el n
íĺ Ħ
Ġa ff
Ġà¦ķ à¦²
il di
Ġ áº£nh
æĭĽ èģĺ
wie t
ç ¬
áĥĲáĥļ áĥĲáĥ¥
à°° à°Ĥ
à®Ļà¯įà®ķà®³ à®¿à®²à¯į
ĠìľĦ íķ´
idup an
¬ áĥĽ
ĠÂ °
é §
Ġcáº£ m
Ġlang is
ĠÙħ Ø§ÙĨ
Î¼Îµ Î½
Ķà¸ ¢à¸
Ġà®ªà®¾à®° à¯įà®¤à¯įà®¤
×ª ×Ķ
Ħ à¸£à¸±à¸ļ
ĠØª Ø·
Ġw ij
ĠØ¨ Ø£
Ð¾ÑģÑĤ ÑĮ
Ġbil dir
Ġt ing
Ķà¹īà¸§à¸ ¢à¸
åĨ ³
5 8
ãĥª ãĤ¢
Ľà¸£à¸°à¹Ģà¸ Ĺà¸
c el
k il
ĠgÃ¶ z
Õ¥Õ ½
ag es
m ento
Ġ 88
à°¾à°ķ à±ģ
in nen
Ġäºļæ¸¸ ag
Ġà¦Ĩ à¦¦
Ø¨ Ø§Ø±Ùĩ
b ul
ab er
áĥĲáĥłáĥ ļ
è ı
à±ĩà° ľ
Ðµ ÑĨ
Ġà®ĩ à®±
Ø´ Ùģ
ĠÐ¿ Ð¾Ð²
Ġman y
Ø´ Ùħ
à¹ĥà¸ Īà¸
æĿ ¡
×¨×Ĳ ×Ķ
f ica
Î» Ïī
å½ ¢
ĠS z
Î³ ÏģÎ¬
ym i
Ġà®ħà®µ à®°à¯įà®ķà®³
r it
Ġi c
à®¿à®¯ à®²à¯į
Ġqu Ã¡
Ġh ari
Ġà®ļ à®°
ĠÉĻs as
ĠÃ ¢
ĠO n
à±ĭ à°¡
æĿ ĥ
ia ÅĤ
Ġtien e
ØŃ Ùĩ
ĠÙĨ Ùĩ
à®¿à®ķà¯įà®ķ à¯ģ
Î¼Î¬ ÏĦÏīÎ½
Ġpri ma
Ġáĥ§áĥķáĥĶáĥļ áĥĲáĥ¤
ĠÐ½Ð° ÑĪ
ad an
ÛĮØ¯ Ùĩ
Ġáĥ¨áĥĶáĥĵ áĥĶáĥĴ
Ġà°¨ à±Ģ
Ġu til
Ĉ Ĉ
áĥ£áĥļ áĥĲáĥĵ
×ķ×¦ ×Ķ
åĳ ¨
Ø§ ÙĪ
à´ Ł
Ġbardz o
«à¸£à¸ ·à¸Ń
Ġn Ã¥r
Ø¬ ÛĮ
Ġy an
Ġà¦¤ à¦¾à¦ģ
à±Ģà°° à±ģ
Ġy Ãªu
ëŀ ĳ
à¦°à§įà¦ ķ
ĠáĥĽáĥĺáĥ ¦
ĠáĥĴáĥĲáĥľ áĥķáĥĺáĥĹ
ŀà¸ ·à¹Īà¸Ńà¸
à®Ł à¯į
Ġêµ °
Î¹ Î»
ãģı ãģł
l ud
Ġáĥ¡áĥĲáĥĸáĥĿáĥĴ áĥĲáĥĵáĥĿ
ĠÙĦ Ùĥ
à®± à¯ģ
Î»Î» Î·
à¥įà¤¯à¤¾à¤ ¸
ĠéĢ ģ
áĥķ áĥĶáĥĵ
Ġãĥ ©
r ol
ip o
æ¢ ¦
à®Ł à¯ģà®ķà¯įà®ķ
g lich
Ġà¦ķ à¦¿
c uk
à¤Ĥ à¤¬
ĠáĥĲáĥ ŀ
Ġ×Ļ ×¦
Ġt áºŃp
à°° à°£
Ð¸ Ð¾Ð½
ĠáĥĻ áĥł
Î¬ Î¶
ĠP M
Ġà¦ħà¦Ń à¦¿à¦
Ġà¦ªà§įà¦°à¦ķ à¦¾à¦¶
Ġà¦ĩ à¦¸à¦²
ĠÐ½Ð° Ñĩ
Ġà¦¨ à¦¿à§Ł
×Ļ×Ķ ×Ŀ
à¸´à¸ ĩà¸
al ement
Ġpar asi
Ġh ot
Ġà° ĸ
èī ĩ
Ġåħ ¶
Ġ à¸Ļà¸
ĠÏĢ Î»Î·
Ġ×ŀ ×ľ
in der
à±įà°° à±Ĩ
ëĭ¤ ëĬĶ
ãĢ Ĭ
ĠÙĨ ÙģØ³
ä¹ °
Ġà¤¦ à¥įà¤µ
ĠE t
l Äħ
à¶ º
ĠØ¯ ÙĦ
Ġk ah
Ġê° Ħ
æĹ¶ éĹ´
áĥłáĥ ª
çĶ ±
à±ĩ à°Ĥà°¦à±įà°°
c to
ato ri
Ġà¦¶ à§ĩà¦·
à© ĭ
ãģ ĸ
ra z
ÉĻn c
ĠØ£Ùĥ Ø«Ø±
Îº ÏģÎ¹
ĠØ§ÙĦØ³ Ø¹ÙĪØ¯
à¥ĭ à¤¨
Ġà°® à±ģà°Ĥà°¦
sk Ã¡
Ø®Ø± Ùī
Ġt wo
Ø§Ø¨ ÛĮ
Ġse hr
ãĥ³ãĤ ¿
el ijke
st er
Ø§Ø³ ÙĬØ©
ÏĮ ÏĦÎ·
ĠTr ung
ĠÑĥ Ð´
Ġáĥ¡áĥĲáĥ¨ áĥ£áĥĲáĥļ
Ġpri mer
ªà¸ ¥à¹ĩà¸Ńà¸ķ
Ġà°¸ à°°
Ġà¸ ĸ
Ã§ as
ê² ł
Ġng a
iá»ĩ m
Ġs iz
Î³ Ïī
Ġà¤¤à¥įà¤¯à¤¾à¤ Ĥ
os a
Ġg ÅĤ
Ġf a
à¯įà®ļ à¯įà®ļ
Ġà¹Ģà¸ ĩà¸´à¸Ļà¸
ĠÙ¾ Ø§Ø³
áĥĲáĥľ áĥĺáĥ¡
å¤© åłĤ
Î½ Î¹Î±
Øª Øµ
àµ ĩ
ĠãĤ Ń
ÙĦÙĬ ÙĦ
Ú¯ Ø°
Ġèĩ ª
×Ļ×ª ×Ļ
áĥĲáĥ Ł
ĠíĨ ł
Ġe ff
ĠØ§ÙĦÙħ Ø¤
Î´ Î¹Î¬
Ġm iejs
Ġáĥł áĥĶáĥĴ
ìĸ ¸
el ing
ÃŁ e
áĥĲáĥł áĥĿ
à°¿à°ª à±ĭà°¯
à®ªà¯įà®ªà®Ł à®¿
à¦¬ à§ĩà¦¨
Ġà°ªà±įà°° à°ľ
ĠÑģÑĢ ÐµÐ´
n oÅĽÄĩ
ĠÏĢ Î¬Î½
à¸Ńà¸ Ķ
á Ĭ
×Ļ×ª ×Ł
à°¬ à±įà°¬
ÙģØ¶ ÙĦ
ti li
ĠæĹ¥ æľ¬
Ġà¦¸ à§ĩ
Ġ×ĳ×ŀ× §
Ġé ¦
Ã ī
ĠâĢ ı
Ġdan n
× ³
ìĺ ¨
Ġs ans
à¨ ¤
ĠØ¹ Ú©Ø³
Ø¶ Ø§Ø¡
³ à¸Ļà¸
ê¸ Ģ
áĥĶáĥĳáĥĺáĥ¡ áĥĹáĥķáĥĺáĥ¡
Ġt arix
à°¿à°¯ à°¾
Ġà®® à®¤
Ø± Ø§Øª
Ġf ue
um ah
à§ģ à¦Ł
áĢ¬ áĢ
Ġà¦¨à¦¿à¦°à§įà¦¬ à¦¾à¦ļ
Ġà¤ ĳ
s ÉĻ
ĠÎ¼ Î·
Ġn l
ç İ¯
æĹ ħ
ĠØ¨Ø§ÙĦ Ùħ
ĠÐ± Ð¾Ð»
Ġdo anh
Ġz p
u te
ĠØ§ÙĦØ¹Ø±Ø¨ ÙĬØ©
Ġb Ã¶l
Ġen c
ë ¨
ĠØ¥ Ø°Ø§
ÎŁÎ Ŀ
Ġà®ªà¯ĭ à®²
ĠÐ±ÑĥÐ´ ÐµÑĤ
ĠÃ© t
Ġáĥ¡áĥĲáĥ¥áĥĲáĥłáĥĹáĥķáĥĶáĥļ áĥĿáĥ¨áĥĺ
à°°à±įà° ®
·à¹Ī à¸Ńà¸ĩ
Ã© nÃ©
Ġà°¤ à°®
Ġb on
åİ Ĩ
Ġk ab
ci al
lar da
Ùģ ÙĦ
åĭ Ļ
Ġ×Ļ ×ķ×Ŀ
ãĤ¤ ãĥ³
Î¼ÎŃ Î½Î±
ĠÏĨ Î¿
Î ĺ
Ġà®®à¯ģà®© à¯įà®©
Ġë Ī
ĠØ® Ø§Ø±
il itÃł
Ø· ÙĤØ©
ê³ ³
Ġà°ª à°¦
ĠØ¨Ø² Ø±Ú¯
ch a
n is
×Ļ×ł ×Ļ
Ġl et
ĠÖ ²
ov Ã½
ĠãĤ Ĥ
Ġh ij
à°¾à°¦ à±ģ
ĠO d
Ġà¤ķà¤¿à¤¸ à¥Ģ
ãģ«ãģ¤ ãģĦãģ¦
Ġv áºŃy
Ġ×ł ×Ľ
p ie
Ġãĥ Ĺ
Ġpo t
Ġà°ļà°¾à°² à°¾
Ġ( '
éĿ Ĵ
Ð°Ð¹ Ð½
Ġin san
Ġà° Ĳ
ëª ©
ĠØª Ø¯
×Ļ×ľ ×ķ
Ĺà¸ ±à¹īà¸ĩà¸
à°¿à°Ĥà°ļ à±ĩ
Ġb em
à¥įà¤¯ à¥Ĥ
ĠÏĢ Î¹Î¿
áĥĲáĥļ áĥ£áĥł
Ã³ c
ë©´ ìĦľ
áĥĺáĥ Ń
Ġm eg
f ahr
ĠÃ ĥ
ÃŁ en
áĥĿáĥ¡ áĥ¢
àµ ĭ
áĥĶáĥľ áĥĲ
ne h
ĠÐº Ð¾Ð»
Ġg reat
à®¿à®°à¯ģà®¨à¯įà®¤ à¯ģ
ê² °
Ġ Ã¡n
ç½ĳ æĬķ
Ġà§ ¬
ĠO s
à¤ķà¥įà¤ ¸
áĥĵ áĥĺáĥ¡
ÐµÑģ ÑĮ
ĠØŃ ÙĤ
á» Ŀ
à®¿à®ķà¯įà®ķ à¯ģà®®à¯į
ë¡ ¯
emb re
Ġà¦Ł à§įà¦°
ge ven
Ġb Ã¼yÃ¼k
à®µ à®°à¯įà®ķà®³à¯į
ĠdeÄŁ il
Ġà¤ľ à¤¨
g od
Ġw ay
ĠØ¢ Ø®Ø±
à¦¾à¦ ł
ł áł
ÐµÐº Ñģ
ĠÎ½ Î¿
Ġ Ã¡
ĠÚ© ÙĪØ¯
áĥĸ áĥĲáĥĵ
ĠG Ã¼n
ĠØ± Ø§ÛĮ
à¯ģà®¤ à¯į
Ġtil b
Ġà¸ ķà¸
k et
Ġb r
ãģ® ãģĭ
ĠåĲ į
ÙĲ ÙĨ
«à¸Ļ à¹īà¸²à¸
ĠÙģØ± ÙĩÙĨÚ¯
Ġques ta
ti ll
Ġno e
ĠÐ¸ Ñħ
áĥł áĥĶáĥĳáĥĺ
os ten
ĠagèµĮ åľº
ĠÏĢ ÏīÏĤ
íĽĦ ê¸°
×ĵ ×ķ×ª
ĠI m
Ġpri m
h eit
Ġ×ķ ×ª
iy ang
Ħà¸ ¡
ĠÑĩ Ð°ÑģÑĤ
Ġà®ªà¯Ĩ à®°
ei lle
å£ «
çº ¢
×Ĵ ×ľ
à®¿à® ¸
ess e
Ġì¶ ©
Ġà¦ª à§Ĥ
Ġc á»©
Ġà°® à±ģà°
ay on
Ġáĥĵ áĥłáĥĿ
ĠáĥłáĥĿáĥĽ áĥļáĥĶáĥĳ
ur as
Ã§ os
×¨ ×ķ
æŀ Ħ
Ð» ÐµÐ½Ð¸Ðµ
m aya
Ġth á»§
ĠØŃ ÙĪÙĦ
ou d
æĸ ½
á» Ŀi
Ġà¦ķà§ĭà¦¨ à§ĭ
Ġam p
Ġv áº«n
Ġsa o
Ġad i
è´ Ń
Ø± Ø¬
à°°à±įà° ¥
Ġà¤ħà¤ª à¤¨à¥Ģ
Ġà¤° à¤ĸ
A V
Ġr en
Ġg ir
Ġà°ļà±ĩà°¸ à°¿à°¨
à¦ ĥ
Ġsá»ĳ ng
Ġà°® à±Ĥà°
ĠÎ´Î· Î¼Î¿
Ġ2 9
Õ¶Õ¥ÖĢ Õ«
ĠáĥĶ áĥľ
c un
ĠÙĨ ØŃ
Ġw ant
ÏĢÎ¿ Î¯
ĠáĥĹáĥĲáĥľ áĥĲáĥĽ
Ġáĥ¡ áĥĺáĥ¢
Å¾ d
Ġpas s
Ġà¤Ĩ à¤ľ
Ġà®¤ à¯ĩà®°
ĠR es
ĠØ§ÙĦÙĪ Ø·
ĠS on
Ġáĥª áĥĶáĥľáĥ¢
ãĤĪãģĨ ãģ«
áĥĵ áĥĺáĥľ
Ġë¬ ¼
Ġs Ã©
æĢ ģ
ent ro
ìķĦê°Ģ ìĶ¨
ri d
ç» ľ
æŀ Ĳ
×Ļ×ł ×Ļ×Ŀ
rei s
Ġà¦¬à¦¿à¦ ¦
Ġper s
à±ģà° ¬
ä¼ Ĺ
Ġê²½ ìļ°
ĠÙĨ Ø¨
ĠL as
é» ĳ
ÎĹ Îľ
Ġmes mo
Õ¸ÖĤÕ©Õµ Õ¡Õ¶
Ġà°ľ à°¨
ĠãĢĤ âĢĿ
Ġ×ľ ×ł
tiv i
ĠÏĥÏħ Î¼
ê· ¼
éħ Ĵ
Ġå ¨
Ã´ t
Ġ×ĳ ×ķ
Ġà¦¦ à§ĩà§Ł
Ġmu á»ĳn
ãĤĪãģĨ ãģª
ĠÙħ Ø«ÙĦ
ĠæĹ ©
ĠØ§Ø³ÙĦØ§Ùħ ÛĮ
Ġå¹ ¶
Ġg es
åĽ½ äº§
è ħ
Ġger Ã§ek
ÎŁÎ Ľ
Ø±ÙĬ Ø¯
Ġà¤¦ à¥ĩà¤¶
Ġt Äĥng
ìķ ł
éĽ »
v od
ĠBaÅŁ kan
Ġà¸ŀ à¸Ļà¸
à¦°à§įà¦ ·
Ġle ur
Ġä¸ ī
j ect
or u
åĪĨ pk10
Þ¦ Þ
Īà¸±à¸ Ķà¸
· °
\ "
áĥ£áĥ Ļ
Ġ×ł ×ķ×¡
Ġà°ħà°§ à°¿à°ķ
Īà¸£à¸´à¸ ĩ
sk Ã½
Ġà¤ľ à¤¾à¤ı
ãģĮ ãģĤãĤĭ
Ġto dos
Ġd Ã¼z
Ã »
Ġ×Ľ ×ª
Ġà´ ķ
Ġgr an
å®ī è£ħ
ÑĤ Ð¾Ð±Ñĭ
à¯Ĩ à®²à¯įà®²
ĠìĬ ¬
çĶµ åŃĲ
Ġà¦ıà¦® à¦¨
Ġna p
áĥķ áĥĺáĥĵ
Ġà¸ ģà¸²à¸£
Ġpe u
à¤°à¥įà¤ ·
Ġmol to
k om
Ã Į
ĵ °
åİ ĭ
å¤ ľ
åŃ Ĺ
à¦Ľ à§ĩà¦¨
à¦¾à¦² à§ĩà¦°
ier w
Ġy ox
Ġz ich
Ġsem ua
ĠÙĪÙĦÙĥ ÙĨ
ĠØ£ Ø¹
ver s
Ġt Ãłi
à¹Īà¸²à¸ ¢à¸
à¯įà®¸ à¯į
à®² à®®à¯į
èĩª å·±
Ġà¦¬ à§ĥ
Ġch u
Ġw eiter
æ ĳ
áĥĺáĥľ áĥĺáĥ¡
Ġand ere
à¸Ńà¸¢à¹Īà¸²à¸ ĩà¸
ungk in
ĠÃ¼z rÉĻ
à®ķ à®°
ÏĨ ÎŃÏģ
à© ±
Ð¾Ð²Ð°Ð½ Ð¸Ñı
à¯Īà®ļ à¯į
Ġ2 8
ãĤģ ãģ¦
ÏĢÎ¿Ïħ ÏģÎ³
ĠáĥĹ áĥĺáĥĹ
ĠáĥĲáĥĽ áĥĺáĥ¡
Ġà°¸ à±įà°ª
åĩ ¡
Ġ×Ķ×ŀ× §
à°¿à°¸à±įà°¤ à±ģà°¨à±įà°¨
ÙĪ Ø§ÙĦ
áĥĺáĥ¢ áĥĿáĥĽ
à¦¬ à§įà¦¯
Ø§Ø± ÙĬØ©
iz met
Ġhaq q
b re
Ġà¤ħ à¤²
cz enia
×Ļ×¨ ×Ļ×Ŀ
Ġåħ ¨
Ġb ata
Ġk es
íĻ ©
ç²¾ åĵģ
ĠqÉĻd ÉĻr
ĠÚ© ÙĦÛĮ
Ġm ap
Ġcu ando
uf en
n ak
ov er
Ġis tif
Ġde ux
Ġà¤¹à¥ĭ à¤¨à¥ĩ
Ġà¤¸à¤ķ à¤¤à¥ĩ
Ġáĥŀáĥĺáĥłáĥķ áĥĶáĥļáĥĺ
Ġáĥĺ áĥª
Ġis so
Ġq o
ĠÃĸ z
Ġì¶ľìŀ¥ ìĥµ
æĹł çłģ
ãģĹ ãģĭ
áĥĺáĥ£áĥ ļ
ĠÎ´ Î¹Îº
å¹ ²
Ġy Ã¶n
ĠÕ¸ ÖĢ
Ġ×ľ×¤ ×ł×Ļ
äº Ī
Ġ×Ļ ×ĵ
Ġun s
ĠÐ ¨
ĠØ±ÙĪ Ø´
ĠØ³ ÙĦØ§Ùħ
×ķ×ĳ ×¨
ĠØª Øº
áĥĺáĥ¡ áĥ£áĥ¤
ķ à¹Īà¸²à¸
áĥłáĥĹ áĥ®
Ġg en
k ÄĻ
Ġro ku
Ġà¦ħ à¦¸
ĠÙĦ Ø£ÙĨ
« a
Ðº Ð¾Ð¹
à±ĩ à°¨
ĠØ¨Ø± Ø±Ø³ÛĮ
Ġb ax
Ġ á½
Ġ×ŀ×Ĺ×Ļ×¨ ×ķ×Ł
Ġ201 6
Ġà°¦ à±ĩà°¶
ëª¨ íħĶ
áĥ£áĥ ª
Ùĥ Ø©
ĠÚ© ÛĮÙģ
à¤µ à¤¾à¤°
Ġ×¨×Ĳ ×©
iy ÉĻ
¢ à¹Ģà¸
×Ĺ ×Ķ
Ïĩ Î¿
O R
ÑĥÐ¿ Ð¸ÑĤÑĮ
Ġ×ĸ ×ķ
ĠáĥĴáĥĲáĥĽ áĥĿáĥª
ÙĬØ¯ Ø©
Ġb as
u ah
ÏĨÎ¿ ÏģÎ¬
à¤¯ à¥ĭà¤Ĺ
Ġà¦¬à¦Ľ à¦°
Ð £
el lik
ĠÐ¿ÑĢÐ¾ Ð¸Ð·
ĠÎ± ÎºÏĮ
Ġæľ Ģ
an bul
ð Ł
Ġà¦¬ à¦¾à¦¸
Î¯ Ïĥ
ĠÚ¯Ø±ÙĪ Ùĩ
à¥ĭà¤Ĥ à¤¨à¥ĩ
Ñı Ð²
æĭ¿ å¤§
áĥĶáĥĽ áĥĲ
j et
ÅĽ li
ĠáĥĽ áĥĶáĥł
Ġà¦¹ à¦¾à¦ľà¦¾à¦°
ĠA m
ĠÙĨÙħ Ø§ÛĮØ´
ĠA M
Ġ×Ĳ ×Ļ×©
Ġà°® à°¾à°¤à±įà°°
Ġtaraf Ä±ndan
Ġyear s
ĠíĶ ¼
Ġse v
à¥įà¤¯ à¥ĭà¤Ĥ
Ġà¹Ģà¸ Ħà¸£à¸Ķà¸´à¸ķ
Ġon ze
ĠØ§ÙĦÙĤ Ø±
ĠÄĳá» ķ
· à¹īà¸Ń
si oni
ĠáĥĲáĥ¡ áĥĶ
à°¬ à°¡
Ġdi l
Ġa inda
Ð¸ Ð½Ñĭ
áĥĺ áĥĶáĥłáĥĹ
ÏĦ Î¹Î±
a at
Ġæ ¸
ÐµÐ» ÐµÐ¹
Ġ×Ĵ ×ĵ
×ķ ×ķ×ª
Ġà°µ à°¸à±įà°¤
Ġi yi
ĠáĥĽ áĥĺáĥķ
Ġgiá» ¯
Ġs ol
áĥĲáĥķ áĥĲáĥļ
Ġ×Ĳ×ķ×ª ×ķ
×Ķ ×ľ
Ġà¤¸à¤° à¤ķà¤¾à¤°
æ· ±
Ġy eni
un j
Ġ own
ĠJ ahr
il li
áĥĶáĥĳ áĥĵáĥĲ
r am
Ġà®ªà¯Ĩ à®±à¯įà®±
ĠÕ¥ Õ¶
Ġà¤µà¤¾à¤² à¥ĩ
à±Ĥà° ¨
ÉĻs inÉĻ
Ġà¤®à¥įà¤¹ à¤£
Ġà®® à®±
à¤¨ à¥ĭà¤Ĥ
ĠÐ³ ÑĢ
_ _
Ġaf ter
id os
ĠÄ° ÅŁ
Ġp ujc
áĥĶáĥĳ áĥĶáĥĳáĥĺáĥ¡
ĠÐº Ð»
ëĬĶ ëį°
à¦¨à§įà¦ ¡
åĽ½ å®¶
Û İ
ĠÏĦ ÏĮ
ĠØ§Ùħ Ø±ÙĪØ²
à®¾à®£ à¯įà®Ł
ÙĪÙħ Ø§Øª
Ġà°¸à°¿à°¨à°¿à°® à°¾
ãĥĥãĤ¯ ãĤ¹
Ġs ed
à°µ à±įà°µ
Ġn Ã¥
ĠÂ» .
à¯įà®ķ à®¿à®±
Ġb est
à°² à±įà°²à±ĭ
E T
ĠÙĪ Ø²
ÐµÐ¶ Ð´
å¢ ĥ
u i
à®±à¯įà®± à®¿
Ġel e
Ðº ÑĢ
Ġal an
Ġw alang
f ore
ĠÅ ļ
Ġq al
Ġb Ãłi
Î»Î¿ Î¹
n Ã½ch
áĥł áĥĲáĥĵ
ľà¸¹ à¹ī
ĠØ¬Ùĩ Øª
Î¼ ÏīÏĤ
ĠØ¬ ÙĨ
à§ģ à¦¦
Ġy ok
áºŃ u
Ġà®ħ à®¤à¯ģ
Ġj our
Ġà°ľà°° à°¿à°Ĺ
ë¥ ĺ
ĠbÄĻ dzie
ĠØ¨Ùĩ Ø§
ìĽ Į
åı ²
Ġk end
à¤ ģ
Î´ Î¹Îº
ĠáĥĴáĥĲáĥľáĥª áĥ®áĥĲáĥĵ
à®¿à®µ à¯ģ
Ġd own
Ġpro duk
à¦¾à¦° à§Ģ
ÙĨ Ø§ÙħØ¬
h an
Ïĩ Î¹
áĥĲáĥª áĥ®áĥĲáĥĵ
is ta
ê² ĥ
kad aÅŁ
Ä ŀ
Ġs oll
ĠÎµÏĢ Î¹Ïĥ
Ġà°µà°¿à° ¦
à®ķ à®®à¯į
à¦ ģ
Ã³ l
è® ¤
ĠáĥĽ áĥĲáĥ¦
Ġl iÃªn
ĠáĥĽ áĥĲáĥ¨
tij d
Ġáĥ£áĥ ¡
Ġà¦Ĩà¦Ĺ à§ĩ
áĢ ¯
ÙĪÙĤ Ø¹
ĠØ§ÙĦØ¨ ÙĦ
Ġc ould
ilm iÅŁ
Ġe ven
Ġè ²
ÏĥÎºÎµ Ïħ
Ð² ÐµÑĢ
ĠÐ³Ð¾Ð´ Ð°
¸ áĢ
ĠÙĨ ÙĪØ´
æĬĢ æľ¯
à¸£ à¹Įà¸
áĥĺáĥĵ áĥĶáĥľáĥ¢
Ġ *
Ġà°¨à±ĩ à°¨à±ģ
2 4
Ġwh ere
y w
Ġç µ
ÅĤ e
áº¡ m
ĠÙĩÙħ Ø±Ø§Ùĩ
ª à¸´à¸
Ġon un
èĻ İ
ç»ĵ æŀľ
ģà¸ ±à¸Ļà¸
ç½ĳ ç»ľ
Ġà¦ķ à§įà¦°
ri o
Ġ×ĺ ×ķ×ĳ
ĠA v
å± ĭ
ÙĨ Ùī
Ġ" ).
x t
Ġd Ã¼n
à¤°à¥įà¤ Ł
Ġd Ã¶vlÉĻt
áĥłáĥ £áĥļáĥĺ
Î½Î± Î½
un a
Ġve z
ĠçĶ µ
à¦¾à¦¨ à§ĭ
áĥ¬ áĥĲáĥķáĥļ
Ġáĥľ áĥĲáĥĻ
Ġà®ħ à®£
Â ª
åĢ Ł
ĠØ§ÙĦ Ø±ÙĬ
Ġà¦ħ à¦°à§įà¦¥
at el
b ÉĻt
h led
ĠìĥĿ ê°ģ
ë³ µ
ic es
Ø§ÛĮ ÙĨ
é¦ĸ é¡µ
ĠÐ° Ð½
à¸´ à¸Ļ
æĻĤ éĸĵ
ĠÙģÙĬ ÙĩØ§
ĠÏħ ÏĢÎ¬ÏģÏĩ
Ġìĺ¨ ëĿ¼ìĿ¸
Ġç¾ İ
ĠN eder
à®¾à®¤ à¯įà®¤
Ġà¦Ł à¦¾à¦ķà¦¾
Ġem pres
à¤µ à¤¾
æľī éĻĲ
f Ã¸r
Ġbet 365
ĠØª Ø£
ëĵ¤ ìĿĺ
à§ĭ à¦°à§įà¦
Ġ áĥĲ
à°² à°ķà±ģ
à¤¸ à¥įà¤¥
ŀ à¸´à¸
Ġà¹ģà¸ ķà¹Īà¸
Ð» ÑĮ
Ġt Ã¬m
áĥĲáĥļ áĥ®
Ġà¹ģà¸ Īà¸
ĠÃ Ī
Ġz elf
Ġh em
à¦¾à¦§ à§įà¦¯à¦®
áĢ Ń
ĠØ® Ø·
ite No
åı ĭ
Ġà¸ Ĺà¸µà¹Ī
Ġtr iá»ĥn
ĠP a
ĠØ§ÙĦØª Ø¬
æĴŃ æĶ¾
ĠÐ ¦
· à¹īà¸Ńà¸
v ol
Ġpagk awala
à§įà¦ §
k s
Ġpro f
ëĭ ¬
áĥĶáĥļ áĥĺáĥ¡
áĥĲáĥ¨áĥķ áĥĺáĥļáĥĺ
Ķ à¸²à¸
® áĥĶáĥĵ
Ġth i
Ġáĥŀáĥł áĥĿ
Ġà°ħ à°Ĥà°Ł
Ð¾Ñģ ÑĮ
à¥ ¦
Ġà°®à±Ĭ à°¦
Ġekst ra
ëį Ķ
Ġe dÉĻn
ç» Ń
Ġæ Ķ
Ġà°ħ à°¸
Ġs tato
Ġå¿ «
Ùĩ Ùı
Ġà¦¦ à§ģà¦ĩ
à¥ĭ à¤°
Ġà¦¬ à¦¿à¦ķ
ãĥ¼ãĤ ¿
± áĢ
Ġà¸ §à¸´à¸
×ŀ ×ľ
ĠØ¯ÙĪÙĦ Øª
Ð» Ð°Ð³
ØŃØ¯ Ø«
Ġ à¹Ħà¸¡à¹Īà¸
Ġtak Ã©
Î½Î± ÏĤ
Ġà°² à±ĩà°¦
Ġsp eci
Ø® Ø¯Ùħ
ĠÐ¼ ÐµÑģÑĤ
Ġ×ķ ×Ĵ
Ø§ÙĨ ÙĪÙĨ
ĠØ§Ùģ Ø±
ĠÙĤ Ø³Ùħ
æ²¡ æľī
ĠIt alia
ĠÙħØ®Øª ÙĦÙģ
ĠÐ´ ÐµÑĤ
Ġon s
à¥ģ à¤¸
l iyi
Ã³ j
Õ ¢
ØŃ Ùħ
Ġí Ĺ
um b
Ġà¸ §
Î¯ Î´
Ġth en
Ġç§ ģ
áĥ£áĥļ áĥ¢
ĠÎºÎ¬ Î¸Îµ
à¤ķ à¤¿
ĠØ´Ø¯ ÙĨ
Ġil k
d iyi
ĠÙĪ Ø§ÙĤ
ç®¡ çĲĨ
ëĵ ±
à¤¾à¤Ĥ à¤Ĺ
ãĤĪ ãĤĬ
Ġcol or
uh a
¹ æŀľ
Ġx ÉĻbÉĻr
Ġà°ªà°¾à°°à±įà°Ł à±Ģ
Âµ ÃĦ
Ġíķ ©
à±ĭ à°µ
Ġà¤¸à¤® à¤¯
Ġå¤§åıĳ å½©ç¥ŀ
form ation
ole Äį
ĠÏĢÎµÏģÎ¹ Î¿
ÏĦÎµ Ïģ
I N
Ġà¦ħà¦¨ à§įà¦¯
Ġst ud
à¯Ĩ à®©
Ġà¤¬à¤¹ à¥ģà¤¤
k in
Ġáĥ¡áĥĲáĥ®áĥĶáĥļáĥĽáĥ¬áĥĺáĥ¤ áĥĿ
ĠÙĬ ØªÙħ
ĠÙħØ· Ø§ÙĦ
ª à¹Īà¸§
es ta
æ ħ
in as
×Ļ×¤ ×Ķ
Ġà§ Ń
Ġj ika
Ġm ujeres
Ġè ĭ
Ġà¤¸ à¥įà¤Ł
Ġk aya
Ú© ÙĨØ¯
w iÄĻ
ĠÙĩ Ø²Ø§Ø±
lig het
Ġà°ķà°¾à°¨ à±Ģ
ãģ Ĳ
éĺ ²
Ġinc lud
al Ä±k
ĠáĥĽáĥ¡ áĥĿáĥ¤áĥļ
ÉĻ dÉĻn
Ġáĥł áĥĲáĥĽ
Ġth Æ°Æ¡ng
Ġf ind
íİ ĺ
Ġ2 6
Ġjs me
Õ º
ĠØ¯Ø§Ø± ÙĨØ¯
ĠÙħ Ø¨
Ġf Ã¥r
à°¾à° Ĺà°¾
ec to
áĥ¢ áĥł
ĠÐ¿ Ð¾Ð·
×¡ ×ĺ
áĥĺáĥľ áĥĿ
áĥĲáĥĵ áĥĲáĥ¡
ĠáĥĳáĥĲáĥķáĥ¨ áĥķ
à¹ģà¸ ¥à¸°
Ġsull a
ãģıãģł ãģķãģĦ
Ġr Ã³w
ĠÙĨ Ø±Ùħ
Ġse Ã§
ì» ¤
ÏĦÏĮ ÏĤ
áĥĲáĥĽ áĥĲáĥłáĥĹáĥļ
s ung
Ġ ãģ¯
áĥ£áĥļ áĥĺáĥ¡
ÙĨ Ø§Ø¡
ak it
Ġd Æ°á»
Ħ à¹īà¸²
Ġan ak
ä¹ ł
Ġsh ould
Ġsemp re
Ġn ila
ÙĪØ± ÙĬØ©
Ġmak en
à§ģà¦· à§įà¦ł
Ġà°µà°¿à° ľ
ë³´ ìŀ¥
à§ĩà§Ł à§ĩ
Ġáĥ£áĥ łáĥ
é ¨
Ġæľ ¬
lÉĻr ÉĻ
ÐµÐ» Ð¾Ð²
Ġà®ļ à¯Ĥ
Ġse e
à¯Īà® ª
Ġs Ã¼r
Ġà®ķ à®¿à®°
ca use
Ġt arih
Ġdo ÄŁ
Ġë¨ ¸
à¦° à¦¿
åĵ ¡
ĠD om
ĠÎ£ Îµ
Ġmeng gunakan
è¨ Ń
h old
è§Ħ å¾ĭ
ĠS i
Ġ×ª ×©
íĮ ħ
Î¼Î± ÏĦÎ¿
nik a
op en
Ġà¦¬à¦¿à¦Ń à¦¿à¦¨à§įà¦¨
ĠmÉĻlum at
à°² à°¨à±ģ
Ø§ÙĦ Øª
ĠS car
ìĤ° ì¶ľìŀ¥
¢ º
å¹ ¶
ÉĻf ÉĻr
omb re
Ġà°Ĩ à°®à±Ĩ
Ġf ar
Ġà¹Ģà¸ĩà¸´à¸Ļà¸ Łà¸£à¸µ
yst em
Ħ à¸²à¸£
Ġt ous
Õµ Õ¡Õ¶
f en
Ġtut to
Ð± Ð¾ÑĢ
à®¾à®µ à®¤à¯ģ
Ġh azÄ±r
à¸Ńà¸ Ķà¸
eb ilir
Ġd urum
ãģ¨ ãģ¯
ĠæĿ ¥
Ġë¨ ¹
li w
m t
à¦ĵ à§Ł
à°§ à±įà°¯
Ä° N
ĠØ§Ø·ÙĦØ§Ø¹ Ø§Øª
r ov
p ub
a caq
vel op
Ġpe ti
ì²ľ ì¶ľìŀ¥
ä¿¡ æģ¯
ĠÐ¼ Ñĭ
ĠG es
à¥ ħ
Ø§Ø² Ùĩ
áĥĲáĥ¬ áĥ§áĥķ
skie go
Ġen n
Ġ <
Ø´ ÛĮ
ĠÃ ĺ
nÃ© e
ĠØ¢Ùħ Ø±ÛĮÚ©
Ġà¤²à¥ĭà¤Ĺ à¥ĭà¤Ĥ
ÙĪÙħ ÛĮ
Ġd ÃŃ
Ġs Ã¶y
as z
ä½ İ
ĠáĥĿ áĥĹ
Ġà¤¤à¤° à¤¹
ç§ °
Ġ ur
ä¹ ī
å¿ ħ
Ġà°¶ à±įà°°à±Ģ
áĥłáĥ Ľ
Ġa Å¾
à¯Īà®ļ à¯įà®ļ
ç¥ ¨
ãģł ãģ£ãģŁ
ãĥĥ ãĤ·
éĤ £
à®¿à®ªà¯įà®ª à¯ģ
Ġà¦¨ à¦¤
åĪ ĩ
à¨ ¨
Ġy Ã¼z
Ġt et
ĠdÃ© p
Ġsam p
00 0
ĠÙģÙĬ Ùĩ
Ð¾Ð± ÑĢ
Ġà°ª à°¡
o cuk
ĠÙĩÙħÚĨ ÙĨÛĮÙĨ
h ir
Ġd ay
Ġà¦° à¦¹
áĥĺ áĥĶáĥļ
ĠNor ge
Ġk ont
ic os
m ÉĻn
ĠÚĨÙĩ Ø§Ø±
Ä±l an
Ġk ali
lÉĻrin i
Ġb ao
æİĴ åĪĹ
à¹ĥà¸Ĭ à¹ī
ĠØ¨ Ø£ÙĨ
Ġhas ta
ĠØ¯ Ú©
Ġpers onn
Ġáĥ¡áĥĲáĥĻ áĥĺáĥĹáĥ®
ÎĻÎ Ŀ
Ġà¦¨ à§ĩà¦ĩ
Ġ×Ĳ ×¤×©×¨
« à¹ĩ
Ġwie der
Ġå¤© å¤©
Ġ×Ļ ×ĵ×Ļ
Ä± b
åı į
Ġm ali
Ġ×ł ×ª
Îµ ÏĦÎµ
Î¼ÏĨ ÏīÎ½
Ġt ÉĻd
ÏģÎ± ÏĤ
Ħ à¸Ļ
Ġáĥŀáĥł áĥĿáĥĴ
Ġmas sas
Ġà®¨ à®²à¯įà®²
ĠáĥĽáĥ¡áĥĿáĥ¤áĥļ áĥĺáĥĿ
Ġp un
æīĭæľºå®¢æĪ·ç«¯ ä¸ĭè½½
Ġë £
ĠØ®ÙĪ Ø§Ùĩ
à§İ à¦¸
Ġë ĳĲ
Ġparasi to
m as
à¹Ģ à¸Ļà¸
Ġæ İ
Ġà®¨ à¯ĭ
Ð¼ Ð¾Ð¶
ĠØª ÛĮÙħ
nÃ© ho
ĠÃ¶n em
×Ļ×¨ ×ª
ç¶ ļ
ë³ Ħ
ĠÚ¯Ø± ÙģØª
Ø§Ø± Ø³
Ġà°ªà±ĭ à°²
Ġà¦Ĩ à¦ķ
Ø§ÙĦ Ø§Øª
Ġà°ķ à±įà°°
ĠRes pub
ah kan
ÙĤÙĬ ÙĤ
Ġà¤ ĵ
¥à¸ ·à¸Ńà¸
Ġl oro
Ġre g
Ġà¦° à§Ł
à±Ĩ à°¡
Ġà¦ķà¦° à§ĩà¦Ľà§ĩ
æī į
ĠK ar
Ġà®ªà¯Ĭ à®°
Ġs ila
ÑĥÑİ Ñī
ĠÙħØ´ Ú©ÙĦ
Ġn ad
ĠÙĦ ÙĪ
Ġle g
Ø§ÙĦ Ùĩ
Ġà°ħà°¯ à°¿à°¤à±ĩ
à®£ à®®à¯į
Î½ Î®
Ġp ubb
ĠØ¨ Ø·
à¹Ģ à¸£à¸²à¸
à°°à±įà° ¸
l k
ÙĬÙĨ Ø§
Ġê² Ģ
Ġs et
âĢĮ à°°
ul ong
Ġì¢ ħ
is ti
Ġpr Ã³
ak tu
Ġpar t
Ġà¤¦ à¤¿à¤²
áĥĿáĥª áĥĲ
à¤µ à¤°
Ġì§ ģ
Ġlo c
ĠìĻ ¸
ģ à¸£à¸£à¸
Ġáĥ¡áĥĲáĥĵ áĥĲáĥª
b ÉĻr
ĠÙħÙĪ Ø¶ÙĪØ¹
ĠV oor
à°Ĥà° ľ
Ġáĥķ áĥĲáĥł
Ġj i
ĠÎ¿ÏĢÎ¿ Î¯Î±
Ġà°ª à±Ī
Ø² ÙĬØ¯
Ġkeh idupan
ĠØ¨ÙĪØ¯ Ùĩ
à´¿à´ ²
Ġb aru
Ġtr á»įng
Ġr á»ĵi
d Ã¼r
owan e
«à¸ ±à¸
Ġà°² à°ķà±įà°·
Ġë² Ī
Ġà¦ĩà¦¸à¦² à¦¾à¦®
Ġs to
Ñı Ñī
Ġà¦¬à¦¿à¦ ľ
Ġå° ı
u it
Ġngh Ä©
à¦¾à¦¨ à¦¿
Î¼Î¿ ÏĤ
Ġl áº§n
ĠØ´ ÙĬ
Î½Î¿ Ïį
à¤ļà¥įà¤ Ľ
Ġì¶Ķ ì²ľ
m u
Îĳ ÎĻ
ëĦ ¤
Ġwur de
ro d
" #
å¤ į
ĠÐº Ð¾ÑĢ
Ġìĺ ¬
Ġho e
Ġb are
×Ĺ ×ł×ķ
Ġsch on
§ áĥĶáĥľ
ĠÏĥÏĦ Î¿ÏħÏĤ
«à¸ ¥à¸²à¸
Ġà¤¬ à¤¤
ĠÐ´ Ð¾Ð¼
ãģĦ ãģ¾ãģĹãģŁ
áĥĲáĥĵáĥĴ áĥĲáĥľ
ĠÐ¼ ÐµÐ½
ļà¸ ±à¸
áº³ ng
à±Ģ à°ľ
Ġíĸ ī
ĠU m
Ġb iá»ĩt
is me
ĠØ§ÙĦØ£ Ø®
Ø§Ø±Ùĥ Ø©
ĠÙħ ÙĦ
åº ľ
à°¿à°Ĥà°ļ à°¿à°Ĥà°¦à°¿
Ð¸ ÑģÐº
Ġm ang
Ġå º
à¸Ńà¸¢à¹Īà¸²à¸ ĩ
áĥĶáĥ £áĥ
à±ĭ à°°
ĠáĥĲáĥ ĳ
es inde
à°ªà±įà°ª à°Ł
Ġà¦Ĩà¦ª à¦¨à¦¾à¦°
Ġsu ch
å®ī åįĵ
×ĺ ×Ļ×Ŀ
Ġ/ /
à¶ »
Ġå ±
Ġå° ±
à°¾à°¨ à±ĩ
Îº Î¿Î»
Ġà® Ī
Ġb esar
Ú© Øª
l at
Ñģ ÑĮ
¡ à¸Ļà¸
Ġs Ã¶z
ãĥĥ ãĥģ
Ġg in
ÏĨ Î·
Ġ×Ľ ×©
Ø§Ø® ÙĦ
cz nych
Ġà¦¨à¦¤ à§ģà¦¨
Ġáĥł áĥĲáĥĵáĥĴáĥĲáĥľ
Ð³ Ð¸
ÏĮ ÏĦÎ·ÏĦÎ±
Ó Ļ
Ġà®ĩà®²à¯įà®² à¯Ī
p an
Î¸ Î¿ÏįÎ½
ë ·°
Ġìĸ ´
Ġb ak
à¤Ĥà¤¤ à¥įà¤°à¥Ģ
à¤¾à¤¤ à¥įà¤°
Ġn ow
æĭ ī
à¹ Ĭà¸
à±Ĥà°° à±įà°¤
Ġáĥ¡áĥĲáĥ Ń
áł łáł
Ġolar aq
Ġà§ ·
ĠÑĤ ÐµÐ¼
Ġáĥĺ áĥĹ
å®¢æĪ·ç«¯ ä¸ĭè½½
Ġad d
Ø² Ø¯
Ð¸Ð· Ð½
Ġmo Å¾
Ġ×Ĳ ×Ļ×ł
ÑĤ Ð¸
à¤ķ à¥įà¤Ł
ĠÙĪ ÙĤØ¯
åĵ į
à®³ à¯įà®µ
à¤° à¤£
§à¸¥ à¸²
à±ģà°¤ à±ģà°Ĥà°¦à°¿
Ġà¤¹ à¥ĩ
ĠÄĳ áº¥t
Ġê± ´
×Ľ ×ł
á»ĵ n
Ġt re
à±įà°Ł à±į
Ġë ł
i f
it eit
à´ ®
Ġáĥł áĥĲáĥ¡
æĬ ¤
m al
ãģĳ ãĤĭ
Î¯ ÏīÎ½
Ġà¤® à¥Į
ìµľ ê³ł
ĠØ´ Ø±ÙĥØ©
Ġn Ã¦r
Ġfaz er
Ġ ie
ĠÙĬ Ø³Øª
ĠÎ¼ÏĮ Î½Î¿
k em
Ġ365 æ£ĭçīĮ
é Ł³
Ġà¤¹à¥ĭ à¤¤à¤¾
Ġà¦Ńà¦¾à¦° à¦¤
ä¸Ń å¿ĥ
Ñĥ Ð·
ģà¸ ³à¸
ë³´ ê¸°
Ġar aw
ya br
aar d
w an
è¿ ŀ
Ġcon o
ĠÙĩÙĨØ§ Ùĥ
Ġei gen
Ġv om
Ġdal Å¡ÃŃ
åĽ Ń
Ġpo k
å Ĥ
Ġå ī
Ġh Ã³a
Ġà¤ķ à¤¾à¤®
ª à¹Į
Ĥà¸¶ à¹īà¸Ļ
Ġà¦ªà¦° à¦¿à¦ļ
à¯įà®¤ à®¾à®©à¯į
ĠÚ© Ø§Ùħ
ãģĵ ãĤį
Ø³ Ø§ÙĨ
h ne
Ġà¦ī à¦¦
à¸£ à¹Į
áĥĿáĥķ áĥĲáĥľáĥĺ
Ġà®®à¯ģà®Ł à®¿à®¯
åĪ Ļ
Ġb Ã½
ãĤ¤ ãĥ«
T A
c ch
ti kk
Ġb agi
Ġk um
çĽ´ æĴŃ
Ð¸ Ð¶
é¡ Į
Õ¥ÖĢÕ ¨
Ú¯ ÙĪ
ãĤĴ è¦ĭ
à®Ł à®¿à®¯
Ġs ia
ĠãĢı ãĢİ
Ġ×Ķ ×¨×Ĳ×©
ĠÑĥ ÑģÑĤ
åĨ į
Ġl agi
Ø± Ø§ÙĤ
´ë ı
Ġãĥ ĩ
Ġkun t
it Ã©s
è² ©
b st
Ġ×Ķ×ŀ× Ĺ
Ġ Ø§Ùĩ
Ġw il
ÉĻx s
ĠáĥĿáĥłáĥĴáĥĲáĥľ áĥĺáĥĸ
à¸Ļà¸± à¹īà¸Ļ
ĠÐ» ÐµÑĤ
ĠV ideos
ãģ« ãģĬ
åħ Ń
Ġ×ĳ ×Ļ×ķ×ª×¨
ig en
ÙĪ Ø·
Ġn u
Ġà®¤ à®µ
ĠØ§ÙĦØª ÙĨ
ĠÙĦ ÙĨ
×ĵ ×ª
der e
ĠB ei
×ŀ× ĳ
ĠÎ±ÏĢÎ¿ ÏĦÎµ
ĠS an
ĠìķĦ ëĭĪ
à§ĭ à¦ļ
à°¨ à°Ĥ
ĠH indi
«à¸£à¸ ·à¸Ńà¸
Ø§Ùģ Ø¸
Ġáĥ¡áĥĲáĥ£áĥ Ļ
Ġb um
Ġ ul
æ ļ
áĥĲáĥ¡ áĥĺ
Ġpar as
ar ta
Ãº b
à¤¾à¤ Ł
Ġì Ĥ°
Ġáĥ¥áĥĲáĥłáĥĹ áĥ£áĥļáĥĺ
ç¯ ĩ
Ġq ur
à¤µ à¥Ģ
è ķ
à¯ģà®Ł à¯Īà®¯
ĠÆıl iyev
ĠÙħ Ø±Ú©
ĠÚ© Ø§ÙĦ
à¦¦ à¦¿
Ġáĥķ áĥĺáĥĵ
ç´ Ħ
Ġm ijn
à¤ Ĩ
Ġt am
ch Ã©
ãģĳ ãģ¦
ãģ İ
ĠT L
Ã¸ d
Ġáĥŀáĥł áĥĶáĥĸ
ĠÚ¯ ÛĮ
ĠÐ¼ Ð°ÑĤ
ª à¸£
ãĥ³ ãĤ¹
à°ķà±įà°ķ à±ģà°µ
Ġà¤¹à¥ģà¤ Ĩ
ĠÛ ³
Ġf il
Ú¯ Ø±ÛĮ
áĥĲáĥ¥ áĥķáĥ¡
Ġà°ĩ à°Ĥà°Ł
í ļ
è¶ Ĭ
ãģ§ ãģĹãģŁ
Å¯ m
g os
Ùģ Ø§Ø¹
Ġç ´
Ð¸Ð» Ð°
Ïĥ ÏĦÎ®
Ø¬ Ø§Ø¯
ĠØ± Ø¯
ä» ķ
×¨ ×§
ì¶ľìŀ¥ë§ĪìĤ¬ì§Ģ ìĥµ
Ġ Õ¡Õ¶
à¯Ĭ à®´
à§ģ à¦¤
Ġs enza
éħ į
ÎµÎ¯ ÏĤ
ÉĻ al
Ġt uy
Ġb Ã¶yÃ¼k
à°¡à±įà°¡ à°¿
ÏĨ Îµ
Ġà¤ĩà¤¸ à¤ķà¥ĩ
s un
ĠØ³ ÛĮØ³Øª
ĠáĥĽáĥĺ áĥĺáĥ¦
v ed
Ġë° ķ
iáº¿ u
Ð¸ÑĤÑĮ ÑģÑı
çµ Ĳ
à¦¹ à¦¾à¦°
Ġà¤Ĺ à¤ı
Ø§Ø¶ ÙĬ
Ø§Ø¦ Ø±
ìĨĮ ìĿ´ìĬ¤
Ġcu al
Ġb Ã¡o
à¦°à§įà¦ ¶
Ġ×© ×Ŀ
ĠÎ» Î±
it es
ĠáĥŀáĥłáĥĿ áĥĶáĥ¥áĥ¢
Ġà¤ľ à¥Ī
Ġt ÃŃch
ãĥķãĤ ¡
Ġáĥŀáĥĺáĥłáĥķ áĥĶáĥļ
à±ĭ à°¨
Ġà®ªà¯Ĩ à®£
Ġb Ã¼tÃ¼n
ĠØ³ Ù¾
ĠktÃ³ r
Ġà°ĩ à°¦à°¿
Ġth Ãªm
ŀ à¸´
Ġn Ã¡s
ut styr
Ġ 66
ĠÎ± Ïģ
Ġ×Ĳ ×ļ
ĠÐ¾Ð± ÑĬ
Ġk az
Ġà¨ ¹
à®µ à¯įà®µ
l eich
ãĥ¼ãĤ ·
el um
ĠØ¨Ø§Ø² Ø¯ÛĮØ¯
ÑĥÑī ÐµÑģÑĤÐ²
ĠÙħÙĪÙĤ Ø¹
ĠÐ¾ÑĢ Ð³Ð°Ð½
Ġà¦¹ à¦¤à§ĩ
Ġgia o
Ġmel akukan
Ġé »
à¯Īà®¯ à®¾à®©
ÐµÐ¹ ÑģÑĤÐ²
ĠÐµ ÑģÐ»Ð¸
ç¡ ®
×Ļ×ł ×ª
Ġf ark
Ħà¸£à¸Ķà¸´à¸ ķà¸
íķĺ ì§Ģ
ĠÃ į
éĤ Ģ
áĥĶáĥłáĥ ¢
ãģĹ ãģı
Ġà¦® à¦¾à¦¸
Ïģ ÏİÎ½
Īà¸ °à¹Ģà¸
ç»ı æµİ
Ùģ ÛĮ
ĠNeder land
Ġà°Ńà°¾à°° à°¤
Ġre p
Ġãĥ ı
z enÃŃ
Ġp al
áĥĶáĥľ áĥĵ
Ġà®ĩ à®©
Ġà¦¬ à¦¾à¦°
Ġhad de
Ġãĥ Ľ
Ø§Ø³ ÙĬ
łà¸ ±à¸
×Ľ ×Ł
ãģ¨ ãģª
Ġæ Ģ
ÏĦ ÏĥÎ¹
ÑĨÐ¸ Ð°Ð»ÑĮ
Ġk 8
à¹Ģà¸ Ĺ
ĠÐ²ÑĢÐµÐ¼ Ñı
Õ¡Õ Ń
ëŁ ī
×ķ×¨ ×ļ
à¦°à§įà¦ ľ
æī ĳåħĭ
Ġà°ªà±įà°° à°¯
ĠÐ¸ÑģÐ¿ Ð¾Ð»ÑĮÐ·
ĠÙħØ¯ ÛĮØ±
Ġà®ĩà®°à¯ģà®ķà¯įà®ķ à¯ģà®®à¯į
Ġre qu
ĠÄĳ Æ¡n
Ġne ces
×Ļ×ľ ×ķ×ª
à¥Ĥ à¤¸
4 0
Ġt iÃªu
Äį et
Äį ky
éĢ £
ĠÙĨ ÙĪ
ĠS Ã£o
à¦¾à¦ ·à§įà¦Ł
Ġà¤ ł
ë¯¸ ëħĢ
ä¸ ¾
ê°ķ ì¶Ķ
à§ĩà¦ ¹
un k
ĠìĨ į
Ġtr ung
ĠØ§ÙĦØ¨ Ø±
Ä ı
Ġpl ay
ë ĳ
Ġ×ł ×©
æĪĳ ä»¬
Ġìĥģ íĴĪ
é į
ĠØ§ÙĦØŃ Ùĥ
Ĭ à¸µà¸
Ġë³ Ģ
Ġsa ma
at s
Ġm il
y t
ĠÎ¶ Ïī
ĠvÅ¡e ch
Ġáĥ¡áĥĲáĥ ŀ
Õ¸ Õ¶
ĠáĥĽ áĥĺáĥ£áĥ
Ġà¦ª à§ģà¦°
ĠáĥĽáĥĲáĥĹ áĥĺ
Ġ365ä½ĵèĤ² æĬķæ³¨
Ø§Ø¬ Ùĩ
Ã¤ ch
Ġth á»ĳng
Ġå¥ ½
ÄĻ d
Ġj in
Ġáĥĺáĥ§ áĥĿáĥ¡
Ġæ¬ §ç¾İ
ĠI D
ĠáĥĴ áĥĺáĥĿ
ĠáĥĲáĥ¦ áĥľáĥĺáĥ¨áĥľ
Ġ Õ¡Õµ
×Ļ×ľ ×Ļ×Ŀ
ĠÑĤÐ°Ðº Ð¶Ðµ
ĠT e
Ã¨ res
áĥĵ áĥĺáĥļ
ç± ³
à±Ī à°¤
Ġ×ĸ ×Ĳ×ª
Ġpu Ã²
Ð½ ÐµÐ¹
E L
Ġse us
áĥ£áĥłáĥ ķ
am ing
ëĵ¤ ìĿĢ
íĻ ĺ
Ġc es
Ġin t
Ġè §
ÐµÑĢ Ð¸
æĥħ åł±
Ġtá» ī
ĠáĥĽ áĥ¬
Ġà®¤à¯Ĩà®° à®¿à®µ
Ġib a
Ø· Ùģ
Ġu 0
ĠÐ¾Ð± ÑĢÐ°Ð·
Ġà¤¸ à¥ĭ
ĠØ§ÙĦ Ø§Øª
p tion
Ĭà¸ ¸à¸
àµįà´ Ł
à¶ Ń
à¤¸ à¥įà¤Ł
Ú¯ Ø±Ø§ÙĨ
ĠØ¨Ø´ ÙĥÙĦ
Ġ×Ĳ ×©×¨
ĠÐļ ÑĢ
à¤¾à¤ļ à¥įà¤¯à¤¾
Ġbus iness
Ġà¸ ¢
à¹Ģà¸ Ĭ
ÏĢ Î®
ÉĻl ÉĻb
Ġje j
ĠØº ÛĮØ±
Ð¸Ñģ ÑĮ
à±įà° ľ
Ġnh au
¡à¸²à¸ ģ
Ġà¦¸ à§įà¦Ł
ç³» ç»Ł
on ie
Ã³ s
Ġh ome
×ķ×ĵ ×Ķ
×ĸ ×ķ×¨
Ġà¤¦à¥įà¤µ à¤¾à¤°à¤¾
ĠØªØŃ Øª
Ġ×ł ×¢
v nÃŃ
at apos
ĠéĢģ æĸĻçĦ¡æĸĻ
çħ §
Ġ×©×ľ ×Ķ
Ð» ÐµÐ´
d 88
áĥĲáĥł áĥĶáĥĳáĥĲ
Ġbal at
à¤Ĥ à¤ľ
à¹Ĥà¸£à¸ĩ à¹ģà¸£à¸
à°¾à°° à±į
ä¸ĸ çķĮ
Ġ ÅĻÃŃ
ĠØ§ÙĨ Ú¯
ãĥ³ ãĤ¯
å®ĺç½ĳ ä¸ĭè½½
ãģĳ ãģ©
ning er
ĠÙĤØ³Ùħ Øª
las t
Ġb ilm
Ð¾Ð½ ÑĤ
à§ĭ à¦·
Ġun o
æľ¬ éģĵ
j o
Ġ5 5
áĥķáĥĶáĥļ áĥĺ
ĠáĥĴ áĥĲáĥĴ
Ġl á»±c
à®¾à® ¨
Ġgiá» Ŀ
Ġà®ī à®¤
à¦¿à¦Ł à¦¿
áº¯ m
ë¦ °
Ġà¦Ĩ à¦¶
Ġtr á»Ł
A G
cj ÄĻ
ĠT elugu
Ġkom mun
b ie
à°¨à±įà°¨ à°¿
ÙĬ Ø·
ĠÎ ĸ
ê²Į ìŀĦ
à®¤ à¯ģà®®à¯į
ãģ® ãģĮ
ë¸ Į
ĠÃ İ
à¹Ĥà¸ ¥à¸
Ġdey il
Ġà¤ī à¤¤
à§ĩà¦® à§įà¦¬à¦°
Ġt iem
Ġà¤īà¤¨à¥įà¤¹ à¥ĭà¤Ĥà¤¨à¥ĩ
ĠW as
áĥĿáĥª áĥĺ
lad Ä±
Ħ à¹Īà¸
Ġtiáº¿ ng
Ùİ ÙĬ
à¦¦ à¦¿à¦¨
à±Ĭ à°ķà±įà°ķ
ate ur
ĠØ§ÙĦÙħ Ùħ
Î· Î³
áĥĲáĥļ áĥĵ
ĠØ§ÙĦØ¬ Ø¯ÙĬØ¯
ĠN ach
c ol
å¤§ åħ¨
×Ļ×Ľ ×Ķ
g et
áĥ£áĥłáĥľ áĥĲáĥļ
ĠÎ± Î¾
ÏĨ ÎŃ
ĠÐ¿ÐµÑĢ Ð²
à§įà¦ Ń
Ġà¤¨ à¤¾à¤®
Ġpo p
Ġsh e
p en
Ġch á»ĭ
à¯ģà® ¨
Ġà®Ĩ à®¯
ĠÑĩ ÐµÑĢ
Ùĳ Ø©
Ã¬ n
Ġà®¨ à®¿à®©
èª ¿
«à¸Ļ à¹īà¸²
Ġà¤Ĩ à¤°
Ø¯ ÙĨ
Ġtr ad
Ġc aÅĤ
ĠØªÙħ Ø§Ùħ
ĠD it
Ġz osta
ĠÏĢÏģÎ¿ ÏĤ
ĠÐ³ Ð¾ÑĢÐ¾Ð´
ĠÑĥ ÑģÐ»
Ġmu ch
ãģĭ ãĤĬ
Ġáĥĵ áĥĲáĥ®
Ġkan ilang
ë° ķ
×Ľ ×ª
Î» ÏĮ
å® ģ
ei o
à¦¿à¦¬ à¦¾à¦°
Ġtent ang
å¤§åıĳ å¿«ä¸ī
Ä Ĳ
áĥķ áĥĹ
Ġà®ª à¯Ĥ
ujÃŃ cÃŃ
Â ¹
×¦ ×ľ
Ġt ÉĻk
Ö µ
Ĺà¸µà¹Īà¸ ªà¸¸à¸Ķ
à±ģà° £
Ġà¨ ¨
ÐµÑĤ Ð°
àª¾ àª
ÉĻ zi
Ġà¤¤ à¥ĩ
Ġim mer
Ġà¦ķà¦° à§ĩà¦Ľà§ĩà¦¨
Ã¼n Ã¼
ĠØ§ÙĦØª ØŃ
çĻ ¾
Ġqu ando
ìĨ ¡
t utas
ur ing
Ïį ÏĢ
Ġà¤¹ à¤°
b ij
ÎĳÎ Ľ
ĠØ± Ø¦
à¯Īà®¯ à¯ĩ
Ġ à¹Ħà¸Ķà¹ī
Ïģ ÎµÎ¹
áĥĶáĥĳáĥĶáĥļ áĥĺáĥĲ
ëŁ ¼
ÎĳÎ ļ
Ġà¤® à¤¨
Ġv Å¡
áº§ y
Ġv iel
Ð¼ ÐµÐ½
ĠØ§ÙĦ Ø§
f ici
Ġà¦ļ à¦¾à¦²
Ġæī ĭ
å ©
ĠáĥĽ áĥ£áĥ¨
ĠÎµÎ½ Ïİ
Ġà®İà®´ à¯ģà®¤
Ġ×ŀ×Ĳ ×ķ×ĵ
Ġê²ĥ ìĿ´
ç§ Ĵ
Ġáĥĸ áĥĿáĥĴ
Ġà®ħà®± à®¿à®µ
Ġáĥ¥áĥĲáĥļ áĥĲáĥ¥
à¹īà¸²à¸ ĩ
Ġtr ÃŃ
Î¹ Ïİ
áĥĿáĥ ļáĥĺ
áĥĶáĥĵ áĥĺ
n ic
Ġac qu
ĠáĥĲáĥ ¤
Ġho áº¡t
Øª Ùĥ
Ġíķľ ëĭ¤
Ġíķĺ ëĬĶ
Ġáĥĵ áĥĲáĥª
Ġ×Ķ×ĸ ×Ķ
ĠÎķ ÏĢÎ¹
Ġ ä¸ĭ
Ġáĥ¡ áĥĲáĥľ
Ġ ÉĻv
áĥĲáĥķ áĥĹ
ĠÙħÙĨ Ø°
ãĥ¼ãĥ Ħ
à®ķà¯įà®ķ à®®à¯į
à¹Ģà¸ ¡à¸
ĠNEWPart 9
å® Ŀ
Ġm ai
×ķ ×ķ×Ķ
Î» Î¹Ïĥ
Ø±Ùģ Ø©
am er
ãģ ¶
Ġáĥĺáĥ¡ áĥĶ
Ġå® ī
Ġëĭ ¬
×¦ ×ķ×¢
Ġk asi
à§ĩà¦ Ĺ
ë¦ ¼
Ġag åľ¨çº¿
Ġà¤¸à¤ķ à¤¤à¤¾
è¾ ĵ
ãĥ¬ ãĤ¹
gi or
ĠÙħÙĨ Ø§Ø³
Þ °
o is
ĠÐ· Ð°Ð²
ãģ® ãģĬ
ĠáĥĿ áĥłáĥĺ
ĠØ§ÙĦ Ø§Ùħ
æķ° æį®
ie f
ªà¸´ à¸Ļà¸
çĻ» éĻĨ
Ġz ab
éĩ İ
×Ľ ×Ķ
Ġdi re
il ity
ÄŁr en
Ð ĳ
à±Ģ à°Ł
ar ang
äºº æ°ĳ
×ķ×¨ ×¡
áĥ¯ áĥĲáĥ®
ĠØ£ Øµ
Ġà°ª à°¾à°²
Ø±ÙĬ Ø¨
Ġje ho
à®¤à¯įà®¤ à®¿à®¯
ĠØ¥ ÙĦØ§
Ġáĥł áĥĿáĥªáĥĲ
åħĥ æ£ĭçīĮ
å ³
åģ ĩ
Ġbel ÉĻ
Õ¡Õ ¼
od e
Ġæ ·
Ġv Äĥn
Ġt Ã¼m
ĠáĥĲáĥłáĥ¡ áĥĶáĥĳ
ĠÐ¼ Ð¸Ð½
Ġ×© ×Ļ×©
ie k
à°¸ à±įâĢĮ
Ġch a
y pe
Ġáĥ¨áĥĶáĥĽáĥĹáĥ®áĥķáĥĶáĥķ áĥĲáĥ¨áĥĺ
áĥĶáĥĹ áĥ¨áĥĺ
Ġv áº¥n
à¦¾à¦ĩ à¦¨
Ġun ser
eng k
Ġc Ã¡
Ġé «ĺ
Ġáĥł áĥĿáĥĵáĥĶáĥ¡
ĠáĥłáĥĿáĥĽáĥļáĥĶáĥĳ áĥĺáĥª
à°¾à° ¸à±įà°¤
Ġl ag
Ġqu á»ĳc
Ġì° ½
ÙĬÙģ Ø©
ĠÑģ Ð°Ð¹ÑĤ
áĥ¡áĥĲáĥ® áĥ£áĥł
ÅĦ st
áĥ¡ áĥĺ
à°¾à°¬ à±ģ
ĠíĶĦ ë¡ľ
Ġëį °
Ġm asih
Ġse x
ĠB el
Ġby l
2 5
ä» ½
áĥĶáĥł áĥĺáĥĿ
èĪ ª
ĠÂ» ,
ĠÎĿ Î¿
y y
Ġcu á»Ļc
ÃŃ t
çĬ ¶
ĠØ± ÙģØª
é£ŀ èīĩ
on al
åĽ ´
Ġà®ī à®²à®ķ
áĥĺáĥ ©
ĠØ´ ÙĪØ±
à§ĭ à¦ª
ĠÐµ ÑģÑĤÑĮ
Ġb esch
à¦¦à§įà¦ ¦
ĠÎĶ ÎµÎ½
áĥĶáĥłáĥ Ĵ
ĠDet te
Ġm Ã¶v
ih at
Ġà¤ķà¤° à¤¨à¤¾
Ġà¦ ł
cz ny
áĥł áĥĶáĥ¡
ãĥĶ ãĥ¼
¢ à¹Į
Ġ×Ķ×Ĳ ×Ŀ
ÙĩâĢĮ ÛĮ
Î³ Ïĩ
à¥ĩ à¤¨
Ġre ad
ÅĻ ej
ÄŁi tim
Ġf ÉĻal
Ø§Ø¨ Ø·
ĠÐŁ Ð¾
ĠB ar
us to
å®ī åħ¨
ĠëķĮ ë¬¸
à¦¿à¦ §
áĥĶáĥľ áĥĺáĥ¡
ÙĬÙħ Ø©
Ġì ´Ī
Ġ×Ļ ×Ĺ
æĿ ¿
Ã¡ ÅĻ
Ġà®ĩ à®ªà¯įà®ª
ç© ¶
ĠAn d
Ġáĥ¬ áĥĶáĥķ
Ġà¦ħ à¦§
à°¿à°¨ à°¾
id as
ĠÙħÛĮâĢĮ ØªÙĪØ§ÙĨ
è£ ½
çĶ º
Ġw z
Ġãĥĸ ãĥ©
å¸Ĥ åľº
Ġdon de
à±Ģ à°¤
a ti
apat kan
ĠáĥłáĥĿáĥĵáĥĶáĥ¡ áĥĲáĥª
Ã¶ glich
Ġà´ µ
Ġ×ŀ× ŀ
Îķ ÎĿ
Ġíķĺ ëĤĺ
à¹Īà¸²à¸ ¢
Äį e
ro ng
Ġsz cz
ĠØ§ÛĮ Ø¬Ø§Ø¯
ĠÏĮ Î»
Õ¡Õ º
it el
Ġà¦Ĩ à¦¨
k ar
Äħ Å¼
Ġà°Ĺà±įà°° à°¾à°®
ot to
Ġà®ªà¯ĭ à®Łà¯įà®Ł
ãģ§ ãģĤãĤĭ
Ġà¸ Ī
Ð ĵ
Ø±ÙĪ Ø¹
ĠáĥĽ áĥĺáĥľáĥĺáĥ¡áĥ¢
i or
ç Ł
ĠÑĤ ÐµÑħ
Ñĥ ÐµÑĤ
ag al
Ġà§ ®
ĠZ eit
æĬ Ĭ
Î»Î· ÏĤ
ĠØ± ÙĨÚ¯
Ġà¦¨à¦¿ à¦°à§įà¦
Ġl ong
ĠÐºÐ¾ÑĤÐ¾ÑĢ ÑĭÐµ
ĠÑı Ð²
Ġr ayon
Ġd ost
Ġê°Ģ ê²©
Ġph Æ°Æ¡ng
Ġáĥ¯ áĥĶáĥł
Ġê¸ Ī
èĭ ¹æŀľ
ĠÏĩ ÏģÎ·
li ca
Ð°Ð½ Ð¸Ð¸
ĠåĽ ł
Ġh ver
Ġne p
Ġç ¼
Ġï¿½ï¿½ï¿½ï¿½ ï¿½
ĠÃ ĭ
Ġà°ī à°ª
ÑĥÑĩ ÑĪ
à®£à¯įà®Ł à¯ģà®®à¯į
Ġhe Ã§
Ġ×Ļ ×¢
Ġn eden
Ġáĥ¬áĥĲáĥłáĥĽ áĥĿ
il de
Ġä¸ ĩ
Î´ Ïħ
Ġà¦ľ à§Ģà¦¬
Ġb Ãªn
ĠáĥĲáĥ ¨
à°¾à°Ĥà° ¡
Ġbil g
Ġde ci
Ġáĥ¤ áĥĺáĥļ
å¤ĩ çĶ¨
Õ ¹
ĠdeÄŁ iÅŁ
ĠÐ½ Ð°Ð´
ĠØª Ø¹Ø¯
Ø§ÛĮ Ùĩ
ĠáĥĴáĥĲáĥľ áĥĲáĥªáĥ®áĥĲáĥĵ
Ø³Ø· ÙĬÙĨ
à©± à¨
ning s
Ġà¤¸à¤¬ à¤¸à¥ĩ
èķ ī
Ġs iy
Ã ħ
Ġà®ª à¯ĩà®°
ĠÙĬ Ø¯
or g
ĠÙħÛĮ Ø²
Ġg ang
o ol
ĠØª Ø±Ú©
ĠÎ¾ Îµ
Ġï¼ļ âĢľ
ĠØ¯ ÙĪÙħ
ï »¿
×ķ×¤ ×Ķ
ĠÎķ Îº
à±Ĩ à°Łà±įà°Ł
Õ¥Õ ²
Ġëª ħ
Ġä½ ł
ĠØ¨Ø¯ ÙĪÙĨ
ĠâĢľ ,
ĠÚ© ÙĪ
u st
ãĤĵ ãģł
Ġno tre
ãĢ į
à¹ģ à¸Ļà¸
ĠáĥĴáĥĲáĥĵ áĥĲáĥ¬áĥ§áĥķ
Ġáĥ¡ áĥĺáĥ¡áĥ¢
å§ ĭ
à¦¿à¦ ¹
è® ©
Î´ ÏĮ
ĠÏĢ ÏģÎ±Î³
Ġm igli
Ġpos sib
Ġv ax
ĠáĥĴáĥĺáĥĿ áĥłáĥĴ
æĺ ¾
ĠÙħÙĨ Ø·
Øª ÙĦ
à¦¾à¦ Ľ
Ġé Ľ
à¤¾à¤° à¥ĩ
in do
v ÉĻl
Ġl Ãºc
Ġáĥ¢ áĥĶáĥ¥
Ġqu el
ĠÐ¿ Ð¾ÑĤ
Ġad ip
ĠvÉĻ zi
ãģ«ãģª ãĤĭ
äº§ åĵģ
áĥĶáĥķ áĥĲ
Ġìŀ ĺ
Ġà¸ ¢à¸
ĠØŃØ¶ ÙĪØ±
T ype
Ġ×©×Ķ ×ķ×Ĳ
à°ª à°¡
Ġos ob
Ð¼ Ð°
ĠÎļ Î±Î¹
ãĥ¼ ãĥ³
il la
Î² Î¿Î»
æľ ª
o c
li ÄŁi
à´¤ àµįà´¤
Ġáĥ¤ áĥĶáĥ®
Ġgi bt
Ġu ten
Ġà°ķ à°°
à±Ģà° İ
ãĤ¤ ãĤº
Ġà®® à®£
ĠáĥĵáĥĲáĥĻ áĥĲáĥķáĥ¨áĥĺáĥł
Ġà®ª à®¾à®Ł
Ġà¦® à¦¨à§ĩ
ĠÙĦ ØŃ
Ġ à¹Ħà¸
ĠÐ½ Ð°Ð·
à¯įà®Ł à¯į
ìĬ¤ íĬ¸
ãĤ ´
Ġà®µ à®ķ
à¥Ģ à¤¡
å ¡
áĥĿáĥľ áĥĿáĥĽ
ÏĢ ÎŃ
à¨ Ĥ
Ġà¤ª à¤¾à¤°
ti tu
ë¦¬ ê³ł
ĠÄ° st
Ġå°Ĭé¾Ļ d88
ãĥ¼ãĤ «
ĠRespub lik
à¦ ĺ
ĠÙĬ Ø§
à¦¾à§ľ à¦¾
Ġg io
ro b
à¥ĩ à¤¦
à¸Ńà¸¢à¸¹ à¹Ī
Ġ3 3
ĠÅŁ ey
ĠÙ¾Ø§Ø³ Ø®
Ġà´ ¸
u ti
ĠÐ¿ÑĢ Ð¸Ð½
ĠÙħ ÙĦÛĮ
ä¾ ¿
à¯Īà®¤à¯įà®¤ à¯ģ
æľīéĻĲ åħ¬åı¸
Ã ĺ
ä» Ĭ
Ġ×Ĵ ×ĳ
Ġtak e
Î» Ïİ
ĠA nh
à¤¾à¤² à¤¾
æĦŁ ãģĺ
åŁ Ł
×ķ×ŀ ×Ļ
à¤°à¥įà¤ ľ
Ġáĥ§ áĥĿáĥ¤
ar on
Ø¸ Ø±
Ġim m
ing an
áĥ¢ áĥĺ
Ġs alah
ar et
á»ĩ t
×Ļ×ĵ ×Ķ
áĥĲáĥłáĥļ áĥĲáĥĽáĥĶáĥľáĥ¢
ar am
h ip
Ġà¤¸ à¤Ńà¥Ģ
ĠÚ©ÙĨ ÙĨØ¯Ùĩ
å¤ ª
à¦¿à§Ł à¦¾à¦°
á» ħ
ĠÄį er
à§ľ à§ĩ
æ¼ ı
Ġà¸ ¡
d el
à°ļà±įà°ļ à±ģ
Ġd áº«n
Ġa os
ĠØ·Ø± Ø§ØŃÛĮ
Ġl id
ëŀ Ģ
ĠÎ¬ Î½
ĠáĥĵáĥĲáĥ Ķ
ĠáĥĽáĥĲáĥ¨ áĥĺáĥľ
à°¿à° §
ãģĿ ãģ®
©áĥĶáĥķ áĥľ
ç ¢
ÏĥÎ¹ Î¼Î¿
ĠÙĪØ± Ø²Ø´
Ø±ÙĬ Ùĥ
Ġal gun
Ġin formation
Ú¯ ÛĮØ±
Å¾ en
Ġby Äĩ
ÃŃ cul
ĠØª Ùģ
Ġte Å¼
Ã¡v el
ĠN á»Ļi
ÉĻl ÉĻ
ver pg
éĤĢ è¯·
Ġà®ķà¯Ĭ à®³à¯įà®³
à· Ķ
ĠÐ² ÐµÑĢ
æ¯ Ľ
l Ã¤
å¾ ®
åĮĹäº¬ èµĽè½¦
c ri
Ġéĩ ĳ
Ġà¦ĩ à¦¨
Ø®Ø¯ Ø§Ùħ
Ġbe cause
ç¨ ³
Ġu tili
Î¹ÎºÏĮ ÏĤ
ĠÄĳá»ģ u
ĠáĥĶáĥķáĥł áĥĿáĥŀ
ck en
ĠØ§ÙĦØ£ ÙĪÙĦ
ra f
Õ ©
ĠØ§ÙĦØ¬ Ø²
Ġà®ĩà®° à¯ģà®ªà¯įà®ª
ÙĨØ¯ Ø§ÙĨ
ĠÙĦ Ø¥
Ð¼ Ð¾ÑĤÑĢ
ĠÎ´Ïį Î¿
ĠéĶ Ľ
åĮ »
?? ??
Ġà°ª à°Łà±įà°Ł
aj e
à°¿à°Ĥà° ª
ÑĨ Ð°
ÎŃ Ïĩ
Â ¨
áĥĲáĥłáĥ £áĥļáĥĺ
Ġà®ª à¯ģà®°
ĠFr ance
v et
Ġë³ ¸
ĵ ľ
Ġv os
Ġos s
à§ĩà¦² à¦¾à¦°
à¤Ĥ à¤ª
ĠÐ´ Ð°Ð½
ĠP eng
Ġ 77
r ing
ĠØ¨Ø§ÙĦ Øª
Ø±Ø¨ ÙĬØ©
Ġà¤¸ à¤¾à¤²
à§ ¨
Ġch Æ°a
ÛĮÙĨ Ú©
à¯ĭ à®ķ
åĩ ł
×ĸ ×§
Ġtr as
der n
Ġáĥĺáĥ¡ áĥ¢
Ø§Ø¨ Ø¹
Ġà¤ħ à¤®
à§įà¦² à¦¾à¦¹
Ġà¤ķ à¥įà¤·
Ġin form
ĠÙĦ ÙĩØ§
Ġä» İ
åĦ ¿
od zi
ĠÐ½ ÐµÐ´
à¦¾à¦ĩ à¦²
Ġh un
Ġth am
Ġb áº¥t
à¤¿à¤ ¦
m esi
Ġb li
Ð° ÑĨÐ¸Ñı
Ã¤ h
t ak
Ġà¦ħ à¦ªà¦°
à®¿à® ªà¯į
çİ° éĩĳ
ĠÄĳá»ĭ a
à§įà¦¯ à¦¾
Ġs tor
ĠØ® Ø§ÙĨÙĩ
Ġà®ķà¯Ĭà®£à¯įà®Ł à¯ģ
ĠâĢ ¢
èĭ ±
áĥĽ áĥĲáĥľ
Ø¨ Ø±Ø¯
zo ek
ĠØ§Ø¹ ÙĦØ§Ùħ
U R
al o
ĠãĢ İ
áĥĲáĥķ áĥĶ
Ġhab e
ĠØ£ ÙĪÙĦ
ĠÐ± ÐµÑģ
¾ è®¯
Ġè ¡
emb ro
à¯ģà®® à¯ĩ
Ð°ÑĤ Ð¾ÑĢ
è³ ª
Ġsa id
· ¨
zion ale
Ã³ Å¼
ĠáĥĽ áĥĶáĥª
à¦¿à¦· à§įà¦ł
l ei
ä¾ ĭ
ìĻ¸ êµŃìĿ¸
æŁ »
Ġm ÉĻh
ÅĽ my
Ħà¸ ´à¸
ĠÎł Î¿Î»
íĶ Į
Î® Î¼Îµ
à¥ģà¤ ³
Ġæ ł
ĠM Ã¼
Ġà¦¨ à§Ł
ĠÑĩ ÑĤÐ¾Ð±Ñĭ
Ġbul ate
ĠÙĥ Ùħ
àµįà´ °
à°¾à°¨ à±į
×Ĵ ×¨
Ġdies e
Ġíĥ ľ
Â ²
Ġà°¹ à±Ī
ĠáĥĲáĥ Ĺ
Ġtá» ¥
Ġà°¦ à±įà°µ
ĠP em
×¨×Ľ ×ĸ
Ġ2 7
ĠáĥĶáĥł áĥĿáĥķáĥľ
Ġi p
Ø Ł
ĠØª Ø¨
g j
Ġà°¤ à±ĭ
cz enie
ĸà¸¶à¸ ĩà¸
Ø² Ø§Ø±ÛĮ
t Ã¼
Äį enÃŃ
ĠÑĢ ÐµÐ³
ĠÑĤ ÐµÐ»
Ġà¤ª à¥Ī
Ġà¦¦ à§įà¦¬
ĠØ¨ Ø¥
Ġà¹Ĥà¸ Ķà¸¢
Ġter j
Ġs Ã¡ng
ĠØ²ÛĮ Ø¨
çµ Į
Ġk er
Ġ$( "#
åĳ ½
ĠtÉĻÅŁ kil
æ ¤
Ġho Ãłn
ĠA I
ĠÙĩÙħ ÛĮÙĨ
Ġà°¤ à°ªà±įà°ª
Ġf aci
sch en
Ġáĥ¥ áĥĲáĥłáĥĹáĥķáĥĶáĥļ
6 9
à¯Ĭ à®£à¯įà®Ł
áĥĶáĥķ áĥ¡
áĥĲáĥĸ áĥłáĥĵ
Ġ à¹ĥà¸Ļà¸
Ù Į
å· Ŀ
at h
Ġm ade
Ġsh ow
çĽ ĳ
ģ à¸£
ien ie
ĠÙĩ Ø¯
Ġáĥŀáĥł áĥĿáĥĳáĥļ
Ġà¦¸ à¦¾à¦§
g ÅĤ
à°ª à±ģ
ĠI hr
ãģ§ ãģĹãĤĩãģĨ
Ġà¦ħà¦¬ à¦¸à§įà¦¥
i x
Ġpr os
Ġog ni
áĥľ áĥĺáĥĶáĥł
ĠÎ±Ïħ ÏĦÎ¿
à±ĩà° ¸à±įà°¤
ĠV y
è¾ ĥ
ĠÃ¶n ce
Ġol ub
´ ī
Ġilg ili
Ġà¦¨ à¦¿à¦°
áĥ£áĥ ©
Ĺ i
Ġãģ ©
Ĉ ć
ĠÕ Ħ
ĠáĥĿ áĥ¥
Ġwy b
tic os
ĠÙģ ÙĦ
ĠØ§Ø¬ ØªÙħØ§Ø¹
ĠT rong
ë° °
Ġf uer
Ġà°ļà±ĩà°¶ à°¾à°°à±ģ
ĠÐ¸ Ð³ÑĢ
Ġcz ÄĻ
ĠìĿ´ ìļ©
ĠØ§ÙĦÙħ Øº
ato re
Ġáĥ¬ áĥĲáĥĽ
ir lÉĻr
Ġà¦ķà¦¾à¦ Ľà§ĩ
çı ¾
ìł Ī
ĠE x
èį ī
ĠØ¢ ÛĮ
Â ¼
Ġh á»Ļ
Ġf rem
ĠtÉĻrÉĻf indÉĻn
Ġå ĵ
ĠmoÅ¼ na
Ġà°µà°¿à° ¶
Ġà¦¦ à§ĩà¦ĵ
ľ ëĵľ
las s
Ġab y
ĠáĥĽáĥĶáĥĿ áĥłáĥĶ
Ġà°ª à°¨
Ġtij d
Ġáĥ¡ áĥĿáĥ¤
ã Ħ
ĠãĢĤ ï¼Į
Ġ5 0
Ġm ÉĻq
ai x
Ġà¤µ à¤¿à¤ķ
ĠÏħ ÏĢÏĮ
áĥĿáĥłáĥª áĥĺáĥĶáĥļ
b ir
ĠDom ain
ĠA z
Ġistif adÉĻ
ĠÃ§ ÉĻk
çº ¦
Ġna bÃŃ
u lar
ang kan
Ġcom ment
à°¦ à±ģ
ĠÑĩ ÐµÐ»Ð¾Ð²
n d
áĥĲáĥ¡ áĥ¬
×ķ×¨ ×ķ×ª
Ġs ÉĻn
Ġm ir
Ġáĥĵáĥ¦ áĥĶ
à°Ĥà° ¡à±ģ
Ġà®İà®©à¯įà®ª à®¤à¯ģ
ë¦ ī
à¥ĩà¤ £
ë³ ´ë
§ à¸Ļ
Ġà®ļ à¯ĩ
Ġæ ĭ
Ġdes ign
Ġil alim
Ġp ub
Ġì§ ĳ
Ġnieuw e
d ik
Ġ' ,
Ġà®µ à®¿à®Łà¯įà®Ł
ĠÄĳá»ķ i
ĠìķĦ ìĿ´
ĠÎ£ ÏħÎ½
Ġà¤Ĩà¤ª à¤ķà¥ĭ
ĠJ ak
èĲ ½
à¸Ńà¸ °
ĠfÃ¸l ger
Ġs istem
Î´ Î±ÏĤ
A D
åķ ª
áĥĿáĥļ áĥĺáĥ¡
Ġà¦¤ à¦¾à¦ĩ
×¤ ×ľ
×ª ×Ĺ
Ġc c
h and
Ġ365bet å®ĺç½ĳ
ĠÎ¼ÎŃ ÏĥÎ±
ĠØ§ÙĦ ÙĴ
ĠpÅĻ es
± Ħ
ŀ à¸£
ç¦ ı
ĠÙħ ÙĦÙĬ
åıĸ ãĤĬ
ģà¸ §à¹Īà¸²
ĠØ« Ø¨Øª
eh ir
Ġé ķ
Ġsam men
ĠìĪ ľ
áĥĺáĥ« áĥĶ
Ġmak s
ĠØ¯Ø± Ø¨Ø§Ø±Ùĩ
áĥ£áĥ ŀ
×ł ×§
ĠØ³ ÙĨ
áĥ® áĥĶáĥĵ
Ġå¾ ·
Ġà®ĩà®°à¯ģà®¨à¯įà®¤ à¯ģ
à¸²à¸ªà¸´ à¹Ĥà¸Ļ
ìĦ¸ ìļĶ
Ġq eyd
Ä±l dÄ±
à¯Īà®ķ à®³à¯Ī
Ġà¤ª à¥ģà¤²
Ġil dÉĻ
à¤ ĺ
åĪĨ æŀĲ
à¹Ģà¸ ĩà¸´à¸Ļà¸
Ġan s
áº¥ m
Ġå½ ĵ
Ġ×Ļ ×ľ
ier z
l ama
Ø§Ùĩ Ø´
Ġmak a
ÙħØ§ÙĨ ÛĮ
ĠØ¹ ÙĦÙħ
Ġáĥ¤ áĥĲáĥ¥áĥ¢
åħ «
ĠÑĥ Ð¶Ðµ
Ùħ ÙĴ
Ġ×ľ×ŀ× ©
aw in
ar ÉĻt
Ġà°¸ à°¾à°§
ĠÛ±Û °
ĠÄ° s
l au
ÏģÎ¯ ÏĤ
on te
ê¹ Ģ
Ġà°ħ à°¡
is te
à§ĭ à¦ľ
ĠØ§Ùģ Ø²Ø§Ø±
Ġà°ķà°¾à°° à±įà°¯
ç ¿
à±Ģà° Ĩ
âĢ Ļ
àµģà´ Ĥ
cor a
Ġá¼ Ģ
íħ Į
à¸£à¸µà¸ §à¸´à¸
Ġà®µ à®³
al th
ãĤ» ãĥĥãĥĪ
ur en
az Ä±
ĠktÃ³ ry
å¤ ±
Ġpos s
Ã¡ le
è¯ »
ĠØ¨Ùĩ âĢĮ
n os
à®¿à®ķà¯įà®ķ à®ªà¯įà®ªà®Łà¯įà®Ł
à¥ĩ à¤°
Î¯Î½ Î·
Ġáĥ£áĥ ĳ
åĪ ¥
Ġau tres
Ġde velop
Ã© d
éļ Ľ
ªà¸ ±à¸
ĠØµÙģ ØŃÙĩ
áĥļ áĥĶáĥĳáĥĲ
Ġà®İ à®Łà¯ģà®¤à¯įà®¤
Ġmelh or
×ķ×ĳ ×Ļ×Ŀ
ĠæŃ £
ĠÙĪ Ø§Ø±Ø¯
à¦Ĺà§ģà¦² à§ĭ
Â ´
ĠDe utsch
Ġl iá»ĩu
è¯ Ħ
à¥ĩà¤Ĥ à¤¦
Ġexper ien
Ġ×Ķ×ŀ× ª
ĠÏĩ Ïİ
Ġà°® à°Ĥà°ļ
Ġì ´Ŀ
ĠÙħØ¯ ÛĮØ±ÛĮ
Ġæ Ļ
à´ ¨
Ġà°ķ à°¥
Ġà¦¹à¦¿à¦¸ à§ĩà¦¬à§ĩ
Ġpesso as
à´ ³
Ġdi p
à¥įà¤° à¤®
ĠíĻ ľ
r Ã¤
ĠN on
Ġà¸ ¥à¸
lÉĻrin ÉĻ
Ġg um
ĠØ¨ ÙĤ
à¤Ĥ à¤ļ
Ġå¹ ¿
e z
Îķ ÎĻ
ĠC Ã¡c
ī ´
ÙĬ ÙĪÙĨ
à¤¯ à¥ĩ
à°¾à°Ĥà°Ł à°¿
ç ¢º
Î¿Î½ ÏĦÎ±ÏĤ
åĨ µ
ĠÙĪØ§ÙĦ Ø¹
Ġíİ ¸
ĠØª Ø³Øª
ier t
Ġs á»Ł
éĵ ¶
Ġà¤¸ à¤¹
Ġà°ľ à±Ģà°µ
à±Īà°¨ à°¾
Ġáĥ¡áĥ¬ áĥĿáĥł
Ġoldu ÄŁu
à¹ģ à¸Ļ
Ġk w
Ġà¤ķ à¤Ī
Ġy e
Ġtemp o
Ġq ÉĻb
nÃ© es
ä½¿ çĶ¨
Ã© lÃ©
áĥļ áĥĶáĥĳáĥĺ
ĠÎ» ÏĮÎ³
à¸£à¸°à¸ ļà¸
ÑĢÑĥ Ð´
ĠÏĩ ÏģÎ®
aw ang
Ġw aktu
Ġáĥŀáĥł áĥĿáĥ¤
Úĺ ÛĮ
Ġ×ľ ×¨
×© ×ĳ
Ø³Ø¨ Ø¨
mak t
A K
Ġà°ķ à±ĩà°¸
Ġì¦ Ŀ
ĠáĥĿ áĥŀ
áĥĲáĥ¦ áĥĽ
åį ı
íĸ ¥
uÅŁ tur
çĦ¡ ãģĹ
om a
Ġà¹Ģà¸ §à¹ĩà¸ļ
ç» ´
Ġm ye
ï¼ ģ
Ġf are
ĠR p
ĠØ³ ÙĦ
Ġà¦ıà¦ķ à¦Łà¦¾
áĥĲáĥĻ áĥĶáĥĹ
è ŀ
Ġn Ä±n
Ð°Ñģ ÑĮ
ĠØ¢ ÙĦ
Ġáĥ¬ áĥĺáĥľáĥĲ
ur g
Ø¬ ÙĬÙĦ
Ġv al
Ġà°ķ à°¿
Ġf un
ĠØ¥ ÙĦÙĬ
Ġà°®à±Ģ à°¦
Ġãĥ Ń
il idade
ĠÐ½ ÑĥÐ¶
ĠÙĨ Ø³
Ġà¸ Ĭ
Ġãģ¾ ãģŁ
ĠáĥĺáĥĴ áĥĺ
ĠgÃ¶ ster
Ġà¦® à¦¾à¦®
Ġ×© ×ŀ
Ġ×ª ×Ĺ
Ġé ģ
ĠÐ¾Ñĩ ÐµÐ½ÑĮ
Ġ×Ľ ×ŀ×Ķ
Î¿ Î³
ou den
Äį ka
Ð¸Ð½ Ð³
Ġf lere
c m
×¨×Ľ ×ª
ľà¸ ¥à¸
ÑĨÐ¸ Ñİ
Ġà¤ļ à¤²
Ġà¤Ł à¥Ģ
ĠÐ½Ð° Ñģ
Ġs j
Ġ×Ĵ ×¨
Ġæ ĻĤ
Ġà®¤à®®à®¿à®´ à¯į
iler i
à§ĩà§Ł à¦¾à¦°
ct s
at ta
Ġus ed
2 7
wi Äħz
ĠÙĨÛĮ Ø§Ø²
Ġs ÉĻr
ay ÉĻt
Ġ9 18
Ð°Ñĩ ÐµÑģÑĤÐ²
Ġj ue
£ Į
åı ¤
çĻ ½
Ġå¹ ¸è¿Ĳ
Ġanmeld elser
ĠS eb
Ġà¤¬ à¥Ī
Ġáĥŀ áĥĲáĥ¡áĥ£áĥ®
âĢĮ âĢĮ
Ġìĸ´ë ĸ
er ek
ãģķãĤĮ ãģŁ
Ġëĵ ľ
Ġk amu
ãĤµ ãĤ¤ãĥĪ
ãĥ³ãĤ º
Ġà®¤ à¯Ĩ
ÏĦÎ¿Ïħ ÏģÎ³
×ķ×Ĺ ×ķ×ª
Ð¾Ð½ Ð°
ĠÙĪ ÙĦÛĮ
à¦¾à¦ķ à¦¾à¦°
Ġet ti
ĠÕ ©
Ã² a
łà¸²à¸ ŀ
cto ry
Ã£ i
Ġáĥ¨áĥĶáĥ¡ áĥĲáĥĳ
ķà¹Ī à¸Ń
ed ia
Ġkter Ã¡
Ġà¤« à¤¿à¤²
ĠØ²ÙĨØ¯ Ú¯ÛĮ
Ġà¦ħà¦¨ à§ģà¦·à§įà¦ł
×ķ×© ×Ķ
Ġpr osti
Ġl itt
à®Ļà¯įà®ķ à¯ģ
à±ĭ à°ª
Ġí Ĵ
nie Å¼
ĠÙĨ ÙĪØ¹
à¹ģà¸¥ à¹īà¸§à¸
Ġà¤« à¤¿à¤°
à¸Ńà¸²à¸ «
m am
ĠÅŁ ÉĻhÉĻr
Ð» ÐµÐºÑĤ
Ġà¦® à§ĥà¦¤
×¤ ×ķ×ª
Ġà¤¸ à¤¿à¤Ĥ
ĠØ³ÛĮØ³Øª Ùħ
×¤ ×¡
à°¨à±įà°¨ à°¾à°°à±ģ
c en
Ġà¤¸ à¥ģ
è´ £
Ġser vi
ĠØ§ÙĦ ÙĪÙĤ
Ġch uyÃªn
Ġa w
56 bet
ik asi
Å¯ s
à¯ģà®± à¯Ī
áĥĽ áĥľ
Ġ×Ķ×Ĳ ×Ĺ×¨
à°¾à°¨ à°Ĥ
Ã¤ hr
k iÅŁ
áĥĲáĥ¨ áĥĿáĥłáĥĺáĥ¡
ĠÎ¼Îµ Î³Î¬
ìľ¼ ë©°
Ŀ à¸²à¸ģ
à¤¾à¤· à¥įà¤Ł
ìŀ Ī
Ġà¤Ĩ à¤µ
Ġpor que
Ġà®ħà®µ à®°à¯įà®ķà®³à¯į
à¦¾à¦ĵ à§Łà¦¾
áĥĶáĥĿáĥĳ áĥĺáĥ¡
Ġ×ľ ×ĺ
ĠØ§ÙĦØµ ØŃ
Ġåħ ¬
áĥľ áĥ¢
Ġà¤® à¥Ī
ĠS k
ch ten
Ġc ada
Ġáĥ¨áĥĶáĥ¡áĥĲáĥĳ áĥĲáĥĽáĥĺáĥ¡
Ġà° Ĺà°¾
Ġap a
×ĳ×¨ ×Ļ×Ŀ
ĠÐ´Ð¾Ð» Ð¶
åķĨ åĵģ
Ġà°ª à±ĩà°°
Ġag äºļæ¸¸
Ġà¦ľà¦¾à¦¨ à¦¾à¦¨
×ķ×¤ ×Ł
Ïĥ Î¯
Ġa ÅŁ
é¨ ĵ
Î¿Ïħ ÏģÎ³
Ġà¥ §
à¦¿à¦ķ à¦¾à¦°
Ġà¸ §à¸±à¸Ļ
áĥĲáĥľ áĥĻ
ĠU hr
ĠÃ Ĥ
Ġà¸ Ĺ
Ġar beid
Ġáĥª áĥľáĥĿáĥĳ
à¤°à¥įà¤ £
us sen
Ġw iel
ei ros
m alar
ĠÐ¾Ð± Ñī
Ġåį Ĺ
Ġà®®à¯ģà®¤ à®²à¯į
Ġmem per
ĠB il
Ġber s
ĠÐ² Ð·
Ġ ara
o on
ten e
ĠíĻ ĺ
ak am
à°¾à°° à°¨à°¿
Ġal is
ĠØ¬Ùĩ Ø§ÙĨ
áĥª áĥĺáĥĲ
à¹Ģà¸¥ à¹Īà¸Ļà¸
tic as
Ġth Ã¢n
Ġs ystem
im a
ìĭľ ê°Ħ
ĠÙĥ ÙĬÙģ
Ġà°µà°¿à° §
ĠÙģ Ùĩ
ĠáĥĴ áĥĿáĥĴ
Ķà¹īà¸§à¸ ¢
Ã ĳ
Ġì§Ģ ëĤľ
×ĸ ×¨
t ra
à¸Ļ à¹Įà¸
l ay
eb en
Ġser ta
ayÄ± b
Ġãĥ Ģ
Ð¸ÑģÑĤ ÐµÐ¼
ĠØ³Ø±ÛĮ Ø§ÙĦ
at u
ĠTh ere
Ġà¦® à¦¾à¦§à§įà¦¯à¦®
ĠÅŁek ilde
Ġà¸ Ľà¸£à¸°à¸
Ð»Ñı ÐµÑĤÑģÑı
Îº ÎŃ
kiÅŁ af
sch ie
à¯ģà®³à¯įà®³ à®¾à®°à¯į
Ø¹ ÙĬØ©
Ø¹Ùħ Ø§ÙĦ
ĠØ§ÙĦ Ø§ØŃ
Ġáĥŀ áĥĲáĥłáĥ¢
Ġà¦ Ŀ
Ġ×ŀ×ŀ× ©
Ġáĥ¡áĥĲáĥŃ áĥĺáĥł
çģ «
ĠÐ¿ Ð°ÑĢ
i Ã§
Ġcre am
×¦ ×Ķ
ÛĮØ¯ ÛĮ
¹à¸ ģ
Ġà¦¸ à¦¾à¦°
à¦¾à¦¦ à¦ķ
ĠÎķÎ»Î»Î¬ Î´Î±
Ġtiem po
Ġà°ļ à°Ĥà°¦à±įà°°
à¤¹ à¤°
à°¦ à±ĩà°¶
es to
į ¼
ĠD Ã©
Ġbei ng
ÏĦÎ¿ Î¹
Ġdo b
ĠØ¬ Ø§ÛĮ
å³ ¶
Ġà°ªà±įà°° à°¤
Ġa h
Ġà°ķ à±ĩà°Ĥà°¦à±įà°°
Ġà°ħ à°®à±įà°®
ë° ±
ļ áŀ
íķĺ ëĭ¤
Ġfun ction
à¤¿à¤ ·
Ġ _
ĠÙĤ Ø·
Ġà¤Ĩ à¤¦
ĠR Ã©
w ert
uyá» ħn
ĠâĢ ĭ
c co
§ à¸Ļà¸
sk er
th ing
ì½ľê±¸ ìĥµ
Ġst art
Ġ ãģĮ
Ġ á»©ng
ĠÐ ĸ
ĠO r
Ġr u
Ġà®ĩ à®©à¯įà®©
×© ×ķ
ĠK om
à¹ĥà¸«à¸¡ à¹Ī
èĲ Ħ
ĠáĥĹ áĥķáĥĺáĥĹ
ÙĪÛĮ Ø³
Î¸Îµ ÏĥÎ·
ĠC z
ĠåĲ Į
Ġuy gul
ĠØ¯ ÙĪÙĨ
à®¾à® ¨à¯įà®¤
ĠIn ter
ãĥ¼ãĥ ĳ
Ġà¦® à§ģà¦ĸ
Ġr áº±ng
ĠÙĨØ´ Ø§ÙĨ
ie d
Ġsi er
Ġà¦¦ à¦¿à§Ł
ĠáĥŀáĥłáĥĶáĥĸ áĥĺáĥĵáĥĶáĥľáĥ¢
à°¿à° ³
à¯ĭ à®Łà¯ģ
Ġb ilang
Ġar kadaÅŁ
à¦¿à¦¤ à§įà¦°
ig ment
ĠíĨµ íķ´
Ġpar ti
ĠáĥĿ áĥ¯áĥĲáĥ®
æ± º
Ġtr áº»
èµ ¢
Ġm áº¯t
à°¾à°Ĥà° ķ
ä¼ļ ç¤¾
Ġà¤Ĺ à¥įà¤°
à¶ ¸
Ġa ct
à¥Ģ à¤°
Ġprov id
å¿« ä¹Ĳ
ìĬ ¹
Ġ×Ķ×ŀ× ¢
ÐºÐ° Ñĩ
ĠÏĢ Î¬
èī º
Î¾ Î·ÏĤ
ĠÎĳ ÏĢÏĮ
Ġà®ĩ à®£
ĠÐ° ÑĢ
Ġn ei
Ġà°ľ à°¿à°²à±įà°²
Ġà¦® à¦¨
tion al
áĥķ áĥĺáĥłáĥ
Ġà¸ Īà¸²à¸ģ
ãģ¨æĢĿ ãģĦãģ¾ãģĻ
ĠìĹ ħ
Ġpres yo
áĥ£áĥ «
Ġ) ;
Ïĩ Î·
ä½ ı
Ġ×ľ ×ŀ
Ġ×¢ ×ĳ×ķ×¨
Ġà¹Ģà¸ ģà¸¡à¸
ĠÃ£ ÆĴ
Ø±Ø¨ ÛĮ
Å¡ enÃŃ
Ġëł Ī
ÙĪ Ø¶
d ek
Îº ÎµÎ¹
Ġà´ ®
Ĺà¸²à¸ ĩ
ĠÙħ Ø®
à°¯ à°Ĥà°²à±ĭ
y s
ÏĨ Ïħ
Ġà°ªà±Ĩ à°¦à±įà°¦
Ġn ed
ĠG en
à¹ģà¸ļà¸ ļ
æ¯ ı
Ġ×§ ×ĺ
Ïĥ Î¯Î±ÏĤ
Ġz al
ĠÅŁ ÉĻr
ĠáĥĽáĥĶáĥ¢ áĥĺ
ĠØ§Ùħ Ø§Ùħ
ç Ĵ
à¶ ļ
áĥĲáĥłáĥ £áĥļ
à¦¸ à§įà¦ķ
Ġm ein
Ø§Ø¨ ÙĤ
Ġc all
Ġm iá»ħn
Ġ×© ×ł×Ļ
à¨ ¹
y an
Ġngo Ãłi
Ġí ĳľ
Ġenc ont
à±ģà°ķ à±ģà°¨à°¿
ãģĹ ãģ¾ãģĹãģŁ
l in
ÐµÐ½ Ð´
éĤĢè¯· çłģ
áĥĺáĥł áĥĶáĥĳáĥĲ
ĠÏĮ Î¼ÏīÏĤ
áĥ¤ áĥĶáĥł
Ġl ie
Ġà°ķ à°¾à°µ
ti ka
ĠÑģÑĤ ÑĢÐ°Ð½
h os
Ġli fe
ĠÄĳ Ã¡nh
Ġ×© ×ª
ÏĥÏĦÎ± ÏĥÎ·
à¥įà¤ ļ
Ġ= >
g ang
ĠÖ ĩ
æ£ Ģ
Ġparas ites
áĥ® áĥļ
à¦ª à§įà¦¤
ĠÎµÎ¯ ÏĩÎµ
Ġka Å¼
ĠÐĿ Ð¾Ð²
èª į
Îº ÏģÎ±
à¹Ĩ à¸
ĠØ§ÙĦØ³ ÙĦ
ÏģÎ¿ ÏįÎ½
ĠØ§ÙĦ Ø±ÙĪ
à¤¾à¤ ī
ĠáĥĽáĥĿáĥ «
es ab
à¤¡à¤¼ à¤¾
Ø±Ùĥ Ø§Øª
à¤¤ à¥įà¤°
æĲ ı
ĠØ±Ø¦ ÛĮØ³
el o
Ġh ere
Ġc ï¼Ĳ
lo ad
ar ia
Îµ Î´
ĠÙĨ Øª
ĠØ® Øµ
ĠÙĪ Ø¬
Ġà¦°à§Ł à§ĩà¦Ľà§ĩ
Ġ\ "
à· ĥ
Ġsp oleÄį
ÐµÐ½ Ð¸Ñİ
Ġdi ver
4 8
ĠìĬ¬ ë¡¯
×Ļ×© ×¨×Ĳ×ľ
Ġd od
ĠÐ¾Ð± Ð»Ð°ÑģÑĤ
ĠØ¬ Ø§ÙĨ
ı i
Ġáĥĵ áĥĺ
Ġt um
ĠÙģ ÙĤØ·
ĠÐ´ Ð¾ÑģÑĤ
p re
Ġh Ã¼
Ø±Ø§ÛĮ Ø·
Ġseb uah
zi d
eng er
Ġen f
nh o
wi ad
Ġ ãģ¨ãģĦãģĨ
éģ ķ
at Ä±
Ġs Ä±r
Â £Â¬
ç· ļ
ĠP re
ÙĪ Ø§Ø¹
Ġçİ °
ĠP od
ig ay
nik Ã³w
á» ģ
Ġà°² à±ĩà°¦à±ģ
Ġs m
2 9
×Ļ× ¥
áĥł áĥĶáĥĳáĥĺáĥ¡
Ġì º
ĠØ§ÙĦ Ø§ÙĤ
Ġth ink
ĠÐ¿ÑĢ Ð¾Ð³
ell om
ĠØ´ Ø±Ø§ÛĮØ·
à© ģ
ãģĵ ãģ®
ĠÙħ Ø¬Ùħ
Ġà¦¬ à¦¨à§įà¦§
à®© à®®à¯į
c n
æ ¿
ĠÚ¯Ø± ÙģØªÙĩ
Ø® Ø§ÙĨÙĩ
ÉĻy i
Ġ×Ĳ ×ľ×Ĳ
Ð°Ð» Ð¸Ð·
Ø§Ø¹ Ø¯Ø©
ë§ Ľ
ap an
´ë ¦
Ġà®ħ à®²
ä» ĭ
Ġge w
Ġver ir
ĠØ§ÙĦ Ø§Ø¬
Å¾ enÃŃ
Ġåĳ ¨
áĥĺáĥ¡ áĥĻ
ÙĬØ§ Ùĭ
à±Ĩà°² à±įà°²
Ġtak Å¼e
Ø± ØŃ
Ġáĥľ áĥĲáĥ¬
Ġáĥĺáĥ¡ áĥĺáĥľáĥĺ
ĠØ¨ Ùĥ
Ġà°¨à°¿à°° à±įà°®
à¥įà¤ ¬
Ð¾Ð² Ð°ÑĢ
à°¿à°¤ à±ĭ
ĠÙĪ Ø´
éļ ¾
áĥľáĥ¢ áĥĶáĥłáĥĶáĥ¡
Ġga an
f ach
Ġáĥ® áĥĿáĥļáĥĿ
l us
à¦¨ à¦¾à§Ł
à§ĩà¦¤ à§ĩ
ĠÏĥÏħ Î¼Î²
Î¸ Ïħ
à®¤à¯įà®¤ à¯ģ
Ġch Æ¡i
ĠÎ² Î±
ç½ĳ é¡µ
Ã¼s us
à°Ĥà°Ł à°¿
Ġb Ã¥
ĠÙģØ¥ ÙĨ
ĠÐ¼ ÐµÑĤ
Ġdo es
Øº Ø©
Ġ ingin
Ġch uyá»ĥn
Õ¡Õ ²
g um
b l
ç¤¾ ä¼ļ
Û ²
ĠØ¨ ÙĬ
ãģķ ãģĽ
à®¿à®ķà¯įà®ķ à¯Ī
ê¸° ë¥¼
Î¯Î½ ÎµÏĦÎ±Î¹
im ana
ent ly
Ł ©
am m
d ÄĽ
s c
ĠÎ¼ Î¹Îº
ą Ĉ
Ã± a
Î¸ Î±
Ġ: #
ĠN Ã£o
Ġso cial
ķà¸±à¸ §à¸
è²¸ æ¬¾
ĠãĤ ¸
ĠÐĺ Ð½
Ġver sch
Ġn ÉĻti
ĠØ§Ø± Ø§Ø¦
Ġx Ã£
aliz z
Ġri ght
Î¹ Î²
à°¾à°² à°ķà±ģ
ĠØ¹ Ø¨Ø±
á»± a
Ġsa an
ĠÙĩ ÙĦ
ĠR us
Ġà¦¤ à§ģà¦²
Ġíģ ¬
Ġquy áº¿t
ĠM ÉĻn
Ïĥ ÏĦÏĮ
Ġà®µà®´ à®Ļà¯įà®ķ
ĠDe ze
ĠÙħØ³ Ø¦
à´ µ
Ġb it
à¥ī à¤²
Ã¤ l
Ġí ħ
se g
Ġ×ª ×Ĵ
à¤µ à¤¨
Ġ×Ľ ×ĳ×¨
ur ante
Ġ×Ĳ×ª ×Ķ
Ġè ¦
ĠØŃ Ùħ
à®ªà¯įà®ªà®Ł à¯ģà®®à¯į
ãĤ¹ ãĥĨ
ĠØ§Øµ ÙĦÛĮ
ÏĢ Î¹Ïĥ
à¦ª à¦¿
ì ±ħ
Ġen k
à°¤ à±įà°°
lÉĻr dÉĻ
Îº Î¿Ïį
å¼ ·
Ġ201 2
ÙĬØ§ Ø©
Ġqar ÅŁÄ±
nÄĽ jÅ¡ÃŃ
Ġà¤µ à¥ĩ
ĳ ìĿ´
Ġtr ov
Ġà®Ĩ à®¤
ì¶ľìŀ¥ ë§ĮëĤ¨
Ġmen c
Ø¸ Ùħ
Ġëª »
Ġne Å¾
Ø² ÙĦ
Ġekstra utstyr
ĠÎļ Ïħ
ĠáĥĴ áĥĲáĥĹ
ãĥ³ãĥ Ĩ
ï½ Ĺ
Ġà¦¬à§ĩà¦¶ à¦¿
Ġn áº¿u
Ġch áº¿
ĠÃ§ ek
ÙĪØ¯ Ø©
Ã¼r Ã¼n
à¦¬ à¦¿
é§ ħ
Ġ×ľ ×Ľ×ľ
ÙĩÙħ Ø§
ĠM á»¹
ĠÎ¼ Î·Î½
Ø§Ø¹ Ø§Øª
èĭ ı
Ġà¦Ńà¦¾à¦² à§ĭ
Ġp ierw
ĠØ§ÙĦØ¹ Ø±Ø§ÙĤ
ÎĹ ÎĿ
áº¯ p
Ġpagpap alaki
èĮ ĥ
lÉĻn dir
Ġalt ri
ãĤ ®
Ġl inda
Ġà¨ µ
Ø± Øª
ĠÑįÑĤ Ð¾Ð¼
ÅĻ enÃŃ
ĠáĥłáĥĿáĥĽáĥĶáĥļ áĥ¡áĥĲáĥª
Ġh and
Ġg ed
ard Ä±m
ĠáĥĹáĥ¥áĥķáĥĶáĥľ áĥĺ
Ð°ÑĤ Ð°
à¦¾à¦·à§įà¦Ł à§įà¦°
Ġà¦¯ à¦¾
Ġà¤Ĩà¤¹à¥ĩ à¤¤
à§įà¦¦ à§įà¦°
à°°à±įà°µ à°¾à°¤
Ġe qu
el sen
ĠÐ¼ Ð¾Ð³
Ġ×Ĳ ×ŀ×¨
ĠÎ³ Îµ
ĠØª Ø§Ø±ÙĬØ®
ĠÐ¿ Ð¾ÑĢ
ĠáĥĽ áĥĶáĥĴ
Ġt ÉĻq
¡à¸ ·à¸Ńà¸
Ġc li
ĠåĪĨ åĪĨå½©
b o
äº Ĵ
Ġk Ã¶
larÄ±n a
é¦ Ĩ
zid ent
×ķ×ŀ ×Ķ
Ġ×© ×¨
Ġ×ł ×§
Îķ ÎĽ
à¤ķ à¥ĭà¤Ĥ
ĠH v
ĠæĪĳ ä»¬
Ġà®ª à®¿à®©à¯įà®©
Ä±l masÄ±
ĠÙĪ Ø§ÙĨ
ÏĩÎµ Î¯Î±
Ġà¦ī à¦¤à§įà¦¤
Ġdi d
Ġmo gelijk
Ġà¦¬ à§įà¦°
ãģ® æĸ¹
Ġpod er
Ġ ÖĦ
ĠEn t
Ġ×ĳ ×ł×Ļ
Ġc ung
m ÉĻd
èĩ ´
Î¶ Î¯
Ġdev am
Ġà®ļà¯Ĩà®¯ à®²
ĠD I
Ġà¤¶ à¥ģà¤°
ĠÙģ Øª
Ġà®ªà¯ĭ à®°
sk iej
ÑģÐº Ð¸Ðµ
Ġhaqq Ä±nda
st up
ĠØ£ ØŃØ¯
Ġre aliz
Ø±Ùģ ÛĮ
Î³ Î·
h ing
Ġ à¸Ńà¸Ńà¸Ļà¹Ħà¸¥à¸Ļà¹Į
ei a
ation al
ĠØ®Ø¯Ùħ Ø§Øª
£ i
Ġà°ĩ à°ļà±įà°ļ
ĠÎµ Î³
ĠëĶ Ķ
ĠK on
ĠAI J
Ð¾Ð± Ñī
Ñĥ ÑģÑĤ
ĠÃ ķ
ë¦ Ħ
Ġb iz
å»º è®¾
Ġdo po
ĠÙĦ Ø¹
ç§ ¯
Ġtemp s
ĠØª Ú©
k Ã¡
Ġh aar
Ġmali it
ĠØµ ØŃ
ĠØªØº ÛĮ
Ġà°® à°§à±įà°¯
Ġà®ķà¯ģà®± à®¿à®ªà¯įà®ª
ar se
æŃ£ è§Ħ
åı¯ èĥ½
Ġn ye
¸ à¹Īà¸Ļ
Ðµ ÑĦ
ÑĢÐ° ÑĦ
à¹Īà¸ ¡
p h
ei te
ĠáĥĽáĥĿáĥľ áĥĲáĥ¬áĥĺáĥļ
ĠOn line
ĠáĥŀáĥłáĥĿáĥĴ áĥłáĥĲáĥĽ
ĠÎºÎ± Î½
Ġë¸ Ķ
ĠÑģ Ñĩ
t ÉĻb
Ġlab an
Ġà¦ħ à§įà¦¯
Ġu Å¼y
o f
ĠÎ¹ ÏĥÏĦÎ¿
es ter
Ġbe fore
Ð°ÑİÑĤ ÑģÑı
c ek
Ø£ Ø©
ĠA t
ĠØ§ÙĨ ÙĪØ§Ø¹
ou le
áĥĶáĥĳáĥĺ áĥĲáĥľ
ÑĢÑĥ Ð¿
Ġà¸ ¡à¸µà¸
à®¿à®¯ à®¤à¯ģ
Ġáĥ¡ áĥ®
id mÉĻt
Ġà®ķ à®£à¯įà®Ł
à¹Ģà¸£ à¸²
Ġl á»ĭch
à±ģà°Ł à±įà°Ł
ĠØ®Øµ ÙĪØµ
Ġà°µà°¿à°¦ à±įà°¯
Ġà¦¤ à¦¥
Ð°ÑĤ Ñĭ
Ġte gen
ĠbÃ½ t
os to
Ġ×ł ×Ļ×ª×Ł
Ø§Øµ ÙĦ
Ġga at
ĠØ³ Ø±Ùħ
ç ¹
ãģ¦ ãĤĤ
Ġkdy Å¾
Ġë© Ķ
Ġs n
ĠØ¯Ùĩ Ø¯
à§ «
j ak
à°ª à±įà°°
áĥĲáĥ¦áĥĽ áĥĵáĥĶáĥĴ
Ø§ÙĤ Ø¹
ĠâĢĿ ï¼Į
Ġc al
éĻ ©
ª áĥĺáĥļ
é ¼
à¹Ī à¸Ńà¸ĩ
Ġ2 55
ÏĢÎ· ÏģÎµ
æĻ ¯
à¸£à¸¹ à¹īà¸
áĥĽ áĥĶ
Ġal Ä±n
st ell
Ġlav oro
ĠØ£ Ø´
ç½ Ĺ
Ġs ite
ĠH arga
c os
ĠÐ¿ÑĢ Ð¸Ð¼
v re
Ġåı ĳ
áĥĿáĥ £áĥ
ĠØ¯Ø± ÛĮØ§
Ð ¤
×ķ×Ĳ ×¨
ĠÅŁ ÉĻxs
Ùİ Ø±
Ġà¦¬à¦¿à¦ ı
as s
ĠC ar
ti ap
Ġwe ek
Ġ×©×ľ ×ķ
Î® Î½
ĠÃ ı
Ġm us
ĠáĥĴ áĥĲáĥĶ
Ġà¦¦à§ĩà¦¶ à§ĩà¦°
ĠÎĶÎ· Î¼Î¿
s to
Î»Î¯ Î¿Ïħ
Ġ×Ĺ ×ľ×§
i Äħ
Ġvá» «a
y k
ķà¹Ī à¸Ńà¸
Ġd ÃŃa
ĠÚ©ÙĨ ÛĮÙħ
ĠãĤ »
ĠS ain
Ġth ÃŃch
ĠK ur
Ġà¤ªà¥ģà¤² à¤¿à¤¸
ĠáĥĹ áĥķáĥĲáĥļ
Ġdal l
ĠØ§ÙĦÙħØª ØŃØ¯Ø©
Ġ Úĺ
Ġà¦ī à¦ł
ÛĮÙħ ÛĮ
ĠÕ Ń
U tama
Ø§Ø¯ ÙĬØ©
áĥ¥ áĥķ
ĠÐ°Ð² ÑĤÐ¾Ð¼
ĠáĥĵáĥĲáĥ ¬
Ø§ÙĦ Ø¨
ĠÐ²Ñĭ Ð¿
Ġth ose
ĠDomain Utama
Ġ äºĶ
Ġë² ł
Ġgi áº£m
ĠM ag
ĠÎ¿ Î¼Î¬
ÙĨ Ø§Ø¯
ĠÚ© Ø§ÙĩØ´
l Ã¼k
à¯ģà®ļ à¯į
r on
ĠÙĦÙĦ Ø£
Ġb Ã³ng
Ð¾Ð· Ð´
Ġæ± Ł
Ïģ ÏīÎ½
à¥ĩ à¤®
éĩ ĩ
Û µ
Ġà®®à¯ģà® ´
Î» Î¹Î±
à¦¤ à¦¿à¦ķ
Õ¡Õ¶ Õ«
ĠÎºÎ±Î¸ ÏİÏĤ
ĠáĥłáĥĲáĥĽáĥĵáĥĶáĥľ áĥĺáĥĽáĥĶ
Ġáĥ® áĥĲáĥļáĥ®
Ġto ho
ë§ Ĳ
Ġç ¥
ĠáĥĻ áĥķáĥļ
ul ai
b or
ĠÃ ļ
ĠrÃ³w nieÅ¼
æ¬ ¢
Ġpro to
Ġg u
Ġse con
à¹Ģà¸ ĭ
áĥł áĥĲáĥ¢
Ġê°Ģ ìŀ¥
Ġl ink
é¦Ļ èķī
ĠØª ÙĪÙħØ§ÙĨ
Ã¼z el
Ļà§įà¦ ķ
ĠáĥĴáĥĲáĥľ áĥ®
ĠØ§Ø±Ø§Ø¦ Ùĩ
ļ à¸Ļà¸
ï¿½ï¿½ ï¿½ï¿½
Ð½ Ð°Ðº
rij f
v r
Ġy orum
Ġà®¤ à¯Ģ
áĥĲáĥļ áĥĺáĥ¡
áĥĺáĥ§ áĥķ
Ïĥ Î¿ÏħÎ¼Îµ
Ġà®ª à®´
×Ľ ×ķ×ª
Ġ ä¹ħä¹ħ
r en
à§Ģà¦° à¦¾
Ġà°µ à°¿à°¨
Ġl ar
Ð½Ð¸Ðº Ð¾Ð²
ĠÕ° Õ¡Õ´
Ħà¸£à¸Ķà¸´à¸ķà¸ Łà¸£à¸µ
áĥĲáĥĺ áĥľ
à®¾à®± à¯ģ
å®ĺç½ĳ çĻ»å½ķ
ĠdÉĻ fÉĻ
Ġau to
Ð¸ Ð½Ð¾
Ġà°¤ à°¿à°°
Ġà¦§ à¦°
Ġa Ã§Ä±
ĠÑĢ ÐµÑĪ
ĠR ep
à´ ¸
ar Ã¡
åĩ »
Î ¦
×Ĺ ×Ļ×Ŀ
ĠÑģ ÐµÐ±
L I
Ġ25 6
ĠØ§ÙĦÙħÙĪ Ø¶ÙĪØ¹
ĠáĥĶ áĥĽ
Ġà°¸à°Ĥà° ¸
ff en
åį ¡
Û ±Û
à¤¾à¤ ¥
a ir
ĠØ¹ Ø±Ø¶
Ġl um
Ġsen diri
Ã¼ks ek
Ġà®¨ à®¿à®°
à¹ĥà¸«à¸ į
Ġen d
2 6
à¹Ģà¸ Ľ
à¹ī à¸Ļà¹Ģà¸
ãĥĹ ãĥª
li v
ÉĻt b
ĠØ´Ùħ Ø§Ø±Ùĩ
å®ĺæĸ¹ ä¸ĭè½½
Ġprosti tutas
ĠØ§ÙĦØª ÙĪ
à´ ²
Ã¸ m
ĠN az
à®¾à® ¸
à¦ŀ à§įà¦ļ
el a
ud ad
× ģ
áĥĶáĥłáĥ «
ĠÄĳ áº·t
Ġe der
ĠÙĬ Ø³
ĠØª ÙĥÙĪÙĨ
al itÃł
Ġj p
Ġagçİ¯äºļ éĽĨåĽ¢
Ġà®¤ à¯Ĥ
ÙĬØ± Ø§ÙĨ
à°Ĥà°Ĺ à°¾à°£
Ø±Ø¨ Ø¹
ĠC um
iz z
Ġil s
ĠÙģØ§Ø± Ø³ÛĮ
Ġáĥ¡áĥĲ áĥĲáĥĹ
Ġå Ĵ
Ø¶ Ø§ÛĮ
ĠØ¨Ùĩ ØªØ±ÛĮÙĨ
Ġpagb aba
Ġè ħ
¤ Ħ
Ġs im
Ġå¤§åıĳ æŀģéĢŁ
Ġq iy
ut os
ĠAl s
ÑĮ Ñİ
Ġz n
Ġfor ma
¥à¸ °à¹Ģà¸
à± ĸ
ĠÃ Ĳ
Ġãģ ķ
Ġà®İ à®¨à¯įà®¤
Ġà¤¹à¥ģà¤ Ī
Ġà°®à±ģà° ĸà±įà°¯
Ø¯ Ø§Ø±Ø©
Ġwor ld
ÙĤÛĮ ÙĤ
Ġå »
Ð»Ð¸ Ð²
Ġ Ïİ
Ġ×Ķ×ŀ× ĵ
ang k
Ġ×Ĳ ×ŀ
ãģı ãģª
Ġãĥ» ãĥ»ãĥ»
Â ½
ĠÏĦ ÏģÏĮ
us ay
Ġáĥ¡áĥ®áĥķ áĥĲáĥĵáĥĲáĥ¡
ĠÐ² Ð¾Ð´
ÙĦÙĬ ÙĤØ§Øª
Ġáĥ¢ áĥĶáĥł
×Ļ×ĳ ×ķ×ª
ĠÐ¢ Ð°Ðº
ĠÏĮ ÏĦÎ±Î½
d ÄĽl
ĠNe w
Ġà¦¹ à¦ĵ
Ġpl aat
Î®Î¼Îµ ÏģÎ±
à¹Ħà¸ §
Ġ×ĳ×ŀ× ©
ĠÙĬ Ø´
à¹ĩà¸ ģ
ÄĽ k
2 1
Ġà¦¦à§ĩà¦ĸ à¦¾
çŃ ĸ
ĠSp iel
à¯ģà®µ à®¤à¯ģ
tiv os
aÅĤ o
Ġ äºĮ
Ġpro dot
ad Ä±n
z eit
ĠH aber
ĠãĤ ¿
ĠÄ°st anbul
Ð» ÐµÐ¼
ungk ol
Ġ×© ×Ĺ
ĠØ¨Ø±Ø® ÛĮ
Ġn á»Ļi
Ġ×Ľ ×Ł
ĠáĥĽ áĥĿáĥĵ
ĠAG äºļæ¸¸
fÃ¼ hr
áĢ º
ÑĥÑĢ Ñģ
ĠÎ» Î¯
ad y
áĥĺáĥļ áĥ¡
Ġtá»ī nh
verpg bel
à´¿à´ ¯
Ġwy s
ĠÎºÎ¬ ÏĢÎ¿
Ġb ek
ĠW ar
ĠÎ¼ Î¬
åı Ī
Ġgr and
Ġë ģ
à°µ à°¿
à¹ģà¸ļà¸ ļà¸
ĠB á»Ļ
Ġà¦ĵ à¦ĩ
Ġfor s
æĸ Ń
d agan
ĠáĥĴáĥĺáĥĿáĥłáĥĴ áĥĺ
it z
Ġn ell
or k
Ġáĥ¡áĥĲáĥĽ áĥĺáĥľáĥĺáĥ¡áĥ¢
Ġà¦¸à¦¦ à¦¸à§įà¦¯
Ġà¦¤ à§ĭ
à¯ģà®µ à®°
áĥļáĥĶáĥĳ áĥ¨áĥĺ
Ġbe g
Ĺà¸ ¸à¸ģà¸
Ġà°İ à°µà°°
Ġà¤¹à¥ĭ à¤Ĺà¤¾
ĠØ§ÛĮØ±Ø§ÙĨ ÛĮ
ĠÎ£ Î¥
ĠØ£ Ø¯
Ġdá»± ng
er w
à¤°à¥įà¤ ¥
Ġà°¬ à±įà°°
Æ°á»£ t
à®ķ à¯ģ
I E
ÙĩØ§ÛĮ ÛĮ
i os
à®¿à®¯ à®®à¯į
un ia
ard s
áĥĺáĥķ áĥĶ
Î½ Ïİ
Ġà®ķ à®¾à®£
ãģ¨ ãģĭ
è¯ ¥
Ġà¦ªà¦°à§įà¦¯ à¦¨à§įà¦¤
ãĥ³ãĥ Ĺ
Ć ï¼Į
Ġà¦Ĩà¦ª à¦¨à¦¿
en as
â ĺ
Ø´ÙĨ Ø¨Ùĩ
Ġcon f
Ġà°® à±Ģà°°à±ģ
Õ¥ Öģ
ĠÎ³ Î½Ïī
ÉĻr ÉĻk
c as
ter s
ĠØ§ÙĦØ° ÙĬÙĨ
Ġis a
ĠáĥĲáĥ®áĥļ áĥĲ
Ġd us
Ġà¦Ľ à¦¾à¦¤à§įà¦°
Ġà¹Ģà¸ ŀ
Ġ ÉĻh
Ùĥ Ø¯
f ol
iyy ÉĻti
Î¶ ÎµÎ¹
Ġáĥ£áĥłáĥ Ĺ
ë ¹
Ġà®ķà¯Ĥ à®Łà¯įà®Ł
ì¶ľìŀ¥ìĥµ ìĺĪìķ½
áĥĲáĥ¨áĥĿáĥłáĥĺáĥ¡ áĥĿ
ĠØ¨Ø± Ø¯
áĥ¢ áĥĻ
åĥ ı
Ġpag s
ĠÙĩÛĮ ÚĨ
m iento
Ïħ Ïĩ
Ġb Ã¬nh
âĢ¦âĢ¦ âĢ¦âĢ¦
à¤ķà¥įà¤· à¤¾
áĥ£áĥł áĥĲ
Ġp ov
Ġv ida
ĠáĥĴáĥĲáĥľáĥĲáĥªáĥ®áĥĲáĥĵ áĥĲ
Ġà®İà®©à¯įà®ª à®¤
Ġs Ã³
Ġe ach
ÏĦ ÎµÎ¹
×ķ×ľ ×ķ×Ĵ
×ł ×Ļ×Ķ
ä¸Ģ ç¯ĩ
Ġ×ķ ×ľ×Ķ
ìĹ Ĩ
i es
Ġà®µ à®¿à®µ
ĠÐ¿ Ð¾Ð½
Ġà¤Ł à¥įà¤°
ĠD an
Ġpri x
Ġ à¹
Ġby la
Ġà®ķ à®¤
c ov
Ġo hne
å·¥ ç¨ĭ
ĠÏĩÏģÏĮ Î½Î¹Î±
ĠÎ¼ Î¯Î±
ĠØ§ÙĦØ´ ÙĬ
Ġg ut
ĠØ¢ÙħØ±ÛĮÚ© Ø§
Ġà°² à±ĩà°ķ
é» Ħ
ãģª ãģĮ
Ġà®¤à®² à¯Īà®µ
Ġà¦¹ à¦¾à¦°
Ġà¦¬ à¦¸
ĠÙĨ Ø³Ø¨
Õ¡Õ½ Õ¿
Î´ ÎµÎ¹
ĠçĻ¾å®¶ ä¹Ĳ
Ġà°¦ à±Ģ
Ġr umah
ĠØ§ÙĦØ¥ Ø³ÙĦØ§Ùħ
ĠÙĪ ÙĥØ§ÙĨ
åıª ä¸º
Ġr om
c ato
ĠØªØºÛĮ ÛĮØ±
Ú¯ Ø±Ø¯
Ġà¤® à¤¾à¤¨
wa Äĩ
ĠØ¢Ø² Ùħ
Ġpro c
Ġtra va
ĠNg uyá»ħn
Î¾ ÎµÎ¹
ĠÐŁ Ð¾Ð´
à±ģà°² à±įà°²à±ĭ
us u
up un
Ħ à¸£à¸²à¸°à¸
Ġà°¤à±Ĩà°² à°Ĥà°Ĺà°¾à°£
ĠÐľ Ð¾ÑģÐº
h u
ĠrÃ© p
Ġb este
d at
Ġpro gr
ĠÄĳ Ã¡
ĠÎ½ Îµ
à°°à±įà° ķ
Ġà§§à§ ¨
×Ļ×¤ ×ķ×ľ
ĠáĥĽáĥ£áĥ¨ áĥĲáĥĿáĥĳ
il ecek
ist ra
ĠÄį as
Ġg ener
ĠScar pe
ãĥ¼ãĥ Ĺ
Ġáĥ¡ áĥĺ
Ġh Æ°á»Ľng
à¦¿à¦ «
Ġtu á»ķi
à®¯ à¯į
ĠÙĨ ÙģØ±
Ġda v
Ġà´ ¨
Ġgj Ã¸r
à¦Ĥ à¦¶
Ġíķ¨ ê»ĺ
Ø§ÙĦ Ùĥ
Ð¾Ð¿ÑĢ Ð¾Ñģ
Ġi di
ĠáĥĽáĥĿáĥ Ĺ
ĠÐ´ ÐµÐ½ÑĮ
Ġkh á»ı
Ġ ãģŁ
çĽ ĺ
am enti
áĥĲáĥĴ áĥĲáĥľ
ÑħÐ¾Ð´ Ð¸Ð¼
à°Ĥà°¤à±įà°° à°¿
Ġn enÃŃ
ĠáĥĴáĥĲáĥĽáĥĿáĥ §áĥĶáĥľ
èŃ ¦
ĠÎŃ Îº
Ã© t
ëŁ °
ĠáĥĲáĥ¥ áĥ¢
Ãĥ O
d aÅŁ
à®¿à®² à®¿à®°à¯ģà®¨à¯įà®¤à¯ģ
áº· ng
ĠM ais
Ġng ay
Ġp igment
Î¿Ïį Î¼Îµ
ĠÃ© g
ĠÃ©ta it
Ġn um
ĠÃ Ĩ
ĠÛ² Û°
:: ::
ĠÙĪÙĤ Ø§ÙĦ
or to
ĠØ³ Ø§ÛĮ
Ġmaaar ing
ãĤ¿ ãĤ¤
qu er
Ġ×ŀ ×ķ×¦
æī ¹
Ġr az
ĠG esch
Ġáĥ¡ áĥĺáĥ¡
æ² ¹
at ang
ØªÙħ Ø¹
Ġas ÃŃ
è± ¡
ï¼ ĵ
ĸà¸ ¹à¸ģà¸
à¨ ¦
èİ ·
ĠÚ©ÛĮÙģ ÛĮØª
ĠÐº Ð²
ĠáĥĽáĥĺáĥ ¬
çļĦ ãģª
ĠØ² ÙĬ
Ġlá» Ŀi
ĠÃľ ber
ĠÙħØ¯ÛĮØ±ÛĮ Øª
Ħà¸£à¸²à¸°à¸ «
ç« ł
Ġl ib
æīĭæľºçīĪ ä¸ĭè½½
ĠØ§Ùħ Ú©Ø§ÙĨ
ĠÄĳ áº·c
Ġà°°à±Ĩ à°Ĥà°¡à±ģ
à¯Īà®¯ à®¿à®©à¯į
Ġsah ip
Ġ( "
Ġà¸ ģà¸£à¸
ç´ ł
Ġìļ ©
makt adÄ±r
ÑİÑĤ ÑģÑı
Ġà°µà±įà°¯ à°ķà±įà°¤
æĻ ®
Ġà¸ ģ
ce ÄŁ
Ġï¼ ı
à§ĩà¦ ¯à¦¼
åģ ·
à¯ģà® Ļà¯įà®ķà®³à¯į
ç¢ °
Ġ ÉĻ
Ġ×¨ ×ĳ
Ĺ à¸£à¸
Ġ à¹Ĩ
Õ´ Õ¡Õ¶
à®¿à® £
l ÉĻy
Ġà®ªà¯Ĩ à®¯
Äį ek
Ġpagk atapos
Ġà¹Ģà¸ Ĭ
Ġge z
èª ŀ
áº± m
Ġpro b
ĠÐĿ Ð¾
ìĸ µ
ĠV ous
ĠÐ¾ÑĢÐ³Ð°Ð½ Ð¸Ð·
99 9
ĠÙģ Ø±Ø¯
Ġà¦® à§įà¦¯
Ã£ y
à°¿à°² à±į
ar zy
Ġà¤ļ à¥ģà¤¨
Ġáĥ¤ áĥł
Ġkar ÅŁÄ±
Ġæ ¥
Ġà®¤à¯Ĩà®° à®¿à®¯
à°¾à°³ à±įà°³
Ġp k
é ¥
Ġ3 56bet
èª ī
de j
el as
æ® µ
ĠÎ±Î½ ÏĦÎ¯
ĠÎµÏĢ Î±
à¤ Ľ
à¤¿à¤ §
Ġà®¤à¯Ĭ à®´
à±Ģ à°²à±ĭ
ĠÐ¼ Ð°Ð³
Ľà¸£à¸°à¹Ģà¸Ĺà¸ ¨
à±ģà°¤ à±Ĥ
aw ah
tiv itÃł
Ġpre ci
ÙĪ ÙĬØ±
Ú©ÙĨ ÙĨØ¯
Ġs te
ªà¸ ¡à¸
Ù¾ ÛĮ
_ c
à¹ģà¸ ģ
Ġê°Ģ ëĬ¥
à¸Ńà¸¢à¸¹ à¹Īà¸
Ġz w
en h
Ġà¤īà¤¨ à¤ķà¥ĩ
à°¿à° ¬
Ø¨ ÛĮÙĨ
Ġt en
Ġc itt
à¸Ļà¸± à¹īà¸Ļà¸
Ġa Ã±o
Ġt iáº¿t
ãĤį ãģĨ
ãĥĥ ãĤ°
Ġáĥ¡áĥĲáĥĶáĥłáĥĹ áĥĲáĥ¨áĥĿáĥłáĥĺáĥ¡áĥĿ
ì Ĥ
ĠTer b
Ġdiff er
Ġà®µ à®²
à¯ģà®¤ à®¾à®©à¯į
Ġë² ķ
Î½ ÏĮ
à¦¿à¦ķ à¦¾
Ġìĭ ¬
Ġkh Ã³
Ġà¸ªà¸ ¡à¸±à¸
ãģ® ä¸Ń
ĠÛĮ Ø§Ø¯
Ġà®Ĵ à®©à¯įà®±
à±Ģ à°ķ
Ã¶ ne
ĸà¸ ·à¸Ń
à¸µà¸¢à¸ ĩ
ĠÑĢÐ°Ð· Ð²
ut t
Â ¸
ĠT o
esz cze
Î¼Î¹ Î¿ÏħÏģÎ³
Ġan cora
Ġ×ŀ×¡ ×¤×¨
è¯ Ĩ
Ġinc ont
Ġà°¤ à°°à±įà°µà°¾à°¤
à¤¤ à¥ĭ
il idad
Ø¯Ø§ ÙĪÙĦ
à®¿à®¤ à¯į
ad t
ek er
ĠÎ² Î¬
Ħ à¹īà¸²à¸
Ä° L
Ġ×Ķ×ŀ× ¡
Õ Ń
à¦¾à¦® à§ĩà¦°
ĠÛ ³Û
Ġ' ).
ĠÐ±Ñĭ ÑĤÑĮ
æĪ ¦
ÏĥÎµ ÏĦÎµ
Ġ×Ķ×Ļ ×ķ×Ŀ
áĥĲáĥł áĥĺáĥĲ
Î»Î» Î¿Î½
Ð½ ÐµÑĤ
à¨ ¸
ĠÐ±Ñĭ Ð»Ð¾
a cji
ĠÃ Ļ
Ġre m
ĠÑĩÐµÐ»Ð¾Ð² ÐµÐº
ĠÎ´ ÏħÎ½Î±
ļà¸²à¸ Ħà¸²à¸£
áĥĺáĥł áĥĶáĥĳáĥ£áĥļáĥĺ
Ġw o
t Ä±k
Ġà®¤ à®ķ
Ĺà¸ ĺ
Ġìļ ´
ĠÙħØ´ Ø®Øµ
áĥľ áĥĺáĥĹ
iy on
ĠÙĪ Ø¯
Ġà¦°à¦¹ à¦®à¦¾à¦¨
ÙĨ Ø¹
Ø¸ Ø§Ùħ
Ġv ai
éĶ Ģ
ĢâĻ ĢâĻ
ĠØ§ÙĦØ³Ø¹ÙĪØ¯ ÙĬØ©
ĠÐ· Ð´
ÙĩâĢĮ ÙĩØ§
ÎµÎ¹ ÏĦÎ¿ÏħÏģÎ³
Ö ĩ
Ġáĥ¨ áĥĶáĥ¥
ĠÐ²Ð¾Ð· Ð¼Ð¾Ð¶
ÏģÎ¯ ÎµÏĤ
ÉĻs ini
Ø§Øª Ùĩ
ĠáĥĵáĥĲáĥĺ áĥ¬áĥ§
ĠÎ» ÎŃ
ĠÃ¶ ÄŁren
ul ad
Ġesp eci
Ġ×ł ×¤
Ġà¦Ĺ à§ĩà¦Ľà§ĩ
Ġap ar
4 9
Ġsu b
Ïĥ Î¼Î±
ĠÃ ·
ĠÎ± ÏĨ
çı Ń
ĠÐķ ÑģÐ»Ð¸
Ñĥ Ð»Ñı
Ä° R
ĠØ§ÙĦØ¹ ÙĦ
è² »
ĠíĮ Ĳ
Ġà¦¬à¦¿à¦· à§Ł
Î±Ïĥ Î¯Î±
Ø¯ÙĬ Ø«
ĠØ¯ Ø§Ø®ÙĦ
áł ¢
ĠÑģÐ» ÑĥÑĩ
Ġà¦ħ à¦ª
à¦¾à¦ ·
ĠÂ §
Ġs á»©c
Ġë§ ŀ
Ġà¦¬à¦¿à¦ ª
ĠìĤ ¼
à¤ķ à¥įà¤¤
ĠÕ Ŀ
Ġè ī
å£ °
Ġà¦ķ à§įà¦¯
Ġì² ´
ning en
ĠÐ±Ð¾Ð» ÐµÐµ
æ¸ ©
è¾ ¹
Î» Î¯Î±
ÙĪ ÙĬÙĦ
à®¿à®°à¯ģà®ķà¯įà®ķ à®¿à®±
ĠØ¹ÙĦÙĬ ÙĩØ§
Ġit ali
ist as
ĠÙĬ Ùı
ĠÑĢ ÐµÐ·
Ġëĭ¤ ë¥¸
et ail
Ġx Ã¢y
ĠâĢĿ ,
à§įà¦° à§Ģ
Ġà®¤à¯ĩ à®µ
Ùħ Ø¨Ø±
ĠÚ¯Ø° Ø´ØªÙĩ
Ġà¦¢ à¦¾à¦ķà¦¾
à°² à±įâĢĮ
Ġà°® à±Ĩ
ĠqÉĻb ul
ĠOs lo
æŀ ģ
×ķ×ĳ ×ķ×ª
ĠÙĪØ§ÙĦ Ø¥
Ħà¸ ¥
à±ĩà° ¦à°¿
Ġìłľ ê³µ
Î»ÎµÏħ ÏĦÎ±
Ġ×Ĳ ×¡
Ġà®ª à®Łà¯įà®Ł
ĠE k
Ġmay or
ĠØ§Ø¬ØªÙħØ§Ø¹ ÛĮ
ĠØ³ Ùħ
ar aq
çĽ Ĭ
Ġ×ª ×ľ
p rav
ĠÐ¿ÑĢ Ð¸Ð²
Ð½Ð¸Ðº Ð¸
ĠÏĥÏĩ ÎŃ
ick Ã©
×ķ×ŀ ×Ļ×Ŀ
Ġb áº¯t
ĠÐĴ Ñģ
ĠÑĦ Ð¾ÑĢÐ¼
à¤¿à¤ Ĺ
z ÃŃ
Ġìŀ Ħ
Ġth áºŃt
¨à¸ ¶à¸
ĠëĲ ľ
Ã¤n d
à¥ģà¤³ à¥ĩ
Ġà®µ à®¿à®´
Ø±ÛĮ ÙĤ
áº· p
si Ã³n
Ġj adi
Ġz wei
×Ļ×§ ×¨
ĠØ´ ÛĮ
u ally
ĠØ§ÙģØ± Ø§Ø¯
Õ¡Õµ Õ«Õ¶
ab ile
ĠÙĨØ³Ø¨ Øª
Ġìł Ĳ
Ġà°İà°¨à±įà°¨ à°¿à°ķ
á» ĥ
Ġk in
Ġsa t
Ð¾Ð² Ð°ÑĤÑĮ
ĠÙĪØ§ÙĤ Ø¹
Ġin kiÅŁaf
Ġpk 10
eld ig
æķĻ èĤ²
Ġm Ã¼n
Ġà°ķà±Ĭ à°¤à±įà°¤
Å¡ en
Ġte ch
à§ģà¦ ģ
ë§ Ŀ
ĠÄĳ áº¡o
ĠæĿ ±
é¢Ħ æµĭ
ler de
à§ĩà¦Ľ à¦¿
Ġë¬´ë £Į
ĠiÅŁ tir
ãģ® ãģ§ãģĻãģĮ
Ġà¤®à¥ģà¤ ĸ
à¦¿à¦¯à¦¼ à§ĩ
Ġf iyat
neh men
ĠÐ²Ñĭ Ñģ
Ġà¦¥ à¦¾à¦ķà§ĩ
ãĥ³ãĥ ģ
to u
æĪĲ äºº
ur n
æĶ¿ åºľ
Ð¾ÑĢ Ð¾ÑĪ
Äį as
ĠĈ ć
Ġà°¸ à°¹
l ung
Ġre l
Ġc ur
it Ã¤t
Ñı Ð´
Ġlu Ã´n
Ġà°¤ à±Ĭ
aÅŁ dÄ±r
å¼ ł
Ø±ÙĬ ÙĤØ©
Ġc rÃ©
Ġdi to
Ġ2 22
à°° à±įà°¯
Ġch iáº¿
íĻ ľ
ĠdeÄŁ er
à§ģà¦¦à§įà¦§ à§ĩ
Ġl amang
Ġw ym
Ġ×Ķ×Ľ ×ľ
ĠÕ ¨
on er
d et
Ġi h
ÉĻy y
ĠØ§ÙĦ ÙĪØ²
ĠÐ¿ Ð¾ÑģÑĤ
à¤¾à¤ļ à¤¾
§à¹ĩà¸ ļà¸
à¯ĭ à®°
Ġh Ã¸y
Ġtá» Ń
à¥įà¤ ŀ
v ang
Ġà¦ī à¦ļ
Ġs lik
åĪ Ŀ
cz as
C J
åĨ ľ
Ġr ych
us aha
Ùģ Ùĩ
Ġv a
ih in
Ġà¦¯ à¦¦à¦¿
ĠéĤ £
Ġag ain
ãĤŃ ãĥ£
ĠØ§Ø´ Ø§Ø±Ùĩ
Ġdis c
éķ ĩ
Ġutil is
à°° à±įà°²
c Ã³w
Ġt ÉĻlÉĻb
ĠØ¢Ø² Ø§Ø¯
à§ģ à¦¸
Å¡ t
ìĿ´ ëĤĺ
ĠÃ© qu
å ª
ler inin
ÎĻÎļ ÎĹ
ĠM eng
qu ier
ĠÕ ¹
c ado
ãģ«ãģª ãģ£ãģ¦
Ġes to
ÙĪ Ø³Øª
Ùħ ÙĬÙĦ
Ġf ree
ĠolduÄŁ unu
ĠÙĪÙĩ ÙĬ
Ġh izmet
ÙĤÙĬ ÙĤØ©
et y
Ġ×Ĳ ×ķ×¨
ëĭ ´
à¯Ĭà®° à¯ģ
b u
Ġ×Ļ ×¨
à¤¾à¤ļ à¥Ģ
ich tig
è¯ Ń
ĠÐ· Ð°Ð´
à¥ĩà¤ ·
p uis
Ġal cun
Ġk rij
Ð¾Ð² Ð°
ĠB ut
Ġo x
Ġì² ľ
Ġ ir
à¯ģà®Ł à¯įà®Ł
ÅŁ aq
à°°à±įà° Ĺ
ĠÙĤ Ø§Ø¨ÙĦ
Ġà®µ à®¾à®°
å± ŀ
Ġå¤§åıĳ å¿«3
Ġà®ªà¯ĭ à®©à¯įà®±
áº« u
ĠìĿ Į
à®¾à®Ł à¯ģ
åĶ ®
Ġà®® à¯ģà®ķ
Î½Î¿ Î´Î¿
à¤¿à¤ķ à¤¾
èĲĦ äº¬
Ġnh á»ı
D etail
à°Ĥà° Ń
×Ļ×Ĳ ×ķ×ª
à®¨à¯įà®¤ à®¿à®°
å½± éĻ¢
ig ne
Ġà°ķ à°¾à°¦à±ģ
Ġà°ħ à°®
ĠØ¯Ø§Ø± Ø§ÛĮ
Þ ¬
ĠT H
d iy
à°ķà±įà° ¸
Ġà°§ à°°
Ïĥ Î¹Î¿
Ġp at
ªà¸²à¸¡à¸²à¸£à¸ ĸà¸
à°¾à°² à±įà°¸
rz ym
Ġek s
Ġpra c
Ġne z
Ġq az
Ġm á»įi
ÙĤ Ø§ÙĦ
ĠÙ¾ Ø²Ø´
×ķ×Ĳ ×Ķ
Ġà®Ĩ à®ļ
ÙĪØ¯ Ùĩ
Ġì² ĺ
ĠÎºÏĮ Ïĥ
ê² Ģ
Ġà°ı à°®
Ġm ellom
ĠìĿ Ģ
y en
a ires
Ġv r
à¤¡à¤¼ à¥ĩ
ÙħÙĦ Ùĩ
à®¾à®³ à®°à¯į
ĠÐ¿ÑĢÐ¾ ÑĨ
Ġæ ĥ
Ġsamp ai
à°¾à°µ à±ģ
m uÅŁ
ĠØ§Ø «
ĠmÃł u
ier en
Ħ à¸Ńà¸
ÏĨÎ¿ Ïģ
ĠÐº Ð°ÑĩÐµÑģÑĤÐ²
ĠÑĢ Ðµ
ĠÐ¿ÑĢÐµÐ´ ÑģÑĤÐ°Ð²
ÛĮØ´ Ùĩ
ĠÙħ Ø§Ø´
å° ¼
ĠnÄĽ k
me ye
æľ Ľ
Õ¡Õ ¦
×¨ ×¥
å¤© å¤©
Ġq ay
Ġà®Ĩ à®£à¯įà®Ł
×Ļ×ŀ ×Ļ×Ŀ
Ġà¦Ń à¦¾à¦ĩ
Ġä¸ ľ
ĠØ¯Ø± ØµØ¯
Ø¬ Ø§
f all
×¤ ×ķ
Ġw ÅĤ
Ġdr uh
ĠÎ£ ÏĦÎ·
à±ĥ à°·
Ġl at
Ĥ à¹īà¸²à¸
à®¿à®ķ à®´
ĠÎµÎº ÎµÎ¯
Ġç§ Ĵ
Ķ ëĭ¤
é Į
Ġc usto
Ġngh á»ĩ
Ġav ant
Ġà¦¤ à§Ī
Ġà®®à®ķà¯įà®ķ à®³à¯į
ĠU ne
Ġà¤¸à¤¿à¤Ĥ à¤¹
×ł×Ļ ×Ļ×Ł
ãģķãĤĮ ãĤĭ
Ġ ÅĤ
ÛĮØ² ÛĮ
ĠÐ¾ ÑģÑĤ
Ġà®ª à®¿à®Ł
Ø³ Ùĥ
ĠåĬł æĭ¿å¤§
ĠÐ¼ Ð½
ĠÎ ŀ
ĠØªÙĨ ÙĩØ§
à¤¿ à¤Ĥà¤¦
Ġbo ok
Ġh idup
O W
×¦ ×Ļ
Ġq an
Ø±ÙĬ Ùħ
×ķ×Ľ ×ľ
Ġod powie
à§įà¦¯ à§ĩ
ĠÑģ Ð¸ÑģÑĤÐµÐ¼
Ġà®® à®¾à®±à¯įà®±
ĠÃ ħ
Ġ3 8
Ġnh anh
zi en
Ġperson as
Ð¼ ÐµÐ½ÑĤ
ie t
ĠëĬ Ķ
ĠÎµÏĢ Î¹Îº
â ĸ
æıĲ ä¾Ľ
×Ļ×¡ ×ĺ
Ġk il
ĠI s
Ø¬ ÙĨ
ĠC as
Ġå½©ç¥ŀäºīéľ¸ 8
Ġha ce
Ġ×ĳ ×ĸ
ĠÙĩÙħ Ø§ÙĨ
Ġph á»ĳ
Ġ×§ ×¦
Ġson u
as iya
Ð°Ð¶ Ðµ
ÛĮÚ© ÛĮ
ķ à¹īà¸Ńà¸ĩ
ĠÑģÑĤ Ð¾
Õ«Õ ¯
Ġmember ikan
ĠdÉĻy iÅŁ
p t
ĺ à¸£à¸£à¸
å® ¤
Ġat as
à¨ ķ
ĠØµ Ø¯
Ġh esab
ëĵ¤ ìĿĦ
Ġ×ľ×ŀ× ¢
à´ £
åľ¨çº¿ è§Ĩé¢ĳ
Ġæī Ģ
ĠÏĮ Î»Î±
Ð¼ Ñĭ
ĠÐ¿ÑĢÐ¾Ð¸Ð· Ð²Ð¾Ð´
ĠØ§ÛĮÙĨ ØªØ±
ĠìĺĪ ìķ½
ĠC u
åĨ ł
ĠÐ· Ð°Ð¼
×ĳ ×ĵ
æ¼ Ķ
Ġbar ÉĻdÉĻ
ĠØ¨Ø§ÙĨ Ú©
ĠâĢ ļ
k Äħ
ĠÎµ Î¹Ïĥ
ĠÑģÐ» ÐµÐ´
Ġà®µà®¾à® Ļà¯įà®ķ
Ġà¸ ļà¸
çµ Ħ
Ø´ Ùĩ
ĠãĤ ¦
lar asjon
ÏĨ ÏĮ
Ðº Ð°Ð·
Ġlu i
Ġn á»¯
Ġje go
Ġan no
à§ĩà¦ ·à§įà¦Ł
w ee
à¯ģà®ķ à®³à¯Ī
æĿ Ĳ
ķà¸²à¸ ¡à¸
Ġs ik
Ġà¦® à§ģà¦ķà§įà¦¤
ul u
Ġà¦® à§Ĥà¦²
ag itan
à°¿à°ķ à±į
è ĸ
ing k
Ġìĭľ ê°Ħ
ĠãĢ ľ
ÉĻ lÉĻri
Ġà°µ à°¾à°Ł
Ġt w
ĠA k
Ð¾Ð± ÑħÐ¾Ð´Ð¸Ð¼
Ġ ãģª
ĠìĿ´ë Ł
Ã¸r s
Ġph á»¥c
Ã¡ri a
ĠØ§ ÙĤØ¯
it ed
ĠH and
èŀ į
ĠØ¬ Ø²
Ġhv a
E K
ed a
ĠØ´ Ú©
czne j
ãĥ¼ãĥ ĸ
Ġs ous
à¯Ĥ à®°à¯į
Ġs ÉĻb
ĠÎł Î¡
Õ« Öģ
Ġâ Ŀ
Ð» Ð°Ð¹Ð½
â Ļ
Ġè¿ ĺ
Ġlain nya
ik ut
ØŃ Ø§Ø¯
ĠÙģØ± Ùħ
ìĿ µ
ĠØ§ÙĦØŃ ÙĦ
à¤¾à¤¤ à¤¾
Ġm akan
Ġà¦¸à¦Ń à¦¾à¦ª
à¹ģà¸ ķà¹Īà¸
Ġç Ħ
r Ã¨s
Î Ĵ
à°Ł à°Ĥ
ãģ£ ãģ
à¤¨ à¤²
Ġm ich
ĠÐ¾ Ð½Ð¸
Ġà¦ĩà¦ī à¦¨
Ø§ÙĦ Ùī
Ġ01 28
ÑģÐº Ð¸Ñħ
à®¤à¯įà®¤ à®¿à®±à¯įà®ķà¯ģ
jÄħ ce
à¤¶ à¥Ģ
à¯Ī à®¤à¯į
Ġdi v
à¯Īà®ķà¯įà®ķ à¯ģà®®à¯į
an c
ĠØª ÙĦÙĥ
R I
H U
Ø§Ø§ Ø§Ø§
à¥įà¤² à¥Ģ
Î¸ ÏģÏī
Â ·
Ùĩ ÙĲ
ĠM il
ç¬¬ ä¸Ģ
ĠD onna
Ġà®ļà¯Ĩà®¯à¯įà®¤ à¯ģ
Ġê°Ļ ìĿĢ
à¥ĩà¤ ¬
a ct
ĠÎĳ ÏĢ
à¤°à¥įà¤ ¸
ĠM et
© ´
ÏĦ Ïĥ
Î¿ Î¯
ĠÙ¾Ø± Ø³
Ġ ud
áº¡ y
Ġà®¨ à®©à¯įà®±
¶ à¹Īà¸ĩ
p or
à¤Ł à¥Ģ
Ġor gan
ìĪ ľ
ĠØªØ¹Ø¯ Ø§Ø¯
à¤¡à¤¼ à¥Ģ
à¥ĭ à¤§
á»« ng
ti gen
Ġhak k
à®¿à®© à®°à¯į
ĠØ¢ Ø³ÛĮ
Ġv Ã¥r
Ġká» ³
ĠÃ© v
ÉĻs s
Ø² Ùĩ
Ġà°µà±įà°¯ à°µ
Ġs ÉĻh
Ġà®ķà®° à¯ģà®¤à¯įà®¤
ĠÙ¾Ø§ÛĮ Ø§ÙĨ
Ġm áº¡nh
alu i
Ġà¦¬ à§ľ
à¸´à¹Ģà¸ Ħà¸£à¸²à¸°à¸«
ĠÎĳ ÏģÏĩ
Ġd Ã¶v
Ġtrabal ho
Ġà´ ħ
Ġw ala
6 7
Ġv áºŃt
ĠãĢĳãĢĲ ï¼
ÑĤ ÑĢ
Ġfaci al
Ġin st
s tav
olo g
j u
ĠD Ã¶vlÉĻt
Å¯s ob
à¦ Ĩ
×ĳ ×ķ×¢
Ġq uyá»ģn
ĠÙĪØ§ÙĦ ØŃ
is mo
Ø¸ ÙĬÙħ
zi m
Ġà°ħà°§à°¿à°ķ à°¾à°°
aÅĤ y
à§Ģ à¦ķà§įà¦·
Ġer a
Ġm nie
r ak
Ġnel le
Ġo yun
Ġmend apatkan
Ġn Æ¡i
ment s
Ġak ing
ì¶ľìŀ¥ ìĦľë¹ĦìĬ¤
ÑĤ Ðµ
wa Å¼
Ġtá» ·
Ġb in
à®ªà¯įà®ª à¯ģ
éĻ į
íķ ´ë
Ġmai or
Ġth anh
ä¸Ń æĸĩ
Ġpro cess
Ð¸Ð½ Ðµ
Ġà¤ķà¤° à¤¤à¤¾
Ġà§§à§ ¯à§
ĠìĿ´ë ²
Ġnh Ã¬n
Ġà¤ħ à¤ļà¥įà¤Ľ
d zy
à§ĩà¦¶ à¦¨
çķ ¥
Þ ª
ĠÕ į
æĻ º
± ¼
Ľà¹ĩ à¸Ļ
Ġc le
Ġl Ã©
Ġà®ļ à®Łà¯įà®Ł
ÎŁÎ ľ
Ġz as
ê° Ŀ
p ek
à¥įà¤° à¥ĩà¤¸
Ġà¦¸ à¦°à§įà¦¬
Ġà¤® à¤¾à¤®
ÐµÑģ Ð¿
è Ľ
ĠK e
ĠÙħÙĨØ· ÙĤÙĩ
Î±Î¹ Î¿
Ġ×Ľ ×ķ×ľ
Ġà¦ĵ à§Ł
Î¾ ÎµÎ¹ÏĤ
uk up
åĢ Ļ
Ġí Ī¬
Ø§ÙĦ ØŃ
ä¾¡ æł¼
ĠÙħÙĨ ÙĩØ§
åħ ´
Ġè¦ ģ
Ġv Ã¦rt
Ġthu áºŃt
à§įà¦¯à¦¾à¦¨ à§įà¦¡
Ġkep ada
ĠM a
ÏĦ Î¶
à¹ Ħà¸£
Ġdi gÉĻr
Ð¾Ð² Ð¾Ð¹
Î¼ ÏİÎ½
à®¿à®¨à¯įà®¤ à¯ģ
n u
Ð¿ÑĢ ÐµÐ´
ÙĦ Ø§Øª
ta ti
ãģ¡ ãĤī
g Ã¼n
Ġv ie
Ġav oir
á» Ľi
Ġà°ļà±Ĥà° ¸
Ġz am
à¥ĥ à¤¤
Ġà¦ª à¦¾à¦¶
ªà¹Īà¸§ à¸Ļà¸
à°¾à°¬ à°¾à°¦
Ïĩ ÏģÎ¹
Ġda x
Ġè ¾
à¦¾à¦° à¦¿
ãģ ²
Ġg áº§n
Ġà°ħà°¨ à±ĩ
Ġgel iÅŁ
Ġan t
Ġjed nak
Ġè ½
Ġng ayon
w as
Ġà¦¹ à§ĭà¦¸
h ad
Ġmod o
ĠÉĻv vÉĻl
×Ļ×ĳ ×ķ×¨
à¤ķ à¤¾à¤°à¥Ģ
ĠØ² Ø¨Ø§ÙĨ
Ġà¦ª à¦¾à¦²
Ġ×ľ×Ķ ×Ĵ
ĠÎĿ Î±
ãģĶ ãģĸ
Ġpamam agitan
Ġt Ã©
Ġà¦ħ à¦¤
ĠÙħØª ÙĨ
Ġà¦ĸ à§ģà¦¬
Ø¶ Ø§ÙģØ©
é Ĭ
Ġìķ ½
ä¾ Ŀ
ìł ¸
à¦¸ à¦¹
ĠT amil
Ġà®µ à®¾à®¯
ãĤ³ ãĥŁ
ĠìĤ ´
à¤¿à¤² à¤¾
ĠÏĩÏī ÏģÎ¯ÏĤ
ÐµÐ½ Ð½ÑĭÑħ
Ã¶y le
Ġç ģ
li a
m az
Ġ ãģ«
ÙĢÙĢÙĢÙĢ ÙĢÙĢÙĢÙĢ
çī Ľ
am entos
Ġï¼ ĳ
cz na
à¤¾à¤µ à¤°
Ġá¼ Ĳ
Ġà®µ à®¿à®ļ
ÏĢÎ¿ ÏĤ
Ġà°īà°¨à±įà°¨ à°¾à°¯à°¿
æ¹ ĸ
Ġv last
Ġpr ost
Ġè ¥¿
è Ĺ
à¥įà¤Ł à¥Ģ
ĠÎµ Î»Î»Î·Î½
ĠD at
Ø² ÛĮÙĨÙĩ
Ġ201 3
Ġle ad
·à¸Ń à¸Ļà¸
ĠÐ¸Ð¼ Ðµ
Ġà®®à¯ĩà®² à¯ģà®®à¯į
Ð¸Ñı ÑĤ
Ġto ll
Î» Î¹Î¿
á»ķ ng
ĠæĹ ¶
§à¸ ĩà¸
ĠÑĥ Ð²
Ġay r
à¨¾à¨ Ĥ
ÅĤ em
å¿ħ è¦ģ
Ġd ov
ĠD u
ĠÄĮ esk
à§įà¦Ł à¦¾à¦°
Ġav ail
Ġge gen
ªà¸³à¸« à¸£à¸±à¸ļà¸
ÏĦÎµ Ïį
á½ ¸
Ġà®° à¯Ĥ
ĠÙĦ Ø¨
Ġv ik
Ġà®ļ à¯Ģ
Î¯Î¶ ÎµÎ¹
Î¾ Î¹
ĠÑĩ ÐµÐ¼
Ġfor m
Ġë¬¸ ìłľ
à®Ļà¯įà®ķà®³ à¯ģà®ķà¯įà®ķà¯ģ
à¯ģà®£ à¯įà®Ł
æĹ¥ æľ¬
Ġf l
çĶ ³
ĠíķĦ ìļĶ
Ġà¦ľà¦¾à¦¤ à§Ģà§Ł
ĠØ´ ÛĮØ±
Ġar ound
ti ge
à¦¨ à§Ģ
Î½ Î¬
ĠP ÅĻ
Ð Ĺ
Ïĥ ÏĥÎ±
å¿ Ĺ
ĠíĬ ¸
Ġdes p
Ã© ra
éª Ĺ
re d
Ġqu ello
and Ä±
ãĤī ãģĦ
à°¿à°¨ à±į
ãģĹãģ¦ ãģĦãģ¾ãģĻ
Ġdo en
×¨ ×¡
×Ĳ ×ľ
Ġk m
Ġà®µ à®¯
×Ļ×Ĺ ×Ķ
Øº Ùħ
ĠÏĢÎµÏģÎ¹ÏĥÏĥÏĮÏĦÎµ ÏģÎ±
ĠØ´ Ø®Øµ
ler ine
Ġà°° à°¾à°®
Î¼ÎŃÎ½ ÏīÎ½
ĠC ara
ĠN ous
ì £
ĠìĦł íĥĿ
Ġë ¥¼
à¥ĭ à¤ª
ĠØ§ÙĦÙģ ÙĦ
Ġà®µà¯Ĩà®³ à®¿à®¯
ĠØ§Ø± ØªØ¨
Ġka Å¾d
Ġvol gen
Ġì¹ ĺ
Ġd uy
Ġpr in
ÙĪØ¯ ÛĮ
Ġí ŀ
ĠÑģ Ð´ÐµÐ»
Ġseh ingga
Ġ×¡ ×¤×¨
Ġb á»Łi
×ŀ× §
Â ¿
ĠØ§Ø±ØªØ¨ Ø§Ø·
ì¹´ ìĺ¤
Ġ×©×ľ ×Ļ
Ġ×Ĳ ×Ļ
Ð¾Ñģ Ð¾Ð±
Ø± Ø®
ÙĪ ÙĦÙī
em iz
Ġf atto
Ġth ay
à±įà°¸ à±įâĢĮ
à§ĭ à¦¹
ĠD engan
Ġwh ile
ÏĦÎµ Ïħ
Ġà°µà°¿à° ¡
ÉĻhs il
à±Ĩà°Ł à±į
Ġ Ã¼rÃ¼n
éľĢ è¦ģ
h ay
Ġb iáº¿n
à¹Ħà¸ ĭà¸
Ġb innen
Ġà®ªà¯Ĩ à®°à®¿à®¯
ë ĥ
Ġà°ªà±įà°° à°¤à±įà°¯
Ġob at
à¥ĩà¤ ³
à¦¿à¦ ·à§įà¦Ł
à¤£ à¥Ģ
à®¾à®µ à®¿à®©à¯į
ait u
q a
ĠÙĦ ÙĬØ³
Ġà¦¬à¦¿à¦¶ à§ĩà¦·
éĿŀ åĩ¡
Ġà°Ĵ à°ķà±įà°ķ
ĠÙĦ ÛĮÙĨÚ©
ëĳ ĳìĿ´
Ġ×¨ ×Ľ
Ġin forma
ĠìĦľ ë¹ĦìĬ¤
Ġto p
ĠÃ© le
Ġà°Ĺà±ģà°° à°¿à°Ĥà°ļà°¿
ĠD a
ti ques
Ġ×ĳ ×Ł
Ġà¨ ª
Ġvax t
or ang
Ġin s
Ġre ally
×ŀ× Ľ
as ar
Ġà®ªà®ķ à¯ģà®¤
Ġà¤® à¤¾à¤°
æł ¸
Ġberb agai
ĠNew s
Ġi ki
len dir
ĠØ§ ÙĬ
à®¾à®µ à®¿à®²à¯į
Ø¶ Ø±
à¦¾à¦ĩ à¦Ł
Ġâĸ ł
à¦ ¯à§ĭà¦Ĺ
Ġsu as
Ġap res
ëŀ ¨
Ġà¦ªà§įà¦°à¦¤ à¦¿à¦·à§įà¦ł
ĠQ ar
×¢ ×¨
Ġà¤ĺ à¤°
ë§Ľ ìĤ¬ì§Ģ
s Ä±z
Ã¡v Ã¡
Â ±
Ġdzi aÅĤ
ĠØ§ÙĦÙħ Ùĩ
Ġçİ¯äºļ æ¸¸æĪı
ĠØ¬Ùħ Ùĩ
ĠìĿ Ħ
ĠÛ ¶
Ã¼ ÄŁ
Ġc am
Ġmen sen
c ci
ĠN gh
Ïģ Ïį
Ġa lÄ±
ĠãĢģ ãĢĮ
Ġe ar
ĠN ag
ĠÕ ¬
Ġà¦¸ à§įà¦ķ
Ã Ĺ
áĥĶáĥ¢ áĥĺ
áĥĺáĥ¢áĥĶáĥ¢ áĥĺáĥ¡
ĠáĥĴáĥĲáĥĵáĥĲáĥ¬áĥ§áĥķ áĥĶáĥ¢
ĠáĥĶáĥĻ áĥĿáĥľáĥĿáĥĽ
ĠáĥĽáĥĿáĥ Ļ
áĥ¨ áĥĺáĥł
áĥľ áĥĶáĥ¡
Ġáĥ¤ áĥĿáĥłáĥĽ
áĥĶáĥłáĥ ľ
ĠáĥĽáĥĹáĥĲáĥķ áĥĲáĥłáĥĺ
Ġáĥ¡áĥ®áĥķáĥĲáĥĵáĥĲáĥ¡ áĥ®áĥķáĥĲ
Ġáĥ£áĥ ĸ
ĠáĥĲáĥł áĥĲáĥ¡
áĥĲáĥª áĥĶáĥĽ
áĥĺáĥķ áĥĺ
áĥĴ áĥ£áĥ¤
Ġáĥ£áĥłáĥĹ áĥĺáĥĶáĥłáĥĹ
áĥĺáĥļ áĥĶáĥĳáĥĲ
áĥ« áĥ¦
Ġáĥ¨ áĥĺ
áĥ£áĥ¨ áĥĲáĥĿ
Ġáĥ¨áĥĶáĥ® áĥķáĥĶáĥĵ
ĠáĥĴáĥķ áĥĶáĥłáĥĵ
Ġáĥĳ áĥĿáĥļ
áĥĸ áĥĲáĥķ
áĥĶáĥľ áĥ¡
áĥĺáĥľ áĥĲáĥľáĥ¡
Ġáĥ®áĥĶáĥļ áĥĺáĥ¡áĥ£áĥ¤
ĠáĥĲáĥ¡ áĥĶáĥĹáĥĺ
áĥĲáĥĸ áĥĺ
áĥłáĥª áĥĶáĥļ
ĠáĥĽáĥĲáĥĺ áĥľ
ĠáĥĴáĥĲáĥľáĥĽ áĥĲáĥķáĥļ
áĥĺáĥ¡ áĥĺ
áĥłáĥ« áĥĶáĥļ
áĥĶáĥ ĸáĥĶ
ĠáĥĴáĥĲáĥĽ áĥĿáĥķ
ĠáĥĴáĥĲáĥľáĥĽáĥĲáĥķáĥļ áĥĿáĥĳáĥĲáĥ¨áĥĺ
Ġáĥĵ áĥĶáĥĻ
áĥ£áĥľ áĥĵ
Ġáĥ¡áĥŀ áĥĶáĥª
Ġáĥ¢ áĥĶáĥļ
ĠáĥĴáĥĲáĥľ áĥĲáĥĹ
áĥĿáĥĵ áĥĺ
áĥ¡ áĥĲ
Ġáĥ¬ áĥļ
ĠáĥĲáĥĽ áĥĺáĥ¢áĥĿáĥĽ
áĥĶáĥĽáĥĳ áĥĶáĥłáĥĺ
áĥĶáĥĿáĥĳ áĥĲ
áĥĲáĥŀ áĥĺáĥł
ĠáĥĽáĥĲáĥĺáĥľ áĥª
áĥĶáĥĳ áĥĲáĥĹ
ĠáĥĽ áĥĲáĥłáĥĹ
Ġáĥľ áĥĲáĥĹ
ĠáĥĲáĥł áĥĺáĥĲáĥľ
ĠáĥĲáĥ£áĥ ªáĥĺáĥļ
áĥĲáĥļ áĥĺáĥĸ
Ġáĥł áĥĲáĥ¢
áĥ¡ áĥŀ
áĥ¡ áĥĶáĥľ
áĥĲáĥĻ áĥ£áĥĹ
áĥ£áĥ¡ áĥ¢
Ġáĥ¡áĥĲáĥ¡ áĥĲáĥĽáĥĲáĥłáĥĹáĥļ
áĥĶáĥĹ áĥĶáĥ¡
Ġ201 5
ca ÄŁ
Ġà¦¬ à¦¿à¦¨
à¹ģà¸ ¡
Ġé Ĺ
áĥ¢ áĥĿáĥĽ
Ġ×Ķ ×Ļ×ķ
é¤Ĳ åĬłçĽŁ
ĠSain t
ĠÙħÙĪ Ø§Ø¯
ĠØ£ Ø®Ø±Ùī
Ġà¤«à¤¿à¤² à¥įà¤®
é º
ĠÚ©Ùħ Ú©
Ġx Ã¼sus
ĠÎ³ ÏģÎ±
áĥĶáĥĳ áĥĲáĥĸáĥĶ
ç Ł³
áĥĶáĥ ¬
Ġg h
Î´ Î¯
em me
Ġpr Ã¡v
×ķ×ĵ ×Ļ
ĠÛ ¹Û
Ķà¸ ¹à¸
à¤ı à¤¸
áĥĺáĥ ¯
ĠáĥĻáĥĿáĥľ áĥĻ
Ġt es
Ġà¤ħ à¤µ
Ġà°¸ à°Ĥà°¦
åº ķ
ĠÐĲ Ð½
at her
Ġt ungkol
à« ĩ
« à¸²
Ã© p
Ġs iden
Ķà¸ ¹
Ġíķ Ń
ant u
Ġoff er
ãĥ© ãĤ¹
ĠÚ© Ø§ÙħÙĦ
ĠmÃ¼ h
ãģĵãģ¨ ãĤĴ
Î¸Î· ÎºÎ±Î½
Ġon de
Ġgod t
Ïĩ ÎµÎ¯
Ġà§¨à§¦à§§à§ ¯
ub uh
Ġáĥ¢áĥĶáĥ¥ áĥľ
Ġà°¨à°¿à°° à±įà°µ
m Ã©
Ġà¤ħ à¤¸à¥ĩ
at kan
Ðº ÑĢÐ°
Ġtá»¥ c
Î³ Î¼Î±
ĠThe y
ãĤ ¡
Î² Îµ
à§ĭ à¦ľà¦¨
Ġà°¹ à±Ģà°°
Ġà®ļà¯Ĩ à®²
Ġê· ¼
×Ļ×ł ×ķ×ª
44 7
Ġt ÉĻh
Ġm ee
Ñĥ Ð³
! !
æ ½
or n
ĠØ¯ ÙĦÛĮÙĦ
éĩį è¦ģ
Ġà®®à®ķà¯įà®ķ à®³
æ£ĭçīĮ æ¸¸æĪı
à±ģà° ·
Ġìĭľ ìŀĳ
à¤¾à¤² à¥Ģ
ĠØ³ Ùģ
Ġv ir
Ġge v
in si
Ġf otos
A Y
al ing
é¡¹ çĽ®
Ġc asa
k ÉĻm
¥à¸ ¹à¸ģà¸
Ġg ur
acion al
ate g
gen d
Ġad ian
Ġtu do
ç ¸
Ġçİ ĭ
et a
ĠUn d
åİĨ åı²
ì¶ ķ
Ġre ci
Ġ03 9
Ġç «
Î´ Ïİ
ÐµÑĤ Ñĭ
à¤¿à¤¤ à¥Ģ
à¤¾à¤ ĸ
á¿ ¦
Ġ4 8
er er
áĥļ áĥĶáĥ¡
Ġna w
ĠëĶ° ëĿ¼
Ġà¤²à¥ĩ à¤ķà¤°
ĠØ¬ ÙĪ
ãģ¨ ãģĵãĤį
Ġar asÄ±nda
Ġáĥ¡áĥĲáĥ Ĺ
Ġà°®à°¾à°Ł à±įà°²
Ġ×ľ ×ļ
Ġà¦¸ à¦¾à¦¹
à¤¾à¤ ¡
Ġà¦¬ à§Ī
Ġà¸ Ľà¸
ĠÎĳ ÎĿ
aw alan
cÃŃ ch
an to
Ġph Ã¢n
ĠÙ¾ Ø§Ø±
ĠãĤ ±
Z I
Ġ à²
Ġar ri
Ġê²ĥ ìĿ´ëĭ¤
à±Ĩà°ķ à±įà°Ł
Ġèī ²
à®¿à®¯ à®¾
Ð°Ð½ Ñģ
Ġà°ĩ à°Ĥà°ķ
Ġà¸Ħ à¸²
ĠM er
ĠÙĨ ÙĪØ±
Ġdies er
ĠáĥĻáĥķ áĥĺáĥł
Î¼ Î¯
o ch
Ġáĥĵ áĥĲáĥłáĥ
ãĥĸ ãĥ©
Ġinform atie
ĠÙħØ¬Ùħ ÙĪØ¹
J I
ĠV an
ĠA no
Ġby lo
ĠC e
Ġà®ħà®°à®ļ à¯ģ
Ġst Ã¸r
Ġsa men
Ġà°ľ à°Ĺ
ei m
Ġæ ı
v eis
à¤°à¥įà¤ ¶
ÙĤ ÙĪÙĦ
ĠÏĢÏģÎ¿ Î²
ĠÐ¸ Ð³
main an
à®¿à® Ļ
ĠØ¨ÛĮ Ø§ÙĨ
Ġch ild
åľ ĭ
æį ¢
à±ĥ à°¤
ĠÐ¿Ð¾Ñģ Ð»Ðµ
ÙİÙĬ ÙĴ
Õ¡Õ ·
à®¿à®© à®¾à®°à¯į
à§įà¦¤ à¦¾à¦°
§à¸±à¸Ļà¸ Ĺà¸µà¹Ī
Ġh áº¿t
Ġà®İ à®£à¯įà®£
Ġ×ľ×¢ ×©×ķ×ª
å¤§ åŃ¦
Ġc are
ĠA u
Ġà¦ª à¦¦
Ġf ic
b be
ĠK inder
sta w
Ġzna j
ĠØŃÙĤ ÙĪÙĤ
Ġà¸ŀà¸Ļà¸ ±à¸Ļ
Ġê¸° ìŀĲ
à¤¿à¤ ¹
Ġkom mer
à°² à°Ĥ
ĠÎº Î¿Î¹Î½ÏīÎ½
Ġph á»¥
n ÄĻ
çłĶ ç©¶
Ġà°ı à°°à±įà°ª
¥ à¹Īà¸²à¸
ĠÎ£ Î¤
à¹īà¸Ńà¸¡à¸ ¹à¸
Ġà¦¯ à§ĭà¦Ĺ
Ã« n
âĢ ĭ
9 0
ĠØªØ± ÛĮÙĨ
Ġin d
ĠÐ± ÑĢ
Ġáĥ¬áĥĲáĥłáĥĽ áĥĿáĥĽ
is sen
Ġà¦¸à¦¾à¦§ à¦¾à¦°à¦£
ty w
à¤°à¥įà¤ ¦
Ġg Ã¥r
ĠØ§ÙĦÙģ Ø±
à°¤ à±įà°¸
Ġà¦Ľà¦¿à¦² à§ĩà¦¨
oll ow
Ø§Ùģ ÛĮ
à¤¾à¤ļ à¥ĩ
sk Ã©ho
Ġë¯¸ êµŃ
Ġà¹Ģà¸ Ľà¹ĩà¸Ļà¸
der s
Ġà¤Ĩ à¤Ī
ÑĢÑĥ Ð·
å± Ĥ
led i
à¤ Ŀ
Ùİ Ø¨
ĠìĻ Ħ
å¤§ å°ı
H I
ĠáĥĽáĥĵ áĥĴáĥĿáĥĽ
Ø§Ø¦ ÙĬÙĦ
ãģ§ãģĻ ãģŃ
ĠÙģ Ø§ÛĮÙĦ
Ġitem Id
Ð¾Ð½ Ð¾Ð¼
à°¡ à°Ĥà°¤à±ĭ
ĠÃ¸ n
Û Ĩ
ĠÎ¼ÎŃ ÏĩÏģÎ¹
áĥĶáĥľáĥ¢ áĥĺ
×ł ×ĵ
Ã¸ s
Ġkon uÅŁ
ĠÙĦ ÛĮ
Ġà°¨ à°¿à°²
Ġà¤¬ à¤ļà¥įà¤ļ
×Ļ×ľ ×ª
à®±à¯įà®± à¯ģ
Ġà®ķ à®¾à®Łà¯įà®Ł
Ġc amp
Ġal gum
Ġl áºŃp
Ġh Ã¡
íķ´ ìĦľ
Ġk eine
é ±¼
Ġa ÄŁ
è§£ æ¢¦
åı İ
ĠëĨ Ĵ
Ġpod le
Ġ×ľ ×ľ×Ĳ
ëĦ ·
æ² Ļ
ÑģÑĤ ÑĢÑĥ
Ġà¦¤ à¦ĸà¦¨
i on
à¥ĩ à¤¹
jÄħc ych
Ġfaz la
Ġcomm un
ĠÄĳ Ã¬nh
Ø¹ ÙĬ
Ġà°¸à°Ĥà° ¬
Ø®Øµ Øµ
à¯įà®µ à¯ģ
Ġs an
Ġserv ici
Ġà¤¸ à¥Ĥ
ĠØ§Ø® Ø¨Ø§Ø±
Ġder ni
ĠÐ¿ Ð¾Ð¿
Ġà®īà®° à¯ģà®µ
ÉĻ ng
m um
Ġf on
Ġtoll dek
Ġà¦ªà§įà¦°à¦¤ à¦¿à¦¬
ob il
i ent
ÙĪ Ù¾
ÎŁÎ ¡
ter e
ĠV Ã½
y d
i Äĩ
Ġv ita
´ à¸Ļà¸
ÅĤu g
Ð°ÑĢ Ð¸
×Ĳ ×ķ
Ġáĥ¡áĥĲáĥĽ áĥ£áĥ¨áĥĲáĥĿ
Ġå¤§åıĳ ä¸Ģ
Ġæīĭ æľº
aga imana
or z
Äį nÄĽ
ĠI ni
Ġ039 447
Ġà®µà®° à¯ģà®®à¯į
à§ ª
Ä Į
æĿ ±
Ġla y
Ġc a
Ġl and
¥à¸ ĩ
ĠØ¯ÙĪØ± Ùĩ
A NG
ĠÙħØ¹ Ùħ
ìĹĲìĦľ ëĬĶ
y al
Ġå¼Ģ åħĥæ£ĭçīĮ
Ġ à¹Ħà¸¡à¹Ī
Ġà°ª à±Ĥà°°à±įà°¤
m l
ĠB Ã¬nh
Ġm áº¹
×ķ×ł ×Ļ×ª
à¤µ à¥įà¤¹
Ð· ÑĭÐ²
Ø¶ Ø©
àµįà´ ¯
Ġsob ie
Ġad ver
Ġà®ļà¯Ĭ à®©à¯įà®©
ow ym
ĠÑĤ ÐµÑĢ
.... ....
å© ļ
ĠT ek
éĿ ł
t n
Ġà°®à°¾à°Łà±įà°² à°¾à°¡
Ġtr á»£
à¸£à¸ ¹à¸
Ø§Ø¦ Ø¯
ĠÑĤ Ð¾Ð¼
Ġê° ģ
Õ¥Õ ¯
Ïī Î¼Î±
Ġáĥ¯ áĥĴáĥ£áĥ¤
is z
Ã´ m
ä¹ ¡
åº ·
Ġ×Ķ×ª ×§
Ġæ į
Ġê·¸ ëŁ¬
er ne
Ġ3 5
Ñı Ð±
Ġseb elum
×§ ×Ļ×Ŀ
à°¿à°Ĥà° Ł
v gr
Ġà¤¸ à¤°à¥įà¤µ
áł ¤
ç¨ ®
áĥĺáĥĹ áĥĲáĥĵ
ĠÏĥÏħ Î³
à¯įà®ª à¯ģ
Ġy aitu
Ġà¦¶ à¦¹
eer d
ĠPro duk
Ð°Ð½ Ð°
ag ens
Ġë¦¬ ë·°
ĠØ§ Ú©
Ġà¦² à¦¾à¦Ĺ
Ġà¤ļà¤¾à¤¹ à¤¿à¤ı
ÅĤ aw
ĠdÃ¼z en
ĠÙĨ ÛĮØ±
Ġcon c
ĠÛ ±
Ġà¦¯ à¦¾à¦ļ
ĠÐ¿ÑĢ Ð¾ÑĤ
Ġì° ¾
Ġç Ĵ
Ø§Ùģ ÙĬØ©
ou l
à¦ª à¦¾à¦¤
Ġb Ãłn
Ġà®ķà¯ģà®´ à®¨à¯įà®¤
3 6
çļĦ ãģ«
Ø¬ Ø²
ģà¸© à¸²à¸
æ¤ ľ
Ġv Ã´
à¯ĭ à®ļ
ãĥŃ ãĤ°
à¤® à¤§à¥įà¤¯à¥ĩ
Ġà°µ à±ĩà°
ĠM o
à¦ķà§įà¦· à§ĩ
Ġc ir
s s
ÎŁÎ ĵ
Ġbir lik
Ġà¦ªà§Ĥ à¦°à§įà¦¬
ĵ áŀ
Ġà°¦ à±ĩà°µ
Ġs um
Ġà°¨ à°Ł
ì½ľê±¸ ë§ĮëĤ¨
Ġà¦² à§ĩà¦ĸ
à¦¨ à§įà¦¯
Ġà°° à±Ĥà°ª
Ġ×Ķ×ŀ× ¦
Ġben ar
íĻ į
est r
Ġ( )
Ġse gu
aÃ± a
ĠÎ» ÎµÎ¹ÏĦÎ¿ÏħÏģÎ³
ëıĦ ë¡Ŀ
íı¬ íķŃ
b an
ĠÃ Ģ
Ġáĥ° áĥ¥áĥĿáĥľ
ĠiÃ§in de
ëĲĺ ëĬĶ
Ġk Ä±s
à¤¾à¤Ĥ à¤¨à¤¾
Ġà®ªà®¾à®° à¯įà®ķà¯įà®ķ
om en
Ġà®ªà®¿à®° à®¤
à¶± à·Ĭ
ĠÚ¯ ÙĪ
èģĮ ä¸ļ
Ġk am
Ġen s
al ne
Ġtemp at
Ħà¸£à¸ ±à¹īà¸ĩ
Ġt aÅŁ
ĠÐ½Ðµ Ð¾Ð±ÑħÐ¾Ð´Ð¸Ð¼
Î½Î¿ Î¹
Ġadver t
áĥĺáĥļ áĥĶáĥĳáĥĺáĥ¡
ĠÙħÛĮ Ø§ÙĨ
âĢ Ķ
Ġå §
à¤Ĥà¤¤ à¥įà¤°
v an
ĠÅŁ ÉĻk
ÙĪ ÙĬØª
ĠÎºÏħ Î²
ĠáĥĽ áĥł
ĠÂ ®
Ġ×¤ ×Ļ
æĸ°éĹ» ç½ĳ
áĥł áĥĿáĥĳáĥĺáĥ¡
Ġj un
Ġâ Ħ
c aya
Ġs iteNo
Item Detail
Ġsal estr
Ġsalestr No
Ã©m u
ĠØ¨ Ø³
Ġne cess
à¨ ²
Ġèħ ¾è®¯
ĠáĥĽ áĥĲáĥ¢
ÙĤ Ø§Ø¡
ĠÎ£ Ïį
ÉĻr k
áĥĿ áĥĶáĥĳáĥĺáĥ¡
Ġáĥ§áĥķáĥĶáĥļáĥĲáĥ¤ áĥĶáĥłáĥĺ
à§ĩà¦Ľà¦¿à¦² à§ĩà¦¨
Ġ ä½ľ
ÐºÐ°Ñĩ Ð°ÑĤÑĮ
A M
aar t
ãĥ¼ ãģ®
áĥĽ áĥĺáĥĹ
ë¸ Ķ
Ġà¦¬à§įà¦¯à¦¬ à¦¹à¦¾à¦°
Õ«Õ ½
Ġï¿½ï¿½ï¿½ï¿½ï¿½ï¿½ ï¿½
ŀà¸ ·à¹Īà¸Ń
ĠB ij
è´ ¢
Ġà¤¬ à¤¢à¤¼
Ġs Ã¡ch
Äį en
Ġm undo
Ġ×ķ ×§
à°¸ à±įà°¥
ek si
Ġdiffer ent
Ĺà¸ ĩà¸
Ġ×ł ×Ĺ
Ġa ang
Ġtolldek larasjon
èª Ń
áĥłáĥ ¡
Ġà®µà¯Ģ à®Łà¯įà®Ł
Ġb aba
Ġg an
ĠÙĪ Ø·
ãģ© ãģĨ
ĠÄį i
ĠìĿ¸ íĦ°
Ġà®® à®¾à®£
ĠÙħ Ø«
ë³ Ģ
Ġà¦Ĩà¦° à¦ĵ
Ġà¤ª à¤¾à¤¸
èµĮ éĴ±
Ġm ungkin
ĠfÃ¸r ste
en vol
ĠÕ ·
Ġn Ã¼m
Ġmis mo
ĠZ o
f i
ĠØ³ Ø·
áĥĺáĥļ áĥĽáĥĲ
Ġout ros
le ase
ĠÉĻl aq
Ġmo g
ra cht
Ùİ Ø©
Ġch á»©ng
et en
ĠØ± Ùĩ
Ġà¦ķà¦° à§ĭà¦¨
Ġper t
à¹Ģ à¸Ń
Ġà®¨à®¿à®± à¯ģà®µ
łà¸²à¸ ©
µ à¹Īà¸
Ĳ à¸
Ð¾Ð¶ Ð´
ĠØ§ÙĤØ¯ Ø§Ùħ
à¦¤ à§įà¦¬
Ġë ¯¼
Î´ ÎŃ
ĠPa ulo
ĠáĥĹáĥĳáĥĺáĥļáĥĺáĥ¡ áĥĺáĥ¡
åŃ £
à¹Ģà¸ Ī
ĠØª Ø®
Ġà¤Ĩ à¤¯
Ġu0 4
ich er
ÉĻn dÉĻ
ĠáĥĹáĥĲáĥķáĥĺáĥ¡ áĥ£áĥ¤
ĠÎ´Î· Î¼Î¹Î¿ÏħÏģÎ³
åħ »
ĠÐµ ÑīÐµ
áĥĲáĥ ¯
Î¼ Î±Î¹
em ber
×ķ×ľ ×ķ×ª
à°² à±ĩà°¦à±ģ
Ġb an
ãĥ¼ãĥ ĵ
Ð» Ð¾Ð¶
Ġà®µ à®Ł
Ġì¤ĳ êµŃ
Ġà¸ ¡à¸µ
ĠØ´ ÙĪÙĨØ¯
Õ« ÖĢ
Ġv od
Ġb aj
çº¿ ä¸Ĭ
Ġà¤ķ à¥įà¤¯à¥ĭà¤Ĥ
Ġus ing
Ġ×Ľ×Ĳ ×©×¨
und an
ĠìĤ¬ íļĮ
à°¸ à±įà°¸
Ġà°®à°° à±ĭ
Ġà¤ľ à¤¾à¤¨à¥ĩ
à°ķ à°¾à°¶
ĠÙħÛĮâĢĮ Ú©ÙĨØ¯
Ġ$( '
g n
Ġ×¢ ×ķ×ĳ
Ġh iÃ§
íı °
Ġà¸§à¸´à¸ ĺ
ÅĻ en
ĠÐłÐ¾ÑģÑģ Ð¸Ð¸
ãĥķ ãĤ£
Ġch iáº¿n
Ġdi á»ĩn
ĀĀĀĀĀĀĀĀĀĀĀĀĀĀĀĀ ĀĀĀĀĀĀĀĀĀĀĀĀĀĀĀĀ
ĠÎ³ ÎµÎ½
áĥª áĥĺáĥĺáĥ¡
ĠS em
ŀ à¸²à¸
Ġæ Į
ĠØ®ÛĮ ÙĦÛĮ
áĢ¯ áĢ
Ġvá» ±c
å¼Ģå¥ĸ ç»ĵæŀľ
ŀ à¸£à¸
ĠãĤ Ħ
Ø±ÛĮ Ùħ
Ġbu kan
amp il
Ġge tir
Ġz or
ÙĪØ² ÛĮ
ĠØ§ÙĦØ±ÙĬ Ø§Ø¶
Ġm ÉĻk
à© Ī
Ġfor sk
Ġd á»ħ
×ķ×¨ ×ĺ
ra zie
äº ²
t os
à© Ĥ
Ġà¦® à¦¤à§ĭ
ut to
ãĤ ²
rÃ³ d
Ġta on
Ġm ong
Ø° ÙĬ
ÎŁÎ ļ
åĩº ä¼ļ
Ġà°ļ à±ĩà°°
Ġdil akukan
ĠÏĢ ÏģÎ¬
ÏģÎ· ÏĤ
ĠØŃ Ø±Ùģ
ĠáĥĲáĥĵáĥĲáĥĽ áĥĺáĥĲáĥľáĥĺ
Ġtal aga
Ġto pl
Ġà¦ħà¦Ńà¦¿à¦ ¯à§ĭà¦Ĺ
âĢĮ à°¨
áĥĿáĥĵ áĥ£áĥ¥
Ġáĥ¨áĥĶáĥ£áĥ «áĥļ
9 6
íķĺ ë©°
ĠÙĪ Øµ
à®µ à®¿à®²à¯į
h am
×ª ×Ŀ
Ġtr iá»ĩu
à¦² à§ĩà¦°
het en
Ġv ideo
ĠH air
ĠÏĮ ÏĩÎ¹
ĠÃ Į
à¦¬ à¦¾à¦¸
Ġà¸ ļà¸²à¸Ĺ
Ġq ÉĻr
ÙĨØ§Ø¯ ÙĤ
Ġáĥĳ áĥłáĥ«
Ġm udah
å¦Ĥ ä½ķ
Ġëª¨ ëĵł
Ð² ÐµÑģÑĤ
Ġto o
Ġper chÃ©
e f
Ġg Ã¢y
66 6
à¦² à§įà¦²
n it
Ġjed no
Ġsupp ort
æīĭæľº app
Ġh or
Ġpr Å¯
ĠØ´Ø¨ Ú©Ùĩ
Ġt uo
ãģªãģĮ ãĤī
Ġ×ĳ×ª ×Ĺ
ĠC ol
od z
æ´» åĬ¨
à°ªà±įà°ªà°Ł à°¿à°ķ
à¦¸ à§įà¦Ł
à¦¿à¦¤ à§įà¦¬
eng ah
ãĤ¤ ãĤ¯
tori a
Ø³ÙĦ Ø³ÙĦ
r Ãł
ĠØª Ø±Ùĥ
Ġd ÄĽ
Ġd ove
ĠÏĢ ÎŃ
Ġenc ore
Ġap rÃ¨s
Ġd ol
j Ã¸
ĠÎ¼ Î¿
ÐµÐ½ Ð¸
ĠÏĨ Ïī
Ġn á»¯a
Ġte j
æīĭæľº çĻ»å½ķ
áĥķáĥĲáĥļ áĥĺáĥ¡
ĠØ· Ø±ÙĬÙĤ
Ġnh áºŃp
Ġáĥ¡áĥ¬áĥĿáĥł áĥĶáĥĵ
ĠÏĢ Î»Î±
áĥĲáĥķ áĥĺáĥ¡
ĠÃ§ at
ÙĪ Ø«
Ġimp ort
ĠV Äĥn
ĠO pp
Ġkar ÅŁ
L AR
ĠpÅ¯jÄį ka
×Ļ×Ľ ×ķ×ª
dik si
Ġì ±ħ
Ġà¤Ńà¤¾à¤° à¤¤à¥Ģ
ĠÐĶ Ð»Ñı
Ġpo i
Ġyap tÄ±
ĠÏĩ ÏİÏģÎ±
Ġãĥ Ł
ÙĥØª Ø¨
à®© à®¾à®²à¯į
om me
Ø° ÙĥØ±
Ġbel ang
à´ ¨àµįà´¨
an nya
Ġà¦¬à¦¿à¦ı à¦¨
ek k
à§ģà¦ £
ë¨ ¸
Ġãĥ Ŀ
Ø§ ÙĬØ§Øª
Ø§Ø± Ø¬
Ġà®¨à¯Ģ à®Ļà¯įà®ķà®³à¯į
ĠdÃ¼n y
à°ķ à°¾à°²
Ġx xx
ĠÚ© Ø±
Ġf eira
Ġdon c
Ø± Ùī
Ã¼ hr
Ġy en
ĠÃ Ħ
Ġáĥľ áĥĲáĥª
Ġà°Ł à±įà°°
æ¬ §ç¾İ
Ø¨ Ø·
áº£ y
Ġagäºļæ´² åĽ½éĻħ
Äį i
éĿ ©
Ġje Å¡tÄĽ
Ġl l
Ġlu gar
æ» ¡
w ays
Ġ4 4
à¦² à¦¾à¦°
à´ ±
Ġv iáº¿t
à¦¬ à¦¿à¦¦
Ġnum ber
Ġà¹Ģà¸¥ à¹Īà¸Ļ
Ġ, ,
Ġm no
ĠÚ¯ÙĪØ´ ÛĮ
ĠCh at
Ġmo h
Ġà®ħà®²à¯įà®² à®¤à¯ģ
ĠØ§Øµ ÙĦ
Ġch ung
ĠÐ° Ðº
çļ ĩ
I S
ãģĵãģ¨ ãģ¯
à¤® à¤¾à¤¨
¿ ł
à°¾à° ĸ
ĠæĪ Ĳ
ĠsÉĻb ÉĻb
Ġà°¯ à±Ĭà°ķà±įà°ķ
à¹Ī à¸Ļà¹Ģà¸
ê·¸ ëŀ¨
Ġ100 00
Ġà¦ķà¦°à§įà¦® à¦ķ
j our
ĠvÃŃ ce
Ð°Ð» Ð¾
áĥĺáĥ¨áĥķ áĥĺáĥļáĥĺ
Ġt inh
k ÅĤad
ĠáĥĶ áĥĴ
ĠÐ¿Ð¾ Ñĩ
ãģŁ ãģ¡
ĠO g
iem pre
ë Ŀ
¹ à¹Ī
ti ci
Ãº s
Ġby ÅĤ
Īà¸ ¸à¸
Ġprop rio
à¦² à§ĩà¦¨
ĠØ§ÙĦÙħ Ø·
Ġáĥ¡áĥĺáĥ¡áĥ¢ áĥĶáĥĽ
ĠÑĤ Ð¾Ð³Ð¾
Ġr ÉĻh
dÉĻ t
à°Łà±įà°Ł à±ģ
à¹Ģà¸¥à¸ ·à¸Ńà¸
Ġæ Ĳ
Ġà¦¸à¦Ĥ à¦¬à¦¾à¦¦
à®¿à®° à¯ģà®ªà¯įà®ª
Ġà®¤ à¯Ģà®°
Ġà¥ ¨
áĥĽ áĥĲáĥł
ak u
í Ī¬
ÙĪØ² Ùĩ
ĠØ³Ø§Ø² ÛĮ
ãģĺ ãĤĥ
it ar
ÙĨ Ùħ
æĦ Ľ
à°¦ à±įà°§
ent lich
Ġser Ã¡
w een
Ġç¥ ŀ
ØªØ± ÙĪÙĨ
olo gi
ĠØ§ÙĨØª Ø´Ø§Ø±
· à¹īà¸Ļà¸
Ġlas t
Ġber k
åĪ© çĶ¨
Ġë§İ ìĿĢ
Ùİ Ø¹
Æı R
ĠìĿ´ ìĥģ
Ġáĥĺ áĥķ
Ùĩ ÙĦ
Ġtr av
Ġdi á»
Ġà¸ª à¸´
ĠN áº¿u
Ġà¦¦ à¦¿à¦ķà§ĩ
à§įà¦¯ à§ģ
ëĭ¤ ê³ł
1 ìĿ¼
Ġu ur
d ÃŃ
ey e
Ġg dy
áĥĶáĥĳ áĥĺáĥĵáĥĲáĥľ
Ġà°¦à±įà°µ à°¾à°°à°¾
Ġdiá» ħn
Ġ×ŀ ×Ļ×ĵ
ĠÙħÙĩ Ø±
Ġs ho
ĠØ¨Ø± ÙĨØ§ÙħØ¬
Ġà¥¤ âĢĻ
Ġs Ä©
ĠØªÙĪØ³ Ø¹Ùĩ
ĠØ£Ø¨ ÙĪ
Ġso ci
ĠÏĢ Î¯
m itt
ĠAll ah
ĠëĤ ł
ĠëĤ ´ë
Ø² ÙĬØ²
ĠØ¨ Ø§Ø¹
ĠØ¬ ÙĪØ§ÙĨ
ĠM á»Ļt
Î» ÏĮÎ³
Ø§Ø¨ Ø±
×ķ×© ×Ĳ
Ġà®Ĩà®ķ à®¿à®¯
Ġi bang
Ġt ener
ĠÙĬØ¬ Ø¨
Ġà¸ «
as on
Î´ ÏģÎ¿
Ġht ml
ĠÄĳ Æ°a
x alq
Ġpro g
ĵ à¹Įà¸
Ġ×Ĳ×ł ×Ĺ×ł×ķ
ãĥ³ãĤ ¸
Ġà°ħ à°¦à°¿
Ġag ar
ĠáĥĶáĥłáĥĿáĥķáĥľ áĥ£áĥļáĥĺ
Ġ×Ķ×ŀ× Ĳ
Ġh im
à°Łà±įà°Ł à°¿
Ġãĥ ī
Ġà°ļà±Ĩ à°Ĥà°¦
ĠÐ¸ ÑģÑĤ
Ġber h
ì ĵ°
Õ¡Õ ¤
Ġà®® à®¾à®µ
Ġáĥ¡áĥĲáĥĳ áĥŃ
Ġà°ªà±ĭà°² à±Ģà°¸
Ø¶ ÙĬ
ãĤ ©
ãĤ· ãĥ£
à¤¿à¤¯ à¥ĩ
Ġc ukup
p ar
áĥĺáĥľ áĥĵ
æĺ ¥
Ø§Ùĩ Ø±Ø©
Ø¯ Ø§ÙĨ
Ġìĭ Ŀ
Ġà¦¦ à¦¾à¦¬
q tis
Ġeer ste
Ã¶ k
áĥĶáĥĳ áĥłáĥĺáĥķáĥĺ
à¯Ĩà®²à¯įà®² à®¾à®®à¯į
Ġ ing
Ġà¦ħ à¦Ĥà¦¶
ĠÐŁ ÐµÑĢ
à¤ª à¥ģà¤°
Ġà¦¬à¦¿à¦ ¸
Ġê¸ Ģ
Ø³ Ø§Ø²ÛĮ
es si
ur op
Ġà®µ à®¿à®²
Ġãĥ Ļ
Ġmi esz
Ġjej ich
p od
ÙĤ Ùī
ĠìĨ Ĳ
Ġà¦¹ à¦²à§ĩ
ĠC or
Ñĥ Ð²
Ùĳ ÙĲ
Ġë§Į ëĵ¤
Õ¶ Õ¥ÖĢÕ¨
Ġìķ ŀ
Ä© nh
Ġà¦ļ à¦¾à¦°
ovÃ© ho
Ġà¦Ĺ à¦£
æĸ¹ éĿ¢
áĥĶ áĥĶáĥĳáĥĺ
Ġà¦¦ à¦¿à¦²
Ġà¦¤ à¦¾à¦ķà§ĩ
Ġvy s
ç¦ »
Ã °
ĠØ§ÙĦØµ Ùģ
t r
è¡¨ ç¤º
Ġà¤īà¤¨à¥įà¤¹ à¥ĩà¤Ĥ
Ġáĥ¡ áĥĶáĥ¥áĥ¢
ÉĻt in
ĠmÅ¯ Å¾
Ġáĥ® áĥ¨áĥĺáĥł
ĠØ¨Ø§ÙĦ Ø§
Ġt Æ°á»£ng
Ġm Ã¸
Ġ Ø§Ø±Ø¯
ä¸ Ķ
Ïĥ Îº
à±ģà°¤ à±ĭ
ch es
Ġáĥŀ áĥĲáĥłáĥļáĥĲáĥĽáĥĶáĥľáĥ¢
æĥ ł
Ġà¤ı à¤µ
Ġbo th
à¤¿à¤µ à¤¾à¤°
çĹ ħ
lar dan
Ġkat awan
Ġj eszcze
Ġà¦Ĩ à§Ł
ĠáĥĽ áĥĶáĥ¡
ÙĨØ¯ ÙĤ
ĠÄĳ á»§
áĥĿáĥ ®
áĥł áĥĿáĥķ
isi Ã³n
Ġà¦® à¦¤
ĠØ§ÙĦØ¹ Ùħ
à°ķ à°Ĥ
Ġà®®à®© à®¿à®¤
à¯Ĭ à®³à¯įà®³
Ġpl ace
it u
ĠÙĪ Ø®
ÅĽ l
Ø§ ÙĪÙĦ
Ġå Ł
Ġde di
l Ã¡d
ĠÎ¿Î¹ÎºÎ¿ Î½Î¿Î¼
ĠáĥĽáĥĺáĥĽ áĥĵáĥĺáĥľ
ÏĢ ÏĦÏħ
Ġi hre
ĠM inh
Ġvá» ĩ
Ġk iáº¿n
ous e
à°² à°¿
à¥įà¤¯à¤¾à¤ µ
à¤¥ à¤¾
áĥĺáĥ¡ áĥĽ
g al
in ter
ĠÉĻm ÉĻk
å¥ Ĺ
ir k
ĠC zy
Ġk im
Ġà¦ªà§įà¦°à¦§à¦¾à¦¨ à¦®
ĠáĥłáĥĿáĥĽ áĥļáĥĺáĥ¡
Ġà°¤à±Ĩà°² à±ģà°Ĺà±ģ
n un
il ai
ĠâĦ ĸ
Ġ×¢ ×ĳ×ķ×ĵ×Ķ
sp iel
ĠJ ika
Ġx idmÉĻt
ĠØ¢ ÙĤ
Ġ4 0
r ijk
à¸´à¸ Ķ
çº ª
ĠbÃ¥ de
Ġnghiá»ĩ m
æ± ½
ĠÃ¶nem li
ãģª ãģĭãģ£ãģŁ
à§Ģ à¦¤à§ĩ
ĠC Ã³
ĠØµ ÙĪØ±
ĠìľĦ íķľ
um p
Ġbag ian
Ġà°ĩ à°ķ
Ø¨ Ø§ØŃ
szy ch
ĠáĥĽáĥĵáĥĴáĥĿáĥĽ áĥĲáĥłáĥĶáĥĿáĥĳ
Ġver z
ĠP ok
Ġot ros
áĥ¨ áĥłáĥĿáĥĽ
Ġà®ªà¯ĭ à®¤à¯ģ
à´ ª
à¤¿à¤ ³
¨ à¸²à¸
Ġsa me
Ġserv ice
h one
à¥ĩà¤ ¯
Ġwer d
ĠØ¨Ø§Ø¹ Ø«
Ø¨ Ø§Ø¨
ä¸Ń çļĦ
×ª ×ķ
om s
Ġpen y
ov Ã½ch
ªà¸¸à¸ Ķà¸
Ġà¦®à¦¾à¦§à§įà¦¯à¦® à§ĩ
âĢ ı
Î¶ ÏĮ
Ġest r
Ġà®¤ à®¯
ÐµÐ½ Ð½ÑĭÐµ
à¬ ¾
Ġà¦¶ à¦¤
Ð¾Ñģ ÑĥÐ´
à¹Ģà¸ ĩà¸´à¸Ļ
ĠÄĳá» ©
Ġ×Ĳ×ĳ ×Ļ×ĳ
Ġbe c
áĥĲáĥª áĥĺáĥĿ
à¸µà¸ ģ
Ġdan Ä±ÅŁ
m os
Ġt iÃªn
Ġäºļæ¸¸éĽĨåĽ¢ å®ĺç½ĳ
Ġng uyÃªn
åŁ ¹
Ġcos Ã¬
áĥ£áĥľ áĥ¥
ĠO b
Äħ d
ĠØ¯Ø±ÛĮØ§ ÙģØª
áĥĶáĥł áĥĲáĥ¢
Ġbu en
ãĥ³ãĥ Ģ
ĠÙħØµ Ø±Ùģ
Ġà¦¦ à¦¿à¦¤à§ĩ
ÑĢ ÐµÐ´
Ġs un
alam an
áĥĲáĥĻáĥ£áĥĹ áĥł
è¡ Ģ
Ġavail able
äº «
Ġpin akam
ÐµÐ½ Ð¸ÐµÐ¼
ak ai
Ġc our
ĠiÅŁtir ak
à°¾à°ķ à±į
ĠÎĶ Î¹
Ġ×ľ×Ķ ×©
ĠØ· Ø¨
Ġj ob
Ġà°® à°¾
à¹ģà¸ Ĥ
Ġà°İ à°ķà±įà°ķà±ģà°µ
à±Ģ à°®
à¤¾à¤ı à¤Ĥ
Ġáĥĺ áĥĲáĥľ
áĥķ áĥĶáĥĹ
·à¹Ī à¸Ļ
ĠÅ ½
Ġse tiap
Ġmel alui
ë Ĩ
çĶ ·
Ġæ ´
ĠØ§ÙĦÙĨ Ø§Ø³
ĠáĥŀáĥłáĥĿáĥª áĥĶáĥ¡
×Ļ×ĺ ×Ķ
ĠÙĪ Ø°ÙĦÙĥ
Î» Î¹Îº
ĠÙģØ¹Ø§ÙĦ ÛĮØª
à¥Ĥ à¤®
áł ¡
Ġà°Ĺà±ģà°° à±įà°¤
Ġentre pr
ta ctos
Ġà®¯ à®¾à®°
ĠØ±Ø§ÛĮ Ú¯Ø§ÙĨ
áĥĺáĥľ áĥĵáĥĲ
à°¸ à±įà°¯
ah on
Ġs till
Ġ×Ķ×¨ ×ĳ×Ķ
gr ound
Ġan i
u id
ĠáĥĵáĥĲáĥ ¤
Ġ à¸Ļà¸²à¸
Ġ×Ľ×Ĳ ×Ł
åĲ §
Ġd Å¯
Ġen cu
Ġà®ķà¯ĩ à®Łà¯įà®Ł
áĥł áĥĲáĥļ
ĠK r
Ħà¹Īà¸ °
Ġ×Ĳ×Ĺ ×ª
ĠK ab
Ġà®¨ à®¿à®ķà®´
ĠÙ¾ Úĺ
Ġà°ħ à°°
Ġà®µ à®¿à®¤
Ġk iá»ĩn
al jer
lem e
Ġmem p
Ġlá» £i
Ġj ro
lu Å¾
ĠI hre
Ġãĥ ģ
Ø§Ø´ Ø¯
ak e
Ġà®ļ à®ķ
Ġ201 4
à¸Ļà¹īà¸ ³à¸
ĠNaz ir
Ġà¦ľ à§ĩà¦²à¦¾
ob a
Ġzo als
ĠgÃ¼ ven
Ġbu hay
Ã¤ s
Ġo c
Ġç ¦
Y W
Ġl Ã²ng
×ľ ×Ŀ
ĠÐ¼ Ð¾Ð´
Ġl ove
ģà¸ ¥à¸²à¸
Ġáĥ¡áĥĲáĥ£áĥ ĳ
âĢĭ âĢĭ
o j
ĠáĥĴáĥĲáĥĽ áĥĿáĥĽ
z u
ĠØ§ÙĦØ¢ ÙĨ
Ġáĥ¡ áĥĿáĥªáĥĺ
Ø§Ø¯ Ø§Øª
ĠÑĥÑĩ Ð°ÑģÑĤ
k iem
to ire
Ġq Ä±z
ãĥ¡ ãĥ³ãĥĪ
Ùĥ Ø«Ø±
Ġéķ ¿
Ġph im
áĥ£áĥļáĥĺ áĥĲ
ĠÐ¿ÐµÑĢ ÐµÐ´
ow s
Ġpe w
Ä±n daki
Ġà°ªà±įà°° à°®
Ġà¤¶ à¤¿à¤ķ
Ġc v
à¸£à¸µà¸ ¢à¸
à®¾à® ´
à¸Ń à¸Ńà¸ģà¸
ĠÙĨ Ø®
ĠáĥĲáĥł áĥĲáĥ¤
á½ ¶
ë¬ ´ë
Îº Î·ÏĤ
åħ¥ åı£
it os
ģà¸© à¸²
ÙĬÙĨ ÙĬ
Ġà¦¬ à¦°
Ġfo is
h bet
áĥĲáĥªáĥĺ áĥĲáĥ¡
ul is
ĠiÃ§ er
à°ķ à±ģà°Ĥà°¡à°¾
éĵ ¾
Ġquan to
ĠÐ¾Ð½ Ð»Ð°Ð¹Ð½
in ner
æĹ© çĤ¹
Ġo Ã¹
Ġu 00
Ġà°ĩ à°ªà±įà°ªà±ģà°¡à±ģ
aÅŁ Ä±
à¹Ģà¸£ à¹ĩà¸
æŃ »
h eci
Ĭà¸ ·à¹Īà¸Ńà¸
Ġà¤ķà¤¾à¤° à¤£
ĠÙħÙĨØ§Ø³ Ø¨
ÉĻl xalq
Î»Î¿ Î½
Ġte am
¹ à¹Īà¸
å¤ ®
à¤ľ à¥Ģ
ĠM aar
×¡ ×Ļ×Ŀ
Ġà¤° à¥ģà¤ª
Ø§Ùĩ ÛĮ
Ø´ ÙĬ
à¦¸à§įà¦¥ à¦¾
à§ĥ à¦·à§įà¦Ł
ĠãĤ °
ĠØ´Ùĩ Ø±ÛĮ
Ġà®¤ à®Ł
ĠÑĤ Ñĭ
ĠÎĳ Î³
à¥įà¤¯à¤¾à¤ ¦
Ġ×¦×¨ ×Ļ×ļ
3 5
ĠØ® Ø±Ø¯
ç§ĳ æĬĢ
Ġdei x
Ġ×¨ ×Ĵ
ĆĈ ć
Ġà¤Ĺ à¥ģ
eni u
Ġà¤ Ī
Ġë°© ë²ķ
tor s
ĠÐº Ð°ÑĢÑĤ
Ġà¤¨ à¤¿à¤ķ
à° İ
Ġà¦ªà¦¾à¦° à§ĩà¦¨
Ġback ground
Ø§Ø³ Ø·Ø©
u ai
Ġçİ¯äºļ éĽĨåĽ¢
ĠÃº l
ĠM ujeres
Ġé ļ
omb res
Ġà¦ķ à§ĩà¦
ÙĨ Ø§ÙĨ
ÏĢ ÏĦ
ĠSch w
Ġd nia
Ð°Ð» Ð¾Ð³
Ġb á»ı
è® Ń
ĠM an
ĠÐ¾Ñģ Ð½Ð¾Ð²
Ã¡ Å¡
Ġd Ä±ÅŁ
Ġn ouv
à¹Ģ à¸Ńà¸ĩ
à¯įà®® à¯Ī
Ġà¤¦ à¥Ĥà¤¸
Ġbet ween
ĠëĦ ¤
Ġs ty
ìĿ į
à®µ à®¿
Øº ÙĦ
ĠØ§ ÙģØª
à¯įà®ķà®³ à¯Ī
et s
Ġof er
íļ į
ĠÏĥ Î®Î¼ÎµÏģÎ±
Ø¹ÙĦ Ø§Ùħ
ĠNh á»¯ng
éħĴ åºĹ
ĠÙĦÙĦ ØŃ
ĠÎ² ÏģÎ¯
ĠØ§ÙĦØ® Ø·
æľ ĥ
ĠØ¬Ø¯ÙĬØ¯ Ø©
Ġà¤¬ à¥įà¤°
k az
åĲĪ ä½ľ
Ġnuov o
f on
Û ¸
Ġà®ª à¯ģà®ķ
ãģ¨ ãĤĤ
ĠÙĨÙħÛĮ âĢĮ
e ÅĤ
Ġf ull
Ġbar n
×Ļ×ŀ ×ķ×©
Ġãģ Ķ
àµįà´ ª
áĥĿáĥł áĥĺáĥĲ
à¯ģà®¤à¯įà®¤ à¯ģà®µ
Ġdav am
Ġ×¤ ×ľ
ĠÕ¡Õ ¼
Ġle ar
ìĹĲ ëıĦ
Ġà¦¸ à§ĩà¦Ł
ĠÑģ Ð¾ÑģÑĤÐ°Ð²
áĥĲáĥķ áĥĲáĥļáĥĺ
ur der
Ġà¹Ģà¸ §à¸¥à¸²
Īà¸ ³à¸
· à¸Ńà¸Ļ
ĠØ§ÙĦØ¨ ØŃ
2 98
ĠÃ ¦
×Ļ ×Ļ×Ķ
à¯ĩà®¯ à¯ĩ
Ġà¦¬ à¦¾à¦¬
Ġè ¶
ĠíĶ Į
Ñı Ð¼
ag awa
Ġh lav
Ġ×©×ľ ×ł×ķ
ĠÐŃ ÑĤÐ¾
it en
ĠÙħ Ùĥ
ic c
ĠÃ§ ocuk
×Ļ×Ĳ ×ľ
ent en
Ġs op
ĠÑģÐ¿ Ðµ
li ke
Ġr app
Ġp rav
em Ã¡s
ĠÐ½Ð° ÑģÑĤ
ĠáĥĴáĥĲáĥĽ áĥĿáĥ¡
ti kan
ãģ¾ ãĤĬ
áĥķ áĥĲáĥłáĥĺ
Î¸ Î¿
ĠØ§ÙĦØ¹ Ø§ÙħØ©
Ġr Ã³Å¼
Ġ×ķ ×ŀ
Ġà°ªà±įà°° à°§
Ġ×Ĺ ×ľ
el ingen
Ġ ä¼
ĠØ± ÙĬ
ä¸į æĺ¯
iyor um
à¯Ģ à®¤
am ina
Ø¬ Ø§Øª
Ø¨ ÙĬØ±Ø©
ĠÐľÐ¾ÑģÐº Ð²
ä¿¡ èªī
ĠØ§ÙĦØ¥ Ùħ
Ġà¦ıà¦ķ à¦ľà¦¨
å· ´
Ġk et
am ma
Ġà¦ī à¦¨à§įà¦¨
Ġà°ķ à°¾à°Ĥà°Ĺ
æĥħ åĨµ
ãģĦ ãģĨ
en di
Ġor e
Ġáĥŀ áĥĶáĥłáĥĺáĥĿ
ĠÐ² Ð¾Ð¿ÑĢÐ¾Ñģ
ÙĢÙĢ ÙĢ
Ġ ost
Ġi de
Ġà¦¸à¦®à§įà¦ª à¦°à§įà¦ķ
ãĥ¥ ãĥ¼
èµĦ æĸĻ
be eld
à¦¾à§Ł à§Ģ
ÙĪÛĮ Øª
Ġà°µ à°¾à°°à±ģ
ĠÚ©Ø§Ø± Øª
Îķ Î¤
Ġà®ķà¯Ĭ à®Łà¯ģà®¤à¯įà®¤
Ð½Ð¸Ðº Ð°
ç» ĩ
Ġ, "
Ġpa ÃŃs
à§Ĥ à¦°à§įà¦£
ĠÎ¼ ÏĢ
å¤ļ å°ĳ
Ġáĥ¬áĥĲáĥłáĥĽáĥĿáĥĽ áĥĲáĥĵáĥĴáĥĶáĥľ
ĸà¸¶à¸ ĩ
×Ļ×¨ ×ķ×¢
Ġà¤ħ à¤Ń
ĠØ¯ ÙĨÛĮ
ĠS er
Ãª ng
Ġp ak
Ġho a
Ġà¤ķ à¥įà¤°
Û ´
ÙĦ Ø§ÛĮÙĨ
Ġk Ã½
à¥įà¤°à¥Ģ à¤¯
ĠÙħ Ø¬ÙĦØ³
ĠØ£ ÙģØ¶ÙĦ
ĠáĥĴ áĥ£áĥļ
Ġ201 1
t edir
Ġ ä¹ĭ
Ġà®ĩ à®³
ĠáĥĽ áĥĶáĥĵ
Ġê²½ ê¸°
«à¸¥à¸ ±à¸ĩà¸
al en
Ġmu cho
ĠáĥĹáĥĲáĥķáĥĺáĥ¡ áĥĺ
d Äħ
Ġà°ļ à°¿à°¨à±įà°¨
ĠÐĲ Ð»
ķà¸´à¸ Ķà¸
¢à¸ ±à¸ĩà¸
ĠÐ»Ñİ Ð´
ĠáĥĴáĥĲáĥľáĥ¡ áĥĲáĥĻáĥ£áĥĹáĥł
cz ÄĻ
pr ow
Ġà¦ķ à§Ģ
ĠÎ² Î¿
ĠØ± Ùħ
Ġh elt
Ġà¦¸ à¦¾à¦Ĥ
Ġp ost
Ġv rij
Ġwszyst k
Ġà¤ķà¥įà¤· à¥ĩà¤¤
Ġà¦² à§Ģà¦Ĺ
ĠÐ° Ð´
ov al
ft ar
ĠÐ¸Ð½ ÑĦÐ¾ÑĢÐ¼
ĠØ§ÙĦØ¯ ÙĪÙĦØ©
ĠÙĥ Ø¨ÙĬØ±
Ġê± ¸
ien e
ĠáĥĲáĥ®áĥĲáĥļ áĥĴ
ê² ¬
Ġe h
Ïĩ Ïī
lÉĻÅŁ dir
ĠÙĪ ÙĦÙĬ
Ġk ein
ãĢ ĸ
Ġáĥ¥áĥķáĥĶáĥ§ áĥľáĥĺáĥ¡
áĥĶáĥĳáĥĺ áĥĲ
Ú¯ ÙĪÙĨÙĩ
it al
ĠAr beit
ĠØª ØŃØ¯
Ð½ ÐµÐµ
Ġz ou
Ġprin cip
à¸²à¸£ à¹Įà¸
ĠØ±Ø³ ÛĮØ¯
Ø¹ Ø§
ç» Ĩ
Ġå ģ
Ġto e
Ġhe el
áĥĲáĥĹ áĥĺ
il angan
Ġc á»Ńa
um lah
à®¿à® ¨
ĠØ§ÙĦÙĤ Ø¯
t ar
æľ ¨
abilir siniz
Ġp es
Ġà®ĩ à®©à¯įà®±à¯ģ
èµ ļ
Ġà°ļ à°¦
ÏĢÎ¿Î¹ Î®
Ġau tre
ĠÎºÎ±Î» ÏįÏĦÎµ
çµ Ĥ
×ł×Ļ ×ķ×ª
Ġper lu
Þ ¨
Ġei ng
Ġg Ã¼zel
ĠÐ±ÐµÑģ Ð¿Ð»Ð°ÑĤ
Ġà°¬ à°¯
ĠØ§Ø± Ø³Ø§ÙĦ
Ġëı ħ
Ġest Ã£o
ĠØ§ÙĦØª Ø³
ĠÐ´ ÐµÐ¹ÑģÑĤÐ²
áĥķ áĥĺ
à¤¾à¤¤ à¥Ģà¤²
ĠÐº Ð¾Ð³Ð´Ð°
ĠØ® ÙĪØ´
Ġkh iáº¿n
ëı ħ
Ġ ÙĢ
ĠØ§ÙĦ Ø§Ø®
Ø§Ø¦ ÙĤ
Ġà¤¹à¥ĭ à¤¤à¥Ģ
ä¼ł å¥ĩ
Ĳ áĢ
Ġg id
å¯ Ĩ
Ġtá»« ng
å¯ Ł
Ġs tav
èī¯ ãģĦ
Ġay n
èĦ ĳ
li o
ier a
O L
Ø³ Ø§Øª
àµ Ģ
Ġest Ã¡n
Ġà° Ĭ
Ġáĥĺ áĥł
ri end
ĠáĥŀáĥłáĥĿáĥĳáĥļ áĥĶáĥĽ
ĠØ¢ Ø´
d es
Ġé ©
ĠØ¨Ø§Ø´ ÙĨØ¯
×¦ ×Ļ×Ķ
Ġà®¤ à®¿à®Łà¯įà®Ł
Õ¾ Õ¡Õ®
Ġm ain
Ġsar Ãł
er os
ĠwiÄĻ cej
Ġà°µà±Ĩ à°³à±įà°²
Ġà¦® à¦¿à¦²
ĠS al
ĠMad rid
è¿ ľ
ĠáĥĳáĥĶáĥķ áĥłáĥĺ
ĠÄĳ a
ĠÙħØ§Ø´ ÛĮÙĨ
ĠÃ§ a
eit os
lÄ± ÄŁ
ĠÄ° l
ĠØ§ÙĦÙĪÙĤ Øª
ĠnÉĻ zÉĻr
Ġk ong
ĠIn n
Ġà¦¤à¦¾à¦ģ à¦°
lar Ä±nda
Ġà¤® à¥ģ
Ġein fach
ĠBel ed
Ġà¸ªà¸ ¹à¸
ĠØ¹ Ø¨
Ø§Øª Ø¨
Ġpr is
Ġà¦ķ à§ĩ
Î³Î³ ÎµÎ»
Ġth ough
Â ¶
eb o
Ġà®¨ à®¾à®®à¯į
3 7
ĠÙ¾ÛĮ Ø§Ùħ
nik i
T E
à¤ı à¤®
Ġà¤Ńà¤¾à¤°à¤¤à¥Ģ à¤¯
ĠÑįÑĤ Ð¾Ð³Ð¾
Ġkun ne
Ġë ĸ
ĠØ¯Ø± ÙħØ§ÙĨ
à¦¿à¦¸ à§įà¦¤
Ġdi ye
ĠÏĢ Î±Î½
Ġà®ī à®Ļà¯įà®ķà®³à¯į
Ġê´Ģ ëł¨
Ġà®® à¯ģà®ķà¯įà®ķ
ĵ à¹Į
z ei
Ġall een
à®¤ à®¾à®²à¯į
ol es
ĠØ§ÙĦ ÙģØª
à¸£ à¹Īà¸§à¸
Ġz v
ou te
ĠWh at
ãģ£ãģ¦ ãĤĤ
ĠKh Ã´ng
ĠÄĳ Äĥng
Ġhis s
Ġà¦¤à¦¥ à§įà¦¯
est ell
ĠáĥĲáĥł áĥĲáĥĽ
ĠáĥĽ áĥĶáĥĹ
à°¿à°¸ à±įà°¥
tÄ± q
à±ĭ à°²
ÙħÙĦ Ø©
Ġì§Ģ ìĹŃ
ľà¸ ¥à¸´à¸
ĠØ§ÙĦØ§Ø¬ ØªÙħØ§Ø¹
ĠÏĢÎ± ÏģÎ¿Ïħ
Ø² Ùħ
à¥įà¤¯ à¤®
à®Ļà¯įà®ķ à¯ĩ
ĠÙħØŃØµÙĪÙĦ Ø§Øª
ĠÙĦÙĪ Ø§Ø²Ùħ
ĠÎŃ Î½
om men
ĠÅ ģ
Ġáĥ¥ áĥ£áĥ©
à®µ à®©à¯į
Ġol mak
ĠØ§ÙĦ ÙĦÙĬ
Ġà°° à±Ĥ
Ġl ig
Ġdi ÄŁer
áĥĺáĥķ áĥĶáĥłáĥ¡
ĠØ®Ø§ÙĨ ÙĪ
Ġgo ing
ĠÛ ¸
ĠáĥĲáĥĽ áĥĶáĥł
ĠÐ±Ñĭ Ð»
Ġb Ã©
in ci
Ġequ ip
ë¥´ ëĬĶ
ĠÎł ÏģÏĮ
Ġy at
ë¶ Ī
çļĦ ä¸Ģ
Â °
ĠØ³ Ø®
Ġdi z
Ġà°¬ à°¾à°²
Ġnam in
Ġíĥ Ģ
Î¼Î² ÏģÎ¯Î¿Ïħ
ØŃ Øª
ĠÎ¤ Î¹
ĠÙ¾ ÙĨØ¬
Ġo ÄŁ
Ġãĥ Ĩ
ĠÏħ ÏĢÎµ
Ġmon do
Ġà¤¬ à¤¦
Ġgj Ã¸re
èģ ŀ
ĠØ§ÙĨ ÙĤÙĦ
Ġy Ã¼ks
Ùģ ÙĤ
ãģª ãģ®ãģ§
Ġà¤¸ à¥įà¤ķ
èį ¯
Ġm om
à¤¤ à¤¾à¤¤
ĠJ ah
Ġol acak
ĠáĥĻáĥĲáĥłáĥĴ áĥĺ
áĥļ áĥĶ
Ġà¤¹à¥ĭ à¤¤à¥ĩ
ëĦ Ī
Ġ×ĳ ×ŀ×Ķ
éĻ ¤
ĠØ¨ÙĪ Ø§Ø³Ø·Ø©
Ġà®¨ à®®à¯įà®ª
Ġà¦¬à§įà¦¯ à¦ķà§įà¦¤
owan y
Ïģ Î¿ÏħÏĤ
ê· ľ
ij s
Ġà°® à°Ĥà°¦à°¿
à°ªà±įà°ª à±ģà°¡
ĠáĥĹáĥĲáĥĽ áĥĲáĥ¨
ĠÎ³Î¹Î± ÏĦÎ¯
Ġcont ra
ĠÐº Ð°Ð¶Ð´
à°¾à°¯ à°ķ
ÚĨ Ø³Ø¨
ĠæŃ ¤
mek tedir
ĠÐ¿ÑĢ Ð¾Ð±
à¤¡ à¥ĩ
ãĤģ ãĤĭ
Ġà®® à®¾à®¨
åº ı
Ġà¦¹à§ĭà¦¸ à§ĩà¦¨
ÅĽ nie
Ġ×Ĳ×Ĺ×¨ ×Ļ
ĠÛ° Û°Û°
Ġê·¸ ë¦¬ê³ł
Ķà¸ ±à¸ļ
Ġph ong
à±Ģà°ª à±Ģ
Ġd ata
äºº ãģ®
ÙĦÙĬ ÙĤ
Ð¾Ð²Ð°Ð½ Ð¸Ðµ
Ð° Ñİ
Ġà¤ľ à¤°
ĠØ§ÙĦØ¯ Ø±
aci as
áĥ¬ áĥĺáĥľ
è¡ ĵ
ĠåĽ½ äº§
Ð¾Ð» Ñı
Ġsta at
ĠáĥłáĥĲáĥ¢ áĥĿáĥĽ
ãģ§ ãģ®
à§ĩà¦¤ à§įà¦°
ch te
Ġag æīĭæľº
Ġć ć
ë ģ
iyy ÉĻ
ĠØ§ÙĤØªØµ Ø§Ø¯ÛĮ
à§ĩà¦® à¦¨
ÏĨ Î¬Î»
åħ ħ
Ġp um
ĠgÃ¶r Ã¼n
ãĥ³ãĤ ·
ç¨ ¿
Ġà°ķà°¾à°Ĥà°Ĺ à±įà°°à±Ĩ
ĠØ§ÙĦØ¹ ÙĦÙħ
×ķ×¡ ×£
ĠÎ±Ïħ ÏĦÎ¬
Ð¼ Ñĥ
Ġ×Ķ×Ĺ ×ľ
ing kat
è¿ Ķ
77 7
Ġz Ã¡v
Ġn Ã¡m
à¯ĭ à®Ł
Ġst an
Ġes se
Ġw ÅĤa
åģ ¥
Ġà¦¬à¦¿à¦Ń à¦¾à¦Ĺ
ĠÐ· Ð°ÑĢ
áĥ® áĥĶáĥļ
áĥĺáĥłáĥĵ áĥĶáĥĳáĥĲ
Ġgi Ã¡o
Ġå° Ĩ
áĥĶáĥ ¯
ĠÎµÎº ÏĢ
Ġch uyá»ĩn
ìĿ´ ì§Ģ
Ġáĥł áĥĲáĥĺ
Ġà¦¸ à§Ĥ
Ġæµ ·
¡ ng
ë³ ĳ
ĠÙĪ Ø§
ĠÙĩØ§ ÙĬ
Ġk de
Ġà¦¬à¦¿à¦° à§ģà¦¦à§įà¦§à§ĩ
à§ Ń
Ġaqu i
Ġìĸ ¸
ĠØ¬ Ø¯
ï¼ ķ
ĠØ£ Øº
Ġ×ľ ×ł×ķ
Ġn ombre
ent uk
ĠØ§ÙĦØ´ Ø±
Ġab b
ĠÎł Î±Î½
ĠØ§ÙĦØ« ÙĦØ§Ø«
à¹ĥà¸Ļà¸ ģà¸²à¸£à¸
Ġà°īà°Ĥà°Ł à±ģà°Ĥà°¦à°¿
à§ĭà¦°à§įà¦ Ł
Ġà¦Ĩ à¦¬à¦¾à¦°
à±ģà° Ń
Î¼Î± ÏĥÏĦÎµ
Ġà¹Ĥà¸ Ķà¸¢à¸
ç§ ģ
Ġp Ãºb
éĮ ²
ĠØŃ ÙĦ
Ġist ÉĻy
Ġv ia
ĠmÅ¯ Å¾e
Ġà°īà°¦ à±įà°¯
é¢ ¨
à°° à±Ģ
Ġ à¸£à¸µà¸§à¸´à¸
Ġà°¸à°Ĥà°¬ à°Ĥà°§
à®¿à®° à®¿à®¯
ãģĤ ãģ£ãģŁ
ÅĤ am
ãĥķ ãĥĪ
Ġl ot
ĠÏĦÎµ Î»ÎµÏħÏĦÎ±
ran k
z zi
Ġem p
amil y
æĸ¹ æ³ķ
Ġè ª
Ġn Ã¶v
à§ĩà¦ĸ à¦¾à¦¨à§ĩ
Ġs ic
u Ã©s
Ġap enas
Ġè ģ
ìķł ìĿ¸
à¥ Ŀ
à¦¹ à¦£
Ġà¦ħ à¦«
ãģ« åħ¥
Ġyax ÅŁÄ±
å¯ Į
ĠáĥĽáĥĶáĥĴ áĥĿáĥĳ
ĠÐ¼Ð°Ð³ Ð°Ð·
ĠØª Ùĥ
ess a
Ġ4 9
Ġs ÅĤ
uj emy
Ġï ¹
Ġtr uyá»ģn
à´ ķ
ti ÅŁ
ĠA p
Ġmag ing
Øª Ø§ÙĨ
×§ ×Ķ
Ġ×ĳ×Ĳ ×ķ×¤×Ł
Ġà§§à§ §
Ġà¤ħ à¤Ĥà¤¤
à¹Ģà¸ģà¸ ´à¸
ĠT uy
ĠâĢĿ .
Ġ0128 298
ĠÕ« Õ¶
Ķà¸ ±à¸ļà¸
Ġk apag
ĠB r
Ġbe au
Ġåı ª
ĠfÉĻal iyyÉĻt
ĠÎ± Î¹
Ġà°¬ à±įà°¯
Ġa ch
¢ à¹Įà¸
-- --
Ġpra cy
o i
à®©à¯įà®© à¯Ī
d akÄ±
Ġsu is
Ñĥ ÑģÐº
ĠS h
¥à¸ ±à¸ĩà¸
ei ÃŁ
Ġg Ã©nÃ©
Î²Î¬ ÏĥÏĦÎµ
und e
à¤¿à¤¯ à¥ĭ
Ġà¦¶ à§ĩà¦ĸ
à« į
Ã¡ st
ÐµÑģÑĤÐ² Ð¾
ĠØ³ Ø§Ùħ
à¤¬ à¤°
Ġh ele
ãĤ¤ ãĥ³ãĥĪ
Ġgel en
v at
dzi aÅĤ
lik asi
Ĉ ï¼Į
Õ ·
ï¼ Ī
ĠL and
Ġfo to
Ġgran de
ØŃ Ø§Øª
è§ ī
Ġcomp any
Ġt Ãªn
éĢļ è¿ĩ
è® ¸
Ġà®ķ à¯ģà®°
å¨ ģ
Ġ×ŀ×© ×Ķ
Ġsa x
Ġc Äĥn
Ġv ind
´ à¸Ļ
Ġà¸ª à¸²à¸
Ġj udi
Ġein es
è¶³ çĲĥ
ĠÐ» ÑĥÑĩÑĪ
à±ģà°Ĥà° ¬
ÑĢÐ° Ñī
Ġé ĸ
åº ĵ
Ġ5 8
Ġà¤µ à¤°à¥įà¤·
ãģ» ãģ©
Ġs zy
Ġëħ ¼
Øª Ø¯
ĠÎ¬ ÏģÎ¸
è® ²
ĠW hen
Ð½ Ð¸Ð¼
à°Ĺ à°²
ĥ à®ª
ĠåĽ Ľ
ĠÃº Äį
æī ¿
ļà¸²à¸Ħà¸²à¸£ à¹Īà¸²
un t
or te
Ã¹ a
èŃ ·
Î½Î¿Î½ ÏĦÎ±Î¹
Ġl ud
Ä±z Ä±
äºº åĳĺ
ë°Ķ ëĳĳìĿ´
ti q
áĥĴ áĥĶáĥľ
aj es
b ile
áĥĳ áĥ£áĥłáĥĹ
Ġáĥŀáĥł áĥĿáĥĵáĥ£áĥ¥
Ø§Ø³ Ùħ
Ø± ÙĬØ©
ķ à¹Įà¸
z na
ļ à¹īà¸²à¸Ļ
ĠÐ´ Ð¾Ðº
Ø§Ùĩ Ø¯Ø©
Ġg amot
Ġà®¤à¯Ĩà®°à®¿à®µ à®¿à®¤à¯įà®¤
Ġáĥ¥áĥķáĥĶáĥ§ áĥĲáĥľ
on den
aus s
Ġ×¨ ×¦
æŃ ©
Â ³
ë¡ Ģ
ĠÎķ ÎĽ
ÏĥÏĦÎ· Î¼Î±
Ġà¦² à¦ķà§įà¦·
Ġà¦ªà¦° à§ĩ
Ġáĥĳ áĥĺáĥĸ
Ġt api
Ġë ŀ
áĥĶáĥĳ áĥĲáĥĵ
çľŁ éĴ±
ĠÐ² Ð¾Ñģ
Î¼ÎŃÎ½ Î¿Ïħ
à¥ģà¤ ĸ
ĠæĹ ł
Ġå¹ ³
à¤¬ à¤Ĥà¤§
ĠAzÉĻrbaycan da
ilip ino
Ŀ à¸
à§ ¬
áĥĺáĥł áĥĶáĥĳáĥĺáĥ¡
ten za
ëĿ ½
Ã ¯
Ġmá» Ĺi
Ľ à¸µ
á½ °
ÏģÎ³ Î±Î½
Ġd Ãłi
à°¿à°Ĺ à°¿
à¤¬ à¥Ģ
à¦¾à¦¡ à¦¼
å¥½ çļĦ
Ġà°ķ à±ģ
Ùİ Ùħ
ĠÎķ Î¯Î½Î±Î¹
ĠÎĳ Îł
à´¾à´ ¯
Ġbei m
Ġby ÅĤo
Ġprogr am
Ġr ei
I C
à°¤ à±įà°¨
Ġà¦ļ à¦¿à¦ķ
ãĤī ãĤĮ
ĠáĥĴáĥĲáĥł áĥĶáĥĽ
ķ áĢ
ĠSe x
ØŃ ÙĤ
ãĥ¼ãĥ ŀ
Ġnas Ä±l
ĠÏĦ ÎµÎ»
ĠÐ½ ÐµÑĤ
Ġy et
ãĤĬ ãģ®
Ø¯ ÙħØ©
ĠiÅŁ lem
ĠÐ² Ðº
Ø§Ø¦ Ùħ
è®¾ è®¡
h y
Ġgod z
Ðµ ÑģÑı
ÏĦÎ¿ ÏįÎ½
Î»Îµ Îº
Ġ" ØĮ
Ġ âĢĮ
Ðº Ð¾Ð¼
ÏģÎ· ÏĥÎ·
ĠÃ¶ r
Ġà¦¶ à¦¿à¦¶
áĥĶáĥĴ áĥĽ
Ġà¦¤ à¦¾à¦¹
Ġpos ib
ĠÐº ÑĥÐ¿Ð¸ÑĤÑĮ
à¯ĭ à®©
ĠAv ro
ut an
ĠÎĳ ÏĢÎ¿
Ġh iá»ĥu
Ġw w
ĠT op
à¤¾à¤Ĥ à¤ļ
é ²
ĠÙħ Ø§ÙĦÛĮ
Ġ×Ĳ ×ĵ×Ŀ
Ġáĥĳ áĥĿáĥļáĥĿ
Ġla at
ĠåĴ Į
Ú© Ø§Ø±ÛĮ
Ġr ich
Ġà®ķ à¯Ĩ
ĠÙĪØ£ ÙĨ
ÙĪØ± ÙĬØ§
Ġáĥ£áĥĻ áĥĲáĥľ
æł ¹
ĠT P
Ġmon th
à«į àª
áĥĿáĥĳ áĥĶáĥľ
Ġà®µ à®ļ
Ł ģ
id er
Ġr un
po is
Ġdi per
ÙĨØ¯ Ú¯Ø§ÙĨ
Ġé ĥ
Ġà°ķà±ĭ à°°
ĠØ§ÙĦØ¥ ÙĨØ³
Û ¶
z d
×ĳ ×Ļ×¨
Ġsu per
ĠÑħ Ð¾ÑĢÐ¾ÑĪ
ĠÙĨ Ø§ÙħÙĩ
×¢ ×Ŀ
Î¼ÏĨÏīÎ½ Î±
×ķ×ŀ ×ķ×ª
ĠÙĤ Ø¯Ø±
ĠÙĪÛĮ ÚĺÙĩ
Ġgi Ãł
Ø§Ø¨ Øª
Ġha ir
Ġà¤ķ à¥Į
ĠgerÃ§ek leÅŁ
Ø§ÙĦ Ø«
íķ´ ìķ¼
ÎµÎ¹ Î±ÏĤ
ter n
Ġhe alth
à¦¿à¦¤ à¦¾
ëłĪ ìĿ´
Ġqu áº£n
áĥ¢áĥĻ áĥĺáĥª
ĠØ¢ Ø°
Ġtrad ing
ĠìĿ µ
ĠÎľ Î±Ïģ
ªà¸ ĸ
Ġáĥ¡áĥĲáĥĽ áĥ¡áĥĲáĥ®
Ġà®ªà¯ĭ à®ķ
ĠìĤ¬ ì§Ħ
çİ© æ³ķ
æŃ Į
ĠBaÅŁkan Ä±
à§ ®
Ġà¦¯ à¦¾à¦¬à§ĩ
Ġcon di
Ġà°ªà±įà°°à°Ńà±ģà°¤à±įà°µ à°Ĥ
¯ u
Ġ uk
Ø§Ø¦ ÙħØ©
Ġ×© ×ł×Ļ×Ŀ
ĠJak arta
à¦¾à¦¸ à§įà¦¥
Ġí ļ
áĥľ áĥĶáĥĳáĥĺáĥ¡
ar en
å·ŀ æīĳåħĭ
m s
äºĮ æīĭ
Ġ×ľ ×ľ
Ġ×Ľ ×ĵ
ĠD zi
and ang
Ġ×ľ ×ŀ×Ķ
ta Ã§Ã£o
à´ ķàµįà´ķ
ĠÙģ ÙĤØ¯
Ø§Ø° Ø§
à¤£ à¥ĩ
ĠNh Ãł
ĠT il
ka ch
ĠÙ¾Ø±Ø¯ Ø§Ø®Øª
Ø² Ø¨
Ø±ÙĬ Ùģ
«à¸ §à¸
ĠH ot
Ġáĥķ áĥĺáĥ¡
Ġj ÃŃ
ĠìŀĲ ìĭł
Ġ à¸Ńà¸²à¸
à®¿à®ķ à®³à¯Ī
ĠY ap
r ess
Ð»ÐµÐºÑĤ ÑĢ
Ġ: )
à§Ģ à¦²
ĠÎŃ ÏģÎ³
Õ¡ ÖĦ
Ð¾ Ñħ
ä»ĺ ãģį
ĠG er
Ġy g
Ùİ Ø¯
ÏĪ Îµ
ìĺĢ ëĭ¤
¢à¸ ¸à¸
Ġá Ĭ
ÑıÑĤ ÐµÐ»ÑĮ
Ġh ingga
à¤¿à¤¤ à¤¾
Ġáĥ¡áĥĲáĥĻáĥ£áĥĹ áĥĲáĥłáĥĺ
áĥĿáĥ ©
ĠÐµ Ðµ
Ġà¦¬à¦¾à¦Ĥà¦²à¦¾à¦¦à§ĩà¦¶ à§ĩà¦°
ĠØ§ÙĦ ÙĬÙħ
Ġnat in
à¦¨à§įà¦ ®
Ġà®ªà®¯ à®©à¯įà®ª
ĠÄĳá»Ļ i
àŃ į
ĠH aus
à§ĥ à¦·
áĥĲáĥ¡ áĥĲ
Ġ×ĳ×ĳ ×Ļ×ª
Ġì» ¤
ãĤı ãģĽ
ìķ¼ ê¸°
Ġcáº£ nh
ri ft
ĠÅ¾ iv
ĠB en
ç¼ ĸ
Ġà®¨ à®¾à®³
ĠáĥĴáĥĲáĥľáĥķáĥĺáĥĹ áĥĲáĥłáĥĶáĥĳáĥĺáĥ¡
Ġ×Ľ ×ĳ
et as
ar si
à¯ģà®¤ à¯ģ
Ġà°ħ à°Ĥà°Łà±ĩ
åĢ ĭ
ĠØ§ÙĦØ§ÙĨ Øª
àµįà´ ļ
à¦¾à¦ Ļà§įà¦Ĺ
Ġpal ing
Ġà¤ıà¤µ à¤Ĥ
Ġà¦®à¦¾à¦¨à§ģà¦· à§ĩà¦°
Ġf al
ĠØ´ÙĪØ± Ø§ÛĮ
ĠÙĩØ§ÛĮ ÛĮ
ĠÙĪØ§ÙĦ ØªÙĬ
ĠØ³ ÛĮÙĨ
y arak
Ġexperien ce
à°¿à°Ł à±Ģ
Ġc r
Ġinc re
åª Ĵ
ĠáĥĻ áĥĲáĥ¢
à®¿à® Ļà¯įà®ķ
æĸĩ åĮĸ
Ġà¤¹ à¤¾à¤²
Ġà®ļà¯Ĩ à®©à¯įà®±
à¦¸ à¦®
å¤§ çļĦ
¡à¸ ±à¸Ļà¸
Ġè °
sp ÄĽ
olo gy
à°¾à° «
à§ ©
Ø³ ÙĨ
Ø§Ùĩ Ùħ
à¹ģà¸ «
Ø¹ ÙĬØ¯
c om
æĹ ı
Ġi d
ĠP Ã¥
Ñį ÑĤ
al er
ÙĦ ÙħØ§ÙĨ
u ta
Ġqar ÅŁ
Ġpri mo
bi amo
Î³ ÎµÎ¹
ĠØ¹ÙĨØ¯ ÙħØ§
ĠÎ¿ÏĢÎ¿ Î¯Î¿
ÙĬ Ø§Ø±
Ġbl ij
×ľ ×ļ
à°¡ à°¿
Ġà®ļ à®¾à®¤
Ġk ata
Ġà¤ī à¤¤à¥įà¤¤
ĠáĥĹáĥĲáĥľáĥĲáĥĽ áĥ¨áĥłáĥĿáĥĽ
iÄĻ dzy
Ġtr á»±c
Ġk ed
Øª ÙĪÙħØ§ÙĨ
ÐµÑĢ ÑĤ
Ġà¤µ à¥ĭ
Ã¼n de
Ġà°¨ à°¿à°ľ
çķ Ļ
¼ åħ¥
Ġà°ªà±įà°° à°¾à°°
ãĥĨ ãĥ«
Ñĭ Ð»
Ġåľ¨ çº¿
Î½ Îµ
à¤Ł à¤°
×ķ×ĵ ×ķ×ª
us i
à°¦ à°°
Ġà¦ªà§įà¦° à¦ļ
ĠáĥĻ áĥĲáĥļ
Ġà¦ªà¦° à§Ģà¦ķà§įà¦·
èģ ·
à¶ ½
ĠØ¹Ùħ ÙĪÙħÛĮ
à¥įà¤¯ à¤µ
Î¸ ÏģÏİ
áĥª áĥĶáĥĽ
Ġke ep
Õ ²
áĥĶáĥķ áĥĺáĥ¡
áĥĿáĥ¥ áĥĽáĥĶáĥĵ
Ġà°Ń à°¾à°µ
à¬ ¿
åĪĨéĴŁ pk10
Ġfor am
Ġf ollow
ÏĢÎ¿ Ïį
Ġà®¨ à®¾à®Łà¯įà®Ł
ĠÙģ ØµÙĦ
Ġnor sk
4 6
ĠÎ´ Î¿
Ġà®ļ à®¾à®°
éģ İ
ĠÙħØ³Ø¦ ÙĪÙĦ
ĠÐ²Ð¸Ð´ Ðµ
Ġtrabaj o
Ġ×ª ×ŀ
ÃŃ ne
Ġä¸ »
æĹħ æ¸¸
Ġm ÉĻÅŁ
ag o
Ġh r
ĠÙħ Ú©
Ġdi st
ãĥ© ãĥ¼
Ġalt ro
ãģ¡ãĤĥ ãĤĵ
v oir
×Ľ ×©
ĠÙĪØ§ØŃ Ø¯
Ġà¦¬à¦¿à¦ ļ
Ġëĭ¤ ìĸĳ
áĥĲáĥļ áĥ£áĥłáĥĲáĥĵ
lar la
ĠrÉĻh bÉĻr
st and
Ġsp os
Ġà¦Ĩ à¦Ł
ĠÎµ ÏĨ
Ġà¦ķà¦¾à¦°à¦£ à§ĩ
ĠÏĢ ÏģÎ¹Î½
Ġì ·¨
Ġáĥ¢áĥĶáĥł áĥĺáĥ¢
à°¾à° Ń
ĠÛ ·
Ġáĥ¤ áĥĿáĥ¢
Ġdes ar
Ø¶ Ùħ
Ġte cn
at ay
Ġsv Ã©
7 9
Ø§Ø¹ Ø¨
Ð°Ð»ÑĮ Ð½ÑĭÐ¹
Ġtut te
à¹Ģà¸Ĥ à¹īà¸²à¸
ÐµÑĤ Ðµ
Äį it
ÉĻm iyyÉĻt
åį °
ĠI S
Ø§Ø® ØªÙĩ
×Ļ×¤ ×ķ×¨
ĠØ§ÙĦØª ÙĤ
ĠØ¢ Øº
Ġ×ĳ×ŀ× ¡
áĥĶáĥļ áĥĺáĥĲ
Ġáĥ¬ áĥĺáĥĴ
Ġà¤ķ à¤¾à¤¹à¥Ģ
è´ Ł
è» ¢
Ġåı °
ĠÐºÐ¾ÑĤÐ¾ÑĢ ÑĭÐ¹
u en
µà¹Īà¸ ¢à¸§à¸
ĠW ie
ĠÙħÙĪ Ø¬ÙĪØ¯
åĿ Ľ
ħ ÖĢ
ãĤĤ ãģĹ
ĠØ§ÙĦØ« Ø§ÙĨÙĬ
Ġà®° à®¾à®ľ
oup e
ÙĪ Ø§Ø¬
Ġtr ans
Ġà¤¨ à¥Ģ
Î´ Î¬
ªà¸²à¸¡à¸²à¸£à¸ ĸ
à±ĥà°· à±įà°£
Þª Þ
Ãª t
Ġà¦¸à¦®à§įà¦ª à¦¾à¦¦à¦ķ
åĢ ¤
Ġcont r
Ġh ear
Ġé ĵ
ĠÎ± ÏĢÎ±
nh a
Ġà¤ķà¥įà¤·à¥ĩà¤¤ à¥įà¤°
çĤ º
Ġà¦Ĩ à¦ĵà§Ł
ä½ ³
ë°Ķ ì¹´ëĿ¼
ele fon
áĥĺáĥłáĥ ¡
ĠD aar
çľ ¼
ĠáĥĽáĥĹ áĥĶáĥļáĥĺ
ÙĥØª ÙĪØ±
ag ang
ĠáĥĲáĥ®áĥĲáĥļáĥĴ áĥĲáĥĸáĥłáĥĵ
yarak at
Ġáĥł áĥĶáĥ¡
à¤¾à¤¦ à¥Ģ
áĥĿáĥ ¨
å¹ ķ
ÙĪ Ø§Ø±Ùĩ
czy Äĩ
si ble
Ġà¦² à§ĭà¦ķ
Ġà¦¸ à§įà¦ª
ä»¥ ä¸Ĭ
ĠìĦ¸ ê³Ħ
Ġtan to
ri g
ĠPr aha
ĠØ§ÙĦØ® Ø§ØµØ©
Ġ×ª ×ķ×Ľ
ĠÎķ Îł
à§įà¦¯ à§ĩà¦°
æĿ Ģ
Ġà°¨ à±Ĩà°²
ĠÙħØ¯ ÙĬÙĨØ©
Ġà°ļà±ĩà°¸ à°¿
Ġde f
ÄŁ un
í į¼
×ł ×ķ×¢
ĠÙħØ§ÙĨ ÙĨØ¯
Ġpl an
Ġà¦ķà¦° à§ģà¦¨
«à¸ ¡
ÏīÎ½ Î¹Ïĥ
è¼ ī
Ġrequ ire
X I
à°°à±įà° ·
z ar
ÑĥÑĤ ÑĮ
und u
áĥĲáĥł áĥĲáĥĻ
Ġà¤¦ à¥Įà¤°
Ġà¤¦à¤¿à¤² à¥įà¤²à¥Ģ
Ħà¸ ¥à¸
Ġà¦ª à¦¾à¦ł
1 00
ĠÂ ¨
Ġáĥ¬ áĥĶáĥ¡
ĠM e
Ġsi to
Ġà°İ à°¦
åį Ĭ
s iÄĻ
Ġs iempre
Ġà¦® à¦¾à¦²
ÎŃÏģ Î½Î·
¸ à¸Ļ
à±Ī à°Ł
Ġà¤² à¤¾à¤Ĺ
æľĢæĸ° çĻ»å½ķ
aÅŁ tÄ±r
Ġà¸ĭà¸ ¶à¹Īà¸ĩà¸
m m
ĠáĥĽ áĥĺáĥļ
Ġà°µà°¿à°ľ à°¯
ĠíĻ į
hal ten
Ġass im
Ø§Ùĩ Ø¯Ùĩ
ľ à¹Īà¸²à¸Ļà¸
Ġju al
it ie
ä¾ Ĩ
up po
ĠáĥĽ áĥĲáĥĵ
à®¿à®°à¯ģà®ķà¯įà®ķ à¯ģà®®à¯į
ãģĤãĤĬ ãģ¾ãģĽãĤĵ
ĠëĺĲ ëĬĶ
ÏģÏī ÏĥÎ·
Ġcu enta
ĠçĦ ¡
áĥĲáĥ £áĥļ
ch s
cel ona
Ġê²ĥ ìĿĢ
Ġlang sung
à· ļ
çł´ è§£
jer om
Ġcas o
éģ Ķ
Ġhas il
ĠÏĥÎ· Î¼Îµ
Ð¾ÑĢ Ð¾Ð²
à¯ģà®± à¯įà®±
Ø® Ø´
Ä±l Ä±r
Å¡ÃŃ m
re a
åħ °
Ġë³ µ
Ġà®īà®³à¯įà®³ à®¤à¯ģ
Î» Î¿Ïį
ement e
Ġalis in
Ġag äºļ
ĠÑĤ Ð¾Ð²Ð°ÑĢ
ĠpÅĻÃŃ pad
Ġk inder
å¤ Ł
ĠÙĩ ÙģØªÙĩ
p u
Ćć ą
à¦ķà¦¾à¦° à§Ģ
ç¾İ åĽ½
ĠF Ã¼r
ãģį ãģŁ
à¦¬ à¦¾
Ġ×Ķ×ŀ× ĳ
à§įà¦¯ à¦ķ
Ã§ i
Ġç Ģ
íĬ Ģ
Ġmeng at
ÎĻÎ Ķ
å± ħ
Ġbirlik te
Ġà¦¸à§įà¦¥ à¦¾à¦¨
ill es
à¹Ģ à¸Ļ
åį ĺ
Ġab i
Ġcol le
Î¼ Î¯Î±
v al
Ġm uss
Ġáĥ¡áĥĲáĥĽ áĥĲáĥłáĥĹ
Ġà¤µà¤¿à¤ ¦
à¤® à¥įà¤®
Ġà¦ªà§įà¦° à¦¦
ĠØ²ÙħÛĮÙĨ Ùĩ
ì§Ģ ëĬĶ
y ul
ĠÚĨ Ø±Ø§
áº¿ p
ĠØ¨Ø§ÙĦ Ø¥
Ġ à¹ĥà¸Ļ
Ġs otto
ĠH an
è¿Ļ ä¸ª
Ġ rze
Ġsa k
Ġt wee
qu q
Ġà¤¶à¥ģà¤° à¥Ĥ
Ġ×ľ×¤ ×Ļ
à· Ļ
Ùħ ÙĨØ¯
Ġk eb
Ð½Ð¾Ð¼ Ñĥ
** **
had ap
Ġting gi
Ġcá»© u
ĠÏĥÏħ Î³Îº
ãĤ¯ ãĥª
Ġterb aik
Ġl ors
å¤ļ ãģĦ
w ia
Ġà¦ķ à§įà¦²
Ġde puis
ãĥ¼ãĥ Ĩ
Ġáĥł áĥĲáĥ¦
Î¿Ïħ Ïĥ
Ġdi as
ê±° ëĤĺ
Ġà¤ħà¤Ĺ à¤°
ĠÙĨ Ø¬
Ġh Ã¥
Ġb ur
ĠìĹ¬ íĸī
Ġfark lÄ±
Ġ ãģ§
Ã§ ais
íĶ¼ ê±¸
Ġáĥ® áĥĵáĥĶáĥĳáĥĲ
Ġà¤¬à¤¾à¤° à¥ĩ
ed et
un an
ĠéĢ ļ
ĠáĥĻáĥĲáĥľ áĥĿáĥľ
Ġdzie ci
c re
à¸£à¸ ´
Ġæ ¹
Ġnor ske
ĠÐ² Ð°ÑĪ
ĠÙħÙĤ Ø§ÙĦÙĩ
Ġà®ļ à®®à¯įà®ª
à¯Ĥ à®Ł
in es
Ġd ro
ĠÑģ Ð¾Ð·Ð´
å¥ ¹
Ġà°ļà°Ĥà°¦à±įà°° à°¬
à¹ĩà¸ ģà¸
Ġh app
ĠÎ£ ÏĦÎ¿
Ġà¤¦ à¤¿à¤ĸ
ĠÐ· Ð°Ð±
Ġ×ķ×¢ ×ķ×ĵ
r er
Ø¹ Ø§Ø¯Ø©
ĠÙħØ¹ Ø±ÙģÛĮ
ĠØ§ÙĦØ£ ÙħØ±
æİ ¢
à§Ģ à¦¯à¦¼
Ġ×¤ ×©
ÑĮ Ñı
Ġes o
ãĤĵ ãģ§ãģĻ
w ick
Ġà§§à§ «
ĠÙĤ Ø¨
ç Ĩ
Ġad ik
ear ch
ĠÃ©g alement
Ġà°¸ à±Ĩ
y tu
åĢ į
Ġçº ¿
Ġà¦ķ à§Ł
Ġc ost
èª ¬
h nen
con om
Ġinclud ing
Ġd urante
emb ali
ãģ® ãģ§ãģĻ
éĢ ²
Î»Î± Î¼Î²
ĠÑĢ ÐµÐº
å¤§ åİħ
Ħà¸§à¸²à¸ ¡à¹Ģà¸
ķà¹Īà¸²à¸ ĩ
ÙĪ ÛĮÙĨ
Ġpers one
Ø· Ø§Ø±
ĠÙĪ Ø²Ø§Ø±
ÙĦÙĬ Ø§Øª
å¾ Ģ
Â ¾
ĠØ¹ Ø¶
ĠA Z
Ġe ÅŁ
Ġgi ft
ĠáĥĴáĥĲáĥĵ áĥĲáĥ¡
Î³ Î¹
¹ ä»ĭ
Ĺà¸µà¹Īà¸ ¡à¸µà¸
ª à¸Ļ
ouw en
Ġm urah
Ġà®µà®¨à¯įà®¤ à¯ģ
Ġ×ĵ ×¨
Ġper mainan
éģ Ĺ
à¤¡ à¥Ģ
ãĤĬ ãģ¾ãģĹãģŁ
ĵà¸ ĳ
Ġæĸ ĩ
ĠÛ±Û ²
Ġáĥ¡áĥĲáĥ® áĥļ
Ġfe w
ĠáĥĿ áĥ¤
áĥ¢ áĥĺáĥ¡
Ġe j
åĿ ĩ
aj ar
à¤¿à¤¸ à¥įà¤¤
ĠÙģ ÙĪØª
Ġn Ã©
ĠÄĲ áº¡i
Ġà®ªà¯Ĩ à®±
Ġw en
Ġà¤ļ à¥ģ
Ùħ Ø³
ĠáĥĻáĥĲáĥłáĥĴ áĥĲáĥĵ
ªà¸ Ķ
Ġà®ħ à®ķ
ÙĬ Ø§Ø±Ø§Øª
Ġthu á»Ļc
Ġz ar
Ġch icas
ĠÎº Î¿Ïħ
ĠØ§ÙĦØ¬ Ùĩ
ind eki
ÙĪ Ø§Ø¡
Ġad ol
ĠáĥĽ áĥ£áĥľ
Ġà¤ªà¤¹ à¥ģ
Ġà°ķà±Ĭ à°¨à±įà°¨à°¿
Ġse ja
ĠÚ©ÙĪØ¯ Ú©
Ġkh ai
à¥ģà¤ ·
Ġà°¦ à±Ĥà°°
Ġà¤°à¤¾à¤ľ à¥įà¤¯
55 5
ĠÎ¶ Î·
iz za
ĠØ³Ø· ØŃ
ĠØ§Ø³ Ùħ
ĠÐĲ Ð²
Ġáĥª áĥķáĥļ
hn ed
à°¾à°¯ à°Ĥ
Õ¸ÖĤÕ µ
áĥļ áĥĿ
Ġkah it
Ġa insi
ĠáĥĽáĥĿáĥ £áĥ
Ġà°ķà±Ĭ à°¨
à°¨ à±Ĥ
ÙĪØ³ Ø·
à¹ģà¸ ķ
il o
à¤¾à¤ ¢
ĠÂ ¬
Ãº de
ĠáĥĺáĥĽ áĥĺáĥ¡
Ġå¦Ĥ æŀľ
Ġch Ã¢n
Ġà®ķà®Ł à®¨à¯įà®¤
Ġd ru
n em
Ġ×ł ×Ĵ×ĵ
Ġm á»¥c
Ġë¸ Į
ĠÎµÏħ ÏģÏİ
ĠØ§ÙĦØªØ¹ ÙĦÙĬÙħ
ĠB et
Ġpro ject
à¸£à¸§à¸ ¡à¸
ÏģÎ± Î½
ang ka
ĠØŃ ØªÛĮ
Ġà°ªà±Ĩ à°°
Ġfr an
Ġà¤® à¤¿à¤³
ĠÏĦ ÏģÎ¿
Ġ×ŀ ×Ļ×ľ
ç´ °
Ġ×ľ×Ľ ×Ŀ
Ġà°ħ à°ķà±įà°ķà°¡
Ġmo ins
à¤¾à¤¤ à¥ĩ
Ġwat er
Ġáĥ£áĥľ áĥĺáĥķáĥĶáĥłáĥ¡
ĠÐļ Ð¾Ð¼
ĠÕ« ÖĢ
Ĥ à¹īà¸Ńà¸¡à¸¹à¸
Ĥà¸¶ à¹īà¸Ļà¸
ĠáĥĽ áĥ£áĥ®
Ġà°ķà°¾à°° à°£
Ġdes ta
ador a
ĠØŃ ÙĪØ²Ùĩ
áĥĿáĥľ áĥĲ
Ġå® Ł
uf t
éĸ Ģ
Î¼Î¿ Î½
áĥĺáĥĹ áĥĺ
ie dy
oll ando
Ġà¸ «à¸£à¸·à¸Ń
ÐµÑĢ Ñĭ
ê¸ ¸
ÉĻy in
Ġë¶Ģ ìĤ°
æĵ į
Ġê°ķ ìĽĲ
à°¿à°¯ à±ĭ
à±ģà°ķ à±ģà°¨
å·² ç»ı
áĥ¡áĥ¢ áĥĺáĥ¢
ĠaÃ§Ä± q
ØŃ ÙĦØ©
l uk
ĠÖ ĥ
à¹Ĥà¸£à¸ĩà¹ģà¸£à¸ ¡
Ġà¦ķà§ĩà¦¨ à§įà¦¦à§įà¦°
ĠAzÉĻrbaycan Ä±n
ĠL o
Ġtrava il
Ġ×ł ×Ķ
Ġç Ī
Ġre f
Ġm eille
ĠÙĪØ²Ø§Ø± Øª
Ð³ Ð¾ÑĤÐ¾Ð²
ãģĮ ãģĤãĤĬãģ¾ãģĻ
ĠPar is
à¹ Ħà¸£à¸
Ð» Ð¾Ð²
de ce
ĠØ§ÙĦØ±Ø¦ÙĬØ³ ÙĬØ©
Ġch ar
Ġk it
ª ½
Ġ×Ľ ×¡
Ġæ Ħ
Ġà¨ ®
mÃ¥ l
m ÉĻsi
ĠÙ¾ ÙĨ
Ġa ten
Ġ×ĸ ×Ľ
si ve
à® ¹
ĠAGçİ¯äºļ éĽĨåĽ¢
à°ķ à±Ģà°¯
Ġà¦« à¦¿à¦°
Ġm á»©c
ÙĪÙĨ Ø©
Ġç Ń
à¸Ļà¸ ³
â Ĩ
à±ĥ à°·à±įà°Ł
a ca
Ġdire ctory
Ġc en
ĠÑĦ Ð¾ÑĤ
ĠáĥĶ áĥ¢
áĥĲáĥĽ áĥĲáĥ¨
Ġnue vo
ÎŁÎ ¤
ĠÙĥ ÙĨØª
ĠÎ¼Îµ Î³Î±
h us
ĠÎĶÎ¹Î± Î²Î¬ÏĥÏĦÎµ
Ġt ÃŃm
Ä± ÄŁ
n ice
ĠÙħÛĮÙĦÛĮ ÙĪÙĨ
Ġà®ħ à®Łà¯ģà®¤à¯įà®¤
k ek
cri ption
ÎĻÎ ¤
à¦¾à¦® à§įà¦ª
Ġo cc
Ġbu ild
ĠÙģØ±ÙĩÙĨÚ¯ ÛĮ
áĥĶáĥłáĥ ®
ÎĳÎ ľ
ĠD alam
Ġs Ã¡t
Ġà°¬ à°¾à°§
iz ÉĻ
Ġar tic
d ed
ĠI N
Ġe den
eit s
ãĤ¿ ãĥ¼
ìĸ´ë Ĥ
é¡ į
ãĤī ãĤĮãĤĭ
ĠØ¨Ø± ÚĨØ³Ø¨
ĠB áº¡n
Ġà¸§ à¸´à¹Ģà¸Ħà¸£à¸²à¸°à¸«
ĠØ¯ Ø®
ĠØ´ÙĨ Ø¨Ùĩ
Ġà°¨ à°¾à°ķà±ģ
t Ã¼r
ĠÎĶ Î®
Ġc á»ķ
Ġè ·
×ŀ ×ķ×¨
Ġd ar
Ġayn Ä±
ĠØ¨ ÙħØ§
Ġáĥ¨áĥĶáĥ ª
à¹ģà¸ Ĺ
Ġà°ļà±Ĥà° ¡
ĠâĢ »
cion al
ĠáĥĲáĥłáĥ¡áĥĶáĥĳ áĥĿáĥĳáĥ¡
áĥĲáĥ¤ áĥłáĥĹáĥ®
Ġáĥ®áĥĶáĥļ áĥĽ
Ġcon tre
ĠáĥĻ áĥ£áĥļáĥ¢
ĠØª ÙĪØ±
ĠØ´ Ú©ÙĨ
Ġà¤ĸ à¤¿à¤²
Ġà¦¬à§įà¦¯ à¦¾à¦ª
ÑĨ Ñĭ
Ġà¦¸à¦® à§įà¦®
Ġj us
Î³ÏģÎ± Î¼Î¼Î±
Ġà®ª à®¾à®²
Ġà¹Ģà¸¥ à¹Īà¸Ļà¸
ĠT em
à¦£ à¦¾
×ķ×Ĺ ×ĵ
Ġhá» ıi
à¥įà¤ ľ
p ovÄĽ
à§įà¦° à¦¾à¦¨à§įà¦¤
ĠÏĦ Î¯
ĠáĥĽ áĥĴ
ĠÐĿ Ðµ
Ġel a
à±įà° ŀ
ĠÙħØ±Ú© Ø²
à¸Ńà¸ ±à¸
Ġhvor dan
ĠE 0
Ġ×ķ ×¨
à¸Ńà¸µà¸ ģà¸
Ġà¸ Łà¸¸à¸ķà¸ļà¸Ńà¸¥
ÎĹ Î¤
áĥļ áĥĲáĥĵ
Ġn ouve
×¦ ×¢
ĠáĥĴáĥĲáĥĽáĥĿ áĥĺáĥ§
Ġl alu
Ġla z
Ġchiáº¿ c
áĥĽ áĥĲáĥª
ĠÙħÙĨ Ùĩ
ĠØ§Ø³ Ø§Ø³
Ġà¨ ¤
Ġde p
ĠR ei
Ġpujc ka
Ġà°Ĺ à±Ĭ
ĠÏĢÏģÏĮ Ïĥ
Ġ äºĨ
Ġ×¨ ×Ĺ
ĠL ie
íķĺ ë©´
Ø±ÙĪ Ùģ
ëĮĢ ë¡ľ
Ġà¤ķà¥ĩ à¤²à¥ĩ
ĠØ§Ø± Ø²
Ð¾Ð» Ð¾Ð´
áĥķ áĥĲáĥł
ãĥĲ ãĥ¼
ĠÄĳá» Ŀi
ÑĦ ÑĦ
à°¤ à±įà°µ
ÙĦØ§ Ùĭ
Ġà®¨à®Ł à®¤à¯įà®¤
Ġà°° à°Ĥà°Ĺ
Ġà®İà®© à®ķà¯įà®ķà¯ģ
Ġà¤ªà¥įà¤°à¤¦ à¥ĩà¤¶
Ġáĥ ĸáĥĶ
Ð¸ÑĤ ÐµÐ»Ñı
am men
elig e
â Ķ
Ð¸ÑĩÐµÑģÐº Ð¸Ñħ
Ġt i
Ġà¤¸ à¥ģà¤°
Ġsit us
Ġà¸ Ĥà¸
Ġà°Ĩ à°¸
áĥĲáĥ¨áĥķ áĥĺáĥļáĥĺáĥ¡
à®Łà¯įà®Ł à®¿
olo gia
Ġà°ķà°¨ à°¿à°ª
n ah
ĠÃ©qu ip
ì Łģ
à°Ł à°¨
Ġà¤° à¤¾à¤·à¥įà¤Ł
ĠØ® Ø§Ø·
Î» Î®ÏĤ
×ķ×¢ ×ĵ
æ± ĩ
ĠR oma
ak s
Ġcon st
ÏĨ Î¹
à§ģ à¦ª
Ġri cer
åĸ ľ
Ġáĥĵ áĥĶáĥŀ
ÙĦÙĥ Ø©
Ġs Ã¸
Ġà°Ń à°¾à°Ĺ
Ø¤ ÙĪÙĦ
Ġà°¦ à°°à±įà°¶
ĠÎºÎ¬Î½ ÎµÎ¹
æŃ ¢
à¤¾à¤Ĥ à¤¨à¥Ģ
Ġf ÉĻr
ĠáĥĹáĥĲáĥķ áĥ¡
ĠÏĢÎ¿ Î»Î»
ģà¸²à¸£ à¹Ģà¸
h ur
Î¼ Î¼
ÙĤØ¯ ÙĬÙħ
ÐµÐ½ÑĤ Ð¾Ð²
ĠáĥĽáĥĶáĥł áĥĶ
à±ģà°° à±ģ
è¦ģ æ±Ĥ
ãģĻ ãģĻ
v ent
ÉĻyy ÉĻn
ä¸Ń å½©ç¥¨
Ġc ent
w end
éģ ĭ
iem bre
Ġà¦ªà§įà¦°à¦¤ à¦¿
ĠÏĮ ÏĢÎ¿Ïħ
×§ ×ķ×ª
ĠØ§ÙĦØ¯ ÙĬÙĨ
åİ Ĥ
ĠA B
Ġà°Ĩ à°«
è¿ İ
Ġà®®à¯Ĥ à®²à®®à¯į
Ħ áŀ
Ġ( );
sk ich
à¹ĥ à¸Ļà¹Ģà¸
sk Ã½ch
à¦¬à¦¿à¦¦ à§įà¦¯à¦¾à¦²
Î¾ Ïį
Ð°ÑĤ Ð¸Ð²
Ġ×Ķ×Ĵ ×ĵ
ĠØ§ÙĦØ£ ÙĨ
Ġà®ªà¯ģà®¤ à®¿à®¯
Ġnie z
à§ģà¦ ¶
33 3
Ġdi k
à¦¾à§Ł à§ĩà¦°
Ġë¶ ģ
ĠìĹ¬ ê´Ģ
ª à¸Ļà¸
ãģ§ãģį ãģ¾ãģĻ
Ġ à¹ģ
ĠÐ° ÐºÑĤ
Ġhot ell
Ġà¤Ĺ à¤¾à¤Ĥ
ĠTh anh
Â «
eid ing
end ita
n t
ĠÐ¾ÑĤ Ð½Ð¾
ãģĦãģŁ ãģł
ĠÏĥÏĩ Î¿Î»
um an
Ġgr unn
yor um
ĠáĥĹáĥĺáĥĹ áĥ¥
Ġå¤§åıĳ äºĶ
Ĥà¸²à¸ ¢à¸
n ut
ëĬ ĺ
áĥĶáĥĳáĥĺáĥĹ áĥĺ
ĠÚĨ Ø´Ùħ
Ġd 88
ĠDi es
à§ĭ à§Ł
Ð¸ÑĤÐµÐ»ÑĮ Ð½Ð¾
ĠG o
ĠÔ µ
Ġ×Ĳ ×¤
ĠV ers
l Ã¡n
Ġb ile
ĠØ§Ø± Øª
Ġsp ille
ĠÙħØ´ Ø§ÙĩØ¯Ùĩ
á» ģn
Ġfon ction
Û ·
ØªØ± Ùĥ
Ġfil es
à§ģ à¦Ĺ
ĠÐĲ ÑĢ
áĥĺáĥł áĥĶáĥĳáĥ£áĥļ
åŃ ©
Ġ ãĦ
à¯ģà® ·
iáº¿ m
ÑĨ ÐµÐ½
ĠØ¬Ø§Ùħ Ø¹Ùĩ
ĠÏħÏĢÎ¬ÏģÏĩ ÎµÎ¹
Î»Î· Î¼Î±
Ġà¹Ģà¸ §à¹ĩà¸ļà¸
ĠW at
ĠØ¯ÙĪ Ø³Øª
Ø¬ ÙĨØ©
amp u
ra j
Ø§Ùħ ÛĮÙĨ
ei ras
Ġs vÄĽ
Ġg anz
Ġà°ªà±įà°° à°¾à°Ĥà°¤
Ġà¹ģà¸Īà¸ ģ
ong an
Ġáĥŀáĥł áĥĶáĥĽ
Ġ×Ĳ ×©
Ġáĥ« áĥĺáĥł
usaha an
Ä° M
áĥķáĥĲáĥļáĥĺáĥ¡ áĥ¬áĥĺáĥľ
zÄħ dz
ĠÑĢÐ°Ð±Ð¾ÑĤ Ñĭ
ëĲĺ ìĸ´
r Ã¡v
ÏģÎ¹ Î¸
åĤ Ļ
ĠåĲį çĦ¡ãģĹ
ci miento
è¨ ¼
Ġà¤¹ à¥Ĥ
ĠØ§ Ù¾
Ġà¦¹ à¦¾à¦¤
Ġm ov
te urs
ĠÎĿ ÎŃ
k ovÃ¡
di ÄŁi
à®® à¯ĩ
i esz
Ġà°ļà±ĩà°¸à±įà°¤ à±ģà°¨à±įà°¨
Ġà¦ķà§ĩà¦ ī
ĠØ· ÙĪÙĦ
ĠØ§ÙģØ² ÙĪØ¯
Ġæ ¢
s ite
ĠØ¨Ø±Ú¯ Ø²Ø§Ø±
Î´ Î¿ÏĤ
Ġà¤ľ à¤¿à¤¨
ĠØ° Ø§Øª
åģ ľ
ĠáĥĹ áĥĶáĥĽ
it esi
Ġà¤ļà¥ģà¤¨ à¤¾à¤µ
Ġgiá»¯ a
Ð¸ÑĩÐµÑģÐº Ð¸Ðµ
ĠÐ³ Ð¾ÑĢ
ĠR eg
ĠÐ¼ÐµÐ½ Ñı
Ġà¤ī à¤¸à¥ĩ
inh o
Î¼Î¿ Ïģ
Ġà¤īà¤¸ à¤ķà¥ĩ
ÏĢÎ¿Î¯ Î·ÏĥÎ·
Ġal ways
Ġà®ļà¯Ĩ à®²à¯įà®²
ĠÙĦ Ø§Ø²Ùħ
Ġg Ã¥
Ġáĥ¥áĥĲáĥłáĥĹ áĥ£áĥļáĥĲáĥĵ
± à¹Īà¸ĩà¸
ĠéĿ Ĵ
ir i
s atz
áĥł áĥĶáĥĹ
Ġfal se
à®£ à¯įà®ª
g ara
Î³Ïī Î³
i O
×¤ ×ķ×Ł
Ġde b
p i
Ġd ung
ĠÎ´ Î¹Î¿
Ġà¤« à¥Ī
Ġà¦ī à¦¦à§įà¦¦
à¸Ńà¸ ±à¸Ļà¸
den s
à¤¾à¤ĩ à¤¨
ÄĽ st
ti p
Ġà¦ķà¦°à§įà¦®à¦ķ à¦°à§įà¦¤
èĢĥ è¯ķ
Ġpara an
l ement
Î¶ Î·
ĠÚ¯ Ø±Ùħ
ijk en
Ġs sg
ÏĢÎ¿Î¹ Î·
Ġme zi
ĠáĥĲáĥ¦ áĥĲáĥł
Ġà¤¬à¤¤ à¤¾à¤¯à¤¾
Ø§Ø¦ Ø¨
am in
Îķ Î¥
Î¯Îº Î·
æĮģ ãģ¡
àµģà´ ¨àµįà´¨
R E
ĠW enn
Ġdax il
Ġáĥ¡áĥĲáĥĻ áĥĽ
Ġà¤Ĩ à¤§
ĠØ¬ ÙĨÚ¯
áĥķ áĥĲáĥ¡
ãģĦ ãģı
áĥĲáĥ« áĥĺáĥ¡
ĠÎļ ÎĳÎĻ
×§ ×¡
ÏģÏī ÏĢÎ±
ãģ® ãģ«
Îº Î¿Ïħ
Ġ600 5
ĠÏĢ Î¹
áĥł áĥĺáĥĴ
å° Ĭé¾Ļ
Ġ×ķ×Ĵ ×Ŀ
Ø§ÛĮ Ø¹
ãģ¨ ãģ®
×Ĺ ×ķ×Ł
ĠÐ½ ÐµÐ¿
ĠW er
ĠëĪ Ħ
Ġu cz
Ġag å®ĺæĸ¹
Ġà°µà°¾à°° à°¿
Ġà¦¸ à¦¾à¦²à§ĩ
Ġì ¡
æ³ ¢
à¯Ģ à®°à¯į
Ġáĥ£áĥ¤ áĥļáĥĶáĥĳ
Ķ à¹īà¸²à¸Ļà¸
ag az
à¤Ĥ à¤ķ
ÛĮØ¯ Ø§
à¤Ń à¤¾à¤µ
ĠU na
Ġáĥ¡áĥĻ áĥĿáĥļ
Ġà¥§ à¥
3 d
Ġ×§ ×ľ
ros s
Ġth ree
×ª ×ĳ
åĲ ĥ
la at
Ġà¤° à¥ĭ
Ġfin den
Ġà®ĩà®¯ à®ķà¯įà®ķ
ĠÙħ Ø±Ø¨
Ġà¦ķà¦° à¦Ľà§ĩ
ĠP ers
Å ģ
ĠÏĥÏĦÎ¿ Î¹
ĠØ® Ø§Øµ
ĠØ´ ÙĪ
ĠdÃ¶n em
à¤ľ à¤°
Ġà¤®à¥ģà¤ Ŀ
ĠÑĢ ÑĥÐº
ig er
Ġà¦¬à¦¿à¦¶à§įà¦¬ à¦¬à¦¿à¦¦à§įà¦¯à¦¾à¦²
×ķ×ĵ ×Ļ×Ŀ
Î¸ ÎµÎ¹Î±
Ġnh iá»ĩm
å¢ Ĺ
ĠåĽ½ éĻħ
ÄĻ ki
å¯¾ å¿ľ
Ġinform aciÃ³n
Ġnaw et
Ġáĥł áĥĲáĥĿ
Ġà¦¦à§ģ à¦°à§įà¦
Ġà¦īà¦ªà¦ľ à§ĩà¦²à¦¾
Ġáĥ¬ áĥĽ
ÎŁÎ ł
ti b
ĠP f
Ġq verpgbel
Ġ×ķ ×¡
Ġol ur
Ð¾ Ð½Ñĭ
ÏĦÎ¹ÎºÏĮ ÏĤ
à¤Ĥà¤¤ à¤°
ĠÙĥ Øª
ãģĹãģŁ ãģĦ
ĠìĹ ´
ë³´ ëĭ¤
Ġna z
Ä° K
un it
ĠI B
al ik
ĠnÉĻti c
Ġmem ang
Ġbaba e
Ġv ur
cz ki
ÙĦÙħ Ø©
Ġe g
å® ĥ
ed s
ĠÙĨ ÙģØª
ĠÎŃÎ½Î± Î½
ĠV ÃŃ
Ġcos a
à¸Ńà¸ ¸à¸
n ess
Ġà¦¶ à§ģà¦§
ĠØ§Ø ¶
Ġà§§à§ ª
Ġáĥľ áĥĺáĥ¨áĥľ
áĥĲáĥķ áĥĲ
Ġqu indi
åī ¯
Ġserv ices
q q
Ġè ¨
Ġ Ïī
Ġ) ØĮ
è´ §
Ġinform asi
ri c
à¹Ģà¸£à¸ ·à¹Īà¸Ńà¸ĩ
Ġà¦Ĩà¦ĵà§Ł à¦¾à¦®à§Ģ
Ġmen os
Ġ3 6
ç ĳ
Ġ×Ĳ ×ķ×¤
é¡ ŀ
owe ver
Ġà°¨à°¿à°°à±įà°µ à°¹
Ø§Ø¨ Ø§Øª
L ER
Î³ÏģÎ¬ ÏĨ
u ales
ĠgÃ¶ n
Õ¾ Õ¥Õ¬
à¦ķ à¦¾à¦²
Ġz em
áĥĶáĥĳ áĥĿ
áĥĿáĥĳ áĥĵáĥĲ
à¶ §
à°¾à°¸ à±į
ĠT ak
Ġprov ide
áĥķ áĥĵ
Ġd ont
k Ã©
Ġf ung
ĠÏĩÏģÎ· ÏĥÎ¹Î¼Î¿
Ġà¦ĩ à¦¤
od y
ÅĽ wiet
à¥ĩà¤Ĥà¤¦ à¥įà¤°
ë² Į
Ġà°¸ à°Ń
ĠÃ§ ev
at ter
Ġwy p
Ø³Ø± Ø§Ø¦ÙĬÙĦ
Ġà° ĺ
ĠÚ©Ø±Ø¯ ÙĨØ¯
Ġëı Į
Ø³ÙĬ Ø·
Ġ×© ×Ļ×¨×ķ×ª
áĥĿáĥĳ áĥĺáĥļ
ĠØ§ÙĦÙĤ ÙĬ
ĠØº Ø°
ĠdÆ°á» Ľi
Ġê· ľ
Ġd unia
åĩº æĿ¥
Ġop en
ĠÐ¿ÑĢÐ¾Ð³ ÑĢÐ°Ð¼
Ð¾Ð» Ð¾Ð²
íĿ ¬
ÐµÑĢ Ð³
ĠØ§ÙĦØ³ Ø§Ø¹Ø©
wei se
ĠÐ¶ ÐµÐ»
Ġå¼ ł
áĥķáĥĶáĥ £áĥļ
âĸ ¡
an ita
or ting
Ġst ata
ĠW ith
ãģ¨ ãģį
åħ µ
nÄĽ nÃŃ
ĠCom o
Ġen v
å¿ µ
ck les
Õ¸ÖĤÕ ½
ì¡° ê±´
ķà¸ ±à¹īà¸ĩ
à®¤à¯įà®¤ à®¿à®°
ÏģÎ¹ Î¬
ĠáĥĴ áĥĲáĥłáĥĵ
Ġ) {
Ġáĥĳ áĥĲáĥĸ
Î¹Î½ Î®
Ġkho áº£ng
à¦¿ à§İà¦¸
Ġ×ľ×Ķ ×Ŀ
ģà¸£à¸£à¸ ¡à¸
ĠØ¹ ÙĤ
ÙĬ ÙĬ
B tn
Ġà¤² à¤¿à¤¯à¤¾
ĠIS T
Ġà°ª à±įà°²
Ġth Æ°
ĠáĥĹáĥĲáĥķ áĥĺ
åį ³
Ġáĥ¡áĥĲáĥ¥áĥĲáĥłáĥĹáĥķáĥĶáĥļ áĥĿ
Ġhab er
Ġdi m
ĠM ed
ĠÏĥÏħÎ¼ Î¼Îµ
Ġâĺ ħ
en da
ie go
Ġcï¼Ĳ M
Ġvik tig
uy áº¿t
äºº çļĦ
ul ang
Ġà¦Ĺ à§ĩà¦²
à°¸à±įà°Ł à±į
osi al
\\\\ \\\\
is c
áĥ Ł
è³ ĩ
ĠO ok
Ġp oli
Ġg usto
Ĭ à¸Ļà¸
Ġè »
æķ ħ
k elijk
æħ ĭ
Ġà®ħà®® à¯įà®®
à¦² à§ĭ
Ġáĥľ áĥĿ
ĠÐ» Ð¸ÑĨ
Ġpag t
áĥ«áĥ¦ áĥķáĥĲáĥľ
×ķ×¦ ×¨
nÃŃ k
çĶŁ æ´»
Ġà®ħ à®ª
à¸²à¸ ģà¸
Ġterj adi
Ġc ount
Ġst and
d eki
Ġdis se
Ġåī į
à¤¿à¤¯ à¤¾à¤Ĥ
Ġad ire
Ĥ à¹īà¸²
Ġqu Ã©
je to
j ours
Ġchu áº©n
ìķ ħ
Ġyax Ä±n
Ġt ussen
Ġáĥ¬ áĥĶáĥł
Øº Ø·
éĥ¨ åĪĨ
ĠìĿ´ë ¯¸
Ã¡c e
20 0
Ġ×Ĳ×ł ×©×Ļ×Ŀ
zi g
Ġf riend
Ã¢ ng
à¨ ®
ë¶ģ ëıĦ
à¥įà¤¯à¤¾à¤ļ à¥Ģ
Ġque m
à¥ĩà¤Ĥ à¤Ĺà¥ĩ
ĠÏĢÏģÎ¿Ïĥ Ïī
Ġa ant
Ġbel um
Ġt ap
ãĥĩãĤ£ ãĥ¼ãĤ¹
Ġh os
ãģĹãģ¦ ãģĬ
ä¸Ĭ ãģĴ
Ġæ° ´
Ġd ri
© ëĭĪëĭ¤
áĥłáĥ£áĥ ¥
áĥĲáĥ§ áĥĿáĥ¤
Ġn á»ķi
Ġà¤¯à¤¾à¤Ĥ à¤¨à¥Ģ
Ġfiles _
Ġáĥ¥ áĥł
ĠØ® ÙĪØ§ÙĨ
Ġà¦ªà¦°à¦¿à¦ļ à¦¾à¦²
Ġà®Ĩ à®£
Ġth ings
Ġë² Ħ
åħįè´¹ è§Ĩé¢ĳ
ĠÂ ¡
áĥĺáĥĻ áĥ£áĥł
ìĹħ ê³Ħ
Ġsch ool
à®¾à®° à®®à¯į
li ÄŁ
Ġà¦¸ à¦¾à¦¬
Ð½ Ð¸Ð¹
ĠÙĩ ÙĪØ§
à¤¾à¤ķ à¤°
ug an
ĠÙĨØ¯ Ø§Ø±Ø¯
A T
×ŀ ×Ļ×ª
Ġkel u
Ġà°²à±ĩà°¦ à°¾
Ġ Ć
äºĨ ä¸Ģ
Ġsu re
Ġk iá»ĥm
ĠÙ¾Ø±ÙĪ ÚĺÙĩ
Ġm ul
ant ie
ĠmÃ¼ ÉĻyyÉĻn
ÑĪ Ðµ
ĠDet aljer
Ġà¦Ĩ à¦¤
ãĥ« ãĥĪ
ĠçĶ ¨
Î»ÎŃ Î¿Î½
Î´ Ïī
Ġa ku
z elf
Ġcas ino
ĠÅ¡ kol
ĠìŀĪ ìĸ´
ÐµÐ½ Ð½ÑĭÐ¹
ĠP ang
ĠÑĨ Ð²ÐµÑĤ
Ġnost ro
Ö ĥ
Ġãĥ ¢
ĠØ´ Ú©ÙĦ
Ġà¦¹à¦² à§ĭ
Ġch er
Ġbet ter
Ġà¤µà¤¾à¤² à¥Ģ
ãĥ¼ãĥĵ ãĤ¹
ĠTh u
Ð°Ð»ÑĮ Ð½Ð¾Ð¹
à¤® à¥Ģ
ĠØ¯Ú© ØªØ±
Ø§Ø´ ÛĮ
od ig
Õ¡Õ ¢
Î±Î½ Î¬
à¦¾ à§°
ĠÎ¤ Î¿Ïħ
ĠÐŀ Ð´
ĠEr mÉĻn
ĠáĥĲáĥĽ áĥĲáĥ¡
áĥĲáĥ¢ áĥĺáĥ¡
9 18
ĠáĥĶáĥ¥ áĥ¡áĥŀ
Ġà¦ªà§įà¦° à¦¾à§Ł
on ych
ÙĤ Ø¨ÙĦ
ãģĻãģĻ ãĤģ
Ġv ÄĽt
Ġà¦§ à¦°à§ĩ
ĠÐ³ Ð´Ðµ
ØªÙħ Ø±
ÐµÐ³ Ð¾Ð´
ĠÑħ Ð¾ÑĤ
ŀà¸ ±à¸
à¥įà¤¯à¤¾à¤¸ à¤¾à¤łà¥Ģ
ë¥ ł
Ġà°µ à±ĩà°¸
Ķ à¹Į
ĠØ®ÙĪ Ø¨
Ġà®¤à®®à®¿à®´ à®ķ
×ķ×¡ ×ĺ
¢à¸ ±à¸ĩ
×Ľ ×Ļ×Ŀ
ĠáĥĲáĥļ áĥĳ
Ġqu ien
rei ch
Ġáĥ¡áĥŀáĥĶáĥª áĥĺ
ĠáĥĽ áĥĲáĥłáĥĹáĥļ
Ġ3 1
ãĥ¼ãĥ ©
em ek
Ġà¦² à¦¿à¦ĸ
Ġà¦¸à¦® à§įà¦Ń
ĠH otel
u á»ĵn
ĠáĥĲáĥ ª
Ø§ÙĤ Ø§Øª
s ah
Ã¼ Ã§
Ġda i
Ġre la
Ġåĩ º
Ð¾ÑģÑĥÐ´ Ð°ÑĢ
ĠThe o
Ġag æ³¨åĨĮ
Ġæ Ĥ
ĠâĢĿ ãĢĤ
ì° °
Î¸ ÏħÎ½
v or
Ġset elah
à¦¾à¦¸ à§įà¦¤
ĠØ²ÛĮ Ø§Ø¯ÛĮ
Ġlaz Ä±m
à¹Ĥà¸ Ķà¸¢
ĠÙĤ Ø§ÙĨÙĪÙĨ
n on
Ïĥ Î®
Ġ×Ĵ ×ľ
ĠmÃ¼ d
Ã¼ d
ÅĻeb a
Ġ×¡ ×¤
Ġhá» ¯u
R O
ĠÙ¾ ÙĪØ´
ĠÙĪ ÙħØ§
Ġak ong
Ð¾ÑģÑĤÐ¾ ÑıÐ½
ĠmÉĻs ÉĻl
æ¸ Ī
ĠÎµ ÏĦÎ±Î¹
un as
aci a
ĠØ§ÙĦØ£ ÙĪÙĦÙī
iy asÄ±
ĠØ¨Ø§Ø´ ÛĮØ¯
ãģį ãģ¾ãģĻ
ti an
Ã© tÃ©
ĠÎ½ ÏĮ
Ġà®µà®° à¯Ī
Ġà°ļà±Ĥà° ª
Ġà¸ŀ à¸£
Ġà®®à®¾à®µ à®Łà¯įà®Ł
k l
ĠÙĦÙĦ Ø¹
p s
à°°à±įà° Ń
Ġà°ĩ à°¦
©à¸ ±à¸
Ġmon de
èĳ ī
ĠØ§ÙĦØ§ÙĤ ØªØµ
à®¯ à®®à¯į
Ġà°ķ à°³
ĠÎ§ Î±
Ġre cher
ãĤ· ãĥ§
Ġà¦ı à¦Łà¦¾
Ġæ² ³
Ġ×Ļ ×ķ×ĵ
à· Ħ
è§ Ĵ
Ġà°µ à°¾à°¡
à¹īà¸ ¡à¸
Ġáĥª áĥ®
ĠgÃ¼ c
Ġsel bst
Ġà¦¨à¦¿à¦ ī
Ġp ay
Ø±Ø¨ Ùĩ
ale Å¼y
ĠáĥĽáĥĿáĥ¥ áĥĽáĥĶáĥĵ
ĠáĥĽáĥĿáĥ¥ áĥĲáĥļáĥĲáĥ¥
Ġà¤ľ à¤²
Ġu ang
ĠÙħÙħ Ú©ÙĨ
à¦ Ļà§įà¦ķ
Ġà®ķ à®¾à®¤
Ø¨ÙĬ ÙĤ
à¥įà¤¤ à¤¿
re ckles
à¸Ńà¸Ńà¸Ļà¹Ħà¸¥ à¸Ļà¹Įà¸
ĠáĥłáĥĲáĥĿ áĥĵáĥĶáĥľ
áĥĲáĥłáĥ ¥
áĥĺáĥ£áĥł áĥĲáĥĵ
Ġter hadap
Ġi hned
ĠÑģÐ² ÑıÐ·
k r
Ø§Ø ¸
Î½ ÎµÎ¹
Ġz ien
Ġ×Ĳ ×Ķ
Ġà´ ¤
á»Ń i
áĥĶáĥ¨ áĥĶ
ìłķ ë¶Ģ
×Ļ×ŀ ×ķ×ª
Ġà¤µà¤¿à¤ Ń
à®¾à®° à®£
y ing
Ġà®ķ à®´
Ġáĥĸ áĥĶáĥĵ
ĠY eni
ĠëĦ Ī
Ġà°ļà±ĩà° ¤
Ġp ia
ĠØ· Ø¨ÛĮ
Ġm áº¡ng
ĠÑĢ Ñĭ
ĠÙĬ ÙĪÙĨ
Ġt áº¥t
Ïĥ Î¹Î¬
Ã§ ilÉĻr
×§ ×ĳ
áĥ «áĥļ
åĪĨ æİĴåĪĹ
ĠÙĩØ¯ Ùģ
ĠÚ© Ø§ÙĨ
Ġà¸ªà¸ ³à¸«
ãĥĹ ãĥ¬
ÐµÐ½ÑĤ ÑĢ
Ġà¤¬à¥Ģ à¤ļ
Ġkh ÃŃ
Ġà®¤ à®¿à®©
äºº æ°Ĺ
r up
áĥĴ áĥĲáĥł
´ë ĵľ
ĠØªØŃ ÙħÙĬÙĦ
à±įà°µ à°°
Ġáĥ¡áĥĲáĥ£áĥĻ áĥĶáĥĹáĥĶáĥ¡
ĠØ§ÙĨÙĤÙĦ Ø§Ø¨
3 4
Ġg ÉĻti
czne go
Ġroz hod
ier no
an cia
Ġtan pa
Ġà¦¬à¦¿à¦ ¬
ÐµÐ½ÑĤ Ð°
à¦Ĺ à¦ŀà§įà¦ľ
Î» ÏİÎ½
Ġj a
s om
Ġber t
ĠktÃ³ ra
ĠØ§ÙĦ ÙĪÙĦ
Ļ àµįà´
ĠÎ² Î±Ïĥ
Ġt ÉĻ
à°ķ à±įà°°à°®
Ð¼ ÐµÑģÑĤ
Ġp owie
æıĲ çİ°
à®¿à®® à¯ģà®ķ
ĠÎ¿ÏĢÎ¿ Î¯
Ġle ven
à¤¦ à¤¾à¤°
Ġes sa
çĻ Ĥ
Ġfe at
æĹ© é¤ĲåĬłçĽŁ
Ġch á»ĳng
Ġszcz eg
Ġf amily
it er
ĠÏĩÎ± ÏģÎ±Îº
ĠÙĦ Ø¯ÙĬ
à®¿à®¯ à®¾à®©
Ġà®¨ à®¾à®©
ta j
Ġdo is
ĠØ§ÙĦØŃÙĥ ÙĪÙħØ©
ang i
Ġáĥĳ áĥ£áĥľ
ĠÎļ Î¿
Ĺà¸µà¹Ī à¹Ģà¸
Ø§Ùģ ÙĬ
Ġà¤µà¤¿à¤¶ à¥įà¤µ
Ġb ene
¸à¸ ģ
ÙĪ Ø¨Ø±
am en
ari as
Ġkol ej
Ġà§ ¯
Ġl igne
Ø§Øª Ø±
à±ĭ à°®
ë¡ľ ìļ´
Ġz it
ur al
ãģĹãģ¦ ãĤĤ
Ġvel mi
ĠU ni
Ġd uring
ĠãĢ ĸ
Ġà¤¹ à¤¾
ãĤĪ ãģŃ
Ġà¦ľ à¦®
ab ei
ÏĦÎ· Î³Î¿
ĠìĿ¼ ë³¸
em ap
ĠØ¬Ùħ Ø¹
is p
Â ¢
Ġy ardÄ±m
Ġ×Ķ×ŀ×© ×¤×ĺ
ĠB us
ce p
Ġà¤¸à¥įà¤¥ à¤¿à¤¤
Ġ×© ×Ļ
Ġ×ŀ ×ľ×Ĳ
alak ing
Ġæı Ĳ
Ġmassas jerom
äºº çĶŁ
Ġwith out
Ġempres a
Ġch ÃŃ
¥à¸ ±à¸
emb le
à°¿à°Ĥà° ¤
ĠK ami
l Ã¨
Ġra cc
Ġà°¤à±Ĩà°² à°¿à°ª
ĠRep ly
Ð°Ð»ÑĮ Ð½Ð¾Ð³Ð¾
ĠÚ©Ø§ÙĦ Ø§
Ã¢n cia
ues to
à¯ĭ à®°à¯į
ĠÙ¾ ÙĦ
ĠØ§ÙĦØ¬ ÙĨ
áĥķáĥļ áĥĶáĥļ
ĠÚ©Ø§Ø± Ø´ÙĨ
äº§ ä¸ļ
à¦¨à§įà¦¤à§įà¦° à¦£
ĠáĥĽáĥĿáĥ« áĥł
ĠÐ¸ ÑģÐº
ĠØ§ÙĦØ¨ ØªÙĩ
Ġg á»įi
Ġà®µà®³ à®°
ĠÎ´ ÎµÎ¯
Ġà°ªà±įà°° à°¸à±įà°¤
Ġb ahan
åħįè´¹ è§Ĥçľĭ
ĠÎµÏģÎ³ Î±Ïĥ
Ġf ound
ç´ ¹ä»ĭ
ĠíĻ Ģ
ĠØ§Ø ¸
à¹Īà¸²à¸ §à¸
Ġm inh
Ġà¦¸à¦Ńà¦¾à¦ª à¦¤à¦¿
à¦¾à¦Ĥ à¦¶
ĆĈ ą
un que
Ġpro j
ĠáĥĵáĥĲáĥĻáĥĲáĥķáĥ¨áĥĺáĥł áĥĶáĥĳáĥĺáĥĹ
Ġáĥ¡ áĥłáĥ£áĥļ
Ġ×ĵ ×¨×ļ
Ġé ¢
ÑĢÑĥ Ð¶
Ġkom en
Øª ÙĪØ±
Ġìłľ íĴĪ
áĥĺáĥª áĥĺáĥŀ
ĠyapÄ±l an
Ġbe p
Ġsim p
ĠJ u
Ġs tore
Ġx alq
li h
ëį ¤
Ġ×Ľ ×ł
Ġà¦Ĩà¦ĩ à¦¨
å¸ Ń
ĠÑģÐ¾ Ð¾Ð±Ñī
Ġs ido
ëŀ µ
Ġqu er
Ġme u
Ġëĵ¤ ìĸ´
Ġà¤ķ à¤ª
Ġv Ã¥
Ġ×ķ ×¤
ĠØ§ÙĦØ³ ÙĦØ§Ùħ
à®£ à®¿
ĠáĥĿ áĥª
ĠÙħÙĪ Ø¨
Ġáĥļ áĥĲáĥłáĥĺ
åģ· æĭį
ĠØ¢Øº Ø§Ø²
å ĺ
å¼ µ
Ġà¦ļà¦¿à¦ķ à¦¿à§İà¦¸
Ø¶ ÛĮ
×Ļ×¡ ×Ķ
Ġà°ªà±įà°° à°¶
ĠÙ¾Úĺ ÙĪÙĩ
ë² ł
áĥĲáĥĵ áĥĲ
à¯ģà®¤ à®²à¯į
à¸µà¹Īà¸ ¢à¸
Ġä¸Ĭ æµ·
ver e
ĠáĥĴ áĥĲáĥłáĥĵáĥĲ
amb ar
à±Ĩ à°¡à±įà°¡à°¿
s I
ĠØ¯Ø§ÙĨØ´ Ø¬
Ġp m
Ġà¤ª à¤£
Ġçİ¯äºļ å¨±ä¹Ĳ
æī ¾
Ġsp iel
çīĪ ä¸ĭè½½
Ġìķ ł
Ġà®µà¯ĩ à®²
Ġà¦¯ à§ģà¦ķà§įà¦¤
w oord
ç´ į
Õ¡ÖĢÕ ¤
ĠÙħØ· ÙĦØ¨
à±ĩ à°Ĥà°¦à±ģà°ķà±ģ
Ġæ¯ ı
Ġat tivitÃł
Ø§ ÙĪÙĨ
ĠÐ¼Ð°ÑĤ ÐµÑĢÐ¸
Ġà®ļ à®¿à®µ
à¹Ģà¸£à¸ ·à¹Īà¸Ńà¸ĩà¸
Ġp utas
åľ Ł
Ġb aw
Ġul ti
Ġlitt le
à§ §
tic al
ĠÐ¿Ð¾Ð¼ Ð¾Ñī
Ġáĥĵ áĥĶáĥĽ
ĠÎ± Î³Î¿
Ġil ang
ĠÑģÐ¿ Ð¾ÑģÐ¾Ð±
Ñ ĸ
å® ħ
Ġt iáº¿n
à¥Ģ à¤ľ
åŁİ å¸Ĥ
Ġimport ant
Î´ Î¿Ïħ
áĥĺ áĥĲáĥł
Ø¨ Ø±Ø§ÙĨ
ĠÎł Î¿
áĥķ áĥĺáĥļáĥĺ
×¦ ×ķ×ª
à¹Ħà¸Ķà¹ī à¸£à¸±à¸ļà¸
Ġf ik
Ġpan tip
Ġ Ïį
Ġx Ã¡c
Ġ201 0
ìķĺ ëĭ¤
ĠáĥĽ áĥĲáĥł
à°¿à°¸à±įà°¤ à±ģà°Ĥà°¦à°¿
æĬķ èµĦ
Ġà¤¶ à¤¾à¤®
Ġê²ĥ ìĿĦ
Ġáĥ¡áĥĲáĥŃáĥĺáĥł áĥĿ
ĠhÉĻy ata
à¹Ī à¸Ńà¸
Ġà°µà°¿à°· à°¯
Ġsit emap
Ġà¦² à¦¾à¦ĸ
¨ ìĸ´
Ð½Ð¾ÑģÑĤÑĮ Ñİ
ĠJ o
= =
Ġäºļæ¸¸ app
Ġf ino
ĠÎłÎµ ÏģÎ¹
ĠØ¬Ùĩ Ø§ÙĨÛĮ
ĠØ® Ø§ØµØ©
ĠëķĮë¬¸ ìĹĲ
us us
Ð¿ÑĢÐµÐ´ ÐµÐ»
ł ¤
áĥļ áĥĿáĥĴ
ÙĨ Ø§Ùħ
×ķ×© ×ľ×Ļ×Ŀ
Ġsu cc
į à¸²à¸
Ġà®¨ à¯Ĥ
à¦Ł à¦¿à¦°
Ġà¦¦ à§Ĥ
Ġprob lem
Ġdes envol
ĠØ§Ø¸ Ùĩ
æĸ¹ å¼ı
Ãª te
Ġpre mi
uh kan
Ġà¤Ĩà¤ª à¤ķà¥ĩ
×ĵ ×©
ç¦ı åĪ©
Ġáĥŀ áĥĲáĥł
äºº ãģĮ
à¤® à¤¾
Ð¼ ÐµÑĤ
Ġê²ĥ ìľ¼ë¡ľ
à¤°à¥įà¤ ļ
Ġc Ã¼
ãĤĦ ãģĻ
ÄĽ nÃŃ
Ġrec ei
ĠáĥĽáĥ£áĥľ áĥĺáĥªáĥĺáĥŀ
à¹īà¸ ĩ
Ġcon os
ber o
åĪ ¤
à¸£à¸²à¸ Ĭà¸
×¡ ×ª
Ġb amb
a akt
Ġag o
Ġ Ã¼n
à±Ī à°²
ÏĦÎ® ÏĥÎµÎ¹ÏĤ
Ã³ d
Ġà¤ĩ à¤¤
Ġà®¤ à¯ĩà®ļ
Ġì¹´ì§Ģëħ¸ ìĤ¬ìĿ´íĬ¸
g es
Ġtout es
Ġà¦ª à¦¾à¦ķ
al nya
Ġci udad
ang ga
Ġr und
ĠØ£ ÙħØ§
à°¾à°° à°£
ow aÅĤ
ĠdÃ¼ÅŁ Ã¼n
ĠØ£Ùħ Ø§Ùħ
Ġes per
åº ĥ
angg ang
à§įà¦ £
Ø¸ ÙĩØ±
os o
ÎµÎ¯ Î¿Ïħ
Ġ3 2
ĠÙħ Ø±ÙĥØ²
ÑĥÐ± Ð»Ð¸
ow Äħ
f ten
Ġa chter
gun a
Ã¸n n
Ġ ãģĹãģĭ
Ġil iÅŁ
ãģį ãģ¾ãģĹãģŁ
ĠÏĥÏħÎ½ ÎµÏĩ
ĠØ§ÙĦÙħÙĨØª Ø¯Ùī
Ġì ±Ħ
Ġà°¸à°Ĥà°¸ à±įà°¥
Ġc Ã¢y
Ġà°¸ à±įà°ķ
ent ar
à¯ģà®ªà¯įà®ª à¯ģ
ĠÙ¾ Ø°
ÙĨ ØªÛĮ
ÛĮ Ø·
ar ten
ack ing
ĠÎ´ Î®
Ø¸ ÙħØ©
Ġà¤ª à¥ģà¤°
ĠÙħÙĨØª Ø¯Ùī
Ġis s
ti ske
Ġbas ed
ĠÙĨÙĤ Ø´
Ġversch ill
ĠØ§Ø¨ ÙĨ
×Ļ×ŀ× ª
uh e
Ġbe oord
g lÄħ
áĢ Ģ
Õ¥ÖĢ Õ«
Ġà®®à¯ģà®¤ à®²
Ġs owie
Ġë¨¸ ìĭł
ãģį ãģª
ĠÚ© Ø³Ø¨
ÄĻ t
Ô ±
il itÃ©
an Ã§a
ÐµÐ½ Ð½Ð¾Ð¹
yak it
æĻ ļ
Ġtou te
é¼ İ
ĠØ§ÙĦØ´ÙĬ Ø®
Ġà°ª à°¿à°²à±įà°²
à¯įà®ļ à¯įà®ļà®¿
à°¾à°¨ à°¿à°ķ
Ġà®® à®¾à®±
Ġà°¤ à±Ĩ
Ġle urs
Ġpan ahon
l ÉĻm
æı Ľ
Ïħ ÏĥÎ·
Ġà°®à°¾à°° à±įà°ļ
Ġz us
Ġr Å¯
Ġor der
Ġul aÅŁ
Ġs áº¯c
Ġu0 c
Ġáĥŀ áĥļ
ãģĦ ãģªãģĦ
ĠÐ´ Ð°Ð¶Ðµ
Ġì§Ģ ìĽĲ
ëĤ¨ ëıĦ
ĠÃ¼ re
åį «
h ar
me z
Ġ×Ĳ×ķ×ª ×Ķ
Ġd ni
Ġáĥ®áĥ¨áĥĺáĥł áĥĲáĥĵ
à§ģà¦ Ń
Ġh uis
Ġà°¤à±Ĩà°² à±ģà°¸
ĠD o
j Ã¸r
ĠÙħÛĮØ² Ø§ÙĨ
Ġ×ª ×¢
ÑĨ Ð¸Ð¹
ĠQ ue
l ijke
Ġé¦ Ļ
Ġà¦Ĩà¦° à§ĭ
Ġu ÅŁaq
ĠmÉĻk tÉĻb
áĥĽ áĥĲáĥłáĥĹ
Ġmar aq
ãģ¨ è¨Ģ
m ie
à®° à®¾à®ķ
áĥĺáĥ ¬áĥ§
ĠÙħØ³Øª ÙĤ
ol u
Ġol tre
ĠhÉĻy at
ler inde
tion en
s ik
à±Ĩ à°Ĥà°¬
à¸Ń à¸Ńà¸ģ
ŀà¸ §à¸
ud ian
Ġke tika
×§ ×ľ
ĠØ§ÙĦÙħ ÙĦ
ĠØ§ÙĦØ¹Ø±Ø¨ ÙĬ
à¤Ĥ à¤¸
ta zione
Ø¯ Ø§Ø´Øª
ow er
ru ck
Ġsa dece
ĠÙĬÙĤ ÙĪÙĦ
Ġsn el
×ŀ×¢ ×ķ×ª
à¤µ à¤¾à¤²
ç» Ī
á Ĥ
ª à¹Įà¸
à¯Īà®ªà¯įà®ª à¯ģ
Ġë¨¹ íĬĢ
Ġáĥĵ áĥĲáĥĵ
å¸ ģ
ig ing
Ġà¹ģà¸ ¥
çµ ¦
ĠmÃŃ st
ĠO ur
m sc
Ġqiy mÉĻt
Î¼Îµ Î½Î±
ĠÎµÎ¹ Î´
ĠØ¨ Ø³Ø¨Ø¨
ĠÐ¡ Ð¿
ĠáĥĽ áĥĶáĥ£áĥ
Ġdies em
ÎºÎµ ÎºÏģÎ¹
Ġà¦Ń à§Ĥ
à§į à§°
ĠØµ ÙĦÙī
Ġc op
áł¢ áł
à±ĩ à°¨à°¿
Ã¥ d
Ĭ à¸´à¸
Øº Ø±
ĠØŃØ³ Ø§Ø¨
ar beid
áĥĺáĥĻ áĥĿáĥ¡
Ġà¤µà¤¿à¤ §
à°ª à°Ĥà°ļ
ĠV is
ĠD ans
Ùİ ÙĪ
à°°à±įà° ľ
az ar
Ġà¤ķ à¤¾à¤Ĥà¤Ĺ
Ġà¦® à§ĩà§Ł
Ġà®®à¯ģà®ķà¯įà®ķ à®¿à®¯
ĠÙħÙĪ ÙģÙĤ
ÏĦ ÏģÎŃ
ĠH ar
Ġg áº·p
Ġm áº¥t
à¤°à¥įà¤ ¡
t ek
Ġà¤ħà¤¨ à¥įà¤¯
éĵ ģ
áĥĽ áĥłáĥĹ
ÐºÐ° Ñħ
ĠÐºÑĢ Ð°Ñģ
· à¸Ńà¸ĩ
×Ļ×Ĳ ×Ķ
ĠÚĨ ÙĪÙĨ
¡à¸ ±à¸Ļ
Ġal am
ĠØ« ÙĦØ§Ø«
Ġà¦¨à¦¿à¦ ¶
áĥĺ áĥĲáĥ¡
à¤Ĺ à¤°
ĠÄ° Ã§
ĠÙħ Ø¨Ø§Ø±
Ġj etzt
Ġ×Ĳ ×ĵ
Ġn ya
Ġper form
ĠáĥĻ áĥĿáĥļ
Ġkj Ã¸p
ĠG eb
Ġf ly
åĲ ¬
nost ÃŃ
Ġot ro
lÉĻr dÉĻn
Ġta ong
Ġc Ã¢u
Ġfor t
æ´ ŀ
ĠÏĥÎ· Î¼Î±Î½
Ġmemb antu
ĠØ£ Ø±
ĠÎ´Î¹ Îµ
ĠâĻ ª
Ġà°µ à°¦à±įà°¦
à¯įà®© à¯ģ
Ġag ç½ĳæĬķ
Ġà®®à®° à¯ģà®¤à¯įà®¤à¯ģà®µ
ĠØ· ÙĪØ±
ĠÑģ ÑĥÐ´
ÏĦÎµ ÏģÎ±
Ġc ab
ci mento
ĠHv or
à¬ °
Ġg esch
×ª ×Ĳ
Ġà¨ ľ
Ġåĩ¯ æĹ¶
à¯Īà®¨à¯įà®¤ à¯ģ
à¥ĩà¤¶ à¤¨
×ŀ× ¤
Ġ×¨ ×©
à®® à®¾
Ġpue den
ÙĪÙĦ ÛĮ
Ġw id
Ĺ à¹Į
×ķ×© ×Ļ×Ŀ
Ġ×ľ×Ķ ×ĳ
Î³ Î¿Î½
ul as
Ġos lo
Ġlay ih
lo g
Ġ ÅĻe
f at
ĠÑıÐ² Ð»ÑıÐµÑĤÑģÑı
Ġáĥ¡ áĥĲáĥķ
ĠØ· Ø±Ùģ
ìŀĲ ê°Ģ
Ġ Ã¡p
Õ¸ÖĢÕ ®
ĠF ran
æĭ ©
ĠÐ¿ÑĢÐ¾ ÑĦ
ĠÖ ī
Ġà¦¨à¦¿à¦ľ à§ĩà¦°
ĠB es
Ġà¤¬ à¤²
Ġdi gunakan
Ġinform asjon
Ġà°ªà±įà°°à°¾à°° à°Ĥà°Ń
Ġà°ħà°µ à°ķà°¾à°¶
Ø§ÙĦ Ø¯
à¦¾à¦ĩ à¦ķ
Ġà¦ı à¦Łà¦¿
ãģĿ ãĤĮ
é ¸
ĠØ§ÙĦØ£ ØŃ
Ġ×ĳ ×Ļ×ĺ
Î¹Ïĥ Îµ
ĠÄĳ Ãºng
ĠÙĪÙĩ Ø°Ø§
ĠÙĨ Ú¯
Ġmu st
p ro
Ġáĥľ áĥĶáĥĳáĥĺáĥ¡
èĩª åĪĨ
Ġbah ay
orzy st
Õ« Õ¿
Ġà¸ ľà¸¹à¹īà¸
Ġà®īà®¯ à®¿à®°
ist an
k ara
ĠØ® ÙĦ
n Ã½m
ĠP ÅĻÃŃ
Ġt ÃŃn
Ġe pek
ÙĪ ØŃ
Ġji Å¾
ĠtÉĻq dim
Ġà°¨ à±ģ
ĠØ´ Ø±
Ġj o
Ġà°İ à°²à°¾
sch ap
ä¸ ¥
à®ªà¯įà®ªà®Łà¯įà®Ł à®¤à¯ģ
Ġh ans
t on
æĮ Ĥ
Ġnat uur
Ġal go
Ð¿ ÐµÑĢ
Ġagäºļæ´² æ¸¸æĪı
ĠL u
è¡Į ä¸ļ
ĠáĥĽáĥĿáĥ¡ áĥĲáĥ®áĥļ
ĠÐ» Ð¸
Ġà¦¹ à¦¤à§įà¦¯
Ġë° Ŀ
à¹Ī à¸Ń
çİ° åľº
äº¤ æµģ
Ġà¦¨à¦¿à¦°à§įà¦ ¦
Ġ á»
Ġà°ķ à±ģà°Ł
åĴĮ åĢ¼
Ġg ek
ct ed
ull e
Ġà¤ī à¤¦
Ġà°®à°¾à°¤à±įà°° à°Ĥ
ìķ Ļ
ĠÙĤ ÙĬ
Ð¸Ð± Ð¾
Ġso it
ĠB akan
à®© à¯ģà®®à¯į
ĠÎº ÏģÎ±
à°¿à°Ĥà°ļ à°¡à°Ĥ
ĠáĥĽáĥĲáĥĴ áĥĲáĥļ
ouve z
_c om
Ġal tijd
er ah
Ġ áº¥y
Ġà°®à°Ĥà°ļ à°¿
Ġà®® à®²
ÏģÎ¹ Î¿ÏĤ
ĠáĥłáĥĲáĥ¦ áĥĲáĥª
ĠS au
ĠÎłÎ± ÏģÎ±
ĠìĹĨ ëĬĶ
Ġkom t
×Ļ ×Ļ×ª
ag ne
è« ĩ
à¦¿à¦¦ à§įà¦§
Ġy Ã¼ksek
Ġà®ªà¯Ĭ à®¤
æĤ ¨
ĠØ§ÙĦØª Øµ
ê· ł
Ġis ti
ĠY ang
Ġg Ã³
uf f
r icht
èĽ ĭ
Ġc lass
ãĥ³ ãģ®
Ġëª¨ ëĳĲ
ĠÑĩÐµÑĢ ÐµÐ·
Ġog gi
ĠáĥĲáĥŀ áĥł
Ġà®ħà®¤ à¯Ī
ĠÏĨ Î±
×Ľ ×ķ
ĠØ£ Ùģ
ĠÃ ³
Ġà¦ļ à¦¾à¦ĩ
Ġav st
ìł ĳ
Ġì§ Ī
Ġ4 7
Ġre tt
n in
ãĥ¼ãĥ Ĳ
Ġà¦¶ à¦°
Ïĥ Ïį
à¦¾à¦ķ à¦¾à§Ł
q iq
ĠÙĥ Ø±Ø¯
Ġde j
Ġy o
Ġv eldig
ãģĵãģ¨ ãģ§
Ġà¦¤à§Ī à¦°à¦¿
Õ¸Õ ½
Ġjen is
Ġà¦ĺ à§ĭà¦·
ĠÕ¨ Õ¶
ĠÎº Îµ
áº ¢
Îµ Î²
ĠÎ¾ ÎµÎº
Ġb ych
Ġdal le
ãĤī ãģªãģĦ
Ġà®ªà®¤ à®¿à®µ
áł¡ áł
à¦¾à¦¹ à¦¿à¦¨
ĠÐ¸ Ñģ
Ġcont ent
ĠØ´ÙĩØ± Ø³ØªØ§ÙĨ
Ġà®¤à¯ĩà®° à¯įà®¤
ĠÙħØ±Ø¨ ÙĪØ·
ĺà¸ ¸
Ġpod em
Ġà®µ à®¿à®®
ĠØ® Ø¯Ø§
ï¼ Ķ
ĠÐ¾ Ð½Ð°
n ung
à±Ĥà° ¤
ØŃ ÙĨ
ĠëĮĢ íĳľ
Ġkon u
Ġà®ľ à®©
ä¸į åĲĮ
Î¹ ÏİÎ½
Ì ĥ
Ġ×Ĳ ×£
Ġè® ©
à®¿à®° à®¿
Ġber main
as it
lig ere
il is
Ġå® ŀ
à¤¦ à¤¾
Ġà¸ ĭ
Ġà¹Ģà¸ ĺà¸
Ġà¦¬à§įà¦¯à¦¬ à¦¸
ÑĢ Ð¾Ñģ
Ġli v
ĠØ¢Ø®Ø± ÛĮÙĨ
Ġpo co
Ġ rz
åº §
is sion
ĠØ¢ÙĨ ÙĦØ§ÛĮÙĨ
ĠÙĪ Ø¶Ø¹
á Į
ĠdÃ¶v r
ĠÐŁÑĢ Ð¸
Ġes e
Ġnh u
Ġ×ĸ ×ŀ×Ł
Ġop ini
ie ux
ett es
av ab
ti ma
áĥĶáĥĳ áĥĶáĥĳáĥ¡
w ikk
åľ¨çº¿ æĴŃæĶ¾
Ġà¤ľ à¥įà¤¯à¤¾à¤¦
Ġsp ill
Ġm ie
et ter
ĠØ¯ ÙĨ
à¦¬ à¦°à§įà¦¤
Ġëĭ¤ ìĿĮ
åħ¬ è§£æ¢¦
Ġà¦Ĩà¦¹ à¦®
Ġáĥ¬áĥĺáĥľáĥĲ áĥĲáĥ¦áĥĽáĥĵáĥĶáĥĴ
à¤² à¤Ĥ
Øª Ø¨Ø±
Ġm á»Ł
Ġn Ã¡v
ĠMil ano
è´ µ
×¨×Ĳ ×ķ×ª
ìĻ ķ
Ġx ÉĻst
ç® Ģ
ĠÎº Ïį
Ø³ ÙĬÙĨ
Ġk ÉĻs
æĮ ī
ĠØ§ÙĦØ¨ ØŃØ±
Ġ×Ĵ×ĳ ×ķ×Ķ
ĠÙĨ Øµ
Ġv ra
ter ior
à¦¾à¦ Ŀ
ĠØ§ÙĦÙħ Ø®
à¯Ĥ à®ķ
Ġon u
ĠT Ã´i
Ġà°ª à°¾à°Łà±ģ
Ġà®ªà¯Ĭ à®±
à¥įà¤¯ à¤¾à¤¨à¥ĩ
Ġáĥ¬áĥĲáĥłáĥĽ áĥĲáĥ¢
ĠN ej
ĠÎ±Î½ Î¸ÏģÏİ
ĠÃ ĳ
ĠÙĪ ÙĦÙħ
Ð¸ÑģÑĤ ÑĢÐ°
à¤¤ à¤°
Ø±Ø¨ ÙĬ
ilm esi
à¨¾à¨ °
íĺ ĳ
ĠA f
ĠØªÙĪØ§ÙĨ Ø¯
e w
ĠmÃ¼n asi
Ġà¸ §à¸±à¸Ļà¸Ĺà¸µà¹Ī
ÏģÎ¿ Î¹
Ġà®¨ à®®
×ķ×ŀ× ĵ
è Ĵ
áĥĺ áĥĶáĥłáĥĺ
Ġv ic
Ġçº¿ ä¸Ĭ
Ġà°Ĩ à°¦
ìľ ¨
Ġb Ãł
Ġà¤¤à¥įà¤¯à¤¾à¤ ļ
Ġn asa
Ġåİ Ł
ļà¸£à¸´à¸ ©à¸±à¸
à¦¨ à¦¿à¦ķ
ĠØ³ ÙģØ±
Ġdu a
çľŁäºº æ¸¸æĪı
Ùģ Ø¸
ĠØª Ø¬Ùĩ
ì¡ Į
ĠK l
ĠØ£ØŃ ÙħØ¯
à¹Ĥà¸ ¢à¸
Ġtr anh
Ġ1 åĪĨå¿«3
s iz
an ne
k ovÃ©
Ġ×Ķ×ª ×Ĺ
Ġà°¨ à±ĩà°¤
Ġáĥ©áĥķáĥĶáĥľ áĥ¡
Ġant ara
Ġåĳ¨ åħ¬è§£æ¢¦
Ġà®¤à®© à®¤à¯ģ
ĠÐ¶ ÐµÐ½
áĥĴ áĥĲáĥķáĥ¡
ĠÐ¡ Ð
Ġà°ļà±Ĥà° ¸à±įà°¤
à¸£à¸ ĸà¸
ĠÙĦ Ø¯
ĠpÅĻ ip
Ġï¼ Ĵ
çļĦ æĺ¯
Ġza Äį
ĠÅ¾ Ã¡d
Ġà°µà°° à°ķà±ģ
Ø§Ø¦ Ùģ
ĠagåĽ½éĻħäºļæ¸¸ å®ĺç½ĳ
Ġà¦¨à¦¿à¦ ¯à¦¼
à®° à®µ
Ġd ÉĻst
ĠÙĪØ² ÙĬØ±
Ġë§Ī ì¹´ìĺ¤
on Ã¡
Ġæ¾³éĹ¨ çĻ¾å®¶
ĠÑĢ Ð¾Ð´
Ġh áº¡n
Ġà°ħà°µ à°¸
c tor
Ġp ilih
áĥĶáĥĳáĥļ áĥĿáĥĳáĥĺáĥ¡
à±ĩà°· à°¨à±į
ĠhÉĻm in
ìĽ Ģ
Ġgior ni
Ġch ia
Ġà®Ĵà®° à¯ģà®µ
Ġ ingen
Ġ×¨ ×ķ×¦×Ķ
Ġà®¤ à®¾à®ķà¯įà®ķ
ĠL A
áĥĲáĥķ áĥĵáĥĲ
Ġt our
ĠæĽ ´
ĠÛ°Û°Û° ØªÙĪÙħØ§ÙĨ
Ġà°İ à°Ĥà°¤
ĠÙĨ ÙĤÙĦ
Ġà°°à±Ĩ à°Ĥà°¡
ro j
Ġse a
ĠÙħØ¬ÙħÙĪØ¹ Ùĩ
è¯ ¾
à¦¾à¦ĵ à§Łà¦¾à¦°
åŃĹ å¹ķ
Ķà¸ ³
ĠÑĤ Ð¾ÑĢ
ìĤ¬ ë¥¼
ĠãģĿ ãģĹãģ¦
ÙĪØ± Ø´
Ð¾Ð± Ð°Ð²
çļĦ åĲĹ
ģà¸´à¸ Īà¸
ĠÑĥÑģÑĤ Ð°Ð½Ð¾Ð²
Ø·Ùģ Ø§ÙĦ
Ġet was
à§ĩà¦ķ à§įà¦·
Ġ×ľ×ŀ× ¦
ĠÙĥ ØªØ§Ø¨
à®¾à®Ł à¯įà®ļ
ÙĬØ§ÙĨ Ø©
Ġan lam
ĠNam un
nÃ¡ m
ì ³
ĠìĤ¬ ìĿ´íĬ¸
Ġ8 3
ĠáĥĹáĥĳáĥĺáĥļáĥĺáĥ¡ áĥĺ
ĠÕ° Õ¥Õ¿
tow e
ĠÐŁ Ð¾Ñģ
å¾ ħ
Ħà¸ §
ĠtÉĻm in
Ġáĥĺ áĥ¢
ĠGe w
ĠÐ´ Ð¸
Ãł m
Ġà¦ĸ à§ĩà¦²
à§ģ à§Łà¦¾à¦°
at ura
×ķ×ĵ ×©
Ġáĥłáĥ£áĥ¡ áĥĶáĥĹáĥĺáĥ¡
ur y
Ġà°°à°¾à°ľ à°ķà±Ģà°¯
Ġáĥľ áĥĲáĥ¬áĥĺáĥļ
Â ¤
Ĳ ëĭ¤
ĠáĥĶ áĥ¤
ĠãĤŃ ãĥ£
Ġpros es
ĠØ§ÙĪÙĦ ÛĮÙĨ
Ġs ang
Ġhis tÃ³
ÏĦ Î¯Î±
è®¾ å¤ĩ
à¥įà¤¯ à¤¾à¤¨
ĠÅĽ wi
Ġd ÉĻn
ĠáĥĹ áĥķáĥĺáĥ¡
Ġc Ã¡o
Ġbildir ib
Ġmar ket
ĠáĥĴ áĥĲáĥĸ
Ø³ Ø§ÙĨÛĮ
ë§Į ì¡±
à§ľ à¦¾
Î» Ïį
à¥ĥ à¤·
Ġsc ar
ĠÐ½ÑĥÐ¶ Ð½Ð¾
ta i
ĠÐ¿Ð¾Ð· Ð²
Ġãĥ ¯
Ġ×Ĳ×ķ×ª ×Ŀ
j aw
Ġà®ĩà®² à®Ļà¯įà®ķ
áĥĶáĥ Ł
åĩ °
Î¼ÎŃÎ½ ÎµÏĤ
åıĳ å¸ĥ
«à¹ĩ à¸Ļà¸
ĠØŃ ÙĬÙĨ
ĠáĥŀáĥłáĥĿáĥ¤ áĥĶáĥ¡
ĠÙħØ¬Ùħ ÙĪØ¹Ø©
é Ń
ĠØ§ÙĦÙħ ÙĦÙĥ
ar b
Å¼ a
Ġto das
Ġà¤¯ à¥ĩà¤
Ġà°Ĩ à°¶
ei ll
ta il
Ġ×©×ľ ×ļ
p is
ul it
Ð¸ÑĤ ÐµÐ»ÐµÐ¹
Ġv n
à« Ģ
Ġà§¨à§¦à§§à§ ®
ri k
ĠCom e
à¦® à§įà¦¯à¦¾à¦¨
Î¿Ïį ÏĤ
Î© Î£
ĠØ£ ÙĤ
×Ļ×ĳ ×ª
88 çİ¯äºļ
áĥ« áĥĺ
ĠÔ± Õµ
Ġçİ¯äºļ çĶµæ¸¸
â ĩ
Ġà°ĩ à°¤
Ġà¦¬à¦² à¦¾
an eiro
ĠáĥĹáĥĲáĥķ áĥĵ
į à¸²
ĠáĥĿáĥĹ áĥĲáĥ®
li que
ĠÎ±ÎºÏĮ Î¼Î±
Ġà°ķ à°®
ĠÙĪØ§ÙĦ Ø¯
ãĤ¤ ãĥī
Ġ×ľ×§ ×ĳ×ľ
Ġngh i
Ġà®ª à®±à¯įà®±à®¿
ì½Ķ ìĬ¤
ÃŃ an
ĠÙĨÙĪØ´ ØªÙĩ
c ke
æŃ ¦
Ġtr áº£
Ġà°ª à°¾à°Ł
s ÉĻd
Ð°Ð»ÑĮ Ð½Ð¾
Ġprzy pad
Ġà¦¯ à¦ĸà¦¨
Ġà¦ł à¦¿à¦ķ
¸ à¸Ļà¸
es sion
áĥ£áĥ Ĵ
áĥĶáĥĳ áĥĺáĥª
ie ld
Ġà®Ĩà®° à®®à¯įà®ª
lÉĻrin dÉĻ
ÙĤÙĬ ÙĬÙħ
Ã¸p nin
Ġà¦ľ à¦¾à¦®
ĠÎµ Î¼ÏĢ
ÙĬ ÙĤ
ĠKh i
a an
×ķ×ł ×ª
Ġ×Ķ×¨ ×ĳ
Ġpro dej
Ġìķ ¼
âĢĮ à°²
ļ àµįà´ļ
Ïģ Î¯Î±ÏĤ
à±Ĥà° ®
ĠÐ¾ÑĤ Ð²ÐµÑĤ
Ġè Ĥ
est Ã£o
à¥ Ľ
Ġman ag
Ġà°Ĺ à°¤
Ġà°İ à°²
Ġel k
ĠØ¨ Øµ
ĠâĹ ı
Ġgior no
ĠÎ±ÏĢÎ¿ ÏĨ
ĠGi Ã¡
es ten
à®¿à®© à®¾à®²à¯į
Ġà¤¸ à¥ģà¤¨
Ġcont in
ĠP reis
à¸Ńà¸²à¸« à¸²à¸£
Ġc Æ°
Ġv ak
ĠÃ¼ st
à±ģà°Ĥà°¦ à°¨à°¿
Ġs yst
Ġà°ªà±įà°°à°¤à±įà°¯ à±ĩà°ķ
×§ ×ĺ
à±ĩà° ³
è¦ ı
Ġpag l
Î¶ Îµ
å® £
ĠS te
Ġèµ Į
èĳ Ĺ
ĠáĥĽáĥĺáĥ ®áĥĶáĥĵ
Ġl ung
Ġs co
Ġv ÉĻt
Ġbud ou
ap kan
Ġà¦¶ à§įà¦°
ÏĨ ÏīÎ½
ÏģÎ± ÏĢÎµ
ĠPre zident
ÉĻm mÉĻd
Ġåħ ³
Î¼ ÏĢÎ¿
ĠÐ³Ð¾Ð´ Ñĥ
rit to
Ġëĭ¤ìĸĳ íķľ
ĠØ§Ø± Ø²Ø´
ãĤ¢ ãĥ«
è· Ł
Ġà¤¶ à¥įà¤°à¥Ģ
ĠÐ¿Ð» Ð°Ð½
e el
Ġz ij
Ġmas yarakat
ë¦¬ ë¥¼
çĶ¨ æĪ·
Ľà¸¥ à¸²
áĥ®áĥĽ áĥĲáĥł
ĠØ¶ Ø¯
Ø« Ùħ
ÏģÎ¿ ÏĨÎ¿
à°¾à°° à±įà°¥
Ġà®¤à¯Ĭà®Łà®° à¯įà®ª
áĥĶáĥĳáĥļ áĥĿáĥĳáĥĲ
×¨ ×ķ×Ł
Î¼Î¿Ïį ÏĤ
Ġáĥ¡áĥĲáĥ ¯
ë¥ ´ë
a ine
Ġà¦¹à¦¾à¦¸ à¦ªà¦¾à¦¤
Ġut vik
à®¿à®ªà¯įà®ª à®Ł
Ø³Øª Ø±
Ġhá» Ĺ
ĠÙħ ÙħØ§
Ġáĥĵáĥ¦ áĥĺáĥ¡
Ġtho áº¡i
Ġk osten
Ġc á»±c
Ġà¤īà¤¤à¥įà¤¤ à¤°
Ġé £
ĠÏħ ÏĢÎ·ÏģÎµ
Ġt ÉĻb
ĠGen el
¤ åĩ°
à¹Īà¸²à¸ ĩà¸
Ġde ve
åĸ Ħ
Ġ ãģĻ
Ġet dir
ĠP rzy
íķ´ ì£¼
ate urs
ãĤ¤ ãĥ¤
Ġqu ella
ĠØª ÙĦÙģ
ish ed
Ġp icc
ÐµÐ½ Ð¾
åĩ ı
à¥įà¤ ł
íķĻ êµĲ
Ð¼ Ð¸Ð½
d s
Ġáĥ® áĥĿáĥĽ
ĠÐł Ð°Ð·
Ġíķĺ ê³ł
ãĥĹ ãĥŃ
Ġne xt
à¤Ĩ à¤Ī
Îº ÏİÎ½
Ġáĥ¨áĥĶáĥ ¤
ĠÙĩ Ø§ØªÙģ
Ġáĥ¡ áĥłáĥ£áĥļáĥĺ
to m
Ġv Ã¡m
ĠÐ¼ Ð¸ÑĢ
ĠgÃ¶r Ã¼ÅŁ
Ġni Å¼
Ð¸Ðº Ð¾Ð²
Ä±r Ä±m
Ġà°µ à°²à±įà°²
Ġfin ne
Ġsm all
à±ĭ à°¹
áĥ¯ áĥĶáĥł
lÃ¼ ÄŁ
Ġà°¨à°¿à°° à±įà°£
d za
Ġpro ces
im iento
Ġáĥ£áĥ ŀ
à¤ ĩ
à¥ĩà¤Ĥ à¤Ł
ti che
0 6
Ġum um
ĠÐ³ Ð»
à§Ĥ à¦ª
ĠØ§ÙĦØ£ ÙħÙĨ
¶à¸ ģà¸
Ġt ag
Ġto da
ĠC ons
Ġpow in
ï½Ĺ ï½Ĺ
Ġà¤Ĳ à¤¸à¥ĩ
ÙİÙĨ ÙĴ
×Ļ×ł ×Ĵ
Ùĳ Ùı
Ð°Ð»ÑĮ Ð½ÑĭÐµ
un e
ĠØ§ÙĦÙĥ Ø«ÙĬØ±
Ġf reckles
Ø§Ø· ÙĤ
ç© į
ĠAB Åŀ
à°ļ à°¨
h aus
ÙĩÙĩ ÙĩÙĩ
áĥĲáĥŀ áĥĲáĥłáĥĲáĥĻ
Ġt ulad
à¦¿à¦ £
Ġs Ä±k
Ġì§Ħ íĸī
Ġà¤¦à¥Įà¤° à¤¾à¤¨
ĠÏĥÏĦÎ¹ Î³
Ġtr an
ĠM od
à¯Ģ à®´
à¸Ļà¸µ à¸
Ġl áº¥y
s ÃŃ
Ġthu á»ĳc
v os
ĠW eb
Ġnak ak
ĠPok ud
Ġqual quer
Ġ×ĳ×Ĳ ×ŀ×¦
Ġà°ľà±Ģà°µ à°¿à°¤
Ġt Ã©lÃ©
ĠØ§ÙĦØ¹ ÙĤ
ov en
ĠÙĪØ³ ÙĦÙħ
Ġà¹Ģà¸ Ħà¸£à¸·à¹Īà¸Ńà¸ĩà¸
Ġdiff Ã©r
ãĥ¼ãĤ« ãĥ¼
áĥĻ áĥķ
Ġ, âĢĿ
ON E
asi onal
à®ķà¯įà®ķ à®¿à®¯
×ŀ× ¡
ĠÎºÎ¬ ÏĦÎ¹
Ġr áº»
ë²Ī íĺ¸
ÑĢ Ð°Ð±Ð¾ÑĤ
d re
æ± ī
ĠÃ¶z el
ĠìŀĲ ëıĻ
ĠÏĨ ÏħÏĥ
ti le
Ġer st
å¥³ æĢ§
is es
ed y
çİ¯ å¢ĥ
Ġéķ ·
Ġm ut
et hing
ĠÅŁÉĻk il
à¹Īà¸ ¡à¹Ģà¸
à´¿à´ ķàµįà´ķ
à¥ĩ à¤µ
Ġcon ta
Ġs luÅ¾
Ã£ ng
Ġt Æ°Æ¡ng
Ġà¤¬ à¥ĭ
à§¦ à§¦
Ġà¤ķ à¤Ĥà¤ª
ĠÐ· Ð°Ð½
ĠêµĲ ìľ¡
ĠÏĢ Î¹Ïĥ
ĠI to
×ŀ× ĺ
Ġå¤§åıĳ äºĮ
ma ÄŁa
Îº Î®ÏĤ
iÄĻ k
Ġwyk on
ãģĶãģĸ ãģĦãģ¾ãģĻ
Ġar tÄ±q
Ùħ ÙĬØ³
Ġpro y
ĠÄĳ áº§y
à®ķà¯įà®ķ à¯ģà®®à¯į
Î´ ÎµÏħ
ĠAs s
t Ã³w
Ġed ad
is inde
Ġíİ ĺ
Ġah ora
Ġà¤µ à¥Ī
ÑĨ ÐµÐ²
ìĹĪ ìĬµëĭĪëĭ¤
Ġå ķ
à¦¤ à¦®
ÎŃ ÏģÎ³
Ġpen ting
Ġmais on
æ¹ ¾
ªà¸´à¸Ļà¸ Ħà¹īà¸²
ĠâĢľ .
ÏĪ ÎµÎ¹
Ġáĥ¡ áĥĺáĥª
ĠáĥĲáĥ¨ áĥ¨
Ġê·¸ ëŁ°
à¦¾à¦ ¯
ãģ¸ ãģ®
Ø¨ Ø§Ø´Ø¯
å¸ «
Ġíĺ ķ
Ġd y
Ġà°¸ à°¾à°®
Ġà°ħà°¯ à±įà°¯
Ġbag o
Ġà¤¦à¥ĭ à¤¨à¥ĭà¤Ĥ
ĠÙħ Ø³ÙĦØ³ÙĦ
Ġdi ri
à¯Īà®ª à¯Ĩ
ĠS eg
ag amit
ĠÐ¿Ð¾Ñģ Ð»ÐµÐ´
âĸ¡ âĸ¡
ĠÄĳ áº¥u
Ġab le
Ġà¦ª à¦¥
ĠØ¨ÙĪØ¯ ÙĨ
ĠØ§ÙĦØ´ Ø¹Ø¨
ro p
Ġê°ľ ìĿ¸
Ġpow er
ĠIB _
Ġà®ª à®¿
Ġáĥ¡áĥ¢ áĥĲáĥ¢
Ġkur ul
Ġn ÉĻfÉĻr
è®º åĿĽ
ì¶ľìŀ¥ ìĨĮìĿ´ìĬ¤
ÙĪ Ø¨Ø©
à±Ģ à°ķà±įà°·
Ġk lar
ĠØ¨ÛĮÙħ Ø§Ø±ÛĮ
ĠnÃ¼m ay
Ġà°¹à±Ī à°¦à°°
ãĤ¤ ãĤ¹
Ġgr oup
ë¦¬ ëĬĶ
el u
åį ĥ
Ġno ong
Ġà¤ķà¤¾à¤Ĥà¤Ĺ à¥įà¤°à¥ĩà¤¸
à¯Īà®ªà¯įà®ª à®Ł
Ġvol ta
Ð¿ Ð¾Ð»
Ġà¦ĸ à¦¬à¦°
ÏģÏīÏĢÎ± ÏĬ
à¤ ĥ
Ø§Ø¨ Ø¹Ø©
Ġor a
ĠìĿ¸íĦ° ëĦ·
ĠÎµÏĢÎ¹ ÏĩÎµÎ¹
Ġz ahr
v alg
Ġà®¤ à®©à¯į
ĠáĥĻáĥĿáĥĽ áĥĶáĥľáĥ¢
Ø§ ÙĪØª
Ġte xt
Ùĩ ÙĨ
ãģ¹ ãģ¦
Ġpr ow
H E
à¤°à¥įà¤ ķ
ĠÎ£ Î±
Ġà°®à±Ĭ à°¤à±įà°¤
Ġ×Ļ×Ķ ×Ļ×Ķ
ĠÎķ Î½
«à¸Ļà¸ ±à¸ĩ
ab as
Ġáĥ¡áĥĲáĥ¥áĥĽ áĥĶ
ãģĹãģ¾ ãģĨ
Ø± ÙĬÙĨ
ĠØ³ ÙĨØ©
Ġá ĭ
Ġãĥ ĵ
æŁ Ĳ
Ø§Ø±Ùĥ Ø§Øª
Ġbit amina
å· ®
Ġà®ļà¯Ĩà®¯ à¯įà®µ
Ġcomment s
ÏĬ ÏĮÎ½
Ġà®¤à®ķ à®µ
ĠØ§ÙĦÙģÙĦ Ø³Ø·ÙĬÙĨ
Ġ3 7
Ã¼ c
ĠA pp
à¯ģà®¤ à®¿
ĠØŃ Ú©
Ġ×Ķ×© ×ľ
×ķ×Ľ ×Ķ
ĠØ¨Ø³ÛĮ Ø§Ø±ÛĮ
Ġà¦¸ à¦¾à¦²
Ġà¤ķà¥Į à¤¨
Ġsp rzed
Ġt ipo
à§Ł à¦¨
à¤Ń à¤¾
Ġk li
ĠáĥĽáĥĿáĥ«áĥł áĥĲáĥĿáĥĳ
æ¯Ľ çīĩ
ê¸° ìĹĲ
Ġà°Ĩ à°¡
Ġest os
ª à¹Īà¸ĩà¸
er de
aliz aÃ§Ã£o
ĠÐ³ Ð»Ð°Ð²
à°¿à°¸à±įà°¥ à°¿à°¤
ĠÎ¹ ÏĥÏĩ
ĠV á»Ľi
Ġáĥ ļáĥĺ
ĠçĶ ±
Ġtou jours
Ġb ay
Ġà®® à®¾à®°
ĠáĥĹ áĥĲáĥł
ÎĻ ÎĳÎ£
Ġk en
ĠÃ¼ lk
Ġà¦ Ĳ
Ø§Ùģ Ùĩ
ä» ħ
ak in
ÑĭÐ¼ Ð¸
esi Ã³n
Ġsp Ã©
ĠØ¹ Ø¯Ùħ
ur ut
Ġte ÅŁ
ah al
Ġpagk ak
Øº ÙĬ
Ġ5 4
Ġser a
Ġac tiv
Ġé¦ ĸ
è¿ °
Ġmo i
Ġà®¤à®² à¯Īà®®
à°¾à°² à°²à±ĭ
Ġà¦ķà§Ł à§ĩà¦ķ
Ø² ÙĬ
Ġqual ity
ĠØ ¦
Ġbl itt
I A
Ġi g
Ġáĥ¡áĥĲáĥ£áĥĻáĥĶáĥĹáĥĶáĥ¡ áĥĿ
ese h
Ġå¥½ è¿Ĳ
à¤¸ à¥įà¤ķ
Ġare a
Ġc Ãłng
ier ung
Ġgro te
íĻį ìĦ±
ĠØ§ÙĦÙĤ Ø·
ĠU t
si ÄħÅ¼
Ġáĥ¡áĥĲáĥ ¬
Ġà®ķà®¾à®° à®£
å² Ľ
è³ ¼åħ¥
Ġt Ã½
os yal
ªà¸³à¸« à¸£à¸±à¸ļ
ĠáĥĴáĥĲáĥł áĥĶáĥ¨áĥĶ
¥à¹ĩà¸Ńà¸ ķà¸
ì§Ģ ê³ł
ãĤ ¼
Ġ×ŀ ×ķ×¡
ĠR io
j alan
Ġm inha
ãģ£ãģ¦ ãģĦãģ¾ãģĻ
Ġà¤µ à¥įà¤¯à¤ķ
áĥł áĥĶáĥĳáĥ¡
Ġà°ķ à°¾à°ķ
Ġ×Ķ×¡ ×¤×¨
er int
ĠÙĦ Ø¨ÙĨ
Ã¶ne tim
ëª ¸
ä¸ĩ åĨĨ
Ġof re
ÙĩØ§ ÙĬ
à¦¿à¦ķ à§ĩà¦Ł
Ú© ÙĪ
ĠÏĥ ÎºÎ¿
Ġgro ot
Ġà°Ĩ à°§
Þ¬ Þ
Ġsty le
å½± åĵį
ãģ« è¡Į
Ġà¤ľà¥Ī à¤¸à¥ĩ
on as
Ã¡ Å¾
Ġcual quier
Ġ×Ķ×ŀ× ¤
à®¤à¯įà®¤ à¯ģà®ķà¯įà®ķà¯ģ
Ã¼ ber
ĠÐ¾Ð±Ð»Ð°ÑģÑĤ Ð¸
Ġpossib ile
Ġà¦īà¦ª à¦¸à§įà¦¥
ĠÎľ Î·
ĠÐĺ Ð·
Ġà®®à¯ģà® ¯
á¿ ¶
ĠáĥĵáĥĲáĥķ áĥĺáĥĹ
×§ ×ĵ
Ø§Ø¦ Ø¹
à°¿à°¸ à±įà°Ł
Ġsam o
Ġï¼Į âĢľ
Ġà®ħà®¤ à®©à¯į
ĠÏĢÎ±Î¹ Î´Î¹Î¬
Ġà°ªà±įà°° à°ªà°Ĥà°ļ
ĠØª ÛĮØ±
áĥķáĥļ áĥĲ
åĽ½éĻħ åİħ
Ġà¦ķ à¦¾à¦²
à¦Ľ à¦¿
ĠÃ¶z ellik
Ġkh áº£
ĠÙģØ±ÙĪØ´ Ú¯Ø§Ùĩ
ÙĲ ÙĦ
èŃ °
ur os
ĠØ¯ Ø§Ø®
çĶŁ äº§
k Ä±
Ġd ÃŃas
à®¾à®Łà¯įà®Ł à¯ģ
ĠíĮ ¨
Ġáĥĺáĥ¥ áĥľ
ĠK j
Ùİ Ø§ÙĦ
Ġáĥ¤ áĥĲáĥ¡
ìķĪ ëĤ´
×Ļ×© ×Ļ
Ġå¤§åıĳ ä¸ī
ĵ ¤
Ġ×© ×ł×Ķ
Ġter ug
ĠìĿ´ë Ŀ¼
Ġ×Ĺ×ĳ×¨ ×ª
ÐµÑĢ ÑĪ
ĠĈ ą
Ġt ÉĻhsil
ĠØ¹ Ø²
áĥļ áĥĶáĥĳáĥ¡
çĽ¸ åħ³
Ġlang _
du c
é ı
ĠB ild
åĦ ª
à§ĩà¦ «
à¤£ à¤¾à¤°
æ´ ¥
Ġ×Ĺ ×Ļ×Ļ×Ŀ
Ġà®¨à¯Ģ à®¤
à¤ľ à¥ĩ
3 9
Ġmeng en
ĠS ay
Ġà¤² à¥ĭà¤ķ
Ġà¤ªà¥įà¤° à¤ķ
ĠÄĳ áº£m
Ħ à¹Ī
ĠáĥĽáĥĿáĥ ¬
Ġgi áº£
åķı é¡Į
Ġà¹Ģà¸ Ľ
Ġáĥ¯ áĥĲáĥľ
ĠzÃ¡ klad
t rag
Ġà¦ªà§įà¦°à¦¶ à§įà¦¨
Ġà®ķ à¯Ī
Ø¨ÙĦ Øº
Ġ×¢ ×¡×§
Ã¼ h
Ġd ou
anj ut
Ð¸ Ñī
ĠØ¹ÙĦ ÙĪÙħ
Ġno k
at uit
Ġche z
Ġand eren
ĠGr und
ãĤı ãģĳ
Ġè Ļ
Ġmak ak
Ġk endi
ĠáĥĽáĥ£áĥľáĥĺáĥªáĥĺáĥŀ áĥĲáĥļ
Ġà°µà°ļà±įà°ļ à°¿à°¨
ĠÙĪÙĤ Øª
ÏĥÏĦÎ· ÎºÎµ
Ġà¦ªà§įà¦°à¦§à¦¾à¦¨à¦® à¦¨à§įà¦¤à§įà¦°à§Ģ
Ġà°¤à±Ĩà°² à°¿à°¸
à®¿à®ķà®³ à®¿à®²à¯į
ĠáĥĵáĥĲ áĥĲáĥķáĥĲáĥĵ
ĠÏĥ ÏĦÏĮ
¢ à¸Ńà¸
ç´ ¢
Ġà®ª à®³à¯įà®³
Ġáĥĳ áĥĲáĥľáĥĻ
Ġáĥ¤ áĥĿáĥľ
Ġà¦¬ à¦¹
ĠÙħØ¨ Ø§Ø´
ra it
ĠÐ³ Ð¾Ð²Ð¾ÑĢ
Ġob chod
ĠÐ± Ð°Ð½
ĠÕ Ĩ
à¸£à¸§à¸ Īà¸
Ġsel ama
ĠØ§ÙĦØªØ¹ ÙĦÙĬÙĤØ§Øª
âĢĮ Ø§ÙĦ
ĠÑĢ Ð°Ð¹
ĠSt r
Ġmom ento
æī §
ÉĻli f
Ð°Ð¹ÑĤ Ðµ
l ess
Ġï ¾
Ġl á»±a
ĠØ· Ø±ÛĮÙĤ
×ķ×ŀ× ł
ĠØ§ÙĨØ¯ Ø±ÙĪ
Ġm ulai
Ġpar tico
Ġåħ įè´¹
ĠÏĦÏĮ ÏĥÎ¿
à¦¨ à§įà¦Ł
à¯ģà®® à®¾à®©
×Ļ ×ķ×Ŀ
in os
Ġà°ª à°µ
à¤¾à¤¸ à¥įà¤¤
ĠÎķ Î»Î»Î·Î½
ap h
ĠV o
èĸ ¬
ä¹ Ŀ
Ġ4 5
ĠedÉĻ c
ĠDeutsch land
¡ à¸´à¸
å° Ĥ
ĸà¸ ¹à¸ģ
Ġà°µà°¿à° ®
li ci
Ġáĥĳáĥĺáĥĸ áĥľáĥĶáĥ¡
Ġà¦¹ à¦¾à¦®
à¦Ł à§įà¦Ł
iy anÄ±n
ì² ł
Ø§Ø¬ Ø©
Ġg amit
O NG
Ġgift Btn
ì§Ģ ìĹŃ
ĠnÄĽ jak
à¦¨à§įà¦¦ à¦°
Ġkar ar
Ġrec en
ĠáĥĲáĥłáĥ ©áĥĶáĥķáĥľ
alÄ± dÄ±r
Ġtr Æ°á»Łng
ĠÙ¾ ÛĮØ¯Ø§
ÏĦ Î¿ÏħÏĤ
Ġì§Ģ ê¸Ī
ĠëĺĲ íķľ
ĠÙĦØ¨ Ø§Ø³
à¹īà¸ ³à¸
eb y
Ġà¤² à¤¿à¤ĸ
à¸µ à¸Ļ
Ġkay sa
Ġp uis
ĠÙħØŃ ÛĮØ·
Ġ×¨ ×¢
ëĮĢ êµ¬
ĠB o
ä¸Ģ æľ¬éģĵ
as is
ĠÐ¾Ñģ Ð¾Ð±
ĠU omo
å¼Ģ å§ĭ
Ð² Ð¾ÑĢ
Ø§Ùģ ÙĤ
à°¾à°Ĺ à±ĩ
ent Ã³w
ĠØ§ÙĦØ ¸
ĠáĥĲáĥ ¢
çª ģ
Ġnov o
ĠwiÄĻ c
ä¿ Ĥ
Ġbir i
×Ļ×ľ ×ķ×Ŀ
Î»Î¿Î³ Î¯Î±
Ø¨Ø¯ Ø£
ĠÏĥÏĦ ÏģÎ±
ĠØµÙĨ Ø¹Øª
8 0
Øª ÙĬÙĨ
ri que
ĠnghÄ© a
ÑģÐº Ð¾Ð¼
ĠÎŃÎ½Î± ÏĤ
ĠN ov
áĥłáĥĽ áĥĲ
ĠÙħÙĪØ¨ Ø§ÛĮÙĦ
ç ĩ
Ġdan h
ĠS in
Ġç» ı
Ġwar to
ĠÏĥ ÏįÎ½
Ġká» ¹
ĠìĿ´ë² Ī
Î¹Î± Ïĥ
ĠØ£ÙĬ Ø¶
ĠÐ²Ñģ ÐµÑħ
Ġri c
ĠF rau
ï»¿ [
ĠáĥĲáĥłáĥĲáĥĽ áĥĶáĥĵ
Ġav ait
ĠáĥĵáĥĲáĥ ĸ
Ġb re
ab ang
ĠÎ¼Î± Î¶Î¯
Ġz ag
ĠyÃ¼ks ÉĻk
Ġq or
ĠØ§ ÙĤ
Ġà°ħà°¨à±įà°¨ à°¿
Ġwith in
sk je
ĠÐºÐ» Ð°ÑģÑģ
Ġm áº«u
Ġà¸Ĺà¸ ³
Ġm awalan
Ġb ang
Ġed ilib
Ġà®¤ à®¿à®±
ØµØ± ÙĬØ©
×Ļ×ĸ ×Ķ
ãĥķãĤ© ãĥ¼ãĥł
á»ĵ m
ab aÄŁ
ĠÐ ®
ĠÐ²Ñģ ÐµÐ³Ð¾
E M
Ø³ ÙĬØ©
Ġà°¦ à±Ģà°¨
o ta
é Ĳ
ĠØ£ Ø¬ÙĦ
äºº äºº
ĠK a
ĠH ÉĻm
à±ģà°µ à±ģ
Ġà¤ķ à¤²
ĠÙĪØ² ÛĮØ±
ard ia
Ġsch w
Ġà¦¤ à§ĭà¦®
li co
lÉĻr lÉĻ
ch os
ĠS ta
ĠO m
ĠP ada
ĠìĹ¬ ëŁ¬
ĠëĬ Ĳ
æĹ¥ ãģ®
ĠNg Æ°á»Ŀi
Ġsp o
ĠÙħÙĩ ÙĨØ¯
Ġè Ĭ
ĠE N
à§ĩà¦·à§įà¦Ł à¦¾
¶à¸ ĩà¸
Ġà¸Ħ à¸²à¸ªà¸´à¹Ĥà¸Ļ
Ġáĥĺáĥķ áĥľáĥĺáĥ¡
± à¹īà¸Ļà¸
à°¾à°® à°¨à°¿
Ĥà¸²à¸ ¢
ĠØ£ ÙĩÙħ
ĠCh ÃŃnh
µ ìħĺ
ÐµÐ³Ð¾Ð´ Ð½Ñı
ĠÙģÙĬ ÙħØ§
ĠÎĺ Î±
ëĮĢ ìĥĿ
Ġgi ve
an den
ĠØ¬ ÙħÙĦÙĩ
ĠÐ² Ð°Ð¼
à¯ģà®® à®¾
áĥĲáĥļáĥĺ áĥĲ
ĠÅĽ rod
Î Ĳ
ĠÑģ ÐµÐ¼
áĥĿáĥłáĥ ĵ
ĠY Ä±l
ĠÎ± ÏĢÎµ
Ġp ut
Ġ×Ķ ×ķ×ĵ
ŀà¸ ·à¹īà¸Ļà¸
ë§ ģ
ĠëĮĢ íķ´
Ġç Ĳ
cu te
Ġ×Ķ×ĳ ×¨
ĠÛ±Û³Û¹Û µ
Ġm Ã¶
ĠØ¨ ÙĨØ¯
è® ¿
Ġà¹ģà¸ ķà¹Ī
×ĳ ×Ĳ
id d
Ġl Æ°u
Ġt á»ĳi
¢à¸ §
ĠëĤ¨ ìĽĲ
æĶ »
à³ į
Î¹Îº Î·
cz nym
Ġs yn
à¦¿à¦ ¥
Îł Îĳ
Ġd ne
×ŀ ×Ļ×Ł
×Ļ×Ľ ×Ļ×Ŀ
ĠÙ¾ ÛĮØ±
is on
ÐµÑģÑĤ Ð¸
Ġáĥ©áĥĶáĥĽ áĥ¡
Ġlu áºŃt
ç§ Ł
Ġå± ±
Ġà¨ ħ
áĥĿáĥĳ áĥĹ
ĠTr ang
eseh atan
ĠÙħØ¯ Øª
à¤¾à¤µ à¤¾
æ§ ĭ
Ġé© ¬
Ġne ue
ĠØ£ÙĬ Ø¶Ø§
ĠÂ ¢
Ġ×Ľ ×Ķ
Ġkad Ä±n
urs os
éĶ ĭ
à¦£ à§ĩà¦°
Ġl á»ĩ
áĥĲáĥ®áĥļ áĥĿ
à®© à¯įà®®
Ġsecon do
ãģĻãĤĭ ãģ¨
Ġ×ŀ×ª ×Ĺ
Ġnew s
Ø§ÙĪ ÛĮØ±
Ġquel ques
Ġtech n
ĠÙħ Ùģ
Æ°Æ¡ i
à°²à±įà°² à°¿
à¤¾à¤Ĥ à¤ļà¥įà¤¯à¤¾
Ĭà¸µà¸ §à¸´à¸
èµĦ æºĲ
è ¬
Ø§ ÙĬØ±
ÑĤ Ð°
ĠT ag
at te
n ement
gen s
Ġd onna
Ġngh e
Ġl ek
ab les
ĠhÃ¼ quq
Ġà§§à§ ®
×Ļ ×Ļ×Ł
«à¸¡à¸ Ķ
ĠÐ¿ Ð¾Ð»ÑĮÐ·
Ġp ed
Ġet k
ĠH al
R A
Ð°Ðº ÑĤÐµÑĢ
ĠV e
Ø§Ùħ ÙĦØ©
Ġf ace
à¹Ģà¸ ŀ
Ġv asit
Ġ×Ķ×¤ ×¨
æĤ ª
c oup
ĠÄį esk
ĠS et
Ġon larÄ±n
ĠEs ta
L CJ
ĠWar sz
Ġ×ŀ×© ×ª
in ie
ÎŁ ÎĻ
Ġçī ¹
Ð¸ÑĤ Ð¾ÑĢ
åĸ ¶
ãģĵãģ¨ ãĤĤ
Ġä½ ¿
Ġh otel
Îº Î¹Î±
Ġè ©
em aal
ĠÙħÙĦÙĬ ÙĪÙĨ
Ġbers ama
Ġq adÄ±n
Ġsom ething
Î´ ÏīÎ½
ction s
Ġs endo
Ġáĥ£áĥ ª
à¯Īà®¯ à®¾à®³
ĠÎ½ÎŃ Î±
tiv nÃŃ
ur uh
ĠÉĻm ÉĻl
ÑĢ Ð¾Ð¿
à±ģà°² à°¤à±ĭ
ĠÎµ Î¼ÏĨ
as y
D F
Ġáĥĵ áĥĲáĥ¢
¡ å¸ĥ
Ġì¶ľìŀ¥ ìĹħìĨĮ
eb ab
×Ļ×ľ ×ĵ×Ļ×Ŀ
å¤Ħ çĲĨ
à¹Ģà¸£à¸µà¸ ¢à¸Ļ
æĸ Ĺ
ÅĤ od
Ġres ult
Ġà¤®à¥ĭ à¤¦à¥Ģ
Ñı Ñģ
èĩª æĭį
à±ģà°² à±į
à°¿à°ª à±ĭà°¤
l uss
Ġà¤ªà¥Ĥ à¤°à¥įà¤µ
uy áº¿n
Ġfa ut
Ġtet api
ĠáĥĽáĥĺáĥ®áĥĶáĥĵ áĥķáĥĺáĥĹ
ĠÐ¼ ÐµÐ´
Ġà°ĩ à°Ĥà°¡
Ġsek ali
Ġà¤īà¤ª à¤¯à¥ĭà¤Ĺ
Ġà®ħà®® à¯Īà®ļà¯įà®ļ
Ġf am
åĨħ å®¹
ī´ ìĬ¤
áĥĺáĥł áĥĺáĥ¡
ĠØ§ÙĦØµ ÙĬÙĨ
Ġn es
ov ou
ler den
ai ent
ãģª ãģŁ
Ġb ig
Ġst os
à¥ĭ à¤¡à¤¼
Ġy áº¿u
æĹ¶ åĢĻ
ãĥĸ ãĥ«
Ġge ht
ĠØ§ÙĦØ® Ø§Ø±Ø¬
ãģ µ
Ġáĥ¨ áĥĶáĥ¢
à±ĩà° ¡
Ã¡ no
Ġil in
ØªØ± ÙĦ
Ġà®®à¯Ģ à®¤à¯ģ
à¤¿à¤¯ à¤®
ÃŃ o
zim mer
à¯įà® ľ
áĥĿáĥľ áĥ¡
Ġad am
Ġà®¤à®¿à®° à¯ģà®®
x an
à¦¾à¦¤ à¦¾
Ġi qtis
ÛĮÙĨ Ú¯
Ġma chen
ĠáĥłáĥĶáĥĴ áĥĺáĥĿáĥľ
q an
ent r
ì²ľ ìķĪ
à§ĩà¦¸ à§įà¦Ł
Ļ áĢ
Ġnas t
Ġ×ŀ×© ×¤
Ġ. âĢĿ
ĠØŃØ¯ ÙĪØ¯
q ram
à±Ģ à°²à±ģ
Ġåį ģ
Ġano ther
Ġ×¢ ×¨
Ġqu Ã½
ĵà¸ °à¸
ĠagçľŁäºº æ¸¸æĪı
ĠÑģÐ¾ Ð¾ÑĤ
Ġf u
Ã³ rio
Ġp ap
Ġsch n
×§ ×©
Ã¡ k
ei cht
è© ¦
åıªä¸º éĿŀåĩ¡
ì§ ¸
Ġà¦īà¦ª à¦°
jÄħ cy
ĠÏĥÏħ Î½Î¿
Ġà¤īà¤¨ à¤ķà¥Ģ
Ġà°ĩ à°µà±įà°µ
Ġ×Ĳ×ª ×Ŀ
Ġà¦ıà¦¬ à¦¾à¦°
Ġest ar
à¹ĥà¸«à¸į à¹Ī
ato ng
Ð°Ð»ÑĮ Ð½ÑĭÑħ
åŃ ¸
ĠÐ¿ÑĢ Ð¾ÑģÑĤÐ¾
per caya
ey n
à¯Ģ à®°à¯įà®ķà®³à¯į
Ġb ÄĽ
c ere
Ä° Y
ªà¸ §à¸
à¦Ĺ à¦°
ãĥķ ãĥ¬
Ġu omo
áĥĶáĥ¢ áĥĺáĥ¡
ĠÑĨ ÐµÐ½
Ġsed ang
Ġx ml
Ã Ļ
Ġru im
d oor
áĥĲáĥ¬ áĥ§
Ä±lÄ± b
Ġpod r
ĠáĥĽáĥĺáĥĸ áĥĶáĥĸ
Ð°Ð´ Ð¸
ĠÄĲ á»©c
ĠØ¹Ø¨Ø¯ Ø§ÙĦ
ĠØ¨Ø± Ø§ÙĬ
ĠÙĪØ§ÙĦ ÙĨ
Ġìĭ ¶
à¤Ĥà¤¬ à¤°
is ata
ãģ«ãĤĪ ãģ£ãģ¦
ĠíĺĦ ìŀ¬
Ùİ Ùī
ãĥ¼ãĤ ³
Ġà®ķà®² à¯įà®µ
Ġqu ale
Ġadi ar
to ry
à¦ķ à¦®
à¦Ł à¦¾à¦°
Ġa ting
ĠáĥĲáĥĵáĥĲáĥĽáĥĺáĥĲáĥľ áĥĺáĥ¡
ĠÙħØ³ØªÙĤ ÛĮÙħ
Ø§ÙĦ Ùģ
Ġc á»¥
éĢ Ĥ
à®© à®¿à®©à¯į
ĠÎ´Î¹Î± Î´Î¹Îº
ìĦ ¼
à¸² à¸£à¸²à¸
áº© u
Ùħ Øª
ä¸Ģ çº§
Ġà®ĩà®µ à¯įà®µ
ĠØ§Ø¬ Ø±Ø§ÛĮ
Ġs iste
Ġì¹ ľ
ĠÎµ Î½Î·
Ġed iyor
à¤°à¥įà¤ Ĺ
Ġpo zy
as Ä±na
Ġmo is
ìĸ¸ ëĭĪ
áĥĲáĥ¡ áĥłáĥ£áĥļ
ç»Ħ ç»ĩ
Ġà¸£à¸µà¸§à¸´à¸ §
ë¯¸ ìĿ¸
Ġen g
rie b
ĠØªÙĦ Ø§Ø´
i i
ĠãģĿ ãģĨ
al iteit
ì¡ ´
ĠN aj
Ġvo ir
Ø¬ Ø±Ø§Ø¡
Ġf ol
ĠG u
ãĤ¯ ãĥĪ
Ġà®µà®¿à® ·
Ġcur r
×ķ×¦ ×Ļ×Ŀ
as anya
du st
Ġ×¤ ×¡
Ġp ouv
er ung
engk ap
Ġà¤®à¥ģà¤Ŀ à¥ĩ
a ÄŁÄ±
åĪĨéĴŁ æĹ¶æĹ¶å½©
Ġan tes
ĠØ± Ø´Ø¯
Ġáĥ© áĥĲáĥ¢
ĠA mer
ĠÙĬ Ø¤
Ġà®ĩà®° à®£à¯įà®Łà¯ģ
ĠØ§ÙĦÙħ Ø±ÙĥØ²
ĠìĤ¬ ìĹħ
Ġa li
ĠD oor
Ġsam me
×Ĵ ×¢
ĠØ³ÛĮ Ø§Ø³ÛĮ
Ġà¤Ĩ à¤®
¨à¸ ±à¸
Ġuy gun
Ġì ī
Ġ, .
ĠÙħÛĮâĢĮ Ø¯Ùĩ
Ġavst Ã¸pnin
Ø¯ Ø§Ø±
Ġav is
ë§Įì¡± ë³´ìŀ¥
s l
ÅĤ at
ĠP L
Ġdell o
åį Ī
Ġn ÃŃ
«à¸ ķà¸
áĥľ áĥĵáĥĲ
Ð¸Ð» ÑģÑı
ĠÎ» Î¹
Ġà¶ ļ
ĠåĬłæĭ¿å¤§ 28
ĠC hr
Ġà°ĩ à°²à°¾
Ġsa b
Ġbulun an
Â ¯
Ħ áĢ¹áĢ
ak ah
Ġæľ Ī
ĠÅŁ irk
Ġu c
ĠëĮĢ êµ¬
ģà¸ ¤à¸
Ġ. ,
ad zi
Ġà¤¤ à¥Ī
Ġpro jet
4 1
Ġà¦® à¦¾à¦Ŀ
Ļ çľŁ
à¦¾à¦ģ à¦ļ
à±Ģà°Ĩ à°°à±į
Ġãĥ¬ ãĥĩãĤ£ãĥ¼ãĤ¹
×¦ ×¨
essi onn
ĠáĥĽ áĥĲáĥļ
áĥĲáĥĽ áĥĳ
Ġà¦¬ à¦°à§įà¦¤
Ġpin ag
à¤ª à¤¾
ĠÃ§Ä±k ar
Ġê ½
ĠB and
ĠÎ¯ Î´Î¹Î¿
é Ł©
Ġä¸ ¤
ÃŃ r
Ġà®¨à®Ł à¯Īà®ªà¯Ĩ
à±Ĥà°° à±ģ
áĥĺáĥª áĥĺáĥĺáĥ¡
ĠáĥĽ áĥĲáĥłáĥ
Ġp ays
Ùİ Ùĳ
Ġà°¦ à°Ĺà±įà°Ĺ
ĠæĿ¥ æºĲ
Ġà¦ļ à§ĩà§Łà¦¾à¦°
Î» Î¼
Ġáĥķ áĥĺáĥĹ
Ġwy st
Ġà®®à®Łà¯įà®Ł à¯ģà®®à¯į
Ġà¦Ĩà¦² à§ĭà¦ļ
em ein
ĠáĥĽ áĥ¥áĥĿáĥľ
Ġà¦ªà§įà¦° à§Ł
Ġc art
ĠTh Ãłnh
áĥļ áĥĲ
à®¨ à¯įà®¨
Î½Î¿Î½ ÏĦÎ±ÏĤ
ĠA uto
Ġà¦¬à¦¿à¦ľ à§įà¦ŀ
à±ģà°¦ à°²
es en
is jon
Ġal ors
à±Ĥà° Ł
Ġíģ °
ĠÎµÏĢÎ¯ ÏĥÎ·ÏĤ
Ġà¦¸ à§įà¦¤
åįķ ä½į
à°¿à°ļ à±įà°ļ
b au
à§Ī à¦¤à¦¿à¦ķ
Ġcon se
Ġà°ķ à±Ĩ
áĥĲáĥĺ áĥ¡
ĠÙĥ Ø«ÙĬØ±
ud as
áĥł áĥĶáĥĳáĥĲ
Îµ ÏģÎ¿
ke z
Ġ×Ĳ ×ľ×Ķ
àµįà´ ±
Ġà¦¨à¦¿à¦¶ à§įà¦ļ
Ġà¦ Ī
ĠH a
Ġ @
áĥ£áĥ ĸ
×ķ×§ ×¨
áĥĲáĥ¡ áĥĺáĥĲáĥĹ
à¤¾à¤ Ń
Ġtá» ©
¢ à¸´à¸ĩà¸
N H
å² ģ
ad er
ber g
Ġol acaq
Ġà¤īà¤¤ à¥įà¤ª
áĥļ áĥĿáĥĳáĥĲ
ä¸ī çº§
×ŀ×ĳ ×¨
Ġà¦ª à¦¾à¦¨
ªà¸ ¡
Ġ×¡ ×ĺ
ĠÙĪØ²Ø§Ø± Ø©
ìĭľ ì¶ľìŀ¥ìķĪë§Ī
a Ã§Ãµes
ĠØ± Ø´ØªÙĩ
ŀà¸Ļà¸±à¸Ļà¸ ļà¸Ńà¸¥
uf fici
Ġà°¸à°Ĥà° ª
se z
Ġà°¨ à°¿à°¯
h eden
æ¿ Ģ
Ã³ g
Ġqu ali
à§ ¯
Ġà°ķ à°¦
áĥĿáĥķ áĥĲáĥľ
ĠÄ°l ham
ÙĴ ÙĨ
à¦¾à¦ª à§įà¦¤
Ġf ikk
ĠØ¯Ø® ØªØ±
ci u
ĠÐ· Ð½Ð°Ñĩ
ãĥ¼ãĤ· ãĥ§ãĥ³
è½ »
Ġ×Ķ×ŀ× Ľ
Ġà®¨ à®¾à®³à¯į
Ġval or
Ġh anggang
ÎĳÎ ĵ
ÙĴ Øª
Ġl ist
Ġà¸Ķà¸ ¹
ŀ× ©
ÄŁ iniz
ìĺ¤ ìĵ°
Ġà¤¤ à¤¥à¤¾
ĠØ¬ Ø¯Ø§
Ġc ro
b urg
ĠãĤ± ãĥ¼ãĤ¹
Ġdes tek
ìĺ¤ìĵ° íĶ¼ê±¸
Øµ ÙĪØ±
Ñı Ð¶
ĠìĹ° êµ¬
Ġà¤ Ĭ
ĠØ§ÙĦØ£ ØŃØ¯
Ġà§¨à§¦à§ ¨
ij f
Ġpra cov
à®° à®¿à®©à¯į
ÏĦÎŃ Î»Îµ
Ġto ch
ìĥī ìĭľ
iy alar
ãħ ĭ
è¯ Ģ
Ġå¤§åıĳ åĪĨåĪĨå½©
Ġre al
à¸Ļà¹īà¸ ³
Ġprimer a
ĠÎľ ÎŃ
Ġin dir
à¥įà¤¯à¤¾à¤ļ à¥ĩ
åĿ ļ
ĠÚ©ÙĪ ÚĨ
ĠØ¨Ùĩ ØªØ±
nÃ¡ nÃŃ
Ġà®ħà®µ à®©à¯į
Ġà°¸à°Ĥà° Ĺ
ĠØ§ÙĦØ´ Ø®Øµ
t ÃŃcul
Ġd88 å°Ĭé¾Ļ
ĠáĥĹáĥĲáĥł áĥĺáĥ¦
æ ĩ
ĠØ³ ÙĪÛĮ
Ġpo trz
Ġà®ª à¯ģà®²
Ġkj Ã¦r
Ø§Ø± Ø¨
áĥĽ áĥĲáĥłáĥĹáĥķáĥĶáĥļ
Ġà¦¬ à¦¾à¦ľà¦¾à¦°
s Ã£o
ĠÙĨ ÛĮÙħ
Ġèĩª åĪĨ
Ġses uai
at os
Ġpos i
Ġà°ªà°° à°¿à°¶
Ġ×ĳ ×Ļ×©×¨×Ĳ×ľ
Ġig jen
Ġà®ª à¯ģà®¤à¯įà®¤
ĠØ§ÙĦÙĨ Ø³
Ãªn cias
ĠÉĻmÉĻk daÅŁ
Ġplaat s
ĠÙĪ Ø¬Ùĩ
ìħ Ķ
Ġm ight
Ġz wiÄħz
Ġm ujer
ĠÎ¼ÎµÏĦÎ± Î¾Ïį
ÖĢ Õ¡Õ¶
ÙĪÙĤ Ùģ
çļĦ äºº
Ġà°¹à±Īà°¦à°° à°¾à°¬à°¾à°¦
ĠM illi
Ø® Ø°
Ġt iá»ĩn
ØŃ Ø¨
at ur
Ġìļ´ ìĺģ
å® ³
ÏģÏĮ ÏĤ
ĠáĥĹ áĥ£áĥłáĥ
b are
Ġb rasil
Ġ×§ ×ĳ
Ġ×ĳ×© ×¢×Ķ
ĠØ§ÙĦÙħØ´ Ø§Ø±ÙĥØ©
à¦¾à¦¹ à§Ģ
ĠÐ¾Ð´ Ð¸Ð½
Ġsec ond
Ġà¦¦à§ĩà¦ĵ à§Łà¦¾
Ġb á»ĳ
Ġçľ ĭ
Ġos Ã³b
ë¯¸ìĿ¸ ìķĦê°ĢìĶ¨
Ġ×Ķ×ŀ× ł
Ø· Ø¨
ÑĥÑĢ Ñĭ
çĮ ľ
àµ ¼
Ð ¯
ĠØ§ÙĦØ¹ ÙĨ
Ġt iy
à¹ĥà¸ ª
à¦¾à¦Ł à¦¿
is ter
Ġdisp oni
Ġ. [
ĠáĥĹ áĥĶáĥĳ
Ġd w
Ġin nen
Ġà¦ª à§Į
ĠG Ã¶
Ġà®ķà¯ģà®Ł à¯ģà®®à¯įà®ª
ĠÂµ ÃĦ
Ġ× ²
×Ĵ ×Ļ×Ŀ
Ġà¦¸à¦Ĥ à¦ĸ
×ķ×ĳ ×Ł
Ġà¦¸à¦Ĥ à¦ķ
Ġhat te
Ġnuest ro
Ġà®ª à®±à¯įà®±
Ġ×¤×© ×ķ×ĺ
Ġà°° à°¾à°µ
Ġå» º
Ġà®¨ à¯Ĩ
åľ Ĵ
Ġìłľ ì£¼
Î» ÏįÏĦÎµ
áĥĿáĥĳ áĥłáĥĺáĥķáĥĺ
ĠØ§ÙĦØª Ø¯
Ġáĥł áĥĶáĥĻ
Ġpar ej
Ã» t
Ð¸ÑĩÐµÑģÐº Ð¾Ð¹
Ġà®ķà®Ł à¯įà®ļ
ĠAr tik
Ġe uro
ĠK ay
Ġesc ol
id ente
ŀà¸ ±à¸ģ
åıĤ èĢĥ
Ġposs ono
ìĹ° ìķłìĿ¸
Ġà®¨à®Ł à®¨à¯įà®¤
ĠCum hur
ìĹ°ìķłìĿ¸ ê¸ī
åĽ¾ çīĩ
ĠÄĳ Ã¢u
ĠÏĢÏģÎ¿ÏĥÏī ÏĢ
ĠìĪĺ ìĽĲ
Ġmoet en
ĠWo hn
à¯Īà®¯ à®¿à®²
ĠH á»ĵ
Ġe ÄŁitim
à¦¸ à§įà¦ª
ko op
ues ta
Ø§ÙĨ Ø§Øª
à¸´à¹Ģà¸ ¨à¸
yy ÉĻt
anne er
ĠØ§ÙĦ Ø§Ø¹
Ġà¦¡ à¦¿à¦¸
Ġà®¤à¯Ĭ à®ķ
ë¯¸ëħĢ ìĸ¸ëĭĪ
ìĥīìĭľ ë¯¸ëħĢìĸ¸ëĭĪ
Å¡ i
Ġto Ã¡n
ĠE ste
s elf
ìĹħê³Ħ ìľĦ
ĠK em
æĭ ¬
×¨×ĳ ×ķ×ª
ĠÚ© Ùģ
Ġà®ª à®¿à®³
à°Ĥà° ¶
Ġv id
Ġpr vnÃŃ
Ġbed rijf
Ġ× ´
ĠÙħ Ùı
ĠÐ· Ð½
or y
Ġe au
Ġà¦ı à¦ĸ
à®¿à® ·
Ġd lou
Ġà°ªà°° à°¿à°¸à±įà°¥à°¿à°¤
ĠÎº ÏģÎ¹
il iyor
Ġà°ħà°¨à±įà°¨ à°¾à°°à±ģ
ĠØ§ÙĤØªØµ Ø§Ø¯
èı ľ
Ġv ui
à ¶ľ
à§ĭ à¦¦
Ġà°¤ à°²
ØªØ± ÙĨØª
Ġä¸ İ
àµ Ĥ
Ġr Ãµ
Ġpem ain
Ġä½ ķ
ãģ¿ ãģŁãģĦ
Ġdo c
Ġ×ł ×¡
Ġtien en
ÑıÐ± ÑĢÑı
Ñĭ Ñĩ
ĠØ§Ùħ ÛĮØ¯
Ġpro d
ĠÐ½Ðµ ÑģÐº
Ġáĥ «áĥļ
åĪ° äºĨ
Ġf ac
Ø§Ø¦ Ø¬
ĠÖ ¾
Ġolun ur
á¿ Ĩ
ie urs
ĠÎ£ ÏĦÎ±
ĠÄ° z
ç§ »
à¸µà¸¢ à¸Ļ
Ġg ame
´ëı Ħ
Ø´ Ø©
Ġáĥĺáĥľ áĥĵ
ĠÔ ¿
Ġagäºļæ´²åĽ½éĻħ æ¸¸æĪı
Ġìĺ µìħĺ
ĠW ij
æĺ¯ çľŁ
li ck
áĢº áĢ
æ¯ į
Ġà¦ķà§ĭ à¦Łà¦¿
Ġà¤¨à¤¿ à¤°à¥įà¤®
Ġat tra
re en
Ã¼n e
ä»ĸ ä»¬
ĠSel ain
Ùİ Øª
Ġà¦¸ à§ģà¦
áĥĺáĥ¢ áĥĲáĥľ
ĠT idak
k Ã¼
è¯ į
à°¿à° £
áĥ¨ áĥĺáĥª
Ġà¸ Ķ
Ġ3 9
ĠÐ¾ÑĤ ÐºÑĢ
³ ´
Ġ×ŀ ×ķ×ľ
åī ²
ĠR o
Ġf ilm
Ġis te
ĠØ§ÙĦØŃ Ø±
áŀ Ģ
æĪĲ ä¸º
Ġho og
ĠáĥĽáĥĺáĥ ®
fa at
à¹Ĥ à¸Ńà¸
Ġle uk
ĠH ÉĻr
ĠÙĪÙĤ ØªÛĮ
te ÅĻÃŃ
Ġhod no
æ» ļ
ÏĨÎŃÏģ ÎµÎ¹
ĠmÅ¯Å¾ ete
Ġrund t
Ø§ÙģØ¸ Ø©
ĠÙĩ Ø²ÛĮÙĨÙĩ
ä¼ Ŀ
à°° à±įà°²à±ģ
Ġo v
w eg
Ġ×ĳ ×Ļ×ł
ÏģÎµ Î¯Î±
ĠëĲ ł
Ġolm aq
Ġì ¤Ģ
Ð¸Ð½ Ñĥ
Ġà¤ı à¤¸
Ġj am
Ġà®ħà®¤à®¿à®ķ à®¾à®°
a ting
tisch e
ëª¸ ë§¤
Ġy un
Ġáĥķáĥĺáĥĵ áĥĶáĥĿ
Ġà¦ıà¦¸ à¦¬
Ġà®ªà®¾à®¤ à¯ģà®ķ
Ġ\" :
ĠN go
ĠíĻ ©
ĠØ§Ø³Øª Ø®Ø¯Ø§Ùħ
Ġà°® à°¾à°¨
ħ è¯»
Ġà¦¬à¦°à§įà¦¤ à¦®à¦¾à¦¨
Ġíķĺ ì§Ģë§Į
Ġà®ĩà®°à¯ģà®ķà¯įà®ķ à®¿à®±
åľ¨çº¿ çİ©
ĠØ§ÙĦÙĨ Ø¸Ø§Ùħ
Ġà® ·
Ġãģ ¡
Ã¼n dÉĻ
Ġëĭ ´
Ġà¦ķà¦² à§ĩà¦ľ
į ng
Ġbu at
ĠØ¬ Ø´ÙĨ
ĠÛĮ Ø¹
àµ ½
Ġad il
ĠØ´ Ø§ÙħÙĦ
ĠÙĦÙĦ Ø¥
Ġall es
Ġkan ya
ĠC amp
ĠÚ¯ÙģØª Ùĩ
ci do
Ġà°¤à±Ĩà°² à°¿à°¯
Âµ Î±
Ġà¦¤ à¦¾à¦²
ĠØ¢ÙħÙĪØ²Ø´ ÛĮ
Ġsor un
one y
tov Ã¡nÃŃ
Ġå¸ Ĥ
ĠÂ ª
Ġprz ek
Ġà°ļà±Ĩà°Ĥà°¦ à°¿à°¨
ĠØ±ÙĪ ØŃ
×Ļ×ĳ ×Ļ×Ŀ
het er
ĠâĢĶ âĢĶ
Ġà®ķ à®³
Ġà®İà®©à¯įà®± à¯ģà®®à¯į
ri er
Ġpol ÃŃ
ĠáĥĲáĥĽáĥĳ áĥĿáĥĳáĥ¡
ĠÂ ©
Ġà¦ľà¦¾à¦¨ à¦¾
ĠÎµÎ½ ÏĮÏĤ
Ġp Å¯
ëª¸ë§¤ ìµľê³ł
Ġëĭ¤ ìĭľ
Ġà¤¤ à¥Ģà¤¨
ëŀ ľëĵľ
à¦¾à¦§ à§Ģà¦¨
ĠÙ¾ ÙĪØ³Øª
ĠÛĮ Ùĩ
Ġt ych
ĠØ¸ Ø±Ùģ
Ġdo ch
tif s
ĠÙħØ´ Ø§ÙĩØ¯Ø©
Î¼ ÎµÎ¹
ĠÃ¶n c
mÄ±ÅŁ tÄ±r
ĠØ§ÙĦÙĤ Ø§ÙĨÙĪÙĨ
Ġà´ İ
Ġch á»©
ĠMen schen
Ġcitt Ãł
ÙĬØ± Ø§
ĠÑĤÐµÑħ Ð½
ĠÐ² ÐµÐ´
à±ĭ à°¸
Ġper met
Ġà°¸à°® à°¸à±įà°¯
à°¡ à±ģ
ëĤ ł
ÉĻs iz
à¹Ģà¸Ĥ à¹īà¸²
ä¹¦ è®°
am ÉĻt
ÏĢ Î±Î½
×ĳ ×ķ
l ayan
Ġà¦¦à§ĩà¦¶ à§ĩ
sk o
Ġë£ °
à§ĩà¦¤à§įà¦° à§ĩ
à¸£à¸µ à¹Ģà¸
ĠëĪ Ī
ĠáĥĲáĥľ áĥ£
ĠJ ual
å® ¡
em ukan
Ġà¤Ĳ à¤¸à¤¾
ĠÐ¿ÑĢ Ð¾ÑģÑĤ
ĠP l
liy inin
æİ§ åĪ¶
S I
ĠÎ ©
tiv as
Ġà¦ħà¦« à¦¿à¦¸
à¸Ļ à¸²
Ġà¦ªà§įà¦° à¦¬
Õ¡Õ¾ Õ¸ÖĢ
åį Ģ
Ġmej ores
Ġáĥ¨áĥĶáĥĴ áĥĺáĥ«áĥļ
Ġgr ow
Ġprop os
Ġà®İ à®ªà¯įà®ªà®Łà®¿
å¤§ æĪĺ
ĠmÃ¼ s
ĠçĶ Ł
Ġhay at
ì²ĺ ëŁ¼
Ġ×ŀ×§ ×¦×ķ×¢
ĠØ¹ÙĦÙħ ÛĮ
ĠÐ¼Ð¾Ð³ ÑĥÑĤ
Î» Î±Î½
an iu
ÏĮÏĦÎ· ÏĦÎ±ÏĤ
ìĹ¬ ëĮĢìĥĿ
Ġà¤Ĩ à¤¸
ĠÙĪØ§ØŃ Ø¯Ø©
Ã¤l t
ĠÐ¼ Ð½Ð¾Ð³Ð¾
Ġíĸ Ī
Äħ c
ÙĪØ± ÙĥØ³
Ġcel a
ĠØ¨ ÙĨØ¯ÛĮ
ĠÙ¾ ÙĦÛĮ
in u
ĠÙħØ´Ú©ÙĦ Ø§Øª
ì¹ ¨
à±ģà°ķ à±įà°ķ
Ġverschill ende
ĠÎļ Î¬
à¦¦ à¦¿à¦ķà§ĩ
Ġt eng
ĠÃ¢ m
ĠÐŁ Ð¾Ð»
íħ ľ
Î¸ Î¿ÏĤ
à¥ģà¤ķ à¥įà¤¤
ĠÑĥÑģÐ» Ð¾Ð²
Ġà®µà®¾à® ļ
Ġag æīĭæľºå®¢æĪ·ç«¯
ĠÏĢÏģÎ±Î³ Î¼Î±
ĠE u
ĠH ome
ĠpÅ¯jÄį ky
Ġm eio
ãģ ¥
ĠÙĥ Ø¨ÙĬØ±Ø©
Ġà¦ķ à¦¾à¦®
Ġfe ed
ĠD aten
Ø® Ùĩ
ĠÛ±Û ±
Ġà®¨à®¿à®² à¯Īà®¯à®¿à®²à¯į
Ġm am
ãģ« éĸ¢
Ġpo is
anh a
Ġë° ±
an Ã§as
ë° Ģ
Ġà®ªà®¯à®©à¯įà®ª à®Łà¯ģà®¤à¯įà®¤
à¯ģà® ¯
Ġmes in
ĠØ³Ø§ÛĮ Ø±
Ġste j
Ø§ÛĮ Ø¬
ĠØ®Ø§ÙĨÙĪ Ø§Ø¯Ùĩ
Ġp ul
æ¥½ ãģĹ
m ÃŃn
Ġà¦ħ à¦ķ
ÙģÙĬ Ø°
Ġb ie
Ġà¦¨ à¦¾à¦°
Ġ à¸£à¸²à¸Ħà¸²
Ġ×© ×©
Ãº i
ĠÎ¿ Î´Î·
ĠÎ¸Îµ Ïī
à¤° à¥ĭ
Ġë Ĵ
ĠØ£ÙĨ ÙĩØ§
Ð°Ð» ÑģÑı
ÛĮ Ø¨
Ġà¤¸à¤® à¤Ŀ
Ġáĥ¤ áĥ¡
ĠØ§ÙĦØ¨ ÙĬ
Ġh Æ°á»Łng
Ġh el
Ġ×Ķ×Ĺ ×ĳ×¨×Ķ
d em
ĠprÃ³ p
Ġweb site
Ġà¤® à¥Ģ
Ġ×ĳ ×ĵ×¨
ì ª½
ĠØ£ Ø«
on en
Ġse ul
å© ·
áĥĶáĥĹ áĥ¡
Ø¨ÙĬ Ø¨
et ler
Ġb iá»ĥu
Ġà¦¬à§įà¦¯ à¦¾à¦Ĥ
Ġfe el
Þ° Þ
å°ıæ¸¸æĪı åľ¨çº¿çİ©
· à¸
Ġáĥª áĥĿáĥ¢
Ġ5 åĪĨå¿«3
ĠT od
iz aÃ§Ã£o
Ġjed n
à±ģà°¤ à±ĭà°Ĥà°¦à°¿
Ð» ÐµÐ¹
Ġáĥĺáĥ¡ áĥĶáĥĹáĥĺ
ĠØ®Ø§Ø± Ø¬ÛĮ
ĠÐ½ Ð¸Ðº
ort s
Ġman era
mas Ä±na
Ġcusto m
ĠTh em
ĠØ§Ø³Øª ÙĤ
×ľ ×ľ
ĠÙħ ÛĮØ¯
é¢ Ŀ
Ð¾Ñĩ Ð½Ð¾
Ġà®ķ à®¿à®³
ĠÑģÐµÐ± Ñı
Þ¨ Þ
Ġç ı
Ġà°µ à±Ĩà°²
Ïĥ Î¼Î±ÏĦÎ±
ĠØ§ÙĦØ¨ØŃ Ø«
Î¯Î½ Î¿ÏħÎ½
×ĳ×¨ ×ª
ub ungan
ĠÂ¡Â £
Ġà°®à±ģà°Ĥà°¦ à±ģ
ĠìķĦëĭĪ ëĿ¼
Ġber ikut
Ġáĥ£áĥ¡ áĥĲáĥ¤áĥłáĥĹáĥ®
Ġà¦® à¦¿à¦¨
Ø§Ø¯ Ø±Ø©
Ġà°ª à°¾à°¤à±įà°°
li m
Ġex emp
Ġhj elp
ĠáĥĹáĥ¥ áĥĽáĥĺáĥĹ
to ng
Ġre d
Ġinforma Ã§Ãµes
Ġ5 9
Ø· ÙĬØ¹
áĥŀ áĥĿáĥłáĥ¢
Ġæ· ±
ÎµÎ¯ ÏĦÎ±Î¹
ĠÎ· Î¼ÎŃ
Ġà¦ķà¦° à¦¬à§ĩ
×Ļ×Ĺ ×¡
Ġc m
áĥ® áĥĺáĥ¡
Ġìł Ī
ä» ¤
ĠA y
Ġsah ib
ÙĦÛĮ Øº
Ùħ ÙĬÙħ
ë¶Ģ ìĤ°
Ġ à¹ĥà¸«à¹ī
ĠÏĥÏħÎ½ ÎµÏģÎ³
ĠD Ã¼n
åħ³ ç³»
à°¿à°¸à±įà°¤ à±ģà°¨à±įà°¨à°¾à°°à±ģ
Ġst ran
à¦¸ à¦¿
Ġst ar
Õ¥Õ ´
Ġc l
Ġæ µľ
Ġpe que
Ġà¦¦ à§ĩà¦¨
à¹īà¸ ĩà¸
Ġques ti
ä¸ĵ ä¸ļ
__ __
Î»Îµ Ïį
ĠÑĪ ÑĤ
ĠP ero
Ġà°ľà°° à±ģà°Ĺ
ĠmÃ¼ ÉĻll
il ler
ĠÎ¶Ïī Î®
at ely
st ag
Õ¡ÖĢÕ ¯
ëĬ Ĳ
ĠÎĵ Î¹
ĠÎµÏģÎ³ Î±
Ã¡ g
ĠØ³ ÛĮÙħ
ĠØ§ÙĦØ³ ÙĪØ¯
Ú¯ Ø²Ø§Ø±ÛĮ
à¥ĩ à¤Ĺà¤¾
Ġan net
Ġe conom
à§ĩà¦¦ à§ĩà¦°
ĠãĤ Ī
Ġà¤ĩà¤¸ à¥ĩ
å½© äºīéľ¸
Ľà¸¥ à¸µà¹Īà¸
Ġí ĭ
ÙĦÛĮ Øª
à¹Ģà¸ Ĺà¸µà¹Īà¸
×Ļ×ª ×ķ×Ĺ
ãĤĤãģĹ ãĤĮ
ì½ĶìĬ¤ ê°Ģê²©
Ġ×ĳ×ŀ× Ĺ
Ġà®¨ à®®à¯įà®®
Ġr agaz
áŁ ĭ
Ġs y
in ta
ob ie
ĠÎºÏħÎ² ÎŃÏģÎ½Î·
Ġp on
iz e
à®¤ à®±à¯įà®ķ
Ġà¦¸ à¦«
ä¸ °
Ġpo tre
ĠÎ£ÏĦÎ· Î½
Ġà°µ à°¿à°ķ
à¹Ĥ à¸Ļà¸
r ow
Ġro ce
ĠØŃ Ø§ÙĦØ©
oor t
Ġà®ļà¯ĩà®° à¯įà®¨à¯įà®¤
äº ®
ĠØ§Ùħ ÙĪØ±
Ġà°ª à±ģà°°
Ð¾Ð² ÑĭÐµ
Ġ Ñİ
w id
ĠÐ¿ÑĢÐ¾Ð´ ÑĥÐº
t al
, ãĢĲ
à°°à±įà°¸ à±į
Ġà°Ĩ à°ķ
Ġh ey
ĠÐ¸Ð½ÑĤÐµÑĢ ÐµÑģ
ĠØ¨Ø± Ø§Ø¨Ø±
Ġå¥ ¹
ÙĥØª ÙĪØ¨Ø±
lar Ä±mÄ±z
con tre
ĠÄĳ áº¡t
Ġdi f
emb ang
zn am
ĠÂ £
Ġsa v
Ġag æĹĹèĪ°
Ð¾Ð´ Ð°
ĠØ§ÙĦØª Ùģ
Ġfor b
Ġà°ħà°Ĥà°Ł à±Ĥ
f r
ĠØ§ÙĦÙĨ Ùģ
ĠprÃ³ x
ÑĢÑĥÐ¿ Ð¿
ĠDe v
Ġ×ł ×ŀ×¦
ìµľê³ł ìĭľ
Ġparti cip
ĠÅ »
Ġad di
Ġà¦° à§ĩà¦ĸ
Ð¾ÑĢ Ð°
à¦¿à¦² à§įà¦ª
à¦¿à¦¸ à§įà¦Ł
Ġk ons
Æ ¯
ĠØ§ÙĦØ¹ Ø¯ÙĬØ¯
Ġgr up
Ġhakk Ä±nda
åĲĪ ãĤıãģĽ
ĠÂ ¯
ìµľ ê°ķ
Ġé ĥ½
Ġpen d
xt ÉĻlif
ĠS ek
ÏĢ Ïī
à¤§ à¤¾à¤¨
Ġç Ĥ
ĠÎ²Î± Î¸
Ù ł
Ïĥ ÏĦÎ¹
Ħà¸ ·à¸Ń
Îķ Îļ
ãģŁ ãĤĬ
à±ĭ à°§
à§ĭ à¦¬
×ŀ×ķ×ĵ ×ĵ
ci l
us o
ĠvÅ¡ ak
Ġà¦ķ à¦¬
Ġ×© ×¤
à±ģà°µ à°¾à°¤
ĠY orum
ĠØ¯Ø§Ø® ÙĦÛĮ
Ġcu á»ĳi
Ġìłķ ë³´
Ġt Ã¼r
Ġh in
èĤ ĸ
Ġc idade
Ġà®ªà®¿à®° à®ļà¯įà®ļ
Ġtay o
à±Ĥà° ¡
Ġà®® à¯Ĩ
Ã³ m
Ø¹ÙĦ ÙĪÙħØ§Øª
ĠÐ¸Ð½ÑĤÐµÑĢ Ð½ÐµÑĤ
Ġ ÉĻk
ĠØ¹ Ø§ÙĦÙħ
e cj
«à¸¡à¸²à¸ ¢
Ġà¤ľà¥įà¤¯à¤¾à¤¦ à¤¾
Ġà¦® à¦¾à¦¹
Ġê¸° ìĪł
ĠÕĢ Õ¡Õµ
Ġà¦®à§įà¦¯ à¦¾à¦ļ
ĠèµĮ éĴ±
Ġm ij
è¦ §
5 ìĿ¼
ĠP in
ãĤµ ãĤ¤ãĤº
ĠØªØ¬Ùĩ ÛĮØ²
à±Ĩ à°ķà±įà°ķ
ĠÅ¾iv ot
ê² ¨
Ġder e
Ø¹ ØªÛĮ
Ø§Ø¶ ÙĬØ¹
Ġng Ãłnh
à±įà°¯ à°¤
Ùĥ Ø±Ø©
Ġol uÅŁ
à´ Ļàµįà´
Ïĩ Î®ÏĤ
ĠÙħØŃ ÙĦ
g em
ob ierno
Î¼ ÏīÎ½
Ġà¤ħà¤ª à¤¨à¤¾
Ġk erja
Ġà®ķà¯ĩ à®³à¯įà®µ
C M
Ð°ÑĤ ÑĢ
Ø¶ ØŃ
Ð¾Ð² ÑĭÑħ
is ce
Ġf ine
ĠÎµÏĨ Î±Ïģ
ìµľê°ķ ë¯¸ëħĢ
ãĥ³ãĤ Ń
m r
Ã¼n ÉĻ
ĠÙħ ÙĤØ¯
à±ģà°ķà±Ĭ à°¨à°¿
ÏĦ Ïį
Ġà°¨ à°Ĺ
ĠìĻ Ģ
Ġin di
Ø§Ùĩ Ø§ÛĮ
æ¸¸æĪı å®ĺç½ĳ
Ġå¤ ļ
ÙĪÙĨ Ø§
Ġ×Ķ×¢ ×Ļ×¨
à¤¾à¤ĩ à¤²
ul at
si ons
ãĥ¼ãĥ ģ
ìĦ± ìĿĦ
ĠÙĨØ¸ Ø§Ùħ
ĠV al
Ġn ull
ĠÄĳo Ãłn
à¦° à¦®
ĠB Ã¶l
Î ŀ
Ġo ng
ØŃ Ø§Ø¨
Ħ à¹Įà¸
Ġà°ľ à°¾à°¤
Ġ×ŀ×§ ×ķ×Ŀ
ĠH ay
Ä±l mÄ±ÅŁ
ìŀĲ ìĿĺ
ÑĥÑĢ Ð³
«à¸Ļà¸ ±à¸ĩà¸
Ġterb aru
Ġpersonn es
Ġi a
ĠÐ´ ÑĢ
ÏĦÎ· ÏĦÎ±ÏĤ
åĵģ çīĮ
à®® à¯Ī
Ġà¤ľà¤¾à¤¤ à¥Ģ
Ġnett st
Ġt ubuh
Ġdesar rol
Ġà°¨ à°¡
ĠÐ¿ÑĢÐ¾ ÐµÐºÑĤ
ĠØ¯ÙĪÙĦ Ø§Ø±
Ġï¼ģ ï¼ģ
ĠçĦ ¶
ÑģÐ» ÐµÐ´
à¤ª à¤°
Ġd ur
Ġda ti
ĠÏĢÎ¬Î½ Ïī
à¤¸ à¤°
ĠÃ¸n sker
ĠB 8
Ð² Ð°ÑĢ
ra to
N D
Ġl unas
į °
Ĭ äºº
ĠÙħØ¹ Ø§ÙĪÙĨ
ĠÐ½ Ð¸
Ġà¦¨à¦¿à¦ ¹
Ġt Æ°á»Łng
ue go
ĠÑį Ð»ÐµÐºÑĤÑĢ
Õ¡ÖĢÕ ¿
Ġà¦Ľ à§ĭà¦Ł
uj eme
ĠÎºÎ± á½¶
ĠØ§ÙĨ Ùĩ
ĠÙħÙĪ Ø§Ø±Ø¯
ìĭľ ìĺ¤
à®ªà¯įà®ªà®Łà¯įà®Ł à¯ģ
é¾Ļ èĻİ
Ġà¦ıà¦ķ à¦ĩ
ab ah
sz ej
Ãĩ ÃĥO
ar ik
Ġris ul
Ġà¦ªà§įà¦°à¦¤ à§įà¦¯
laÅŁ dÄ±r
Ð¸ÑĢÐ¾Ð² Ð°ÑĤÑĮ
ç½ĳ _
ĠÑĩ Ð°Ñģ
å¤ļ ãģı
ãģĪ ãģ°
à¹Ħà¸ Łà¸
Ġà¤¸ à¥įà¤ª
all en
w ar
Î¼Îµ Î¯
Ġ= "
Ġm est
ĠH á»Ļi
d ing
Ġc oup
ĠÑģÐ»ÑĥÑĩ Ð°
Ø§Ø³ Ø§ÙĨ
ĠÐ²ÑĭÑģ Ð¾Ðº
éĽ Ħ
Ġapp lic
Ð¸ÑĩÐµÑģÐº Ð¸Ð¹
Ġj ou
Ġà¦Ĩà¦¦ à¦¾à¦²
ĠÑģÑĤ ÑĢ
z et
à¤¾à¤« à¥Ģ
Ġag 88çİ¯äºļ
Ġper tama
Ġk u
Ġbe h
Ġà°ªà±Ĭ à°Ĥà°¦
ah ui
is yon
f Ã©r
Ġ×Ľ×ľ ×ľ
ĠÑĤÑĢ ÐµÐ±
us an
à· Ĳ
à¶ ¯
as ed
ĠÐ¾ÑĤ Ð´
Ġim kan
Ġal dÄ±
åºĶ çĶ¨
Ġà®ħà®°à®ļ à®¿à®¯à®²à¯į
ĠÛ±Û µ
ģà¸ §à¹Īà¸²à¸
Ġà¤ķà¥ĩ à¤²à¥Ģ
Ġhab it
ĠãĤ¹ ãĥ¼ãĥĳ
×ĵ ×ľ
Ø¢ ÙĨ
ĠÃ ¤
Ġin ves
Ġí Ĥ
Ġho je
ic s
ĠE v
Ġgior n
ì¶ľìŀ¥ ê°Ģê²©
Ġmel ihat
Ġth áº§n
á» ³
Ġå ĸ
s et
ĠPost Ã©
Ġå Ģ
Ġà¤ª à¥ĭ
ĠÏĥ Î±Î½
ĠØ§ÙĦÙħ Ùģ
Ġ5 1
Ïĩ Î¿Î»
Ġdo ty
ĠbaÅŁ qa
Ġà¦ī à¦ĩ
×Ļ×ĵ ×Ļ
ang er
ĠM es
ar nya
Ø±Ø¨ Ø©
ÐµÐ· Ð´
Ġ' );
ĠåĪ °
ãĤī ãĤĮãģ¦
Ġtr es
ur t
ĠÐ³ Ð¾ÑģÑĥÐ´Ð°ÑĢ
ĠÙĤ Ø§Ùħ
ê¸° ëĬĶ
Ġf ig
ĠT eil
Ġíı¬ ì»¤
à¤ľ à¤¼
ci Äħ
Ġà¦¨à¦¿à¦°à§įà¦¬à¦¾à¦ļ à¦¨
Ġà¤¯à¤¹ à¤¾à¤Ĥ
ĠÙĤ Ø§Ø¨
Ġn ik
Ġspot s
ĠØ± Ø¨
ĠÎµ Î´Ïİ
à®¤à¯įà®¤ à®¿à®±à¯įà®ķ
Ġtr ain
à´ ¨àµįà´
Ġìłķ ë¶Ģ
Ġvy u
Ĥ ª
Ġà¤ķ à¤¾à¤¯
Ġ3 4
and Ä±r
aq u
à®¿à®© à¯Ī
ľ à¸´à¸
ĠÐ¿Ð¾Ðº Ð°Ð·
Ġwys ok
à¦Ĺà§įà¦° à¦¾à¦®
Ġå· ¥
à¹Īà¸²à¸ §
ãģªãģ© ãģ®
Ġè į
ĠØ¨ ÙĲ
à¦¾à¦ª à¦¨
à®² à¯įà®ķà®³à¯į
à¹Ģà¸¥à¸ ¢
Ã¡ri as
w ania
ªà¸£ à¹īà¸²à¸ĩà¸
éĵ¶ è¡Į
ke p
b ÉĻti
ãĤ¸ ãĥ£
ĠÙĨÙħ ÙĪÙĨÙĩ
7 ìĿ¼
p acking
ĠØªØ¨ ÙĦÛĮØº
Ġ×Ĺ ×¡
Ġkit ab
ĠãĢĳ ,ãĢĲ
Ð°Ñı Ð²
à¹Ģà¸¥à¸ ¢à¸
ĠTh at
Ġì¢ĭ ìĿĢ
æ ¦
Ùĥ ÙĬØ©
Î¼ÎŃÎ½Î¿ ÏĤ
h em
à¸Ļà¸ °à¸
ÛĮØ´ ÙĨ
ĠÙħÙĬ âĢĮ
Ġj ours
Ġ à·Ģ
iá»ĩ p
Ġge f
0 7
Ġg it
Ġà¤¶ à¤ķ
èĢĥ ãģĪ
à¦¾à¦¨ à§ĭà¦°
Ġxu á»ĳng
ĠØ§Ø« Ø±
Ġà¦¸à¦® à¦¸à§įà¦¯
us unda
b ild
Ġãĥ¡ ãĥ³ãĤº
Ġb Ä±r
Ġà¤¯ à¥ģ
ĠØ¹ÙĨ Ùĩ
Ġà¦ĸ à¦¾à¦²
Ġolm asÄ±
æīĢ æľī
éªĹ å±Ģ
Ġà°ªà±įà°°à°¸à±įà°¤ à±ģà°¤
å® ¾
Ø§Ø¹ ÙĬ
Ġ×¨ ×ĳ×Ļ×Ŀ
Ġd amit
Ġà¸ «à¸£à¸·à¸Ńà¸
à¦¾à¦® à§įà¦®
Ġà¸Ķà¸ ¹à¸
Ïĥ Ïĥ
Ġà¤ľ à¥ģ
Ġan nun
ung i
ĠX em
éĿŀ å¸¸
ÃŃ l
Ġt ar
Ġst esso
ÏĢÏĦ ÏīÏĥÎ·
Ġ5 6
ir im
ĠU U
ad en
ĠT ra
Ġà°¤ à°Ĺà±įà°Ĺ
ĠØ§ÙĨ Ø³Ø§ÙĨ
Ġper usahaan
à¯ģà®ķà®³ à®¿à®²à¯į
Ġà¦ĸ à¦¾à¦¨
ĠU r
Ġinforma zioni
Ġv iele
à§ ±
ä¸Ĭ çļĦ
Ġyar ad
Ġç ®
åħ¨ åĽ½
Ġlook ing
Ġv iene
rij ven
«à¸ §à¸±à¸
tick Ã©
ÙĬØ± ÙĬ
ĠÎĳ Î¸Î®
ĠNg Ãły
Ġìłķ ëıĦ
Ġãĥ ľ
ÙĪ ÙĬÙĨ
à¯ģà®ķà¯įà®ķ à®¾à®ķ
ÄŁ ul
ĠìĽ Ķ
Ġà®¨ à®£à¯įà®ª
à°¿à°ª à±Ī
Ġb om
ĠCh á»§
Ø³Øª ÛĮ
Ġà¦ľà¦¾à¦¨ à¦¿à§Ł
ĠÐ¼ ÐµÐ¶Ð´
Ġdost ÄĻp
à¦ķ à¦¿
Ġäºļ æĲı
Ġà®ļà®® à¯Ĥà®ķ
ĠÎ² Î¹Î²
ĠØ§ÙĦØª Ø·
Ġà®ĩà®°à¯ģà®ķà¯įà®ķ à®¿à®±à®¤à¯ģ
Ġà¸Ľ à¸µ
Ġæ ¾
Ġpot ÅĻeb
éĮ ¢
ÙĪÙĦ Ùĩ
à¯Ĩà®° à®¿à®ķà¯įà®ķ
Ġ à¹Ĥà¸Ļ
t ure
à°¿à° «
Ùĩ ÙĪØ±
×Ĳ ×Ł
ent re
ĠC r
szy m
Ġ ðŁ
Ġà®¨à®©à¯įà®± à®¿
Ġãģ ł
Ġs Ä±
à¹Ģà¸ §à¸
f ter
Ġê³ ³
Ġt áº£i
Î³ ÏĮ
Ġka Ã§
à±Ĩà°Ĥà°Ł à±į
ç»ı å½©ç¥¨
ĠÑģÐº Ð°Ð·
Ġg á»ĵm
à¯ģà®ļ à¯įà®ļ
×ķ×ĳ ×¢
à¯ģà®µ à®¿à®Łà¯įà®Ł
g esch
ole h
åħ ¸
à°Ĺ à±įà°°
y ni
ĠØ¢Ø²Ùħ ÙĪÙĨ
Ġà¦Ń à¦¾à¦¬
Ġà®ķà¯ĩ à®Ł
ulo y
ĠEsp aÃ±a
à§ĩà¦° à¦¾
ĠÐ´ Ð¾Ð¿
à¦² à§Ģà¦Ĺ
ãģ£ãģ ±
Ġí ľ
ti go
Ĺà¸ Ħ
èµĮ åľº
ng r
ÄŁ in
ĠI I
ol ah
ÐµÐ½ Ð½Ð¾Ð³Ð¾
à°¿à°Ĥà°Ĺ à±įâĢĮ
Ġc áº¡nh
Ġà¦ªà§įà¦° à¦¸à§įà¦¤
Ġà¦¬ à§ģà¦
ĠÙħ ØªØ±
Ġch Æ°Æ¡ng
Ġå¿« 3
ĠÏĦ Î¬
Î½ Î¹
Ġà¦¬à¦² à§ĩà¦Ľà§ĩà¦¨
ĠØ¹ÙħÙĦ ÙĬØ©
ĠC o
ĠmÃ© d
Ġd ays
ë Ī
Ø§Ø¶ ÛĮ
Ġà°¨ à°¿
Ġà¦¸à¦Ĥ à¦¸
ĠèĢ ģ
ÐµÑĢ Ðµ
Ġà°¸à°Ĥà° µ
ĠB l
0 5
ĠG ia
Ġçİ¯äºļag 88
Ġprim eiro
ĭà¸ ·à¹īà¸Ń
Ġà¸ªà¸ Ķ
Ġg ar
à§ĩà¦ ļ
Ð´ ÐµÑĢÐ¶
´ëı Ļ
à¤¾à¤¡ à¤¼
Ġæį ®
Ġd z
Ġb ou
Ã³ ri
Ġm ont
Ġçİ¯äºļ AG
ato r
Ġwork ing
s imo
ļà¸ ¸à¸
ĠÎ» Î¬
im os
ĠÐ´ Ðµ
Ġà°ļà°Ĥà°¦à±įà°°à°¬ à°¾à°¬à±ģ
×Ļ×¢ ×ķ×ª
è¯ķ çİ©
ĠÙħ Ø±Ø©
Ġ5 7
ĠØªÙĩ ÛĮÙĩ
Ġà°ĩ à°ķà±įà°ķà°¡
à±Ī à°µ
ĠC al
åī §
ĠCh icas
ĠØ¯ÙĨ Ø¨Ø§ÙĦ
ë§ ī
ªà¸ °à¸
Ø¸ ÙĬÙģ
à¦¾à¦Ł à¦¾
ì¼ Ģ
Ġåĩ ¤åĩ°
Ġà®ķ à®£à¯įà®£
Ġà¦Ĺ à§ģà¦°à§ģ
Ġmaaar i
ÃŃ lia
à¹Ĥà¸ Ľà¸£
¡ à¦¼
Ġà¤¡ à¥ī
èĥ ľ
Ġk le
Ð½ Ð¸Ðµ
à¹īà¸Ńà¸ ¢
ĠÙĪ Ø§Ø³Øª
ans a
ĠÏĦ ÎµÏĩ
è¡ Ĺ
ti dad
Ġmu lig
ĠæĿ İ
Ġà¦īà¦¤à§įà¦¤ à¦°
Ø¹ Ø§Øª
Ġé¦Ļ æ¸¯
Ġe cht
l age
Ġà¤¬à¥Ī à¤ł
Ġà¤ªà¥įà¤° à¤¶
ç´ §
ĠM em
à¹Ĥà¸£à¸ Ħà¸
à¥Ģ à¤¸
Ġê ¶Į
ĠÛĮØ¹ ÙĨÛĮ
ļà¸ Ĺà¸
ĠìĤ¬ ìĭ¤
Ġ×ŀ ×ķ×ĵ
Ð± Ñĭ
ÅĻÃŃ zenÃŃ
×ķ ×ķ×Ĺ
ver so
Ġv iew
à±ģà°¤ à±ģà°¨à±įà°¨à°¾à°°à±ģ
Î¼ Î¹Î±
ç¨ İ
Ġsin ce
Ġà¦ªà¦° à¦¿à¦·
ĠÏĨ Î¿Ïģ
ãĥģ ãĥ£
à°¾à° ¦à°¿
ĠÎ±ÏĢÎ¿ Îº
ĠP ri
ov ern
Ġà¦¨à¦¿à¦¹ à¦¤
ĠE y
Ãł u
ç £
ĠÃ ¯
Ġå¥ ³
à¹Ģà¸¥ à¹Īà¸Ļ
Ġtá»ķ ng
lic ado
ĠØ³ÙĦØ§Ùħ Øª
Ġà¤ľà¥Ģ à¤µà¤¨
to h
×Ļ×ł ×ķ×Ļ
ĠØ¢ Ù¾
ĠØ± Ø£
ĠÎŃ ÏīÏĤ
Ø§Øµ Ø±
×ŀ×ł ×ķ×ª
or ia
schie den
Ġot ra
ĠÙĨØŃ ÙĪ
Ġ ÃŃt
ÏĢÎ¿ ÏĦÎµ
Ġtil legg
ãĥ³ãĥ Ĳ
è¦ ³
áł¤ áł
Ġ×© ×Ĵ
åĬŁ èĥ½
geven s
Î´ ÏģÎ±
Ġà¦¦ à¦¾à§Ł
ÑĢÑĥ ÑĪ
ģà¸ ¡
ĠÙĬÙħÙĥÙĨ Ùĥ
f ar
Ġne ver
Ġà¦¶ à¦¾à¦¹
å¤ «
Ġì ¤Ħ
Ġbeau coup
Ġs ine
ÙĬ Ø³Øª
Ġas p
Ġm au
can a
Ġãĥ į
ĠTh á»§
×¢ ×ľ
ĠL i
áº µ
ì£¼ ìĿĺ
ëł Ľ
ĠÙĦ ÙĩÙħ
Õ¸Õ ¬
22 2
Ġà¦® à§ĩ
ĠØ§ÙĦÙħ Ø²ÙĬØ¯
Ġprost ÅĻed
ĠØŃ Ùĥ
ĠØŃ Ø§Ø¶
à®°à¯įà®ķà®³ à®¿à®©à¯į
Ġà¦¸ à¦¾à¦²à§ĩà¦°
à¦° à¦¿à¦ķ
igli a
à¹īà¸Ńà¸ ¡
nÃ© m
ĠÙħÙĪ Ø³
Ġph Ã¹
ÙĪ Ø¡
ĠØªØµ Ø§ÙĪÛĮØ±
Ġà¤ľ à¤Ĺ
à°Ĥà°¡ à±įà°°
à¹Ĥà¸ Ķà¸¢à¸
à°Ĥà°²à±ĭ à°¨à°¿
åĭ Ŀ
Ġ ä¼ļ
Ġà®ĩ à®´
Ġne cÉĻ
ãĤ± ãĥĥãĥĪ
æ¬ §
ÙĪÙĪ ÙĪÙĪ
Ġé» Ħ
U L
I j
Ġde al
à¯ģà®³à¯įà®³ à®©à®°à¯į
à±ģà° ĸ
Ġå¤ ĸ
Ġpujc ky
ĠØ§Ø¸Ùĩ Ø§Ø±
ĠÏĥ Î¿
ÙĴ Ùħ
ļà¸£à¸´à¸ ģà¸²à¸£à¸
Ġac onte
å³ °
Ġà°ªà±įà°°à°§ à°¾à°¨
à¤¿à¤¸ à¥įà¤Ł
ĠS A
Ġà¦¦à¦² à§ĩà¦°
×¡ ×Ķ
à®Ļà¯įà®ķ à®¿
Ġre cht
Ġ×Ķ×ĳ ×Ļ×ª
åħ³ æ³¨
aj a
ª à¸µà¸
Ġver s
Ġ×ĳ×ŀ×§ ×ķ×Ŀ
Ġk embali
×Ļ×ł ×Ŀ
Ġå Ŀ
ĠÙĩ ÙĨÚ¯
ĠÚ©Ùħ ÛĮ
Ġà° Ľ
Ġà¸ Ħà¸§à¸²à¸¡à¸
lan an
à°Ĥà°ª à±Ī
Ġak in
V iew
Ġíŀ ĺ
ĠM ÉĻrk
ĠÙĤ Øµ
Ħ à¹Īà¸²à¸
Ġmat apos
ti do
ĠìĿ´ ìķ¼ê¸°
g l
à¸Ļà¸ ³à¸
ê· ¹
Ġà®ħà®® à¯Ĩà®°à®¿à®ķà¯įà®ķ
à°¿à°Ĥà°ļ à°¾à°¡à±ģ
ak ty
Ã¼ yor
Ġìº Ĳ
à¸²à¸ ¡à¸
Ġãĥ ĭ
à§įà¦° à¦¿
ĠO ver
ili pp
ĠgÅĤ Ã³w
×ĺ ×Ĺ
áºŃ m
à¤¾à¤ĩ à¤Ł
ĠT á»ķng
ĠbÄĻ dÄħ
Ġë° Ģ
Ľà¸ ±à¸įà¸
ì§Ģ ë¥¼
ĠÎ¸ÎŃ ÏĥÎ·
12 3
Ġw Ã¼r
Ġà¤ľ à¤¹
ĠÚ© Ø§Ø±ÛĮ
éĥ¨ éĹ¨
Ġà¤¦à¥ĩ à¤¨à¥ĩ
ĠE ine
à¹ģà¸ ªà¸Ķà¸
ĠÎľ Î¬
zi den
à©Ģ à¨
à±ĩà°· à±į
åħ¶ ä»ĸ
ĠT á»«
Ġper f
g ge
ĠAm ma
Ġcons ider
Ġu v
Ġdi qq
ch ar
íķľ ê³³
ĠÃ ±
Ġhot eller
ĠØ§ÙĦØ³ Ø§Ø¨ÙĤ
ĠQar abaÄŁ
ĠØ§ÙĦ Ú©
Ġà§§à§ ©
å¨±ä¹Ĳ å¹³åı°
ĠØ§ÙĦÙħÙĨ Ø·ÙĤØ©
âĢĮ à°®
Ġà®®à¯ĩ à®±à¯įà®ķ
á ģ
Ġà¦ļ à§Į
ĠB Ã¼yÃ¼k
ĠpÅĻ e
ĠÏĢÏģÏİ ÏĦÎ·
Ġnuest ra
ÎŃ Î²
à®¤ à®¿à®²à¯į
Ġà¦¤à¦¾à¦° à¦¿à¦ĸ
Ġíķ© ëĭĪëĭ¤
ĠØ§ÙĦÙħ Ø§Ø¶ÙĬ
à§ĩà¦¨ à§įà¦¸
åĲ ¦
ĠÙĨ ØªÛĮ
9 ìĿ¼
åĪĽ æĸ°
c Å¯
ĠØ¬ Ø°
ĠÎĳÏħ ÏĦÏĮ
ãĥ ´
à¹īà¸Ńà¸ ¢à¸
Ġ à¸Ļà¸µà¹ī
Ð² ÐµÐ´
cor so
s j
Ø¨ ÛĮØ±
ĠØ¨Ø¯ ÙĨ
Ġaant al
Ġ×ł ×Ĳ
ĠìĬ ¹
Ġà°ħ à°¤à±įà°¯
Ġ×ŀ× Ł
ĠØª Ø§Ø«
Ġg dzie
Ġie ts
Ø§Ùħ Ù¾
Ġx in
à¤¾à¤ª à¥įà¤¤
c ur
Ð¾Ð³ Ð»
Ġout ras
ë° Ľ
Ġmas alah
ãĥ Ĵ
Ġd Ã¹
Ġe f
Ġse p
å®ŀ çİ°
Î¸ ÎµÎ½
Ġlu áºŃn
éĢ Ģ
à¤¾à¤¨ à¥ĭà¤Ĥ
ĠØ§ÙĦØŃ Ø¯
Ġz onder
k eiten
ov un
ĠØ³ ÙĪÙħ
ëŀ Ļ
Î³ Î½Ïī
an Ã§
Ġå¤©å¤© ä¸Ńå½©ç¥¨
ä½ Ļ
b ra
à°Ĥà°¤ à°¾
Î» Î¹Î¬
ĠÛ±Û³Û¹Û ¸
Ġon a
Ġå¤§åıĳ å½©ç¥¨
Ġbag ay
ĠÃ¶ ÄŁ
ĠåŃ ¦
ĠÐĴÑģ Ðµ
ĠÎ¾Îµ Î½Î¿Î´Î¿
â ķ
Ø±ÙĬ ÙĦ
Ġà¤¦ à¤°
Ġà§§à§ ¬
Ġà®ķà¯Ĭ à®Ł
Ġcom ent
Ī à¸´à¸
àª ¨
Ġíĸ Īëĭ¤
çĭ ¬
ĠØ´ÙĬ Ø¡
ĠØ§ÙĦØŃ ÙĬØ§Ø©
ĠÙĨ Ú©
Ġv inden
à¥Ĥ à¤Ł
à¤² à¤¬
Ġs ÉĻd
ĠÐ·Ð°Ðº Ð°Ð·
en en
Ġç ĳ
u cht
Ġà®ĩà®©à¯įà®© à¯ģà®®à¯į
Ġmak ing
Ġà°µ à°¾à°³à±įà°³
Ø±ÛĮ Ø§ÙĨ
ĠØ¬ÙħÙĩ ÙĪØ±ÛĮ
Ġ×Ķ×© ×ł×Ļ
ĠØ§Ø¨ Ø²Ø§Ø±
Ġ×Ĺ×© ×ķ×ĳ
ĠÙħ ÙĲÙĨ
Ġà®®à¯Ģ à®£à¯įà®Łà¯ģà®®à¯į
ĠÃ¼ mum
iy os
Ð· Ñĭ
ĠÅŀ ub
æłĩ åĩĨ
ĠÃ© Ã©n
Ã© g
w ard
ĠØ¢ÙĤ Ø§ÛĮ
Ġà¦¸ à¦¿à¦¨
à¦° à¦¾à¦¸
à¸µà¸¢à¸ ĩà¸
Ø¬ ÙĬ
Ġéĺ ¿
Ġutili zz
Ġbis nis
ĠÄį lÃ¡n
Ġo yn
ĠP rz
[...]
