#version: 0.2
á Ģ
á ĥ
à ª
à ´
à ¦
à ®
à °
à ¤
à ¸
à «
Ġ àª
à ¯
à µ
áĥ Ĳ
à ±
Ø §
à §
Ġ áĥ
Ġ ×
ã ģ
áĥĲ áĥ
Ġ Ð
áĥ ĺ
Ġ à¦
àµ į
à¯ į
Ù Ħ
Ġ à¤
Ð °
Ġ Ø
àª ¾
à ¥
Ġ Î
Ð ¸
áĥ Ķ
áĢ ¹
Ġ áĢ
áĢ¹ áĢ
Û Į
Ġ à°
Ġ à®
Ġ à´
áĢ ¬
àµį à´
áĥĶ áĥ
àª¾ àª
à ¹
Ð ¾
áĥĺ áĥ
à¯į à®
Ù Ĭ
áĢ º
áĢ ¸
Ð µ
à« ĩ
Î ±
à¦ ¾
áĢ ¯
Ø ±
Ã «
× Ļ
Ø§ ÙĦ
Ù ħ
áĢ Ń
Ï Ħ
ã Ĥ
× ķ
Î ¿
É Ļ
Ù Ĩ
áĢ Ģ
Ú ©
ã ĥ
à± į
Ñ Ĥ
Î ¹
á »
Ù Ī
± áĢ
à§ ĩ
áĢ Ħ
áĥ Ŀ
à¦¾ à¦
Ġ Ø§ÙĦ
Ù ĩ
à´ ¿
á ģ
à« į
à«į àª
×ķ ×
à« Ģ
Ñ Ģ
à¯ ģ
Ġ ì
Ð° Ð
áĢ¸ áĢ
à® ¿
à±į à°
×Ļ ×
Î ½
à° ¿
Î µ
Û ģ
áĥĿ áĥ
Û Ĵ
Ø ¯
Ġ Ú©
Ñ ĸ
Ð¸ Ð
à®¿ à®
à´¿ à´
à§ į
à° ¾
à§į à¦
àª ¨
à¤ ¾
à± ģ
Ð¾ Ð
a n
Ñ ģ
áĢ Ĳ
áĢŃ áĢ¯
Ï ģ
à¦ ¿
à« ĭ
Ø ª
àµ ģ
Ï ĥ
àª °
Ä ±
áĢ ķ
à°¾ à°
Ð ½
à¯ģ à®
áĢ ¼
áĢ Ļ
á º
à´ ¾
Ø ©
à¦ °
Ñ ĭ
Ï Ģ
á Ĥ
Ø§ Ø
àµģ à´
Ï Ĥ
à¥ ĩ
â Ģ
à® ¾
à´¾ à´
áĢ Ķ
£ áĥ
à°¿ à°
Î ·
e n
áĢĦ áĢ¹áĢ
áĢ ±áĢ
Ï ħ
áĥĺáĥ ¡
Ã ¡
Ã ¤
e r
áĥĶáĥ ĳ
à¸ ²
Ġ t
à¤ °
Ġ áģ
n g
ã Ģ
Ġ ë
à®¾ à®
Ã ©
Ĥ à°
Ñ ĥ
à¸ Ļ
áĢ ½
Ä ģ
Ù ģ
ì Ŀ
× Ķ
á» į
áĢ ·
w a
à¦¿ à¦
× ¨
ĠØ ¨
ĠØ§ÙĦ Ø
Ġ .
à¸ £
áĢ ²
ł áĥ
Ð »
Ñ ı
àª ¿
ä ¸
Ġ k
Ġ c
Î »
Ġ× Ķ
× ľ
Ġ d
à« ģ
áĢ ħ
à¥ į
à«ĩ àª
Ġ Ùħ
Ġ ÏĦ
Ù Ĥ
à±ģ à°
Ù ĥ
Ð° ÑĢ
Ú º
à§ĩ à¦
Ġ Ø§
Ġà¤ ķ
Î º
à¤¾ à¤
áĢ Ľ
Ġáĥ Ľ
àª Ĥ
àª ¤
áĢ ®
à¯įà® ķ
Î ¯
áĥ ķ
à¸ Ń
e s
Ġàª ķ
Ã Ń
Ġ ãĢ
ŀ ×
áĢ Ĭ
Î ¼
Ð º
à¥ Ģ
Ø ¨
àª ķ
à¤ ¿
à® °
Ø ¹
ä º
Ñ Ĩ
Ġ ÙĪ
àª ®
Ð ´
c h
l e
Ġ å
àª µ
áĥ £áĥ
a r
Ġàª ª
àµ Ĩ
áĢ ±
à¯ Ī
à¹ Ģ
Ê »
Ġ ï
ĠØ ¯
áĢ ļ
Ġ ,
à¹ Ī
Ġ à¸
à¸² à¸
áº ¹
Ø§ ÙĨ
áĢ ŀ
áĢ ľ
ĠÐ ½
àµį âĢ
ĠáĢ ¡
Ï Į
Ġ a
à® ¤
à¯įà® ¤
à¥į à¤
× ª
Î ¬
Ġ Ä
à¤ Ĥ
o n
Î¿ Ïħ
Ñ Ī
¨ àµįà´
Ġ Ûģ
Ø ³
Ġàª ¸
Ġáĥ ¡
à¸£ à¸
áĢ¬ áĢ¸áĢ
à¹Ģ à¸
áĥĲáĥ ľ
Ġd e
Ġï ¼
à´ ¤
Ġ Ñģ
Ù ¾
Ġ×Ķ ×
Ġ p
Ġáĥ ĵ
Ġt h
Ġ s
Ä ĥ
Ð°Ð ½
à¦ ¨
à° ¨
i e
áĢĦ áĢº
àµįâĢ į
à¤¿ à¤
Ġ ê
o s
áĢ ģ
áĢ «
áĥ ¡
áĥ ł
Ġ áĥĲáĥ
àª¾àª Ĥ
Ġàª ®
Ð ²
áĢ ¶
Ġ× ľ
í ķ
à° Ĥà°
à¹ ī
ĠÄ ĳ
ĠÐ ¿
Ġ n
à± ĩ
Ġ b
Ñ ŀ
áĢ »
an g
Ġ m
Ġ× ĳ
àª¾àª °
ķ àµįà´
i n
Ñ ĺ
à¸Ļ à¸
ÛĮ Úº
à° °
ĠØ ³
áĢ °
Ã ł
à® ©
à± ĭ
Ò Ľ
Ð ³
Ã ¼
à¸Ń à¸
Ġ l
Ú ¾
Ä «
Ø ´
áĢĢ áĢ¹áĢ
Ġ Ø§Ø
Ġ× Ĳ
à¥ ĭ
Ñ Į
Ø§ ÛĮ
à´ °
ģ à¸
à¦¾à¦ °
Ø§ Ø±
× ĳ
à§ ģ
Ò ³
® à¯į
à® Ł
Ġ ÏĢ
× Ĳ
i s
ãģ ®
Ġ æ
å ı
a s
Ġáģ ĭ
à«ĭ àª
Ð° ÑĤ
a t
Ú ¯
ĠÐ ±
h o
áĥ ļ
Ï ī
à§ Ł
ĠÎ º
Ġáĥ Ĵ
Ġàª ľ
Ġ e
áĢĦáĢ¹áĢ ¸
Ġàª ¤
Î Ń
Ġ Ïĥ
à«įàª ¯
×ķ× ª
Ġà® ª
Ä ĵ
y a
×Ļ× Ŀ
Ġ× ©
ÉĻ r
Ġà¦ ķ
âĢ ĭ
a k
Å Ł
ĠÎ ±
à® ³
l i
à° ²
áĢ ¡
ķàµįà´ ķ
Ġàª Ĩ
à¤ ¨
¨àµįà´ ¨
Ñ Ĭ
àª¿ àª
Ġà¦ ¸
Ġï¼ Į
Ø Ń
ë ĭ
Î ³
Î ®
áĢĶ áĢ¹áĢ
Ġt Ã«
Ð¸Ð ½
ì ŀ
Ġàª ħ
à«įàª °
Ġà¦ ¬
ĠÐ ²
ĠáĢ ±áĢ
àª¨ à«ĩ
áĥĶáĥ ļ
Ġ wa
ĠÐ½ Ð°
ĠÐ ¸
t a
áĥĲáĥ Ľ
Ġth e
Î± Î¹
Ġ Ù¾
× ©
Ġk u
Ġ ÙĦ
Ġà® ķ
ĠØ ª
Ġàª µ
× ł
Ġ Ùģ
ĠÐ ´
áĢ² áĢ·
ÑĤ Ðµ
Ġ v
Ġàª Ľ
Õ ¡
áĤ Ķ
ĩ à¸
à¯įà® ª
Ġ ÙĨ
à¦ ²
Ġà¤ ¸
o u
ĠØ £
Æ °
Ð ¼
ķ à¯įà®ķ
o r
ãģ Ħ
Ġ Ñ
ĠÚ© ÛĮ
à¦ ķ
áĥ ĵ
Ã ¥
å ®
l ar
á»į n
Ġ i
à® ²
áĢĢ áĢº
ÙĪ Ø±
áĢ ¾
Ï ĩ
ĠØ ¹
áĢ± áĢ¬
Ġà¦ ª
à± Ģ
o m
e t
w w
Å Ĥ
Ġà´ ª
ĠÎ µ
Ã« r
Ġ× ŀ×
Ġ le
Ħ à¸
à´ ¯
a h
áĥ Ľ
ĠÚ© ÛĴ
Ġà¤ ¹
Ù ī
à¤ ķ
ãĢ Ĳ
u s
à¯Ī à®
ç ļ
Ġc om
Ġ w
à° ķ
¿ ½
Ġs a
áĢ ĸ
Ð¾ ÑĤ
à§ĩ à¦°
a g
áĥ ľ
ĳ ãĢĲ
c i
àµįà´ ¤
Ġà° ª
Ø§ Øª
àª¾àª ¨
ĠãĢ ģ
à«ģ àªĤ
à¯įà® Ł
Ñģ ÑĤ
çļ Ħ
å Ī
Ø ¬
Î¹ Îº
Ø ²
áĥ ¢
ĠÐ ¼
ÙĬ Ø©
ĠØ§ÙĦ Ùħ
i t
áĥĲáĥ ĵ
Ä Ľ
Ġ âĢ
Ġà® µ
à§ ĭ
æ ľ
Ġàª ¹
Ã ³
l o
à¦ ¤
Ã ¶
Ðµ Ð½
ĠÎ ¼
Ġàª ¨
Ġ f
ì Ĺ
Ñ į
Ġ ya
ãĥ ¼
à´ Ĥ
ĠáĢ Ģ
à«Ģ àª
u l
à¸ µ
Ġ í
× ĵ
Ġ o
ĠàªĽ à«ĩ
àµ ĭ
ĠáĢ Ļ
± à¸
ĠØ ¬
Ġà´ ķ
ĠØ ±
r e
Ð¸Ð »
Ġà® ®
ĠÐ ¾
áĥĲáĥ łáĥ
à¦ ¬
Ï į
à´ Ł
Ġà¤ ®
à¯ ĩ
ĠáĢ ŀ
q u
à§įà¦ °
Ġáĥ ł
ĠØ¯ Ø±
l a
Ġàª ¬
Ġà® ħ
× ¢
àµ ĩ
ÛĮ ÙĨ
Õ¡ Õ
Ġ Õ
à± Ĩ
Ð¾Ð ²
à¦ ®
à¥ ¤
Ġ âĢĭ
Ð¾Ð ½
àªĤ àª
áĥĶáĥ ľ
× Ĺ
à¤ ¤
Ġk a
áĢĬ áĢ¹áĢ
ãģ §
Ġà° ķ
áĢħ áĢ¹áĢ
Î ´
Ġ h
áĥĲáĥ ķ
áĥĲáĥ ¡
e l
Ä± n
ĠãĢ ĳãĢĲ
Ġàª °
Îµ Î¹
Ġt i
Ġ à¥¤
àª ²
Ġn a
Ġ Ùĩ
ĠÐ ·
Û Ķ
Ġd i
Ñ ĩ
Ġ× ķ
à´¿à´ ²
à±įà° °
ļ áĥĺ
Ã µ
ìĿ ´
Ġ z
Ð ·
Ã© s
k o
Ù ¹
àµįà´ Ł
Ġà® ¤
ĠØ ´
Ġáĥ ĺ
à°¾à° °
Ã §
àª £
ãģ Ĺ
d a
ĠØ Į
àª ¹
Ġ Ã
Ġà° µ
áĢ¬ áĢ¸
Ġà® ļ
à§įà¦ ¯
ĠÐ º
ãģ «
Ä Ł
Å ¡
à® µ
à±ĩ à°
Ġ an
Ġà¤ ª
Ġ ç
Ġ ÑĤ
å ¤
Å ĳ
à´ ®
à¯ģà® ®à¯į
Ġ Â
Ġ ÛĶ
u n
d i
à®¿à® ²
à´ ³
Ġáĥ ¨
Ġà¦ Ĩ
Ĳ áĢ¬
Ġ ng
Ġà´ µ
Î¹ Î±
äº ļ
å ħ
ÑĢ Ðµ
ç ½
Ġ ho
Ï Ĩ
áĥĲáĥ ł
ãģ ¦
Ġ M
× §
à¹Ī à¸
à¥ Ī
Ø ·
áĢĢ áĢŃáĢ¯
t i
ĠÙħ ÛĮÚº
à®¿à® ¯
àµģà´ Ĥ
i á»
áĥ ®
Ä Ļ
Ñ ħ
å ½
Ġ ãĥ
Å Ļ
áĥĿáĥ Ľ
Ġà° ®
Ã« s
Ġàª ı
à¦¾à¦ ¨
Ġà° ħ
t e
Ð°Ð »
ĠáĢ ľ
áĤ ı
à§ Ģ
à¸ ´
Ġáĥĵ áĥĲ
Ġà® ĩ
g y
ìŀ ¥
Ġn i
à ¨
w á»įn
å Ľ
ĠÐ °
Ġà¦ ®
ãģ ¨
Ġ j
Î ¸
à¤ ¸
is h
× ¤
ëĭ ¤
ĠáĢ Ĳ
ãģ ª
Ġ ÙĬ
Ø µ
àª ª
à´ ¨
Ġà° ¸
× ŀ×
Ġà´ ¸
Ġà¦ ı
ç½ ĳ
ê ³
á ¹
Ġd ie
ì §
àª ¸
áĢ® áĢ¸áĢ
ĠÙģ ÙĬ
à¯ Ĩ
g b
Ã ¦
ÙĨ Ø¯
Ġt r
à¥ ģ
ĠÙħ ÙĨ
ĠÏĦ Î·
Ġ S
ĠãĢ Ĥ
à´¤ àµįà´¤
ë Ĭ
Ã £
Ġc h
à´ µ
ÉĻ n
à¤ ¹
Ï İ
Ä ħ
r i
Ġáĥ¡ áĥĲáĥ
Ġ× ¢
Æ° á»
× ŀ
h e
ÏĦ Î±
Ġn h
n h
à´ ²
Ġà´ ®
Ġt o
àµįà´ °
ĠØ¨ Ùĩ
ä »
Ĳ áĢ¼
Ġàªķ àª°
¡ à¸
Ġl a
àª® àª¾àªĤ
âĢ Į
ãģ Ł
¨ à¯įà®¤
áĥĺáĥ Ĺ
× Ľ
Ġ q
× Ŀ
ãģ Ļ
¾ áĢĢ
áĢ¯ áĢŃ
Ġt s
ì Ħ
k a
á¹ £
Ð» Ð°ÑĢ
ãĥ ³
o v
áĢĲ áĢ¹áĢ
ãģ Į
ãĤ ĭ
Ã£ o
à¤ ²
Ġ en
Ġà´ ¨
áĥĿáĥ ĳ
Ġáĥ Ļ
Ð¸ ÑĤÐµ
Ð°Ð ²
áĢ Ĩ
Ġà® ¨
æ Ĺ
ĠØ ¢
t o
c z
à° Ĥ
Å ¾
Ġan d
Ġà´ ħ
àª¨ àª¾
Ð°Ð ¼
Ð¸ ÑĢ
ê °
áĥĲáĥ ļ
àª¨ à«Ģ
ëĬ Ķ
Ġà¦ ¨
ãģ ¯
ª à¯įà®ª
áº ¡
áĥ Ĺ
à´ £
Ïģ Î¿
¶ ľ
ì ł
ÙĬ ÙĨ
Ã ¸
Ú Ĩ
Ã ½
Ġ in
¥ à¸
áº ¿
ar e
áĢķ áĢ«
ĠØ ®
à¦ ¸
Ð¾ ÑĢ
Ñ İ
àª¾àª ®
Ġáĥ Ĺ
Ġ g
ĠÚ© Ø±
áĢĦ áĢ¹
ÙĪ Úº
ĠáĢ ķ
Ġà¦ ¹
áĢĶ áĢº
Ġn Ã«
à« Ĥ
Ð°Ð ´
ÙĪ Ø¯
Ġ× Ľ
à® £
æ Ī
ì ķ
e m
Ġ è
Ð ¿
áģ ¾áĢĢ
Ã ´
ĠÛģ ÛĴ
a l
Å ¼
Ø§ Ùħ
Ġ T
ÏĦ Î¿
ĠÎ ´
áĢļ áĢ¹áĢ
à® ®
áĢķ áĢ¹áĢ
Ð ±
áĥ łáĥ
áĢļ áĢ¹
à´¿à´ ¯
Ġo f
áĥĶáĥ ¡
Ġ 2
Ê» o
n ÃŃ
à±įà° ¨
à® ±
Ñ Ĺ
à¹ Ħà¸
Ġì Ŀ
Ð°ÑĤ Ð°
ä ¹
Ġáģ Ĭ
Ġ -
¨ áĥĺ
à¯įà® ±
áĥĺáĥ ľ
Ġ ãĤ
à° ®
Ġàª ¦
à¹ ģà¸
o w
Ġà® İ
Ġ y
áĢ ³
ĠáĢ Ľ
à¯ ĭ
ĠÎº Î±Î¹
u r
en g
ĠÐ ³
áĢĬ áĢº
Ġáĥ Ķ
¶ľ ìŀ¥
ãģ ¾
ĠÃ ®
l ÉĻr
Ġ qu
àª° à«įàª
Ġb a
Ð¸Ð ´
Ġà° ļ
d o
Ġa g
i l
ĠØ§ ÙĪØ±
Ø ¦
×ķ× ¨
Ã¡ s
à´ ¨àµįà´¨
à° ¤
Ø§Ø ¦
áĥĶáĥ ł
Ø§ Ø¯
Ã ª
áĢ ĳ
Ġa wá»įn
Ä į
à¥ĩ à¤Ĥ
Ġàª ²
» áĢķ
t t
Ö Ģ
Ġ Ú¯
à´ ±
à´ ¸
Ø ®
Ġ ÒĽ
Ïģ Î±
ë §
Ã³ n
à¤ ®
Ġ â
k an
z i
ª à¸
Ð° Ñģ
Ø ¶
à°¾à° ²
Ġà¦ ¦
a m
Ġ Ñĸ
áĥĶáĥĳ áĥĺáĥ¡
æ ¸
Ġ C
× ĺ
Ġ× Ļ
Ġe l
ÛĮ Ø¯
àµįà´ ¯
Ġà° ¨
à¥į à¤°
æ ĸ
ÏĦ Î·
Ð² Ð°
àµįà´ ª
à°¿à° Ĥà°
à¤¾ à¤°
ãĤ Ĵ
Ð¸ ÑĪ
à±įà° ¯
à¯įà®ķ à®³
Ð¸ Ñı
Ġà¤ ¬
à¹ī à¸
Ġà¤¹ à¥Ī
Ð¾Ð »
ì§ Ģ
ĠÑģ Ðµ
Ġàª ¶
ÏĦ Îµ
ìĹ Ĳ
n i
d e
å½ ©
Ġ '
Ġáĥ ŀ
å ľ
áº £
Ð¾Ð ¼
Ġ à§
Ġà¤ķ à¥ĩ
ï ¿½
¢ à¸
ĠØ³ ÛĴ
Ð¸ Ñĺ
en t
ĠØ§Ø ²
Ġp Ã«r
ĠÃ® n
ÑĨ ÑĮ
à´ ª
ww w
áĥĲáĥ ª
ÙĦ Ùī
áĢ® áĢ¸
ĠØ§Ø ³
à§įà¦ ¤
áĢĻ áĢº
Ð¾Ð ³
Ġ www
ĠÚ© ÙĪ
Ðµ ÑĤ
Ã¶ r
× ¡
Ù İ
åı ĳ
r z
íķ ĺ
Ġ es
Ġo g
Ġ 1
áĢ½ áĢ¬
àµ Ģ
à° µ
Ġ ang
Ġ P
åĪ Ĩ
à¥įà¤ ¯
Ð½ Ñı
å ¹
Ġàª Ĺ
ÏĢ Î¿
à®¿à® °
àµįà´ ļ
ĠáĢ ħ
à®¤ à¯įà®¤
àµģà´ ¨àµįà´¨
à´ ķàµįà´ķ
× Ĵ
Ġ A
Ïĥ Î·
§ à¸
à«ģ àª
Ġ Ò³
ĠÐ² Ð¾
Ĥ ¬
à´ ķ
u m
Ã¤ r
l er
è ½
Ġqu e
Ļ àµįà´
à® ®à¯į
à° ¸
Ġ× ŀ
Ġ Ùĥ
à´¾à´ ¯
ë ¡
Ð¾Ð ´
à®¿à®² à¯į
Ġà´ ¤
ĠâĢ ĺ
Ð° Ñŀ
¥ à«Ģ
ä ½
i ng
Ã¡ l
Å Ľ
Ġà¦ķ à¦°
áĤ ķ
ĠØ¨ Ø±
à¹ Į
Ġk h
Ñĸ Ð´
áĥĺáĥ ļ
Ġà¦ ¤
áĥĶáĥĳ áĥĲ
Ø³ Øª
à° Ł
Ġs z
à° ¦
ĠÏĦ Î¿
à® ķ
e k
Ïī Î½
ìĿ ĺ
Î¯ Î±
ĠÏĦ Î¿Ïħ
ì ĭ
æ¸ ¸
Ġ é
à¯ Ĭ
à®¤ à¯ģ
å Ĭ
e d
Ġà¤ ľ
Ġà¤ ¨
à¸´ à¸
Ġs h
à¦ ¦
á» Ļ
Õ ¸
à®¿à® ©
d ÉĻ
Ġì ŀ
à®¾à® °
Ġm a
Î¼ Î±
i r
Ķ à¸
ìĿ Ħ
ê ¸
Ġe ta
Ð½ Ñĭ
à° ª
b a
à¹ ĥ
à±įà° ¤
Ġï ¿½
Ġà° ¤
à±įà° ²
à° ¡
Ðº Ñĸ
ĠØ ¥
àª¾àª µ
g a
ĠÎ ½
Ġàªħ àª¨à«ĩ
ÙĬ Ø±
Ñģ Ðº
ÛĮ Ú©
æ ī
ãģ ĭ
Ġ K
ÑĢ Ñĭ
áĢĻ áĢ¹áĢ
´ ë
ķ áĢ«
ÛĮ Ø±
å Ĳ
ĠØ§ÙĦ Øª
ĠÚ© Ø§
ĠÐ¿ ÑĢ
à¤ Ĺ
Ã¡ r
È Ľ
Ñĥ Ð½
Ġ un
áĥ Ĵ
ĠÐ· Ð°
Ð°Ð º
ç Ķ
áº ¥
Ġà¦ ħ
à¯Īà® ¯
áĥĶáĥ Ľ
áĢħ áĢº
áĢĶáĢ¹áĢ ¸
i j
Ġáĥ ¬
Ġ :
t Ã«
×Ļ× ª
àª ¯
Ø °
Î½ Î±
Ĺ à¸
à¤ ª
Ġde l
à§ĩà¦ ¨
ĠÐ¾ Ð´
Ġ |
ĠÚ© Ûģ
r o
áĥĿáĥ ¡
ĠÎ ¿
Ġ Ñŀ
à¯ģà® ķà¯įà®ķ
áĥĶáĥĳ áĥĺ
ãģ £
à¦ ª
Ġd he
à¦ Ł
à® ¯
à´¿à´ ķàµįà´ķ
ĠÙħ ÛĮ
ļ àµįà´ļ
Ġ B
áĢļ áĢº
ĠÛģ ÙĪ
Ġ E
Ġp h
áĢĢ áĢ¹
à°¿à° ¨
Ø £
Ïģ Î¹
Ġm e
Ñĥ Ð²Ð°
Ġs e
ĠÎ ³
Ġáĥ £áĥ
Ġ D
à°¾à° ¨
t z
an a
ļ à¸
áĥĿáĥ ľ
à¯ģà® ¤
Ġà¦ ľ
ÙĪ ÙĦ
t s
Ð°Ð ¹
Ġ ÑĢ
å į
Ã ¢
ĠÐ µ
å® ĺ
ãĥ¼ ãĥ
Ð½ Ð¾
ì ¶ľìŀ¥
i d
ì Ĭ
ĠÙĪ Ø§ÙĦ
Ġà´ İ
æ ĺ
Ġv an
Ð°Ð ³
Ġ à¹Ģà¸
u d
á» ĳ
à° ¯
à´ Ļàµįà´
à°¿à° ķ
ÉĻ s
Ð´ Ð°
áĥ£áĥ ł
Ð¸Ð½ Ð³
Ð ¹
ĠØ§Ø³ Øª
ĠØ Ń
íķ ľ
Ñ ļ
Ġì ł
Ùĩ Ø§
Ñĸ Ð²
×ķ× ľ
ãĤ Ĭ
Ġà¤ ħ
° à¸
à«įàª Ł
Õ ¥
è ¿
Ġà¤ ¦
Ð¸Ð º
è µ
Ġy ang
Ġc on
áģ Ģ
Ġo ch
Ã º
Ġm o
Ġ Ê»
Ġ Û
Î ²
àª Ĺ
u ng
r u
ĠÐ¾ ÑĤ
Ñ Ħ
Ðµ ÑĢ
ci Ã³n
è ®
ì ļ
Ġ×© ×ľ
Ø «
Ġa z
Ø§ Ùĩ
Î ĳ
at i
ĠâĢ Ļ
Ġk wa
ÙĪ ÙĨ
àµ Ĥ
Ġà¤ µ
on e
à±įà° Ł
áģ ¿
× ¦
İ ¯
Ġj a
áĢĦáĢ¹áĢ ·
Ġà¤ ²
Ð½ Ð°
áĢĦáĢº áĢ¸áĢ
u t
Ġp er
à± Ĥà°
áĥ §
Å ¥
ë ı
s z
ë¡ ľ
Ġ× ł
àµįà´ ±
ãĤ Ĥ
áĥĺáĥ ĵ
à®Ł à¯įà®Ł
ãĤ ¹
Ġf or
à¹ Ĥ
áĢŃáĢ¯ áĤĶ
áĢ¯ áĢ¶
å ¿
Ø§Ø ²
ê³ ł
à®¾à® ©
áĢĢ áĢ¼
Õ ¶
à±ģà° ²
iá» ĩ
Ġáĥ ķ
ÛĮ Ø§
áĢĬ áĢ¹
à® Ļ
ĠØ§ÙĦØ £
àª¾àª ¯
àª ¦
È Ļ
ä¸ ĭ
Ġ ãģ
Ġáĥ ĳ
Ġà¤® à¥ĩà¤Ĥ
Ñ Ķ
Ð¸Ð ¼
i a
æĹ ¶
àª ľ
j Ã«
Ġ "
Ĺ à¸µ
u k
à¦¿à¦ ķ
ĠÐ² Ð°
àª ¡
Ð½ Ð¸
Ġå ¤
Ð½ Ñĸ
ĠÙ¾ Ø±
ĠÎ ĳ
o or
ĠáĥĲáĥ ł
ĠØ§ ÙĨ
Ġm ga
à«ĩàª ²
Ú Ī
Ġà¤ °
Ġe a
áĢ±áĢ Ķ
à´° àµįâĢį
áĥĶáĥ ķ
Ġe t
áĢ¬ áĢĢáĢ¹áĢ
Ġà° °
ou r
à® ¨à¯įà®¤
ä¸ Ģ
ï¿½ ï¿½
Ġ× Ĺ
İ¯ äºļ
Å «
ê° Ģ
äº º
Ã¤ Ã¤
ÙĦ ÙĬ
Ø§Ø ¨
à´¾à´ £
ê ²
ĠÎ¼ Îµ
Ã ¬
à¥ Ĥ
à± Ī
ĠÐ´ Ð°
ë ¦
ÑĨ Ñĸ
ç «
áĢĬáĢ¹áĢ ¸
ÉĻ t
Ãª n
g an
Ã« n
à¤ ¦
Ġ (
áĥĶáĥ Ĺ
Ġ ÙĤ
ãģ Ĩ
à¦¾à¦ ²
Ð ł
Ġb o
Ø§Ø ¡
Ð¾Ð³ Ð¾
áĢ¬ áĢĦáĢ¹áĢ¸
Î½ Î¿
áĥĺ áĥĲ
y o
ãĥ ĥ
×Ļ× ¨
Ġàª Ń
Ð¾Ð ¹
ãĤ Į
áĥĲáĥ ®
Ġv e
ç »
Å ¯
É Ľ
Ġ I
Ġun d
ÙĨ ÛĴ
ĠØ§ÙĦØ ¹
Õ «
ĠáĢ Ĩ
áĢĲ áĢļáĢ¹
Ð¸ ÑĤ
v e
¸ à¸
Ġ Ñı
ì ĥ
Ġê °
s a
i z
áĢ±áĢ Ľ
ãĤ ¤
ãĤ ī
àª¾àª ¤
Ġàªª à«įàª°
à´ ¨àµįà´
áĢĲ áĢº
Ð³ Ð°Ð½
ĠÙĨ ÛĴ
ÏĦ Î¹Îº
Ġ Ãł
ç ī
Ñĥ ÑĢ
ĠØ§ ÛĮÙĨ
áĢ¶ áĢ¯
Ã´ ng
Ã¡ n
Ī ëĭ¤
Ġ H
à´¿à´ °
Ñ ī
àª ³
Ġà¦ª à§įà¦°
à®¾à® ķ
ë ¥
ìĿ ¼
à´¿à´ ¨
áĢ· áĢº
Ð¸Ñĺ Ð°
ĠáĢ ģ
Ġáĥł áĥĿáĥĽ
áĥ£áĥ ļ
à¤¾à¤ ¨
å ¼
ĠÎ½ Î±
à¤ µ
à¯ Ģ
áĢķ áĢº
Ðµ Ðº
Ġ N
áĥĲáĥ ¢
à®° à¯į
Æ ¡
ĠÐ ł
Ú¾ ÛĮ
à®¿à® ±
Ġe en
à¦¿à¦ ¨
áĥĲáĥ Ĺ
áĢ ĺ
ĠÎ ķ
Ġti l
ì ľ
i k
ĠáĢ Ķ
Ġ L
à´¾à´ °
Ø± ÙĬ
ĠØ¨ Ø§
Ð¾ Ñĺ
Ġë °
ĠÚ© Ùĩ
à´¾à´ ¨
à°Ĥà° ¦
à¦ Ĺ
Ġ er
ê¸ °
ä ¼
Ġà¦ °
åĽ ½
áĥ£áĥ ļáĥĺ
à¯įà® ļ
Ġv a
ģ à¸²
ĠÎ ł
Ġì ķ
ĠáĢ Ĵ
Ġa l
Ġàª¹ àª¤
áĥ ĳ
à´Ļàµįà´ Ļ
§ åıĳ
ak o
Î Ł
Ġp o
× Ł
Î ¾
Î Ļ
à±į âĢĮ
à® ªà¯įà®ª
Ä ĩ
à¸µ à¸
Ī à¸
ìĦ ľ
à¦¾à¦ ®
å °
i m
Î¼ Îµ
áĤ Ī
á» §
Ġàª ¥
ãĥ Ī
áĢ Ŀ
×ķ× ĵ
áĢĲ áĢ¬
áĢĻáĢ¹áĢ ¸
Ðµ Ð´
ì Ľ
áĥĲáĥłáĥ Ĺ
Ðµ Ð»
Ã§ Ã£o
à® ļ
áĥĶáĥ łáĥ
ÛĮ Ùħ
Į Ģ
Ġà®İ à®©
áĢ± áĢ¸áĢ
Ð¸Ð ³
ĠÎ Ń
é Ģ
àª ¥à«Ģ
à¥ĭ à¤Ĥ
Ā Ā
à´¿à´² àµįâĢį
Ġb er
Ð ¶
Ġà® ī
áĢŃáĢ¯ áĢ·
à¯ģà® ķ
Ġà° Ĩ
Ð¸ Ðµ
à«įàª ¤
Ġ× ª
Ġa t
à±ģà° ¨
áĥĶáĥ ĵ
áº Ń
Ġáĥ ľ
Ð¸Ð ±
ê µ
Ġe in
àª ¶
ì ĸ
à± Ĭ
ĸ áĥĶ
ĠØ¹ ÙĦÙī
z a
à¦° à§įà¦
Ġà¦ ¶
as h
áĥĿáĥ ķ
Ġ on
áĢŃáĢ¯ áĢĦáĢ¹áĢ
ÏĢ ÏĮ
àµįà´ ²
l ÉĻ
Ġd o
é Ļ
áĥ ª
ë Ĥ
Ġp ag
Ġ u
Ð¸Ð ·
ci Ã³
è ¯
Î» Î¿
à¯ Ĥ
×ķ× Ł
Ġà´ ĩ
Ġà¤ Ĩ
Ġà¤ķ à¥Ģ
æľ º
Ö Ĥ
at e
×ķ× ĳ
ì Ĥ¬
Å Ĩ
Ġ )
Ġ ÚĨ
àª¿ àªķ
Ġv Ãł
i ÄĻ
Ġàª ļ
ÏĦ Î¹
Ã© g
áĢĸ áĢħáĢ¹áĢ
Ġ× ¨
Ġ Ã©s
ĠÄĳ á»
à¹ĥ à¸
Ġv á»
à±ģà° Ĥà°
áĥ Ļ
Ġàª® àª¾àª
ì ²
áĥ ¥
ĠÎº Î±
Ġà´ ļ
áĥĺáĥ ł
« à¸
àµģà´ Ł
Ø± ÛĮ
Ġa f
c o
à±ģà° ķ
Ä± r
×Ļ× ł
Ġd an
Ġd er
ĠÏĦÎ· ÏĤ
àª Ł
à´¿à´ ļàµįà´ļ
Ø§Ø ³
áĢ±áĢ ĲáĢ¬
×ķ× ł
áĢ½ áĢŃ
i y
Ð°Ð ±
à¦¾ à§Ł
Ġ Ò
a d
Ġà¦ ¯
áĥĿáĥ ĵ
áĢ² áĤĶ
u ar
áĢĲ áĢ²áĢ·
Ġ ÛĮ
ĠàªĨ àªµ
Ã© n
àª §
ĠÑģ Ð¾
Ġ F
Ġà°ª à±įà°°
Ã¼ n
à¦ ¼
Ù Ģ
Ġàª «
Ġh et
Ġa tt
Ġ 0
ë ĵ
à¸£à¸ µ
à®¿à® Ł
ie m
ĠáĢ ĳ
è §
Ġàªª àª°
Ð¸Ð ¹
à¦¿à¦ ¤
ìĿ Ģ
Ġ r
à¦¿ à§Ł
×Ļ× Ķ
Ġf Ã¶r
t Äģ
Ĺ à°¾
à«ĩàª ®
£ ¼
è½ ½
Ġáĥ ®
Ġa ti
áĢ±áĢ ĲáĢ¼
Ð´ Ð¸
k e
Ġ× ¤
Ð³ Ð°
Ġàªķ à«ĩ
ĠØ± Ø§
à¤ ¯
àµģà´ ķ
ÑĨ Ñĭ
ï ¼
Ġv ÉĻ
ĠÐ ¡
. .
Îµ Î¯
áĢŃ áĢ³
áĢŃáĢ¯ áĢ¸áĢ
t Ã¤
ãĤ ĵ
à¦ ¹
Ġ re
Ð°Ð ·
àµ ½
áĥ ¨áĥĺ
Ñļ Ðµ
l Ä±
Ġ Ñĥ
áº §
à°¿à°Ĥà° ļ
Îµ ÏĤ
à®¾à® ²
ä¸ĭ è½½
Ġ G
Ġ is
àµ ¼
à®© à¯į
o l
Ø¯ Ùĩ
à¤¿à¤ ¯
à¦¾à¦ ķ
t en
ĠÙĦ ÙĦ
Ġk e
Ġ×Ĳ ×ª
á ŀ
ìĬ ¤
Ġi l
g o
ä¸ Ń
Ġà´ Ĩ
ĠÎ £
à¯įà® ²
ŀ à¸
Ġê ²
áĢĶ áĢ¹
Ġe m
áĤı áĢ½
Ø º
à¹Ĥ à¸
Ø§Ø ¹
áĢģ áĢº
Ġ W
Ġàª ĸ
à¤° à¥įà¤
áĢķ áĢ¼
Ġì Ĺ
Î¿ Ïį
ĠÎ ļ
áĥĺáĥ ª
c e
áĢĻ áĢ¾
áģ¿ áĢķ
Ġå¤ §åıĳ
áĥķ áĥĶáĥļ
Ġáĥ ¤
à¥ĩ à¤
ķ à¸
ë§ Ī
Ġáĥ ¥
áĥĿáĥ ļ
Ġ ÑĪ
å Ĩ
Î £
Ã³ w
ãģ ı
r a
ĠÏĦÎ· Î½
Ø§Ø ´
u i
× ĸ
ìĿ ¸
Ġp ar
É Ķ
ĠÑ į
Ġà¦ Ĺ
i i
ÉĻ k
j e
Ã© r
é Ĺ
Ġ á»į
ĠÑ ħ
Ġm en
Å £
c a
i ch
ÙĦ ÛĮ
Ġáĥ ©
Ŀ ¼
æĺ ¯
Ð» Ñĸ
Î ¶
äºļ æ¸¸
Ġà¤ķ à¥ĭ
ĠÐ½ Ðµ
i li
ĠÛģ ÛĮÚº
Ð° ÑĪ
Ð¾Ð ±
áĢĽ áĢ¬
ç ¥
à® ´
Ľ à§ĩ
Ð¸Ð ²
àª¿àª ¯
Ġa v
å İ
Ī ĺ
å®ĺ ç½ĳ
Ġàª¤ à«ĩ
ent ru
Ïİ Î½
áĢ Ł
à® ķà¯įà®ķ
ãĥ «
à¯įà®ķà®³ à¯į
Ġ x
Î± Î½
à®¿à® ķ
å ·
à¯ģà® µ
à´Ł àµįà´Ł
Ġì ĺ
ĠØ ²
Õ¸ ÖĤ
å¿ «
áĥĿáĥ ł
×Ļ× ľ
àµ Ĭ
áĢŃáĢ¯ áĢĦáĢº
ĠØ§ÙĦØ ³
Ñ ĳ
Ġn Äģ
à°¾à°° à±ģ
d er
ĠáĢ »
n e
å º
ĠÎ ¤
à§ģ à¦
ë¦ ¬
m a
æī ĭ
Ġg o
ÑĤ ÑĮ
Ġà® Ĩ
å ¸
Ġàª ī
Ġts e
à°¨ à°¿
å¤ §
Ġ à«
ÙĬ Ø¯
àªµ àª¾
áĢĲ áĢ½
æ Ŀ
à´ª àµįà´ª
Ġà¤ ¤
Ñģ Ñı
à¤¨ à¥ĩ
àª ¬
Ñģ ÑĮ
Ã¡ c
Ġ× §
Ġ um
åľ ¨
Ġd es
Î¯ Î½
áĢ» áĢķ
à®£ à¯įà®Ł
Ġl Ãł
ëı Ħ
à¦¾à¦ ¦
y ch
é ĩ
Ġà¦ ļ
Ø¦ ÛĴ
Ġb ir
Ġp rz
ĠØ£ ÙĨ
Ġ O
àª¨ à«įàª
Ġà¤¸ à¥ĩ
áĥ ¬
Ġ á¹£
ì ĺ
ĠáĢ ĺ
Ġb e
p a
Ã ¨
h a
li g
Ġàªª àª£
zi one
Ġà° ¬
à§įà¦ Ł
à®¿à® ¤
Ġch e
w e
Ġë §
å Ń
in i
áĥĶáĥĳ áĥ¡
à°° à±įà°
at o
ë ħ
Ġp ÅĻ
at u
áĢ¬ áĢĦáĢ¹áĢ
áĢ Ĵ
Ġq Ã«
Ġ Ã¥
Ð¸Ð´ Ð°
Î ķ
Ġc u
àª¾àª® àª¾àªĤ
Ġà¤ Ĺ
Ġà° ¦
ÑĬ ÑĢ
ĠáĥĲáĥ Ľ
Ñĩ Ñĭ
Ġà° ĩ
àª¨ à«ĭ
Ġl es
Æ°á» Ŀ
ĠÑ ĩ
Ġh a
æ Ĭ
lar i
Ú ĳ
æ ³
Ġp Ã¥
t er
áĢ¯ áĢķáĢ¹áĢ
ê ±
ĠÎ ľ
Ġ ÏĮ
Õ¡Õ ¶
Ø§ Ûģ
ç ľ
ĠÎ³ Î¹Î±
àµĩ à´
å¹ ³
ìĭ ľ
¯ à¦¼
Ġà¤ķ à¤°
Ġà¦¬ à¦¿à¦
Ġth á»
ãģ į
Ð» Ñı
Ġ× Ĵ
Ġ×ľ ×Ķ
ĠÙĨ Ûģ
àª¾àª ¸
Ã«s h
Ġì ĭ
áĥĿáĥ Ĵ
à¤ ¬
ç º
Ġo p
å ¥
à´¿à´ ķ
Ġd a
Ġ /
Ġg e
áĥĿáĥ łáĥ
y m
ar a
áĥĺáĥ ¢
à´³ àµįâĢį
Ġ à¨
Ġáĥĵ áĥĲáĥ
áĥĵ áĥĲ
à¦¾à¦ ¤
ãĤ ¯
Ä ¼
à«įàª µ
et s
Ľ i
à§įà¦ ¬
ĠÎ± ÏĢÏĮ
Ġp or
² à±ĭ
Ġà¤ ī
Î» Î»
Ġà° ī
Äģ s
b b
áĢ±áĢ¬ áĢĦáĢº
l y
ãĥ ©
Ġt á»
u f
Ð° Ò³
Ð¾Ð º
Ġl os
ĠáĥĴ áĥĲáĥĽ
ë °
Ġà° Ĺ
áĥĺáĥ Ļ
Ġ2 0
Ã ±
Ġà¤ Ń
Ġ Ã§
Ġ 3
i o
Ġn jÃ«
à¦¿ à¦°
à´¾à´£ àµį
ìķ Ī
à¹Ī à¸²à¸
Ġì Ħ
Ġ× ĵ
Ġ ar
í Ĭ
d z
Ġ Ïĩ
áĢ±áĢ ľ
ĠÎ ·
ĠÎ ¸
à¸Ńà¸ ĩà¸
Ġ×Ķ× ŀ×
à ¶
Ø§ Ú©
Ġs i
à¦ ľ
áº¥ t
à±įà° ª
Øª Ø±
ÙĬ ÙĦ
Ðº Ð°
áĢĻ áĢ½áĢ¬
Ġo l
ë¥ ¼
Ù ĳ
ĠØ§ÙĦØ Ń
Ä ¾
ÙĪ Ø²
ĠÐ Ł
Æ°á» £
ì ¹
Ó £
Ġn e
Ġi r
à¦ ĩ
c k
áĢĲ áĢ¼
áĢľ áĢŃáĢ¯
åı °
ÙĪ Ùħ
Ġ×ľ ×Ĳ
à¤ £
à°¨ à±įà°¨
àª¿ àª¤
u y
íķ ´
Ùĩ Ø§ÛĮ
à¤ ľ
Ġê ³
Ð¾ Ñŀ
à´ ¦
Ġt er
à¦¾à¦ ¬
Ò ĵ
Ġl i
Ð¸Ð½ Ð¸
Ġà¤ ĩ
8 8
Ð¾ Ð¸
ãģ ĵ
áĢ¸áĢ ±áĢ
Ä« b
áº¡ i
Ù ĭ
Ġà´ °
ÏĦ Î¬
ati on
àª° à«Ģ
ä¸ į
à¹ ĩ
å ĩ
ÉĻ m
ãģ¾ ãģĻ
Ïģ Î¬
Ġà´ª àµįà´°
æĸ ¹
à¤ ¡
å ¾
Ġv er
àª ļ
Ġm em
j i
à«ĩàª µ
Ġg i
ar en
an i
Ġn o
é Ľ
ë ³
è ¡
à®¿à®© à¯į
p p
s i
Ø§ Ùģ
Ġàªı àªķ
s h
áĤ Ģ
Ġáĥ Ŀ
Ã¡ t
à¦¾à¦ ¸
u ri
ĠÐ° Ð´
ãĥ ª
×Ļ× Ł
Ġd u
à´£ àµįà´Ł
àµģà´ ¤
à®¿à® ķà¯įà®ķ
àµĨ à´¯
ĠÏĥ Ïħ
àµįâĢ Į
à¦¾à¦ ĩ
ãģĹ ãģ¦
à¦ Ĥ
à¯įà® ³
ĠÐ Ĳ
æīĭ æľº
v er
Ġà¦ ī
à° Ĺ
ĠÙĩ Ùħ
à¤ Ł
ÑĨ Ð°
ĠÏĢ Î¿Ïħ
Ġpar a
àµģà´ ®
Ġme g
Ð¸ Ñģ
à¸Ńà¸ ĩ
Ġ× ¡
ç Ľ
Ġt e
Ð¾ Ñģ
ãģ ķ
Ġde t
àªĤàª Ĺ
×ĳ ×¨
à®¾à® ¤
Ġà¦ ĵ
ĠáĢ ĸ
ë ¶
áĤĢ áĢĢ
æľ ī
ĠÐ² Ñĭ
Äģ r
Î¹ Ïĥ
ÃŃ t
×ł ×Ļ
å Į
Ġz a
Ġ×¢ ×ľ
Ø± Ø¯
ĠÐ Ĵ
áĥłáĥ Ĺ
áĥĺáĥ ķ
d en
Ġc á»§
y e
ĠÐ ľ
à ·
Ñŀ Ð»
ĠØ µ
ĠÐ ĵ
ÎŃ ÏĤ
Ġj e
áĥĶáĥ ¢
Ġcá»§ a
Ġà° İ
Ġà¦ Ń
Ġc Ã³
Ø¦ ÛĮ
Ł à«ĩ
Ġ Ã©
ì £¼
Ð» ÑĮ
áĢĻ áĢ»
à°ķ à±įà°
í Ļ
Ġï¼ ļ
Ġàª¸ àª¾àª
n ie
Ġ 5
Ùģ Øª
Ïģ Î¯
ĠÄ Ĳ
à´¤ àµį
Ġ gb
à ©
à® ª
Ð¸ Ñĩ
íĬ ¸
Ê» a
à¦ £
× ļ
áĥĺáĥ Ľ
à°¾à° ¯
ãģ£ ãģ¦
Ù Ĳ
Ø ¸
Ġàªµ àª¿àª
à§ĩà¦ ķ
ë ł
Ġm ed
la m
à¯įà® µ
Ġ Ã¤r
äº Ĩ
à¯ģà® ®
Ġs om
à§ ľ
ar i
Ð°Ð³ Ð°
on a
Ð¸ Ñħ
¦ à°¿
Ġ× ĸ
Ġà®ļ à¯Ĩ
Äĵ j
Ġà° ľ
àª¾àª ľ
à®² à¯į
Ġà¤ Ķ
à¤¿à¤ ķ
ĠÎ Ķ
àª¾àª ²
Ġi z
à¥įà¤¯ à¤¾à¤
Ġ R
r es
k i
it h
Ùħ Ø§
è ´
ou s
in e
ãģ Ĥ
±áĢ ĲáĢ¬
áĥķ áĥĺáĥ¡
Ġv oor
Ð½ Ðµ
ĠÐ¿ ÑĢÐµ
à°Ĥà° Ł
ģ áĢº
2 0
ÙĪ ÛĮ
Ġl ati
áĢĦ áĢ·áĢº
å¹³ åı°
Ġàª Ł
ÏĦ Î±Î¹
Ġe gy
Ġì §
áĥĶáĥ Ĵ
at z
á ł
ĠØ¨ Ø§ÙĦ
ĠáĢŀ áĢ°
Ġà¤Ķ à¤°
Ġáĥ ¢
å Ŀ
Ġy ou
à®¾à® Ł
a pp
ãģ§ ãģĻ
Ġts a
t u
ĠÐ ĳ
à¤ ļ
×ķ× Ŀ
z t
à±ģà°¨ à±įà°¨
ÑģÐº Ð¸
Ġà¤ ¯
ÎŁ Î
Ġa m
Î¹ Î¿
Ġà°ļ à±ĩà°
Ġç İ¯äºļ
Ð¾Ð ·
Ġd in
à´ ķàµįà´
Ø§Ø± ÛĮ
Ġ V
à«ĩàª ¶
áĥĶáĥļ áĥĺ
à¯įà® ©
à°¿à° ¤
à¯ģà®¤ à¯įà®¤
ĠÐ¼ Ñĥ
Ä± m
j a
×ķ× Ĳ
Ã¤ n
ni ng
ĠìĿ ´
áĥ ¨
ĠáĥĴ áĥĲáĥľ
Ġw y
o k
àªµ àª¾àª¨
à«ĭ àªķ
ĠÙĩ Ø§ÛĮ
æ Ģ
ÐµÐ½ Ð½Ñı
i x
Ñĥ Ð²
Ġth at
Ġàª° àª¹
Ù ı
áĢ¸áĢ Ļ
à¯ģà® Ł
ãģ ł
áĥĲáĥ Ĵ
áĢ±áĢ ŀ
à´¿à´ Ł
à±įà° µ
Ġàª®àª¾àª Łà«ĩ
áĥĺ áĥĲáĥľ
ĠÏĢ ÏģÎ¿
n ya
Ġp ro
ĠØ¨ Ú¾ÛĮ
es t
áĢ±áĢ ķ
áĥĺáĥ Ŀ
Ð¸ Ð¸
Ġng a
à¦¿à¦ ²
Ġ äºļæ¸¸
×Ļ ×ķ×ª
Ġg j
Îµ Î½
e le
Ġn ie
Ĺà¸µ à¹Īà¸
b er
à§ģ à¦²
áĥ ŀ
àµįà´ ³
e a
as i
àª¾àª £
ĠÎµ ÏĢ
Ġe g
ÑĤ Ð¾
àª Ń
Ã¼ r
Ð°Ð» Ñĸ
ÑĢ Ð°
Ġ U
is t
±áĢ Ķ
Ð°ÑĤ ÑĮ
à®² à¯įà®²
áĢ¬ áĢ¹áĢ
Ð°Ð½ Ð´
¸ à±įà°¤
Ġà¤ ı
àª¾àª ¦
Õ¥ Õ
å ±
Ġv Ãµ
ä¸ ī
h r
å® ¶
ĠÛĮ Ûģ
Ø§ ÙĤ
à¹Į à¸
Ïģ ÏĮ
áĢ±áĢ¬ áĢĢáĢº
Ġ Y
ÑĤ Ð°
Î® ÏĤ
an t
Ġë Ĥ
à¤¾à¤ ²
à¹ ĩà¸
à´ Ĺ
Ġa y
áĢĻ áĢ½
áĥĺáĥ ļáĥĺ
z y
¡ à±ģ
áĥ ¦
áĢĸ áĢ¼
ģ áģ
i áº¿
ëĭ Īëĭ¤
áĥ £
Î Ĺ
Ã¼ l
k y
ĠÐ¸ Ð·
à¸£ à¸²à¸
li k
l ah
t h
Ġà´ Ĵ
Øª ÛĴ
Ġà®ĩ à®°
áĢŀ áĢĬáĢ¹
ãģĹ ãģŁ
ĠÏĥ ÏĦÎ¿
ĠÂ Ń
×Ļ× §
ìŀ Ĳ
Ø§Ø Ń
Ĳ áĢ²áĢ·
×Ļ× ĳ
Ġáĥ ª
ÑģÑĤ Ð²
Ðµ Ð¼
ĠÐ² ÑĸÐ´
áĢ ¥
Ġà¤ķ à¤¾
n ÄĽ
s t
Î¿Ïħ Î½
áĢ² áĤķ
ĠØ§ÙĦØ ¬
Ùĩ Ùħ
àª¤ àª¾
à°Ĥà° ¤
ÐµÑĤ Ð¾
Ġ ?
á» ĭ
å¼ Ģ
da d
à«ĩàª Ł
ÑĤ Ñĭ
à®Ļ à¯įà®ķ
o a
à§ĩà¦ ²
Ġà¤ª à¤°
s e
×Ļ× ©
ç İ
Ġc a
Ġãĥ »
Ł à¸£à¸µ
ĠàªĨ àªª
ģà¸² à¸£à¸
ĠáĢĢ áĢŃáĢ¯
Ġ à¹ģà¸
Ġi a
Ġk ati
ìľ ¼
n a
à§ĩà¦ ¶
ĠÑ Ħ
áĥĲáĥ ĺ
ĠØ§ÙĦ ÙĤ
Ġp our
Ġw ith
ĠØ ·
Ïģ Î³
Ã¬ nh
ÙĪ Ø§ÙĨ
âĢĭ âĢĭ
Ïĥ ÎµÎ¹
ĠØ§ÙĦØ ¨
Î¼ Î¿
Ġë ĭ
ĠÐ´ Ð°ÑĢ
ä¹ Ĳ
ç Ļ
áº ¯
Ã¸ r
Ð¾Ð ¶
áĢ±áĢ¬ áĢº
ĠØª Ú¾
áĥĺáĥ £áĥ
ë Ŀ¼
ĠÐ ļ
ÖĢ Õ
áĥĲáĥ ¨áĥĺ
Ġc n
Ð°Ð½ Ð½Ñı
ìĽ Ĳ
à®± à¯įà®±
à«ĩ àª°
ĠÐ »
ĠS e
è Ģ
§ à§
ÛĮ Ø³
Ø± Ø¨
áĥļ áĥĺáĥ¡
´ à¸
Ġáģ ı
Ð ¡
áĢ¼ áĢ¬áĢ¸áĢ
Ä± l
li ch
à´¾à´ ¤
Ľ à¸
¹ à¸
Ġà°µ à°¿à°
Ġê ·
ĠØ§ ÛĮÚ©
Ġp re
ĠÄ °
ãģ ĳ
Îĳ Î
à° ļ
Ġà¤ª à¥įà¤°
ĠÃ ¨
t uk
± à¸Ļà¸
Ġáĥ §
ĠÏĦ Î±
Ġtil l
à§ģ à¦°
à§įà¦ ·
Ġì Ĥ¬
Ġà¤ ļ
à¦ ¶
Ġ áº¹
ä¸ Ĭ
ÙĪ Ø´
á» ¯
à¦¾à¦ ľ
Ð°Ð ¿
à¥ģ à¤
à¥įà¤ ¤
áĢģ áĢ²áĢ·
ÉĻ l
e ko
áĢ Ĥ
Ñĥ Ð¼
d ÉĻn
áĢŀ áĢĬáĢº
Ġp entru
Å į
ĠÙħ Ø¹
Ġà® Ĵ
g e
àª¾àª° à«ĩ
ï¼ Į
ĠÑģ ÑĬ
ÈĻ i
Õ¸ÖĤ Õ
u a
Ġà¦ª à¦°
Ĥ °
t re
ÉĻ y
ÙĨ Ø§
ì Ĩ
Ĭ à¸
Ã¢ n
in en
àµģà´Ł àµĨ
ag y
×Ļ× ĵ
ĠÎ ²
áĥĲáĥ Ļ
eng an
Ġà´ ¬
u e
Ġáĥŀ áĥł
æ ķ
ç« Ļ
ĥ ½
Ġs iÄĻ
ul ui
Ġc are
· à¹Ī
ĠÐ¿ Ð¾
os h
ľ Ðµ
Ġam b
áĢ¬ áĢĽ
Ġme a
Ġf un
Ð¸ ÒĽ
æ ŀ
Ġà¦ı à¦ķ
ãĥ³ ãĥ
Øª ÛĮ
ĠÏĥ ÏĦÎ·
Ä± ÅŁ
Ġp r
Ġ×Ķ× Ĳ
Ã ²
Î» Î·
à±ģà° ¤
à«įàª¯ àª¾
ÑĨ ÑĨÐ°
éĽ Ĩ
s ch
±áĢ ĲáĢ¼
Ġes t
Ġáĥĺ áĥ¡
Ġp e
en ÃŃ
ah i
à«įàª ²
Ġp a
ÙĦ Ùĥ
å Ĵ
áĢ¸ áĢĢ
ãĤ ¢
d an
å ¯
u x
à«ĩàª ķ
Ġë ª
Ġ ÏĨ
ë ŀ
Ñĥ Ð´
ĠØ§ÙĦØ ´
ĠØ§ÙĦ ÙĨ
u z
± àµĨ
áĢ¸áĢ ŀ
ĠÐ± Ð°
à¦¤ à§ĩ
à¤ ¼
±áĢ Ľ
Ġà¤ ¶
àµ »
Ġl as
ĠÐ Ŀ
Ġàª¤ à«ĭ
ë ©
Ġê ¸
Ġàª ¡
Ø§Ø ¬
ãĥ³ ãĤ
à´ ´
ì² ľ
g en
Ġì ¹
Î± ÏĤ
Ð°ÑĤ Ð¸
m e
Ðµ ÑĢÐµ
á» ±
áĢ¯ áĢķáĢº
³ à¸
g h
Ã« t
àª¿ àªµ
ĠØ¢ ÙĨ
æ ´
Ä °
ĠáĢ »áĢķ
ĠÏĢ Î±
à«įàª¯ à«ĭ
Ġàª¸ àª®
ĠÎ Ł
Ġ J
Ð½ Ð¸Ð½Ð³
æĪ ·
li j
à´¿ àµ½
ç İ¯äºļ
Ð¾ÑĤ Ð¾
æ µ
×ķ× ¤
Ġë ³
on i
Ġàª¤ àª®
à¸£à¸ ±à¸
ä ¿
Ġà´ ī
en te
Ø§ÙĨ ÛĮ
ģ áĢ²áĢ·
ãĤ Ī
Î¼ ÎŃ
Å ±
b u
Ã© k
l Ã¤
ç Ĳ
åĽ ¢
Ġà¦ ²
qu e
ĠÑ ī
Ġà¦ ¥
à°¨ à±ģ
Äģ m
Ġà° ²
Ġ om
ë ¬
n o
ĠØ¨Ø± Ø§ÛĮ
áĥ£áĥł áĥĺ
j Äħ
Ġà´ ľ
Ġì Īĺ
o ng
ĠØ§ÙĦØ ¥
à®³ à¯į
ĠÐ¾ Ð±
à¸£à¸ °à¸
Ġw h
ĠÏĥ Îµ
ch t
Ġk o
Î½ Î·
ÑģÑĮ Ðº
æ Ķ
ĠT h
ĠÙĨÛģ ÛĮÚº
à´¾à´ ²
à«įàª¯ à«ģàªĤ
à°ķ à±ģ
ĠáĥĽ áĥĿáĥ
áĢ±áĢĲáĢ¬ áĢ·
Ê» i
Î¿ Î»
Ġk Ã¶
Ġ Ïħ
ĠØ§ÙĦ Ø¯
ĠáĢ ±
áĥĶáĥ ¥
ç §
Ġáĥ ļ
Ġkati ka
j u
áĥĲáĥ ļáĥĺ
Ġel s
ĠÙģ Ø±
à¦ Ń
à¹ī à¸²à¸
à¦ ļ
ĠÎ »
à±Ĩ à°²
àª Ī
àª¿àª ²
á» ĩ
×ķ× ©
áĥĽ áĥĲ
áĢĨ áĢŃáĢ¯
di r
àª¾àª ³
àµ ¾
×Ļ× Ĳ
lar Ä±
Æ°á»£ c
is ta
à¹Ī à¸²
er a
Ġm eng
us t
Ġho Ê»o
áĤı áĢŃáĢ¯áĢĦáĢ¹áĢ
Ġê µ
à«ĭàª ²
Ñį Ð½
ì Ĥ°
æ İ
ÙĬ Ùħ
Ġà´µ à´¿à´
áĥĺáĥ łáĥ
åĴ Į
à«įàª ¸
Ġho gy
Ġe z
ĠÎ± Î½
à¥įà¤¯ à¤¾
Ù Ĵ
à¯ģà® ±
à®¿à® µ
àµģà´ ³
ĀĀ ĀĀ
å½© ç¥
Ġm et
å¹ ´
áĢŀ áĢ°
áĢĽ áĢ¾
áĥĶáĥĳ áĥ£áĥļáĥĺ
Ïī ÏĤ
Äģ k
Ð°Ð» ÑĮ
Ġà´ ²
ĠØ± Ûģ
ãĥ¼ ãĤ
áĢ¬áĢ¸áĢ Ļ
ĠÐ ¢
Ġun a
Ġ Ã¶
Ùĩ âĢĮ
ĠØª ÙĪ
Ġun tuk
Ø³ ÛĮ
à¦¨ à§įà¦
à¹Ħà¸ Ķ
×¨ ×Ĳ
Ġ ÈĻi
Ġ Ñĺ
Ġm Ã«
à¦ §
p o
Å¡ an
Ä± z
æĪ ı
éĻ ħ
± Û
à±įà° ļ
Ġàªķàª° à«Ģ
àª¾àª Ĺ
ÈĽ i
Ð¾ ÑĪ
ä¸ º
Ġm Ã¼
çī Ī
ãĥ ¬
Ġà¦¸ à¦®
Ġu z
ÏĦ Î®
ÙĨ ÛĮ
Ġd engan
áĥĶáĥĳ áĥĺáĥĹ
Ġáģ Ĥ
ĠØ§ Ù¾
v a
ìĸ ´
ci on
Ġ20 1
Î¬ Î½
í Ķ
ĠSe x
Ð° ÒĽ
ç½ĳ ç«Ļ
0 0
×ķ× §
Ñĥ Ð»
é Ŀ
×ķ× ¢
Ġ ;
Ġa c
Ä± k
àª¾àª° à«Ģ
at a
à°ª à±įà°ª
á» ¥
æ °
¹ Ħ
Ġma i
Ð· Ðµ
á» ©
áĢ¬áĢ¸áĢ ŀ
Ġì ¶ľìŀ¥
Ġà®ª à¯ĭ
é ¢
à°² à±ģ
àª¾àª Ī
Ġ 4
à¤¿à¤ ²
áĢĬáĢ¹áĢ ·
Ġà¦¹ à§Ł
Ø¨ Ø±
ë§ Į
ĠÑģ ÑĤ
à¤¿à¤ ¤
í ĸ
áĢħ áĢ¹
à¹ī à¸²
à´± àµįà´±
Ïģ Îµ
ĠØ§ÙĦ Ùģ
Ġà¤¹ à¥ĭ
áĥĶáĥľ áĥ¢
àµĨ à´¨àµįà´¨
Ġa s
à¤¾à¤ ¤
æ¸¸ æĪı
Ġáĥ¡ áĥĲáĥĽ
l u
áĥ£áĥ łáĥ
àªĤ àª¤
à®¾à®° à¯į
Ã½ ch
æĹ ¥
Ø¨ ÙĬ
áģ¿áĢķ áĢ®áĢ¸
Ùħ ÙĦ
Ġin i
Ġ ri
æ ł
¯ ¸
Ð¸ ÑģÑĤ
g j
Ġìŀ Ī
as t
Ġv i
h et
lar Ä±n
b an
éĹ ¨
Ġë ĮĢ
éĽĨ åĽ¢
ĠØ¹ ÙĨ
Ð¸Ð³ Ð°
áĥ® áĥķ
Ð¾Ð ¿
Ġà®ħ à®µ
ĠáĢĴ áĢ®
à°² à±ĭ
áĥĲáĥ ¨
ÏĦ ÏĮ
áĢĲ áĢļáĢº
à´¨ àµįâĢį
à´¾à´¯ à´¿
Ġì ĥ
ĠÚ© ÙĨ
æ ĭ
à¦¾à¦ ¹
à®¿à®¤ à¯įà®¤
os t
ÙĢ ÙĢ
Ġk i
Ġwa t
Ò ·
àª «
à®© à¯įà®±
ĠÏĦ ÏīÎ½
c Äĥ
áĥĲáĥ ĸ
áĥĲáĥ ¥
ÛĮ Øª
à®¾à®© à¯į
à¯ģà® ³
ÅĤ a
Å¼ e
àª¨ à«ģàªĤ
à´¿à´ ¨àµįà´
Ġh i
ish a
Ġ Ã«sh
à§ĩà¦ Ľà§ĩ
Ġun e
Ġà¦ ĩ
ĠØ§ÙĦ ÙĦ
áĢ° áĢ¸áĢ
à«įàª ·
n Ã©
ak a
ĠÃ«sh tÃ«
æ Ń
Ð°Ð´ Ð¸
Ġc Ã¡c
Ø§Ø¦ ÛĮ
6 5
áĢľ áĢ¬
Ġà´İ à´¨àµįà´¨
Ïĥ Îµ
Ñĸ Ð½
Ġd as
Ð» Ð¸Ðº
á»Ļ t
áĢŃáĢ¯ áĢĦáĢ¹áĢ¸
Ġs Äĥ
à®¾à®² à¯į
Ġku wa
ãģ Ĭ
è Ĥ
àµģà´¨àµįà´¨ àµģ
çº ¿
ÙĨ Ú¯
ë ĮĢ
Ġàª ¯
ti on
Ġ are
ë ª
u o
Ð¾ Ò³
ÉĻ h
áĥ ĸáĥĶ
ÙĦ Ùħ
à°¿à°ķ à°¿
ĠT he
er e
Î¯Î½ Î±Î¹
ĠÄ į
Ġà¦ «
ÎĻ Î
à§ ¦
ê± ¸
à°¿à° ¯
Ø¹ Ø¯
Øª Ùħ
in h
áĢĲ áĢ¹
à¤¤ à¤¾
ìł ķ
b i
Î» Îµ
å ĳ
in in
ij n
Ġd en
í ĺ
Ġkh Ã´ng
Ġc ho
Î» Î±
Ġà´ ¯
Ġt a
an d
ê² Į
c s
Ãł y
j um
ĠÚ©ÛĮ Ø§
áĥĶáĥ Ŀ
àµ Ī
Ħ à¸£à¸
us e
Ġë ¶
Ġà¤¹à¥Ī à¤Ĥ
á¹£ áº¹
×ķ× Ĺ
í Ĩ
à´¿à´ ¤
Ã¦ r
Ð°Ð½ Ðµ
ÑĨ Ð¸
w i
b en
è ¨
Ĺà¸µ à¹Ī
ìķĪ ë§Ī
ak an
Ġê· ¸
ÃŃ a
ê³ ¼
Ġ Ã¼
à´¨àµįà´ ¤
áĢĽ áĢ½áĢŃ
Ġi Ã§
áĢ± áģ¾áĢĢ
Ġn u
Ð¾Ð» ÑĮ
Ġàª ĺ
ãģª ãģĦ
áĥĺáĥ ĸ
ĠÑĤ Ð°
Ġà§ ¨
s o
Ġàª¤ à«ĩàª®
Ġàª §
à´² àµįà´²
Ã¡ g
à°¿à° ª
à°Ĥà° ¡
ÙĬ Ø§
ìĦ ±
Ġ ÚĪ
ĠÐ £
áĢĶáĢ¹áĢ Ļ
á» Ł
ĠáĢ±áĢ Ľ
áĢ¬áĢ¸áĢ ľ
p at
à¥įà¤ Ł
ìĹĲ ìĦľ
iá» ģ
åĿ Ģ
Ġà´ ¶
áĥĿáĥ ¤
ľ à¸
Æ ı
à±įà° ¸
ĠÐ± ÑŀÐ»
ëĵ ¤
Ġà®ķ à¯Ĭ
Ġ íķ
à¤¾à¤ Ĥ
ĠáĢľ áĢ°
áĥĺáĥ ¨
à¯ģà® ¨à¯įà®¤
c t
à¸Ń à¸Ļ
àµįà´ ŀ
Î¿ Î½
Ø° Ø§
ĠÙĪ Ûģ
ÅŁ i
e it
ìľ¼ ë¡ľ
e la
on o
áº ·
Ã ¹
áĥķ áĥĶáĥľ
×ķ× ¡
ãģ£ ãģŁ
Ġá¹£ e
Ġáĥ¡áĥĲáĥ ¥
Ġh ar
or i
åĽ½ éĻħ
à«ĭàª ¡
ĠÄĳ Æ°á»£c
à¤¿à¤ ı
ĠØ¥ ÙĦÙī
u ch
Ã©s z
Ġm it
ĠØ§ÙĦ Ø±
Îº Îµ
ìķ Ħ
Ġn em
ĠÒ³ Ð°Ð¼
ä¼ ļ
in a
à±įà° ®
ĠØ¯ Ø§ÙĨ
Ð¾ ÑĹ
Ð» Ð¸
Ġ Ù¹
Ġs u
ç ¾
z o
ĠâĢ Ŀ
ÅĽ ci
ĠÐ ¶
Ã« m
à± Ĥ
»áĢķ áĢ¬
ler i
à¤¿à¤¯ à¤¾
Äĵ r
àµģà´³ àµįà´³
ĠâĢ ľ
Ġê° Ģ
à¤¿à¤ ¸
à° ¹
Ð¾ ÑģÑĤ
Ġì ľ
ci a
íĻ Ķ
h i
è ¦
Ġà¤ĩ à¤¸
çľ Ł
å®ĺ æĸ¹
à° ľ
áĢķáĢ« áĢĲáĢļáĢ¹
Ð´ Ð°Ð½
à¤¹ à¥Ģ
à§ ĥ
Ðº Ð¸
it z
áĢģ áĢ»
Ġ ie
m o
à§ Ĥ
Ã¤ l
Ġà¦ ĸ
ĠÛ ±Û
æĸ °
ĠáĥĶ áĥłáĥĹ
ÅĤ o
Ġà¤¨ à¥ĩ
ÐµÐº Ð°
Ġv on
ĠÐ Ķ
àª¾àª° àª¾
áĥ ĸ
Ø± Ø©
ä¸ ª
is e
ĠÏĢ Îµ
Ġi t
áĢŃáĢ¯ áĢĢáĢ¹áĢ
åħ ¬
ì ½
àª ĸ
u wa
áĥĲáĥł áĥĺ
Ð¸Ð½ Ð°
ĠÎµ Î¯Î½Î±Î¹
ĠØ§ÙĦØ ®
m ent
an o
Øª Ø§
Ġáĥ¨ áĥĶáĥĽ
Ġz u
ĠÐ ¹
an Ã«
Ġs t
à¯Īà® ķ
Ġ× ¦
ĠÒĽ Ð¸Ð»
Å Ħ
Ġy o
y Ã¶
ë ²
Ġ×Ķ× ©
Î ¡
à§ĩà¦ ĩ
å ¨
à¦Ł à¦¿
ŀ àµįà´ŀ
ÛĮ Ø´
Ðµ Ð¹
Ġb at
es h
Ġ ÛĮÚ©
Æ° Æ¡
Ġà¦Ĩ à¦®
çĶ ¨
à¯ģà®ķà¯įà®ķ à¯ģ
àª¶ à«ĩ
w o
à¤¾à¤ ®
Ġ or
Ġàª¹ à«ĭàª
áĢ ı
ĠÃ®n t
Ġ ud
ÐµÐ½ Ð¸Ñı
à«ĩàª ¸
ch i
×Ļ ×Ļ×Ŀ
ÙĬ Ø³
± à¸Ļ
Ħ áĢ¶
ĠÙħ ÙĪ
Ġs ur
ĠÐ³ Ð¾
ģà¸² à¸£
k u
Ä« g
àª¾àª ķ
Ùħ ÙĨ
àµįà´ µ
áº§ n
¥ à«ĩ
ª àµįà´ª
ÑĤ Ð¸
ĠáĢ ļ
g i
ìĥ µ
à´ ¶
g li
Ġb il
àµįà´ ®
Æ°á» Ľ
c y
v o
Å¾ e
áĥ ¤
in Äģ
ĠÙħÛĮ âĢĮ
Ð°Ð» Ð°ÑĢ
à°¾à° Ĥà°
×Ļ× ¢
Ã³ l
ĠÐ ŀ
à¦¾à¦ ª
ļ à¸Ńà¸
áĢģ áĢ¼
Ġa an
Ġo a
à±ģà°² à±ģ
ĠØ§ÙĦ Ùĥ
y or
ÑĥÐ²Ð° ÑļÐµ
ì Ļ
Ð¾Ð¼ Ñĥ
Äģ d
ĠáĢķ áĢ¼
Ø± Ùĥ
Î¯Î± ÏĤ
Ã¤Ã¤ n
Ġv y
æĹ¶ å½©
Ú¯ Ø±
u di
àª¾àª¨ à«Ģ
à«įàª ®
O M
j on
ĠØ§ Ùħ
åľ °
à°¾à° ¤
àµģà´ µ
ÑĬ Ð»
w en
à°¿à° ²
in dÉĻ
áĢ° áĢ¸
Ã© t
ë¶ Ģ
ĠØ¨ Ø§Ø²
Ġà®İà®© à¯įà®±
à¤¨ à¤¾
é ĸ
Ñĸ Ð¹
Ø ¥
Ġà¦ Ľ
Ġtr ong
Ï Ī
£áĥ ļ
Î¿Ïħ ÏĤ
å½©ç¥ ¨
à®¾à® µ
ĠÐ¿ Ð°
en to
Æ°á»Ŀ i
ãģĻ ãĤĭ
áĥĺ áĥĺáĥ¡
ĠÑ ľÐµ
ìł ľ
è Ī
Ġdel la
à°¿à° °
ĠØ§ÙĦØ µ
v at
Ġn uk
ìĥ ģ
Ġàª¶ àªķ
Ð¸ÑĤ ÑĮ
å ĵ
s Ã¤
áĢĶ áĢ²áĤĶ
Ġà®ħ à®¤
àª¾àª ĩ
Ġh e
Ð»Ð°ÑĢ Ð¸
ĠÎ ĵ
à¤ §
Ó ¯
Ġa p
ĠÂ »
Ġu ch
çĻ »
Ġp ie
ĠÎ± Ïħ
ä» ¥
1 0
ãĢ ĳãĢĲ
à°Ł à±įà°Ł
Ġj o
ìł Ħ
äº ¬
à§įà¦ ª
ãģ ©
y t
° à¹Ģà¸
ÏĥÎ· ÏĤ
æĹ¶ æĹ¶å½©
ä½ ĵ
ĠÐ¿ ÑĢÑĭ
Ð½Ñĭ Ðµ
à° ¬
àªĤàª ¦
Ð¼ Ñĸ
en e
Ġ× ĺ
ëĤ ĺ
í ĥ
Ù ĵ
ĠS h
ä¸ ļ
ĠÙħ ÙĦ
da de
Î ¤
in de
Ġ ÅŁ
à°Ĥà° ²à±ĭ
ëħ ¸
Ġn d
ĠC OM
áĢ±áĢ Ļ
à°¾à° ®
Ġ &
Ġì¹ ´
ãģ Ī
i ka
er s
à§įà¦ ¥
¾ ³
i re
ë į
Ġå ĩ
Ġ" :
×ķ× ŀ
à«ĭ àª¤
Ġ ÅŁi
Ð¾Ð² Ð°
à´² àµįâĢį
ãģĭ ãĤī
ãĤ ģ
çī Į
» áĢģ
Ġo d
Ġ×Ķ ×ª
Ġë ı
s Ã©g
ÙĤ Ø¯
Ïģ Î·
ĠÚ© Ø§Ø±
ĠA wá»įn
Ð½Ð¸ Ñħ
áĢ¯ áĢĲáĢ¹áĢ
Ġ Ê»o
æ ¬
Ġà° Ī
í ı
áĢľ áĢĬáĢ¹áĢ¸
à°¾à° Ł
Ġà®ļà¯Ĩ à®¯
as Ä±
æ ²
à´Ļàµįà´Ļ à´³
ĠÑĪ ÑĤÐ¾
á» ĵ
a y
k ke
Ġàª¸àª¾àª ¥à«ĩ
è¡ Į
à«ĭàª Ł
Ġm á»Ļt
ĠÎ ¬
Ġ Z
áº¡ n
åİ ħ
Ïģ Ïī
¡ à¸²à¸
Î Ŀ
åĪĨ å½©
Ð¸ÑģÑĤ Ð¾Ð½
« áĥļ
it u
Ñĸ Ð»ÑĮ
ÙĪ Ø¹
Ð Ĳ
en d
Ġà¦¬ à¦²
y d
l ash
æ £
à¦¿à§Ł à§ĩ
Ġà¦ Ł
Ðµ Ñģ
ĠØ¯ Ø§Ø±
Ġd Ã©
Ñĭ Ñı
åľ¨ çº¿
Ġ ÑĢÐµ
àªµ àª¾àª®àª¾àªĤ
Ġvá» Ľi
áĢ¯áĢŃ áĢĦáĢ¹áĢ
ĠÑı Ðº
Ġìķ Ħ
à¤¾à¤ ¯
Ġà¦ħ à¦¨
Ġê¸ °
¡ °
Ú¯ Ø§Ùĩ
×Ĺ ×¨
à¯įà® ®
Ġ. .
àª¾àª ¹
æĿ ¥
es i
Ġv ir
à®¾à® ¯
Å¡ ÃŃ
Ġr áº¹
Ã© p
Ġà§ §à§
Ġ×ŀ× ©
Ġáĥ ĸ
u p
Ġ×Ķ× Ĺ
áĢģ áĢ¯
ãĤ Ħ
áĥĲáĥłáĥĹ áĥķáĥĶáĥļ
Ð· Ñĸ
à° £
ĸ à¸
å¤ ©
Ãµ es
Ġà¤ «
è½ ¦
ë Ł
i q
Ġ×ŀ ×Ķ
t or
à´ ¹
Ġn el
à°¾à° ķ
ÙĦ Ø§
Ġ×ĳ ×Ĳ
áĢ¸áĢ Ľ
ĠÙħ ØŃ
Ġis t
ĠáĢ±áĢ Ķ
à¦¿à¦ ¬
ĠÏĦ Î¹
ĠÎ¸ Î±
áĤ Ĳ
Ġt Å¡
àµģà´ £
à´ ·
Ġd ari
ĠD e
ìĨ Į
ĠâĢĭ âĢĭâĢĭ
×ķ× ¦
å® ¢
ÐµÐ½ Ð¸
ë Ĳ
Î¹ Î¬
Ġìł Ħ
j et
9 9
à«įàª ķ
ĠáĥĶ áĥ¡
áĢ±áĢ «
à¹Ħà¸ ¡
iá»ĩ n
Ġå ħ
is ch
áĢ» áĢĸáĢħáĢ¹áĢ
Ùĩ Ø±
v ad
Ð½Ñĭ Ñħ
Ġf Ã¼r
Ġa uf
à°ķà±įà° ķ
Ġ ro
ĠÏĦÎ¿ Î½
Ġy our
à¦ ¯à¦¼
ÙĤ Ø©
Ġ×ķ ×Ķ
Ø§Ø¯ Ùĩ
áĢģ áĢ¶
± ä¹Ĳ
Ú ĺ
à¦ ¥
ÑĢ Ñĥ
ik e
Ð°Ðº Ð¾
f an
ÉĻ b
ÑĢ Ñį
.. ..
ĠØ® ÙĪØ¯
Ã Ł
ĠÛģ Ùħ
áģ ļ
s k
à«Ģ àª¤
Ġ íķĺ
ľ ê±¸
é ģ
j ÃŃ
ĠÏĥÏĦÎ· Î½
iá»ģ u
í ħ
áĥĺáĥ¡ áĥ¢
ĠÙĨ Ùħ
em a
ĠÐ¸ Ð¼
Ġà´Ĵ à´°
ÐµÐ½ Ð¸Ðµ
Ġum a
Ġàª ĵ
áĥĲáĥ ¤
Ġï¼ ī
Ġj áº¹
ìł ģ
à§ĩà¦ Ľ
Ð° Ñĺ
Ġb u
êµ Ń
ãģĵ ãģ¨
ķ áĢ¼
Ġë ¬
Ġà¸ ªà¸
Ñ ĵ
» áĢĻ
Ġc e
¾³ éĹ¨
æ³ ¨
z et
à«įàª ¥
êµ ¬
Ġà¤ı à¤ķ
çĶ Ł
å Ł
àª¾àª¨ àª¾
m ul
v Ã¤
å¿« 3
ãĥ Ń
Ġà° Ń
áĢķ áĢ²
áº£ i
Ã¥ r
à«Ģàª ı
ãĥ ķ
c ie
ĠÐ´ Ð¾
Ľ à¹ĩ
çĶ µ
×ķ× Ĵ
áĢĻáĢº áĢ¬áĢ¸
Ġ Å¡
áĥĲáĥ ĳ
Æ°á»Ŀ ng
×Ļ× ĺ
Ġàªķ à«ĭàª
ĠØ§ Ùĵ
áĥĿáĥ ª
ï¿½ï¿½ ï¿½ï¿½
t y
Æ°Æ¡ ng
Ð½ Ð¾Ð³Ð¾
×© ×¨
à´¾à´ µ
Ġq o
Ñĸ ÑĤ
Ġà¤ ¥
Ġk an
iá» ĥ
Ùħ Ø©
Ö ģ
Ð¾ ÒĽ
ÙĦ Ø©
Ø ¤
ĠÎ Ĺ
Ġì ļ
§ à¸²à¸
àª ¥
Ġà¤ ĸ
k á»į
i c
Ð½Ñĭ Ð¹
an ya
ÅĻ ÃŃ
Ģ áĢŃáĢ¯
×Ļ× ŀ
Ġà´ Ł
è§ Ĩ
à®Ļ à¯įà®ķà®³
Ø§Ø µ
z ÉĻr
Ġí Ļ
à« ĥ
ĠM o
à¤¿à¤ ¨
Ġà° ¶
Ġes te
à®¾à® ³
ĠâĢ Ķ
Ð½ Ð¾Ð¹
Ġà® °
Ġàªķ àª¾àª°
Ġà®ª à¯Ĩ
áĥĹ áĥĲáĥľ
ĠÃ®nt Ã¢
à´¿à´¨àµįà´ ±àµĨ
Ġa u
Ġn on
ä¸ ĩ
Ġf r
áĥĲáĥ ĸáĥĶ
i p
Ãł ng
áĢ¸áĢ Ĳ
Õ¸ Õ
ĠáĥĲáĥ ĵ
Ġì ĸ
à´¿à´² àµįà´²
ļ Į
Ġa da
Ġe x
Ġg a
Ġáĥ «
ë³ ´
Ä±n da
Ġdan s
are a
ĠÐ´ ÐµÐºÐ°
f u
ĠÑī Ð¾
ĠÐ¿ÑĢ Ð°
áĢ¬áĢ¸áĢ ¡
Ġï¼ Ī
å¨ ±ä¹Ĳ
Ġ os
à±ģà° °
ĠÐ¸ Ð½
d he
Ãł nh
è ĩ
à´ ¬
à«ģ àª°
ĠáĢ» áĢĻ
à®¿à®Ł à¯įà®Ł
ĠÊ» O
áĢķ áĢ¹
Ġa qu
áº£ n
en ti
ĠÐº Ñŀ
à°Ĥà° Ĺà°¾
tt Ã¤
ĠØ¬ ÙĪ
j as
à¦¬ à§ĩ
Î± Ïĥ
Ļ áĢº
Ðº Ñĥ
è ¾
áĥĿáĥĳ áĥĺáĥ¡
Ø¯ Ø©
å¿« ä¸ī
Ġm ag
em ent
Ġ =
à«įàª ª
Ð ĺ
Ġà° ¹
ĠáĢĢ áĢº
×ł ×ķ
Ġà¦ķà¦° à§ĩ
à°° à±į
Ġd at
à«Ģàª ĵ
à¦¿à¦ ¸
Ġáĥ¨ áĥĶáĥ
ìļ Ķ
×Ļ× ¤
Ġìĭ ľ
ãģ ¡
à°¾à°² à±ģ
c ÃŃ
ÅĻ e
´ Ģ
ĠáĢ¡ áĢŀ
ãģ ¤
à¦ķ à§ĩ
ĠÃ ·
±áĢ ķ
Ä«b as
el y
Î¸ Î·
Ġs Ã«
ĠÐ¾ Ð»
Ġag çİ¯äºļ
áĥ£áĥ ľ
à®¾à® ®
ĠáĥĹ áĥĲáĥķ
ķáĢ« áĢĲáĢļáĢ¹
ĠâĢ ŀ
Ġku ng
Ġm in
6 6
ĠÑ ĳ
ìĹ ħ
à¥įà¤ µ
ĠÂ «
Ġ×Ķ× ¢
à¸Ļà¸ µ
à¦ ĸ
ĠãĢ į
ĠÙĩ Ø§
à´ ļàµįà´ļ
Ġæ ¾³éĹ¨
Ñİ ÑĤÑĮ
ĠÏĦÎ¿Ïħ ÏĤ
Ġáĥĺ áĥľ
Ļ à§įà¦
ta a
ì§Ģ ëħ¸
Ġáĥĺ áĥĽ
Ø§Ø¦ ÛĴ
à´ Ń
áĢŃ áĢĲáĢ¹áĢ
×Ļ× ¡
, "
èµ Ľ
ç¾ İ
áĢĶ áĢ¾
ik i
Ġng Æ°á»Ŀi
Ġàªħ àª®
Øª Ùĩ
ĠáĥĴ áĥĲáĥĵ
ÙĬ Ùģ
áĢ¸áĢ ¡
Ġà®µ à®°
Ġà®Ĵ à®°
ãĤ ¿
ĠÐ± Ð¸Ð»
è ĥ½
Ġì§ Ģ
ĠÎ´ Î¹Î±
à´¾à´ ķàµįà´ķ
ĠE l
ãĤ ·
ĠÐ ĺ
ĠÙħ Ø§
le t
Î¹Îº ÏĮ
Ġ ut
ä½ ľ
Ġ Ô
Ø§ Ùĭ
å½ ķ
à«ĩ àª¨
Ġd ÉĻ
Ġc s
è® ¡
àµĨ à´Ł
Ġbil an
é Ĵ
àªµ à«Ģ
Ġ Q
ri j
à®³ à¯įà®³
à°ļ à±įà°ļ
à¸Ļ à¹Ģà¸
ãĢ Ĥ
ĠáĢ Ł
ĠÐ Ĺ
×Ļ× Ľ
Ġam ba
is Ã«
ch e
à¹ĥà¸ «
ag i
ĠÙĦ ÛĮ
ĠÃ®ntÃ¢ l
Ġàªµ àª§
áĥĿáĥĳ áĥĲ
l an
Ġí ĺ
Ġ×© ×Ķ
ĠÐ° Ð±
Ġ ish
ìļ ©
áĥĲáĥ ¦
Ġw e
lij k
áĢĦ áĢ·
éĢ Ł
åĪ °
àµģà´ ±
Ø§ÙĨ Ùĩ
Ġà´ ¦
Ġk Äģ
d s
¤ ĳ
Ġ×ĳ ×¢
áĥĶáĥł áĥĺ
à´¾à´¨ àµįâĢį
Ġ áĥĲáĥľ
Ø§ÛĮ ÛĮ
à ¬
ãĥ Ĺ
ĠØ§ Ø±
Ã¼ k
×ľ ×Ķ
ĠÑĩ Ðµ
Ġuch un
á»¯ ng
ÑĨ Ð¸ÑĺÐ°
Ġe i
Ġ ou
Ġq il
à§ĩà¦ ĸ
Ãł n
à¦ ĵ
ÏģÎ¹ Ïĥ
ĠÐ³ Ñį
ĠÑĢ Ð°Ð·
Ã¡ k
à´ķàµįà´ ·
à®¿à® ªà¯įà®ª
ĠÐº Ð¾
ëı Ļ
àµģà´¤ àµįà´¤
as a
åĽ ¾
Ġå ı
Ġya p
Ġf a
/ /
b le
Ġ: //
ĠC h
lÉĻr i
Ð° Ð¸
Ã¡ ch
Ġl o
ãģ Ľ
×Ļ ×ķ
Ùĥ ÙĨ
åį ķ
Ġà´ħ à´µ
Ġáģ ģáģ
áº¿ n
Î¸ Îµ
å¸ Ĥ
ĩ à¹Ģà¸
le h
at s
Ġà®µ à¯ĩ
Ø³Øª Ø§ÙĨ
Ġi m
×¤ ×¨
é¢ ĳ
çĲ Ĩ
à°¾à° µ
Ġ. ..
Ġp as
l es
ĠÚ©Ø± Ø¯
Ñĭ Ñħ
áº§ u
Ãł i
ĠáĢ ¥
ÙĪ ÙĤ
åĩ º
ĠáĥĲáĥ ¡
æ ±
Ġàª® àª¹
ĠáĢ» áĢĸáĢħáĢ¹áĢ
è¦ ģ
é ĺ
ĠÎ Ŀ
Î¿ ÏĤ
il l
áĢĦáĢº áĢ¸
Ñ ľ
ĠÐ° Ð·
Ġàªľ à«ĩ
tt p
on t
Îº Î±
à¯ģà® ªà¯įà®ª
Ġ": "
u te
en a
áĢ± áĢĢ
ish i
Ġ ÑĤÐµ
Ġh ttp
à´ ¡
æ Į
Ġáĥ¨ áĥĶáĥ¡
Ùħ Ø§ÙĨ
v ÄĽ
Ġy n
ÏĥÎµÎ¹ ÏĤ
Ġàª¸ àªĤàª
Î¿ Î¹
áĢ¸áĢ ľ
à±ģà° µ
à¤¤ à¥ĩ
é ¡
ĠÙĪ Øª
ì Īĺ
à° ³
ak s
Ġàªķ àª¹
Ġ íķľ
mul yo
or e
ÛĮ Ø²
ĠØ¢ Ùħ
à«Ģ àªķ
æ ¯
uk s
Ġë ĵ
Ð½Ð¾ ÑģÑĤ
ĠÑĢ Ð¾Ð·
Ò³ Ð¾Ð¸
Ġ×ĳ ×ŀ×
ç« ¯
ÑĢ Ð°Ð½
Ø² Ø§Ø±
Ã©n y
×ŀ ×Ķ
ĠÙħ Ø¯
ÑĢÐ° ÑĹ
ç½ĳ åĿĢ
à¦¨ à§įà¦¤
ĠÐ¿ Ð°Ð´
ãĤ £
ä ¾
Ġs o
Ñĥ Ñİ
×ķ× Ľ
±áĢ ľ
ĠÑģ Ð¿
à¤ ¶
Ġà¤Ń à¥Ģ
ĠÐ¿ÑĢ Ð¾
í Ħ
à¤ Ī
Ġìł ľ
Ġho re
Ġàª¹à«ĭàª ¯
ĠÎ± ÏĢÎ¿
á ½
Ð» Ð°Ð½
à±Ī à°¨
à«ĭàª Ĺ
ĠÂ ¬
ĠÙĦ Ø§
áĢ¬ áĢŀ
Ġo b
Ġà¤ķ à¤¿
2 2
Ġnh Æ°
ĠS ch
Ġåĩ ¯
ar r
Ġàª¨ àª¥à«Ģ
ë© ´
Ø¨ Ø©
Ġæ ľ
àµģà´£ àµįà´Ł
à´ķàµįà´ķ àµį
ĠiÃ§ in
Ġå °
ÑĤ Ð¸ÑĢ
áĢ¬ áĢĦáĢ¹
ç ł
à´¿à´ µ
Ġz ijn
×ľ ×Ĳ
Ġt la
ĠÙ¾ Ø§Ú©
Ð½ Ð¸Ðº
Ġà¸ ª
áĥĲáĥ ¬
ĠÐ´ Ð»Ñı
Ġf el
ìĺ ¤
f a
ĠìĿ ´ë
i ÅŁ
èµ °
×ł ×Ķ
Ġb i
ÙĬ Ø¹
áĥł áĥĿ
æ ĥ
Æ°á»Ľ c
ĭ çīĮ
ÉĻ d
c ute
áĢ¬áĢ¸áĢ Ľ
áº¿ t
Î¹Îº Î®
Ġà¦ľ à¦¨
b e
è§Ĩ é¢ĳ
ĠØ´ Ø¯
ĠãĢ Į
ãĤ ı
Ð» Ñĥ
W W
Ġ×Ļ ×©
àª¿àª ¸
ĠØªÚ¾ Ø§
ģ à¸£à¸
áĢĽáĢ¾ áĢŃ
Ð°Ð¼ Ñĸ
Ð½ Ð°Ð¹
à° §
¶ Ķ
àµįà´ ¥
Ù¹ Ø±
Ġprz e
Ð¾ Ñı
à¥ Į
ou n
Ã¡ nÃŃ
j o
Ġà®ĩ à®¨à¯įà®¤
w á»į
ŀ áĢ°
Ġma y
Ã¢ y
ç Ń
ĠáĥĲáĥ ¦
à¹Ħà¸Ķ à¹ī
Ġis ang
áĥķ áĥļ
ĠD ie
Ð ŀ
Ïģ Ïĩ
à°¿à°Ĥà° ¦à°¿
ĠØ´ Ø¯Ùĩ
cz y
Ø§Ø ®
Ð°Ð³ Ð¸
áĢ¯áĢŃ áĤĶ
Ġàª¹àª¤ à«Ģ
ëĭ Ī
et an
Ġc Äĥ
à«Ģàª ¯
à« ¦
à«Ģ àª¨à«ĩ
àª Ľ
m i
ª à¯į
à¤¾à¤ ¦
Ð°Ð ¶
åĬ ¿
ë ¹Ħ
Ġìĺ ¤
ĠÐº Ð¸
Ø§Ø ·
un d
à´¸ àµį
Ġáĥ ¯
ĠW WW
å ł
is a
ìĿ´ íĬ¸
k er
ÑĨ Ñı
áº¹ lu
ĩà¸ ´
Ú¾ Ø±
áĢ¸áĢ ħ
Ġi kke
Ġ×Ľ ×ľ
à¯Īà® ķà¯įà®ķ
v en
ãģ ¿
j n
Ġj s
æĪ Ĳ
Ã¥ n
àª ı
Ġëª ¨
áĤ Ĭ
à¯ĩ à®°
ãģĦ ãĤĭ
Ġm u
áºŃ n
Ġa di
Ĥ à¸
Ġda lam
Ġìł ķ
Õ µ
Ġng h
ĠØ§ÙĦØª ÙĬ
p á»į
ÑĬ ÑĤ
Ħà¸ §à¸²à¸
à§ĭ à¦¨
Ġà¤² à¤¿à¤ı
ĠâĢ ĵ
ÏĢ Î±
ĠØ º
« ĺ
à´¿à´Ł àµįà´Ł
áĥĹ áĥķáĥĺáĥ¡
Ġ×Ķ ×¨
à±ģà° Ĺ
ĠÄĳ á»Ļ
èĤ ²
ÑĢÐµ Ð´
Ù¹ ÛĮ
áĢ±áĢ¬ áĢĦáĢºáĢ¸áĢ
v i
an h
à¤¾à¤ ¸
ar ri
à° Ń
ĠáĥĲáĥ łáĥ
Ġng udi
Ġngudi mulyo
Ġáĥ£áĥ ľ
Ð¾Ð² Ð¸
ĠÎ ®
Ð°ÑĤ Ð¾
ãĤ ³
l en
in ÉĻ
è ī
Ñĭ Ð¼
Ġê² ĥ
áĢ¬ áĢĢáĢ¹
Ġà¦¬ à§įà¦¯
s er
æ£ ĭçīĮ
rz e
Ðµ Ð»Ð°ÑĢ
Ð½ Ð¸Ð¹
áĢ±áĢ ¡
Ĺ äº¬
à«ĭ àª°
Ø¹ Ø©
ÐµÐ»Ð°ÑĢ Ñĥ
tz a
or d
àª¾àª ĵ
àª¾àª ¡
Ġà¦¨ à¦¾
g er
ìĬ µ
áĢ±áĢ ·
à§ģ à¦¨
Ø± Ú©
ì °
Ġå ½
áĢ» áĢĸ
ëĤ ¨
Ġp i
àª¾àª ĸ
ĠØ§ÙĦØ °
Ð¸Ð´ Ð°Ð½
in ing
Ġáĥ¡áĥĲáĥ ®
b o
ÙĪ Ø³
áĢ¬ áĢľ
à¹ĥ à¸Ļà¸
Ã© e
ĠÐ± Ñĭ
Ġha ve
Ã¶ Ã¶
y s
Ã´ i
Ġc an
Ø§ Úº
d h
Ġj est
à®¿à® ´
Ø§Ø ¶
Ġp l
Ã© l
k en
à¤ Ń
à¯ģà®³ à¯įà®³
Ö Ħ
Ļ áĢ½áĢ¬
á» ķ
ĠØ¨ ÙĪØ¯
á» ģ
ÙĬ Ø§Øª
Ġn Ã£o
ãĥĥ ãĥĪ
Å Ī
t et
à´¾à´° àµįâĢį
ba y
Ġáĥ¨ áĥĶ
Ø¹ ÙĦ
ĠE s
Ġáĥ¡áĥĲáĥ¥ áĥĲáĥłáĥĹáĥķáĥĶáĥļ
à°¨ à±į
à¤° à¥Ģ
à°° à°¿à°
áĤıáĢ½ áĢĦáĢ¹áĢ·
q ip
z e
çľŁ äºº
à°¾à° ¦
Ñģ ÐºÑĸ
h un
Ġì Ĩ
à¹Ī à¸Ļ
Ġáĥĺ áĥ§
å ī
ĠáĥłáĥĿáĥĽ áĥĶáĥļ
ĠÐ¿ ÑĸÐ´
ÑĨ Ð¸Ñı
å®¢ æĪ·
Û °
Ð³ Ð¾
Ø§Ø± Ùĩ
Ġk tor
à®ªà¯įà®ª à®Ł
» ¿
áĢļáĢ¹áĢ ľ
à§įà¦ ²
Ġ×Ķ× ŀ
Ġè ¿
Ġh am
Ð°Ñģ Ð¸
d ak
Ðº Ð¾
Ġà¦¬ à¦¾à¦
ĠA n
Ð· Ñı
ĠáĥĽ áĥĺáĥ¡
ek s
ĠÐ± Ð°ÑĢ
Ġnh á»¯ng
à«ģ àªķ
Ġà¦ ¡
bay c
¡ à¸µà¸
Ķ à¸´à¸
ÛĮ ÙĦ
k s
à§Ģ à¦°
çĻ» å½ķ
ç Ĥ
Ġm Ã©s
Ġà´¨ à´¿à´
n Ã½
Ð° Ðµ
ëĵ ľ
· à¸Ńà¸
Ġàªī àªª
Ġ 7
à¥ĩà¤ ¶
la di
à´¾à´ ¸
ĠáĢ Ŀ
Ġà´¸ à´Ĥ
à®¤à¯įà®¤ à®¿à®²à¯į
Ú© Ú¾
àª£ à«ĩ
å· ¥
Ġãģ Ŀ
áĥł áĥĺ
à«ĩàª ¤
Ġà° ı
Ġl áº¹
Ġqu i
Õ¥ ÖĢ
p er
ÙĬ Øª
ow e
áĥĲáĥ Ŀ
Ġ×ŀ× Ĳ
Õ¡Õ ¯
lar ni
ĠÙħ Ø´
Ġï¿½ ï¿½
åĲ Ī
ĠÐ¼ Ñĸ
Ð¸Ð½ Ð¸Ð½Ð³
ĠÐ³ Ð¸
ì½ ľê±¸
à´¿à´² àµĨ
ÉĻs i
Ġà¦¤ à¦¾à¦°
à¤Ĥ à¤Ĺ
à´¾à´ Ł
à§ĩà¦ķ à§ĩ
Ġ ]
Ġ×Ķ× ĳ
l áº¹
Ġà´ ±
Ġs p
ĠáĢ Ħ
Ð» ÐµÐ´
ĠáĥĲáĥ ®
à´¿à´ķàµįà´ķ àµģà´¨àµįà´¨
Ġ à¹Ĥà¸
íĦ °
Å ©
Ð½ Ð¸ÑĤÐµ
Ļ áĢ½
Ġà° Ł
ÏĢ Îµ
Ļ Ĥ
ÑģÐº Ð°
áĥĲáĥ £áĥ
Ġàªħ àª¨
Ġm as
à®° à¯įà®ķà®³
Ġàª® àª³
Î¼ ÏĮ
ĠØ£ ÙĪ
á» Ń
ÄŁ Ä±
àµĭ à´Ł
Ġth is
ĠÙĪ Ø£
áºŃ t
Ġà´ Ń
u h
Ġt l
ĠØ§ Ùģ
ä¹ ħ
d Ä±r
å ĭ
àª¤ à«Ģ
ĠÑģ Ð¸
ĠÐ± Ð¸ÑĢ
Ã¼ m
åħ ¨
ĠÑĸ Ð½
å° ı
à¦ķ à§įà¦·
Ġfr om
Ð°ÑĢ Ñĭ
Ġwa s
Ġc o
ag o
ĠØª ØŃ
ĠÎ´ ÎµÎ½
à¹ī à¸Ńà¸
am a
æ³ ķ
an e
ĠÚ©Ø± ÙĨÛĴ
l is
ĠÐº Ð¾Ñĺ
Ļà§įà¦ Ĺ
Ñĩ Ðµ
ĠáĢ¡ áĢħ
gb e
y i
Ġ×¢ ×Ŀ
× £
Ġk Ã«
Ġw ana
ĠÎµ Î½
j t
Ġ Æı
Ġà´ Ĺ
Ġëĭ ¤
ļ à¸²à¸
æĬ ķ
æ´ ²
ļà¸Ńà¸ ¥
Ġp ri
Ġd it
» áĢĸ
àª¿ àª¨
à´¿à´ ªàµįà´ª
áĢŁ áĢ¬
Ø± Ùģ
à¹Īà¸ ĩà¸
ë ¯¸
Ġs el
à¤¾à¤ ľ
à¦ Ľ
Ä« t
ìĽ Ķ
ĠØ¨ Ø§Ø´
áĢ¥ áĢ¹áĢ
ĠT r
ĠáĢŀ áĢŃ
ÙĪ Ø§
à§įà¦ ®
é ĥ
Ð½Ð¾ ÑĹ
à°¿à° µ
å Ģ
áĥĺáĥĵ áĥĲáĥľ
Ð½Ñĭ Ñı
an ie
d zi
ĠáĢĢ áĢ¼
áĥĿáĥ Ĺ
ê ·
Ġf i
Ã§ Ãµes
Ùħ ÛĮ
áĥļ áĥĶáĥĳ
ĠE n
ang an
à®® à¯įà®ª
Ïĥ Î±
à´ §
q a
b re
å®¢æĪ· ç«¯
t Ãł
à¥ ī
ĠÎµ Îº
on s
áĢĽ áĢ½
bayc an
5 5
ch a
àª¾àª ª
ĠáĢĴ áĢ«
àª¾àª ¬
å¤ ļ
wen ye
å® ī
Ġs er
Ðº ÑĢÐ°ÑĹ
Ð² ÑĢ
Ġa li
Ð° ÑĨÑĮ
Ġì Ĭ
Ġáĥ§ áĥķáĥĶáĥļ
gb o
ÙĨ Øª
á» £
ĠÎ¿ Î¹
¥à¸ °à¸
à¤¹à¥Ģ à¤Ĥ
ç ®
ĠÄĳ Ã£
à§ĩà¦ Ł
Ð¸ÑĤ Ð¸
áģ ¼
al es
ho k
ÑĨ Ðµ
åŃ Ĳ
Ġà¦ı à¦¬
Ġn ag
à¤ķ à¥įà¤
n ak
ĸ áĢ¼
ĠÐ¸ ÑĪ
ĠA zÉĻr
es s
ĠÐ¼ Ðµ
à«ģ àª²
ĠÎ Ĵ
ĠáĢ¡ áĢľ
Äĵ t
Ġà¦¨ à¦¿à¦
åĬ ¨
áĢ¬ áĢĶ
an do
Ġåĩ¯ åıĳ
è ģ
à´¾à´ Ĥ
Ð» Ð°ÑĪ
t Ã³
í ļĮ
ĠìĿ ¸
Ġàªµ àª°à«įàª
ĠÏĦÎ¹ ÏĤ
ĭ à¸
Ġj ag
Ø± ÙĪ
Ġin te
Î´ Î¿
jn Ã«
Å ŀ
ÃŃ nh
Ġh v
ĠvÃµ i
Ġan a
à¤ķ à¥ĩ
Ïģ Ïİ
Ġe dhe
Ø§Øª Ú¾
Ïģ ÎŃ
ĠÑĩ ÑĤÐ¾
ìĹ ¬
à®° à¯įà®ķà®³à¯į
áĢĻ áĢ¼
Ġu it
×ĳ ×ľ
Ã¡ m
à¦ķ à§įà¦¤
áĢĴ áĢ®
Ã¶ v
Ġà° Ĵ
Ġ×ĸ ×Ķ
Ġp áº¹lu
Äĥ r
Ġ×ľ ×ŀ×
ut ta
Ã¡ ri
Ġà°ļ à±Ĩ
±à¸ ĩà¸
ĠÃ®ntÃ¢l ni
ĠÏĥÏħ Î½
it o
áĢĻáĢ¾ áĢ¬
Õ¡Õ µ
ÙĨ ÙĬ
Ñģ Ñĸ
ĠÐ İ
áĢĻáĢ¾ áĢ¯
ĠÑģ Ð°
Ġch a
à« Ī
d y
ĠÄĳá» ĥ
ãĥĥ ãĤ¯
Î¼ Î¬
in di
áĥĶáĥĳ áĥ£áĥļ
Ġàª ĩ
Ġop p
áĢķáĢ« áĢĲáĢļáĢº
ä¹ ĭ
ĠØ¬ Ø³
Ġi lÉĻ
ĠP entru
Ġ×Ķ× ¤
ìĤ¬ ì§Ģ
ç ´
zi oni
áĢ» áĢģ
an ia
Ġ×ŀ× ª
Ġi le
ĠÙĦ Ùħ
í Į
ÑĢ Ñĸ
à§ĭ à¦Ĺ
Ġå ®
×ª ×Ļ
Ġà´Ĵà´° àµģ
Ī à¸²à¸
áĥ£áĥ Ľ
ÑĢ Ð¾
áĢĸáĢ¼ áĢħáĢº
ÙĦ ÙĪØ¯
Ġb y
n en
Ð» Ðµ
à¸£à¸ ´à¸
t at
áĢĢ áĢ»
Ġ3 65
ĠÐ¿ÑĢÐµ Ð´
à¦¾à¦ Ĺ
in u
ĠÐ¿ Ð¾Ð´
y ÉĻt
à«Ģ àªµ
à®¾à® ®à¯į
l Äģ
ie j
à¤¡ à¤¼
ĠÎŃ Ïĩ
ko v
cion es
à´® àµįà´®
æľ Ģ
l d
áĢŃ áĢĻáĢ¹áĢ
ç ¨
±áĢ ŀ
Ġd al
ĠãĢ ĳ
Ġsz er
ĠØ °
Ġ X
à°Ĥà° Ĺ
è ²
Ŀ i
àª ĩ
Ġàª² à«ĭàªķ
Äĥ ng
k in
Ġà¤µ à¤¿à¤
ç µ
Ġ 6
×Ļ× ¦
ĠÐ±Ð¸Ð» Ð°Ð½
áĢ±áĢ¬ áĢ·
Ð¾Ð² Ðµ
ĠÎ± Î½Î±
Ġa i
en ia
ĠØ± ÙĪ
n y
è ª
çİ °
ĠÛģ ÛĮ
íķĺ ëĬĶ
ÑģÑĤ ÑĮ
ts o
1 1
à¯ģà® °
à¤¾à¤ ¹
Ġàª¤ à«įàª¯
Ġìŀ Ĳ
Ġb ij
Ġå Ī
ĠáĥĲáĥ ¥
ĠØ¯ ÛĮ
um s
Ġê² ½
Ġche ck
ĠØ¹ ÙĦÙĬ
ÙĤ ÙĬ
à°¾à° Ĺ
Ġ 8
ĠØ³ Ø±
ÏĦ Î¯
Ġun ha
j es
Ø§ÙĨ ÛĴ
åĬ ł
áĤıáĢ½ áĢħáĢ¹áĢ
d os
¡ à°¾
×Ļ× Ĺ
ag a
di ng
ĠÎ¼ ÎŃ
ĠÐ² ÑĬ
íħ Ķ
ĠÐº Ð°ÐºÐ¾
Ð¾Ð½ Ð¸
Ġæ Ī
ĠÙħ Ø³
à¦¦ à§ĩà¦°
Ġka ma
Ġf ra
Ġà® ı
Ġv ar
×¨ ×Ļ×Ŀ
cion s
ãĥ Ĩ
ĠÐ¿ ÐµÑĢ
ĠØª Ø§
Õ ¿
ie t
Äĵ m
Ġ ä»
Ġthá» ĥ
Ġà¦¸ à¦Ĥ
Ġg Ã¶
ĠáĢĸ áĢ¼
Ġì °
t Ã©
áĢĲáĢ¼ áĢĢáĢ¹
ãĤ «
à±ĩà° ¦
áĥĺáĥ Ĵ
Ġv Ã½
Ġå Į
Ð° ÑĶ
èµ° åĬ¿
Ġi li
à±įà° ¦
åŃ ¦
& #
Ġma is
Ġ×Ķ× ł
áĢ¯ áĢĲáĢº
Ġí ı
ĠáĢĢ áĢ»
Å£ i
£ Â
ĠÎ Ļ
Ġti dak
Ùħ Ø±
Ð ķ
ÏĦÎ± Î½
n ek
á» Į
ĠÑĺ Ð°
Ġ %
Ïĥ Î¹
Ùĥ Ø±
ÑĨÑĸ ÑĹ
à¨ ¾
ĠÙ¾ Ûģ
Å¼ y
Ø¯ ÙĬ
Ġse b
à¤¸ à¥ĩ
áĢ¬áĢ¸áĢ Ĳ
é «ĺ
Ġw ill
à®¾à®Ł à¯įà®Ł
æ ¥
×¨ ×Ľ
Å« s
Ġà¦ı à¦ĩ
zi o
Ġà°¤ à±Ĩà°²
u u
è ¶
à¦ «
äº İ
áĤĢáĢĢ áĢ®áĢ¸áĢ
áĢľ áĢ²
åľ º
Ġh ana
ĠÑģ Ð²
Ġa ve
åı ¯
àµĩ à´°
pa da
àµ ĥ
Ġà¦¥ à§ĩà¦ķà§ĩ
à°Ĥà°¦ à°¿
c ji
j Ãº
Ġsh um
Ġë° Ķ
çľ ĭ
×Ļ× ļ
à°¾à° ľ
ÙĦ ÛĴ
ts a
åĪ Ĵ
áĢĻ áĤĪ
ish t
Ð°Ð¼ Ð¸
ĠØ³ Ø§ÙĦ
tz en
åĨ Į
Ġs Ã¥
ĠØ§ÙĦØ ·
Ð¸ÑĢ Ð°
Ġk tÃ³
us h
á»ĳ i
Ġp en
el er
æĸ Ļ
ìĭ ł
Ġ 9
Ġi tu
ĠÕ °
âĢĮ ÙĩØ§ÛĮ
à¤ ı
à´¾à´ ®
àªĤàª §
Ð¼ Ð°
Ľ Ħ
Ġv ous
Ġs ich
m is
ĠØ® ÙĪ
Ġ×ĳ ×©
Ġ×ķ ×Ĳ
áĢ½ áĢĶáĢº
Ġì ²
il or
à´Ļàµįà´ ķ
å ģ
f i
j en
ìĸ ĳ
Ð¾Ð² Ð°Ð½
ÙĪØ± Ø¯
ĠØ§ ÛĮØ±
Ġt ak
Ð¸Ñĩ Ðµ
à´¾à´ ±
áĢĻ áĢŃ
Ġà¤° à¤¹
Ġà¦Ĩ à¦°
àªķ à«įàª·
à¹ Ĩ
Ġà®µ à¯Ĩ
m u
è ·
£áĥ ļáĥĺ
ĠáĢķ áĢ«
à®Ł à¯ģà®¤à¯įà®¤
Ġku i
Ġv o
ĠØª Ø¹
ÐµÐ½ Ð°
te d
Ø§Ø± Ø©
¥ à¸²à¸
m en
à±Ĥà° °
Ġprz y
±áĢ Ĩ
Ġà¤ħ à¤ª
éĥ ¨
áĥĺáĥļ áĥĺáĥ¡
à§ĩ à§Ł
ÉĻ li
Ġà®Ĵà®° à¯ģ
àªķ àª¾àª°
Ġ" ,"
à¦¾à¦ ¶
m Ã¤
Ġ×Ĳ ×ľ
Î Ľ
Ġå į
ãģ¾ ãģĹãģŁ
Ġà´ļ àµĨà´¯
Ġà« §
ãĥ £
Ã¼ z
ĠI n
à®¿à® ļ
Ġni cht
ãĥ ¡
u c
Ð½ Ð°ÑĤÐ°
in d
Ġdel s
áº ©
Øª ÙĬ
à¦² à§ĩ
Ġàª¸ à«ģàª
Ġà°ħ à°¨
it e
Ġc z
á Ł
cz e
ĠÐ¿ ÐµÑĢÐµ
à®© à¯įà®©
ãģ® ãģ§
Ð¡ Ð
Ġà¤¸ à¤®
Ġw ord
Î»Î¿ Î³
y on
ëħ Ħ
áĢ ĩ
Ġà®¨ à®Ł
Ľ à¸£à¸°à¸
áĥĲáĥĵ áĥĴ
Ø§Ùħ Ùĩ
Ġw ir
Ġe tt
à¦¾à¦¦ à§ĩà¦°
Ġ×ŀ× Ĺ
ĠAzÉĻr baycan
ov a
Ġà®¤ à¯Ĭ
ĠáĢĨ áĢŃáĢ¯
áĥķ áĥĶáĥ
Õ¡ ÖĢ
ä¹ Ī
Ġbu hok
Ø¨ ÙĦ
æĹ Ĺ
Ñ ķ
Ä ·
áĥĲáĥľ áĥĺ
ç¥ ŀ
Ġnie t
à¯Īà®¯ à®¿à®²à¯į
el t
×Ľ ×ľ
ur a
ĠÐ³ Ð¾Ð´
ÐµÐ» ÑĮ
à®ªà¯įà®ª à®Łà¯įà®Ł
æ Ħ
Ġk ter
ĠØ¯ Ø³Øª
Ġ Å¼e
d Ä±
w an
gb a
Ġï¼ ģ
ìĬµ ëĭĪëĭ¤
Ã¡ z
ÉĻ ti
áĢ ´
Ġà°ķ à±Ĭ
äºļ æ´²
Ġe di
Ð» Ð°
ç Ħ
Ġ ÑĨ
à´¾à´¯ à´¿à´°
Ġh ul
ĠL a
Ġà´ħ à´¤
ãĥ ŀ
Ġs ch
Ø° Ùĩ
à«įàª° à«Ģ
à«ĭàª ľ
à¯Ī à®¤à¯įà®¤
Æ¡ n
à±įà°² à±ĭ
ÅĤ y
ĠÎ ¹
Ġà¤ ¡
ĠáĢ Ĺ
Ġãģ ĵ
Ġ×ŀ× ¢
Ġa le
à§ĩà¦ ¤
ĠÃ ĩ
ĠÐ¼ Ð¾Ð¶
Î ł
ĀĀĀĀ ĀĀĀĀ
f or
æľ Ī
áĢŃáĢ¯ áĢĢáĢº
Ġàª¸ àª°
ĠØ§ÙĦÙĦ Ùĩ
ĠáĢĲ áĢħáĢ¹áĢ
Ġ }
ä¸ »
Ġcom o
à°¿à° ®
ãģ¨ ãģĦ
c ak
v yo
Ä±n Ä±
Ġì £¼
Ñģ Ðµ
ĠkÃ¶ z
áģ ½
Ã¡ v
as z
æ³¨ åĨĮ
Ã¹ ng
ÐµÑĤ ÑģÑı
Ġàªª àª¹
áĥĶáĥ¥ áĥ¢
×¨ ×Ķ
áĢ¸ áĢĢáĢŃáĢ¯
ä½ĵ èĤ²
à° ·
±áĢĲáĢ¬ áĢ·
ie k
iáº¿ t
à¤¤ à¥Ģ
Ġï »¿
ĠØ§ ÛĮ
áĢ±áĢ Ĩ
ĠáĥĽ áĥĲáĥĴ
Ġw á»įn
· à¸Ń
Ġ; &#
Ñĥ Ñģ
ĠÙĩ Ø°Ø§
h ar
àª¿ àª°
Ġà´ª àµĭ
Ġa us
Ġà¦ªà§įà¦° à¦¤
ĠØ¨ ÛĮ
Ġë³ ´
Ġà¤¨ à¤¹à¥Ģà¤Ĥ
à® ¸
à°¾à°¨ à°¿à°ķà°¿
áĥ£áĥ Ĺ
ĠáĢĻ áĢŃ
ur s
Ġáĥł áĥĿáĥĴ
à°¿à° ¸à±įà°¤
×ĵ ×Ļ
Ñİ ÑĤ
ĠÎµÏĢ Î¹
à®Ļ à¯įà®ķà®³à¯į
ÏĨ Î¿
Ùĥ ÙĦ
Ġà®ķ à¯Ĥ
ÉĻ lÉĻr
ĠK a
z Åĳ
à±Ģ à°¸
in o
d u
Ð½Ð° Ñı
Ġpl us
ĠÃ º
ģà¸ ±à¸
Ġ [
l l
à«ĩàª² àª¾
Ä £
¡ à¸²
Î´ Î±
à¤¾à¤ µ
áĥĲáĥłáĥ ĵ
ĠÑī Ðµ
Ñĸ Ð·
ĠØ¨ ÙĨ
Ð°ÑĢ Ð´
¾ å®¶
ĠÐ ¨
r y
à°¾à°¯ à°¿
al s
ÑĨÑĭ Ñı
áĥĲáĥłáĥ Ľ
Ġà¦ §
ĠÒ ·
Ġon s
ĠD et
ĠÑĥ Ñĩ
Ġàª¨ àª¹
ìĻ Ģ
Ġc Ã´ng
¶ à¸
æīĭæľº çīĪ
r it
Ġâ ķ
áĢĽ áĢŃ
ti es
à¸£à¸µ à¸
à¦¿à¦ ¶
ĠA z
Ġg ore
å¯ ¹
ag e
ãģĦ ãģ¾ãģĻ
à°¾à° ¡à±ģ
Ġà´ª à´±
Ġáģ į
Ġj u
A N
èµĽ è½¦
Ã©r t
èĪ °
Ã¤ h
Ġàª¬ àª¨
àª¿àª Ł
à°¾à° ¸
¡ Â
ì¶ľìŀ¥ ìĥµ
à´ ŀàµįà´ŀ
Ġk Ãµ
Ġà°ª à±Ĩ
Ðµ ÑĪ
áĥł áĥĲáĥĽ
Ġê³ ł
µ ľ
Ã¡n y
Ġà¦ ĺ
é ¾
à¤¾à¤ ļ
Ġà°¸ à°Ĥà°
ĠÒ ļ
áĤı áĢ¯áĢŃáĢĦáĢ¹áĢ
ä¹ Ł
áĥĶáĥĳ áĥļ
er t
Ġku to
m in
Ġk as
áĢ¬áĢ¸ áĢĢáĢŃáĢ¯
Ïĥ ÏĦÎµ
Å¡ ana
Ġi á¹£áº¹
Ġà¤¸ à¤Ĥ
Ġáĥ ¦
é ķ
ì¹ ´
åı Į
à±ģà° ¡à±ģ
Ã¡l l
lÄ± k
à¹ī à¸Ļà¸
áĥĶáĥĿ áĥĳ
áĢŃáĢ¯áĢ¸áĢ Ľ
Ġk Ã¤
Ġáĥ¡áĥĲáĥ Ļ
Ġb áº¡n
Ġà° «
Î»Î» Î¬
la b
ĠãĢ Ĳ
Ġ ÉĻ
áĥĶáĥ ª
à°ķà±įà° ·
åĵ ģ
à®¿à® ®
Ġ×Ķ ×ķ×Ĳ
ĵ à¸
à®± à¯įà®ķ
Ġà¦ıà¦¬ à¦Ĥ
m ak
Ġt ÉĻ
§ à¸´à¸
Ġ×ŀ× ¡
Ġer e
ĠØ§ÙĦ ÙĪ
à±ĩà° ¶
Î· ÏĤ
à±įà°² à±ģ
ĠáĢ±áĢ »áĢķáĢ¬
Ġà®ħ à®°
ÏĦ ÎŃ
ĠØ§Ø ¨
áĢĲ áĢŃ
Ġà¤ Ł
ul a
äº ĭ
iá»ĩ t
atz en
ĠØ¯Ø§ÙĨ ÙĦÙĪØ¯
Ġà° ¯
ĠÚ© Ø´
áĢ¬ áĢ¡
Õ¸ÖĤÕ ´
Ð¾ Ð°
ĠP h
Ġàªľ à«ĭ
ĠS ie
Ġp Äģr
à¯Īà® µ
æ ĻĤ
áº ½
± à¹īà¸
ÙĦ Ø§Ùħ
áĥĶáĥĳ áĥĲáĥ¡
Ð¾ Ñİ
Ġm Ã¡s
Ġ `
á»Ļ i
Ġ #
ãĥ ī
á»ĳ ng
ë¬ ¸
ľ áĢ¬
à± ĥ
Ġà¤Ĩ à¤¹
Ġ×Ķ× §
7 7
m ek
Åĳ l
à«Ģàª ľ
Ġàªª àª¡
Ġæ ĺ
æĹĹ èĪ°
Ġave c
³ Û
à¦ ¡
as jon
à¦¦ à§įà¦
Ã¦ re
áĤıáĢŃáĢ¯áĢĦáĢ¹áĢ ĦáĢ¶
Ġà¤Ĩ à¤ª
Ð¸Ñĺ Ð°ÑĤÐ°
áĢŃáĢ³ áĤķ
Ġà®® à¯ģà®
áĢ Ĺ
at ie
Ä« dz
Ġg r
Ġà°ļà±ĩà° ¸
el se
Ġàª¹àª¤ à«ĭ
á»į c
à°¤ à±įà°¤
à«ĭ àª°à«įàª
un k
Ġ Å¾e
is i
· à§įà¦Ł
Ð» Ð°Ð´
Ñĥ Ð·
Ġ×ľ ×¢
áĢĺ áĢ°áĢ¸
Ġáĥ łáĥ
ĠâĢ ¦
Ġ×ĳ ×ª
é ľ
p e
u li
ãĥ ¥
f t
Ġth u
ĠN h
Ð½Ñĸ Ðº
ÙĦ Ûģ
àª° à«Ĥ
Î ľ
à¥įà¤ ®
Ø® Ø±
á» ī
à¥ĭ à¤Ĺ
Ġa j
Ġ×Ķ× ¡
áĥĲáĥĽ áĥĵ
ĠìĹ ¬
ì§ Ħ
ÅĽ Äĩ
Ġde i
Ġà° ¡
ģ áĢ¼
e b
àµĤ à´Ł
s en
ãĤ µ
ĠáĥĹ áĥ£
ĠÙĥ Ø§ÙĨ
Ø¬ Ùħ
áĥ ¯
ĠØ¨ Ú¾
Ø¯ ÛĮØ¯
Ġà°® à±Ģ
Ð± Ð°
Ġs c
Ð°Ðº ÐµÐ´
Ġ äºļ
ĠÙ¾Ø§Ú© Ø³ØªØ§ÙĨ
à´¾à´ ³
à¦¨ à§ĩ
ĠÙħ Ø±
ĠëĤ ĺ
ÑĤÑĮ ÑģÑı
à±ģà°Ĥà° ¦à°¿
à«ģàª ľ
Ġë ²
ä¿ ¡
à¦ķ à¦¾à¦°
Ĩ áĢŃáĢ¯
ĠØ¨ Ûģ
Ġm und
Ġì ¤ĳ
Ð½Ð¸ Ð¾ÑĤ
éĩ ĳ
è´ ¹
Ð°ÐºÐµÐ´ Ð¾Ð½
Îµ ÏĦÎ±Î¹
ÏĢ Î¿Ïħ
id an
ç ¤
à¹ĥà¸ Ĭ
ĠÑŀ Ð·
ĠØ¢ Ù¾
Ġå ľ
ĠÃ¼ Ã§
íı ¬
áĥĺ áĥĶáĥł
Ġàªª à«ĭàª¤
Ġàª° àª¾àªľ
Ļ à¯įà®ķ
Ñĥ ÑĤ
ÏĦÎ¹Îº ÏĮ
Ã¨ n
Î¼Î± ÏĦÎ±
Ġn Ãły
áĢĬ áĢ·áĢº
Ġk om
Ø¯ ÙĬØ¯
ìķ ¼
ł à¸²à¸
áĢ±áģ¾áĢĢ áĢ¬áĢĦáĢ¹áĢ¸
Ļ áĤĪ
Ġno t
ê³ Ħ
Ġw or
è®¡ åĪĴ
à´Ļàµįà´Ļ à´³àµįâĢį
ÄŁ i
à¯įà® £
ÐµÐ½ ÑĤ
Ġà¤Ĩà¤¹ à¥ĩ
Ê» e
ĠÐ ķ
m ba
in Ã«
at ud
Ġtá» «
ta l
à¦¿à¦ Ł
à¸Ń à¸²à¸
Ġàª® à«ĩàª
Ġd os
Ã¡ i
v Äĵ
áĢĦáĢº áĢ·
Ú© ÙĨ
ti ng
ĠØ³ ÛĮ
o lo
áĢĬáĢº áĢ¸
Ġb isa
ĠÚ¯ ÛĮØ§
áĥĲáĥķ áĥļ
Ġà§¨ à§¦
àª£ à«Ģ
ĠØŃ Ú©
§ à«Ģ
at Äĥ
à¸Ńà¸ ¢
èµ°åĬ¿ åĽ¾
Ã© ho
×ķ× ĺ
Ġa kan
ĠM a
ê° Ħ
Îº Î¿
Ä±n Ä±n
Ð¸Ñı ÑĤ
Ġo ver
ho lo
ĠÒ ²
ãĥ Ĳ
à±įà° ķ
ir a
Ġà°® à°°
Ġ !
é¾ Ļ
Ġë¶ Ģ
ung en
ĠáĢ»áĢĻ áĢĶáĢ¹áĢĻ
áĥĲáĥķ áĥ¡
Ġà´¨ à´Ł
Ġm b
Õ¥Õ ¬
ĠØ§ÙĦØ «
ak eng
áĥĺáĥ£áĥ ł
Ð Ĩ
à¸Ń à¸£
Õ« Õ¶
ĠáĢ Ĥ
Ġê ±
à¦¨ à§ĩà¦°
ë £
áĢ¯áĢ¶ áĢ¸áĢ
áĢ¬áĢ¸áĢ ħ
à¯įà®¤ à¯įà®¤
ĠÐ± Ð¾ÑĪ
Ĥ à¸Ńà¸ĩà¸
gh t
Ġå½ ©
à« Į
ĠAn da
Ġáĥĵ áĥĲáĥĽ
Ø¨ ÛĮ
Ġáĥ£áĥľ áĥĵáĥĲ
b y
à§įà¦ ¨
Ġç ľ
Ġà¤¸ à¤¾à¤
v al
Ġà°ķ à±ĭ
ĠN i
Ġein e
à¦¾à¦ ļ
à«įàª ¨
Øª ØŃ
ĠÐº Ð¾Ð¸
z Ã©s
ä» £
Ø´ Ø±
à«Ģàª ¸
ï ½
Ġ×Ķ× Ľ
Ð°Ð± Ð¾ÑĤ
ãĥ ģ
ĠpÅĻ ÃŃ
Î ¥
Ġàª® àª¾àªĤ
r á»į
Î¼ Î²
Ġà¦ª à¦¾à¦°
Ð± ÐµÐº
Äģ ci
ĠÑı ÐºÑĸ
Å¡an as
Ã§ a
Ġba ÅŁ
Äĥ m
à¯Ĩ à®°
æľ ¬
Ñī Ðµ
Ġg Ã¶r
Ġà´ ¹
Ð½ Ð°Ð³Ð°
à´ ľ
Ð½Ñĭ Ð¼
æ ı
Ġv et
à¦¾à¦ Ł
ĠÐµ Ð´
Ġb osh
Ġà¦ľ à¦¾à¦¨
à¹Ģà¸ Ľà¹ĩ
àµģà´ ķàµįà´ķ
å¥ ½
Ġê³ µ
Ñĸ Ñĩ
ê ¹
t ho
äº §
áĢ±áĢ ħ
ãģĤ ãĤĭ
ĠáĥĲáĥł áĥĺáĥ¡
c u
±áĢĲáĢ¬ áĢ¹áĢ
à¤¨ à¥Ģ
Ä± s
àª¾àª¨ à«ĩ
Ú¯ ÛĮ
Ġr a
Ġ×ĳ ×Ķ
Ġàªľ à«ĭàª
àµįà´± àµįà´±
Ġl ang
ĠìĿ ¼
ĠØ§Ù¾ ÙĨÛĴ
ĠÎŃ Î½Î±
è¿ Ľ
à¦¾ à§ľ
ĠØ³ Ú©
áĢ¼ áĢĢáĢ¹áĢ
Ġj ak
à´£ à´Ĥ
Ùģ ÙĬ
n ych
f f
áĢ¬ áĢĦáĢ¹áĢ·
Äģk ou
ĠÐ¿ Ð¾Ð»
Õ« Õ
b ang
ĠÐ´ Ð°Ð²
Ġqu es
à¥Ĥ à¤¨
Ġà¦ī à¦ª
áĥĲáĥłáĥ Ĵ
un t
Ã¡ ng
Ġa uch
áĢŀ áĢŃ
à¸² à¸Ļà¸
x e
ch en
ÏĦÎ¹Îº Î®
å® ŀ
ĠÑį ÑĤ
Ġë§ Ī
ì¹ ĺ
Ġs em
j Äģ
à¦¿à¦¤ à§ĩ
r Ä«
à®¾à® £
à¦¾à¦ §
ĠÙĪ Ùħ
à°¾à° ¡
Ġìĥ ģ
h at
į è´¹
á»ĳ c
ĠV er
Ġáĥĵ áĥ¦
ĠØ¯ ÙĪ
Ġâ ĺ
é £
ĠáĢ¡ áĢ²
Ġà¤ī à¤¨
m er
Ñĩ Ð¸
×ķ ×Ļ
é ¦
v ÃŃ
ĠÙĥ ÙĦ
à±įà°¨ à°¿
à¥ģ à¤°
íĶ Ħ
àª¾àª ¶
Ġ ä½
Ð¸ÑĪ Ð¸
åĲ İ
áģ ĭ
ÑĢ Ð°Ð²
àµįà´ ¸
ÈĻ te
ĠáĥĽ áĥ®
Ġà´ª à´°
åħ ¥
3 3
a li
en ie
áĢ±áĢŀ áĢ¬
Ð¼ Ðµ
Ġi to
ĠL e
Ġà´ «
Ġàª¥ àª¯
Îº ÏĮ
áĢ¯ áĢĽ
æĬ Ģ
ĠÏĮ ÏĦÎ¹
à¹ī à¸Ļ
Ġà®ª à®Ł
à´¿à´¨ àµį
ĠáĥĹ áĥ¥
ĠáĢ ·
as ta
à´¿à´ļàµįà´ļ àµģ
¨ à¸
Î» ÎŃ
Ġï¿½ ï¿½ï¿½
ì¶ľìŀ¥ ìķĪë§Ī
áĢ³ áĢŃ
à¦¿à¦ ®
¹ Û
ĠáĥĽ áĥĺáĥ
ÏĦÎ¿ ÏĤ
ä» ¶
Ñĥ ÒĽ
áĢĲ áĢ±áĢ¬áĢº
ĠÑ Ķ
ĠàªĹ àª¯
Ġiz an
ĠÐ ¥
Î¹Îº Î¬
ĠÐ Ľ
Ġ×Ķ× Ĵ
áĢ±áĢ ķáĢ«
éĿ ¢
ģ áĢ¶
Ġs k
áĢ½ áĢ²
as un
åĬ Ľ
it Ã¤
Ġà´ķ àµĬ
ìŀ Ħ
áĥ® áĥĿáĥķ
Ġ×© ×Ĳ
Ġkh i
il le
is sa
Ġ×ľ ×©
×ŀ ×¨
Ġ×Ĳ ×ķ
è °
Ġáĥ °
áĢ± áĢ¸
áĥķ áĥĲ
ÙĦ Ø³
Ķ áĢ²áĤĶ
Î· Î½
p ang
Ġo le
Ġàªķà«ĭàª Ī
Ġáĥ© áĥķáĥĶáĥľ
fan ya
à´¿à´ ¸
Ñģ Ð¿
li ng
ĠÙ¾ ÛĮ
çĤ ¹
Ñĥ Ð¿
Ø§ÛĮ Øª
ĠÃ¼Ã§ Ã¼n
Ġå Ĳ
ĠÄĳ áº¿n
àª¸ à«įàª¤
ĠS z
Ġæ Ĺ
ÙĨØ¯ Ùĩ
ĠÑĤ Ð°Ðº
ĠáĢ¡ áĢĽ
ÑĥÐ² Ð°Ð½Ð½Ñı
Ġl ori
Ġpa da
Õ¡ ÖĢÕ
áĥĲáĥłáĥ ¢
à¦ Ļà§įà¦Ĺ
Ð¸ ÑĦ
it i
á»ģ n
ç» ı
m á»į
à±įà° ¥
Ð½ Ð°Ñģ
æŀ ľ
ts e
à´¯ àµģà´Ĥ
à¯įà® ¯
ë§Ī ìĤ¬ì§Ģ
h ana
å°ı æ¸¸æĪı
ĠÛ ²
Ġa ta
ĠÑĤ Ð°ÑĢ
ĠØ «
g u
Ġà´ ¡
et t
Ġ Ãµ
Ø§Ø± Ø§Øª
Ñı Ð²
à¤² à¥ĩ
r en
Ġà¸ Ħ
á ¼
Ġå Ľ
Ġa ur
b ek
Ġâ Ļ
Ġáģ ¿
Ñĥ Ð±
Ġà°¸ à°®
ah a
Î ©
Ã± a
Ġk ahi
Ġà® Ł
dz ie
n os
à§ĩà¦ ĵ
åº ¦
ÑĨ Ð¸Ð¸
à° Ĺà°¾
m ÉĻk
ĩà¸´ à¸Ļà¸
å §
ãģ Ŀ
Ñĭ Ðµ
Ġà¤¯ à¤¹
Ġi ÅŁ
ãģ °
Ġsh k
å° ±
ĠÐ¼ Ð°
à° ¶
áĢĶáĢ¹ áĤĶ
å ¦
p i
Î» Î¬
Ġar Ä«
ĠØª Ø±
Ġáĥ£áĥ ¤
Ġà®İà®©à¯įà®± à¯ģ
Ð¾ÑĤ Ð¾ÑĢ
Ġ gy
Ġà¦ķà¦° à¦¾
ĠH o
æ Ļ
ÙĪ Ø¨
áĥ «
áºŃ p
àª¾àª° à«ĭ
Ġs ono
à¦¾à¦ ģ
×ŀ× ª
ãĥ ĭ
Ð» Ð°ÑĤ
ĠÂ °
Ġm á»
Ġg iá»
×ĳ ×¢
è Ĳ
à§ĩà¦ ®
Ð¸ÑĤÐµ Ð»
á»© c
Ð» Ð¸Ð³
áĢ¬ áĢĻ
z Ä«
ÚĨ Ú¾
b ut
Ġ ÛĮØ§
Ú© Ûģ
àªĤ àªķ
ĠA ng
al ly
Ò³ Ð¾
ÙĦ Ø§ÙĦ
ĠÐ ¯
Ġvá» ģ
ĠáĢĻ áĢ¼
Ġç Ķ
Ġe ttÃ¤
ÏĦÎ± ÏĤ
ìļ °
t ÄĽ
Ð¸Ð» Ð³Ð°Ð½
ĠÚ¯ Ø±
áĢĢ áĢ¯áĢŃ
sz er
áĥĿáĥłáĥ ª
à¦¾à¦ ĵ
Ð¾ Ñĩ
Î» Î®
Ã¦ l
Ġ ä¸
ãģĦ ãģŁ
Ñį ÑĢ
è§ Ħ
Ġàªı àª®
es z
à¹īà¸ §à¸
áĥĲáĥķ áĥ¨
áĢĲ áĢ®
ĠÐº Ð°Ðº
Å© ng
Ġo or
à®¤ à¯į
Ġm ana
áĢĶ áĢŃáĢ¯áĢĦáĢº
Â µ
Ð ĵ
Ġ $
ĠâĢ ļ
áĥľ áĥĺáĥ¡
Ä±n a
Ø¨ Ø¯
Ð¸ Ñĳ
à¸Ļ à¹Į
Ħà¸ ¸à¸
Ġà®ļ à¯Ĭ
ĠåĮ Ĺäº¬
Ġæ ĸ
ĠáĢ±áĢ ľ
èĩ ª
ou t
åĮ ĸ
å »
ĠÐ£ ÐºÑĢÐ°ÑĹ
ģ éĢŁ
à¦¿à¦ ¦
» áĢĸáĢħáĢ¹áĢ
ĠlÃł m
Ġdi ra
ãĤĪ ãģĨ
à«ĭ àª¨
ĠáĢ±áĢ Ļ
i di
åİ ¿
ĠØ³ Ø§ØªÚ¾
áĥł áĥĺáĥ¡
Ġàª¸ àª¾àª®
Ġk Äĵ
à´µ àµģà´Ĥ
ãģ« ãģª
Ġìľ Ħ
à°° à±ģ
ĠÎº Î¬
áĢĳ áĢ¬áĢ¸áĢ
ĠÎ §
Ġo hun
ãĥ¼ ãĤ¹
u b
ÎŁÎ ¥
ÛĮ Ùĩ
å® ļ
Ø³ Ùħ
ĠÐİ Ð·
t l
Ø§Ø± Ø¯
Ġ us
Ġho r
à®¾à® ±
ĠáĥĽ áĥĹ
Ġde m
×ĵ ×¨
ĠÙĦÛĮ ÛĴ
Ġma u
Ġà¸ ŀ
p k
ir o
Ł à¸
Ñĸ ÑĹ
ãĥ¼ãĥ «
Ã¨ s
áĢĲ áĢŃáĢ¯áĢ·
áĢ» áĢĻ
Ġ×ľ ×¤
ĠìĿ ĺ
ĠB e
àµĨ à´Łàµįà´Ł
ciÃ³n s
ŀ Į
à¥įà¤ ¹
Ø¬ Ùĩ
Øµ Ø±
Ġàª¤ à«ĩàª
à°¿à° Ĺ
×ł ×Ļ×Ŀ
Ð°Ð² Ð°
æ Ľ
Îµ Ïħ
ìĦ ¸
i ta
or es
íķĺ ê³ł
Ð½ Ð³
Ġáĥ® áĥĶáĥļ
ĠàªĨàªµ à«Ģ
è¿ ĩ
ĠÙħ Øª
Ġàª¹àª¤ àª¾
à±įà° ¡
àª¿ àªĤàªĹ
æĪ ĳ
ĠáĢ± áĢĢáĢº
à ²
à§įà¦ ķ
Ïį Î½
àªµ à«ģàªĤ
ĠáĢģ áĢº
Ñı ÑĤ
å¥ ĸ
çī ĩ
ĠÐ¡ Ð
àªµàª¾àª¨ à«Ģ
Ġk wenye
Ġà¸ Ĺà¸
áº¹ n
ĠK e
æ į
Ø¨ Ùĩ
á¹£ e
ĠØ¬ ÙĨ
à§ĩà¦ ¬
ãģķ ãĤĮ
ĠÐ½Ð° Ñĺ
Ġáĥ¡ áĥ¢
Ø§ÛĮ Ø¯
p le
à¥įà¤ ²
er Ã«
Ġu a
ä¸Ń åĽ½
àª¤ à«ĭ
áº¥ y
Ġpi Ã¹
Ì £
ĠÚ©Ûģ Ø§
Ġ á»Ł
Ġi k
ãĤ ¦
Ïĥ Î¿
Ġsa u
ãģ¨ãģĦ ãģĨ
Ġäºļæ¸¸ éĽĨåĽ¢
Ä«b u
Ã¡ o
Ġk Å«
Ġk ar
ìľ Ħ
Ġäºļ ç¾İ
áĥĿáĥ Ļ
æ° Ĺ
Ùħ Ø¯
Ġva i
à¤ «
Ùĥ Øª
ĠÏĢ Î¿Î»
ne j
ĠÑ İ
Ġ à¶
Ġs ka
Ñĥ ÑĪ
Ġa k
àµĩà´ ·
Ġà´ Ī
Ġ×ĳ ×¨
ãĥ ĸ
à´¦ àµįà´
Ġc áº£
c Ä±
è £
Ġs y
t Ä±
à¯Īà® ªà¯įà®ª
Ġà®ķ à®Ł
Ġà®ĩ à®¤
Ġj y
Ġel ler
te m
Î± Ïģ
ĠáĢľ áĢĢáĢ¹áĢ
Ġàª Ī
ĠÙĪ Ùĩ
Ġs on
à¤ ĸ
Ġes ta
Ïĥ ÏĦ
n Ã¡
Ġí Į
ĠÎµ Î¾
Ġà° ²à±ĭ
ÑĥÐ²Ð° Ð°ÑĤ
Ïĩ Îµ
t ar
åįķ åıĮ
Ø§ÛĮ Ø´
Ġt áº¡i
Ġà°ķ à±Ĥà°
Ġdel l
à¹ī à¸Ńà¸ĩà¸
Ð°Ð½ Ð¸
Ġl oa
à¥įà¤° à¥Ģ
j á»į
à¯Īà®¯ à¯ģà®®à¯į
ĠÐ Ĩ
áĥĿáĥłáĥ Ľ
ÑĨÑĭ Ñĸ
ĠáģĤ áģĢ
æĸ ĩ
es ti
ä» ¬
åł ´
áĥĲáĥ ŀ
à§įà¦ ļ
à¹Ħà¸ ¥
Ġa ko
Ðµ Ð·
à§ĩà¦Ľ à§ĩà¦¨
« à¸Ļ
Ġata u
Ã¶ n
à´ķ à´°
Ġ1 0
ĠÐ¹ Ð¸Ð»
Ġg ia
ãģĤ ãĤĬ
iá»ĩ u
×ľ ×Ļ
áĢģ áĢ«
el l
Ġê ¹
Ġn inu
i da
Ð½ Ñĥ
à«ĩ àª¨à«įàª
as sa
àª¤ àª¾àªĤ
í Ĵ
×ķ×ł ×Ķ
ĠìĦ ľ
à°¿à° ¸
Ø§ÙĨ ÙĬ
Ġì¹´ ì§Ģëħ¸
à§ °
ĠÑĢ Ñį
) ;
ij as
ãĤ į
Ġb es
Ġm ul
Ĺà¸ ¢
à¦°à§įà¦ ¬
à´® à´¾à´¯
es te
Ġh indi
Ġà®ħ à®®
ÎµÎ¹ Î±
áĢķáĢ¼ áĢ®áĢ¸
Ġàª¹àª¤ à«ģàªĤ
Ñħ Ð¾Ð´
Ð°ÑĢ Ð¸
à®¿à®± à®¤à¯ģ
Ã¨ re
ĠáĥĽ áĥĲáĥĹ
ĠÃ¶ n
Ġáģ ¾áĢĢ
ni a
ĠN g
ãĥ ĩ
ĠÐ± Ð¾
ìķ ½
è¿ Ĳ
lig e
Ġà®ª à®¿à®°
Ġï ½
Õ ¨
Î¿Ïħ Î¼Îµ
éĴ ±
×© ×Ķ
ĠÑĤ ÑĢ
ĠA l
¬ ¬
ĠáĥĻ áĥĿáĥĽ
×ķ× Ķ
ĠØ§ ÛĮØ³
á» ı
×ķ× ŀ×
Ġpo d
ĠR e
áĢļáĢ¹áĢ ·
Ġ ur
ì ¡°
à®® à®¾à®ķ
Ġà® ľ
Ġo ok
Ã Ħ
ĠÙĦ Ø¦ÛĴ
Ġà¸ ķ
áĢ¼ áĢ¸áĢ
Ġd uk
Ġë į
áº ±
Î¬ Î»
à«Ģ àª¨
áĥĵ áĥĶáĥĴ
áĥĵ áĥĶáĥĳáĥĲ
ĠH a
ĠÕ §
Ġa o
Ġ ÅĽ
Ġ×Ķ ×Ķ
ãģĦ ãģ¦
ê³ µ
å¿ ĥ
ãĤ Ń
h lo
Å« t
Ġg er
ê ´Ģ
Ġy il
Ġs áº½
Ġsa m
ĠØª Ú©
Ġà¤¹ à¥Ģ
Ġho Ê»
Ġáĥ¡áĥĲáĥ¥áĥĲáĥłáĥĹáĥķáĥĶáĥļ áĥĿáĥ¡
ĠÎ ¦
ol t
ti r
Ġs Ãº
áĢŃáĢ¯ áĢĦáĢºáĢ¸áĢ
ĠØ§ÙĦÙĦ Ûģ
) .
Ġd á»¥
ra w
ĠØ± ÙĪØ²
à¸Ļ à¸²à¸
Ãª u
ĠÙĨ Ø¸
Ùĭ Ø§
Ġz en
Ø¯ Ùħ
áĢĶ áĢ¬
áĢ½ áĢº
à«ĩàª ¡
áĢ¼ áĢĶáĢ¹áĢ
Ġàª¦ àª°
áĢĻ áĢ¬
Ñĥ Ñĩ
Ø³ ÙĬ
in t
Ġ×ŀ× §
à¤¯ à¤¾
Ġà¦¤ à¦¿à¦¨
Ġ×ľ ×ĳ
el d
Ġå ¹
Ġ á»Į
Ġu pp
áĥĺáĥľ áĥĲ
ÎŃ Ïģ
Ïģ Î®
ĠÐ± Ð¸Ð´
r Äģ
è¦ ĭ
Ð½ Ð¸Ð¼
à¦° à¦¾
Ø¨ Ø§Ø±
l á»į
ĠØ§Ø ¹
am ent
ĠÐº Ð°ÑĤÐ¾
Ã¤ tt
à´¤àµįà´¤ à´¿à´²àµįâĢį
wa i
ĠÄĳ Ã³
ĠÙĦ ÙĪ
Ùĥ Ùħ
Ġv Ã¤
Ġd oor
ili r
Ġa ku
ĠÐ± ÐµÑĢ
Ø± Ø¶
Ġì Ľ
is o
åı ¸
e ar
à¤² à¤¾
à¤¾à¤° à¥Ģ
Ġa b
æĢ Ŀ
Ġag åĽ½éĻħ
Ð¾ÑĢ Ð¸
ç ķ
Ġt ar
à®ª à¯į
Ñŀ Ð¹
æĹĹèĪ° åİħ
en za
lar ak
qu es
ê¸ Ī
Ø³ Ø¨
Ġin n
Ê»o le
s te
Î» Î¯
f Ã¶r
ŀ áĢĬáĢ¹
ĠÎ Ľ
Ġà®µ à®¾à®
Ùĥ ÙĪÙĨ
àµģà´ °
ÏĦÎ¹Îº Î¬
Ø§Ø³ Øª
Ġáģ ģ
ĠÎµ Î¯
áĥķ áĥĺáĥĹ
åŁ İ
Ġnh Ãł
Ġe k
å½ ±
áĢ¯ áĢĶáĢº
Ð°Ð» Ð¸
Ġwa k
àª¾àª ¥à«Ģ
ie l
ĠØ´ ÙĪØ¯
id en
íĸ ī
Ġàª¸ à«įàªµ
ĠÐº Ð¾Ð½
ÙĪ Ùģ
ì ¶Ķ
ĠA G
ĠáĢ±áĢ ĲáĢ¼
à°Ĥà° ļ
Ġà¤¤ à¥ĭ
ĠáĥĻ áĥĺ
íĶ ¼
u kan
à´¾à´ ķ
Ġà°µ à±Ĩ
£Â ¬
éĩ į
ģ à¹Ģà¸
à±ĩà° ¸
åħ įè´¹
Ġshum Ã«
ĠØ§ÙĦ ÙĬ
Ġìķ Ī
áĥĶáĥ Ļ
ĠÃ ĸ
ĠØ§ÛĮØ± Ø§ÙĨ
ê² ½
ØŃ Ø©
Ñĸ Ñı
çĦ ¡
ĠÙĤ Ø±
íķ Ļ
Ġm Ãł
Ġáĥ¡ áĥĲáĥ¡
Ġn y
áĢĲ áĢħáĢ¹áĢ
ĠáĥĽ áĥĿáĥĽ
Ġà®ª à®¾à®°
u ta
t ate
Î¼ Î·
ĠáĥĽ áĥĲáĥ¡
Ø ¢
Ġ ä¸Ģ
Ø§Ø± ÛĴ
éĸ ĵ
es sa
ĠØ¬ Ø¨
Ġm Ãµ
is en
am o
ëª ħ
Ðµ Ð²
a w
Ġà¦ľà¦¨ à§įà¦¯
àªĽ à«Ģ
à¤¿ à¤°
à¦¨ à¦¾
Ġt re
à§ Ī
Å¡ i
àª¿àª¯ àª¾
Ł ¥
à´¿à´ ®
Ġí Ĩ
ere ka
ĠáĢ±áĢ Ĩ
ÙĪ ÙĬ
Ġí Ķ
Ġt em
Ã² ng
à°¾à° ª
Ġà®ĩà®° à¯ģà®ķà¯įà®ķ
Ñļ ÐµÑĤÐ¾
Ñĸ Ðº
ãģ Ķ
±à¸ ģà¸
åħ ³
Ġàªµ à«įàª¯
Ñĸ ÑĢ
ĠáĢ»áĢĻáĢĶáĢ¹áĢĻ áĢ¬
Ð» Ð¸Ð²
Ġàªµ àª¾àª¤
Ð¸Ð ¿
åī į
Øµ ÙĦ
è§ £
åĪ ©
à¦¬ à¦¾à¦°
à¥įà¤ ¥
Ùĳ Ùİ
th er
ãģ ĺ
à´¿à´² àµģà´Ĥ
ĠÕ ´
ÑĤÐµ ÑĢ
Ø§Ø± ÙĬ
áĢĲ áĢŃáĢ¯áĤĶ
Ġv is
è¿ Ļ
ĠÎ ĺ
Ġáģ ĥ
áĢĢ áģ
ĠÛģÙĪ Ø¦ÛĴ
à¹ĥà¸« à¹īà¸
áģ¿ áĢĻ
áĢĲ áĢ°
à¦¸ à§įà¦¥
ãĤ ¸
Ø§Ø¯ ÛĮ
íķ ł
àªŁ àª²
ãĥ³ãĤ °
Ø§ÛĮ Ø§
ĠÐ¿ Ð¾Ð²
Ġáģ Ģ
ÙĤ ÛĮ
Ã¥ ng
Ġm áº¹
åĬ ¡
å ķ
Ġc Å©ng
Ġàªµàª°à«įàª ·
Ľ áĢ½áĢŃ
Ġs ing
at v
áĢĢáĢ¹áĢ Ģ
àµģà´ķ à´³
er o
Ġà®ª à¯Ĭ
ĠãĤ ¹
ĠP o
Ġje g
g g
Ġi ch
Ã« ve
Ġs ul
èĢ ħ
à°¾à° ¬
k or
w y
ĠáĥĲáĥ ķ
Ã¼ ÅŁ
Ġj anÃ«
Ġ×Ķ× ĵ
c c
Ġêµ ¬
ìŀ ħ
Ġl á»į
Ġh as
Ġd ar
à§ĩà¦ ¸
Ġåľ ¨
Õ¸ÖĤÕ ©
ÙĪØ± ÛĮ
on n
à¸£à¸±à¸ ļà¸
à¸Ń à¸Ńà¸Ļ
ëŁ ¬
à¨¾ à¨
Ðĺ Ð
Ġàªª à«Ĥ
Ġà°Ĵ à°ķ
r os
ê² ©
Ð½Ð¾ Ðµ
Ġë Ĳ
à¤¾à¤ ĩ
it at
Ġì ¡°
ĠI l
Î¹ Î½
ãĥ ł
Ø´ ÙĨ
áĥłáĥ «
ÙĤ Øª
áĢĲ áĢ±áĢ¬áĢ·
Ġ Ĉ
Ġp os
Ġl á»
ĠØ¥ ÙĨ
b et
àµģà´ ª
à°¤ à±ĭ
ĠÚ¯ Ø§
Ġju ga
Ø§Ø¯ Ø©
à¹ĩ à¸Ńà¸
Ġà°ī à°¨à±įà°¨
Ġm is
el or
Ġyo o
à¦¾à¦¬ à§ĩ
×¨ ×ª
f ter
Ġse x
ĠÙĩ Ø°Ùĩ
ĠÐº Ð¾ÑĤÐ¾ÑĢ
Ġ×ľ ×Ĺ
à®¿à®° à¯ģà®¨à¯įà®¤
lar ning
Ġada lah
er k
l Äĵ
áº «
à¸Ńà¸Ńà¸Ļ à¹Ħà¸¥
áĢ¼ áĢ¬
ÐĲ Ð
ìĿ¼ 1
áĥĺáĥ¨ áĥķ
Ġ Åŀ
i g
ľà¸ ¹
ĠàªŃ àª¾àª°
Ġàª¨ à«ĩ
ì ¦
ĠÂ ·
Ġh Ãłng
an ce
áĢĲáĢ¼ áĢĦáĢ¹
áĢŀ áĢ¬
ĠvÃł o
áĥĲáĥª áĥĺ
ar t
ĠB u
Ġq e
à®ļ à¯įà®ļ
Ġhi yo
áĥĲáĥ «
Ġàª²à«ĭàªķ à«ĭ
Ġà¤ķ à¤¹
ÉĻ f
à«ĩàª² à«Ģ
Ġà®ķ à¯ģà®±
Ġfr Ã¥n
Äĥ ri
áĢ ī
ìĹ Ń
à¹Ħà¸¡ à¹Īà¸
à¯įà® ¨à¯įà®¤
Ð¸ÑĤ Ð¾
Ûģ Ø±
ĠÄĳá» ĭ
à´¾ àµ»
ÙĬØ± Ø©
Ġki ta
Ġse e
à°¦ à±įà°¦
lÉĻr in
Ġà¤² à¥ĩ
Ù °
Ġà´ ķàµįà´
ĠÑĤ Ð°ÑĪ
çŃ ī
áĤĢáĢĢ áĢ®áĢ¸
Ġæ Ŀ
m it
áĥĲáĥļ áĥ£áĥłáĥĺ
Ġáĥ¡ áĥ®áĥķ
al de
Ġà®¨ à¯Ģ
áĢĢ áĢ¬
ĠØ§ÙĨ Øª
áĢĳ áĢŃ
in iz
ªà¸ ¸à¸
à¦ Ľà§ĩ
ĠÏĢÏģÎ¿ Ïĥ
ç ³
Ġpr ÃŃ
Ġì¶ľìŀ¥ ìķĪë§Ī
à«įàª §
áĥ£áĥ ¡
ist on
è ĭ
àªµ à«ĩ
áĢ¯ áĢĶáĢ¹áĢ¸
Ġal l
bi h
Ġà°ª à±ĭ
Ġà°µ à±įà°¯
el le
¬ áĥ§
áĢľ áĢ¯áĢķáĢ¹áĢ
Ġ×Ĵ ×Ŀ
ØŃ Ø¯
åĲ Į
åĮ º
Î¼ ÏĢ
Ø· Ø©
ĠØ§ÙĦÙħ ÙĪ
Ð°Ð² Ð°Ð½
ê ŀĮ
Ġni ng
áĥĺáĥ ¥
iáº¿ n
Ġnh iá»ģu
ÎĻÎ ļ
à§Ģ à§Ł
Ø§ÙĦ Ùħ
áģ µ
ĠÑĤ Ð¾Ð°
Ġm Ã¡
p or
áĤ ĩ
z Ã¡s
pk 10
ãĥ §
ĠáĥĽ áĥĿ
à¦¤ à¦¿
Ã¤ e
± áģ¾áĢĢ
Ġ á¼
Ñģ Ð°
Ħà¸§à¸²à¸ ¡à¸
Äį nÃŃ
Ġt u
à´¤àµįà´¤ àµĨ
à´¾à´ §
à¸² à¸£
éĴ Ł
ÃŃ ch
Ġal s
at is
Ġvi en
à§ĭ à¦°
ung u
ets o
à¤¾à¤ Ī
Ġ×¤ ×¨
à«Ģ àªĤ
àªĤàª ¡
Äĵ c
ĠÏĥ ÏĦÎ±
lam ang
íĴ Ī
Ġà¦ı à¦°
Ñĭ Ð¹
Ġn ui
d ie
à¹Ī à¸Ļà¸
ĠáĢģ áĢ¯
à®¿à®² à¯įà®²
1 9
an te
Ġì ½
ĠæĪ ĳ
áĥł áĥĿáĥ¡
äº Į
æ¯ Ķ
Ġà´ ĵ
Å¡ e
ĠâĢĭ âĢĭ
à¦¾à¦ķ à§ĩ
Ġ×Ľ ×Ļ
Ġëĵ ±
Īà¸ °à¸
ÏĦÎµ ÏĤ
Ġtr Ãªn
ĠØ¨ ÙĬÙĨ
Ġl áº¡i
é Ĥ
áĥ£áĥ ¨
ģ áĢ»
ĠáĥĹ áĥĲáĥľ
Ġà®¤ à®®
Ġu p
3 65
an s
ĠÙĨ ÛĮ
Ġæ ī
áĥĿáĥ ¢
Ļàµįà´ Ļ
à®£ à¯įà®£
Ġs unt
it y
ow ie
ĠáĢľ áĢ¯áĢķáĢ¹áĢ
ĠÐ¾ Ð½
z ie
áĢĽ áĢ²áĤķ
à±ĩ à°ķ
ÑĬ Ð´
å¾ Ĺ
ĠÎ¤ Î¿
Ġs ho
Ġbe har
å £
Ã§ i
áĢ¡ áĢħ
ĠÎ ¾
um u
Ġda ar
Ġp em
Ã© m
à¥ģ à¤²
ĠÐĳ ÐµÐ»Ð°ÑĢÑĥ
Ġà¤ķ à¤¿à¤¯à¤¾
d Åĳ
ãģ§ ãģį
Ġdi es
Ġz o
o t
i le
áĥĶáĥ ĸ
à§įà¦ ¡
Ġi es
Ġà´ ı
å± ķ
lar ini
à«įàª ļ
áĢĦáĢ· áĢ¹
n er
Ġ ÉĶ
ĠáĥĴ áĥķ
ĠØ¨ Ø¹Ø¯
ĠÐ± Ð¾ÑĢ
áĢ¬ áĢ¹
j er
Ġáĥ£áĥ Ļ
Ġáĥĺáĥ§ áĥĿ
ãĤ °
í ģ
Û ķ
ĠãĤ ¢
Ġà®¤ à®¿à®°
ĠØ§ÙĦÙħ ÙĨ
Ġom a
Ġeg it
Ġà¦ķ à¦¾à¦°
an z
éĢ ļ
ÐµÐ½ ÑĮ
Ġu pang
ÙĬ Ø²
ĠÏĢ Î¿
ìĿ¼ 2
g t
ĠÑĥÑĩ ÑĥÐ½
áº »
Ġà¤¹ à¥ģà¤
áº· t
Ġb ona
Ġm ak
ĠÎ¼ Î±ÏĤ
à¹Īà¸ ĩ
áĢĻáĢº áĢŃáĢ³
Ġf ost
Ġ×ķ ×ŀ×
Ñĥ Ð»ÑĮ
áĥĺáĥ ¤
c er
Ġwa li
ĠØ§ÙĦØ° ÙĬ
ĠÚ¯ ÙģØª
Ġà« ¨
à¤¾à¤¨ à¥ĩ
Ġâ Ĩ
en de
Ð±ÐµÐº Ð¸ÑģÑĤÐ¾Ð½
Ġ×Ĳ ×ķ×ª
Ġr es
ĠáĢĲ áĢĽ
ĠØ¯ ÛĮØ§
ãĥ¼ãĥ Ī
à¯ĩ à®©à¯į
un e
Ġal la
Ĥ à¸Ńà¸ĩ
Ġå½© ç¥ŀ
àª¾àªµ à«Ģ
ĠÐ³ Ñĵ
áĢ±áĢ« áĢº
Ġg es
æ° ĳ
Ġt ash
ë° Ķ
Ġin d
Ġke pada
Ġi á¹£
ìĺ ģ
Ġv agy
éĩ ı
è ©
ĠÐº Ð¾Ð¼
à§ģà¦ ·
ÃŃ r
Ã¼r k
ĠØ¨ ÙĦ
Ġn os
ÑĢ Ð¶
Ð¸ÑĩÐµ ÑģÐº
à°¾à°¨ à±įà°¨à°¿
Ñĥ ÑĶ
Ľ à¸£à¸
ĠÐľ Ð°ÐºÐµÐ´Ð¾Ð½
Ġw ie
áĥł áĥĺáĥķ
ãģ§ ãģ¯
Ġdel le
ĠÑ Ĺ
à®¿à®© à¯įà®±
a da
Ġà¦Ĩ à¦²
àµĨà´¨àµįà´¨ àµį
Ġï¿½ ï¿½ï¿½ï¿½ï¿½
à¤ķ à¤°
à°¦ à°¿
ĠáĢ±áĢ ĲáĢ¬
k Ã¶
ĠØ¨ Úĳ
àªķ à«ĭ
à¤ķà¥įà¤ ·
Ġe do
ª à¸´
Ø¹ Ùħ
áº¥ p
æ ¶
éģ ĵ
àµįà´ ķàµįà´ķ
ĠìĬ ¤
Ø± ÛĮÚ©
Ġçľ Ł
ĠQ u
à¹Ħà¸Ķ à¹īà¸
Ġku n
Ġj ou
à¦Ł à¦¾
æı Ĳ
Ġcom e
Ġsing aw
Ð¸Ð» Ð°ÑĢ
Ġ×ķ ×ĳ
ĠÐ² ÑģÐµ
ĠáĢ Ĭ
áĥĿáĥł áĥĺáĥ¡
áĢĦ áĢ¶
ãĤ »
ĠÏĥ ÏĦÎ¹
à¹Īà¸ §à¸
Ġà®ĩà®° à¯ģà®¨à¯įà®¤
àµĭ à´Ĺ
ĠØª Ùħ
áĥķ áĥĲáĥļ
à¤Ĥ à¤¦
×ł ×ķ×ª
ĠáĢĻ áĢº
áĥĲáĥľ áĥ¡
äº Ķ
Ĥ à¦²
Ġs á»ĳ
à°¸ à±įà°¤
ĠáĥĻ áĥĿáĥľ
ÑģÑĤÐ² Ð¾
à¸Ļà¸µ à¹ī
Ø£ ÙĨ
ĠØ§ÙĨ Ûģ
Ñĩ Ð°
ĠÄĳ áº§u
áĢļ áĢ°
à°¿à° Ł
ĠÙĩ ÙĪ
b ar
çĲ ĥ
ĠÐ½ Ñı
Î³ Îº
áĥ® áĥĲáĥĵ
Ġà§¨à§¦ à§
ĠÏĢÎµ ÏģÎ¹
Ġàª¥ àªĪ
ri ng
á»ĩ n
Ķ áĢ¾
c es
Ġâ Ķ
Ġâ ĸ
ĠH et
ĠØªÚ¾ ÛĴ
ĠÄ Į
å¤ ĸ
Ġìŀ Īëĭ¤
ÎµÎ¹ ÏĤ
m an
Ġà®® à¯ĩ
Ø§Ø «
ãĥ Ł
àª° àª¾àª¤
yo t
¥ ¿
áĢ¶áĢ¯ áĢ¸áĢ
Ì ģ
åĳ ĺ
Ġà®ķà¯Ĭ à®£à¯įà®Ł
Ġo larak
ãĥ³ ãĥĪ
ãģ Ń
Äģ t
Ġàª¨ àª¾
Î³ ÏģÎ±
Ġ×Ķ× ¦
Ġàª¦ àª¿àªµ
ĠÎļ Î±
Ã Ĳ
ĠÎ ¶
Ġ$ (
Ġ Ã¡
áĥĶáĥĳ áĥ¨áĥĺ
ĠáĥłáĥĿáĥĽáĥĶáĥļ áĥĺáĥª
ĠØ ¶
àª¤ àª¿
Ġy h
y r
Ðµ ÑĤÐµ
ĠÐ± Ñĥ
å ĸ
Ġa d
«à¸ ¥à¸
ĠÏĢÎ± ÏģÎ±
ÙĨ Ø©
ëĲ ĺ
ĠÙĪ Ø²
éķ ¿
« à¸Ļà¸
×ķ× ĸ
r as
Ġf o
y di
àµĩà´ ¶
ĠØ¯ Ø§Ø´
ko a
ÙĦ Ùģ
à«Ģ àª°
ÑĢ Ð°Ð¼
æĢ §
er en
£áĥ ¡
Ġhul le
Ġàªµàª¿àª ¶
×ŀ ×ķ
ÙĪ Ø¬
à¸µà¸ ¢
ĠàªŃàª¾àª° àª¤
æľ Ł
æ¥ Ń
áĢ¶áĢ¯ áĢ¸
m p
áĢĲáĢ½ áĢĦáĢº
ud ah
Ð°Ð» Ð°
âĢ ľ
ĠS t
Ġsh p
Ġ our
ÎĹ Î£
Õ¡Õ ´
å· ŀ
Ġì Ļ
à±ģà° ª
ä¸ İ
Ġm ÄĽ
×© ×Ļ×Ŀ
à±ĩà° µ
ĠÑĤ Ð¾Ð²Ð°
? ?
Ġà´¸ àµįà´µ
Ð ħ
Ġha lamang
ĠìĨ Į
ÅĤ u
Ġæ ŀ
áģ ¢
Ġsa ya
Ġor ang
à¦¦à§įà¦ §
c ja
ë Ħ
Ġk on
ÉĻ dÉĻ
Ú© ÛĮ
el ah
Ġáĥ¬ áĥļáĥĺáĥ¡
Ã¡ d
èµ Ħ
à§ Į
à«ĩàª ĸ
Ġà¦¬à¦¿à¦ ¶
Ġáĥĺ áĥ¥
it Ãł
i Ãªn
ĠØ£ ÙĬ
ĠÙĪ ÛĮ
o p
ÑĢ Ð°Ð´
áĥĹ áĥĲ
ĠÚ© Ùħ
Ġàª° à«Ģàª¤
æŃ £
ci o
Ġbe i
Ġn Ã³
Ķ à¹Ģà¸
is k
è§ Ĥ
ÅŁ a
Ġda v
t Ä±r
Ġku p
Ġ×Ķ× ĸ
ÃŃt Ã¡s
Ð° Ñĳ
¥ à¹ĩà¸Ńà¸
ãĤ §
Å¡ a
Ġìľ ł
Ãł o
Ġin a
Ġer a
.... ....
or s
Ġr Ã©
ãģķ ãĤĵ
à¤Ĥ à¤¤
y y
à¹ ģ
ķà¸ ±à¸
å ¢
Ġàª¤àª® à«ĩ
i v
Ġ×ĳ ×Ĺ
áĢŃ áĢĻáĢº
Ġm ereka
è® ¯
Ùģ Ø±
áĢĲáĢ½ áĢĢáĢº
ìĥ Ŀ
§ à¹Īà¸²
Ġcom p
ĳ áĢ¬áĢ¸áĢ
àªĤàª ļ
Ġà¦¬à¦¾à¦ Ĥà¦²
d f
áĢī áĢº
ĠØ´ ÙħØ§
Ġáĥĵ áĥĲáĥ¡
ĠÒĽ Ð°ÑĢ
il eng
à±ģà°Ĥà° Ł
à°® à±įà°®
à¸µà¸ ¢à¸
ãĤ ª
ê° ķ
Ðº ÑĤ
ä¿ Ŀ
áĥ£áĥ ¤
Ġro z
ĠÙħ ÙĤ
ĠØ¬ Ø§ÙĨ
áĢģáĢº áĢŃ
Ġà® ¯
à«ĩàª ľ
Ġp res
Ġp eng
ĠÛ±Û ³Û
Ġw er
ĠP or
ĠÃ®ntÃ¢lni ri
áº£ o
åį ļ
Ê» ana
×Ļ× Ĵ
¥à¸ °
ï¼Į ãĢĳãĢĲ
Ġh lo
à«ģàª ¦
é Ķ
æķ °
Ġch iq
ĠÎºÎ± ÏĦÎ±
íĨ ¡
Ð¾Ð» ÐµÐ¼
ĠÐ° Ñģ
Ġde ÄŁ
à±ģà° ¡
is p
ĠáĥĽ áĥĺáĥĽ
Ġ×ķ ×ľ
à§įà¦ ¸
áĢŃáĢ¯ áĤķ
Å¡ u
é ĵ
Ġeg in
áĥĶáĥłáĥ ¡
à®³ à¯Ī
à¸Ń à¸Ļà¸
ĠkÄĵ ia
ª à¸²à¸
Ø¹ Ùĩ
as e
Ġm ula
Ðł Ñķ
å¼ ı
Ġáĥ¬ áĥĲáĥłáĥĽ
Ġ çļĦ
n Ä«
ĠÕ ¯
- -
Ġ Ö
l ÉĻn
Ġan che
ĠW A
iá»ĩ c
m ente
ÏĦ Ïħ
à«Ģàª ²
en ta
áĢ¬áĢ¸ áĢĢ
à¯ģà® ª
ķ à¸´à¸
ĠØ³ ÙĬ
Ġãģ Ĭ
ĠÚ©Ø± ØªÛĴ
à¸£ à¸£à¸
âĢĮ ÙĩØ§
Ġà®µ à®¿à®
Ġm wa
Ġp df
Ġ à¥
Ê» ia
il er
Ġo der
Ġà¦® à¦¾à¦¨
Ïģ Î¿Ïħ
ÅŁ Ä±
áĢŀ áĢ±áĢ¬
ìĦ ł
ìĭ ¤
ĠÚ©ÙĪ Ø¦ÛĮ
ÙĤ ÙĦ
ma q
ãĤ ¨
Ġçİ¯äºļ ag
Ġà®ī à®³à¯įà®³
åĪĨ éĴŁ
à´ ļ
áĥĺáĥĲáĥľ áĥĺ
de os
ut en
Ġà´ ŀ
Ïģ Î¹Î±
Ð¾ Ò·
Ð¸ÑĤÐµ Ð»ÑĮ
åĪ ¶
Ġd la
ent s
Ġàªª àªĽà«Ģ
ìĿ´ ëĭ¤
ĠÐİÐ· Ð±ÐµÐºÐ¸ÑģÑĤÐ¾Ð½
Ġb á»ĭ
ĠÎ¼ Î¹Î±
Ġt ut
un n
åħ ĭ
Ġs á»±
Å¡ o
Ġ×ľ ×§
a z
c tion
Ġà´® àµģà´
Ġà®® à¯ģà®Ł
ÏĦ ÏģÎ¿
ĠÙĪØ§ÙĦ Ùħ
o d
Ġmas k
ĠàªĨ àªľ
àª¾àª¨ à«ĭ
ĠmÃ¡ is
à¥ĩà¤ Ł
Ñİ ÑĨÑĮ
Ġë ¹Ħ
ĠÎ´ Î·
à¸² à¸Ļ
Ġm ÉĻ
áĥĿáĥĳ áĥ¡
áģ¿áĢķ áĢ®áĢ¸áĢ
ë© °
Ä ©
as ino
Ġà°ķà±Ĥà° ¡à°¾
áĢ»áĢģ áĢĦáĢ¹áĢ¸
ĠÙĩ Ø±
à´ «
he id
Ġk er
Ġt Äģ
ĠØ¯ ÙĨ
ĠÚ© Ú¾
×ķ× ļ
ĠãĢĳãĢĲ ï¼ĮãĢĳãĢĲ
à¦ĸ à¦¨
ĠáĢ ĩ
ãģ« ãģ¯
l at
íķ ©
áĥĲáĥľ áĥĵ
Ø¯ Ø±
Ġà¦¨ à¦¿
ĠãĢ ĭ
çł ģ
Ľ áĢ¬
ĠÐ¸ ÑģÑĤ
æ ģ
èī ²
§ à¹Īà¸²à¸
Õ¸ÖĤÕ© Õµ
ĠáĢĸáĢ¼ áĢħáĢº
Ġch á»ī
Ġà«§ à«
Ïħ Î½
ĠÎ¿ ÏĢÎ¿
çĽ Ł
en s
Ġ×Ĳ ×Ĺ
iy e
Ġm i
la y
il la
à´¿à´ķ à´³
ÑĪ Ñĭ
Ã«n d
à¦¨à§įà¦ ¦
Õ ¾
y re
h le
ĠÐ´ Ðµ
áģ ¥
å®ĺæĸ¹ ç½ĳç«Ļ
ĠÄĳá» ĵ
ĠÎł Î±
å» º
Ġn ÄĽ
l m
Ġàª¸àª® àª¯
ÃŃ v
Ġthe ir
Ġà®µà¯ĩ à®£à¯įà®Ł
Ñĸ ÑģÑĤ
Ġáĥ© áĥĶáĥĽ
Ġà¦Ĩ à¦ª
Ġmo l
Ġ( '
Ġ +
Ġn Äĥm
ĠÐ³ ÑĢ
m ine
Ġon der
ur u
w s
×ĺ ×¨
à°ķ à°¿
ç³ »
Ġna ar
Ġnh áº¥t
åħ ĥ
ÏĮ ÏĦÎµ
Ġ1 9
áĥĺáĥ §
Ġà®¤à®® à®¿à®´
ĠÙ¾ ÛĮØ´
an de
sz y
ĠÐº ÐµÐ»
app ä¸ĭè½½
Î ļ
o x
áĢ¼ áĢ²
ãĥ ĳ
ĠÕ ¸
áĢŃáĢ¯ áĢľ
ĠØ³ Ø¨
ĠÙĩ Ø³Øª
Ġm ore
un i
at an
ĠÃ¼ ber
Ġì ¢
ê± °
Ġgi Ã¡
Ġb ut
Ġska l
ÑĤ Ð³Ð°Ð½
Ġ×ŀ× ĵ
è¡ ¨
Ġàª¦ à«įàªµ
Ð° ÑģÑĤ
Ã¨n cia
áĥķ áĥ¡
à¥įà¤ ķ
Ġ×ŀ× Ľ
Ġpa ano
æ º
Ġàª² àª¾àªĹ
Ä ı
ĠØ¬ Ø§Øª
Ġt á»įn
è ³
Ġà¦¹ à¦¬à§ĩ
ets e
´ë Ŀ¼
j ÄĻ
áĢ¾ áĢŃ
×ĳ ×Ķ
× ¥
ģ à¹ĩà¸
áĢ±áĢ Ĵ
Ġgb o
ì¶ľìŀ¥ ë§ĪìĤ¬ì§Ģ
à®± à¯įà®ª
çĽ ´
éĹ ´
¯ ¼
Ġw an
à°¡ à°Ĥ
Ð» Ð°Ñģ
è® ¾
ĠØ³ Ùħ
ÐµÐ½ Ð¾
à¯ĩ à®ļ
Ġà¦Ĩ à¦¸
or a
Ġaqu est
à§įà¦¯ à¦¾à¦¨
áĥĿáĥł áĥĺ
Î´ Î¹Î±
Ġëı Ļ
kan a
Ġdá»¥ ng
ĠE r
Ġè¿ Ļ
àª¿ àª®
ç ©
ĠÐ¸Ð¼ Ð°
áĢĶáĢ¹áĢ Ģ
ÑĨÑĸ Ð¹
å¼Ģ æĪ·
e ft
Ú© Ø±
ĠÕ ¥
ĠáĢ±áĢ ŀ
Ġà¤¸à¤¾à¤ ¥
Ð³ Ñĵ
Ġda pat
ĠÐ¾ Ñģ
Ġà°ħ à°µ
à¦§ à§įà¦¯
Ġsh qip
Ġà§¨ à§
Ġf e
áĥĺáĥ ŀ
ÏĢÎ¿ Î¹
Ġg ad
Ġm an
ĠáĥĽ áĥĶ
un a
ìĭ Ŀ
Ð»Ð°ÑĢ Ð½Ð¸
Ø¦ ÙĬØ³
×ľ ×Ļ×Ŀ
ra v
é ĥ½
åħ¬ åı¸
Ġv ed
Ġf et
ung s
à«ĩàªŁ àª²
ÏĢ Î¬
áĢ¾ áĢ¬
Î¼ÎŃ Î½
2 8
lar ga
Ġà°¨ à°¿à°°
Ġnd Ã«r
Ġh iá»ĩn
Ã¦ s
ĠáĢ±áĢ Ĵ
à¦ ł
h t
ê° ľ
Ġìĭ ł
Ãº ng
áĢĲ áĢĦáĢ¹áĢ¸
Ĳ áĢļáĢ¹
Ġ \
Ġt Ã¤
ĠáĥĽáĥĲáĥĴ áĥłáĥĲáĥĽ
Ġà°¨ à±ģà°Ĥà°
Ġáĥ¡ áĥĲ
Ġà¤ķà¤° à¤¨à¥ĩ
Ġin ter
à®ķ à¯į
ar te
Ð³ Ð¾Ð²
»áĢģ áĢĦáĢ¹áĢ¸
Ġng Ãły
Ñĸ Ð»
Ġ {
Ø· ÙĦ
ĠÐ½ Ð°Ð¼
ĠØ Ł
à¯ģà®® à¯įà®ª
ÃŃ m
Ġber e
Ø§ÙĦ ÙĬ
Ġà¤ª à¤¹
à«ģ àª¨
à°¿à°¨ à°¿
ĠÄĳá»Ļ ng
Ã½ m
ĠK os
ëį °
à¦° à§ĩ
ja di
Ġàª Ŀ
lig i
Ġìĺ ģ
ĠØ§ Ø¯
Ġp am
Ñı ÑĢ
Ġà´¸ à´®
Ð° Ñħ
å± ±
Ä±n dan
ĠàªĨàªµ à«ĩ
à±ģà°ķ à±ĭ
ÛĮÚ© ÙĨ
áĢĳ áĢ²
es e
à°² à±įà°²
ou ld
áĢ±áĢĲáĢ¬ áĢ¹áĢ
er ri
ak se
Ġàªľ àª¾àª£
à¤¾à¤ ķ
an no
áĢ¸áĢ±áĢ ĲáĢ¼
ĠÐ ¤
Ġë§ Į
à¯įà® °
ĠØ³ Ø§Ø²
ĠÐ° Ð¼
· à«įàªŁ
áĢ±áĢĽ áĢ¸
aga i
Ġh u
Ġl it
el la
Ġà®ļà¯Ĩà®¯ à¯įà®¤
Ġê¹ Ģ
è§Ĥ çľĭ
p t
ĠáĢĽ áĢ½áĢŃ
Ġya ke
áĥłáĥ £áĥļ
à°¾à° §
Æ°á»£ ng
à¤¿à¤ µ
¡ à¸µ
Ĺ à¸²à¸
Ġë ħ
ì ħ
Ġ×ŀ× ĳ
ri a
m Ã«
à´¾à´¤ àµįà´°
Ġà¦¸ à§įà¦¬
ĠØ¨Ø§Ø´ Ø¯
à¤¾à¤ ı
Ġa la
Ã¢n d
ħ n
Ġì¹´ íĨ¡
à°¾à° £
Ġ×ŀ× ¦
Ġà¦® à§ĭ
li ke
ĠÙĪØ² ÛĮØ±
4 4
×ĵ ×Ļ×Ŀ
áĢĦáĢ· áĢ¹áĢ
Ġm yÃ¶
Ġé ĩ
Ġà¦¦ à§ĩà¦ĸ
àµįà´ £
à±ģà°Ĥà° ¦
0 9
Ġ201 9
d agi
à¦¨à§įà¦¤ à§įà¦°
Ġë ¯¸
à§įà¦ ¦
¡ à¹Ģà¸
ding in
Îĳ Î£
Ġn Ã¤
à¹ĥ à¸Ļ
Ïĥ ÏĦÎ·
ê¹ Į
Îµ Ïģ
ç¨ ĭ
áº¯ c
Ġgj ith
Ġ1 3
Ðº Ð¾Ð²
ÎŁ Î£
Ġz e
ĠáĢ»áĢķ áĢĬáĢ¹áĢ
Ġáĥŀ áĥĺáĥłáĥ
Ġ Å¾
Ġol du
Ġàª°à«Ģàª¤ à«ĩ
Ġàª° à«Ĥ
ĠÎ± ÏĢ
Ć Ĉ
ĠÐº ÑĥÐ½
Ġduk e
à¦° à§įà¦¤
ĠL atv
æ° ´
×ķ×¨ ×Ķ
à´± à´¿à´¯
Ġáĥł áĥĲ
Ġb li
à«ģàªľ àª°àª¾àª¤
Ú© Ùĩ
sh me
à±Ģ à°°
á»± c
Ġà¦Ĩ à¦Ĺ
áĥĶáĥ ®
åĪĨ å¿«3
Ġà¤¸ à¤ķ
ĠáĥĲáĥĵ áĥĲáĥĽ
Ġo li
ĠC a
ÈĽ ii
ĠØ§Ù¾ ÙĨÛĮ
Ġv end
Ġ ãģ¨
áĢ¯áĢ¶ áĢ¸
á» ĥ
æ Ĵ
lÄ± q
Ġâ ĩ
Ġìļ °
ĠìŀĪ ëĬĶ
b ili
ta an
l ine
u ÅŁ
Ġi Äģ
à§ĩà¦ ·
e lo
×Ļ×¨ ×ķ×ª
áĢŃ áĢĶáĢº
Ġà¤¹ à¤®
ĠW a
Ġz bek
Ġthe y
Ġàªķàª° àªµàª¾àª®àª¾àªĤ
æĬ ¥
à¹Ħà¸¡ à¹Ī
Ã¢ u
Ä± b
yd d
ë¶ Ħ
ĠØ§Ø ¬
è Ĭ
ģ áĢ«
à¥įà¤ ¸
ĠáĥĴáĥĲáĥĽ áĥĿáĥ
Ĭ é¾Ļ
áĥł áĥĶ
Ð´ Ð·
íĸ Īëĭ¤
us ka
à¦® à¦¾à¦¨
Î¸ ÎµÎ¯
à¦¾à¦ ¯à¦¼
à´¿à´ ±
Ġm w
çĻ ¾å®¶
áº· c
Ġv Ã¦re
c ek
ìĹ °
j Ã¸
Ã² n
Ã Ĭ
ĠáĢ¥ áĢ®áĢ¸áĢ
ĠÙĬ Ø¹
Ġd itu
å¤ §åıĳ
Ġàª¥ àª¾àª¯
uy Ãªn
p en
Ö ¼
Î³ Î¿
ìĿ Į
Ïģ ÎµÎ¯
Ġ Ã©r
åĨ ħ
pa i
Ġv ya
à¹Ħà¸ Ĺà¸¢
×Ļ×¨ ×Ķ
áĥľ áĥĶáĥľ
Ġwa ar
Ġj ed
ÙĪØ± Øª
æĥ ħ
áĥĿáĥĵ áĥĲ
h en
c as
al l
ä½ į
à±ģà°ķ à±ģ
Ġàª¹ à«ĭ
à§ĥ à¦¤
Ġdu te
×ķ×ł ×ķ×ª
yo ng
ÙĪØ± Ø©
àªķ à«įàª¤
Ġb ah
ĠØ¯ Ùĩ
et te
ow y
à±Ģ à°µ
ç® ¡
ĠÚ© Ø§Ùħ
Ø¬ Ûģ
à¦¾à¦ ĸ
Ġ one
Ã¼ Ã¼
l t
ĳ áĢ²
ĠØ¬ Ùĩ
Ġv iá»ĩc
à«Ģ àª®
Ø¯ Ø§
Ġàªķ àª¾àª®
ĠìĦ ł
êµ Ĳ
à°¨ à±ĩ
àª¤ à«įàª¤
ĠÑģ Ðº
ek ahi
ad os
is tÃ¤
Ġê ´Ģ
Ġà¤¥ à¤¾
Ġhv or
àµįà´¯ à´Ĥ
ĠÑģ Ð¾Ð»
à¸Ńà¸Ńà¸Ļà¹Ħà¸¥ à¸Ļà¹Į
Ġph áº£i
Ø§ÙĦ ÛĮ
Ä« ba
l or
ĠÐºÐ¾ Ð¸ÑĤÐ¾
ãĥ Ĭ
ĠáĢ±áĢ ķ
à¤ķ à¥Ģ
an Ä±n
rz y
ĠØ® Ø§ÙĨ
í ĽĦ
ë² ķ
ģ à¸²à¸
Ùĩ ÙĨÚ¯
à´¨àµįà´ ¦
ĠA r
åĲ į
Ġt Ã¶
Ġth Ãłnh
ĠÊ» a
ĠÎ¼ Î±
à¦¿à¦ Ĥ
à±įà°¸ à±į
à®¤à¯įà®¤ à¯Ī
·à¹Ī à¸Ńà¸
Ġà°ħ à°Ĥà°¦
à¹ģà¸ ¥à¸°à¸
Ð¸Ð¼ Ð¸Ð·
íĺ ¸
à¤Ĺ à¤¾
ĠU n
Ġm y
à´¾à´¯à´¿à´° àµģà´¨àµįà´¨àµģ
áĢ±áĢĢ áĢ¬áĢĦáĢ¹áĢ¸
Ø® Øµ
ĠØ± Ø³
Ã± o
à¸£à¸±à¸ ļ
Ġs ind
Ġv il
Ġê° ľ
Ġå ¼
ĠáĢ±áĢ ¡
Ġh iki
ÑĥÐ² Ð°ÑĤÐ¸
Ġti j
à®¿à®° à¯ģà®ķà¯įà®ķ
Ġb ul
s ta
Ġm at
Ġhi er
Ġpr in
Ġtr a
ìŀ ¬
im i
bi le
ĠØ§Ø ®
åı ·
di ri
Ġv Ã¡l
Ê» ike
ov Ã©
íĨ ł
ĠØ§Ø µ
àµįà´¯ à´®
ĠáĢ ¦
ãģ§ ãĤĤ
ĠB a
à¤ ³
Ġà¦ħ à¦¬
Ġà¤ħ à¤¸
ĠØª Ú¾ÛĮ
ĠåĮĹäº¬ èµĽè½¦
ÑģÑĤÐ² ÐµÐ½
Ġm um
Ġ ÑĥÐ½
Ġgb a
Ð¸Ð´ Ð°Ð³Ð¸
à¯įà®ķ à¯įà®ķ
áģ ģáģ
Ø¬ Ú¾
ĠÐŁ ÑĢ
Ġc zy
ĠÐ² Ñģ
×¨ ×Ĵ
Ľ áĢ½
×© ×ª
Ġà®ħ à®©
Ġàª¶àªķ à«ĩ
la d
v chi
us ta
he d
×Ļ× ĸ
Ñī Ð¾
Ġà¤¤ à¥įà¤¯à¤¾à¤
à´ªàµįà´ª àµĭ
ĠØ§ ÙĨØ¯
ĠÚ© Ø³ÛĮ
± c
à§Ł à¦¾à¦°
áĢ ĵ
ÙĦ Ùĩ
at al
ĠP ro
ĠØ±Ûģ ÛĴ
Ĭà¸ ±
Ġwa tu
áº¹ r
ç Ŀ
Ġàªı àªŁàª²
Ġà´ĩ à´¤
Ġth Ã¬
Ġàª¦àª¿àªµ àª¸
Ġ0 3
n ost
Ġí ĥ
ĠØ§Ø Ń
et e
ĠÑĢ Ð°Ð±Ð¾ÑĤ
c ÉĻ
áĢĲáĢ½ áĢ±
Î¹Îº Î¿
áº± ng
á Ī
ĠÙħ Ø¬
Ġh at
ĲáĢ¼ áĢĦáĢ¹
ĠÐ¸ Ð»Ð¸
ĠáĥĽ áĥĺ
áĢĬ áĢ¬
ĠÐ± ÑĥÐ´
à±ģà° ¦
Ġà°ħ à°¯
à© Ģ
Ġsa l
Ġ ara
lar a
áģ ¤
ne go
Ġà°ļ à±Ĥà°
Ġà´ªàµįà´° à´¤
Ġh á»įc
Ġàªµàª§ à«ģ
Ġgbo gbo
ĠØ¨ Ø§Øª
à´¾ àµ¼
Ġàª° àª¾àªĸ
Ġle bih
Ġ1 1
àµģà´£àµįà´Ł àµį
Ġáĥ¨áĥĶáĥĽ áĥĵáĥĶáĥĴ
Ġàªķàª° à«ĩ
ni k
ĠÐ½ Ð¾
ì Ī
Ġàª¸à«ģàª §à«Ģ
Ġà¤ ĺ
åı £
à§ İ
al Äĥ
Ġb akeng
Ġta i
Å º
we za
à°¿à°Ĥà° Ĺ
à®©à¯įà®± à¯ģ
ĠØ¯Ø§ÙĨ Ø´
Ã¦ n
Ġou t
Ġà¤ķ à¤¾à¤°
ent es
Ġìĺ Ī
ĠØ¨ Ø¯
ta li
Ġê° ķ
Ġ1 2
ÑĢÑĭ Ð¼
ĠØ¢Ùħ ÙĪØ²
áĥĶáĥłáĥ Ĺ
à«ģ àª®
Äĵ s
Ä¼ u
à®¾à® ķà¯įà®ķ
Ġà´ķ àµĭ
à¤ļ à¥įà¤¯à¤¾
Ġ×Ķ×ŀ× ©
Ġmum kin
Ġàª® àª¾àª°
áĢĲáĢ¼ áĢĦáĢ¹áĢ¸
Ġdi a
à°Ĥà°¤ à±ĭ
Ð½Ð¾ÑģÑĤ ÑĮ
ĠÐ² Ð¸Ðº
ÙĪÙĦ Ø©
à¯Īà® ªà¯į
Ġ×© ×ŀ×
ĠÛ °
âĢ Ŀ
àª¿àª ¶
á»įn a
E W
Ġà´¨à´¿à´ ¨àµįà´¨
Ġj oa
à§ĩà¦ ¦
à´¾à´² àµįâĢį
ëª ¨
à¹ĥà¸Ĭ à¹īà¸
ĠN Ã«
ÙĪ Ø§Øª
ĠÃ§ ok
Ġp ang
ĠÚ©Ø´ ÙĪØ±
Ġà´µ à´°
Ġto t
Ġta bi
ĠÎµ Ïħ
æīĭæľº å®¢æĪ·ç«¯
ĠÙĪ Ø¨
é ļ
Æ¡ i
ĠÐ¾ Ð¿
ĠáĢ¡áĢ² áĢĴáĢ®
Ùģ Ø§Ø¯Ùĩ
ĠáĥĴáĥĲáĥĽ áĥĿ
ķ à¹Ī
à±ģà°¨à±įà°¨ à°¾à°°à±ģ
lig t
Î´ Î·
Ġ à¸Ńà¸
å¼Ģ å¥ĸ
à«įàª¯ àª¾àªĤ
Ð» Ð¾
±áĢ ¡
ĠC om
is oa
å° Ĩ
Õ¸ÖĤ Õ¶
Ġà¦¤à¦¿à¦¨ à¦¿
ĠáĥĽ áĥ¡
Ã³ k
ÙĤ Ø±
à±įà° ³
am i
amo t
Ġm Ã¡r
Ġç »
ing iz
ÎŃ Î½
on es
à¥įà¤ ª
Ðµ ÑĨÑĨÐ°
Ġn t
ĠÑĤ Ñŀ
à°² à±į
7 0
Ð° Ñı
ģ áĢ¯
Ġl Ã¤
Ġt lo
áĥ Ń
Ġt y
áĥĺáĥ¨ áĥľ
Ðº Ð°Ð·
Ġk ekahi
Ġà¤ħ à¤¨
áĥłáĥ ĵ
áĢĻáĢ» áĢ¬áĢ¸
Ġ ä¸į
ÑĬ Ð¼
ĠÙģ ÛĮ
ÑĢ Ð¸
Ġ áł
Ġa ia
Ãº c
à± Į
Ðµ ÑģÑĤ
æ ¡
da y
Ïī ÏĥÎ·
anz ania
Ġaia dingin
Ú¯ Ø§ÙĨ
Ġl ie
à´¾à´ ª
Ġwer den
à®¿à®¯ à®¿à®²à¯į
ĠÐ³Ñį ÑĤÐ°
© à¸
ĠÐºÑŀ ÑĢ
Ġç Ļ
áĥķ áĥĲáĥľ
Ġà®İà®© à¯įà®©
áĢŃ áĢĲáĢº
ĠØ® Ø±
Ġde ur
ĠÎ¼ ÏĢÎ¿
áĥĺáĥ «
Ï Ĭ
à®¿à® ¨à¯įà®¤
áĥłáĥ £áĥ
ĠS p
àµģà´¨àµįà´¨ à´¤
ĠìĹ °
à´¾à´ Ĺ
ĠkÃ« tÃ«
à´¿à´ļàµįà´ļ àµį
áĥłáĥ Ĵ
áĥĶáĥĹ áĥĺáĥ¡
à´¾à´ ľ
ĠI A
ìļ ´
áº¡ o
ÑģÐº Ð°ÑĤÐ°
áĢĢáĢ¹áĢ ŀ
ÑģÐº Ð°Ð¹
Ġàª¸ à«įàªŁ
Ïħ Ïĥ
´ ĳ
à§ģ à¦®
Ã¡ ban
in s
el s
ÑģÑĤ Ð°Ð²
æµ ·
Ġà¸ ģà¸
Ġel Åĳ
áĢ±áĢ¬áĢĦáĢº áĢ¸
ĠáĥĽ áĥĿáĥ¡
Ġà®ķ à¯ĩ
åı Ĭ
ÅĨ u
Ġà°ķ à°²
ĠÐ¾ Ð²
í İ
ÏĮ Î½
ĠL es
Ġka pa
ĠØ§Ø³Øª ÙģØ§Ø¯Ùĩ
äº ¤
Ã¡ bb
ÑĢÐµ Ð¼
Ġà¤¦ à¥ĩ
ëł ¥
é ª
us te
àª°à«įàª µ
Ø« Ø±
×ľ ×§
r Ã©
Ġsi is
Ġà®¤ à¯Ĩà®°
Ã´ n
um a
Ġàª¦à«įàªµ àª¾àª°àª¾
ĠÐ¿ Ð¾Ñģ
à´ªàµįà´ª àµĨà´Ł
Ġqu y
æ¬ ¡
Ä¼ a
Ġp Ã¤Ã¤
à¸£à¸²à¸ Ħ
áĢĽ áĢĦáĢ¹
à°Ĥà° ª
ĠàªĹ à«ģàªľàª°àª¾àª¤
am ento
ķ Į
á»ĭ ch
Ġn ÉĻ
ĠØ± Ú©Ú¾
à¥ ĥ
Äĥ n
Ġk anÃ«
Ïİ ÏĤ
Ġag äºļæ´²
à§įà¦ ľ
áĢĬ áĢ·
áĢľ áĢ¯áĢķáĢº
Ġàª¹ à«ģàªĤ
Ġn ako
ĠØ£ Ùħ
Î¾ Î·
æĪ ĺ
Ð° ÑĦ
d t
éĩ Į
áĥĺáĥ ¦
Ġ à¹Ģ
en i
Ð¾ Ðµ
ãĢ ģ
ÑĨ Ð¸ÑĤÐµ
¡à¸ ŀà¸
Ġàªķàª° àªµàª¾
ĠÄĳ i
Ġna a
áĢ¯áĢŃ áĢĦáĢ¹áĢ¸
Ġà®µ à®¨à¯įà®¤
Ð» Ð°Ð±
Ġd y
ĠC on
Ġv Ã¤l
à´¿à´¨ àµĨ
ç Ī
ĠT Ã¼rk
é ©
Ġàª¬ àª¹
Ùģ Ø³
Ġà¦¹à§Ł à§ĩà¦Ľà§ĩ
Ł áĢ¬
Ġà®ķ à¯ĭ
ì ¡
Ġcon t
àª° à«ĩ
Ġs ont
Ġáĥĵ áĥĺáĥĵ
×¨ ×ĳ
áĢħ áĢ¯
ĠØ¬ Ø§Ø¦ÛĴ
×ł ×ª
b il
ĠÙħ Ø±Ø¯
Ġn ak
ĠÐĴ Ð¾
z z
åĲ Ĺ
ì¹´ ì§Ģëħ¸
Ġ >
at Ã«
Õ¡Õ ¿
àª¨à«įàª ¸
áĢħ áģ¥
ĠÐ² ÑĢ
ĠØ§ÙĦÙħ ØŃ
in n
Ñ ľÐµ
ĠÛ±Û³Û ¹Û
à¤² à¥Ģ
g et
Ġku r
áĢ±áĢ Ĳ
áĥĺáĥĿ áĥľ
Ġà¦ķ à§ĭà¦¨
Ġi p
×ķ×ł ×Ļ×Ŀ
p re
ãĥ ĵ
áĥ£áĥ ®
Ð½ Ð¸Ñı
Ġan da
ì² ´
Ġàª¸ à«įàª¥
Ġà¸ Ħà¸
ĠÙĪ ÙĬ
Ġà§¨à§¦à§ §à§
Ø± ØŃ
sz e
Ã¢ m
Ġàª¬ àª§
ÑĪ Ðµ
ĠØŃÚ© ÙĪÙħ
àµģà´¨àµįà´¨ à´¤àµį
Îµ Î»
áĥĿáĥķ áĥľ
ÅĨ a
ĠN EW
k k
Ġå ¾
Ġa pp
ĠØ§ÙĦÙħ Ø³
Ġàª® à«ĭàªŁ
Ð°ÑĤ Ñĭ
Ø§ÙĨ Ø¯
Ġy er
è »
er i
P art
àª¾àª¤ à«įàª°
Ġl Ä«dz
ang a
s Ã¡g
ĠÙĪØ§ÙĦ ÛĴ
ĠØ§ÙĦ Ùĩ
Ġa ut
è ¢
Ø® Øª
Ð¼ Ð°Ñģ
Ð»Ñĥ Ñĩ
à®µ à¯ģà®®à¯į
Ġbo leh
ĳ Ĳ
Ġl ike
ĠÙĦÙĪ Ú¯
à´¿à´ ¨àµįà´¨
ãģ ļ
in te
Ġs á»į
ĠÐ° Ð¹
áĥĿáĥ ŀ
ĠÏĢ ÏģÏĮ
ĠÎ ¥
à§įà¦ ł
Ġm me
ĠpÅĻ ed
Ġë Ķ
ĠØ¨ Ø¹
Ġ? ?
r Ã³
Ø§ Ùĥ
ĠÃ§ ox
ĠØ¬ Ùħ
l ÃŃ
ĠØ§ÙĦÙħ Øª
ĳ ľ
ãĤ ĥ
×ŀ ×Ļ
áĥĿáĥ ¨áĥĺ
Ø ¡
ÙĢÙĢ ÙĢÙĢ
Ð¶ Ðµ
àµĨ à´Ļàµįà´ķ
Ġ ć
ĠÏĥÏĦÎ¹ ÏĤ
Ð½Ð¾ÑģÑĤ Ð¸
ende le
Ġà¦ķà¦° à¦¤à§ĩ
iá»ĥ m
ĠÙģ Ùī
Ġsa v
ÏĮ ÏĤ
Ð¼ Ð¸
im it
æĬķ æ³¨
Ġà´µ àµĢ
à¤¿à¤¯ à¥ĭà¤Ĥ
lo v
ĠNEW Part
c on
im u
Ħà¸£à¸ Ķà¸´à¸
ÑĢ Ð´
ul t
ĠØ¯Ø§Ø± Ø¯
m ÉĻ
Ġìķ Ĭ
ĠÙĨ Ø´
Ã¥ g
Ġà®ª à®²
Ġg Ã¼n
¦ ¬
Ġ0 0
ÙĪ Øª
Ġ×Ĳ ×Ĺ×¨
Ġæŀ ģéĢŁ
à¹Ĥ à¸£à¸
à© ĩ
ĠÑĢ Ð°Ñģ
Ġh Åį
ĠÎ Ī
áĥĲ áĥĲ
Ø±Ú© Øª
ĠáĥĵáĥĲáĥ ĺ
áĥĺáĥĹ áĥ®
à´¤àµįà´¤ àµį
Ùĥ Ø§ÙĨ
æĶ ¿
è¯ ´
Ã¡ nh
vÃ¤ t
à¹Ģà¸ ¥
Ġv Äĵ
Ġà°µ à°¾à°°
at ed
ak ini
ĠÙĬ Ùħ
Ġà¦ıà¦ķ à¦Łà¦¿
Ġà®µ à®´
zi a
iy an
Ãµ h
ĠÐľÐ°ÐºÐµÐ´Ð¾Ð½ Ð¸ÑĺÐ°
Ġn Æ°á»Ľc
Ġ íķ´
Ġà®® à®±à¯įà®±
c ti
áĥĶáĥĹ áĥĺ
Ġol an
à¯Īà® ļ
×ŀ× Ł
ĠáĥĹáĥ¥ áĥķáĥĶáĥľ
Ġwh ich
à±ģà°² à±ĭ
Ġ3 8
Õ ½
Ñģ Ð¸
le v
Ã¼n k
à¦¾à¦¦ à§ĩà¦¶
Ġag çľŁäºº
ÙĪ Ùĩ
Ġab out
ĠO n
×ķ×ª ×¨
à±įà° Ĺ
Ñĥ Ð´Ð°
in dÉĻn
ĠÎºÎ± ÏĦÎ¬
Ðŀ Ð
ÑĬÐ» Ð³
ĠØ´ ÙĩØ±
áĥĶáĥļ áĥ¡
åį Ĺ
L I
ì¹ ´ëĿ¼
m y
Ġk es
Ġà¤Ĺ à¤¯à¤¾
äº ī
Ġ×Ķ ×Ļ×Ĳ
ĠØ¨ Ø®
si ya
ati k
Ġà§ ©
Î± Î»
Ġ×ķ ×¢
Ġho u
å Ļ
Ġà°ļà±ĩà° ¯
Ġ×© ×ĳ
ĠÙĦ ÛĮÚ©ÙĨ
Ġna ch
Ġs ana
ÑĢ Ð¸Ð¼
æ¬ ¾
Ġ×ĳ ×¡
×¨×Ĳ ×ľ
à§Ł à¦¾
ĠÒ³ Ð°ÑĢ
di a
Ġma ar
Ġ Å
Ġkwa mba
agy ar
Ø§Ø± Ùĥ
Ã¡r a
é ł
àµĨà´¯ àµģà´Ĥ
à®¿à®ķ à®³à¯į
à¦¿à¦ ľ
un u
à¦¾à¦ķ à¦¾
ĠÐ½ Ð°Ð²
æĺ İ
ĠáĥłáĥĿáĥĴ áĥĿáĥłáĥª
Ġå¤§åıĳ å¿«ä¸ī
à«įàª ¡
Ġà®ħ à®±
¥à¸ ĩà¸
Î¼ Î®
ĠÚ¯ ÛĴ
W A
Ġj et
é »
Ġde ze
Ġ×ŀ× ł
áº¯ t
p an
Ġáĥĵ áĥĲáĥķ
à´³ àµįà´³
×ŀ× ł
v is
à«Ģàª Ł
åĬł çĽŁ
z za
Ġv or
Ð¾Ò· Ð¸Ðº
Ä¾ a
bi de
ĠÏħ ÏĢÎ¿
à¦¾à¦¨ à§ĩ
Ġà°ķ à°¾à°°
à®µ à¯ĩ
ĠÃ¶ z
ŀ Ī
Ðµ Ñĺ
ë° ©
y le
Ġh y
Ġà®İà®© à¯įà®ª
×ľ ×ķ
ar c
áº¡ t
p Äĵj
Ħ à¸£
à±įà°° à±Ģ
ê± ´
Ġà¤ľ à¥ĭ
ĠØ§ÙĦØª Ø¹
Ġì µľ
Ġp ele
ÐµÐº ÑĤ
áĥĲáĥłáĥ ¡
Ð¼ Ð¾Ð½
Ġy ar
Ġàªľ à«Ģàªµ
Ð¸Ð» ÑĮ
à¦ľ à¦¨
à¦¾à¦¤ à§ĩ
y ang
à®¾à® ļ
Ġt Ã¶Ã¶
ÛĮØ± ÛĮ
Ġà¤ķ à¤¿à¤¸
Ġbat ho
Ġï¼ Ł
ãĤ ĩ
c Ãª
n Ã¡l
×Ļ×ł ×ķ
us ed
Ġti áº¿
Ġà¤ī à¤¸
Ġàª® à«ĭàª
àµįà´° àµĢ
ĠÐ Ī
Ġdat ing
Ð² Ð¾ÑĢ
àª Ŀ
ang o
ĠìĹ Ĩ
ets i
à¸Ńà¸¢ à¹Īà¸²à¸
ĠÑĤ ÑĢÐµ
ãģª ãģ©
áĥĺáĥ¡ áĥĲ
di mo
Ã Ĵ
Ġìĥ Ŀ
àª¨ à«įàªŁ
é¢ ĺ
Ġv olt
Ð½Ð° Ñĩ
×ł ×¡
im in
Ã§ o
á»£ p
âĢ ĺ
ĠA f
ba li
èĢ ĥ
ĠÐ´ ÐµÐ½
y cz
à±Ģ à°
ÑģÐºÐ¸ Ð¾ÑĤ
áĥķ áĥł
Î¹Îº Î®ÏĤ
à±ĩ à°°
ç ±
à¨ ¿
è· ¯
à´¨àµįà´ ±àµĨ
ìĤ¬ ìĿ´íĬ¸
s Ã¥
Ġlang _
is s
Ġle het
Ð ĥ
Ġa Ã§
çİ ©
Ġp in
Ġm Ã¥
à¤° à¥ĩ
ç ²
Õ¡Õ ½
çī ©
ãģĹ ãģĦ
m asÄ±
ãĤ¤ ãĥĪ
Ġæ Ń
be j
ĠÐ³Ð¾Ð´ Ð¸Ð½Ð°
áº© m
Ġà´ķ àµĩ
à´¾à´ ¦
Ġà´ķ à´´
ÙĨ Ø³
à¦¿à¦ ¯à¦¼
ĠÙĦ Ú¯
Ġin c
à±ģà° ®
à´¿à´ ŀàµįà´ŀ
Ġqil ish
íĥ Ģ
×Ļ×ł ×Ķ
ÏĦ ÏīÎ½
à¤Ĥ à¤¡
Ø§ÙĦ Ø©
Ñĭ ÑĤ
èµ ·
æİ ¥
×¢ ×ª
ĠÃ ľ
Ġà°¸ à°¿à°¨
Ð½Ð¾ÑģÑĤ Ñĸ
Ø¯ Ø¯
ĠìĦ ¸
áĥķáĥĶáĥ §
à¹ĥà¸« à¹ī
ĠN a
è£ ħ
ĠÑĢ Ð¾Ðº
Ġàª¤à«įàª¯ àª¾àª°à«ĩ
à´¿à´² àµĩ
ãģ¾ ãģĽ
Ġí ĸ
ĠáĥĹáĥĲáĥķ áĥĺáĥ¡
à«Ģ àª¨àª¾
es ta
áĥķ áĥĶ
Î¯ Îº
à¸Ńà¸ ¢à¸
ãĥ »
ĠÏĥ Î±ÏĤ
el lo
å¤ ĩ
ation s
m ÄĽ
Ġol un
aren a
à§ģ à¦ķà§įà¦¤
ÙĪ Ù¹
v nÃŃ
ĠÐ½ Ð°Ð¿
ĠØ¹ ÙĦÛĮ
ash k
Ġ×Ĳ ×ł×Ļ
à¦ª à¦°
a u
à¸Ļà¸ ±
Ø¹ Ø±
Īà¸ ±à¸
ĠáĥĽ áĥĶáĥ¢
Ġ uk
áĥĺáĥ ĳ
à®¿à®± à¯įà®ķ
te k
Ð» Ñİ
Ãªn cia
Ġka d
Ġà®µ à¯Ģ
ud z
ĠÑĩ Ð¸ÒĽ
à¥ģ à¤¨
en n
Ġà®ħ à®Ł
Ġu 09
Ġg ro
ØªØ± ÛĮÙĨ
æľ į
atz eko
Ġs áº£n
ĠØª Øµ
Ø±Ùĥ Ø©
ĠÚĨ Ùĩ
1 8
i la
Ġêµ Ń
ĠÙĪ Ø³
ÙĪ Ø§ÙĦ
ĠS a
à¹Ģà¸Ľà¹ĩ à¸Ļà¸
Ġq ar
àª¾àª Ł
Ĥ à¸²à¸
Î¯ Î¶
Ġ×ľ ×Ľ
ĠÙħÙĦ Ú©
ĠÂ £Â¬
Ðµ Ñĩ
am p
tz eko
Ã Ķ
åº Ķ
Ġ×Ĳ ×ł
æ ¼
à®² à¯Ī
Õ¶ Õ¥ÖĢ
Ġp ow
×Ĳ ×ª
al an
Ñļ Ð°
Ġà°ļà±Ĩ à°ªà±įà°ª
ÙģØª Ùĩ
à±ĭ à°ľ
Ġëı Ħ
Ġsel le
ij a
ë§Į ëĤ¨
à°¡ à±įà°¡
à¦¾à¦ ¥
ĠÎ¸ ÎŃ
et sa
×ķ× £
ìĺ Ī
pa p
ĠáĥĽáĥĺáĥ¡ áĥĺ
it et
Äĥ s
Ġà´¨ à´¿à´°
áĥĺáĥ «áĥļ
Ġë° ©
Ġk or
_ _
àª¾àª ī
ç» ĵ
Ã ĭ
ä» ĸ
àª¾àª ı
ìľ ł
Ì Ģ
ĠÂ ¡Â
Ú© ÛĴ
ëĭ ¨
à°¾à°° à°Ĥ
Ġwor den
un ÈĽ
Ġx u
áº¥ n
di b
ĠÐ¿ Ð°Ð²
Ġs Ãµ
Ø§Ø¯ Ûģ
á»Ļ c
Ïĥ ÏĦÎ¿
àª ł
b ie
ĠØ² ÛĮ
Ðµ ÑļÐµ
ĠØŃÚ©ÙĪÙħ Øª
Ġm er
Ġ×Ķ ×Ļ
ĠØ¯ ÙĪØ±
r Ã¡
ĠÑģ Ð°Ð¼
ĠN am
Î¼ Î¹
ĠØª ÙĪØ§ÙĨ
Ø² Ø´
Ġt Ã´i
ëĲ ľ
Ġàª¬ à«Ģàªľ
Ġà¦Ĺ à§įà¦°
Ġch ÃŃnh
áº« n
Ġë¬ ¸
à«ĩàªµ àª¾
à«Ģàª §
Ã Ģ
à®¾à®° à¯įà®ķà®³à¯į
ĠÂ ¹
Ġku ko
Ġà°° à±Ĩ
Ġà´¤ à´¿à´°
Ø² ÛĮ
ĠÑŀ ÑĤ
áĥĲáĥ Ķ
Ġà°® à±Ĭ
ik u
Ġc ol
¢ à¸²à¸
Ġd ara
à´¾à´ ¹
áĥĶáĥĳ áĥĶáĥļáĥĺ
à±ĭ à°Ĺ
ĠÐ¿ÑĢÐµ ÑĤ
Ġs us
ÛĮÙħ Øª
á¹ ¢
ãĥ Ķ
ĠSh qip
Ġt ah
Ġà¦ķ à¦®
à´¯ à´¿à´²àµįâĢį
ĠØ§ÙĦØ º
ÏĦÎ· ÏĦÎ±
áĥ§ áĥķ
ãĥ¼ãĥ ī
m ento
Ġa w
or o
à®¿à®ķ à®³
áĥĲáĥ¨ áĥķ
Ġ) ;
à¥įà¤ ¦
ĠìĦ ±
ĠçľŁ äºº
Ġà®ħà®° à®ļ
ĠÎ´ Î¹
ĠÚĨ Ø§Ûģ
§à¸ ±à¸
m et
Ġf er
ler in
ĠÑĤ ÑĥÑĢ
Ġáĥł áĥĲáĥª
è ¥¿
c os
Õ ´
Ġà®¤à¯Ĭ à®Ł
al ah
u zi
à¤¾à¤¹ à¥Ģ
Ö ¸
Ġwa i
à¤¾à¤ Ĺ
åı ĸ
ĠØ§Ø³ ÙĦØ§Ùħ
Ġnh Ã¢n
Ġo leh
Ġd re
di g
á ¿
ak i
ĠÎ±Ïħ ÏĦÏĮ
áĥĺáĥ£áĥł áĥĺ
Ð½ Ð¾Ð³
à´Ļàµįà´Ļ àµ¾
Ġáĥ¨ áĥĶáĥľ
Ðº Ð°ÑĤÐ°
×ŀ ×Ļ×Ŀ
åķ Ĩ
Ġn agy
Ġg li
n ym
ĠØ¢ÙħÙĪØ² Ø´
ou v
Ġj el
ÉĻ lÉĻ
áĥ£áĥ ĵ
il áº¹
li y
ca q
à¦¨ à¦¿
Ïĥ Ïī
Ġs ie
Ġà¦¸à¦® à§įà¦ª
Ġà´ļàµĨà´¯ àµįà´¯
g io
Ġog sÃ¥
àª¤ à«įàª¯
Ġàªķ à«ĭ
ĠÙħ Ø·
Ã¡l nÃŃ
Ġàªľ à«ĩàª®
id agi
Ġm ÉĻn
Ġå Ĭ
Ġ ÉĻs
è¯ ķ
Ġh á»£p
¥à¹ĩà¸Ńà¸ ķ
Ġà¦¸ à¦¬
Ġsz Ã¡m
Ġå¤ §
ĠÑĤ Ñį
c ar
ĠI t
Ø±ÙĬ ÙĤ
ÙĬ ÙĪ
ĠØ§ÙĦÙħ Ø´
Ġti me
à¹ģà¸ ¥
ÑģÑĤ Ð²Ð°
Ġqu an
m os
åĭ ķ
it za
ëĭ ¹
ĠØ¯ Ø§Ø¯
b dib
Î³ Î³
ĠÐ½ ÐµÐº
Ġia cute
ĠÙĪ ÙĤ
à¦ ·
d as
à®© à®°à¯į
Ðķ Ð
it Ã©
Ġæĸ °
de d
à«įàª ¦
ĠÑį ÑĤÐ¾
Ġáĥ¡áĥĲáĥ® áĥĶáĥļ
à¤ķ à¤¾à¤°
Ġâ Ĺ
E R
Ĭ à¸²à¸
Ġ×ĳ ×§
æĦ ı
Ïĥ ÏĦÎ±
í ŀĪ
ļà¸²à¸ Ĺ
u re
Ġne bo
à°° à±įâĢĮ
Ġà¸ Łà¸£à¸µ
t to
Ġà¦¬à¦¾à¦Ĥà¦² à¦¾à¦¦à§ĩà¦¶
Ġë ¨
Ġp ili
el ser
Ġà¤Ĩ à¤£
åĪĨ åĪĨå½©
Ġs v
Ġr r
Ġ×Ĳ ×Ŀ
Ġà¤ §
Ġà¤ Ľ
Ġà®® à®©
Ã ĸ
Ġà®® à¯ģà®¤
ĠÐ²ÑĬ Ð·
ĭ Ĺ
d ÄĽ
æĢ »
à±ĩà° Ł
çī ¹
Ľ à¸£
Ð² Ð°ÑĤ
à« ī
Ġà¦¯ à§ĩ
è¨ Ģ
ĠHo Ê»o
ĠÐ¿ Ð¾ÑĤ
ka an
Ġla i
à´°àµįâĢį à´¤àµįà´¤
Ġp al
e i
Ġì§ Ħ
Ġæ µ
Ġàª¹ àªµà«ĩ
àªĤàª¤ à«ģ
n Äħ
à«ĭàª ª
Ø§Ø¨ ÙĤ
à¦¤ à¦¾
Ġà´ªà´± à´ŀàµįà´ŀ
Ġàª¸ à«Į
Ð°Ð½ Ð³
Ä« jum
Ïģ ÎµÏĤ
àª¨à«įàª ¡
ĠØ° ÙĦÙĥ
Ġà´¤ àµģà´Ł
ĠÚĨ Ú¾
åĻ ¨
ç ĥ
ĠØ® Ø¨Ø±
Ã ľ
tir ish
à´¯ àµģà´ŁàµĨ
ĠØ§ Ú¯Ø±
Ġà°® à°¾à°°
ĠÃ ¸
ir Ã«
am b
×ķ×ľ ×Ŀ
ĠKos ov
at t
æĢ İ
Ã¡ri o
Î´ Î¹
ĠìĹ Ĳ
Ġà°® à°¨
ir es
Ġà´µ àµĨ
Ġå ¥
Ġ á¹¢
ĠY A
y in
ÉĻ c
áĥĲáĥł áĥĶ
ãĥ¼ãĥ ł
ĠÕ ¶
à¹Īà¸ ĩà¹Ģà¸
Ġìŀ ¥
ka l
Ġz Ã¡
Ġàªľ àª£
at or
Ġà°ħ à°¨à±įà°¨
Ġk ho
Ġ×Ľ ×Ĳ
àµĩ à´£àµįà´Ł
à¯ģà®Ł à®©à¯į
Ġal so
Ġí Ĭ
¯ à§ĭà¦Ĺ
m es
v et
×¨ ×Ļ
à°¤ à°¿
áĥĲáĥ® áĥļ
Æ° a
on us
ĠÛģÙĪ ÙĨÛĴ
Ġa pa
oun d
à¹Ħà¸ Ľà¸
áĥĶáĥ¡ áĥĺ
Ġc il
µ à¸
ÑĤ Ð°ÑĢ
à§ģ à¦¬
íģ ¬
àµĢ à´µ
çĽ ¸
Ġ ÑĨÐµ
à°¿à°Ĥà°ļ à°¿
Ġå° Ĭé¾Ļ
áĥĲáĥł áĥĺáĥ¡
Ġà®ķ à®°
ĠØ®ÙĪ Ø§Ùĩ
à°¿à° ²à±ĭ
ĠáĥĶáĥłáĥĹ áĥĺ
Ġko h
Ġv al
ç» Ł
ie i
à±ĭ à°¯
Ġáĥŀ áĥĺáĥł
Ġíı ¬
Ġa ce
ĠÐ¼ Ð°ÑĢ
Ġh ÉĻr
é ħ
ĠØ§ÙĦØ ²
Ġt out
æī Ģ
Ø§Ø³ ÛĮ
à¯ģà®ķ à¯į
ci al
ĠAG çİ¯äºļ
« à¸²à¸
à´¨ à´Ĥ
ĠØ¬ Ø¯ÛĮØ¯
ĠÃ¥ r
Î¯ ÎµÏĤ
m ise
ĠØ§ Ûģ
ĠÎ± Î»Î»Î¬
Ġprze z
i b
ëŀ ĺ
ĠÃ İ
ĠÚ¯ Ø¦ÛĮ
Ġà¦ħ à¦Ń
ë¹Ħ ìĬ¤
Ġmol t
Ġs inh
ì Ķ
ä¼ ł
Ð»Ð°ÑĢ Ð¸Ð½Ð¸
1 2
à°¾à°¤ à±įà°°
ç ·
ĠÙĦ Øª
Ġi gb
ãģ¾ãģĽ ãĤĵ
Ñĸ Ñģ
Ê» u
Ġà®ª à®¤
ĠÑŀ ÑĢ
àª¾àª£ à«Ģ
al t
à¤ķ à¤¾
à«ĭ àª®àª¾àªĤ
ç ¼
ĠÄĳá»ĭ nh
à´¤àµįà´¤ à´¿à´¨àµįà´±àµĨ
Īà¸²à¸ ģà¸
à´¾à´¤ àµįà´¤
Ġè Ģ
ar ra
ĠáĥĽ áĥĿáĥľ
Ö °
Ġdas s
ĠC asino
ĠÏĥÏĦÎ¿ Î½
Ġàªīàªª àª°
ģà¸±à¸ ļà¸
ĠÐº Ð°ÑĢ
à¨ °
ĠT er
à´¿à´ ª
àª¿àª ª
à´® àµįà´ª
à¹Ģà¸ ģà¸
Ù¹ Ú¾
l lÃ¤
ĠN or
Î¿Ïį Î½
jÄħ c
Ð¾Ð³ Ð°
Ġd aha
ĠTh is
ĠÎŃÏĩ ÎµÎ¹
éĢ ī
Ġç İ
Ġb et
Ġàª¬ à«ĩàª
à«ģàª ĸ
ĠØ¨ ÛĮØ´
à· Ĭ
Õ¡Õ ¾
Ġh Æ¡n
à´£àµįà´Ł àµį
Ġwak ati
ÙĦ Ø§Ùģ
Ġà¦¸ à¦°
Ð´ Ð¸ÑĢ
à°¿à°Ĥà° ¦
Ġíĺ ¸
Ð» ÐµÐ½
k si
Ġà¦¦ à§ĩà¦¶
ÙĬ Ùĩ
à¦¿à¦ ª
§ à¹ĩà¸
Ġy ear
à¦¿à¦ Ľ
à°Ĥà°Ł à±ĩ
ĠØª ÙĨ
ãĥ³ãĥ ī
áº£ ng
à¸£à¸ §à¸
Ġan y
Ķ à¹īà¸§à¸
ĠÐ¼Ð¾Ð¶ Ðµ
Ġh on
Ġ×ĳ ×ł
à±ĩà° ·
Ã«s e
Äģ l
áĥĲáĥ §
à«ĩàªµ à«Ģ
n Ã½ch
iy yÉĻt
ĠØ§ÙĦÙĬ ÙĪÙħ
Ġàªªàª° àªĤàª¤à«ģ
à¦¨à§įà¦ §
Ġca o
ku u
Ø± Ùħ
ĠÙ¾ Úĳ
ÙĦ Ø¨
Ġmo ng
Ú© Ø³
Ġê² Į
ĠÙģØ± ÙĪØ´
Î¯ Î¿Ïħ
no ÅĽci
ĠØ® ÙĦØ§ÙĦ
w ie
ĠÚ©ÙĨ ÛĮØ¯
×ĳ ×ķ×ĵ
ĠmyÃ¶ s
Ø¯ Ùī
à°Ĥà° ķ
mo q
à°¿à°Ĥà°ļ à°¿à°¨
u j
×© ×ķ×ª
àª°à«įàª ®
ĠsÃº a
Ġà°¸à°¿à°¨ à°¿à°®
Ġ201 7
à®¿à®²à¯įà®² à¯Ī
Ð»Ð°ÑĢ Ð½Ð¸Ð½Ð³
áĥĺáĥľ áĥĺáĥ¡áĥ¢
Ġku l
ones ia
Ġn Ã¤r
Ġvo tre
Ġàª² àªĹ
à´ªàµįà´ª àµĨà´Łàµįà´Ł
à°Ĥà°¦ à±įà°°
à®° à®¿à®¯
Î¼ ÏĨ
à¯ģà® £
Ãª m
ĠW e
Ġhe eft
à°® à±Ĩ
ÏĢ Î·
à±ģà° Ĺà°¾
Ä± yor
à´¨àµįà´¤ àµįà´°
Ġà®ħ à®¨à¯įà®¤
Ġb or
ĠÚ© ÙĦ
ĠV iá»ĩt
à¹Ħà¸ Ľ
ĠØ§Ø ´
Ġne j
ĀĀĀĀĀĀĀĀ ĀĀĀĀĀĀĀĀ
áĥĲáĥ¥ áĥ¢
ĠÐ£ÐºÑĢÐ°ÑĹ Ð½Ð¸
ĠÙĪ Ø¹
ÛĮÙĨ ÛĮ
ç¾ ¤
Ð° ÑļÐµ
ëł ¤
àª¾àª ļ
Ġw ho
Ġc re
×¢ ×Ķ
h an
à«ĩàª ª
ë¥ ´
Ġs ua
à¤¾à¤ ª
Ġse g
·à¹Ī à¸Ńà¸ĩà¸
Ġwor k
Ġh ii
í ĭ
Ġà°¤ à°¨
Ã¸ l
Ø§Ø¹ Ø©
Ġà® ²
ĠÐ Ń
« à¸£à¸
Ġí ģ
on y
Ä± q
ou gh
ä¹ħ ä¹ħ
Ġ0 9
ĠØ¨ Ø§ÛĮØ¯
ĠÄĳá» ģ
j ek
ov at
ĠíĨ µ
ov e
į à¸
ich t
Ø Į
ĠÙĬ Øª
à¥ ľ
al Ä±ÅŁ
ÙĨ Ø§ÙħÙĩ
Ġna v
c al
wa Äĩ
lik uwa
à´ķ à´³
Ġsa a
Ġde y
Ġà®®à¯ģà® ©
Ķ à¸µ
Ġngh iá»ĩ
à´® à´¾à´¯à´¿
Ġbes te
é¡ µ
Ġter se
ĠÎľ Îµ
Ġm Ã¬nh
à¤¿à¤ ¶
Ġku t
Ġì Ĥ
u je
à¯Īà®ķ à¯į
Ð½ Ð¾ÑĤÐ¾
ĠØ§ÙĦÙħ Ø¹
Ð¾Ð² Ñĸ
à¹ ģà¸£à¸
àªµàª¾àª¨ à«ģàªĤ
æ ¢
ĠK Äį
×ĳ ×Ļ×Ŀ
Ġne i
ÙĪ Ùī
Ð¸ Ð¾ÑĤ
ur ch
à¦¾à¦¨ à§įà¦¤
ÏĦÎ¹Îº ÎŃÏĤ
or um
ĠP er
ãĤĮ ãĤĭ
ĠØ¨Ø§Ø² ÛĮ
Ġà®¤ à¯ĩ
Ã¡ p
±à¸ ĩ
à¤ļ à¥įà¤
à°® à±Īà°¨
Ġku m
ĠÑĤ Ð¾
ĠÙħ ÙĪØ±Ø¯
Ġàª¬àª¨ àª¾àªµ
á»¥ c
áĥĽ áĥĺáĥ¡
Ġà¦® à¦§à§įà¦¯
v Ãµ
g ar
àµ Ĺ
ĠÑģ Ð»ÐµÐ´
Ã± os
Å¡ tÄĽ
æµ ģ
Ã¤ t
ti g
àª¾àª ¥
ĠÐ¾ ÑĢ
our s
ĠØ¨Ûģ Øª
ĠÂ ½
il gan
Ġc i
ie w
x i
ŀ à¯įà®ļ
ĠÐ° ÑĢ
Ġzbek iston
om a
Ġà¤® à¤¹
à´¸ àµįà´¥
à¦¾à¦ Ĥ
Ġt ÉĻr
ë¬ ´
Ð² ÐµÑĤ
à§ģ à¦ķ
ìļ ¸
ä¸Ģ ä¸ª
er n
Ġr end
ĠÐºÐ¾Ñĺ Ð°
à±įà° §
Ġcs ak
Ġt ur
Ġà´ķ àµĤà´Ł
isch en
Ġì ¶Ķ
Ġd ago
àª¤ à«įàª°
ĠÐ´Ð°Ð² Ð»Ð°ÑĤ
à´Ĥ à´Ĺ
ĠáĥĴ áĥĲ
Ñĥ Ðº
el en
Ġà®İ à®¤
Ġv Å¡
ĠÐ §
ãģ¨ æĢĿ
Ð¾Ð» ÐºÑĥ
à¹Īà¸ §
nie j
áĥĲáĥª áĥĺáĥĲ
à«Ĥ àª°
à´¨àµįà´¨ àµį
Ġni pa
ÑĬÐ»Ð³ Ð°ÑĢ
ĠØ§ Ùı
ãĥ į
Ð¶ Ð´
Ġpor no
Ġà®® à¯Ĥ
à¦¨ à¦¾à¦°
ãĤ¹ ãĥĪ
Ġ á
ag an
ÏģÎ¿ ÏĤ
Ġà´µ àµįà´¯
Ø§Ùģ Ø©
´ Ī
ÛĮÚ© Ú¾
Ġdi bdib
Ġà¤µ à¤¾à¤²
A R
à¤¾à¤ ¬
Ġm ata
in ya
Ø± ÙĤ
à§ĩà¦ ľ
ĠE in
f e
àª¨ àª¾àªĤ
Ð³ Ð°ÑĢ
Ġ×¨ ×Ĳ
ĠÐ± ÑĢ
al la
Ð¸Ð» Ð¸
ÏĪ Î·
à¤¾à¤¯ à¤¾
ĠÄĳá»ĵ ng
ĠÐ± ÐµÐ»Ð°ÑĢÑĥ
Ø§ÙĨ ÙĬØ©
Ú© ÙĦ
ÅĤ ad
Ġe fter
à´¤àµįà´¤ à´¿à´¨
à¤¸ à¥Ģ
Ġàªķ àªĤàª
Ð°Ð³ Ð°Ð½
áĥĶáĥ ¤
Ġme er
Ã ĥ
à´¯ àµįà´ķàµįà´ķ
ĠÐ¸Ð· Ð¿
Ġà°µ à°ļà±įà°ļ
áĥĺáĥ£áĥ ļáĥĺ
Ø§Ø® Øª
ĠÛ² Û
ĠM ar
ĠÎ¼ Î¿Ïħ
p os
ÏĦ ÏİÎ½
Ð°Ð¼ Ñĥ
á»ĳ t
Ġà°ļà±ĩà° ¸à±įà°¤
Ð°ÑĤ ÐµÐ»
à°¿à°² à±įà°²
ĠÐ¿ Ð¾Ð¼
ti k
Ġts o
Ð¾ÑĤ Ð¸
anya k
ÑģÐº Ð°Ð³Ð°
Ġku h
b ÃŃ
àµģà´ķ à´¯
am ente
à´£ àµįà´£
àª° àª®àª¾àªĤ
èµ Į
ĠÙĤØ± Ø§Ø±
Ġc um
à¦¾à¦¤ à§įà¦°
è į
à«ĩàª ¬
Ġale bo
Ġna j
åĨ Ĩ
×ŀ× ©
Ġà¤² à¤Ĺ
ĠØ´ Ø±Ú©Øª
Ġë ©
×Ļ ×ķ×Ł
Ġáĥ¥ áĥĲáĥļ
Î¸Î· ÎºÎµ
for m
åĽ ŀ
çĽ ®
Ġi tem
Ð¾Ð»ÑĮ ÑĪ
Ð¼ Ð°ÑĤ
à§įà¦ Ľà§ĩ
Ã¼ y
Ġà¦¨ à¦¿à§Łà§ĩ
ĠØ§ÙĦØ¹ Ø±Ø¨
Ġà¦Ľ à¦¿à¦²
Ġàª¸ àª¹
ĠÙĦ Ùĩ
di m
b ilir
Ġy Ä±l
ĠåĪ Ĩ
ĠØ· Ø±ØŃ
Ġ×ľ ×ª
Ġc os
ĠÃ¼ z
v el
Õ¥ ÖĢÕ
Ġà®ĩ à®Ł
ĠÐ° Ð¿
×Ĺ ×ª
é¦ ĸ
it t
å± Ģ
Ġl agi
Ð½Ð¾Ð³ Ñĥ
ĠÚ© ÙĨØ¯
à¦¸ à§įà¦¤
ĠÐ´ Ð¾Ð±
Ġé Ģ
Ð¸Ñı ÑĤÐ°
Ġe d
Ã© ben
ĠÔ ±
ÑĨÑĸ Ñı
ĠÃ© v
ÙĪ Ø§Ùħ
ÙĬ Ø«
Ġáĥ¥ áĥĲáĥłáĥĹ
Ġà¤ª à¥Ĥ
àªķ à«ĩ
ÑĤ Ñı
à®© à¯Ī
æµ ĭ
ĠØ± Ø§Ùĩ
Ġwir d
áº ¸
Ġë ķĮ
Ðº Ð°Ð½
ĠØ§Ùģ Ø²
áĥĲáĥ ©
Ð°Ð² Ñĸ
à°¾à°¨ à±ģ
unÈĽ uri
Ġti ka
à°¸ à±į
à«ĩàª ¦
Ġàª¨ à«Ģ
ÄŁ u
ĠÐ¿ Ð°Ñģ
Î¹Îº Î¿Ïį
Ġza idi
áĥĲáĥķ áĥĺ
ti co
Ġàªļ àª¾àª²
lo w
ÏĢ ÎµÎ¹
ë§ ¤
Ġâ Ĥ¬
æº Ĳ
ëł Ī
ika li
Ġàªª àª¾àª¸
ĠØ£ Ùĥ
ÅĨ em
Ġthe o
Ø´ Øª
Ġe o
áĥĲáĥĿ áĥĳ
à´£ àµįâĢį
Ġpar as
à«ĭàª ¸
à°² à°¾
Ġpre d
ãĥĥ ãĥĹ
ĠP Ã«r
ĠG ali
d ag
Ø¬ ÙĦ
Ġa iz
ĠÙĨ ÛĮØ²
ç¤ ¾
wa la
Ġor az
ci os
is et
Ġà´ħ à´¨
am an
Ġn á»į
Ð°ÑĤ ÐµÐ»ÑĮ
ĠÑģ Ñŀ
ë Ķ
r ar
à«Ģàª ¡
ł à¸
Ġc Ã²n
t el
Ġàªľà«ĭàª Ī
Ġt ud
Ġàªª à«ĭàª²
à®£à¯įà®Ł à¯ģ
ĠÛģ Ø±
à®¿à® ª
Ġku s
Ġ×Ļ ×ķ×ª×¨
ãĥķ ãĤ
à¦¿à¦ķ à§įà¦·
×¢ ×ķ×ª
v an
ĠÙĤ ÛĮÙħØª
Ġáĥķ áĥĶáĥł
ĠáĥĴ áĥĲáĥĺ
Ġë Ħ
ĠÛģ ÙĪÚº
Ġl gan
à«įàª ¬
ang e
Ġmá» Ľi
c ut
ĠIn d
à¹ī à¸Ńà¸ĩ
ĠëĤ ¨
Øª Ùī
Åĳ k
áĥľ áĥĿáĥĳ
ĠÐº Ð¾ÑĢ
am bo
ki wa
à®® à®¾à®©
Ġà¤ħ à¤§
Î¿Î¹ Î½
ÏĦ Î¿Ïħ
ĠÐ´ ÐµÐ»
Ø¬ ÙĪØ¯
ĠD as
Ġt yre
Î» Î¹
Ïģ Î¯Î±
Ġà®ļ à®¿à®±
á»© ng
à´¿à´¯ àµģà´ŁàµĨ
b wa
Ġ×ŀ× ŀ×
Ġo t
v u
Ġàª¨àª¹ à«ĢàªĤ
Ġn ous
Ġáĥŀáĥĺáĥłáĥ ķ
á»ĳ n
Ķà¸´à¸ ¡à¸ŀà¸
ĠÑģ Ñı
àµģà´® àµįà´ª
àªµ à«ĭ
ĠK h
ÛĮØ§ Úº
et u
ol l
à«ĩàª¶ àª¨
Ġà¦¬à§įà¦¯ à¦¬
Ġp u
Ð°Ð´ Ñĭ
k t
Ó Ļ
ĠÐ´ Ð·Ðµ
ĠÐº ÑĢ
Ġwa ke
æ §
g at
li ca
sh i
ĠS u
ĠÐ² Ð¾Ð·
Ġp ono
ĠÙ¾ Ø§ÛĮ
ĠÙĨ Ø§Ùħ
ë¡ Ŀ
z k
íĨ µ
ĠG r
Ġt x
ĠØ´ Ùħ
Ġà¤ľ à¤¾à¤¤
Ġu y
à§ĭ à¦²
ĠÎĳ Î½
Ġn Ãªn
Ġz ir
Ġàªķ àª²
à°¾à° ³
à®Ł à®¿
í Ĥ
Ġà®ĩ à®²à¯įà®²
ÏģÎ¯ Î¿Ïħ
ç ģ
Ġjs em
Ġna man
Ïį ÏĦÎµ
ŀ àµįà´ļ
Ġëį Ķ
ĠÐº Ð°Ð½
Ġìĸ ´ë
Ġs á»Ń
àª° àª£
p res
iá»ĥ n
éĿ ŀ
Ġ Ã¡l
ĠÙĪ ÙĤØª
Ġà¤Ĩà¤£ à¤¿
Î»Î¿ ÏĤ
la ma
ĠkÃ¤ y
Ä«g i
p h
Ġt ie
ĠÐ´ ÑĢÑĥ
Ġa ir
Ġv ie
åº Ĺ
ĠÃ ´
ĠÐ½ Ð¸Ð²
×ĳ ×Ļ
Ġë° ľ
s sÃ¤
ĠâĢ ķ
Ġp ra
w ia
ãĤ ±
ãĥ Ģ
Æ°á» Ł
à¤°à¥įà¤ ®
Ġà®Ĩ à®©
Ø§ÙĦ ÙĬØ©
Ġp un
à¥Ģ à¤¨
ÐºÑĸ Ð²
Ġd á»±
ĠØ§ÙĦØ¹ Ø§Ùħ
Ð¸Ñĩ Ð°
ĠÑĢ Ð¾Ð±
æ ·
Ġdu het
à¯ģà® ²
Î¼ Î¿Ïį
áĥĲáĥª áĥĺáĥĺáĥ¡
s on
à°¿à°Ĥà°ļ à°¾à°°à±ģ
m iÅŁ
Ġc Ã¡ch
ÏĢ Î¹
Ġm Ã©g
ĠtÅ¡ e
Ã¡s a
ak ukan
Ġn ÉĽ
Å¡ ie
Ġà¤® à¥Ī
áĥľ áĥĲ
ä» ĺ
Ġè ¯
æĴ Ń
à°¨ à±įâĢĮ
Ġãĥ ķ
Ġà´¤ à´¨àµįà´¨
ãģł ãģĳ
Ħà¸¸à¸ ĵà¸
Ġein en
Ġ ãģ®
Ġfo i
Ġà®® à¯Ģ
Ġb ru
ĠØ¨ Ùħ
r in
Ġ×ķ ×Ľ
áĥľ áĥĶáĥļ
ĠÐ¾ Ð²Ð°
Ðł Âµ
Ð¼ Ð¾ÒĽ
c at
ÏĮ Î³
è ĥ
ik ka
ĠÑĩ Ð°Ñģ
á»ĵ i
à´° à´Ĥ
Ð¾Ð»ÑĮ ÐºÐ¾
Ġ20 20
Ġth áº¿
åº Ĩ
ĠØªÙĪ Ø³
âĢ į
ÙĬ Ø¨
ĠÑģÐµ Ðº
ĠáĥĽ áĥĵ
åį ģ
sk ie
Ø§Ø ¤
Ġs iz
ĠÃ¶ l
ov Ã¡
Ġo vat
Å¯ j
y Ä±
×ľ ×ª
Ð»Ð¸Ð³ Ð¸
à¯ģà®ķ à®³
à°¿à° ¦
Ñľ Ð¸
íķ Ń
Ġe dir
ĠÐ· Ð²
ut ako
Ġn ang
Ø± Ø§Ø¡
Ġ0 2
æĦ Ł
Ðº Ð¸Ð»
Ġish te
ÙĬ Ø§ÙĨ
l ÉĻt
ĠÅ ł
Ġà¤¬ à¤¨
Ø¹ Ø¨
Ġc Æ¡
à¯ģà®µ à®¤
ĠØ§ ÙĪÙĦ
à¥ĩà¤ ĸ
ĠØ§ÙĦ Ø§ÙĨ
Ġm ere
Ġzu en
Ġba ada
×¤ ×ª
ë ¯¼
Ġáĥ¡áĥĲáĥ ĳ
è¢ «
ĠØ¨ ÚĨ
Îµ Îº
ÙĪ ÙĨØ¯
ÙĨ ÙĬØ©
Ł ³
à°¾à° ·
Ġar te
åľ° åĿĢ
ĠØ´ Ùĩ
Ġá¹£ i
ĠãĤ ·
q ar
O N
ĠE k
Ġse u
Ð°Ð½ ÐµÑĤÐ¾
ä¸ ľ
Ġa a
ĠÛģÙĪ Ø§
Ä± x
ĠáĥĴ áĥĲáĥķ
ç ¬¬
Ġk ell
à®¿à®¤à¯įà®¤ à¯ģ
Ć ć
Ġsom e
Ġàª°àª¹ à«Ģ
à´ķàµįà´ ¤
ç ¦
Ġa ux
ĠG i
ĠØ¬ Ø§
y la
à´¨àµįà´ ±
à¦¾à¦ľ à¦¾à¦°
Ġh ely
en do
Ġà®ķ à®²
Ġà¤° à¤¾à¤ľ
ĠÑĪ Ð°Ò³
Ġâ ľ
d Ã©s
Ġk em
Ġà®ļà¯Ĩà®¯ à¯įà®¯
zi k
Ð¸Ðº Ð°
Ġr áº¥t
à¯ģà®ķ à®³à¯į
ÉĻs indÉĻ
l Ã¡
Ġàª¦ à«ĩàª¶
Ġ×© ×ł
Ġk el
ĠÃ ī
ä½ ¿
Ġë° ı
à¦ ŀ
ĠJ e
àª¾àª¨ à«ģàªĤ
Îµ Ïĩ
Ġsi g
© áĥĶáĥķ
à«Ģàª ª
ĠV i
à¸Ńà¸ ļà¸
Ġà°ħ à°¨à°¿
Ġpo li
ĠE esti
Ã ĩ
Ð°ÑĤ Ðµ
Ġà®¨ à®¿à®²
æ¬ ¢
Ð´ Ð°Ð³Ð¸
Ġà¦¥ à¦¾à¦ķ
à¤ ¥
Ġàªľ àª¾àª¯
Ġà°° à°¾à°ľ
an ti
to tt
Ð¾Ð² ÑĸÐ´
à¥ĩ à¤²
ĠF or
ĠØ§ ÙħØ§
Ġà´ħ à´Ł
Ġkuto ka
Ø§Ø² ÛĮ
å ŀ
am bi
Ġà° ĵ
à±ģà° Ł
ÛĶ ÛĶ
ĠãĢ Ĭ
ti l
ov an
ĠÙĨ ÙĪ
çĻ º
Ġkan n
ÃŃ n
v iew
à´ ¥
ļ à°¿
Ġt elah
Î ĵ
id up
áº¹r áº¹
ĠÑģ Ð¸ÑĤÐµ
Î»Îµ Ïħ
Ġv ol
àªµ àª¾àª°
å¾ Ī
Ġge b
à¯ģà® ļ
ti in
Æ°á»Ł ng
Ã¸ j
Ã© re
Ġà®ª à®¯
Ġà°Ĺ à±ģà°°
Ã ģ
Ġthá» Ŀi
Ġla in
Ġ×Ķ ×Ļ×Ķ
Ġz um
Ġof f
à´°àµįâĢį à´ķàµįà´ķ
Ð°Ð¼ Ðµ
Ġh an
à°¸ à±įà°Ł
Ã ı
ĠÃ £
b eit
ye v
Ġe tsa
ãģª ãģı
N o
ĠÂ ³
m Ä±ÅŁ
ÎĻ Îĳ
ĠìĽ Ĳ
Ġà¤ħà¤ª à¤¨à¥ĩ
§à¸ ±à¸Ļ
d Ã«r
Ġth Ã´ng
Ġha q
Ø¨ Øª
Ġà®µà¯Ĩ à®³
ĠÙĥ ÙħØ§
ĠàªŁ à«įàª°
ah il
Ùģ Ø¶
ĠàªĨ àªĹ
Øª ÙĪØ§ÙĨ
Õ¡Õ¯ Õ¡Õ¶
ĠÐ ¦
è Ļ
d uk
Ġkul lan
ho z
ĠØ§ÙĦØ£ Ùħ
Ġmo et
Ã¶ tt
uj ar
os sa
ĠØ¢ Ø¨
Ġker ak
ke j
ĠD it
de o
Ġ ãģ¾
ç¤ º
à¯Īà®ķ à®³à¯į
ÙĬÙĨ Ø©
Ġà°ª à°°à°¿à°
ľà¸¹ à¹īà¸
×ŀ× ¦
Ð°Ð¼ Ð°
Õ ¯
ĠÐĳ Ñĥ
Ġà®¤ à®²
áº¡ nh
×ĵ ×Ķ
Ġà®ĩ à®µ
áº¿ u
ç§ į
Ġt Ãµ
ĠÑģ Ð²Ð°
Ġàª¬ à«ĩ
g r
Ġm or
âĢ Ļ
Ġh Ã¬nh
çĿ Ģ
ĠØ£ Ø³
Ã© ly
ì² Ń
Ġàª¤à«ĩ àª¨à«ĩ
ĠÐ¿ÑĢ Ð°Ð²
ĠØ¨ Øª
à´¤ àµįà´°
Ġt yÃ¶
Ġàª¨ à«ĭ
te ik
à´¤àµįà´¤ à´¿à´¯
ah r
ĠÚ¯ ÛĮ
ĠÐ¿ Ð°ÑĢ
Ð½Ñĸ ÑģÑĤÑĮ
ow n
Ð² Ð°Ð½Ðµ
ÑĤÐ¸ÑĢ Ð¸ÑĪ
v Äģ
Ġtr Æ°á»Ŀng
ci as
Ð¸Ð¼ Ð¸
un ha
àªµàª¾àª¨ à«ĭ
Ġl an
Ġx e
ĠÎºÎ± Î¸
Ġthá» ±c
à±ĩà° ®
ãĤ º
ĠØ± ÛĮ
ì§Ģ ë§Į
Ġre c
ÑĨ Ð¸ÑĺÐ°ÑĤÐ°
ĠÐº Ð°Ð¼
à¥įà¤¯à¤¾à¤ ļ
å¦ Ĥ
Ã© es
à¹ĥà¸ «à¸
Īà¸²à¸ ģ
åħ ¶
ì° ¨
à¤Ń à¥Ģ
ĠÙĤ Ø¯
ar an
Ġìĭ ¤
ĠPor no
ĠØ§Ø ·
as s
Ġê± °
ĠÙ¾ Ø³
ÙĪ ÙĬØ©
àª°à«įàª £
äº Ľ
ĠÙģÛĮ ÙĦÙħ
ĠÙĨØ¸ Ø±
Ġà®®à®±à¯įà®± à¯ģà®®à¯į
ÙĨ Ù¹
à¦ ī
Ġw el
ĠÐ½ Ð°Ð¹
Ġà¦ķ à§ĭ
ad es
ĠãĤ «
Ġàª¤ à«įàª°
ĠØ§ ÙĪ
×¨ ×ĺ
z Ã³
×Ľ ×ķ×ľ
ĠÐ² Ð°Ð·
le mo
Ġyo ki
Ġf Ã¸r
ĠÚ© ÚĨÚ¾
ķ à¹Īà¸
æķ Ļ
à°¤ à±įà°¯
Ñī Ð°
Å¡an u
ĠÏĥ Î·
ãĥ ¯
á» Ĺ
are kin
S T
à«Ģ àª¨à«Ģ
un un
à¦¿à¦ķ à§ĩ
ĠãĤ ³
ìĸ ´ë
à¹Ģà¸ ¥à¸
Ġb Ã«
æł ·
à«ģ àª¸
è¶ ³
ìĹ Ī
Ġz er
Î² Î±
ĠØ§ÙĦØ£ Ø³
Ã¡ j
is z
Ð°Ð¹ Ð´
Ġë§ Ĳ
Ġh Ã¤r
ÏĦ ÎŃÏĤ
ĠÐ¢ Ð¾Ò·Ð¸Ðº
Î¼ÎŃ Î½Î¿
ÙĬ Ùĥ
ĠÐ² Ñı
Ġper o
Ġà¤Ń à¤¾à¤°
ung an
ãģ§ãģĻ ãģĮ
è¯ ·
àµģà´ķ à´³àµįâĢį
a v
Ġg et
Ġ2 5
ĠÚ¯ Ø°
si on
ĠëĤ ´
Ġp ir
Ġthá» ©
æĽ ´
lar da
ãĤĤ ãģ®
à¸² à¸£à¸
ìŀ ĳ
Ġjs ou
í Ŀ
å ²
Ķà¸ ¥
amb Ã©
Ġà¦ķ à¦¿à¦¨
Ġè µ
Ġà´ķ à´¾à´°
Ġàª¤à«ĩ àª¨àª¾
ur o
ÐµÑĪ Ðµ
s ka
Ġpag g
Ġk arena
ĠÕ «
ĠÐ° Ð²
ĠØ¯ ÛĮÚ©Ú¾
Ã¶ y
Ġàªķàª¹ à«įàª¯à«ģàªĤ
à¤¾à¤ £
ëĤ ´
H A
Ġm Äģkou
Ø§ÛĮ ÙĦ
Ð°Ð½ Ð½Ðµ
Ð» Ð¾Ò³
Ġà¦¬à¦² à§ĩà¦¨
Ġa gb
ing en
ĠÐ´ Ð·Ñı
Ġword t
Ñħ Ð¾Ð½
Ġàª® à«Ĥ
à¤ ł
c te
Ġm utta
ĠÃ§ alÄ±ÅŁ
Ġ Ã¤
ĠØ² Ùħ
Ġn di
li r
si one
b ÄĽ
à® ¨
Ġà¦ı à¦¸
à«Ģ àª®àª¾àªĤ
à¹Ģ à¸£à¸
Ġl u
dad es
ĠR om
n et
èģ Ķ
al Ä±
Ġ×ľ ×Ļ
Ġ ÑĨÑĸ
ĠK wa
Ġac est
Ã Ī
Ġs Äħ
à¯įà®ª à¯įà®ª
ç§ ĳ
ê· ¸
ĠÃ¶ ver
ĠØ´ Ø±
es ch
à°¯ à±įà°¯
Ġmen jadi
Ð¾Ð² Ñĭ
ĠØµ ÙĪØ±Øª
ĠÙĪ ØŃ
Ġk imi
ĠÐ¿ÑĢ Ð¸
ĠÄĳ iá»ģu
Ġvo cÃª
b ro
à¯įà®ļ à®¿
×¤ ×©×¨
à¯ģà® ´
le ÅŁ
à´± àµĨ
Ïĥ Î¯Î±
ri m
ĠØ®Ø± ÛĮØ¯
j Ã¤l
à¤ķ à¥įà¤¤
Ġm es
ĠÃ ª
ê¸ ī
Ġc or
ÑģÑĮÐº Ð¾ÑĹ
f at
Ð½Ð° Ðµ
Ã Ĥ
ing i
tÄģ j
à±Ģ à°¯
Ø« ÙĦ
ĠØª ÙĪÙĦ
ĠÙĪØ§ÙĦ Øª
×ĸ ×Ķ
àªĹ àª°
Ġgi bi
Ð¸Ð³ Ð°Ð½
ķ à¸²à¸
Ð½ Ð¾Ð¼
Ġà´ ķàµįà´ķ
×Ļ× ŀ×
Ġti m
à¯įà® ¸
à°¿à° ·
æĢİ ä¹Ī
l Åĳ
ĠA us
it ate
Ġterse but
Ġt in
ĠãģĿ ãģ®
Ñİ Ð´
ĠÄ «
ĠN Äģ
ë¬ ¼
àª°à«įàª ¸
ĠÚ¯ Ø¦ÛĴ
ĠÂ ´
ĠÊ» ia
à¸Ńà¸£ à¹Į
Ø° ÙĦÙĥ
ĠÐ· Ð°Ðº
ing s
ÃŃ s
éĻ ¢
Ġk Ã©p
âĢ ¦
à°ķ à±įà°¤
le ment
¥ ¼
Ġbe z
Ġmin den
Ġn j
Ġs ou
à±Ĩ à°Ł
ĠAl lah
«à¸ ¡à¸
á»ķ i
ĠÐ ĸ
Î½ Ïī
Ð´ ÐµÐ»
Ġ2 2
à°¾à° ¹
×¡ ×§
Ġà´ķ àµģà´±
ĠØ§ÙĨ Ø¬
un akan
±à¹īà¸ ĩà¸
Ġ×ŀ ×Ļ
¥ à¸´à¸
Ġmem ili
à´¨àµįà´ §
Ġka zi
ua j
ì ¸
Ġà´ļàµĨà´¯ àµįà´¤
es c
Ġàª¶ à«ģàªĤ
ĠØ´ ÙĨ
Ã¦ g
Ġb anyak
àª¾àªĤ àªļ
±à¹īà¸ ĩ
·à¹Ī à¸Ń
Ġtu le
ĠJe ho
ĠÂ µ
ÅĤ e
ÛĮÙĨ Ùĩ
Ġp an
ĠH e
ĠÐ± ÑĬÐ´
en ye
ak Ä±
ĠÚ©Ø± Ø¯Ùĩ
Ã¼ ck
ĠØ¹ ÙĨØ¯
Ġà¦ķà¦° à§ĩà¦¨
ĠØª Ø¬
ĠÃİ n
ĠÐ¿ÑĢ Ð°Ð´
Î¬ Ïģ
Ð°Ð½ Ð¸Ñı
ãĥ Ŀ
b al
et to
ãĤĮ ãģ¦
Ġàª¨ àª¾àª®
ĠvÃµ im
ĠÐ°Ð± Ð¾
l ang
ov Ã¡nÃŃ
àª° à«ĭ
ĠÒ³ Ð°ÒĽ
Ġm on
k Ã¤
à®¾à®³ à¯į
Ġà°µ à±Ī
ĠÙĦÙĦ Ùħ
h ur
×ķ×ł ×Ļ
re e
is te
ÑģÐº Ð¸ÑĤÐµ
à¯Īà®¯ à¯Ī
Ġàª® àª¨
ul l
Ð¸Ð ¶
ÏģÎ¿ Ïį
àª° àª¸
åİ »
èĢ ģ
åĪ Ĺ
Õ¥ Õ¶
Ġh is
ĠÎ¼Îµ ÏĦÎ±
Ġq a
Ġà¦¸à¦® à§Ł
ĠG e
ÐµÑĢ Ð¶
Ġæľ ī
Ġv ÄĽ
z ko
Ġett er
ĠÐ¢Ð¾Ò·Ð¸Ðº Ð¸ÑģÑĤÐ¾Ð½
æİ Ĵ
ti c
ĠÙħ Ø³Øª
ĠgÃ¶r ÉĻ
Äį i
à«įàª¯ àª¾àª°à«ĩ
Ġà¦ªà§įà¦° à¦ķ
Ġso bre
Ġtim bang
à¤¤ à¤¿
Ġà¦Ĩ à¦¬
b at
Ã¶ z
Ġà¦° à¦¾à¦ľ
Ġà¦¦ à§ģ
ÙĪÙĨ Ùĩ
en cia
¦ à«įàª°
Ġà¸ ļà¸Ńà¸¥
Ð»Ð°ÑĢ Ð³Ð°
ÑĥÐ± Ð»Ð¸Ðº
Ġni p
ĠÒĽÐ¸Ð» Ð¸ÑĪ
et ti
Ã«s i
Ġàª¬ à«ĭàª²
Ġ×ľ×Ķ ×ª
Ã«n Ã«
r ie
ĠÐ¿ Ð¾ÑĢ
Ġques to
Ñİ Ð²
y n
ĠÑı Ð³Ð¾
Ġ <
Î³ÏģÎ± ÏĨ
ÙĨ Ø¬
Ð¾Ð»ÑĮ ÐºÑĸ
Ġh er
Ġs udah
ÑģÑĮÐº Ð¾Ð³Ð¾
ĠÑıÐºÑĸ Ñı
t uar
³à¸ «
m s
Ġno g
å¸ ¸
le g
ĠØ¨ ØŃ
qu i
Ġàª° àª®
ĠÐ²Ñģ Ð¸Ñĩ
ãģ ¹
ĠM A
ĠÙħ Ø§Ùĩ
Ġur te
è Ħ
à§ĩà¦Ľ à¦¿à¦²
ĠØ§ÙĦØ ¢
Ä« s
íĻĶ ìĿ´íĬ¸
×ľ ×ķ×ª
Ġi f
Ġk ry
ang at
ÑĬ Ðº
å¯ ¼
p u
ÏĢ ÏīÏĤ
ĠÏĥ ÏĦ
à¤¿ à¤Ĥà¤Ĺ
b áº¹
Ðº Ð¸Ð½
ĠÙĪ ÙĦ
íĶĦ íĻĶìĿ´íĬ¸
éĺ ³
ÑĤ Ð¾ÑĢ
w er
ĠT anzania
ĺ à¸
ta m
z Äĥ
ĠÑĢ Ð´
is ke
Ġ×Ĳ ×ĳ×ľ
ho d
Ġ ä¸Ń
ich a
å¾ ĭ
ĠØ¹ Ø§Ùħ
ÏģÎ± Î³
ĠâĢ ¬
uri le
Ð°ÑĢ Ð¾
as áº¹
be id
Ñĸ ÑĪ
å¯ ¾
à¤ ·
el ho
à« §
ĠAn unÈĽuri
à¦¿à¦ ·
Ġíĺ Ħ
Ġl akini
ĠL i
Ġà¤¦ à¥ĭ
Ġà´® à´¨
ĠØŃ Ø³
ļ à¸£à¸´à¸
er d
iy at
Ġo ther
ow i
ÑĢ Ð°Ð±
da l
l Ã¼
n es
ir an
å¸ Ī
Ġk r
ÃŃt Ã©s
×Ļ×ľ ×Ķ
u ts
Ġ0 1
Ġà¤® à¤¿à¤²
nos Å¥
p r
Î¿ Ïģ
Ġí ĽĦ
Ġà§ «
ĠÐ¶ Ñĭ
k at
ĠÂ ¼
Ġse va
Ġàªķ à«ĩàªŁàª²
ÑĢ Ð°Ð·
Ġàª¤à«ĩ àª¨à«Ģ
lij ke
iti on
Ġå ¯
ĠÎ± Î³
Ġãģ Ĥ
Ġal t
ĠÐ¼ Ð°Ñģ
éĹ ®
àµģà´Ł àµįà´Ł
Î Ķ
Ġdet te
Î² Î¬
à§ĩà¦² à¦¾
li t
à§įà¦¯ à¦¾à¦²
ĠØ Ľ
Ġes c
Ú© Ø§ÙĨ
àªª à«įàª°
Ġà´ £
Ġo wo
Ġno ch
Ġà¦¬à¦¿à¦¶ à§įà¦¬
å¾ Į
é ¤
Ø§Ø °
ĭĹ ä¸ĩ
asi da
Ġë°Ķ ì¹´ëĿ¼
as ti
Ð°Ð´ Ð°
ĠÑĨ ÐµÐ»
Ġ×Ķ× ĺ
æ »
ĠØ§ÙĦØ³ ÙĬ
Ð¸ Ò³
ĠÙĪ Ø¥
ĠÃ¶ s
Ġj ako
ãĤĬ ãģ¾ãģĻ
Ġp Äģ
Ġt ym
c ara
æ ¨
ĠÎ ¡
ÑĨÑĭ Ð¹
ĠÃ Ķ
Ð°Ð² Ð°ÑĨÑĮ
Ġl ik
ì ¤ĳ
æĮ ģ
ãĥ ¢
Ġ×ŀ× ¤
l Ã³
ĠD er
Ã³ ÅĤ
Ġàª« àª¿àª²
à«įàª¯ à«ģàª
Ġle g
ĠãĤ µ
ed d
à· Ĵ
Ġto e
à¦¤ à§įà¦¤
Î¸ Î®
æ± Ł
ĠØ§ÙĦ Ùī
Ġ×ĳ ×Ĵ
ŀ à¸Ļà¸
n Ãº
Ġy i
Ð½ ÑĮ
ĠÑģ Ð¼
Ġya ÅŁ
ìĨ į
¶ Į
à¹īà¸ §
ĠÐ±ÑŀÐ» Ð³Ð°Ð½
Ġs atu
ĠàªĨàªľ à«ĩ
h n
Ġä» Ĭ
Ð°Ð½ Ð¸Ðµ
Ġth ere
ĠÙĬÙħ ÙĥÙĨ
Ñħ Ð°
m Ã¤n
æľĢ æĸ°
r ag
ĠJ a
os e
ĠT i
Ġà¦ķ à¦¥
Ġhier die
Ġè ®
æľ ¯
à¤¾à¤ ł
ìĻ ¸
Ġà§ ¦
ĠÎº Ïħ
c ul
å§ Ķ
à¥ĩ à¤¸
ĠÐ¼ Ð½Ð¾Ð³Ð¾
ĠInd onesia
Ġka p
Ã¸ n
ĠØ§ÙĦÙħ Ø³Øª
à¥Ģ à¤²
Ġhi vyo
Ġgr atis
Ö ·
Ġh j
ĠÙĩ ÙĬ
Ïħ Î½Î±
ĠØ¨ Ø³ÛĮ
çľ ģ
ĠÐ· Ð°Ð¿
Ġ) .
ì µľ
Ã¶ k
Ġha e
re a
à¸´ à¹Ģà¸
ed en
à¤¾à¤¨ à¥Ģ
it Äĥ
×ķ×¨ ×Ļ×Ŀ
Ġz gj
Ġt Ã¶r
Ġà¤² à¥ĭà¤Ĺ
i h
Ġë Ĭ
Ķà¸´à¸¡à¸ŀà¸ ±à¸Ļà¸
Ġt as
áº¡ ng
Å¡an Äģs
æĹ ł
Ġein er
ÙĪ Ùĥ
g Ã¡l
Ġàª¤à«ĩàª ĵ
Ġq ili
Ġ×ĳ ×¤
per ti
Ġì ¶
Ĵ áŀ
Ġà¤ķà¤¹ à¤¾
ãĥ Ļ
×Ĺ ×§
Ġge Ã§
Ñģ Ð»Ð¸
ä» ·
Ġä½ Ĩ
æĺ Ł
Ġal le
vi en
ĠÂ ±
ĠØ§ÙĦØ¬ Ùħ
ķ à¹īà¸Ńà¸ĩà¸
ĠMo dimo
Ñĸ ÑĨÑĮ
Ġw p
à¹ģà¸ ļà¸
Å£ ii
Ð° Ð°ÑĤ
Ġle b
í Ĺ
Î¼Î± ÏĦÎ¿ÏĤ
æ´ »
Ø´ ÙĪØ¯
ĠØª ÙĤ
à¥ĭ à¤ľ
el f
ek et
h la
ut as
ĠCa ut
Ïĥ ÎºÎµ
Ø§Ø± Ø§ÙĨ
Ġà¤ķ à¤®
ĠæĹ ¥
ĠktÃ³ re
Ġwh en
ĠÐ¼ Ð¸Ð»
Ðº Ðµ
¸à¸ ķà¸
ĠM e
Ø§Ø±ÙĬ Ø®
Ġq i
àª£ àª¾
li m
Ð¸Ñģ Ð¸
á¹£ i
Ġm arr
ĠÙĪ Ùİ
n ud
ĠtÃ¶ bb
Ð½Ñĸ Ð¹
Ġha u
h in
Ġà¤® à¥ģ
l and
éľ ¸
Ġzir en
çº §
= =
z zo
uska l
ar dz
Ġà¤¬ à¤¾à¤¦
ĠØŃ Ø§ÙĦ
Ġh ari
I N
ar io
à¹ī à¸Ń
Î¹Îº ÎŃÏĤ
ëŀ Į
à¹Ģà¸ Ĥ
1 3
ĳ åħĭ
Ġd ah
å·¥ ä½ľ
Ġp ue
Ġà§ ª
Ġà¤°à¤¹ à¥ĩ
à¹Ĥà¸ ¡à¸
ê° ģ
Ġ' ).
ÏĦ Ïī
á»ĵ ng
r an
Ġp ea
ÑįÐ½ ÑĤ
ag un
å¼ º
ÄŁ a
Ġvi Ãªn
Ġà¤¤ à¤ķ
Ġà¦ı à¦®
ĠàªĨ àª°
ªà¸¸à¸ Ķ
Ð°Ð½ Ð°
Ġs po
ĠkÃ¶ n
ÑĦ Ð¾ÑĢ
ĠÐ± ÑĥÐ»
ĠÑģÐ°Ð¼ Ð¾
as an
Ľà¸ ¥
Ġàª¬ àª¾àª³
åŁ º
ĠØ¹ÙĦÙĬ Ùĩ
×ľ ×ĳ
Ġ×ĳ ×ĳ
Ð°Ð´ Ðµ
Ð Ŀ
ĠN o
er ne
as Ä±nda
um ia
iá»ĥ u
Ġc áº¥p
Ġà¦ķ à¦¾à¦ľ
ç ¡
Ġfa z
Ġp il
à«ĭàª §
ĠÐ¸ Ð»
Ġs asa
Ġse o
ÑĪ ÑĤÐµ
Ñİ Ñī
Ã¶v lÉĻt
uy á»ĩn
es nÄ«
Ġàª¬ àª¾àª¦
ta ment
is u
am os
ÉĻ x
ĠÏĥ Ïĩ
Ġre view
p Ã«r
ĠI s
ì¶Ķ ì²ľ
1 5
Ġàª® àª¾àª¨
im e
ik s
Ġper Ã²
ĠB o
or t
¤ Ģ
Ð°Ð» Ñı
àª² à«Ģ
ĠØ¢ Ø²
Ġseb agai
Ø® ÙĦ
Ġà¤ī à¤ª
à¹īà¸² à¸Ļà¸
m Ã©ny
ĠØ³ Ø§ÛĮØª
Ġv z
ëĬ ¥
Ġl Ã½
à¦¾à¦ £
y an
Ġch i
Ġk ish
nÃ© ho
Ġë¶ Ħ
Ġm ar
ĠÎ¼Îµ Î³
ĠÐº ÑĬÐ¼
Ġí İ
en da
Ġbe en
à¸Ńà¸£ à¹Įà¸
Ġl Ãµ
f er
Ľà¸£à¸ °à¹Ģà¸
à¸Ńà¸ ģà¸
Ġn et
Ð¾Ñı ÑĤ
us s
Ġkh Ã¡ch
åĢ ¼
à¦¿à¦ ļ
ĩ à¸²à¸Ļà¸
ĠÎµÏĢ Î¯
li ga
Î½Î¿ Î¼
ĠÐ³Ñį ÑĤÑĭ
Ġnel la
Ġb iz
Ġd zie
Ġ×ŀ× Ĵ
Ġà¦¨ à¦¾à¦®
Ġãģĵ ãģ®
×ķ×ĳ ×Ķ
à¦¾à¦° à¦¾
Ùĩ Ø¯
ĠÐ° ÑģÑĤ
ä» »
º «
Ġmin t
Ġàªķàª° à«ĭ
Ðł Ñĳ
à§ģà¦° à§ģ
Ġêµ Ĳ
à¦¾à¦² à§ĩ
et ik
Ã¶ l
ak e
d it
Ġl Äģ
ĠK U
ĠÐº Ð¾Ð¹
m ÉĻy
Ġqu a
çĦ ¶
ĵ à¤Ĥ
Ġpag k
¹à¸ ģà¸
jÃŃ cÃŃ
Ø¹ ÙĪØ¯
ĠÐ· ÐµÐ¼
Å¾ ÃŃ
ch o
ĠU a
ĠâĢĿ ,
nos ti
Ġàªªà«ĭàª² à«Ģàª¸
Ġnip asáº¹
ÑĬÑĢ Ð¶
ĠÐ¿Ð¾ ÑģÑĤ
sk Ã©
: :
n u
Ġà¤¸ à¥Ģ
ĠÐ¶ Ð¸Ð²
ĠOn line
Ġàª® àª¨à«ĩ
à¤° à¤¾
Ġ×¢ ×ĵ
Ġber ri
æĹ ©
Ø§Ø¨ Ø©
åĸ ľ
7 8
Î´ Î®
å· §
Ġt om
Ã¸ y
à¦Ļà§įà¦Ĺ à§ĩ
Ġà¤ľ à¥Ģ
ÑģÐº Ð¾Ð¹
er ea
Ġmo Å¼
Ð½ Ð¾Ð²
Ġå ·
è® º
Īà¸ °
à¸´ à¸Ļà¸
à¦§ à¦¾à¦¨
Ġb ÄĻ
Ġs vo
gb á»įn
ĠÐ°Ð¼ Ð°Ð»
Ġp Äĵc
è½ ¯
Ġein em
å° ĳ
Ġà¦¤ à¦¾à¦¦à§ĩà¦°
à¤¿à¤ ®
Ġç ĭĹä¸ĩ
ĠBa ÅŁ
è® °
Ê»a i
ķ à¸£
Ġk Ã«r
íĺ ķ
ka Ê»i
Ñĸ Ð¼
ì½ Ķ
à¸µ à¹Īà¸
ke it
ãĥ© ãĤ¤
Ġá»į má»į
àª¾àªĤ àª¤
Ġm á»į
Ġh ÉĻm
Ñģ Ñĳ
Ã į
ÑĪ Ñĩ
m ÉĻt
ĠÙĬ ØŃ
Ġwh at
àªļ à«įàªļ
ãģĹ ãģ¾ãģĻ
ĠÛ° Û
ãģĹ ãĤĩ
Ġvá» ¥
Ġga da
Ġà¦ķ à¦¾à¦
Ġf um
le d
Ġàªħ àª¹
Ġ×¢ ×¦
ÏģÎ¹ Î½
Ġ×ľ ×¦
ba ba
ģ à¹ĩ
ĠØ± ÙĪÛĮ
Ð¾Ð· Ð¸
Õ¡ Öģ
Ã¼ t
or ang
ÑģÐº Ð¸Ð¹
Î¯ Î¿
ÙĦÙĬ Ùħ
ÑĢ Ð¾Ð²
Ġàª¥ àªĩ
Ð Ĥ
el Ã©s
ĠG j
Ġd ag
et h
Ġáĥłáĥ £áĥ¡
áĢĦáĢ¹áĢ ľ
áĢ±áĢ ĺ
áĢĬ áĢ®
± áĢĢ
áĢĸ áĢ½
áĢ¯áĢŃ áĢĢáĢ¹áĢ
ĠáģĤ áģ
áĢĶáĢ¹áĢ Ĳ
áĢ±áĢ ĳ
áĢħ áĢ¬
áĢ¸áĢ ķ
áĢľ áĢ½
áĢ¡ áĢĲáĢ¼áĢĢáĢ¹
ĠáĢ± áĢĢ
ĠáĢĻ áĢ½
áĢĢáĢ¼ áĢ®áĢ¸áĢ
áĢŀ áĢ½
ĠáĢ¡ áĢĨ
Ġáģ Ħ
áĢľ áĢĬáĢºáĢ¸
ĠáĢĦ áĢ«
áĢļ áĢ¬
ŀ áĢ¼áĢ¬áĢ¸áĢ
Ġáģ Į
áĢŃáĢ¯ áĢĦáĢ¹
áĢı áĢ¹áĢ
áĢŃáĢ¯ áĢ¸
áĢľ áĢ°
±áĢ ħ
áģ¿áĢĻ áĢŃáĢ³áĤķ
ĠáĢĽ áĢ½
áĢħ áĢ¬áĢ¸áĢ
áĢŃ áĢĻáĢ¹áĢ¸
±áĢŀ áĢ¬
ĠáĢ¡ áĢģáĢ¯
áĢ±áĢ »áĢķáĢ¬
áĢĢáĢ¹áĢ ľ
ĠáĢĶ áĢ¾
ķáĢ¼ áĢ²
áĢĲ áĢħáĢº
áģ¼ áĢº
áģ¿áĢķ áĢ®
áĢ³ áĢķáĢ¹áĢ
áĢħ áĢ®
áĢŃ áĢķáĢ¹áĢ
ļ áĢ°
áĢº áĢ¬
áĢĶ áĢ²áĢ·
áĢŀ áĢ¼áĢ¬áĢ¸áĢ
áĤıáĢ¯áĢŃáĢĦáĢ¹áĢ ĦáĢ¶
Į áĢ¬áĢĶ
áĢ¸áĢ Ĩ
áĢ±áģ¾áĢĢ áĢ¬áĢĦáĢ¹áĢ·
Ġáģ ħ
ĻáĢº áĢ¬áĢ¸
áĢ±áĢ »áĢģ
áĢķ áĢ±áĢ¸áĢ
áĢŁ áĢ¯
ĠáĢ ĲáĢ¬
áĢ¼ áĢļáĢ¹áĢ
ĠáĢħ áĢħáĢ¹áĢ
áĢĲáĢ¹áĢ ŀ
áĢľ áĢŃáĢ¯áĢ·
áĢĦáĢ¹áĢ Ĳ
áĢĶáĢ¹áĢ ľ
ĠáĢĢ áĢ¯
± áĢĢáĢº
ĠáĢĢ áģ½
áĢ±áĢķ áģļ
áĤ Ĩ
áĢ¸áĢ ķáĢ«
áĢ±áĢĲáĢ¼ áĢĢáĢŃáĢ¯
áĢĽ áĢ±áĢ¸áĢ
ļ áĢ¬áĢĢáĢ¹áĢ
áĢ½ áĢ±
áĢĲáĢ²áĢ· áĢ¡
áĢŃáĢ¯áĢĦáĢº áĢĦáĢ¶
ĠáĢ±áĢĶ áĢ¬áĢĢáĢ¹áĢ
áĢĦáĢ¹áĢ Ģ
ĠáĢĺ áĢ¬
áĢŃ áĢĻ
áģĢ áģĢ
ĠáĢħ áĢ¬
áĢĻáĢº áĢ¬áĢ¸áĢ
áĢĻ áĢļáĢ¹
ĠáĢĺ áĢ¯áĢĽ
áĢĽ áĢ²áĢ·
ĠáĢ¡ áĢĶ
Ġáĥŀ áĥĿáĥļ
ĠáģĤáģĢ áģģáģ
ĠáĥĲáĥĵáĥĲáĥĽ áĥĺáĥĲáĥľ
áĥľ áĥĶáĥĳáĥĲ
áĤ ī
ĠáĢ¡ áĢĳ
áĥĿáĥłáĥ ¢
áĥĿáĥļ áĥĿ
áĢ½ áĢĦáĢº
áĥĿáĥ ĸ
áĢľ áĢŃáĢ¯áĤĶ
Ġáĥ¥ áĥķáĥĶáĥ§
áĢ¼ áĢĶáĢ¹áĢ¸
áĢ¶ áĢ·
áĢŃ áĢĶáĢ¹áĢ¸
áĥ¡ áĥĲáĥ®
ĠáĥĹ áĥĳ
áĥ¡ áĥ¢
áĥĲáĥ® áĥĶáĥĳ
áĥ® áĥĽ
áĢĻ áĢ®áĢ¸áĢ
áĢ»áĢĸ áĢħáĢ¹
áĥĶáĥĳ áĥĸáĥĶ
áĥ£áĥ ĳ
Ġ áĤıáĢ½áĢħáĢ¹áĢ
áĥļ áĥĺ
áĢ¡ áĢŀ
áĢĿ áĢĦáĢº
áĢ±áĢ ĸ
ĠáĢħ áĢŃáĢĲáĢ¹áĢ
Ġáĥ¡ áĥ¬
áĢľ áĢ¬áĢ¸
áĢŁ áĢ¯áĢĲáĢ¹áĢ
áĥª áĥĲ
ĠáĥĶ áĥĻ
Ġáĥ¬ áĥĺáĥľ
áĢ±áĢĽ áĢ¬
ĸ áĢŃáĢ¯áĤĶ
ĠáĥĲáĥł áĥĲ
áĥ®áĥĿáĥķ áĥł
áĥĲáĥłáĥĹ áĥļ
áĥĲáĥļáĥĺ áĥĲáĥľ
ĠáĢĳ áĢŃáĢ¯
áĢŀ áĢĬáĢ¹áĢ·
ĠáĥĽ áĥĲáĥľ
ĠáĥĲáĥłáĥ ¡
áĢ» áĢ¾
áĥĲáĥļ áĥ£áĥł
ĠØ±Ûģ Ø§
ĠÙ¾ Ú¾Ø±
±áģ¾áĢĢ áĢ¬áĢĦáĢ¹áĢ¸
áĢĦáĢ¹áĢ Ļ
áĢĽ áĢ®áĢ¸áĢ
à¯Īà®ķ à®³
ĠØ¯ ÙĪØ³
Ø§Ø± Øª
ÙĦ Ø¦ÛĴ
ÛĮØ´ ÙĨ
Ġáĥ¨áĥĶáĥ¡ áĥĲáĥ®áĥĶáĥĳ
áĢ±áĢ¬ áĢĦáĢ·áĢº
à°µ à°°
áĢģáĢ» áĢĢáĢº
áĢ¯ áĢķáĢ¹
ĠáĢ¡ áĢģ
Ġà°² à±ĩà°¦
ĠáĥĽáĥĹ áĥĲáĥķ
ĠáĢŁ áĢ¯
áĢĢáĢ¹áĢ ¡
à®¿à®¯ à®¾à®ķ
áĥĵ áĥĺ
à°¿à°¤ à±įà°°
ĠáĥĵáĥĲáĥ Ļ
ĠáĢĲ áĢħáĢº
áĢ± áĢĢáĢº
ĠÚ©Ø± ÛĮÚº
à¯Īà® ¨à¯įà®¤
áĥĺáĥ ®
Ġà®ī à®Ł
áĥĿáĥļ áĥĿáĥĵ
Ø§Ø¦ ÛĮÚº
Ġà®µ à®¿à®Ł
Ġáĥĺáĥľ áĥ¤
áĢŀ áĢĬáĢ¹áĢ
ĠáĥĽ áĥĲáĥĺ
áĢĢáĢ¹áĢ Ĳ
ĠØ· ÙĪØ±
à°¾à°² à°¿
ĠØ§Ùħ Ø±ÛĮÚ©
Ħ áĢ¼
ĠÛģÙĪ Ú¯
áĥĿáĥĳ áĥĲáĥ¡
ĠÙħØ³ ÙĦÙħ
Ġà°Ĩ à°¯
»áĢķ áĢ³
¡ à°¿
Ġáĥ« áĥĲáĥļáĥĺáĥĲáĥľ
ĠáĢĨ áĢĽáĢ¬
à°¿à° ļ
à±Ģ à°²
Ġà® ĵ
áĢĢáĢ¹áĢ ħ
à¯ĭ à®¤à¯ģ
à°³ à±įà°²
à±Ģ à°ª
áĢĶ áĢļáĢº
à´¤ à´¿
ĠØ¯ ÛĴ
Ġà° §
Ġáĥ¡ áĥĲáĥĵ
Ġ áĤıáĢŃáĢ¯áĢĦáĢ¹áĢĦáĢ¶
ÙĪØ± Ù¹
Ġáĥ¨ áĥĶáĥĵ
ĠáĥĴ áĥĲáĥł
áĢ¾ áĢ¯
Ø±ÛĮ Ùģ
à°¿à° ľ
±áĢĽ áĢ¸
Ġà®İ à®´
à´¨ àµĨ
áĥĲáĥĵáĥĴ áĥĶáĥľ
Ø± Ûģ
áĢ»áĢķ áĢ³
áĢļáĢ¹áĢľ áĢŃáĢ¯áĤĶ
Ġà´¸ àµįà´¥
áĥĿáĥľ áĥĺ
Ø¸ Ùħ
à®¸ à¯į
à´¸ àµįà´±àµįà´±
à° «
Ġáĥ¡áĥĲáĥ £áĥ
ĠáĢķ áĢŃáĢ¯
à¯Ģ à®°
ī áģ
à´ ĺ
Ġáĥ§áĥķáĥĶáĥļ áĥĲ
áĢ ¦
ĠáĥĲáĥ ļ
à´¯ à´Ĥ
Ĳ áĢŃáĢ¯áĤĶ
Ġáĥ¡áĥĲáĥ¥ áĥĽ
±áĢĨ áĢ¬áĢĦáĢ¹áĢ
áĥļ áĥĶáĥĳáĥĺáĥ¡
Ġà°ª à°¾à°°
Ġáĥ¡áĥ®áĥķ áĥĲ
ĠØ§ÙĨÛģ ÙĪÚº
à°°à±įà° µ
Ġáĥĵ áĥĲáĥľ
à´® à´¾à´£àµį
áĢ±áĢķ áĢĻ
Ġà®¨ à®¿à®±
Ġà®ķ à®¾à®²
à°· à±įà°Ł
àµĭ à´Łàµįà´Ł
áĥĶáĥ¡ áĥ¢
áĥĺáĥª áĥĺ
áĥĶáĥķ áĥĶ
àµĨà´¨àµįà´¨ àµģà´Ĥ
ĳ áĢ¬áĢĦáĢ¹áĢ
Ġà®ļ à®®
ĠÚ©ÛĮ ÙĦØ¦ÛĴ
ĠÚ©Ø± ÙĨØ§
à®¤ à®¿
áĢĢ áĢ±áĢĲáĢ¬áĢ·
áĢĦáĢ¹áĢ ŀ
áĥĺáĥĻ áĥ£áĥłáĥĺ
à° ¥
ĠáĢ±áĢ ħ
áĢĲáĢ¹áĢ ľ
ĠØ´ Ûģ
ĠØ²ÛĮ Ø§Ø¯Ûģ
áĢĲ áģ
Ġà´ ¨àµįà´¨
à´¾à´ ·
à°Ł à°¿
áĢ¯ áĢĴ
Ġà°¤ à±Ģà°¸
Ġà®µà¯ĩà®£à¯įà®Ł à¯ģà®®à¯į
ĠáĢ ĵ
áĢ¬áĢ¸áĢĻ áĢº
àµĬ à´°
áĢ»áĢķ áĢĬáĢ¹áĢ
à´¦àµįà´ ¦
áĢĶáĢ¾ áĢħáĢº
à®ķà¯įà®ķ à¯ģ
Ġ1 5
Ä± lÄ±
Ġba ÄŁ
Ġc Ã¹ng
Ø§Ø± Ûģ
Ġka ik
ĠáĥĹáĥĳ áĥĺáĥļáĥĺáĥ¡
ko w
Ġz ur
áĢ½ áĢĢáĢº
ä» Ģ
ìĶ ¨
Ġà°ī à°Ĥà°¡
da m
åĲ ĳ
íĥ Ŀ
Ġà´¨ àµĩ
ä¼ ģ
ÏĨ Î±
ĠàªĹ à«įàª°
ah an
à´¿à´± àµįà´±
n ou
Ġsz em
ct or
Ġ Ã¤n
à°ªà±įà°ª à±ģà°¡à±ģ
áĢĻáĢ» áĢŃáĢ¯áĢ¸áĢ
àª¡ à«Ģ
Ġà®ª à®°
à¯ģà® ªà¯į
Ġà¦¬à¦¿à¦ Ń
áŁ Ĵáŀ
ì ¶
Ïİ ÏģÎ±
Ġàªħ àªŃ
ĠØ¨ ÛĮÙĨ
us k
ãģ¾ ãģ§
à¦¸ à¦²
à°¿à°¤ à±ĩ
Ġ à¸Ļ
à®° à¯ģà®®à¯į
Ġh uo
à´ ŀàµįà´ļ
1 6
ÏĦÎ¿ Ïį
åĪĨ æĹ¶æĹ¶å½©
Ġà´ ·
à¥Ĥ à¤°
Ã ¯
ÅĻ ed
Ġm Ã´
Ġk ir
Ġà°ħ à°§
ĠN e
ĠI ST
us u
Ġb lo
à®¿à®ķ à¯į
ĠáĥĲáĥĵ áĥĴ
s tÄģ
æĭ Ľ
Ø§Øª ÛĮ
f ul
Ġiz ango
Ġvi deos
Ġph áº©m
æ ©
ĠGali cia
æĶ ¶
Ġw eng
ëį ĺ
ul á»į
Ġber k
yot gan
æį ®
Ġë ¦¬
æĸ ¯
Ð´ Ðµ
åı ª
ta ma
Ġj Äģ
isch e
áĢĽ áĢĦáĢº
ri l
inÄģ t
ow ych
ĠâĢ İ
à¥ĩ à¤¤
ĠØ¨ Ø´
Ð¾Ñģ Ñģ
c to
Ġ Ã¡ll
Ġàª Ĭ
ĠáĢľ áĢŃáĢ¯
×ŀ ×ķ×ª
ÉĻ z
àª¯ à«ĭàªĹ
ĠÙħ Øµ
Ð¸Ñĺ Ð°Ð»
ĠØ¹ ÙĦ
Ġni i
amo ja
szy st
ĠáĥĻ áĥķ
ÙĪ Ø©
Ð¸Ñı ÑĤÐ¸
um e
áĥ§ áĥĿáĥ¤
Ñĥ Ò³
20 19
ĠÐ¿ÑĢ Ð¾Ð´
Ġs et
¦ Ĥ
le lo
ç» Ħ
ĠÎľ Î±
Ð¾ÑģÑĤ Ñĸ
K A
Ø³ Ø©
Ġà®ħà®¤ à®¿à®ķ
à¦° à§ĩà¦°
Ã¦ k
Ġjo ka
ë° ľ
om o
éĻ Ĳ
Ã¡ b
áĢĤ áĢ«
à®¤ à¯Ī
áĢħáĢ¹áĢ ħ
è¿ ĺ
à±įà° ·
Ġà®ļà¯Ĭ à®²à¯įà®²
Øª Ø§Ø¨
ĠÐ¿ Ð°Ðº
bb en
à´¤àµįà´¤ à´¿àµ½
Ġag a
Ġtr Ã¬nh
ĠØº ÙĬØ±
ĠàªıàªŁàª² à«ĩ
à¥ĩà¤ ľ
à¦¤ à§įà¦¯
ĠÒ³ Ð¾Ð»
Ïĩ Î±
am it
ÐµÑģ Ð¿
ĠAf ri
Ġà®¤ à®©
à°¿à° Ĺà°¾
ĠÏĥ Ïį
ĠD E
æł ĩ
ar Ã«
Ġva ir
áĢĢáĢ¼ áĢ±áĢ¬áĢĦáĢºáĢ¸
ĠÕ ¿
áĥĴ áĥĲáĥľ
Ñĥ ÑĨÑĮ
is ed
Ġà¹ģà¸ ¥à¸°à¸
íķľ ëĭ¤
Ø¯ ÛĮ
ĠÙħØ¯ ÛĮØ±
s tÃ¤
ĠnhÆ° ng
i fa
Ġpre j
il lÃ¤
à´µ à´°
Ġà¦¸ à¦¹
ëĵ¤ ìĿ´
ĠØ¯ÛĮ Ú¯Ø±
Ġáĥ¡ áĥŀ
Ġs Ã£o
Ġde c
à¦¾à¦° à§ĩà¦°
Ġf ie
Ñį ÑĤ
è Ń
Ġm Ã¤
à®¾à®¤ à¯ģ
×Ĳ ×Ļ
Ġàªī àª¤
à¸Ńà¸¢à¸ ¹
áĥĺáĥľ áĥĺ
×¤ ×§
Ð¾Ð¼ Ð¾Ð½
Ã©n t
ãģĵãģ¨ ãģĮ
à Ń
Ġ×ľ ×Ĵ
Î¹Îº ÏİÎ½
Ġàªľ à«įàª¯àª¾àª°à«ĩ
ler e
Ã¸ d
Ġàªļ à«Ĥ
im iz
at en
ĠÐ±Ð¸Ð´ Ðµ
áĥĶáĥĳ áĥĶáĥļ
ìĦ ¤
Ġun ter
Ġne w
Ġ2 22
Ġëª¨ íħĶ
ÙĤ Ùĩ
ti j
Ġni ya
äºī éľ¸
à¥įà¤¯à¤¾à¤ ¤
Ġm p
ĠR a
Ø¶ ÙĪØ¹
Ð´ Ð¾ÑĢ
ĠØ§ÙĦÙħ Øµ
à°¯ à°Ĥ
ĠÑĤÐ°ÑĪ ÐºÐ¸Ð»
Ġë° °
Ð½ ÑĥÑİ
Ġë ĺ
ĠáĢĢáĢŃáĢ¯ áĢļáĢ¹áĢ
à§Ģ à¦¨
ĠÙĤ Ø§ÙĦ
×¨×Ĳ ×©
à¥įà¤ ¨
áº¥ u
ãģ¨ ãģĹãģ¦
Ġà´ªà´± à´¯
Ġth an
ĠØ£ Ø¨
ÑĢ Ð°Ñŀ
áĢ® áĢľ
áĢĴ áĢ«
he lo
Ġà´ªàµįà´° à´µ
Ġsa ÄŁ
ĠÐ± ÐµÐ·
à¦°à§įà¦ ¥
å£ ²
Ġ ä¸Ĭ
à´¿à´¤ àµįà´°
Ġà°ªà±įà°° à°Ń
Ġàªľàª£ àª¾àªµ
Ġv Ã©g
s ere
áĢ¬áĢ¸áĢ ±áĢĲáĢ¼
Ø§ÙĨ Ûģ
ĠgÃ¶ re
Ġl Äģkou
Ø¯ Ûģ
Ġ ori
I d
p s
ÑĪ Ð¸ÑĢ
e g
e an
à®¾à®± à¯įà®±
Ġya z
Ġs ek
Ġb lev
Ġl Ãªn
Ġ×Ĳ ×Ļ×ļ
ĠÙĤ Ø¨ÙĦ
à§ģà¦ ĩ
ĠnÃ³ i
Ġn ur
ĠÙĪ ÙĦØ§
Ġger ek
Ġse da
ìŀħ ëĭĪëĭ¤
Ġu Å¾
áĢ» áĢĢáĢº
à¤¸ à¥įà¤¤
Ġkh Ã¡c
ĠÎŁ Î¹
¶ àª¨
æł ¼
å¸ ĥ
Ġà¦ķ à¦¿à¦Ľ
ÙĤ Ùħ
ĠáĢĴ áĢ¯
Ñĥ ÑİÑĤÑĮ
áĢ¡ áĢ±áĢĶ
Ð°Ð½ Ñĭ
ë ¸
Ð½ Ð¾Ð¼Ñĥ
Ġà® ¸
Ġ1 8
Ġëħ ¸
¢ à¸Ļ
Ø· Ø±
ĠÄĳ ang
ĠÙĪ Ø±
ĠØ§ÙĨ Ø³
em os
ë£ Į
à´¾à´± àµįà´±
à§įà¦ Ľ
ÒĽ ÑĤ
×ĵ ×Ŀ
Ġa ix
Ġen iyan
ĠØª Ø¹ÙĦ
áĤı áģ
Ġb ar
Ġl ui
Ã© c
Ġf Ã¥
à®µ à¯ģ
Ġ×Ĳ ×ĳ
Ġå¤ ©
æ² ³
Ġt un
à°¾à° ¶
à¤Ĺ à¥Ģ
à¦ª à§ģà¦°
Ġund er
à¹Ģ à¸£
ĠÙĦ ÙĬ
Ġb iáº¿t
Ķà¸¥ à¸Ńà¸ĩ
Îµ ÏĢ
ä½ ł
áĢĸáĢ½ áĢ²áĢ·
ĠÐ¼ Ð°Ò³
Ġme j
Î» ÎµÎ¹
Ġk Ã¼l
Ġaqu esta
à´¿à´ķ à´³àµįâĢį
Ġàªķ à«įàª°
ĠÐºÐ¾Ð¼ Ð¿
4 5
y en
Ġ ÉĻm
Ġmo ja
Ì£ n
amb Ã©m
áĢĺ áĢ²
à°¿à°¯ à±ģ
Ð¾Ð»ÑĮ Ð·
àµĤ à´Łàµįà´Ł
Ġáĥ¡áĥĲáĥ ¨
la ÅŁ
Ġjoa lo
ÐµÑģÐ¿ ÑĥÐ±Ð»Ð¸Ðº
à®¿à®¯ à¯ģà®®à¯į
Ġà®ī à®£
ÅĻ i
Ñĺ Ðµ
Ġj ulá»į
à±ĭ à°¤
Ġà¸ ģà¸²à¸£à¸
Ġh Ãłnh
ĠÑĸ Ñħ
áĢĢ áĢ¯
ĠÊ» ana
áĢ¬ áĢ·
Ñĩ Ð¸Ð»
Ã© ri
à¥įà¤ ·
v Ã¤n
è ±
ĠØ§ÙĦØ¹ Ø§ÙĦÙħ
Ø¦ Ø©
ĠÐ±Ð°ÑĢ Ð¾Ð¸
ÎĻ Î£
Ġæ ²
Ġvo i
ĸ à±įà°¯
Ġin im
am u
à§ĭ à¦ķ
Ġj uh
Ġï¼ Ľ
±à¸ ļà¸
ç ĸ
Ġáĥ£áĥ¤ áĥłáĥĿ
à®¾à®¯ à¯į
ÑĬÑĢ Ð²
à® ŀà¯įà®ļ
Ø§ Ø§
Ġë Ĩ
àµģà´ ªàµįà´ª
ĠìŀĪ ìĬµëĭĪëĭ¤
ĠáĥłáĥĿáĥĴ áĥĿáĥł
ĠÐł ÐµÑģÐ¿ÑĥÐ±Ð»Ð¸Ðº
áĢĨ áĢ±áĢ¬áĢĦáĢº
Î· ÏĥÎ·
×Ĳ ×Ļ×Ŀ
Ġmwa ka
Ġch Ãºng
Ñĥ ÑĤÑĮ
á»į ng
i kan
Ö ´
· à«įàª
á» «
Ġç Ľ
it te
Ġ osh
Ġå Ĩ
Ġà¦®à¦§à§įà¦¯ à§ĩ
Ġáĥ¡áĥĲáĥ ĸ
Ġthe m
on d
ĠmÃ¡ y
Ġb le
áĢĶáĢ¾ áĢĦáĢ·áĢº
er w
ìł Ĳ
Ðº Ð¾ÑĢ
Ã± e
Ġp Å«
larÄ±n Ä±
Ġï½ ŀ
à´¨àµįà´¨ àµģ
Ïģ Îº
ÑģÑĤ Ð°Ñŀ
Ġàª¤ àª°
Î´ Î¹Î¿
ĠÙĨ Ø¯
m at
¡à¸² à¸£à¸
Ġàªķàª¾àª° à«įàª¯
à§Ģ à¦¬
Ġw ould
±à¸ ļ
Î»Î» Î±
ą ć
Ġki la
à¯ģà®ķà¯įà®ķ à¯ģà®®à¯į
æĬĢ å·§
Ġes sere
áĢ»áĢĸ áĢĦáĢ¹áĢ·
Ġhe bben
ĠÙĬ ÙĤ
ìĿ´ ìĬ¤
88 8
p il
ĠíĮ Į
à«ģ àªµ
¡à¸ ±à¸
ning ar
ĠâĢĻ âĢĻ
c je
y yÉĻt
Ġà¹Ĥà¸ Ľà¸£
áĥĶáĥ ŀ
á» ¹
ĠáĥĽáĥ® áĥĿáĥļáĥĿáĥĵ
Ġàª«àª¿àª² à«įàª®
Ġà¦Ĩà¦® à¦¿
ĠÐ¼ Ð½Ð¾Ð³Ñĥ
Ġa ber
àµĩà´ ¹
Ð³ Ð¸
áĥ£áĥ ¥
Ġâ Ħ
Ġà®µà®¾à® ´
c ov
Ġku in
áĥĲáĥ «áĥļ
Ùħ Ûģ
Ġå ¿
å½ ĵ
ur es
di en
ĠP e
ÏģÎ¹ Î¿
à±įà° ¬
Ġáĥ¡áĥĲáĥ Ķ
ĠD i
à¹Ģà¸ Ķ
ĠÐĿ Ð°
ĠT e
ĠÎ´ Îµ
Ġà¦¬ à¦Ľ
ĠÃ§ Ä±x
Ġáĥĵáĥĺáĥĵ áĥĺ
àªĤàª Ł
Ġà¤īà¤¨ à¥įà¤¹
Ð¾Ð´ Ð°
áĥĺáĥłáĥ ĵ
Î© ÎĿ
ĠáĢŀáĢŃ áĢĽ
å¥ ³
æİ ¨
Ġy in
Ġ×ĳ ×Ľ
à«ĭàª°à«įàª Ł
ĠÃ ½
Ġn ahi
à¦ª à§įà¦°
æĥ ³
h k
ĠÃª tre
io ng
áĢ¬áĢ¸áĢ Ķ
à¹Ĥ à¸Ļ
Î¿Î½ ÏĦÎ±Î¹
à¹Ģà¸ ª
Äĥ t
ÅĨ as
ķà¸±à¸ §
ÐłÑķ Ðł
à¦Ĺ à§įà¦°
ĠagåĽ½éĻħ äºļæ¸¸
Ġku id
Ã¡l is
Ø§Ø¯ ÙĬ
ĠØ¶ Ø±
í ĳľ
g unakan
Ġpag ka
a pa
ĠD en
ĠÅ¡ o
Ġë ¡
Ðº Ð°Ð¹
Ùģ ÛĮ
ĠÃ®ntÃ¢lni re
Ġk n
àµĢ à´°
ÑĢ Ð¾Ð±
×Ĳ ×¨
ru ik
à¦¿à§Ł à¦¾
Îº Î±Î½
ĠP ag
ĠM ungu
Ġìĺ¤ íĶĦíĻĶìĿ´íĬ¸
ĠáĥĶ áĥ¥
Ġà®ķ à®Łà¯įà®Ł
ĠØ§ÙĦÙħ Ø±
à°Ĥà° §
Ú© Ø§
ĠØ³ ÙĪ
Ġba ie
Ġà¤¯ à¤¾
ÑĨÐ¸ Ð¾Ð½
Ġà®Ĩ à®ķ
Ġàª¸àª¾àª® à«ĩ
b r
Ïĥ Î±Î½
Ã¸ re
ova Å¥
Ø²Ø§Ø± Ø´
áģ ¸
Ġha ben
ĠÙħ ÛĮØ±
l as
Ñĥ ÑĦ
æ° Ķ
es ha
¥à¸ĩà¸ Ĺà¸
ĠÒĽ Ñŀ
Ġv it
ĠëĲ ĺ
Ġ á»įna
Ñı Ð±
àª¾àª Ń
×ľ ×ĺ
Ùģ Ø¹
Ġis ti
Ġk g
Ġd ahil
Ġà¦¹ à¦¯à¦¼
åģ ļ
Ð² Ð¾
§ ç¾İ
ul u
à§ĩà¦¨ à§įà¦Ł
Ġne ed
Ġàª°à«Ĥ àªª
Ġà¤¬ à¥Ģ
Ø§Ø¦ ÙĦ
s an
à´¾à´ ´
uks en
ĠáĢ±áĢ ĸ
us i
ÙĤ Ø§Øª
Ġbi en
Ø« ÙĬØ±
Ø³ Ø±
á»ĩ nh
å½©ç¥ ŀ
Ã¡ ci
Ġmana wa
r ou
Ġéĩ į
ĠàªĽ à«ĭ
Äĵj a
Ġd Ã¤r
ĠÑĤ Ñı
Ġà®¨ à®¾à®©à¯į
×ŀ ×ķ×ĵ
Ġl Æ°á»£ng
Ġìł Ģ
à§įà¦¤ à§ģ
à¤¾à¤° à¤¾
à±ģà°¤ à±ģà°¨à±įà°¨
â ķ
Ġà°Ń à°¾à°°
Ġp es
ti b
áĢ¡ áĢĽ
ĠØ® ÙĦØ§Ùģ
Ġse in
æģ ¯
Ð¶ Ñĭ
ba b
jer es
ĠØ¨ Ø²
æĪ ¿
à±ĩà° ¤
ĠâĢİ #
Ġp ia
Ġà¦¹ à¦²
æĶ ¾
ãģĭ ãģ£ãģŁ
r et
å¤ Ħ
ĠÐ° Ð»
Ġà¹Ģà¸ Ķà¸´à¸¡à¸ŀà¸±à¸Ļà¸
ãĥ¼ãĤ ¸
ĠáĢ¡ áĢ±áĢĻ
Ø¹ ÛĮ
áº¯ n
åı¯ ä»¥
Ã¢ t
åŀ ĭ
à®¿à®² à¯ģà®®à¯į
nÃŃ ch
ĠØ¹ Ùħ
j Ã¤
ì »
ìĹĲ ê²Į
f o
à±ģà°ķ à±ģà°Ĥà°Ł
áĥĶáĥĳ áĥĿáĥĵáĥĲ
ÎĳÎ ¤
ur an
ĠàªŃ àª¾àªĹ
è´ ¨
Ġáĥ £
Ġme hr
Î¸ ÎŃ
ĠØª Øª
Ġi di
Ġw ere
l ag
Ġáĥ Ń
Ġf il
Ø§ÙĨ Ø§
Ġ365 bet
ãģĹ ãģ¾
Ġta o
ĠÏĢ Î±Î¹
Ðº Ð°Ñŀ
âĢ¦ âĢ¦
Ġw ÉĶ
ck Ã©
Õ¸ÖĤÕ©Õµ Õ¸ÖĤÕ¶
Ġ2 3
áĥĲáĥķáĥ¨ áĥĺáĥł
ĠS am
ĠåĪ ©
à¯ģà®³à¯įà®³ à®¤à¯ģ
à«ĩàª¨ à«įàªŁ
Ġãĥ ¬
Ä±m Ä±z
Ġíı ī
Łà¸ ¸à¸ķà¸
ver y
ÑĪ Ð¸
Ã İ
Äį ka
áĢĦáĢºáĢ¸áĢ Ļ
Ġpe lo
Ã¦ ng
Ġsp e
é¤ Ĳ
Ðµ Ð¿
Ð°Ñģ Ð¸Ð´Ð°
j d
ĠÎ¸ Îµ
ĠÐĶ Ð°ÑĢ
áĥĶáĥĳ áĥĶáĥľ
ĠáĢŀ áĢĲáĢĦáĢ¹áĢ¸
Ïĥ Î¿ÏħÎ½
Ġs iku
ti ca
Ð² ÑĬÑĢ
Ã¡s ok
as Ä±nÄ±n
ona le
Ġà¦¹à§Ł à§ĩ
Ġlá» Ľ
Ġph Ã¡t
áĢ¸áĢ Ķ
Ġà¤® à¥ģà¤
à´¦àµįà´ §
à§ĭ à¦®
Ġi ts
ĠÐ¿ÑĢÐ° ÑĨ
ÑĢ Ð°ÑĤ
ĠÐ±Ð¾ÑĪ ÒĽ
Ĥà¸ ¶
Äį ÃŃ
ĠK ui
ing ine
Ð°Ò³ Ð¾Ð¸
ĠÐ¿ÑĢÐµ Ð·
Ġà¦¦ à¦¿à¦¨
à¦¸ à§įà¦¯
ä½ ķ
ģà¸ ±à¸Ļ
ĠÐ½Ñı Ðº
ï¼ Ĳ
Ġdit uz
ho a
Ø§Ùħ ÛĮ
Ľà¹ĩ à¸Ļà¸
m eld
áº£ m
hat Ã³
ĠíĶ Ħ
Ġen tre
áĥł áĥĲ
Õ¸ ÖĢ
Ġwa r
Ġà¤¬ à¤¾à¤°
li za
Ġ×Ļ ×Ľ×ķ×ľ
ct os
æĭ į
ĠÎĳ Ïħ
Ġãĥ ĸ
Ġáº¹ rá»į
j an
x t
le la
áŀ ¶
Ġdi áº¹
h l
Ġt uo
áĢĻ áĢĬáĢº
ÙĦ Ø§Ø¹
Ø¬ Ø©
ĠÐ» Ð¸
ìĭ ¬
Ġà°®à°° à°¿à°¯à±ģ
áĢ½ áĢ±áĢ¸áĢ
ĠÎł ÏģÎ¿
ĠÐ¿ Ð¾Ðº
ĠÃ§ Ä±k
ĠÎ Į
à¥į âĢį
Ġv u
°à¹Ģà¸ ļ
v ar
ĠÙħØŃ ÙħØ¯
ĠØ¨Ø® Ø´
Ġi we
áĢĶ áĢ·áĢº
ìĺĪ ìķ½
áĥĶáĥ £áĥļ
Ġæ ¶
Ã¥ l
lo ng
×ķ×ľ ×Ķ
à¥Ĥ à¤ª
Ġà¦¬à¦¿à¦ ·
Ġca p
Ġë¬ ´
Ġ×Ĺ ×©
ar k
à±įà°¯ à°Ĥ
Ġan h
Ġke Ã§i
por t
ä¸ ¤
ÙĩØ± Ø§ÙĨ
à¤ ¢
Ġå Ń
Ġn Ã©
Ð ľ
u to
ì ¶ľ
Ġà°ķ à°¾à°¨
à´¾à´Ł àµįà´Ł
Ġpo ate
ĠÑĤÑĢÐµ Ð±Ð°
Ġáĥ¬ áĥ§
ĠÐ½ Ð¸
Ġàª« àª°
ish wa
Ġà¤® à¥ĩ
ĠÚ¯ Ø²Ø§Ø±Ø´
Ġå ¸
E N
Ġc áº§n
Ġà´¤ àµįà´¤
b ari
ÑģÐºÐ° Ñı
Ġpar Ã«
ĠJ ag
Ħà¸§à¸²à¸ ¡
áĢĦáĢ¹áĢ ¡
Ġ13 9
Ð¸Ð½ Ð°ÑĤÐ°
à¦¾à¦® à§Ģ
ãģĹãĤĩ ãģĨ
ang u
à¤ļ à¥Ģ
Ġä» ĸ
Ġpagg amot
áĢ® áĢĻ
Ġti mp
Ġ Äģ
à¯įà® ¨
ĠáĥĻáĥĿáĥĽ áĥŀ
Ġà´ķ à´¾à´£
ĸà¸ ¶à¸
à¤¤ à¥įà¤¤
Ġl ub
ĠØŃ ÙĬØ«
Ä« ga
m as
à±ģà°ķà±ĭ à°µ
ÙĤ Ø·
ĠØªÙĪÙĦ ÛĮØ¯
Ã¼ let
Ġìļ° ë¦¬
Î½Î¿ Î½
Ġha holo
æ¸ ħ
ãģ ³
ning en
la u
Ġì Ī
ĠÐº Ð¾Ð»
uk ha
Ġd h
áĢĦ áĢļáĢ¹áĢ
áĢ¸áĢ±áĢ Ķ
ĠØ¹ ÙħØ±
Ġb agi
y at
ĠØ¹ ÙħÙĦ
ĠÙĪ ÙħÙĨ
Ġga an
Ġ×¨ ×§
ĠA s
é¢ Ħ
ÏĦÎ· ÏĤ
Ã³ a
zi oa
ĠÐ± ÑŀÐ¹
Ġtr Æ°á»Ľc
æ ¹
ĠÂ ¶
áĢľáĢŃáĢ¯ áĢĢáĢ¹áĢ
ĠáĢĢáĢº áĢ±áĢĶ
áĢĲ áĢļáĢ¹áĢ
à°¾à°Ĥà° ¤
Ġáĥł áĥĶ
Ġà¤¸ à¤°
áĢĿ áĢº
Ġmu ito
ä¾ Ľ
ãģ »
Ġê³ Ħ
ci es
Ġq an
Õ¸Õ ¾
ĠW y
ãģŁ ãĤģ
ĠØ¯ Ûģ
à¶ ±
åł ±
Ġmul t
ĠÙ¾ Ø§Ø±
ĠáĥĽ áĥĿáĥķ
ĠÙĩ ÙĨØ§
ĠØ¹ Ø¨Ø¯
Ġáĥ¨áĥĶ áĥĺáĥ«áĥļ
Ġk á»į
Ã¡n ak
áĤıáĢ½ áĢħáĢ¹
v y
à±ģà°ķ à±ģà°¨à±įà°¨
Ġëĺ Ĳ
p ri
ĠhoÊ»o k
Ã¸ b
ag em
ĠâĦ ĸ
×Ļ×§ ×Ķ
ìłģ ìĿ¸
è º«
ģáģ ļ
ĠÚ©ÙĨ ÙĨØ¯
ĠE gy
ĠÒ³ Ð¸Ñģ
Ġàªħ àªª
sh Ã«m
Îµ Ïį
Ð¾Ð² Ð°ÑĤÑĮ
Ïĩ ÎµÎ¹
ĠK ung
w n
Ġs in
Ġnh áºŃn
ï¼ ĳ
ĠÙĬ ÙĪÙħ
áĥ ©
ĠÐ´ Ñĸ
Ġpr ov
Ġà¤¥ à¥Ģ
il ang
ìĹ Īëĭ¤
áĢĦáĢ¹áĢ ±áĢ
ÑĪ ÑĤ
Ġ×ĳ ×Ļ×Ł
àµĢ à´ķà´°
à§ĭ à¦Ł
Ð± Ð¾ÑĢ
sz Ã¡g
ĠÐ²ÑĸÐ´ Ð¿
×¤ ×Ļ
ning er
ĠÒ ¶
à¸Ļà¸µ à¹īà¸
Ġon t
wa ju
ĠØ§Ø· ÙĦØ§Ø¹
à®¤à¯įà®¤ à®¿à®©à¯į
Ġà°¨ à±ĩ
×ª ×¨
çĶµ å½±
Ġà¤ Ĳ
Ġáĥ£áĥ Ľ
å· ²
Ġìĸ ĳ
ÏĦÎ¹Îº Î®ÏĤ
àªĤàªĹ à«įàª°
ĠÐ¸ Ð³
æ Ł¥
bu at
Ġblo ck
æĪ ĸ
ĠÕ Ģ
Ġà¦¶ à¦¿à¦ķà§įà¦·
Ġà´ªàµĭ à´²
ÙĪ Ûģ
Ġà¦ķà¦¿à¦¨ à§įà¦¤à§ģ
ĠÄĳ Ã¢y
áĤ ĥ
ĠÎ± Ïĥ
áĢŃ áĢĢ
ĠÙħØ· Ø§Ø¨ÙĤ
Ġkter Ã©
à¦°à§įà¦ ®
o zi
ãĤĮ ãģ°
ĠØ¯Ø§Ø´ Øª
Ø§ Ù¾
ĠØ¯ ÛĮÙĨ
Ð° ÐµÑĤ
Ġáģ Ĩ
Ġàª¬ à«įàª°
Ġya x
ĠáĥĲáĥķ áĥ¢
à«ĩàª Ĥ
ĠáĢ» áĢĸ
ke ta
Ð¶ ÐµÐ½Ð½Ñı
Ġs angat
Ķ à¸µà¸
ud en
à´¿à´ Ĥ
Ð°Ð»Ð°ÑĢ Ð¸
æ Ĳ
z en
Ġies pÄĵj
ĠÂ ²
ĠØ ¸
Ġz aman
± ħ
àªľ à«Ģ
Ġe go
ĠÐµ Ð³Ð¾
Ġà¦ķà¦° à§įà¦®
lo ven
Ġm uy
Ã ķ
an y
di k
lÉĻ ÅŁ
asz nÃ¡l
Ġ Õ¡Õ
ĸáĢ¼ áĢħáĢº
Ġan ak
am Ã©n
Ġn Ãło
ĠY ou
on Ã«
c ciÃ³n
Ġà¤µ à¤¹
ĠA uf
Ġ×§ ×¨
Ġn Äĥng
p un
es sÃ¤
Ġt ambÃ©
Ð· Ñĭ
ĠãĤ ª
Ġ×ľ ×ķ
Ã¶ re
Ð± Ð°ÑĤ
Ġà¤ Ŀ
ĠØ· Ø±Ùģ
h d
Ġseb el
Ġà´ª àµĬ
ĠÙħ Ûģ
Ñī Ð¸
ç² ¾
Ġáĥ¡áĥĲáĥ ĺ
Ġw iÄĻ
ĠÐ½ Ð°Ð·
Ġj ust
j ad
ĩ à¸²à¸Ļ
Ġt ek
ĠÃ¶l k
Ġç ½
Ġf inn
à®° à¯Ī
ĠÎ±Î½ Î¬
ĠM as
ym i
à¦¾à¦¨ à§ĩà¦°
Ġni in
Ġaz t
Ġà®® à®ķà¯įà®ķ
ĠÙħ Ø²
ĠÃ¼ le
ĠL os
Ġegit en
Ġà°Ĺ à±įà°°
áĥĺáĥĵ áĥĲ
è½¯ ä»¶
Ġà¤¬ à¤¹
Ã§ e
Ã ĵ
Ó¯ Ð·
Ġlo ko
áĥĶáĥĳ áĥĹ
Ġn ov
f ic
ç ¶
Ġk ÉĽ
u er
áĢ¬áĢĽ áĢ®
Ð°Ð² Ð¸
ĠP re
ĠÐ°Ñģ Ð¾Ñģ
ĠÐºÐ¾Ð¹ ÑĤÐ¾
Ġas s
Ġktor Ã©
àµģà´® à´¾à´¯à´¿
åĳ Ĭ
íķ© ëĭĪëĭ¤
un da
ĠLatv ijas
ĠØ§ÙĨØ¬ Ø§Ùħ
Î»Î¿ Î½
Ġà¦Ĩà¦® à¦¾à¦°
en ce
Ġà¦ķ à§įà¦·
è° ĥ
Ġh ata
Ġà¦¨à¦¿à¦ ľ
Ġ×Ļ×© ×¨×Ĳ×ľ
Õ¸Õ ²
Ġæ ±
na e
Äģci jas
Õ¥Õ ¿
Ġaa cute
è§Ĩ è®¯
áĥĹ áĥ®áĥķ
Ġàªľ àª°à«Ĥ
ĠáĢķáĢ¼ áĢ±áĢ¬
Ġkom mer
Ġàª¤àª® àª¾àª°àª¾
åĨ Ľ
Ġàªµ àª¾àª°
ç« ĭ
ë¥ ¸
Ø§Ø±ÛĮ Ø®
à¯Ĩ à®¯
ent er
áĥĿáĥľ áĥĺáĥ¡
áĢģ áĢĦáĢº
Ġs Ã¤
à´¿à´¯ àµģà´Ĥ
Ħà¸£à¸Ķà¸´à¸ ķ
ãģ® ãģ¯
à¤¾à¤¨ à¤¾
Ġf re
Ġge hi
æī ĵ
à±įà° £
Ġen s
ĠÐł Âµ
Ġt jet
à®Ł à¯ģ
tu p
Ġsi ya
Ġz na
æ² ¡
Ġs en
Ġà®ħ à®´
ĠdÃ© c
j Å¡ÃŃ
Î³ Î®
Ġ| --
Ġd urch
æ± Ĥ
àª¥ àª¾
Ġver s
Ġàª¤à«įàª¯ àª¾àªĤ
Ġáĥ§ áĥĿáĥķ
Î¼Îµ Î½Î¿
Ġìĺ ¨
ĠÎ´ Î¹Î¬
li z
ĠM ay
ĠF Ã¶r
Ġha y
à¦Ĺ à§ģà¦²
áĥĵ áĥĶáĥ¡
Ġt Æ°
Ġà¦¸à¦° à¦ķà¦¾à¦°
àµįà´ §
Ñĥ Ð¶
ĠëĮĢ íķľ
ĠØ§ Øª
àª¤ àª¿àª
Ð°Ð½ Ð¾Ð²
Ġå¤§åıĳ æĹ¶æĹ¶å½©
Ġc ette
ãĥ Ħ
Ġprz ed
Ñħ ÑĤ
ĠáĥĻ áĥĲáĥłáĥĴ
ili k
Ġam ely
à°Ĥà°¤ à±įà°°
à´µ à´¿à´
ĠÒ ĵ
àª¿àª¤ à«įàª°
à¦¿à¦ ī
Ġà®ª à¯ĩ
ãĥ§ ãĥ³
áĥĲáĥĵ áĥĺ
ĠÐ¹ Ð¾Ð³Ð¾
Ġàªĺ àªŁ
p ad
ĠØ§ÙĦØ¹ ÙħÙĦ
Ø¨ ØŃ
Ã¼ re
Ġàªª àª¾àª
Ã«r i
à¤ķ à¥ĭ
ĠáĢ¡ áĢ¬
ow o
à¨¿ à¨
ĠÑģÐ² ÐµÑĤ
cz a
Ġn chi
Ġìŀ ħ
Ġh ad
ĠÐł Ñĳ
Ġm tu
Ġm áº·t
áĢĲ áĢŃáĢ¯áĢĦáĢ¹áĢ¸
à´¾à´ ¨àµįà´
Ġàª¨ àª¿
Ġà¤¸ à¤¬
èĢ Į
íķĺ ìĹ¬
æĭ ¿
ĠØ§ÙĦÙħ Ø¬
Ġin to
Ġê³ ¼
áĥĿáĥ ¥
Ã¼ s
s ki
à°³ à±įà°³
å Ķ
Ġàª¶ à«įàª°
s p
áĥĺáĥ¢ áĥĶáĥ¢
l ou
Ġb á»Ļ
ĠåĽ ½
Ġla v
ĠáĥĲáĥ® áĥĲáĥļáĥĺ
Ġà´Ĩ à´°
ä¹ ¦
Ġà¦®à¦¾à¦¨ à§ģà¦·
Ġàª¸ àª¾àªĤ
à¤¿à¤ Ł
ÑĶ Ð¼
ĠØŃ ØªÙī
Ġà¦ ¢
ëħ Ģ
ÎĳÎ Ŀ
Ġz ÅĤ
áĥĿáĥĳ áĥļ
ãĤ¹ ãĤ¿
ãģŁ ãģĦ
Ġà¤ķ à¥ģà¤
»áĢķ áĢ¬áĢĦáĢ¹áĢ¸
Ð½Ð°Ñģ ÑĨÑĸ
Ġkad ar
ĠÐµ Ðº
ä»Ģ ä¹Ī
Ġà¤¦ à¤¿à¤¯à¤¾
ÑıÐ± Ð²Ð°
ì ¢
Ġàªª àª¾àª°
Ġr Ã©sz
áĥĲáĥĽáĥĵ áĥĶ
os ta
ĠÃ© ta
he der
ĠçĻ ¾å®¶
à®¿à®¯ à¯Ī
ĠÙ¾Ûģ ÙĦÛĴ
Îº Î¹
Ġis ÉĻ
åħ ī
Ġ20 0
Ð² Ñĭ
Ĺà¸ ³
å® Ł
Ð £
Ð¾Ð²Ðµ ÑľÐµ
Ġàªľà«Ģàªµ àª¨
à¤¾à¤ł à¥Ģ
áĢ¥ áĢ¹
ĠÑĦ Ð°
Ø§Ùħ Ø¬
k ie
Ġt ambÃ©m
æ Ł
áĥĲáĥłáĥ Ļ
Ġë§ İ
à¸µà¸¢ à¸Ļà¸
ĠÎ® ÏĦÎ±Î½
à§ĩà¦ ¡
á» ħn
áĥĶáĥ ¨
ĠáĢľ áĢ½
Ġ áĤı
ĠÑģÑĬ Ñģ
à«ģ àªª
à´¨àµįà´¤ àµįà´¯
ĠÒĽ Ð¾Ð»
Ġà¦ĺ à¦Ł
à°¾à°° à°¿
è© ±
ĠáĥĶ áĥļ
à¯ģà®ķ à®¿à®±
Ġà®¤ à®¾à®©à¯į
ä¸ ĸ
ĠÃº j
áĥĶáĥľ áĥĺ
Ùĥ ÙĬ
ÐµÐ½ Ñĸ
c ess
Ġd Ã¼ÅŁ
àµĭ à´¦
ģ à¸£à¸°à¸
Ä±l an
it tÃ¤
Ġamba yo
Ġsa at
Ġàª°àª¹ à«įàª¯àª¾
ĠÐ´ Ñĭ
ĠÂ ¿
p Äģ
à®¿à® ³
Ġbij a
Ġp amoja
ĠÙģÛĮ Øµ
ĠØ§ÙĦÙħ Ø¯
Ġde g
Ð¿ ÑĢ
is ema
ÑĤ ÑĢÑĭÐ¼
×ł ×ĺ
do t
à°® à±ĩ
Ġ áĤĲ
Ã¶ yle
×ŀ ×Ļ×ĵ
à°¿à°Ĥà°Ĺ à±į
çĦ¡ æĸĻ
Ã³ d
à°¸ à°Ĥ
áĢĻ áģ¼
Ð² Ñı
ĠtÅ¡ a
à°°à±įà° ¶
Ġ×¤ ×¢
Ġ1 6
çķ Į
áĢĢáģ ł
Ġch áº¥t
Ġm Äģ
ÙĩâĢĮ ÙĩØ§ÛĮ
Ïĩ Î®
Ġpag pap
Ġà¹Ģà¸ ¥
ĠØµ ØŃ
Ġn ue
Ġáĥ¨áĥĶáĥĺáĥ«áĥļ áĥĶáĥĳáĥĲ
à´¸ àµįà´¸
Ġà´¤ àµĨ
ho ld
Øª Ø¨
áĥĿáĥĳ áĥĺáĥĹ
y da
à¯ĭ à®®à¯į
ÏģÎ¹Ïĥ Ïĥ
Ġv ara
Ġà¦¸ à¦Ļà§įà¦Ĺà§ĩ
j ar
àªķ à«įàª°
en er
ak t
Ġm ua
×ŀ× ĵ
áĥĹáĥ®áĥķ áĥĶáĥķ
Ïĩ Î½
à§ģà¦ ĸ
à¦° à¦£
à§įà¦ ŀ
Ġwor m
Ġt ara
Ġh el
Ġë Ŀ¼
Ïģ Î¸
à°°à°¿à° Ĺ
ĠÃ Ĭ
ĠØ¯ ÛĮØ¯
Ġpo lo
à´¾à´ ¶
Ġmemili ki
ĠÐ¼ Ð°Ð½
we li
Ĭà¸± à¹Īà¸Ļ
w ij
Ġe le
ÑĥÐ²Ð° ÑļÐµÑĤÐ¾
ĠÐº Ð°Ð»Ñĸ
ĠÊ» A
Ð¾Ð» Ð¾Ð³
ãģª ãĤĵ
Ġnghiá»ĩ p
à¯ģà®ķ à®¿à®±à®¤à¯ģ
ĠÐºÐ¾ ÐµÑĤÐ¾
áĥĶáĥłáĥ ĵ
áĢĲ áĢĦáĢº
à®² à®¾à®®à¯į
Øµ Ùģ
Îķ Î£
ĠÙĨÙħ ÛĮ
Ġmai kaÊ»i
ik Äģ
Ġáĥĵáĥ¦ áĥĶáĥ¡
é¡ ¹
áĤĢáĢĢ áĢŃáĢ³
ĠØª ÙĩØ±Ø§ÙĨ
Ø§Ø¨ ÙĦ
ģà¸ ©
Ð° Ñĩ
Ġíĺ¸ íħĶ
lari ga
×ŀ× ¢
ch ini
Ð ļ
Ġpe la
Ġà®ķà¯Ĥ à®±
ĠÐ´ Ð²
Øª ÙĩØ§
à°ķà±įà°ķ à°¡
ĠÙĪ ÙĨ
ĠMar et
an da
Ġke z
ìħ ĺ
Î¼Î± Î½
lich en
q t
ĠÕ ¤
Ġà¸ ĭà¸
áĢ±áĢĨ áĢ¬áĢĦáĢ¹áĢ
à¥ģ à¤®
Ġfa it
à¦¡ à¦¼
Ġà¸Ĺà¸ Ķà¸¥à¸Ńà¸ĩ
Ġ) ,
à´±àµįà´± àµį
íķ ¨
Ġc ele
Ġm uch
áĢŀ áĢŃáĢ¯áĢ·
Ġà¦¬à¦² à§ĩ
áģ¾áĢĢ áĢ®áĢ¸áĢ
on u
la l
ĠÐ² Ðµ
ĠÙ¹ ÛĮ
d es
ĠÃ ĵ
ba bu
ķ áĢ²
à¹Īà¸ ¡à¸
Ġà¦ª à§ľ
Ġà°ª à°°
ãĤ ¬
ĠB er
ãģ Ĵ
Ġk ona
ĠÐ¼ Ð°ÒĽ
Ġê²Į ìŀĦ
Ġdi g
ing ga
à¥ĭ à¤Ł
ĠØ§ÙĦ Ø§Ø³
èĤ ¡
åĮ Ĺäº¬
Ġxu áº¥t
Ġtá» ±
ãģĪ ãĤĭ
åľ¨çº¿ è§Ĥçľĭ
Ø§Ø¹ Øª
is ho
j Äģm
ĠÎº ÏĮ
Ġi b
ĠØ§ ÛĴ
ĠP ar
Ã§ ek
áĢĦáĢ¹áĢ¸ áĢŀ
p as
áĥ¬ áĥ§
Ġ$( '
Ġd á»į
Î¾ Îµ
Ġng o
di ÄŁ
áĥķ áĥĶáĥķ
Ġà´ªà´° à´¿à´
ĠàªŃ àª¾àªµ
ĠÐ± ÐµÑĪÐµ
Ġà¤ľ à¤¿à¤¸
Ġba ina
ĠáĥĹ áĥĲáĥĽ
à±ģà° ¸
ĠÐ¿Ð¾ Ñĩ
Ġáģ¿ áĢķ
Ġà® Ĭ
ĠØª Ø§Ø±ÛĮØ®
Ã¼y Ã¼k
Ø§ ÙĪØ±
Ġàªªà«ĭàª¤ àª¾àª¨àª¾
ĠØª Ø³
am s
k Å¯
ÈĻ ti
un oa
io on
ÙĬ Ø¬
Ġm el
ĠáĥĴ áĥĲáĥ¡
Ġàªħ àª§
ľ áĢĬáĢ¹áĢ¸
Ð» Ð¾Ð²
Äį ky
Ġpa u
ÐºÐ° Ñı
Ġà´ī à´ª
ÏģÎ¹ÏĥÏĥ ÏĮÏĦÎµ
ĠÐĹ Ð°
ĠÑı Ð·
Ġt áº¹
åıĳ å±ķ
en Ã«
ģà¸±à¸ ļ
Ġâ ŀ
Ġà¦Ĩ à¦ĩ
on te
ĠáĢľ áĢĢáĢº
Ġà® ¹
éĸ ¢
Ð» ÐµÐ½Ð½Ñı
Ġm Å±
Ġà¦ķà¦¿à¦Ľ à§ģ
áĢĲáĢ¹áĢ Ĳ
ĠÕ º
áĢ¬áĢŀ áĢ¬
Ġc ui
Ġwe es
Ġàªĸ àª°
Õ¸ ÖĢÕ
Ġka mi
ÉĻn in
áĢ±áĢĶ áĤĶ
àª®àª¾àªĤ àª¥à«Ģ
à¦¿à¦ ¡
Ġ×Ĳ ×¨
Ġgi or
Ġà®İà®¤ à®¿à®°
à®¤ à®¾à®ķ
ke a
ÏĥÎµ ÏīÎ½
Ð´ Ð°Ñģ
ĠØ´ Ø¨
Ġb ang
Ġ×ŀ ×¨
åį İ
Ø± ÛĴ
ĠÐ° Ð»Ðµ
áĥłáĥ£áĥ ľ
àµģà´ ¦
ĠÙĩ ÛĮ
àªĤàª¤ à«įàª°
z Äħ
Õ ¤
Åĳ s
ag we
ĠÙĪ Ùĥ
ĠC atal
à«ģàª Ń
ĠÂ ¸
Ġvet Ã«m
Ð´Ð°Ñģ Ð´Ð°Ñģ
Õ¡Õ ®
à«ĭ àª®
ĠÐ³Ñį ÑĤ
Ġàª¸ à«įàªª
Ġà¸ Ĥ
Ä±s Ä±
Ġà¸ Ľ
c ciÃ³
à¦ ·à§įà¦Ł
Ġ ÏīÏĤ
Ġk dy
à¤Ĺ à¥ĩ
Ã¡s t
Ġ×Ļ ×Ķ
Ġìķ Į
r Ã¥
Ġn om
Ġfo g
æŃ ¤
lar e
Æ°á»Ľ ng
çĶ »
íĭ °
ãĢ Į
Ä±n Ä±z
ãģķ ãģĦ
ãģ« ãĤĪ
Ġso os
èģ Į
Ġàªķàª¾àª° àª£à«ĩ
Ø¶ Ø¹
Ġl uc
f Ã¼
ĠØ£ ØŃ
à¥ģ à¤¤
ĠÎº Î¹
ah at
Ġho ri
á»¯ a
à®¾à®® à®²à¯į
Ġl is
O S
Ġáĥĺ áĥĴ
ĠØ¨ ÛĴ
ÏģÎ¿ Î½
ãĥĩ ãĤ£
à¤¾à¤ ĵà¤Ĥ
à´²àµįâĢį à´ķ
ĠK ati
Ġà°ī à°Ĥà°Ł
um i
à®¾à® ľ
ĠØ² ÛĮØ±
ÑĢÐ° Ñĺ
áĢĢáĢ¹áĢ ±áĢĶ
ÑĢÐµ Ð¼Ðµ
àª³ à«Ģ
c or
Ġd ÄĽ
Ġd Ã¢n
Î»Î» Î·Î½
ĠáĢĺ áĢļáĢ¹áĢ
b ul
ĠÃ Ĵ
ĠáĥĴ áĥĲáĥ®
v or
ĠØªÙħ Ø§Ùħ
Ð°Ñģ Ñı
áĢķáĢ¹áĢ Ļ
si es
Ð» ÐµÐ½Ð¸Ñı
ÅĪ a
ĠpÅĻ e
in den
è İ
Ġç §
ĠáĥĲáĥ¥ áĥķáĥ¡
Ùĥ Ø³
p ie
å¤ ´
ĠÙħ ÙĬ
ÑģÑĮÐº Ð¸Ð¹
Ã ļ
Ð° ÑĨÐ¸ÑĺÐ°
åĪ Ľ
ĠÎ¤ Î±
è¨ Ī
áĢ±áĢĽ áĢ¸áĢ
áĥĲáĥ¬ áĥĺáĥļ
Ġà« ©
lich e
è ¼
Ø± Ø³
à«įàª¯ à«ģ
Ġr is
Ġà®ª à®£
áĢĺ áĢ¬
à¯ģà® ©
Ġber s
Ã¡ ciÃ³
Ġà° ·
Ã³ ng
ĠÎ Ĩ
ĠÐ¾ÑĢ Ð³Ð°Ð½
Ġm k
à§Ł à§ĩ
éĹ »
a i
Ġà¦¬ à§ĩà¦¶
ÙĨ ÛĮÙĨ
ï »
ä¸ ĵ
à¤¿ à¤Ĥ
ĠN A
Ġs me
Ġáĥ¨áĥĶáĥĽ áĥĹáĥ®áĥķáĥĶáĥķ
Ġà¦ħà¦¨ à§ĩà¦ķ
à¹īà¸Ńà¸ ¡à¸
Ġsex o
à¸Ńà¸ ļ
ĠÐº Ð¾Ð³Ð°
Ġka b
ÑģÐº Ð¾Ð³Ð¾
ek in
ĠÐ¸ ÑģÐ¿
ĠÑģÑĤ ÑĢÐ°Ð½
ĠØ³ ÙĨÚ¯
el ÉĻ
q at
ĠÐº Ð°Ð±
20 20
e y
à´£ à´®
Ø§Ø¦ ÙĬØ©
ĠÛģÙĪ ØªØ§
áĥĹ áĥĲáĥķ
à¥ĩà¤ ļ
ç Ł¥
Ġ Åį
Ã Ĩ
é£ İ
ĠÏĩ Î±
Ġì ¦
Ġà¤°à¤¹ à¤¾
à¥įà¤ §
Ġà®ī à®°
áĢĬáĢ· áĢ¹áĢ
Ġà¤ĩ à¤¨
æ§ ĺ
Ġà´® àµĤ
à±įà°Ł à±įà°°
ãĥ Ľ
ĠÃ ģ
áºŃ y
áĥł áĥĿáĥĽ
Ġse perti
áĥĽ áĥĶáĥĵ
Ġs ta
Ġshqip tar
ĠÎ½ ÎŃ
Î½Î· ÏĤ
Ġæĺ ¯
áº¡ ch
ĠáĥĴáĥĲáĥľ áĥ¡
ĩà¸´ à¸Ļ
ĠàªĹàª¯ àª¾
à¤ļ à¥ĩ
ĠÎ¼ ÏĮ
ÉĻl um
áĥĲáĥľ áĥ¢
áĢŀ áĢĬáĢ·áĢº
ĠáĥĲáĥ¡ áĥĶáĥķáĥĶ
Ġf ir
ìĥ ī
Ġàªķàª° à«įàª¯à«ĭ
áĥª áĥĺ
Ġl en
ç« ŀ
u g
à¯ĭ à®¤
re at
å¢ ŀ
å° Ķ
Ħ áĢĶáĢ¹áĢ¸
Ġàª¸àª° àªķàª¾àª°
Ñģ Ð°ÑĤ
ĠãĢĳãĢĲ ãĢĤ
ĠÃ Ĺ
ÉĻn i
Ø§ ÙĬ
à¦¤ à§ĭ
×¤ ×ĺ
Â º
Ġper s
Ġpo t
ĠÎĶ Î¹Î±
ÑĶ ÑĤÑĮÑģÑı
Ð¸Ð· Ð²
ou ve
Ò ĳ
is ka
ĠÐ½ Ð°Ð´
ĠáĥĽ áĥĺáĥĸ
Ø± Øª
Ġ×ľ ×ĵ
à«ĭàª ı
áĢĻáĢº áĢ³áĢŃ
à´¾à´¤ àµĨ
ĠØ¹ ÙĪØ§Ùħ
Ġl eng
sch a
Ġp ou
Ġà¸ Ķà¸
Ú© Ø§Ø±
Ġve Ä¾
à´¿à´ķàµįà´ķ àµģà´Ĥ
Ø§Ø² Ùħ
Ø® Ø§Ø¨
Ġà´¤à´¨àµįà´¨ àµĨ
Ġ×Ĺ ×ĳ×¨
àª¾àªĤ àª§
×ł ×Ļ×ª
íĸ Ī
et ako
Ġkan yang
Ġà´¸ àµĨ
ck et
Ġ0 4
ver s
ĠpÅĻ i
à´¿à´¯ à´¿à´²àµįâĢį
ĠØª Ø´
Ð°Ð» ÒĽ
Ġàªµàª¿àª ļ
æ Ĥ
ĠÐ² Ð¸ÑĢ
Ġer re
è¿ ĳ
ìĹħ ìĨĮ
Ġsel v
Ġ×© ×¢
ģà¸ ¥
ÈĽ ie
Ġàªµ àª¿àªķ
áĥĲáĥĵ áĥĿ
Ð½Ð¸ ÑĨÐ¸
ãģ ¸
Ġp Ã¤
asi h
o ple
Ø± Ø³ÛĮ
à¹Ģ à¸£à¸µà¸
ĠÙĥ Ùĩ
Ġo ju
áĥłáĥĺáĥķ áĥĺ
Ø£ Ø³
Ġà®® à®°
ìĦľ ë¹ĦìĬ¤
ÑĬ Ñĩ
Ù į
Ġàªª à«įàª²
Ġdi en
Ġag æĹĹèĪ°åİħ
Úĺ Ùĩ
ĠÙĬ Ø¬
Ġj uu
Ġà°µà°¿à° ·
Ġv Ã¬
d d
ÑĢ Ð¾Ñģ
à±įà°° à°®
à°ª à±Ī
ĠáĢľ áĢ¯áĢķáĢº
Ġ1 00
Ð Ł
Ġ" .
×ķ ×ķ
Ġin t
it ta
Äģr t
Ġáĥĺáĥľ áĥ¢
Ñĸ Ñĸ
ci p
Ġker ana
Ġà´ķ à´£àµįà´Ł
Ġàª¨ àªµ
Ġê° Ļ
l angan
ĠÙħÙĨ Øª
ĠáĥĲáĥ® áĥļ
Ðµ Ðµ
Ġfinn s
íĮ Į
ant es
áº¯ ng
áĢĽ áĢĶáĢº
Ġpar t
on der
Ġà¤¸ à¥įà¤µ
v es
Ġv uo
Ġyh te
Ġáĥ¡áĥĲáĥ®áĥĶáĥļ áĥĽ
ĠÎĶ Î·
Ķà¸ ¢
àªĤ àª®
ĠÐ² ÑĢÐµÐ¼
Ġm ukha
Ĺà¸ ³à¸
ê¹Į ì§Ģ
Ðº Ð¸ÑĤÐµ
ÄĻ p
ìĺ¤ íĶ¼
áĥĲáĥ¡ áĥĺ
à´¤ à´¿à´°
he z
Ã§ Ä±
àªķ à«Ģ
ÑĨ ÑĤ
Ð» ÑĸÐ´
áº¹ p
Ġà®ķ à®¾à®°
Ġan o
à¤¾à¤ ģ
Ġà®¤à¯Ĭà®Ł à®°
áĢ®áĢ¸áĢ ķ
Ġ ÃŃ
ĠÙĪ Ø¬ÙĪØ¯
ä¾ ¡
Ġ×ĳ ×ĵ
Ñģ Ð°Ð¼Ð°
Ġà°® à°¹
ÅĤ Äħ
zo tt
åĬ ŀ
×¨ ×ļ
Ł áĢ¯
d uc
ĠáĥĽáĥĿáĥ ®
Ġb ardz
O R
Ð½ Ð°ÑĤ
Ġb ur
Ġ×ľ ×¡
Ġv ah
Ġsa j
ļà¸Ńà¸ ¥à¸
àµĭ à´ķ
áĥ¬ áĥĺáĥ¤
çİ ĩ
Ġìŀ ĳ
íķĺ ê²Į
Ġa be
×ĳ ×ª
g ia
ĠÙĤ ÙĪÙħ
Ġ ä¸ŃåĽ½
à«ĭ àª¨à«Ģ
Ġk lo
ĠèĢ Į
ĠÐ²Ñĭ Ðº
ĠØŃ Ø¶
Ġ use
ĠÚĪ ÛĮ
éĢ ł
k un
ãĤĵ ãģª
à±Ģ à°¨
ĠØ¨Ø¹ Ø¶
æĮ ĩ
Ġest Ã¡
Ġabe uk
Ġson ra
j áº¹
Ð°ÑĢ Ð¾Ð´
Ġtika i
áĢ» áĢ¬áĢ¸
Ġ×Ķ× Ŀ
Ġb atz
c are
Ġmo o
ë³ ¸
Ġà®ª à®¾à®¤
ĠA b
Â »
Ġa ye
Ðł Ðħ
Ġç ¬¬
Ġn je
ĠØ¨ Ø§Ø±
Ġto do
Ġà¹Ģà¸ §à¹ĩà¸
um Äģ
Ġê² °
ĶáĢ¾ áĢĦáĢ·áĢº
ĠÐ½ Ð¾Ð²
Ã©n ek
ia c
ä¼ ĺ
Ġà´ ³
Ġà¦® à¦¹
Ġk inh
åĸľ æ¬¢
è§ ģ
Ġt ent
Ġ0 00
Î¯Î½ ÎµÎ¹
ĠØ¬ Ûģ
Ø¹ Ûģ
Ø§Øµ ÙĦ
ÉĻ q
Ġk at
ĠÂ ¾
Ġpar te
ĠÎ±Î½ ÏĦÎ¹
áĢĿ áĢĶáĢº
áĥĺáĥ¡ áĥĹáĥķáĥĺáĥ¡
æ© Ł
Ġà°ķ à°¨
Ġë§ ¤
à¹īà¸² à¸Ļ
d á»į
áĥĲáĥłáĥ ©
d et
ĠJeho fa
ĠkeÃ§i ri
Ġhi lo
Ġau g
Ġàª ¥à«Ģ
ķ à¸£à¸
ĠØ§ ÛĮÙħ
éĸ ĭ
áĢĶ áĢĬáĢ¹áĢ¸
Ġhar ga
ÑĢ Ñı
åĬ ©
áĢģáĢ¼ áĢĦáĢºáĢ¸
ato k
Ġp jes
ì° ½
ĠÄį o
Ïĥ Î¹Î±
ĠTÃ¼rk iye
ĠØ¯ÙĨ ÛĮØ§
Ġà¸ Īà¸
Ġd zÄ«
×ľ ×Ĺ
Ġgi an
àª¿ àªĤàª
Ġas os
ĠáĥĲáĥ Ĵ
áĥ£ áĥĲáĥļ
Ġk et
ak it
ç ı
d Ä«
Ġà¦ķà¦¥ à¦¾
à´¤àµįà´¤ à´¿à´²
ëĤ ľ
à¦¾à¦° à§ĩ
ĠáĥĽ áĥĲáĥĽ
ĠÐ³ Ð¾ÑĢ
áĢĦáĢ¹áĢ Ĩ
Ġà´° à´¾à´ľ
at Ä«
éĢ ģ
Ð°Ðº Ð°ÑĤ
ĠáĥĹ áĥ£áĥĽ
it s
Ġfa ire
Ġë ¹
j mÃ«
ĠÐ» Ñİ
ĠB ir
áĢĲ áĢĽ
à¦¾à¦ «
Ġà¤ķà¥ģà¤ Ľ
ĠÐ² Ð¸Ð´
Î» Ïħ
Îķ Î¡
Ġà¦¬ à¦¾
Ġw szyst
Ġà®µ à®¿à®°
Ġde v
ĠP r
ed er
man to
áĥķ áĥĺáĥļ
p ono
íķĺ ê¸°
at si
Ġi ar
Ð¾Ð½ ÑĥÐ½
Äĵ tu
Ġk go
Ġk j
ĠØ³ Ùĩ
à§įà¦¬ à¦°
Ġmak e
ĠÐ·ÐµÐ¼ Ñĺ
Ġê° Ĳ
jum s
ĠáĢ¡áĢħ áĢŃáĢ¯áĢ¸áĢĽ
Ġà´ĩ à´¨àµįà´¤àµįà´¯
Ġhar us
el li
êµ °
ĠáĢ¡ áĢŃáĢĻáĢ¹áĢ
ÈĽ Äĥ
Ġh and
arc el
as zt
d Äģ
ĠÎº Î¬Î½
ĠáĥĻ áĥĺáĥĵ
so ane
Ġ à¸£
Ãº t
ĠÄĳ iá»ĥm
p owie
æ£ĭçīĮ æ¸¸æĪı
å¾ ·
ĠÐĳÐµÐ»Ð°ÑĢÑĥ ÑģÑĸ
Ģ â
Ġà¹Ģà¸Ķà¸´à¸¡à¸ŀà¸±à¸Ļà¸ Łà¸£à¸µ
Ġà´® à´¾à´¤àµįà´°
ish ga
ÐµÐ½Ð¸ ÐµÑĤÐ¾
Ġà°Ĩà°¯ à°¨
Ġn chini
er et
Ã¡ va
áĥĲáĥ Ń
Ġho d
à±ģà°¨ à°¿
ung e
¼ åĲĪ
Î» Î¿Ïħ
Ð² Ñĸ
Ġ×ĳ ×Ļ×ª
ad as
Ø±ÛĮ Ø¨
ler ini
Î»Î» Î·
Ġ Ã¡s
ì¡ ±
ĠSu om
ĠáĢģ áĢ¶
áĢ¼ áĢ¬áĢ¸
áĢ±áĢĲáĢ¬ áĢ¹
ĠÐ± Ð¾Ð»ÑĮÑĪ
à«Ģàª ¶
ĠáĥĽ áĥĻ
ĠØ¯ ÙĦ
ĠØ§ÙĦØ¯ ÙĪÙĦ
Ġy ii
Ð¸Ð» Ð´Ð¸
ãģĹãģ¦ ãģĦãĤĭ
A M
ĠÑĸ Ð¼
ĠÑħ ÑĥÐ´
ĠØ§Ø³ ÛĴ
p Ã¤
ĠI f
Ġ ul
s g
Ð° Ñĵ
áĢĢáĢ¹áĢ Ĩ
ga z
ub li
ĠJe g
àª¸ à«įàªŁ
ë° ĺ
Ġ×Ľ ×ļ
à´¾à´¨ à´Ĥ
åı Ĺ
éľ Ģ
Ð² Ð°ÑĢ
Ġàªħ àª²
åħ ±
áĢĸ áĢŃáĢ¯áĢ·
ĠåĪ© æĿ¥
áĥĶáĥłáĥ ķ
Ġà´µà´¿à´ µ
ëĿ¼ ìĿ¸
Øµ Ø©
çľ Į
Ã¡l y
ģáĢ« áĢĦáĢ¹áĢ¸
ĠÎµ ÏģÎ³
as o
ĠØ¹ÙĨ ÙĪØ§ÙĨ
Ð± ÐµÐ´
Ã¡r os
é£ ŀ
Ġti á»ģn
Ġkun nen
ĠØµ Ø±Ùģ
Ġk áº¿t
ĠÐł Ñķ
áģ Ĥ
ģà¸ ¡à¸
à¦¾à¦° à¦£
Îº Î®
ĠÕ £
ĠÎ± ÏģÏĩ
c co
ĠÑĸÐ½ ÑĪ
×ķ× ¥
Ġãĥ ŀ
Ġt iek
Ġ×ķ ×©
on na
Ġ×ĳ ×Ľ×ľ
ĠØ¹ Ø¯Ø¯
ĠÐ½Ð° Ñģ
ãģª ãĤī
ÏĢ Î¯
Ġc el
ë ĳĲ
Ã¡v al
Ġ à¸£à¸
ìĦ Ŀ
Ġt áº¿
Ġ×Ľ ×ŀ×ķ
áĥĶáĥĳ áĥĶáĥĳáĥĺ
ĠÑĤÑĢ ÑıÐ±Ð²Ð°
Ī à¸£à¸´à¸
ma in
æ¡ Ī
àªĸ àª¤
Ġo Ê»
ìĪ ł
Ġàªķàª°à«Ģ àª¨à«ĩ
Ġàª¶ àª°à«Ĥ
ĠP ara
ĠÚ¯ Ø±Ø¯
ĠåĬ ł
n ad
áĥ¥ áĥĿáĥľ
à¤ļ à¤¾
lo g
Ġà´¨ à´¿à´²
ambi Ã©n
Ø§Øµ Ø©
Î¼ÏĮ ÏĤ
à«ĭ àª¨à«ĩ
Ð¾Ð¼ Ð¸
Ġàªķàª° àª¤àª¾
åºĨ æĹ¶æĹ¶å½©
Ġàªħ àªµ
à§Ĥ à¦²
áŀ¶ áŀ
à« «
à´¿à´° àµģà´¨àµįà´¨àµģ
ĠáĥĽáĥĺáĥĽ áĥĲáĥłáĥĹ
»áĢķ áĢ®áĢ¸
Ġag å¹³åı°
ÙĨ ÚĨ
åı ĺ
à°Ł à±įà°²
ÃŃ as
áº£ nh
ĠÎ ¯
åĮ Ĺ
ĠíĬ ¹
áĢĢáģ ¡
Ġà´¨ à´²àµįâĢįà´ķ
Ð¾Ð³ Ð°ÑĪ
Ġà®ĩà®¨à¯įà®¤ à®¿à®¯
Ð½ Ð´
áĢ±áĢľ áĢ¸
Ĳ áĢħáĢ¹áĢ
Ġa po
áĥľ áĥĺáĥ¨áĥķ
Ġm os
Ġa ká»į
Ïģ Ïħ
Ġg an
Ġfe ela
Ġ Ù
Ġìŀ ¬
Ġà¦¸ à¦¾à¦®
ĠÏĢ ÏģÏİ
Ġb ed
da pat
ĠÐ¡ Ðº
a j
ì¦ Ŀ
à§ģ à¦¦à§įà¦§
ĠÑĤ Ð°Ð½
h re
Ð Ľ
Ð°Ñģ ÑĨÑĸ
Ġ Ã¼r
uz ti
Ġgjith Ã«
Ġq ol
el lÃ¤
ĠãĤ ¤
Ġm irÃ«
Ġà®ĩ à®¯
Ġcom me
Ġ×Ĳ×Ĺ ×ĵ
Ġ2 4
áĢĢáĢ¼ áĢ®áĢ¸
ĠÏĩ ÏģÏĮ
ĠÐ´Ð° ÑģÑĤ
áĢĶáĢ¹áĢ ¡
áĢĨ áĢ¯áĢŃ
ent z
Ġà°¨à±ģà°Ĥà° ļà°¿
al q
an Ä±
Ġh g
Ġmeg et
Ġà¦ļ à¦²
àª¿àª §
Ġà¤¸ à¥įà¤¥
à«Ģàª ¬
Ġt j
×ĳ ×ķ×ª
Ã¸ g
Ġs or
ct ie
unoa ÈĻte
Ġà°ħ à°Ĥà°¤
ÅŁ k
áģ¾áĢĢ áĢ¬áĢ¸áĢ
ti a
Ġes k
Ð°Ð» Ðµ
Ġl um
Ġk 8
Äģd Äģ
Ġph ÃŃ
Ġà¤¯ à¤¾à¤Ĥ
Ġæ Ĭ
Ġëĭ ¨
Ġdar b
d ar
ĠÐĿ Ðµ
ad hi
Ġáĥ¡áĥĲáĥ ¤
Ġku f
ĠØ³ Ø§Ùħ
áĥ£áĥłáĥ ¡
Ġt al
àªĹ à«Ģ
ik si
ÑģÑĤ Ð¾
ĠEl s
à®¾à®² à¯ģà®®à¯į
×Ļ×© ×Ķ
áĢ¥ áĢ®áĢ¸áĢ
Ġà¤¦ à¥ĩà¤ĸ
áº¡ c
ÏĦÎ· ÏĥÎ·
Ġth iáº¿t
×¨ ×ķ×ª
Ġt Ã¢m
ĠÚ© ØªØ§Ø¨
Ã¼l t
Ġàªĸ à«Ĥ
le gg
ok s
àª°à«įàª ¥
ç ¯
Ġn in
Ġà®ª à®¿à®±
ĠáĢ± áģ¾áĢĢ
ĠG o
ĠÙħ Ùħ
ĠÙħ ØµØ±
Ġë ¸
áĥĿáĥĳ áĥĲáĥ¨áĥĺ
Ġt en
Ġth áº¥y
Ġàª¬ àª¦
ĠT a
Ġ ä»¥
à¸Ļà¸ ´à¸
Ãº p
ÙĪÙĨ ÛĮ
ĠÐ¼ Ñı
à· Ģ
Ã ī
Ġnu est
ÙĪÙħ Ø©
æĶ ¹
ĠÙĩÙħ ÚĨ
ĠØ§Ø³Øª Ø§ÙĨ
Ð°Ð¹ Ð´Ð¸
ĠÑĦ Ð°ÑĢ
à±Ĥà° ª
Ġg Ã¼
Ġëĭ ¹
áĥĶáĥ¥ áĥ¡
à¦ķ à§įà¦°
Ê» ani
Ġ365 ä½ĵèĤ²
Â ¡Â
Ġ1 7
áĢľ áĢ¯áĢŃ
itz en
v n
om e
lar dan
Ð°Ñĳ ÑĤÐ³Ð°Ð½
Ġm ost
Ġan i
ĠØ§ ÙĬÙĨ
ĠØ§ÙĦÙħ ÙĨØª
ar d
áĥĲáĥĹ áĥķáĥĺáĥ¡
èī ¯
ãģĤãĤĬ ãģ¾ãģĻ
à´¤àµįà´¤ à´¿à´¨àµį
ĠØ¨Ø± ÙĨØ§ÙħÙĩ
arr en
à±ĩà° ª
×ĳ ×ķ×¨
ĠÐ¼Ð¾Ð¶ Ð½Ð¾
Ġáģı áģĭ
ĠÐ° Ðº
Ġb áº±ng
Ġdu en
áĢĻáĢ» áĢ¬áĢ¸áĢ
ĠáĥĽ áĥĿáĥĴ
Ġãĥ Ĳ
ĠãģĿ ãĤĮ
à¤°à¥įà¤ µ
áĥĵ áĥĿáĥĽ
Øµ ÙĪÙĦ
Ġà¦¯ à¦¾à§Ł
Ġà®¨ à¯ĩà®°
ĠÐ¼ Ð°Ð²
à¥įà¤ ¡
ur r
Ġp m
wa ii
is esti
ĠÙħÙĪ Ø¬ÙĪØ¯
Ġ×Ĺ ×ĵ
à¤¢ à¤¼
t á»į
áĢĽ áĢ²
Ġtra bal
ĠÙĩØ³Øª ÙĨØ¯
Ġë¶ Ī
ĠÛĮÚ© ÛĮ
is elt
áĤĬ áĢĲáĢ¹áĢ
±à¸ įà¸
Ø§Ø¦ ÙĬ
Ġh lah
Ġto Ãłn
±áĢĽ áĢ¬áĢĢáĢ¹áĢ
Ġáĥŀ áĥĲáĥ¢
ĠâĢ ¢
à¦¿à¦ Ń
ä»£ çĲĨ
à®¾à® Ļà¯įà®ķ
Ġpo de
Ġà®ķ à®µ
ï ¾
Ġáĥ¢ áĥł
Ġho w
Ġph Ã²ng
à´¿à´ķàµįà´ķ àµį
à¹Īà¸ĩà¹Ģà¸ ĩà¸´à¸Ļà¸
Ġa tÃ«
ĠÎ¼ÏĢÎ¿ ÏģÎµÎ¯
Ġà°ħ à°Ń
Ø± Ú¯
Ġt an
à¥ģ à¤ª
Ġden ne
larÄ±n Ä±n
Ġàªµà«įàª¯ àªķà«įàª¤
à«Ģàª ¦
Ġ à¸Ń
Ġn or
Ġè ĩ
à¦¬ à¦¾à¦¦
Ġà¤¹à¥ģà¤ ı
Ġn at
Ġà¤ķ à¥Ī
Ð°Ð´ Ð¸Ð³Ð°Ð½
jum u
áĢ»áĢķ áĢ®áĢ¸
ĠáĥĹáĥ£áĥĽ áĥªáĥĲ
±áĢĲáĢ¬ áĢ¹
v as
Ġja ar
ĠÑĤÑŀ Òĵ
Ġj wa
ÙĤØ¯ Ùħ
ìłģ ìľ¼ë¡ľ
ÙĪ Úĳ
ia le
Ð¡Ð Ĥ
à´ª àµįà´°
ĠØ±Ûģ ÛĮ
Ġg ay
Ġa ma
áĢĦáĢ¹áĢ Ľ
Ġgo ed
Ġk Ã¶r
ĠÄĳ á»ĳi
Ġb áº£o
àµįà´ ķ
yt et
Ġtiáº¿ p
ļà¸²à¸Ĺ à¹Ħà¸Ĺà¸¢
Ġàªħ àª¥
z at
Ġme di
Ġet te
Ġì¢ ĭ
Ġch á»§
Ġu w
ãģ§ãģį ãĤĭ
Ġse cara
ÐµÑĢ Ð°
Ġt á»ĳt
ĠÐ¼Ñĥ Ò³
ĠN ie
ì² ĺ
Ġb ate
ĠÏĢÎ± ÏģÎ¬
ĠÏĮ ÏĢÏīÏĤ
ĠÎ± Îº
ĠÐ¸ Ñģ
ĠáĢ¥ áĢķ
l ut
Ġts h
à¦ ¯
Ġé ĺ
ãģĪ ãģ¦
à°¾à°² à°¨à±ģ
ÑĤ Ñĸ
ĠkÃ¶n nen
Ð ¢
ÑĬ Ð¿
áĢģáĢ» áĢŃáĢĶáĢº
Ð¼ Ñĭ
ĠíĻ ķ
à«ĭ àª¨àª¾
ÄŁ er
ĠÐ³ ÑĢÐ°Ð´
os o
Ð¼ ÑĸÐ½
ç ĭ
ĠØ¨ ÛĮÙħ
ĠÄĳ Æ°á»Ŀng
ê°Ģ ê²©
Ġà´ľ à´¨
áĥĲáĥķ áĥĲáĥĵ
à¯ģà®³ à¯į
Ġtah un
ãĢ ħ
zi r
atu ko
Ġnie u
b t
Ġáĥĳ áĥĲáĥķáĥ¨
Ġd uten
ëĵ ł
à¦ ı
èĲ ¥
ĠÐ±ÑŀÐ¹ Ð¸ÑĩÐ°
àª¸ à«įàª¥
Ġàª ł
áĢĸ áĢŃáĢ¯áĤĶ
Ġm bali
Ġáĥ¨áĥĶáĥ £áĥ
Ø§Ùħ ÙĦ
ĠØ§ÙĦØ± Ø¦ÙĬØ³
à®¿à®© à¯įà®©
Ġi d
íĤ ¤
Ø§ Ø©
ber apa
à®¿à®Ł à®®à¯į
ĠØ¢ÙĨ ÙĩØ§
íı ī
iy le
Ġ àµ½
Ġh iá»ĩu
Ġáģ ĩ
Ġà®ļ à®¿à®²
áĥĺáĥĻ áĥĲ
à«ĩàª ¥à«Ģ
×Ļ×ĳ ×Ķ
ĠÆı li
áĥĶáĥĳ áĥĲáĥ¨áĥĺ
Ġàªķàª¾àª° àª£
lar en
è® ®
ĠëĶ °
Ġíķľ êµŃ
ÑĢÐµ Ñģ
áĥ£áĥłáĥ ľ
r Äĥ
à¥įà¤¯ à¥ĩ
Ġen g
Ġsek Ã¤
Ġàª® àª¾àª°à«Ģ
Ġc ou
Ġà°ļ à°¾à°²
Ġi dÅĳ
Ġàª² àªĪ
Ñį ÑĤÐ°
ĠÑĢÐ¾Ðº Ñĥ
áĢ¼ áĢĦáĢ¹áĢ¸
Ġ1 4
ĠÃł s
áĥĿáĥĵ áĥĶáĥ¡
Ġp el
à®° à¯įà®µ
ĠSe e
Ġy ol
ĠÐĲ Ð»
Ġ Ã¡t
Ġ6 00
ya k
Ð°Ð» Ð½Ð¾
ÉĻs t
ĠG ujar
ÑĬÐ» ÑĥÐ¼
Ġ":" "
ĠvÅ¡ et
Ġàªªàª¾àª¸ à«ĩ
v in
áĥ£áĥ ¢
Ġà°¸ à±įà°µ
ÙĦ ÙĬØ©
àª² à«ĩ
Ġáĥĵ áĥłáĥĿáĥ¡
Ġk l
Ġja u
ĥ n
ĠìĤ¬ ëŀĮ
el Åĳ
Ġà¸ª à¹Īà¸ĩà¹Ģà¸ĩà¸´à¸Ļà¸
æ ®
ĠÎ´ Ïį
åİ Ł
Ġà´ļ àµĨ
us z
Ġg Ã¬
nie c
o g
à®² à®ķ
Ġàªªà«įàª° àª®
Ġs it
Ġthá» ĭ
Ġv Ã¦r
ĠÐ´ Ð¾Ð»
Ġà¤ļ à¤¾à¤¹
ãģ« ãģ¤
Ġdes pre
Ġl ar
6 0
ĠáĥĽ áĥĺáĥĶáĥł
Ġpo la
ik k
ĠÙĦÙĦ Øª
Ġà®ķà¯Ĥ à®Ł
×Ľ ×Ŀ
ĠÙħ Ùĩ
Ġ×ŀ×Ĺ ×Ļ×¨
ãĥª ãĥ¼
Å«s u
Ġáĥĳ áĥł
à°¾à°² à°¨à°¿
ĠB akÄ±
Ġcon s
ĠáĥĶáĥłáĥĹ áĥĲáĥĵ
Ġm are
áĥľáĥĺáĥ¨áĥķ áĥľáĥĶáĥļ
Ġne ws
ãĥ İ
r un
áĢ¼ áĢĻáĢ¹áĢ¸
áĢŁ áĢ¯áĢĲáĢº
Ãª me
Ġb ag
Ð¼ Ð°Ð½
ve zet
éķ ·
ìĹĲ ëĬĶ
á ī
Ġpar ti
Ġtá» ķ
Ġáĥ¡áĥĲáĥĶ áĥłáĥĹ
à´¿à´ķàµįà´ķ àµģà´¨àµįà´¨àµģ
áĥĶáĥĽ áĥĳ
es k
Ġíķ ł
Ġà¦Ń à¦¾à¦°
Ġd ur
Ġd is
Ġ áº¸
us es
áĥĲáĥĹ áĥĲ
ĠÙħØ±Ø¯ Ùħ
Ġ×Ĳ ×Ļ×Ł
Ä«b Äģ
Ġí ļĮ
è¨ ĺ
li a
Ġà¦¹ à¦¾à¦¸
Ġm s
ĠÐ¿ÑĢ Ð²
áĥĵ áĥĶáĥľ
Ġãĥ ¡
èĩ ³
Ġc ara
Ġáĥ¡áĥĲáĥ®áĥĶáĥļáĥĽ áĥ¬áĥĺáĥ¤
è¾ ¾
ĠØ§ÙĨØª Ø®Ø§Ø¨
Ñİ ÑĨÑĨÐ°
Ð¸ÑĢ Ð¾Ð²Ð°Ð½
Ñĥ Ñħ
¥à¸ĩà¸Ĺà¸ °à¹Ģà¸ļ
ĠÙħ Ø¤
±à¸ ģ
Ġ( "
Ġt Ã¡c
ara q
ĠãĢ ı
Ġr ona
iek Å¡
áĢº áĢ¬áĢ¹áĢ
Ġ ä¹
Ð°Ñģ Ñģ
ĠÑĳ Ð½
y et
Ø´ ØªÙĩ
Ð¾Ð» Ñı
é¦ Ļ
ĠáĢĻáĢ¼ áĢĶáĢº
un do
áĢĦáĢ¹áĢ ħ
à´¿à´ ·
Ġde b
ĠáĥĽ áĥĶáĥĿ
ĠãĤ ¯
áĥłáĥĴ áĥĲáĥľ
ko ak
ê ¶Į
ĠM kuu
st ÉĻr
ī à¸
åħ Ī
l ie
ĠÛģÙĪ Ø¦ÛĮ
ÑĬ Ð¶
Îº Î¬
we le
cz Äħ
ĠÎĶ E
à®² à¯įà®µ
à°Ĥà°¡ à°¿
à°¾à°² à±ĭ
çĻ¾å®¶ ä¹Ĳ
ä¼ģ ä¸ļ
ĠØ¨Ø± Ú¯
Ġà®ķ à¯ģà®Ł
Ġuy g
áĢŃáĢ¯áĢ¸áĢ Ĳ
Ġìĥ Ī
Ġm ÉĻs
ets eng
ĠØ§ Ú©
Ġáĥ¡ áĥĺáĥĽ
àª°à«įàª ļ
Ø§ÛĮ ÙĨ
Ġb Ã¡n
ÚĪ ÛĮ
Ġëª ©
Ġw ur
¨ å¤©
ĠáĥĻ áĥĲáĥľ
ĠØ¨ ÙĪ
t an
Ġpe ople
ĠáĥĲáĥ® áĥĲáĥļ
da ÅŁ
áĥĵ áĥľáĥĶáĥľ
×Ĳ ×ķ×ª
à±ģà°¤ à±įà°µ
ÏģÎŃ ÏĢÎµÎ¹
Ġag è§Ĩè®¯
áĥĺáĥĽ áĥĶ
Ġì »
×ķ×ŀ ×¨
Ġ Ã³
ts Ã©g
Ġkas uta
h er
ĠÐ· Ð±
Ġà°° à±ĭà°ľ
ç ħ
à® ·
à±Ĥà° ²
f un
ek si
Å¥ a
ĠSam pai
Ã¦ t
ĠÅ¡ t
ĠØ§Ùħ Ø±
io oni
Ġlo áº¡i
Ġà¦ķà¦° à¦¾à¦°
ĠáĥĴ áĥĲáĥ£áĥ
Ġà°ī à°Ĥà°¦à°¿
à¤¿à¤ ĸ
Ð»Ð°Ð½ Ð³Ð°Ð½
àµģà´ ²
à§ĩà¦ ª
ÏĦÎ¹ Ïĥ
tu re
ul la
Ġr in
w r
à´¯ à´¾à´³
Ĭ à¹Īà¸§à¸
àµĭ à´³
áĢ¸áĢĻ áĢº
ÑĬ Ð½
åĲ Ħ
ÑĤ Ð¾Ð¼
cion al
in da
Ġå ¦Ĥ
Ø§Ø¯ Ø±
Ġáĥł áĥĲáĥĽáĥĵ
ĠÑį Ðº
è¯ ģ
w ang
ìķĦ ê°Ģ
à«įàª ¹
áĢ¬ áĢĲáĢ¹áĢ
ÑĢ ÑĪ
lo t
ĠÃ Ĳ
Ġ×ķ ×ľ×Ĳ
Ġka y
ĠÐµÐ´ Ð¸Ð½
æ² »
Ġp Ãµh
Ġà´ľ àµĢà´µ
áĥĶáĥ ¨áĥĺ
Ġæ Ľ
Ð¼ ÐµÐ½
Ġ0 8
Å¡ Ä·
Ġen d
Ð°Ð³ Ð¾
ç© º
Ġw erk
à«įàª Ľ
Ġc _
Ġv el
Ùİ ÙĦ
Ġt ÃŃnh
ĠØ¨Ø± Ø®
Ġà§¦ à§
Ġam e
Ġl Ã¤h
Ġh á»Ļi
ëĶ Ķ
ĠØ§ÙĦÙħ ÙĤ
ĠF t
Ġke Ã§
Ð°Ð» Ð°Ð²
Ġvi ÅĨ
åħ ļ
ĠÑĤ Ð¾Ð»ÑĮÐºÑĸ
ĠÚĨ ÙĨØ¯
ÑĤ Ð¸Ð±
Ġì½ ľê±¸
ÏģÎ¹ ÏĦÎ¹ÎºÎŃÏĤ
ce p
u q
áĥĲáĥĽ áĥĺáĥ¡
Ñĭ Ð½
áĢķ áĢ±áĢ«
tt er
ĠáĢķáĢ¼ áĢĬáĢº
Ġku j
Ġs as
Ġh al
Ġtara f
Ġà®ª à®ķ
v ie
¢ à¸Ļà¸
ĠáĥĲáĥĽ áĥĳ
Ġà´ §
Ð± Ñĭ
ĠâĢľ ,
Ġf in
mo ja
åı Ĥ
si Ã³
áĥĶáĥłáĥ Ľ
Ġà¦Ĩà¦® à¦¾à¦¦à§ĩà¦°
Ġt ÄĽ
ĠÐ´ Ð·
Ð»Ð°ÑĢ Ð´Ð°
ĠÄ ¼
áĢķ áĢ±áĢ«áĢº
à¤ķ à¤¿à¤¨
Ġhel p
Ġáĥľ áĥĲáĥ®
áĢ±áĢ¡ áĢ¬áĢĦáĢ¹áĢ
ta b
eler i
áĢ±áĢĲáĢ¼ áĢĢ
áĥĴ áĥĿáĥĽ
v ing
Ġma ak
ĠàªŃ à«Ĥ
ĠÎŃÏĩ Î¿ÏħÎ½
ÑİÑĤ ÑģÑı
wan za
Ð± Ñĥ
endele a
bu ie
Ġan ys
áĥĲáĥĽ áĥĶáĥľáĥ¢
áĥĲáĥłáĥ ¯
Ġà¦¨à¦¿ à¦°à§įà¦¬
à®¿à®ļ à¯įà®ļ
àµģà´ ¨
ĠP ol
Ġt Ã¬nh
ĠâĢĭâĢĭâĢĭ âĢĭ
ĠtÉĻr ÉĻf
à«ĩàªķ à«įàªŁ
ĠÕ ¢
ĠÐ¿ Ð¾Ð²ÐµÑľÐµ
Ġvá» ĭ
Ġpam am
åĵ ª
Ã¡ri os
I tem
ĠáĢ±áĢĢáĢº áĢ¬áĢĦáĢ¹áĢ¸
Ġc áº§u
Ġh ak
at to
t are
è Į
ĠÙĪ Ø§ØŃ
Ø¨ Ø§ÙĨ
Î´ Îµ
Ġand re
ãĥ¼ãĤ º
Ġk jo
×Ĵ ×ĵ
Ġà¤¤ à¤°
r ÉĻ
Ī ¬
ì§ ģ
Ġë° ĺ
à°Ł à±įà°²à±ģ
Ġsp Äĵ
íĥ ľ
Ġdu gu
é© ¬
tic le
Ġà°ħ à°²
ĠÃ¼ h
Ġàª®àª³ à«Ģ
àµĤ à´ª
ĠÑĹ Ñħ
p Äĥ
é¢ Ĩ
Ġáĥķ áĥĺáĥľ
Ġvair Äģk
ÙĪÙħ Ø§ÙĨ
ĠØµ ÙĨ
Ġw ell
Ġ àµ¼
Ùģ Ø©
ªà¸²à¸ ¡à¸²à¸£à¸
é«ĺ æ¸ħ
ĠF em
Ġà¦¹ à¦ļ
Å¾ it
ĠÏĢÎµ ÏģÎ¯
à®¿à®Łà¯įà®Ł à¯ģ
Ð» Ð°Ð²
ï º
Ġhi gh
y h
áĥĶáĥĳ áĥĽáĥĲ
áĢķáĢ« áĢĺáĢ°áĢ¸
ĠÐ¿ Ð°ÑĤ
ĠãĤ ¨
ĠÑĤ Ð¾Ð¼Ð¾Ð½
Øª Ø±ÛĮ
àµĥ à´¤
os ti
ÑģÑĤ Ð°Ð½
Ãª re
Ġf Ã¸l
Ġà¦ªà§įà¦° à¦§à¦¾à¦¨
Ġb is
Ġge en
Ġáĥ¨ áĥĿáĥłáĥĺáĥ¡
Ġsu ur
àµģà´ķ à´¯àµģà´Ĥ
e za
Ð¼Ð¾ÒĽ Ð´Ð°
ĠÑĸ Ð·
ĲáĢ²áĢ· áĢ¡
à°¾à°Ĥà° Ł
dak i
Ñĩ Ñĸ
×ķ ×Ļ×ķ×ª
la ys
Ġà¦ªà¦° à¦¿à¦¬
Ġl in
Ø¨ ÙĬØ±
ãģĦ ãģĦ
Ġàªªà«įàª° àªµ
Ġen a
c ato
Ġà°ļà±ĩà° ¶
ÙĪ Ø§Ø±
ëĭ ĺ
Ġ×Ķ ×ľ
ãĥ ı
Ġàªµàª¿àª ¦
à´¿à´ķàµįà´ķàµģà´¨àµįà´¨ à´¤àµį
áĢ±áĢķáĢ« áĢ·
ĠÐ´ Ð¾Ð¿
ĠáĢ¡ áĢĻ
Ġà«¨ à«¦
à§ĭ à¦§
á»ĥ n
Ġà¦ĩ à¦ī
Ġà¸ ŀà¸
l ko
ĠÏĢÎµ ÏģÎ¹ÏĥÏĥÏĮÏĦÎµ
Ġan ni
Ġ2 1
ÙĬ Ø´
Ġm ÉĻlum
«à¸ ¥
gb áº¹
Ġx a
à±įâĢĮ à°²à±ĭ
à°Ĥà° ¬
Ġg agwe
Ø¨ ÙĨ
Ġà¦Ĩ à¦ľ
Ùħ ÛĮØ±
ĠÙĨÛĮ Ø³Øª
Ġbah wa
Ġà¸ ļ
v Ã¦r
Ġ222 70
Ġkn ow
×Ĳ ×Ķ
Ã³n s
Ġv id
à§ĭ à¦¸
ã ħ
Ġbi de
Ġsem ua
àµĩà´ ĸ
Ð½ Ñİ
Ã¡s i
Ġb on
Ġm ara
àª Ĩ
áĥĶáĥĳáĥ£áĥļáĥĺ áĥĲ
nÃŃ m
Ñĳ Ð½
Ã« l
à¦°à§įà¦ £
Ġa á¹£
ĠÐ» Ð²
áĥĲáĥł áĥĲ
ĠáĥĽ áĥ¨
Ð¾Ð± Ñĭ
Ħà¸£à¸ ·à¹Īà¸Ńà¸ĩà¸
ĠV or
à°Ĥà°¦ à±ģà°ķà±ģ
Ġàªķ à«ĩàª®
Ì ī
áĢĶ áĢ±áĢ·
Ġà°µ à°°
Ð½ÑĭÐ¼ Ð¸
à¤¿à¤ ª
d at
Ġ, .
à°¡ à°¾à°¨à°¿à°ķà°¿
is er
ĠgÃ¶ stÉĻr
ĠÙģ Ø¹
ĠÐ¯ Ðº
Ġbli r
lays ia
ì ¼
Ġ ÑĨÑĮ
Ġma a
fa dÉĻ
Ð½Ñĸ ÑģÑĤ
ĠE en
Ġ×Ĳ ×ĸ
ar Ä±
åĩ Ĩ
Ġáĥ¬ áĥĶáĥļáĥ¡
Ġcil vÄĵ
el len
Ġbi lÉĻr
fan y
ĠáĥĽ áĥª
Ø¨ Ø§ÙĦ
Ġd on
ent os
ãģ« ãĤĤ
Ġy ung
C I
Ġà°ª à±Ĭ
à¦¤ à§įà¦°
Ġter m
Ġn Ã¥g
Ð»Ñİ Ñĩ
Ġáĥ¨áĥĶáĥ¡ áĥĲáĥ«áĥļ
Ġedi b
áĥĲáĥł áĥĶáĥĳáĥĺáĥ¡
ĠØ± ÙĪØ´
áĢ¸áĢ ĳ
d un
l h
à§įà¦¯ à¦®
Ø´ Ø¯
Ġà®® à¯ģà®±
Ã³ s
à±ģà°¨ à±ģ
ê ´ĳ
Ġàª¬ àª¨à«Ģ
Ð± Ð¸
al di
Ġmo k
Ġand er
zi ri
å¼ ķ
ĠÚ©Ø±Ø¯ ÙĨ
Ġmarr Ã«
ĠP our
Ø§Ø¦ ÙĨ
j uk
ãģ£ãģ¦ ãģĦãĤĭ
ĠÙ¾ ÙĪÙĦ
Ġàª¸à«Į àª¥à«Ģ
áĥĶáĥ £áĥļáĥĺ
ĠÐ¼ Ð¸
re k
Ġna p
àµģà´®àµįà´ª àµĭ
ĠD a
áĢ±áĢ¸áĢ Ļ
Ġm ange
E S
áĥĲáĥľ áĥĴ
Ð°Ð´ Ð·
Ġ à¬
Ġp Å¯j
à°° à°£
ĠÐ½Ðµ Ð¼Ð°
ĠÙĪ Ùģ
Ð¸Ñģ ÑĤÐµ
Ð¾Ð³ Ð´Ð°
Ġs Ã³n
Ġn da
ĠáĥĿ áĥłáĥĴáĥĲáĥľ
×Ĺ ×ķ×ª
ĠØ¯Ø§Ø´ ØªÙĩ
æķ Ī
Ġàªľ àªµ
å¹ ¿
Î´ ÎµÏĤ
Ġ×© ×Ľ
ĠáĥĶ áĥķáĥł
Å¾ i
Ġà¤ħà¤§ à¤¿à¤ķ
A S
Ġà¤ľ à¤¬
Ġgeb ruik
à´ķàµįà´ķ àµĨ
id h
5 6
ma ya
ĠÏĢÎ¿Î» Ïį
Ġos e
is ia
Ġà¤ľ à¤¾
Ġà´ī à´£àµįà´Ł
Ð½Ð¸Ð¼ Ð¸
ĠØ¬Ø§Øª Ø§
ĠC u
Ġt áº¡o
Ġbosh qa
Ġáĥ¡áĥĲáĥ Ĵ
ge lijk
Ġmo d
ĠÐĲ Ð´
Ê»o e
Ġàª¤àª® àª¨à«ĩ
à«įàª¯ àª¾àª°
Ġon ly
ÑģÑĮ ÐºÐ°
Ġda udz
ä» İ
Î» ÎµÎ¯
Ġpo z
áĥĲáĥ£áĥ ł
Ġu li
Ġà¤²à¥ĩ à¤ķà¤¿à¤¨
å¤ ī
c ka
v Ã¡l
ĠØ§Ø³ ÛĮ
Ø¯ÙĬØ¯ Ø©
ate Ä¾
áĥĲáĥ« áĥĶ
ÑĸÐ»ÑĮ ÑĪ
Ġk y
ĠáĥŀáĥĿáĥļ áĥĺáĥ¢
Ġy g
ÑĢÑĭ Ñı
Ġh á»į
ĠRa is
ç Į
ÏĦ Ïİ
mis eks
ĠÑģ Ð¾Ð±
à±ģà°Ĥà° ¡à°¾
á»Ń a
ĠáĥĲáĥ ĺ
Ġ×ŀ× ĸ
Î¶ ÎµÎ¹
ì¦ Ī
b rie
à«Ĥ àªŁ
áĢ±áĢĽ áĢ¬áĢĢáĢ¹áĢ
Ġt uy
Ġde gli
æĽ ¸
ts eng
é£ Ł
Ġl ahat
à´¡ àµį
ĠÐµÐ´ ÐµÐ½
Ġà¨ ¦
ĠvÃµi b
ĠáĥĲáĥ £áĥ
ĠÒ³Ð¸Ñģ Ð¾Ð±
Ġàª®à«ĩàª ³
ÏĦÎ¹Îº ÏİÎ½
Ġà®® à®Łà¯įà®Ł
ĠÙĨ ÙĤ
m Äģ
Ġj Ã¤r
Ġ ÑĨÑı
ĠáĥĲáĥ Ļ
ĠÄ ¾
à¥ĭ à¤²
Ġho e
Ġn ost
àª¤ à«ģàªĤ
Ø® ÙĪ
Ð¾Ð½ Ð°
ÙĨØ¯ Ú¯ÛĮ
ĠÐº Ð¸ÑĢ
f fi
à´¿à´¨ àµįâĢį
ĠE z
ĠÃ´ ng
Ġà¦ı à¦ĸà¦¨
Ġà¤ª à¥Ģ
íĹ ĺ
ĠáĢģ áĢ»
Ġàª§ àª°
ĠáĥĻ áĥļ
Ġt amÃ©n
Ø±Ùĥ Ø²
k ou
ĠI tali
ĠØªÙĪØ³ Ø·
ĠB arcel
li q
Ġsz a
Ġé Ķ
Ġqu áº£
Âµ ÃĦ
Ġà¸ Ĺà¸µà¹Īà¸
Ġc oa
Ġte go
ĠÄ ĥn
f en
¡à¸²à¸ ģà¸
owe j
ÅĤ em
à¤°à¥įà¤ ¤
Ġku fanya
Ġ ä¸º
moq da
Ġà´ ¨àµįà´
Ġà¦¸ à§įà¦¥
Ġcz as
k et
ch er
åĪ «
ÐµÑĢ Ñĸ
Ġ ÉĻr
Ġna y
Ø± Ø§ØŃ
ãĤ ½
Ġr Ã©s
5 0
uk u
jÄħ ce
Ġà®ĩ à®¤à¯ģ
Ġà¦¦ à¦²
w he
Ġtr Ã¨s
ĠUn ter
Ġar bej
Ġd isa
it so
ë² Ħ
Ġh anya
Ġs wo
Ġv Å¡e
b Ã«t
ĠØ¢ ÙĩÙĨÚ¯
Ĺà¸²à¸ ĩà¸
ÑĤ Ñĥ
Ġàªµ àªĸàª¤
it ats
ê »
Ø± Ø§Ùĩ
áĥĲáĥł áĥĶáĥĿáĥĳ
ÙĬ Ø·
Ġå İ
å® ¹
Ġj Ã¡
Ġm ÉĻh
m esi
à¦Ń à¦¾à¦¬à§ĩ
Î³ Îµ
k ur
Ø³Øª Ùĩ
g em
Ð¾ÑģÑĤ Ð¸
ÑģÑĤÐ² Ð¾ÑĤÐ¾
Ġàªķ àª®
áĥ£áĥł áĥĺáĥ¡
ĠØªÙĪ Ø¬Ùĩ
Ġáĥĺáĥľáĥ¤ áĥĿáĥłáĥĽ
Ć ą
Ġà¦¸ à§ģ
à«ģàª ¶
àª¹ à«ĩàª°
am y
Ð½Ð¾ÑģÑĤ Ð°
Ġà®Ĩà®© à®¾à®²à¯į
iz o
Ġk Ã©sz
v ol
à°¾à°² à±įà°²à±ĭ
Ġiz manto
ç ª
Ġà´ª à´¿à´¨àµįà´¨
Ġmo tho
ĠÄį i
es so
Ġe y
ĠÙĪ Ø¬Ûģ
àª¾àª ·à«įàªŁ
Ġs uo
Ġà¦Ń à¦¾à¦²
ĠM at
Ð°Ð»Ñĸ Ð·
u es
ÏĦ Ïģ
à«Ī àª¯
à§Ģ à¦¦à§ĩà¦°
Ġi yong
Ð¾ÑĢ Ð°
ĠØ¯ ÙĪÙĦ
ĠÙĩÙħ Ùĩ
Ġà®İ à®²à¯įà®²
ÙĬ ÙĬÙĨ
Ġdal la
éĤ Ģ
f ÉĻ
di yi
Ø± Ø§Ø¯
à«į âĢį
ìł Ģ
Ġáĥª áĥ®áĥĿáĥķáĥł
ģà¸ ¥à¸
ĠÙĦÙĪÚ¯ ÙĪÚº
Ġp ak
ar y
æī ĳåħĭ
Ñį Ð¹
nae wele
ĠÅŁ ek
ç± »
à«ĭ àªĤàªļ
3 0
Ġ×ĳ ×¦
ĠÐ» ÑİÐ´
ĠÐĳ ÑĬÐ»Ð³Ð°ÑĢ
d ur
ì¢ ħ
ĠáĥĽ áĥĲáĥłáĥ¢
Ġà´ª à´¿
Ġà®ķ à®£
à«Ģàª ļ
ke la
ĠÐ¡Ðº Ð¾Ð¿
Ðµ Ð³
à´¾ àµ½
àµ º
Ġg uzti
ãĥ ľ
ÏĦÎµ Î¯
áĥĲáĥĵ áĥĲáĥ¡
Ã¤ s
Ġà¦Ĩ à¦¹
Ġà°® à°¾à°Ł
æ¸ ¯
à¸£à¸²à¸ °à¸
Ġn eng
Ġb áº£n
ÙĲ ÙĬ
ĠØ³ Ø§Ø¹Øª
à§Ģ à¦¤
ĠkÄģ lÄģ
à®¾à® ª
Ġmen se
Ùİ Ø§
w ani
Ġala p
à¹Īà¸² à¸Ļà¸
Ġfa ce
ĠãĢĳãĢĲãĢĤ ãĢĳãĢĲ
Ġgi Ãºp
Ùİ ÙĨ
Ø¨ÙĬ Ø¹
Ġàª¤à«ĩàª® àª¨àª¾
to to
Ġ äºº
ĠÄĳ o
¯ à§
à®±à¯įà®ķ à¯ģ
ç» ¼åĲĪ
Ð¾Ð» Ð¾Ð´
Îµ ÏģÎ³
Ġe very
Ġy Ã¶n
ãĤĮ ãģŁ
æķ ´
Ġj en
ĠÐ» Ñĸ
Ġï¿½ï¿½ï¿½ ï¿½
à®¿à®±à¯įà®ķ à¯ģ
ÉĻs inin
cs ol
à¦¿à¦ ĵ
Ġàª® à«ģàªĸ
ĠÑĪ Ñĥ
val t
Ġdi ren
Ġà´¨ àµĢ
ìķ ĺ
Ġíķ Ħ
Ġfir st
ÏĦÎ¹Îº Î¿Ïį
Ġàª¤ àª°à«Ģ
ck y
ĠÙģ Ø§Ø±
Ġr ah
ĠãĢĤ ãĢĤ
s ter
ia p
à°® à±ģ
ar Äĥ
in y
ad Ä±
ĠÐ² ÑĢÐµÐ¼Ðµ
v Ã©
Ġc er
Ġ×ĳ ×ŀ
Ġh ÉĻy
Ġnt le
Ø§Ø´ Øª
Ġàªªàª¾àª Ľ
à®µ à¯Ī
Ġn Ã¥r
ãĥ ļ
à±Ĩ à°¨
Ġà´ķ àµĨ
Ð½Ð¾ Ñİ
ĠØ¢ Ø¦ÛĮ
áĥ£áĥłáĥ Ĺ
g gi
Ġd á»ĭch
ĠàªĽ à«ģàªĤ
Ġà´µà´¿à´ ¶
ĠÐ· Ð°Ð²
Ġ, "
à¹ĥà¸ Ī
Ġå¼ Ģ
ĠK om
ĠÙĪ ÙĦÙĥ
Ġf ins
ĠM it
ãģĭ ãģª
Ù¾ Ø±
ÙĩâĢĮ Ø§ÛĮ
Ġà¦° à¦¾à¦ĸ
h al
Ġ ~
ĠÄ° n
à±ĭ à°Ĥà°¦à°¿
ì ¤Ģ
Ġto p
Ġcon c
Ġm Å¯
à®© à¯įà®ª
Ġt ÉĻh
Ð¼ Ð¾
Ġà¤¯ à¥ĩ
à¸Ńà¸ µà¸
ĠÙĦ ÛĴ
ĠáĥĶ áĥł
I S
à¸² à¹Ģà¸
à®Łà¯įà®Ł à¯ģ
à´¨àµįà´¦ àµįà´°
Ġb ashk
ĠS an
ĠhoÊ»o hana
Ġn as
ari os
ĠØ¯Ø§ÙĨØ´ Ú¯Ø§Ùĩ
iy or
à«ĩàª¸ à«įàªŁ
Ġtom on
Ġà¸ ¥
ĠÙĪØ§ÙĦ ÛĮ
×¨ ×ĵ
à« ¨
lÄ± ÄŁÄ±
Ġà°ħ à°¦
u an
Ġà¦¦ à¦¿à§Łà§ĩ
Û° Û°
u gu
ag gio
y un
ÅĨ Äĵm
Ġal g
Ġà¦® à¦¾à¦°
c ch
ĠÑĤÐ°Ðº ÑģÐ°Ð¼Ð°
ĠÐ¼ ÐµÐº
Ġi ng
Ġha wa
æŃ ¥
ĠÐŀ ÑĤ
à´ķàµįà´ķ àµģà´Ĥ
Ġha ar
áĥĺáĥĻ áĥĺáĥ¡
Ð¸Ð¼ Ðµ
×Ĺ ×ĵ
ĠàªĨàªª à«Ģ
Ġàªª à«ģ
à´ķ à´³àµįâĢį
Ġà°ªà±įà°°à°Ń à±ģà°¤à±įà°µ
àª° àª¾
Ġ201 8
j Ã¡k
Ð¸ÑĤ ÑģÑı
Ġs es
ĠÃ© tÃ©
ÑįÐ½ Ð½Ñı
Ġen t
Ġà¤¥ à¥ĩ
Ġàªľ àª®
ĠÐ´ ÑĢÐ¶
Ġp at
Ġæ ¯
Ġà®µ à¯Īà®¤à¯įà®¤
ĠÙħ Ø¬Ú¾
ĠÛ µ
àªĤàª ¬
un ing
àª°à«įàª ľ
à±Ĩ à°ķ
ĠÐ´ Ð¾ÑģÑĤ
Ð´ Ñĭ
à¦¾à¦ ¡
à«ĩàª¤ àª¾
Ġgro ot
Ġh á»ĩ
à«Ģàª Ŀ
Ġ×Ľ ×ĵ×Ļ
Ġst r
è² ¸
ĠÎ±Ïħ ÏĦÎ®
u vchi
Ġ ÉĻn
Ã¬ m
Ġà°¨ à±Ģ
x x
Ġæ °
á»Ļ ng
ĠÑģ Ð°ÑĢ
ÑĨ ÐºÑĸ
ĠSex o
à°¿à°¨ à±įà°¨
Ġal ue
ad or
Ð» ÐµÑĤ
à¦¿à¦ Ĺ
Ġsh tet
ÐµÐ» Ð¸
Ġìļ Ķ
àª ĺ
ĠRe dir
ĠvÃ¤l ja
à¦¿à¦¨ à§įà¦¨
ÐµÐ½ Ð¸Ð¸
Ġtra ba
ca Ã§Ã£o
ë¶ ģ
Ġal isema
Ø¨ Ø§Øª
Ġà¦Ĩà¦® à¦°à¦¾
em e
Ġb Ã«r
×Ļ× £
Ġà´İ à´¨àµįà´¤
ÙĨ Ùĩ
Ú¯ ÛĮØ±
Ġåı ¯
Ġ":"" ,"
Ġàª² àªĸ
ĠØ§ÙĦ Ø§Ø³Øª
à®¾à® ªà¯įà®ª
ĠÐ¼Ñĸ Ñģ
Ġtut ti
à°° à°¿à°ķ
ÉĻh ÉĻr
Æ° u
ĠáĥĲáĥ¦ áĥĽ
å¸ ¦
×ŀ× Ĳ
ĠÐ¾ Ñĩ
Ġé Ļ
à´¿à´¯ àµĨ
Ġh Äģ
ĠÐ¶ Ð°Ð¼
Ġæĺ ¨å¤©
Ġo ck
Ġw áº¹
æ¥ ½
Ġc ar
Ġà®® à®¿à®ķ
Äį as
Ġag èµĮ
ĠØ¬ Ø§Ø±ÛĮ
×¨ ×Ĺ
v v
áĥĿáĥļ áĥĿáĥĴ
ar ak
el jes
ĠÐ´Ðµ Ð±
ÏĨ Î®
ĠÐ´ Ð¾Ð´
ÛĮ ÙĪÚº
ĠØ®ÙĪØ§Ùĩ Ø¯
ur ah
Ġ×ŀ× ĺ
Ãº n
ning s
Ñĩ Ð¸Ð»Ð°ÑĢ
Ø¨ Ø¹
à´¿à´Ł àµĨ
Ġà¤Ŀ à¤¾à¤²
ÑĨ Ñĳ
áĥľ áĥĺ
§à¸ ±à¸Ļà¸
ek en
ªà¸ ³à¸«
ĠÑĤÐ°Ðº Ð°
ĠÄĳ áº¹p
Ġà®ķ à¯ģà®´
ĠØ± ÙĤÙħ
Ġv ÃŃ
ĠÐ¹ ÑŀÐ»
¥à¸ĩà¸Ĺà¸°à¹Ģà¸ļ à¸µà¸¢à¸Ļà¸
Ġàªªàª¹ à«ĭàªĤàªļ
à¥Į à¤°
j iem
Ġh uu
ĠÐ¼ Ñĭ
Ġo ly
Ġol ish
Ġs ok
ĠÃ¶ ÄŁ
Ġà¦ľ à¦¾à¦¤
Ġdo ÄŁ
Ġj Ã³
ĠI k
Î¹Î¿ ÏĤ
ÅĽ cie
Ð°Ð· Ð¸
Ġkan s
ĠÑģÑĤ Ð°ÑĢ
ĠÏĢ ÏĮ
Ġph áº§n
pá»į lá»į
Ġç½ ĳ
ĠØŃ Ø¯
o f
à«įàª ŀ
Ñģ Ð¸Ð·
Ġáĥ¨áĥĶáĥ ®
ĠØ§ÙĦØª ØŃ
Ñı ÑĤÐ¾
fi ca
à´¦ àµįà´¯
Ä±m Ä±
Ġt ou
Ġàªħàª¥ àªµàª¾
ĠÛ ´
ĠKosov Ã«s
Ġako ko
ÉĻb ÉĻr
iz met
ĠÐŁ ÑĢÐ¾
à¦¾à¦¥ à§ĩ
Ġth Ã¡ng
Ġà®ħà®µ à®°à¯į
äº ĳ
ÑĨÐ¸Ñı ÑĤÐ°
Ġàª¤àª°à«Ģ àªķà«ĩ
Y n
Ļàµįà´ ķ
el ugu
Ġå ĳ
Ġà¦¤ à¦¬à§ĩ
Ġon line
Ġà¤¨ à¤¿
Ñŀ ÑģÑı
Ġáĥ§áĥķáĥĶáĥļ áĥĲáĥĸáĥĶ
Ġà¦ķà¦¾à¦° à¦£
Ġà¦¤ à¦¾
am il
tion s
¹ àª¿àª¤
à§Ģ à¦Ĺ
ÛĮØ¯ Ùĩ
ĠBarcel ona
çĶ °
ĠÙħ Ø°
Ġà´İ à´²àµįà´²
Ð²Ð° Ðµ
à¦² à§įà¦ª
Ð» Ñĭ
Ġdari pada
à¦¨à§įà¦ ¨
à¦¿à¦ ĸ
Ġà®ħà®µ à®°
àµĨà´Ł àµģà´¤àµįà´¤
ĠD om
×© ×Ļ
Ø¹ Ø§Ø±
éĺ Ł
Ġà®ħ à®³
ĠØ£ÙĨ Ùĩ
à´¸ àµįâĢĮ
ÚĨ ÛĮ
ð Ł
Ġ Ã¼l
Ġàªħàª® à«ĩ
Ġà¤Ńà¤¾à¤° à¤¤
Ġ} .
ìĺ Ģ
æĭ¿ å¤§
àª¾àª·à«įàªŁ à«įàª°
ĠØ§ÙĦØ ¶
à´¿à´²àµĩ à´ķàµįà´ķàµį
Ġq ay
ģà¸ ´à¸
is ti
Ġamba o
Z I
ãĥ ¤
áĥĵ áĥĶ
aha la
à®µ à®¿à®²à¯įà®²à¯Ī
Ġp Ã¤r
Ã¨ me
áĥĽ áĥĺ
Ð» ÐµÐ½Ð¸Ðµ
Ïĥ Ïĩ
Åĳ sÃ©g
Ġà® Ĳ
Ð¸Ñĩ Ð½Ð¸
Ġan meld
ķ à¸´
Ġè ´
is sÃ¤
çĽ´ æĴŃ
Ġth ese
Ġw i
éĻ Ĩ
Ġh anno
ĠÐ³Ð¾Ð´ Ð¸Ð½Ð¸
ĠÎ£ Ïħ
Ð² ÐµÑĢ
Ġà¸ ¡à¸
Õ¡Õ £
×¢ ×Ļ×Ŀ
Ø® Ø¯
ĠØª ÙĦ
ÏĦ ÏģÎ±
1 7
o b
ģ à¹Ī
ĠØº ÛĮØ±
lÉĻr inin
Ġàªľà«ĭàªĪ àªı
uar en
Ġw eit
ĠbaÄŁ lÄ±
ĠÐ¹ Ñŀ
Ġ38 09
Ġà¤¦ à¥Ģ
ÎµÎ¯ Î¿
Ġm asa
gli o
ĠáĥĽ áĥľáĥĺáĥ¨áĥķáĥľáĥĶáĥļ
ĠÎĳ Î½Î±
ë£ ¨
ÅĤ am
Ñĳ ÑĢ
Ġà®® à®ķ
Ġac c
........ ........
Ġìł ģ
åł´ åĲĪ
àµģà´ķ àµ¾
Ġya o
ëł ¨
ì£¼ ì¶ľìŀ¥
Ġn na
oun t
Ġà°ªà±Ĩ à°Łà±įà°Ł
ĠJ es
in ist
Ġà¹ģà¸ ¥à¸°
à¦¾à¦¨ à¦¾
Ġáĥ§áĥĿáĥķ áĥĶáĥļ
Ġve ya
Ð¾ÑĢ Ð¸ÑģÑĤ
Ġà®ı à®±à¯įà®ª
Ġà¤° à¤¹à¥Ģ
ĠØ¯ Ú¾
ĠÏĢ ÏģÏī
h ileng
ç½ĳ æĬķ
Ã¼t Ã¼n
Ġg ara
à¦¿à¦ ı
Ġ3 0
ĠhoÊ» om
ĠÐłÐµÑģÐ¿ÑĥÐ±Ð»Ð¸Ðº Ð°ÑģÐ¸
è «
Ġwe b
å½© åĸľæ¬¢
à¤¦ à¥Ģ
ķ à¹Į
à´° à´£
Ġur m
à§Ł à§ĩà¦°
o te
an za
Ġà¹Ĥà¸Ľà¸£ à¹Ĥà¸¡à¸
ĠíĻ Ķ
Ġà¦¸ à§ĩà¦ĩ
h Ã«
ig n
Ġàªīàªª àª¯à«ĭàªĹ
àª¾àª «
áĥĲáĥľ áĥĺáĥĲ
ĠçĶ µ
Ġku k
c um
Ġber b
ak oso
ÎĳÎ ¡
ÙĤ Ø¹
Ġà¦ªà¦° à§įà¦¯
Ģ ìĿ´
Ġà®ī à®¯
Ġ×© ×§
ĠÙĥØ§ÙĨ Øª
Ġê ´ĳ
à®® à¯ģà®®à¯į
ÏĦÎ¿ Î½
ĠØŃ Ø§ØµÙĦ
çĪ ±
Ġ×ĳ ×ĺ
ow anie
os Å¥
ma y
Ġis e
Ġà¦ķ à§ĩà¦¨
ĠâĢĺ âĢĺ
Ġà¦¶ à§ģà¦°à§ģ
Ø¨ Ø±ÛĮ
ĠÚ© Ø¯
l os
å· ±
ĠCOM å½©åĸľæ¬¢
m áº¹
Ġsu pp
Ġì° ¸
¸ è¿Ĳ
Ġáĥŀáĥł áĥĿáĥª
U R
Ñĵ Ñĥ
Ġàª¸ à«ģàª°
Ġn Ã¡
Ġte ta
ĠÑĪ ÑĥÐ½
ĠO s
Ġp uj
el ang
Ġdi ff
Ġé Ĥ
Ð¸ÑĪ Ð³Ð°
ĠÙ¾Ûģ ÙĨÚĨ
Ġf Ã¥r
Ġì° ¨
li b
Ġz h
Î¿Î¹Î½ ÏīÎ½
×Ļ×¢ ×Ķ
Ġàªħ àª¸
ĠM ad
ĠÐ² Ð¸Ð»
æĺ ĵ
Ġre g
ÙĨØ¯ ÛĮ
à¤® à¥ĩà¤Ĥ
Ġà®¨ à®¾à®Ł
uh an
Ġà¸ ľà¸
Ġà¤ħ à¤¬
ãģ£ ãģ¨
Ġh ele
ĠáĥĴáĥĲáĥľ áĥĽ
ra ag
ĠA ll
æ¢ ¦
ĠìĤ¬ ìļ©
à¹Ĥà¸£à¸ ĩ
Ġà¤¬ à¥Ī
Ġàª¥ à«ĭàª¡
Ġà¦¹ à¦¿à¦¸
un ya
ĠÎĵ Î¹Î±
ÙĪØ¹ Ø©
Ġoli b
à±ģà°² à°ķà±ģ
Ġsus o
ĠÑģ Ð¾Ð²
Ġà®ĩ à®²
ĠáĥĲáĥĵáĥĴ áĥĺáĥļ
ĠÎķ Ïħ
ol gÃ¡l
ĠÙħÛĮâĢĮ Ø´ÙĪØ¯
up akan
iz a
åħ ·
Îµ ÏĦÎµ
Ġku na
uar a
Ġh Ã¶
Ø§ÙĤ Ø©
Ġàªªà«ĭàª¤ àª¾àª¨à«Ģ
ĠÐĵ Ð
Ġà¤® à¥ĭ
ĠÙħ Ø§Ø±
Ġbe lir
åį ĩ
Ġà¦ı à¦²
ĠÐ³ Ð¾Ð»ÐµÐ¼
ç® Ĺ
ana di
ĠÚ¯ Ú¾Ø±
Ġb en
ĠáĥĲáĥłáĥ ª
ĠÄĳ iá»ĩn
ĠE uskal
ĠØ³ Ø±ÛĮ
Ġm agyar
è ĳ
1 4
Î»Î¿ Î¹
ĠÑĤ Ñĭ
Ø± Ø§
v os
Ù¹ Ø±ÛĮ
for ma
ĠÏĩ Ïī
Î¼ Î¼Î±
éĤĢ è¯·
à§ģà¦ §
à¦¾à¦ ī
Ø§ÙĨ ÙĪÚº
Ġs is
ĠáĥĽáĥĿáĥ ¥
c am
d or
ì ´Ī
Ġm Ãªme
à°¾à°Ł à±ģ
Ġé Ŀ
Ġth r
Ġty lko
à¤¾à¤ ·
èģ ĺ
Ñħ ÑĸÐ´
Ð²Ð° ÑĨÑĮ
ÑįÐ½ Ð½Ðµ
Ġàªµàª¿àª ¸
Ġb al
Ð¸Ð» Ð°Ð´Ð¸
w yd
Ġc y
Ġock sÃ¥
Ø§Ø¹ Ø¯
áĥ£áĥł áĥĲáĥĵ
Ġà¤ķà¤° à¤£
ĠÏĢÎ¿Î» Î¹
à°¾à°° à°¾
tÃ« n
Ġàª®à«ĭàª ¦
«à¸ ¡à¸²à¸
ĠÐ¼ Ð°Ð»
ĠZ a
Ġka u
Ġà¤¦ à¤¿à¤¨
ĠC unoaÈĻte
Æ Ĵ
ik Ã¤
Ġlo ok
Ġfr am
Ø² Ø©
ĠÐ³ Ð¾Ð»
ĠD an
ĠN u
Ð¸Ñĩ ÐºÐ¸
ĠÐ´ÑĢÑĥ Ð³
ĠÑĤ Ð¾Ð»ÑĮÐºÐ¾
ĠÏĦ Îµ
à¤Ĥ à¤Ł
asun a
à¯ģà®ķ à®¿à®©à¯įà®±
ĠÐ´ ÐµÑĢÐ¶
Ġsa ja
Ġà®µà®¿à® ³
àµĢ à´¸àµį
ÙĪ ÙĪ
ya h
Ġtá» Ľi
Ġà¦® à§ģ
Ġà¸ ¥à¸ĩà¸Ĺà¸°à¹Ģà¸ļà¸µà¸¢à¸Ļà¸
Ġgj it
à¸£à¸²à¸Ħ à¸²à¸
p Ã¤e
å® Į
ĠÐ¼ Ð¾Ð´
ÙĬÙĦ Ø©
Ġth Æ°á»Ŀng
Ġàª® àª¾àª°àª¾
à¤² à¥įà¤¯à¤¾
Ġà´ª àµģà´±
ãģķãĤĮ ãģ¦
ÐµÑĢ Ð¸
à±Ģ à°¡
d ni
ÑĨ Ð¸ÑĺÐ°Ð»
á ĭ
Ø§Ø º
Ġp la
Ġtse la
Ġbul un
ĠÐº Ð¸ÑĪ
ĠÄĳ áº¡i
et ta
Ġà´¨ à´¿
Ġáĥ¡ áĥĻ
ĠØ² ÙħØ§ÙĨ
ÈĽ ia
à¹Ģà¸Ľà¹ĩ à¸Ļ
Ø³ Ø§ÙĦ
Ġdes de
à¤¾à¤ ³
Ġà´® à´²
à´¯ àµĨ
ĠÐ¼ Ð°Ð³
áĥĲáĥ¡ áĥĹáĥĲáĥľ
à¹ģà¸¥ à¹īà¸§
Ġe e
ĠMas k
ĠHa waii
tz ea
Ð´ Ð·Ðµ
Ġho áº·c
Ġà¤ķà¤° à¤¤à¥ĩ
àª° àª®
Ã¸ k
å¥ ĩ
çł Ķ
z u
ĠÐ¿Ð¾Ð» ÑĥÑĩ
à«ĭàª ³
ĠÐ¡ ÑĤ
ì¸ ł
Ġl agun
ķàµįà´ ·
ë¡ ł
an chi
Ġáĥ¨ áĥĶáĥķ
x s
ì§ Ī
Ġë³ ´ë
Ġà¦¤à¦¾à¦° à¦¾
Ġà®®à¯ĩ à®²
nÃŃ ho
Ġd Ã¶n
iá» ħn
áĥĿáĥ¤ áĥļ
o li
um b
ĠY a
Ġà¸¥à¸ĩà¸Ĺà¸°à¹Ģà¸ļà¸µà¸¢à¸Ļà¸ Łà¸£à¸µ
à±ĭ à°Ł
ÄŁ Ä±nÄ±
áĥĲáĥľ áĥĲ
à±ģà°Ĺ à±ģ
è» Ĭ
Ùĩ Ùĩ
Ġà®ļ à¯ĩà®°
Ħ à¸Ļà¸
Ġë¡ ľ
Ĺà¸ ¸à¸
Ġà¦ª à§ģà¦²
Ġ×¦ ×¨
ĠÎĺ Îµ
Ġáĥ©áĥĶáĥĽ áĥĺ
Ġt ag
Ġá»į ká»į
à°¾à°· à±įà°Łà±įà°°
re f
ĠI ch
Õ¡Õ °
à§ĩà¦² à§ĩ
à´ķ à´¾à´°
ÏĦ Î®ÏĤ
à¤¿à¤ ľ
ĠìĦ ¤
ĠØ¨Ø§Ø² Ø§Ø±
ĠÐ¿ÑĢ Ð¾Ð²
Ġkh u
ĠÙĦ Ø£
Ġíķ Ļ
ĠØ² ÙĨ
Ġw on
a di
Ġver y
Ġpa a
ĠÐ±ÑĬÐ´ Ðµ
Ġæ ķ
Ġk ah
Ð»Ð°ÑĢ Ð¸Ð³Ð°
ÐµÑĤ Ð°
ip e
u en
à¦ķ à§ĩà¦°
va a
ĠÃ¼z er
ch ter
á»Ł i
à¦ŀ à§įà¦ľ
Ġà¤ľ à¤¾à¤¨
Ð¾ ÑĤÐµ
á Ĭ
gbe gbe
Ò³ ÑĥÑĢ
à°°à±įà° ļ
Ġpue de
Ġg el
è¯ Ŀ
Ġba ck
Ġper son
Ġáĥ© áĥĲáĥĽ
Ð¸ÑĢÐ° ÑļÐµ
ĠÎ¿ Î¹ÎºÎ¿
Ġla ikÄģ
ĠkÃ¶ vet
Ġà¸ªà¹Īà¸ĩà¹Ģà¸ĩà¸´à¸Ļà¸ ļà¸²à¸Ĺà¹Ħà¸Ĺà¸¢
Ġch á»©c
6 8
r Ã³l
q i
Ġàª¸ àªª
à°Ĺ à±įà°Ĺ
Ġloa Ê»a
ĠâĢ ª
ĠØ³ ÙĨ
ÏĢÎ¬ ÏģÏĩ
Ġàªı àª¸
ç½ ®
Ġà¤µà¤¿à¤ ¶
Ġà°ªà°¾à°° à±įà°Ł
ua le
áĥł áĥĿáĥĳ
ak at
Ġì² Ń
Ġà°¸ à±įà°¥
ung a
Ġb onus
ĠÐ²ÑģÐ¸Ñĩ ÐºÐ¸
à¸´à¸ Ķà¸
te le
ĠÐ¶ Ðµ
çº ¢
ĠÐ°Ð´ Ð·
Ġy icha
Ħà¸¸à¸ ĵ
ĠÐ° Ñŀ
Ã Į
à®Ļà¯įà®ķà®³ à¯Ī
è½ ¬
ĠC Ã´ng
ĠS eks
ãģĿ ãģĨ
à¥Ĥ à¤²
Ġàªª à«ģàª°
è² ·
Ġbu at
ĠÎł Îµ
Ġà°İ à°¨à±įà°¨
Ð½ ÑĥÐ²Ð°ÑļÐµ
Ġem ber
ÙĤ Ûģ
Ġm bi
ë¶Ģ íĦ°
à®¨à¯įà®¤ à¯ģ
ĠÏĦ ÎŃ
Ġdre j
ĠÎºÎ± Î»
æŀ Ĺ
Ð Ĵ
à¤¾à¤ §
ÐºÑĢÐ°ÑĹ Ð½
àµĬà´° àµģ
ĠãĤ Ĵ
Ġat Ã©
es en
Ġà¤¬ à¤¾à¤¤
áĥł áĥĲáĥ¤
ŀà¸Ļà¸ ±à¸Ļà¸
Ġba ik
Ġà´ĩ à´Ł
ĠìĦľ ìļ¸
æ¨ ¡
Ġàªħ àªĤàªĹ
à¸²à¸ ģ
ta do
Ġn tse
Ġäºļæ¸¸ å®ĺç½ĳ
ro Å¡
Ġva lam
Ġà¦¨ à§ĩà¦¤
ĠÐºÐ¾ ÑıÑĤÐ¾
it ud
Ġà®ª à¯ģà®¤
Ġw ij
ĠÙĦ ÙĥÙĨ
w erk
ĠÎķ Î»Î»Î¬
ik ia
áĥ¦ áĥķ
ka u
Ġ 99
à¯įà®¨à¯įà®¤ à¯ģ
ĠØ§ ÙĤØª
æ¶ Ī
enn om
Ĺà¸µ à¸
Ð± Ð°ÑĢ
ĠvÄĵ l
Ġa Ã±os
Ð¸Ð½ Ñĭ
Ïĥ ÏĦÎ¬
Ð½Ð¸Ðº ÑĸÐ²
ĠÐ¾Ñģ Ð¾Ð±
Ġì ¶ľ
ĠàªĹàª¯ à«ĭ
ts i
àª¨ àª¾àª°
Ġwa o
Ġli b
Ġ ä¹Ł
é» ĳ
Ġà¤ķ à¥įà¤¯à¤¾
Ġgiá» Ľi
à¤ļà¥įà¤ ļ
Ġ ðŁ
à®µ à®°
A L
à®® à¯įà®®
ĠIs lam
le ich
à±ĩ à°²
ĠÑĥ Ñģ
mi ento
åĽ Ľ
ĠÑħ Ð¸Ð·
mek te
Ð¾ÑĢ Ñĭ
Ġ0 7
Ġgi áº£i
Ġá»į já»į
Ġaus si
la p
Ġàª°àª¹ à«ĩ
Ġà¦¹à¦ļ à§įà¦Ľà§ĩ
ĠáĥĵáĥĲáĥ £áĥ
à¯ģà® Ļà¯įà®ķ
Ġb ra
ĠáĥłáĥĲáĥĽáĥĵ áĥĶáĥľ
á» ³
æĸ° éĹ»
Ú¯ Ùĩ
Ġà¤° à¥Ĥà¤ª
łà¸²à¸ ŀà¸
åį ĵ
Ġz uten
ĠÑģÐ² Ð¾Ñĺ
ĠÕ ½
Ġqan day
Ùħ Ø§ÛĮ
* *
2 3
te en
Ġ Þ
à´¸ àµįà´¤
×ķ×ľ ×Ļ×Ŀ
ÚĨ Ùĩ
ĠÑģ Ð°Ðº
Ð¸Ðº Ð¸
qu Ã¨
Ð¸Ð· Ð°
re i
ãĤ Ģ
Ġà¤® à¥įà¤¹
ãĥĥ ãĥī
Ġ= "
çİ ĭ
ĠáĥĵáĥĲáĥ ĳ
à¹Ģà¸ ķ
p x
à¹īà¸²à¸ ĩà¸
ĠÖ ²
as ie
Ð»Ñĸ ÐºÑĸ
éĿ Ĵ
Ġoldu ÄŁ
Ġà°¨à±ģà°Ĥà° ¡à°¿
Ġì½ Ķ
àª¨à«įàª ®
à¸£à¸²à¸Ħ à¸²
Ġb á»ĩnh
ìľ ¡
A T
Ġà®¤ à®°
àµĭ à´§
l la
fu ta
ma ydi
ĠØ¨ Ø¬
Ġà¤®à¥Ī à¤Ĥ
Ø¯ÙĬ Ø«
ĠW ir
ĠÙĬ ÙĨ
áĥĺáĥ ¬
Ġà¤¨ à¤¾à¤¹à¥Ģ
à¸Ńà¸ ģ
Ġb ud
is ten
Øª Ûģ
Ġmo Å¼e
is to
Ġk áº¿
ci jas
Ð¾ÑĤ Ð¸Ð²
ĠÂ ®
Ãª s
æł ¡
Ġà¦¸ à¦¾à¦¥à§ĩ
ĠÙĪÙĩ ÙĪ
à«ģàª ·
Ġãģĵ ãĤĮ
à±ģà°Ĥà° ¡
Ġbu de
èĬ Ĥ
Ġàªµ àªļà«įàªļ
Ø¨ ÙĬØ©
Ġàª¤ àª¥àª¾
à®Ł à¯įà®ļ
Ġos o
ĠÎµ Î¹
Ġå¯ ¹
v ik
Ġà¤ªà¥įà¤° à¤¤
ĠâĢ ı
Ġà¦¸ à¦¦
ĠÙħ ÙĩÙħ
Ġç ī
Ġla b
Ġà®® à®¾à®¤
Ð½Ð°Ñģ ÑĨÑĮ
ÙĦ Ø§Ø«
áº§ m
Ġà°¨ à°¾
×Ļ×ķ×ª ×¨
à®µ à®°à¯į
ah ana
Ġve el
áĥĶáĥł áĥĶáĥ¡
ĠR es
Ġc am
Ð½Ñĸ ÐºÑĸ
il d
ØªÙħ Ø§Ø¹
ĠØ¨ Ú¾Ø±
à· ı
Ġmen y
à¤¾à¤ ¶
Ġà°ķà±ĭ à°¸à°Ĥ
æĿ ĳ
ling en
à¸Ļ à¹īà¸
der n
i ge
Ġëĵ ¤
ĠØ¢ Ø±
Ġàª¤àª° àª«
ÑĩÑĭ ÑĨÑĮ
Â ª
ÑĥÐ»ÑĮ ÑĤ
le m
Ġë¬ ´ë
´ Ŀ
Ġáĥ Ł
Ġàªķàª° à«įàª¯à«ģàªĤ
Ġ ÏĪ
z Ä±r
di y
ta in
à´ķàµįà´ °
Ġjo y
Ġàª¤à«ĩàª® àª£à«ĩ
ĠìĹ Ń
ĠÐł Ð¾ÑģÑģ
Ġà°Ĩ à°°
ĠÐºÐ°ÑĢ Ð´Ð°
Ġlá»Ľ n
sz a
Ġà¤ķà¤° à¥ĩà¤Ĥ
ÙĦÛĮ ÙĦ
Ð°Ð½ Ð¾
ĠãĤ Ń
Ġ×ĵ ×ĳ×¨
àµĭ à´²
ka a
à¯Īà® ®
ĠØµ Ùģ
Ġn Ãµ
åĬ Ł
ak uwa
Ġex per
ÃŃv el
Øº ÙĬØ±
ĠÐĺ Ð·
à¤¸ à¤¾
åĳ ³
Ñĩ ÐºÐ¸
Ġàª¹ àª¾àª¥
Ġmas s
Ġkter Ã½
à±ĭ à°¦
ÙĪ Øµ
à¦¨à§įà¦¤à§įà¦° à§Ģ
am ii
áĥĿ áĥĲ
wi Äħ
Ġm elho
ç Ĭ
çĶ £
Ñĸ Ñħ
ÑĥÒĽ ÑĥÒĽ
Ġà´¶ àµįà´°
á¹£ u
ç» Ļ
ĠP a
er im
Ġa ast
Ġso lo
ĠØ¬ ÛĮØ³
à®µ à®°à¯įà®ķà®³
ãĤĭ ãģ¨
ong o
ĠÐ²ÑĬ Ð²
à´¿à´ļàµįà´ļ à´¤àµį
×Ļ×ª ×Ķ
tÄģ s
èĬ ±
ĠàªĨàªµ à«įàª¯à«ĭ
åĽ ł
ĠØ£ Ø®
ĠØ± Ø¦ÙĬØ³
à¥įà¤¯à¤¾à¤ Ĥ
atz ea
Ġp Ã¤e
Łà¸¸à¸ķà¸ ļà¸Ńà¸¥
Î¸ Î½
Ġà´ĩ à´µ
Ġnd ry
Î½Î¿ ÏĤ
Ã¡c ie
Ġe dÉĻ
Ġn jo
Ġy or
ĠW o
ĠÏĥ Î¿Ïħ
×ĳ×¨ ×Ķ
ĠØ¨ Ø§ÙĨ
ÑĬ Ð·
ĠÙĪØ§ÙĦ Ø£
à¹ĥà¸Ĭà¹īà¸ Łà¸£à¸µ
×Ļ×ŀ ×Ķ
ĠC or
íĮ Ĳ
Ġ Äģr
à°¾à° ļ
åŃ ĺ
Ġha cer
Õ £
ĠÙħ Ú¯Ø±
Ġjet Ã«
v Ã¡
ĠØ³ Øª
àµĩà´° à´³
è ı
Ġts ama
Ġà°ķ à°¾à°²
Ïĩ Î±Î½
§à¸ ¥
Ġàª² à«Ģàª§
Ñŀ Ð»Ñı
ĠÉĻ la
ka z
Ġà°¤ à°°
Ġà¤Ĺ à¤Ī
Ġë° Ľ
ëł ¹
ĠtÅ¡ o
Ġak kor
áĥĶáĥł áĥĲ
Ġà°¸ à±įà°Ł
ban e
àª ¢
Ġmem ber
Ġmer upakan
ãĥĨ ãĤ£
áº© n
Ġma v
Ġpo le
Ġ×Ĺ ×Ļ
s iniz
ĠÙĨÙħ Ø§ÛĮ
Ġ×ľ×Ĳ ×Ĺ×¨
Ø³ ÙĦØ§Ùħ
Ã³ ri
Ġáĥ¡ áĥ£áĥļ
Ð¼ Ñĥ
ĠÐ¡ÐºÐ¾Ð¿ ÑĺÐµ
ĠÙĪ ÙģÙĬ
ÑģÑĤ ÑĢ
à¦¾à¦° à§įà¦¥
Ġæ ³
Ģâ Ļ
Ġx o
ĠaÃ§ Ä±k
Ġsa babu
ul le
Ġb Äĵr
ĠØ´ Ø§Ûģ
Ġà¦¸ à¦Ń
Ġáĥ©áĥķáĥĶáĥľ áĥĺ
Ġàª² à«ĩàªµ
ĠÑŀ ÒĽ
es zt
Ġb ata
Ġi yi
Ð¾ ÑĦ
Ġha b
ĠÃ ĥ
Ġel le
in ess
ĠÙĬ ÙĥÙĪÙĨ
àµĨà´Ļàµįà´ķ à´¿à´²àµģà´Ĥ
ĠØ¨ÛĮØ´ ØªØ±
Ñı Ð·
Ġr om
å Ħ
áĥĶáĥĳáĥĺáĥ¡ áĥĲ
ï¼ Ĵ
çł ´
ĠÃ Ī
åķ ı
Ġdu e
Äĵr t
Ġà¤ķà¥ĭ à¤Ī
Ġd ÉĻr
Ġv ill
ãĥ³ãĤ ¿
Ġ ÅĻ
ov Ã½
Ġph Ã¡p
Øµ Ø¯
ko lo
ĠGr atis
ĠÐ² Ð¸Ð¿
æĿ ¡
ĠÐ¾Ð² Ð¾Ñĺ
à¹ĥà¸«à¸ ¡
Ġha i
åĮ ħ
ate ix
Ġà°ļ à°¿à°¤à±įà°°
Ġmy cket
Ä«g as
à¦¥ à¦®
Ġa si
Ġà¸Ĺà¸Ķà¸¥à¸Ńà¸ĩ à¹ĥà¸Ĭà¹īà¸Łà¸£à¸µ
Ġ×©×ľ ×Ĳ
ãģ¡ ãĤĥ
íĺ Ħ
Ġtr ang
à®² à®¿à®²à¯į
Ø§Ø³ Ø©
Ġà¦¬ à¦¿à¦°
Ġáĥ¡áĥĲáĥĻ áĥ£áĥĹ
Ġàª® àª¾àª¤à«įàª°
en om
áĥĺáĥľ áĥĴ
æĸĻ çĦ¡æĸĻ
Ġfo yda
à°¿à° ¡
ĠÐ½Ð° ÑĪ
Ġz ina
Ġd Ã¹ng
×ķ×¨ ×Ļ
Ġeg un
Ġbu kan
×ĺ ×Ļ
ĠØŃ ÙĤ
à±Ĥà° ¨
áĥĲáĥ¢ áĥĺ
à®ļ à¯į
Ø¨ Ø§Ø¯
h ta
Ġp iem
Ġm iej
ĠÙħÛĮ ÙĦÛĮ
à±Ĩ à°Ĥà°Ł
Ġà¨ ķ
ç Ĺ
à¦¾à¦ Ń
ĠÐ¿Ð° Ñĩ
ĠÐł Ðħ
us sa
ag gi
àªµàª¾àª¨ àª¾
ru ar
Ã¡l ne
Ġm ida
Ð°Ð½ Ñĸ
Ġpat aki
Ð² Ðµ
Ġbe berapa
à®¿à®¯ à¯ĩ
Ġàªļ àª¾àª°
Ġg en
ĠÐ¾Ð± Ñĺ
m iz
ĠæĹ¥ æľ¬
Ġà®ħ à®ªà¯įà®ª
lÉĻr ÉĻ
Ð½Ñĸ ÐºÐ°
Ġà§ §
Ġa by
àµįà´ ¨
Ġd isp
ĠØ§Ùģ Ø±Ø§Ø¯
Ġà®ļ à®¨à¯įà®¤
Ġàªµ àª¿àª°
Ġfo arte
Ġà®İà®© à¯į
ÑģÑĮ ÐºÑĸ
Ġæ¶ ĵ
æŀ ģéĢŁ
Ð¸ÑĢ Ð¸
lis u
ãĥ» ãĥ»
à¤¾à¤ «
Ġà¤ªà¤¹ à¤²à¥ĩ
ĠA p
æµ İ
lan ish
Ð¼ Ð¾ÑĤ
Ġà¦ķ à¦²
ĠÐ¾ Ð¼
ta h
Ġ äºļæ´²
×¤ ×Ļ×Ŀ
Ö ¹
Ġ×ĳ ×Ļ
Ġ×ķ ×ł
Ġà¦ªà§ģà¦² à¦¿à¦¶
Ġáĥ£áĥĻ áĥķáĥĶ
Ġà¦ªà§įà¦° à¦¶
Ð¾ ÑĢÐµÐ´
Ġno en
Ġà°ħ à°¤
Ġà§§à§ ¦
Ð¿ ÐµÑĢ
Ġgb e
ĠÐ²ÑĸÐ´Ð¿ Ð¾Ð²ÑĸÐ´
ĠÐ½Ð° ÑĦ
Ġíķ ¨
vÄĽ t
ĠQu á»ĳc
ĠÏĢ ÏģÎŃÏĢÎµÎ¹
ĠàªĨàªª àª£à«ĩ
¢à¸ §à¸
êµŃ ìĿ¸
íİ ¸
Ġi hr
st ra
×ķ×ľ ×Ļ
ĠG a
è¶ ħ
Ġman y
çĥ Ń
ĠÐ¼Ð° ÑĬÐ»ÑĥÐ¼
Ġà¹Ĥà¸Ľà¸£à¹Ĥà¸¡à¸ Ĭà¸±à¹Īà¸Ļ
à±ģà° ļ
Ġãĥ ª
àª° àª¨à«Ģ
ĠÄ« pa
Ġ×¢ ×ķ×ĵ
à¹Īà¸² à¸Ļ
ÑĩÑĭ Ð½
è¶³ çĲĥ
ĠÐµÐ´ Ð½Ð°
Ã ®
Î»Î¿ Ïį
ĠãĢ Ĺ
ĠØ§ÛĮÙĨ Ú©Ùĩ
ur Äĥ
Ġdi k
ÑģÐº Ð¾
d in
Ñģ Ð¾Ð½
Ġw enn
ĠáĥĻáĥĺáĥĵ áĥĶáĥķ
à¤ª à¥Ģ
Ġdav lat
ĠÕ ¾
ĠØ£ Ø¹
Õ¡Õ ¬
ÑİÑĤÑĮ ÑģÑı
Î §
à¤Ĺ à¤°
ij Äģ
iy y
à°° à°¿
Ġel k
Ġà¤ªà¥įà¤° à¤¦
ĠáĥĲáĥ ŀ
à¯Ĥ à®°
Ġke h
Ã¶y Ã¼k
à±ģà°ķ à±Ĭ
ih in
Ġèĩ ª
àµ¼ à´¤àµįà´¤
æľį åĬ¡
áĥķ áĥļáĥĺáĥ¡
ĠØ® ÛĮ
ĠÐ· Ð°Ñģ
Îº Î»Î·
ĠØ« Ùħ
Ġagb ara
Ġà®ī à®±
z enÃŃ
Ġfre m
o ti
ĠÙ¾Ø± ÙĪ
Ġàª¤àª® àª¾àª°à«Ģ
ek e
à¯Ĭ à®°
ĠÚ¯ Ø±ÙĪ
ĠÚ¯ ÙĦ
çķ ª
æĶ ¯
Ġàª¦ à«ĩàªµ
Ġáĥ« áĥĲáĥļ
ÑģÑĤ ÑĥÐ¿
e h
Ġes et
ĠÐ±Ñĭ Ð»Ð¾
Ġoly an
ë² Ī
ĠRes p
Ġv as
ĠÂ º
à±ĩà° ¯
ĠØ¨Ø³ÛĮ Ø§Ø±
als ts
ÏģÎ± Îº
Ġkish te
ov ÄĽ
Ġàªµàªļà«įàªļ à«ĩ
ĠáĥĲáĥ ĸ
Ġo h
ĠM ga
Ġtr á»ĭ
ä¼ Ĺ
Ġd Ã¥
id u
×ķ×¨ ×ª
ÙĪØ± ÙĬ
Ġszer int
ri b
Ġinc lu
ĠÃ ¢
ãĤ ¶
is in
Ã¸ p
ĠÚ©ÛĮ Ø³
éª Į
Ã©s e
Ùģ ÙĦ
Ġãĥ ĳ
Ġ×ª ×§
Ġà« «
à±ģà°² à°¨à±ģ
Ã¤l lÃ¤
Ġà¹Ģà¸ ¡à¸
æŀ Ĳ
ĠÐ· Ð°Ð±
k ar
ë¦ ½
Ġà´¸ à´¹
à«ĩàª¨à«įàª ¡
Ġq al
um ba
Ġt alde
à¸´à¸ ĩà¸
à®¿à®¯ à®¿à®©à¯į
à´ķàµįà´ķ à´¾à´°
ÑĢ Ð¸ÑĤ
Ø´ Ø§Ø±
der s
Ġàªµ àª¡
à´¯ à´¿àµ½
Ġà¦Ĩ à¦Ľà§ĩ
Ġktor Ã½
Ġà®ħ à®²à¯įà®²
à¸²à¸ ªà¸´
ĠÐ¼Ñĥ Ð¼
à¥ģ à¤¦
Ñİ ÑĩÑĭ
Ø¬ Ø±
Ġà®¤ à¯ĭ
Ġàªĸà«Ĥ àª¬
à¦¤ à¦¾à¦°
Ġto im
ĠàªĹ àªĪ
éģ ¸
Ġbe g
Îº Î·
Ġel len
áĥĲáĥ¡ áĥ£áĥ®
er ung
Ġm ÉĻr
ĠáĥĵáĥĲáĥ Ĵ
è¾ ¼
ÉĻd ÉĻr
ãĤĵ ãģ§
Ġàªª àª¾àª£à«Ģ
Ġà¸ªà¸ ¥à¹ĩà¸Ńà¸ķ
lari da
à°¾à°¨ à°¿
ĠÎ¼Îµ ÏĦÎ¬
ĠáĥĴáĥĲáĥľ áĥª
éĤĢè¯· çłģ
à¸£à¸²à¸ ¢à¸
Î¼Îµ Î½
å¿ ľ
Ġc Ã¡i
Ġcáº£ m
Ġà®ª à¯ĩà®ļ
ìĿ´ ëĿ¼
à°°à±įà° ª
Ġti ng
Ġà´µ à´¿
áĥ®áĥķ áĥĲ
à°° à°Ĥ
Ġ×ľ×Ķ ×Ļ×ķ×ª
Ã¶ s
at ge
Ġt ambiÃ©n
Ġgj ennom
Ð°Ð» Ð»
áĥ¡ áĥĲáĥª
Ġt ÉĻm
Ġpe ut
à¸£à¸ ¹
l Äħ
Ġno teik
Ġo k
Ø®Ø± Ùī
Ġan os
ä¿ ®
ª áĥ®
Ġáĥĳ áĥĶáĥķ
Ġà´ķ à´°
Îµ Î½Î¿
Ġju Å¼
Ġ ãģĦ
we e
ĠÑŀÑĤ ÐºÐ°Ð·
Ġil g
éĹ® é¢ĺ
Ġ0 5
à°¾à° Ĥ
àª¾àªľ àªª
à¦¬ à¦°
um ah
Ġàª¦ àª°à«įàª
ĠÐ±Ñĭ Ñŀ
Ġà´ķ àµĩà´°à´³
z n
Ġet mÉĻk
Ġà´¨à´¿à´° àµįâĢį
Ġpr Ã©s
ĠØ§ÙĤØª Øµ
Î¼ÎŃ Î½Î·
àµģà´¤ à´¿à´¯
àª¾àª³ àª¾
ĠáĥĽ áĥĺáĥľ
ĠÂ» .
Ġm ie
Ðº Ð¾Ð»
Ġma li
Ġh iso
Ġ) {
Ġà®ķ à®¿à®Ł
Ġí Ŀ
Ġte en
ĠÙħ Ø®Øª
Ġ×ĳ ×ľ
ÃŁ e
Õ ¬
Ġe yi
ĠMa laysia
ĠØ¯ Ø§Ø¯Ùĩ
ĠØ® Ø¯Ùħ
áĥĲáĥļ áĥĲáĥ¥
ĠØ´Ø± ÙĪØ¹
å ĥ
Ġt Ã¡r
Ġ" ,
i hana
Ġà¤ľà¤¾à¤¤ à¤¾
Ġk ont
Ġàªħ àªĤàª¤
Ú¯ ÛĮØ±ÛĮ
Ġ Ã¡r
Ġja un
åĪĨéĴŁ å¿«ä¸ī
Â ¹
áĥķ áĥĶáĥĵ
ê° Ĳ
ak si
Ġà®Ĩ à®°
al da
j ting
Ø³Øª Ùħ
à¯Īà®ķà¯įà®ķ à¯ģ
ĠJes u
Ġpri me
à ³
àµģà´ķ àµĬ
Ġd ÉĻy
A H
ty r
àªķ àª¾
Ð· Ð¸
Ġni gb
àª¤ à«įàªµ
ĠT Ã¤
Æ° ng
Ġnh iÃªn
à¥ĩà¤ ¡
á» Ľ
Ġsa y
Ġper ts
Ø¹ Øª
ÙĪÛĮ ÛĮ
WW WW
ĠàªŃ àª°
ma an
Ġæľ Ģ
Ġin san
à¦¾à¦® à¦²
à´¿à´ķàµįà´ķàµģà´¨àµįà´¨ à´¤
an tz
áº ³
Ġà´ħ à´Ń
Ġà´¸ à´¿
ªà¸ Ķà¸
ĠØ¹ Ú©Ø³
ĠØ§ÙĦ Ø§Øª
Ġz p
Ġt ari
Õ¥Õ ½
ªà¸ ¹à¸
à´° àµĨ
ĠS er
Ðº Ð°Ð¼
ĠÐĴ Ñĭ
Ġper so
Ġæ ¬
Ġem as
àµĭà´Ł àµĨ
w Ã³
j am
áĥ¢ áĥł
Ã¤ m
ĠØ§ÙĦØ¨ ØŃ
ow ania
Ġ Ã©rt
ĠáĥĽáĥĺáĥ ¦
i ko
Ġáĥĵ áĥĶáĥĵ
b ÉĻr
Ø§ØŃ Ø©
¶ à¹Īà¸ĩà¸
à±Ģ à°ķ
Ġe v
Ñ Ł
ą Ĉ
Ġx em
Ķà¹īà¸§à¸ ¢à¸
ĠÑĤ Ð¾Ð·Ð¸
Ø¹Ùħ Ø§ÙĦ
Ġvi esnÄ«
áĥĺáĥļáĥĺ áĥĲ
ĠÏĢ Î»Î·
Ġ Ä±n
Ġà¦ķ à§įà¦°
ÑĥÐ» ÑĤ
ĠÑģ ÑĥÐ¿
à§ģà¦ ľ
à°¾à°Ĥà° Ĺ
j Äģs
ĠUn tuk
¤ à¸
ĠÙģ Ø¥
à°¾à°ķ à±ģ
Ġs m
åĳ ¨
ĠvÃ¤ ga
Ġáĥ¨ áĥĶáĥĴ
Ġå¾ ·
Ġà´ªà´±à´ŀàµįà´ŀ àµģ
im et
åİ Ĩ
Ġwe er
ĠÙģØ¹ Ø§ÙĦ
Ġà¦ªà§įà¦° à¦¥à¦®
ĠN em
Ġla we
Ġà®ħà®µ à®°à¯įà®ķà®³
Ġ ru
ĠÙĦ ÛĮØ§
ÈĽ a
s ten
Ġà°µà°¿à° µ
Ġ( );
Ġti d
Â ¼
à§ĩà¦¬ à§ĩ
Ġ Å¼y
Ġàª¯ à«ĭàªľ
Ġà¦¬ à¦¾à§ľ
Ġe u
Ġb Ã¸r
ĠÑĤ Ð¾Ñĺ
ĠáĥĴ áĥĸ
ĠÑĢ ÑĥÐ±
Ġa ika
Ġãĥ Ī
à®Ł à¯į
Ġ×ķ ×ª
Ġmem buat
ĠÐ»Ñİ Ð±
Ñĸ Ð±
Ġà¦Ĺ à¦¤
Ġc Ã´
Ġp ut
im o
Ġr re
n s
Ø¶ Ø§Ø¡
àµĭà´Ł àµį
Ø±ÙĬ Ø¯
Ġà¦ªà¦¾à¦° à§ĩ
áĥľ áĥĺáĥ¨áĥľ
Ġcol or
ĠÙħØŃ ØµÙĪÙĦ
Ġ×Ļ ×¦
å®ī è£ħ
m on
ang g
N G
ĠÚ¯ Ú¾
Î¼ Î¿Ïħ
Ġa bb
Ġdo anh
æİ §
ar o
Ġ×ķ ×Ĺ
Ġà°ªà±įà°° à°ķ
Ġi h
à±ĭ à°¡
ĠØ¬Ùħ ÙĬØ¹
ÑĢ Ð¸Ñģ
ÑĬÐ» Ð¶
áĥĶáĥĳ áĥĹáĥĲáĥľ
cz ne
Å¡ana i
Ġle hen
íĿ ¥
è¿Ľ è¡Į
ªà¸ ¥à¹ĩà¸Ńà¸ķ
×ķ×¦ ×Ķ
ĠàªķàªĤàª ª
Ġqu Ã¡
Ġbe h
Ġhar tu
p tion
ĠÙħØ¯ ÙĦ
ĠD es
ç»ĵ æŀľ
áĥĶáĥĹ áĥĲ
àª¾àª¤ àª¾
l se
Ø´ Ùģ
ĠØ³Ø§Ø² ÙħØ§ÙĨ
ĠØ® Ø·
ĠÏĢ Î¹Î¿
àªļ à«įàªĽ
à¥ģ à¤ķ
Ġder i
×§ ×¨
Ġãĥ ©
Ð¸Ð² Ð°
Ġd zia
Ġêµ °
Ġs Ã¼re
ĠáĥĽ áĥĶáĥł
Ġà´İ à´Ĥ
Ð»Ñı Ð´
Ġ áº£nh
ĠÑĤÐ°Ðº Ð¾Ð¶
s ÉĻ
Ġáĥĺáĥ¥ áĥľáĥĶáĥĳáĥĲ
atu a
à±ģà° ¸à±įà°¤
Ġà´ª àµĨ
ÃŃt Ã³
in Äĥ
Ġq ytet
áĥĲáĥłáĥ ļ
åĨ ³
à¥ĭ à¤ķ
ĠÐ° Ò³
Ġtre buie
Ġà®ļ à®°
àª¨à«įàª ¨
Ġg ÉĻl
to w
Ġà°ī à°¦
à®ªà¯įà®ªà®Ł à®¿
Ġz i
v oor
ĠÃ¼ ks
le Äį
Ġim á»į
Ġàªªàª¹ à«ĩàª²
eb etsi
áĥłáĥ ª
ĠØ§ÙĦØ³ Ø¹ÙĪØ¯
ov anie
Ø¨ Ø§Ø±Ùĩ
Ġáĥ¡áĥĲáĥĸ áĥĿáĥĴ
Ġ áŀ
u gbá»įn
iá»ģ n
ÑĨÑĤ Ð²Ð°
iy asi
im a
Ð°Ð» Ð°Ð±
ê» ĺ
ĠÎº Î¿
Åĳ r
Ġà¦īà¦ª à¦ľ
ÏĮ ÏĦÎ·
ĠìľĦ íķ´
à®± à¯ģ
Ġthá»© c
Ġse hr
ĠÐĲ Ð»Ðµ
à±ĩà° ľ
ĠP em
ãģ ĸ
ĠÑĪ ÑĥÐ´
é §
áĥĶáĥĳáĥļ áĥĲáĥĵ
lara q
Ġ×ĳ×ŀ× §
Ġso t
à®¿à®ķà¯įà®ķ à¯ģ
li yi
Ð¡Ð ĥ
ÙĨ ÙĬÙĨ
ung um
Ġà¤¦ à¥įà¤µ
Ġv ores
ĠØ§Ø¯ Ø§ÙħÙĩ
çĶµ æ¸¸
Ġar ticle
ĠG es
ĠnÃ« n
ł áł
Ġ Ã¡n
ĠH Ãł
Ġedi lm
ÐµÑĢÐµ Ð´
Ġan vÃ¤n
æ ĵ
Ġà°® à±ģà°Ĥà°¦
ĠM u
it Ã«
Ġà¦¨ à¦¿à§Ł
Ġç ¾
pá»įlá»į pá»į
ĠB ras
Ġàªªà«įàª° à«ĩàª®
ĠÏĥ ÏĩÎµ
ĠÐ±ÑŀÐ» Ð¸Ð±
ĠâĢļ Â
Ġàªķà«ĭàª ĩ
Ļ à¯įà®ķà®³à¯į
Ñĸ Ð¶
P P
Ġà¦ªà§įà¦°à¦ķ à¦¾à¦¶
Å¯ m
Î³ ÏģÎ¬
Ġàªħàª¨ à«įàª¯
ĠÄ ĵ
ĠÑĤ Ð°Ð´
Ġà´µ àµĪ
ĠC ar
¬ áĥĽ
Ġle o
em bre
à¯ĩ à®¯
Ð²ÑĢ Ð¸
Å£ Äĥ
ØŃ Ùĩ
Ġn l
ĠÕ¸ ÖĤ
ĠÐ¼ÑĥÐ¼ ÐºÐ¸Ð½
à¯Īà®¯ à®¾à®ķ
j al
Ġch á»įn
à© °
ãĥ¼ ãĤ¯
Ġni la
à¤¬ à¤°
Ġ2 8
Ġà¨ ¸
Ġà¦¤ à¦¾à¦ģ
ĠàªĹ àª¾àª®
ĠÑĤ ÑĥÑĪ
ĠÐ¿ Ð¾Ð³
Ġf al
ĠåĲ į
em y
Ġo ts
ha y
ĠÙĦ Ùĥ
ä¹ °
ĠÑĪ Ð°ÑĢ
Ïĩ Î¿
ĠgÃ¶ z
à¹ĥà¸ Īà¸
ĠáĥĴáĥĲáĥľ áĥķáĥĺáĥĹ
ĠÙĪ Ø¬
ì§ ĳ
æĹ¶ éĹ´
Ġà¦¸ à§ĩ
Ġr isp
×¤ ×Ķ
ĠØ¬ ÛĮ
Ã¼ b
Ġh Ã¤n
Ġàªµàª¿àª¶ à«įàªµ
Ġáĥ§áĥķáĥĶáĥļ áĥĲáĥ¤
Ġmej or
ĠE UR
Ġthr ough
ĠØ§Ø³Øª Ø¹ÙħØ§ÙĦ
Ġàª¤à«ĩàª® àª¨à«ĩ
ĠÃ¤ ven
Î ĺ
n Äģ
Ġà§© à§
bb e
ÐµÑĢÐµ Ð·
å½ ¢
æĢ ģ
Ġàª¹ àªľ
Î¼Î¬ ÏĦÏīÎ½
Ã§ as
Ġti ene
Ġà°° à°¾à°·à±įà°Łà±įà°°
la v
so ek
Ġt ÉĻs
li zz
Ñī Ð¾ÑĤÐ¾
ĠÑģÐ¾ Ò³
Ð¾Ð» Ð¸
ëŀ ĳ
Ð²ÑĢ Ð¾Ð¿
ct es
ĠÃ į
ÑĬ Ð²
ni ka
Ġbe li
Ġ ÉĽ
à® ľ
ĠÐ Ħ
u ak
al aki
bu h
ÙĲ ÙĨ
c ta
ĠÑĥ Ð¼
ot os
ĠÑģ ÑĢÐµÐ´
Ð¸Ñı Ð¸
Ġmul te
Ġsaa b
iong ozi
Ġà®®à¯ģà®© à¯įà®©
à®Ļà¯įà®ķà®³ à®¿à®²à¯į
Ð¾ ÑģÐº
ĠC o
Ġà¤¸ à¤¾à¤®
Ġdan n
Ġàª¸ à«įàªķ
å¤ ľ
Ġàªª àªĹ
ĠL E
Ġn ar
Ħ à¸£à¸±à¸ļ
à§ģ à¦Ł
gu re
ci i
Ġta y
Ø§Ø¦ Ø±
Ø¶ Ø§
Ð½ÑĸÐº Ð°Ñŀ
Ġfi gure
Ġ0 6
Ġà° ĸ
ÑĥÐ² ÑĩÐ¸
à¤§ à¥įà¤¯à¥ĩ
ĠéĢ ģ
Ķà¸ ¢à¸
à¶ º
Ġpri ma
Ðº Ð¾Ð¹
ãĥķãĤ ©
Ħà¸ ¡
à´· àµįà´Ł
Ľà¸£à¸°à¹Ģà¸ Ĺà¸
Ġsa ma
Ġt wo
ĠÐ³ Ðĥ
Ġbardz o
§ áĥķ
ĠØ§ÙģØ² Ø§ÛĮØ´
ĠÙĩ ÙĨ
Ġha yo
Ġáĥ¡áĥĲáĥĸáĥĿáĥĴ áĥĲáĥĵáĥĿ
Ã§ os
ĠÐŀ Ð´
Ġà®ªà®¾à®° à¯įà®¤à¯įà®¤
ìĸ ¸
à¦°à§įà¦ ķ
áĥķ áĥĺ
áĥĶáĥĳáĥĺáĥ¡ áĥĹáĥķáĥĺáĥ¡
Ø§Ùħ Ø©
st vÃŃ
Ð¿ Ð¾Ð»
Ê» ano
Äģci ja
Ġt eljes
à¥ĭ à¤¨
Ġr s
in nen
Ġà¦ĩ à¦¸à¦²
Ġàª¸ à«įàª¤
ĠØ§ÙĦÙĤ Ø±
Î³ Ïī
el n
di ÄŁi
ĠÑģ ÑĢÐµ
Ġya ko
ÑĪ Ð°Ð²
er na
at y
Ġkar ÅŁÄ±
p l
ÎŁÎ Ľ
Ġàª¦ àª¿àª²
Ġt áºŃp
á»ĵ n
Ð´ Ð¸Ð¼
no ÅĽÄĩ
ÑģÑĤ Ð¸
×Ľ ×ª
Ġn um
Ġà´¨ à´¿à´¯
Ġà®ªà¯ĭ à®²
Øª Øµ
is on
ĠCatal unya
ĠÐ· Ð½Ð°
ÙģØ¶ ÙĦ
g ara
ÙĪÛĮ Ø³
áĥĲáĥłáĥĵ áĥĲ
w ana
Ġz uz
ĠÏĢ Î¬Î½
it an
Ġq is
Ġm ash
Ġà°ª à°¦
«à¸£à¸ ·à¸Ń
ÉĶ ÉĶ
ĠØ¯Ø³Øª Ú¯Ø§Ùĩ
ĠkÃµ r
Ġb Ã¶l
Ġtjet Ã«r
ĠÐ² Ð¸
Ø´ Ùħ
Ġgj atÃ«
Ġbiz t
Ġáĥ¡áĥĲáĥ¨ áĥ£áĥĲáĥļ
ĠØ¬Ø§ÙĨ Ø¨
Ġd k
à´Ļàµįà´Ļà´³ àµģà´Ĥ
Ġp Ãµ
Ġsz ak
ar ako
Ð¿ Ð°Ð´
at ing
Ġà¦ķ à¦¿
ĠÙĨ Ùĩ
Ġà¦¶ à§ĩà¦·
×Ĵ ×ľ
Ġu ti
Ġà¸ ĸ
Ġ/ /
å°± æĺ¯
ÐµÐ½ Ð¸Ð¹
er ako
ĠÙģØ± Ùħ
Ġp are
åĭ Ļ
ĠØ¢ Ø®Ø±
lig ini
Ġalt res
Ġth o
Ġàª¥ àª¶à«ĩ
ĠÐº ÑĢÐ°
Ġà¹Ģà¸ ĩà¸´à¸Ļà¸
ĠØ³Ùħ Ø¬Ú¾
ĠÙĨ ÙģØ³
ch ten
ÐĲ Ðł
à°¿à°Ĥà°ļ à±ĩ
à±Ĩ à°°
Ġàª¬à«ĩàª ł
idup an
ĠM en
ëª ©
Ġw sp
×Ļ×ª ×Ļ
à¦¬ à§ĩà¦¨
à°¿à°¯ à°¾
Ġà°ļà°¾à°² à°¾
×Ļ×Ķ ×Ŀ
Ġku bwa
ĠØ¨Ø² Ø±Ú¯
ĠØ§ÙĦØµ ØŃ
Ġà°¤ à°®
éĽĨåĽ¢ å®ĺç½ĳ
«à¸Ļ à¹īà¸²à¸
Ġf ue
ê³ ³
yr Ã«
à®¿à® ¸
ĠÐ½Ð° Ñĩ
Ġv l
ou w
ati i
Ġlang is
àµĨà´¯ à´¾à´£àµį
lo ha
æĭĽ èģĺ
m ist
ĠbÃ«r Ã«
Ġàª¥àª¯ à«ĭ
æĿ ĥ
áĥĲáĥ Ł
àµĩ à´¾
ĠØ¹ÙĦ Ø§ÙĤ
à«ģàª ¬
ĠTr ung
Ġb us
ãĤ¤ ãĥ³
ĠÑĤÐ° ÑĬÐ¼
uj ara
e p
Ġl l
Ð¾Ð½ Ð¾Ð¼
Ã¼ h
ĠãĤ Ĥ
Ġà´µà´¿à´ ¦
Ġk os
Î» Ïī
Ġch uy
Ġol la
Ġà´ļ à´¿à´¤àµįà´°
~ ~
ê² ł
ant le
éĽ »
o ir
ĠH y
el ujara
Ġàªľ àªĹ
à®¿à®¯ à®²à¯į
ĠØ¨ Ø£
Ġc á»©
ÙĪ Ø¶
áĥĶáĥľ áĥĲ
Ġà¦Ĩ à¦¦
Ú¯ Ø°
ĠàªĨ àª¶
p ag
Ø· ÙĤØ©
ĠkÃ«r k
àµĤ à´°
Î´ Î¹Î¬
ĠÑĪ Ð°Ñħ
ir os
9 8
áĥĵ áĥĺáĥ¡
à«ģàª ĵ
Ġàª¬ àªĤàª§
ĠÐ¸ Ñħ
Ġili yo
ĠÙ¾ Ø§Ø³
ãģı ãģł
ĠÎ¼ Î·
Ġéĩį åºĨæĹ¶æĹ¶å½©
Î½ Î¹Î±
Ġw il
×ĵ ×ķ×ª
Ġmana Ê»o
Ġik as
ĠÙħØ² ÛĮØ¯
Ġy e
Ġsh a
Ġáĥ¨áĥĶáĥĵ áĥĶáĥĴ
ÎµÎ½Î¿ Î´Î¿
ĀĀĀĀĀĀĀĀĀĀĀĀĀĀĀĀ ĀĀĀĀĀĀĀĀĀĀĀĀĀĀĀĀ
Ñı Ð½
Ð°Ñģ ÑĨÑĮ
à¥įà¤¯à¤¾à¤ ¸
×¨×Ĳ ×Ķ
ÑģÑĤ Ñĸ
ŀà¸ ·à¹Īà¸Ńà¸
Ġà¤ľ à¤¾à¤ı
Î· Î³
ed h
ĠP M
Ġm ille
Ġla di
ĠÒ³ ÑĥÒĽÑĥÒĽ
àªĤàª ľ
Ġ à¸Ļà¸
Ġo e
à´® à´¾à´ķàµįà´ķ
ĠØ§ÙĦØ¹Ø±Ø¨ ÙĬØ©
à¤Ĥ à¤§
at akse
wa r
Ġà¤ľ à¤¨
Ġàªµ àª¿àªµ
Ġnd ani
Ġbar u
Ġà®ĩ à®±
ĠÐļ Ð°Ðº
ĠáĥłáĥĿáĥĽ áĥļáĥĶáĥĳ
ĠØ£Ùĥ Ø«Ø±
ah u
Ġd un
Ġac este
Ð¸ÑĤÐµ ÑĤ
à© ĭ
Ù¹ Ø³
Ġà´¤àµģà´Ł à´Ļàµįà´Ļ
ĠÐ¾ ÑĪÐ¸ÑĢ
Ġàªľàªµ àª¾àª¬
Ġà´ķ à´Ł
à®¿à®°à¯ģà®¨à¯įà®¤ à¯ģ
×ĳ×ķ×ĵ ×Ķ
à±ĩ à°Ĥà°¦à±įà°°
ĠÐ¾Ð²Ð° Ð°
Ø§Ø³ ÙĬØ©
lik ult
Ġc ri
ĠVi deo
à´¦àµįà´¦ àµĩà´¹
Ġm ah
ëĭ¤ ëĬĶ
g lich
ç ¬
àª°à«įàª ¤
Ġà¤ķà¤¿à¤¸ à¥Ģ
Ġv áº«n
jo t
éħ Ĵ
à¤ķà¥įà¤ ¸
áĥĿáĥ¡ áĥ¢
a ch
à¨ ¤
áĥĸ áĥĲáĥĵ
æ¸¸æĪı å¹³åı°
Ġtal Ã¡l
àµĭ à´°àµįâĢį
lar ining
ç²¾ åĵģ
k Ã³w
ÙĦÙĬ ÙĦ
á» Ŀ
Ġy Ãªu
Ġàª®à«ģàªĸ à«įàª¯
Ġs im
Ġà¤ħà¤ª à¤¨à¥Ģ
ĠS ant
×Ļ×ª ×Ł
Ġàªľ àª¾àª¹
Ġà¦¸ à¦ķ
ĠH er
ÑģÐºÑĸ Ñħ
àª¾àªĩ àª¨
æĸ ½
Ġà´Ĩ à´µ
Ġá»į rá»į
Ð°Ð² Ð¾Ð½
owe go
à´ ĸ
Ġà¦¨à¦¿à¦°à§įà¦¬ à¦¾à¦ļ
ĠØ¬ Ø§Ùħ
Ġà¤° à¤ĸ
tate a
Ġà´® à´±àµįà´±
à¥įà¤¯ à¥Ĥ
we zi
Ġåħ ¶
w iet
àª¾àª §
Ġà¤¤à¥įà¤¯à¤¾à¤ Ĥ
ãĢ İ
ÙĨ Ùī
tu a
íĽĦ ê¸°
ĠÙħ Ø§ÙĨ
ĠÎ½ Î¿
à°°à±įà° ®
ĠÐ¶Ð¸Ð² Ð¾ÑĤ
Ġp om
Ġem pa
ÏĢÎ¿ Î¯
Â ²
àª¿àª Ŀ
Ø¬ ÛĮ
Ð² ÑĸÑĤ
ãģ«ãģ¤ ãģĦãģ¦
Ġà®® à®¤
ê· ¼
Ġes ku
ĠM agyar
Ġáĥĵ áĥłáĥĿ
Ġà¸ ķà¸
lÄģ lÄģ
Ġà´° à´£àµįà´Ł
Ġwa y
id t
åı ²
vi ce
ĠOn s
Ġg reat
à®¿à®ķà¯įà®ķ à¯ģà®®à¯į
à°¿à°ª à±ĭà°¯
à¦¾à¦ ł
è´ Ń
Ġáĥł áĥĶáĥĴ
ĠÐ¿ÑĢ Ð¸ÑģÑĤ
Ġles z
ÎŁÎ Ŀ
åħ Ń
ĠD o
Ġ. âĢĿ
Ġp it
ĠØ¨Ø± Ø±Ø³ÛĮ
à¸Ńà¸¢à¹Īà¸²à¸ ĩà¸
ba ar
Ġaw on
Ġàª¬àª¹ àª¾àª°
v us
ÑĨÑĸ Ñİ
à¯įà®ļ à¯įà®ļ
Ġàªľà«ĭ àªµàª¾
Ñĥ ÑīÐµ
ĠØ§Ûģ Ùħ
à®Ł à¯ģà®ķà¯įà®ķ
Ġs ans
ĠáĥĶ áĥľ
ĠØ§ÙĦÙħ Ø¤
àªĤàªĹà«įàª° à«ĩàª¸
it as
Ã¼k s
áĥĵ áĥĺáĥľ
ĠÙ¾ ÛĮØ¯
Ġáĥª áĥĶáĥľáĥ¢
Ġà´Ĩ à´¯
çĶ ±
à´¿à´ķàµįà´ķ à´¾à´¨àµįâĢį
ri d
Ġàª¸àªĤàª ¸
Îº ÏģÎ¹
do go
Ġbo hlo
Ġper quÃ¨
à¤Ĥ à¤ķ
Ġy r
ĠÙĨ ØŃ
ĠÙĪ Ø§ÙĤ
Ġ×Ļ ×ĵ
×Ļ×ł ×Ļ
³ à¸Ļà¸
Ġà¸ ģà¸²à¸£
la cak
ìĺ ¨
__ __
ÎĹ Îľ
ê¸ Ģ
Ġle ts
Ġv Ã¥r
asi ya
Ġàª¤à«įàª° àª£
Ġn it
ti m
à¦ ĥ
à°°à±įà° ¥
le me
Ö ¶
Ġc as
Ø§Ø¦ Ùħ
ĠÐ³ Ð°Ð´
c ed
ĠØ³ Ø§Ø®Øª
Ġa asta
à«įàª¯ àª¾àª¨
Ø§Ø¦ Ø¯
Ġà´ķà´´ à´¿à´ŀàµįà´ŀ
Ġl v
Ġê° Ħ
Ġà´° àµĤà´ª
Ġáĥ¡ áĥĺáĥ¢
Ġer ak
ĠØª Ø¯
ĠÐ½Ñı Ð¼Ð°
ge ven
×Ķ ×ľ
Ġh ur
Ġb ine
áĥĺáĥ Ń
ĠØ¨Ø§ÙĦ Ùħ
Ġà°ªà±įà°° à°ľ
Ñı Ð´
Ġk le
ak in
ĠÚ¯ ÙĪØ´
Ġdo ar
ĠMat rim
t ur
vo d
Ġë Ī
Ø§Ûģ Ùħ
Ã³ c
Ġna do
ÅĽ li
ç İ¯
è§Ħ å¾ĭ
ĠC hi
Ġà¦¬à¦¿à¦ ¦
ĠÐº ÐµÑĤ
×Ļ×ľ ×ķ
ĠÐ¼ ÐµÐ½
Ġsh u
Ġk jÃ¸
ĠØ§ÙħØ± ÙĪØ²
Ú© ØªØ±
z ni
Ġ ä¸ī
Ġà°¸à°¿à°¨à°¿à°® à°¾
ĠàªĨàªµ à«įàª¯àª¾
Ġàª¸àª® àªľ
ung kin
Ġà¤ ĳ
ĠáĥĻ áĥł
Î¼ÎŃ Î½Î±
i co
Ġà¤¦ à¥ĩà¤¶
k om
ĠG od
Ð Ķ
Ġt Äĥng
Ġãĥ Ĺ
Ġth á»§
Ġfi g
Ãº b
ë©´ ìĦľ
em bro
ĠØŃØ¶ Ø±Øª
à°¿à°ķ à°¾à°°
ĠÉĻs as
ĠL as
mu ÅŁ
áĥĲáĥľ áĥĺáĥ¡
ÃŁ en
Ġes pe
Ñĥ Ñĵ
Ġm akan
åĪĨ pk10
Ġde la
Ġut Ã¡n
g s
Ġ×Ķ×ŀ× §
Ĺà¸ ±à¹īà¸ĩà¸
Ġf ol
Ġge li
ca ption
Ġa e
Ġfig caption
z h
Ø§Ø± ÙĬØ©
Ġà§ ¬
Ġàª°àª¹ à«įàª¯à«ĭ
Ġw o
ĠdeÄŁ il
ãĤģ ãģ¦
¸ à±įà°¥
Īà¸£à¸´à¸ ĩ
Ġv áºŃy
ĠÑĩ Ð°Ð»Ð°Ð²
Ġsa o
ĠÚ©Ø± ØªØ§
æĬĢ æľ¯
Ø§Ø¨ ÛĮ
ĠÙĪÙĦÙĥ ÙĨ
Ġà´® à´¤
ĠØ§ÙĨÛģ ÛĮÚº
Ġl lo
Ġà´µ à´²
ãĢ Ĭ
ãģĮ ãģĤãĤĭ
iá»ĩ m
·à¹Ī à¸Ńà¸ĩ
Õ¶Õ¥ÖĢ Õ«
li ÄŁi
ĠæĹ ©
Ġques ta
Ġb em
ĠÃŃ gy
Ġno e
à±įà°° à±Ĩ
ti v
ãĤĪãģĨ ãģª
Õ¸ÖĤÕ©Õµ Õ¡Õ¶
k Äģ
ĠÒĽ Ð°Ð¹
Ä ŀ
em ento
à®µ à®°à¯įà®ķà®³à¯į
Ø± Ùĩ
Ġma ana
Ġl una
ĠÙĨ Ø¨
Ġàª¦àª° à«ĩàªķ
os i
Ġs eng
Ġd zi
ed an
Ġà°ļà±ĩà°¸ à°¿à°¨
Ġà¦¬à¦Ľ à¦°
Ġàªª àªŁ
at ta
ne h
ĠÑĤ Ð°Ò³
à«ĩàª ¯
Ġdey il
Ø§Ûģ Ø±
ãĥª ãĤ¢
Ġê²½ ìļ°
ĠØ¢ Ø¬
Ø¦ Ø±
à¹Īà¸²à¸ ¢à¸
Ð¾ÑģÑĤ ÑĮ
Ġàª¤à«ĩàª® àª¨à«Ģ
Ġà®¤ à¯ĩà®°
de k
ĠØŃ ÙĪÙĦ
ĠàªŃ àª¾àªľàªª
Ġà° Ĳ
áĥĲáĥł áĥĿ
ìķĦê°Ģ ìĶ¨
Ġà¦ª à§Ĥ
as ema
ÙĪÙħ Ø§Øª
erÃ« z
c uk
ĠÐ¿ ÐµÑĪ
ata pos
ĠáĥĲáĥĽ áĥĺáĥ¡
Ġàª° à«ĭàªľ
å£ «
ta ji
Ġ×Ľ ×ª
ĠØ¥ Ø°Ø§
Ġh ij
Ġth i
Ġmat la
Ġà¦ıà¦® à¦¨
Ġå ¨
Ġha o
n om
àµģà´ ·
àªµ àª¾àª¥à«Ģ
Ġà¦Ł à§įà¦°
Ġáĥ¡áĥĲáĥ¥áĥĲáĥłáĥĹáĥķáĥĶáĥļ áĥĿáĥ¨áĥĺ
ent ro
Ä±l dÄ±
Ġà¸ŀ à¸Ļà¸
à¯įà®¸ à¯į
ìķ ł
Ġ×ĳ ×ķ
ĠÚĨ ÛĮ
ĠÏĥÏħ Î¼
ĠàªĨ àª®
Ġka m
Ð³ Ð¾Ð»ÐµÐ¼
ĠÑĩ Ð°ÑģÑĤ
ë¡ ¯
Ġà®ªà¯Ĩ à®°
ĠÏĨ Î¿
ĠàªĹ àª£
à© ±
ĠS o
bb li
Ġj Ã¤l
Ġà°ľ à°¨
ÅĤ Ã³w
ma z
åŃ Ĺ
ë ¨
ĠØµ Ø§ØŃ
lo a
ĠØ§ÙĦÙĪ Ø·
Ġpr ost
àª¿àª¯ àª®
ĠÐ¸ Ð¶
y ks
Ġmiej s
à®ķ à®°
Ġë¬ ¼
Ġmes mo
¬ àªĤàª§
ĠÎ´Î· Î¼Î¿
Ġle ur
å¤§ åħ¨
ĠãĢĤ âĢĿ
Ġáĥĺ áĥª
åĽ½ äº§
ub lik
Ð¾ÑĢ ÑĤ
Ġm ig
Ġà°¦ à±ĩà°¶
tl ha
ene an
ÙĬØ¯ Ø©
à¸Ńà¸ Ķ
ĠF r
à°¬ à±įà°¬
× ³
ĠÎ´ Î¹Îº
ÑĤ Ð¾Ð±Ñĭ
à«ĩàª® à«įàª¬
å® Ŀ
Ð¾ÑĤ Ð¾Ð²
Ð¼ Ð°Ð³Ð°Ð½
ĠÐ¾ ÑīÐµ
çĶµ åŃĲ
æľī éĻĲ
yy at
ĠÙħ Ú©
ĠÏĢ ÏīÏĤ
à°¾à°¦ à±ģ
je ve
Ġj os
Ġro ku
Ã¥ng a
áĥĺáĥľ áĥĺáĥ¡
j Ã¡n
Ã ħ
3 8
Ġå½©ç¥ŀ äºīéľ¸
ÙĪØ± ÙĬØ©
ĠÙĪØ²ÛĮØ± Ø§Ø¹
Ġà¦ķà§ĭà¦¨ à§ĭ
ĵ °
ãģ® ãģĭ
áĥĺáĥ£áĥ ļ
ãĤĪãģĨ ãģ«
ÄĽ t
Ġre ali
ĠpÄģ Ê»ani
Ġmu á»ĳn
èĩª å·±
Ġv Ã¤r
\ "
ĠáĥĹáĥĲáĥľ áĥĲáĥĽ
Ġl im
Ġà¦¬ à¦¾à¦¸
Ġà¦ħà¦Ń à¦¿à¦
Ġya k
zi m
lig en
ãģĹ ãģĭ
à¦¬ à§įà¦¯
Ġà¤Ĩ à¤ľ
Ġun i
Ġà¤ħ à¤²
áĥ£áĥ ª
Ġq ÉĻdÉĻr
Ġà´İà´¨àµįà´¨ àµį
c uri
à¦¾à¦² à§ĩà¦°
Ġc ili
ĠØ¹ Ø¯
ĠÙģ ÙĪØ¬
Ġà°® à±ģà°
ĠØ® Ø§Ø±
ĠØ¬ Ø§ÙĨÛĴ
Ġl li
Þ ¦
éĵ ¶
Ġà®® à®±
Ġà¤¸à¤ķ à¤¤à¥ĩ
íĻ ©
Ġto dos
åİ ĭ
ĠÚĪ Ø§Ú©
×ķ×ĳ ×¨
ĠÃ¼z rÉĻ
ãĥĥãĤ¯ ãĤ¹
Ġàª¸ à«Ĥ
bar u
tt Ã¶
Ġmi iran
à¤°à¥įà¤ ·
ĠÙģØ± ÙĩÙĨÚ¯
Ġie g
Ġgiá» ¯
ĠG Ã¼n
Ġbli ver
ĠÐ±ÑĥÐ´ Ð·Ðµ
Ùĥ Ø©
Ġà¤¹à¥ĭ à¤¨à¥ĩ
Ġà¦¬ à§ĥ
Ð¾Ð³ Ð°ÑĤÐ¾
ê² °
Ġun ing
Ġand ere
ĠØ§Ø³ÙĦØ§Ùħ ÛĮ
ģà¸ ±à¸Ļà¸
Ġb Ã¼yÃ¼k
áĥ£áĥ Ļ
Ġà¦¦ à§ĩà§Ł
Ã©n ye
ĠØ§ÙĦ Ø§
Ġger Ã§ek
à¯ģà®¤ à¯į
en k
ĠÃ¶z el
ĠÙħ Ø«ÙĦ
Ġe ks
t es
Ġwh ere
ĠØ´Ùħ Ø§Ø±Ùĩ
ĠÐ¸ Ðº
Ġda Å¾
5 8
ĠÑĥ Ð´
pr Ã©s
à« ħ
Ġ×ľ ×ł
Ġs á»ĳng
Ġi me
Ġì¶ľìŀ¥ ìĥµ
Ġå¹ ¶
ÚĪ ÛĮØ§
ĠÐŁ ÑĢÐµ
Ð³ Ñĸ
Ġ×Ĵ ×ĵ
à¯Ĩ à®²à¯įà®²
Ġt Ãłi
om ba
ĠE m
Â ´
Ð°Ð» Ð°Ð½
Īà¸±à¸ Ķà¸
ĠA M
Ð´ Ð°Ð¹
el isoa
ĠÙ¾Ø± Ø¯
Ġ×Ĳ ×Ļ×©
ar ing
Ġp ute
Ġà¹Ģà¸ Ħà¸£à¸Ķà¸´à¸ķ
à±ģà° ¬
æĹ ħ
uy or
Ġ201 6
Ġà°® à±Ĥà°
àª¿àªĤàª ¹
Ġm ateix
àªķ à«įàªķ
ÑĨÑĸ Ð¾Ð½
Ð°Ðº ÑĤ
Ġàªľàª¾àª¹ à«ĩàª°
Ġsho ul
Ġàª¦àª° àª®
Ð°Ð½ ÑĮ
Ġand ra
zi ma
Ġy eni
×Ļ×ł ×Ļ×Ŀ
áĥĶáĥł áĥĺáĥ¡
áºŃ u
Î¹ Î»
Ð¸Ð³ Ð°ÑĢ
der e
Ġest at
ĠíĨ ł
Ġé ¦
Ġde ux
×Ļ×¨ ×Ļ×Ŀ
ĠÕ¥ Õ¶
Ġch u
Ġ×Ĳ×ķ×ª ×ķ
å¹ ²
± ¼
áĥ£áĥļ áĥĲáĥĵ
Ġà°µ à°¸à±įà°¤
ĠÐ· Ð´
Ġh erri
Ġpe dig
Äĵ ta
ãĥ¼ãĤ ¿
Ð°ÑĢÑĭ ÑģÑĤ
Ð» ÐµÐ¼
ĠÐ¶ Ð¾Ð¹
Ð°ÑĢ Ð°Ð´
ĠJ ah
Ø· ÙĬÙĨ
Ġz ich
áĥł áĥĶáĥĳáĥĺ
áĥĺáĥ¢ áĥĿáĥĽ
Ġ×ĸ ×ķ
Ġyax shi
Ġá¹£ a
Ġngo e
Ġaf ter
Ġà®ªà¯Ĩ à®±à¯įà®±
æ ĳ
ª à¸´à¸
ĠO d
à¦Ľ à§ĩà¦¨
ĠÏĦ ÏĮ
Ġtr iá»ĥn
h te
Ġh asi
Ġlo kela
Ø§Øª ÛĴ
ĠØ§ÙĦ Ø±ÙĬ
ĠP en
Ð¾Ð²Ð°Ð½ Ð¸Ñı
Ġa jo
àªĹ à«įàª°
ĠØª Øº
Ã©r ie
ĠS loven
r s
Ġhu yo
Ġà¤®à¥įà¤¹ à¤£
Ġn Ã¥
ce ÄŁ
Ġon ze
ĠÙĨÙĪ Ø§Ø²
ĠáĥĹ áĥĺáĥĹ
Ġáĥŀáĥĺáĥłáĥķ áĥĶáĥļáĥĺ
ĠÐĺ Ð½
Ġpas s
Ġ×ł ×ķ×¡
ich e
E T
áĥĺ áĥĶáĥłáĥĹ
h ir
ĠáĥĽ áĥĺáĥķ
æĴŃ æĶ¾
Ġtaraf Ä±ndan
ĠItali a
ĠÐ´ Ð¾Ð¼
ĠÐ¿ Ð¾Ð²Ðµ
· °
Ġå º
Ġ 88
ÑĨ Ð°ÑĤÐ°
r at
Ġun s
ĠfÃ¶r s
àª¿àª¯ àª¾àª¨
ÑĥÑĶ ÑĤÑĮÑģÑı
Ġli Ãªn
Î½Î± Î½
ĠØ¬Ùĩ Øª
ÐµÐ½ Ð¸ÑĤÐµ
áĥ£áĥļ áĥ¢
ľà¸¹ à¹ī
Ġe lo
ĠÃ ĺ
Ġqu al
ĠØ´ ÛĮ
Ġfun ction
×¨ ×ķ
à¤¯ à¥ĭà¤Ĺ
Ġmol to
f ore
Ġà¦¶ à§įà¦°
áĥķ áĥĺáĥĵ
tt u
ĠÐĳÑĬÐ»Ð³Ð°ÑĢ Ð¸Ñı
×Ĺ ×Ķ
it or
Ġaa ye
à°¬ à°¡
Ġu 0
Ġis so
b Ã³l
Ã¡s z
ĠÑĥ ÐºÑĢÐ°ÑĹÐ½
àª¦ àª¾àª°
ĠÑĢÐ¾Ð· Ð²
Ġha pa
Ġåħ ¨
Ġàªĸ àª¾àª¤
Ġb Ãłi
Ø§Ø ¸
Ġà®ħ à®£
à¦°à§įà¦ ·
àµĢ à´¸
· à¹īà¸Ń
Ġpro duk
à®¾à®£ à¯įà®Ł
pp o
Ġà¤¸à¤° à¤ķà¤¾à¤°
Ġr en
sk Ã¡
Ð¸ÑĤ Ñĥ
Ġyo x
äº Ī
Ð² Ð¸
çĻ ¾
ĠØ± Ø§ÛĮ
Ġg ra
Ġha li
za ji
Ø§ ÙĪ
Ġs ahi
Ġpe u
ĠÙĦ Ø£ÙĨ
Ġ×¨×Ĳ ×©
Ġcu ando
Ġem pres
à¦ ģ
Ġäºļæ¸¸ åĽ½éĻħ
Ø§Ø® ÙĦ
Ġd Ã¶vlÉĻt
Ġg al
á» Ŀi
Ġj i
® áĥĶáĥĵ
Ġper k
Ġto ate
ÉĻs inÉĻ
Ġn ou
Ġyear s
Ġa os
Ġto ts
Ġth Æ°Æ¡ng
Ġc ould
ãģ Ĳ
Î¼ ÏīÏĤ
Ġa uk
Ġk ol
use ga
Ġm ill
áĥĲáĥļ áĥ®
Ġ×ŀ ×ľ
Ġe ven
Ġàª¸ àª¾àª°
Ġà´µ àµĩ
Ġn Ã¡s
ĠØ§Ø·ÙĦØ§Ø¹ Ø§Øª
Ġà°¸ à±įà°ª
ÏĨ ÎŃÏģ
áĥĶáĥļ áĥĺáĥ¡
Î¯ Ïĥ
áĥł áĥĲáĥĵ
Ġàªª àª¸
Ð°ÑĪ Ðµ
à¯Īà®ļ à¯į
Ġ" ).
Ġáĥ£áĥ ¡
Ġàª® à«ģàªķ
ĠìĬ ¬
un ud
è ħ
à®² à®®à¯į
ÑĥÐ¼ Ò³ÑĥÑĢ
ĠÐ¼Ð¾Ð¶ Ð½Ð°
ĠÐ±ÑĥÐ´ ÐµÑĤ
ĠÎµÏĢ Î¹Ïĥ
ĠÑĦ Ð¾ÑĢ
æ¼ ı
Ġ2 9
st Ä«
Ġàª®àª¾àª £
Ġà´ħ à´±à´¿à´¯
Ġfor sk
ç®¡ çĲĨ
ë¥ ĺ
Ġhv is
ĠÕ¸ ÖĢ
Ġ×ĺ ×ķ×ĳ
ķ à¹Īà¸²à¸
on in
m ark
Ķ à¸²à¸
ĠÎ± ÎºÏĮ
Ġth en
Ġb r
Ġsu b
Ġà¦¦ à§ģà¦ĩ
à®¾à®¤ à¯įà®¤
Ġà°ħ à°Ĥà°Ł
ĠÙĨÙħ Ø§ÛĮØ´
z wa
Ġgo od
à´¤àµįà´¤ à´¿
ĠØª Ø·
Ġà´ª àµĤ
ĠK i
Ġw ote
Ġ á½
ve is
Ġi ba
ce j
ĠkÃ¼l Ã¶n
· à¹īà¸Ńà¸
ÙĨ Ø§ÙħØ¬
à´Ĺ àµįà´°
ëª¨ íħĶ
Ġàªľàª°à«Ĥ àª°
àª² à«ĭ
ĠØ³ ÙĦØ§Ùħ
Ġà´® àµĨ
áº¡ m
h ang
Ġdin tre
ami ento
Ġç º
Ñı Ð²Ð°
Ġàª¨ àªľ
ĠØµØ§ØŃ Ø¨
àª¾àªµ à«ĩ
ĠÒĽ ÑŀÐ¹
Ġt ad
æĹł çłģ
Ð± Ð¸ÑĢ
à¸´ à¸Ļ
àª¬ àª°
à±ĩ à°¨
à´¦ àµĩà´¶
ar Ãł
u v
v Ã¥
ĠÐ± Ð»
àª ·à«įàªŁ
Å£ ie
ÑĢÐ° ÑĨ
t ta
è® ¤
æŀ Ħ
ÐµÐ½ Ñĭ
cz enia
Ġà¹ģà¸ ķà¹Īà¸
ĠH ar
Ð» Ð¾Ð±
×Ļ×¤ ×Ķ
Ġà¦Ĩà¦Ĺ à§ĩ
Ġà°® à°¾à°¤à±įà°°
Ġb ara
« a
à¦¾à¦¨ à§ĭ
Ġli p
à¦¾à¦§ à§įà¦¯à¦®
å®ī åįĵ
Ġà°ľ à°°
w or
Äį e
æ ħ
æ¯Ķ åĪĨ
Ġæ ¸
ĠÙĩÙħ Ø±Ø§Ùĩ
¢ à¹Ģà¸
ŀ à¸´à¸
ĠØ¨Ùĩ Ø§
ĠØ§ÙĦØ¨ ÙĦ
Ġsp raw
Ġàªĵ àª«
eder land
Ġà« ª
mak ta
Ø±Ø§ØŃ ÛĮ
Ġon un
Ġan n
è¨ Ń
he den
à§ĭ à¦°à§įà¦
ĠÙĨ Ø±Ùħ
ê² ĥ
ÏĦ Î¹Î±
Ġka l
Ġkans sa
Ġon i
Ġgjit ha
Ø® Ø¯Ùħ
ĠÃ§ o
ĠS ta
Ġpes so
ĠÙħØ¬Ú¾ ÛĴ
ĠBaÅŁ kan
ĠÄ° ÅŁ
à¯Ĩ à®©
Ġhaq ida
ĠÚ© ÙĪØ¯
Ð¶ Ð¾
Ġz ak
ĠÚ¯Ø±ÙĪ Ùĩ
ĠÐ· Ð°Ð³
à§ģ à¦¦
Ġfum ana
ĠpÃ«r f
ĠÐ² ÑģÑĸ
Ġà°®à±Ĭ à°¦
ar ang
ë³´ ìŀ¥
ĠØ§ÙĦØª Ø¬
in Ã¤
ĠÃ§ e
ÏĨÎ¿ ÏģÎ¬
Ġdre jt
ĠÙģÙĬ ÙĩØ§
is isa
Ġek stra
Ġà¤ ĵ
ĠB onus
Ġàª®àª³ à«ĩ
Ġwa lang
Ġà¦ħ à¦¸
ĠÐŀ Ð±
un day
ĠçĻ¾å®¶ ä¹Ĳ
ĠØ®ÙĪØ¯ Ø±ÙĪ
Ã¡r t
Ġn Åį
à§įà¦ §
ah l
Ġca z
Ġs ena
ĠÃ¶s sze
ĠgÃ¶ ster
p ata
Ġà¤µà¤¾à¤² à¥ĩ
Ġà®ħ à®¤à¯ģ
Ð°ÑĤÑĮ ÑģÑı
á»ı i
ĠagåĽ½éĻħ åİħ
j ie
à¥įà¤¯ à¥ĭà¤Ĥ
Ġa inda
Ú¯ ÙĪ
Ġve z
Ġg ure
Ġest Ãł
ĠResp ublik
ĠÑı Ðµ
ĠØ§ÙĦÙħ ØªØŃ
l Ã©
Ùĩ Ùı
ck en
ĠÃ ķ
cz nie
j est
Ġíķĺ ëĬĶ
he la
Ġm ert
ĠÒĽ ÑŀÐ»
Ã©sz et
×ķ ×ķ×ª
ĠÛģÙĪ ØªÛĮ
is me
ĠÅ¾ i
à¸£ à¹Įà¸
à´ªàµįà´ªàµĭ à´³àµįâĢį
Ġin form
Ġå¿ «
æĻĤ éĸĵ
à¯įà®ķ à®¿à®±
ya br
ĠO p
ĠÑıÐº Ð¸Ð¹
å¢ ĥ
ĠØ´ Ø®Øµ
he it
ĠØ¢Ùħ Ø±ÛĮÚ©
il ÉĻ
Ġe dÉĻn
ĠÑģ Ð»ÑĥÑĩ
Ġpo k
ĠíĶ ¼
Ġad d
Ġë¨ ¹
Ġà¦ħà¦¨ à§įà¦¯
r Åĳl
Ġà°µà°¿à° ľ
ĠÐ³Ð¾Ð´ Ð°
Ġf Ã¶re
à°µ à±įà°µ
Ġà¸ Ĺà¸µà¹Ī
ĠÐ¡Ð ĥ
àª¤ à«įàª¨
åı ĭ
© ëĭĪëĭ¤
ìĤ° ì¶ľìŀ¥
Ġt Ã¬m
Ġba x
à¤¸ à¥įà¤¥
ä¿¡ æģ¯
Ñĭ Ð²Ð°
ÏĢÎ¿Ïħ ÏģÎ³
Ġà¤¸à¤® à¤¯
ÅŁk il
Õ º
d us
ĠbÄĻ dzie
Ġç§ ģ
Ġ×ķ ×Ĵ
åĵ ¡
m ang
Ġa ba
ĠÙħØ· Ø§ÙĦ
ë³ µ
Ġì¶ ©
ub lica
ĠÑģÐ¾Ð» Ð¸
ĠÑĥ ÑĪÑĤÐµ
Ġhaq q
Ġi po
Ġma jd
Ġh ref
Ġà°ªà°¾à°°à±įà°Ł à±Ģ
àª¿ àª¨àª¾
Ħ à¹īà¸²
àª¾àª¡ à«Ģ
ĠÐ½Ð°Ð¿ ÑĢÐ°Ð²
Ã³ b
Ġà¦ħ à¦°à§įà¦¥
Ġbet 365
Ġd own
ĠÑĪ ÑĥÐ´Ð°
ĠØª Ø£
ÎĻÎ Ŀ
Ġà°¨à±ĩ à°¨à±ģ
ĠØ¹ÙĦÛĮ Ûģ
ĠØ¹ ÙĦÙħ
er ia
ĠB r
à®ķ à®®à¯į
à¤°à¥įà¤ Ł
ëĵ¤ ìĿĺ
ĠÙĬ ØªÙħ
o ho
ĠÒĽ Ð°Ð±
Õ¡Õ¶ Õ«
ĠÐ´ Ð¾Ðº
Ġà¦Ł à¦¾à¦ķà¦¾
r ul
ĠÐ´Ð¾Ð¿ Ð¾Ð¼
Ġay elujara
åĪ ĩ
Ä¾ ad
ĠÂ» ,
Ġl ite
ĠÑĦÐ° Ð¾Ð»
Ġn ek
Ġæī ĭ
Ïĩ Î¹
Ã »
c ÉĻk
ÏĦÏĮ ÏĤ
Ðº Ñģ
r Ãł
la dÄ±
Ġà´ Ĳ
m Äĵ
Ġfor ma
Ġpos si
Ġà°ľ à°°à°¿à°Ĺ
Ġà¤¬à¤¹ à¥ģà¤¤
Ġ *
ĠÐ± Ð¾Ð»
Ġàª¸àªĤàª ª
Ð² Ð¾Ñĺ
à¥ĭà¤Ĥ à¤¨à¥ĩ
Ġà¤¸ à¥įà¤Ł
it us
Ġo la
ÑĪÑĩ Ñį
ĠÄĳá» ķ
Ġàªķàª¹ à«ĩàªµ
is ting
ĠÚĨÙĩ Ø§Ø±
Ġd Ã¼n
àª¿àª Ĺ
Ġàª°àª¾àªľ à«įàª¯
Ġà¦¹ à¦¾à¦ľà¦¾à¦°
ĠÑĤÐ¾Ð¼Ð¾Ð½ Ð¸Ð´Ð°Ð½
ÑģÑĮÐº Ð¸Ñħ
à¦¨à§įà¦ ¡
Ġb est
ì» ¤
Ġ×ľ×¤ ×ł×Ļ
ĠÐĲ Ð¼
Ġ ãģ¯
ĠÅ ļ
Ġàªķàª° à«ĭàª¡
à¥ ¦
ri ki
Ġth a
Ġè ²
ãģ¨ ãģ¯
en di
as ed
Ġam i
Ġæľ ¬
ĠÑį Ð´Ð¸
ÑĢÐµ Ð±
ÄŁ it
s iz
ëĭ ¬
ìĽ Į
as yon
Ġè ĭ
Ġem an
ĠÃ ĭ
p uri
Ġm f
z te
ĠA m
Ġka ya
el les
Ġàªľà«ĩàª® àª¾àªĤ
or y
Ġz elf
Ġ à¹Ħà¸¡à¹Īà¸
Ġàªªàª¹ à«ĩàª²àª¾
Ġj our
Ġ×Ļ ×ķ×Ŀ
d Ã¼r
à±įà°¯ à±Ĥà°
Ġàª¯ àª¾àª¦
ÑĤÐµ Ð½
à¤ ģ
d dÉĻ
à®±à¯įà®± à®¿
ç» Ń
c ted
Ġàª° à«ĭàªķ
Ġë ĳĲ
æ· ±
Ġàªī àª®
Ġà´ķ à´¾à´²
ĠØ´Ø¯ ÙĨ
ĠV oor
Ġm Ã¶
ÑĢ Ð¾Ð½
Ġj ika
Ġt una
an bul
éĤ £
Ġ38 0
Ġà´¤ àµĭ
w iÄĻ
ĠÙ¾ÙĪÙĦ ÛĮØ³
Ð¸Ð» Ð°
à°² à±įà°²à±ĭ
Î´ Î¹Îº
Äģ la
ĠÏĢÎµÏģÎ¹ Î¿
ĠØµ Ø¯Ø±
c Ä«
ba ik
b or
Ð½Ð¾ Ñģ
å± ĭ
Ġà´ķàµįà´ °
b ah
Ġnda j
¢ º
ĠÙģÙĬ Ùĩ
ĠÐ´ Ð¾ÑĢ
ÏĥÎºÎµ Ïħ
Ġæ İ
ĠÚĨ ÙĦ
Ġà¦° à¦¹
ĠÚ©Ûģ ÙĨØ§
Ġà´¯ à´¿
Ġga le
é ±¼
Ġàª¬ à«įàª²
der en
à±ĩà°¦ à±ģ
Ġar ka
à°² à°ķà±ģ
Ø§ÙĨ ÙĪÙĨ
Ø´ ÛĮ
è¾ ĵ
ä¹ ł
ĠØ¨ÙĪØ¯ Ùĩ
äº ¿
ili p
Ġser ikali
à°¾à° Ĺà°¾
n as
Ġn ito
àª² àª¾
æ²¡ æľī
ĠÑĤÑŀÒĵ ÑĢÐ¸Ñģ
à®¿à®µ à¯ģ
he mu
Ġàªķà«ĭ àªĤàªĹà«įàª°à«ĩàª¸
ÑĶ Ñİ
ÑĸÐ´ Ð¾Ð¼
Ġf Åĳ
Î¼ÏĨ ÏīÎ½
bili tÃł
enn em
ĠÛģÙħ Ø§Ø±ÛĴ
Ã¢ r
Ð¸Ð½Ð³ Ð¸Ð·
Ġera bil
Ġp ost
Ġgy er
i er
h lah
áł łáł
2 4
à¦¾à¦° à§Ģ
Ġ×Ľ ×©
Ðº Ð°Ð²
Ġs ii
æĭ ī
Ġtr á»įng
Ġpagka wala
Ġç µ
ª à¹Īà¸§
ÉĻy ÉĻ
Ġà¦¨ à§ĩà¦ĩ
m Ã¡ny
C M
ĠØ¨ Ø·
Ġà´ħ à´§
à¤µ à¤¾
Ġtil b
ic es
Ġàªķ àªª
à´°àµįâĢį à´·
Ð°Ð± Ð°ÑĢ
à´¾à´¨ àµģà´Ĥ
ys tem
Ð° ÑĨÑĸÑĹ
Ð¾Ò³ Ð¸
Ġku li
èį ī
Ð°Ðµ ÑĨÑĨÐ°
ÙĤÙĬ ÙĤ
ar ia
ĠØ´ Ø±ÙĥØ©
Ġìĺ¨ ëĿ¼ìĿ¸
ĠÐł ÐĨ
à¤¨ à¥ĭà¤Ĥ
Ġge le
Ġà¹Ģà¸ĩà¸´à¸Ļà¸ Łà¸£à¸µ
àª¾àªµ àª¾àª¦
Ġà°ħà°¯ à°¿à°¤à±ĩ
L isting
Ġàªª àª¾àªķ
Ã¢n Äĥ
larÄ±n a
Ð» Ð¾Ð¶
p ha
li mu
Ġparas ito
ĠÏħ ÏĢÎ¬ÏģÏĩ
ĠÐ· ÑĮ
sk Ã½
ĠÎķ Îº
Ġam al
Äģd u
à°§ à±įà°¯
ÑıÐ² Ð°Ð½Ðµ
Ġæ Ķ
à¤¾à¤Ĥ à¤Ĺ
ÙĦ ÙĤ
in ho
ij u
ãģł ãģ£ãģŁ
Ġka li
k ÄĻ
ĠShqip Ã«r
à´¤àµįà´¤ à´¿à´²àµĨ
Ġà¸ §
Ġst ato
é¦ĸ é¡µ
s ung
Ġg enom
Ġàª¬ àª¾àª¬
Î¯ Î´
à¤µ à¤¾à¤°
éĺ ²
Ġap ro
Ġà¤²à¥ĭà¤Ĺ à¥ĭà¤Ĥ
ĠÙĩ Ø²Ø§Ø±
ĠÙĤ Ø³Ùħ
ĠD u
Ġsem pre
à¹ģà¸ ¥à¸°
f el
uks et
Ġë¨ ¸
Ġà¦Ĩà¦ª à¦¨à¦¾à¦°
å¹ ¶
us an
Ġjs me
Ġh asznÃ¡l
àµģà´ ¸
Ð°Ð¹ Ð½
ÛĮÚ© ÛĮ
Ġpr et
ÐµÐ½ Ðµ
à¥ĭ à¤°
ÑĨ ÑĸÐ²
Ñĥ ÐµÑĤ
ite No
×ª ×Ķ
ĠP eng
ãĤĪ ãĤĬ
Ġas ko
èī ĩ
Ġà¸ §à¸´à¸
ãĥĥ ãĥģ
Äĵ d
Ġå¤© å¤©
Ġà´² à´Ń
ÑĨ ÑĨÑı
ĠØ¯Ø§Ø± ÙĨØ¯
Ġh em
Ġsul la
Ð¸Ð½ Ñĥ
Ġàªĺ àª°
ve lo
Ġ×Ļ ×ĵ×Ļ
Ġì¢ ħ
Ġcon o
åĽ½ å®¶
à¥ ħ
ĠÚ© Ø¨
Ġà®ķ à®¿à®°
Ġà°ª à°¡
Ġf áº¹
ĠÙħØ®Øª ÙĦÙģ
Õ ¢
Ġà°ķ à±įà°°
à°¿à°¸à±įà°¤ à±ģà°¨à±įà°¨
á»į ju
Ġë £
àµĢ à´¯
Ġàªµàª¿àª¸ à«įàª¤
à®¾à®µ à®¤à¯ģ
ĠÎºÎ¬ Î¸Îµ
vo ir
Ġkun t
ĠÐ² ÐµÑĢ
g ji
Ġj Ãµ
ĠA v
Ġc es
ÑĨÑı Ð³
il li
Ø§ÙĦ Ø§Øª
Ħ à¸²à¸£
Ġmo Å¾
t ara
Î¼Î¿ ÏĤ
Ġ' );
ĠÃ ¦
gli a
Ġàª¸ àª«
Î½Î± ÏĤ
Ġl le
Ġmeng gunakan
Þ¦ Þ
Å£ a
Ġha zÄ±r
ĠÐ¶ Ð¸ÑĤ
Ġba o
Ġwa me
Ġà°ħ à°¸
« à¹ĩ
ch Ã©
Ġà¦¬à¦¿à¦Ń à¦¿à¦¨à§įà¦¨
Ġd Æ°á»
ĠÐ± Ð¸
az Äĥ
Ġnews Listing
ãĥĥ ãĤ·
à¹ĥà¸Ĭ à¹ī
×ĺ ×Ļ×Ŀ
Ġtr o
ĠÎ£ Îµ
Ø³ Ú©
Ġà¹ģà¸ Īà¸
à¯Īà® ª
Ð¸Ð½ Ñĸ
Ġãĥ ĩ
ÏģÎ± ÏĤ
ul li
Ġper lu
Ġà¤¤à¤° à¤¹
Ð½Ðµ Ð¹
ĠÐ¼Ð¾Ð¶ ÐµÑĤ
à¸Ńà¸ Ķà¸
Ġt ÉĻd
ÉĻf ÉĻr
ĠÙĨ ÙĪØ´
Ġen c
Ġda y
er ja
Ġmu jeres
à« ®
ĠÑĤ ÑŀÐ»
Ġà´ħ à´¦àµįà´¦àµĩà´¹
ÑĤÑĭ Ñĩ
ĠæĿ ¥
ĠÐ¾Ð» Ð¸Ð±
Ġbo Ê»
¹ æŀľ
do tt
Ġle f
Ġà°ķà°¾à°¨ à±Ģ
ì²ľ ì¶ľìŀ¥
u ti
ÎµÎ¯ ÏĤ
Ġmak en
Ġshoul d
¥à¸ ·à¸Ńà¸
n is
Ġkom m
Ġç¾ İ
Ð¼ Ð¾Ð¶
ãģĦ ãģ¾ãģĹãģŁ
Ġcheck ed
ÙĨ Ø§Ø¡
Ħ à¸Ļ
Ġso ov
Ġisti fadÉĻ
ĠÐ¼ÐµÐº ÑĥÐ½
Ġx ÉĻbÉĻr
Ġà¦° à§Ł
g os
l eng
ĠA k
Ġb Ã½
«à¸ ±à¸
ĠNor ge
Ġ×Ĳ ×¤×©×¨
ĠìĥĿ ê°ģ
lÉĻr ini
à§ĩà§Ł à§ĩ
à¨ ¨
é ¨
Ġku sh
à±ĭ à°µ
Ġwy k
s áº¹
em o
Ġat as
Ġx iz
Ġho me
ÑĨÐ¸ Ð°Ð»
ĠÃ¶n ce
ĠÙĩÙĨØ§ Ùĥ
å¾ ®
zet t
Ġà®ļ à¯Ĥ
Ġì§ ģ
àª¾àª³ à«Ģ
Ġà¦ķà¦° à§ĩà¦Ľà§ĩ
Ð» ÐµÐºÑĤ
ĠÙĦ ØŃ
Ġà¦¬ à¦¿à¦ķ
Ġàªľ à«ĭàª¡
ĠØ² ÙĨØ¯Ú¯ÛĮ
Ñĸ Ð»Ñĸ
A K
Ġy áº¹
nÃ½ m
Î¼Î± ÏĦÎ¿
ÑĢÑį Ð´
v iy
Ġkun dÃ«r
ca use
à´ªàµįà´ªàµĨà´Ł àµģà´¤àµįà´¤
ĠÐ¿ Ð°Ð¼
Ġno i
Ġà¦ī à¦¦
Ġfun dit
Ġl oro
ĠØ¨Ø§Ø² Ø¯ÛĮØ¯
bu ah
li dad
ĠÐºÑŀ Ð¿
Ġfe ta
Ġza p
ĠØ¨ ÙĨØ¯
Ñģ ÐµÐ´
Ġäºļæ¸¸ ag
à§ģà¦· à§įà¦ł
æī į
ĠÐ¸ ÑģÐº
Ġê² Ģ
àª¿àª ¦
ìµľ ê³ł
Ġs he
ãģıãģł ãģķãģĦ
Ġç ´
ent re
ĠØ¨ Ø£ÙĨ
ÑĤ Ð¸Ð¼
ä¹ ī
ë³´ ê¸°
à®¿à®ªà¯įà®ª à¯ģ
Ġà§ Ń
Ġà°µà°¿à° ¦
in k
ç§ °
Ġå° ±
ç¶ ļ
Ġà´® à´°
Ġà¦¨ à¦¤
à±Ģ à°ľ
ÏĦÎµ Ïģ
Ġs oll
Ø§Ø² Ùĩ
Ġb Ã¶r
Ġma z
res s
à°² à°¨à±ģ
Îĳ ÎĻ
ah iki
ĠÐ²Ð¸Ðº Ð¾ÑĢÐ¸ÑģÑĤ
ç´ Ħ
à¤¾à¤ Ł
Ġdi ri
ÑĥÑİ Ñī
«à¸ ¥à¸²à¸
Ġjel ent
ĠÐ´ Ñį
ä½ İ
Ġu ta
×Ľ ×ł
A PP
Ġnj erÃ«z
à±ģà°¤ à±ģà°Ĥà°¦à°¿
ĠMa e
I A
à«ĩàª ļ
Ġí Ĺ
à°ªà±įà°ª à°Ł
ç¥ ¨
ÙĪÙħ ÛĮ
Äį u
cy j
Ġà¦¬à¦¿à¦ ľ
ar is
ĠÙħÙĪ Ø¶ÙĪØ¹
à´± à´¿
Ġd ou
Ġpro f
ÙĬÙĨ Ø§
Ġs uch
Ġl áº§n
Ġt it
à§ĭ à¦ļ
ĠÐ² ÑĸÐ½
àª¦ à«įàª§
Ġli g
ise en
ĠØ´ Ø±ÛĮÙģ
Ġk Ã¤n
Ġà´ķ àµĪ
Ġtak Ã©
Ġtr ans
ª à¹Į
ĠÎ¿ÏĢÎ¿ Î¯Î±
Ġi ho
Ġma q
ĠkÃµ ik
bo gbo
à°¿à°Ĥà°ļ à°¿à°Ĥà°¦à°¿
is zt
Ø± Ø§ÙĤ
ĠìķĦ ëĭĪ
ek uwa
Ġtut to
Ġtra va
Ġà°ª à±Ī
Ġìĺ ¬
Äģk s
ĠÐ¿ ÑĬÑĢÐ²
ĠP ost
Ġb iá»ĩt
Ð½ ÐµÐ½Ð½Ñı
ĠSer ikali
Ġv Äĥ
Ġr Ã³w
Ġe ers
Ġãĥ ı
Ġà´¨à´¿à´ Ļàµįà´Ļ
Ġà¤¦ à¤¿à¤²
Ġse orang
ĠØ§ÙĦØª ÙĨ
Ġà¨ ¹
Ġe usk
à¦ĵ à§Ł
ĠÚ¯Ø± ÙģØª
Ġfaz er
§à¸¥ à¸²
Ġàª¯ à«ĭàªĹ
in as
Ġl ah
à°Ĥà° ľ
ĠÑģ Ð°Ð±
Ġàª¹ àª¾àª²
à¸Ńà¸¢à¹Īà¸²à¸ ĩ
ĠÑģÐµÐº Ð¾Ñĺ
f áº¹
Ġdal Å¡ÃŃ
Ġgo dt
ë³ Ħ
Î½ Î®
ĠH indi
Ġ ush
Ġë ł
m ÉĻsi
å¤ į
Ġn do
Ġku ji
Ġà´µ à´³
ĠìĻ ¸
an ud
ĠÐ± Ð¾Ð·
Ġkuh usu
ĠÑĺ Ð°Ð²
ê°ķ ì¶Ķ
v Äĥ
Ġà¤µ à¥įà¤¯
åĩ ¡
Ġé »
Õ¡Õ Ń
à®£ à®®à¯į
Ġm ang
oor de
e f
o q
ëĦ ¤
i amo
à°¾à°¨ à±ĩ
ĠÎ± Ïģ
å¿ ħ
Ġh asta
ĠÛ ³
ĠÙħØ´ Ú©ÙĦ
ĠÐºÑŀÑĢ ÑģÐ°ÑĤ
Ġàª² àª¾àªĸ
Î¸ Î¿ÏįÎ½
Ġ×Ķ×ŀ× Ĺ
áº³ ng
ĠÐ²Ð° ÑĪ
g Äģ
Ġd om
ĠØ´ ÙĬ
Ġs Ãª
si oni
Ġwie der
à«ĩàª¶ à«ĩ
in ta
Ð½Ñĭ Ð¼Ñĸ
ĠH or
uf en
éħ į
àµĭ à´·
Ġà°ªà±ĭ à°²
Ġà¤¬ à¤¤
uks ia
Ø³Øª Ø§ÙĨÛĮ
Ġ×Ĳ ×Ļ×ł
Ġac cess
íİ ĺ
Ġà¦ĩà¦¸à¦² à¦¾à¦®
Ġà¤¹ à¥ĩ
ģà¸ ³à¸
Î½Î¿ Ïį
ĠS Ã£o
Ġmass as
Ġp et
à±ĭ à°°
×ŀ ×ľ
lik u
Û İ
le le
ĠÃ¶n em
à¹Ģ à¸£à¸²à¸
Ġen n
Ġàªķ à«ĩàª¸
ĠÐ¢ Ð¾Ð²Ð°
íĮ ħ
Ġz d
Ġz Ã¡k
Ø§ÙĦ Ùĩ
Ġà®¨ à®²à¯įà®²
Ġg iz
Ġm ambo
ĠØ¯ÙĪÙĦ Øª
Ð°Ð» Ð¸Ðº
Ġs ia
Ġkun ne
à´¿à´¨ àµģ
à¦° à¦¿
à´Ł à´¿
ĠD ar
ĠmÉĻlum at
ĠÐ² ÑĬÑĢ
Ġàª¦ à«ĩàªĸ
Ġes ka
de ga
Ġàª¹ àª¶à«ĩ
Ġê± ´
à§İ à¦¸
Å£ ia
ĠWa ziri
ÐµÐ» Ðµ
Ġil k
ĠÚ©ÙĪ Ø´
ĠÎĿ Î¿
nÃ© e
ä» ķ
Ġàªľ à«Ĥ
Ġp asi
à¸£ à¹Į
Ġse Ã§
à®³ à¯įà®µ
è² ©
Ã¶ d
à´¸ à´Ĥ
é į
Â £Â¬
¡ à¸Ļà¸
ist es
Ø§Ø¨ Ø±
ĠÑĤ Ð°ÒĽ
ģ à¸£à¸£à¸
Ġ×ł ×ª
åı į
ĠÑħ Ð°Ð»ÒĽ
la o
à¤Ĥà¤¤ à¥įà¤°à¥Ģ
ĠÙĪ ÙĤØ¯
Ġà®ªà¯Ĭ à®°
à±Ĥà°° à±įà°¤
Ġ2 6
Ġon dor
ĠÃ®n tre
ĠL Ã¦s
Ġt ous
à«ĩàª Ĺ
Ġsi la
Ġba ino
Ġàª® àª¦
Ġà®®à¯ģà®Ł à®¿à®¯
Ġs ÉĽ
ÙĬ ÙĪÙĨ
lu it
Ġara w
Ġàª¶àªķ àª¾àª¯
à´Ļàµįà´Ļà´³ àµģà´ŁàµĨ
un den
åĪ Ļ
Ġb are
ĠØª ÛĮÙħ
ĠÐ´ Ð¾Ñģ
Ġà°ĩ à°Ĥà°Ł
ëį Ķ
ãģĵ ãĤį
Ġàªªàª° àª¿àªµ
à¯Īà®ļ à¯įà®ļ
ĠÎ¼ÏĮ Î½Î¿
Ĥà¸¶ à¹īà¸Ļ
Ġ, #
Ġà®¤ à®µ
Ø± Ø¬
Ġm Äĵ
à¤ķ à¤¿
z na
00 0
Ġ×Ķ ×¨×Ĳ×©
à´¯ àµįà´¯
ati ve
Ġàªľ àª¯
á»£ i
×Ĺ ×ł×ķ
Ġa bi
ãĥ³ ãĤ¹
ê²Į ìŀĦ
Ð°ÑĤ Ñį
ª à¸£
à¤µ à¤°
Ġà°² à°ķà±įà°·
Ġà°Ĩ à°®à±Ĩ
Ġpa Å¡
Ġà¤ķ à¤¾à¤®
Ġà¤® à¥Į
ang kan
al mente
< /
Ġb Ã¡o
r Ã¤
Ø· Ùģ
ir ish
Ġir in
Ġm Ã«n
Ġ ÅĻÃŃ
ãģĳ ãĤĭ
Ġà¦¨à¦¤ à§ģà¦¨
ĠÐ¸Ð· Ð²
v Ã¡n
àª¨ àª²
Ġà´¸ à´¾à´§
Î¬ Î¶
Ð¾ÑĢ Ð°ÑĤ
Ðµ Ð¶
it os
ÑĥÐ¿ Ð¸ÑĤÑĮ
åº ľ
ìĨĮ ìĿ´ìĬ¤
Ġ×ł ×¢
×ķ×¨ ×ļ
æĪĳ ä»¬
skie go
Ġf ÉĻ
çµ Ĳ
t Ä«
ik or
Ġm ÃŃ
Ġe ga
à¦¦ à¦¿
ãģ« ãģĬ
ç» ľ
åĨ į
Ġpr Ã©
Ġàªķ à«įàª·
è ķ
Ġíĸ ī
ĠÙĦ ÙĨ
ĠK A
pa Ã±a
ĠVi deos
Ġw enye
Ġkeh idupan
z zi
ko we
à¤Ĥ à¤ª
à«Ģàª ¥à«Ģ
ĠÑĥ Ð¹
à°°à±įà° ¸
Ġa ka
é¡ Į
ãĤ¤ ãĥ«
r ov
ĠO g
Ġpr Ã³
Ġìĥģ íĴĪ
Ġy osh
ļà¸ ±à¸
Ġun ui
ng we
Ġmu da
ÑĢ ÑĤ
Ð¸Ð· Ð½Ð°Ñĩ
atu ta
Ġkor r
v ia
xi co
Ġgia o
ing o
ĠÑĤ Ð°Ñģ
à¹Ģ à¸Ļà¸
Ġg am
Ġs enza
ta da
çī Ľ
Ġpri v
Ġà´Ĵ à´¨àµįà´¨
Ġva d
ĠZ eit
ĠNa ch
Ð ¥
Ġë° ķ
å Ĥ
Ġp ubli
Ġwur de
Ġj p
ar s
Ġ×ł ×©
ĠÄį as
b ÉĻt
Ġàªı àªµà«ģàªĤ
ck er
ĠâĢĿ .
Ġs Ã¶z
ĠBras il
ÎĳÎ Ľ
ro l
Ġju da
Å¾ d
Ġth á»ĳng
ĠÆıli yev
Ð°Ð» Ð¾
Ġa Å¾
Ð°ÑĶ ÑĤÑĮÑģÑı
ĠæŃ £
Ġìĸ ´
ë ĳ
ÐµÐº Ñģ
Ð¿ ÑĢÐ°Ð²
à«ĭàª ¬
Ð¾Ð½ Ñĥ
Ã ĳ
Ïĥ ÏĦÎ®
ci ona
lig hed
Ġal an
I C
ĠMa i
ÐµÐ½ Ð´
ĠÐ¾ÑĤ Ðº
iáº¿ u
Ġt ÃŃch
ation al
Ġ×ĳ ×Ļ×ķ×ª×¨
Ø¹ Ø§
Ġth Ãªm
Ġvas tu
ĠÐ´ Ð¸
Ġb Ã¼tÃ¼n
Ġãĥ Ľ
Ùģ Ùĩ
k áº¹
Ġsch on
Ġà´ª àµĩà´°
it es
Ñĥ ÑģÑĤ
Äį nÃ©
à¤ķ à¥įà¤Ł
Ġo laraq
×¡ ×ĺ
il en
Ġngh Ä©
Ġà´¨ àµĩà´°
è¿ ŀ
ash ara
çĻ» éĻĨ
àª ĥ
Ø± Ø§ÙĨ
Ġe ts
ĠHo tel
ĠÑħÐ¸Ð· Ð¼Ð°ÑĤ
ult ura
ëĵ ±
Ïĥ Î¯
on ie
Äį et
ĠÐ± ÑĥÐ½
ĠE t
Ø¬ Ø§Ø¯
ĠÐµ ÑģÐ»Ð¸
ĠàªĨ àª§
è£ ½
Ġà¦ªà¦° à¦¿à¦ļ
ãģĳ ãģ¦
ÏĨ Îµ
åĽ Ń
æĥħ åł±
ÙĪ Ø·
Ġei gen
à¤ļà¥įà¤ Ľ
Ġà´ª à´²
Ġl ag
à¤¾à¤¤ à¥įà¤°
ãĥ¼ãĤ ·
Ġi gba
ãģ§ ãģĹãģŁ
Ġå ±
ë ·°
ĠN ederland
ãģ® ãģĬ
Ġàª¤à«ĩàª® àª¾àªĤ
Ġk wanza
à«ģàªĤ àª¬
à¦¾à¦¨ à¦¿
P age
Ġqar ÅŁÄ±
li mo
la lim
Ġhad de
Ĉ Ĉ
ĠÐ¿ Ð¾Ð·
Ġbes ar
ĠÐ¿ÑĢ Ð¾ÑģÑĤ
Î³ Î±
à¶ »
ĠØ± Ø¯
li hat
ãģ İ
ĠÐ¾Ð± ÑĬ
Ġm ijn
Ġr á»ĵi
Ø§Ø±Ùĥ Ø©
ÏĢ Î®
ãĥ³ ãĤ¯
Ġk ata
Ġàªªàª¡ à«ĩ
ate ko
ĠktÃ³ r
ĠI D
ÙĦ Øª
Ġmi aka
ĠéĶ Ľ
åķ ª
ĠÙħÙĪ ÙĤØ¹
ÐµÑĤ Ð¸
Īà¸ °à¹Ģà¸
ĠÐ³ ÑĢÐ°Ð¼
ĠÃ®ntÃ¢l ne
Ġes hte
æ ļ
ĠÏĥÏĦ Î¿ÏħÏĤ
Ġe to
ĠÙĩÙħÚĨ ÙĨÛĮÙĨ
Ġl á»±c
Õ¥ÖĢÕ ¨
ĠÄĳ áº¥t
Ġàªµàª§ àª¾àª°à«ĩ
lo Å¾
×ĸ ×ķ×¨
Ġy ÉĽ
ç»ı æµİ
atu it
lig het
Ġzh v
Ġæ¬ §ç¾İ
Ð°Ð»ÑĮ Ð½Ð¾Ð³Ð¾
ĠÐ¼ Ð°ÑĤ
áº§ y
Ġha in
ĠØ§ÙĦ Ø§Ùħ
ĠÐ° ÐºÐ¾
Ġç «
eng o
Ä° N
Ġh Ã³a
Ġà¤¹à¥ĭ à¤¤à¤¾
èĻ İ
el u
ĠS on
ĠÐ» ÑĥÑĵ
Ð»Ð°Ñģ Ñı
Ġha v
ont os
Ġsav u
f ik
×Ļ×ł ×ª
Ġå ī
ëŁ ī
Ġpag s
à¤° à¤£
ÏĦ ÏĥÎ¹
Ġàªļà«Ĥ àªĤàªŁ
à¹Ĥà¸£à¸ĩ à¹ģà¸£à¸
é Ł³
×Ļ×¨ ×ª
Ġàªµ àª°àª¸
ĠL is
æĬ ¤
b ra
Ġpa pa
Ġàªħàª¹ à«ĢàªĤ
Ð°Ð» Ð°ÑģÑı
àª¦ àª¾àªµàª¾àª¦
Ġmel akukan
Ġàª®à«ĩàª Ĥ
bi g
à´¿à´ ³
à´¯ à´¿à´²àµĨ
ŀ à¸´
ĠÑģÐº Ð»Ð°Ð´
ĠÅŁ ÉĻx
Ġn ow
Â ¨
le p
Ġst ud
ĠT o
Ġà¦¹ à¦¤à§ĩ
ĠT all
ĠÚ©ÛĮ Ùģ
Ġy ok
Ġàªľàª£àª¾àªµ à«įàª¯à«ģàªĤ
Ġàª®àª¹ àª¿àª²
ĠÚ© Ø§ÙĦ
ÏĨ Î·
Ġ×ł ×Ľ
ÏĮ ÏĦÎ·ÏĦÎ±
Ġk Ã©r
Ġ/ "
Ġprov i
ã Ħ
×ĵ ×ª
Ġà¤ľ à¥Ī
Ġ Õ¡Õ¶
g es
ak u
Ġp uh
ry f
Ġ×ª ×©
g ra
Ġì Ĥ°
Ġàªı àªµà«Ģ
ĠÐ¿ÑĢ Ð¸Ð½
ĠÐ¡ Ð¿
àª¿àªķ à«įàª·
ĠÎ±ÏĢÎ¿ ÏĦÎµ
ĠØ§ÙĦØŃ Ùĥ
ĠÙħ Ø±Ú©
di gt
Ã¶ ld
Ġp raw
Ġë² Ī
ĠØ¨Ø´ ÙĥÙĦ
Ġs Ã¼
ĠàªĨ àª¤
ĠØ§ÙĦØ£ Ø®
Ġàªķàª° àª¤àª¾àªĤ
łà¸ ±à¸
k Ã¡
Ġ×Ĳ ×©×¨
p ar
ca do
åģ ĩ
ĠÐ¸ÑģÐ¿ Ð¾Ð»ÑĮÐ·
ĠÐº Ð°Ñģ
ëĵ¤ ìĿĢ
Ġà¤¹à¥ģà¤ Ĩ
àª¿àª ĵ
b ij
uts tyr
Ġl ing
¡à¸²à¸ ģ
ĠÎ¶ Ïī
ĠÎ» Î±
ĠK Å«
ãĥ¬ ãĤ¹
ÐµÐ¹ ÑģÑĤÐ²
Ġti Ãªu
g ang
´ë ı
à¤¸ à¥įà¤Ł
ĠÐ´ Ð°Ð¿
à«ĩàªķ à«įàª¸
Ġì¶Ķ ì²ľ
Ġj in
ÐµÐ½Ð¸ Ñİ
àª® à«Ģ
v Ã©ny
Ġ ÉĻl
Ġd ata
Ġá»į kan
Ø§ÙĦ Øª
k il
Ġf ark
ĠÎµÎ½ Ïİ
ch ilik
ĠéĢģ æĸĻçĦ¡æĸĻ
Ġnh au
Ġ×© ×Ŀ
Ġë³ Ģ
ãĥķãĤ ¡
à¦¦ à¦¿à¦¨
ÏģÎ¯ Î¶
ĠÑĤ Ð°Ð·Ð¸
Ġmo t
Ġ à¹Ħà¸Ķà¹ī
Ġkan aka
Ġà¤¤ à¥ĩ
å®ī åħ¨
fa q
Ø§Ø¶ ÙĬ
í ļ
Ð¾Ñı Ð´
ar ta
k em
p se
Ġbus iness
ĠI m
éĢ £
Ð¸ÑĤÑĮ ÑģÑı
à¸Ļà¸± à¹īà¸Ļ
ĠvÅ¡e ch
ks om
ÑĩÐ¸Ð» Ð¸Ðº
Ġk Ã©t
Õ¸ Õ¶
«à¸£à¸ ·à¸Ńà¸
èª ī
Ġà¤ī à¤¤
æľīéĻĲ åħ¬åı¸
ãģĹ ãģı
Ġ Õ¡Õµ
ĠÑĳ ÐºÐ¸
Ġà¤ĩà¤¸ à¤ķà¥ĩ
Ġre z
æĿ ¿
Ġà¤¦à¥įà¤µ à¤¾à¤°à¤¾
à« Ń
ĠÐµ ÑĤ
à¹Ģà¸ Ĺ
c ts
åĪĨ æŀĲ
×ķ×¨ ×¡
ĠÐ¼Ð¾Ð¶ Ð°
ĠÑį ÑģÐ°
Ð¾Ð² Ð¸Ñħ
g un
ke en
Ġ×ĸ ×Ĳ×ª
Ġà¦¬ à¦¾à¦°
Ġå° ı
Ġàª° àªľ
o le
ĠØª Ùģ
àª¾àª° àª®àª¾àªĤ
Ð½Ð¸Ðº Ð¸
ĠÑĤÐ°Ðº Ð¶Ðµ
Ð·Ðµ Ð¹
ut at
ĠÐĲ Ð±
Ġb Ã¶yÃ¼k
Ġaix Ã²
ĠÑģ Ð¸ÑģÑĤÐµ
Ġar beid
åĵ į
à§ģ à¦¤
it en
Ġnu ov
Ġh l
å® ģ
Ġsh ah
Ġi ra
ĠT Ã«
Ġse us
Ã² ria
Ġà¦® à¦¾à¦¸
Ġtiáº¿ ng
Ġlum ot
ÙĦ Ø§Øª
c jÄĻ
ç¡ ®
ĠØ£ ØŃØ¯
as ini
ĠÐ° ÑĤÑĢÑĭÐ¼
Ġ/" >
çĶ º
Ġgiá» Ŀ
Ð°ÑĢ Ð°
on al
ĠU r
Ġeg Ã©sz
ë¦ °
ÑģÐº Ð¸Ðµ
Ġv om
g n
ĠS car
Ġ365ä½ĵèĤ² æĬķæ³¨
ë¯¸ ëħĢ
å ©
Ú¯ Ø±ÛĮ
ĠÃ ¬
Ġb ja
Ġpre mi
Ġ×Ĳ ×ļ
Ġs ik
ĠÄĳ Æ¡n
Ġk en
Ġæ Ģ
j at
Ġà¤Ĺ à¤ı
Ġàª¨àª¹ àª¿
Ġtr ung
àªª àª¾àª¸
ªà¸´ à¸Ļà¸
Ïģ ÏİÎ½
Ġim mer
Ġpal ju
y áº¹
ah am
ĠK o
Ġuti lis
Ñĸ ÑģÑĤÑĮ
ÑĢ Ð¾Ð´
ĠÐ¾Ð± ÑĢÐ°Ð·
ĠÐ²ÑĢÐµÐ¼ Ñı
à¦¿à¦Ł à¦¿
ur ri
Ġwan anchi
à¹Ĥà¸ ¥à¸
Îķ ÎĿ
Ġqu ali
ĠàªŃ àªĹ
Ġà¦¸ à§įà¦Ł
Ø¯ ÙĨ
à¦¾à¦ ·à§įà¦Ł
ÑĥÐ¼ Ð°Ð½
ĠÃº gy
Ġke Äı
ĠF ree
à§įà¦ Ń
Å« tu
ĠØ§ÙĦÙħ Ùħ
Ġà¦Ńà¦¾à¦° à¦¤
à¥Ĥ à¤¸
Ġva in
ÄĻ t
Ġut an
ą ĆĈ
ë° ķ
ti me
ãģ® ãģĮ
Ġn ÉĶ
Ġz osta
Ġbur uz
em ake
ç¯ ĩ
ĠtÃ¶r t
Ùħ ÙĬÙĦ
ÉĻn c
Ġta pi
ä¸ ¾
ç½ĳ ä¸Ĭ
ĠÐ¼Ðµ ÑĪÐ°Ð²
Ġb ak
Ġun o
Ð¾ Òĵ
Ñĥ Ð»Ñı
Ġà¸ ¢
à¦°à§įà¦ ľ
4 0
Î¾ Î¹
Ġà¦Ĩ à¦¶
Ĭà¸ ¸à¸
à¹ Ĭà¸
Ġàª¤àª® àª¾àª®
è¶ Ĭ
à«ĥ àª¤
Ġs id
Ġv iac
ĠC CM
ĠÏĢÏģÎ¿ ÏĤ
×ķ ×ķ×Ķ
Ġàª¶ à«įàª°à«Ģ
Ġr et
Ġs eks
Ð½Ð¾ Ñŀ
à¦¹ à¦¾à¦°
×¦ ×ķ×¢
Ġtr á»Ł
m am
Ġqu er
«à¸Ļ à¹īà¸²
Ġy ana
Ġc atal
ĠÎ ĸ
à§ĩà¦ ¹
ĠÐ¿ÑĸÐ´ Ð¿
à¤¾à¤ļ à¥įà¤¯à¤¾
Ġm Ã©
oor d
Ġtomon idan
ãģĳ ãģ©
Ġ×ŀ×Ĳ ×ķ×ĵ
à§ĩà¦® à§įà¦¬à¦°
h u
ÎĳÎ ļ
à¶ Ń
çħ §
à¦°à§įà¦ ¶
ĠÃĸ z
ì¶ľìŀ¥ë§ĪìĤ¬ì§Ģ ìĥµ
ÐµÐ½ Ð½Ð¾
Å¡ te
ĠÎķ ÏĢÎ¹
Õ¡Õ º
Ġà¤Ĩ à¤°
àªĤàª ĸ
ak ati
Ġs aha
Ðº Ð»ÑİÑĩ
ĠÐ¼ ÑĥÐ½
Ã¬ n
Ġt am
Ã¨ res
åĢ Ł
Ġaur re
z ar
is mo
se en
àª¾àª¯ àª¾
Ø§Ø³ ÙĬ
het Åĳ
à¦¿à¦¬ à¦¾à¦°
Ġå¥ ½
à« ª
on do
Ġho áº¡t
ÅĤ os
ĠÒĽ Ð°ÑĤ
ĠìĨ į
ak ou
Ġà§ ·
Ġàªľ àª¨à«įàª®
Ġà¤ ł
ëŁ ¼
à«ĩ àª°à«Ģ
on iale
ãģ§ ãģĤãĤĭ
b ri
Ġè §
Ġha di
ĠRom Ã¢
Ġch á»ĭ
ĠÐ½ Ð¾Ð¼
å ³
lÉĻr dÉĻ
×¨ ×§
Ġ 66
as il
Ġàª¤ à«Īàª¯
ãĥ¼ ãĥ³
Ġb elÉĻ
ãģ¨ ãģª
ĠÙĬ Ø³Øª
ĠØªØŃ Øª
íķĺ ì§Ģ
tij d
Ð¸ ÑĨ
Ġc al
ter net
æķ° æį®
ĠÐ¾ÑĢÐ³Ð°Ð½ ÑĸÐ·
Ã ĺ
Ð»Ð°ÑĢ Ð´Ð°Ð½
ĠS i
Ġdo en
ĠV a
Î´ ÏĮ
à¤Ĥ à¤ľ
ĠÐ¢ Ð°Ðº
àªŃ àª¾àªĪ
ÑĤÐµ Ð¹
Ïģ ÎµÎ¹
Ħ à¹Īà¸
à¦¦à§įà¦ ¦
Ø´ Ø§ÙĨ
is eks
×Ļ×ľ ×ķ×ª
Ġà¨ ¨
áº¯ m
Ø§Ø¬ Ùĩ
Ġish lab
äº§ åĵģ
ĠàªĹ àª¾àªĤàª§
Ð¸Ð½Ð³ Ð°Ð½
ĠÐ·Ð° Ñħ
×Ľ ×Ł
in ha
Ġlie to
Ġsen se
Ĭ à¸µà¸
åĽ ´
Ġp lan
Ù Į
Ø§Ùģ Ø¸
Ġkh et
ho ng
de a
Ò ļ
ãĤĴ è¦ĭ
Ġjed no
ĠÙĤØ³Ùħ Øª
velo p
Ã¼z el
Ġgehi ago
Ġtl h
Ġä½ ł
Ġval Ã³
b ÉĻ
Ġnagy on
Ġku ch
Ġà¤¸ à¥ĭ
à« ¬
Ġtr ÃŃ
Ġder es
ona li
ĠÎĶ ÎµÎ½
Ġk is
ko l
ÏĥÎµ ÏĦÎµ
Ġà¤¨ à¤¾à¤®
ÏĨ ÎŃ
Ġàªµàª¿àª¶ à«ĩ
ÑĦÐ¾ÑĢ Ð¼Ð°
or szÃ¡g
ĠpÅ« naewele
Ġt wee
ĠA nh
Ïį ÏĢ
ari bu
Ħà¸£à¸Ķà¸´à¸ ķà¸
ÑĸÑģ Ð»Ñı
Ġil u
èķ ī
Ġpers onn
ëĬĶ ëį°
Ġe ona
ĠÐĵ ÑįÑĤÐ°
Ġdon de
mekte dir
u al
Ġcu al
ÉĻc ÉĻk
r ak
di o
Ġik us
Ġ×ŀ× ŀ
ĠN jÃ«
à¤µ à¥Ģ
ãģ«ãģª ãĤĭ
pa Ã±
E L
ÛĮÙħ ÛĮ
vien o
ĠÑŀ Ð¹
ĠØ§ÙĨ Ú¯
ĠÑģÑĬ Ð¼
Ġà¤¹ à¤°
Ġpo Ê»e
Ġï¿½ï¿½ï¿½ï¿½ï¿½ ï¿½ï¿½
Ġv jet
ĠØ± ÙģØª
ah kan
Ø§Øª Ùģ
Ġtá» ī
à¹īà¸²à¸ ĩ
×ķ×ĵ ×Ķ
çĬ ¶
A V
´ ī
Ġì° ½
Ġê²ĥ ìĿ´
ĠíĶĦ ë¡ľ
Ġb Å«s
Ġsam men
Ġchiq ar
Ġçİ °
à¹Ģà¸ Ĭ
Ġe est
Ġy Ã¼z
Ł ©
ĠÑĩ Ð¸
Ġà¦ķà¦° à§ĩà¦Ľà§ĩà¦¨
es tÃ¤
Ġsa lah
?? ??
ĠÐ´Ð·Ñı ÑĢÐ¶
an n
Ġm iá»ħn
A D
æİĴ åĪĹ
ĠÑĤÐµ Ñħ
×¦ ×ľ
Ġes a
Å ĭ
Ġà¤® à¤¨
co l
ed ha
å¸Ĥ åľº
ĠÙħÙĨ Ø°
×ŀ× Ĺ
i gen
ĠDet te
da p
tt Ã¤Ã¤
Ġtj era
Ġíķľ ëĭ¤
ĠãĢı ãĢİ
Ä Ĳ
×Ļ×ľ ×Ļ×Ŀ
j ak
Ġàªħàª® àª¦àª¾àªµàª¾àª¦
ho l
Ġm al
Ġkap csol
ĠÙĦ ÙĩØ§
Ġsen diri
ãģĭ ãĤĬ
Ġi de
Ġk asi
ãģ ¶
à«ĭàª ¦
it se
ĠÙħÙĨ Ø§Ø³
g na
Ñģ ÑĥÐ»
Ġhiso b
Ø Ł
Ø² Ø¯
Ġ×©×ľ ×Ķ
Ġæ ·
ä¾ ¿
ĠÐº Ð°Ð·
à§ĭ à¦·
ÑĪ ÑĤÐ¾
ka zi
oma in
ĠØ£ Øµ
ÑģÐº Ñĥ
Ġth us
ë¸ Į
Ġpu Ã²
Ġàªª à«Ģ
à¹ģ à¸Ļà¸
Äĵ tÄģ
ÐµÐ» Ð¸Ðº
Ø² Ø§ÙĨ
ĠÐ¼ Ð°ÐºÐµÐ´Ð¾Ð½
li ÄŁ
n ut
Ã« v
Ġàªµ àª¾àªĤàªļ
ĠàªĽ à«Ģàªı
Ġtent ang
ĠÒ³Ð°Ð¼ Ð´Ð°
Ð¾Ð» Ð°ÑĢ
Ġ ä¸ĭ
am ini
Ġëĭ ¬
àª¨à«įàª ¦à«įàª°
ĠC ha
ĠØ± ÙĨÚ¯
á» ħ
Ġá»į ja
ĠÑĤ ÑĢÑį
à¥ĩ à¤¨
Ġà¦ ł
Ïĥ Îº
Ġv Ã©
ĠM Ã¼
Ġ×Ķ×Ĳ ×Ŀ
Ġs ah
Ġ×Ķ×ĸ ×Ķ
Ġmo i
Ã© vel
ãĥĶ ãĥ¼
ÙĬÙħ Ø©
Ġr ay
Ġat bil
Ġho tel
a b
Ġæ ł
Ġà¤īà¤¨à¥įà¤¹ à¥ĭà¤Ĥà¤¨à¥ĩ
Ä«g s
Ġà¤¸à¤ķ à¤¤à¤¾
à©± à¨
Ġ×Ļ ×¢
Ġà¦ª à§ģà¦°
Ġv Äĥn
ĠÙħÛĮâĢĮ ØªÙĪØ§ÙĨ
ĠàªĨ àª¦
itate a
Ð½ Ð¸ÑıÑĤ
ĠÑı Ð²
íĻ ĺ
ĠØ¥ ÙĦØ§
ĠÄ ı
ka p
Ġn ini
Ġtlo ha
ãĥ¼ãĥ Ħ
Ġl uf
ìĨ ¡
Ġhe Ã§
ãĤĵ ãģł
Ġwa le
Î´ Ïħ
ar in
Ġh ver
Ġà¦ļ à¦¾à¦²
Ġle t
Ġli ve
ĠåĽ ł
Ġr umah
ĠCon c
scha ft
Ġ×ŀ×Ĺ×Ļ×¨ ×ķ×Ł
ly n
Ġp aha
ya i
Ê»a u
ĠÐ² Ð¸Ñģ
ĠÐ¿Ð¾Ð» Ð¸ÑĤ
Ġsu ure
Ġé «ĺ
Ġt Ã¼m
åĦ ¿
ĠÑĩ ÐµÐ»
Ġtr ov
Ùĳ Ø©
à«įàª² àª¾
å¤ ª
Ġíķĺ ëĤĺ
i do
tu ur
ĠÐ¸Ð³ ÑĢÐ°
àª¿àª £
èª ¿
Ã©s i
Ġm asih
ãĢ į
à§ĩà¦ Ĺ
×Ľ ×Ķ
Ð¾Ð² Ð¸ÑĤÐµ
à¹Ģà¸ ¡à¸
Ġê°Ģ ê²©
Ð½Ð¾ÑģÑĤ ÑĤÐ°
Ã¡ go
Ġb el
Äħ Å¼
Ġis te
Ã¡d za
am ani
à¸Ńà¸¢à¸¹ à¹Ī
Ġåĳ ¨
ĠÑģ Ð°Ð¹
ä¾ ĭ
m agan
Ġanmeld elser
Ġtá» ¥
ãĤ¤ ãĤº
ro ng
àª¿àª¸ à«įàª¤
Ġï¼ļ âĢľ
éĩ İ
ìĬ¤ íĬ¸
Ø¸ Ø±
Ġà¤ª à¥Ī
Ġmu h
àª¾àª¯ àª¦
Ø±Ùģ Ø©
Ġph Æ°Æ¡ng
Ø±ÙĬ Ø¨
ä» Ĭ
ĠK ur
Ġà¤ķà¤° à¤¨à¤¾
¢ à¹Į
ĠÏĮ Î»
da j
Ġm Ã¤r
ÐµÐ½ ÑĤÐ¸
ÙĦ ÙĪ
et z
ar bej
Õ¥Õ ²
tz e
Ã³ Å¼
Ġkan ilang
å®ĺç½ĳ ä¸ĭè½½
à¦¿à¦ ¹
Ġac qu
Ġm moja
Î® Î¼Îµ
ĠØ§Ùģ Ø²Ø§Ø±
ÑĨÑĭÑı Ð½
uy á»ģn
Ġqu á»ĳc
æĬ Ĭ
Ð½Ðµ Ñģ
Ġqu ando
Ġpers ones
à§ĭ à¦ª
ĠÐ¸Ð· Ð³
Ġê¸ Ī
ĠÑĤ Ð¾Ð¿
Ġdi re
Ġju ba
ĠkÅ« Ê»ai
ĵ ľ
à¹Īà¸²à¸ ¢
Ġàª¶ àª¹à«ĩàª°
ĠÐł Ñį
ĠØ§ÛĮ Ø¬Ø§Ø¯
æĺ ¾
Ġk ou
w u
ĠÎł Î¿Î»
Ġv áº¥n
Ġh ati
É ĸ
tso e
Ġkes k
ÑĮ Ñİ
lo q
à¥Ģ à¤¡
ĠØ¯ ÙĪÙħ
×Ļ×Ľ ×Ķ
ĠÐ²Ð¸Ðº Ð¾Ð½
ĠÃ®ntÃ¢lne ÈĻte
à«¦ à«¦
ĠÙĬ Ø§
Ġàª® àªĤàª¦
Ġd áº«n
s il
Î»Î· ÏĤ
ĠÐ ģ
Ġàª¨ àªµà«Ģ
ĠNEWPart 9
à«Ģàª ĸ
ĠØ¨Ø¯ ÙĪÙĨ
Ġàª¨à«ĭ àªĤàª§
Ġkoh ta
Ġs at
v Ã¤r
tÄģ v
Ġà¸ ¢à¸
Ġby l
Ġà¸ Ī
ar beit
Ġ×Ļ ×Ĺ
Ġno tre
ĠÐº Ð°Ñĺ
to a
Ġàª¬àª§ àª¾
Ġt iem
ÑģÑĤ Ð°Ð½Ð¾Ð²
tu u
å§ ĭ
ĠÑĤ Ð¾Ð¼Ñĥ
r Ã¦
ĠØ§ÙĦØ£ ÙĪÙĦ
lÉĻr inÉĻ
Ġëį °
Ġf ar
Ġé Ľ
à¤ Ĩ
Ġì ´Ī
n yt
ĠÄ¼ oti
àªķ àª¡
çµ Į
Ð¸ÑĢÐ° Ð°ÑĤ
it ti
ca le
ou ver
à¤¾à¤² à¤¾
ck Ã½
ÑĢÐ° Ñħ
ÏĢ ÎŃ
Ġaj ili
à¦¾à¦ĩ à¦¨
Ġ5 5
Ġne pie
àªĤàª Ń
×¨ ×¡
Ġgr an
åĩ ł
Ġ: #
Ġ×© ×Ļ×©
ĠÑĹ ÑĹ
Ġje ho
Ġmit te
ÅĦ st
ati da
ke z
ĠÐº ÐµÑĢ
Ħà¸ ´à¸
Ġm ely
Ġnag u
ĠÙĩ Ø¯
Ġtr as
Ð· Ð¾Ð´
Ġl Ã¡t
ĠÐºÐ¾ÑĤÐ¾ÑĢ ÑĭÐµ
Ġé ķ
Ġo ike
ĠÐ¿ÑĢÐ¾ Ð¸Ð·Ð²
eni u
Ġb Ãªn
ĠàªĨ àªĸ
gh et
ĠAn d
Î¹ Ïİ
Ĺà¸µà¹Īà¸ ªà¸¸à¸Ķ
ĠÏĩ ÏģÎ·
l anadi
ÎŃ Ïĩ
Ã¼ le
Ġha bari
×ķ×ŀ ×Ļ
à¦¿à¦ §
ĠÐ· Ð°ÑĢ
æľ ª
ãĤ ´
àª® àª¾àª¨
Ġsel f
Ġweng i
Ùİ ÙĬ
ĠH erri
ĠA I
Ġsa id
Ġbal at
ĠÙĬ Ø¯
×Ļ×ĵ ×Ķ
à¤¾à¤° à¥ĩ
ĠmÃ¤ ng
Ġàªµ àª¹
ĠØª Ø¹Ø¯
s al
ĠÃ§ do
ÙĬ ØŃ
it utas
ÙĬÙģ Ø©
ĠpÃ«r dor
we ka
Ġo wn
ĠÑĪÐ°Ñħ Ñģ
à« ©
Ġh un
ĠFr ance
ĠÐ¿Ð¾Ð²Ðµ ÑĩÐµ
ĠÄį er
Ġp lay
àª¾àª¯ à«ĭ
Ġàªķàª° à«įàª¯àª¾
Ø§ÙĨ Ø³
ÑģÑĤ Ð¾Ñı
ĠI z
un ea
ĠDa ar
ÑĢ Ð°Ñģ
Ġsvo j
ĠÑī Ð¾Ð±
ÑĢÑĸ Ð±
Ġva ja
Ùĥ ÙĬØ©
ĠÎļ ÏģÎ¹ÏĦÎ¹ÎºÎŃÏĤ
ĠÐ½ Ð°ÑĢ
Ġb un
Ġtak e
ĠÑĤ Ð¸Ðµ
Ġdes ign
in ud
Ġjoa le
Ġar v
Ġl ong
zi onale
er de
Ġg io
ĠÐ±Ð¾ÑĪÒĽ Ð°
ĠÐµ ÑģÑĤÑĮ
Ġbul ate
ÙĪÙĤ Ø¹
Ġe de
ĠÐ¿ Ð¾Ð±
Ð¾Ð´ Ð¸
ate ur
Ġex p
×¨×Ľ ×ĸ
ĠÑģ Ð°Ð²
Ġ×©×Ķ ×ķ×Ĳ
c ri
ĠØ£ ÙĪÙĦ
Ùģ Ø§Ø¹
ĠÐ° Ð½
Ġt yd
ĠÑĤ ÑĭÐ¼
ĠÐ¾ÑĤ ÑĢÐ¸Ð¼
Ø±Ø¨ ÙĬØ©
ĠW at
ti que
Ġluc ru
Ð¸Ð³ ÑĥÑĢ
Ð½ Ð°Ðº
Ġdu pÄĥ
ĠÊ»o e
z ent
ĠÑĢ ÑĸÐ·
s ke
Ġf are
ÈĻ o
in ternet
ĠM or
Ġg ang
Ġm aks
Ġlive internet
Ġy m
Ġv os
os a
ement s
ĠfÃ¸l ger
Ġqu el
es si
Ġan s
da u
ĠEs ta
áĢĢ áĢ°
±áĢ ļáĢ¬áĢĢáĢ¹áĢ
áĤı áģµ
áĢķáĢ¼ áĢ¯
áĢĦáĢ¹áĢ ĺ
áĢĤ áģ¤
ĠáĢŀáĢ° áĤĶ
ĠáĢĽ áĢ¾áĢŃ
ĠáĢľ áĢ¬
áĢĢáĢ¼ áĢ±áĢ¬áĢĦáĢ·áĢº
± áĤı
ĠáĢĢáģ½ áĢ¼áĢĶáĢ¹áĢ
áĢĸáĢ¼ áĢ²áĤķ
ĠáĢ¡ áĢĲ
áĢ¡ áĢ¬áĢ¸
±áĢ ĳáĢ¬áĢĦáĢ¹áĢ
ħ áĢ¯
áĢ±áĢĺ áĢ¬
áĢ¬áĢ¸áĢħ áĢ¯
ĠáĢŀ áĢ¶
áĢĲáĢ¬ áĢĢáĢŃáĢ¯
ĠáĢĢáĢºáĢ±áĢĶ áĢ¬áĢ¹áĢ
áĢĲáĢ¬ áĢķáĢ«
áĢŃáĢ¯ áĢĢáĢ¹
Ġáģ Ī
áģ¾áĢĢ áĢĬáĢ¹áĢ·
áĢ®áĢ¸áĢ Ľ
áĢĻáĢ¾ áĢĲáĢº
±áĢ Ļ
ĠáĢŀ áĢ¼áĢ¬áĢ¸áĢ
áĢĶáĢ¹áĢĢ áĢ¯
áĢ³ áĢķáĢ¹
áĢŀ áĢĻ
áĢ¥áĢ¹áĢ ¸
áĢ°áĢ¸áĢ ľ
áģ ¶
ĠáĢĽ áĢ¬
áĢĻ áĢŃáĢ¯
áĢĿ áĢ«
ĠáĢ §
±áĢķ áģļ
ĠáĢĢáĢ» áĢ½áĢĶáĢº
»áĢķ áĢĬáĢ¹áĢ
áĢģáĢº áĢĦáĢ¹áĢ¸
áĢĨ áĢ¯áĢ¶
áĢĲáĢŃ áĢļ
ĠáĢ±áĢĴ áģļ
ĠáĢĻáĢŃ áĢĻáĢŃ
ĠáĢĽ áĢ²
áĢ¡ áĢĶ
áĢĽ áĢĦáĢ¹áĢ
áĢĻáĢº áĢ¸áĢ
áģ Ĭ
Ġáģ İ
áĢļ áĢ·áĢº
ĠáĢĻ áĢ½áĢ¬
ĠáĢĢ áĢ¯áĢŃ
ĠáĢ±áĢ »áĢĻ
áĢĶáĢº áĢ¸áĢĻ
áĢ¯ áĢĲáĢ¹
ĠáĢ ¤
áĢ¡ áĢľ
áĢŀ áĢŃáĢ¯áĤĶ
ĠáĢ¡áĢľ áĢ¯áĢķáĢ¹áĢ
ľ áĢ¯áĢķáĢ¹áĢ
áĢ±áĢ¸áĢ Ĳ
ĠáĢĽ áĢ¾
áĢĳ áĢĻ
áĢĸáĢ¼ áĢ²áĤĶ
áĢ° áĢ¸áĢ±áĢ
áĢģáĢº áĢĢáĢ¹áĢ
ĠáĢĢ áĢ¬
áĢķ áĢ¯áĢ¶
áĢķáĢ¼ áĢ®áĢ¸áĢ
ĠáĢĲ áĢĢ
ļ áĢ¬
¥ áĢ®áĢ¸áĢ
ĠáĢ ¸
ĠáĢŀáĢ° áĢĲáĢŃáĢ¯áĤĶ
ĠáĢĶ áĢŃáĢ¯áĢĦáĢºáĢĦáĢ¶
ĠáĢŀ áĢĦáĢº
áģ »
áĢ±áĢķ áĢ¸áĢ
áĢ¸áĢĢ áĢ»
áģ ħ
áĤıáĢ½ áĢĦáĢ·áĢ¹
áĢĦáĢºáĢ¸áĢ ŀ
áĢĶ áĢ±
ĠáĢ»áĢķ áĢ³
áĢŃáĢ¯áĢĦáĢº áĢ¸
áĢĦáĢ¹áĢ¸ áĢķ
±áĢ ķáĢ«
ĠáĢ¡ áĢĵ
áĢĻ áĢ°
áĢ¡ áĢĲáĢ½áĢĢáĢº
áĢĽáĢŃ áĢĢ
áĢ¬áĢ¸áĢŀ áĢĬáĢ¹
áĢŃáĢ¯áĢľ áĢ¹áĢ
ĠáĢĽ áĢĶáĢ¹áĢĢáĢ¯
ĠáĢ¡ áĢĻáĢ½
áģ Ī
ĠáĢ¡ áĢĨáĢŃáĢ¯
áĢŃ áĢħáģ¥
áĢĻáĢºáĢŃáĢ³ áĢ¸áĢŀ
±áĢ¡ áĢ¬áĢĦáĢ¹
ģáĢ²áĢ· áĢĲáĢ²áĢ·
ĠáĢļ áĢ°
áĢģáĢº áĢĦáĢ¹áĢ
áĢ µ
ģáĢº áĢ³áĢķáĢ¹áĢ
áĢ® áĢļ
ĠáĢ¡ áĢķ
áĢļáĢ¹áĢ ĨáĢŃáĢ¯
áĢĻáĢº áĢ¸
áĢĶ áĢ²áĤķ
áĢľáĢŃáĢ¯ áĢĢáĢº
áĢ±áĢ¸áĢ Ľ
ģáĢº áĢĢáĢ¹áĢ
áĢľ áĢĬáĢº
±áĢķ áĢ¸áĢ
ĠáĢ±áĢĢ áĢ¬áĢĦáĢ¹áĢ¸
áĢ½ áĢļáĢº
áĢ±áĢ¡ áĢ¬áĢĦáĢ¹
áĢĳ áĢ¬áĢ¸
ĠáĢļ áĢģáĢ¯
ĠáĢ¡ áĢ±áĢ»áĢģ
áĢ½ áĢĦáĢ·áĢº
áĢŃ áĢķáĢº
áĢ¼ áĢĲáĢ¹áĢ
áĢħ áĢ¥áĢ¹áĢ
áĢĻ áĢļáĢº
áĢķáĢ¹áĢ ħ
±áĢĲáĢ¼ áĢĢáĢŃáĢ¯
áĢĻáĢ» áĢ¬áĢ¸áĢĢáĢŃáĢ¯
Ģ áĢº
áĢ¬ áĢķ
Ġáģģáģ īáģ
ķ áĢŃáĢ¯áĢĦáĢ¹áĢ¸
ĠáĢķ áĢ¯
áĢ¾ áĢĲáĢº
áĢŀ áĢľáĢŃáĢ¯
áĢĨ áĢ¶áĢ¯
ĠáĢľ áĢĻáĢ¹áĢ¸
áĢ¡ áĢ±áĢ¬áĢĦáĢº
áĢŃ áĢĲáĢ¹
ģáĢº áĢĦáĢ¹áĢ¸
áĢĶáĢº áĢ¸áĢ
ĺ áĢ°áĢ¸
±áĢ »áĢĻ
áĢ®áĢ¸ áĢĢ
áĢĻáĢºáĢ¬áĢ¸ áĢĢáĢŃáĢ¯
ĠáĢĽ áĢĢáĢº
áĢ¼áĢ¸áĢ ±áĤı
ĠáĢħ áĢĢ
áģ¾áĢĢ áĢ¬
ĠáĢ¡ áĢĢáĢº
áĢĦáĢºáĢ¸áĢ Ĳ
áĢ¸áĢ±áĢ Ľ
áĢ² áĢ¼
áĢĶáĢº áĢ¸
áĢķ áĢ½áĢ²
áĢļáĢ¹áĢ ħ
áģ ĩ
ĠáĢĻ áĢ°
áĢĬáĢ· áĢ¹
áĢ® áĢĢ
ĠáĢ¡ áĢ±áĢĽ
áĢģ áĢĶáĢ¹áĢ¸
áĢľ áĢĢáĢ¹áĢ
áĢħ áĢ¬áĢ¸
áĢĻáĢº áĢ¬áĢ¸áĢ¡
ĠáĥĲáĥ¡ áĥĶ
ĠáĢĶáĢ¾ áĢħáĢº
ĠáĥĴáĥĲáĥĽ áĥĿáĥª
áĢķáĢ¼ áĢĦáĢº
»áĢĸ áĢĦáĢ¹áĢ·
áĢĽ áĢ±áĢ¬áĢĢáĢº
ĠáĥĴáĥĲáĥľáĥª áĥ®áĥĲáĥĵ
áģĢ áĢĦáĢ¹áĢ
Ġáĥľ áĥĲáĥĻ
áĥłáĥĹ áĥ®
áĥłáĥ £áĥļáĥĺ
áĥĶáĥĳ áĥĶáĥĳáĥĺáĥ¡
ĠáĢĴáĢ® áĢľáĢŃáĢ¯
ĠáĥĽ áĥĲáĥ¦
áĥĺáĥ¡ áĥ£áĥ¤
áĢ± áĢ¸áĢĢ
ĠáĢĶ áĢĬáĢ¹áĢ¸
ĠáĢ»áĢķáĢĬáĢ¹áĢ ŀáĢ°
ĠáĢ»áĢĸáĢħáĢ¹áĢ ķáĢ«áĢĲáĢļáĢ¹
áģ¾áĢĢ áĢĬáĢ¹áĢ
ĠáĥĽ áĥĲáĥ¨
áĥĲáĥ¨áĥķ áĥĺáĥļáĥĺ
áĥĶáĥĽ áĥĲ
áĥĲáĥª áĥ®áĥĲáĥĵ
áĢĻáĢ¼ áĢŃáĢ¯áĢ·
áĢĲ áĢĦáĢ¹áĢ
áĢĽ áĢĶáĢ¹
Ľ áĢ¼áĢĢáĢ¹áĢ
Ġáĥ¡áĥĲáĥ®áĥĶáĥļáĥĽáĥ¬áĥĺáĥ¤ áĥĿ
ĠáĥĴ áĥ£áĥļ
áĢļáĢ¹áĢľ áĢŃáĢ¯
áĢĤ áģ¢
áĥĶáĥĳ áĥĵáĥĲ
ĠáĢĺáĢ¯áĢĽ áĢ¬áĢ¸áĢŀ
Ġáĥł áĥĲáĥĽ
áĢĢ áĢ¯áĢĶáĢº
áĢĶ áĢħáĢ¹áĢ
Ġáģ¿ áĢĻ
ĠáĢ¡ áĢ»áĢķ
áĢ¬áĢĽ áĢ½
ĠáĥĽáĥ¡ áĥĿáĥ¤áĥļ
áĢĲáĢ½áĢ± áĢĢáĢŃáĢ¯
áĢĶáĢ¹áĢ ĳ
ĠáĢķ áĢĳáĢĻ
áĢĽáĢ½ áĢĢáĢº
Ġáĥ£áĥ łáĥ
áĢ¬áĢ¸áĢ ķ
ĠáĢĤ áĢº
áĥĺáĥľ áĥĿ
ĠáĢĴáĢ« áĢ±áĢķáĢĻ
ĠáĢĳ áĢ¯áĢĲáĢ¹áĢ
áĢĢáĢ¹áĢ Ľ
áĢ· áĢ¡
áĢĨ áĢŃáĢ¯áĢĦáĢº
áĥ¬ áĥĲáĥķáĥļ
Ġ áĥĲ
áĢ±áĢĶ áĢ²áĢ·
Ġáĥŀáĥł áĥĿ
áĥĶáĥ £áĥ
áĥĲáĥķ áĥĲáĥļ
áĢħ áĢ¶
Ġáĥ¡áĥĲáĥĵ áĥĲáĥª
Ġáĥ¡áĥĲáĥ Ń
áĢŃáĢĻ áĢ¹
áĢ¬áĢ¸áĢ ĳ
áĥĺ áĥĶáĥļ
ĠáĥĽáĥ¡áĥĿáĥ¤áĥļ áĥĺáĥĿ
áĥłáĥ Ľ
ĠáĢĻ áĢŁáĢ¯áĢĲáĢ¹áĢ
Ġáģģ áģĢ
Ġáĥ¡áĥĲáĥ£áĥ Ļ
áĥĺáĥĵ áĥĶáĥľáĥ¢
ĠáĢ¡ áĢģáĢºáĢŃ
ĠáĥĲáĥ ĳ
áĥĲáĥĽ áĥĲáĥłáĥĹáĥļ
Ġáĥ¡áĥĲáĥĻ áĥĺáĥĹáĥ®
áģ¿ áĢĸ
ĠáĢĻ áĢĽáĢ½áĢŃ
ĠáĢ¡ áĢģáĢ¼
" #
áĢ±áĢľ áĢ¸áĢ±áĢĲáĢ¼
áĢ¡ áĢķáĢ¹áĢ
Ĥ áĢº
áĥĵ áĥĺáĥļ
Ġáĥķ áĥĲáĥł
áĢ¸áĢĻ áĢ½áĢ¬
áĥĿáĥª áĥĲ
Ġáĥ¥áĥĲáĥłáĥĹ áĥ£áĥļáĥĺ
áĥĲáĥ¬ áĥ§áĥķ
áĢ½ áĤķ
áĢķáĢ« áĢŀáĢĬáĢ¹
§ áĥĶáĥľ
ĠÚ©Ø± Ø§
ĠáĢĢáĢŃáĢ¯ áĢļáĢº
ĠáĥĿáĥłáĥĴáĥĲáĥľ áĥĺáĥĸ
áĢĽ áĢ®
ĠáĢ¡ áĢ¬áĢ¸áĢľ
áĢ±áĢ Ŀ
ĠáĢ¡áĢ±áĢĻ áĢĽáĢŃáĢĢ
áĢ®áĢ¸áĢ ŀ
Ġà®¨ à¯ĭ
áĥĲáĥĵáĥĴ áĥĲáĥľ
Ġáĥŀáĥĺáĥłáĥķ áĥĶáĥļ
ĠÚ© ÙħÛĮ
ĠáĥĿ áĥĹ
à±įà°Ł à±į
áĢķáĢ¼ áĢĬáĢº
Ù¾ ÙĪØ±Ù¹
ĠÙ¾Úĳ Ú¾
Ġà®ĩà®²à¯įà®² à¯Ī
Ġà°¶ à±įà°°à±Ģ
ĠáĥĽ áĥĺáĥ£áĥ
áĥĶáĥłáĥ ¢
Ġáĥł áĥĲáĥĵáĥĴáĥĲáĥľ
à®µ à¯įà®µ
ĠÙ¾ ÙĨØ¬
Ġà® Ī
áĤı áĤĪ
à¯ģà®Ł à¯Īà®¯
áĢ¬áĢ¸áĢŀ áĢĬáĢº
ĠØ¨Úĳ Ú¾
ĠáĢĶ áĢ²áĤĶ
à°ķà±įà°ķ à±ģà°µ
ĠáĢ¡ áĢģáĢº
Ġáĥł áĥĲáĥ¡
à¯įà®¤ à®¾à®©à¯į
ķ áĢ¶áĢ¯
áĢĦáĢºáĢ¸áĢ ¡
áĥĲáĥ¥ áĥķáĥ¡
Ġáĥĺ áĥĹ
ĠØ¨ ÙĨÛĮ
ĠáĥĽáĥĲáĥĹ áĥĺ
Ġáĥŀáĥł áĥĿáĥĴ
ĠÚĪ Ø§ÙĦ
Ġáĥĵ áĥĲáĥª
à°¨ à°Ĥ
Ġáĥķ áĥĺáĥĵ
ĠáĢĶ áĢ¬áĢĽáĢ®
à±Ĩ à°¡
à®Ł à®¿à®¯
áĥ£áĥłáĥ ķ
áĥĶáĥł áĥĺáĥĿ
áĥķ áĥĹ
ĠÙĦ Ú©Ú¾
ĠáĥĴ áĥĺáĥĿ
ĠÚ©Ø± ÛĴ
ĠáĥĽ áĥ¬
ĠØ¯Ûģ Ø´Øª
áĥĿáĥª áĥĺ
ĠáĥĽáĥĺ áĥĺáĥ¦
Ġà®ªà¯Ĩ à®£
áĢľ áĢ¯áĢ¶
áĢŀ áĢĢáĢº
ĠÚĪØ§Ú© Ù¹Ø±
Ø§Ú© Ûģ
Ù¾ ÛĮ
Ġáĥ¡ áĥĲáĥľ
áĢ¶ áĢ³
ĠØ¬ ÙĨÚ¯
ĠØ¨ÙĦ Ú©Ûģ
áĢĿ áĢĦáĢ¹áĢ
Ġà®¨ à®¿à®©
à°¡à±įà°¡ à°¿
à¯ģà® ¨
áĥĲáĥķ áĥĹ
áģĢ áĢ«
±áĢ »áĢķáĢ¬
áĥĶáĥľ áĥĵ
Ġáĥĺáĥ§ áĥĿáĥ¡
áĥĿáĥķ áĥĲáĥľáĥĺ
ĠáĥĲáĥ ¤
ĠØ¨ÛĮ Ø§ÙĨ
Ġà®ĩà®°à¯ģà®ķà¯įà®ķ à¯ģà®®à¯į
à±Ī à°¤
áĥķáĥĶáĥļ áĥĺ
Ġà®ī à®²à®ķ
áĢħ áĢĢ
à¯Īà®¯ à®¾à®©
ĠáĥŀáĥłáĥĿ áĥĶáĥ¥áĥ¢
Ġà®ª à¯Ĥ
ĠØ´ ÛģØ±
Ġáĥĺáĥ¡ áĥĶ
Ġà®ªà¯ĭ à®Łà¯įà®Ł
Ø±Ø¯ ÙĪ
ĠáĢ±áĢ ķáĢ«
Ø§Ø± ØªÛĮ
Ġà®ī à®¤
áĢ±áĢķáĢ« áĢĦáĢ¹áĢ¸
áĥ¢ áĥĺ
à°¾à°° à±į
àµĭ à´ķàµįà´ķ
ĠØ¯ÙĪØ± Ø§ÙĨ
à´¿à´ ľ
Ġ áĤıáĢ¯áĢŃáĢĦáĢ¹áĢĦáĢ¶
áĢħ áĢĬáĢ¹áĢ¸
à±ĭ à°¨
ĠÛĶ ÛĶÛĶ
Ġà´Ĩ à´¶
ÚĪ Ø±
ĠáĥĴ áĥĲáĥĴ
Ġà®¤à¯Ĩà®° à®¿à®µ
Ġà°ªà±įà°° à°¯
áĢĢáĢ¹áĢ ģ
à®¾à® ¨
ĠT elugu
Ġáĥł áĥĿáĥĵáĥĶáĥ¡
à±Ĭ à°ķà±įà°ķ
áĥĶáĥĵ áĥĺ
Ġà°Ńà°¾à°° à°¤
à®ķà¯įà®ķ à®®à¯į
ĠáĢ»áĢķ áĢĶáĢ¹áĢ
Ġà®Ĩ à®¯
à°¨à±įà°¨ à°¿
áĢĨáĢŃáĢ¯ áĢĲáĢ¬
áĢ¹áĢ Ĥ
ĠØ¨ Ø§Ø±ÛĴ
ĠáĥĲáĥłáĥ¡ áĥĶáĥĳ
áĢ¡ áĢĲáĢ°
Ġà®İà®´ à¯ģà®¤
áĥ¯ áĥĲáĥ®
ĠáĥĽ áĥ£áĥ¨
ĠáĥłáĥĿáĥĽáĥļáĥĶáĥĳ áĥĺáĥª
à¯Īà®¯ à¯ĩ
à°¾à° ¸à±įà°¤
Ġà°ĩ à°¦à°¿
áĢĻ áĢĬáĢ¹
ĠØ´ Ø§ÙħÙĦ
áĥĶáĥĹ áĥ¨áĥĺ
Ġà´¸à´Ĥ à´ĺ
ĠáĥłáĥĿáĥĵáĥĶáĥ¡ áĥĲáĥª
áĢ±áĢĴ áĢŀ
Ġáĥ¡áĥĲáĥ ŀ
Ġáĥ¢ áĥĶáĥ¥
à´¤ àµįà´¥
Ġáĥŀáĥł áĥĶáĥĸ
ĠØŃ ÙĪØ§ÙĦ
áĥ£áĥłáĥľ áĥĲáĥļ
áĢ±áĢĶ áĢĽáĢ¬
áĥĶáĥľ áĥĺáĥ¡
Ġà®ĩ à®©
áĢĶáĢ¹áĢĻ áĢ½áĢ¬
áĥ¡ áĥĺ
áĥĿáĥ ļáĥĺ
ĠáĥĿ áĥłáĥĺ
Ġáĥĵ áĥĲáĥ®
ÙĪÙĨ ÙĪÚº
ĠÙ¾ ÙĪØ±
áĥĲáĥł áĥĶáĥĳáĥĲ
à¯Ĭ à®´
à®¤à¯įà®¤ à®¿à®¯
ĠØ¬Ø¨ Ú©Ûģ
áĢĶáĢŃáĢ¯áĢĦáĢº áĢĦáĢ¶
ĠáĢ±áĢĽ áĢ¬áĢĢáĢ¹áĢ
áĥ¡áĥĲáĥ® áĥ£áĥł
Ġà´ª àµĩ
Úĳ ÛĮ
ĠÚ©ÙĪØ´ Ø´
Ġáĥ¥áĥĲáĥļ áĥĲáĥ¥
áĤı áĢ½áĢ¬
Ġáĥ¬ áĥĶáĥķ
áĢĲ áĢ¯áĢŃáĤĶ
à´¯ àµĭà´Ĺ
Ú¾ÛĮ ÙĦ
áĢ¬áĢ¹áĢ Ļ
ĠáĥĲáĥ¦ áĥľáĥĺáĥ¨áĥľ
âĢ ı
áĢķ áĢĬáĢ¬
áĢľ áĢĢáĢº
Ġà®ĩ à®ªà¯įà®ª
Øº ÛĮØ±
ĠØª ÛĮÙĨ
ĠØ¨Ú¾ Ø§Ø±Øª
à°¸ à±įâĢĮ
áģ ģ
áĢ®áĢ¸áĢ Ļ
áĢŃáĢĻáĢ¹áĢ ·
áĥĶáĥĳáĥĶáĥļ áĥĺáĥĲ
à´¿à´¨ à´¿à´®
Ø§Ø± ÙĪÚº
à±ģà° £
áĥĲáĥ¡ áĥ¢
áĢĽ áĢĲáĢ²áĢ·
ĠáĢĽ áĢģ
à°¾à°¬ à±ģ
ÙĪÙĨ Ú©Ûģ
áĥĺáĥ ©
à´¿à´° àµģà´¨àµįà´¨
Ġáĥł áĥĿáĥªáĥĲ
áĢĦ áĢŃáĢĻáĢ¹áĢ¸
áĢķáĢ¹áĢ Ģ
Ġà°Ĺà±įà°° à°¾à°®
Ġáĥ¤ áĥĶáĥ®
à±Ģà° İ
Ġáĥĸ áĥĿáĥĴ
áĢŀ áĢ¬áĢ¸
áĢŃáĢ¯áĢ¸áĢ Ļ
à¯Ĭ à®£à¯įà®Ł
Ġà´ķ àµĭà´Ł
à±įà° ľ
Ġà®ª à¯ĩà®°
à´¸àµįà´¥ à´¾à´¨
ĠØ§ØŃ ÙħØ¯
ĠáĢŀáĢ° áĢĻ
ĠØ¹ÙħØ± Ø§ÙĨ
âĢĮ âĢĮ
áĥĲáĥļ áĥĵ
ĠáĥĴáĥĺáĥĿ áĥłáĥĴ
áģ ĥ
Ġà´®àµģà´ ĸ
Ġà´¦ à´¿à´µ
ĠÙ¾ Ú¾
à°¿à°¨ à°¾
Ġáĥ§ áĥĿáĥ¤
ĠáĥĴáĥĲáĥľ áĥĲáĥªáĥ®áĥĲáĥĵ
à®¤ à¯ģà®®à¯į
Ġà®® à®£
ĠáĢŀ áĢĻ
à±Ģ à°Ł
áĢĻáĢ» áĢ¬áĢ¸áĢ¡
áĥĶáĥłáĥ Ĵ
Ġà°ī à°ª
Ġáĥ¨áĥĶáĥĽáĥĹáĥ®áĥķáĥĶáĥķ áĥĲáĥ¨áĥĺ
à´ İ
à´¿à´¤ àµįà´¤
Ĩ áĢ¯áĢŃ
ĠÚ©Ø±Ø§ ÚĨÛĮ
áĢ½áĢº áĢĦáĢ¹
ĠáĢ¡ áĢĢ
Ġà°ª à°¾à°²
me ye
Ġà®ħà®± à®¿à®µ
áĢĦáĢºáĢ¸áĢ ķ
ĠáĢĴáĢ¯ áĢĲáĢŃáĢļ
ÙĦ Ø§ÙĨ
áĥĲáĥ¡ áĥ¬
ĠØ¬ Ú¾
áĥĺáĥ« áĥĶ
áĢĽ áĢ±áĢ¸
Â ¸
Ġun ser
à« ¯
m Å±
Î³ Ïĩ
Ġ ä¸ĩ
ow ane
szer Å±
Ġby Äĩ
Ġà´ĩ à´°
áĢħ áĢħáĢ¹áĢ
Ķ áĢļáĢ¹áĢ
èĭ ¹æŀľ
Ã¤ ng
Ġàªµàª¿àªļ àª¾àª°
li v
ter n
áĥĶáĥķ áĥĲ
Ġà¦® à¦¨à§ĩ
èµ ¢
Ä± cÄ±
áĥ£áĥ ©
Õ ¹
ë¦ ¼
å¤§åıĳ å¿«ä¸ī
Ġga in
ĠÙ¾ ÙĪ
áĥĽ áĥĲáĥľ
Ø§Ø¨ Ø·
áĥĲáĥłáĥļ áĥĲáĥĽáĥĶáĥľáĥ¢
Ġà®ª à®¾à®Ł
Î¹ÎºÏĮ ÏĤ
à§įà¦² à¦¾à¦¹
Î² Î¿Î»
Ġels Åĳ
Ġd ÃŃa
Ġso cial
ë¦¬ ê³ł
Ġà®ĩà®° à¯ģà®ªà¯įà®ª
Ġka lau
ĠÕ Ħ
à· Ķ
ĠáĥĴáĥĲáĥĵ áĥĲáĥ¬áĥ§áĥķ
Ø§ÙĦ Ú©
Õ ©
æŁ »
Ã³ t
wen da
áĥł áĥĶáĥ¡
Ġcu á»Ļc
ĠÛĮÛģ Ø§Úº
çĻ ½
ĠvÉĻ zi
gy an
ani u
ĠåĬł æĭ¿å¤§
ç ¿
in chi
Ġ ÃŃr
ĠÄĳá»ģ u
ĠJ o
Ġma yor
_ time
à¦¾à¦·à§įà¦Ł à§įà¦°
ĠÃ ı
Ġaccess _time
Õ¡Õ ¼
à°¾à°¨ à±į
or at
à´¤ àµįà´¯
Ġbil g
Ġëª ħ
Ġà´Ł àµĨ
Ġh á»Ļ
Ġie k
àµĭ à´¯
ro q
ĠÎ£ ÏħÎ½
ÙĨØ¯ Ø§ÙĨ
ĠáĥĽ áĥĺáĥľáĥĺáĥ¡áĥ¢
Ġto v
ĠãĢĤ ï¼Į
Ġà°¤ à°ªà±įà°ª
Ġáĥ¡ áĥĺáĥ¡áĥ¢
à±Ĩ à°Łà±įà°Ł
Ã Ĺ
ĠãĢ İ
Ġà°ª à°¨
Ø§Ùħ Ø§Øª
áĢķáĢ¼ áĢ²
Ġà¦ľ à§Ģà¦¬
ĠÐ» ÐµÑĤ
ĠI le
M A
Ġ' ,
Ø± Ø§Øª
áĢķáĢ¼ áĢĶáĢº
Ġch Æ°a
Ġà¤ª à¤¾à¤°
à¯ģà®® à¯ĩ
ĠàªĨàªµ à«įàª¯à«ģàªĤ
Ġgb i
Ġ... .
ĠÃ¡l tal
c en
Ġàª®àª¦ àª¦
ĠáĥĽáĥĲáĥ¨ áĥĺáĥľ
ĠØ§ÙĦØ¨ Ø±
ĠÎ¬ Î½
Ġm unk
Ġmu kaan
Ġáĥ¬ áĥĲáĥĽ
×ĸ ×§
ģ à¸£
Ġáĥ¬áĥĲáĥłáĥĽ áĥĿ
ba di
Ã¼n Ã¼
Ġfe j
ÙĦØ³ Ø·ÙĬÙĨ
á»ĩ t
ĠØŃ ÙħÙĦ
±áĢĢ áĢ¬áĢĦáĢ¹áĢ¸
Ġà°¸ à°°
Ġà¦ħ à¦§
b ia
àµģà´¦ àµįà´§
à¯ĭ à®ķ
ĠëķĮ ë¬¸
Ġáĥŀáĥł áĥĿáĥĳáĥļ
áĢ¬áĢ¸áĢĻ áĢ½áĢ¬
m al
ĠÒĽ ÑĥÑĢ
à°ļà±įà°ļ à±ģ
wa h
ĠáĥĶáĥł áĥĿáĥķáĥľ
Ð°Ð½ Ð¸ÑĤÐµ
Ġn eden
Ġà®µ à®ķ
Ġáĥ¥ áĥĲáĥłáĥĹáĥķáĥĶáĥļ
à¯įà®Ł à¯į
Ø² ÙĬØ¯
ÙĩâĢĮ ÛĮ
Ġà®ª à¯ģà®°
Ġà¦¨à¦¿ à¦°à§įà¦
Ġk weli
Ġà¤ħ à¤®
ĠÙ¾Ø§Ø³ Ø®
Ġà§ ®
å®¢æĪ·ç«¯ ä¸ĭè½½
Ð» Ð¸Ñĩ
Ġ$( "#
ãĥ¼ãĤ «
Ġàª¥àª¯ àª¾
äºº æ°ĳ
å ¡
Ġà®ķà¯Ĭà®£à¯įà®Ł à¯ģ
Ġå ĵ
Ġr á»į
Ġà¤¸ à¤¾à¤²
ĠmÃ´ Å¾
èĲ Ħ
t ell
Ġsis tem
ĠtÉĻ ÅŁkil
ĠÄĳá»ĭ a
àªĤàª¦ àª°
ĠØ³Ú© ØªØ§
ĠÛģÙĪÚ¯ Ø§
ĠØ§ÛĮØ³ ÛĴ
à±Ģ à°¤
ri ka
à¤°à¥įà¤ ľ
Ġáĥ¡ áĥĿáĥ¤
ĠáĢĢáģ½áĢ¼áĢĶáĢ¹áĢ ±áĢĲáĢ¬áĢ¹áĢ
à¦¿à§Ł à¦¾à¦°
ç³» ç»Ł
Ġìŀ ĺ
ĠT x
Ġh izmet
à«ĭàª°à«įàª ¡
à¦® à¦¿à¦ķ
à°¾à°Ĥà° ¡
ĠØ§ Ù¹Ú¾
Ãµ r
Ġà¤¸ à¥ģ
Ġdituz te
ĠÙħ ÙĦÛĮ
æ¯ Ľ
Ġà´ı à´±àµįà´±
ĠU ni
ç© ¶
à¥ģà¤ ³
Ġáĥ¯ áĥĶáĥł
m ar
Ä¼ as
èĪ ª
à¦¾à¦ Ľ
cz enie
ĠáĥĿ áĥ¥
Ġ2 7
ĠÎ´Ïį Î¿
ĠÐ· Ð°Ð¼
Ġs te
Ġud en
àµĢ à´ķàµįà´·
Ġhe b
Ġb Å«t
ĠàªħàªĤàªĹ à«ĩ
áĥĿáĥľ áĥĿáĥĽ
ĠáĥĵáĥĲáĥ Ķ
Ðº Ð¾Ð¼
Ġà°ª à°Łà±įà°Ł
b Åĳl
Ġà´ķ àµģà´Ł
Ġa ki
Ġt Ã¤n
áĥĲáĥłáĥ £áĥļáĥĺ
åħĥ æ£ĭçīĮ
ver p
Ġà¦ĩ à¦¨
è® ©
ÅĽ my
Ġà¦¨ à§Ł
Ø§Ûģ ÙĪØ±
Ġz ili
Ġë³ ¸
Ġà´¨à´¿à´¨àµįà´¨ àµį
Ð° ÑĩÐµ
Ġà°¦ à±įà°µ
ĠPer soane
Ġm Ã¶v
ÏĥÎ¹ Î¼Î¿
ĠÑı Ð½Ð³
èµĮ éĴ±
ĠÐ¡ Ðµ
ĠÑģ Ð¾Ð½
Ġha p
ĠHa le
ĠNe ws
éļ Ľ
ent zia
Ġà¹Ĥà¸ Ķà¸¢
Ð·Ñĸ ÑĨÑĮ
ĠM em
b ir
áĥľ áĥĺáĥĶáĥł
ĠáĥĲáĥ ¨
ĠØ® Ø§ÙĨÙĩ
ĠØ§Ø¹ ÙĦØ§Ùħ
Ġet x
áĥĿáĥłáĥª áĥĺáĥĶáĥļ
ĠØ§ÙĦÙħ Øº
Ġw ant
ĠáĥĵáĥĲáĥĻ áĥĲáĥķáĥ¨áĥĺáĥł
ĠÐ±ÑĥÐ» Ð¾
Ġho m
ĠØ§Ùĵ Ù¾
ĠÐ³ ÑĸÑģÑĤ
ĠÏĢ ÏģÎ±Î³
ĠAfri ka
à°¿à°Ĥà° ª
ĠÎ±Ïħ ÏĦÎ¿
ĠÙĦ Ø¥
ĠÙĤ ÛĮ
Ġà¦Ĩ à¦¨
ĠÐºÐ°Ðº ÑĤÐ¾
Ġá»į pá»įlá»įpá»į
ĠT rong
ĠÐ¡ Ð¾
Ð³Ð°Ð½ ÑĸÐ·
ĠÐ¿ÐµÑĢ ÑĪ
ĠNg uy
à°¾à°Ĥà°Ł à°¿
Ġàªªà«įàª° àª¦
Ð½ ÑĥÐ²Ð°
Ġà¤ķ à¥įà¤·
ĸà¸¶à¸ ĩà¸
ìĻ¸ êµŃìĿ¸
H I
ãĤ» ãĥĥãĥĪ
u tz
· ¨
áĥ® áĥĶáĥĵ
×ķ×¤ ×Ķ
à¯Īà®¤à¯įà®¤ à¯ģ
ĠàªŃàª¾àª°àª¤ à«Ģàª¯
à¤¿à¤ ¦
Ġl sa
Ġmen dapat
Ġol ub
à¨ Ĥ
Ġl Ãºc
Ġsh t
I n
Â ½
Ã¡ ÅĻ
Ġ365bet å®ĺç½ĳ
ĠÙĥ Ùħ
Ö µ
ÉĻ zi
Ġà´İà´¨àµįà´¨ à´¿à´µ
Ġà´ŀ à´¾à´¨àµįâĢį
ä½¿ çĶ¨
Ã¡v el
Ĺ i
Ġna d
ĠÙħ Ø¨
ĠT il
ĠáĢĽ áĢĢáĢ¹áĢ±áĢĶ
Ġfor s
Ġte Å¼
Ġse le
à¦¾à§ľ à¦¾
Ġà¤¸à¤¬ à¤¸à¥ĩ
Ġilg ili
Ġà®ķà¯Ĭ à®³à¯įà®³
Ġàªķàª° àªµàª¾àª¨à«Ģ
ĠpÅĻ es
ĠkÄģ u
ĠÑı Ð½Ñĭ
Ġt ÉĻk
ĠáĢĶ áĢ±áĢ¬áĢĢáĢº
ĠÐ¿ÐµÑĢ Ð²
à¥ĩà¤Ĥ à¤¦
tza ile
æŃ£ è§Ħ
é¢Ħ æµĭ
Ġbe cause
áĥ£áĥ ŀ
łà¸²à¸ ŀ
åı ¤
yo k
ca ciÃ³
Ġc ea
ĠØ§Ø¬ ØªÙħØ§Ø¹
Ġmak ahiki
Ġàªķàª¹ à«ĩ
ĠØ´ ÙĪØ±
ĠN á»Ļi
ãģ§ ãģĹãĤĩãģĨ
ĠÐ½ ÐµÐ´
ÑĨÑĭ Ñİ
ĠÎļ Î±Î¹
à¥ĩ à¤¦
Ġà¦ķà¦¾à¦ Ľà§ĩ
Ġinform ation
ãģĿ ãģ®
w áº¹
ä» ½
Ġm wenye
ä¸Ń å¿ĥ
ĠÙ¾ÛĮØ¯ Ø§
àª¿àªķ àª¾
at la
ĠT L
à¤ķ à¥įà¤°
ea zÄĥ
h y
Ġku ni
Ġg ener
Ġgi bt
ÑĤÑĭ Ñŀ
æĦŁ ãģĺ
Ġhj em
íĶ Į
à¸£à¸µà¸ §à¸´à¸
Åĳ t
ĠáĢĨ áĢ¯áĢŃ
Ø² Ø§Ø±ÛĮ
Ġh antle
Ġcom ment
ĠF a
Ġ×ľ×ŀ× ©
Ð· Ð¸Ð´
sch en
Ġj Å«s
ĠáĢķáĢ¼ áĢĶáĢº
à´¿à´Ĥ à´Ĺ
Ð¸ÑĢ Ð¾Ð²
ĠáĥĽ áĥĶáĥª
áĢĶáĢ¾ áĢĦáĢºáĢ·
li de
larÄ±n da
Ġà¤ķà¤¾à¤° à¥įà¤¯
Ġáĥ¤ áĥĺáĥļ
ĠÙħÛĮâĢĮ Ú©
uri ng
ĠØ³Ø§Ùħ ÙĨÛĴ
àª¿àª¸ à«įàªŁ
ĠØŃØ¶ ÙĪØ±
ĠGujar ati
ĠáĥĲáĥ Ĺ
Ġndi o
Ġáĥĵáĥ¦ áĥĶ
ĠA ti
Ġq enÃ«
Ġtov Ã¡bb
å· Ŀ
Ġå¤§åıĳ å½©ç¥ŀ
ĠÐĳÐµÐ»Ð°ÑĢÑĥ ÑģÑĮ
Äģci ju
ĠàªĨàªµ àª¶à«ĩ
Ġba i
Ġàªªà«įàª°àª® àª¾àª£
ĠØ§ÙĦØ¬ Ø²
ĠÐŀ Ð»
ÑĨ Ñİ
Äĥr Äĥ
Ġh izo
il de
go lo
Ġn un
m un
Ġè ¡
ĠA t
Ġd Ã¼z
áĢ¡ áĢĨ
ìł Ī
ĠÙĩÙħ ÛĮÙĨ
ĠÐ¿ Ð°Ð»Ñĸ
Ġà¦ħ à¦ªà¦°
et i
à®¿à® ªà¯į
Ġc ost
or ia
ĠáĥĽáĥĶáĥĿ áĥłáĥĶ
áĢ ĭ
Ð°Ð´ Ð°Ð½
à´¿à´Łàµįà´Ł àµģà´£àµįà´Łàµį
ĠA c
Ġar ri
z eit
Ġaur r
àª¾àª¸ à«įàª¤
ĠmoÅ¼ na
ag uzi
áĢ±áĢľ áĢ¬áĢĢáĢ¹áĢ
ï »¿
Ġa in
Ġr ak
Ġ à¹Ħà¸
ta il
Ġyang i
Ġcon st
Ġáĥĺáĥ¡ áĥ¢
ĠÑĩ ÑĤÐ¾Ð±Ñĭ
áĢľ áĢ¹áĢ
ĠÑģÐ² ÑĸÑĤ
ÑĨÐ¸ Ð°Ð»ÑĮ
Ġà°¹ à±Ī
un ci
Ġpag baba
à°ª à°¡
Ġde z
Ġb l
b les
Ġus ed
áĢĲáĢ¹áĢ ħ
ĠÎ¼ÎŃ ÏĥÎ±
Ġ5 0
ĠÄ° l
à¦ ĺ
áģ¾áĢĢ áĢ®áĢ¸
æľ¬ éģĵ
ĠØª Ø±Ú©
ag es
ĠT Äģ
·à«įàª ł
Ġà¤Ĩà¤ª à¤ķà¥ĭ
Ġ×Ĵ ×ĳ
Î´ Î±ÏĤ
Ġl Ã¸
ĠF re
Ġbi la
Ġmem per
ĠÐºÐµÑĢ Ð°Ðº
à¦¾à¦¦ à¦ķ
ij i
Ø³Øª ÛĮ
à«Ģàª §à«Ģ
Ġé ģ
ic as
ĠáĢĲ áĢ½
el lis
2 5
à±ĩà° ¸à±įà°¤
×¤ ×ľ
Ðº Ð¾Ñŀ
à§įà¦¯ à¦¾
b itz
Ġamba ye
Ġà¸ ¡
Ġà¦¸ à¦¾à¦§
à¤¯ à¥ĩ
ëŀ Ģ
Ġar dh
ĠC um
ler ine
à®¾à® ¨à¯įà®¤
ĠáĢ¡ áĢ±áĢĶ
Ġb áº¥t
t Ã¶
ĠàªªàªŁ à«ĩàª²
Ġà¦ħà¦¬ à¦¸à§įà¦¥
à°ª à±ģ
ĠØ® ÙĪØ´
à¹Ģà¸ ĩà¸´à¸Ļà¸
áĢ¬ áĢĢ
Ġg ennem
ĠØ¯ ÙĪÙĨÙĪÚº
ģà¸ §à¹Īà¸²
li wa
ĠK ar
Ġke ia
çĽ ĳ
Ġà¤¸ à¤Ńà¥Ģ
Ġãĥĸ ãĥ©
áĢķ áĢĦáĢº
ĠDe uts
à¤ ĺ
Ġho Ãłn
k lÄģ
hle d
qar o
Ġmah do
Â ·
Ĩ áĢĶáĢ¹áĢ¸
Ġà¦¦ à§įà¦¬
æīĭæľºå®¢æĪ·ç«¯ ä¸ĭè½½
à´µ à´°àµįâĢį
áĥĲáĥķ áĥĶ
áĢ»áĢĸáĢħáĢ¹áĢ ķáĢ«áĢĲáĢļáĢ¹
à´« àµį
ĠÐº Ð°Ð´Ðµ
Ġno get
6 9
Ġàª¬ àªĤ
áĢı áĢº
ÑĢÐµ ÑĪ
Ġl Ä«
ĠØ¯Ø± Ø¨Ø§Ø±Ùĩ
st anbul
áĢĲ áĢ²áĤĶ
Ġì§ ĳ
Ø§Ùĩ Ø¯
ĠO r
ĠáĢĻ áĢĦáĢ¹áĢ¸
ĠÑĳ ÑĪ
ĠÐ¿ ÑĬÑĤ
Ġtem po
ĠØ§ÙĦ ÙĴ
Ġà´¸à´Ĥ à´Ń
è³ ª
Ġà´µàµįà´¯ à´ķàµįà´¤
Ġc 9
ĠktÃ³ ry
Ġwak tu
Ġth am
àª¥ àª®
à«ĩàª¨à«įàª ¦à«įàª°
Ġg ar
ut us
ÑĢÐ° Ñĵ
ìĦ¸ ìļĶ
Ġcz ÄĻ
à´¨ à´¿
Ġdies e
à§ ¨
à°¦ à±ģ
åķĨ åĵģ
Ġà®ĩà®°à¯ģà®¨à¯įà®¤ à¯ģ
Ġpos s
ÑĬÑĢ Ð·
ĠÐļ Ð°Ð»Ñĸ
Ġk ok
ç¦ ı
áģ Ħ
Ġà´® àµĭ
à±Ģà° Ĩ
ĠO m
ĠáĥĶáĥķáĥł áĥĿáĥŀ
Ġbat la
Ġáĥ¬ áĥĺáĥľáĥĲ
ĠÑĢ Ð°Ñĳ
Ġna bÃŃ
Ġáĥ¨áĥĶáĥ¡ áĥĲáĥĳ
à´¯ à´¿à´²
ie d
è´ £
Ġb rÄ«
æ ¤
áĢĶáĢ¹áĢ ŀ
àª¶ à«ĭ
Ġet ti
Ġà¤µ à¤¿à¤ķ
Ġos s
Ġha be
Ġs ÉĻn
ë³ ´ë
Ðº Ð»Ð°Ð´
ĠÅŁ ÉĻhÉĻr
ĠØ¨ ÙĤ
Ð» Ð¾Ð¼
ä¼ļ ç¤¾
Äģ ka
Ġgo d
áĥļ áĥĶáĥĳáĥĺ
ĠÑįÑĤ Ð¸ÑĪ
Ġi pa
Ġn ett
Î» Ïİ
Ð½Ð¸Ðº Ð°
ĠM are
ĠÙħÛĮØ± ÛĴ
ĠÐ´ Ð°Ð½
áº¥ m
Ġàªķ à«ĭàª°
ĠR o
Ġpr iekÅ¡
Ġi wa
ĠáĢĺáĢ¯áĢĽáĢ¬áĢ¸áĢŀ áĢģáĢĦáĢº
Ġbe za
Ġv Ã«r
Ùħ ÙĴ
Ð°Ð¼ Ð»
Ġy et
áĢĻ áĢŁáĢ¯áĢĲáĢº
Ð¾ÑĢ Ð¾ÑĤ
Ġà°µà°¿à° ¶
à®£à¯įà®Ł à¯ģà®®à¯į
ÄĻ d
Ġàª¸ àªµ
it el
Ġres p
áĢ¶ áĢĢ
×ł ×§
à´¿à´ ¦
Ø³Ø¨ Ø¨
ĠM h
ĠS ver
ĠÙħ ÙĦÙĬ
Ġde jting
Ġ×Ļ ×ľ
Ġ3 3
ĠÏħ ÏĢÏĮ
Ġser vi
Ġà´ļ à´¿à´²
à°Ĥà° ¡à±ģ
©áĥĶáĥķ áĥľ
ä¸ĸ çķĮ
×ķ×¨ ×ķ×ª
Ġf ont
ŀ å½©
Ġn Ä±n
ç ¢º
ĠD omain
×ķ×¤ ×Ł
çĦ¡ ãģĹ
ĠÑģ Ð»Ñĥ
ler de
Ġd ut
åŁ Ł
ĠÐ¿ÐµÑĢÐµ Ð´
b st
ctor y
ĠÐ° Ð³
Ġac ti
ĠØ· Ø±Ø§ØŃÛĮ
ĠÑı ÑĪÑĩÑį
ÐµÐ½ ÑĤÐ°
ĠdeÄŁ iÅŁ
Ġà°ķà°¾à°° à±įà°¯
to k
åĮ »
à¥ĩà¤ £
áĥļ áĥĶáĥĳáĥĲ
Ġæ ĭ
Ġà¸ ¥à¸
Ġàª²àªĹ à«įàª¨
Ġå¹ ¸è¿Ĳ
ĠÑģÐ² Ð¾
i or
à®¿à®ķà¯įà®ķ à®ªà¯įà®ªà®Łà¯įà®Ł
ĠÚ©ÙĨ ÙĨØ¯Ùĩ
Ġà°¤ à±ĭ
ĠØ¨ Ø³
å¤ ±
un ta
Ġà®µ à®³
Ġ à¹ĥà¸Ļà¸
Ġus ers
er ek
ç¨ ³
ĠhÅį Ê»ike
ĠØ¨ Ø¥
Ġr Ã«nd
Ġáĥ¨áĥĶáĥ¡áĥĲáĥĳ áĥĲáĥĽáĥĺáĥ¡
Ġ ä¹ħä¹ħ
Ġà´® à´±
ĠÑĥ Ð¶Ðµ
Ġi lalim
àª¾àª® à«Ģ
à¥ĩ à¤°
àµĢ à´¤
ÑģÐº Ð¸Ñħ
y pe
ĠÑģ ÑĤÐµ
ĠÐ¿ Ð¾Ð¿
èĭ ±
Ġf lere
ĠmÉĻ q
Äį enÃŃ
Ġkem i
ĠÙĪØ§ÙĦ Ø¹
Ġà®İà®©à¯įà®ª à®¤à¯ģ
Ġog ni
ĠØ§ ÙĤ
Ġet ish
Ġtule b
ĠÐ· Ð°Ð´
Ð»Ð°ÑĢ Ð¸Ð´Ð°
Ð°Ð¶ Ð´
56 bet
à´ ł
Ð± Ðµ
à§ľ à§ĩ
in na
ī ´
à´® à´¾à´£
ÏģÎ¯ ÏĤ
è¾ ĥ
U N
ĠP ri
Ġr ru
ĠÙĥ ÙĬÙģ
Ġs Ã¡ng
Ġàªħàª§ àª¿àªķ
ĠC Ã¡c
Ġà®ĩ à®©à¯įà®©
ĠN on
Ġko os
á»į wá»į
ĠØ« Ø¨Øª
çº ¦
Ġcont ra
âĢĮ à°°
Ġà¦¤ à¦¾à¦ĩ
ÐµÐ»ÑĮ Ð¼Ñĸ
à´¨àµįà´ ®
Ø¬ Ø¯
Ġma de
Ġãģ ©
Ġhand el
ĠØ³ÛĮ Ø³ØªÙħ
ĠÙħÙĨ Ø·
Ð² ÐµÐ½
Ġà¦¦ à§ĩà¦ĵ
g al
à®Ļà¯įà®ķ à¯ģ
ĠØ²ÛĮ Ø¨
ĠÐ¿ÑĢÐµ ÐºÑĥ
Ġà¤¸ à¤¹
ĠF un
Ġà¸ Ĭ
an ts
ĠÐ¾Ñĩ ÐµÐ½ÑĮ
E C
Ġ×Ķ×ŀ× ª
à¦¾à¦ĩ à¦²
Ġy ur
ist as
Ġfil es
Î¯ ÏīÎ½
à¹ģ à¸Ļ
Ġw z
Ġho zz
ĠÙĦ Ø§ÛģÙĪØ±
à¦Ĺà§ģà¦² à§ĭ
ĠÃ Ĩ
Ġà¥ §
Ġna f
Ø®Ø¯ Ø§Ùħ
Ð°Ð»ÑĮ Ð½Ð¸Ñħ
Ùĩ ÙĦ
à¦¿à¦· à§įà¦ł
Ġv Ã¤h
à«Ģàªĵ àª¨à«ĩ
Ãº l
Ġaz on
Ġà°ķ à°°
Ð¾Ð» Ð·
Ġl Ã¶
ĠØ¥ ÙĦÙĬ
ÑĨÐ¸ Ñİ
ĠkÃ« to
Ġse h
Ġà´® à´¾
Ð»Ð¸Ð³ Ð¸Ð½Ð¸
ÑģÑĤ Ñĭ
ĠìķĦ ìĿ´
Ġa Ê»e
Ø¬ ÙĬÙĦ
Ġáĥŀáĥł áĥĿáĥ¤
Ġà¦ıà¦ķ à¦Łà¦¾
Ġà¤« à¤¿à¤²
§ à¸Ļ
Ġni ci
àª¿àª¤ àª¿
l us
Ġdi fer
Ø¦ÛĮ Ø³
åĳ ½
ĠG y
é£ŀ èīĩ
Ã² a
Ġå¤§åıĳ å¿«3
ti da
Ġi tali
ĠÙĨ Ø³
àª¿àª ·
ti d
Ġáĥ£áĥ ĳ
ĠØ¯ ÙĪÙĨ
Ġà¸ Ľà¸£à¸°à¸
Ġà°ľ à±Ģà°µ
or g
ĠtÉĻrÉĻf indÉĻn
¾ è®¯
Ġs ol
åł Ĥ
Ġf ind
Ġà°ļà±ĩà°¶ à°¾à°°à±ģ
ĠÃ§ ÉĻk
Ġà¦ľà¦¾à¦¨ à¦¾à¦¨
åıĸ ãĤĬ
à¤Ĥ à¤ļ
ç± ³
ĠÐļ ÑĢ
ÏĦÎ¿Ïħ ÏģÎ³
ĠÂ §
Ġà°® à°Ĥà°ļ
Ġti es
Ġy li
ĠC e
åį ı
Ġà¤Ĺ à¥įà¤°
Ġãĥ Ń
ë¦ ī
áĥĲáĥĸ áĥłáĥĵ
Ġh os
Ġå½ ĵ
Ûģ Ø§Ø±
ĠØŃ Øµ
áĥĲáĥĹ áĥĺ
ªà¸ ±à¸
ĠáĥĺáĥĴ áĥĺ
Ġà¤ª à¥ģà¤²
à§ĭ à¦ľ
ï½ Ĺ
Ġà¸ Īà¸²à¸ģ
ë° °
ĠL u
Ġà¹Ģà¸§à¹ĩà¸ ļ
£ à«ĩ
Ġæ ĻĤ
Ġà®®à¯ģà®¤ à®²à¯į
sh ip
Ġä» İ
r Ã¨s
bilir siniz
£ Į
à«įàª Ĺ
ĠâĢľ .
Ġoldu ÄŁu
Ġqe ver
ĠíĨµ íķ´
Îķ ÎĻ
èĲ ½
ska p
ĠÄĳá»ķ i
ĠØª Ùĩ
×ŀ× ĳ
Ø¹ ÙĬØ©
áĥĶáĥķ áĥ¡
asi ga
Ġaut res
Ò Ĳ
à¸Ńà¸ °
Ġd ru
Ġsh ko
ľ ëĵľ
ĠÙĨÛĮ Ø§Ø²
×ª ×Ĺ
ĠA d
Ġs ÉĻr
ix en
ĠíĻ ľ
àµĤà´Ł àµĨ
çİ° éĩĳ
Ġtl ho
Ġ×© ×ŀ
ĠÏĩ Ïİ
ĠÐ´Ð¾Ð» Ð¶
à°¿à°¤ à±ĭ
Ġ×ľ ×¨
Ġéĩ ĳ
Ġpoli ti
w eng
æī ¹
ŀ à¸£
ÑģÑĤ Ð°
Ã¡ le
lam u
eit o
ĠàªĽ à«ĩàª²
ĠÛ±Û °
ì½ľê±¸ ìĥµ
Ð¸ÑĤÐµÐ» Ð½Ð¾
Ġãģ¾ ãģŁ
Ġáĥ¡áĥĲáĥŃ áĥĺáĥł
Ġ×ŀ×ŀ× ©
Ġt or
Ġka z
al th
Ġà°ħ à°®à±įà°®
b iy
į ¼
×¤ ×¡
à´Ļàµįà´Ļà´³ à´¿à´²àµįâĢį
w in
Ġdi l
Ġnieu we
Ġd Ã«sh
Ġà®¤à®®à®¿à®´ à¯į
Ġb an
à«ĩàª®à«įàª¬ àª°
b á»į
l go
Ġ×Ķ×Ĳ ×Ĺ×¨
Ð°Ñģ ÑĮ
ÑĦ Ð°ÑĢ
mba li
Ġpro duc
ĠÕ ©
ĠØª Ø³Øª
Ġà¤Ł à¥Ģ
ki ÅŁa
k Ã©nt
ÐµÐ½ Ð½Ðµ
Ġs Ã¼r
à¸²à¸ªà¸´ à¹Ĥà¸Ļ
Ġà¦¨ à¦¿à¦°
ĠÐ¼ Ð°Ð¹
m ir
Ġà°®à±Ģ à°¦
am 8
àª¿àª ¡
ĠáĥĿ áĥŀ
Ġn yt
ÐºÐ° Ñħ
ĠíĻ ĺ
Ġà°ªà±Ĩ à°¦à±įà°¦
s un
Ġpr Ã¡
kÃ¶ z
ĠÙĦ ÛĮÙĨ
Ġà´ħ à´¤àµį
ĠÐ¼ ÐµÑģ
Ġàª° àª¾àª¹
elle tt
is ie
Ġm ir
Ġarte an
Ġáĥ¡áĥ¬ áĥĿáĥł
ĠØ³ÛĮ Ø§Ø³ÛĮ
Ġre qu
Ġaká»į ká»į
ĠÐ¾ ÐºÐ¾Ð»
íĸ ¥
Ġl iá»ĩu
ĠØ¬ ÙĦ
Ġal d
Ġäºļç¾İ am8
ĠÎµÎ¯ ÏĩÎµ
Ð¾Ð² Ð¾ÑĢ
Ġvi deo
Ġma cam
å¤§ å°ı
à¹ģà¸¥ à¹īà¸§à¸
Ġáĥ¤ áĥĲáĥ¥áĥ¢
Ġlit t
å³ ¶
Ġ= >
ãĤµ ãĤ¤ãĥĪ
Ñģ Ð¸Ñı
Ø§Ø¹ Ø¯Ø©
Å¡ t
Ġàªī àª¦
ch ts
ĠÐ¿ÑĢ Ñį
ĠØ³ Ø§ÛĮ
Ġe kan
Ġà°ķ à°¿
ĠìĿ´ ìļ©
ĠÄ° s
Ġpesso as
à±Īà°¨ à°¾
Ġu we
à· ĥ
li tat
ĠÙĪ Ø§Ø±Ø¯
Ġdav om
Ġuk u
à§ĩà¦² à¦¾à¦°
ĠÖ ĩ
Ġpil s
ĠÐ½ ÑĥÐ¶
ĠÎ¼ÎµÎ³ Î¬
ĠÙ¾ÙĨØ¬ Ø§Ø¨
Ġng hi
j esh
Ġà°¸ à°¾à°§
lo Äį
Ġå® ī
± Ħ
Ġth Ã¢n
Ġt eng
Ġáĥĵ áĥĺ
AN G
ĠÐ´ÐµÑĢÐ¶ Ð°Ð²
ÙĨ ÚĪ
à¦¿à¦¤ à§įà¦°
à¨ ¹
à´ļàµįà´ļ àµį
ê¹ Ģ
Ġbil diri
Î¿Ïħ ÏģÎ³
Å¡ as
Ġma isha
ĠÙĪØ§ÙĦ ØŃ
Ġkter Ã¡
ÑģÐº Ð¸Ñı
Ġà°ľ à°¿à°²à±įà°²
Ġfal se
Ġáĥª áĥľáĥĿáĥĳ
ï¼ ¿
es ema
ĠÎ» ÏĮÎ³
Ġin di
A G
áĥ£áĥ «
l Äĥ
iet an
Ġà°µà°¿à° §
áĥĲáĥ¦ áĥĽ
z as
ĠÐ¼ ÐµÑĤ
ĠÐ¿ÑĢ Ð¾Ð¼
áĥĲáĥĻ áĥĶáĥĹ
Ð¸ÑĢ Ð°Ð½Ð¸
à¯Īà®ķ à®³à¯Ī
ri k
Ġar i
ci mento
Ġà®µ à®¿à®Łà¯įà®Ł
Ġà®ħà®µ à®°à¯įà®ķà®³à¯į
Ð»Ñı ÐµÑĤÑģÑı
Ġho l
Ĺ à¸£à¸
Ġs á»Ł
ĠØ¨ ÙĬ
à¶ ¸
ĠàªĨ àª¯
Ġ×ª ×Ĵ
à´¿à´ķ àµ¾
Ġï¿½ï¿½ï¿½ï¿½ï¿½ ï¿½
ÑĤ Ð°Ð¼
àª°à«įàª ķ
Ġbil ang
Ġà¦¹à¦¿à¦¸ à§ĩà¦¬à§ĩ
íħ Į
×¨×Ľ ×ª
j el
ĠØ¨Ùĩ âĢĮ
àª¿àª¯ à«ĭ
ĠØ§ÙĦ Ø§ØŃ
æ£ Ģ
ĠÃ ļ
c m
Ġm ell
Ð» Ð°Ñŀ
g no
çı ¾
Ġbate an
Î ¦
Ġ×ľ ×ĺ
ĠÐº Ð°ÑĢÐ´
ĠáĥĹ áĥķáĥĺáĥĹ
åĨ µ
×ķ×© ×Ķ
Ġá¼ Ģ
à«Ĥ àª²
ĠÐ±ÑĢ Ð¾Ñĺ
T ype
Ġa do
Ġáº¹ gbáº¹
é¨ ĵ
åĪ ¥
Ġ×Ľ ×ŀ×Ķ
Ġæ Ļ
Ġs Ä±r
Ġt Ã¤h
Ġs ko
ĠØª ÛĮ
ä» ĭ
Ġm aka
Ġh elt
nik Ã³w
Ġil dÉĻ
áĥĶáĥĿáĥĳ áĥĺáĥ¡
ÙĪ ØŃ
Ġngo Ãłi
Ġfet isisa
à¯ģà®± à¯Ī
Ġbo lo
Ġà´µ à´¿à´²
ÐµÑĺ ÑľÐ¸
Ġà¤« à¤¿à¤°
Ġàª® àª¿àª¤à«įàª°
à°¨à±įà°¨ à°¾à°°à±ģ
à¤¾à¤· à¥įà¤Ł
ĠØ¢ Ú¯
ķà¹Ī à¸Ń
à´¯àµįà´ķàµįà´ķ àµį
Ġsk ulle
Ġà°ķ à±ĩà°¸
de le
è Ľ
áĥĺáĥł áĥĶáĥĳáĥĲ
il angan
Ġa st
Ġn ende
Ġ á»©ng
Ġm wan
Ġà°ħ à°¡
à§ĩà§Ł à¦¾à¦°
à¸Ńà¸²à¸ «
Ġìĸ´ë ĸ
Ġbi zi
Ġà°ķ à°¥
Ġs ystem
Ġà´® àµģà´¨àµįà´¨
ĠÐº ÑĢÑĭ
àµįâĢĮ à´¸
ÏĥÏĦÎ± ÏĥÎ·
ĠÐ¼Ð¸Ð» Ð»
dzi a
Ġåį Ĺ
Ġexper i
t Äĥ
ĠÒĽ Ð¾Ð½ÑĥÐ½
ĠÐ¿ÑĢ Ð¾Ð³
zo ek
el sen
Ġa hal
Ŀ à¸²à¸ģ
Ġàªĸ àª¾àª¸
Ġse bab
Ġãĥ Ģ
ĠåĲ Į
ĠØµÙģ ØŃÙĩ
ĠÏĢ Î¬
Ġl ok
Ġà¤ķ à¤Ī
Ġla ila
Ġch uyÃªn
i ent
Ġir ak
! !
Ġ×ª ×Ĺ
Ġà®ļ à¯ĩ
Ġos a
Ġteta pi
0 8
ĠÙĨ Ú©
Ø±Ø¨ ÛĮ
ãĥ³ãĤ º
Ġbo p
Ġha de
Ġà´ļ àµĭà´¦
Ġí ĳľ
Äĥri i
Ġì¦ Ŀ
Ġì ´Ŀ
Ġkup ata
à®Łà¯ģà®¤à¯įà®¤ à¯ģ
Ġíĥ ľ
Ġà°ªà±įà°° à°¤
es to
ĠÐ´ ÑĸÑı
ĠÐ½Ðµ Ð³Ð¾Ð²
Ġg ru
elle m
Ġëł Ī
Ġse pse
Ã³ r
à¦¾à¦ķ à¦¾à¦°
Ġëĵ ľ
ta ciÃ³
à¹ĥà¸«à¸¡ à¹Ī
Ġmak emake
Ġfiles _
à«ĭàª ·
Ġà¤ļ à¤²
d Ã¡s
ĠÐ¿ÑĢ Ð¾Ð±
Ġ×© ×ł×Ļ
ĠØª Ø¨
ìľ¼ ë©°
ãģ¨æĢĿ ãģĦãģ¾ãģĻ
wa ÅĤ
à¤¹ à¤°
Ġà°²à±ĩà°¦ à±ģ
ĠØ³ Ù¾
Ġíİ ¸
ĠÏĮ Î¼ÏīÏĤ
ĠáĥĿ áĥ¯áĥĲáĥ®
Ðµ Ð°
Ġtr áº»
Ð´Ð· ÐµÐ»
ad an
éģ ķ
ç» ´
Ġut en
2 7
Ġàª¥àª¯ à«ģàªĤ
Ġka mu
Ġri ght
ĠØ§ÙĦ ÙĪÙĤ
Ġs ar
à°¾à°° à°¨à°¿
ur g
à¦¾à¦ĵ à§Łà¦¾
ĠÙģ ÙĤØ·
Ġà¦® à¦¾à¦§à§įà¦¯à¦®
Ġtash kil
áĥª áĥĺáĥĲ
ãĤ¹ ãĥĨ
Ġs jÃ¤l
idi a
x a
ï¼ ģ
Ġà¸ §à¸±à¸Ļ
et len
ÑĸÐ»ÑĮ ÐºÐ¸
Ġà°ļ à°Ĥà°¦à±įà°°
àª¾àªļ àª¾àª°
ÏģÎ¿ ÏįÎ½
×© ×ĳ
et tu
Ġse con
ĠãĤ ¸
Ġx Ã£
ĠìĪ ľ
Ġà¦ħà¦¨ à§ģà¦·à§įà¦ł
à°¿à° ³
Ġà¦¦ à¦¿à§Ł
ĠK jo
ĠÙĬ Ø³
Ġ\ "
Ġ Ã©n
ol la
à¤¿à¤ ·
Î¯Î½ Î·
ľà¸ ¥à¸
Ġc ï¼Ĳ
Ġí Ĵ
Ġàª® àªľ
Ġr Ã©p
ĠÙĨ ÙĪØ¹
ĠÑį ÐºÐ°Ð½
Ñĥ ÑĢÑĭ
àµĩ à´±àµįà´±
Ġpo der
Ġspo leÄį
áĥĲáĥłáĥ £áĥļ
Ġca da
Ġpor que
Ġåħ ¬
Ġho pe
kiÅŁa f
ĠÎ¼ Î¹Îº
à«ģàª¦ à«įàª§
Ġw Äģ
Ġje j
×¦ ×Ķ
ÑģÐºÑĸ Ñı
Ð» ÑĸÐ²
ĠÐ¡ Ð¾ÑĦ
ĠÐ¾Ð´ Ð°Ð¼
in der
Ġbeg in
ĠØ¯Ø± ÛĮØ§
Ĺà¸²à¸ ĩ
Ġver ir
Ġj ar
ÉĽ ÉĽ
Ø±Ø¯ ÛĮ
ãģķ ãģĽ
Ġà®¤ à¯Ĩ
à¥Ģ à¤°
tor e
Ġlo c
ĠKe y
U A
ãģķãĤĮ ãģŁ
yo te
Ġh ili
Ã¤ hr
Ġmi gli
z ÃŃ
à°ķ à°°
áĥĲáĥ¨ áĥĿáĥłáĥĺáĥ¡
j ud
Ġri vo
Ġàª² à«ĩàªĸ
Ġà¤Ĩ à¤µ
à¤°à¥įà¤ £
ÑĬ Ñģ
Ø¨ Ûģ
Ġl Ã©
ĠÊ» i
ĠÙĦ Úĳ
è¯ Ħ
atu ur
×¤ ×ķ×ª
Ġà° Ĺà°¾
à¸Ļ à¹Įà¸
Þ °
áĥĿáĥļ áĥĺáĥ¡
ÏĦÎ¿ Î¹
Ø§Ø¨ Ø¹
Ġà´¨à´¿à´¨àµįà´¨ àµģà´Ĥ
Å¡ enÃŃ
à¹Ĩ à¸
Ġm áº¯t
åĩ »
Ġm ye
Ġà¤¸ à¤¿à¤Ĥ
ãģĹ ãģ¾ãģĹãģŁ
Ġàª¦àª°àª® àª¿àª¯àª¾àª¨
ÙĬØ§ Ùĭ
íķĺ ëĭ¤
Î¸ Ïħ
Ã³ Ì£n
ĠRespublik asi
Ġáĥĺáĥ¡ áĥĺáĥľáĥĺ
ĠØ¯ÙĪØ³ Ø±ÛĴ
Ġà°ķ à±ĩà°Ĥà°¦à±įà°°
l le
Ġol uÅŁ
ĠÙĪØ± Ø²Ø´
Ġpro pri
è ŀ
ìŀ Ī
ĠÐŁ Ð¾
×ķ×Ĺ ×ķ×ª
Ġàªħàª® à«ĩàª°
Ġo dam
à±Ĩà°² à±įà°²
Ġà¦¬ à¦¨à§įà¦§
à¤¾à¤ ī
j Ã¼k
Ġáĥŀ áĥĲáĥ¡áĥ£áĥ®
èī º
Ġà¦® à§ģà¦ĸ
à°¾à°¨ à°Ĥ
Ġas ta
ol Ã³
çģ «
Ã£ i
à«ĩàª² à«ĭ
di ge
Ġac um
Ġc Ã¢nd
ÑģÐµÐ´ Ð°ÑĤÐµÐ»
Ġing in
Îº ÏģÎ±
àª¦ àª°
ta le
å»º è®¾
Ġà¤Ĩ à¤¦
Ġbe ing
ĠáĥĽáĥĶáĥ¢ áĥĺ
ĠàªĨàªĹ àª³
2 9
Ġku mu
l Ã¦
Ġí ħ
ĠÐ² Ð¸Ð±
ĠÐ¼Ðµ Ð³
èª į
ĠU hr
ĠÙģÛĮØµ ÙĦÛģ
Ð°Ð½ Ð´Ð°
ĠÐ¸Ð·Ð¿ Ð¾Ð»Ð·
Ġmbali mbali
Ø±Ùĥ Ø§Øª
la am
ĠâĢ ¹
re ich
ì ±ħ
ĠÎķÎ»Î»Î¬ Î´Î±
Ð½ ÑĸÐ²
ÎĹ ÎĿ
ĠÑĥÐ½ Ð¸Ð½Ð³
à¥ī à¤²
ĠÐ¼ Ð¾Ð¼
ë° ±
à´¶ àµįà´¯
h erÃ«
Ġ ãģĮ
ĠØª Ø§Ø±ÙĬØ®
Ġà¹Ģà¸ ģà¸¡à¸
àµĤ à´°àµįâĢį
Ġi ru
ÑĨÑĮ Ðº
à¸£à¸°à¸ ļà¸
à¹Ģà¸¥ à¹Īà¸Ļà¸
Ġti k
Ġser ta
à¯ģà®³à¯įà®³ à®¾à®°à¯į
Ð¸Ð» Ð¸ÑĪ
Ġr áº±ng
Ġh vad
ĠØ¬ Ø§ÛĮ
Ġt Ã©
cie Å¡
ĠáĥĽáĥĲáĥĺ áĥľ
ta ciÃ³n
Ġza o
ĠBr atis
ãĤ ®
áĥķ áĥĺáĥłáĥ
ĠáĥĽáĥĿáĥ «
Ġàªªà«įàª° àªķàª¾àª°
Ġi bi
Ġkel uar
ĠÏĩ ÏģÎ®
Ġqu Ã¨
Ġy rit
ç Ł
ç ¢
Ġparas ites
Û ĥ
à°¯ à°Ĥà°²à±ĭ
itz eko
àª§ àª¾àª¨
nie Å¼
ìĬ ¹
ĠáĥĽ áĥĶáĥĴ
¹à¸ ģ
àª¬ à«įàª¦
Ġà¦°à§Ł à§ĩà¦Ľà§ĩ
x o
ho ut
Ġho Ê»i
Ê»a wi
Ġhi vi
Ġpro du
ãĥ¼ãĥ ĳ
ĠK as
ĠÎĳ ÏĢÏĮ
áł ¢
ĠÃ© p
Ġ×Ĳ ×ľ×Ĳ
×ĸ ×¨
ÑģÐºÑĸ Ð¼
§ à¸Ļà¸
Ġy an
Ġm il
ÅĨ i
ĠÐ¸Ð· Ð±
ĠØ³ Ø§Ø®
ust om
Øª Ùĥ
Øº Ø©
Ġva id
tÄģj s
ĠÅŁek ilde
ĠØ§Ø± Ø§Ø¦
àªª àª°
ĠÑģÐ² Ð¾ÑĹ
Ġà´µ àµĩà´£àµįà´Ł
Ġkaik ki
ĠÙ¾Ø§Ú© Ø³ØªØ§ÙĨÛĮ
ĠØ§ÙĦ Ø§Ø¬
ĠÙ¾Ø§Ø± Ù¹ÛĮ
m ÉĻn
à¶ ļ
ĠR p
ok at
ĠÄĳ Ã¡nh
k on
à«ģàª Ł
Ġis a
å¼ ·
Ġha po
Ġtre g
Ġkat ta
c Ã³w
ÛĮØ¯ ÛĮ
à«ĭàª ¹
Ġ×Ĳ×ª ×Ķ
¡à¸ ·à¸Ńà¸
àµįà´ ¦
im á»į
Ġì º
à«Ĥ àª¤
Ġd ast
ĠØ¯ÛĮÙĨ ÛĴ
ĠÐ³ÑĢ Ð¾Ð¼
Ġuyg ul
ĠÑĤÐ°ÑĬÐ¼ Ð¸Ð½
ĠØ§ÛĮØ³ Ø§
Ø§Ø¯ ÙĤ
Ïĩ Î·
Ġn ye
he j
ĠÑĢ Ð°Ð¹
Ġor gan
ĠÐ¾Ð± Ð»Ð°
Ð´ Ð¸Ð½
Ġspo t
eh ir
ÑĤÐµ Ð»ÑĮ
à°¦ à±ĩà°¶
àµĩà´· à´Ĥ
c ora
à§ĩà¦¤ à§ĩ
ĠÑģÐ¿ ÑĢÐ°Ð²
ĠÙĨØ´ Ø§ÙĨ
ĠÚ© Ø³
Ø§ÛĮ Ø·
s ie
Ġho lo
ÃŃ tott
Ġáĥŀ áĥĲáĥłáĥ¢
Ġ×¢ ×ĳ×ķ×¨
Õ¡Õ ²
Ġà°ķ à°¾à°µ
ä½ ı
ĠM ele
ĠÏĥÏħ Î¼Î²
ili a
é ¥
Ðº Ð°Ð³Ð°
Ġà¦® à¦¨
ĠbÃ½ t
Î¹ Î²
ÙĪØ¯ Ø©
Ġz we
ļ à¸Ļà¸
×© ×ķ
×ķ×ĳ ×Ļ×Ŀ
àªķ àª¾àª°à«Ģ
ur al
Ġmo gelijk
Î¸Îµ ÏĥÎ·
Ġà¦¸ à¦¾à¦°
Ġz al
Ð¸Ñĳ ÑĤ
ĠÙĤ Ø·
Úĺ ÛĮ
Ġg ut
ĠG en
Ġë¸ Ķ
im ba
end re
ĠHa ber
Ð³ Ðĥ
ä¿¡ èªī
ĠÙĩ ÙĦ
ç§ Ĵ
Ïĥ ÏĦÏĮ
ĠÑĤÐ° ÑĬÐ»
Î¿Î½ ÏĦÎ±ÏĤ
ĠW as
à±ĭ à°ª
Ġh Ã¼
ĠJ i
Ð¾Ð» Ð¶
Ġàª°àª¾àªľ àªķ
à¥įà¤ ¬
Ġka Å¼
áĥĲáĥľ áĥĻ
éĩ ĩ
ĠÎ³ Îµ
im ento
Ġtak Å¼e
ĠAI J
Ġà´¸ à´¿à´¨à´¿à´®
ÙĪ Ø§Ø¹
ĠÐ¿ÑĢÐ¾ ÑĨ
Õµ Õ¡Õ¶
Ð¸Ð» Ðµ
Ġ×ľ ×Ľ×ľ
Ġà¦® à§ĥà¦¤
Ġà®ªà¯ĭ à®°
ĠÙħ Ø¬Ùħ
Ġ×ľ ×ŀ
an as
à¤¤ à¥įà¤°
è¯ »
Ġdet ta
yor um
Ø§ÙĤ Ø¹
Ñĸ Ñŀ
er er
Ġta q
Ġà´µ à´¨àµįà´¨
Ïĥ Î¯Î±ÏĤ
Ġáĥľ áĥĲáĥ¬
Ġki Ê»i
ĠÐ¹Ñŀ ÒĽ
Ġj ue
Ġ×© ×¨
áĥł áĥĶáĥĳáĥĺáĥ¡
à¦¿à¦ķ à¦¾à¦°
×ĳ×¨ ×Ļ×Ŀ
×ķ×ŀ ×Ķ
kan i
arri a
Ġàª¸ àª°à«įàªµ
Ġn aka
´ë ¦
Å« ras
or Ã«
ĠØ¨Úĳ ÛĮ
à¥įà¤ ļ
Ġsit ten
Ġto ho
ĠÙħØ³ Ø¦
Ġob at
Ġå¹ ¿
ĠæĪĳ ä»¬
Ã³ ria
ĠÐ¿ÑĢ Ð¾ÑĤÐ¸Ð²
Ùİ Ø±
Äĵj u
ler inin
ĠÐ¿ÑĢ Ð¸Ð¹
ĠÐĺ Ñģ
Ġ( )
ÑĤ ÑĢ
ĠÑĩÐ¸ÒĽ Ð°ÑĢ
ĠÚ¯Ø± ÙģØªÙĩ
ĠØ³ ÙĨØ¯
ļ áŀ
ĠÑģ ÑĥÐ´
Ã¸ de
Ġjo t
à±ģà°ķ à±ģà°¨à°¿
áĥ¢ áĥĶáĥłáĥĶáĥ¡
ĳ ìĿ´
lik le
Ġtay yor
vv ÉĻl
Ġperso as
ĠÑĤÐ°Ð´ Ð±Ð¸ÑĢ
Ġb g
zi d
Ð°Ð½ Ð¸ÑĺÐ°
à´¾à´° à´Ĥ
áĥ® áĥļ
Ġàª° àª¸
äº Ĵ
ĠØ¯ Ø§Ø®ÙĦ
Ġekstra utstyr
ĠØ§Ø ¶
Ġà´ļ àµĩ
ik un
Ġs tÃ¤
éļ ¾
Ġoh ne
Ð°Ð¼Ð» Ð°ÐºÐ°ÑĤ
u w
q e
ï Ģ
em i
Ġh ere
Ġap ar
ĠØ®Ø¯Ùħ Ø§Øª
C C
ĠÕ Ń
à®© à®®à¯į
à© ģ
ĠØ± Ø¦ÛĮØ³
za ile
ĠØ¬Ùĩ Ø§ÙĨ
Î» ÏĮ
Ġpr os
Ġàª¸àªĤàª ¬àªĤàª§
ç· ļ
Ġm Ã¥nga
Ġàªļà«ĤàªĤàªŁ àª£à«Ģ
Ġq ÉĻb
ĠK u
Ġli ge
ari fa
Ġs ti
×Ĵ ×¨
Ġpres yo
f ele
Ġde velop
j te
ÑĢÐ° ÑĦ
Ġpri m
Ġegit eko
Ġáĥ® áĥĿáĥļáĥĿ
Ġà´® àµģà´¤
iem bre
Î¾ Î·ÏĤ
èĮ ĥ
l Ã¦g
ë¦ Ħ
áĥĶáĥłáĥ «
Ġch áº¿
Ġch Æ¡i
Ġq on
Ġen k
es sÃ©g
ĠØ´Ø± Ø§ÛĮØ·
im ana
ĠØ§ÙĦØ¹ Ø±Ø§ÙĤ
àª¾àªµ à«ĭ
Ġà®ķà¯Ĥ à®Łà¯įà®Ł
ĠB uc
ove j
ĠáĥĽáĥĿáĥľ áĥĲáĥ¬áĥĺáĥļ
Ġszer et
lar idan
ĠÐ· Ð±Ð¾ÑĢ
Ġka up
Ġz mi
ĠÐł Ð°Ñģ
Ġ365 æ£ĭçīĮ
ãĥĹ ãĥª
Ġy Ã©
Ġdo es
Ġda ca
us sen
ãģĵ ãģ®
ĠÒĽ Ð¸Ñģ
Ġtho tÃ«
Ġ×© ×ª
ĠáĥĴ áĥĿáĥĴ
ĠÐ¾Ð» Ð¸ÑĪ
Ġ ãģ¨ãģĦãģĨ
ì¶ľìŀ¥ ë§ĮëĤ¨
Ġáĥ¡áĥ®áĥķ áĥĲáĥĵáĥĲáĥ¡
Ġj Ã¤
ĠI hr
ĠE st
Ġweng ine
Ġà¦Ńà¦¾à¦² à§ĭ
Ġsi er
Ġv iel
é Ĭ
Ø§ÙĨ ÚĨ
Ġáĥ¡ áĥ®
à°¾à°Ĥà° ķ
bi la
I T
Ġà´ªàµįà´° à´¸
ãĥ³ãĥ Ĩ
Î®Î¼Îµ ÏģÎ±
Ķà¹īà¸§à¸ ¢
Ġen pres
v ah
å¤ĩ çĶ¨
Ġdi ver
àª¿àª¤ àª¾
à¤µ à¤¨
Ġì§Ģ ëĤľ
Ġl inda
enk il
ÙĪØ± Ø³
l Ã¼k
æ± º
ĠÐŁÑĢÐµ Ð·Ð¸Ð´
ĠÑĢ Ð¸Ð²
ê¸° ë¥¼
Îķ ÎĽ
à®¤à¯įà®¤ à¯ģ
ĠØ´ Ú©
ta Ã§Ã£o
áĥĽ áĥľ
Ġãģ ķ
jum i
Ø±Ø¨ Ø¹
à¦¬ à¦¿
ĠÚ¯ ÙĪ
Ġi tt
ĠTh ere
ĠØ¨Ø§ÙĦ Øª
j ate
n ah
ÅĨ o
id mÉĻt
Ġbe fore
ĠØ¢ÙħØ±ÛĮÚ© Ø§
ĠáĥĴ áĥĲáĥĹ
áĥ¤ áĥĶáĥł
in es
Ø£ Ø©
Ġà¦¤ à§ģà¦²
Ø® Ø§ÙĨÙĩ
ÑĥÐ² Ð°Ð»Ð¸
es ar
ou p
ÅĻ enÃŃ
ĠÅŁ ÉĻr
ĠÙģØ¥ ÙĨ
ĠØ§Ø³ Ùħ
un tament
Â ±
à¦¸ à§įà¦ķ
j ang
Ġpi g
ĠìĬ¬ ë¡¯
é¦Ļ èķī
ĠÚ© ÙĦÛĮ
à¹Īà¸ ¡
era de
ati zo
ĠM á»¹
Ġ×Ľ ×ĳ×¨
ĠB il
ĠÙĦ Ø¹
Ġà®ķ à®£à¯įà®Ł
ÏĩÎµ Î¯Î±
åħ «
ad ores
ĠØ® Øµ
à¦ª à¦¿
Ð½Ñĸ Ñĩ
ĠìĹ ħ
Ġ×§ ×ĺ
ĠÐļ Ð¸
à°Ĥà°Ĺ à°¾à°£
ĠÃ Ļ
Ġíģ ¬
Ġpo p
Ġà¦¬à¦¿à¦ ı
à¹Ģà¸ Ľ
ĠÐ° ÐºÑĤ
ĠÎ¹ ÏĥÏĦÎ¿
Ġ×Ĺ ×ľ×§
à°Ĥà°Ł à°¿
à´ķàµįà´ Ł
ĠÃ Ģ
K U
ĠÑĢÐ¾Ð· Ð¿
é§ ħ
Ø² ÙĦ
Ġà´¨ à´®àµįà´®
Ġà¤µ à¥ĩ
Ð°Ð± Ð¸
Ġàª¹ àª°
Ġà¦¬ à§įà¦°
Â ¿
ÙĪ Ú©
am ba
Ġko le
Ġmali it
wa Å¼
uli wa
ë§ Ľ
ĠÐ¿ÑĢ Ð¸Ð¼
ono lo
Ġwa hi
ĠØ° Ø±ÛĮ
áĥĲáĥĺ áĥľ
Ġfor b
Ġtiem po
zid ent
ĠÑĤ Ð°Ð²
d ÃŃ
áº¯ p
th ing
ta ire
Ġalg un
Ñī Ð°ÑĤÐ°
àµĢ à´·
v Ã½
ĠÐ¼Ðµ Ò³
j wa
Ġqili b
ĠÎ» Î¯
Ġà¦¤ à¦¥
æĻ ¯
ë§ Ĳ
Ġ×Ķ×ŀ× ¢
Ġè ¦
ĠE A
Ġam p
c Ã«
à´Łàµįà´Ł àµį
ÏĨ Ïħ
it ia
v r
ĠÛģ ÙĨØ¯
Ļà§įà¦ ķ
Ġr rit
Ġ äºĮ
Ġdur um
is ation
Ġik ki
nÄĽ jÅ¡ÃŃ
áº· ng
Ġth ÃŃch
Ġà¦ī à¦¤à§įà¦¤
Ġqi ladi
ĠØ£ Ø´
Ġh ui
Î»Î¯ Î¿Ïħ
Ġagçİ¯äºļ éĽĨåĽ¢
ĠÎµ Î³
Ġla ban
Ġà¦¯ à¦¾
Ġes tu
ĠÐ°Ð² ÑĤÐ¾Ð¼
Î® Î½
ĠÐ¼Ðµ Ð¶Ð´
Ġë© Ķ
ĠÙĪ ÙĦÛĮ
Ġà´¸ àµįà´±àµįà´±
ĠáĥĴ áĥĲáĥĶ
te a
ĠÎ² Î¬
Ð°Ð² Ð°ÑĤ
Ġin s
Ġd unha
ë ¹
Ġáĥ® áĥĲáĥļáĥ®
co lo
Ġda cÄĥ
ĠfÉĻ ali
ĠØ§Ù¾ ÙĨØ§
Äĵj o
ar na
Ġbizt os
ÏĢ Î¹Ïĥ
ĠÐ± ÑĬÐ»Ð³Ð°ÑĢ
Å¾ o
àµįà´ ľ
Ġàª¦ à«Ĥàª°
ĠØ§Ø±Ø§Ø¦ Ùĩ
z s
ĠÛģÙħ ÛĮÚº
ĠM k
Ġve zet
ĠØ£ Ø¯
åı¯ èĥ½
ĠÃ®nt r
à°°à±įà°µ à°¾à°¤
ĠØ§ÙĦÙħØªØŃ Ø¯Ø©
Ġc c
Ġn Ã¦r
ĠØ§ÙĦ Ø§ÙĤ
ĠØ§ÛĮØ± Ø§ÙĨÛĮ
Îµ Î´
ĠãĤ »
ìĭľ ê°Ħ
ÑĢ Ð·
ga y
Ġdu a
dar b
ĠØ§Øµ ÙĦÛĮ
ĠÒ³Ð°ÒĽ Ð¸Ð´Ð°
Ġdi d
Ä° L
Ġà°µ à°¿à°¨
ãģ® æĸ¹
o jnÃ«
ĠÑįÑĤ Ð¾Ð¼
à¹ģà¸ļà¸ ļ
ca ciÃ³n
Ġchuy á»ĥn
Ġp Ãºb
Îº Î¿Ïį
Ġà¤Ĩà¤¹à¥ĩ à¤¤
ĠV ol
Ġsel l
Ðº Ð¾Ð½
up un
Ġ ÅĻe
à°¤ à±įà°°
ÐºÐ° Ñĩ
Ġpro je
ĠM ÉĻn
Ġáĥ¡áĥĲáĥĽ áĥĺáĥľáĥĺáĥ¡áĥ¢
Ġko ko
áĥĺáĥ§ áĥķ
Ġdo po
Ġà¹Ģà¸ Ĭ
Ġà°¨à°¿à°° à±įà°®
à¯ģà®ļ à¯į
×Ļ× ¥
Ġt ung
Æ°á»£ t
Ġb one
Îº Î¿Î»
à¦¨ à¦¾à§Ł
áĥĽ áĥĶ
Ġ×©×ľ ×ķ
ÙĬØ§ Ø©
Ñĥ Òĵ
¸ à¹Īà¸Ļ
Ġà®µà®´ à®Ļà¯įà®ķ
×Ļ×© ×¨×Ĳ×ľ
Ġp y
èĩ ´
ĠÒĽÐ°ÑĢ Ð¾ÑĢ
ĠØ§Ùħ Ø§Ùħ
à´¾à´¯à´¿à´° àµģà´¨àµįà´¨
Ã¥ de
ĠÊ» Åį
ĠÎ£ Î¥
Ġl or
do l
Ġ> >
à®¾à® ¸
ÙĪ ÙĦÙī
Ġc ung
àª¡ àª¾
ĠÎĶÎ· Î¼Î¿
Ä±l masÄ±
Ġà¦¦à§ĩà¦¶ à§ĩà¦°
ĠÚ©ÙĨ ÛĮÙħ
v ed
Ġki p
Ġvie lÃ¤
Ġà®ª à®¿à®©à¯įà®©
Ġà°® à°§à±įà°¯
Ð³ Ð¾ÑĢ
ĠÐº ÑĸÐ»ÑĮ
Ġk áº¹
ç¤¾ ä¼ļ
à¯ĭ à®Łà¯ģ
ong eza
è§£ æ¢¦
Ġë² ł
ĠØ¹ Ø¨Ø±
ĠDe ze
Ġs itÃ¤
Ġb aha
hlah isoa
ĠS H
åĮĹäº¬ èµĽè½¦
Ġà®Ĩ à®¤
à±ģà°Ł à±įà°Ł
n Äĥ
Ġver sch
Ġk ena
d roÅ¡
Ġth ink
Ġà¦ Ŀ
ĠÎºÎ± Î½
Ġma p
ro b
Ć ï¼Į
à§įà¦¦ à§įà¦°
Ġn áº¿u
ĠÎºÎ±Î¸ ÏİÏĤ
lo ad
itu en
ĠHar ga
Û ²
ãĥ¼ãĥ Ĺ
Ġàªħàª¨ à«ĩàªķ
Ġs Ã³
Ġà¦¸à¦¦ à¦¸à§įà¦¯
ĠÑĤÐµ Ð·Ð¸
ĠãĤ ¿
ĠÐ·Ð° ÐµÐ´
ĠëĶ Ķ
Ġà®¤ à¯Ģ
Ð¸ÑĤ Ð¾Ð±
ÐµÐ· Ð¿
ed s
gen de
Ġs ite
à«ĩàªµ à«ģàªĤ
Ġc Ã¡
Ġà´ķ àµģà´Łàµįà´Ł
ĠÃ Ħ
Ġme ie
isk t
Ġala ye
Ġà´¨àµĩ à´¤
Ġgi áº£m
à¦ª à§įà¦¤
ĠÃ© let
ÑĢÑĥ Ð¿
li c
Ġsa mo
Ð°Ð» Ð½Ð°
Ġ×ł ×§
ĠáĥĹ áĥķáĥĲáĥļ
Ġn Ã«se
ĠÐ¼ Ð¾Ð³
ĠØ§Ø¬ Ø±
ĠáĥĶ áĥĽ
Ġl ii
m inen
èĲĦ äº¬
Ġëª »
à´¨àµįà´¤àµįà´° à´¿
Ġn ÉĻti
pa la
Ġà´² àµĭà´ķ
Ģâ Ķ
Ġne gara
áĥĶáĥĳáĥĺ áĥĲáĥľ
Ġe zt
ĠØ§ÙĨ ÙĪØ§Ø¹
ĠÃ Ĥ
ĠÎ¼ Î·Î½
Ġki ÅŁ
ĠgÃ¶r a
ĠáĥĽ áĥĿáĥĵ
ĠâĢĿ ï¼Į
ek om
Ġsz olgÃ¡l
de x
à®¿à®ķà¯įà®ķ à¯Ī
à®ªà¯įà®ªà®Ł à¯ģà®®à¯į
Ð¾Ð´ Ñĸ
Ġdá»± ng
Ġp ov
à°ª à±įà°°
à¦¤ à¦¿à¦ķ
áĥĲáĥļ áĥĺáĥ¡
ĠÏĮ ÏĦÎ±Î½
Ġdiff er
ut Äģ
Ñģ ÑĤÐµÑĢ
Ġ _
ĠÎļ Ïħ
ĠÎºÎ¬ ÏĢÎ¿
Ġà°¤à±Ĩà°² à°Ĥà°Ĺà°¾à°£
Ð°Ð»Ñĸ ÑģÑı
áĥĿáĥ £áĥ
ĠÐ±ÑĥÐ´ Ðµ
ĠÑģ Ð»
ĠN Ã£o
o liy
Ġol lut
Ġ×ł ×Ļ×ª×Ł
ĠÚ©Ø§ Ùĩ
Ġwe di
an ta
åį ¡
Ġquy áº¿t
à¹Ģà¸£ à¸²
Ġse buah
Ġà®ĩ à®£
ĠØ¨Ùĩ ØªØ±ÛĮÙĨ
isi in
wia d
ĠØ§ÙĦÙħÙĪ Ø¶ÙĪØ¹
ãĤį ãģĨ
nÃ© es
Ġkdy Å¾
Ġhav de
ĠÐ°ÑĢ Ð³Ð°Ð½ÑĸÐ·
à´¿à´ ¡
Ġpri mer
ĠÎĳ ÏĢ
Ġa sh
ÏĢÎ· ÏģÎµ
o la
j em
Ġxiz mat
áĥĲáĥ¦áĥĽ áĥĵáĥĶáĥĴ
ĠÑĩ ÐµÐ¼
Ġà¤¶ à¥ģà¤°
q in
Ġ ÖĦ
ĠagèµĮ åľº
ÐµÐ¼ Ðµ
áĥļáĥĶáĥĳ áĥ¨áĥĺ
ĠÐ¿ Ð°Ð¹
ish ni
Ġà¦¬à§ĩà¦¶ à¦¿
ĠáĥŀáĥłáĥĶáĥĸ áĥĺáĥĵáĥĶáĥľáĥ¢
ĠÚĨ ÛĮÙĨ
ĠÐ» ÑĸÐº
Ð³Ð¾Ð² Ð¾ÑĢ
ĠÎ² Î±
àµĨà´Ł àµģà´ķàµįà´ķ
ati va
Ġga at
Ġà°ĩ à°ļà±įà°ļ
ķà¹Ī à¸Ńà¸
j and
Ġh itz
wa li
Ġth ose
4 8
Ġnit ori
áĥĺáĥ¡ áĥĻ
Ġà¨ µ
ĠØ§ÙĦØ³ ÙĦ
ĠT osh
ash tÃ«
zi ng
Ġne Å¾
Ġà®®à¯ģà® ´
Ġb esz
Ġáĥ¢ áĥĶáĥł
Ġê°Ģ ìŀ¥
ì¶ľìŀ¥ìĥµ ìĺĪìķ½
Û ±Û
Ġk endi
à¹ģà¸ļà¸ ļà¸
Ġsebel isa
ĠÐ´ Ð¸Ð³Ð°ÑĢ
Ð°ÑĤ Ð¸Ð²
u dad
ĠC ons
ĠØ§ÙħØ±ÛĮÚ© ÛĮ
D e
àªĤàª¤ à«įàª°à«Ģ
ĠÙħØª Ø¹ÙĦ
ĠáĥĴáĥĲáĥľ áĥ®
Ġà®ħ à®²
Ġáĥ£áĥłáĥ Ĺ
j Ã¡t
Ġ Ïİ
ĠÑĤ Ð¾Ð¹
ĠÐ¿ÑĢ Ð°ÑĪ
Ġpro to
Ġa gbegbe
ĠÐĴ ÑĸÐ´
ĠÐ¿ÑĢÐµ Ð´Ð¸
Ġpagpap alaki
ĠØ¬Ûģ Ø§Úº
à«ĭàª «
me ve
Ġenc ont
à´² à´Ĥ
Ïĥ Î¿ÏħÎ¼Îµ
Ð°Ð½ ÑĤ
ĠÐ°Ð¼Ð°Ð» Ð³Ð°
ÙĪØ² Ùĩ
ka li
us ay
Ġune i
wiÄħ z
ĠU m
al vel
Ġcon he
Ġàª¨ à«Ģàªļ
åľ¨çº¿ è§Ĩé¢ĳ
ĠÎ¿ Î¼Î¬
Ġà¦§ à¦°
Ø§Ø¹ Ø§Øª
Ġd Ã´
ĠM me
à¸£à¸¹ à¹īà¸
Ð¸Ð½ Ðµ
Ġ×Ķ×ŀ× ĵ
ĠØ¯Ùĩ Ø¯
ĠØªØº ÛĮ
Ġè ī
Ġtu á»ķi
Ġo c
Ġu lar
Ïģ ÏīÎ½
ĠÎ³ Î½Ïī
Ġja di
Ġing uru
ĠScar pe
ãĥĥ ãĤ°
p Äĵc
Õ¡Õ½ Õ¿
it uz
Ġtem pat
ĠáĥłáĥĿáĥĽáĥĶáĥļ áĥ¡áĥĲáĥª
à¤¾à¤ ¥
Ġbru k
Ġhan di
k ent
ar ii
Ġv ler
ĠÐ¢ Ð¾ÑĪ
áĥĶáĥĿáĥĳ áĥĲ
ĠáĥĲáĥ¥ áĥ¢
Ð¾Ð²Ð°Ð½ Ð¸Ðµ
Ñİ ÑĩÐ¸
Ġ. +
Äį ek
rij f
ĠMatrim oniale
à°¿à°² à±į
¥à¸ °à¹Ģà¸
Î¯Î½ ÎµÏĦÎ±Î¹
ĠÙħ Ø®
ÑĥÐ¼Ò³ÑĥÑĢ Ð¸Ð¸
Ð¾ÑĢ Ð¾
i ght
ĠÑĤÑı Ñħ
ĠÙĪ Ø´
ĠÙħÙĨ Øµ
Ġsa an
Ñħ ÑĪ
B A
Ġà®İ à®¨à¯įà®¤
Ã¸ m
Ġe til
åģ ·
ĠT S
ĠÐ¿ÑĢ Ð°Ð³
Ġ Úĺ
àª¾àª¨ à«įàª¯
Ġpre c
Ġà°® à±Ĩ
ãĥ³ãĥ Ĺ
Ġlá» Ŀi
Ġè ħ
Ġà°¦ à±Ģ
à´Ł àµģà´¤àµįà´¤
em ber
Ġb á»į
Ġf on
Ġlav oro
é» Ħ
×ł×Ļ ×Ļ×Ł
ķà¸±à¸ §à¸
ĠáĥĹáĥ¥áĥķáĥĶáĥľ áĥĺ
ĠdÉĻ fÉĻ
áº· p
à´¿à´ķàµįà´ķ àµģà´ķà´¯
à«ĩàª² à«ģàªĤ
æĥ ł
ĠKati ka
àªĤàª ª
Ã¼Ã¼ d
Ġ à¹Ĩ
ru tt
d 88
en as
Ġá¹£i á¹£áº¹
ãģ¦ ãĤĤ
Ø¯ Ø§Ø±Ø©
ĠÎ± ÏĨ
Ġà´ķàµįà´ ·
Ġáĥ¡ áĥĺ
Ġàªı àª¨
á»± a
ĠÑĩ Ñĭ
Ġàªı àª¨à«ĩ
×ķ×Ĳ ×¨
Ġà¸ ¡à¸µà¸
Ġà¤Ł à¥įà¤°
Ð°Ð½ Ð½Ñĸ
Ġer ed
ÑĨ Ð°Ñŀ
k as
ĠÒĽÑŀ ÑĪ
Ġc at
k ed
Ġdes prÃ©s
ĠàªĽ àª¤àª¾àªĤ
à¥ĩ à¤®
ĠÑį Ð¼Ð°Ñģ
ĠÐ± Ð°Ð³
à¤¡à¤¼ à¤¾
Äĵt as
ĠØ®Øµ ÙĪØµ
ĠáĥĻ áĥķáĥļ
Ġ Å¼
Ġal de
Ġ201 4
cia le
à®¾à®± à¯ģ
Ġà¦Ĩà¦ª à¦¨à¦¿
ro d
ĠÃ©ta it
Ø§ÙĦ Ùĥ
Ġà¦¬à¦¿à¦· à§Ł
Ġå Ĵ
Ġn ya
us ia
Ġh Æ°á»Ľng
Ġti áº¿t
ĠÕ° Õ¡Õ´
Ġà®¤à®² à¯Īà®µ
ĠÐ² ÐµÐ»ÑĮÐ¼Ñĸ
à¹Ī à¸Ńà¸ĩ
ÅĨ Å¡
Ġåı ĳ
ĠÐ²Ðµ ÑľÐµ
ĠØ¨ Ùĥ
ch te
ĠL ie
ĠÏĦ ÏģÏĮ
Ġà¦ī à¦ł
æĸ Ń
iti es
Ġáĥ¡ áĥĺáĥ¡
ĠÑĥ Ð·
Ġà¤¹à¥ĭ à¤Ĺà¤¾
Ġàª¤à«ĩàª® àªľ
Ġte gen
ĠÒ³ ÑĥÐ¶
Ġà®¤ à¯Ĥ
Ø§ÙĦ Ø¨
Ð½ Ð½Ñı
in er
èİ ·
ĠpÃ¤ iv
à®¿à®¯ à®¤à¯ģ
ĠÙĬ Ø´
Ĺà¸ ĺ
ĠÑģ Ð°Ð½
ar kan
ff en
à°¾à°² à°ķà±ģ
àª¿ àªĤàª¦
ĠAl s
Ġá¹£ ugbá»įn
Ġàªªà«įàª° àª¥àª®
áĥĺáĥļ áĥĶáĥĳáĥĲ
Ġ×Ĳ ×ŀ×¨
Ġchi ar
Ö ĩ
× ģ
Ġse gu
Ġàª¸ àª²
Ñľ Ð°
Ġm ora
ĠÙĦÙĦ Ø£
ÉĻ ÅŁ
ÅŁ ti
id d
Ġbo t
U tama
ĠÙĤÙĪÙħ ÛĮ
ĠDomain Utama
ĠÛģÙĪ ØªÛĴ
ĠÊ» ike
Ġdev am
Ġê°Ģ ëĬ¥
Ġbeli au
Ġa to
åı Ī
Ä° R
ĠÐ± ÐµÑģÐ¿
ĠáĥĳáĥĲáĥķáĥ¨ áĥķ
×Ļ×¤ ×ķ×ľ
Ġ25 6
uf u
àµįà´ ¡
Ġà®ļà¯Ĩà®¯ à®²
Ġf ler
ĠÃ§ ek
Î³ Î·
ĠáĥĲáĥ®áĥļ áĥĲ
ĠÐ´Ð°Ð¿ Ð°Ð¼
ĠÑĤ Ð°Ð¹
Ġamba po
ÙĦ Ø·
ĠÑĥ ÑģÑĤ
Ġ201 2
Ãĥ O
Ġtem ps
Ê ¼
ors ke
bili dade
ĠSa ya
Ġv je
Ïħ Ïĩ
p ili
p ont
Î Ĵ
ÏĦ ÎµÎ¹
ar ik
Ġi ke
Ġhaqq Ä±nda
ĠÙĨ ÙģØ±
Ð¸Ð½ ÑĩÐ¸
z ÄĻ
Ġdal l
ĠB á»Ļ
à¹ĥà¸«à¸ į
on om
Ø´ÙĨ Ø¨Ùĩ
ĠÑĢÐ°Ð±Ð¾ÑĤ Ð¸
Ġ3 56bet
ĠÑĤ Ð¸
ÐµÐ» Ð°
Ġd Å¯
Ġwor ld
li puri
àª¾àªµ àªµàª¾
ĠáĥĵáĥĲáĥ ¬
à¸µà¸¢à¸ ĩ
j os
Ġz ar
Ġà¤ªà¥ģà¤² à¤¿à¤¸
Ġda u
sk iej
Îº ÎŃ
Ġà®ķà¯ģà®± à®¿à®ªà¯įà®ª
p ov
à´¾à´´ àµįà´ļ
ĠÒĽÐ¸Ð» Ð¸Ð½
rij s
ÙĦ ÙĤØ©
Ġà°² à±ĩà°ķ
w ch
ĠÚ© Ø§ÙĨ
Ġesc ort
ĠÃ Į
Ġà¦¦à§ĩà¦ĸ à¦¾
çĽ ĺ
à«ĭàª ¶
Ġà°¤ à°¿à°°
ãĤ¿ ãĤ¤
== ==
Ġæ ĥ
an zi
ĠE ta
Ġan iq
Î´ ÎµÎ¹
Ø§Ø¯ ÙĬØ©
um iem
up á»į
Ġà°®à±ģà° ĸà±įà°¯
Ġpro pos
æķĻ èĤ²
e j
à¤¿à¤ Ĺ
à¤¤ à¥ĭ
Ġ äºĶ
à§ «
Ġà¦¹ à¦ĵ
Î¾ ÎµÎ¹
Ġt us
Û µ
ĠÑģÐµ ÑĢ
ĠN I
ch es
Ġv re
ÙĦÙĬ ÙĤØ§Øª
Ĺà¸¸à¸ ģà¸
Ġd ash
à´¿à´ļàµįà´ļ à´¤
à¹ĩà¸ ģ
Ġn á»Ļi
ĠÐ¿ÑĢÐµÐ´ ÑģÑĤÐ°Ð²
Ġpin ak
×Ĺ ×Ļ×Ŀ
wa y
Ġq at
Ġr Ã©g
Ã¡ cia
Ðº ÑĥÑĢ
áº± m
Ġl á»ĭch
àª¸ à«Ģ
Ġà®ª à®´
Ġà´¸ àµģà´
Ð´ ÐµÐº
Ġà¦¬ à¦¸
ĠØ³ Ø§Ø¦
Ġà´µ à´¾à´¯
Ġå¤§åıĳ æŀģéĢŁ
ÙĦ ÛĮÙħ
Ġk ri
à¹ī à¸Ļà¹Ģà¸
Ġ à¸Ńà¸Ńà¸Ļà¹Ħà¸¥à¸Ļà¹Į
à°¾à°³ à±įà°³
áĥ¡ áĥĲ
Ġli h
Ġby la
×Ľ ×ķ×ª
Ġà´µ à´´
Ġ à¹
um o
it taa
Ġvá» «a
Ð°Ð» Ð½Ð¸
ĠÅŁÉĻx s
Ġà¹Ģà¸ ŀ
ÅĤ at
è± ¡
makta dÄ±r
Ð°Ð¼ Ð¸Ð·
ĠØ³Ú© ØªÛĴ
ĠÑŀ ÑģÑĳ
Î¶ Î¯
ĠÐĿ Ð¾Ð²
Ġma ji
ĠÙĪØ²ÛĮØ±Ø§Ø¹ Ø¸Ùħ
Ġà¦Ĺ à§ĩà¦Ľà§ĩ
Ġth áºŃt
Ġc l
Ġm Ã©r
àª¿àª ľ
àª° àª¨àª¾
à¯Īà®¯ à®¿à®©à¯į
ĠÒĽÐ°Ð± ÑĥÐ»
ĠáĥĴáĥĺáĥĿáĥłáĥĴ áĥĺ
2 6
Ġàªķ àªµ
ëŁ °
Ġà´ħ à´±
ĠÑĤ Ñĥ
Ġ×¨ ×ĳ
Ã© ko
Ġamal ga
ĠÄ° stanbul
ªà¸ ¡à¸
j ell
Ġqili ng
×ł ×Ļ×Ķ
Ġà´ĩ à´¤àµį
ĠáĥĽáĥĺáĥ ¬
Ġà´¸ à´°àµįâĢįà´ķàµįà´ķ
Ġp on
Ġi ga
o ol
áĥł áĥĲáĥ¢
ĠMa x
ĠÐ¼ Ð°ÑĶ
m aks
ĠÐľ Ð¾ÑģÐº
¤ Ħ
ĠÎ½ Îµ
Ġàª¶àªķ à«ĭ
Ġàªªàª¡ à«Ģ
Ġàª¯ à«ģ
be i
Ùĥ Ø¯
ĠâĢĭâĢĭâĢĭ âĢĭâĢĭ
Ġà´¨à´Ł à´¤àµįà´¤
Ġëĭ¤ ë¥¸
Ġà°µà°¿à°¦ à±įà°¯
Ġ2 55
Ġil s
n jÃ«
à¦ŀ à§įà¦ļ
Ġd us
ĠÏĩÏģÏĮ Î½Î¹Î±
Ġarka daÅŁ
ĠÐ´ ÐµÐ½ÑĮ
Ã©s t
ĠÙĪ ÙĥØ§ÙĨ
ĠFem ei
Ġá»į dun
à®¿à®² à®¿à®°à¯ģà®¨à¯įà®¤à¯ģ
Ġà¦ħ à§įà¦¯
Ġàªªà«įàª° àª¯
ĠÑĢ Ð°Ò³
ĠØªØ± ÛĮÙĨ
Ġáĥ¡áĥ®áĥķáĥĲáĥĵáĥĲáĥ¡ áĥ®áĥķáĥĲ
Õ¥ Öģ
ĠØ¹ Ø±Ø¶
ÎĻÎļ ÎĹ
Ã¶ m
Ġnel l
) ,
Ġãĥ Ļ
Ã¡ y
dz Ä«
å·¥ ç¨ĭ
ĠÃ£ ÆĴ
Ġà°®à±Ģ à°°à±ģ
å¥½ çļĦ
ĠØ§ÙĦØ¥ Ø³ÙĦØ§Ùħ
Ġ×Ľ ×Ł
Ġà¦ĵ à¦ĩ
on er
Ġm 2
Ġë ģ
lam i
b all
å¼Ģå¥ĸ ç»ĵæŀľ
ĠØ§ÙĦØ° ÙĬÙĨ
ĠÄĳ áº·c
_ c
à®ķ à¯ģ
à§Ģà¦° à¦¾
Ġor a
â ĺ
Ø§Ø² Ûģ
ï¼ ĵ
Ġ×ĳ×ŀ× ©
Ø± ÙĬØ©
ya l
ĠÐ· Ð¼
Ġe der
Ġag åľ¨çº¿
Ġs ed
i vÃ¤
Ġea cute
ĠÑĤ ÑĬÑĢ
ĠÐľ ÑĸÐ½
Ñı ÑģÐ¿
Ġà¦¤ à§ĭ
åĥ ı
Ġnepie cieÅ¡
à¹Ģà¸ ĭ
Ġ×© ×Ĺ
Ð°Ñģ Ð¸Ð½Ð¸
ĠÑĦ Ð¾Ð¹
ĠØ¢Ø² Ùħ
Ġce i
ĠA gar
Ġli fe
Ġhy vin
Ġìļ ©
ĠáĥĴáĥĲáĥľáĥĲáĥªáĥ®áĥĲáĥĵ áĥĲ
Ġæīĭ æľº
ĠÐ¿ Ð°Ñŀ
à±ģà°¤ à±Ĥ
à´Ļàµįà´Ļà´³ àµĨ
us to
å¿« ä¹Ĳ
ĠÑĤ Ð¾Ð³Ð¾
ĠÎ±Î½ ÏĦÎ¯
atu ak
Ġà´ħ à´ª
Ñģ Ñĭ
áĥĺáĥł áĥĶáĥĳáĥ£áĥļáĥĺ
Ġnga y
Ġl ak
ĠáĥĴáĥĲáĥĽáĥĿáĥ §áĥĶáĥľ
à®¯ à¯į
áĥĲáĥĴ áĥĲáĥľ
ĠÐ±Ñĭ Ð»Ñĸ
de v
ĠÃ© c
ĠØª ÙĪÙħØ§ÙĨ
ĸà¸ ·à¸Ń
Ġà®¤à¯Ĩà®° à®¿à®¯
u ko
Ġkuto a
ĠÙħÛĮ ÚĪÛĮØ§
Ø¹ ÛĴ
ĠÑĢÐµ ÑĪ
ĠÛ ³Û
ĠáĥĽáĥ£áĥ¨ áĥĲáĥĿáĥĳ
ĠØŃ Ùħ
Ġà´Ł àµįà´°
g el
ĠáĥŀáĥłáĥĿáĥĴ áĥłáĥĲáĥĽ
o di
um us
ix o
Ġrr eth
ĠÐ²Ð° ÒĽÑĤ
Ġkok ku
gb el
×Ļ×ĳ ×ķ×ª
w on
Ġy ks
verp gbel
Ġ î
Ġà¦¹ à¦¾à¦°
ĠiÃ§ inde
ĠrÃ³w nieÅ¼
à¹Ħà¸ §
ĠÐ¿ Ð°Ð·
Ú© Ù¹
à¦Ĥ à¦¶
à¯ģà®¤ à®¾à®©à¯į
ç ¹
Î» Î¹Î±
en o
Ġse v
Ø§ÙĦ ØŃ
Ġà°¬ à±įà°°
Ġhy vÃ¤
Ġàªħàª² àªĹ
ĠÐ²Ð¸Ð» Ð¾ÑıÑĤ
ć ć
ĠÙĨ Øª
Ġà®¨ à®¿à®°
Ġàªľ àª¾àª¤
it Äģ
Ġdes ta
æŀ ģ
àª ·
Ġà´Ł àµįà´Ł
wa t
ĠØª ÙĥÙĪÙĨ
Ġàªħ àª¤à«įàª¯
n d
Ġàªķàª² àª¾àªķ
t Ä±k
æ¯ ı
Â ¶
ĠÙħØ¯ÛĮØ± ÛĮØª
Ġshqip tare
àµĭ à´ª
Ã¡n o
hk em
à¨ ¦
Ħà¸£à¸Ķà¸´à¸ķà¸ Łà¸£à¸µ
Ġf ree
Ġàª¬àªĤ àª¨à«ĩ
ti gt
Ġoli ka
Ø¦ ÛĮÚº
Ġà¸ ģ
qu er
Ġinc ont
Ġcre am
ÒĽÑĤ Ð¸Ñģ
Ġà°¤ à±Ĭ
Ġkh Ã³
Ġea ch
ĠÑĨÑĮ Ð¾Ð³Ð¾
à´¾à´¨ àµģà´³àµįà´³
Ġà¤® à¤¾à¤¨
å·ŀ æīĳåħĭ
ĠØ¨Ø± Ø¯
Ġnom Ã©s
à¦¿à¦ «
ÄŁit im
Ġprost itutas
ĠÅ ī
ÅŁa q
ĠÐ³ ÑĢÐ°Ñĵ
ĠÙģ Ùĩ
à§ĩà¦ ¯à¦¼
Ġà§§à§ ¨
Ĥ à¹īà¸²à¸
Ġl ishi
Ġforsk el
ãģª ãģĮ
Ġb Ã¬nh
ÐµÐ½ ÐºÐ¾
Ġàª®àªĤàª¦ àª¿àª°
Ġfa oliy
ĠA qu
Ġil let
Ġàªªà«įàª° àª¸
ĠÛģ Ø²Ø§Ø±
ĠK Äģ
Ġ ãģŁ
b el
ĠBratis la
áĥ¢ áĥĻ
à°°à±įà° ķ
Ġà¤¹à¥ģà¤ Ī
Ġp k
Ġpi erw
pun yai
ãģ® ä¸Ń
ĠØ² ÙĬ
d agan
la ydi
ĠØªØºÛĮ ÛĮØ±
à± ĸ
ĠÙħ ÙĩØ±
ĠÐ³ ÑĥÑĦ
Ġh uku
ÎµÎ¹ ÏĦÎ¿ÏħÏģÎ³
Ġà´İ à´¨àµįà´±àµĨ
Ġàª¬àª¾àª³ àªķà«ĭ
ê² Ģ
ĠW ar
Î¼Î² ÏģÎ¯Î¿Ïħ
Ġãĥ» ãĥ»ãĥ»
ĠØŃÙĪØ§ÙĦ ÛĴ
ĠÐ¿ Ð¾Ð½
ÙĤÛĮ ÙĤ
Ġà´¬ à´¨àµįà´§
Ġmaa aring
ÐµÐ½ÑĤ Ð°ÑĢ
Ġ×Ĳ ×ŀ
Ġs á»©c
áĥ¨ áĥĺáĥł
ĠÄĳ áº·t
ie c
y ÉĻn
ud uma
Ġpagk atapos
ĠM ag
fany ika
ĠáĥłáĥĲáĥĽáĥĵáĥĶáĥľ áĥĺáĥĽáĥĶ
Ġatt r
ÙĩØ§ÛĮ ÛĮ
ĠØ¨Ø±Ø® ÛĮ
ãģ¨ ãģĭ
àª¾àª¤ à«įàª®
us aha
ĠÑĢÐ°Ñģ Ð¿
Ġmo g
uri lor
ĠÚ©Ø§Ùĩ Ø´
áł ¤
ÑĪ Ð±Ñĥ
ĠÐº Ð¾Ð³Ð°ÑĤÐ¾
Ġà¦°à¦¹ à¦®à¦¾à¦¨
Ġtá»ī nh
Õ´ Õ¡Õ¶
ĠåĪĨ åĪĨå½©
ĠÚ© Ø¦ÛĮ
Ġå »
Ê» ili
Ġà®ļ à¯Ģ
Ð»Ð°ÑĢ Ð¸Ð½Ð¸Ð½Ð³
en Ã©
ten e
ĠA no
ĠÕ ¹
à¨ ¸
ĠÐ¸Ð½ ÑĤÐµÑĢ
am ing
Ġre ce
Ġmo lemo
Ġà°İà°¨à±įà°¨ à°¿à°ķ
àµĩà´ ľ
Î¼Î¹ Î¿ÏħÏģÎ³
Ð¾Ð» Ð°
ĠÙħ Ø·ÙĦ
ĠÐ¿ÑĢÐµÑĤ ÑģÑĤÐ°Ð²
Ġà¦Ľ à¦¾à¦¤à§įà¦°
è¾ ¹
Ġà´® à´¾à´±àµįà´±
Ġà´ª à´¿à´Ł
Ġà°ħ à°®
Ġac tiv
ĠÒ¶ ÑĥÐ¼Ò³ÑĥÑĢÐ¸Ð¸
æĹ¥ æľ¬
Ġlu Ã´n
ĠÃ¶ÄŁ ren
ĠÐ¸Ð½ ÑģÐ¾Ð½
Ġà´ª àµģà´¤à´¿à´¯
×ķ×ľ ×ķ×Ĵ
Ġà¤ļ à¥ģà¤¨
ĠáĥĽáĥĿáĥ Ĺ
à´¾à´· àµįà´Ł
ĠÑį ÑĢ
ĠÐŁ ÑĢÑĭ
çŃ ĸ
ĠÐ¼Ðµ ÑĵÑĥ
Ġx Ã¢y
st r
Ġfa c
Ġà´Ĩ à´£
la lu
àª¾àª¶ à«ĩ
Ġun de
ĠØµ ÙĪØ¨
ĠÎ± Î¾
f ani
ĠØ§ÙĦØª ÙĪ
Ġàªķàª° àª¶à«ĩ
ãģı ãģª
Ä¼ i
à°µ à°¿
ÉĻr ÉĻk
ta g
Ġs era
áĥĲáĥ¨áĥĿáĥłáĥĺáĥ¡ áĥĿ
ĠÐ± Ð¸Ð·
Ġà¦Ń à¦¾à¦ĩ
Ġà´ķàµĤà´Ł àµģà´¤
ĠÎ¬ Î»Î»
ĠM eng
Ġáĥ¤ áĥł
Ø±ÙĬ ÙĤØ©
Ġàª¬à«Ģàªľ àª¾
Ġbo g
Ġtse ba
éĶ Ģ
sch e
Ġà®µ à®¿à®µ
ÙĨ Ø¹
Ġin den
Ġlets atsi
è ĸ
Ø¨ ÛĮÙĨ
à¤°à¥įà¤ ¥
çļĦ ãģª
ìĸ µ
à¤¡à¤¼ à¥ĩ
ĠÙħØ´ Ø®Øµ
ar p
Ġpie dÄģ
ĠØ§Ø¬ØªÙħØ§Ø¹ ÛĮ
ĠtÉĻ q
ati es
Ġn á»¯
v s
Ġn enÃŃ
ĠØ¨ ÙĨØ§
Ġà¸ ģà¸£à¸
Ġt ant
Ġàªµàª¿àª ľ
ĠH ier
Ġà®® à¯ģà®ķ
ent ly
ĠÙĩÛĮ ÚĨ
ĠÐķ ÑģÐ»Ð¸
ĠØ¬Ùħ Ø§Ø¹Øª
Ġà®ķ à®¤
Ġë² ķ
áº« u
ci ja
ĠÐ¼ ÑĥÑĢ
Ð½Ð¸Ðº Ð¾Ð²
ja an
Îº ÎµÎ¹
ÙĬØ± Ø§ÙĨ
Ã °
ĠÐ½Ð°Ñĺ Ð´
ĠSp ie
gr am
Ġàªķ à«ĭàª²
Ġà®Ĵ à®©à¯įà®±
u da
à«įàª ľ
ĠC s
Ġaz ken
Ġà«¨à«¦ à«§
ĠÚ©Ø¨ Ú¾ÛĮ
à¹ģà¸ ģ
Ġì² ´
ĠÎ´ ÏħÎ½Î±
go t
ar et
å¼ ł
ij ini
Ġn la
Ġen am
ĠB Äĥr
æ® µ
Ġ ÑĢÑĭ
Ġ×ł ×¤
ÙĬ ÙĤ
ĠL o
Ġdur ant
ĠÚ©ÛĮ ÙĪÙĨÚ©Ûģ
à®¿à®¯ à®®à¯į
à±ĩà° ¦à°¿
ĠëĲ ľ
éĻ ©
ÙĪ ÙĬØ±
Ġà´¸ àµįâĢĮ
ĠÛ² Û°
ĠØ§Ûģ ÙĦ
Ã¶ t
Ġko ho
Ġà¸ªà¸ ¡à¸±à¸
ĠD onna
Ġà¦ªà¦°à§įà¦¯ à¦¨à§įà¦¤
ĠNguy á»ħn
Ġáĥ£áĥłáĥĹ áĥĺáĥĶáĥłáĥĹ
ĠÎŃ Îº
Ġà®ªà¯Ĩ à®¯
ķà¸²à¸ ¡à¸
Ġt ena
Ġuz ÅĨÄĵm
à®¿à®¤ à¯į
ĠæĿ ±
Ġdi r
à¯ģà® Ļà¯įà®ķà®³à¯į
Ã£ y
Ġsam pai
Ġh ir
di gan
Ġà°°à±Ĩ à°Ĥà°¡à±ģ
ÙĤÙĬ ÙĤØ©
ĸà¸ ¹à¸ģà¸
Ġz n
ç« ł
Ġà¤®à¥ģà¤ ĸ
ha vn
ª áĥĺáĥļ
Î±Ïĥ Î¯Î±
Î½ Ïİ
r Ã«
Ġà°µà±įà°¯ à°ķà±įà°¤
à´¾à´ Ļàµįà´ķ
Ġaf f
ke zÅĳ
ĠÚ©ÛĮÙģ ÛĮØª
ĠÐ±Ñĭ ÑĤÑĮ
ĠmÃł u
Ġd ov
ĠJ ak
åĶ ®
ĠtÃ¶rt Ã©n
Ġà°¤ à°°à±įà°µà°¾à°¤
Ð»Ñĸ ÑģÑı
Ġë§ ŀ
Ġàª² àªĩ
d Ã¶
Ġte z
Ġpos i
ìĹ Ĩ
Ùħ Ø¨Ø±
Ġs ÉĻ
ĠÐĲ ÐºÐ¾
à¦¾à¦® à§ĩà¦°
Ġk ij
ĠÚ©Ø´ ÙħÛĮØ±
à¥įà¤ ŀ
å¤© å¤©
Ġch iáº¿
Ø¯Ø§ ÙĪÙĦ
Ð°Ð»ÑĮ Ð½Ñĸ
Ġb áº¯t
ĠV ous
s m
ĠÐ» ÐµÐº
ĠÛģ Ø§ØªÚ¾
ĠdeÄŁ er
èģĮ ä¸ļ
à¸£à¸²à¸°à¸ «
Ġu0 4
ĢâĶ ĢâĶ
Ġà®İà®©à¯įà®ª à®¤
ļà¸²à¸ Ħà¸²à¸£
ä¸Ģ ç¯ĩ
ÙĪ ÙĬÙĦ
in ti
Ġe ff
ëĭ ´
Ð± Ð¸Ð¹
Ġag äºļæ¸¸
Äĵ ts
à°¿à° §
Ġà´Ĺ àµįà´°
cy jn
ĠéĤ £
ĠpÃ«r p
ÑĤÐ¸ÑĢ Ð¾Ðº
ra da
ØŃ Ûģ
áĥ£áĥł áĥĲ
Ġndi h
il di
è¯ ¥
Ġalt ri
ĠØ§ÙĦØ³Ø¹ÙĪØ¯ ÙĬØ©
in do
Ġvi da
Ġv iet
áĥĲáĥł áĥĺáĥĲ
Ġ×ŀ ×ķ×¦
ÑħÐ¾Ð´ Ð¸Ð¼
Ġz ou
Ã«sh t
Ġàª® à«ģàªľ
Ġæ į
us el
ces so
à±Ģ à°²à±ĭ
ĠíĮ Ĳ
b rÄ«
ÑĢÐ¸ ÑĶÐ¼
Ġë¬´ë £Į
Ġshk ak
p f
Ġ×Ĳ ×¡
Ġm Ã¼n
Ġma dh
Ð°Ð½ Ð¸Ð¸
å£ °
ìĿ µ
áĥĺáĥķ áĥĶ
Ġà¤īà¤¨ à¤ķà¥ĩ
Ð²Ð° ÐµÑĨÑĨÐ°
iz z
à°Ĥà°¤à±įà°° à°¿
Ġ×Ķ×ŀ× ¡
éķ ĩ
Ġhj Ã¦l
Ġà´İ à´´
gh an
àµģà´µ à´°
Ġà®¤à¯ĩ à®µ
Ġv rou
ÙĪØ³ Ø·
Ġal Ä±n
Ġva qt
Ġkab isa
ÑĦ ÐµÑĢ
Ġáĥ¤ áĥĿáĥłáĥĽ
ĠlÃ¤ bi
Ġà¦¥ à¦¾à¦ķà§ĩ
Ġb ek
Ġc ila
ĠÑĩ Ð»ÐµÐ½
æľ Ľ
æ² ¹
Ġbeza la
áĥ¡ áĥĶáĥľ
ĠØªØŃ Ø±ÛĮÚ©
Ġsa am
vo t
Ġwe we
Ġph aham
ĠáĥĽáĥĿáĥ Ļ
Ġàª§ àª¾àª°
Ġàªª àª¾àªĤàªļ
fÃ¼ hr
Ġpk 10
çĽ Ĭ
ĠÕ Ŀ
gr ound
Ġnj ia
ãĤŃ ãĥ£
ãĥŃ ãĤ°
ĠÑı ÐºÐ°Ñı
Ġmell om
Ġàª°àª¹ à«įàª¯à«ģàªĤ
Ġà´² à´ķàµįà´·
ĠØ¹ÙĦÙĬ ÙĩØ§
å® ¤
p ek
Ġz ile
Ġi gaz
Ħ à¸£à¸²à¸°à¸«
Õ Ń
à¤ Ľ
Ø¶ Ø§ÛĮ
is se
ho lm
Ġà´ķàµĬ à´£àµįà´Ł
i ak
dek lar
Ġìŀ Ħ
à¯ģà®µ à®¤à¯ģ
b ets
âĢ¦âĢ¦ âĢ¦âĢ¦
ĠÐ³ÑĢÐ°Ð¼ Ð°Ð´
Ġ @
à®¿à®°à¯ģà®ķà¯įà®ķ à®¿à®±
à¦¿à¦¯à¦¼ à§ĩ
ĠØ§Ùħ Ú©Ø§ÙĨ
Ġe es
f iki
à¯Ĭà®° à¯ģ
à¥ģà¤³ à¥ĩ
ì Ĥ
Ã«s isht
Ġáº¹ ya
ĠØ¬ÙĪ Ø§Ø¨
à§ģ à¦¸
Ġà´®à´² à´¯à´¾à´³
ĠÙĪÙĤ Ø§ÙĦ
Ġg om
áĥĺáĥ¢áĥĶáĥ¢ áĥĺáĥ¡
ĠáĥĴáĥķ áĥĶáĥłáĥĵ
a p
à°¿à° ¶
à¤¿à¤ §
Ġì² ľ
d Ã¼
Ġo am
Ã´ so
Ġger o
æıĲ ä¾Ľ
ĠÙĪ Ø¯
Ò³ Ð¸
èŃ ¦
æĪ ¦
Ðł ÑĶ
Ħ à¹īà¸²à¸
ĠÐ³Ð¾Ð´ Ð·Ðµ
Ġk im
ÄŁ lu
cia is
à°¿à° ¬
Ġà®µà®¾à® Ļà¯įà®ķ
ĠÕ ¨
eb ele
ĠÑı ÑŀÐ»Ñı
×ķ×ĳ ×ķ×ª
Ġìĭ ¬
lik te
à¯ģà®µ à®°
ÏģÎ¯ ÎµÏĤ
ëĵ¤ ìĿĦ
ĠÐ¼Ñĸ Ð¶
áĥ£áĥ¨ áĥĲáĥĿ
Ġqu v
Ð´Ð°ÑģÐ´Ð°Ñģ Ð´Ð°ÑģÐ´Ð°Ñģ
Ġà´¨à´¿à´¯ à´®
Ġla mang
ĠtÉĻ lÉĻ
ÑĥÑĢ Ð¸
v ang
ĠkÃ¶z Ã¶tt
ĠÚ¯Ø° Ø´ØªÙĩ
ÙĪÙĦ Ø§
ĠÃľ ber
Ġh jÃ¤l
bor g
Ġh idup
ĠÐ²Ð¾Ð· Ð¼Ð¾Ð¶
ĠÐ¡Ð¾ÑĦ Ð¸Ñı
Ø³Øª Ø±
ra j
esz cze
Ñĩ Ð°Ð¹
Ġà®ķ à®¾à®£
àªľ àª¨
Ġàª¬àª¦ àª²
Ġrivo j
Ġni kan
Ġmá»į i
ĠáĥĴáĥĲáĥĵáĥĲáĥ¬áĥ§áĥķ áĥĶáĥ¢
Ġs Äģk
Ġtá» Ń
å®ĺç½ĳ çĻ»å½ķ
èª ŀ
ĠÐ± Ðµ
à¤ķà¥įà¤· à¤¾
Ġs lik
Ġláº¹ hin
ĠÐ¿ÑĢÐ¸ÑģÑĤ Ð¸Ð³
íĻ ľ
ØªÙħ Ø¹
Î½ ÏĮ
ãģ® ãģ§ãģĻãģĮ
ĠS ty
ĠÐ¿ Ð°Ð¿
Ġtrabal ho
Õ¡Õ ¦
Ġè ½
ĠE x
å ª
Ð¾ÑĢ Ð¾ÑĪ
Ä«g u
Ġin forma
Ġà®µ à®¿à®´
neh men
Ġsahi p
Ġàª°àª¹ à«ĩàª¶à«ĩ
ĠØ¹Ø¯ Ø§ÙĦØª
ĠÐ· Ð°Ð»
ĠÙĨ Ø³Ø¨
Ġor ta
k lad
ĠÑĩÐµÐ» Ð¾Ð²
Ġà¦® à§įà¦¯
Ġby Å¥
ĠÐķ Ð²ÑĢÐ¾Ð¿
Ð² Ð°Ð»
åİĨ åı²
De tail
deklar asjon
éª Ĺ
ÄŁ Ä±n
åĪ Ŀ
Ġàª®àª¾àªĤ àªĹ
h os
cz ÄĻ
è¯ Ĩ
Ð² ÑĸÐ´
Ġà´ħ à´²àµįà´²
Ġbaha wa
ĠÐ¿ Ð¸ÑĤ
Ñĥ ÑĩÑĭ
Ġer ine
ĠÎ¼ Î¯Î±
Ġpro xe
ĠáĥĵáĥĲáĥĺ áĥ¬áĥ§
Ġas ÃŃ
ªà¸²à¸¡à¸²à¸£à¸ ĸà¸
Ġin kiÅŁaf
à±ģà°² à±įà°²à±ĭ
Ġàªµ àª¸à«įàª¤
rag en
Î±Î¹ Î¿
àªª àª£
ĠÐ±Ð¸Ð´ Ð°ÑĤ
p la
Ġs edan
Ġle i
Ġng ata
Ġtari x
à¦¾à¦ ·
Ġå°Ĭé¾Ļ d88
Ġv asta
Ġà´ħ à´®
ĠìĿ Ģ
ĠìĤ ¼
Ġh ist
Ľà¸£à¸°à¹Ģà¸Ĺà¸ ¨
Ġ ÈĻ
p rav
Ġ×Ķ×Ļ ×ķ×Ŀ
Ġáĥ¨áĥĶáĥ® áĥķáĥĶáĥĵ
Ġà®ª à®Łà¯įà®Ł
Ø¸ Ø§Ùħ
ĠÐŀ Ð²Ð°
dak Ä±
Ïĥ Î¼Î±
Ã³w i
Ġback ground
àª¿àª «
Ġà¦ķ à§įà¦¯
Ġà®ª à®¿à®Ł
áĥĺáĥľ áĥĲáĥľáĥ¡
is el
Ġa Ã±o
Ġáĥ¡áĥĲáĥĶáĥłáĥĹ áĥĲáĥ¨áĥĿáĥłáĥĺáĥ¡áĥĿ
Ð¸Ðº ÑĢ
à§ĩà¦Ľ à¦¿
Ġ×ķ ×ľ×Ķ
Ġe el
ĠO á¹£u
àµĢ à´ª
Ġà¸ Ĺ
ĠØª ÙĦÙĥ
Ġà°¸ à°¹
ĠÑĪÐ°Ò³ ÑĢ
è¯ Ń
ĠÐŁ Ð¾Ð´
à¤¿à¤ķ à¤¾
ĠN agy
Ġà®¤ à®ķ
éĻ į
Ġàªªà«įàª° àªķ
Ġàª²àª¾àªĹ à«ĩ
ĠÐ¼Ð°ÒĽ Ñģ
Ġàª¦ à«Ģàª§
à®¿à® £
Ġìļ ´
Ġgr and
Ħà¸ ¥
ĠÑĢÐµ Ð·
Ġthu áºŃt
ĠÎµÏĢ Î±
ĠÙĪØ§ÙĦ Ø¥
Ġï¿½ ?
Ġs est
à´Ļàµįà´Ļ à´¨àµĨ
ĠBu dap
ÑĹ Ð²
Ġph á»ĳ
ĠÛĮ Ø§Ø¯
Ġàª¨ àª¾àªĸ
Ġàªµà«įàª¯ àªµ
endele o
Ġà¦¯ à¦¦à¦¿
ĠáĥĲáĥł áĥĲáĥ¡
å± ŀ
Ġà´ķ àµģà´
k el
an ych
Ġmem punyai
Ġáĥ¨ áĥĶáĥ¥
×ķ×ŀ ×Ļ×Ŀ
ĠØ§Ø´ Ø§Ø±Ùĩ
Ãł s
l ti
Ġpri x
Ġà®ªà¯ĭ à®©à¯įà®±
à¸Ńà¸¢à¸¹ à¹Īà¸
ĠOs lo
ì¶ľìŀ¥ ìĦľë¹ĦìĬ¤
Ġìł Ĳ
Ġà¦¬ à§ľ
Ð°Ð² Ñĭ
Ġc Ã¢
Ġham da
ĠÐ± ÐµÐ»
ĠÑħ Ð°Ð±Ð°ÑĢ
ĠSty le
Ġf ana
ä¾ Ŀ
ĠÐ³ Ð¾Ð»Ñı
æ¸ ©
ĠÑģÑĬ Ð´
Ġà¦ħ à¦ª
Ġan no
ite Ä¾
O L
ĠÒĽ Ð°Ð´
Ġà´¤àµįà´¤ à´¿
ĠÐ¿ÑĢ Ð¸Ð²
is ki
Ġhon etan
ĠÑĤÐ°ÑĢ ÑĤÐ¸Ð±
Ġàªħ àª°
Ġà´¨ à´²àµįà´²
ĠH i
Ġc asa
st ell
à¯ĭ à®°
è² »
Ġthat a
Ġwai wai
ĠÐº Ð°ÑĩÐµ
Ġan cora
ÏĨ ÏĮ
×Ļ×Ĳ ×ķ×ª
ĠÙĪÙĩ ÙĬ
Ġen ts
Ġiz vÄĵ
ĠÐ¾Ð´ Ð½Ð¾Ñģ
ĠÐ±Ñĭ Ð»Ð°
ĠàªŁ à«Ģàª®
ĠØ¶Ø± ÙĪØ±Øª
ÐµÑĢ Ð³
Ø±ÛĮ ÙĤ
Ð°Ð² Ð¸Ð¹
Ġà®Ĩ à®£à¯įà®Ł
Ã«s isÃ«
à¯Īà®ķà¯įà®ķ à¯ģà®®à¯į
ĠÐ±Ñĥ ÑĤÐ¸
Ø¬ Ø§
Ñĳ Ñŀ
Ġà¦¬à¦¿à¦ ª
ÑĥÑİ ÑĤ
f s
à´¿à´¯ à´¤àµį
èĭ ı
ĠÐ± Ð°Ð»
à§ĩà¦¤ à§įà¦°
ĠÙ¾ Ø²Ø´
ãĥ³ãĥ ģ
Ġìłľ ê³µ
ĠØ¢Ø¨ Ø§Ø¯
isi Ã³n
Ġsebel um
à§ģà¦¦à§įà¦§ à§ĩ
ĠØ´ ÛĮØ±
ĠG esch
Ġaga in
ĠÐ± Ñı
ë§ Ŀ
Ġre la
Ġdit o
Ġh es
Õ¡Õµ Õ«Õ¶
ĠÐ´ ÑĬÑĢÐ¶
à®ªà¯įà®ª à¯ģ
ĠØµ Ø¯
Ġà°ı à°®
Ġ×Ķ×Ľ ×ľ
áĥĴ áĥ£áĥ¤
ĠØ¬ Ø§Ø¦ÛĮÚº
Ú¯ Ûģ
à¤¾à¤ļ à¥Ģ
ĠÐºÐ°Ð¼ Ð¿
ìĿ´ ëĤĺ
la ya
Ġha le
Ġt Äģs
Ġk itu
fa ch
Ġà´ķ àµĤà´Łàµįà´Ł
ĢâĻ ĢâĻ
ĠM Ã«
à¤µ à¤Ĥ
l ish
Ġal c
ate a
pu is
ĠàªĹ à«ģ
Ġà®¤à¯Ĭ à®´
¨à¸ ¶à¸
yo l
Ġte ge
è¡ Ģ
ÏĦ Ïĥ
9 0
ĠÎµ Î¹Ïĥ
it ty
ĠprÃŃ s
ĠÎºÏĮ Ïĥ
ãģ¡ ãĤī
ãģķãĤĮ ãĤĭ
z uri
Ġà¦¢ à¦¾à¦ķà¦¾
ä¸Ń æĸĩ
Ġci utat
ĠØ¬ Ø²
æĿ Ĳ
à¥ģ à¤¸
Ġch ini
i gi
ĠÒĽ Ð¸Ð·
Ġà®® à®¾à®±à¯įà®±
×ĳ ×ķ×¢
à¤¾à¤ļ à¤¾
Ðº ÐµÐ½ÑĤ
Äĵj Äģ
Ġà°ħà°§ à°¿à°ķà°¾à°°
è Ĺ
ut u
cze g
à°Ĥà° Ń
Ġberk ata
áĥĺáĥļ áĥ¡
à¤¶ à¥Ģ
Ã¡ mo
Ġíķ¨ ê»ĺ
ÉĻs ini
v gr
ok uwa
Ġè¿ ĺ
er on
ĠG ro
f ol
tÄģ ju
ªà¸³à¸« à¸£à¸±à¸ļà¸
Ġo x
ÉĻt ÉĻn
Ġà´µà´¿à´ ľ
Õ« Öģ
Ġdi o
ĠÑĤ Ð°Ð»Ð°Ð±
ĠØ§ÙĦÙģ Ø±
ĠÙĤ Ø¨
à¹ Ħà¸£
Ġma Ê»
Ġli q
Ġs Ã¶yle
æĶ¿ åºľ
Ġd ost
Ð°Ð»Ðµ Ð¶
Ġèī ²
ĠÎ ŀ
Ġ×ŀ×¡ ×¤×¨
ãģ«ãģª ãģ£ãģ¦
wa dz
Ġà´¤ àµĢà´°
ĠolduÄŁ unu
Ġàª¶ àª¬à«įàª¦
ÉĻs s
Ð¸ÑĢ Ð°Ð½Ðµ
à¤ķ à¥ĭà¤Ĥ
ĠÐ´ÑĢÐ¶ Ð°Ð²
à§Ģ à¦²
×Ļ×¡ ×ĺ
Ġìĭľ ê°Ħ
å½± éĻ¢
ÈĽ e
Ġàª®àª¾àª£ àª¸
Ð¸Ð½Ð¸ ÑģÑĤÐµÑĢ
ati ke
á»ķ ng
Ġæ ¥
à«Ģàª Ĩ
Ġ×ĳ ×ĸ
ĠÏĥÏĩ ÎŃ
Ġàªľ àª¿àª²
ĠÐ½Ð°Ð¼ ÑĥÐ´
r Ã¡t
Ġga be
ÛĮÙĨ Ûģ
ĠØ¯Ø§Ø± Ø§ÛĮ
ĠÃ ħ
Ġte ch
va li
mis el
ĠÎ£ ÏĦÎ·
ĠÐ²Ð¸ÑĢ Ð¾Ð±
ĠÐ²Ñĭ Ñģ
Ġb ana
Ã¼ks ek
ĠãĤ ¦
ĠÐ¼ ÐµÐ´
le wa
w ert
ĠSu id
ĠAr beit
Ġà°Ĵ à°ķà±įà°ķ
Ġàªīàª¤ à«įàªª
ĠÑģÑĤÑĢÐ°Ð½ Ð°
ĠÃ¶nem li
ĠáĥĶáĥĻ áĥĿáĥľáĥĿáĥĽ
áĥĲáĥª áĥĶáĥĽ
Îµ Î²
áĥĿáĥĵ áĥĺ
à¤°à¥įà¤ ¸
áĥĶáĥ¢ áĥĺ
à§įà¦¯ à§ĩ
áĥľ áĥĺáĥĹ
ĠÙĬ Ùı
ĠÑģ ÑĤÐ¾
×Ļ×ŀ ×Ļ×Ŀ
à¤¿ à¤Ĥà¤¦
àª£ à«ĭ
à®¾à®³ à®°à¯į
áĥ« áĥ¦
ĠàªĹà«ģàªľàª°àª¾àª¤ à«Ģ
ul ad
à´ķàµįà´ķ àµģà´¨àµįà´¨
m ÉĻd
Ġin om
im mÃ¤
àµĬ à´´
ÛĮØ´ Ùĩ
ĠÑģ ÑĥÑĢ
à°¾à°µ à±ģ
ich o
áĥłáĥª áĥĶáĥļ
Ġ×Ĳ ×ķ×¨
ç´ ł
ĠÐ±Ð¾Ð» ÐµÐµ
Ð± Ð°ÑĤÐ°
à¯ģà®Ł à¯įà®Ł
ĠÑģÐµ ÑĢÐµÐ´
Ġnh á»ı
Ġph á»¥
Ġa likuwa
Ġmember ikan
ãģĶ ãģĸ
ç§ ¯
ĠÎ» ÎŃ
ÙĪØ¯ Ùĩ
Ġr ych
m l
Y A
ĠÐ¨ ÑĥÐ½
éĵ ¾
Ġç Ĵ
Ã¡ri a
ĠÐł ÐµÐ¿
ĠØ¨Ø§ÙĨ Ú©
Ġà®µ à®²
à°° à±įà°²
à°°à±įà° Ĺ
ĠAG äºļæ¸¸
ĠÐºÑĥÐ½ Ð¸
am l
da mu
ĠØ£ Ø®Ø±Ùī
2 1
à®¿à®© à®°à¯į
áĥĺáĥķ áĥĺ
Ġu h
Ñĸ Ð³
à°¾à°² à±įà°¸
Ġà°ħà°¨ à±ĩ
Ġn r
Ħ à¸Ńà¸
ĠÑĢÐ°Ð· Ð²
ĠD Ã¶vlÉĻt
ĠÐ² Ð¿
Ġ×Ĵ ×¨
Ġbo l
Ġmen s
ĠÃ¤r a
Ġwá»įn yi
è²¸ æ¬¾
áĥľ áĥĶáĥ¡
Ġth anh
à¸Ļà¸± à¹īà¸Ļà¸
à®¤à¯įà®¤ à®¿à®±à¯įà®ķà¯ģ
à®¾à®Ł à¯ģ
ĠÎł Î¡
Ù¾ ÛĴ
ĠÑģ Ð¾Ð·
Ġh iss
Ġa ÄŁ
Ġho i
ur as
Ġàª®àª¾àª ¹àª¿àª¤
is ko
Ġq iy
Ġbat en
niec Ä«bas
æ ¿
Ð¸Ñħ Ð°
Î»ÎµÏħ ÏĦÎ±
Ġï¿½ï¿½ï¿½ï¿½ï¿½ ï¿½ï¿½ï¿½ï¿½
Ġod powie
ĠáĥĴáĥĲáĥľáĥĽ áĥĲáĥķáĥļ
m iy
h asil
ĠÒĽÐ¸Ð» Ð³Ð°Ð½
àª¨ àª®àª¾àªĤ
à´¿à´ İ
ÐµÐ½ Ð°ÑĤÐ°
Ø±Ùģ ÛĮ
Î¯Î¶ ÎµÎ¹
â Ļ
×Ļ×Ĺ ×Ķ
arr ak
Ġole ks
Ġà°ķà±Ĭ à°¤à±įà°¤
ang iz
ĠáĥĽáĥĹáĥĲáĥķ áĥĲáĥłáĥĺ
Ġhak k
ad Ä±n
Ġngh á»ĩ
ĠØ¬Ø§Øª ÛĮ
gen s
Ð¼ Ð°Ð¹Ð´Ð¸
© ´
áĥĶáĥłáĥ ľ
Î» Î¯Î±
st vo
v re
ĠìĿ Į
æĪĲ äºº
Ã¡s Ã¡r
Ġl id
Ġcon ta
ci ales
Ø±ÙĬ Ùħ
ĠC ara
ĠÐ°Ð¹ ÑĤ
Ġes to
p ut
ril gan
Ġàª§ à«įàª¯àª¾àª¨
Ø± ÙĬÙĨ
Ġë¬¸ ìłľ
Å¯ so
Ġä¸ ľ
ĠìĿ´ë ²
Ġàªĺ àª£àª¾
g ru
ĠÑĤ Ð°Ð³Ð¾
àµĨà´Ļàµįà´ķ à´¿à´²àµįâĢį
ĠN uk
àµĩà´ ¦
Ġà¦¸ à¦°à§įà¦¬
Ġà®ļà¯Ĩà®¯à¯įà®¤ à¯ģ
ãģ£ ãģ
Ð°ÑĤÐ¾ Ð°
Ð°Ð¼ Ð¼
Ġh atua
áĥĶáĥĹ áĥĶáĥ¡
à¨ ķ
Ġàª¸ àªĤàªķ
ķ à¹īà¸Ńà¸ĩ
Ġet á»įn
Ġáĥ¨ áĥĺ
Ð½Ð¸ Ðµ
la in
áĥ¥ áĥķ
Ġà´Ł à´¿
K I
Ð¾Ð½ Ð¾ÑĤ
áł ¡
×ķ×Ĳ ×Ķ
ĠØ§ÙĦØ¹ ÙĦ
Ġà´¶ à´°
à¯Ī à®¤à¯į
Ġ3 6
Ġàªªàª¸ àªĤàª¦
à°ķà±įà° ¸
Ïĥ ÏĥÎ±
Ġà®ķà®° à¯ģà®¤à¯įà®¤
Ġba ba
å¿ Ĺ
à¤¨ à¤²
à¥įà¤Ł à¥Ģ
k Äħ
Ġà¤«à¤¿à¤² à¥įà¤®
ÎŁÎ ľ
Ġ. ,
ĠÙĤ Ø§Ø¨ÙĦ
ÙĪÙĦ ÛĮ
ĠÙħØ¹ Ø§Ø´
ck Ã¡
Ġwali o
Ġ×Ľ ×ķ×ľ
Ġà®° à¯Ĥ
Ġì² ĺ
Ð½Ð¸ ÑĨÐ¸ÑĤÐµ
n el
Ġni lo
à§ģà¦ ģ
Ê»o he
zi on
pa a
ĠÐ¸ÑĪ ÑĤÐ¸ÑĢÐ¾Ðº
Ġf Ã«m
ĠS te
àµĬ à´ķàµįà´ķàµĨ
áĥĸ áĥĲáĥķ
Ġ×ĳ ×ł×Ļ
ĠA i
á» Ľi
ĠÄĳ áº¡o
Ġnel le
Ġ×§ ×¦
wa lan
Ñģ ÑĨÑĮ
Ġàªľ à«ĩàªµàª¾
Ġwa la
Ġng ÉĽ
C J
ĠãĢ ľ
Ð°Ð¶ Ðµ
Ð°Ð»ÑĮ Ð½Ð¸Ð¹
ĠìĤ ´
Ð¿ ÑĢÐµ
ĠìĦł íĥĿ
×ķ×Ľ ×ľ
ĠÑģÐ¿ Ðµ
Ð» Ð°Ð¹Ð½
áĥĶáĥ ĸáĥĶ
ĠÎµÎº ÎµÎ¯
ti min
à±ĥ à°·
ut os
ĠÐ²Ðµ ÑĩÐµ
Ġol m
Ġvil Ã¡g
ĠØ¬ÛĮØ³ ÛĴ
Ġà°µ à°¾à°Ł
¶ à¹Īà¸ĩ
Ã¼n de
Ġay r
st el
Ġjed nak
ĠÐ¼ÑĸÑģ ÑĨÐµ
it eit
ĠRe p
Ġzo te
Ġberb agai
ag itan
Î¸ ÏģÏī
ĠëĬ Ķ
Ġa x
v Åĳ
Ð¾ Ñħ
ä¹ĭ æĺŁ
ov er
Ġg Ã¥r
ÙĩâĢĮ ÙĩØ§
ĠmÃ¤ Ã¤r
Ġku iten
a a
Ġc rÃ©
è¶³çĲĥ æ¯ĶåĪĨ
Ġà¤¸à¤¿à¤Ĥ à¤¹
Ġà°ª à±ĩ
à°² à±įâĢĮ
bili tat
ĠÐ¼ Ð°Ð¼Ð»Ð°ÐºÐ°ÑĤ
Ġï¼ ı
à¥ĩà¤ ·
à¹ģà¸ ķà¹Īà¸
Ġáĥĳ áĥĿáĥļ
ĠÑī Ð¾Ð´
ĠáĥĲáĥ¡ áĥĶáĥĹáĥĺ
Ġer ag
à¤Ł à¥Ģ
ene z
Ð¾ Ñī
Ġl at
ĠÐ³ Ð°Ð»
ĠT as
Ġj Ã¤Ã¤
ĠÄ ·
r am
ĠÐ° Ñħ
×¤ ×ķ
ĠÐĿ Ð¾
Ķ ëĭ¤
Ġc le
åħ ´
ter s
ÑĢÐ° ÑĨÑĮ
Ġà®ļ à®Łà¯įà®Ł
ĠiÅŁ tir
Ùĩ ÙĲ
Ġàª®à«ĭàªŁ àª¾
ĠB ashk
à¤¾à¤¤ à¤¾
ĠM wa
am á»į
Ä«g Äģ
gi ya
Ġpjes Ã«
çµ Ħ
Ġtij d
l Ä«
ĠÑĤÐ° Ð°
à¥įà¤² à¥Ģ
ĠÐ³ ÑĥÐ»ÑĮ
Ġr ast
ĠÑĸÐ½ ÑĦÐ¾ÑĢÐ¼Ð°
ĠØªØ¹Ø¯ Ø§Ø¯
Ġà®µ à®¾à®°
ĠØ§ÙĦØ´ ÙĬ
Ġç ģ
Ġdig ÉĻr
Ð¾Ðº Ð¾ÑĤ
Ġàªķ à«įàª²
Ø² ÛĮÙĨÙĩ
Ġk ili
ĠÎ¾ ÎµÎ½Î¿Î´Î¿
ĠÕ į
à°Ł à°Ĥ
Ġb os
æĻ º
-- --
Ġà´ķ à´³
Ġc ad
Ġg ir
ĠD I
Ġl idt
ĠÛ ¶
Î¸ Î±
Ġà°ķ à°¾à°¦à±ģ
Ġ×Ļ ×¨
§à¸ ĩà¸
Ġaj al
Ð°Ð² Ð°Ð½Ðµ
ĠáĥĴáĥĲáĥľáĥĽáĥĲáĥķáĥļ áĥĿáĥĳáĥĲáĥ¨áĥĺ
ĠÙĨ Ø§
ÙĪØ¯ ÛĮ
ĠM il
ĠB ut
à´ķàµįà´ķ àµģ
Ġd Ã¶v
Ġk Ä±
ho ra
Ġwh ile
Ġ×¨ ×Ľ
Ľà¹ĩ à¸Ļ
b res
ĠØ§ÛĮÙĨ ØªØ±
ĠØŃÚ© Ùħ
lo li
Äħ c
Ġrs at
Ð¸Ð¼ Ð°
ĠÐ½ Ð¸Ð·
ÅŁ te
Ġmen ye
Ġj on
Ġà¦¤ à§Ī
an ang
Ġto ll
Ġy etu
Ġk á»³
áĥ¢ áĥĿáĥĽ
ĠìĿ´ë Ł
×ķ×ĵ ×Ļ
à´¿à´¯ à´¿àµ½
ĠìĦľ ë¹ĦìĬ¤
ĠÐ´ÑĢÑĥ Ð³Ð¸
Ġpro cess
å¿ħ è¦ģ
Ġáĥ£áĥ ĸ
×Ļ×§ ×¨
Ġp he
ĠR M
Ð°Ð»ÑĮ Ð½Ð¾ÑĹ
ĠÚ©Ùħ Ú©
Ġperson as
ĠÙĦÙĦ ØŃ
zi en
Ġsh ak
Ġall t
ĠÏĩÏī ÏģÎ¯ÏĤ
Ġà®¨ à®©à¯įà®±
à´¿à´¨àµįà´ ¤
Ġà¦® à§ģà¦ķà§įà¦¤
ÙĤ Ø§ÙĦ
Î³ Î¼Î±
m Äĵr
Ġk rij
Ġy orum
Ġnh Ã¬n
ĠÏĮ Î»Î±
ĠÐ¼Ð¾Ð¶ Ð»Ð¸Ð²
ÑĨ ÐµÐ¹
ĠÐ¿ÑĢÐ¾Ð¸Ð·Ð² Ð¾Ð´
àª¾àª ¢
Ġáĥľ áĥĲáĥĹ
Ø± Ø§Ûģ
à§Ģ à¦ķà§įà¦·
ĠìĺĪ ìķ½
Ġìĭľ ìŀĳ
Ð¾Ð¿ ÑĢÐ¾Ñģ
ĠÙĨÙĤ Ø´
ĠÐ ®
ĠÐ¾ Ð½Ð¸
Ġ ÙĢ
ĠØ§ÙĦ ÙĪØ²
ĠÙ¹ ÛĮÙħ
Ġmendapat kan
Ġà¦ī à¦ļ
ĠÙ¾Ø± Ø³
Ġà®Ĩ à®ļ
à¦¾à¦° à¦¿
ĠÃµ ig
ch od
ti cas
Ġc ustom
Â ¾
à°¿à°ķ à±į
ĠÎµÏĢ Î¹Îº
t ÉĻb
áĥĺáĥ¡ áĥĺ
Ġvend os
Ġph á»¥c
Ġpo lÃŃ
á¹£ á»į
y ing
E K
Ġv áºŃt
à¤¡à¤¼ à¥Ģ
à¨¾à¨ Ĥ
Ġq az
à¥ĭ à¤ª
æ¼ Ķ
ÏĨÎ¿ Ïģ
Ġp ula
ĠS Ã¥
Ġray on
al ment
Ġà¦ĩà¦ī à¦¨
à§įà¦¯à¦¾à¦¨ à§įà¦¡
m ad
Ġje go
Ġà¦ľà¦¾à¦¤ à§Ģà§Ł
Ñĸ ÑĤÑĮ
ĠàªĽ à«ĭàª¡
Ġa ang
ri i
Ð°Ñĵ Ð°ÑļÐµ
Ġh t
Ġìķ ½
Ġè ¾
Ġro hkem
ĠØ§Ø «
áº¡ y
ĠÙħÙĨ ÙĩØ§
Ġs ÉĻb
à§ĩà¦ ·à§įà¦Ł
ĠÐ³ÑįÑĤÑĭ Ð¼
ĠàªŁ àªķàª¾
ci r
Ø± Ùī
åĨ ł
Ġà¨ ª
Ġà°ļà±Ĥà° ¸
ĠÐ² Ð¶Ðµ
ati a
tl ak
Ġà®®à¯ĩà®² à¯ģà®®à¯į
Ġáĥ®áĥĶáĥļ áĥĺáĥ¡áĥ£áĥ¤
é Į
ĠÐľ Ð°ÑĢ
to ja
é¤Ĳ åĬłçĽŁ
Ġllo c
ĠÐ³ÑĢÐ¾Ð¼ Ð°Ð´
Ġir an
Ġè¦ ģ
é º
ĠÐ¸ÑģÑĤ Ð¾
cz as
Ġfaz la
Ġà¦® à§Ĥà¦²
Ġà¦¸à¦Ń à¦¾à¦ª
Ġà´ª à´ķàµįà´·
Ġà¤® à¤¾à¤°
ãĥ¼ãĥ ĸ
Ġà¤ķà¤° à¤¤à¤¾
Ġê°Ļ ìĿĢ
ëĳ ĳìĿ´
à¦¸ à¦¹
ĠØªÙĨ ÙĩØ§
y ek
Øµ ÛĮ
Ġà°µà±įà°¯ à°µ
çı Ń
à«ĩàª ł
Ġte h
f arÃ«
ĠvÃ¦r t
Ġma e
ĠÙħ Ø§Ø´
Ïĥ Î¹Î¿
Ġæī Ģ
Ġà°° à°¾à°®
Ġnh anh
à®¿à®¨à¯įà®¤ à¯ģ
Ġà§¨à§¦à§§à§ ¯
ĠÙħÚ© ÙħÙĦ
Ù Ķ
Ġà¦ĵ à§Ł
à´§ à´¾à´¨
Ø§ÙĦ Ùī
ĠM t
Ġfa cial
ĠØ³ ÛĮÚ©
áĥĶáĥľ áĥ¡
ĠÑĳ Ð·
jer i
à´ªàµįà´ªàµĭ à´´
Ġquy á»ģn
Ġàªķà«ĩàªŁàª² àª¾àªķ
Ġà´µà´¿à´¦ àµįà´¯
ĠÐ² Ð°ÑĢ
ĠÏĢÎµÏģÎ¹ÏĥÏĥÏĮÏĦÎµ ÏģÎ±
ĠÙģØ§Ø± Ø³ÛĮ
Ġn Æ¡i
Ġlain nya
Ġre ci
Ġàªµà«įàª¯àªķà«įàª¤ àª¿
ĠØ§ ÙĤØ¯
Ġb Ã¤
Ġp upá»į
Ġà¦¸ à¦¾à¦¹
Ġàªī àª¤à«įàª¤
k st
ĠTosh kent
wy r
ĠíĬ ¸
ĠÐ²Ð°Ð· Ð¸ÑĢ
Ġj Ã¡r
Ġk ina
ĠÙĪØ§ÙĦ Ø§
Ùħ Ø³
Ġà¦¹ à§ĭà¦¸
à´¾à´£ àµįâĢĮ
Ġï¼ ĳ
à®Ļà¯įà®ķà®³ à¯ģà®ķà¯įà®ķà¯ģ
ĠnÄĽ k
ÒĽÑĤÐ¸Ñģ Ð¾Ð´
Ġ ãģ«
ĠáĥĴáĥĲáĥĽ áĥĿáĥķ
ĺ à¸£à¸£à¸
wa ar
Ġvi ta
Ġà¸ ļà¸
à¤ķ à¤¾à¤°à¥Ģ
i an
Ġon de
as tal
ÏĢÎ¿ ÏĤ
ub wa
ĠÃ¶s sz
gra f
Ġtá»¥ c
ĠàªĨàªª à«ĩ
Ġ×ľ×ŀ× ¢
à¥įà¤° à¥ĩà¤¸
Å¾ u
ĠN ous
Ġbli ve
Ġà®®à®ķà¯įà®ķ à®³à¯į
Ġjot ka
à°° à±įà°¯
×¦ ×Ļ
×¨ ×¥
ĠÚ©Ø§Ùħ ÙĦ
à¤ı à¤¸
Ġqe yd
b uru
Þ ¬
Ġà´ª à´¤
à¦¿à¦ ·à§įà¦Ł
Ġm áº¡nh
ĠNa zir
à¥ĭ à¤§
Ġá¼ Ĳ
Ġl Ã¦
ra z
ªà¹Īà¸§ à¸Ļà¸
Ġáĥ¢áĥĶáĥ¥ áĥľ
Ùİ Ø©
Ġà´ ļàµįà´ļ
Ġdit Ã«
Ġar ound
Ġàªħàª¨ à«ģàªŃ
áĥĶáĥĽáĥĳ áĥĶáĥłáĥĺ
Ã© z
r Ã¡v
ĠÎµ Î»Î»Î·Î½
ä¾¡ æł¼
Ð¾Ð± ÑħÐ¾Ð´Ð¸Ð¼
ĠáĥĽáĥĲáĥĺáĥľ áĥª
Ġan fani
íķ ´ë
Ġà®µ à®¾à®¯
ÙĨØ¯ Ú¯Ø§ÙĨ
Ġya y
mÉĻy ÉĻ
Ġet wa
v ate
lan do
Ġa gba
Ġrend szer
Ġáĥ¡áĥŀ áĥĶáĥª
ĠíķĦ ìļĶ
ãĤī ãģĦ
Ġv Ã¡r
ake ta
à¦ ¯à§ĭà¦Ĺ
Ġby lo
Ġk ind
Ġj arra
Ġà¤ħ à¤ļà¥įà¤Ľ
Ġàª¸ àª¤
ÙĪØ² ÛĮ
Ġ×¡ ×¤×¨
ĠÎĿ Î±
ĠE uro
Î¼ ÏİÎ½
åº ķ
×Ļ×ĳ ×ķ×¨
ĠÐ¿ Ð»Ð°Ð½
Ġpamam agitan
ŀ ĺ
ĠÐ¸Ð¼ Ðµ
é¦ Ĩ
ce a
Ġwa toto
Ġvl ast
Ġà« ¬
ĠÐ±Ñĭ ÑĨÑĮ
ãģ¨ ãģĵãĤį
ĠÐł ÑĹ
à¯Ĥ à®°à¯į
×Ĳ ×ľ
Ġà´İ à´¸àµį
ĠÅ ½
Ġdiffer ent
à¥ĥ à¤¤
Ġà¦ª à¦¦
ĠÐ¸Ð¼Ð° Ð°ÑĤ
ãĤ ¡
Ãª te
ê° Ŀ
Ġà¤ķ à¥įà¤°
Ġda x
Ġê¸° ìŀĲ
ĠÊ»a Ê»ole
Ġà°§ à°°
Ù¹ Ø§
ĠÐµ ÑĢ
Ġàª¶ àª¾àª¹
Ġ ÈĽ
Ġpro p
à®¨à¯įà®¤ à®¿à®°
à®¾à®µ à®¿à®©à¯į
áĥłáĥ« áĥĶáĥļ
es inde
qu ip
Ġcan do
Ġbar ÉĻdÉĻ
Ð°Ð² Ð°Ñŀ
à¥ĩà¤ ¬
ĠÎĳ ÎĿ
à´Ĥ à´¬
Î½ Î¬
áº¹ áº¹
Ġqu ello
Ġh áº¿t
Ġsi en
áĥĲáĥĸ áĥĺ
Ġë¯¸ êµŃ
Ġà´ ĸ
Ġk Ã«s
Ġ×ľ×Ķ ×Ĵ
à°¾à°¬ à°¾à°¦
Ġà®ªà¯Ĩ à®°à®¿à®¯
ë ĥ
Ġàª¬ àªľ
ÛĮ ÛĴ
ĠÎĳ ÏģÏĩ
Ġi g
ÉĻn d
ÏĦ Î¶
Ñģ ÑĨÑĸ
ha a
Ġak ing
ĠF ete
Ġà´ªàµģà´± à´¤àµįà´¤
ĠÛ ±
áĥ£áĥ¡ áĥ¢
Ġç Ħ
Ġht ml
Î» Î¹Î¿
à§ĩà¦¶ à¦¨
âĢ Ķ
ĠÐ¼ Ð°Ð·
Ġth ay
ĠÐº Ð°Ð»
Ġes an
Ġ201 5
ĠO lu
ĠÐ² Ð¾Ð´
ĠáĥĲáĥł áĥĺáĥĲáĥľ
ĠÚ©Ø±Ø¯ ÛĮØ§
à¯ģà®ķ à®³à¯Ī
ĠH and
al lis
Ġè ¥¿
Ġàª® àª¤
il ÉĻn
Ø§Øª Ùĩ
ar Ã«t
à´³ àµģà´ŁàµĨ
ÑĥÐ² Ð°Ð¼Ðµ
Ġv ik
Ġdes en
Ä±lÄ± b
Ġv alsts
Ġáĥ¢ áĥĶáĥļ
à´ķ àµ¾
ÑĪ ÑĩÑĭ
à±įà°¸ à±įâĢĮ
Ã¡l t
çķ ¥
Ġinform atie
à¥ĩà¤ ³
Ġà¤ħ à¤¸à¥ĩ
Ñĺ ÑľÐ¸
Ġbashk Ã«
à¸´à¹Ģà¸ Ħà¸£à¸²à¸°à¸«
Ø§Ø¦ Ø²
ĠØªØ± ÙĤÛĮ
è¿ ľ
to ck
Ġs ous
ĠÐ³Ð°Ð´ Ð¾Ñŀ
Ġâ Ŀ
à®¿à®ķ à®´
Ġya li
à¦® à¦¨à§įà¦¤à§įà¦°à§Ģ
èŀ į
àª¾àª° à«Ģàªĵ
ĠD at
Ġkuto kana
ĠáĥĴáĥĲáĥľ áĥĲáĥĹ
Ø¶ Ø§ÙģØ©
Ġé Ĺ
ĠãĢĳãĢĲ ï¼
Ġsam t
Ġáĥ¡áĥĲáĥĺ áĥľ
à«ģàª ¡
Ġma d
Ġoff er
á»« ng
ÑĦ Ñĸ
Ġpu bbli
ĠáĥĽ áĥĲáĥłáĥĹ
æ¹ ĸ
à±Ĩà°Ł à±į
Ġ| |
Ġte ha
ov ern
æ ½
Ġf iyat
Ġha ce
Ġx Ã¼s
ĠÙħØ¹ Ùħ
Ñı Ð³
ĠÐ³ÑĢ Ð½
Øº Ø§ÙĨ
Ġdi ye
Ġph Ã¢n
Ġà¦ĸ à§ģà¦¬
Ġn ed
Ġal kal
Ġmon d
Ġb innen
Ø§Ø¯ Øª
Ġáĥ¬ áĥļ
1 ìĿ¼
ĠÑģ Ð´ÐµÐ»
ĠJ os
ĠØ§Ø¶ Ø§Ùģ
ĠÑĤÐµ Ðº
Ð¸Ð» Ð¸ÑĪÐ¸
ik ut
à¹īà¸Ńà¸¡à¸ ¹à¸
ĠjÃ¤l keen
ĠìĿ Ħ
ĠÎ³ ÏģÎ±
ãĥ© ãĤ¹
ÒĽ Ð¸Ð½
ĠØ¯Ø± ØµØ¯
Ġp ush
ĠmÄģ lama
ãģ ²
áĥĺáĥļ áĥĶáĥĳáĥĺáĥ¡
Ġà®µ à®¿à®ļ
Ð¾Ð» Ð¾Ð²
Ã¼ gy
ĠàªŃàªĹ àªµàª¾àª¨
ĠÐ ©
à¤¿à¤² à¤¾
ur os
eng a
åıª ä¸º
ĠØ² Ø¨Ø§ÙĨ
à¦ Ĩ
Ġ Ú¾
Õ¡Õ ·
ĠÎ£ Ïį
Ġàª¨ àªµàª¾
×¢ ×¨
Ġk Ã¼
do b
Ġge gen
Ð¼ ÐµÑĢ
ĠÙĩÙħ Ø§ÙĨ
àª°à«įàª ·
Äģd as
Ġb á»Łi
ĠÐ¾ Ð¹
Ġ×ĳ ×Ł
ĠØ® ØªÙħ
ì¹´ ìĺ¤
Ġha ya
Ġà®ªà®ķ à¯ģà®¤
ìł ¸
Øº Ùħ
ĠÙģ Ø§ÛĮÙĦ
atu re
ation en
¥à¸ ĩ
àª¡ àªª
ere de
Ġman era
cti ve
ÑĥÐ²Ð° ÑļÐ°
Ġpod Ä¾a
ĠfÃ¸r ste
àªŃ àª¾
ĠÑĪ ÑĥÐ¼
Ġà«§à« ¯
ĠØ¬Ùħ Ùĩ
y k
Ġ×Ķ×ŀ× ¦
ÉĻ lÉĻri
ÙĢÙĢÙĢÙĢ ÙĢÙĢÙĢÙĢ
Ġt kaz
ĠÑģÐµ Ð³Ð°
Ġb in
ÑĥÐ½ Ñĳ
à¹Ħà¸ ĭà¸
Ġà¤ĺ à¤°
ĠK áº¹
Ġseh ingga
m m
Ð ¨
Ïĩ ÏģÎ¹
×ĳ ×ĵ
Ġm ich
ĠD engan
Ïī Î¼Î±
Ġà´¸ àµĤ
Ġmem ang
Ġpal vel
Ġà®®à®ķà¯įà®ķ à®³
Ġå §
Ã©l k
à¤¿à¤ ¹
Ð½Ð¸ ÒĽ
áĥĲáĥĻ áĥ£áĥĹ
ti f
k ÅĤad
ĠØ§ÙħØ±ÛĮÚ© Ûģ
íĻ į
à®¾à®µ à®¿à®²à¯į
Ġd ove
ĠÐ·Ð´ ÑĢÐ°Ð²
le te
ĠT s
ĠÚ©ÛĮ ÙĪÚº
Ġàªªà«įàª° àª¶
Î´ Î¯
ĠT I
ĠS ing
Ġà°ľ à°Ĺ
áĥ¡ áĥŀ
j Ã¡r
tz ak
ne er
ĠÐł ÑĶ
ãģĵãģ¨ ãĤĴ
Ġà¦¬à¦¿à¦¶ à§ĩà¦·
Ġe h
el ako
ĠÐ¸ Ð´
Ġ×ľ ×ļ
Ġpir ms
àµĨ à´²àµįà´²
Ú© Øª
Ð°Ñģ Ð¸Ð½Ð¸Ð½Ð³
à¯ģà®£ à¯įà®Ł
à¤¾à¤ ¡
ÑģÑĤ Ð¾ÑĢ
Ùİ Ø¨
Ġà¦ª à¦¾à¦¶
ĠæĹ ¶
Â ³
Ġáĥĵ áĥĲáĥłáĥ
à´¨ àµģà´Ĥ
lab ilir
Ġàª°àª® àª¤
g áº¹
Ġk ed
ĠB Ã¬nh
Ġqu r
áĥĶáĥ ¬
Úĳ ÛĴ
ÃŃt Åĳ
áĥĺáĥ ¯
Ġh va
ĠZ o
Ġàªı àª¨à«Ģ
ÙĤ Ø§Ø¡
Ġm nie
à¤ Ŀ
Ġ×ľ ×ľ×Ĳ
Î¼ Î¯
Ġf edha
Ġtung kol
Ġà¦ħ à¦¤
Ġê· ¼
Ġàª®à«ģàªľ àª¬
à«ĩàª ¹
à¤¾à¤ ĸ
ish da
à±ģà° ·
Ïģ Ïį
ÏĦÎµ Ïį
ve ck
Ġà´® àµĩ
áĥ£áĥľ áĥĵ
ar on
Ġnaf asi
Õ«Õ ¯
Ġk Ã¸
Ġsa men
Ġbo le
ØªØ¨ Ø§Ø·
at her
Ð³ ÑĥÐ½
ÐµÐ¼ Ñĥ
ĠÑį Ð½Ð³
Ð° ÑĨÑĭÑĸ
Ġàªķ à«įàª¯àª¾àªĤ
Ġar asÄ±nda
ĠÊ»o le
ç Ł³
9 6
ÐºÐ¾ Ñİ
ĠB i
Ġà°ªà±įà°° à°¤à±įà°¯
Ġte ad
Ġav oir
å© ļ
ĠØ§Ø± ØªØ¨Ø§Ø·
à¤µ à¥įà¤¹
ment s
Ġol isi
ĠÐ¸Ð½ ÑĤÐµ
Ġk m
Ðº Ð°Ð¼Ñĸ
ĠÐ³ Ð°ÑĢÐ´
ãĤ³ ãĥŁ
Ġë ¥¼
ĠÐ¾ÐºÐ¾Ð» Ñĥ
ëŀ ¨
tso eng
Ġà¤¬ à¤ļà¥įà¤ļ
ë§Ľ ìĤ¬ì§Ģ
ì £
ĠÑĢ ÑĸÐ²
Ġà¸ Ľà¸
Ġch iáº¿n
ate g
ĠÛģ ÙĦ
Òĵ Ð¸
à°¤ à±įà°¸
á¿ ¦
Ġap res
[...]
