#version: 0.2
á Ģ
à ®
à ´
á ĥ
à ¸
à °
à ¤
à ¦
à ª
à ¯
à µ
áĢ ¹
Ġ áĢ
áĢ¹ áĢ
Ġ Î
à¯ į
àµ į
Ð °
Î ±
à ±
áĥ Ĳ
à ¹
à ¥
Ġ à®
Ï Ħ
Ġ à´
à §
Ġ Ð
Ġ áĥ
à «
Î ¿
Ġ à°
Ð° Ð
à¸ ²
Ġ à¤
Ð ¾
Ġ à¦
áĥĲ áĥ
à¸ Ļ
Ġ Ø
Ġ Ñ
Ġ àª
à± į
à¸ £
Ð µ
Û Į
à¦ ¾
Ð ¸
à¤ ¾
Ø §
àª ¾
Ñ Ĥ
à¥ ĩ
Ġ Ù
à¤ °
Ñ Ģ
à¥ į
Ð ½
Ġ ×
Ø ±
á »
Ð »
Ð ´
Ù Ħ
Ù Ĩ
Ñ ĸ
Ñ ĥ
á º
ã ģ
Ù ĩ
n g
É Ļ
× Ļ
Ð¾ Ð
Ġ d
Ø ¯
Ġ t
Ñ ģ
e s
á» į
Ù Ĭ
Ġ ì
× ķ
Ã ©
ĠÑ ģ
Ġ a
Ã «
áº ¹
ĠØ §
Ð ²
Ä ±
o n
ã Ĥ
Ġ ë
e n
ĠÐ ½
l e
Ġ n
×ķ ×
Ð º
ĠØ§ ÙĦ
áĢ ¬
à¯į à®
àµį à´
áĥ ĺ
à¸ Ń
à±į à°
Ġ .
à§ ĩ
àª¾ àª
à¯ ģ
à´ ¿
áĢ º
áĢ ¸
áĢ ¯
Î ¹
à® ¿
à´¿ à´
Ñ ĭ
Î ½
à° ¿
áĥ Ķ
ä ¸
ã Ģ
à®¿ à®
Î µ
àµ ģ
à¦¾ à¦
Ñ ı
áĥĶ áĥ
à« ĩ
Ï ģ
à° ¾
Ñ Ĩ
à¹ Ģ
ä º
Ñ Į
à§ į
áĥĺ áĥ
à¹ Ī
Ú ©
ĠÐ ¿
à« į
à± ģ
Ġ à¸
Ð ¼
Ù Ī
à§į à¦
Ġ ,
Ġà¤ ķ
Û ģ
à«į àª
ĠÐ ²
à¤¾ à¤
Û Ĵ
à¥ Ģ
Ð° ÑĢ
à¤ ¿
ì Ŀ
i n
Ø ª
Ġ c
Ð ³
Ð°Ð ½
Ã ¼
Ġ b
Ù ħ
Ñ Ī
Ġ Ä
Ġ ê
Ġd e
ĠÄ ĳ
Ġ k
ĠØ ¨
×Ļ ×
ã ĥ
r e
Ã ł
i e
ÉĻ r
Ġ i
o s
í ķ
Ø ³
l a
ĠÐ ·
á»į n
Ä ĥ
Ġ o
Ġ p
Ð¾Ð ²
× Ķ
Ñģ ÑĤ
Ġ ãĢ
ë ĭ
e r
Ã ¡
h o
Ġt i
Ñ ĩ
Õ ¡
Ġ w
áĢ Ń
à¯ģ à®
à´ ¾
áĥ Ŀ
à¸² à¸
à°¾ à°
Ġ å
à¦ ¿
à« Ģ
à® ¾
àµģ à´
áĢ Ģ
± áĢ
áĢ Ħ
Ï ĥ
à®¾ à®
â Ģ
Ñ ŀ
Ï Ģ
à°¿ à°
áĥĿ áĥ
ï ¼
Ġ ï¼
à¯įà® ķ
Ï Ĥ
à´¾ à´
à¦ °
Ñ į
£ áĥ
àª ¨
Î ·
Ĥ à°
Ð ·
à¸£ à¸
å ı
Ðµ Ð½
à¦¿ à¦
áĥĺáĥ ¡
à¹Ģ à¸
Ġ Ú©
Ð°Ð ´
à« ĭ
à±ģ à°
à¹ ī
ĠÐ ¸
ĠÙ ħ
à§ĩ à¦
ĠÐ ¾
à¥į à¤
Ú º
àª °
ĠÐ º
à¤ Ĥ
Ġ Ûģ
à¤¿ à¤
Ò Ľ
à¥ ĭ
ì ŀ
Å Ł
Ġ s
Æ °
Ò ³
ĠÐ ±
× ¨
o u
ãģ ®
Ð¸ Ð½
Ġ v
ì Ĺ
ĠØ ¯
Ġt h
Ġ e
Å Ĥ
a n
Ġ× Ķ
Ø ²
Ġ l
ãģ Ħ
ĠãĢ ģ
t i
Ø ©
Ġ í
Õ¡ Õ
Ø§ ÙĨ
Ñ ħ
g b
o w
Ġn i
Ä ģ
Ðµ ÑĢ
c h
ĠÐ ´
Ġ m
ìĿ ´
ãĥ ¼
× ľ
Ø ´
u n
Ð ¿
Ġ Õ
Ġ le
á ģ
à® °
àµ Ĩ
áĥĶáĥ ĳ
à¸Ļ à¸
à° ¨
Ġï¼ Į
à¦ ¨
àª ¿
à¯ Ī
àµį âĢ
áĢ¸ áĢ
áĢ Ĳ
áĢŃ áĢ¯
Ï ħ
à® ¤
¨ àµįà´
Ð°Ð »
Î »
à° Ĥà°
ł áĥ
ģ à¸
å ®
à¯įà® ¤
Ġ ÏĦ
à´ ¤
à¦¾à¦ °
Ð°Ð ²
Ġáĥ Ľ
à« ģ
Î º
à± ĩ
Ð°Ð ¼
à¸Ń à¸
æ ľ
Ð ¹
à§ ģ
áĥ ķ
ĩ à¸
ÛĮ Úº
Ð° Ñģ
à«ĩ àª
à° °
Ħ à¸
Ð¾ ÑĢ
ĠØ ³
à§ Ł
Ð° ÑĤ
à¤ ¨
Ú ¾
àª Ĥ
Ð ±
Ġà¤ ¸
Ø ¨
Ġà¤ ¹
ĠÐ ¼
à¤ ķ
ìŀ ¥
Ä± n
Ġ z
Ġ Ã
Ð¸ Ð»
Ð¾ Ð½
g y
ŀ ×
ãģ §
ĠÑ Ĥ
Ġ h
ëĭ ¤
Ä Ļ
Ġ Â
Ã ¤
a r
i r
ĠÙ Ī
l o
i á»
ãģ Ĺ
ãģ «
w á»įn
i s
ê ³
× ª
ÉĻ n
Ã ³
á ¹
Ø§ ÛĮ
t e
á¹ £
Ø ¹
Î ¯
Î ¼
Ï Į
ì §
ãģ ¦
Î ¬
q u
Ġa wá»įn
Ä ħ
i l
Ġ×Ķ ×
áĢ ķ
à® ©
àµįâĢ į
áĥ £áĥ
à¸ µ
à± ĭ
o m
Ġà¦ ķ
àª ¤
® à¯į
ķ àµįà´
áĢ ¼
áĢ Ļ
á Ĥ
Î¿ Ïħ
à® Ł
à´ °
ĠÐ ³
Ġ ÏĢ
à° ²
Ġáĥ ¡
ç ļ
Ġc om
Ġà® ª
Ï ī
âĢ ĭ
Ġà¦ ¸
ĠÑ ĸ
áĥĲáĥ ľ
Ġàª ķ
ĠÎ º
à± Ģ
Ð° Ñŀ
± à¸
çļ Ħ
Ð¾ Ð»
Ġà¦ ¬
Ġáĥ ĵ
à¹Ī à¸
Ú ¯
ÑĨ ÑĮ
àª ķ
à° ķ
à¸ ´
ĠÐ¿ ÑĢ
ĠÙ ¾
à¦ ²
Ð¾Ð ¼
Ġà¤ ®
Ø ¦
àª ®
Ð¸ ÑĤ
à¤ ¤
ĠÙ Ĩ
Ġà¤ ª
Ð´ Ð°
à¥ Ī
ë Ĭ
t s
Ã© s
n h
Ð» Ð°ÑĢ
Ð¸ ÑĢ
u l
Ö Ģ
Ġ ãĥ
Ð» Ð¸
Ġt r
ì Ħ
Ä «
Ġc h
Ġ S
Ù Ĥ
la r
Ġt Ã«
e l
Æ° á»
ãģ ¨
ãģ ª
Ġ A
Ġ× ľ
ê °
c z
i y
Ġb a
ï ¿
t o
Ù ĥ
ï¿ ½
t a
Ġ Ïĥ
Î Ń
ĠÎ ±
ëĬ Ķ
ĠãĢ Ĥ
Î± Î¹
Ġ× ĳ
Ġ -
i t
i a
l ÉĻr
áĢ Ķ
à® ³
ķàµįà´ ķ
áĥ ¡
¡ à¸
Ġà° ª
å Ī
à¦ ķ
àª µ
Ġà® ķ
¨àµįà´ ¨
áĢĦ áĢ¹áĢ
áĢ ±áĢ
Ġ áģ
Î ³
à¯įà® ª
Ġà´ ª
Ġ âĢ
Î ®
à± Ĩ
áĥ ł
Ġ æ
å ¤
ķ à¯įà®ķ
Ï ĩ
à´ ¯
Ġà¦ ª
Ð½ Ñĭ
Ġ áĥĲáĥ
Ġàª ª
ĠÎ µ
Ġà° ķ
Ðº Ñĸ
¥ à¸
ç ½
Ðµ ÑĤ
à§ĩ à¦°
áĥ ļ
à¹ Ħà¸
ĠÚ© ÛĮ
Ñ İ
Ġàª ¸
à±įà° °
à¹ ģà¸
ĠÑ Ģ
ĠØ ª
à§ ĭ
Ð¾ Ð´
à¤ ¸
ÙĪ Ø±
àª¾àª Ĥ
Ðµ Ð»
à¥ ģ
ĠÚ© ÛĴ
à¤ ¹
Ġ ÒĽ
à¤ ²
¶ ľ
i ch
Ä ĵ
Ġn h
Ġ Ò³
Ð¸ ÑĪ
Å ¼
d ÉĻ
ãģ Ł
Ð³ Ð°
áº ¡
ì ł
r i
áº ¿
Ġ ho
Ġ× Ĳ
Ġ un
Ø§ Ø±
Å ĳ
Ã ´
ãģ Ļ
ãĥ ³
Ġ f
Õ ¸
ì ķ
Ã Ń
d a
r z
ï¿½ ï¿½
Ù ģ
Ġ B
Ġ y
× ĳ
u r
Ñ Ĺ
Å Ľ
Ġì Ŀ
ãģ Į
Ø³ Øª
en t
Ġ I
Ġ D
Ð½ Ð¸
Ø Ń
áĢ ½
à® ²
àµįà´ ¤
Ġáĥ Ĵ
ª à¸
à°¾à° °
äº ļ
à¦ ¤
Ġàª ®
à¯Ī à®
à´ Ĥ
áĢ ·
áĢ ²
áĢ ħ
Î¹ Îº
à¯įà® Ł
àµ ĭ
ĠÑ ŀ
ĠÎ ¼
Ġà° µ
áĥĶáĥ ļ
å ħ
å ½
Ġà® µ
Ï į
Ġà´ ķ
à¦ ¬
Ð°Ð ³
áĥĲáĥ Ľ
àª¾àª °
Î ´
à±ĩ à°
Ð°Ð ¹
à¹ī à¸
à ¨
Ð½ Ð¾
à§įà¦ °
áĥ ĵ
¢ à¸
ĠØ ¬
Ð°Ð º
à«ĭ àª
Ġà° ®
§ à¸
Ð¾Ð ³
Û Ķ
à¦ ®
Ñģ Ðº
à¥ĩ à¤Ĥ
Ã« r
Ġàª ľ
Ð¾ ÑĤ
à¤ ®
m a
à¥į à¤°
Ð´ Ð¸
à¤¾ à¤°
¶ľ ìŀ¥
× Ĳ
u ng
Ġ T
Ð¸Ð½ Ð³
Ñ Ħ
Î¹ Î±
Îµ Î¹
ãĤ ĭ
Ð³ Ð°Ð½
Ġ g
ë §
Ġ ÛĶ
Ã ª
Ã ¶
r a
ĠØ ±
ĠÃ ®
×ķ× ª
áº £
ãģ ¯
Ġ ãĤ
Ġa ti
Ġn a
Ġ â
Ø§ ÙĦ
Ġ '
a s
Ġ j
ÉĻ s
Ã¡ s
Ġ la
ĠØ§ÙĦ Ø
ĠØ¯ Ø±
ĠÙħ ÛĮÚº
Ð½ Ñı
ì§ Ģ
ãģ ¾
d z
s t
Ġ á»į
h e
×Ļ× Ŀ
ãĢ Ĳ
áĢ Ľ
Ġà® ®
à´ Ł
áĥ Ľ
à¹ Į
Ġà° ħ
Ġ ç
à¥ ¤
Ġàª ¤
à¯ ĩ
àµ ĩ
áĢ ®
áĢ Ĭ
áĢ ±
Ï Ĩ
Ġà® ħ
Ġ âĢĭ
Ð½ Ñĸ
Î ¸
Ġà° ¸
áĥ ľ
å Ľ
ç½ ĳ
Ġà® ¤
ĠÏĦ Î·
à´¿à´ ²
Ġ à¥¤
Ð½ Ð°
áĥ ¢
à«įàª ¯
Ï İ
à° Ĥ
Ð°Ð ±
à¸´ à¸
ä »
Ð¾Ð ¹
à§įà¦ ¯
áĥĲáĥ ĵ
Ķ à¸
ĠÃ® n
ĠÑ ı
Ġàª Ĩ
à±įà° ¨
à¹ ĥ
ÐµÐ½ Ð¸
Õ ¥
Ġà¦ Ĩ
Ð ¶
Ġà¤ ¬
Õ ¶
àª¿ àª
Ðµ Ð¼
Ġà¤¹ à¥Ī
Ä Ł
Ġà¤ķ à¥ĩ
ĠÐ² Ð°
Ġà¤ ľ
ìĹ Ĳ
Ù ¹
Ġs z
Ġk h
Ñĥ ÑĢ
Ñĥ Ð½
ÛĮ ÙĨ
Ġ M
ãĤ Ĵ
Ð°Ð ·
Ġ ng
íķ ĺ
Ø ¬
á» Ļ
o v
r o
Ġun d
Ġk a
ti on
áº ¥
ãģ ĭ
s z
Ġ 2
Ġ 1
Ĥ ¬
ÏĦ Î±
ÏĦ Îµ
ÏĦ Î¿
Ġ O
Ã §
ĠÙ Ħ
Ġ á¹£
Ġd i
ĳ ãĢĲ
ĠãĢ ĳãĢĲ
Ġ è
ë ¡
Ġ C
ãģ £
Ġ× ©
Ġs i
ĠÙ ĩ
e t
ãĥ¼ ãĥ
áĢ ļ
Ġà® ļ
àµįà´ Ł
áĥĲáĥ łáĥ
Ĺ à¸
à° ®
æ Ĺ
à¦¾à¦ ¨
Ġàª ħ
à® µ
à´ ®
áĢ ŀ
áĢ ľ
ĠáĢ ¡
Ïģ Î¿
à¯ģà® ®à¯į
à´ ³
ĠÑ ĥ
ĠÎ ´
Ġà° ļ
Ġáĥ ł
æ Ī
ä ¹
à®¿à® ²
ĠÎº Î±Î¹
Ġà´ µ
à§ Ģ
Ð» Ñĸ
áĥĶáĥ ľ
à«įàª °
Ïģ Î±
à° ¤
Ð° ÑĨ
ļ à¸
Ġa g
Ðµ Ð´
Ġà¦ ®
áĥĲáĥ ķ
Ġ à¹Ģà¸
Ġ P
ĠÐ½ Ð°
àª¨ à«ĩ
à°¾à° ²
° à¸
Ñ ī
Ġ q
Ġà¦ ı
Ñģ Ñı
Ġà¤ ¨
Ġe t
Ġàª µ
Ġ :
à¤ Ĺ
a re
à¤ ª
Ð¸ Ð¼
Ġà¤ ħ
ìĿ ĺ
ĠØ ´
Ġp o
Ġp h
Ð¸ Ð·
Ñ Ĭ
o r
ĠÙ ģ
ãĤ Ĭ
Ġ Ò
Ã ¢
ì ĭ
Ġe in
á» ĳ
Å ¡
Ġ é
e k
ÉĻ t
× ©
iá» ĩ
Ú Ĩ
ou r
l u
ĠÏĦ Î¿
Ġì ŀ
ÏĦ Î·
ĠÎ ½
ÏĢ Î¿
Ġ N
ãĤ Ĥ
k a
ar a
ĠØ £
ä ½
æ ĸ
ÙĨ Ø¯
ìĿ Ħ
Õ «
l i
ĠÚ© Ø±
Ġ gb
ãĤ ¹
Ġ |
t en
áĢ¬ áĢ¸áĢ
à®¿à® ¯
àµģà´ Ĥ
áĥĲáĥ ¡
à¹ Ĥ
Ġà° ¨
æ ¸
Ġà¦ ¨
Ġàª Ľ
Ġà® ĩ
à´ ¨
áĢĦ áĢº
áĢ ģ
áĢ «
Ïĥ Î·
à¯ Ĩ
Ġà´ ¸
Ð°Ð µ
Ïī Î½
âĢ Į
ļ áĥĺ
å½ ©
å ľ
¨ à¯įà®¤
Î¯ Î±
à´¤ àµįà´¤
à¦ ¸
ÑĢ Ñĭ
Ġáĥ ĺ
àª¾àª ¨
ĠÏĦ Î¿Ïħ
à°¿à° Ĥà°
Ñĩ Ñĭ
Ĺ à¸µ
w w
Ð¾ Ñģ
Ġà¦ ¹
Ġáĥ ¨
¸ à¸
Ä ĩ
Ð» Ñı
à«ģ àªĤ
à±įà° ¯
ģ à¸²
ĠÑ ĩ
Ã¡ l
Ġà¦ ¦
ÑģÑĤ Ð²
Ġà¤ ¦
× ł
Ġàª ¹
ĠÐ Ł
Ġà¤ µ
ĠâĢ Ļ
Ġà¤ ²
Ð¸ Ð´
Ġà¤® à¥ĩà¤Ĥ
ê ¸
l ÉĻ
ÙĪ Úº
Ã ¬
ĠÑ Ī
Ð¸ Ñı
È Ľ
c i
Ġ ãģ
Ð° ÑĪ
Ãª n
´ ë
Ġde r
Ã´ ng
Ġ Ãł
å ¹
Ã« s
Ġa z
ĠØ ¹
Æ ¡
Ö Ĥ
Ġt s
Ġla ti
ĠÎ ³
ì ¶ľìŀ¥
Ïģ Î¹
Î¼ Î±
Î½ Î±
Ġw a
ãģ Ĩ
g o
j u
Ġ L
å Ĳ
å Ĭ
ĠÛģ ÛĴ
ì Ĭ
Ã¼ n
Ġ× ŀ×
Ã ½
Ġ r
Ġv ÉĻ
å į
Ġ E
áĢ ¶
Ġà® ¨
à´ µ
áĥĲáĥ ł
à¸µ à¸
à° µ
Ġw ww
Ġ à§
Ġàª ¨
ª à¯įà®ª
à´ ²
áĢ »
áĢ °
áĢĢ áĢ¹áĢ
ĠÎ ¿
à® £
Ġà´ ®
Ñ ĳ
Î ²
à° ¸
áĥ ®
åı ĳ
åĪ Ĩ
à® ®
Î ĳ
àµįà´ °
à§įà¦ ¤
Ð¾ Ñŀ
áĥĿáĥ Ľ
à«Ģ àª
ĠÎ ĳ
à° Ł
Ñĭ Ñı
Ī à¸
à¥įà¤ ¯
Ð¾Ð ±
Ġà¦ķ à¦°
Ġáĥĵ áĥĲ
à¹ĥ à¸
Ù ī
Ġ Ð°Ð´
ĠàªĽ à«ĩ
à° ¦
« à¸
ĠÐ½ Ðµ
n i
Ġà¦ ¤
Ð¾Ð³ Ð¾
Ġà¤ °
ãĥ ĥ
Ġàª ¬
ĠÐ ¡
à¥ Ĥ
Å «
à¤ ¦
ĠÑ į
à¤¾à¤ ¨
íķ ľ
Ġ F
ÛĮ Ø§
á» §
ĠÑ ħ
Ð¸ Ð±
ãĤ Į
Ġ qu
k i
Ð° Ò³
áº Ń
Ġì ł
u s
Ġv Ãł
Ø§ Øª
Ġ ä¸
× ĵ
Ã¡ r
l Ä±
ĠÄĳ á»
Ã³ w
Ġn Ã«
p a
ĠÎ½ Î±
ì ļ
Ġ /
ĠÎ¼ Îµ
ÏĦ Î¹Îº
Ġ áº¹
ãĤ ¤
Ġ K
Ġf un
Ġ in
ç Ķ
ç ī
n y
ë ı
r u
a y
ÙĬ Ø©
b i
ĠØ Į
æ ĺ
Ñĸ Ð´
Ġáģ ĭ
à® ±
Ġà´ ¨
Ġáĥ¡ áĥĲáĥ
à¸£à¸ µ
à° ª
è ½
à¦ ¦
àªĤ àª
à¯įà® ±
Ġà´ ħ
áĢĦáĢ¹áĢ ¸
áĢ ¡
áĢĶ áĢ¹áĢ
Î½ Î¿
Ġà® İ
à´ £
ĠÐ Ĳ
ĠÎ ķ
à±įà° ¤
áĥĺáĥ Ĺ
æ¸ ¸
æ ī
à¯ ĭ
ĠÎ ł
à´¿à´ ¯
Ġà¦ ħ
Ð°Ð ¿
áĥĿáĥ ĳ
Ġàª °
Î Ł
Ġà° ¤
Ðº Ð°
ŀ à¸
å® ĺ
ĠÐ Ĵ
à§ĩà¦ ¨
Ġáĥ Ļ
à¹Ĥ à¸
Ä Ľ
ĠÐ ĵ
àª ²
à±įà° ²
ķ à¸
Ðµ Ð¹
j a
à¦ ª
Ð¾ ÑģÑĤ
à¤ µ
Ġ en
àª £
Ð°ÑĤ ÑĮ
à¥ĭ à¤Ĥ
× ¢
Ġà¤ Ĩ
Ð¾ Ð¸
Ġà¤ķ à¥Ģ
ë¡ ľ
ÉĻ k
ãĤ ī
Ġv á»
Ð¸Ð½ Ð¸
Ó £
Ġd ie
È Ļ
e m
Ò ĵ
áº §
ê³ ł
Å ¾
Ġ x
i on
è ¿
ĠØ§ ÙĪØ±
t t
ãĥ Ī
Ã¡ c
ĠØ¨ Ùĩ
Ġd o
d i
0 0
ê° Ģ
ĠÎ± ÏĢ
ĠÎ Ń
Îµ Î¯
d e
Ā Ā
ãĤ ĵ
Ġ (
× Ĺ
äº º
å °
Ø§ Ø¦
ê ²
e g
Ġd es
Õ¸ ÖĤ
k o
d Ä±
è ®
ĠØ ¢
ĠáĢ ±áĢ
à¯įà®ķ à®³
à´ ¨àµįà´¨
áĥĲáĥ ļ
à¹Ī à¸²à¸
à° ¡
è µ
à¦ Ł
àª ¹
à®¿à® °
à´ ±
áĢ² áĢ·
áĤ Ķ
áĢĢ áĢº
Î ¾
à®¤ à¯įà®¤
à´ ¸
ÑĨ Ð°
Î Ļ
à°¿à° ¨
áĥ Ĺ
İ ¯
å ¿
à® ®à¯į
Î» Î¿
àµįà´ ¯
Ġà¦ ľ
ĠÐ² Ñĭ
Ġáĥ Ĺ
Ġàª ı
ÏĦ Î¹
à°¾à° ¨
Ð°Ð³ Ð°
à¸Ńà¸ ĩà¸
æĹ ¶
ÑĤ Ð¾
à¦¿à¦ ķ
áĥ łáĥ
à¹ ĩ
Å Ĩ
Ð°Ð» Ñĸ
àª ª
à° ¯
à¸Ńà¸ ĩ
Ð¾Ð º
Ġp rz
à¦¾à¦ ²
Ðº Ð¸
à¤ ¯
ĠØ§ÙĦ Ùħ
àª ¸
Ð¾Ð ¶
à¤¿à¤ ¯
Ã ¨
à¤° à¥įà¤
Ð¸ Ð´Ð°
à¥ĩ à¤
ë ¦
Ã© g
ãģ ı
Ġl Ãł
ĠÐ¼ Ñĥ
ĠÐ ľ
Õ¡Õ ¶
ÉĻ m
t Ã«
ĠÐ ĳ
Ġ H
ì ĥ
Ġ× ķ
Æ°á» Ŀ
Ġde l
ä ¼
a t
Ġ Ú¯
ãĥ «
Ġth á»
Ġ W
ie m
Ġá¹£ e
ĠÎº Î±
Ġê °
Ġ )
Îµ ÏĤ
Î¯ Î½
á¹£ áº¹
ãģ į
ãĤ ¯
Ġl o
c e
ç »
Ø§ Ø
× §
Ī ëĭ¤
h a
é Ĺ
d ir
Ġt o
Ġ Ã©s
Ġ ï¿½
ĠØ ®
áĢ ¾
à®¿à®² à¯į
àµįà´ ª
áĥĶáĥ ¡
Ĺà¸µ à¹Īà¸
à°¿à° ķ
Ġå ¤
Ġà¦ª à§įà¦°
Ġàªķ àª°
à® ķ
à´ ª
áĢ± áĢ¬
áĢ ĸ
ĠáĢ Ģ
ĠÏĦÎ· ÏĤ
à¯ Ĭ
àµ Ģ
Ð½ Ðµ
Î¼ Îµ
à±įà° Ł
¨ áĥĺ
İ¯ äºļ
ä¸ ĭ
à®¤ à¯ģ
ĠÎ £
àµįà´ ļ
à¦¿à¦ ¨
Ñį ÑĤ
áĥĺáĥ ľ
àª® àª¾àªĤ
Î¿ Ïį
à± Ĥà°
ĠÐ »
à¹Į à¸
ç «
ĠÐ ļ
à¦ Ĺ
Ġáĥ Ķ
à¹ ĩà¸
Ä į
Ð´ Ð·
àª¨ àª¾
à±ģà° ²
à¸£ à¸²à¸
ĠÐ¾ ÑĤ
Ġl es
Ġà¦ °
Ðµ Ðº
Ġà¤ķ à¥ĭ
Ġ G
àª¨ à«Ģ
Ð¸ Ð¸
Ġà¤ ¤
a l
à¤¨ à¥ĩ
Ð°Ð½ Ð´
Ġà¤¸ à¥ĩ
ë ¥
Ġp Ã«r
ãĥ ©
Ľ i
ĠÑ Ħ
ÑĤ Ð¸
n e
Ù ¾
Ø ·
ĠÐ´ Ð°ÑĢ
u y
ìĿ ¼
Ġc u
Ä« b
d ÉĻn
å ·
× ¤
z ion
ãģ ĵ
Ġz a
e i
Ġt á»
k á»į
Ġ 3
ì ľ
ĠÏĦÎ· Î½
d d
ĠÎ³ Î¹Î±
m á»į
ãģ¾ ãģĻ
ãĥ ª
Ġk i
u i
ä¸ Ģ
a k
ÙĪ Ø¯
Ġë °
Ġ Ã©
å ¸
d er
w o
Ñ Ķ
è ¯
áº¥ t
ĠáĢ Ļ
à®¿à® ©
àµģà´ ¨àµįà´¨
áĥĶáĥ ł
Ł à¸£à¸µ
Ġà° °
å ¼
à¦¾à¦ ®
àª¾àª ®
à®¾à® °
à´ ķàµįà´ķ
ĠáĢ ŀ
áĢĬ áĢ¹áĢ
áĢħ áĢ¹áĢ
ĠÎ ļ
à¯Īà® ¯
à´ ķ
Ñį Ð½
Î £
à± Ī
áĥĶáĥĳ áĥĺáĥ¡
åĽ ½
§ åıĳ
à¯ģà® ķà¯įà®ķ
Î ¶
Ļ àµįà´
à¦° à§įà¦
ÑĨ Ñĸ
Ġáĥ ŀ
à« Ĥ
Ïİ Î½
à°Ĥà° ¦
Ð² Ð°
ģà¸² à¸£à¸
é Ģ
ĠÐ¾ Ð±
Ġà¦ ¶
áĥĲáĥ ª
Ġ à¹ģà¸
t Äģ
ĠÑģ ÑĤ
Ġàª ¦
à±į âĢĮ
´ à¸
ÐµÐ» ÑĮ
Ġs e
à¦¾ à§Ł
Ø µ
Ġà¤ Ĺ
Õ¥ Õ
àª° à«įàª
i z
Ġà¤ķ à¤°
Ð¸ Ðµ
à¤ ¬
Ð½ Ð¸Ð½Ð³
Ġà¤ ī
ê¸ °
× ŀ×
Ã¤ Ã¤
Ġp er
Ð°Ð´ Ð¸
ĠÐ± Ñŀ
Æ°á» £
Ðµ Ñģ
Ġw y
Ñĥ Ð¼
ĠØ³ ÛĴ
Ġì ķ
ÖĢ Õ
ãģĹ ãģ¦
ÉĻ y
u f
ĠÙ Ĭ
u m
ou s
o l
ĠØ¨ Ø§
ãģ ķ
ï¿½ï¿½ ï¿½ï¿½
ĠÎ±ÏĢ ÏĮ
Ġ "
Ġ ÏĮ
Î± Î½
Ġ 0
y i
æ Ŀ
ÅĤ a
ĠA wá»įn
áº¡ i
Å £
i i
d o
ìĦ ľ
æ Ĭ
Ġ es
å Ń
b a
Ġ× ¢
Ø§ Ùħ
Ġg i
áĢ¬ áĢ¸
à® ¯
à´¾à´ ¯
áĥĺáĥ ļ
Ľ à¸
Ġà° Ĩ
æľ º
Ġà¦ ¯
Ġàª ²
à¯ģà® ¤
Ġà´ ¤
Ĳ áĢ¬
áĢĢ áĢŃáĢ¯
ĠáĢ ľ
ĠÎ ¤
à®Ł à¯įà®Ł
à´¿à´ ķàµįà´ķ
ÑĨ ÑĨÐ°
Î ķ
à±ģà° ¨
áĥĶáĥĳ áĥĲ
é Ļ
è §
à®¾à® ©
ĠÎ ľ
ļ àµįà´ļ
à¦ ¼
Ñĭ Ð¼
áĥ Ĵ
Ġàª ¶
Î» Î»
à± Ĭ
Ð°Ð» ÑĮ
¹ à¸
è½ ½
Ð¾Ð» ÑĮ
à¦¿à¦ ¤
áĥĶáĥ Ľ
± à¸Ļà¸
Ã º
Ð» ÑĮ
Ġàª Ĺ
à±ģà° Ĥà°
Ĭ à¸
n ie
Ñĩ Ðµ
à¦¿ à§Ł
Ġs h
Ġà¤ Ń
Õ¸ÖĤ Õ
à«ģ àª
ÉĻ l
à ¶
Ġa u
à¤ ľ
Ð° ÒĽ
Ġà¤ ĩ
ì Ľ
ãģ£ ãģ¦
ĠÚ© ÙĪ
Ġj a
Ð¸ Ð¹
ĠÐ± Ð°
Ġm o
ãģ Ĥ
Äģ s
Ð¾ Ò³
Ġc á»§
Į Ģ
ĠÃ §
æĺ ¯
ĠÐ Ŀ
Ġe l
ÛĮ Ø¯
h r
× ŀ
Ġm Ã¼
ĠÐ ł
n a
Ġr áº¹
Ġ Ïĩ
ê µ
ÏĦ Î¬
ĠÎ ¸
ĠÏĢ Î¿Ïħ
Ġ J
ĠÙģ ÙĬ
ãģ§ ãģĻ
gb a
ent ru
å Ĩ
v e
Ġcá»§ a
ì ĸ
ĠØ§ Ø³
Ġe a
Ġb o
Ġj áº¹
Ä ¼
Ġn ie
Ø ®
áĤ ı
à® Ļ
Ġà´ İ
Ġáĥ ¬
· à¹Ī
à±ģà° ķ
á ŀ
à¦ ¹
¥ à«Ģ
à® ¨à¯įà®¤
à´ Ļàµįà´
ĠáĢ Ĳ
áĢ® áĢ¸áĢ
Ĳ áĢ¼
ĠÎ ·
à®¾à® ķ
àµ Ĥ
Ñĸ Ð½
Ïģ Î¬
Ġà°ª à±įà°°
áĥĿáĥ ¡
ä¸ĭ è½½
Ġå¤ §åıĳ
à¯ Ģ
ĠÏĥ Ïħ
àµįà´ ±
à¦¾à¦ ķ
ÑĨ Ñĭ
áĥĶáĥĳ áĥĺ
àª¾àª µ
Î¹ Ïĥ
Ĺ à°¾
ÑĤ Ñĭ
³ à¸
äºļ æ¸¸
ĠÐ¿ Ð¾
Ġà¦ Ĺ
Ġáĥ £áĥ
à¸£à¸ ±à¸
æ ³
Ðº Ñĥ
Ġàªħ àª¨à«ĩ
à°¿à°Ĥà° ļ
à¸£à¸ °à¸
s a
ÐµÐ½Ð¸ Ñı
Ľ à§ĩ
ãģ ł
à¤ ¡
Ġ2 0
àª ¯
Ġo l
à¤ Ł
m e
à ·
Ñĥ Ð´
Ġà¤ Ķ
ë Ĥ
é ĩ
× Ľ
d en
Ð°Ð ¸
Ð¸ Ñģ
t y
ãģĹ ãģŁ
Ġc Ã³
ĠÐ ¢
c a
ì Ĥ¬
Ã¡ n
lÉĻr in
å º
u ri
ĠØ§ Ø²
Ġp our
Ð¸ÑĤ ÑĮ
ĠÚ© Ø§
Å¡ an
Ġsi ÄĻ
Ġk o
ÎŃ ÏĤ
ì ²
Ġ 4
Ġ 5
ĠÏĦ Î±
p á»į
t er
ĠÐ ŀ
y e
la n
ç Ľ
ĠÄ Ĳ
Ñ ĺ
ë ĵ
b b
Ġc a
× Ŀ
w a
ĠÙħ ÙĨ
Ġãĥ »
an t
¾ áĢĢ
à®° à¯į
à´° àµįâĢį
áĥĿáĥ ľ
à¹ī à¸²à¸
à°¾à°° à±ģ
ç ¥
à§ģ à¦
à«įàª Ł
à®¿à® ±
à´¾à´ £
áĢ¯ áĢŃ
áĢĲ áĢ¹áĢ
áĢ Ĩ
Ïģ Î¯
à¯įà® ļ
à´ ¨àµįà´
ĠÐ £
ĠÎ Ķ
à°¨ à°¿
áĥ£áĥ ł
å İ
å®ĺ ç½ĳ
à® ªà¯įà®ª
ÏĦ Î±Î¹
à´¿à´ °
à¦¾à¦ ¦
ÑĢ Ð°
áĥ §
àª Ĺ
ÎŁ Î
Ġà° ¬
ĠÐ¿ Ð°
à¹Ī à¸²
å¿ «
Ð¾Ð ·
Ġà¦ ļ
áĥĺáĥ ĵ
à¹Ħà¸ Ķ
æľ ī
Ñĥ Ñģ
àª¾àª ¯
à°° à±įà°
à¹ī à¸²
Ã £
Ġa r
à§įà¦ Ł
ÛĮ Ú©
à¤¿à¤ ķ
Ġ Ã¼
àª ¦
Ð½Ñĭ Ðµ
Ġà¤Ķ à¤°
Å ¥
Ġà¤ ¯
Ð¸ ÒĽ
à¤¾à¤ ²
ìĿ Ģ
Ġm a
ãģ ĳ
Ġ R
Ð¾ ÑĪ
Ð¸ Ðº
åľ ¨
Ġm eg
Ġ V
Ð»Ð°ÑĢ Ð¸
ãĥ³ ãĥ
£ ¼
Ġc on
ÉĻ h
ÙĬ ÙĨ
Ġd he
á» ĭ
ĠÚ© Ûģ
ĠÐ µ
Ġ× Ľ
Ġi r
å¤ §
Ġk an
ĠÎµ ÏĢ
ìĬ ¤
ĠÏĥ ÏĦÎ¿
ÏĦ Î®
ĠÏĢ ÏģÎ¿
gb o
z y
Ð½Ñĭ Ñħ
h un
Ø§ Ø¯
Ã¡ t
Ġb ir
ãĤ ¢
Ġê ²
Ð ł
Ñĸ Ð²
s ch
l áº¹
t re
Ġï¼ ļ
m i
áĢķ áĢ«
à® ļ
à´¿à´ ¨
Ġáĥ ķ
Ħ à¸£à¸
Ġà° ¦
æī ĭ
¯ à¦¼
àª ľ
Ġà®İ à®©
à´¾à´ °
áĢĦ áĢ¹
ĠáĢ ķ
áĢĶ áĢº
Î¹ Î¿
Ġà® ī
à´¾à´ ¨
ĠÑ Ĩ
Îµ Î½
Ġà° ĩ
Ġáĥ ĳ
ç ľ
å¹ ³
à¯ģà® ķ
Ïģ ÏĮ
à´Ļàµįà´ Ļ
Ġà¦¬ à¦¿à¦
Ñ ĵ
ĠáĥĲáĥ ł
àª ¡
Î Ĺ
² à±ĭ
Ñĭ Ñħ
Ĺà¸µ à¹Ī
ç º
Ã¬ nh
à¦¾à¦ ¤
áĥĶáĥ ķ
ľ à¸
Ð¾Ð ¿
Ð° Ñı
à«ĩàª ²
Ġà° ī
à¸Ń à¸Ļ
Ġs a
ĠÛģ ÙĪ
à§įà¦ ¬
ãĥ³ ãĤ
Ġà¤ ı
ĠØ¨ Ø±
Ġàª Ń
Ġe gy
à¥ģ à¤
Ġa l
Ġà¤ķ à¤¾
Ò ·
Ġà¤ª à¤°
Ġì Ĺ
å ±
áº ¯
×ķ× ¨
Ð° ÑĬ
Ð»Ð¸ Ðº
Ġp ar
å® ¶
j Äħ
Ð´ Ð°Ð½
ãĤ Ī
ë§ Ī
ÑĢ Ñĥ
Ø ¶
b er
áº¿ t
j Ã«
k s
Ðµ Ð³
an s
ĀĀ ĀĀ
å Į
w á»į
Ïĥ ÎµÎ¹
ìĿ ¸
Ġ ÏĨ
Î¿Ïħ Î½
ĠÎ ²
áº¹ lu
Ġd in
ÃŃ t
p o
Ð¸ Ð²
á» ¯
ÛĮ Ø±
ãĥ¼ ãĤ
Ŀ ¼
Ã¼ r
ÙĦ Ùī
Ġes t
o o
Ã© r
äº Ĩ
c y
áģ ¾áĢĢ
à¯ Ĥ
à´¿à´² àµįâĢį
áĥĶáĥ Ĺ
± à¸Ļ
Ġà° Ĺ
å ¥
à¦¿ à¦°
àª¾àª ¤
à®¿à® Ł
àµįà´ ²
áĢļ áĢ¹áĢ
áĢķ áĢ¹áĢ
áĢļ áĢ¹
Ïģ Î³
à®¾à® ²
Ġà´ ĩ
ĠâĢ Ķ
Î¼ Î¿
à±įà° ª
áĥĺ áĥĲ
Ġ à¨
åı °
à®© à¯į
Îĳ Î
Ġà´ ļ
à¦ ľ
ÑĢ Ñį
áĥĲáĥ ®
Ġàªª à«įàª°
ĠÏĥ ÏĦÎ·
à°¨ à±įà°¨
ĠÐ ¶
ģà¸² à¸£
8 8
Å Ļ
à¦ ĩ
Ġáĥł áĥĿáĥĽ
ļ à¸Ńà¸
× ĺ
ĠÐ¿ÑĢ Ñĭ
àª ³
à° Ĺ
° à¹Ģà¸
Æ ı
c o
à¦¾à¦ ¬
ãĥ ¬
à¤ ļ
Ġd a
Ġàª¹ àª¤
Ð½Ñĭ Ð¹
Ġà¤ª à¥įà¤°
ĠØ Ń
Ġà¤ ļ
ĠÒ³ Ð°Ð¼
à¥įà¤ ¤
Ī ĺ
è ¡
l ich
Ġk Ã¶
ĠÐ ¹
ĠÒĽ Ð¸Ð»
Ã¢ n
Ġ u
u t
Ñĥ Ð»
æĹ ¥
Ġì ĺ
Ð½ Ð¾Ð¹
ä¹ Ĳ
á» ±
ĠÙ¾ Ø±
ÑĤ ÑĮ
j e
ĠÐ Ķ
lar Ä±n
ãģ Ĭ
è ´
k an
ÏĦ ÏĮ
ë¦ ¬
ĠÃ ·
ĠÏĥ Îµ
w y
gb e
ĠÙħ ÛĮ
Ġd u
Ġl áº¹
Ã¼ l
Ðµ Ð·
Ġg o
è ¨
ëı Ħ
e ng
Ġn o
Ġ× Ļ
Ġp e
Ã ²
ä¸ Ń
g e
Ġáģ Ĭ
à¯įà® ²
àµģà´ Ł
áĥ£áĥ ļ
¡ à¸²à¸
Ġà° İ
å ĩ
à¦¾à¦ ¸
Ġàª ¥
à® ´
à´¿à´ ļàµįà´ļ
áĢ ³
ĠáĢ Ľ
áĢĬ áĢº
Î» Î·
à® ķà¯įà®ķ
àµģà´ ķ
ĠÂ «
ĠÏĢ Î±
à°ķ à±įà°
áĥĲáĥ ¢
æĸ ¹
å ¾
à¯įà®ķà®³ à¯į
ĠÎ Ł
àµ ½
à¦¾à¦ ĩ
Ġ Ð°Ð±
áĥĲáĥ Ĺ
àª ¥à«Ģ
Î® ÏĤ
à°¾à° ¯
Ð¼ Ñĸ
ĸ à¸
é Ľ
Ù İ
à¦ Ĥ
áĥ£áĥ ļáĥĺ
à¹Ħà¸ ¡
ĠÙ ĥ
ĠÐ´ Ð·
à«įàª ¤
¦ à°¿
Ġà¸ ªà¸
Ä ¾
áº¿ n
Ġà¦ ī
Ġi l
à¤ ¼
Å¼ e
àª ¶
Ð°Ðµ ÑĤ
Ġà¤ ¶
ĠØ§ ÙĨ
à¤¾à¤ ¤
Ð°Ð» Ð°ÑĢ
à¤¿à¤ ²
ì ĺ
t Ã¤
ãģª ãģĦ
g en
ÑģÑĤ Ð¾Ð½
Ó ¯
Ġi s
Ġi z
ĠT h
Ð¾ ÒĽ
ãģ£ ãģŁ
Ġë §
ĠÐ¸ Ð·
lo r
k u
× ¡
Ú Ī
ĠÄ °
Ðµ Ð²
Ã© k
è ¦
o ng
w e
Î¼ ÎŃ
ë ħ
. .
Î± ÏĤ
Î¬ Î½
in u
ĠØ ¥
m en
Ġ ?
iy y
Ð½Ð¾ ÑģÑĤ
ç İ
ï ½
ê ±
Å ±
ĠØ§ Ø³Øª
ä ¿
Ġp áº¹lu
y ch
c k
qu e
áĢ ĳ
à®¿à® ķ
àµ ¼
áĥ ĳ
§ à¸²à¸
Ġà° ľ
p p
Ġà¦ ĵ
àª¿ àªķ
à¯ģà® µ
Ġà´ Ĩ
» áĢķ
áĢ® áĢ¸
áĢĻ áĢº
Ïģ Îµ
Ġà® Ĩ
à´Ł àµįà´Ł
ĠÐ³ ÑįÑĤ
Î¿ Î»
à°Ĥà° Ł
áĥĲáĥłáĥ Ĺ
à¤ £
æīĭ æľº
à®£ à¯įà®Ł
Ġ Ïħ
àµ Ĭ
Ġà¦ Ń
ĠÑĪ ÑĤÐ¾
áĥĶáĥ łáĥ
Ġàª ļ
ĠÎ± Î½
à±ģà°¨ à±įà°¨
ĠÂ »
Ľ à¹ĩ
à ©
Æ°á»£ c
à¦ £
áĥĶáĥ ĵ
à¸Ļà¸ µ
Ġg Ã¶
Ð°Ð¼ Ñĸ
Ġàª® àª¾àª
Ġà°ļ à±ĩà°
à¸Ļ à¹Ģà¸
ä¸ į
Ñģ ÑĮ
à§ĩà¦ ķ
j as
à¤¿à¤ ¤
in e
àª Ł
Ð½ Ð¾Ð³Ð¾
Ġà¤¹ à¥ĭ
e z
çº ¿
Ð Ĳ
à¤¤ à¤¾
ìĭ ľ
ÙĨ ÛĴ
é ĸ
Ġm e
ĠÐº Ñŀ
Ð° ÑģÑĤ
× Ĵ
ï¼ Į
ÙĬ Ø±
ĠÐ¸ Ð½
ãģĻ ãĤĭ
Ġì ĭ
ÐµÐ½Ð¸ Ðµ
re a
d an
á» ¥
Ġ on
o k
Ñĥ Ñİ
ie r
ãģ ©
i o
Ġ20 1
Ġy n
ë °
Î¯Î½ Î±Î¹
ĠÂ ¬
ĠÎ »
ĠN i
t u
á» ©
á» Į
ÐµÐ½ Ð½Ñı
ĠÐ´ Ð»Ñı
æ °
Ġ Û
ìķ Ī
Ø§ Ùĩ
Ġho gy
éĹ ¨
Ġp a
ĠÙĨ ÛĴ
ãģ Ī
ĠS e
áĢ½ áĢ¬
à®¿à® ¤
à´ª àµįà´ª
Ġáĥ ľ
à¹ĥà¸ «
à°¿à° ¤
å¹³ åı°
à§ ľ
ĠàªĨ àªµ
à®¿à®© à¯į
àµĩ à´
ĠáĢ ħ
áĤ ķ
áĢĻ áĢ¹áĢ
Ïī ÏĤ
à®¿à® ķà¯įà®ķ
à´¿à´ ķ
ĠÐ¿ Ð°Ð´
Î» Îµ
à±įà° µ
ĸ áĥĶ
á ł
a pp
à¯įà® ³
Î½ Î·
à´³ àµįâĢį
à¦¿à¦ ²
Ð° Ñħ
áĥĿáĥ ķ
àª §
ĠÏĦ ÏīÎ½
¸ à±įà°¤
Ð½ Ð°Ð¹
ĩ à¹Ģà¸
å Ŀ
ÈĻ i
à§ģ à¦²
áĥ ª
Ġà¸ ª
Ġj e
Ðµ Ð»Ð°ÑĢ
Ġàª «
¡ à±ģ
ģ à¸£à¸
ç Ļ
Ð°ÑĤ Ð°
à§ĩà¦ ²
Ġ ÅŁ
Ġà¤¹à¥Ī à¤Ĥ
ĠØ§ÙĦ Øª
Ġàªª àª°
á» ĩ
à¥įà¤ Ł
Ð°Ð ¶
à¤¿à¤ ı
Ð°Ñģ Ð¸
à¤¿à¤¯ à¤¾
Ġì Ħ
Ġd as
Ġ× ŀ
Ġch e
Ð ĺ
Ð°ÑĤ Ð¸
Ġl i
6 5
Ġh a
ĠÑ ĳ
ãģĭ ãĤī
í Ĭ
Ú¾ ÛĮ
Ð¸ Ñħ
ĠØ§ ÛĮÙĨ
Ġc Ã¡c
Å Ħ
ãĤ ģ
c s
Ã« n
Äģ r
Ġp re
p e
ĠÎµ Î¯Î½Î±Î¹
ë¥ ¼
Ïĥ Îµ
ĠÎ± Ïħ
Îº Îµ
Ġb i
Ø °
ÐµÐ½ ÑĤ
Ġt a
ch t
æ Ģ
è Ĥ
ĠÃ ¶
ì ¹
Ð¾ Ñĩ
Ø± ÛĮ
è Ģ
á¹£ e
d y
×Ļ× ª
Ġun e
ķ áĢ«
à®¾à® ¤
à´¾à´£ àµį
áĥ Ļ
à¹Ħà¸Ķ à¹ī
à°Ĥà° ¤
Ġç İ¯äºļ
à§ĩà¦ ¶
à«ĩàª ®
à® ª
à´ ¦
áĢħ áĢº
áĢĶáĢ¹áĢ ¸
áĢļ áĢº
ÎĻ Î
à¯įà® µ
Ġà´ °
Ð°ÑĢ Ñĭ
Î» Î±
Ġà°µ à°¿à°
áĥ ¥
Ġ äºļæ¸¸
2 0
à¯ģà® ®
Î¿ Î½
Ġà´ª àµįà´°
§ à§
ĠÐ± Ñĭ
áĥĺáĥ ł
Ġàªķ à«ĩ
ĠÏĢ Îµ
à° ļ
Ð° ÑĨÑĮ
ĩà¸ ´
å¼ Ģ
á»Ļ t
à§ģ à¦°
áĥĿáĥ ĵ
Ĥ à¸
Ġz u
ĠÐ¿ ÐµÑĢ
Ġàª ĸ
à±ģà° ¤
Ħà¸ §à¸²à¸
ĥ ½
Ã¡ g
à§įà¦ ·
in in
à¤¿à¤ ¸
Ùĩ Ø§
àª¿àª ¯
Ġqu e
Ġà¤ĩ à¤¸
i ÄĻ
à¤¹ à¥Ģ
ĠÐ± Ð¸Ð»
Ġà¤¨ à¥ĩ
íķ ´
Ä± r
Ġ ÚĨ
ãĤ Ħ
Ð» Ð°Ð½
Ġ Ð°Ð·
Ã©s z
å ¯
v a
ĠÐº Ð¸
Ġm it
Ġê ³
Ġq Ã«
Ø £
in h
ÅĽ ci
a i
ĠÐ ĺ
×ķ× ľ
zion e
Ġy a
Ġp entru
Ġw á»įn
ĠÎ¸ Î±
ë ³
ĠÎ ¬
ĠÏĦ Î¹
Ï Ī
Ġi á¹£áº¹
é ģ
ĠÑĩ ÑĤÐ¾
Ġf i
Ġv on
ÙĦ ÛĮ
ç Ĳ
b an
ë ¶
k y
Ġkh Ã´ng
æ µ
r á»į
Ð¸ÑĤ Ðµ
ow an
ĠÐ² ÑĸÐ´
áĢĢ áĢ¹
Ġà®ļ à¯Ĩ
à´£ àµįà´Ł
Ġáĥ ®
à¹ĥ à¸Ļà¸
à°¨ à±ģ
à¤¾à¤ Ĥ
à¦ ¶
Ġàª¤ à«ĩ
à®² à¯į
àµģà´ ¤
áģ Ģ
áģ ¿
áĢĦáĢ¹áĢ ·
Î ¡
à®¾à® Ł
àµĨ à´¯
Ð½Ñĭ Ñı
Î¯Î± ÏĤ
Ġà° ²
áĥ ¨áĥĺ
Ġc n
æ ķ
à¯įà® ©
Î¿Ïħ ÏĤ
àµįâĢ Į
à¦¾à¦ ľ
Ð°Ð´ Ð·
áĥĺáĥ ª
Ġàª ī
ĠÎ ĵ
à°ķ à±ģ
Ð°Ð² Ð°Ð½
à¹Ī à¸Ļ
ç« Ļ
Ġu z
Ġà¦ª à¦°
áĥķ áĥĶáĥļ
¡ à¸µà¸
ÙĪ ÙĦ
ĠÐ´ Ð°
Ġ à«
à±Ĩ à°²
Ķ à¸´à¸
ä¸ Ĭ
u o
Ġà¦ı à¦ķ
Ġ re
à¤¾à¤ ®
Ðµ ÑģÑĤ
àªµ àª¾
Ġc ho
à¤¨ à¤¾
Ö ģ
à¤¾à¤ ¯
Ò³ Ð¾Ð¸
à¤ §
ì £¼
in dÉĻ
b en
Ġp r
Ð°Ð³ Ð¸
Ð¾ Ñı
Ãł y
Ġ ï¿½ï¿½
Ã«s h
ÑĤ Ð¸ÑĢ
ĠÙ Ĥ
í Ļ
ÅĤ o
Ġ×© ×ľ
Ã¤ n
Ġï¼ ī
ĠÐ¿ Ð¾Ð´
n ÃŃ
Ã© l
ÉĻ b
ãģĵ ãģ¨
z a
j á»į
Ġ ;
íĬ ¸
Ïģ Î·
ĠÏĦÎ¿ Î½
Ïģ Ïī
Ġlo ri
Ð ¡
Ð°Ð½ Ð½Ñı
Ġa la
ĠÑĢ Ð°Ð·
Ġd en
ç ¾
Ġv i
ë ł
Ġ ÛĮ
m ent
å¹ ´
b o
Ñİ ÑĤ
á» Ł
z ÉĻr
áĢĦáĢº áĢ¸áĢ
à¯ģà®¤ à¯įà®¤
àµģà´ ®
Ġáĥ ¤
· à¸Ńà¸
à±įà° ļ
æ ŀ
à¦¤ à§ĩ
àª ¬
à¯ģà® Ł
à´¤ àµį
áĢŃáĢ¯ áĤĶ
áĢ¯ áĢ¶
áĢĢ áĢ¼
ÏĥÎ· ÏĤ
à®² à¯įà®²
à´ ķàµįà´
ĠÑģ Ð¿
Î ¤
à°ª à±įà°ª
Ġáĥ ¥
ä¸ ī
éĽ Ĩ
Ġà®ĩ à®°
Î Ŀ
à´¿à´ Ł
Ġà¦ ²
Ñı ÑĢ
áĥĿáĥ ļ
àª¨ à«įàª
Î¹ Î¬
à°² à±ģ
ĠÐ Ĺ
Ġ à¹Ĥà¸
å Ĵ
Ġn jÃ«
Ġà¦ ¥
Ġáĥ ©
à¹ī à¸Ńà¸
ow a
Ñģ ÐºÑĸ
Ġàªª àª£
à°² à±ĭ
ļ à¸²à¸
in en
ul ui
à¦ Ń
æ Ķ
åľ¨ çº¿
ĠÙĪ Ø§ÙĦ
àª¾àª® àª¾àªĤ
Ã© n
Ġà¤ «
e y
é ¢
ĠÐ±Ñŀ Ð»
Ġà¤ı à¤ķ
Ġì §
e it
Õ¸ Õ
n Ã©
ÐºÐ¸ ÑģÑĤÐ¾Ð½
Ð³ Ð¸
Ä« g
s i
es t
Ð¾Ð½ Ð¸
× ¦
ĠìĿ ´
æ Ń
áº ·
ĠÛģ ÛĮÚº
Ø «
ÑĩÐµ ÑģÐº
Ñĥ Ð²
Ġc are
dÄ± r
ãĥ Ń
Ġ U
Ġm i
Ġ =
Ġë Ĥ
Î¸ Îµ
Ġ 6
ĠÎ´ Î¹Î±
Ġo hun
Ñĥ ÑĤ
ĠÚ© Ùĩ
ŀ Į
Ġn em
Ġ ie
æ ł
ow e
ëĭ Īëĭ¤
Ġs ur
Ġa n
ãĢ ĳãĢĲ
áº¹ n
ãĥ ķ
Ġ× ł
Ġ Ô
áĢĬ áĢ¹
à®Ļ à¯įà®ķ
àµįà´ ³
áĥĿáĥ ł
ļà¸Ńà¸ ¥
à°¿à°ķ à°¿
æ ´
à¦ ļ
àª¨ à«ĭ
à®± à¯įà®±
à´ Ĺ
áĢ±áĢ Ķ
áĢ¬ áĢĢáĢ¹áĢ
áĢĬáĢ¹áĢ ¸
ĠÏĥÏĦÎ· Î½
Ġà® Ĵ
Ġà´ Ĵ
Ð½Ñĸ Ðº
ĠÎ Ĺ
à°¿à° ¯
áĥ ¬
æĪ ·
ç İ¯äºļ
à®³ à¯į
Î¸ Î·
âĢĭ âĢĭ
à¦¨ à§įà¦
Ġâ ķ
áĥĶáĥĳ áĥ¡
àª¾àª ¸
Î± Ïĥ
à°¿à° ª
ĠâĢ ĵ
à¹Īà¸ ĩà¸
åĽ ¢
Ã ¹
à¦ §
ĠáĥĲáĥ Ľ
¥à¸ °à¸
Ð¾Ð² Ð°Ð½
ĠÑı Ðº
à«įàª µ
à°Ĥà° ¡
ĭ à¸
Ã© ny
l Ã¤
Ġà¦¸ à¦®
Ã½ ch
Ġà¤ ¥
ä½ ĵ
àª¿ àª¤
Ġo d
Ġà¤ ĸ
Ġ Q
è§ Ĩ
ĠÐ± Ð°ÑĢ
à¤¿à¤ ¨
ìŀ Ĳ
ÙĪ ÙĨ
Ġd ÉĻ
s h
Ð¸Ð½ Ð¸Ð½Ð³
Ñĩ Ð°
v i
Ġï¼ Ī
ĠÑģ Ð²
ĠÐ± Ð¸ÑĢ
Ġk e
ìľ ¼
ĠÄĳ Æ°á»£c
ãģ ¡
Ã³ l
Ġ er
Ð½Ð° Ñı
u x
j Äģ
ÉĻ d
æ İ
Ã³ n
Ì £
ĠÎ ®
Ġë ĭ
Ġ ï¿½ï¿½ï¿½ï¿½
Î´ Î¿
ĠÎ± ÏĢÎ¿
Ġn inu
Ġ Z
Ñĥ Ñĩ
Ġ á»Į
ãģ ¤
Ġc e
Ġ× Ĺ
¾ ³
ë Ŀ¼
y m
Ø¦ ÛĴ
Ġå ĩ
l á»į
Ã© p
ĠØ§ÙĦØ £
ĠâĢ Ŀ
áĢ¬ áĢĦáĢ¹áĢ¸
à¯ģà® ±
à´¾à´ ¤
áĥĿáĥ Ĵ
±à¸ ĩà¸
à±įà° ¸
ç §
Ġà¦¹ à§Ł
àª° à«Ģ
à®¿à® µ
àµģà´Ł àµĨ
ĠáĢ Ĩ
áĢĲ áĢļáĢ¹
áĢ±áĢ Ľ
ĠÏĦÎ¿Ïħ ÏĤ
Ġà®ª à¯ĭ
Ġà´ ¬
ÑĨ Ðµ
Î¹Îº ÏĮ
à±įà° ®
áĥĿáĥ łáĥ
åĴ Į
à¥įà¤¯ à¤¾
à®¾à®° à¯į
ÏģÎ¹ Ïĥ
± àµĨ
à¦¾à¦ ¹
ĠÑı ÐºÑĸ
áĥĺáĥ ¢
àª ļ
ĠÎ Ŀ
à± Ĥ
Ð½ Ð°Ð³Ð°
Ī à¸²à¸
å½© ç¥
Ġts e
à§ĩà¦ Ľà§ĩ
Ġáĥĵ áĥĲáĥ
à¸£à¸ ´à¸
ĠÐ² Ñģ
Ð°ÑĨ Ñĭ
à«ĩàª µ
à° ¹
¥ à¸²à¸
k e
ĠÃ ¨
Ġà¦ ĩ
ĠãĢ į
à¤¾à¤ ¦
Ġ ÈĻi
Ġàªı àªķ
iá» ģ
à¥įà¤ µ
lÉĻr i
à ¬
Ð¸Ð´ Ð°Ð½
é¢ ĳ
ìĽ Ĳ
ĠØ± Ø§
ĠâĢ ľ
in Äģ
Ð» Ð°ÑĪ
ÑĤ Ð°
Ġc s
ãĤ ¿
ÑĢ Ðµ
ĠÐ¸ ÑĪ
Ġ ro
Ġê ·
×Ļ× ¨
Ġp ro
ãĤ ·
is ta
Ð¸ ÑģÑĤ
Ġi st
z t
iy a
Ġng a
Ú ĳ
Ġi le
y n
Ġì Ĥ¬
Ïĩ Îµ
ÏĥÎµÎ¹ ÏĤ
Ġ 9
k un
Æ° Æ¡
ÑĢ Ð°Ð½
r in
ãĥ Ĺ
Ġd ans
ÙĦ ÙĬ
Ġa t
Ĥ °
Ã© t
áº§ n
ĠÑ ī
y a
ÛĮ Ùħ
ci Ã³n
Ä± ÅŁ
áĢĲ áĢº
Ġà®ħ à®µ
àµ »
áĥĵ áĥĲ
Ľ à¸£à¸°à¸
à° ľ
æĪ ı
Ġà¦ «
àªĤàª Ĺ
à®¿à®¤ à¯įà®¤
à´ ´
áĢ¶ áĢ¯
áĢ· áĢº
ĠáĢ ģ
Îº Î±
à®© à¯įà®±
à´¿ àµ½
Ñĥ Ð¿
Î¹ Î½
à°¾à° Ĥà°
ĠáĥĴ áĥĲáĥĽ
éĻ ħ
ç½ĳ ç«Ļ
à®¾à®© à¯į
á ½
Ġà´ ī
à§ ¦
Ð» Ð°
áĥĺáĥ Ļ
Ł à«ĩ
Î¹Îº Î®
à±ģà°² à±ģ
ĠÑĤ Ð°Ðº
· à¸Ń
çī Ī
c ie
Ġà§ ¨
Ġáĥ Ŀ
ģà¸ ±à¸
ch en
ĠÂ Ń
Ġàª¸ àª¾àª
à°¾à° ¤
¡ à¸²
çī Į
æĸ °
à§ ĥ
ãģ Ľ
à¤¤ à¥ĩ
× Ł
Ġàªµ àª¿àª
æ ²
à¤ ¶
i b
Ġà¤Ń à¥Ģ
ĠÐ İ
à¤ Ī
ì Ĩ
Ø§Ø ¡
Ø¯ Ùĩ
Ġm in
ÑĢ Ð¾
ĠÐ±Ð¸Ð» Ð°Ð½
d h
ãĤ £
Æ°á» Ľ
Ð¸ Ð³Ð°
y Ã¶
Ġë ª
Ø§ Ûģ
Õ µ
ĠãĢ Į
n o
æ £
Ġn e
Ð½Ñĭ Ð¼
c an
Ġf Ã¼r
s e
j i
Ġ 7
ë ©
ĠÎ´ ÎµÎ½
Ġ 8
Ïĥ ÏĦÎµ
Ġgb a
ĠØ§ÙĦ Ø¹
ĠÙĨ Ûģ
f i
ãĤ ı
iá»ĩ n
×ķ× ĵ
s Ã©g
Ġê ¸
Ð ŀ
ĠÐ¿ Ð¾Ð»
Ø§ Ø¨
Ġm áº¹
v Ã¤
Ġa uf
Ä±n da
áĢķ áĢº
à¯ģà® ³
Ġà´ ľ
áĥłáĥ Ĺ
¶ à¸
à°¿à° ²
é Ŀ
à§ Ĥ
àª¾àª ľ
à®¾à®² à¯į
à´¾à´ ²
áĢ ĺ
ĠáĢ Ķ
ĠáĢ Ĵ
Î¿ ÏĤ
Ġà®ķ à¯Ĭ
àµ ¾
Ð°Ð² Ñĸ
Î¼ ÏĮ
à°¿à° °
áĥĺáĥ ķ
æ¸¸ æĪı
éĽĨ åĽ¢
à¯ģà® ¨à¯įà®¤
Ïģ Ïĩ
Ġà´µ à´¿à´
Ġà¦ ĸ
ĠÐ Ľ
áĥĶáĥ ¢
àª¾àª ²
ĠÎµ Î½
à°Ł à±įà°Ł
Ñį ÑĢ
à¸£à¸µ à¸
æ ĭ
r es
à§ĩà¦ ĩ
áĥĺáĥ Ľ
à¹ī à¸Ļà¸
Ġtr ong
Ð½ Ð°Ñģ
Ġàª Ł
à° ¬
ĵ à¸
å ĳ
Äģ k
à¦Ł à¦¿
å ł
Ġà¤ķ à¤¿
le t
à«ĩàª ¶
Ðµ Ñĩ
à¤¾à¤ ¸
b ay
è§Ĩ é¢ĳ
Ð¸ Ñĳ
à¥ Į
ì² ľ
rz e
i k
æĿ ¥
Ð¸ ÑĦ
Ñĥ Ð±
ĠØ ²
Ġ× ª
ãģ ¿
ĠÐ ¨
l es
Ġì ¹
ĠSe x
Ö Ħ
Ġn u
ãģĦ ãĤĭ
w i
å¤ ©
Ð¾ÑĤ Ð¾ÑĢ
lar Ä±
ĠÄ į
Æ°á»Ŀ i
Ġl á»į
ÏĦÎ± Î½
Ġë ³
Ġ &
Ïĥ Î±
Ïģ Ïİ
Ġy oo
Ã¡ ny
Ġå ħ
ê ŀĮ
Ø± ÙĬ
Ã Ł
Ġma i
Ġm Ã«
ë ¬
dz ie
Ġp as
Ñĸ Ð¹
Ġ Y
ãĤ ³
Ø´ Øª
bay can
áĤ Ī
à¯Īà® ķ
àµģà´ ³
áĥķ áĥĺáĥ¡
§ à¸´à¸
à°Ĥà° ²à±ĭ
åĿ Ģ
Ġà¦Ĩ à¦®
àªµ àª¾àª¨
à¯ģà®ķà¯įà®ķ à¯ģ
Ġà´ ²
áĢ Ŀ
áĢĲ áĢ¬
áĢĻáĢ¹áĢ ¸
ĠÎµ Îº
Ġà®İà®© à¯įà®±
à´± àµįà´±
ÐµÐ»Ð°ÑĢ ÑĥÑģ
ĠÎ¿ Î¹
à°¾à° ®
áĥĶáĥ Ĵ
åĽ½ éĻħ
ä¼ ļ
à®¾à® µ
ĠÎ Ĵ
àµĨ à´¨àµįà´¨
à¦¾à¦ ª
ĠÐ ¯
Ġáĥ ¢
à«ĭ àªķ
ĠÏĦÎ¹ ÏĤ
Ġà° Ī
Ð ĵ
± à¹īà¸
çľ Ł
Ġf el
Ġà¦ Ľ
áĥĶáĥļ áĥĺ
à¹ĥà¸ Ĭ
Ġj o
ĠâĢ ļ
Ġàª° àª¹
à°¾à° Ł
ł à¸²à¸
×ķ× Ł
Ñĭ Ðµ
à§įà¦ ª
ĠÐ² Ð¾
Ġà¤² à¤¿à¤ı
m o
Ġàª®àª¾àª Łà«ĩ
Ø§ Ú©
à¤ Ń
ÉĻs i
à¤° à¥Ģ
ĠÒ ·
à¥ĩà¤ ¶
Ġì Īĺ
Ġv er
å ĵ
v o
ĠÑĥ Ñĩ
ĠÐ¼ Ðµ
á» ĵ
Ø¦ ÛĮ
ãĥĥ ãĥĪ
ĠÒ ļ
r y
Ġê µ
ĠØ¹ ÙĦÙī
Õ¥ ÖĢ
¾³ éĹ¨
Ġãģ Ŀ
å Ł
Ġd Ã©
ĠÑĤ Ð°
Õ¡Õ ¯
Ġm á»Ļt
a gy
t á»į
Ïģ ÎŃ
ì Ĥ°
ĠÎ¼ ÎŃ
ĠÂ °
ĠÎŃ Ïĩ
m u
Ġa c
ĠÐº Ð°Ðº
Ġa y
×ķ× ĳ
ĠØ µ
te l
æ ¬
ìĸ ´
Ġj est
å ¨
Ð°Ð¼ Ð¸
Ġgb o
Ļ Ĥ
ÙĦ Ø§
Ġ Æı
áĢ± áĢ¸áĢ
Ġà®ħ à®¤
à´¨ àµįâĢį
áĥ ¨
à¸Ń à¸²à¸
à° £
å®ĺ æĸ¹
à§įà¦ ¥
àª¾àª £
Ġà®ļà¯Ĩ à®¯
à´¾à´¯ à´¿
áĢŃáĢ¯ áĢ·
áĢŃáĢ¯ áĢĦáĢ¹áĢ
áĢĸ áĢħáĢ¹áĢ
ĠÏĥÏħ Î½
à¯įà® ®
à´¿à´ ¨àµįà´
ĠÑĸ Ð½
Î¼ Î¬
à°¾à° ķ
ĠáĥĴ áĥĲáĥľ
a g
åħ ¬
à®¾à® ¯
ÏĢ Î±
Ġà´İ à´¨àµįà´¨
Ġà¦¬ à¦²
ĠÐ Ĩ
áĥĲáĥ Ĵ
àª Ń
ĠÎ± Î½Î±
à°ķà±įà° ķ
Ð¾Ð´ Ð·
à¸Ń à¸£
ä¸ º
Ġp ie
à¦¿à§Ł à§ĩ
áĥĺ áĥĲáĥľ
Ĥ à¸Ńà¸ĩà¸
l en
ĠÑĢ Ñį
àª¾àª ¦
Ġà° Ń
à¸² à¸Ļà¸
Ġpo r
c Äĥ
Ġà¦ Ł
s o
à¤Ĥ à¤Ĺ
ĠÐ¿ÑĢ Ð¾
àª¤ àª¾
ÙĪ Ø²
à¤¾à¤ ľ
Ġb u
ä¹ ħ
Ñĥ Ð·
å° ı
í Ķ
Ð¿ ÑĢ
å ĭ
Ġ× ¨
ĠÑŀ Ð·
ĠÒ ²
on t
áº¡ n
cz y
Ð° ÑĦ
s Ã¤
¹ Ħ
ĠØ¨ Ú¾ÛĮ
ĠA zÉĻr
çĶ ¨
Äĵ r
Ġi m
Ġv y
Ùĩ Ø§ÛĮ
Ã¶ v
on a
æľ ¬
Ġt á»įn
ÏĦ Î¯
Ġì ¶ľìŀ¥
Ġ. ..
ĠÎŃ Î½Î±
Ġ !
Ġd ara
Ã¡ k
ĠÐŁ ÑĢ
Ġa ra
ĠÛĮ Ûģ
Ø º
ĠS ch
Ġvá» Ľi
ë§ Į
Å¼ y
Ġt e
ĠÑģ Ð»
á»įn a
æľ Ī
Ã© e
Õ¡Õ µ
áĢ±áĢ ĲáĢ¬
à®Ļ à¯įà®ķà®³
àµģà´¨àµįà´¨ àµģ
áĥĺáĥ Ŀ
à¸Ńà¸ ¢
Ġà° ¶
æĹ¶ å½©
Ġà¦ħ à¦¨
à«ĩàª Ł
à®¾à® ³
Ġà´ ¯
áĢ½ áĢŃ
áĢ² áĤĶ
áĢĲ áĢ²áĢ·
ÏĢ Îµ
Ġà® °
àµ Ī
Ġ1 9
ĠÎ Ļ
à±ģà° °
áĥ ŀ
O M
ä¸ ª
Ġà®ª à¯Ĩ
Î Ľ
à´¿à´ ¤
Ġà§ §à§
Ñĸ ÑĤ
áĥĺáĥ ļáĥĺ
ĠàªĨ àªª
ÏĨ Î¿
à°Ĥà° Ĺà°¾
Ð» Ð°Ð´
à¹ī à¸Ļ
åľ °
Ġa p
à¦¿à¦ ¬
áĥ ¦
¨ à¸
×Ļ× ł
Ñĸ Ñĩ
à«ĩ àª°
Ġà° ¹
Ľà¹ĩ à¸Ļà¸
v at
is h
à¦ ¯à¦¼
Ġ ri
à¥ ī
ĠÐ¿ÑĢ ÐµÐ´
àª¾àª° à«ĩ
Ġg e
à¤¹à¥Ģ à¤Ĥ
Ġi lÉĻ
à¤ķ à¥įà¤
ĠÐ± Ð¾ÑĪ
à¤ķ à¥ĩ
í ĸ
ÑĨ Ð¸
ç ´
Ġl os
Ñĥ ÒĽ
ĠÐ´ Ð°Ð²
Øª ÛĴ
el y
to r
ĠÑį ÑĤ
iá»ģ u
¯ ¸
ts a
ma s
ãĥĥ ãĤ¯
Ù Ģ
ĠÙĦ ÙĦ
Ġqu i
k ie
ĠAzÉĻr baycan
b e
ĠãĢ ĳ
in i
Ġ 00
Ġìŀ Ī
ĠÎº Î¬
ĠÎµÏĢ Î¹
Ïĥ Î¹
Ġgbo gbo
áº£ i
Ñī Ðµ
Ġta bi
Äģ d
Ùģ Øª
an d
×ķ× ł
Ġë ĮĢ
Ġs Äĥ
on o
Ð¸ÑĤ ÐµÐ»ÑĮ
r áº¹
è ²
he t
Õ ¿
ĠáĢ ĳ
à®¿à®Ł à¯įà®Ł
à´¨àµįà´ ¤
áĥ £
Ġà¸ Ħ
à°° à±į
å½©ç¥ ¨
à¦ ¥
à«įàª¯ àª¾
à®¾à® ®
à´² àµįà´²
áĢ±áĢ ĲáĢ¼
áĢŃ áĢ³
áĢŃáĢ¯ áĢ¸áĢ
Î»Î¿ Î³
Ġà®µ à®°
Ġà´ ¶
ĠÐ· Ð°
ĠÎ ¹
à°¾à°² à±ģ
Ġáĥ ª
è Ī
çĻ »
Ġà®Ĵ à®°
Î ł
àµįà´ ŀ
à§ĩà¦ Ľ
Ñĸ Ñı
áĥĲáĥ ĺ
à«įàª ²
Îº Î¿
Ġ. .
Ñĥ Ðº
ĩà¸´ à¸Ļà¸
ä» ¥
t Ã³
à¦¬ à§ĩ
áĥĺáĥ £áĥ
à¹ Ĩ
Æ°á»Ŀ ng
Ñĥ Ð»ÑĮ
à«ĩàª ķ
à°ļ à±įà°ļ
à¸Ļ à¹Į
Ùħ Ø§
lu s
Ġà¦ķà¦° à§ĩ
Å ¯
à¤¡ à¤¼
Ð½Ð¾ Ðµ
Ġàª¤ à«ĭ
ĠØ ·
Ġà¤µ à¤¿à¤
Ġb il
à¤¾à¤ ¹
Ñĩ Ð¸
à¤¸ à¥ĩ
Ġì ĥ
ch e
ç µ
Ġ Å¡
ĠÐ ¥
Ð¾ÑĢ Ð¸
Ã¤Ã¤ n
i m
ĠÐº Ð¾ÑĤÐ¾ÑĢ
ĠÑĤ Ð°ÑĢ
n ak
ë ĮĢ
Æ°Æ¡ ng
Ġt ÉĻ
è ª
n en
Ġg a
i re
en ia
ĠÕ °
×Ļ× Ķ
ãĥ Ĩ
Ġi á¹£
Î¹Îº Î¬
ë ª
ĠÎ ¾
ÏĦ ÎŃ
Ġ %
Ġna a
ÈĽ i
Ð¾ ÑĹ
Ġs o
ĠØ§ÙĦ Ø³
æ³ ¨
Ġæ ¾³éĹ¨
ç¾ İ
ê± ¸
Ñħ Ð¾Ð´
ĠØª Ú¾
Ġ Ã«sh
iy an
ãĤ «
Ø§ Ø²
Ġ ÉĻ
áĢĶ áĢ¹
à®³ à¯įà®³
àµģà´³ àµįà´³
áĥĲáĥ ¨áĥĺ
Ħà¸ ¸à¸
à°¾à° µ
1 0
à¦¿à¦ ¸
Ġàª ¡
à®¿à® ªà¯įà®ª
ŀ àµįà´ŀ
áĤı áĢ½
áĢģ áĢº
áĢķ áĢ¼
Î· ÏĤ
Ġà®µ à¯ĩ
àµįà´ µ
ĠÐ³ Ñĵ
Î´ Î±
à±ģà° µ
áĥļ áĥĺáĥ¡
äº ¬
æĹ¶ æĹ¶å½©
à¯ģà® ªà¯įà®ª
Î»Î» Î¬
ª àµįà´ª
à¦ķ à§ĩ
Ġ Ð°
Ġáĥ §
àª¿ àªµ
Î ľ
à° ³
Ñĸ Ð¼
Ġà¸ ŀ
ĠC OM
iá» ĥ
à¦ ĸ
áĥĲáĥ Ļ
Ł à¸
Ġå ı
ÑĢ Ð°Ð¼
à«įàª¯ à«ĭ
à±Ī à°¨
Ġà¸ Ĺà¸
Å¾ e
Ã¡ z
Ļ à§įà¦
c ia
çľ ĭ
ĠV er
Ġàª¸ àª®
p Äĵ
à¤ ı
Õ¡ ÖĢ
Ġà¤° à¤¹
Ð» Ð°ÑĤ
Ġà¤ħ à¤ª
ìł ķ
em ent
æ ¥
Ġprz y
Ð± Ðµ
Ò³ Ð¾
ĠkÃ¶ z
ĠÙĩ Ùħ
Ġk u
ĠÑĤ Ñŀ
Ġts a
í ĺ
s en
li k
åĩ º
Ñĭ Ð¹
Ġf a
Ãł ng
ÙĬ Ø¯
m ÉĻ
Ðº Ð¾
æĸ Ļ
Ġs á»į
ÏĦÎ¹Îº ÏĮ
ê² Į
Î» Î¬
Ġ1 0
t h
Ġa w
ĠØ§ ÛĮÚ©
Ġ× ¤
il áº¹
Ä«b as
è¡ Į
w ie
Ø± Ø¯
Ġë ¶
Ġs ch
Ġng h
ĠÐº Ð¾Ð¼
ur o
ãģ¾ ãģĹãģŁ
Ġt Ã¶
in ÉĻ
áĢĻ áĢ¾
Ġà®ĩ à®¨à¯įà®¤
à´ ¶
Ġáĥŀ áĥł
à¹ī à¸Ńà¸ĩà¸
à° §
ä¸ ļ
à§ĩà¦ ĸ
Ġàª¤ àª®
ª à¯į
àµįà´ ®
áģ¿ áĢķ
áĢĽ áĢ¬
áĢ Ł
Î¼Î± ÏĦÎ±
à¯Īà® ķà¯įà®ķ
àµģà´ µ
Ñģ Ð¿
ÏĢ Î¿Ïħ
à°¿à°Ĥà° ¦à°¿
Ġáĥĺ áĥ¡
åİ ħ
åĪĨ å½©
à¯ĩ à®°
Î ¥
à´² àµįâĢį
à¦ ĵ
Ñĸ ÑģÑĤ
áĥ£áĥł áĥĺ
à«įàª¯ à«ģàªĤ
Î¼ Î²
à±ģà° Ĺ
Ñİ ÑĨÑĮ
à¹Ħà¸ ¥
à¤¾à¤ ļ
b le
à¦¨ à§įà¦¤
ĠáĥĽ áĥĿáĥ
« à¸Ļ
k ov
ÑĪ Ñĭ
àª Ī
à° Ń
ģ à¹Ģà¸
ta a
Ġya ng
Ġà¦ľ à¦¨
Ġdel la
Ġà¤¸ à¤®
å¸ Ĥ
àª¿àª ²
m s
à¤¾à¤ µ
Õ¸ÖĤÕ ´
Ġà¤ ¡
ĠÒĽ Ñŀ
à¤¤ à¥Ģ
í Ĩ
ĠØ£ ÙĨ
Ãł nh
ĠÃ«sh tÃ«
Ð¸Ð» Ð³Ð°Ð½
Ð°ÑĢ Ð¸
Ġp ara
Ġv o
Ġc z
ĠÐİ Ð·
æ ±
ìķĪ ë§Ī
f f
Ġ #
Ø³ ÛĮ
ÐµÐ½ ÑĮ
ta l
é ĺ
Ġ×Ĳ ×ª
Ġm ÉĻ
Ð°Ð± Ð¾ÑĤ
Äģ m
Ġe yi
ĠÏĮ ÏĦÎ¹
Ġê· ¸
ĠÏĥ Î±ÏĤ
ĠÎµ Î¯
Îº ÏĮ
y in
Ġs ich
n ek
Ġa gb
Ð³ Ð¾
áº£ n
ĠÃ®n t
c ji
ê³ ¼
Ð¾Ð¼ Ñĥ
çĶ Ł
n Ã½
á¹ ¢
ĠÑģ Ðµ
da d
ÅŁ a
áĢŃáĢ¯ áĢĦáĢº
à®¿à® ´
à´Ļàµįà´Ļ à´³
áĥĶáĥ ¥
Ĺà¸ ¢
à°¨ à±į
è½ ¦
à§ĭ à¦¨
àª¾àª ³
à¯ģà®³ à¯įà®³
à´ ¹
ĠáĢ »
áĢĲ áĢ½
áĢ» áĢķ
ÏĦÎ¹Îº Î®
à®ªà¯įà®ª à®Ł
àµģà´ £
ÑĨ Ñı
Î» ÎŃ
à°° à°¿à°
Ġáĥ ļ
å® ¢
± ä¹Ĳ
à®¤à¯įà®¤ à®¿à®²à¯į
ÏĦÎ¿ ÏĤ
à´ ·
Ġà¦¬ à§įà¦¯
Ñĸ ÑĨÑĮ
áĥĲáĥ ļáĥĺ
à«ĭàª ²
Î· Î½
à°¾à° ¦
Ð» Ð°Ñģ
Ġà¸ ķ
å¿« 3
ta te
Ġà¦¨ à¦¾
áĥĽ áĥĲ
à¸Ļ à¸²à¸
ÙĪ ÛĮ
Ð³ Ñĵ
à«įàª ¸
Ġà° ı
±à¸ ģà¸
u u
v Äĵ
à§ģ à¦¨
ĠC h
Ġà¤¨ à¤¹à¥Ģà¤Ĥ
ÙĨ Ø§
Ġàªķàª° à«Ģ
u ar
Ġà¤¸ à¤Ĥ
o x
Ġà¤ Ł
Ð¸ÑĪ Ð¸
Ġà¤Ĩ à¤ª
ìĦ ±
Ġa ve
ãĥ £
Ġ gy
ĠÑ İ
Ð°ÑĢ Ð´
Ġk tÃ³
in d
Ġng Æ°á»Ŀi
ĠÐ¹ Ð¸Ð»
Å Ī
ìĹĲ ìĦľ
× ĸ
ĠÃ¼ Ã§
ĠØ§ÙĦ ØŃ
ãĥ ¡
ĠÐ¼ Ð¾Ð¶
Ġo u
Ġun a
ĠS z
ä½ ľ
t Ä«
j o
ÏĦÎµ ÏĤ
ëĵ ¤
ĠÏĢ Î¿
Ïĥ ÏĦ
Ïĥ Î¿
an i
Ð½Ð¸ Ðº
Ã ¥
Ġ á¹¢
Ã¡ m
ãģ® ãģ§
Ġåĩ ¯
ĭ çīĮ
Ġ íķ
ĠÙĩ Ø§ÛĮ
è ĩ
Ø§Ø± ÛĮ
ĠM o
ĠÐ¿ÑĢ Ð¸
Ġni cht
Ù ĳ
ĠáĢ ĺ
à®° à¯įà®ķà®³
ĠâĢĭ âĢĭâĢĭ
áĥĺáĥ łáĥ
à¹ĥà¸« à¹īà¸
Ġà° Ł
çĶ µ
à§įà¦ ²
àª¾àª Ĺ
à®® à¯įà®ª
Ġà´Ĵ à´°
áĢ¬ áĢĦáĢ¹áĢ
áĢ Ĵ
áĢ¯ áĢķáĢ¹áĢ
á ¼
à®° à¯įà®ķà®³à¯į
à´¾à´ µ
Ñĭ ÑĤ
Î ©
à°¿à° µ
áĥĶáĥĳ áĥ£áĥļáĥĺ
å¨ ±ä¹Ĳ
è ¾
à®¾à® ®à¯į
Îµ Ïħ
Ġà´ Ł
Ġà¦¬ à¦¾à¦
Ð» Ðµ
áĥĶáĥĳ áĥĺáĥĹ
àª¾àª° à«Ģ
ÏĢ ÏĮ
Ġà° Ĵ
ĠÐĳ ÐµÐ»Ð°ÑĢÑĥÑģ
à¸£à¸±à¸ ļà¸
å¿« ä¸ī
ÅŁ Ä±
Ġà¦ ¡
áĥĶáĥľ áĥ¢
à¸Ń à¸Ńà¸Ļ
te k
Ð°Ð» Ð°
àª¾àª Ī
Ġà°ļ à±Ĩ
à¹ĩ à¸Ńà¸
ĠÅŁ i
Ġes te
à§Ģ à¦°
it Ã©
à¥įà¤ ®
ts o
àªĤ àª¤
Ġï¼ ģ
à¥ĭ à¤Ĺ
Ġw ir
è´ ¹
Ñĥ ÑĪ
Ġà¤¸ à¤¾à¤
ìľ¼ ë¡ľ
á»¯ ng
ç Ħ
l is
ĠÐ± Ð¾
ĠÐ¾ Ð»
Ġk tor
Ġprz e
×Ļ× ľ
ĠÐ± ÐµÑĢ
Ġn el
ìķ Ħ
Øª Ø±
Ġg j
ĠA z
ãĥ ŀ
Ä±n Ä±n
Ġp ÅĻ
ĠI n
Øª ÛĮ
Ð¾ÑĢ Ð¼
ti es
b áº¹
ĠÎ¤ Î¿
ë ŀ
Îµ ÏĦÎ±Î¹
ÏĦÎ± ÏĤ
ÏĦÎ¹Îº Î¬
Ġo f
ĠÑĢ Ðµ
Ġv ous
e re
Õ¥Õ ¬
Ġãģ ĵ
Õ« Õ¶
Ġs t
Ġê° Ģ
Ð¾ Ðµ
Ñĸ ÑĹ
èĤ ²
Ġo lu
ä¸ ĩ
æ£ ĭçīĮ
æ ĥ
áĢ±áĢ¬ áĢĦáĢº
à¯ģà® °
à´¿à´¨àµįà´ ±àµĨ
Ġáĥ¡ áĥĲáĥĽ
à¸Ńà¸Ńà¸Ļ à¹Ħà¸¥
à°Ĥà° Ĺ
Ġag çİ¯äºļ
Ġà¦¤ à¦¾à¦°
àª «
Ġà® ı
à´¿à´² àµįà´²
áĢ±áĢ ľ
áĢĻ áĢ½áĢ¬
áĢĲ áĢ¼
Î» Î®
à®¾à®Ł à¯įà®Ł
à´ ¬
ĠÑģ Ðº
ĠÎ §
à°¾à° Ĺ
áĥ£áĥ łáĥ
èµ Ľ
è ĥ½
Ġà®µ à¯Ĩ
ÎŁÎ ¥
à´ ļàµįà´ļ
à§ĩà¦ķ à§ĩ
ÑĢÑĭ Ð¼
áĥ® áĥķ
àª¨ à«ģàªĤ
Ïį Î½
¡ à°¾
Ð°Ð» Ðµ
ľà¸ ¹
å½ ķ
ÉĻ ti
à¦ķ à§įà¦·
áĥĲáĥ ¨
à¹īà¸ §à¸
Ġb er
Ñĸ ÑĢ
à«įàª ·
à±ĩà° ¦
à¹Ħà¸¡ à¹Īà¸
an a
Ã« t
Ļà§įà¦ Ĺ
ĠÃ®nt Ã¢
à¤¨ à¥Ģ
t Äĥ
Ġàª ¯
g a
į è´¹
Ù ĭ
Ġà¤ī à¤¨
ĠÑĤ Ð°ÑĬ
à¥ģ à¤°
Ġì ľ
Ãł n
Ã¤ y
Ġ× §
Ñģ Ð¸
Ðĺ Ð
ĀĀĀĀ ĀĀĀĀ
ãģ¨ ãģĦ
tion s
ĠÐ´ Ðµ
ĠØ§ Ù
íĻ Ķ
Ġb e
Ø ¸
ÑģÑĤÐ² ÐµÐ½
ãģĦ ãģ¾ãģĻ
ĠgÃ¶ r
Ã¡ ch
Ã ±
ta s
ÅĤ y
Åĳ l
ĠT i
ĠÏĢ Î¿Î»
ì ½
ĠÎ¼ Î¹Î±
ĠÎµ Î¾
ÏĦÎ¹Îº ÎŃÏĤ
Ġni pa
Ð¶ Ðµ
ur s
ar i
ĠÙĨÛģ ÛĮÚº
j Ãº
k in
Ġa us
ë ²
es h
ÑĤ ÐµÑĢ
åĪ °
ay e
en d
ĠãĢ Ĳ
l Äĵ
áĢľ áĢŃáĢ¯
à®Ł à¯ģà®¤à¯įà®¤
à´ Ń
áĥĲáĥ ĸ
ªà¸ ¸à¸
à±įà° ¦
è® ¡
à¦ Ľ
Ġàª ĺ
Ġà®Ĵà®° à¯ģ
à´¾à´ ķàµįà´ķ
áĢ¸áĢ ±áĢ
áĤ Ģ
ĠáĢ ĸ
Î± Ïģ
à®¿à® ļ
àµĨ à´Ł
Ñĸ Ñģ
Î¿Ïħ Î¼Îµ
Ġà°¤ à±Ĩà°²
áĥĲáĥ ¥
é Ĵ
ãĢ Ĥ
à®© à¯įà®©
ĠÎ ¦
àµģà´ ±
à§įà¦ ®
ÑģÐº Ð°Ð¹
áĥ ĸáĥĶ
Ġàª¤ à«ĩàª®
Ïģ Î®
à°Ĥà°¦ à°¿
Ñĸ Ðº
Ħà¸§à¸²à¸ ¡à¸
éĢ Ł
ÄŁ Ä±
à§ĩà¦ Ł
áĥĶáĥ Ŀ
à¸² à¸£
an h
Ð°ÑĤ Ñĭ
Ġàª §
à°¾à° ľ
à¹Ī à¸Ļà¸
ĠØª ÙĪ
g g
Ġà¦ı à¦¬
ĠÐº Ð¾Ð½
å°ı æ¸¸æĪı
b y
à«ĭàª ¡
Ġ× Ĵ
Ġà¤¯ à¤¹
ks i
è ī
ÑĢ Ð¸
çī ĩ
ìĥ µ
ka t
ĠÃ®ntÃ¢ l
áº§ u
Ð°Ð½ Ð¸
ĠÐ¾ Ð½
åĵ ģ
äº ĭ
e a
ĠÑĤ Ð°ÑĪ
Ùħ ÛĮ
ì Ļ
ts e
Õ« Õ
d u
æ ĻĤ
ĠS ie
es z
il le
ĠØ± Ûģ
l Äģ
ĠÑģ Ð¾
Ġt un
ĠÏĢÏģÎ¿ Ïĥ
ë¶ Ģ
Ġ \
ĠÏĥ ÏĦÎ±
Â µ
áº ¸
Ġla s
Ùħ Ø§ÙĨ
Ġn á»į
k Ã¶
Ġ×ľ ×Ķ
ĠD e
Ãł i
ìł ľ
an o
ĠÃ¼Ã§ Ã¼n
Ġc Äĥ
es e
Ð½Ð¾ÑģÑĤ ÑĮ
ãĥ ī
Ġp lus
áĤĢ áĢĢ
Ġà®¨ à®Ł
Ġà´ ¦
áĥĺáĥ ĸ
à¹Īà¸ ĩ
à±Ĥà° °
åĽ ¾
Ġà¦¨ à¦¿à¦
àª¾àª° àª¾
Ġà®¤ à¯Ĭ
à´¾à´¨ àµįâĢį
áĢĻ áĢ»
±áĢ ĲáĢ¬
ģ áĢº
Î» Î¯
à¯Īà®¯ à®¿à®²à¯į
à´ķàµįà´ ·
Ð» ÐµÐ½
ĠÎ Ľ
Ġà°ħ à°¨
áĥĿáĥ ¤
åį ķ
çĲ Ĩ
à®ªà¯įà®ª à®Łà¯įà®Ł
ÎŃ Ïģ
àµģà´¤ àµįà´¤
à¦ķ à§įà¦¤
Ġ ]
áĥĺáĥ ¨
àª ĸ
Î¼ Î·
Ġà°ķ à±Ĭ
Ð´Ð· Ðµ
Ĥ à¸Ńà¸ĩ
è¦ ģ
Ġk Äģ
à§ĭ à¦Ĺ
áĥķ áĥĶáĥľ
Ľ à¸£à¸
ĠØ§ Ù¾
Ġ Ð°Ñģ
àª¶ à«ĩ
à±įà°² à±ĭ
ª à¸´
k or
Ġnu k
à¦¾à¦ Ĺ
Ø± ÙĪ
à¥įà¤ ²
n os
Ġàª¹ à«ĭàª
Ð½Ð¾ÑģÑĤ Ð¸
à¤ «
Ġnh Æ°
Ġ à¶
Ð° Ñĳ
à¤² à¥ĩ
ìĥ ģ
ung en
ny ch
te t
ĠÐ± Ñĥ
ĠÑĥÑĩ ÑĥÐ½
æ Ħ
ãĥ ¥
Ñı ÑĤ
Ð±Ðµ ÐºÐ¸ÑģÑĤÐ¾Ð½
iyy ÉĻt
ìł Ħ
Ġave c
Å« s
Ġo a
Ġt la
Ġ× ĵ
ãĤ µ
ĠØ¢ ÙĨ
Ġn on
in t
ÑĢ Ð¾Ð²
ow o
Ġ >
ëĤ ĺ
Ġ1 2
et h
ĠÎºÎ± ÏĦÎ±
p in
ÙĬ ÙĦ
Æ°á»Ľ c
Ġá¹£ i
u e
n ÄĽ
Ä ·
Ġa le
í ĥ
Õ¡ ÖĢÕ
Ä± z
Øª Ø§
Ġa ko
Ñĥ Ð¶
ãĥ Ĳ
m er
áĢĦ áĢ·áĢº
à¯Ī à®¤à¯įà®¤
Ġà´ħ à´µ
Ġáĥ¡áĥĲáĥ ¥
Ķ à¹Ģà¸
à°¿à° ®
æ Į
à¦¦ à§ĩà¦°
à«ĩàª ¸
à® ¸
à´ ¡
ĠáĢŀ áĢ°
áĢ¸áĢ Ļ
áĢ±áĢ ŀ
ĠÎ ĺ
à®Ļ à¯įà®ķà®³à¯į
àµģà´£ àµįà´Ł
Ð ĥ
Î¬ Î»
à° ·
ĠáĥĶ áĥłáĥĹ
é ¡
æľ Ģ
Ġà®ķ à¯Ĥ
Î¼ ÏĢ
à´ķàµįà´ķ àµį
Ġà¦¸ à¦Ĥ
ĠÐ³ÑįÑĤ Ð°
áĥ ĸ
àª¾àª ķ
ÎĻÎ ļ
à°¾à°¨ à°¿à°ķà°¿
Ġ [
à¹Ħà¸Ķ à¹īà¸
æ ¯
m Ã¤
Ġà¦ı à¦ĩ
áĥĲáĥł áĥĺ
à¹Īà¸ §à¸
Ð½Ð¸ Ñħ
ĠÐ¿ÑĢ Ð°ÑĨ
¥ à«ĩ
à°¿à° ¸à±įà°¤
à¸Ļà¸µ à¹ī
Ġe x
ĠS h
à¦ «
Ġ Ã¡l
à¤ ĸ
ie k
àª¾àª¨ à«Ģ
ÑĢ ÐµÐ¼
à¥įà¤° à¥Ģ
i g
Ġà¤¹ à¥Ģ
Ð¸Ð» Ð°ÑĢ
à¤¯ à¤¾
ëħ ¸
Ġ×Ķ× ŀ×
Ġf e
m ÉĻk
ÐĲ Ð
Ð¸Ñı ÑĤ
Ã¢ y
it Ãł
ĠÐ ķ
Ñģ Ð°
Ġn d
Ġì¹ ´
Ġ Å¼e
ÙĪ Ùħ
Ġv a
å ī
Ġein e
c es
á» ģ
ÙĦ Ûģ
Ñĸ Ð»ÑĮ
Ð¸Ð» ÑĮ
d á»į
ÎµÎ¹ ÏĤ
ë į
Ïĥ ÏĦÎ·
Î³ ÏģÎ±
ÏĢÎ¿ Î¹
Ġw i
ãĥ ģ
Ø§Ø¦ ÛĮ
Ġi gb
Ù Ĳ
an e
Ġi ÅŁ
ĠØ¨Ø± Ø§ÛĮ
Ġ" :
s Ã¡g
v er
Ø§ Ø¹
? ?
ĠÐ¿ Ð¾Ñģ
ãģĤ ãĤĭ
áºŃ n
áĢ±áĢ ķ
à®¿à® ®
à´¿à´ µ
Ġáĥ¨ áĥĶáĥĽ
«à¸ ¥à¸
à±Ģ à°¸
ç½ĳ åĿĢ
Ġà¦¥ à§ĩà¦ķà§ĩ
à«įàª ®
à®± à¯įà®ķ
àµįà´ ¥
±áĢ Ķ
áĢ¬ áĢ¹áĢ
áĢ±áĢ¬ áĢĢáĢº
Ġ á¼
Ġà®ħ à®°
à´¸ àµį
ĠÐ½ Ð°Ð²
ĠÎ¼ Î±ÏĤ
à°¾à°¯ à°¿
áĥ ¤
ç« ¯
ä ¾
à¯Īà® µ
ĠÏĥ ÏĦÎ¹
à´¿à´Ł àµįà´Ł
Ġà¦Ĩ à¦°
ĠÐ½ Ñı
£áĥ ļ
Ġàª¶ àªķ
ĠÏĢÎµ ÏģÎ¹
à°¾à° ¡à±ģ
ĠÐ¿ Ð°Ð²
Īà¸ °à¸
Ġå °
ut ta
à§ĩ à§Ł
áĥĺ áĥĺáĥ¡
¡ à¹Ģà¸
Ġ×ľ ×Ĳ
ĠÑĤ Ñį
àª¾àª ĩ
à°¾à° ¸
à¸µà¸ ¢
Ġd z
en ÃŃ
à¦¾à¦ ¶
Ã« m
à¤¾à¤° à¥Ģ
r t
àªĤàª ¦
Ð°Ð» Ð¸
å½ ±
l iy
Ġà¤¤ à¥ĭ
ĠÐ± Ð¾ÑĢ
åħ įè´¹
Ġë ı
ĠL e
Ø¨ ÙĬ
Ġs p
ĠÒĽ Ð°ÑĢ
Ð¾ Ò·
d il
ĠÄĳ á»Ļ
ĠÐ¸ Ð»Ð¸
ĠÐİÐ· Ð±ÐµÐºÐ¸ÑģÑĤÐ¾Ð½
Ġe ta
í ı
ĠÃ º
m is
ĠÚ©ÛĮ Ø§
Ä £
ĠD ie
ÅĽ Äĩ
ĠØ¨ Ø§ÙĦ
ãģ Ŀ
×Ļ× Ł
ĠÑĢ Ð°Ñģ
Ġm u
Î³ Î¿
Ġìķ Ħ
ÏĮ ÏĦÎµ
Ïģ ÎµÎ¯
Î´ Î¹Î±
d un
Ùĩ âĢĮ
Ġe z
Ġi f
c u
ãģ °
d he
Ġs u
Ġê¸ °
d Åĳ
Ġ ÚĪ
Å ŀ
n u
ĠÐ ¤
Ã´ i
Ġau ch
áĢĻ áĢ½
Ġà®® à¯ģà®
à´¾à´° àµįâĢį
« áĥļ
¥ à¹ĩà¸Ńà¸
Ġà°ª à±Ĩ
ç ł
à¦² à§ĩ
à«ĭ àª¤
Ļ à¯įà®ķ
Ġà´¨ à´¿à´
áĢĸ áĢ¼
ģ áģ
áĢŀ áĢĬáĢ¹
ĠÎļ Î±
à¯įà® £
à´¾à´ ¸
Ð°Ðµ ÑĨÑĨÐ°
ĠÎ ¶
Ġà°¸ à°Ĥà°
Ġáĥ ĸ
èµ °
W W
à¯įà®¤ à¯įà®¤
ĠÏĢÎ± ÏģÎ±
Ġà´¸ à´Ĥ
à¦¾à¦¦ à§ĩà¦°
Ñĸ Ð·
áĥĲáĥłáĥĹ áĥķáĥĶáĥļ
Ġàª¸àª¾àª ¥à«ĩ
Î¹Îº Î¿
à±ģà° ¡à±ģ
Ġ Ð°ÑĢ
à¹ ģ
ç Ń
Ù ı
à§ĩà¦ ¤
ĠáĥĶ áĥ¡
ķà¸ ±à¸
Ġk as
Ð°Ð¼ Ñĥ
à«ĭàª Ł
Ġà° «
à¸µà¸ ¢à¸
ou t
Õ ¨
Ġà¦ªà§įà¦° à¦¤
Ġ× ¡
à¤¿ à¤°
z et
àªµ àª¾àª®àª¾àªĤ
Ñĭ Ð²
à¥įà¤ ¥
Ä °
à¤¾à¤ ĩ
ÑĤ Ð³Ð°Ð½
à¥ģ à¤²
¡ °
ãĥ ĭ
a j
á» ķ
Ð»Ð°ÑĢ Ð½Ð¸
Ġ Ð°Ð¼
ĠÕ §
Ġt Å¡
Ð» Ñİ
Ð³ Ð°ÑĢ
o a
ë Ł
ts i
Ġb ei
in a
ç Ĥ
Ġb y
Ã¡ ra
a u
ÙĬ Ø§
å· ¥
ÐµÐº ÑĤ
p as
ĠÎ±Ïħ ÏĦÏĮ
ìĨ Į
Ġ <
ĠÎ¼ Î±
tt p
h in
Ġp i
ĠÙĪ Ûģ
ir an
åĲ Ī
± Û
ĠÚ© ÙĨ
ĠL a
ë Ĳ
åħ ¨
h at
ÉĻ f
Ġo wo
ĠÐ¾ Ñģ
×ĳ ×¨
c t
Ĳ áĢ²áĢ·
à¯Ĩ à®°
à´¿à´² àµĨ
áĥĺáĥ¡ áĥ¢
¥à¸ °
à°ķà±įà° ·
2 2
Ġà¦ §
àª¾àª ¹
à®¾à® £
à´¾à´ Ł
áĢ ¥
áĢ² áĤķ
ĠáĢĢ áĢŃáĢ¯
Î³ Îº
Ġà®ª à®Ł
Ġà´ ±
Ð°ÑĨ ÑĭÑı
ĠÎº Î¿
à±ĩà° ¶
áĥĲáĥ ¤
åĬ ¿
ĠW WW
à¯įà® ¯
ÎĹ Î£
à´¿à´ķàµįà´ķ àµģà´¨àµįà´¨
à¦¿à¦ ¶
ĠÐº Ð°Ð½
áĥĲáĥ ĳ
à«įàª ķ
ÏĦ Ïħ
à±įà°² à±ģ
Ð°Ð´ Ñĭ
à¸Ń à¸Ļà¸
æĪ Ĳ
un d
Ġà¦ ĺ
áĥĿáĥ ª
ª à¸²à¸
dz i
Ð°Ð» Ñı
à«Ģ àª¤
Ġà° ¯
ķ à¸´à¸
Ġnh á»¯ng
Ä±n a
Ġà¦ıà¦¬ à¦Ĥ
en a
Ġà¤ķ à¤¹
Ø§ÙĨ ÛĮ
Ġàª ĵ
ĠÑį ÑĤÐ¾
Ġà¤² à¥ĩ
i d
à¤¾à¤ Ī
ĠÑģ Ð¾Ð»
Ġà¤ķ à¤¿à¤¯à¤¾
Ġìł Ħ
le r
Ø§ Ùģ
Ġsz er
Ð»Ð¸ Ð±
Ð¸Ð¼ Ð¸Ð·
Ġq a
ãģĦ ãģŁ
ÐµÑĤ ÑģÑı
Ðº Ð°Ð·
ĠÐ¾ Ð´
Ġ íķĺ
æĬ ķ
m p
ãĤĪ ãģĨ
Ġåĩ¯ åıĳ
×ł ×Ļ
ÅĤ u
ĠÐ´ Ð¾
ĠA n
Ġå ®
t Ã¡s
pas áº¹
/ /
ľ ê±¸
Ïģ Î¹Î±
Ġ: //
ĠÎ¼ ÏĢÎ¿
ul á»į
Ġo b
Ð» Ð¾
ir i
ĠØ§ÙĦØ ¬
un k
Å ©
ãģ« ãģª
í ħ
Ġè ¿
ĠØ§ ÛĮ
ĠÕ ´
Ġo r
ÑģÑĤÐ² Ð°
Ġde m
le ng
áĢ±áĢ¬ áĢº
Ġà® Ł
àµĭ à´Ł
áĥĹ áĥĲáĥľ
à¸£ à¸£à¸
à± ĥ
« ĺ
à¦ ¡
à«įàª ¥
Ġà®İà®©à¯įà®± à¯ģ
Ġà´ Ń
Ġáģ ı
áĢ¼ áĢ¬áĢ¸áĢ
áĢģ áĢ²áĢ·
Ïģ Î¿Ïħ
à®¤ à¯į
Ġà´ Ĺ
Ð¾Ð»ÑĮ ÑĪ
ÏĦ ÏģÎ¿
Ġà°ļà±ĩà° ¸
áĥĲáĥ ĸáĥĶ
Ĺ äº¬
Ġå ½
Ġà®ļ à¯Ĭ
ĠÎ´ Î·
à´¿à´ ªàµįà´ª
à¦¦ à§įà¦
ÑģÐº Ð°Ð³Ð°
ĠáĥĲáĥ ĵ
àª¾àª¨ àª¾
Ïħ Î½
à°¤ à±įà°¤
Ñĭ Ð½
à¸² à¸Ļ
çľŁ äºº
um s
· à§įà¦Ł
Ġáĥ «
§ à¹Īà¸²
Ġv agy
Ġ Ð°Ð¿
à«Ģàª ı
Ġà° ¡
« à¸Ļà¸
ÙĨ Ú¯
Õ¸ÖĤÕ ©
à¦¨ à§ĩ
á» Ń
Ġà¤¹ à¥ģà¤
Ã¨ s
Ġàªķ à«ĭàª
Ã¤ l
à¤¾à¤¨ à¥ĩ
m an
à¤ķ à¤°
ĠÐºÑŀ ÑĢ
à¤ķà¥įà¤ ·
ìł ģ
Ġ×¢ ×ľ
ĠÑī Ð¾
q i
Ðµ ÑĪ
Ð» Ð°Ð±
c ÉĻ
Ġp ri
Ùĩ Ùħ
Ð¸Ð´ Ð°Ð³Ð¸
ãĥ¼ ãĤ¹
êµ Ń
Ġ3 65
Ġs Ã«
ÅĻ e
è ģ
m y
ie l
áºŃ t
ãĥ¼ãĥ «
å¤ ļ
Ð°ÑĨ Ð¸Ð¸
Ġy i
Ġ1 5
Ġë ¬
Î¼ÎŃ Î½
ÏĢ Î¬
Ġ1 1
m áº¹
ur a
ĠØ¯ Ø§ÙĨ
Ġo ju
Ðµ Ñħ
ko z
ĠØ§ÙĦ ÙĤ
Ð² ÐµÑĤ
êµ ¬
ĠÙħ ÙĪ
on s
Ã¼ k
Ġni pasáº¹
ÐµÐ³ Ð¾
f t
t ho
áĢ Ĥ
à®¾à® ±
à´ §
áĥĿáĥĳ áĥĺáĥ¡
¡ à¸µ
Ġà°® à±Ģ
å®¢ æĪ·
à¦ķ à¦¾à¦°
àª ¥
à¯Īà® ªà¯įà®ª
à´¾à´ Ĥ
áĢŀ áĢĬáĢº
áĢ¬ áĢĽ
±áĢ ĲáĢ¼
ĠÎł Î±
Ġà®ķ à®Ł
Ġà´Ĵà´° àµģ
ÑĨ ÑĭÑı
Î ļ
à±ģà°Ĥà° ¦à°¿
Ġáĥ¨ áĥĶáĥ
çĻ» å½ķ
6 6
Ġà®ĩ à®¤
ĠÎ¿ ÏĢÎ¿
à´® àµįà´®
à¦¿à¦ Ł
Ðº Ð°Ð½
áĥ£áĥ ľ
à« ĥ
Îĳ Î£
à±įà° ķ
ÑĤ Ð°ÑĢ
Ĺ à¸²à¸
9 9
rz y
Ġà§¨ à§¦
ĠáĥĹ áĥĲáĥķ
à¹ĥ à¸Ļ
ĠP entru
Ñĸ Ñħ
Ġàªķ àª¾àª°
Ġà°® à°°
à¹Ħà¸ Ĺà¸¢
ãģķ ãĤĮ
os t
à¦¨ à§ĩà¦°
á» £
à¤Ĥ à¤¦
× ļ
à«ģ àª°
åĬ ł
è§ Ĥ
Ġp Äģr
à¤Ĥ à¤¤
ĠÐ¹ Ñŀ
à¥ĩà¤ Ł
Ġì ļ
Ã¨ re
ĠÛ ±Û
Ġ ÛĮÚ©
Ġ Ð°Ð¹
Ð¼ Ð¾Ð½
Ġe i
ma q
Ã¶ n
Ð»Ð¸ ÑĪ
ÙĨ ÛĮ
Ġí Ļ
j et
men te
lo v
ĠÄĳ Ã£
la h
ÑĤÑĮ ÑģÑı
Ġ ä»
Ã ¦
Ġi ch
Ð¾ Ð´Ð°
gb á»įn
Ġh ttp
Ġì ĸ
Ïį ÏĦÎµ
y f
Î¸ ÎµÎ¯
Ġj u
h l
Ä« dz
Ġá»į má»į
ĠÑĤ Ð¾
ĠÙħ Ø¹
sz er
ĠÐ¸ Ð¼
ļ Į
qu es
en ie
g li
Ġm á»į
are a
ĠÐ §
Ã¤ h
áĢ¸ áĢĢ
à¯Īà®¯ à¯ģà®®à¯į
àµĩ à´°
Ġáĥĺ áĥľ
§ à¹Īà¸²à¸
Ġà°ķ à±ĭ
æ³ ķ
à§įà¦ ¨
à«įàª ª
Ġà®ħ à®®
àµ ĥ
áĢ¸áĢ ŀ
±áĢ Ľ
áĢ¯ áĢķáĢº
ÎŁ Î£
à®¿à®± à®¤à¯ģ
à´¾à´ ®
ĠÐ¿ Ð°Ñģ
ĠÎµ Ïħ
à°¾à° ¡
Ġáĥĺ áĥĽ
æ´ ²
é ĥ
Ġà®ª à®¿à®°
Î´ Î·
à´Ļàµįà´ ķ
à¦¾à¦ ļ
Ñĥ ÑĨÑĮ
ĠáĥĴ áĥĲáĥĵ
à«Ģàª ĵ
ÎŃ Î½
à±įà°¨ à°¿
ĠÑģ Ñı
à¸Ńà¸Ńà¸Ļà¹Ħà¸¥ à¸Ļà¹Į
å Ģ
Ġn y
Ġà¦ª à¦¾à¦°
áĥĿáĥĳ áĥĲ
ģ à¸²à¸
Ġba ÅŁ
Ð°Ð¼ Ð°
Ġàªħ àª®
à±įà° ¥
·à¹Ī à¸Ńà¸
Ġ× ĸ
Ġv an
à¦¾à¦ Ł
s k
èī ²
n Ã«
à«ĩ àª¨
Ġw ie
à¥įà¤ ķ
r an
Ġà¤¸à¤¾à¤ ¥
ĠÑĪ Ñĥ
à¤¾à¤ ķ
ë³ ´
d Ä«
Ġa m
Ø¨ Ø±
ĠÒ³ Ð°ÑĢ
Ð´ Ð¸ÑĢ
er i
ÃŃ nh
ĠÑĢ Ð¾Ð·
ĠÐ½ Ð°Ð¼
el le
ìļ Ķ
ĠÙ ¹
Ã§ Ä±
Ġho re
c tion
ãĤ ¦
m Äģ
a te
c ja
×ķ× Ŀ
Ð°ÑĤ ÐµÐ»ÑĮ
j áº¹
ÏĮ Î½
Ġìĭ ľ
Î´ Î¹
ĠÎ¼ Î¿Ïħ
ĠÎ¾ Îµ
el u
ÙĦ Ùĥ
Ġa j
r un
ÑĤ Ðµ
ĠÄĳá» ĥ
Ä±n Ä±
Ð°ÐµÑĤ ÑģÑı
´ Ģ
Ġr Ã©
ĠS p
åŃ ¦
t áº¹
men to
ÑģÑĤÐ² Ð¾
ĠØ§ Ùħ
ĠáĢ »áĢķ
à®® à®¾à®ķ
à´¾à´ ±
áĥĲáĥ ¦
à¹ģà¸ ¥à¸°à¸
Ġà°¸ à°®
å®¢æĪ· ç«¯
Ġà¦ľ à¦¾à¦¨
àªµ à«Ģ
Ġà® ľ
Ġà´ļ àµĨà´¯
ģ áĢ²áĢ·
áĢ±áĢĲáĢ¬ áĢ·
ĠáĢ ±
Ïī ÏĥÎ·
à®ª à¯į
à´¾à´¯ à´¿à´°
ĠÑĩ Ð°Ñģ
Ïħ Ïĥ
à° Ĺà°¾
áĥĶáĥł áĥĺ
å® ī
ç ®
Ġà®µ à®¾à®
Ï Ĭ
Ġà´ħ à´¤
à¦¾ à§ľ
Ñı Ð»Ñĸ
Ġ áĥĲáĥľ
Ġàªµ àª§
Îµ Ïģ
à° ¶
Ð² Ñĭ
à¸£à¸±à¸ ļ
åŃ Ĳ
is i
Ġà¦ī à¦ª
ĠáĥĲáĥ ¡
Ĭà¸ ±
ra z
Ð° Ñĩ
Ġàª® àª¹
à°° à±ģ
à¹ĥà¸Ĭ à¹īà¸
Å¡an as
Ġw er
à¦¿à¦¤ à§ĩ
is Ã«
Ġà¤ķà¤° à¤¨à¥ĩ
ĠÙħÛĮ âĢĮ
Ġàªľ à«ĩ
Ä¾ a
à¤¾à¤ ı
b re
Ġà¤ª à¤¹
Ð½ Ð³
è§Ĥ çľĭ
ìĹ ħ
ĠØ¬ ÙĪ
n ia
Å¡ ÃŃ
Ð¼ Ð°Ñģ
ĠÑĩ Ð¸ÒĽ
k ez
ÉĻ z
ÑĬ ÑĢ
_ _
Ŀ i
ì§Ģ ëħ¸
u ks
ÈĻ te
×ķ× Ĳ
r Ã©
r Ä«
ĠØ§ÙĦ Ø´
ãģ¨ãģĦ ãģĨ
ow ie
Ġd al
ĠÑĢ Ð°Ð±Ð¾ÑĤ
áº¹ ráº¹
Ïİ ÏĤ
, "
w n
Ïĥ Ïī
it h
Ġen iyan
Ã¶ l
ÑĢÐ° ÑĹ
Ġj ulá»į
ĠÐ² Ð¾Ð·
Äĥ r
h re
Ð¸ ÑĩÐµÑģÐº
Ġì§ Ģ
æ° Ĺ
t Ã©
ci on
Ì£ n
cz e
Ð¾Ð»ÑĮ ÐºÐ¾
ĠØ§Ù ĵ
áĢĨ áĢŃáĢ¯
Ġà®ª à®¾à®°
Ġà´ª àµĭ
ĠâĢ ŀ
ķ à¹Ī
à°¿à° Ĺ
åĬ ¨
à¦¾à¦ §
Ġàª¸ àªĤàª
Ġà®ĩà®° à¯ģà®ķà¯įà®ķ
Ġà´ª à´±
áĤı áĢŃáĢ¯áĢĦáĢ¹áĢ
áĢŀ áĢ°
áĢĽ áĢ¾
Î¾ Î·
Ġà®ª à¯Ĭ
à´ ŀàµįà´ŀ
ĠÑŀ Ñģ
Îµ Î»
à±įà° ¡
Ġáĥ¨ áĥĶáĥ¡
5 5
ä¹ ĭ
à®¿à®° à¯ģà®¨à¯įà®¤
ĠÏĢ ÏģÏĮ
àµĤ à´Ł
à¦¿à¦ ®
Ð°Ð² Ð°ÑĨÑĮ
áĥĲáĥ ¬
Ġàªķ àª¹
ĠÎ ¥
Ġà° ²à±ĭ
Ñĸ Ñĸ
Ġ à¸Ńà¸
ç ¨
ĠÛģ Ùħ
à¦ Ļà§įà¦Ĺ
áĥł áĥĿ
ģ à¹ĩà¸
Äĥ ng
ĠÐ¿ Ð°ÑĢ
à«Ģ àªķ
Ġà°ķ à±Ĥà°
© à¸
ĠØ§ÙĦØ ¥
Ġd an
à§ĩà¦ ĵ
it Ã¤
à¤¿à¤ µ
ÑģÑĮ Ðº
Ġàª¹à«ĭàª ¯
t z
Ġà¤¸ à¤ķ
ĠÙĦ ÛĮ
Ġà¤¹ à¤®
ÑĢ Ð´
à¥įà¤ ¸
Ġí ĺ
Õ¡Õ ´
Ġke Ã§
zion i
ĠÐ¼ Ð°ÑĬ
ĠÑĤ ÑĥÑĢ
åħ ¥
e la
r Äģ
ĠÑŀ ÑĤ
Ġthá» ĥ
ìļ ©
Ġk Ã«
Ø§Ø¦ ÛĴ
×Ļ ×ķ×ª
h d
Å£ i
un t
la t
ãĥ ĸ
ĠØ§ÙĦ Ø¯
ĠÐ Ń
Ġ á»įna
Î¯ Î¶
¤ ĳ
1 1
ĠM a
Î± Î»
h an
Ð½Ð¸ Ð¹
Ã¼ ÅŁ
Ġni gba
Ð ļ
n Ã¡
in o
Ð ķ
ëı Ļ
or t
åł ´
ow y
g un
ie t
Ñİ Ñī
Ú¯ Ø±
áĢ¬áĢ¸áĢ Ļ
à®ļ à¯įà®ļ
à´¾à´ ³
ĠáĥĲáĥ ¦
Ġà¸ ģà¸
à°¿à° ¸
çİ °
Ġà¦ķà¦° à¦¾
à«ĭàª Ĺ
Ġà®ķ à¯ģà®±
à´Ļàµįà´Ļ à´³àµįâĢį
Ġáģ Ĥ
áĢ¬áĢ¸áĢ ŀ
áĢĬáĢ¹áĢ ·
ĠÏĥÏĦÎ¹ ÏĤ
à¯įà® ¨à¯įà®¤
Ġà´¨ à´Ł
Ð¾Ð² Ñĭ
ÏĮ ÏĤ
à°Ĥà° ļ
áĥķ áĥļ
Ġå Ī
Ġæ Ī
Ġà®¨ à¯Ģ
ĠÎ Ī
Ġà´ ¹
à¦¾à¦ ģ
ĠÐ¿ÑĢ Ð°Ð²
Ġáĥ ¯
Ġàª¨ àª¥à«Ģ
ĠÎºÎ± ÏĦÎ¬
Ġà°µ à±Ĩ
Ð°ÑĨÑĭ Ñĸ
à¸£à¸²à¸ Ħ
Ġå Į
Ù Ĵ
à§ĩà¦ ®
áĥĹ áĥķáĥĺáĥ¡
Ġ à¹Ģ
z Ã©s
Ġ Ð°Ðº
àª¿àª ¸
à±ĩà° ¸
¡à¸ ŀà¸
Ø± Ø¨
Ġ ra
à¦¾à¦ ĵ
Ġt er
Ġà¤¥ à¤¾
ĠÕ ¯
Ġàª¹àª¤ à«Ģ
Ġv Ã½
à¤ķ à¥Ģ
us h
à¤Ĺ à¤¾
Ð¼ Ð¸
Ġà¤ ĺ
Ġ": "
Ġ Ö
mi ÅŁ
f a
Ð»Ð¸ Ð³Ð¸
ĠÐ¼ Ð°ÑĢ
Ø³Øª Ø§ÙĨ
ãģĤ ãĤĬ
w ia
Ð»Ð°ÑĢ Ð¸Ð½Ð¸
ÙĬ Ùħ
ì Īĺ
ĠÙ¾ ÛĮ
ÃŃ a
z Åĳ
et te
×Ļ× §
ov a
s ion
ol t
Ġar Ä«
ĠÐ¾ Ð¿
Ġáº¹ rá»į
l y
Ġ íķľ
ÏĦÎ· ÏĦÎ±
Î¬ Ïģ
ĠÎ± Î»Î»Î¬
Ġdi áº¹
ta t
ĠÙħ ÙĦ
Ġi we
Ġ Ð°Ð²
ti g
Ġet tÃ¤
ÑĢ ÐµÐ´
Ġë ĵ
j en
ĠØ§ÙĦ ÙĨ
lÄ± q
Ġk á»į
Ġå į
ĠÑģ Ð¼
Ġcom p
áĢħ áĢ¹
à®¿à®² à¯įà®²
à´ ľ
ĠáĥĲáĥ łáĥ
Ġà¸ Ħà¸
à°¾à° ª
èµ° åĬ¿
à¦¿à¦ ¦
à«Ģàª ¯
Ġà®¤ à®®
àµģà´ ķàµįà´ķ
áģ¿áĢķ áĢ®áĢ¸
ĠáĢĴ áĢ®
áĢĲ áĢļáĢº
Î¼ Î®
à®£ à¯įà®£
àµįà´± àµįà´±
Ð½ Ð°Ðµ
ĠÏħ ÏĢÎ¿
à°¾à° ¬
Ġáĥ£áĥ ľ
& #
à¨ ¾
Ġà®¤ à®¿à®°
Î¹Îº Î®ÏĤ
à´£ à´Ĥ
à§įà¦ ķ
Ñĸ Ð»Ñĸ
Ġáĥ¡áĥĲáĥ ®
à« ¦
ÏĦ ÏīÎ½
Ġà°Ĵ à°ķ
ĠÑı Ð³Ð¾
Ħà¸£à¸ Ķà¸´à¸
é «ĺ
£ Â
à§ĩà¦ ¬
Ġáĥ¨ áĥĶ
à¹Ħà¸¡ à¹Ī
Ġkh i
Ð¾Ð»ÑĮ ÐºÑĸ
à«Ģ àª¨à«ĩ
à°¤ à±ĭ
à¹Ĥ à¸£à¸
Ġ ÅĽ
is a
à§įà¦ ļ
Ù¹ ÛĮ
Ġà¤ķ à¤¾à¤°
es ch
àª Ľ
Ġ X
à¤¾à¤ ª
ĠÐ¿ ÑĸÐ´
0 9
ĠÑŀ ÑĢ
à¥įà¤ ª
í Ħ
Ġv ai
Õ¸ÖĤÕ© Õµ
Õ ¾
ĠÐ¾ ÑĢ
ĠÐº Ð°ÑĢ
Ã©r t
Ġ Å¾e
ä½ĵ èĤ²
Ð»Ð°ÑĢ Ð½Ð¸Ð½Ð³
ĠØ¹ ÙĨ
Ġìł ľ
ä¹ Ī
×Ļ× ĳ
ti i
Ġsa u
Ġo der
Ġ äºļ
ãĤ į
v al
ĠÙ¾ Ø§Ú©
ÑĤ Ð¾ÑĢ
Ġh e
ĠÎŃÏĩ ÎµÎ¹
ë© ´
Ïĥ ÏĦÎ¿
Ġ1 3
Î¯ ÎµÏĤ
wa ju
ĠØªÚ¾ Ø§
ãĥ ĩ
Ġy in
ĠÐ± ÑĥÐ´
on e
ti t
Ð½ Ð¾Ð¼
ìĺ ¤
Ġ ï½
h lo
ĠÕ ¸
gb áº¹
¾ å®¶
ĠØ§ÙĦ Ùģ
ÃŃt Ã¡s
áĢ° áĢ¸áĢ
à¯ĩ à®©à¯į
àµįà´ ¸
Ġáĥ¡áĥĲáĥ¥ áĥĲáĥłáĥĹáĥķáĥĶáĥļ
à¹Ģà¸ ¥
Ġà°ī à°¨à±įà°¨
è ¶
à§ĩà¦Ľ à§ĩà¦¨
àª ı
à®¿à®© à¯įà®±
Ġà´ª à´°
áĢľ áĢ¬
áĢŃáĢ¯ áĢĦáĢ¹áĢ¸
áĢĲ áĢ¹
Î¯ Îº
Ġà®ĩà®° à¯ģà®¨à¯įà®¤
Ġà´ «
ĠÑıÐºÑĸ Ñı
ĠÎ¸ ÎŃ
à°¦ à±įà°¦
Ġáĥĺ áĥ§
äº İ
åľ º
Ġà®® à¯ĩ
Î¼ Î¹
à´¿à´¨ àµį
à§ °
ĠÐ¿ÑĢ Ð°Ð´
ĠáĥłáĥĿáĥĽ áĥĶáĥļ
à«ĭ àª°
ĠÎ´ Î¹
Ġà°µ à±įà°¯
Ð Ĩ
¥à¸ ĩà¸
åı ¯
u re
à¦°à§įà¦ ¬
ĠáĥĽ áĥĺáĥ¡
Ħ à¸£
Ġf o
ĠÐ» Ñİ
àª¾àª ĵ
Ġà°ª à±ĭ
à¸Ńà¸¢ à¹Īà¸²à¸
á»ĳ i
Ñĺ Ð°
Ġà¦¤ à¦¿à¦¨
ãģĦ ãģ¦
Ġà¤ħ à¤¨
ĠP o
àª¾àª ¡
ĠB u
Ġà¤¦ à¥ĩ
ĠØ¨Ø§ Ø²
à¥ ĥ
Ð¸ ÐºÐ¸ÑģÑĤÐ¾Ð½
à¤² à¥Ģ
ĠìĿ ´ë
Ú¾ Ø±
ĠÕ ¥
Ġe dil
Ð°Ð½ Ð³
Ð´ Ð°Ð³Ð¸
d os
Ø¹ Ø¯
×Ļ× ©
Ð¾ÑĤ Ð¸
Ä«b u
¶ Ķ
ĠL es
Ð°Ð½ Ð¸Ñı
Ġpo d
Ġa k
ĠC a
ĠS t
ãĤ Ń
Ġm ul
áº ©
Ðµ Ð¿
á¹£ i
ĠÏĥÏĦÎ¿ Î½
ëĭ Ī
w r
Ïģ ÎµÏĤ
y d
on u
el l
è¦ ĭ
Ġd á»į
Ð½ Ð¾Ð²
Ġde i
Ø§ Ø³
m in
ë ¹Ħ
æĢ Ŀ
ÑĢ Ð°Ð·
u b
Ġt áº¹
×Ļ× ĵ
Æ¡ n
d Ã©s
áĢĽ áĢ½áĢŃ
Ġà®ķà¯Ĭ à®£à¯įà®Ł
à´¿à´ļàµįà´ļ àµģ
áĥł áĥĺ
à¹ĥà¸« à¹ī
à±ĩ à°ķ
åĪ Ĵ
à¦° à¦¾
àª¾àª ĸ
Ġà® ¯
Ġà´ķ àµĬ
áĢ± áģ¾áĢĢ
áĢĶáĢ¹áĢ Ļ
ĠáĢ±áĢ Ľ
á ¿
à®³ à¯Ī
à´¿à´ ¸
ĠÐ ¦
Î³ Î³
à°¾à°¨ à±įà°¨à°¿
áĥĲáĥ Ŀ
åĨ Į
å ģ
à¯ģà® ª
Ïĥ ÏĦÎ±
à´¯ àµģà´Ĥ
Ġà¦ľà¦¨ à§įà¦¯
ĠÐ¿ÑĢ Ð°
ĠáĥĲáĥ ®
à«ģ àªķ
Î¿Ïį Î½
à°¦ à°¿
ÑįÐ½ ÑĤ
Īà¸ ±à¸
è ·
Ġla i
à¦¨ à¦¾
áĥĲáĥ £áĥ
Ĥ à¸²à¸
ich t
ĠÐ¿ Ð°Ðº
Ġàªī àªª
à°¸ à±įà°¤
¢ à¸²à¸
Ġgo re
b el
à§ Ī
ĠÚ© Ø§Ø±
à¤¿à¤¯ à¥ĭà¤Ĥ
l ha
àª£ à«ĩ
Ġol un
à¥įà¤ ¹
çĦ ¡
Ġà¤Ĺ à¤¯à¤¾
ĠÐ´Ð°Ð² Ð»Ð°ÑĤ
Ġà¤ľ à¥ĭ
Ġìĺ ¤
l Ã³
Ä± l
ÙĢ ÙĢ
Ð°Ð³ Ð°Ð½
ĠÑģ Ñŀ
Ø§ ÙĤ
z z
te a
Ðº Ð¸Ð»
Ġ ent
ìĿ´ íĬ¸
qi p
ÐµÐ» Ñı
as h
ho lo
lar a
Ã ¸
éĸ ĵ
Ġs c
Ð¸ÑĤ Ð¸
Ñģ Ð»
os o
y dd
Ġëª ¨
Î¸ ÎŃ
e dd
Î¼ÎŃ Î½Î¿
k áº¹
Ã¹ ng
ãģ Ķ
Ġa ye
ĠÑģ Ð°Ð¼
ci Ã³
Ġv ar
h en
Ġìł ķ
ãģ ĺ
Ð¾ÑģÑĤ Ð°Ð²
Ġs k
f áº¹
ÛĮ Øª
Ġ×Ķ× Ĳ
Ùħ ÙĦ
áĢ¬áĢ¸áĢ ľ
Ġà®µ à®¿à®
Ġà´ ¡
áĥĺáĥĵ áĥĲáĥľ
§à¸ ±à¸
à°¿à° Ł
éĥ ¨
à¦¬ à¦¾à¦°
à«ĩàª ¤
Ġà®ī à®³à¯įà®³
à´µ àµģà´Ĥ
ĠáĢľ áĢ°
»áĢķ áĢ¬
áĢķáĢ« áĢĲáĢļáĢ¹
ÏĢ Î·
Ġà®® à¯ģà®Ł
àµĨ à´Łàµįà´Ł
Ñĸ Ñŀ
Î¼ ÏĨ
à±ģà° ª
áĥĿáĥ Ĺ
á Ł
æĹ Ĺ
Ġà®µà¯ĩ à®£à¯įà®Ł
ĠÎľ Îµ
àµĩà´ ·
à¦¸ à§įà¦¥
Ð¾Ð² Ð°
áĥļ áĥĶáĥĳ
Ġàªħ àª¨
ÏģÎ¿ ÏĤ
à±ĩà° µ
ÑĪ Ñĩ
¥à¹ĩà¸Ńà¸ ķ
ç¥ ŀ
is e
à§ĩà¦ ¸
Ġáĥ§ áĥķáĥĶáĥļ
Ĭ à¸²à¸
v el
Ñĥ Ñħ
Ġàª® àª³
à±ģà°Ĥà° Ł
ļà¸²à¸ Ĺ
Ġt ak
ÉĻ dÉĻ
à¦¾à¦¬ à§ĩ
Ġs ont
Ġà¤ķ à¤¿à¤¸
ĠN g
àª¤ à«Ģ
Ġqu es
Ġà¤ī à¤¸
ãĤ ¸
à¤° à¥ĩ
Ó Ļ
à¤Ĥ à¤¡
Ġê² ĥ
Ġa s
iá»ĩ t
d Ã¡s
Ð¼ Ð°ÑĤ
ĠÐº ÐµÐ»
Ø° Ø§
ne j
Ù¹ Ø±
Ġ Ð°Ð»
Õ¸ÖĤ Õ¶
ìĬ µ
a z
Ñģ Ð»Ð¸
Ġv is
Ġc Ã´ng
Õ¡Õ ¿
ung s
ãĥ³ãĤ °
ĠØ¯ Ø§Ø±
da s
Ðº Ðµ
t un
Ġ1 4
ì °
ÏģÎ¹ ÏĦÎ¹ÎºÎŃÏĤ
ÏĢ ÎµÎ¹
re f
à ²
o lo
é ķ
Ġy ii
Ð¸Ð½ Ð°
j nÃ«
ØŃ Ø¯
ĠÃ¼ ber
ëĤ ¨
c at
Ð Ŀ
j ÃŃ
Ġa ká»į
ĠãĤ ¹
ÃŃ v
Ġth u
áĢģ áĢ»
Ġà®¤à®® à®¿à®´
Ġà´ Ī
áĥĶáĥĳ áĥ£áĥļ
Ġà¸ Łà¸£à¸µ
à°® à±įà°®
æ³¨ åĨĮ
à¦ Ľà§ĩ
àª¿ àª¨
à®± à¯įà®ª
à´¦ àµįà´
áĢŃáĢ¯ áĢĢáĢ¹áĢ
áĢ ı
Ħ áĢ¶
ÏĪ Î·
à¯ĩ à®ļ
à´ķ à´°
ĠÐº Ð°Ð¼
ÏĦ ÏİÎ½
à±ģà° ¡
áĥ£áĥ Ľ
Ġ; &#
æīĭæľº çīĪ
à®ķ à¯į
Î¸Î· ÎºÎµ
à´® à´¾à´¯
à§Ģ à§Ł
Ð Ĥ
ĠáĥĲáĥ ¥
àª¾àª ª
Î¹Îº Î¿Ïį
Ġà°ķà±Ĥà° ¡à°¾
Ð¾Ð³ Ð°
Ľ à¸£
å¯ ¹
Ġa v
à¦¤ à¦¿
áĥĺáĥ Ĵ
à¹Īà¸ ĩà¹Ģà¸
×ķ× ¤
Ð½ ÑĥÑİ
àª¾àª ¬
à°ķ à°¿
µ à¸
Ġj ak
ÉĻ c
à§ĭ à¦°
Ġe en
à¥ģ à¤¨
ãĥ ł
à«ģ àª²
is sa
Ġu 09
Ð½Ð¾ ÑĹ
à¥įà¤ ¦
ĠÑĪ Ð°Ò³
à¤ķ à¤¾à¤°
Ġ ï
Ø§ Úº
ĠE s
as z
ĠÐ¢ Ð¾Ò·
ÑĤÐ¸ÑĢ Ð¸ÑĪ
ãĥ §
Ġse x
Ġc o
ĠÐ² Ð°Ð·
Ġ Åŀ
Ġì Ĩ
t la
Ðµ Ð¶
ĠT r
mas Ä±
in s
m Ã©ny
å £
to v
Ú¯ Ø§Ùĩ
Ð² ÐµÑĢ
Ġi y
e d
» ¿
ĠÎ Į
Ġï¿½ï¿½ï¿½ï¿½ ï¿½ï¿½
ia d
es i
Ø± Ø©
ĠØ¯ ÛĮ
Ġ áº¸
ÑĢ Ð°Ð²
Å¡ i
¡ Â
Ġb áº¡n
ëĵ ľ
Ġæ ĺ
Ðµ Ðµ
to ri
Ġi gba
ãģ§ ãģį
h i
ĠE r
ĠáĢ ļ
à¯ģà®® à¯įà®ª
à´¤àµįà´¤ à´¿à´²àµįâĢį
£áĥ ļáĥĺ
« à¸²à¸
à°¡ à°Ĥ
èµĽ è½¦
Ġà¦ı à¦°
Ġàªµ àª°à«įàª
à¯įà® °
àµģà´ °
áĢģ áĢ¼
ĠáĢķ áĢ¼
áĢ° áĢ¸
Î¯ Î¿Ïħ
Ġà®ļà¯Ĩà®¯ à¯įà®¤
à´¾à´ ķ
Ð² Ð¾ÑĢ
Î» Î¹
Ġà°ħ à°µ
áĥĺáĥļ áĥĺáĥ¡
èĪ °
é ¾
à®¤à¯įà®¤ à¯Ī
ÏĦ Î¿Ïħ
à´¿à´ ®
à¦¾à¦ķ à§ĩ
ÑĢ Ð°Ð±
áĥĲáĥĵ áĥĴ
à« Ī
Ïģ Î¯Î±
Ġà°¨ à°¿à°°
ĠÑĸ Ñħ
Īà¸²à¸ ģà¸
ä¹ Ł
Ú© Ú¾
à§įà¦ ¡
áĥķ áĥĶáĥ
à¹Ģà¸ ģà¸
ĠÃ§ ox
Ñı Ð·
Ġàª ĩ
Ġà°¨ à±ģà°Ĥà°
§ à¹ĩà¸
ĠE n
×ķ× ©
Ġà¦ķ à¦¾à¦°
Ġna gy
Ġà¤ Ľ
ãĤ °
à«Ģ àªµ
Ġp ra
Ġà¤ §
ĠØ§ÙĦ Ø¨
à¤ķ à¤¾
Ð¼ Ð¾ÒĽ
æ Ĵ
ì½ ľê±¸
ÐµÑĤ Ð¾
Ġe dhe
ĠØ± ÙĪ
ĠÐº Ð¾ÑĢ
Ð»Ð¸ Ð¼
un e
ĠãĤ ¢
ta an
ĠÐ ĸ
Ġd ar
íĦ °
Ġt u
Ð ¢
ĠK a
Ġa pp
cion es
ĠØ¨ ÙĨ
ç ¤
sz y
áº ½
ÑĢÑĥ Ð³
b u
Ïĩ Î½
Ġëĭ ¤
ĠÎ¼Îµ Î³
Î» ÏĮ
1 3
Ġpa ta
Ú ĺ
Ġ um
Ġa á¹£
Ð¸ Ñĩ
Ġle g
×Ļ× Ĳ
Õ ½
ë ¯¸
Ġo lan
j es
Ð¾Ñģ Ñģ
Ġo ri
Ġi es
ãĥ¼ãĥ Ī
ä¿ ¡
áĢĶ áĢ²áĤĶ
à®¿à®° à¯ģà®ķà¯įà®ķ
à´¿à´² àµģà´Ĥ
áĥĲáĥľ áĥĺ
à¸£à¸ §à¸
à°¿à°¨ à°¿
åı Į
à§ģà¦ ·
àª ĩ
à¯įà®ķ à¯įà®ķ
àµģà´ķ à´³
áĢ±áĢ Ļ
» áĢģ
áĢ¯ áĢĲáĢ¹áĢ
ĠÎĳ Î½
Ġà®ħ à®©
àµģà´ ª
Ñı Ð½
ÏģÎ¯ Î¿Ïħ
à±ģà°ķ à±ĭ
áĥĶáĥ¥ áĥ¢
Ġà¤Ĩ à¤¹
7 7
à®©à¯įà®± à¯ģ
Î»Î¿ ÏĤ
à´¾ àµ»
Ġà¦Ĩ à¦²
Ðº Ð°Ð¹
ĠáĥĽ áĥĲáĥĴ
Ġàª² à«ĭàªķ
Î¼ Î¿Ïį
à°² à±įà°²
ÑĢ Ð°Ñŀ
·à¹Ī à¸Ńà¸ĩà¸
æĹĹ èĪ°
e le
à¦Ł à¦¾
áĥ£áĥ Ĺ
« à¸£à¸
ĠÙħ ØŃ
â ķ
Ġàª¤ à«įàª¯
à°¾à° §
į à¸
éĩ ĳ
Ġs ono
Ĥ à¦²
Ġch a
à· Ĭ
Ġç ľ
àªĤàª §
ĠÚ©Ø± ÙĨÛĴ
à¤¾à¤ Ĺ
æ ı
ä¹ħ ä¹ħ
Ð°Ð´ Ð°
à¥ ľ
ìĽ Ķ
m es
ar en
ĠØ¥ ÙĦÙī
ÐµÑģ Ð¿
Ñħ Ð¾Ð½
ĠH o
ĠÃ¶ z
sz e
Ñĥ Ð½Ð¸
ĠE l
ê ·
á»Ļ i
ĠÐ· Ð°Ðº
d Äĵ
Ġs Ãº
è ©
t es
ĠØ® ÙĪØ¯
Ðº ÑĢÐ°ÑĹ
Ñ ķ
Ðµ Ð»Ð¸
d ara
ĠÎ® ÏĦÎ±Î½
Ġì Ĭ
Ġ1 8
Î³ÏģÎ± ÏĨ
Ġ1 6
w he
×¨ ×Ĳ
ĠÃ¶ l
Ġj i
Ð¾Ð»ÑĮ Ð·
á»ĳ ng
m it
Ð¾ Ñİ
í ļĮ
ãģ§ ãģ¯
Ġd la
Ġm en
âĢ Ŀ
Ġb ona
Ġma is
Ġå ľ
áĢľ áĢĬáĢ¹áĢ¸
à®¾à® ķà¯įà®ķ
Ġà´ ķàµįà´
Ġáĥł áĥĿáĥĴ
à¸Ńà¸ ¢à¸
à°¾à° £
é ľ
Ġà§¨à§¦ à§
àªķ à«įàª·
à¯Īà® ªà¯į
à´¤àµįà´¤ àµĨ
áĢ¯áĢŃ áĢĦáĢ¹áĢ
áĢģ áĢ¯
áĢ¸áĢ Ľ
ÏĢ Î¹
à®¿à®¯ à®¿à®²à¯į
à´¾à´ §
ĠÑģ Ð²Ð°
Î´ Îµ
à±ģà°Ĥà° ¦
áĥĲáĥłáĥ ĵ
è®¡ åĪĴ
Ġà¤Ĩà¤¹ à¥ĩ
Ġà®İà®© à¯įà®©
Î ĵ
Ġà´ ĵ
à¦¦à§įà¦ §
ÐµÐ»Ð°ÑĢ Ñĥ
áĥĲáĥłáĥ Ľ
àªķ àª¾àª°
Î¿ Î¹
à±Ģ à°°
ÑĨÑĭ Ñĸ
Ķ à¸µ
èµ°åĬ¿ åĽ¾
ĠÐ²Ñģ Ðµ
à§ Į
áĥł áĥĲáĥĽ
à¹ ģà¸£à¸
y s
Ð½ Ñĥ
Ġà« §
à±ģà°ķ à±ģ
±à¸ ĩ
Ġk er
ĠØ¯ ÙĪ
Ġà¦¬à¦¿à¦ ¶
Õ¡Õ ½
à¤¿à¤ ¶
i ÅŁ
Ġàª¸ à«ģàª
Ġs ta
Ġà¤® à¤¹
Ã¡ ban
à¤¸ à¥Ģ
ĠÒ³ Ð°ÒĽ
à¤¾à¤ ¬
ĠìĿ ¸
á» ī
Ġs er
ĠØ§ÙĦ ÙĦ
ĠÐº ÑĥÐ½
ĠÐ¢Ð¾Ò· Ð¸ÐºÐ¸ÑģÑĤÐ¾Ð½
Ġs ind
×ķ× §
t Äĵ
Ð»Ð°ÑĢ Ð³Ð°
Ã¤ r
ìĹ ¬
Ġsh um
ÑģÑĤ ÑĢ
ĠB a
ãĤ »
Ø± Ùĥ
an ie
ĠÛģ ÛĮ
ĠÙģ Ø±
is s
ĠÐ½ Ð¾
Ġi di
er s
ìĤ¬ ì§Ģ
da u
ĠÎºÎ± Î¸
Ïĥ ÎºÎµ
on i
ãĥ Ł
h le
ĠT o
ÑģÐº Ð¸Ð¹
ãĥ³ ãĥĪ
å¥ ½
Ġt re
í Į
Ġm Ã¡r
ĠN h
Ø§Ø¯ Ùĩ
Ġw áº¹
te ur
Ġvi en
çĤ ¹
ĠáĢ±áĢ Ķ
à®¿à® ¨à¯įà®¤
ĠâĢĭ âĢĭ
áĥĶáĥĳ áĥļ
à¹Īà¸ §
à±Ģ à°µ
é¾ Ļ
Ġà¦¬à¦¾à¦ Ĥà¦²
à«įàª° à«Ģ
Ġà®ķ à¯ĩ
Ļàµįà´ Ļ
áĤ Ĳ
áĢ±áĢ «
áĢ» áĢĸáĢħáĢ¹áĢ
Î»Îµ Ïħ
Ġà®¤ à¯Ĩà®°
Ġà´ ı
Ð½Ð° Ñĩ
ÎĻ Îĳ
à°¨ à±ĩ
Ġáĥ ¦
Ġå½ ©
ä» £
Ġà®µ à®¨à¯įà®¤
ĠÏĥ Î·
àµĨà´¨àµįà´¨ àµį
à§įà¦ ¸
Ð°Ð½ Ð½Ðµ
áĥĶáĥĿ áĥĳ
à«ĭàª ľ
Î² Î±
à±įà°¸ à±į
ÑģÑĤ Ð°Ñŀ
à¹ģà¸ ¥
äº §
ÑģÐº Ð¾Ð¹
Ġà¦® à¦¾à¦¨
Ġáĥ¡áĥĲáĥ Ļ
ł à¸
Ġel Åĳ
Ð½Ð°Ñģ ÑĨÑĸ
Ġàª¸ àª°
Ġà°ħ à°Ĥà°¦
Ķ à¹īà¸§à¸
Ä± m
m os
ĠâĢ ĺ
Ø§ÙĨ ÛĴ
Ġæ Ĺ
ir es
Ġ }
ĠØ§ÙĦØ ®
Ġà¤µ à¤¾à¤²
×ķ× ¢
à¤¾à¤¯ à¤¾
ĠÑĢ Ð´
Ġà¤² à¤Ĺ
íķĺ ëĬĶ
k ka
j ÄĻ
Õ¶ Õ¥ÖĢ
Ðº Ð¸Ð½
ÐµÑģÐ¿ ÑĥÐ±
Ä± b
Ġcom o
Ġn Ãły
ĠÐ¼ Ð¸Ð»
Ã¡ v
Ġìŀ Ĳ
in dÉĻn
ĠÐºÐ¾Ð¼ Ð¿
Ġs unt
Ġt out
en n
ĠÙĩ Ø§
t to
Å¡ a
h la
ĠÐ¿ Ð¾Ðº
pá»į lá»į
Îµ ÏĦÎµ
Ġê² ½
ĠÎ¼Îµ ÏĦÎ±
Ïĩ Î±
wy dd
Ġako ko
ĠØ¨ ÛĮ
ek o
Ġi p
Ð°ÑĨ Ð¸
ãģ Ń
æ¥ Ń
c ho
íħ Ķ
ĠÑ Ķ
Ø¹ Ø©
Ã© re
Ġw on
Ġpi Ã¹
Ø§Øª Ú¾
Ġå Ĳ
áĢģ áĢ¶
Ġà®ķ à¯ĭ
àµįà´ ķàµįà´ķ
áĥĶáĥ ª
à¹ī à¸Ńà¸ĩ
à±ģà° ¦
è¿ Ľ
à¦ĸ à¦¨
Ġàªª àª¹
à®µ à¯ģà®®à¯į
àµĭ à´Ĺ
áģ ļ
ķ áĢ¼
» áĢĻ
ÏĦ ÎŃÏĤ
Ġà®ª à®²
àµĩà´ ¶
ÑģÐº Ð°Ñı
Ïĥ Î¯Î±
Ġà°ħ à°¯
áĥĶáĥĳ áĥĲáĥ¡
à¥Ĥ à¤¨
å® ŀ
Ġà®µ à®´
ÏģÎ¿ Ïį
Ġà´¸ àµįà´µ
Ġà¦¨ à¦¿
Ðº Ð°Ñŀ
Ġáĥ łáĥ
àª¿ àª°
Î½ Ïī
Ġà°ļ à±Ĥà°
ĠÐº Ð°Ð»Ñĸ
ģà¸±à¸ ļà¸
é £
Ð¾ÑĤ ÑĢ
à¦¨à§įà¦ ¦
áĥĲáĥĽ áĥĵ
Ķà¸´à¸ ¡à¸ŀà¸
Ġt ar
Ð°Ð½ Ñĭ
à«ĩàª² àª¾
à°¿à°Ĥà° Ĺ
Ħà¸¸à¸ ĵà¸
Ġs on
Å¡ u
Ġà¦Ĩ à¦ª
ĠP ro
à¤ļ à¥įà¤
×ķ× Ĺ
Ġàª¨ àª¹
ish t
à¥ĩ à¤²
Ġf ost
Ġà¤ª à¥Ĥ
Ð°ÑĢ Ð¾
Ġà¤ħ à¤§
Ġì °
ãĤ §
Ùĩ Ø±
Ġvo tre
ĠÒĽÐ¸Ð» Ð¸ÑĪ
ĠÐ¼ Ð°Ñģ
Ġro z
Õ ´
Ġg Ã¼n
ÑĤ Ð¸Ð±
Ġtá» «
Ġí ı
ĠU n
Ð¾Ð² Ð°ÑĤÑĮ
ĠØ¬ Ø³
Å¡an a
ts eng
ĠÃ Ń
ÙĪ Ø§ÙĨ
on n
ãģķ ãĤĵ
ĠÐ¸ Ð³
t an
ÎµÎ¯ Î¿
Ġë° Ķ
Ġ= "
ĠÎµÏĢ Î¯
ĠÎĳ Ïħ
gbe gbe
ĠÐ£ ÐºÑĢÐ°ÑĹ
ÐºÑĸ Ð²
Ġá»į ká»į
ÑģÑĤ Ð°Ð²
ãĤ ª
i ÅĨ
ca q
ìĭ ł
en te
Ġh at
Ġc zy
á¹£ u
ÙĬ Ø³
es sa
b ie
áĢķ áĢ²
Ġà®® à®±à¯įà®±
à´ ļ
ĠáĥĹ áĥ£
à¸Ńà¸ ļà¸
à°Ĥà°¤ à±ĭ
é ¦
Ġà¦¹ à¦¬à§ĩ
Ġàª¬ àª¨
à¯Īà® ļ
Ġà´ ŀ
áĢĻáĢº áĢ¬áĢ¸
Ģ áĢŃáĢ¯
áĢ¸áĢ Ĳ
ÏĢ ÏīÏĤ
à®¿à®ķ à®³à¯į
Ġà´® àµģà´
ÐºÐ° Ñı
ĠÏĥ ÏĦ
à±ģà°¨à±įà°¨ à°¾à°°à±ģ
áĥ ¯
Ġ ä½
åĲ İ
Ġà®ħ à®±
ÏģÎ± Î³
à´ «
Ġà¦Ĩ à¦¸
Ġ Ð°Ð»Ðµ
áĥĺ áĥĶáĥł
àª¿àª Ł
ĠÎ´ Îµ
à±įà° ³
Ð°Ñģ Ñı
§à¸ ±à¸Ļ
æĬ Ģ
ĠÐµ Ð³Ð¾
à§įà¦¯ à¦¾à¦¨
áĥĲáĥķ áĥļ
à¸Ļà¸ ±
an Ã«
ĠÐ´Ð· Ðµ
Ġàªľ à«ĭ
à°² à±į
ľà¸¹ à¹īà¸
ÉĻ lÉĻ
Ã¼n k
à¦§ à§įà¦¯
Ø´ ÙĨ
Ġà¤ľ à¤¾à¤¤
×ķ× ¡
Ġàªª àª¡
our s
à¥Ģ à¤¨
ĠÑģ ÑĬ
à¤°à¥įà¤ ®
Ð°Ð ¾
Ġà¤® à¥Ī
Ľ Ħ
Ġo g
en to
l Ã¡s
ĠÐ±ÑŀÐ» Ð³Ð°Ð½
ĠÐ¸ ÑģÑĤ
z i
Ġãģ Ĭ
Ùħ ÙĨ
Ð°Ð¹ Ð´Ð¸
ãĤ ¨
Ġì ²
Ġh lo
Ð°Ð½ Ð¾Ð²
Ġf or
ĠP h
h n
ĠØ§ÙĦ Ùĥ
ÑĶ ÑĤÑĮÑģÑı
Ġl ie
Ã¡ i
Ð´ ÐµÐ»
Ġi pa
ÏĦÎ¿ Ïį
ìĸ ĳ
1 5
ĠÎº Î¬Î½
ĠÎ± Î³
Ġá»į já»į
Ø³ ÙĦ
q a
Ġon i
Ð°Ð½ Ð¸Ðµ
h te
ãģ« ãģ¯
ĠÙ¾ Ûģ
Ġ" ,"
Ø§ÛĮ ÛĮ
Å¾ i
s kie
Ġp u
Ġ ÉĻs
ai re
Ġh á»į
áĢ¬áĢ¸áĢ ¡
à®µ à¯ĩ
à´¿à´ķ à´³
áĥĲáĥķ áĥ¡
à¹ĥà¸ «à¸
à± Į
ä» ¶
Ġà§¨ à§
à«Ģàª ľ
Ġà®İà®© à¯įà®ª
Ġà´¸ à´®
ĠáĢ» áĢĻ
áĢķ áĢ¹
Ļ áĢº
Î Ķ
à®¾à® ļ
à´¾à´¤ àµįà´°
ĠÐº Ð°Ð±
ĠÎ ¡
Ġà°ķ à°²
áĥĺáĥ£áĥ ł
éĿ ¢
åĬ Ľ
à®¿à®± à¯įà®ķ
Î¸ Î®
àµįà´ £
à¦ ł
Ð± Ð°
Ġáĥĵ áĥĲáĥĽ
Ġàª¹àª¤ à«ĭ
Î² Î¬
à°Ĥà° ª
Ð² Ð°ÑĢ
Īà¸²à¸ ģ
ä¸ »
ÐµÐ½Ð¸ Ð¸
à¦° à§ĩ
Ġáĥ£áĥľ áĥĵáĥĲ
à¹Ģà¸ ¥à¸
Ġwer den
Ñģ Ð°Ð¼Ð°
à«ĭ àª°à«įàª
Ġà°µ à°¾à°°
à¸² à¸£à¸
ng an
Ã¡ b
Ġà¦¸ à§įà¦¬
k eng
âĢ į
Ø ¥
àª° à«Ĥ
an ia
Ġà¤¬ à¤¨
Ġ× ¦
à¥ĩà¤ ĸ
ĠÐ¸ Ð»
a v
ëħ Ħ
ĠÐ¿ Ð¾Ð²
en s
ÙĦ ÛĴ
Ġ Ð°ÑģÑĤ
ĠÑĤÐ°ÑĪ ÐºÐ¸Ð»
Ġm ÉĻn
ni k
n Ä«
Ð¾Ñı ÑĤ
Ġm Ã¡s
ìĬµ ëĭĪëĭ¤
z za
Ð Ł
c ÃŃ
r Ã«
ĠÃ®ntÃ¢l n
ĠH a
un i
ĠÚ©Ø± Ø¯
Ã¶ r
Ð¸Ð» Ð¸
Ġf áº¹
ĠÏĦ Îµ
Ġì £¼
Î½Î¿ Î´Î¿
ÏĦ Ïī
Îº ÏģÎ¹
Ġpata ki
ĠØ§ÙĦØ µ
p r
Ġagb ara
ĠÐº ÑĢ
Ġ×Ķ× ©
il la
Äĥ m
Ġï »¿
Ġn ÉĻ
Ġt Äģ
Ġa i
ek e
ĠØ º
Ġt y
Ġpr ÃŃ
ĠáĢĢ áĢº
Ġà®µ à¯Ģ
à´± à´¿à´¯
ĠáĥĲáĥł áĥĺáĥ¡
Ķà¸ ¥
à±ģà°² à±ĭ
è °
Ġà¦® à§ĭ
à«ģàª ľ
Ġà®ħ à®Ł
à´¿à´ ±
ĠáĢ¡ áĢŀ
±áĢ ķ
ķáĢ« áĢĲáĢļáĢ¹
ĠÎº Ïħ
à®² à¯Ī
àµįà´¯ à´Ĥ
Ñĸ Ð»
Ïħ Î½Î±
à±įà° Ĺ
áĥĲáĥłáĥ Ĵ
ç» ı
æŀ ľ
à®¾à®° à¯įà®ķà®³à¯į
Î¼Î± ÏĦÎ¿ÏĤ
à´¨àµįà´ ¦
Ġà¦¦ à§ĩà¦ĸ
Ñĳ Ð½
Ġáĥĵ áĥ¦
Ġàªª à«ĭàª¤
Î¹Îº ÎŃÏĤ
Ġà°ļà±ĩà° ¯
Ñı Ð´
à¹Ħà¸ Ľ
Ġå Ľ
ĠÐ¿ Ð¾Ð¼
à¦¨à§įà¦¤ à§įà¦°
ĠáĥĽ áĥ®
ķ à¸²à¸
i j
ĠÐ± Ð¾Ð»ÑĮÑĪ
Ġàª° àª¾àªľ
Ġà°ķ à°¾à°°
à¸Ńà¸£ à¹Į
Ġtr a
e v
à§įà¦ ¦
d iy
Ġà¤° à¤¾à¤ľ
la ng
Ġàª® à«ĩàª
Ú© ÛĮ
à¤ ¥
ç ķ
Ġà¤ħà¤ª à¤¨à¥ĩ
ĠÐ°Ð¼ Ð°Ð»
à¤Ń à¥Ģ
Ġë³ ´
Äĥ ri
it u
ne go
ÑĢ Ð°ÑĤ
ÑĪ Ð¸ÑĢ
×Ļ ×Ļ×Ŀ
Ġn ous
er n
Ð´ Ð¾ÑĢ
ĠØ¨ Ú¾
ìĻ Ģ
ÙĤ Ø©
to tt
Ġs om
ÙĦ Ø§Ùħ
Ã© ho
il ÉĻr
Ð¾ÑģÑĤ Ð¸
æ Ľ
Ġk ur
ÐºÐ¸ Ð¹
j ara
Ġr u
ì¶ľìŀ¥ ìĥµ
Ġ2 00
Îº Î¹
ĠÎº Î¹
g i
Ã¡ ng
ou v
u gbá»įn
Ñ ļ
ĠÐ± ÐµÐ·
Ġjo a
is o
Ġê³ ł
å® ļ
ÑĢ Ð¾Ñģ
ĠÃ© r
Ġi má»į
ĠÙ¾Ø§Ú© Ø³ØªØ§ÙĨ
Ġal s
m ÉĻt
áĢŃ áĢĲáĢ¹áĢ
à®¿à®ķ à®³
à´¾à´¯à´¿à´° àµģà´¨àµįà´¨àµģ
ĠáĥĹ áĥ¥
«à¸ ¡à¸
à±įà°° à±Ģ
åº ¦
à¦° à§įà¦¤
àª£ à«Ģ
Ġà®ħà®° à®ļ
àµįà´¯ à´®
áĢĶ áĢ¾
áĢ¸áĢ ¡
ĠáĢ Ł
Î½Î¿ Î¼
Ġà®¤à¯Ĭ à®Ł
à´ªàµįà´ª àµĭ
Ð°ÑĢ Ð¾Ð´
ĠÏĥ Ïĩ
à±Ģ à°
ĠáĥĽ áĥĺáĥ
å §
å° ±
à®© à®°à¯į
Î´ Î®
Ġà´ĩ à´¤
Ġà¦Ĩ à¦Ĺ
ĠÐ²Ñĭ Ðº
áĥ® áĥĿáĥķ
§ à«Ģ
ÏĨ Î±
à±ĩ à°°
ĠÐĳÐµÐ»Ð°ÑĢÑĥÑģ Ñĸ
±à¹īà¸ ĩà¸
å ¦
Ġm und
à§ĩà¦ ·
Ġáĥ °
¥ à¸´à¸
ÑĨ Ð¸Ð¸
ĠÑĸ Ð¼
à« Į
à±ģà° ®
±à¹īà¸ ĩ
Å¡ o
Ùħ Ø©
à¦® à¦¾à¦¨
en ts
Ġà¤Ń à¤¾à¤°
l la
à«įàª ¨
ĠØ¨ Ûģ
à¤ ł
Ø§ÙĨ Ùĩ
à¤ķ à¥įà¤¤
ĠÒ³ Ð¾Ð»
æĴ Ń
µ ľ
lo a
Å º
Ġdel l
ĠÐĳ Ñĥ
Ð Ľ
ĠÕ ¶
Ġh ÉĻr
á»ĳ c
ÑĪ Ð¸
ĠØ¢ Ù¾
ì¹ ´
ĠÃ®ntÃ¢ln iri
ÈĽ ii
Ä ı
to k
×Ļ× ¢
Ġv ei
ĠÐ½ Ð¾Ð²
Ġau x
Ø² Ø§Ø±
c as
pá»įlá»į pá»į
3 3
ë¬ ¸
ĠÎ±Ïħ ÏĦÎ®
ĠÏĢÎ¿Î» Ïį
ĠÏĢ Î±Î¹
É Ľ
te m
Ġj el
Ġi da
ãĥ ĳ
Ð» ÐµÐ½Ð¸Ñı
Å¡ e
ĠK e
ĠìĹ ¬
ÙĤ Ø¯
ĠÐ¿ÑĢ Ð¾Ð´
tt Ã¤
Ġgb e
s ta
l ÉĻt
le ment
áĢĦ áĢ·
Ġà®® à®©
Ġà´ªàµįà´° à´¤
áĥķ áĥĲ
·à¹Ī à¸Ń
Ġà°¸ à°¿à°¨
æ Ļ
à¦¾à¦ ¯à¦¼
à«Ģàª ¸
Ġà®® à¯ģà®¤
à´¾ àµ¼
Ġáģ ģáģ
ĠáĢ ¥
ĠáĢ» áĢĸáĢħáĢ¹áĢ
Ïİ ÏģÎ±
à¯ģà®Ł à®©à¯į
àµģà´£àµįà´Ł àµį
Ð°Ñģ ÑĨÑĸ
ÏĮ Î¼Îµ
Ġà°ļà±Ĩ à°ªà±įà°ª
Ġáĥ© áĥķáĥĶáĥľ
è Ĳ
è§ Ħ
Ġà®ķ à®°
ĠÎľ Î±
Ġà´ķ àµĭ
à§ĥ à¦¤
Ð¼ Ð°
áĥĲáĥłáĥ ¢
Ġàª® àª¾àªĤ
ĠÏĥ Ïį
à±ĭ à°ľ
Ð½Ñĸ ÑĨ
à¹Ģà¸ Ľà¹ĩà¸Ļà¸
ĠåĮ Ĺäº¬
a le
à¦¾à¦ ĸ
Ġáĥ£áĥ ¤
Ľà¹ĩ à¸Ļ
Ð Ĵ
ĠÐ´ Ñĭ
àª¾àª¨ à«ĩ
à°¡ à±įà°¡
à¹Ħà¸ Ľà¸
is oa
ra s
à¦¿à¦ Ĥ
ĠÄĳ áº¿n
à¤¤ à¤¿
ĠÙħ Ø¯
Ġàªľ à«ĭàª
ÑĥÐ² Ð°Ð½Ð½Ñı
à¤² à¤¾
iy as
à¤¿ à¤Ĥà¤Ĺ
Ð¾Ð¼ Ð¾Ð½
à¤ ·
ì§ Ħ
Ġm me
w er
d Ã³
Ñĥ Ò³
Ð¹ Ð¸
è ³
ie j
Ġ× ĺ
ĠÐ¼ Ð°Ò³
ĠÚ¯ ÛĮØ§
ĠëĤ ĺ
en ti
Õ¡Õ ¾
Ġe dir
Ġna ch
j er
ÑĬ Ð»
ĠÐ² ÑĢÐµÐ¼
ĠØ¢ Ùħ
Ñİ ÑĤÑĮ
æĢ §
elu jara
Ġy r
Ġë ²
Ïĥ Î¿ÏħÎ½
Ġw e
ÏģÎ¹ Î¿
Ġá¹£ a
es te
ĠL at
Ġi bi
Ġsz Ã¡m
Ð» Ð°Ð²
d Äģ
tt u
Ġì ¤ĳ
ĠØ§ÙĦ Ø±
Ðº Ð¾Ð²
ÅĻ ÃŃ
Ġá»į rá»į
ĠØ´ Ø¯
ÉĻ li
l ine
áĢĦáĢº áĢ¸
à¯ģà®ķ à¯į
Ġà´¨à´¿à´ ¨àµįà´¨
áĥ «
Ġà¸ ļà¸Ńà¸¥
à°¾à°° à°Ĥ
èĩ ª
Ġà¦ħ à¦¬
àª¾àª ¶
Ġà®ª à®¤
à´¾à´² àµįâĢį
áĢ± áĢĢ
áĢ¸áĢ ľ
±áĢ ľ
Î¹Îº ÏİÎ½
à®¿à®²à¯įà®² à¯Ī
Ġà´µ à´°
Ð°Ð» Ð°Ð²
Ïģ Ïħ
Ġà°° à±Ĩ
áĥĿáĥłáĥ ª
åĮ ĸ
å »
à®° à®¿à®¯
ĠÎŁ Î¹
à´¾à´ ª
à§Ł à¦¾à¦°
Ðµ ÑĨÑĨÐ°
áĥĲáĥķ áĥ¨
Ġàª¥ àª¯
Î· ÏĥÎ·
Ġà°® à±Ĭ
ĠÐ¼ Ñı
³à¸ «
ģ éĢŁ
Ġn t
à§ İ
áĥľ áĥĺáĥ¡
ĺ à¸
ĠÐ³ Ð¾ÑĢ
Ñİ ÑĨÑĨÐ°
ĠàªĹ àª¯
à±ĭ à°Ĺ
ļ à¸£à¸´à¸
Ã¢n d
Ġm ar
à§ĩà¦ ¦
×ķ× ŀ
Ġà¤¦ à¥ĭ
á»ģ n
Ġàªķà«ĭàª Ī
ĠØª Ø¹
Ġà¤® à¤¿à¤²
Ġle het
à· Ĵ
ĠÐ±Ð°ÑĢ Ð¾Ð¸
à¥ĩ à¤¸
íı ¬
s ki
ti s
Ġes ta
ĠÐł ÐµÑģÐ¿ÑĥÐ±
Ðº Ð¾ÑĢ
k t
p er
ĠØ§ Ø¨
ĠÐ¼ Ð°Ð½
Ġv e
ìķ ¼
ti que
ia ÅĤ
ĠØŃ Ú©
ĠÐ² Ð¸
ts ch
ĠÃ© v
Ð¾Ð± Ñĭ
Ġt ÉĻr
èĢ ħ
áºŃ p
Ì Ģ
Ġ1 7
ê³ Ħ
Ġ +
1 7
ĠÎ¼ ÏĮ
Ġaw on
Ø ¤
Ġba keng
re e
Ġta i
Ð¸ÑĢ Ð¾Ð²Ð°Ð½
ĠØ§Ù¾ ÙĨÛĴ
en i
ê° Ħ
c on
ĠÐ¸ ÑģÐ¿
ng e
Ġe lo
Ġ×Ķ ×ª
ĠØ´ Ø¯Ùĩ
Åĳ k
áĢ¬ áĢŀ
à¯ģà® £
àµģà´¨àµįà´¨ à´¤
áĥł áĥĺáĥ¡
ŀ à¸Ļà¸
à°° à±įâĢĮ
p k
Ġà¦¤à¦¿à¦¨ à¦¿
àª¸ à«įàª¤
Ġà®ħ à®¨à¯įà®¤
à´¾à´ Ĺ
áĢ¬ áĢĦáĢ¹
áĢ¬áĢ¸áĢ Ľ
áĢĽáĢ¾ áĢŃ
ÎĻ Î£
Ġà® ²
à´¿à´ļàµįà´ļ àµį
ĠÑĳ Ð½
Îº Î±Î½
à±ĩà° Ł
ĠáĥĽ áĥĹ
è¿ ĩ
æĪ ĳ
Ġà®®à¯ģà® ©
Î´ Î¹Î¿
à´¾à´ ľ
à§ģ à¦®
ĠÐ°Ð´ Ð·
Ġáĥ® áĥĶáĥļ
àª¾àª° à«ĭ
Î»Î» Î±
Ġà°® à°¾à°°
ĠÑĤ Ð¾Ð»ÑĮÐºÑĸ
à¹īà¸ §
å¥ ĸ
Ø§ Ø¬
à§įà¦ ľ
Ġáĥ¡ áĥ¢
à¸´ à¹Ģà¸
ng we
Ð´ Ñĭ
àªĤ àªķ
Ġà°® à°¨
Ķà¸´à¸¡à¸ŀà¸ ±à¸Ļà¸
Ð¾ÑĤ Ð¾
Ã½ m
Ġà¦¹à§Ł à§ĩà¦Ľà§ĩ
Ã© es
ç Ī
os ta
Ġàªı àª®
Ġde y
à¤¾à¤¨ à¥Ģ
g j
Ġà¤² à¥ĭà¤Ĺ
Ð¾ ÑĦ
Ġà¤ķà¤¹ à¤¾
Ġë¶ Ģ
Ġm á»
ĠØ· Ø±
Ġv or
Ð°Ò³ Ð¾Ð¸
Ð°Ñģ Ð¸Ð´Ð°
Ġv olt
Ġ {
Ġ ãģ¨
ĠÐĶ Ð°ÑĢ
Ä« t
Ġê ±
ĠÐ¼Ð¾Ð¶ ÐµÑĤ
Ø§Ø µ
Ġe tsa
Ð»Ð¸ Ð²
ĠÃ¼ z
la m
tu re
ny m
ĠI l
it z
Ġna do
1 2
ë £
l l
ĠÏĩ Î±
Îµ Ïį
ĠO lu
Ġg iá»
ãĥ Ĭ
Ġmi iran
ĠÐ¼Ð¾Ð¶ Ð½Ð¾
×Ĺ ×¨
la s
ÑģÐº Ð¾Ð³Ð¾
Ġê³ µ
ãģ§ ãĤĤ
z Ã¡s
ĠÑ Ĺ
Ġe re
Õ¥ ÖĢÕ
l ÉĻn
Øª Ùħ
ŀ áĢ°
à¯Īà®ķ à¯į
à´ªàµįà´ª àµĨà´Ł
áĥĿáĥ Ļ
ķ à¹īà¸Ńà¸ĩà¸
Ġà°ħ à°¨à±įà°¨
æ į
Ġà¦ķ à§ĭà¦¨
Ġ $
Ġà®¤ à¯ĩ
à´¿à´¨ àµĨ
áĢ¯áĢŃ áĤĶ
áĢ¸áĢ ħ
áĤ Ĭ
Î© ÎĿ
ŀ à¯įà®ļ
àµģà´¨àµįà´¨ à´¤àµį
ĠÐ¶ Ñĭ
Î¿Î½ ÏĦÎ±Î¹
à°¤ à°¿
áĥĿáĥłáĥ Ľ
Ġäºļæ¸¸ éĽĨåĽ¢
è £
Ġà®İ à®¤
Ïĥ Î±Î½
à´¿à´ ¨àµįà´¨
Ġà§¨à§¦à§ §à§
ĠÑĸÐ½ ÑĪ
áĥĲáĥ ŀ
à«ĭ àª¨
Îµ ÏĢ
à°¿à°Ĥà°ļ à°¿
ÑĤ ÑĥÑĢ
à¹ģà¸ ļà¸
åįķ åıĮ
Ġka pa
à§įà¦ ł
ĠáĥĽ áĥĲáĥĹ
¸à¸ ķà¸
z e
Ð°Ð³ Ð¾
Ġàª¸ àª¾àª®
à°¿à° ²à±ĭ
à¹ī à¸Ń
i ta
ĠÑĤ ÑĢ
Ġà¦ķà¦° à¦¤à§ĩ
Ġpre d
à¥ĭ à¤ľ
Äģ ci
ĠâĢ ¦
ĠÔ ±
Ġà¤ķ à¤®
an do
Ġà¤¬ à¤¾à¤¦
Ð¸Ð» Ð°Ð´Ð¸
Ġà¤°à¤¹ à¥ĩ
ê ¹
ÙĪ Ø¨
Ġs ie
Ġg r
ĠÐ±Ð¾ÑĪ ÒĽ
Ġ Ð°Ð½
á»© c
ãĥ ĵ
j t
ĠÒ³ Ð¸Ñģ
Ã¡n ÃŃ
ĠìĿ ¼
ĠÐ´ Ð¾Ð»
Ġ ÛĮØ§
è »
Ġo le
m ÉĻsi
Ġprz ez
Ġ×ŀ× ©
um u
Ġr end
ov e
Ġa aye
Ġh ref
Ġë§ Ī
ĠÎ¼ÏĢÎ¿ ÏģÎµÎ¯
ter n
Ġp ost
ok e
ĠÙĦ Ø§
Ġm on
s áº¹
Ð» Ð°ÑģÑĤ
p re
ãģ ļ
Ð¾Ð³ Ð´Ð°
ì¹ ĺ
el i
Ġna ko
Ġv Äĵ
Ġa pa
x t
ĠkeÃ§ ir
Ð°Ð½ Ðµ
áĢ±áĢ¬ áĢĦáĢºáĢ¸áĢ
Ġà®® à¯Ĥ
àµĨ à´Ļàµįà´ķ
ĠáĥĻ áĥĿáĥĽ
à¹Ģà¸ Ĥ
à±ĭ à°¯
æĸ ĩ
Ġà¦ıà¦ķ à¦Łà¦¿
Ġàª¤ à«ĩàª
Ġà®ĩ à®Ł
Ġà´µ àµĢ
áĢ¬ áĢĢáĢ¹
áĢ±áĢ ¡
áĢ±áĢ ·
ÎĳÎ ¤
à®© à¯Ī
à´¤àµįà´¤ àµį
Ð°Ð½ Ð°
ĠÎ¸ Îµ
à°¾à°¤ à±įà°°
áĥĵ áĥĶáĥĴ
ä» ¬
è¿ Ĳ
à®£à¯įà®Ł à¯ģ
ÏģÎ¹ Î½
àµĨà´¯ àµģà´Ĥ
à¦¾à¦¦ à§ĩà¦¶
Ð² Ð°Ðµ
áĥĵ áĥĶáĥĳáĥĲ
ĠàªĨàªµ à«Ģ
Î» ÎµÎ¹
à°¿à°Ĥà° ¦
Ñį Ð¹
à¹Ĥà¸ ¡à¸
¬ ¬
d or
Ġà§ ©
Ġáĥ¡áĥĲáĥ¥áĥĲáĥłáĥĹáĥķáĥĶáĥļ áĥĿáĥ¡
Ľà¸ ¥
ĠÙħ Ø§
ÑĩÑĭ Ð½
Ġàª¹àª¤ àª¾
à°Ĥà°Ł à±ĩ
ªà¸¸à¸ Ķ
Ġ×Ķ× Ĺ
Ġvá» ģ
à§Ł à¦¾
ĠÃ ª
Ġà¤® à¥ģ
Ġcs ak
àª¿ àªĤàªĹ
ÉĻs indÉĻ
à¤¾à¤ ĵ
ow ych
çł ģ
ĠÒ ¶
Ġà¤¤ à¤ķ
Ġìĥ ģ
t ra
ĠÐ² Ð¸Ð´
Ġ Å
Ñĥ ÑĦ
Ó¯ Ð·
Ġdi es
Ð ħ
Ðł Ñķ
Ð°Ð»Ð°ÑĢ Ð¸
ĠÐ³ ÑĢ
Ġâ ĺ
Ġe m
ãĤ ĥ
é ł
Ġpr in
Ä± x
k Ã¤
la d
ÛĮ Ø³
Ð½Ñĸ ÑģÑĤ
0 4
w u
Ġ us
íĶ Ħ
Ġï¿½ï¿½ï¿½ï¿½ ï¿½ï¿½ï¿½ï¿½
1 4
Î½Î¿ Î½
Ġay elujara
in Ã«
ãĤ ĩ
Ġan d
ÑİÑĤ ÑģÑı
Ġ×ŀ ×Ķ
ÙĦ Ø©
ĠP or
ì¶ľìŀ¥ ìķĪë§Ī
es c
ur ch
f e
Ġsi i
Õ¡Õ¯ Õ¡Õ¶
Õ ¯
Å© ng
áĢ» áĢĸ
à®¿à® ª
à´³ àµįà´³
áĥĺáĥľ áĥĲ
à¹īà¸² à¸Ļà¸
à±ĩà° ·
å¿ ĥ
à¦¿à¦ ľ
àªµ à«ģàªĤ
à®® à®¾à®©
àµįà´° àµĢ
áĢ¬ áĢľ
Ļ áĢ½áĢ¬
áĤıáĢ½ áĢĦáĢ¹áĢ·
ĠÎł ÏģÎ¿
Ġà®ļ à®¿à®±
à´¨àµįà´ ±àµĨ
Ġ Ð°ÑĤ
ÏĦÎ· ÏĤ
à°Ĥà° ķ
áĥķ áĥĺáĥĹ
Ġå ¹
åı ¸
à®Ł à®¿
ÏĦÎ¹Îº Î®ÏĤ
Ġà´ķ àµĩ
à¦¾à¦ķ à¦¾
Ð°ÑĨ ÑĨÐ°
ĠáĥĻ áĥĺ
àªµàª¾àª¨ à«Ģ
ĠÎ± Ïĥ
à°¿à°Ĥà°ļ à°¿à°¨
ĠÑĤÐ°Ðº ÑģÐ°Ð¼Ð°
Ġ2 5
Ġag åĽ½éĻħ
n Ã½ch
à¦¾à¦¨ à§ĩ
áĥĶáĥ Ļ
à¸Ńà¸£ à¹Įà¸
ĠØ³ Ø±
ÑįÐ½ Ð½Ñı
àª¤ à«ĭ
Ġà°¸à°¿à°¨ à°¿à°®
Ľà¸£à¸ °à¹Ģà¸
di g
Ġna j
à¦ľ à¦¨
ÐµÐ½Ð¸ Ð¹
Ġà¤¸ à¥Ģ
Ġv et
Ġàª Ī
Ã¶ y
Ġà¤ī à¤ª
ÃŃ r
çº §
Ð± Ð°ÑĤ
Ġà¤ľ à¥Ģ
ìŀ Ħ
te le
v u
Ġd is
Ð± Ð¾ÑĢ
ĠÐ½ Ð°Ð·
ãģª ãģ©
Ú© Ûģ
ÙĬ Ùģ
Ð°Ñĳ ÑĤÐ³Ð°Ð½
ĠlÃł m
ë§Ī ìĤ¬ì§Ģ
Ġ0 3
Ñĸ ÑĪ
l ho
çī ©
Ġy er
Ġ×ĳ ×Ĳ
Ġdas s
ĠØ °
p os
Ġm Ã©g
i ng
Ġth e
Ġâ Ļ
ĠMa e
ÏģÎ¹Ïĥ Ïĥ
Îº Î¬
Ġy áº¹
ĠÑģ Ð¸
n Äħ
w áº¹
Ø§Ø ®
ÑĤ Ð¾Ð¼
Ä¼ u
Ġshum Ã«
ìļ °
Ġe g
ie i
ĠÐ² Ð¸Ðº
g h
ĠS a
Ð´ Ðµ
ĠJ e
áĢļáĢ¹áĢ ľ
Ġà®ĩ à®²à¯įà®²
à´¾à´ ¦
Ġáĥ¡ áĥĲáĥ¡
à¸Ńà¸ ģà¸
à°Ĥà°¦ à±įà°°
æĹĹèĪ° åİħ
à¦¾à¦¤ à§ĩ
à«ĩ àª¨à«įàª
Ġà®Ĩ à®©
Ġà´ķ à´´
ĠáĢ Ŀ
ĠáĢ Ħ
Ļ áĢ½
Ïĩ ÎµÎ¹
à¯ģà® ²
à´¿à´ ŀàµįà´ŀ
ĠÑĨ Ñı
ĠÎ±Î½ Î¬
à°® à±Ĩ
ĠáĥĽ áĥĿáĥĽ
ĠA G
éĩ į
Ġà®® à¯Ģ
Ïĩ Î®
à´¿à´² àµĩ
à¦¿à¦ ¯à¦¼
Ð» ÐµÑĤ
ĠáĥĽ áĥĲáĥ¡
àª¤ àª¾àªĤ
Î»Î¿ Î½
à±ģà° Ĺà°¾
Ð²Ð° ÑĨÑĮ
ĩ à¸²à¸Ļà¸
Ġä¸ Ģ
Ġq ar
à§ģ à¦ķà§įà¦¤
ĠáĥĲáĥ ķ
à¹Ģ à¸£à¸
is en
ĠÐĲ Ð´
) ;
Ġà°¤ à°¨
¹à¸ ģà¸
Ã¡l y
ÚĨ Ú¾
à¦ª à¦°
as e
à¤° à¤¾
Ġg ia
Ġàª¹àª¤ à«ģàªĤ
ĠÑį Ðº
à¤¿à¤ ®
Ġj s
à¤¸ à¥įà¤¤
ĠÐ°Ñģ Ð¾Ñģ
à¥Ĥ à¤°
Ġìľ Ħ
r os
Ñĸ Ð±
an ce
Ð°Ð¹ Ð´
ĠÒ ĵ
ĠLat vi
ĠØ§ Ø±
Ä«b a
ĠÐłÐµÑģÐ¿ÑĥÐ± Ð»Ð¸Ðº
r Ã³
ĠìĿ ĺ
ãģĹ ãģĦ
Ñĥ Ð²Ð°
ÉĻ lÉĻr
Ġs ul
ny a
Ġpe le
Ð½ÑĭÐ¼ Ð¸
ãĤ¤ ãĥĪ
Ã© ra
×ķ× ¦
Ġi la
ÏģÎ¹ÏĥÏĥ ÏĮÏĦÎµ
ìĦ ¸
ÏĦÎ· ÏĥÎ·
< /
1 6
Ġir in
n Ã¡l
b il
Ġw o
Ø§ ØŃ
Ġm yÃ¶
ãģ¾ ãģĽ
Ġl Ä«dz
íķĺ ê³ł
ĠØª Ø±
Ġv Å¡
Ð°ÑĨ ÑĸÑĹ
Ġáº¹ gbáº¹
Ġent re
ĠÐ½ Ð°Ð¿
m Ã«
ĠáĢ¡ áĢħ
à¯ģà®ķ à®³
Ġà´¨ à´¿à´°
áĥłáĥ «
à¸´ à¸Ļà¸
à°® à±Īà°¨
Ł ¥
à¦¾à¦ ¥
à«Ģ àª¨
à¯ģà®µ à®¤
Ġà´¤ à´¿à´°
» áĢĸ
áĢŁ áĢ¬
áĢ¥ áĢ¹áĢ
Î³ Î®
à®¿à®¤à¯įà®¤ à¯ģ
à´¾à´ ¹
ĠÑģÑĤ Ð°ÑĢ
Îµ ÏģÎ³
à±įà° §
áĥĺáĥ¨ áĥķ
åħ ³
åī į
Ġà®ķ à®²
ĠÎ´ Î¹Î¬
à´¯ à´¿à´²àµįâĢį
Ġà¦Ĺ à§įà¦°
ĠÐ¼ Ñĭ
áĥĲáĥª áĥĺ
) .
ÎĳÎ Ŀ
Ġà°µ à°ļà±įà°ļ
Ð¿ ÐµÑĢ
ķ à¸£
è§ £
áº¥ y
Ġà¦ķ à¦®
áĥĲáĥ «
à¸µ à¹Īà¸
es ti
ĠÐĵ Ð
à«ĩàª ¡
Ġà°ļà±ĩà° ¸à±įà°¤
Ġ à¸Ļ
le g
Ġba tho
à¦¨ à¦¿
ĠÕ «
à¥ĩà¤ ľ
Ġki mi
Ġàª¦ àª°
f or
à Ń
Ùĥ ÙĨ
à¥įà¤ ¨
ĠÒĽ Ð¾Ð»
à¤Ĺ à¥Ģ
ìľ Ħ
ĠØ³ Ú©
Ġ×ķ ×Ķ
ar d
ĠÐ¼ Ð°ÒĽ
Ð¸Ñı ÑĤÐ¸
Ġp Äĵ
ÑĬ ÑĤ
Ġl u
Ð» ÑĥÐ¼
ÑĦ Ð¾ÑĢÐ¼
Ġí Į
ĠØ¨ ÙĪØ¯
v ÄĽ
Ð¸ÑĤ ÑģÑı
Ã¶ k
Ġale bo
Ġj anÃ«
Ġ á»Ł
ÑĶ Ð¼
vo ir
m Ä±ÅŁ
Ġe to
ĠÏĥ Î¿Ïħ
Ġê ¹
ĠÏĨ Î¿
ĠÎº ÏĮ
tern et
ĠI le
ĠtÅ¡ e
di mo
ĠA la
ÐµÐ½ Ð°
v et
at Äĥ
v Äģ
í Ĵ
Ġ3 8
ÑĥÐ² Ð°ÑĤÐ¸
ãĥ »
Ġá»į kan
ĠP ar
ÐµÑĢ Ð¶
ãĥ Ķ
ĠáĢŀ áĢŃ
Ġà®ļà¯Ĩà®¯ à¯įà®¯
à´Ļàµįà´Ļ àµ¾
áĥĲáĥļ áĥ£áĥłáĥĺ
Ġà¹ģà¸ ¥à¸°à¸
à°¿à°² à±įà°²
è¿ Ļ
Ġà¦¸à¦® à§įà¦ª
àª¾àª ¥à«Ģ
à¯ģà®ķ à®³à¯į
Ġà´ļàµĨà´¯ àµįà´¯
ĠáĢĢ áĢ¼
áĢĽ áĢ½
ĠáĢĴ áĢ«
Ïģ Î¸
Ġà®¨ à®¿à®²
à´°àµįâĢį à´¤àµįà´¤
Ñį Ð¼
Î³ Ïī
à°¾à°¨ à±ģ
Ġáĥ¡ áĥ®áĥķ
äºļ æ´²
åĬ ¡
à¯ģà® ļ
Îķ Î£
Ġà´ªà´± à´ŀàµįà´ŀ
Ġà¦¸ à¦¬
Ðµ ÑĨ
áĥ£áĥ ¡
Ġàª¸ à«įàªµ
Î¼Î± Î½
à°¸ à±į
ÑĨ Ñĳ
ķ à¹Īà¸
å ķ
ĠØ³ Ø§ØªÚ¾
à¦ ·
¬ áĥ§
¢ à¸Ļ
×ķ× Ĵ
ÑįÑĤ Ð°
àªĽ à«Ģ
à°² à°¾
Ķà¸¥ à¸Ńà¸ĩ
Ġm at
ĠÙĪ Øª
Ġà¦¬à¦¾à¦Ĥà¦² à¦¾à¦¦à§ĩà¦¶
ĠB e
à¥įà¤ ·
Ġm em
àª¿àª¯ àª¾
ou ve
Ġà¤īà¤¨ à¥įà¤¹
Ã¼ m
Ġà¤¬ à¥Ģ
Ð¸Ð» Ð´Ð¸
§ ç¾İ
ĠìĦ ľ
en za
ãĥ¼ãĥ ī
Ġf il
Ð¸Ð» Ð¸Ðº
Ð ľ
g at
Ġk ter
Ġa ce
Ñģ Ð°ÑĤ
ĠÑģ Ð¾Ð²
Ġì¹´ ì§Ģëħ¸
no ÅĽci
ĠØ¬ ÙĨ
ĠÐ¾ Ñĩ
ĠG e
ĠØ§ÙĦ ÙĪ
c er
åı ĸ
ÄŁ a
ur es
Û °
ĠÃ ¬
Ġ/ "
ìķ ½
Ġ2 3
Ġ2 2
Ġ3 0
Ġi lu
Ø§Ø± Ùĩ
Ð½Ð¾ÑģÑĤ Ñĸ
ĠN a
ĠÑģ ÐµÑĢ
Ġo li
×Ļ× ĺ
Ġvi ÅĨ
ì ¡°
ĠÃ ī
ĠÙĦÛĮ ÛĴ
åĭ ķ
Ġáº¹ ni
l Åĳ
Ð¸Ñģ ÑĮ
Ġâ Ĥ¬
áģ ¼
Ġà®ª à®¯
Ġà´¤ àµģà´Ł
áĥĺáĥ ¥
Ġà¸ ģà¸²à¸£à¸
à°¾à° ³
Ġåľ ¨
Ġà¦¯ à§ĩ
Ġàªµ à«įàª¯
Ġà®µà¯Ĩ à®³
à´¯ àµģà´ŁàµĨ
ĸ áĢ¼
ĠáĢ¡ áĢľ
áĢ¬ áĢĶ
ÏĥÎµ ÏīÎ½
à¯Īà®ķ à®³à¯į
Ġà´µ àµĨ
ĠÐ¼ Ð°Ð³
Ġ ÏīÏĤ
à°¿à°Ĥà°ļ à°¾à°°à±ģ
ĠáĥĽ áĥĿ
à¨¾ à¨
Ġ Ĉ
Ġà®¤ à®²
ÏģÎ¿ Î½
àµĩ à´£àµįà´Ł
à¦¤ à¦¾
Ġ Ð°Ñŀ
áĥł áĥĿáĥ¡
Ġàªµ àª¾àª¤
Î»Î» Î·Î½
à°¨ à±įâĢĮ
ĠâĢļ Â
±à¸ ļà¸
Ġç Ķ
te Ä¾
¯ à§ĭà¦Ĺ
áĥ£áĥ ¨
¡à¸² à¸£à¸
r it
ĠÑĤ Ñĭ
àªŁ àª²
à°¿à° ¦
±à¸ ļ
ÛĮ Ø²
Ġh et
à§ģ à¦¬
Õ¥ Õ¶
à¤¾à¤° à¤¾
ĠgÃ¶r ÉĻ
Ġàªµàª°à«įàª ·
ĠL i
ç ²
a ta
Ġà¤® à¥ģà¤
Ð°Ð» ÒĽ
Ġà¤¬ à¤¾à¤°
Ġë į
ti k
Ø§ Ùĭ
al es
Ð°Ñħ Ñģ
Ð¾Ð¼ Ð¸
ow i
Ġ ur
Ã¡ o
Ð°Ðº Ð°ÑĤ
Ð°Ðµ Ð¼
ê³ µ
ĠÑĢ Ð¾Ðº
Ġp os
Ð¾ ÑģÐº
è¨ Ģ
Ð°ÑĤ Ð¾
lo m
×© ×¨
ĠÃª tre
ãĥ¼ãĥ ł
un un
Ġi po
Ġ/" >
ê ´Ģ
Î¯Î½ ÎµÎ¹
ĠÎºÎ± Î»
ÏĥÎµ ÏĦÎµ
ar in
ĠJ a
ÛĮ ÙĦ
Ġá»į ja
ÑģÑĤ ÑĮ
ç ·
ĠB o
un ÈĽ
Ġì Ľ
on y
it Äĥ
Ġc áº£
Ġgb i
ãģ¾ãģĽ ãĤĵ
ÐµÑĤ ÑĮ
Ġq e
áĢĻ áĢ¼
Ġà®ĩ à®µ
àµĢ à´µ
ĠáĥĹ áĥĲáĥľ
¡à¸ ±à¸
à°¾à° ·
à¤¾à¤Ĥ à¤ļ
Ġà¦ħ à¦Ń
Ġàªª à«Ĥ
Ġà®®à®±à¯įà®± à¯ģà®®à¯į
à´¨ à´Ĥ
áĢĴ áĢ®
áĢĻáĢ¾ áĢ¬
áĢĻáĢ¾ áĢ¯
ĠÎ¤ Î±
à® ¨
à´¤àµįà´¤ à´¿à´¨àµįà´±àµĨ
ĠÐ½Ð° ÑĪ
ĠÎ Ĩ
Ġà°ħ à°¨à°¿
áĥĿáĥ ¢
çŃ ī
ç ³
à¯įà®ª à¯įà®ª
ĠÎ½ ÎŃ
à´¾à´¤ àµįà´¤
Ġà¦¸ à¦°
ÑıÑĢ Ð¶
áĥĶáĥ ĸ
ĠàªŃ àª¾àª°
ĠÎĶ Î¹Î±
Ġà°° à°¾à°ľ
ĠÂ ®
Ġà¹Ĥà¸ Ľà¸£
è ĭ
ar Ã«
Ġà¦¦ à§ĩà¦¶
ĠáĥĴ áĥķ
à¹Ģà¸ Ķ
Ġal la
ÑĤ Ñĥ
Ġàª¨ à«ĩ
Ġà° ĵ
à¹Ĥ à¸Ļ
Ġv ie
s an
à¦¿à¦ ª
Ġg ra
æĭ į
Ġs po
Ġàª²à«ĭàªķ à«ĭ
ĠÚ©Ûģ Ø§
à¥į âĢį
c os
à¥Ĥ à¤ª
Ð»Ð¸ Ð³
à¤ ¢
ê¸ Ī
ĠÐ¼ Ñĸ
ta k
Ø´ Ø¯
Ð¸ Ò³
ĠÑħ ÑĥÐ´
Ġk om
×Ļ× ŀ
be le
ĠÐ±Ñŀ Ð¹Ð¸
ĠÑģ Ð¾Ð±
íĸ ī
Ã© ri
ĠØª Ú©
ĠÐ¸Ð½ ÑĤÐµÑĢ
Ġt áº¡i
m ÉĻy
ba ka
ta re
t os
Ġk Ã¤y
ĠR e
es u
ĠÏĢ ÏģÏİ
ì ¶Ķ
Ġli ve
ÏģÎŃ ÏĢÎµÎ¹
ĠÎļ ÏģÎ¹ÏĦÎ¹ÎºÎŃÏĤ
Ġe de
ãĥ³ãĥ ī
ĠÐ£ÐºÑĢÐ°ÑĹ Ð½Ð¸
Ġi b
ĠÐ´ ÑĢÑĥÐ³
r Ã¡
ĠÑĨ Ðµ
nie j
íĶ ¼
Ġbi en
Ø§Ø ·
Ñļ Ðµ
Ġr á»į
Äĵ m
ĠÑĤ Ð¾Ð»ÑĮÐºÐ¾
Ġm b
áĢķáĢ« áĢĲáĢļáĢº
à¯įà®ļ à®¿
à´¿à´ ª
Ġáĥ£áĥ Ļ
à¹Ģà¸ ª
à±ģà° Ł
Ġä¸ Ń
à¦¿à¦ Ľ
à«ĩàª² à«Ģ
à¯ģà® ´
à´® àµįà´ª
áĢ» áĢģ
áĢĸáĢ¼ áĢħáĢº
áĢĢ áĢ»
ĠÎĶ Î·
à¯įà® ¸
à´£àµįà´Ł àµį
Ð½Ð°Ñģ ÑĨÑĮ
ÏĢ Î¯
ļ à°¿
Ġáĥĺáĥ§ áĥĿ
åĲ Į
åĮ º
à®¾à®³ à¯į
ĠÎ±Î½ ÏĦÎ¹
à´ªàµįà´ª àµĨà´Łàµįà´Ł
à¦¨à§įà¦ §
Ð½Ñĸ ÐºÑĸ
áĥĺáĥ ¤
à«įàª §
Îº Î®
Ġà°Ĺ à±ģà°°
ÑĩÑĭ ÑĨÑĮ
¥à¸ĩà¸ Ĺà¸
pk 10
g es
à¦¾à¦¨ à§įà¦¤
áĥł áĥĺáĥķ
Ġà¹Ģà¸ Ķà¸´à¸¡à¸ŀà¸±à¸Ļà¸
Ġc i
ĠÐ¿Ð° Ñĩ
àªµ à«ĩ
à°¸ à±įà°Ł
Ġà¸ Īà¸
ĠÙĦ Ø¦ÛĴ
ĠÑĩ Ðµ
Ġà¦® à¦§à§įà¦¯
iá»ĩ u
à¤¤ à¥įà¤¤
×ł ×ķ
à«Ģ àªĤ
z Äĥ
Ġ201 9
Ã¤ i
æ¸ ħ
ĠÐ´ Ð°ÑģÑĤ
ĠæĹ ¥
Ġìķ Ī
Ð¿ Ð¾Ð²
Äį i
ĠØ§ÙĦØª ÙĬ
ĠÑĦ Ð°ÑĢ
ĠÑĤ Ð°Ð½
á» ı
ĠØ§ Ùģ
em p
ĠÐ¼ Ð°Ð²
ĠÐ· Ð°Ð¿
ê² ½
p i
×Ļ× ¤
Ð¾Ð» Ð¾Ð³
Ã¼ s
ĀĀĀĀĀĀĀĀ ĀĀĀĀĀĀĀĀ
ãĤĮ ãĤĭ
s er
ĠÙħ Ø±
ho z
ia k
fi han
ÏĨ Î®
íķ Ļ
in ternet
* *
Ġlive internet
Ġá»į pá»įlá»įpá»į
d ÄĽ
a b
ĠA ti
Ð°ÑĨ Ð¸Ñı
z Ä«
Ġe o
ÑĨÑĸ ÑĹ
ëª ħ
Ġje d
Ġnd Ã«r
el la
Ġ os
ãģ¨ æĢĿ
Ð² Ð¾Ð´
un u
áĢŃ áĢĻáĢ¹áĢ
à¯Īà®¯ à¯Ī
à´¨àµįà´¤ àµįà´°
áĥĿáĥł áĥĺáĥ¡
Łà¸ ¸à¸ķà¸
Ġà°ª à°°à°¿à°
éĴ Ł
à¦¾à¦ Ĥ
àªĤàª ¡
à¯Īà®ķ à®³
à´ķ à´³
±áĢ ŀ
áĢ±áĢ¬ áĢ·
áĤıáĢ½ áĢħáĢ¹áĢ
Ïĥ Î¹Î±
à®¿à®¯ à®¾à®ķ
à´® à´¾à´¯à´¿
ĠÐĿ Ð°
Îķ Î¡
à±ĩà° ®
áĥķ áĥĲáĥļ
ĠæĪ ĳ
æ¯ Ķ
à¯Īà® ¨à¯įà®¤
Î½Î¿ ÏĤ
àµ Ĺ
à§ģ à¦ķ
ĠÐ» Ñĸ
áĥĲáĥľ áĥ¡
à«įàª ļ
Î»Î» Î·
à°¤ à±įà°¯
ĠÐ± ÐµÐ»Ð°ÑĢÑĥ
Ġà¸ ģ
é Ĥ
Ã Ħ
à¦¨ à¦¾à¦°
ĠáĥĻ áĥĿáĥľ
à¹Ģ à¸£
áº ±
ĠÐ½ Ð°Ñģ
Ġà« ¨
à°¯ à±įà°¯
ķà¸±à¸ §
en cia
ol l
à§ĩà¦ ľ
ĠØª Ø§
Ġà¤¸ à¤°
en ce
àª¾àªµ à«Ģ
Ġ×Ķ× ¢
à¶ ±
ÙĤ ÙĬ
æĹ ł
ĠÑĤÑŀ Òĵ
Ġà¤¥ à¥Ģ
Ġí Ĩ
ãĥ į
ti c
Ú¯ ÛĮ
ĠÐ¼Ñĥ Ò³
ĠÐ±ÑŀÐ¹Ð¸ ÑĩÐ°
Ã¶ tt
Ġp la
le mo
Ð» Ð¾Ò³
ĠÐ´ ÐµÐ»
Ġí Ķ
ha l
ÐºÐ¸ Ñħ
ĠÐ¶ Ðµ
t ul
ãĤ¹ ãĥĪ
Ã¶v lÉĻt
Ġm eng
ĠØ§ÙĦØ °
Ã¼ t
k st
U N
ĠÎ± Î¾
íķ ł
Ġ2 4
ĠÏĢ Î¬Î½
ĠÎ ¯
ĠJ i
Å¡ ie
ti f
y áº¹
ĠÐ¿ÑĢ Ð¾Ð²
ta m
Ùħ Ø¯
Ġka p
Ġêµ ¬
p ie
ĠØ§ÙĦ ÙĦÛģ
ĠÙĦ ÙĪ
ĠF un
åĨ Ĩ
ĠÐ³ Ð¾Ð´
åĽ ŀ
ĠáĢĸ áĢ¼
Ġà®ī à®Ł
à´¸ àµįà´¥
áĥ® áĥĲáĥĵ
°à¹Ģà¸ ļ
à±Ģ à°¯
Ġæ ī
à¦¾à¦¤ à§įà¦°
àªķ à«ĭ
Ġà®µ à®¿à®Ł
Ġà´ķ àµĤà´Ł
áĢĲáĢ¼ áĢĢáĢ¹
áĢ¯ áĢĲáĢº
ĠáĢĢ áĢ»
Î» Î¿Ïħ
Ġà® ĵ
à´Ĥ à´Ĺ
Ð¾ÑĢ Ñĭ
ĠÎµ ÏģÎ³
à°¿à° ·
áĥĶáĥĳ áĥ¨áĥĺ
å¾ Ĺ
å± ķ
à¯ĭ à®¤à¯ģ
Î¼ÏĮ ÏĤ
à´¨àµįà´¨ àµį
à§įà¦ Ľà§ĩ
Ħ ĸ
ĠáĥłáĥĿáĥĽáĥĶáĥļ áĥĺáĥª
Ġàª¥ àªĪ
ĠÏĩ ÏģÏĮ
à°ķ à±įà°¤
ĠÐ±Ñĭ Ð»Ð¾
Ĥà¸ ¶
1 9
×Ļ× ¡
Ġà¦¨ à¦¿à§Łà§ĩ
£áĥ ¡
Ķ à¸µà¸
ci o
Ð» Ñĭ
àª° àª¾àª¤
à±Ĩ à°Ł
ĩ à¸²à¸Ļ
q q
te tt
Ġà¦Ľ à¦¿à¦²
Ġs áº½
çĶµ å½±
ĠÃ© ta
Ġàª¨ àª¾
Ġo raz
Ġà¤ Ĳ
ĠÃ İ
Ġà¤ķ à¥ģà¤
Ð»Ð°Ð½ Ð³Ð°Ð½
Ġà¤® à¥ĩ
ìŀ ħ
Ġwir d
f u
ÃŃ m
Ð°Ñģ Ñģ
ÑĨ Ð¸Ñı
en ta
p ra
ÙĦ ÙĪØ¯
Ð± Ñĥ
ĠÐł Ð¾ÑģÑģ
ëŁ ¬
ÙĤ Øª
Ġh ÉĻm
ĠÐ¿Ð¾Ð» ÑĥÑĩ
Ġk un
Ġmin den
Ð½Ð¸ Ð¼
Ġé Ģ
sz a
ĠK os
is t
pa da
il l
ê² ©
o d
Ġg w
Ġus ers
Ġ201 7
ãĥĥ ãĥĹ
Ùħ Ø§ÛĮ
ak oso
Ġl it
Ġd ir
ÐµÑģ Ñģ
Å į
Ġë Ĳ
ÑĤ Ñı
Ġd á»¥
Ġgj ith
A N
ç¤ ¾
ĠØ¬ Ø¨
ãĥķ ãĤ
áĢ¬áĢ¸áĢ Ĳ
Ġà®İ à®´
Ġà´µ àµįà´¯
Ġáĥ¬ áĥļáĥĺáĥ¡
Ħà¸£à¸Ķà¸´à¸ ķ
à°¾à° ¹
Ġæ ĸ
à¦¸ à§įà¦¤
Ġàª¦ àª¿àªµ
à®¸ à¯į
à´¤àµįà´¤ à´¿à´¨
áĤĢáĢĢ áĢ®áĢ¸áĢ
áĢľ áĢ²
áĢĻ áĤĪ
ĠÏĮ ÏĢÏīÏĤ
à¯Ģ à®°
à´¯ àµįà´ķàµįà´ķ
ĠÐĶ Ð·
ĠÏĢÎ± ÏģÎ¬
Ġà°µ à±Ī
Ġáĥĺ áĥ¥
éĢ ļ
æľ Ł
Ġà®¨ à®¿à®±
Î» Ïħ
àµģà´ķ à´¯
à¦¿à¦ķ à§įà¦·
Ð² Ñĸ
áĥĹ áĥĲ
Ġ$ (
ĠÎ± ÏģÏĩ
à°µ à°°
Ñİ ÑĩÑĭ
ĸà¸ ¶à¸
Ġå½© ç¥ŀ
ĠÐ¿ Ð¾ÑĤ
Ġà¦¬à§įà¦¯ à¦¬
Ġáĥĵ áĥĲáĥ¡
ģà¸ ±à¸Ļ
Ġau t
Ñŀ Ð»Ñı
àª¤ àª¿
Ġà°² à±ĩà°¦
à¸Ńà¸¢à¸ ¹
Ø§Ø ¶
is z
à§ĭ à¦²
ĠE in
à¤¤ à¥įà¤°
ĠÄ ģ
à«Ģ àª°
×Ļ× Ľ
Ġà¤µ à¤¹
ĠØ³ Ø§ÙĦ
à¤¾à¤ĵ à¤Ĥ
Ð»Ð°ÑĢ Ð´Ð°
Ġà¤¬ à¤¹
Ġì ¡°
Õ¡ Öģ
Ġts o
Ġba ÄŁ
Ð £
ĠÑĤ Ð¾Ð¼Ð¾Ð½
de os
Ġr es
Ġn Ã¡
ĠÐº Ð¸ÑĢ
ÑĤÐ¸ Ð²
ì ¦
Ã¡ bb
d ni
Ð Ķ
Ġol du
Ġdel le
Ø¹ ÙĦ
Ġdu ke
Ãª u
Ġb et
ma an
Ã³ Ì£n
ĠÎ´ Ïį
ìĹ Ń
ĠÏĢ Î¹Î¿
Î¼ÎŃ Î½Î·
ĠÏĢ ÏĮ
Ġaká»į ká»į
ĠM ar
Ġc ette
Ì ģ
a ng
ĠJe ho
Ð»Ñİ Ñĩ
Ġt lo
Ġì¶ľìŀ¥ ìķĪë§Ī
çĽ ®
tate a
âĢĮ ÙĩØ§ÛĮ
ut u
ÑĢ Ð¸Ð¼
Ġ×© ×Ķ
Ã± o
áĢ½ áĢĶáĢº
Ġà®ķ à®¾à®²
à´£ àµįà´£
áĥ£áĥ ¤
à¸µà¸¢ à¸Ļà¸
à°¿à°¤ à±įà°°
äº Į
à¦¾à¦ľ à¦¾à¦°
Ġàªµàª¿àª ¶
Ġà®ļ à®®
à´£ àµįâĢį
áĢĻ áĢŃ
ĠáĢķ áĢ«
±áĢ Ĩ
ÏĦÎ¹ Ïĥ
à®¤ à®¿
Ġà´ħ à´¨
ĠÑĨ Ñĸ
ĠÎŃÏĩ Î¿ÏħÎ½
à°¾à°² à°¿
ĠáĥĽ áĥĺáĥĽ
æ° ĳ
éĩ ı
Ġà®µà¯ĩà®£à¯įà®Ł à¯ģà®®à¯į
ĠÏĢÎµ ÏģÎ¯
à´¿à´¯ àµģà´ŁàµĨ
à¦ ŀ
ĠÐ±Ñĭ Ñŀ
áĥĶáĥłáĥ ¡
ĠàªŃàª¾àª° àª¤
ĠÏĢÎµ ÏģÎ¹ÏĥÏĥÏĮÏĦÎµ
Ġà°Ĩ à°¯
ĠÂ» .
Ġà¹Ģà¸ ¥
æ ¶
ĠÐ»Ñİ Ð±
Ġà¦¥ à¦¾à¦ķ
Ġáĥ¬ áĥĲáĥłáĥĽ
Ĭà¸± à¹Īà¸Ļ
s Åĳ
ĠÐ· Ð¼
à«ĩàª ĸ
¡ à°¿
ģà¸ ©
ju mu
v y
à¦ ī
s ka
à¤¾à¤¨ à¤¾
ĠD as
Ġàª° à«Ģàª¤
Ġsh k
à¤ķ à¥ĭ
ĠC om
Ġà¤¸ à¤¬
Ð´Ð¸ Ð¼
à¤¿à¤ Ł
íĴ Ī
ÙĬ Ø§Øª
he lo
an ts
ĠÒ³Ð¸Ñģ Ð¾Ð±
Ñĳ ÑĢ
Ø§Ø± ÛĴ
la y
Ġk on
ĠÐ¼ ÐµÐº
Ġ) .
Ġì ½
æ §
ĠÛģÙĪ Ø¦ÛĴ
Ð¸Ð¼ Ð¸
Ġcom e
Ġk ell
ĠâĢ İ
Ġis ti
ĠÄĳ Ã³
Ð¾ Ñĺ
ãĥ Ģ
w on
ĠÏĦ ÎŃ
Ġëĵ ±
w ch
Î¯ Î¿
ÏĢÎ¬ ÏģÏĩ
Ġk áº¹
ĠØ£ ÙĪ
ti v
Ġi ru
f o
ĠÑģ Ð°
ĠÑĢ ÑĥÐ±
Ġp Ã¤Ã¤
í ģ
ĠÚ¯ Ø§
p u
ãĤ ±
g an
Ġ×ĳ ×¢
ä» ĺ
hr en
áĢ ĩ
à®ķà¯įà®ķ à¯ģ
àµģà´® àµįà´ª
áĥĺáĥĲáĥľ áĥĺ
Ġà¸ ĭà¸
à°¿à° ļ
éģ ĵ
Ġà¦ķ à§ĭ
Ġàª¤àª® à«ĩ
Ġà®ª à®°
ŀ àµįà´ļ
ĠáĢĨ áĢŃáĢ¯
áĢ ´
ĠáĢ Ĺ
Î³ Îµ
à¯ģà® ªà¯į
Ġà´¤ à´¨àµįà´¨
ĠÑģ ÑĥÐ¿
ÎµÎ¯ ÏĤ
à±Ģ à°²
áĥĿáĥĳ áĥ¡
äº Ķ
å¤ ĸ
à®° à¯ģà®®à¯į
Î´ ÎµÏĤ
à´° à´Ĥ
à¦¿à¦ķ à§ĩ
Ðº Ð°Ð¼
áĥĲáĥľ áĥĵ
àªĤàª ļ
Î¶ ÎµÎ¹
à°³ à±įà°²
ĠÐ² ÐµÑĢ
Ġà¸Ĺà¸ Ķà¸¥à¸Ńà¸ĩ
åĳ ĺ
Ð¾ÑĢ ÑĤ
Ġà¦ķ à¦¿à¦¨
Ġáĥ© áĥĶáĥĽ
à¹Īà¸ ¡à¸
Ġsz ere
Ð°ÑĢÑĭ ÑģÑĤ
à«ĩàª ľ
à±Ģ à°ª
ģà¸±à¸ ļ
Ûģ Ø±
Ġnh Ãł
Ġà¦¬à¦² à§ĩà¦¨
Ġan che
Ġà¤¦ à¤¿à¤¯à¤¾
l t
à«ģàª ¦
Ã«n d
à¥ģ à¤®
ĠÕ ¿
æĥ ħ
Ð¼ Ð¾
à¥ĭ à¤Ł
ìĿ¼ 2
Ġha e
ĠdÃ© c
Ġna v
Ð¼Ð¾ÒĽ Ð´Ð°
ĠÐ´Ðµ Ð±
Ġs Äħ
ÉĻ lÉĻrin
c ul
Ð¾Ð½ Ð°
ĠÐ» Ð¸
Ġâ Ĩ
ÙĪØ± ÛĮ
Ġk Ã©p
Ð¾Ð» Ð½
Ġo p
tz en
Ġ ÉĻm
Ġr is
Ġãĥ ķ
£Â ¬
Ġm Ãł
Ġi ta
Ġy m
ë° Ķ
Ġg an
Ġgy f
ÏĦÎµ Î¯
á»į wá»į
le la
nos Å¥
É Ķ
Ø¨ Ø©
la ÅŁ
ÐµÐ¼ Ñĥ
×ľ ×Ķ
ìĺ ģ
Ġti j
Ã¡ j
ãģł ãģĳ
ĠK o
ĠÑĢ Ð¾Ð±
Ġp ue
Ùħ Ûģ
áĢŃáĢ¯ áĢĢáĢº
à®¿à®ķ à¯į
à´ķàµįà´ ¤
áĥĺáĥ §
Ġà¸ Ĥ
Ġà° §
å ĸ
Ġà¦ı à¦¸
à«Ģàª ²
Ġà®ħà®¤ à®¿à®ķ
à´¨àµįà´ ±
ĠáĢĲ áĢħáĢ¹áĢ
áģ ½
áĢ¸ áĢĢáĢŃáĢ¯
ÏĦ Ïİ
à®¤ à¯Ī
Ġà´ħ à´Ł
Ð½Ñĸ ÐºÐ°
ÏĦÎ¹Îº ÏİÎ½
à°¿à° ľ
áĥķ áĥ¡
éķ ¿
ä¸ İ
Ġà®ļà¯Ĭ à®²à¯įà®²
ÏĦ Ïģ
à´ ¥
Ġà¦ķà¦° à§ĩà¦¨
Ð½ÑĸÐº Ð°Ñŀ
áĥĿáĥł áĥĺ
Ġàªª àªĽà«Ģ
ÏĦÎ¹Îº Î¿Ïį
à° «
ĠÐ³ Ðĥ
Ġà¸ Ľ
Ġæ ŀ
ÑĪ Ðµ
Ġà¦¸à¦® à§Ł
áĥĺáĥ ŀ
à¸Ļà¸µ à¹īà¸
u om
ÑģÑĤ ÑĥÐ¿
ĠàªĨ àªľ
Ġà°ª à°¾à°°
Ĺà¸ ³
l Äĥ
ÙĪØ± Ø¯
Ġà¦ªà§įà¦° à¦ķ
Ġam b
åľ¨çº¿ è§Ĥçľĭ
ĠMo dimo
àª¾àª¨ à«ĭ
Ġm an
Ġà¤ľ à¤¿à¤¸
Ġr Ã©sz
à¤Ĺ à¥ĩ
ĠÐ¶ Ð°Ð¼
à¤¿ à¤Ĥ
ĠìĬ ¤
Ġvo i
Ø¯ Ûģ
Ã² ng
Ñģ Ð¸Ð·
ĠÐłÐµÑģÐ¿ÑĥÐ±Ð»Ð¸Ðº Ð°ÑģÐ¸
Ġ ãģ®
Ã³ ÅĤ
Ä± lÄ±
ĠÑģ Ð°ÑĢ
ĠÐĴ Ñĭ
Ġâ Ķ
Äĵ s
g ne
ÐµÐ½ Ñĭ
Ġse o
Ġï¼ Ł
ĠÙĪ Ø£
Ġt ut
æĦ Ł
c ov
ĠN Ã«
ĠN I
wy d
Ġâ ĸ
Î² Î¿Î»
ÏĩÎµ Î¯Î±
Î¼ÎŃ Î½Î±
Ġir an
os e
Ġja u
Ġy e
v Ã©
Ġc Å©ng
Ðº Ð¾Ð¹
Ġf um
Ġìŀ Īëĭ¤
ĠW y
ĠØ§ ÛĮØ±
ĠãĤ ·
Ġy Ã©
ĠA u
×Ļ ×ķ
ĠÃ§ Ä±x
±áĢĲáĢ¬ áĢ·
Ġà®¤ à®©
à´°àµįâĢį à´ķàµįà´ķ
ĠáĥĽ áĥĶ
à¹īà¸Ńà¸ ¡à¸
à°°à±įà° µ
æŃ £
Ġà¦Ĩ à¦¬
Ġà«§ à«
à®¾à®¤ à¯ģ
à´¤ àµįà´°
áĢ±áĢ Ĩ
ĠáĢĻ áĢŃ
áĢĽ áĢŃ
Î¹Î½ ÏīÎ½
à®¾à®± à¯įà®±
à´¤àµįà´¤ à´¿à´¯
Ð°Ñģ ÑĨÑĮ
Î¹Î¿ ÏĤ
à°· à±įà°Ł
ĠáĥĽáĥĲáĥĴ áĥłáĥĲáĥĽ
å ¢
è® ¯
Ġà® ¸
ĠÎ£ Ïħ
w s
Ġà¦° à¦¾à¦ľ
Ðº Ñģ
Ġáĥ¡ áĥĲ
Ġàª¸àª® àª¯
ÏĦ ÏģÎ±
à° ¥
ÑĤ Ð²Ð°
à¸Ńà¸ ļ
ä¿ Ŀ
Ðº ÑĢ
Ġà¦¦ à§ģ
áĥłáĥ £áĥļ
ĩà¸´ à¸Ļ
Ø§ Ø´Øª
ĠÐº ÑĢÐ°
Ġ( '
à°Ł à°¿
Ġà¸ Ķà¸
Ùħ ÙĬ
Å« t
à§ĩà¦Ľ à¦¿à¦²
Ġin ter
Ġà¤°à¤¹ à¤¾
ĠktÃ³ re
Ġàª¦ à«įàªµ
Ã¡ la
à¥įà¤ §
Ġk wa
Ġà¤ĩ à¤¨
ĠÑı Ð½
Ġà¤¸ à¥įà¤µ
ëĲ ĺ
ÑģÐº Ð¸
Ã µ
ÉĻ x
Ñĩ Ð¸Ð»Ð°ÑĢ
ĠÐ² Ð¸Ð»
Ã¡ va
Ġein en
ÃŃt Ã©s
Ð¼ Ð°Ð½
Ð¿ÑĢ Ð°Ð²
Ġì Ļ
bi le
Ġfa it
ĠÐļ Ð°Ðº
ka an
Ġl á»
ä½ ¿
Ġsh qip
c ar
tu ar
ÙĤ ÛĮ
Ġm ÃŃ
Ïĥ ÏĦÎ¬
ĠìĨ Į
Ġwe di
ĠÎ¼Îµ ÏĦÎ¬
Ġï¿½ï¿½ï¿½ï¿½ ï¿½
Ġi wa
Ùħ Ø±
Ðł Âµ
Ġni tori
Ð½ÑĸÑģÑĤ ÑĮ
ĠÃ¶ s
ĠÐ±ÑĥÐ´ ÐµÑĤ
ha la
ë Ħ
ĠâĢİ #
an Ä±n
çĻ º
ĠJ esu
Äĥ s
Ġt ym
Ġc ou
Ġáģ į
à®µ à¯ģ
àµģà´ķ à´³àµįâĢį
Ġáĥŀ áĥĺáĥłáĥ
ģà¸ ¥
Ġà°¤ à±Ģà°¸
æķ °
à¦¿à¦ ·
Ġàª² àª¾àªĹ
Ġà®ī à®£
Ġà´ķ à´¾à´°
áĤı áĢ¯áĢŃáĢĦáĢ¹áĢ
áĢ¬áĢ¸ áĢĢáĢŃáĢ¯
áĢŃáĢ¯áĢ¸áĢ Ľ
ĠÎĳ Î½Î±
à®¿à®¯ à¯ģà®®à¯į
à´± àµĨ
ĠÐ¿ Ð°Ð¼
Ïĩ Î¿
Ġà°ī à°Ĥà°¡
Ġáĥł áĥĲ
çĲ ĥ
å¼ ı
à®¾à®¯ à¯į
ĠÏĢ ÏģÏī
Ġà´ ķàµįà´ķ
Ġà§ «
ÐºÑĸ Ñħ
áĥĶáĥ ®
àª¿ àª®
ÎĳÎ ¡
à°ªà±įà°ª à±ģà°¡à±ģ
ĠÐ¼ Ð°Ð»
à¹Ģ à¸£à¸µà¸
Ġ çļĦ
ĠÐ½Ð° Ñĩ
à§ĩà¦² à¦¾
ĠáĥĲáĥĵ áĥĲáĥĽ
Ĺà¸ ³à¸
Ġti ka
ĠÑĩ Ð°Ð»Ð°Ð²
à«ĩàªŁ àª²
à°¿à°¤ à±ĩ
ļà¸Ńà¸ ¥à¸
u je
ier t
à§įà¦¯ à¦¾à¦²
mi ento
à¤¾à¤ ģ
to re
à«ģ àª¨
te ment
Ġà¤ķà¥ģà¤ Ľ
Ġa mi
¼ åĲĪ
ĠÐ¼ Ð¾Ð´
Ġà¤µ à¥įà¤¯
Ġìľ ł
×¤ ×¨
er a
áº «
ĠÐº Ð¸ÑĪ
Ð¼ Ð¸Ð½
Ġc il
Õ¸ÖĤÕ©Õµ Õ¸ÖĤÕ¶
lÉĻ ÅŁ
ÐµÐ· Ð¸Ð´
Ð» ÐµÐº
ìĥ Ŀ
r ie
ÙĬ Øª
ĠÐ¸ Ñħ
vÃ¤ t
ch a
Ġjoa lo
Ġy o
Ð° ÑĶ
Ù °
Ġf aire
Ġala ye
Ġ) ,
ê° ķ
Ïĩ Î¹
y l
ĠÏĢ ÏģÎŃÏĢÎµÎ¹
Ġa a
ĠØ¯ ÛĮØ§
ĠÙħ Ø´
Ġa gbegbe
unÈĽ uri
i le
Ð¾Ð² Ð¾ÑĢ
ho a
íĨ ¡
ti co
Ġn Ã©
Ġv end
Ġb á»į
Ġdz ie
Ġti l
Ġa d
ĠáĢ±áĢ »áĢķáĢ¬
à® ŀà¯įà®ļ
Ġà´ķ àµģà´±
ĠáĥĴáĥĲáĥĽ áĥĿáĥ
Ġà¹Ģà¸ §à¹ĩà¸
Ġà°ħ à°§
Ġ à¥
Ġà¦¬à¦¿à¦¶ à§įà¦¬
Ġàª Ŀ
à¯ģà®ķà¯įà®ķ à¯ģà®®à¯į
à´¨àµįà´ §
áĢĲ áĢŃ
áĢ¬ áĢ¡
ľ áĢ¬
ÏĦÎ¿ Î½
Ġà®µà®¾à® ´
Ġà´ļàµĨà´¯ àµįà´¤
ĠÐ· Ð´
ĠÎĵ Î¹Î±
à±įà° ·
áĥł áĥĶ
Ġçİ¯äºļ ag
åĪĨ éĴŁ
Ġà®ķ à®Łà¯įà®Ł
ĠÎķ Ïħ
Ġà´® à´¨
à¦¤ à§įà¦¤
Ð°Ð½ ÑĮ
áĥľ áĥĶáĥľ
ĠàªĨàªµ à«ĩ
Î»Î¿ Î¹
à°¿à° Ĺà°¾
ĠÐ¿ Ð°ÑĤ
à¹īà¸² à¸Ļ
èµ Ħ
Ð¾ÑģÑĤ ÑĮ
Ġà¦ķ à¦¥
áĥĿáĥĵ áĥĲ
ķ à¸£à¸
nos ti
Ð¿ Ð°Ð´
Ġàªľ àª¾àª£
à°¯ à°Ĥ
Ħà¸§à¸²à¸ ¡
Ġkan n
Ùħ ÙĪ
Ġà§ ¦
Ġ×ĳ ×ŀ×
Ġà¤¯ à¤¾
Ġon t
· à«įàªŁ
Ġh Ãłng
Ġà¤¸ à¥įà¤¥
ãģª ãģı
Ġà¤¦ à¥ĩà¤ĸ
Ð»Ð°ÑĢÐ¸ Ð³Ð°
à· Ģ
ìĦ ł
ĠØ¯ Ø³Øª
ÅĤ e
g ra
Ò³ ÑĥÑĢ
Ð¾Ð» Ð¸
Õ¸ ÖĢ
Ä± q
ĠØ¹ ÙĦÙĬ
Ð»Ð¸ Ð¹
ĠÐ¾ÑĢ Ð³Ð°Ð½
ìĭ ¤
Ġa b
tu k
é ļ
Ġh ely
os a
p h
lo ng
ĠØ³ ÙĪ
Ðµ Ñī
ĠvÃł o
Ġá¹£i á¹£áº¹
5 0
ìĿ´ ëĭ¤
Ġ2 9
ĠÎ± ÎºÏĮ
ĠÏĩ Ïī
T I
nÃ© ho
ma y
Ġá¹£ ugbá»įn
in te
Ġmo Å¼
ĠkÃ« tÃ«
Ġmo ng
Ġë ¹Ħ
ÑĥÑİ Ñī
ĠØ¨ Ø¹Ø¯
g l
il i
×ŀ ×Ķ
Ġ ãģ¾
Ø§Ùħ Ùĩ
áĤıáĢŃáĢ¯áĢĦáĢ¹áĢ ĦáĢ¶
Ġà®Ĩ à®ķ
àµģà´Ł àµįà´Ł
ĠáĥĽ áĥĺ
Ġ à¸£
Ġà°ªà±įà°° à°Ń
åĪ ¶
Ġà§ ª
Ġàª°à«Ģàª¤ à«ĩ
Ġà®¨ à®¾à®©à¯į
Ġà´ £
áĢŃáĢ³ áĤķ
áĢ Ĺ
áĢĺ áĢ°áĢ¸
Î¼ Î¼Î±
à®¿à®² à¯ģà®®à¯į
à´¤ à´¿
ÑįÐ½ Ð½Ðµ
ĠÏĢÎ¿Î» Î¹
à°¾à° ¶
Ġáĥ¨áĥĶáĥĽ áĥĵáĥĶáĥĴ
åħ ĭ
ĠãĢ ĭ
à¯ģà®³à¯įà®³ à®¤à¯ģ
Î¹Î± ÏĤ
à´¨ àµĨ
Ġà¦ı à¦®
ĠÐ±Ñĥ Ð´Ð·Ðµ
áĥĶáĥłáĥ Ĺ
Ġàª° à«Ĥ
ĠÎł Îµ
à°¿à°¯ à±ģ
ĠÑĥ Ñģ
Ġà¹Ģà¸Ķà¸´à¸¡à¸ŀà¸±à¸Ļà¸ Łà¸£à¸µ
æ ģ
ĠÑĩ Ð°ÑģÑĤ
Ġà¦ķ à¦¾à¦ľ
ĠáĥĴáĥĲáĥĽ áĥĿ
ģà¸ ¡à¸
ĠB ak
Ð½Ð¾ Ñŀ
à«ģàªľ àª°àª¾àª¤
à±ĭ à°¤
Ġ à¸£à¸
Å£ ii
de o
à¦¾à¦ £
ts Ã©g
à¤°à¥įà¤ µ
Ġkan Ã«
Ġàªķàª° àªµàª¾àª®àª¾àªĤ
ĠpÅĻ ÃŃ
à¥įà¤ ¡
Ġz um
à¤¢ à¤¼
Ð± Ð°ÑĢ
à¥ģ à¤ª
ë© °
Ġa iz
Ø³ ÙĬ
ĠR om
Ð¸ÑĢ Ð¸
ĠÑħ Ð¸Ð·
Õ¸Õ ¾
Ã¼ z
Ø´ ÛĮ
ĠÐ¾ Ð¼
is tÃ¤
íķ ©
ta ko
et t
ent es
ĠØ¨ ÙĦ
Ġha holo
ãĤ º
ĠÐŀ Ð±
m et
Ġk g
Ð¾ÑĤ Ð¾Ð²
Ġá»į dun
Îº Î¿Î»
Ġì ¢
ÏĮ ÏĦÎ·
! !
ĠÏĥ Îº
ĠI s
×ķ× Ľ
d ur
w an
ĠPor no
Ġs ka
åĨ ħ
ĠØ¨ Úĳ
ê± °
ÐµÑģ ÑĮ
n Ãº
ÙĨ Øª
ĠT I
ĠÄĳá» ĭ
ia mo
Ġcom me
ģ áĢ¼
à¯įà® ¨
Ġà´¸ àµįà´¥
ĠáĥĽ áĥ¡
Ī à¸£à¸´à¸
ĸ à±įà°¯
å®ĺæĸ¹ ç½ĳç«Ļ
à¦¿à¦ ļ
Ġàª¥ àª¾àª¯
à®¤à¯įà®¤ à®¿à®©à¯į
à´¸ àµįà´±àµįà´±
Ĩ áĢŃáĢ¯
áĢĬ áĢ·áĢº
áĢ±áģ¾áĢĢ áĢ¬áĢĦáĢ¹áĢ¸
ĠÎĺ Îµ
à®° à¯Ī
à´ ĺ
ÑĨÑĭ Ð¹
ĠÎ¿ Î¹ÎºÎ¿
à±įà° ¬
áĥ Ń
Ġà¤¤ à¥įà¤¯
å» º
Ġà®® à®ķà¯įà®ķ
ĠÎķ Î»Î»Î¬
à´¯ à´Ĥ
Ġà¦¨ à¦¾à¦®
Ð´Ð· Ñĸ
áĥĺáĥ¨ áĥľ
Ġàª¹ à«ĭ
Ïĥ Ïĩ
à°Ĥà° §
Ð¶ Ð¾
à¸Ļà¸ ´à¸
åĪ ©
ĠA r
à¦¾à¦° à¦¾
áĥłáĥ ĵ
±à¸ įà¸
ĠÕ Ģ
ĠÑı Ðµ
àªķ à«įàª¤
à±ģà°¤ à±ģà°¨à±įà°¨
à¹Īà¸ĩà¹Ģà¸ ĩà¸´à¸Ļà¸
c ut
uri le
à§ģà¦° à§ģ
ĠØ¯Ø§ÙĨ ÙĦÙĪØ¯
Ġà¤¹à¥ģà¤ ı
ĠØ® ÙĪ
ÐµÐ½ Ð½Ð¾
à«Ģ àª®
Ġà¤ķ à¥Ī
Ã ģ
è į
ÑĥÒĽ ÑĥÒĽ
à¥ģ à¤¤
´ë Ŀ¼
to t
ľ Ðµ
gg i
Ð» Ð¾Ð²
ĠÑŀ ÒĽ
Ġya x
c to
t ÄĽ
ĠÐºÐ°ÑĢ Ð´Ð°
ĠÐ² ÑĬ
ì¶ľìŀ¥ ë§ĪìĤ¬ì§Ģ
Ġd y
re i
Ñİ Ð²
Ġb ÄĻ
Ø± ÛĮÚ©
Ġs vo
ĠØ§ÙĦØ ·
j s
ĠÐŀ ÑĤ
ÑĤ Ð¾Ð±Ñĭ
ĠP a
Ġ2 1
¯ ¼
ĠÎºÎ¬ Î¸Îµ
Ġ2 8
ĠÏĥ ÏĩÎµ
f ani
ĠãĤ «
Ġ Õ¡Õ
Ġi á¹£e
ĠÃ¶l k
Ã© ben
ĠØ§ÙĨ Ûģ
Ġper s
Ġëı Ļ
³ Û
Ø¯ ÛĮØ¯
ĠÐ°Ð± Ð¾
ĠK áº¹
cy j
ĠA l
×ľ ×Ĳ
Ļ áĤĪ
à¯Ĩ à®¯
à´® à´¾à´£àµį
áĥķ áĥĲáĥľ
Ġ à¸Ń
Ġà°Ń à°¾à°°
ç³ »
à¦¾à¦² à§ĩ
Ġàªķ àª¾àª®
à®Ł à¯ģ
àµĭ à´Łàµįà´Ł
áĢĦáĢº áĢ·
áĢĬáĢº áĢ¸
ĠáĢ»áĢĻ áĢĶáĢ¹áĢĻ
Î¾ Îµ
Ġà®ħ à®´
àµĨà´¨àµįà´¨ àµģà´Ĥ
Ð°ÑĤ Ñį
ĠÎµ Î¹
à±ĩà° ¤
áĥĺáĥ «
app ä¸ĭè½½
è¡ ¨
us ta
Ġ ÏĪ
Ġà´ ¨àµįà´¨
à¦Ļà§įà¦Ĺ à§ĩ
Ð¾Ð´Ð· Ðµ
áĥłáĥ £áĥ
àª¤ à«įàª¤
Î¸ Î½
à±ģà°ķ à±ģà°Ĥà°Ł
ÑĪÑĩ Ñį
ļà¸²à¸Ĺ à¹Ħà¸Ĺà¸¢
çĽ ´
Ġà®ª à¯ĩ
à¦§ à¦¾à¦¨
áĥłáĥ Ĵ
Ķà¸ ¢
ĠÃİ n
ĠÂ» ,
ĠÙĨ ÙĪ
Ġà°®à°° à°¿à°¯à±ģ
Ġà¸ª à¹Īà¸ĩà¹Ģà¸ĩà¸´à¸Ļà¸
ka l
ĠÑģÐ² Ð¾
Ġà¦¤ à¦¾à¦¦à§ĩà¦°
ĠQ u
Ġà¤ļ à¤¾à¤¹
Ġàª¶àªķ à«ĩ
ãĥ ¯
Ø¬ Ûģ
ç² ¾
ĠD a
é¦ Ļ
Ð³ Ð¾Ò³
ç ĥ
ìĭ Ŀ
szy st
Ùĥ ÙĦ
ĠÐº Ð¾
ĠÐ½Ð° ÑĦ
ĠÐ¼Ð°ÑĬ Ð»ÑĥÐ¼
Ġse bel
Ġlo ke
Ġb iz
ĠÐ¼Ñĥ Ð¼
Ð» ÐµÐ½Ð¸Ðµ
Ġìĭ ł
ĠãĤ ³
Äį nÃŃ
Ġnh iá»ģu
g ji
Ġm Ã´
on ne
Ġvo or
Ġel s
Ä«g i
×ł ×Ķ
Ġn la
Ġc yf
ê° ľ
6 4
ĠÎµÏĢ Î¹Ïĥ
ĠÏĢ Î»Î·
Ġáº¹ ya
m bi
Ġno ch
Ġ. âĢĿ
ãģ§ãģĻ ãģĮ
Ġson ra
Ġp om
Ð¼ ÐµÑĢ
ëį °
Ú© Øª
Ġpr Ã©
Ġna ng
Ġni kan
es ta
Ġàªı àªŁàª²
ãĤĤ ãģ®
ĠáĢ Ĥ
à®¿à®¯ à¯Ī
à´¾à´ ·
áĥĶáĥĹ áĥĺáĥ¡
Īà¸ °
à±įà°¯ à°Ĥ
éĹ ´
Ġà¦ķ à¦¾à¦
ir Ã«
à¯ģà®ķ à®¿à®±
àµĬ à´°
áĢ¯áĢ¶ áĢ¸áĢ
áĢ¬áĢ¸áĢ ħ
áĢ±áĢ ħ
Ïĩ Î±Î½
Ġà®¤ à®¾à®©à¯į
à´¦àµįà´ ¦
ÐºÑĸ Ñı
Ïģ Îº
Ġà°ķ à°¾à°¨
ĠáĥĽ áĥĿáĥ¡
è® ¾
Ġè¿ Ļ
ĠÐ´ Ð²
Î»Î¿ Ïį
Ġà´¨ àµĩ
Ġà¦¬à¦¿à¦ Ń
Ñı Ð³
áĥĺáĥ ¦
ĠD er
Î §
à±ģà°ķà±ĭ à°µ
Ñĥ Ð»Ñı
±à¸ ģ
ç ©
à®¿à® ³
à¦¸ à¦²
Ġáĥĵ áĥĺáĥĵ
¥à¸ĩà¸Ĺà¸ °à¹Ģà¸ļ
ĠØªÚ¾ ÛĴ
Ð°Ð²Ð°Ð½ Ð½Ñı
hat Ã³
à°¾à°Ĥà° ¤
Ĭ à¹Īà¸§à¸
Ġz e
Ġàª¦àª¿àªµ àª¸
à¦° à§ĩà¦°
Ġm Äģ
à¤¿à¤ ĸ
Õ¸Õ ²
Õ¥Õ ¿
ey d
à¤ķ à¤¿à¤¨
Ġo ch
Ġà¤¤ à¤°
Ñģ Ð¾Ð½
é«ĺ æ¸ħ
Ġìĺ ģ
Ùĥ Ø±
an te
¹ Û
ĠÑŀÑĤ ÐºÐ°Ð·
ÑĢ Ð¸Ñģ
ĠØ´ Ø±
Ġli k
ĠtÅ¡ a
ÑĥÐ½ Ð´
Ġh la
Ġë§ Į
Ġàªµàª§ à«ģ
Ġmin t
Ġd re
Ġ×Ļ ×©
owe j
ĠF ran
ĠÑ ĺ
ĠÐ³ Ð¾Ð´Ð°
st Ã¤
ĠC ha
Ġláº¹ hin
Ġ00 0
Ġê¹ Ģ
1 8
ia u
Ġb r
Ġo lo
ĠÙĪ Ø²
Ġtr Ãªn
ĠO á¹£u
ĠÙħ Øª
r ÉĻ
ca tion
ÑģÑĮÐº Ð¾ÑĹ
Ġë ħ
Ð°Ð¹ Ð½
ĠA us
Ġng o
u ba
ĠãģĿ ãģ®
on d
Ñĥ ÐµÑĤ
±áĢĲáĢ¬ áĢ¹áĢ
à¯ĭ à®®à¯į
à´¿à´± àµįà´±
áĥĺáĥĿ áĥľ
¢ à¸Ļà¸
à±ģà°ķ à±ģà°¨à±įà°¨
å¼Ģ æĪ·
à¦¤ à§įà¦¯
ju ms
à¯ģà®ķ à®¿à®±à®¤à¯ģ
à´ ŀàµįà´ļ
áĢ¼ áĢĢáĢ¹áĢ
áĢ¬ áĢĦáĢ¹áĢ·
áĢŀ áĢŃ
ÏĦÎ® ÏĤ
Ġb ar
Ġà´ ·
Ð» ÐµÐ´
ÏĨ Îµ
Ġà°¨ à±ĩ
áĥ£áĥ ®
é ĥ½
åħ¬ åı¸
Ġàª° àª¾àªĸ
Î» ÎµÎ¯
à´¤àµįà´¤ à´¿àµ½
Ġà¦¸ à¦¹
ĠÐ· ÑĮ
áĥĿáĥķ áĥľ
Ġh y
ÏģÎ± Îº
Ġà°Ĺ à±įà°°
ÑĭÐ¼ Ñĸ
ªà¸²à¸ ¡à¸²à¸£à¸
æı Ĳ
Ġ×Ľ ×ľ
à¦¾à¦° à§ĩà¦°
áĥĿáĥ ŀ
Ġà¸ ŀà¸
Ð¾ÑģÑĤ Ñĸ
ĠÐ³ Ð°Ð´
à®² à®¾à®®à¯į
à±įà° £
«à¸ ¥
ra u
c je
à§Ģ à¦¨
Ġv Ã¡l
à¤¿à¤ ª
Ġis ÉĻ
ĠÕ ¤
ari x
Ġ à¬
Ø® Ø±
Ġà¤ħà¤§ à¤¿à¤ķ
ÑĪ Ð°Ð²
Ġà¤ľ à¤¬
ì ħ
ĠP re
ĠSh qip
sh me
ĠÐ´ Ð¸
ĠÑĪ ÑĥÐ´
Ġz na
Ġk go
Ġse be
Ġ Ð°Ò³
t r
Ġì¹´ íĨ¡
Ġàªķàª° à«ĩ
ĠØ¬ Ø§ÙĨ
Ð½Ñĸ Ð¹
ier en
Ð¾Ð²Ð°Ð½ Ð¸Ñı
Ãª me
Ġà®ķà¯Ĥ à®±
as ta
ãĥ Ŀ
y en
Ġ? ??
3 0
Ġë ¯¸
ĠÎ¾Îµ Î½Î¿Î´Î¿
Ġï¿½ï¿½ ï¿½
wy r
Ġi ro
Ġu 04
m ÄĽ
f un
Ġz Ã¡
di m
at u
ÙĨØ¯ Ùĩ
ê¹ Į
Ð² Ð»Ñı
Ġ×Ķ ×¨
Ð¸ÑĤ ÐµÐ»
Ġa jo
ĠÅ ł
ĠÃ®ntÃ¢l ni
ĠP our
ĠáĢ¡ áĢ²
Ġl áº¡i
à´µ à´°
áĥĿáĥ ¨áĥĺ
Ġà¸ ļ
à°Ĥà°¤ à±įà°°
Ġé ĩ
à¦°à§įà¦ ¥
Ġc re
Ø§Ø± Ø©
Ġà´ªà´± à´¯
áģ ĭ
áĢ±áĢŀ áĢ¬
áĢ¯ áĢĽ
Î¼ Î¿Ïħ
jÄħ cy
Ġà´ªàµįà´° à´µ
Ð½Ñĭ Ð¼Ñĸ
Îµ Îº
à°³ à±įà°³
áĥĲ áĥĲ
é Ķ
ç¨ ĭ
Ġv Ã©g
Î³ ÏģÎ¬
à´¿à´¤ àµįà´°
à§ģà¦ ĩ
ÑĥÐ± Ð»Ñĸ
ĠáĥĵáĥĲáĥ ĺ
Ġà® Ĭ
Î½Î· ÏĤ
à°¾à°° à°¿
Ð ¥
Ħà¸£à¸ ·à¹Īà¸Ńà¸ĩà¸
æ° ´
ĠØ ¶
Ġà¦ķ à¦¿à¦Ľ
áĥĺáĥĹ áĥ®
à¸² à¹Ģà¸
Ġàª¸à«ģàª §à«Ģ
ĠÑĪ Ðº
Ã¼ ck
à°® à±ĩ
Ġà¸ Ĺà¸µà¹Īà¸
ch er
Ð°ÑĨ Ñĸ
à§įà¦ Ľ
Ġk Ã¼l
Ġà¤ľ à¤¾
ĠÕ º
Õ¸ ÖĢÕ
Õ ¤
Ġà¤ª à¥Ģ
Ġa ni
Ġà¤²à¥ĩ à¤ķà¤¿à¤¨
Ð°Ð» Ð°Ð±
à¥ĭ à¤²
Ġìļ °
Ġà® ¹
t ta
ĠC on
ĠÐ±Ñŀ Ð»Ð¸Ð±
ĠÑĤ Ð°Ð´
Ġr Ã©s
Ġt lha
ho d
ĠÐ¼ÑĥÐ¼ ÐºÐ¸Ð½
ĠÛ ²
Ġâ ĩ
Ú© ÙĨ
Ä¼ a
Ġa f
ÑģÑĮÐº Ð¾Ð³Ð¾
ĠÐ¿ÑĢÐ¾ Ð¸Ð·
à«ģ àª®
ãĤĮ ãģ¦
e lo
t k
Ġth i
Ġwá»įn yi
ĠÎ¼ Î·
ĠìŀĪ ëĬĶ
Ġma e
Î¿Ïį Î¼Îµ
ÏĥÎ¹ Î¼Î¿
or an
ĠÐ³ Ð¾
Ġs us
Ġet á»įn
Ð± ÑĢ
Õ¡Õ ®
Ġ×Ķ× ŀ
Ġàª® àª¾àª°
ë¶ Ħ
l Ã¡
ĠØ¯ ÙĨ
Ð¾Ñģ ÑĮ
Ġt in
Ġà®İà®¤ à®¿à®°
g er
p Ã«r
ĠáĢ ·
Ðł Ñĳ
à´¾à´± àµįà´±
áĥĶáĥĹ áĥĺ
Ĺà¸²à¸ ĩà¸
à°¿à°Ĥà°Ĺ à±į
åĪĨ å¿«3
à¦ª à§ģà¦°
Ð½ ÑĮ
ty cz
à´¿à´ķ à´³àµįâĢį
áĢ³ áĢŃ
áĢĲ áĢ±áĢ¬áĢº
áĢ±áĢ ķáĢ«
Î ĺ
tso e
àµĤ à´Łàµįà´Ł
ĠÐ°ÑĤ ÑĢÑĭÐ¼
Î¼Î¬ ÏĦÏīÎ½
à°¸ à°Ĥ
ĠáĥĹáĥ¥ áĥķáĥĶáĥľ
æĬ ¥
Ĭ é¾Ļ
Ġj wa
ÎŁÎ Ľ
àµģà´ ªàµįà´ª
à§ĭ à¦ķ
Ð°ÑĤ ÑĥÑĢ
áĥĶáĥļ áĥ¡
ÙĨ ÙĬ
ĠÎ» ÏĮ
à°°à±įà° ¶
ĠÐ³ ÑĢÐ°Ð¼
à¸£à¸²à¸ °à¸
å¤ §åıĳ
Ġv al
Ġà¦®à¦§à§įà¦¯ à§ĩ
ĠáĥłáĥĿáĥĴ áĥĿáĥłáĥª
à¹Īà¸² à¸Ļà¸
àª¿àª ¶
Ð»Ð°Ñģ Ñı
ãģ ¹
à°°à°¿à° Ĺ
Ġà¸ ¥
Ú© Ø±
Ġu Å¾
à§Ģ à¦¬
h ar
à¤°à¥įà¤ ¤
as Ä±
Ġda ha
Ġg ÉĻl
ç» ¼åĲĪ
Ġtr Ã¨s
Ġà¤¯ à¥ĩ
ĠÑĤ ÑĥÑĪ
Ġà¤¥ à¥ĩ
íĸ Īëĭ¤
Ġc as
à®¤ à®¾à®ķ
m m
ĠÑĥ Ð½
ĠÑģ Ð¾Ò³
Ġb ez
ĠÐ¾ Ðº
Ð½ Ð¾Ð¼Ñĥ
ĠÐ¾ ÑĪÐ¸ÑĢ
Ø° Ùĩ
ìĹ °
ĠÚ©Ø± ØªÛĴ
áº »
à«įàª¯ àª¾àªĤ
å¯ ¾
ĠZ a
Ġac c
ĠAn unÈĽuri
p Äĥ
ĠKos ov
Ã«s e
Ġni lo
3 4
ìĿ Į
ĠÎ¼ÏĮ Î½Î¿
Ġ ~
ÏĥÎºÎµ Ïħ
va h
ĠV i
Ã± a
á¹£ á»į
Ġw iÄĻ
di b
er t
åº Ĺ
ĠìĦ ł
ĠÐ± Ð¾Ð»
Ġ×ŀ× Ĳ
Ġm Ã©s
Ġpu pá»į
Ġàª¸ à«įàªŁ
Ñĥ ÑĤÑĮ
Ġãģ Ĥ
ģ áĢ¶
ĠmyÃ¶ s
à´¨àµįà´¨ àµģ
Ġáĥĵ áĥĲáĥķ
§à¸ ±à¸Ļà¸
à°ķà±įà°ķ à°¡
ä½ į
Ġà¦Ĩà¦® à¦¿
Å¥ a
ĠÑī Ðµ
àµĩà´ ¹
áĢ½ áĢ²
áĢ± áĢ¸
Ķ áĢ²áĤĶ
Î» Ïī
Ġein er
àµĢ à´°
Ð°Ð» Ð°ÑģÑı
Î´ Î¹Î¬
Ġà°ª à°°
áĥĲáĥłáĥ ¡
ç® ¡
å· ŀ
ĠtÃ¶ bb
ÏĨ ÎŃ
à´¾à´ ´
Ġà¦¬ à¦Ľ
ĠÐ· Ð°Ñħ
áĥĺáĥ¡ áĥĲ
Ġc ar
Î· Î³
à±ģà° ¸
Ð°ÑĢ Ð¼
ªà¸ ³à¸«
åı ·
à®¾à®® à®²à¯į
à¦ª à§įà¦°
áĥķ áĥł
¥à¸ĩà¸Ĺà¸°à¹Ģà¸ļ à¸µà¸¢à¸Ļà¸
Ø´ Ø±
ĠÐĲ Ð»Ðµ
áº· t
Ġà°ī à°Ĥà°Ł
à¸Ńà¸ µà¸
h w
à®¾à® ľ
à¦Ĺ à§įà¦°
v ie
æĶ ¾
ÉĻn in
ma t
ĠÕ £
à¥Į à¤°
ĠÚ©ÙĪ Ø¦ÛĮ
à¤¾à¤ ¶
ĠÐ´ Ð¾ÑĢ
Ġà¤¨ à¤¿
êµ Ĳ
Ġà®ª à®£
àª°à«įàª µ
us e
ÐĲ Ðł
Ð¸ÑĪ Ð³Ð°
er o
Ñĥ ÑīÐµ
ĠÚ¯ Ø±
ÑĥÐ² ÑĩÐ¸
ĠÑ ľÐµ
Ġê ´Ģ
à¯ģà® ©
ĠØ§ÙĦÙĦ Ùĩ
E S
ĠÙĥ ÙĦ
Ã± os
Ġs es
Ã¡l is
te ik
Ġka ti
ar z
Ġ201 8
ĠÏħ ÏĢÎ¬ÏģÏĩ
í ĽĦ
ĠA D
2 4
ĠÏĢ ÏīÏĤ
Ġan fani
Ð½ Ð¸ÑĤÐµ
áº¥ p
Ġo mi
v ÃŃ
d ar
Ð°ÑĤÑĮ ÑģÑı
Ġàª¦à«įàªµ àª¾àª°àª¾
ë² ķ
Ġ×Ķ× ĳ
i den
å¾ Į
g áº¹
ĠÙĩ Ø°Ø§
Ġb Ã«
ĠkÃ¶ n
ĠáĢ¡ áĢĽ
ÅĨ em
à´¦àµįà´ §
áĥķáĥĶáĥ §
ģà¸ ´à¸
Ġà° ·
è Ĭ
à¦¿à§Ł à¦¾
ov Ã¡
ri m
à´¾à´Ł àµįà´Ł
Ġáģ ¿
áĢĶáĢ¹ áĤĶ
áĢ¬ áĢĻ
ĠÎ½ Î¿
c are
Ġà´¤ àµįà´¤
ĠÐ´ Ð°Ð¿
ÏĢÎ¿ Î¯
g u
ĠáĥĹáĥĲáĥķ áĥĺáĥ¡
à¤ ³
ĠåĮĹäº¬ èµĽè½¦
ĠÐ¼ ÐµÑģÑĤ
ÎŁÎ Ŀ
Ġà´ķ à´¾à´£
Ġà¦¹ à¦¯à¦¼
ĠÐ· Ð°Ð±
áĥķ áĥĶ
ĠÃ© tÃ©
ÎĹ Îľ
à±įà°Ł à±įà°°
ĠÐ± ÐµÐ»Ð°ÑĢÑĥÑģ
Ġà¸ ¡à¸
ç Ŀ
Ġà®ī à®°
à§ĩà¦¨ à§įà¦Ł
ĠáĥĽ áĥĶáĥ¢
ķ à¸´
ĠÚ© Ú¾
Ð°Ð² Ð°
ov an
Ġà°µà°¿à° ·
Ġà¹ģà¸ ¥à¸°
Ø¨ ÙĦ
à¯ĭ à®¤
à§įà¦¤ à§ģ
ta tÃ¡s
Ġà¤Ńà¤¾à¤° à¤¤
il ÉĻ
ĠÃ ĩ
al q
Ġà¤¦ à¥Ģ
ĠàªĹ à«ģàªľàª°àª¾àª¤
à¤¦ à¥Ģ
ĠÐĲ Ð»
Ġà¤° à¤¹à¥Ģ
íĺ ¸
Ġàª¹ à«ģàªĤ
Ġmo o
Ġàªķàª° àªµàª¾
ĠÒ³ ÑĥÒĽÑĥÒĽ
ĠÐº ÐµÑĤ
ti ca
Ġs á»ĳ
ĠO n
Òĵ Ð¸
al Äĥ
Ġê° ľ
Ã©n t
Ø§Ø± Ø¯
owan ie
Ġà®® à®°
ãĤĬ ãģ¾ãģĻ
Ã¡ ci
Ġp al
Ġm et
Ġ×¢ ×Ŀ
Ð¾Ð» Ð¾Ð²
I N
ÏĦ Î¹Î±
ìŀ ¬
ĠÎ² Î±
2 6
ĠC ym
Ġi dan
g t
Ġde ngan
ĠN e
Ġà®ķ à®¾à®°
Ġs ay
owa Äĩ
Ġàª¬ àª¹
íĨ ł
z io
ÐłÑķ Ðł
Ñĥ ÑĶ
di o
Ùģ ÙĬ
ĠÐ´ ÐµÑĤ
ãĥ ¢
ĠáĢĻ áĢ¼
ĠØ³ Ø¨
àµĢ à´ķà´°
áĥĺáĥ ĳ
ķ à¹Į
à±įà°° à°®
á Ī
Ġà¦¹ à¦²
sz Ã¡g
ĠCa ut
Ġà´ªàµĭ à´²
áĢĢ áĢ¯áĢŃ
áĢĲ áĢ®
áĢĶ áĢŃáĢ¯áĢĦáĢº
Î½ Î¹Î±
ĠOn line
à´¿à´ Ĥ
Ġ Ð°Ð³
ĠÏĥÏħ Î¼
à°ª à±Ī
ĠáĥĽáĥĺáĥ¡ áĥĺ
à© Ģ
åı £
Ġj et
Îº Î·
Ġà´ª àµĬ
Ġà¦¹à§Ł à§ĩ
ĠÐ´Ð· Ñı
áĥĺáĥ «áĥļ
ĠJeho fa
ĠÎ´Î· Î¼Î¿
Ġà°® à°¹
Ð± Ñĭ
Ġà¹Ĥà¸Ľà¸£ à¹Ĥà¸¡à¸
Ġà¤ħ à¤¸
hi leng
à§ĭ à¦®
áĥĲáĥ Ķ
Ġà¸ ľà¸
ĠÚ© Ø´
ĠÐ· Ð²
ĠãĤ µ
à±Ģ à°¨
à¹Ĥà¸£à¸ ĩ
j em
Ġt ou
Ġà¦¦ à¦¿à¦¨
an no
à¤® à¥ĩà¤Ĥ
el ÉĻ
Ġà®¤à¯Ĭà®Ł à®°
Ġpor no
Ġà¤ħ à¤¬
àª° à«ĩ
Ġà¤¬ à¥Ī
Ð½ Ð°ÑĤ
Ġà¤® à¥ĭ
Ġí ĥ
c ciÃ³n
ĠÄ Į
h t
ĠÑį Ð´Ð¸
ĠÑĥ Ð¼
àª¨à«įàª ¸
Ġä» Ĭ
ti a
ĠÐĺ Ð½
Ġf ie
ì Ī
cz a
ĠÄĳ áº§u
Ã¨ me
Ã¡n ak
ãĥ Ļ
Å¡an u
ĠØª ØŃ
ĠM it
ia s
× £
al áº¹
Ġ *
Ġìĺ Ī
ĠÏĦ ÏĮ
ÎµÎ¯ ÏĦÎµ
Î¾ Î¹
Ġi pin
ÐµÐ½ Ñı
larÄ±n Ä±n
m ba
Ġm ÄĽ
ag we
Ġfe ela
Ð¸Ð½ Ñĭ
Ġê° ķ
Ġàª¸ à«įàª¥
Ġà®ª à®¾à®¤
ĠØ§ÛĮ Ø³
Ġá¹£i á¹£e
Ã«s i
Ġâ Ħĸ
Ġw p
ĠáĢ±áĢ ľ
ĠÐ¡ Ð
àµģà´® à´¾à´¯à´¿
áĥĶáĥĳ áĥĶáĥļáĥĺ
«à¸ ¡à¸²à¸
Ġà°ķ à°¨
é ĵ
à¦¸ à§įà¦¯
Ġein em
Ġcu m
à´¿à´¯ àµģà´Ĥ
» áĢĸáĢħáĢ¹áĢ
ĠáĢ±áĢ Ļ
áĢĳ áĢ¬áĢ¸áĢ
ĠÎ´ Î¹Îº
Ġl ui
àµįà´ §
Ð½ Ñİ
Î½Î± Î½
Ġà°Ĩà°¯ à°¨
áĥ§ áĥķ
æīĭæľº å®¢æĪ·ç«¯
å¼Ģ å¥ĸ
Ġba t
Î¯ Ïĥ
à´µ à´¿à´
Ġà¦¬à¦¿à¦ ·
ĠÑģ Ñĥ
áĥĲáĥ¨ áĥķ
r ar
Î¼ ÏīÏĤ
à±ģà°¨ à°¿
Ð°Ñģ ÑĮ
ī à¸
å° Ĩ
it y
à¦¾à¦® à§Ģ
Ġáĥł áĥĲáĥª
ģ à¸£à¸°à¸
di k
Ð¶ Ñĭ
Ġãģĵ ãģ®
à°Ł à±įà°²
Ġà¸ ¥à¸ĩà¸Ĺà¸°à¹Ģà¸ļà¸µà¸¢à¸Ļà¸
Ġu ti
Ø® Øª
à§ĭ à¦Ł
Ġp ir
à¤¾à¤ ·
Ġà®µ à®¿à®°
Ġktor Ã©
ÑĨÑĸ Ð¹
Ġà¤¦ à¤¿à¤¨
Ġp he
à¤Ĥ à¤Ł
Ð¸Ñı Ð¸
Ġà¤ķà¤° à¤¤à¥ĩ
ëª ¨
Ã Ĳ
Ġn Ã³
ĠÐ¿ Ð¾Ð·
__ __
ĠÑĪ Ð°ÑĢ
Ġk es
Ġp l
ĠP e
ĠÑĤ Ð°Ò³
s p
ĠìĹ °
so ane
Ġg li
Ġàª¬ àª§
ĠE gy
Ġti en
Ġm Ãªme
: :
ãĥ© ãĤ¤
Ġl ub
Ġqar ÅŁÄ±
kun rin
.. .
ìļ ´
ĠÏĢ Î¬
Î¬ Î¶
ÏĦÎ® ÏĥÎµÎ¹ÏĤ
Ġi tá»į
ĠÐ¿ Ð¾ÑģÑĤ
×ĳ ×ľ
te d
Ø¹ Ø±
ĠØ¬ Ø§Øª
Ġà®ĩà®¨à¯įà®¤ à®¿à®¯
j ek
´ ĳ
Ġàª® à«ĭàªŁ
Ġà®ĩ à®¯
ĠÐł Âµ
áº¹ gáº¹
tsa tsi
ĠÐ¹ Ð¾Ð³Ð¾
ãģĹ ãģ¾ãģĻ
áĢĲ áĢŃáĢ¯áĢ·
ĠÑĥ Ð´
à´¾à´ ¨àµįà´
áĥĺáĥ£áĥł áĥĺ
à¸£à¸²à¸Ħ à¸²à¸
Ġà°¨à±ģà°Ĥà° ļà°¿
Ġ áł
Ġà¦¶ à¦¿à¦ķà§įà¦·
Ø¬ Ùĩ
ar te
Ġà´Ĩ à´°
áĢ» áĢĻ
ĠáĢ± áĢĢáĢº
ĠáĢģ áĢº
Ġ á½
li z
à´¨àµįà´¤ àµįà´¯
Ñı ÑĨÑĮ
ÏĨÎ¿ ÏģÎ¬
Ġà°ħ à°Ĥà°¤
Ġáĥ¨ áĥĶáĥľ
åħ ĥ
æ ¡
Ġs ou
ĠÎ± Ïģ
àµĭ à´¦
Ġà¦ķà¦¿à¦¨ à§įà¦¤à§ģ
ĠÐ´Ð· ÑıÑĢÐ¶
áĥ£áĥ ĵ
g ÉĻr
ÏĢÎ¿Ïħ ÏģÎ³
à±Ĥà° ª
ÑĥÑĢ Ñģ
Ġà¸¥à¸ĩà¸Ĺà¸°à¹Ģà¸ļà¸µà¸¢à¸Ļà¸ Łà¸£à¸µ
âĢ ľ
ti in
à¦°à§įà¦ ®
Ġáĥ¡áĥĲáĥ® áĥĶáĥļ
¸à¸ ģà¸
i x
ÑĢÑį Ð´
à®¾à®² à¯ģà®®à¯į
à±ĩà° ª
Ġà¸ªà¹Īà¸ĩà¹Ģà¸ĩà¸´à¸Ļà¸ ļà¸²à¸Ĺà¹Ħà¸Ĺà¸¢
Ð¼ Ð¾Ð¶
Ġ×ĸ ×Ķ
Ġà¦ķà¦° à§įà¦®
Ġal l
à¤¾à¤ §
Ã©l y
Ãł o
Ġa an
à¤¿à¤ ľ
Ġz ur
Ġà¤ľ à¤¾à¤¨
ĠÐ¸ Ðº
Ġà¤µà¤¿à¤ ¶
í İ
ar olo
Ã« ve
n es
ĠÐ¿ ÐµÑĪ
ĠÐ¸ Ð¶
ãģĹ ãĤĩ
ĠØ§ÙĦÙħ ÙĪ
ĠÃ®ntÃ¢lni re
Ð°Ð» Ð°Ð½
àª¾àª¤ à«įàª°
ëł ¥
Ġde c
ĠÙħ Ø³
Ġprze d
or d
ĠÐ´ Ð¾Ð¼
ĠÐł Ñĳ
ĠÑı Ð·
ÉĻs t
Ġu t
it Äģ
Ġi be
u d
ķ Į
ĠÎĿ Î¿
ĠÎ¼ Î¿
ÏĥÏĦ Î¹Î±
Ġá¹¢ i
Ġ×ľ ×ŀ×
Ġà®ª à®¿à®±
lá»į wá»į
ÐµÐ» Ð¾Ð²
à«įàª ¡
ĠÃº j
ãģ¾ ãģ§
ì ¡
is chen
áº£ o
ÑĢ Ð¾Ð±
ĠG b
Ġty re
li ca
Ġn ÄĽ
ĠáĢľ áĢĢáĢ¹áĢ
ĠØ§ Ø¯
à´¸ àµįà´¸
áĥĲáĥł áĥĶ
à¸´à¸ Ķà¸
Ġà°ħ à°Ń
åı Ĭ
à¦¾à¦¨ à§ĩà¦°
owan ia
Ġaus si
Ġà´¤ àµĨ
ĠáģĤ áģĢ
áĢģ áĢ«
áĢķáĢ¼ áĢ®áĢ¸
ÎĻÎ Ŀ
Ġha u
à´¾à´ ¶
ĠÑĤ ÑĢÑį
ÏĦÏĮ ÏĤ
à°¾à°² à°¨à±ģ
áĥĲáĥ® áĥļ
äº ¤
é ª
Ġr ona
ĠÏĢÎµÏģÎ¹ Î¿
à´±àµįà´± àµį
Ġà¦Ĩà¦® à¦¾à¦°
ĠÐ¡ ÑĤ
áĥĶáĥ¡ áĥĺ
ĠÙĦ Ùħ
Îº Î»Î·
Ġà°ļ à°¾à°²
ĠÐ ģ
Ħà¸¸à¸ ĵ
æ¬ ¡
tso eng
Ġà¦ķ à§įà¦·
áĥĲáĥł áĥĺáĥ¡
ŀà¸Ļà¸ ±à¸Ļà¸
ĠBak Ä±
Ðº Ð¾Ñŀ
st ÉĻr
Ġà°¸ à±įà°µ
¡à¸²à¸ ģà¸
Ġà®¨ à¯ĩà®°
Ġk ez
Ġà¦¨à¦¿à¦ ľ
Ġper o
à¥Ĥ à¤²
ĠÄ «
Ø¬ Ú¾
ier s
Ġà¤¬ à¤¾à¤¤
Ð¸Ð» Ð°
çĪ ±
Ð¼ Ð°Ð³Ð°Ð½
Ġà¤ķ à¥įà¤¯à¤¾
ì¹´ ì§Ģëħ¸
p ha
à«Ģàª Ł
ks en
ĠÐ¶ Ð¾Ð¹
ĠÐ± Ð¾Ð·
Ġpr es
Ġz ÅĤ
Ġkati ka
ĠÐ¼ ÐµÐ½
ÛĮÚ© ÙĨ
ì² ´
Ġp ow
Ġh u
Ġti mp
Ġla ng
Ġàªľ à«Ģàªµ
Ð½ Ð°ÑĤÐ°
Ġm Ã¡
Ø¨ ÛĮ
ek et
ĠÎĶ E
Ġgb á»į
ĠÎĶ ÎµÎ½
ĳ Ĳ
ĠÎ ŀ
Ġ2 7
ĠÏĩ ÏģÎ·
Ġla arin
Ġm ÉĻs
Ġb lo
Ġ Ā
æ ©
ĠP Ã«r
Ð¶ Ð´
ĠÙĥ Ø§ÙĨ
Ġë Ķ
Ġ×Ķ× ¤
Ġàª® à«ĭàª
Ġa tt
Ġli lo
ĠN ie
à®¾à® Ļà¯įà®ķ
è Ń
Ġáģ ¾áĢĢ
le ri
Ġà´ªà´° à´¿à´
ĠáĥĶáĥłáĥĹ áĥĺ
Ĺà¸µ à¸
à°¾à°² à°¨à°¿
Ġag äºļæ´²
à¦Ĺ à§ģà¦²
áº¿ u
Ġr re
Ġà´ī à´ª
áĢļáĢ¹áĢ ·
áĢ¼ áĢ¸áĢ
áĢŃáĢ¯ áĢĦáĢºáĢ¸áĢ
Î´ Î¹Îº
Ġen a
àµģà´ ¦
ĠÐł Ñį
Î¼ÏĨ ÏīÎ½
à°Ĥà°¡ à°¿
Ġáĥŀ áĥĺáĥł
Ġä¸ į
æľ į
ÅĤ Äħ
ĠÎķ Îº
à´²àµįâĢį à´ķ
Ġà¦¸à¦° à¦ķà¦¾à¦°
Ñĭ Ñĩ
ĠáĥĽ áĥĿáĥľ
cia l
ĠÎ£ Îµ
à°¾à°² à±ĭ
Ñĸ Ð½Ñĭ
à¸²à¸ ģ
æĪ ĺ
z en
à¦¿à¦ ī
áĥĲáĥ §
łà¸²à¸ ŀà¸
Ġm ÉĻh
ĠÐ¿ÐµÑĢ ÑĪ
ka a
à±ģà°¤ à±įà°µ
à¹Ģà¸ ķ
Ø¹ Ùĩ
Ġun tuk
Ġà¦®à¦¾à¦¨ à§ģà¦·
Ġà®ķ à®µ
Ġà¤° à¥Ĥà¤ª
Ġg agwe
Ġn na
v or
à¤ļà¥įà¤ ļ
jÄģ m
éĿ Ĵ
ĠÒĽ Ð¾Ð½
Ġà¤®à¥Ī à¤Ĥ
ĳ ľ
E R
àª Ŀ
O N
Ð°Ð´Ð¸ Ð³Ð°Ð½
ÑĢ Ð¾Ð½
in es
Ġy ara
ha ng
Ñĥ Ð´Ð°
Ø¨ Ùĩ
Ġìķ Ĭ
à¯ģà®³ à¯į
Ġt ie
Ġaz t
àª¨ à«įàªŁ
Ø§ÙĦ ÛĮ
p owie
Ġlang _
Ġpo ate
g ar
Ð» ÐµÐ½Ð½Ñı
a ju
8 0
¦ ¬
Î½ Îµ
ĠÏĩ ÏģÎ®
6 0
ĠC o
Ġ×ŀ× ª
ÑĥÐ¿ Ð¸ÑĤÑĮ
ur u
Ð½ ÐµÐ¹
à®¿à®© à¯įà®©
Ġw szyst
Ġå¤ §
Ġ íķ´
ĠÙĪØ² ÛĮØ±
Ġàª¤à«įàª¯ àª¾àª°à«ĩ
ch i
as i
Ġza man
ĠØ§Ù¾ ÙĨÛĮ
Ð» ÐµÐºÑĤ
áĢĶ áĢ¬
iá»ĩ c
à´£ à´®
áĥĺáĥľ áĥĺáĥ¡áĥ¢
à¹īà¸²à¸ ĩà¸
Ġà°° à±ĭà°ľ
ãĢ ģ
Ġà¦ ¢
ÙĪ Ø§
d nÃŃ
Ġà´® àµĤ
áĢ½ áĢº
áĢ¼ áĢĶáĢ¹áĢ
áĢĻ áĢ¬
Î½Î¿ Ïį
Ġel le
à´¾à´¤ àµĨ
Ð³ Ñĸ
Î½Î± ÏĤ
à±Ĥà° ²
áĥĲáĥ¥ áĥ¢
é ©
åĲ Ĺ
z Ã³
ĠÎļ Î¿
à´¿à´ķàµįà´ķ àµģà´Ĥ
à§ĩà¦ ¡
Ð½ ÐµÐ¼
áĥĽ áĥĺáĥ¡
ãģĵãģ¨ ãģĮ
ÏģÎ± ÏĤ
Ġà°ī à°Ĥà°¦à°¿
ĠÑĤ ÑĭÐ¼
à¸£à¸²à¸Ħ à¸²
Ġå ¾
ti ke
Ġà¦ĺ à¦Ł
ĠáĥĴ áĥĲ
à¸Ļ à¹īà¸
p an
ÑĤ Ð°Ð¼
ĠÐ´Ðµ ÐºÐ°
à°Ł à±įà°²à±ģ
à¸Ńà¸ ģ
ĠÑĤ ÐµÐ¼
à®¿à®Ł à®®à¯į
Ġà¦¸ à¦Ļà§įà¦Ĺà§ĩ
k ÅĤa
à¤Ĥ à¤ļ
al l
Ġà®ļ à®¿à®²
ĠÐº Ð°ÑĤÐ¾
Ġà¤ªà¥įà¤° à¤¤
ĠÐµ Ðº
à· ı
ĠÑģ Ð°Ð½
Ġà¤ķà¤° à¥ĩà¤Ĥ
ì¹ ´ëĿ¼
Ã ®
à«Ģ àª¨àª¾
ci os
ÑĥÐ¼ Ò³ÑĥÑĢ
Ð± Ð¸ÑĢ
k Äģ
ĠØ§ÙĦØ «
Ġdu het
ĠÑĦ Ð°Ð¾
×ª ×Ļ
ŀ Ī
ub li
o tt
gg io
àª¾àª Ł
Ø§ÛĮ Ø§
Ġsa h
àª¾àª ī
ĠØ± ÙĪØ²
Ġpe ut
Ġs eg
Ġila na
ÏĨ ÎŃÏģ
ë° ©
ĠÏĮ Î»
Ġhttp s
ÏĦ ÏĥÎ¹
Ġb áº¹
ãģ¨ ãģĹãģ¦
ĠÐ¼ Ð°ÑĤ
ĠL o
ĠÐ¿ÑĢ Ð¾ÑģÑĤ
Ġk ho
ar o
Ã¢ t
ê± ´
s te
Øµ Ø±
Ġs me
d uro
àª¾àª ı
owe go
Ð»Ð¸ Ñĩ
ŀ áĢĬáĢ¹
ĠÐ² Ð¸ÑĢ
Ġà´¤à´¨àµįà´¨ àµĨ
áĥĲáĥª áĥĺáĥĲ
ģà¸ ¥à¸
Ġà°ħ à°²
è ¢
à§ģà¦ ĸ
ov Ã©
Ġtu d
Ġà´¸ àµĨ
Ġáģ ģ
áĢ¯ áĢĶáĢº
ĠáĢ±áĢ ĲáĢ¼
Ïĥ Î¯
×Ļ× ¦
à´¿à´¯ à´¿à´²àµįâĢį
ĠÐº ÑĸÑĢ
Î¼Î± ÏĦÎ¿
à°¾à°Ĥà° Ł
áĥĶáĥ ¤
Ġ ć
åŁ İ
Ġmo tho
Î´ Î¯
Ġà´ķ à´£àµįà´Ł
à¦° à¦£
Ñį Ñģ
áĥĺáĥ£áĥ ļáĥĺ
à®° à¯įà®µ
ÏĦÎµ Ïģ
Ġà°ļà±ĩà° ¶
Ð¼ Ñĥ
Łà¸¸à¸ķà¸ ļà¸Ńà¸¥
Ġæŀ ģéĢŁ
Ø¯ ÙĬ
à§įà¦ ŀ
Ġáĥ¥ áĥĲáĥļ
à¹ĥà¸Ĭà¹īà¸ Łà¸£à¸µ
ĠÙĨ Ø¸
ĠÐ¿ Ð°Ð»Ñĸ
da ÅŁ
à±įâĢĮ à°²à±ĭ
à¹ĥà¸ Ī
ĠÐµ ÑģÐ»Ð¸
il lÃ¤
à¦¡ à¦¼
m Äĵ
à¤¸ à¤¾
en do
Ġpr Ã©s
ĠÕ ¢
åį ļ
ara q
Ġà¤Ĺ à¤Ī
ĠÒĽÑŀ Ð¹
å¥ ³
Ġì µľ
Ġk or
àª ł
Ġso bre
ĠÒĽ Ð°Ð¹
ĠÐ²Ð° ÒĽ
Ò ĳ
Ġis hte
Ġb á»ĭ
ĠÑģÐ¾Ð» Ð¸
ÑģÑĮ ÐºÐ¸Ð¹
ĠìĹ Ĩ
ÄĻ p
ti ck
Ġs et
Ġàª¬ à«Ģàªľ
ĠÙĤ Ø±
Ġex p
å£ ²
ĠkeÃ§ir il
Ġï½ ŀ
à®² à®ķ
Ġn kan
Ġ5 0
Ġìĥ Ŀ
00 00
ÏĢ ÎŃ
2 5
ĠR a
Ðł Ðħ
ÐµÐ½Ð¸ Ñİ
Ġi ba
ĠÐ¾Ð± ÑĬ
ĠÙħ Ø·
åĲ į
×Ļ× Ĺ
ìĤ¬ ìĿ´íĬ¸
Ġn ur
Ġn eng
e en
ke yi
ÅĨ u
v re
à«ĩàªµ àª¾
áĢĲ áĢħáĢ¹áĢ
Ñī Ð¾
à´¤ à´¿à´°
Ġáĥ¥ áĥĲáĥłáĥĹ
à¹ĥà¸«à¸ ¡
à°Ĥà° ¬
à© ĩ
Ġà¦¬à¦² à§ĩ
Ġs em
Ð¸ÑĤÑĮ ÑģÑı
àµĭ à´ķ
ĠáĢ±áĢ Ĩ
ĠáĢ»áĢĻáĢĶáĢ¹áĢĻ áĢ¬
áĢĲ áĢŃáĢ¯áĤĶ
Îĳ ÎĻ
Ġpo li
Ġà´ ³
ÑģÐº Ñĥ
Î¹ Î»
à°Ĥà°¦ à±ģà°ķà±ģ
áĥĲáĥ ©
æĶ ¿
è¯ ´
ĠÚ© Ø§Ùħ
ĠÎ¿ÏĢÎ¿ Î¯Î±
à´¤àµįà´¤ à´¿à´²
Ġà¦ª à§ľ
ĠÐ³ ÑĸÑģÑĤ
áĥĲáĥķ áĥĺ
Ġcz as
Î¸ Î¿ÏįÎ½
Ġà°µ à°°
Ð³Ð°Ð½ ÑĸÐ·
Ġà¸Ĺà¸Ķà¸¥à¸Ńà¸ĩ à¹ĥà¸Ĭà¹īà¸Łà¸£à¸µ
Ġag çľŁäºº
k Ã«
Ġà¦Ĩ à¦ĩ
áĥĲáĥĿ áĥĳ
¢à¸ §à¸
Ġsz em
ĠÐĳÐµÐ»Ð°ÑĢÑĥÑģ ÑĮ
ĠtÉĻr ÉĻf
à°¡ à°¾à°¨à°¿à°ķà°¿
à¹ģà¸¥ à¹īà¸§
Ġun ter
is on
Ġà¦ķà¦¿à¦Ľ à§ģ
ØŃ Ø©
Ġà¤ķà¥ĭ à¤Ī
Ġmo k
Ġà®ķà¯Ĥ à®Ł
ĠmÉĻ lu
ĠæĹ¥ æľ¬
ĠÐ¿ÑĢ Ð¸Ð½
à¤¾à¤ «
ĠÒĽ Ð°Ð±
Ġà¤ªà¤¹ à¤²à¥ĩ
íĥ Ģ
å½ ĵ
iyy at
Ġi Ã§
ĠÑĤÐ¾Ð¼Ð¾Ð½ Ð¸Ð´Ð°Ð½
ĠÑĪÑĥ Ð´Ð°
à«Ģàª §
Ġp un
ia c
ĠÑĤÑŀÒĵ ÑĢÐ¸Ñģ
Ġfo g
ĠìĦ ¸
Ġle ng
ĠØ® Ø§ÙĨ
×¨ ×Ļ×Ŀ
ĠD o
Ð»Ñĸ Ð´
j or
ãģĭ ãģ£ãģŁ
Ġd on
Ġ) ;
àª¤ à«įàª¯
ar t
3 7
Ġí ĸ
ĠHo tel
Î´ Ïħ
ĠÎµ Î³
Ġp ese
Ġs á»±
ÑĨÐ¸ Ð°Ð»ÑĮ
at á»į
j Äģs
Ø§ÛĮ Øª
ĠÐ¸ÑģÐ¿ Ð¾Ð»ÑĮÐ·
ĠØ «
à®² à¯įà®µ
Ñ ľ
Ġg ja
Ġêµ Ń
Ġor is
cz ne
ãĥ¼ãĤ ¸
la is
Ġáģ ĥ
Ð¶ ÐµÐ½Ð½Ñı
Ġà´° à´¾à´ľ
Ġáĥķ áĥĶáĥł
Ġà¹Ĥà¸Ľà¸£à¹Ĥà¸¡à¸ Ĭà¸±à¹Īà¸Ļ
Ġà°ª à±Ĭ
äº ī
à¦¿à¦ ¡
Ġàªķ à«ĭ
Ġà®ķ à¯ģà®Ł
Ġà´ĩ à´¨àµįà´¤àµįà´¯
áĢĢ áģ
áģ¿ áĢĻ
áĢĲ áĢ°
Îº Î¿Ïį
Ġac est
Ġà´® à´¾à´¤àµįà´°
ÑĨ ÑĨÑı
Î½ Î®
à±ģà°¨ à±ģ
ĠáĥĴ áĥĲáĥĺ
å Ļ
æĺ İ
ÅĪ a
Î³ Î±
à´¾à´¨ à´Ĥ
à¦ ·à§įà¦Ł
ĠÑı Ð½Ñĭ
áĥľ áĥĿáĥĳ
et to
Î¼Î¿ ÏĤ
à°° à°£
ÑĤÑĭ Ñŀ
à¹Īà¸² à¸Ļ
Ġå¤§åıĳ å¿«ä¸ī
Ġp Ã¥
à§Ł à§ĩ
Ġáĥŀáĥĺáĥłáĥ ķ
Ġà¹Ģà¸ ¡à¸
ĠØª Ú¾ÛĮ
ÑĤÑĭ Ñĩ
nos t
à±ģà°Ĥà° ¡à°¾
à¸´à¸ ĩà¸
ij n
ĠgÃ¶ stÉĻr
Ġà¦¬ à§ĩà¦¶
Ġgra tis
Ġäºļ æ´²
dad es
Ġm Å±
ĠÐµ Ð´
à¤ª à¥Ģ
em ei
à¤Ĺ à¤°
Ð°Ð² Ð¾Ð½
Ġà¤ªà¥įà¤° à¤¦
en e
ĠÐł Ñķ
ĠÐ¿ Ð¾ÑĢ
Ø§Ø± Ø§Øª
ÑĤ Ð¸Ð¼
Ð¸Ð½Ð³ Ð¸Ð·
Ġàªľ à«ĩàª®
k Ã³w
ĠØ´ ÙĪØ¯
Ð°Ð± Ð°ÑĢ
Ġpe u
ĠM e
à® ·
ÐµÐ¹ ÑģÑĤÐ²
da l
Ġëı Ħ
Ð¡ ÐĤ
Ġ×Ķ× ł
Ġà®ª à®ķ
Ø¨ Ø¯
à«įàª ¦
Ġim p
Ġwi pe
ĠÎºÎ±Î» ÏįÏĦÎµ
in iz
Ïĩ ÎµÎ¯
y r
Ïĥ ÏĦÎ®
Ġá¹¢ e
ĠÑĤ ÐµÐ»
ga z
ow n
- -
ãģĹ ãģ¾
à« ī
Ġs pÄĵ
t ar
ĠÚ© Ø³ÛĮ
ÅĻ i
ĠÑĩ ÐµÑĢ
ĠT he
Ġãĥ ¬
Ġte go
k ur
Ġáģ Ģ
Øª ÙĬ
Ġà´µà´¿à´ µ
áĥĲáĥª áĥĺáĥĺáĥ¡
à¸²à¸ ªà¸´
à°¾à°² à±įà°²à±ĭ
é »
Ġà¦ħà¦¨ à§ĩà¦ķ
ĠÃ ģ
Ġa ber
Ġà´¨ à´¿à´²
Ľ áĢ½áĢŃ
áĢĢáĢ¹áĢ Ģ
áĢĲ áĢ±áĢ¬áĢ·
Î´ Î±ÏĤ
to are
à´¿à´° àµģà´¨àµįà´¨àµģ
ÑĢÑĭ Ñı
Ïģ ÏİÎ½
Ġà°® à°¾à°Ł
áĥľ áĥĲ
éĩ Į
é¢ ĺ
ĠÑĢÐ¾Ðº Ñĥ
ÎĳÎ Ľ
Ġà´¨ à´²àµįâĢįà´ķ
à¦¤ à§ĭ
Ð´Ð· ÐµÐ»
áĥľ áĥĶáĥļ
ï¼ Ĳ
ÏĢ Î®
à°® à±ģ
ĠÐļ Ð°Ð»Ñĸ
Ġà¸ªà¸ ¥à¹ĩà¸Ńà¸ķ
èĢ ĥ
à®¿à®ļ à¯įà®ļ
Ġà¦® à¦¹
ĠáĥĽ áĥĵ
à¸£à¸²à¸ ¢à¸
ë§Į ëĤ¨
ĠÑĢ Ð°Ñĳ
ìĺ Ī
à±Ĩ à°¨
ªà¸ Ķà¸
ĠÑĤÐ°Ðº Ð¶Ðµ
ĠÄį o
Ġà¦ķà¦¥ à¦¾
Ä ©
à¥ģ à¤¦
ĠÙħ Ø¬
Ġë° ©
Ã« z
çĥ Ń
t ro
Ġà¤ľà¤¾à¤¤ à¤¾
ĠÐ¾ Ð»Ð¸Ð±
à¥ĩà¤ ¡
Ã¡ ciÃ³
Äħ z
ĠG o
à®¿à®Łà¯įà®Ł à¯ģ
Ðµ Ò³
ĠÐ¼ÐµÐº ÑĥÐ½
Ġnt le
ÐµÑĢ Ñĸ
×¨ ×Ľ
ĠÐºÑŀ Ð¿
Ġàª¹ àªµà«ĩ
ĠM at
Ġà®® à¯ģà®±
un oa
Ð¸ÑĤ Ð¾
àªĤàª¤ à«ģ
v an
ol g
ĠÑĹ Ñħ
ĠØ§ÛĮØ± Ø§ÙĨ
ĠÐ¾Ð± ÑĢÐ°Ð·
ĠC u
Ġeyi ti
Ġ4 0
Ø ¢
Ġï¿½ï¿½ï¿½ï¿½ï¿½ï¿½ ï¿½
Ġe u
ĠÎµÎº ÎµÎ¯
Ġin u
Ġà®® à®Łà¯įà®Ł
owan e
Ġis e
Ġãĥ ĸ
ãģĹãĤĩ ãģĨ
Ġha ben
Ġph a
j iem
ĠÚ© Ùħ
ĠpÅĻ ed
ju k
gbo gbo
it Ã«
v en
ĠÐ²ÑĢÐµÐ¼ Ñı
áĢ¼ áĢ¬
ìľ ł
à´¤àµįà´¤ à´¿à´¨àµį
Ġáĥ¡áĥĲáĥ ĳ
ªà¸ ¹à¸
à±ĭ à°Ĥà°¦à°¿
à¤¾à¤¹ à¥Ģ
à¦¾à¦° à§ĩ
Øª ÙĪ
à«ĭàª ª
à´¿à´ķàµįà´ķ àµį
áĢĲáĢ¼ áĢĦáĢ¹
áĢŀ áĢ¬
áĢ ī
ĠÏĥÏĦ Î¿ÏħÏĤ
ĠÑĸ Ð·
à´ª àµįà´°
ĠÑı ÑĪÑĩÑį
ÏĨ Î·
Ġà°ħ à°¦
ĠáĥĴ áĥĲáĥķ
ç ±
à¨ ¿
Ġbil ÉĻr
ĠÎ±ÏĢÎ¿ ÏĦÎµ
àµįà´ ķ
à¦¾à¦ «
Ð½ Ð°Ðº
© áĥĶáĥķ
Ġch á»ī
ĠÎ¶ Ïī
Ġà°ªà±įà°°à°Ń à±ģà°¤à±įà°µ
Ðº Ð»Ð°Ð´
¶ à¹Īà¸ĩà¸
è· ¯
tso a
Ġà¦¬ à¦¾
Ġáĥłáĥ £áĥ¡
¤ à¸
dz o
ÐµÐ»ÑĮ Ð¼Ñĸ
Ġà®ĩ à®¤à¯ģ
à±Ĩ à°ķ
ªà¸ ¥à¹ĩà¸Ńà¸ķ
Äį as
Ġs ans
à§įà¦¬ à¦°
Ġd itu
Ġæ ¬
a li
he z
os z
à¥ģ à¤ķ
Ġmul t
à¥ĭ à¤ķ
ĠÑİ ÑĢ
Ġà¤¦ à¥įà¤µ
Ã«n Ã«
ÐµÑĤ Ðµ
Ġm or
ëĭ ¨
ĠÑģ Ð°Ð±
ĠÐºÑŀÑĢ ÑģÐ°ÑĤ
ts he
a m
Ġm Ã©
ĠÑĤ Ð°ÒĽ
Ġàª¸ à«Į
×Ļ× ļ
ãģ ³
Ø³ Ùħ
Ġvi deos
Ġs wo
j d
f er
ëĲ ľ
s sÃ¤
Ġ×ĳ ×©
Ġt as
ek ere
ĠÎ¼ÎŃ ÏĥÎ±
Ġà®Ĩà®© à®¾à®²à¯į
Ġc yn
ĠÏĨ Ïī
ĠÏĩ Ïİ
Ġiá¹£ owo
ãģ »
a tion
gb on
el Ã©s
k eit
àª¨à«įàª ¡
em i
ĠÐ» ÐµÑĤ
ul l
Ġe dib
ĠÐ´ Ð¾Ð¿
Ġeyi keyi
ĠÄĳá» ĵ
Ġuti lis
Ã¼ let
áĤĢáĢĢ áĢ®áĢ¸
k Ä±
Ġà´ľ à´¨
Ġáĥŀ áĥĿáĥļ
¢ à¹Ģà¸
Ġà°¨ à±Ģ
¥ ¿
à¦¾à¦° à¦£
ĠG ra
ti tu
Ġ àµ½
áĢĢ áĢ¬
áĢĳ áĢŃ
áĢ¯ áĢĶáĢ¹áĢ¸
ĠÎ» Î±
Å¡an Äģs
Ġà´ļ àµĨ
ĠÐ³ Ð°ÑĢ
ĠÎµÎ½ Ïİ
à°¿à°¨ à±įà°¨
ĠáĥĲáĥĵáĥĲáĥĽ áĥĺáĥĲáĥľ
çİ ©
2 8
Ġà®İ à®²à¯įà®²
ÏģÎ¯ Î¶
à´¿à´ķàµįà´ķ àµģà´¨àµįà´¨àµģ
à§Ĥ à¦²
ÐºÐ° Ñħ
áĥľ áĥĶáĥĳáĥĲ
Ø§ÛĮ Ø¯
ĠÂ µ
à°° à°¿à°ķ
Ð»Ñĸ Ð²
Ķà¸ ¢à¸
èµ ·
t ti
Ġà¦¸ à¦¾à¦®
áĥĿáĥłáĥ ¢
Ľà¸£à¸°à¹Ģà¸ Ĺà¸
jÄħ ce
Ò Ĳ
Ġve Ä¾
elu gu
Ħà¸ ¡
Ø³ Ø¨
Ġàªľ àª£
à§ģ à¦¦à§įà¦§
Ġlu c
à¤¬ à¤°
Ġà®ķ à®£
Ã¡ ro
Ġt lho
Ġà¤¸ à¤¾à¤®
Ñı Ð²
å¤ ľ
ĠÑħ Ð°Ð»ÒĽ
à¶ º
àª¾àª£ à«Ģ
ĠØ±Ûģ ÛĴ
Ġë¬ ¸
ion e
Ð¾ÑĢ Ð°ÑĤ
Ð°Ð» Ð¸Ðº
Ġn Äĥm
ci ons
Ġle ur
ĠÐ¾ Ð»Ð¸ÑĪ
ÑĥÐ²Ð° ÑļÐµ
Ġj Äģ
Ġ×ķ ×Ĳ
à«ĭ àª®àª¾àªĤ
x i
ãģŁ ãĤģ
à®¾à® ª
u er
Ġt al
Ġk ry
be tsi
ĠÑĨ ÑĮ
si waju
ĠÎ±Ïħ ÏĦÎ¿
ĠÙħ ÙĤ
ĠÎ¼ Î·Î½
Ġ0 9
ÏģÎ¯ ÎµÏĤ
b á»į
ÄŁ u
Ġo vat
Ġn áº¹
Ð¸ÑĢ Ð¾Ð²
Ġl en
à®±à¯įà®ķ à¯ģ
ÅĽ cie
ĠD i
m ul
ĠìĦ ±
ÐµÑĢÐ¶ Ð°Ð²
Ġme ji
ĠpÅĻ i
Ð½Ð¸ Ð¼Ð¸
Ġ×Ĳ ×ľ
áĢľ áĢ¯áĢķáĢ¹áĢ
tÃ« n
à´¿à´ ·
áĥĿáĥļ áĥĿ
«à¸£à¸ ·à¸Ń
Ġà°ªà±Ĩ à°Łà±įà°Ł
æİ ¥
Ġà¦ļ à¦²
jer es
ĠN o
àµģà´ ²
áģ µ
áĤ ĩ
± áģ¾áĢĢ
Îķ ÎĿ
ĠÑĤ Ð¾Ð²Ð°
à´¯ à´¾à´³
ÑĨ Ñİ
ĠÏĢÏģÎ¿ ÏĤ
à±ģà°² à°ķà±ģ
áĥĿáĥ ĸ
è£ ħ
æ º
Ġàªīàªª àª°
ĠÎ ĸ
àµĭ à´³
à¦ķ à§įà¦°
ÐµÑĢ Ñĭ
Ġáĥ¥ áĥķáĥĶáĥ§
Ġz o
ÎĳÎ ļ
à°¾à°Ł à±ģ
ĠÐ¼ ÐµÑģ
Ġà¸ ĸ
å¤ ĩ
ÙĦ Ø§ÙĦ
Ġà¦¯ à¦¾à§Ł
áĥ¡ áĥĲáĥ®
Ġà¹Ģà¸ ĩà¸´à¸Ļà¸
ëĭ ¹
Ñģ ÑĨÑĸ
Ġt an
à°¾à°° à°¾
«à¸Ļ à¹īà¸²à¸
ĠÑĥ ÑģÐ»
Ġr en
à¦¿à¦ Ń
Ġp il
à¥ĭ à¤¨
Ġty l
te urs
Ġ ÉĻr
Ġà¤ľ à¤¾à¤ı
àª¿àª ª
à¤Ĥ à¤§
ĠÐ½ Ð¾Ð¼
Ġà¤ľ à¤¨
ce p
k on
à®¿à®±à¯įà®ķ à¯ģ
ĠÑģ ÑĢÐµÐ´
ĠÐº Ðµ
ÑĤÐ¸ Ñģ
men ti
ĠØ¨ Ø§Øª
Ġd urch
Ñĥ ÑģÑĤ
Ġnh áº¥t
f ÉĻ
Ġâ Ĺ
í ŀĪ
ar io
ÑĸÐ»ÑĮ ÑĪ
Ġ×ŀ× Ĺ
ÛĮ Ø³Øª
Ã ī
ĠÃ ³
Ø¯ Ø©
Ġn om
ĠI lu
Ġu 00
Ð¾ Ñī
ĠÏĢ ÏģÎ±Î³
ĠÎļ Î±Î¹
ia dau
Ġt á»į
Ġàª¬ à«ĩàª
åł ±
Ġk ekere
Ġku wa
Ġpo z
ĠØ§ ØŃ
ia le
ĠÑĤ ÐµÑħ
à®µ à¯Ī
à«ģàª ĸ
Ã¼ b
Ġi tan
Ġbo t
ÈĽ ie
Ġt yÃ¶
ĠáĢģ áĢ¯
es nÄ«
Ġà´ľ àµĢà´µ
ĠáĥĹ áĥĳ
ŀà¸ ·à¹Īà¸Ńà¸
à±Ģ à°¡
åº Ķ
à¦¬ à¦¾à¦¦
ĠØ§ Ø¹
Ġw ar
Ġà´ §
ģ áĢ»
ĠáĢľ áĢ¯áĢķáĢ¹áĢ
áĢĽ áĢ²áĤķ
ĠÎķ ÏĢÎ¹
E N
àµģà´ ¨
ĠÐº ÑĢÑĭ
Ïį ÏĢ
à±ĭ à°Ł
áĥ¡ áĥ¢
æ ¼
ç» ĵ
Ġs in
ÏĮ ÏĦÎ·ÏĦÎ±
ĠâĢĭâĢĭâĢĭ âĢĭ
à¦ ¯
Ñı Ð¼
áĥĲáĥ® áĥĶáĥĳ
v as
Î´ ÏĮ
à±ģà°Ĺ à±ģ
Ð°Ð² Ñĭ
Ġ à¸Ļà¸
åķ Ĩ
à«ĩàªµ à«Ģ
à¦ ı
áĥ® áĥĽ
Ġà¸ ķà¸
ĠP ol
Ð°Ð½ Ð½Ñĸ
Ġsp ra
à°¾à°· à±įà°Łà±įà°°
à¸Ńà¸¢à¹Īà¸²à¸ ĩà¸
ÐµÑĢ Ð°
Ġmo ra
Ġà¦Ń à¦¾à¦°
Ġë ¨
Ġà¤ķà¤¿à¤¸ à¥Ģ
et an
ï¼ ĳ
é ħ
à¤ķà¥įà¤ ¸
ĠÙģ ÛĮ
ç²¾ åĵģ
ĠÑĤ Ð°Ñģ
Ġà¤ħà¤ª à¤¨à¥Ģ
×Ľ ×ľ
Ġh ÉĻy
ĠÐ³ Ð¸
ĠÑģ Ð°Ð¹
Ð» Ð°Ð¼
ĠÑĳ ÐºÐ¸
Ġfe ta
Ġàªªàª° àªĤàª¤à«ģ
Ġam ely
ĠÑħÐ¸Ð· Ð¼Ð°ÑĤ
Ġì§ Ħ
ĠâĢĿ ,
Ġk ish
Ø§Ø± ÙĬ
l ÃŃ
Ġga da
ãĤĮ ãģ°
ĠiÃ§ in
ĠìĹ Ĳ
Ġgi Ã¡
Ġde ux
à®© à¯įà®ª
gb ara
ĠÃ ¢
Ð°Ð· Ð¸Ð½
ĠÎºÎ¬ ÏĢÎ¿
Ġ0 7
ÏģÎ¯ ÏĤ
Ġja de
fi ca
m ÉĻn
Ġw Ã¡
jÄħ c
ĠØ³ ÛĮ
ĠÐº ÑĬ
Ġs ek
ĠÑĥ ÑģÑĤ
ĠA uf
ÉĻs inin
àª°à«įàª ®
d ia
Ø¯ ÙĬØ¯
Ø§Ø® Øª
ĠãĤ ª
áĢ¡ áĢħ
Ġme d
àµĤ à´ª
áĥĶáĥĳ áĥĸáĥĶ
ģà¸²à¸£ à¹Ģà¸
à°°à±įà° ļ
Ġå Ĭ
Ġà¦¹ à¦¾à¦¸
Ġva ir
ĠÉĻs as
Ġ àµ¼
áĢĦáĢ· áĢ¹
áĢ¬ áĢ¹
áĢĻáĢº áĢŃáĢ³
Î¹ Ïİ
Ġìŀ ¥
àµĥ à´¤
Ð°Ð² Ð°Ñŀ
Î³ Î·
à°Ĺ à±įà°Ĺ
áĥ£áĥ ĳ
è¯ ķ
æµ ·
Ã¡l nÃŃ
Î½Î¿ Î¹
àµģà´ķ à´¯àµģà´Ĥ
Ġà¦ķà¦° à¦¾à¦°
ĠÐ² ÑıÐ»Ñĸ
áĥļ áĥĺ
Ġch i
ĠÎł Î¿Î»
Ġà°ªà°¾à°° à±įà°Ł
ĠÐ½Ðµ Ðº
³ à¸Ļà¸
æĦ ı
Ġse in
à§ĩà¦ ª
Ġáĥ¡ áĥ¬
Ĺà¸ ±à¹īà¸ĩà¸
is Ã¤
Ð» Ð°Ñŀ
Ġ×ŀ× ¢
Ġà°¸ à±įà°¥
Īà¸£à¸´à¸ ĩ
ĠÐºÐ¾ÑĤÐ¾ÑĢ ÑĭÐµ
ke j
Ġà§¦ à§
Ġk Ã«r
Ġà¤° à¤ĸ
ĠØ± Ú©Ú¾
à®Łà¯įà®Ł à¯ģ
Ð°Ð»Ñĸ Ð·
à¤Ĥ à¤ķ
Ġtyl ko
à¥įà¤¯ à¥Ĥ
Ð¾Ñı Ð´
Ġà¤ ĳ
Ġà®µ à¯Īà®¤à¯įà®¤
Ã©r ie
Ð¾Ð» Ð¾Ð´
Ġàª² àªĹ
ĠÐº Ð°Ñģ
Ñħ ÑĤ
Ġtse la
ct os
Ġm utta
ĠÑį ÑģÐ°
Ġpo t
ĠÙĪ Ùĩ
Ġt ÉĻh
ĠÐ· Ð°Ð²
à®¾à® ªà¯įà®ª
ĠD E
Ġm uy
Ġi dÅĳ
Ġí Ĭ
en ye
ĠØ§ÙĨ Øª
l Ã©
Ġá¹£ áº¹
Î¯Î½ Î·
gli o
Ïģ ÎµÎ¹
Ïģ ÎŃÏĤ
Ġ1 00
Ġb áº¹ráº¹
ĠpÄĵ c
Ġd at
Ġf ree
Ġà®® à®¿à®ķ
st y
Ġk ri
Ġfi g
àª¾àª ļ
ĠÐµ ÑģÑĤÑĮ
ĠL os
æ Ł
Ġs inu
an n
×¨ ×Ķ
ĠÐ¯ Ðº
ĠáĢĲ áĢĽ
Ġin san
à´¿à´ķàµįà´ķàµģà´¨àµįà´¨ à´¤àµį
áĥª áĥĲ
·à¹Ī à¸Ńà¸ĩ
Ġà°İ à°¨à±įà°¨
7 0
Ġà¦Ĩà¦® à¦¾à¦¦à§ĩà¦°
Û ķ
ĠÚ¯ ÙģØª
àµĩà´ ĸ
áĢ±áĢ« áĢº
ĠáĢ±áĢ ĲáĢ¬
ĠáĢ Ĭ
Î»Î· ÏĤ
ÙĪØ± Øª
àµģà´®àµįà´ª àµĭ
Ð°Ð´Ð· Ðµ
Î® Î¼Îµ
à±ĩ à°²
ĠáĥĶ áĥĻ
Ġà¤Ĩ à¤£
åĪĨ åĪĨå½©
men ta
Î¹ÎºÏĮ ÏĤ
à´ķàµįà´ķ àµĨ
Ġà¦¨à¦¿ à¦°à§įà¦¬
ĠÐ¼Ð¾Ð¶ Ð½Ð°
Ġáĥ¬ áĥĺáĥľ
Ġn tse
Î´ ÎµÏħ
Ġà°¨à±ģà°Ĥà° ¡à°¿
Ð½Ð° Ñħ
à¹Īà¸²à¸ ¢à¸
æĢ »
da k
Ġà¦¹ à¦ļ
ĠáĥĲáĥł áĥĲ
Ġà¸ŀ à¸Ļà¸
Ġe d
Ð½Ñĸ Ñĩ
ÑģÐº Ð°
à±ģà°Ĥà° ¡
à¸£à¸ ¹
ÙĪ Ø¹
Ġc es
Ġà¦ªà§įà¦° à¦§à¦¾à¦¨
à«ĩàª ª
Ġà¤¦ à¥ĩà¤¶
Ġba sh
íģ ¬
ÑĤ Ð¾Ð²
éĻ ¢
Ġdá»¥ ng
ç ¦
ÑĥÐ¼ Ð°Ð½
åĽ½ äº§
ÅĤa m
w Ã³
Ã¼l t
Ġiz an
ĠÐ¼Ðµ ÑĪÐ°Ð²
ĠÐµ ÑĤ
de re
Ġtsa ma
Ġpre j
ĠÑĥ Ð¹
àªµàª¾àª¨ à«ģàªĤ
Ã »
v ar
ÐµÑĢ Ð¸
ÈĽ Äĥ
Å¼ a
ÙĦ Ùħ
ĠÐ¿ÐµÑĢ Ð²
Ġà®ķ à¯ģà®´
Ġv Ãµ
Ġdel s
ç ¶
ĠJeho vah
ĠÏĮ ÏĦÎ±Î½
Ġs Ã©
ĠÏĮ Î»Î±
ĠÎ» Î¯
Ġ2 6
Ġki i
Ġ Å¾
Ġ Ã¡t
Ġp in
×ĵ ×Ļ
ĠÐºÐ¾ Ð¸ÑĤÐ¾
Ġíı ¬
Ġàª¬àª¨ àª¾àªµ
Ġques to
ĠØ¬ Ø§Ø¦ÛĴ
ĠÐ²Ñĭ Ð¿
ĠÑĺ Ð°
Ġw Ãł
fu ta
Ġh iá»ĩn
lich en
áĢĦ áĢ¶
p on
Ġà´ī à´£àµįà´Ł
áĥ®áĥĿáĥķ áĥł
à¸Ńà¸ Ķ
Ġà°¨ à°¾
åĻ ¨
Ġà¦ªà¦° à¦¿à¦¬
ĠØ¥ ÙĨ
Ġt Ã¤
à´¡ àµį
ĠáĢĻ áĢº
áĢļ áĢ°
Ķ áĢ¾
ĠÎ£ ÏħÎ½
vi en
à´¿à´¨ àµįâĢį
Ð³ Ðĥ
ĠÎ´Ïį Î¿
Ġà°ķà±ĭ à°¸à°Ĥ
áĥĲáĥłáĥĹ áĥļ
æĢ İ
Ġå ¥
àª¾àª ¥
Î½ ÎµÏĤ
Ġne ws
à§ĭ à¦§
ÑĢÐ° ÑĦ
áĥĲáĥļáĥĺ áĥĲáĥľ
Ġj our
Îº ÏģÎ±
Ġà°Ĩ à°°
Ðº Ð°Ð³Ð°
ģà¸ ±à¸Ļà¸
çī ¹
ĠâĢ ¢
Ġà¦ĩ à¦ī
ĠáĥĽ áĥĲáĥľ
Īà¸±à¸ Ķà¸
ova Å¥
ĠÐº Ð°Ð»
Ġà®ħà®µ à®°à¯į
à±ĭ à°¦
Ġà¹Ģà¸ Ħà¸£à¸Ķà¸´à¸ķ
Ø§ÙĨ Ø¯
dir il
Ġà¦Ĩ à¦ľ
Ġmo Å¼e
Ġà¤Ĩ à¤ľ
ëŀ ĺ
qu i
ÐµÑĤ Ð°
Ġà¤ħ à¤²
Ġa ki
Ġà¤¸à¤ķ à¤¤à¥ĩ
ĠÐ¹Ñŀ Ð»
à¤°à¥įà¤ ·
àª¤ à«įàª°
d it
ĠØŃÚ© ÙĪÙħ
ko lo
ĠÑĪ Ð°ÑħÑģ
ĠÒĽ Ð°ÑĤ
Ġm is
ĠÄ° n
ĠÙĪØ§ÙĦ ÛĴ
Ð»Ð°ÑĢ Ð´Ð°Ð½
à«Ĥ àª°
Ġà®ħà®µ à®°
ĠtÅ¡ o
ĠÐ½ ÐµÐ´
ban e
ãģ® ãģ¯
Ġne bo
in n
di en
rz Äħ
ĠÉĻ la
ë¹Ħ ìĬ¤
ja de
Ġ/ >
er Ã«
ĠÎ´ ÏħÎ½Î±
Ïĥ ÏĦÏĮ
.. ..
Ġti tun
ĠP er
Ã¡r os
Ġo un
Ġà®ħ à®³
ĠÐ½ ÑĥÐ¶
ĠÂ ¿
ì Ķ
Ãº ng
Ġi ar
ĠvÅ¡ et
le rin
Ġpa da
Ġbo i
àª¨ àª¾àªĤ
ĠÐ± ÑĥÐ»
áĢ¶áĢ¯ áĢ¸áĢ
Ġme jor
Ġà´ ¨àµįà´
ĠáĥĲáĥłáĥ ¡
ª à¸´à¸
à°¾à° ļ
çĽ ¸
à§ĭ à¦¸
te ko
Ġd Ã©p
Ġà´ª à´¿à´¨àµįà´¨
áĢ¶áĢ¯ áĢ¸
áĢĲáĢ½ áĢĦáĢº
áģ ¢
Î» Ïİ
ĠÐ´ Ð°Ð½
Ġà´ª à´¿
ÑģÐºÑĸ Ñħ
ĠÏħ ÏĢÏĮ
Ġà°ķ à°¾à°²
áĥĲáĥļ áĥ£áĥł
Ġå° Ĭé¾Ļ
ç» Ł
Ġíĺ ¸
Îµ Î¹Î±
à´¾ àµ½
à¦°à§įà¦ £
ĠÐł Ð°Ñģ
Ġáĥ¨áĥĶáĥ¡ áĥĲáĥ®áĥĶáĥĳ
Ùĭ Ø§
Ïģ ÏīÎ½
Ġà°¤ à°°
ÑĥÐ»ÑĮ ÑĤÑĥÑĢ
ľà¸¹ à¹ī
æī Ģ
ti sch
à¦¤ à§įà¦°
ĠáĥĽáĥĹ áĥĲáĥķ
· à¹īà¸Ń
om a
ĠÐĵ ÑįÑĤÐ°
ĠØ¯ Ø§Ø´Øª
Ġà°¸ à±įà°Ł
ķ à¹Īà¸²à¸
Ġàªķ àªĤàª
Ġc _
à§įà¦¯ à¦®
ĠF t
Ġà¤¹à¥ĭ à¤¨à¥ĩ
ti va
Ġm iej
à®µ à®¿à®²à¯įà®²à¯Ī
ç ĭ
Ã¡ val
æĴŃ æĶ¾
Ð¸Ð½Ð³ Ð°Ð½
à¤¯ à¥ĭà¤Ĺ
im in
ĠÑĩ ÑĤÐ¾Ð±Ñĭ
Ġê² Į
àª° àª®àª¾àªĤ
Ò ļ
ĠÑŀ Ð¹
Ġas s
ĠÙĦÙĪ Ú¯
unoa ÈĻte
ĠÐĲ Ð±
Ġy eni
Ġba tla
ĠÅ¡ o
Ġ×Ķ ×ķ×Ĳ
Ð½Ð¸ Ñı
Ġde t
à«ĩàª ¬
Ġe mp
Äį ÃŃ
Ġce le
Ġà® Ĳ
ëł ¤
Ġnigba ti
ĠÎ² Î¿
j Ã¤
Ġ0 6
I d
ĠÎºÎ± Î½
Ġof in
st en
Ġter m
Ġni bi
ÃŃ ch
Ñĺ Ð°ÑĤÐ°
Ġ ÉĻn
g je
Ġdir a
Ġblo ck
ãĥ Ħ
Ġpro du
á»į lu
ko a
Ġli pa
Ġàª¸ àª¹
áĢŃ áĢĻáĢº
g Äģ
àµ º
áĥĵ áĥĺ
Ķ à¸²à¸
Ġà°ļ à°¿à°¤à±įà°°
ĠAG çİ¯äºļ
Ġà¦ı à¦ĸà¦¨
Ġ Å¼y
Ġd h
Ġà´¨ àµĢ
áĢĲáĢ½ áĢĢáĢº
ĳ áĢ¬áĢ¸áĢ
áĢī áĢº
ÏĦÎ¿Ïħ ÏģÎ³
ĠÙĪ Ùħ
Ġà´ķ àµĨ
Ð°ÑĨÑĭ Ð¹
Îķ ÎĻ
à°¿à° ¡
ĠáĥĵáĥĲáĥ Ļ
ä¼ ł
ç ¼
Ġf r
ĠÎµÎ¯ ÏĩÎµ
Ġà´µà´¿à´ ¶
Ġà¦¸ à§įà¦¥
Ð°Ð»Ñĸ ÑģÑı
áĥĺáĥ ®
is ha
ĠÎ¼ÎµÎ³ Î¬
à±Ĥà° ¨
ĠÐ°ÑĢ Ð³Ð°Ð½ÑĸÐ·
· à¹īà¸Ńà¸
Ġè Ģ
it Ã©s
Ġà¦¦ à¦²
áĥĿáĥļ áĥĿáĥĵ
à¸´ à¸Ļ
Ġv z
Ð¼ ÐµÐ½
ãĥ§ ãĥ³
à±Ĩ à°Ĥà°Ł
ŀ à¸´à¸
ĠØ´ ÙħØ§
gy ar
à¦Ń à¦¾à¦¬à§ĩ
Ġj Ã³
Ġà¤¸à¤° à¤ķà¤¾à¤°
Ġà®® à®ķ
sion e
ĠØª Ùħ
Ġà¤ķà¤¾à¤° à¥įà¤¯
sz t
Ġà¤ ĵ
ÑĥÐ½Ð´ Ð°Ð¹
æĹł çłģ
àªķ à«ĩ
Ġju Å¼
ĠÐ»Ñİ Ð´
Ġà®ı à®±à¯įà®ª
Ð°Ð´ Ð°Ð½
Ð¾Ð» Ð°ÑĢ
Ġc or
Ġng Ãły
ÅĤ em
ĠÒ³Ð°Ð¼ Ð´Ð°
ãĤ¹ ãĤ¿
Ġb ja
Ġpar Ã«
ë¥ ´
Ð² Ð°ÑĤ
Ġb es
Ġm are
lu t
v Ã¡
p il
Ġà®ī à®¯
ĠP ara
Ġi do
ĠÎ´ Ïī
Ġcon s
2 9
Î»ÎµÏħ ÏĦÎ±
ĠÎ±Î¾ Î¹Î¿
Ġay eke
Ġ×ŀ× ¡
Ġk Ã©sz
Ġi ye
ÉĻh ÉĻr
âĢĮ ÙĩØ§
ĠÙĦ ÛĮÚ©ÙĨ
à«ĩàª ¦
ĠL E
ãģŁ ãģĦ
å® Ł
Ġo k
Ġer o
h lah
Ġmat la
ĠÐ½ Ð°Ð´
áĢģáĢº áĢŃ
f Ã¼
à´¨àµįà´¦ àµįà´°
Ġáĥĺáĥľ áĥ¤
à¸£ à¹Įà¸
Ġà°ħ à°¤
à¨ °
Ġà¦¸ à§ģ
Ġbar dzo
os sa
à´ķàµįà´ķ àµģà´Ĥ
áĢŃáĢ¯ áĤķ
áĢ¬áĢ¸ áĢĢ
áĢŀ áĢ±áĢ¬
Î¿Ïħ ÏģÎ³
Ġàª¨ à«Ģ
à´ķ à´³àµįâĢį
ĠÐ¼Ð¾Ð¶ Ð°
ĠÎ³ Îµ
à±ģà° ļ
ĠáĥĽ áĥĲáĥĺ
éĢ ī
4 4
Ġtra va
Î ¦
Ġà´İ à´¨àµįà´¤
Ġà¦Ń à¦¾à¦²
ĠÐ¿ÑĢ Ð°Ð³
áĥĿáĥĳ áĥĲáĥ¡
ÈĽ ia
Ġá¼ Ģ
à°° à°¿
Ñĭ ÑĢ
Ġà¸ Ĺà¸µà¹Ī
ç¾ ¤
ĠÄĳá»Ļ ng
à§Ģ à¦¦à§ĩà¦°
Ġáĥ« áĥĲáĥļáĥĺáĥĲáĥľ
Ħ à¹īà¸²
à®® à¯ģà®®à¯į
ĠÐ² ÐµÐ»ÑĮÐ¼Ñĸ
è© ±
à±ģà°ķ à±Ĭ
à¹ĥà¸ Īà¸
ÑĸÑģÑĤ ÑĮ
ka i
Ġà¦Ĩ à¦¹
ĠE z
Ġà¤µà¤¾à¤² à¥ĩ
Ùĥ ÙĪÙĨ
Ġsex o
n er
à¤¾à¤Ĥ à¤Ĺ
ant es
à¤¸ à¥įà¤¥
ĠÑĤ Ð¾Ð¿
Ġà¤¸à¤® à¤¯
k Ã¡
ÅĽ li
Ġ lar
Ġà®¨ à®¾à®Ł
ĠÑį ÑĢ
ÑĥÐ½ Ð¸Ð½Ð³
Ġya p
ĠÑĢ ÐµÐ³
Äĵ t
Ñĩ Ð¸Ð»Ð¸Ðº
Ġàªļ àª¾àª²
w ana
ĠS lov
ĠÄ ¾
ĠÚ¯ ÛĴ
it ta
çĦ¡ æĸĻ
Ð° ÑĩÐµ
í ĭ
Ã¶ z
ĠÑĥ Ð¶Ðµ
no ÅĽÄĩ
Ã¹ n
Ġ Ïİ
c co
A A
Î¯Î½ ÎµÏĦÎ±Î¹
Ġ @
Ġa yi
Äģd Äģ
f en
ĠC as
Ġàªª àª¾àª¸
h ur
ĠÙĦ Ú¯
nÃ© e
ant le
ãģª ãĤĵ
ãĤ ¬
Ð½Ð¾ Ñİ
Ġ201 6
em o
Ġà®ĩ à®²
ĠÐ¿ Ð¾Ð¿
áģ¿áĢķ áĢ®áĢ¸áĢ
en er
à´¿à´¯ àµĨ
Ġáĥ¡ áĥĲáĥĵ
Ġ à¹Ħà¸¡à¹Īà¸
à±ĩà° ¯
é¡ µ
à§Ģ à¦¤
à«ĭàª ¸
it tÃ¤
à´¿à´Ł àµĨ
áĢ»áĢģ áĢĦáĢ¹áĢ¸
ĠáĢ ĩ
Ľ áĢ¬
ÏĥÏĦÎ± ÏĥÎ·
Ġí ģ
à´¦ àµįà´¯
ĠÐ´Ð°Ð¿ Ð°Ð¼
ĠÏĮ Î¼ÏīÏĤ
à±ģà°² à°¨à±ģ
Ġáĥ¨ áĥĶáĥĵ
ä» ĸ
æ ¢
en Ã«
ÏģÎ¿ ÏįÎ½
Ļàµįà´ ķ
¯ à§
ĠÐ· Ð°Ð¼
ĠáĥĴ áĥĲáĥł
v v
ĠÎ¼ Î¹Îº
à°¾à°¨ à°¿
Ð²Ð° ÑİÑĨÑĮ
Ķà¹īà¸§à¸ ¢à¸
æµ ģ
Ġk w
à¦¿à¦ ĵ
áĥĲáĥĵáĥĴ áĥĶáĥľ
ģ à¹Ī
à¯ģà®ķ à®¿à®©à¯įà®±
Ñĸ ÑĨÑĨÐ°
Ġw sp
à°°à±įà° ª
ª à¹Īà¸§
ĠÙ¾ ÙĪ
la o
Ġà¦° à¦¾à¦ĸ
Ã£ o
é Ł
Ġt ous
Ġo m
Ġ×Ķ× §
à¤°à¥įà¤ Ł
ei te
Ġà¤¬à¤¹ à¥ģà¤¤
ĠÐº ÐµÑĢ
Ġà¤¸ à¥įà¤Ł
p Äģ
Ã³ b
Ġa qu
Ġdes pre
Ð¼ Ð°Ð¹Ð´Ð¸
ĠÐ· Ð°ÑĢ
se re
ĠÑĩ ÐµÐ»Ð¾Ð²
à«Ģàª ¡
Ð· Ð¾Ð´
ĠÄį as
c ri
Ùĥ Ùħ
ãģ Ĵ
ĠØ Ł
Æ°á»£ ng
ĠíĨ µ
Ġs ui
ĠÐ¾Ñĩ ÐµÐ½ÑĮ
âĢ ĺ
ci jas
Ġt jer
ir a
Î´ ÎŃ
Ġ ul
Ġh yn
Î¿Î½ ÏĦÎ±ÏĤ
ĠÎ± ÏĨ
om e
Ø§ÙĨ ÙĬ
ĠÐºÐ°Ðº Ð¾
o ro
k en
Ġàªľà«ĭàª Ī
ĠØ¹ ÙĦÛĮ
Ġà®µà®¿à® ³
Ã©n ek
Ð» Ð°Ð³
ÉĻb ÉĻr
ãģĪ ãĤĭ
Ġor iláº¹
ĠÙĩ Ø±
Ġt emp
ni ka
ĠáĢĸáĢ¼ áĢħáĢº
Ġì Ĥ
Ġà´İ à´²àµįà´²
áĥĿáĥľ áĥĺ
Ġà¹Ģà¸ĩà¸´à¸Ļà¸ Łà¸£à¸µ
à°° à°Ĥ
ä¸Ģ ä¸ª
Ġà¦¦ à¦¿à§Łà§ĩ
Ġfum ana
ĠÐ´Ð¾Ð» Ð¶
àµĨà´Ł àµģà´¤àµįà´¤
áģ ¥
áĢ¼ áĢ²
áĢŃáĢ¯ áĢľ
ÏĦÎ¿ Î¹
ĠÐ²ÑĬ Ð·
à´¸ àµįâĢĮ
Ñĸ Ð¼Ñĸ
Î¸ Ïħ
à°¾à° Ĥ
Ġáĥ¡áĥĲáĥ £áĥ
Ć Ĉ
ä¸Ń åĽ½
ÑģÑĮ ÐºÐ°
Ïĩ Î·
à´¿à´²àµĩ à´ķàµįà´ķàµį
Ġà¦® à¦¾à¦°
ĠÑŀÑģ Ñĳ
Ġáĥ§áĥķáĥĶáĥļ áĥĲ
ĠØ§ÙĦ ÙĬ
ĠÎķÎ»Î»Î¬ Î´Î±
à±Ģ à°ķ
ĠÐ¢ Ð°Ðº
Ġà¸ §
Ġ á
Õ¡Õ £
à¦¾à¦ ¡
ĠáĥĲáĥ ļ
à¹ģà¸ ¥à¸°
ĠbaÄŁ lÄ±
ĠÐľ ÑĸÐ½
Ġàªª à«ĭàª²
à°¾à°Ĥà° Ĺ
Ġà¸ §à¸´à¸
Ú© ÛĴ
bu ie
à¦¿à¦ Ĺ
Ġz as
à¥ĭà¤Ĥ à¤¨à¥ĩ
ë¬ ´
Ġt uo
éĸ ¢
à¤ ģ
Ã¼t Ã¼n
à¤µ à¤¾
ĠÐ±Ð¾ÑĪÒĽ Ð°
èį ī
Ã¡ nh
inÄģ t
em os
h men
Ð¸Ñģ Ð¸
ĠÑģ Ð°Ð²
Ġ×ľ ×¢
Ġv uo
à«įàª ¬
ĠÒĽ ÑĥÑĢ
Ġ, "
Ġto do
Ġt el
ĠO d
ÛĮØ§ Úº
ĠÐ¼ ÑĸÑģ
Ġba ng
Ġà®®à¯ĩ à®²
ìļ ¸
ĠÙħÙĦ Ú©
Ġin s
pa d
Ġa wá»į
Ġs y
ĠÙĪ ÛĮ
6 9
2 3
Â ¬
A R
Ùĳ Ùİ
çĶ »
h áº¹
j Ã¡k
ĠØ§ÙĦ Ø§
ÑĨÐ¸ Ð¾Ð½
Ġa re
Ġì ¶Ķ
ĠG r
ĠtÉĻ ÅŁ
ĠÛ±Û ³Û
pe le
Ùģ Ø±
Ġàª¨àª¹ à«ĢàªĤ
O S
áĢ¾ áĢŃ
Ġre c
àµģà´ķ àµ¾
Ġáĥ¡áĥĲáĥ¥ áĥĽ
Ħ à¸Ļà¸
à°¾à°ķ à±ģ
èµ Į
à¦¿à¦¨ à§įà¦¨
ãĢ Į
Ð°Ð¶ Ð´
à´° à´£
áĢ±áĢ Ĵ
áĢĶáĢ¹áĢ Ģ
ĠáĢ±áĢ ŀ
Ïĩ Ïī
Ð¾Ð² Ðµ
àµĢ à´¸àµį
ĠÐ¿ Ð°Ñŀ
ÎĹ ÎĿ
Ġà°µà°¿à° µ
áĥļ áĥĶáĥĳáĥĺáĥ¡
ĠåĪ Ĩ
é¦ ĸ
Ġies pÄĵ
ĠÎĳ ÏĢÏĮ
Ġà´ª àµģà´±
Ġà¦Ĩà¦® à¦°à¦¾
ĠÐ±Ñĭ Ð»Ñĸ
Ġáĥ¡áĥ®áĥķ áĥĲ
ĠÐ² Ð·
Î¹ Î²
Ġà°ªà±įà°° à°ķ
ĠÐ¿ Ð°Ð·
Ħ à¸²à¸£
å± Ģ
Ġd Ã¼ÅŁ
àªµ à«ĭ
Ġáĥĵ áĥĲáĥľ
« à¹ĩ
Ġà¦ľ à¦¾à¦¤
Ñŀ ÑģÑı
Ġà®ļ à¯ĩà®°
à±ĭ à°¡
à¹ĥà¸Ĭ à¹ī
Ġqu el
Ġn je
Ġt jet
ħ n
à¤¨ à¥ĭà¤Ĥ
lich e
´ Ī
cz Äħ
à¤¾à¤ £
Ġ×ĳ ×ª
à¤µ à¤¾à¤°
ÑĥÐ½ Ñĳ
Ġà¤²à¥ĭà¤Ĺ à¥ĭà¤Ĥ
Ġin i
à¦¾à¦¥ à§ĩ
Ġbu de
re k
ĠÐĲ Ð¼
ĠÐ±Ñŀ Ð»Ð¸ÑĪ
Ð¸ Ð³
m Ã¤n
à®Ļà¯įà®ķà®³ à¯Ī
ĠÐ¸ ÒĽ
à«ĩàª¶ àª¨
ĠÙĩ Ø³Øª
mbi Ã©n
ou ver
ãģķ ãģĦ
p t
áº¯ c
ÐµÐ½ Ñĸ
Ġë ©
Ø¨ Ø§Ø±
ãģ« ãĤĪ
s ts
Ġy an
Î²Î¿Î» Î®
Ġt om
Ġ0 5
Ġ0 8
Ġf f
Ġk uro
o re
k ÄĻ
rin a
m Äĥ
à®¨à¯įà®¤ à¯ģ
Ð¸ÑģÑĤ ÐµÐ¼
Åĳ s
Ġ×Ķ× ¡
Ġar t
Ġàªķ àª²
cz enia
Ġi wá»įn
Ġë ķĮ
ĠØŃÚ©ÙĪÙħ Øª
Ġem pa
áĢ¾ áĢ¬
r en
Ġà´¨ à´¿
áĥĶáĥ¡ áĥ¢
Ġà¹ģà¸ Īà¸
à±ģà° ¸à±įà°¤
Ġæĸ °
Ø§Ø¯ Ø©
Ð¸ÑĢ Ð°
Ð¾Ð± ÑĢ
Ġà´® à´²
ĠáĢ±áĢ Ĵ
áĢĲ áĢĦáĢ¹áĢ¸
Ĳ áĢļáĢ¹
Îº ÎµÎ¹
Ġk ir
à´¯ àµĨ
ÑĨ Ð°Ñŀ
ĠÏĥÏħ Î¼Î²
Ġà°ī à°¦
áĥĺáĥª áĥĺ
æµ ĭ
éĿ ŀ
ĠØ¯ ÙĪØ±
Î¸Îµ ÏĥÎ·
ķàµįà´ ·
k Äģr
Ñı ÑģÐ¿
áĥĶáĥķ áĥĶ
Ġà®ª à¯ģà®¤
Ïĥ Î¯Î±ÏĤ
à±ĩà° ľ
ĠÐŁ ÑĢÑĭ
à¸Ńà¸ Ķà¸
Ġà¤Ĩà¤£ à¤¿
Ġà¦¤ à¦¬à§ĩ
os Å¥
áĥĺáĥĻ áĥ£áĥłáĥĺ
¥à¸ ·à¸Ńà¸
Ã¨ n
ĠÐ¡ Ð¿
Ġst r
Ġà°® à±ģà°Ĥà°¦
«à¸ ±à¸
àª° àª£
Ġsh p
Ġpro f
sch a
à¥ĭ à¤°
ÉĻc ÉĻk
Ġka ik
Ġin t
Ġà¤¤à¤° à¤¹
ÐµÐ½Ð¸ ÐµÐ¼
Ġà¤¦ à¤¿à¤²
ĠÑģ Ð¾Ð½
Ġà¤¬ à¤¤
à¯įà®¨à¯įà®¤ à¯ģ
á»± c
Ġal le
Ð¿Ð¾Ð² ÑĸÐ´
Ð´ Ð¸Ð½
Ñĥ Ð´Ð¸
Ġfa ce
j Ã¡t
Ġàª°àª¹ à«Ģ
ĠÐºÐµÑĢ Ð°Ðº
an y
à®µ à®°
cia s
Ġà¦ķà¦¾à¦° à¦£
ĠÙĩ Ø°Ùĩ
ÑĤ ÑĢ
Ø³ Ø±
Ġàª¦ à«ĩàª¶
Õ¡Õ °
diy i
×ķ× ĺ
ãĥĩ ãĤ£
Ġa fi
ha u
Ã¨ res
ĠÎĳ ÏĢ
ÏĦ ÎµÎ¹
4 0
ko ko
ĠLatvi jas
Ä«g a
Ġo ru
Ġmiej s
ë§ ¤
Ġbo hlo
ti vo
Ġdre j
ëł Ī
ÑģÐº Ð¸Ðµ
è¨ Ī
ĠNi gba
ar Äĥ
Ġ38 09
Ð¾ÑĢ Ð¸ÑģÑĤ
»áĢģ áĢĦáĢ¹áĢ¸
Ø´ Ú¯Ø§Ùĩ
à´ķ à´¾à´°
ĠáĥĹáĥĳ áĥĺáĥļáĥĺáĥ¡
«à¸ ¥à¸²à¸
Ġà°° à°¾à°·à±įà°Łà±įà°°
ĠâĢ ķ
k ki
is te
ĠK Äį
àµĬà´° àµģ
áĢĳ áĢ²
áĢ±áĢĲáĢ¬ áĢ¹áĢ
áĢ¸áĢ±áĢ ĲáĢ¼
Î¾ Î·ÏĤ
Å¡ tÄĽ
Ġà´ĩ à´Ł
ĠÑı ÐºÐ°Ñı
Î®Î¼Îµ ÏģÎ±
Ġà° ĸ
ĠáĥĲáĥĵ áĥĴ
æ ·
Ġè ¯
à®® à¯įà®®
Îķ ÎĽ
à´¸ àµįà´¤
da j
Ðº Ð°Ð¼Ñĸ
ĠáĥĻ áĥķ
á» ĥ
ĠÎ¹ ÏĥÏĦÎ¿
Ġà°ª à°¦
ĠÐ³ Ð¾Ð´Ð·Ðµ
ª à¹Į
è ĥ
à¯ģà® Ļà¯įà®ķ
tsa ng
áĥ§ áĥĿáĥ¤
ģà¸ ³à¸
Ã¡s z
ĠÑı ÑŀÐ»Ñı
e j
à±Ĩ à°°
à¸£ à¹Į
ĠÐĿ Ð¾Ð²
ĠØ³ Ø§Ø²
Ġbi ja
Ġà¦¤ à¦¾
à¤Ĥà¤¤ à¥įà¤°à¥Ģ
het Åĳ
Ġme hr
ĠÚĨ Ø§Ûģ
à¤ķ à¤¿
Ð¼ Ð¾ÑĤÑĢ
Ġå¤ ©
Ñģ ÑĥÐ»
Ġà¤ķ à¤¾à¤®
Ġà®¤ à®°
c Ã©
è ¼
ë Ķ
ĠÑĳ ÑĪ
ĠÐ½ Ð°ÑĢ
iy o
Ġro ku
Ġy ar
Ð»Ð°ÑĢ Ð¸Ð´Ð°
ĠØ¨Ø§ Ø´Ø¯
àª¾àª¨ à«ģàªĤ
ÙĬØ± Ø©
Ġnel la
æ§ ĺ
ÑĥÑİ ÑĤÑĮ
à§Ģ à¦Ĺ
à¦² à§įà¦ª
Ġha o
el Åĳ
Ġa da
Ġnd ry
Ġ? ?
ĠÎº Î¿Î½
à®Ł à¯įà®ļ
ĠÎ¬ Î»
ĠÎºÏĮ Ïĥ
Î½ Î¬
Ġo ke
ĠÑģÑĤ ÑĢÐ°Ð½
Ġa ur
yáº¹ whe
ãĥ Ľ
eg en
Ġi tem
Ġë Ħ
ri i
Ġnu est
ĠØ§Ø³ ÙĦØ§Ùħ
d es
ĠLa ti
à«Ģàª ª
ĠÙħ ÛĮØ±
Ã¢ u
áĢ±áĢĽ áĢ¸
ĠÙħ Ø³ÙĦ
àµĭ à´§
áĥĴ áĥĲáĥľ
¡ à¸Ļà¸
à°¿à°Ĥà°ļ à±ĩ
åº Ĩ
Ġjo ka
Ġc el
Ġs ena
à´ķàµįà´ °
ĠáĢĽ áĢ½áĢŃ
áĢĦáĢ· áĢ¹áĢ
ĠáĢ»áĢķ áĢĬáĢ¹áĢ
ĠÏĥÏħÎ½ Îµ
ãģ ¸
àµĭ à´²
Ð½ Ð°Ð»ÑĮ
Î»Î¯ Î¿Ïħ
Ġà°ļà°¾à°² à°¾
Ġáĥ¡ áĥŀ
åį ģ
Ġ20 20
Ġà®® à®¾à®¤
ĠÎ² Î¬
Ġà´¶ àµįà´°
ta do
ĠÐ¿ Ð°Ð¿
áĥĺáĥľ áĥĺ
à¦¨à§įà¦ ¨
ÏĢ Î¹Ïĥ
à°¿à°¯ à°¾
ÑĢ Ð°ÑĨ
Ĥà¸¶ à¹īà¸Ļ
è¢ «
à®µ à®°à¯į
Ġàªľ àª¾àª¯
áĥĶáĥĳ áĥĶáĥļ
ª à¸£
Ġ×Ķ× Ľ
ĠÐºÐ°Ð¼ Ð¿
y an
Ġà°¤ à°®
ļà¸ ±à¸
Ð½Ð¸ ÐºÑĸÐ²
ĠëĤ ¨
ÑĬÐ» Ð³Ð°ÑĢ
Ú© Ùĩ
Ġà¤® à¥Į
Ð² Ð°Ð½Ðµ
\ "
Ø§Ø¨ ÙĤ
è ķ
iÄĻ k
à¤Ĥ à¤ª
Ð°Ð¼ Ð»
à¤° à¤£
à¯Īà® ®
b ÃŃ
à¦¿à¦ ĸ
àªµ àª¾àª°
ĠÑįÑĤ Ð¸ÑĪ
Ð»Ð¸Ð³ Ð¸Ð½Ð¸
ĠÐŁ Ð¾
me ve
ver s
ĠÒĽÑŀ Ð»
ĠÕ ½
Ġt ÉĻs
ä¾ ¡
Øª Ùĩ
u jara
ĠÐ¾Ñģ Ð¾Ð±
à¦¾à¦¨ à¦¾
Ġngo e
Ġloke la
a do
ce j
à¦¿à¦ ı
e e
Î¶ Î¯
à®µ à®°à¯įà®ķà®³
2 7
Ġ> <
Ïĥ Î¼Î±
ĠF a
Ġc ol
ÑĢÐµ Ð±
ĠE yi
ë¡ Ŀ
ãĤĵ ãģª
m Ã¡ny
uy Ãªn
æ© Ł
t Ã¶
ĠÚĨ Ú¾
Ø¯ Ùħ
gh t
ĠàªŁ à«įàª°
Ð¾Ð² Ñĸ
Ġjs em
áĢ¯áĢ¶ áĢ¸
Å¯ j
à´¿à´ļàµįà´ļ à´¤àµį
Ġáĥ¡áĥĲáĥ ¨
à¹Ģ à¸Ļà¸
à±ĩ à°Ĥà°¦à±įà°°
åľ° åĿĢ
y on
Ġvet Ã«m
ĠbÄĻ dzie
Ġà´ĩ à´µ
áĢŃ áĢĶáĢº
ģ áĢ«
ĠáĢ¥ áĢ®áĢ¸áĢ
ĠÎ£ Î¥
Ġ×ĳ ×Ķ
àµĩà´° à´³
Ð² Ðµ
ĠÎĶÎ· Î¼Î¿
à°°à±įà° ®
Ġáĥ£áĥ¤ áĥłáĥĿ
ç ¬¬
ç ģ
à®² à®¿à®²à¯į
ĠÎºÎ±Î¸ ÏİÏĤ
àµĨà´Ļàµįà´ķ à´¿à´²àµģà´Ĥ
Ġdi re
ĠÐ±Ñĭ Ð»Ð°
ĠáĥłáĥĿáĥĴ áĥĿáĥł
à§Ł à§ĩà¦°
ĠÎļ Ïħ
à°¿à°ª à±ĭà°¯
ĠÑģÐ¿ ÑĢÐ°Ð²
à¹Ĥà¸£à¸ĩ à¹ģà¸£à¸
æľĢ æĸ°
d ÃŃ
ĠàªĨ àªĹ
Ġáĥ¡áĥĲáĥ ĸ
ŀ à¸´
l wa
Ñĳ Ñŀ
Ġe dÉĻ
à°°à±įà° ¥
łà¸ ±à¸
ĠØ§ Ú¯Ø±
ik Äģ
ĠA b
ĠN u
à¥įà¤¯ à¥ĭà¤Ĥ
Ġno tre
le j
z o
à¤ķ à¥įà¤Ł
it te
à¤¾à¤¤ à¥įà¤°
ĠÐº Ð°ÑĢÐ´
ĠåĽ ½
ĠFran ce
ĠÑģÐ» ÐµÐ´
Ġà¦¸ à§ĩà¦ĩ
Ġàª¬ à«ĩ
ĠÐº ÑĥÐ½Ð¸
Ð°Ðº ÑĤ
à®ļ à¯į
ĠÐ· Ð±
U R
ĠÐ¼ ÐµÐ³
ÈĻ ti
Ø· Ø©
va d
íĨ µ
ĠÅ ļ
Ġàª¤à«ĩ àª¨à«ĩ
Ġà¦ªà¦° à§įà¦¯
Ġdey il
Ġv ii
ĠÂ ·
ĠV or
ĠÐ¾Ð± Ð»Ð°ÑģÑĤ
p áº¹
go l
áº· c
Î¾ ÎµÎ¹
Î¼ Î±Î¹
ÏĥÏĦÎ¹Î± ÏĦÏĮ
Ġpa a
ÑĤ Ñĸ
ier w
Ġimá»į ran
Ã ĭ
j mÃ«
cion al
éĸ ĭ
n om
Ð°Ð» Ð¸Ð·
Ġes sere
ra ng
Ġo rin
à®¿à®¯ à¯ĩ
Ù¹ Ú¾
k ar
ĳ áĢ²
×ķ ×Ļ
àµįà´ ¨
ĠáĥĽáĥ® áĥĿáĥļáĥĿáĥĵ
à¸Ńà¸¢à¹Īà¸²à¸ ĩ
Ġà°ªà±įà°° à°ľ
æ¬ ¢
Ð¸ Ð¶
Ġs ho
Ġàª¨ à«ĭ
àµ¼ à´¤àµįà´¤
ĠáĢ±áĢ ķ
áĢ±áĢĢ áĢ¬áĢĦáĢ¹áĢ¸
ĠáĢ±áĢ ¡
Î´ ÎµÎ¹
Ġà¦ķ à§ĩà¦¨
Ġà´¸ à´¹
Ñĥ ÑĩÑĭ
ÏĢÎ· ÏģÎµ
Ġà°¸à°¿à°¨à°¿à°® à°¾
áĥĶáĥ ŀ
å ŀ
ĠãĢ Ĭ
Ġjs ou
Ïĩ ÏģÎ¹
à´ķàµįà´ķ à´¾à´°
Ġv os
ĠÑĤ Ð°Ð³Ð¾
áĥ£áĥ ¥
ĠØ¨ ÙĬÙĨ
Ïĥ Î¿ÏħÎ¼Îµ
à°¿à°ķ à°¾à°°
ĠÐº ÑĥÐ»ÑĮÑĤÑĥÑĢ
Ġ à¹Ħà¸Ķà¹ī
å¾ Ī
Ġin c
ÃŃt Ã³
áĥĲáĥ «áĥļ
«à¸£à¸ ·à¸Ńà¸
í Ĥ
ĠÑģÐº Ð»Ð°Ð´
ĠÛģÙĪ ÙĨÛĴ
¸ à±įà°¥
ģ à¸£à¸£à¸
ku u
Õ £
Ġd ÉĻy
el t
à¶ »
b les
ĠÅ¡ t
Ġà¦¶ à§ģà¦°à§ģ
åķ ª
Ġà®ħ à®ªà¯įà®ª
Ġà¤µ à¥ĩ
Ð°ÑģÐ¸ Ð³Ð°
Ġæ¬ §ç¾İ
Ġan s
ju m
cz nie
im it
ĠÑĤ Ð°Ð²
Ð»Ð¸ ÒĽ
ma k
Ġà®ļ à®¨à¯įà®¤
c ou
ĠÑį ÐºÐ°Ð½
ãģĹãģ¦ ãģĦãĤĭ
àªµàª¾àª¨ à«ĭ
Ð°Ðº ÐµÐ´
Ð½Ð¸ Ð¾ÑĤ
te g
ĠÐ¿ÑĢ Ð¾Ð³
Ġku in
Ø§Ø¯ ÛĮ
Ġ×Ķ× Ĵ
i te
Ð½Ð¾ ÑĤÐ¾
ÑĢ Ð¾Ðº
Ġo po
h y
Ġà¦¹ à¦¿à¦¸
Ġbo d
Ġ0 1
ĠÎ½ Îµ
ĠG bo
Ġd ÉĻr
Ġà®İà®© à¯į
ĠJi whe
ĠØ§ÙĦØ° ÙĬ
in k
Ġja ko
Ġdi en
Ġh asz
ĠÑģ Ñĩ
C I
li za
ĠJiwhe yáº¹whe
à¯Ĥ à®°
Ġëį Ķ
çľ Į
ĠáĢ ¦
ĠkÃ¶n nen
à´¯ à´¿àµ½
Ġáĥ¡áĥĲáĥ Ķ
ªà¸´ à¸Ļà¸
à±įà°° à±Ĩ
è Ļ
ĠØ§ Ûģ
ĠÐ°Ð² ÑĤÐ¾Ð¼
Ġh lah
Ġà´µ à´¿
áģ ģáģ
Ľ áĢ½
áĢ ĵ
ĠÎ¿ Î¼Î¬
Ġãĥ ŀ
Ġà´ķ à´°
ĠÐ³ ÑĥÐ»ÑĮ
ÏĨ Ïħ
Ġà°ļà±ĩà°¸ à°¿à°¨
Ġáĥĵáĥĺáĥĵ áĥĺ
ç¤ º
ç§ į
àª°à«įàª £
ĠÏĥÏħ Î³
Ġà´ķ àµĩà´°à´³
ti ques
ĠÐŁ ÐµÑĢ
áĥĺáĥłáĥ ĵ
ra m
ĠÎ¬ Î½
Ġà° Ĳ
Ñĩ Ð°Ð¹
à¹Ĥà¸ ¥à¸
çĿ Ģ
ku ar
ĠØ§ Ø¬
ĠáĥĶ áĥ¥
Ġà¸ ¢
Ã¸ r
Ð² Ñı
wie t
Ġà°ľ à°¨
à¹ Ĭà¸
Ġma gyar
b rie
ĠÕ ¾
Õ¡Õ ¬
Ġà¤¹à¥ĭ à¤¤à¤¾
a ux
ÃŃ as
Ġà¦ı à¦²
Ġà¤ľ à¥Ī
Ġà®ī à®±
Ġà¤¹à¥ģà¤ Ĩ
ĠÐ¾Ð´ Ð°Ð¼
à¤¸ à¥įà¤Ł
Ġe ff
z na
le le
ĠØ± Ø³
Ð ĳ
ĠÑĦÐ°Ð¾ Ð»Ð¸
Ġàª¤ à«įàª°
à¯Ĭ à®°
Ġf in
ĠÑĥ Ð½Ð¸Ð½Ð³
ĠÐł Ðħ
ĠÐ½ Ð°Ð¹
Ùģ Ø©
à§ģà¦ §
ĠkÃ¶ r
ĠÑįÑĤ Ð¾Ð¼
Ġw ana
Ġm os
Ã¡ p
à«Ģ àª¨à«Ģ
Ġm ol
Ð» ÐµÐ¼
r is
ĠÏĩÏī ÏģÎ¯ÏĤ
Ġìĸ ´ë
Î¹Î½ Î®
Ġ1 B
ĠÎµÏĢ Î±
ĠB i
Ã¼r k
à¦¾à¦ ī
Ġá»Į lá»į
ãģª ãĤī
Ġ×© ×Ĳ
Ġda lam
bel isoa
me ng
ĠÐ¼ Ð¾Ð³
ĠÚ¯ Ø¦ÛĮ
h ta
Ġw á»į
Ġr Ã³w
ĠãĤ ¤
à«ģ àª¸
áĢĲáĢ½ áĢ±
rim on
Ġà´¨à´¿à´° àµįâĢį
áĥĶáĥĳ áĥĿáĥĵáĥĲ
«à¸Ļ à¹īà¸²
Ġà°¦ à±ĩà°¶
å¦ Ĥ
Ġn um
re ich
à®¿à®¯ à®¿à®©à¯į
àµģà´¤ à´¿à´¯
ĲáĢ¼ áĢĦáĢ¹
áĢĬ áĢ¬
áģ ¤
ĠÎ³ Î½Ïī
ĠØ¯ Ùĩ
àµģà´ķ àµĬ
ĠÑĥ Ð·
Î´ ÏģÎ¿
à°¬ à±įà°¬
Ġáĥ £
åħ ¶
äº Ľ
Ġà¦® à§ģ
âĢ ¦
à´¿à´ķàµįà´ķàµģà´¨àµįà´¨ à´¤
al itÃ©
ÑĢÐ° ÑĨÑĮ
Ġáĥ Ń
Ã¶y Ã¼k
ĠÏĦ ÏģÏĮ
à°¾à°¦ à±ģ
ĠÐ ®
Ĭà¸ ¸à¸
à¥įà¤¯ à¤¾à¤ļ
r Ã³l
te ng
áĥĲáĥķáĥ¨ áĥĺáĥł
Ĭ à¸µà¸
Øµ ÙĦ
ĠÐ³ÑįÑĤ ÑĭÐ¼
Ġn Ã¤
Ġà°® à±ģà°
Ħà¸£à¸Ķà¸´à¸ ķà¸
Ġ×ľ ×©
d s
lÉĻrin in
es en
Ġà¤ī à¤¤
ĠV o
Ġi k
Ġà¦¤à¦¾à¦° à¦¾
Ġà¤ĩà¤¸ à¤ķà¥ĩ
éĢ ģ
Ġà¤¦à¥įà¤µ à¤¾à¤°à¤¾
ĠÒĽÐ¸Ð» Ð¸Ð½
à¥Ĥ à¤¸
or s
Ã² n
ĠM u
Ġë° ľ
ĠÑĤÐ°ÑĬ Ð¼Ð¸Ð½
ĠÐ± Ð°Ð»
p is
for ma
ĠÙ¾ Úĳ
ĠÐ¹Ñŀ ÒĽ
èī ¯
Ġàª¤à«ĩ àª¨àª¾
Ġà®ħ à®²à¯įà®²
ÄŁ i
a ciÃ³n
ul t
Ġm ÉĻr
Ñĸ Ð¶
Ġà¦ª à§ģà¦²
ĠÙĩ ÙĪ
Ġàªķàª¹ à«įàª¯à«ģàªĤ
ĠÐº Ð¾Ð¸
Ġdara dara
Ġc y
le d
ĠÎ¼ÎµÎ³ Î±Î»
Î´ Ïİ
ĠÏĦÎ¹ Î¼
gb as
ÑĢÑĥ Ð¿
à§ĩà¦² à§ĩ
Ġi t
ãģĤãĤĬ ãģ¾ãģĻ
Ã Ĭ
Ġv iá»ĩc
ĠØ¨Ûģ Øª
ÉĻd ÉĻr
Ġsa j
go lo
Ġni in
Ġiwa di
Ġz d
Ã³ d
×ŀ ×¨
áĢĲáĢ¼ áĢĦáĢ¹áĢ¸
ĠD om
Ġà´ħ à´Ń
áĥĶáĥĳ áĥĶáĥľ
à¹īà¸²à¸ ĩ
à±ģà° ¬
ä¸ ľ
ĠØ¬ Ùĩ
íķ Ń
Ġàª® à«Ĥ
Ġà´¸ à´¿
ĠáĢ¡áĢ² áĢĴáĢ®
±áĢ ¡
ģ áĢ¯
Î Ĵ
Ġs pe
à´° àµĨ
Ð´Ð· Ñı
ÎĻÎļ ÎĹ
Ġà°® à±Ĥà°
áĥł áĥĲ
æł ·
è¶ ³
à¦ķ à§ĩà¦°
ĠÎ±Î½ ÏĦÎ¯
àµĭà´Ł àµĨ
ĠÐ¾ÑĢÐ³Ð°Ð½ Ð¸Ð·
ÑģÐºÑĸ Ð¼
áĥĶáĥ £áĥļ
Ġh i
Î¼ Î¯
Ġà°µ à°¸à±įà°¤
ĠÐ±Ñĭ ÑĨÑĮ
à¹ģ à¸Ļà¸
è ¥¿
Ġw ur
ari os
Ġáĥ¬ áĥ§
ģ à¹ĩ
Ñİ ÑĤÑĮÑģÑı
Ð°ÑĢ ÑĤ
Ġdi k
à°¬ à°¡
Ġà¸ ģà¸²à¸£
Ùĥ Øª
ë ¯¼
Äģ l
Ġfil es
Ġà¤Ĺ à¤ı
Ġpers onn
ĠS uom
à¦ŀ à§įà¦ľ
à¤° à¥ĭ
ka is
à¶ Ń
ĠÑĤÐ°Ð´ Ð±Ð¸ÑĢ
20 19
Ġm irÃ«
ĠF e
à«Ģ àª®àª¾àªĤ
c um
ĠÑĩÐ¸ÒĽ Ð°ÑĢ
Ð°Ð¼Ð» Ð°ÐºÐ°ÑĤ
ĠÐ¼ ÐµÑĤ
Ġâ ľ
Ġë° ı
ĠÒĽ Ð¸Ñģ
Ùĩ ÙĨÚ¯
Ġpri mer
Ã¡c ie
ĠÑı Ð²Ð»Ñı
m ie
c or
ĠØ§Ù ı
Ġya z
Ġà¦¨ à§ĩà¦¤
àªĹ àª°
ĠØ¨ Ø¯
Ġz ijn
á»į rá»į
ĠÏĢÏģÎ¿Ïĥ Ïī
Ġk Ã¤
ĠÎ» ÎŃ
ĠÎŃ Îº
3 5
Ãº n
Ġala p
Ġà¦¹à¦ļ à§įà¦Ľà§ĩ
to rina
Ġa po
Ġaut res
Ġà®¤ à¯ĭ
àª°à«įàª ¸
Ġph áº£i
Ġãĥ Ĳ
ĠR o
ĠãģĿ ãĤĮ
Ġw hen
Ġet mÉĻk
Ġà®ª à¯ĩà®ļ
Ġ×Ĳ ×ķ
áĢĻáĢ» áĢ¬áĢ¸
ĠC unoaÈĻte
Ġà´ªà´±à´ŀàµįà´ŀ àµģ
ĠáĥĻáĥĿáĥĽ áĥŀ
à¹Ģà¸ Ĺ
Ġà°¸ à±įà°ª
è¯ ·
p ri
Ġ0 2
S T
àµĭà´Ł àµį
áĢŃ áĢĲáĢº
áĢĢáĢ¹áĢ ŀ
áĢ±áĢ¬áĢĦáĢº áĢ¸
ĠÏĩÏģÏĮ Î½Î¹Î±
ÑģÑĮ ÐºÑĸ
Ġà´İ à´Ĥ
Ð»Ñı Ð´
ÎµÎ¹ ÏĦÎ¿ÏħÏģÎ³
Ġà°ħ à°Ĥà°Ł
Ġáĥł áĥĶ
æĽ ´
èģ Ķ
Ġà¦¸ à¦¾à¦¥à§ĩ
Î¼Î² ÏģÎ¯Î¿Ïħ
Ġà´ª àµĨ
c uri
ÑıÐ´ Ð¾Ð¼
ĠáĥĽ áĥĿáĥķ
Ø¹ Ùħ
Î¼Î¹ Î¿ÏħÏģÎ³
à±ĩ à°¨
ĠÐ³Ð°Ð´ Ð¾Ñŀ
¢ à¹Į
ç§ ĳ
ĠÐ± ÑĬ
ÅĨ a
Ġáĥ¨áĥĶ áĥĺáĥ«áĥļ
§à¸ ¥
Ġel len
ĠÐ³ Ð°Ð»
le p
Ġà°® à°¾à°¤à±įà°°
Ġà¸ ¢à¸
Ġka ma
N o
h u
Ð¾Ð² Ð¸
A V
Ġh ar
Ġà®ķ à®¿à®Ł
ĠD z
à¤Ĥ à¤ľ
ÐºÐ° Ñĩ
Ġà¤¸ à¥ĭ
Ð ¨
à¤µ à¥Ģ
ĠÐľ Ð¾ÑģÐº
y or
Ġàª¶ à«ģàªĤ
Ġà¦¸ à¦¦
ĠÑĢ Ð¸Ð²
Ð¸Ð» Ð¸ÑĪ
ĠÐ¾ ÑģÑĤ
ĠìĽ Ĳ
ï ¾
ĠÐ¼Ðµ Ò³
ãģ§ãģį ãĤĭ
ci i
Ġà®Ĩ à®°
Ġhlo ka
Ø§Ø «
om o
ì² Ń
Ġtika i
à¦¨à§įà¦¤à§įà¦° à§Ģ
àª¾àªĤ àªļ
Ùģ ÛĮ
ti m
á»į kan
ĠÎ¼ Î¯Î±
ĠE t
Ġ3 5
Î¯Î¶ ÎµÎ¹
Ġgy da
Ġáº¹ ká»į
em ents
à¦¾à¦° à§įà¦¥
ĠA f
ĠÐ¿ÑĢ Ð¸Ð¼
Ġz osta
à¯Īà®ķà¯įà®ķ à¯ģ
Ġàª¨ àª¾àª®
Ġest Ã¡
ãģĪ ãģ¦
gl ia
ãĢ ħ
ĠM i
Ø¹ ÛĮ
Ġr om
Ġth Ãłnh
áĢĽ áĢĦáĢ¹
ti ce
Ġà´µ àµĪ
áĥ ©
Ġà¸ Ī
Ġà°ľ à°°
æĢİ ä¹Ī
Ġà®ħà®µ à®°à¯įà®ķà®³
ì§Ģ ë§Į
àª° à«ĭ
à´· àµįà´Ł
áĢĬ áĢ·
áĢľ áĢ¯áĢķáĢº
áĢ¯áĢŃ áĢĦáĢ¹áĢ¸
Ïħ Ïĩ
ĠÐ· Ð°Ñģ
Ġà´¨ à´¿à´¯
ĠÐ´ Ñį
ĠÎ¬ Î»Î»
Ġà°®à±Ĭ à°¦
Ġáĥ£áĥ Ľ
Ġç »
Ġæ Ŀ
Ġà¦¸ à¦Ń
Î±Ïĥ Î¯Î±
à´Ļàµįà´Ļà´³ àµģà´Ĥ
Õ ¬
Ð· Ðµ
ĠáĥĲáĥķ áĥ¢
Õ¥Õ ½
Î½ Ïİ
Ġà°µà°¿à° ľ
Ð° ÑİÑĨÑĮ
à¹Īà¸²à¸ ¢
æķ Ļ
Ġq o
Ġda u
Ġáĥ¡áĥĲáĥ ĺ
Ħà¸ ´à¸
Ø£ ÙĨ
Ð´ Ð¶
k k
à°µ à±įà°µ
Ĺà¸µà¹Īà¸ ªà¸¸à¸Ķ
ĠC e
Ġgjith Ã«
Ġma g
tor ul
Ġà¤¨ à¤¾à¤®
b eit
à®Ł à¯į
Ġk het
à¥ĩ à¤¨
ĠÐ´ ÐµÐ½ÑĮ
èķ ī
ĠÒ³Ð°ÒĽ Ð¸Ð´Ð°
Ġà¤¹ à¤°
ĠÑĢÐµ ÑĪ
l he
Ġàª® àª¨
à¦¥ à¦®
ĠÐŁÑĢ ÐµÐ·Ð¸Ð´
ĠÒĽÐ°ÑĢ Ð¾ÑĢ
ĠSex o
Ġpar ti
skie go
Ð´ ÐµÐº
Ã¡l ne
li mo
c ak
Ġli ng
Ð°ÑĨÐ¸ Ð¾Ð½
lara q
Ø® Øµ
v nÃŃ
Ġà¦¬ à¦¿à¦°
àª° àª¸
Ġa tÃ«
ì° ¨
Ġg áº¹gáº¹
Îµ Î²
ĠS u
Î¸ ÏħÎ½
ĠÎ¼ Î¬
ĠÎº ÏģÎ¹
e de
d ow
à¦¾à¦ Ń
G B
Ġfiles _
Ġpar t
×ŀ× ª
à«įàª¯ àª¾àª°à«ĩ
æĮ ģ
Ã¡l l
ĠÐŁ ÑĢÐ¾
± c
in rin
Ġà®ļ à®°
Ġb is
ĠÐ´ Ñĸ
Ł áĢ¬
Ñĥ Ñī
àµĨà´¯ à´¾à´£àµį
áĥĺáĥĵ áĥĲ
à¹Ģà¸ Ĭ
Ġà°ªà°¾à°°à±įà°Ł à±Ģ
èĢ ģ
Ġt ek
ÛĮÚ© Ú¾
¦ à«įàª°
àµĩ à´¾
áĢħ áĢ¯
áĢħ áģ¥
áĢ±áĢ Ĳ
ÏĦ Ïĥ
Ġg ÅĤ
Ġà´µà´¿à´ ¦
ÑĨ ÐµÐ¹
ĠÎµ Î¹Ïĥ
Ġà°¨à±ĩ à°¨à±ģ
áĥĶáĥĳ áĥĹ
åİ »
åĪ Ĺ
Ġà§ §
ĠÏĥÏĩ ÎŃ
Ġà´ļ à´¿à´¤àµįà´°
ĠÕ¸ ÖĤ
ĠÐĲ Ð»Ñı
áĥĹ áĥ®áĥķ
ĠgÃ¶ z
ĠÎ£ ÏĦÎ·
Ġà°ľ à°°à°¿à°Ĺ
ĠÐ» ÑĸÑĤ
Īà¸ °à¹Ģà¸
æİ Ĵ
in Äĥ
Ġm bi
áĥĿáĥľ áĥĺáĥ¡
łà¸²à¸ ŀ
Ġdz Ä«
Ñģ ÑĨÑĮ
la l
à±įà°¯ à±Ĥà°
à¸£à¸µà¸ §à¸´à¸
à®ªà¯įà®ªà®Ł à®¿
Ġa by
ĠØ§ ÙĨØ¯
Ġha b
Ġà¤® à¤¨
c ch
Ðµ ÑĩÐµ
Ġk en
Ġà¤īà¤¨à¥įà¤¹ à¥ĭà¤Ĥà¤¨à¥ĩ
Ġìĭ ¤
Ġà¤¸à¤ķ à¤¤à¤¾
Ñģ Ð¸Ñı
Ġà¤ª à¥Ī
ĠÐ´ Ð¾ÑģÑĤ
Ġtse ba
Ġàª¬ à«ĭàª²
Ġà¦ķ à¦²
Ð¸ÑĤ Ð¾Ð±
Ð² Ð°Ð»
à®± à¯ģ
Ġver il
ÙĨ Ø©
ĠÐ¿ Ð°Ð¹
ĠS o
Ġts hw
ĠØ¢Ùħ ÙĪØ²
ãģ« ãģ¤
ĠUn ter
ÙĦ Ùĩ
×ĳ ×¢
Ġc os
Ġà¦ªà§ģà¦² à¦¿à¦¶
Ġàª° àª®
ek si
z at
áº¹ áº¹
ĠÎ²Î± Î¸
ĠÑĤÐ°Ðº Ð¾Ð¶
ĠÎ¼ ÏĢ
Ġme wn
Î» Î¹Î±
Ġh áº¹n
Ġr Ã©p
Ġà¦ªà§įà¦° à¦¶
Ġv wo
Ġm il
Ġê± °
ç Ł¥
à« §
ĠÛ °
Ð° Ñĺ
Ġd ari
à®¿à®ķà¯įà®ķ à¯ģ
Ġm Ã¬
der n
ÙĬ ÙĪ
Ð¾Ð± Ñī
áĢĦáĢ¹áĢ ľ
ĠÛģ Ø±
àµĤ à´°
Ġáĥ§ áĥĿáĥķ
Ħ à¸Ļ
à°² à±įà°²à±ĭ
å¸ ¸
jo t
ku wa
Ġàªķ à«ĩàªŁàª²
à´® à´¾à´ķàµįà´ķ
áĢ±áĢ ĺ
áĢĬ áĢ®
± áĢĢ
Î±Î¹ Î¿
p l
Ġà´¤àµģà´Ł à´Ļàµįà´Ļ
ĠâĢĿ .
ĠÎł Î¡
à±ĩà°¦ à±ģ
áĥĵ áĥĶáĥ¡
å¯ ¼
å¾ ĭ
Ġà§§à§ ¦
ÏĨ ÏĮ
Ġà´ķ à´Ł
Ġt ÉĻm
Ñı Ñģ
ĠáĥĻ áĥĲáĥłáĥĴ
dh Ã«
Î³ Î¼Î±
à°² à°ķà±ģ
Ð°ÑĢ Ð°
Ġ à¹Ħà¸
è Ħ
Ļ à¯įà®ķà®³à¯į
ĠØ·Ø± ØŃ
áĥĲáĥĵ áĥĺ
Ġà¸ ¡
Ġak kor
ĠÑģ ÑĮ
×ĵ ×¨
à°¾à° Ĺà°¾
à¹Ģà¸ Ľà¹ĩà¸Ļ
Ġtr o
Ġth Ã¬
ĠÚ©Ø´ ÙĪØ±
Ġth us
Ġà¤ķà¤° à¤¨à¤¾
ìĸ ´ë
Ðµ Ð±
ĠØ£ ÙĬ
in di
Ġszer int
à¤¾à¤ Ł
Ð°Ñģ Ð¸Ð½Ð¸
à¤ļà¥įà¤ Ľ
un a
Ġe ona
Ġàª¤à«ĩ àª¨à«Ģ
Ġà¦Ĩ à¦Ľà§ĩ
ÑĤÐ¸Ñģ Ð¾Ð´
ĠÐ´Ð¸ Ð³Ð°ÑĢ
Ġb on
à¯ĩ à®¯
Ð½Ð¸ ÐºÐ¸
Ð¸Ñĳ ÑĤ
k om
áº± ng
Ùģ Ø§Ø¯Ùĩ
ÙĦØ§ Ùģ
Ð½Ð¸Ðº Ð¾Ð²
Ġz i
c jÄĻ
Ġj us
à¦¤ à¦¾à¦°
àªª à«įàª°
j an
Ġcu i
ĠF i
Ïĩ ÎµÎ¯Î¿
Ġt iek
ĠÂ §
00 0
ÏģÎ¿ ÏĨÎ¿
ĠO hun
w ei
à¦¬ à¦°
Ġba yi
à¯Īà®¯ à®¾à®ķ
ÙĪ Ø§Ùħ
Ġol yan
Ġàª« àª¿àª²
in y
Ġol ma
ĠÐ½Ð° Ñĺ
Ġ×ľ ×¤
Ġh an
Ð°Ð½ ÐµÑĤÐ¾
ãĥª ãĥ¼
Ð°Ð½ Ð¸Ð¸
áĢĸ áĢ½
Ð² ÑĸÑĤ
à´¦àµįà´¦ àµĩà´¹
áĥĿáĥ ¥
Ĺ à¸£à¸
Ġà°ħà°¯ à°¿à°¤à±ĩ
æľ ¯
us s
ĠÛģ ÙĪÚº
à«įàª¯ à«ģàª
àµĭ à´°àµįâĢį
áĢ¯áĢŃ áĢĢáĢ¹áĢ
ĠáģĤ áģ
áĢĶáĢ¹áĢ Ĳ
Ïĥ ÏĥÎ±
Ġfo arte
Ġà´Ĩ à´µ
ÑĦ Ð°ÑĢÐ¼
ÎŁÎ ľ
à°§ à±įà°¯
áĥĺáĥ¢ áĥĶáĥ¢
éĹ ®
æ ¨
à¦¾à¦® à¦²
Î» Î¯Î±
à´ ĸ
ìĹ Ī
ÑĢ Ð°Ñģ
ĠáĥĲáĥ® áĥĲáĥļáĥĺ
h Ã«
Î¸ ÏģÏī
Ġà°ª à°¡
ĠÑĪ Ð¼Ð°ÑĤ
Ġà¸ ¥à¸
æº Ĳ
la tion
Ú¯ Ø§ÙĨ
áĥĿáĥĳ áĥļ
Ġ à¹ĥà¸Ļà¸
es sÃ¤
ĠÑĤÑĢÑį Ð±Ð°
Ġfe to
Ġà°ķ à±įà°°
à¸Ļà¸± à¹īà¸Ļ
ÙĤ ÙĦ
u ale
Ð¡ Ðĥ
ĠÐ Ħ
à¥Ģ à¤¡
x x
ĠÐķ ÑģÐ»Ð¸
Ġtra ba
à¤ Ĩ
à® ľ
à¤¾à¤° à¥ĩ
ĠÐ°Ð¼Ð°Ð» Ð³Ð°
à· Ķ
ti ve
Ä« s
ĠàªĨàªľ à«ĩ
Ġà¦ķ à§įà¦°
ÑĥÐ¼Ò³ÑĥÑĢ Ð¸Ð¸
ĠÐ¢ Ð¾ÑĪ
Ġw z
ĠÆı liy
Ġt arix
ĠÑĩ Ð¾ÑĢ
ĠÐĴ Ñģ
Ġktor Ã½
ÃŃ s
Ġcom m
ĠÐ±Ñĭ ÑĤÑĮ
p he
ĠÐ¿Ð¾ Ñĩ
Ã³ k
à§ģà¦ ľ
Ġàª¤à«ĩàª ĵ
Ġm as
Ġà®®à¯ģà®© à¯įà®©
gb á»į
ĠÎ±Ïħ ÏĦÎ¬
Ø¬ ÙĪØ¯
ÏĥÎ¹Î¼Î¿ ÏĢÎ¿Î¹
ri f
Ġ3 6
Ġ201 4
ny t
Ġà¦ªà§įà¦° à¦¥à¦®
re en
ãĥ İ
fa dÉĻ
Ġp jes
lan d
×ł ×Ļ×Ŀ
end re
Ġgi or
éķ ·
ĠCas ino
Ġv ÄĽ
w ar
à®Ļà¯įà®ķà®³ à®¿à®²à¯į
áĢ±áĢ ĳ
ĠÐ¼ ÑĸÑģÑĤ
Ġà´® à´±àµįà´±
áĥĲáĥĽáĥĵ áĥĶ
Ġà¸ Ĭ
à°¿à°¸à±įà°¤ à±ģà°¨à±įà°¨
à¤¾à¤ ł
ĠÙĪ ÙĤØª
Ġë§ Ĳ
àª£ àª¾
Ġà´° à´£àµįà´Ł
áĢħ áĢ¬
áĢ¸áĢ ķ
áĢľ áĢ½
Ïģ Ïį
fe c
Ġà´Ĩ à´¯
ĠÐĲÐ»Ñı ÐºÑģ
Î¸ Î±
Ġà°ħ à°¸
áĥĲáĥłáĥ Ļ
Ġè ®
å§ Ķ
à§ĩà¦¬ à§ĩ
Ïĥ Î¹Î¿
à´¿à´ķàµįà´ķ à´¾à´¨àµįâĢį
Ġs as
Ġ. ,
áĥĶáĥ ¨
Ġy hte
ĠÏĢÎµÏģÎ¹ÏĥÏĥÏĮÏĦÎµ ÏģÎ±
Ġà°ķà°¾à°¨ à±Ģ
Ð°Ð¶ Ñĭ
à¹ģ à¸Ļ
çľ ģ
t rz
Ġz en
ĠáĥĶ áĥļ
§ à¸Ļ
Ġhá»į c
Ð² Ð°Ñŀ
ĠG i
à±ĭ à°µ
Ġà¸ Ľà¸£à¸°à¸
z ia
ÈĽ a
Ġna p
ĠÑĦ Ð¾ÑĢÐ¼
Ġà¤ª à¤¾à¤°
ĠØ§ÙĦÙħ Øª
Ġsi te
è¨ ĺ
Ġà¤¸ à¤¾à¤²
Ġk lo
Ġà¤ħ à¤®
Ð¾ÑĢ Ð¾
à¤°à¥įà¤ ľ
= =
Ġsa a
Ġ' ).
Ġà¦¬ à¦¾à§ľ
ĠÐ¸ Ñĩ
ĠÒĽÑŀ ÑĪ
Ġa va
Ġ Å¾i
z u
ĠÑį Ð¼Ð°Ñģ
ĠÑĤ ÐµÑĢ
ĠN em
ĠëĤ ´
Ġà®ªà®¾à®° à¯įà®¤à¯įà®¤
Ø§Ø¦ ÙĨ
an ti
Ġà®ªà¯ĭ à®²
Ġya ÅŁ
Ġà¦Ĺ à¦¤
ĠàªĨ àª°
Ġkh a
Ð°ÑĨ ÑĸÐ¹
Ġi mu
G H
Ð¸ ÑĺÐ°
D R
Ġ... </
ĠÎµÏĢÎ¯ ÏĥÎ·ÏĤ
Ġat un
ÑģÐº Ð¸Ñħ
Ġà¦ªà¦¾à¦° à§ĩ
Ġp á»į
Ã¶ s
Ġãĥ ¡
ĠktÃ³ r
Ġk jo
ĠØ§Ø³Øª ÙģØ§Ø¯Ùĩ
c Äĵ
ÑĬ Ðº
Ġth a
Ġi láº¹
ìŀ ĳ
ç« ĭ
Ð°ÑĨ ÑĸÑı
áĢ¡ áĢĲáĢ¼áĢĢáĢ¹
ent os
Ġà´ķà´´ à´¿à´ŀàµįà´ŀ
áĥĶáĥľ áĥĺ
Ġà¹Ģà¸§à¹ĩà¸ ļ
Ġà°µà°¿à° ¦
Ĵ áŀ
ve zet
à®¿à® ¸
Ġàª¬ àª¾àª³
Ġà´° àµĤà´ª
ĠáĢ± áĢĢ
ĠáĢĻ áĢ½
áĢĢáĢ¼ áĢ®áĢ¸áĢ
ÏĢÎ¿ ÏĤ
Ä±n dan
Ġà´® à´¤
ĠÐ¿Ð°Ð² ÑĸÐ½
Ġá¼ Ĳ
à±Ģ à°ľ
Ġáĥ¨áĥĶáĥĺáĥ«áĥļ áĥĶáĥĳáĥĲ
à¥Ģ à¤²
ä» ·
Ġ×ĳ ×¨
Î³ Ïĩ
Ġà´µ à´²
p or
Ñį Ð·
áĥĿáĥĳ áĥĺáĥĹ
ĠÑĥ ÐºÑĢÐ°ÑĹ
ĠÎµ Î»Î»Î·Î½
à°² à°¨à±ģ
ĠÐ³ÑįÑĤ Ð°Ð³Ð°
Ġà¸ Īà¸²à¸ģ
Ġä½ Ĩ
Ġt ul
Ġtlo ha
áĥĹáĥ®áĥķ áĥĶáĥķ
à¸£à¸°à¸ ļà¸
Ø§ÙĦ ÙĬ
ÑĢ Ð¾Ð´
ÐµÐ½ Ð¾
à±ģà°¤ à±ģà°Ĥà°¦à°¿
ŀ à¸£
e in
d Ã©
í Ŀ
ov Ã½
Ġà¤ķ à¥įà¤·
ëĤ ´
ĠãĤ ¯
ĠØ® Ø±
à¤¿à¤ ¦
Å«s u
Ġà¤¸à¤¬ à¤¸à¥ĩ
Ð½Ð¾ Ñģ
à¥ĩà¤Ĥ à¤¦
à«ĭàª §
v ent
Ġà¦īà¦ª à¦ľ
on ie
ĠÒ³ ÑĥÐ¶
ĠÑĤ Ð°Ð¹
ĠÄĳ i
Ġà¦¨ à¦¿à§Ł
Ġg es
Ð¾Ð¹ Ð´
Ð¾Ð½ Ñĥ
Ġàª¬ àª¾àª¦
ĠÙħ Ø±Ø¯
ê· ¸
Ġm es
à®¿à®¯ à®²à¯į
d dÉĻ
æ´ »
agy ar
Ġb an
Ġàª® àª¾àª¨
ÑĸÐ´ Ð¾Ð¼
Ġaw oran
ĠÐ¡Ð Ĭ
Ġcon t
ĠÎµ Î½Î·
ĠÐł Òĳ
Ġ3 7
ĠP áº¹lu
t lo
Ġà¦ªà§įà¦°à¦ķ à¦¾à¦¶
Ġagb aye
nie c
×ľ ×Ļ
ĠÛ±Û³Û ¹Û
Ġà®ĩ à®±
ĠØ§ ÙĪ
Ð¼ Ñĭ
Ġà¦¤ à¦¾à¦ģ
il Ã¡g
iy esi
ê¸ ī
ãĥ¼ãĤ º
Ð¡ Ð
áĢŀ áĢ½
Ø§ÙĦ Ùħ
àµģà´ ·
áĥĶáĥłáĥ ĵ
ªà¸ ±à¸
à°ªà±įà°ª à°Ł
æĺ Ł
ÑħÐ¾Ð´ Ð¸Ð¼
b ei
àª² à«Ģ
Ġà´İà´¨àµįà´¨ àµį
ĠáĢ¡ áĢĨ
Ġáģ Ħ
áĢľ áĢĬáĢºáĢ¸
ĠÎĿ Î±
Ġmar rÃ«
àµĢ à´¸
ĠÑĤ Ð²Ð¾ÑĢ
ĠÎĳ ÎĿ
à°¿à°Ĥà°ļ à°¿à°Ĥà°¦à°¿
Ġáĥĵáĥ¦ áĥĶáĥ¡
éľ ¸
ĳ åħĭ
Å£ Äĥ
Ïĥ Îº
Ġà´µ àµĩ
ĠA d
Ñį Ñŀ
áĥ¬ áĥ§
Ð¾Ð½ Ð¾Ð¼
Î» Î¹Î¿
Ġà°ª à±Ī
Ðº ÑĤ
à¸²à¸ªà¸´ à¹Ĥà¸Ļ
å¸ Ī
ur Äĥ
Ġpo l
áĥķ áĥĶáĥķ
ķà¹Ī à¸Ń
Ġjoa le
ĠÐ´ Ð°Ð»
Ġsebel isa
à°Ĥà° ľ
Ŀ à¸²à¸ģ
Ä«b Äģ
as sa
ĠktÃ³ ry
os ti
à¤ķ à¥įà¤°
et ta
à®¿à®°à¯ģà®¨à¯įà®¤ à¯ģ
l os
æľ¬ éģĵ
ë¬ ¼
Ġà¤Ĩà¤ª à¤ķà¥ĭ
Ð¸Ð½ ÑĩÐ¸
à¤¯ à¥ĩ
Ġàªķàª° à«ĭ
Õ¶Õ¥ÖĢ Õ«
Õ¸ÖĤÕ©Õµ Õ¡Õ¶
liy i
Ñĥ Òĵ
ĠÑı Ñħ
Ġà¦¸ à§ĩ
Ġpar te
ĠãĤ ¨
Ò³ Ð¸
Ð² Ð¸
ĠT e
Ġos e
Ġàªªà«ĭàª² à«Ģàª¸
Ø¯ ÛĮ
cs o
Ġy ox
iek Å¡
ÙĪ ÙĬ
tis isa
Ġàª® àª¨à«ĩ
ĠÐ´ ÐµÑĢÐ¶Ð°Ð²
ĠJ o
ĠÐłÒĳ Ðł
Ġà§© à§
ĠÐłÑĳ Ð¡
3 8
ĠÐłÂµ ÐłÂµ
f in
ĠÐ²Ð¾Ð· Ð¼Ð¾Ð¶
Ġma ng
Ġsi waju
à§ģ à¦Ł
æ ®
×ķ×ł ×Ķ
eni u
ak e
ãģĦ ãģĦ
à¦°à§įà¦ ķ
el ij
Ġma a
Ð¾ÑĢ Ð¾ÑĪ
ãĥ ı
ÑĶÐ¼ Ð¾
ĠáĢĦ áĢ«
b t
Ġà´ħ à´±à´¿à´¯
ĠáĥĹ áĥĲáĥĽ
ģ à¸£
à°¾à°¨ à±ĩ
å¼ º
¥ ¼
ĠØ¨ ÚĨ
àª¾àªĤ àª¤
à´¤àµįà´¤ à´¿
áĢļ áĢ¬
ŀ áĢ¼áĢ¬áĢ¸áĢ
Ġáģ Į
ĠÎ³ ÏģÎ±
Ø¦ ÙĬØ³
Ġà´ª àµĤ
Ñĩ Ð°Ñģ
ĠÎ£ Ïį
Ġà°ªà±ĭ à°²
ĠáĥĴ áĥĲáĥ¡
åŁ º
ç ¡
ĠE UR
ÏĨ Î¬
à´Ĺ àµįà´°
r ov
ÑĨ ÑĨÑĳ
áĥłáĥ£áĥ ľ
ĠÑĥÐºÑĢÐ°ÑĹ Ð½
ĠÎĳ ÏģÏĩ
à±ĭ à°°
ĠÐĲ Ð½
à¹ĥà¸«à¸¡ à¹Ī
åĢ ¼
lÄ± k
v ei
Ġáĥĺ áĥĴ
à¹Ģà¸ ĩà¸´à¸Ļà¸
te la
ĠÑĤ Ð¾Ðµ
ĠØ¯Ø§Ø± Ø¯
à±Ĥà°° à±įà°¤
Ġà¸ §à¸±à¸Ļ
Ġtel jes
Ġà®® à®¤
ÅĦ st
ĠÐ¿ÑĢÐµÐ´ ÑģÑĤÐ°Ð²
Ġà¤¸ à¥ģ
Ġd it
ĠÙĪ ÙĬ
Æ¡ i
Ġà¤¸ à¤Ńà¥Ģ
ĠÐ± Ð¸Ð´
Ġà¤µ à¤¿à¤ķ
ĠÑĢ Ð°Ò³
Ġ ä¹ħä¹ħ
àªļ à«įàªļ
lÉĻr ÉĻ
Å£ ia
Ġtre buie
Ð¸Ð» Ð¸ÑĪÐ¸
Ð± ÐµÐº
ĠÛģÙĪ Ø§
ts z
Ġà¦ĩ à¦¸à¦²
Ð Ĺ
Ð¸Ð½ Ñĥ
Ġh ay
Ġqu al
Ġàªħ àª¹
nÃ© es
Ġq ÉĻdÉĻr
ÙĪ ÙĤ
Ã¼ le
ãģ« ãĤĤ
ÅĤ at
Ġàª¥ àªĩ
ĠÐ¼Ð¾Ð¶ Ðµ
Ġs á»įn
ĠÎ³Î¹Î± ÏĦÎ¯
Ġà¦ķ à¦¿
ĠÎºÎ¬Î½ ÎµÎ¹
ĠÏĢ ÎŃ
ĠÎº ÏģÎ¹ÏĦÎ¹ÎºÎŃÏĤ
Ġgb áº¹
l ung
×© ×Ķ
y á»į
Ġà¦¶ à§ĩà¦·
à®¿à®ķà¯įà®ķ à¯ģà®®à¯į
b ÄĽ
Ġdar b
Ġmul te
dor es
ì ¸
ĠÐº Ð°ÑĩÐµ
ir in
ki m
ĠØ¬ Ø§
à¦¬ à§ĩà¦¨
áĢŃáĢ¯ áĢĦáĢ¹
Ø¬ ÙĦ
Ġà´® àµĨ
ĠáĥĴ áĥĲáĥ®
ľà¸ ¥à¸
Ġà°ĩ à°Ĥà°Ł
ä» »
m b
ĠÑĢ ÐµÐ·
ĠàªĹ à«įàª°
à´¦ àµĩà´¶
áĢı áĢ¹áĢ
áĢŃáĢ¯ áĢ¸
áĢľ áĢ°
ÏĦÎµ Ïį
ĠmÃ´ Å¾e
à´ªàµįà´ªàµĭ à´³àµįâĢį
Ñĥ Ðµ
á¿ ¦
Ġà°Ĩ à°®à±Ĩ
ĠáĥĲáĥ¥ áĥķáĥ¡
º «
çĦ ¶
ĠI ch
Î¾ ÎµÎ¹ÏĤ
Ġà´ Ĳ
ma l
ĠÐ¿ÑĢ Ð°Ð·
áĥĲáĥ¬ áĥĺáĥļ
Å¡ Ä·
Î¸Î· ÎºÎ±Î½
Ġà°² à°ķà±įà°·
Ð¿ Ð°Ð²
à¸Ńà¸²à¸ «
åĸ ľ
i ent
íĻĶ ìĿ´íĬ¸
Ġáĥ¨áĥĶáĥĽ áĥĹáĥ®áĥķáĥĶáĥķ
à¸Ńà¸¢à¸¹ à¹Ī
íĶĦ íĻĶìĿ´íĬ¸
Ð½ÑĸÑĨ ÑĤÐ²Ð°
Ġíĺ Ħ
à°°à±įà° ¸
Ĺà¸²à¸ ĩ
à¯įà®ļ à¯įà®ļ
Ġ rea
Ùģ Ø³
j el
Ġà¤¸ à¤¹
k Ã©
ĠÐ¿ÑĢ Ð¸Ð²
le ich
Ġà¤« à¤¿à¤²
Ø§Ø ¤
Ġà¤ª à¥ģà¤²
Ð· Ð¸
Ġà¤Ĺ à¥įà¤°
àª¡ à«Ģ
Ġby Äĩ
Ġdes de
ĠØ¨ Ø®
ĠÐ³ ÑĥÑĦ
ĠÒ¶ ÑĥÐ¼Ò³ÑĥÑĢÐ¸Ð¸
Ġla vo
à®Ł à¯ģà®ķà¯įà®ķ
Ġà¦Ĩ à¦¦
ÑĪ Ð±Ñĥ
ĠÐŁ Ð¾Ð´
ĠtÃ¶ rt
å¼ ķ
Ġàªħ àªŃ
×ķ× Ķ
Ġh antle
ĠÄ ¼
Ġk r
la re
ãģ£ãģ¦ ãģĦãĤĭ
ĠI ST
ÙĦ Ø¨
Ġgi ga
ar ch
Ġà¦¸ à¦ķ
ĠCym ru
Ġ1 A
ĠÎ² ÏģÎ¯
Ġa so
an ya
Ð¾Ð´ Ð¸
Ġ. +
Ġà¦¨à¦¿à¦°à§įà¦¬ à¦¾à¦ļ
à®µ à®°à¯įà®ķà®³à¯į
n is
Ġpers on
v in
å¤ ī
Ġí ĽĦ
ĠÐ¿ Ð¾Ð½
Ġiro yin
le tsa
Ġp ou
à¦¾à¦ ł
±áĢ ħ
ĠÃ¼z rÉĻ
Ġà´ķ à´¾à´²
áĥĹ áĥĲáĥķ
ĸà¸¶à¸ ĩà¸
à±įà°Ł à±į
å· §
Ġà®¤ à¯ĩà®°
ĠÐ¼ Ð½
Ġàª Ĭ
Ġà´¤ àµĭ
áģ¿áĢĻ áĢŃáĢ³áĤķ
ĠáĢĽ áĢ½
áĢħ áĢ¬áĢ¸áĢ
ÏĦ Î¶
Ġ oso
Ġà´ķàµįà´ °
ÐµÐ½ Ð½Ðµ
ĠÎ£ Î¤
Ġà°¶ à±įà°°à±Ģ
áĥł áĥĿáĥĽ
è® º
è½ ¯
Ġk ui
ĠÏĢ ÏģÎ¬
Ġà´¯ à´¿
pa t
ĠÐ¼ Ð°ÑģÑĤ
áĥĽ áĥĶáĥĵ
ĠÕ¥ Õ¶
Î¸ Î¿
à°ķà±įà°ķ à±ģà°µ
Ð½Ñı Ñŀ
à¸Ļ à¹Įà¸
å° ĳ
Ġy ol
b l
ĠáĥĴáĥĲáĥľ áĥ¡
Ġà¹Ģà¸ ģà¸¡à¸
Ãº c
ĠÐ¿ ÑĭÑĤ
ez et
à°¨ à°Ĥ
à¹Ģà¸¥ à¹Īà¸Ļà¸
t Ãł
×ķ× ŀ×
ĠÐ· Ð°Ð³
el d
Ġà¤Ł à¥Ģ
Ġë°Ķ ì¹´ëĿ¼
ì ¤ĳ
à¯įà®¸ à¯į
à· ĥ
dh ur
à¥ĩ à¤°
Ð»Ð°ÑĢ Ð¸Ð½Ð¸Ð½Ð³
ï¼ ¿
àª¯ à«ĭàªĹ
ĠØ§ÙĦÙħ ÙĨ
ia ÅĤa
ĠW ir
Ðº ÑĥÑĢ
Ð°Ð¼ Ð¸Ð·
ĠVi deo
Ġme di
à¦ ĥ
ĠÐ± Ð¸Ð·
ÛĶ ÛĶ
ĠM agyar
ĠÙĨ Ø§Ùħ
ĠàªıàªŁàª² à«ĩ
Ġs ok
æĽ ¸
Ġm ona
Ñħ ÑĸÐ´
Ġb ine
ĠÐ²Ñĭ Ñģ
Ġàªī àª¤
ĠÃ©ta it
Ġda ju
Î´Î· Î³
Ġà¦¬à¦¿à¦ ¦
ĠÏĢ Î¯
ĠÏĢÏģÎ¿ÏĥÏī ÏĢ
Ġ/> ...
Ġw u
Ġv en
ey n
ĠÃ Į
Ġà§ ¬
ìĨ į
E L
ĠS ek
iy e
Ã³ Å¼
áº¡ o
Ġw as
Ġa pe
Ġfe tisisa
é£ Ł
Ġà¦¬à¦Ľ à¦°
áĢŃ áĢĻáĢ¹áĢ¸
mu ÅŁ
Ġà´ħ à´§
áĥĲáĥľ áĥ¢
§ à¸Ļà¸
à±Ĩ à°¡
åį Ĺ
ĠÄį i
Ġpue de
Ġàªľ à«įàª¯àª¾àª°à«ĩ
à´°àµįâĢį à´·
±áĢŀ áĢ¬
ĠáĢ¡ áĢģáĢ¯
áĢ±áĢ »áĢķáĢ¬
ĠÏĢÏģÎ¿ Î²
ĠØ¹ ÙĦØ§
à´¾à´¨ àµģà´Ĥ
ÑģÐ¿ ÑĥÐ±Ð»Ñĸ
ÏĦÎµ Ïħ
à°¡à±įà°¡ à°¿
ĠáĥĲáĥ¡ áĥĶáĥķáĥĶ
åĲ ĳ
ä¼ ģ
ĠÑģ ÑĤÐ¾
ÎŁÎ ĵ
à´¤àµįà´¤ à´¿à´²àµĨ
i ke
ÑģÐºÑĸ Ñı
áĥª áĥĺ
Ġà®ªà¯Ĩ à®°
Î¼ÎŃÎ½ ÏīÎ½
à±Ī à°¤
Ðº ÑĢÑĭ
¡à¸ ·à¸Ńà¸
áŁ Ĵáŀ
ja m
ĠÙĪØ§ÙĦ Ùħ
ĠáĥĽ áĥĺáĥĸ
Ġà¹ģà¸ ķà¹Īà¸
ĠÐ²Ñģ Ð¸Ñĩ
Ñĥ Ð»Ñĸ
ĠMat rimon
à°¾à°° à±į
ļ à¸Ļà¸
Ġsz ak
Ġd Ã¶vlÉĻt
zz o
Ġ×Ķ ×Ķ
à¶ ¸
¶ Į
ÐºÑĥ Ð²
nÃ½ m
Ġà¤« à¤¿à¤°
Ġc er
à¤¾à¤· à¥įà¤Ł
ĠÐ¸Ð½ ÑģÐ¾Ð½
Ġà¤Ĩ à¤µ
ÛĮØ± ÛĮ
ĠW o
ÃŃ n
ÉĻs inÉĻ
ĠÐ¼ ÑĥÑĢ
Ñĥ Ð»Ð¸
Ġau g
cz enie
Ġà¦ª à§Ĥ
ĠÐ²Ð°ÒĽ ÑĤ
Ġdo ar
t te
ĠÐ±Ð¾Ð» ÐµÐµ
Ø³ Ø·
Ġàªļ à«Ĥ
ìĻ ¸
Ġm ose
sh Ã«m
Ġàªľàª£ àª¾àªµ
ÅĽ my
ĠÐ¼ Ð½Ð¾Ð³Ð¾
ì µľ
Ġha ck
Ġ/"> </
Ġà¦ıà¦® à¦¨
ĠÏĮ ÏĩÎ¹
ÏĬ ÏĮÎ½
Ġne u
Ġcha êŀĮ
ĠÑı ÐºÐ¸Ð¹
ĠÕ¸ ÖĢ
ir o
Ġà¦Ł à§įà¦°
ĠÚ¯ ÛĮ
pa li
en o
Ġë Ĭ
Ġte Å¼
in de
Ø¹ Ø¨
Ġsá»į gan
Ġts oa
¶ àª¨
Ġho r
áĢĢáĢ¹áĢ ľ
s Ä±nda
àµģà´ ¸
áĥĲáĥĵ áĥĿ
à¹Ģà¸ ¡à¸
ĠT elugu
åĪĨ æĹ¶æĹ¶å½©
Ġe le
à®ķ à®°
Ġà¦ķà§ĭà¦¨ à§ĭ
Ġà´² à´Ń
ĠáĢĶ áĢ¾
ķáĢ¼ áĢ²
áĢĲ áĢħáĢº
ÎŁÎ ¡
Ġç §
àµĢ à´¯
ÑĤ ÑįÑĢ
Î³ Î¿Ïħ
à±ĭ à°¨
áĥłáĥĺáĥķ áĥĺ
æĶ ¶
æį ®
Ġ×ŀ× §
ĠÎ» ÎµÎ¹ÏĦÎ¿ÏħÏģÎ³
Ġà´ħ à´¦àµįà´¦àµĩà´¹
l lÃ¤
ÐºÑĸ Ð¼
Ġáĥĺáĥľ áĥ¢
á»ĭ ch
ĠÎ¼ Î®
Ġà°ªà±įà°° à°¯
ĠÑŀ Ð²
¹à¸ ģ
åı ª
ng en
Äħ Å¼
ĠáĥĲáĥ® áĥļ
Ķà¹īà¸§à¸ ¢
Ġàªķ à«įàª°
ÑĪ ÑĩÑĭ
ul i
à±Ĭ à°ķà±įà°ķ
à¹ģà¸ļà¸ ļ
âĢ Ļ
ĠÙĨ ÛĮ
Ġf ÉĻ
ĠÐ¡ Ðĥ
Ġà¤ķ à¤Ī
ĠÐ¶ Ð¸ÑĤ
ãĤ ½
r ul
à¥ĩ à¤¦
ĠÐ± ÐµÑģÐ¿
Ġà¤ļ à¤²
Ðº Ð¾Ð½
à¤¿à¤ ·
Ø¯ Ø±
Ġf on
Ã¡la sz
Ġd isa
ÑĤÐ¸ÑĢ Ð¾Ðº
ĠÐ²Ð¸Ð» Ð¾ÑıÑĤ
Ġì ¶
Ġdo b
Ġà¦ħà¦Ń à¦¿à¦
ĠÑĤ Ð°Ð±
Ġcil vÄĵ
ÑĥÑİ ÑĤ
h er
Ġon un
· à«įàª
h ti
w eng
r ia
ı ¾
ĠmoÅ¼ na
Ġr Ã©g
ĠA p
ĠGb Ã¨
6 8
Ġà¦¬ à¦¾à¦¸
Ġu00 3
3 9
ĠÎ¼ÎµÎ³Î±Î» ÏįÏĦÎµ
a d
í Ĺ
ĠÐ´Ð¾Ð¿ Ð¾Ð¼
un nu
ĠÐ¸Ð· Ð¿
Ġà®® à®±
à¦¬ à§įà¦¯
Å£ ie
Ġ×ľ ×ĳ
Ġàª¤ àª°
ĠÐ¿ÑĢÐ¾ ÑĨ
à¯ģà®¤ à¯į
i lo
Ġles z
ÙĤ Ø±
ĠÑģ Ð¾Ð·
áģ¼ áĢº
Ġm ay
a ge
Ġáĥ¡áĥĲáĥ®áĥĶáĥļ áĥĽ
Ġà¹Ģà¸ Ĭ
Ġà°Ńà°¾à°° à°¤
¦ Ĥ
p uri
ĠÐ²ÑĸÐ´ Ð¿Ð¾Ð²ÑĸÐ´
à¦¾à¦² à§ĩà¦°
à´ªàµįà´ªàµĨà´Ł àµģà´¤àµįà´¤
áģ¿áĢķ áĢ®
áĢ³ áĢķáĢ¹áĢ
áĢħ áĢ®
ĠÎľ Î±Ïģ
Ġtemp s
Ġà´® à´°
ĠÐ°Ð´Ð· ÑĸÐ½
ĠÎ³ ÎµÎ½
à°¨à±įà°¨ à°¿
áĥĲáĥ¡ áĥĺ
ç» Ħ
éĻ Ĳ
t Ã³w
Ïģ ÏĨ
à´± à´¿
Ġm uu
ĠÑĤ Ð°Ð¼Ñĥ
ĠáĥĽáĥĿáĥ ®
Ġw enn
ĠÏĥÏħÎ½ ÎŃ
à°¾à° ¸à±įà°¤
ĠÐ»Ñİ Ð´Ð·
à¹Īà¸ ¡
è¿ ĺ
ĠÙĨ ÙħØ§ÛĮ
Ġàªķàª¾àª° à«įàª¯
áĥ¬ áĥĺáĥ¤
¸ à¹Īà¸Ļ
ĠÙĪ Ø¨
ĠÐ¿ Ð°Ð»
k er
Ġà°ĩ à°¦à°¿
¡à¸²à¸ ģ
Ġk ga
à¯Ĩ à®²à¯įà®²
Ġan ni
Ġmo Å¾
à¤¹ à¤°
Äĥ n
ë ŀĮ
Ġto ate
à¤°à¥įà¤ £
it ha
Ġà¤¸ à¤¿à¤Ĥ
Ð°Ñģ Ð¸Ð½Ð¸Ð½Ð³
à¤¾à¤ ī
Ġ38 0
ÑĶ Ñİ
Ġo ff
Ø§ÙĨ Ûģ
ĠÐ¼Ð°ÒĽ Ñģ
ĠÐ¶Ð°Ð¼ Ð¾
ĠÑģ Ð¸ÑģÑĤÐµÐ¼
Ġ×Ķ× ĵ
Ġà¦¬ à§ĥ
ĠÑĪÐ°Ò³ ÑĢ
Ġà®ªà¯Ĩ à®±à¯įà®±
Ġo la
Ġdau dz
à«ģ àªµ
Ġi tu
ãĥ ľ
Ġcz ÄĻ
ĠÑĩ ÐµÐ¼
Ġpro pos
ÙĪÙĦ Ø©
ĠÙģ Ø±ÙĪ
v Ã©ny
Ġiran lá»įwá»į
wy n
Ġà¦¦ à§ĩà§Ł
ĠÎķ Î¯Î½Î±Î¹
Î»Î¿Î³ Î¯Î±
ĠÎĳÏħ ÏĦÏĮ
Ġfi dio
Ùħ ÛĮÙĨ
A S
Ġê ŀĮ
Ġa Ã±os
u us
à¦Ľ à§ĩà¦¨
Ġàª«àª¿àª² à«įàª®
Ġq y
Ġà®ħ à®£
ãĤĮ ãģŁ
Ġil s
i má»į
àªĤàª Ł
Ġdin tre
ĠÐ¸Ð¼ Ð°
áĢŃ áĢķáĢ¹áĢ
dz a
Ġà´ķ àµĪ
áĥĺáĥ¡ áĥĹáĥķáĥĺáĥ¡
ķà¹Ī à¸Ńà¸
à°¸ à±įâĢĮ
æł ĩ
Ã¨n cia
Ġqu y
Ġà¦¶ à§įà¦°
Ġà´¨à´¿à´ Ļàµįà´Ļ
ļ áĢ°
áĢº áĢ¬
áĢĶ áĢ²áĢ·
ĠÎ´Î· Î¼Î¹Î¿ÏħÏģÎ³
n ou
Ġà´µ à´³
ĠÐĲ ÑĢ
ĠÎ¼ÎŃ ÏĩÏģÎ¹
à±ģà° £
áĥĲáĥłáĥ ©
Ġ2 22
è® °
ĠR es
á½ ¸
àµĭ à´·
ĠÃ© rt
ĠÐº Ð¾Ð¶
ĠáĥĲáĥ Ĵ
Ġba x
ĠÎºÎ¿ Î¹Î½ÏīÎ½
à°¾à°¬ à±ģ
ĠÐ²ÑĭÐº Ð°ÑĢÑĭÑģÑĤ
à¹ģà¸ļà¸ ļà¸
Ġå ¿
Ġt eng
à«ĭàª°à«įàª Ł
áĥ£ áĥĲáĥļ
ģà¸ §à¹Īà¸²
Ġa li
ĠÑı Ð½Ð°
tion en
Ġà°Ĺà±įà°° à°¾à°®
¥à¸ °à¹Ģà¸
Ġsek Ã¤
Ð» Ð°Ð¹Ð½
ĠÑģÐ» ÑĥÑĩ
ĠK om
Ġà¤Ĩ à¤¦
O R
Ġde gli
ĠÐł ÐĨ
à¥ī à¤²
ÑģÑĮ ÐºÐ¸Ñħ
à¥Ģ à¤°
ĠÑħ Ð°Ð±Ð°ÑĢ
à¶ ļ
×¨ ×ª
à®¾à®£ à¯įà®Ł
Äĵ tu
ãĥ ļ
ĠÒĽ Ð°Ð´
ĠÑĤÐ°ÑĢ ÑĤÐ¸Ð±
co re
Ð ¤
à¦°à§įà¦ ·
Ðº ÐµÐ½ÑĤ
ĠÚ© ÚĨÚ¾
Ø± Ø¶
Ġha cer
Ġàª¸àª¾àª® à«ĩ
on Ã«
s in
ê° ģ
ĠÐ¾ Ð½Ð¸
Ġbo lo
r Ã¨s
p y
Ġca z
ay an
Ġ0 4
à¦ ģ
ÏĥÏĦÎ· Î¼Î±
ĠÎµ Î¼ÏĢ
ĠÎº Î¿Ïħ
Ġná»į mba
ÙģØª Ùĩ
Åĳ sÃ©g
own loa
Ð¾Ð² Ð¸Ñħ
Ã¢ m
Ġà¦¦ à§ģà¦ĩ
àª¾àª Ń
ĠZ u
Ġf ana
Ġn ost
Ġti dak
o ju
ãģĭ ãģª
ĠGra tis
li dad
áĢŀ áĢ¼áĢ¬áĢ¸áĢ
Ġàª°à«Ĥ àªª
à´Ł à´¿
ĠáĥĽ áĥĲáĥĽ
Ġà¸ ¡à¸µà¸
à±Ģà° İ
äºī éľ¸
Ã¡ d
Ġb Ã«r
Ġà¦Ĩà¦Ĺ à§ĩ
à´¿à´¨ àµģ
áĤıáĢ¯áĢŃáĢĦáĢ¹áĢ ĦáĢ¶
Į áĢ¬áĢĶ
áĢ¸áĢ Ĩ
ÎµÎ¯ Î¿Ïħ
tal ia
à´¸ à´Ĥ
ÑĢ Ð°ÑĪ
ÎŁÎ ļ
à±įà° ľ
ĠáĥĹ áĥ£áĥĽ
à¥įà¤¯ à¤¾à¤¤
æł ¼
ÑĢ ÑĬ
ĠÎºÏħ Î²
à´Ļàµįà´Ļà´³ àµģà´ŁàµĨ
Ġha z
Ð°Ð½ ÑĭÑı
áĥķ áĥĺáĥļ
Ġ×ľ ×Ĺ
ĠÏĩ ÏİÏģÎ±
âĢĮ âĢĮ
Ð» Ñĥ
à¹Ī à¸Ńà¸ĩ
å± ±
cz ny
ĠàªĽ à«ĭ
ĠáĥĻ áĥĺáĥĵ
Ĺà¸ ĺ
ni ng
ĠÐ¿ÑĢ Ð°Ð¿
Ġlo c
à°¿à°¨ à°¾
à¹ĥà¸«à¸ į
Ġl Ã¤h
à¯Īà®ļ à¯į
Ø« Ø±
ÃŁ e
à¥ĩ à¤®
Ġs uo
ĠÐ¿ÑĢÐ¾Ð¸Ð· Ð²Ð¾Ð´
ì¶Ķ ì²ľ
ç ¢
¤ Ģ
à¥įà¤ ļ
Ð°Ð² Ð¸Ð¹
à¥įà¤ ¬
ÑĨÑĸ Ð²
Ð¾Ð¿ ÑĢÐ¾Ñģ
ĠKosov Ã«s
Ġp ak
ĠÐ½Ð°Ð¼ ÑĥÐ´
ĠÒĽ Ð¸Ð·
iá»ĥ m
Ð°Ð¶ Ðµ
à¦¾à¦¨ à§ĭ
ĠÑĤ Ð°Ð»Ð°Ð±
Ġsa mo
ĠÃŃ gy
ĠB er
ĠÐ²Ð¸Ðº Ð¾ÑĢÐ¸ÑģÑĤ
Ġe dÉĻn
ĠàªŃ àª¾àªĹ
d re
ĠK ey
Ġle tsatsi
ëĬ ¥
æ¥ ½
Ø² ÛĮ
Ġri i
Î½ ÎµÎ¹
à¦¾à¦§ à§įà¦¯à¦®
ĠÏĩÏģÎ· ÏĥÎ¹Î¼Î¿ÏĢÎ¿Î¹
Ġ3 1
Î¼ÎŃÎ½ ÎµÏĤ
ĠB ib
Ġn os
Ñļ ÐµÑĤÐ¾
Ġi fi
Ñī Ð°
Ġta mbiÃ©n
à®² à®®à¯į
m ek
Ġse hr
ĠÐĿ Ð¾
Ġaqu est
çĶ °
Ġ" >
Ġ} .
ãĥ ¤
ow ym
áĢ±áģ¾áĢĢ áĢ¬áĢĦáĢ¹áĢ·
Ġ Ã©g
à´¯ àµįà´¯
áĥĲáĥ Ń
Ĺà¸ ¸à¸ģà¸
à±Ģ à°Ł
ä½ ł
A L
Ġdal la
Ġ×Ĵ ×Ŀ
Ġà´¸ à´¾à´§
Ġáģ ħ
ĻáĢº áĢ¬áĢ¸
áĢ±áĢ »áĢģ
ĠÎĳ Î³
jÃŃ cÃŃ
Ġà´Ĵ à´¨àµįà´¨
Ġâķ §
ĠÎ¿Î¹ÎºÎ¿ Î½Î¿Î¼
Ġà°ī à°ª
ĠáĥĽ áĥĻ
è ±
Ġï¼ Ľ
Ġku to
ÏģÎ· ÏĤ
Ġà´ª àµĩà´°
Ġeg in
ĠÐ¼Ð°Ð³ ÑĩÑĭ
áĥĶáĥłáĥ ķ
Ġbi j
ĠÏĥ Î®Î¼ÎµÏģÎ±
Ġà°ª à°¾à°²
Ð°Ð²Ð°Ð½ Ð½Ðµ
à¸µà¸¢à¸ ĩ
ç ĸ
ĠÑĤ Ð¸
he la
áĥĶáĥĳ áĥĶáĥĳáĥĺ
Ġ à¸Ńà¸Ńà¸Ļà¹Ħà¸¥à¸Ļà¹Į
à§ĭ à¦°à§įà¦
Ð»ÐµÑĤ ÐºÑĸ
ÙĪ Ù¹
à°¾à°¨ à±į
à¹ī à¸Ļà¹Ģà¸
Ġsu b
à®¾à®¤ à¯įà®¤
Äį ky
Ġker es
à¤µ à¤¨
Ġë¶ Ħ
ÑĮ Ñİ
ĠÚĨ Ùĩ
é¦Ļ èķī
is ch
åį ¡
ĠÐ± ÐµÐ»
Ġà¤¶ à¥ģà¤°
Ġho d
ÙĪ Ø§Øª
Õ º
Ġha qq
ĠÑģ ÑĥÑĢ
Ð°Ð¼ Ð¼
à«ĩàª¨ à«įàªŁ
Ġn di
d nie
Ð± Ð¸Ð¹
Ð¾Ð± ÑħÐ¾Ð´Ð¸Ð¼
à§ģ à¦¦
Ġka u
ĠS an
ÑĤÐ¸ Ñĩ
à¯Ĩ à®©
Ġd os
ĠØ§ Øµ
ĠÐ¸Ð¼ Ðµ
Ġ×¤ ×¨
åł´ åĲĪ
Ġle f
gbas oke
ĠÎºÎ¬ ÏĦÎ¹
ĠÐ² ÑĸÐ½
ÏģÏī ÏĥÎ·
6 7
ĠÏĨ Î±
Ġs is
Ġà¦ħ à¦¸
Ġí İ
á¹£i á¹£áº¹
ÙĬ Ø«
d ui
s _
Ġàª« àª°
Ã©s e
g no
Ġdan n
Ġse ng
Ġst art
Ġtien e
Ġno i
Ġn Æ°á»Ľc
áĢķ áĢ±áĢ¸áĢ
ĠV ous
Ġà´¨ àµĩà´°
áĥ¥ áĥĿáĥľ
Ġ à¹
Ġà°¤ à°ªà±įà°ª
Ġå ¼
ĠØª Øµ
t Ã«r
nik Ã³w
Ġà´ª à´²
áĢŁ áĢ¯
ĠáĢ ĲáĢ¬
áĢ¼ áĢļáĢ¹áĢ
ĠÏĢ Î»Î±
Äį nÃ©
P age
ĠÑĤ ÑĥÑĤ
Îµ Î¾
à±Ĩ à°Łà±įà°Ł
ĠáĥĽáĥĺáĥĽ áĥĲáĥłáĥĹ
å ²
å·¥ ä½ľ
Ġ ÉĻl
ÏĢ Î±Î¹
à´¿à´ ³
ta ts
Ð¾Ð´Ð· ÑĸÑĨÑĮ
áĥľ áĥĺáĥ¨áĥķ
Ġàªħ àªª
Ïģ Î¿ÏħÏĤ
Ġà°ª à°¨
Ð°Ð´ Ð¶
ªà¸ ¡à¸
æĬĢ å·§
Ã¢n Äĥ
g io
Ġáĥ¡áĥĲáĥ ¤
Ġ25 6
Ð² ÐµÑģÑĤ
Ð½ Ð°Ñŀ
ut z
Ġà°¸ à°°
à¹ĩà¸ ģ
à§įà¦ §
Ã¡s a
Ġà®ħ à®¤à¯ģ
ti r
åľ¨çº¿ è§Ĩé¢ĳ
ak an
Ġêµ Ĳ
Ġiz man
Ġè ī
Ġtut ti
à¤¾à¤ ¥
ĠÒĽÐ¸Ð» Ð³Ð°Ð½
åģ ·
cz ÄĻ
ĠG es
Ġl int
ono lo
ĠÐ°Ð¹ ÑĤ
ĠÐ¸ÑĪ ÑĤÐ¸ÑĢÐ¾Ðº
àªĤàªĹ à«įàª°
men ts
Ġà¦ħà¦¨ à§įà¦¯
Ġ Ð°Ñħ
Ð½ ÐµÐ½Ð½Ñı
ĠÑģ Ð´ÐµÐ»
Ġfor ma
ÛĮÙħ Øª
va a
Ġ×Ľ ×Ļ
Ġes et
ÙĪ Ùĩ
è «
Ġd om
à¯įà®ķ à®¿à®±
ĠÐ¿Ð¾Ð» Ñĸ
Ġs an
ÏĦÎ¿ Î³ÏģÎ±ÏĨ
g lich
ĠÎ±ÎºÏĮ Î¼Î±
ĠÎ± Î³Î¿
ĠÎ´ Î¿
Ġtun tun
íĺ ķ
ĠÐ² Ð¾Ð´
Ġd ur
Ġle fa
Ø¨ Ø§Ø¯
Ġàª¬ à«įàª°
vy o
ÙĪØ± Ø©
wi Äħz
ĠÃ®n tre
à®ķ à®®à¯į
Ġ201 5
ol y
Ø¬ ÛĮ
Å¾ ÃŃ
ĠáĢħ áĢħáĢ¹áĢ
à«ĩàª Ĥ
à´¯ à´¿à´²àµĨ
áĥ£áĥłáĥ ¡
ĸà¸ ·à¸Ń
à°ļà±įà°ļ à±ģ
æ »
Ġà¦ħ à¦°à§įà¦¥
ja t
Õ¡Õ¶ Õ«
àµĭ à´ķàµįà´ķ
áĢĲáĢ¹áĢ ŀ
áĢľ áĢŃáĢ¯áĢ·
áĢĦáĢ¹áĢ Ĳ
Î¯ ÏīÎ½
Ġd Ã¼n
à´¿à´ ľ
ÑģÑĤ Ð°Ð½
Ïī Î¼Î±
à±Ģ à°¤
áĥĿáĥĳ áĥĲáĥ¨áĥĺ
æİ ¨
æĥ ³
áº¯ t
ÏĢ ÏĦÏħ
Ġà´Ĩ à´¶
Ġf ran
Ð ģ
áĥĶáĥ¥ áĥ¡
à®±à¯įà®± à®¿
ÏĢ ÏĦ
à°¾à°Ĥà° ¡
ÑĤ ÑĢÑĭÐ¼
ķà¸±à¸ §à¸
ĠagåĽ½éĻħ äºļæ¸¸
Ð¿ÑĢ ÐµÐ´
ì½ Ķ
áĥĲáĥĹ áĥķáĥĺáĥ¡
Ħà¸£à¸Ķà¸´à¸ķà¸ Łà¸£à¸µ
ĠØ¯ Ø§Ø¯
ĠÑŀ Ð¶Ð¾
Ġnie t
Ġà°ª à°Łà±įà°Ł
à¹Ģà¸ ĭ
Ð¾ Ñħ
Ġ×ķ ×ŀ×
ĠØ¯ ÛĮÚ©Ú¾
et z
é» Ħ
g n
ĠS i
ĠØ§ÙĦÙħ ØŃ
åł Ĥ
àªľ à«Ģ
Ġà¤Ł à¥įà¤°
ĠÐ¼ Ð°Ð¼Ð»Ð°ÐºÐ°ÑĤ
à¤¡à¤¼ à¤¾
Ġe be
sz ych
ĠA v
ĠÐ½ Ð¸
ĠÒĽÐ°Ð± ÑĥÐ»
ĠÐ½ Ð¸Ð·
à®¿à®µ à¯ģ
p helo
Ġà¦Ł à¦¾à¦ķà¦¾
ĠÐµ ÑĢ
Ġà¦¹ à¦¾à¦ľà¦¾à¦°
ãģ£ ãģ¨
ìĶ ¨
Ġè ĩ
hlah isoa
ĠÃ ĸ
íĥ Ŀ
Ġbe har
Ġàªľ àª°à«Ĥ
à¦¨à§įà¦ ¡
lu ar
do t
h wo
Ġgyf er
ĠÚ¯ Ø¦ÛĴ
ĠÎµ Î¼ÏĨ
Ġy w
ĠÏĦÏĮ ÏĥÎ¿
Ġgi di
Ġpro d
v Ã½
áº¹ wo
ĠM me
ÐµÐ½ Ð´
Ã¦ r
Ġ×Ĳ ×ķ×ª
Ġ\ "
cz nych
Ġn ou
Ġà®ķ à®¿à®°
Ġá¹£e e
ÃŁ en
Ø´ Ø§ÙĨ
ÑĢÑĥ Ð·
áĢĶáĢ¹áĢ ľ
Ġpe dig
Ġà´¸à´Ĥ à´ĺ
ĠáĥĽ áĥĿáĥĴ
Ĥ à¹īà¸²à¸
Ġà°¦ à±įà°µ
ä» Ģ
ì ¶
Ġv u
ãģķãĤĮ ãģ¦
à´¤ àµįà´¥
ĠáĢĢ áĢ¯
± áĢĢáĢº
ĠáĢĢ áģ½
Îº Î·ÏĤ
ĠÐ´ Ð¾Ñģ
Ġà´ª àµĩ
ĠÐŁ Ð°Ð´
á½ ¶
à°¿à°Ĥà° ª
áĥĵ áĥĿáĥĽ
éĴ ±
å½©ç¥ ŀ
Ġà¦° à¦¹
Î³ ÎµÎ¹
à´¯ àµĭà´Ĺ
Ġap ro
Ð» Ð°Ð´Ð·
Ġáĥŀ áĥĲáĥ¢
b ÉĻr
ĠÎŃ Î½
à°¾à°Ĥà°Ł à°¿
Ð¾Ð» Ñĸ
à¹Ģ à¸£à¸²à¸
Ġéĩ į
ÑĥÐ»ÑĮ ÑĤ
ĠÐºÑĬ Ð¼
Ġáĥ¢ áĥł
Ġà¸ ģà¸£à¸
Ġke Äı
Ð°Ð²Ð°Ð½ Ñĭ
Ġvair Äģk
Ġà°¹ à±Ī
à¹ģà¸ ģ
nie Å¼
ĠA c
kÃ¶ z
pu is
Ġà¤¹à¥ĭ à¤Ĺà¤¾
te ve
ÉĻ q
ëį ĺ
Ġà¤ªà¥ģà¤² à¤¿à¤¸
ĠvÃµ i
à¤¿à¤ Ĺ
ĠÑĳ Ð·
åŃ Ĺ
Ġb one
ich e
da h
ĠÑĥ Ð²
ĠÐ²Ð°Ð· Ð¸ÑĢ
ĠÐ¼ Ð°Ð·
ĠØ£ Ùĥ
ĠT S
à¦¾à¦° à§Ģ
ĠÐ³ Ð¸ÑĢ
Ġà¦¨ à§ĩà¦ĩ
ĠØ² ÛĮØ§
Ġ×ķ ×ĳ
áº¡ t
me la
ĠÑĤÐ¾ Ð°
Ã³ r
Ġàª¤àª® àª¾àª°àª¾
eit er
u a
Ġà¦Ĩà¦ª à¦¨à¦¾à¦°
Ã§ i
ĠF ree
ĠÏĮ ÏĥÎ¿
Ġser vi
Î¹ ÏİÎ½
ÏĦÎ¿ ÏįÎ½
ĠÏĦ ÎµÎ»
Ġda ta
à®¾à®µ à®¤à¯ģ
Ġval Ã³
G G
o ho
ĠÐ¿ÑĢ Ð¾ÑĤ
Ġë ¦¬
sk Ã©
ck en
Ġàªµ àª¾àª°
Ġt ÉĻd
Ġgr and
Ġo kun
Ġp at
Ġu it
c Ã³w
áĢ±áĢķ áģļ
Ġun s
à´¿à´¨ à´¿à´®
ĠáĥĹáĥ£áĥĽ áĥªáĥĲ
Ġà¸ªà¸ ¡à¸±à¸
à°ª à°¡
æģ ¯
×ł ×ķ×ª
ë° ľ
è» Ĭ
à´¿à´° àµģà´¨àµįà´¨
áĤ Ĩ
áĢ¸áĢ ķáĢ«
áĢ±áĢĲáĢ¼ áĢĢáĢŃáĢ¯
Î³ ÏīÎ½
ĠØ® Ø¨Ø±
Ġà´ķ àµĭà´Ł
ÐµÐ² ÑĸÑĩ
Îķ Î¤
à±ĩà° ¸à±įà°¤
áĥĲáĥķ áĥĲáĥĵ
å¤ Ħ
åı¯ ä»¥
à¯Īà® ª
ĠÎĶ Î¹
à´¸àµįà´¥ à´¾à´¨
ĠØ´ ÙĩØ±
Ð°ÑĨÑĭÑı Ð½Ð°Ð»ÑĮ
Ġáĥĳ áĥĲáĥķáĥ¨
ĠS ta
ĠÎķ ÎĽ
à°ª à±ģ
ÑĢÑĥ Ðº
ķà¸²à¸ ¡à¸
åŀ ĭ
Ġn ek
ru ar
Ġáĥ¨áĥĶáĥ £áĥ
ĸà¸ ¹à¸ģà¸
Õ ¢
ÑįÐ½ ÑĮ
Ġka Å¼
à°¦ à±ģ
à¸£à¸²à¸°à¸ «
Ġà¦¬à¦¿à¦Ń à¦¿à¦¨à§įà¦¨
Ġp ubli
àª¥ àª¾
ĠÐº Ð¾Ð»
Ġé Ŀ
Ġs en
ÉĻf ÉĻr
íķľ ëĭ¤
Ġà¤® à¤¾à¤¨
Ġàª¤à«įàª¯ àª¾àªĤ
Ġà¤¹à¥ģà¤ Ī
ĠÑį ÑĬ
æĹ¥ æľ¬
Ġpha ha
r Åĳl
Ġi li
Ø ¡
ĠÑĦ Ð¾Ð¹Ð´
ĠÑĪ ÑĥÐ¼
Ġpri x
Ġba o
Ġtak Å¼e
Ð¸Ðº ÑĢ
Ġà®ļ à¯Ĥ
ÑĢ Ð¾Ð¼
Ġz h
ĠØ®ÙĪ Ø§Ùĩ
T S
ĠkÃ¼l Ã¶n
li zza
Ġà¦° à§Ł
r Ã¤
tis la
Ã¡c ia
Ġx ÉĻbÉĻr
ay a
ou n
Ġc rÃ©
3 2
Ġr ha
Î» Î¼
ĠU S
ãģĿ ãģĨ
Ġ×Ķ× ¦
Ġon line
Ġm ara
ĠÐ¿Ð¾Ñģ Ð»Ðµ
ëĵ¤ ìĿ´
àª¤ àª¿àª
è² ·
ĠãĤ Ĵ
à§ĩà§Ł à§ĩ
isa tion
w are
st Äģ
Å£ a
ti ng
áĢĽ áĢ±áĢ¸áĢ
ĠG j
Ġà´®àµģà´ ĸ
áĥĺáĥĻ áĥĲ
ļà¸²à¸ Ħà¸²à¸£
à±Ģà° Ĩ
è´ ¨
Ġto t
Ñĥ ÑĶÑĤÑĮÑģÑı
ĠØ¬ Ø¯ÛĮØ¯
Ġà´¦ à´¿à´µ
ļ áĢ¬áĢĢáĢ¹áĢ
áĢ½ áĢ±
áĢĲáĢ²áĢ· áĢ¡
ĠÎł Î¿
à®¿à®ªà¯įà®ª à¯ģ
à´ İ
Ñŀ ÑĢ
ĠÎ¬ ÏģÎ¸
Ġà°µà°¿à° ¶
áĥĶáĥĳ áĥĲáĥ¨áĥĺ
88 8
ä½ ķ
dzie j
ĠÎĳ Îł
à´¿à´¤ àµįà´¤
ĠÐ¶ Ð¸Ð·
ĠÐº Ð°Ð·
áĥ£áĥłáĥ ľ
ĠÙģ Ùī
Ïģ Î¯Î±ÏĤ
à°Ĥà° ¡à±ģ
ĠÐ°Ñģ Ð°Ð±
Ħ à¸£à¸²à¸°à¸«
áŀ ¶
Ġh anno
Ø¬ Ùħ
áĥĿáĥĵ áĥĶáĥ¡
Ħ à¹īà¸²à¸
Ġv Äĥ
Ð°ÑĤ Ð°ÑĢ
k ou
Ġà°ķà°¾à°° à±įà°¯
ªà¸²à¸¡à¸²à¸£à¸ ĸà¸
Ġà¦ķà¦° à§ĩà¦Ľà§ĩ
ĠD Ã©
Ã Ĵ
Ġti áº¿
Ġà¤ļ à¥ģà¤¨
Ġa ta
ÑĥÐ²Ð° Ð°ÑĤ
Ġs oll
à¤°à¥įà¤ ¥
àª¿àª¤ à«įàª°
à¤¡à¤¼ à¥ĩ
ĠÑĢ Ð¾Ò³
ç¦ ı
Ġmo lemo
tÄģ ju
ĠÐ¼ Ð¸Ð½
Ġf ir
Ðµ ÑĬ
Ð¾Ð¸ Ð¹
Ġc li
Ġg om
à®£ à®®à¯į
ĠÑį Ð½Ð³
Å¡ te
Ġtal Ã¡l
skie j
Ã¥ r
Ġnga ta
ĠÑĢÐ¾Ð· Ð²
ĠÑĢÐ°Ð· Ð²
Ġàªĺ àªŁ
ãĤ Ģ
ÙĦ Ùģ
Ġisti fadÉĻ
Ġà¦¬ à¦¿à¦ķ
or un
ĠÎ¿ÏĢÎ¿ Î¯Î¿
j our
Ġca el
4 5
Ïĥ Î®
Ġpo dá»į
Ġe do
Ġn jo
Ġafi kun
Ġra ta
ie c
Ġne j
×ķ× ĸ
ĠÐµ ÑīÐµ
Ġà®¨ à®²à¯įà®²
Ð°Ð»ÑĮ Ð½Ð¾Ð³Ð¾
m me
uf u
Ġà¦ī à¦¦
on es
ìĦ ¤
áĢŃáĢ¯áĢĦáĢº áĢĦáĢ¶
ãĥĥ ãĥī
Ġà´ĩ à´°
áĥ£áĥ ¢
Ġà¹Ģà¸ ŀ
Ġà°¤ à±ĭ
å¸ ĥ
l ie
à®³ à¯įà®µ
ĠÐº Ð¾Ð¹
à´¤ àµįà´¯
ĠáĢ±áĢĶ áĢ¬áĢĢáĢ¹áĢ
áĢĦáĢ¹áĢ Ģ
ĠáĢĺ áĢ¬
Î» Î¹Îº
ta tÃ³
Ġà´Ł àµĨ
ĠÐ¿Ð°Ñģ Ð»Ñı
ÏģÎ¹ Î¬
âĢĮ à°°
Ġáĥĵ áĥłáĥĿáĥ¡
ä¸ ¤
Ġ æľī
wia d
Î½Î¿Î½ ÏĦÎ±Î¹
àµĭ à´¯
Ġàªª àª¾àª
ÐºÑĥ Ñİ
ĠáĥĽ áĥĺáĥĶáĥł
ĠØ§ÙĦ Ùĩ
ĠÎł ÏģÏĮ
Ġà°ķ à°°
Ð°Ð² Ð°Ð»Ñĸ
Ľà¸£à¸°à¹Ģà¸Ĺà¸ ¨
é¢ Ħ
ÑĨÑĸ Ñı
Ġp Ã¤i
Ġáĥĳ áĥł
Ġà¸ Ĺ
à§ģà¦· à§įà¦ł
ĠÐ´ Ð°Ðº
Ðµ ÑĦ
Ġà°ľ à±Ģà°µ
Ħà¸ ¥
ĠÄ ı
et ti
ÙĦ Ø¦ÛĴ
Ġëª¨ íħĶ
å ©
Ġë° °
ØªØ± ÛĮÙĨ
Ġho zz
Ġà¤®à¥ģà¤ ĸ
ch es
å¤© å¤©
ĠÑĤÐ°ÑĬ Ð»Ð¸Ð¼
à¥įà¤ ŀ
Ġb ana
Ġà®ªà¯Ĭ à®°
Ð¾Ñģ Ð¾Ð±
Ġàª¨ àª¿
ÑĥÐ· Ð¾ÑĢ
ĠÑħ Ð¾Ð½
t Ä±
Ġth ata
×ŀ ×ķ
ÐµÐ½ ÑĤÐ¸
Ġjet Ã«
Ġà§ Ń
p x
Ġãģĵ ãĤĮ
ĠE A
ĠkÃ¶ vet
k as
u to
t ros
ur y
it es
Ġà¦¨ à¦¤
Ġá»į wá»į
Ġ3 9
ĠA k
ÏĦ ÏģÎŃ
ĠÏĦÎµ Î»ÎµÏħÏĦÎ±
GH z
áº¹n u
f el
á»£ p
Ġk Ã¡
le te
Ġë ĺ
Ġàª¶ à«įàª°
Ñĩ Ñĸ
ĠÑĤ Ð¾Ð³Ð¾
Ø±Ùĥ Ø©
Ġl ii
r Äĵ
Ġin a
Ġà¦¬à¦¿à¦ ľ
Ġàª¸ àª¾àªĤ
ĠM Ã¼
áĢŃ áĢĻ
ĠÚ©ÙĨ ÛĮØ¯
àµģà´¦ àµįà´§
ĠáĥĶáĥłáĥĹ áĥĲáĥĵ
Ħà¸§à¸²à¸ ¡à¹Ģà¸
Ġà°ļà±ĩà°¶ à°¾à°°à±ģ
ä¾ Ľ
Ġbu d
v Äĥ
Ġà®®à¯ģà®Ł à®¿à®¯
Ġà´ı à´±àµįà´±
áģĢ áģĢ
ĠáĢħ áĢ¬
áĢĻáĢº áĢ¬áĢ¸áĢ
Î²Î¬ ÏĥÏĦÎµ
h ne
àµĢ à´ķàµįà´·
ĠÂ ©
ĠÏĢÎ± ÏģÎ¿Ïħ
Ġà°® à°Ĥà°ļ
áĥľáĥĺáĥ¨áĥķ áĥľáĥĶáĥļ
è º«
å· ²
in ist
ĠÎ± Îº
Ġà´ķ àµģà´Ł
em me
ĠÐº Ð½Ñĸ
Ġáĥ¡áĥĲáĥĶ áĥłáĥĹ
i que
ĠÎ¤ Îµ
à°¿à°¤ à±ĭ
Ð´Ð· ÐµÐ»ÑĮ
¨à¸ ¶à¸
æ Ł¥
t ri
Ġàªª àª¾àª°
áĥĶáĥĽ áĥĳ
ªà¸³à¸« à¸£à¸±à¸ļà¸
à§ĭ à¦ļ
ĠÐ´ Ð¾Ð±
bb en
Ġà°ħ à°®à±įà°®
Ħ à¸Ńà¸
Ġhaz Ä±r
ion es
×© ×Ļ×Ŀ
d Äħ
Ġà¤īà¤¨ à¤ķà¥ĩ
à¯Īà®ļ à¯įà®ļ
Ġt Ã¡r
te tit
à¤ Ľ
ĠN ous
à¤¿à¤ §
ĠÑĥ Ð½Ð¸
à¤ķà¥įà¤· à¤¾
Ġe ng
ĠØ±Ûģ Ø§
Ġà®¤ à®µ
áº© m
ĠÒĽÐ¸Ð» Ð¸Ð±
ĠÒĽÐ¾Ð½ ÑĥÐ½
Ùĥ Ø§ÙĨ
Ġp ho
ra tisla
Ð° Ò·
Ġn ov
à¦ĵ à§Ł
Ġàªľà«Ģàªµ àª¨
ìŀħ ëĭĪëĭ¤
H O
uf en
dh je
ra k
Ø± Ùģ
Ġp are
Ġà®¨ à¯ĭ
Ġà¦ĩà¦¸à¦² à¦¾à¦®
ownloa d
ÏĩÎµ ÏĦÎµ
Ð» Ð¾Ð¶
ĠÎºÎ¿Î½ ÏĦÎ¬
Ġ4 7
w m
ĠU ni
is et
ĠãĤ Ń
Ġdi dara
Ġle o
ĠW ar
à«ģ àªª
Ġv iac
ĠÐĶ Ð»Ñı
te go
Õ¡Õ Ń
ĠÆıliy ev
mu lo
à¦° à¦¿
Ġàª°àª¹ à«įàª¯àª¾
ĠmÉĻlu mat
áĢĻ áĢļáĢ¹
á»ĩ n
Ġà´¨à´¿à´¨àµįà´¨ àµį
áĥĲáĥĹ áĥĲ
ķ à¹īà¸Ńà¸ĩ
Ġà°®à±Ģ à°¦
Ġå Ĩ
Ġser a
j Ã¡n
ÑĸÑģ Ð»Ñı
Ġà´ŀ à´¾à´¨àµįâĢį
ĠáĢĺ áĢ¯áĢĽ
áĢĽ áĢ²áĢ·
ĠáĢ¡ áĢĶ
ÎĻÎ ¤
ĠÐ½Ðµ Ð¾Ð±ÑħÐ¾Ð´Ð¸Ð¼
Ġà´İà´¨àµįà´¨ à´¿à´µ
Ñģ ÑĨ
ĠÏħ ÏĢÎµ
Ġà°ªà±Ĩ à°¦à±įà°¦
áĥĵ áĥĶáĥľ
æĪ ĸ
æ° Ķ
ĠÙ¾ Ú¾Ø±
Î³Î³ ÎµÎ»
à´¿à´Ĥ à´Ĺ
Ġkter Ã©
Ð «
Ġáĥ¡áĥĲáĥ®áĥĶáĥļáĥĽ áĥ¬áĥĺáĥ¤
ĠL as
Î¼ÏĨÏīÎ½ Î±
Ġà°ķ à°¿
ĠÐĴ Ñĸ
à¹Ħà¸ §
Ġç İ
ÙĪ Øª
àªķ à«įàª°
ĠáĥĽ áĥĶáĥĿ
¶ à¹Īà¸ĩ
åĳ ³
Ðµ Ñŀ
à§İ à¦¸
à±Īà°¨ à°¾
§à¸ ĩà¸
Ġs ous
ta g
ÉĻy ÉĻ
Ð¾Ð²Ð°Ð½ Ð¸Ðµ
à¤¿à¤ķ à¤¾
Ġà®ĩà®²à¯įà®² à¯Ī
Ġm ert
Äħ d
à¤µ à¤Ĥ
Ġtr ans
ä¸Ń æĸĩ
ĠÑİ Ð·
à¥ģ à¤¸
Ġn ka
tt Ã¶
ÑĬÑĢ Ð¶
Ġel sÅĳ
Ð¸ÑĦ Ð°ÑĤ
ĠÐº ÐµÐ¹
ca to
Ġm ek
çĶ £
ĠÐ¼ Ð¾
Ġs áº£n
tu d
à®µ à¯įà®µ
Ġà¦¨à¦¤ à§ģà¦¨
t le
Ġ$( '
Ġ×Ķ× ĸ
c Ä±
Ø§Ø± Øª
Ġz Ã¡k
Ġkan s
st er
Ġtáº¹ láº¹
wy s
ĠÐ» ÑĥÑĩ
we dd
ĠÏĢ ÏģÎ¹Î½
ÏĦÎ¹ Î¿
Ġibe ere
ĠÑĤ Ðµ
ç Ĭ
Ġd uro
âĢ Ķ
Ġn j
ĠàªŃ àª¾àªµ
à¦¦ à¦¿
Ġv ol
Ġla ikÄģ
ĠÂ £Â¬
Ã Ķ
Ġáº¹ á¹£á»į
tu it
Ġàªªà«ĭàª¤ àª¾àª¨àª¾
Ġd ou
ĠáģĤáģĢ áģģáģ
Ġx u
à´¿à´Łàµįà´Ł àµģà´£àµįà´Łàµį
áĥłáĥĴ áĥĲáĥľ
ĺ à¸£à¸£à¸
Ġà°¸ à°¾à°§
Ġà¤ Ŀ
Ġu Å¼y
Ġkish te
ĠÑĤ Ð¾Ð¼
à´µ à´°àµįâĢį
áĤ ī
ĠáĢ¡ áĢĳ
áĢ½ áĢĦáĢº
Î´ Î¬
u te
à´« àµį
ĠÐ¼ Ð°Ðµ
ĠÎł Î±Î½
Ġà°ľ à°¿à°²à±įà°²
Ġáĥ¡ áĥĺáĥĽ
à¤¾à¤Ĥ à¤¨à¥Ģ
è½¯ ä»¶
Ġ×ĳ ×Ĺ
Î¼Î± ÏĥÏĦÎµ
Ġà´¸à´Ĥ à´Ń
ĠÚ©Ø± ÛĮÚº
ĠÑĩÐ°Ð»Ð°Ð² ÐµÐº
ĠáĥĻ áĥĲáĥľ
Ġà® Ī
ÏģÎ± Î½
Ġà°µà°¿à° §
ĠÑĩ Ñĭ
Ġà¸ ļà¸
Ġå ¯
h Ä¾a
Ġàªħ àª§
ĠáĥĲáĥ® áĥĲáĥļ
ªà¹Īà¸§ à¸Ļà¸
Ġu d
ĠÐļ Ð°ÑĢ
ĠRes p
à°¨à±įà°¨ à°¾à°°à±ģ
à¹Ģà¸ Ľ
ë ¸
Ġja un
Ġi c
Ġf ue
Ġèī ²
ĠØ¨ Ø§ÛĮØ¯
ĠÐľ Ð°ÐºÐµÐ´
ÑĢ Ð¶
à¤¾à¤ ĸ
ĠÐ¾ÑĢÐ³Ð°Ð½ ÑĸÐ·
à¤ķ à¥ĭà¤Ĥ
ĠÐ¢Ð¾ÑĪ ÐºÐµÐ½ÑĤ
å½± éĻ¢
ana ng
Ġà¦ªà¦° à¦¿à¦ļ
ĠÐłÐ¾ÑģÑģ Ð¸Ð¸
Ġs Ã¶z
ÐµÐ½ Ð³
Ð± Ð¾Ð»
g ia
Ġm ak
ãĤĭ ãģ¨
ÒĽ Ð¸Ð½
h ra
ÙĢÙĢ ÙĢÙĢ
Ø¹ Ø¶
el b
Ġbo le
Ġàªĸ àª°
à¯ģà®Ł à¯Īà®¯
ĠM ai
ro Å¡
ÈĽ ion
Ð½Ð¸ ÐºÐ°
Ġa ny
Ġlá»į wá»į
Î»Îµ Îº
Ġëħ ¸
Ġ Ïī
ÏĥÏĦÎ· ÎºÎµ
Îº ÎŃ
Ġo ti
Ġbil dir
Ġz mi
A B
à¦¾à¦¨ à¦¿
ĠÂ ¡Â
àª®àª¾àªĤ àª¥à«Ģ
Ð½ ÐµÑĤ
v Ã¤n
v es
áº¥ n
Ġso lo
ĠI á¹£
×Ļ× Ĵ
Ø§Ø¦ ÛĮÚº
Ġb ol
áĢľ áĢŃáĢ¯áĤĶ
à¯įà®¤ à®¾à®©à¯į
Ġà´µàµįà´¯ à´ķàµįà´¤
áĥĵ áĥľáĥĶáĥľ
à¸´à¹Ģà¸ Ħà¸£à¸²à¸°à¸«
Ġà°ķ à±ĩà°¸
åĳ Ĭ
is che
àªĤàª¤ à«įàª°
ÐºÐ°Ñĩ Ð°ÑĤÑĮ
à´¨ à´¿
áĢ¼ áĢĶáĢ¹áĢ¸
áĢ¶ áĢ·
áĢŃ áĢĶáĢ¹áĢ¸
ĠÏĢ Î±Î½
ë£ Į
Ġà´® àµĭ
ĠÑĪÐº Ð¾Ð»
Î¼ÎŃÎ½ Î¿Ïħ
Ġà°ķ à°¥
áĥĺáĥĽ áĥĶ
è° ĥ
è§Ĩ è®¯
Ġa ff
ÏĢÎ¿ Ïį
à´¯ à´¿à´²
Ġma jd
ĠÐ½Ð°Ð² Ð°ÑĤ
ĠáĥĴ áĥĲáĥ£áĥ
Ġà¦¹ à¦¤à§ĩ
ÎŁÎ ¤
Ġà°ħ à°¡
ĠÂ ¤
à¹ Ħà¸£
åĨ Ľ
à®Ł à®¿à®¯
ĠM or
Ġáĥł áĥĲáĥĽáĥĵ
à¹īà¸Ńà¸¡à¸ ¹à¸
tz eko
Ð½Ð°Ñģ ÑĮ
Ġde ri
Ġà°ªà±įà°° à°¤
¥à¸ ĩ
Ø´Øª Ùĩ
Ð¸Ð½ Ñĸ
Ñı Ñħ
pra w
à¤°à¥įà¤ ¸
Ġë Ĩ
s ÉĻ
Ġb en
à¤¿ à¤Ĥà¤¦
ĠØ· ÙĪØ±
æĪĲ äºº
ĠÐ¼Ñĥ ÑĤ
Ġà¤«à¤¿à¤² à¥įà¤®
le lo
um Äģ
Ñı ÑĤÑĮ
à«ģàª Ń
ĠÑģ Ð¸Ñĳ
ĠÐ¼Ð°ÑĢ ÐºÐ°Ð·
ãĥĨ ãĤ£
Ġse hlo
el lÃ¤
Ð°Ð² Ð¾Ð±
ĠrÃ³w nieÅ¼
ĠÃ© le
Ġà®ªà¯Ĩ à®£
ĠìŀĪ ìĬµëĭĪëĭ¤
ĠÙĦ Øª
Ġ×ķ ×ľ
Ġà®¨ à®¿à®©
à¦¦ à¦¿à¦¨
Ġt ur
Ú© Ø³
ÐµÑĤ Ñĭ
à«ĭ àª®
wá»į le
ĠÎ¤ Î¹
Ġà¦¬ à¦¾à¦°
Î»ÎŃ Î¿Î½
ĠÏĥ Î±Î½
Ġ4 5
ĠT a
ĠÑĩ Ð¸
á»Ļ c
Ġfo onu
ï¼ Ĵ
åķ ı
Ðº Ð°ÑĤÐ°
owan y
Ð¿ Ð¾Ð»
Ġa voir
ri j
ĠÙħ ÙĪØ±Ø¯
Ġtin do
Ġse baka
Ġb Ã¼tÃ¼n
k Ã©nt
áĢĻ áĢ®áĢ¸áĢ
à¯ģà® ¨
à´¿à´ ¦
áĥĶáĥ ¨áĥĺ
à¹Ħà¸ ĭà¸
Ġà°²à±ĩà°¦ à±ģ
æī ĵ
C J
à§ģ à¦¤
Ġn jer
Ġà´ļ à´¿à´²
áĢ»áĢĸ áĢħáĢ¹
Ġ áĤıáĢ½áĢħáĢ¹áĢ
áĢ¡ áĢŀ
Î¼ Î¼
ĠÄ« pa
Ġà´® à´±
ĠÐ¿ Ð°Ð³
ÏģÎ· ÏĥÎ·
à°¾à°° à°¨à°¿
áĥĲáĥĽ áĥĺáĥ¡
æ² ¡
æ± Ĥ
Äį ka
Î¸ ÏģÏİ
àµĢ à´¤
Ġnu e
ÑĢÑĭ ÐµÐ¼
ĠáĥĲáĥĽ áĥĳ
ÙĤ Ø¹
ĠÎŃ ÏģÎ³
Ġà°ļ à°Ĥà°¦à±įà°°
Ð°Ð¼ Ð¿
Ġà¸ Ľà¸
Ġæ Ń
Ġà®ĩà®°à¯ģà®ķà¯įà®ķ à¯ģà®®à¯į
b ra
áĥĶáĥłáĥ Ľ
¥à¸ ¹à¸ģà¸
Ġàª¸ à«įàªª
Ð°Ð½ ÑĤ
Ġ×ľ ×§
à°¿à° ³
Ġà¸ŀà¸Ļà¸ ±à¸Ļ
Ġh ier
Ġun ui
Ġo laraq
Ġ raz
à¥įà¤Ł à¥Ģ
ch te
Ġk m
Ġam ba
à¤¨ à¤²
Ġà¦® à¦¾à¦¸
à¤¾à¤² à¤¯
ĠÑĢ Ñŀ
Ġà¤¸à¤¿à¤Ĥ à¤¹
ĠÐ±Ñĭ Ð»
ĠØ´ Ùĩ
ÐºÐ¾ Ñİ
Ġtu le
Ð» Ð¾ÒĽ
Ð´Ð¸ Ðº
n el
li m
Ġàªķàª¾àª° àª£à«ĩ
Ð¸ÑĢ Ð¾
Ġw ÅĤa
ĠP ri
Ġà®ī à®²à®ķ
Ð°ÑĤ ÐµÐ»
ĠÙģ ÛĮÙĦ
Ġf Åĳ
lar ak
à¦¿à¦Ł à¦¿
Ġt loa
Ġme tsi
ĠU ne
k Å¯
Ġy eke
ĠÏĢÎ¬Î½ Ïī
×ķ× ļ
4 8
ĠÎŃÎ½Î± Î½
ÏĮÏĦÎ· ÏĦÎµÏĤ
Ġay á»į
Ġes pe
ãĥ³ãĤ ¿
d in
ÙĨ Ø§ÙħÙĩ
Ø§Ø± Ùĥ
Ġdu e
Ġp ierw
ÑĢÐ° Ñħ
b or
Ġà¦¸ à§įà¦Ł
Ġik ke
ur ufu
Ġso t
ĠÑĤ Ð¾Ð¼Ñĥ
ÙĬ Ø²
áĢĿ áĢĦáĢº
Ġdi ff
à´ ł
Ġáĥľ áĥĲáĥ®
Ġ à¹Ĩ
à°ķ à°°
Ġå¤§åıĳ æĹ¶æĹ¶å½©
um i
Ð°ÑĨÐ¸ ÑĺÐ°
ìł Ĳ
à´® à´¾à´£
áĢ±áĢ ĸ
ĠáĢħ áĢŃáĢĲáĢ¹áĢ
áĢľ áĢ¬áĢ¸
ÏĪ Îµ
àª³ à«Ģ
à´¨àµįà´ ®
ĠÐ· Ð°Ñŀ
Î» Î¹Ïĥ
Ġà° Ĺà°¾
áĥĴ áĥĿáĥĽ
à¨¿ à¨
èĢ Į
Å¾ d
á½ °
Ġà´® à´¾
olg Ã¡l
ĠÑģÐº Ð°Ð·
áĥĲáĥĽ áĥĶáĥľáĥ¢
ĠØ¨Ø§Ø² ÛĮ
ÎĻÎ Ķ
Ġà°ķ à±ĩà°Ĥà°¦à±įà°°
ĠÐ¿ÑĢÐ°Ð´ ÑģÑĤÐ°Ñŀ
Ķà¸ ¹
æĭ ¿
ãģ¡ ãĤĥ
æĸĻ çĦ¡æĸĻ
áĥĲáĥłáĥ ¯
Ġà¸Ħ à¸²
ãĥ» ãĥ»
ĠÑĨ ÑįÐ½ÑĤ
à¯Īà®¯ à®¾à®©
à±Ĩà°² à±įà°²
Ġà¸ ¡à¸µ
ĠØ§Ùħ Ø±ÛĮÚ©
ĠÃ§ a
Ġbohlo koa
ha ta
à¥ĩà¤ ·
Ġwie der
ci ona
Ġl Ã¤
à¤Ł à¥Ģ
Ġà« ©
à¤¾à¤¤ à¤¾
Ñģ Ð¸Ð½
à¥įà¤² à¥Ģ
à«įàª¯ à«ģ
lo Äį
Ġt Ã´i
Ġv it
ĠÑĤÑŀÒĵÑĢÐ¸Ñģ Ð¸Ð´Ð°
Ð¸Ð¼ Ð°
tÄģ s
Ġ×Ĳ ×Ĺ
Ñı Ð±
Ò ²
ĠØ´Ø± Ú©Øª
ĠÃ©r d
m Ä±
ĠJ ak
ĠàªĹàª¯ àª¾
c ur
ĠC z
ĠØ£ Ùħ
ĠÃ®ntÃ¢l ne
ta rea
ĠHa e
Ġch ÃŃnh
ĠW a
ĠÎºÏģÎ¹ ÏĦÎ¹ÎºÎ®
Ġf er
ĠÏĢÏģÏĮ Ïĥ
f yd
ĠÏĦÎ± Î¾Î¹
Ġdá»į má»į
ĠÛģÙĪ Ú¯
Ġãĥ ª
ĠA gbegbe
ÉĻn i
Ġt en
ìĿ´ ìĬ¤
Ð¾Ð» ÐµÐ¼
à¦¾à¦ ·à§įà¦Ł
ĠÛ² Û
Ú© ÙĦ
ĠíĮ Į
Ġpaa pa
ĠÑĹ ÑĹ
Ġho bane
ĠÙĬ Ùħ
áĢŁ áĢ¯áĢĲáĢ¹áĢ
Ġmo g
àµĤà´Ł àµĨ
Ġáĥķ áĥĺáĥľ
« à¸²
à°¾à°¨ à°Ĥ
å Ķ
Åĳ r
m ir
k ko
à´Ļàµįà´Ļà´³ à´¿à´²àµįâĢį
áĢ±áĢĽ áĢ¬
ĸ áĢŃáĢ¯áĤĶ
ĠáĢĳ áĢŃáĢ¯
ÏģÎ³ Î±Î½
Ġàªķàª° à«įàª¯à«ĭ
Ġà´ħ à´¤àµį
ĠÐ³ ÐĤ
ÎĹ Î¤
à°¯ à°Ĥà°²à±ĭ
áĥĶáĥĳ áĥĽáĥĲ
åħ ī
à¤¾à¤ł à¥Ģ
ÑģÑĤÐ² Ðµ
ÎŁÎ ł
à´ļàµįà´ļ àµį
l ou
ĠÐ¿ÑĢÐ°ÑĨ ÑıÐ³
Ġáĥ¨ áĥĿáĥłáĥĺáĥ¡
Ġb ere
ĠÎķ Îł
à°¦ à±ĩà°¶
ĠÐ² Ð°ÑĢ
Ĺà¸ ĩà¸
ä¸ ĸ
Ġà®ª à¯Ĥ
u al
áĥĶáĥĳáĥ£áĥļáĥĺ áĥĲ
à¸Ńà¸ °
v iz
Ð ¦
à§įà¦ Ń
Ġà°ķ à°¾à°µ
Ġ à¹Ħà¸¡à¹Ī
k lad
Ġb Äĵr
Ġs te
×ĺ ×¨
Ġå¤© å¤©
p tion
Ġbi le
le ur
à¤¡à¤¼ à¥Ģ
Ġàª¸àª° àªķàª¾àª°
Ġà¤® à¤¾à¤°
Ð¾Ð² Ð°ÑĢ
Ġà¤ķà¤° à¤¤à¤¾
à«ĭàª ı
Ġk is
í ĳľ
Õ¥ÖĢÕ ¨
ÑĥÐ½ Ð¸Ð½
ĠÐĳ Ð¸ÑĢ
an to
ĠÙĤØ± Ø§Ø±
ks et
Ð¼ Ð¸Ð¹
ĠÑĥÑĩ Ð°ÑģÑĤ
áº« n
lÉĻrin i
ĠSa int
to ire
st ru
Ġk Ãµ
ĠÑī Ð¾Ð±
Ġë ¡
Ġà®ªà¯ĭ à®Łà¯įà®Ł
Ġgom me
et Å¡e
Ġnigba gbogbo
ĠÏĢ Î¹
Ġf al
ĠÎº ÏģÎ±
ĠÏħÏĢÎ¬ÏģÏĩ ÎµÎ¹
ÏĥÏĦÎ¹Î±ÏĦÏĮ ÏģÎ¹Î±
Ġon ib
ĠÐº Ð¾Ð³Ð´Ð°
Ð°Ð¼ Ðµ
Ġap áº¹ráº¹
àª¾àªĤ àª§
b Ã³l
es so
Ä«g as
Ġi h
dz enia
Ġèĩ ª
Ġà®ī à®¤
Ġa á¹£áº¹
Ġà¦Ńà¦¾à¦° à¦¤
ĠG a
Ð¾Ð· Ð¸
áĢŀ áĢĬáĢ¹áĢ·
Ġl um
à´¿à´ķ àµ¾
ĠáĥĽ áĥ¨
¥ à¹Īà¸²à¸
à±ĭ à°ª
æĸ ¯
ĠØ¯ ÛĴ
ĠÅŁ ÉĻx
à¦°à§įà¦ ľ
Ġà´µ à´¿à´²
áĢ» áĢ¾
±áģ¾áĢĢ áĢ¬áĢĦáĢ¹áĢ¸
áĢĦáĢ¹áĢ Ļ
ĠÎµÏħ ÏģÏİ
Ġàªµàª¿àª ļ
à´¯àµįà´ķàµįà´ķ àµį
ĠÐ²Ñĭ Ð´
ĠÎµ ÏĨ
à±ģà°ķ à±ģà°¨à°¿
áĥĲáĥł áĥĲ
çķ Į
à¤¾à¤² à¤¾
Ġa kan
ÎĳÎ ľ
Ġà´® àµģà´¨àµįà´¨
Ġj ar
ĠÐ¿ÐµÑĢ Ð°Ð´
Ġáĥ¬ áĥĶáĥļáĥ¡
Ø¨ Øª
Î¼ Î¯Î±
à°¾à°Ĥà° ķ
ĠÐ² Ð°Ð¹
´ à¸Ļà¸
Ġç Ľ
ri d
c en
ĠáĥĽ áĥª
Ġà¹Ģà¸ Ľà¹ĩà¸Ļà¸
Ġwur de
Ð¾ÑĢ ÑĭÑı
Ġìĺ¤ íĶĦíĻĶìĿ´íĬ¸
à°Ĥà°Ĺ à°¾à°£
à¸£à¸±à¸ ģà¸©
ĠëĲ ĺ
Äģci jas
Ġgja tÃ«
Ġv Ã©
à¤ķ à¤¾à¤°à¥Ģ
Ġp owie
ut lo
Ø§ÙĦ Ø©
à¥įà¤° à¥ĩà¤¸
Ġàªµ àª¿àªķ
à¤ı à¤¸
ĠÐ½Ð°ÑĦ Ð°ÑĢ
Ġà¤ħ à¤ļà¥įà¤Ľ
Ġà®¤à¯Ĩà®° à®¿à®µ
ÙĪØ± Ù¹
ĠÐºÐ¾Ð¹ ÑĤÐ¾
Ġn Ã¡s
Ð¾ÑĪ ÑĤ
Ð½ Ð°Ð»
Ġà¦Ĩ à¦¶
Ġut Ã¡n
ĠÐ¾Ð½ Ð»Ð°Ð¹Ð½
ĠÐ¾Ð½ Ò³Ð¾
g ie
Ġ×ŀ× ĵ
Ġàªª à«įàª²
ĠÐ¸Ð½ ÑĦÐ¾ÑĢÐ¼
ĠÙ¾ Ø§ÛĮ
Ġ Õ¡Õ¶
y un
ci ja
à®¾à® ¨
ul la
e tse
Ġe ke
k oso
9 0
Ã Ģ
ĠY n
b r
ĠÏĥ ÎºÎ¿
Ġo j
ĠÂ ¹
ĠNa m
ff ee
Ġàª¨ àªµ
à¦¹ à¦¾à¦°
ĠÐĿ Ðµ
Ø±ÛĮ Ùģ
Ġìł Ģ
ĠÙĪ Ø§
un ea
ÑĥÑīÐµ ÑģÑĤÐ²
Ġá»į kunrin
Ġje ho
hi le
à®ķà¯įà®ķ à®®à¯į
áĢĽ áĢ®áĢ¸áĢ
Ġeg Ã©sz
àµįâĢĮ à´¸
Ġáĥ¨áĥĶáĥ¡ áĥĲáĥ«áĥļ
à¹Ģà¸¥à¸ ·à¸Ńà¸
à°Ĥà°Ł à°¿
åģ ļ
c tor
in si
o t
Ġà´ļ àµĭà´¦
áĢ±áĢ¬ áĢĦáĢ·áĢº
áĢģáĢ» áĢĢáĢº
áĢ¯ áĢķáĢ¹
ĠÎĳ ÏĢÎ¿
àªĤ àª®
àµĩ à´±àµįà´±
ĠÐ· ÑĢÐ°Ð±
ÏĢÎ¿Î¯ Î·ÏĥÎ·
à°°à±įà°µ à°¾à°¤
áĥĲáĥł áĥĶáĥĳáĥĺáĥ¡
é¡ ¹
èĤ ¡
p po
Î³ÏģÎ± Î¼Î¼Î±
Ġà´¨à´¿à´¨àµįà´¨ àµģà´Ĥ
Ġà®Ĩ à®¯
ĠÐ³Ñĵ Ñĺ
áĥĶáĥ £áĥļáĥĺ
Ġnh Ã¢n
ĠÏĥÏħ Î³Îº
Ġà°µ à°¿à°¨
ĠÐ½ Ð°ÑĢÐ¾Ð´
Īà¸ ¸à¸
åĮ Ĺäº¬
Ã¦ re
çķ ª
áĥĲáĥľ áĥĴ
§à¸¥ à¸²
ĠÐº Ð¾Ñĺ
Ðº ÑĢÐ°
un do
à°¤ à±įà°°
à¸Ńà¸¢à¸¹ à¹Īà¸
Ã§ a
Ġv ia
Ġb el
ì »
à¥ĥ à¤¤
ÐµÑĢ ÐµÐ´
Ġtso hle
ĠØ§ÙĨÛģ ÙĪÚº
Ġà¤ķ à¥įà¤°
àªķ à«Ģ
à¥ĩà¤ ¬
ĠÐ³ ÑĥÑĢ
äºº äºº
esz cze
Ġjed no
al is
ÙĨ Ø³
ĠÐĳ Ð°ÑĢ
Ð± Ð¾ÑĪ
c Ä«
Ġtjet Ã«r
ìĹĲ ê²Į
ĠÐ¼ Ð°ÑĪ
Ġà®İà®´ à¯ģà®¤
à§ĩà¦ ¹
à«ĭ àª¨à«Ģ
ð Ł
Õ¸ Õ¶
ĠB ir
t Ã¤Ã¤
Ġg Ã©n
ãĤ ¶
à¯Īà®¯ à¯ĩ
ho o
ĠÚ© ÙĨØ¯
Ġy ÃŃ
ĠÎĺ Î±
te an
Îµ Î½Î¿Î´Î¿
ĠÏĦ Î¯
Ġ201 3
b ul
Ġ×ŀ× Ľ
à§ĩà¦® à§įà¦¬à¦°
Ġonib ara
Ġàª ¥à«Ģ
ĠÑģ Ð¾ÑģÑĤÐ°Ð²
ĠB ratisla
lo Å¾
ro d
Ġk Ã©t
ĠPer soane
Ġh á»£p
ĠÂ £
ÈĻ o
à¦°à§įà¦ ¶
Ġãĥ ĳ
ĠáĢ¡ áĢģ
Ð¸Ñı ÑĤÐ°
à´¶ àµįà´¯
ĠáĥĿ áĥłáĥĴáĥĲáĥľ
ŀà¸ ·à¹Īà¸Ń
Ġà°¨à°¿à°° à±įà°®
åıĳ å±ķ
Ð· ÑĭÐ²
ĠÐ¾Ñģ Ð½Ð¾Ð²
Ġà®ĩ à®©
àµĤ à´°àµįâĢį
ĠáĢŁ áĢ¯
áĢĢáĢ¹áĢ ¡
ĠáĢĲ áĢħáĢº
ĠÎ¶ Î·
p ii
Ġà´µ àµĩà´£àµįà´Ł
Ð¾Ñŀ Ð²
ÎŃÏģ Î½Î·
Ġà°® à°§à±įà°¯
ĠáĥĶ áĥķáĥł
åį İ
Ć ć
ĠØ³ ÙĬ
ĠÎĶÎ¹Î± Î²Î¬ÏĥÏĦÎµ
àµįà´ ¦
ma a
Ñį Ðº
Ġáĥ¡áĥĲáĥ Ĵ
Ġíı ī
Î´ Î¿Ïħ
à±ģà°Ł à±įà°Ł
ĠÑĳ ÑģÑĨÑĮ
Ħ à¸£à¸±à¸ļ
Ġ ą
Ġ Õ¡Õµ
ĠÚ©Ø± ÙĨØ§
áĥĲáĥ£áĥ ł
ŀ à¸£à¸
k Äħ
ĠÐ°Ð´ ÐºÐ°Ð·
éģ ¸
à°ª à±įà°°
Ġà¸ ļà¸²à¸Ĺ
Ġen s
Ð¾ÑĢ Ð°
Ġsh ka
Ġvi esnÄ«
Ġà¤ħ à¤µ
àª¿ àªĤàª
à¯Ĭ à®´
Ġsz a
à¤¿à¤² à¤¾
à«Ģàª ¶
à¤¿à¤ ¹
ĠÐľ Ð°ÑĢ
Ġà¤ĺ à¤°
Ġre z
Ġsch on
bb e
Ġbo lela
ĠÑģÑŀ Ð·
ĠÐ±ÐµÐ» Ð³
ĠíĶ Ħ
à¦¿à¦¬ à¦¾à¦°
ĠØ± Ø§Ùĩ
ÑĥÐº ÑĥÐ¼
Ġap rÃ¨s
sch en
Ġà§ ·
Ġb Ã¶yÃ¼k
àª¸ à«įàªŁ
Ġfe la
y y
ent ro
è¾ ¼
Ġqu an
Ġkw enye
h Ã¡z
Ġof urufu
ĠÏĥÏĦÎ¿ Î¹
Ġle baka
ow s
ĠÎ» ÎµÏĢ
Î¬ Î²
Ġá»į dá»į
ĠØ§ÙĦØ º
à¦¦à§įà¦ ¦
Ġh áº¹
O W
ĠÐ´ ÐµÐ¹ÑģÑĤÐ²
cz as
ĠÐ¿ÐµÑĢ ÐµÐ´
ĠØ§Ùģ Ø²
vo d
ĠF emei
ĠÃ ¤
Ã³ Ì£
ĠÃ®ntÃ¢lne ÈĻte
Ġà¦ķà¦° à§ĩà¦Ľà§ĩà¦¨
ol ya
áĢ± áĢĢáĢº
Ġno teik
àµĩà´· à´Ĥ
ĠáĥŀáĥĿáĥļ áĥĺáĥ¢
ŀ à¸²à¸
Ġà°¤à±Ĩà°² à°Ĥà°Ĺà°¾à°£
æŃ ¤
Ġap ar
ĠÙĨ ÛĮØ²
Ġàªħ àª²
Ġà´¸ à´¿à´¨à´¿à´®
áĢŀ áĢĬáĢ¹áĢ
áĢĢáĢ¹áĢ Ĳ
Ħ áĢ¼
ĠÏĮ ÏĢÎ¿Ïħ
ÈĽ e
Ġà´µ à´¨àµįà´¨
Ð³ Ñĥ
Ïĥ Î¹Î¬
Ġà°ĩ à°ļà±įà°ļ
áĥĲáĥ« áĥĶ
èģ Į
å¤ ´
×ĳ ×Ķ
ĠÏĥÏĩ Î¿Î»
à´¾à´° à´Ĥ
Ġa ku
ĠÐĲÐ»ÑıÐºÑģ Ð°Ð½Ð´
ĠáĥĲáĥ ĺ
Ġd ia
Î³ Î¬
à°¿à°² à±į
Ñĳ Ð¹
Ħ à¹Īà¸
åĪ Ľ
ÑĨÐ¸ ÑĺÐ°
ìĭ ¬
ĠáĥĲáĥ £áĥ
µ à¹Īà¸
ĠÑįÑĤ Ð¾Ð³Ð¾
ÐĨ Ðĵ
Ġto dos
Ġà°® à±Ĩ
à¹Ī à¸Ļà¹Ģà¸
m Ã©
ãĤĵ ãģ§
Ġpri ma
ĠSlov ens
à¤¾à¤ ¡
à®¤à¯įà®¤ à®¿à®¯
ĠØ¯ ÛĮÙĨ
la st
à¤ Ŀ
Ġer a
à¥ĭ à¤§
Ð°ÐºÑĤ Ð°Ð±
Ġà¤¬ à¤ļà¥įà¤ļ
Ġt Ã¡
ìĺĪ ìķ½
Ġë¬ ´
ĠfÉĻ al
ĠÐ³ Ð°Ð¿
ĠÐ¼ Ð¾Ð»
å¿ ľ
à§ĭ à¦·
Ġg ru
ÒĽ Ð¸
et la
ĠÐ² Ð¸Ñģ
Ġà¦ ł
r ÃŃ
li j
lor s
Ġq ay
Ġà®ĩ à®ªà¯įà®ª
it us
àªĸ àª¤
ĠÐ² Ð¾Ð¿ÑĢÐ¾Ñģ
Ø¸ Ùħ
Ġi ya
ia eth
he it
ĠÏĢÏģÎ±Î³ Î¼Î±
ĠÎ´ÏħÎ½Î± ÏĦÏĮ
Î¯ Î´Î¹
iyan ju
Ġ ãģĦ
Ð¾Ñģ Ð¿
Ġrá»į run
Å¡o ant
Ġtse o
ĠÙĤ ÛĮÙħØª
Ġp en
ì ¶ľ
Ġs tre
ĠÐŃ ÑĤÐ¾
ĠÙ¾ÛĮ Ø´
ĠGbo gbo
å ĥ
à¯Ĭ à®£à¯įà®Ł
Ġà¦ª à§ģà¦°
»áĢķ áĢ³
Ġla b
Ġà´ļ àµĩ
ĠáĥĲáĥ Ļ
Ĳ à¸
Ġà°¦ à±Ģ
ä¸ ĵ
Ġen f
× ¥
Ġf ra
Ġà´® àµģà´¤
ĠáĢĨ áĢĽáĢ¬
áĢĢáĢ¹áĢ ħ
áĢĶ áĢļáĢº
ĠÎ£ ÎµÏĢ
I E
Ġà´ªàµįà´° à´¸
ĠÐ¼Ñĥ Ð·
Î¸Îµ Î¹Î±
à°¾à°² à°ķà±ģ
ĠáĥĻ áĥļ
à¥ĩà¤ ļ
é£ İ
dz iaÅĤ
ĠÎĶ Î®
à´ķàµįà´ Ł
ĠbÃ«r Ã«
ĠÑĢ Ð°Ð±
áĥĲáĥł áĥĶáĥĿáĥĳ
Ġk Ã©r
Î¯Îº Î·
Ġà°² à±ĩà°ķ
ĠÑħ ÑĤÐ¾
à¹ģà¸ ¡
ç Ł
Ġà®ª à¯ĩà®°
k us
Ġáĥĺáĥľáĥ¤ áĥĿáĥłáĥĽ
Ġà¸§à¸´à¸ ĺ
Ġàªķàª°à«Ģ àª¨à«ĩ
ĠÐ² Ð°Ð»
Ġà¦ļ à¦¾à¦²
Ġà°¤ à°¿à°°
Ħà¸£à¸ ±à¹īà¸ĩ
Ã ĸ
Æ° a
d ul
va Å¥
à¤¾à¤² à¥Ģ
Ġv je
Ġìļ° ë¦¬
Ġà®® à®£
ĠNe ws
ĠÐ¾ÑĤ ÑĢÐ¸Ð¼
à¤Ĥà¤¤ à¥įà¤°
ĠÐ¾ Ð¹
à¬ ¾
Õ¡Õ º
Ġb elÉĻ
ĠÐºÐ¾ ÐµÑĤÐ¾
Ð¾Ð½Ð¸ ÑĺÐ°
ĠÐ± Ð°Ò³
ĠÐĲ Ð·
Ø¹ ÙĬ
Ø± Ùħ
t he
ĠÐ¸ÒĽ ÑĤÐ¸ÑģÐ¾Ð´
c teur
un den
cz eg
à§ĩà¦ Ĺ
Ġãĥ Ī
Å¡an ai
Ġen core
Ð¾Ð½ ÑĤ
Ġàª¶ àª°à«Ĥ
×ľ ×Ļ×Ŀ
Ġm ie
gy an
a bo
Î»Î± Î¼Î²
Ġì Ī
9 5
ĠÎµ ÏĦÎ±Î¹
ĠÏĢÎ±Î¹ ÏĩÎ½
láº¹ yin
Ð² ÑĢ
ĠÃ¶ n
ĠY or
ĠØ¨ ÛĮÙĨ
on te
ov at
Ġl le
à®¤ à¯ģà®®à¯į
Ġts ena
Ø¯ Ø§
Ġd Ã´
ĠI gb
Ġentre pr
ĠW e
Ġco lor
Ġ áĤıáĢŃáĢ¯áĢĦáĢ¹áĢĦáĢ¶
Ġãĥ ©
Ġà´¨ à´®àµįà´®
áĥ£áĥł áĥĺáĥ¡
à¹ģà¸ Ĥ
Ġà°®à±ģà° ĸà±įà°¯
20 20
Ø±ÙĬ ÙĤ
ĠÐ²Ð¸Ð´ Ðµ
Äĥr Äĥ
àµĢ à´·
áĢ¾ áĢ¯
±áĢĽ áĢ¸
áĢ»áĢķ áĢ³
Î»Î· Î¼Î±
Ġà®ħà®± à®¿à®µ
à´Łàµįà´Ł àµį
ĠÐ´Ð·ÑıÑĢÐ¶ Ð°Ñŀ
Î³ Î¹
à°¾à°³ à±įà°³
Ġáĥª áĥ®áĥĿáĥķáĥł
ç« ŀ
å¢ ŀ
à«ĭ àª¨à«ĩ
ĠÎľ ÎŃ
Ġà´¸ àµįà´±àµįà´±
Ġdon c
Ñĸ Ð»Ð°
ĠáĥĽ áĥĲáĥłáĥ¢
ãģ ĸ
Î´ ÏīÎ½
Ġà°µà°¿à°¦ à±įà°¯
ĠÑĢÐ°Ð· Ð¼
¹ à¹Ī
ä»Ģ ä¹Ī
Ġê³ Ħ
Ġs inh
áĥĲáĥĵ áĥĲáĥ¡
Ġà¹Ĥà¸ Ķà¸¢
to a
Ñı Ñŀ
ek s
Ġà°®à±Ģ à°°à±ģ
à¸£à¸ ¹à¸
Ġcu ando
Ñģ Ñĭ
Ġod powie
ĠÃº gy
à¥ĩ à¤¹
à¦¿à¦ ¹
Ġi hre
ĠÐºÐ¾ÑĤÐ¾ÑĢ ÑĭÐ¹
Ġà¤Ĩ à¤¯
b ak
Ġà¤¬ à¤¢à¤¼
Ð³ ÑĥÐ½
Ġà¤® à¤¾à¤®
Ġa Ã§Ä±
Ġk und
bil i
ĠÑĢ ÑĸÐ·
ĠÑģÐ°Ð± Ð°Ð±
ĠÐ² Ð°Ðº
Ġàªķàª° àª¤àª¾
n s
ĠÚ©ÛĮ ÙĦØ¦ÛĴ
Ð°Ð½Ð´ Ð°Ð¹
Ã´ tel
Ġk dy
Ġw ÅĤ
ĠÄ¾ ud
é §
Ġ×ŀ× ĳ
Ġo Ã¹
Ġëĺ Ĳ
larÄ±n Ä±
Ġà®ª à®¾à®Ł
ĠØ° ÙĦÙĥ
Ġp iem
Ġoris un
Ġe ich
Ġà®ĩà®° à¯ģà®ªà¯įà®ª
Ġfo d
ĠÎ²Î¿ Î·
ĠÏĢÏģÎ¿ ÏĬÏĮÎ½
bo ju
is sÃ¤
Ðµ Ñĺ
Ġip iláº¹
c j
ĠÄĳá»ĭ nh
ĠÑĤÑĢ ÑıÐ±
Ã« ri
Ġm un
Ġo ver
Ġques ta
Ġàªħ àªµ
p s
ĠØ´ Ùħ
Ðº Ð¾Ð¼
ãĥ¼ ãĤ¯
áĢļáĢ¹áĢľ áĢŃáĢ¯áĤĶ
ĠåĲ į
àµįà´ ľ
áĥ£áĥłáĥ Ĺ
ģà¸ ¥à¸²à¸
à±ģà°¤ à±Ĥ
æ Ĥ
z ott
à§ĭ à¦ª
Ġjed nak
à´¾à´¯à´¿à´° àµģà´¨àµįà´¨
ĠáĢķ áĢŃáĢ¯
ī áģ
áĢ ¦
Î¾ Ïį
Ð½Ð¸ Ðµ
Ġà´ķ àµģà´Łàµįà´Ł
ĠÑĢ Ñĥ
Î½ ÏĮ
Ġà°¬ à±įà°°
ĠáĥĶ áĥł
è¿ ĳ
Ġag æĹĹèĪ°åİħ
it ar
ĠÎ¤ Î¿Ïħ
Ġà´¨àµĩ à´¤
Ã¢ r
Ð»Ñĸ ÑģÑı
áĥĺáĥĻ áĥĺáĥ¡
ĠnÃ« n
Î¶ Î·
Ġà°¤ à±Ĭ
Ñĳ Ð¼
Ķà¸ ¹à¸
à¤ļ à¥įà¤¯à¤¾
Ãª te
s il
ĠáĥĲáĥ¦ áĥĽ
ĵ à¹Įà¸
Ġv om
ĠÐ¿ÑĢ ÑĭÐ¼
k el
à°°à±įà° ķ
«à¸¥à¸ ±à¸ĩà¸
Ð½Ð¸ ÑĨ
ta to
Ġd ost
o ti
à¶± à·Ĭ
à¯ģà®® à¯ĩ
Ġ×ŀ× ¦
à« «
Ġà¤ļà¤¾à¤¹ à¤¿à¤ı
àª¿àª §
à¤Ĥ à¤¸
ĠÐº ÑĥÑĩ
à¤¬ à¥Ģ
Ġsi g
ĠÐ±ÑĥÐ» Ð¾
Ġmok hoa
fa tsa
ĠÐ¼ÐµÑĪÐ°Ð² Ð°Ð´
Ð¶ Ð°ÑĤ
ÉĻ ÅŁ
à¦¾à¦ĩ à¦¨
ĠØ§ ÙħØ§
Ð´Ð°Ð½ Ð¸
Ġki ta
ĠéĢ ģ
ìłģ ìĿ¸
Ġv el
ãĥķãĤ ©
Ġd ru
Ġbo phelo
Ġim mer
Ġh Æ¡n
Ø³ Ø©
à¦¿à¦ §
l le
ĠL áº¹
Î¬Î» Î¹
Ú© Ø§
ĠÏĥÏĦÎ¹ Î³
4 7
9 7
Ġa wo
Ġke pada
à«Ģàª ¬
d ro
Ġnagy on
Ġye o
Ġf ol
dÄ± ÄŁÄ±
à¯ĭ à®ķ
Ġg ran
×ĵ ×Ļ×Ŀ
àªĹ à«Ģ
iy i
Ġe us
ĠÐ±ÐµÑģÐ¿ Ð»Ð°ÑĤ
åĭ Ļ
Ĳ áĢŃáĢ¯áĤĶ
ãĤ¤ ãĥ³
à´¨àµįà´¤àµįà´° à´¿
áĥĿáĥļ áĥĿáĥĴ
łà¸²à¸ ©
à± ĸ
Ġæĺ ¯
sk Ã¡
Ä£ i
ow Äħ
Ġà´² àµĭà´ķ
±áĢĨ áĢ¬áĢĦáĢ¹áĢ
áĢ±áĢķ áĢĻ
ĳ áĢ¬áĢĦáĢ¹áĢ
Î´ Ïī
ĠÐ¿ÑĢ Ð¾Ð±
à´¿à´ ¡
ĠÐºÑĸÑĢ Ð°Ñŀ
ĠÎļ ÎĳÎĻ
Ġà°İà°¨à±įà°¨ à°¿à°ķ
áĥľ áĥĺ
åĬ ŀ
çİ ĩ
Ġdu te
Î±Î½ Î¬
àµĨà´Ł àµģà´ķàµįà´ķ
un n
ĠÑĨÑı Ð¿ÐµÑĢ
Ġáĥ¨áĥĶáĥ ®
Ġà¦® à¦¨à§ĩ
ĠÎ» Î¿
Ġà°ħ à°®
Ð»ÐµÐ½ Ð½Ðµ
Ġ à¸Ļà¸²à¸
ĠèĢ Į
Ġà®µ à®ķ
Ã³ s
Ġáĥ§áĥķáĥĶáĥļ áĥĲáĥĸáĥĶ
Ī à¹īà¸²à¸
ĠZ eit
Ð² Ð°Ð½
ng a
à°µ à°¿
à¸Ļà¹īà¸ ³à¸
b Ã«
Ġm 2
cho d
ĠØ²ÛĮØ§ Ø¯Ûģ
à¤°à¥įà¤ ¶
ĠØ§ÙĦ Ø²
Ġfo is
Ġàªĸ à«Ĥ
Ġà¤Ĩ à¤Ī
à§įà¦² à¦¾à¦¹
Ġà¤¸ à¥Ĥ
ĠÐ±ÑŀÐ» ÑģÐ°
æ¬ §ç¾İ
Ø´ Ùĩ
ìĹ Īëĭ¤
Ġts he
ÐµÐ½ÑĤ Ð¾Ð²
ĠÐ¼Ð°ÑĬÐ»ÑĥÐ¼ Ð¾ÑĤ
Ð¾Ñģ Ð¸ÑĤ
c el
à¦¾à¦·à§įà¦Ł à§įà¦°
ĠÐ²Ð¸Ðº Ð¾Ð½
ĠÐ¼Ñĥ Ñģ
Ġcon o
ĠãĤ Ĥ
àª°à«įàª ¥
Ġi de
éĽ »
Ð´ Ð°Ñģ
Ð² ÑĬÑĢ
Ġer i
Ġnako ng
Ġp ay
Ġà®ª à¯ģà®°
ÑĢ Ñĸ
Ġs oke
Ġy s
ĠB il
ĠÏĢ Î¹Ïĥ
ĠW ind
Î¯ ÏĦÎµ
Ġoru ká»į
Øª ÙĪØ§ÙĨ
ĠÑħ Ð¾ÑĢÐ¾ÑĪ
ĠBa wo
Ġme re
ja l
×ķ×¨ ×Ķ
ia da
Ġà¦ľ à§Ģà¦¬
ÑģÐº Ð°ÑĤÐ°
ĠÄ ĵ
u tsch
Ġs iláº¹
ĠI talia
ĠÙĬ Øª
ãģı ãģł
áĢĢ áĢ±áĢĲáĢ¬áĢ·
ĠÐ´ Ð¾Ðº
à´² à´Ĥ
áĥĵ áĥĶ
¹ à¹Īà¸
à±ĩà° ¦à°¿
éĢ ł
à¯įà®Ł à¯į
Ġhe Ã§
at z
à´Ł àµģà´¤àµįà´¤
áĢĦáĢ¹áĢ ŀ
ĠáĢ±áĢ ħ
áĢĲáĢ¹áĢ ľ
ĠÎĿ ÎŃ
Ġje go
à´¿à´ķàµįà´ķ àµģà´ķà´¯
ĠÐ¿ÑĢ Ð°ÑĦ
ÏģÎ¹ Î¸
Ġà°°à±Ĩ à°Ĥà°¡à±ģ
áĥĽ áĥĺ
æĮ ĩ
Ġä¸Ń åĽ½
Ġmol to
ÏĦÎ¹Îº Î¿
Ġà´ķàµįà´ ·
Ġsvo j
ĠÑıÑŀÐ»Ñı ÐµÑĨÑĨÐ°
ĠáĥĽ áĥľáĥĺáĥ¨áĥķáĥľáĥĶáĥļ
Ġt ho
ÏģÏī ÏĢÎ±
Ġà°µà±įà°¯ à°ķà±įà°¤
ĠÑĩ ÑĭÐ¼
· à¹īà¸Ļà¸
Ġç ¬¬
Ġà¦ħ à¦§
men i
Ġáĥ§áĥĿáĥķ áĥĶáĥļ
Ġà¹Ģà¸¥ à¹Īà¸Ļ
ĠÐ¼ ÐµÐ½Ñı
Ð¾Ð»ÑĮ Ðº
Ġàª¬ àª¦
Ġà°¤ à°°à±įà°µà°¾à°¤
· à¸Ńà¸Ļ
ol Ã³
pan eng
Ġd ÄĽ
Õ¥Õ ²
à¤® à¤¾à¤¨
Ġq al
v il
ĠÑģÐ² ÑĸÑĤ
à¤°à¥įà¤ ¦
Ã³w i
Ġà¤ķ à¥įà¤¯à¥ĭà¤Ĥ
ĠÐº Ð°ÑĤ
ç¢ °
ĠNa ch
Ġìĸ ĳ
elij k
Ð¾Ð¶ Ðµ
ĠÐº Ð¸ÑĤÐ¾Ð±
Ð¾Ð· Ð¸Ð¼
Ġà®ķà¯Ĭà®£à¯įà®Ł à¯ģ
×Ļ×¨ ×ķ×ª
áº£ ng
ĠÐĶ Ð°Ð²
Ġà¦¨à¦¿ à¦°à§įà¦
Ġp m
Ġàªµà«įàª¯ àªķà«įàª¤
Ġsa vu
em u
ĀĀĀĀĀĀĀĀĀĀĀĀĀĀĀĀ ĀĀĀĀĀĀĀĀĀĀĀĀĀĀĀĀ
ãģ«ãģ¤ ãģĦãģ¦
Ġnjer Ã«z
Ø¬ Ø±
da p
Ã¡ go
ca le
ĠA W
Ġ4 8
± ħ
Ġ3 2
ĠÏĩÎ± ÏģÎ±Îº
ĠÏĩ Î»Î¼
Ġfun 88
Ġa ques
ĠÐ½ ÐµÑĤ
Ġy áº¹n
à¯Īà®¤à¯įà®¤ à¯ģ
bil ir
uks en
Ġo ra
Ġk arolo
dz y
Ġmu jeres
Ġh asta
ĠH ome
Å¯ Å¾e
te il
Ġãĥ Ĺ
áĢĲ áģ
Ð¾Ð¶ Ð´
àµįà´ ¡
áĥĲáĥľ áĥĺáĥĲ
à¸´à¸ Ķ
à°¿à° §
åĸľ æ¬¢
íķ© ëĭĪëĭ¤
an z
à«Ģàª ¦
à´¾à´´ àµįà´ļ
áĢ¯ áĢĴ
ĠáĢ ĵ
áĢ¬áĢ¸áĢĻ áĢº
ĠÏĦ ÏģÎ¿
ãĤģ ãģ¦
à´¿à´ļàµįà´ļ à´¤
ĠÐ´Ð· ÐµÐ¹
ĠÎ£ ÏĦÎ¿
à±Ģ à°²à±ĭ
Ġáĥŀáĥł áĥĿáĥª
è§ ģ
åĬ ©
ĠÃ µ
Î³Ïī Î³
Ġà´¸ àµģà´
es to
ÑģÐº Ð°Ðµ
ĠáĥĴáĥĲáĥľ áĥĽ
Ġà®ķà¯Ĭ à®³à¯įà®³
Îķ Î¥
à°Ĥà°¤à±įà°° à°¿
ĠÐ¶ ÑĭÐ²
à¸£à¸¹ à¹īà¸
å¾ ·
Ø§ Ùĥ
ju ma
ĠáĥĲáĥĵáĥĴ áĥĺáĥļ
¨à¸¶à¸ ģà¸©
Ã ľ
ĠÐ² ÐµÐ´
Ġàªħ àª¥
à°¿à° ¶
à¹Ģ à¸Ń
ia l
Ġgj itha
Ġà§ ®
ĠÐ¾ Ð²
Ġà¤²à¥ĩ à¤ķà¤°
Ġk uf
Õ ¹
ĠÕ Ħ
ĠH indi
ĠØ´ Ûģ
à¤ª à¥ģà¤°
Ð¸Ð± Ð¸
ĠåĽ½ äº§
à¦¿à§Ł à¦¾à¦°
la ire
ty w
j te
Ð¼ Ð°Ð¹
ĠÑıÐ½ Ð³Ð¸
ÐºÑĢ Ð°Ð¸
ĠÑģÐ¿ Ðµ
ĠÚ¯ ÙĪ
ĠÑĢÐ¸Ð² Ð¾Ð¶
Ġh Ã¤n
Ġ, +
Ġme futa
à¦® à¦¿à¦ķ
ĠØ§ÙĦÙĬ ÙĪÙħ
ç Ĺ
Ġluc ru
Ġl Ã¡t
ĠØ¹ ÙĦ
Äį a
lan o
Ð°Ð»ÑĮ Ð½Ð¸Ñħ
Ġo mo
ĠA C
Ø§Ø± Ûģ
ĠÎ±ÏĢ Î±Î½
Î»Î¿Î³ Î®
20 17
á»į pá»į
Ġm olt
Ð¾Ð½ Ñĭ
l d
à¦¾à¦ Ľ
Ö ¼
Ġm nie
Ġn daj
ĠH er
×Ļ×¨ ×Ķ
à®¿à® ªà¯į
Ġb Å«
Ġni báº¹
ĠÐĴ Ð¾
ĠÐ¼ Ð°Ð¹
v is
áĢ»áĢķ áĢĬáĢ¹áĢ
w et
Ġà´µ à´¾à´¯
ĠáĥĲáĥłáĥ ª
à¸µà¸ ģ
à°¿à° ¬
Ģ â
Ġca o
ĠÙĨØ¸ Ø±
ãģĮ ãģĤãĤĭ
Ġà´µ à´´
áĢĶáĢ¾ áĢħáĢº
áĢ½ áĢĢáĢº
áĢĻáĢ» áĢŃáĢ¯áĢ¸áĢ
Î´Î¿ ÏĤ
ë¥ ¸
Ġà´ħ à´±
Ð° Ñİ
ÏĨ ÏīÎ½
à±ģà°² à±įà°²à±ĭ
ĠáĥĽáĥĿáĥ ¥
éľ Ģ
åı Ĺ
do b
ĠÎ½ ÏĮ
Ġà´ĩ à´¤àµį
u es
ÑĢÑĭ Ñĩ
áĥ£áĥł áĥĲáĥĵ
à®¾à® ¨à¯įà®¤
ĠÎ´ Î¹Î¿
Ġà°¸ à°¹
ĠÐ¿ÑĢ Ð°Ð±
Īà¸ ³à¸
åħ ±
Ġdu pÄĥ
el n
Ġáĥ¡ áĥĻ
Ġà¸ «
Õ ©
ÑģÑĤ Ñĭ
ĠØ® ÙĦØ§ÙĦ
Ġà°ı à°®
à¹Ģà¸£ à¸²
Õ¡Õ ¼
ĠÚ© ÙĦ
Ġà¦ĩ à¦¨
Ġfi hle
Ġà¤ľ à¤¾à¤¨à¥ĩ
d Ã«r
Ġt ÉĻk
as Ä±nÄ±n
à¤¾à¤ı à¤Ĥ
s al
Ġà¤ª à¤¾à¤¸
ĠÐ· Ð¸Ñĳ
Ġà¤¬ à¥įà¤°
Ð°Ð» Ð¾
ov o
Ġà¦¨ à§Ł
ung u
ĠÐ¼Ð¸Ð» Ð»Ð¸
ĠÐ±ÑŀÐ» Ð°Ð´Ð¸
Ġf at
Ãª m
ĠD es
Ð°Ò³ Ð¾Ð½
jem y
m Å±
×ķ×ł ×ķ×ª
Ġà¦Ĩ à¦¨
Ġpra w
ĠØ§ Ø·
Ġphaha meng
scha ft
ĠShqip Ã«r
Ø Į
Ġt em
Ġà®ĩà®°à¯ģà®¨à¯įà®¤ à¯ģ
Ġi wá»į
ÏĪ ÎµÎ¹
Ð¸Ð· Ð½Ð°Ñĩ
Ġg we
ÏģÎ± ÏĥÏĦÎ·
ĠÏĨ ÏħÏĥ
Ġf á»į
s Äĵ
en Ã©
Ġa fáº¹
à¦¾à§ľ à¦¾
ĠE us
t za
Ġk y
Ð½Ðµ Ðµ
à«ĭ àª¨àª¾
Ð´Ð°Ñģ Ð´Ð°Ñģ
Ð² Ð¾
á»Į N
Ġr ou
szer Å±
ĠV iá»ĩt
áĢĽ áĢĦáĢº
Ã´ n
Ġà´¸ à´°àµįâĢįà´ķàµįà´ķ
áĥĲáĥ¡ áĥĹáĥĲáĥľ
·à¹Ī à¸Ļ
Ġà°ħà°§ à°¿à°ķà°¾à°°
é£ ŀ
Å£ ion
ĠM are
Ġh ona
ĠâĢĭâĢĭâĢĭ âĢĭâĢĭ
ĠáĢľ áĢŃáĢ¯
áĢĤ áĢ«
áĢħáĢ¹áĢ ħ
ÏĨ Î±Î»
jÄħcy ch
Ġà´¨à´Ł à´¤àµįà´¤
ĠÑĸÐ½ ÑĦÐ°ÑĢÐ¼
ĠÎłÎ± ÏģÎ±
à°Ĥà° Ń
Ġáĥ¨ áĥĶáĥķ
è İ
æ¡ Ī
ĠÐ´ ÑĸÑı
ĠÎ² Î±Ïĥ
à´Ļàµįà´Ļà´³ àµĨ
ul li
ĠÂ ±
áĥĿáĥ¤ áĥļ
Ġau tre
ÏĦÎ¹ÎºÏĮ ÏĤ
Ġà°Ĵ à°ķà±įà°ķ
ĠÐľ Ñĭ
¥à¸ ±à¸ĩà¸
ĠåĬ ł
ÑĸÐ»ÑĮ ÐºÐ¸
àª¸ à«įàª¥
áĥĲáĥľ áĥĲ
à¸£à¸µà¸ ¢à¸
ÉĻn c
ĠÐ¶ Ð°Ð½
ĠC um
à°¾à°µ à±ģ
ĵ à¹Į
us i
à®£à¯įà®Ł à¯ģà®®à¯į
Ġà¦ķà¦¾à¦ Ľà§ĩ
ãĤĪãģĨ ãģª
Ġà¤ Ī
n Äĥ
ĠÄ° s
Ġm Ã¶v
à¤¿à¤¯ à¥ĩ
ÙĪ Ø¬
Ġà¤° à¥ģà¤ª
ĠÒ³ Ð°Ñĳ
Ġà¤Ńà¤¾à¤° à¤¤à¥Ģ
Ġm Ã¶
ĠVi deos
Ġà¦ħ à¦ªà¦°
Ġb us
Ð¾Ð· Ð¸ÑĢ
ĠÐºÐ¸ÑĪ Ð²Ð°ÑĢ
ÐµÐ½ Ð½ÑĭÑħ
Ġk ush
n ut
ĠÐ¸ÑĪ Ð»Ð°Ð±
Ðµ Ð´Ð¸
Ġa mo
Ġne ces
à¦ ĺ
Ø´ ÙĪØ¯
Ġo ok
Ã©s i
×¨ ×Ĵ
Ġìĺ ¨
r Ã«s
Ġts wa
ãĥª ãĤ¢
Ġk in
Î»Îµ ÏĥÎ¼Î±
ĠâĢ ¹
ÏĩÎµ ÏĦÎ±Î¹
ĠÎµ Î´Ïİ
ÏĨÎŃÏģ ÎµÎ¹
ĠOlu wa
Ð¿ÑĢ Ð¸
j Å¡ÃŃ
ĠK á»į
Ġto i
Ġàª ł
Ø§ÙĨ Ø§
ÃŃ z
ÄĻ d
à®¿à®ķà¯įà®ķ à®ªà¯įà®ªà®Łà¯įà®Ł
ĠëĮĢ íķľ
in as
Ġiá¹£e duro
Ġfun dit
ĠF or
à«ĩàª ¥à«Ģ
áĢĢáĢ¼ áĢ±áĢ¬áĢĦáĢºáĢ¸
à¦¾à¦¦ à¦ķ
Ġà´ħ à´ª
Ġáĥ©áĥĶáĥĽ áĥĺ
ķà¸´à¸ Ķà¸
à°°à±įà° Ĺ
åºĨ æĹ¶æĹ¶å½©
ĠÐµ Ðµ
ĠÙĬ Ø¹
ĠvÄĵ l
Ġà´Ł àµįà´°
ĠáĢĢáĢŃáĢ¯ áĢļáĢ¹áĢ
áĢ® áĢľ
áĢĴ áĢ«
Î¹Ïĥ Îµ
ĠÃ© c
Ġà´Ł àµįà´Ł
ĠÐ¿ÑĢ Ð°Ðµ
ĠÏĥÏħÎ¼ Î¼Îµ
à°° à±įà°²
Ġáĥ© áĥĲáĥĽ
áŀ¶ áŀ
Ġag å¹³åı°
ĠÐ² Ð¸Ð±
Î² Îµ
àµĭ à´ª
ĠR i
ĠÐ¿ÑĢÑĭ Ð·
áĥł áĥĿáĥĳ
Ø³ Ù¹
Î³ Î¿Î½
Ġà°ħà°¨ à±ĩ
ÑįÐ½ Ð½Ñĸ
Ĭà¸ ·à¹Īà¸Ńà¸
åı ĺ
Ð² ÑĸÐ´
Ġo h
áĥł áĥĲáĥ¤
Ġà¸ª à¸´
Ġolu b
Ð°ÑĨÑĭ Ñİ
Ġsta to
à°¾à°² à±įà°¸
Ķà¸ ±à¸ļ
ÉĻk il
Ð¾Ñģ ÑĥÐ´
à§įà¦¯ à¦¾
ÐµÐ½Ð¸ ÐµÑĤÐ¾
Ġà¤īà¤¨à¥įà¤¹ à¥ĩà¤Ĥ
Ġàªķàª¾àª° àª£
Ã©t Ã©
Ã´ so
à¤ľ à¥Ģ
Ġgi bt
Ġà¤¶ à¤¿à¤ķ
ÑģÐ» Ð¾Ð¼
Ġà¤ ł
Ñ ľÐµ
ĠEs ta
Ġkund Ã«r
Ġa st
Ð¸Ð» Ð°Ð½
ĠÒ³ ÑĥÐ´
ãĤĪãģĨ ãģ«
Ġà¦¸ à¦¾à¦§
Ġg el
ĠÑŀÑĢ Ð¸Ð½
ĠÄĳá» ģ
Ġìŀ ħ
Ġà®µ à®³
Ġs it
d rid
Ġdon de
Ġso bie
Ã¶l d
at la
ĠÃ© qui
ĠÐº Ð°Ð¶Ð´
Ġl v
Ġi pele
na u
Ġda Å¾
ÎºÎµ ÎºÏģÎ¹
ĠA S
f ny
Ġitá»į ju
×© ×ª
ei x
Ġi ho
t Ã«s
Ð³ Ð¾ÑĤÐ¾Ð²
Ġdo da
Ġàª® àª¾àª°à«Ģ
Ġsu is
ĠG ujara
Ġga go
ĠLE D
Ġw h
Ġmose betsi
Ø¹ Øª
Ġàª² àªĪ
áĢ¬áĢ¸áĢ ±áĢĲáĢ¼
Ġol la
à´¾à´¨ àµģà´³àµįà´³
áĥ¦ áĥķ
ªà¸¸à¸ Ķà¸
Ġà°ķà±Ĭ à°¤à±įà°¤
ä¼ ĺ
Ġà®İà®©à¯įà®ª à®¤à¯ģ
un Äĥ
ub lik
Ġà´İ à´¨àµįà´±àµĨ
áĢ» áĢĢáĢº
ĠáĢĴ áĢ¯
áĢ¡ áĢ±áĢĶ
ĠÎłÎµ ÏģÎ¹
Ġnom bre
Ġà´¬ à´¨àµįà´§
ĠÐ² Ð¾Ð±
ĠÎ±ÏĢ Î±
à°ķà±įà° ¸
ĠáĥĵáĥĲáĥ £áĥ
Ġh g
Ġ ä»¥
v ÉĻ
Î´ Î·ÏĤ
àµĩà´ ľ
íķĺ ìĹ¬
ĠÐ£ Ñģ
ĠáĥłáĥĲáĥĽáĥĵ áĥĶáĥľ
Ð² Ð¾Ð»
ĠÎµ Î¼
à±ĥ à°·
ĠÑĪ ÑĤ
à¸£ à¹Īà¸§à¸
Ġk 8
sze j
b ar
ĠáĥĵáĥĲáĥ ĳ
à¸²à¸£ à¹Įà¸
ĠØ³ ÛĮØ§
Ð°Ð»Ðµ Ð¶
Ġdo or
Ġà°µ à°¾à°Ł
¨ à¸²à¸
Ġà¦ħà¦¬ à¦¸à§įà¦¥
Ġt ÄĽ
bi de
ãģ® ãģĭ
àŃ į
Ġàªªàª¾àª¸ à«ĩ
rÃ³ d
Ġa bb
à¬ ¿
Ġby Å¥
à¤¿à¤µ à¤¾à¤°
ĠÑħ Ð°ÑĢ
Ġåľ¨ çº¿
Ġ ush
Ġdi ese
ãģĹ ãģĭ
Ġcu al
ÑĥÑģ ÑĥÑģ
ĠÐ´Ðµ Ð³Ð°Ð½
Ġê³ ¼
b at
ÙĤ Ø§Øª
ĠÐ´Ð°Ð² Ð¾Ð¼
ĠÐľÐ°ÐºÐµÐ´ Ð¾Ð½Ð¸ÑĺÐ°
Ð½Ñĥ Ð²Ð°
Ġni ci
ka ti
ĠÐĹ Ð°
×Ļ× ĸ
Y W
T O
ĠT se
Ġsem pre
tori i
Ġk os
Ġa gba
ĠÏĥ ÏįÎ½
Ġha be
ĠA B
Î±Î¹ ÏģÎµ
Î»ÏĮ Î³
ay i
ĠØ§ÙĦÙħ Ø´
Ð°Ð»ÑĮ Ð½ÑĭÐ¹
Ġgb á»įn
Ġt ov
Ġn do
ĠâĢĻ âĢĻ
àª² à«ĩ
ĠØ¶ Ø±
Ġàªªà«įàª° àª®
Ġl ona
Ġmo ngwe
Ġá»Įlá»į run
ise belisoa
Ġsul la
àª°à«įàª ļ
áĤı áģ
Ġna d
Ġà´® à´¾à´±àµįà´±
áĥĺáĥ ¬
ķ à¹Įà¸
Ġà°ª à±ĩ
æĶ ¹
ch ten
is es
Ġngh iá»ĩ
Ġà´ª à´¿à´Ł
áĢĸáĢ½ áĢ²áĢ·
áĢĺ áĢ²
áĢĢ áĢ¯
ĠÎ± Î¹
ĠÐ¿ÑĢ ÐµÐ·
Ġà´ª àµģà´¤à´¿à´¯
ĠÐ±ÐµÐ»Ð°ÑĢÑĥ ÑģÐºÐ°Ð¹
ĠÎµÏģÎ³ Î±Ïĥ
à°² à±įâĢĮ
áĥĶáĥł áĥĶáĥ¡
ä»£ çĲĨ
æĭ Ľ
Ġà¦¦ à§įà¦¬
ÏģÎµ Ïħ
à´¾à´· àµįà´Ł
Ġà®ĩ à®©à¯įà®©
ĠÑģÑı Ð±Ðµ
Ġáĥ Ł
ëħ Ģ
ĠÎº Îµ
à°Ł à°Ĥ
ĠÐ³ÑĸÑģÑĤ Ð¾ÑĢÑĭ
Ġà¸ªà¸ ¹à¸
èĲ ¥
Ð¾Ð² Ð¾Ð¹
em bre
áĥĿ áĥĲ
Ħà¸ ¥à¸
ĠCh i
Ð°Ð´ Ñĥ
la ciÃ³n
Ġà°ķ à°¾à°¦à±ģ
Ġ à¸£à¸µà¸§à¸´à¸
a lement
ì ¢
Ġn or
ÙĬ Ùĩ
å¤© åłĤ
à«įàª ¹
ÑĨ ÐµÐ½
ãĥĥãĤ¯ ãĤ¹
Ġà¤¹à¥ĭ à¤¤à¥Ģ
à®Ļà¯įà®ķ à¯ģ
à¤¿à¤¯ à¥ĭ
ĠÐ¸ Ò·
à¥ĩ à¤¤à¥įà¤°
Ġk ra
ĠØµ ÙĪØ±Øª
Ġaz on
æľ ¨
ĠÐ¼Ñĥ Ð½Ð¾Ñģ
ĠÑĤ ÑĥÐ¼Ð°Ð½
ĠÑĢ ÑĥÐº
Ġfa c
Ø¯ Ø¯
Ġ Ó¯
ĠÃ Ĺ
Ġà®®à¯ģà®¤ à®²à¯į
ãĥ¼ãĤ ¿
ju mi
nÃŃ ch
Ġo rang
ĠÑģÐ² Ð¾ÑĹ
Ġë§ İ
tso ho
ra t
ke en
Ø§Ø¦ ÙĦ
Ġis aláº¹
Î» Ïį
ÙĤ Ùĩ
ĠÏĢÎ»Î· ÏģÎ¿ÏĨÎ¿
Îº Î¹Î±
ĠÎ¼ Î¿Î½
Ġgbi gbe
Ġ×Ķ×ŀ× ©
Ð° ÑİÑĤ
Ġe mi
Ġm Ã¬nh
Ġg al
lar da
à«įàª Ľ
v Ã¡l
ĠàªŃ à«Ĥ
os i
Ġthus a
Ġir iri
tla k
ĠÐ¿ÑĢ ÐµÑĤ
à«ĩàªķ à«įàªŁ
áĢ¬ áĢ·
u ts
Ġà´Ĩ à´£
áĥĶáĥł áĥĲ
à¹Ģà¸£ à¹ĩà¸
à°¿à°ķ à±į
è® ®
q Ã«s
ĠÐļ Ð¸
ĠÐ³ÑĢ Ð¾Ð¼
Ġà´ķàµĤà´Ł àµģà´¤
áĢĨ áĢ±áĢ¬áĢĦáĢº
áĢĶáĢ¾ áĢĦáĢ·áĢº
áĢ»áĢĸ áĢĦáĢ¹áĢ·
ÏĦÎ· Î³Î¿
à§ ¨
Ġà´¸ àµįâĢĮ
Ð°Ð³ Ð¾Ð´
ĠÎ¿ÏĢÎ¿ Î¯
Ġà°ļà±Ĥà° ¸
Ġáĥ¡ áĥ£áĥļ
à¥įà¤¯ à¥ĩ
åİ Ł
Ġà®¤à®®à®¿à®´ à¯į
Îº Î¿Ïħ
à´¾à´ Ļàµįà´ķ
à¯Īà®ķ à®³à¯Ī
ĠÑĤ Ð¾Ð¹
Ġáĥ©áĥķáĥĶáĥľ áĥĺ
ĠÃ ľ
Î² Î¬Î»
Ġà°µà±įà°¯ à°µ
ÑıÑĢ Ð¾Ð´
ľà¸ ¥à¸´à¸
á ī
ĠÐ· Ð°Ð´
Ġbe au
áĥĶáĥĳáĥĺáĥ¡ áĥĲ
à¹ĥà¸Ļà¸ ģà¸²à¸£à¸
ÙĪ Ø§ÙĦ
ĠÑģ ÑĥÐ¼
à§ľ à§ĩ
Ġà°° à°¾à°®
Ġà¹Ĥà¸ Ķà¸¢à¸
b Åĳl
Ø± Ûģ
ch os
re z
ĠéĿ Ĵ
tic le
Ġvi deo
äº Ī
Ġà¤ľ à¤°
ĠØ§ÙĦØª Ø¹
Ġà¤¨ à¤¿à¤ķ
ĠÐ´ Ð¾Ð´
å¹ ķ
ÅŁ te
Ġà¦¤ à¦¾à¦ĩ
ĠØ®Ø± ÛĮØ¯
Ñı Ð¶
Ñĥ Ò·
ÑĤÐ¸ ÒĽ
á»¥ c
Ġc ei
c Ã«
Ð»Ð°ÑĪ ÑĤÐ¸ÑĢÐ¸ÑĪ
Ġd ro
Ġ×© ×ŀ×
Ø¨ Ø§
ĠF re
Ġv Äĵr
Ġà®ħà®µ à®°à¯įà®ķà®³à¯į
Ġà¦¦ à§ĩà¦ĵ
Ġp Å¯j
Å¡oant Å¡o
ĠÐļ Ð¾Ð¼
Ġv Å¡e
Ġde z
Ġr an
ÏĢÎ¿Î¹ Î·
Ġav ant
ĠÏİ ÏĥÏĦÎµ
ĠÏĢÎ¬Î½ ÏĦÎ±
ĠI I
Ġi w
im mer
Ð°Ð» Ð¾Ð³
P A
Ġë Ŀ¼
Ø¯ Ùī
it za
Ġàª®àª³ à«Ģ
ãģ Ĳ
Ġàªªà«įàª° àªµ
Ġbu a
ts wa
Ġi yi
ti min
lÉĻrin ÉĻ
or es
ĠáĢŀáĢŃ áĢĽ
ĠW as
Ġà´Ĺ àµįà´°
Ġáĥ¡áĥĲáĥĻ áĥ£áĥĹ
´ à¸Ļ
à°° à±įà°¯
èĩ ³
Ġ Ã¡
Ġtut to
Ġko lo
Ġà´İ à´´
áĢ¬áĢ¸áĢ Ķ
áģ ¸
ĠáĢ±áĢ ĸ
Î© Î£
ĠÑĢ Ð°Ð¹
àµģà´µ à´°
ĠÐ³ÑįÑĤ Ñĭ
Ġ Ïį
Ġà°§ à°°
áĥĺáĥľ áĥĴ
è¾ ¾
åħ Ī
Ø² Ø´
ÏĨ Î¹
Ġà´² à´ķàµįà´·
Ġta d
ĠÐĳ ÐµÐ»
áĥĲáĥ¢ áĥĺ
ĠÙĦ Ùĩ
ĠÏĥÎ· Î¼Î±Î½
à°¾à°¬ à°¾à°¦
ĠÐ· Ð°ÑģÑĤ
«à¸ ¡
ä¼ģ ä¸ļ
à¦¾à¦ĩ à¦²
Ġvy s
Ġáĥ£áĥĻ áĥķáĥĶ
Ľ à¸µ
ĠÃ¡l tal
ĠÐŁ Ð°Ñģ
Ġk ul
à±įà°¸ à±įâĢĮ
à¸Ń à¸Ńà¸ģà¸
Ġlo ro
Ġà®µ à®¿à®Łà¯įà®Ł
ĠÐ³Ð¾ÑĢ Ð¾Ð´
Ġb ou
à¥įà¤°à¥Ģ à¤¯
ĠÂ ½
Ġas ta
ĠÄĳá»ĵ ng
à¥Ĥ à¤®
×ľ ×§
à¥įà¤¯ à¤¾à¤¦
ĠÐ¼Ð°ÒĽÑģ Ð°Ð´
à¤¥ à¤¾
Ġc Ã¢nd
ĠL ai
Ø¹ Ûģ
p ar
Ð°Ð» Ð»
ĠÐĲÐ± Ð´
à¯ģà®± à¯Ī
ĠÙĪ ÙĤ
Ġby ÅĤo
ĠÐ³ ÑĥÐ·
ĠÐ¿ÑĢ Ð¸Ð¹
Ġàªµàª¿àª ¦
Ġc our
Ġíĺ¸ íħĶ
à¦Ĺà§ģà¦² à§ĭ
ĠK on
æ ħ
Ġa Å¾
Ġe fe
Ġà®ļ à¯ĩ
ĠH et
Ø§Ùģ Ø©
Ġá»Į má»į
ne ud
Ġte j
ĠÎŃ ÏĦÏĥÎ¹
ĠÏĨÎ¿ ÏģÎ¬
Ġ201 2
a ts
ĠÐº ÑĥÐ¿Ð¸ÑĤÑĮ
ĠÑĸÐ½ ÑĦÐ¾ÑĢÐ¼
an u
ĠÐ¿ Ð»Ð°Ð½
Ġq eyd
ìħ ĺ
Ã ĥ
i Ãªn
te ti
bak eng
s tel
Ġolu mulo
Ġt iem
Ġsay a
Ġn ouve
áĢ¡ áĢĽ
Ġà«¨ à«¦
Ġà´ķàµĬ à´£àµįà´Ł
ĠáĥĻáĥĺáĥĵ áĥĶáĥķ
¢à¸ ±à¸ĩà¸
à±Ĩà°Ł à±į
åİ ¿
àª Ĩ
Ð»ÐµÐº Ñģ
ol lis
Ġà´®à´² à´¯à´¾à´³
ĠáĢ¡ áĢ±áĢĻ
áĢĦáĢºáĢ¸áĢ Ļ
ĠáĢŀ áĢĲáĢĦáĢ¹áĢ¸
ÎĻ ÎĳÎ£
p un
Ġà´¨à´¿à´¯ à´®
ĠÐ°Ð´ ÑĥÐº
Î½ ÏīÎ½
Ġà°ľ à°Ĺ
ĠáĥĲáĥ ŀ
Ġag è§Ĩè®¯
ç ħ
Ġjel ent
Î¶ Îµ
Ġà´ħ à´²àµįà´²
ĠØ§ Ø®
ĠÐģ Ð½
áĥķ áĥļáĥĺáĥ¡
di tion
Ïĥ Ïį
à±ģà° ·
ĠÐ¿ Ð»
ļ à¹īà¸²à¸Ļ
åĲ Ħ
du ce
Ġo ma
Ġáĥ« áĥĲáĥļ
ĸà¸¶à¸ ĩ
íķ ¨
ĠÐ¼ ÐµÑĢ
à®Łà¯ģà®¤à¯įà®¤ à¯ģ
Ġà°ªà±įà°° à°¤à±įà°¯
ľ à¹Īà¸²à¸Ļà¸
ĠT Ã¼rk
Ġs ia
Ġg dy
Ġde puis
Ġà¤ķà¤¾à¤° à¤£
è¨ Ń
Ġà®¤ à¯Ĩ
ĠÄģ r
à¤¯ à¤°
Ġwa li
Ġà¤¦ à¥Ĥà¤¸
Ð¸ Òĵ
ĠæĪ Ĳ
Ø§ÙĦ ÙĬØ©
ĠÅŁ ÉĻhÉĻr
Ġda ca
gra f
Ð¾Ð» Ð°ÑĤ
Ð»Ð¸ ÑĦ
Ú© Ø§Ø±
Ġàªķ à«ĩàª®
Ġb este
ĠÑĪÐ°ÑĢ ÑĤ
ĠÐºÑĢ Ð°Ñģ
c te
à¦¿à¦· à§įà¦ł
Ġj en
×¨ ×ĳ
Ġ, .
Ġn ez
Ġes hte
p se
ĠE m
ĠÐ Ī
à¯ģà®³à¯įà®³ à®¾à®°à¯į
ĠJ u
ÎºÎ¿Î» Î¿Ïħ
ĠÐ¼ Ð¸
ĠWind ows
Î½Î¿ Î¼Î±
ĠÏĦ ÏİÏģÎ±
ilo ju
ĠÑĢ ÐµÐº
Ġma z
ĠK i
Ġà¦ıà¦ķ à¦Łà¦¾
ĠÑĢÐ°Ð±Ð¾ÑĤ Ñĭ
Ġdi lo
u ta
ĠØ§ÙĨ Ø³
ĠØ§ÙĦØ¹ Ø§Ùħ
en ne
Ġà®ªà¯ĭ à®°
Ġt at
Ġæ °
titu tas
Ġal gun
áĢ¸áĢ Ķ
Ġàª¬ àª¨à«Ģ
Ġà´ħ à´®
ĠáĥĲáĥ ĸ
à¹Ģà¸ģà¸ ´à¸
à°¤ à±įà°¸
Ġå ¦Ĥ
Ġàª¸à«Į àª¥à«Ģ
Ð¸ÑĤÐµÐ»ÑĮ Ð½Ð¾
Ġ Ã¡r
àµĢ à´ª
áĢĻ áĢĬáĢº
áĢ½ áĢ±áĢ¸áĢ
áĢĶ áĢ·áĢº
ĠÎ±Î½ Î¸ÏģÏİ
Ġê²Į ìŀĦ
à´Ļàµįà´Ļ à´¨àµĨ
ÑĢÐ°ÑĨ Ð¾Ñŀ
ĠÎµÎ¹ Î´
à°¿à°Ĥà° Ł
áĥĲáĥ¡ áĥ£áĥ®
è¯ ģ
æ² »
Ġà¦ľà¦¾à¦¨ à¦¾à¦¨
ÏĦ Î¯Î±
Ġà´ķ àµģà´
ĠÑģÑĬ Ñģ
Ð Ħ
ĠáĥĵáĥĲáĥ Ĵ
Ã«t ar
ĠÎľ Î·
Ġà°¸ à°Ĥà°¦
ĠÐ³ÑįÑĤ Ð°Ð¹
Ŀ à¸
ç© º
á»ĳ t
à§ĭ à¦ľ
ĠáĥĴáĥĲáĥľ áĥª
à¹ģà¸ «
Ġâ ŀ
ĠÐĵÐ ģ
Ġìķ Į
Ġà°Ĺà±ģà°° à°¿à°Ĥà°ļà°¿
Ķà¸ ±à¸ļà¸
ĠØª ÙĪÙĦ
Ð½Ñĸ Ð²
an ta
ĠÙħØŃ ÙħØ¯
Ġà¤ħ à¤Ń
ĠØ¹ ÙħØ±
la k
Ġm ir
à¤ķà¥įà¤¤ à¤¿
Ġun sere
Ġà¤¸ à¥įà¤ķ
Ñĥ Ð¹
Ġà¤µ à¥ĭ
Ġce a
ĠI hre
Øª Ùī
Ġs ÉĻn
ĠÐ¸Ðº ÐºÐ¸
ĠÐ¸Ð¼ ÐºÐ¾Ð½
ĠØ¯ Ûģ
vo t
Ø³ Ùĩ
ĠÒ³ Ð¾Ðº
ÑĮ Ñı
à®© à®®à¯į
Ġà¦¨ à¦¿à¦°
ĠÑģ ÑĥÐ´
Ġs Ã¥
el lo
kÅĤa d
p ove
Ġl ors
Ã¡s t
lÉĻr dÉĻ
Ġà®ķà¯Ĥ à®Łà¯įà®Ł
Ġpar i
ÏĢÎ¿ ÏĦÎµ
ma ks
Ġ6 0
ĠÏĨÏī ÏĦÎ¿Î³ÏģÎ±ÏĨ
ĠÎ¼Î± Î¶Î¯
ĠG ba
ĠÐº ÑĸÐ»ÑĮ
Ã¡ dza
Ġti ti
à§ĩà¦² à¦¾à¦°
Ġàªľ àªµ
ca do
co ra
ĠÙ¾ Ø§Ø±
ĠÑģÐ°Ð¼ Ð¾
d t
te en
Ġi ja
ka ch
Ġàª¤àª® àª¨à«ĩ
ÑĢÐ° Ñī
áĢĦáĢ¹áĢ ¡
Ġthe o
Ġà´¤àµįà´¤ à´¿
áĥ®áĥķ áĥĲ
ļà¸²à¸Ħà¸²à¸£ à¹Īà¸²
Ġà°µà°¿à° ¡
ä¹ ¦
Ġm Äĵ
Ġda cÄĥ
Ġcon tra
Ġà´¨ à´²àµįà´²
áĢ® áĢĻ
áĢĦ áĢļáĢ¹áĢ
áĢ¸áĢ±áĢ Ķ
Ïĥ Î¼
ĠT Ã«
à´¿à´¯ à´¤àµį
ĠÐ¿ÑĢÐ°Ð³ ÑĢÐ°Ð¼
ĠÎ´ Î®
à°¿à°¨ à±į
áĥ¡ áĥĲáĥª
Ġå ·
åı Ĥ
à¦¿à¦¤ à§įà¦°
Îº ÏİÎ½
Ġà´ķ àµĤà´Łàµįà´Ł
à®¤à¯įà®¤ à¯ģ
Ð°Ñŀ ÑģÑı
ª áĥ®
ĠN jÃ«
Î¹Ïĥ Î¼Î¿Ïį
à±įà°² à°¾à°¡
Ð°ÑĢ Ð¾Ñŀ
ªà¸ ĸ
b et
íĭ °
Ġà¦¹à¦¿à¦¸ à§ĩà¦¬à§ĩ
Ġáĥĳ áĥĶáĥķ
Ġà¸ª à¸²à¸
×ł ×ª
ĠÐĨ Ð½
à«įàª¯ àª¾àª°
Ġà°ª à±Ĥà°°à±įà°¤
§à¸±à¸Ļà¸ Ĺà¸µà¹Ī
Ġsz ko
ĠØ¬ Ùħ
Ġpu bb
ĠØ³ Ùħ
ç¦ı åĪ©
ha ba
Ð²Ð° ÑİÑĤ
ck Ã©
Ġà¤Ńà¤¾à¤°à¤¤à¥Ģ à¤¯
iyy ÉĻti
è¶ ħ
Ð¾Ñı ÑĤÐ¸
Ġà¤ķ à¥Į
Ġv as
Ġk ar
ĠÐµÐ´ Ð¸Ð½
g na
ÒĽ Ð°
Ð°Ð¼ Ð°Ð½
ÙĬ Ø¹
Ġà®ķ à®£à¯įà®Ł
Ġp el
ĠÐºÑŀ ÑĢÐ°
à«Ĥ àªŁ
ÙĨ ÙĬØ©
à§ĩà§Ł à¦¾à¦°
ĠP rze
Ġl or
ur g
æĻĤ éĸĵ
ĠÃ¶s sze
Ġs enza
in er
ÃŃ cu
c Äħ
Ġa ba
Î½Î¿Î½ ÏĦÎ±ÏĤ
Ġì ¦
ĠÎŃÎ½Î± ÏĤ
Ġ3 4
Îº Î¯Î½Î·
Ġke re
ĠÐ´ ÐµÐ½
ra i
Ġaa bo
à¦¾à¦ķ à¦¾à¦°
p f
ĠPar is
Ġmo ins
Ġàª®à«ĩàª ³
Ġç§ ģ
ĠÙħØ· Ø§Ø¨ÙĤ
Ġn tho
si báº¹
ĠÐ±ÑĥÐ´ Ðµ
Ùģ Ø¶
Ġv ÃŃ
áĢľáĢŃáĢ¯ áĢĢáĢ¹áĢ
ĠØ§ÙĨ Ø¬
Ġà´µà´¿à´ ľ
ĠáĥĽ áĥĺáĥľ
¢ à¹Įà¸
Ġà°µ à±ĩà°
åĵ ª
ĠÑħ Ð¾ÑĤ
×ķ×ł ×Ļ×Ŀ
Ġo hne
Ġà´¤ àµĢà´°
ĠáĢĢáĢº áĢ±áĢĶ
áĢĲ áĢļáĢ¹áĢ
áĢĿ áĢº
Î½ Î¿Ïħ
ĠmÃ« ny
à´ķàµįà´ķ àµģà´¨àµįà´¨
ĠÐ»ÑĸÑĤ Ð°ÑĢ
âĢ¦ âĢ¦
Ġà°ı à°°à±įà°ª
áĥĲáĥļ áĥĲáĥ¥
ï¼Į ãĢĳãĢĲ
è Į
Ġà¦® à¦¾à¦§à§įà¦¯à¦®
ĠÎ¹ ÏĥÏĩ
àµĬ à´´
ch Ã©
ĠÐ¿ÑĢ Ð°Ðº
áĥķ áĥĶáĥĵ
åĵ ¡
Î» ÏİÎ½
à±ĥ à°¤
Ñ Ĵ
à¸Ļà¸± à¹īà¸Ļà¸
é¢ Ĩ
Ġk il
à¦¾à¦ĵ à§Łà¦¾
áĥ¢ áĥł
à¹Ģà¸ ĩà¸´à¸Ļ
à¯ģà®ļ à¯į
ĠÐ¼Ñı Ð½Ðµ
Ģâ Ķ
à±Ĩà°ķ à±įà°Ł
¢à¸ ¸à¸
uri lor
ÚĪ ÛĮ
Ġs ar
Ġes pa
Ġà¤°à¤¾à¤ľ à¥įà¤¯
Ġhae ba
tu p
Ġc Ã²n
Ġà¤®à¥ģà¤ĸ à¥įà¤¯
iy ÉĻ
à¤® à¤Ĥà¤¤à¥įà¤°à¥Ģ
ĠÒĽ Ð°Ð½Ð´Ð°Ð¹
Ġà¤ħ à¤Ĥà¤¤
ĠÐ¶ ÐµÐ»
åĪ ĩ
ÐµÐ· Ð¿
ion i
ĠÐ´ ÐµÐ¹
ÐĲÐ Ŀ
ìĥ ī
Ã¡s ok
Ġin forma
Ð¾ Òĵ
h to
íĸ Ī
Ġà¦ħà¦¨ à§ģà¦·à§įà¦ł
Ġie g
Ġà®µà®´ à®Ļà¯įà®ķ
ĠW er
ĠÐ³ Ð´Ðµ
ÑģÐºÐ¸ Ð¾ÑĤ
Ø´Øª Ø±
Ġv iel
àª¤ à«ģàªĤ
Ġ ãģ¯
Ġv wáº¹
Î¸ÏħÎ½ ÏĥÎ·
Ġbo k
ÏĦÎ¹ Î¬
ÏĢ Ïī
ĠÎļ Î¬
já»į ba
ĠÙĪ Ø¹
ĠResp ublik
a di
Ġà¦¦ à¦¿à§Ł
Ġca m
l Ã¼
ĠÐĴ ÑĸÐ´
Ġàª§ àª°
Åĳ t
y b
st vo
Ġá¹¢ ugbá»įn
ĠÙħ Ûģ
ĠÑĤÑĢÑıÐ± Ð²Ð°
st u
áĤıáĢ½ áĢħáĢ¹
Ġun ei
à´¿à´ İ
ĠáĥĽáĥĺáĥ ¦
à¹ĩà¸ ģà¸
Ġà°¹ à±Ģà°°
Ġ222 70
ĠÐ± Ð°Ð³
ĠØ§ÙĦ Ø§ÙĨ
y ane
àµĨà´Ļàµįà´ķ à´¿à´²àµįâĢį
ģáģ ļ
áĢĦáĢ¹áĢ ±áĢ
áĤ ĥ
ĠÏĥÎ· Î¼
Ġè ²
àµĩà´ ¦
ĠÐ°Ñŀ ÑĤÐ°Ð¼
ĠÎķ Î½
Ġà°¤à±Ĩà°² à±ģà°Ĺà±ģ
Ġáĥĵ áĥĶáĥĵ
Ġä» ĸ
åĩ Ĩ
Ġà¦¬ à¦¨à§įà¦§
ÎĳÎ ĵ
Ġà´Ł à´¿
Ġj Ã¤l
ÑĩÑĭ Ñŀ
áĥĺáĥļáĥĺ áĥĲ
ti cos
ĠÏħ ÏĢÎ·ÏģÎµ
à°¸ à±įà°¸
ĠÐ»ÑİÐ´Ð· ÐµÐ¹
à¹ģà¸ Ĺ
æķ Ī
v ra
Ġà¦® à§ģà¦ĸ
Ġáĥ¨ áĥĶáĥĴ
à¸Ļà¸ ³
Ġmá» Ľi
ĠÐ½ Ð°Ðº
Ã¤ hr
Ġà°¨ à°¿à°²
·à¸Ń à¸Ļà¸
Ã© vel
×ŀ ×Ļ
Ġse va
ĠtÉĻrÉĻf indÉĻn
Ġà¤µ à¤°à¥įà¤·
Ġpr os
ci pa
ĠÐ¼Ð°ÑĤ ÐµÑĢÐ¸
à¤¿à¤¤ à¤¾
à®¾à® ¸
à¤Ł à¤°
ĠÐ¼Ñĥ Ð´
à¥ Ŀ
ĠÙģÛĮÙĦ Ùħ
ĠØ·Ø± Ùģ
Ġz gje
ĠÑĨ Ð²ÐµÑĤ
ĠÐĲÐ» Ð»Ð¾Ò³
ĠÒ³ÑĥÐ¶ Ð¶Ð°ÑĤ
ÐµÐ½ Ð½ÑĭÐµ
ĠC zy
ãģ¨ ãģ¯
ĠÐ½ Ð°ÑĤÐ¸
ĠØª ÙĨ
do tt
Ġà¦°à§Ł à§ĩà¦Ľà§ĩ
ÅĽ nie
g Ã«
Ġàªµ àªĸàª¤
ci ju
ĠÐ¾ Ð³
li g
iy or
á»© ng
Ġfa paneng
káº¹ láº¹
A M
r Äĥ
9 8
ĠÏĢÏģÏİ ÏĦÎ·
Ġy ng
Ġ ă
Ġla t
ĠÙĤ Ø¯
Ġáº¹ n
à§ĩà¦¤ à§ĩ
ĠC ar
Ġs ÉĻr
Ġà®ª à®¿à®©à¯įà®©
Ġàªķ àª®
Äį u
Ġ æľ¬
es sion
Ġbe ere
ĠM er
Ġ×Ĳ ×Ĺ×¨
Ġa insi
áĢŃ áĢĢ
Ð½ Ð½Ñı
Ġà´¶ à´°
ĠáĥĴ áĥĸ
Ġ à¸Ńà¸²à¸
Ġà°¸à°Ĥà° ¬
å¹ ¿
k Ã©p
ĠK u
å± ĭ
àµĬ à´ķàµįà´ķàµĨ
Ġáģ Ĩ
ĠáĢ» áĢĸ
ĸáĢ¼ áĢħáĢº
ÏģÏīÏĢÎ± ÏĬ
à«ģàª ¶
Ġà´ķ à´³
ĠÐ½Ðµ Ð·
á¿ ¶
à°² à°Ĥ
áĥľ áĥĺáĥ¨áĥľ
ä» İ
åħ ļ
ĠMatrimon iale
ÏģÎ± ÏĢÎµ
à´ķàµįà´ķ àµģ
Ġac um
ÒĲ Ðĵ
áĥĶáĥĳ áĥĹáĥĲáĥľ
c ont
ÎŃ ÏģÎ³
Ġà°¨à°¿à°° à±įà°µ
ĠÐłÑį ÑģÐ¿ÑĥÐ±Ð»Ñĸ
¸ à¸Ļ
ç Į
h me
Ġà¦® à¦¨
áĥĶáĥĹ áĥĲ
Ġ à¹ĥà¸Ļ
Ġs v
â Ħĸ
Ġpod Ä¾a
à±ĭ à°²
à¹ģà¸ ķ
ĠÙħ Ø²
ĠÕ ©
ki ÅŁa
Ġj eszcze
Ġà¤¬ à¤¦
Ġpor que
Ġca da
Ð½Ð¾ÑģÑĤÑĮ Ñİ
Ġà¤« à¥Ī
ĠÃ¶s sz
Ġà¤¦ à¤¿à¤ĸ
ĠÑĦÐ¾Ð¹Ð´ Ð°Ð»Ð°Ð½
à¥ģà¤ ĸ
ĠÃ©g alement
ier b
á»ĳ n
à¯ĭ à®Łà¯ģ
ĠÐ± ÐµÑĪ
ĠÑĦÐ°Ð¾Ð»Ð¸ ÑıÑĤ
ĠÙĨ Ùħ
Ġb onolo
or den
ĠÑĢ Ó¯Ð·
Ġà®Ĩ à®¤
Ġà¦¸ à¦¾à¦°
Ġç µ
Ġver ir
Ġs to
Ð°Ð»ÑĮ Ð½Ð¾Ð¹
Ġj os
Ġfe j
Ø§ÛĮ Ø´
ãģł ãģ£ãģŁ
Ġà¦® à§ĥà¦¤
Ġf ar
k Ãłn
ĠâĢ º
Ðµ ÑĨÑĮ
ĠÎŀ ÎµÎ½Î¿Î´Î¿
Ïĩ Ïİ
te xt
ĠI má»į
àª¹ à«ĩàª°
Ġà®¤ à¯Ģ
Ġto bi
Ġmere ka
Ġv ez
ĠÐ¿ÑĢÐ¾Ð³ ÑĢÐ°Ð¼
Ġtjer a
ÄŁ Ä±n
Ġli ta
ĠãĢ ı
Ġle b
Ġkan na
Ġwa t
al s
à¦¿à¦ķ à¦¾à¦°
áĢ¬áĢĽ áĢ®
ìĹħ ìĨĮ
à´¿à´¯ à´¿àµ½
ĠáĥĽ áĥĶáĥł
à¹Ĥà¸£à¸ĩà¹ģà¸£à¸ ¡
Ġà°®à°¾à°Ł à±įà°²à°¾à°¡
æĪ ¿
ìĦľ ë¹ĦìĬ¤
Ġê° Ļ
ãĤĪ ãĤĬ
à´¿à´¨àµįà´ ¤
ĠáĢķáĢ¼ áĢ±áĢ¬
áĢģ áĢĦáĢº
ĠáĢ¡ áĢ¬
Î Ĳ
Ġchi ar
Ġà´ª à´ķàµįà´·
ĠÐ½ÐµÐº Ð°Ð»ÑĮ
ĠÏĥ ÏĦÏĮ
Ġà°īà°¨à±įà°¨ à°¾à°¯à°¿
Ġáĥĺáĥ¥ áĥľáĥĶáĥĳáĥĲ
Ġà¨ ¦
Ġæ Ĭ
ĠÐŁÑĢ Ð¸
ĠÎº Ïį
à´§ à´¾à´¨
ti vi
ĠÐ´ ÑĥÐ¼
áĥĲáĥłáĥ ļ
ĠÚ©Ø± Ø¯Ùĩ
Îµ Î´
à°ªà±įà°ªà°Ł à°¿à°ķ
ĠÐ°Ð´ Ð½
ķà¹Īà¸²à¸ ĩ
åĪ «
k iem
ÙĨ Ø¬
áĥłáĥ ª
ªà¸²à¸¡à¸²à¸£à¸ ĸ
ier ung
ĠÐľ ÐµÐ½
ĠHae ba
à°¡ à°Ĥà°¤à±ĭ
à¸£à¸ ´
Ġv Ã¤
elle tt
ĠØ® ÙĦØ§Ùģ
Ġn Ãªn
Ġà¤ķà¥įà¤· à¥ĩà¤¤à¥įà¤°
Ġme ille
àª¾àª ·à«įàªŁ
ĠÐ¿ÑĢÐ¾ ÑĦ
æ¯ Ľ
A D
Ġà¤ī à¤¤à¥įà¤¤
ĠÐ½Ð°Ð· Ð°ÑĢ
Ġà¤ı à¤µà¤Ĥ
ti cas
Ġà¦Ńà¦¾à¦² à§ĭ
ch ni
Ġh iyo
ĠÑģ Ð°Ð»
ĠÑĤ Ð°Ð¼
ĠS car
Ġun o
eg a
ĠÐ±Ð° ÑĬ
×ŀ× Ł
à®¿à®ķà¯įà®ķ à¯Ī
ĠÙ¾Ûģ ÙĦÛĴ
ĠÖ ĩ
Ġil dÉĻ
ĠÐ½Ð° ÑģÑĤ
ãĥĥ ãĥģ
íĮ Į
Ġi ma
à¦¬ à¦¿
di ng
Ġsz o
Ġaá¹£ a
ĠÎŁ Îº
ãĥĥ ãĤ·
ĠÎ³ ÏģÎ¬
Ġ9 0
ÏĢÏĦ ÏīÏĥÎ·
Ġayá»į káº¹láº¹
Ġg u
sz ere
ĠO r
ĠÐ¿ Ð¾ÑĤÑĢ
Ø· Ø±
Ġà¦¤ à§ģà¦²
à«Ī àª¯
Ġpu j
Ġkter Ã½
Ġãĥ ĩ
z d
et á»įn
à®ªà¯įà®ªà®Ł à¯ģà®®à¯į
v r
ÑģÐº Ð¾Ð¼
áĢĲ áĢŃáĢ¯áĢĦáĢ¹áĢ¸
ĠÐ³Ð¾Ð´ Ð¸Ð½Ð°
Ġà´µà´¿à´¦ àµįà´¯
Ġáĥ¡áĥĲáĥĸ áĥĿáĥĴ
Ĥ à¹īà¸Ńà¸¡à¸¹à¸
à°¸ à±įà°¥
å® ¹
ĠE x
Ġfal se
à«į âĢį
à´ªàµįà´ªàµĭ à´´
»áĢķ áĢ¬áĢĦáĢ¹áĢ¸
áĢ¥ áĢ¹
ĠáĢľ áĢ½
ÏģÎµ Î¹Î±
à«ĭ àªĤàªļ
à´¾à´£ àµįâĢĮ
ÐµÐ´ Ð·
ĠÎķ Î»Î»Î·Î½
à°ķ à°¾à°¶
áĥĶáĥĳáĥļ áĥĲáĥĵ
ĠãĢĳãĢĲ ï¼ĮãĢĳãĢĲ
ç ª
owa dz
ĠÎ» Î¹
Ġà´ª à´¤
Ø±Ø¨ ÙĬØ©
ÑĢÑį Ñģ
¬ áĥĽ
Ġkans sa
Îº Î®ÏĤ
Ġà°®à°° à±ĭ
ĠÐ¿ÑĢ Ð°ÑĨÑĭ
Ġà¸ĭà¸ ¶à¹Īà¸ĩà¸
éĤ Ģ
ê¹Į ì§Ģ
Ġizman to
ĠáĥĴáĥĲáĥľ áĥķáĥĺáĥĹ
Ġà¹Ģà¸§à¹ĩà¸ ļà¸
ĠÐ¿ÐµÑĢ ÐµÐ²
ĠÑħ ÑĥÑĤ
ĠÙĥ ÙħØ§
Ġà°¨ à°Ł
Ĺà¸µà¹Īà¸ ¡à¸µà¸
mo ja
t on
ĠÐ½Ñı Ðº
à¦¸ à§įà¦ķ
Ġà¤¬à¤¾à¤° à¥ĩ
Ã©l Ã©
à«Ģàª ļ
×ķ×ª ×¨
Ġà¤¹ à¤¾à¤²
per a
Ġà¤¨ à¥Ģ
ĠÑĤÐ°Ð¹ ÑĳÑĢ
à¥ģà¤ ·
Ġà®ĩ à®£
Ð¿ÑĢÐ¸ ÑĶÐ¼
tlak ase
ĠØ³ Ø§Ø®Øª
Ð°Ð»Ð°ÑĢ Ð½Ð¸
ĠÐĴ Ð°Ð·
Ġr Ã³Å¼
ĠÑĨÑĮ Ð¾Ð³Ð¾
Ð¾ÑģÑĥÐ´ Ð°ÑĢ
Ð»Ð°ÑĢ Ð¸Ð´Ð°Ð½
den te
ke ta
ãģĦ ãģ¾ãģĹãģŁ
Ġtloa ele
Ġg ona
Ġja lo
ÙĪ Ûģ
ìĺ¤ íĶ¼
Ġd ont
ÙĬ Ùĥ
m ÉĻd
Ġl Ã©
oo k
Ġcon text
Ñļ Ð°
2 1
7 5
ĠÏĦÎ±Î¾Î¹ Î´Î¹
e ji
ti mi
Ġìŀ ĳ
Ġá»į lá»į
Ð° ÑİÑĤÑĮ
ĠÙģÛĮ Øµ
k ÉĻz
Ġàª¤à«ĩàª® àª¨àª¾
Ġs á»Ń
ÐµÐ½ÑĤ Ð°
sk Ã½
ĠI m
Ġti ta
ĠT Ã¤
Ä± k
ĠÃ© n
Ġ áĤı
ar ii
Ġà´ ļàµįà´ļ
Ġáĥ§áĥķáĥĶáĥļ áĥĲáĥ¤
Ġà¸ Łà¸¸à¸ķà¸ļà¸Ńà¸¥
âĢĮ à°¨
æī ĳåħĭ
p es
à¦ª à¦¿
Ġcil i
Ġà´İ à´¸àµį
Ġ áĤĲ
áĢĻ áģ¼
áĢĢáģ ł
ÎµÎ¯ ÏĦÎ±Î¹
ÙĪ Ø³
à´Ĥ à´¬
ĠÐº Ð°Ð»Ñı
ĠÎµÏĢÎ¹ ÏĩÎµÎ¹
Ġà°ĩ à°Ĥà°ķ
§ áĥķ
ç± »
æķ ´
Ġà¦¬à¦¿à¦ ı
ĠÎ¯ Î´Î¹Î¿
Ġà´ ĸ
Ġà¦¬ à§įà¦°
Ð½Ñĸ Ñı
Ġáĥ¡áĥĲáĥĸáĥĿáĥĴ áĥĲáĥĵáĥĿ
Ġmi esz
ÏĦ Î¿ÏħÏĤ
Ġà°® à°¾
ĠÑĤÑį Ñħ
Ġ2 55
ĠãĢĤ ãĢĤ
ĠÐ¿Ð¾Ð¼ Ð¾Ñī
ĠÅ ½
áĥķ áĥĺ
ĵà¸ ĳ
dz Äĵ
ĠÐ³ Ð°Ñģ
j Ã¼k
Ġà°° à±Ĥà°ª
à¹ģà¸¥ à¹īà¸§à¸
Ġ ÈĻ
Ġo t
Ġa na
Ġà®®à¯ģà® ´
Ġà¤¦ à¥Įà¤°
Ã¦ l
ich er
Ġa ho
Ġà¤ħ à¤Ĺà¤°
Ġàª® à«ģàªĸ
à¤¬ à¤Ĥà¤§
Ð³ Ð¸ÑĢ
Ġà¤¦à¤¿à¤² à¥įà¤²à¥Ģ
v ir
ĠÑģÐ² ÑıÐ·
Ġs he
ĠU hr
Ð¾Ñģ Ð¸
ÐµÐº Ð¸Ð½
íķĺ ê²Į
ĠR us
e an
Ð°Ð½ Ð¸Ð½Ð³
to Äį
ez a
kiÅŁa f
Ġle k
ĠU m
ĠØµ ØŃ
in ta
é ¨
Ġàª¤ àª°à«Ģ
Ġpu Ã²
Ġà®ħ à®²
Ġà¦¤ à¦¥
uba i
ĠÎ±Î³Î¿ ÏģÎ¬
Ð¼ ÑĸÐ½
Ġ5 5
ĠÎ¼ÎŃ ÏģÎ¿ÏĤ
ĠD DR
ar á»į
ĠÙ¹ ÛĮ
ĠÑıÐ²Ð»Ñı ÐµÑĤÑģÑı
d ari
l Ã¼k
Ġna k
Ġje j
k il
c ciÃ³
Ġtout es
Ð°Ð» Ð½Ð¾
Ġg en
ĠI á¹£áº¹
iá»ĥ n
ĠÃ© p
Ġsebe tsa
áĢĲ áĢĦáĢº
Ġdz iaÅĤ
Ġà´ªàµģà´± à´¤àµįà´¤
áĥĶáĥĳáĥĺáĥ¡ áĥĹáĥķáĥĺáĥ¡
ª à¸Ļ
Ġà°Ł à±įà°°
æľį åĬ¡
ĠÐ´ Ð¾Ð²
Ļà§įà¦ ķ
ë³ ¸
à´³ àµģà´ŁàµĨ
áĤĢáĢĢ áĢŃáĢ³
áĢ±áĢĨ áĢ¬áĢĦáĢ¹áĢ
áĢŀ áĢŃáĢ¯áĢ·
ĠÎµÏĢ Î¹Îº
arÃ« ve
à´ķ àµ¾
Ñĭ Ñĸ
ĠÏĢÎ±Î¹ Î´Î¹Î¬
Ġà°¦ à±ĩà°µ
áĥĲáĥłáĥĵ áĥĲ
Ġå ¸
æŃ ¥
ÙĬÙĨ Ø©
ĠÏĥÏħ Î½Î¿
Ġà´¸ àµĤ
k lÄģ
ĠÐ½Ðµ Ð°Ð±
Ġáĥ¡áĥĲáĥ¨ áĥ£áĥĲáĥļ
cz nej
ÏģÎ¿ Î¹
Ġà°¦à±įà°µ à°¾à°°à°¾
Ð½Ñı Ð¹
Ġà¸ «à¸£à¸·à¸Ń
Ġæ ¯
Ġcon c
Ġp it
áĥĲáĥ Ł
à¹Ģà¸Ĥ à¹īà¸²à¸
Ġ×Ķ ×Ļ×Ĳ
Ð°Ð²Ñĸ Ñĩ
Ġl uf
à°¦ à±įà°§
à¸Ńà¸ ±à¸Ļà¸
Ġà®İ à®¨à¯įà®¤
Ø¨ Ø§ÙĨ
p te
ãģıãģł ãģķãģĦ
à¤¡ à¥Ģ
a da
ĠMa is
Ġà¦ī à¦¤à§įà¦¤
à¤¾à¤¤ à¥ĩ
Ġi th
à¤µ à¤°
ĠÑĤ Ð¸Ð·
à· ļ
Ġra pp
ff en
Ġàªªàª¾àª Ľ
ks Ã©g
ĠÐ¼ Ð°ÐºÑĤÐ°Ð±
ĠÐľ Ð°Ò³
Ġê² °
rze da
ĠÐ» Ð²
ĠÐºÐ¸ÑĢ Ð¸ÑĤ
ÑĬ Ð¿
Ð°Ð»ÑĮ Ð½Ñĸ
Ġç ´
Ġm al
ÐµÐ³ Ð¾Ð´
Ġo ike
ÅĨ Äĵm
à®¾à®± à¯ģ
ç¶ ļ
Ġva z
Äĥri i
ÐµÐ½ ÐºÐ¾
ĠD ubai
ĠÎ¼ÏĢÎ¿ ÏģÎ¿Ïį
ĠÐ¼Ñĸ Ð¶
Ġo edd
Î¿Ïħ Î»
ĠÎ±ÎºÏĮ Î¼Î·
Ġi j
ĠS es
lan do
iran á¹£áº¹
ĠàªĽ à«ģàªĤ
ĠØ§ ÛĴ
Ġdz i
ĠÐ² ÑĢ
Ġà¦¯ à¦¾
Ġre cher
à«ĩàª¸ à«įàªŁ
Ġà®¤à®² à¯Īà®µ
Ġe he
iem bre
Ġë§ ¤
i ts
áģ¾áĢĢ áĢ®áĢ¸áĢ
cz na
àµĨ à´²àµįà´²
áĥĶáĥľ áĥĲ
ªà¸ Ķ
à°ķ à°¾à°²
Ġåı ¯
ĠV y
ĠÃ ´
ĠÑģ Ð¾ÑģÑĤ
à´¨ àµģà´Ĥ
ķ áĢ²
áĢĦáĢ¹áĢ¸ áĢŀ
Ġáģ¿ áĢķ
á¿ Ĩ
ĠÙĪØ§ÙĦ Øª
Ġà´® àµĩ
ĠÐ½Ð°Ð² ÑĥÐº
Î¸ Î¿ÏĤ
à°Łà±įà°Ł à±ģ
áĥĵ áĥĺáĥ¡
å¸ ¦
æ ¹
ÛĮØ§ Øª
ÏĢÎ¿Î¹ Î®
Ġà´ª àµįà´ª
j ar
Ð°ÑĤÑį ÑĢÑĭÑı
Ġáĥ¨áĥĶáĥĵ áĥĶáĥĴ
le tseng
ĠÎ´Î¹Î± Î´Î¹Îº
à±ģà°¤ à±ĭ
Ñĸ Ð³
Ĥà¸²à¸ ¢à¸
Ġag èµĮ
on na
sion i
ĠáĥłáĥĿáĥĽ áĥļáĥĶáĥĳ
µà¹Īà¸ ¢à¸§à¸
Ġof er
ĠÐŁ Ð°
Ġktor Ã¡
Ġà°ĩ à°ķ
Ġà¸ Ĥà¸
Ġà®¤ à¯Ĥ
Ġv ilÃ¡g
à« ¨
ch ts
à¤ı à¤®
Ġpa Å¡
it er
ç´ Ħ
à¶ ½
re t
Ġà¤¶à¥ģà¤° à¥Ĥ
Ð¸ ÑģÑĤÐ¾Ð½
åħįè´¹ è§Ĩé¢ĳ
Ġ×ķ ×¢
ĠØ§ÙĦÙħ Ø±
ĠàªĨàªª à«Ģ
ÑĬ Ð½
Ð»Ð°Ð½ ÑĤÐ¸ÑĢÐ¸ÑĪ
ĠÑĪÐ°Ò³ ÑĢÐ¸
u z
wa Äĩ
à®¿à®¯ à®¤à¯ģ
ĠÐ¼Ñĥ Ð°ÑģÑģ
ÙĪÙĨ Ùĩ
Ġtiem po
c ol
ĠÑĥÑģÑĤ Ð°Ð½Ð¾Ð²
bele tso
nÃŃ m
il les
ĠØ¨ ÛĴ
Õ¡Õ ²
Ġq ÉĻb
ì° ½
Ñĭ ÑĪ
wan re
Ġby dd
Äģd u
Î±Î¹ Î½
ĠÎ¾ÎµÎ½Î¿Î´Î¿ ÏĩÎµÎ¯Î¿
Ġ! !!
ĠE le
ĠÙħ Ø§Ùĩ
en de
Ġigb esi
Ġàªª à«ģ
c one
Ġmo hla
ĠÐ¿ Ð¸ÑĤ
ëĤ ľ
Æ°á» Ł
àª° àª¾
Ġsh ko
Ġida gbasoke
ĠØªÙħ Ø§Ùħ
li wo
Ðł ÑĶ
ľ áĢĬáĢ¹áĢ¸
ĠÐ±Ñĥ ÑĤÐ¸
Ġà´ķ à´¥
áĥĿáĥ¡ áĥ¢
à¸£à¸§à¸ ¡à¸
Ġà°ļà±Ĩ à°Ĥà°¦
é© ¬
Ġsu a
n as
Ġh Ã¼
Ġà´İà´¨àµįà´¨ à´¾à´²àµįâĢį
ĠáĢľ áĢĢáĢº
áĢĲáĢ¹áĢ Ĳ
áĢ¬áĢŀ áĢ¬
ĠÏĥÏĦ ÏģÎ±
sch ie
Ġà´ķ à´²
ĠÐ²Ñĭ Ð·
Îµ ÏģÎ¿
Ġà°ļ à±ĩà°°
áĥĸ áĥĲáĥĵ
Ġå ĳ
éĺ Ł
Ġ×© ×ĳ
ĠÏĥÏħÎ½ ÎµÏģÎ³
Ġà´ªàµĭ à´¯
Ġm us
Ð» Ñĳ
Ġáĥĵ áĥłáĥĿ
Ġle ha
Î¹Îº Î·
à°ķ à°Ĥ
Ñı Ñĩ
Ġ à¹ģ
æĭ¿ å¤§
Ø° ÙĦÙĥ
Ġem ber
Ġáĥł áĥĶáĥĴ
à¹ģà¸ ķà¹Īà¸
j ours
Ð°Ð³ ÑĸÑĩ
Ġãĥ ı
Ġà°ļ à°¿à°¨à±įà°¨
à¹Ī à¸Ńà¸
Ðµ ÑľÐµ
Ġe gi
Ġàªľ àª®
ty y
Ġà¤¹ à¥Ĥ
Ġm wa
ti u
Ġà®ļà¯Ĩà®¯ à®²
à¤¿à¤¸ à¥įà¤¤
Ġë ¹
à¤¾à¤¦ à¥Ģ
ĠÑĦ ÑĥÒĽ
Ġà¤ªà¤¹ à¥ģ
ĠÑĩÐµÑĢ ÐµÐ·
Ġac qu
àªĤàª ¬
l ti
ĠÐ¾ Òĵ
ĠÐº Ð¸Ð¼
et Ã«
s y
ĠÛģÙĪ ØªØ§
Ð¸ÑĪ Ð½Ð¸
ä» ķ
ĠvÅ¡ ak
ĠÃ§ do
Õµ Õ¡Õ¶
Ġmo ka
la g
è² ©
Ġch er
id ent
vv ÉĻl
ãģĵ ãĤį
Ġund e
Ġv wá»į
ÏĩÎ± ÏģÎ¹Ïĥ
à¦¨ à¦¾à§Ł
3 1
ĠÎ¿ Î´Î·Î³
ĠÎºÎ¹ Î½Î·
Ġ à²
ĠB ar
ĠÐ½ÑĥÐ¶ Ð½Ð¾
Ġmáº¹ he
àª°à«įàª ľ
Ġko p
Ø« ÙĦ
ra l
Ġà¦¦à§ĩà¦¶ à§ĩà¦°
ÑĬ Ñĩ
à«ĩàª¤ àª¾
Ġà®ķà¯ģà®± à®¿à®ªà¯įà®ª
Ġaso pá»į
íķĺ ê¸°
Ð¸Ð± Ð¾
Ġd á»±
áĢ±áĢĶ áĤĶ
Ġà¦ Ŀ
Ġà´ħà´µ à´¸
ĠáĥĶ áĥľ
Ġà¸§ à¸´à¹Ģà¸Ħà¸£à¸²à¸°à¸«
à±Ģ à°®
à¤¾à¤Ĥ à¤¨à¤¾
ĠÑģ ÐµÐº
ĠL ig
Ġ×ĳ ×¡
Ġà´® à´£
áĢĢáĢ¹áĢ ±áĢĶ
ĠáĢĺ áĢļáĢ¹áĢ
áĢķáĢ¹áĢ Ļ
Î¼Î¿ Î½
Ġemp res
Ġà´īà´ª à´¯àµĭà´Ĺ
ĠÐ· Ð½Ð°Ñĩ
ÎŁ ÎĻ
Ġà°ĩ à°ªà±įà°ªà±ģà°¡à±ģ
Ġáĥª áĥĶáĥľáĥ¢
çĽ´ æĴŃ
éĻ Ĩ
Ø§Ø² ÛĮ
ĠÎ½ÎŃ Î±
à´¨àµįà´± àµį
es sÃ©g
ĠÑģ Ð°Ðº
áĥĵ áĥĺáĥľ
be la
ÏģÏĮ ÏĤ
Ġà°¯ à±Ĭà°ķà±įà°ķ
ĠÐ°Ð´ ÐºÑĢÑĭ
Ġà¹ģà¸Īà¸ ģ
å½© åĸľæ¬¢
Ġka d
Å ģ
Ġáĥ¡ áĥĺáĥ¢
§à¹ĩà¸ ļ
sz ym
Ħ ¢
ãĥ³ ãĤ¹
Ġà°ħ à°¦à°¿
à¹ĥ à¸Ļà¹Ģà¸
Ġch ar
Ġin f
à«Ģàª Ŀ
tt Ã¤Ã¤
Ġà¤ļ à¥ģ
g el
Ø§ÙĨ ÙĬØ©
Ġspo loÄį
Ġà¤ªà¤¹à¥ģ à¤Ĥà¤ļ
Ú© Ø§ÙĨ
à· Ļ
ÐĺÐ Ŀ
Ġà¤ĸ à¤¿à¤²
à§įà¦¦ à§įà¦°
Ġr ru
àª ĺ
Ġd ÃŃa
ĠÐ±ÑŀÐ» Ð´Ð¸
ÒĽ Ð°ÑĢ
Ġc v
Ġcon tre
ÅŁ i
Ð¾ Ð¸Ð·
ãģĳ ãĤĭ
ĠÃ®nt r
w ania
Ġ" ,
m ong
Ġà®ª à®´
ĠÐºÐ¾ ÑĺÐ°
Ñī Ð¸
çµ Ĳ
ĠJa hr
ov Ã¡nÃŃ
Ġc Ã¡ch
Ġgbá»į dá»į
ĠÎ³ Î¯Î½ÎµÎ¹
Ġà¦¸à¦¦ à¦¸à§įà¦¯
Ïĩ Î¹Ïĥ
3 6
7 8
d áº¹
Ġest u
Ġd nia
Å ĭ
Ġàª² àªĸ
ĠØ¯ÙĨ ÛĮØ§
ĠØ¹ ÙĨØ¯
s g
à¦ª à§įà¦¤
Ġê° Ĳ
Ġàªªàª¹ à«ĭàªĤàªļ
ĠD ans
Ġi gbe
×¨×Ĳ ×ľ
for m
Ã¤r jes
áĢ±áĢĽ áĢ¸áĢ
à¯Īà®¯ à®¿à®©à¯į
Ġà´¸à´Ĥà´Ń à´µ
áĥĺáĥ Ń
à¸£à¸²à¸ Ĭà¸
à°¾à° ĸ
ĠCOM å½©åĸľæ¬¢
ãģ« ãģĬ
Ġ×ŀ× ł
l osa
à´¤à´¿à´° àµĨ
áĢĺ áĢ¬
áĢĬáĢ· áĢ¹áĢ
áĢŀ áĢĬáĢ·áĢº
ĠÎ ©
Ġfe ti
à´ķàµįà´ķ àµģà´±
ĠÐ² ÑĥÑĩ
Îł Îĳ
Ġà°ªà±ĭà°² à±Ģà°¸
ĠáĥĻ áĥł
¸ è¿Ĳ
æĺ ĵ
à¦¤ à¦¿à¦ķ
Î³ÏģÎ¬ ÏĨ
àµģà´®àµįà´ªàµĭ à´³àµįâĢį
êµ °
ĠÐ¡ Ð²
áĥĲáĥľ áĥĺáĥ¡
Ġtr as
ĠÎ· Î¼ÎŃ
à° İ
ĠÐ´ Ð°Ð´
à¸Ńà¸ ±à¸
æ¢ ¦
ĠÕ Ń
Ġprodu k
áĥĲáĥł áĥĿ
¸à¸ ģ
Ġva xt
Ġâķ ĳ
å¿ ħ
Ġà°Ĺà±ģà°° à±įà°¤
à¹Ĩ à¸
dz in
Ð°Ð½ Ñĸ
à«įàª ŀ
Ġm Ãµ
Ġà¤µà¤¿à¤ ¦
ĠÐ¾ Ð½Ð°
ĠØ¹ ÙĪØ§Ùħ
p ort
à¤® à¤¾
Ð¾Ð³ Ñĥ
à¥įà¤ ľ
ĠÐ¢ ÑĥÑĢ
à¤ ĺ
Ġy ake
ĠÚĪ ÛĮ
Ġàªħàª¥ àªµàª¾
Ġo larak
ĠÑĤÐ°ÑĪÐºÐ¸Ð» Ð¾ÑĤ
Ð¸ÑĪ Ð´Ð°
à®¿à®² à®¿à®°à¯ģà®¨à¯įà®¤à¯ģ
ĠØ Ľ
Ġà¦¬à§ĩà¦¶ à¦¿
ĠÐ¼Ð°Ñģ ÑĬ
Ġna ar
ta ciÃ³n
Ġmon de
ili cone
Ġha ng
ĠB Äĥr
Ġa ju
ì¡ ±
Ð¸ÑĤ ÐµÐ»Ñı
Ġsp r
Ġka m
mas sa
Ġi diy
ĠÏĢÎ¿ Î¹
ar ro
ĠÎµÎ¼ÏĨ Î±Î½
ĠÎ´Î¹Î± Î¸ÎŃ
Ġl l
ĠJ an
zion ale
Ð°ÑĨÐ¸ Ñİ
ul u
q e
ĠÐĳ ÑĬÐ»Ð³Ð°ÑĢ
ĠÐº Ð¾Ñı
×ŀ× ł
Ġpra cy
Ġda go
Ð¸ÑĢ Ð¾Ð²Ð°ÑĤÑĮ
Ġbiz tos
Ġs ara
ĠØŃ Ø³
ĠR eg
ÅĽ l
Ħ áĢĶáĢ¹áĢ¸
Ø§ÛĮ ÙĦ
Ġà´ª à´ł
ĠáĥĲáĥĽ áĥĺáĥ¡
± à¹Īà¸ĩà¸
à°¾à°¯ à°ķ
ç½ ®
ĠØŃ Ø¶
ĠØ¬ Ûģ
Ġpos si
àµĩ à´µ
áĢĻáĢº áĢ³áĢŃ
ĠáĢľ áĢ¯áĢķáĢº
áĢĽ áĢĶáĢº
ĠÏĥ Î¿
id mÉĻt
Ġà´ªàµįà´°à´µ à´°àµįâĢįà´¤àµįà´¤
ĠÑĤ ÑĢÑĭ
ÏģÎ¹ Î¿ÏĤ
Ġà°İ à°ķà±įà°ķà±ģà°µ
Ġáĥ¡áĥĲáĥ¥áĥĲáĥłáĥĹáĥķáĥĶáĥļ áĥĿáĥ¨áĥĺ
åħ ·
åį ĩ
Ġbo la
Ïĩ Î®ÏĤ
à´¯ à´¾à´£àµį
Ð¸ÑĤ Ñĥ
Ð² Ð°Ð»Ñĸ
Ġáĥĺ áĥª
Ġm ari
Âµ Î±
à°¸ à±įà°¯
Ð»Ñĸ Ð²Ð°
ª à¸Ļà¸
ç® Ĺ
á»ĵ i
Ġpros titutas
áĥĺáĥľ áĥĺáĥ¡
ķà¸ ±à¹īà¸ĩ
ista s
ÑĥÑİ ÑĨÑĮ
ĠI z
à°² à°¿
à¸Ńà¸ ¸à¸
dz Ä«
ë° ĺ
Ġshqip tar
Ġrre th
Ġà¤° à¤¾à¤·à¥įà¤Ł
ÙĬ Ø¨
Ġ ÅĻ
ĠÐ¾ Ð¿ÑĢÐµÐ´
Ġà¤¬à¤¤ à¤¾à¤¯à¤¾
Ð°ÑĤ Ð¸Ð²
åħįè´¹ è§Ĥçľĭ
Ð»Ð°Ð½ Ð°Ð´Ð¸
Ġà¤Ĺ à¤¾à¤Ĥ
Ġva la
ĠÅŁ ÉĻr
Ġà¦§ à¦°
er w
Ð± ÑĥÑĢ
ĠÐ´Ð¾ Ð¸ÑĢ
Ġcer ta
Ġm w
Ġac este
Ñŀ Ð¶
Ġth áº¿
ib le
a a
ĠSp ie
Ġà¦Ĩà¦ª à¦¨à¦¿
ÅĤu g
Ġpo tre
ĠÐ· Ð°Ð»
Ġc sa
Ġse ba
é¡ Į
×ľ ×ķ
ĠW i
Ġs ydd
à®ķ à¯ģ
Î¬Ïģ ÏĦÎ·
ĠW M
ÏĢ Î¬Î½
Ġidiy ele
ĠÙħ Ø³Øª
ĢâĶ ĢâĶ
Ġaw u
Ġc at
ou lu
i hin
Ġq enÃ«
ov ÄĽ
Ġel ler
ĠÐĲ Ð²
es ab
Ġche ats
Ġne pie
Ġg ro
Ġfo ko
áĢ®áĢ¸áĢ ķ
or szÃ¡g
àµĭ à´£
áĥĺáĥ£áĥ ļ
Ġà¸ªà¸ ³à¸«
à°¾à°ķ à±į
éĤĢ è¯·
Ġàª¤àª°à«Ģ àªķà«ĩ
ëĿ¼ ìĿ¸
Ð°Ð»ÑĮ Ð½Ð¾
Ġà´Ń à´¾à´Ĺ
Ł áĢ¯
áĢ» áĢ¬áĢ¸
ĶáĢ¾ áĢĦáĢ·áĢº
ĠÎ¼ÎµÏĦÎ± Î¾Ïį
c ta
àµģà´Ĥ à´¬
ÐµÐ» Ñĸ
ĠÎĵ Î¹
à°Łà±įà°Ł à°¿
ĠáĥĹáĥĲáĥľ áĥĲáĥĽ
à¤¾à¤ ³
Ġà¤ķà¤° à¤£
Ġp ov
ÏĦÎ· ÏĦÎ±ÏĤ
Ġà´ķà´¾à´° àµįà´¯
Ġm er
Ð°ÑĤ ÐºÑĥ
áĥ£áĥ ª
ãĤ¤ ãĥ«
ĠÎ£ Î±
Ġà°ªà±įà°° à°®
Ð´ Ñį
Ķ à¹īà¸²à¸Ļà¸
å® Į
ĠØ¨ Ùħ
ë ĳĲ
áĥ£áĥ Ļ
anti p
Ð¾ÑĢ Ð¸Ð¸
ĠÐ¼Ð°ÑģÑĤ Ð°ÑĨ
f ele
Ġà°ļ à°¦
Ľà¹ĩ à¸Ļà¹Ģà¸
Ø¦ Ø±
b ir
ĠØ¨ Ø³ÛĮ
Ġz ile
à¥ĩà¤Ĥà¤¦ à¥įà¤°
Ġba ka
Ġpas i
à®¯ à¯į
à¤® à¥įà¤®
ti ge
Ġà¤¬à¥Ģ à¤ļ
Ð½ Ð´
à¤ľ à¤°
Ġ rze
Ð°Ð· Ð¸
Ġb esz
Ä«g Äģ
ĠÑĢ Ð°ÒĽ
Ð» Ð°Ð³Ð°Ð½
ÑĢ Ð°Ð±Ð¾ÑĤ
s Ä±
ĠØª Ø¬
Ð°Ò³ Ð¾
Ġà¦¬à¦¿à¦· à§Ł
ĠÅ¡ ko
Ġc Æ¡
Ġg ut
Ġgi o
Ġà®¤à¯Ĩà®° à®¿à®¯
Ġc Ã¢
Ġs al
Ġj p
å Ĥ
wa ga
Å¡ wa
Ġido go
Ïħ ÏĦÏĮ
ìĦ Ŀ
ÏģÎ±ÏĥÏĦÎ· ÏģÎ¹
Î» Î¹ÎºÎ¬
ÏĦÎ¿Ïį Î¼Îµ
Ġe gbe
ov anie
i u
Ġme je
ĠG esch
à¯ģà®¤ à®¾à®©à¯į
ĠØ§ÙĦØ ¢
¹ àª¿àª¤
ÐµÐ½Ð¸ Ñħ
Ġm Å¯Å¾e
ĠÐ¸ ÑģÐº
Ġà¦ī à¦ł
ft ware
Ġà®¨ à®¿à®°
Ġe zt
e tsa
áĢĿ áĢĶáĢº
Ġf are
à´¾à´Ł àµį
áĥĶáĥł áĥĺáĥ¡
©à¸ ±à¸
à°² à±ĩà°¦à±ģ
à¤² à¥įà¤¯à¤¾
ĠM ÉĻn
tiv os
ĠÑį Ð»ÐµÐºÑĤ
à´¿à´ §
áĢĶ áĢĬáĢ¹áĢ¸
áĢģáĢ¼ áĢĦáĢºáĢ¸
áĢĦáĢ¹áĢ Ĩ
ĠÎ£ÏĦÎ· Î½
Ġni ng
à´¾à´ ¬
ÑĩÑĭ Ð½Ñĭ
ĠÎ£ ÏĦÎ±
à°ķ à±ģà°Ĥà°¡à°¾
áĥ£áĥļ áĥĲáĥĵ
á ĭ
Ġä¸ º
il s
Î¹Î± Ïĥ
Ġà´®à´¨ à´¸àµįà´¸
Ġk emi
ÑģÑĤ ÑĢÑį
áĥł áĥĶáĥĳáĥĺ
el lis
ÏĢ Î±Î½
Ġà°µ à°¾à°°à±ģ
ĠÐ½ Ñĸ
à¹Ģ à¸Ńà¸ĩ
çł Ķ
ìĪ ł
Ġà¦¦à§ĩà¦ĸ à¦¾
áĥĺáĥ¢ áĥĿáĥĽ
Ĭ à¸Ļà¸
gan iz
ÑĳÐ½ Ð½Ñı
Ðº Ð»ÑİÑĩ
Ġà°¬ à°¯
Ġà¹Ģà¸¥ à¹Īà¸Ļà¸
un da
p Ã©
ĠØ§ ÛĮÙħ
×Ļ×ł ×ķ
Ġà¤ļà¥ģà¤¨ à¤¾à¤µ
ĠCh ina
Ġàªħàª® à«ĩ
in cs
Ġà¤īà¤¸ à¤ķà¥ĩ
àª¾àª·à«įàªŁ à«įàª°
à¤¾à¤ĩ à¤¨
ĠÑģ Ð¸ÑĦÐ°ÑĤ
à¤°à¥įà¤ ļ
Ġr áº¥t
Ġà¦¹ à¦ĵ
Ġà®ļ à¯Ģ
ĠíĬ ¹
ĠÒ³Ð¾Ð» Ð°ÑĤ
ĠÐ³Ð¸ÑĢ Ð¸ÑĦ
Ð°ÑĤÐ¸ ÑģÑı
ĠØ§ Øª
Ġi tt
ĠÐ± Ð°Ð½
Ġtem po
Ġãĥ Ľ
Ġha p
ĠN az
ki wa
Ġn ÉĻti
m t
ĠN agy
Ġg ar
Ġ æľĢ
bel i
Ġb ont
Ġy á»į
ĠÏĢÎ± ÏģÎŃ
ĠÑģÐ¿ Ð¾ÑģÐ¾Ð±
Ġ8 0
ĠÎĶ ÎµÎ¯ÏĦÎµ
ĠÏĨ Î¯
Ġala ba
×ł ×¡
Ġta pa
Ġoti tá»į
Ġtou te
hÄ¾a d
Ġm y
ĠØ´ Ø§Ùħ
ÐµÐ¼ Ð°
Ġà®µ à®¿à®µ
Ġàªľà«ĭàªĪ àªı
Ġr Ã«nd
c ts
d em
Ġm ost
Ġy ona
áĢĲ áĢĽ
Ġà®® à¯ģà®ķ
à´ªàµįà´ª à´Ĥ
Ġáĥŀáĥĺáĥłáĥķ áĥĶáĥļáĥĺ
à¹īà¸ ¡à¸
Ġà°¬ à°¾à°²
å¥ ĩ
dÄ± m
ĠØ¹ Ø§Ùħ
è£ ½
àµĪ à´µ
ĠáĢ¡áĢħ áĢŃáĢ¯áĢ¸áĢĽ
ĠáĢ¡ áĢŃáĢĻáĢ¹áĢ
ĠáĢģ áĢ¶
ĠÎµÏĨ Î±Ïģ
Ġin di
Ġà´¤ à´¿
ÑĢ Ð¾Ñŀ
Î¿Ïħ Ïĥ
Ġà°µà±Ĩ à°³à±įà°²
ĠáĥĹ áĥĺáĥĹ
ä¹ °
á Ĭ
ĠÐ´ Ð°Ð¶Ðµ
ĠÎµÎ½ ÏĮÏĤ
Ġà´İ à´¨
Ġna s
ĠÐ± ÑıÑģÐ¿
áĥĺ áĥĶáĥłáĥĹ
æĥħ åł±
ĠÎ² Î¹Î²
à°ªà±įà°ª à±ģà°¡
Ð ¯
à¸²à¸ ģà¸
çº ¢
Ġat bil
ĠÅ ģ
ĠáĥĽ áĥĺáĥķ
«à¸ §à¸
Ġìŀ ¬
ĠÐ´Ð· ÐµÐ½ÑĮ
ĠÐ²Ð¸ÑĢ Ð¾Ð±
Ġà°¬ à±įà°¯
Ĥ à¹īà¸²
Ġ ÖĦ
ĠwiÄĻ cej
Ä«g s
ĠÐ¶ Ð¸Ð²
Ġà¤µà¤¾à¤² à¥Ģ
Ã ĩ
ĠÃ £
ny i
Ġà¤Ĩ à¤§
Æ°á»Ł ng
à¬ °
ĠÐ³ÑĥÑĦ ÑĤ
Ġà¤ªà¥įà¤°à¤¦ à¥ĩà¤¶
Ġàªīàªª àª¯à«ĭàªĹ
ĠM ok
Ġà®ķ à®¤
à§ «
Ġ Ð°ÑĦ
ÑĥÐ½Ð¸Ð½Ð³ Ð´ÐµÐº
Ġc ent
ne hmen
os sz
ĠÐ¾ ÑĪ
Ġà¦¬ à¦¸
ãģĳ ãģ¦
Ġà®Ĵ à®©à¯įà®±
ÉĻt ÉĻn
ÑĹ Ð²
Ġhaqq Ä±nda
ì¦ Ŀ
ĠÑģÐµÑĢ ÐµÐ´
Å¡ t
Ġma in
ĠT lha
Ġt um
Ġn wá»įn
ĠW N
Ġà¦Ĺ à§ĩà¦Ľà§ĩ
Î³ Î½Ïī
ĠÏħÏĢÎ¬ÏģÏĩ Î¿ÏħÎ½
ĠC R
Ġo á¹£u
z ni
e ft
Ġká»į á»įkan
ĠkÃ« to
Ġwa tu
Ġzna j
fa ch
Ġur ma
Ð¾Ð´ Ñĸ
×Ļ×ł ×Ķ
à®¿à®¯ à®®à¯į
Ġo ko
it en
Ġse e
ter i
áĢ¼ áĢ¬áĢ¸
Ġëĭ ¨
à´ķ à´Ĥ
áĥ£áĥļ áĥ¢
Ķ à¹Į
Ġà°ªà±įà°° à°§
è½ ¬
à¦ŀ à§įà¦ļ
ĠØ§Ø³ ÛĴ
ãĥ¼ãĤ ·
Ġà´µà´¿à´ ³
áĢ±áĢĲáĢ¬ áĢ¹
áĢĢáĢ¹áĢ Ĩ
áĢĸ áĢŃáĢ¯áĢ·
ĠÎ¶Ïī Î®
ĠdÉĻ fÉĻ
à´® àµģà´³àµįà´³
ĠÐ³ÑĢÐ°Ð¼ Ð°Ð´Ð·
Ïĥ Î¼Î±ÏĦÎ±
Ġà°ķ à°¾à°Ĥà°Ĺ
áĥķ áĥĺáĥĵ
à¥ĩ à¤¤
æ¨ ¡
ÑĬ Ð¶
ÏĮÏĦÎ· ÏĦÎ±ÏĤ
Ġà´¸à´Ĥ à´¸àµįà´¥à´¾à´¨
Ġra ng
Ð½ Ð°ÑĢÐ¾Ð´
® áĥĶáĥĵ
Ġqe ver
Î»Îµ Ïį
Ġà°ķ à±ģ
Ġ. )
Ĭ à¸´à¸
Ġäºļæ¸¸ å®ĺç½ĳ
ĠâĢ ¬
ĠØ¨ Øª
áĥĲáĥļ áĥ®
à¹Īà¸²à¸ §à¸
ĠÐŁ Ð¾Ñģ
ÑĤ Ð°Ñŀ
ĠÃ© let
Ġà°ķà±ĭ à°°
¢à¸ ±à¸ĩ
Ġpe tit
Ġà®ªà¯Ĩ à®¯
bil itÃł
Ã¡ Å¡
Ġà¤ľ à¤¿à¤¨
liz ar
j esh
Ġthá» Ŀi
åģ· æĭį
àª¾àª «
Ġà¤®à¥ģà¤ Ŀ
ĠÑĤ Ð¸Ð»
Ġà¤¸à¥įà¤¥ à¤¿à¤¤
Ġi gaz
Ġlint ho
ten er
ĠA m
ĠÐ°Ð½ Ð¸ÒĽ
ĠÐ¼Ð°Ò³ ÑģÑĥÐ»
Ġb Å«s
Ġle i
ÑĢÐµ Ð±Ð°
ĠÐº Ó¯
Ġv last
Õ¡Õ½ Õ¿
ĠÐ±ÑĬ Ð´Ðµ
d Ã¼r
is se
ĠØ¨ ØŃ
ãģ§ ãģĹãģŁ
Ð°Ð»ÑĮ Ð½ÑĭÐµ
h ely
à¯ģà® Ļà¯įà®ķà®³à¯į
a ka
Ġle kan
Ġá¹£a aju
ĠÏĥÏħÎ³ ÎºÎµÎºÏģÎ¹
Ġà¦ħ à§įà¦¯
ĠÎµ ÎºÎ±
Ïĥ ÏīÏĤ
Î¹Î½ ÏĮ
ĠNi torina
Ġë ¸
ĠÄ¼ oti
Ã¨ Ì£
Ġle urs
ĠÑī Ð¾Ð´
ĠØŃ Ø§ÙĦ
Ġd Ã«sh
Ġper soane
is ti
Ġper Ã²
Ð¸ÑĤÐµÐ» ÐµÐ¹
Ġde ede
Ġs or
Ġpom o
an as
ģáĢ« áĢĦáĢ¹áĢ¸
ĠÐ³ Ð»
Ġà´¤ à´²
áĥĶáĥļ áĥĺáĥ¡
à¸Ńà¸Ńà¸Ļà¹Ħà¸¥ à¸Ļà¹Įà¸
à°¾à° «
æ¶ Ī
h len
czy Äĩ
Ġara sÄ±nda
à´¾à´® àµįà´ª
áģ Ĥ
»áĢķ áĢ®áĢ¸
áĢĢáģ ¡
Î¸ ÎµÎ½
Ġinc lu
à´¾à´ķàµįà´ķ à´¿
ÐµÐ» Ð°
Î»Î¿ ÏįÎ½
Ġà°® à°Ĥà°¦à°¿
áĥł áĥĲáĥĵ
Ġ ä¹Ł
é» ĳ
Ġëĭ ¹
Î´ ÏģÎ±
Ġà´µà´² à´¿à´¯
Ġma ik
Ð»Ñı Ñħ
Ġ" ).
à®¿à®¤ à¯į
ÎĳÎ ł
à±ģà° Ń
ĠÐ½Ð°Ð² ÑĥÑĩ
à¹Ģ à¸Ļ
åĽ Ľ
Ġàª¸ à«ģàª°
ĠB ash
Ġáĥ£áĥ ¡
à¹Ĥà¸ Ķà¸¢
ÙĪ ÙĬØ©
Ð¾Ð² Ð°Ð¹
×¢ ×ª
à±Ģà°ª à±Ģ
Ġp antip
Ġàªħ àª¸
Ġà¦ĵ à¦ĩ
m inen
Ġli gne
à¶ §
ar p
ĠÐĺ Ð·
ar beit
Ġà¤² à¤¿à¤¯à¤¾
Ġà®İà®©à¯įà®ª à®¤
à¤® à¥Ģ
ÑĥÑĤ Ð±Ð¾Ð»
Ġà¤µà¤¿à¤ Ń
ĠÐ¼ Ð°ÑĶ
be lo
me le
à§Ģà¦° à¦¾
ÑĢ Ð¸ÑĦ
Ð°ÒĽ Ð°ÑĤ
Ġil let
Ã ı
ĠÂ ³
Ġ Ð°ÑĬ
Ġth Ã´ng
we za
Ġlo ng
in der
ani u
Ġfa m
b ÉĻ
ĠÑĤ Ð¾ÑĢ
ĠÙħ Ùĩ
Ãº l
Ġp het
zz i
Ã² Ì£
ĠÏĢ Î»Î®
Ġàª¥ à«ĭàª¡
ĠC y
ĠÎ±ÏĢÎ¿ Îº
ĠÎµ Ïį
Ġaá¹£ ayan
ãģ® ãģĬ
ich tig
ju we
T A
ces so
is esti
Ġë¶ Ī
Ġà®¤à¯ĩ à®µ
ãģ İ
ĠveÄ¾ mi
ĠÐł Ð°Ð·
Ġako onu
Ġk ont
Ġmara ng
Ø§Ø °
áĢ±áĢľ áĢ¸
ĠÐ· Ð°Ð½
Ġà´ªàµĭ à´ķ
ĠáĥĲáĥ¡ áĥĶ
à¹Ī à¸Ń
Ġà°µà°¿à°ľ à°¯
åį ĵ
Ġà¦¤ à§ĭ
Ġmay or
ce a
àµĤ à´¹
Ĳ áĢħáĢ¹áĢ
áĢĢáĢ¼ áĢ®áĢ¸
áĢĶáĢ¹áĢ ¡
ĠÎ¸Îµ Ïī
Ã¼ c
Ġà´ªàµįà´° à´§à´¾à´¨
ĠÐ²Ñĭ Ð±Ð°ÑĢ
Ïĥ Ïĥ
Ġà°¨ à°¿à°ľ
ĠáĥĴáĥĲáĥĽ áĥĿáĥª
Ġà¤® à¥įà¤¹
æľ ª
Ġ×Ĳ ×ł×Ļ
Î½ Î¹
à´° àµģà´ŁàµĨ
ĠH O
ĠÐ¼ÐµÑģ ÑĨÐ°
ĠáĥĴáĥĲáĥľáĥª áĥ®áĥĲáĥĵ
Ġà¦¹ à¦¾à¦°
Ïģ ÎºÎµ
Ġà°¸à°Ĥà°¬ à°Ĥà°§
ĠÐ» ÐµÐ¿
à¸µà¹Īà¸ ¢à¸
Ġà¤¨ à¤¾à¤¹à¥Ģ
v Ã¡ny
ĠÐ½ Ð¸Ð²
Ġáĥľ áĥĲáĥĻ
ĭ à¸µ
ĠØªÙĪ Ø§ÙĨ
ĠÐ²Ñĭ Ð¿Ð°Ð´
ri le
Ġà° Ĭ
ŀà¸ ±à¸
ĠØ¯ ÙĦ
Ġ×ľ ×Ľ
Ġàªªà«ĭàª¤ àª¾àª¨à«Ģ
Ġtr at
åŃĹ å¹ķ
ãĥ³ ãĤ¯
Ġc ie
Ġv Ã¦re
à¤¾à¤ķ à¤°
r je
à¤Ń à¤¾à¤µ
ĠÐ¼Ñĥ Ð²
ĠåĪ ©
ĠÐ³ Ð¾Ð»Ð¾Ð²
Ġk holo
ĠÙĪ Ø¥
à¦Ĥ à¦¶
ĠÑģ Ð°ÑĦ
ĠÐ¼ Ð°ÑĢÐ´
ĠpÅĻ e
ĠÃľ ber
v Ã¡n
Ð´ Ð°ÑĤ
Ġse u
Ð¼ ÐµÑĤ
Ø§Øµ ÙĦ
Ġn r
pa l
ĠI D
ÅŁ ti
à¯ģà®µ à®¤à¯ģ
ĠÐ¾Ð±Ð»Ð°ÑģÑĤ Ð¸
Ġàªµàª¿àª ¸
e bo
vien o
á¹£e pá»į
Ġd de
ĠÕ° Õ¡Õ´
Ġon d
ĠÎ´ Ïħ
ĠÎ´ ÎµÎ¯
Ġap áº¹
ãĥ¬ ãĤ¹
z ident
ĠA s
Ð°Ð»ÑĮ Ð½Ð¾ÑĹ
ĠÙĩ ÙĬ
Ġpra c
Ġf Ã¶r
Ð°Ð»ÑĮ Ð½Ð¸Ð¹
ĠéĢģ æĸĻçĦ¡æĸĻ
ĠØ¢ÙħÙĪØ² Ø´
ĠÐº Ð»Ð°Ñģ
Ġs un
i O
Ġmo la
Äħ g
áĢĨ áĢ¯áĢŃ
ks e
la ya
áĥłáĥĹ áĥ®
à¹Ħà¸Ķà¹ī à¸£à¸±à¸ļà¸
Ġà°ķà°¾à°Ĥà°Ĺ à±įà°°à±Ĩ
èĬ Ĥ
ĠÃ¡l l
is tra
ìłģ ìľ¼ë¡ľ
Ġà´ª à´Ļàµįà´ķ
áģ¾áĢĢ áĢ¬áĢ¸áĢ
áĢ¥ áĢ®áĢ¸áĢ
ĠáĢ± áģ¾áĢĢ
Î¼ÎŃÎ½Î¿ ÏĤ
con tre
à´® àµĩ
ĠÐ´ Ð°Ñģ
ĠÎĻ Î±Î½
à°¡ à°¿
áĥłáĥ £áĥļáĥĺ
æ¬ ¾
Ġå¯ ¹
ĠØ³ Ø§ÛĮØª
ĠÎºÏħÎ² ÎŃÏģÎ½Î·
ĠP M
ĠB at
Ð°Ð´ Ñį
áĥĶáĥĳ áĥĶáĥĳáĥĺáĥ¡
Ð±ÑĢ Ñı
ĠÎ¤ ÎŁÎ¥
Ġà°ħ à°°
ĠÑıÐºÑĸ Ñħ
¥à¸ ±à¸
æ± Ł
áº¡ nh
Å¾ it
ĠáĥĽ áĥĲáĥ¦
į à¸²
ĠØ¢ Ø²
ĠÐ¿Ð°Ðº Ð°Ð·
Ġt our
à°° à±Ģ
à¸£à¸ ĸà¸
Ġse pse
à¯Ĭà®° à¯ģ
ĠK jo
d Ä±n
à¥ĩà¤Ĥ à¤Ĺà¥ĩ
ãĥķãĤ ¡
d ÄĻ
à¦¿à¦ «
à¤Ĥ à¤¬
ĠPro du
Ġà¤ľ à¤²
ĠÐ°Ð² Ð²Ð°Ð»
Ġà¤° à¥ĭ
ĠÐ² Ð¶Ðµ
Ġqa la
elb st
as a
ĠÐ´ Ñĥ
ĠÐ¶ Ð°ÑĢ
Ġcon tro
Ġ×Ĳ ×ł
kuu ta
Ð°Ð¸ ÑģÐ¸
ĠÙĪ Ø±
ĠÐ¾ÑĤ Ð²ÐµÑĤ
Ġàª®à«ĭàª ¦
Ġàª® àª¾àª°àª¾
Ġà§§à§ ¨
éĢ £
v eni
ove j
Ð¼ ÐµÑģÑĤ
à§ĩà¦ ¯à¦¼
Ġts ona
Ö ĩ
ng o
Ġ< /
Ġm ÉĻk
ÏĦÎ® ÏĥÎµÎ¹
w l
ĠÏĢÏģÎ¿ Î·Î³
ĠA ra
àª° àª®
la p
Ġb ii
ãģĹ ãģı
à®¿à®°à¯ģà®ķà¯įà®ķ à®¿à®±
Ġ: )
ĠS te
Ġà®µà®¾à® Ļà¯įà®ķ
çĶ º
ĠÐ²ÑģÐ¸Ñĩ ÐºÐ¸
ĠÐ²Ñģ ÐµÐ³Ð¾
Ġori á¹£
Ġswo je
k Ã¼l
k et
áĢľ áĢ¯áĢŃ
ĠÐ¾ Ð²Ð°
àµĬ à´¨àµįà´¨
áĥĺáĥ¡ áĥ£áĥ¤
ª à¹Įà¸
Ġà°° à±Ĥ
ç½ĳ ä¸Ĭ
Ġh Ã¬nh
Ġon der
ĠØ§ÙĦ Ùī
à´¿à´¯ à´¾à´£àµį
Ġáģı áģĭ
áĢĻáĢ» áĢ¬áĢ¸áĢ
áĢĽ áĢ²
ÏģÎµ Î¯Î±
ĠØ§ÙĦØ£ Ùħ
Ġà´Ĩ à´¦
ĠÐ¶ Ð°
Î± ÏģÎ¯Î¿Ïħ
Ġà°ªà±įà°°à°Ńà±ģà°¤à±įà°µ à°Ĥ
ĠáĥĽ áĥĲáĥ¨
åĬ Ł
ç» Ļ
ĠØ§ ÙĪÙĦ
ÏĦ Ïį
Ġà´¸ àµįà´¤
ĠÐ³ÑĢÐ¾Ð¼ Ð°Ð´
ĠÐ°Ð¿ Ð¾ÑĪ
áĥĲáĥ¨áĥķ áĥĺáĥļáĥĺ
kan a
ĠÏĨ Î¹
à±ģà°Ĥà° ¬
Ð°Ð² ÑĭÑħ
¸ à¸Ļà¸
åĽ ł
Ġdzie ci
ck y
áĥĶáĥĽ áĥĲ
Ġà¸ ľà¸¹à¹īà¸
Ä«g u
ĠÐ· Ð½Ð°Ñħ
à¯ģà®µ à®°
à°Ĺ à°²
Ħà¸ §
v ant
ĠÐ¶ ÐµÐ½
Ġzh vil
hal ten
Ġà¤ħà¤¨ à¥įà¤¯
ĠÐł ÑĹ
ĠÐ³ÑĢ Ð½
à«ĭàª ³
à¥ĩà¤¶ à¤¨
Ġa Ã±o
à· Ħ
ĠÐ¸ Ñİ
Ġà¤µà¤¿à¤¶ à¥įà¤µ
ĠÐ¼Ð¾Ð¶ Ð»Ð¸Ð²
Ġpe w
le Äį
ãģ® ãģĮ
Ð»Ð°Ð½ Ð´Ð¸
ĠÑħ Ð¾Ð´
ia re
Ġse Ã§
ve lo
Ð¸Ð½ Ð´
Ġì¢ ĭ
ro b
eg ru
ĠFe te
c li
×Ĳ ×ª
ãģĳ ãģ©
Ä¼ as
Ġmo d
Ġà®ķ à®¾à®£
Ġas ÃŃ
ĠÙĬÙħ ÙĥÙĨ
Ġif áº¹
Î» ÎµÏĤ
Ñľ Ð¸
ĠÎ±Ïħ ÏĦÎ¿Ïį
Ïĥ Î±Î¹
ĠÎ¸ÎŃ ÏĥÎ·
p á»įn
h erÃ«
ĠLes eli
Ġki kun
ãģ§ ãģĤãĤĭ
ĠEm pa
ie dy
ĠØµ Ø±Ùģ
ĠÐ³ Ð»Ð°Ð²
th ane
Ġva in
Ġàª¸ àªª
Ġi bu
dz e
g os
Õ¥ Öģ
áĤĬ áĢĲáĢ¹áĢ
y ÉĻn
Ġà´°à´¾à´ľ àµįà´¯
áĥĲáĥª áĥ®áĥĲáĥĵ
Ġà¸ŀ à¸£
à°¿à°¯ à±ĭ
åŃ ĺ
Ġog ni
Ġs lov
ont os
à´°àµįâĢį à´¶
±áĢĽ áĢ¬áĢĢáĢ¹áĢ
áĢ»áĢķ áĢ®áĢ¸
±áĢĲáĢ¬ áĢ¹
Îķ Îļ
Ġà¦°à¦¹ à¦®à¦¾à¦¨
àµįà´¯ à´¾à´ª
Ð°Ð²Ñĸ ÐºÐ°
ĠÎºÎ± á½¶
Ġà°İ à°µà°°
Ġáĥ¡áĥĲáĥ®áĥĶáĥļáĥĽáĥ¬áĥĺáĥ¤ áĥĿ
è ı
Ģâ Ļ
Ġà¦Ľ à¦¾à¦¤à§įà¦°
Î ŀ
àµĤ à´±
ĠÐ ©
ĠÐ°Ñģ Ð¾Ð±
ĠáĥĴ áĥ£áĥļ
ì² ĺ
ĠÎ Ħ
Ġà°īà°Ĥà°Ł à±ģà°Ĥà°¦à°¿
ÑĩÑĭ Ð½Ð°
ªà¸´à¸Ļà¸ Ħà¹īà¸²
å Ħ
ĠB ei
ÙĪ ÙĨØ¯
áĥĶáĥĳ áĥĵáĥĲ
ļà¸£à¸´à¸ ©à¸±à¸
Ġp lan
ĠÐ² ÑıÐ´Ð¾Ð¼
Ġà¦Ń à¦¾à¦ĩ
Ġà°İ à°¦
ģà¸£à¸£à¸ ¡à¸
ĠÑĨ ÐµÐ½
Ġà¦ªà¦°à§įà¦¯ à¦¨à§įà¦¤
ĠN on
Ġpre to
Ġà¤ħ à¤Ĺ
Ð¾Ð² Ð¾ÑĹ
Ġà®µ à®¿à®´
end ant
à¥Ģ à¤ľ
Ġx e
à¤¿à¤¯ à¤¾à¤Ĥ
ĠÑı ÑĪ
Ġà¤ī à¤¸à¥ĩ
Ġàªı àª¸
ĠÑģÐ¾ Ð¾Ð±Ñī
Ġha pe
ÑģÑĤÐ² Ð¾ÑĤÐ¾
ĠÐºÐµÐ¹ Ð¸Ð½
Ð¼ Ð¸Ð·
ku d
ÙĨ ÚĨ
Ġw eiter
ĠÐ´ ÑĥÐ½Ñĳ
ue go
ĠÃ©rt Ã©k
wa Å¼
ĠS H
Ġà®ª à®Łà¯įà®Ł
ĠÐł ÑĶ
ÑĥÐ² Ð°Ð»Ð¸
iÅĨ as
k ku
j Ã«s
na p
Ġàªª à«ģàª°
Ġati láº¹yin
a f
I C
ĠÎ¦ ÎµÎ²
Ġ4 4
ĠÏĥ Ïī
Ġiá¹£ akoso
Ġn ei
p ul
il á»į
ĠíĻ ķ
×ķ× £
Ã ¯
Ù¹ Ø³
ĠÐ¼Ð°Ð³ Ð°Ð·Ð¸Ð½
Ġàªħ àªĤàªĹ
Ð²Ð° Ñı
ll Ã«
Ġo gun
ĠkÃ¶z Ã¶tt
ĠÛ° Û
ĠØ± ÙĪÛĮ
áĢĦáĢ¹áĢ Ľ
Ġà®ª à®¿à®Ł
Ġà´ľàµĢà´µ à´¿à´¤
Ġáĥł áĥĲáĥĽ
à¹īà¸ ĩ
Ġà°ħ à°Ĥà°Łà±ĩ
çł ´
ti gen
ĠÐºÐ¾Ñı ÑĤÐ¾
cz u
à´¾à´¨àµįà´ ¤
ĠáĢ¥ áĢķ
áĢģáĢ» áĢŃáĢĶáĢº
áĢĸ áĢŃáĢ¯áĤĶ
ĠÏĦ Î¬
à¦¾à¦® à§ĩà¦°
à´µà´¿à´ §
ĠÐĲ Ð¿
ĠÎŃ ÏīÏĤ
à°¦ à°°
ĠáĥĽáĥ¡ áĥĿáĥ¤áĥļ
æĿ ¡
åĮ ħ
Ġà¦¥ à¦¾à¦ķà§ĩ
ĠÎĳ Î¸Î®
àµģà´® à´¾à´¯
ĠÑĢ ÑĸÐ²
ÑĤÑĭ ÐºÑĥ
Ġáĥ£áĥ łáĥ
ê°Ģ ê²©
ÎĳÎ Ķ
à±ģà°ķ à±ģà°¨
Ð İ
ĺà¸ ¸
Ġæ ²
ëĵ ł
Ġvi da
áĥĺáĥľ áĥĿ
à¹Ĥà¸ ¢à¸
Ġh el
ĠÐ¿ÑĢÑĭ Ñģ
ĠàªĹàª¯ à«ĭ
Ġà°ªà±įà°° à°¾à°°
į à¸²à¸
Ġp Äĥ
ÑĦ ÑĦ
Ġn es
lo eng
Ġà¤¶ à¤¾à¤®
Ġon a
Ġà®¤ à®ķ
ĠÙĪ ÙĦ
à¤¦ à¤¾à¤°
Ġse con
à¤¾à¤ª à¥įà¤¤
ĠÐ± Ð¾Ñģ
åľ¨çº¿ æĴŃæĶ¾
àª¨ àª¾àª°
sk ich
ĠÐ³Ð¾Ð´ Ñĥ
ts ha
ĠÐ¨ Ñĥ
ĠÐ³Ð°ÑĢ Ð´Ð¸
Ġre g
Ġshqip tare
Ġtr Æ°á»Ŀng
ÒĽ Ð°ÑĤ
ÐµÐ·Ð¿ ÐµÑĩ
Ġde ÄŁ
p Ã¤
to jnÃ«
Ø¹ ÙĪØ¯
Ġ×Ķ ×Ļ
Ġp eng
Äį ia
à®¿à® £
Ð¾Ð² Ð¾Ð³Ð¾
ĠØ§ÙĦÙħ Ø³Øª
Ġàª°àª¹ à«ĩ
Ġáº¹ láº¹
ĠB B
Ġe v
ÏĢ Î¿ÏħÏĤ
Ġ201 1
ĠA F
ĠL u
ĠØ³ Ø§Ùħ
ĠÐ² Ð¾Ð½Ð¸
ĠG oo
Ġle go
ĠÑģ Ð¸ÑĤÐµ
Ġà®ªà¯ĭ à®©à¯įà®±
Ð°ÑĤ Ðµ
ta ire
àª¨à«įàª ®
Ġal kal
oa m
ĠE uro
ĠT Äģ
à¦¿à¦¯à¦¼ à§ĩ
íĤ ¤
Ġáģ ĩ
å ³
Ġà´¨ àµĭà´ķàµįà´ķ
áĥ¬ áĥĲáĥķáĥļ
ģà¸´à¸ Īà¸
à°¤ à±įà°¨
Ġà¨ ķ
ÙĤ Ûģ
ĠP ra
as ti
à´¿à´¸ àµįà´±àµįà´±
áĢ¼ áĢĦáĢ¹áĢ¸
áĢŁ áĢ¯áĢĲáĢº
áĢ¼ áĢĻáĢ¹áĢ¸
Ïĩ ÏģÎ¿
ouve z
Ġà´¯ àµģ
Ðº Ð¾Ð²Ð°
ĠÎ¬Î½ Î¸ÏģÏī
Ġà°¸ à±Ĩ
Ġ áĥĲ
ä¹ ł
æŀ ģéĢŁ
st vÃŃ
Ïģ Î¹Îº
à´¿à´ ¶
ch s
Ð² Ñĥ
Ġáĥŀáĥł áĥĿ
Ġf ru
ĠÎ¤ Î·Î½
Ġà°ļà°Ĥà°¦à±įà°° à°¬
ĠÐ´Ð· Ñĸ
à¹ Ħà¸£à¸
æµ İ
ÅŁa q
Ġj Ã¡r
áĥĶáĥ £áĥ
· à¸Ńà¸ĩ
ÙħÙĬ Ø¹
Ð°Ð¿ ÑĢÐ°Ñŀ
à«ģàª ·
Ġà°īà°¦ à±įà°¯
Ġà¹Ģà¸ Ħà¸£à¸·à¹Īà¸Ńà¸ĩà¸
c area
ĠÙħØ¯ ÛĮØ±
Ġdiff Ã©r
ov er
Ġà¤ĩ à¤¤
pe lo
à¯ĭ à®°
ir en
Ġà¤¬ à¤²
ĠØ¯ÛĮ Ú¯Ø±
à¤µ à¤¾à¤²
Ð´Ð¸ ÒĽ
à¤¸ à¥įà¤ķ
Ġàªµ àªļà«įàªļ
Äį o
w as
ĠM an
ĠÑĪ Ð°Ðº
Ð±Ð¾ÑĢ Ð¾ÑĤ
ãĥ¼ ãĥ³
Ġtre g
Ġthá» ±c
Ñĳ Ð»
à§ģ à¦¸
in Ã¤
Ö ¸
×ŀ ×Ļ×Ŀ
Ãº b
k ich
ÉĻr ÉĻk
ĠG y
ĠM eg
Ġ ÈĽ
ĠÐ¾Ð´ Ð¸Ð½
Ġàª¤ àª¥àª¾
g le
f an
Ø¹ ÙĬØ©
ÎµÏį Î¸ÏħÎ½ÏĥÎ·
Î¸ÎŃ Î±
Ġ5 8
Ġy ou
ãģ¨ ãģª
Ã½ mi
ĠS ho
Ġche lete
ĠÐ²ÑĢÐµÐ¼ Ðµ
Ġe qui
Ġà¦® à§įà¦¯
Ġt Ã¤y
Ġàª¤àª° àª«
ĠBu dap
tÄģ v
b ara
íı ī
Ġper met
Ġà®Ĩ à®£à¯įà®Ł
áĢº áĢ¬áĢ¹áĢ
ĠëĶ °
àµ½ à´ķ
áĥĲáĥķ áĥĲáĥļ
Ĺà¸µà¹Ī à¹Ģà¸
Ġà°¨ à±Ĩà°²
è¶³ çĲĥ
Ġes to
à¦¾à¦ ·
Ð¾Ð³ Ð¾Ð´
Ġ àµ»
ĠáĢĻáĢ¼ áĢĶáĢº
áĢĦáĢ¹áĢ ħ
áĢŃáĢ¯áĢ¸áĢ Ĳ
ĠÏĥ ÏĦÎµ
ĠÙħ Ùħ
à´¾à´³ àµįâĢį
Ð°Ð´Ð· ÐµÐ½
ÏĪ ÎµÎ¹ÏĤ
Ġà°Ń à°¾à°µ
Ġáĥ¡áĥĲáĥĵ áĥĲáĥª
äºº æ°ĳ
å· ±
w iÄĻ
Îķ ÎĻÎ£
àµįà´µ à´¾à´¸
Ġma ar
ĠÐ² Ñĳ
Ġáĥ¡áĥĲáĥ Ń
I S
Î¼Îµ Î½Î¿
à°¾à°¯ à°Ĥ
Ð²Ñĭ ÑĩÐ°Ð¹
Ķà¸ ³
à¤¾à¤µ à¤°
Ġso it
Ã³ t
áĥĺ áĥĶáĥļ
Ĥà¸¶ à¹īà¸Ļà¸
ĠÐ¿Ð¾Ñģ Ð»ÐµÐ´
Ð°ÑĤÑĭ Ñĩ
Ġàªķàª° à«įàª¯à«ģàªĤ
Ġà°¤ à±Ĩ
à¹Īà¸²à¸ ĩà¸
tet in
Ġperson as
Ġm ich
y o
Ġà¤Ĩ à¤°
Ġle ka
la a
Äį nÃ½
Ġà¤ķ à¤¾à¤Ĥà¤Ĺ
wer t
Ġà¤Ĳ à¤¸à¥ĩ
ĠÐ²Ð°Ð· Ð¸ÑĦ
Ġà¤ķ à¤ª
Ġàª¤à«ĩàª® àª£à«ĩ
larÄ±n a
Ġan der
ĠBa e
ĠÑŀÐ· Ð³Ð°ÑĢ
ĠÐ±Ð¾ Òĵ
Ġspra w
Ø§Ø±ÙĬ Ø®
ĠÑģ ÐµÐ¼
ĠÐ´Ð°Ð² ÑĢ
ãĤĴ è¦ĭ
Ġj Å«s
Ġ×ĳ ×§
ĠÐ½Ð°Ð² Ñĩ
Äį e
ĠK ur
Ġzu en
Ã© z
Ġla k
ta mento
à¯Īà®ķà¯įà®ķ à¯ģà®®à¯į
Ġàª¹ àª¾àª¥
Ġayi ka
ĠÏĦ ÏĮÏĦÎµ
Ġa ch
hy w
ĠA E
ĠÏĢÎ¿ Î»Î»Î¬
w ari
ãģ«ãģª ãĤĭ
Ġza m
ti ri
Ġlefa tshe
Ð» ÐµÐ¹
Ġpr iekÅ¡
ÐµÑĢ ÑĪ
á» Ĺ
Ġà¦ķ à§įà¦¯
gra m
tu u
Ġo ye
ĠàªĨàªµ à«įàª¯à«ĭ
ĠÙĪ Ùİ
ĠØ¹ÙĦÙĬ Ùĩ
áĢ¸áĢĻ áĢº
Ġtho tÃ«
à´¨ àµį
ĠáĥĽáĥ¡áĥĿáĥ¤áĥļ áĥĺáĥĿ
à¹Īà¸ ¡à¹Ģà¸
à±ĥà°· à±įà°£
Ġn et
nÃŃ ho
ĠÙħÙĪ Ø¬ÙĪØ¯
n on
à´¿à´¨àµįà´ ±
áĢ¬ áĢĲáĢ¹áĢ
áĢķ áĢ±áĢ«
ĠáĢķáĢ¼ áĢĬáĢº
Î¼ ÏīÎ½
à®ªà¯įà®ª à¯ģ
Ġà´¬ à´¿
ĠÐº Ð°Ð¶
ĠÎłÎ¿Î» Î¹
Ġà°ļà±ĩà°¸ à°¿
áĥłáĥ Ľ
æĶ ¯
æ Ĳ
Ġíķľ êµŃ
Î® ÏĦÎ·
à´Ł àµģà´ķàµįà´ķ
Õ´ Õ¡Õ¶
ĠâĢļ âĦĸ
Ġáĥ¡áĥĲáĥ£áĥ Ļ
ĠÕ ¹
á½ ´
à°¿à°Ł à±Ģ
Ðµ ÐºÐ°
¥à¹ĩà¸Ńà¸ ķà¸
ä¼ Ĺ
m iz
Ã©s t
áĥĺáĥĵ áĥĶáĥľáĥ¢
à¸Ļà¸µ à¸
Ġ":" "
ĠÐĵ ÑįÑĤ
ĠìĤ¬ ëŀĮ
à±ĥ à°·à±įà°Ł
Ġà¸Ĺà¸ ³
ĠÙĪ ÙĦØ§
Ġk Ãº
k ona
Ġu a
Ġà¤ª à¥ģà¤°
Ġtshw ane
Ġser viz
ov i
à¤°à¥įà¤ ¡
Ġàª² à«Ģàª§
à¥ĩà¤Ĥ à¤Ł
ĠÒ³ Ð°Ð»
Ġà¤µà¤¿à¤ §
ka z
ĠtÉĻ q
es s
ts we
ĠÑĤÐ°ÑĬ Ñģ
ĠÐ Ļ
he j
Ġà®¤à¯Ĭ à®´
ĠÙ¾ Ø³
ĠÐ¼ Ð°Ð¶
ĠP ost
Ġmais on
àª ¢
ÙĪ Ùģ
ĠÐ²ÑĬ Ð²
ia t
Ġcon ta
sÃ¡g i
itÃ¤ t
Ġà®® à®¾à®±à¯įà®±
Ġthá» ©
à§ĩà¦Ľ à¦¿
Ġo ja
ĠÎ´Î¹Î± ÏĨÎ¿
Ġb rÄ«
ĠÎµÎ½ Î´Î¹Î±
ĠM ay
ĠA M
Ġapáº¹ áº¹ráº¹
ĠÑĤ ÑĸÐ»ÑĮÐºÐ¸
Ġà¦¯ à¦¦à¦¿
as iláº¹
Ã©sz et
nie r
çĬ ¶
Ð¾Ð½ Ðµ
Ġàª² à«ĩàªµ
c ek
di ta
Ġ×Ĳ ×Ŀ
Ġen áº¹
ar ia
ĠS ing
ĠDom ni
áĢķ áĢ±áĢ«áĢº
Ġe uro
Ġà´° à´¿
ĠáĥĲáĥ ĳ
à¸£à¸§à¸ Īà¸
à±Ī à°Ł
éª Į
ĠÐ¡ ÐĤ
ĠÐ½Ðµ Ð¾Ð±
Ġsi is
Ġà´ħ à´®àµįà´®
áĢ±áĢ¡ áĢ¬áĢĦáĢ¹áĢ
áĢ±áĢĲáĢ¼ áĢĢ
ĠáĢ±áĢĢáĢº áĢ¬áĢĦáĢ¹áĢ¸
Î¼ ÏİÎ½
f sh
Ġà´ĩ à´²àµįà´²
ĠÑģÐ² ÐµÑĤ
Î¡ Îĵ
Ġà°Ĩ à°¸
áĥĲáĥĽ áĥĲáĥłáĥĹáĥļ
æŀ Ĳ
ç ı
Ġs ku
Â »
Ġà´® àµģ
k ÉĻm
ĠÐ· Ð°Ñı
Ġáĥ¡áĥĲáĥĻ áĥĺáĥĹáĥ®
Ġm Ã¼n
ĠÏĦÏģÏĮ ÏĢÎ¿
Ġà°ļà±Ĥà° ¡
Ð°Ð²Ñĸ ÑĨÑĮ
Ĺ à¹Į
éĤĢè¯· çłģ
is tan
à®¾à®³ à®°à¯į
" #
à¸Ńà¸²à¸« à¸²à¸£
for mÄģ
ĠÑĢÐ°Ð· Ð²Ñĸ
ĠØ±Ûģ ÛĮ
Ġà°ķà°¨ à°¿à°ª
à¸Ń à¸Ńà¸ģ
ĠÃ©rd ek
ÙĪ Ùī
Ġàª® àª¾àª¤à«įàª°
Ġd Ã©s
Ġåħ įè´¹
Ġmu kaan
ãģĭ ãĤĬ
Äĵ ja
æ¯Ľ çīĩ
Ġà¦¬ à§ľ
à¥ Ľ
Ð¾ÑĦ Ð¸ÒĽ
Ġà¤Ĩà¤ª à¤ķà¥ĩ
Ġke ine
ĠÕ Ŀ
Ġre ci
à¯ģà®Ł à¯įà®Ł
ĠÑĪÐ°Ò³ Ð°ÑĢ
ĠÑĤ Ð¸Ð±
ÙĪ Úĳ
ta j
Ġaques ta
ĠÐ¼Ñĥ ÑĪ
Ġpla ce
Ġà¦ħ à¦ª
cz ki
le m
ãģ ¶
Ġp este
Ġà®µ à®²
Ġdi ver
àªµàª¾àª¨ àª¾
ĠÑı ÐºÐ°
Ø§Ø¨ Ø©
Ġà¦¬à¦¿à¦ ª
ĠK ini
ĠÏĩ ÎµÎ¹
d us
ĠÏĢ Î¬Ïģ
r th
ĠÎ¬Î» Î»Î¿
ir isi
×ķ×ľ ×Ŀ
ca ciÃ³n
Ġatun á¹£e
o kat
ÐµÐ³Ð¾Ð´ Ð½Ñı
ãĥĶ ãĥ¼
ìĹĲ ëĬĶ
ĠØ¨ Ø§Ø±
Ġl ena
ãĥ¼ãĥ Ħ
Ġar ri
Ġká»į ja
Ġst an
cha ba
ĠS et
áĢķáĢ« áĢĺáĢ°áĢ¸
à§ĩà¦¤ à§įà¦°
Ġà´° àµģ
áĥĵ áĥĺáĥļ
à¸² à¸£à¸²à¸
Ġà°ķà°¾à°° à°£
éĹ® é¢ĺ
Ġàªļ àª¾àª°
v om
ĠT ra
à´¡ à´¿à´¯
ĲáĢ²áĢ· áĢ¡
áĢ±áĢķáĢ« áĢ·
ĠáĢ¡ áĢĻ
Î¬Î½ ÎµÎ¹
Ð½Ñĸ ÑģÑĤÑĢ
à´°àµįâĢį à´ļàµįà´ļ
ĠÐĴ ÑıÐ»Ñĸ
ĠÎ£ Ïĩ
Ġà°¨ à°¾à°ķà±ģ
Ġáĥķ áĥĲáĥł
åĪĨéĴŁ å¿«ä¸ī
åĳ ¨
Ġn ne
Î¿Ïħ Î»Î¯Î¿Ïħ
Ġà´ħà´¦àµįà´¦àµĩà´¹ à´Ĥ
Õ Ń
ÑĤ Ñį
áĥĿáĥª áĥĲ
lar dan
Ïĩ ÎŃÏĤ
Ġà°ļà±ĩà°¸à±įà°¤ à±ģà°¨à±įà°¨
Ð°Ð»ÑĮ Ð½Ð°Ð¹
Ľà¸¥ à¸²
è¯ Ŀ
ĠÕ ¨
ĠÐ´ÑĸÑı Ð»ÑĮ
Ġáĥ¥áĥĲáĥłáĥĹ áĥ£áĥļáĥĺ
ª à¹Īà¸ĩà¸
tor ia
Ð°Ð»ÑĮ Ð½Ñĭ
ÑĭÐ¼ Ð¸
Ġà°¦ à±Ĥà°°
± à¹īà¸Ļà¸
ĠÐ´ ÑĢÑĥ
Ġàªµ àª¿àª°
Ġi g
g ai
Ġà¤ľ à¥įà¤¯à¤¾à¤¦
ØŃØ¯ Ø©
à®¿à®© à®°à¯į
ĠÐ¿ÑĸÐ´ Ð¿ÑĢÐ¸ÑĶÐ¼
à¤¦ à¤¾
is sen
à¤¤ à¤°
Ð» Ð°Ð´Ð¸
à¥ĥ à¤·
Ġcon f
ĠtÉĻ lÉĻ
Ġva lam
ãĤĵ ãģł
ĠÑĤ Ð¾Ò·
ĠÑģÑŀ Ð½Ð³
Ø± Øª
lu e
Å¡ et
ĠÑħ Ð¾Ò³
ĠÛģÙĪ Ø¦ÛĮ
ĠàªĨàªª àª£à«ĩ
Ġha ce
Ġm ely
Ġfon ction
à§ģà¦¦à§įà¦§ à§ĩ
èª ¿
ĠD oam
de a
ÑĤ ÑĤ
Ġ×Ľ ×Ĳ
rz ÄĻ
Ġak iyesi
Ġl la
Ã« mi
Ġ3 3
n t
ÏģÎµÎ¯ ÏĦÎµ
Ġwhen ue
à®¤à¯įà®¤ à®¿à®±à¯įà®ķà¯ģ
ĠÐ²Ñģ ÐµÑħ
K O
Ġíķ ł
Ġp Ãµ
àª° àª¨à«Ģ
c tions
Ã Ī
bi tso
ĠÄĳ iá»ģu
Ġà¦¢ à¦¾à¦ķà¦¾
ĠMo bile
Ùħ ÛĮØ±
t lhe
Ġfihle la
áĢĶ áĢ±áĢ·
à§Ģ à¦²
Ġà´ªàµįà´° à´¶
áĥĲáĥ¬ áĥ§áĥķ
ªà¸³à¸« à¸£à¸±à¸ļ
Ġà°ķà±Ĭ à°¨
Ġå¾ ·
Ġjs me
Ġtr ze
o b
Ġà´ıà´±àµįà´± à´µàµģà´Ĥ
áĢ¸áĢ ĳ
áĢ±áĢ¸áĢ Ļ
áĢ±áĢĽ áĢ¬áĢĢáĢ¹áĢ
ÏĢÎ±Î¹ Î´ÎµÏħ
ĠÐ¿ ÑĸÑģÐ»Ñı
à´¾à´² àµģà´Ĥ
ĠÐ³ÑĢÐ°Ð¼ Ð°Ð´
ÎĻÎ ©
Ġà°ħ à°ķà±įà°ķà°¡
§ áĥĶáĥľ
åİ Ĩ
æł ¡
h ana
ĠÎ§ Î±
Ġà´¸ àµĹ
Ġl Ä«
ĠÐĳ ÐµÐ»Ð°ÑĢÑĥ
ĠáĥĿáĥłáĥĴáĥĲáĥľ áĥĺáĥĸ
Ġh er
Ïħ ÏĥÎ·
Ġà°µà°¾à°° à°¿
ĠÑģÐ¿Ðµ ÑĨÑĭÑı
Ĥà¸²à¸ ¢
Ġæ ķ
Ġg re
Ð°ÑĨÑĸ Ð¾Ð½
áĥĲáĥĵáĥĴ áĥĲáĥľ
«à¹ĩ à¸Ļà¸
ĠØ§ÙĦÙħ Ø³
ĠÑģÐ² ÑıÑĤ
Ġàª¤àª® àª¾àª°à«Ģ
à±įà° ŀ
à¹īà¸ ³à¸
u jem
ĠÄı al
Õ¡Õ ¦
qi q
Ġà¤µ à¥Ī
Ġí ļĮ
Ð¸ÑģÑĤ ÑĢ
Ġn Ã«se
ä¼ Ĭ
à§įà¦¯ à§ĩ
ĠåĪ© æĿ¥
Ð°ÑĬ Ð¾Ð»
Ġà¤īà¤¤à¥įà¤¤ à¤°
z enÃŃ
ĠÐ¸ Ñģ
à®¾à®Ł à¯ģ
ĠÚ© Øª
Ð°Ð½ Ð´Ð°
ÑĢ Ð¾ÒĽ
Ġge w
×¨ ×Ļ
ĠÑģÑĤ Ð²Ð¾ÑĢ
ĠÐ² Ð¾ÑģÐ¸ÑĤ
Ġai x
L E
Ġava it
Ġdo l
r s
Ġà¦¸ à¦°à§įà¦¬
Ø¹ Ø§Øª
ãĢ į
Ġin tre
ma i
am il
Ġà®ļà¯Ĩà®¯à¯įà®¤ à¯ģ
báº¹ ráº¹
Î¹Î½ Îµ
g ÃŃa
ĠÎµ ÏģÏī
ĠÎ¼ÎŃ ÏĥÏī
T H
Ġy etá»įn
ãĤ¤ ãĤº
ê ¶Į
êŀĮ o
ÐµÑĢ Ð³
ma lla
éĩ İ
ĠBratisla va
Ã Ĥ
he tseng
ĠÂ ´
á»ķ i
Ġg un
ÛĮÙĨ ÛĮ
Ġàª¦ à«ĩàªµ
ĠF il
ĠáĢģ áĢ»
à¯Ī à®¤à¯į
Ġà´ķà´´ à´¿à´¯
Ġáĥŀáĥĺáĥłáĥķ áĥĶáĥļ
à¸Ńà¸µà¸ ģà¸
à±įà°µ à°°
å®ī è£ħ
Ġàªµàªļà«įàªļ à«ĩ
en iem
ĠV Ã½
àµįà´¯ à´¤
áĢĢ áĢ°
±áĢ ļáĢ¬áĢĢáĢ¹áĢ
áĤı áģµ
ĠÎ± ÏģÎ¹Î¸
ĠÑģÐ² Ð¾Ð¸
àµ¼ à´ķàµįà´ķ
ĠÑŀÑģ Ðµ
Î»Î» Î¹
Ġà°¬ à°¾à°§
ĠáĥĿ áĥĹ
æİ §
è¿Ľ è¡Į
ĠÑĤ Ð¾Ð·Ð¸
Ïĥ ÎºÎ¿
à´Ł à´¿à´¯
à§ģà¦ ģ
ĠÐĲ Ðº
ĠáĥĽ áĥĺáĥ£áĥ
Ġé Ľ
Î¯Î½ Î¿ÏħÎ½
Ġà°ķà±Ĭ à°¨à±įà°¨à°¿
Ñĸ Ð½Ð°
Ĭ à¸µ
ç»ĵ æŀľ
Ġco pii
Ġf uer
áĥĶáĥłáĥ ¢
Ġà¸Ķà¸ ¹
l s
ĠÐ¼ ÑĸÐ½
Ġfum ane
à°¨ à±Ĥ
Ġà¸£à¸µà¸§à¸´à¸ §
r Å¾
Ġìĥ Ī
Ġde ze
ĠÙĬ ØŃ
à¤ľ à¥ĩ
Ã³ j
Ñĸ Ñİ
Ġa sh
Ġà¤¶ à¥įà¤°à¥Ģ
li ge
Ġà¤¦à¥Įà¤° à¤¾à¤¨
ĠÑĪÑĥÐ¼ Ð¾
à¤¾à¤¸ à¥įà¤¤
Ö °
Ġ×ĳ ×ł
Ġma hd
Ġpro pri
ĠÑĥ ÑĪÐ±Ñĥ
ĠÐĶÐ°Ð² Ð»Ð°ÑĤ
Ø´ Ùħ
Ġà« «
à«ĩàª¨à«įàª ¡
Ñħ Ð¸ÑĢ
Ġk de
Ñĺ Ð°Ð²
Ġna wet
Ġà®ķà®° à¯ģà®¤à¯įà®¤
Ðº Ð¸ÑĤÐµ
Ġà¦¤ à§Ī
Ð°Ðº ÑĤÐµÑĢ
çµ Į
Ġpri v
Ġpiem Äĵ
Ġs iyas
Ø¨ Ûģ
Ġsu gbon
ĠÎ¼Î· ÏĩÎ±Î½
Ã¼ gy
ĠÎ¬ Î»Î»Î±
ĠÎ· Î»ÎµÎº
fny d
Ġy atá»į
isi Ã³n
Ġ6 00
á»įn u
Ġëª ©
Äĥ se
Ġin kiÅŁaf
Ð°ÑĤ Ð¾ÑĢ
to o
ĠS E
Ġthe pa
ĠM en
ĠY ou
Ġà®° à¯Ĥ
Ġus ta
Äĥs Äĥri
áĢķáĢ¼ áĢ¯
ĠÑį ÑĤÐ¸
à´¤àµįà´¤ à´°
Ġáĥł áĥĲáĥĵáĥĴáĥĲáĥľ
à¸´à¹Ģà¸ ¨à¸
à°¾à° Ń
åĨ ³
Ġà®ļ à®Łà¯įà®Ł
ÙĤ Ùħ
ĠprÃŃ s
àµģà´Ł àµĨà´¯àµģà´Ĥ
áĢĦáĢ¹áĢ ĺ
áĢĤ áģ¤
ĠáĢŀáĢ° áĤĶ
Î³ ÎµÎ½
je ve
Ġà´ķ à´£àµįà´£
ĠÐ» ÑĸÑģÑĤ
Î» ÏīÎ½
à°°à±įà° ·
Ġáĥł áĥĲáĥ¡
Ġä¸ Ĭ
Ġ áŀ
ĠÐ² ÑĸÐ¹
ĠÎ¿Î¼Î¬ Î´Î±
àµģà´ķ à´¾à´°
c ina
ĠÐ²Ñĭ ÐºÐ°Ð½
áĥĲáĥ¥ áĥķáĥ¡
la ma
ÎĻ ÎŁ
à°° à°¿à°Ĥà°ļ
ĠÐ½Ñı Ð¼Ð°
à¸Ļà¹īà¸ ³
è ĳ
Ġv re
Ġtou jours
Ġáĥĺ áĥĹ
¢à¸ §
ĠC s
ÑģÐº ÑĥÑİ
iá» ħn
Ġà°µ à±ĩà°¸
à¹ĥà¸ ª
Ġe Å¡te
ĠØ¬Ø§Øª Ø§
ol la
Ġtak ie
à¥įà¤ ł
ĠØ² ÙħØ§ÙĨ
Ġì »
ma z
Ġà¤ī à¤¦
×ĳ ×ķ×ĵ
Ġà¤¬ à¥ĭ
ĠÐ¼Ñĥ ÑģÑĤ
Ġà¤¬ à¤ļ
ci es
Ġàªµ àª¡
ĠÙĪ ØŃ
cu te
ĠÐ±Ð°ÑĢ ÑĩÐ°
Ð°Ñħ ÑĤ
Ġd um
ĠgÃ©n Ã©ra
Ġp ia
ĠÒ³Ð°ÑĢ Ð°ÐºÐ°ÑĤ
ĠP rzy
h tÃ«
k r
Ġwe b
Ġàªĸà«Ĥ àª¬
Ð¾ÑĤ Ð²ÐµÑĤ
Ġs elle
ìķĦ ê°Ģ
ik ka
×© ×ķ×ª
Ġsz czeg
Ð± Ñı
Ġnu he
Ġc ym
ĠÑĢÐ¾Ð·Ð² Ð¸ÑĤ
ĠÏĥÏħÎ½Îµ Ïĩ
Î¸ Î±Î½
9 6
Ġo pin
Ġà¦® à§ģà¦ķà§įà¦¤
ëĶ Ķ
Ġd ownload
ĠÐ² Ð»Ð°Ñģ
Ġà®µ à®¾à®°
ĠÙĦ ÙĬ
ces o
al t
à§Ģ à¦ķà§įà¦·
a to
mÉĻy ÉĻ
Ġoni we
ÑĬÑĢ Ð²
dan ia
zet t
ĠáĢĽ áĢ¾áĢŃ
Äģd Ä«
Ġà´¶ àµįà´°àµĢ
ĠáĥĽáĥĲáĥĹ áĥĺ
ĵà¸ °à¸
Ġà°²à±ĩà°¦ à°¾
çĶµ æ¸¸
ÑİÐ² Ð°Ð½Ð½Ñı
Ġdies er
Ġada lah
à´¾à´ Ń
ĠáĢľ áĢ¬
áĢĢáĢ¼ áĢ±áĢ¬áĢĦáĢ·áĢº
± áĤı
ĠÎĽ Î±
ion s
Ġà´ķàµĩ à´¨àµįà´¦àµįà´°
ĠÐ¿ÑĢ ÑįÐ·
Ïī ÏĥÎ·ÏĤ
Ġà° ĺ
Ġáĥŀáĥł áĥĿáĥĴ
ł áł
æ ĵ
ĠàªĹ àªĪ
Î³ ÎŃÎ½
Ġà´¨ àµ½à´ķ
ÑĢ ÐµÑģ
ĠÐ» Ñĳ
Ġáĥĵ áĥĲáĥª
Ġà¦ī à¦ļ
Î¼Îµ ÏģÎ¹Î½
à±ģà°° à±ģ
ĠâĢ °
«à¸ §à¸±à¸
Ġç ¾
ĠÂ ¼
ĠÃ Ķ
Ġáĥķ áĥĺáĥĵ
¡ à¸´à¸
Ġ: #
ĠÐ½ Ð°Ð±
ãĤ ´
Ġà°¦ à°°à±įà°¶
ª à¸µà¸
iem pre
p pa
ĠØº ÙĬØ±
Ġpro jek
à¤Ń à¤¾
Ġà®¨ à®©à¯įà®±
ĠÙĨ Ø¯
Ġì½ ľê±¸
à¤ ĩ
Ī ¬
Ġà¤ķ à¤Ĥà¤ª
ĠÐĲÐ¼ Ð¼Ð¾
Ġà¤®à¥ĭ à¤¦à¥Ģ
Ġàªª àª¾àª£à«Ģ
Ġà®Ĩ à®ļ
Ġv iz
Ġv ir
Ð°Ð»Ð°ÑĢ Ð¸Ð½Ð¸
Ð³ ÑĥÐ·Ð¾ÑĢ
ĠL it
ba la
Ġà®®à¯ĩà®² à¯ģà®®à¯į
ĠÐ½ Ð¸Ñģ
ÅĤa w
áº¡ ng
ĠØ§Ø³ ÛĮ
Ã© m
Ġc al
ĠÐ¿ÑĢÐ¾ÑģÑĤ Ð¾
àª¾àªľ àªª
Ġàª¦ àª°à«įàª
Ð° ÑļÐµ
as t
Ġby ÅĤ
Ġso cial
ĠKáº¹ wa
ĠÎºÎ± Î»Î¬
æŁ »
** **
ĠÎºÎ±ÏĦÎ± ÏĥÎºÎµÏħ
Ġï¿½ï¿½ï¿½ï¿½ï¿½ï¿½ï¿½ï¿½ ï¿½ï¿½
Ġgáº¹gáº¹ bi
×¢ ×Ķ
Ġn ngwe
ĠO s
ÑĨ ÐµÐ²
ĠÙĨ ÙħÛĮ
cri ption
D F
T E
cia les
à¦¾à¦° à¦¿
Ġa to
Ġláº¹ po
Õ¡Õµ Õ«Õ¶
Ġo x
ÙĪÙĨ ÛĮ
ĠáĢĢáģ½ áĢ¼áĢĶáĢ¹áĢ
ì§ ģ
à´¿à´ £
áĥ£áĥłáĥ ķ
Ġà¹Ģà¸ Ľ
à°Ł à°¨
à© °
Ġspr Ã¡v
Ġsz olgÃ¡l
Ġà¦ĩà¦ī à¦¨
à´¿à´Łàµįà´Ł àµį
áĢĸáĢ¼ áĢ²áĤķ
ĠáĢ¡ áĢĲ
áĢ¡ áĢ¬áĢ¸
ĠÎ ¨
ue il
à´¨ à´¿à´¨àµįà´¨
ĠÐ²Ñĭ Ñħ
ÎĻÎ£ Î¤
Ġà°ªà±įà°° à°¾à°Ĥà°¤
áĥĶáĥł áĥĺáĥĿ
Ġà¨ ¸
æĹ¶ éĹ´
àª¾àª³ àª¾
ÏĦÎ± ÏĥÎ·
à´° àµģà´Ĥ
ÙĦ ÙĤ
ĠÐ½ÐµÐ°Ð± ÑħÐ¾Ð´
áĥķ áĥĹ
ge b
ÏĦ Î¯Î±ÏĤ
Ġà°° à°Ĥà°Ĺ
Ð½ÑĸÐº Ð°Ð¼
ĸà¸ ¹à¸ģ
æĢ ģ
Ġz w
ĠCh at
ĠáĥĴ áĥĺáĥĿ
¶à¸ ĩà¸
Ð°Ð½ Ñģ
Ð°ÑĨ Ðµ
Ġv Ã¤h
à°ķ à±Ģà°¯
ŀà¸Ļà¸±à¸Ļà¸ ļà¸Ńà¸¥
pa Ã±a
ka tu
Õ« Öģ
ÉĻs ini
à¤ª à¤°
ĠãĢ İ
äºº æ°Ĺ
Ġdo po
Ġà¤ķà¤¾à¤Ĥà¤Ĺ à¥įà¤°à¥ĩà¤¸
Ġà¦ľà¦¾à¦¤ à§Ģà§Ł
à¤¾à¤µ à¤¾
ĠÑħ Ð¾ÑĢÐ¸
à¤°à¥įà¤ ķ
ĠÃ§ ok
à§įà¦¯à¦¾à¦¨ à§įà¦¡
ierb inte
Ġb Ã½
Ð»Ð°Ð½ Ð¸ÑĪ
ĠÑĥÐ¼ ÑĥÐ¼
Ġkap cso
ĠP r
Ġv Ã«r
Ġâķ ķ
dh i
an Äĥ
ĠÐ³ Ð¾Ð²Ð¾ÑĢ
à®¿à®¨à¯įà®¤ à¯ģ
Ġen cont
ĠPo d
Ġë° ĺ
Ġ) {
Ġàªħ àªĤàª¤
Ġw orden
pp u
ãĥ¼ãĤ «
h á»įlu
Î» Î¿ÏħÏĤ
éļ Ľ
Ġ ÏİÏģÎ±
ĠT ri
A F
pa má»į
×ĳ ×Ļ×Ŀ
ÑģÐº Ð¸ÑĤÐµ
Ġipin nu
ĠÙĤ Ø§ÙĦ
Ġal tri
Ġmo i
Ġsi mp
Ġat ten
ĠÐ²Ð° ÑĪ
ĠE N
Å¡ as
ĠI wá»įn
ĠD Ã¶vlÉĻt
Ġq iy
Ġna le
±áĢ ĳáĢ¬áĢĦáĢ¹áĢ
á»ĵ ng
àµĨà´¨àµįà´¨ àµģ
ĠáĥĽ áĥ¬
Ġ à¸£à¸²à¸Ħà¸²
à°¾à°¸ à±į
å½ ¢
Ġst ar
ĠØ¬ ÛĮ
à®Ļà¯įà®ķà®³ à¯ģà®ķà¯įà®ķà¯ģ
à´¿à´ķàµįà´ķ àµģà´ķ
ħ áĢ¯
áĢ±áĢĺ áĢ¬
áĢ¬áĢ¸áĢħ áĢ¯
ĠÎķ Îļ
ĠÃ Ģ
Ġà´ī à´±
Ð³ ÐĤ
Î¶ Î±
à°¤ à±įà°µ
ĠáĥĽáĥĺ áĥĺáĥ¦
P P
Ġå Ń
ĠÃ© l
ĠÎµÎ¾ Î±
Ġà´ļàµĨà´¯àµįà´¤ àµģ
po lo
ĠÐ°Ð´ Ð±Ñĭ
áĥĿáĥª áĥĺ
àªķ àª¾
ĠÎł ÎŃ
Ġà°ª à±įà°²
Ð°Ð¹ ÑĪ
Ġà¸Ħ à¸²à¸ªà¸´à¹Ĥà¸Ļ
æ¸¸æĪı å¹³åı°
ĠØ§ÙĦØ£ Ø³
Ġm undo
Ġáĥ¡ áĥĲáĥľ
«à¸ ķà¸
Ġvi Ãªn
ĠÐ¼ Ð°ÑĤÑįÑĢÑĭÑı
íĥ ľ
à°¿à°Ĺ à°¿
¢ à¸´à¸ĩà¸
u jÃº
Ġsh i
ĠiÅŁ ti
àª¤ à«įàªµ
Ġà¤ķà¥Į à¤¨
ĠÐ± ÑĢ
it ti
m Ä±z
èĩª æĭį
Ġfo tos
Ġà¤ķ à¤²
Ð´Ð¸ Ò³
Ġè ¶
ĠiespÄĵ ja
à§ĩà¦ ·à§įà¦Ł
Ð¸Ð» ÑģÑı
ĠMo limo
ĠÑĥ Ð»Ð°ÑĢÐ½Ð¸Ð½Ð³
ĠÑģ Ð°Ò³
Ġen e
ÃŃt Åĳ
ĠRom Ã¢n
ĠÑıÑħ ÑĪÐ¸
d Äĥ
Ġle t
ĠM Ã«
ĠÙĤ Ø¨ÙĦ
Ġmis mo
Ġà®®à®ķà¯įà®ķ à®³à¯į
tas un
Ġta mb
Ġg egen
ĠàªŃ àª°
em e
ĠktÃ³ ra
ĠÃ ±
ĠÎ±Î³ Î±
Ġh is
ĠÎ±Ïģ ÎºÎµ
ÏĥÎºÎµ ÏĦÎ±Î¹
Ġ _
Ġy Ã¬
Ġal te
ĠÃ ļ
táº¹ táº¹
ëĭ ĺ
Ø§Ø¦ Ø±
o i
velo pp
ã ħ
ì ¼
Ð¾ ÑĨÑĸ
t ura
Ġita táº¹táº¹
Ġqa z
Ġbole h
Ð¾Ð² ÑĭÐµ
ĠáĢŀ áĢ¶
Ġch ez
Ġà´µàµĢ à´Łàµįà´Ł
áĥĲáĥķ áĥĹ
à¹Ģà¸£à¸µà¸ ¢à¸Ļ
Ġà°Ĺ à±Ĭ
à¤§ à¥įà¤¯à¥ĩ
Ġà¦® à§Ĥà¦²
ãĤ» ãĥĥãĥĪ
Ġj Å«
àµįà´ ¬
ĠáĢĢáĢºáĢ±áĢĶ áĢ¬áĢ¹áĢ
áĢĲáĢ¬ áĢĢáĢŃáĢ¯
áĢĲáĢ¬ áĢķáĢ«
ĠÎ» Î¿Î¹
Ġà®µ à®¾à®¯
Ġà´µà´¿à´ ®
Ñĭ ÑĨÑĮ
ĠÎ¸ÎŃ Î¼Î±
Ġà°Ń à°¾à°Ĺ
áĥĶáĥľ áĥĵ
å°± æĺ¯
Ġå İ
Ġ( );
ĠÏħ ÏĢÎ¿ÏħÏģÎ³
à´¸àµįà´±àµįà´± àµį
Ġba la
ĠÑģÑĤ Ð²Ð°ÑĢ
Ġáĥĺáĥ§ áĥĿáĥ¡
Ġàª¯ à«ĭàªľ
Î¹ÎºÎ¿Ïį ÏĤ
à°¸à±įà°Ł à±į
Ð³Ñĵ Ñĺ
ŀà¸ ·à¹īà¸Ļà¸
éĽĨåĽ¢ å®ĺç½ĳ
em ber
iá»ĥ u
áĥĿáĥķ áĥĲáĥľáĥĺ
à¹ĥà¸«à¸į à¹Ī
ÐµÐ½ ÑĤÑĭ
Ð°ÑĪ ÑįÐ½
Ġsp Ã©
ĠØ¨ Ø²
à¹Ģà¸Ĥ à¹īà¸²
Ġmun ka
Ġà°Ĩ à°«
Ġh iss
dur as
Ġà¤¸ à¥ģà¤¨
ub lica
ĠàªķàªĤàª ª
Ġin iz
à¤ª à¤¾
c al
éĿĴ èįī
ÐºÐ¾ÑĢ Ð»Ð¸Ðº
ä¸Ģ çº§
ĠÐ½Ðµ ÑģÐº
åı ¤
Ġsvo je
ĠT s
ĠÐºÐ°ÑĤ ÑĤÐ°
ĠÐ» Ð¾Ð¹
Ġm osa
Ġjel en
Ñı Ð²Ð°
ĠÐ±ÐµÑĢ Ð¸ÑĪ
à¯Ĥ à®°à¯į
he ng
Ø±ÛĮ Ø¨
Ġ×¨ ×Ĳ
ÙĤ Ø·
ê ´ĳ
Ġci u
ãģ§ ãģĹãĤĩãģĨ
ti mit
àª¾àª¤ àª¾
Ġte h
Ġà¦¸à¦Ń à¦¾à¦ª
Ġn da
Ġf y
à¦¸ à¦¹
ĠÎ²Î±Î¸ Î¼Î¿
ÏĦÎ® Î¸Î·ÎºÎµ
ĠÏĢÏģÎ¿ÏĥÏīÏĢ Î¹ÎºÏĮ
Ġib ara
ĠUn d
Ġà§¨à§¦à§§à§ ¯
Ġav wanre
u g
on ych
Ġtrava il
à®¾à®µ à®¿à®©à¯į
ÑĶ Ð½
Ġa lors
Ġv ezet
ĠÐ¿ÑĢÐ¾Ð´ ÑĥÐº
Ġp áº¹
ĠD et
Ð¾Ð» ÐºÑĥ
Ð°Ð»ÑĮ Ð½ÑĭÑħ
áĢŃáĢ¯ áĢĢáĢ¹
Ñī Ð¾ÑĤÐ¾
Ġà´ Ļàµįà´Ļ
ĠáĥĲáĥ ¤
à¹Ģà¸£à¸ ·à¹Īà¸Ńà¸ĩà¸
à°ķ à±įà°°à°®
æĿ ĥ
Ġà¦ĵ à§Ł
f fi
ì¦ Ī
à´Ł à´¨
Ġáģ Ī
áģ¾áĢĢ áĢĬáĢ¹áĢ·
áĢ®áĢ¸áĢ Ľ
ĠÎķ Î¹
ĠÐ¦ Ðµ
Ġà´ªà´°à´¿à´ ¶
ĠÐĲ Ñģ
ĠÎĶ Îµ
×ŀ× ©
áĥķáĥĶáĥļ áĥĺ
Ġéĩį åºĨæĹ¶æĹ¶å½©
à© ĭ
àªļ à«įàªĽ
ĠÎ»Î¿ Î³
à´¤ à´¾à´£àµį
v Äĵr
ĠÐ·Ð½Ð°Ñħ Ð¾Ð´Ð·
ĠáĥŀáĥłáĥĿ áĥĶáĥ¥áĥ¢
Ġdi gÉĻr
ĠÎºÎ± ÏĦÎ·Î³Î¿
àª¨à«įàª ¨
ĠÐĽ ÑĥÐº
Ġà¸ Ķ
ç ¬
Ġà°¸ à°Ń
ÙĪ Ø©
Ġáĥĺáĥ¡ áĥĶ
Ľà¸¥ à¸µà¹Īà¸
ÑĥÐ½ Ðº
ĠÐ³Ð°Ð» Ð¾Ñŀ
Ġv Ã¡r
ĠÙĪ Ø¬Ûģ
ģà¸ ¤à¸
Ġpre z
t Ä±r
Ġny t
b ier
Ġà¤īà¤¤ à¥įà¤ª
Ġà°ļà±Ĥà° ª
ĠDe utsch
mis e
Ġà¤ªà¥Ĥ à¤°à¥įà¤µ
ãģĿ ãģ®
Ġà¤¤ à¥Ī
ĠÑĦÑĥÒĽ Ð°ÑĢ
Ġà¤² à¤¿à¤ĸ
ĠÐ¿ Ð¾Ð»ÑĮÐ·
à®¨à¯įà®¤ à®¿à®°
Ġhy vÃ¤
ÑĬÐ» Ð¶
ĠÐ¼ Ð°Ð±
ĠÒĽÐ¸Ð» Ð¸Ð½Ð³Ð°Ð½
Ġquel ques
Ġc áº¥p
ng er
ĠÐĿ Ð°Ð²
Ġàªªàª¹ à«ĩàª²
si mo
Ġta m
Ø¬ Ø©
Ã©s ek
ĠScar pe
Ġlavo ro
Ġx xx
si Ã³n
Ġz er
Ġba ngwe
Ġà¦¸ à¦¾à¦¹
Ġy io
ĠÎľ ÏĢÎ¿
Ġà¦¹ à§ĭà¦¸
Ïĥ ÏĮ
no d
ĠÎº ÏģÎ¬
ĠT ur
Ġà®ªà¯Ĩ à®°à®¿à®¯
à¦¿à¦ ·à§įà¦Ł
el á»įpá»į
à°¾à°° à°£
íĹ ĺ
Ġto ho
Å¡ we
an eng
n jÃ«
Ġar ticle
ĠÐ¾Ð± Ñī
Ġá¹£e to
le tso
æĦŁ ãģĺ
ĠÐ² Ð°Ð¼
áĢĻáĢ¾ áĢĲáĢº
Ġv ya
à´ª à´°
áĥ¢ áĥĺ
Ġà¸Ķà¸ ¹à¸
d el
à¨ ¤
à¦ ¯à§ĭà¦Ĺ
cia le
sz Äħ
Ġà´µà´¿à´ ·
±áĢ Ļ
ĠáĢŀ áĢ¼áĢ¬áĢ¸áĢ
áĢĶáĢ¹áĢĢ áĢ¯
ÏĢÎ¿Î¯ Î·
ĠØ³ ÙĦ
Ġà´ī à´¯
ĠÑģÐ» ÑĥÐ¶
ĠÎĺÎµ ÏĥÏĥÎ±
Ġre p
ĠáĥĴ áĥĲáĥĴ
åĮ Ĺ
Ĉ Ĉ
Ġàªªà«įàª° à«ĩàª®
ĠÎł Î¬
à´ļàµįà´ļ àµģ
Ġca p
ĠÐ¿ÐµÑĢ Ð°Ðº
Ġáĥł áĥĿáĥĵáĥĶáĥ¡
Ø± Ø§Ø¯
Ïĩ Î¿ÏĤ
Ġàªķà«ĭàª ĩ
ĠÐľ Ñĸ
«à¸¡à¸ Ķ
æĸ ½
t ka
à¯ģà®ķ à®³à¯Ī
áĥĶáĥĵ áĥĺ
ļà¸ ¸à¸
ÐµÐ½ Ð½ÑĭÐ¹
ĠÐ³ Ð°Ð·
Ġk le
Ġav is
Ġà¸ªà¸ Ķ
Ġju ga
ĠÙħ Øµ
ĠÕ į
Ġlu gar
éŁ ³
iyy ÉĻ
ĠÐ±Ð¸Ð´ Ðµ
Ġp lo
Ġà¤ľà¥Ī à¤¸à¥ĩ
Ġvo ir
Ġà¤¦à¥ĭ à¤¨à¥ĭà¤Ĥ
ĠÐĳ Ð°
à¥ĭ à¤¡à¤¼
×Ļ ×ķ×Ł
ĠÐŀ Ð´
Ã¼ ksÃ©g
uy á»ĩn
Ñħ ÑĪ
ĠÐ¶ Ð°Ð²Ð¾Ð±
dar b
ĠÑģ ÑĢÐµ
Ġc ro
Ð¾Ð»Ð¾Ð³ Ð¸Ñı
Ġàªħàª¨ à«įàª¯
Ġpro do
Ġave a
Ġv jet
ë² Ħ
li o
Ġdal l
Ġv ed
ent lich
Ġko lej
pa la
Ġà¦ª à¦¦
Ġche at
dy dd
à§ĩà¦¶ à¦¨
ÏĦÎ¹ÎºÏĮ ÏĦÎ·ÏĦÎ±
ĠÎ¼Î± ÎºÏģÎ¹
ĠÎ² Î»ÎŃ
Ġá¹£áº¹ da
ä» Ĭ
ĠØª Øª
s iláº¹
Ġi hr
å· Ŀ
ĠL ie
ĠT sa
Ġmo lao
Ġd Ã¶v
ĠàªĹ àª¾àª®
ri que
dara ya
k wa
ĠÙĦÙĪÚ¯ ÙĪÚº
à®¿à®ķ à®´
áĢ³ áĢķáĢ¹
Ġci la
Ġà´ªàµįà´°à´¤ àµįà´¯
ĠáĥĲáĥłáĥ¡ áĥĶáĥĳ
à¸µà¸¢ à¸Ļ
Ġà°µ à°¦à±įà°¦
Ġåħ ¶
ĠÑĨ ÐµÐ½ÑĤ
Ġé ģ
as tÄĥ
àµĨà´¨àµįà´¨ à´¾à´£àµį
áĢŀ áĢĻ
áĢ¥áĢ¹áĢ ¸
áĢ°áĢ¸áĢ ľ
Î¸ ÎµÎ¹
ĠP Äĵ
à´¨àµįà´ ¯
Ð°Ð¼Ð¿ Ð°Ð²Ð°ÑĨÑĮ
ĠÎ± Î»Î»Î±
ĠK h
ĠáĥĽ áĥ£áĥ¨
åı ²
è´ Ń
Ġàªµàª¿àª¶ à«įàªµ
ĠÎŃ Î³
Ġà´ħà´¨ àµģà´
Ġ×ľ ×ª
Ñĥ Ð³
áĥ¯ áĥĲáĥ®
g ÅĤ
Î¿ Î´Î¿
tt ura
ĠÐ¿ÐµÑĢ Ð°Ð¼
¨à¸ ±à¸
çĶ ±
lÄ± ÅŁ
ĠÚ¯ Ø²Ø§Ø±
ĠáĥłáĥĿáĥĽáĥļáĥĶáĥĳ áĥĺáĥª
Ġ à¹ĥà¸«à¹ī
Ġv Ã¡lasz
Ġâķ ĸ
nge bo
Ġs Ãµ
ľ à¸´à¸
Ġfa ut
ê »
Ġnie k
Ġà°ķ à°³
ä¸į åį¡
al mente
Ġwa ar
à¦® à¦¨à§įà¦¤à§įà¦°à§Ģ
éŁ ©
k em
Ġà¤ Ĭ
ĠÐľ Ð¸ÑĢ
à¶ ¯
ai le
Ġd itÃ«
Ġà¦ĸ à§ģà¦¬
à±ĭ à°®
ĠÐºÑŀ Ð·
ĠÐ± ÑĥÐ·
l in
Ġtamb Ã©
Ġàª¤à«ĩàª® àª¨à«ĩ
ĠÐĲ Ð³Ð°ÑĢ
Ã¡l t
ouv elle
Ø¦ Ø©
ìł Ģ
Ġest Ã¡n
ÙĩØ± Ø§ÙĨ
ĠØ§Ø· ÙĦØ§
Ġatun ci
p ro
ÑĸÐ¹ Ñģ
Å¯ m
Ġpos s
Ġy en
Ġg wa
Ġma dh
ÏģÎµ Ïį
ĠÏĩ Î¬
Î³ÏģÎ±ÏĨ Î®
ĠP lus
Ġl Ã½
×Ĺ ×ª
Ġod un
ĠÐļ Ð¾Ð½
en Ã½
Ġse lemo
Ġata u
Ġmin d
Ġàª¹ àªľ
Ð² ÐµÐ´
ì¢ ħ
Ġiba mu
Ġpu tea
h nen
ĠÐ¿Ð¾Ð² ÑĸÐ´Ð¾Ð¼
áģ ¶
Ġpre m
Ġà´µàµĨ à´³àµįà´³
áĥĶáĥĹ áĥ¨áĥĺ
à¸Ļà¸ ³à¸
Ġà°¨à°¿à°°à±įà°µ à°¹
ç İ¯
ÉĻ v
à¦ Ĩ
ar on
àµĪ à´¨
ĠáĢĽ áĢ¬
áĢĻ áĢŃáĢ¯
áĢĿ áĢ«
ĠÎ± Î¯
ĠÙģØ±ÙĪ Ø´
Ġà´¬ àµįà´°
ĠÐĽ Ñİ
ĠÏĥÎ· Î¼Î±
ĠÚ© ÙħÛĮ
ĠáĥłáĥĿáĥĵáĥĶáĥ¡ áĥĲáĥª
è§Ħ å¾ĭ
åĪĨ pk10
Ġs el
Î» Î±Î½
Ġà´Ĩ à´¦àµįà´¯
Ġk re
ĠÐ¿ Ñĸ
Ġáĥ¡áĥĲáĥ ŀ
ĠØ¨ ÙĪ
ĠÎĵ Îµ
re ng
Ð¿ Ð°ÑĢ
à¹īà¸ ĩà¸
Ġé Ļ
Ġà°ªà±įà°° à°¶
ĠÐ¾ ÑīÐµ
Ġáĥ¢ áĥĶáĥ¥
ŀà¸ ±à¸ģ
Ñĺ Ðµ
Ðµ Ð´Ð°
Ġà®µ à®¿à®ļ
Ġà¦¬à¦¿à¦¶ à§ĩà¦·
Ġà¸Ľ à¸µ
Ġàª¸ à«įàªķ
ci u
Ġb ek
Ġà°¤à±Ĩà°² à°¿à°ª
Ġà¤īà¤¨ à¤ķà¥Ģ
Ġh al
Ġ×Ļ ×ķ×ª×¨
tÄģ js
Ġà¤ĩà¤¸ à¥ĩ
ĠÐ· ÐµÐ¼
è Ĺ
Ð»Ð¸ Ñģ
ä¼ ¦
be c
ĠS er
t ur
à±ĩ à°Ĥà°¦à±ģà°ķà±ģ
ĠÐ¼ Ð¸Ð½Ð³
ĠÐ¾ ÒĽ
Ġn ya
Ġãĥĸ ãĥ©
Ġíķ Ħ
ÑĦ ÑĤ
Ġkh Ã¡ch
ĠØ§ÙĦØ§ Ø³Øª
us o
Ġà®ªà®ķ à¯ģà®¤
Ġce la
ĠÙħ ÙĦØ§
Ġla n
ĠEl s
Ãº j
q et
Ġà¦ª à¦¾à¦¶
è³ ª
à ³
ĠÎ¼ÏĢÎ¿ÏģÎµÎ¯ ÏĦÎµ
k Ã½ch
33 N
5 8
ÏĨ ÏģÎ¬
ng ba
Ġàªª àªĹ
ĠØ¢ Ø¦ÛĮ
Ġi P
ta ti
ea zÄĥ
ĠØªÙĪÙĦ ÛĮØ¯
ÑĸÐ»ÑĮ ÑĪÐµ
Ġel Ã¤
Ġfig ure
Ġàª¸ à«įàª¤
ĠÐ¾ÑĤ Ð´
ĠO lo
Ø¶ ÙĪØ¹
Ġtak Ã©
ĠÃŃ r
ĠáĢ §
ĠÙĦ ÛĴ
àµģà´ķàµĬ à´£àµįà´Ł
Ġáĥŀáĥł áĥĶáĥĸ
Ħà¸§à¸²à¸¡à¸ ªà¸
Ġag o
æĬĢ æľ¯
ĠÙĦÙĦ Ùħ
im et
Ġà¦ħ à¦¤
àµĩ à´ķàµįà´ķ
±áĢķ áģļ
ĠáĢĢáĢ» áĢ½áĢĶáĢº
»áĢķ áĢĬáĢ¹áĢ
ÎŃ Î²
Ġm iÄĻ
Ġà´¶àµįà´° à´®
ĠÑįÐº ÑģÐ¿
ĠÎµÏģÎ³ Î±
Ġra yon
áĥ£áĥłáĥľ áĥĲáĥļ
ãĢ Ĭ
Ġæ µ
a h
ĠÎ¬ÏģÎ¸ ÏģÎ¿
à´ªàµįà´ª àµį
ur Ã³
Ð² ÑıÑĢ
áĥĶáĥľ áĥĺáĥ¡
ang o
ÏĦÎ¯ Î¿Ïħ
R E
ĠÐ¿ÑĢÐ°Ð¿ Ð°Ð½
à¹Ĥà¸ Ľà¸£
à¥įà¤¯ à¤¾à¤¸
à°ª à°Ĥà°ļ
Ġmo is
ĠáĥĿ áĥłáĥĺ
à¸£à¸µ à¹Ģà¸
cie Å¡a
ĠÑĨ ÑĸÐº
Ġm Äĥ
ĠÚ¯ Ø°
à¸²à¸ ¡à¸
Ġprzy pad
Ġàª¦ àª¿àª²
åķĨ åĵģ
à±Ĩ à°¡à±įà°¡à°¿
à¤°à¥įà¤ Ĺ
ìķ ĺ
ong o
ĠÙĪØ§ÙĦ ÛĮ
à¤¿à¤¯ à¤®
æ ¤
à¤¶ à¥įà¤¯
ĠÐ¼Ðµ Ð±Ð¾ÑĪ
Ġà¤īà¤ª à¤¯à¥ĭà¤Ĺ
ei ÃŁ
Ġndi h
isa ng
à°°à±įà° Ń
ĠÐ¸ÑģÑĤ Ð¸ÑĦ
Ð°Ð» Ó£
ĠÐ¾ÑĤ ÐºÑĢÑĭ
Ð¾Ð³ Ð°ÑĤÐ¾
Ġnel l
ĠÐ½ Ð¾Ò³
ĠS Äĥ
Ø§ Ø§
Ø« ÙĬØ±
Ġprof ession
cou p
Ġegy ik
Ġimp ort
j on
Ġqu a
Ġà®®à®ķà¯įà®ķ à®³
à§įà¦¤ à¦¾à¦°
fa hr
ĠI da
Ġ4 3
ĠÐ¼Ð½ Ð¾Ð³Ñĥ
et hau
Ġga el
ÏĢÏĮ Î½
ĠE mi
Ġ/ /
w ay
Ġpaapa a
Ð°ÑĨÑĸ Ñİ
Ð°Ð¹ ÑĤÐµ
Ġà¦® à¦¾à¦®à¦²
à®¾à®µ à®¿à®²à¯į
Ġh on
Ġàª¥ àª¶à«ĩ
Ġàª¬à«ĩàª ł
ĠÐ¸Ð½ÑĤÐµÑĢ ÐµÑģ
Ġidan iloju
ende le
Ġma emo
ä¼ļ ç¤¾
áĢģáĢº áĢĦáĢ¹áĢ¸
Ġprz ek
laya lam
áĥĿáĥ ļáĥĺ
Ħà¹Īà¸ °
Ġà°ĩ à°¦
à¤¾à¤ļ à¥įà¤¯à¤¾
à§įà¦Ł à¦¾à¦°
ĠÚ©ÙĨ ÙĨØ¯
Ð½ ÑĥÑĤ
à´¿à´ķà´³ àµģà´ŁàµĨ
áĢĨ áĢ¯áĢ¶
áĢĲáĢŃ áĢļ
ĠáĢ±áĢĴ áģļ
ÏĦÎ® ÏģÎ¹Î¿
t ie
à´°àµįâĢį à´¨àµįà´¨
ĠÐ¿Ð°Ð² ÐµÐ´
ÏĦÎŃ ÏģÎ±
Ã¤l lÃ¤
áĥ¡ áĥĺ
à© ±
Ġé Ĥ
ĠA i
ÏĦ ÏīÏĤ
à´¾à´µ àµį
Ġs ÉĻb
ĠÑģ ÑĸÑģÑĤ
Ġáĥĵ áĥĲáĥ®
em ein
ĠÎ»ÏĮ Î³Ïī
ĠØ£ Ø¨
Ñĸ Ð½Ðµ
à¹Ħà¸ Łà¸
Ġ 88
à°¾à°¨ à°¿à°ķ
ĠEs te
áĥĲáĥł áĥĶáĥĳáĥĲ
à¹Ĥ à¸Ńà¸
ĠÙħ Ø¬Ú¾
Ð°Ð² ÑĭÑı
w is
Ġb ul
à¹Ģà¸ Ĺà¸µà¹Īà¸
ĠØ¬ Ø§Ø±ÛĮ
Ġàª¥àª¯ à«ĭ
Ġa ng
Ġà°İ à°²à°¾
Ġà¶ ļ
ì ¤Ģ
ç¢ º
ĠØ§ÙĦÙħ Ø¹
Ġà¤ı à¤¸
Ġc and
Ġà¤² à¥ĭà¤ķ
ĠÐ¿ ÑĥÐ»
à¤§ à¤¾à¤¨
Ġdal Å¡ÃŃ
il u
×¢ ×ķ×ª
Ġà°µ à°¾à°¡
ÐµÐ½ Ð³Ð°
ĠÐ¼ÑĥÐ² Ð¾ÑĦÐ¸ÒĽ
Ñı Ñī
ra da
en Ã¡
Ð´ Ð¸Ð»Ð°ÑĢ
Ġfi ind
ĠW ie
Ġj ou
ĠØ² ÙĨØ¯
m bo
à¯ģà®£ à¯įà®Ł
à§ĭ à¦¹
Ġìļ Ķ
pÄĵ c
Ð°Ð» Ð½Ð¸
ĠÐº ÑĢÐ°ÑĹ
u k
Ġat áº¹
Ġ4 2
Ġme tso
Ġgy n
ĠÏħ ÏĪÎ·
f od
ĠG reen
à«ģàª ¬
ĠØ§ÙĦÙħ Øµ
ĠGoo gle
in ter
ĠÐ¼Ð¾Ð³ ÑĥÑĤ
çĦ¡ ãģĹ
Ġãģ ©
Ġen cu
Ġàªľ àªĹ
ĠàªĨ àª¶
Ġà®µ à®¯
ei ght
Ġà§§à§ ¯à§
Ġn x
re j
ĠáĢĻáĢŃ áĢĻáĢŃ
ÚĨ ÛĮ
àµĢ à´¨
áĥ¡áĥĲáĥ® áĥ£áĥł
Ĺà¸ Ħ
Ġà°®à°¾à°° à±įà°ļ
å® Ŀ
tif s
ĠÐĳÑĬÐ»Ð³Ð°ÑĢ Ð¸Ñı
ÑĬ Ð²
Ġà´¨àµįà´ ¯
ĠáĢĽ áĢ²
áĢ¡ áĢĶ
áĢĽ áĢĦáĢ¹áĢ
ĠÎľ Î¬
ĠSex uale
àµĩ à´¯àµģà´Ĥ
Ð Ń
ĠÎº ÏģÎ¯
Ġpers ona
Ġáĥ¥áĥĲáĥļ áĥĲáĥ¥
çĶµ åŃĲ
æľī éĻĲ
åıĸ ãĤĬ
ĠÎºÎ¿ Î¹
à´ķàµįà´ķ à´Ĥ
ĠØ¨ Ø´
ĠÐ¼ Ð½Ðµ
Ġáĥ¬ áĥĶáĥķ
ĠK inder
á½ Ĳ
Ġà¦¬ à¦¿à¦¨
Ġ Ð°Ð»ÑĮ
à¸Ļ à¸²
Ġå½©ç¥ŀ äºīéľ¸
Ġà°Ĩ à°¦
a pe
ĠáĥĲáĥ¦ áĥľáĥĺáĥ¨áĥľ
à¹īà¸Ńà¸ ¢à¸
Ġcs al
Ð½ ÐµÐ½
li v
Ġh esab
· à¸
à¯įà®ª à¯ģ
à«ģàª ĵ
ĠÙħ Ø°
Ġà°¤à±Ĩà°² à±ģà°¸
Ġà¤ªà¥įà¤° à¤¶
ĠJeho va
Ġjwa lo
à¦¨ à§Ģ
Ġà¤Ĳ à¤¸à¤¾
li tate
Ġà¤®à¥ģà¤Ŀ à¥ĩ
ĠÑĪÑĥÐ´Ð° Ð°ÑģÑĤ
Ġà¤¯ à¥ģ
Ġ×ŀ× ŀ×
Ġs ys
ck e
Ġà°¨ à±ģ
ĠÐ¼Ð°Ñģ Ð°Ð»
ÑĢ Ð¸Ð±
ou pe
Ġãĥ Ń
Ã į
ÑĪ Ð°
Ġvá» ¥
Ġo c
ĠH el
Ġti es
Ġto im
Ã¡s i
Ġka Å¾d
Ð°Ð´ Ðµ
ĠØº ÛĮØ±
s I
owa ÅĤ
Ã¢ ni
ÃŃt á»įn
Ġ4 9
b s
ĠÎµÏĢ ÎµÎ¹
ĠÏĢ Î®
ĠÎŃ Î¾
Ġbo ya
ë¶ ģ
Ġàª¬ àªĤàª§
Ġil á»į
Ġ":"" ,"
Y n
ìĺ Ģ
Ġna pr
Ġà®ķà¯ģà®´ à®¨à¯įà®¤
ĠdÉĻy iÅŁ
to ja
àªĤàª ľ
á¹£ Ã¹
Ġt Ãµ
ny v
us am
áĢĻáĢº áĢ¸áĢ
ĠÑĤÐ°Ðº Ð°
à´¤ àµģ
áĥĶáĥĳáĥĶáĥļ áĥĺáĥĲ
ªà¸£ à¹īà¸²à¸ĩà¸
Ġi ra
åİ ĭ
ï½ Ĺ
Ġæ ĻĤ
à§ĭ à¦ľà¦¨
à´¾à´ ªàµįà´ª
áģ Ĭ
Ġáģ İ
áĢļ áĢ·áĢº
ÏĩÎµ Î¹Î±
az Äĥ
à´ķ à´¾à´¶
ĠÐ±ÑĥÐ´ ÑĥÑĨÑĮ
ÏĢ ÏģÎ¿
dÄģ vÄģ
áĥĲáĥ¡ áĥ¢
Ġæ ±
à¤¾à¤Ĥà¤ļ à¥įà¤¯à¤¾
Ġo tros
Î¼Î¿Ïį ÏĤ
àµĥ à´·
Ġo tt
ÑĨ ÐºÑĸ
áĥĺáĥ ©
I A
Î¹Ïĥ Î¼ÏĮ
O L
ĠÐ¿ÑĢÑĭ Ð³
ļà¸£à¸´à¸ ģà¸²à¸£à¸
Ġå¹ ¶
ĠD onna
ĠW A
Ġáĥł áĥĿáĥªáĥĲ
ªà¸ ¡
Ġs ana
Ð²ÐµÑĢ Ñģ
Ġba s
Ġs ve
«à¸¡à¸²à¸ ¢
ĠØ ¸
Ġàªµ àª¿àªµ
Ġà®ļà¯Ĩ à®²
ĠL and
Ġà¤ħà¤ª à¤¨à¤¾
à±Ĩ à°Ĥà°¬
ĠØ§ÙĨØ¬ Ø§Ùħ
Ġd ni
Ġà¤¸ à¥ģà¤°
si Ã³
Ġà¤¤ à¥Ģà¤¨
ĠÑĢ Ð°Ð²
Ġà¤¨à¤¿ à¤°à¥įà¤®
Ġke h
×ĳ ×Ļ
oun d
Ġshka k
ĠÒ² Ð°Ð¼
ĠÒ³Ð¾Ðº Ð¸Ð¼
Ġà°µà°¿à°· à°¯
Ġãģ¾ ãģŁ
Ġrend el
Ó¯ Ò³
Ġsi ng
Ġinc ont
dz Äħ
ĠÐ½ Ð¸Ðº
ĠNaz ir
vÄĽ t
Ġàªľàªµ àª¾àª¬
Ùĥ Ø³
Ġyax ÅŁÄ±
à±Ī à°²
Ġc Ã¹ng
ĠØ¯ Ú¾
Ġ??? ??
ĠÏĢÎµ Ïģ
b al
ĠÎ¾ÎµÎ½Î¿Î´Î¿ ÏĩÎµÎ¯Î±
ĠÎ»Î¯ Î³Î¿
ĠÎĻ Î¿ÏħÎ½
Ġo o
ë£ ¨
àª°à«įàª ¤
Ġba ba
v Ã¤Ã¤
ĠÐłÑķ Ðł
ĠÐ½ÐµÐ¾Ð± ÑħÑĸÐ´
ie urs
ĠÑĥÑģÐ» Ð¾Ð²
à®¿à® Ļ
Ġà°ķ à°®
ĠØŃ ÙĬØ«
á»į run
ĠtÃ¶ r
Ġca d
ĠÑĢ Ð¾Ð´
ĠáĢĻ áĢ½áĢ¬
Ġà¦¸ à§įà¦ķ
Ġà´ľ à´¿à´²àµįà´²
Ġáĥ¤ áĥĶáĥ®
à¹ģà¸ ģà¸£à¸
ĠØŃ Ø§ØµÙĦ
Ġä¸ ī
å³ ¶
Ġàª®à«ģàªĸ à«įàª¯
Ġro kov
Ġà´ķàµįà´ ²
ĠáĢĢ áĢ¯áĢŃ
ĠáĢ±áĢ »áĢĻ
áĢĶáĢº áĢ¸áĢĻ
ÎĻÎ ¡
Ã¼ y
àµģà´ķà´³ àµģà´Ĥ
Ð½Ñĸ ÐºÑĥ
ÏĢÎ± Î¯
Ġt Ã©
Ġáĥĸ áĥĿáĥĴ
å¹ ²
Ġè ´
l Ä«
ÎµÏĢ Î¹Ïĥ
Ġà´ŀ à´¾àµ»
da w
ĠÐ²Ñĭ Ð³
áĥĲáĥļ áĥĵ
Ġita li
Î¶ ÏĮÎ¼Îµ
Ġan cora
ÑĥÑĩ Ð°Ñģ
Ī à¸´à¸
æ ĳ
Ġìł ģ
u den
ĠáĥĴáĥĺáĥĿ áĥłáĥĴ
à¹Ĥ à¸Ļà¸
ĠØ¨Ø§ Ø´
Ñĥ Ð´Ð·
L CJ
Ġc ur
à¹Ģà¸ §à¸
Ġh um
Ġph áº©m
Ġ×ķ ×Ľ
g ement
å© ·
Ġà°ħà°µ à°¸
ĠÐŁ Ð¾Ð»
Ġni Å¼
à¤¾à¤ĩ à¤²
ra re
à¤¾à¤ Ń
ĠÑģ Ð°ÒĽ
à ¶ľ
Ġàªľ àª¾àª¹
ĠNu k
Ġbei m
jum us
ĠÐºÐ¾ÑĢ ÑħÐ¾Ð½
ĠÒĽÐ¸Ð» Ð´Ð¸
Ġme dzi
Ð¸ÑĪ Ðµ
Ġtr Ã¬nh
____ ____
em Ã¡s
Ġà®µà¯Ĩà®³ à®¿à®¯
bil itÃ©
ĠÑģÐµ Ð±Ñı
Ġpjes Ã«
Ġkwa mba
Ġ ÅĻÃŃ
m bre
ĠÐ² ÑĬÑĢ
Ã¡c s
Ġhasz nÃ¡l
ãĤµ ãĤ¤ãĥĪ
Ġiyi pada
7 4
a la
ĠÎłÏģÎ¿ Ïĥ
ĠÏĥÏĦÎ¹Î³ Î¼Î®
ĠÏĨ ÏĮ
á»įn i
Ġà¦¬ à§Ī
ĠÙĩ ÙĨØ§
Ġw ith
àª¾àªĩ àª¨
Ġdu pa
×ľ ×ª
ĠPost Ã©
ko rzy
Ġl isebelisoa
o tho
be di
I K
Ġà®ħà®°à®ļ à¯ģ
cli puri
Ġq an
áĢ¯ áĢĲáĢ¹
ĠT ag
Ġà´ķ à´¿à´Łàµįà´Ł
Ġáĥ§ áĥĿáĥ¤
ŀ à¸´à¹Ģà¸¨à¸
à®¿à®© à®¾à®°à¯į
Ġà¤®à¥įà¤¹ à¤£
Å¾ o
Ġé «ĺ
Ð¼ ÐµÐ½ÑĤ
Ġà´µ à´°àµįâĢįà´·
ĠáĢ ¤
áĢ¡ áĢľ
áĢŀ áĢŃáĢ¯áĤĶ
ĠÎĶ ÎĹÎľ
Ð¸ÑĤ Ð¾ÑĢ
àµĤ à´²
ĠÑĸÐ½ÑĪ ÑĭÑħ
Î¬Î½ Î¹
k Ã½
ĠáĥĴáĥĲáĥľ áĥĲáĥªáĥ®áĥĲáĥĵ
Ć ą
çĻ ¾
ĠâĢĺ âĢĺ
ĠÏĨ Ïį
à´¾à´ Ļàµįà´Ļ
ĠÙ¾Ûģ ÙĨÚĨ
ĠÐ»ÑĸÑĤÐ°ÑĢ Ð°ÑĤÑĥÑĢ
áĥĶáĥłáĥ Ĵ
Ġan no
ÏĢÎ¿Ïħ Î»Î¿ÏĤ
Ð» ÑĥÑĩ
ÑĨ Ñį
à¹Ģà¸ģà¸ ¡à¸
Ġäºļæ¸¸ åĽ½éĻħ
ëł ¨
Ġf ak
Ġáĥ¨áĥĶáĥĽáĥĹáĥ®áĥķáĥĶáĥķ áĥĲáĥ¨áĥĺ
Ġà¸ «à¸£à¸·à¸Ńà¸
Ġac tu
ĠÐ£ Ð»Ð°Ð´Ð·
Ø§ ÙĬ
Ġf Äĥ
ĭà¸ ·à¹īà¸Ń
Ø§Ø±ÛĮ Ø®
ç ı¾
à¦ķà§įà¦· à§ĩ
ig n
Ġà¤¸à¤® à¤Ŀ
v ia
àª¾àª §
z Ã«
à¤ľ à¤¼
ĠÑĢÐ¾Ðº ÑĸÐ²
ä¸ī çº§
ĠÐłÐ¾ÑģÑģ Ð¸Ñı
äºĶ æľĪ
Ġwar to
ĠÑĤÐµÐ» ÐµÑĦ
lal koz
Ġà°¸à°Ĥà° ¸à±įà°¥
Ð°Ð½ Ð±Ðµ
ĠÐ²Ð¸Ð» Ð¾ÑıÑĤÐ¸
ĠtÃ¶ Ã¶
om men
iÄĻ ki
ĠÐ¼ÐµÐºÑĥÐ½ Ð°Ð´
Ġz iren
Ã¡b bi
ui te
Ð¸ ÑĨ
o het
×¤ ×ª
ĠnhÆ° ng
dui ts
t ÉĻb
Ġà¦ªà§įà¦°à¦¤ à¦¿à¦¬
ì£¼ ì¶ľìŀ¥
ĠíĻ Ķ
ĠYor uba
WW W
àª¿àª Ŀ
ĠÏĥ Î±
7 6
ĠÎ´ Ïİ
ek u
Äģ ka
Ġd ra
Ġso ftware
ĠÚ¯Ø²Ø§Ø± Ø´
Ġkul lan
ĠØ¹ Ø¨Ø¯
Ġea u
ÙĦÙĬ Ùħ
à®¿à®¯ à®¾
Ġc an
Ġsit ten
á¹£i pa
ĠMa drid
Ġtr av
Ġà°ª à°¾à°Ł
ĠáĢ¡áĢľ áĢ¯áĢķáĢ¹áĢ
Ġr Ã¡
Ġà´® à´¾à´±
ĠâĢľ ,
à¹Īà¸²à¸ §
w ier
Ġè µ
Ġà°¸ à±įà°ķ
Ø§Ø¯ ÙĬ
ct ul
à´¾à´ķàµįà´ķ à´¿à´¯
ľ áĢ¯áĢķáĢ¹áĢ
áĢ±áĢ¸áĢ Ĳ
ĠáĢĽ áĢ¾
ĠÎ´ Î¯
o f
Ġà´¨à´Ł à´¤àµįà´¤à´¿à´¯
Ð· Ñı
Î¬Î½ ÏĦÎ·ÏĥÎ·
ĠØ¯ÙĪ Ø³Ø±
áĥĲáĥ¡ áĥ¬
è ħ
æ¼ ı
ĠÑīÐ¾Ð´ Ð¾
ĠÎ§ ÏģÎ¹Ïĥ
Ġà´¸à´¹ à´¾à´¯
ÑģÑĤÑĢ Ð¾Ð¹
Ñı ÑĢÑįÐ´
áĥĺáĥ« áĥĶ
is in
ĠÂµ Îµ
ĠÙħ ÙĬ
ĠÐŁ Ð°Ð²
¶à¸ ģà¸
ç®¡ çĲĨ
Ġke d
Ġà¦ª à¦¾à¦²
áĥĶáĥķ áĥĲ
Ħ à¹Įà¸
Ġà®İ à®£à¯įà®£
ĠÐ´ Ð°Ð·
ÛĮØ¯ Ùĩ
tel len
à¹īà¸Ńà¸ ¡
h iso
Ġda x
Ġac es
c le
à¥ĩ à¤Ĺà¤¾
ĠÐ²ÑĭÑģ Ð¾Ðº
Ġàª¬àª¹ àª¾àª°
Ģ ìĿ´
Ġà¤¤ à¤¥à¤¾
Ġdre jt
Ġ à·Ģ
Ð¸Ð» Ð¸Ð±
çĶ ·
ĠMor ena
à¦¾à¦ĩ à¦Ł
Ã¡ll ÃŃtÃ¡s
Ġp Ã¤
ĠÑĦ Ð°ÑĬÐ¾Ð»
ĠÐ¾ Ð¸Ð´
ny mi
ĠÐ´ Ð¸ÑĤ
ĠÑıÐº ÑīÐ¾
Ñŀ Ð·
ÙĤ ÙĪÙĦ
om Ã¡ny
co lo
c m
é¨ ĵ
ja i
l oso
ĠF Ã¼r
ni co
Ġ×© ×ł
ĠÐ¿Ð¾Ðº Ð°Ð·
Ġà°ļà±ĩà° ¤
Ġd ona
ĠÎµÎ³ ÎºÎ±
ka li
ĠÏĥ ÎµÎ¹
ry d
ĠÏĦÎ· Î»Îµ
s á»įna
Ġà®ļà¯Ĭ à®©à¯įà®©
ch ar
ĠI la
Ġà®ķ à®¾à®Łà¯įà®Ł
ĠvÅ¡e ch
Ø§Ø¹ Ø©
Ã´ t
Ġein es
z ko
ÙĩâĢĮ ÙĩØ§ÛĮ
Ġbash kÃ«
êŀĮ a
Ġà°ħà°µ à°ķà°¾à°¶
ĠØ³ ÙĨ
g s
áĢĳ áĢĻ
Ġàªľà«ĭ àªµàª¾
Ġà´ħà´§ à´¿à´ķ
áĥ£áĥ ©
ģà¸ ¡
ÑĢ ÑĪ
Ġç º
Ð°Ð» ÑģÑı
ĠÑĸ ÑģÑĤ
éħ į
Ġà´ī à´³àµįà´³
áĢĸáĢ¼ áĢ²áĤĶ
áĢ° áĢ¸áĢ±áĢ
áĢģáĢº áĢĢáĢ¹áĢ
á¿Ĩ ÏĤ
Ġjoalo ka
Ġà´®àµģà´ ¨
Ðº Ð°Ðµ
ĠÏĢ Ïħ
ez pie
áĥĽ áĥĲáĥľ
è® ¤
æŀ Ħ
Ġbar ÉĻdÉĻ
ĠÎµÎ¾ Îµ
Ġà´ħà´Ł àµģà´¤àµįà´¤
Ġê ´ĳ
Ð°Ñŀ Ð»Ñı
áĥĲáĥłáĥļ áĥĲáĥĽáĥĶáĥľáĥ¢
Ġf Ã«mi
ĠÎ´Î¹ Îµ
áº¥ u
ĠÑĸÐ½ ÑĤÑįÑĢ
Ĭà¸ ±à¸
ä¹ ī
Ġpa ÃŃs
vo j
ĠáĥĴáĥĲáĥĵ áĥĲáĥ¬áĥ§áĥķ
à¹Ĥà¸£à¸ Ħà¸
ÉĻn d
ĠÐ¿Ð°Ð´ ÑĤÑĢÑĭÐ¼
Ġà®īà®° à¯ģà®µ
Ġà°Ĩ à°¡
¸à¸ ¡à¸
h are
Ġà¦¶ à¦¹
s to
ta ble
åľ¨çº¿ çİ©
Ġal c
Ġm no
àªĤàªĹà«įàª° à«ĩàª¸
Ġà¤ľà¥įà¤¯à¤¾à¤¦ à¤¾
ĠÐ·Ð°Ðº Ð°Ð·
Ġà¤¯à¤¹ à¤¾à¤Ĥ
Ð° Ð°ÑĤ
åĽ¾ çīĩ
Ġba se
Ġam bay
ĠÙħ Ø§Ø±
Ġàª¸àªĤàª ¸
ĠÐº ÐµÑĩ
ĠÐ·Ð°ÑĢ ÑĥÑĢ
Ġà°ª à°¿à°²à±įà°²
åĪ ¥
Ġì° ¸
Ð¹ Ñħ
Ġx Ã¼s
Ð¸ Ð¾Ð½
Ġko ko
Ġtov Ã¡bb
Ġpre t
ĠD ra
ĠJ oa
i c
ĠÐº Ð¾Ð»Ð¸
Ġì° ¨
i tion
Ġvend os
h á»į
ĠÏĥ Ïİ
Ġl isÃ¤
Î´Î® ÏĢÎ¿ÏĦÎµ
ĠÏĢÎµÏģÎ¹Î¿ ÏĩÎ®
ĠÏĩÏģÏĮ Î½Î¿
Ġi já»įba
Ġ uy
ä» ĭ
ĠA á¹£
ĠØ¨ ÙĨØ¯
ĠÃ¼ gy
ĠRomÃ¢n ia
Ġace asta
Ġà°ªà±įà°°à°¾à°° à°Ĥà°Ń
Ġv Ã¤l
Ġaur re
Ġãĥ Ģ
la ck
Ġà¦¸à¦¾à¦§ à¦¾à¦°à¦£
Ġ×Ķ ×Ļ×Ķ
ĠH and
ĠáĢĢ áĢ¬
à¯įà®µ à¯ģ
Ġà´¤à´¿à´° à´¿à´ļàµįà´ļ
áĥł áĥĶáĥ¡
ļà¸ Ĺà¸
f arÃ«
å®ī åįĵ
kov Ã¡
Ä º
ãĥ³ãĤ º
à´® àµĨ
áĢķ áĢ¯áĢ¶
áĢķáĢ¼ áĢ®áĢ¸áĢ
ĠáĢĲ áĢĢ
ĠÎķ ÏĢÎ¯
Å¡ oa
à´¿à´² àµĤà´ŁàµĨ
ĠÐ¿ Ð°Ð±
Ïħ Î¼
ĠÐ¿ÑĢ ÐµÐ´Ð¸
ĠáĥĽ áĥĺáĥľáĥĺáĥ¡áĥ¢
æ¯Ķ åĪĨ
ĠagåĽ½éĻħ åİħ
ĠØ£ Ø³
Ïģ Î¹ÎºÎ®
à´¿à´¯ à´¾à´¯
Ġpersonn es
ĠÐ±Ð° ÑĨÑĮ
Ġáĥ¡ áĥĺáĥ¡áĥ¢
p en
Î¶ Î¿ÏħÎ½
Ġàª¤à«įàª° àª£
Ġ" .
à¹Ģà¸¥ à¹Īà¸Ļ
Ġå¿ «
ĠÅĽ wia
kez Åĳ
ĠáĥĽáĥĲáĥ¨ áĥĺáĥľ
Ġ à¸Ļà¸µà¹ī
ĠÚ¯ Ú¾Ø±
ĠÐ½Ð° ÑģÑĤÑĥÐ¿
à«įàª¯ àª¾àª¨
Ġà®® à®¾à®µ
¡à¸µà¸ ¢
b iso
Ġl Ãªn
Ġà°µà°° à°ķà±ģ
ĠìĤ¬ ìļ©
Ġà¤ª à¥ĭ
ha us
Úĳ ÛĮ
Ġaj Ã¡n
à¤¿à¤¸ à¥įà¤Ł
ĠO b
à¤® à¤¤
ĠÑĪ Ð°Ð²
à¤Ĩ à¤Ī
Ġbo leng
à®µ à®¿à®²à¯į
Ġh Ä¾a
ĠàªĨàªµ à«įàª¯àª¾
ÐµÑĢ Ð¾
ĠÐ¾Ð» Ð³Ð°Ð½
×ŀ× ¦
ãģ¨æĢĿ ãģĦãģ¾ãģĻ
Õ¡Õ ·
ĠÑħ Ð°ÑĤ
q ti
ÐµÐ· Ð¸
à§ ª
Ã¼ tt
Ġw ord
Ġs pa
Ġsebel isoa
È ĺ
Ġl Ã¶y
Ġy Ä±l
ĠQ ara
Ġà¦¬à¦¿à¦ı à¦¨
Ġm ÃŃtá»įn
ĠÎļ Î¿Î½
Ġà¦ªà§įà¦°à¦¤ à¦¿à¦·à§įà¦ł
ĠIn tel
ÏİÎ½ ÏĦÎ±ÏĤ
Ġ4 1
Ġá»įmá»į de
Ã» t
éģ ķ
gb in
Ġs ÉĻh
br and
Ġf emei
Ġast fel
Ġan da
ĠMu jeres
ni ca
ãĤ¹ ãĥĨ
Ġtat uu
uts che
à±Ĥà° ¤
gen d
ļ áĢ¬
qu er
Ġà´¸àµįà´¤ àµįà´°àµĢ
Ġáĥ¬áĥĲáĥłáĥĽ áĥĿ
Ľà¸ ±à¸įà¸
ta ka
å¢ ĥ
Ġne ch
Å¥a Å¾
Ġà¦Ľà¦¿à¦² à§ĩà¦¨
Ġà´¤àµģà´Łà´Ļàµįà´Ļ à´¿à´¯
¥ áĢ®áĢ¸áĢ
ĠáĢ ¸
ĠáĢŀáĢ° áĢĲáĢŃáĢ¯áĤĶ
Î½Î¿ Î¯
wa ng
Ġà´¶ àµĩà´·à´Ĥ
Ð¿Ð°Ð´ Ð°ÑĢ
ÏĨ Î±Î½
Ġàª¸àª® àªľ
Ġáĥ¬ áĥĲáĥĽ
åı ĭ
èĩª å·±
ĠØª ÙĩØ±Ø§ÙĨ
Î»Îµ Î¹Î±
Ġà´ª à´¾à´°àµįâĢį
Ø§ ÙĪØ±
ÑĨÑĭ Ñİ
Ġáĥŀáĥł áĥĿáĥĳáĥļ
Ġu cz
ĠÎºÎ± Î¸Î·
Ġà°ķ à±ģà°Ł
ĠÐ¿ÑĢÐ°Ð± Ð»ÐµÐ¼
ģà¸²à¸ ¨
ä¿¡ æģ¯
ĠK Äģ
Ġala tt
ĠáĥĶáĥł áĥĿáĥķáĥľ
Ġà¸ Ħà¸¸à¸ĵà¸
Ġà®ªà®¾à®° à¯įà®ķà¯įà®ķ
ĠÐ²Ñĭ Ð±
ĠØª Ø§Ø±ÛĮØ®
ĠÑĤ ÑĢÐµÐ±Ð°
Ĭà¸µà¸ §à¸´à¸
ĠnÃ³ i
kon om
Ã¶ Ã¶
ï¼ ģ
Ġà¤Ĺ à¥ĭ
ca ption
Ġfig caption
Ġp Ã©n
Ġà¤¬à¥Ī à¤ł
Ð½Ðµ Ñģ
à¥Ģ à¤¯
ĠÑħ ÑĥÑģÑĥÑģ
à¤¾à¤¡ à¤¼
ko Ä¾
Ġà°ªà±įà°° à°¸à±įà°¤
ĠP ers
Ġàª°àª¹ à«įàª¯à«ĭ
ĠÐ¹ Ð¸Òĵ
Ð¾Ð½ Ð¸ÑĪ
ì ´Ī
ĠãĤ ¸
ĠÃ§ at
Ðŀ ÐĿ
ci dad
ĠÙĪ ÙħÙĨ
Ġà¦¯ à§ĭà¦Ĺ
Ġi d
Ġà®® à®¾à®£
ÄĥsÄĥri cÄĥ
ish i
Ġpro ble
in ti
ÑĢÑĥÐ¿ Ð¿
d roÅ¡
×ĵ ×Ķ
á¹£ipa ará»į
ĠÎ¼ Ïħ
Äį et
ĠÎ¼Î±ÎºÏģÎ¹ Î¬
ÏĢÎ¿ Î¸Îµ
ĠÎķ Î¯
b un
Ġj ours
Ġà°°à±Ĩ à°Ĥà°¡
ÉĽ n
Ġt x
Ġrend szer
pe c
Ġb un
Ø¨ ØŃ
Ġvie lÃ¤
ĠC over
I tem
Ġwa ye
ì¸ ł
Ġy ena
à®±à¯įà®± à¯ģ
ĠáĢĶ áĢŃáĢ¯áĢĦáĢºáĢĦáĢ¶
ĠÐ² Ð¸Ð¼
à´¿à´Ĥà´Ĺ àµį
Ġáĥ¥ áĥĲáĥłáĥĹáĥķáĥĶáĥļ
à¹īà¸Ńà¸ ¢
ĠÐ³ Ð¾ÑģÑĥÐ´Ð°ÑĢ
Ġåħ ¨
z ei
ĠÐ¢ Ð¾Ð²Ð°
Ġli lemo
à´¿à´ķàµįà´ķ à´¾àµ»
ĠáĢŀ áĢĦáĢº
áģ »
áĢ¸áĢĢ áĢ»
ĠÏĢÎµÏģÎ¯ ÏĢÏĦÏīÏĥÎ·
ĠSp iel
à´¾à´° à´£
ÑĢ Ð°Ð´
ĠÎµ ÏĢÎ¿
Ġàª¦àª° à«ĩàªķ
Ġ$( "#
à¥ ¦
ç» Ń
Ġr ena
ÏĦÏħ Ïĩ
à´¿à´¨ àµģà´Ĥ
Ġà¦² à§ĩà¦ĸ
ĠÑĢÑį Ð´
Ġáĥ¡ áĥĿáĥ¤
ÛĮ Ùĩ
ĠÎ» Îµ
Ġex emp
Ñĩ Ñĥ
à¹ģà¸ ªà¸Ķà¸
æ· ±
Ġti k
j Ã¡r
Ġáĥ¯ áĥĶáĥł
§à¸ ¢à¸
Ø§Ûģ Ø±
Ð´ Ð½
Ġj eg
Ġs itÃ¤
° à¹ģà¸Ļ
tÃ« t
Ġà®µ à®Ł
ĠÃ¤ r
Ġà¦¯ à¦¾à¦ļ
å°ıæ¸¸æĪı åľ¨çº¿çİ©
Ġàªª àªŁ
à«ĩàª ¯
ãģķ ãģĽ
Ġà¤ħà¤§ à¥įà¤¯
Ġz ro
Ġà¤¸ à¥įà¤ª
ĠÐ´Ð¾ Ð´Ð°
Ġà¤Ĩ à¤¸
Ġin d
ë¡ ł
ĠØ² ÛĮØ±
Ġàª¤à«ĩàª® àª¨à«Ģ
Ð¾ÑĢ Ð¸Ð¹
ĠÐ± Ð¸Ð½
sch e
Ġk Ã«s
ãģķãĤĮ ãģŁ
ĠÑģÐ¸Ñĳ Ñģ
sta w
à§ĩà¦Ľà¦¿à¦² à§ĩà¦¨
à°°à±įà° ľ
Ġj in
ĠL isÃ¤
ĠM ari
iss ance
Ġprod us
si ÄħÅ¼
Ġkh Ã¡c
×¨ ×ĺ
f all
Ġpi pe
Ġ201 0
tik us
ĠÏĦÎ± Î¾
Î³ Î¼Î±ÏĦÎ±
ÏĥÎ± Î¼Îµ
Ġi ko
Ġnepie cieÅ¡a
es tÃ¤
is á»įrá»į
at y
Ġp ush
s Äĥ
ĠØ± ÛĮ
Ġzd ra
ì§ Ī
ts hw
Ã¼ Ã¼
ĠM áº¹
Ġpre mi
Ġm om
ÐµÑĢ Ðµ
áĢ±áĢķ áĢ¸áĢ
ĠH ona
àµĭ à´¸
ĠáĥĿ áĥ¥
à¹ģà¸ ľ
Ø® ÙĦ
éĤ £
ia tt
Ġà°®à°¾à°¤à±įà°° à°Ĥ
Ġli hlahisoa
Ġà´¯ à´¾à´¤àµįà´°
áģ ħ
áĤıáĢ½ áĢĦáĢ·áĢ¹
áĢĦáĢºáĢ¸áĢ ŀ
Î¿Ïį ÏĤ
Ġà°İ à°²
Ġà´° à´¾à´·àµįà´Ł
Ð°Ð½ ÑĭÑħ
ĠÎĴ Î±Ïĥ
ĠàªŃ àª¾àªľàªª
áĥĿáĥľ áĥĿáĥĽ
äº ĳ
Ġæ İ
Ġjoa ng
Î» Î±Î¹
à´® à´²àµįà´²
ch u
ĠÐļ Ð°Ð½
ĠáĥĵáĥĲáĥ Ķ
ĠLe ben
ĠÎķ Î¾
Õ«Õ ¯
ÑĢÑį Ð±
Ġ à¹Ĥà¸Ļ
è¾ ĵ
ĠÉĻ vvÉĻl
Ġiz ango
áĥĲáĥłáĥ £áĥļáĥĺ
à¹Ģà¸£à¸µà¸ ¢à¸
ier on
ĠÐ¿ Ð°ÑĪ
ĠÐ¿ Ð»Ð¾
Ä¼ i
à¸µà¸¢à¸ ĩà¸
ĠT amil
à¯ĭ à®ļ
Ġge Ã§
Ġ| --
Ġç¾ İ
Ġàª° à«ĭàªľ
ĠØŃ ØªÙī
wi ck
Ġà¤¸ à¤Ĥà¤Ĺ
Ġr rit
à¤² à¤¬
ĠÐ´Ð¾ÑĢ Ð°Ð´
à¤¾à¤¯ à¤°
en kil
ĠÐ¼Ðµ Ð¶Ð´
Ġren de
Ġà°ª à°¾à°Łà±ģ
ĠÒ³ Ð¸Ð¼
ĠÒ³ Ð°Ð²
el les
àªµ àª¾àª¥à«Ģ
Ġk li
ĠÐ¾Ð» Ð´Ð¸
ĠÐ¿Ð¾ÑĤÑĢ ÑĸÐ±
Äĥse ÈĻte
ĠØ³ Ùĩ
ĠØ¨ Ø¬
×Ľ ×ķ×ľ
Ġsch im
Ġk um
Ġver s
Ġc_ is
Ð½Ð¸ ÑĨÐ¸
Å¡e j
Ġ ÅĤa
ĠLáº¹ hin
ĠÎºÏĮÏĥ Î¼Î¿
Ã¶l t
ĠÏĢÎ¿Î» Ïħ
ĠÎ±ÏĨ Î¿Ïį
ĠA A
st an
ãģĹ ãģ¾ãģĹãģŁ
Ġe ma
Ġke ji
ĠàªĨ àª®
b wa
Ġà®ª à¯ģà®ķ
Ġë³ ´ë
ĠÐ´Ñĥ Ð¶Ðµ
b rÄ«
Ġbolo ka
Ð¾Ñĩ Ð½Ð¾
Ġá»Į já»į
Ø§Ø± Ø§ÙĨ
t in
Ġà°ķ à°¾à°ķ
áĢĶ áĢ±
ba pi
à´¿à´¸ àµįà´¥
áĥľ áĥĺáĥĶáĥł
Ħ à¹Īà¸²à¸
ĠÙħ Ú¯Ø±
äº ¿
z ik
ĠØ§ Ø´
Ġith uta
Ġà´®à´¾à´¤àµįà´° à´Ĥ
ĠáĢ»áĢķ áĢ³
áĢŃáĢ¯áĢĦáĢº áĢ¸
áĢĦáĢ¹áĢ¸ áĢķ
ÏĢÎ¿ Î½
ta le
àµĨà´Ł àµģà´ªàµįà´ª
Ð¾Ð´ Ð»Ðµ
Î¹Î¿ Î½
ĠàªĹ àª£
ĠáĥĲáĥ ¨
æ²¡ æľī
Ġæ ³
Ġsa m
ĠÎ±Î½ÏĦÎ¹ Î¼Îµ
Ġà´¤àµĢà´° àµģà´®
Ġà°¨ à±ĩà°¤
Ð°Ð²Ð°Ð½ Ð½Ñĸ
áĥĿáĥłáĥª áĥĺáĥĶáĥļ
à±ĩ à°¨à°¿
ĠÎĶ ÎĻ
Ġol lut
ĠÑģÑı Ð¼
à¹Ģà¸ Ħà¸£à¸Ķà¸´à¸ķ
áł łáł
o jnÃ«
mp h
ĠáĥĵáĥĲáĥĻ áĥĲáĥķáĥ¨áĥĺáĥł
à¹ ĭ
Ġà®µà¯Ģ à®Łà¯įà®Ł
ĠÐ¼Ð°Ð³ÑĩÑĭ Ð¼Ð°Ñģ
ĠÑĢÐµÐ· ÑĥÐ»ÑĮÑĤ
Ġin form
Ġ à¸£à¸²à¸Ħà¸²à¸
Ġà¦Ĩà¦° à¦ĵ
Ã¼ ks
pe ÅĤ
ĠØ¹ ÙħÙĦ
à· Ĳ
àª¿àª¯ àª®
ber g
Ġein fach
ä¸Ģ æľ¬éģĵ
Ġà®ªà®¿à®° à®¤
Ġà¤ľ à¥ģ
ĠÑı ÑĢÐ°ÑĤ
å¤§ åħ¨
Ġpie dÄģvÄģ
Ġcon si
Ġë¡ ľ
Ġà°®à°Ĥà°ļ à°¿
ĠÒ Ĵ
ĠÐľ ÑĥÒ³
Ġbo li
Ġ ÅĻe
ĠÐ²ÑĸÐ´ Ð±
ĠÐĲ Ð¹
ĠwiÄĻ c
Ø§Ùħ Ø¬
Ġkaik ki
Ġm uss
Ġ Åĳ
Ð¸Ð½ Ð°ÑĤÐ°
ĠK ui
ĠÑĥ Ð³
Ġfam il
¬ àªĤàª§
ĠÄį er
ĠØ³ ÙĨÚ¯
ĠMo re
ĠÎ¼ÎµÎ³Î¬ Î»Î·
Ġ×ľ ×Ļ
dd o
Ġï¿½ï¿½ï¿½ï¿½ï¿½ï¿½ï¿½ï¿½ ï¿½
ĠÎ¿ ÏįÏĦÎµ
iri á¹£i
Ġà®µà®° à¯ģà®®à¯į
Ġgan z
Ġla báº¹
Ġ Å¼
ĠØ§ÙĦÙħ Ø¯
c ÉĻk
Ġm ba
Ð¾Ð»Ð¾Ð³ ÑĸÑĩ
Ġà®¨à®¿à®± à¯ģà®µ
Ġtla se
ÙĪ Ø§Ø±
ĠNe w
st Ä«
ĠÐ½ ÐµÐ¼
à±ģà°Ĥà°¦ à°¨à°¿
±áĢ ķáĢ«
mo lo
Ġà´ħ à´°
áĥ® áĥĶáĥĵ
à¹Ĥà¸ Ķà¸¢à¸
ko ak
ç¥ ¨
Ã¡ ÅĻ
×¤ ×©×¨
Ġmon na
àµĢ à´±àµįà´±
ĠáĢ¡ áĢĵ
áĢĻ áĢ°
áĢ¡ áĢĲáĢ½áĢĢáĢº
ĠÎ¯ Î´Î¹Î±
Ġà¦ªà§Ĥ à¦°à§įà¦¬
àµĩ à´¯
Ð¾Ð² ÑĭÑħ
Ġ ÏĪÎ·
ta ment
áĥ£áĥ ŀ
é¦ĸ é¡µ
å¹ ¶
ĠìĦ ¤
ÎĻÎ ĸ
Ġà´®à´¨ àµģà´·
Ġà°ªà±įà°° à°ªà°Ĥà°ļ
ĠÐº Ð¾Ð»ÑĮÐº
ĠáĥĽ áĥĶáĥª
ks ia
ĠÏĨ Ïħ
Ġc ÃŃm
ĠÑģÑĥ ÑģÑĤÑĢÑį
Ĺà¸ ±
èī ĩ
ĠF o
pe la
Ġáĥ¤ áĥĺáĥļ
Ķà¸²à¸ §
j os
ĠÐ· Ð½Ð°
à«ĩàª® à«įàª¬
g al
ķà¸²à¸ ¡
ti j
ĠØŃ ÙĤ
Ġs itu
Ġíķ Ļ
à¤¾à¤« à¥Ģ
ĠP L
Ġan dere
Ġpot rze
Ġà¤ľà¥Ģ à¤µà¤¨
Õ¥Õ ¯
à¤¾à¤Ĥ à¤¸
ĠÐ¼Ð°Ð± Ð»Ð°
Ġà¤ĸ à¥ĩà¤²
ĠÅŁÉĻx s
ÙĦÛĮ Ø³
Ġn Ã¤y
Ġàª¸ à«Ĥ
ĠÒ³ ÐµÑĩ
ÑĥÐ½ Ð´Ð°Ð½
Ġsz Ã¼ksÃ©g
Ġes p
Ġna bÃŃ
ĠÑħ Ð°Ð²
Ġj ash
à¦¨ à§įà¦¯
ka mi
Ð° ÑİÑī
ĠÄĳ ang
Ġt ener
Ð¸ÑĤÐµÐ» Ð½Ð¾
Ġgi bi
em ble
f ter
ĠDomni ÈĻo
Ġper io
Ġa ya
ĠÎ³ Î½Ïİ
f anya
ÏĢ Î¹ÎºÎ®
ĠÎ¼ ÏĢÎ±
ĠÏĥÏĩ ÏĮ
Ġt owe
à®¿à®° à¯ģà®ªà¯įà®ª
ĠØ§Ùģ Ø±Ø§Ø¯
w in
da y
à°¿à°Ĥà° ¤
×ĸ ×Ķ
ĠÐ£ÐºÑĢÐ°ÑĹ Ð½Ñĸ
ÑĥÐ² Ð°Ð²
Ġany s
Ġmaik utlo
Ġar v
ĠE ng
ve j
Ùĥ ÙĬ
à« ħ
áĢĽáĢŃ áĢĢ
li le
àµĩ à´¤
ĠáĥĲáĥ Ĺ
ļà¸£à¸´à¸ ģà¸²à¸£
Ġth is
åĽ½ å®¶
ĠP DF
à¦ª à¦¾à¦¤
ese belisoa
à´¬ à´¨àµįà´§
áĢŃáĢ¯áĢľ áĢ¹áĢ
áĢ¬áĢ¸áĢŀ áĢĬáĢ¹
ĠáĢĽ áĢĶáĢ¹áĢĢáĢ¯
Îº ÎŃÏĤ
ÄŁ Ä±nÄ±
Ġà´± à´¿à´ªàµįà´ª
ÑįÑĢ Ð²
ĠÎ¿ Î»Î¿
ĠC or
Ġáĥĵáĥ¦ áĥĶ
à¥ ħ
å£ «
ĠT iran
ĠÏĥÏħ Î¼ÏĢ
Ġ àµ¾
k ut
ÑĮ Ð½Ñı
ĠáĥĽáĥĶáĥĿ áĥłáĥĶ
ĠÐĴÑģ Ðµ
Ïĥ ÏĨ
Ġstr Ã¡n
ĠÑĢ Ñĭ
à¸£à¹Īà¸§à¸ ¡à¸
¹ æŀľ
Ġà°¹à±Ī à°¦à°°
Ġka e
Ġáĥĺáĥ¡ áĥ¢
ªà¸ ¡à¸±à¸
à°¾à°° à±įà°¥
Ð°Ð² Ð°Ð»Ð°
ch as
dzi Äĩ
à¸£à¸±à¸ Ĳà¸
×Ļ× ŀ×
Ġà¦¤ à¦ĸà¦¨
Ãª t
ĠÐ±Ñĭ Ð»Ð¸
Ġà¤¦à¥ĩ à¤¨à¥ĩ
ten i
Ġì² Ń
à¯Ĭ à®³à¯įà®³
à¥Ģ à¤¸
ÙĨ Ù¹
à¥Ĥ à¤Ł
ĠÑģ Ð¾ÑĤ
à¤ķà¥įà¤° à¤®
Ġne vo
Å¡ÃŃ ch
ë¶Ģ íĦ°
ÐµÑĤ Ñĥ
Ġâķ Ľ
ĠÑĦ ÑĥÑĤÐ±Ð¾Ð»
Ùģ Ø¹
Ã§ Ã£o
tt er
Ð¶ Ð¾Ð½
ar y
Ġt eg
to het
ĠD u
ÃŁ er
ar ÉĻt
à¦¬ à¦¾à¦¸
Ġnel le
Ġpu is
s iÄĻ
Ġs iempre
Ġl li
Ġpa á¹£ipaará»į
ĠÎ´Ïī Î¼Î¬
Ã¡ za
Ġ5 4
Ġh wn
A C
ĠN AB
èª į
Ġà¦ļ à¦¾à¦°
ĠK an
à±ĩà°· à°¨à±į
Ġbi áº¿t
ĠØ§ÙĦØ¹ ÙħÙĦ
i di
Ð¾Ð² Ð¸Ð¹
Ġpo k
Ġtloaele hileng
Ġà®µ à®¿à®¤
Ã¬ n
Ġre la
ĠØ´ Ø¨
ĠÐ±ÐµÑĪ Ðµ
ĠáĢ¡ áĢĻáĢ½
ts weng
Ġà´ĩ à´¨àµįà´¨
áĥĲáĥķ áĥĶ
ŀ à¸£à¸°à¸
is ir
à¨ ¨
Ġor gan
ĠÑĢÐ¾Ð± Ð¾ÑĤÐ¸
ĠìĦľ ìļ¸
Ġà´Ĩà´µ à´¶àµįà´¯
áģ Ī
ĠáĢ¡ áĢĨáĢŃáĢ¯
áĢŃ áĢħáģ¥
Ïħ Î¼Î±
Ġì ¶ľ
àµ¼ à´·
ĠÐĵ ÐĨÐĵ
ĠÎ± Î´
ĠÐ¿ÑĢÐ¾ÑĨ ÐµÑģ
ĠáĥĶáĥķáĥł áĥĿáĥŀ
å¾ ®
Ġäºļæ¸¸ ag
Ġà¦® à¦¤à§ĭ
ÎĻ ÎŁÎ¥
à´ķàµįà´ ¸
ĠkÃ«s aj
Ð»Ñĸ Ð·
Ġáĥ¬ áĥĺáĥľáĥĲ
ia go
Î¶ ÎµÏĦÎ±Î¹
ar zy
Ð½Ñı Ðµ
® à¸
Ġå° ±
Ġt ento
it taa
Ġáĥ¨áĥĶáĥ¡ áĥĲáĥĳ
łà¸²à¸ ¢
ĠØª ÙĤ
Ð°Ð² Ð°Ð¹
v Åĳ
Ġiz vÄĵ
Ġà¹Ģà¸ ŀà¸·à¹Īà¸Ńà¸
àª¿àªĤàª ¹
àªķ à«įàªķ
ta tion
Ġà®µ à®¿à®²
Ġà¤Łà¥Ģ à¤®
owan ych
Ġsho q
u ti
Ġà¤ķ à¤Ńà¥Ģ
Ġs lu
Ġà¤¤ à¥ģà¤®
ĠÐ¾ÑĢ ÒĽ
Ġà¤ľ à¤Ĺ
Ġà°µ à±Ģ
ĠÃº lti
Ġì½ Ķ
ĠÐ§ ÐµÑĢ
ĠÑį Ð³Ð°
ĠÐ±Ð¾ÑĢ Ð°Ð¸
Ġd or
d ung
Ġ ãģĮ
Ð³Ð° ÑĩÐ°
ÅĤo ÅĽci
ĠÐĵ Ð»Ð°Ð²
Ġce va
ĠÑĤ ÐµÐ¿
Ġà°İ à°Ĥà°¤
den ie
Ġàªľàª¾àª¹ à«ĩàª°
Ġh Ã¡z
ĠR Ã©
×¡ ×§
Ġt Äģs
ĠSing ure
Ġapa kan
g r
ĠBa ÅŁ
7 9
Ġd d
ĠÎ ī
káº¹ ká»į
as cÄĥ
Ġmu cho
ĠG bi
Ġse bele
Ġà°Ĩ à°¶
ãĤ ®
Ã¡ le
Ð¾Ð» Ð¾Ñģ
Ġi ki
Ġlipa pali
ol esh
wa di
Ġh erÃ«
tiv itÃł
Ġà°ļà±Ĥà° ¸à±įà°¤
áĢĻáĢºáĢŃáĢ³ áĢ¸áĢŀ
ĠB A
Ń à´µ
áĥļ áĥĶáĥĳáĥĺ
Łà¸¸à¸ķà¸ ļà¸Ńà¸¥à¸
Ġf Ã©
ç§ °
Ġc las
ìľ ¡
ĠÐº Ð¾Ð³Ð°
àµĤ à´®
±áĢ¡ áĢ¬áĢĦáĢ¹
ģáĢ²áĢ· áĢĲáĢ²áĢ·
ĠáĢļ áĢ°
ÏĥÏĦ Ïħ
ĠÙĥ Øª
Ġà´İà´²àµįà´² à´¾
ĠÐ¼Ñĥ Ð¶
Î» Î®ÏĤ
à®© à®¾à®²à¯į
©áĥĶáĥķ áĥľ
ä½ İ
A PP
Ġàª¦àª° àª®
ĠÏĢÎ¿ Î»Î»
à´¿à´ķ àµį
Ġà¦¬à¦¿à¦ ¸
Ñĭ Ð»
áĥļ áĥĶáĥĳáĥĲ
Ð¡ Ñĵ
ĠÎŁ Î¹ÎºÎ¿
Ð¸ÑĤÐ¸ ÑģÑı
ÑĩÑĭ Ð¼
ļ à¹īà¸²à¸Ļà¸
Ġà¨ ¹
Ġterm Ã©k
us sa
Ġáĥ¨áĥĶáĥ¡áĥĲáĥĳ áĥĲáĥĽáĥĺáĥ¡
à¸£à¸ ĸ
Ġdol go
Ð°Ð²Ð°Ð½ Ð°
ĠÑģÐ¾ Ð¾ÑĤÐ²ÐµÑĤ
Ġh Ãłnh
ª à¸µ
ĠÐ°Ðº Ð¾
Ġdi fer
is ine
Ø® Ø§Ø¨
Ġà¤¡ à¥ī
lo g
Ġëĵ ¤
p eng
Ġà¤¹à¤® à¤¾à¤°à¥ĩ
Ġsk ÅĤa
Ġà¤Ĩ à¤¤
ĠÐł Ð°Ò³
Ġà¤ľà¤¾à¤¨ à¤ķà¤¾à¤°à¥Ģ
Ġà°¸ à°¾à°®
ei d
ĠÐº Ð½Ð¸
Ġà®Ĩà®ķ à®¿à®¯
ĠÐ¤ Ð°ÑĢ
ĠÐ°ÑĬ Ð·
Ġ×ŀ ×Ļ
la v
ÙĬ Ø§ÙĨ
Ð¼ Ð°ÑĤÐ¸
à¦¿à¦¤ à§įà¦¬
ĠÐ£ ÐºÑĢÐ°Ð¸
ĠØ´ Ø±ÙĪ
ĠÐ¿Ð¾Ð· Ð²Ð¾Ð»
à±ĩà° ¡
Ġci lat
an Ã©
àªĹ à«įàª°
Ġv rai
laÅŁ dÄ±r
la u
Ġà¦¹ à¦²à§ĩ
Ġiá¹£ oro
Î´Î¿ ÏĥÎ·
Ġë¬ ´ë
ĠÂ¬ ~
ĠC yf
Ġ7 0
ĠN inu
Ġà¦ħà¦Ńà¦¿à¦ ¯à§ĭà¦Ĺ
ek i
ris ti
ge la
à°¿à°¸ à±įà°Ł
Ø³Øª Ùĩ
Ġce ea
Ġl ÃŃ
mer i
Ġts h
mi ÄĻ
Ġo do
ĠØ£ ØŃ
àª¿àª¯ àª¾àª¨
ÑĸÐ½ Ð½Ñı
áĢģáĢº áĢĦáĢ¹áĢ
kal po
Ġà´® à´¾à´¸
Ġáĥŀáĥł áĥĿáĥ¤
Ī à¸µ
con om
å¤ į
Ġh ui
ĠÙĦ ÛĮØ§
Ġfin den
Ġà´¯ àµģà´µ
áĢ µ
ģáĢº áĢ³áĢķáĢ¹áĢ
áĢ® áĢļ
Î³ ÏĮ
´ Ŀ
Ġà´® à´¹
ĠÑģ Ð°ÑĨÑĭÑı
ÏĢ Î»Î±
à±ĭ à°¹
Ġáĥ£áĥ ĳ
åĩ ¡
åı į
ĠÑĤ Ð°Ð·Ð¸
ÎĻÎļ ÎĹÎ£
à´¨ à´¾à´¯
à¦¤ à§įà¦¬
ĠÐ¼Ð¾Ð³ ÑĥÑĨÑĮ
áĥĲáĥĸ áĥłáĥĵ
Ġvje Ã§
Î¾ Î±Î½
Ġm ia
Ð¹ ÑĪ
±à¸ĩà¸ ģà¸¤à¸
åĪ Ļ
ĠÙĥ Ùĩ
eg e
ĠáĥĺáĥĴ áĥĺ
Ħ à¹Į
×ķ×ł ×Ļ
ĠÑģÑĤ Ð°Ð½
ÑģÐ¸ Ð¾Ð½
cel ona
ª à¸Ńà¸ļà¸
mi entos
Ú¯ Ùĩ
Ġan nÃ©e
ĠìĹ Ń
Ġà¤ļ à¤¾à¤°
à®µ à®¿
tz ea
niec Ä«bas
Ġà¤ľ à¤¹
ĠmÃ«ny rÃ«
à¤ª à¥įà¤°
ĠÑħÐ¾Ð´ Ð¸Ð¼
à¤¾à¤ĩ à¤Ł
âĢĮ à°²
ĠÚ©ÛĮ Ø³
ÑħÐ¾Ð´ Ð¸ÑĤ
Ġe lÉĻ
ĠÒĽ ÑĥÐ²
ÑĥÐ² ÑĩÐ¸Ð»Ð°ÑĢ
àª¦ àª¾àª°
ĠD I
Ġst ru
ĠÒĽÐ°ÑĢ ÑĪÐ¸
ĥ à®ª
Úĺ Ùĩ
Ġn Ã©l
ÐµÑĩ ÐµÐ½Ð¸Ðµ
Ġà°¨à°¿à°° à±įà°£
Ġkolo i
ĠØ§ÙĦØ¹ Ø±
ãĥ¼ãĥ ĳ
an de
ï »
Ø§Ø¦ ÙĬØ©
ĠÕ ¬
Ġaj es
ĠÎŃÏĩ Ïī
ĠÃ¶z Ã¼n
ĠÎµÎ½Î· Î¼Îµ
ÎŃÎ½ ÏĦÏģÎ¿
Ġse arch
Ġa fihan
å¼ ·
Ù¾ ÛĮ
Ġaz o
ÑģÑĤ ÑĢÑĥÐº
Ġà°ª à°µ
Ġàªĸ àª¾àª¤
ju mÄģ
k la
Ġch Ãºng
Ġà¦¦ à¦¿à¦¤à§ĩ
isi in
Ġile ra
Ġby l
Ġtraba jo
ĠG er
ĠáĢ¡ áĢķ
qu ier
Ġà´ķàµĬ à´£àµįà´Łàµį
áĥĲáĥĹ áĥĺ
ªà¸´à¸ Ĺà¸ĺ
re r
æĪĳ ä»¬
Ġbeau coup
l Äħ
ĠK Ã¶z
Ġà´µà´¿à´ľ à´¯
áĢļáĢ¹áĢ ĨáĢŃáĢ¯
áĢĻáĢº áĢ¸
áĢĶ áĢ²áĤķ
ĠÎķÎĽ ÎĽ
ĠÐ² Ð¿
à´ªàµįà´ªàµĭ àµ¾
ĠÐ¿ Ð°Ð¼Ñĸ
Î¹Î¬ ÏĤ
à±Ĥà° ®
áĥĶáĥķ áĥ¡
ç» ľ
åĨ į
íĮ Ĳ
Ïĥ Î¿Î½
à´¿à´ķàµįà´ķ à´¾à´¨
ha le
ĠÐºÑĥÐ»ÑĮÑĤÑĥÑĢ Ñĭ
Ġáĥ¡áĥĲáĥŃ áĥĺáĥł
ĠÙĪ Ùĥ
ĠÎ¼ÏĢÎ¿ ÏģÎ¿ÏįÎ½
Ġà¦² à¦¾à¦Ĺ
ĠÐ· ÑıÐ¼
³à¸ Ħà¸
çī Ľ
Ġfun ction
Ġàª¸ àª¾àª°
ĠáĥĿ áĥŀ
à¹Ģà¸ ŀà¸
Ã¡ ri
ĠÐ· Ð°Ð¹
ĠÑĩÐµÐ»Ð¾Ð² ÐµÐº
Ġ×ľ×Ķ ×ª
à¹ĩà¸ Ķà¸
bi or
Ġa de
Ġre pr
Ġà¦¦ à¦¿à¦ķà§ĩ
Ġå° ı
ku ma
at Ä±
Ø± Ø³ÛĮ
Ġà¤Ĺ à¤¿à¤°
Ã¡l Ã³
Ġà¤¦ à¤°
ĠÑĤÐ¾Ò· Ð¸Ðº
à¤¾à¤¨ à¥ĭà¤Ĥ
ĠKo Å¡i
Å¾ u
Ð°Ð½ Ð¾
sze go
ĠÑĤÐ°Ñģ Ð´Ð¸ÒĽ
Ð»Ð°ÑĪ ÑĤÐ¸ÑĢ
Ġàªª àª¸
ĠÚ¯ Ú¾
an za
ĠÐ´Ð°ÑģÑĤ ÑĥÑĢ
Ġë° Ľ
ta kse
ĠW enn
ç· ļ
Ġfol os
esh me
ĠÙĪ ÙĨ
ri ka
us es
à±ģà°µ à±ģ
Ġos Ã³b
ĠÐ¿ÑĢÐ¾ÑĤ Ð¸Ð²
Ġi daraya
ĠÎĿÎ¿ Îµ
Ġhy vin
ĠÎ²ÏģÎ¯ ÏĥÎºÎµÏĦÎ±Î¹
Î½ Î¿ÏħÏĤ
Î³Î³ÎµÎ» Î¼Î±
ĠW á»įn
Ã¡b Ã³l
ãĥĹ ãĥª
Ġo jo
ĠÙħÙĨ Øª
Ġlef at
ha lang
×ľ ×ķ×ª
ich i
Ġs Ã³n
ÉĻs s
Ġà°ªà±įà°°à°¤à±įà°¯ à±ĩà°ķ
ĠE to
Ġàª® à«ģàªķ
ĠØ§ÙĦØ¹ Ø§ÙĦÙħ
ãģĵ ãģ®
áĢľáĢŃáĢ¯ áĢĢáĢº
Ġca mbi
à´µ àµį
Ġáĥ¡áĥ¬ áĥĿáĥł
ķà¸ ¥
lan t
è¿ ŀ
Ġà¦¦ à¦¿à¦²
Ġpe ti
ĠÉĻla q
Ġà´¨à´¿à´ ±
áĢ±áĢ¸áĢ Ľ
ģáĢº áĢĢáĢ¹áĢ
áĢľ áĢĬáĢº
ĠÎ±Î½Î± ÎºÎ¿
Ġb Ã¡r
à´¿à´ ´
ĠÐ°Ð± Ð°ÑĢ
ÏģÎºÎµ Î¹Î±
ĠÐ· Ð½
Ġáĥ¤ áĥĲáĥ¥áĥ¢
çĻ» éĻĨ
çİ ĭ
à§Ģ à¦¤à§ĩ
Îº ÏĦÎ·
àµģà´ ĸ
á» «
Ð»ÐµÐ½ Ð°
Ġ= >
Ġl ina
ĠÏĥÏį Î¼ÏĨÏīÎ½Î±
Ġg ju
Ð°Ð³ Ñĥ
à¹ Ĭ
æ ļ
Ġàª®àª¾àª £
ÅĦ ski
Ġáĥĵ áĥĺ
Ġà¸ ĭ
we ise
ĠÐ»ÐµÐ¿ ÑĪ
ci Äģ
tu a
«à¸¥à¸²à¸ ¢à¸
Ġà®®à®© à®¿à®¤
Ġà°ĩ à°¤
Äį enÃŃ
Ġay u
à¤µ à¤²
Ġren contre
ëł ¹
Ġà¦¬à§įà¦¯à¦¬ à¦¹à¦¾à¦°
Ġà¤Ĺ à¥ģ
Ġàªľàª°à«Ĥ àª°
Ġà¤ħà¤¨ à¥ģà¤¸
ĠÑį Ò³
à¤¨ à¥įà¤¦
ĠT as
Ġwy st
ĠÑģÑĬ Ð¼
Ġtan to
Ð¾ÑĢ Ð°ÑĤÐ¸
ÑĤÐ¸Ð¼ Ð¾Ð¸Ð¹
p ont
ĠØ¨ Ø¹Ø¶
ĠÐ¼Ð½ Ð¾Ð³
ĠÑģ Ð¸Ð·
ĠV e
à¯Ĩà®²à¯įà®² à®¾à®®à¯į
Ġole h
Ġà®ħà®²à¯įà®² à®¤à¯ģ
ĠÐ¿ ÑĬÑĤ
pra v
ĠgÃ¶ re
lis a
Ġfran Ã§a
Ġna hi
ĠmÃ¡ y
Ġy ks
is an
ĠÏĦÎ¹Î¼ ÏİÎ½
íĺ Ħ
ĠÏĩÏİ ÏģÎ¿
ĠÏĥ ÏĢÎ¯
Ġ 65
Ġla gbara
ĠÙĪ Ø¬ÙĪØ¯
ÑĨ Ð¸ÑĤÐµ
Ġe wá»į
ĠÃ® mp
Ġmona te
b eng
Ġc Ã©l
Ġ×Ĳ ×ĳ×ľ
Ġíķ ¨
tel lt
Ġt Ã½m
Ġgbi gba
Ġh ul
i Ã³n
cz nego
±áĢķ áĢ¸áĢ
ÉĻ lÉĻri
àµĭ àµ¼
Ġáĥª áĥľáĥĿáĥĳ
Ĺà¸µà¹Īà¸ Īà¸°à¸
Ġsu pp
ç»ı æµİ
ĠÑĥ Ð¿
ĠM on
ĠÙħ Ø®Øª
Ġà´µ à´¯
ĠáĢ±áĢĢ áĢ¬áĢĦáĢ¹áĢ¸
áĢ½ áĢļáĢº
áĢ±áĢ¡ áĢ¬áĢĦáĢ¹
Îº ÎµÏĤ
Ġvi ta
à´¿à´² àµģà´³àµįà´³
ĠÐºÐ°Ð¼Ð¿ Ð°Ð½
ĠÏĩÎ±ÏģÎ±Îº ÏĦÎ·
×Ļ×ľ ×Ķ
áĥ£áĥ «
Ġç «
èĻ İ
ÑĸÑĪ ÐµÐ½Ð½Ñı
Îº Î±Î¹
à´°àµįâĢį à´®
àª² à«ĭ
ÑĸÑŀ ÑģÑı
áĥĲáĥ¦ áĥĽ
Ġmora o
ÏĢ ÏīÎ½
Ġà°Ĺ à°¤
ĠÑģÑĤ ÑĥÐ´
«à¸ į
æĬ ¤
ĠA t
Ġ ãģ¨ãģĦãģĨ
áĥĲáĥĻ áĥĶáĥĹ
Ġà¸ «à¸²à¸
Ġà¦ħ à¦Ĥà¦¶
ĠÐ¼Ðµ ÑģÑı
á» ¹
Ã¡r om
Ħà¸ ³à¸
íİ ¸
Ġfie care
ĠÐ¿ Ð¾Ð±
Ġquel lo
Ġà¤ľà¤¾à¤¤ à¥Ģ
lu tion
is mo
ova la
Ġæ Ģ
v end
Ġà¤¹à¥ĭ à¤¤à¥ĩ
Ð°Ð» Ð±
Ġà¤¸ à¥įà¤¤
lica ÈĽii
Ġsa ÄŁ
ĠÄ ·
Ġhe eft
ĠÑĥ Ð»Ð°ÑĢ
ĠÐ¼Ð°Ð· ÐºÑĥÑĢ
ni c
Ġàª¨ àªľ
Ġvit in
ĠÐ¸ Ð±
Ġtie Å¾
Ġà°ľà±Ģà°µ à°¿à°¤
ãĥ³ãĥ Ĩ
Ġkter Ã¡
êµŃ ìĿ¸
tet ta
l Ã©s
h lan
Ġv ille
Ġà°°à°¾à°ľ à°ķà±Ģà°¯
Ġà°µ à°²à±įà°²
d om
k ini
Î»Î¬ ÏĩÎ¹Ïĥ
ĠãĢ Ĺ
ĠÏĮÎ» ÎµÏĤ
ĠÎ±ÏĢÎ¿ ÏĦÎŃ
Ġgwe ith
ĠO á¹£Ã¹
ni ki
Ġ×Ķ× ĺ
dan u
.... ....
Ġnt lha
E A
Ø¹Ùħ Ø§ÙĦ
àª¾àªµ à«ĩ
ë² Ī
Ġjet zt
Ġj Ã¡t
Ġo ro
æ± º
ĠÑģÑĤ Ð°ÑĤ
Ã¤ t
áĢĳ áĢ¬áĢ¸
ĠN aj
Ġà´ª àµģà´°
ĠáĥĹ áĥķáĥĺáĥĹ
łà¸±à¸ ĵà¸ĳ
ya ge
åģ ĩ
ĠÐ± ÑĸÐ»ÑĮÑĪ
à¦² à§ĩà¦°
ĠÃ ½
Ġà´µà´¿à´ §
ĠáĢļ áĢģáĢ¯
ĠáĢ¡ áĢ±áĢ»áĢģ
áĢ½ áĢĦáĢ·áĢº
Î¸ Î»Î·
ÉĻ ng
àµģà´ Ļàµįà´Ļ
ĠÐ°Ð´ Ð¿Ð°Ð²
Ïĥ ÏĦÎ¹
Ġchi cas
áĥĶáĥĿáĥĳ áĥĺáĥ¡
å®ī åħ¨
Ġà¤¹ à¥ĩ
Ã³ lo
ĠÎŃÏĩ Î¿ÏħÎ¼Îµ
Ġà´µà´° àµĨ
Ġes o
Ð°Ð¹ ÑĨÐµ
áĥĺáĥł áĥĶáĥĳáĥĲ
um e
ĠÏĢÏģÎ±Î³ Î¼Î±ÏĦÎ¿
ĠÑģÑĤ Ð¾ÑĢ
ĠÐ· Ð³
à¹ģà¸Ļà¸ °
æľīéĻĲ åħ¬åı¸
Ã¡l lÃ¡s
ÅĤ Ã³w
ĠáĥĿ áĥ¯áĥĲáĥ®
Ĭà¸²à¸ ķà¸´
Ġdies em
ĠÑıÐº Ð¾Ð¹
Äģ t
Ù į
à¹ģà¸ ¥à¸°à¹Ģà¸
ë¦ ½
ĠG ay
à°¿à°Ĥà°ļ à°¡à°Ĥ
is ia
Ġà¤ħà¤² à¤Ĺ
àª¬ àª°
Ġdur ante
ĠÃ§a lÄ±ÅŁ
Ġz wei
te ix
ts io
ĠÑģ ÑĥÐ²
ÙĨ ÛĮÙĨ
g Äĥ
Ġz wiÄħz
g Ã³
Ġdar ba
ĠÑĥ Ð»
ĠÐ°Ð» Ð°Ð¹
ba ÈĽi
à¤°à¥įà¤ ¨
àª ·à«įàªŁ
ĠÐ´Ð°ÑĢ Ð°Ð¶
ÑįÑĤ Ð¾Ð¼Ñĥ
d f
c ement
Ġb Å«t
ìĿ´ ëĿ¼
ĠÕ ·
Ġillet ve
ts ana
ya br
Ġãģ ķ
Ġcon na
Ġà¦ķà¦° à§ĭà¦¨
á¹£e yá»į
Ïģ Î¹ÎºÎ¬
Ġà¦¶ à¦¤
ĠÏĥ ÏĦÎ¬
Ġi a
ĠÎ±Î½ ÏĦÎ¹Îº
Ġoris irisi
á»ĩ nh
Ġt Ã½
ĠêŀĮ in
Ġre pre
ĠS ena
ĠtÅ¡e o
Ġw el
Ġla yi
Ġàªĵ àª«
é§ ħ
Ġseg ÃŃ
Ġláº¹hin na
Ġ×ŀ× ¤
Ġç ī
Ġk us
áĢŃ áĢķáĢº
ĠWar sza
µ àµĩà´·
áĥª áĥĺáĥĲ
ľà¸ ¥
Ġt ych
æĿ ¿
Ð½Ð¾ ÑĪ
ĠÃ ¥
Ġg ara
Ġà´®à´¨àµģà´· àµįà´¯
áĢ¼ áĢĲáĢ¹áĢ
áĢħ áĢ¥áĢ¹áĢ
áĢĻ áĢļáĢº
ÎĻÎļ ÎŁ
Æı R
Ġà´¤àµĭ à´¨àµįà´¨
Ð°Ð½Ð´ Ñĭ
ĠÎºÎ± Ïģ
Ġà¤¯ à¤¾à¤¦
áĥĲáĥłáĥ £áĥļ
åĪĨ æŀĲ
æī į
ĠØ¨ Ú¾Ø±
Î¶ Î¿
Ġà´ħ à´¸
y la
ĠÑĩ Ð°ÑĢ
áĥĲáĥ¨ áĥĿáĥłáĥĺáĥ¡
ĠLe d
ĠÎ³ Î¯Î½ÎµÏĦÎ±Î¹
Ġcas a
ĠÐ½ÐµÐºÐ°Ð»ÑĮ ÐºÑĸ
à¸´à¸ ĩ
åĵ į
o bb
Ã«sh t
áĥĿáĥļ áĥĺáĥ¡
Ġà¸ Ħà¸§à¸²à¸¡à¸
Ġs owie
ĠÐº Ð°Ð¼Ñĸ
Ġà« ª
Ð° Ñĵ
Ġà¸ ¨
pe v
Ġs uf
it ty
-- --
Ġà¤ª à¤¦
Ġàª®àª³ à«ĩ
Ġà°¦ à±Ģà°¨
Ã¡ci u
Ġà®¨à¯Ģ à®Ļà¯įà®ķà®³à¯į
Ġl Ã«
à¦¸ à§įà¦Ł
Ð¾Ò³ Ð¸
le i
ÐµÑģÑĤ Ð¸
ĠØ¢ Ø¨
ĠÄĮ es
Äį ek
Ð¸Ð» Ð°ÑĳÑĤÐ³Ð°Ð½
Ġ Ð°Ð¶
Ġl Æ°á»£ng
Ġà¤ªà¤¾à¤° à¥įà¤Łà¥Ģ
àª¤ à«įàª¨
ĠÒ³Ð¾Ð» Ð´Ð°
åı¯ èĥ½
Ġí Ŀ
ĠB et
c itÃ©
Ġd ÅĤu
Õ« ÖĢ
à¦² à§ĩà¦¨
Å¡e go
Ġn Ã¼
Ġe go
ĠÐ±ÐµÑģÐ¿Ð»Ð°ÑĤ Ð½Ð¾
ÑĤÐ¸ ÑĩÐµÑģÐº
áº¹ li
Ġ5 3
Ġ×ĳ ×Ĵ
Î´Î¹Î± Î¯ÏĦÎµ
ĠÏĢÏģÎ¿Î·Î³ Î¿ÏįÎ¼Îµ
ĠÎ» Î¬
Ġoriá¹£ iriá¹£i
Ġp Ã¢nÄĥ
Ġd ove
Ġi táº¹
en y
tse la
Ġse bakeng
p iel
Ġda va
L is
Ġà°µà°ļà±įà°ļ à°¿à°¨
à¦¬ à¦¿à¦¦
Ġaa mi
Ġdes arro
Ġcon se
ĠØ® Ø·
áĢķáĢ¹áĢ ħ
ĠÐ½Ð°Ð¿ ÑĢÐ°Ð²
Ġà´¤ àµĢ
Ġáĥĺáĥ¡ áĥĺáĥľáĥĺ
Ġà¸ģà¸²à¸£à¸ ŀà¸Ļà¸±à¸Ļà¸
ĠpÃ«r p
ç¡ ®
Äį ne
Ġf our
ÅĨ i
Ġà´¡ à´¿
±áĢĲáĢ¼ áĢĢáĢŃáĢ¯
áĢĻáĢ» áĢ¬áĢ¸áĢĢáĢŃáĢ¯
Ģ áĢº
ĠÎķ Î¸Î½
ĠqÉĻb ul
Ġà´ħà´µ à´°àµįâĢį
ĠÐ± Ð¾Ðº
ĠÎ¼Î± Î¸Î·
Ġà¤ķà¥Ī à¤¸à¥ĩ
Ġáĥŀ áĥĲáĥ¡áĥ£áĥ®
Ġé ĺ
Ġæ Ķ
Ġk yl
Î¼ÎŃÎ½Î¿ Î¹
àµĨà´¯ àµģà´³àµįà´³
Ġà¦ªà¦¾à¦° à§ĩà¦¨
ÑįÐ¹ ÑĪ
ĠáĥĽáĥĶáĥ¢ áĥĺ
Ġf ins
ĠÎĺÎµÏĥÏĥÎ± Î»Î¿Î½
va teÄ¾
ĠÐ»Ñİ Ð´Ð·Ñĸ
à¹ĩà¸ Ħ
ä¸ ¾
ĠØ´Ø±ÙĪ Ø¹
Ġla tela
ĠáĥĽáĥĲáĥĺ áĥľ
à¸£à¸²à¸ ¢
ra gen
ĠÐĽÑĥÐº Ð°ÑĪÑįÐ½
àª¿ àª¨àª¾
Ġà°¤à±Ĩà°² à°¿à°¸
ķà¹Īà¸²à¸ ĩà¸
is ten
em mes
d et
Ġà¤¯ à¤¦
Ġà¤¸ à¤°à¥įà¤µ
Ġval sts
ĠÑĢÐ¾Ð± Ð¾ÑĤ
à°¾à°Ĺ à±ĩ
ĠÐ¿ÑĢ Ð¾Ð¿
Ġna st
Ġà¦ķà¦°à§įà¦® à¦ķ
Ð §
àª¾àª¡ à«Ģ
Ö ·
×ķ×¨ ×Ļ×Ŀ
er mek
Ġin tr
Ð¾Ð´ Ð¸ÑĢ
Ð´Ð¸ Ð¹
áº¯ n
Ġà¤® à¤¦
Ġpro g
ĠÐĳ Ð¾ÑĪ
Ġsi pas
ê° Ĳ
es a
f Ã©r
Ġas em
Õ«Õ ½
Ġà¦¸ à§ĩà¦Ł
ĠãĤ »
x alq
Ġàª¸àªĤàª ª
ÄĽ t
Ġà°µà°¿à° ®
ĠI p
Ġw rth
ÙĦÛĮ Ùħ
A d
ĠÎ´Î¹Î±ÏĨÎ¿ ÏģÎµ
ĠÎ´ Î¿Ïħ
w h
ÑĪ ÑĤÐµ
ÅĤo Å¼
Ġi jo
ĠÑģÐ»ÑĥÑĩ Ð°Ðµ
d ie
Ġbul un
ĠÐ³Ð¾Ð´ Ð¸Ð½Ð¸
Ġq ÉĻr
m ine
Ġn incs
Ġà¦¦ à¦¾à¦¬
ĠNI PA
ãģ® æĸ¹
ĠP as
íĿ ¥
áĢ¬ áĢķ
Ġêµ °
à´ļ à´°
áĥķ áĥĺáĥłáĥ
±à¸ĩà¸ «à¸§à¸±à¸
ĠLig ht
è¶ Ĭ
le go
Ġdis pos
Ġha m
àµĩ à´ķ
Ġáģģáģ īáģ
ķ áĢŃáĢ¯áĢĦáĢ¹áĢ¸
ĠáĢķ áĢ¯
ĠÎĵ ÎµÎ½
ĠØ§Ø³Øª Ø¹ÙħØ§ÙĦ
Ġà´± àµįà´±
ÑĢÐ¾ Ñħ
Î¼ Î¹Ïĥ
åħ Ń
[...]
