#version: 0.2
ã ģ
Ġ d
e n
e r
Ġ Ð
Ġ ,
Ġ .
Ġ c
Ġ t
Ġ a
e s
Ġ p
Ġ s
o n
i n
Ð ¾
ã Ĥ
Ð µ
Ð °
ã ĥ
a n
á »
a r
Ġ l
o r
Ð ¸
Ġ m
Ñ Ĥ
Ġ n
Ġd e
Ð ½
r e
t i
o s
Ñ Ģ
a l
Ñ ģ
a s
c h
i s
Ð¾ Ð
Ġ e
t e
á º
Ġ -
Ġ b
u n
i e
Ġ v
i t
Ġ f
r a
r o
Ġ w
Ġt h
Ġ 1
Ġ h
Ġ o
Ġ S
Ġ 2
q u
l e
Ġ C
o m
t a
Ð »
Ã ©
Ġ :
i c
Ġ â
Ġ A
Ġ P
Ġ g
n g
ã Ģ
i a
Ġ in
u r
en t
Ġ T
Ġâ Ģ
i l
Ġ ãĢ
Ġ M
Ã ł
u s
e l
Ð º
a d
Ñ ĥ
o l
a t
Ã ³
Ġ qu
Ã ¡
Ġ D
Ġ Ä
a m
Ġ B
Ġ k
i d
Ġ (
Ġ un
Ġ L
Ñ ı
Ñ ĭ
i m
Ġc h
Ġ E
ĠÄ ĳ
Ġ )
t o
Ð° Ð
Ðµ Ð
c i
Ġa n
e m
Ġ 0
Ġ Â
Ġ I
Ġ2 0
Ġ Ã
Ġl a
ãģ ®
Ñ Į
ĠÐ ¿
Ġ N
Ġc on
Ġ /
e t
e d
Ġ r
Ġth e
in g
Ġd i
Ġ es
Ġ R
u t
l a
Ġc om
Ġ z
Ġt o
Ñģ ÑĤ
Ġ F
Ġ G
o w
Ġ re
Ġ en
i g
Ġ H
ti on
Æ °
u m
ãģ Ħ
Ð ²
Ġ y
u l
ĠÐ ²
Å Ĥ
Ñ ĩ
Ġ 3
i r
t er
ĠãĢ ģ
Ġ V
Ðµ Ð½
Ġt r
Ġ Ñģ
e c
Ġ "
Ġa l
Ġ j
Ġ ï
o d
Ġqu e
Ġ W
Ã Ń
i on
ãĥ ¼
Ġ '
Ġp ar
Ġ20 1
an d
Ã £
a c
Ġs e
Ġp r
Ð ¼
ĠÐ ½
i o
i ch
Ð¾Ð ²
Ġp ro
ãģ §
a g
ãģ Ĺ
Ġd o
ĠÐ ¸
ãģ «
Ġo f
er s
o t
Ġ O
Ã ª
ĠâĢ Ļ
i á»
Ġ K
Ð ´
Ġan d
ãģ ¦
Ä Ļ
Ġ 5
t r
Ġ 4
c e
Ġ ãĥ
ĠÐ ¾
es s
ãģ ¨
Ñ ħ
. .
ãģ ª
Ġl e
a b
0 0
n h
ĠãĢ Ĥ
o u
en d
Ä ħ
Ġde l
Ġ i
Ġn h
Æ° á»
Ġ å
Ã ´
ãģ Ł
ĠÐ º
v e
ãģ Ļ
Ã£ o
ãģ Į
ãĤ ĭ
Ã §
ãĥ ³
e g
Ðµ ÑĢ
o c
ãģ ¯
áº ¡
Ġs u
Ġ J
Ð° Ð½
Ġ U
áº ¿
t u
Ðµ ÑĤ
Å ¼
Ġï ¼
i z
Ġn a
Ġd es
o ur
Ġd a
z y
en te
ĠÐ ´
Ð ¿
ãģ ¾
Ġ ãĤ
Ð¾ ÑĢ
un g
Ð° ÑĤ
Ġp er
o g
is t
Ġm a
i er
ĠT h
n e
i v
m a
ãĤ Ĵ
Ġe l
Ð¾Ð »
Ġf or
Ġk h
Ġn o
áº £
ĠÐ¿ ÑĢ
in e
Ġp h
p r
an t
Ð¾Ð ¼
Ġ æ
s t
Ñ İ
l i
Ð¸ ÑĤ
z e
Ð½ Ñĭ
¿ ½
Ð¾Ð ´
Å Ľ
es t
ĠÐ ¼
Ðµ Ð»
Ã ¢
Ġn g
Ã ¼
Ð ±
i b
á» Ļ
a p
d o
Ġ on
Ð° Ð»
Ñ Ī
Ġ ÑĤ
Ġ ?
Ñ Ĩ
ãģ ĭ
a k
Ġ !
Ġ 6
i en
ä ¸
Ġ ÑĢ
áº ¥
Ð ·
a y
Ġp or
er e
Ð½ Ð¾
Ġa s
ãģ £
Ġb e
Ãª n
ic a
Ġ Ãł
Ġ im
Ġe m
a u
Ã³ n
Ġa u
Ġs i
p p
ti c
Ġe t
ar e
Ġpar a
o b
ĠI n
z a
á» ĳ
Ð¾Ð ³
ãĥ¼ ãĥ
t en
d e
n o
ãĤ Ĭ
Ã ¤
n a
u b
as s
Ġ 7
Ġ Ã©
ĠC h
Ã ¬
Ġ il
Ġ or
iá» ĩ
v er
Ġ is
Ġe x
Ġ 8
f f
ãĤ Ĥ
Ġun d
Ð ¹
Ñģ Ðº
Ġ u
ãĤ ¹
Ġ ;
Ġ ãģ
g e
Ð ³
n i
ti v
Ġ 9
en s
Ġa c
m ent
Ã º
Ð¾ ÑĤ
al e
Ġ. ..
o p
Ġ |
Ġ x
or t
ãģ Ĩ
Ð¸ Ñı
ãĤ Į
an s
ĠÐ ±
Ð¾Ð ¹
l o
ãĥ ĥ
ãĤ ī
Ġs p
Ã´ ng
ĠâĢ ĵ
r i
a z
ãĤ ¤
ÐµÐ ¼
u c
Æ ¡
ion e
ĠÐ½ Ð°
Ġ um
Ġ1 0
Ġd er
Ġes t
u e
l y
p er
Ä ĩ
ä º
Ġ Z
on g
Ġ ç
Ð° Ðº
an g
á» §
Ã ¨
Ð¾ Ð½
Ã§ Ã£o
Ð¸ Ð½
ãĥ Ī
Ġt ra
ÐµÐ ´
áº Ń
Ġm e
Ġg i
ch e
Ġd ie
qu e
Ġ1 9
Ġa t
ĠÄĳ á»
Ġv á»
Ð° ÑĢ
d a
ĠÐ ·
Ġ ra
m e
or e
u y
Ġv Ãł
Ġs er
ad o
s e
Ġ %
k a
Ġ Ñĥ
Ñ Ħ
Ñ ī
ï ¼
b er
p e
Ġch e
ãĤ ĵ
ĠâĢ ľ
ar d
Ġs t
os t
áº §
Ġa r
te l
Ð°Ð ²
Ã¡ c
m o
Ġh a
id e
Ã³ w
Ð°Ð ¼
ent o
il l
o k
c ia
f or
ãģ ı
Ð¸ Ðµ
u d
in a
Ð°Ð ·
Ġs o
in d
Ġl es
Ġ ro
æ ľ
on t
Ġn e
ç Ķ
Ġun a
h r
i re
ci Ã³n
Ġl Ãł
k i
u g
ä »
e b
c z
it h
Ġ1 2
ĠÂ »
id ad
Ñģ Ñı
Ġp re
Ġ Q
ãĥ «
Ġd u
ĠA n
v a
Ġa m
Ġa d
Ð ¶
i te
ĠÐ ³
i áº¿
t s
and o
Ð» Ð¸
Ġl o
Ġcom p
Ġp o
j e
Ġt e
Ġl os
ĠâĢ Ŀ
Æ°á» Ŀ
Ġ è
n y
Ġa b
ï ¿½
Ġe in
ãģ į
t h
Ġth á»
in h
r an
a ch
Ð¾ Ñģ
Ġp l
d er
c o
Ġc o
Ġï ¿½
Ġt á»
ĠD e
ad a
Ð¸ Ðº
Ġ Ñĩ
Ġ1 1
Ġ #
Ľ i
Ġ us
Ġr es
ãĤ ¯
Ġ =
Ġw h
Ð¸ Ð¼
Ġ it
ĠÐ Ł
ÑģÑĤ Ð²
Ġ é
p o
on e
ãĥ ©
áº¥ t
an o
å ®
Ġd is
el l
i es
c a
Æ°á» £
Ð¾Ð ±
Ġc Ã³
æ ĸ
Ã ¹
un d
Ã ¶
ãģ¾ ãģĻ
áº¡ i
ãģ ĵ
n ie
Ä ĥ
al l
ĠL a
ĠA l
Ġw ith
Ã© s
a te
Ġw y
Ġ20 0
a tion
Ð¾Ð³ Ð¾
ĠÐ ¡
ãģĹ ãģ¦
Ġy ou
r es
ãĥ ª
Ġa v
ĠTh e
k e
ãģ ķ
i f
ĠÐ Ĵ
å ı
ĠE s
i le
Ġc á»§
Ġ ent
Ġth at
Ġv er
Ã ²
Ġ1 5
en ti
t y
an te
Ġcá»§ a
ĠÄ Ĳ
os s
ĠE n
ci on
ãģ£ ãģ¦
Ġn ie
at o
Ð» Ñı
å ¤
ÐµÐ ¹
Ð° Ñı
ie l
ãģ Ĥ
it o
ä ½
ĠÐ °
Ñ į
Ġin ter
Ġh á»
Ġc u
ãģ§ ãģĻ
Ð¸ Ð¸
Ġb y
eg o
Ġm o
Ġl as
2 0
er a
Ġcon s
å ħ
Ã¢ n
å Ī
Ðµ Ðº
t ra
ic o
â Ģ
o us
ãģ ł
ĠT r
g o
Ġm u
on s
Ã ±
ig h
Ð¾ ÑģÑĤ
i p
ic e
Ð°ÑĤ ÑĮ
ĠM ar
Ð° Ñģ
Ġo b
ĠR e
Ġ Y
al i
Ġ [
d i
j a
ĠÃ ¨
ĠC om
ĠL e
ãģĹ ãģŁ
d z
Ġp our
Ã¼ r
ĠP ro
ti s
Ĺ ¥
h e
en ta
Ð¾Ð º
p l
d u
á» ĭ
ĠÐ ļ
Ġãĥ »
Ġ ]
Ġ1 8
l ich
ĠQ u
Ã¬ nh
t or
Ð¾Ð ¶
ĠÐ »
f er
Ð¸ Ð»
áº ¯
ãģ ĳ
Ġh o
Ġ os
ĠÐ¾ ÑĤ
Ġp od
t t
ĠS e
ÑĤ Ð¾
ĠÐ½ Ðµ
Ġg r
is s
ag e
Ð¸ Ð¹
Ġsi ÄĻ
y s
p ar
u re
Ġm an
Ġm ar
g ra
m i
ÑĢ Ñĥ
Ġch o
Ġ0 0
m ente
Ð¸ Ð²
ĠÂ «
Ġal l
te d
Ġa re
Ġ Ñį
Ġ) .
b e
in o
ãĥ³ ãĥ
it a
ĠA r
Ġ1 6
ãĥ³ ãĤ
a v
á» ¯
Ġ1 3
ĠU n
Ġ" :
Ġw e
E R
iá» ģ
ãĤ Ī
ãĤ ¢
Ġp e
á» ±
Ġ1 4
Ġ) ,
ĠP ar
p a
or a
j Äħ
em ent
Ġs on
å Ĳ
ÐµÐ» ÑĮ
ĠÐ¾ Ð±
ï¿½ ï¿½
Ġc ar
Ġs ur
s o
h o
Ġ &
an a
Ġc ol
it y
Ġ +
Æ°á»£ c
c on
Ġd as
Ġs ta
w a
k s
Ðµ Ñģ
Ġt em
tion s
Ġg ra
te m
z ione
ci al
m er
Ġ ÑģÑĤ
ãĥ¼ ãĤ
ic i
y ch
Ġc as
Ã¡ n
Ð¸ Ñĩ
t re
Ã© r
Ġc an
p os
ro m
ÃŃ a
Ġt er
ãĥ ¬
ãģ® å
Ġs ol
Ã µ
ĠâĢ ¦
æ Ĺ¥
Ġun e
a i
Ġ1 7
om e
á» ©
ti l
or d
Ġ X
á» ¥
Ġd en
am b
Ð°Ð ´
c l
ÐµÐ ²
Ġo u
u ra
z i
á»Ļ t
c k
ãģ Ĭ
Ġc l
Ġc Ã¡c
Ġa g
b le
Ã¡ s
Ġkh Ã´ng
Ġo p
i Ãªn
è ¨
Ġcom o
Ġ3 0
Ġh e
Ġim p
ĠC on
an n
Ġm it
d uc
Ãł y
Ġ er
äº º
Ð¾Ð» ÑĮ
v el
ãģª ãģĦ
w w
ch en
Ġp as
Ġv on
ãģ£ ãģŁ
w e
y m
Ġz u
ĠÐ¿ Ð¾
è ¦
O N
á» Ł
Ġm od
ĠÄĳ Æ°á»£c
or es
Ð¸ ÑĢ
Ġd Ã©
p s
ĠÐ ł
ÐµÐ ³
Ġc a
Ġa pp
ĠÐ Ŀ
b l
áº ·
ĠÐ ľ
Å Ħ
Æ° Æ¡
Ġn on
Å¼ e
ÐµÐ½ Ð¸Ñı
k u
ich t
c es
Ġs a
Ġ" ,
w o
al iz
in s
t ro
A N
id o
Ġ0 3
å ¹
t es
ie m
f t
an h
é Ģ
áº§ n
Ġo d
Ð¸ÑĤ ÑĮ
an e
ur s
Ð¸ Ð·
ĠÐ ŀ
is e
Ð¾Ð ·
Æ°á» Ľ
/ /
Ð°Ð» ÑĮ
Ġ2 2
Ġp ers
ÅĽ ci
1 0
v en
b re
Ġf a
in i
Ġpr es
ãģĻ ãĤĭ
Ġdel la
Ġy our
ĠÐ² Ñĭ
é ĸ
Ðº Ð°
Ġw as
Ġ201 7
Ġp i
á» ĩ
id a
Ġ >
iá»ĩ n
ĠE l
Ðº Ð¸
ar i
c u
Æ°á»Ŀ i
Ġtr ong
Ġma is
le c
ÅĤ a
ĠN o
ãģ ©
Ġ2 5
r as
Ġ ist
Ġt u
ig n
g i
Ð½Ñĭ Ðµ
Ð°Ð ±
e w
ĠãĢ ĳ
ĠP r
- -
ãģĭ ãĤī
ĠS ch
Ã Ł
E S
on d
ãģ Ī
æ Ģ
r y
Ġs h
er o
Ġc or
ĠÐ µ
Ġm á»Ļt
ãĤ ģ
v o
Ġin s
ie d
Ġth is
ä ¼
áº¡ n
us s
ab le
us t
A R
E N
Ġh tt
u ro
b a
Ġp os
o ut
u x
Ġn ot
Ġvá» Ľi
Ġ: //
d os
Ġ2 1
Ġ0 9
Ġ201 8
Ð½Ñĭ Ñħ
ion i
igh t
Ġa ut
Ãµ es
an ce
u ch
as t
Ġs c
er n
ãĤ Ħ
Ġg o
Ġs ch
iá» ĥ
an ia
ãģ® æ
al es
Ġf Ã¼r
Ð¸ Ñħ
Ð¾Ð ¿
or i
ol og
Æ°Æ¡ ng
i ra
Ġb l
é ģ
Ð°Ð ¹
Ġum a
ÐµÐ ·
Ġw ww
on a
i ÄĻ
Ġau f
g en
I N
Ġ0 1
ãģĵ ãģ¨
Ġes ta
Ġï¼ ī
Ã© e
ãĥ ķ
Ġre c
im e
Ġf o
Ð½Ñĭ Ð¹
ĠP h
Ġd ans
iá»ģ u
Æ°á»Ŀ ng
Ð¸ Ñģ
s ch
k o
áº£ i
ÑĢ Ð°
i ti
Ãł ng
Ġ2 4
z o
Ġng h
p h
ĠÐ Ĳ
Ġ $
pr es
Ð½ Ð¾Ð¹
á» į
ãĥ Ń
å º
Ãł nh
el le
Ġj e
z en
ĠS p
Ġp u
l es
Ġï¼ Ī
è ¡
Ġ201 9
c y
ĠÐ Ķ
ĠãĢ į
Ġd os
c ess
Ġp ra
for ma
áº£ n
ãģ ¤
Ġde m
.. ..
Ġ ÑĦ
ac k
Ġin d
h er
ãģ ¡
j i
Ġf in
Ġ2 3
Ġ201 6
Ġp ol
an ie
g u
is ta
Ġ \
it Ãł
e z
d en
Ġng Æ°á»Ŀi
Ġf rom
Ġo ut
å Ľ
Ġs em
a is
å ¸
ad os
Ġas s
ãĤ ¿
Ð° ÐµÑĤ
Ãł n
m in
ĠA s
á»¯ ng
ĠV er
Ð½Ð¾ ÑģÑĤ
ĠÐ¸ Ð·
ãĤ ·
z ie
Ã¡ ch
å¹ ´
r u
ãģ Ľ
Ãł i
at er
am e
Ļ Ĥ
Ġp la
Ġqu i
5 0
ãĥ Ĺ
Ġha ve
p re
Ġh ab
1 1
ar t
Ð½ Ð¾Ð³Ð¾
end o
áº§ u
Ġz a
O R
as e
p or
il le
ic k
es e
Ġm in
ÐµÐ½ ÑĤ
ĠI l
Ĥ ¬
Ġb o
ÐµÐ½ Ð¸Ðµ
ĠH o
Ġ0 8
Ġnh Æ°
ow e
ĠÐ´ Ð»Ñı
or s
ĠãĢ Į
Ñĥ ÑĤ
ad e
á» ĵ
Æ°á»Ľ c
æ ī
Ġser v
Ð°Ð ¶
ãĤ £
Ñİ ÑĤ
ãĤ ı
æ °
Ġw ill
Ñĥ Ð´
ar s
ol l
Ġre g
Ã¢ y
r os
áºŃ n
Ġt ak
l ine
Ġ }
ÅĤ o
ĠÄĳ á»Ļ
ĠP or
i k
ĠÂ Ń
ãģ ¿
3 0
å Ń
Ġ5 0
m en
idad e
ãģĦ ãĤĭ
Ã´ i
é ĩ
ĠB e
ãĤ ³
ĠÐ ¢
r it
Ġn Ã£o
Ġh as
Ġ0 7
h a
Ġt y
f e
Ġc e
Ã³ r
Ġpr ze
ÑĨ Ð¸
Ġj est
Ġ *
å ĵ
es ta
Ð° ÑģÑĤ
Ġr Ã©
O M
v ers
g a
Ð¾ Ñĩ
ĩ º
ĠT e
Ġs ob
ent es
k t
Ġnh á»¯ng
ĠÐ ¶
Ġãģ Ŀ
áº¿ n
j o
i x
Ġm ed
Ġn el
_ _
tic a
Ġp a
Ġc am
A L
á» ķ
es ti
Ġg en
in t
i or
Ġâ Ĥ¬
Ġ0 00
Ġ1 00
Ġ ä¸
ti ve
Å ©
ãĥĥ ãĥĪ
Å¼ y
Ġf e
el a
á» Ń
Ð¸ Ð´
ĠâĢ Ķ
ĠS t
å Ĩ
Ġent re
çĶ ¨
iáº¿ t
Ġj ak
g an
h l
s k
c ie
áºŃ t
il i
æ Ŀ
os e
p on
Ġl u
Ġpr zy
f ic
u al
Ðµ ÑģÑĤ
n er
O S
Ã§ Ãµes
for m
1 2
ç ´
ĠÐ ĺ
Ð¸ ÑģÑĤ
å ł
I C
ow a
c ar
am ente
Ġpro f
Ġc re
Ġf un
ĠÑĩ ÑĤÐ¾
Ðµ ÑģÐº
Ġv is
ĠÄĳ Ã£
p le
Ġl i
Ġd on
Ġ201 5
Ġ {
Ġpar ti
å ĭ
ÃŃ nh
Ñĥ Ñİ
Ġdi re
ĠI t
ç Ľ
Ã© n
Äĥ ng
ãĥĥ ãĤ¯
en e
ĠÐ¿ Ð¾Ð´
Ġpl us
Ġpers on
è ª
ĠA d
Ā Ā
ĠÄĳá» ĥ
áº¿ t
Ñı ÑĤ
Ŀ i
Ġs tr
å ¾
è ²
Ġe le
Ġm i
Ñĥ ÑĢ
on o
Ð°Ð ¿
ç µ
A S
im a
er t
Ġb r
it Ã©
ãĥ Ĩ
in k
Ġ0 5
tiv o
Ġw ir
u p
Ġ0 2
ul d
Ġw ie
ãĤ «
Ġa us
Ġthá» ĥ
å ¼
Ġp oss
ĠM a
Ġm on
Ðµ Ñĩ
Ġk t
A T
ĠÑĢ Ð°Ð·
ac e
ie t
Ġv ous
Ġ2 6
Ġs ich
it s
Ð¾Ð² Ð°Ð½
n ia
us e
Ġs ec
c ol
Ġc er
Ġ2 7
ul t
or k
è Ģ
Ġt ro
Ġ0 6
á»ĳ i
Ġs al
Ġp ass
ar a
ĠÐ ĳ
Ġn icht
æĸ Ļ
an to
ci o
ub l
Ġ2 8
Ñĥ Ñĩ
Ġcon t
Ġc r
ãģ¾ ãģĹãģŁ
åĪ Ĩ
Ġqu al
ĠW e
ç Ħ
is te
Ð½ Ð¸Ðº
ĠC o
Ġï¼ ģ
ĠD ie
Ġ201 4
ent s
ãĥ ¡
ãģ® ãģ§
b o
ar io
ĠD E
Ġa p
Ġc z
ĠÑģ Ð²
áº ©
ĠS ie
u a
ny ch
Ġo c
h n
en a
ĠÐ± Ñĭ
ÅĤ y
å ¿
Ġhtt p
Ã¹ ng
Ġin v
ãģ¨ ãģĦ
Ð°Ð ³
cion es
Ġãģ ĵ
å Ĭ
er v
Æ¡ n
ãĥ ŀ
æľ Ī
en n
ĠG r
å ĩº
Ġc i
an ti
Ġv o
ess o
Ġ0 4
w s
Ġm as
Ġc ap
1 7
ĠÐ¿ÑĢ Ð¾
æ ¥
ÐµÐ ±
1 5
ä¼ ļ
g r
ãĥ £
Ã© m
Ġ Ñħ
am i
Ð½ Ð°Ñı
g er
tu ra
Ġcom e
Ġu p
u f
ĠãĢ Ĳ
Ġ201 3
ãģĦ ãģ¾ãģĻ
qu es
ĠN g
Ġt en
an i
en ce
Ġav ec
Ġe d
Ġe v
Ġf il
Ġd ur
ĠF or
u er
Ġm Ã¡s
ĠC ar
Ġc Ã´ng
ĠÐ² Ñģ
áº ½
ĠÐ¿ ÐµÑĢ
Ġ ich
Ġn os
ec t
å ľ
ĠN h
ÅĽ Äĩ
tu d
á»Ļ i
Ġb áº¡n
Ġn u
ä ¿
u te
Ġes s
Ġt a
Ġï¼ ļ
åĵ ģ
Ġg e
ĠS u
b i
iá»ĩ t
á»ĳ ng
Ġ2 9
ĠE x
á» ī
Ġde i
ĠS o
Ġtr ans
p u
an y
ç ī
Ġ", "
å¤ §
1 6
t Ã©
et te
äº ĭ
ãĤĴ æ
oc k
Ġb a
ĠP re
Ġin f
ãĤ µ
ie j
ãĥ ī
i ro
Ã ½
ul ar
Ð¸Ñĩ ÐµÑģÐº
Ġd al
el o
Ġth u
Ġ4 0
Ġac c
ĠÂ °
æĸ ¹
ãĥ ¥
Ġtá» «
Ġn Ãły
Ġb u
Ã¡ i
ung en
ĠÐŁ ÑĢ
en za
Ġ Å¼e
£ Â
Ġe ine
Ġl á»
ÑĢ Ð°Ð½
ĠA c
Ð½Ñĭ Ð¼
Ð½ Ð°
Ġæ ľ
Ġm á»
2 2
am ento
Ġb ut
ãĥ Ĳ
Ġre la
Ð ŀ
8 0
I S
Ġin c
Ġhá» į
ĠD es
v is
é Ľ
Ð¿ ÑĢ
ar ia
1 9
æľ ¬
Ã¡ t
Ġau ch
Ġ201 2
å ±
Ðµ ÑģÑĤÐ²
m os
Ġr is
Ã¡ ng
ĠÐ ĵ
ow n
Ġs z
ĠÐ¿ Ð¾Ð»
Ġa i
ï ½
i ve
Ġ ä»
gra m
ad as
ç ļ
ãģĤ ãĤĭ
ĠM e
ĠP ol
á»ĳ c
Äĥ m
Ġl oc
U R
ĠÑĤ Ð°Ðº
Ġpr z
Ñĭ Ðµ
ĠIn ter
ãĥ ģ
Ġv ol
Ġv al
ÐµÐ ¿
ĠB l
and e
ment o
4 4
c t
Ð½ Ð¸
il d
re e
å į
Ġv ide
¡ Â
Ã§ a
i al
Ġsob re
3 3
tel l
f a
Ġg iá»
ci p
Ġj ed
Ġkh i
ĠÄĳ áº¿n
b r
Ġgi Ã¡
ÑĨ Ð¸Ð¸
Ġc al
g et
ĠâĢ ŀ
ĠT ra
Ġs im
Ġf r
ãģ Ŀ
Ð¾ÑĤ Ð¾ÑĢ
ĠO r
Ġin forma
Ġse g
s ta
w i
Ġson o
Ġt i
á»© c
ĠÂ ·
c is
ĠÐº Ð°Ðº
Ġv ers
âĢ ¦
Ġm y
Ã¨ s
áºŃ p
Ġ": "
Ġvá» ģ
ãģ °
Ġg ia
ar y
ãģĦ ãģŁ
ĠG ra
Å© ng
le t
å ½
ic z
ch a
im o
ĠF ran
ãĤĪ ãģĨ
ro w
Ġs ie
ĠP er
Ð ł
ä¸ Ń
å ¯
al a
Ġ Ã¡
å ī
ol a
Ġs k
iáº¿ n
9 0
ti tu
ĠA m
Ġm es
Ð°Ð¼ Ð¸
æ ĻĤ
ĠlÃł m
ĠC as
Ġp ow
åĲ Ī
ãĥ ĭ
ĠÑį ÑĤ
s p
Ġpi Ã¹
ant es
az ione
Ġ á»Ł
tiv a
ãģ¨ãģĦ ãģĨ
Ġdel l
ĠÐ¸ Ð½
re d
al ly
Ġqu es
æ Ħ
Ñĭ Ð²
u i
Ġc os
áº¥ y
Ð ¡
is h
ÐµÐ ¶
ãģķ ãĤĮ
åħ ¥
at ur
h en
im ento
6 6
ä¸ Ģ
8 8
ãģ« ãģª
Ġt áº¡i
x o
Ã¨ re
Ġw ar
ĠE r
ãģĤ ãĤĬ
Ñħ Ð¾Ð´
Ġt ut
iv ers
ãĥ¼ ãĤ¹
2 7
ĠÑģ Ð»
å °
Ġc áº£
Ð´ Ð°
Ġm en
Ġ Ñı
g l
Ġof f
Ġa o
ä ¾
ãĥ¼ãĥ «
I T
à ²
ĠI m
4 0
ĠP a
u j
ãĤ ¦
iá»ĩ u
æ ķ
ĠC l
k ow
Ġcon f
è¡ Į
è¦ ĭ
ç Ļ
áº ±
Ġn as
ti f
ĠA b
æ° Ĺ
Ãª u
c tion
ãĤ į
Â µ
ĠS ta
ed e
æ Ī
Ġs áº½
z Äħ
Ñĥ Ð¿
Ġw o
Ġs ul
tic o
ãģĦ ãģ¦
Ġ ÅĽ
Ġc ent
Ġï ½
ĠS h
ĠP l
le g
end e
ti m
ãĥ ĸ
Ġpro duc
ĠN a
Ð Ĳ
1 3
w ia
ä¸ Ĭ
Ã¡ r
c zy
it er
ĠÐ¿ÑĢ ÐµÐ´
Ġcom m
Ġu til
Ġd á»¥
Ġcon ta
Ġå ¤
Ñĭ Ð¹
un t
é ĥ
ĠÃ ¼
ãĥ ĩ
ãĤ Ń
om m
i os
çĦ ¡
an c
n et
Ñĥ Ð±
ĠÐ· Ð°
Ġes te
1 8
æĢ Ŀ
Ġf am
t on
Ã² ng
çļ Ħ
æ Ń
Ġ id
Ġn Ã³
Ġfor m
Ð¸ÑĤ ÐµÐ»ÑĮ
Ġm ore
Ġ Å
Ì ģ
éĸ ĵ
ĠÄĳ Ã³
g es
6 0
æ ³
er c
ÐµÐº ÑĤ
Ã ĥ
ĠU S
Ġnh Ãł
ĠO n
9 9
ÃŃ s
Ġc Å©ng
Ġm Ãł
Ġ ÑĨ
ãģ ĺ
ĠÃ ī
E L
v ol
ãĥ³ãĤ °
Äĥ n
ĠH e
w y
Ġ201 1
ing s
ãģ Ķ
ĠÐº Ð¾ÑĤÐ¾ÑĢ
2 5
Ġh Ãłng
g io
å ¥
Ġs us
Ġi f
Ġm et
Ġin cl
Ġg et
Ðº Ð¾
ĠE m
u to
ni k
Ġf ac
ent os
Ð½Ð¾ Ðµ
uy á»
ĠB o
ĠAn d
Ġs et
1 4
2 4
ãĤ ¸
Ġkt Ã³
Ã Ħ
l l
ĠvÃł o
ad or
ĠÄĳá» ĭ
om a
ĠãĤ ¹
Ġo ur
Ġpro du
å Į
Ġon e
ib le
tu re
Ġp ot
Ġimp ort
Ġma y
ãĥ ł
Ġsu a
Ġal le
id er
áº «
Ġtr Ãªn
ol o
ĠL es
ic as
ĠÐº Ð¾Ð¼
Ġor gan
Ġal la
ĠM o
ãģ§ ãģį
Ġj u
en cia
n en
an ta
ci as
Ġm il
Ðµ Ðµ
p la
Ã¢ m
ãģ® è
or o
Ġe ff
å ·
z ioni
Ġ20 20
Ġa f
th er
I A
ĩ ª
ĠJ e
ÐµÐ½ ÑĮ
p t
Ġcon c
Ġl áº¡i
Ġ, "
áº· t
ĠÐ¿ÑĢ Ð¸
Ġnh iá»ģu
áº »
Ġd la
Ġon line
Ã´ n
é ¡
Ð» ÐµÐ½
ç ¤
Ġdel le
ĠS a
Ã© d
Ñ ĳ
an k
ãĥ §
ãģ§ ãģ¯
ul o
é Ļ
ãĢ Ĳ
Ġw er
Ġpro v
ĠG i
Ñĭ Ñħ
Ð° Ñħ
Ġf ir
ess ion
u la
ĠÐ £
ul l
s zy
ÐµÐ³ Ð¾
al is
ãĥ¼ãĥ Ī
E T
m an
Ãł o
çĶ Ł
ĠP o
Ñĥ Ð»
i que
Ġv i
Ġsu b
Ġs in
Ġ @
x t
Ġdi ff
ĠãĤ ¢
Ð°Ð± Ð¾ÑĤ
Ġs á»ĳ
Ñģ Ð¿
b y
Ġk e
ãģ Ń
or y
ung s
áº¥ p
ĠB r
am p
åł ´
v i
ç ľ
Ġthe ir
O L
ess e
« ĺ
w ar
w ie
l and
å £
ãĤ »
or ia
Ġs ind
a Ã§Ã£o
7 8
Ġg u
ãģķ ãĤĵ
Ġro z
os ta
iá»ĩ c
or n
áº ¹
ĠÃ º
ãĥ³ ãĥĪ
ia ÅĤ
ãĥ Ł
Ġpar te
A D
Ġo der
or m
Ñĥ Ð¶
ĠâĢ ¢
Ġl ib
áº£ o
A C
ĠÄĳ áº§u
A M
Ġh er
ĠN e
ç Ĳ
Ã© es
al mente
Ġan che
Ġbe i
Ġw eb
ĠÂ ¿
ĠT o
ĠÑģ Ð¿
ch er
ti g
Ãª m
£Â ¬
00 0
Ġm is
ãģ« ãģ¯
Ä ©
ãĤ °
Ñĥ Ð¼
am os
Ġo g
ay s
es te
Ġch á»ī
ç ķ
Ġf al
ĠÐ Ĺ
Ġres p
Ãº ng
od e
dz ie
d y
at r
r en
ant s
ãĤ ª
Ġthe y
ãĤ §
å® ļ
ĠB ar
Ġn um
p ort
Ġb us
Ġs á»±
ĠK h
Ã Ĳ
Ġc zy
an z
W W
Ġt amb
our s
Ġ ÑĪ
Ġãģ Ĭ
in es
Ġv ia
Ġnh áº¥t
ĠÄĳá» ĵ
em os
ĠÐ¼ Ð¾Ð¶
Ġm ag
z u
ul ta
Ġm al
Ġ201 0
Ġb á»ĭ
ie w
idad es
Ð¾ Ðµ
ow s
Ġal so
Ġh ay
l d
it al
Ġest Ã¡
Ġ3 5
m y
Ġn Äĥm
Ġfor ma
Ġ <
ir es
ist ra
æĢ §
Ġk m
å ĳ
ĠM on
ãĥ ĳ
o le
Ġm us
ãĤ ¨
Ġh at
ÃŃ ch
Ġv e
Ġh iá»ĩn
ne j
èĢ ħ
ĠC OM
e k
Ã ĵ
Ð¾ÑĢ Ð¼
Ġ6 0
æ ĺ
b ar
æ¥ Ń
Ġdá»¥ ng
y n
ä½ ľ
ow ie
i Ã³n
Ġd om
Ġ ul
Æ°á»£ ng
Ġen c
on y
ĠÄĳá»Ļ ng
Ġ ãģ¨
b ra
Ġb ien
ĥ n
ĠE uro
9 7
Ġt ime
Ðµ ÑĪ
Ġ. .
ĠHo tel
Ġes c
ĠR eg
Ã¢ u
Ġf l
d as
Ã² n
ĠÃ Ĺ
âĢ Ŀ
ĠC ol
áº¯ c
Ã¡ p
Â º
æ ł
il la
ow y
an no
ig en
ĠÐ Ľ
ch o
Ġ3 1
I D
Ġng Ãły
Ġab out
Ã¶ n
Ġ3 6
i as
Ãº c
uy Ãªn
Ġsp e
ĠG o
ĠL o
Ñĥ Ñģ
Ġle g
Ġm Ã¡
ot os
Ġ4 5
i an
j ÄĻ
Ð° ÑİÑĤ
h t
l ia
á»± c
-- --
I L
Ġp ost
e ar
á» ı
Ġqu el
è ©
ĠÑģ Ð¾
ĠJ a
ĠÃ¼ ber
im i
ÃŃ n
Ġwh ich
Ġs it
ec k
ãģ§ ãĤĤ
Ġpr in
Ðµ Ñħ
t ur
ãģ® ç
2 3
áº± ng
Ã Ĭ
Ġn i
Ã© c
at h
R E
Ġ ur
ĠÐº ÑĢ
æī ĭ
áº· c
Ġth Ã¬
ĠM an
ï¿½ï¿½ ï¿½ï¿½
Ð¸ ÑĨ
.... ....
Ġv iá»ĩc
Ġth Ãłnh
Ġun s
Ġsu per
ãĥ Ĭ
et z
ĠTh is
Ġs au
ĠD a
± c
Ġhá»į c
ot re
Ġph áº£i
Ġw p
Ã§ o
er g
! !
is ti
) .
ĠÐº Ð¾Ð½
Ġcon tra
Ġpro ble
æ Ľ
Ð½Ð¾ÑģÑĤ ÑĮ
Ġal s
7 0
er al
Ġwer den
) ;
Ġm om
k et
Ġb as
R O
ĠâĢĿ .
w n
it t
Ġch i
ÑĤ ÐµÑĢ
l io
ĠÄĳ i
è ³
Ġb ar
Ġes p
ĠN am
Ã ĩ
Ġn ec
á»ĩ n
Ġde c
áº¡ o
ĠâĢĿ ,
£ p
Ð° ÑĪ
b en
Ð°ÑĢ ÑĤ
ĠR o
Ġs ont
us tr
Ġp ubl
á»ĭ ch
id as
Ġdo c
Ġna ch
çĲ Ĩ
Ð½ Ð¾Ð¼
Ġv or
ĠF l
Ġqu y
Ġre aliz
Ð½Ð¾ÑģÑĤ Ð¸
å Ģ
Æ¡ i
oc ia
2 6
å¸ Ĥ
ic al
E D
Ã¡ o
Ã± o
ys tem
Ð ĺ
Ġd r
ħ n
Ã ģ
ãĥ ĵ
Ġcomp le
un do
Ġd ia
Ġex per
Ġk om
ta g
Ġ ide
os a
iá»ĥ m
2 9
m et
ic os
ãģ ļ
om o
ãĤ ĥ
t al
ģ n
Ġk on
ĠW h
\ \
Ġn Æ°á»Ľc
an ge
ĠI s
au x
c er
ĠR es
Ġw ork
ĠÐ¿ Ð»
it ar
Ġ9 0
Ã¡ nh
el s
ĠD o
Ġå ®
iá»ģ n
Ġp op
4 5
Ġl iv
Å º
r Ã³
al s
ib il
é ł
Ġin st
ch i
ĠC or
ĠPar a
Ð¸Ð» ÑĮ
ĠEs ta
Ġso cial
ĠN ew
Ì Ģ
Ġh is
c ed
c ze
Ġcom un
am a
Ġse u
al ia
áº¯ t
cion al
ÑĢ ÐµÐ¼
áº¡ t
ag es
i Äħ
ãģª ãģ©
er es
n ego
çī ©
ãĤ¤ ãĥĪ
o to
4 6
Ġc li
E C
ĠÐ ķ
ãĥ »
7 7
Ġa ff
Ġå ħ
Ġdi es
r on
Ġal g
Ġt iáº¿
2 8
tr ib
m m
ãģĹ ãģĦ
ia mo
ãĤ ĩ
Ġe qu
Ã¤ n
Ġde f
Ġan y
ol d
id os
oc Ãª
u es
tion al
Ġne w
ar m
Ã¼ n
ic es
c el
ĀĀ ĀĀ
Ðº Ñĥ
ãģ¾ ãģĽ
Ġs ome
Ð¶ Ðµ
Ġ. ,
ÑĢ Ð¾Ð²
Ġt Ã´i
áº© m
Ġhtt ps
Ġg es
è »
ĠÐ¿ Ð¾Ñģ
Ġs ig
Ãªn cia
ch n
ment s
in er
Ġ3 3
ĠÐ¸ Ð»Ð¸
Ġs áº£n
Ġg ro
4 3
Ġg ar
Ġa le
ÑĢ Ð¾
ĠÃ ª
Ġx u
ti t
EN T
è ¿
áº¥ n
åı ĸ
9 5
Ġt re
m l
w er
ĠÐ ¤
Ð½ Ñı
é Ŀ
éĩ ĳ
á»Ļ c
p lo
Ġ4 8
ny m
Ã ĸ
Ġg li
áº« n
ion s
ol i
Ġch ÃŃnh
Ġhá» £p
Ġan n
åŃ Ĳ
Ġ" .
Ã Ķ
ĠH a
en ia
Ġl og
f r
c ri
Ð Ŀ
ig e
è¨ Ģ
ĠÑį ÑĤÐ¾
ĠJ o
ch t
Ġ8 0
s s
n ow
en o
ĠÐ¾ Ñģ
te ur
é £
Ġprze z
ÐµÑĤ ÑģÑı
ĠG u
Ã ®
ãĥ Ķ
ĠS al
6 8
v ent
è ī
Ġna j
Ġqu an
n Äħ
Ġc ur
Ã¡r io
ÅĤ ad
Ã Ģ
Ã į
Ġm at
Ġcl ass
ãĥ¼ãĥ ī
Ñİ Ñī
ĠÂ ²
Ġnh Ã¢n
ĠÂ ¹
Ð¸ Ñİ
Ð°Ð½ Ð¸Ñı
u ta
ä ¹
et to
Ġgra tis
Ð ļ
s z
Æ° a
Ġs m
ãĥ¼ãĥ ł
tr u
it en
Ġh el
Ġd ass
Ġau x
ĠI N
ĠÐ³ Ð¾Ð´
Ð» Ñİ
Ġpro gram
Ð° Ñĩ
ĠÐ¾ Ð´
ĠÄĳá»ĭ nh
Ġd ar
Ġo ver
è £
ĠÂ ³
Ġto ut
ä½ ¿
ĠD er
Ġs inh
ĠÂ ´
Ġ200 9
ĠS er
Ġli ke
Ġno v
Ġv otre
ãģ¾ãģĽ ãĤĵ
ien e
Ġh Æ¡n
Ġh om
y cz
ĠÑĢ Ð°Ñģ
Ð¸ Ð»Ð¸
end a
Ðº ÑĤ
ãĥ³ãĥ ī
l os
l as
Ġb ack
c ji
áº£ ng
Ã ĭ
re t
Ð°ÑĤ ÐµÐ»ÑĮ
au f
Ġda ta
Ð² ÐµÑĤ
ed ia
ãĤĮ ãĤĭ
end er
ce p
ich e
Ð ķ
ĠC ent
åĭ ķ
un to
ĠY ou
Ġca o
ä½ ĵ
ĠS i
ra w
m ar
ĠÑĤ Ð¾
Ġngh iá»ĩ
Ð ¢
Ġv ar
Ġm Ã¬nh
tr i
Ġh ist
Ã Ĵ
Ġo per
h al
Ì £
Ġcon tro
ĠÑĤ ÑĢ
b al
Ġth em
åī į
Ã± os
ĠM od
ç ¨
v es
Ã¤ t
I ON
Ð°Ð» Ð¸
ĠãĢĳ ãĢĲ
ĠV iá»ĩt
jÄħ c
nie j
Ñģ Ð»
U S
Ġb et
Ġcont in
Ġå Ĳ
ĠÐ¸ Ð¼
åĽ ½
b or
no ÅĽci
Ġkh o
Ġé Ģ
Ġf ind
ĠÃ £
ÑĢÑĥ Ð³
é «ĺ
Ġs tud
Ġwir d
p ro
Ġ3 8
on es
Ġz e
ec e
Ġm ol
á»¥ c
it os
ĠÐ §
ĠÃ ´
Ġno us
æ ´
en ie
ĠW WW
ĠÂ ½
un e
Ġp ens
ĠD as
ĠÄĳá» ģ
ãģ¨ æĢĿ
ãĤ¹ ãĥĪ
Ã ī
Ġ5 5
æ ¸
em b
ĠÄĳá»ĵ ng
6 7
* *
ĠÂ ¡Â
á»ĳ t
Ð¿ Ð»
ra g
Ġt in
Ġg re
Ġs am
ro und
l er
ur es
Ġm ost
ot h
ĠÃ ģ
ĠD is
ĠÐ Ń
åĨ Ĩ
Ð°ÐµÑĤ ÑģÑı
Ġc Ã²n
Ġor az
ãĥĥ ãĥĹ
ĠC am
Ġthe o
ac ji
ĠÐ² Ð¾Ð·
ĠA pp
ĠC ons
ãĤ ±
ç ·
Ã ı
Ġne ed
Ġfo i
æ Ĭ
Ã Ĥ
ĠM in
Ðº Ð¾Ð²
O T
ĠV ide
Ġto dos
ĠM as
Ġg l
ãĥ į
j et
Ġz um
ãĥķ ãĤ
ĠÑĢ Ð°Ð±Ð¾ÑĤ
Ġb is
æ µ
á»ĳ n
Ġutil iz
Ġpor no
ð Ł
en z
Ġn Ãªn
a Å¼
Ġo ther
ãģł ãģĳ
ä» ĺ
Ġmá» Ľi
Ġ3 2
Ð¾Ð»ÑĮ ÐºÐ¾
ut as
g h
Ġ ir
ç §
iá»ĥ n
Ġb ec
Ġa ng
ç¤ ¾
Ġth áº¿
Ġl ong
ç «
iá»ĥ u
as h
Ġs á»Ń
Ġorgan iz
ĠG es
Ġï¼ Ł
ĠB a
pp ort
Ġo k
3 5
hr en
ÑĨ Ð¸Ñı
Ġc Ã¡ch
f ica
éĥ ¨
Ġein en
c m
Ġ= "
çĽ ®
ĠÂ ±
Ġex p
è ĥ
Ð¸ Ð±
ĠO p
ĠÂ £Â¬
ab e
Ġk ann
to p
is ter
um ent
Ġwh o
Æ°á» Ł
Ġr u
é ļ
Ġd á»±
çĻ º
Ġto do
Ġsol o
Ð¸Ð½ Ð°
at s
Ġth ere
Ġn eg
ie go
Ġr ic
ķ ·
éĢ ļ
åĽ ŀ
åŃ ¦
Ġa ber
ĠÑģ Ð¼
Ġthá» Ŀi
o i
ti ma
áº¿ u
ĠL u
__ __
ĠE in
Ġa qu
áº¡ nh
Ġtr Æ°á»Ŀng
Ð½ Ð¾Ð²
Ã³ ÅĤ
ĠãĤ ·
h re
iv er
Ġc Æ¡
á»© ng
n es
æ Į
Ġper o
is mo
Ð³ ÑĢ
9 8
ĠAs s
ãĥ Ģ
ĠS an
ç Ł
ĠÂ ¼
ĠT er
ãģª ãģı
Ġ ãģ¾
ÑĤ Ð¾ÑĢ
ch es
Ġr áº¥t
Ġ3 7
Ġ3 4
Æ°á»Ł ng
Ġth Ã´ng
ãģ§ãģĻ ãģĮ
ĠÑģ ÑĢ
x x
Ġå ı
u el
Ġh Ã¬nh
Ġcol or
Ġthá» ±c
Ġ7 0
lo ad
Ġn ow
inh a
Ġwh en
Ġv ocÃª
ä¸ ĭ
Ð³ Ð¾
ĠÐ° Ð²
Ġthá» ©
Ġm ater
ver y
Ġques to
Ġãĥ ķ
Ġn et
Ġs Äħ
ĠG e
Ġ200 8
æ ĥ
con om
ĠÐ½ Ð¾
Ġla v
Ġgr and
Ġdi v
ĠO s
in al
h or
Ġb an
Ġp ag
Ġbe en
y l
ĠA ut
Ġcom pr
Ġpr os
Ġk á»
æ İ
ãĤĮ ãģ¦
Ġc ou
æ ŀ
a ciÃ³n
: :
Ġp om
ĠW o
Ð°Ð¹ ÑĤ
æ §
c r
ĠD on
ĠãĤ ³
ĠA ng
ĠÑģ Ð°Ð¼
a ti
åº ¦
p ie
Ġv ez
Ġ3 9
ĠÐ± ÑĥÐ´
ãĥ ¯
at or
Ġh ac
.. .
ĠM ad
ation s
k l
or te
ate d
Ñĭ Ð¼
ĠÄĳ iá»ģu
Ġwh at
Ð¾ÑĢ ÑĤ
Ã Ī
ĠI I
ier t
E M
pe cial
ãĥ Ŀ
ãĤĤ ãģ®
Ð´ ÐµÐ»
Ġsi te
Ġpro pr
il s
Ġse x
Ġpro cess
Ġl im
le d
Ġ era
ãĤ º
ĠÐ» Ñİ
Ġpr im
Ã »
æ ¯
e p
Ġvide os
á»ķ i
on i
5 5
b il
t ing
m s
ĠÑĥ Ñĩ
Ġbl og
ta mente
Ġno ch
ĠãĤ «
uy á»ĩn
Ġs te
j or
iz e
at ure
Ġz ap
Ð» Ð¾
Ġw id
ĠÑģÐ² Ð¾
Ġde v
n os
Ġb es
T A
Ġf az
end en
z ÄĻ
ĠA t
Ġpar t
Ġim m
Ġprin cip
ãģ ¹
Ġem pres
Ġâ Ĩ
Ã¶ r
ab il
ãĤĬ ãģ¾ãģĻ
I M
å ķ
iv o
Ġãģ Ĥ
el t
Ġb on
ãĥ ¢
Ñĭ ÑĤ
d ic
ier a
Ñĥ Ñī
o ok
æ ±
ĠC r
at ing
il y
a in
Ġein er
Ġar r
? ?
7 9
Ġæ Ĺ¥
ĠP la
Ð¾ÑģÑĤ Ð°Ð²
an za
ĠÑģ Ðº
Ġon ly
Ġth an
ri os
Ġgr ande
u en
Ġs ens
ta in
ĠL os
Ã³ l
or r
Ġz ÅĤ
Ġa pr
è ĩª
Ġn om
ĠãĤ µ
Ġst ra
m es
Ġf re
Ñģ Ð»Ð¸
Ġqu a
ĠÐ¾ Ð½
es z
Ð¾Ñģ Ñģ
ion es
od y
Â »
Ġse gu
Ġb est
ĠS te
åĨ ħ
Ġd zie
Ġwo uld
Ðº Ðµ
ĠV al
áº¡ ng
æĿ ¥
Ġd z
Ð° ÑĨÐ¸Ð¸
ass e
Ġmo Å¼
u je
Ġc m
Ġj p
Ġnel la
is chen
ĠIn s
Ð¾ÑĤ ÑĢ
Ġre qu
è ¾
os o
Ġk Ã¶n
f o
Ġä» Ĭ
ĠÐ´ Ð¾
ter n
v ia
æ ı
Ð°Ð½ Ð¸Ðµ
æ Ķ
Ñ Ĭ
z ion
Ġv en
Ã© l
Ġv iÃªn
ĠB er
to w
ica tion
á» £
Ġh and
Ġ) ;
Ġh um
is a
Ġw ere
ug h
ad ores
Ġmu ch
Ġor ig
em bre
Ð°Ð½ Ð¾Ð²
Ð°Ð» Ð°
i tion
R A
Ġa k
Ġz ur
Ġb el
å¤ ļ
or ld
ĠktÃ³ re
ate g
Ġt ur
Ġkh Ã¡ch
Ġl Ã½
Ġb ÄĻ
æĦ Ł
Ġx e
i u
Ġn ur
ĠÃ Ķ
á»į n
ãģĹ ãģ¾ãģĻ
ĠAl l
Ġj ust
Ġp el
Ġt ym
tr uc
Ġein em
ar es
Ġit s
Ġf ra
Ġc Ã¹ng
Ġy a
Ġ4 4
ĠW y
Ġcas a
åº Ĺ
2 1
ç Ń
ti que
Ġvide o
Ġpr iv
ap p
Ġau to
it as
6 5
Ġl ub
Ġ4 3
Ġp elo
z za
åı ¯
ĠÃ© ta
ĠÃ ĸ
åľ °
âĢ¦ âĢ¦
C H
un a
ar o
Ġus e
in as
Ġbe z
Ġc áº¥p
ĠUn ivers
op le
Ð¾Ð»ÑĮ ÑĪ
Ġæ ĸ
Ġun o
al t
Ġto p
in ess
ãģ¾ ãģ§
Ġvá» ¥
ãĥ Ļ
Ġh ad
Ġtem po
g li
ÑģÑĤÐ² ÐµÐ½
ÐµÐ» Ñı
Ġlo ok
di tion
p end
ĠnhÆ° ng
f Ã¼
ãģĵãģ¨ ãģĮ
Ġs ho
le x
ĠÐ¾ Ð¿
id ente
ĠC a
Ġgen er
szy st
Ġph áº©m
ĠP e
ta mento
Ġm Ãª
Ġå¤ §
m as
on te
min istra
z er
Ð¾Ð¼ Ñĥ
Ġt ar
Ġv ie
un k
ä¸ į
Ġs Ã£o
ãĥ© ãĤ¤
Ð¾Ð»ÑĮ Ð·
áº¥ u
Ġl l
Ð½ ÑĥÑİ
Ġp es
c as
Ġess ere
Ġp ou
Ð¸ Ð³
ÐµÑģ Ñģ
Ġsem pre
Ã Ĩ
ĠA g
ãģĹ ãĤĩ
te t
ĠT ag
f ul
ĠÂ µ
è Ń
Ġs Ã³
ĠnÃ³ i
ic io
ĠÐ· Ð°Ðº
ÃŃ c
Ġc ir
Ġl et
ies z
à ¸
Ġb ra
ter s
Ġnu o
I G
Ġe u
Ġ5 00
Ġs el
ĠÄĳ ang
Ġd ro
Ġl Ãªn
æĸ °
om b
Ġv a
ĠâĢ ĺ
ĠA us
Ġan h
Ġin to
Ġar tic
et er
Ġtr Ã¬nh
ĠH er
w are
la ck
Ã¼ ck
å® ī
ĠÐ²Ñģ Ðµ
Ġch ar
ãģ¨ ãģĹãģ¦
ÑĢ Ð°Ð·
Ġch Ãºng
r ic
Ġma ke
Ġdi vers
Ġpl an
Ġkh Ã¡c
ÑģÐº Ð¸Ð¹
Ġm ul
7 5
N G
ĠÃª tre
Ġh Ãłnh
á» «
ĠC an
ÑģÐº Ð¾Ð¹
èĥ ½
at t
4 8
è¦ ģ
d or
r id
Ã¡ m
Ð¾ Ñı
ci os
C I
Ġdes ign
og o
Ġhab en
at os
åĲ į
Ġl Æ°á»£ng
ĠmÃ¡ y
Ñĥ Ð½
å¯ ¾
ãģĭ ãģ£ãģŁ
tu al
ĠN ie
Ð Ĵ
Ġl ar
Ġï½ ŀ
ãĥ¼ãĤ ¸
Ġb iáº¿t
Ġ( "
Ãº bl
Ġbl ock
if e
9 3
Ġph Ã¡t
Ġd own
ç ©
tr ar
er en
uc k
åĬ Ľ
Ġme hr
Ã¤ r
Ġp oc
Ġho tel
Ã İ
y le
Ġse in
Ġen d
iz ione
Ġt it
ĠM il
ĠW eb
Ġqu ando
ub e
á»ĩ nh
å£ ²
Ã ķ
Ð Ł
Ġh igh
a ta
ro l
Ãº t
Ġcas o
i i
á»ĵ i
el lo
Ġn Ãło
ed a
f l
Ġe uro
re a
Ġte le
ï ¾
ier e
Ġc áº§n
ï¼ Ĳ
ãģĹ ãģ¾
ur g
áº£ m
ÐµÐ» Ð¸
Ġp on
ĠD u
áº¯ n
iste ma
Ġlá» Ľ
ãģ ³
p x
© Ł
ĠÂ ¶
ĠÐ¿ Ð¾Ðº
ĠS am
os to
Ġm el
Ġj a
Ġs ab
ÐµÑĢ Ð¶
Ġâ Ĺ
Ġp al
Ġtr Æ°á»Ľc
å¾ Į
Ġfun ction
ĠÐ´ Ð²
v al
Ġa va
Ġpod e
ĠC u
ĠÃ ½
é ħ
ĠC H
Ġad d
ĠS erv
á»ĵ ng
in ter
Ġmu ito
Ġãĥ ¬
ï¼ ĳ
ĠR a
Ġprz ed
t to
Ġw iÄĻ
Ġpar tic
ĠE d
Ġm uy
pr ess
Ġãĥ ĸ
Ġpro te
ĠÃ Ń
Ġn Äĥng
ĠÃ ĵ
Ġdes de
ÑĨÐ¸ Ð¾Ð½
ĠD r
ÑģÑĤÐ² Ð°
Ġs om
ãģŁ ãĤģ
Ġdur ch
i ent
ec n
ãĤĮ ãģ°
Ġh ow
Ã³ a
ĠD i
\ "
zen ia
ar n
å½ ĵ
ÑģÑĤ Ð°Ð²
Ġtr as
ĠO b
ãģŁ ãģĦ
s te
ãģ »
it or
Ġdis pon
Ð» Ð°
Ġo l
Ġc ette
Ð¸ÑĢ Ð¾Ð²
Ġnh áºŃn
ari os
Ġp ub
Ð» Ðµ
ãģ® ãģ¯
lich e
ĠdÃ© c
ĠÄĳ Ã¢y
Ġd ist
å¤ ĸ
Ã ļ
ĠI f
ãģĹãĤĩ ãģĨ
Ġc ada
Ġun ter
os p
ĠU m
og le
Ġar t
l ie
ut s
Ġm ad
ĠÂ» .
æ³ ķ
ĠM ed
åħ ¨
ĠZ e
S T
Ġ ers
in da
Ġse xo
Ã± a
Ġre ce
ic ar
Ġï¼ Į
ĠF re
Ġm áº·t
ÅĤ ug
ĠM ag
g ar
å® Ł
iv id
ĠÃ ¢
Ġs ou
ch Ã©
v ed
ÑĥÐ» ÑĮ
Ãº n
y w
at z
Ġt al
ĠãĤ ª
ĠM it
ti r
Ġpro d
ĠÐµ Ð³Ð¾
, "
Ġf er
ãģ Ĵ
c c
Ġd ue
is c
ĠÃ Ī
Â ª
Ġch áº¥t
Ġl at
ãĥ Ħ
ĠÐ¿ Ð¾Ð¼
æ Ĺ
Ġt Æ°
åł ±
Ð¸ ÐµÐ¼
Ġ4 6
k ie
ve z
Ġnec ess
Ġmu j
ĠI D
æĪ Ĳ
k ing
Ġpr Ã³
çĦ¡ æĸĻ
h i
Ð¾ ÑĪ
I V
ĠC al
od a
ãģª ãĤĵ
Ñĥ ÑĪ
z on
Ġf ree
ĠA uf
iss ion
ãĢ Į
Ġre d
æ ²
Ġs ystem
Ġf ran
Ð¸ÑĤ Ðµ
Ġfir st
ig o
ãĤ¹ ãĤ¿
ĠB ras
in n
Ð» Ð°Ð´
o ir
ãģķ ãģĦ
ãĥ§ ãĥ³
Ġp ela
Ġpe ople
L E
Ġtamb Ã©m
I n
Ġn ue
3 8
Ġs es
Ġ200 7
ĠF a
Ġre f
Ġb á»Ļ
9 6
ĠÐ¿ÑĢ Ð°Ð²
è ¶
ien ia
Ġxu áº¥t
n is
el d
Ġw ell
Ġac tiv
Ġnghiá»ĩ p
ÑģÑĤ ÑĢ
tr os
i Ã©n
å® ¶
at ch
Ġcu i
Ġfo to
ĠÃ ĺ
Ġtá» ±
and a
á»¯ a
Ġan s
Ġ4 2
ĠL as
Ġth ro
Ġpr Ã©
I O
k on
Ð¾Ð» Ð½
ow ych
Ġb re
Ð» ÐµÐ½Ð¸Ñı
Ġver y
ĠÐ¿ÑĢ Ð¾Ð´
s a
lich en
ãģĪ ãĤĭ
ĠIn d
ĠÐ± ÐµÐ·
Ġf oll
em a
çĶ »
Ð¾ÑĢ Ð¾Ð´
è ģ
éĸ ¢
am y
el la
ad y
Ġv ida
æ Ł
ĠÂ» ,
Ġl ie
Ġv end
Ġf ar
ent ar
Ġf at
os ten
áºŃ y
um e
U T
Ġpla y
om p
è Ĥ
u le
Ġst ar
Ġhel p
ç ¶
áº¡ ch
Ġ' ,
Ġfa it
æķ °
j u
Ð¸ÑĢ Ð¾Ð²Ð°Ð½
Ġh t
Ġdis c
è¨ Ī
æľ Ģ
æī Ģ
ç Ĥ
Ġb ene
Ġ4 7
ĠÐ² Ð¸Ð´
Ġin form
ot to
Ġm ang
j ec
ãģ« ãĤĪ
k Ã³w
ĠF e
Ġc ul
Ġb ard
ier en
ĠG en
ĠÐ½ Ð¾Ð²
tic as
Ġpro p
Ġre al
Æ°á»Ľ ng
Ġb ase
g ia
et s
Ġz w
ĠÐ² ÑĢÐµÐ¼
Ġc Ã´
w ard
ãģ ¸
çľ Į
ãĤ ¬
Ġgi an
v iew
Ġv Ã¬
ä» £
Ġin t
Ġ5 8
ĠÂ º
ĠC ont
Ġam p
Ġg io
Ġcom me
el y
Ġz d
Ġ5 3
è ¼
Ġinter na
Ġon t
Ġd Ã¢n
ta c
Ġfa ire
s ki
if ica
at es
Ã ¥
ous e
Ġâ ĸ
ãĥ Ľ
ĠJ u
á»į i
ä¿ Ŀ
ĠS P
r ze
ãĥĩ ãĤ£
Ãº p
ãĤĵ ãģª
å¥ ³
ĠÃ Ĭ
ç ¾
t os
trib u
ĠÐ¾ ÑĢ
Ġl ist
ĠP al
Ġk o
ÅĤ Äħ
Ġes per
Ġe very
Ġk inh
Ġ ãģ®
Ġpro pos
ĠS c
Ñı Ð·
tiv os
Ġw szyst
Ġin te
ĠF ac
Ġ4 9
ĠF r
ä¾ ¡
Ġâ ĺ
Ð¾Ð¿ ÑĢ
m it
Ġs l
ĠÄĳ iá»ĥm
áº¹ p
z w
ra m
Ġç Ķ
ĠÐ¸ ÑģÐ¿
Ġb áº±ng
éĸ ĭ
Ð°Ñģ Ñģ
Ñĭ ÑĪ
is ch
Ġn atur
Æ Ĵ
Ġresp ons
Ã³ ng
ÃŃ as
ac y
Ġl ine
á» Ĺ
Ġbe f
em ber
ÄĻ p
er ta
iv a
Ġgo od
ig li
ãģĹãģ¦ ãģĦãĤĭ
Ġk áº¿t
æ§ ĺ
d io
Ġper f
Ġn am
eb ook
ĠG ar
éĢ ģ
qu er
Ġl ug
áº£ nh
ãģĤãĤĬ ãģ¾ãģĻ
Ġm erc
Ġes pecial
Ġpla ce
Ġ7 5
ĠÐ ¥
ĠÃ Ĵ
y d
ĠÂ ¸
eg en
t ar
Ð¾ÑģÑĤ Ð¸
ab a
Ġg ran
et ta
g al
Ġpubl ic
ĠF ra
Ġph Ã²ng
I E
Ġm or
Ġdur ante
ĠÐ´ ÑĢÑĥÐ³
Ġth áº¥y
ãģª ãĤī
Ġt Ã¢m
Ġj us
Ġf ut
Ġf av
i ke
ä» ¥
N D
a use
dz i
Ġa uss
Ġtra bal
Ġj o
on n
Ġ9 9
Ġan ti
ĠãģĿ ãĤĮ
est ra
áº¯ ng
è Ī
ĠF il
l ig
Ġg Ã¬
ut er
Ġm er
Ġãĥ ŀ
Ġch á»§
Ġk now
Ġre m
ĠA v
ãģ§ãģį ãĤĭ
Ġprof ession
é ķ·
ç ¥
Ġdis pos
em y
ĠG l
owe j
ow er
en c
Ġy e
ĠÐ´ Ð¾Ð»
ĠÐ¼Ð¾Ð¶ ÐµÑĤ
O D
Ġ ðŁ
d ay
Ġto Ãłn
è¨ ĺ
ten s
ĠÐ¼Ð¾Ð¶ Ð½Ð¾
ĠR ec
ph one
Ġb áº£o
en g
n ic
od o
ĠÂ ¾
Ð» Ð°Ð²
Ġh iá»ĩu
ãĢ ħ
Ð Ķ
Ġthá» ĭ
Ġmo v
ĠÐ¾ Ñĩ
Ġth iáº¿t
Ġãĥ Ĳ
w it
ĠkÃ¶n nen
ĠG re
æľ Ł
Ġp ap
ĠS k
Ġtiáº¿ p
Ġp esso
Ġh á»Ļi
at ura
å İ
Ġng o
an as
Ġgra tu
Ġ Î
Ġtá» ķ
å Ł
Ġlo áº¡i
ĠÃł s
Ġz ak
Ġt Ã¡c
ãģĪ ãģ¦
ind ows
Ġt áº¿
Ġof fer
Ã³ s
tr as
ĠÄĳ Æ°á»Ŀng
ãģ« ãģ¤
le v
Ġha i
Ġ5 6
un i
åĮ ĸ
ag em
ot s
ĠB us
ist as
b ie
Ġm m
ãģĦ ãģĦ
w or
ĠÄĳ á»ĳi
Ð°Ð½ ÑĤ
ĠÂ §
Ñĥ Ñħ
Ġw ur
ĠãĤ ¤
ĠV ers
ÑģÐº Ð¾Ð³Ð¾
Ġh or
an ych
Ð¾ ÑģÐº
Ð½ÑĭÐ¼ Ð¸
Ã©r ie
Ð°Ðº ÑĤ
k en
Ġb Ã¡n
ĠH ome
Ġcz as
Ġt á»ĳt
Ġt wo
A P
ens e
ĠÂ ®
pl ica
Ġs enti
ia m
Ġg er
cri p
Ġch a
Ġd im
Ġ5 4
Ġr i
ĠÃ ĥ
ĠP res
çŁ ¥
Ġt Ã¬nh
ĠÃ Ģ
ĠG er
l in
eg u
Ġt iá»ģn
Ġpor que
ãģ« ãĤĤ
Ðµ Ñī
Ð´ Ðµ
ma il
ent al
uyá» ĥn
Ġs pr
ĠP our
åĪ ©
Ġc áº§u
Ġp ic
U L
ur ch
Ġth ese
Ġma in
Ġaut or
Ġj Ã¡
ĠC ap
ell es
á»Ń a
en as
ãĥ İ
Ð¾Ð± Ñĭ
ĠT H
ec z
p is
Ġdire c
Ð°ÑĤÑĮ ÑģÑı
ä½ ķ
lec tr
è §
ç ½
Ġc in
Ġt ÃŃnh
Ġvá» ĭ
áº¡ c
u de
æ ©Ł
Ð¾Ð³ Ð´Ð°
Ġ3 00
ĠÑį Ðº
cl us
ĠS T
ĠãĤ ¯
ur as
Ð ľ
Ġtr Ã¨s
Ġãĥ ¡
ãĥ ı
Ġ5 7
in c
Ġ5 9
Ã¡ rios
Ġbo ok
ĠJ ul
ac z
iej s
od z
ĠÑģ Ð¾Ð±
ĠÃ© tÃ©
m al
Ñĥ Ðº
è© ±
ow anie
ãĥª ãĥ¼
Ġ4 1
p i
å¼ ı
Ġapp l
ĠãĤ ¨
Ġ _
Ġan im
it es
éĿ ¢
r ie
ol u
ĠL A
Ġa par
Ġgi or
Ã¨ me
ÑĦ Ð¾ÑĢÐ¼
ĠM us
ı ¾
ãģ£ãģ¦ ãģĦãĤĭ
Ð°Ð¶ Ð´
ĠK on
Ð»Ñİ Ñĩ
Ġna y
ig er
un da
ot t
Ġ) :
ĠÐ½ Ð°Ð¿
Ġt áº¡o
ĠC ON
Ñī Ðµ
Ġn orm
jÄħ ce
ÐµÐ½ Ð°
il a
Ì ī
Ġgr u
un ta
Ð¼ Ð¸
z t
Ġexper ien
ãĥ¼ãĤ º
h men
Ġç §
Ġsol u
Ġm ont
Ġde gli
ib ile
Ġh ome
å¤ ī
et h
Ġ Þ
é£ Ł
Ð½ Ðµ
ĠP ra
Ð¿ÑĢ Ð°Ð²
tic os
ä¿ ¡
Ġmom ento
Ġt ego
ĠO d
èĢ ĥ
ĠÄ ĥn
Ġl ink
å¿ ĥ
ĠCh r
ĠS ec
ĠÄĳ o
ÐµÐ½ Ð¸Ð¸
ãĥ ľ
Ġf u
Ġpr ima
s ka
ĠÂ ©
Ð¸ÑĤ ÑģÑı
Ġå °
Ġ\ "
Ġj our
ãĤ ½
Ġb áº£n
Ġy ear
ĠOn line
ĠÃ´ ng
Ġæ Ŀ
Ġor g
owa Äĩ
ĠD el
ãģĭ ãģª
ar Ã¡
Ð¸ Ð¿
Ġn ad
Ŀ Ģ
ou gh
ĠP ers
Ġsh ow
ĠãģĿ ãģ®
Ġsu c
al la
ĠE st
ÑĤ ÑĮ
Ġht ml
x im
ĠW ir
O W
t in
Ġ! !
Ġan ni
ĠP os
ãĤĮ ãģŁ
Ġse e
Ð° ÑİÑī
3 6
Ġb i
Ġpra c
Ġpod er
ĠÑģ Ð¾Ð²
Ġhá» ĩ
ĠGra tis
á» ģn
E G
Ġte chn
pres enta
ĠÃ ·
ãĥ ļ
Ġcom b
Ã© ra
Ġ19 8
ol es
Ã¬ m
ÑĢ Ð°ÑĤ
Ġin de
Ġï¿½ ï¿½
Ġt or
Ġal c
Ġs wo
ç« ĭ
Ġpr Ã©s
Ġtra ba
Ġtut ti
ÑĢ Ñı
is che
Ġapp ro
r al
ar ch
Ġty l
Ġen s
olog ia
Ġqu áº£
Ġgi Ãºp
Ġdi fer
ĠSe xo
as z
Ãº s
Ġdal la
Ġs istema
le ment
ĠP R
f en
Ġdi g
ĠÐºÐ¾Ð¼ Ð¿
ĠP ost
èī ¯
Ð¸Ðº Ð°
Ġloc al
A G
Ġhá» ĵ
Ġbec ause
æ ®
Ð½Ð° Ñĩ
Ġv iv
å¼ ķ
Ġth Ã¡ng
t ta
ĠmÃª me
Ġå į
ib t
Æ° u
imi ento
un ic
ĠÑģ ÐµÑĢ
Ġc ri
ĠM al
æł ¼
Ġph áº§n
Ġ6 5
Ã¤ ng
Ġra p
ĠÐ· Ð°Ð¿
r ig
Ġn ou
Ġmed ia
Ġinv esti
Ġm undo
Ġkt Ã³r
O P
ĠI ch
Ġfil m
Ġt ecn
Ġn oss
ĠÄĳ áº¹p
Ġm Ã©
Ġ( )
Ġph ÃŃ
Ġm ob
Ġï¿½ ï¿½ï¿½ï¿½ï¿½
ãĢ Ĥ
Ġc our
Ġ! !!
ĠÐ¾ Ðº
Ġz n
Ġcon d
ÑģÑĤÐ² Ð¾
Ð¾Ð» Ð¾Ð³
Ġcons ider
ag a
ĠT a
Ã ħ
Ð¾ Ñī
ĠUn ter
ĠÄĳ iá»ĩn
ĠÐł Ð¾ÑģÑģ
Ġcont ent
Ġh anno
ĠÑĤ Ð¾Ð»ÑĮÐºÐ¾
on do
an os
ti k
ĠÐ ¯
Ġman y
Ġthro ugh
ĠNo v
Ġat Ã©
Ġda y
ÑģÐº Ð°Ñı
Ġfin al
á»Ļ ng
Ġ... .
ĠÃ §
vel op
Ġ5 2
Ð² Ð¾Ð´
Ĩ åĵģ
Ġd á»ĭch
ĠÐ± Ð¾Ð»ÑĮÑĪ
ĠPro f
ãģ£ ãģ¨
ĠR ed
I R
ÐµÑĤ ÑĮ
Ġmar ket
Ġmin ut
Ġc ost
Ġs ing
ement s
ad es
Ġ/ /
ĠR ob
ãģķãĤĮ ãģ¦
og ra
ĠA ir
ÐµÑĢ Ð°
Ġdiff er
Ġst yle
ĠC Ã´ng
te ment
er os
us a
ĠâĢ ļ
Ġr ich
ÑĢ Ð°Ð²
am es
Ġen v
Ġaf ter
ak e
le m
us z
9 4
ĠÐ´ ÐµÐ»
åľ ¨
Ġãģĵ ãģ®
ĠãĤ Ĵ
ĠU r
ĠU ni
Ġac qu
ãĥ ¤
ĠT V
Ð° ÐµÐ¼
Ã³ b
Ð³ Ð°Ð½
æ ¬
z z
çĶ °
Ġtá» Ľi
re g
at en
ĠÐ² Ð¾
ta do
ÅĽ cie
Ġch á»©c
an ces
ĠD ire
ĠA k
Ġpu ede
ãģĿ ãģĨ
Ġth Æ°á»Ŀng
Â ¡Â
Ġfal se
ĠB ra
Ġp s
ĠÐ¿Ð¾Ð» ÑĥÑĩ
Ġtyl ko
Ġä¸ Ģ
æ¥ ½
ow o
w ay
æ´ »
Ġn ost
Ġh ier
ĠS im
ÑĤ Ð¾Ð¼
ti mo
Ġsol l
ĠA M
ÐµÐ½ Ð½Ð¾
l im
in en
å §
zen ie
Ġc amb
ĠF in
ÑģÑĤ ÑĮ
Ġpr ime
ĠTr ans
Ġw ay
Ġid enti
ow ania
Ð¸Ðº Ð¸
Ġa Ã±os
ÃŃ vel
ĠInter net
è² ·
et t
iti es
Ð» Ð°ÑģÑĤ
Ġkh u
è «
Ã «
Â ´
tu di
Ð¸Ð¼ Ð¸
Ġp ie
çĶ £
Ġb ud
Ġm ie
Ġcontro l
at al
ĠÄĳ áº¡i
Ġb en
und en
Ġgi áº£i
Ġb ro
ĠQu á»ĳc
ÑĥÐ»ÑĮ ÑĤ
ÅĤ u
ĠÃ ľ
Ġch u
Ã© p
Ġp ier
ĠÐ¿ÑĢ Ð¾Ð²
Ġ8 5
ĠÐ¸Ð½ ÑĤÐµÑĢ
Ġ200 6
æĺ İ
Ġãģĵ ãĤĮ
Ġinforma tion
á»Ł i
Ð¸ ÑĢÑĥ
id en
ke it
Ġel le
Ġä¸ Ń
ĠÑĢ ÑĥÐ±
ãĢ ģ
çĽ ¸
ãĥĨ ãĤ£
ĠÐ¶ Ðµ
ĠÂ ¡
I P
id ent
Ġcomm un
¬ ¬
ĀĀĀĀ ĀĀĀĀ
Ġserv ice
ãĥ» ãĥ»
ãĤĭ ãģ¨
ĠD ec
Ġpro mo
Ġk áº¿
em e
\\ \\
ãĤ Ģ
ag en
Ġes pa
Ġb á»ĩnh
Ġho áº·c
n ess
Ġm ill
Ġw enn
è¡ ¨
Ġ\ /
pla y
Ġp an
m p
ĠA pr
Ġâ Ħ
Ġs oc
al d
ä» ¶
Ġtr ang
Ġac cess
es to
ĠÂ ¬
ĠÃ į
Ġlá»Ľ n
ĠB as
tr y
ac ja
ÑĢ Ð°Ð¼
Ġsig ni
ĠT or
wi Äħ
Ġd Ã¹ng
u ti
Ġ Å¼
I I
æĦ ı
ur y
ol s
Ġph Ã¡p
Ġp ad
Ġind ustr
Ġgiá» Ľi
et ti
ãĤ ¶
Ġauss i
ĠN ach
Ġtr á»ĭ
Ġ äº
áº© n
Ġs or
ess a
Ð¾Ð² Ð¾ÑĢ
ãĥĥ ãĥī
Ġmod o
ĠA L
ĠCom m
at ter
Ð Ľ
Ġwh ere
Ġind ivid
Ġ- -
Ð¾ÑĤ Ð¾Ð²
Ġnh iÃªn
Ġst and
Ð°Ð½ Ð´
ĠÐ»Ñİ Ð±
y e
le ich
ĠP D
Ġpe u
ĠC Ã³
id es
ĠM ais
Ġye ars
Ġ Å¼y
ÐµÐ½ Ñĭ
Ġå ľ
ĠQ ue
Ġti po
3 7
ĠS eg
j ect
il ia
Ġpe ut
Ġf em
o ch
ï¼ Ĵ
Ġsit u
ĠJ an
ver n
an Ã§
Ġt iene
ici al
ĠSu per
Ġsu ch
is on
Ġ15 0
Ġ$ (
ĠH Ãł
Ġ9 5
Ġd ann
Ã© t
Ġth o
ĠF er
Ġgre at
Ġas p
Ġde b
Ġincl ud
Æ° ng
Ġob s
Ġan os
Ġ} .
Ġt anto
inh o
er va
te g
Ġqu er
áº§ m
è» Ĭ
æĥ ħ
Ð»Ð¸ Ñĩ
Ġe ven
ĠZ a
ĠP od
ÐµÐ½ Ð¸Ð¹
T E
Ġãĥ ª
h ip
Ġb em
è¾ ¼
ĠIt alia
Ġcáº£ m
Ġr ight
Ġmo Å¼e
Ð¸ ÑĪ
is to
ĠÐĿ Ð°
Ġãĥ ĳ
ĠPor no
ãģ¡ ãĤĥ
á» ¹
Ġ5 1
æĸĻ çĦ¡æĸĻ
Ã³ g
el f
m ier
ãĤĵ ãģ§
ĠM er
ĠÐĴ Ñĭ
Ġtamb iÃ©n
ĠK ar
á»į ng
Ġpa ÃŃs
ÐµÐ¼ Ñĥ
Ġ ãģĦ
ÑıÑĤ ÑĮ
ĠÃº l
ĠS tr
ur os
Ġo t
ĠÐŀ ÑĤ
Ð¼ ÐµÑĢ
ĠS car
éĽ Ĩ
Ġmu a
Ġma i
Ġs ans
Ã Į
Ġs to
á» Ľ
Ġpu ed
Ġè ĩª
ta t
ĠE ng
---- ----
lec tion
no ÅĽÄĩ
Ġse hr
Ã ĺ
3 4
x y
ĠM y
Ġp ok
éģ ¸
O C
Ġbus iness
Þ ¦
ĠÃ Ļ
Ġe conom
çķ ª
Ġpre cis
Ġå Ī
w iet
åĲ Į
ĠT em
Ġm iejs
Ġju Å¼
ÅĤ am
Ġm ot
ĠÐŀ Ð±
ro d
Ġãĥ ©
Ã ĳ
st en
a f
Ġqu Ã¡
ĠV ol
Ġthá»© c
Ġme jor
Ð¿Ð» Ð°ÑĤ
Ġc Ã¡i
å ĥ
Ġãĥ Ĺ
Ġ áº£nh
Ġv iel
ĠÐ² Ð½
åĳ ³
ĠÐ¡ ÑĤ
ĠÐ½Ð° ÑĪ
eb en
Ġãĥ Ī
at ori
Ġco uld
Ã¶ g
áº ³
Ġb eg
é §
ĠCom p
Ġy Ãªu
Ġ Ã¡n
Ġc el
ĠÐ¿ Ð¾Ð²
at y
u k
ac t
ĠIn forma
ãĥ³ãĤ ¿
å± ±
ĠÐļ Ð°Ðº
Ġod p
ĠTr ung
ĠL ib
ant as
ÃŁ e
ç İ
Ġt ay
Ġi P
ĠV or
ãģı ãģł
........ ........
Ġbard zo
A B
æĽ ¸
Ġx em
Ġt est
Ġdo anh
ic s
á»į c
Ðµ ÑĨ
na j
éģ ĵ
Ġab s
Ġå ¹
Ġan al
à ³
Ð¸ Ð¾Ð½
Ġch á»įn
d f
ĠS il
Ġhac er
ãĥķãĤ ©
ãĥ¼ ãĤ¯
Ġl ig
Âµ ÃĦ
ĠN on
ff e
Ġt áºŃp
ĠÐ½Ð° Ñĩ
ĠL eg
c ja
Ġm ade
Ã¡ l
ut en
ĠÑģÑĢ ÐµÐ´
ĠãĤ Ń
Ġm ir
j as
æ º
Ġ( '
um p
U N
3 2
ĠéĢ ģ
å ŀ
ort s
ĠÐ±ÑĥÐ´ ÐµÑĤ
ĠP ubl
Ġs he
Ġp Ãºbl
Ð¾ÑģÑĤ ÑĮ
ap e
b ol
ĠGo ogle
ĠP C
Ð°Ð¹ Ð½
ãģ ĸ
Ġsa o
la g
ar on
ĠÑĥ Ð´
iá»ĩ m
Ġth en
ĠC e
Ġe duc
Ġt om
Ġte xt
å¿ ľ
Ġs ar
ĠÃ Ħ
ĠBras il
ÅĤ em
ul as
ĠåĲ į
al th
Ġqu esta
Ġ q
l ing
åĬ ł
k ÄĻ
Ġd am
ust om
ĠA mer
ĠÐ¸ Ñħ
1 00
Ġc á»©
ni ka
ĠÐº Ð¾Ð»
åĭ Ļ
Ġdes c
z zo
oc a
ÐµÑģ ÑĮ
zy m
ĠB es
Ġv ir
end re
ion al
ĠÐ± Ð¾Ð»
etz t
Ġex pl
el n
ĠE N
ĠÑĩ Ð°ÑģÑĤ
Ġfav or
Ġto tal
ãģ«ãģ¤ ãģĦãģ¦
Ġs ia
Ġæ ĺ
ag o
Ġæĸ °
ce j
6 4
Ġc ab
ber g
ãĤ¤ ãĥ³
Ġty pe
ĠD om
Ġmol to
ĠãĤ Ĥ
Ã³ c
è µ
d ing
Ġæ °
Ġalg un
ĠAr t
ag ement
b be
ĠT R
ani u
Ġsho uld
á» Ŀ
Ġl ÃŃ
Ġg ame
ĠS ol
ãģ® ãģĭ
Ã¤ hr
ĠU s
ta ble
h ne
Ð¸ Ð½Ñĭ
Ġde ux
ent ro
ãĤĪãģĨ ãģ«
Ġcor re
Ġab b
ãĥĥãĤ¯ ãĤ¹
ãĤĪãģĨ ãģª
Ġsu pp
ĠB ut
Ġv os
v io
l ass
Ġor d
tiv i
ĠPro du
pp o
Ã³ j
Þ¦ Þ
Ġet c
Ġv áº«n
Ġbef ore
Ġat ra
Ġmes mo
Ġis so
Ã© g
ãĤģ ãģ¦
ĠÃ İ
Ġæľ Ģ
Ġra g
ãĥª ãĤ¢
Ġle ur
ĠO ff
ve is
Ġjed n
ÑĤ Ð¾Ð±Ñĭ
Ġp ed
æŀ ľ
ãģĮ ãģĤãĤĭ
ÅĽ li
Ð» ÐµÐ½Ð¸Ðµ
um a
Ġw sp
j es
Ġv áºŃy
Ġcu ando
ĠD I
it Ã©s
ici Ã³n
Ġt Ãłi
Ġ. "
Ð¾Ð²Ð°Ð½ Ð¸Ñı
ĠÃ ¶
Ġimport ante
uyá» ģn
Ġr Ã©s
ĠU na
k er
ãģĹ ãģĭ
Ã§ os
y a
ĠVide os
åı £
Ġres ta
Ġde cis
ÐµÐº Ñģ
Ġ. )
Ġa ch
ĠM uj
Ġt Äĥng
á» Ŀi
j os
Ġac tu
o f
r ent
Ġex tra
s ite
Ġth i
Ã ¯
Ġv ai
Ġï¿½ ï¿½ï¿½
Ġgiá» ¯
Ġde ter
ro p
Ġro ku
éĽ »
in ar
Ġs y
Ġs il
ĠFran ce
Ðº Ð¾Ð¹
ĠD ies
ĠM ich
Ġm ass
ĠW indows
g t
e x
h m
Ġf ile
Ġparti r
ĠÐ³Ð¾Ð´ Ð°
Ġæľ ¬
Ð² ÐµÑĢ
ÃŁ en
ĠB lack
ÐµÐ¶ Ð´
Ġ: )
Ġc es
Ġo wn
ĠCom o
Ð £
Â ¹
Ġf ab
Ġs á»ĳng
ze j
Ġth á»§
j ar
« a
ut sch
ĠA nh
ĠE UR
Ġp age
and er
ÐµÐ» ÐµÐ¹
ĠÐº Ð»
ç ³
ĠbÄĻ dzie
ind er
r ess
Ġcon v
Ġper m
é ĺ
ta ge
æ ¨
Ġmu á»ĳn
ĠT i
ç Ĭ
Ġg ÅĤ
æĸ ĩ
ĠâĨ Ĵ
Ġspe ci
Ġa inda
at ti
Ġa y
t ore
Ġf und
ĠÐº Ð¾ÑĢ
at ro
l u
Ġd ic
áº¡ m
Ġtr iá»ĥn
çĤ ¹
ec u
Ġm Ã©d
ĠÐ³ ÑĢ
Ð ĵ
Ð¾Ñģ ÑĮ
8 5
Ġn ar
Ãª s
ĠÅ ļ
Ġå ½
Ã´ m
f on
Ġt uy
ĠM i
f ia
Ġl iÃªn
Ġf ue
ag er
Ġc le
ul os
ĠG ro
Ðº ÑĢ
Ġcam p
h one
Ġser Ã¡
ç ®
ĠA S
Ġw ant
Ġb al
Ġè ²
Ð» Ð°Ð³
ãĥ¼ãĤ ¿
ĠP L
el li
ĠS z
2 00
ro id
ĠÐ¿ÑĢÐ¾ Ð¸Ð·
Ġmuj eres
Ġes to
ĠB y
æľ ī
Ġt Ã¬m
áºŃ u
in os
Ġre ad
è¨ Ń
Ġth Æ°Æ¡ng
ĠO l
g round
Ġ ãģ¯
r il
ĠÐ ¦
ĠM ay
ĠE le
an Ã§a
ĠÄĳá» ķ
ec er
Ð» ÑĮ
Ġsta to
Ġh ere
Ġal ter
ĠB u
ãģıãģł ãģķãģĦ
ĠE t
Ġs enza
Ġl in
ç ĿĢ
ĠãĢ ı
Ġba o
iá» ħn
¢ º
o te
Ġb Ãłi
ĠÐ° Ð½
Ġs Ã©
Ġwy s
âĢ ĭ
tion en
ãĤĪ ãĤĬ
ÑĥÐ¿ Ð¸ÑĤÑĮ
ĠI S
z n
f i
Ġsa id
iz io
Ġd Æ°á»
4 7
ĠÐ¼ ÐµÑģÑĤ
le y
3 1
Ġç µ
ĠEuro pe
Ġsul la
ĠH and
Ġç§ ģ
Ġlu i
ĠÐ´ Ð¾Ð¼
re ich
Ġto das
Ġsuc cess
ta m
Ñı Ð²
ed er
9 1
Ġbe au
ĠH D
åķ ı
ir os
ãģł ãģ£ãģŁ
ĠÐ¿ Ð¾Ð·
ut z
Ġjak o
ÅĤ e
ÐµÐ» Ð¾Ð²
Ġl áº§n
åĪ ĩ
st ra
Ġv it
Ġd id
å ĸ
v il
v ere
ĠÐ ¨
Ġpro m
ĠÐ¼ Ñĭ
Ġc op
é ¨
ult ur
Ġå Ĩ
Ġr Ã³w
ec to
ia d
Ġtak e
Ġb or
Ġl oro
Ã¡ vel
ĠÐ´ ÐµÑĤ
Ġh an
Ġ ut
á»ĵ n
ĠÐ¿ Ð¾ÑģÑĤ
Ġw orld
Ġv ac
Ġto ur
ĠÐ» ÐµÑĤ
Ð± Ð¾ÑĢ
un o
y t
è º
Ġsch on
par t
an cia
z ed
Ġimport ant
Ġmen os
ĠP as
ro om
ty cz
el i
Â ²
ãģ¨ ãģ¯
åŀ ĭ
åĵ ¡
Ã³ m
iel d
ĠÃ Ĥ
ĠS Ã£o
Ġv om
ĠB an
9 2
ĠJ ak
Ġna v
Ġngh Ä©
Ġtr á»įng
Ġãĥ ĩ
az ioni
Ġto us
in ing
ĠÃ Ĳ
ic ia
ãģ Ĳ
Ñģ ÑĮ
Ġt able
Ġ Ã³
Ġwie der
Ġt im
ĠSp iel
U E
Ð¾Ð± ÑĢ
ĠÄĳ áº¥t
æ ħ
Ð¸ ÑģÐº
n al
Ġter m
Ð¼ Ð¾Ð¶
ãģ« ãģĬ
im ent
ĠÐ¼ ÐµÐ½
Ġnec es
ÑĨÐ¸ Ð°Ð»ÑĮ
Ġam bi
Ġtut to
Ġhas ta
Ġé ĩ
Ġen g
ãģĦ ãģ¾ãģĹãģŁ
Ġus o
k ÅĤad
ÑĥÑİ Ñī
f in
pl es
Ġcu al
Ġc Ã¡
ĠU N
Ġ ~
ĠÐ¼ Ð°ÑĤ
æ° ´
Ð¸ Ð¶
Ġk il
Ġpor t
Ġç ´
ic y
Ġcomp ar
ç´ Ħ
Ġun ivers
Ġm og
ĠEs p
ãĥĥ ãĤ·
ĠT ur
Ñĥ Ð·
ĠÑĤ ÐµÐ¼
ĠK om
å± ĭ
u o
ĠÐ¿ÑĢ Ð¾ÑģÑĤ
ĠÃ ¤
Ã¤ ch
ic ado
Ġof er
ĠK e
c za
Ġqu anto
è² ©
ÐµÐ¹ ÑģÑĤÐ²
Ã ¦
ãģĳ ãĤĭ
Ġan no
Ġpro je
f ol
Ġcon ten
Ġs ang
ĠS in
Ġb Ã¡o
Ġtro u
Ã¨ res
ãģĵ ãĤį
Ġfaz er
Ġar g
ĠS m
ĠS E
ter ior
Ġth á»ĳng
æ ĭ
ĠB re
çµ Ĳ
ä¸ ĩ
Ġver d
Ġb iá»ĩt
éĢ £
Ð¸Ð· Ð½
ĠO ut
ĠM or
ãĥ³ ãĤ¹
Ġutil is
ãĤĴ è¦ĭ
Ġh Ã³a
ich er
ar be
áº³ ng
l ess
am o
ãģĹ ãģı
ĠT op
Ġde velop
ĠÐ¾ÑĢ Ð³Ð°Ð½
ĠÐ²ÑĢÐµÐ¼ Ñı
i um
Ġr en
Ġ200 5
Ġwur de
o ol
Ġim mer
ĠÐ¸ÑģÐ¿ Ð¾Ð»ÑĮÐ·
iáº¿ u
Ġus ed
Ġw z
ft ware
ĠA C
ãģ İ
Ð¸Ð» Ð°
P S
c om
Ġãĥ ı
Ġp le
Ġi hr
Ġtr ÃŃ
ĠE S
ot ti
or zy
ãĥĥ ãĥģ
U M
ĠA ug
Ð¸ÑĤÑĮ ÑģÑı
til l
Ġpol ÃŃ
Ġl ife
Ġinter net
áº§ y
Ð¸Ñģ ÑĮ
crip tion
ãģ§ ãģĹãģŁ
Ġle ad
end s
d t
ĠB en
Ġn ull
ç Ĺ
tur n
é Ł
is es
b ro
Ð¾Ð½ ÑĤ
Ġpre par
Ġgia o
ç¶ ļ
tiv as
Ġre fer
ãĤ¤ ãĥ«
Ð½ ÐµÐ¹
ÐµÑĢ Ð¸
ä» ķ
Ġ" )
j on
ãģ® ãģĮ
Ġz osta
Ġtá» ī
Ġ4 00
Ġv ic
Ġap ro
Ġth Ãªm
um ento
ĠM ac
Â ¼
Ġh i
Ġn un
ãģĳ ãģ©
Ġest ar
ĠÐ¾Ð± ÑĢÐ°Ð·
j em
Ġtr ung
Ġse us
ãģĳ ãģ¦
Ġr á»ĵi
ĠÐµ ÑģÐ»Ð¸
Ġf ig
ĠC er
f ici
ĠÐ¾Ð± ÑĬ
ort h
Ġl á»±c
é¡ Į
Â ¨
i Ã§Ã£o
Ġt ÃŃch
ãģ¨ ãģª
ens a
ÑĤ Ð¸
Ã© ri
ĠÑĩ ÐµÑĢ
ĠÑĥ ÑģÐ»
T O
7 6
ĠÐļ ÑĢ
z ent
Ġho áº¡t
ãĥ¼ãĤ ·
Ã¤ l
åĲ ĳ
v re
ĠÑĥ ÑģÑĤ
ĠÑĤÐ°Ðº Ð¶Ðµ
ti d
Ġe la
Ġti Ãªu
Ġl ang
ĠW ar
Ġapp ar
os c
Ġtiáº¿ ng
Ġch at
Ġl ot
ĠI B
ãģ ¶
Ġch á»ĭ
Ġpu Ã²
Ġen erg
Ð ĳ
ĠÐ¿ÐµÑĢ Ð²
on da
ĠÄĳ Æ¡n
Ġam b
Ð» ÐµÐ´
ĠA N
Ñĥ Ð³
ÑĥÑī ÐµÑģÑĤÐ²
ãģ® ãģĬ
tr on
ĠC re
ĠFac ebook
Ġpub bl
ĠTh ere
ãģĭ ãĤĬ
Ġa j
Ġv Äĥn
Ġur l
p ad
Ð¼ ÐµÐ½
tit utas
Ġt iem
ãĥķãĤ ¡
Ġf otos
Ġ> <
Ġ. âĢĿ
Ġserv ices
Ġco un
u ar
Ġâ Ļ
ãĥ³ ãĤ¯
Ġé Ľ
Ã¬ n
ĠéĢģ æĸĻçĦ¡æĸĻ
Ġnh au
åı Ĺ
å ¢
I m
ĠF oto
Â ¿
ĠZe it
áº¯ m
AN D
å¾ Ĺ
Ġ ^
te urs
Ĵ Į
ĠÃ ĭ
all er
is se
Ġempres a
ĠS tra
æ Ĥ
Ġtr á»Ł
ĠA ma
ĠP RO
Ñĥ ÐµÑĤ
te il
Ġback ground
ĠCh a
Ġãĥ Ľ
n ec
Ġqu á»ĳc
Ã³ Å¼
Þ °
Ġgiá» Ŀ
ĠV is
Ġç Ľ
å° ĳ
Ġin g
Ġre turn
IN G
ien ie
Ġcom mer
Ġ20 00
æĻĤ éĸĵ
© ļ
Ġpro c
{ "
ĠCh ar
Ġpres enta
Ð¼ Ð°
at ore
ĠA uto
Ġv u
ĠÐ· Ð°Ð²
ow ego
Ġv áº¥n
å¿ ħ
ÑĥÑĩ ÑĪ
us h
8 6
ĠÐ½ Ð°Ð·
pp e
ĠA f
Ġs og
ĠP S
T R
Ġch ild
çĶ º
Ġcap ac
ĠÐ¼ Ð¸Ð½
ĠM ic
ãĢ į
ÐµÑĤ Ð°
ĠÑĤ ÐµÑħ
Ġdon de
Ġf are
ãĥ¼ãĥ Ħ
ac ter
Ð°Ð½ Ð¸Ð¸
ĠÐ³ Ð¾ÑĢÐ¾Ð´
¢ ¨
ĠÐºÐ¾ÑĤÐ¾ÑĢ ÑĭÐµ
v Ã©s
ĠR ad
æĮ ģ
Ġnot re
Ġp ay
Ġper met
å· ¥
Ġe ach
å Ĥ
ãĥ¬ ãĤ¹
èª ¿
Äħ d
as on
ĠInter na
iz i
Ġå Ľ
ĠÐµ ÑģÑĤÑĮ
Ġd áº«n
Ġnom bre
Ġper i
ĠF o
ãĥĶ ãĥ¼
ĠA R
è ±
Ġcu á»Ļc
Ã¶g lich
im mer
ĠÑģ Ð°Ð¹ÑĤ
å ģ
Ġop en
Ġjp g
Ġvis it
ï¼ ģ
ãĥ¼ ãĥ³
ãģ§ ãģĤãĤĭ
Ġm am
å ³
ĠÐ¿ÑĢ Ð¸Ð½
Ġph Æ°Æ¡ng
ĠÃ ķ
ãĤĵ ãģł
çµ Į
ĠæĹ¥ æľ¬
ÑĨ Ð°
ab les
ĠL and
ĠÃ£ ÆĴ
Ġch Æ°a
ĠN á»Ļi
ch ar
Ġde ve
7 2
Ġsp ec
Ð°ÑĤ Ð¾ÑĢ
r ir
Ġph oto
Ġl Ãºc
ãĤ ´
re i
id s
p es
Ġproduc t
Ġog ni
Ġa os
Ġ6 4
ĠPD F
ci r
ĠÑı Ð²
Ġe as
gra ma
it z
á»ĩ t
Ġequ ip
ĠC Ã¡c
Ä Ĳ
ÅĦ st
zi ÄĻ
b st
ĠP M
r Ã©
= =
è£ ½
Ġb Ãªn
Ġg ibt
èī ²
un que
á» ħ
3 9
Ġres ulta
çī ¹
Ġos ob
ĠÐ½ Ð°Ð´
s en
ers t
Ġlas t
olog y
O G
ĠÑĤ ÐµÐ»
ĠÐ² ÐµÑĢ
Ġs ign
et as
ĠÃ ĩ
Ġhab e
Ġfac il
k om
Ġdi ese
t end
ãģ«ãģª ãĤĭ
Ġit ali
Ġy o
Ġr un
ĠktÃ³ ry
Ġra z
ĠT ri
ĠPers on
ĠEs te
Ġsz cz
ĠB on
åł´ åĲĪ
Ġby Äĩ
Ġwe ek
iz z
Â ½
äºº æ°Ĺ
C h
Ġex em
Ã³ d
ĠÐ¿ Ð¾ÑĤ
Ð¸Ð½ Ð³
ĠãĢ İ
ai x
ÅĽ my
Ġk os
g od
ĠÄĳá»ģ u
çķ Į
hl en
ĠVide o
áº¥ m
iz za
ãĤ¤ ãĤº
ĠÐ´ Ð°Ð½
Ġn ada
ĠPar is
ĠV en
ar am
Ġdo es
Ġm ess
Ġconta ct
ta tion
Ã¡ g
7 4
Ġn ame
us o
Ġé «ĺ
Ġbe ing
Ġs an
Ð¼ Ð¾ÑĤÑĢ
m b
éĩ İ
Ġent ra
Ð° ÑĨÐ¸Ñı
Ġãĥĸ ãĥ©
ĠÃ Ĩ
Ġsu o
ĠÑĩ ÑĤÐ¾Ð±Ñĭ
I F
Ġsu pport
Ġte Å¼
Ġser a
Ġho Ãłn
Ġb it
åħ Ī
Ġqu ar
sk iego
å¥ ½
ĠÐ´ Ð¾ÑģÑĤ
Ġcz ÄĻ
Ġ ig
ĠÐŁ Ð¾
Ġre v
Ġa ir
ĠT u
Ġte am
f ach
Ġcent ro
åıĸ ãĤĬ
ie g
w ork
ĠC i
éĩ į
ä½ į
Ġãģ ©
Ġth ink
Ġtá» ¥
Ġth am
ç³ »
Ġto da
ĠS au
Ġb áº¥t
Ġan tes
ĠÑĢ ÐµÐ³
Ġcons um
Ġma il
Ã©c n
Ġé ģ
re as
Ĺ i
Ġpo z
ĠÄĳá»ĭ a
è¿ ĳ
Ġt an
Ð°Ñĩ ÐµÑģÑĤÐ²
T ER
Ġgi Ãł
ĠÐ¸ Ð³ÑĢ
Ġso ci
Ġlug ar
Ġz as
Ġs Ã¡ng
ĠÐ½ ÐµÐ´
Â £Â¬
Ã© o
ĠTr ong
Ġm Ã£
ĠÐ¾Ñĩ ÐµÐ½ÑĮ
ĠS and
Ġem p
Ġå ¥
ta to
ĠH ol
çĦ¡ ãģĹ
k ar
Ġp ia
åı ¤
cy j
ĠÐ± ÐµÑģ
Ġare a
ĠÑĩ ÐµÐ»Ð¾Ð²
es a
ard s
ĠW er
Â ·
er i
in do
ĠS em
ĠF ir
il able
ĠÑĥ Ð¶Ðµ
Ġinter ess
ãĥ¼ãĤ «
å· Ŀ
Ġc ateg
r Ã¡
bl es
éļ Ľ
tr es
Ġsim ple
Ġval or
ĠÃ ı
Ġar ch
å Ļ
ĠSa int
Ġan c
Ġag ain
ĠÃ© l
Ġc ustom
Ġg ew
Ã³r ia
unic ip
tor i
Ġãĥ Ń
Ġperson al
Ġem plo
Ãº mer
Ã¼ t
igh ts
ãģ§ ãģĹãĤĩãģĨ
we i
ĠÐ° ÑĢ
Ġf ol
ĠÐ½ ÑĥÐ¶
Ġm emb
Ġ12 0
Ġaut res
ist en
ĠmoÅ¼ na
Ġad ministra
Ð¾Ð½ Ð°
Ġan o
Ð°Ñģ ÑĮ
Ð» ÐµÐºÑĤ
Ġch ia
Ġæ ĻĤ
ot her
ow ane
Ġund er
s to
b an
Ġper form
ł ´
ĠS tud
ä» Ĭ
dz iaÅĤ
Ġp df
ĠCh at
ÑĨÐ¸ Ñİ
d em
he it
ÑĢÑĥ Ð´
eg a
Ġs ame
h os
Ġp m
Ġl iá»ĩu
est ro
ĠPl us
s ung
ĠÄĳá»ķ i
æ¯ Ľ
Ġev ent
Ġch uyÃªn
Ġpoc o
äº ¬
re am
Ġ8 8
Ġs ac
Ã² a
Ġa ma
ĠA P
ãĤ» ãĥĥãĥĪ
ag gio
ol or
ter e
k Äħ
Ġãģ¾ ãģŁ
in y
Ġh á»Ļ
å® ¹
L C
çľ Ł
r ar
éĻ Ĳ
ĠC D
h am
ãĤµ ãĤ¤ãĥĪ
åĪ ¥
ĠR om
ĠÐ² Ð·
ÅĤ os
c ent
wia d
Ġpesso as
Ġth ose
ĠÐ´Ð¾Ð» Ð¶
ĠÐ½Ð° Ñģ
Ġc and
Ð¸ÑģÑĤ ÐµÐ¼
ãģķãĤĮ ãģŁ
ç¤ º
Ġcon oc
Ġcom ent
w iÄĻ
or to
wit ter
der n
ass en
O V
ĠÐ¿ Ð°ÑĢ
ĠK o
Ġs ci
Ġngo Ãłi
ami ento
ÐµÐ½ Ð´
wa Äĩ
ver no
Ã Ĺ
un ci
Ġm igli
Ġu 0
ĠA u
Ġt end
Ġk aÅ¼
Ġ á»©ng
ç¾ İ
Ġs op
Ġtr áº»
Ġen con
ĠÐ¾Ð± Ñī
Ġes col
é¨ ĵ
Ġs á»Ł
éģ ķ
tic al
Ġ ãģĮ
ro ll
ol f
w as
Ġch uyá»ĥn
ĠCh e
ĠÐ¼ ÐµÑĤ
ĠO ne
èª į
ãģĹ ãģ¾ãģĹãģŁ
y er
¤ ľ
å° ı
nie Å¼
us ta
ı i
ä» ĭ
Ġf on
S I
Ġex am
nik Ã³w
ĠA D
Ġc la
Ġr áº±ng
å Ħ
ud ad
è§ £
b b
t as
Ġg an
ĠS on
æĥħ åł±
uyá» ħn
ä¼ļ ç¤¾
ĠÐ¾Ð± Ð»Ð°ÑģÑĤ
all s
C M
f ort
ĠSp ort
Â ¸
Ġass ocia
Ġf our
æ Ļ
Ġth ÃŃch
Ð»Ñı ÐµÑĤÑģÑı
Ġf ont
Ġth Ã¢n
Ġd all
éħ į
Ġm áº¯t
ĠÐ ĸ
ĠDes ign
tell en
____ ____
Ġpres idente
od zi
ĠQu al
Ð¾Ð² Ð°ÑĢ
ĠV á»
ãĥ¼ãĥ ĳ
äº Ī
Ġw a
æŁ »
Ġb ig
Ġw al
is p
l am
Ġtiem po
ĠD an
g n
c le
ĠScar pe
Ġt ien
éĩ ı
Ġob je
Ġå Į
a o
Ġne i
ĠÐĿ Ð¾Ð²
Ġdef in
ĠÑģÑĤ ÑĢÐ°Ð½
urs os
Ð°Ð» Ð¸Ð·
ĠÑģ Ñĩ
ge b
Ġx Ã£
4 2
ĠÑįÑĤ Ð¾Ð¼
è ĳ
Ġwid th
Ġtak Å¼e
ĠW ie
ĠU hr
ÐµÐ½ Ð¸Ñİ
ãģ¨æĢĿ ãģĦãģ¾ãģĻ
ãģ® ä¸Ń
33 5
Ġlo ve
Ġs w
Ð°ÑĤ Ð°
r or
ĠÐ¿ÑĢ Ð¾Ð³
ant en
Ġques tion
æŃ £
» ¿
Ġrequ ire
u jÄħ
ĠÑĢ Ðµ
Â «
O K
w ays
Ġwy k
ĠT re
v ing
ne y
Ġn áº¿u
ĠP i
å³ ¶
tr z
è³ ª
it ura
ãģķ ãģĽ
ig lia
ze it
ĠMad rid
Ã ¸
om i
Ġmel hor
us to
ãĥ³ãĤ º
6 9
hn en
Ġ6 8
èº «
Ġc ung
ĠM á»¹
y o
Ġ ãģ¨ãģĦãģĨ
ÑģÐº Ð¸Ðµ
Ġtem ps
Ð°ÑĤ Ñĭ
ĠJa hr
ãģ® æĸ¹
ĠC amp
Ġp ob
Ġg el
L A
Ġo hne
Ã °
ÑĢÑĥ Ð¿
Ġr iv
Ð½ Ð°Ðº
ĠV o
Ġãĥ Ģ
Ġpre mi
ãĤ¹ ãĥĨ
Ð¾Ð± Ñī
c in
Ġch eck
ĠÐĺ Ð½
Ġz am
g in
é ¦
áº¯ p
zie j
ĠP ort
ed i
Ð¾ÑĢ Ð¾ÑĪ
ig a
ĠÐ°Ð² ÑĤÐ¾Ð¼
Ġ7 8
Ġg ut
ĠS ur
Ġh u
Ġgrand es
ok o
Ġch áº¿
Ñĥ ÑģÑĤ
Ġè ¦
Ġk ole
ç½ ®
ĠÐ¼ Ð¾Ð³
Ð°ÑİÑĤ ÑģÑı
Ġad v
c os
ÐºÐ° Ñĩ
Ġwh ile
Ġmod el
ãĤ ®
åı¯ èĥ½
ĠT od
ia ÅĤa
Ġ) {
Ġte x
Ġm ich
ĠT P
ĠÄĳ Ã¡nh
pp ing
ĠÐ²Ñĭ Ð¿
ti es
Ġç ī
ĠN ot
ĠN Ã£o
ĠRe p
é§ ħ
Ã¡ y
Ġvol ta
our ce
Ġch ang
ĠB al
èª ŀ
çĬ ¶
Ġst art
ĠL ong
Ġu Å¼y
il o
Ġwe iter
Ġgl ob
acy j
Ġvá» «a
Ġh Ã£
ta il
Ġs ÅĤ
Ġdiff ic
£ i
Ġn ell
te k
im enta
Ġat tra
ĠSt ar
ĠM at
ars i
Ġspe cial
ç ¢º
ĠH om
Ġar ti
Ġen f
ä¸ »
ĠÑĢ ÐµÑĪ
ĠIn f
ĠL iv
Ð¾Ð· Ð´
Ġå ¾
Ġim age
ic an
7 3
Ġro om
ÑĢÐ° ÑĦ
Ġquy áº¿t
Ð½Ð¸Ðº Ð¾Ð²
li k
Ġãģ ķ
Ġa h
Ġper d
ĠãĤ ¸
Ġlav oro
Ġre ally
er w
ç ı¾
Ġdo po
ãĥ³ãĥ Ĩ
Ġ6 00
ãĥĹ ãĥª
ĠÐ¢ Ð°Ðº
itt le
Ġpar e
Ġgar anti
ite d
ti er
c je
sk ie
ÑĥÑĢ Ñģ
t w
ĠCh i
ãģ¦ ãĤĤ
Ã©l Ã©
at her
Ġpros titutas
ĠM en
Ġtra va
ä¸ ĸ
Ã¼ ss
Ġ9 8
Ġpro b
ĠÐ¿ÑĢ Ð¸Ð¼
Ġ: #
ĠÄĳ áº·t
U B
Ġs ido
Ġs um
Ġl á»ĭch
ĠS en
á»± a
Ġgi áº£m
Ġa round
ĠS tre
ãĤį ãģĨ
Ġil s
Ġch Æ¡i
ĠP AR
n ing
ist ro
Ġcom ment
ta ch
I Z
ĠR E
ÅĤÄħ cz
Ġk l
iz ia
ĠÑģ ÐµÐ±
ĠÐ² Ð¾Ð´
Ġc ie
Ġn á»Ļi
ç· ļ
ä» ĸ
ÑĮ Ñİ
ĠÐľ Ð¾ÑģÐº
Ð ¤
è Ħ
Ġ200 4
ĠrÃ³w nieÅ¼
y r
ina tion
Ġdiffer ent
Ġd ÃŃa
Ġc are
f ico
Ġ ÅĤ
ĠB et
Ġdá»± ng
cu la
Ġproble ma
Ġ, .
pe ti
ãģ¨ ãģĭ
Ġãĥ» ãĥ»ãĥ»
ÅĽ l
ia da
Ġins p
Ð»Ð¸ Ð²
ĠB el
ul i
åĻ ¨
Ġal go
la ge
ĠÐŁ Ð¾Ð´
olog ie
Ġf ri
b es
Ġm ic
id i
ĠNg uyá»ħn
Ġpro ces
Ġpra w
al o
k iem
Ð» ÐµÐ¼
ont ra
Æ°á»£ t
ĠF am
ÑħÐ¾Ð´ Ð¸Ð¼
ĠãĤ ¿
ĠAr be
ĠÐ´ ÐµÐ½ÑĮ
ap a
Ġi tem
ĠD own
ĠB á»Ļ
Ġter min
áº± m
ĠãĤ »
Ġop in
Ġna p
ĠÃ©ta it
ãģı ãģª
Ġtá»ī nh
Ġ ub
Ġpr ix
Ġre ci
ĠAr ch
Ð½Ð¸Ðº Ð¸
Ġ6 6
Ġparti cip
il es
Ġt am
ĠL in
ÑİÑĤ ÑģÑı
ĠL oc
al er
Ġg as
Ġd ess
Ġvi ol
Ġng ay
Ã¤n d
Ġt iáº¿t
C E
ĠM et
ĠÐ¿ÑĢ Ð¸Ð²
ĠT ro
Ġlá» Ŀi
Ġdown load
ĠÐ¾ÑĢÐ³Ð°Ð½ Ð¸Ð·
um b
ãĥ³ãĥ Ĺ
Ġnh anh
Ġposs ibil
Ġaut om
qu i
if ic
Ð¾Ð² Ð°ÑĤÑĮ
h and
Ġtu á»ķi
we en
5 8
wiÄħ z
Ġ ãģŁ
Â ±
ĠÐº Ð²
ï½ Ĺ
Ġx xx
æ ¼
ĠÐ±Ñĭ ÑĤÑĮ
Ġw iel
00 00
Ġt ip
h ol
Ġas ÃŃ
ĠGes ch
Ġb Ã¬nh
Ġkh á»ı
áº· ng
ĠÂ ¨
ĠH ar
9 44
ĠrÃ© g
ĠC ur
O B
ĠM ens
ch ni
ç´ ł
ĠÐ¼ Ð°Ð³
ĠDon na
tiv itÃł
ï¼ ĵ
fa hr
Ġãĥ Ļ
Ġcon se
Ġmul ti
Ġh Ã¡
o o
z es
cel ona
ĠÑģÐ» ÑĥÑĩ
Å¼ a
Ġpier ws
Â °
ĠÐ±Ñĭ Ð»Ð¾
ĠV ous
Ġâĸ ł
ĠT en
åĮ º
r zy
Ð¾Ð¿ÑĢ Ð¾Ñģ
Ġanc ora
s ter
Ġfun cion
ĠThe y
Ġh im
ãĤ¿ ãĤ¤
ãĥĥ ãĤ°
ĠÐ¿ Ð¾Ð½
p tem
ĠÑĢ ÐµÐ·
Ġmay or
ĠÐ¿ Ð¾ÑĢ
ĠÄĳ áº·c
ĠM ul
ĠO c
Ġph á»ĳ
d es
çŃ ī
Ġs á»©c
Ġf ull
Ġg ente
ĠÐĴ Ñģ
ãģª ãģĮ
ES T
ĠP u
ut to
ĠÐķ ÑģÐ»Ð¸
ĠÂ £
os i
co unt
ĠÐ¿ÑĢÐµÐ´ ÑģÑĤÐ°Ð²
ĠÐº Ð°ÑĩÐµÑģÑĤÐ²
Ġlu Ã´n
and s
ĠSe x
Ġc it
å¸ ¸
ĠÑĩÐµÐ»Ð¾Ð² ÐµÐº
Ãĥ O
Ġst or
Ġartic le
h ar
ĠBl og
ĠB ro
Ð½ ÐµÑĤ
ĠU l
çļĦ ãģª
Ġz ar
gu a
ĠA p
Ġs av
T C
Ã¡r ia
ra z
Ġparti ci
Ġmont h
Ġh Æ°á»Ľng
Ġngh á»ĩ
Ġz m
Ġæ Ń
åĪ Ŀ
ĠÐ²Ð¾Ð· Ð¼Ð¾Ð¶
åħ ¬
ĠÑĢÐ°Ð· Ð²
Ġenv ir
Ġava ilable
ĠTe le
ãĥ¼ãĥ Ĺ
Ġï¼ ı
Ġal tri
ĠW i
Ġus ing
v as
ul s
ĠÃ Į
Ġde pu
an ow
Ġc y
ĠF eb
Ġr end
ĠÐ· Ð°Ð´
Ġproble m
Ġor e
Ñĥ Ð»Ñı
Ġpro ced
pr ise
Ð¸Ð½ Ðµ
Ġkh Ã³
Ġç Ħ
Ġf uer
Ġpo int
á» ĥ
Ġb ed
ĠÑĦ Ð¾ÑĢÐ¼
Ġpers ona
Ġtr y
Ðµ ÑĦ
Ġce le
Ġc at
ĠÐ±Ð¾Ð» ÐµÐµ
por te
ãĤŃ ãĥ£
ri ve
Ġf ur
ĠF em
Ġb oth
is i
ĠÐ¾ ÑģÑĤ
å ²
áº· p
Ġperson as
ĠT y
ĠÐ¼ Ð½
Ġpres ente
ĠWh at
Ġp un
Ġw el
Ġg Ã©n
Ġ": {"
Ġweb site
è² »
z ec
Ġb Ã³ng
Ġth anh
h ec
ĠÐ²Ñĭ Ñģ
Ġx Ã¢y
Ġb áº¯t
Ð°Ð¶ Ðµ
å¤ ©
Ã¤ s
Ġcos a
ill es
Ġnatur al
c ou
ĠÄĳ áº¡o
Ġm á»įi
v in
ĠÐ· Ð´
v id
Ġd entro
ãģ® ãģ§ãģĻãģĮ
ãģ£ ãģ
Ġå ¼
ff en
Ð¼ ÐµÐ½ÑĤ
ment os
Ġfin an
Ġeff ec
ÄĻ d
Ġte j
ĠC ity
Ġth áºŃt
ti ce
ĠCon ta
en ne
cz as
ĠS pe
ĠR oma
Ġz ona
ir m
w et
Ð¾Ð² Ð°
Ġon de
Þ ¬
ĠæĿ ±
Ġnh á»ı
Ġcontin u
k ty
Ġv ec
Ġle ft
Ñı Ð´
ed es
em p
ad en
Ġre con
or do
Ġarr iv
Ġtr ue
Ġj ego
Ġph p
Ġsec ond
Ġso us
Ġsp ra
am en
Ġæ ¥
ĠÑģ Ð¸ÑģÑĤÐµÐ¼
Ġa Ã±o
ri as
ĠU ne
å¼ ·
Ġle v
Ġequ i
Ġ. -
ÑĤ ÑĢ
ãģ«ãģª ãģ£ãģ¦
Ġim pr
å ĩ
ÑģÐº Ð¸Ñħ
H o
ĠâĢ ĭ
us es
all en
è ı
Ð¾Ð± ÑħÐ¾Ð´Ð¸Ð¼
er to
om en
Ġmater ial
ou d
iáº¿ m
Ġ25 0
in ts
Ġre mo
Ð¿ÑĢ ÐµÐ´
oss o
çµ Ħ
6 3
Ġd in
Ġex c
ĠEs pa
Ġtrabal ho
Ġsh ort
C O
is o
Ġv ari
Ð¸ Ð½Ð¾
æĿ Ĳ
Ġre p
Ġma ior
Ġcomp l
pl ic
Ġb ag
Ġw ord
ä¾ Ľ
Ġk le
ĠP an
áº« u
Ð» Ð°Ð¹Ð½
Ġh ace
Ġt ag
Â ¶
one y
Ġv ita
Ġli ve
ir l
ab y
ĠG ru
Ġf ond
ti le
k m
er ca
ti ge
é Į
çĦ ¶
Ġn á»¯
ĠM u
ind i
ĠÃ ¦
fÃ¼ hr
ĠÄĳ Ã¡
ĠNew s
tic s
ĠmÃł u
ĠÐĿ Ð¾
åĪ ¶
Ġtá» Ń
Ġm áº¡nh
Ġza w
Ġdoc ument
ĠI ng
æµ ·
it Ã¤t
ĠÑģÐ» ÐµÐ´
Ġbet ween
áº¡ y
ĠÐ· Ð°Ð¼
ie le
ac je
4 9
Ġn elle
ĠUn d
ĠiP hone
ti e
Ġs ize
Ġfoll ow
ĠM ont
Ðº ÑĢÐ°
:: ::
Ġthu áºŃt
Ġr est
ĠDe utsch
ation al
ĠÐ¾ Ð½Ð¸
ĠÐ¿ÑĢÐ¾ ÑĨ
Ð Ĺ
ãĥ³ãĥ ģ
Ðº Ð°Ð·
Ġs till
Ġw or
el es
ãĥ¼ãĥ ĸ
Ġn Ã©
ãģķãĤĮ ãĤĭ
k ich
ĠPa ulo
ĠN ous
ÃŃ t
ĠÐĲ Ð½
Ġpor ta
Ġl ec
is m
éĥ ½
Ġp at
ĠãĤ ¦
** **
as i
U D
Ġ] ,
0 1
Ġn ich
c am
Ġc ro
in te
ĠD en
pp er
Ġam or
s h
ãģ¡ ãĤī
æĹ¥ æľ¬
ĠK l
ãģĶ ãģĸ
Ð¸Ñı ÑĤ
Ġaut oma
ĠD V
Ġnh Ã¬n
Ġ ãģ«
ĠãĢģ ãĢĮ
âĢ ľ
A V
Ġl ic
ĠJo hn
Ġcomp any
vol v
Ġz ab
Ġle arn
ĠW ith
Ġm nie
Ġæ Ĭ
Ġdes en
å¸ ĥ
um enta
oc o
Ġse lec
Ġcon tr
ÐµÑĤ Ñĭ
\ /
Ġv áºŃt
Ã ľ
Ġdo ve
á»« ng
ĠÃ ¥
j our
ĠãĢ ľ
is ation
z zi
Ġpop ular
Ġg áº§n
ier o
b el
Ġd ost
ãĤī ãģĦ
am in
ÑĮ Ñı
ĠW as
N E
ier ung
ÑĤ Ðµ
åı °
ra d
Ġj un
Ġh app
ĠCh o
Ġhor as
ĠG ia
Ġis s
Ġ" ).
) )
ĠâĢ º
Ġsm art
ĠE L
op e
ä½ ı
Ġav oir
Ġpol i
ĠEs c
Ġencon trar
ä½¿ çĶ¨
esz cze
ĠV ia
Ġserv i
Ġ< /
b um
ĠÐ¿ÑĢÐ¾Ð¸Ð· Ð²Ð¾Ð´
te c
ĠD av
p ond
á»ķ ng
Ġ( );
Ð¼ Ñĭ
Ã¡ tica
ul es
ĠÐ¸Ð¼ Ðµ
Ġká» ³
ĠÑĩ ÐµÐ¼
Ġph Ã¢n
Þ ª
iz a
Ġn Æ¡i
åħ ·
Ġb Ã©
ier z
tiv es
ÐµÑģ Ð¿
ĠCas a
Ġtá» ·
Ġ8 00
Ġma ch
F F
Ġ ãģª
ti me
ãĤ³ ãĥŁ
è£ ħ
Q U
Ġâ Ī
Ð°ÑĢ Ð¸
Ġb ere
Ġquy á»ģn
I B
ici os
åİ Ł
ä¾¡ æł¼
ob il
4 1
Ġal ta
U P
Ġs ic
Ġph á»¥c
ing u
Ġb á»Łi
ÐµÐ½ Ð½ÑĭÑħ
Ġ3 D
Ġposs ible
Ġjedn ak
eng th
G B
Ġe mail
Ġquel lo
ins i
Ġsu as
Ġk n
Ġt inh
m on
ĠÑĥ Ð²
hal ten
Ġke ine
ãĤ ¡
Ġh áº¿t
Ġ9 7
Ġinf o
ĠI P
Ð¾Ð² Ð¾Ð¹
f ts
Ġj ul
Ġb Ãłn
Ð°Ð½ Ñģ
ĠG R
Ġb iáº¿n
ac zy
Ń Ĳ
ĠB Ã¬nh
ĠS anta
ĠÐ¿ÑĢ Ð¾ÑĤ
Ġ] .
Ġw ind
Ġ' ).
ãĥ© ãĤ¹
Ġv Ã´
ãģ ²
ĠPar k
ish ed
Ġï¼ ĳ
Ġv iew
uch t
Ġå ī
Ġag gi
es tiv
ãģĹãģ¦ ãģĦãģ¾ãģĻ
ar se
ĠÐ¿ Ð¾Ð¿
æĦŁ ãģĺ
s on
ĠÎ Ķ
IC A
Ġp unto
Ġta x
Ġtá»¥ c
ĠAc c
Ġph á»¥
ĠPro gram
Ġç Ļ
Ġr if
Ġten er
ĠL ie
Ġw ater
Ġcom er
Ġdz iaÅĤ
ĠÑģ Ð´ÐµÐ»
Ġdies er
ĠB R
ÑģÑĤ ÑĢÑĥ
Ġm uss
ĠA B
å½ ¢
p f
Ġn at
ir as
no va
Ġth ay
j al
cha ft
ĠS ant
ĠC op
ãģ¨ ãģĵãĤį
Ġmar ca
Ġz naj
Ġbu ild
Ġ01 68
ab ile
78 46
Ð¾Ð½ Ð¾Ð¼
ĠW a
Ð¾Ñģ Ð¾Ð±
Â ³
æĪ ¦
Ġ100 0
ÃŃ o
Ġcon ven
Ġæ ī
ĠJ os
ill er
Ġter ra
åı ·
97 67
Ġb ie
Ġex ist
79 66
b urg
S E
Ġv ÃŃ
li que
ĠM inh
ĠÐ½Ðµ Ð¾Ð±ÑħÐ¾Ð´Ð¸Ð¼
Ġvia g
c Ã³w
Ġtr iá»ĩu
ĠÄĳ Ã¬nh
ĠÐ± ÑĢ
sk iej
Ġch á»©ng
5 6
P R
ãĥĸ ãĥ©
ĠâĦ ĸ
Ġm em
Ġtr á»£
ĠMar ia
335 17
bo ok
Ġ03 7846
Ġ03 944
Ġ07 7966
im os
ch io
Ġt on
Ġ03 9767
Ġ03 33517
Ġ0168 27
ĠÐ¸ Ð³
Ġs Ã¡ch
Ġprof es
ass er
ãģ§ãģĻ ãģŃ
è ĭ
ĠÐ¿Ð¾Ñģ Ð»Ðµ
ĠM ai
jÄħc ych
Ġb in
Ġåħ ¨
ka ch
ãĥŃ ãĤ°
åı İ
ĠDE L
M A
ac o
Ġv ista
Ġm áº¹
ig os
Ġl áºŃp
ĠãĤ ±
ir s
Ġcer ca
ãĥ¼ãĥ ĵ
l us
Ġs en
ĠÐµ ÑīÐµ
ĠB or
Ġfam ily
ĠÎĶ E
Ġtu do
Ã´ tel
k ol
IN E
ÃŃ an
ĠÑĤ Ð¾Ð¼
Ġpo i
or ie
is er
çĽ ´
ãģ© ãģĨ
Ð² ÐµÑģÑĤ
Ġb om
Ġto t
ĠL E
Y W
ĠE U
m io
Ð· ÑĭÐ²
ien s
Ã³ p
Ġg egen
or so
cu p
en ze
Ġh ard
Ġda v
Ġcas e
row ad
å¿ħ è¦ģ
ĠB ew
å§ ĭ
ĠR io
Ġto o
ĠÐ¸ ÑģÑĤ
Ġn ature
ing en
ĠÐłÐ¾ÑģÑģ Ð¸Ð¸
æ± º
uts che
Ġpe ti
Ġse i
Ġb er
Ġe lectr
Ð» Ð¾Ð¶
ing er
Ġdi r
x imo
Ãª te
ĠÑĤ ÐµÑĢ
Ġpos i
Ġdi f
Ġfat to
Ġexperien ce
èª Ń
Ġre l
çļĦ ãģ«
k tu
Ġb ou
Ġa ver
ãĥ³ãĤ ¸
w id
Ġv el
Ġesta do
ros o
Ġro b
j m
Ð¾Ð¶ Ð´
iáº¿ c
Ġins titu
ĠA G
Ġsi ti
Ġorig inal
a ut
Ġfe el
Ġm iá»ħn
ĠD O
Ġper chÃ©
ĠS ystem
v ier
ent lich
Ġap enas
Ġapr Ã¨s
ub le
Ġk s
Ġpropr io
ĠFor m
ĠT est
Ġ200 3
Ġsob ie
Ġeff et
Ġuns er
iet Ãł
Ġn á»¯a
Ġn Ãºmer
ãģŁ ãģ¡
Ġin con
un de
ra ft
ÑĢÑĥ Ð·
Ġout ros
Ġm ac
Ġsem ana
Ð°Ð½ Ð°
Ġ à²
ĠL ond
ĠP ub
ag n
Ġc en
Ñı Ð±
az z
Ġmis mo
Ġdon c
auf en
è ĸ
ĠI T
Ġd á»ħ
ãģª ãģĭãģ£ãģŁ
Ġå ¯
Ġgo ing
Ġt Ã©cn
Ġsta te
ç ¯
Ġenc ore
ĠI hr
ĠD em
Ġc res
Ġim ages
for me
ers e
è ·
Ġp atr
Ġ\" :
å ©ļ
Ġes se
Ð°Ð» Ð¾
M T
Ġsp raw
Ġpow er
Ġdi á»ĩn
ç ¸
ÐµÐ½ Ð¸
ol are
ãģĵãģ¨ ãģ¯
p ut
te go
ĠS he
Ġvá» ±c
ĠÄĳ Æ°a
Ġv iáº¿t
Ġne ws
è Ĭ
Ġein fach
D A
Ġmom ent
sta w
è ĩ
ĠÑĤ Ð¾Ð³Ð¾
Ġãĥ ī
ie ty
ont ro
ĠãĤ Ħ
Ġng uyÃªn
Ġnh áºŃp
Ġinde x
çĻ »
åĪ© çĶ¨
ĠÑĥÑĩ Ð°ÑģÑĤ
ÅĽ nie
ĠA ud
ĠF ree
ãĥķ ãĤ£
ĠÐ° Ðº
Ġl ud
Ġï ¾
ãĤ ²
iem pre
Ġãĥ Ŀ
ĠEuro pa
Ä© nh
Ġi hre
iv i
é ¤
Ġg Ã¢y
Ġhe ad
Ġse a
ent ra
Ġg dy
Ġl leg
r Ãł
Ġb ras
ĠBe i
ĠÐŃ ÑĤÐ¾
ĠJ es
ĠN áº¿u
ĠR os
Ġnghiá»ĩ m
ãĥ¥ ãĥ¼
w ier
Ġdis play
Ġr im
tell t
I d
ãĤ¤ ãĤ¯
Ġnum ber
ĠL uc
Ġo ld
i ÃŁ
ĠÃ ĳ
Ġo tros
tr ut
li wo
Ġt iÃªn
Ġman if
Ġor der
Ġaqu i
zion ale
a ire
Ġ> >
Ġâĺ ħ
Ġinter es
Ġcur rent
Ġch ung
áº£ y
Ġhe alth
ce pt
æ Ĵ
ĠI hre
ÐºÐ°Ñĩ Ð°ÑĤÑĮ
Ġdi á»
ĠÐ¿Ð¾ Ñĩ
ĠW hen
n el
Ñĥ Ð²
Ho tel
f re
Ġl ight
Ġfir m
Ġje j
ic ato
Ġch iáº¿n
enti al
ãģªãģĮ ãĤī
Ġhab it
Ġsp os
ãģĺ ãĤĥ
Ġf ew
å ĴĮ
Ġab y
b all
Ġs ay
ib les
b et
ĠV i
ĠÑģÐ¿ Ðµ
il ar
ãĤ ©
Ġpre fer
tor es
Ġempres as
Ġloc ation
Ġh al
ãĥ³ãĥ Ģ
åħ ĥ
Ġoper a
é¡ ŀ
th ing
ĠV Äĥn
ĠW ars
Ð½Ð¸Ðº Ð°
Ġb á»ı
il lo
ĠÐĶ Ð»Ñı
b ack
Ġhe ight
zy ch
S S
ĠÐ¾Ñģ Ð½Ð¾Ð²
Ġag osto
Ð¾Ñģ ÑĥÐ´
Ġm iesz
ut os
re z
Ġé Ŀ
r ich
ĠM á»Ļt
ĠGr and
Ġå° ı
Ð¾Ñı Ð½
Ġæ µ
èĤ ²
it ori
Â ¾
ha us
Ġpro jet
k le
Ġcor r
Ġp ur
ÑĢ ÐµÐ´
ĠMuj eres
ob ile
Ġs Ä©
Ġne xt
ÐµÐ½ Ð¸ÐµÐ¼
Ġãĥ ģ
Ġr Ã³Å¼
ĠAnd roid
b s
Ð½ ÐµÐµ
Ġj eszcze
an iem
Ġdiá» ħn
Ġc all
ç¨ ¿
Ð³ Ð¸
ĠÃ ļ
Ġï »¿
Ġresta ur
re f
ĠÐ»Ñİ Ð´
vol u
Ġide a
æ³ ¨
Ġest Ã¡n
Ġad ap
Ġk iá»ĩn
ĠÐ¾Ð½ Ð»Ð°Ð¹Ð½
d zy
w al
en en
Ġpartic ular
Ġdi as
z na
Ġt Æ°á»£ng
ĠA T
ĠÐ½Ð° ÑģÑĤ
Ġda te
Ġv in
Ġmerc ado
Ġf ine
Ð°Ð» Ð¾Ð³
Ġcons egu
æľ ¨
Ġvá» ĩ
Ġt Ãªn
ĠEn tre
tor ia
Ġtit le
Ġ7 7
å ¡
N A
v an
un es
Ġho a
Ġess a
Ġcon di
ĠS ub
Ġlá» £i
emb ro
Ġãģ Ķ
Ġle vel
ĠIB _
Ġinclud ing
em Ã¡s
Ġdu ra
Ġh ot
ĠÑģ Ð¾ÑģÑĤÐ°Ð²
ĠBl ue
ĠN r
ÐµÐ½ Ð½ÑĭÐµ
Ġr ip
Ġim ag
ĠÐľÐ¾ÑģÐº Ð²
Ġkh iáº¿n
Ġo Ã¹
Ġoc cas
Ġl Ã²ng
c ul
Ġcos Ã¬
em ble
Ġsit ua
Ġ6 3
æĿ ±
A d
Ġsm all
Ġfe ira
ĠA le
Ġtro v
jo y
ĠÐŁ ÐµÑĢ
ĠÃ§ a
Ġph im
ĠE duc
ĠÐ¼ Ð¾Ð´
ĠÄĳ á»§
ĠÐ¿ÐµÑĢ ÐµÐ´
ĠÐ´ ÐµÐ¹ÑģÑĤÐ²
c an
Ġ6 9
ĠÄĳá» ©
g g
Ã¹ a
Ġfo und
Ġcand id
å »
Ð¾Ð» Ñı
ta ils
bo x
k te
er ic
Ġmon do
Ġå º
ti ci
ol as
Ġãĥ Ł
çµ Ĥ
ĠÂ ¦
ĠEsta do
Ġfam ili
Ġg iv
ent re
ĠM A
Ġc iv
z ar
ter i
Ġj ug
gra ph
Ġat ten
am entos
ãĥ¡ ãĥ³ãĥĪ
Ñ ĸ
ãģ¨ ãĤĤ
Ġinte gra
as ta
Ġt ab
ĠM ess
Ġen cu
im entos
Ġpra cy
c rit
Ġwith out
ãĤ· ãĥ£
Ġr ig
ĠNh á»¯ng
ĠÑĤ Ñĭ
Ġm inh
Â ¢
ec ta
s ze
ĠT our
Ġdo ch
Ġest Ã£o
ĠCom e
ĠCent ro
o x
ĠT om
Ġc ard
Ġpro per
Ġcre d
a a
ĠS et
ĠI de
ĠG ran
Ġk iáº¿n
ĠÐ° Ð´
ra it
ti gen
ĠÐº Ð°Ð¶Ð´
ãģ¾ ãĤĬ
on ie
us am
Ġlar ge
Ġde ix
ar do
Ġcon fer
ÑĢÐ° Ñī
Ġmus ic
ĠN ike
ĠgiÃ¡ o
é ¢¨
Ġd nia
ĠCl ass
ib e
ow ym
â Ķ
Ġaut re
Ġal ways
ĠÐº Ð°ÑĢÑĤ
ĠÐ¸Ð½ ÑĦÐ¾ÑĢÐ¼
ĠÐ² Ð¾Ð¿ÑĢÐ¾Ñģ
Ġth ree
¥ ¿
æ ¶
Ġrec ord
l ung
Ġmu cho
Ġnuo vo
Ġdeter min
ĠUS D
Ġtá»« ng
Ġn ome
Ġw on
ĠNa cional
ãĥķ ãĥĪ
out h
ed eral
un ter
Ġfo is
Ġl ittle
Ġpos ition
Ġdr ug
ĠÑģÑĤ Ð¾
Ġco ok
Ġc ode
Ġch er
Ġ `
Ġa plica
ĠAr g
¡ ng
ĠL ED
ĠÑħ Ð¾ÑĢÐ¾ÑĪ
ĠY ork
ne a
Þ ¨
Ġe c
Ġw ÅĤa
Ġal tro
ra c
ir d
ĠM AR
is z
Ġt as
ĠNh Ãł
ra t
ĠÐº Ð¾Ð³Ð´Ð°
Ġtra ta
Ġch uyá»ĩn
U C
Ġsp ot
Ġcol la
ĠC zy
z as
Ġalter na
Ġp en
ãĤģ ãĤĭ
Ġpro grama
ĠÐ¿ÑĢ Ð¾Ð±
ĠO ur
ĠÐ» ÑĥÑĩÑĪ
ĠÃ© gal
ch te
ĠÑįÑĤ Ð¾Ð³Ð¾
ĠRe al
ĠF otos
ĠãĤ °
Ġj og
ĠC L
Ð¼ Ñĥ
á» ģ
qu ier
i ar
Ġc Äĥn
or ta
6 2
Ġsp o
ĠMa x
en ces
ĠM erc
ãģĦ ãģĨ
Ġem o
ĠP H
Ġ ãģ§
ĠBo ok
Ġc á»Ńa
ĠAma zon
Ġ8 3
ĠÄĳ Äĥng
Ġ: :
ãĤ¿ ãĥ¼
Ġpr ice
ib lio
M S
Ð½ Ð¸Ð¼
pos ta
Ġsu re
ï¼ ķ
Ð° Ñİ
ãģª ãģ®ãģ§
ĠOr gan
Ġ6 7
Ġf oc
Ġav ant
Ġre cu
èŃ ·
è¡ ĵ
ĠâĹ ı
Ð¾Ð²Ð°Ð½ Ð¸Ðµ
w ad
ĠT uy
ç ²
r ier
ĠÐ±ÐµÑģ Ð¿Ð»Ð°ÑĤ
éĮ ²
Ġre du
æķ Ļ
ĠÄĳ a
ãĥ© ãĥ¼
Ġcons truc
Ġcas ino
ãĥ³ãĤ ·
Ġes o
ĠÅ ģ
Ġs ym
ĠM ot
en h
ĠW orld
Ġc um
Ġè ª
ĠÐ±Ñĭ Ð»
èģ ŀ
ãģĤ ãģ£ãģŁ
ï¼ Ī
Ġpe w
Ġra c
ÃŃ p
Ġval ue
Ġh iá»ĥu
Ð¾Ñģ Ð¿
âĢ¦âĢ¦ âĢ¦âĢ¦
Ġsar Ãł
ĠÐ¼Ð°Ð³ Ð°Ð·
ĠÐ´ Ð¾Ðº
Ñį ÑĤ
ĠÐ² Ðº
Ġby ÅĤ
Ġbas ed
Ġnorm al
ÐµÑģÑĤÐ² Ð¾
ĠDown load
Ġtr uyá»ģn
n d
Ġd od
Ġf ace
iz ioni
sch a
ĠS C
å® ¢
ĠÐĲ Ð»
d Äħ
Ġdes ta
åı Ĥ
k es
Ġpro get
ĠF ab
åĬ ¹
â ĺ
Ġpr ess
iÄĻ dzy
Ġé ĸ
Ð¾ Ñħ
ĠÐºÐ¾ÑĤÐ¾ÑĢ ÑĭÐ¹
Ġda i
Ġbe im
ica tions
ĠwiÄĻ cej
Ġc ad
Ġs zy
Ãª ng
tu aliz
Ġb uy
Ġass ist
åķ Ĩåĵģ
ķ Ĩåĵģ
ķ ç¨¿
ĠÐµ Ðµ
am ent
Ð»ÐµÐºÑĤ ÑĢ
ĠÐ½ ÐµÑĤ
Ġ7 2
ĠP ass
ĠB il
ĠS ing
ãģ« åħ¥
g ed
Ġm ust
Ġg ay
pres ent
or ge
m ann
i Äĩ
Ġc á»ķ
ĠQ U
ĠKh Ã´ng
ne hmen
è¶ Ĭ
war z
Ġf el
ĠB est
åħ ī
Ġmá» Ĺi
ãĤ¤ ãĥ³ãĥĪ
Ġby ÅĤo
on ia
Ġf eb
ci Äħ
Ġg odz
Ġ' '
ĠApp le
Ġtraba jo
ĠCl ub
Ñĥ ÑģÐº
re m
Ġãĥ Ĩ
Ġen ti
gra f
ĠçĦ ¡
rÃ³ d
ĠPl an
al y
Ġass im
5 3
ĠM el
vo ir
Ġcr Ã©
ãģ£ãģ¦ ãĤĤ
ãģĵãģ¨ ãĤĴ
ĠW ill
ãģ» ãģ©
ĠD ur
ny mi
Ġmod er
ĠÄĳá»Ļ i
ÑĥÑĤ ÑĮ
Ġtut te
Ġdes e
ĠN et
Ðµ ÑģÑı
ĠÐ· Ð°ÑĢ
po is
æĦ Ľ
ĠF u
ÐµÑĤ Ðµ
Ã§ as
wa Å¼
Ġpr imo
k tor
Ð°Ð»ÑĮ Ð½ÑĭÐ¹
Ġb amb
Ã Ļ
Ġqu áº£n
Ðº Ð¾Ð¼
x ico
ĠN ap
ĠÑĤ Ð¾Ð²Ð°ÑĢ
Ġabs ol
Ġtem per
ĠP ed
ĠG ew
Ġar tis
Ġs ito
Ġdur ing
ĠV illa
ãĤī ãĤĮ
ar k
Ġein es
ĠF Ã¼r
Ġw i
Ġnav ig
n ers
Ġqu em
Ġus u
Ġimp ro
Ġke ep
Ġk g
5 1
g ht
¼ åħ¥
Ð¾ÑĢ Ð¾Ð²
et ro
an ze
ãģ¡ãĤĥ ãĤĵ
Ġde p
æ® µ
ãģĿ ãģ®
ÑıÑĤ ÐµÐ»ÑĮ
Ġcá»© u
n s
Ġd Ãłi
ãĤ¯ ãĥª
ä»¥ ä¸Ĭ
Ġw rit
ost ra
Ġsab er
ĠT ar
¹ ä»ĭ
Ġtem por
ĠTh u
Ġdo is
ĠCh ina
Ġth ings
Ġh y
owe ver
Ġl ors
ĠO f
Ġd ont
a ve
ãĥĨ ãĥ«
ĠÐ²Ð¸Ð´ Ðµ
Ġph ong
Ġk Ã½
Ġbet ter
Ġpers one
v ille
I K
er d
Ġhá» ıi
ĠSt and
Ġ Ø
Ġng u
Ġfor am
ÃŃ cio
Ñı Ñī
Ġg ot
Ġb ad
ĠR em
ĠM Ã©
u da
ãĤĤ ãģĹ
in ed
Ġsigni fica
éģ İ
ãģĤãĤĬ ãģ¾ãģĽãĤĵ
Ġseg ur
Ġpr on
ic t
ir t
le ge
Ġtr á»±c
ĠÐļ Ð¾Ð¼
ĠI r
ad ora
Ġcáº£ nh
ĠA ustr
ĠÑģ Ð¾Ð·Ð´
ãģį ãģŁ
¯ u
ie f
çĶ ·
è¼ ī
åĥ ı
Ġ6 2
ãĥĲ ãĥ¼
ir it
roso ft
Ġè ¿
ãģ® ãģ§ãģĻ
Ñĭ Ð»
re ib
ra ge
Ñı Ð¼
Ġel se
Ġa insi
Ġp in
v or
ard i
Ġorig in
Ġmo ins
ĠJ ap
jÄħ cy
Ġcu enta
Ġå® Ł
ĠS to
æ ģ
ä»ĺ ãģį
ãĥ¼ãĥ ŀ
Ġv iene
Ġa ve
ĠÄĲ áº¡i
ff er
Ġqual ity
ĠF ern
v ista
5 7
k im
Ġå ·
Ġdzie ci
Ġbo x
Ġs iempre
ÐµÑĢ ÑĤ
ied y
ens ioni
Ġa per
Ġprov ide
ĠH ist
tor s
j ores
ĠD A
Ġu cz
ĠÐĲ Ð²
ãĤī ãĤĮãĤĭ
å¤ļ ãģĦ
Ġi phone
Ġch Ã¢n
qu ip
Ġ8 2
vio us
e e
éĢ ²
Ãº de
z ia
estiv al
ĠÑĢ ÐµÐº
Þª Þ
ĠC R
ĀĀĀĀĀĀĀĀ ĀĀĀĀĀĀĀĀ
ĠåĲį çĦ¡ãģĹ
ĠÃ© p
ti ques
ãĤĵ ãģ§ãģĻ
ĠD ig
ĠÃ ®
Ġthu á»Ļc
Ġsu is
Ġd ung
Ġch icas
5 4
Ġd an
b ers
p ec
ĠH igh
Ġo pport
Ġg anz
Ġpa ti
Ġgen eral
Ġb ay
0 8
¬ ĳ
Ġg est
Ð¾Ð» Ð¾Ð´
äº Į
ÐµÑĢ Ñĭ
ÐµÐ½ Ð½ÑĭÐ¹
Ġcons tru
ãĤı ãģĽ
ĠÐº ÑĥÐ¿Ð¸ÑĤÑĮ
áº¿ p
Ġdepu is
Ġcomun ica
Ġm á»©c
éĸ Ģ
ĠD ia
ES S
Ġgru po
ĠÐĲ ÑĢ
om as
Ġin ten
tis ch
ru p
ente mente
Ð½Ð¾Ð¼ Ñĥ
ĠO k
Ġan te
ĠN eg
Ġmod ern
ĠPor tu
Ġ7 6
ãģĦãģŁ ãģł
ä¸ ī
Ġg row
Ġdes ar
Ġc v
g as
ĠTh anh
ĠÐ² Ð°ÑĪ
éģ Ķ
ĠR od
æł ¡
è¿ Ķ
éĻ ¢
z cz
ĠW al
h op
Ġtem a
Ġa po
åĩº ä¼ļ
Â ¤
ĠÐ° ÐºÑĤ
ĠK r
èª ¬
ĠÃº n
Ġin tro
ĠNg h
ãĤĴæ Į
ĠÃ©gal ement
Ð³ Ð¾ÑĤÐ¾Ð²
T I
m el
ĠThe o
Ġre lig
è¶ ³
Ġnou ve
Ġkh ai
itt Ãł
Ġsc ar
Ġl Ã¡
ĠAut or
ze k
Ġci udad
Ġnue vo
Ġg em
ĠIn v
ĠI M
ĠAn n
Ġf ino
ãģ§ãģį ãģ¾ãģĻ
ãģĻ ãģĻ
Ġb il
ãĥ¼ãĥ Ĩ
Ġme ille
ãģ® ãģ«
éģ ĭ
ĠÑĦ Ð¾ÑĤ
ĠP ier
ont re
0 7
Ġm and
e le
} ,
Ð» Ð¾Ð²
ãĤĬ ãģ¾ãģĹãģŁ
Ġh ora
gr ess
ãģĮ ãģĤãĤĬãģ¾ãģĻ
ÑĦ ÑĦ
oles c
eg os
Ġcomp os
é¡ į
Ġre cher
ÑĨ Ñĭ
Ġqu Ã©
Ġab le
est re
og a
ç§ ģ
Ġå ¿
ç¨ ®
Ġm os
ĠB ad
r um
æĥ ³
ĠT ak
ĠD ans
Ġs Ã¡t
Ġprov id
ĠN E
ĠII I
il er
Ð¾ Ð½Ñĭ
Ð°ÑĤ Ð¸Ð²
ĠÐ· Ð°Ð±
ĠG io
Ġgiá»¯ a
Ġso ftware
å£ «
ĠâĢ »
omm es
duc tion
Ġm á»¥c
ĠC O
Ġ8 4
ãģĹãģŁ ãģĦ
we ise
ĠK le
Ð¸ÑĤ ÐµÐ»Ñı
ĠH y
Ġcon te
ÐµÐ½ÑĤ Ð¾Ð²
Ġser ie
Ġca us
re en
Ġmon de
äº ¤
Ġl ado
Ġn ego
ç´ °
ç§ ĳ
ãĥ¼ãĥĵ ãĤ¹
Ġkho áº£ng
Ġ9 6
Ð°Ð»ÑĮ Ð½Ð¾Ð³Ð¾
Ġide al
ĠÐ½ ÐµÐ¿
ĠÄĳá» Ŀi
abe i
ĠB áº¡n
Ġim g
ch l
çĻ ½
mi ento
ĠÐĿ Ðµ
ĠÐ¼ÐµÐ½ Ñı
um in
Ã¢ ng
ĠÑĢÐ°Ð±Ð¾ÑĤ Ñĭ
ãģĦ ãģı
ar ly
Ġn or
ni ki
Ġes tu
Ġd ra
Ġæ Ī
ĠÐ¶ ÐµÐ»
Ġse ja
eth ing
Ġw en
Ġn ut
Ġfor um
d r
Ġter rit
Ġor a
Ġå ĩº
á»Ń i
Ð¸ÑĩÐµÑģÐº Ð¸Ñħ
Ġsh are
h Ã¶r
ent ly
ĠM P
Ġl ung
ta j
Ġda ys
Ġe ing
iel en
w end
ĠÐ¾ÑĤ Ð½Ð¾
Ġf i
Ġch iáº¿c
ĠP ER
ĠMar ket
éŁ ³
Ġpop ula
¦ ı
?? ??
Ġj ob
Ġ' :
ad er
Ġres ult
ell er
Ġfind en
tis s
da te
ĠE v
Ġ ic
ĠÃ ħ
Ġinforma ciÃ³n
ĠÐ» Ð¸ÑĨ
Ġcam po
Ġs owie
Ġdon ne
Ġse par
Ġ" >
Ġe f
Ġa go
ĠF ar
ĠS pr
¿ Ģ
ãģ¨ ãģį
ell en
Ġqu indi
Ġwith in
ed or
ĠC la
ol Ã³g
ĠÐ³ Ð¾ÑĢ
ĠW enn
ãģĹãģ¦ ãĤĤ
ãģĹãģ¦ ãģĬ
pu Ã©s
Ð½ Ð¸Ð¹
Ġå ±
Ġgro up
Ġk osten
ĠPos ted
Ġ200 2
Ġç ¬¬
ĠÐ¿ÑĢÐ¾Ð³ ÑĢÐ°Ð¼
Ġma x
il t
Ġprocess o
ĠV in
âĢ¦ ]
le ase
8 7
ang er
Ġp ut
ĠÐ¼Ð°ÑĤ ÐµÑĢÐ¸
Ġæ° ´
Ġo pp
Ġb lo
Ġgo vern
ÐµÑĢ Ð³
\\\\ \\\\
ien za
ch os
Ġ% .
Ġè ¨
ÃŃc ulo
n it
æ ¡
è¨ ¼
m ie
Ð½Ð¾ÑģÑĤÑĮ Ñİ
ĠÐ³ Ð´Ðµ
ut h
Ġsing le
ç ĻĤ
ĠW est
u ge
Ġproduc ts
Ġcl ub
Ð¸ÑĤÐµÐ»ÑĮ Ð½Ð¾
ãĥ¼ãĥ Ĳ
ĠdÆ°á» Ľi
ane iro
Ġmarket ing
Ġe fe
Ġ11 0
Ð¸ÑĩÐµÑģÐº Ð¸Ðµ
v ie
r ia
un der
Ġè »
Ġt el
Ġminut es
Ġsta ta
Ġem bar
Ġ% )
ÅĽ wiet
Å ģ
Ġfun k
ĠBar celona
ig t
t kow
åĪ ¤
åĤ Ļ
ul ts
b res
Ġch ÃŃ
uy áº¿t
Ġé £
Ġgi ve
ĠÐŀ Ð´
Ð°Ð»ÑĮ Ð½Ð¾Ð¹
Ġdifer entes
ta d
ĠÑĢ Ñĭ
ÑĨ ÐµÐ½
Ġx Ã¡c
Ġnie z
ĠS om
ĠA lex
åĢ ¤
b on
Ì ĥ
Ġn á»ķi
ĠC ou
ĠH ow
ĠG eb
ç´ ¹ä»ĭ
Ð¾ÑģÑĥÐ´ Ð°ÑĢ
ĠX X
Ġfo od
ĠP el
Ġf ix
Ġ[ âĢ¦]
ĠR Ã©
ãģį ãģ¾ãģĻ
ĠAn ton
Ġdon n
zÄħ dz
Ġwy m
ĠI V
tel le
Ġ% ,
Ġd it
Ġnh iá»ĩm
ĠâĻ ª
" ,"
Ġcon tre
Ġv an
Ġ8 9
ãģĻãģĻ ãĤģ
Ð¾Ð» Ð¾Ð²
Ġ äºº
Ġchu áº©n
ĠE u
èģ ·
Ġc Ã¢u
Ġ18 0
Ġnost ro
Ġæ ł
ens ion
ĠÂ ¢
è Ĳ
u ales
ĠUS B
ter a
ala xy
Ġcons titu
Ġcer ta
om et
Ġqu ien
Ġch ange
ãĥĩãĤ£ ãĥ¼ãĤ¹
ĠJ un
Ġtr es
ĠJe an
Ġvo y
ĠÃ ±
he im
ĠÑģÐ² ÑıÐ·
ur t
Ġna wet
ĠnÃºmer o
T S
Ġp Ã¡g
re di
å¼ µ
ÅĤ as
un cia
èĳ ī
ĠÑħ Ð¾ÑĤ
Ñı Ð½
ä¸Ĭ ãģĴ
Ġg á»įi
ç¥ ŀ
or re
Ã³ i
ear ch
Ġg uer
Ġch á»ĳng
scha ft
Ð¼ ÐµÑĤ
es ter
Ġs top
b ed
Ġszcz eg
Ġk ar
èī¯ ãģĦ
Ġv aria
åĢ ĭ
ĠPa ul
ĠPre is
ç ¬¬
ag ne
ĠPr zy
ti do
ĠÂ ¯
Ġm áº¥t
Ã© tÃ©
Ġ6 1
Ġsel bst
tra g
Ġav is
ĠSo cial
Ġdis e
æĮ ĩ
Ġprincip al
Ġpres ent
Ġ8 6
Ġf as
ier no
er te
ien ce
ach t
ĠÑģÐ¾ Ð¾Ð±Ñī
Ġl Ã£
ĠC P
Ð¿ÑĢÐµÐ´ ÐµÐ»
i O
Ġmob ile
unt os
Ġæ Ĺ
or io
[ ]
Ġp utas
ĠL ab
ra do
ĠÐ´ Ð°Ð¶Ðµ
cz enia
Ġth Æ°
Ġrec omm
s che
au d
ĠU omo
ho to
åį ĺ
ĠS ab
Ġt iáº¿n
Ġopport un
ĠUS A
ĠR esta
re to
iem bre
Ġm ens
ĠÃ¡ rea
æ¸ Ī
et y
ÑĪ Ðµ
Ġto ute
ÑĥÐ± Ð»Ð¸
Ġes e
is tem
Ð¿ ÐµÑĢ
Ġtr an
ĠC at
ÑĢÑĥ Ð¶
ĠÂ ¤
Ġseg undo
ĠDV D
Ġ ãģĹãģĭ
å® ħ
ãĤĪ ãģŃ
ĠÑĨ Ð²ÐµÑĤ
ĠÐ¿ÑĢÐ¾ ÑĦ
ä¼ ģ
ãĥ¼ãĥ ©
æŃ ©
tor y
Ġtout es
iz ed
to we
è» ¢
P r
Ġt áº¥t
Ġlig ne
ĠU p
ch s
Ġv ed
Ġmar zo
ĠO g
è¦ ı
ÐµÐ½ Ð½Ð¾Ð¹
iss en
Ġãĥ ¢
ĠV ic
usam men
ich te
Ġvers ch
Ġmic ro
Â ¯
Ġl ista
Ġal to
Ġéĩ ĳ
Ġmes es
Ġf lo
ÐµÐ³ Ð¾Ð´
Ġk r
Ġk iá»ĥm
ãĥ« ãĥĪ
Ġindivid ual
os se
Ġstand ard
Ġme u
Ġpod r
Ġl ess
Ġh ouse
s u
Ġsp an
Ġcam era
ĠR el
ĠÃ¡ p
Ġbene f
Ġl ow
Ġro dz
Ġm áº¡ng
Ġå ¸
ch ts
Ġs áº¯c
y st
ĠJos Ã©
çĶ ±
ĠConta ct
N H
C A
Ġj etzt
Ġat tivitÃł
Ġ03944 7
Ġhá» ¯u
æħ ĭ
Ġdies em
Ġk ra
Ã³r io
Ã¢n cia
Ġå½ ĵ
ĠktÃ³ ra
5 9
ĠSam sung
Ġ7 4
ãģį ãģª
ĠÑĩÐµÑĢ ÐµÐ·
ĠÃľ ber
Ġfil es
ĠMil ano
ĠÐ¿Ð¾Ð¼ Ð¾Ñī
Ġr id
Ġob ten
ĠAss ocia
ĠC os
Ġ á»
Ġc ru
Ġ áº¥y
ãĤĦ ãģĻ
Ġnh u
t us
ass o
p as
ale Å¼y
b it
Ð°Ð»ÑĮ Ð½ÑĭÐµ
ÅĤ at
ÑĢ Ðµ
Ġdal le
ĠÑģ ÑĥÐ´
Ġsom ething
is tr
Ġm l
ĠE M
to ur
us ti
ĠS w
Ġc Ã¢y
0 2
ĠÐ¡ Ð
Ġper man
ãģ¨ è¨Ģ
w h
ud ar
Ġar m
ĠH al
ĠÑģ Ð¾ÑģÑĤ
Ġre port
Ġde cl
Ġa zi
ort un
Ġkole j
zÄħ d
Ġdisc uss
åĩº æĿ¥
8 9
Ġle urs
0 4
ĠK inder
u he
Ġv n
Ġdis co
éĢ ł
Ġsub s
Ġ8 7
Ġpow ie
ĠJ ac
5 2
T V
A Z
ĠL at
ĠN av
Ġc ell
Ġl lev
Ġol tre
Ãº a
è« ĩ
âĢĭ âĢĭ
Ġkh ÃŃ
æ± Ĥ
ãĤ· ãĥ§
ĠTag s
ĠIn c
Ġm Ãºs
Ġnov embre
Ġpres ta
ãĥĹ ãĥ¬
Ġsp or
Ð¼ ÐµÑģÑĤ
ill s
ÐºÐ° Ñħ
ad em
Ġro d
b au
ĠÑĢ Ñĥ
ĠÐ¾ Ð½Ð°
Ġla bor
ĠÐ¡ Ð¿
ĠF R
g ang
Ġk omm
Ð¸Ð± Ð¾
Ġmais on
ĠC ab
Ġs ent
Ġd ni
r er
ÐµÐ½ÑĤ Ð°
ĠÑģÐ¿ Ð¾ÑģÐ¾Ð±
Ġso it
z d
Ġl it
Ġb le
ĠSh op
Ġo tro
æ² »
Ġse arch
æ ¤ľ
ĠP op
è³ ĩ
ĠÐ¸ ÑģÐº
Ġpol iti
ĠB L
æı Ľ
is ce
æ¯ Ķ
ĠÂ ¥
oc z
ash ion
ĠDire c
w ania
ĠM ater
Ġb Ãł
Ġco ver
Ġg áº·p
ÑĨ ÐµÐ²
Ġcl ick
f ac
vel o
äºº ãģĮ
cess o
Ġog gi
Ġcon tribu
äº Ĩ
ĠÐ» Ð¸
å® ¤
ĠÐ½ÑĥÐ¶ Ð½Ð¾
ĠB i
ĠDa ta
æĸ ½
f il
Ġcom peti
ãģĦ ãģªãģĦ
ow any
ÐµÐ½ Ð¾
ied ad
Ġmo is
ĠE X
osp ital
Ġz ro
ww w
en i
ĠMich a
Ãł m
ĠTh at
Ġlin ks
Ð¸ÑģÑĤ ÑĢÐ°
n te
ĠDeutsch land
Ġsol id
ĠZ ap
Ġ200 1
p owie
Ġtu o
col o
å¸ «
ĠÐ´ Ð¸
ĠPar t
ĠÐ³ Ð»
Ġh áº¡n
ĠU R
ĠN ord
g el
Ġet was
Ġg eb
Ġmo i
ĠK ra
Ġa do
ĠÐ¶ ÐµÐ½
Ġm ight
Ġme et
ĠM c
ÑĨ Ð¸Ð¹
ÑĢ Ð¾Ñģ
ĠKh i
im in
Ġmar gin
Ã©r ica
Ġcour se
Ġu 00
ĠÂ ª
Ġsop ra
Ġodp ow
ĠV ir
ĠÄĳ áº§y
ãĥ¼ãĤ« ãĥ¼
Ġpued en
ç ¿
Ġgior no
Ġquel la
ãģį ãģ¾ãģĹãģŁ
ç´ į
Ġb ran
ĠÐºÑĢ Ð°Ñģ
ãģĿ ãĤĮ
Ð¸ÑĤ ÐµÐ»ÐµÐ¹
ze ug
ion ale
Ġbel ie
Ġb ody
pres a
ĠS el
ĠÐ¸ Ñģ
Ġus er
Ġmin im
Ġp ays
ĠV e
ĠServ ice
ãģĵãģ¨ ãģ§
Ġpod em
è ħ
ãĤ¤ ãĥī
_ c
Ġt ÃŃn
Ġtr áº£
Ġp ul
ÅĤa w
Ġgior ni
vis or
Ġris p
Ġdon na
ãģĵ ãģ®
ĠÐł Ð°Ð·
Ġra d
es i
eg na
Ġesp ec
Ġ7 3
áº ¢
ĠãģĿ ãģĹãģ¦
ĠÂµ ÃĦ
ziÄĻ ki
w is
Ð¼ Ð¸Ð½
ĠÄĳ Ãºng
Ġz ag
Ġenvir on
æ° ĳ
Ð¿ Ð¾Ð»
Ġngh i
i ente
Ġg h
ĠCon f
Ġprov in
Ġex tre
ĠP s
ol le
ĠUnivers ity
ĠD Ã©
Ġan other
ĠãĤŃ ãĥ£
Ġest ra
ĠPr in
Ġe p
ĠT Ã´i
Ġ9 4
ĠÐ¿Ð¾Ð· Ð²
Ġpor n
ĠB ild
Ġob ra
Ġh on
ĠGr ande
çµ ¦
te cz
erst and
6 1
Ġc Ã¡o
ç© º
ĠÐŁ Ð¾Ñģ
tiv amente
ĠÑıÐ² Ð»ÑıÐµÑĤÑģÑı
ĠÑĤ Ð¾ÑĢ
ĠVá» Ľi
Ġfon ction
ĠE ins
Ġ" ]
Ġ8 1
Ġm á»Ł
ĠS A
ç ¹
ud as
Ġdiff Ã©r
Ġqu est
Ġpre mier
Ġk a
Ġges tion
Ġres id
Ġc á»±c
ÅĤ od
Ġthu á»ĳc
ĠÂ¡Â £
Ã© is
Ġsin ce
æµ ģ
å¾ ħ
ĠÐ³ Ð»Ð°Ð²
ĠÄĳ áº¥u
ĠPro je
ĠÐ¿Ð» Ð°Ð½
Ġpo zy
Ġcon vers
Ġm iss
Ġv ra
ĠM ass
ï¼ Ķ
Ð°Ð¹ÑĤ Ðµ
ĠÐ¾Ð±Ð»Ð°ÑģÑĤ Ð¸
Ġm ia
Ġev ento
Ġqu anti
ĠC E
æ ļ
Ð°Ð»ÑĮ Ð½Ð¾
ĠpÃºbl ico
Ġs ag
ia do
le p
la ub
ĠIns titu
I X
ĠB ay
I ER
Ġc Æ°
ãĤī ãģªãģĦ
ĠÐ¾ÑĤ Ð²ÐµÑĤ
Ġeuro pe
Ġdis tribu
Ġè ¡
ch ten
pon der
le ga
_ id
ĠOr ig
ĠCo un
ĠÃ ¸
0 5
Ġprzy pad
ãĤ ¼
Ġj s
ier te
Ġo m
Ġï¼ Ĵ
ĠÑĢ Ð¾Ð´
ĠÐŁÑĢ Ð¸
ĠAr tic
Ġ9 3
ĠIn st
ĠÐ· Ð°Ð½
Ġcor res
Ġcer tain
âĢ Ķ
Ġto uj
æĸ¹ æ³ķ
Ġhá» Ĺ
ect os
ãģ« è¡Į
ÐµÑĢ ÑĪ
Ġt Æ°Æ¡ng
ĠP ap
Ð¾Ð± Ð°Ð²
m ed
ĠÐ³Ð¾Ð´ Ñĥ
ent ina
Ġdig ital
Ġcompr ar
Ġãĥ ¯
n am
P ro
Ġpl as
Ġv ig
R e
ĠÐ¿Ð¾Ñģ Ð»ÐµÐ´
Ġrela cion
Ġne ver
Ġe uros
Ġé ķ·
Ġposs ibile
Ġl is
Ã¨ n
æ ·
ĠÑĢ Ð°Ð¹
Ġ7 9
ĠÐĺ Ð·
ĠTe am
Ġs qu
Ġvis to
Ġwind ow
OR T
Ġd Ã©s
å¹ ³
Ġtouj ours
Ġr áº»
ĠB und
ĠPla y
ci u
Ġno vo
ĠT im
è ¢
Ġf it
Ġni Å¼
Ð°Ð´ Ð¸
Ġper c
Ð¸Ðº Ð¾Ð²
Ġmag gi
ĠS ci
ãĥĹ ãĥŃ
Ġtho áº¡i
ãĤı ãģĳ
on as
is ine
Ġpow in
ĠTe chn
g os
Ġm inha
ĠFor um
Ġqual quer
Ġtr anh
Ġn em
Æ°Æ¡ i
ÑĭÐ¼ Ð¸
iz ar
ãģ£ãģ¦ ãģĦãģ¾ãģĻ
ãģĶãģĸ ãģĦãģ¾ãģĻ
di tional
our ces
å¯¾ å¿ľ
Ãªn cias
ĠS l
Ġc ob
ĠTe il
r io
h as
is en
Ġesc r
ing o
ãĤ¢ ãĥ«
Ġè ©
Ġpro y
Ġwar to
Ġb lack
ÑĢ Ð°Ð±Ð¾ÑĤ
Ġãĥ ĵ
Ġro m
ow Äħ
ĠL et
æ¬ ¡
ĠP ower
ç© į
Ġp ien
Ġambi ente
ou v
Ġge ht
Ġlook ing
Ġf ic
Ġ ãģĻ
Ġcomple te
ä¾ ¿
Ġprim er
ti fic
Ġgi áº£
Ġreg istra
Ġj an
Ġc Ãłng
Ġest os
Ġc od
cep tion
Ġc á»¥
est as
ĠÐ¼ Ð¸ÑĢ
åĳ Ĭ
Ð¾ÑĢ Ð°
ãģĹãģ¾ ãģĨ
ip s
á»ĵ m
h es
ig ura
ĠN O
Þ¬ Þ
ot y
ĠS oc
f ace
ĠÐ± Ð°Ð½
ĠÄĳ áº£m
ĠS H
Ġsu p
Ġperi od
ł Ķ
Ġmed io
Ġah ora
Ġg ol
ur ance
ä¿ ®
Ġes ti
Ġcol lec
Ġex pos
Ġche z
Ġd w
Ġr it
Ġprz es
Ġch eg
tic amente
ak er
7 1
ien ta
Ġmuj er
ĠGr und
Ġd ol
ĠÐºÐ» Ð°ÑģÑģ
zy Äĩ
ĠÐ ®
ĠnghÄ© a
ãģĵãģ¨ ãĤĤ
Ġun i
b ere
å¢ Ĺ
ĠÑĥÑģÑĤ Ð°Ð½Ð¾Ð²
AL E
ĠD oc
Ġind ica
Ġd ÃŃas
èµ ·
Ġseg unda
Ġqu Ã½
Ġkh áº£
Ġinst al
ni ÄĻ
ci er
åº ĥ
unicip al
Ġinter ven
Ġa ten
ĠT witter
Ġm ano
Ġs otto
ä¾ ĭ
Ġd anh
ãĤ¤ ãĤ¹
ĠK a
vis ion
kom men
A r
ĠÐ² Ð°Ð¼
Ġf antas
Ġng he
w eg
ib ili
è į
Ġ9 2
Ġand eren
Ġph otos
ä¼ Ŀ
Ġb á»ĳ
Ġpes o
Ġ] [
ĠN atur
im enti
Ġchild ren
ĠB ur
tif ica
Ġl á»±a
Ġdo br
Ġl áº¥y
Ġres earch
ç ģ
Ġent er
ĠÃ ¯
Ġb ac
ĠGi Ã¡
ĠTr ang
Ã¡ b
Ġsp Ã©
Ġl Æ°u
Ð² Ð¾ÑĢ
Ð°Ð»ÑĮ Ð½ÑĭÑħ
l ic
Ġar te
Ġs endo
ur al
Ġnun ca
z em
li p
anÃ§ as
Ð¸Ð» ÑģÑı
ĠNg Æ°á»Ŀi
Ġu omo
Ġop ini
Ġposs ono
ãģª ãģŁ
ur so
Ġká» ¹
ĠFa hr
Ġra pp
ĠNa j
ĠÐ¾Ñģ Ð¾Ð±
Ð¾ÑĢ Ð¸Ð¸
est s
Ġsch ool
ãģŁ ãĤĬ
in ta
ĠÑĨ ÐµÐ½
Ġto day
Ġsec ondo
Ġalg um
ĠG a
ĠApr il
ĠwiÄĻ c
Ġvo ir
0 3
n ÄĻ
Ġno i
æĮģ ãģ¡
tur es
Ġqu ale
P L
f ik
Ġpro por
ĠÐ¿ Ð¾Ð»ÑĮÐ·
Ġqu o
Ġnu estro
Ġpo is
ä¿ Ĥ
ãģĻãĤĭ ãģ¨
ĠC ali
ĠãģĿ ãģĨ
Ġcon tem
áº© u
ze ich
Ġv ale
Ġsit es
ĠMens chen
Ġdes cription
Ġcons id
ĠÄĲ á»©c
Ġtrava il
Ġt orn
Ġgro u
8 3
ĠÑģ ÐµÐ¼
ÑĢ Ð¾Ð¿
ĠMic rosoft
Ġt iá»ĩn
b ior
ãĤ¯ ãĥĪ
å ¦
vel le
Ġjed en
ĠCh ÃŃnh
f ono
ÐµÑģÑĤ Ð¸
Ġdec id
Ġwork ing
Ġme ta
Ġl ok
ãģ¹ ãģ¦
A Y
Ñı Ð¶
LC J
ÃŁ er
Ġm 2
ro me
Ġquel ques
Ġr Ã¡p
ãģ«ãĤĪ ãģ£ãģ¦
ff ici
cou p
Ġm ind
Ġbe h
Ġp end
ĠA V
ĠL im
u aliz
ÐµÐ³Ð¾Ð´ Ð½Ñı
ĠÅĽ wia
Ġos Ã³b
ward s
ĠÑģÐ¾ Ð¾ÑĤ
å¿ µ
ĠP atr
Ġçī ¹
ĠÐ¿ÑĢÐ¾ÑģÑĤ Ð¾
ĠÐ²Ñģ ÐµÐ³Ð¾
ĠO R
ãģ µ
Ġd ice
C lass
Ð» ÐµÐ¹
Ļ çľŁ
Ġcomp et
ĠChr ist
ĠÐ²Ñģ ÐµÑħ
ĠTh Ãłnh
ane j
ÑģÐº Ð¾Ð¼
ĠH el
Ġd ere
Ġz wei
Ġtr Æ°á»Łng
Ð¸ Ñī
Ã» t
iz aÃ§Ã£o
ãĥķ ãĥ¬
Ġt á»ĳi
op h
Ġï¼ģ ï¼ģ
ĠÐ¼ ÐµÐ´
ĠO per
Ġc ra
ãĥķãĤ© ãĥ¼ãĥł
is la
ĠP ero
Ġå Ģ
au te
Ġs ap
Ġz ach
Ġv id
Ġ Ï
g ere
ag ue
Ġlim it
v os
g leich
ĠMar t
èĩª åĪĨ
d om
Ġcon hec
Ġç ¾
Ġac onte
Ñĭ Ñĩ
Ġb elle
atur es
Ġdel lo
ĠH um
Ġex clus
n io
iÄħ Å¼
ch an
Ġlib ro
Ġcre ate
it ere
ĠPro ble
Ġof re
Ġsa tis
if i
i endo
Ġv s
Ġe au
k re
ãĥ¼ãĤ ³
ÅĤo Å¼
Ġto Ã¡n
Ġr Ãµ
Ġava it
Ġpot rze
Ġv ui
ĠInterna tional
Ġl á»ĩ
ãĤ¤ ãĥ¤
j az
f s
te z
Ġpom oc
ĠM use
Ġãĥ¬ ãĥĩãĤ£ãĥ¼ãĤ¹
Z W
ĠH á»ĵ
ï½Ĺ ï½Ĺ
Ġfa ut
į ng
Ġse le
ÑĥÑĢ Ñĭ
ul tura
iv el
Ġy áº¿u
Ġlu áºŃt
é Ń
Ġeas y
Ġbre ak
Ġ ä½ķ
inh e
Ġm áº«u
Ġhat te
amb re
ĠÐ½ Ð¸Ðº
Ġèĩª åĪĨ
Ġest re
Ġest as
to u
ĠÐ· Ð½
ĠM os
h ic
d ica
ari as
Ġãģ ¡
Ġf ast
Ġc ours
ãĥ¼ãĤ· ãĥ§ãĥ³
Ġæ ķ
Ġal ors
z ul
IS T
re bbe
Ġap pr
Ġtra d
ĠCom un
Ð°Ðº ÑĤÐµÑĢ
Ġma king
Ġall es
le ps
ĠT el
ĠAr tik
ĠãĤ Ī
Ġconc ern
Ġprim era
ĠE D
ÑĢÑĥ Ð±
un ch
Ġno te
ord in
ĠÐ¾Ð´ Ð¸Ð½
æľ Ľ
Ð¸ÑĩÐµÑģÐº Ð¾Ð¹
± ãģĦ
Äħ c
ĠEn erg
r Ã¤
Ġch á»©
ÑıÐ± ÑĢÑı
ĠÐ¾ÑĤ ÐºÑĢ
Ġa presenta
ĠA qu
Ġtá» ©
Ġnu es
th ers
Ġs con
ĠH u
ĠÑĥÑģÐ» Ð¾Ð²
åĦ ª
ille t
ĠÐŁ Ð¾Ð»
Ġwy d
Ġd or
ob ierno
anh a
Ġm ec
tell ung
ãģ¿ ãģŁãģĦ
Ġma chen
Ġl iter
Ġc ela
Ġs yn
ĠÐ½Ðµ ÑģÐº
ĠSta dt
a tive
ĠÑĪ ÑĤ
ĠÐ³ Ð¾Ð²Ð¾ÑĢ
ãģ ¥
l ar
Ġhum an
Ð¸Ð½ Ñĥ
um en
åĸ ¶
ty w
ĠT al
S P
Ġwy b
ĠÑĨ ÐµÐ½ÑĤ
Ġminut os
ÑĢÑĥÐ¿ Ð¿
c ks
uy áº¿n
tif ul
ĠS ul
Ġ9 1
Ġl ik
Ð¸ÑĢÐ¾Ð² Ð°ÑĤÑĮ
Ġe con
ĠJ ed
ĠF oll
Ġoff re
Ġvers ion
Ð² Ð°ÑĢ
AN T
at to
iá»ĩ p
Ġtro p
Ġde t
ÅĤo ÅĽci
ag gi
ĠÐ· Ð½Ð°Ñĩ
ĠÐ² ÐµÐ´
ĠÅ »
ĠL i
éĢ Ł
ĠMar c
Ġfut uro
Ġb ur
Ġt Ã©lÃ©
Ġeff ic
Ġt ych
Ġ Ñİ
ĠÃ¢ m
Ð¸ÑĩÐµÑģÐº Ð¸Ð¹
Ġpro ject
ãĥ³ãĤ Ń
ĠN um
ĠÐ¾ÑĤ Ð´
S A
o ve
ãģ« éĸ¢
Ġn ast
Ġf Ã©
iss ance
D E
Ġac tion
Ġmed i
è³ ¼åħ¥
ien ne
à³ į
ri x
rit to
ess er
Ġh Æ°á»Łng
ãĥĸ ãĥ«
ãģ®å ł´
Ġho je
Ġu w
Ġter r
Ġ} ,
ies ta
ĠÅĽ rod
Ġj ou
ĠH á»Ļi
ĠWo hn
Ġv illa
Ġcap ital
ĠT O
Ġf Ã¼
ĠN ow
Ġproble mas
ĠG od
Ġrespons abil
Þ° Þ
za hl
Ġg am
Ġele k
ĠS ho
ie urs
ĠãĤ± ãĥ¼ãĤ¹
Ġne ue
æĶ ¯
éĻ ¤
ob ili
0 6
Ð°Ð» ÑģÑı
ens ione
Ġm oney
Ġåľ Ł
Ġtr i
ĠÑĤÐµÑħ Ð½
ĠI d
Ð ¯
to ber
Ġs os
æ £
ĠÐ·Ð°Ðº Ð°Ð·
ĠÄĳ Ã¢u
Ġm anten
Ġlog o
Ġins er
Ġæī ĭ
Ġæ ¯
Ġman era
ä¸ĩ åĨĨ
ĠWars za
ur i
Ġs ale
Ġl y
Ġtu a
ĠFil m
Ġacc ord
Ġsigni fic
ĠL og
Ġ= =
Ġinte gr
out ube
Ġh ol
ĠHotel s
Ġfor te
Ġen joy
ĠTe x
ãĤĤãģĹ ãĤĮ
0 9
Ġæľ Ī
ver o
Ġä¸ Ĭ
Ġsch n
Ġsu ite
Ġsh op
Ġc ittÃł
ĠAug ust
ĠPro duc
Ġc idade
Ġall ow
ĠÃŃ t
A A
åľ Ĵ
ĠH ot
icz ne
ĠÑĤÑĢ ÐµÐ±
Ġre gi
ĠEspa Ã±a
ĠB ed
ĠR is
ĠN ero
z el
op o
gra d
Ġstud ents
èŃ °
Ġke y
æĽ ´
Ġes a
ĠTri p
áºŃ m
ãĥģ ãĥ£
ultur al
Ġop tion
Ġme jores
ĠN go
ĠD im
f ten
Ġv Ã©
ĠL ou
ĠÐ½ Ð¸
ĠprÃ³ pr
ĠÐ¼Ð¾Ð³ ÑĥÑĤ
Ġst os
Ð¾Ñĩ Ð½Ð¾
Ġs ide
Ġcu á»ĳi
Ġpor te
ĠC ong
Ġï¿½ï¿½ï¿½ ï¿½
Ġr y
Ġb iá»ĥu
ab en
ĠÐ¼ Ð½Ð¾Ð³Ð¾
Ġte chni
Ġtá»ķ ng
Ġinforma Ã§Ãµes
ĠY o
ĠPost Ã©
Ġc uc
Ð¾Ð² ÑĭÑħ
Ã¡ rias
ĠB ez
Ġqu esti
Ġ, ,
Ġdis p
Ġca usa
ĠÑģÐ»ÑĥÑĩ Ð°
Ġglob al
Ġs tu
Ġpe que
ti en
Ġ7 1
Æ ¯
ĠÑģÐµÐ± Ñı
ĠÄĳ áº¡t
ied ade
æŃ ¢
á» ³
ĠA ber
ĠG al
Ñı Ñģ
an che
Ġre pr
Ġincl u
ig ra
ĠAd ministra
Ġg á»ĵm
Ġbu en
Ġprime iro
Ã ¿
Ġg dzie
p ons
Ġm ies
ĠQu Ã©
ĠÐ³ Ð¾ÑģÑĥÐ´Ð°ÑĢ
ĠÑĩ Ð°Ñģ
Ġtr ze
Ã¤l t
Þ¨ Þ
m enti
ĠéĢ ļ
Ġda ti
ĠÐ¸Ð½ÑĤÐµÑĢ ÐµÑģ
ĠÄĳo Ãłn
Ġo tra
Ġdispos i
ĠÑį Ð»ÐµÐºÑĤÑĢ
Ġre presenta
Ġpi ano
ĠB it
er y
Ġg Ã¡i
å° Ĥ
ĠÐ²ÑĭÑģ Ð¾Ðº
ĠL ink
ĠHa us
Ð¾Ð´ Ð°
Ãº i
s i
iv es
ĠN at
è¦ ³
qu is
Ġob lig
Ġnum ero
ĠTh ese
ĠT ut
Ġs r
Ġme io
Ġdis se
å¤ļ ãģı
Ġå Ĭ
Ġtar get
ĠG et
Ġ} );
ĠÐ¿ÑĢÐ¾ ÐµÐºÑĤ
al itÃł
Ġques tions
Ġinc re
Ġtien en
Ġngu á»ĵn
Ã¼n d
Ġinter pre
st ar
Ġpro wad
Ġa mo
ĠSe ptem
è ¬
8 4
Ġt áº£i
Ġng Ãłnh
n ier
Ġlu áºŃn
Ġk ons
ç ±
Ð¾Ð² ÑĭÐµ
ÃŃ lia
ĠQu ando
b ild
ĠWh ite
ĠEng l
Ð°Ñı Ð²
Ġw Ã¼r
ar ing
Ġ7 00
b as
Ġsp ort
ĠdÃ© b
ing ton
Ġwor ks
ĠgÃ©n Ã©r
åŃ ĺ
ĠÐ¸Ð½ÑĤÐµÑĢ Ð½ÐµÑĤ
Ġz ad
Ġw ra
Ġperson nes
Ġge f
ãĤī ãĤĮãģ¦
h ib
Ġï½ ľ
ĠP ag
èĸ ¬
Ġvie le
ÐµÐ½ Ð½Ð¾Ð³Ð¾
ÐµÐ· Ð´
sk ich
ĠG ab
ĠgÅĤ Ã³w
ãĤµ ãĤ¤ãĤº
u z
ĠCh icas
vil u
Ġp ack
Ð°ÑĤ ÑĢ
ĠÐ´ Ð¾Ð¿
Ġswo je
B A
ĠIm m
ro c
Ġdes tin
Ġw in
ĠÑģÑĤ ÑĢ
g ono
ĠÄĲ Ã´ng
ite t
ĠC V
Ġappl ication
Ġm io
Ġhist oria
Ã§ ais
Ġth áº§n
Ġris ulta
z are
Ġme to
Ġn r
Ġenc ontra
èĲ ½
Ġâĺ Ĩ
ãĥ¼ãĥ ģ
Ġtim es
Ġbus ca
Ġ$( '
åĲĪ ãĤıãģĽ
Ġstud y
ĠN el
Ð´ ÐµÑĢÐ¶
Ġk ind
Ġdam it
Ġæ Ħ
Ġå¥ ³
Ġc áº¡nh
Ġinforma zioni
l an
Ġj ours
ÑĢ Ð¾Ð±
ĠIn n
la gen
m 2
Ġv ille
ad ra
Ġpi ÄĻ
ak i
ĠÑģÐº Ð°Ð·
Ġd zi
Ġtra ck
qu Ã©
Ġdá»¥ c
Ġz wiÄħz
Ġr á»Ļng
ÐµÑĢ Ðµ
Ãĩ ÃĥO
ĠÐ¼ ÐµÐ¶Ð´
Ġs ÃŃ
ue il
ĠE ine
ãģĪ ãģ°
ĠåĽ ½
Ð½ Ð¸Ðµ
Ã¼ ber
ĠÃ© v
ĠA uch
ãĤĴ ãģĬ
ÑģÐ» ÐµÐ´
Ġch Æ°Æ¡ng
Ġc ity
ĠS pa
Ã¤ d
Ġãĥ į
Ġp ac
Ġj am
Ð¾ ÑĦ
Ġãĥ ľ
Ġcas i
ĠB ank
8 2
ora Ã§Ã£o
ĠB uch
Ġnu estra
ĠR uss
Ġxu á»ĳng
ĠX em
ĠT á»ķng
ĠãĤ¹ ãĥ¼ãĥĳ
Ġf res
ĠP es
en Ã§a
en cial
Ġb ast
ĠC N
ĠAn ti
Ġcon j
Ġç ·
ĠB au
áº µ
Ġu0 43
Ġin tens
ä½ İ
b u
A K
orzy st
Ġcres c
C om
¡ å¸ĥ
r z
p ra
c ement
enc ontre
ãĤ³ ãĥ³
Ġcli ents
ĠCom ment
Ġpe tit
Ġab ril
Ġse ine
Ġph ys
ĠTh á»§
ĠR ich
ĠC AR
Ð»Ñı ÐµÑĤ
Ġcon ver
on ic
Ġtele fon
ĠT amb
c are
é¡ ĺ
è± ¡
ÐµÐ½ÑĤ Ñĭ
h od
g em
Ġric erca
Ġ9 00
Ġh in
Ġbeau coup
ĠÐĴÑģ Ðµ
th e
Ġs Ã©c
ĠN ational
Ġk ur
ĠCh á»§
ĠÐ¿Ð¾Ðº Ð°Ð·
io us
ĠÐº Ð°ÑĢ
Ġrag az
Ġbras ile
ĠT á»«
EL L
Ġãģ ł
ĠNg Ãły
Ġind ic
ĠFran cis
çİ ĩ
Ð° Ñī
k owe
ĠÐ¶ Ð¸Ð²
Ġf arm
Ġe lec
Ãł u
Ġs Ã©rie
Ġx á»Ń
Ġt Æ°á»Łng
ĠÐ½ ÐµÐ¼
Ġrela ted
Ġdire ct
Z X
Ġt ap
Ġfr ente
æĸ Ń
ĠbÄĻ dÄħ
ĠV it
ĠÐ´ Ðµ
Ġho y
ĠdÆ°á» ¡ng
ÑĢÑĥ ÑĪ
Ġph Ã¹
ĠV iet
ĠÐ£ ÐºÑĢÐ°
Ġv as
vers o
Ġinter no
ĠCent er
Ġl ength
ke iten
E x
Ġperf ect
Ġcli ente
Ġout ras
ac a
k ra
ĠÑĢÐµÐ· ÑĥÐ»ÑĮÑĤ
Ìģ c
ĠK ind
Ġst esso
ĠG old
Ġv Ã¹ng
ĠFl or
G E
ĠÄĳá»Ļ c
Ġhe cho
ç¨ ĭ
ÑģÑĤÑĢ Ð¾Ð¹
åħ ±
ĠM ore
ĠBer lin
Ġcolla bor
Ġåī į
Ġtra t
v ar
ze ÅĦ
Ġm Ã¶
Ġde cir
ĠCas ino
Ð¸ÑĩÐµÑģÐº Ð¾Ð³Ð¾
k g
èĢĥ ãģĪ
wa ÅĤ
f Ã©r
Ġqu ed
Ġig ual
pe ÅĤ
Ġm g
Ġfab ric
ĠD iv
ard in
Ġstra teg
Ġcul tura
ÃŃ veis
Ġac tual
owa ÅĤ
Ġg a
t ant
hal b
ä¹ Ĺ
Ġan terior
cz enie
Ġsu iv
Ð² ÐµÐ´
Ġal tre
åŁ º
ĠS outh
ic ion
u che
Ġcual quier
Ġç ı¾
ĠT wo
Ġa tiv
ĠInd ustr
» Ĵ
atal og
ti che
ĠF i
ÑĥÑĢ Ð³
Ġes tud
ĠSm art
ĠÐº Ð½Ð¸
Ġz mi
or ies
Ġk it
ĠS O
Ġfre qu
ãĤ¸ ãĥ£
ĠC our
Ġthu Ãª
Ġneed s
Ġm Ã³w
Ġbe k
re w
ĠU K
Ġw atch
ĠAl le
â Ī
Ġperform ance
ĠL an
Ð¸ÑĤ Ñĥ
nis se
Ġm ix
ä¼ ĳ
Ġt w
ĠDav id
Ġ io
Ð¾Ð½ Ðµ
Ġwy kon
Ġd Ã¹
Ġcap it
Ġann Ã©e
ens o
_ s
Ġreg ular
Ġprof ission
Ġele g
ĠB ol
p ol
Ġt es
ãģª ãĤĭ
ĠAmer ican
Ġ ãģĭ
Ġa way
ION E
a ires
Ġt v
â ĸ
ual ly
Ġund erstand
ĠGen eral
Ð°Ð» Ð¸ÑģÑĮ
it ung
ĠÑģÐ¾Ð¾ÑĤ Ð²ÐµÑĤ
et tes
Ġma jor
ãĤ Ĩ
Ġincl ude
Ġdes puÃ©s
ER S
Ġx in
ãĥ³ãĥ Ĳ
ãĤı ãĤĬ
ãĤ± ãĥ¼ãĤ¹
us ch
Ġnost ra
åĢ į
Ġmot or
ĠTh á»ĭ
ãģķãĤĮãģ¦ ãģĦãĤĭ
Ġpre cio
ÑįÑĤ Ð¾Ð¼Ñĥ
d is
-------- --------
Ġespa Ã±
ÑħÐ¾Ð´ Ð¸ÑĤ
ĠÐ¼Ð½ Ð¾Ð³
ĠÐ±ÐµÑģÐ¿Ð»Ð°ÑĤ Ð½Ð¾
Ã¤ re
ĠÃ¡ o
ĠsÃ³ lo
Ġcar acter
ãģ ŀ
Ġm atr
ãģ¨æĢĿ ãģĨ
Ġag li
Ġp az
ard en
ãĥ ´
ien ti
oll en
Ð°ÑĤ ÐµÐ»Ñı
Ġkho a
Ã© ro
ĠNh áºŃt
Ġpre v
ãĤµ ãĥ¼ãĥĵãĤ¹
n t
Ġps ych
ĠE c
Ġf ield
ãģł ãĤįãģĨ
f te
Ã¶ ff
od u
im m
Ġse it
B O
Ġ2 F
ĠH ier
ä¸į åı¯
Ð¾Ð³ Ð»
Ġfa ci
ï¼ Į
Ġv áºŃn
ĠPr iv
od ar
na h
T M
ĠåĮ Ĺ
enta tion
ĠÐ±Ñĭ Ð»Ð¸
Ġpu is
Ġconta c
Ġcon na
ĠÑĤ ÐµÐ¿
è¦ §
Ġb ott
ãĥ¼ãĤ Ń
Ġcli entes
ãĤ¿ãĤ¤ ãĥĹ
Ġä¸ į
Ġop ortun
Ð½ ÐµÐ²
ĠÐ· Ð²
Ġm Ã´
Ġal m
ãģ«ãģª ãģ£ãģŁ
ĠÐ¿ÑĢÐ¾ÑĤ Ð¸Ð²
ãĥ¼ãĥ ĩ
ãģ®æ ĻĤ
Ġå® ¶
Ġs d
ĠCol or
ãĤ± ãĥĥãĥĪ
jÄĻ cia
Ġ14 0
å® ³
im y
ĠÐ¼ ÑĥÐ¶
i ques
get her
Ġlá»Ľ p
Ġå ĭ
æĿ ¿
Ġre tro
ĠÐ´ Ð¾ÑĢ
ĠN H
Ã¶ l
ur ity
ĠÑĢÐ°Ñģ Ñģ
olog ÃŃa
ĠåĲ Į
Ġp is
Ġbr ing
Ġpos ta
Ġgo verno
ĠD z
ĠJa hren
Ġszy b
ĠS S
ĠA uss
Ġnoss o
Ġre view
Ġg leich
Ġdes t
ãĥ Ĵ
ĠResta ur
ãĥķ ãĤ§
ÐµÑĢ ÑĮ
Ġfr ont
Ġ16 0
ĠÐ¿ÑĢÐ¾ÑĨ ÐµÑģÑģ
ĠÐ½Ð° ÑĢ
ĠY our
Ġinst alla
Ġcommun ity
C D
u do
ro t
Ġm eg
Ġbes o
ĠH or
ÐµÑĢ Ð¾Ð²
wo od
k y
ãģ ģ
ÑĤ Ð°
et her
Ġp isc
c ando
Ð· Ñĭ
ĠF ol
ĠP ie
ĠC ru
Ġal ong
ic ie
Ġfoc us
ãģ® ãĤĤ
Ġdoc um
Ġag ora
Ġå İ
ĠÐĵ Ð»Ð°Ð²
Ġf an
ãĤĴæĮ ģ
Ġcu ra
ÐµÐ´ Ð¸ÑĤ
vo le
Ġä» ¥
Ġc ant
ĠAf ter
ĠÐº Ð°Ð·
ĠÄĲ á»ĵng
ĠC in
Ġsu i
Ġvend ita
ĠP et
Ġth áº¥t
Ġh ref
Ġb iá»ĥn
Ġh id
æĶ ¾
ĠÑĢ ÐµÐ±
Ġtra v
å¼ķ ãģį
Ġ$( "
pr im
Ġs f
Ġde pois
pp ed
Ġcle an
ãĥ¬ ãĥĵ
å Ŀ
ĠNh Æ°ng
¸ ı
por ta
ĠvÃł ng
Ġâ ľ
ĠÐ¾ Ð¿ÑĢÐµÐ´ÐµÐ»
ĠH P
Å¼e j
Ġtra vÃ©s
Ġnum er
ian co
Ġko ÅĦ
ĠE ST
uss ures
Ġãĥ¡ ãĥ³ãĤº
ãģŁãĤģ ãģ«
Ġorgan is
ÐµÐºÑĤ Ð¸Ð²
ĠÐ±Ð¾Ð»ÑĮÑĪ Ðµ
Ġac ab
ĠÑĦ Ð¸Ð»ÑĮ
k ami
ci pl
ĠÄĲ iá»ģu
ĠEx per
s et
ĠC A
k iego
ĠÐ¼ Ð½Ðµ
ĠGl ob
åī ²
ĠÐ¾ ÑĦ
ĠÐ¾ÑĤ Ð»Ð¸Ñĩ
Ġqu and
ÅĽ wiad
Ġä» £
ĠEn t
Ġprof ess
Ġdef ini
ĠW elt
Ġoc c
æ¼ Ķ
ãģĳ ãĤĮãģ°
è© ¦
ĠÐ½ Ð°Ð»
Ġcomp on
ĠP are
m ina
Ġnuo va
ĠO u
eg n
ĠAng eb
Ð°Ð½ Ð¸Ð¹
tif s
Ġtá»© c
Ġm Ã´i
æĿ ĳ
Ġos tat
Ġk up
elle ment
u chen
Ġv esti
Ġus ar
Ġth ough
ÅĤ Ã³w
ur en
Ġal bum
ws ze
r oss
ĠÐļ Ð¾Ð½
e ta
Ġk ier
Ð «
ĠM r
æĤ ª
Ð°ÑĢ Ð°ÐºÑĤÐµÑĢ
v ano
Ġs ino
b and
ĠI hnen
b ur
ĠH il
ãĤ¹ ãĤ¯
ĠÐ²Ñĭ Ð±
i h
ãĤĴæ İ
Ġinter ne
Ġse Ã±
Ġop tions
ç´ ļ
Ġv ou
æ ¹
ĠãĤ ¬
è ¯
Ġele t
Ìģ t
æ¥½ ãģĹ
ĠÄĳ Ã´
Ġobje tivo
ĠV ocÃª
ĠT able
ĠÑĢÐ°Ð·Ð² Ð¸ÑĤ
é«ĺ ãģĦ
Ġspos Ã³b
Ð¾ÑĤÑĢ ÐµÐ±
to ire
w ir
ĠN or
st and
åį ģ
Ġdem and
Ġdi rig
Ġo tras
Ġk am
Ñĩ Ð°Ñģ
Î ¿
ĠN orth
ĠG ame
o om
ki p
g ie
Ġc et
Ġav alia
ãĥĥãĤ· ãĥ¥
Ġres ist
è²© å£²
ä»ķ äºĭ
ĠÐ¿ÑĢÐ¾Ð± Ð»ÐµÐ¼
ç® ¡
ãģ«ãĤĪ ãĤĭ
Ġn ic
Ġcomp ra
Ġqu ali
ĠÐ½ Ð¸Ñħ
Ġqu Ã¢n
Ġcol oc
ĠF al
ie me
ĠÐ¸Ð· Ð¼ÐµÐ½
Ġc á»ĳ
Ġc ier
Ġs ource
Ġri Ãªng
ĠÐ¾ÑĤ Ð·ÑĭÐ²
Ñ ķ
ĠA ra
Ġtr áºŃn
Ġma jÄħ
Ġfor t
Ġbor der
ĠS un
ĠÑĥ Ð»
Ġkhá»ı e
Ġ: -
k an
l en
Ġå® ī
Ġpl at
or no
ĠP f
Ã¡c il
Ġh uyá»ĩn
f ang
Ġb ot
ĠB ere
ĠFran k
Ġrecu per
åº «
Ã£ i
Ġk iedy
ĠT ab
ÑĢ Ð°Ñģ
ti mos
Ġf lex
Ġæľ ¨
ĠS ar
ÐµÑĢ Ð±
Ð¾ÑĤ Ð°
Ġcor po
z ato
Ġb and
ĠPubl icado
Ġun os
un st
h b
D e
Ġcent er
le ur
ĠÐº ÑĤÐ¾
ic ulas
P A
Ġex iste
ĠK im
n ienia
Ġx a
Ġserv izio
å ´
Ġï¼ İ
ĠÐ¼ Ð°Ð»
ĠÃ Ŀ
ç ĭ
tis che
Ġmod elo
Â ¡
Ġa unque
ĠH i
i Ã¨re
mit tel
ec a
oc ra
Ġtr áº¡ng
g est
Ġv iá»ĩn
Ġpo ints
Ġhom bre
ĠÐ· Ð°ÑıÐ²
Ġop tim
Ġin iti
Ġ- --
Ġabb iamo
it ation
ĠÐº Ð°ÑĤ
Ġp il
Ġcir ca
ĠUni ted
ĠL au
é ľ
c jon
Ġbr and
Ġb io
ĠSeptem ber
ãģı ãĤĭ
ĠÑģÑĤ Ð¾ÑĢ
1 50
rol lo
Ġtem at
Ġtrans fer
ia is
Ġsig ui
Ġse ver
Ġk ob
ãģ£ãģ¦ ãģĦãģŁ
Ġqual itÃ©
æŃ ³
Ġstr ong
æĹ¥ ãģ¯
ĠwiÄĻ ks
Ġse em
pon se
ycz ne
ĠEsta dos
ÑĨ Ðµ
Ġe ta
Ġçµ Ĳ
Ġw ÅĤas
Ġto gether
Ġex erc
3 00
ĠdÃ© velo
ĠN os
ĠæĻĤ è¨Ī
C C
éģ ©
re ad
k ed
j Ãł
a Ã§Ãµes
ĠA ff
Ñĥ ÑĢÐ°
OS T
Ġph ÃŃa
Ġindivid u
Ð¡ Ð¢
Ġint Ã©r
Ġel es
éĺ ²
Ġob jec
Ġsam och
zec zy
Ġd ys
ĠL ar
Ġcontin ua
ĠM S
ĠC ette
Ġ ãģ§ãĤĤ
éĽ £
ir ma
................ ................
Ġse p
Ġ? ?
Ġv enta
Ġchá»ĭ u
ĠBus iness
tag on
Ġï¼ Ĩ
Ġpr ior
Ġresulta dos
Ġdost ÄĻp
ĠD la
áº¡ p
ĠÐ¸ Ñİ
w ick
ĠDies e
F OR
Ã´ t
Ġus ta
ĠSt art
ĠT in
ãģĹ ãģªãģĦ
Ð± Ñĭ
Z A
ĠL eb
ĠAn s
Ġj ur
ier on
Ġ5 30
Ġrecher che
Ġde be
Ġcl ose
è ¥¿
á»Ĺ i
iv al
çī Ī
åĭ Ŀ
ãģĵ ãĤĮ
æĸĻ çĲĨ
ert as
ĠÐºÐ² Ð°ÑĢÑĤ
ĠÐ´Ð¾Ðº ÑĥÐ¼
Ġr ess
I i
ug no
p Ã©
f y
I j
Ġof ten
Ġav ere
ist es
Ãª t
Ġv eg
Ġde pend
Ġch áº¯c
Ġimm ag
éĺ ª
å² ¡
ĠÑģÑĤ Ð°ÑĢ
å¥³ æĢ§
áº§ ng
Ġal imenta
row n
iv os
Ġcomp an
ĠçĶ Ł
åį Ĭ
Ġr ub
Ġsta y
ze w
bo ard
Ġr ice
ĠR ock
ĠD ar
Ġdi z
ĠS us
ĠS ac
Ġs vilu
ch nik
as a
G V
ĠS ty
ĠrÃ© alis
kt Ã³w
ĠÄĳ Ãłn
åĮ Ĺ
ic amente
ĠÑĥ ÑĤ
Ġsim p
ĠÐ» ÐµÐ³
Ġd one
Ðº Ð°Ð¼Ð¸
Ġch am
æ§ ĭ
Ġrealiz ar
Ġdo k
ãģ® äºº
ĠãģĹãģĭ ãģĹ
ĠT it
Ð Ļ
Ġtra tta
ĠS ob
Ġkh Ã¡
Ġdo v
ĠÑĥ ÑĢÐ¾Ð²
å½ ±
Ġtr ib
Ġacc omp
ĠCon c
Ð°Ð» Ð¸ÑģÑĤ
Ġno va
Ġl am
Ġel los
Ġd Ãłnh
fa ult
Ġpe ÅĤ
Ð´ Ð¸Ð½
ĠktÃ³r ych
b io
Ã¼ss en
ent as
d d
Ġll am
Ġliv re
Ġdesen volv
ĠÑĤÐµÐ» ÐµÑĦ
Ġra dio
ber o
Ġåľ °
é º
ĠD ay
ãĤ¦ ãĤ§
uj emy
ÐµÑĩ ÐµÐ½Ð¸Ðµ
ĠÑĤ ÑĢÐ°Ð½
ĠR ou
ĠR en
Ġãĥ ĭ
Þ §
D R
Ġl Ã¢u
ãĤĴ ä½¿
Ġä» ĸ
ĠK at
im on
ĠÐ½ ÐµÐº
Ġt ai
Ġph áº¡m
Ġin nova
und ial
Â Ń
Ġqual itÃł
Ġou v
ĠãĤ· ãĥ£
Ġmed ic
ĠM edia
Ð¾Ðº Ð°
ÐµÐ² Ð°
ess en
Ġprod otti
ĠO N
Ġ, âĢĿ
Ġå £
Ġun ique
Ġav ons
Ġau d
ãĥ¼ãĥ ª
Ġqu at
ra y
ĠÑĥÑģÐ» ÑĥÐ³
d ÄĻ
ENT O
ub o
æ Ĳ
ĠÑģÑĤ Ð°ÑĤÑĮ
ĠÄĳ Ã¡ng
ĠV I
ĠS U
ĠRe view
Ã©rie ur
Ġç Ł
Ġat tend
ĠX xx
Ġï¼ ħ
Ġmob il
Ġcele bra
Ð¾Ð» Ð¶
id d
Ġpre ven
ĠGre en
ãĥ³ãĤ µ
åī ¤
r ÄĻ
ĠÄĲ á»ĥ
Ġfal ta
Ġsc el
Ġpre t
al og
Ġgratu it
ter o
ĠÑįÐº ÑģÐ¿
Ð°Ð» Ð¾ÑģÑĮ
ich tig
ĠÐ± Ð»
ĠÐŀ Ð½
Ġreg ard
ĠÐŀ Ñģ
ĠÐ½ Ð°Ð¼
Ã©ra tion
Ġsal a
ĠæĿ± äº¬
Ġleg al
ĠNov ember
Ġder ni
Ġl ed
Ã¶ s
id ence
ĠHo Ãłng
ite ment
Ġãĥķ ãĤ¡
ĠÐ±Ñĭ Ð»Ð°
ĠH ouse
ist s
if t
ĠÐ¿ÑĢÐ¸Ð¼ ÐµÐ½
ĠK ing
ãĥ¼ãĥ ķ
ĠhÃ£ y
Ð¾Ð¶ Ðµ
ÑĢ ÐµÑģ
ĠÐ³ ÑĢÑĥÐ¿Ð¿
å» º
Ã Ŀ
H A
Ġæ ±
ĠÐľ Ñĭ
ĠF ederal
Ġwh y
ĠÃ ¬
Ġsu e
Ġo v
ãģ«ãĤĪ ãĤĬ
ãģ«ãģª ãĤĬãģ¾ãģĻ
Ġun til
ĠJa hre
ãĥģ ãĤ§
ag na
æĿ ¡
Ġper fe
ĠÐº Ð»Ð¸
Ġa vez
ĠOp en
çŃ ĸ
ita ciÃ³n
Ġs Æ¡
Ġcon st
Ġch em
ĠP om
og en
l le
Ġcal idad
or ation
ĠF OR
pa ti
Ġin nych
Ġsegu ir
Ġst ars
Ġal Ã©m
Ġplus ieurs
Ġinter est
Ġdi ver
Ġfac ebook
ĠH ay
ĠB ud
ia to
Ġd ÅĤug
ĠN ue
ĠÐ² ÑĤÐ¾ÑĢ
ãĥ¼ãĥ Ĭ
t z
Ġä¸ ī
Ġsto ck
tr zy
Ġr ies
ĠP ow
ut es
ĠB io
Ġb at
Ð¼ Ðµ
fol g
ĠR u
ĠCar los
Ġmod if
Ġmar s
Ġl and
ÃŃt ulo
Ġnue va
ĠRo z
èŃ ĺ
Ġs ai
Ġprime ira
osp odar
Ġob ie
Ġho áº¡ch
Ġzw ischen
ĠH áº£i
ĠÑģÑĤ ÑĢÐ¾
ĠV ie
è °
an Äħ
Ġos p
ard ziej
Ġfoll ando
ÐµÐ¹ ÑĩÐ°Ñģ
Ð°Ðº Ñģ
Ð° ÑĨÐ¸Ð¾Ð½
ire d
ÃĪ Ãĭ
æĶ ¿
Ġam igos
ĠD Æ°Æ¡ng
Ġstr ut
f Ã©
b ile
E X
ãģ®è ©
ĠÐ¼Ð¾Ð¶ÐµÑĤ Ðµ
Ðº Ð¸Ð¹
it are
Ġalgun s
åŁ Ł
Ã¡ tico
Ġinde pend
Ġmat ch
Ġbere its
ãģ¦ ãģĦãĤĭ
ĠÑįÑĤ Ð¾ÑĤ
Ġt á»ĳ
Ð°Ð½ Ñĭ
Ġpos to
ĠãĤ ´
Ġb ol
ãĤĩ ãģ£ãģ¨
Ġcur so
z immer
Ġes tr
ÑģÐº Ð°Ð·
æı Ĳ
Ġall er
it u
Ġserv izi
K A
ĠAr m
Ġm Ã¶glich
ĠB M
äº ķ
y al
on om
ĠCont in
ĠL ive
æº Ģ
ãģŁ ãĤī
Ð¸ÑĩÐµÑģÐº Ð¸
ĠÑĪ Ðº
Ġme in
x ima
Ġna cional
Ġsp ace
ub a
P T
åŃ Ĺ
ing e
ĠD ou
op er
Ġout ro
Ġn Ã¢ng
l Ã¤
Ġc áºŃp
Ġæ ³
Ġman e
Ġca ÅĤ
ãĢ ĳ
ran k
Ġinv ol
ĠÐ² Ð¾Ð»
Ġm ini
ãģ¯ ãģªãģĦ
is is
B N
Ġ ãģªãĤĵ
Ġc oc
ä¸ĸ çķĮ
ãģ« å¯¾
æĻĤ è¨Ī
Ð¾Ð³ ÑĢÐ°ÑĦ
ib ra
Ġngh á»ĭ
Äħ da
ta ÅĤ
ig ne
I jo
ĠÐ·Ð° Ñī
ĠHo a
pr ession
ori as
Ġ13 0
ĠâĢ¦ .
Ã¼n s
Ġsul le
ĠA h
Ã¹ i
Ġnavig ation
Ġha ving
ges ch
Ġpr esso
Ġãĥ Ĭ
ĠÑįÑĤ Ð¾Ð¹
Ġsy st
Ġmul her
â Ĺ
Ġmet al
Ñĥ ÑİÑĤ
Ġl ater
Ġcomple to
ãģı ãĤīãģĦ
ĠÃ Ł
ãĤĴ è¡Į
ĠP ot
I AN
Ġwsp Ã³ÅĤ
a ciones
ĠG alaxy
ãĥ¡ ãĥª
Ã¡ u
ag li
ti qu
Ġes cu
ĠM Ã¡s
Ġ12 5
Ġcha que
åĳ ¨
åıĹ ãģĳ
Ġdies es
ĠP on
ut t
ĠÐ¼ Ð°ÑĪ
ĠDe us
ĠB ig
Ġ" );
Ġc ic
Ð½ Ð¸Ñħ
b ia
ĠT am
ãģ®å ¾
ĠB ot
in nen
Ġpar ece
ĠD ES
Ġd áº¡ng
ÐµÐ³ Ð´Ð°
ow iÄħ
Ġst ory
Ġn ight
Ñĥ ÐµÑĤÑģÑı
Ġk iáº¿m
ri que
Ġhá»ĵ i
ob y
ill as
Ġmog Äħ
Ã¨ ne
Ġpre zzo
Ġdod at
ĠAb s
Ġer o
Ġæ ´
Ġus ÅĤug
Ġwie le
Ġtak ie
Ġs Ã¢n
Ġf isc
Ġem pre
Æ°á» Ľi
ÃŃs ticas
co le
ĠÄĲ Ã¢y
ĠS or
é¤ ¨
Ġcz ÅĤ
IC O
Ġkh áº©u
Ġdu Å¼
Ġfut ure
Ġal ign
Ë Ĩ
Ad visor
ĠÐ½Ð° ÑħÐ¾Ð´
Ġæ ¬
ĠN as
ut ar
ç¢º èªį
ãģĭ ãĤĭ
p m
ĠÐ² Ð°Ñģ
Ġmo y
Ġlav or
AR D
u ela
x _
ig keit
for d
ÑĢ Ð¸ÑĤ
Ãĵ N
Ġï¼ ŀ
Ġnoss a
Ð ¥
Ġmain ten
Ġdevelop ment
Ġcon nec
ãģĹ ãĤĥ
Ġd Ã²ng
ĠBe it
ĠðŁ ĺ
ĠÃ© c
ent en
Ġg ames
Ġagain st
ĠIt ali
Ġ& &
ãĥ³ãĥ ĳ
Ġkon k
ĠK Ã¼
ĠB áº¯c
am iÄĻ
ĠBe ach
Ġstud io
ay a
Ġsol ic
Ã¨ le
tto bre
Ġè ³
Ġjus qu
Ġatra vÃ©s
ĠN ar
Ñĥ Ð¹
on de
Ġand ere
ap s
Ġpr end
Ġequi po
in ie
er ve
ĠM ol
eb y
à³į à²
Ġodpow ied
Ġj unto
Ġes tudi
ÅĦ ski
ĠP ic
ĠK re
ĠArtik el
Ð¾Ð´ Ð°ÑĢ
Ġm s
az io
Ġmen o
æ¡ Ī
Ġph á»§
E A
Ð¸Ð¼ Ð¾ÑģÑĤÑĮ
ow i
z one
Ġpou vez
Ġinterna tional
Ġk red
åı į
Ġspeci fic
ogra ph
éł Ĥ
ÄĻ pu
Ġ19 99
ĠãĤ ½
ĠTr ib
ãģ¨ ãģ®
æķ ´
ier i
E B
Ġãģ Ĩ
Ġesta ble
Ġc ena
Ġpre oc
Ġh Ã´m
ĠSu jet
Ġpre vis
ÑĭÐ² Ð°ÑĤÑĮ
Ġwur den
Ġká» ĥ
iÃªn cia
ĠE T
ĠBew ert
ĠB ou
éĿ ŀ
æİ ¥
ãģ¨ ãģĨ
un cios
Ġcoun try
Ġap Ã³s
Ġ' );
en iu
ĠâĦ ¢
Ð¸ ÑĦ
Ġno ta
ĠmoÅ¼ liwo
ĠU ma
Ġd abei
f ra
ĠTh Ã¡ng
ãģł ãģ¨
ĠpolÃŃ tica
Ġac count
ãģĹãģ¦ ãģĦãģŁ
ai xo
ĠK it
we et
ung e
Ġprin ci
Ġco unt
ĠE conom
åº §
Ð° ÑģÐº
Ġ{ "
Ġprodu its
c b
ĠÑĥ Ð¿ÑĢÐ°Ð²
åĲĮ ãģĺ
ĠÐ¾Ð± ÑıÐ·
Ð¾Ð´ ÐµÑĢÐ¶
Ġwar en
ãĥļ ãĥ¼ãĤ¸
k cji
Ġnh áºŃt
ĠMicha el
Ġng á»§
ci ale
ĠVen ez
ĠMuj er
Ġkosten los
ĠEl le
om men
ĠI g
ãģ¾ ãģŁ
ĠPh il
Ń ¦
Ġl áº¡nh
Ġhab ÃŃa
ĠdÃ© jÃł
Ġall en
Ġcli ent
ag ens
Ġmel h
ĠçĽ ¸
ĠF el
ĠÐ´ ÐµÐº
Ġsim ples
is me
ĠM Ã¡y
ĠÐ¾Ð± Ð¾ÑĢ
ĠÐ´ ÑĢ
Ġ= >
ĠG li
ãĥ© ãĥ³
ĠR ic
ãģĮ ãģªãģĦ
it ing
col a
ĠÑģÐ¾Ð¾ÑĤÐ²ÐµÑĤ ÑģÑĤÐ²
ĠS ER
z io
tem bre
Ġu á»ĳng
ĠTh Ã´ng
c jÄĻ
ä¼ģ æ¥Ń
ĠD am
Ġcar atter
Ġgra zie
ĠÐ¿Ð¾Ðº ÑĥÐ¿
Ġtar de
Ġl assen
8 1
ĠÐ¿ÑĢÐ¾ ÑĪ
Ġdo p
ï¼ ĸ
b us
Ġf Ã¡cil
Ġç ¥
ĠC ateg
qu ina
Ġr os
Ġparti e
ol ar
ĠÐ¼ Ð°ÑĢ
Ġges ch
ĠZ u
EN D
Ġz g
ĠG B
ĠÐ¼Ð°ÑĤÐµÑĢÐ¸ Ð°Ð»
ãģ® ä¸Ģ
z ego
é Ĭ
Ġpre g
en ci
Ġcas os
ers on
ĠÑģ Ð½
ĠÐ¿ÑĢ Ð¸Ñĩ
ãĥį ãĥ«
ĠÐ¼ ÐµÑģÑı
ĠÄĳo áº¡n
ĠÑĥ Ð³
Ã¤n der
ÐµÑģÑĤÐ² Ð°
ot es
éł Ń
ys ÅĤ
j an
ĠÐ°Ð²ÑĤÐ¾Ð¼ Ð¾Ð±
ĠH ab
ĠÃ Ľ
Ġnh Ã©
Ġcent ral
enn en
Ġv ier
ÑĥÐ»Ñı ÑĢ
ĠAd idas
ãģ®å ¥
Ð¾Ñı Ñī
Ġvez es
Ġp ied
Ġ3 60
Ã¨ o
ak ter
ĠÐ¶ Ð¸Ð·
ĠB B
ĠéĽ »
Ġãĥ Ķ
æĪ ¸
Ð¸ÑĤ ÐµÐ»Ð¸
y pe
ta kt
Ġs ong
Ġnouve au
h Ãµes
Ð½ Ð¸Ñĩ
Ġinf lu
abil ity
ĠSe ite
Ñĳ ÑĤ
y j
ĠB eg
Ñĥ Ð»Ð¸
Ġbeau tiful
Ġæ Ķ
Ġh áº¯n
Ġcr ia
ĠÄĳ au
Ġte ach
ĠEs s
Ġtran qu
Ġcos as
ac ia
ĠBl u
Ġde z
v d
Ġä¸Ń åı¤
å® Į
ac jÄĻ
ĠX u
ĠÐºÐ¾Ð¼Ð¿ Ð°Ð½Ð¸Ð¸
Ġcon n
Ġa er
s iÄĻ
ãĤ¢ ãĥĥãĥĹ
ĳ ng
Ġu k
ĠÐ¿Ð¾ ÑıÐ²
n ung
Ġn oc
Ġnh á»Ľ
Ġmost ra
Ġer h
Ġag ua
ĠJ ust
Ġç ľ
Ġstr uc
ĠÐ´ ÐµÐ²
ĠV N
Ġwh ite
Ġu y
Ġu00 3
Ġresp ec
ĠCan ada
Ġh ost
Ġcon trib
ĠD aten
Ġinst all
Ġv á»ĳn
Ġpre ced
ĠTh Ã¡i
O U
Ġcl os
Å ĵ
ĠÑĢ ÑĥÑģ
t Ãł
am t
Ġinv ece
Ġhom bres
Ġqual che
Ġex cel
Ġtra vel
) ,
Ġr in
ĠSch w
ĠG as
fa hren
ĠÑģÐ» ÑĥÐ¶
Ġtem u
Ġl ip
ĠFeb ru
ĠSec ret
ĠS Æ¡n
çĶ ³
ÑĭÐ² Ð°ÐµÑĤ
Ġch áº¿t
r esse
Ġæ ²
ĠÄĳ Ã´ng
Ġenf ants
pp en
Ġãģ ¤
Ġst anow
is cher
l og
cr ib
Ġaut hor
w in
und s
k iej
ĠP age
oss a
Ġh ar
Ġd atos
ĠC iv
ÐµÐ´ ÐµÑĢ
Ã© li
szy ch
ĠÑĩ Ð¸Ñģ
áº© y
Ġset tim
Ð°Ð½ Ð¾
Ġ ä¹
Ġpropr i
ter na
ĠÐºÐ¾Ð¼ Ð¿Ð»
Ġs áº»
Ġma kes
Ġde dic
Ã¤ hl
Ġn ive
Ġg á»Ńi
Ð ¬
ÅĤu Å¼
el ho
P C
ĠÐ¶Ð¸Ð· Ð½Ð¸
Ġ08 1
ors a
Ġt us
Ġca use
Ġci Äħ
Ġb Ã¡c
ĠM ill
ç© ¶
ĠÐ½ Ð°Ð±
iel le
ĠÑģÐ»ÑĥÑĩÐ° Ðµ
Ġå ķĨåĵģ
or en
ĠM B
Ð°ÑĤÐµÐ»ÑĮ Ð½Ð¾
i Ã³
ĠÐ·Ð°Ðº Ð¾Ð½
G R
ĠvÃŃ de
m iss
Ġè¦ ĭ
Ġcomer cial
Ġt ant
Ġpou co
Ġpar l
ĠH am
Ġau dio
Ġto uch
Ġbut ton
y es
Ġan ci
Ġwszyst ko
ĠQu esto
ĠT ot
T T
Ġm oc
Ġgu ard
Ġele ment
Ġtut ta
Ġson dern
Ð¸Ð¼ ÐµÑĢ
ĠM ini
ï¼Ĳ ï¼Ĳ
con o
ç ĸ
Ġtur n
è Į
ãģ®å Ĩ
Ġãĥ «
id or
Ġar ty
ãģĻãĤĭ ãģĵãģ¨ãģĮ
Ġres erv
ãģ ¼
Ġè £
Ġpa ci
Ġman agement
ĠP en
Ġs cu
Ġpro va
c Ã©
Ġc n
Ã¤ ll
Ġmemb ers
Ġexc ell
Ġann on
iti ve
Ġpro bl
r ont
IN A
Ġ. :
ĠC y
Ð¸Ð² Ð°ÑĤÑĮ
is ir
ĠÐ¡ Ð¾
ĠFem me
c al
Ġlib re
Ġgu ar
Ġwszyst kie
Ġo thers
Ġe jem
isti an
éĸ¢ ä¿Ĥ
Ġvel oc
Ġsoll te
Ġm entre
Ġf en
Ã± as
ab ly
zi om
iel s
b t
Ġcomp te
ÑĢÐ° Ñħ
l s
ab el
ĠÄĳ Ã´i
Ġn aleÅ¼y
Ġsta bil
ĠS K
w anie
ĠÐ» Ð¸ÑĪ
Ġincl us
Ġprogram ma
Ġmater i
Ð¾Ð² Ð°Ñı
ĠMin ister
Ġ ici
Ġst oria
Ġr ange
ĠN ic
Ġd uy
ib a
Ġgo ogle
g s
Ġad olesc
ÄĻ Å¼
Ġcle ar
Ġroz p
Ġj es
ĠÃŃ ch
ĠBund es
Ġ>< /
ÑĢÐ° ÑģÑĤ
Ġen qu
åı ĭ
Ã ŀ
ĠÐ¿ÑĢ Ð¾Ñģ
ĠMas ter
ĠÐ¿ Ð¾Ð±
ĠContact os
ĠÃ °
Ġl etz
Ġcondi tions
ĠN i
f Ã¼r
Ġå ģ
Ġa ument
ti ene
åķı é¡Į
Ð §
Ġalle m
ĠÑģÐ² Ð¾Ð¹
ĠÄĳá» į
Ġw ol
ĠNo te
Ð¿ Ð¸Ñģ
Ġth ing
Ġb este
åĲ «
Ñĥ ÐºÑĤ
Ġph Ã©p
p y
av il
lich er
Ġdes car
f el
Ġsu oi
è¾¼ ãģ¿
Ġdo it
Ġrec ursos
Ġk to
Ġcar te
æī ķ
ĠÃºl timo
ĠÐķ Ð²
ĠæĬ ķç¨¿
ĠJu an
ĠÐ³ Ð¾ÑĤÐ¾Ð²
li ent
ĠUR L
ĠMe hr
ĠCon se
ann t
ĠAl ber
Ð¸Ð² Ð°ÐµÑĤ
Ġproduc tion
Ġprod utos
ĠC le
ãĤĪ ãģı
Ġins tr
Ġtr Ãªs
ĠÐºÐ¾Ð» Ð¸Ñĩ
è¦ ĸ
om ini
Ġf ru
ĠS ign
Ġ3 50
o v
Ġè ī
Ġbec ome
Ġpel os
ĠÐ¿ Ð¾Ð³
Ġsav oir
Ġng uy
Ã¼ h
za zione
Ġth iá»ĩn
Ġme ans
Ġf is
Ġpartici pa
Ġ08 15
h in
Ġqu ick
Ġph Ãºt
Ġch á»¯a
± æ¯Ľ
ĠÐ¾ Ð³
Ġuns ere
Ġe ver
ĠL y
na ta
ile d
ÐµÐ½ Ñģ
w est
s elf
na io
Ġtra du
ĠF ort
Ġloc aliz
ĠC S
Ġ: "
Ã©r io
Ġa tu
ÑĥÑĤ ÑĢ
Ġbast ante
pla ce
Ġm Ã¼ssen
Ġcent re
ale Å¼
Ġz ob
AD O
to ut
Ġmess age
Ġfri end
Ġh Ã´tel
Ġb Æ°á»Ľc
Ġs Æ°
Ġin ner
Ġcr Ã©d
å¯ Ħ
Ġsec ret
Ġar qu
ĠÐĲÐ» ÐµÐºÑģ
ĠC es
à² ¿
ĠP at
° ¡
éł ¼
Ġaf in
Ġf ÃŃs
Ġin tel
sk im
er m
Ġcon duc
ãĥª ãĥ¼ãĤº
ãģłãģĳ ãģ§
Ġen er
Ð°Ð»ÑĮ Ð½Ð°Ñı
f it
ĠUn idos
Ġtr Ã¡i
ãģ« ãģĹãģ¦
Ġrisp etto
Ġpo pr
ĠP in
é Ĥ
Ġver b
Ġinter ior
Ġide as
Ġf ase
ç Ĩ
ãģ§ãģ¯ ãģªãģĦ
ĠGro up
ĠÐ¾Ð± ÐµÑģÐ¿
Ð°ÑĤ Ð¾Ð²
ĠÑħ Ð°ÑĢÐ°ÐºÑĤÐµÑĢ
ĠÐ± Ð»Ð°Ð³
Ġrec om
Ġdu as
era Ã§Ã£o
ĠÑĥ Ð·
ĠF un
l it
ĠJ ack
ÐĿ Ðĺ
Ġadd ress
ens ch
Ġnou velle
Ð³ Ð°
ĠV Ã¬
al le
Ġvo it
Ġsta ti
ĠT Ã¢y
ĠK unden
ãģ® ãĤ¢
re ady
ka ÅĦ
ÑĢ ÑĭÑĤ
uch a
ind en
Ġtuy áº¿n
Ġjak ie
Ġers ten
Ð¸Ñı Ñħ
Ġä»Ĭ åĽŀ
Ġno ti
Ġm ort
ĠC ir
ĠÑģÐ¾Ð± ÑģÑĤÐ²ÐµÐ½
Ġk w
Ġdel iver
Ġam eric
ĠY a
aix a
Ġreg ion
åĩ ¦
Ġt áº§ng
Ġservi Ã§os
n as
d ia
ĠÑģÑĤ Ð¾Ð»
Ġd ados
ãĥ ¦
do or
ch ia
ĠÑĥ Ð±
âĶ ģ
Ġperm ite
Ġ? âĢĿ
Ì£ c
Ġtr ip
Ð» ÐµÐº
Ġproje to
Ġrap id
Ġattra verso
or g
Ġpo zw
ge w
ĠK am
ĠRad io
Ġak tu
Ġ2 20
or ar
Ġprze ci
ri te
Ġcz erw
Ġmo to
ĠM am
ĠÑĢÐ°Ð· Ð»Ð¸Ñĩ
Ġa im
éĢ ±
ãģĮ åĩº
un kt
ĠO S
Ġac ordo
ĠD ate
Ġtre at
Ġh ui
al en
ĠÐ½ Ð¾Ð¼
Ġ Æ°u
Ġvis ita
Ġpod czas
Ġpap el
Ġprote c
Ġf iz
Ġcor so
Ġz ast
Ġalc uni
Ġa pos
ĠEngl ish
ÐµÐ¼ Ð¾Ð½ÑĤ
ãģ ľ
Ġç ¨
Ġj ud
k lich
Ġqual idade
Ġoff ice
ä¸Ĭ ãģĮ
ie c
Ġbis og
çŁ ³
ãģĬ ãĤĬ
ĠÂ £Â
Ð» Ð°Ð¼
Ġwy da
Ġk aufen
Ġh ours
ãĥ©ãĤ¤ ãĥ³
ch od
Ġæ Ģ
Ġtá» ĭ
Ġden n
ĠH owever
Ð¸ÑĤ Ð°
Ġcir c
ĠJ our
Ġm Ã´n
ĠMot or
ÑĨÐ¸ Ð¿
ĠOd powie
Ġqu ad
éļ İ
Ġl inh
ãģ§ ãģ®
Ġhom me
æ³ ģ
Ã¤t z
icz nych
ĠÐ¼ Ð¾ÑĢ
ĠDe f
ÅĦst wa
ĠN G
ãĥĿ ãĤ¤ãĥ³ãĥĪ
Ġarti st
Ġkomm t
ĠCom ple
Ð¾Ð´ Ñĭ
ous el
ite c
Ġsenti do
Ġke in
ĠF estival
m ite
all es
ĠprÃ©s ent
Ġvec es
Ġers t
ow anych
Ġmon itor
Ġim pres
Ġentre prise
ĠF ig
men o
Ġmill ones
Ġexem ple
ĠPor to
ĠK ur
d igo
Ġnh i
ĠmÃºs ica
Ġen ough
ĠR ub
åĽ £
ÐµÑĤ ÑĢ
b ach
zy n
Ġï¼ ł
ĠG el
ĠAnton io
r ale
p ack
Ġr z
ĠpÃ¡g ina
Ġpeu vent
Ġch iá»ģu
ta Ã§Ã£o
Ġqu elle
ĠArbe its
Ġãĥ ¦
ĠR ap
Ġres ults
Ġgra do
Ġcom es
Ġhist ory
łĶ ç©¶
ĠM is
ĠÐºÐ¾Ð½ ÑĤÑĢ
Ġprzypad ku
ont os
Ġm Ã¹a
fÃ¼ g
Ġul tima
Ġje ÅĽli
Ġx anh
sch ied
is as
ĠCh amp
Ġtu áº§n
ãģĭ ãĤĤãģĹãĤĮ
Ġç ¬ĳ
um mer
pu esta
ĠP hoto
ĠS ome
åģ ´
ie u
ĠLond on
ĠÑģ ÑĥÐ¼
ĠÐº Ð°Ð¼
Ġczy li
inh os
è© ķ
Ġv Ã²ng
Ġbamb ini
ÑĥÐ½ Ðº
á»ĭ p
Ġpriv ate
ĠP ok
ĠM es
Ġin izia
Ġch au
ri es
ĠÑģ Ð¾ÑĤ
Ġre ma
çĹ ħ
b 3
ÑĥÐ· Ñĭ
ure zza
Ð¸Ð»Ð¸ ÑģÑĮ
ĠcÃ³ mo
Ġcul ture
ãĤ¯ ãĤ»
ig i
ĠF C
Ġe ig
ĠPre mi
Ġby ÅĤa
ĠC AS
ĠB ern
Ġcons ult
Ġh Ã²a
Ġfor me
Ĵ °
ĠÄĳá»į c
Ð¸Ðº Ðµ
Ġch w
Ġad emÃ¡s
Ð°Ð» Ðµ
u ale
o z
C OM
ĠÑĥ Ð¿
Ġth áº¯ng
å¢ ĥ
Ġad min
E n
ĠÐļ ÑĥÐ¿Ð¸ÑĤÑĮ
Ġgiá» ĳng
ma ch
ith er
ac ie
H z
Ġsel f
Ġm p
ĠTr ump
é£Ł ãģ¹
ĠM ach
áº ¤
Ġzur Ã¼ck
ÑĢÐ° Ñĩ
ÑıÑĤ ÑģÑı
ĠÑį ÑĦÑĦ
çĲ ĥ
Ġent r
ke y
Ġå¹ ´
ĠÐ¿ÑĢ Ð°ÐºÑĤ
ãģı ãĤĮãĤĭ
an ego
Ġbon ne
Ġr encontre
ol tre
Ġè ĭ
Ġï ¿
ĠâĹ ĭ
ĠMar k
Ġmet hod
Ġdi jo
æŀ ļ
Ġpod ob
Ġch áº¡y
N O
Ġph Ã¡
ãĥĩ ãĥ«
ç ħ
ap ia
Ġcon du
ĠPr os
çķ °
ä» »
Ġalgun os
Ġdz iaÅĤa
åº ľ
Ġch Ãº
ĠP ad
ĠA ch
Ġsem a
åĮ »
å½ ¹
ĠD eb
} ,"
Ġoff ers
ĠM ir
ãģ« ãģĭ
Ġla o
ĠÐ½ÐµÑģÐº Ð¾Ð»ÑĮÐºÐ¾
Ġon ce
Ġconoc er
æĹ ©
ur re
Ġver de
Ġinter v
Ġâ Ĥ
Ġinv est
ĠÑģÐ¼ Ð¾ÑĤÑĢ
Ġhe ute
ies te
Ġmuch os
ĠN uo
ĠÐ² Ð¾ÑĤ
Ġfem me
Ġm ys
ĠÑı Ð·Ñĭ
ÄĻ t
Ġentre pr
ÃŃ m
Ġv uel
äºº ãģ¯
Ġtr Ã²
ĠH en
å± Ģ
Ġresulta do
ĠÐ¿ÐµÑĢ ÐµÐ²
Ġp urch
Ġim pos
ĠÐ¡ Ð°Ð¼
Ġpro to
Ġmach ine
y tu
Ġt un
Ġmen u
c s
ĠS ud
Ġpe qu
ĠL am
ien st
Ġin icia
er as
Ġvers o
Ġn áº±m
ãģ£ãģ¦ ãĤĭ
ĠãĤ³ ãĥĶãĥ¼
Ġn p
Ġaqu ÃŃ
Ð¸Ð½ Ð¾Ð²
od en
Ġpar am
Ġsever al
ĠÐ½Ð°Ð¿ ÑĢÐ°Ð²
Ġrec enz
ĠC Ã´
ENT E
ãĥ³ãĥ ĩ
Ġpremi Ã¨re
ĠIs ra
ĠÐ´Ðµ ÑıÑĤÐµÐ»ÑĮ
Ġodp owie
ä¸ İ
Ġpart ner
ĠF all
Ġso le
Ġna tional
ãģ® ãģ¿
Ð° ÑĨÐ¸Ñİ
l ers
Ġversch ied
Ġngo áº¡i
Ġm iÄĻdzy
Ġal ready
ĠJes us
ĠA o
ï¼ ī
è° ·
ç® Ĺ
lie ÃŁ
Ġmiejs ce
ĠTr áº§n
ent ras
ãĥ ¨
Ð¾Ð½ Ð¾Ð²
an na
Ġus ers
hal t
ĠÑĤ Ðµ
Ð½Ð°Ðº Ð¾Ð¼
« ng
Ġposs ÃŃvel
Ġcar r
Ġdom in
ÐµÐ´ Ð¸Ð½
ran no
Ġreg ul
Ġc ut
Ġb ank
ÐµÐ» Ð¸Ñĩ
Ð°ÑĤ Ðµ
ĠT ou
ĠRe ad
z eda
ĠW ord
Ġc Ã¢n
Ġpas ado
Ġperson n
ĠJe ÅĽli
ĠC C
p et
Ġsu g
ĠV on
ĠDig ital
j s
ĠÐ²Ñģ ÐµÐ³Ð´Ð°
Ġju in
A n
ĠÑģ ÐºÐ°ÑĩÐ°ÑĤÑĮ
Ġprod otto
Ġpos ible
Ġm Ã³n
ĠMÃ© xico
ĠL is
ãĥĽ ãĥĨãĥ«
Ġser ies
Ġne uen
ĠMar tin
Ð¸Ð·Ð½ ÐµÑģ
ĠÐ¿ ÑĥÑĤ
ĠÃºl tima
ĠZ ar
ĠF it
ĠCent ral
ot ros
Ġc abe
dz iel
Ġty p
Ġk las
ĠB Ã¡n
ur r
Ġwy p
ĠV an
Ġsal ud
ãģĭ ãģ«
ģ m
Ġrecomm end
Ġfri ends
ĠÐ° Ð¿
end as
Ġx Ã©t
Ġcome Ã§
col i
ĠX V
g nos
ÐµÑĢ Ðº
Ġfe ed
è¼ ĥ
ĠÐ°ÐºÑĤ Ð¸Ð²
ĠÐ´ Ð°Ð²
Ġbard ziej
ãĤ· ãĥ§ãĥ³
Ġcamb io
æı ´
w es
ĠÑĤ Ð°Ð¼
Ġpro tagon
ĠÑĥ Ð¼
b n
Ġç ¶
Ġse ason
Ġmiejs c
li es
ib er
Ġtr áº¯ng
ĠH ai
n ot
ĠâĹ Ĩ
ow ana
om in
Ġmad uras
it able
ĠÑģ Ð¸Ð»
Ġpod emos
Ġa ta
ĠPr ze
ĠdÃ© p
ĠA gen
å± ķ
Ã´ le
Ġprecis a
ĠAn t
ien i
cion ar
ate ur
ĠpaÃŃs es
Ġcomple ta
Ġsul l
Ġch or
ĠPol s
è· ¯
ãģª ãģĹ
Ġth Æ¡
Ġst ore
æ¶ Ī
Ġcons ul
ĠL ang
ÌĢ ng
Ã ¾
Ġcon cl
Ġa ce
Ġsuper ior
Ġsta ff
Ġparte cip
ĠTr Æ°á»Ŀng
ĠåĲįçĦ¡ãģĹ ãģķãĤĵ
Ġper ÃŃ
ĠÑĢ Ð¾ÑģÑģ
Ġen se
Ġam pl
o ta
Ġl uc
Ġsec tor
Ġs n
ĠÐ¿ÑĢÐ¾ÑĦ ÐµÑģÑģ
Ġverd ad
Ġserv icio
ĠTrip Advisor
r ero
Ġverd ade
Ġre lev
ÃĦ Ãª
zÄħ t
ig ung
en cias
ĠA F
Ð» ÐµÑĤ
Ġmod a
ĠP A
à ¹
Ġwy gl
æ¥Ń èĢħ
E E
Ð¸Ñģ Ñģ
ÃŃc ulos
ate m
AT O
Ġexam ple
Ġre almente
Ġmod ifica
id ores
T h
Ġkom ple
ç Ī
ĠB O
ÅĽ cia
ig lio
ci endo
Ġm ud
K I
Ġel la
ĠN A
Ġå¤ ĸ
ĠÄĳÃ³ ng
Ðº Ð°Ð½
ĠW ed
ĠSo ftware
li Ã©
Ġtr á»Ŀi
Ġk ÃŃch
Ġesta mos
Ġi be
ĠB Ãłi
Ġn ivel
en zi
Ġco ÅĽ
ç´ ¢
Ġpi Ã¨
enta ires
ĠÄĲ á»ĭ
Ġhist Ã³ria
Ġres te
Ġme an
ĠW asser
Ġcol l
æ° ı
ÅĽ rÃ³d
Ġma xim
ĠI L
Ð´ Ð¶
Ġç ©
ĠÃĶ ng
Ġof fic
Ġh Ãºt
omo ÅĽci
Ġch á»ĵng
Ġres pe
ãģı ãĤĬ
par tamento
an til
ĠÐ§ ÑĤÐ¾
Ð¸ÑĩÐµÑģÐº Ð°Ñı
ãģĻ ãģİ
war zy
ĠÐ¾ÑĤÐ½Ð¾ ÑĪ
Ġn Ãłng
æ¬ ²
Ð°Ð¶Ð´ Ð°Ð½
æº ĸ
Ġpotrze b
Ã¼r lich
Ġv oc
iblio te
ĠÃ© conom
ĠF rom
za Äĩ
Ġc ot
é¡ Ķ
Ġac ross
ĠÑįÐº Ð¾Ð½Ð¾Ð¼
Ġ| --
Ġgra du
Ġnaj leps
mb H
ĠÐ¾Ðº Ð°Ð·
ĠCh Ãºng
Ã¡ veis
g end
ĠTh á»©
d ores
tis chen
ta dos
Ġç¾ İ
ĠÑģÐ´ÐµÐ» Ð°ÑĤÑĮ
Ġinf atti
åĥ į
Ġal um
æł ¹
Ġsk ÅĤad
å¤ «
Ġc á»Ļng
iá» ħ
Ġmod e
r icht
Ġï¿½ï¿½ï¿½ï¿½ï¿½ ï¿½ï¿½
Ġn ing
Ġibe x_
Ġb ill
Ġpr is
ur er
orn al
Ġå¹ ³
Ġ19 98
Ġsr c
Ġlu z
t d
ĠãģĿ ãĤĵãģª
Ġth iáº¿u
Ġex tens
ĠU B
ãĥ¼ãĥ Ģ
ĠÐ¿ÑĢÐµÐ´ Ð¿ÑĢ
æ® ĭ
an ol
ĠC ode
æĽ ¿
Ġdes te
Ġbel ow
ic ally
ĠÑģÐ¿Ðµ ÑĨÐ¸
ĠÐ± ÐµÐ»
ĠÐ±ÑĥÐ´ ÑĥÑĤ
Ã£ y
Ġwszyst kich
è¨ĺ äºĭ
an co
AT ION
Ġg al
Ġd orm
Ġ ì
ĠÑģÐ» Ð¾Ð²
ia te
Ġstr on
ĠP osta
ĠD amen
å¤§ ãģį
B L
ĠS ne
ç ª
iss ement
Ġæ¥ ½
Ġnh iá»ĩt
volu tion
ãĤī ãĤĮãģŁ
ãģ¤ ãĤĤ
ab ili
Ġspec jal
ĠâĢľ ,
ĠâĢ ł
æ ¢
ĠprÃ³ ximo
éĽ ¢
yn ku
gr id
Ġa ge
ĠL ux
ĠH Ãłn
ï¼ ĺ
åĬ¹ æŀľ
Ġre par
Ġo w
ĠFam il
f all
Ġcal led
æĽ ²
Ġem b
ĠR un
ĠB la
Ġho ch
ou ght
5 00
Ġæ İ
Ġproget to
ĠÑĥ ÐºÐ°Ð·
ÐµÑĢ Ñģ
Ġs ocia
Ġobs erv
Ġex press
Ð½ ÐµÐ³Ð¾
no v
éĻ º
ÄĻ zy
ro g
ĠB áº£n
Ġserv icios
Ġcompan ies
ÑĮ Ðµ
è¦ ļ
part ment
ta da
on ne
Y X
ĠãģŁ ãģł
ĠktÃ³r zy
Ġda zu
Ð¸Ð» Ð°ÑģÑĮ
Ġpro jec
Ġser ve
Ġper Ã²
Ġde dica
Ġa umento
ĠD urch
ãĤĬ ãģĮ
uf ac
emp io
Ġin m
ãĥ³ãĤŃ ãĥ³ãĤ°
Ġple ase
Ġf im
åīį ãģ«
ãģ®åł´ åĲĪ
ĠÐºÐ¾ÑĤÐ¾ÑĢ Ð°Ñı
Ġme ine
ĠC ro
b lo
ĠL iÃªn
ãĥ³ãĤ »
ĠMa in
Ġãģĵ ãģĵ
Ġproper ty
Ð¸Ð» Ð¾
ĠÂ¡Â ¢
è« ĸ
iv ed
Ġs ed
Ġqu áºŃn
ãģĵ ãģĨ
ĠStre et
Ġ/ >
ãĥ¼ ãģ®
Ġgio v
ĠNe xt
ator io
ĠÐŁÑĢ ÐµÐ´
Ġchar ge
ãģł ãģĭãĤī
ãģĺãĤĥ ãģªãģĦ
ĠÐľ Ð¸Ð½
Ġm iaÅĤ
ĠÑģÑĩ Ð¸ÑĤ
Ġne u
Ġm ise
ĠC od
Ġni Ã±os
ãĥ¼ãĤ³ ãĥĶãĥ¼
ta te
bra io
ĠS L
Ġåħ Ī
20 16
Ġv áº»
Ġnet work
p ora
Ġal gu
z ing
Ġmanif esta
ĠM E
Ġh old
Ġro man
æĹ ı
ãģĪ ãģŁ
Ġrela tions
Ġgra cias
Ġf la
æĬ Ģ
ãĥ¼ãĥĨ ãĤ£
ĠPortu gal
ĠDe z
Ġwe il
Ġks iÄħÅ¼
Ġim pl
ãĤĬ ãģ«
ÑģÐº Ð¾Ðµ
Ġsá»Ń a
Ġproduc tos
Ġch ance
ĠS ono
ĠPh Ã²ng
ãģ£ ãģĭãĤĬ
al u
Ġr ÄĻ
Ġcar ta
Ð¾Ð³ Ð¾Ð²Ð¾ÑĢ
Ð°Ð² ÑĪ
Ġau c
Ġmo tiv
Ġw ed
Ġtro va
Ġpr oss
ĠG ol
ĠÐ²Ð½ Ð¸Ð¼
Ġau g
Ñħ ÑĢÐ°Ð½
qui pe
Ġæµ ·
Ġat ta
ĠLa v
Ġitali ano
ĠK ir
å¥½ ãģį
rÃ³ Å¼
ĠÐ¿ Ð¾Ð¶
Ġst yl
ell ing
ĠAn im
ĠÑģ Ð¾Ð´ÐµÑĢÐ¶
æĸ¹ ãģĮ
Ġtrans form
ĠJ ose
ĠAv ec
Ġstr ony
Ġqu asi
Ġcomp a
ĠNgo Ãłi
ĠC ore
em o
ID E
ĠPol ÃŃ
um s
ro u
Ġrec ensioni
Ġget ting
Ð½Ð°Ðº Ð¾
C IA
ĠProdu kt
Ġf all
Ġtechn olog
ĠM ur
Ð¸Ð² ÑĪ
ĠktÃ³r ym
Ġevery thing
ĠÐºÐ¾ÑĤÐ¾ÑĢ ÑĭÑħ
un al
ĠÐ´ÑĢÑĥÐ³ Ð¸Ñħ
Ġprodu it
ĠFran ces
Ġk olor
g ue
us te
am enti
Ġdom u
é¡ĺ ãģĦ
ĠçĶ ·
ãģ®å ŃĲ
ĠB ien
ĠvÃł i
N ame
Ġoc zy
ĠP Ãºbl
Ġs iamo
Ġs ays
Ġl an
Ġvol te
Ġtuy á»ĩt
Ġn á»ģn
Ġn ag
ĠJul i
ion y
at te
ĠÑĤ ÑĥÑĢ
Ġrag gi
Ð°ÑĤ ÐµÐ»ÐµÐ¹
Ð ¦
Ġkn own
è²· åıĸ
Ġna tion
Ġdobr ze
ĠMa il
M I
Ġclass e
Ġcin co
ĠÄĳá»© ng
at as
Ġå ŃĲ
ãĤĴ ãģĻãĤĭ
Ġser ia
Ġmet tre
ĠBo x
ãĤ¶ ãĤ¤ãĥ³
mar k
IL L
Ġre present
Ġkil ka
Ġf osse
Ġcu isine
³ ç´°
room _
an ks
ÑĥÐ´ Ð°
Ġ") ,
çĶŁ æ´»
Ã ·
Ġsp ielen
ĠÐ¿ÑĢ ÐµÐ¿
Ġt Ã´
Ġesta va
ver a
ĠÑģÐº Ð¾ÑĢ
ĠÐ· Ð°Ð³
Ġkh Ã³a
ĠczÄĻ ÅĽci
est os
Ġcontin ue
ãģĮ ãģĤãĤĬ
ãģ¾ ãģ¾
ĠTH E
ĠEn d
ãģ®æ ī
Ġprzy go
Ġkhá»ı i
æĢĿ ãģĦ
orzy sta
Ġt Ã£o
Ġf icar
Ġg ab
m pa
led ge
ku p
f as
Ġmonth s
ĠkaÅ¼ d
ĠO P
ĠMar ch
Ġsolu tion
ers i
Ġens emble
Ġ á»§
ĠÐ½ Ð°Ð²
Ġm Ã³
åĨ į
red it
kow y
Ġp ÅĤy
Ġle i
è²· ãģĦ
ÐµÐº ÑģÑĤ
Ġvá» £
Ġoccas ion
Ġne ar
ĠÑĢÑĥÐ± Ð»ÐµÐ¹
Ġein mal
ÐµÐ½ Ð½Ð°Ñı
ĠB A
Ġ äººæ°Ĺ
ĠÐ²Ñĭ Ð±Ð¾ÑĢ
Ġz usammen
Ġfl u
å½ĵ ãģ«
ãģĭ ãģĳ
ĠÑĦÐ¾ÑĤ Ð¾
Ġæ° Ĺ
ĠÐ· Ð°ÑĤ
ĠAl so
ãĤ¯ ãĥ©
ĠÐ´ Ð¾ÑģÑĤÐ°Ð²
Ġnaj b
Ġdies en
ãĤĴ ãģĹãģ¦
B R
Ġz wy
Ġac uer
è¶Ĭ ãģĹ
Ġmill ion
ĠCh Æ°Æ¡ng
ĠAl s
ĠÐ¿ÑĢÐµÐ´ Ð»Ð¾Ð¶
ĠÐºÑĢ ÐµÐ´Ð¸ÑĤ
Ġv og
ĠH au
Ġup load
ĠMon te
ĠMarket ing
ĠC el
ĠArbe it
cion ais
é Ĺ
Ġãģ© ãģĨ
çĽ¸ è«ĩ
Ġmi entras
ĠV ar
ãĥĪ ãĥ©
ĠÑģ ÑĥÑīÐµÑģÑĤÐ²
åħ¥ ãĤĮ
ĠIn de
Ġ ä¿Ŀ
Ġ Ù
ç¿ Ĵ
Ġins ieme
L e
Ġs ant
Ġd oma
iá»ģ m
ãģķãģĽ ãģ¦
Ĺ ¤
Ġãĥĸãĥ© ãĥ³ãĥī
AL L
ĠPr im
w ert
Ġmá» ģm
ac er
ï¼ Ĺ
oc ol
Ġth Ã´i
ri ff
Ġfe atures
ï¼ Ł
æ¨ ©
Ð¸ÑĨ Ñĭ
Ã©n Ã©
fr ica
Ġé£ Ł
æĹ¥ ãģ®
Ð» Ð¸Ð½
Ð¸Ð¼ Ð¾ÑģÑĤÐ¸
ÐµÑĢ Ñħ
Ġ) )
Ġfaci le
Ġcl aro
l ad
ak ers
Ġtex to
Ġper mi
Ġ0815 30
âĺ ħ
ica ciÃ³n
$ (
Ð¾Ð± ÑĢÐ°Ð·
ÐºÐ¸ Ñħ
, \"
Ġra pport
Ġb iz
åĢ Ł
nah me
ĠÐ² Ð¾Ñģ
Ġs vol
ĠHo ch
å¸ ¯
Ġtr itura
ï¼ ļ
Ġh áºŃu
Ġæ Ľ
ĠsÃ©c ur
Ġkho áº£n
ĠL ine
ĠP ia
room_ grid
Ġco ord
ãģ§ãģį ãģªãģĦ
ĠãĤ¢ ãĤ¤
Ġrec og
Ġg hi
Ġdispon ibil
Ġpre m
ĠR am
Ġâ ī
Ġin di
to bre
Ġsitu ation
ĠG mbH
Ã¤hr end
ĠFrancis co
æĢ ¥
ant al
Ġb atter
ä»ĺ ãģĳ
Ĭ ±
Ġpar ty
Ġat t
V A
Ġdo ing
ĠÑģ ÐµÐ³Ð¾Ð´Ð½Ñı
ĠÐ¸ Ð´
ĠIn sta
... ]
Ġsc en
å¤§ åŃ¦
x ic
ĠPres idente
s c
t ti
ma is
Ġim per
ĠÐ´ ÐµÑĢ
ĠÑģÐ°Ð¹ÑĤ Ðµ
ĠâĪ Ĵ
ĠJ est
Ġbuild ing
ĠB and
åį °
Ġgi áº£n
ĠSch ool
ãģ« ãģĤãĤĭ
Ġé ĥ
Ġperson aliz
Ġqual c
Ġcomp uter
m u
ap er
ĠÑĦ Ð¸Ð½
Ã§ on
tt utto
Ġbott om
ãĤī ãģĹãģĦ
Ð°Ð» Ð°ÑģÑĮ
M E
ĠB ag
ÑģÑĤÑĢÑĥ Ðº
ent y
Ġindustr y
ĠT ecn
te in
Ġå¤ ©
Ġann Ã©es
ĠãģĵãĤĮ ãģ¯
ãĥĪ ãĥ¬
ãģ® ãĤĪãģĨãģª
Ġou ver
Ġconc entra
au g
Ġesc rit
è» ½
tim as
n Ã©e
Ġlat est
ĠTh iÃªn
Ð°Ð± Ð¾Ñĩ
ãĤ¸ ãĤ§
Ġé Ł
ĠÐ½ ÐµÐ²
Ġg irl
ĠInforma tionen
ĠD ra
å´ İ
k anie
er ia
ak a
ĠÃ© ch
Ġsim ilar
Ġpass e
Ã© ment
IC E
ĠÐĶ Ð¶
Ġexem plo
Ġe igen
Ġle ast
st al
g ing
ĠÐ¿Ð¾Ð´ Ð´ÐµÑĢÐ¶
Ġph á»ĳi
ĠD et
ĠAmer ica
ĠÐ¼ Ð¾Ð¼
Ġæ¥ Ń
ĠÐł Ð¤
Ġmas a
Ġk Ã©o
ier ten
Ġinvesti ga
WW W
Ġãĥĸãĥ© ãĥĥãĤ¯
Ġcomp let
Ġc av
Ġil l
è¦ ª
mi ar
Ġfo ot
k un
Ġres ol
< /
ĠâĨ Ĳ
ãģĵ ãģ¡ãĤī
Ġp elle
ĠCha ussures
Ġcar re
M D
Ġpas t
ĠÐ² Ð°Ð¶
Ġo ch
Ġg esti
kow o
as ed
ĠÐ¼ Ð¼
ÐºÐ¾Ð² Ð¾Ð´
ĠÃ© quip
Ġob jet
d ora
Ġentra da
Ġc Æ°á»Ŀi
ĠP lease
w ers
enta ire
ist or
ille urs
ĠF L
Ġn one
Ġes empio
Ġzap ew
Ġgi Ã¡c
Ġenerg ia
Ġc Æ°á»£c
Ġse iner
ãĤĵ ãģ©
ĠÄĳ Ã¡p
Ġ( -
ãĤĴ ãģĶ
Ð¾ÑĢ Ð¸Ñı
ĠD C
ori al
Ġtra i
Ġla p
Ġr ien
Ġprze p
Ã¨ mes
ĠÐ¼ Ð¾
ĠÐ´ÐµÑĤ ÐµÐ¹
ĠÐ²Ñģ ÐµÐ¼
Ġç ģ
Ġcor az
c ome
Ġd áº§u
Ġbo is
ĠM obile
Ġs ede
ar lo
Ġsou ha
Ġent Ã£o
é¦ ¬
Ġph one
ĠÐ²Ðº Ð»ÑİÑĩ
Ġmerc ato
Ġch áº³ng
Ġ; )
s ide
iv ing
ut y
1 20
vers e
ĠâĢ¦ âĢ¦
Ġsich er
Ġopin iones
Ġè Ĥ
Ġczas u
H O
ĠW in
Ġå½ ¼
ãĥŃ ãĥ³
jÄħce go
åĽ ²
g y
åŁ İ
s er
Ġnos tri
ĠF und
éĥ¨ åĪĨ
Ġter az
æ¸ ©
in to
ĠÐ¾Ð±ÐµÑģÐ¿ ÐµÑĩ
OR E
alt ung
Ġmeg lio
ĠB Ã¼
ĠÐ² ÐµÑī
ĠOff ice
ĠL Ãª
Ġæ ¨
ĠÑĨ ÐµÐ»
Ġag ric
ĠR S
Ġsc reen
Ġs osten
Ġac ces
k k
ĠG I
em ente
ĠâĨ ĳ
ĠAl g
ÐµÑĢ ÐµÐ´
gra fia
Ġj ogo
Ã¤ ÃŁ
Ġdivers e
çµĲ æŀľ
æĺ ł
ãĥ¼ãĥĸ ãĥ«
Ġde al
pe z
or er
ion a
T 00
Ġmedi ante
F A
Ġtraba j
Ġg Ã³p
¿Ģ å®ī
c n
Ġro l
ĠLo ve
ĠÐ´Ð¾ÑģÑĤ ÑĥÐ¿
ĠdÃ© f
Ġcol lection
ĠApp ar
Ġ& #
II I
Ġç ļ
Ġpa in
Ġcon osc
ĠJap an
Ð¸ÑĨ Ð°
G A
Ġof erta
Ġdig it
æĻĤ ãģ«
w czy
Ġpre cios
Ġl um
ĠNe u
ĠÐ¼ Ð»
Ġza wsze
Ġpartic olare
S O
Ġtechn ology
Ġs abe
ĠM iss
ãģ® ãģĤãĤĭ
M O
Ġlie u
ĠW il
esti mm
ĠÐ¿Ð¾Ð»ÑĮÐ· Ð¾Ð²
Ġk ol
Ġin gr
Ġbes ch
Ġ[ ...]
ĠJ ug
ï¼ Ļ
Ã¤ng er
tim es
Im age
Ġseg Ãºn
Ġde tal
æİ ¢
Ġæ Ł
ĠÐ» Ð¸Ñĩ
Ġv ivo
Ġnh áº¡c
Ġab ord
è ¿½
Þ§ Þ
ffe e
Ġãģ ¿
ĠP utas
Ġtro is
Ġr zeczy
Ġcommer cial
ch as
çĻ» éĮ²
ÃĲ ÃĲ
ĠÐ²Ð¾Ð· Ð´
ĠD od
ĠãĤ¯ ãĥŃ
ª å¼ı
pro du
Ġch Ãºt
g ado
ĠW ell
ĠLeb ens
ĠComm un
Ã¤ h
Ġz we
Ġnive au
Ġst re
Ġques te
Ġlo ad
ãĤĬ ãģŁãģĦ
ad amente
Pr ice
ĠD Ã©c
ãģ£ãģŁ ãĤĬ
Ġjam ais
é£ ²
ĠW eg
ãĥĭ ãĥĥãĤ¯
Ġh uy
ĠTod os
ĠC osta
ĠÐľ Ð°ÑĢ
ĠÐ²ÑĭÐ¿ Ð¾Ð»Ð½
Ġbu ena
ĠN u
ãĥª ãĤ¹
Ġm ong
çµĮ é¨ĵ
w and
el as
°¡ åįĺ
Ġimm edia
f eld
Ġsu áº¥t
Ġliv ello
ãģĮ ãģĤ
Ġy outube
á»£ i
é ī
Ġliv ro
ãĤĦãģĻ ãģĦ
for der
aller y
èĪ ¬
yr ight
Ġem er
ĠAss ist
èĪ Ĺ
ãģ®å ī
Ġtá»ĭ ch
Ġt ÅĤ
ĠS eb
Ð¾Ð»Ð½ Ð¸ÑĤÐµÐ»ÑĮ
Ġd ziÄĻki
ĠM em
Ġmuch as
Ġin fer
Ġste ht
Ġfun zion
Ġactu ally
æ² ¢
Ġãģ »
Ġstar ted
ãģ®æ Ħ
Ġï¼ ĵ
Ġngh iÃªn
ĠÑĢ Ð°ÑģÑĤ
le gen
ĠÐ¸Ð½ Ð´
ĠGen er
end imento
Ġba jo
era is
ario us
Ġæ ¸
Ġprofession al
e ur
ĠåĨ ħ
ĠJ aneiro
ĠnÃ³ ng
Ġl etto
Ġextre m
ĠCh ÃŃ
Ð¾Ð² Ð¾Ð³Ð¾
Ġpro gress
ĠSh ow
ãģ© ãĤĤ
Ġhac ia
Ġ\": \"
ĠÑĤ ÑĢÑĥÐ´
Ġm áº¡i
ĠÅ¼ eby
äºº ãģ®
Ġju egos
tell ig
b m
Ġsci enti
li ve
ĠÐ½Ð°Ð» Ð¸Ñĩ
Ġzak res
Ġdes n
Ġ î
èĬ ±
ĠL un
å¤ ª
Ġsa Ãºde
ĠV Ãł
ãĤ¢ ãĥĹãĥª
ĠP O
ĠC up
âĶģ âĶģ
Ð°ÑĢÐ¸ Ð°Ð½ÑĤ
eme ins
Ġãĥ ļ
Ġli qu
Ð¾Ñĩ ÐºÐ¸
Ã¨re ment
f alls
ĠÐ³ Ð¾Ð»
Ġnues tros
se ite
ãģĦ ãĤį
Ġw ide
Ġred es
Ġbl ue
ĠÐ» Ð¸Ð±Ð¾
Ġpo ziom
ub ro
Ġn esta
Ġre ason
Ġinsp ira
tiv en
h u
Ð»Ñİ Ð´
p ot
ost ro
Ġes pos
ĠÑĢÐ°Ð· Ð¼ÐµÑĢ
Ġor den
Ġecon Ã³m
Å¼ eli
wer k
Ġad dition
Ġl en
Ð¾Ð³Ð» Ð°Ñģ
Ġde ber
Ð¾Ð¼ Ðµ
imi entos
P E
Ġmag gio
Ġdes con
ĠU E
Ð°Ð· Ð´
Ġpol ic
Ġd rei
ĠA y
ac tion
ãĥ ¶
la y
ãģĦ ãģĳ
Ġsopra ttutto
Ġpag ina
Ġc ub
ĠCh eck
z ug
ĠÐ¼ÐµÐ¶Ð´ Ñĥ
Ġthu áºŃn
ke hr
it Ã¤
________ ________
S e
ÅĤ ecz
Ġç§ģ ãģ¯
Ġneg a
Ġanal ys
Ġperson ne
Ġmus ica
Ġcompa Ã±
Ġbl oc
ĠTh áº¿
ãĤı ãĤĮãģ¦
Ġesc ort
Ð°ÑĤ ÑĥÑĢ
éĢļ è²©
ÅĤ ych
Z Y
Ġcer to
ĠPubl ic
Ġproces o
ĠhÃ£ ng
ĠMater ial
Ġpad ding
ĠPh Ãº
å± Ĭ
bi anas
ĠRe f
ich ts
Ġunser er
ãĥ³ãĥ Ħ
ĠÐ½ Ð¾ÑĢÐ¼
ĠÅ ĵ
Ġbest en
ĠP RE
ĠÐ¿Ð» Ð°ÑĤ
Ġfir my
al ne
ĠÐ² ÐµÑģ
ĠD ol
ãĥĻ ãĥ«
le o
Ġcon dition
Ġc ali
iz ado
Ġa plic
ĠDan iel
as es
Ġbe b
ĠÑģÐ¿ Ð¾ÑĢÑĤ
Ġinc or
ier ra
on ta
Ġcon qu
ula tion
Ġra di
Ġpre Ã§o
ass i
ĠÑģÐ¿Ðµ ÑĨÐ¸Ð°Ð»ÑĮ
em u
Ġperi odo
Ġ3 A
EC T
ĠÐ¿ÑĢÐ¾Ð² ÐµÐ´
Ġn ess
Ġcol um
v ic
u jÄħc
ĠspÃ© cial
Ãģ Ãĭ
inn ing
ĠÐ¿ÑĢÐ¾Ð² Ð¾Ð´
ĠÑĤ Ð¸Ð¿
ĠæŃ £
Ġro ck
ĠR ela
Ð¾ÑĢ Ñĭ
j ach
Ġ[ /
Ġtrze ba
Ġnh Ã³m
Ġdes p
ãģĬ ãĤĬãģ¾ãģĻ
ĠÐ½ÐµÐ¾Ð±ÑħÐ¾Ð´Ð¸Ð¼ Ð¾
åį Ĺ
ÑĢ Ð¸Ð¼ÐµÑĢ
ĠÑĢÐµÐ± ÐµÐ½
å¸ °
Ġe B
Ġneg li
Ġl le
Ġ19 97
p ost
Ġp ages
ĠnÃ³ s
Ġesti lo
ĠGer m
ĠRob ert
ĠPAR A
en er
ĠÐ¿ Ð¾ÑģÑĤÐ°Ð²
½ ¢
ĠÐ²ÑĢÐµÐ¼ ÐµÐ½Ð¸
ĠÄĳ Ãªm
Ġcon clus
ĠT áº¡i
æľ į
Ġzak up
Ġp et
Ġla w
di Ã§Ã£o
ĠÐ¶ÐµÐ½ Ñī
Ġwon der
Ġsus p
Ġst ream
Ġess ay
Â ¬
ĠD ic
Ñĳ Ð½
v ide
Ġw omen
Ġde g
at u
Ġqu ay
Ġliv ing
ãĤī ãģ«
Ð°Ð½ Ð¸Ñİ
Ġs end
Ã¡ ticas
ess i
Ġtra ining
us tra
sch l
K S
Ġpu es
è² ł
Ġng Ã¢n
ĠA gr
ut ter
Ġn este
Ġpr endre
Ð¸Ð» Ð¾ÑģÑĮ
Ġt uyá»ĥn
ĠF ull
Ġ() {
ĠwÃ¼r de
Ġ( +
Ġ10 5
f ore
Ġinst ala
ĠÐ³ Ð°ÑĢ
Ġenviron ment
ÐµÑĢ Ð½
ç· ¨
å¡ Ĺ
yn am
Ġf ak
ĠÑĥ ÑģÐ¿
Ġob ec
Ġc ade
Ġtempor ada
Ġcomple x
de z
ĠW iel
Ġk ÃŃnh
Ð² Ð¸Ð¶
Ġznaj du
Ġpar ec
Ð¾ÑĤ Ñĭ
m g
Ġï ¸ı
ĠÐ´ Ð¾Ð²
Ġr as
ĠDes de
ãģ§ãģĹãĤĩãģĨ ãģĭ
ers ch
k op
Ġnor ma
ĠUnter nehmen
éł ĥ
Ġvá» įng
ç½ ĳ
ĠÑģÐµÐ± Ðµ
Ġgi áº¥y
Ġco le
ãģ®å ĩº
anc ed
ĠÑģÐ»ÐµÐ´ ÑĥÑİÑī
ĠÐ½ ÐµÐ±
Ġj ap
Ġf ras
ä½¿ ãģĦ
Ġtrov are
ĠT out
c 3
Ġph áº£n
F L
ĠÐ² ÑģÑĤÑĢ
Ġwir klich
Ð»Ñı ÑĤÑĮ
ĠÑĩÐµÐ»Ð¾Ð²ÐµÐº Ð°
ĠH CM
Ġr us
ĠR et
ĠN az
ĠBar b
Ġvie ws
w ach
Ġl icz
ãĥ¯ ãĤ¤ãĥĪ
ĠÐ¸Ð· Ð²ÐµÑģÑĤ
Ġp iel
ĠPols ce
iz aciÃ³n
ĠÃ© lectr
Ġservi Ã§o
ĠEn c
ĠCont rol
ez pie
ĠO ver
Ð¾Ð¿ Ð°Ñģ
ãģ¾ ãģĹãģ¦
ÃŃ r
ĠK ap
ãģª ãģĳãĤĮãģ°
Ġalgum as
ĠãĤ¹ ãĤ¿
Ġre ti
ĠL ight
Ġ! âĢĿ
ÑĢ Ð°Ð¶
la tion
k owa
Ġï½ ¥
Ġz al
Ġyo ung
ĠG T
ãģ¾ ãģł
istem as
ish ing
4 00
Ġciv il
ãģĻ ãģĲ
n Ã©
ens es
ĠR y
ĠÐ¶ Ð¸Ð·Ð½
ĠS D
ĠH all
æľ Ŀ
ãģ§ ãģĬ
Ãª Ì£
Ġincon tri
èĤ ī
ĠTh ema
ĠåĪ Ŀ
ĠC amb
å¤ ľ
ÑģÑĤ ÑĢÐ¾
Ġp Ã³
Ġm ÃŃ
Ġartic olo
ĠCh á»ī
Ĭ ãģ³
Ð¡ Ð
Ġåı £
Ġpar ten
Ġcons ci
om ma
ID AD
ĠÐ²Ð½ ÑĥÑĤÑĢ
Ġs Ã¢u
ĠP OR
Ġt ir
Ġab ove
v Ã©
ŀ į
ĠÐ´Ð¾Ð¼ Ð°
ĠÐ³ Ð°Ð·
Ġz b
Ġsoci ale
Ġejem plo
Ġde ver
Ġcre a
èĢĥ ãģĪãģ¦
zu ki
Ġs ti
Ġok re
ÑĥÑĤ Ð±
ĠÐºÐ¾Ð½ ÑĤ
ĠnÃ© cess
Ġcustom ers
Ġinc reas
Ġde j
ĠPub bl
!! !!
ĠÑģÐ¾Ð² ÐµÑĢÑĪ
ĠM unicipal
ot ta
ĠM ann
Ġal bo
ĠPh Ã¡p
ç º
us ion
p iel
ord s
Ġpor tu
ĠW el
ä¼ ¼
Â £
tag li
æ°Ĺ ãģĮ
ta zione
ĠÑģÐ» Ð¾Ð¶
ĠdÃ©velo pp
Ġad ul
ĠNo ir
Ġembar go
ĠE C
Â ©
© ĭ
ni os
le ÅĦ
A l
Ġcl ima
ĠlÃŃ nea
ĠR osa
Ġnh áº¹
ĠS istema
Ġeng ine
Ġacqu a
Ġterrit orio
ĠG eld
ãĥ³ãĤ¿ ãĥ¼
Ġot ten
Ġmigli or
os ci
imon io
H E
Ġre ach
ĠM Ã¤r
Ġ- ,
ĠÐļÑĢ Ð°Ñģ
Ġexp Ã©r
Ġcons ulta
ãĥ¼ãĥ« ãĥī
Ġcorres pond
ĠLe ague
Ġtrou ver
Ġp ng
Ġic on
Ġdis cipl
Ġo ttobre
Ġfollow ing
ÅĽ nia
ig ar
Ġal lo
æĶ ¹
pr i
ok e
ĠÐ³ÑĢ Ð°Ð¶Ð´Ð°Ð½
ia t
Ġitem s
ĠE dition
ĠW ash
ĠS ite
ven ue
Ġre un
ãĥ ĺ
Ġcom men
ĠFra uen
rÃ³ t
J A
Ġl anÃ§
v rier
ĠÐ¢ ÑĢ
Ġschn ell
Ġjak i
Ġev olu
ãĤĬ ãģ®
j am
cion ales
Ġsel on
Ġcol ab
tr ica
m ine
ĠÐºÐ°Ð· Ð¸Ð½Ð¾
Ð°Ð¹ Ð´
st y
AD A
Ġcomp rom
Äħ ce
ĠÐŁ ÐµÑĤ
Ġfran Ã§ais
Ġs od
Ġdo uble
ien iu
Ġs are
Ġl á»Ļ
ãĤģ ãģŁ
ĠPed ro
ĠP rix
ĠMan agement
po zy
om an
ÑĥÑĤ ÑģÑĤÐ²
Ġprofession n
Ġlá» ħ
Ġcon dic
ãĥĬ ãĥ¼
ow l
Ġg az
T e
Ġcho ix
ĠQu áºŃn
tor a
Z E
Ġsi x
Ġc rit
ÅĤ ÄĻ
Ġten go
ãĤĴ ä½ľ
ãĤ¢ ãĤ¤
Ð°Ðº Ð¾Ð²
N o
IT A
Ġpend ant
inhe iro
U G
Ġvol ume
Ġsi Ãªu
ãĤ¹ãĥĨ ãĥł
Ġguer ra
å£ ģ
ur ar
ĠAl Ã©m
Ġzro bi
Ġv ent
åľ Ł
äºĭ æ¥Ń
ec tion
Ġjan vier
pla te
Ġpar ce
Ġkh Äĥn
ãģ§ ãģĤ
IT E
Ġr and
Ġen fer
ĠW es
ĠK ho
ÅĤo ÅĽÄĩ
ot te
Ġpare ja
ĠD S
ĠK inh
ori i
ĠÐ¿Ð¾Ð·Ð² Ð¾Ð»Ñı
ick en
Ġwiel u
æ¸ Ľ
Ġposs a
Ä ĳ
ed ores
Ġth ought
iti g
ĠãĤĤ ãģĨ
ÃŃ do
ÃĶ Ãļ
Ġjed och
Ġb á»ķ
an ym
C o
b ag
Ġ| |
Ġy et
ä¸ĭ ãģķãģĦ
Ð¸ Ð»Ñı
IN O
s el
ĠÐ¸Ð· Ð±
it ud
ass a
Ġmes i
Ð½ ÐµÐ¼
ĠÑĢÑĭ Ð½
Ġbo a
Ġe j
ĠC ard
ĠÐ¼ Ð°ÑģÑģ
Ġtrans port
ĠÐ¿ÑĢ Ð¸Ñģ
ĠwÅĤa ÅĽnie
ÃŃ cula
ĠD ob
Ġd Ãłng
Ð² ÐµÑĢÐ¶
Ġarg ent
m is
b bero
Ġæ¬ ¡
Ġfoto graf
au er
ĠÐ´ Ð¾Ð±Ð°Ð²
Ġmie ux
ou ver
ĠÐ¸Ð¼Ðµ ÐµÑĤ
Ġab il
ÑģÑĤÐ² Ðµ
Ġra te
Ġat mos
gr und
Ġgi ugno
Ġè ¶
ĠÐ¾ÑĤÐºÑĢ ÑĭÑĤ
Ġpoz osta
ĠÑģÑĤ Ð°Ð½
Ġt Ãªm
Ġcom ments
ĠA li
á» Ĩ
Ð¾Ð» ÐµÐ²
Äħ t
anc er
Ġs un
ĠD zie
t te
Ġh Ã¶
ĠB ri
ĠS ig
b our
åį ´
for table
Ġe pis
Ġcam pa
r l
dor f
ĠÑģÑĤ Ð°Ð²
ĠP ay
ÑĢ Ñĭ
Ġt enta
Ġrequire d
Ġiss ues
Ġh Æ¡i
Ġå± ±
ĠSta te
á» ¡
Ġm Ãłn
Ġf rag
ãģłãģĳ ãģ©
ĠSch ul
æ »
Ġc ame
Ġel as
ĠArg entina
UR A
ĠÐ¿ÑĢÐµÐ´ Ð¾ÑģÑĤÐ°Ð²
ĠB is
ĠAm or
Ġleg ge
Ġfac t
Ġde pos
éģķ ãģĦ
Ġl Ã©g
ĠÅĽ wie
åİ »
è¡¨ ç¤º
ÑĢ Ð°Ð´
Ġper cent
Ġsal le
Ð»ÐµÐ½ Ð¾
ti di
ĠT as
Ð°ÑĢ Ð°
is ko
Ġrela Ã§Ã£o
ĠÅĽ wiad
Ġs áº¡ch
ĠQ UE
Ġenerg y
ãģªãĤĵ ãģ¦
un cio
tiv ely
e o
Ġsy tu
Ã¤ g
ci Äĩ
ĠO ber
ĀĀĀĀĀĀĀĀĀĀĀĀĀĀĀĀ ĀĀĀĀĀĀĀĀĀĀĀĀĀĀĀĀ
pre ch
ul ture
st Ã¼t
ar ed
Ġpag amento
ÑĤÐ¾ Ñĩ
ra da
ĠÑģÐ² ÐµÑĤ
ĠÐ¸Ð³ÑĢ Ñĭ
Ġdid n
ĠZ w
ĠIn form
ti z
on na
Ġpubbl ica
Ġgiv en
ĠÑģÑĢÐµÐ´ ÑģÑĤÐ²
Ġan aliz
ĠNg uyÃªn
ãģ¹ ãģį
Ġpon ad
Ġcou ple
ÃŃs tica
ta ciÃ³n
Ġe ks
ĠNo va
Ñĩ Ð¸Ðº
ol id
Ġtr Ã¡ch
ĠOr d
ĠT S
k ania
ci Ã³
ĠG iá»
Ġ; &
Ġngh á»ī
ĠPr ess
Ġins ta
ĠPor n
ĠF unk
ĠC Ã¡ch
Ðŀ ÐĴ
Ġl ux
Ð¾Ð² ÑĭÐ¹
Ã¡b ado
ult os
Ġprov ides
ãĥª ãĥ³ãĤ°
ĠG ay
Ìģ i
Ġzaw od
Ġset tembre
Ġproy ecto
ÐµÐ½ Ð½Ð¾ÑģÑĤÐ¸
Ġsie bie
ĠÐ»ÑİÐ´ ÐµÐ¹
ĠBr and
cl es
ĠÐ¾ ÑĨÐµÐ½
ĠÑĦ ÑĥÐ½Ðº
Ġphoto graph
Ġlib er
Ġ, ...
Ìģ n
Ġis to
ĠInsta gram
ï¼ ¡
ä½ľ åĵģ
Ġad idas
ĠS ym
ĠM T
Ã¨ m
u ir
ĠÐ¼Ð¸Ð½ ÑĥÑĤ
Ġapr end
tel li
P O
Ġconsegu ir
_ m
Ġsoc ietÃł
Ġre gu
Ġin ne
Ã³ rios
b ank
Ġdoes n
ĠA z
ãĥĸ ãĥŃãĤ°
ÐµÐ» Ð°
to wa
Ġjed er
Ġinforma tions
ĠK osten
Ð½ Ñİ
ÅĤ ow
is ed
Ġsic urezza
Ġnuo vi
ĠÂ¡Â £Â
Ġu d
Ġf ul
Ġa grad
ĠP V
Ġkom men
ven ir
tr Ã¡s
ond ers
Ġå¼ ķ
Ġk im
Ġform at
ĠSe p
Ġ9 78
ãĤ¦ ãĥ³
Ġpos ted
ãĤ ¾
ãĥį ãĥĥãĥĪ
âĢ Ļ
Ġinter esse
Ġç´ Ħ
cri pt
ĠÐ¡ Ð¾Ð²
Ġf ich
m F
Ġpot rebbe
Ġe ben
Ġco ol
ĠV end
ĠC OL
Ġje u
ff ic
er ing
Ġmigli ori
Ġh iá»ĥm
ĠFor ma
áº ł
l or
ĠMar co
Ðº Ð¸Ðµ
20 17
ÃŃ cias
titu de
ĠÐ¿ÑĢÐ¾Ð´ ÑĥÐºÑĤ
Ġv enda
Ġu ro
ãĥĿ ãĥ¼ãĥĪ
ÑĭÐ² Ð°ÐµÑĤÑģÑı
noÅĽci Äħ
he ad
Ġå Ł
Ġprovin cia
ãģŁ ãģı
Ã¢ ce
Ġpesso a
ĠR Ã¼ck
ĠÃ¡ gua
Ġpar ents
Ġmol ti
å¤ī ãĤı
ãģĮ ãģĬ
Ġus t
Ġty pes
ĠS icher
ĠCh er
Ġju ego
ĠTr as
Ð¸ Ð¾Ð´
U X
ĠP eter
Ñĳ Ð¼
Ġï¼ į
Ġh ope
ĠCom pr
ĠÐ¾ÑĤ Ð´ÐµÐ»
Ġn im
ĠO K
ĠÐ¾ Ð·
Ġdi ch
Ġï¿½ï¿½ï¿½ï¿½ï¿½ ï¿½
wit ch
ĠÐĳ ÐµÐ»
Ðº Ð»ÑİÑĩ
pr Ã¼
enn t
ien cia
cl ar
æĬ ľ
Ġsa f
Ġmater ia
ĠN ou
ĠÐ± ÐµÑĢ
ĠIs land
ĠãģĿ ãģĵ
Ġv ente
ĠMus ic
el er
Ġå¥³ æĢ§
Ġn ice
Ġmat Ã©r
ed o
ĠÐ¿Ð¾Ð» Ð¾Ð¶
Ġdem ande
Ġcomm on
Ø §
èª¬ æĺİ
Å ļ
ĠÐŁÑĢ Ð¾
ĠÐ² Ð°ÑĢÐ¸Ð°Ð½ÑĤ
Ġsz ko
Ġres to
ĠlÃ£ nh
Ġci Ã²
Ġch á»Ĺ
Ġcar a
Ġgovern ment
Ġ12 8
çĦ ¼
ĠMul ti
_ P
Ġev ents
Ġf ive
on ych
k or
ante d
ĠÄĳá» ı
Ġwy st
Ġv oll
Ġsem pl
Ġrela x
åĭ Ł
Ġse ptem
ĠT Ã¢n
ãĥĥ ãĤŃ
ÐµÑĢ Ð²
ĠÑģ ÐµÐ¹ÑĩÐ°Ñģ
ĠÐ· ÐµÐ¼
pl atz
H R
ĠÐ± Ð¸Ð·Ð½ÐµÑģ
ĠIn te
ÑģÐ¿ Ð¾ÑĢÑĤ
ts chaft
qu el
iss imo
ille d
uy en
j emy
Ġmed ida
ç¾ ©
ular es
ĠãĢį ãĢĮ
ĠAd emÃ¡s
ãĤ« ãĥ¼ãĥī
Ġj Äħ
Ġis ol
Ġcontact os
ĠÃ¡ nh
Ġdire ito
ĠLu is
ÑģÑĤ ÑĥÐ¿
tor no
end ar
Ġç ¦ı
Ġwh ole
Ġth áº¥p
Ġdos ta
Ġcu er
at ory
ï¼ ³
Ã¨ te
Ġbie tet
unt as
ic are
ar th
ĠÐ³Ð¾ÑģÑĥÐ´Ð°ÑĢ ÑģÑĤÐ²ÐµÐ½
ĠÐ°Ð² ÑĤ
pl an
ĠÑģ ÐµÑĤ
ĠA ND
Ðł ÐĲ
Ġmis ma
v illa
ĠAd d
c ita
ĠperÃŃ odo
Ġh ospital
ĠSch l
b sp
tic ia
it ario
Ġj ÄĻzy
Ġgr up
ãģ®å °
Ġdro it
f ield
ĠGo od
ãĥĬ ãĥ«
Ġappl ica
ĠÃºn ico
ĠA br
æľ «
ist re
h ing
Ġz ost
åı£ ãĤ³ãĥŁ
it ore
Ġv amos
era ciÃ³n
Ĵ° å¢ĥ
Ġf est
Ġcos tru
iem y
\/ \/
AR T
Ġma cht
Ġdom ic
ÃĬ Ãĩ
ĠÑģÐ¾Ð² ÑĢÐµÐ¼
Ġex t
ĠÑĥ Ñģ
ĠS ony
ĠP OL
ĠIS BN
Ġ? ??
C l
x i
tel lo
Ġv ag
Ð»Ñı ÑİÑĤÑģÑı
Ġth iÃªn
ĠServ ices
ĠÑģÐ²Ð¾ ÐµÐ¹
tr ic
ich en
ĠÑĤ Ð¾Ð¶Ðµ
Ġimp ac
ĠÑģÐ¸ÑģÑĤÐµÐ¼ Ñĭ
Ġre vis
Ġcar t
ĠInd ia
pp a
oss i
Ġpossibil itÃł
Ġ19 95
æĴ ĥ
ab an
Ġw aÅ¼
Ġder nier
Ġ... ..
Ġd Ã¢y
Ã¡m ara
ĠÐº Ð¾Ð¶
unic ÃŃp
id ge
Ġãĥ İ
ĠÐ½Ð°Ð´ Ð¾
Ġparti do
Ġlog os
Ġbez pie
Ġan Ã¡l
Ġ11 5
p od
AT A
ĠktÃ³re j
ĠT T
ĠLe i
ãĥ³ãĤ· ãĥ§ãĥ³
d ade
cz ki
ĠÐº Ð°Ð¿
Ġse hen
ãĥ³ãĥ Ķ
anta ge
Ġr und
Ġf ashion
Ġmelh ores
Ġg ospodar
Ġ á»ķ
to oth
ĠÄĳ áº£o
Ġe arly
Ġtr Ã¡nh
Ġrif er
ĠF A
let te
Ġesper ienza
Ð°Ð»ÑĮ Ð½Ð¾Ðµ
Ġå¤ ļ
Ġprodu to
y ba
iz zo
ĠZ immer
nic y
ĠStud io
ÌĢ n
Ġsegur idad
Ġlist _
Ġbene fici
Ð¿Ð¾Ð» Ð¾Ð¶
Ġmá» ¹
ĠB E
Ġcuc ina
l Ã©
Ġhis toire
Ġd ow
ãĤī ãģļ
ĠÞ ĩ
Ġdic embre
ĠÃ ²
Ġat tr
Ġan alis
åĩºä¼ļ ãģĦ
ãģ¸ ãģ®
. :
ĠM ig
ĠÑĢ ÑĥÐº
Ġnh áº±m
Ġcl ic
ĠWy ÅĽwiet
ãģ¾ ãģ¨
ĠãģĤ ãģªãģŁ
Ġ ãģ£ãģ¦
Ġ áº¢
Ã£ n
Ġfam ilia
ÑĢ Ð¾Ð¼
om es
ĠÃºl timos
qu et
Ġs co
ĠSal v
tud es
ãģ« ãģ¨
ĠÐĴ Ð°ÑĪ
Ġk i
Ġgen naio
ãĤ² ãĥ¼ãĥł
Ġesta ba
ĠLe on
ĠH ard
ÑĮ ÑİÑĤ
ÐµÑĩ Ð½Ð¾
ont rol
la uf
Ġam ore
Ġ], [
å°ĳ ãģĹ
ĠÐ´ Ð¾Ð³Ð¾Ð²Ð¾ÑĢ
Ġfin ans
Ġimport antes
Ġpon ie
ĠPro vin
ĠJ une
Ã© qu
Ġtecn ologia
_ n
Ġwys ok
Ġro ad
Ġpo ja
Ġok res
Ġd y
Ġc ose
ĠÐ½ÐµÐº Ð¾ÑĤÐ¾ÑĢ
Ġmo tivo
Ġexperien cia
Ġch amp
ĠIn tel
ĠEs to
w ic
ves tis
Ġdispon ible
ann er
Ġw s
aut y
ĠÄĳ Ãło
Ġoc tobre
Ġm ira
ion ales
Ġd oll
Ġapr ile
ĠP ack
Ġ24 0
Ġsu d
ĠC B
ĠA re
Ð Ń
b ec
ĠI st
Ð² Ð°ÑĤ
co in
ĠÐŁÑĢ Ð¾Ð´
ĠÐĺÐ½ ÑĤÐµÑĢ
um o
ol ina
iv amente
ç§ »
c ke
Ġregi Ã£o
z ÅĤ
ĠÐºÐ²Ð°ÑĢÑĤ Ð¸ÑĢ
te au
ĠÐ¡ ÐºÐ°ÑĩÐ°ÑĤÑĮ
Ġkh áº£o
Ġatten tion
Ð¸ÑģÑĤÑĢÐ° ÑĨÐ¸Ð¸
u age
qu ir
Ġsocial es
ãĤ¹ãĤ¿ ãĥ¼
Ġgrou pe
Ġconf irm
dz ier
Ġt Æ°á»Ľng
Ġnich ts
ĠAb b
am ental
Ġuw ag
Ġbus car
Ġare as
ĠÑį Ð½
ĠÄĲ Ãł
ĠO fer
H T
ĠC ie
in et
Ġpropr ia
Ġde tails
Ġconstruc tion
Ġ17 0
k w
ar te
ens ive
Ġpeti te
ĠInv esti
Ð¸ ÑĨÐ¸Ð°Ð»ÑĮ
Ġè Ħ
ĠÑĢ Ð°Ð½
Ġz one
å· ®
fic os
Ġvra iment
Ġsu jet
ĠCh ap
\\\\\\\\ \\\\\\\\
ri Ã¨re
Ġ4 50
åĳ ½
ĠãĤ¢ ãĥ«
Ġspr zeda
F R
Ġdis so
ĠEn tw
pa is
ĠÐŀ ÑĢ
ĠÐ¡ Ð²
Ġfuer on
Ġacuer do
Ñĩ ÐµÑĤ
il io
h tt
ĠÐ¼ÐµÑģÑĤ Ð¾
Ġch ose
dos e
for nia
W S
Ġsl ot
ĠmÃ¡ u
Ġmil hÃµes
Ġe cc
ho o
ĠB ran
M C
Ġp ena
Ġhe art
ĠE P
à² ¾
ãĥĥ ãĤ«
ªå¼ı ä¼ļç¤¾
l ier
ĠÐ¿ÑĢ Ð¸Ð´
Ġdin ero
ĠJ ames
ios o
ĠÑĢ ÐµÐ¶
Ġseptem bre
Ã³ t
wi ÅĽcie
oss en
Ġs tudi
f one
Ġmu itos
ĠDur ante
onn ement
Ġp og
Ġk Ãª
ĠÑĤÐ°Ðº Ð¾Ð¹
ĠÐ¸Ð¼ ÐµÐ½Ð½Ð¾
Ġp ath
Ġm ur
Ġh áº¥p
ĠE lectr
ÅĽci Äħ
ere in
AS S
ĠF ire
Î ±
u ard
qu isa
Ġpro ven
ĠL ug
ĠÅ¼y cia
Ġ} ,"
Ġsec onda
Ġcit tad
Ġ039767 3
ĠÐ³Ð¾ÑĢÐ¾Ð´ Ð°
Ġimp act
á» ·
erva tion
Ġob iet
Ġer halten
Ġdo tycz
Ġåħ ¥
Ġstr ess
Ð¸Ð»ÑĮ Ð½Ð¾
Ġä¸ ĭ
Ġfiles _
ĠCh Ã¢u
Ġ2 10
ĠÐ¿ Ð¾ÑĤÑĢÐµÐ±
Ġsta g
Ġchá»ī nh
ĠJ er
ãĥ© ãĥ³ãĤ¹
la is
kip edia
Ġreci b
åĽ ł
ty pe
Ġpla ta
Ġmu itas
Ġm ÃŃn
è¨Ģ ãģĨ
ita ire
ĠÐ°Ð² ÑĤÐ¾ÑĢ
Ð¸ÑĢÐ¾Ð²Ð°Ð½ Ð¸Ñı
ci ar
ĠÐ²Ð¸Ð´Ðµ Ð¾
Ġmad rid
Ġdonn Ã©es
Ġcie ka
ÐµÐ½ ÐµÑĢ
tu bre
Ġt ell
éĥ ¡
h ow
Ġcon cep
ãĥ© ãĥł
ĠL eben
Ġ7 50
è¾ º
Ð¼ Ð¾ÑĤ
Ġ Ë
Ù Ħ
ÑĨÐ¸ ÐµÐ¹
kt ur
d s
Ġcon g
ud i
æĬ ŀ
ĠM ON
Ġf ica
st wa
Ġm niej
Ġ19 90
ãģ® ãģł
st wo
F E
ĠÑģÑĤÐ¾ Ð¸ÑĤ
Ġsegur anÃ§a
Ġconta iner
Ġbl anc
ĠD os
Ð¾Ð´ Ðµ
Ġforma tion
ĠU til
Ð°ÑĢ Ð¾Ð²
tel la
ĠuÅ¼y tkow
ĥ ħ
Ġihr er
Ð¸ ÐµÐ²
ÐµÐ¼ Ð°
Ġn Ã´ng
ann ing
kl Ã¤r
Ġcar ousel
Ð¸ÑĤ Ñĭ
Ġdesar rollo
Ġel lo
Ġt áºŃn
Ġme as
Ġinvesti g
å Ĥ¬
ãģĹãģŁ ãĤī
as ter
ĠEn de
X X
ãĤª ãĥ³
ÐµÐ½ Ð½ÑĭÐ¼
un os
ĠÑĤÐµÑĢ ÑĢÐ¸ÑĤ
Ġ19 96
ÑĥÐ¶ Ð´
at ors
Ġåº Ĺ
ĠD or
ti embre
Ġé ĺ
Ġby ÅĤy
ĠAn al
Ġt Ã¹
Ġann unci
ĠL iga
ÐµÑĪ ÑĮ
ãģį ãģ¦
Ġarti go
ĠM U
Ġdiv ul
Ġcomp ag
Ġapro ve
ĠTh omas
Ġwo j
Ġw ÅĤos
Ġw r
Ġpued es
ÅĽ c
id ung
tid ad
ĠS á»ĳ
ãĤĦ ãģ£ãģ¦
get to
Ġprincip almente
ĠAn na
n ienie
ĠçĻ ½
Ġa pre
Ġt wor
Ġsta tus
ĠS ou
ĠÑģÐ²Ð¾ Ñİ
Ġwszyst kim
Ġsyst Ã¨me
Ġpel iculas
Ġco in
Ġb anc
ul la
and ro
Ġsolu tions
Ġju illet
ãĤ¸ ãĥ¥
r ant
alis ation
ĠÐ¿ÑĢ Ð¾Ñĩ
ĠF ore
Ã¤ u
le b
as y
ĠÐ¿ÑĢÐ¾Ð² ÐµÑĢ
å® ®
Ġlu ego
ĠEs per
iz o
Ġdif ÃŃc
ãĤĭ ãģĵãģ¨ãģĮ
ĠTh á»Ŀi
éĻĲ å®ļ
ĠåĲį åīį
Ġp ick
Ġh áº¡i
Ġal t
m us
he its
er mo
ci es
Ġto ok
Ġfin ance
ãĤĴ ãģ¤
12 3
Ġin j
Ġï¼ī ãĢģ
Ġce ux
Ġar be
Ġ oss
åĳ ¼
ĠÐ·Ð´ ÐµÑģÑĮ
Ġnoss os
Ġc ort
ĠIn di
ĠC av
ãĥĸãĥ© ãĥ³ãĥī
ak ing
Ġtom ar
H N
Ġul timo
Ġout ra
ãĥ¼ãĤ¿ ãĥ¼
Ð± Ð°
Ġhapp y
ĠÐ² Ð¾ÑģÐ¿
Ġu zy
Ġh áº¡
Ġapp ear
Ð¾Ð¹ Ð´
Ġw ent
Ġespecial ly
Ġel les
ÑĦ ÐµÑĢ
ER T
Ġconf ron
ĠCent re
tam ment
ows ki
Ð» Ñĭ
G F
ĠB ack
Ġè µ
Ġt áº·ng
Ġex ecu
Ġ10 1
Ã¶ ÃŁe
tem bro
, ,
ĠÑģ Ñĭ
ĠÐĽ Ñİ
ĠÐ¿Ð¾Ð» Ð¸ÑĤ
ag ing
ãĤĴ èªŃ
ĠÐĹ Ð°Ðº
Ġincl uso
I AL
Ġzd row
Ġtrans par
ãģĭãģª ãĤĬ
ang o
ĠÐ¿ÑĢÐµÐ´ Ð»Ð°Ð³
Ġhapp en
Ġt áº¥n
Ġma ja
Ġkh Ã¡m
Ġpre zzi
Ġnuo ve
Ġam ar
Ġ* *
til las
Ġä¸ ĸ
Ġco i
ãĥ¼ãĥ ĭ
h an
Ġpost s
ĠPh ong
ãĥ« ãĥķ
ĠÐ²Ñĭ Ð³
Ġv arious
Ð°Ð» Ñı
H D
ĠÑĢÐµÐ³ Ð¸Ð¾Ð½
Ġth Æ°á»Łng
Ġm ese
Ġc Ã¡n
ç± ³
Ġfe ature
ĠSe e
ĠAut om
ãģ» ãģĨ
ĠÐĴ Ð»Ð°Ð´
æ į
ita Ã§Ã£o
ĠGesch Ã¤
æ ½
Ġvoy age
Ġm orte
AR E
Ġ* **
Ġz god
Ġsiti o
Ġhal f
ĠG S
li Å¼
Ġgre en
Ã³ dz
iz es
Ġed if
ãĤĮ ãģªãģĦ
Ġch Ã³ng
ĠB erg
Ġè» Ĭ
Ġçģ «
Ġwel che
Ġthá»§ y
Ġo il
Ġmar c
ĠrÃ©s ulta
ite z
T o
Ġpap er
Ġch Äĥm
åĽ ³
ment ar
Ġob owiÄħ
Ġfur ther
ĠC ra
e ks
ĠÐ½Ð°Ð· Ð²
Ġem ple
Ġde cy
Ġam ong
Ġz es
ĠW ind
ĠTer ra
ĠEn ts
ĠA na
Ã© ma
ĠC AM
Ġkom p
ze p
ĠSer ie
ãĥ¡ãĥª ãĤ«
s za
ĠPol ski
ĠPh im
ĠF ach
Ð½Ð¾ Ñģ
Ð»Ð¸ Ð·
att le
Ġpos iada
Ġad ditional
ÐµÐ½ Ð½Ð¾Ðµ
Ã® tre
Ġè ħ
ĠÐ¿ ÐµÑģ
Ġthá» Ń
Ġlug lio
Ġg anh
Ġch ap
ar ÃŃa
anz ia
Ġm áºŃt
åĬ ©
to wy
Ġtrabal h
Ġc áº£i
Ð°ÑĢÑĤ Ð°
ĠÐ½ ÐµÐ³Ð¾
Ġquel li
ĠNo ti
ãģªãģı ãģª
Ġå ĳ
ĠÐ»ÑĥÑĩÑĪ Ðµ
Ġass ess
ĠG uer
Ð½ ÑĥÑĤÑĮ
çĶ¨ åĵģ
ĠÑĢÐ°Ñģ ÑģÐºÐ°Ð·
Ġlie gt
Ġev itar
Ġd ort
ĠQu áº£ng
ĠP E
ycz nych
it ado
ĠÑģÐ¾ÑĤ ÑĢÑĥÐ´
ĠÐ¾Ð±Ð¾ÑĢ ÑĥÐ´
ĠÐ½Ðµ Ñģ
p al
i ÅĤ
ful ly
Ġç¥ ŀ
Ġt inha
Ġmon di
Ġd ale
å ¨
ãģĹãģ¦ ãģ¿
á»« a
ĠMer ci
ĠK al
ĠMod el
tell er
on ces
k ona
ĠczÄĻ sto
ĠLe ist
ãģĨ ãģ¡
Ġwh ether
izza zione
be z
ĵ ģ
Ġbook s
ãĤĤ ãģ®ãģ§
Ã Ľ
ĠãĤ ı
ĠÐ½Ð°ÑģÑĤ Ð¾ÑıÑī
Ġsu y
ĠÐºÐ°ÑĩÐµÑģÑĤÐ² Ðµ
Ġins truc
ãģ®å¾ Į
or ed
Ġmin uti
ĠG on
ÃŃ da
Ġtr ud
ãģ® ãĤ³
ÑģÐº Ðµ
ĠR ab
kow ych
Ġseg uro
Ġline a
Ġde le
ĠCu ando
å¹ ħ
at ar
ĠÐ²Ñĭ ÑħÐ¾Ð´
Ġt witter
ç· Ĵ
Ġr eno
Ġhe ure
Ġè Ģ
Ġwe ight
Ġartic les
ĠV a
Ġps ic
å± ŀ
Ġe k
ĠWh ile
ĠR O
ĠNg á»įc
ĠL G
ĠJ Ã¡
ro b
ĠâĢ ķ
Ġved ere
Ġim agen
Ð°ÑĢ Ð¾Ð´
j ego
Ġfir ma
Ġemplo ye
Ġcel ui
ĠB ill
ç¯ Ģ
Ġg á»Ĺ
Ġstr ing
Ñģ ÑĭÐ»
ĠÐ¼ Ð°Ñģ
ĠÐ·Ð°Ð² Ð¸Ñģ
ĠÃ© quipe
Ġat tu
Ãĸ ÃĲ
pon di
Ġsp end
Ġs tim
Ġdev ice
ĠEle k
à²¿ à²
Ġra y
ãģ® ãĤĪãģĨãģ«
ãģ£ãģŁ ãĤī
ĠÐļ Ð¾ÑĢ
ĠStand ard
Ġle y
ĠFir st
ĠB uen
le z
Ġdem on
éĻ į
Ġæ Į
Ġ ign
lus tra
iáº¿ p
å· ŀ
ĠSt ore
å¸¸ ãģ«
fo is
Ġob rig
vi ent
Ġas eg
ãĥ© ãĤ¤ãĥĪ
te ly
á»Ľ m
Ġprote ction
ĠPh Æ°Æ¡ng
Ġlearn ing
rie b
ot en
æī ĵ
ÑģÑĤ Ð°Ð½Ð¾Ð²
Ġk iá»ĥu
Ġconf igura
Ġcar ro
Ġb zw
å° İ
ĠS ala
Ġvis ualiz
Ġmad re
ĠH ere
tis ta
Ġth Ã¡i
Ġsc ri
ï½ ¥
áº· n
Ð° ÑĦ
iá»ħ m
I EN
ĠÐ¾Ñģ ÑĥÑīÐµÑģÑĤÐ²
Ġdiffic ult
ĠL ife
ĠH Ã¶
d ad
Ġf ire
ĠN orm
ĠBil der
ĠâĢ¦ âĢ¦âĢ¦âĢ¦âĢ¦
Ġtak ing
æİ ²
à ¤
ÑĢ Ð°ÑĤÑĮ
it aria
Ġgen au
ĠK os
iss ens
gl ie
Ġx áº£y
is ing
è¨ ³
å½ ¼
utsche in
Ġsub st
w agen
Ġwz gl
Ġre vel
iÄĻ ks
ang en
Ġi hn
un s
Ġsimp ly
Ġer r
Ġen fr
ĠNeg ro
ÐµÐ½ Ð·
Ð°ÑĤ ÐµÐ»Ð¸
AN O
ãģį ãģŁãģĦ
ĠÐ²Ð¾Ð·Ð¼Ð¾Ð¶ Ð½Ð¾ÑģÑĤÑĮ
Ġdesenvolv imento
Ġal tra
Ġein z
il ib
ac es
ĠÑģÐ²Ð¾ Ð¸
Ġob ras
Ġent ry
ãĥ¢ ãĥĩãĥ«
Ð°ÐºÑģ Ð¸Ð¼
t anto
k ten
Ġngh á»ģ
Ġd áº¥u
çŃ Ķ
ĠÑģ Ð¸ÑĤÑĥ
Ġprzeci w
Ġnos otros
Ġh yd
ÑĤ Ñĭ
id ay
Ġstrut tura
Ġgratu ito
Ġf ff
å® ĺ
Ġcu id
ĠRo ad
Ġpor tal
ĠH á»
ĠÐ´ÐµÐ½ÑĮ Ð³Ð¸
ĠdÃ©c embre
ĠVer b
ĠO F
ĠJ ob
éħ Ĵ
pr end
ĠÐ´Ð² ÑĥÑħ
Ġsenti r
Ġle k
Ġgu ide
Ã©d ia
Ġaccess o
ren o
Ġrepr Ã©s
æĺ ¯
ĠÐ¿ÑĢ ÑıÐ¼
Ġappro ach
ĠP P
ãģªãģı ãģ¦
ON E
ä¹ ³
czy Äĩ
Ġfin ale
za ta
Ġgrand i
Ġwrit ing
Ġs mo
Ġre duc
Ġprovid ed
Ġiss ue
Ġcomple tamente
Ġamo unt
Ġv inc
Ġv anta
ĠHe alth
Ġczas ie
ĠZ d
ãģ®å Ľ
Ð°Ð¶ Ð°
uc a
Ġsta tion
Ġpal ab
Ġfil me
Ġau ra
è ®
cz ÄĻ
c op
ĠD al
ãģĿãģĨ ãģ§ãģĻ
Ġãģ ²
ĠM Ã¶glich
Â ¥
Ä ĺ
åıĤ åĬł
ãģ« åĩº
AT E
Ð»ÐµÐ½ Ð¸Ð¸
Ð¸ÑĢÐ¾Ð²Ð°Ð½ Ð¸Ðµ
Â¡Â £
u ka
jour d
M P
Ch Æ°Æ¡ng
ĠÐ¾ ÑģÑĤÐ°Ð²
Ġm Ã¡i
le urs
ich ten
eck en
Ġtar if
Ġn Ã¤ch
Ġfor ce
ĠVers ion
ĠJ uni
Ġsmart phone
Ġi hren
ĠD R
Ð¸ÑģÑĤ ÑĢ
ĠÐĿ Ð°Ð¿
Ġneed ed
Ġm unicip
Ġin gl
Ġe ither
ĠZ iel
ÐµÐ» Ð¸Ðº
ran ge
c tions
ĠÐ¿ÑĢÐ¾ÑĦÐµÑģÑģ Ð¸Ð¾Ð½
Ġsk in
Ġes pe
Ġu ffici
Ġu dziaÅĤ
Ġqu ite
Ġ- >
qu ia
Ġs ort
Ġg eg
ze igen
Ġa ide
h s
Ġh Ã´
o j
ĠpiÄĻ k
Ġdi fic
art os
ĠÑĢÐ¾ÑģÑģ Ð¸Ð¹
ĠÐ¼ Ð¾Ð»
ĠmÃª s
Ġer ror
ç¥ Ŀ
T ube
ĠÐ´ Ð°
Ġdec or
Åº dzier
ãĥģ ãĥ¥
ĠW inter
ĠV ill
ĠAm bi
åĨħ å®¹
Ġrun ning
Ġdesign ed
Ġde tto
rie ben
Ġvir tu
Ġbe ach
ĠGra zie
6 00
Ġp t
Ġave va
Ġra cc
Ġ36 00
ãĥĵ ãĥ¥ãĥ¼
ĠK op
ib en
Ġwe itere
Ġau jourd
ĠÐ½ ÐµÐ·
ĠÐ» ÐµÑĩ
ĠiP ad
Ġch áº¥p
çİ ī
isti che
Ġremo ve
Ġl Æ°á»£t
Ġcho ose
çĹ ĩ
S t
Ġbeso in
ãĥ¡ ãĥ¼ãĥ«
ĠF ord
n oc
Ġph i
Ġidenti fic
ĠgÃ©nÃ©r al
Ġeffet tu
Ġaus ge
ĠP ul
æ ©ĭ
ec ie
Ġprod ut
ĠChr istian
ãĤĴæ Ħ
wi Äĩ
ĠpÃºbl ica
Ġimpr ession
Ġav ril
Ð»Ñı Ð´
g eme
Ġåħ ¬
Ġcustom er
Ġcl im
Ijo i
ãģĵãģ¨ ãģ«
Q UE
Ġwp ÅĤy
ĠSch n
iz ion
ĠÐ¿Ð¾Ð² ÑĭÑĪ
ĠÐ¿Ð» Ð¾Ñī
ĠÐ´Ð² Ð°
ĠT ime
ĠC OR
ĠãĥĹ ãĥŃ
Ġprz et
Ġok az
ws er
c d
Ġsome one
ĠE ro
Ġve hic
Ġus ted
Ġhab er
Ġgu id
Ð¾ÑģÑĤ Ð¾
Ġconj unto
Ġpar ole
Ġk ap
Ġequi pe
ĠN ut
Ġse en
Ġn á»ĳi
ec ted
Ġcons eg
ĠZ um
ĠPol ska
ãĤ¤ ãĥ¬
Ġsp a
Ġnat Ã¼rlich
ĠH Ã²a
ĠÐ¾Ð± ÑĢÐ°ÑĤ
Ġc ach
ĠWeb site
ĠPL N
ĠB áº£o
Ġpartici par
ãĥ³ãĥ ķ
ĠSer ver
tic ally
ĠPro te
ĠN ad
u ve
er ne
UL T
ĠÑĤÐ¾ÑĢ Ð³
ĠÐŁÑĢ Ð°Ð²
Ġs áº¡n
Ġdiffic ile
Ġac tive
tron om
ER O
Ġpl anta
Ġcred it
Ġ[ "
ĠGi ang
pp i
ĠãĤ¸ ãĥ£
Ġc og
ĠSa Ãºde
ãĥ³ãĤ ³
Ġz ac
åĩº ãģĹ
Ġf ondo
Ġ ãģĹ
Ġe g
Ġcateg oria
ĠM Ã£
Ġinclud es
Ġco isas
å£ °
ãģ®æ ķ
um es
ĠÐĿ Ð¸Ðº
ĠB lo
Ġp yt
ĠÑģÑĤÑĢÐ¾ Ð¸ÑĤÐµÐ»ÑĮ
Ġsp esso
Ġb Ã¡s
å°Ĥ éĸĢ
á»¥ ng
c ell
Ġst ycz
Ġgru ppo
Ġch ambre
Ð°ÐµÑĤ Ðµ
te le
ĠÐ¤ ÐµÐ´ÐµÑĢ
ĠM Ã¼n
ãĥĲ ãĥĥãĤ¯
Ġsar anno
Ġcre ated
ĠÑĪÐº Ð¾Ð»
ĠÑĢÐ°Ð· Ð¼
Ġwid get
Ġth áº©m
ĠrÃ© se
1 10
ho ut
cz ego
ĠÑĥÐ´ Ð¾Ð±
å®¢ æ§ĺ
ä¼ļ ãģĦ
ont ent
Ð¼Ð¾ÑĤÑĢ ÐµÑĤÑĮ
ĠO h
ĠEn ter
Ġt esta
Ġdo b
Ġdivers i
ĠR on
ãĥĿ ãĥ¼ãĥĦ
Ð½Ñı Ñı
w od
qu oi
iáº¿ ng
Ġzosta ÅĤ
ĠBeit rag
âĺ Ĩ
Ġanal y
Ġach ie
Ġtr en
Ġprodu Ã§Ã£o
ĠPremi um
la f
Ġso ir
Ð°ÑİÑī Ð¸Ñħ
Ð°Ð· Ñĥ
ĠX L
ĠRes ort
ĠCom par
åħ Ĳ
sp ot
Ġpar c
iss Ã£o
Ġval ores
Ġp eg
r ica
Ġpla c
Ġm are
Ã¼n f
Ð² Ð°
AC K
Ġscar pe
æĸ¹ ãģ¯
Ð¸ÑĤ Ð°ÑĤÑĮ
Ġtot almente
Ġman ufac
Ġdirec tor
Ġag re
get ti
alis mo
Ġbu á»ķi
à²¾ à²
ĠÐ² Ð¾Ð¹
Ġp ec
Ġn bsp
ĠPro mo
ç¯ ī
F C
vi ar
Ġwo hl
Ġt Ã³c
ibil ity
Ġs ung
Ġch allen
Ġexcell ent
Ġesta te
ĠD U
ÅĦst wo
Ġwe iÃŁ
Ġmo ve
Ġm áº·c
Ġm ente
æ©Ł èĥ½
wa hl
Ġ} }
ĠPosta do
ï¾ ŀ
ãĤī ãģĽ
ĠfÃ© vrier
ora ciÃ³n
ĠÑĢÑĥ ÐºÐ¾Ð²Ð¾Ð´
Ġset tore
Ġl Ä©nh
if en
an ne
Ġre t
Ġ48 5
Ð¸ ÐµÐ¹
G U
Ġric on
ãĥ¼ãĤ ¶
cze ÅĦ
Ġéĸ ¢
Ġsec tion
ĠGra cias
th ough
i Ã§Ãµes
Ġx uyÃªn
Ġp ontos
ĠE R
ĠD ip
m od
Ġtele vis
Ġpati ents
Ġk ia
ĠTamb iÃ©n
Ð¾Ð² Ð°ÑĤÐµÐ»ÑĮ
I OS
ĠÐ´Ð¾ÑĢ Ð¾Ð³
Ġl iá»ģn
áº ¾
un ku
Ġn ero
ĠH iá»ĩn
ÐµÑĢ Ð¾
ate ly
Ġåİ Ł
ĠÑĤÐµÑħÐ½ Ð¾Ð»Ð¾Ð³
Ġplat form
Ġgr Ã¡
Ð°Ð¹ÑĤ Ð¸
ita ciones
Ġsein en
Ġbelie ve
Ġre ady
Ġsegu ito
Ġdom ingo
Ġadd ed
ãģ£ãģ ±
ĠÐ´ÑĢÑĥÐ³ Ð¸Ðµ
ys z
ĠÑįÑĤ Ð¸
Ġbud get
Ðº Ñģ
um i
Ġm áº¯c
Ġcon ce
ĠSt an
b uch
Ġrela ciÃ³n
Ġh d
Ġ13 5
ç ¦ı
ĠÑĢ ÐµÐ´
Ġbag no
ÑĢ ÑĮ
Ġneg Ã³
Ġdoc umento
ĠPh ili
Ġ? "
ÐµÑĢ Ð¼
ĠÐ·Ð´ Ð¾ÑĢÐ¾Ð²
Ġro le
Ġl he
Ġfam ille
æĴ ®
Ġæľ ª
Ġsou vent
Ġespa Ã§o
ÑĭÐ² Ð°ÑİÑĤ
Ġæ ģ
Ġre de
ÌĢ i
uts chen
u u
ibil idad
g le
Ġpod at
ĠD ir
ĠÐ¼ Ð¾Ð»Ð¾Ð´
Ġlar go
era us
Ġac omp
ĠWash ington
ĠN Äĥm
éŁ ¿
ig es
ĠÄĳ em
ol is
ĠÐłÐ¾ÑģÑģ Ð¸Ð¹
ĠÐ¾Ð± ÑĭÑĩ
Ġde fault
ãĥ¼ãĤ °
ch y
Ġmes ma
ĠW it
ĠG MT
ĠÐ¸Ñģ ÑģÐ»ÐµÐ´
Ġosob y
ĠMan ager
ĠEx p
á»Ļ n
Ġth ai
Ġdire kt
Ġpubbl ico
Ġn Âº
Ġdim in
Ġb all
Ġad j
ĠK auf
ĠCali fornia
Ġsoci Ã©tÃ©
Ġnap raw
Ġmay o
a us
ĠÐ¿Ð¾ ÑįÑĤÐ¾Ð¼Ñĥ
Ġtra in
Ġt iá»ĥu
Ġste p
Ġre por
Ġfor n
ãģªãģ© ãģ®
Ġt ys
Ġm im
ra ch
gu es
Ġoc cup
uer to
Ġd rive
k auf
Ġt ac
Ġl ou
èµ °
ĠS ti
ãĥŀ ãĥĽ
Å¼ li
Ã¼ hr
Ġfeb braio
çĬ¶ æħĭ
Â §
m ission
ĠM az
Ñı Ñħ
Ã¶ ÃŁ
cz ne
Ġè¿ Ķ
Ġs ales
ãĤĮ ãģ¾ãģĻ
Ġtr zy
Ġp ud
Ġent s
ç łĶç©¶
Ġs ier
Ġd anych
å® ¿
if y
c imiento
a h
Ġm áº¥y
Ġent end
æĬ ķ
tig t
od es
ĠK omm
ãģ«ãģĬ ãģĦãģ¦
Ġæ Ļ
ĠÐºÑĢ Ð¾Ð²
Ġno tamment
ĠÐµ Ð¼Ñĥ
Ġsystem s
ĭ äºº
Ġè² ·
Ġens ure
av es
Ġtrans por
Ġgr ud
Ĵ æŃ©
Ġsz k
Ġac om
Ġ3 90
i ore
Y 2
Q u
Ġco isa
omb ia
Ġgio co
Ġperson ale
Ġimp oss
ĠW szyst
ia c
Ġsal on
ĠXu Ã¢n
ĠTh anks
te o
ĠÐ¿ÑĢÐ¾Ð´ Ð¾Ð»Ð¶
Ġc áºŃu
æµ· éģĵ
ĠÃ ¹
ĠÐ¿ Ð¸ÑĤ
ĠK unst
ie z
e i
Ġx o
Ġd wa
çİ ĭ
åľ §
Ġprac ow
ĠâĢ ¹
ĠCo ok
ĠB om
az ine
Ġac esso
ãĥĥ ãĥķ
== ==
Ġ12 3
ãģ¾ãģĽãĤĵ ãģĮ
Â ¦
ti da
t Ã³w
ĠÐ¿ÑĢÐ¾ Ð¸Ñģ
è¶ ħ
å¤ ±
Ġfem mes
ĠQu ar
ĠI nh
ag og
ĠPl atz
æĽ ľ
C L
Ġï¿½ï¿½ï¿½ï¿½ï¿½ ï¿½ï¿½ï¿½ï¿½
Ġáº¢ nh
Ġlleg ar
Ġc ze
ĠI R
éĢ Ķ
Ð¡ Ðļ
k tion
ĠÐ° Ð»
Ġth ird
Ġcir cu
is ka
ĠvÃŃde o
ĠÐ¸Ð³ ÑĢÐ¾Ð²
in de
Ġc Å©
Ã© tica
je w
ĠB all
ÅĤe j
y g
um enti
ĠÐ¿Ð¾Ð¼ Ð¾Ð³
Ġpou voir
Ġpad re
Ġin ici
Ġch áº¯n
ĠF ur
ĠF eder
Ñı Ð³
Ġdesar roll
Ġ ë
Ġazi enda
ĠZ ak
Ġ2016 å¹´
Ð¾Ð½ Ñĥ
z os
as to
Ġãĥĩ ãĤ£
åĲĪ ãģĦ
Ñĩ ÐµÑģÐº
# #
ĠsÃ©cur itÃ©
ĠM undo
éħ ¸
Ġäº Į
ĠT Æ°
ĠE V
ãĥĭ ãĥ¥
_ M
ĠÑĢ Ð°Ð±Ð¾Ñĩ
Ġth er
ãĤį ãĤĵ
ĠãģĿãģ® ä»ĸ
Ġh arm
Ġsz kol
Ġd ru
ÑĢÐ°Ð½ Ð¸Ñĩ
c ast
ĠÂ² Â»
Ġgra ph
Ġb rit
char ger
Ġph a
Ġfinan cial
Ġè² ¡å¸ĥ
ĠEx cel
ĠV oir
ĠHom me
Ã³ ry
ĠÐĹ Ð°Ð¿
ĠÐ·Ð°Ð½ Ð¸Ð¼
Ġing les
Ġs and
cze j
ł Ģ
Ġt ick
ÃŃc ulas
t est
r is
ĠEm p
ãģ®å¥ ³
nÄħ Äĩ
_ p
Ġstud ent
ĠMich el
ĠÐ½Ð°Ñĩ Ð¸Ð½
ĠÐ¼ ÑĥÐ·Ñĭ
ĠS anto
ãģĪ ãģªãģĦ
ty ch
Ġä» ķ
Ġszczeg Ã³l
Ñģ Ð¸Ñħ
on der
Ġvis ite
ĠVers and
ÅĤ ada
us se
ĠPier re
Ġspe ed
Ġrod za
Ġf id
ÅĽ red
rag on
ĠÄĲ Æ°á»Ŀng
ĠÃ ¾
Ġtrou ve
Ġser r
Ġmil ioni
ĠJ us
Ġ ä½
L a
er on
ĠAm Ã©rica
ti mi
Ġd ato
Ġcontem por
Ġcla im
ĠBM W
ãĤ· ãĥªãĥ¼ãĤº
T r
ĠÐ½ Ð°Ð³
ĠÃ »
Ġx Ãºc
Ġdo bre
ĠÐ±ÐµÐ· Ð¾Ð¿Ð°Ñģ
Ġlá» Ĺi
Ġfam iglia
ĠWo chen
r s
ne k
e y
Ġopp os
Ġespec ÃŃ
**** ****
Ġw indows
us er
port s
ni es
Ġro bi
ĠM AN
Ġv ul
Ġ$(" #
w ki
ta ta
Ġele v
ĠÄĳ u
Ġnu Ã´i
on to
o ÅĽÄĩ
ĠÑĥ ÐºÑĢÐ°
Ġpl ans
Ġgra v
Ġcr im
ĠPr ima
alt Ãł
ĠS av
ni u
ĠSte f
ĠProf ession
trut ura
or ti
ell ow
Ġng á»ĵi
Ġ2017 å¹´
as ti
ĠÐº ÑĥÐ»ÑĮÑĤ
ĠÐ²Ñģ Ñĳ
Ġnie j
Ġc iÄĻ
ad ow
Ġw iz
è ŀį
ı Ĳ
ĠãĤµ ãĤ¤ãĤº
Ġsa ve
ÐµÐ» Ñİ
ie b
ĠÐ¿ Ð°ÑĢÑĤ
ĠL inh
âĢĭâĢĭ âĢĭâĢĭ
ure au
reich en
g abe
ĠãĥĢ ãĤ¤
ĠS ic
h 30
Ġmil it
ĠG L
ÐµÐ½ ÐºÐ¾
ch odzi
Ð¾Ð· Ñı
Ġativ idades
is tica
ig io
Ġç «
Ġs á»Ľm
ĠIl s
Ġst an
Ġsc r
Ġd oda
Ġ10 4
Ðł Ðŀ
w ort
Ġfor a
ÐĿ Ðŀ
Ð¾Ð» ÐµÐµ
ĠÐŀ Ð¿
ĠespaÃ± ol
Ġcomp re
Ġæ Ĥ
Ġsz tu
ĠdifÃŃc il
ag ra
Ġtak ich
Ġsh ows
Ġqu anh
ĠE very
ug hout
eg no
N S
ĠÑı Ð½
Ġth Ãº
Ġno che
Ġes tim
em en
Ġsi Ã¨
Ġs ku
Ġcel u
ĠSant os
ĠLo ok
ãģĹãģ¾ ãģ£ãģŁ
ãģ® ãģŁãĤģ
Ġre tour
Ġor o
Ġg ute
Ġevery one
Ġcri anÃ§as
ãģı ãģ¦
Ġp ais
Ġdia gnos
ĠInterna cional
Ã£ este
zÄħ c
s Im
Ġpr Ã©c
Ġpal av
ĠK á»³
ÅĽ niej
re te
C R
Ġso und
Ġro k
ĠMar i
on ato
ãĥĥãĤ· ãĥ§ãĥ³
ĠÐ² Ð¼ÐµÑģÑĤ
Ġt esti
Ġprogram me
Ġapp re
ĠEx tra
ĠC M
ĠAustr alia
ĠÑģÐ¾ ÑĨÐ¸Ð°Ð»ÑĮ
ĠÐĵÐ»Ð°Ð² Ð½Ð°Ñı
Ġul tra
ı a
Ġãģĵ ãģ¡ãĤī
ĠÐŁÐ¾Ñģ Ð»Ðµ
Ġg usta
Ġc au
ĠMus ik
or me
Ġenti re
Ġp ush
Ġda fÃ¼r
Ġw od
ĠGar ten
ĠG h
è Ĺ¤
ĠâĢ ¡
Ġnh á»Ŀ
Ġloc ated
ĠMe in
Ġ Æ¡n
Ġg eben
Ġao Ã»t
Å¼y Äĩ
Ġnatur ale
Ġgr id
å ©
pla cement
os os
Ġãĥ ´
ĠN ame
Ġ00 Z
ci fic
Ġmen or
ÅĤ op
Ġso on
we is
Ġw es
Ġc Æ°á»Ŀng
ĠR iv
Ġsub ito
ĠK H
ĠÐ» Ð¸Ð½
Ġneg ro
Ġknow ledge
T ype
UR E
Ġpr Ã¨s
Ġå¤§ éĺª
ĠÑĥÐ² ÐµÐ»Ð¸Ñĩ
Ġt á»ĳc
Ġconsum o
ĠGre at
it to
ĠÅĽ wiet
Ġbre ve
ĠT w
ãĥĥ ãĥĶ
u ary
Ġp amiÄĻ
é¦ Ļ
vere iro
ĠPro d
éĩĳ ãĤĴ
D I
Ġza pr
Ġng on
Ġam ministra
ina ciÃ³n
Ġleg isla
Ġ19 94
ĠÐ´ÐµÑĢ ÐµÐ²
Ð¾Ð¶ ÐµÑĤ
ne o
Ġma p
Ġfu era
ĠMais on
Â £Â
ĠÃ¡ reas
Ġim press
Ġb Ã¡nh
ç· ı
ãĢ İ
ic iel
Ġæľ ī
Ð ĸ
ors i
el m
ĠÑģÑĩ ÐµÑĤ
Ġten ho
Ġab and
ĠPl at
Ð¸ÑĩÐµÑģÐº Ð¾Ðµ
res o
ĠÄĳ en
Ġyour self
ĠB ell
ch Ã¨
SI 6
ĠÑħ Ð¾Ñĩ
Ġcommun ication
ĠB os
ĠÑĨ ÐµÐ½Ñĭ
Ġch á»¯
ĠMic ro
Ð°ÑĤ Ð¾ÑĩÐ½Ð¾
c ka
ĠÐ¼ÐµÑĤ Ð¾Ð´
Ġtem p
Ġdav vero
Ġd ating
ĠL ast
ĠL iter
ãģĹ ãĤĪãģĨ
Ð½Ð¾ÑģÑĤ ÐµÐ¹
:::: ::::
Ġng Ã´i
Ġd áº¡y
Ġpers pec
ĠP T
ï¼ £
ĠV iew
è ´
ãĥĩ ãĤ¶ãĤ¤ãĥ³
o ter
n ement
ang el
ĠlÃŃ der
ĠK n
æİ Ľ
Ð» Ð°Ð½
Ġesta be
x e
f ond
ãģĻ ãĤĮãģ°
f ique
Ġper g
æŃ Į
Ð» Ð¾Ð½
Ð°ÑĢ Ñĭ
Ġfa is
pon de
ind re
ĠP elle
Ġé ¦
Ġweek end
Ġsec urity
Ġre in
Ġg or
Ġcou p
ĠB le
æľ ª
ias i
Ġsamoch od
å¯ Į
Ã©r er
G l
ĠSer ies
ãģ®å į
ta ire
ie ÅĦ
E I
ĠÐļ Ð¾Ð»
p ia
Ġlet ter
Ġb ul
åĭķ çĶ£
Ġv ue
Ġread ing
ãģ¡ ãĤįãĤĵ
ven tion
h le
ĠÑģÐ¾ÑģÑĤ Ð¾ÑıÐ½
Ġpro ve
ĠW or
isti r
Ġpass o
Ġdire ction
Ġr um
ĠB aby
Ġso y
idd le
ec o
B S
Ġar re
ĠT on
ç Į
ãģ® ãĥĲ
ol ine
lec t
ĠÄĲ Äĥng
Ġalterna tive
8 00
ĠÃª tes
åĲ Ħ
iv en
Ġqu en
Ġof t
Ġnh a
ĠH Ã£y
ĠmÃ£ i
Ġinstalla tion
at Ã³rio
Ġpon to
Ġger ade
Ġb ath
te ad
Ġå£ ²
ĠÐ½Ð° Ðº
Ġw Ã¤re
Ġjun io
Ġjo in
ãģ«ãģª ãĤĬ
Ð¾Ðº Ð¸
tow ych
o ÅĽci
ĠÐĹ Ð°
Ġg ust
ĠA UT
Ð¾Ð½ Ð´
Ġpre vious
Ġcons erv
ĠçĻ º
Ġsch Ã¶n
Ġs orte
Ġpropos e
Ġof icial
åŃ¦ æł¡
ĠW ork
ri ft
Ġv ay
Ġte il
ĠBras ile
n ich
ĠÐ² Ð¿
ĠFra ge
Ðŀ Ðŀ
ä½ľ æ¥Ń
ä»¥ å¤ĸ
ãģ®å ¯
ÑĢ ÐµÐ¶Ð´
r ÃŃ
og li
Ġp ue
Ġgra di
ĠN om
ĠR ose
Ġå ĴĮ
ĠÑģ Ð¸Ð¼
al lo
ĠÐĹ Ð´
Ġv em
Ġs Ã¡bado
Ġr il
Ġr ent
Ġmen tion
ĠWarsza wa
Ġ. ;
ĠÐ¼Ð°Ð³Ð°Ð· Ð¸Ð½
Ġmon ta
Ġl un
ĠR ES
EN S
Ġãģ¾ ãģļ
Ġla y
ĠFl ug
ãģ§ãģĻ ãģĭ
Ġa de
Ġç ¤
ĠãĥĹ ãĥ¬
ĠÑĢ ÐµÐ¼Ð¾Ð½ÑĤ
Ġw all
ra i
we j
ĠãĤ ®
ĠÐ¼ ÐµÑĢ
ĠS M
ĠCon tac
ãģĭ ãģªãģĦ
ĠPar ti
Ð»ÐµÐ½ Ð°
Ġjed y
ĠR ot
towe j
p en
ĠFr ont
ÐµÐ² ÑĢ
Ġme chan
ĠF ri
ĠAc cess
çĶ· æĢ§
Ġé ł
ĠÐº Ð°Ð½
Ġex ig
ĠH is
éł ħ
tr ico
br ig
ĠÐľÐ¾ÑģÐºÐ² Ð°
Ġth ao
Ġpl ane
Ġapp el
Ġng á»Ŀ
ĠÑĢ Ð°Ð²
ku je
Ġdi vis
Ì£ i
Ġkom entar
n ar
Ġw ollen
Ġf ez
ĠTh iáº¿t
Ð» Ð¾Ð¼
ĠÐ¿ÑĢ Ð¾Ð¿
ĠÐ¿Ð¾ÑģÑĤ Ð¾ÑıÐ½
ĠÃĶ Ãļ
Ġren con
ĠCh in
ĥħ åł±
ĠÑĢ ÑıÐ´
Ġst essa
Ġs ter
Ðº Ð°Ñı
ĠÐĲÐ»ÐµÐºÑģ Ð°Ð½Ð´
Ġproble ms
Ġfor ward
ĠSil va
ĠL ÃŃ
ĠE ast
ĠO ct
ĠÐ¿Ð¾Ð¼Ð¾Ñī ÑĮÑİ
Ġwp rowad
Ġex plica
ĠAud io
ing t
Ġsol d
Ġre altÃł
Ġm ale
ĠKh u
ĠÐľÐ¾ÑģÐºÐ² Ðµ
Ġs le
Ġdo vre
Ġvis ual
ĠBa h
æ ¿
ic ina
Ġcomm it
ĠV el
ĠJul y
å± ħ
Ð»ÐµÐ½ Ñĭ
v ens
Ġno vel
Ġdo ÅĽwiad
ĠE mail
h h
Ġs ess
Ġm amy
Ġinc ontro
ĠS tor
ãģķãĤĵ ãģ®
Ðł Ñķ
tic k
p om
ĠQu esta
ĠE p
ĠCam era
ĠR ac
å® Ī
Ġvir us
Ġmin istro
Ġdispon ibles
le ta
Ġzam Ã³w
Ġqu áº§n
Ġmater iaÅĤ
ĠV iá»ĩc
ãĥĻ ãĥ³ãĥĪ
ycz ny
o ÅĦ
ĠÑĦÐ¸Ð½ Ð°Ð½Ñģ
ĠÐł Ñ
Ġste hen
amb res
Ġtr áº£i
Ġtr uy
Ġsex ual
Ġc ore
ĠNh Ã¢n
zion ali
zen iu
en iem
ĠÐ¸ Ð´Ðµ
Ġten emos
ĠYou Tube
ĠEntw ick
ãĤı ãĤĮãĤĭ
Ġæ ¶
ãĤ¹ ãĥļ
Ð¾Ð¼ ÐµÐ½Ð´
ĠÑĥ ÑģÑĤÑĢÐ¾Ð¹
Ġlis top
Ġhist Ã³r
Ġdzie ÅĦ
ĠCh u
ãĤ¹ ãĥ¡
ĠÐ¿ÑĢ Ð¸Ð·Ð½
Ġs á»£
Ġp Ã³ÅĤ
Ġemer gen
b ano
Ġn atura
Ġein ige
Ġcl in
æŁ» å®ļ
w ane
ĠÑĨ ÐµÐ½Ð°
Ġw ays
Ġn iá»ĩm
Þ¦Þ ĩ
ow aniu
A pp
ĠGu ar
ch ine
20 19
Ġto ol
Ġprze pis
Ġmaggi or
Ġinterna cional
Ġin put
Ġh owever
Ġc io
ĠSk y
Ġw sz
Ġspr zed
Ġ":" ","
æ Ĩ
Ġsu k
ãĤĴ éģ¸
ãģ®å Ĭ
_ S
ĠÑĢÐ°Ð· Ð´ÐµÐ»
Ð°ÑİÑī Ð¸Ðµ
uj ÄĻ
to wn
ag ed
Ġt ard
Ġsem bra
Ġmed idas
ĠO ra
ie de
ck en
Ġs ession
an ca
Ġtrat tamento
Ġk W
ĠR ay
ĠM ost
Ġpro xim
Ġinform acji
ĠR i
ĠGlob al
åĭ ¤
il li
Ġé ħ
Ġw rze
ĠN inh
ĠG ames
ï¼ ¯
Ġth áº£o
èĦ ±æ¯Ľ
¨ ÐĲ
B y
ĠÑĢÐ°Ð· ÑĢÐ°Ð±Ð¾ÑĤ
ĠÐ´ Ð°Ð»
Ġter ror
Ġha ir
Ġcl ar
çĲĨ çĶ±
Ñī Ñĳ
ÐµÐ» ÐµÐ¼
Ġitali ana
Ġg ard
ĠSch we
ĠM IN
Ġc elle
ç´ Ļ
v ir
n ica
ĠÐĴ Ð°Ñģ
Ġmeille ur
Ġgi ud
ĠW ater
Ġ3 20
æĺ Ł
uy e
ĠÐ¿ÑĢ Ð¾Ð¼
ĠV ivo
Ð½ ÑĥÐ»
jÄħ ca
Ġviag gio
Ġt ub
ĠBewert ungen
Ñģ Ð¾Ð½
el ine
ER A
Ġt um
Ġkh á»Łi
ĠPr ime
ĠCom ments
è² ¸
icz nej
h old
å¾ ¡
Ġspra wie
ĠrÃ© c
Ġeduc a
ĠS n
Ð½Ð¸ ÑĨ
Ã¤n de
ĠÐĴ Ð¾
Ġri us
Ġlung o
ĠS ter
Ġama zing
ĠOrig inal
ĠÐĲ Ð´
Ġlud zi
ä¸ ¡
ãĤ¶ ãĥ¼
Ð» Ð¸Ñı
icz ny
Ġqu ais
Ġkon nte
ĠG obierno
Ġnov os
Ġká» ·
Ġdifer ente
Ġ. ).
å¾ ´
ÑģÐº Ð°
orr er
end es
Ġâ Ķ
Ġp ure
Ġj aneiro
ĠG est
Ġ; -
Ã² i
ve y
jaz d
ist an
Ġ', '
ãģ®å ķĨåĵģ
Ð½ÐµÐ¹ ÑĪ
ti o
Ġsigui ente
åº ·
Ġfam ÃŃlia
Ġemplo y
aliz aÃ§Ã£o
ĠUnivers idad
Ã¼ cks
Ġin vers
ĠK ateg
ĠJo Ã£o
ali ÅĽmy
ĠÄĲ áº§u
ws ki
Ġt et
ï¼ ı
f ar
Ġsk lep
Ġas se
enn is
Ġpar king
Ġcz ar
ĠA st
Ã©ri que
Ġg obierno
Ġf esta
Ġ: .
ÑĢÑĥ ÐºÑĤ
" >
İ æĹ¥
Ġb ÃŃ
ĠÐ¿ÐµÑĢ Ðµ
Ġtemper atura
m t
ĠÐ´ÐµÑıÑĤÐµÐ»ÑĮ Ð½Ð¾ÑģÑĤÐ¸
Ġtra dic
Ġfinan ci
ĠNap oli
v am
ch ÄĻ
Ġw it
Ġk wiet
Ġalm ost
L INE
Ġdire t
Ġany thing
ĠS ach
ãĥĻ ãĥĥãĥī
pa Ã±
ou vern
Ġresta ura
ãģ®è ³
os as
Ġå Ń¦
ĠÃ© crit
ĠD opo
Ġac cep
ç®¡ çĲĨ
l ight
Ġsz er
Ġpun ti
Ġm ember
ĠB Ã¡o
Ð» Ñĥ
gen es
ese arch
a W
F T
Ġla ta
ĠB ang
Ġ áº¥n
Ñĥ ÐµÐ¼
ÑģÑı Ñĩ
ãĥį ãĤ¹
h em
C P
Ġ( {
Ð°Ð» Ð¾Ð²
ure d
åį Ķ
ran e
Ġprecis o
éī Ħ
ãĥĭ ãĥ¼
re cht
ci are
Ġs ommes
Ġczy m
ĠUB ND
ĠN ga
or gan
i are
ĠÐ¡ Ðº
Ġger ne
Ġ" ;
Ġph iÃªn
Ġado p
a it
ħ è¡Į
Ġsp er
Ġgru pos
ĠÐ¿ÑĢ Ð¸Ðº
Ġorig ine
Ġe du
Ġdic iembre
la ciÃ³n
k cie
ĠÐ»Ð¸ÑĪ ÑĮ
Ġarty ku
ĠCons titu
ä¹ ħ
au en
ĠÑĪ Ð¸ÑĢ
Ġok ol
Ġn áº·ng
Ġcu atro
wiÄĻ ks
ĠGio van
ĠãĤ· ãĥ§
Ġr Äĥng
Ġman ual
Ġd inheiro
åı ²
ted y
itar be
che z
Ġflo or
Ġfamili ar
le j
ĠÑĦ Ð¸Ð·
Ð´ Ð¸
AS T
ĠãĥĲ ãĥĥãĤ°
Ġkon ta
Ġ10 2
èį ·
Ġv Æ°á»£t
ĠRes ponder
ĠJan uary
ĠCiv il
Ġactiv idades
ĠProje kt
ĠN ik
ãĥ¡ ãĥ¼ãĤ¸
Ð¸Ð½ Ð¾Ð¹
Ġãĥ ĺ
Ġsema ine
Ġf um
Ġch yba
C on
Ġoc tubre
Ġdo g
Ġcomp ati
isp iel
Ġcon ti
Ġa illeurs
çµ ¶
Ġé Ļ
ĠÐµ Ð´Ð¸Ð½
ĠÐ²Ð¾Ð· Ð½Ð¸Ðº
Ġterm ine
ĠIsra el
ter no
Ġn ies
æĭ ħ
ĠÐº ÑĢÑĥÐ¿
ĠBes ch
v ida
Ġn ier
Ġentre ga
ç »
omb res
Ġser Ã£o
Ġm iá»ģn
ĠS ong
ĠAr r
Ġcr oss
Ġ2018 å¹´
ç¨ İ
Ð¸Ð² Ð°ÐµÑĤÑģÑı
Ä Ħ
ĠÐ¾Ð±ÑĬ ÑıÐ²
Ġpo Å¼y
Ġper der
Ġpas o
ĠMad uras
ĠGi Ã¡o
ãģ® å¤§
C T
ĠS R
ĠD io
Ġ3 000
ina te
ãģ®æ °
ÃĪ Ãķ
{ \"
Ġï¼ī ãĢĤ
ãģ¾ ãģĹãĤĩãģĨ
Ð¸Ð² Ð°Ð½Ð¸Ñı
un tain
ios a
Ġw iad
® éĢļ
ĠHer ren
ãĥĭ ãĤ¢
D S
ĠÃºn ica
ĠÂ¡Â °
Ġpr int
Ġibex_ room_grid
Ġcerta ins
Ġ19 0
Ã¤ hlen
h mer
ĠÐºÐ¾Ð½ Ðº
è¿ İ
fici ente
Ġsur tout
Ġal co
ÑĢ ÐµÑĤ
k us
Ġkos z
èĤ Į
za ÅĤ
e ign
Ġmo je
Ġeduc ation
Ġappl ications
ĠIm p
Ġå ĩ
Ġcorre c
ĠCh em
æµ ľ
Ñģ Ñģ
h Ã¶
ĠÐ¿ÐµÑĢ Ð¸Ð¾Ð´
Ġm ÅĤod
Ġl áº½
Ġc ultural
ĠÅĤ at
Ġj ardin
Ġes clus
ĠS á»Ł
ĠC oll
w u
ĠÐ¿Ð¾ Ñħ
ĠÐ¿ Ð¾ÑĢÑĤ
Ġviel en
Ġel im
ĠMo to
Ġpr Ã¡c
Ġoffer te
Ġmar chÃ©
Ãµ i
Ġãģĵ ãģĨ
Ġnajb ardziej
or ÃŃa
h ouse
Ġpre zent
ĠEr fahr
ĠE ff
æķ ħ
h Ã¤ng
Ġg ara
ĠO ri
ĠK an
d am
Ġn iÃªn
Ġd are
Ġ7 20
è£ ľ
w el
ĠÐ´ Ð½ÐµÐ¹
Ġcor por
Ġc itas
e f
Ġwzgl ÄĻ
dzie Äĩ
ĠAcc ueil
Ġäº Ī
ĠÑģÐ²Ð¾ Ð¸Ñħ
Ġw ars
Ġcar go
Ġa Å¼
Ġvo i
Ġtrav aux
Ġtip os
ĠsÃ³ c
Ġb la
am ing
Ġsitua ciÃ³n
Ġaggi orn
G O
Ġw ichtig
Ġver l
ĠEn s
i ka
ĠÐ¿Ð¾Ð¿ ÑĥÐ»ÑıÑĢ
Ġrequ is
Ġpart ners
Ġpoliti que
Ġng Äĥn
Ġdoc umenta
ĠRe fer
ĠNh Æ°
ãĥ³ãĤ ¬
ãģ¨ ãģĹãģŁ
szy m
er ie
ĠÐ½ Ð¸Ñĩ
Ġsant Ã©
ĠEx pl
ĠCh Ãºa
ãĥ¼ãĥ ¡
ÑĢ ÐµÐ²
ĠMod a
ĠMar io
ÑģÑĤÐ² Ð¾Ð¼
ra te
Ġb áºŃt
ĠOb s
ĠC ultura
g gia
g gi
Ġprodu z
Ġpens ar
Ġch os
Ġqual s
Ġch ocol
br ica
ber t
Ġcr ÃŃ
ieste ty
Į æľĽ
Ġdis s
Ġbon us
ÃŃn io
Ġ09 3
ãģ«éĸ¢ ãģĻãĤĭ
ĠÑĤÑĢÐ°Ð½ ÑģÐ¿Ð¾ÑĢÑĤ
Ġwen ig
Ġk ids
Ġalg una
ĠUn ion
ĠIN TER
ĠFu ÃŁ
Ġ10 8
Ġ016827 9
Ġ ÅĽci
R es
Ġst y
Ġma io
Ġdes tac
Ġcomun e
ĠS I
ĠC Ã¢m
Ġstycz nia
Ġpar ts
Ġmu zy
AC ION
Ġes qu
ãĤĴæ Ĭ
Ġv arios
Ġhe ures
f ied
S ON
Ġtreat ment
Ġeconom ia
ĠÃ©ta bl
Ġu omini
Ġr ank
ĠW all
ãģ®å ¹
Ġmp 3
Ġcad re
ĠR Ã©p
Ġa z
ĠP il
ĠMar y
æŃ »
c ato
Ġtak en
Ġ! "
áºµ n
k n
Ġb ater
ĠH ospital
ĠÐ¸ ÑĤ
ĠSta tes
ãĥ¬ ãĥ³ãĤ¸
ķ ı
Ġs ce
Ġn enh
Ġfig ura
ĠPar ty
ĠMas a
f ast
ĠÐºÐ¾ÑĤÐ¾ÑĢ Ð¾Ð¹
Ġela bor
ia o
_ C
ĠÐ¼ Ð¾Ð½
Ġstr onie
Ġset t
Ð°Ð» Ñĭ
Ì£ t
Ġsignific ant
Ġespecial mente
ãĤĤ ãģĤãĤĭ
un ik
Ġsettim ana
Ġpre Ã§os
Ġmas ter
Ġhist or
Ġcen y
ĠSeg undo
ĠOr t
ĠÐºÐ¾Ð½ ÑĨ
ĠdÃ©b ut
Ġdi chi
ĠczÅĤ owie
Ġalgun as
ĠPort al
Ġ" }
tr ia
ogra fia
ĠÐ¿Ð¾ÑĢ ÑıÐ´
ĠÐ¾Ð±ÑĬ ÐµÐºÑĤ
Ġb ir
ĠInstitu to
Ã¶r per
Ã§ u
orn ing
ĠÐ¾Ð¿ ÑĭÑĤ
ĠÐº ÑĥÑĢ
ĠÃ©p oca
Ġs á»¯a
Ġris k
ĠSch warz
ĠÐ¾ÑĢÐ³Ð°Ð½Ð¸Ð· Ð°ÑĨÐ¸Ð¸
Ġins ide
ĠG U
éģ £
ot he
if icar
at ta
B I
und i
un ts
Ġchar acter
ĠV ista
è¡ Ĺ
ãĥĲ ãĥĥãĤ°
Ð¾Ðº Ñģ
ud os
cri Ã§Ã£o
I ÃĵN
ĠÑĤ ÐµÐ±
Ġs ir
Ġm ent
ĠktÃ³re go
ĠS ens
çĨ ±
Ġå¾ Į
ĠÐ¿ ÐµÑĩ
Ġre le
Ġpa Åºdzier
Ġgia i
Ġchang es
Ġb áº¿p
ĠZ ur
Ġthu áº¿
Ġen car
ĠA i
Ġt ale
Ġjes tem
ãĤ¯ ãĥŃ
Ã¼ s
ent er
ĠæĬķç¨¿ æĹ¥
ãĥ³ ãģ®
al ien
Ġå° ĳ
Ġus ando
Ġscri pt
Ġis titu
æĪ ¿
Ġjo ven
Ġ Ñī
pos e
ig na
Ġmill ions
Ġintro du
Ġdi zer
ĠAd v
ÑĢ Ð¸Ð´
P N
ĠÑĩÐ°ÑģÑĤ ÑĮ
Ġw iem
Ġpass er
ĠCh ic
Ã© al
zi al
Ġtechni ques
Ġprzy sz
Ġoc as
Ġesta bl
ĠX e
ĠProble m
ion en
Ġno ite
Ġnecess ario
Ġmet ros
ĠR Ã©s
Ñı Ñĩ
se hen
Ġrig uar
Ġkh áº¯c
ĠCoun ty
Ð°ÑĢ ÑĮ
ern en
Ġdi pl
ĠAl ess
Ġutiliz ar
Ġsep tiembre
Ġb Ã©nÃ©
Ġspo ÅĤecz
Ġenqu anto
éĽ ĳ
åł´ æīĢ
ãĥ³ãĥ Ń
Ġanim al
C S
ĠÑģÐ¿ÐµÑĨÐ¸ Ð°Ð»Ð¸ÑģÑĤ
Ġin tellig
Ġchar akter
ĠT odo
ĠÐ¾Ð¿ ÐµÑĢ
ĠÃ© ner
ĠÐĿÐ¾Ð² Ð¾ÑģÑĤÐ¸
ĠÂ¡Â ±
Ġpres ti
Ġpra k
Ġcons ist
Ġreg ister
ĠCÃ³ mo
ry p
Ġpropos ta
ĠS olo
Ġsta tt
Ġno ir
Ġch ica
Ġpar fa
Ġge hen
ĠWeb cam
Ġseu lement
Ġm ensa
ĠMÃ¤r z
Ġgro ÃŁ
ĠPar te
Ð½ Ð¸Ð²
n icz
ĠÐ± Ð¾Ð»ÑĮ
ĠG ior
Ãħ ÃĨ
tr an
Ġtr Ã¬
äºĪ å®ļ
Ã³w ki
ĠOc tober
é ½¢
è² ¨
Ġm ission
äºĭ åĭĻ
Ġh it
çĹ Ľ
æľŁ éĸĵ
c en
b 2
U rl
Ġszczeg Ã³ÅĤ
ci ano
Ġjul io
Ð ħ
ast ur
Ġw ers
Ġop is
Ġmodel os
Ġlook s
ĠM ons
ãģķãĤĵ ãģĮ
va Ã§Ã£o
ell schaft
Y S
Ġè ĸ
Ġco ach
Ġbo ard
ĠWe iter
ĠS co
ĠD á»±
ä¸ Ī
ÐµÐ· Ð¸Ð´
ĠÐ¾ ÑĦÐ¾ÑĢÐ¼
ĠÐ´ ÐµÐ½
Ġnas zej
æ´ Ĺ
Ð¼ Ð°Ð½
trzy ma
ĠÐ¿ÑĢ Ð¸Ð»
ĠL Ã¢m
ĠD IS
ç °¡åįĺ
ÅĦ ska
ĠãĤ¹ãĥ¼ãĥĳ ãĥ¼ãĤ³ãĥĶãĥ¼
ĠÐºÐ¾Ð¼ Ð½
Ġlik ely
Ġhe ar
Ġåı ĸ
ĠÑģ Ð±Ð¾ÑĢ
ĠÐ²ÑģÑĤÑĢ ÐµÑĩ
Ġprodu ce
Ġnov iembre
ĠgiÃ¡ m
Ġdivers os
ĠRo yal
ĠJour nal
ĠH amb
é »Ĵ
Ġth iá»ĩu
Ġsk ills
Q L
Ġzn ale
Ġha ut
Ġen ero
Ġav ent
Ġ19 92
Ġqu ase
ĠS á»±
æī ¿
Ð¾Ð» Ð¾
ÃĶ ÃĤ
ĠMit tel
Ġ11 2
ãĤ¼ ãĥ³ãĥĪ
Ġod by
Ġk or
Ã¤s st
f al
ĠÐ¿ÑĢ Ðµ
Ġins urance
Ġh emos
Ġcr ist
Ġapar t
ãģ®å ¼
a w
Ġãģ į
Ġmies iÄħ
Ġletz ten
Ġg old
Ġcom ing
Ġchá»© a
Ġ2 C
ãģ¨ ãģ¦ãĤĤ
Ã¤ ter
qu ement
ais on
Ġnh iá»ħm
Ġimp orta
Ġg eral
Ã¶ff entlich
ut or
ed y
ĠT Ãłi
ĠM ode
IT O
ĠFer r
ĠC ase
ec ido
Ġwy bor
Ġtra mite
Ġfe ito
Ġcos to
ĠÐ¿Ð¾Ðº Ð°
Ġna uc
ĠDis c
Ġw Ã¤hrend
Ġdez embro
ĠM ua
Ġ' .
è³ ŀ
ãģĦãģ¦ ãģĦãĤĭ
zi ale
Ġven gono
Ġin aug
ĠH on
åĭ ¢
å· »
B ook
Ġãĥ Ĵ
ĠÐº Ð¾
Ġsex y
ĠTra bal
ĠStr ona
ĠSp iele
ĠM I
ĠCop yright
ãĥ© ãĥ³ãĤŃãĥ³ãĤ°
ĠÐº ÑĥÑĢÑģ
Ġquals iasi
Ġa ime
ç² ¾
ãĤ· ãĤ¹ãĥĨãĥł
y ÅĤ
Ġä¸ »
ĠÐ³ Ð¾ÑģÑĤ
Ġscel ta
Ġemplo i
éļĽ ãģ«
on ym
Ġquar to
Ġgr Ã¢ce
ĠE la
è Ķ
ãģ§ãģ¯ ãģªãģı
Ġch c
Ġ10 6
ÑĤ Ð¸Ðº
ÐµÑģÐ¿ ÑĥÐ±Ð»Ð¸
ac za
ĠÐ± Ð°Ð·
ĠW ys
æĹ¥ ãģ«
Ñĩ Ð°ÑģÑĤ
Ð¾ÑĤ Ð¾
ĠÑĤ Ð¾Ñĩ
ĠÐ¡Ð ¨ÐĲ
Ġre cl
Ġqu Ã¡n
ĠGro ÃŁ
ãģ«ãģ¤ãģĦãģ¦ ãģ¯
Ġp p
Ġcomun que
ĠM ade
ÑģÐº Ð¸Ð¼
Ð¿ Ð°ÑĢ
½ çī©
via mente
Ġz ie
ĠR EG
Ġ. /
ers hip
Ġper ce
Þ ©
Ġent rar
Ġdivers as
ĠPerson al
i j
ĠBas ket
ĠApr Ã¨s
ĠÐ´ÐµÐ» Ð°ÑĤÑĮ
Ġun as
Ġthro ughout
Ġmiejs ca
Ġcuer po
ĠAr te
çµĲ å©ļ
ĠÐłÐ¾ÑģÑģ Ð¸Ñı
Ù Ĭ
ien en
at oria
IL E
Ġtra dition
Ġsempl ice
Ġpisc ina
b ud
Ġra mach
Ġlos s
Ġd Ã¡
ĠC it
Ð»Ñı ÑİÑī
ĠÐ°Ð´ ÑĢÐµÑģ
Ġrisulta ti
Ġfu ori
Ġch odzi
Ġ23 0
ãĤĤ ãģĨ
âĢ ¢
çµ ±
ãĥ¼ãĥ Ŀ
ãģĦ ãģ§
leg t
b la
CI 6
Ġtem os
Ġsch Ã¶
Ġel imin
ï¼ ¥
Ð¸Ð¼ Ð¾
ang es
ĠAn che
ãģ®è ī
ce ed
c ulo
Ġpr ue
Ġin ch
Ġhab il
ĠHom bre
Ġofer ty
Ġnar ra
Ġform ato
ãĤ¦ ãĥĪ
ÃĬ N
ko ÅĦ
ĠÐ´ Ð¸Ð·
ĠR oll
T U
Ġtak i
Ġgu ida
ĠHer r
ãĥ¥ ãĥ¼ãĤº
â Ĥ¬
Ð¸ Ð³ÑĢ
Ġv ice
Ġmos trar
Ġhom em
ĠL Ã½
ĠAs ÃŃ
Ġ19 93
M z
ĠW and
ĠCr ist
ãģ¾ ãĤĭ
v oll
ĠÐ´Ð¾Ð»Ð¶ Ð½Ñĭ
ĠW olf
ĠE du
ĠC Ã¡
ãģ®å º
Ìģ ng
Ġç¨ İ
Ġus a
Ġmat ter
Ġencu entra
Ð°Ð½ Ð¸ÐµÐ¼
Ġse is
ĠMil an
ĠCru z
ne hm
ion o
ĠâĢĻ ,
ĠÐĴ Ð°Ð¼
ĠÐ¼Ð¾Ð¼ ÐµÐ½ÑĤ
Ġproduc to
Ġout side
Ġm ental
Ġty god
Ġpron to
ĠmÃ©d ia
Ð½ Ð¾Ð·
sch af
h ab
Ġsur face
Ġpol icy
ĠPr zed
ĠÐ¾ÑĦ Ð¸ÑĨÐ¸Ð°Ð»ÑĮ
Ġvia gra
Ġro ute
Ġ10 3
Ð¾Ð¶Ð´ ÐµÐ½Ð¸Ñı
ĠÐ¿Ð¾ Ð¸ÑģÐº
Ġvia j
Ġtrans porte
k in
M j
Ġp au
Ġeffec tive
Ġcook ies
Ġcoment arios
ĠA par
ÑĥÑĢ Ð½
di tions
Ġs at
ĠS tu
Ġ) (
ĠÐ¿ÑĢ ÐµÐº
sk az
ol ari
ĠÐ¿Ð¾Ð»ÑĥÑĩ Ð¸ÑĤÑĮ
ĠT OP
ãģ®å ľ
ta mi
Ġex pres
ĠPre vious
ĠD ios
ãģĤãĤĬ ãģĮ
P G
Ġpoli tica
Ġc áº¥u
ĠÑĢÐ°Ð· ÑĢ
Ġun g
Ġele mentos
ĠV eg
est ar
H e
Ġb ell
ãģĭ ãĤı
á»į t
P ar
Ġ2019 å¹´
ä¸ ģ
ãĤ» ãĥĥãĤ¯ãĤ¹
k cyj
Ġa Ãºn
ĠV ila
çĽ¸ æīĭ
åĨ ĻçľŁ
w iz
Ġjako ÅĽci
ĠÐ´ Ð½Ñı
Ġsta ge
ĠS olu
ch ange
ĵ åĽ½
ĠÐ¾Ð¿ Ð¸Ñģ
Ġz aba
Ġci alis
ĠEr geb
fic ie
ag ner
ĠÐ¾ ÐºÑĤ
Ġform as
Ġden en
ĠO m
ĠH ers
æ¥ µ
ura mente
E lement
ĠÐ· Ð°Ñģ
Ġna ve
Ġgro ÃŁe
Ġe b
ĠÐ¾ÑĤ Ñģ
Ġt Ãłu
ĠCi udad
ĠC li
è²» çĶ¨
ãĥ¼ãĥ ľ
Ð²ÐµÑĢÐ¶ Ð´
reib en
bil ity
ĠÄĲ iá»ĩn
Ġpel as
wid get
en cy
ĠâĢľ .
Ġu tile
Ġc ss
Ġang e
ĠÐ³ Ð¾Ð»Ð¾Ð²
ond ere
B C
Ġpass ion
Ġentrepr ises
Ġa id
ĠM ond
Ġraz em
Ġapp e
Ġam igo
ĠB amb
Ġ ä½ĵ
ãĥª ãĥķãĤ©ãĥ¼ãĥł
r ary
Ġopportun ity
è± Ĭ
ÐµÑĢ Ð¾Ð¼
p unkt
Ġpod staw
Ġcos titu
ĠOk tober
u pa
ĠÐ¾Ð±ÑĢÐ°Ð· Ð¾Ð¼
ĠÐ± Ñİ
Ġro ot
Ġgrow th
Ġgem acht
ĠdziaÅĤ al
éĽ» è©±
niej sze
cze ÅĽniej
ĠÐ´Ð¾Ð»Ð¶ ÐµÐ½
Ġl áº¡c
Ġh il
Ġ+ +
ãĥī ãĥ¬ãĤ¹
Ġwygl Äħda
Ġincre ase
Ġactiv ities
ĠG D
æ¯Ķ è¼ĥ
Ġresp ect
ĠL Ãłm
Ġto wn
Ġ Æ
ĠÐ»ÑİÐ´ Ð¸
Ġpie ce
Ġf ederal
ĠdÃ©velopp ement
Ġalc une
ĠQu ang
ĠLou is
Ġscu ola
Ġp unk
èĮ ¶
å «
ĠmÃ© to
ĠP Ã¡g
ĠMo Å¼
á»¥ p
_ 1
ĠQu i
ni Äĩ
ĠÐ´Ð² Ð¸Ð¶
Ġers te
ĠMar ie
ĠK ol
it an
Ġres olu
Ġes pr
Ġb áº£ng
ĠÃĵ ÃĲ
Ġv ive
Ġu0 44
Ġty pu
Ġtak es
Ġ^ ^
ĠS Ã¼
uch er
ET A
ĠAd am
åį ĥ
tr ies
in ner
ant ar
Ġutilis ation
Ġhand lers
Ġgr os
Ġas i
ĠMerc edes
ĠG olf
ĠB ac
x is
ta ts
çµ ¡
ĠÄĳ áº©y
Ġexcel ente
Ġczy n
Ġaccord ing
ĠBere ich
èĪ Ī
ĠÐļ Ð°ÑĢ
ĠÐ¿Ð¾Ð¼ ÐµÑī
Ġqu áº£ng
Ġm use
Ġjun ho
ĠM and
ĠI o
Ġ. âĢľ
â Ħ
ĠÐºÐ¾Ð¼ Ð°Ð½Ð´
Ġin tÃ©
te te
Ġdro g
ĠÐ²Ð¾Ð· ÑĢÐ°ÑģÑĤ
Ġsp irit
Ġrece ive
Ġcon h
ti a
cz nie
Ġver o
Ġprov oc
Ġqu eda
l ines
az o
Ġl ange
Ġbe iden
Ã© fono
ran o
Ġnue vos
Ġczerw ca
ãģĮ ãģĤãģ£ãģŁ
ÐµÐº Ð°
k el
Ġjus te
in tes
ĠÐºÐ°Ð¶Ð´ ÑĭÐ¹
ĠÐ´ ÐµÐ¿
Ġh Ã¤t
ti Ã¨re
c il
ĠãģĿãĤĮ ãģ¯
ĠÐ¿ÑĢÐ¸ Ð¾Ð±ÑĢ
Ġindustr ial
ĠH á»įc
ER E
Ġca fÃ©
Ġ ãģ§ãģĻ
dzi Äĩ
c 2
ĠÐ¼ Ð¸Ð»
Ġp ÅĤ
Ġnum a
Ġc d
Ð°ÑĤ Ð¸
Å »
siÄĻ bior
ju da
ĠÐ³Ð» Ð°Ð·
Ġfl ow
ĠS anti
ãģķãĤĮãģ¦ ãģĦãģ¾ãģĻ
Ð¾Ð· Ð¼Ð¾Ð¶
Ġenf ant
ĠRom an
ãĤ¦ ãĤ¹
is Ã©
er ci
ĠÅ¼ ad
Ġvi Ãªm
Ġser wis
Ġfeb rero
ĠMan uel
¤ ĩ
ster reich
k cja
Ġintel ig
ĠÐ¼ÑĥÐ¶ Ñĩ
Ġsvilu ppo
Ġresp ond
Ġpr osta
ap ar
ĠÐ¾ÑĤ Ð¿ÑĢÐ°Ð²
Ġpos itive
Ġpartic uli
ãĥ¡ ãĥ©
pp ia
ĠÐ¿ÑĢÐµÐ´Ð¿ÑĢ Ð¸ÑıÑĤ
Ġcon tes
ãĤĮãģ¦ ãģĦãĤĭ
u elle
Ġc áº§m
ãģ®æ Ń
Ð¾Ð±ÑĢ Ð°Ð¶
Ã³n ico
ĠÑģ ÐµÐ·
Ġj et
Ġmil itar
Ġl iste
Ġgestion e
bl og
Ġh Ãłi
ĠJa va
ï½ į
Ġun ico
Ġsens o
Ġn áº¡n
ãĤĪãĤĬ ãĤĤ
ĠÄĳ Ã¨n
Ġmulti ple
ĠW omen
ĠRe chts
ĠCr isto
ãģ² ãģ¨
Ġro ll
Ġc ultur
Ġay uda
ĠZ ug
ÐµÑĤ Ð¾Ð²
Ãĵ Ãİ
li ÅĽmy
iz ation
iO i
Ġcurrent ly
ĠUl tra
ĠPro zent
å½ ©
Ð¾Ð¿ÑĢ Ð¸ÑıÑĤ
Ð½ Ñĥ
p ira
etz ung
Ġm iÄĻ
ĠF rid
ĠDis tr
Ã£ os
pa ir
Ġs s
ĠM ath
ere i
Ġsare bbe
Ġconte x
Ġch ron
ãģ®å ĭ
ĠÑĤ Ð¾Ð½
ĠÐ´ Ð°Ð»ÑĮ
Ġcont ar
ãģĭãĤī ãģªãģĦ
bild ung
ĠeB ay
Ġcond izioni
ĠÑħÐ¾ÑĢÐ¾ÑĪ Ð¾
Ġo ko
Ġn ord
ĠFra u
ãģ¨ãģĦ ãģ£ãģŁ
u v
ĠÑĤ ÐµÐºÑģÑĤ
ĠV Å©
ÑĢ Ð¾Ð½
un te
ĠprÃ³ xim
ĠCa o
en ica
Ġg á»ĳc
ĠCom ent
P re
ĠÑĤÑĭ ÑģÑıÑĩ
ĠÄĲ áº£ng
Ġus ually
Ġes tima
Ġenc ou
ĠTra vel
ĠTh ank
ren ch
B l
ĠÑģ ÐµÐº
Ġx ong
Ġpass a
Ġin ÃŃcio
ĠcÃ´ tÃ©
ĠCon fer
æĹ ¶
Ġprzygo tow
Ġcho ice
tr ze
ĠÐļ Ð°Ð·
Ġesto u
è¨Ń å®ļ
ãĤĴæİ ¢
Ġg ig
Ġet wa
ĠS pecial
ĠL O
æĻ ¯
p raw
S erv
Ġcol leg
ãĥĭ ãĥ³ãĤ°
Ġproble mi
Ġi hm
Ġestra tÃ©
ãģ®æ Ķ
ĠÑĢ Ð°Ð´
ĠS ir
ĠM Ã©d
Ġ9 99
« ª
is ia
Ġè ±
Ġå ²
Ġkwiet nia
æĿ ¾
p li
n ale
Ġout ubro
ĠS ara
ãģ® ãģĶ
Ġtem plate
Ġs v
Ġpla ces
ĠPare ja
ÑĤ Ñĥ
AN A
ĠâĢ İ
ĠÐºÐ¾Ð¼Ð¿ ÑĮÑİÑĤ
Ġpag ar
Ġapp ly
ĠMar kt
ĠÐ°Ð´ Ð¼Ð¸Ð½
Ð¼ÐµÐ½ÑĤ Ð°ÑĢ
2 50
ĠÐºÐ¾Ð¼Ð¿Ð» ÐµÐºÑģ
Ġwal k
Ġexper iÃªncia
ĠN etz
ĠN OT
ĠMig uel
FOR M
Ġmar que
è Ĩ
Ð°Ð² Ð»Ð¸Ð²
arbe it
ĠÃĬ Ãĩ
Ġprojec ts
Ġmus i
Ġc usto
ĠC all
ãģĪ ãģ¾ãģĻ
; ;
Ġh ip
Ġ' )
ate urs
Ġag it
ĠH á»ĵng
Ġ! )
Ġdis fr
ĠP io
ĠB Ãł
is ion
ec ts
ı ng
ĠÐĵ ÑĢ
ä½ı å®ħ
atr ice
Ġz atr
ĠwÅĤa ÅĽci
Ġprofission ais
Ġaconte ce
ãģ¨ãģĦãģĨ ãģ®ãģ¯
yo ta
ĠÄĲ á»ĳi
Ġtrans forma
Ġor ienta
Ġtu taj
Ġsog ar
çĤ º
uc ks
ran ce
k ur
Ġp it
Ġcol ore
ĠBe au
áºµ ng
Ãª Ìī
is iÃ³n
d Åº
ĠÅĽwia t
Ġse qu
Ġposs o
Ġk ro
ĠÑģ Ð¾Ð³Ð»Ð°Ñģ
ĠÐ° Ð¿ÑĢ
ãģĽ ãĤĭ
ir us
h Ã¤lt
Ġpol ity
Ġdis par
ĠJ ard
Ġrece ber
Ġpap ier
Ġl uyá»ĩn
Ġch Ã¢u
Ġas k
âĢĶ âĢĶ
Ñı Ð»
ri p
ĠCom mer
Ġ ãģªãģ©
avil ion
Ġm Æ¡
ug a
que le
ist Ã©rio
ges tellt
ĠÐ¾Ð± ÑĥÑĩ
Ġmie Äĩ
le ist
ann el
wh ere
ĠÐºÐ¾Ð»Ð¸Ñĩ ÐµÑģÑĤÐ²Ð¾
Ġcom enz
ĠS W
Ġsa is
Ġph á»ķ
Ġbu ilt
ĠIt aly
Ġ ă
tis h
r Ã³w
Ġdisposi tivo
Ġab it
ĠD á»ĭch
å¾ ©
ãģ«ãģª ãĤĬãģ¾ãģĹãģŁ
ĠrÃ©g ion
ĠkaÅ¼ dy
ĠN un
ĠB Ãªn
ãģ®æī ĭ
Ġfol g
ĠAc qu
Ġcin ema
ĠSob re
V E
24 80
Ġé »Ĵ
ĠBlue tooth
16 0
ĠrÃ© pond
Ġe uch
Ġa trÃ¡s
ĠIm per
æŁ ĵ
ol er
ch at
U NG
ĠÅĽ l
ãģĦ ãģ¤
Ġmov imento
Ġlo i
ĠO ther
ĠGru po
ĠCh ile
ia mi
ĠÄĲ o
Ġutilis er
Ġrela tive
Ġprac tice
ĠM itarbe
æľĢ å¤§
" )
ĠæľĢ è¿ĳ
Ġinc ome
Ġex act
Ġaf irm
é ³
ãĤĵ ãģ¨
z inha
cr izione
TM L
Ġrelations hip
Ġans wer
er ver
ador as
ĠÐ½Ð°Ð¿ Ð¸Ñģ
ĠÐ½Ð° ÑĢÑĥÑĪ
ĠReview Image
ãĢħ ãģª
Â ®
ĠÑĥ Ð»Ð¸
ĠÐ´ ÑĥÐ¼
Ġdes af
Ġblog spot
Ã¼ss el
w em
ie ga
cb cb
ĠIm age
ra ison
if ication
Ġp untos
ĠS tiv
N Y
Ġch á»Ŀ
ĠTer min
n ten
ĠÅ º
Ġser ver
Ġpodr ÃŃa
Ġof ertas
Ġma u
ĠG irl
ĠCl ick
ä¾ Ŀ
Ġt á»Ļi
Ġl em
ĠR A
d ze
Ġmon tag
ĠTr Æ°á»Ľc
ĠR us
ĠEduc aÃ§Ã£o
ĠÐĺ Ð³
Ġth Äĥm
Ġh ide
Ġ) }
Ð¸ÑĤ ÐµÑĢ
ÃŃ cios
ĠçĽ ®
ĠÑĨÐµÐ½ÑĤ ÑĢ
Ġloc ale
ĠV esti
ro ma
Ġmom entos
Ġaer op
ĠkÃ¶n nte
Ġi OS
åĪĩ ãĤĬ
w c
let ter
Ġla i
Ġi z
Ġcre o
ĠC T
ï¼ ´
ĠÐŀÐ´ Ð½Ð°ÐºÐ¾
Ġter re
ĠÐ¼ Ð¸Ðº
Ġlib ert
Ð² Ð¾
el os
Ġs istemas
ĠÐ¿Ð¾Ð½ Ð¸Ð¼
Ġcum pl
Ġcam ere
åĬ ´
å¤ī æĽ´
do by
ĠÄĳ á»ĳc
Ġpret ty
Ġpar tes
Ġb esser
Ġw anted
Ġproc ura
Ġprinci pais
Ġart ÃŃculo
ĠOdpowie dzi
out er
Ġhigh er
Ġc áº¯t
Ġbl u
ĠO L
ĠLin ks
ĠBl anc
Ġ15 00
ãĥ¼ãĥ Ń
ãģ® ãĤ¹
ĠÑģÐ¾ ÑħÑĢÐ°Ð½
m niej
ĠGe orge
b ili
Ġå ĥ
ĠÐ·Ð°Ð´ Ð°Ñĩ
Ġkit chen
ĠPro grama
é£ Ľ
ãĤ° ãĥ©
Ãİ Âª
Ġinf l
ĠÑĦ Ð°ÐºÑĤ
ĠÐ½Ð°Ð· Ð°Ð´
Ġescr ib
ĠMa ur
ĠF ut
ÅĽ la
Ġw rite
ĠG PS
ãģĳ ãģŁ
b at
ĠÑĩ ÑĥÐ²
Ġla iss
ĠChr is
qu in
iz er
Ġu da
ĠV id
Ġjul ho
Ġelek tr
ĠS y
éĥ İ
ç ¬ĳ
IS S
Ġç¶ ļ
ĠÑĢÐµÐ¶ Ð¸Ð¼
ĠPh áºŃt
ĠL ec
ĠGra tu
ĠÐ½ ÐµÐ¹
Ġroz wiÄħz
Ġ": [
æĪ ĳ
Å© i
ĠM ak
ĠD J
Ġweb cam
Ġvic ino
Ġtr im
Ġd v
ĠB ard
ĠÑĤÐ°Ðº Ð¸Ðµ
Ġrecom end
Ġb anda
ĠN iem
ĠEx press
ãĤ¤ ãĥ³ãĥģ
ãģĦãģŁ ãģĹãģ¾ãģĻ
Ð°Ð»ÑĮ Ð½ÑĭÐ¼
Ġsu ff
Ġokre ÅĽl
Ġcontac to
ĠS AN
ĠAnd rea
å¸ Ń
ÐµÐ» ÐµÐ½
Ġvol ont
Ġst anie
Ġs áºµn
et ter
et en
_ f
ĠÑĢÐ°Ñģ Ð¿Ð¾Ð»Ð¾Ð¶
ĠÐ°Ð²ÑĤÐ¾Ð¼ Ð°ÑĤ
Ġs int
ĠM OD
le k
M ar
ĠÐº ÑĥÐ¿
Ġra ther
Ġpot ential
ãģ¿ ãģ«
ĠÑĢÐ°Ð·Ð²Ð¸ÑĤ Ð¸Ñı
Ġdiv id
ÐµÐºÑĤ Ð¾ÑĢ
ly mp
9 00
Ġè ĥ
Ġtra vers
Ġr osa
Ġfr onte
Ġeas ily
Ġc c
ĠComp any
å¸Ĥ åł´
is co
inh as
Ġre tra
Ġn uc
Ġev entos
ter y
aliz acji
Ġpod sta
Ġmulher es
Ã¥ ÃħÃĨ
ifica ciÃ³n
Ġlead er
ang a
Ġna u
Ġfund amental
ĠMo v
ĠM ake
Ġvoit ure
ÑĢÑı Ð´
x 1
10 æľĪ
ĠÑģÑĢ Ð°Ð·Ñĥ
Ġtra ding
ĠC áº§n
ç¨ĭ åº¦
ãĤĴ ãĤĤ
ies a
IV E
ĠâĤ «
ãĥ¼ãĥ į
Ð¾Ð· Ð½
r Ã¤n
h 00
ess age
ĠðŁ ĻĤ
Ġcateg ory
Ġass um
ĠVer de
ĠG dy
Ð´Ð° Ñĩ
Ã³w no
ob acz
as c
N T
ĠÐ¾Ñĩ ÐµÑĢÐµÐ´
Ġtry ing
Ġtra c
ï¼ ²
§ ĺ
Ġá»ķ n
Ġsum mer
ãģ« ãģ¦
m Ã¶glich
Ġtot ale
Ġt ÃŃtulo
Ġl áº¡
Ġl ider
pres as
ibil itÃł
7 00
Ġver g
Ġpro cha
og os
88 8
u vre
Ġwsp om
Ġfran ces
Ġd Ã¡ng
æº Ĳ
ob by
m eld
AC H
Ġ19 91
ĠÐł Ð°Ñģ
Ġsho pping
Ġkann st
Ġinst ant
ĠS iti
èĭ ¦
ãģ®å ½
hl er
ĠÐ¿Ð¾Ð´ Ð³Ð¾ÑĤÐ¾Ð²
ĠÐ¼ Ñĥ
ĠtÃ©cn ica
ĠM au
Ġ Ĉ
è¢ ĭ
met ros
cu pa
ĠÐº Ð¼
ce an
Ġï¼ģ ãĢį
ĠÐ¿ ÑıÑĤ
Ġword s
Ġwar m
ãģ¨ãģª ãĤĭ
ÐµÐ² Ð¾Ð¹
Ġx áº¿p
Ġcol le
Ġprob ably
ĠCom une
p age
Ġh Ã¡t
ãĤĴæ ±
ãģĮ è¦ĭ
zi Äĩ
M od
Ġstra da
Ġro t
Ġp Ã©ri
Ġl áº¯m
Ġd ado
Ġass ic
Ġsocia is
ĠS yn
éĸĭ çĻº
olog na
m ond
jÄħce j
Ġvis ion
Ġpres id
Ġhel d
Ġcomp uta
ung ere
aria mente
Ġwrze ÅĽnia
Ġprz em
Ġdev em
ĠDec ember
ira m
Ġgr y
Ġabsol ute
ãĤĦ ãĤĬ
Ñĩ Ð¸ÑĤ
ic iones
ĠÑįÑĦÑĦ ÐµÐºÑĤÐ¸Ð²
Ġco op
çĶ³ ãģĹ
um ps
dz enia
Ġnie go
Ġer ano
Ġb ic
Ġwys oko
Ġr ynku
ĠRob erto
ĠD ro
ne hmer
Ġg mail
Ġcon to
ãģ¯ ãģļ
it ter
ĠÑĢÐ°Ð±Ð¾ÑĤ Ñĥ
Ġdav on
ĠQu Ã½
ub les
Ġparti re
Ġis n
em ia
Ġu pon
Ġreg istro
è¨Ģ èĳī
ãģ®åī į
i ale
az zo
ĠÑĩÐ°ÑģÑĤ Ð¸
Ġbeh ind
æŁ Ħ
Åº niej
ni j
U Y
ĠÐ¿ÑĢÐ¸Ð½ Ð¸Ð¼
Ġnue vas
Ġle ave
Ġcommer ce
Ġcan not
Ġbu eno
ĠTele fon
åĢŁ ãĤĬ
ogra f
Ð¾ÑĢ Ð¾Ð¶
Ġm id
Ġin west
Ġestabe lec
Ġcaracter ÃŃsticas
ĠD ok
ĠãĤ¹ ãĥĨ
Ġrestaur ant
ĠBe ispiel
teri ores
ĠÐµ Ð²
ĠF arm
Ġqu ot
Ġh Æ°Æ¡ng
Ġcab o
ĠH S
Î ¹
zen i
ma i
ĠÑĥÐ· Ð½
ĠÐ¶Ð¸Ð·Ð½ ÑĮ
Ġfe cha
ĠIS O
æĸĻ éĩĳ
Ġex plo
Ġesper a
Ġac ess
ĠClass ic
zer w
v em
ĠmÃ¶ chte
Ġm undial
Ġlip ca
Ġ1 er
ãģ¨ãģĹãģ¦ ãģ¯
ob a
Ġgior nata
åħ ħ
Ð¾Ð± Ð¸Ð»ÑĮ
Ġj este
ĠF ond
Ġäº ¤
Ġrozp oc
Ġfig ure
Ġdar auf
Ġapp are
åĢ Ĵ
ãģĹãĤĥ ãĤĮ
ãģ° ãģĭãĤĬ
â Ĩ
Ð¸Ð² Ð°ÑİÑĤ
ÐµÑĢÐ± ÑĥÑĢÐ³
ĠÑģÐ¾Ð± Ð¾Ð¹
ĠÑģ ÑģÑĭÐ»
Ġre pe
Ġre cht
Ġpo ter
Ġph Ãª
Ġinteress ante
äºĭ ãģĮ
ĠÑĢÐµ Ð°Ð»Ð¸Ð·
ĠÐ·Ð°Ðº Ð»ÑİÑĩ
Ġneg ocia
ĠduÅ¼ o
à³ ģ
ug u
Ġaten ciÃ³n
Ġaccomp agn
ĠT ER
ĠSp orts
ĠJ ud
ãĥĲ ãĤ¤
r one
Ġou til
Ġdispon ibile
Ġcor ps
éģķ ãģĨ
Ġpan or
Ġmane ira
Ġh am
Ġb aby
ĠSz cz
ĠP avilion
ĠK ons
Ð¾ÑĢ ÑĥÐ¼
Ġmer ci
ĠHe ad
Ġa Ã§Ãµes
ï½ ŀ
çľ ģ
Ðł Âµ
Ġçı¾ åľ¨
éĬ Ģ
ãĥ¬ ãĥ¼
Ġman h
ç« ¯
ãģĹãģ¦ãģĬ ãĤĬãģ¾ãģĻ
Ð¸Ðº Ñĥ
¥ åº·
u ali
Ġrec ent
Ġlong er
Ġg Ã©
ĠPart ner
åı¯èĥ½ æĢ§
Ġval id
Ġm unicÃŃp
ĠN orte
ĠD at
Æ¯ á»
ĠÑĤÑĢ Ð¸
tig os
ĠR eb
ĠL ac
ãģĻãĤĭ ãģĵãģ¨
Ð ¨
lich es
ĠÐ¾ÑĤÐ·ÑĭÐ² Ñĭ
ĠÐ¾Ð±Ð»Ð°ÑģÑĤ ÑĮ
Ġpas a
Ġn etto
â Ļ
Ġå· ¥
Ġn orte
Ġg od
ĠAl c
Ã³ ch
t wa
iz ada
c ere
M B
Ġa umenta
Ġng á»¯
Ġmigli ore
Ġ11 4
Ġ$(' .
zÄħt ku
Ġprzy kÅĤad
Ġprobl Ã¨me
Ġcon form
Ġas c
ĠPh Ã¡t
ĠN otre
ĠEurope an
Ġt Ãº
ĠR T
èª¿ æŁ»
bil idade
Ġplay er
ĠK or
ĠG P
ĠÐ¿Ð»Ð¾Ñī Ð°Ð´
Ġwyk orzyst
Ġwsp Ã³l
Ġt Ã©r
Ġsub ject
Ġsier p
ĠR og
ĠDis ney
çĬ¶ æ³ģ
ãģĹãģŁ ãĤĬ
Ð» ÐµÑĩ
Ã¤ ren
ĠÐ± Ð°Ð»
Ġur zÄħdz
bl ock
Ġna zionale
Ġind ir
Ġespa cio
Ġro und
Ġal iment
ĠDis pon
Ġ ×
Ġç Ĺ
ĠÐ° Ð±
Ġde jar
Ġconta to
ĠT Ã©lÃ©
y fik
pos aÅ¼
Ġsog gi
Ġjour nal
ĠTh en
ĠS áº£n
ĠS AL
ĠP U
ĠF antas
å ¬
ãģ¦ ãĤĭ
ere z
Ġval ore
ãĥ¶ æľĪ
Ġlistop ada
Ġdla tego
ĠL ic
unda tion
ĠÐ¿ ÑģÐ¸Ñħ
Ġincor por
Ġen vo
Ġdere cho
ĠDe velop
ãĥ¬ ãĤ¤
Ġåľ ¨
Ġch cia
ÐµÐ» Ð¾
ĠÑĩ ÐµÐ³Ð¾
äºĪ ç´Ħ
ãģĹãģ¦ ãģĦ
Â¡Â ¢
em as
IN T
Ãºbl ica
us Ã¤tz
te x
ĠÐ½Ð° ÑĥÑĩ
Ġrece ived
Ġl áº¯p
ĠT ay
ĠÐ¿ÑĢ ÐµÐ²
Ġesto y
Ġall ows
ĠWyÅĽwiet leÅĦ
ĠAr ti
ç Ĵ°å¢ĥ
Ġdist int
ĠZ usammen
åĲį çĦ¡ãģĹ
å¯ Ł
ãĥ¬ ãĥĥãĥĪ
Ð°Ñģ Ð¸Ð±Ð¾
ĠÐ¿ Ð°Ð¼
Ġvac ances
Ġgiov ani
Ġbie ten
ĠG aler
Ġ485 2480
Ġ11 6
çĶ» åĥı
N 0
AN CE
Ġo zn
ĠH in
Ã¡ ticos
uf en
sta g
Ġopp ure
Ġgrud nia
ĠFern ando
ãģ£ãģ ±ãģĦ
ĠæĦ Ľ
Ġsch ed
Ġch im
ĠPs ych
Ġ10 7
ĠÐĴ Ð¸Ð´
ĠÐ¾Ð±Ñī ÐµÑģÑĤÐ²
ĠÐ¾Ð± ÑĢÐ°Ñī
ĠÐ²ÐµÑĢ Ñģ
Ġmes ure
Ġlu ogo
Ġcer te
ĠVer fÃ¼g
ĠS itu
Ġf estival
ĠÐŀ ÐŀÐŀ
Ġucz est
Ġpia ce
Ġpes quisa
ç ł´
ĠÐ¼Ð°Ð³Ð°Ð· Ð¸Ð½Ðµ
Ġnast ÄĻp
Ġacomp anh
ĠSe iten
èı ľ
Ġfl or
ĠM G
åħ¥ ãĤĬ
å¥ Ī
ÃĶ NG
ĠÐ½Ð°Ð¿ ÑĢÐ¸Ð¼ÐµÑĢ
Ġser ont
ĠT E
æ ĳ
Ġprofission al
Ġpr imi
Ġlong o
ĠIn sp
Ð» ÐµÐ³
om s
ina Ã§Ã£o
20 18
ĠÐ¿ÑĢ Ð°Ð·Ð´
ĠÐ±Ñĭ Ð²
Ġte ve
ãģ¡ ãĤĩãģ£ãģ¨
ĳ ç´Ħ
Ġãĥķ ãĤ£
ĠÐ¡ Ð°Ð½
Ġlu ce
Ġk ateg
Ġfa Ã§on
ĠP ur
èĩ ´
ic l
Ġá» ŀ
Ġidenti fica
ĠU V
çļ ®
ä¸Ģ çķª
Ġwe eks
Ġreal idad
Ġg Ã¼ns
çµĦ ãģ¿
Ġt Æ°Æ¡i
Ġstruc ture
ĠSE O
li ers
Ġæ ¿Ģå®ī
ĠÑģ Ð¿ÑĢÐ°Ð²
ĠÐ½ Ð°Ð¹ÑĤÐ¸
Ġredu z
Ġinterna tion
Ġa Ã§Ã£o
ĠA la
ĠÐ¼ÐµÑĤ Ð°Ð»
ĠÅ¼y cie
Ġlang uage
ĠW iÄĻ
Ġ ä¾¡æł¼
an ho
Ġw orth
Ġbisog no
ĠE li
çħ §
g gio
ĠÐŃ Ðº
ĠS par
ĠD ziÄĻki
Ġ( .
éĢļ ãĤĬ
åı ¸
ãģ¨ãģĦãģĨ ãģĵãģ¨
ches ter
ĠÐ¿ÑĢÐ¸Ð¼ ÐµÑĢ
Ð°Ðº ÑĤÐ¾ÑĢ
ĠEs pecial
ute bol
Ġqu atro
ĠViet nam
ĠT age
ĠãĥĽ ãĥ¯ãĤ¤ãĥĪ
Ġpas ar
Ġinclud ed
Ġ000 åĨĨ
ï¼ ¤
Ð¾Ð» Ð°
ic ks
hn t
Ġtem as
Ġr ar
Ġp c
ĠS atur
ied ades
ĠÐĶ Ð°
Ġs b
Ġpres enti
Ġbes onders
Ġb estimm
Ġdie ta
ĠFra gen
æ´ ¾
åĪ °
Ġä»¥ ä¸ĭ
ĠãģĤ ãĤĭ
Ġbu on
ãĥ© ãĥ«
ãģĵ ãģĿ
Ð½Ð¸ ÑĨÐ°
inter est
Ġco lec
ĠReg ional
ĠL en
ĠJug end
ĠIn fo
ãĤĴ åĩº
oc er
al ny
L ist
Ġorigin ale
Ġnapraw dÄĻ
schl uss
al ing
D C
Ġz ug
ĠrÃ¡p ido
ise x
as o
Ġe ux
Ġdo or
ĠUn s
ĠG or
til la
Ġprim ero
Ġpow ierz
ĠV ors
ãĥª ãĤ¨
gu Ãªs
Z SI6
Ġç´ ł
Ġæĺ ¨
ĠW ild
por to
Ġh Ã´n
Ġent onces
Ġ5 C
ç ĩ
æ¸ ¯
omi ast
Ġdis tr
land s
Ġprz eg
ĠR ome
ĠR AM
åł´åĲĪ ãģ¯
Ġv Ã¡rios
Ġt áº§m
Ġsp iel
Ġg la
fe ito
ĠÐ½ Ð¸Ð·
Ġpre f
Ġpl ant
ĠT Ã¼r
ĠA j
Ġ198 9
ĠÐ´ Ð¸ÑģÐº
Ġqu oi
Ġamp li
ĠTy pe
æ³ ¢
al ie
ĠÐŁÑĢ Ð¾Ñģ
Ġtechni que
Ġpe le
Ã± ana
l ist
ĠæĪ ĳ
ĠÐ´Ð¾ÑģÑĤ Ð°ÑĤÐ¾ÑĩÐ½Ð¾
Ġprodu zione
ĠTor ino
Ã¤t ze
b Ã©
Ġre cep
Ġcho Äĩ
ĠRe ise
ãģ§ ãģĤãĤĬ
Ñģ Ð°
pu esto
d on
Ġthá»ĭ t
Ġsi endo
ĠAssocia tion
ãĤĪãģĨ ãģ§ãģĻ
ys te
ar zy
ĠÐ² Ð»Ð°ÑģÑĤ
ĠMar ÃŃa
ĠLe y
is tic
Ġto ols
Ġquat tro
Ġmar Ã§o
Ġcon cept
Ġcap az
ĠI hren
ĠC AN
Ð³ ÑĥÑģÑĤ
Ġth áº³ng
Ġswo ich
Ġhe av
å®ī å¿ĥ
Ġqualc osa
Ġph Ãºc
Ġeigen en
iss ima
W U
Ġæĸ ĩ
Ġæ ®
ĠGeschÃ¤ fts
ĠG eral
ĠDes n
ĠB Ã¼r
ãģ£ ãģ¡
ut lich
bl ick
12 æľĪ
ĠPol iti
ÑĥÐ½ Ð°ÑĢÐ¾Ð´
Ġrap presenta
Ġmeet ing
Ġc ine
ĠS qu
icz na
ĠÐł ÑĥÑģ
Ġay udar
ãģķãģĽ ãĤĭ
tiv ity
r ing
Ġpopula tion
z m
is k
ĠÐ¿ Ð¸Ñģ
Ġn ÃŃvel
ãģ§ãģĻ ãĤĪãģŃ
Ġz esta
Ġnov embro
ĠAs ia
Ð°Ð½ Ð½ÑĭÐµ
ÅĤug i
ni Äħ
Ġè ģ
ĠÄĲ áº·t
Ġth Ãºc
Ġin izio
ĠÐ½ Ð°Ð»Ð¾Ð³
Ġtr end
Ġtien es
ĠTot al
éĽ ¨
Ã¤ng e
ig u
Ġmil es
Ġin oltre
Ġcz ego
ĠSeg ur
æĪ »
ãģ¨ ãĤĵãģ©
f era
an st
èĭ ¥
ãĥ¼ãĥ ¬
ãĥ« ãĥĢ
Ġth Æ°á»Ľc
ĠTe ch
âĶ Ģ
Ġnombre ux
Ġng Æ°Æ¡i
Ġdale j
Ġach at
æ¯ į
Ġess enti
Ġam ici
Ġa w
ĠC ena
ãĥ¼ãĤ µ
ge ber
ĠãĥĽ ãĥĨãĥ«
ĠÄĲá»ĭ a
Ġrealiz ado
ĠS ind
ĠB og
ĠB at
æ¨ ¡
åĸ Ħ
ãĥĩ ãĥ¼ãĤ¿
c ing
Ġtit re
Ġso ft
Ġr Ã¨
ÃŃ amos
uc ia
Ġtop ic
Ġpok o
Ġb áº¡c
Ġad ver
ĠT ok
ĠServ i
ĠKon takt
ĠH Ã´tel
ãģıãģª ãĤĭ
le ts
Ġâĸ ¼
Ġsom os
Ġnou v
Ġgro ÃŁen
Ð¸Ð· Ð¼
IC H
ĠÃ¶ ff
Ġselec t
ĠC and
jew Ã³dz
Ġåı£ ãĤ³ãĥŁ
ãĥ³ãĥĹ ãĥ«
ĠçµĲ å©ļ
ĠÐºÐ¾Ð½ Ñģ
ĠÅĽ red
ĠM á»
ĠFrid ay
éļ ľ
ent ino
Ġp av
Ġfal ar
ĠS tudi
Ġz war
Ġto i
Ġse tembro
Ġa ire
Ġç¤ ¾
Ġs tile
Ġfel iz
ãĤĴè¦ĭ ãĤĭ
w _
iá»ĩ ng
Ġent ender
ĠK i
åĭŁ éĽĨ
ÑĤ Ð¾Ð²
Ð° ÑģÑĤÐ²
hr t
al ten
Ł ãģĺ
Ġef ec
Ġt old
Ġsa ison
Ġmaterial s
la te
D O
Ġse ul
Ġord in
Ġopini Ã³n
ĠZ am
Ã¤ te
on av
Ġt are
Ġpar ent
Ġoccas ione
Ġl ower
ĠH ombres
å© ¦
ti ger
ĠÃ©ta t
Ġpass ado
ĠexpÃ©r ience
Ġej erc
Ġcoment Ã¡rio
ĠVenez uela
ĠFebru ary
Ġ11 8
ĠtÅĤ um
Ġten ha
Ġre te
Ġfe u
Ġeuro pÃ©
ĠW id
aliz ar
2 12
Ġwym aga
Ġdo t
çº ¿
ãģ® ä¸Ĭ
Ñį Ð½
Ð¾ÑĢ Ð¾Ð½
Å¼ enia
ÄĻ dz
l oc
h y
ĠÐ¿ÑĢ Ð¸Ñħ
ĠFran cia
ĠÑĤÐ°Ðº Ð¾Ðµ
ĠÐµ ÑīÑĳ
ill on
ĠUnivers idade
ĠÐº Ð°Ð±
ĠÄĳ Ã³n
ĠÄĲ á»
Ġvar iety
Ġcour t
ti se
Ġd agli
Ġche f
ĠPer f
ĠÑĩ Ð¸ÑģÑĤ
ĠÐº Ð¾Ñģ
Ġpl ano
Ġan i
Ġacc Ã¨s
Ġa pl
ĠR ena
te xt
ĠÐ¿Ð¾ÑĤ Ð¾Ð¼Ñĥ
Ġon es
Ġforma zione
Ġ ä¼ļ
Ġal meno
ãģ® æĹ¥
Î ½
r iel
ĠÑįÑĤ Ð¸Ñħ
ĠG em
Ġsp azio
Ġat tes
ÅĤ ym
one j
et ra
4 50
ĠÐ¸ÑģÐ¿Ð¾Ð»ÑĮÐ· Ð¾Ð²Ð°ÑĤÑĮ
Ġw ÅĽrÃ³d
Ġr uch
Ġpurch ase
Ġdw Ã³ch
Ġapr ender
ĠChar les
Ġsein em
Ġmed ical
ĠGr Ã¶ÃŁe
» çĻĤ
tt ore
Ġnouv elles
wy Å¼
ĠP ak
ĠB ab
èĶ µ
Ġä¸ĸ çķĮ
ĠãģĬ ãģĻãģĻãĤģ
ĠÑĩÐ°ÑģÑĤ Ð¾
ĠÑģÐ²ÑıÐ· Ð¸
ãĥ¼ãĤ ±
ãģĳ ãĤĮ
ina ta
a x
ĠOrig in
ĠL ap
ne z
Ġg ouvern
ĠZa hl
Ð¾Ð± Ð¾Ð´
es en
ĠÐ¿Ð¾ÑĤ Ð¾Ð¼
Ġs Ã´ng
Ġh op
Ġcook ie
ĠF ed
ãĥĥ ãĤ»
e in
æīķ ãģĦ
ĠÐ¾Ð´ Ð½Ð¾Ð¹
Ġval uta
Ġsitua Ã§Ã£o
Ġh ommes
Ġfra is
ĠLab or
f urt
b ros
ĠÐŁÐµÑĢ Ð²
Ġk lient
Ġcli enti
Ġb á»©c
ãĥ© ãĤ¯
ÑģÑĤÑĢÑĥ Ð¼ÐµÐ½ÑĤ
um ents
b are
I RE
Ġer k
ĠSel bst
Ġé ¢¨
ĠÐ¿ÑĢ Ð¾Ðº
Ġr ights
ĠV ER
ĠRa fa
ãģ£ãģ¦ ãģ¿
Ð¸ÑĢÑĥ ÐµÑĤ
il ing
and ra
ĠÑĥ ÑĢ
Ġprincip ales
ĠS OL
ĠL T
Ġ ć
ĠW atch
ĠHol z
ãģĮ å¤ļãģĦ
Ñİ Ð·
pp s
n ak
ĠÐ¿ÑĢ Ð¸ÑĢ
ĠÐ´ ÑĥÑĪ
Ġwo od
Ġposs ui
fer n
Z Z
ĠÑĢ Ð°Ð´Ð¸
Ġs che
Ġof ert
Ġimm obili
Ġd Ãº
Ġan zeigen
Ðķ ÐĿ
ho od
| |
Ġt etas
ĠLoc al
Ġb ord
ente d
by t
ĠÑģÑĢ Ð°Ð²
Ġter ms
po ol
Ġta ille
Ġfavor ite
ï¼ °
èĲ½ ãģ¡
è² ¡å¸ĥ
Ð¾Ð¼ Ð½
ÅĤ on
en y
Ġt á»Ļc
Ġm áº¡ch
Ġed it
al do
Ġï½ ¤
Ġfran c
Ġcan tidad
Ġad el
ĠPre mier
ĠDo ch
ĠDes car
ÐµÐ¹ ÑĤ
za ti
C B
äºº ãĤĤ
ĠÑĤÐ°Ðº Ð¸Ñħ
ĠÐºÐ°Ðº Ð¾Ð¹
Ġzaw iera
Ġasse z
ĠSom mer
ĠS V
wor ten
as tica
ĠÑģÐ»ÐµÐ´ ÑĥÐµÑĤ
èĭ ±
li ance
ig lie
ĠãĤ ²
te la
ch u
T ra
L O
éĥ¨ å±ĭ
Ġ á
Ð¾Ð²Ð°Ð½ Ð¸Ð¸
ai ent
ĭ èŃ·
Ġè ¥¿
ĠÐ±Ñĭ ÑģÑĤÑĢÐ¾
Ġr ing
Ġple in
Ġk ry
Ġfres h
Ġde ep
ĠO FF
ĠEng ine
ÑģÐ» ÑĥÐ¶
Y T
å§ Ķ
å¤ ı
Ġfer ro
Ġcan cel
ien iem
Ġï¼ Ķ
Ġpos izione
p ass
ĠÑį Ð»ÐµÐ¼
ĠVer gleich
ĠRestaur ant
ĠM ix
Ð¢ Ðŀ
ÄĻÅ¼ czy
Ä Ĥ
tt es
nit ure
ar ie
Ġèī ²
ĠSand ali
ÅĤo ÅĽ
e j
1 000
Ġauf ge
ĠH ill
ãĥĥ ãĥĳ
ãģ« ãģĻãĤĭ
ff re
Ġsc rit
Ġrac con
Ġfra me
ĠTe atro
ĠF la
ãĥ© ãĥĥãĤ¯
ãģĦãģŁ ãģłãģĳ
ra wia
Ġåį ĺ
Ġh áº¡ng
Ġgra ve
Ġconte Ãº
ĠT ac
ãģ®æ µ
Ãĵ ÃĲ
ĠÑįÐ»ÐµÐºÑĤÑĢ Ð¾Ð½
ĠÐ° ÑĤ
Ġstag ione
Ġpa int
ĠHer z
ä½ľ ãĤĬ
ĠÑģÐ¼Ð¾ÑĤÑĢ ÐµÑĤÑĮ
Ġsoll ten
Ġprogram s
Ġnov as
Ġmod al
Ġcam pe
Ġcal le
ĠM id
éĸĵ ãģ«
ãģ¨ ãģĻãĤĭ
ciÄħ g
ãĥ³ãĤ° ãĥ«
Ġsp etta
ĠR esearch
ĠC F
ä¸ ¦
ãģĮ å¿ħè¦ģ
ka Äĩ
ch em
and es
Ġzas ad
Ġl Ã¤sst
Ġgo al
ĠS Ã³
Ñĩ Ð¸Ð²
O n
ĠÐŁ Ð¾Ðº
Ġtro ppo
Ġminim um
ãģķ ãģ¾
ost as
Ġå¯ ¾
ĠÐ¾Ñģ Ð½
Ġtr Ãºc
ĠSci ence
ãģļ ãģ«
~ ~
Ġprodu ktu
Ġch iáº¿u
Ġab r
ĠT áºŃp
ĠG Ã¤
ç¸ Ħ
Ġswo jÄħ
Ġimp lem
Ð³ÑĢ Ð¾Ð¼
ni ku
it ando
Ġreg ional
Ġinform acje
Ġesc re
Ðķ Ðł
port es
Ġr ang
Ġprogram as
Ġpon er
Ġj ard
Ġcomp ara
gi as
Ġand er
ĠB AR
Ġ19 80
Ġlead ing
Ġp unta
Ġkle ine
yw at
D B
ãĥĢ ãĤ¤
Ġuns eren
Ġin tr
Ġf ato
ĠRe i
Ġn ik
ĠmÃ¡ ximo
ĠPh Ã³
ĠM O
ĠC AP
Ġ Ã³r
ĠçĦ¡ æĸĻ
Ġpre vent
ĠpaÅºdzier nika
Ġnecess Ã¡rio
Ġleg gere
Ġcer tific
Ġâ Ŀ
Ġv Ã£o
Ġar ma
ĠT Ã©cn
ĠDirec tor
Ġ(" .
éĩ Į
Ð¸Ðº Ð°Ð½
usz cz
Ġå¹ ħ
Ġtal k
ĠFore x
ord an
min y
ier es
ĠseÃ± al
Ġprze k
Ġinf ras
Ġdiv enta
ĠV ille
ÑĢ ÐµÐ·
iss ent
Ġp ull
Ġmas z
Ġd Ã¨s
ĠRe v
é¤ Ĭ
çĦ¡ ãģĦ
ui Ã§Ã£o
Ġãĥķ ãĤ©
Ġrich tig
ĠLie fer
ĠGiovan ni
ĠDe v
Ð¾Ð± ÑīÐµ
nik iem
an cy
Ġtra o
Ġm iá»ĩng
Ġk áº»
cha fts
Ġwp is
Ġjour nÃ©e
ĠS UP
ĠO t
Ġ9 11
ãģ«ãģ¨ ãģ£ãģ¦
ra um
fic as
ĠtÃ©cn ico
Ġpl u
ÑĬ ÐµÐ¼
Ð°Ð½Ð´ Ð°ÑĢÑĤ
ke a
Ġres ponse
ĠprÃ© cis
Ġnu it
ĠTh Æ°Æ¡ng
Ñı Ð¼Ð¸
ĠåĪ ©
ĠS onn
ãĤ·ãĥ£ ãĥĦ
Ġpens e
Ġna z
Ġhum anos
ĠPr Ã©s
ĠFrances co
ĠAR T
ta ti
G S
Ġçī¹ ãģ«
ĠÐºÐ½Ð¸ Ð³
ĠÐ·Ð°Ð± Ð¾Ð»ÐµÐ²
Ġi le
Ġexpl ic
Ġcele br
Ġb out
Ð¸Ð½ ÐºÐ¸
uc ci
tr Ã¤
m itt
ĠÐŀ Ð½Ð¸
ĠF rench
ĠAd olesc
tis mo
ir ro
Ġcor te
Ġapro xim
æľĢ é«ĺ
ÑģÑĤ Ð°Ð½
¹ æŀľ
Ġï¼ ķ
Ġszyb ko
Ġlug ares
Ġau ÃŁer
åħ ¸
ĠÐ´ÐµÐº Ð°Ð±
éĿ ©
ãĥ¬ ãĥĥãĤ¯ãĤ¹
ta Äĩ
Ġil lustra
ĠTe xt
ĠM undial
Ð¡ Ð¡
ĠçĽ ´
ĠÐ½ Ð¾Ð³
Ġnecess ary
Ġhum ano
Ġda ily
ĠR at
ĠC are
Ġs ell
Ġav en
æ ¿Ģ
Ã¼ ll
Ġpozw ala
Ġpel ÃŃcula
Ġdemon stra
ĠUn der
ĠH ola
ĠC Æ¡
ĠÐºÑĢÐ°Ñģ Ð¸Ð²
Ġform ula
ĠSe xy
Ġ12 00
ãģ¯ ãģĬ
áº¹ n
ÑĢÐ° ÑĪ
ãģĺ ãĤģ
E P
Ġh ous
Ġacqu is
ĠV ÃŃ
ĠS at
ĠInforma tion
ie ur
col es
ĠÐŀ Ñĩ
Ġsta t
Ġ!!! !
Ġexp and
Ġ10 9
Ġth umb
Ġfa ir
ĠS um
åĭķ çĶ»
ãģ®å ¿
owa ÅĤa
Ġvilla ge
Ġinter ac
Ġab aixo
æ¬² ãģĹãģĦ
ina is
b in
Ġpres enza
Ġor ient
Ġcu anto
Ġconf i
ĠW H
åıİ ç´į
ä¸Ģ ç·Ĵ
Ġz im
Ġut enti
Ġarch ite
ĠCol ombia
ãĤĤ ãģĤãĤĬãģ¾ãģĻ
ĠR iver
Äħc ych
ud io
on ge
" ,
ĠÑģÐ²Ð¾ ÐµÐ³Ð¾
Ġdecy z
ĠId enti
Ġ11 1
lo ok
Ġparti es
ĠZap atos
ĠS Ã©
ãĤī ãģĹ
ãĤ³ ãĥ¡ãĥ³ãĥĪ
ĠÑĢ ÐµÑģ
Ġdere chos
Ġbas ta
ÐµÐ½ Ð´Ð°
ibliote ca
Ġliv es
Ġgratu ita
Ġequip ment
ĠB ianco
æ±Ĥ äºº
áº ¬
w an
ĠÐ½Ð°ÑĢ Ð¾Ð´
Ġpol ice
Ġconsid era
ĠCont ra
Ã¼ l
vis o
sp iel
ouv rir
ec yd
cz ka
Ġw raz
Ġmayor ÃŃa
ĠT A
ĠMuse um
ĠC atal
ĠArtic le
ĠAn aly
çģ «
ãĤ¿ ãĥ³
ÌĢ nh
c ano
ĠÐ² ÑĢÐ°Ñĩ
Ġw czeÅĽniej
Ġsu cc
ĠGo verno
ä¼ Ĭ
ãĤī ãģĭ
» çĶ¨
F or
Ġhá»ĵ ng
ĠP ens
åĮ ħ
ãģ®å £
iss ant
Ġãģķ ãĤīãģ«
ĠÐ½ Ð¾Ñĩ
Ġdr ess
Ġacces o
ĠP K
å¾Į ãģ«
ķ æĻĤè¨Ī
Ġim par
ĠN Âº
ĠC AL
æĻĤ ä»£
ãĥ¼ ãģĮ
olog ical
ion ych
ĠÑħ Ð¾Ð·Ñı
ĠÐ¿ÑĢÐµÐ¿ Ð°ÑĢ
Ġmi asta
Ġmainten ant
Ġcon forme
Ġéĺ ²
Ġprincip io
çª ģ
æ°Ĺ æĮģãģ¡
ic ol
ĠÐ¿Ð¾Ð´ Ð°ÑĢ
ĠK B
ĠGesch ichte
ĠCas ual
Ġ/ ?
à³ Ĩ
ul ier
Ġå ĵģ
ĠÑıÐ½ Ð²Ð°ÑĢ
Ġpla te
Ġcomp or
ĠB rown
ãĥŀ ãĥ³
amb io
ĠÑģÑĤ Ð°Ð»
Ġzosta ÅĤa
Ġsi ano
Ġprovid ing
lich t
j ed
Ġcon os
Ð¸ÑĨ Ð¸Ð½
di os
Ġfriend ly
Ġa ra
Ġspr zÄĻ
ĠSp an
ĠK ong
are k
Ġl ingu
Ġaut onom
ĠH Ã¬nh
ĠChamp ions
Ġtor na
Ġinc red
Ġdi ritto
Ġach eter
ĠM uch
ĠB in
Ã¶r der
tr zym
O O
C ON
ĠÐ´Ð¾Ð¿ Ð¾Ð»Ð½Ð¸ÑĤÐµÐ»ÑĮ
Ġgr Ã¶ÃŁ
Ġex cep
ĠEst Ã¡
ĠES P
ĠCol lege
ÑĥÐ»Ñı ÑĤÐ¾ÑĢ
enn es
Ġè¿ ĳ
å¸ ³
] ,
Ġrap ide
ĠS uc
ĠReg ion
ĠO ld
è£½ åĵģ
Ã³n ica
pres entar
icht ung
ese hen
b ase
ĠM om
iz ados
Ġt d
ĠCop a
ran te
en os
Ġs áº¯p
Ġeffec tu
ĠV iv
ĠProdu kte
Ð¸Ð½ Ð°Ð¼
um entos
ta mos
Ġtrack ing
Ġmanufac tur
Ġd esse
ĠC Ã²n
h au
Ġdar k
ĠE th
Ã¨ tres
ifica Ã§Ã£o
en ni
ag u
ĠÑĢ Ð¾Ð·
ĠÐŁÐµÑĤ ÐµÑĢÐ±ÑĥÑĢÐ³
Ġy Ãªn
Ġsuccess o
Ġso Ã¡t
ĠIn icio
ĠF est
Ġderni Ã¨re
k tow
ia ÅĤy
bere ich
ĠD ann
ĠCor re
ãģĭ ãĤĤ
45 6
ĠÑģ Ñħ
ĠÐ¼ Ð°Ñı
Ġra ff
ĠdÃ© m
ĠN áºµng
ĠAl to
éĢģ æĸĻçĦ¡æĸĻ
è¨ ±
ãĥ¼ãĥĩ ãĤ£
ina ire
ĠÐ²Ð½Ð¸Ð¼ Ð°Ð½Ð¸Ðµ
ĠÃ©ta ient
ĠAl f
ãĥ³ãĤ «
ãĤŃ ãĥ¥
f rei
ĠÑģÐ°Ð¹ÑĤ Ð°
ĠÐ· Ð°ÑģÑĤ
Ġnot hing
Ġpic ture
Ġamb os
æ¨ Ļ
Ġäº ¬
ĠmÃ³w i
Ġ00 1
èģ ´
ÑĢ Ð¸ÑģÑĤ
zy d
pu estas
oc zes
Ġãĥ Ħ
Ġmain tain
es ia
ĠmoÅ¼liwo ÅĽÄĩ
äº¤ æıĽ
ãĥ´ ãĤ£
Ã¤ che
b ul
ard ino
Ġun it
Ġpro pre
Ð¾Ð½ ÑĥÑģ
ti dos
kun ft
Ġpoder Ã¡
Ġdon ner
ĠDez ember
Ġperc orso
ĠVol ks
h ou
Ġmem oria
Ġm ut
Ġkh Ã´
ĠNot ÃŃcias
Ġ6 50
ãĤĪ ãģĦ
r d
er k
Ġanalys is
ĠPubbl icato
ĠH Ã¡
ĠCr oss
éł Ĩ
Ð¼ Ð°ÑĤ
_ L
Ġï¼Ł ãĢį
Ġw tedy
Ġh our
ĠSch uhe
ĠE ven
Æ°á»Ŀ n
ti li
Ġw oll
Ġprincip ale
Ġnut ri
Ġm unicipal
ĠB ec
Ð¾ÑĢ ÑĮ
w ig
ess or
Ġvu ole
Ġgener ale
Ġbu ona
ĠB ach
Ð¸Ð´ Ñĥ
sz taÅĤ
ĠpiÃ¨ ces
ĠE ra
ãģ ¬
ĠÐ¾ÑĤÐ´ ÐµÐ»ÑĮ
Ġtra duc
Ġdispon ibili
ĠR EC
ĠJan uar
ĠCh ica
è§ Ĵ
Ä© a
un ek
rol og
Z S
AN G
Ġqu iere
ĠS N
ãĤ« ãĥ«
ãģ®å ·
åĽ Ľ
ãĤĴ åıĹãģĳ
g Ã©
ĠÐ¾Ðº Ð¾Ð»Ð¾
Ġofre ce
Ġmiejs cu
Ð½Ð¸Ð² ÐµÑĢÑģ
s cy
ĠÑģÑĤÐ¾ÑĢ Ð¾Ð½Ñĭ
Ġatten zione
Ġapo io
ĠO x
éĩį è¦ģ
ãģĦ ãģ¯
Ã¨ ve
ica Ã§Ã£o
Ġsh all
Ð°Ð½ Ðº
ĠÑģ ÑĥÐ±
ĠÄĳ ÃŃch
Ġazi ende
ĠL td
ĠIs so
Ġ __
ÐĽ Ð¬
Ġs Ã»
Ġpass ar
Ġp Ã©
Ġdise Ã±o
ĠGu ard
ĠF our
ãģ¤ ãģ®
r ÃŃa
en co
Ġk Ã¨m
Ġcontrol lo
ãģĦ ãģ«
f ass
Ġsera it
Ġs agen
Ġfor se
Ġfor ex
Ġcal end
ÑĪ Ð¸Ð±
ven es
le i
ĠFo od
ĠAc ad
Ġ5 000
ug ht
Ġra m
Ġinc om
Ġdist ance
Ġdesc ob
âĢ ĺ
Ð¾Ð½ Ñĩ
OR A
ĠÐ· Ð½Ð°
Ġqu inta
Ġchw il
Ġ17 5
v iv
d own
cia to
ĠÄĲ Æ°á»£c
Ġr ue
Ġnghi Ãªm
ĠH Ãłng
ĠB ul
çķ ¥
ç¤¾ ä¼ļ
â łĢ
Ð² Ð¸Ð½
Ġ2015 å¹´
acyj ne
A c
ĠÐº ÑĢÑĥÐ³
Ġpos e
ĠRep Ãºblica
ĠR ece
ĠK u
ĠD re
ite ly
Ġme iner
ux e
cion a
E UR
2 20
ĠãĥĿ ãĤ¤ãĥ³ãĥĪ
Ġsu cesso
Ġman uten
ĠTrib unal
or da
Ġvo z
Ġre kl
éĸĭ åĤ¬
ĠÐĳ Ð¾Ð»ÑĮÑĪ
Ġcontra to
ĠGes und
æ³ Ĭ
Ġh ub
Ġbe kommen
Ġanno un
ĠA lem
Ġl inha
Ġbel la
Ġra ison
Ġimpro ve
ĠF ashion
ĠC ass
ï ¿
è¬ Ŀ
ãĤĴèªŃ ãĤĢ
n ac
Ġzd jÄĻ
ĠPerson en
ĠA er
m enta
enz ia
ĠãĢ ĭ
Ġj orn
Ġfl ash
Ġany one
ĠComp uter
ÐºÐ¸ Ð´
Ġå¸ Ĥ
Ġrac col
ĠM any
k od
is l
Ġå »
Ġunser em
Ġter Ã¡
Ġestud io
Ġcontro le
ãģĭãĤī ãģ®
ub li
ent ÃŃ
Ġkh á»ĳi
Ġaf irma
ĠWh y
åħĪ çĶŁ
os ter
ĸ ç¸Ħ
ĠåĲ Ħ
ãĥĳ ãĥ¼ãĥĪ
ĠÐĶ Ð¾Ð±Ð°Ð²
Ġsp ar
Ġmod ello
Ġdesc ub
ĠVá» ģ
ĠEc co
Ð¿ Ð¸Ð¾Ð½
tem ps
h ung
W A
Ġass ol
Ġer re
Ġd ream
ĠC ad
æ´» åĭķ
ãģ®ä¸Ń ãģ§
gl ia
Ġsu á»ĳt
Ġprob abil
ãĤĵãģ§ ãģĦãĤĭ
hl t
Ġdi alog
Ġad quir
ĠL Ãł
ĠAngeb ote
ãģª ãģ®ãģĭ
Ðº Ð¾Ð³Ð¾
Ġre lease
Ġab rir
ĠTo yota
ĠPh áº¡m
ĠÐ¾ÑĤ Ð¼ÐµÑĤ
i ano
h d
ĠÑģ Ð¸Ð½
Ġva ÌĢ
Ġpl ug
Ġesp ace
ĠB ÃŃ
ĠA frica
èĢħ ãģĮ
ert os
able d
ĠsÃ© jour
Ġdifer encia
Ġcr ise
Ġc Ã¡nh
Å¼ enie
we it
w elt
par ation
gr Ã©
Ġrapp orto
Ġcoment Ã¡rios
Ġactiv idad
ĠM Ã¡
ĠEins atz
Ġ ÅĤad
è¨ º
cza j
Ġ? !
ch ter
N I
Ġrem ember
Ġpeti ts
ĠF M
ĠC ri
Ġ11 3
se x
c ular
O f
ĠÃ ¿
Ġzar Ã³wno
Ġt Ãªte
Ġprac tic
Ġconn ect
ĠBl ick
ÑĥÐ½ ÐºÑĤ
Ġex terior
Ġal tura
ãģ®ãģ§ ãģĹãĤĩãģĨ
Ġup date
Ġd essa
Ġcar act
ĠCom me
ãĥª ãĥ³ãĤ¯
ir urg
ĠÐĺ Ð¼
ĠÐºÐ¾ÑĤÐ¾ÑĢ Ð¾Ð³Ð¾
Ġh izo
ĠL EG
ĠChrist mas
ĠC ustom
pp el
ba jo
I EL
Ġk iá»ĩm
Ġdem ocra
Ġ22 5
Ġvari as
Ġtro chÄĻ
Ġpre c
Ġh inter
Ġconst ante
Ġbar celona
ĠPub liÃ©
Ġ, âĢ¦
æĦı åĳ³
Ì£ n
t ent
Ġseem s
Ġal te
ĠAng el
åĪ Ĺ
Ð¾ÑĤ Ð¸Ð²
Ġåı İ
ĠÐ¿Ð¾Ð·Ð²Ð¾Ð»Ñı ÐµÑĤ
Ġcas as
åº Ń
ãģ£ ãģıãĤĬ
K K
ĠÑĤ Ð²Ð¾ÑĢ
ĠÐĴÐ»Ð°Ð´ Ð¸Ð¼
ĠL ake
ĠHa ut
ĠC 3
ãĥª ãĥĥãĤ¯
ÑģÐº ÑĥÑİ
st Ã¤nd
Ġh áº¡t
Ġdecl ar
Ġcu ore
Ġaqu ell
ĠL ud
is cono
Ġgi f
Ġdisco ver
Ġc ursos
b ung
Ġmus ical
Ġer g
Ġabil ity
ĠSty le
ĠFr ied
ĠD iam
es p
U A
Ġur ban
Ġa tualiz
Ð¼Ð¾ÑĤ ÑĢÐ¾Ð²
f ier
Ġponie waÅ¼
Ġm ig
Ġb ianco
ĠB our
n ent
Ġsp ed
Ġfisc al
Ġac tions
ĠF ind
Ġswo im
Ġingr esso
ĠL Ã¶
ãĤĤãģ® ãģ§ãģĻ
o id
ĠÑĩÐ°Ñģ Ð¾Ð²
ĠÐĲÐ½ Ð´
ĠÐ¼ Ð°ÑģÑĤ
ĠÐ§ ÐµÑĢ
Ġsoc iedad
Ġg olf
ĠWo od
hn ung
adem ia
Ġt áº¯c
Ġsta tis
Ġm iem
Ġing redi
åį ³
ãĥĥ ãĤº
Ġv Ã©r
Ġunter schied
Ġsierp nia
Ġrespons able
ĠCl ar
ĠV inc
ĠCon d
è©ķ ä¾¡
æĸ½ è¨Ń
re l
ĠÐ¿Ð¾Ð´ ÑħÐ¾Ð´
ĠÂ· Â¢
Ġw ish
Ġde vo
ĠVin tage
å¿ «
ãģªãĤī ãģªãģĦ
es ch
Ġsa fe
Ġne ut
Ġu003 e
Ġquar ta
Ġpa ar
Ġnaj wiÄĻks
Ġl amp
Ġb áº§u
it ato
Ġph áºŃn
Ġob bl
Ġg ain
Ġal unos
Ġ12 7
i entes
Ġragaz zi
Ġencu ent
Ġappar tamento
.: .:
Ġæ¨ ª
ĠÑģÐ¾Ð² ÐµÑĤ
ĠÐ²ÑĭÐ¿ ÑĥÑģÐº
Ġquick ly
Ġh áº¡nh
ĠSm ith
Ð¼ Ð°ÑĤÑĢ
Ġg Ã³i
ĠTh er
ĠBan co
ĠÐºÐ» ÑĥÐ±
ĠÐ² ÐµÑģÑĮ
ĠLe e
ĠH onda
æĿ± äº¬
å¤ ®
que z
ord en
g ru
ĠprÃ©s ident
Ġl ing
Ġhigh est
ĠK la
ãģ¯ ãĤĬ
ÑĢÑĥ ÑĤ
ÐµÑħ Ð°Ð½
ck er
Ġl ire
Ġinf in
Ġak tyw
ie ta
Ġæµ· å¤ĸ
ĠÐ¢Ð°Ðº Ð¶Ðµ
Ġwork ed
Ġinforma Ã§Ã£o
Ġexp ecta
Ġd raw
ãĥª ãĤ¹ãĥĪ
gra de
Ġãģ µ
Ġsoc iedade
Ġcost s
ĠK as
ĠJ im
ãģĬ ãģĻãģĻãĤģ
ÄĻ b
P o
ķı é¡Į
ĠÐļ Ð°ÑĤ
Ġdev ant
ĠCOM P
ĠÐ½Ð¸Ðº Ð°Ðº
Ġmiesz kaÅĦ
Ġmag ni
Ġdis trib
Ġactiv itÃ©s
è¨ İ
ãģ«ãģĬ ãģĳãĤĭ
eg gio
ĠÑĤÐµÐ¿ ÐµÑĢÑĮ
Ġhotel es
Ġcomp Ã©
z ung
Ġæľ Ŀ
Ġrich iesta
Ġla te
Ġc á»Ń
éĿ Ĵ
Ġje ux
Ġdo ty
ĠL ig
ti ere
2 V
ĠÐ¿Ð¾Ð´ Ð¾Ð±
Ġm á»ĳi
ĠInte gra
ĠAud i
ç Ŀ
ãĤı ãģªãģĦ
ãĤ·ãĥ§ ãĥĥãĥĹ
Ã« l
h il
Ġsie ci
ĠP unk
Ġ$(' #
çĲĨ è§£
å¯¾ çŃĸ
Ð°Ðº Ð°
ĠÐļ Ð¾Ð³Ð´Ð°
Ġinter c
Ġad res
ĠU kra
ç¥ ¨
Ġplay ers
ĠJu egos
ĠEs sa
rit t
ill ing
ĠÐ¸ÑģÑĤ Ð¾ÑĢ
Ġwie ku
Ġnas zych
Ġgrou ps
tr er
f ig
Ġæ¥Ń åĭĻ
Ġthá» ¥
ĠrÃ³Å¼ nych
Ġd Æ°Æ¡ng
Ġav uto
ĠAl ta
Ð°Ð¼ ÐµÐ½
Ġprof il
Ġman iÃ¨re
Ġle er
Ġha ciendo
Ġen orme
ĠDI Y
ãĤ ħ
z an
Ġdeix ar
Ġban co
ĠL ip
ãĥģãĤ§ ãĥĥãĤ¯
ÃĵÃİ Ãı
ĠÐ¿ÑĢÐ¾Ð´ Ð°Ð¶
Ġpo ÅĤ
ze z
ĠÐ½Ð¸Ñĩ ÐµÐ³Ð¾
Ġtit olo
Ġavalia Ã§Ã£o
ind ung
htt p
Ġsch warz
Ġro w
Ġmin ute
Ġdim ens
ĠWa hl
ĠW ol
en cji
OT O
ĠÐ½ÐµÐ± Ð¾Ð»ÑĮÑĪ
ĠÐ³ ÑĢÐ°Ð½
Ġgest Ã£o
Ġdzi ÅĽ
Ġcorre ct
ĠN S
ãĤ¤ ãĥĹ
ter os
ĠÐ²Ð½ ÐµÑĪ
ĠÐ²ÐµÐ´ ÑĮ
Ġsens e
ĠmoÅ¼ emy
ÐµÐ» Ðµ
® ®
ie ws
c ito
F i
ĠÑģÐµÑĢ Ð²
Ġd Ã³l
ĠApp l
è¨ ª
k ry
ĠÐ¿ÑĢÐ¾Ð³ÑĢÐ°Ð¼ Ð¼
åĽ °
fÃ¼hr ung
c jÄħ
ĠÑĢÐµÐº Ð»Ð°Ð¼
ĠÐ¼ Ð°ÐºÑģÐ¸Ð¼
ĠÐ¸Ð³ ÑĢÐ°
Ġsu gg
Ġsta mpa
Ġg t
Ġall erd
ĠM C
ĠC itas
æĬ ķç¨¿
Ġdocum ents
ãģĹãģ¦ ãģıãģłãģķãģĦ
ĠÐ± ÑĥÐº
Ġéĸ ĭ
ĠÐ¸ÑģÐº Ð»ÑİÑĩ
ĠÐ²Ð¾Ð´ Ñĭ
Ġni ke
Ġje unes
ĠprÃ³ xima
Ġprzep rowad
Ġnot te
Ġfe vereiro
Ð¾Ð´Ð°ÑĢ Ñı
Ð½ Ð¸ÑĤ
uch s
l iet
I AS
Ġm Ã¡t
Ġallerd ings
ĠK m
era i
ĠÑĤ ÑĥÑĤ
Ġam Ã©li
ãģ¾ ãģ£ãģŁ
r ico
p in
b f
ĠÐ²Ð¾Ð» Ð¾Ñģ
Ġrec ently
Ġe ar
Ġd á»¯
Ġconf ort
ĠMin uten
Ã¤ uf
lec am
b ora
ĠÄĲ áº·c
Ġvá» ¯
Ġpol y
ĠJ orge
Ġ= \"
Ġ( ...
fÃ¼hr t
Ġlu tego
Ġent fer
æĤ ©
ãģ¤ ãģĭ
Ġzrobi Äĩ
Ġstor age
Ġp ant
ĠGr Ã¼n
j cie
icz nego
Ġt á»§
ĠSing ap
ĠP antal
è« ĭ
ost ÄĻp
11 1
Ġen gl
ãģŁãģı ãģķãĤĵ
ĠÐĴ Ð¾ÑĤ
Ġzakres ie
Ġoko ÅĤo
Ġoffer ta
ĠH R
ĠG O
ãģŀ ãĤĮ
omm od
V er
ĠÐ¿ÑĢÐ¸ ÑĪ
ĠÐ°Ð½ Ð³
Ġmar cas
Ġimp i
ĠV enta
ĠCÃ³ digo
Ð»ÐµÐ½ Ð¸ÐµÐ¼
tiv idade
iv ent
ĠÑĢÐ°Ð¹ Ð¾Ð½
Ġhigh ly
Ġcondic iones
ĠIng l
Ġ= '
éģİ ãģİ
N ew
Ġãĥķ ãĤ§
Ġuwag ÄĻ
Ġlim ite
et es
av ing
Ġman ip
ĠU no
ĠLu áºŃt
ĠCol lection
ãĥŀ ãĥĥãĥĪ
ãĥĽ ãĥ¼ãĥł
Ðµ Ñı
ĠçĶ· æĢ§
ĠÐŃ ÑĤ
ĠÐĲÐ² ÑĤÐ¾ÑĢ
Ġpo chi
Ġog ran
Ġãģ¡ ãĤĩãģ£ãģ¨
ĠÑģÑĤ Ð°ÑĤ
ĠÑģÐ²Ð¾ Ð¸Ð¼Ð¸
Ġter ce
Ġlevel s
Ġaj udar
ti te
Ġre form
Ġent ro
Ġd á»ĭ
Ġcas h
ãģ¨ãģª ãĤĬãģ¾ãģĻ
to waÄĩ
ĠÑģÑĢ Ð¾Ðº
Ġw skaz
Ġto ile
ĠGi áº£i
enti l
Z IONE
ĠÐºÐ¾Ð¼Ð¿ Ð°Ð½Ð¸Ñı
Ġalg Ãºn
ĠM AT
ĠDie go
bet es
Ġter reno
Ġmov ie
Ġg emeins
Ġfor nec
ĠD ist
ãĥ¯ ãĥ¼ãĤ¯
ir Ã¡
ĠÐ¡Ð¾ Ð¾Ð±Ñī
ĠprÃ³pr io
Ġd ando
Ġb ons
ĠL ub
è¦ĭ ãģ¦
ãĥ¼ ãĤĴ
Ð°ÑİÑī Ð¸Ð¹
de k
Ġfor mer
Ġeig entlich
Ġa juda
ĠPh áº§n
ĠH O
ĠBer uf
ãĥ³ãĥĨ ãĤ£
at ten
Ġwy ra
ĠS po
çļĦ ãģ«ãģ¯
em ment
Ġul timi
Ġde tail
Ġch á»£
ĠSp ec
ci one
ĠÐŁÐ¾ ÑįÑĤÐ¾Ð¼Ñĥ
ĠÃĸ ÃĲ
Ġpierws zy
Ġog ÅĤos
Ġn owe
Ġgradi ent
Ġe diÃ§Ã£o
Ġcam ino
Ġb ow
Ġauto ur
ãģª ãĤĬ
Ġcas es
Ġb á»ģn
ĠF an
ĠC ot
val u
ien a
Ġodpowie dz
Ġin izi
Ġfunk cjon
Ġ5 50
Æ°á» ¡ng
olÃ³g ico
im oni
Ġt av
ĠW roc
æ³¨ æĦı
åħ ļ
I ES
ĠÑĥÑĩ ÐµÐ±
ĠÐ¿ÑĢÐ¾Ð´ ÑĥÐº
Ġsem anas
ĠdiffÃ©r ents
Å Ĵ
Ãº l
EM A
ĠÐ» Ð¸ÑģÑĤ
Ġrequ est
Ġdi vent
ĠN ella
ĠL or
ycz nej
p ts
il os
gl iere
ĠÐ¿Ð¾Ð» Ð½Ð¾ÑģÑĤÑĮÑİ
Ġimmag ini
ĠN ur
ĠAl b
Ð¸Ð± Ð¾Ð»ÐµÐµ
av or
Ġprofess or
ĠJ usti
ĠAngeb ot
es is
ĠÐ§ ÑĤÐ¾Ð±Ñĭ
as ons
H S
ĠÑĤ Ð¾ÑĤ
ĠÃ© lec
Ġche ap
ĠCam pe
ãģ®æ Ī
tiqu etas
c ca
K T
ĠÐ²Ðº ÑĥÑģ
ĠT ous
ĠM ate
ze pt
un ki
Ġmy ÅĽl
Ġb ru
Ġb iÃªn
Ġactiv itÃ©
ĠÑĥ Ð¶
Ġh ang
Ġaver age
Ġal imentos
ĠM ED
ĠGo vern
Ġ( @
Ð¸ÑĢ Ð°
le icht
iÄĻ cy
e a
B B
ĠÐ½Ð°Ð· Ð½Ð°Ñĩ
ĠTh á»±c
èĢħ ãģ®
å¹ ¸
Ð¸Ñģ Ð°
Ãī Ãı
ff icio
Ġèµ ¤
Ġdecl ara
ĠT ap
ĠL ist
äº ī
ck o
Ġl if
Ġbenef its
çĽ ¤
å¯ Ĩ
ÑĦ Ð¸Ðº
ÑģÑĤÐ² Ñĥ
V ER
ĠÐ¿Ð» Ð°ÑģÑĤ
Ġes os
ãģ»ãģĨ ãģĮ
Ġtur ismo
Ġcri ar
we ar
es tion
Ġåģ ½çī©
ĠÃĤ u
Ġsp ez
Ġsitu azione
Ġord ine
Ġb Ãły
ĠPa olo
Ġgro und
Ġqu Ãł
ĠgÅĤ os
Ġelectr ic
Ġbal ance
ĠT I
ĠA th
Ġ11 7
ãĤ¸ ãĥįãĤ¹
v ement
ix e
ĠÑĤ Ð°Ð±
ĠN ha
ty m
k al
ab o
ĠãĤ³ ãĥ¡ãĥ³ãĥĪ
ĠÐ¼ÐµÐ½ ÐµÐµ
Ġci entÃŃ
Ġbene fic
ĠIhr er
æ¤ľ ç´¢
åł Ĥ
Ġm orning
Ġjog os
Ġgi Ã³
Ġgen e
ĠS und
ĠL ow
Ġzak oÅĦ
ĠPro c
ĠM eg
fÃ¼ ll
car a
ĠÐ±Ñİ Ð´Ð¶
Ġver w
Ġk re
ĠO lymp
ĠÐº ÑĥÑħ
Ġf ib
Ġcan al
ĠR ol
ĠI b
è¬ Ľ
ue z
Ġres ources
Ġprevis to
Ġpl anning
ĠV ac
ĠPh otos
èª ²
ãģĬ é¡ĺãģĦ
Æ ł
ĠprÃ³pr ia
ĠMar s
+ []
ĠÐĺ ÑģÑĤ
ĠÐ´Ð¾Ð» Ð³
Ġpros tu
Ġlap top
Ġl ad
Ġch ambres
ĠRes pons
ĠCor te
è ½
ãģ¯ ãģĵãģ¡ãĤī
na hmen
ĠÐĿ Ð°ÑĪ
Ġza jm
Ġvid Ã©o
Ġpu oi
ĠTer r
ãģ®æ ´
he iro
ar me
Ġw ob
Ġent wick
çĻº è¡¨
Ľ ¸
ĠÐ¶Ð¸Ð² Ð¾ÑĤ
Ġn ac
ï¼ Ń
çĽ Ľ
æĮ ¯
ãĥª ãĥ³
ues to
Ġãĥĸ ãĥ«
Ġv Ã¡rias
Ġcoun tries
ĠTr Ãªn
ĠT á»ķ
ãģ®æ Ĭ
Ð» ÐµÐ¶
c imento
K E
Ġinterest ing
ĠT á»Ń
ĠLe ia
å¡Ĺ è£ħ
us i
nÄĻ trz
met ro
if ied
Ġng Å©
Ġfind et
Ġcondi Ã§Ãµes
ª ¨
ili ar
Ġentre vista
Ġd il
ĠMod ern
ĠH an
or der
ist are
cion ado
U U
Ġnast ÄĻpu
Ġdecis ion
Ġde tec
y ki
M e
Ġpu esto
Ġpow sta
rich ten
ĠåĪ Ĩ
Ġfond ament
Ġess es
ĠSu pp
ĠM obil
ãģĤãĤĬãģĮ ãģ¨ãģĨ
Âº Ãį
olÃ³g ica
c iem
EN A
A ll
Ġæĸ Ļ
Ġsal v
Ġhac en
ç¹ Ķ
zen iem
ĠÑĢ Ð°Ð¼
ĠÐ¸Ð½ÑĦÐ¾ÑĢÐ¼ Ð°ÑĨÐ¸Ð¸
Ġad ultos
ĠSanti ago
ĠB este
Ġ: \
çĭ ¬
owo ÅĽci
ĠÑħ Ð¾Ð´
Ġs Ãłn
ĠrÃ© fÃ©r
ĠC U
Ġvia je
p Ã¤
ĠÑĩÐ¸Ñģ Ð»Ðµ
ĠÐ·Ð°Ð¿ Ð¸Ñģ
ç«ĭ ãģ¡
ĠÐ¿ÑĢÐ¸ Ð³
Ġpreced ente
Ġkto ÅĽ
Ġfem in
Ġd áº§n
ĠSt Ã¼ck
20 15
ĠãĤ¯ ãĥ©
Ġt uyÃªn
Ġsaf ety
Ġpot ra
Ġconhec imento
ĠZ obacz
ĠS Ãłi
Ã³s ito
wie k
st re
ig dy
Ġwen iger
Ġje une
Ġim agem
Ġam en
Â² Â»
Ġmoder ne
Ġlar g
ĠV áºŃy
ĠE g
ĠC ost
æ´ ¥
ok u
icher ung
Ġï¼ ľ
Ġon a
ĠT RA
Ġc ac
Ã¤ll t
ja hr
e v
ĠãĤ·ãĥ£ ãĥįãĥ«
Ġk an
åķ Ĩ
ãģĦãģŁ ãģĦ
ãģ®è© ±
iss on
inter es
ID A
Ġwonder ful
Ġscon to
Ġag rÃ©
ĠU se
Ġ15 5
ãĤ· ãĤ¢
Ð¾ÑĢ Ð¾ÑĤ
Ðº Ð°Ð¼
ok ia
ĠÑĥÑģÐ»Ð¾Ð² Ð¸ÑıÑħ
ĠÑĢ Ð¾ÑģÑĤ
Ġdichi ar
ĠSil ver
ĠG il
¹ ¿
ĠãĤĪ ãĤĬ
ĠÃº til
Ġfin almente
Ġdescar gar
Ġas ked
ĠS up
ĠB á»ĩnh
ÑĭÑĪ Ð»ÐµÐ½
Ð¾Ð» ÐµÑĤ
ĠÑĢÐ°Ñģ Ð¿ÑĢ
Ġwrit ten
Ġhá» ©
Ġed itor
ĠÐĲ Ðº
Ġex pla
ĠNet work
ĠB ir
Ġ16 5
éģ ł
meld ung
Ġcr isis
ĠN au
Ġ) /
åĲ Ľ
ãĥĳ ãĥ³
Ġhor iz
Ġdispos izione
ĠR oc
ãĥ³ãĥ ĵ
ĠÑĤÐµÐ¼ Ð¿ÐµÑĢ
Ġresp ecto
Ġfuncion a
r us
cz es
N z
Ġè Ĭ±
ĠÐŁ Ð¾Ñĩ
bo a
ĠmÃ©d ico
Ġkonk urs
Ġev id
Ġcl Ã¡s
Ġappl ic
ĠL ot
ĠFir ma
ä¸Ģ è¦§
Ã³ rias
Ã® t
k am
Ġten ÃŃa
Ġappro pr
ĠFebru ar
Ð¸ ÑĨÐ¸Ð¸
Ġselec ted
Ġmat t
æ ¤
ĠtÃ¹ y
Ġpr ices
ĠmoÅ¼ esz
ä½ Ļ
ãģ® ãģĵãģ¨
ÐµÑĢ Ð¸Ð½
an im
Ġnhi Ãªu
å° Ħ
ãĤ¹ ãĥ¼ãĥĳ
ĠÐ² ÐµÑĩ
Ġregu la
Ġng áº¯n
Ġh ast
ãĥ« ãĥ¡
tr ice
Ġsc op
Ġcons ecu
Ġacqu isto
Ð°Ð´ Ð°
ock et
nos i
end ant
Ġï¼ ½
ĠåĮĹ æµ·éģĵ
ĠH ong
ĠFin anz
ar g
ĠÑįÐ½ ÐµÑĢÐ³
ĠÐ½Ð¾Ð¼ ÐµÑĢ
Ġl er
Ġcompr end
Ġalg uma
ĠY es
ĠCh urch
Ġ36 5
our t
ag i
ĠÐŁ Ðŀ
Ġpour rait
Ġmes a
Ġdec ide
ĠOn ce
ĠFl ash
Ð½Ð¸ ÑĨÐ¸Ð¿
ÅĦ skiego
© æŁ»
us ement
Ġsug ges
Ġsh irt
Ġped ido
Ġdem as
çļ Ĩ
æĽ¿ ãģĪ
ãĤĴæĦ Łãģĺ
ãģķãĤĵ ãģ¯
Ã©rie ure
Ġãĥģ ãĤ§
Ġpra wa
Ġo ka
Ġde utsch
Ġall ora
âĦ ¢
ÐµÐ½Ð¸Ñı Ñħ
ad i
Ġpew no
Ġdes crib
ĠQu ad
é¦ ĸ
ãģĹãģ¦ ãĤĭ
¡Â ¡Â
Ġç· ¨
ĠÑĢÐµÐ³ Ð¸ÑģÑĤÑĢÐ°ÑĨÐ¸Ð¸
Ġg ilt
Ġcic lo
ãģĻ ãģĶ
ua wei
Ġé §
ĠÐ¼ Ð¾Ñī
Ġk al
Ġdest ino
Ġal ber
ĠF le
ä½ĵ é¨ĵ
ãģ®å ĳ
Å ł
Ã¡ genes
P ress
Ġstream ing
Ġhand le
ĠSing le
ĠM D
æķ £
ãĥ¢ ãĥ³
ãģı ãģ¨
c em
Ġãģ¾ ãģł
ĠÐ¾Ð³ ÑĢÐ°Ð½Ð¸Ñĩ
ĠÐ ¹
Ġtá» ĵ
Ġth a
Ġstr ength
Ġre co
Ġp ill
Ġma Ã±ana
ĠCom er
èĢĥ ãģĪãĤĭ
p ow
ou vre
ak s
Ġvir tual
Ġsie ht
Ġhat ten
Ġcel ular
ĠEn tra
èµ· ãģĵ
Ġpare jas
Ġenc anta
ĠSto ck
te e
ĠÐŀÐ± Ñī
ĠÄĳo Ã¡n
Ġtable t
Ġrev iews
ĠG ast
ĠArtic olo
tu de
ost ante
iss ione
Ġå® ļ
ĠÃľ bers
Ġpro pon
ĠL um
ĠAg osto
çĽ¸ åł´
Ġst wor
Ġfic ou
y ond
in are
ĠsÃ© lection
Ġl Æ°Æ¡ng
ĠWer k
er tura
Ġits elf
ĠMP 3
Ġ1 Âº
Ġä»£ å¼ķ
ĠÐľ Ð°ÑĤ
Ġt ela
Ġc uy
ĠD ark
ãģ«å¯¾ ãģĹãģ¦
g eg
cha ften
22 3
Ġcoc ina
ĠG ed
ĠãĥĹ ãĥ©
ĠNoti cias
ãĤ¿ ãĥ«
ãĤ¹ãĤ¿ ãĥĥãĥķ
Åº Äĩ
ĠÑģÑĢÐ°Ð² Ð½
ĠÑģ ÐµÐ½ÑĤ
Ġmar ch
Ġde mais
ĠDe pu
ill os
da ted
Ġle p
ĠMet al
ĠFir enze
ĠCl oud
Ġen viar
Ġd ynam
ĠA gu
éģ¸ æĬŀ
ãĥĹ ãĥ©
lieÃŁ lich
Ĭ ¶
ĠæĪ Ĳ
ĠÑģÑĢÐµÐ´ ÑģÑĤÐ²Ð°
Ġprof it
Ġmed ios
ÑĢ Ð¾Ð¹
Ð¸ÑĨ Ðµ
pre is
AN S
Ġæ ·
ĠÐ²Ð½ÑĥÑĤÑĢ ÐµÐ½
Ġed ad
Ġaut h
Ġ3 33
ci ÄĻ
ann es
J E
IN S
Ġpag o
Ġconstru Ã§Ã£o
ĠCons ul
ĠCas er
Ġ09 4
ÑĭÐ² Ð°ÐµÐ¼
Ðł Ñ
wa ÅĤa
f li
N j
D es
ĠÑģÑĤ Ð°Ð½Ð¾Ð²
ĠÐ°Ð½ ÑĤ
ĠIn tro
ãĤ¨ ãĥĥãĥĪ
y age
k au
Ġç Ń
Ġn erv
ĠR OM
Ì£ ng
Ã³ venes
ĠÐ»ÑİÐ± Ð¾Ð¹
Ġpued o
Ġprzed siÄĻbior
Ġartis ta
ĠQual itÃ¤t
ÑģÐº Ð¸
Ġr á»Ńa
å¼ ģ
ãģ© ãģĵ
Ġæ¥½ å¤©
ĠÐ¸Ð½ ÑĦ
Ġpow od
Ġllev ar
tu je
R oom
Ġcare er
ĠT Ã¬m
Ġ3 30
çĽ Ĭ
ÑĥÐ½ Ð´
Ġnum eros
Ġmod ule
Ġkle inen
Ġdes cu
Ġcomp ens
ĠTi po
ĠQu er
ĠMar ina
ĠD H
á»§ ng
20 20
Ġçµ Į
Ġsol ar
Ġpr w_
Ġeff ect
ĠV ente
ĠR ua
ĠCur so
Ã©r Ã©
z um
77 7
2 17
Ġtra ditional
Ġsex ta
Ġrifer imento
Ġestu do
Ġconv oc
ĠN Ã¤
ĠN icht
Ġ, -
Ġz ero
ĠM ik
ĠK ob
Ġ, '
Ð°Ð¼ Ð¿
Ġusu arios
æķ µ
Ðļ ÐĲ
ud em
bil idad
Ġtr á»ĵng
ĠGi an
ãĤ» ãĥ³ãĤ¿ãĥ¼
or ien
jÄħc ym
ber ry
Ġful ly
Ġdok ument
Ġcon for
Ġan unci
ĠV as
å· ±
iv ia
ĠÐºÐ¾ÑĢ Ð¿
Ġcer tif
ĠSt unden
ĠL ed
ĠB ologna
Ð»ÐµÐ½ Ð¸Ð¹
ie ux
ĠÑħÐ¾ÑĤ Ñı
ĠÄĳ áº¥y
Ġho Ãłng
ĠT un
ĠK ole
ĠC anc
tr ing
Ġla b
Ġand are
ĠK en
ä¿Ŀ è¨¼
Ġsag t
Ġfel ic
ĠQ uy
Ġ25 5
ãĤ« ãĥ©ãĥ¼
ãģ®æ İ
Æ°á»£ u
Ġtra g
Ġquien es
Ġper ten
Ġneces ario
Ġas es
ĠLa w
ĠB ob
ãģ§ãģĻ ãģĹ
ga Ã§Ã£o
am enta
ĠÐ¾Ð±ÑĢÐ°Ð· Ð¾Ð²Ð°Ð½Ð¸Ñı
ĠÐ°Ð½ Ð°Ð»Ð¸Ð·
Ġpo ol
ĠczÄĻ ÅĽÄĩ
Ġc atalog
ĠLa ur
ĠF arbe
è¼ ª
æ³ ī
Ð»Ñı ÐµÐ¼
ĠÐµ Ñĳ
Ġvá»¯ ng
Ġpr ywat
Ġkil ku
Ġibex_room_grid _
Ġg ost
ĠTra v
ĠK il
ĠDr uck
ig an
ent Ã³w
Ġke inen
Ġev enti
Ġac red
Ġabs or
ĠB enz
çŁ Ń
á»© t
at yw
AM A
Ġperson nel
Ġnap isa
Ġl ien
Ġin tu
Ġa Ã±
ĠP ac
Ġè §
Ġv ite
Ġir gend
ãĥ¼ ãĥ¼
Ġä¸Ń åĽ½
ĠÐļÑĢ Ð¾Ð¼Ðµ
Ġsol a
ĠB C
å¯ º
t le
1 30
Ġu kÅĤad
Ġsh i
ĠCor por
est yle
ĠÐ¿Ð¾Ð» ÐµÐ·
Ġpers Ã¶n
Ġmaior ia
Ġl ost
ĠRa hmen
ãĤı ãĤĮ
i LCJ
Ġãĥ ¤
ĠÐºÐ°ÑĤ ÐµÐ³
Ġmu ita
ĠH ans
ĠÐ¿Ð¾Ð´ ÑĤ
Ġa ider
çĻ» åł´
ĠÑĦÐ¸Ð»ÑĮ Ð¼
ĠÐºÐ¾ÑĤÐ¾ÑĢ Ð¾Ðµ
Ġth áº§y
çŃ ĭ
ãģ¾ ãģĦ
ãģ£ãģ± ãĤĬ
am ar
Ġinf antil
Ġe arn
Ġam m
æıĲ ä¾Ľ
ib o
Ġï¼ ĭ
Ġmemb res
ĠV ale
ä¾¿ åĪ©
Ð¾Ðº Ð¾
ĠÐ¸ÑģÐ¿ Ð¾Ð»Ð½
Ġfr on
Ġde ath
ãģ£ ãģ¡ãĤĥ
ÌĢ u
icz ba
Ġæĺ İ
ĠÐ² ÑħÐ¾Ð´
Ġutiliz zo
Ġst ret
Ġroom s
Ġp y
Ġle icht
Ġla bel
Ġgh áº¿
Ġd Ã¼r
ĠFit ness
åĲ ¹
or as
T ime
Ġt Ã¡i
Ġpa ese
Ġge hÃ¶r
Ġdz ien
ĠSp or
ĠS IM
ĠL it
ÐµÑģÑĤ ÑĮ
Ġn inh
Ġmar ia
Ġen tid
ĠBo ard
ãĥĥãĥĶ ãĥ³ãĤ°
ÑĮ ÑĤÐµ
or di
Ġé ¡
ĠÑĥÐ¿ÑĢÐ°Ð² Ð»ÐµÐ½Ð¸Ñı
ĠÐļ Ð¸ÐµÐ²
ĠÐ¾Ð´ Ð½Ð¾Ð³Ð¾
Ġrz ecz
ĠAl la
ãĤĪ ãģ³
ãģĭãĤī ãģ¯
od i
Ġme zzo
ĠSe villa
ĠAh ora
äºº ãģ«
ãģ®è ĩª
uc z
Ġk Ã©m
Ġimp re
ĠT an
ĠBard zo
æĬĢ è¡ĵ
issens chaft
ĠÑĤÐµÐ»ÐµÑĦ Ð¾Ð½
ĠÑĢÐµÐ±ÐµÐ½ ÐºÐ°
Ġt Ãºi
ĠpolÃŃ ticas
Ġlas er
Ġhel ps
Ġhay a
Ġf onte
ĠT Y
Ã¤hl t
st Ã¼ck
l ando
ĠãĤª ãĥ³
Ġtra itement
Ġmol te
Ġhist ori
ĠS G
è Ļ
ion ado
Ġzast os
Ġda w
ĠPro ject
ï½ °
ul y
u ais
n im
em bl
ĠÐ¼ Ð°ÑĢÑĤÐ°
ĠÐ²Ñĭ ÑģÑĤÑĥÐ¿
ĠÐ± Ð¾
Ġproduct _
ĠWe itere
ĠT á»
ĠS inh
ĠB H
ÐµÐ´ Ð¶
ar ti
Ġå¿ ĥ
ĠÐķÐ² ÑĢÐ¾Ð¿
Ġkon ie
Ġ19 88
ul er
let as
ĠÐĶ Ð¾Ð¼
ĠPer form
Ġ19 9
å¸ ĮæľĽ
j ac
ama Ã±o
Ġh orm
Ġg ast
Ġeffic ace
ĠdziaÅĤ ania
ãģ®ãģ§ ãģ¯ãģªãģĦ
ĠÐ¿ÑĢÐ°Ð² Ð¾
ĠÐ¡ ÑĢÐµÐ´
ĠÂ¹ Â«
Ġmaxim um
ĠkaÅ¼d ego
Ġh au
Ġand roid
æ³¨ æĸĩ
Ġtr u
Ġje we
ĠBuen os
Ġ' ;
n elle
Ġãĥ© ãĤ¤
ĠÑģÐ°Ð¼ ÑĭÑħ
ĠÐ¾ÑĤ ÐºÐ°Ð·
Ġman ager
Ġl ock
Ġkh uyáº¿n
Ġgl ass
ĠB elle
chl ossen
ĠÐ³ ÑĢÑĥÐ·
Ġpi x
Ġch ce
Ġc Ã©l
Ġc atch
ĠS ap
ĠE b
âĢ ĵ
Ð½ Ð¾Ð³
ra is
ch ina
S H
ĠÐ¾ÑĤ Ðº
Ġzd jÄĻcia
ĠsÃ³ ng
Ġconf ig
Ġalgu ien
ĠD ienst
åĿ ĩ
lass en
ĠÐłÐ¾ÑģÑģÐ¸Ð¹ ÑģÐºÐ¾Ð¹
Ġgiv ing
Ġg aler
Ġay ant
ĠVe ja
ĠSu che
ĠRa um
ĠL ag
æ¸ ¡
ãģĭãģª ãģĭ
h ang
Ġå¿ ħ
ĠF RE
èĢ ģ
Ãª me
ĠÑĤ Ð¾Ð³Ð´Ð°
ĠZ apa
ĠT Ã¬nh
ge ben
as ing
ĠÑĦ ÐµÐ²ÑĢ
ĠrÃ©sulta ts
Ġre place
Ġcar ne
ĠSne akers
u il
lich keit
ĠÐ¸Ð½ ÑĤ
Ġtecn olog
ãĥĥ ãĤ¸
F O
Ġç ķ
ĠÐ³Ð¾ÑĢÐ¾Ð´ Ðµ
ĠÐ² ÑģÑı
Ġrodz in
Ġkur z
Ġaband on
ĠJo h
Ã¥ÃħÃĨ ÃĵÃİÃı
wor ks
truc tura
ĠÑĤÐµÑĢÑĢÐ¸ÑĤ Ð¾ÑĢÐ¸Ð¸
Ġwy jÄħ
Ġcons iste
Ġpue blo
Ġp uls
Ġnie w
ĠciÄĻ Å¼
ĠEs se
ãĤĴ åıĹ
sk Äħ
ĠÄĳá» «ng
Ġx áº¥u
Ġrece be
Ġer folg
Ġaut ant
ĠBus ca
ĠAn y
Ð°ÑĢ Ð´
idad os
ĠÐ½ÐµÐ¿ ÑĢ
Ġswoje j
Ġm Æ°a
ĠPla za
ut ers
m als
al itÃ©
1 80
ĠÑĤ ÐµÑĩÐµÐ½Ð¸Ðµ
Ġch á»¥p
Ġbus cando
çµĤ ãĤı
s d
s atz
ĠÄĲ Ã³
Ġcre are
ro v
Ġh uyáº¿t
èµ ¤
Ġcier to
Ġ28 0
Ġ) -
æ´ ĭ
aliz aciÃ³n
ĠÐ¿ÑĢ Ð¸Ð·
ĠÐ´Ð°Ð½ Ð½ÑĭÑħ
Ġo e
ĠmÃ¡ quina
ĠL ire
ãģ®è £
ãģ£ãģ¦ ãģĹãģ¾
ot ing
11 æľĪ
ĠãĤµ ãĥŀ
ĠÑģÑĤ ÑĢÐ°Ñħ
Ġde ben
ĠGrand es
ãĥī ãĥ©
Ð¾Ñĩ Ð½Ð¸Ðº
Ð¾Ð² Ð¾
k ung
ĠÐ£ÐºÑĢÐ° Ð¸Ð½Ñĭ
ĠÄĲ áº¿n
Ġretro u
Ġg áº¯n
Ġa zul
æ¶ ²
kow ego
Ġprzed staw
Ġpan el
Ġf ini
Ġcent rale
Ġade qu
ÑĪ Ð¸Ñħ
Ġz ew
Ġm ÄĻ
Ġjed nym
Ġf ot
Ġch uyáº¿n
ĠA 3
æľŁ å¾ħ
sel ves
en ho
Ġsom ente
ĠcrÃ©d ito
ĠO st
çĻº çĶŁ
åı¯ æĦĽ
Ġpar k
Ġi Å¼
Ġexper ts
ĠN AS
ĠK er
éĸĭ å§ĭ
zon ych
ou x
iss o
IN I
Ġdire itos
Ġac us
ut Ã©
U ND
Ġwy posaÅ¼
Ġsl ow
Ġra zy
ĠJ ar
ĠCÃ¢m ara
Ġ10 80
ĠæĹ ©
Ġåħ ĥ
ĠÐ¾Ð¿ ÑĤ
ĠÐ²Ñĭ ÑĪ
Ġzob aczy
Ġv elo
Ġama zon
tur as
g aben
Ġent anto
ĠPr Ã©
Ġ14 5
é ®®
ĠSe arch
ĠC ada
ĠÑħÐ°ÑĢÐ°ÐºÑĤÐµÑĢ Ð¸ÑģÑĤ
ĠÐ¼Ð¸ÑĢ Ð°
Ġimpr im
Ġeff ort
Ġat tach
ĠMe jor
ä¿Ŀ éĻº
ãģ£ãģ¦ ãģĦ
Ð»Ñı ÑİÑĤ
sta t
Ĥ Þ°
Ġt ent
ĠJe ans
s zej
ann ten
L V
Ġvá» Ŀi
ĠO live
Ġ12 2
ÑĢ Ð¸
ÐµÑĨ ÐµÐ¿
C Z
Ġprofes ional
Ġle ps
Ġin kl
Ġcons ig
Ġcandid ato
ãĥķ ãĥ«
Ã³ veis
w ych
ap y
Ġá»§ y
Ġt anti
Ġplay ing
Ġg ens
Ã§a ise
ari al
ĠÐ· Ð½Ð°ÐºÐ¾Ð¼
ĠÐ²Ð¾ Ð¾Ð±ÑīÐµ
Ġper chÃ¨
Ġpad r
Ġmod Ã¨le
Ġk ont
Ġin ac
Ġeduc aÃ§Ã£o
ĠLond res
è» į
æ² ¹
å± ¤
ne w
ly ing
ĠéĿ Ĵ
Ġla ÌĢ
Ġin tra
Ġhá»į a
Ġde tta
Ġ... ....
åĲĳ ãģĳ
ãĤ¹ ãĤ¹ãĥ¡
ĠpÃºbl icos
Ġpropr iet
Ġh osp
Ġgi ft
Ġf anno
Ġd ub
Ã¤ tig
w alt
ih na
Ĥ Þ°Þ
ĠÐ¾ Ð¶
Ġrece b
ĠSeb asti
ĠF oi
ĠÐ½Ð°ÑĪ ÐµÐ¹
ĠA 4
ãģ§ãģĻ ãģĭãĤī
Ġvers ione
Ġsc ale
Ġpass Ã©
Ġe jec
Ġcal or
ĠU b
ĠTut ti
Ġ: \/\/
Ġdi cho
Ġde leg
Ġampl ia
ĠX P
ãĥª ãĥĨãĤ£
ant wort
an es
Ġçľ Ł
ĠÑĤ ÐµÑģÑĤ
ĠÐ¸Ð· Ð´ÐµÐ»
Ġt ens
Ġquel que
Ġd ry
} }
ON G
Ġå® Į
Ġviv i
Ġman ter
ĠcÃ³ digo
ĠM ira
ĠE 3
ãĥĭ ãĥ¡
ãģĤ ãģªãģŁ
Ð¾Ñĩ Ð½ÑĭÐµ
f u
Ġ] ;
ba o
???? ????
ĠÑĢÐ°Ð±Ð¾ÑĤ Ð°
Ġw issen
Ġv ais
ĠD ank
ãĥĨ ãĥ¬ãĥĵ
Ġsci ence
Ġsal ute
Ġ% ;
Ø ±
ti za
d ar
ĠÐ¤ÐµÐ´ÐµÑĢ Ð°ÑĨÐ¸Ð¸
ĠFo ot
é į
á»Ļ p
ĠÐ¿ÑĢÐ¾Ð³ÑĢÐ°Ð¼ Ð¼Ñĭ
Ġsqu adra
Ġin ox
ĠH ous
çī¹ å¾´
ç ¦
Ġty tu
è³ Ģ
çĻº å£²
çķª åı·
Ġpaci entes
Ġk op
Ġacom paÃ±
ĠAg ora
az u
Ġop Ã§Ãµes
Ġhid den
Ġba in
æĲ º
end ente
ĠÑĢÐµÐº Ð¾Ð¼ÐµÐ½Ð´
Ġdirect ly
Ġc ere
ç«ĭ ãģ¦
ãģĤ ãģĴ
tiv idad
op s
Ġc Ãł
ĠPla ce
ä¿ º
Ð¾ÑģÑĤ ÑĢÐ°Ð½
ĠÃ µ
Ġseg ment
Ġd rew
ĠKe y
ç´ł æĿĲ
z eg
Ġsh aring
Ġem erg
ĠM L
ÅĤ ego
se a
Ġsag te
Ġb ab
ĠWe ek
ãģĵ ãģĵ
in st
Ġins tead
Ġg Ãł
ĠT iá»ĥu
ĠDe pois
or ing
Ġãģĵ ãĤĵãģª
ĠÐ²Ð¼ÐµÑģÑĤ Ðµ
ĠÄĳ áº³ng
Ġza war
Ġsing les
ĠR and
Ġstre et
Ġreg is
Ġgen ere
c f
10 5
ĠÐĺ Ð²
Ġty le
ĠPe ople
ĠGol den
Ã¤ f
§ ĭ
d l
ĠåŃĲ ä¾Ľ
ĠÑģ Ð±
Ġsupp or
Ġitali ani
Ġgio c
ĠNue va
äº Ķ
Ġâ ĳ
Ġcheg ar
ãģ®æĸ¹ ãģĮ
gl io
ff a
Ġhu ge
uta mente
Ġç İ
ĠÐ¿ÐµÑĢ ÑģÐ¾Ð½
Ġinsp ir
ĠWill iam
ãģ® ãĥŀ
rop ol
qu o
ĠÃ «
Ġzn acz
Ġt iss
Ġaplica ciÃ³n
ĠGre y
Ð¾Ð² Ð°Ð»
tiv ement
ĠÑı ÑĢ
Ġpra wo
Ġot war
ĠAl m
Ġ... ...
Ð¼ Ð¾
Ġr Ãłng
Ġinvol ved
Ġin nov
ĠTex as
ĠSa o
ĠL ike
Ð¾Ð» Ð½Ñı
Ã¡n dose
ĠÐ¿Ð¾Ð± ÐµÐ´
ĠÐ´Ð² Ð¸Ð³
Ġsatis fac
Ġpalab ras
Ġid Ã©e
Ġcan cer
ĠEsta mos
ĠEsc ort
ÑıÑģ Ð½
g ens
c ido
ĠæĻĤ éĸĵ
Ġthá» «a
Ġcamb ia
ĠPol ic
Ð¾ Ñĥ
OR D
ĠâĢ °
Ġcir cula
Ġam Ã©rica
ĠT iá»ģn
ĠSe le
ĠSa f
ĠH Æ°á»Ľng
æĺ ¥
Ð¾Ð»ÑĮ Ð½Ð¾
y ka
Ġha via
Ġcre ar
ĠN ight
ĠFran co
pr zed
K O
ĠâĻ ¥
ĠÑĥÑģÐ»ÑĥÐ³ Ð¸
ĠÐ³ÑĢ Ð½
Ġso fort
Ġad resse
ĠQu em
åĨ ·
ÐµÐ½ÑĮ ÑĪ
Ã¤ m
k ers
f ung
Ġla unch
ĠT ai
ĠCam po
Ġ" -
Ð¸Ñģ Ð»
Ð°Ðº Ð¸
za ch
ubl ic
AN TE
1 l
ĠÐ¿ÑĢÐ¸Ñħ Ð¾Ð´
Ġun idades
Ġsp orts
Ġkra j
ĠWo che
ĠCan ad
ãĤĴ å®Ł
Ġcomb in
åŃĺ åľ¨
ãĥ¼ãĥĭ ãĥ³ãĤ°
Ġå ĸ
Ġv Å©
ĠWes tern
ĠC z
ãĤ¹ ãĤŃ
º å®ļ
ĠÑĢ Ð¸Ñģ
Ġpr ise
Ġpl ut
Ġla c
Ġcou leur
âłĢ âłĢ
ed as
OL OG
G I
Ġappar tement
ÑģÑĤÐ²ÐµÐ½ Ð½Ð¾
zy w
fe itura
eg gia
ak es
Ġw ich
Ġsam o
Ġref lex
Ġpermi tir
Ġor mai
Ġne hmen
Ġgiv es
Ġdes k
ĠK áº¿t
Î µ
obil ier
cr ibe
Ġword en
Ġun ica
ĠT es
ãģ®åĨ ħ
Ð± Ð¸Ð½
l ang
= >
ĠÐ½Ð¾Ð² ÑĭÐµ
Ġze igt
Ġza interes
Ġk li
Ġescol a
Ġen volv
ĠE ig
Ð¸Ð² Ð°Ð½Ð¸Ðµ
za jÄħ
ap ie
Ġupload s
Ġsa w
ÑģÑı ÑĤ
qu al
pl os
ĠãģĬ ãģĹãĤĥãĤĮ
ĠÑĦ Ð°Ð¹
Ġnie kt
Ġhab lar
ãĥ©ãĤ¤ ãĥĸ
Ġé ļ
ĠbÄĻ dz
ĠM oc
ycz na
IG N
Ġref le
Ġhand s
ĠP oss
ĠFer ien
Ġev alu
Ġclass es
v idas
Ġd s
Ġav oid
ä¸ ¸
ta dt
t Ã¤nd
ire less
ĠÑıÐ² Ð»ÑıÑİÑĤÑģÑı
ĠÐĺ ÑģÐ¿
Ġpoc zÄħtku
ĠL age
ĠG arden
F S
Ġth ang
Ġg arden
Ġcer tifica
ĠKÃ¼ che
ĠD ura
Ġ( !
Ð¸ÑĤ ÑĢ
ĠÐ¦ ÐµÐ½Ð°
Ġth áº»
Ġsp l
Ġimp ed
Ġhá»į p
Ġbiz nes
ĠHo y
ĠF az
teil ung
Ġsur pr
ĠrÃ© uss
Ġna pis
ĠA do
ãĥ© ãĥ³ãĥī
ãģĤ ãģ£ãģ¦
ãģ®æ Į
k r
hand lung
ar f
Ġãĥ ½
Ġproduc ciÃ³n
Ġlors que
Ġk art
ĠLin ux
ĠJ etzt
ï¼ ©
è¼ ¸
re ja
Ġè£ ½
Ġcoin vol
ĠFamil ie
Ġ19 70
åĬĽ ãĤĴ
ĠÐ¿Ð¾Ð´ ÑĢÐ¾Ð±
Ġmondi ale
Ġle ider
Ġc if
ĠKh Ã¡ch
ĠE quip
ä¸Ń ãģ«
gi i
el ess
ĠÐ¸ÑĤ Ð¾Ð³
Ġser ious
æ°Ĺ ãģ«åħ¥
inn astica
ĠãĤ Ĩ
ĠÐ¿ ÑĥÐ½ÐºÑĤ
Ġsod dis
Ġpubl ished
Ġde ten
ĠG E
ĠD in
Ġ ğ
st as
isia j
ia dos
G L
ĠÐ±Ñĭ ÑģÑĤÑĢ
ĠÐ¡ ÐµÑĢÐ³
Ġris chio
Ġmanif est
Ġdo kÅĤad
ï¼ ¼
z us
ato ire
Ġk sztaÅĤ
Ġgen re
Ġcapac idad
da ta
AC IÃĵN
ĠÐ¡ Ð¼
ĠÃ© tr
ĠÂ· Â¨
Ġre ac
Ġr ib
Ġg ob
ĠIN D
ĠãĤ¢ ãĥ¡ãĥªãĤ«
ĠÑģÐµÑĢ Ð´
Ġw egen
Ġtr uc
Ġinwest y
Ġas so
ĠLe arn
ï¼ĳ ï¼Ĳ
éĢ Ģ
ãģķãĤĮ ãģ¾ãģĻ
Ð½Ð¸ Ð¶
po int
j ne
Ġth Ã©
Ġintro duc
l Äħ
ĠÑĢ Ð°ÑģÐº
Ġt áº¯m
Ġoff icial
Ġfit ness
Ġenvir onnement
Ġb Ã¢
U n
ĠÑģ Ð¾Ð¿
Ġint Ã©rieur
Ġcur ios
ĠY Ãªn
la ce
ĠÐļÐ¾Ð¼ Ð¿
Ġsiti os
ĠTor re
ĠAss im
X H
ĠÐºÐ°Ðº Ð¸Ðµ
Ġtem pi
ĠintÃ©r ess
Ġde la
Ġb ede
ĠJ O
ĠAnd rÃ©
éģ¸ æīĭ
s b
ok i
Ġç© º
Ġgodz in
Ġfam il
ĠJahr es
ĠBr uno
ãĤĴè¦ĭ ãģ¦
us iÃ³n
12 5
ĠÑģÑĢÐµÐ´ Ð¸
Ġsch le
Ġat te
¡ çĶ¨
vel y
us ter
ĠÐ¿ Ð°
Ġsku tecz
Ġc áºŃn
Ġar rive
ĠT Ã¢m
ĠG Ã²n
ly wood
l ose
ic on
Ġed izione
Ġcontra c
ĠTim es
ĠMÃ¼n chen
å¥³ åŃĲ
ãģĽ ãģ¦
¦ Ĥ
ĠâĢĻ .
ĠÐ¼ÐµÑĢ Ð¾Ð¿ÑĢÐ¸ÑıÑĤ
Ġquest Ã£o
Ġconf ian
Ġauc un
end ed
ami entos
G o
ĠGon z
Ġloc ali
ĠB ene
Ġ12 6
AR A
ĥ è²¸
ĠæĿ±äº¬ éĥ½
Ġos iÄħ
Ġ27 0
æŃ ´
H V
D D
10 8
ĠÑĤ Ð¾Ð»
ĠÐĿ Ñĥ
ĠÐ¼Ð¸Ð» Ð»Ð¸
ĠÐ² ÐµÑĤ
Ġw ody
Ġlim ited
Ġkl ar
Ġamb ito
ĠB ase
A t
ĠÑģÑĤÐ¾ Ð¸Ð¼Ð¾ÑģÑĤÑĮ
Ġsuper ficie
ĠA ven
à² °
Ġru olo
Ġexp ect
Ġc atal
ĠLoc ation
ãģ®æĦ ı
ar u
ac ute
Ġåı Ĺ
ĠÐĴ Ð¾Ð»
Ġperson ales
Ġfil ms
ãģ« è¦ĭ
ĩ Ĵ
ĠrÃ©se au
Ġr ile
Ġimport anti
Ġet Ãł
ĠMos trar
æľ¬ å½ĵãģ«
æĻ ´
ãĤī ãģı
Ð¾Ñĩ Ð½ÑĭÐ¹
Ð¾Ð² ÐµÑĢ
ĠRich ard
ĠCaser ÃŃo
av ier
Ġliv res
Ġe w
ĠHum an
Ġviel leicht
Ġt áº¥m
Ġsprzed aÅ¼
Ġmanh Ã£
Ġdiret tamente
ĠC ast
å¾Į ãģ®
Q iO
ĠÐ´ÑĢÑĥÐ³ Ð¾Ð¹
ĠmoÅ¼liwo ÅĽci
Ġmoy en
Ġdoc tor
ĠFlor ida
å±Ĭ ãģĳ
m at
W F
Ġs á»ķ
Ġpass age
Ġcu ar
ĠPÃ¡g ina
ment are
l on
er ÃŃa
Ġãĥ¡ ãĥ¼ãĤ«ãĥ¼
ĠÐ± Ð¾Ð½ÑĥÑģ
Ġwer de
Ġavalia Ã§Ãµes
ãĥĨ ãĥł
Ð¸Ð³ Ð¸Ð½
pro duc
Ġnas zego
Ġcoloc ar
Ġama teur
ĠProgram m
ãĥķãĤ© ãĥ³
Ðº Ð¸Ð¼
Ð¸ÑĩÐµÑģÐº Ð¸Ð¼
pr ice
Ġz ÅĤo
Ġpra zo
Ġm q
Ġlav ori
Ġcons erva
ĠSte ph
ĠBon us
ç¥Ŀ ãģĦ
åľ¨ çº¿
Ñģ ÐµÐ¼
ĠÐ°Ð² Ð³ÑĥÑģÑĤ
Ġsupp l
Ġqu iero
Ġimpac to
Ġc Ã¢
ĠPre zzo
ind et
Ġãģ¨ æĢĿ
Ġir Ã¡
ĠO range
ĠL ad
Ð¸Ð½ Ð¸Ð¼
ĠÐ½Ð¾Ð² ÑĭÐ¹
ĠÐ¸Ð³ÑĢ Ð°ÑĤÑĮ
Ġmys elf
ĠN utz
ĠMitarbe iter
ĠHil fe
Ġ11 9
is ches
ĠÑģÑĤ ÑĥÐ´
ĠÐ½Ð°ÑĪ ÐµÐ¼
Ġres puesta
Ġpres o
Ġl t
ĠSER V
ĠH app
ĠF onte
èı ¯
os te
Ġåº ĥ
Ġw c
Ġder iv
Ġal i
ĠV Æ°Æ¡ng
ĠRes erv
mi ra
ier to
90 4
ĠÐ¾ ÑĪÐ¸Ð±
ĠÄĲ Ã¬nh
Ġtra tamento
Ġe her
Ġbit te
Ġb iaÅĤ
ĠSu ites
Ġ áº¥m
ãĥĬ ãĥł
ĠÐ¾ Ð¿Ð»Ð°ÑĤ
Ġv ostro
Ġr ass
Ġprz ede
Ġ+ "
Ġ ãģĭãĤī
Åĵ ur
Ã¤ mp
rit ti
b ody
00 1
ĠÐ¸Ð½ ÑģÑĤÑĢÑĥÐ¼ÐµÐ½ÑĤ
Ġtrata miento
Ġsoggi orno
Ġl á»Ńa
Äħ pi
Ã£ ÆĴ
um ul
tain ment
Ġz usÃ¤tz
Ġw eg
Ġthem selves
Ġse zon
Ġplata forma
ĠdÃ©c ouvrir
ĠSta to
ĠEnerg ie
ziÄĻ ku
ĠÐ´ÐµÐ» Ð¾
Ġs tellen
Ġre b
Ġpic tures
Ġ4 80
l Äħd
CH E
Ġåĥ ķ
Ġpic colo
ĠMa j
ĠH A
Ġ( $
Ġn esse
Ġkh á»ķ
Ġk urs
ĠPra c
Ð¾Ð»Ð¾Ð³ Ð¸Ð¸
Âµ Ãĺ
ĠÐŁ Ð°ÑĢ
ĠÐ² Ð´
ĠktÃ³r Äħ
Ġcom fortable
ĠRe is
ĠK Ã¶n
Ð°Ð½ Ð½ÑĭÑħ
it ra
IC S
Ġè Ī
Ġpes quis
ĠD Ã¢n
è¡ Ģ
ãģĹ ãģªãģĮãĤī
c ra
ĠÐł Âµ
Ġzw iÄĻks
Ġprz esz
Ġess as
Ġa st
ĠT áº¿t
ĠPres ident
ãĥ³ãĥ ĸ
á»Ľ p
v oc
ujÄħ cy
ran ia
g ers
av en
L D
Ġx inh
Ġtra de
Ġg allery
Ġzmi an
Ġre pos
ĠSch utz
ĠNatur al
ãģ¤ ãģĳ
Ð°ÑĤ Ñĥ
ug o
te chnik
ĠÐ¼Ð¸Ð½ Ð¸Ð¼
Ġvo ce
Ġt Ã©
Ġpra tique
Ġbl anco
ĠF lex
ãĥŃ ãĥ¼
ta tt
S u
ID O
Ġp li
ĠAl terna
é£ ¯
Ð¾Ñĩ ÐºÐ°
Ġåĭ ķ
ĠÐ±ÑĥÐ´ ÑĥÑī
Ġchos es
Ġcal cul
ĠM áº·t
å¯ Ŀ
å®ī åħ¨
19 0
Ġdu ro
ãĤ¤ ãĥĻãĥ³ãĥĪ
b d
ĠÐ³Ð°ÑĢ Ð°Ð½ÑĤ
Ġzost anie
Ġvale ur
ĠUnivers itÃł
ĠMin istÃ©rio
ĠB atter
æŃ ¦
ĠÐĶ ÐµÑĤ
ĠÐ´ ÑĥÑħ
Ġvo to
Ġgio chi
Ġes trutura
ĠR as
ĠN Y
cer ia
ĠÐ¼Ñĥ Ð½Ð¸ÑĨÐ¸Ð¿
ĠÐ¶ Ð´
Ġop ie
ĠQu el
ãģĹ ãģ£ãģĭãĤĬ
ube hÃ¶r
and en
H I
ĠÐ¿ÑĢÐ¸Ð» Ð¾Ð¶
Ġwed ding
Ġch iáº¿m
Ġbed room
ĠS Äħ
Ð¾Ð» Ð¾ÑĤ
k it
Ġpre mio
Ġl anz
sche in
qu elle
L o
ĠÑįÑĤ Ñĥ
Ġpour quoi
Ġcuid ado
Ġa me
ĠW ho
æī ±
åı Ĭãģ³
å¥½ ãģįãģª
ÐĿ ÐĲ
truc tion
ar z
Ġcar b
ĠSch m
ĠS ans
ĠLand es
ĠAlber to
Ġ ä¾ĭ
åĩºæĿ¥ ãĤĭ
ĠmÃ³ vil
ĠV AL
ĠL ima
ĠKle in
ĠG eg
ĠCap ital
tor io
ĠÑĩ ÐµÑĤ
ĠÐ¿ÐµÑĢÐ² ÑĭÐ¹
ĠÐ´ Ð»
Ġzn ac
Ġt Ã´n
Ġpot encial
Ġotten ere
Ġk lim
Ġava is
Ġaument ar
ĠAr c
Ð¾ÑĢ Ð´
ess ere
I s
Ġwe it
Ġsc ritto
Ġnues tras
Ġnas zym
Ġihre m
Ġdes ider
Ġchia ma
Ġ3 d
uck y
qu inas
all as
ĠÑĦÐ¾ÑĤ Ð¾Ð³ÑĢÐ°ÑĦ
Ġzes po
Ġprzed mio
ĠSch laf
é «ª
Ù Ĩ
Ð¾Ð³ ÑĢÐ°Ð¼
b ÄĻ
ĠpolÃŃ tico
Ġpodsta wie
Ġn ulla
Ġmis ura
ÑĪ Ð¸Ð¹
Ã¶ffentlich t
vol i
o ols
ĠÐ¾ Ð³ÑĢÐ¾Ð¼
Ġofer ece
Ġj as
Ġf ans
Ġdefin itely
ĠTod ay
ÑĪ ÑĤ
Ã¡s tico
Ġznajdu je
Ġso ul
Ġn Ã©t
Ġb omb
ĠLe v
å¤§ ãģįãģª
if er
f ie
ar ten
1 40
ĠÐ½Ð°ÑħÐ¾Ð´ Ð¸ÑĤÑģÑı
Ġnouve aux
Ġn áº¯m
ĠPor ta
ĠAmer ic
Ìī a
sch n
ĠÐ½ Ð¾Ñģ
Ġorganiz ation
Ġkob iet
Ġjur ÃŃ
Ġinclus ive
Ġhon or
Ġdev ono
Ġacc ura
ĠL OS
ĠGÃ¤ ste
ç® ±
und os
ism us
H CM
Ġèĭ ±
ĠÑĥÐ² Ð¸Ð´
ĠÐ´ÐµÐºÐ°Ð± ÑĢÑı
Ġredu ce
Ġhe at
Ġfor za
Ġd olor
î Ģ
ãĤ¯ ãĤ·ãĥ§ãĥ³
EM ENT
3 æľĪ
Ġç¶ļ ãģį
ĠÐ¾ÑĤÐ½Ð¾ Ñģ
Ġinvestiga ciÃ³n
Ġrap present
ĠX box
ĠH it
å¹´ ãģ®
ÑĢ ÐµÐ½ÑĤ
Ðĵ Ðŀ
ĠÐŀÑĤ Ð²ÐµÑĤ
ĠÐ¾ÐºÑĤ ÑıÐ±ÑĢÑı
ĠtÃ©cn icas
Ġkos met
Ġelek tron
Ġcontra t
Ġac ima
ĠR ag
ĠK rzy
ĠAn uncios
ãĤ« ãĥĲãĥ¼
Ð¾Ð»Ð¾Ð³ Ð¸Ñı
ph ones
ec in
ĠÐ¿Ð¾Ð² ÐµÑĢÑħ
Ġo gl
Ġcam a
ç ı
æ¸ ħ
ed s
C ar
ĠÑĤÐ¾Ð²Ð°ÑĢ Ð°
ĠpÃ¡g inas
Ġk em
Ġdevelop ed
Ġb asso
ĠT áº¥t
ĠHau pt
vol ver
p are
Ġlib ri
Ġd ane
ð Ŀ
æ²» çĻĤ
ãģ®å ±
ãģ£ ãģį
vent ure
eck er
Ġat tac
ĠSh are
ĠP ab
ĠDis co
ãĥ³ãĥĩ ãĤ£
Ġwi ki
Ġrequire ments
Ġpopula Ã§Ã£o
Ġl Ã´
Ġcl oud
ĠW sp
ĠUn is
ĠSo und
ĠSe a
ãĤĴ åıĸãĤĬ
ÅĽcie j
ho f
c ado
I 6
ĠÐ²Ð¾Ð¿ÑĢÐ¾Ñģ Ñĭ
Ġte ch
Ġmin ister
Ġcu á»ĳn
Ġal qu
ĠCons iglio
ĠC uba
ĠAn ne
Ġ1 px
ãĤĴ ä½¿çĶ¨
fÃ¼hr er
ĠÑĤ Ð¾Ð¿
Ġsub mit
Ġrecenz ji
Ġinv es
Ġfl at
º «
h ot
ĠÑıÐ½Ð²Ð°ÑĢ Ñı
ĠÑĢÐ°Ð±Ð¾ÑĤ Ðµ
Ġpo ÅĤÄħcz
Ġlep iej
Ġdeb ate
Ġch Ã¡y
Ġc Ãłi
ĠT EC
fl ow
ate ar
ĠÑĩ Ð¸ÑĤ
ĠÑĢÐµÑĪ ÐµÐ½Ð¸Ðµ
ĠÐº Ð¾Ð´
Ġzd ecyd
ĠvocÃª s
Ġthan ks
Ġre per
Ġr an
Ġ\" ,\"
ĠGu ide
Ġ(... )
éº Ĺ
æ· ±
Ð¾Ð¼ Ð¸Ð½
sz ego
em on
d ec
ĠÐ¾ÑĤÐ´ ÑĭÑħ
Ġca ÅĤy
ĠI ran
ãĤ¹ãĤ¿ ãĤ¤ãĥ«
Ġprop ia
Ġobje tivos
Ġma pa
Ġents prech
ĠKop f
ĠGe or
± ³
iss a
isp ens
Ġroz m
Ġcomplete ly
ĠD ort
åŃ¦ çĶŁ
p he
ĠãĤ¨ ãĤ¢
Ġeff ici
ĠAng eles
éŃ ħ
ãĤ« ãĥ©
Q uer
Ġdecis Ã£o
Ġcontr ario
Ġc ass
ĠSu pport
ÃŃs tico
m Ã©
ini um
g ate
Ġå ¡
ĠÐ´ÐµÐ² ÑĥÑĪ
Ġprom oc
Ġg uy
Ġex tend
ĠS uch
ĠK omp
ĠI ta
éĻ ½
æķ Ĺ
ve au
Ġg au
Ġeben falls
ĠL ady
ĠF ras
ĠB S
Ð» ÐµÑĢ
wo ju
2 000
Ġé Ĭ
ĠÐ¿Ð¾Ñĩ ÐµÐ¼Ñĥ
ĠÐ· ÑĢ
Ġperf il
ĠEx ecu
ãģ¾ãģĹãģŁ ãģĮ
ja x
Ġwy ÅĤÄħcz
Ġserv ir
Ġnow ych
Ġmin eral
Ġenc ontro
Ġab re
ĠLat ina
ĠAus wahl
åħ¬ éĸĭ
Ð¸ÑĤÐµÐ»ÑĮ Ð½ÑĭÐµ
ÅĤ asz
1 æĹ¥
ĠÐĶ Ð°ÑĤÐ°
Ġmas cul
Ġense ign
ĠC Ã¡mara
ĠC ela
ĠAt l
ET T
Ġsk le
Ġog Ã³l
ĠAmbi ente
Ġ3 80
ãĤĴæ Ķ
h aps
ĠÐł Ñĳ
Ġqu iz
Ġpu eda
Ġpopr zez
Ġinteres ted
ĠNh iá»ģu
i ff
ĠØ §
ĠÐº Ð¾ÑĤ
Ġsp Ã¤ter
Ġra t
Ġpati ent
Ġconh ecer
Ġ áº©m
è¢ «
ÐµÐ½Ð¸Ñı Ð¼Ð¸
ak u
Ġæ ©Ł
Ġph iáº¿u
ĠW ien
Ġ12 9
c one
Ġzmi any
Ġg ir
Ġdá»± a
ĠNE W
ĠÑģ ÑĥÐ¿
ĠÐ¿Ð¾Ñĩ ÑĤÐ¸
Ġprop io
Ġex ec
ĠL Æ°u
ĠI z
ãĥĩãĤ£ ãĤ¢
ent in
ago za
ĠÐ·Ð°Ð½ ÑıÑĤ
Ġsch w
Ġr io
ĠmatÃ©r ia
Ġc Æ°á»Ľi
åı ³
tr are
ch inen
Ġele mento
ĠM ie
âĶĢ âĶĢ
ent r
ĠÑįÑĤ Ð¸Ð¼
ĠÑħ Ð¾Ð»Ð¾Ð´
ĠÐ· Ð°Ð»
Ġvo te
Ġszcz ÄĻ
Ġle kar
Ġd ad
Ġc á»©ng
Ġbe w
ĠCommun ity
çķ Ļ
ĠÐ´ Ð¾Ð±
ĠÐ² Ð»Ð°Ð´
Ġwe wn
Ġv otos
Ġsubs titu
Ġla tach
Ġk uch
Ġe ye
ĠR etro
á»¥ n
Ġnie d
Ġesp anol
ĠN okia
ĠDies er
w Äħ
ĠÑģÑĤ Ð°Ð»Ð¸
ĠÐĺ ÑĤ
Ġvar ie
Ġur g
Ġo to
ĠL ogo
ĠAr qu
Ġ12 4
ol tÃł
Ġç ®
Ġgr oss
ĠdÃ© clar
Ġd Ãµi
ĠBay ern
ĠÑģÐ² Ð¾Ðµ
ĠÐ¸Ñİ Ð½Ñı
Ġpat tern
Ġl áº¯ng
Ġl ecz
Ġcor ret
ĠMÃ¶glich keit
ä¼ ¸
Ã³ vel
tr ie
k urs
ĠÐ¾Ð´ Ð½Ð¾
Ġtu oi
Ġassocia tion
Ġac ad
Ð²ÐµÑĢ Ð´
pie le
ĠçĶ »
Ġz doby
Ġpr Ã¡tica
Ġperm ette
Ġes ist
Ġco ffee
ĠSh irt
Ġ20 5
Ġ2 x
ãģĮ ãģĭ
ÑĪ Ð¸ÑĢ
Ã¼ cke
Ġæ¥ŃåĭĻ çĶ¨
Ġv ino
Ġm ÄĻÅ¼czy
Ġinterna zionale
Ġdra ma
Ġac cept
ĠVerfÃ¼g ung
y k
v c
od er
i Ã£o
i tel
10 3
ĠÐ¸Ð· ÑĥÑĩ
Ġse ek
Ġdes em
ĠW ald
ĠP ink
ãĤĴ çŁ¥
Ð· Ñı
zeich net
W 5
ĠÃ© tudi
Ġr ose
Ġen via
Ġcollabor azione
ĠZapa tillas
ĠPa ti
ĠC áº§u
ĠAL L
Ġ4 x
fic z
em i
W E
Ġwsz el
Ġvin tage
Ġtho Ã¡t
Ġprofession nel
Ġnad zie
Ġde por
Ġacc ueil
ĠV og
ÐµÑģÑģ Ñĥ
Â¡Â £Â
r in
AG E
Ġris co
Ġqu Ãª
Ġn owy
Ġliv ros
ĠMon tag
Ð¸Ð² Ð¸Ð´Ñĥ
sch uhe
do ba
Ġno tice
ĠkaÅ¼ de
ĠWor ks
ĠSta tion
çī© ä»¶
åĵģ è³ª
ãģı ãĤĮ
te gia
Ġs witch
Ġcli p
ĠCod ice
ĠCar ta
D ata
Ġunter stÃ¼t
Ġrec ru
Ġde in
ĠOb je
Ġç Ĩ
Ġs enc
Ġprofes ionales
Ġorgan isation
Ġist nie
Ġda her
our d
b ot
Ġprojet os
ĠWh ats
ĠPar que
ĠEd it
esti Ã³n
amp f
amb a
Ġãĥį ãĥĥãĥĪ
Ġx ung
Ġn áº¯ng
Ġme us
Ġinf ra
ĠP I
ĠD abei
ÐµÑĩ Ð°ÑĤ
Ġang eb
èª °
Ð°Ð½ Ð½ÑĭÐ¹
tern al
Ġ20 21
Ġãĥ ¨
ĠÐ¶ ÑĥÑĢÐ½
Ġoc chi
Ġg Ã³c
ĠPre ise
ĠJe Å¼eli
æ¹ ¯
ãģı ãģªãģĦ
Ð¾Ð²Ð°Ð½ Ð¸Ð¹
Ã¤ch st
odz ien
ĠÃ© qu
Ġutiliz ando
Ġtr iste
Ġte atro
Ġsl ots
Ġbr on
ĠM Ã¤n
ãĥ¼ ãģ¯
ãĥ³ãĥ ¬
ĠåĨ ĻçľŁ
ĠÐ¸Ð½ Ð²ÐµÑģÑĤ
ĠwiÄĻks zo
Ġning Ãºn
Ġk la
Ġ Ã¡c
Ð¾Ð· Ð°
ÐµÐ½ Ð½Ð¾Ð¼
u h
ag t
ĠÐ¸Ð¼Ðµ ÑİÑĤ
ĠÐ· Ð¸Ð¼
ĠÐ°ÑĢ Ñħ
Ġob tain
Ġk orzysta
Ġgo es
Ġb ian
Ð¾Ðº Ð¾Ð²
ur ing
orr ent
le itung
Ġv Ãª
Ġriguar da
Ġpos te
Ġbezpie cze
Ð°Ð± Ð°ÑĤ
ff t
ĠÅĽwie cie
ĠC zÄĻ
ãĥªãĥ¼ ãĥ³
p Z
ib us
ens ter
AM ENTO
Ġl Æ°á»£c
Ġkra ju
Ġarch itec
Ġa tual
ĠWiÄĻ cej
ĠSe it
ĠJ on
ĠFa ir
ĠF IN
est en
Ġso i
Ġr istor
ĠSin ce
ĠCour t
ãĥ« ãĥ¼ãĥĹ
ãģ§ãģĻ ãĤĪ
w ca
ĳ å¼µ
ĠÐ¾ÑĤÑģ ÑĥÑĤÑģÑĤÐ²
ĠÐ¼ÐµÐ´ Ð¸ÑĨÐ¸Ð½
Ġv c
Ġm Å©i
Ġb os
v et
iden cial
c la
bie ter
ĠÐ¡ ÐµÐ³Ð¾Ð´Ð½Ñı
Ġfin anz
ĠV all
ï½Ĺï½Ĺ ï½Ĺï½Ĺ
Ð² Ñĭ
Ġz iem
Ġnier uch
Ġne ben
Ġcontin uar
ĠSol id
ĠEn cu
ĠD N
åľ° åŁŁ
ces oria
ĠÐ»Ð¸ÑĨ Ð°
ĠprÃ©s ente
Ġprob able
Ġmov il
Ġex hib
ĠPr Ã³
ĠM ap
Ġ( *
å¤§ å¤ī
Ð»ÐµÐ½ Ð¸Ñİ
ter apia
ob s
Ġn Ãºi
Ġent sche
Ġdisfr utar
Ġcapac itÃł
ĠAc tion
d al
ĠÐºÐ¾Ð½ ÐµÑĩÐ½Ð¾
ĠÐ´Ð¾Ð¼ Ð°ÑĪ
çģ ½
ĠâĢ ³
ĠÄĳ Ã¡o
Ġt Æ°á»Ŀng
Ġsp od
Ġph u
Ġaj ud
ĠW Ã¼r
ĠS B
ĠA ires
ste in
gi que
ĠÑĥÐ´ Ð°Ð»
ĠÑĢÐ°Ñģ Ð¿
Ġsz uka
Ġsu chen
Ġj em
Ġbu á»Ļc
ãģł ãģĹ
ãģĭãĤĤãģĹãĤĮ ãģ¾ãģĽãĤĵ
ph a
Ġsp ons
Ġpesso al
Ġp ne
Ġdeter mina
Ġan ima
ĠD 0
ãĢĳ ãĢĲ
isse z
Ġå® ®
Ġqu ote
Ġpisc ine
Ġide ale
Ġde te
Ġbas ic
ĠCo ver
å¹´ ãģ«
å¬ ī
ä¿® çĲĨ
ute t
he in
c ki
ĠÐºÐ¾Ð¼Ð¿Ð» ÐµÐºÑĤ
Ġder en
ĠS ize
ĠF IL
ĠB ry
èĬ ¸
ĠãĤ¹ ãĥĪ
Ġr Æ°á»£u
Ġg áº¥p
ĠdÃ© cis
Ġdocum entos
Ġch ac
Ġannon ce
ĠD enn
Ġ( $(
Ð¸Ñı Ð¼Ð¸
ÐµÐ½ÑĤ ÑĢ
on ego
ica ch
ĠÑĨÐµÐ½ Ðµ
ĠÑģ Ð°Ð´
Ġh eraus
Ġcol on
ĠF inal
Ð¸Ð² Ð°ÐµÐ¼
lam ent
Ġãĥ¦ ãĥĭ
ĠÑħ ÑĢÐ°Ð½
Ġplut Ã´t
Ġlo in
Ġblo que
ĠF lo
ä»£ è¡¨
un er
teri ori
ĠåĢ ĭäºº
ĠÐ¸Ñİ Ð»Ñı
Ġeta pa
Ġblo od
ĠNo vo
ĠG eme
Ġ26 0
Ð¸ÑģÑĤ ÑĢÐ°ÑĤ
iÃªn cias
Ġto war
Ġthink ing
Ġr ide
Ġar tes
ĠReg el
ĠPol y
ĠFem mes
Ġ13 9
ãĤ¤ ãĥ¡ãĥ¼ãĤ¸
ta mentos
OC K
ĠéĢļ è²©
ĠÐ²Ñĭ ÑĪÐµ
Ġsem ble
Ġobten ir
Ġbek annt
Ġaten Ã§Ã£o
ĠIhre m
zy ka
ut are
ts ch
og rÃ¡
ada ÅĦ
78 9
ĠÑĤ ÑıÐ¶
ĠÐ±Ð¾Ð»ÑĮÑĪ Ð¾Ð¹
ĠdiffÃ©r entes
ĠL ista
ĠCu isine
ãģ®æ Ŀ
ÐµÐ½ Ð½ÑĥÑİ
Ġwy star
Ġpod a
Ġhab itaciones
Ġdzie wczy
ãģ®ç Ĥ
om ing
iesz cz
Ġdet alles
ĠM eth
éĢ£ çµ¡
å« Į
ÑĪ Ð¸Ðµ
tu do
ci ali
ca ti
ap or
ĠÑģ Ð¾Ñĩ
Ġexp ected
ti eren
ĠÐŀÑģ Ð½Ð¾Ð²
Ġverschied enen
Ġvehic le
Ġl Ã¡i
Ġh all
Ġcol ori
ĠVal encia
è¡ £
ãģ¨ãģĹãģ¦ ãĤĤ
ĠÑĦ ÑĥÑĤÐ±
ĠÐ½Ð°Ñģ ÐµÐ»
Ġproje ktu
è© ³ç´°
ãĥŁ ãĥ¥
ãĥ³ãĥ ļ
ot as
ĠçŁ ¥
Ġåį Ĺ
ĠÐ¿Ð¾ÑģÑĤ ÑĥÐ¿
ĠÐ¸Ð· Ð³Ð¾ÑĤÐ¾Ð²
Ġel las
æ¨ ª
Ñĩ Ð°ÑĤ
ÑĥÐ¹ ÑĤÐµ
x s
im en
Ġå° Ĥ
ĠÐŀ Ð½Ð°
Ġr Ãºt
Ġpublic ado
ĠDet tagli
ãģĦ ãģĭ
per ia
ĠÐľ ÐµÑĤ
Ġtra z
Ġdeb ido
Ġcomp osto
ĠGerm any
ĠF ile
ĠAl ors
iz ing
ĠÐ¼ ÐµÐ»
Ġz iel
Ġsig ue
Ġris posta
ĠK aÅ¼
Ġ... "
ãĤ³ ãĥ¼ãĤ¹
bar en
ĠTem per
ĠInstitu te
ob ra
Quer y
ĠÐ¸Ð· Ð´
Ġpo le
ĠPol i
ãĥĲ ãĤ¤ãĥĪ
Ñĥ ÐºÐ°
Î º
am eric
ĠÐ± Ð¾Ð³
Ġrec ensione
Ġprincip ali
Ġobiet tivo
Ġgouvern ement
ĠS ource
ĠFamil ien
Ð½ Ð¾Ð¿
k owej
ĠåĨ į
ĠmÃŃn imo
Ġeffec ts
è¦ĭ ç©į
æ± Ł
pos to
Ġãĥĭ ãĥ¥
Ġviag em
Ġv iet
Ġcar ga
ĠJun ior
ãĤı ãĤĮãģŁ
chs el
ĠÐ¾ÑĤ Ð²
ĠÐ½ Ð¸Ð¼
ĠB ody
Ã¤ ss
Ġè ĳ
ĠÑģÑĤ ÐµÐº
ĠÄĳ iá»ĥn
Ġtr Ã¹ng
Ġg Ã³r
Ġconse qu
Ġcom fort
ãĥ³ãĥ Ĭ
ãĤ» ãĥķãĥ¬
ÑĢ ÑĭÐ²
ĠÑģ Ð°Ð»
Ġactiv ity
ĠMan ual
ĠDon ne
Ġ": []
Ġvog lia
ĠN Ã³
ãģĺ ãģ¦
Ð¸Ð± Ð¸ÑĢ
x a
unda i
im p
M L
Ġusta wy
ĠOb ama
ĠL Æ°á»£t
ĠAut hor
Ð ®
er Ãł
E s
ĠãĢ Ĭ
Ġsp ieg
Ġsh ared
Ġro uge
ĠW ert
ãģ¨ åĲĮãģĺ
an zen
BO OK
Ġsome times
Ġles bianas
ĠAd ri
ÑĮ ÐµÑĢ
Ã¨ ge
ĠÑģ Ð¿ÑĢ
ĠÐ½ Ð°Ð¹Ð´
ĠÐ¼ ÑĭÑĪ
Ġsuccess ful
Ġexper t
ĠSpiel er
ĠG ard
ĠDon ald
ĠBit coin
ãģł ãģĮ
n u
in ture
Ġç Ī
ĠÐ¾Ð± Ð»Ð°Ð´
Ġwarto ÅĽci
Ġu ch
ĠJed nak
ĠFran Ã§o
ÐµÐ´ Ð¸
Ã¡l ogo
res h
Ġéģ ĭ
ĠÑģ ÑĥÑĤ
Ġz byt
Ġpar ad
ĠJusti Ã§a
ãĤĴæ ķ
OL A
ĵ į
Ġvi ent
Ġrice v
Ġdu da
ĠU TC
ĠF unda
ĠB ols
ãĥĲ ãĤ¹
du re
Ġè¨ ĺ
Ġtra tar
Ġsch wer
ĠpÃ³ Åºniej
Ġex ception
Ġcomun idad
ÑĢÐ¾ ÑĦ
w ord
po ÅĽred
ond re
me ister
be k
ĠÃĪ Ãĭ
Ġb Ãło
Ġau rait
ĠHamb urg
åĩ¦ çĲĨ
å¾ ĭ
ãĥĪ ãĥ³
ãģĦãģ¾ãģĻ ãģĮ
Ìģ p
or se
Ġmeto d
ĠhÃ¤t te
Ð Ĩ
og ar
Ġt ÄĻ
Ġapo yo
Ð¸ÑĤ Ð°Ð¹
le ben
l ock
i ores
Ġn iá»ģm
Ġfin ish
Ġde u
ĠUs er
ĠS tim
ĠPor te
ĠGi use
ãĥŀ ãĤ¹
ãĤĴ éĢļ
post s
AC E
Ġsp az
Ġsem i
Ġpub li
ĠG las
ãģł ãģª
ãģ¾ãģ¨ ãĤģ
Ãºs qu
i Ã¨me
Ġç Ĳ
Ġth áºŃm
Ġp ies
Ġh aute
ĠSne aker
ĠPh i
ĠK urs
p b
ĠÑģÐ¾Ð± ÑĭÑĤ
Ġrec ente
g ry
am er
Ġä»ĬåĽŀ ãģ¯
ĠÐ²Ð¾Ð· Ð²
Ġriv ol
ĠS MS
å Ķ
tel s
do b
Ġå¹³ æĪĲ
ĠÃļ l
Ġub ezpie
Ġpar is
ĠStra teg
ĠSalv ador
ĠLau ra
ĠBri tish
éĸ¢ éĢ£
szy scy
ĠÑĥÑĩ ÑĢÐµÐ¶Ð´
ĠÄĳ á»Ļt
Ġu003 c
Ġth ank
Ġlong ue
ĠL U
ĠK ultur
Ġ21 5
ãģĳ ãģ°
nie go
00 000
ĠÐ¿ÐµÑĢ ÐµÐ¿
Ġven ez
Ġtro tz
Ġme isten
Ġkom unik
Ġhab itaciÃ³n
Ġfeed back
ĠAg gi
Ġ13 6
ç¥ Ń
Ð»Ð¸ Ð¹
10 1
Ġinter Ã©s
ĠC rea
ÅĽwiet l
og i
ĠK ore
ĠH Æ°ng
wend ung
c ÃŃa
ĠÑģ Ð¸Ð»ÑĮ
ĠT iÃªn
ĠEspa Ã±
ord as
Ġven ir
Ġum owy
Ġpes ar
Ġlist en
Ġl Ã£o
Ġind ispens
Ġcu ales
Ġass unto
ĠTechn ology
ĠPare jas
ĠN R
ran ken
ons o
oc ze
ĠÐ½Ð¾ ÑıÐ±ÑĢÑı
Ġnh áº¯c
Ġnauc zy
ĠUr laub
èĩª åĭķ
ãģĻ ãģ¹ãģ¦
ÑĢ ÐµÐ¹
Ð¸ÑĤÐµÐ»ÑĮ Ð½ÑĭÐ¹
ib ly
Ġquo tidi
ĠkaÅ¼d ym
Ġfunk tion
Ġadolesc ente
ĠVal le
ĠJ am
ĠE ach
Ð½Ð¸ ÑĨÑĭ
ĠÐ¾ Ñħ
Ġth uyáº¿t
Ġdo u
Ġdis cu
Ġcontro ll
OR ES
Ġç·¨ éĽĨ
ĠÐ¡ ÐµÐ²
Ġtá»ĵ n
ĠfÃŃs ica
ĠWe iÃŁ
ĠP uerto
ĠCh ild
ies to
P H
Ġthá» ±
Ġposi tivo
Ġb Ã¢y
ĠTur ismo
ĠAl ter
Ñī Ð¸Ðº
te j
enc ja
ac ks
ı ¡
Ġwr ong
Ġtr wa
Ġcent r
ĠWohn ung
ĠN á»¯
ãĤ· ãĤ§
Ð· Ð¾ÑĢ
z ki
ut ing
tell ungen
en k
In fo
Ġnost re
Ġgrow ing
ĠcrÃ© ation
Ġb ang
Ġapp ena
ĠInst alla
Ġ5 x
æľ Ń
Ð»Ð¸ Ð¶
it ari
M M
ĠÑģÑĤÑĢÐ°Ð½ Ñĭ
ĠÐ¿ÑĢÐ¸ Ð±
ĠÃ© cole
Ġvol ver
Ġdom anda
ĠSec urity
ĠH as
ãĥ³ãĤ ±
ti ert
o ver
Ġto wards
Ġob sz
Ġnecess idade
Ġcresc ita
ĠEr n
ĠComm ission
p d
dor as
Ġens ino
ĠconteÃº do
Ġ198 6
ä¹ ĭ
se y
ion ato
Ġãĥı ãĤ¤
ĠgiÃł u
Ġdecid ed
ĠEnt Ã£o
æ¸ ¬
Ġt ira
Ġl á»įc
ĠSund ay
ãģ® ãĤª
Ð¸ÑĤ ÐµÑĤ
us ias
ĠéŁ ³
ãĥª ãĤ¸
ub bl
on ique
di as
ari um
ķ çĶŁ
ĠÐ°Ð¿ÑĢ ÐµÐ»Ñı
Ġsos titu
Ġmor al
ĠP au
iv as
ing ungen
ĠÅĽwia ta
ĠusÅĤug i
ĠlÃł n
Ġdro p
ĠLis boa
ĠL ok
ĠA ur
Ð¸Ð³ Ð½
ÐµÐ¹ÑĤ Ð¸Ð½Ð³
Å ¡
ra me
Ġpo ch
Ġkomp uter
Ġdis cr
ĠD ach
çī ĩ
ãĤ¤ ãĥ³ãĤ¿
Ð² Ð¸
¯ ãģĦ
ter as
ass in
R l
33 3
Ġï¼ Ŀ
ĠÐ² Ð»Ð¸Ñı
ĠÃģ Ãĭ
Ġsw Ã³j
Ġne igh
Ñĳ ÑĢ
ĠÐ¿Ð¾Ð¼Ð¾Ñī Ð¸
ĠÐ¢ ÐµÐ¿
ĠÃ© to
Ġt esto
Ġinv ent
çĽ® çļĦ
ier ta
Ġp and
Ġme inen
Ġdi o
Ġac t
ĠM áº¹
Ðº Ð°ÑĤ
ri k
ra p
f lex
ON A
Ġtr uyá»ĩn
Ġac id
Ġ\": [
Ġs ott
ĠmoÅ¼ li
Ġinaug ura
Ġb inh
ĠD og
ï »¿
ãĤīãĤĮ ãģªãģĦ
Ð¾Ð¶ Ð½Ð¾
Ìī i
r uck
Ġz az
Ġop Ã§Ã£o
Ġm iddle
Ġad ecu
ĠNue vo
å¹´ åº¦
ĠÑĢÐ°Ð±Ð¾ÑĤ Ð°ÐµÑĤ
ĠÃ¡ r
Ġve ut
Ġpla isir
Ġg usto
Ġeff etti
Ġcos ta
Ġcar ry
ĠSo ft
ĠI G
æĺ ĵ
ãģ®è »
ãģ®æ ĺ
ãģ« åĲĳ
vie ws
v ÃŃa
itÃ¤ ten
Ġvers te
Ġquat re
ĠM Ã¶
åħ «
ãĥĭ ãĥ¥ãĥ¼
Ġæł ªå¼ıä¼ļç¤¾
ĠÐ¾Ñģ Ð²
Ġpar i
Ġfe ch
ĠSu ite
ãĤĤãģ® ãģ®
w ise
ul in
h ua
Ġè¡ Į
Ġå Ĥ
ĠÐ¡Ð°Ð½ ÐºÑĤ
ĠTh emen
ĠH im
ï¼ ¦
èª Į
Ãį Ã¸
r ina
AN C
Ġsvilu pp
Ġrapid ement
Ġdro its
Ġcon ex
Ġb orn
ĠHe im
Ù ĩ
Ð¿ Ð¾ÑĢÑĤ
ow ÄĻ
Ġä»£å¼ķ ä¸įåı¯
ĠÐ¼ ÐµÑħÐ°Ð½
Ġl Ã´ng
Ġcittad ini
Ġb iá»ĩn
Å¼ u
ka tion
ĠÑĢÐ°ÑģÐ¿ÑĢ Ð¾ÑģÑĤÑĢÐ°Ð½
Ġvra i
Ġj Ã³venes
Ġf ach
ĠAb end
è§ ¦
å¯Ħ ãģĽ
w ell
ne x
U V
Ġï¼ ¼
Ġut r
Ġhum or
ĠAd resse
æĬ ĺ
en ch
crip ciÃ³n
arbe iten
Ġp Ã©r
Ġindir izzo
Ġin icio
ĠR icar
á» Ĳ
mar kt
ET R
90 11
ĠÄĲo Ãłn
Ġex pression
ĠTa ille
ĠCON T
ul u
Ġus ado
ĠE E
éĿ¢ çĻ½
ç§ °
re mo
Ġl ots
Ġchocol ate
Ġautor idades
ĠR im
ĠD ream
ĠD L
ĠA zul
u an
j ami
h abil
W D
Ġvis itar
Ġv et
Ġsoll en
Ġs telle
Ġreg ol
Ġprotagon ista
ĠSp raw
ĠDe tails
ãģ£ãģ¦ ãģįãģŁ
l ink
ik er
i ers
ĠÑģÐ¸ÑģÑĤÐµÐ¼ Ð°
ĠÐ¼Ð°Ð» ÐµÐ½ÑĮ
Ġingles e
Ġenfer med
Ġc á»¥c
ĠNuo vo
ĠAr ts
å§Ķ åĵ¡
l ong
Ġåı ¯
Ġreg al
Ġpo za
Ġmed ium
Ġex ter
ĠT C
ĠMe xico
ĠA A
ãĤĤ ãĤĬ
Ð½ Ð°Ð·
W id
Ġéĩ İ
ĠÐ¼ÐµÑģÑĤ Ð°
Ġsc orso
Ġpos ti
Ġl Æ°ng
Ġh ack
Ġbra k
Ġativ idade
ĠWord Press
cz ny
ĠåŁ º
ĠÐ´Ð¾ÐºÑĥÐ¼ ÐµÐ½ÑĤ
Ġpowierz chni
Ġbath room
ãĤ½ ãĥ³
uld ade
h Ã¤
Ġcre ating
ĠIn oltre
éŃ Ķ
ĠÐ¿Ð°Ð¼ ÑıÑĤ
Ġph Ã³ng
Ġmar k
Ġfaz endo
ĠR J
ĠEnts che
ä¸Ń å¿ĥ
liwo ÅĽci
izz ato
g no
ĠÄĲ Ã£
Ġjedy nie
Ġap lik
ĠTra vestis
ĠSch ne
ĠH inter
ĠGi Ã¡m
IT Y
ER C
Ġs ma
Ġk rÃ³t
Ġdr iver
Ġcapac idade
ĠGab riel
ĠÐ± Ð°ÑĢ
Ġnel lo
Ġgaranti r
Ġcon cess
u ite
ou re
Ġqu Ãªn
Ġm ine
Ġf ille
Ġent ren
ĠB uy
Ġ Æ°á»Ľc
ÑĦ Ð¾ÑĢÑĤ
W I
Ġw ÅĤad
Ġtho áº£i
Ġne uro
Ġinterv ento
ĠP apa
Ð¾Ð» Ð¸ÑĤ
ÐµÐ¹ Ñģ
tif y
ĠãģĦ ãĤį
Ġimpres e
ĠH á»į
ä»ķ æ§ĺ
ãģ®æ ¥
z ess
aa aa
11 2
Ġrecog n
ĠTP HCM
ĠNach t
ĠGew inn
ĠDe partment
Ġ19 5
Ã¼ ge
reib ung
re bbero
iti me
T P
Ġpalav ras
Ġguer re
ĠCE O
Ġ13 2
ãĤĴ åĪ©çĶ¨
wier dz
pr asz
ĠÑģÐ²Ð¾ Ð¸Ð¼
ĠmÃ£ e
Ġequip os
Ġdes per
ĠD ub
Ðł Ðĺ
teri ore
let zt
cz Äħ
Ġæķ °
Ġt iro
Ġstart ing
Ġspe ÅĤ
Ġresp ira
Ġmov ing
Ġjou e
Ġd Ãły
ĠU P
ĠRep ly
ĠI ra
ãģ¹ ãĤĭ
Ñı ÐµÑĤÑģÑı
ĠÐ½Ð¾Ð² ÑĭÑħ
Ġdist in
Ġble ibt
Ġ$(" .
ãģ®å¯ ¾
ies en
4 æľĪ
Ġéĩ į
Ġtraba jar
Ġpr eno
Ġexp ans
ĠV Ã¢n
ĠNg Ã¢n
pos te
cia te
Ġãģ ı
ĠÃ© x
ĠÃ¡ l
Ġprop ag
Ġperman ente
Ġmus ique
Ġk Ã¬
ĠgÅĤÃ³w na
ĠN ag
ĠHo je
èĢħ ãģ¯
ul ant
ic ante
aliz ado
ĠÐº Ð¾Ð¿
ĠÐ¡ ÐµÑĢ
Ġmaggi ore
Ġform al
Ġar ia
ĠT etas
ĠM R
ĠC lique
Ð¸Ñħ ÑģÑı
Ã© re
ĠÑĢÐ°Ð·Ð»Ð¸Ñĩ Ð½ÑĭÑħ
Ġgrand s
Ġforma Ã§Ã£o
Ġdess us
Ġac erca
ĠY e
ĠSpe ed
ĠS che
ĠProf es
Ġ:- )
Ġ":[] ,"
ç £
pr Ã¨s
c re
IV O
ĠÐ¿ÑĢÐ¸ ÐµÐ¼
ĠlÃł nh
Ġbis her
åİ ļ
r Ã©s
oth ing
Ġperd ere
Ġnh á»±a
Ġass ur
ĠJose ph
ãĥĥãĥģ ãĥ³
Ð¼ÐµÑĢ Ð¸ÐºÐ°Ð½
ĠãĥĪ ãĥĥãĥĹ
ĠâĢ¦âĢ¦âĢ¦âĢ¦âĢ¦ .
ĠÐ¸ÑģÐº ÑĥÑģ
Ġzapew nia
Ġphys ical
Ġou i
èĩª èº«
ãģĻãĤĭ ãģŁãĤģ
ãģ®å Ģ
ÐµÐ² Ð¸Ñĩ
va it
tu almente
ang ers
Ġåı Ĥ
ĠÐ¿ÑĢ ÐµÐ·Ð¸Ð´
Ġsim il
Ġm Ã¹i
Ġloc ales
ä» ²
Ġgesti Ã³n
Ġaper tura
ĠG á»Ńi
ÅĤ ac
ti ch
jÄħc Äħ
Ġåį ĥ
ĠÐ¼Ð°ÑĤ Ñĩ
Ġrela tion
Ġrela ciones
Ġdesn udas
Ġbeg in
Ġ6 000
ä¸į åĭķçĶ£
ies e
V N
Ġset ting
Ġobs erva
Ġg ays
Ġfeel ing
Ġdi b
Ġ^ )
ĠV erein
ti Ã³
Ġæ ¼
ĠãĤ¹ ãĥŀãĥĽ
ĠÐ½Ð° Ð¸Ð±Ð¾Ð»ÐµÐµ
Ġhealth y
Ġa zione
ĠWe ihna
ĠGr is
ĠA inda
car at
ĠÐºÐ¾Ð½Ðº ÑĥÑĢÑģ
Ġdirec ciÃ³n
Ġcons enti
Ġbr ill
Ġam our
ĠV u
ĠTem po
ĠS es
ĠM iami
åĸ ľ
ia ble
Ġde ine
ĠC Ã¢u
erse y
ZX J
Ġnas ze
Ġgar age
Ġcerte za
Ġb ÅĤ
ui u
tor al
par tement
ow ano
f unk
Ġåı ¤
Ġres erva
ĠnÃ¤ch sten
Ġh ors
Ġf le
Ġcr on
ĠB ib
èº į
Ð¸Ðº Ñģ
ĠÐ¿ÑĢÐµÐº ÑĢÐ°Ñģ
ĠwspÃ³ÅĤ pra
ĠJ ur
Ġ: (
åĪ »
ãģĵ ãĤĵãģª
âĢ ŀ
ĠÐł ÐµÑģÐ¿ÑĥÐ±Ð»Ð¸
ĠÐ´ Ð¾Ð±ÑĢ
Ġse lection
Ġsap ere
ĠprÃ©c Ã©d
ĠCompr ar
ĠCH F
å° ±
r ony
IM A
ĠÑĤ ÑĢÑĥÐ±
ĠÃ© d
Ġwy nika
Ġv ende
ĠlÃł ng
ĠZ uk
ãģ®ç ¨
Ġèª ¿
ĠÐĳ ÑĢ
Ġz ami
Ġv es
Ġto warzy
Ġsolid ar
Ġb b
ĠS ha
ĠCo ach
ï¼ ®
ç· ´
á»Ľ t
Ðº Ð¾ÑģÑĤÑĮ
ut om
ual mente
czy k
11 8
11 5
Ġpot enti
ĠSatur day
ãģĮ ãģĦ
ĠÐ´ Ð¸ÑĢ
ĠrÃ© du
Ġrealiz a
Ġpres entar
Ġobten er
Ġexact ly
ĠdÃ© mar
Ġcampa ign
ĠG Ã©n
ç į
ãĥŀ ãĤ¤
w art
k osten
Ġpar la
Ġen h
Ġdim anche
Ġdigit ale
Ġd icas
Ġcre ative
Ġconsider ed
Ġbeg an
ĠNe ue
Ã³w ka
wn ego
vol ta
6 æľĪ
Ġéĥ ¨
ĠÑģ Ð¾Ðº
ĠÐ¾Ð¿ Ð°Ñģ
Ġstor ies
Ġsprzeda Å¼y
Ġs our
Ġho Ã¡
Ġfuer te
ĠQu Ã¢n
ĠK R
â ī
Ã³ ra
eg e
Ġç ĿĢ
Ġus es
Ġtele fono
Ġre cip
Ġm ant
Ġconc ours
ĠJard im
im as
ł çĶ»
Ġï¿ ¥
ĠÐ»ÐµÐ³ ÐºÐ¾
ĠÄĲ á»Ļ
Ġsp Ã³ÅĤ
Ġline ar
Ġemploye es
Ġdem Ã¡s
ĠTy p
ĠFr Ã¼h
ĠCom b
ä¸Ń ãģ§
ãĤĴ åĲ«
Ð¾Ð» Ð¸
ÐµÐ½ Ð½Ð¾ÑģÑĤÑĮ
Ã¼ g
uch te
ĠÐ½Ð°Ð»Ð¸Ñĩ Ð¸Ð¸
Ġra u
Ġingl Ã©s
Ġh os
Ġbir th
ĠHar ry
ta das
op ol
Ġç ²
Ġsc ore
Ġpur pose
Ġprzy czy
Ġprote ct
Ġoff res
Ġindustr ia
ĠH E
ĠE lec
éĿŀ å¸¸ãģ«
Ð¾ÑģÑĤÐ¾ ÑıÑĤÐµÐ»ÑĮ
est ens
Ġç ¢º
Ġt Ã²a
Ġprofessionn els
Ġpomoc y
æŀ Ĳ
ãĤ¤ ãĥ¼ãĥ«
ãģ« ãģı
ÑĮ Ð¸
Ġra zie
Ġobje to
Ġc ulo
ãģĿãģĨ ãģª
y z
Ġrecon oc
Ġpass ato
Ġcon ci
ĠSo le
ĠO brig
ĠMet all
ĀĀĀĀĀĀĀĀĀĀĀĀĀĀĀĀĀĀĀĀĀĀĀĀĀĀĀĀĀĀĀĀ ĀĀĀĀĀĀĀĀĀĀĀĀĀĀĀĀĀĀĀĀĀĀĀĀĀĀĀĀĀĀĀĀ
ãģĮ ãģ¤
Ð» Ð¾Ð¿
ÃŃ cia
u ÃŃ
Ġt iver
Ġreg alo
Ġpl ante
Ġcomunica Ã§Ã£o
Ġcolum n
Ġasp ectos
ĠÅĽ wiÄĻ
Ġwyd ar
Ġter mos
Ġconosc ere
ĠV AT
ĠEurope j
ä¾Ŀ éł¼
Ð± ÑĥÑĢÐ³
Ã¡n dez
is try
ie fer
an cias
ĠâĢ ²
ĠÑħ ÑĥÐ´
Ġproy ectos
Ġfinan zi
Ġfa il
Ġdis pu
ĠP av
ĠN U
ĠL CD
Ġ":" .
ãģĭ ãģĦ
ãģ§ãģĹãģŁ ãģĮ
ÑĪ ÐµÐ³Ð¾
ycz nie
tam enti
ĠÑĤ ÑĢÑĥ
ĠmÃ© th
Ġinner halb
Ġdi pend
ĠcrÃ© er
Ġch il
Ġav anz
ĠT ran
ãĤ¹ ãĤ«
à¸ £
r iere
imm t
cyj ne
Ġvit am
Ġg war
ĠJ P
ĠEntwick lung
èĪ ŀ
ç¤ ¼
Ð¾Ð»ÑĮ ÐºÑĥ
em at
cri re
c ino
Ġwa it
Ġmay ores
Ġh áº§u
ĠZ ona
Ġ> .
Ġ13 8
Ġ1 x
è² ¬
ra ca
lag s
cr iv
ann te
Ġsu ger
Ġmejor ar
Ġcomp orta
ãĤ ¥
ne as
ia ms
ac jÄħ
ĠÑĥ Ð½Ð¸Ð²ÐµÑĢÑģ
ĠÐ¾ÑĤÐ²ÐµÑĤ ÑģÑĤÐ²ÐµÐ½
Ġr Æ¡i
Ġcali ente
ĠTrans fer
ãĤ¦ ãĤ©
id io
Ġæ³ ¨
Ġá» ¦
ĠÐ¿ Ð°Ð½
ĠÐ³Ð» ÑĥÐ±
Ġprze j
Ġo z
Ġch Ã¡u
ĠPo int
ĠM all
ĠEduc ation
il ability
ĠÑĢÐµÑģ ÑĥÑĢÑģ
ĠÄĳ Ã¡m
Ġwa hr
Ġv m
Ġunderstand ing
Ġnat omiast
Ġimport ance
Ġchau ff
Ñı Ð»Ð¸
ze ch
Ġte k
Ġsolu zione
Ġe yes
ĠN ature
ĠLe hr
ĠC ENT
æİ ¨
ãĥĥ ãĤµ
par k
3 65
10 2
Ġæ ļ
ĠÐŁ Ð¾ÑģÑĤ
ĠrÃ¨ g
Ġdiffer ence
Ġcie p
ĠRe cher
ĠIn nova
ĠBus car
ps on
Ġter enie
ĠC oc
åĪĿ ãĤģãģ¦
icio us
ĠÃ© tant
Ġwy bra
Ġmá» Ŀi
ĠMo Å¼e
æŀ Ĺ
ãģ®æ ¯
Ñĥ ÑİÑĤÑģÑı
Ï Ħ
i ori
W _
4 30
Ġsec teur
Ġrecu er
Ġk u
Ġbi olog
è¨Ī çĶ»
ÐµÐ² ÑĭÐµ
w cy
S h
E Z
Ġth ÃŃ
Ġget s
å¼· ãģĦ
Ġsal ir
ĠrÃ¡p ida
Ġcu p
ĠanÃ¡l ise
ĠFoll ando
ĠCap it
tycz ne
tag s
a e
ĠÐ» ÐµÐº
Ġzosta ÅĤy
Ġl us
Ġest arÃ¡
ĠN ET
éł ĺ
ãĥŀ ãĥ¼ãĥĪ
ãģĭãģ£ãģŁ ãģ§ãģĻ
ãģ«ãģª ãģ£ãģ¦ãģĦãĤĭ
ÑĥÑģ Ð°
us za
et zen
ĠÐ¾Ð±ÑĬ ÐµÐ¼
ĠÐ¼ÐµÑģÑĤ Ðµ
Ġcop y
ĠD ich
æĺł çĶ»
ĠÐĽÑİ Ð±
ĠÐ²Ñģ ÐµÐ¹
Ġv eter
Ġg utschein
Ġeff orts
Ġa ward
ĠSecret aria
ĠL ES
æĭ ł
s ites
o ÅĤ
ĠÐĳ Ð¾Ð³
ĠÐº Ð³
ĠÄĳá» ¡
Ġser ÃŃa
Ġinvesti mento
Ġfoll ar
ĠTra ining
ĠP ri
ãĤīãĤĮ ãģ¾ãģĻ
og l
ĠÑģÐ¼ Ð¾Ð³
Ġcamb iar
Ġbeh av
Ġb ureau
ĠRe port
ĠNgh á»ĭ
ĠN eben
ãĤ¨ ãĤ¢
Ð¾Ð´ Ð°ÑĤÐµÐ»ÑĮ
y b
e ver
Ġä¸Ģ èĪ¬
ĠÃĸ sterreich
Ġparam et
Ġf ro
Ġdes emp
Ġconten ido
Ġapar ece
ĠH uawei
äºĭ æķħ
z ando
qu ent
p ir
g ot
Ġtex te
ĠS ÃŃ
anc ement
ag ine
T ON
ĠÑģ Ð¾Ñģ
ĠÐĺÐ½ÑĤÐµÑĢ Ð½ÐµÑĤ
ĠÐ¿ÑĢÐ¸Ð½ ÑĨÐ¸Ð¿
Ġzak ÅĤad
Ġso f
Ġpas ta
Ġi b
Ġhá»Ļ p
Ġde utlich
Ġd inh
Ġ18 5
Ġ$ .
ãĤ± ãĤ¢
á»ī nh
it re
Ġz au
Ġsch a
Ġsac ri
Ġpres entes
Ġof ic
Ġob en
Ġch Ãłng
Ġbrasile iro
ãģĮ ãģ§ãģįãĤĭ
Ò ĳ
ycz nego
va is
ows ka
ik at
ĠÐ¾ÑĤ Ð¼
Ġgeb ra
Ġex cl
Ġconse ils
ĠP onte
ĠIM P
ĠI C
Ġ= ==
ï¿ £
ï¼ ¿
ãģĹãģ¦ãĤĤ ãĤī
ãģ®æ ±
Ð¾Ð¼ Ð°ÑĤ
Ð°Ð»ÑĮ Ð½ÑĥÑİ
l ungs
Ġquo tid
ĠM ias
ĠLie be
ĠFam ily
Ġ14 9
ï¾ Ŀ
r esso
ong o
Z T
Ġä»Ĭ æĹ¥
Ġve h
Ġma tiÃ¨re
Ġlib erta
Ġin n
Ġimport Ã¢ncia
Ġal leg
Ñĭ ÑģÐ»
ĠÑĢÐ°Ð· Ð³
ĠmÃ¶ chten
Ġl ut
Ġcons ole
Ġco ordin
Ġan uncia
Ġad icion
ĠR U
ĠC ort
æĶ »
åĩº ãģĻ
ãĥĥ ãĥĦ
Ð» Ð°Ð¶
Ð¸Ð· Ð²Ð¾Ð´
u ed
omo ÅĽÄĩ
og hi
iste mi
ig keiten
ar Ã¡n
B o
Ġî Ģ
Ġãĥķ ãĥŃ
ĠprÃ³xim os
Ġbec ame
ĠE co
ĠChic ago
Ġ03944 72
ik es
ĠéŁ ĵåĽ½
Ġä»Ĭ æĹ¥ãģ¯
Ġht m
Ġat endimento
ĠBewert ung
ç¶ Ļ
g b
ĠÑģÑĤ Ð°Ð½Ð´Ð°ÑĢÑĤ
Ġsu je
Ġchallen ge
ĠTou ch
æ£ ļ
um er
ĠÑĢÐµÐ·ÑĥÐ»ÑĮÑĤ Ð°ÑĤ
Ġtrabal hos
Ġph áº¡t
Ġpar ler
Ġaff ord
ĠL icht
ĠCo vid
ãģı ãĤĮãģŁ
Ã³ re
yw id
ĠÃ© po
ĠwzglÄĻ du
Ġprodu ktÃ³w
Ġch áº·t
Ġ ãģ§ãģ¯
un ti
ti ers
iz in
Ġæ £
ĠÐ± Ð¸
Ġoffer ing
Ġdoma ine
Ġd ll
Ġb od
Ġass urance
ĠFre und
ĠCh rome
ĠB ru
us ed
du al
ĠÐ°Ð²ÑĤÐ¾Ð¼ Ð°ÑĤÑĭ
Ġwyk ony
Ġwh e
Ġt endo
Ġrisulta to
Ġmar che
Ġinc en
ĠV iel
Ġ24 h
æĿ¡ ä»¶
ãĥī ãĤ¢
na ire
Ġmatr imonio
Ġel Ã©c
Ġcomunica ciÃ³n
Ġba Ã±o
Ġb á»Ļt
to ff
_ col
ĠÐµ Ð¶
ĠÐ± ÑĥÐ¼
Ġpoli tical
Ġopportun ities
Ġg ave
Ġfil oso
ãĤ³ ãĥĶãĥ¼
Ð°Ð² Ð°ÑĤÑĮ
el h
ĠÐĺ ÑĢ
Ġpod rÃ³Å¼
Ġje Å¼eli
Ġdev ices
ĠSal on
ĠAir port
Ġs ust
Ġble iben
ĠPolÃŃ tica
Ġ) ãĢģ
åĪĨ ãģĳ
ãģĦ ãģ£ãģŁ
ãģ® å®Ł
Ð¾Ð» Ñİ
Ð¢ ÐĲ
dr uck
ĠÐ´Ð¾ ÑħÐ¾Ð´
ĠÄĳá» £i
Ġzm ien
Ġur gen
Ġt aux
Ġparticip antes
Ġinter m
ĠVir gin
ĠR h
ĠPÃºbl ico
ĠPag ina
ĠEU A
ĠÑĢ Ð¸ÑģÐº
ĠÐ¡ Ð»
Ġvag as
Ġs ali
Ġparti da
Ġnombre uses
Ġindividual s
Ġhom ens
Ġfl ores
Ġaper to
ĠS itz
ĠD id
ĠBl ock
Ġks iÄĻ
Ġges am
ĠV ida
ĠE vent
æļ ®
or f
ie la
C ontent
Ġutiliz zare
ĠO M
ĠBa um
Ġ á»ĳng
ãģ® ãĤ«
tel ier
anc ing
ĠÐ´ÐµÐ¹ÑģÑĤÐ² Ð¸Ñı
Ġph Æ°á»Ŀng
Ġparticipa Ã§Ã£o
Ġal ert
ĠPor que
åĪ º
ãĥŀ ãĥ³ãĤ·ãĥ§ãĥ³
Ð¿Ð¾Ð» Ð°Ð³
ĠÑĢ ÐµÑĩ
Ġver a
Ġstu ff
ĠdÃ³l ares
Ġang lais
ĠNgh á»ĩ
ĠC RE
Ġ2014 å¹´
Ġ2013 å¹´
Ð°ÑĢ ÑĥÐ¶
ĠÃ¼ bers
Ġpor Ã©m
ĠD oll
ich tet
bez pie
ĠÐ¸Ð½Ð´ Ð¸Ð²Ð¸Ð´Ñĥ
Ġf og
Ġes as
Ġdev ido
ĠL ors
ä½į ç½®
Ã¢ Ìģt
Ġznale ÅºÄĩ
Ġp iso
Ġleg g
Ġfield s
Ġcom ida
ĠPrin cip
ç¤º æĿ¿
ãĥĭãĥ¥ ãĥ¼ãĤ¹
Ð± Ñĥ
f Ã¤l
f Ã¤h
Ġæ ¡
ĠÃķ Ã¢
Ġrelated posts
ĠStra ÃŁe
ĠSal ud
çĽ £
ãĥĵ ãĥ¼
áº³ n
ÐĽ ÐĲ
tw ort
ci ous
ĠÐ¿Ð¾Ð½ ÑıÑĤ
ĠÐ²Ñĭ Ð´ÐµÐ»
Ġmainten ance
Ġlo ja
Ġgi áº£ng
Ġdom enica
Ġcal cio
Ġb iblio
Ġaff aires
ĠT ick
ĠM ostra
ĠIndi an
ãģ» ãģ¨ãĤĵãģ©
ub er
it ure
ade k
ĠÅĽrod ow
Ġwi kipedia
Ġvend re
Ġsu ficiente
Ġsle ep
Ġp ista
Ġinvest ment
ĠF ly
æľ º
te ile
ir se
ĠÐ¼ ÐµÐ±
Ġw nios
Ġj ornal
Ġb ieg
Ġag u
ĠV ent
ĠK Ã¶rper
ĠBre ak
ĠB ett
ãģķãģĽãģ¦ ãģĦãģŁãģł
ĠåĪ ¥
ĠÐ¾Ð± Ð½
Ġth Ã¡c
Ġsp ir
Ġjob s
Ġign or
ĠNÃ¤ he
ĠE tiquetas
ãĥī ãĥ«
ãĥ¼ãĤ¹ ãĥĪ
ãĤ¸ ãĤ¢
j ada
ifica zione
ar em
P h
17 0
Ġt ess
Ġpyt anie
Ġmar i
ĠPerform ance
Ġ13 4
Ġ13 3
éģ ħ
ãĥĪ ãĥĬãĥł
ter ia
ja ja
ĠÐ°Ð¿ Ð¿Ð°ÑĢ
Ġsam ym
Ġpor Ã³w
Ġk ul
Ġgu itar
Ġbe auty
ĠVis ualiz
ĠF ili
Ġ12 1
æŃ ¯
Ãĥ Ãĩ
re iche
enta i
ĠÑĢÐ°Ð¹ Ð¾Ð½Ð°
Ġr á»«ng
Ġdzie cka
Ġcomm entaire
ĠBÃ¼r ger
çµ µ
ãģ£ãģ ½
Ġter me
Ġna zw
ĠgehÃ¶r t
Ġfor ni
Ġdovre bbe
Ġdar f
ĠTo Ãłn
ĠPro m
ĠEs sen
z ano
Ġza hl
Ġs Æ¡n
Ġrestaur ants
Ġform ul
Ġco Ìģ
Ġassocia ted
ä¾¡ åĢ¤
ãģĦ ãģ¾ãģĽãĤĵ
âĢ ķ
r t
M eta
ĠÑįÑĦÑĦ ÐµÐºÑĤ
ĠÐ¶ÐµÐ» ÐµÐ·
Ġreg istr
Ġper mit
Ġnut zen
Ġk á»ĭp
Ġinc id
Ġh Ã¨
Ġequ ival
Ġcons omma
ĠOdpowie dz
ĠEr folg
ĠCON S
Ð³ ÐµÐ½ÑĤ
k cje
Ġpro tes
Ġde mo
ĠczÅĤ on
Ġas ocia
ĠN atal
ĠCh el
s zÄħ
p it
Ġè¶ ħ
Ġv ot
Ġsk Ã³r
Ġsce gliere
Ġre ve
Ġper to
Ġer z
Ġar tif
ĠH oll
Ġ ã
v b
rit ten
Ġt ube
Ġhel fen
Ġgef unden
Ġesc al
Ġdeliver y
ĠMuse o
Ġ198 5
çĹħ éĻ¢
ÃŃt ulos
tycz nie
que te
lep iej
ON T
Ġæľ¬ å½ĵãģ«
Ġnoss as
Ġcom um
ÑģÐº Ð¾Ð¼Ñĥ
Ðł Ñĳ
ze uge
owy mi
b ÄĻd
ĠÑģÐ² Ð¾Ð±Ð¾Ð´
Ġt ang
Ġkh áº³ng
Ġh áº£i
ĠPh an
ãĥĪ ãĥ«
ud ia
ĠÑĤÐ¾ÑĢ ÑĢÐµÐ½ÑĤ
ĠSp ra
ĠD ere
ĠnÃ©cess aire
Ġide e
Ġbusiness es
Ġalterna tiva
ĠReg ione
ĠCh am
ĠC uc
çĸ ĳ
izz are
is tico
3 60
Ġç ±³
ĠÐ¼Ð» Ð½
Ġs ÅĤuÅ¼
Ġlo an
Ġdni u
æģ ¯
ãģ¨æĢĿ ãģ£ãģ¦
Ã©ri as
p ers
fe hl
Ġnad ie
Ġfacil mente
Ð² Ð°Ð»
Ãĥ Ã±
ĠãĤ¦ ãĤ§
Ġtá» ı
Ġtre m
Ġp oni
Ġoportun idad
Ġn igdy
Ġecon Ã´m
ĠVenez ia
ĠJ as
ãĥ³ãĥ ŀ
z gl
arbe itung
ĠÐ£ Ñĩ
Ġsytu acji
Ġb oc
ĠS ale
ĠP ut
ĠO C
ĠLeg gi
ĠH os
ĠC et
ãĥ¯ ãĥ¼
est es
ĠÑģÐµÑĤ Ð¸
ĠÐ³ÑĢÑĥÐ¿Ð¿ Ñĭ
ĠÐ³Ð¾Ð» Ð¾Ñģ
Ġterra in
Ġsur round
Ġeconom ic
ĠL ittle
ĠCh ambre
éļ Ĭ
éģ ¿
o ce
OM E
ĠÄĳá»© a
Ġproto col
Ġg ed
ĠY outube
tr Ã´n
ol ic
en Ã§as
du ra
10 11
ĠÐ½ÐµÐ´ Ð¾ÑģÑĤ
Ġtip s
Ġr ural
Ġalc anz
ĠQu elle
ĠPl as
j ado
Ġè² ©
Ġtra dy
ĠszczegÃ³ÅĤ owo
ĠAn th
åĩº ãģ¦
ãĥ¬ ãĥĻãĥ«
tu red
sch utz
ĠâĢĭ âĢĭ
ĠÑĢÐ°Ð·Ð¼ ÐµÑī
Ġimp lement
Ġcam inho
Ð°ÑĤÑĮ Ñı
O i
Ġè¿Ķ ä¿¡
ĠÐ´ ÐµÑģÑı
Ġseu le
Ġme xic
Ġjed no
Ġi hnen
ĠLe ather
Ġ14 4
âĸ ł
Ñĭ Ð½
rit er
99 9
ĠÑĩ ÑĤ
ĠÐ·Ð°ÑĢ Ð°Ð±Ð¾ÑĤ
Ġrespe ito
Ġre uni
Ġmá» «ng
Ġman os
Ġj ack
Ġdr ink
ĠM ang
ĠGer man
Ġ4 000
li fe
erd Ã¬
ĠÐ¿ÑĢÐ¾ÑĨ ÐµÐ´
ĠÐ±ÐµÐ·Ð¾Ð¿Ð°Ñģ Ð½Ð¾ÑģÑĤÐ¸
Ġah ÃŃ
áº ¦
Ð°Ð»ÑĮ Ð½Ð¾Ð¼
mb ito
ĠÐŁ Ð¾Ð¼
ĠÄĳ Æ°Æ¡ng
Ġon g
ĠCh ia
Ġ? ,
x l
P I
ĠÐ´ ÐµÐ¼
Ġtre in
Ġb ols
ĠM uy
æ± ł
er ma
al na
ĠÑĢÐµÑĪ ÐµÐ½Ð¸Ñı
Ġv ital
Ġpie di
ĠH OT
Ġ198 7
Ġ16 8
æĤª ãģĦ
Ìĥ ng
iÄĻ k
ĠÐºÑĢ ÐµÐ¿
Ġinicia tiva
Ġcap ire
ĠF ak
ãģ«å¯¾ ãģĻãĤĭ
itt ing
en cie
bb bb
Ġth áºŃn
Ġs ze
Ġres posta
Ġcabe za
ĠV oll
ĠE ing
ĠÑĢÐ°Ñģ ÑħÐ¾Ð´
ĠÐ¿ÑĢ Ð¸ÑıÑĤ
Ġsho es
Ġpor nos
ĠVic toria
ĠBu ild
ĠB Ã©
åº ķ
ãĥ³ãĥ ľ
ha ft
chl uss
Ġide ia
Ġhi jos
Ġex ac
ĠcaÅĤ kow
Ġ":[ "
Ð°ÑĤÐ¾ÑĢ Ð°
tit ut
ĠÐºÐ¾ÑĤÐ¾ÑĢ Ð¾Ð¼
Ġtrabal har
Ġsp lit
Ġsp ia
Ġris que
Ġmu estra
Ġj az
ĠSta ti
ĠK s
ĠCer ca
IG HT
Ġrelacion ados
ĠAc tiv
åı¯èĥ½ ãģ§ãģĻ
ãĤĴ åıĸ
ãģĿ ãĤĵãģª
Ã©r cio
Ġph Ãº
Ġinter view
ĠP y
ĠFe ed
ãĤ¦ãĤ§ ãĤ¢
ÐĲ ÐĹ
Ðº Ð¾Ð²Ð°Ð½
iglia mento
al nie
ac in
ĠÐ¢ ÐµÐ»
Ġpo ka
Ġnego cio
Ġmin istre
Ġkh á»§ng
Ġbenef it
ĠO stat
ĠLu ft
ĠB D
èį ī
ãģ®å İ
ãģ® æĸ°
oss ier
ec imento
P art
Ġmin or
Ġlib ros
Ġcom mento
Ġacc ue
ĠSuper ior
ĠG ir
ĠC OV
ĠBit te
ĠB 00
ĠAcc ord
z ony
Ġo x
Ġbez poÅĽred
Ġan uncios
ĠGiuse ppe
éĤ £
ç¸ ¾
r and
f ri
P a
ĠðŁ Ĵ
ĠÑģÐ» Ð¾Ð²Ð°
ĠÐ²Ñĭ Ð´
Ġf Ã¡
Ġab ra
ĠPal ermo
ãģ® ãģªãģĦ
Ð½Ð¾Ð² Ð°
op a
ma in
ica ta
ibil idade
ar ki
ĠÐ´Ð¾Ð»Ð¶ Ð½Ð°
Ġthem e
Ġre forma
Ġniez wy
Ġimag ens
ĠBer l
ãĥ¬ ãĥĥãĥī
ãģ ĩ
ÐµÐ³ Ð¸ÑģÑĤÑĢ
Ð°Ð½ ÑĮ
ĠÑĢÐ°Ð±Ð¾ÑĤ Ð°ÑĤÑĮ
ĠÃ©l Ã©
Ġsal va
Ġfor o
ĠS ed
ĠGr igio
ĠD F
Ð½Ð¸Ðº Ð¾Ð¼
tag em
kow ie
ges amt
C olor
5 æľĪ
Ġqu ang
Ġpreoc upa
Ġpok er
ĠW C
ĠV ier
ĠJ ag
ĠCent rum
Ġ(" #
åĬ Ł
m ino
Ġtet onas
Ġre ch
Ġpoder ia
Ġfe ita
Ġein s
Ġc ima
Ġban ca
Ġanti cip
ĠLy on
Ã¡n d
con i
AD OS
Ġtel Ã©fono
Ġmanten er
Ġdo ivent
ĠR oss
ĠPol ize
ĠK iedy
N Ã£o
AD E
7 æľĪ
ĠÑĦÐµÐ²ÑĢ Ð°Ð»Ñı
ĠÐ²Ñĭ Ð²Ð¾Ð´
Ġpro tÃ©
Ġmass imo
ĠZuk un
ĠSpr ing
ĠSingap ore
Ġ5 cm
ãģ®å ¸
ĠÐļ Ð»
ĠÃ©ner gie
Ġlo áº¡t
Ġgo als
ĠBle u
ĠA K
çĶŁ ãģ¾
ç¶ļ ãģį
Ð¸ÑĤÐµÐ»ÑĮ Ð½ÑĭÑħ
ta ger
ied en
f rage
ab eth
ĠÑģÑĤ ÐµÐ½
Ġfor Ã§a
Ġest es
ĠTod as
ãģ® ãĥĳ
ÑİÑī Ð¸Ðµ
onav irus
nar od
\\\\\\\\\\\\\\\\ \\\\\\\\\\\\\\\\
J O
2 40
1 æľĪ
Ġï¿½ï¿½ï¿½ï¿½ï¿½ï¿½ï¿½ ï¿½
Ġå¤ ı
Ġjed em
Ġed y
ĠThá»§ y
ĠMon itor
ĠCh or
IV A
B e
ĠpÃºbl icas
Ġn á»£
Ġl iá»ĩt
Ġan ty
ĠDies es
æ°Ĺ ãģ«
ãĥ¼ãĥį ãĥĥãĥĪ
ãĥ¼ãĥª ãĥ³ãĤ°
ãģĮ é«ĺ
Ð¸Ð· Ð°ÑĨÐ¸Ð¸
ra to
Ġset or
Ġmu cha
Ġbr ut
ĠR C
ĠH Æ°Æ¡ng
ĠA rea
æĻĤ ãģ¯
ãĥŃ ãĥ¼ãĥ³
ãĥ¼ãĥ Ļ
ÐµÐ² Ð¾
sto ff
G T
ĠåĬ ł
ĠÐłÐ°Ð· Ð¼ÐµÑĢ
ĠÃ©v Ã©n
Ġrequ er
Ġmal atti
ĠSu pre
ĠC zas
Ġ%) ,
ĠÐ³ ÑĢÐ°ÑĦ
ĠrÃ© ponse
ĠpÃ©ri ode
Ġproxim itÃ©
Ġf este
Ġarr iva
ĠO B
ĠEng land
ur u
ow od
it ag
ica te
30 3
Ġé¦ Ļ
ĠæĢ Ŀ
Ġ} ;
Ġtá» Ŀ
Ġor al
Ġnh áº¥n
Ġden uncia
Ġbas is
ĠB ardziej
Ġ48 95
---------------- ----------------
Ġnot es
åį ļ
ãĤīãĤĮãģ¦ ãģĦãĤĭ
Ġw inter
Ġtemper atur
Ġt Ã¢n
Ġstr umenti
Ġprojet s
Ġat tem
Ġann ivers
ĠProvin cia
Ã¼ck en
to k
m V
an al
ĠÐŁ Ð»
Ġlo ved
Ġk orzyst
Ġfaz em
Ġconcern ant
ĠX in
ĠVer anst
ĠHÃ¶ he
ĠC á»Ļng
ze itig
wes ome
id el
ĠÑĦ Ð¾ÑĢÑĥÐ¼
ĠÑĤ Ð¾Ð¼Ñĥ
Ġth áº£i
Ġc ores
Ġac co
ĠU ng
Ġ3 40
Ġ198 4
Ġãĥģ ãĥ£
Ġwy pad
Ġpost ÄĻp
Ġoportun idade
Ġm igra
Ġda ÃŁ
Ġcol lege
ĠA I
åĸ¶ æ¥Ń
Ġæ² ĸç¸Ħ
ĠÐ¿ÑĢÐ¾Ð±Ð»ÐµÐ¼ Ñĭ
ĠÐ´Ð°Ð½ Ð½ÑĭÐµ
Ġver wend
Ġprof und
Ġm áº½
ĠW ay
ĠCh ico
çĿ £
ãĤ¢ ãĤ¯ãĤ»
Ġwe ather
Ġtras fer
Ġpriv acy
Ġenerg ÃŃa
Ġen reg
Ġc ards
Ġau prÃ¨s
Ġadministra tion
ĠCas tell
° ãĤĬ
ĠÑĥ Ð²ÐµÑĢ
ĠÑĤÑĢ ÐµÐ½
ĠÐ¼Ð½Ð¾Ð³ Ð¸Ðµ
Ġw ild
Ġph arm
Ġin nymi
Ġde ad
Ġappropr iate
Ġa tac
ĠMod ell
ĠMar zo
åĦ Ħ
Ð°Ð¼ Ð¸Ð½
44 0
ĠÑĨ ÐµÐ»ÑĮ
Ġtr Äĥm
ĠV A
ĠSol ar
a j
Ġãĥŀ ãĤ¤
Ġãģ¨ è¨Ģ
ĠÑĩ ÐµÑĤÑĭ
Ġs ources
Ġprof ile
Ġpe ux
Ġb á»¯a
Ġassic ura
Ġac ciÃ³n
ĠOg gi
ĠM AS
ĠBra z
Ð¿ Ð¾Ð½
acyj ny
O r
' '
ĠÑĢÐ°Ð· Ð±
Ġsam edi
Ġrealiz ada
Ġr endre
ĠkW h
Ġhi jo
Ġar res
Ġaplic Ã¡vel
Ġameric ano
Ġacc ommod
ĠR ady
ĠÐ´Ð¸Ð· Ð°Ð¹Ð½
ĠÐ²Ð¾Ð·Ð´ ÑĥÑħ
Ġth Ã´n
Ġr uss
Ġpartic ulier
Ġfran Ã§aise
ĠV inh
c ore
AC T
ĠâĤ¬ ï¿½
ĠâĢ¦ âĢĿ
Ġuse ful
Ġpr ost
Ġeduc aciÃ³n
Ġapp li
Ġal red
ĠPel iculas
ĠKho a
ĠH TML
çĻ ¾
ro up
Ġæ¶ Ī
Ġtele f
Ġpour ra
Ġimp uls
Ġconstruc ciÃ³n
Ġc oraÃ§Ã£o
Ġas col
ĠVend ita
ĠPol o
ĠA ten
åı Ĭ
ãģĶãģĸ ãģĦãģ¾ãģĹãģŁ
Ð¿Ð¸Ñģ Ð°Ð½Ð¸Ðµ
uc o
i tions
ach en
ĠÑģÑĤ ÑĢÑĥÐºÑĤ
Ġs ki
Ġfin ancia
Ġd wie
Ġar bit
Ġac ciones
ĠS yl
Ġ14 7
ve ux
Ġæ® ĭ
ĠÑĢÐ°Ð· Ð½ÑĭÑħ
Ġperson ali
ĠX ia
ĠP OS
ãĥŃ ãĥĥãĤ¯
owane j
_ W
ĠÑĢÐ°Ð·ÑĢ ÐµÑĪ
ĠÐ¾Ð± Ð½Ð¾Ð²
Ġw ier
Ġv ere
Ġnature l
Ġmet ri
Ġim Ã¡genes
Ġcade au
ĠM AG
ãģ§ãģį ãģŁ
un sch
Ġswo jego
Ġre pu
Ġend ro
ĠTra ck
ĠTe chnik
è¨Ń ç½®
ç¾ ¤
åĪ ¸
un as
tr al
id amente
en ger
aliz a
ĠÑģÐµÐ½ÑĤ ÑıÐ±ÑĢÑı
Ġur b
Ġimmag ine
Ġalgu Ã©m
ĠRicar do
å§ ¿
ãĥĨãĤ£ ãĥ³ãĤ°
Ã¨ les
pro gram
ON S
ĠÐ£ Ð´
Ġtr á»¥
Ġpl antas
Ġj Query
Ġfac cia
Ġdi ritti
Ġd at
Ġcompar til
ĠCon ocer
Ġ15 2
b ies
Ġtr á»«
Ġries go
Ġreg ionale
Ġng uyá»ĩn
Ġnenh um
Ġmai ores
Ġappr Ã©
ĠPr ice
ĠD ue
ç± į
áº¥ c
Ð¸Ð± Ð»Ð¸
l ado
X L
T he
ĠÑĥÑĩÐ°ÑģÑĤ Ð¸Ðµ
ĠÑģÐ¾Ð² ÑģÐµÐ¼
Ġrev ista
Ġpierws ze
Ġos c
Ġf ill
ĠdziaÅĤal noÅĽci
Ġb aix
ĠCan on
ĠAn tes
ç« ł
ãģ¯ ãģĤãĤĬãģ¾ãģĽãĤĵ
plo y
Ġexist ing
Ġdec reto
Ġd re
Ġcons ta
Ġa x
ĠX S
ĠRo om
ãĤĵãģ§ãģĻ ãģĳãģ©
p ath
ĠÑģÐ¾Ð¾ÑĤÐ²ÐµÑĤÑģÑĤÐ² Ð¸Ð¸
Ġped ir
ĠL iste
Ġg ing
Ġer war
Ġd á»ĭp
Ġcor rup
ĠS F
ĠL S
ĠEdu ardo
ĠDes en
ĠChe f
Ġ390 9011
åĪĨ é¡ŀ
åĪ¤ æĸŃ
ãģ©ãģĨ ãģĭ
ÐµÐ½ Ð½ÑĭÐ¼Ð¸
ar ma
ĠÑģÐ¼ Ð¾Ð¶
ĠÐºÐ°ÑĩÐµÑģÑĤÐ² Ð°
Ġucz ni
Ġkhu Ã´n
Ġgi ro
Ġat ti
ud es
ĠÑĥÐ´ Ð¾Ð²
Ġl ines
Ġin qu
Ġb og
Ġanalis i
ĠUp date
o ff
m ont
US T
ĠÐĲÐ»ÐµÐºÑģÐ°Ð½Ð´ ÑĢ
ĠÐ¾Ð± ÑģÐ»ÑĥÐ¶
ĠÄ ĩ
Ġum o
Ġquad ro
Ġjed nej
Ġinfl uen
Ġh Ã©
Ġcod ice
ĠS ua
( ^
ī nh
ĠÐºÐ¾Ð½ ÑĦ
Ġsupp ly
Ġp ani
ĠTamb Ã©m
ĠPros titutas
ĠDevelop ment
p an
ast ÄĻp
Ġè Į
ĠÐ¼ Ð¾Ð±Ð¸Ð»ÑĮ
ĠÄĲá»ĭ nh
Ġz aczy
Ġmet tere
Ġh áº£o
Ġconc urso
ĠR ing
éĢģ ãĤĬ
g or
ci fica
Ġèħ ķæĻĤè¨Ī
ĠÑĢÐµÐ·ÑĥÐ»ÑĮÑĤ Ð°ÑĤÐµ
Ġris c
Ġqu artos
Ġpremi um
Ġfil ho
Ġele va
Ġd l
Ġcho isir
Ġbro wser
áºŃ c
ue ves
is Ã©s
ĠÑįÑĤ Ð°Ð¿
ĠÑĤ ÐºÐ°Ð½
Ġya hoo
ĠvÃ© hic
Ġpra wie
Ġgratu ite
Ġf ala
Ġdem anda
ĠInde pend
è¿½ åĬł
ÐĿ Ð«
zy ÅĤ
y en
Ġæĸ° åĵģ
ĠÑģ ÐµÐ»ÑĮ
Ġzgod nie
Ġreg ime
Ġfoto gra
Ġam er
ĠT ages
ĠGi áº¥y
ĠD ien
ĠAbr il
tu e
ter Ãł
ET E
Ġsystem u
Ġmu erte
ĠWar to
ĠFrank furt
ĠD IA
» å®ļ
be i
are z
Ħ ª
Ġvend redi
Ġtu vo
Ġprac ÄĻ
Ġng ang
Ġdo ÅĽÄĩ
Ġdel es
Ġcompr as
ĠCom pos
Ġ4895 150
å¦ »
lig a
ĠÐ¿ÑĢÐµÐ´ ÑĥÑģ
ĠÐ°Ð² Ð¸
Ġde utschen
ĠL auf
ĠL amp
ĠAn twort
sz cz
col are
J l
AND O
ĠÐ½Ð°Ñĩ Ð°Ð»Ð°
ĠsiÃ¨ cle
Ġs ot
Ġrodza ju
Ġlle va
ĠConse il
ĠAS S
Ġ) ))
Ġ ÅĤÄħcz
ãĥ¡ ãĥ¼ãĤ«ãĥ¼
ĠPi ano
u ille
tow ego
ĠÐ²ÑĭÐ± ÑĢÐ°ÑĤÑĮ
Ġre mar
ĠprÃ© v
Ġd Æ°
Ġcent rum
Ġben Ã¶
ĠG ot
ĠChin ese
Ġ19 60
qu ant
ĠSeg Ãºn
ĠK enn
Ñĭ Ð´
omm t
Ġpel ÃŃculas
Ġcresc imento
ĠTra in
ĠÐ¾Ð´ Ð½Ð°
Ġnow oczes
Ġcomunica zione
ur ts
ar ra
ank en
L AN
Ġæ ŀ
ĠÐ¼Ð¸ÑĢ Ðµ
Ġtemper ature
Ġf elt
Ġbu á»ĵn
Ġapp o
ĠProfession al
ĠE asy
ĠCar lo
ter min
pr ire
Ġæķ Ļ
ĠÐł Ð°Ð±Ð¾ÑĤ
Ġwe j
Ġr s
Ġn áº¥u
Ġmot her
Ġmod alitÃł
Ġeff etto
ĠT ier
ĠEro ticos
ĠE ink
ĠAp Ã³s
bl r
ĠÐ¼ Ð°Ð¼
ĠÐ±Ð¾Ð» ÐµÐ·
Ġstud enti
Ġso cio
Ġcou leurs
Ġcaratter istiche
ĠSe ine
ĠRun ning
ĠD ell
ĠAd ap
ç¨® é¡ŀ
åĲį åīį
ÅĤ aty
i us
at re
IC OS
ĠrÃ© un
Ġop ciones
Ġein zel
Ġab us
ĠP isc
ĠC app
å°Ĥ çĶ¨
ãĥĥãĤ« ãĥ¼
ãĤ½ ãĥķãĥĪ
owa Å¼
it amente
AM E
Ĥ à²
Ġæ ĭ
ĠÑģÐºÐ°Ð· Ð°Ð»
Ġnum Ã©ro
Ġlud zie
ĠE qu
ãģĦãģ¦ ãĤĤ
ent lichen
de aux
an cio
am or
_ de
Ġvis ible
Ġuffici ale
Ġdeg ree
Ġco che
ĠciÄħ gu
ĠS telle
ĠPab lo
ç¾İ åĳ³
Ã¨ de
g ica
ed ere
Ġvers Ã£o
Ġtak a
Ġoffer ed
Ġngh Ã¨o
ãĥĪ ãĥĥãĥĹ
ãĤ· ãĥ¥
Ð°Ð´ ÑĮ
ve u
re al
pie za
at ung
ĠÑģÐµÑĢ ÑĮ
Ġt ec
Ġfamil ies
ĠM iesz
ĠB em
ĠB Y
Ġ áº¤
ãģĭ ãģ£ãģ¦
z enta
Ġsie te
Ġmat in
Ġl ands
Ġho ver
Ġeing es
Ġca che
ĠV W
ĠT ake
Ġ25 6
å¤§ åĪĩ
ãģªãģı ãģ¦ãĤĤ
ÐµÑħ Ð½
ÅĤe ÅĽ
ts chafts
ff et
ac idad
ĠÐ¼ Ð¸ÑĢÐ¾Ð²
ĠÐ¼ Ð°Ð½
ĠzwiÄħz ku
Ġw oman
Ġs ost
Ġnas ce
Ġforma ciÃ³n
Ġfac tor
ĠX IX
ĠV ari
ĠUns ere
ĠRuss ia
ĠAb y
å£ Ĭ
ãĤĤãģ® ãģĮ
ãĤ· ãĥ¼
ãģĤ ãģ¾ãĤĬ
Ð¾Ñĩ Ð½Ð¾Ð¹
Ġent ram
Ġb ande
ĠMan chester
ĠHist oria
ãģĶ ãģ¨
Ä ģ
ze iten
w eb
n acz
int endo
Ġå ¦
Ġna o
Ġcon den
Ġcl as
Ġbe le
ÃĴ Âµ
Ã¢ teau
ws ka
Ġsoddis f
Ġosp iti
ge hen
ĠãģĿ ãģ®å¾Į
ĠÐ¿ Ð¾Ð¿ÑĢ
Ġw ak
Ġpa id
Ġens uite
ĠCas as
ĠA ve
iss es
al te
acyj nych
Ġæ ¤ľ
ĠÐ¿ÑĢ ÐµÑģÑĤ
ĠÐ» ÐµÑģ
ĠÃ´ n
Ġopin ie
Ġl undi
ĠT own
ĠK y
Ġ8 88
ï¼ ¾
è± Ĩ
Ãĵ W
» Ħ
za te
m are
as in
ĠÞ ī
Ġv iá»ĩt
Ġro wer
Ġproje kt
Ġba ja
ÑģÑĤ Ð°
ks on
Ġè¡ ¨
ĠÐ½Ð¾Ð² Ð¾ÑģÑĤÐ¸
Ġsk Ã³ry
ĠWill iams
ĠJ ones
ĠF S
å¿ Ĺ
á»³ nh
ĠÐŁÑĢÐ¾Ñģ Ð¼Ð¾ÑĤÑĢÐ¾Ð²
ĠÐ¿ÑĢÐ°ÐºÑĤ Ð¸ÑĩÐµÑģÐºÐ¸
ĠÐ¾Ð± Ñģ
ĠÐ¸ÑģÑĤ Ð¾ÑĢÐ¸Ð¸
ĠÐ° Ð»ÑĮ
ĠÄĳá»© c
Ġweiter en
Ġver ific
Ġkh Ã¡ng
ĠUr ban
ĠN ick
ãģ» ãģĹãģĦ
ãģªãģ© ãĤĴ
ÑģÑĤÑĢÑĥÐº ÑĨÐ¸Ñı
ÅĽ le
haus en
ĠÑĤÑĢ Ð°Ð²
ĠÐ¿ÑĢÐ¾Ð¸Ð·Ð²Ð¾Ð´ ÑģÑĤÐ²Ð°
Ġt áº¡m
Ġcap a
ĠT ob
ĠT ip
ĠS CH
ĠJu vent
c omm
ĠçŁ ³
Ġpraw dzi
Ġind em
Ġdet tagli
ĠJ ordan
ĠGar cÃŃa
or ca
ĠãģĿãģĨ ãģĦãģĨ
ĠÐº ÑĢÐ°
ĠÐ²Ñĭ Ð·
Ġpriv ile
Ġleg no
ĠTrabal ho
ĠK ids
ĠCar l
kon om
Te xt
Ġstor ico
Ġdetal hes
Ġbo y
ĠM M
ĠE AN
ĠAn fang
Ġ4 40
ä¿Ŀ èŃ·
ãģł ãģ¨æĢĿãģĦãģ¾ãģĻ
Â¡Â °
vide os
t l
az ar
Ġãģł ãģĭãĤī
Ġt au
Ġmess ages
Ġklient Ã³w
Ġentr Ã©e
ĠHa ve
ĠDis play
èĩ Ń
ãĥªãĤ¸ ãĥĬãĥ«
ãĤ¦ ãĥ³ãĥī
g ada
c cio
AT I
ĠÐ¾ÑģÐ½Ð¾Ð² Ðµ
Ġco inc
Ġbic ic
ĠTh Æ°
ĠG egen
Ġ198 2
å·¥ äºĭ
tr za
les ia
ista d
ĠÑħÐ¾Ð·Ñı Ð¹
ĠÐļ ÑĥÑĢ
Ġra ce
Ġpowin ien
Ġoczy wiÅĽcie
Ġinstr ument
Ġes f
Ġbe yond
Ġ3 C
ÑĥÑİÑī Ð¸Ðµ
bes ch
ĳ ĳ
Ġtak iego
Ġquer y
Ġpresta mos
Ġmein em
Ġco zinha
Ġcerta ines
ĠS cu
Ġ à
åºĹ èĪĹ
Ð¾ÑĢ Ðµ
ed io
M AN
ĠÑĢ ÐµÑĨÐµÐ¿
ĠÐ¸Ð½ÑĦÐ¾ÑĢÐ¼ Ð°ÑĨÐ¸Ñİ
Ġveg et
Ġo le
ĠV otre
ĠD OM
ç´ Ķ
å¯¾ è±¡
å¥ ĳç´Ħ
ãģ§ãģ¯ ãģĤãĤĬãģ¾ãģĽãĤĵ
wia jÄħ
H P
ĠãĤĤ ãģ£ãģ¨
ĠÑĦ Ð¸ÑĢ
Ġsh own
Ġb Ãª
ĠP Ã©
ĠC I
ĠBal ance
æľĢ æĸ°
æİ¢ ãģĹ
ãģ« æĿ¥
w ienia
ow aniem
mi entos
el ly
ĠÑĥÑĤ Ð²ÐµÑĢÐ¶Ð´
Ġroz um
Ġcommer ciale
ĠS EM
ĠPf lege
ãģĦãģ¾ãģĹãģŁ ãģĮ
ri re
it ate
ic ula
L T
ĠÐ»ÑİÐ± Ð¸Ð¼
Ġzw ier
Ġsz t
Ġpres encia
Ġg á»įn
ĠSec ond
ĠG da
Ð»ÐµÐ½ Ð½ÑĭÐµ
ad s
ĠãĤ¯ ãĥª
ĠÐŀÑĩ ÐµÐ½ÑĮ
Ġow ner
Ġobie ktu
Ġcar bon
Ġbac carat
ĠJe u
ãģ® ãģŁãĤģãģ«
Ð¸ÑĢÑĥ ÐµÑĤÑģÑı
ĠÑĥÑģÐ»Ð¾Ð² Ð¸Ñı
ĠÑģÐº Ð»Ð°Ð´
Ġtechnolog ies
Ġt ierra
Ġprzes tr
Ġprop one
Ġel enco
ĠTen er
ĠProduc t
ĠOper a
ĠB urg
to ck
re ira
j ud
io u
in Ã©
IM E
Ġåıİ ç´į
ĠÑģ Ð½Ð¸Ð¶
Ġsole il
Ġser em
Ġs Ãłng
Ġpi an
Ġog rom
ĠS aison
ĠC ant
Ġ5C u
ä¸Ń åĽ½
ba hn
Ġpress ure
Ġdie t
Ġan teriores
ĠV orte
ĠH á»ĩ
Ġ ÑĨÐ¸
Ð°Ð· Ð°ÑĤÑĮ
Äħ Äĩ
unk Ã³w
ĠåĲ Ī
ĠÐ¼Ð¾Ð´ ÐµÐ»Ð¸
ĠÐ²Ð· Ð°
Ġtritura dora
Ġsz ans
Ġf ight
Ġaff id
ĠTi Ãªu
ĠN V
Ð¸Ð¼ ÑĥÑīÐµÑģÑĤÐ²
stra ÃŁe
ist y
am s
Ġworks hop
Ġso uth
ĠMond ay
äºº éĸĵ
Ã¼ ler
v y
Ġá»¦ y
ĠÐ² Ð°Ð½
Ġm Ã£o
Ġk ennen
ĠS ang
ĠN ob
ĠB iaÅĤ
Ġ14 3
åŃĲ ä¾Ľ
ãģ®åĽ ½
lec om
Ġse an
Ġpomoc Äħ
Ġcertain ly
Ġa ÃŃ
ĠSicher heit
ĠPh ys
ĠMill ionen
ãģķ ãģ«
ãģĲ ãĤīãģĦ
Äħd Åº
to f
ons tru
k h
ia ÅĤo
Ġliqu id
ãģ®ç ¾
ãģ§ãģį ãģ¾ãģĽãĤĵ
Ð¸Ð½ Ð°ÑĢ
Ã© u
ist ar
Ġãĥ ł
ĠpolÃŃ ticos
ĠpiÃ¨ ce
ĠmunicÃŃp io
Ġbamb ino
ĠM ind
ĠC ell
ä¼ģ çĶ»
ãĤĴ å¾Ĺ
qu illa
m and
ĠÐĿ Ð°Ð´
Ġtecn ico
Ġnation ale
Ġf utebol
ĠPRO D
ĠM un
ĠAc t
Ð¾Ð· Ð¸ÑĤ
Ã¼n st
enta do
ĠÄĳÃ£ i
Ġze igen
Ġpoc z
Ġpen al
Ġpar fois
ĠhÃ´tel s
ĠYo ung
ĠD T
ĠA unque
Ð° ÑĨÐ¸Ð¹
ĠÑģÐ¾ÑģÑĤ Ð¾
Ġm ouv
Ġin icial
Ġesper ar
Ġan zi
ĠY oga
ĠAk tu
éĩĳ é¡į
or de
ad z
ĠãĤªãĥ³ ãĥ©ãĤ¤ãĥ³
Ġplay a
Ġper u
Ġgra m
Ġexper im
Ġb á»¥ng
ĠUl tima
ĠH Ã³a
Ġ Ê
il and
ci te
ĠÐ½ Ð°Ð½
Ġo trzyma
Ġind ywid
Ġim plica
Ġfun Ã§Ã£o
Ġfe et
ĠA vis
Ġ19 20
ãĤĴè¡Į ãģĨ
Ã³g ÅĤ
b eg
Ġç Ĥ
ĠÅļ wiÄĻ
Ġjet pack
ĠS EC
ĠCin ema
Ġ19 75
Ġ15 7
Ġ09 8
Ġè ¾
ĠÑĦ ÑĢ
Ġumo Å¼li
Ġsp ent
Ġec co
Ġacqu istare
ĠFranÃ§o is
° åĽ²
m ing
itÃ¤ ts
cz nych
ĠÑģ ÑĦ
ĠÐºÐ¾Ð½ÑĤ Ð°ÐºÑĤ
ĠÐº Ð»ÑİÑĩ
Ġvier nes
Ġv enti
Ġfre cu
Ġconf irma
Ġcl ase
Ġ198 3
å¤ ¢
Ì £p
t n
owe en
12 8
ĠãĤ¦ ãĤ©
Ġpo tem
Ġord ina
Ġcom od
ĠIN T
ĠE ver
Ġ? .
ãģĭ ãģ¨
Ñı ÐµÑĤ
ÐµÐ»ÑĮ Ð·Ñı
ÃĴ ÃĶ
oo oo
hau pt
Ġstud ies
Ġplay ed
Ġadv ice
ĠW ysÅĤ
ĠFran Ã§ais
æİ² è¼ī
Ã´ nia
ti tion
ĠÐ¶ Ð¸Ð»
ĠÐ¥ Ð¾ÑĤ
ĠÐ¢ ÐµÐ¼
ĠÄĲ Ãło
Ġtr uly
Ġng Æ°á»£c
Ġarr ang
ĠTi tel
ĠT N
ĠCo le
Ġ Æ°Æ¡ng
çµĤ äºĨ
ãģ®ç ·
ÑĨ Ð¾Ð²
ĠÐ²ÑĤÐ¾ÑĢ Ð¾Ð¹
ĠtÃ©lÃ© phone
Ġc odzien
Ġav ven
ĠPro cess
ĠOs car
ĠO ro
ĠM ensa
ĠDe ad
Ġ27 4
Ġ15 6
Ġ ãģĦãģĦ
ire ct
ass es
_c rop
ĠÑĤÑĢ ÐµÑħ
ĠÑĤÐ¾Ð²Ð°ÑĢ Ð¾Ð²
ĠÐ±Ð¾Ð»ÑĮÑĪ Ð¸Ð½
Ġwy j
Ġor yg
Ġkos zt
Ġcoment ario
ĠVer kehr
Ġ. Â»
ied ere
Ġpr en
Ġins tru
Ġfil ter
ĠIde e
åĢ «
ãĤĴ çĽ®
l Ã¶
ill Ã©
ak Ã³w
ĠÑģÐ°Ð¼ Ð¾ÑģÑĤÐ¾ÑıÑĤÐµÐ»ÑĮ
ĠÐ°Ðº Ðº
Ġresol ver
Ġpeque Ã±o
Ġl id
Ġero ticos
Ġcr ime
Ġciv ile
Ġc Ã¢m
Ġa ur
ĠRe in
ä¹Ĺ ãĤĬ
Ñĳ Ð»
Ãı Ãĸ
glie der
Ġk rÃ³
Ġf ili
Ġequ ilib
ĠSing les
ĠLib er
ĠFo undation
ĠEin zel
Ġ8 50
é ¢
ç¸ ®
Ðº Ð¸Ð½
c era
ĠÂ· Â½
Ġusu ario
Ġrekl am
Ġpross imo
ĠV S
ĠA Z
Ã¨ se
ita ires
E lim
Ġten ido
Ġpi ÅĤ
Ġdob ry
Ġcons igli
Ġauc une
Ã©t Ã©s
is her
geb ung
ĠÃ³r g
Ġx á»©
Ġc ies
Ġbas ket
Ġadver tis
ÑıÑĤÑĮ ÑģÑı
Ð² Ðµ
b ym
ĠçĽ¸ åł´
ĠZ ent
ãĤ¢ ãĥ¼
ãģķãĤĮ ãģ¾ãģĹãģŁ
_ in
Ġå¾ ĴæŃ©
Ġwyk ona
Ġmeille urs
Ġcum pr
Ġch ico
Ġa cho
ĠSen ior
ãĤ³ ãĥ¼ãĥī
er ts
P M
AL I
ĠÐ¿Ð°ÑĢÑĤ Ð½
ĠÐ´Ð¾Ð» Ð»
ĠÐ²Ð¾Ð·Ð¼Ð¾Ð¶ Ð½Ð¾
Ġsimple ment
Ġpok az
Ġconf l
ĠArch ives
ãĤ¦ ãĤ£
ãģª ãģ®
Ã¡ fico
r Ã¼
j ny
Ġè²© å£²
ĠÐ¾ÑģÐ¾Ð± ÐµÐ½Ð½Ð¾
ĠÐ°Ð²Ð³ÑĥÑģÑĤ Ð°
Ġver tical
Ġus age
Ġric ord
Ġparti dos
Ġpag inas
Ġoc en
Ġconc re
Ġat ender
ĠL iczba
Ġ29 0
ug g
ta de
re ktor
Ġsor tie
Ġrespons Ã¡vel
Ġob ter
Ġla ck
Ġele gan
Ġâĺ ı
ĠÐ´Ð¸ Ð°Ð³
Ġvis a
Ġcu Ìīa
Ġch r
Ġb aixo
ĠF ast
æĮ Ļ
ãĥĨ ãĥ¼ãĥĸãĥ«
ĠÐ¿ Ð¸ÑĪ
Ġmul tim
Ġes erci
ĠH yd
ĠAl though
åı¤ å±ĭ
ãģĦ åĲĪãĤıãģĽ
tr ando
ll as
kty w
Ġæ³ ķ
ĠãĥĻ ãĥĪãĥĬãĥł
ĠÐ¼ÐµÐ¶Ð´ ÑĥÐ½Ð°ÑĢÐ¾Ð´
Ġre pres
Ġpac j
Ġorganiz aÃ§Ã£o
Ġc able
ĠPa ÃŃs
ĠFor sch
ra ment
22 5
Ġç¶ļãģį ãĤĴèªŃãĤĢ
ĠmÃ©to do
Ġl Ã©
Ġing res
Ġgan ze
Ġg osto
Ġenv ie
Ġeconom ico
ĠS Z
èħ ¹
Æ¡ m
OR I
Ġå¥ ¥
ĠÐĳ ÐµÐ·
Ġw ro
Ġsigui entes
Ġoc ze
Ġhá» ģ
Ð¾Ð² Ð°Ð»Ð¸
ĠÐķ ÑģÑĤÑĮ
Ġcos ti
Ġaut ore
ĠN Æ°á»Ľc
Ġ Õ
ãĥ¼ãĥĢ ãĥ¼
ĠÑįÐºÑģÐ¿ Ð»Ñĥ
ĠÐ¾Ðº ÑĢÑĥÐ¶
Ġs weet
Ġrob ot
Ġmoder no
Ġequip amentos
Ġeleg ante
ĠEs cu
Ġ13 7
æģ ĭ
ãģ®æ ĥħåł±
Ð¸Ð» Ðµ
chod zÄħ
ER N
ĠÑģÐµÐ· Ð¾Ð½
Ġgo v
Ġf ed
Ġch áºŃm
ĠReg ul
ĠDes c
æīĭ ãģ«
ĠéĿ ŀ
Ġpo ÅĤoÅ¼
Ġc ita
ĠMu ito
ĠHapp y
ĠG ene
Ð¼ ÑĥÐ½
at ers
Ġt áº¡p
Ġneces idad
Ġcomm ande
ĠDire ito
ãģĮ åħ¥
ÑģÑĤÑĢÑĥ ÐºÑĤ
ensch utz
ch et
L I
ĠÐĳ Ð»Ð°Ð³
Ġtr ust
Ġr osso
Ġd ust
Ġa che
ĠT au
ĠInv est
ä¸Ģ åº¦
M y
Ġéģ ¸
ĠÐ¤ ÑĢÐ°Ð½
Ġor ien
Ġmean ing
Ġma j
Ġdam age
Ġad or
Ñĥ ÐºÐ¸
wa jÄħ
ess es
ĠãĤ· ãĥ«
ĠM ob
ĠKh Ã¡nh
ãģ¨ãĤĤ ãģ«
w il
uj esz
Ġob ject
Ġjorn ada
Ġhom es
ĠC AT
Ġ3 10
Ðķ ÐĿÐĺ
r Ã©e
ĠÑĢÑĥÐº Ð°Ð¼Ð¸
ĠÐ¿ÐµÑĢ ÐµÐ¼
Ġto c
Ġparl are
ĠV IS
ĠT iáº¿n
ĠP ant
ãģ§ è¦ĭ
Ãºsqu eda
A h
Ġprz ec
Ġh und
Ġdis f
Ġcas ual
Ġam is
ĠFin an
tr um
ī å¼·
Ġæ´ Ĺ
ĠÐŁÐ¾Ð´ ÑĢÐ¾Ð±
ĠÐ¿ÑĢÐ°Ð² Ð°
Ġpoz na
Ġnuc le
Ġfuer za
wa ÅĤy
re y
h ai
ĠÑįÐºÑģÐ¿ ÐµÑĢÑĤ
Ġwie cz
Ġsen ior
Ġoportun idades
Ġeas ier
Ġd unque
Ġcom in
ĠEr ic
ĠEnerg y
ĠDom in
ãĤĤãģ® ãģ¯
ise z
Ġman i
Ġg áº¯ng
Ġelet tron
Ġed iciÃ³n
ĠVal ley
åĲ ī
åī¤ å¸«
ãģ®å Ł
qu em
ĠÐºÐ¾ÑĤÐ¾ÑĢ ÑĥÑİ
Ġofer ec
Ġencu entro
ĠWszyst kie
ĠO T
ĠMed ien
Ð¸Ñģ Ð¾Ðº
ich i
ĠÐ¸Ð· Ð¾Ð±ÑĢÐ°Ð¶
Ġre ten
Ġr ules
Ġo de
Ġale m
ĠV IP
ĠFor ce
ĠD iá»ĩn
k ul
9 æľĪ
Ġéħ į
Ġtur yst
Ġbar ato
ĠS ON
ĠJ ew
ç© ´
ãģ®åľ °
l amento
_ b
ĠÃ©lectr ique
Ġlib ero
Ġat ing
ĠPag inas
ĠLiv re
qu iera
ar la
al to
Ġsegu inte
Ġr Ãª
Ġpie ces
Ġmass age
Ġabb ia
ĠD rive
ĠB ull
Ġ... )
éģ Ĭ
pl us
gl ied
ac ity
ĠÐ¾ Ð²
Ġgra de
Ġf oss
Ġdemas iado
Ġcat Ã©g
Ġa presentar
ĠChar l
ĠÐļ ÑĥÑĢÑģ
ĠÐ¿Ð¾Ñģ ÐµÑĤ
Ġsim ili
Ġra tes
Ġpopr zed
Ġc áº·p
ĠV amos
ĠStiv ali
ĠKur z
schn itt
ow ali
ils on
h end
ec tor
Ġsu it
Ġ] ]
ĠKom mentare
ĠG EN
Ġ' ))
èĦ Ĥ
w ater
Ġåį ³
Ġå®Ł éļĽ
ĠÐ¿ÑĢÐ°Ð² Ð¸Ð»ÑĮÐ½Ð¾
Ġrela zione
Ġng Ã´n
Ġacc om
ĠWi kipedia
[...]
