#version: 0.2
á Ģ
à ®
à ´
á ĥ
à ¸
à °
à ¤
à ¦
à ª
à ¯
à µ
áĢ ¹
Ġ áĢ
áĢ¹ áĢ
áĢ ¬
áĢ º
Ġ Î
à¯ į
àµ į
áĢ ¸
Ð °
Î ±
à ±
áĢ ¯
áĥ Ĳ
à ¹
à ¥
Ġ à®
áĢ Ń
Ï Ħ
Ġ à´
à §
Ġ Ð
áĢ Ģ
Ġ áĥ
à «
Î ¿
± áĢ
áĢ Ħ
à¯į à®
àµį à´
Ġ à°
Ð° Ð
à¸ ²
á ģ
Î ¹
Ġ à¤
áĢ¸ áĢ
Ð ¾
Ġ à¦
áĥĲ áĥ
à¸ Ļ
Î ½
à¯ ģ
áĢ Ĳ
Ġ Ø
Ġ Ñ
áĢŃ áĢ¯
à´ ¿
Ġ àª
à± į
à¸ £
Î µ
áĢ ķ
à® ¿
Ġ .
ä ¸
à¤ ¾
áĥ ĺ
áĢ ¼
Ð° Ñ
à¸ Ń
Û Į
à´¿ à´
à¦ ¾
Ï ģ
áĢ Ļ
Ð µ
à±į à°
à¹ Ģ
á Ĥ
áĢ Ķ
à®¿ à®
Ï ĥ
àµ ģ
à¹ Ī
Ð ½
áĢĦ áĢ¹áĢ
áĢ ±áĢ
ã Ģ
ä º
Ġ å
ï ¼
Ġ ï¼
à¤¾ à¤
à° ¿
Ø §
áĥ Ķ
Ġ áģ
à§ ĩ
Ï Ģ
àª ¾
áĢ ½
à¯ģ à®
Ñ ĭ
Ġ à¸
à´ ¾
à¸² à¸
áĢ ·
Ï Ĥ
Ġ Ù
Ð ¸
Ġ ãĢ
å ı
à¥ į
Ñ ĸ
à° ¾
à¦¾ à¦
àµģ à´
áĢ ²
à® ¾
à¸£ à¸
áĢ ħ
áĥĶ áĥ
Î ·
àª¾ àª
áĢ Ľ
Ñ Ģ
à¹Ģ à¸
à®¾ à®
Ú ©
â Ģ
Ï ħ
à´¾ à´
áĢ ®
à± ģ
à§ į
à¥į à¤
áĢ Ĭ
Ñ Ĥ
à¹ ī
à¯įà® ķ
Î »
àµ Ĩ
áĥĺ áĥ
à« ĩ
áĢ ±
Ð º
Ø ±
à¸Ļ à¸
Ġ ÏĦ
à® °
à¥ ĩ
à°¾ à°
àµį âĢ
¨ àµįà´
Ð »
à§į à¦
áĢ ļ
Î º
Ġ ×
áĢ ŀ
à¯ Ī
à¸Ń à¸
à´ ¤
Ñ ı
à« į
Ù Ī
Î ¯
áĥ Ŀ
à°¿ à°
áĢ ľ
àµįâĢ į
à® ¤
ķ àµįà´
Ġà¤ ķ
Ñ ĥ
ģ à¸
ĠáĢ ¡
à¦ ¿
Î ¼
à´ °
áĢ¬ áĢ¸áĢ
à¯įà® ¤
Ñ ģ
à«į àª
Û ģ
âĢ ĭ
ķàµįà´ ķ
Ġ c
Ġï¼ Į
å ®
æ ľ
o m
w w
ç ļ
Ġc om
çļ Ħ
å Ī
Ġ æ
Ħ à¸
ĩ à¸
å ¤
ç ½
äº ļ
å ħ
à¥ Ģ
Ĥ à°
áĥĿ áĥ
Ï Į
Ñ Ĩ
áĢĦ áĢº
Ù Ħ
à® ©
¨àµįà´ ¨
® à¯į
Î ¬
ĠÐ ¿
à¤ ¿
Ġà´ ª
à¦ °
à« Ģ
£ áĥ
à±ģ à°
à´ ¯
à® Ł
áĢ ģ
Î¿ Ïħ
Ñ Į
à¸ µ
Ð ´
àµįà´ ¤
å ½
à ¨
± à¸
Ġ ç
å Ľ
ç½ ĳ
a g
ä »
à¹Ī à¸
æ Ĺ
æ Ī
Ġ 2
áĢ «
ä ¹
à¤ °
Û Ĵ
Ġà® ª
Ġ ÏĢ
áĥĺáĥ ¡
áĢ ¶
à° ¨
à´ Ĥ
× Ļ
àª ¨
à¦¿ à¦
Ġ ,
áĢ »
Ù Ĩ
àµ ĭ
à® ³
Ï ī
Ð ²
Ġ ag
æ ¸
æ ĸ
Ĥ à¤
à° Ĥà°
Ġà´ ķ
ĠÎ º
Ð ¼
áĢ °
áĥĶáĥ ĳ
Ġà® ķ
à´ Ł
à¸ ´
áĢĢ áĢ¹áĢ
Ġáģ ĭ
à« ĭ
à§ĩ à¦
Î Ń
ã ģ
Ñ į
Ġ è
å½ ©
å ľ
ww w
ĠãĢ Ĥ
Ġ www
ãĢ Ĳ
åı ĳ
Ġ 1
åĪ Ĩ
à¥įà¤ ¯
à± ĩ
áĢĦáĢ¹áĢ ¸
áĢ ¡
àµ ĩ
Ù Ĭ
¡ à¸
Ð°Ñ Ģ
à¯įà® ª
à¤¿ à¤
Ù ĩ
Ġ Ïĥ
ł áĥ
áĢĶ áĢ¹áĢ
Ġ âĢĭ
à´¿à´ ²
ĠáĢ ±áĢ
áĢ² áĢ·
¥ à¸
Ġ Ú©
à° °
áĤ Ķ
áĢĢ áĢº
Ġ ì
Ð ·
à¦ ¨
àµįà´ Ł
ķ à¯įà®ķ
àª °
ĠÎ ±
à¹ Ħà¸
Ġáĥ Ľ
à´ ®
Ð°Ð ´
× ķ
à¥ ĭ
à® ²
áĢ ¾
à¹ ģà¸
à¦¾à¦ °
à± ĭ
Î ³
à´ ³
ĠÑ ģ
áĥ ķ
à¯Ī à®
Ġà´ µ
ª à¸
Î ®
ĠÐ ½
àª ¿
à§ ģ
à° ²
ĠØ §
à¥ĩ à¤
àµģà´ Ĥ
à¹ī à¸
Ð ³
áĥ £áĥ
áĢ± áĢ¬
Î± Î¹
à¯įà® Ł
Ð°Ð ½
à´ ¨
à§ Ł
à± Ģ
¢ à¸
à« ģ
Ï ĩ
Ġ ë
Ġà´ ¸
Ġáĥ ¡
Ġà® µ
à¤ ¨
Ġà¦ ķ
à° ķ
Ø ª
Ð°Ð »
áĢ ĸ
à´¤ àµįà´¤
§ à¸
à«ĩ àª
ĠÎ µ
áĥĲáĥ ľ
Ġà® ®
ĠáĢ Ģ
Ò Ľ
Ð°Ñ ģ
à´ µ
Ġà° ª
Ġà¦ ¸
Ġà¤ ¸
ĠáĢ Ļ
à¹ Į
×ķ ×
Î¹ Îº
ĠáĢ ŀ
ĠÐ ·
Ġáĥ ĵ
àª Ĥ
Ù ħ
à´ ²
à¯ ĩ
à¸´ à¸
à± Ĩ
ì Ŀ
áĢĬ áĢ¹áĢ
áĢħ áĢ¹áĢ
Ġà¦ ¬
áĢ¬ áĢ¸
Ò ³
ĠÎ ¼
å ¹
è ½
ĳ ãĢĲ
ä ½
æ¸ ¸
å Ĭ
æ ī
å Ĳ
ç Ķ
Ġ -
ĠãĢ ĳãĢĲ
å į
å® ĺ
æ ĺ
è ¿
è µ
Ġ âĢ
è ®
Ġ :
İ ¯
à¹ ĥ
å ¿
ä¸ ĭ
æĹ ¶
Ġå ¤
ä¸ Ģ
İ¯ äºļ
äº º
Ġ é
ç «
ç »
ç ī
å ¼
Ķ à¸
ĠãĢ ģ
ä ¼
ļ à¸
åĽ ½
à¤ ¤
Ġà´ ®
Ġà® ħ
Ñ ĩ
Ġà° ķ
Ĳ áĢ¬
áĢĢ áĢŃáĢ¯
àª ¤
áĥ ¡
àµįà´ °
Ï į
Ð°Ð ²
ĠÙ ħ
à¦ ²
ĠáĢ ľ
Ġà® ¤
à±įà° °
§ åıĳ
Ĺ à¸µ
° à¸
à¤ ²
áĤ ı
ĠáĢ Ĳ
Ġà´ ¨
Ð°Ð ¼
áĥ ł
Î ´
Ġàª ķ
áĢ® áĢ¸áĢ
à¦ ķ
Ġà® ļ
Ġ ê
à°¾à° °
Ĳ áĢ¼
¾ áĢĢ
áĢ¯ áĢŃ
áĢĲ áĢ¹áĢ
Ġà´ ħ
áĢ Ĩ
Ġà¤ ¹
Ð ¿
Îµ Î¹
Ú º
áĢķ áĢ«
Ġ áĥĲáĥ
à® µ
à´ £
Ġà° µ
Ġà¦ ª
ĠÐ ´
àª ķ
Î¹ Î±
å °
é Ģ
æľ º
é Ļ
è ¯
Ġ 0
áĢĦ áĢ¹
ĠáĢ ķ
è §
è½ ½
ä¸ĭ è½½
á ŀ
ä¸ Ń
Ġå¤ §åıĳ
å Ĩ
æĺ ¯
äºļ æ¸¸
ç ¥
å İ
å®ĺ ç½ĳ
Ī à¸
å¿ «
à¤ ķ
í ķ
ĠÐ ³
à´¿à´ ¯
áĢĶ áĢº
áĥ ļ
à¯ģà® ®à¯į
à±ĩ à°
Ï Ĩ
×Ļ ×
Ø ¯
Ñ ŀ
à§ĩ à¦°
ĠÐ ²
à´ ¨àµįà´¨
å º
æī ĭ
å ·
Ĺ à¸
å¤ §
æ Ŀ
åľ ¨
å ¸
é ĩ
à¹ĥ à¸
Ĥ à¸
å Ń
à¥ ģ
àª ®
Î ¸
Ġáĥ Ĵ
à´ ±
Ġà° ®
à®¿à® ²
áģ ¾áĢĢ
áĢļ áĢ¹áĢ
áĢķ áĢ¹áĢ
áĢļ áĢ¹
Ġáģ Ĭ
ë ĭ
æ Ĭ
æ ³
« à¸
ç ľ
æľ ī
å¹ ³
ç º
å ¥
à¸µ à¸
Ġ à¨
¸ à¸
Ġà¤ Ĩ
à§ ĭ
áĢ ³
ĠáĢ Ľ
Ø ³
ĠÏĦ Î·
ĠÑ ĸ
Ðµ Ð½
à´ ¸
áĥĶáĥ ļ
áĢĬ áĢº
àª µ
Ġà° ħ
à®¿à® ¯
Ï İ
ĠÐ ±
àµįà´ ¯
à¦ ¤
Ġ 3
Ġà¤ ª
áĥĲáĥ Ľ
Ġà° ¸
ÏĦ Î±
ì ŀ
Ġ Ûģ
Ñ ħ
àµįà´ ª
Ġà® ĩ
Ġàª ª
áĥ ĵ
ì Ĺ
åı °
à¥įà¤¯ à¤¾à¤
à¦ ¬
Ïģ Î¿
Ð°Ñ ŀ
Ð ¹
áĢ ĳ
Ġà¤ ®
à° Ĥ
à´ ª
à¯ Ĩ
áĥ Ľ
» áĢķ
áĢ® áĢ¸
ÏĦ Î¿
Ġàª ¸
Ñ Ī
áĢĻ áĢº
Ġ í
àµ Ģ
à±įà° ¨
à§įà¦ °
Ø§ Ø
× Ķ
áĢ½ áĢ¬
¨ à¯įà®¤
à¥ Ī
ĠáĢ ħ
áĥ ľ
ĠÎ ´
àµįà´ ļ
Ñģ ÑĤ
à° ®
áĤ ķ
áĢĻ áĢ¹áĢ
Ġ à¹Ģà¸
ķ áĢ«
ìĿ ´
ã Ĥ
à¤ £
áĢħ áĢº
ģ à¸²
àµģà´ ¨àµįà´¨
àª¾àª Ĥ
ĠÎº Î±Î¹
Ġà® ¨
áĥ ¢
à¦ ®
ĠÐ º
ÛĮ Úº
Ġà° ļ
Ïģ Î±
ìŀ ¥
ëĭ ¤
à¸£à¸ µ
áĥĲáĥ ĵ
à´ ķàµįà´ķ
à¥ĭ à¤
ÑĢ Ñĭ
ŀ à¸
ª à¯įà®ª
ĠØ§ ÙĦ
à° ¤
à¥ ¤
áĢĶáĢ¹áĢ ¸
áĢļ áĢº
Ġàª ®
ÏĦ Î·
ĠØ ¨
Ð¸ Ð½
× ¨
à¹ Ĥà¸
ĠÐ ¼
à´ ķ
áĢĢ áĢ¹
áģ Ģ
áĥĲáĥ łáĥ
áģ ¿
áĢĦáĢ¹áĢ ·
áĢĦáĢº áĢ¸áĢ
à°¾à° ²
ÏĦ Îµ
8 8
p p
ä¸ į
å ĩ
æĸ ¹
å ¾
0 1
é Ľ
è ¡
æīĭ æľº
ç Ľ
å Į
Ġï¼ ļ
Ġ 5
à ©
a pp
äº Ĩ
è ´
à¤ ¸
ê ³
à® £
Ġ à¥¤
ķ à¸
àª¾àª °
Ļ àµįà´
Ġáĥ ł
Ð½ Ñĭ
ì §
Ġà° ¨
à¹Ī à¸²à¸
ĠØ ³
¿ ½
ï ¿½
ÏĢ Î¿
áĢŃáĢ¯ áĤĶ
áĢ¯ áĢ¶
à® ®
à¥įà¤ °
à§įà¦ ¯
Ðº Ñĸ
áĥĶáĥ ľ
à´¾à´ ¯
à«ĭ àª
ë Ĭ
Ġ t
âĢ Į
Ð¾ Ð²
à¸Ńà¸ ĩà¸
áĢĢ áĢ¼
Ïĥ Î·
à® ±
à°¿à° Ĥà°
Ð ±
áĥĲáĥ ķ
å¹³ åı°
á ł
å Ŀ
Ġç İ¯äºļ
W W
æ Ģ
Ġ äºļæ¸¸
à¤¾à¤ °
ĠÏĦ Î¿
Ġà´ ¤
à¹ ĩ
Ú ¾
áĢĬ áĢ¹
áĢ±áĢ Ķ
Ġ× Ķ
áĢ¬ áĢĢáĢ¹áĢ
áĢĬáĢ¹áĢ ¸
áĢ¬ áĢĦáĢ¹áĢ¸
ĠáĢ Ĩ
Ġàª ľ
ì Ħ
Ġà¦ Ĩ
Ð°Ñ Ĩ
à±įà° ¯
áĢĲ áĢļáĢ¹
áĢ±áĢ Ľ
à´¿à´ ķàµįà´ķ
Ïī Î½
à¸Ńà¸ ĩ
áĢĲ áĢº
áĥĲáĥ ¡
ä¸ ī
Ġ C
å ±
å¼ Ģ
à¤ Ĥà¤
à¯įà® ±
Ð¸ Ð»
ê °
ĠÑ ŀ
à¦¾à¦ ¨
Î¯ Î±
Ĺà¸µ à¹Īà¸
à° µ
Ð¾ Ð½
Ġàª ¤
ļ àµįà´ļ
Ú ¯
ļ áĥĺ
áĢ¶ áĢ¯
áĢ· áĢº
ëĬ Ķ
ĠÏĦ Î¿Ïħ
ç İ
Ġà¤ ¤
Ġà´ İ
à¹Į à¸
Ð°Ð ³
Ġà® İ
à° ¸
à§ Ģ
Ġ a
Î¼ Î±
Ġáĥ ĺ
ĠÐ ¸
à´ Ļàµįà´
à¹ ĩà¸
à«įàª ¯
Ø ©
ĠÙ ¾
à¤ ¹
Ð°Ð ¹
à¯ ĭ
¶ ľ
à° Ł
à¸£ à¸²à¸
ì ł
ĠÎ ½
Ġà¦ ®
Ł à¸£à¸µ
ģà¸² à¸£à¸
× ľ
Ġáĥ ¨
àµ Ĥ
ĠÑ Ĥ
ĠáĢ ģ
ì ķ
à° ¦
Î½ Î±
Ġàª Ĩ
Ġ à¹ģà¸
ç Ļ
Ġc n
è Ģ
0 0
ä¹ Ĳ
ä¸ Ĭ
ï¼ Į
æ ķ
ç« Ļ
ĥ ½
æ ŀ
é Ĺ
éĽ Ĩ
å Ĵ
å ¯
æ ´
Ġà¤ µ
áĢķ áĢº
à¯įà®ķ à®³
ĠØ ¯
Ġà¦ ı
àµįà´ ±
Ġì Ŀ
áĥĲáĥ ł
´ à¸
Ð°Ð º
ĠÎ ¿
à° ª
àª¿ àª
i n
ĠÙ Ĩ
áĢ ĺ
Ľ à¸
æĪ ·
ç İ¯äºļ
æ µ
ç Ĳ
åĽ ¢
ä ¿
æ Ķ
à¤ µ
áĥ ®
Ġ Â
¶ľ ìŀ¥
ë §
à®¿à® °
à´° àµįâĢį
ĠáĢ Ķ
à´¾à´ £
ĠÐ ¾
Ïģ Î¹
à±įà° ¤
Ġ â
ì§ Ģ
¹ à¸
Ġà¤ ¬
Ġà¦ ¨
Ð½ Ñĸ
ã ĥ
ĠáĢ Ĵ
Ø ¨
à´ ¨àµįà´
áĤ Ī
áĢ Ŀ
áĥĿáĥ Ľ
± à¸Ļà¸
ìĹ Ĳ
à®¤ à¯įà®¤
Ġàª ħ
ĠÎ ³
Ġà° ¤
áĢĲ áĢ¬
Ð°Ñ Ĥ
Ĭ à¸
à´¿à´ °
áĢĻáĢ¹áĢ ¸
áĢ± áĢ¸áĢ
à¦ ¸
ŀ ×
Ġà¤¹ à¥Ī
· à¹Ī
Ġà¤ ħ
Î ²
Ġáĥĵ áĥĲ
à±įà° ²
ĠÚ© ÛĮ
à´¿à´ ¨
à® ®à¯į
ĠÑ Ģ
Ġ (
áĢŃáĢ¯ áĢ·
h e
Ġà¦ ¹
Î ĳ
íķ ĺ
ï¿½ ï¿½
ĠÎ ĳ
³ à¸
à«įàª °
à´¾à´ °
Ġáĥ¡ áĥĲáĥ
ĠÎ¼ Îµ
à° ¡
à®¿à®² à¯į
ÑĨ ÑĮ
à¸£à¸ ±à¸
áĢŃáĢ¯ áĢĦáĢ¹áĢ
Ġ )
áĢĸ áĢħáĢ¹áĢ
áĢ±áĢ ĲáĢ¬
áĢ½ áĢŃ
áĢ² áĤĶ
áĢĲ áĢ²áĢ·
ĠáĢ ĳ
Ð½ Ð¾
à´¾à´ ¨
ç §
æ İ
åĴ Į
à¥įà¤¯ à¤¾
Î½ Î¿
áĥĺáĥ Ĺ
ĠØ ª
Ġà¦ ¦
Ĥ ¬
áĢ±áĢ ĲáĢ¼
áĢŃ áĢ³
áĢŃáĢ¯ áĢ¸áĢ
à¸£à¸ °à¸
Ð» Ð¸
à´Ļàµįà´ Ļ
à°¿à° ¨
ÏĦ Î¹Îº
áĢĶ áĢ¹
áĤı áĢ½
áĢģ áĢº
áĢķ áĢ¼
Ð°Ð ±
à® ķ
àª¨ à«ĩ
à¹ī à¸²à¸
áĥĿáĥ ĳ
ë ¡
Ġ à§
ĠÎ½ Î±
à´¿à´² àµįâĢį
àµįà´ ²
Ġà¤ķ à¥ĩ
à§įà¦ ¤
à°¾à° ¨
à¹Ī à¸²
å½© ç¥
å¹ ´
æĪ ı
éĻ ħ
ç½ĳ ç«Ļ
ä¸ º
çī Ī
é Ŀ
é ¢
à¤ ®
× ª
Ð» Ð°ÑĢ
Ð´ Ð°
ÙĪ Ø±
áĢĻ áĢ¾
ĠÑ ı
Ġáĥ Ļ
à¯ Ĭ
Ġà´ ĩ
r e
ìĿ ĺ
ĠÎ ķ
à¹Ħà¸ Ķ
Ġàª µ
ĠÎ ł
Ø ¹
Ġà¦ķ à¦°
Ġà´ ļ
Î Ł
Î ¾
áĥĲáĥ ļ
à° ¯
à¹ī à¸²
Ð ¶
à®¤ à¯ģ
Ð¸ ÑĢ
æ °
Ġ 4
áģ¿ áĢķ
áĢĽ áĢ¬
Ġ |
æ¸¸ æĪı
æ ł
éĽĨ åĽ¢
æ ĭ
æ Ń
å ĳ
åĿ Ģ
åĽ½ éĻħ
ä¼ ļ
à¤¾à¤ Ĥà¤
Î Ļ
Î¼ Îµ
ì ĭ
Ħ à¸£à¸
àµģà´ Ł
áĢ Ł
áĥ Ĺ
Ĺà¸µ à¹Ī
ĠÎ Ń
Ġà¦ ¤
à°¿à° ķ
Ġàª Ľ
Ñ İ
Ġì ŀ
áĢŃáĢ¯ áĢĦáĢº
Ø§ ÙĨ
Ð¾ ÑĢ
à´¿à´ ļàµįà´ļ
ĠâĢ Ŀ
çľ Ł
å®ĺ æĸ¹
æĸ °
ä¸ ª
åħ ¬
å ¨
çĶ ¨
a n
Ġà¤ ¨
Ġ×Ķ ×
ÏĢ ÏĮ
ľ à¸
Ġáĥ Ĺ
à®¿à® ©
àµģà´ ķ
à¦ ¦
à¸Ń à¸Ļ
ĠÐ¿ ÑĢ
ìĿ Ħ
2 0
æĹ¶ å½©
O M
åľ °
ĠâĢ ľ
å½©ç¥ ¨
à¤¾à¤ ¤
à±įà° Ł
± à¸Ļ
Î» Î¿
ĠáĢ »
áĢĲ áĢ½
áĥ łáĥ
àª¾àª ¨
ģà¸² à¸£
Ġ ÒĽ
Ġà¦ ħ
Ð» Ñĸ
ĠÚ© ÛĴ
à± Ĥà°
Ġ s
ÏĦ Î¹
àµ ½
Ġ Ò³
à®¾à® °
ĠÙ Ī
áĥĶáĥ ¡
ļ à¸Ńà¸
ê ¸
° à¹Ģà¸
è Ī
å ĵ
çĻ »
ä» ¥
äº ¬
Ġ2 01
æĹ¶ æĹ¶å½©
ä¸ ļ
Ġ A
ĠC OM
çº ¿
æ ¬
è¡ Į
åİ ħ
¦ ģ
åĪĨ å½©
å® ¶
à¤ ļ
ĠÎº Î±
áĢ» áĢķ
ĠáĢ ĺ
Ð» ÑĮ
à±ģà° ²
à«ģ àªĤ
áĢ¬ áĢĦáĢ¹áĢ
áĢ Ĵ
e r
¡ à¸²à¸
à¥ĩà¤ Ĥ
´ ë
à§ĩà¦ ¨
¨ áĥĺ
áĢ¯ áĢķáĢ¹áĢ
áĢ±áĢ¬ áĢĦáĢº
à¯Īà® ¯
Ð¸ ÑĪ
å¤ ©
1 0
è½ ¦
å® ¢
9 9
± ä¹Ĳ
æĿ ¥
à¥ Ĥà¤
ĠÏĦÎ· ÏĤ
Ġà° °
Ðµ ÑĢ
o n
ĸ à¸
Ġ× ľ
à¦ ª
Ġàª ¹
áĢ±áĢ ľ
ì ¶ľìŀ¥
ì Ĭ
Îµ Î¯
áĢĻ áĢ½áĢ¬
áĢĲ áĢ¼
áĢľ áĢŃáĢ¯
Ù Ĥ
àµ ¼
áĥĺáĥ ľ
à± Ī
ãģ ®
à¹Ħà¸ ¡
ĠÑ ĥ
áĢ¸áĢ ±áĢ
áĤ Ģ
ĠáĢ ĸ
è Ĥ
Ġà¤ ¯
à¯ģà® ķà¯įà®ķ
Ð´ Ð¸
Ġà¸ ªà¸
Îµ ÏĤ
§ à¸²à¸
áĤĢ áĢĢ
áĢĻ áĢ»
à¦ Ł
Ġáĥ Ķ
Ð°Ð ·
ç ¾
æ³ ¨
çĶ Ł
å¿« 3
Ľ à¹ĩ
çĶ µ
6 6
Ġ /
å¨ ±ä¹Ĳ
è ĩ
é ģ
è ¾
å¿« ä¸ī
Ġ h
Ġ ;
à¤° à¥įà¤
íķ ľ
à°Ĥà° ¦
Ġàª ¨
à® ¯
Ø ²
ĠÎ £
Ð°Ð µ
Î¿ Ïį
áĥĶáĥ ł
à±į âĢĮ
Ġì ł
à¸Ļà¸ µ
Ġ× ĳ
Ġà´ Ĩ
Ġà¦ ľ
ĠÎ ļ
Ð» Ñı
Ġà° Ĩ
à¤ ª
à¯ģà® ¤
áĥĶáĥĳ áĥĺáĥ¡
à¸Ļ à¹Ģà¸
à«Ģ àª
±áĢ ĲáĢ¬
ģ áĢº
áĢĦ áĢ·áĢº
Î £
ĠÏĦÎ· Î½
Ð³ Ð°
Ð¸Ð½ Ð³
Ð³ Ð°Ð½
Ñĥ Ð½
ì ļ
ĠØ ¬
à´Ł àµįà´Ł
à±ģà° ¨
à¹ĥà¸ «
Î ¶
Ġag çİ¯äºļ
èµ Ľ
æ ²
è ĥ½
ä½ ľ
å½ ķ
è® ¡
é Ĵ
ãĢ Ĥ
Ġà¤ ¦
à¦¿à¦ ķ
Ð¾ Ð´
ë ı
à± Ĭ
à®Ł à¯įà®Ł
ĩ à¹Ģà¸
àµ Ĭ
Ġáĥ ŀ
Ïİ Î½
ĠàªĽ à«ĩ
Ù ĥ
ÑĤ Ð¸
à´ª àµįà´ª
ë¡ ľ
Ð½ Ñı
à¹ Ĥ
éĢ Ł
åĪ °
å Ł
åĽ ¾
åį ķ
çĲ Ĩ
åĩ º
è ¦ģ
æ Į
é ¡
æľ Ģ
æ ¯
Ġå ħ
ç½ĳ åĿĢ
ç« ¯
2 2
ä ¾
æĹ ¥
ä½ ĵ
Ġå °
ç ł
èµ °
æ ĥ
ç Ń
Ġ WW
åĬ ¿
ĠWW W
Ġå ı
æĪ Ĳ
« ĺ
è ī
Ĺ äº¬
Ġå ½
çľŁ äºº
å ī
å®¢ æĪ·
Ġè ¿
çĻ» å½ķ
Ġà¤ ľ
Î± Î½
à¦¾à¦ ²
áĥĲáĥ ª
ĠáĢŀ áĢ°
Ġà¸ ª
ģ à¸£à¸
áĢ¸áĢ Ļ
Ø ´
à±ģà° Ĥà°
Ñģ Ðº
à®¾à® ©
à¹Ħà¸Ķ à¹ī
àµĩ à´
áĢ±áĢ ŀ
Ð°Ñ ı
Ġà¦ª à§įà¦°
ĠÐ² Ð°
ĠÎ ¤
Ġ× Ĳ
áĥĺáĥ ļ
ê³ ł
Ġt he
áĢ±áĢ ķ
ĩà¸ ´
Ħà¸ §à¸²à¸
±áĢ Ķ
áĢ¬ áĢ¹áĢ
áĢ±áĢ¬ áĢĢáĢº
Ġàª ¬
æ ±
Ġ 7
5 5
åĲ Ī
Ġ 6
é ĺ
æ³ ķ
e t
æ´ ²
Ġå Ī
å¸ Ĥ
åħ ¨
é ĥ
å Ģ
à¤ ¦
Ð¾ Ñŀ
à±ģà° ķ
Î¯ Î½
Ø§ Ø±
à´¿à´ ķ
à¹ĥ à¸Ļà¸
áĥĶáĥĳ áĥĲ
à¦¿à¦ ¨
ê° Ģ
à® Ļ
Ñĥ ÑĢ
Ġà°ª à±įà°°
áĢĻ áĢ½
áĢĸ áĢ¼
Ġ b
å®¢æĪ· ç«¯
. .
å¤ ļ
å® ī
ç ®
åŃ Ĳ
à¥ĩà¤ ²
Ġ Ð°Ð´
Î ķ
ĠÎ ľ
à´³ àµįâĢį
à´¾à´£ àµį
àªĤ àª
à¦ Ĺ
Ġ ÏĮ
áĥ Ĵ
ê ²
à¹Ī à¸Ļ
Û Ķ
Ð°Ñ Ī
¡ à¸µà¸
ģ áģ
Ĺ à°¾
à´ ¦
áĢŀ áĢĬáĢ¹
Ĳ áĢ²áĢ·
ĠÐ Ĳ
áĢ ¥
áĢ² áĤķ
ĠáĢĢ áĢŃáĢ¯
ĠÎ³ Î¹Î±
à® ¨à¯įà®¤
åĬ ¨
à¤¾à¤ ²
áĢ±áĢ¬ áĢº
ë ¦
ãģ Ħ
Ġà¦ °
Ð°Ð ¿
áĥĶáĥ Ľ
Ġàª °
ĠÎ± ÏĢÏĮ
Ķ à¸´à¸
× ĳ
· à¸Ńà¸
Ġà´ °
Ð¸ Ð·
Ġáģ ı
à®¾à® ķ
Ġ Ò
è ģ
Ġå ĩ
Ġæ Ī
ä¹ ĭ
& #
å· ¥
Ġï¼ ī
ç ¨
çİ °
ç Ĥ
Ġ 8
Ġå Į
èµ° åĬ¿
à¤ ¯
à¦¾à¦ ®
à°¿à°Ĥà° ļ
Ġà´ª àµįà´°
ì ĥ
Ġ à¹Ĥà¸
ĠÐ² Ñĭ
Ġáĥ ¬
Î» Î»
à¹ī à¸Ńà¸
à¦° à§įà¦
Ġ ÛĶ
Ø§ ÛĮ
Ġê °
à¨ ¾
é «ĺ
è ¶
äº İ
åľ º
åı ¯
åŃ ¦
åĪ Ĵ
åĨ Į
æľ ¬
Ġ 9
a r
å ģ
à¹ Ĩ
è ·
éĥ ¨
à¹Īà¸ ĩà¸
à¤¾à¤ ¨
áĢ¼ áĢ¬áĢ¸áĢ
Ù ģ
àª ²
Ġ Ïĩ
áĢģ áĢ²áĢ·
ĠÐ Ł
à´£ àµįà´Ł
áĥĿáĥ ¡
à°¾à°° à±ģ
Ðµ ÑĤ
à¯ Ģ
Ī ëĭ¤
Ġà¦ ¶
ĠÎ ·
á Ł
Ġï¼ Ī
1 1
ä¹ Ī
æĹ Ĺ
ç¥ ŀ
æ Ħ
äºļ æ´²
åľ¨ çº¿
à¤¾à¤ ¹
áĢ Ĥ
àµģà´ ¤
ĠÐ ĵ
áĥĶáĥĳ áĥĺ
à°¨ à°¿
Ñ Ħ
áĢŀ áĢĬáĢº
ļ à¸²à¸
× Ĳ
ĠÎ ¸
àª £
ļà¸Ńà¸ ¥
¥à¸ °à¸
àµĨ à´¯
ĠÐ½ Ðµ
à¦¾ à§Ł
ä¸ »
æ³¨ åĨĮ
æľ Ī
å° ı
Ġ; &#
Ġ S
è§ Ĩ
æ Ļ
Ġ2 0
æīĭæľº çīĪ
å¯ ¹
à¤¾à¤ µ
à®° à¯į
Ġáĥ £áĥ
Ġà° ¬
ÏĦ Î¬
Ġà¦ ¯
e n
ĭ à¸
ãĥ ¼
ĠÐ½ Ð°
èµĽ è½¦
èĪ °
Ġ ä»
Ġà¤ °
àµįâĢ Į
Ð½ Ð¸
ĠØ§ÙĦ Ø
ë ¥
à°° à±įà°
à®¿à® ±
àª ¹
áĥĿáĥ ľ
Ïģ Î¬
Ñģ Ð¸
àµģà´ ®
±à¸ ĩà¸
Ñĭ Ñı
é ¾
à¤¾à¤ ļ
ĠÙħ ÛĮÚº
ĠÑ Ī
ĠÏĥ Ïħ
Ī à¸²à¸
à´¤ àµį
Ġà° ¦
áĥ£áĥ ł
à¦ ¼
Ġàª ı
à¯įà® ļ
ä¹ Ł
åı Į
Ġà¤Ĩ à¤¹
ĠÏĢ Î¿Ïħ
à¸£à¸ ´à¸
ãģ §
áĢ¬ áĢĽ
ìĿ ¼
à´ ķàµįà´
×ķ× ª
ì ľ
a t
¥ à¸²à¸
±áĢ ĲáĢ¼
áĢ¸ áĢĢ
áĥ §
Ð½ Ðµ
Ġà¤ ²
Ġà° ĩ
Ù ¹
ĠÑ į
Î¹ Ïĥ
Ø³ Øª
à´¿à´ Ł
à® ªà¯įà®ª
áĢ¸áĢ ŀ
Ľ à¸£à¸°à¸
àª ª
Ð´ Ð°Ð½
áĥĺáĥ ĵ
±áĢ Ľ
áĢ¯ áĢķáĢº
Ġë °
ÑĨ Ð°
àµįà´ ³
Ġ "
ÎŃ ÏĤ
· à¸Ń
² à±ĭ
7 7
æĹĹ èĪ°
¶ à¸
é ľ
ģà¸ ±à¸
ç ¤
Ġå ľ
è®¡ åĪĴ
é ķ
à¸Ńà¸ ¢
èµ°åĬ¿ åĽ¾
p k
é¾ Ļ
¡ à¸²
à¤¿à¤ ķ
Ġáĥ ķ
ĠÑ ħ
Ïģ Î¯
àª ¸
Ġáĥ ĳ
ĠáĢ »áĢķ
ģ áĢ²áĢ·
à® ļ
ê¸ °
à´ Ĺ
Ð¾ Ð¼
ĠÎ Ķ
Ġà° ī
ãģ Ĺ
à¦¿à¦ ¤
áĢ±áĢĲáĢ¬ áĢ·
ĠáĢ ±
áĢĨ áĢŃáĢ¯
ÏĦ Î±Î¹
Ø§ ÙĦ
Ð½ Ð°
Ġå½ ©
ä» £
éĩ ĳ
à¥Ĥà¤ ¨
áĤı áĢŃáĢ¯áĢĦáĢ¹áĢ
áĢŀ áĢ°
Ġ w
ĠáĥĲáĥ ł
Ġà¤® à¥ĩà¤Ĥ
Ġì ķ
áĢĽ áĢ¾
Ġà®İ à®©
Ġà´ Ĵ
áĥĶáĥ ķ
Ġàªķ àª°
ÎŁ Î
Î¹ Î¿
à¦¿ à§Ł
Ð°Ð³ Ð°
à¹Ģà¸ Ľà¹ĩ
å¥ ½
äº §
è¿ Ľ
å® ŀ
Ġà¤ ¶
Ð¾ Ð¸
Ġà® ī
×Ļ× Ŀ
Ġà° Ĺ
ĠÐ¿ Ð¾
ĠØ ±
ĠÏĢ ÏģÎ¿
à¦ ¹
ìĦ ľ
Ð°Ð» Ñĸ
áĥĶáĥ Ĺ
âĢĭ âĢĭ
à´¾à´ ¤
áĢ¬áĢ¸áĢ Ļ
à¸£à¸µ à¸
é £
é ¦
Ġ ä½
åĲ İ
åħ ¥
3 3
Ġ d
æĬ Ģ
ä» ¶
à¤ ¡
Îµ Î½
Ġ p
à¹ī à¸Ļà¸
à±įà° ª
àª® àª¾àªĤ
à¦¾à¦ ķ
Ġáģ Ĥ
Ð· Ðµ
àµģà´Ł àµĨ
áĥĺ áĥĲ
áĢ¬áĢ¸áĢ ŀ
ì Ľ
ĠÎµ ÏĢ
à¯ģà® ķ
ä¿ ¡
ç¾ İ
éĿ ¢
åĬ Ľ
æ ı
è °
ç» ı
æŀ ľ
äº ĭ
Ġå Ľ
åº ¦
å §
å° ±
å ¦
è Ĳ
à¹īà¸ §à¸
è§ Ħ
à¥įà¤ ¤
ÑĤ Ð¾
Ø Ń
áĥĲáĥ ®
à°¨ à±įà°¨
Į Ģ
Ġà´ ¬
Ġà¦ Ĺ
ĵ à¸
Ïģ ÏĮ
áĢĬáĢ¹áĢ ·
áĢħ áĢ¹
áģ¿áĢķ áĢ®áĢ¸
ĠáĢĴ áĢ®
áĢĲ áĢļáĢº
àª¨ àª¾
Ú Ĩ
áĢ° áĢ¸áĢ
ĠåĮ Ĺäº¬
å »
èĩ ª
åĮ ĸ
ģ éĢŁ
s t
å® ļ
à¥ģ à¤
± àµĨ
Ġáĥł áĥĿáĥĽ
§ à¸´à¸
ê µ
à° Ĺ
áĢľ áĢ¬
Ľ à§ĩ
Ñ ĳ
Î® ÏĤ
± à¹īà¸
áĢŃáĢ¯ áĢĦáĢ¹áĢ¸
áĢĲ áĢ¹
áĢĽ áĢ½áĢŃ
áĢ± áģ¾áĢĢ
áĢĶáĢ¹áĢ Ļ
ĠáĢ±áĢ Ľ
áĢ¬áĢ¸áĢ ľ
à¯ Ĥ
à¥įà¤ ¹
àµ »
ì ĸ
Î Ĺ
ĠÏĥ ÏĦÎ¿
ĠáĢľ áĢ°
à§ģ à¦
Ġà° İ
áĥ£áĥ ļ
o r
ÑĤ Ñĭ
à¹ĥà¸ Ĭ
ãģ «
»áĢķ áĢ¬
áĢķáĢ« áĢĲáĢļáĢ¹
áĢģ áĢ»
Ð° Ò³
àª¨ à«Ģ
ĠÙ Ħ
ł à¸²à¸
Î¿Ïħ Î½
à¦¾à¦ ¦
ÐµÐ½ Ð¸
à°ķ à±įà°
Ñĩ Ñĭ
ĠØ¯ Ø±
ë Ĥ
æ Ľ
è¿ ĩ
æĪ ĳ
å¥ ĸ
æ į
Ġå į
ä¸Ń åĽ½
Ġäºļæ¸¸ éĽĨåĽ¢
Ġå ®
è £
Ġà¤ Ĺ
áĥĲáĥ ¢
à®¿à® Ł
a l
Ġ× ©
à¸Ń à¸²à¸
áĢŃáĢ¯ áĢĢáĢ¹áĢ
áĢ ı
Ġà¦ ļ
Ħ áĢ¶
ĠáĢ ļ
ĠÐ ¡
Ïģ Î³
ì Ĥ¬
áĥĲáĥ Ĺ
à´ ´
Ĥ à¸Ńà¸ĩà¸
åįķ åıĮ
æĸ ĩ
ä» ¬
¯ åıĳ
åĵ ģ
Ġ m
è¿ Ĳ
Ġà¤ª à¥įà¤°
à°¾à° ¯
áĢģ áĢ¼
àª¾àª ®
à§įà¦ Ł
à®¾à® ²
Ïĥ ÎµÎ¹
ĠÐ »
ì ²
ĠÚ© Ø±
à´¿ àµ½
ë ĵ
Ð¸ Ð¼
áĥ£áĥ ļáĥĺ
Î¼ Î¿
à¸Ń à¸£
ĠÐ ĳ
ĠáĢķ áĢ¼
ĠÙ ģ
¬ ¬
pk 10
Ġ P
å¿ ĥ
ä¸ İ
à¹ī à¸Ļ
Ġ1 0
Ġå ¹
åı ¸
Ġag åĽ½éĻħ
ç ķ
æĹĹèĪ° åİħ
à¥ĩà¤ ¤
¦ à°¿
Ð°Ñ ĩ
¯ à¦¼
à¤ Ĥ
Îĳ Î
ĠÏĦ Î±
à« Ĥ
à®© à¯į
áĢ° áĢ¸
áĥ ĳ
áĢĶ áĢ²áĤĶ
áĢ±áĢ Ļ
Ð¾ Ð»
à¸² à¸Ļà¸
ĠA G
Ġà¤ħ à¤¸
» áĢģ
áĢ¯ áĢĲáĢ¹áĢ
áĢľ áĢĬáĢ¹áĢ¸
áĢ¯áĢŃ áĢĦáĢ¹áĢ
áĢģ áĢ¯
ìĿ Ģ
ĠÐ ľ
ĠÎ ²
áĢ¸áĢ Ľ
Ġà° ľ
áĥĲáĥłáĥ Ĺ
¨ à¸
Ðº Ð°
ĠáĢ±áĢ Ķ
áĤ Ĳ
áĢ±áĢ «
à¯įà® ²
ĠÐ ļ
áĥĶáĥ łáĥ
Ġà´ ī
Ġàª ¦
ÙĪ Úº
ĠÏĥ ÏĦÎ·
Ġà¸ Ħ
à°Ĥà° Ł
ÛĮ ÙĨ
ĩà¸´ à¸Ļà¸
éĩ į
Ġå Ĳ
Ġ ä¸Ģ
Ł ¥
åĬ ł
åħ ³
åī į
è§ £
è¿ Ļ
à¤¿à¤ ¤
× ©
i t
à¸Ļ à¹Į
Ð°Ñ ħ
Ħà¸ ¸à¸
áĢ» áĢĸáĢħáĢ¹áĢ
áĢģ áĢ¶
áĥĶáĥ ĵ
áģ ļ
ķ áĢ¼
Î» Î·
Ð¸Ð½ Ð¸
ãģ ¦
Ġà¸ ŀ
ĠØ £
£ ¼
à® ´
Ġà´ ľ
Ł à¸
Ó £
Ġà¸ Ĺà¸
àª° à«įàª
» áĢĻ
áĢķ áĢ²
åĬ ¡
å ķ
èĢ ħ
Ġåľ ¨
à¨¾ à¨
Ġ Ĉ
Ġåĩ ¯åıĳ
çľ ĭ
à¤ §
áĢĻáĢº áĢ¬áĢ¸
Ģ áĢŃáĢ¯
áĢ¸áĢ Ĳ
à¹ī à¸Ńà¸ĩà¸
Ġà¦¬ à¦¿à¦
Ġ ÏĨ
à±ģà°¨ à±įà°¨
Ñį Ð½
ìĬ ¤
à´¾à´ ²
Ġáĥ ľ
à¹Ħà¸ ¥
Ġà°ļ à±ĩà°
« à¸Ļ
áĢ¬áĢ¸áĢ ¡
Ġà¤ķ à¥Ģ
ĠÑ ĩ
àµ ¾
Î± ÏĤ
Ĺà¸ ¢
à® ķà¯įà®ķ
Ġà¸ ķ
ĠáĢ» áĢĻ
áĢķ áĢ¹
Ļ áĢº
ĠáĢĢ áĢº
ĠáĢ¡ áĢŀ
à¦¾à¦ ¤
Ġê ²
ĸ áĥĶ
à¸Ļ à¸²à¸
ĠÙ ĩ
ĠÏĢ Î±
±áĢ ķ
ķáĢ« áĢĲáĢļáĢ¹
áĢŃ áĢĲáĢ¹áĢ
áĢĶ áĢ¾
à°¿à° ¤
Ġ f
ģ à¹Ģà¸
Ð°ÑĨ ÑĮ
Ġàª ²
Ġç Ķ
Ġ k
çŃ ī
Ġ %
æĬ ķ
Ġà¤Ĩà¤¹ à¥ĩ
à§įà¦ ¬
ĠÎ Ł
à¯įà®ķà®³ à¯į
±à¸ ģà¸
ĠÛģ ÛĴ
à¥ĭà¤ Ĥ
áĥĿáĥ ķ
à±įà° µ
Ġì Ĺ
ÑĨ Ñĸ
× ł
Ġ ãĥ
áĢ¸áĢ ¡
Ò ĵ
à¹ĥà¸« à¹īà¸
Î¼ ÎŃ
Ġàª ¶
ĠáĢ Ł
ĠØ ´
Ð³ Ð¾
2 01
ç ³
è ĭ
ãĢ ĳãĢĲ
åĲ Į
åĮ º
éĴ Ł
Ġà¤ķ à¤°
áĥ ª
¸ à±įà°¤
à¦¿ à¦°
l e
à¸£à¸±à¸ ļà¸
áĢĦ áĢ·
Ġáģ ģáģ
Ðº Ð¸
ë§ Ī
Ð· Ñĸ
Ġà´µ à´¿à´
ìĿ ¸
ĠáĢ ¥
ĠÏĥ Îµ
ĠÐ¼ Ñĥ
ĠáĢ» áĢĸáĢħáĢ¹áĢ
áĢĦáĢº áĢ¸
à¸Ń à¸Ńà¸Ļ
à¹ĩ à¸Ńà¸
à®¿à® ķ
à¸Ńà¸Ńà¸Ļ à¹Ħà¸¥
ľà¸ ¹
áĥ Ļ
¡ à±ģ
àµģà´ ³
à¦ ľ
Ġàª Ĺ
à¹Ħà¸¡ à¹Īà¸
áĢ± áĢĢ
ÑĨ ÑĨÐ°
ĠæĪ ĳ
æ¯ Ķ
Īà¸ °à¸
é Ĥ
Ġæ ī
å¾ Ĺ
çĤ ¹
å± ķ
Ġæ ĸ
éĢ ļ
Ġ n
æľ Ł
à¤¾à¤ ¸
Ŀ ¼
áĢ¸áĢ ľ
Î½ Î·
Ð¸ Ñı
ĠØ ¹
±áĢ ľ
áĢ¬ áĢŀ
áĥ ¥
à°Ĥà° ¤
Î¿ Î»
à«ģ àª
Ð°Ð´ Ð¸
à¦ ĩ
áĢ¬ áĢĦáĢ¹
áĢ¬áĢ¸áĢ Ľ
ãģ ¨
Ī ĺ
ĠÐ± Ð¾
ªà¸ ¸à¸
Ġà´ ²
Ġà°µ à°¿à°
áĢĽáĢ¾ áĢŃ
à¯ģà® µ
Ħà¸§à¸²à¸ ¡à¸
Ġ Ïħ
Ġå½© ç¥ŀ
Ġ ï¿½
äº Į
æ° ĳ
éĩ ı
æ ¶
éģ ĵ
äº Ķ
å¤ ĸ
éĹ ¨
åĳ ĺ
å ĸ
éķ ¿
« à¸Ļà¸
æĢ §
à¹Ħà¸Ķ à¹īà¸
Ġ M
Ġæ ŀ
Ġ ä¸
åħ ĭ
æŃ £
èĤ ²
å ¢
è® ¯
§ à¹Īà¸²
Ġ T
Ġæ ĺ
ä¿ Ŀ
Ġ B
æķ °
çĲ ĥ
å¼ ı
Ġ çļĦ
Ġ à¥
áĥĺáĥ ł
Ð°Ð» ÑĮ
à´± àµįà´±
Ġçİ¯äºļ ag
åĪĨ éĴŁ
èµ Ħ
åĪ ¶
ĠãĢ ĭ
çł ģ
æ ģ
§ à¹Īà¸²à¸
app ä¸ĭè½½
å®ĺæĸ¹ ç½ĳç«Ļ
ķà¸ ±à¸
å» º
Ġà¤¤ à¥įà¤¯à¤¾à¤
à¦¾à¦ ¬
ÙĨ Ø¯
¥ à«Ģ
à° ļ
ĠÎ »
Ġ× ŀ×
Ġì ĺ
ĠÐ Ĵ
à¤¿à¤ ¯
ĠØ Į
ĠÑģ ÑĤ
áĥĿáĥ ĵ
Ð»Ð°ÑĢ Ð¸
ĠÑ Ħ
ŀ áĢ°
ĠÎ± Î½
áĢ¯áĢŃ áĤĶ
áĢ¸áĢ ħ
Ġà® Ĩ
à¦¾à¦ ¸
à±ģà° ¤
áĤ Ĭ
áĢ±áĢ¬ áĢĦáĢºáĢ¸áĢ
ë¦ ¬
àµĨ à´¨àµįà´¨
åĪ ©
ç³ »
Ġà¤ ļ
àª¾àª µ
Ïī ÏĤ
Ð¸ Ð±
Ġáĥ ®
à´¨ àµįâĢį
à´¾à´¯ à´¿
à°¨ à±ģ
Ñį ÑĤ
à¦¾à¦ ĩ
ĠÐ´ Ð°ÑĢ
áĢ¬ áĢĢáĢ¹
áĢ±áĢ ¡
Ĥ à¸Ńà¸ĩ
è¡ ¨
ģ à¹ĩà¸
çĽ ´
éĹ ´
è® ¾
Ġè¿ Ļ
ç ©
å¼Ģ æĪ·
à¥Ģ à¤²
ëı Ħ
áĢ±áĢ ·
ÏĦ Î®
à®£ à¯įà®Ł
áĥ ¨áĥĺ
Ġàªħ àª¨à«ĩ
Ð¸ ÑĤ
à´¿à´ ¨àµįà´
à¦ Ĥ
Ð¼ Ñĸ
Ø ¦
Î¬ Î½
Ġà° ²
ì ĺ
áĢ» áĢĸ
áĢ¬ áĢľ
é ĥ½
åħ¬ åı¸
2 8
à¤ Ĺ
Ļ áĢ½áĢ¬
áĤıáĢ½ áĢĦáĢ¹áĢ·
áĢļáĢ¹áĢ ľ
ĠáĢ Ŀ
Ðº Ñĥ
áĥĺáĥ ª
Ġà´İ à´¨àµįà´¨
ĠáĢ Ħ
Ġë §
Ïģ Îµ
Ðµ Ð¼
à¤ ¶
à®¿à® ¤
ãģ ª
× ĵ
àª ¯
à°ķ à±ģ
à¸² à¸£
àµģà´¨àµįà´¨ àµģ
áĥķ áĥĶáĥļ
ÏĦ ÏĮ
Ļ áĢ½
ĠáĢ¡ áĢħ
Ù ī
Ñģ Ñı
ĠØ§ ÙĪØ±
à¹Ī à¸Ļà¸
ë ħ
» áĢĸ
áĢŁ áĢ¬
áĢ¥ áĢ¹áĢ
ĠáĢŀ áĢŃ
à®¿à®© à¯į
à¤ ľ
Ġà¦ ī
Ġáĥ ¤
ĠáĢĢ áĢ¼
à¹Īà¸ ĩ
Ð½ Ð¸Ð½Ð³
ĠÐ± Ñŀ
Ð°Ð½ Ð´
à±Ĩ à°²
ĠÏĦ ÏīÎ½
ê ±
áĢĽ áĢ½
à«įàª Ł
Ġà´ ¯
ĠáĢĴ áĢ«
áģ ¼
ĸ áĢ¼
ìĭ ľ
o u
à±įà° ļ
ĠÐ Ŀ
æı Ĳ
à¤¾à¤ ¯
Ľ à¸£à¸
Ġáĥ ¥
Ïĥ Îµ
àµ Ī
Ġà¦ ĵ
ĠØ¨ Ùĩ
Ġì ĭ
ÑĨ Ñĭ
ª à¸´
ãģ Ł
Ġà¦ Ń
Ø§Ø ¦
à°ª à±įà°ª
4 4
Ġé ĩ
èī ²
Ġ201 9
é Ķ
Ġ g
æ £
ç¨ ĭ
æ° ´
åĪĨ å¿«3
æ Ĵ
æĬ ¥
à¹Ħà¸¡ à¹Ī
à¥ Ĥ
áĥĿáĥ ļ
ĠáĢ¡ áĢľ
à®¿à® ķà¯įà®ķ
àª Ĺ
Î¯Î½ Î±Î¹
áĢ¬ áĢĶ
ĠÐ¿ ÑĢÑĭ
à´¿à´ ¤
áĢĻ áĢ¼
à¹Īà¸ §à¸
à°² à±ģ
ë °
Ġà¤ ī
Ġáĥ ©
× ¢
à´¨àµįà´ ¤
à¦ £
à¸Ļà¸µ à¹ī
àª¾àª ¯
Ðµ Ð´
ÎĻ Î
Î» Îµ
áĢĴ áĢ®
ìķ Ī
áĢĻáĢ¾ áĢ¬
à¯įà® ³
à°² à±ĭ
à´² àµįà´²
Ġì Ħ
áĥĿáĥ ł
i s
«à¸ ¥à¸
Ø ¬
áĢĻáĢ¾ áĢ¯
Î» Î±
Ĭ é¾Ļ
å¤ §åıĳ
Ġà¤ Ń
ĠÐ £
à¸µà¸ ¢
Ġà´ ¶
áĥ ¬
àª ¦
Ð° ÒĽ
Ķ à¹Ģà¸
Î¿ Î½
à§ĩà¦ ķ
í Ĭ
à°¿à°ķ à°¿
Ñĥ Ñģ
åĨ ħ
æĥ ħ
ä½ į
Ġ D
ç® ¡
Ġ1 1
à¸µà¸ ¢à¸
å· ŀ
åı ·
è Ĭ
ĠåĮĹäº¬ èµĽè½¦
Ġ l
ç Ŀ
Ġ1 2
á Ī
à© Ģ
åı £
ä¸ ĩ
é ĵ
æīĭæľº å®¢æĪ·ç«¯
é ļ
å¼Ģ å¥ĸ
å° Ĩ
à¸Ńà¸ ¢à¸
7 0
Ġ áł
åħ ĥ
æ ¡
âĢ ľ
åı Ĭ
äº ¤
é ª
æ¬ ¡
Ġ ä¸į
Ġag äºļæ´²
æľ į
æĪ ĺ
ãĢ ģ
ç Ī
é ©
åĲ Ĺ
Ġå ¾
à¤ Ł
ĠÑ Ĩ
àµįà´ ŀ
à®¾à® ¤
áĥĶáĥĳ áĥ¡
áĢķáĢ« áĢĲáĢļáĢº
áĢ» áĢģ
áĢĸáĢ¼ áĢħáĢº
ë¥ ¼
Ñ ī
àª ľ
Îº Îµ
Ð°Ñģ Ð¸
àµģà´³ àµįà´³
à§ ľ
Ð°Ñ Ĭ
Ġ Ú¯
Ñ ĵ
ĠâĢ Ķ
à® ª
è ¢
i c
Ġ ć
åŁ İ
ç ´
Ġæ Ĺ
à¸Ń à¸Ļà¸
Ġæŀ ģéĢŁ
à© ĩ
Ġ j
æĶ ¿
è¯ ´
Ġag çľŁäºº
à¸£à¸±à¸ ļ
äº ī
å Ļ
æĺ İ
Ġå¤§åıĳ å¿«ä¸ī
é »
¡ à¸µ
åĲ į
à¤¿à¤ ²
à°¿à° ¯
à¦¿à¦ ²
àª ¡
Ð°Ñģ ÑĤ
× Ĺ
ĠáĥĲáĥ Ľ
ĠÏĢ Îµ
áĢĢ áĢ»
Ġï¼ Ł
Ġà¤¹ à¥ĭ
Ø§ Øª
ì ¹
áĥĿáĥ Ĵ
ÑĢ Ñį
ŀ àµįà´ŀ
à«ĩàª ²
áĢŃ áĢĻáĢ¹áĢ
±áĢ ŀ
áĢ±áĢ¬ áĢ·
à¯įà® µ
íķ ´
ÑģÑĤ Ð²
à¥įà¤ Ł
ĠÎµ Î¯Î½Î±Î¹
àµįà´ µ
áĤıáĢ½ áĢħáĢ¹áĢ
ĠáĢĸ áĢ¼
ĠÐ ¶
áĥĿáĥ łáĥ
à§ģ à¦²
¥ à¹ĩà¸Ńà¸
à¹ ģ
ĠÂ «
à°¿à° ª
áĢĲáĢ¼ áĢĢáĢ¹
áĢ¯ áĢĲáĢº
ª àµįà´ª
Ð°Ð ¸
Ġàª Ń
¥à¸ °
à¯ģà® ®
ãģ Ļ
éĩ Į
é¢ ĺ
ª à¸²à¸
à¸Ńà¸¢ à¹Īà¸²à¸
èĢ ĥ
ç ±
à¨ ¿
¥ ¿
çİ ©
ç ²
ç Ħ
è· ¯
èµ ·
æİ ¥
è£ ħ
æ º
å¤ ĩ
à¸Ļà¸ ±
à¤¾à¤ ľ
Ġê ³
Î ¡
Î¯Î± ÏĤ
áĥĺáĥ ¢
à°Ĥà° ¡
Ð°Ñ İ
à¤¾à¤ ®
à´ ¶
ĠØ ¢
Ï Ī
àª¾àª ¤
Ġáĥĵ áĥĲáĥ
ĠáĢĢ áĢ»
à§ĩà¦ ²
ë ³
Ġ× ķ
ÙĬ Ø©
à±įà° ¸
Î¿Ïħ ÏĤ
Ð°Ð¼ Ñĸ
Ġà®ļ à¯Ĩ
áĢ¬áĢ¸áĢ Ĳ
àµįà´ ®
ë ¶
à¹Ģà¸Ľà¹ĩ à¸Ļà¸
Ġ. ..
åº Ķ
æ ¼
e d
±à¸ ĩ
å £
ç» ĵ
à¤ ³
Ðµ Ð»
à§ĩà¦ ¶
Ġàªª à«įàª°
áĥĵ áĥĲ
áĤĢáĢĢ áĢ®áĢ¸áĢ
áĢľ áĢ²
ĠÎ ĵ
áĢĻ áĤĪ
áĢ½ áĢĶáĢº
ĠÐ Ķ
àµģà´ µ
à±įà° ®
Ġà¤ķ à¥ĭ
ĠÎ± Ïħ
Ñĥ Ð´
ì £¼
à± Ĥ
ĠáĥĴ áĥĲáĥĽ
à®² à¯į
§ à§
à´² àµįâĢį
à¤¾à¤ Ĺ
à´Ļàµįà´Ļ à´³
ÏĥÎ· ÏĤ
áĢĻ áĢŃ
à§ģ à¦°
í Ļ
à° ¹
ĠØ ®
ĠÑĪ ÑĤÐ¾
ĠáĢķ áĢ«
àª ³
ķ à¸´à¸
±áĢ Ĩ
áĢ ĩ
íĬ ¸
Î ¤
Ïģ Î·
Ð¾ Ð¹
à§įà¦ ·
à° ľ
Ġ. .
ĠáĢĨ áĢŃáĢ¯
áĥĺáĥ Ļ
çī ©
à¹Ģà¸ Ĥ
à¥įà¤ µ
áĢ ´
ĠáĢ Ĺ
× §
à´ ¹
à®¾à® Ł
áĢŃáĢ¯ áĢĢáĢº
ë ł
Ġàª¹ àª¤
à°¾à° Ĥà°
Ù ¾
ĠÎ ¬
àµģà´ £
Ġáĥ Ŀ
à¸£ à¸£à¸
à¦ ¶
åį ļ
åķ Ĩ
è´ ¹
à¥įà¤ ·
ĠØ§ÙĦ Ùħ
Ð¾ ÑĤ
ĠáĢĲ áĢħáĢ¹áĢ
áģ ½
áĢ¸ áĢĢáĢŃáĢ¯
à´ ·
Ġì §
à¸² à¸Ļ
Ġ Ð°Ð±
Ïģ Ïī
áĥłáĥ Ĺ
±áĢĲáĢ¬ áĢ·
áĢ±áĢ Ĩ
à¯įà® ©
à±ģà°² à±ģ
ãĥ ³
ĠáĢĻ áĢŃ
áĢĽ áĢŃ
e s
Ĺ à¸²à¸
à¦¾à¦ ľ
Î Ŀ
ĠÏĦ Î¹
à¹Ģ à¸£à¸
Ġå Ĭ
è¯ ķ
à¹ģà¸ ¥
æµ ·
æĦ ı
à¤¾à¤¹ à¥Ģ
Ġàª ¥
ĠâĢĭ âĢĭâĢĭ
Ġà´Ĵ à´°
Ġáģ į
Ñĥ Ð¼
à ¶
Ġà¤¸ à¥ĩ
ÙĪ Ø¯
à¯ģà®¤ à¯įà®¤
à°¾à° ¤
áĥĺáĥ ķ
ĠìĿ ´
Ġà¦ª à¦°
ĠÎ¸ Î±
Ð¾ Ð±
áĤı áĢ¯áĢŃáĢĦáĢ¹áĢ
áĢ¬áĢ¸ áĢĢáĢŃáĢ¯
u n
in g
Ġà¤Ĩ à¤£
ĠÂ »
àª ¥à«Ģ
Ø§ Ùħ
áĥĶáĥ ¢
à°¿à° ²
à¯ģà® Ł
× ¤
Î¹ Î¬
à´¾à´ µ
Ġà¦ı à¦ķ
áĢŃáĢ¯áĢ¸áĢ Ľ
Ġë Ĥ
Ð°ÑĤ ÑĮ
Ñĭ Ñħ
à¹ĥ à¸Ļ
ĠáĢ±áĢ »áĢķáĢ¬
áĢĲ áĢŃ
à°¿à° °
ï¿½ï¿½ ï¿½ï¿½
ĠÏĦÎ¿ Î½
à«įàª ¤
áĥĺáĥ Ľ
Ġà¤ ĩ
Ġà´ Ł
ĠÐ ¢
áĢ¬ áĢ¡
ľ áĢ¬
ëĭ Īëĭ¤
áĤıáĢŃáĢ¯áĢĦáĢ¹áĢ ĦáĢ¶
áĢŃáĢ³ áĤķ
áĢ Ĺ
à®² à¯įà®²
à¹Ħà¸ Ĺà¸¢
à¸Ńà¸Ńà¸Ļà¹Ħà¸¥ à¸Ļà¹Į
ģ à¸²à¸
Ð¸ Ð¹
Ò ·
à´¿à´¨àµįà´ ±àµĨ
ĠØ³ ÛĴ
ãģ Į
áĢĺ áĢ°áĢ¸
ĠÏĥÏĦÎ· Î½
ĠâĢ ¦
ģ áĢ¼
à°Ł à±įà°Ł
ĠÐ¿ Ð°Ð´
áĥķ áĥĺáĥ¡
à¦¤ à§ĩ
à¹ģà¸ ¥à¸°à¸
Ĩ áĢŃáĢ¯
à° ¬
áĢĬ áĢ·áĢº
ĠÎ Ĺ
àª ¶
à´¿à´² àµįà´²
åĪĨ åĪĨå½©
æĢ »
à¤¾à¤Ĥà¤ ļ
áĥĶáĥ Ĵ
Ð½ Ð°Ð¹
Ġà®ĩ à®°
Ĭà¸ ±
à¤¨ à¥ĩ
·à¹Ī à¸Ńà¸
à´ ¬
Ð¾ Ñģ
Î± Ïĥ
Ø ·
Ġà¦ ²
àª¿ àªķ
à°Ĥà° ²à±ĭ
Ġáĥ ¢
Ð°ÑĢ Ñĭ
åĻ ¨
ç ĥ
Ġ ?
æĢ İ
Ġå ¥
à¤² à¤¾
Î¸ Î·
à¹ĥà¸Ĭ à¹īà¸
× ŀ×
Ð»Ð¸ Ðº
à´ ļàµįà´ļ
Ð¾ Ò³
Ġà¦ ¥
ķ à¹Ī
Ðµ Ð¹
ìŀ Ĳ
à®Ļ à¯įà®ķ
à°¾à° ®
à¤Ĥà¤ ¤
à´ Ń
ĠÏĦÎ¿Ïħ ÏĤ
Ġà° Ī
áĥĶáĥļ áĥĺ
¡ à¹Ģà¸
Ð½Ñĭ Ñħ
Ġàª ļ
áĢ±áģ¾áĢĢ áĢ¬áĢĦáĢ¹áĢ¸
Ļ áĤĪ
áĢĦáĢº áĢ·
áĢĬáĢº áĢ¸
ìľ ¼
ĠÎ´ Î¹Î±
à´¾à´ ķàµįà´ķ
© à¸
à°¾à° Ł
à¦ Ń
à®± à¯įà®±
áĥ ¨
Ð¸ Ðº
ĠÚ© ÙĪ
çī ¹
à¹Ħà¸ Ľà¸
çĽ ¸
Ġå° Ĭé¾Ļ
ç» Ł
æī Ģ
ĠAG çİ¯äºļ
é ħ
çī Į
ä¼ ł
à¹Ħà¸ Ľ
ç ¼
Ġè Ģ
Ġà¤ ı
Ð½ Ñĥ
ĠáĢ»áĢĻ áĢĶáĢ¹áĢĻ
ĠáĢ Ĥ
Ġàª® àª¾àª
Ø§ Ø¯
Ð¸ ÒĽ
àµĨ à´Ł
ãĤ ĭ
à° £
Î¹Îº ÏĮ
ĠáĥĴ áĥĲáĥľ
áĢ¯áĢ¶ áĢ¸áĢ
ĠÐ± Ð°
Ġë ĭ
Ðµ Ð»Ð°ÑĢ
ĠÐ± Ñĭ
à¦ ļ
ģà¸±à¸ ļà¸
à¨ °
éĢ ī
å½ ±
Ķ à¹īà¸§à¸
Ġï¼ ģ
ç¾ ¤
é¡ µ
ä» ĸ
æ ¢
æµ ģ
ä¸Ģ ä¸ª
Ć Ĉ
Ġ á
èµ Į
è į
çĽ ®
ĠåĪ Ĩ
é¦ ĸ
å± Ģ
Ġæĸ °
æµ ĭ
Ġà¤ ĺ
ÏģÎ¹ Ïĥ
àµģà´ ±
áĥĲáĥ Ĵ
áĢ¬áĢ¸áĢ ħ
àª Ł
Ġ× ¢
à°¾à° ķ
Ø µ
Ð· Ñı
µ à¸
Ġè ¯
Ġ y
Ġà¤µ à¤¿à¤
Î¸ Îµ
áĢ±áĢ ħ
à¦¨ à§įà¦
áĥĺ áĥĲáĥľ
ë Ŀ¼
±áĢĲáĢ¬ áĢ¹áĢ
áĢ¼ áĢĢáĢ¹áĢ
áĢ¬ áĢĦáĢ¹áĢ·
áĢŀ áĢŃ
Ġà´ ¦
ĠáĢ¡ áĢ²
áģ ĭ
áĢ±áĢŀ áĢ¬
áĢ¯ áĢĽ
à°ķà±įà° ķ
ĠÎ Ŀ
Ñĭ Ð¼
ĠàªĨ àªµ
ĠáĢ ·
áĢ³ áĢŃ
áĢĲ áĢ±áĢ¬áĢº
Ġà® Ĵ
à¦ §
ĠÐ¾ ÑĤ
à´¾à´¨ àµįâĢį
à´ķàµįà´ ·
Î¿ ÏĤ
áĥĺáĥ Ŀ
t t
éĿ ŀ
Ġà¤Ĩà¤£ à¤¿
áĢ±áĢ ķáĢ«
ìĽ Ĳ
à ·
Ġà¤ Ķ
ģ áĢ¶
Îº Î±
áĢ½ áĢ²
Ġà¸ ģà¸
Ð½Ñĭ Ñı
Ġê ·
àµģà´¤ àµįà´¤
áĥ ŀ
à¸£à¸²à¸ Ħ
ĠÒ³ Ð°Ð¼
Ġà° Ń
¡à¸ ŀà¸
àª §
Ġà¦¸ à¦®
Ġà¸ Ħà¸
ÛĮ Ø¯
ÏĥÎµÎ¹ ÏĤ
Ðµ Ðº
Ġà´ħ à´µ
Ġ '
Ħà¸£à¸ Ķà¸´à¸
à¹Ĥ à¸£à¸
ĠÙ Ĭ
áĢ± áĢ¸
à¹Ģà¸ ¥
Ġà° ¶
Î¿ Î¹
áĥĺáĥ ļáĥĺ
à®³ à¯į
Ķ áĢ²áĤĶ
ĠáĢ¡ áĢĽ
Ð¾ Ð¶
¥à¸ ĩà¸
Ġàª «
ĠÎ± ÏĢÎ¿
Ġì Ĥ¬
Ġáģ ¿
áĢĶáĢ¹ áĤĶ
áĢ¬ áĢĻ
à´ ¡
à±ģà° °
Ħ à¸£
ĠâĢ ķ
Ġ H
æ ·
âĢ Ŀ
æĴ Ń
1 2
3 6
è ĥ
åº Ĩ
åį ģ
Ġ x
à¤¾à¤Ĥà¤ ¨
áĥ ¦
Ġà¦¹ à§Ł
× ŀ
ĠáĢĻ áĢ¼
Ġ à¸Ńà¸
ĠØ§ Ø³
Ñ Ĭ
à¹ĥà¸« à¹ī
Ġà¤Ķ à¤°
ãģ ¯
Î¹Îº Î®
áĢĢ áĢ¯áĢŃ
áĢĲ áĢ®
à°Ĥà° Ĺà°¾
áĢĶ áĢŃáĢ¯áĢĦáĢº
Ġàªª àª°
ĠÐ ł
Ġ20 20
Ġç »
è¢ «
åľ° åĿĢ
ç ¬¬
ç ģ
Ġà¤¹à¥ĭ à¤¤
e l
Īà¸ ±à¸
áĥ £
à¦¾à¦ ¹
àµģà´£ àµįà´Ł
à¯ģà® ±
ĠÑı Ðº
Ø ®
Ĥ °
Ïģ Ïĩ
Ð¾ ÑģÑĤ
i on
¢ à¸²à¸
ì Ĩ
ĠÂ Ń
Ġáĥ ª
à§ĩà¦ Ľà§ĩ
à´ķàµįà´ķ àµį
ÏĢ Î±
æľĢ æĸ°
a m
Ġ L
æ¬ ¢
å ŀ
ĠãĢ Ĭ
å¾ Ī
åĽ ŀ
è Ļ
ç¤ º
ķ à¹Īà¸
ç§ į
çĿ Ģ
à¥įà¤¯à¤¾à¤ ļ
à«ĩàª ®
ĠáĢ±áĢ ľ
» áĢĸáĢħáĢ¹áĢ
ĠáĢ±áĢ Ļ
áĢĳ áĢ¬áĢ¸áĢ
Ġë ª
Ġà° ¹
Ð°Ð² Ñĸ
ĠÎ ®
áĢĲ áĢŃáĢ¯áĢ·
ĠÐ¾ Ð±
¥à¹ĩà¸Ńà¸ ķ
Ĭ à¸²à¸
Ġà¦ ĩ
áĥĲáĥ ĺ
à®¿à® µ
à°° à±į
áĢ» áĢĻ
ĠáĢ± áĢĢáĢº
ĠáĢģ áĢº
ĠáĢľ áĢĢáĢ¹áĢ
ĠáģĤ áģĢ
Ð°ÑĤ Ð¸
å¦ Ĥ
åħ ¶
äº Ľ
ä¸ ľ
æł ·
è¶ ³
è ¥¿
è¯ ·
Ġ2 5
æĽ ´
à¹Ģ à¸£
Ġ0 2
à¤¾à¤ £
ĠÑģ Ð²
áĢģ áĢ«
à´¿à´ µ
ë ŀ
Ġàªķ à«ĩ
ÏĢ Îµ
áĥĺáĥ £áĥ
áĢķáĢ¼ áĢ®áĢ¸
Ġà¦ «
ĠØ§ Ø²
Ð°Ð² Ð°Ð½
ļà¸²à¸ Ĺ
Ġà¸ Łà¸£à¸µ
Ľ à¸£
à°¾à°² à±ģ
× Ľ
Ġà¤ķ à¤¾
à¹Īà¸ ĩà¹Ģà¸
ÛĮ Ú©
Î¼ ÏĮ
Ġà®ª à¯ĭ
èģ Ķ
ç§ ĳ
æĢİ ä¹Ī
Ġæ Ŀ
é¢ ĳ
éĻ ¢
Ġ2 2
à¤¾à¤ ł
àµįà´ ¥
Ð¸ Ð´
áĥĲáĥ ¨áĥĺ
« à¸²à¸
à§ ¦
Ġáģ ¾áĢĢ
áĢļáĢ¹áĢ ·
áĢ¼ áĢ¸áĢ
áĢŃáĢ¯ áĢĦáĢºáĢ¸áĢ
ĠÐ¿ ÐµÑĢ
ë ©
ĠÎ´ ÎµÎ½
à°ļ à±įà°ļ
Ġàª ĸ
Ġà§ ¨
ĠÐ ¹
ĠÒĽ Ð¸Ð»
Ð¾Ð½ Ð¸
ĠÙģ ÙĬ
Īà¸²à¸ ģà¸
à®¾à®° à¯į
à§ ĥ
ĠÎµ Î½
à´¸ àµį
ĠãĢ ĳ
æķ Ļ
èĢ ģ
åİ »
åĪ Ĺ
æİ Ĵ
1 8
ĳ åħĭ
å¸ ¸
Ł ³
è Ħ
å¯ ¼
« à¸£à¸
à¸Ńà¸ ļà¸
a i
å¾ ĭ
Ġ1 9
áĢĶ áĢ¬
à¸Ńà¸¢à¸ ¹
ä½ĵ èĤ²
éĹ ®
à¹Ģà¸ ¥à¸
æ ¨
æĮ ģ
æľ ¯
æº Ĳ
à¹īà¸ §
a s
Ġè ®
å§ Ķ
çľ ģ
Ġ1 3
Ġå¤ §
æĹ ł
Ĵ áŀ
ä» ·
Ġä½ Ĩ
Ġ N
æĺ Ł
æ´ »
éľ ¸
çº §
à¥Ģ à¤ļ
Ð¾ Ð»ÑĮ
áĥļ áĥĺáĥ¡
áĢ½ áĢº
áĢ¼ áĢĶáĢ¹áĢ
áĢĻ áĢ¬
ŀ áĢĬáĢ¹
Ġáģ ģ
à°¾à° µ
Ġà¤ª à¤°
àª¿àª ¯
áĢ¯ áĢĶáĢº
à´¿à´Ł àµįà´Ł
à§ Ĥ
Ġê ¸
Ġà®ħ à®µ
Ïĥ Î±
ĠÑģ Ð¿
Ġáĥ §
à±ģà° µ
Ñĥ Ð»
à´¾à´° àµįâĢį
Ġà´¨ à´¿à´
ĠáĢ±áĢ ĲáĢ¼
áĢĲ áĢħáĢ¹áĢ
ĠáĢ±áĢ Ĩ
ĠáĢ»áĢĻáĢĶáĢ¹áĢĻ áĢ¬
áĢĲ áĢŃáĢ¯áĤĶ
Ġáģ ĥ
ĠÚ© Ø§
ĠÎµ Îº
áĢĢ áģ
áģ¿ áĢĻ
áĢĲ áĢ°
Ð°Ð» Ð°ÑĢ
Ó ¯
å¸ Ī
å¼ º
åŁ º
«à¸ ¡à¸
ç ¡
a d
Ġé Ģ
åĢ ¼
Ġ E
ä» »
º «
Ķ à¸µ
çĦ ¶
7 8
åĸ ľ
å· §
Īà¸ °
è® º
å° ĳ
è½ ¯
Ġ ä¸Ń
ä½ ¿
ģ à¹ĩ
Ġ I
åį Ĺ
Ġà¤ ĸ
à®¿à®¤ à¯įà®¤
ì² ľ
ÑĢ Ñĥ
áĥĲáĥ Ļ
Ġì ¹
Ġáģ Ģ
Ġà¦ ĸ
Ľ áĢ½áĢŃ
áĢĢáĢ¹áĢ Ģ
Ġàª¤ à«ĩ
ĠÎ¿ Î¹
× Ŀ
áĢĲ áĢ±áĢ¬áĢ·
áĢ¼ áĢ¬
áĢĲáĢ¼ áĢĦáĢ¹
áĢŀ áĢ¬
Ġë ³
áĢ ī
à®© à¯įà®±
à° ³
ĠÐ Ĺ
à´¾à´ ¸
çī ĩ
åĲ ĳ
ä¼ ģ
æ »
o l
áŁ Ĵáŀ
åĪĨ æĹ¶æĹ¶å½©
à¤² à¥Ģ
Ġáĥŀ áĥł
à§ĩà¦ ĩ
ĠÎ Ĵ
Ġáĥĺ áĥ¡
æĶ ¶
æį ®
åı ª
Ġ v
¦ Ĥ
ç» Ħ
éĻ Ĳ
201 9
è¿ ĺ
Ġ2 22
Ġà¤¸ à¤Ĥà¤
Ð½Ñĸ Ðº
ĠÏĦÎ¹ ÏĤ
à±Ī à°¨
Ðµ Ð»ÑĮ
Ġà´¸ à´Ĥ
à®¾à®© à¯į
ĠÚ© Ûģ
à¦Ł à¦¿
Ġàª ī
ë ¬
ĠÙħ ÙĨ
áĤĢáĢĢ áĢ®áĢ¸
áĢĢ áĢ¬
à¯ģà® ³
Î´ Î¿
Ð² Ñĸ
à´¿à´² àµĨ
æł ĩ
à¤¿à¤ µ
áĢĳ áĢŃ
áĥ£áĥł áĥĺ
Ïģ Ïİ
Ð¸ Ðµ
áĢ¯ áĢĶáĢ¹áĢ¸
áĢľ áĢ¯áĢķáĢ¹áĢ
áģ µ
áĤ ĩ
± áģ¾áĢĢ
ĠáĢģ áĢ¯
ĠÐ³ ÑįÑĤ
Ġì Īĺ
à¤² à¥ĩ
Ġ à«
àªµ àª¾
à° §
ģ áĢ»
Ïģ ÎŃ
à´¾à´ Ł
à¸£à¸ §à¸
à®¾à®² à¯į
ÑģÑĤ Ð¾Ð½
ĠáĥĽ áĥĿáĥ
ĠØ¨ Ø±
Ð Ĳ
Ġà´ ±
Ð¾ ÒĽ
Ġ ãĤ
ĠÏĥÏħ Î½
ĠáĢľ áĢ¯áĢķáĢ¹áĢ
áĢĽ áĢ²áĤķ
áĢ¡ áĢħ
à¤ ¬
Ñģ ÐºÑĸ
à¹Ģà¸ ģà¸
Ð¾ Ð³
à°¿à°Ĥà° ¦à°¿
ÑĢ Ð¸
áĢĦáĢ· áĢ¹
áĢ¬ áĢ¹
áĢĻáĢº áĢŃáĢ³
ĠáĢĲ áĢĽ
áĥĶáĥ ¥
Ġà¦Ĩ à¦®
áĢ±áĢ« áĢº
à´¿à´ķàµįà´ķ àµģà´¨àµįà´¨
Ġ× Ľ
Î¼ Î¬
Ġê µ
§ à¹ĩà¸
·à¹Ī à¸Ńà¸ĩà¸
à¦¾à¦ ª
Ġà®ķ à¯Ĭ
ÛĮ Ø§
Ġáĥ ļ
àª ¬
ç ¦
è® °
äºī éľ¸
à¥įà¤¯à¤¾à¤ ¤
ĠÐ´ Ð°
à±ģà° Ĺ
ĠÎŃ Ïĩ
į à¸
ĠÐº Ð¸
áĥĲáĥ ļáĥĺ
à° Ń
ĠáĢ±áĢ ĲáĢ¬
ĠáĢ Ĭ
ÑĨ Ðµ
Ġà¦ Ľ
áĢĦ áĢ¶
àµĭ à´Ł
ì Ĥ°
ĠÎ± Î½Î±
Ġå ¯
a o
Ġ i
Ġ !
5 0
à¸µ à¹Īà¸
æł ¼
ģà¸ ±à¸Ļ
Ġ1 8
Ġå¤ ©
å± ±
ä½ ł
è ±
à¹Īà¸ §
Ġà¤ķ à¥ĩà¤²
ìĸ ´
à¤ ¼
à¯ģà® ¨à¯įà®¤
Ð¸ Ð¸
ÙĬ ÙĨ
à°¨ à±į
áĥĽ áĥĲ
àª¨ à«įàª
Ġà´ Ń
ÏĦ Î¯
ĠáĢĻ áĢº
áĢļ áĢ°
Ġâ ķ
ĠâĢ ĵ
Ð°ÑĨ Ñĭ
à§įà¦ ª
ãģ ¾
Ķ áĢ¾
à¸Ń à¸Ńà¸
Ġï¼ Ľ
ç ĸ
Ġå ¼
å ²
å·¥ ä½ľ
æĬĢ å·§
88 8
à¹ĥà¸ «à¸
Ġå ¿
å½ ĵ
çĻ ¾
å¥ ³
æİ ¨
æĥ ³
ķà¸±à¸ §
ķ à¸²à¸
ĠagåĽ½éĻħ äºļæ¸¸
ä» Ģ
Ġà¤¯ à¤¾
ĠÎ¼ ÎŃ
Ð» Ð°Ð´
áĥĺáĥ łáĥ
Ġà´ Ĺ
í Ķ
ÐµÐ½Ð¸ Ñı
ç¤ ¾
éĴ ±
å ł
å½©ç¥ ŀ
Ġéĩ į
æĶ ¾
å¤ Ħ
åı¯ ä»¥
åŀ ĭ
Ġ F
è´ ¨
æģ ¯
à¹ī à¸Ńà¸ĩ
Ĥà¸ ¶
Ļ Ģ
ä½ ķ
à¤° à¥Ģ
à¯Īà® ķ
Ġàªª àª£
ĠÛģ ÙĪ
à°° à°¿à°
Ð°Ð ¶
ĠÎ Ļ
ÛĮ Ø±
à§įà¦ ¥
à´¿à´ ªàµįà´ª
×ķ× ¨
ÏĦÎ± Î½
áĥĶáĥĳ áĥ£áĥļáĥĺ
áĢ¶áĢ¯ áĢ¸áĢ
áĢ¶áĢ¯ áĢ¸
áĢĲáĢ½ áĢĦáĢº
àª¾àª® àª¾àªĤ
¾ ³
áŀ ¶
å¸ ĥ
o t
±à¹īà¸ ĩà¸
ä¸ ¤
Ġ æľī
ĸà¸ ¶à¸
à¥ĩà¤ µ
Ðµ Ñģ
à°¾à° ¦
à´ §
¹ Ħ
Ø ¶
Ð½ Ð°Ð³Ð°
Ġà° ı
áĥĶáĥĳ áĥĺáĥĹ
Ïĥ Î¹
Ġà¦¬ à¦²
à¯ģà®ķà¯įà®ķ à¯ģ
6 8
è ¨
à¹ģà¸ ļà¸
é¢ Ħ
Ġ R
a c
ä¾ Ľ
Ġ à¸Ļ
è º«
à¸Ļà¸µ à¹īà¸
å· ²
æ Ł¥
Ġå Ĩ
æĪ ĸ
Ġ u
æ° Ķ
Ġ2 3
Ġ G
Ġ1 5
Ġç İ
Ġà¤ Ŀ
Ñį ÑĢ
Ñ Ĺ
à´¾à´ Ĥ
à¦¿à§Ł à§ĩ
Ġà° Ł
Ġì ¶ľìŀ¥
ë§ Į
àª¨ à«ĭ
á ½
Î Ľ
Î»Î¿ Î³
ç² ¾
4 5
è½¯ ä»¶
Ġ ]
ç ĭ
åĳ Ĭ
è° ĥ
è§Ĩ è®¯
ç« ĭ
åĨ Ľ
Ġ +
æī ĵ
æ² ¡
Ħà¸¸à¸ ĵà¸
æ± Ĥ
Ġæ Ń
±à¹īà¸ ĩ
Ġå¤§åıĳ æĹ¶æĹ¶å½©
à¤¾à¤ ª
ĠÐ ŀ
ĠÑı ÐºÑĸ
Ġà´Ĵà´° àµģ
Ġà¦ Ł
Ġà®İà®© à¯įà®±
ĠÎ ¹
áĥĶáĥľ áĥ¢
í ĸ
ĠÙħ ÛĮ
à°¿à° µ
Ð½Ñĭ Ðµ
áģ ¢
áĢŃ áĢĻáĢº
Ġà¦ħ à¦¨
Ġáĥ¡ áĥĲáĥĽ
Ñĥ Ð¿
Î ł
àª¾àª ¸
ĠÎµÏĢ Î¹
à¨¿ à¨
Ĥ à¸²à¸
èĢ Į
æĭ ¿
å Ķ
ĠåĽ ½
Ġ2 1
Ĺà¸ ³
å ĭ
åħ ī
ä¸ ĸ
Ġ0 1
à¤¾à¤ł à¥Ģ
à®¾à® µ
ÙĦ Ùī
Ð¾ Ð·
Ġà° Ĵ
áĢĲáĢ½ áĢĢáĢº
áĥ£áĥ łáĥ
ÏĨ Î¿
Ð» Ð°
à´® àµįà´®
× ĺ
áĥ® áĥķ
Ġà®ħ à®¤
Ġà§ §à§
ĳ áĢ¬áĢ¸áĢ
¯ ¸
áĢī áĢº
Î´ Î±
àµĩ à´°
æĸ ¯
çķ Į
à¸² à¸£à¸
Ġç Ľ
åģ ļ
é¡ ¹
èĤ ¡
åĮ Ĺäº¬
Ġà¤ «
ĠÑĤ Ð°Ðº
à¦¿à¦ ¬
à«įàª µ
Ġà°ļ à±Ĩ
Ð°Ñ Ħ
àµ ĥ
Ïĥ ÏĦÎµ
ĠØ Ń
Ġìŀ Ī
à°Ĥà° Ĺ
áĥĲáĥ ¨
à¦ ¯à¦¼
Ľà¹ĩ à¸Ļà¸
åį İ
Ć ć
Ġ ą
æŃ ¤
èģ Į
åıĳ å±ķ
Ġç §
å¤ ´
Ġ e
åĪ Ľ
/ /
ä¸ ĵ
·à¹Ī à¸Ń
à¥ĩà¤ ļ
Î»Î» Î¬
à´¾à´ ®
Ġà®ļà¯Ĩ à®¯
à°¾à° Ĺ
áĢģáĢº áĢŃ
áĢŃáĢ¯ áĤķ
áĢ¬áĢ¸ áĢĢ
Î· ÏĤ
ĠÐ Ľ
áĥĲáĥ ĸ
àª¿ àª¤
Ġà¤¹à¥Ī à¤Ĥ
ÏĦ ÎŃ
Ð½ Ð°Ñģ
ç Ł¥
é£ İ
20 20
ç« ŀ
å¢ ŀ
ä»Ģ ä¹Ī
Ġ0 4
à¤¿à¤ Ĥà¤
à´Ļàµįà´ ķ
¡ à°¾
áĢŀ áĢ±áĢ¬
ĠÐ µ
Î ľ
ĠÐº Ñŀ
Ð ĺ
Îµ ÏĦÎ±Î¹
ĠÐ¸ Ð½
áĥĲáĥ ¥
à¯įà® ®
ĠÙ¾ Ø±
à±ĩà° ¦
ĠÑĢ Ð°Ð·
ÏĢ Î¿Ïħ
àª° à«Ģ
Ġë ĮĢ
Ġa n
áĥ ĸáĥĶ
à´¾à´ ±
à®¾à® ¯
Ð½ Ð°Ñı
ÏĦÎ¹Îº ÏĮ
ĠÑ ĳ
æ Ĥ
è¿ ĳ
Ġ0 0
Ġag æĹĹèĪ°åİħ
Ġç ľ
an g
Ķà¸ ¢
Ġà¤ı à¤ķ
à±įà° ¦
Ġ× Ļ
Î¼Î± ÏĦÎ±
à®Ļ à¯įà®ķà®³
Ġì ĥ
Ġà´ļ àµĨà´¯
áģ¿áĢķ áĢ®áĢ¸áĢ
áĢ»áĢģ áĢĦáĢ¹áĢ¸
ĠáĢ ĩ
àª ļ
áĥĶáĥ Ŀ
Ù İ
Ľ áĢ¬
ĠáĢĸáĢ¼ áĢħáĢº
ĠÐ ¯
ĠÙ ĥ
Îº Î¿
ĠØ§ Ø³Øª
Ġà°¤ à±Ĩà°²
à¦ ¥
ĠÐ± Ð¸Ð»
Ð¸ Ð´Ð°
Ġæĺ ¯
§à¸ ±à¸
o k
Ġ U
åĬ ŀ
çİ ĩ
Ġ ä¸ŃåĽ½
ĠèĢ Į
éĢ ł
æĮ ĩ
à¤¾à¤ ¦
Ð ĵ
ĠÐ¿ Ð°
Ñĩ Ðµ
ë ĮĢ
à°Ĥà°¦ à°¿
Ð» Ð°Ð½
Î ¥
Î¼ Î²
Ġ Ð°Ð·
à«ĩàª µ
áĥĺáĥ ĸ
áģ ¥
áĢ¼ áĢ²
áĢŃáĢ¯ áĢľ
à´¾à´¯ à´¿à´°
à¤ Ń
à®¾à® ³
ĠØ§ ÙĨ
Ñĸ Ð´
ĠÎŃ Î½Î±
áĢ¾ áĢŃ
ë ª
à§ĩà¦ Ľ
à°¾à° ľ
Ġç ¬¬
ģà¸±à¸ ļ
åĸľ æ¬¢
±à¸ ļà¸
è§ ģ
à¹Ģ à¸£à¸²à¸
a y
åĬ ©
b et
ç ı
à¥ ī
Ġà´ħ à´¤
ĠâĢ ļ
ĠÑĸ Ð½
à±Ĥà° °
Ġà® °
áĥĿáĥ ¤
Ð½Ñĭ Ð¹
Ġàªı àªķ
ÏĦÎ¹Îº Î®
ê± ¸
ìł ķ
Ġà°ħ à°¨
Ġà®ª à¯Ĩ
áĢ±áĢ Ĵ
ÐµÐ»Ð°ÑĢ ÑĥÑģ
ĠÐ Ĩ
áĥĺáĥ ¨
Îº ÏĮ
Ġà´ª àµĭ
áĢĶáĢ¹áĢ Ģ
ĠáĢ±áĢ ŀ
áĢ¾ áĢ¬
× ¡
Ð½Ð¾ Ð¹
í ĺ
Ú Ī
ãĤ Ĵ
ĠÑĢ Ñį
å¾ ·
Ġh g
Ġà¹ģà¸ ¥à¸°à¸
Ġ >
æ Ł
éľ Ģ
åı Ĺ
åħ ±
é£ ŀ
è İ
Ġ2 4
à¥ģ à¤°
à¦¬ à§ĩ
ĠáĢ±áĢ Ĵ
áĢĲ áĢĦáĢ¹áĢ¸
Ĳ áĢļáĢ¹
»áĢģ áĢĦáĢ¹áĢ¸
áĢĳ áĢ²
ĠÏĮ ÏĦÎ¹
àªĤàª Ĺ
áĢ±áĢĲáĢ¬ áĢ¹áĢ
áĢ¸áĢ±áĢ ĲáĢ¼
áĢ±áĢĽ áĢ¸
ĠáĢĽ áĢ½áĢŃ
áĢĦáĢ· áĢ¹áĢ
ĠáĢ»áĢķ áĢĬáĢ¹áĢ
áĢ¯áĢ¶ áĢ¸
áĥķ áĥĶáĥľ
Ġà´ª à´±
ĠØ ¥
Ñ ĺ
Ġà°ķ à±Ĭ
ê² Į
à®¿à®Ł à¯įà®Ł
Ð¾ Ðº
áĢŃ áĢĶáĢº
à´ ŀàµįà´ŀ
æ¡ Ī
ĠåĬ ł
Ġ1 6
è§ Ĥ
åºĨ æĹ¶æĹ¶å½©
áŀ¶ áŀ
Ġag å¹³åı°
åı ĺ
ä¼ ĺ
Ġk 8
Ġ1 7
Ġ ä»¥
æĶ ¹
à¥ĩà¤ ¶
Ġáĥ¡áĥĲáĥ ¥
ĠáĥĶ áĥłáĥĹ
Ġà¦ķà¦° à§ĩ
Î» ÎŃ
Ñģ Ñĸ
Ð°Ð³ Ð¸
Ð¸ Ñģ
à®¾à® ®
Ł à«ĩ
à±įà°² à±ĭ
àµĤ à´Ł
ÏĦÎ¿ ÏĤ
à¹ ģà¸£à¸
ģ áĢ«
ĠáĢ¥ áĢ®áĢ¸áĢ
ĳ áĢ²
Ġë ¶
Ġ Û
Ø§ Ùĩ
Ð½Ñĭ Ð¼
ĠáĢ±áĢ ķ
áĢ±áĢĢ áĢ¬áĢĦáĢ¹áĢ¸
ĠáĢ±áĢ ¡
ĠáĢ ¦
Ġà®µ à®°
áģ ģáģ
áĥ ĸ
Ľ áĢ½
à°¿à° ®
Î¹Îº Î¬
áĢ ĵ
à¤ķ à¥įà¤·
ł à¸
áĢĲáĢ½ áĢ±
ĲáĢ¼ áĢĦáĢ¹
áĢĬ áĢ¬
à¦¿à¦ ¸
à° ·
áģ ¤
áĢĲáĢ¼ áĢĦáĢ¹áĢ¸
ĠáĢ¡áĢ² áĢĴáĢ®
±áĢ ¡
ģ áĢ¯
Ġ o
áĢĻáĢ» áĢ¬áĢ¸
Ò³ Ð¾Ð¸
Ð´ Ð·Ðµ
Ķà¸´à¸ ¡à¸ŀà¸
§à¸ ±à¸Ļ
Î· Î½
à´¾à´ ³
í Ĩ
Ġà®Ĵ à®°
ÙĨ ÛĴ
1 5
3 0
tt p
ä»£ çĲĨ
ľà¸¹ à¹īà¸
æĦ Ł
æĭ Ľ
Ķ à¸µà¸
à¥ĩà¤ ķ
Î ©
Ġ ï¿½ï¿½ï¿½ï¿½
Î» Î¬
à°¾à°¨ à°¿à°ķà°¿
Ġàª¸ àª¾àª
à´Ļàµįà´Ļ à´³àµįâĢį
Ġà´¨ à´Ł
ÑĢ Ðµ
áĥĲáĥł áĥĺ
× Ĵ
Ñı ÑĢ
ÏĦÎ± ÏĤ
ìķĪ ë§Ī
Ġê· ¸
Ġà´ ¹
áĢŃ áĢĲáĢº
à¦ķ à§ĩ
Ġáĥ¨ áĥĶáĥĽ
Î» Î®
Ø§Ø ²
Īà¸²à¸ ģ
Ġàªµ àª¿àª
ÑĤ Ñĥ
à´ ľ
áĢĢáĢ¹áĢ ŀ
áĢ±áĢ¬áĢĦáĢº áĢ¸
à¦ ĸ
ĠÎº Î¬
èĲ ¥
ģà¸ ¥à¸
Ġ1 4
è® ®
ĻĢ â
æ ®
åİ Ł
Ħà¸§à¸²à¸ ¡
á ī
à¸´ à¸Ļà¸
èĩ ³
è¾ ¾
åħ į
ī à¸
åħ Ī
ä¼ģ ä¸ļ
åİ ¿
è§Ĩ é¢ĳ
Ġag è§Ĩè®¯
ç ħ
3 8
æī ĳåħĭ
åĲ Ħ
Ġå ¦Ĥ
è¯ ģ
æ² »
Ġ0 8
ç© º
ä¹ ¦
Ġå ·
åı Ĥ
o s
à¥įà¤ ¥
ÑĤ Ð°ÑĢ
ÙĬ Ø±
Ð°Ðµ ÑĤ
à°¿à° ¸à±įà°¤
áĥ ¤
à®³ à¯įà®³
Ð» ÐµÐ½
áĢĽ áĢĦáĢ¹
áĢĬ áĢ·
áĢľ áĢ¯áĢķáĢº
ê³ ¼
ĠÎ §
àµģà´ ķàµįà´ķ
àª¾àª ľ
£áĥ ļ
Ļ à§įà¦
ÎŁÎ ¥
Îµ Ïħ
à±Ģ à°¸
ĠÐ´ Ð»Ñı
Ġ: //
åĵ ª
ï¼Į ãĢĳãĢĲ
è Į
é¢ Ĩ
à¥ ĥ
Ïį Î½
ĠØ§ ÛĮÙĨ
áĢ¯áĢŃ áĢĦáĢ¹áĢ¸
Ł áĢ¬
áĢħ áĢ¯
àµįà´± àµįà´±
àª¾àª ²
à§ĩà¦ ĸ
áĥĺ áĥĺáĥ¡
Ð» Ðµ
ìĦ ±
à°¾à°¯ à°¿
áĢħ áģ¥
áĢ±áĢ Ĳ
à®¿à® ªà¯įà®ª
Ñĥ Ðº
Ġà¤ Ł
áĢĦáĢ¹áĢ ľ
áĢ±áĢ ĺ
Ïĥ Î¿
Ġàª Ł
áĢĬ áĢ®
ìĹĲ ìĦľ
ĠÙĨ ÛĴ
à´£ à´Ĥ
ÑĪ Ñĭ
à¦ ĵ
« áĥļ
Ķà¸ ¥
en t
à¸Ńà¸£ à¹Į
± áĢĢ
áĢĸ áĢ½
ĠØ§ÙĦ Øª
Ġ× ŀ
ĠÏĢ Î¿Î»
ĠÐ³ Ñĵ
ĠÐ· Ð°
i p
Ġ222 70
Ġä» ĸ
à¤§ à¥įà¤¯
àµįà´ ¸
ÑĤ Ð¸ÑĢ
áĢ¯áĢŃ áĢĢáĢ¹áĢ
ĠáģĤ áģ
¥ à¸´à¸
à°¾à° ¡à±ģ
áĢĶáĢ¹áĢ Ĳ
Ġà®µ à¯ĩ
Ð³ Ð¸
áĢ±áĢ ĳ
Î± Ïģ
à«ĩàª ¶
ãģ ĭ
ĠØ¨ Ø§
Ġà¸ ļà¸Ńà¸¥
³à¸ «
Ð°Ð» Ðµ
Ġáĥ ĸ
áĢħ áĢ¬
à°¾à° ¸
ĠÐ ĺ
à¤¿à¤ ı
Ïĥ ÏĦ
Ġà´ª à´°
à¦¨ à§įà¦¤
áĢ¸áĢ ķ
ĺ à¸
áĢľ áĢ½
ļ à¸£à¸´à¸
à¯ģà® ªà¯įà®ª
Ñģ Ð¿
Ú¾ ÛĮ
áĢ¡ áĢĲáĢ¼áĢĢáĢ¹
ĠáĢ± áĢĢ
ĠáĢĻ áĢ½
áĢĢáĢ¼ áĢ®áĢ¸áĢ
ëĵ ¤
Ġà°ª à±Ĩ
Ġà¦ľ à¦¨
ĠÎµ Î¾
ŀ à¸Ļà¸
r o
Ķà¸´à¸¡à¸ŀà¸ ±à¸Ļà¸
ķ à¹īà¸Ńà¸ĩà¸
Ð ł
Ġà´ «
ÑĤ ÑĮ
àªµ àª¾àª¨
Ð² Ð°
Ġà°¸ à°Ĥà°
ĠÐ±Ñŀ Ð»
ÐºÐ¸ ÑģÑĤÐ¾Ð½
áĢŀ áĢ½
Ð¾ Ð»Ð¸
áĥĲáĥłáĥĹ áĥķáĥĶáĥļ
ĠáĥĶ áĥ¡
¸à¸ ķà¸
Ïĩ Îµ
åĩ Ĩ
æķ Ī
å¹ ¿
¢ à¸Ļ
Ħ à¸Ļà¸
ä» İ
åħ ļ
à¹Ģà¸ Ķ
ç Į
æĪ ¿
±à¸ ļ
à¹īà¸² à¸Ļà¸
Ġà¨ ¦
¡à¸²à¸ ģà¸
Ġæ Ĭ
¥ à¸²
à¹Īà¸ ¡à¸
Ġ W
åĪ «
Ġ [
9 8
å® ¹
ĠãĢĳãĢĲ ï¼ĮãĢĳãĢĲ
ç ª
ĠãĢ Ĳ
éĤ Ģ
ç± »
à¸£à¸ ¹
à¹Ģ à¸£à¸µà¸
æķ ´
ĠãĢĤ ãĢĤ
æľį åĬ¡
Ġå ¸
à¹ĥà¸ Ī
æŃ ¥
¡à¸² à¸£à¸
i l
Ĺà¸ ³à¸
00 0
Ġæ ¯
Ġå ĳ
å¸ ¦
Ġåı ¯
æ ¹
6 0
Ġag èµĮ
à¤¤ à¤¾
Ð°Ñ ĸ
Ø °
Ġà®ĩ à®¨à¯įà®¤
áĥĺáĥ¡ áĥ¢
à´¿à´¨ àµį
ĠáĢ¡ áĢĨ
Ñĥ Ð»ÑĮ
à§ĭ à¦¨
ÎµÎ¹ Î±
à«ĭ àªķ
Ġáģ Ħ
×Ļ× ª
à±ģà° ¡à±ģ
Ġà¤Ŀ à¤¾à¤²
ĠÐ¼ Ðµ
áĥĲáĥ ¤
áĢľ áĢĬáĢºáĢ¸
ª à¯į
Î¿Ïħ Î¼Îµ
ĠÙ Ĥ
Ġ íķ
Î¬ Î»
Ġà° «
Ð» Ð°Ñģ
é© ¬
à¤¿à¤ ¸
à´¿à´ļàµįà´ļ àµģ
ĠáĢĦ áĢ«
áĥĲáĥ ĳ
Ġà¦¬ à§įà¦¯
áĢļ áĢ¬
ĠÎ ¦
ãģ £
Ġàª° àª¹
Ïģ Î®
áĥĿáĥ ª
ŀ áĢ¼áĢ¬áĢ¸áĢ
Ġáģ Į
Ġà´ķ àµĬ
ÑĢ Ð°Ð¼
à¯Īà® ķà¯įà®ķ
áĢŃáĢ¯ áĢĦáĢ¹
áĢı áĢ¹áĢ
ÎŃ Ïģ
áĢŃáĢ¯ áĢ¸
à°ķà±įà° ·
áĥĹ áĥĲáĥľ
Ġà¤® à¤¹
à´¿à´ ¸
áĢľ áĢ°
±áĢ ħ
áģ¿áĢĻ áĢŃáĢ³áĤķ
ĠáĢĽ áĢ½
Ġàª®àª¾àª Łà«ĩ
Ġà¦¨ à¦¾
Ġ #
¹à¸ ģà¸
à¸Ńà¸ µà¸
æĸ Ļ
éĺ Ł
æĭ¿ å¤§
Ġ0 9
çĽ´ æĴŃ
éĻ Ĩ
Ĭ à¹Īà¸§à¸
Ġ =
å½© åĸľæ¬¢
çĪ ±
ĠCOM å½©åĸľæ¬¢
¸ è¿Ĳ
æĺ ĵ
æ¢ ¦
Ġ3 0
ç½ ®
¾³ éĹ¨
åħ ·
åį ĩ
à¤¾à¤ ³
áĢħ áĢ¬áĢ¸áĢ
Î» Î¯
ÑĤ Ð°
ìľ¼ ë¡ľ
Ø± ÛĮ
à±ĩà° ¶
áĢŃ áĢĻáĢ¹áĢ¸
±áĢŀ áĢ¬
ĠáĢ¡ áĢģáĢ¯
áĢ±áĢ »áĢķáĢ¬
áĢĢáĢ¹áĢ ľ
ĠáĢĶ áĢ¾
áĥĲáĥ ĸáĥĶ
à¯ĩ à®°
ĠÎ Ľ
à´¯ àµģà´Ĥ
à§ģ à¦¨
ĠÐ» Ñĸ
ç® Ĺ
éĤĢ è¯·
Ġà¤ķà¤° à¤£
ÏĦÎ¹Îº Î¬
ĠÐ¸ Ð·
Ñĸ Ð½
à±įà°² à±ģ
à§įà¦ ²
ãĥ¼ ãĥ
×ķ× ľ
ķáĢ¼ áĢ²
áĢĲ áĢħáĢº
ĠáĥĲáĥ ĵ
ĠÎµ Î¯
Ø £
ÑĨ Ñı
à®¿à® ´
Ġà´ ¡
àª¾àª £
à¤¿à¤¯ à¤¾
ìķ Ħ
Ð³ Ñĵ
Ñĥ ÑĤ
à¯ģà®³ à¯įà®³
Ġà¦¬ à¦¾à¦
Ġà° ¯
Î¼ Î·
à´µ àµģà´Ĥ
áģ¼ áĢº
áģ¿áĢķ áĢ®
áĢ³ áĢķáĢ¹áĢ
áĢħ áĢ®
Ġ ÚĨ
Ġà¦ ¡
Ġáĥ «
å® Į
åı ĸ
á ĭ
ä¹ ħ
à¹Ģà¸Ľà¹ĩ à¸Ļ
à¹ģà¸¥ à¹īà¸§
Ġ ä¸º
çł Ķ
å¥ ĩ
æ£ ĭ
ä¹ °
§à¸ ±à¸Ļà¸
á Ĭ
çº ¢
è½ ¬
¸à¸ ģà¸
æ¨ ¡
Ġäºļæ¸¸ å®ĺç½ĳ
Ġ äºº
Ġ 99
æ¶ Ī
Ġh ttp
Ġ ä¹Ł
é» ĳ
åĽ Ľ
ĭà¸ ¶
à¹Ģà¸ ª
Ġ0 7
Ġ z
åį ĵ
Ġà¤® à¥įà¤¹
áĢŃ áĢķáĢ¹áĢ
ļ áĢ°
àª Ń
áĢº áĢ¬
áĢĶ áĢ²áĢ·
áĢŀ áĢ¼áĢ¬áĢ¸áĢ
áĤıáĢ¯áĢŃáĢĦáĢ¹áĢ ĦáĢ¶
Į áĢ¬áĢĶ
Ñĸ ÑĢ
áĢ¸áĢ Ĩ
ĠÎ ĺ
ÑĢ Ð¾
à§Ģ à¦°
Ġê° Ģ
Î¹ Î½
à®ªà¯įà®ª à®Ł
áĢ±áģ¾áĢĢ áĢ¬áĢĦáĢ¹áĢ·
Ġáģ ħ
áĥĿáĥĳ áĥĺáĥ¡
àµĨ à´Łàµįà´Ł
ĻáĢº áĢ¬áĢ¸
áĢ±áĢ »áĢģ
áĢķ áĢ±áĢ¸áĢ
æľ ª
æ¸ ħ
Ġà¤¨ à¤¾à¤¹à¥Ģ
àª¾àª ¦
Ġt o
ĠÚ© Ùĩ
ĠÏĢÏģÎ¿ Ïĥ
Ġà¦¤ à¦¾à¦°
Ð· ÐµÐ½
à± ĥ
ÙĪ ÙĦ
Ġà¤ĩ à¤¸
Ġáĥ¨ áĥĶáĥ
áĢŁ áĢ¯
Ġ Ð°
àª¤ àª¾
èĬ Ĥ
æ¬ ¾
Ġå¯ ¹
æ± Ł
ç½ĳ ä¸Ĭ
è ª
éĢ ģ
åĬ Ł
ç» Ļ
1 9
åĽ ł
Ġ201 8
åŃ ĺ
è ı
å Ħ
çł ´
æĿ ¡
åĮ ħ
Ġæ ²
Ġà¨ ķ
ç Ĺ
ä¹ ł
Ġn et
Ľà¸ ¥
æŀ ģéĢŁ
Ń ¦
æµ İ
à¤¾à¤ ķ
àµĩà´ ·
Î¼ ÏĢ
à®¤à¯įà®¤ à®¿à®²à¯į
Ð°Ñĩ Ñĭ
Ð½Ð¾ Ð³Ð¾
Ġà°ļà±ĩà° ¸
ĠáĢ ĲáĢ¬
5 8
è¶ ħ
çĥ Ń
è¶³ çĲĥ
à¥įà¤¯à¤¾à¤ Ĥà¤
áĥ£áĥ ľ
Ġì ľ
áĢ¼ áĢļáĢ¹áĢ
ĠáĢħ áĢħáĢ¹áĢ
áĢĲáĢ¹áĢ ŀ
áĢľ áĢŃáĢ¯áĢ·
áĢĦáĢ¹áĢ Ĳ
áĢĶáĢ¹áĢ ľ
ĠáĢĢ áĢ¯
à§ĩà¦ķ à§ĩ
± áĢĢáĢº
ĠáĢĢ áģ½
áĢ±áĢķ áģļ
áĤ Ĩ
áĢ¸áĢ ķáĢ«
ÎĻÎ ļ
Ġá ¼
ĠÏĥ ÏĦÎ±
Ġà´ Ī
áĢ±áĢĲáĢ¼ áĢĢáĢŃáĢ¯
áĢĽ áĢ±áĢ¸áĢ
ĠÑģ Ðº
Ġ×© ×ľ
à«ĩàª Ł
ÏĦÎµ ÏĤ
à®° à¯įà®ķà®³
à°¤ à±įà°¤
ļ áĢ¬áĢĢáĢ¹áĢ
áĢ½ áĢ±
ĠáĥĹ áĥĲáĥķ
i d
å· ±
ĩ à¸²à¸Ļà¸
ģà¸ ¥
æĶ ¯
æ Ĳ
ä¼ Ĺ
éª Į
à¤¤ à¥Ģ
áĢĲáĢ²áĢ· áĢ¡
áĢŃáĢ¯áĢĦáĢº áĢĦáĢ¶
Ñĥ Ñİ
à´¦ àµįà´
ĠÐ± Ð°ÑĢ
à¦ķ à§įà¦·
ĠÎ¤ Î¿
Ġáĥĺ áĥľ
Ġà° ¡
ĠáĢ±áĢĶ áĢ¬áĢĢáĢ¹áĢ
áĢĦáĢ¹áĢ Ģ
ĠáĢĺ áĢ¬
áĢŃ áĢĻ
à®® à¯įà®ª
ĠÐĳ ÐµÐ»Ð°ÑĢÑĥÑģ
Ñĥ Ð±
Ġ ÛĮ
æŀ Ĳ
éĤĢè¯· çłģ
Ġæ ķ
à¤¿à¤ ¨
áģĢ áģĢ
Ð°Ð» Ð°
à´ķ à´°
íĻ Ķ
ĠÙĪ Ø§ÙĦ
ĠÎ ¾
ĠàªĨ àªª
Ġáĥĺ áĥĽ
ĠáĢħ áĢ¬
Ġà°® à±Ģ
áĢĻáĢº áĢ¬áĢ¸áĢ
áĢĻ áĢļáĢ¹
ĠáĢĺ áĢ¯áĢĽ
Ļà§įà¦ Ĺ
ÑĢÑĭ Ð¼
áĢĽ áĢ²áĢ·
à®° à¯įà®ķà®³à¯į
ĠáĢ¡ áĢĶ
ĠÏĢ Î¿
c h
1 6
éĹ® é¢ĺ
· à¥įà¤Ł
à´® à´¾à´¯
à«ĩ àª°
ì ½
à¦ Ľ
ãĤ Ĭ
ë ²
Ð½Ð¾ ÑģÑĤ
Ñĥ Ñĩ
ĠáģĤáģĢ áģģáģ
áĤ ī
ĠáĢ¡ áĢĳ
ĠÎ¼ Î±ÏĤ
ĠáĥĴ áĥĲáĥĵ
ĠÏĥ ÏĦÎ¹
áĢ½ áĢĦáĢº
Ð°ÑĤ Ñĭ
à§įà¦ ®
à®¾à® ®à¯į
Ġ J
åĪĨéĴŁ å¿«ä¸ī
Ķà¹īà¸§à¸ ¢à¸
åĳ ¨
à¸Ńà¸ ļ
è¯ Ŀ
Ġå¾ ·
Ġ0 5
åİ Ĩ
¢ à¸Ļà¸
æł ¡
å®ī è£ħ
æİ §
è¿Ľ è¡Į
ç»ĵ æŀľ
æ£ĭ çīĮ
à¹īà¸Ńà¸ ¡à¸
åĨ ³
Ġ ä¸Ĭ
Ġ áŀ
Ġ0 6
è ĳ
çĶµ æ¸¸
ł áł
e w
æ ĵ
Ġç ¾
P P
æ ¥
à© °
à¤¾à¤Ĥà¤¨ à¥Ģ
à±ģà°Ĥà° ¦à°¿
Ø «
ÑĪ Ñĩ
àª¾àª° à«ĩ
ìĥ µ
ë¶ Ģ
Î³ Îº
à´¤àµįà´¤ à´¿à´²àµįâĢį
àµģà´ °
à§ĩà¦ Ł
áĥĿáĥĳ áĥĲ
Ð¾ Ñı
Ġ2 8
Ġà¨ ¸
æĹ¶ éĹ´
à¹ĥà¸ Īà¸
´à¸ Ķà¸
æĢ ģ
å½ ¢
æ¸¸æĪı å¹³åı°
à¤¾à¤° à¥Ģ
à¯ģà® °
Ð» Ð¾
à´¾à´ ķ
Ħ à¸£à¸±à¸ļ
ģ à¸£à¸°à¸
Ġ äºļæ´²
Ġ O
å°± æĺ¯
Ġå İ
Ġ0 3
éĽĨåĽ¢ å®ĺç½ĳ
ģ à¹Ī
Ġæ µ
à¤°à¥įà¤ µ
× ¦
áĥĲáĥ ¦
ĠÏĢÎµ ÏģÎ¹
Ġà¦ı à¦¬
Ġà® ı
ÑģÐº Ð°Ð¹
Ñĸ Ð²
ìł ľ
à«įàª¯ àª¾
à´¿à´ ®
à¤¹ à¥Ģ
áĢľ áĢŃáĢ¯áĤĶ
áĢ¼ áĢĶáĢ¹áĢ¸
áĢ¶ áĢ·
Ñĸ Ñı
à±įà° ķ
áĥĶáĥł áĥĺ
Ð¸Ð½ Ð¸Ð½Ð³
ĠÐ± Ð¸ÑĢ
Ð» Ð°ÑĪ
Ñĥ Ð²
ÎµÎ¹ ÏĤ
Ø§Ø ¨
áĢŃ áĢĶáĢ¹áĢ¸
áĢĻ áĢ®áĢ¸áĢ
áĢ»áĢĸ áĢħáĢ¹
Ġ áĤıáĢ½áĢħáĢ¹áĢ
áĢ¡ áĢŀ
ìĥ ģ
à´¿à´² àµģà´Ĥ
Ġ áĥĲáĥľ
ĠÐ İ
ĠÐ¸ ÑĪ
Î³ ÏģÎ±
à®¾à®Ł à¯įà®Ł
Ñĩ Ð¸
áĢĿ áĢĦáĢº
ĠÐ±Ð¸Ð» Ð°Ð½
Ð¾ ÑĪ
à«įàª ²
ĠÎļ Î±
Ñĸ Ñģ
æĿ ĥ
å ĥ
2 3
Ġéĩį åºĨæĹ¶æĹ¶å½©
à¥įà¤¯à¤¾à¤ ¸
Ġà¤¨ à¥ĩ
Ġà°® à°°
Ñı Ð´
ĠÎ ¶
ìł Ħ
àµģà´ķ à´³
áĢ±áĢ ĸ
ĠáĢħ áĢŃáĢĲáĢ¹áĢ
áĢľ áĢ¬áĢ¸
Ġà®µ à¯Ĩ
ĠáĥĲáĥ ¡
áĢŁ áĢ¯áĢĲáĢ¹áĢ
áĢ±áĢĽ áĢ¬
ĠÐ± ÑĥÐ´
à«ĩàª ķ
ĠÏĢÎ± ÏģÎ±
ĠÛģ ÛĮÚº
Ġan d
ÙĪ ÙĨ
Ġ× ł
ëĤ ĺ
ĸ áĢŃáĢ¯áĤĶ
ĠáĢĳ áĢŃáĢ¯
Ð°Ñİ ÑĨÑĮ
ĠÑĩ ÑĤÐ¾
ÎĹ Î£
ĠÎºÎ± ÏĦÎ±
ĠâĢ ŀ
áĢŀ áĢĬáĢ¹áĢ·
áĢ» áĢ¾
à¤¨ à¤¾
Ġàª¤ à«ĭ
Ġà¦¨ à¦¿à¦
à®Ł à¯ģà®¤à¯įà®¤
ÏĦ Ïħ
àµģà´ ª
Ġ Ð°Ñģ
à© ĭ
à¹īà¸² à¸Ļ
ç ¬
Ġ in
à¨ ¤
åĮ Ĺ
Ĉ Ĉ
1 3
æĸ ½
Ġåħ ¶
Ġà¤¤à¥įà¤¯à¤¾à¤ Ĥà¤
Ġàª ¡
Ġáĥ¨ áĥĶáĥ¡
±áģ¾áĢĢ áĢ¬áĢĦáĢ¹áĢ¸
áĢĦáĢ¹áĢ Ļ
áĢĽ áĢ®áĢ¸áĢ
Ïģ Î¿Ïħ
ãĤ Ĥ
í ĥ
à¦ķ à§įà¦¤
à´¾ àµ»
Ð ĥ
ĠÐ³ÑįÑĤ Ð°
Ġà®Ĵà®° à¯ģ
Ïģ Î¹Î±
áĢ±áĢ¬ áĢĦáĢ·áĢº
àª¿ àªµ
Ġà°ķ à±ĭ
à¤§à¥įà¤¯ à¥ĩ
ÛĮ Ùħ
áĥĲáĥ ¬
ĠÐ¿ÑĢ Ð°ÑĨ
ĠÎ¼ Î¹Î±
Ġà¤ ¥
ÐµÐ½Ð¸ Ðµ
à°¾à° ¡
Ð°Ñ ĳ
ëħ ¸
à§ĭ à¦Ĺ
à¹Ĥà¸ ¡à¸
à«įàª¯ à«ĭ
Ġì¹ ´
áĢģáĢ» áĢĢáĢº
áĥł áĥĿ
ªà¸¸à¸ Ķ
ë į
ĠÐ ¨
ĠØ± Ø§
ÏĦ ÏģÎ¿
Ð°ÑĨ ÑĭÑı
à±įà°¨ à°¿
à¸´ à¹Ģà¸
ĠÒ ·
Ġ× Ĺ
ĠÎ´ Î·
Ð¾ Ð³Ð¾
à¸Ńà¸£ à¹Įà¸
ĠÑĤ Ñį
áĢ¯ áĢķáĢ¹
ĠáĢ¡ áĢģ
Ġàª¸ àª®
à¦¾à¦ Ĺ
Ġ" :
Ġë ı
à®¿à® ļ
ĠáĥĲáĥ ¦
Ïħ Î½
Ġà´ ķàµįà´
Ľà¸£à¸ °à¹Ģà¸
Ð² Ð°Ðµ
ãĤ ¹
ĠáĢŁ áĢ¯
ĠÎ¿ ÏĢÎ¿
à±įà° ¥
Ùĩ Ø§
áĢĢáĢ¹áĢ ¡
ĠáĢĲ áĢħáĢº
Ñĭ ÑĤ
à´¤àµįà´¤ àµĨ
Ġà¤Ń à¥Ģ
à®© à¯įà®©
à¹ī à¸Ń
åı ²
è´ Ń
à¹Ģà¸£ à¸²
à¥įà¤ ķ
à¦¦ à§ĩà¦°
áĥķ áĥļ
ĠÐ½ Ð°Ð²
Ðµ Ð·
ĠÎł Î±
Ġà®¨ à®Ł
Ġàª¤ àª®
í ı
ķ à¸£
ÏĮ ÏĦÎµ
áĢ± áĢĢáĢº
áĢŀ áĢĬáĢ¹áĢ
áĢĢáĢ¹áĢ Ĳ
Ħ áĢ¼
»áĢķ áĢ³
ĠáĢĨ áĢĽáĢ¬
áĢĢáĢ¹áĢ ħ
áĢĶ áĢļáĢº
Ġà°¸ à°®
Ġáĥ ¯
à´¾à´ §
Ġ áĤıáĢŃáĢ¯áĢĦáĢ¹áĢĦáĢ¶
áĢ¾ áĢ¯
Ġà¦¸ à¦Ĥ
Ġà®¤ à¯Ĭ
Ġìķ Ħ
çĶ ±
Ĥ à¹īà¸²à¸
1 4
ç İ¯
è§Ħ å¾ĭ
åĪĨ pk10
ĠâĢ Ļ
ãĢ Ĭ
Ġé Ļ
Īà¸ °à¹Ģà¸
à© ±
åŃ Ĺ
Ġé Ĥ
æĬĢ æľ¯
Ġà¸ Ĺà¸µà¹Īà¸
å® Ŀ
à¥įà¤ ª
ĠÐ´ Ð·Ðµ
×Ļ× ¨
Î ļ
Î´ Î¹Î±
áĥĹ áĥķáĥĺáĥ¡
Ð¸ÑĤ ÑĮ
Ġà´ ĵ
à«įàª¯ à«ģàªĤ
Ð² Ñĭ
ÏĢÎ¿ Î¹
Ø¦ ÛĴ
±áĢĽ áĢ¸
áĢ»áĢķ áĢ³
áĢļáĢ¹áĢľ áĢŃáĢ¯áĤĶ
ĠáĢķ áĢŃáĢ¯
à° Ĺà°¾
ĠØ§ÙĦØ £
Ġà¦ı à¦ĩ
ĠÑĥ Ñĩ
ĠÒ ļ
çĶµ åŃĲ
æľī éĻĲ
Ġå½©ç¥ŀ äºīéľ¸
9 6
åİ ĭ
à¥įà¤° à¥Ģ
à¯Īà®¯ à®¿à®²à¯į
ĠáĥĲáĥ łáĥ
Ð°Ð¼ Ñĥ
Ġê¸ °
ī áģ
ĠâĢĭ âĢĭ
Ļàµįà´ Ļ
ÏĢ Î¬
Ķà¸¥ à¸Ńà¸ĩ
Ġà¸ ģà¸²à¸£à¸
ĠÐ¿ Ð¾Ð´
àª Ī
áĢ ¦
à° ¶
Ð°ÑĢ Ð¸
Ġ Ð°ÑĢ
Ġæ ±
Ġå¹ ¶
Ġ ä¸ī
·à¹Ī à¸Ńà¸ĩ
Ġè ´
å¹ ²
Ī à¸£à¸´à¸
æ ĳ
Ġà¤®à¥įà¤¹ à¤£
à¦ «
Ġáĥ£áĥ ľ
à®ªà¯įà®ª à®Łà¯įà®Ł
Ġ ãģ
Î¼ÎŃ Î½
Ĳ áĢŃáĢ¯áĤĶ
±áĢĨ áĢ¬áĢĦáĢ¹áĢ
áĢ±áĢķ áĢĻ
ĳ áĢ¬áĢĦáĢ¹áĢ
áĢĢ áĢ±áĢĲáĢ¬áĢ·
áĢĦáĢ¹áĢ ŀ
ĠáĢ±áĢ ħ
áĢĲáĢ¹áĢ ľ
áĢĲ áģ
áĢ¯ áĢĴ
ĠáĢ ĵ
Ñĸ Ðº
à°° à±ģ
áĢ¬áĢ¸áĢĻ áĢº
áĢ»áĢķ áĢĬáĢ¹áĢ
áĢĶáĢ¾ áĢħáĢº
Ġà¹Ĥà¸ Ľà¸£
¡à¸ ±à¸
àª¿àª ²
¡ °
Ñĸ ÑģÑĤ
Ġà´ ı
Ġà¦¥ à§ĩà¦ķà§ĩ
Ġáĥ¡áĥĲáĥ ®
à ¬
Ġà¤ķ à¤¿
à¹Ĥ à¸Ļ
Ġà¹ģà¸ ¥à¸°
Ġ 88
Ć ą
ŀ à¸£à¸²à¸
Ġäºļæ¸¸ åĽ½éĻħ
à¸Ńà¸¢à¹Īà¸²à¸ ĩà¸
Ġè µ
è ħ
æ¼ ı
Ġà¤ ¡
Îĳ Î£
Ïĥ ÏĦÎ·
Ðµ Ð²
àª¾àª ³
Ġáĥ¨ áĥĶ
áĢ½ áĢĢáĢº
Ð¾Ð² Ñĭ
ë Ł
Ø¯ Ùĩ
Ú ĳ
Ð¾ÑĢ Ð¸
× Ł
à°¿à° Ĺ
ç®¡ çĲĨ
Ġè ĩ
ªà¸²à¸ ¡à¸²à¸£à¸
Ġà¹ģà¸ ķà¹Īà¸
Ġç º
a v
à¥ģ à¤ķ
à¯Ī à®¤à¯įà®¤
Îµ Ïģ
Ð² Ð°Ð½
áĢĻáĢ» áĢŃáĢ¯áĢ¸áĢ
Ġà¦Ĩ à¦°
àµĨà´¨àµįà´¨ àµį
ĠÐ½ Ñı
áĢĽ áĢĦáĢº
Ġáĥ¡áĥĲáĥ¥ áĥĲáĥłáĥĹáĥķáĥĶáĥļ
Ġáĥĺ áĥ§
à«ĭàª ²
ÎŁ Î£
ĠÎ± ÏĢ
è® ¤
æŀ Ħ
ä¹ ī
à¹Ģ à¸Ļà¸
å®ī åįĵ
æ¯Ķ åĪĨ
Ġ r
ĠagåĽ½éĻħ åİħ
«à¸ ¥
Ġå¿ «
å¢ ĥ
åı ĭ
u s
èĩª å·±
§à¸ ¥à¸²
- -
ķ à¸£à¸
Ġ2 6
Ĺ à¹Īà¸²
à¤Ĥà¤ ¦
à® ¸
Ñĩ Ð°
Ð¸ÑĪ Ð¸
ĠáĢľ áĢŃáĢ¯
à§ĩ à§Ł
ÙĦ ÙĬ
Ðº Ð°Ð½
ìĨ Į
àµįà´ ķàµįà´ķ
áĢĤ áĢ«
Î¸ ÎµÎ¯
Ð¿ ÑĢ
à¦¾à¦ ¶
ĠÑŀ Ð·
Ñĥ Ð·
à¥įà¤ ¸
à±įà° ¡
áĢħáĢ¹áĢ ħ
ãģ Ĩ
àµĭ à´Ĺ
à«įàª ¸
ë Ĳ
ĠáĥłáĥĿáĥĽ áĥĶáĥļ
Ø§ Ûģ
à®Ļ à¯įà®ķà®³à¯į
Ð°ÑĤ Ð°
Î³ Î¿
áĢĢáĢ¼ áĢ±áĢ¬áĢĦáĢºáĢ¸
ĠÑĢ Ð°Ñģ
Ġà° ²à±ĭ
à¦² à§ĩ
ĠáĢĢáĢŃáĢ¯ áĢļáĢ¹áĢ
áĢ® áĢľ
Ø§Ø ´
Ïģ ÎµÎ¯
Ð°Ð´ Ñĭ
Ġàªķàª° à«Ģ
×ķ× ĵ
àµĩà´ ¶
ĠáĥĽ áĥĺáĥ¡
à¦¾à¦¦ à§ĩà¦°
áĢĴ áĢ«
ĠÐº Ð°Ð½
áĢ¬áĢ¸áĢ ±áĢĲáĢ¼
áĢ» áĢĢáĢº
ĠÐ¿ÑĢ Ð¾
ĠÒ ²
Ø§Ø ¡
ģà¸ ±à¸Ļà¸
Ġåħ ¨
ĠâĢ ĺ
Ġà°ķ à±Ĥà°
à¥ ¦
ĠÎ¼ Î±
áĥł áĥĺ
ÑĤ ÑĢ
Ġà®ķ à¯Ĥ
Ġà¤Ĩ à¤ª
à°¿à° ¸
Î¹Îº Î¿
ĠáĢĴ áĢ¯
Ġà´¸ àµįà´µ
Ġìł Ħ
àª¾àª Ĺ
áĢ¡ áĢ±áĢĶ
áĤı áģ
áĢĸáĢ½ áĢ²áĢ·
à§ĩà¦ ¤
ĠÙĨ Ûģ
Ð ¡
ÑģÐº Ð°Ð³Ð°
Ġo f
ĠÎµ Ïħ
ãĥ ĥ
áĥĲáĥ Ŀ
áĢĺ áĢ²
ĠÐ¿ Ð°Ñģ
ç» Ń
æ· ±
2 4
éĤ £
äº ĳ
Ġæ İ
ä¿¡ æģ¯
è¾ ĵ
äº ¿
æ²¡ æľī
o d
Ġæ ³
áł łáł
i g
Ġæ ¾³éĹ¨
ç¥ ¨
åº Ĺ
é¦ĸ é¡µ
5 6
i m
å¹ ¶
èī ĩ
Ġå¤© å¤©
åĽ½ å®¶
à¥ ħ
à´ ļ
áĢĢ áĢ¯
ĠÐ±Ð¾ ÑĪ
áĢ¬ áĢ·
ÑĩÐµ ÑģÐº
Î´ Î·
à°Ĥà° ļ
¥à¸ĩà¸ Ĺà¸
áĢĨ áĢ±áĢ¬áĢĦáĢº
à®¿à® ®
Ġà¹Ģà¸ Ķà¸´à¸¡à¸ŀà¸±à¸Ļà¸
Łà¸ ¸à¸ķà¸
°à¹Ģà¸ ļ
Ġà¦ªà§įà¦° à¦¤
Ġ Ð°Ð¿
àª¾àª° à«Ģ
ĩ à¸²à¸Ļ
Ġ× ª
Ġà´ ŀ
Ø§ Ú©
Ġ íķĺ
ĠáĥĲáĥ ®
ÎŃ Î½
Ò³ Ð¾
Ġà´® àµģà´
ĠØ§ÙĦ Ø¹
Ħà¸£à¸Ķà¸´à¸ ķ
à¸µà¸¢ à¸Ļà¸
Ð°Ð» Ñı
Ġà¹Ģà¸ ¥
Ĭà¸± à¹Īà¸Ļ
ģà¸ ©
à´ «
Ïī ÏĥÎ·
Ð¾Ð² Ð°Ð½
áĥĲáĥ £áĥ
áĢĶáĢ¾ áĢĦáĢ·áĢº
àª¾àª Ī
Ġà¦ §
à®± à¯įà®ķ
ĠÐ» Ñİ
ÙĦ ÛĮ
Ġà¸Ĺà¸ Ķà¸¥à¸Ńà¸ĩ
Ġà¸ Ľ
Ġà°µ à±Ĩ
ĠÎ¼ ÏĢÎ¿
ĩà¸´ à¸Ļ
à¥ Į
Ġà¸ Ķà¸
à´¿à´ķ à´³
àªĤ àª¤
ĠÐ ¥
ļà¸Ńà¸ ¥à¸
Ġà¹Ģà¸ §à¹ĩà¸
Ġ à¸£
ľ ê±¸
í ħ
áĥĺáĥĵ áĥĲáĥľ
Ġà¹Ģà¸Ķà¸´à¸¡à¸ŀà¸±à¸Ļà¸ Łà¸£à¸µ
Ġà¸ Ĥ
ãĤ Į
ĠÑĩ Ð°Ñģ
à±ĩà° ¸
Ġ K
å£ «
Ħ à¸Ļ
¹ æŀľ
Ġç¾ İ
à¨ ¨
å¾ ®
on g
æĢ Ŀ
Ġäºļæ¸¸ ag
9 0
Ġå° ±
ç§ °
à¤¾à¤ Ł
à¦¿à¦ ¶
Ï Ĭ
Ġà´¸ à´®
ìł ģ
A PP
Ġ 66
ä½ İ
ªà¸ ±à¸
Ġ ï
à¤¿ à¤°
Ø± ÙĬ
à°¾à° ª
Ġà®ħ à®°
Ïħ Ïĥ
Ð½ Ð°Ðµ
àª «
áĢ»áĢĸ áĢĦáĢ¹áĢ·
ĠáĢŀáĢŃ áĢĽ
áĢ¬áĢ¸áĢ Ķ
ĠØ µ
×ķ× Ł
áĥĿáĥ Ĺ
Ġà¦ ĺ
ÏĮ Î½
à¯Īà® µ
Ð°ÑĨÑĭ Ñĸ
à´¾à´¤ àµįà´°
Ġà¨ ¹
à¸Ńà¸¢à¸¹ à¹Ī
à¸Ńà¸¢à¹Īà¸²à¸ ĩ
å¤ į
åĩ ¡
å¿ ħ
åħį è´¹
à¹Ģà¸ ŀà¸
éħ į
åı į
ç Ĭ
åĪ Ļ
æĪĳ ä»¬
Ħà¸¸à¸ ĵ
åĨ į
ç» ľ
çİ ĭ
«à¸ ¥à¸²à¸
çī Ľ
Ĺà¸µ à¸
à¥įà¤ ²
áģ ¸
ĠáĢ±áĢ ĸ
áĢ¡ áĢĽ
à°¾à° ¬
Ð°Ð¼ Ð°
ĠáĢ¡ áĢ±áĢĻ
áĢĦáĢºáĢ¸áĢ Ļ
Ð¸ Ñħ
áĥļ áĥĶáĥĳ
Ġà°Ĵ à°ķ
àª¨ à«ģàªĤ
Ø¦ ÛĮ
Ïİ ÏĤ
Ð°Ð² Ð°ÑĨÑĮ
Ġà¦ıà¦¬ à¦Ĥ
àµįà´ £
êµ Ń
Ġà®® à¯ģà®
¡à¸²à¸ ģ
Ķà¹īà¸§à¸ ¢
è¿ ŀ
çĻ» éĻĨ
«à¸£à¸ ·à¸Ń
1 7
æ ļ
ç»ı æµİ
Ġç «
èĻ İ
é Ł³
æ ħ
æĬ ¤
à¤ļ à¥įà¤¯à¤¾
ÑĨ ÑĭÑı
Ġáĥ§ áĥķáĥĶáĥļ
ĠØ ²
ĠáĢŀ áĢĲáĢĦáĢ¹áĢ¸
áĢ¸áĢ Ķ
Î¾ Î·
ĠÑı Ð³Ð¾
à´± à´¿à´¯
Ġà¤² à¤¿à¤ı
áĢĻ áĢĬáĢº
à«įàª ·
ĠÐ´ Ð°Ð²
Îµ Î»
áĥĶáĥĳ áĥ£áĥļ
Ñģ Ðµ
Ġë ¬
Ļ à¯įà®ķ
×ķ× ĳ
ĠÏĢ ÏģÏĮ
ĠÐ² Ð¾
à°¤ à±ĭ
4 0
łà¸²à¸ ŀà¸
åģ ĩ
b o
à¥ģà¤ ³
Ñĥ ÒĽ
ĠØ¹ ÙĦÙī
à´¿à´ ±
ĠÐ¿ Ð°ÑĢ
ĠÎ ¥
áĥ£áĥ Ľ
à¯įà® £
ĠÏĥÏĦÎ¹ ÏĤ
áĢ½ áĢ±áĢ¸áĢ
Ġàª ¯
ĠÑģ Ñı
Ġ3 6
å®ī åħ¨
à¸Ļà¸± à¹īà¸Ļ
æľīéĻĲ åħ¬åı¸
æĿ ¿
åĪĨ æŀĲ
Ġç ī
æī į
åĵ į
ĻĢâ ĻĢâ
ç¡ ®
å¼ ķ
à¤ ĸ
Ġà°ī à°¨à±įà°¨
à¯įà®¤ à¯įà®¤
àµįà´¯ à´Ĥ
áĢĶ áĢ·áĢº
ÏĮ ÏĤ
Ð± Ðµ
êµ ¬
ĠÑĤ Ñŀ
ĠÒĽ Ñŀ
Ð¸Ð» Ð³Ð°Ð½
ĠÐİ Ð·
ĠÑį ÑĤ
Ð¸ Ñĳ
ĠáĥĲáĥ ¥
à¯Ĩ à®°
ĠÐ´ Ð·Ñı
Øª Ø±
à´¨àµįà´ ¦
ĠÎ Ī
ĠÐŁ ÑĢ
áĢĦáĢ¹áĢ ¡
áĢ® áĢĻ
áĢĦ áĢļáĢ¹áĢ
áĢ¸áĢ±áĢ Ķ
áĢľáĢŃáĢ¯ áĢĢáĢ¹áĢ
ĠáĢĢáĢº áĢ±áĢĶ
áĢĲ áĢļáĢ¹áĢ
áĢĿ áĢº
áĤıáĢ½ áĢħáĢ¹
ģáģ ļ
áĢĦáĢ¹áĢ ±áĢ
áĤ ĥ
áĢŃ áĢĢ
áĥĺáĥ Ĵ
ĠÑģ Ð»
Ġì ļ
Ġàª ĺ
à¸Ļ à¹īà¸
Ġé ĺ
ä¸ ¾
Ġæ Ķ
i a
è¶ Ĭ
çħ §
à¤¾à¤ ¬
à´¾à´¯à´¿à´° àµģà´¨àµįà´¨àµģ
ĠÑ İ
ĠÎºÎ± ÏĦÎ¬
Ġáģ Ĩ
ĠÐ¹ Ð¸Ð»
Ñĥ ÑĪ
à¦ ¡
ĠáĢ» áĢĸ
ĸáĢ¼ áĢħáĢº
à¤¾à¤ļ à¥įà¤¯à¤¾
à®¾à® £
£áĥ ļáĥĺ
ĠØ¨ Ú¾ÛĮ
Ġ Ð°Ðº
Ġ× ¨
à°¦ à±įà°¦
àµįà´¯ à´®
à¥ĭà¤ Ĺ
ĠÐ¿ÑĢ Ð°Ð²
Î± Î»
Ġì ĸ
ĠÐ¾ Ð»
ĠÐ¼ Ð¾Ð¶
Ġàª¤ à«ĩàª®
áĥĺáĥļ áĥĺáĥ¡
Ð´ Ð°Ð³Ð¸
Ð» Ð°ÑĤ
à´ªàµįà´ª àµĭ
ĠÑĤ Ð°ÑĢ
Ġà°µ à±įà°¯
Ġà®ª à®Ł
áĥĲáĥĵ áĥĴ
à¦¦ à§įà¦
áĢ¬áĢĽ áĢ®
Î¼ Î®
ĠÛĮ Ûģ
ĠáĢķáĢ¼ áĢ±áĢ¬
ÙĪ Ø²
èĬ ±
Ġå¥ ½
Ġé Ŀ
Ġà¸ ¡à¸
Ġà¤ ł
Â µ
ĠÏħ ÏĢÎ¿
ĠÐ± ÐµÑĢ
Ġà´ĩ à´¤
Ñĭ Ð½
Ġà°ª à±ĭ
ĠÑĤ Ð°ÑĬ
áĢģ áĢĦáĢº
à¯įà® ¯
Ġàª §
ļ Į
Ð¾ Ñĩ
Ġà´ªàµįà´° à´¤
áĥķ áĥĶáĥ
ĠáĢ¡ áĢ¬
· à§įà¦Ł
Î¹Îº Î®ÏĤ
à¤¹à¥Ģ à¤Ĥ
äº§ åĵģ
l o
æķ° æį®
à¹ĥà¸«à¸ ¡
à¤² à¥ĩà¤²
à±ĩ à°ķ
Ø º
áĢĲ áĢŃáĢ¯áĢĦáĢ¹áĢ¸
»áĢķ áĢ¬áĢĦáĢ¹áĢ¸
áĢ¥ áĢ¹
ĠáĢľ áĢ½
Ð¸ ÑĦ
ĠÐ §
ÏĦ ÏīÎ½
ë³ ´
ģà¸ ¡à¸
Ġ áĤı
Ġ áĤĲ
áĢĻ áģ¼
áĢĢáģ ł
áĢĲ áĢĦáĢº
à´¾ àµ¼
à¹Īà¸ĩà¹Ģà¸ ĩà¸´à¸Ļà¸
ļà¸²à¸Ĺ à¹Ħà¸Ĺà¸¢
Ġà¸ª à¹Īà¸ĩà¹Ģà¸ĩà¸´à¸Ļà¸
¥à¸ĩà¸Ĺà¸ °à¹Ģà¸ļ
Ġà¸ Īà¸
Ġà® Ł
ĠÐ¿ÑĢ Ð°Ð´
Î¯ Îº
×Ļ× ł
ìļ Ķ
à«ĭàª ¡
Ġà¸ ŀà¸
ãĤ ¤
à¦¨ à§ĩ
à°¾à°¨ à±įà°¨à°¿
ĠÐ ¤
Î¯ Î¶
áĥĲáĥľ áĥĺ
à¤¤ à¥ĩ
áĤĢáĢĢ áĢŃáĢ³
áĢ±áĢĨ áĢ¬áĢĦáĢ¹áĢ
áĢŀ áĢŃáĢ¯áĢ·
Ġà¸ ļ
Ħà¸£à¸ ·à¹Īà¸Ńà¸ĩà¸
Ð Ĩ
ĠÎ¸ ÎŃ
Ð ŀ
ĠÑıÐºÑĸ Ñı
ĠÑĢ Ðµ
à¦ķ à¦¾à¦°
±à¸ ģ
Ùĩ Ø§ÛĮ
Ġìĭ ľ
áĥĶáĥ¥ áĥ¢
Ïĥ ÏĦÎ¿
Ġà®İà®©à¯įà®± à¯ģ
àª¾àª° àª¾
Øª ÛĴ
ÑĢ Ð°Ð½
ļà¸ ±à¸
à°¦ à°¿
ĠáĥĽ áĥĲáĥĴ
Î¼ Î¹
áģ¾áĢĢ áĢ®áĢ¸áĢ
ķ áĢ²
áĢĦáĢ¹áĢ¸ áĢŀ
Ġáģ¿ áĢķ
ľ áĢĬáĢ¹áĢ¸
ĠáĢľ áĢĢáĢº
Ħ à¹Īà¸
Ġà¨ ¨
æĬķ æ³¨
éĺ ³
Ġà¤ §
Ġt h
à¦¿à¦ Ł
àµģà´£àµįà´Ł àµį
áĥ£áĥ Ĺ
ĠÐ± Ñĥ
Ĺà¸²à¸ ĩà¸
àª ĸ
à®¤ à¯į
Ð³ Ñĸ
áĢĲáĢ¹áĢ Ĳ
ÏĦÎ· ÏĦÎ±
´ Ģ
áĢ¬áĢŀ áĢ¬
ĠÙĦ ÙĦ
Ġä½ ł
à¹ Ĭà¸
Ġç Ļ
ç½ĳ ç»ľ
åĽ Ń
« à¹ĩ
c t
Ł ©
æİĴ åĪĹ
å¸Ĥ åľº
ć Ĉ
åħ Ń
ä¾ ¿
Ġà¤¤ à¤°
Ġáĥł áĥĿáĥĴ
ĠÐ´ Ðµ
Ġà´ķ àµĭ
Ð³ Ð°ÑĢ
à©± à¨
å° Ķ
à¥Ģ à¤¤
Ġà§¨ à§¦
àª¶ à«ĩ
ãĤ ī
à°¸ à±įà°¤
ĠÎ´ Î¹
Ñı Ð»Ñĸ
áĢ±áĢĶ áĤĶ
áĢĢáĢ¹áĢ ±áĢĶ
ĠáĢĺ áĢļáĢ¹áĢ
áĢķáĢ¹áĢ Ļ
áĢ±áĢĽ áĢ¸áĢ
áĢĺ áĢ¬
à¦¨ à§ĩà¦°
áĢĬáĢ· áĢ¹áĢ
áĢŀ áĢĬáĢ·áĢº
áĥĲáĥłáĥ ĵ
Ġà´¨à´¿à´ ¨àµįà´¨
ÑĤ Ðµ
Ġà®ļ à¯Ĭ
Ġà¤¹ à¥ĩ
à°¿à° Ł
ìĹ ħ
Ñį ÑĤÑĭ
ĠÎ±Ïħ ÏĦÏĮ
Ġàª¹ à«ĭàª
à®¾à® ±
ì§Ģ ëħ¸
, "
Ġì§ Ģ
×ķ× ł
áĥĲáĥłáĥ Ľ
à§įà¦ ¨
ÛĮ Ø³
à¸£à¸²à¸Ħ à¸²
Ïĥ Ïī
ĠÐ¿ÑĢ Ð¸
ķ à¸´
ĠÐ¶ Ñĭ
Ġà¤° à¤¹
à´¾à´² àµįâĢį
à±ģà° ª
Ġà´µ à´°
ĠÐ ¦
ªà¸ ³à¸«
Ø§Ø ¹
Î³ Î³
Ð¾ ÑĢÑĭ
Ðĺ Ð
ĠÐ¾ Ð½
áĥł áĥĲáĥĽ
à¯Īà® ªà¯įà®ª
à¦¾à¦ ļ
à´¾à´ ª
Ĥà¸¶ à¹īà¸Ļ
ĠåĽ ł
åĦ ¿
Ġåĳ ¨
å¤ ª
éĺ ²
ä¾ ĭ
ä» Ĭ
å®ĺç½ĳ ä¸ĭè½½
æĬ Ĭ
Ġà¤¸ à¤®
à±ĩà° µ
Ïĥ ÏĦÎ±
áĥĶáĥĳ áĥļ
à«ĩàª ¸
ÐĲ Ð
Ð¾Ð² Ð°
Ġà¦ª à¦¾à¦°
á ¿
Ïģ ÎµÏĤ
àµģà´¨àµįà´¨ à´¤
Ġí ĺ
ĠÐ¿ Ð°Ðº
ĠÐº Ð°Ðº
à±ģà°Ĥà° Ł
¥à¸ĩà¸Ĺà¸°à¹Ģà¸ļ à¸µà¸¢à¸Ļà¸
Ġ à¸Ļà¸
àª¾àª ķ
Ġáĥ ¦
Ġà®ķ à®Ł
ĠÐ³ Ð¾Ð´
Ġæ Ģ
æĭ ī
æĺ ¾
à¥ĭ à¤ķ
à°® à±įà°®
Ù Ģ
ĠØ ·
à±ģà° ¡
Î´ Î¹
Ħ áĢĶáĢ¹áĢ¸
áĢĻáĢº áĢ³áĢŃ
ĠáĢľ áĢ¯áĢķáĢº
ĠÐº ÑĢ
Ġà¸ ¥
ķ à¹Į
áĥĶáĥĿ áĥĳ
à´¾à´ Ĺ
áĢĽ áĢĶáĢº
Ġà°ķà±Ĥà° ¡à°¾
ãĥ Ī
Ġà¹Ĥà¸Ľà¸£ à¹Ĥà¸¡à¸
Ġ à¸£à¸
ìļ ©
Î¯ ÎµÏĤ
à¦¾à¦ Ł
Ġ re
Ġà¸ ľà¸
Ġà®ĩ à®¤
à¹Ĥà¸£à¸ ĩ
¥ à«ĩ
Ð¾Ð»ÑĮ ÐºÑĸ
à¤¾à¤² à¤¾
ĠØ§ÙĦ Ø³
Ġà¸ ¥à¸ĩà¸Ĺà¸°à¹Ģà¸ļà¸µà¸¢à¸Ļà¸
à¸£à¸²à¸Ħ à¸²à¸
à°ķ à°¿
à¹Ģà¸ ķ
Ġáĥ¡áĥĲáĥ Ļ
à¯Īà®¯ à¯ģà®®à¯į
×Ļ× Ķ
ĠÎ± Î»Î»Î¬
à´¿à´ļàµįà´ļ àµį
Ġà¤ħ à¤ª
ĠÏĥÏĦÎ¿ Î½
Ġà¸¥à¸ĩà¸Ĺà¸°à¹Ģà¸ļà¸µà¸¢à¸Ļà¸ Łà¸£à¸µ
«à¸ ¡à¸²à¸
Ñģ Ñĳ
Ġà¦ľ à¦¾à¦¨
Ñ Ķ
¤ ĳ
à°¡ à°Ĥ
ĠÑĤ Ð°ÑĪ
ĠÑį ÑĤÐ¾
áĥĶáĥ ª
àª¾àª¨ à«Ģ
å§ ĭ
åĩ ł
à¹Ģ à¸Ń
Ġ5 5
åº ľ
h i
èĭ ¹æŀľ
èµ ¢
Ġ V
å¤§åıĳ å¿«ä¸ī
ç ¢
ĠåĬł æĭ¿å¤§
à¤¤ à¥įà¤¤
Ð Ĥ
Ð°Ð² Ðµ
ĠÐºÑŀ ÑĢ
ĠÑĥÑĩ ÑĥÐ½
ĠÐ± Ð¾ÑĢ
à¦¾ à§ľ
Î¿Ïį Î½
à´¾à´ ľ
Ùģ Øª
áĢ®áĢ¸áĢ ķ
Ġà®ħ à®®
ĠÐº Ð°Ð¼
áĥĶáĥĳ áĥĲáĥ¡
Ł áĢ¯
áĢ» áĢ¬áĢ¸
Ġà¦ī à¦ª
Ġà¸ªà¹Īà¸ĩà¹Ģà¸ĩà¸´à¸Ļà¸ ļà¸²à¸Ĺà¹Ħà¸Ĺà¸¢
à¸´à¸ Ķà¸
ĠÎŃÏĩ ÎµÎ¹
h u
ĠãĢĤ ï¼Į
¢ à¸Ńà¸
ć ï¼Į
å®¢æĪ·ç«¯ ä¸ĭè½½
à¤¦ à¥įà¤
ëı Ļ
ĠÐ¿ÑĢ Ð°
à«įàª ®
Ð±Ðµ ÐºÐ¸ÑģÑĤÐ¾Ð½
Ñģ Ð°
à´ªàµįà´ª àµĨà´Ł
à®¿à®± à®¤à¯ģ
Ġáĥ łáĥ
ĠÐº Ð°ÑĢ
à¸²à¸ ģ
Î¯ Î¿Ïħ
ŀà¸Ļà¸ ±à¸Ļà¸
Ġ $
Łà¸¸à¸ķà¸ ļà¸Ńà¸¥
à¹ĥà¸Ĭà¹īà¸ Łà¸£à¸µ
Ġà¸Ĺà¸Ķà¸¥à¸Ńà¸ĩ à¹ĥà¸Ĭà¹īà¸Łà¸£à¸µ
Ġà¹Ĥà¸Ľà¸£à¹Ĥà¸¡à¸ Ĭà¸±à¹Īà¸Ļ
¢à¸ §à¸
Ġà°ħ à°µ
Ġàª¶ àªķ
ĶáĢ¾ áĢĦáĢ·áĢº
Ġ": "
Ġí Ļ
Ñī Ðµ
ÙĬ Ø¯
ĠØª Ú¾
Î¼ ÏĨ
áĥĲáĥĽ áĥĵ
à¦¿à¦¤ à§ĩ
Ā Ā
ãĤ ĵ
à¤ Ī
ĠÐ¼ Ñĸ
äºº æ°ĳ
èĲ Ħ
ķ à¹Īà¸²à¸
ç³» ç»Ł
ç© ¶
Ġæ Ľ
Ġ2 7
Ġ2 00
èĪ ª
à¥įà¤ ¨
ÏĢ Î·
ĠÙĩ Ùħ
à´¿à´¨ àµĨ
ì Īĺ
ĠÎľ Îµ
Ð°Ð¼ Ð¸
Ġà°¨ à°¿à°°
ĠáĥĹ áĥ£
Ġà¹Ĥà¸ Ķà¸¢
è® ©
Ġæ °
ĸà¸¶à¸ ĩà¸
à¨ Ĥ
Ġc c
ä½¿ çĶ¨
s c
é¢Ħ æµĭ
æŃ£ è§Ħ
ä» ½
ä¸Ń å¿ĥ
2 5
Ġå¤§åıĳ å½©ç¥ŀ
Ġ q
u t
Ġè §
ģà¸ §à¹Īà¸²
é ¥
à¸£à¸¹ à¹īà¸
éĿ Ĵ
Ġ äºļ
Ġà¸ ĭà¸¶
a b
Ĺà¸ ±à¹īà¸ĩà¸
å ¡
à¸£ à¹īà¸²à¸
«à¸Ļ à¹īà¸²à¸
çĽ ĳ
æīĭæľºå®¢æĪ·ç«¯ ä¸ĭè½½
à¥ĩà¤ Ĥà¤
à¦¾à¦ §
Ñĥ Ñħ
ÏģÎ¿ ÏĤ
àµģà´¨àµįà´¨ à´¤àµį
Ġ× ¤
Ġà®ª à®¿à®°
Ġ íķľ
Ñĸ Ñĩ
áĢĿ áĢĶáĢº
àª¾àª ĩ
ÏĪ Î·
áĥ ¯
Ð½Ñĥ Ñİ
Ġà°¨ à±ģà°Ĥà°
à´¿à´ ¨àµįà´¨
è´ £
i v
Ġ5 0
ä¸ĸ çķĮ
ŀ å½©
åŁ Ł
à¥ĩà¤ £
áĢĶ áĢĬáĢ¹áĢ¸
áĢģáĢ¼ áĢĦáĢºáĢ¸
ĠØ§ ÛĮÚ©
ĠÎ¼ Î¿Ïħ
ĠØ£ ÙĨ
ÏĦ ÏİÎ½
àµĨ à´Ļàµįà´ķ
Ġë ĵ
áĥĺ áĥĶáĥł
à¦¿à¦ ®
Ø± Ø¯
à®® à®¾à®ķ
Ð² Ðµ
Î¸Î· ÎºÎµ
áĢĦáĢ¹áĢ Ĩ
áĢĲ áĢĽ
ĠáĢ¡áĢħ áĢŃáĢ¯áĢ¸áĢĽ
ÐµÐ»Ð°ÑĢ Ñĥ
ÑĢ Ð°Ð±
àªĤàª ¦
ĠáĢ¡ áĢŃáĢĻáĢ¹áĢ
ĠáĢģ áĢ¶
í Ħ
åĮ »
à¤ķ à¤¾à¤°
áĢ¼ áĢ¬áĢ¸
áĢ±áĢĲáĢ¬ áĢ¹
áĢĢáĢ¹áĢ Ĩ
áĢĸ áĢŃáĢ¯áĢ·
Ð¸Ð» Ð°ÑĢ
ĠÒĽ Ð°ÑĢ
áĥĲáĥķ áĥļ
à°¿à°¨ à°¿
ģáĢ« áĢĦáĢ¹áĢ¸
áģ Ĥ
à¦ Ļà§įà¦Ĺ
.. ..
»áĢķ áĢ®áĢ¸
áĢĢáģ ¡
áĢ±áĢľ áĢ¸
Ĳ áĢħáĢ¹áĢ
áĢĢáĢ¼ áĢ®áĢ¸
ĠÑĸ Ñħ
Ðº Ð¾
Î¹Îº Î¿Ïį
Ð»Ð°ÑĢ Ð½Ð¸
ĠÐİÐ· Ð±ÐµÐºÐ¸ÑģÑĤÐ¾Ð½
Ð¾ Ò·
ãģ ı
áĢĶáĢ¹áĢ ¡
áĢĨ áĢ¯áĢŃ
áģ¾áĢĢ áĢ¬áĢ¸áĢ
áĢ¥ áĢ®áĢ¸áĢ
ÑĤ Ð³Ð°Ð½
ÑĤÐ¸ Ð±
à«ĭ àª¤
ĠáĢ± áģ¾áĢĢ
áĢľ áĢ¯áĢŃ
Ġáģı áģĭ
áĢĻáĢ» áĢ¬áĢ¸áĢ
à§ĩà¦ ĵ
Ġå¹ ¸è¿Ĳ
å¤ ±
ç¨ ³
è¾ ĥ
çº ¦
Ġà¤® à¥ģ
Ð¼ Ð¸
Ġìł ľ
Ġà´µ àµĢ
ÏĢ ÎµÎ¹
Ġà® ľ
Ġà¤¨ à¤¹à¥Ģà¤Ĥ
Ġ×Ĳ ×ª
à±ģà°ķ à±ĭ
Ðº Ð°Ð¹
à´¤àµįà´¤ àµį
à¤Ĥà¤ Ĺ
áĥĲáĥķ áĥ¡
Ø§ Ø³
Ġàª¸àª¾àª ¥à«ĩ
Ġà¦ķà¦° à¦¾
Ð» Ñİ
ĠÐ¼ Ð°ÑĢ
Î¿Î¹ Î½
Ġà¥ §
ÏĦ Î¿Ïħ
ë© ´
à°² à±įà°²
áĥĺáĥ£áĥ ł
Ð¾Ð´ Ð·Ñĸ
à®ª à¯į
àµĨà´¯ àµģà´Ĥ
Î» Î¹
Ġ Ð°Ð¼
æ¸ ¯
Ġ2 9
åĳ ½
é£ŀ èīĩ
Ġå¤§åıĳ å¿«3
¾ è®¯
åł Ĥ
ç± ³
2 6
èĭ ±
åį ı
Ġå½ ĵ
A G
Ġä» İ
Ķà¸ ¢à¸
èĲ ½
à¹Īà¸²à¸ ¢
à¥Ģ à¤¨
à«ĭàª Ł
áĢĽ áĢ²
áĤĬ áĢĲáĢ¹áĢ
±áĢĽ áĢ¬áĢĢáĢ¹áĢ
áĢ»áĢķ áĢ®áĢ¸
±áĢĲáĢ¬ áĢ¹
áĢĦáĢ¹áĢ Ľ
ĠáĢ¥ áĢķ
áĢģáĢ» áĢŃáĢĶáĢº
à°¾à° §
Ïģ Î¯Î±
Ø§Ø± ÛĮ
Ġáĥĵ áĥĲáĥĽ
à¦¾à¦ ģ
ĠçĶ µ
çİ° éĩĳ
ĠåĪ ©
e m
Ġå° ı
å¤§ å°ı
à¹ģà¸¥ à¹īà¸§à¸
ç¦ ı
an d
à¨ ¹
· à¹īà¸Ńà¸
å ©
Ġæī ĭ
çĻ ½
æ£ Ģ
åĨ µ
è Ľ
à¹Ħà¸ §
à¸Ńà¸²à¸ «
2 7
ä¿ ®
ĠåĲ Į
ªà¸ ¹à¸
ç» ´
ç ¯
à¥įà¤ ®
à´³ àµįà´³
ĠÐ¿ÑĢ ÐµÐ´
ĠÐº ÑĥÐ½
ÑĢ Ð°
Ġà®µ à®¾à®
ìĺ ¤
ĠÎĳ Î½
áĢĸ áĢŃáĢ¯áĤĶ
Ġáģ ĩ
â ķ
ĠÐ²Ñĭ Ðº
àªµ àª¾àª®àª¾àªĤ
âĢ ¦
Ġ3 3
è¯ Ħ
åĩ »
à¹Ĩ à¸
è ŀ
èī º
à¹Ģà¸ ¡à¸
çģ «
u r
Ġà¤ħ à¤¨
áĢ¼ áĢĦáĢ¹áĢ¸
o st
áĢŁ áĢ¯áĢĲáĢº
Ġáĥ£áĥľ áĥĵáĥĲ
ÏģÎ¯ Î¿Ïħ
àµįà´° àµĢ
Ġà®ª à®¾à®°
à§ĩà¦ ®
ĠìĿ ´ë
ÙĬ ÙĦ
Ïį ÏĦÎµ
à°¾à° £
ĠÑĪ Ñĥ
Ñĥ ÑĨÑĮ
à´¨àµįà´ ±àµĨ
× ĸ
ĠáĥĲáĥł áĥĺáĥ¡
à¦¾à¦ ĵ
Ġà®ĩà®° à¯ģà®ķà¯įà®ķ
Î»Î¿ ÏĤ
Ġà´ķ àµĩ
ĠÙĩ Ø§ÛĮ
ÑĨ Ð¸
ĠØ§ Ù
ãĥ «
Î¼ Î¿Ïį
Ø± ÙĪ
Ġà¤ķ à¤¾à¤°
à±ģà°Ĥà° ¦
ÑģÑĤÐ² Ð°
à´¾à´ ¦
áĥĲáĥłáĥ Ĵ
ÑĢ Ð°Ñŀ
àª¾àª ¹
áĢ¼ áĢĻáĢ¹áĢ¸
áĢº áĢ¬áĢ¹áĢ
ĠáĢĻáĢ¼ áĢĶáĢº
ÏĢ Î¹
áĢĦáĢ¹áĢ ħ
áĢŃáĢ¯áĢ¸áĢ Ĳ
Ġà´ķ à´´
¶ Ķ
Ð»Ð¸ Ð±
Ð¸ Ð³Ð°
Ð´ Ð¸ÑĢ
à±Ģ à°°
ÏĮ Î³
Ðº Ð°Ð·
áĢ¸áĢĻ áĢº
áĢ¬ áĢĲáĢ¹áĢ
áĢķ áĢ±áĢ«
Ġáĥĵ áĥ¦
à¦¿à¦ ¦
Ġà®ª à¯Ĭ
Ñģ ÑĮ
Ð°Ð½ Ð¸
à±ģà°ķ à±ģ
Ð² Ñı
ç Ł
áł ¢
å Ĥ
ä½ ı
Ġà¸ Ĺà¸µà¹Ī
à¤¾à¤Ĥà¤¨ à¤¾
ëĭ Ī
à«įàª ķ
Îµ Îº
Ø ¸
à§įà¦ ķ
ĠáĢķáĢ¼ áĢĬáĢº
ĠáĥĽ áĥ®
Ñĸ Ð¼
áĢķ áĢ±áĢ«áĢº
à±Ģ à°µ
à´¿à´ ŀàµįà´ŀ
Ð¾ Ð´Ð¸
Îµ Ïĩ
Ñĸ Ð·
à¤ķ à¥ĩ
à®¿à®° à¯ģà®¨à¯įà®¤
à°¨ à±ĩ
Î ĵ
Î»Îµ Ïħ
ë ¹Ħ
à´¿à´² àµĩ
ĠáĥĹ áĥ¥
ç§ Ĵ
à¹ģ à¸Ļà¸
éĩ ĩ
è¯ »
éļ ¾
ĠæĪĳ ä»¬
à¸Ńà¸¢à¸¹ à¹Īà¸
ļ áŀ
à¤¾à¤ Ī
Ð¾ ÑĤÐ¾
ÎĻ Îĳ
ĠÎºÎ± Î¸
Ð½ Ð°Ñĩ
à±įà°¸ à±į
Øª ÛĮ
×Ļ× ľ
Ð°Ð» Ð¸
áĢ±áĢ¡ áĢ¬áĢĦáĢ¹áĢ
áĢ±áĢĲáĢ¼ áĢĢ
ĠáĢ±áĢĢáĢº áĢ¬áĢĦáĢ¹áĢ¸
áĢķáĢ« áĢĺáĢ°áĢ¸
ĲáĢ²áĢ· áĢ¡
áĢ±áĢķáĢ« áĢ·
ĠáĢ¡ áĢĻ
Ðµ ÑĪ
Ġìĺ ¤
áĢĶ áĢ±áĢ·
äº Ĵ
à© ģ
µ à¤°
à«Ģ àª¤
ĠáĥĽ áĥĺáĥ
ĠÏĥ Î·
Ġà´¨ à´¿à´°
à§ĩà¦ ¬
Ð´ Ñĭ
à®ļ à¯įà®ļ
áĢ¸áĢ ĳ
èĮ ĥ
à¤¾à¤µ à¤°
Ġà°ħ à°Ĥà°¦
ìĿ´ íĬ¸
Ġà´¤ à´¿à´°
áĥ® áĥĿáĥķ
áĢ±áĢ¸áĢ Ļ
Ðº Ð°Ñŀ
Ġëª ¨
Î² Î±
ĠØ§ÙĦØ Ń
à§įà¦ ļ
ãģ į
à±ģà° ¦
à´¾à´ ¹
ĠÐ¿ Ð°Ð²
à¤¸ à¥ĩ
ÏĦ ÎŃÏĤ
Ġàª ĵ
Ġà®ķ à¯ģà®±
Ð» Ð°Ð±
Ð¸Ñı ÑĤ
áĢ±áĢĽ áĢ¬áĢĢáĢ¹áĢ
ĠáĢģ áĢ»
Ġáĥ °
ĠÐ¹ Ñŀ
Ġ Ð°Ð¹
å¤ĩ çĶ¨
æľ Ľ
åħ «
ç½ĳ æĬķ
à¥įà¤¯à¤¾à¤ ¨
à´¯ à´¿à´²àµįâĢį
Ġìł ķ
à´Ļàµįà´Ļ àµ¾
ĠÙĨÛģ ÛĮÚº
Ð¾ ÑĤÐ¸
Ġà¹Ģà¸ ¡à¸
Î¼ÎŃ Î½Î¿
Ġà°ħ à°¯
Ð½ ÐµÐ½
à§ĩà¦Ľ à§ĩà¦¨
ÙĪ Ø§ÙĨ
áĢĢ áĢ°
à¸´à¸ ĩà¸
Ġy ou
áĥķ áĥĲ
±áĢ ļáĢ¬áĢĢáĢ¹áĢ
áĤı áģµ
áĢķáĢ¼ áĢ¯
à§ °
à¦°à§įà¦ ¬
Ïĥ Î¯Î±
Ð°Ñģ ÑĨÑĸ
à¸²à¸ ªà¸´
Ġà¸ªà¸ ¥à¹ĩà¸Ńà¸ķ
Ġ à¸Ń
é¦ Ļ
Ġagçİ¯äºļ éĽĨåĽ¢
æĻ ¯
Ħà¸ ¡
Ġå Ń
Ġà¤Ĩà¤¹ à¥ĩà¤¤
Ġê² ĥ
Ġà°ļ à±Ĥà°
Ð¼ Ð¾Ð½
à«įàª ¥
Ġ× §
Ð½Ð¾ Ðµ
à¯įà® ¨à¯įà®¤
ªà¸ Ķà¸
Ġáĥ© áĥķáĥĶáĥľ
à¤ ı
Î½ Ïī
Ù ĳ
Ġà¦¤ à¦¿à¦¨
áĥĲáĥłáĥ ¢
¤ à¸
áĢĦáĢ¹áĢ ĺ
áĢĤ áģ¤
ĠáĢŀáĢ° áĤĶ
ĠáĢĽ áĢ¾áĢŃ
Ð² Ð¾ÑĢ
à°¿à°Ĥà° Ĺ
Ð½Ð°Ñģ ÑĨÑĸ
ãĤ ¯
Î¬ Ïģ
ĠÐº Ð¾Ð¼
Ġáĥ£áĥ ¤
à¦° à¦¾
ĠØª ÙĪ
ĠãĢĤ âĢĿ
å·ŀ æīĳåħĭ
èĩ ´
«à¸£à¸ ·à¸Ńà¸
ç¤¾ ä¼ļ
è§£ æ¢¦
åĮĹäº¬ èµĽè½¦
Ć ï¼Į
Ġä» Ĭ
¢à¸ ±à¸ĩà¸
ģà¸ ³à¸
èĲĦ äº¬
o p
ĠâĢĿ ï¼Į
Ġæ ł
Ġè ĭ
ķà¸±à¸ §à¸
4 8
ĠagèµĮ åľº
Ġà¨ µ
å»º è®¾
à¥ĩà¤ ¨
Ð»Ð¸ ÑĪ
Ġà®¨ à¯Ģ
ĠÒ³ Ð°ÑĢ
ĠáĢľ áĢ¬
ĠÐº Ð°Ð»Ñĸ
áĢĢáĢ¼ áĢ±áĢ¬áĢĦáĢ·áĢº
ÏģÎ¿ Ïį
Ġà´ļàµĨà´¯ àµįà´¯
ÐµÐ½ ÑĮ
Ġà¦ľà¦¨ à§įà¦¯
àª¾àª¨ àª¾
ĠÎ¼Îµ ÏĦÎ±
áĥ «
à°Ĥà°¤ à±ĭ
ÐµÐ½ ÑĤ
Ùħ Ø§ÙĨ
é ĸ
à¥ģ à¤¨
ìĬ µ
Ð¼ Ð°ÑĤ
à±ģà°¨à±įà°¨ à°¾à°°à±ģ
± áĤı
ĠáĢĢáģ½ áĢ¼áĢĶáĢ¹áĢ
áĢĸáĢ¼ áĢ²áĤķ
ĠáĢ¡ áĢĲ
Î³ÏģÎ± ÏĨ
ĠØ± Ûģ
Ð½ Ð³
áĢ¡ áĢ¬áĢ¸
à±įà° ³
ĠÑĩ Ð¸ÒĽ
Ð¼ Ð°Ñģ
Ð»Ð¸ Ð³Ð¸
_ _
ĠÐ¼ Ð°ÑĬ
áĥĿáĥłáĥ ª
ÏĢ ÏīÏĤ
à«Ģàª ı
à®¿à®² à¯įà®²
±áĢ ĳáĢ¬áĢĦáĢ¹áĢ
ħ áĢ¯
à´°àµįâĢį à´¤àµįà´¤
Ġ is
Ġà´ªà´± à´ŀàµįà´ŀ
áĢ±áĢĺ áĢ¬
áĢ¬áĢ¸áĢħ áĢ¯
Ġ æľ¬
à¹ģà¸ļà¸ ļ
d 88
Ġà¤° à¤¾à¤ľ
à°² à±į
ĠÏĥ ÏĦ
ĠÑĤ ÑĥÑĢ
Ġà´¤ àµģà´Ł
ĠáĢŀ áĢ¶
Ġ× Ĵ
áĥĲáĥķ áĥ¨
Ġè ħ
Ġ à¹Ĩ
ª à¹Īà¸§
Ġé «ĺ
æĸ Ń
à¹ģà¸ ¥à¸°
èİ ·
à¹Ģà¸ ŀ
åı Ī
à¥ĭ à¤²
Ġàªķ à«ĭàª
Ð»Ð°ÑĢ Ð½Ð¸Ð½Ð³
Ð»Ð°ÑĢ Ð¸Ð½Ð¸
ĠÐ¾ ÑĢ
ĠáĢĢáĢºáĢ±áĢĶ áĢ¬áĢ¹áĢ
áĢĲáĢ¬ áĢĢáĢŃáĢ¯
áĢĲáĢ¬ áĢķáĢ«
áĢŃáĢ¯ áĢĢáĢ¹
Ġáģ Ī
à¦¨ à¦¾
ĠÑŀ ÑĢ
ĠÑŀ ÑĤ
Ð¾ ÑģÐ¸
ÛĮ Øª
áģ¾áĢĢ áĢĬáĢ¹áĢ·
áĢ®áĢ¸áĢ Ľ
Ġà®¤ à®®
ÏģÎ± Î³
à®£ à¯įà®£
Ð» Ñĭ
à± Į
ĠÐ Ń
áĢĻáĢ¾ áĢĲáĢº
à´¯ àµģà´ŁàµĨ
à§ Ī
Î¿ Ïģ
áĥľ áĥĺáĥ¡
Ù ĭ
Ġà®¤ à®¿à®°
àª ¥
Ð°Ð½ Ð³
à¹ĥà¸Ĭ à¹ī
u b
çĽ ĺ
Ġ201 7
æķĻ èĤ²
Ġ äºĶ
Ġå¤§åıĳ æŀģéĢŁ
è± ¡
Ġå ±
Ġ2 55
Ġ æľĢ
2 9
à¤¾à¤¨ à¥ĩ
±áĢ Ļ
ĠáĢŀ áĢ¼áĢ¬áĢ¸áĢ
áĢĶáĢ¹áĢĢ áĢ¯
áĢ³ áĢķáĢ¹
áĢŀ áĢĻ
Ġà´µ àµĨ
áĥł áĥĺáĥ¡
ĠÏĥ Î±ÏĤ
à¯ĩ à®©à¯į
áĢ¥áĢ¹áĢ ¸
áĢ°áĢ¸áĢ ľ
ÑģÐº Ð°Ñı
áģ ¶
ĠáĢĽ áĢ¬
à®¿à®© à¯įà®±
Ġà°ķ à°²
ĠØ§ Ù¾
å¼Ģå¥ĸ ç»ĵæŀľ
Ġag åľ¨çº¿
åĥ ı
å¿« ä¹Ĳ
Ĭ à¸µà¸
éĹ »
à¹ Ħà¸£
æŀ Ĺ
Ġå º
æŀ ģ
æ¯ ı
à¨ ¦
æ² ³
a p
à¥ĩà¤ ¸
Ð¾ Ðµ
à¦¬ à¦¾à¦°
áĢĻ áĢŃáĢ¯
ĠáĥĽ áĥĹ
ĠÑģ Ð°Ð¼
àµĩ à´£àµįà´Ł
áĢĿ áĢ«
ĠÎ± Î³
à¦¸ à§įà¦¥
ĠáĢ §
áł ¤
ĠåĪĨ åĪĨå½©
à¨ ¸
è¾ ¹
éĻ į
çŃ ĸ
à¥ģà¤³ à¥ĩ
±áĢķ áģļ
ĠáĢĢáĢ» áĢ½áĢĶáĢº
Ġáĥ® áĥĶáĥļ
Ġ×ľ ×Ķ
Î Ķ
Î² Î¬
ì °
àµĢ à´µ
Ġà¤ī à¤¨
Ġà®ĩà®° à¯ģà®¨à¯įà®¤
ÑĢ Ð´
Ð² Ð°ÑĢ
à°Ĥà° ª
ĠØ§ Ùħ
à« ĥ
ĠÎ ¡
Ñĸ ÑĨÑĮ
»áĢķ áĢĬáĢ¹áĢ
áĢģáĢº áĢĦáĢ¹áĢ¸
áĢĨ áĢ¯áĢ¶
ĠÐ² ÑĸÐ´
ãĥ ©
Ġáĥ¡ áĥ¢
à´¨ à´Ĥ
Ġà°µ à°¾à°°
à¹Īà¸ ¡
«à¸Ļà¸ ¶
å¼ ł
è ³
æ® µ
Ġå Ĵ
éĻ ©
2 1
à¤Ĥà¤ ¡
ĠÐ² ÑģÐµ
Î¸ Î®
áĢĲáĢŃ áĢļ
à§ĩà¦ ¸
ëĤ ¨
Ġì Ĩ
Ġà®® à¯ĩ
à´¤àµįà´¤ à´¿à´¨àµįà´±àµĨ
Ð°Ð³ Ð°Ð½
Ð¸Ð¼ Ð¸Ð·
ÑģÐ¸ Ñı
ÏĦÎ¹Îº ÎŃÏĤ
ĠáĢ±áĢĴ áģļ
ĠáĢĻáĢŃ áĢĻáĢŃ
ĠáĢĽ áĢ²
ÙĨ ÛĮ
ÑģÑĤ Ñĭ
áĢ¡ áĢĶ
áĥĿáĥ Ļ
èģĮ ä¸ļ
Ġag äºļæ¸¸
ĠéĤ £
è¯ ¥
à¸£à¸£à¸ ¡à¸
æ² ¹
è¨ Ģ
çĽ Ĭ
å® ¤
æıĲ ä¾Ľ
à¸Ļà¸ ´à¸
è Ń¦
åĽ ´
± ¼
o w
Ġà¤¤ à¥ĩ
à±ģà°² à±ĭ
ĠÎº Ïħ
Ðº Ð¸Ð»
áĢĽ áĢĦáĢ¹áĢ
áĢĻáĢº áĢ¸áĢ
à¦¾à¦¬ à§ĩ
Ġàªķ àª¾àª°
Ð°Ð½ Ñĭ
à±įà° Ĺ
áĥĿáĥłáĥ Ľ
ÑĤ ÐµÑĢ
Ïħ Î½Î±
áģ Ĭ
à´¾à´¤ àµįà´¤
Ġáģ İ
» ¿
ëĵ ľ
Ġ Ð°Ð»Ðµ
Ġà®ķà¯Ĭ à®£à¯įà®Ł
Î¼Î± ÏĦÎ¿ÏĤ
áĥĲáĥ ŀ
ĠÑģ Ñŀ
ĠÐº Ð¾ÑĢ
à´¿à´ ª
Ġà°ļà±ĩà° ¯
ĠØ¢ ÙĨ
ĠÐ±Ð¾ Ð»ÑĮ
å®ĺç½ĳ çĻ»å½ķ
æĿ ĳ
à¥ĩà¤ Ł
Ïĥ ÎºÎµ
Ġ× ĵ
Ð¸ ÐºÐ¸ÑģÑĤÐ¾Ð½
Ó Ļ
Ð¼ Ð¾ÒĽ
ĠÐº ÐµÐ»
Ġ Ð°Ð»
à´® àµįà´ª
à«ģ àª°
à¦ Ľà§ĩ
ÙĦ Ø§
ĠÑĪ Ð°Ò³
ì½ ľê±¸
íĦ °
Î¹Îº ÎŃÏĤ
ĠáĥĽ áĥĲáĥĹ
à´£àµįà´Ł àµį
Ð¼ Ð°
à«įàª ª
Ġà® ¯
Ġb e
à§Ģ à§Ł
å°ı æ¸¸æĪı
Ġà¤¯ à¤¹
Ð´ Ð¾ÑĢ
ÏĦ Ïī
ĠÐ´ Ñĭ
à®³ à¯Ī
Ġà°ķ à°¾à°°
å ª
u m
Ķà¸ ¹à¸
åİĨ åı²
éª Ĺ
à¤¾à¤ §
Ð¶ Ðµ
ĠÐº Ð°Ð±
à´ªàµįà´ª àµĨà´Łàµįà´Ł
áĢļ áĢ·áĢº
ĠÏĥ Ïĩ
Ġëĭ ¤
à¦¤ à¦¿
ĠáĥĻ áĥĿáĥĽ
ĠáĢĻ áĢ½áĢ¬
ĠáĢĢ áĢ¯áĢŃ
ĠáĢ±áĢ »áĢĻ
áĢĶáĢº áĢ¸áĢĻ
é£ Ł
è¯ Ĩ
à¹Ģà¸ Ī
Ġå°Ĭé¾Ļ d88
Ġ &
å± ŀ
a k
à¹ģà¸ ķà¹Īà¸
ä¾ Ŀ
æ¸ ©
Ġ ï¿½ï¿½
ç½ĳ é¡µ
èĭ ı
è¡ Ģ
8 0
à¤¾à¤ļ à¤¾
ĠÐ¢ Ð¾Ò·
ÑĤÐ¸ÑĢ Ð¸ÑĪ
ĠÐ½ Ð°Ð¼
ĠÎ¼Îµ Î³
ÙĨ Ø§
áĢ¯ áĢĲáĢ¹
ĠáĢ ¤
áĥĵ áĥĶáĥĴ
à±įà°° à±Ģ
à«Ģàª ĵ
à§ĭ à¦°
ÑĨÑĭ Ñĸ
à´¨àµįà´¤ àµįà´°
Ġ×Ķ× ŀ×
à¯ģà® ª
à¸Ńà¸ ģà¸
Ġè¿ ĺ
u p
à¹ģà¸ ¡
éĵ ¾
æĶ¿ åºľ
ĠAG äºļæ¸¸
ç§ ¯
æĹ ħ
à¸Ļà¸± à¹īà¸Ļà¸
Ġè ¡
u l
Ĺà¸ ¸à¸ģà¸
Ľà¸ ±à¸
æĭ į
éĵ ¶
à¤¾à¤ļ à¥Ģ
ĠÎµÏĢ Î¯
Ðµ Ñĩ
áĢ¡ áĢľ
à´ķ à´³
à±Ģ à°
à±ĩ à°°
áĥĵ áĥĶáĥĳáĥĲ
å®¶ ä¹Ĳ
à¨ ķ
áł ¡
å¿ Ĺ
å£ °
à¥ĩà¤ ³
Ð½Ñı Ñŀ
ĠÐ² Ð°Ð·
áĢŀ áĢŃáĢ¯áĤĶ
ĠáĢ¡áĢľ áĢ¯áĢķáĢ¹áĢ
ľ áĢ¯áĢķáĢ¹áĢ
áĢ±áĢ¸áĢ Ĳ
à¤¡ à¤¼
ë ¯¸
ĠáĢĽ áĢ¾
ĠÐ¿Ð¾ Ð»
Ð°ÑĢ Ð¾
Î½Î¿ Î¼
ÙĪ Ùħ
Ð°ÑĢ Ð¾Ð´
Ġà¦ı à¦°
à´® à´¾à´¯à´¿
Ġáĥ¡áĥĲáĥ¥áĥĲáĥłáĥĹáĥķáĥĶáĥļ áĥĿáĥ¡
áĥĺáĥľ áĥĲ
Ġà®µ à®¿à®
ãģ ĵ
Ġàªħ àª®
à±ģà° ®
ìĽ Ķ
áĢĳ áĢĻ
ĠÐ³ ÑįÑĤÑĭ
ä¹ĭ æĺŁ
è¶³çĲĥ æ¯ĶåĪĨ
æĻ º
ç« ł
à¤¸ à¥įà¤¤
Î´ Î®
Ð°Ñĳ ÑĤÐ³Ð°Ð½
Ð»Ð°ÑĢ Ð³Ð°
Ñħ Ð¾Ð½
à«ĩ àª¨
ĠÑģ Ðµ
áĥķ áĥĺáĥĹ
ê ·
áĢĸáĢ¼ áĢ²áĤĶ
áĢ° áĢ¸áĢ±áĢ
áĢģáĢº áĢĢáĢ¹áĢ
ĠáĢĢ áĢ¬
Ġà°¸ à°¿à°¨
Ġà°ļà±Ĩ à°ªà±įà°ª
àµ Ĺ
Ñģ Ð°Ð¼Ð°
ÏģÎ¹ Î½
æ¼ Ķ
à¨¾à¨ Ĥ
à¸´ à¸Ļ
Ġåħ ¬
Ġà¨ ª
Ġè ¦ģ
Ġæ ¬
é º
é ±¼
Ġ à¹ĥà¸Ļà¸
çı Ń
Ġæī Ģ
à¤¾à¤Ĥà¤ļ à¥įà¤¯à¤¾
áĢķ áĢ¯áĢ¶
ĠáĥĻ áĥĺ
ĠÐ ĸ
à±ĭ à°ľ
ÐµÑģ Ð¿
Ð°Ð´ Ð°
Ġà®ī à®³à¯įà®³
à¦¾à¦ķ à§ĩ
Ġì Ĭ
Î¯ Î¿
áĢķáĢ¼ áĢ®áĢ¸áĢ
áĥĶáĥ Ļ
ĠÒ³ Ð°ÒĽ
à´¸ àµįà´¥
Ø§Ø¦ ÛĮ
Ð ¢
à°¡ à±įà°¡
Ðº Ð¸Ð½
Ġæ ĭ
è ²
åį ¡
à¥ģ à¤®
ĠØ¨Ø± Ø§ÛĮ
àªµ à«Ģ
ĠÑĤ Ð¾
Ù Ĳ
ÏĨ Î±
à¤¾à¤ ¥
Ñĸ ÑĤ
Ġáĥ¡ áĥĲáĥ¡
à°¾à°° à°Ĥ
ĠáĢĲ áĢĢ
Ùĩ Ùħ
Ġ×ľ ×Ĳ
ļ áĢ¬
Ġà´ķ àµĤà´Ł
Ïİ ÏģÎ±
à§įà¦ ¡
¥ áĢ®áĢ¸áĢ
ĠáĢ ¸
ĠáĢŀáĢ° áĢĲáĢŃáĢ¯áĤĶ
ĠáĢĶ áĢŃáĢ¯áĢĦáĢºáĢĦáĢ¶
Ñĳ Ð½
ĠáĥĽ áĥĿáĥĽ
Ġàªµ àª§
í ļĮ
Ġà°° à±Ĩ
Ð°Ñİ ÑĤ
Ð»Ð¸ Ð¼
ĠÐ±Ð¾Ð»ÑĮ ÑĪ
Ġà®® à¯ģà®Ł
ĠìĿ ¸
ĠÑ ī
ÏĦÎ¿ Ïį
ĠáĢŀ áĢĦáĢº
ĠáĥĽ áĥĲáĥ¡
ÐµÑģÐ¿ ÑĥÐ±
ĠÐ¢Ð¾Ò· Ð¸ÐºÐ¸ÑģÑĤÐ¾Ð½
ĠÐ¼ Ð¸Ð»
Ġ à¶
à¤¾à¤ ĩ
Ġà°® à±Ĭ
ĠÎľ Î±
à´Ĥ à´Ĺ
Ġà¦ķ à¦¾à¦°
Ġà®µà¯ĩ à®£à¯įà®Ł
Ïĩ Î±
ãģ¾ ãģĻ
ĠÐ¼ Ð°Ñģ
ĠáĥĲáĥ ķ
ĠØ¨ Ø§ÙĦ
ĠÏĥ Ïį
s s
Ġà¸ ĸ
à¤£ à¤¾à¤°
Ġàª® àª¹
Ð± Ñĭ
ìĹ ¬
à´¨àµįà´¨ àµį
Ð°Ð ¾
à±ĭ à°Ĺ
Ġà®¤à®® à®¿à®´
à®± à¯įà®ª
áģ »
áĢ¸áĢĢ áĢ»
áĥłáĥ «
ĠÐ±ÑŀÐ» Ð³Ð°Ð½
ĠÒĽÐ¸Ð» Ð¸ÑĪ
ĠÐ´Ð°Ð² Ð»Ð°ÑĤ
ĠÐ¸ ÑģÑĤ
Ġàªľ à«ĩ
Î¹Îº ÏİÎ½
à¹ĥà¸«à¸ į
åº ķ
é¦ Ĩ
à¸Ńà¸Ńà¸ ģà¸
36 5
çķ ¥
Ġï¼ļ âĢľ
èŀ į
Īà¸£à¸´à¸ ĩ
à¹Ģà¸ Ĭ
à¥ĭ à¤¨
ÙĦ Ûģ
×Ļ× Ł
Ð½Ñĸ ÑĨ
ĠÎŁ Î¹
à§ģà¦ ·
Ġà´µ àµįà´¯
áĢ±áĢķ áĢ¸áĢ
áģ ħ
ìĤ¬ ì§Ģ
í Į
Ø³ ÛĮ
ĠÐĳÐµÐ»Ð°ÑĢÑĥÑģ Ñĸ
Ð°Ð² Ð°
áĤıáĢ½ áĢĦáĢ·áĢ¹
áĢĦáĢºáĢ¸áĢ ŀ
áĥĺáĥ¨ áĥķ
ĠÐĲ Ð´
à°° à±įâĢĮ
åıª ä¸º
à¹Ĥà¸ ¥à¸
ŀ à¸£
à¸Ńà¸ °
Ġæ į
Ķà¸ ¹
Ġæ ·
Ġæ ¸
æĿ Ĳ
Ľà¸£à¸°à¹Ģà¸ Ĺà¸
è ¦
s e
ľà¸¹ à¹ī
Ġà¤® à¥ĭà¤
áĥĲáĥª áĥĺ
Ġà¦Ĩ à¦²
à¯ĩ à®ļ
à±ĩà° Ł
ĠÑĸ Ð¼
íķĺ ëĬĶ
Îµ ÏĢ
Ð°Ð¹ Ð´Ð¸
Ð¹ Ð¸
ĠÐ¸ Ð»
Ø¨ ÙĬ
Ġà¤¹ à¥Ģ
áĥĲáĥ «
à´¤àµįà´¤ à´¿à´¨
áĢĶ áĢ±
Ñı Ð³
áĥĲáĥļ áĥ£áĥłáĥĺ
à¦Ł à¦¾
Î» ÎµÎ¹
ĠáĢ»áĢķ áĢ³
áĢŃáĢ¯áĢĦáĢº áĢ¸
Ð¼ Ð¾
ÎĻ Î£
Î· ÏĥÎ·
à®ķ à¯į
à´¯ àµįà´ķàµįà´ķ
Ġà°® à°¾à°°
Ġáĥ¡ áĥ®áĥķ
ĠÚ©ÛĮ Ø§
Ĥ à¦²
Ġà§¨à§¦ à§
Ġàª¸ àªĤàª
à¦¦à§įà¦ §
Ġ× ¡
Ġf or
Ïģ Îº
åĢ Ļ
à¤¾à¤Ĥà¤ Ĺ
áĢĦáĢ¹áĢ¸ áĢķ
±áĢ ķáĢ«
ĠáĢ¡ áĢĵ
Ð°Ð³ Ð¾
Ùĩ âĢĮ
àµģà´ķ à´¯
à¤¯ à¤¾
áĢĻ áĢ°
Ù ı
ĠÑĢ Ð´
Ð°ÑģÐ¸ Ð´Ð°
áĢ¡ áĢĲáĢ½áĢĢáĢº
ĠÑĤÐ°ÑĪ ÐºÐ¸Ð»
Î´ Î¹Î¿
Ġìŀ Ĳ
à¯ģà®® à¯įà®ª
Ð Ŀ
Ġ Ð°ÑģÑĤ
Ġà°® à°¨
à§ Į
Î»Î» Î±
áĥ£áĥ ¡
Ĺà¸²à¸ ĩ
éĩį è¦ģ
à¤Ĥà¤ ¬
à´£ àµįà´£
Ġà°ħ à°¨à±įà°¨
ÏģÎ¹ Î¿
Ð½Ð¸ Ðº
Ġàªķ àª¹
áĢĽáĢŃ áĢĢ
Ð¶ Ñĭ
¬ áĥ§
ª à¸´à¸
Ġà¤¦ à¤¿à¤²
áĢŃáĢ¯áĢľ áĢ¹áĢ
áĢ¬áĢ¸áĢŀ áĢĬáĢ¹
ĠáĢĽ áĢĶáĢ¹áĢĢáĢ¯
at ion
ĠáĢ¡ áĢĻáĢ½
áģ Ī
Ġà¦¬à¦¿à¦ ¶
à°¤ à°¿
ĠáĢ¡ áĢĨáĢŃáĢ¯
à´£ àµįâĢį
Ġà´ħ à´¨
ĠÎ´ Îµ
Ġæ ı
à¹Ģà¸£à¸ ·à¹Īà¸Ńà¸ĩ
å¤§ åŃ¦
å®ĺæĸ¹ ä¸ĭè½½
å± Ĥ
à¹Ģà¸ Ľ
§à¸±à¸Ļà¸ Ĺà¸µà¹Ī
éľĢ è¦ģ
âĢ į
áĢŃ áĢħáģ¥
áĢĻáĢºáĢŃáĢ³ áĢ¸áĢŀ
±áĢ¡ áĢ¬áĢĦáĢ¹
ģáĢ²áĢ· áĢĲáĢ²áĢ·
ĠáĢļ áĢ°
áĥĺáĥ ¥
ĠÑģ Ð¾
Ġê² ½
ĠÐ¼ Ñı
à«Ģ àªķ
áĢģáĢº áĢĦáĢ¹áĢ
áĢ µ
ģáĢº áĢ³áĢķáĢ¹áĢ
áĢ® áĢļ
à°¿à°Ĥà°ļ à°¿
Ø§ Ùģ
à¹Ģà¸ Ħà¸
ļ à¥įà¤¯à¤¾
à¯įà® °
Î© ÎĿ
Î¿Î½ ÏĦÎ±Î¹
à¤ «
ĠÐ´ Ð¾
ĠáĥĽ áĥĿ
×ĳ ×¨
à´¿à´¯ àµģà´ŁàµĨ
Ð°Ð½ Ð½Ðµ
ĠáĢ¡ áĢķ
Ġà¦¬à¦¾à¦ Ĥà¦²
à§įà¦ ¸
à°¿à° ²à±ĭ
àµģà´® àµįà´ª
Ġàª¹à«ĭàª ¯
áĢļáĢ¹áĢ ĨáĢŃáĢ¯
áĢĻáĢº áĢ¸
Ð°Ðµ ÑĨÑĨÐ°
áĥł áĥĿáĥ¡
Ġ ÚĪ
Îº Î±Î½
íħ Ķ
Ġà¤ķ à¤¹
Ġà®ļà¯Ĩà®¯ à¯įà®¤
áĢĶ áĢ²áĤķ
áĢľáĢŃáĢ¯ áĢĢáĢº
Ġì °
ĠÐ°Ð¼ Ð°Ð»
à±ĭ à°¯
ĠÑĳ Ð½
Ġà¦® à¦¾à¦¨
ŀ àµįà´ļ
ÑĪ Ð¸ÑĢ
Ð°Ð»Ð°ÑĢ Ð¸
Ð Ľ
Ġ Ð°Ð²
áĥ£áĥ ¨
Ïĥ Î±Î½
áĢ±áĢ¸áĢ Ľ
Ø§Ø Ń
à°¾à°¤ à±įà°°
à®¤à¯įà®¤ à¯Ī
ĵ áŀ
ĠæĹ ¥
åı¯ èĥ½
Ġé ¦
åħ »
¸à¸ Ķà¸
o g
çİ© æ³ķ
Ġé »
ç¬¬ ä¸Ģ
é¡¹ çĽ®
ç ¿
æĻ ®
Ġå¤§åıĳ ä¸Ģ
à© Ī
à¤¾à¤ ¡
Ðµ ÑĨÑĨÐ°
ĠáĥĹ áĥĲáĥľ
ģáĢº áĢĢáĢ¹áĢ
áĢľ áĢĬáĢº
à¦ĸ à¦¨
ÎĳÎ ¤
Î¸ ÎŃ
à«ĭàª Ĺ
ÑģÑĤÐ² ÐµÐ½
×ł ×Ļ
Ġí ı
Ġà´¤ à´¨àµįà´¨
ĠÐĳ Ñĥ
«à¸ ±à¸
å ³
à¨ ²
i an
9 7
Ġèħ ¾è®¯
åŃ £
o v
Ġà¤¸ à¥įà¤µ
ÑĢ Ð°ÑĤ
áĥĿáĥ ¢
à´° à´Ĥ
Ð± Ð°ÑĤ
m ar
±áĢķ áĢ¸áĢ
ĠáĢ±áĢĢ áĢ¬áĢĦáĢ¹áĢ¸
áĢ½ áĢļáĢº
à°¿à°Ĥà° ¦
Ġà¤¤ à¥ĭ
à®¿à®° à¯ģà®ķà¯įà®ķ
Ð°ÑĨ ÑĨÐ°
Ñĥ Ò³
à°Ĥà°Ł à±ĩ
ĠÏĢ Î±Î¹
ĠÐ¼ Ð°Ò³
áĢ±áĢ¡ áĢ¬áĢĦáĢ¹
áĢĳ áĢ¬áĢ¸
à´ķàµįà´ ¤
Ġà¦¨ à¦¿
Ð¼ Ðµ
Ġë° Ķ
ĠÎ¸ Îµ
Ġàª¨ àª¥à«Ģ
ĠáĢļ áĢģáĢ¯
ĠÙĪ Ûģ
± Û
ÙĪ ÛĮ
áĥĶáĥ ĸ
à¯įà®ķ à¯įà®ķ
ĠáĢ¡ áĢ±áĢ»áĢģ
áĢ½ áĢĦáĢ·áĢº
ĠØ§ÙĦØ ¬
Ġà¤ķ à¤¿à¤¯à¤¾
ÐµÐ½ Ð½Ñı
Ġ4 0
ŀ à¸´à¸
Ġç§ Ĵ
à© Ĥ
·à¸Ń à¸Ļà¸
éĶ Ģ
ķ à¹īà¸Ńà¸ĩ
åĨ ľ
Ġ3 8
c om
åĶ ®
äº ²
Ľà¹ĩ à¸Ļ
æł ¸
Ġè ½
Ġ4 4
à¤² à¥įà¤¯à¤¾
ãĥ ª
à´¨àµįà´ ±
à¦¨à§įà¦ ¦
Ïĥ Î¿ÏħÎ½
ĠáĥĴ áĥķ
à±ĩà° ·
ĠÐ±Ð°ÑĢ Ð¾Ð¸
ìĭ ł
ĠÐº Ð¾Ð½
áĢŃ áĢķáĢº
àª¿àª ¸
à¤ ¥
Ġà®ħ à®©
Ġáĥ£áĥ Ļ
ĠÑĤ Ð¾Ð»ÑĮÐºÑĸ
Ġà¦Ĩ à¦ª
ĠÎĳ Ïħ
Ġáĥĺáĥ§ áĥĿ
Ľ Ħ
Ġ×¢ ×ľ
Ġà´ħ à´Ł
à°Ĥà° ķ
áĢ¼ áĢĲáĢ¹áĢ
áĢħ áĢ¥áĢ¹áĢ
áĢĻ áĢļáĢº
áĢķáĢ¹áĢ ħ
±áĢĲáĢ¼ áĢĢáĢŃáĢ¯
áĢĻáĢ» áĢ¬áĢ¸áĢĢáĢŃáĢ¯
Ð½Ð¾ÑģÑĤ ÑĮ
ĠÐ½ Ð°ÑĪ
Ġ on
Ġàª¹àª¤ à«Ģ
Ð°Ð» Ð°Ñģ
¢à¸ ±à¸ĩ
Ġèĩ ª
æį ¢
ä» ĭ
ä¸Ń å½©ç¥¨
ľ à¹Īà¸²
à¹Īà¸²à¸ ¢à¸
çĶ ³
çłĶ ç©¶
Ġç ¥
éĿ ©
ç ¶
æ» ¡
ä¸ Ķ
à¹Ģ à¸Ńà¸ĩ
Ķ à¸²à¸
ģà¸ ´à¸
çĹ ħ
å° ¼
Ġæ Į
ä¼ł å¥ĩ
äº «
ç» Ĩ
è¯ Ģ
Ġà¹Ģà¸ ŀà¸
Ġà¤® à¤¿à¤
ĠÎł ÏģÎ¿
à®©à¯įà®± à¯ģ
ĠÎ Į
ĠÚ© ÙĨ
à´ ¥
Ġì ²
Ġà¤¹ à¥ģà¤
áĥĺáĥ ¤
Ñĸ Ñĸ
Ùħ Ø§
Î½Î¿ Î½
à´°àµįâĢį à´ķàµįà´ķ
à´¤ àµįà´°
Ð½Ð¾ÑģÑĤ Ð¸
à°¿à°Ĥà°ļ à°¿à°¨
æ´» åĬ¨
æ ¿
çº ª
èĽ ĭ
Ġéĩ ĳ
åĲĪ ä½ľ
? ?
Ġ äºĮ
Ġå ģ
Ġ3 5
à¤¾à¤¤ à¥Ģà¤²
ĠÑĤ Ð°
áĥł áĥĺáĥķ
à®¾à® ķà¯įà®ķ
Ġà¦¹ à¦¬à§ĩ
Ð°Ð² Ñĭ
à«Ģàª ¯
à´¤àµįà´¤ à´¿à´¯
ÏĦÎ· ÏĤ
ìĸ ĳ
ĠÐł ÐµÑģÐ¿ÑĥÐ±
Ðº Ð¾ÑĢ
Ġà°¸à°¿à°¨ à°¿à°®
à°Ĥà°¦ à±įà°°
Ð» ÐµÑĤ
ÑĪ Ð¸
99 9
Ġ à¹Ħà¸¡à¹Īà¸
åį ³
· à¹īà¸Ń
à¹ģà¸ļà¸ ļà¸
à¤ķ à¤°
à°® à±Ĩ
àµģà´ķ à´³àµįâĢį
Ð¾ ÑĦ
Îµ Ïį
Ġà¦Ĩ à¦¸
ĠÙ ¹
ew s
Ġà´ķ à´¾à´°
Ġ Ð°ÑĤ
áĥĿáĥł áĥĺáĥ¡
Ġ" ,"
ëħ Ħ
Ģ áĢº
áĢ¬ áĢķ
ç´ ł
å¥ Ĺ
ç§ĳ æĬĢ
è¡¨ ç¤º
Ġà¤¸ à¤°à¥įà¤µ
Ġáģģáģ īáģ
à±ģà° Ĺà°¾
à« ¦
à«Ģ àª¨à«ĩ
Ïĩ ÎµÎ¹
Ñģ Ð»
à§įà¦¯ à¦¾à¦¨
áĥķ áĥĲáĥļ
ķ áĢŃáĢ¯áĢĦáĢ¹áĢ¸
ĠáĢķ áĢ¯
à¯Īà® ªà¯į
ÏĦÎ¹Îº Î®ÏĤ
à¤¨ à¥Ģ
áĢ¾ áĢĲáĢº
× ļ
ÙĨ Ú¯
àª Ľ
ĠØ§ÙĦ ÙĤ
à´± àµĨ
áĥĲáĥľ áĥ¡
ĠÎ± Ïĥ
Ð°Ò³ Ð¾Ð¸
áĢŀ áĢľáĢŃáĢ¯
l y
Ð½Ð¾ Ð¼
Ñį Ð¹
áĢĨ áĢ¶áĢ¯
ĠáĢľ áĢĻáĢ¹áĢ¸
áĢŃ áĢĲáĢ¹
áĢ¡ áĢ±áĢ¬áĢĦáĢº
ìĬµ ëĭĪëĭ¤
Ġà´ ķàµįà´ķ
Ġà´ķ àµģà´±
ĠÎ±Î½ Î¬
ģáĢº áĢĦáĢ¹áĢ¸
áĢĶáĢº áĢ¸áĢ
Ġà°¤ à°¨
ãģĹ ãģ¦
ĠáĥĻ áĥĿáĥľ
Ġçľ Ł
åı ¤
Ġá Ĭ
çļĦ ä¸Ģ
¥à¸ °à¹Ģà¸
* *
ç¦ »
èĦ ĳ
ªà¸ ¡à¸
éĿŀ åĩ¡
à¤¾à¤ļ à¥ĩ
Î»Î¿ Î½
à¥ģ à¤²
Ð ļ
à°® à±Īà°¨
ĠÐ½ Ð°Ñģ
à®¿à®¯ à®¿à®²à¯į
à¦§ à§įà¦¯
Î³ Î®
àª ı
Ð± Ð°
ĠØ¯ Ø§ÙĨ
áĥ® áĥĲáĥĵ
ĺ áĢ°áĢ¸
±áĢ »áĢĻ
áĢ®áĢ¸ áĢĢ
áĢĻáĢºáĢ¬áĢ¸ áĢĢáĢŃáĢ¯
ĠáĢĽ áĢĢáĢº
à´¨àµįà´ §
ĠÎ´ Î¹Î¬
ĠÑĤÐ°Ðº ÑģÐ°Ð¼Ð°
áĢ¼áĢ¸áĢ ±áĤı
ĠáĢħ áĢĢ
Ġà¤¸ à¤¾à¤¥
ĠÛ ±Û
Ø§ÙĨ ÛĮ
áĥĶáĥĳ áĥ¨áĥĺ
áģ¾áĢĢ áĢ¬
ĠáĢ¡ áĢĢáĢº
Ñĥ Ð¶
Ġåı ĳ
Ġ4 8
æľ ĥ
Ġà¹Ģà¸ ŀà¸£à¸²à¸
66 6
3 5
«à¸Ļ à¹īà¸²
Ġà¥ ¨
ĠÙħ Ø¹
áĢĦáĢºáĢ¸áĢ Ĳ
Ġà®İà®© à¯įà®©
à«ĭ àª°
Ġà´ļàµĨà´¯ àµįà´¤
ĠåĪ© æĿ¥
æĸ¹ éĿ¢
Īà¸±à¸ Ķà¸
éģ Ĺ
åĲ §
æīĭæľºçīĪ ä¸ĭè½½
Ġà¹Ģà¸ §à¸¥à¸²
à¤¾à¤ ĸ
Î¼Îµ Î½Î¿
à®¿à® ¨à¯įà®¤
Ñı ÑĤ
Ġà§¨ à§
éħ Ĵ
łà¸²à¸ ŀ
åħ ħ
åģ ¥
åħ ´
¸ à¹Īà¸Ļ
è´ ¢
ç» ĩ
ķà¹Ī à¸Ńà¸
åĢ į
Ħà¹Īà¸ °
à¥ĭ à¤°
ÎĳÎ Ŀ
Îº Î¹
à¦ ł
áĢ¸áĢ±áĢ Ľ
áĢ² áĢ¼
áĢĶáĢº áĢ¸
Ġ× ĸ
ĠÐĵ Ð
Ð¼ ÐµÐ½
ĠÐ¼ Ð°Ð½
à±įà° §
Ġà´® à´¨
ĠáĥłáĥĿáĥĽáĥĶáĥļ áĥĺáĥª
ĠÎ® ÏĦÎ±Î½
áĢķ áĢ½áĢ²
àª¾àª ĵ
ĠÐ¼ Ñĭ
è§ ī
Ġäºļ ç¾İ
éĿ ł
e e
Ġè ģ
ĠæĹ ¶
7 6
å¤ ®
çĶ ·
å¥ ¹
à¹ģà¸ ģ
à¹ĥà¸«à¸¡ à¹Ī
è®¾ è®¡
Ġà¸ ¡à¸µà¸
è® ¸
Ġæīĭ æľº
å¤§ æĪĺ
å¦Ĥ ä½ķ
å¯ Ĩ
łà¸ ±à¸
æŃ »
åº ı
t h
é ¤
à¤µ à¤°
Ġà®ķ à¯ĩ
àµģà´Ł àµįà´Ł
Ð°Ð½ Ð°
ĠÐĶ Ð°ÑĢ
à¦° à§ĩ
Ïĩ Î®
Ġà®¤ à¯Ĩà®°
Ġà´ £
à´¤ à´¿
Ñĸ Ð¹
áĢļáĢ¹áĢ ħ
áģ ĩ
à´¨ àµĨ
£áĥ ¡
ĠáĢĻ áĢ°
Ø¨ Ø±
Ġà°µ à°ļà±įà°ļ
ÏģÎ¹Ïĥ Ïĥ
Ġà®µ à®¨à¯įà®¤
à¸Ńà¸ Ķà¸
é ²
èµ ļ
çĽ Ł
à¥ĭà¤ ¡
ÑģÑĤ ÑĢ
Ġáĥ¬ áĥļáĥĺáĥ¡
áĢĬáĢ· áĢ¹
áĢ® áĢĢ
Ġà´¸ àµįà´¥
Ġà®ķ à¯ĭ
a w
Ð°Ð´ Ð·Ñĸ
ĠáĢ¡ áĢ±áĢĽ
áĢģ áĢĶáĢ¹áĢ¸
áĢľ áĢĢáĢ¹áĢ
áĢħ áĢ¬áĢ¸
áĢĻáĢº áĢ¬áĢ¸áĢ¡
m ent
ĠáĢĶáĢ¾ áĢħáĢº
Ġà°ļà±ĩà° ¸à±įà°¤
ĠÐ¸ Ð¼
Ġì £¼
Ïĩ Î½
Ġ \
Ġà¤ª à¤¹
Ġà¦¸ à§įà¦¬
Ġáĥĺ áĥ¥
Ð Ł
Ð´ Ð·Ñĸ
àª¾àª ¡
à°¿à°² à±įà°²
áĢķáĢ¼ áĢĦáĢº
ĠÙħ ÙĪ
Ġà¤ķ à¤¾à¤¹à¥Ģ
à´¸ àµįà´±àµįà´±
à®µ à¯ģà®®à¯į
Ð¸Ð» Ð°Ð´Ð¸
ĠÑĤ Ð¾Ð¼
ĠÐ±Ð¾ÑĪ ÒĽ
ĠÒ³ Ð¾Ð»
×ķ× Ŀ
Ġà¦® à§ĭ
ãģ ķ
áĥĹ áĥĲ
ĠÑĤ Ñĭ
à°¾à°¨ à±ģ
Ġà¦¦ à§ĩà¦ĸ
Ïģ Î¸
Îķ Î£
Î¼Î± Î½
ĠÐ ķ
Ġï »¿
Ġë³ ´
à´ ĺ
»áĢĸ áĢĦáĢ¹áĢ·
áĢĽ áĢ±áĢ¬áĢĢáĢº
àª¾àª ĸ
ĠÒ³ Ð¸Ñģ
Ġáĥĵ áĥĲáĥ¡
à°¸ à±į
ÑĨ Ñĳ
Ġà¤ķà¤° à¤¨à¥ĩ
Ñĩ Ð¸Ð»
Ð± Ð¾ÑĢ
ĠÎº ÏĮ
ÛĮ Ø´
äº¤ æµģ
æ´ ŀ
ä¸į æĺ¯
à¹ģ à¸Ļ
åľ ĭ
à¹ĩà¸ ģ
à¤£ à¥Ģ
à´¯ à´Ĥ
à¦¨à§įà¦¤ à§įà¦°
ÙĦ Ùĥ
Ð¿ ÐµÑĢ
Î¾ Îµ
áģĢ áĢĦáĢ¹áĢ
ĠáĢĴáĢ® áĢľáĢŃáĢ¯
áĢ± áĢ¸áĢĢ
ĠÒ ¶
Ġà®ª à®²
à°² à°¾
ÑįÐ½ Ð½Ðµ
à§įà¦ ¦
à«ģ àªķ
áĥ£áĥ ¤
e st
æ¬ §
Ġçİ¯äºļ æ¸¸æĪı
à¤¤ à¤¾à¤¤
ÏģÎ¹ÏĥÏĥ ÏĮÏĦÎµ
ĠáĢĶ áĢĬáĢ¹áĢ¸
ĠáĢ»áĢķáĢĬáĢ¹áĢ ŀáĢ°
ĠáĢ»áĢĸáĢħáĢ¹áĢ ķáĢ«áĢĲáĢļáĢ¹
áģ¾áĢĢ áĢĬáĢ¹áĢ
áĢĻáĢ¼ áĢŃáĢ¯áĢ·
Ð¸Ð» ÑĮ
à´® à´¾à´£àµį
à°¾à° ³
ĠÑĨ Ñĸ
áĢĲ áĢĦáĢ¹áĢ
áĢĽ áĢĶáĢ¹
Ľ áĢ¼áĢĢáĢ¹áĢ
áĢļáĢ¹áĢľ áĢŃáĢ¯
áĢĤ áģ¢
ĠáĢĺáĢ¯áĢĽ áĢ¬áĢ¸áĢŀ
ĠáĥĽ áĥĺáĥĽ
áĢĢ áĢ¯áĢĶáĢº
Ð°Ð¹ Ð´
à°¿à°Ĥà°ļ à°¾à°°à±ģ
ì ĻĢ
Ġáģ¿ áĢĻ
áĢĶ áĢħáĢ¹áĢ
ĠáĢ¡ áĢ»áĢķ
áĢ¬áĢĽ áĢ½
áĢĲáĢ½áĢ± áĢĢáĢŃáĢ¯
à¦° à§įà¦¤
áĢĶáĢ¹áĢ ĳ
ĠáĢķ áĢĳáĢĻ
ÏĥÎµ ÏīÎ½
×ķ× Ĳ
ĠÑĢ Ð°Ð±
Ġàªī àªª
áĥĶáĥłáĥ ¡
Ġ ÏīÏĤ
Ġà®µ à®´
Ð¾Ñı ÑĤ
à°¨ à±įâĢĮ
áĢĽáĢ½ áĢĢáĢº
àµĭ à´Łàµįà´Ł
ĠÐ½ Ð°Ð·
Ġ ÛĮÚ©
áĢ¬áĢ¸áĢ ķ
Ġáĥ¬ áĥĲáĥłáĥĽ
è§Ĥ çľĭ
à¤¾à¤ ı
Ġà¦Ĩ à¦Ĺ
à°¿à° ¦
it h
ĠÎº Î¹
ĠáĢĤ áĢº
ĠáĢĴáĢ« áĢ±áĢķáĢĻ
ĠáĢĳ áĢ¯áĢĲáĢ¹áĢ
áĢĢáĢ¹áĢ Ľ
áĢ· áĢ¡
áĢĨ áĢŃáĢ¯áĢĦáĢº
ÏģÎ¿ Î½
Øª Ø§
àµĨà´¨àµįà´¨ àµģà´Ĥ
ĠÑĸÐ½ ÑĪ
ªà¸ ¥à¹ĩà¸Ńà¸ķ
à¸£à¸²à¸ ¢à¸
à§ĩà¦ ·
Ġà´ ¨àµįà´¨
à´¾à´ ·
Ð¸ Ð²
à°¾à° ·
Î»Î» Î·Î½
ĠØ§ÙĦ Ø´
ĠÎ¤ Î±
àª£ à«ĩ
ãģ£ ãģ¦
Ñĥ ÑĦ
áĥĺáĥĲáĥľ áĥĺ
ì¶ľìŀ¥ ìĥµ
Ġê³ ł
çł´ è§£
à¤°à¥įà¤ ®
áĢ±áĢĶ áĢ²áĢ·
áĢħ áĢ¶
Ġà®® à®±à¯įà®±
Ġà°ħ à°¨à°¿
ĠÑģÑĤ Ð°ÑĢ
Ġà¹Ģà¸ ĩà¸´à¸Ļà¸
Ġà¸ ķà¸
Ó¯ Ð·
ĠÐ¼ Ð°Ð³
áĢŃáĢĻ áĢ¹
áĢ¬áĢ¸áĢ ĳ
à¦® à¦¾à¦¨
áĥĿáĥĳ áĥ¡
³ à¸Ļà¸
àµĬ à´°
Ġï¿½ï¿½ï¿½ï¿½ ï¿½ï¿½
ĠÎ Ĩ
ĠáĢĻ áĢŁáĢ¯áĢĲáĢ¹áĢ
Ġáģģ áģĢ
ĠÏĩ Î±
µ ľ
à´¦àµįà´ ¦
ĠáĢ¡ áĢģáĢºáĢŃ
áģ¿ áĢĸ
ĠáĢĻ áĢĽáĢ½áĢŃ
ĠáĢ¡ áĢģáĢ¼
ÑģÑĤ Ð°Ñŀ
à¦¾à¦ ¯à¦¼
§ à¸Ļà¸
à¥į âĢį
Ġà°° à°¾à°ľ
à«ĩàª ¤
ĠÐ¸ Ð»Ð¸
áĥĲáĥľ áĥĵ
Ø§Ø ¬
ĠÎ½ ÎŃ
Ġà¤¸ à¤ķ
×Ļ ×ķ×ª
Ġs t
Ġà° ĵ
áĢ±áĢľ áĢ¸áĢ±áĢĲáĢ¼
áĢ¡ áĢķáĢ¹áĢ
Ĥ áĢº
áĢ¸áĢĻ áĢ½áĢ¬
áĢ½ áĤķ
áĢķáĢ« áĢŀáĢĬáĢ¹
ĠáĢĢáĢŃáĢ¯ áĢļáĢº
Ġ Ð°Ñŀ
Î½Î· ÏĤ
Ġå ī
ķà¸²à¸ ¡à¸
ç µ
¢ à¹Į
ĠæĪ Ĳ
åº ĵ
à¹ī à¸Ļà¹Ģà¸
å· ´
æĥħ åĨµ
E T
éĻ ¤
è® ²
Ġé Ľ
è´ Ł
ä¾ Ĩ
s h
åª Ĵ
æī ¹
ĸà¸¶à¸ ĩ
æī ¿
4 9
å¾ Ģ
Ġà¤¹à¥ĭà¤¤ à¥ĩ
ì¹ ´
áĢĽ áĢ®
ĠÎ¼ ÏĮ
Ð´Ð°Ð½ Ð¸
Ð² Ð°ÑĨÑĮ
Ġáĥ© áĥĶáĥĽ
à±ģà° Ł
Ġàªħ àª¨
áĥĺáĥ §
ë¬ ¸
Ġà´¨ àµĩ
ĠáĢ¡ áĢ¬áĢ¸áĢľ
áĢ±áĢ Ŀ
ĠáĢ¡áĢ±áĢĻ áĢĽáĢŃáĢĢ
áĢ®áĢ¸áĢ ŀ
ĠÛģ Ùħ
ĠÎĶ Î¹Î±
ĠØ§ÙĦ ÙĨ
ĠâĢļ Â
ÑĢ Ð°Ð·
ĠÎĶ Î·
Î¯Î½ ÎµÎ¹
áĥķ áĥ¡
ļ à°¿
åħ¬ è§£æ¢¦
i r
à¤£ à¥ĩ
Ġa t
áĢķáĢ¼ áĢĬáĢº
ĠÐ±Ñĭ Ð»Ð¾
à´¿à´± àµįà´±
Ð°Ð½ Ð½Ñı
áĥĿáĥł áĥĺ
ĠØ§Ù ĵ
ĠØ¬ ÙĪ
áĤı áĤĪ
áĢ¬áĢ¸áĢŀ áĢĬáĢº
Ġà°Ĺ à±ģà°°
ĠÙħÛĮ âĢĮ
ĠÎ±Î½ ÏĦÎ¹
ĠìĹ ¬
áĥĺáĥ ŀ
Ïĥ Î¹Î±
Ġàª® àª³
à´ ŀàµįà´ļ
Ġà¤¹ à¤®
à§ĥ à¦¤
Ġå® ī
Ġåı ª
å¯ Ł
æīĭæľº app
à¸£à¸ ¹à¸
æīĭæľº çĻ»å½ķ
æĸ¹ æ³ķ
ĠæŃ ¤
äºº åĳĺ
Ġc on
Ġåĳ¨ åħ¬è§£æ¢¦
ä¹ Ŀ
Ġà¤µ à¤°à¥įà¤
ĠÂ ®
Ð½Ð°Ñģ ÑĨÑĮ
ĠÒ ĵ
Îķ Î¡
Î» Ïħ
à°¸ à±įà°Ł
Ð°ÑĨ Ð¸Ð¸
àª¤ à«Ģ
ĠáĥĽ áĥĶ
ĠÎº Î¬Î½
ĠáĥĽáĥĲáĥĴ áĥłáĥĲáĥĽ
Ð½Ñĸ ÐºÑĸ
ĠØ§ÙĦØ ¥
ÑĢ ÐµÐ¼
Ġà´ ·
Î» Î¿Ïħ
Ġáĥ¡ áĥĲ
Ð°Ñ Ķ
Ġà°ª à°°à°¿à°
Ġà¸ ģà¸²à¸£
ĠÐ¿ Ð°Ñĩ
ì§ Ħ
ĠåĴ Į
à¥ĭà¤ Ł
à´¤àµįà´¤ à´¿àµ½
ĠÐłÐµÑģÐ¿ÑĥÐ± Ð»Ð¸Ðº
ĠÑģ Ð¾Ð»Ð¸
à¦¾à¦ ĸ
Î»Î» Î·
ãģ Ĥ
à¯Īà® ļ
àª¿ àª¨
×Ļ× §
Ð¾ Ð³Ð°
ĠÎµ ÏģÎ³
áĥłáĥ £áĥļ
ĠÙħ ÙĦ
Ġà¸ŀ à¸Ļà¸
an t
Îº Î®
Ġà¹Ģà¸ Ħà¸£à¸Ķà¸´à¸ķ
Ħ à¹īà¸²
à¦¿à¦ Ĥ
à¸£ à¹Įà¸
èį ¯
ĠåĬłæĭ¿å¤§ 28
Ġà¤ħ à¤¶
à±ĩà° ®
Ġáĥŀ áĥĺáĥłáĥ
Ðº Ð°Ð¼
à®¿à®ķ à®³à¯į
ĠáĢĶ áĢ²áĤĶ
ĠáĢ¡ áĢģáĢº
ķ áĢ¶áĢ¯
áĢĦáĢºáĢ¸áĢ ¡
ĠÐ¼ Ð°ÒĽ
ĠÎ± ÏģÏĩ
àª¾àª ª
à°¤ à±įà°¯
ĠëĤ ĺ
Ġà¹Ģà¸ĩà¸´à¸Ļà¸ Łà¸£à¸µ
Ġà¸ §à¸´à¸
Ñŀ Ð»Ñı
Òĵ ÑĢÐ¸
Ð» ÑĥÐ¼
ÐµÑĤ ÑģÑı
à¹Ģà¸£à¸ ·à¹Īà¸Ńà¸ĩà¸
Ġç Ī
ä¸Ń çļĦ
Ġå° Ĩ
à¹Ģà¸£ à¹ĩà¸
à¤¾à¤ ¶
Ñģ Ð°ÑĤ
Ð ľ
Ġáĥł áĥĲ
Ġà¦ħ à¦¬
Ø§Ø¦ ÛĴ
ĠØ§ÙĦ Ø¯
ĠáĢĶ áĢ¬áĢĽáĢ®
ÏĢ Î¯
áĥĶáĥ ®
à´µ à´°
Ð¾Ð¼ Ð¸
áĢľ áĢ¯áĢ¶
Î¼ÏĮ ÏĤ
Ġà¤¥ à¤¾
Ġë ²
à°¯ à±įà°¯
ĠÐ¾ Ð´
ĠáĥĲáĥĵ áĥĲáĥĽ
áĢŀ áĢĢáĢº
Ġà´ªà´± à´¯
ĠæĹ ł
çĤ º
æĸĩ åĮĸ
à¤Ĥà¤¤ à¤°
àª¾àª ¬
à±Ģ à°¯
Ġà´ªàµįà´° à´µ
ĠÎ ¯
Ġà®ħ à®±
ĠÙĦ ÛĮ
Ħ à¸²à¸£
Ð¾ Ð´Ð°
Ġà¹ģà¸ Īà¸
Ġà¸ §
¥à¸ ·à¸Ńà¸
à§Ł à¦¾à¦°
ĠÐ± ÐµÐ»Ð°ÑĢÑĥ
Ð¼ Ñĥ
à«ģ àª²
ĠáĥĴáĥĲáĥĽ áĥĿáĥ
Ïģ Ïħ
Ù Ĵ
Ġ }
ª à¹Į
à°¿à° ·
áĢ¶ áĢ³
áĢĿ áĢĦáĢ¹áĢ
áģĢ áĢ«
±áĢ »áĢķáĢ¬
áĢħ áĢĢ
Ø± Ø¨
ĠÏĢ ÏģÏİ
×Ļ× ĳ
à´¿à´¤ àµįà´°
Ð· ÑĮ
à¸£ à¹Į
ĠãĢĳãĢĲ ãĢĤ
åħ¥ åı£
Ġå¤§åıĳ äºĶ
çīĪ ä¸ĭè½½
âĢ Ķ
ä¸» è¦ģ
æĮ Ĥ
Ġæ ¢
Ġå ĵ
åĪĨéĴŁ pk10
å¯ Į
åĿ ĩ
Ġ ĆĈ
Ġäºļæ¸¸éĽĨåĽ¢ å®ĺç½ĳ
è¿Ļ ä¸ª
à¸µà¸¢à¸ ĩ
4 6
èĢĥ è¯ķ
Ġ ä¸ĭ
¼ åĲĪ
«à¸ §à¸
e b
Ġà¤ī à¤ª
ÑįÐ½ ÑĤ
à´¾à´± àµįà´±
à§ İ
à®µ à¯ĩ
Ġàªµ àª°à«įàª
ĠÏĩ ÏģÏĮ
áĥł áĥĶ
Ġì ¤ĳ
ĠáĢ±áĢ ķáĢ«
áĢ±áĢķáĢ« áĢĦáĢ¹áĢ¸
Ġ áĤıáĢ¯áĢŃáĢĦáĢ¹áĢĦáĢ¶
áĢħ áĢĬáĢ¹áĢ¸
áĢĢáĢ¹áĢ ģ
ĠÐĿ Ð°
à¥įà¤¯ à¤ķ
ĠáĢ»áĢķ áĢĶáĢ¹áĢ
ĠM y
áĢĨáĢŃáĢ¯ áĢĲáĢ¬
áĢ¹áĢ Ĥ
à°ķ à±įà°¤
ÏĦÎ· ÏĥÎ·
Ú¯ Ø±
à§ĩà¦ ¦
ÑĢÑĭ Ñı
ĠÎ¼ÏĢÎ¿ ÏģÎµÎ¯
áĢ¡ áĢĲáĢ°
Ġà®İà®© à¯įà®ª
à¹Ģà¸ ĩà¸´à¸Ļà¸
áĥľ áĥĶáĥľ
à¹Ĥà¸£à¸ĩ à¹ģà¸£à¸
ÙĬ Ùħ
Ġà¦¤à¦¿à¦¨ à¦¿
áĢĻ áĢĬáĢ¹
áĢ±áĢĴ áĢŀ
áĢ±áĢĶ áĢĽáĢ¬
áĢĶáĢ¹áĢĻ áĢ½áĢ¬
áĢĶáĢŃáĢ¯áĢĦáĢº áĢĦáĢ¶
à´¿à´ķ à´³àµįâĢį
àµĤ à´Łàµįà´Ł
ĠÐ· Ð°Ðº
Ġ à¹Ħà¸Ķà¹ī
Ġ Ð°Ð½
à« Ī
à±Ĩ à°Ł
ĠÏĮ ÏĢÏīÏĤ
íı ¬
ªà¸´ à¸Ļà¸
à§ģ à¦®
àµģà´ ªàµįà´ª
ĠÑħ ÑĥÐ´
ãģ§ ãģĻ
éĢļ è¿ĩ
å¤§ çļĦ
å¤ Ł
x x
Ĥà¸¶ à¹īà¸Ļà¸
¥à¸ ĩ
h t
æĿ Ģ
ªà¸¸à¸ Ķà¸
Ħ à¹īà¸²à¸
ç½ Ĺ
åĴĮ åĢ¼
Ġæ Ļ
ķà¹Ī à¸Ń
ª à¸£à¹īà¸²à¸
æł ¹
åį Ĭ
Ġà¹Ģà¸ Ľà¹ĩà¸Ļà¸
¡ à¸´à¸
à¸Ńà¸Ńà¸ ģ
ok er
Ġà¨ ¤
æŃ ¢
åĨ ł
æ ½
åį °
åº ·
Ġà¤² à¤¾à¤Ĺ
áĥĿáĥĵ áĥĲ
ĠÏĢÎ± ÏģÎ¬
Ħ ĸ
ĠÐ±ÑĥÐ´ Ð·Ðµ
ĠáĢ±áĢĽ áĢ¬áĢĢáĢ¹áĢ
áĤı áĢ½áĢ¬
áĢĲ áĢ¯áĢŃáĤĶ
áĢ¬áĢ¹áĢ Ļ
áĢķ áĢĬáĢ¬
áĢľ áĢĢáĢº
ìķ ¼
à´¨àµįà´¨ àµģ
ĠÐ¾ Ñģ
×Ļ× ©
55 5
ä½ ³
Ġ äºĨ
ĠéĢ ļ
å¨ ģ
åĲ ĥ
ç Ł³
ĠãĢ į
é ł
Ġå¼ Ģ
Ġ1 åĪĨå¿«3
æ± ½
Ġb et
ç¼ ĸ
å± ħ
åĢ ĭ
ĠÂ ·
Ġagäºļæ´² åĽ½éĻħ
Ġè ¶
à¹ Ħà¸£à¸
è¯ Ń
áł¢ áł
å·² ç»ı
áŀ Ģ
Ġå »
è´ §
à¤¿à¤ ®
à®¾à® ļ
ĠáĥĽ áĥĺ
Ø³Øª Ø§ÙĨ
àµĩà´ ¹
Ġàª ĩ
ĠÐ· Ð´
ĠÎ± Îº
à°¾à° ¹
Ùħ ÛĮ
ĠØ§ÙĦ Ùģ
áģ ģ
à§įà¦ ľ
áĢ®áĢ¸áĢ Ļ
à®¿à®± à¯įà®ķ
ĠÎ´ Ïį
ÑįÑĤ Ð°
Ġà°µ à±Ī
àµĢ à´°
Ġáĥ¨áĥĶáĥĽ áĥĵáĥĶáĥĴ
ĠÑĤ Ðµ
ª à¸Ļ
he n
äºĨ ä¸Ģ
å¿ µ
áł¡ áł
¡à¸ ±à¸Ļà¸
77 7
çļĦ åĲĹ
æ³ ¢
Ġà¥§ à¥
áĢŃáĢĻáĢ¹áĢ ·
áĢĽ áĢĲáĢ²áĢ·
ĠáĢĽ áĢģ
áĢĦ áĢŃáĢĻáĢ¹áĢ¸
áĢķáĢ¹áĢ Ģ
áĢŃáĢ¯áĢ¸áĢ Ļ
Îº Î¬
Ġà¤² à¤Ĺ
ê³ Ħ
ĠÐ±Ñĭ Ñŀ
Ġà¦¹à§Ł à§ĩà¦Ľà§ĩ
à´¾à´ ´
ÑĤ Ð¾ÑĢ
à°µ à°°
Ġ5 6
æĺ¯ çľŁ
Ġà¨ ®
çĶµ å½±
ľà¸ ¥à¸
Ġé ģ
Ġç Ħ
éĤĢè¯·çłģ _
æ ©
Ġà¸ Ī
çľ ¼
æĻ Ĥ
ªà¸²à¸¡à¸²à¸£à¸ ĸà¸
Ġ3 1
Ġa m
Ġ5 8
¥à¸ ±à¸ĩà¸
à¸²à¸ ģà¸
è¿ ľ
« à¸²
ç Ĩ
é» Ħ
i f
áĢŀ áĢ¬áĢ¸
3 7
à¸Ńà¸µà¸ ģà¸
åĪ Ŀ
Ġà¤®à¤¿à¤ ³
Ġà¦ķ à§ĭà¦¨
ĠáĢŀáĢ° áĢĻ
ÏģÎŃ ÏĢÎµÎ¹
áĥĶáĥłáĥ Ĺ
áģ ĥ
à«Ģ àªµ
ĠÙ¾ Ø§Ú©
ĠØªÚ¾ Ø§
Ġà°² à±ĩà°¦
ĠØ¹ ÙĨ
ĠáĢŀ áĢĻ
Ġà®µ à¯Ģ
Ð°Ð» ÒĽ
ĠÂ» .
Ð± Ñĥ
à´¦àµįà´ §
Ð¸Ð» Ð´Ð¸
3 d
ĠçĶ ¨
ĠæĿ ¥
¥à¸ ¹à¸ģà¸
èĳ Ĺ
à¤¾à¤ ¢
áĢĻáĢ» áĢ¬áĢ¸áĢ¡
Ð¾Ð½ ÑĥÐ½
ê° Ħ
à¤¿à¤¯ à¥ĭà¤Ĥ
Ð² ÐµÑĤ
×Ļ× ĵ
àª ĩ
ĠáĥĴáĥĲáĥĽ áĥĿ
Ð¾ÑĢ Ð¼
à¹Ģà¸Ĥ à¹īà¸²à¸
åģ ľ
å¤ ľ
à¥Ĥ à¤°
Ġà®ħ à®Ł
ÏĦÎ¹ Ïĥ
à´¾à´Ł àµįà´Ł
Ð¸Ð´ Ð°Ð³Ð¸
ĠÑĦ Ð°ÑĢ
Ġà§¨à§¦à§ §à§
Ġàª² à«ĭàªķ
à§įà¦ ł
Ġà´¤ àµįà´¤
ÑģÑĤÐ² Ð¾
Ġà´ķ à´¾à´£
Ġag æīĭæľº
Ġæı Ĳ
Ġçİ °
Ġå¦Ĥ æŀľ
åĿ Ľ
æĺ ¥
¹à¸ ģ
ç¾İ åĽ½
åĪ ĩ
2 00
è Ĺ
Ġæ± Ł
Ġà¤¯ à¤¾à¤Ĥà¤¨à¥Ģ
ĠÎŃÏĩ Î¿ÏħÎ½
Ø§ ÙĤ
ĠáĥĽ áĥ¡
Ð½Ð¸ Ñħ
Ġë¶ Ģ
Ġà¦ķà¦° à¦¤à§ĩ
è¦ģ æ±Ĥ
Ġæ ĥ
ć ć
ç½ĳ _
Ġå¹ ¿
à¨ ®
çĻ» åħ¥
æĵ į
o c
à¤ļ à¥ĩ
ÑĢ Ð¶
ÑĤÐ¸ Ð¼
àµĢ à´ķà´°
Î´ Îµ
Ĩ áĢ¯áĢŃ
áĢ½áĢº áĢĦáĢ¹
ĠáĢ¡ áĢĢ
à°¿à°¤ à±įà°°
à®² à¯Ī
ĠÑģ ÑĥÐ¿
Ġàª¤ à«įàª¯
ĠÏĢÎµ ÏģÎ¯
à°¾à°² à°¿
Ñı Ð½
Ġê ±
Ġà´ªàµĭ à´²
áĥ Ń
ĠáĢĴáĢ¯ áĢĲáĢŃáĢļ
Ĺ à¸£à¸
à¤¿à¤¤ à¥Ģ
Ù¹ ÛĮ
áĢĦáĢºáĢ¸áĢ ķ
Ð°ÐµÑĤ ÑģÑı
ĠÐ±Ñŀ Ð¹Ð¸
Ð°Ðº Ð°ÑĤ
ÑįÐ½ Ð½Ñı
à®¾à®° à¯įà®ķà®³à¯į
Ġà°Ĩ à°¯
áĥĺáĥ¨ áĥľ
Ġ×Ķ× Ĳ
¡ à°¿
ĠØ§ÙĦ ÙĦ
à¸Ļà¸ °à¸
æķ ħ
e x
¨ à¤¾
Ġà¦ıà¦ķ à¦Łà¦¿
ĠÑĤ Ð°Ð½
ĠÏĢÎµ ÏģÎ¹ÏĥÏĥÏĮÏĦÎµ
àªĤàª §
à´¿à´ Ĥ
áĢĽ áĢ±áĢ¸
Ð¿ Ð°Ð´
Ġà¤Ĺ à¤¯à¤¾
Ķ áĢļáĢ¹áĢ
áĢħ áĢħáĢ¹áĢ
áĢķáĢ¼ áĢ²
áĢķáĢ¼ áĢĶáĢº
Ð¸ ÑģÑĤ
Ø§ Úº
Ø¹ Ø¯
éĵ ģ
¨ à¥Ģ
à®¿à®ķ à®³
ë £
Î´ ÎµÏĤ
áĥłáĥ ĵ
±áĢĢ áĢ¬áĢĦáĢ¹áĢ¸
áĢ¬áĢ¸áĢĻ áĢ½áĢ¬
ĠáĢĢáģ½áĢ¼áĢĶáĢ¹áĢ ±áĢĲáĢ¬áĢ¹áĢ
ĠáĢĽ áĢĢáĢ¹áĢ±áĢĶ
ĠáĢĶ áĢ±áĢ¬áĢĢáĢº
ĠÑĩ Ð°Ð»
àªķ à«įàª·
ĠÑĪ Ð°ÑĢ
ĠÏĢÎ¿Î» Ïį
Ġà´ª àµĬ
Ġà¤¹ à¤¾
ÐºÑĸ Ñħ
áĥķ áĥĲáĥľ
Ð» ÐµÐº
Ġê³ µ
à°¿à° ļ
ĠáĢĨ áĢ¯áĢŃ
ĠáĢķáĢ¼ áĢĶáĢº
ĠÐ¼ Ð°Ð²
Ġth at
àµģà´® à´¾à´¯à´¿
áĥĺáĥ «
Î» ÎµÎ¯
ĠÐ² Ð¾Ð·
Ġà®ħà®° à®ļ
Ġà¤ķ à¤¿à¤¸
áĥłáĥ £áĥ
áĢĶáĢ¾ áĢĦáĢºáĢ·
áĢ¡ áĢĨ
àªķ àª¾àª°
ĠØ¨ Ø§Ø²
à±Ģ à°²
Ð½ÑĸÐº Ð°Ñŀ
à´¿à´¯ àµģà´Ĥ
áĢ ĭ
Ġà®¤à¯Ĭ à®Ł
áĢ±áĢľ áĢ¬áĢĢáĢ¹áĢ
áĢľ áĢ¹áĢ
áĢĲáĢ¹áĢ ħ
áģ¾áĢĢ áĢ®áĢ¸
ĠáĢĲ áĢ½
ÏĦ Ïİ
Ñŀ ÑģÑı
äºº çļĦ
à¥ĭà¤ ľ
Ùħ ÙĦ
Ð¼ Ð°Ð½
ê ¹
áĥłáĥ Ĵ
ĠáĢ¡ áĢ±áĢĶ
áĢ¬ áĢĢ
Ðº ÑĢ
àµįà´ §
Î¶ ÎµÎ¹
à°³ à±įà°²
Ġà« §
Ġàª¸ à«ģàª
à¦¾à¦¦ à§ĩà¦¶
Ġà§ ©
áĢķ áĢĦáĢº
ĠÐ±ÑŀÐ¹Ð¸ ÑĩÐ°
Ð» Ð¾Ò³
Ð»Ð°Ð½ Ð³Ð°Ð½
Ð»Ð¸ Ð³
ĠÐ¼Ñĥ Ò³
áĥĶáĥĹ áĥĺáĥ¡
à§Ł à¦¾
ÏĦÎ¹Îº ÏİÎ½
Ð°ÑĤ ÐµÐ»ÑĮ
Ñĸ Ð»ÑĮ
Ð¸ Ò³
ç» Ī
Ġ4 9
Ġá ĭ
ĠAGçİ¯äºļ éĽĨåĽ¢
åŃ ©
è§ Ĵ
Ĺà¸µà¹Īà¸ ªà¸¸à¸Ķ
à¤¾à¤Ĥà¤ ¤
à±Ģ à°ª
×ķ× ¤
ĠìĿ ¼
Ĩ áĢĶáĢ¹áĢ¸
áĢ»áĢĸáĢħáĢ¹áĢ ķáĢ«áĢĲáĢļáĢ¹
áĢı áĢº
Î³ Îµ
à®© à®°à¯į
Ġà° §
ĠÐ³ Ðĥ
Ġ) .
à¦¿à¦ ľ
Ð»Ð°ÑĢ Ð´Ð°
ĠÐ´ Ð°ÑģÑĤ
Ġà¤ī à¤¸
áĢĲ áĢ²áĤĶ
ĠáĢĻ áĢĦáĢ¹áĢ¸
áģ Ħ
Ú¾ Ø±
à´µ à´¿à´
Ġçİ¯äºļ éĽĨåĽ¢
æŁ Ĳ
çķ Ļ
ĠĈ Ĉ
å¤ļ å°ĳ
çĶŁ æ´»
ĠâĢĿ ãĢĤ
è¿ İ
ĸà¸ ¹à¸ģà¸
Ġà¤¸ à¥ģà¤°
à«įàª° à«Ģ
ÏĦ Ïģ
ĠáĥĽ áĥĿáĥ¡
áĢĶáĢ¹áĢ ŀ
ĠáĢĺáĢ¯áĢĽáĢ¬áĢ¸áĢŀ áĢģáĢĦáĢº
ĠÐº Ð¾ÑĤÐ¾
Ġ Y
áĢĻ áĢŁáĢ¯áĢĲáĢº
à°¿à° ľ
à´¾à´ ¨àµįà´
ÏĦÎµ Î¯
à«ĭàª ľ
ĠÑĨ Ñı
ÙĢ ÙĢ
Ø° Ø§
à¦¾à¦ķ à¦¾
Ġw ith
Ġà®® à®©
Ġà¹ģà¸ ¥
ŀà¸ §à¸
æĭ ©
à¤¾à¤ ·à¥įà¤Ł
áĥĺáĥ ¦
Ð°ÑĤ Ñį
ÙĪ Ø´
à¦¾à¦¨ à§ĩ
Ġà®® à¯ģà®¤
Ġà´Ĩ à´°
Ġà¨ ľ
è´ µ
Ġå Ł
çĶ »
á Į
è¡Į ä¸ļ
Ġ à¹Ħà¸¡à¹Ī
æĬķ èµĦ
åĩ °
à¥įà¤¯à¤¾à¤ļ à¥Ģ
ĠÑģ Ð°ÑĢ
Îµ ÏģÎ³
à° «
Ġáĥĵ áĥĺáĥĵ
Ð¸ÑĤ Ðµ
ÏĦÎ¹Îº Î¿Ïį
à´¨àµįà´¤ àµįà´¯
Ġàª¸ àª°
Ġë§ Ī
ĠÙħ ØŃ
ĠÐ· Ð°Ð¿
àµĭ à´¦
Ġu 0
Ġà¤ Ľ
ĠÎ±Ïħ ÏĦÎ®
áĥĺáĥĿ áĥľ
ãģ ł
ÏĨ Î®
à¯ģà®Ł à®©à¯į
Ð°Ñģ ÑĨÑĮ
à´¸ àµįà´¸
Ġà°ª à°¾à°°
Ð¼Ð¾ÒĽ Ð´Ð°
Ð £
ĠÑĤÑŀ ÒĵÑĢÐ¸
ÑĨ Ð¸Ñı
ĠÐº Ð¸ÑĢ
ĠÒ³Ð¸Ñģ Ð¾Ð±
Ġàªª àª¹
à¤°à¥įà¤ £
à¦ľ à¦¨
Î¹Î¿ ÏĤ
Ù¹ Ø±
à°°à±įà° µ
Ð´Ð¸ Ð¼
Ñģ Ð¸Ð·
Ð¾Ð½ Ð°
ĠÏĢ ÏĮ
áĥ£áĥ ®
Ġà´¤ àµĨ
áĢ¶ áĢĢ
Ġb y
áĢĢáĢ¼ áĢ±áĢ¬áĢĦáĢºáĢ¸áĢ
ì¹ ĺ
áĥĿáĥķ áĥľ
ĠØ§ÙĦ Ø¨
ą Ĉ
çļĦ æĺ¯
à¥įà¤° à¤®
à´¾à´ ¶
àª¿ àª°
ãģĹ ãģŁ
Ïĥ Ïĩ
à°· à±įà°Ł
ĠÚ© Ø§Ø±
ĠÑı Ð½
ĠÐ¼ Ð°Ð»
ĠÐ¼ ÐµÐº
×ķ× ©
Ġà®ķ à®°
áĥĿáĥ ŀ
à¦¾à¦¤ à§ĩ
ĠÎ£ Ïħ
ĠÐ· Ð½
ÏĦ ÏģÎ±
à´±àµįà´± àµį
æī ¾
ä½ľ ä¸º
Ġé ļ
çĬ ¶
1 00
è¯ ¾
è® Ń
0 8
åŁİ å¸Ĥ
Ġ201 6
æĮ ī
à¤ ł
à° ¥
ĠáĢĳ áĢŃ
à¸Ńà¸ Ķ
Ġìĥ ģ
à«ĩàª² àª¾
Ð´ Ðµ
áĢ¬ áĢĲáĢº
ÎµÎ¯ Î¿
à°Ł à°¿
Ħ à¸£à¸²à¸
ĠØ¯ Ø§Ø±
à¯ģà®ķ à¯į
ĠÎĳ Î½Î±
à¦¿à¦ ¯à¦¼
æĸ° éĹ»
æĸ¹ å¼ı
Ġà¤ª à¤£
ĠÏĢ ÏģÏī
Ġ it
à¤ķ à¥Ģ
áĥĿáĥ ¨áĥĺ
áĢĽáĢ¾ áĢĦáĢº
Ħà¸£à¸Ķà¸´à¸ ķà¸
à¸£à¸µà¸ §à¸´à¸
¡ à¸Ļà¸
ÎĳÎ ¡
ÏĦÎ¿ Î½
ÐºÑĸ Ñı
Ð³ ÑĢ
áĢķ áĢ¶áĢ¯
Ľ áĢ²áĤķ
áĢľ áĢ¾
Ġâ ĺ
íĶ Ħ
à¹Ģà¸ ĭ
áĥĲ áĥĲ
Ġàª¨ àª¹
Ġà´ªà´° à´¿à´
Ġà®ª à®¤
Ġà°¤ à±Ģà°¸
Øª Ùħ
ĠáĢ¡ áĢĻáĢºáĢŃáĢ³áĢ¸áĢŀ
áĢ±áĢķ áĢ¼
à· Ĭ
Ġu0 9
ä¹ħ ä¹ħ
à¥ ľ
¤ åĩ°
Ġæ¯ ı
à¤¤ à¥ĭ
Î¿Î¹Î½ ÏīÎ½
ĠÐ¿ Ð°Ð¼
Ġà¸ ¢
ĠÎĵ Î¹Î±
Ú© Ú¾
Ġà¸ Ĭ
Ġàª¬ àª¨
à®¿à®²à¯įà®² à¯Ī
Ðº ÑĤ
Ġà¸ Ľà¸£à¸°à¸
ĠáĥĵáĥĲáĥ ĺ
áĢĻ áĢļáĢ¹áĢ·
áĢķáĢ« áĢŀáĢĬáĢº
×Ļ× Ĳ
Ġà´ī à´ª
ĠÎķ Ïħ
Ġà°ī à°Ĥà°¡
ì¶ľìŀ¥ ìķĪë§Ī
ìŀ Ħ
à¤¾à¤¯ à¤¾
ĠÐłÐµÑģÐ¿ÑĥÐ±Ð»Ð¸Ðº Ð°ÑģÐ¸
ĠÐ´Ðµ Ð±
ĠÐ¶ Ð°Ð¼
Ð°Ñħ Ñģ
Ġà¸ Īà¸²à¸ģ
ÑĮ Ð½Ðµ
ĠÐ½ Ð°Ð¿
Î»Î¿ Î¹
ë§Ī ìĤ¬ì§Ģ
Ġâ Ļ
ìļ °
Ġà¹Ģà¸§à¹ĩà¸ ļ
Ġà¸ ģ
ĠÏĩ Ïī
Ð± Ð°ÑĢ
áĥĺáĥĹ áĥ®
à¸Ļ à¹Įà¸
à®° à®¿à®¯
ĠT he
ĠØ¥ ÙĦÙī
áĥĶáĥĹ áĥĺ
àª¿àª Ł
åħ µ
Ġå® ŀ
Ġà¤¯ à¥ĩà¤
à¸²à¸ªà¸´ à¹Ĥà¸Ļ
) ;
Ŀ à¸²à¸ģ
Ġà¸ §à¸±à¸Ļ
Ð¾Ð»ÑĮ ÐºÐ¾
Î¼ Î¼Î±
§ à¸Ļ
ĠÚ©Ø± ÙĨÛĴ
à¤ļ à¥įà¤
Ñĸ ÑĹ
ÑĤ Ð²Ð°
ĠÒĽ Ð¾Ð»
Ð»Ð°ÑĢÐ¸ Ð³Ð°
Ð°Ð» Ð°Ð±
ĠáĥĹáĥ¥ áĥķáĥĶáĥľ
ĠÏĦ Îµ
Ð» ÐµÐ´
Ġà¹Ģà¸ ģà¸¡à¸
à¹Ģà¸¥ à¹Īà¸Ļà¸
à°ªà±įà°ª à±ģà°¡à±ģ
à¸£à¸°à¸ ļà¸
àµģà´ ¦
ĠÑĪ ÑĥÐ½
ĠÏĢÎ¿Î» Î¹
Ġìľ Ħ
ĠÐ² Ð¸Ð»
Ò³ Ð¸
à§ģ à¦ķà§įà¦¤
à¯ģà® £
Ú¯ Ø§Ùĩ
«à¸¥à¸ ±à¸ĩà¸
èģ ĺ
Ġè® ©
9 5
éĥ¨ åĪĨ
è »
Ġè °
à¹ģà¸ «
à¹Ģà¸£à¸µà¸ ¢à¸
é ¸
à¹ĩà¸ ģà¸
ç ĵ
å® ĥ
3 4
Ġ3 2
¹ à¹Īà¸
åį «
à¥įà¤¯à¤¾à¤¸ à¤¾à¤łà¥Ģ
Ð»Ð°Ñģ Ñı
Ð ķ
Ġàªľ à«ĭ
Ðº Ðµ
ĠÎĺ Îµ
Ġà¤¬ à¤¨
ÏĦ Î®ÏĤ
áĥĶáĥļ áĥ¡
Ġà®ħ à®¨à¯įà®¤
ĠÎ¿ Î¹ÎºÎ¿
ĠÐĴ Ñĭ
à°¿à°¤ à±ĩ
à´²àµįâĢį à´ķ
à´£ à´®
ÑģÑĤ Ð°Ð²
×¨ ×Ĳ
Ñħ Ð¾Ð´
à¦ª à¦°
ÏĢÎ¬ ÏģÏĩ
Ø§Ø¯ Ùĩ
Ð¼ Ð¸Ð½
ĠáĥłáĥĿáĥĴ áĥĿáĥłáĥª
Ġà´® àµĤ
Ġà¤ľ à¤¾à¤¤
Ġà® ²
Òĵ Ð¸
ÑĪ ÑĩÑĭ
Ġà°ħ à°§
Ġàªª àª¡
ĠØ¯ ÙĪ
ĠÐ¼ Ð¾Ð´
à´¾à´¤ àµĨ
à¦¾à¦ ¥
Ð¸Ð» Ð¸
ĠÎł Îµ
Ðº Ñģ
Ġáĥĵ áĥĲáĥķ
ĠÏĦ ÎŃ
áĥĲáĥłáĥ ¡
ĠÐ¿ Ð°ÑĤ
Ø± Ø©
ĠìĿ ĺ
à±įà° ·
à«Ģàª ľ
ĠÎºÎ± Î»
Ð Ķ
áĥĺáĥ¡ áĥĲ
Ò³ ÑĥÑĢ
Ġà®®à¯ģà® ©
à´¿à´ķàµįà´ķ àµģà´Ĥ
er s
Ð»Ð¸ Ð¹
ĠÐ´ Ð¸
Ð½Ð¾ Ñŀ
à°¿à° Ĺà°¾
ĠÎķ Î»Î»Î¬
Ïĥ ÏĦÎ¬
×ķ× §
Ġà¤® à¥Ī
ÛĮ ÙĦ
Ġà¦Ĺ à§įà¦°
ĠÎµ Î¹
áĥķ áĥł
Ð¶ Ð¾
Ġà´¤à´¨àµįà´¨ àµĨ
Ñģ Ð»Ð¸
Ġàª¹àª¤ à«ĭ
ìĦ ¸
áĢĦáĢºáĢ¸áĢ Ľ
ĠÐĲ Ð»Ðµ
à¥ĩà¤ ĸ
Ġ ÏĪ
Ġà´¸ àµĨ
Ñĸ Ð»
à°¯ à°Ĥ
à¯Īà®ķ à¯į
Î½Î¿ ÏĤ
¡à¸ ·à¸Ńà¸
áĥķáĥĶáĥ §
ĠáĢŀ áĢ®
ĠáĢŀ áĢĲáĢŃ
ĠÐ² ÐµÑĢ
in e
Ġ à¹Ħà¸
ĠØ§ÙĦØ ®
Î¸ Î½
à´¿à´¯ à´¿à´²àµįâĢį
Ġà´ķ à´£àµįà´Ł
áĢĻáģ¼ áĢĲ
áĢĻ áĢ®
Ġà¦ķ à¦®
ĠÑħ Ð¸Ð·
Ġà¤² à¥ĩà¤ķ
ļ à¸Ļà¸
ĠÑı Ðµ
Ġà°ªà±įà°° à°Ń
íķĺ ê³ł
Ñĳ ÑĢ
ĠÏĥ Î¿Ïħ
Ïĩ Î±Î½
ĠÑī Ð¾
ĠáĥĹáĥĲáĥķ áĥĺáĥ¡
Ø³ ÙĦ
à«ĭ àª°à«įàª
à´¤ à´¿à´°
ĠÐºÐ¾ÑĤÐ¾ ÑĢÑĭ
à°¾à° ¶
áĢĻáĢ½ áĢº
áģ Ĩ
ĠçĻ ¾
Ġk8 å¨±ä¹Ĳ
u u
Ġä¸ ľ
à¤ ĥ
Ġà¹Ģà¸ Ĭ
Ġãĥ »
à¦¨ à¦¿
Ġg r
ĠÏĢ ÏģÎŃÏĢÎµÎ¹
Ð¸ÑĢ Ð¸
àµĭ à´ķ
Ú ĺ
ĠÂ °
ÑĪÑĩ Ñį
Ġà®¤ à¯ĩ
ĠáĢ±áĢĽ áĤĬ
áĢĲ áĢĲáĢ¹áĢ
áĤ ģ
áĢĻ áĢĽáĢ½áĢŃ
ĠáĢ»áĢķ áĢĶáĢ¹áĢľ
áĢļáĢ¹áĢ Ĳ
áĢĻáĢ»áĢŃáĢ¯áĢ¸áĢ ŀ
Ġ25 6
à¹Ī à¸Ńà¸ĩ
áĥķ áĥĶ
à°¿à°¯ à±ģ
ĠáĢħ áĢħáĢº
à¤¾à¤ Ĥ
Ø§Øª Ú¾
áŀ Ħ
ŀ à¸²à¸
åŁ ¹
äº§ ä¸ļ
à¤¾à¤Ĥà¤ļ à¥Ģ
Î»Î¿ Ïį
ĠáĥĽ áĥĶáĥ¢
Ġà¤ħà¤ª à¤¨à¥ĩ
ìľ Ħ
×ķ× ¢
àª° à«Ĥ
ÒĽ ÑĤÐ¸
à¹ģà¸ Ĥ
à¸Ļà¹īà¸ ³à¸
à¹Ģà¸Ĥ à¹īà¸²
à¸µà¹Īà¸ ¢à¸
ªà¸³à¸« à¸£à¸±à¸ļà¸
´ à¸Ļà¸
å¥½ çļĦ
¶à¸ ģà¸
ĠãĢĳãĢĲãĢĤ ãĢĳãĢĲ
«à¹ĩ à¸Ļà¸
çİ¯ å¢ĥ
e c
µ à¹Īà¸
Ġà¤¶ à¤ķ
Ð°ÑĢÑĭ ÑģÑĤ
Ġà´ ³
à´¤àµįà´¤ à´¿à´²
áĢŃáĢ¯áĢĦáĢ¹áĢ ĽáĢ¬
áĢĲ áĢĬáĢ¹áĢ¸
ĻáĢ½ áĢĲáĢ¹áĢ
áĢı áĢ®
Ø± Ùĥ
ĠáĢŀ áĢŃáĢ¯áĢ·
Î §
Îº Î»Î·
ŀ à¯įà®ļ
Ð¾ Ð¿
Ġà¦¸à¦® à§įà¦ª
Ġí Į
Ġ) ,
ĠØ® ÙĪØ¯
Ġà´° à´¾à´ľ
áĥĺáĥ ĳ
ÏģÎ± Îº
à¤¿à¤ ¶
Ġà®İ à®¤
Îº Î·
ĠØ¬ Ø³
Ð¸Ñı ÑĤÐ¸
ĠÂ» ,
à«ģàª ľ
ĠáĥĽáĥĺáĥ¡ áĥĺ
Ð¸ÑĤ ÐµÐ»ÑĮ
Ġà¦¸ à¦¬
ĠÎ¼Îµ ÏĦÎ¬
Ġàªª à«ĭàª¤
c e
ãģ ĳ
Ġê ¹
Ġà®® à¯Ĥ
Î¼Îµ Î½
ÑĥÒĽ ÑĥÒĽ
ÑĮ Ð½Ñı
ĠÐ³ Ð°Ð´
ÙĬ Ø³
Ġà´ĩ à´¨àµįà´¤àµįà´¯
í Ĵ
Ð» Ð¾Ð²
Ñĩ Ð¸Ð»Ð°ÑĢ
Ñģ Ð¾Ð½
Ġà¤Ń à¤¾à¤°
Ġà´® à´¾à´¤àµįà´°
Ġàª° àª¾àªľ
áĥĺáĥ «áĥļ
à¥ĭà¤ Ĥà¤
à¦ ·
ĠÑŀ ÒĽ
ĠÐ½ Ð°ÑĦ
Î¼ÎŃ Î½Î·
ĠìĦ ľ
ÑĤ Ð¾Ð¼
ĠÏĢ Î»Î·
ĠÙģ Ø±
à´¾à´¨ à´Ĥ
Ġàª® à«ĩàª
×ķ× Ĺ
ķ áĢº
áĢ¬ áĢĢáĢŃáĢ¯
Ð½Ñĭ Ð¼Ñĸ
áĢ°áĢ¸áĢ Ĳ
ĠÐºÐ°ÑĢ Ð´Ð°
áĢĽ áĢĦáĢ¹áĢ¸
áĢĶ áĢ®
Ġà®ĩ à®Ł
Î¼ Î¿Ïħ
áĥĲáĥ Ķ
Ġà¦¬à¦¾à¦Ĥà¦² à¦¾à¦¦à§ĩà¦¶
Ġà¦¯ à§ĩ
ĠÏĢ Î¹Î¿
Ġà´µà´¿à´ µ
Ð² ÐµÑĢ
Ġì¹´ ì§Ģëħ¸
ĠÛģ ÛĮ
ĠØ§ÙĦ Ùĥ
Ġà¤ľ à¥ĭ
ìķ ½
áĢŃ áĢĶáĢ¹áĢ
áĥĶáĥĳ áĥĶáĥļáĥĺ
Ġà´¨ à´¿à´²
áĢģáĢº áĢĻáĢ¹áĢ¸
ĶáĢ¾ áĢĦáĢºáĢ·
áĢ¬áĢ¸áĢ ķáĢ«
àª£ à«Ģ
ì ¡°
ÑĥÐ± Ð»Ñĸ
Ġa l
ĠÐ´ Ñį
áĢ¼ áĢĢáĢ¹
an mar
ĠáĢŀáĢ° áĢĲáĢŃáĢ¯áĢ·
Ðµ Ðµ
Ùĩ Ø±
ĠÎº Î¿
Ð½ Ñİ
à¨¾à¨ °
æľĢæĸ° çĻ»å½ķ
ä¸į åĲĮ
Ħà¸£à¸ ±à¹īà¸ĩ
è· Ł
ä¸ ¥
Ġà¸ §à¸±à¸Ļà¸Ĺà¸µà¹Ī
Ħ à¹Ī
Ľ à¸µ
ģà¸ ¥à¸²à¸
æĤ ¨
é»ĳ å¤§æĪĺ
Ġï¼Į âĢľ
åī ¯
ª à¸Ļà¸
à¹ģà¸ Ĺ
Ġç Ń
ç» ¼åĲĪ
ç® Ģ
è® ¿
Ġà¤® à¥Ģ
à±ĭ à°¤
áĥ§ áĥķ
Ġë į
à´¿à´° àµģà´¨àµįà´¨àµģ
áĢĶáĢ¹ áĤĢáĢĢáĢ®áĢ¸áĢ
áĢĲ áĢĶáĢº
è®¾ å¤ĩ
Ġ <
o f
ĠæĽ ´
åº §
Ġag äºļ
éĢ Ĥ
Ġ Ć
å¸ ģ
çļĦ äºº
¡à¸ ±à¸Ļ
ªà¹Īà¸§ à¸Ļà¸
Ĺà¸ ĺ
Ġà¤¨ à¤µ
ÏĮ ÏĦÎ·
à®© à¯Ī
ĠØ¯ ÛĮ
ĸ à±įà°¯
ãĥ³ ãĥ
áĥĲáĥ¨ áĥķ
ĠÐľ Ñĸ
Ġáĥł áĥĲáĥª
Ġà´¨ à´²àµįâĢįà´ķ
à´¤àµįà´¤ à´¿à´¨àµį
Ð°Ñİ ÑĨÑĨÐ°
áĢĳ áĢ¯
áĢĻáĢº áĢ¸áĢĻ
èı ľ
å¸ Ń
çİ° åľº
åĸ Ħ
çĶŁ äº§
Ġå¤§åıĳ äºĮ
æī §
·à¹Ī à¸Ļ
s p
å® £
à¤¡ à¥ĩ
à®£à¯įà®Ł à¯ģ
§ à«Ģ
ĠÏĥ ÏĩÎµ
ĠÐ¼Ð°ÑĬ Ð»ÑĥÐ¼
à¦¤ à¦¾
ĠÐ¼Ñĥ Ð¼
à±įà° ¬
×ķ× ¡
áĥĺáĥ£áĥł áĥĺ
ĠÑŀÑĤ ÐºÐ°Ð·
ĠÐº Ð¸ÑĪ
Ùħ ÙĨ
à¥įà¤ ¦
ÑĬ ÑĢ
ľ áĢ½
ÑĤÐ¸ Ð²
Î³ ÏģÎ¬
à´¿à´ķàµįà´ķ àµį
áĢĶáĢ¹áĢ ±áĢĲáĢ¬áĢ¹áĢ
áĢļ áĢ·
áĢ®áĢ¸áĢ ļ
Ð°Ð´ Ð·Ðµ
à®¿à® ª
à°Ĥà° §
Ïĩ Î¿
Ø§ÙĨ ÛĴ
à« Į
à´ª àµįà´°
Ġáĥ¨ áĥĶáĥľ
ê³ µ
ÑĨÑĭ Ð¹
à¤¿à¤Ĥà¤ Ĺ
¯ à§ĭà¦Ĺ
Î ĺ
Î¼Î¬ ÏĦÏīÎ½
áĥ£áĥ ĵ
Ľ áĢĦáĢ¹
ĠáĢĲ áĢŃáĢ¯áĢĢáĢ¹áĢ
áĤ ĲáĢ¼
áĢľ áĢº
Ø ¥
ÑĢ Ð°Ð²
ĠÙĩ Ø§
àµįà´ ķ
Î³ Ïī
à±ģà°¤ à±ģà°¨à±įà°¨
à®® à®¾à®©
Ø§ÛĮ ÛĮ
Ġa re
ÎŁÎ Ľ
ĠÏĢ Î¬Î½
Ġáĥ¡áĥĲáĥ® áĥĶáĥļ
áĢħ áĢĽáĢ¬
Ð ¥
Ðµ ÑĢÑĭ
à§ģ à¦¬
ÑĥÐ² ÑĩÐ¸
Ð¾ÑĢ ÑĤ
Ġà°Ń à°¾à°°
ĠÑģ Ð¾Ð»
à«įàª ¨
áĥĲáĥł áĥĶ
ĠÙ¾ Ûģ
à±ĩà° ¤
ĠáĢĻ áĢĽ
ê ´Ģ
áĢķáĢ¼ áĢ±áĢ¬
Ġà¤® à¤¿à¤²
åĪĨ æİĴåĪĹ
åħ °
ĠåĽ½ éĻħ
Ġ ä¼
Ġé ĵ
åĨħ å®¹
Ġæī ĳåħĭ
Ġå¥½ è¿Ĳ
ç´ ¢
Ġà¤² à¥ĭà¤ķ
Î» Ïī
ĠÑģ Ð¼
Ġ Ð°Ò³
à«Ģàª ¸
à±ģà°ķ à±ģà°Ĥà°Ł
ķáĢ« áĢŀáĢĬáĢ¹
áĢģáĢ» áĢ¯áĢķáĢº
Ġà´ľ à´¨
Ð´Ð°Ð½ Ð´
ĠÑĪ Ðº
Ġì Ľ
ĠØ§ÙĦØ µ
ÑĤÑĮ ÑģÑı
Ġà¦ħ à¦Ń
Ġà°®à°° à°¿à°¯à±ģ
ÑĤÑĭ Ñĩ
»áĢĸ áĢħáĢ¹
ĠáĢĢáĢ¼ áģ½
áĢ¡ áĢĲáĢ¼áĢĦáĢ¹áĢ¸
áĢ° áĢ¸áĢŀ
Î´ Î¹Î¬
ãĤ ¢
à¥ĩ à¤°
áĥĲáĥ® áĥļ
ĠÐ°ÑĤ ÑĢÑĭÐ¼
Ġàª® àª¾àªĤ
b er
ľ áĢŃáĢ¯áĤĶ
áĢŃ áĢ½
áĢĹ áĢºáĢ¬
áĢĲáĢ½ áĢ±áĢ·
Ġ àµ½
Ġ× ¦
ĠÐ½ Ð¾
ĠÎ¼ Î·
Ġà¦¸ à¦°
ĠØ º
Î½ Î¹Î±
Ġà¤ķ à¥ĭà¤
Ġà®ļ à®¿à®±
Ġà´ļ àµĨ
ĠáĢ¡ áĢ±áģ¾áĢĢáĢ¬áĢĦáĢ¹áĢ¸
áĢ¯áĢŃ áĢĦáĢ¹
áĢĶ áĢ±áĢ
áĥĶáĥ¡ áĥĺ
ĠÐ³ ÑĢÐ°Ð¼
ê¸ Ī
Î· Î³
Ð¾ÑĤ ÑĢ
Ð½Ñĸ ÐºÐ°
àª¾àª¨ à«ĩ
Ð°Ð»Ð°Ñģ Ñı
Ġà¦¦ à§ĩà¦¶
ĠáĢħ áĢ¯
íĸ ī
Ļ áĢŃ
áĢ¼ áĢĦáĢ¹
áĢĲáĢħáĢ¹áĢ ģáĢ¯
áĢĲ áĢŃáĢ¯
ĠØ¨ ÛĮ
Ð°Ñ ī
áĥĲáĥł áĥĺáĥ¡
ĠÐ· Ð°Ñħ
ĠÎ½ Î¿
à· Ĵ
à¤ķ à¤¾
áĢľ áĢĻáĢ¹áĢ¸
áĢĽ áĢĲáĢ¬
ĠáĢĻ áĢ¾
Ġàªľ à«ĭàª
Ñĺ Ð°
à´¿à´ķàµįà´ķ àµģà´¨àµįà´¨àµģ
ĠÐ±Ñŀ Ð»Ð¸Ð±
ĠÑĤ Ð°Ð´
ĠÐ¼ÑĥÐ¼ ÐºÐ¸Ð½
Ġ×Ķ× ©
à®Ł à®¿
ĠØ¨ ÙĨ
ÏĢÎ¿ Î¯
ÑĪ Ð°Ð²
Ġ he
ĠÐ· Ð°Ð±
à¦¿à¦ ª
ĠæĿ İ
m l
å·¥ ç¨ĭ
ªà¸ §à¸
åıĤ èĢĥ
å¤© å¤©
A N
à¹Ģà¸¥à¸ ¢
ä» ħ
à¥ģà¤ ĸ
ĠáĥĶáĥłáĥĹ áĥĺ
Îº ÏģÎ¹
Ġ áĤĢáĢĢáĢŃáĢ³
ĠáĢĻ áĢ»
ÑģÐº Ð¸Ð¹
Ġà®ĩ à®²à¯įà®²
ĠÐ´ Ð°Ð¿
àª¾àª ¶
ÎŁÎ Ŀ
ÎĹ Îľ
Î¼ÎŃ Î½Î±
áĢĲ áĢĬáĢº
ÙĦ ÛĴ
Ĭà¸ ·à¹Īà¸Ńà¸
à¤Ĥà¤ ļ
ì ¶Ķ
Ð² Ð¸
ÙĬ Ø§
íĶ ¼
à¦¿à¦ Ľ
Ġáĥŀ áĥĺáĥł
Øª Ùĩ
Ġà®Ĩ à®©
ĠÐ· ÑĮ
ĠÐ± ÐµÐ»Ð°ÑĢÑĥÑģ
ĠÐº ÑĢÑĭ
à´¿à´ ·
ĠÏĥÏħ Î¼
åľ Ł
c c
Ġ4 7
å¤§ åİħ
è Ĵ
áł¤ áł
¶à¸ ĩà¸
èª ī
é Ń
Ġ5 åĪĨå¿«3
Ġà¤ªà¥įà¤° à¤¤
áĢ»áĢķ áĢĦáĢ¹
ĠáĢ¡áĢĨáĢŃáĢ¯ áĢķáĢ«
Ġàª¥ àª¯
Ġìķ Ī
áĢģ áĢ²
Ġ Ð°Ð³
ĠÏĨ Î¿
ãĥ³ ãĤ
ĠáĥĽ áĥĿáĥľ
ÑĤ Ð¾Ð²
ĠÎ´Î· Î¼Î¿
áĢĻ áĢĬáĢ¹áĢ
ĠáĢ¡ áĢ²áĢ·
áĢĶ áĢļáĢ¹áĢ
ĠáĢģ áĢĽáĢ®áĢ¸áĢ
Ð»Ñĸ Ð²
çº¿ ä¸Ĭ
æ¼ı æ´ŀ
Ĭà¸µà¸ §à¸´à¸
Ġç« ŀå½©
0 6
å¼Ģ å§ĭ
3 åĪĨå½©
Ġå¤§åıĳ ä¸ī
åĩ ı
à¹īà¸Ńà¸ ¢
çĽ¸ åħ³
å® ¾
æĻ ļ
åĪĨéĴŁ æĹ¶æĹ¶å½©
åİ Ĥ
à¸Ńà¸²à¸« à¸²à¸£
ĵ à¹Įà¸
Ġc h
Ġå¿« 3
Ġç» ı
æĹ ©
· à¸Ńà¸Ļ
à¥ģ à¤¸
ê² ½
ĠÎ´ Î¹Îº
áĥĲáĥ §
Ð· Ñĭ
àµģà´ ²
à¯ģà® ²
ĠØ¨ Ú¾
×Ļ ×Ļ×Ŀ
Ð½Ñĸ Ñĩ
ĠÏĢ ÏīÏĤ
ĠàªĹ àª¯
à´¯ à´¾à´³
u g
à±įà°¯ à°Ĥ
áĢĢáĢ¼ áĢļáĢ¹áĢ
Ģ áĢ¯áĢŃ
áĢĢ áĢ±áĢĶ
áĢ¸áĢĻ áĤĪ
ĠáĢĲ áĢŃáĢ¯áĢĦáĢ¹áĢ¸
±áĢĽ áĢ¸áĢ
áĢķáĢ« áĢķáĢ²
áĢľ áĢĦáĢ¹áĢ¸
ĠáĢħ áĢ®áĢ¸áĢķ
à¦¨à§įà¦ §
íķ Ļ
ĠÙ¾Ø§Ú© Ø³ØªØ§ÙĨ
áĥĺáĥľ áĥĺáĥ¡áĥ¢
ÙĦ Ø§Ùħ
àµĭ à´³
áĢ¬áĢ¸áĢ ģáĢ²áĢ·
Î¹ Î»
áĥĲáĥ¥ áĥ¢
ĠØ¨ Ûģ
ĠÐ´Ð·Ñı ÑĢÐ¶
Ġåį ģ
Ġä½ ¿
Ġ5 4
Ġà¨ ħ
åĳ ³
33 3
å® ģ
è½ »
Ħà¸ ±à¸
ĠçĶ ±
Ġçİ¯äºļag 88
é¢ Ŀ
åį ĥ
Ġà¸ĭà¸¶ à¹Īà¸ĩà¸
é¤ Ĳ
ç ĩ
ä¸Ĭ çļĦ
Ġć Ĉ
æ ĩ
à¹Ģà¸ Ĺ
è¿ °
å¨±ä¹Ĳ å¹³åı°
éªĹ å±Ģ
æĶ »
® à¥ģà¤³à¥ĩ
à¤¾à¤¨ à¥Ģ
Ġàªķà«ĭàª Ī
ÑģÐº Ð¾Ð¹
Ġà®® à¯Ģ
Ð°ÑĢ Ð°Ð´
ĠÑĤ ÑĥÑĪ
ĠÑģ Ð¾Ò³
à¦¾à¦¨ à§įà¦¤
Ġà°ķ à°¾à°¨
ëª ħ
áĥĽ áĥĺáĥ¡
Ð°ÑĢ Ð¼
Ġà´ľ àµĢà´µ
ĠÚ©Ø± Ø¯
Ðµ Ð¶
áĢħ áĢīáĢº
ĠÏĦ ÏĮ
Ġà´ §
àª¸ à«įàª¤
ĠÑĤ ÑĢÑį
ĠÐ¾ ÑĪÐ¸ÑĢ
ĠÑį ÑĬ
Ġp ro
à¹Ģà¸¥à¸ ·à¸Ńà¸
ĠâĢ¦ âĢ¦
à¥įà¤¹ à¤¾
Ðµ Ð³
à±ģà°ķà±ĭ à°µ
à¯ģà®ķ à®³
Ġà¦® à¦§à§įà¦¯
ÙĤ Ø©
àµģà´ ¨
ĠáĥĴ áĥĲ
Î½Î± Î½
Ġà¤² à¥ĭà¤Ĺ
ĠâĢĭâĢĭâĢĭ âĢĭ
àµĤ à´ª
Ðº Ð¾Ñŀ
áĥĲáĥª áĥĺáĥĲ
ÐĲ Ðł
ĠÐ¾ Ð¼
Î¼ ÏīÏĤ
Ġí Ĩ
ĠáĢ¡áĢĵ áĢŃáĢĢ
Ġ àµ¼
àµĥ à´¤
Ð°ÑĨ Ð¸
ĠÐł Ñį
áĢ¸áĢĻ áĢ½
áĢº áĢ¸
ĠÐ³ Ð¾Ð´Ð°
àª¾àª° à«ĭ
à°¾à°Ĥà° ¤
è¾ ħ
å½± åĵį
Ġà¤ħà¤¸ à¥ĩ
áĥĶáĥ ¤
ĠØ¢ Ù¾
il l
Ðº Ð»Ð°Ð´
ÏĨ ÎŃÏģ
áĢ±áĢĽ áĢ¸áĢ¡
ĸáĢ¼ áĢĦáĢ·áĢº
ĠÒ³ ÑĥÒĽÑĥÒĽ
×Ļ× ¢
ãĤ Ī
àµģà´ķ à´¯àµģà´Ĥ
ĠÐ ģ
Ġà¤ķà¤¹ à¤¾
à¦¾à¦ Ĥ
ĠÐĲ Ð»
Ùħ Ø©
Ġí Ķ
Î¯ Ïĥ
áĥĺáĥ£áĥ ļáĥĺ
Ġå¥ ¹
Ġè ¾
åĿ ļ
å¹ ķ
ķà¹Īà¸²à¸ ĩ
èµĦ æºĲ
æ¹ ĸ
åĪ° äºĨ
à¤ļ à¤¾
Ð´ Ð°Ð¹
àªĤ àªķ
ĠÐĺ Ð½
Ð¼ Ñı
à±ģà°ķ à±ģà°¨à±įà°¨
Ø§ÙĨ Ùĩ
ĠÎµÏĢ Î¹Ïĥ
à¯ģà®µ à®¤
Ð°Ñ Ĺ
Ġáĥ¥ áĥĲáĥļ
à§ģ à¦ķ
ĠÐºÐ¾Ð¼ Ð¿
ÑĢÑį Ð´
Ġà°¨ à±ĩ
Ġà¤ķ à¤®
Ġàªı àª®
Ð½ Ð¾Ð²
íķ ł
ÑģÐ¸ Ð´Ð°
ĠÑį Ð´Ð¸
ĠÐº Ðµ
ĠÐ´ Ð¾ÑĢ
Ġáĥ¥ áĥĲáĥłáĥĹ
áĥĲáĥ ©
à¦¨ à¦¾à¦°
ĠÎ± ÎºÏĮ
Ġà°Ĺ à±įà°°
ĠØª Ø¹
à«ĭ àª¨
Ġ or
Ñĸ Ð»Ñĸ
à´¿à´ķàµįà´ķàµģà´¨àµįà´¨ à´¤àµį
áĥĲáĥķ áĥĺ
Ġá ½
ÏĦ Î¹Î±
ĠáĢĳ áĢ¼áĢĢáĢ¹áĢ
áĢĦáĢ¹ áĤĶ
ĠáĢ¡ áĢ»áĢĻ
áĢķ áĢĲáĢº
Ø² Ø§Ø±
éĵ¾ æİ¥
æ¹ ¾
çļ ĩ
Ġà¸ ¡à¸µ
à¹ĥà¸ ª
Ġà¤Ĩ à¤®
Ð´ ÐµÐ»
Ñĥ Ð»Ñı
à±įà° £
áĥĲáĥĿ áĥĳ
à¤¤ à¥įà¤°
Ġ× ĺ
ÏĨÎ¿ ÏģÎ¬
àµĩà´ ĸ
ĠÐºÑĢ Ð°Ñĸ
à°Ĥà°¤ à±įà°°
Ġàª¸ àª¾àª®
à®¿à®¤à¯įà®¤ à¯ģ
ĠØ§ Ø¨
ÏĢÎ¿Ïħ ÏģÎ³
ÙĤ Ø¯
Ð¾Ð² Ð°ÑĤÑĮ
à§ĩà¦ ľ
ÎĻÎ Ŀ
Ïĩ Î¹
Ġag æīĭæľºå®¢æĪ·ç«¯
à¸´ à¹Īà¸ĩà¸
å· ®
æĹ¶ åĢĻ
æĹ ı
å ĺ
Ġå¤©å¤© ä¸Ńå½©ç¥¨
å¤Ħ çĲĨ
Ġæ Ħ
7 5
à¤¦à¥įà¤ §
à°³ à±įà°³
Ġà®ķ à®²
Ġáĥķ áĥĶáĥł
àµģà´®àµįà´ª àµĭ
at e
±áĢ¡ áĢ¬áĢĦáĢ¹áĢ
ļ áĢ¬áĢĢáĢ¹
ŀ áĢĬáĢ¹áĢ·
ĠáĢŀ áĢ±áĢĺáĢ¬
áĢĲ áĢ¯
ÏĦÏĮ ÏĤ
ĠáĥĴ áĥĲáĥĺ
áĢŃáĢ¯áĢľ áĢº
à¦¾à¦¤ à§įà¦°
à°¾à°° à°¿
__ __
Ð½ Ð°ÑĤ
ÑĤ Ð°Ð¼
Î´ Î¹Îº
ĠÑĥ Ð¼
à¹Īà¸²à¸ ĩà¸
ĠçĶ Ł
Ġ4 5
ªà¸ ĸ
éĿŀ å¸¸
¸à¸ ģ
n t
r a
Ġd 88
Ġà¤¸ à¤°
Ġà®ļà¯Ĩà®¯ à¯įà®¯
ĠÚ¯ ÛĮØ§
Ġêµ ¬
à´ķàµįà´ķ àµĨ
áĥľ áĥĿáĥĳ
áĢĦ áĢļáĢº
ĠÙħ Ø¯
Ġàª¤ à«ĩàª
Ð¸Ð½ Ð°
Ġà´ī à´£àµįà´Ł
à°® à±ĩ
ĠÏĢÎµÏģÎ¹ Î¿
ĠÐ´ ÑĢÑĥ
åľ Ī
ç»Ħ ç»ĩ
Ġ1 00
æĪĲ ä¸º
à¸´à¸ Ķ
Ġæĸ° èĲĦäº¬
å® ¡
ŀ à¸£à¸
· à¹īà¸Ļà¸
åĬŁ èĥ½
ç§ ģ
æŃ ¦
Ĺà¸µà¹Īà¸ ¡à¸µà¸
çľŁäºº æ¸¸æĪı
Ŀ à¸
à¹Ģà¸£à¸ ´
i st
åįķ ä½į
Ġçİ ĭ
ç§ »
æĭ ¬
åıĳ å¸ĥ
Ħà¸ ·à¸Ń
å¾ ħ
«à¸Ļà¸ ±à¸ĩ
on e
Ġä¸ ¤
æ¸¸æĪı å®ĺç½ĳ
Ġà¸ «à¸£à¸·à¸Ń
è®¡åĪĴ _
çĶ¨ æĪ·
å° Ĭé¾Ļ
Ġà¤ķ à¤¾à¤¯
Ġà¤¬ à¤¾à¤¦
ĠÒĽ Ð°Ð¹
Ð¾Ð½Ð¸ Ð´Ð°Ð½
ĠÑĤ Ð°Ò³
×ķ× ŀ
à§įà¦ Ľà§ĩ
Ġáĥŀáĥĺáĥłáĥ ķ
Ġà¦¨ à¦¿à§Łà§ĩ
ĠÐ¿ ÐµÑĪ
è ©
è®º åĿĽ
Ġs h
å² ģ
à¹Ģà¸¥à¸ ¢à¸
Ġåħ ³
¢ à¹Įà¸
Ġåĩ ¤åĩ°
çĻ¾ å®¶ä¹Ĳ
æİ§ åĪ¶
à¹ĥà¸Ļà¸ ģà¸²à¸£à¸
«à¸Ļà¸ ±à¸ĩà¸
à¤¦ à¤¾à¤°
Ð½ Ð°Ð»ÑĮ
ĠáĢ±áĢĲáĢ¼ áĤķ
ĠáĢģ áĢ¼
à°¿à°Ĥà°Ĺ à±į
ĠØ¢ Ùħ
à¯ģà®ķ à®³à¯į
ÏĥÎºÎµ Ïħ
ÑĨ ÑĨÑı
Ħà¸ §
Ġå¤§åıĳ åĪĨåĪĨå½©
å® ³
à¸Ńà¸ ±à¸
Ġæĸ ĩ
áĬ ķ
æ² Ļ
à¹ĥ à¸Ļà¹Ģà¸
Ġà¤¨ à¤¿
ìŀ ħ
Ġà¦Ľ à¦¿à¦²
ĠÑĢ Ð¾Ð·
áĢĢ áĢľáĢĬáĢ¹áĢ¸
áĢģáĢ¼ áĢĦáĢ¹áĢ·
áĢ±áĢ »áĢĻ
Ġ.. áģĭ
ĠáĢĽáĢĢáĢ¹áĢ±áĢĶ áĤĶ
áĢĶáĢ¹áĢ¸ áĢĻáĢ¬
±áĢ ĸ
ĠáĢħ áĢŃáĢĲáĢº
à´¡ àµį
áĥĲáĥª áĥĺáĥĺáĥ¡
Ðµ ÑģÑĤ
ĠàªĨàªµ à«Ģ
Î¼ÏĨ ÏīÎ½
ĠáĢĢáĢŃáĢ¯ áĢļáĢ¹áĢ·
áģ ¾
ŀ áĢ¬
ĠáĢ±áĢ¡ áĢ¬áĢĦáĢ¹áĢ
áĢ¬áĢ¹áĢ »áĢķ
ĠáĢ±áĢ¡ áĢ¬áĢĢáĢ¹áĢ
áĢ¡ áĢģáĢ«
ĠØ§ÙĦ Ø±
à¤ļ à¥Ģ
ĠØ´ Ø¯
ĠÏħ ÏĢÎ¬ÏģÏĩ
áĥľ áĥĲ
ĠÑĤ ÑĭÐ¼
Ġàª¹àª¤ àª¾
ĠÐ¾ Ð¿
à¤Ń à¥Ģ
à°¸ à°Ĥ
ĠØŃ Ú©
ç¨ İ
à¸£ à¹Īà¸§à¸
it y
¸à¸ Ķ
Ġçľ ĭ
ĵ à¹Į
à¹Ī à¸Ńà¸
Ġà¹ģà¸ ķà¹Ī
Ġà¸ ¥à¸
å¦ Ī
ä¹ ¡
5 åĪĨå½©
Ġç«ŀå½© è¶³çĲĥæ¯ĶåĪĨ
ĠçĦ ¶
j i
à¤ ĺ
Ġáģ ī
ĠÎķ Îº
à´¿à´¨ àµįâĢį
Ġà®¨ à®¿à®²
áĥľ áĥĶáĥļ
ÐµÐ½ Ð³
áĢ¬áĢ¸áĢĻ áĤĪ
ĠáĢ±áĢ ĦáĢ¼
»áĢķ áĢĶáĢ¹áĢ
áĢĻ áĢĦáĢ¹áĢ¸
áĢĽáĢŃ áĢŀ
ÙĪ Ø¨
à¦¸ à§įà¦¤
Ġn ews
Ġà´ ¨àµįà´
áĢ¡ áĢ¬áĢ¸áĢ
Ð°Ð± Ð°ÑĢ
Î¯ Î´
ÑĤ ÐµÐ»ÑĮ
ĠÐº ÑĸÑĢ
ĠÎºÎ¬ Î¸Îµ
Ġé ķ
Ġag ç½ĳæĬķ
3 9
Ġå¤§åıĳ pk10
Ġ5 1
å½©ç¥¨ å¹³åı°
Ġäºļæ¸¸ app
æīĢ æľī
Ġ3 7
à¸²à¸ ¡à¸
éĵ¶ è¡Į
äº ®
è¯ ¢
ĠãĢ Į
ą ï¼Į
Ħà¸ ¥
à¥įà¤¹ à¥Ģ
à°°à±įà° ¶
ĠáĢ»áĢĻáĢĶáĢ¹áĢĻáĢ¬ áĤıáĢŃáĢ¯áĢĦáĢ¹áĢĦáĢ¶
áĢħáģ¥ áĢĬáĢ¹áĢ¸
e p
ĠáĢŁ áĢ¬
ĠÐ¸ Ðº
Ð¸ÑĪ Ð³Ð°
ĠÐ¸ Ð¶
Ð°Ð» Ð°Ð½
Î¼Î¿ ÏĤ
áĢĨ áĢ®
ĠáĥĽ áĥĵ
Ġà´ª à´¿à´¨àµįà´¨
Ð¼ Ð°Ð³Ð°Ð½
ĠÐ¶ Ð¾Ð¹
ĠÐ¼ ÐµÐ½
Ġ×Ķ ×ª
ĳáĢ¬áĢ¸áĢ ĲáĢ²áĢ·
áĢķ áĢŃáĢ¯
Î½Î± ÏĤ
ëŁ ¬
Ġà´ª à´¿
à´¾ àµ½
àª¿ àªĤàªĹ
Ġà¤µ à¤¾à¤²
áĢ¡ áĢĽáĢ¬
ĠØ³ Ú©
ĠÐµ Ð³Ð¾
ĠÎ£ Îµ
à¯ģà® ļ
à¦¿à¦ķ à§įà¦·
à°°à°¿à° Ĺ
Ñĥ ÑĩÑĭ
ĠÐ±Ð¾ Ð·
ÏģÎ± ÏĤ
à¥ģ à¤ª
Ġáĥ¡áĥĲáĥ ĳ
áĢ¡ áĢĳáĢŃ
ÎµÎ¯ ÏĤ
ĀĀ ĀĀ
ãĥ¼ ãĤ
à°ķà±įà°ķ à°¡
Ġà¦¬à§įà¦¯ à¦¬
Ġà®ª à®¯
ÐµÐ½Ð¸ Ð¸
Ġåİ Ł
APP ä¸ĭè½½
æĸ Ĺ
à¸Ńà¸ ģ
à¤¿à¤ ·
ĠáĥĴ áĥĲáĥķ
ê² ©
ĠÐ¿ Ð°Ð»Ñĸ
Ø¹ Ø©
áĢĦáĢºáĢ¸áĢ ľ
Ġà°ª à°°
Ð°Ð´Ð¸ Ð³Ð°Ð½
Ð± Ð¸ÑĢ
ĠÑģ Ð°Ð½
Î½Î¿ Ïį
© áĥĶáĥķ
àªµ à«ģàªĤ
çĮ ľ
à¥ĩà¤ ¹
Ð³Ð°Ð½ ÑĸÐ·
Ľ áĢĶáĢ¹
áĤı áĢ¯
áĢģáĢ¶ áĢĽ
Ġáĥłáĥ £áĥ¡
Ġë Ĳ
Ñģ ÑĥÐ»
Ġáĥŀ áĥĿáĥļ
Î¼Î± ÏĦÎ¿
ĠáĢ±áĢĨ áĢ¬áĢĦáĢ¹áĢ
áģ¿áĢķáĢ®áĢ¸áĢ ±áĢĲáĢ¬áĢ·
áĢĶ áĢļáĢ¹
áĢŀ áĢ¬áĢ¸áĢħáĢ¯
ÑĤ ÑģÑı
ÑĥÐ¼ Ò³ÑĥÑĢ
×Ĺ ×¨
àªµàª¾àª¨ à«Ģ
ªà¸²à¸¡à¸²à¸£à¸ ĸ
à¸Ļà¸ ³
åħ¨ åĽ½
Ġç ¦
æ¿ Ģ
Ġå¤ ļ
Ġçº ¢
ä» ĺ
áŁ ĭ
çª ģ
· à¸
ä» ¤
Ħà¸ °
ĠåĪ °
è´¨ éĩı
é Ł©
à¥Ģà¤ļ à¥įà¤¯à¤¾
ĠÑĦ Ð°Ð¾
ĠÒĽÑŀ Ð¹
ĠÐº ÐµÑĤ
Ð°ÑĢ Ð´
à±ģà° ¸
Ð½Ð¸ Ð¹
ĠÐ³ ÑĸÑģÑĤ
áĢĳ áĢ¬áĢ¸áĢŀ
ÏĨ Îµ
ĠØ§Ù¾ ÙĨÛĴ
àµ º
à§ĭ à¦²
ĠØ´ Ø¯Ùĩ
ĠáĥĲáĥĵáĥĲáĥĽ áĥĺáĥĲáĥľ
ĠÑĤ ÑĢ
ÏĦÎµ Ïģ
Ġà°ī à°Ĥà°Ł
ØŃ Ø¯
ĠÐ¿ÐµÑĢ ÑĪ
Ġà¤¤ à¤ķ
Ġì ¡°
ģà¸ §à¹Īà¸²à¸
à¤¾à¤ ±
áĢħ áĢħáĢº
Îĳ ÎĻ
ĠÎ¿ÏĢÎ¿ Î¯Î±
ĠÒĽ Ð°Ð±
à¦¾à¦ľ à¦¾à¦°
àª¤ à«ĭ
áĥľ áĥĶáĥĳáĥĲ
Ġà®µà¯Ĩ à®³
ĠÐĳÐµÐ»Ð°ÑĢÑĥÑģ ÑĮ
ÑĤÑĭ Ñŀ
à¦ ŀ
áĢĳáĢ² áĢĻáĢ½áĢ¬
ģ áĢĲáĢ¹áĢ
áĢĳ áĢ±áĢ¬áĢĦáĢº
Î½ Î®
áĥĿáĥłáĥ ¢
ĠØ· Ø±
Ð°Ð² Ð¾Ð½
ĠÑı Ð½Ñĭ
Ġàª Ī
áĢ±áĢ¸áĢ ŀ
Ġà´¨ àµĢ
Ðº Ð¾Ð²
ì ¦
ĠÎ± Ïģ
áĥĿáĥļ áĥĿ
Ġà¦¥ à¦¾à¦ķ
ãĥ ¬
à¯Īà®ķ à®³à¯į
à¥ĩà¤ ľ
ĠáĢ±áĢ ĳ
áĢĢáĢ¹áĢ Ļ
áĢ¬áĢ¸áĢľ áĢ½
ķáĢ¼ áĢ¯
à«ĩ àª¨à«įàª
Ġà´ķ àµĨ
ĠÐ¿ Ð¾Ð¼
Ġà´µà´¿à´ ¶
Î¸ Î¿ÏįÎ½
Ø§Ø ®
áĥĿáĥ ĸ
Ġ×ŀ× ©
ÑģÐº Ñĥ
Ġáĥ¥ áĥķáĥĶáĥ§
ĠÑģÐº Ð»Ð°Ð´
ìĹ Ń
ĠÐ¿Ð¾ Ñģ
Ġà° ·
ĠÎĿ Î¿
à´¨àµįà´¦ àµįà´°
åıªä¸º éĿŀåĩ¡
Ġà¤ħ à¤§
à¦ ī
ĠÎ¼ÏĮ Î½Î¿
áĢĢáĢ¹áĢ ĲáĢ¬
ĠáĢĺ áĢļáĢ¹áĢľáĢŃáĢ¯
áĢľ áĢ®
ĠÙ¾ ÛĮ
à±įà°Ł à±įà°°
à´ķàµįà´ķ àµģà´Ĥ
Ø ¤
Ġà®¤ à®²
Ð² Ð°Ð»Ñĸ
Î¬ Î¶
Ġà°µà°¿à° ·
àª¤ àª¾àªĤ
Ð¾ÑģÑĤ Ð¸
áĥ¡ áĥĲáĥ®
Ġà¦ķ à§ĭ
à±įà°° à°®
ĠÑĤÐ¾Ð¼ Ð¾Ð½Ð¸Ð´Ð°Ð½
ĠÑĪÑĥ Ð´Ð°
áĢ¯áĢ¶ áĢ¸áĢŀ
Ġà®ĩ à®µ
ĠÐļ Ð°Ð»Ñĸ
ÎĳÎ Ľ
Ïĥ ÏĦÎ®
ĠØ³ Ø±
à´ķ à´³àµįâĢį
Ġà´İ à´¨àµįà´¤
ãģ Ĭ
ĠáĥĹ áĥĳ
Ġì¶ľìŀ¥ ìķĪë§Ī
íĴ Ī
áĥ¡ áĥ¢
Ġà®®à®±à¯įà®± à¯ģà®®à¯į
Ð¿ Ð¾Ð»
Ľà¸£à¸°à¹Ģà¸Ĺà¸ ¨
Ġagäºļæ´² æ¸¸æĪı
à¥ĭà¤ ª
à¦¿à¦ķ à§ĩ
Ġ×Ķ× Ĺ
à´¿à´¯ àµĨ
Ġàª¹àª¤ à«ģàªĤ
à°ª à±Ī
Ïĥ Î¯
Ġì ½
áĢ»áĢķ áĢĶáĢ¹áĢ
ķáĢ¼ áĢ®áĢ¸
Î³ Î±
à´¿à´Ł àµĨ
áĥĲáĥ® áĥĶáĥĳ
ĠÑĢ Ð°Ñĳ
Ø§Ø µ
ÏĢ Î®
Ġëĵ ±
Ġà°® à°¹
±áĢĢ áĢ¬áĢĢáĢ¹áĢ
±áĢĶ áĢĲáĢ²áĢ·
Ġáģģáģ Ĥ
Ð»Ñı Ð´
ãģª ãģĦ
áĢĲáģ ±
áĢĦáĢ¹áĢ ĲáĢ¬
ĠáĢ±áĢĲáĢ¼ áĤĶ
ģáĢ¼ áĢĦáĢ¹áĢ·
áĢķ áĢ»
à´¦ àµįà´¯
à±Ģ à°¨
åħ³ ç³»
è° Ī
éĥ¨ éĹ¨
«à¸ ¡
à¨ £
à¥įà¤¯à¤¾à¤ļ à¥ĩ
áĥ® áĥĽ
ĠÐ± ÐµÐ·
ĠÏĥÏĦ Î¿ÏħÏĤ
ĠáĢ±áĢĴ áĢ«
ĠáĢľ áĢŃáĢ¯áĤĶ
¡ áĢħ
ĵ à¤Ĥ
í ģ
ĠÑĥ Ð½
ÑĤÐ¾ Ð±
áĢĻáĢ¹áĢ Ļ
ĠáĢ±áĢĴ áĢŀ
áĢģáĢ²áĢ· áĢĲáĢ²áĢ·
Ķ áĢ²áĢ·
ĠáĢĢáĢ¼ áĢº
ĠáĢģáĢº áĢħáĢ¹áĢ
áĢľ áĢ»áĢ¾
ÏĦ ÏĥÎ¹
Ð°Ñģ ÑĮ
Ð°Ð² Ð°Ñŀ
Ġà¦ķ à¦¿à¦¨
à«Ģ àª¨
Ġà°ķ à°¨
ÏĮ ÏĦÎ·ÏĦÎ±
Ļàµįà´ ķ
ĠagåĽ½éĻħäºļæ¸¸ å®ĺç½ĳ
Ġæ¢ ¦
ï¼ Ī
å®ŀ çİ°
ĠU U
å± Ĭ
ĠåĽ Ľ
Ĥ à¹īà¸²
ģ à¸£
ą ć
ä»· æł¼
n d
ç´ §
ĠèĢ ģ
ç £
äºº çĶŁ
çĭ ¬
Ġæµ ·
åºĶ çĶ¨
ç ĳ
Ġæ ¶
éļ ľ
«à¸ ķà¸
å¤§ åħ¨
Ġ3 åĪĨå¿«3
Ħà¸ ³à¸
à©Ģ à¨
Ġæį ®
Ġà¤ķ à¤¾à¤®
áĥĶáĥĳ áĥĸáĥĶ
ĠÐ¿ÑĢ Ð¾Ð´
Ð¸Ð½Ð³ Ð¸Ð·
ĠÐºÑŀÑĢ ÑģÐ°ÑĤ
ĠÐ¾ Ð»Ð¸Ð±
ĠÐºÑŀ Ð¿
Ñĥ ÑģÑĤ
ĠÑı ÑĪÑĩÑį
Ġ×ŀ ×Ķ
Ú© Ûģ
Ġag 88
Ġi d
áŀ ĺ
à¹īà¸²à¸ ĩ
å¾ ģ
ķà¸ ±à¹īà¸ĩ
ħ è¯»
b b
Ġà¤ĺ à¥ĩà¤¤
Ġà´İ à´²àµįà´²
áĢ¬áĢ¸áĢ Ĩ
) .
à«ĩàª ¡
ĠÐ¼ÐµÐº ÑĥÐ½
Ð» ÐµÐ½Ð¸Ñı
Ġà¦¬à¦² à§ĩà¦¨
ÙĦ Ø©
ÏĨ Î·
Ġâ Ĩ
ë° Ķ
Ġà¦ı à¦¸
áĤıáĤĪ áĢĶáĢ¹áĢ¸
ĠáĢ±áĢ ģáĢ«áĢĦáĢ¹áĢ¸
ĠáĢŀ áĢŃáĢ¯áĤĶ
áĢĺ áĢ¯áĢĽ
áĥ£áĥ ĳ
åħŃ åĲĪ
éĢ Ģ
ĠæŃ £
Ġà¸ ģà¹ĩà¸
§à¸ ĩà¸
app _
Ġ3 4
áĢ¸áĢĲ áĢļáĢ¹
áĢ¸áĢ±áĢ ľ
áĢķ áĢĬ
ÐµÑĤ Ð¾
å¤© åłĤ
Ġ4 6
Ĭà¹Īà¸§à¸ ¢
Ġà¤ķà¥ĩà¤² à¥Ģ
Ġà°Ĩà°¯ à°¨
ĠÎ±ÏĢÎ¿ ÏĦÎµ
ÐµÐ»ÑĮ Ð¼Ñĸ
à±ģà°¨ à°¿
Ġà¦ķà¦° à§ĩà¦¨
ĠØ¬ ÙĨ
àµĨà´Ł àµģà´¤àµįà´¤
ìĺ ģ
ĠÐ¿ ÑĸÐ´
ãģ£ ãģŁ
ĠáĢŀáĢ° áĢĢ
ĠÐ¸ ÑģÐ¿
áĥļ áĥĺ
à´¸ àµįâĢĮ
áĢ±áĢ¸áĢ ¡
Ġà¤¸ à¥Ģ
à°Ł à±įà°²
ĠÐ°Ð± Ð¾
ĠìĬ ¤
Ġàª¦ àª°
Ġáĥ¡ áĥ¬
Ġà¦¸à¦® à§Ł
à¹ģà¸ ķ
Ĭ à¸´à¸
Ġh t
¸à¸ ¡à¸
à¸Ńà¸²à¸ Īà¸
¨ å¤©
st ar
ç¯ ĩ
à¹Ĥà¸ Ķà¸¢
à¤¸ à¥įà¤¥
à´¿à´²àµĩ à´ķàµįà´ķàµį
áĢĳ áĢ¼áĢĢáĢ¹áĢ
áĤĬáĢĲáĢ¹áĢ ±áĢĲáĢ¬áĢ¹áĢ
áĢĻáĢ¼ áĢĦáĢº
ĠØ§ Ø±
ug u
Ġà°¨à±ģà°Ĥà° ļà°¿
ĠÎ¶ Ïī
ĠÎ» Î±
áĥª áĥĲ
Ġà¦ªà§įà¦° à¦ķ
ĠÙħ Ø§
ÑĪ Ðµ
Ġà°ħ à°Ĥà°¤
Ġw h
æĽ ¾
Ġæ¯ Ķ
Ġà¤Ĺ à¥ĩà¤²
àª¾àª ¥à«Ģ
ĠÐĲ Ð¼
ĠÎµÎ½ Ïİ
Ġ×ĳ ×Ĳ
ÑĨ Ñİ
ĠØ °
áĢĸáĢ¼ áĢĦáĢ·áĢº
àµģà´ķ àµ¾
Ġâ Ķ
Ġâ ĸ
Ġìŀ Īëĭ¤
Ġà¦Ĩ à¦¬
à Ń
Ġà¤īà¤¨ à¥įà¤¹
ãģĻ ãĤĭ
ĠÑģ Ð°Ð±
ÏģÎ¯ Î¶
ĠáĥĶ áĥĻ
à±Ĥà° ª
Ġàª¸ à«įàªµ
Ð Ĵ
ĠÐ» Ð¸
Ġà¦° à¦¾à¦ľ
ĠÂ µ
Ïģ ÏİÎ½
Ġáĥ¬ áĥĺáĥľ
Ġæ· ±
m sc
Ġå¾· å·ŀæīĳåħĭ
Ġà¸ª à¸²à¸
ä¸ĵ ä¸ļ
n s
à¸£à¸§à¸ ¡à¸
çº ³
æµ ª
Ġçİ¯äºļ å¨±ä¹Ĳ
éģ ĩ
à¤¾à¤¤ à¥įà¤°
à±ĩà° ª
à® ¨
ÚĨ Ú¾
ĠÑĤ Ð°ÒĽ
ĠÑĢÐ°Ð± Ð¾ÑĤ
Ġà¦¦ à§ģ
Ġà°ħ à°Ń
à¸µà¸¢à¸ §à¸
Ġ ä¸İ
h h
Ġé Ĺ
¨ à¸²à¸
åħ¶ ä»ĸ
ä»ĸ ä»¬
åĽ½éĻħ åİħ
Ġ X
² à¤¾
àªĽ à«Ģ
Îķ ÎĿ
Î¾ Î¹
ĠP ost
áĢĻ áģ»
ĠáĢĲ áĢĦáĢ¹áĢ
áĢ¬áĢ¹áĢ ľáĢĬáĢ¹áĢ¸
áĤ Ĵ
áĢĻáĢ¾ áĢĶáĢº
ÐºÑĥ Ñİ
ĠáĥĲáĥł áĥĲ
à¯įà®ª à¯įà®ª
ÛĮ Ø²
áĥ®áĥĿáĥķ áĥł
à°¾à°² à°¨à±ģ
ëĲ ĺ
ÑģÑĤ Ð°Ð½
ĠÑħ Ð°Ð»ÒĽ
à§ĩà¦Ľ à¦¿à¦²
Ð°Ð» Ð¸Ðº
ĠÐ¾ Ð»Ð¸ÑĪ
ĠÐº Ð°Ñģ
éĢī æĭ©
´ à¸Ļ
ªà¸´ à¹Īà¸ĩà¸
Ġà¹Ĥà¸ Ķà¸¢à¸
Ġè ·
Ġà¨ ¬
Ġé ©
Ġ7 7
åĨ Ļ
Ġæīĳåħĭ ä¹ĭæĺŁ
i z
Ġà¤ĩ à¤¤
ĠÑİ ÑĢ
ĠÑĤ Ð°Ñģ
áĥĲáĥłáĥĹ áĥļ
à¯įà®ļ à®¿
àª¿àª¯ àª¾
ĠÏĢÏģÎ¿ ÏĤ
ĠÐ² ÑĢÐµÐ¼
ĠáĢŀ áĢĬáĢ¹
áĢ¼ áĢ¸
áĢķáĢ« áĢ¡
ĠÐ¼ ÐµÑģ
áĥĲáĥļáĥĺ áĥĲáĥľ
áĢ®áĢ¸áĢ Ĳ
Ðµ Ò³
ĳáĢ² áĢĻáĢ½áĢ¬
áĢ¬áĢ¸áĢĻáĢº áĢ¬áĢ¸
áĢģáĢ²áĢ· áĢĽ
ĠáĥĽ áĥĲáĥľ
×ķ× ¦
ĠÎ ĸ
Ġà°ļ à°¾à°²
Ġàªµ à«įàª¯
à¯ģà® ´
ou r
à¤¾à¤° à¤¾
ĠØ¨ ÙĪØ¯
ĠáĢķ áĢº
áĢ¬ áĢĦáĢ·áĢ¹
áĢĶáĢ¹áĢ ħ
áĢĲ áĢļáĢ¹áĢľáĢŃáĢ¯áĤĶ
áĢĻ áĢ²áĢ·
ÎĳÎ ļ
ĠÎķ ÏĢÎ¹
ķáĢ« áĢĺáĢ°áĢ¸
áĢ± áģĢ
ĠáĢĨ áĢĢáĢº
ĠÐ± ÑĥÐ½
ÙĬ Ùģ
Ð» Ð°Ð¼
Ð»Ð°ÑĢ Ð´Ð°Ð½
Ð°Ð´ Ð°Ð½
Îµ ÏĦÎµ
Ġ3 9
à¥įà¤¯à¤¾à¤ µà¤°
ĠÐ½ Ð¾Ð¼
Ġàªµ àª¾àª¤
áĢ° áĢĬáĢ®
ĠØª Ø±
¹ à¹Ī
ä¼ļ è®®
Ġä½Ĩ æĺ¯
Ġ ~
éģĹ æ¼ı
Ġà¸ Ĭà¸
Ġag å®ĺæĸ¹
æ¥ Ń
åĲ ¦
a a
± à¹Īà¸ĩà¸
ä½ Ļ
à¹Ģà¸ §à¸
à¥ĩà¤ ®
ĠÐ³ Ð¾ÑĢ
àªŁ àª²
à´° à´£
ĠáĥĲáĥłáĥ ¡
ĠáĢ±áĢĶ áĢĽáĢ¬
ĠáĢķ áĢ¶áĢ¯
ĠáĢĻ áĢŀáĢŃ
áĢ¡ áĢĳ
ĠìĨ Į
à¯įà® ¸
ĠÐ± Ð¾Ð»
ĠáĢľáĢ° áĢŀ
àµĢ à´¸àµį
çĶµ èĦĳ
è¯ ī
à¤¾à¤¨ à¤¾
áĢļ áĢ±áĢ¬áĢĢáĢº
Ġàªµàª°à«įàª ·
ĠÑĳ ÐºÐ¸
ĠÐĲ Ð±
Ð°ÑĢ Ð´Ð¸
Î´ ÏĮ
Ġáģ¿áĢĻ áĢŃáĢ³áĤķ
áĢĨ áĢĽáĢ¬
áĢĢáĢ¹ áĤıáĢ½áĢ¬
ĠMy anmar
áĢĶ áĢ²
Ġà´ª àµģà´±
ĠáĢķ áĢ¯áĢ¶
Ġa s
áĥĲáĥļ áĥ£áĥł
Ø§ Ùĭ
Ġà°¸ à±įà°µ
Ïģ ÎµÎ¹
Ġ×ķ ×Ķ
Ò Ĳ
ĠÐ³ÑĢÐ°Ð¼ Ð°Ð´
ë Ħ
ĠÑį ÑģÐ°
Ð°ÑĨ Ð¸Ñı
ĠÑį ÑĢ
ĠÐ¼Ðµ ÑĪÐ°Ð²
Ð°Ð¶ Ñĭ
Ð½Ð¾ ÑĹ
Ġà´¨ à´¿
Ġàªª à«Ĥ
3 1
Ġé ¢
ĠagçľŁäºº æ¸¸æĪı
èĥ ľ
Ġçī ¹
æĢ» ä»£
à¹īà¸ ĩ
à© į
à¹īà¸ ¡à¸
Ġçİ¯äºļ AG
åĪĽ æĸ°
Ġà¨ ĩ
ķà¸´à¸ Ķà¸
åľ° åĮº
å¤ «
Ġ à¹
à¤¿à¤µ à¤¸
Ġáĥ¨áĥĶáĥ¡ áĥĲáĥ®áĥĶáĥĳ
áĢĳáĢ¬áĢ¸áĢ ĲáĢ²áĢ·
ĠÎĶ ÎµÎ½
Ñģ ÑĨÑĸ
ŀ áĢĻ
ĠØ³ Ø§ØªÚ¾
áĢĻ áĢĽ
Ġà¨ ²
æłĩ åĩĨ
æĺ¯ ä¸Ģ
à¤® à¤§à¥įà¤¯à¥ĩ
à°¾à°² à°¨à°¿
à®¾à®³ à¯į
ÏĨ ÎŃ
áĢĽáĢ½ áĢĦáĢ¹áĢ¸
áĢĨ áĢĦáĢº
ĠáĥĽáĥĹ áĥĲáĥķ
ãģ ©
Ġìľ ł
ÑĨ Ð¸Ð¸
à¦¿à¦ ·
ĠàªŃ àª¾àª°
Ïį ÏĢ
ĠáĢĲ áĢŃáĢ¯áĤĶ
áĢŀáĢ° áĢ±áĢĲáĢ¼
áĢĦáĢºáĢ¸áĢ ħ
à¯Īà®¯ à¯Ī
Ġà¤¬ à¤¾à¤°
à°Ĥà°¡ à°¿
áĥĵ áĥĺ
Ġà´® à´²
Ð°ÑĨÑĭ Ð¹
Ġàª¨ à«ĩ
Ð¾ ÑĹ
à´¯ àµĨ
Ïĥ Îº
ÒĽ Ð¸
ÑĢ Ð¾Ð´
áĢĲáĢ½ áĢĦáĢºáĢ¸
ĠáĥĵáĥĲáĥ Ļ
ĠÐº Ð¾ÑĤ
ĠÐ°Ñģ Ð¾ÑģÐ¸
Ġà§ «
ĠÐ¿ÑĢ Ñį
ķàµįà´ ·
à¯Īà®ķ à®³
ĠÙĦÛĮ ÛĴ
×ķ× Ĵ
à°¾à°² à±ĭ
Ġàª²à«ĭàªķ à«ĭ
ou t
ĠÐ¹Ñŀ Ð»
ÑĥÐ¼ Ð°Ð½
à§ĩà¦² à¦¾
Ñı ÑĤÐ¸
Ðµ Ð¿
Î´ Ïħ
à´ķ à´¾à´°
à§įà¦¯ à¦¾à¦²
Ġà¤°à¤¹ à¥ĩ
æĺ¯ ä»Ģä¹Ī
è¡ ¥
çļ ®
à©° à¨
à¤¿à¤ £
áĥĺáĥ ®
ĠÒĽ Ð°ÑĤ
ĠáĢ±áĢĲáĢ¬ áĢ¹áĢ
ĺ áĢ²
Ġáģ¿áĢķ áĢ®áĢ¸áĢ
ģáĢ¶ áĢĽ
ĠáĢĻáĢ¼áĢĶáĢº áĢĻ
áĢĽáĢŃ áĢ½
áĢĶ áĢĢáĢº
ĠÏĮ Î»
Ð· Ð½
Î® Î¼Îµ
áĥĿáĥļ áĥĿáĥĵ
àµĬà´° àµģ
ĠÚ©Ûģ Ø§
à±ģà°¤ à±įà°µ
Ñĥ Òĵ
ìĥ Ŀ
ĠÎł Î¿Î»
Ð» Ð°Ñŀ
Ò ļ
ĠÑĥ Ð¹
ĠÑħÐ¸Ð· Ð¼Ð°ÑĤ
ãģ Ī
Ð°Ð²Ð°Ð½ Ð½Ñı
Ġà°° à±ĭà°ľ
Ġà¦¬à¦¿à¦¶ à§įà¦¬
à«ĩàª² à«Ģ
Ġà´ĩ à´Ł
Ð¸Ð½Ð³ Ð°Ð½
ĠÑŀ Ð¹
Ñĥ Ð´Ð¸
áĢ½ áĢĻáĢº
å®īåįĵ çīĪ
Ħ à¸Ńà¸
éķ ĩ
æ¯ į
s un
éĶ Ļ
Ġag æ³¨åĨĮ
Ġè Ĥ
Ġ à¹Ģà¸£à¸²à¸
èĥ½ åĬĽ
åŃ¦ éĻ¢
æĹ¶ ä»£
åĨ ·
Ķ à¹īà¸²à¸Ļà¸
Ġå½©ç¥ŀ 8
ä¿Ŀ æĬ¤
à¥įà¤¯à¤¾à¤¨ à¥ĩ
Ġï¿½ï¿½ ï¿½
Î»Î· ÏĤ
Û °
Ø§Ø± Ùĩ
Ġáĥĺáĥľ áĥ¤
à®¿à®¯ à®¾à®ķ
à¥Ĥà¤ ª
ÏĢ ÎŃ
ĠØ± ÙĪ
à´¸ àµįà´¤
ÐºÑĢ Ð°ÑĹ
Ð¾Ð¼ Ñĥ
Ð¸ Ð´Ð°Ð½
à±Ĥà° ²
Ñĥ Ð´Ð°
ê° ķ
ĠáĥĽ áĥĲáĥĺ
Ð°Ñ ļ
ì Ļ
ĠÐ² ÑıÐ»Ñĸ
Î¹ Ïİ
×Ļ× ĺ
áĥĿáĥĳ áĥĲáĥ¡
à«įàª §
áĢĲáĢ¬ áĢĢ
he r
à¦¤ à§įà¦¤
ĠØª Ú©
áģ¾áĢĢ áĢķáĢ«áĢĲáĢļáĢ¹
ĠáĢ±áĢ ĺ
áĢŃáĢ¯ áĢ¯
áĢ±áĢ¬áĢĦáĢº áĢĽáĢ½áĢĢáĢº
áĢĤ áĢº
ĠÏĩ ÏģÎ·
ĠÐ½Ðµ Ðº
áĢĬáĢº áĢ¸áĢ
à¯Īà® ¨à¯įà®¤
íĨ ¡
ìĦ ł
æľ Ŀ
¶à¸ ģà¸©
æĶ¿ çŃĸ
å¼Ģ å±ķ
in d
Ġè¯ ¥
å¢ŀ éķ¿
Ġåį ļ
3 D
ĠæīĢ ä»¥
åħ³ æ³¨
Ġå½©ç¥ŀäºīéľ¸ 8
Ġà¤¸ à¤¾à¤Ĥà¤Ĺ
Ġà°ī à°Ĥà°¦à°¿
Ġáĥ« áĥĲáĥļáĥĺáĥĲáĥľ
l ar
ĠÐµ ÑĤ
Ð´ Ð¸Ð½
ĠÒ³Ð°Ð¼ Ð´Ð°
Ð¼ Ð°Ð¹Ð´Ð¸
Ð¾ÑĢ Ð°ÑĤ
ÑĢ ÐµÐ´
Ġáĥ¡ áĥĲáĥĵ
à¹Ħà¸Ķà¹ī à¸£à¸±à¸ļà¸
Ġé ĥ½
Ġ áĪ
ĠĈ ć
æĿ¥ çļĦ
ä» ª
Ġ5 9
â ²
ĠçĽ ®
åįķ èģĮä¸ļ
æľº æŀĦ
èī ¯
Ġà¤µà¤°à¥įà¤ ·
àµĭ à´§
áĢĦ áĢ½
ìĭ ¤
Ð³ ÑĥÐ½
ÎŃ Ïĩ
àªµ à«ĩ
áĢķ áĢ±áĢĻ
Ð¾ÑģÑĤ Ð°Ð²
à¶ ±
Ġà¤¥ à¥Ģ
Ġà¦ķ à¦¥
áĢ¡ áĢķáĢº
ĠÐ¼Ð¾Ð¶ Ð½Ð°
à°Ł à±įà°²à±ģ
ìĿ´ ëĭ¤
à´ķàµįà´ °
ĠÐº ÐµÑĢ
ĠÐ· Ð°ÑĢ
ĠÙħ Ø´
Ġáĥ¨ áĥĶáĥĵ
à«Ģ àªĤ
ĠæĪ ĸ
ķà¸ ¥
Ġå¼ ł
åĬ¡ åĳĺ
ªà¸ ¡
Ġà¨¦ à©ĩ
çŁ¥ éģĵ
ä»£ è¡¨
Ĥ à¸²
å° Ħ
ï¼ ¿
æĭ ħ
Ġè ¥¿
Ġ5 åĪĨå½©
à¤¾à¤·à¥įà¤Ł à¥įà¤°
ĠÎ¾ Îµ
Ġà§ ¦
Ġà®ī à®Ł
Ġà§ ª
Ġag88 çİ¯äºļ
è´ ¦
åħ ¸
Ġà¸Ĺà¸ ³
à¹Ī à¸Ļà¹Ģà¸
à¥įà¤¯à¤¾à¤ļ à¤¾
Ġà¦ı à¦®
Ġà°ħ à°²
ĠÑģ Ð°Ð²
àµĭ à´²
ĠÐ¼Ð¾Ð¶ ÐµÑĤ
ãģĭ ãĤī
àªĤàª ¡
Î³ Ïĩ
ĠÙĦ Ø§
ĠÑį ÐºÐ°Ð½
ĠÒĽ ÑĥÑĢ
×© ×¨
ĠÑĤÐ¾ Ð¿
Ð³ Ð¸ÑĢ
áĢĶ áĢħáĢº
Ġë ¹Ħ
ĠáĥĴ áĥĲáĥł
Î¹ÎºÏĮ ÏĤ
Ġà´¶ àµįà´°
Ġà¤ Ĳ
Ġà®µ à®¿à®Ł
à«įàª ļ
à°¾à°Ĥà° Ł
ĠØ§ Ùģ
ĠÐł Ð°Ñģ
Ġà¦ķ à¦¾à¦ľ
Î² Î¿Î»
Ñ ķ
ÐºÑĸ Ð²
Ðº Ð°Ð³Ð°
ĠÐ¼Ð¾Ð¶ Ð½Ð¾
ĠÑģ ÑĬ
áĥĲáĥĵáĥĴ áĥĶáĥľ
Ŀ áĢ«
ĠáĢħ áĢ®
ÑģÐºÑĸ Ñħ
à´¿à´ļàµįà´ļ à´¤àµį
ĠÎ£ ÏħÎ½
è¿ĳ å¹³
Ġå» º
å² Ľ
· à¸Ńà¸ĩ
11 éĢī
ç» į
Ġæ³ ķ
ä¸ª äºº
Ġçİ¯äºļ å®ĺç½ĳ
ĠâĢĶ âĢĶ
µà¹Īà¸ ¢à¸§à¸
Ġ5 3
p j
åĪĨ å¿«ä¸ī
Ġ5 2
åĪ »
Ġ Ćć
Ġç§Ĵ éĢŁ
à¥ĭà¤ ¬
Ùĥ ÙĨ
ĠÎ¬ Î½
áĢĶáĢ¹áĢ¸ áĢĢ
áĢģáĢ²áĢ· áĢŀáĢĬáĢº
Ġyou r
Ġà°ļà±ĩà° ¶
Ġà´ĩ à´µ
Ġà® ĵ
ĠÐ· Ð°Ð¼
à¦¾à¦ £
ÑģÐº Ð¾Ð³Ð¾
ĠØ¨ Ø§Ø´
àµĩà´° à´³
àµĨà´Ļàµįà´ķ à´¿à´²àµģà´Ĥ
ĠÎ´Ïį Î¿
à¤¸ à¥Ģ
Ġà« ¨
àª¾àªµ à«Ģ
à±įâĢĮ à°²à±ĭ
ë© °
ĠØ§ ÛĮ
ĠÐ±Ñŀ Ð»Ð¸ÑĪ
ĠÐºÐµÑĢ Ð°Ðº
Ð¸Ð» Ð¸ÑĪÐ¸
Ð»Ð°ÑĢÐ¸ Ð´Ð°
ĠÑĳ ÑĪ
Ð· Ð¸
Ð³ Ðĥ
ĠÐ½ Ð°Ð´
a st
Ġ5 7
à¸Ļ à¹Īà¸²à¸
åį ĸ
çŃ ¾
ľà¸ ¡à¸
ãĢ Į
åĿ Ĺ
4 7
åĢ ĳ
è¡ £
à¹Ģà¸Ĥ à¸²
y c
I N
áĥĿáĥľ áĥĺ
12 3
å¾® ä¿¡
à¹ĥà¸«à¸į à¹Ī
ĠS t
Ġç Ĥ
é¡ »
æŀ ¶
d d
Ġagäºļæ´²åĽ½éĻħ æ¸¸æĪı
à¸µà¸¢à¸ §
åį ´
Ħà¸§à¸²à¸ ¡à¹Ģà¸
è¿ Ŀ
Ġé ¡
Ġ ā
ä¹ł è¿ĳå¹³
«à¸¥à¸²à¸ ¢à¸
Ľà¸±à¸ įà¸
ä¸ ½
201 8
Ġåĩ¤åĩ° å¤§
æĭĽ èģĺ
Ġåĩ¤åĩ°å¤§ åıĤèĢĥ
ä¼ ¤
ä»¥ åıĬ
ļ à¹īà¸²à¸Ļ
ģà¹Ī à¸Ńà¸Ļ
ï¼ ļ
Ľà¸¥ à¸µà¹Īà¸
ä¸į èĥ½
en g
æ© Ł
æĻº èĥ½
ļ à¤¾
àªķ à«ĭ
à¯ĭ à®¤à¯ģ
ÏĥÎ¹ Î¼Î¿
à¥ĩà¤ Ĺ
Ð²Ñĸ Ñĩ
à¦¿à¦ ļ
ĠÑį Ðº
àµįà´ ¨
Ġáĥ¡áĥĲáĥ £áĥ
à°Ĥà° ¬
ĠÐĵ ÑįÑĤÐ°
ÑĩÐ¸Ð» Ð¸Ðº
Ð°Ð¼ Ð»
×Ļ× ŀ
Ġàª¥ àªĪ
ĠÏĢ ÏģÎ±Î³
Ð¸Ð½ ÑĩÐ¸
ĠÑģ Ð¾Ð½
ĠÐ½ Ð°ÑĢ
àµ¼ à´¤àµįà´¤
Ġà¦¨ à¦¾à¦®
Ġà®İ à®´
Ġà¤µ à¤¹
à°Ĥà°¦ à±ģà°ķà±ģ
ĠØ§ ÛĮØ³
Ð»Ð¸Ð³ Ð¸Ð½Ð¸
ĠÒĽÑŀ Ð»
ĠÐ±Ð¾ÑĪÒĽ Ð°
ÑĢÐµ Ð·
Ġáĥ§áĥķáĥĶáĥļ áĥĲ
áĢŁáĢ¯ áĢĲáĢ¹
áĢĢ áĢ±áĢ¬áĢĦáĢºáĢ¸áĢ
Ġà°µ à°°
Ñħ ÑĤ
ĠÎ±Ïħ ÏĦÎ¿
à®¸ à¯į
ĠÑĨ ÐµÐ½
Ñı Ð·
ĠÎļ Î±Î¹
à¦¾à¦° à¦¾
ĠáĥĲáĥ ļ
Ġï¿½ï¿½ï¿½ï¿½ ï¿½
ĠÎ¼ÎŃ ÏĥÎ±
ãĤ ģ
ĠØ§ÙĦ ÙĪ
áĢħ áĢŃáĢĲáĢ¹áĢ
áĢ±áĢĲáĢ¼ áĤķ
ĠáĢŀáĢŃáĢĽ áĢŀáĢĬáĢ¹
±áĢľ áĢ¬áĢĢáĢ¹áĢ
ĠáĢķ áĢ²
àª° àª¾àª¤
Ġáģģáģ ħ
Ġàª¨ àª¾
íķ ©
ä¸ °
åī §
Ġà¹Ģà¸ŀà¸£à¸²à¸ °à¸
æĿ İ
0 7
Ġà¤Ĩ à¤ľ
Ð¾ Ñİ
Î´ Î±ÏĤ
áĢ±áĢ¸áĢ ľ
Ð¼ Ñĭ
ĠÑįÑĤ Ð¸ÑĪ
ĠÑĤ Ð°Ð»Ð°Ð±
à°¡ à°¾à°¨à°¿à°ķà°¿
Î» Ïİ
à¯Ģ à®°
ĠÙĦ Ø¦ÛĴ
Ġáĥ¡áĥĲáĥ¥ áĥĽ
Ð´ Ð·Ñı
Ġà¤ķ à¥ģà¤
áĥļ áĥĶáĥĳáĥĺáĥ¡
Ð ĳ
áĢ¸áĢ ĩ
áĢĢáĢ¼ áĢĬáĢº
Ġà´¸ à´¹
ĠÑĤ Ð°Ð²
ĠÙħ Ø±
Ħà¸ ´à¸
Ġà¤¤ à¥ģà¤®
Ġà®¨ à®¿à®±
×ł ×ķ
Ġáĥ¡áĥ®áĥķ áĥĲ
Ġàª¦ àª¿àªµ
±áĢĳáĢ¬áĢĦáĢ¹áĢ ħáĢ¯
ĠáĢģáĢ¯ áĢĶáĢ¾áĢħáĢº
ĠÏħ ÏĢÏĮ
ĠÐ½ Ñĸ
à§ģà¦° à§ģ
à´ķàµįà´ķ à´¾à´°
Ð°Ð½ Ð¸Ñı
Ġì ¢
Ð²Ð°Ðµ ÑĨÑĨÐ°
ÏģÎ¯ ÏĤ
v er
Ġ$ (
àª¤ àª¿
à´¯ à´¿àµ½
Ġà®ķ à®¾à®²
Î¯ ÏīÎ½
Ð¾Ñģ ÑģÐ¸
Ġáĥĵ áĥĲáĥľ
ĠÐ°ÑĢ Ð³Ð°Ð½ÑĸÐ·
áĢ¸áĢ±áĢ ķ
áĢ¶áĢ¯ áĢ¸áĢŀ
ĠáĢ¡ áĢĲáĢ¼áĢĢáĢ¹
ľ áĢŃáĢ¯áĢĢáĢ¹áĢ
ĠáĢļ áĢ¬
Ðµ Ð»Ð¸
ĠÙĨ Ùħ
ÏĦÎ¿Ïħ ÏģÎ³
×Ļ× ¤
à¦¾à¦² à§ĩ
Ġà¤¬ à¤¹
áĢģáĢ¼ áĢĦáĢºáĢ¸áĢ
áĥĶáĥ¡ áĥ¢
Îķ ÎĻ
ĠÏĩ Ïİ
ĠÐ¼Ð¾Ð¶ Ð°
ĠÒĽ Ð¾Ð½ÑĥÐ½
ĠÙĪ Øª
ÐµÐ½Ð¸ Ð¹
à«Ģ àª°
ÙĦ ÙĪØ¯
ê± °
Ġàªµàª¿àª ¶
ĠÎµÎ¯ ÏĩÎµ
ĠØª Ø§
ĠÐ¾Ð´ Ð°Ð¼
áĥĺáĥª áĥĺ
Ġà°ª à±Ĭ
ĠÐ¿ÑĢ Ð°Ð³
ãĤ Ħ
à¦Ļà§įà¦Ĺ à§ĩ
áĢĻáĢ¹áĢ ĺ
Ġà®ļ à®®
ĠÐ´ Ð¾Ð»
Ġà¤¸ à¤¬
ĠÎ¼ÎµÎ³ Î¬
áĥĶáĥķ áĥĶ
à¦§ à¦¾à¦¨
ĠÐ½ Ð°Ð¼Ñĥ
Ġà´µ à´¿
Ú¯ ÛĮ
Ð°Ñħ Ð¾Ð´
Ø§Ø ·
Ġf r
Ġà´ķ à´°
3 2
é ¼
æİ ¢
Ġåį İ
Ġè ī
çĻ ¼
åĩº çİ°
¢à¸ §
à¤²à¥ĩà¤² à¥įà¤¯à¤¾
Ġà¦¤ à¦¾à¦¦à§ĩà¦°
Î¿Ïħ ÏģÎ³
à±ģà°¨ à±ģ
à®¤ à®¿
ĠàªŃàª¾àª° àª¤
´ë Ŀ¼
Ġ×Ķ× ¢
à«ĩàª ĸ
Ġà´ķ àµĩà´°à´³
ì¶ľìŀ¥ ë§ĪìĤ¬ì§Ģ
¯ ¼
Ġà´¨à´¿à´° àµįâĢį
àµģà´¤ à´¿à´¯
ĠÎ» ÏĮÎ³
ĠÑĦÐ°Ð¾ Ð»Ð¸
Ð°Ñĩ Ð°
ĠÑ Ķ
ĠÑĥ Ð½Ð¸Ð½Ð³
Ð¼ Ð°ÑĤÐ¸
áĥĺáĥĻ áĥ£áĥłáĥĺ
áĢ½áĢ± áĢĢáĢŃáĢ¯
ĠáĢľáĢ¯áĢķáĢ¹áĢ ĦáĢĶáĢ¹áĢ¸
áĢķ áĢ¯
áĢ¡ áĢģáĢºáĢŃ
áĢĻáĢ¹áĢ¸ áĢĨ
ĠáĢĺ áĢļáĢº
Ð°ÑģÐ¸ Ð³Ð°
Ð´ ÐµÐº
ĠÐ¼ Ð°Ðº
Ġà®µà¯ĩà®£à¯įà®Ł à¯ģà®®à¯į
àµģà´ķ àµĬ
à¤Ĥà¤ ķ
Ġàª° à«Ģàª¤
áĢ´ áĢ¸
áĢķáĢ¹áĢ Ĳ
ĠáĢĻ áĢ®áĢ¸áĢ
à°° à°£
Ð¾Ð²Ð°Ð½ Ð¸Ñı
ĠáĥĹáĥĳ áĥĺáĥļáĥĺáĥ¡
ĠáĥĲáĥĵ áĥĴ
ĠÎ³ Îµ
Ġëı Ļ
ĠÐ² ÐµÐ»ÑĮÐ¼Ñĸ
ĠáĢķ áĢĲáĢ¹áĢŀ
áĢģ áĢĦáĢ¹áĢ¸
ĲáĢ¼ áĢĦáĢ¹áĢ¸
±áĢľ áĢ¸
ĠáĢ±áĢĽ áĢ¼áĢ¸áĢ
áĢ¸áĢ ģáĢº
ĠáĢĢáģ½ áĢ¼
áĢĩ áĢ¬
ĠÑĤÐ°ÑĬ Ð¼Ð¸Ð½
à´¿à´ķàµįà´ķàµģà´¨àµįà´¨ à´¤
áĢ® áĢĴáĢ®
ĠÐ± Ð°Ð»
Ø¹ ÙĦ
Ġà¦ķ à¦¾à¦
Î ¦
Ġá¼ Ģ
ÏĥÏĦÎ± ÏĥÎ·
áĢ±áĢ »áĢķ
áĢķ áĢ°
ĠÐ´Ð°Ð¿ Ð°Ð¼
Ġà¤¦ à¤¿à¤¯à¤¾
èĪ ¬
æ¶ ¨
Ġè ¢
à¤¾à¤Ĥà¤ļ à¤¾
à®ķà¯įà®ķ à¯ģ
Ķ áĢŃáĢ¯áĢĦáĢº
Ð½ÑĭÐ¼ Ð¸
Ð± ÑĢ
à±ģà°Ĥà° ¡à°¾
Ġà¦¬à¦¿à¦ Ń
Ùħ Ø¯
ĠÐ¹Ñŀ ÒĽ
Ð ¨
Ð¸Ð¼ Ð¸
ĠÏĢ Î¬
ĠØ§ÙĦ ÙĦÛģ
ĠÙĦ ÙĪ
ģáĢ¼ áĢĦáĢºáĢ¸
Ġà®ª à®°
Ġe x
ĠáĥĻ áĥķ
ĠÑĤÐ°Ð´ Ð±Ð¸ÑĢ
Ð°Ð± Ð¸
×Ļ× ¡
ĠÏĮ Î¼ÏīÏĤ
ÑĬ Ð»
Ġæ ´
è¿ ½
çĸ Ĺ
à¹Ģà¸Ĥ à¸²à¸
çŁ Ń
0 9
Ġ à¸Ļà¸²à¸
Ġà¤° à¤¾à¤¹
à°¾à°² à±įà°²à±ĭ
ĠÐº ÑĥÐ»ÑĮ
à¤ ¢
ìĭ Ŀ
Ġà´ħ à´Ń
Ġàª¤àª® à«ĩ
áĥ§ áĥĿáĥ¤
ĠáĢĳ áĢ¯áĢĲáĢº
à¦¸ à¦²
ĠÐ¡ ÑĤ
à¦° à§ĩà¦°
Ġà´¸ à´¿
à¯ģà® ªà¯į
à´° àµĨ
áĥĴ áĥĲáĥľ
ĠÑŀ ÑģÑĳ
Ġà°® à°¾à°Ł
ÏģÎ¿ ÏįÎ½
Ð¾ÑĢ Ð¾
áĢ¹áĢ Ļ
áĢĻáĢ» áĢ¾
åľ¨çº¿ è§Ĥçľĭ
Ġà¤ľ à¤¿à¤¸
ãģĵ ãģ¨
ĠØ§ÙĦØª ÙĬ
ĠØ³ Ø§ÙĦ
áĢĦáĢŃáĢĻáĢ¹áĢ¸ áĢģáĢºáĢĻáĢ¹áĢ¸
áĢ½ áĢ¬áĢ¸áĢĽ
à°® à±ģ
Ð·ÐµÐ½ ÑĮ
à±Ĩ à°¨
è´ ¸
à¹īà¸Ńà¸ ¢à¸
à¸µà¸¢à¸ ĩà¸
ª à¸µà¸
Īà¸ ³à¸
Ġç¾İ åĽ½
ľà¸ ¥à¸´à¸
æľ Ĺ
Ġà¤ħà¤¸ à¤²
à®° à¯ģà®®à¯į
Î¯Î½ Î·
àµĭà´Ł àµĨ
ĠÐ¢ Ð°Ðº
Ġìĭ ł
à¦¤ à§įà¦¯
àªĤàª ļ
Ġáĥ¡ áĥŀ
Ð°Ñ ĺ
av e
Ñı ÑģÐ¿
Ġà´ªà´±à´ŀàµįà´ŀ àµģ
ĠáĢĲáĢĽ áĢ¬áĢ¸áĢ
Ġà¦¸ à¦¹
áĥĺáĥľ áĥĺ
à®¿à®ķ à¯į
à«ĩàª ľ
ĠáĢ¡ áĢĽáĢ¬
ĠÎ¼ Î¹Îº
ĠÑĢ Ð¸Ð²
ĠÑĥ ÑģÑĤ
ÙĤ Øª
Ð»Ð¸ ÒĽ
Ð»Ð°ÑĢ Ð¸Ð½Ð¸Ð½Ð³
ĠÐ¼Ðµ Ò³
à±ĭ à°Ĥà°¦à°¿
è¯ķ çİ©
åŃ¦ çĶŁ
ä¸Ģ æŃ¥
o b
æľ ¨
-- --
ľà¹Īà¸² à¸Ļà¸
Ġé ĥ
6 9
æ ¤
Ġà¤® à¤¾à¤
ĠÐ¿ Ð°Ñŀ
ĠÑģ Ð¸
ê° ľ
àµĭà´Ł àµį
áĢľ áĢ¬áĢ¸áĢ
ĠáĢ¥áĢķ áĢ±áĢĴ
Ĺ áĢº
áģ¾áĢĢ áĢĻáĢ¹áĢ¸
áĢŃáĢ¯áĢ¸áĢ ŀ
Ġà°ħ à°¦
åĲ ¯
à¹Ģà¸ ¢
Ġ2019 å¹´
à¥ĭà¤ §
áĢĢáĢŃáĢ¯ áĢļáĢº
à«ģàª ¦
ĠÐ² Ð¸Ð´
Ġà´İ à´Ĥ
Ġà´ª àµĨ
Ð°Ð¼Ð» Ð°ÐºÐ°ÑĤ
ÑĢÐµÐ· Ð¸Ð´
ÏĦÎ¿ Î¹
ĠÐŁ ÑĢÐµÐ·Ð¸Ð´
à¦¾à¦° à§ĩà¦°
ĠÒ³Ð°ÒĽ Ð¸Ð´Ð°
ĠÒĽ Ð¸Ñģ
áĥĶáĥĳ áĥĶáĥļ
áĤĪ áĢķáĢ¹áĢ
áĢĺ áĢ±áĢ¬
Ġà°ªà±įà°°à°Ń à±ģà°¤à±įà°µ
×Ļ× Ľ
ĠÐ±Ñĭ Ð»Ñĸ
Ġà´µ àµĪ
ëį °
Î¸ Ïħ
à¤¾à¤ ĵà¤Ĥ
Ġå® ĥ
åĲ «
áŀ Ķ
Ġagçİ¯äºļ å®ĺç½ĳ
ç»ı å½©ç¥¨
i os
ľ à¸´à¸
Ġ ä¸»
ä¿ ĥ
Ĺà¸ ĩà¸
ģà¹Ī à¸Ńà¸Ļà¸
u d
«à¸¡à¸ ·à¸Ńà¸Ļà¸
Ĭ à¤¨
Ġà®ħà®¤ à®¿à®ķ
à±Ĩ à°ķ
ĠáĢĻ áĢ²
ĠÑģ Ð¾Ð±
ÙĤ ÛĮ
Ġ áĤıáĢ½áĢĦáĢ¹áĢ·
±áĢķ áĢ¸
áĢĲáĢ½ áĢ±áĢĢ
áĢŃáĢ¯áĢ¸áĢ ħ
Ġåı¯ ä»¥
Ġà¤¯ à¥ĩà¤¤
ĠÐ¾ Ð·
Îº ÏģÎ±
ag e
à´· àµįà´Ł
el ugu
Ġà°¨ à±Ģ
à§Ģ à¦¨
à«Ģàª ²
Ġáĥ¡áĥĲáĥ ¨
ĠÑģ Ð°Ð¹
Ġìĺ ģ
ÙĤ ÙĬ
áĢĦáĢ¹áĢ ±áĢĲáĢ¼
ĠáĢ¡áĢľ áĢ¯áĢķáĢº
ĠÎķÎ»Î»Î¬ Î´Î±
ÎĹ ÎĿ
ĠÏĩ ÏģÎ®
ç» §
Ġá ī
æ± ī
à¥ĩà¤ ¦
à°¿à°¨ à±įà°¨
áĢ¯áĢĶáĢ¹áĢ¸ áĢĢ
ac e
áģ¾áĢĢ áĢ¬áĢ¸
áĤ ĳ
áĢ±áĢķ áĢ¸
¥ áĢ®áĢ¸
áĢ°áĢ¸áĢ ħ
Ġà´¨ à´¿à´¯
ĠÐ¿ Ð°Ð·
ĠÎĳ ÏĢÏĮ
11éĢī 5
áł ¦
¥à¸ ±à¸
æī ĺ
Ġå¤§åıĳ å½©ç¥¨
à¥ĥ à¤¤
Ġáĥ£áĥ¤ áĥłáĥĿ
Ïĩ Î·
ĠáĢķ áĢĬ
Ġàªª àªĽà«Ģ
ĠÐ£ ÐºÑĢÐ°ÑĹ
ÐºÐ¸ Ð¹
ĠØ¬ Ø¨
ÑĨ Ð°Ñŀ
áĢĢ áĢ±áĢĽ
áĢ¯áĢŃ áĤķ
ĠáĢķáĢ« áĢĲáĢ®
áĢħ áĢ¬áĢ¸áĢĽ
ĠÐ¿ Ð°Ð¹
à®¤ à¯Ī
à¦°à§įà¦ ¥
ĠÏĥÏħ Î¼Î²
âĢĮ ÙĩØ§ÛĮ
Ġ×© ×Ķ
Ġë§ Į
ģ áĢĶáĢ¹áĢ¸
ŀ áĢĬáĢ¹áĢ
áĢ±áĢ ģáģļ
ĠáĢ¡áĢ² áĢĴáĢ«
áĢ¬áĢ¸áĢĻ áĢ»
à´Ļàµįà´Ļà´³ àµģà´Ĥ
Ñħ Ð¾Ð´Ð¸
Ð² Ð°Ð»
ĠØ§ÙĦØ °
Ġht ml
à¸£à¸µà¸§à¸´à¸ §
Ġag æĹĹèĪ°
ç§Ĵ éĢŁ
22 2
Ġd88 å°Ĭé¾Ļ
i k
Ġäºļæ´² æ¸¸æĪı
Ġäºļæ¸¸ å®ĺæĸ¹
èĥ Į
ç§ Ģ
åĲ ¸
éĢ ı
Ġà¤¹à¥ĭà¤¤ à¥Ģ
à°° à°¿à°ķ
Î¹ Î²
ĠàªĨ àªľ
Ġà®ļà¯Ĭ à®²à¯įà®²
Ð°Ñİ ÑĩÑĭ
Î¸Îµ ÏĥÎ·
Ġà®¤ à®©
ĠáĥłáĥĿáĥĴ áĥĿáĥł
Ïĥ ÏĦÏĮ
Ġà°ªà±Ĩ à°Łà±įà°Ł
Ø§Ø± ÛĴ
ÐµÑĢ Ð¶
àª¾àª¨ à«ĭ
ĠÐ½ Ð¾Ð²
àµĨà´¯ à´¾à´£àµį
Ġè ĥ½
åıĳ çİ°
à¹īà¸ ³à¸
à¸Ļà¹īà¸ ³
æį ķ
± à¹īà¸Ļà¸
Ġåľ °
Ġå Ŀ
à¹īà¸Ńà¸¡à¸ ¹à¸
éĥ½ æĺ¯
ä¹¦ è®°
áŀ Ł
Ġ0 00
à§ģà¦ ĩ
Ġê¹ Ģ
Ġë ħ
à¸£à¸£à¸ ¡
Ġé Ł©
å³ °
j j
Ġ Q
è¿ĩ ç¨ĭ
èį ī
à¹ģà¸ ķà¹Ī
Ġæĺ ¨å¤©
Ĺà¸³ à¹ĥà¸«à¹īà¸
èį Ĳ
ç» Ŀ
é¾Ļ èĻİ
z z
åĪ ¤
Ġà¸ «
à¤¿à¤ Ł
à±ģà°² à°ķà±ģ
ĠÑĩ Ð¾ÑĢ
Ġáĥ¡áĥĲáĥ ĸ
ĠÐ°Ð´ Ð·Ñĸ
àµĩ à´¾
Ġà´µà´¿à´ ¦
áĢ¡ áĢ¬áĢ¸áĢľ
Ġà¦ķ à¦¿à¦Ľ
Î¿Î½ ÏĦÎ±ÏĤ
ĠáĥĽáĥ® áĥĿáĥļáĥĿáĥĵ
ì ħ
ĠÐ´Ð¸ Ð³Ð°ÑĢ
Ú© ÛĮ
à°¾à°Ł à±ģ
±áĢĽ áĢ¬
áĢ¥ áĢķ
Ïĥ Î¯Î±ÏĤ
ĠáĢĲáĢħáĢ¹áĢ ģáĢ¯
ĠáĢ¡áĢħ áĢ®
ĠÑģ Ð¾Ð²
Ø§Ø ¶
Ġà´ļ à´¿à´¤àµįà´°
à®¾à®¤ à¯ģ
ÑĥÑĢ Ñģ
ĠÑĩ Ðµ
Ġà«§ à«
Ġàª¸àª® àª¯
Ðº Ð°Ð¼Ñĸ
or t
o re
Ġæ² ¡
æł· çļĦ
æĭĽ åķĨ
é Ĩ
å¾Ī å¤ļ
à¹īà¸ ĩà¸
Ġà¤ķà¥ĩà¤² à¥ĩ
àµĤ à´°
áģĢ áĢĦáĢ¹
áĢ±áĢĶ áĢĲáĢ²áĢ·
áģ ī
ĠÐľ ÑĸÐ½
Ð² Ð°Ñŀ
Î» ÏĮ
ãĥ Ń
Ġì¹´ íĨ¡
Ġë ¯¸
à°¾à°° à°¾
áĥĶáĥ ŀ
à®¾à®± à¯įà®±
áĢ±áĢ ģáĢº
±áĢ Ĵ
ĠáĢĻáĢ¼áĢĶáĢº áĢĻáĢ¬
ľ áĢ²
ĠÐ² Ð¸
áĥ£áĥ ¥
à´® à´¾à´ķàµįà´ķ
Ð°Ñİ Ñī
Ðº Ð°Ñħ
¡ áĢĲáĢ¼áĢĦáĢ¹áĢ¸
ĠáĢĢ áĢ±áĢľ
Ķ áĢļáĢ¹
om e
ĠáĢ»áĢĸ áĢħáĢ¹
áĢĲáĢħáĢº áĢģáĢ¯
Î¾ Î·ÏĤ
Ġ×ĳ ×¢
áĥĲáĥ «áĥļ
à§įà¦ Ľ
Ġà¤ĩ à¤¨
Ð¼ Ð¸Ð¹
ĠÐ°Ð¼Ð°Ð» Ð³Ð°
ĠÒĽÐ¸Ð» Ð¸Ð½
ÑĥÐ¼Ò³ÑĥÑĢ Ð¸Ð¸
Î®Î¼Îµ ÏģÎ±
ĠÐ¢ Ð¾ÑĪ
ĠÑĩÐ¸ÒĽ Ð°ÑĢ
ĠÒĽÑŀ ÑĪ
ĠÑį Ð¼Ð°Ñģ
Ð± ÐµÐº
ĠÒ³ ÑĥÐ¶
ĠÑħ Ð°Ð±Ð°ÑĢ
ÙĬ Ø§Øª
Ġ( '
Ġàª¦ à«įàªµ
Ġà´¤àµģà´Ł à´Ļàµįà´Ļ
à±Ģ à°¡
Îķ ÎĽ
ÏĩÎµ Î¯Î±
ĠÑĤ Ð°Ð¹
ĠÛģÙĪ Ø¦ÛĴ
Ð´ Ð¶
Ñ ļ
ĠÑĥ Ð·
è ĵ
ä¸Ń æĸĩ
åº Ħ
è¿ ·
Ġà¤¤ à¥įà¤¯à¤¾
ê¹ Į
ĠÎ¹ ÏĥÏĦÎ¿
ĠÑı Ñħ
Ġà® ¸
à±ĭ à°Ł
à¦ª à§ģà¦°
à§ĭ à¦ķ
Ġà´ķ à´Ł
Ġà¤ľ à¥Ģ
Ð Ĺ
ÑĢ Ð¾Ð½
áĤıáģ ²
áĢĺ áĢ°áĢ¸áĢ
áĢŀ áĢ®
Ġáĥ¡áĥĲáĥ Ķ
áĢŀ áĢ¶
ĠØ£ ÙĪ
ĠÎ» Î¯
áĢŃ áĢķ
áĢĶ áĢ±áĢŀ
ĠÑĢ Ð°Ò³
Ġáĥĵáĥĺáĥĵ áĥĺ
Ġà¤°à¤¹ à¤¾
Ñĥ ÐºÑĥ
Ġìļ °
à´¦àµįà´¦ àµĩà´¹
Ø§ÛĮ Ø§
ÑĢ Ð¾Ð²
Ġàª² àª¾àªĹ
ĠÑĦ Ð¾Ð¹
ĠÑĪÐ°Ò³ ÑĢÐ¸
ÏĨ Ïħ
Ġà¦®à¦§à§įà¦¯ à§ĩ
à±ģà°Ĺ à±ģ
f f
è ĸ
å§Ķ åĳĺ
Ġà¤ª à¤¾à¤¹
ÒĽÑĤÐ¸ Ñģ
Î»Î¯ Î¿Ïħ
ĠÐŁ ÑĢÑĭ
àª¿ àª®
à®µ à¯ģ
ãĥ ķ
Ġà¤ķà¥ģà¤ Ľ
áĥĺáĥłáĥ ĵ
ĠÐºÐ¾ÑĤ Ð¾ÑĢ
ĠÐ³ ÑĥÑĦ
ĠÎµ Î³
à°¾à°· à±įà°Łà±įà°°
à°°à±įà° ļ
Î® Î½
ĠÐ¿ Ð°ÑģÑĤ
×ľ ×Ķ
ÙĪØ± ÛĮ
ĠÎ² Î¬
àµĭ à´°àµįâĢį
ÑĢ Ð°ÑĨ
Ġà´Ĩ à´µ
ĠáĥĶ áĥ¥
Ġâ ĩ
ĠìŀĪ ëĬĶ
Ðº ÑĥÑĢ
à¹Īà¸²à¸ §à¸
Ġà¸ «à¸£à¸·à¸Ńà¸
éļ ı
à¹Ģà¸ŀ à¸´
à¤¾à¤£ à¥Ģ
ÏĢ Î¹Ïĥ
ĠÐ´ Ð°Ð´
ĠáĢĲ áĢķáĢ¹áĢĻ
ĠáĢ±áĢĶ áĤĶ
ĠáĢ¡ áĢĻáĢ»áĢŃáĢ¯áĢ¸áĢŀ
à°Ĺ à±įà°Ĺ
ĠáĢĶ áĢ¶
Îº Î¿Ïį
Ð»Ñĸ ÑģÑı
áĥĶáĥĳ áĥĿáĥĵáĥĲ
ĺ à¸µà¸
Ĺà¸µà¹Īà¸ Īà¸°à¸
Ġé £
à¹Ģà¸ģà¸ ´à¸Ķà¸
à¤² à¤Ĥ
Ġà®ī à®£
è½ ®
u e
Ħà¸ ´à¸Ķà¸
Ġçİ¯äºļ æīĭæľº
ä¿¡ èªī
ä¿ Ħ
Ġæ±Ł èĭı
Ġæİ ¨
ªà¸£à¹īà¸²à¸ ĩà¸
Ġå· ¥
è´ «
ĠåĲĮ æĹ¶
éĴ ¢
à¥ģ à¤£
Ġà°ªà°¾à°° à±įà°Ł
à«ĩàªŁ àª²
à§Ģ à¦¬
ĠáĢľ áĢŃáĢ¯áĢĢáĢ¹áĢ
áĢ»áĢķ áĢ®
áĢĢáĢ¹áĢ ĻáĤĪ
áĢĽ áĢķáĢº
Ġà°¸ à±įà°¥
Îµ Î´
Îº Î¿Î»
à´ ĸ
ĠÚ© Ùħ
Ġåĩ º
a h
æ¶Ī è´¹
ãĢ İ
ĵà¸ ĳ
æĺ¾ ç¤º
åħ¬ åĬ¡åĳĺ
į à¸²à¸
«à¸¡à¸ Ķ
Ġè¿ Ľ
åį Ī
áŀ Ľ
ģ à¸£à¸£à¸¡à¸
Ġ1 11
æĹħ æ¸¸
æīĭæľº çĻ»éĻĨ
æ± ĩ
à¸Ļà¸µ à¹Ī
èĹ ı
åĲ ¬
Ħà¸ ·à¸Ńà¸
è§Ħ åĪĻ
à¹Ģ à¸Ńà¸
ç¡ Ģ
à¸µ à¹Ī
¸ à¸Ļ
Ġà¸ŀ à¸£
Ġ6 up
à¥ģ à¤µ
Ð¸Ñģ ÑĮ
Ġáĥ £
ĠÑŀ Ð²
Ð°Ñļ Ðµ
Ġà¦Ĩà¦® à¦¿
ĻáĢº áĢ¬áĢ¸áĢ
áĢĢáĢ¼ áĢ¬
ÑĬ ÑĤ
Ġà¦¬ à¦Ľ
ĠÐ¿ Ð¾Ð²
Ġáĥ Ń
Ð± Ð¸Ð¹
Ñĥ Ð»Ð¸
Ġà´® à´±àµįà´±
ĠÎ£ Î¥
ĠÎĶÎ· Î¼Î¿
ĠÎºÎ± Î½
áĥĲáĥķáĥ¨ áĥĺáĥł
à¥ģ à¤¤
Ðº Ð°Ñı
áĢ±áĢ »áĢķáĢ¬áĢĦáĢ¹áĢ¸
áĢ½áĢº áĢ¬áĢĢáĢ¹áĢ
áĢĢáĢ¼ áĢ±áĢ¬áĢĦáĢº
Ð³ ÑĥÐ·
ãģ ¡
à®¿à®¯ à¯ģà®®à¯į
×Ļ ×ķ
ë¶ Ħ
à«ģ àª¨
ĠÎºÎ±Î¸ ÏİÏĤ
ĠÑıÐº Ð°Ñı
Ø¨ Ø©
áĢŃ áĢ°
áĢ¹áĢ Ģ
Ġà´° à´£àµįà´Ł
áĢ¬áĢ¸áĢŀ áĢ°
Ġà°İ à°¨à±įà°¨
à¦ª à§įà¦°
áĥĶáĥĳ áĥĶáĥľ
ĠÒ¶ ÑĥÐ¼Ò³ÑĥÑĢÐ¸Ð¸
áĢĽ áĢķáĢ«áĢĲáĢļáĢ¹
áĢ±áĢĲáĢ¼ áĢĶáĢ²áĤĶ
ĠáĢķ áĢĬáĢ¬
Ġ áĤıáĢ½
áĢĲ áĢĦáĢ¹
áĢĢáĢ¹áĢ ĢáĢŃáĢ¯
áĢĶáĢ¹áĢ Ĵ
ÑĪ Ð±Ñĥ
ĠÐ± Ð¸Ð·
Ðº Ð¾Ð½
éĽ »
è¿Ľ åħ¥
åĵ ¥
å¼Ģ åıĳ
ļà¸²à¸ Ħà¸²à¸£
à¹Ĥ à¸Ńà¸
à¹Ģà¸£à¸µà¸ ¢à¸Ļ
à¨¿à¨ Ĩ
Ġà¤® à¤¾à¤°
Ġà´Ĩ à´¯
ĠÐ³Ð¾Ð´ Ð·Ðµ
à±ĩ à°²
à®¾à®¯ à¯į
ĻáĢº áĢ¬áĢ¸áĢĢáĢŃáĢ¯
ĠâĢ¦ .
áĢĢáĢ±áĢĽ áĢħáĢ®
ĠáĢģ áĢĽ
ĠÎ¼ Î·Î½
ÐµÑĤ ÑĮ
à® ŀà¯įà®ļ
ĠÚ¯ Ø§
à¦Ĺ à§įà¦°
áĢº áĢ¬áĢĢáĢ¹áĢ
ĠáĢ±áĢ »áĢģ
áĢ±áĢĲáĢ¬ áĤĶ
áĢĿ áĢĦáĢ¹
áĢķ áĢŃáĢ¯áĢĦáĢºáĢ¸áĢ
Ð°Ð¼ Ð¸Ð·
ĠÐ¼ ÑĥÑĢ
áĥł áĥĲ
ĠÑı ÑŀÐ»Ñı
ĠÏĮ ÏĦÎ±Î½
ÙĪØ± Ø¯
Ġàª Ŀ
Ġà¤¸ à¥įà¤¥
íĸ Īëĭ¤
Ġà°¨à±ģà°Ĥà° ¡à°¿
à¦¿à§Ł à¦¾
à´¿à´ķàµįà´ķ à´¾à´¨àµįâĢį
Ġà´ķà´´ à´¿à´ŀàµįà´ŀ
áĥĶáĥ £áĥļ
ĠÙĪ Ø£
ĠÐ¸Ð½ ÑģÐ¾Ð½
ĠÐ¸Ð½ ÑĤÐµÑĢ
à¯ģà®ķà¯įà®ķ à¯ģà®®à¯į
Ġà¦¹ à¦¯à¦¼
ÐµÐ½ ÑĤÐ¸
ĠÎļ Ïħ
Ġà´° àµĤà´ª
ĠÐ¼ ÐµÑĤ
ĠÎºÎ¬ ÏĢÎ¿
Ûģ Ø±
Ġáĥ¬ áĥ§
Ġà®µà®¾à® ´
Ġà´® à´¤
Ð¾Ð³ Ð´Ð°
ĠáĢ¡ áĢĺ
ķ áĢ¼áĢ¬áĢ¸áĢ
áĢ¼ áĢļáĢ¹
ĠáĢĹ áĢŃáĢ¯áĢľáĢ¹áĢ
ĠáĢĢáĢº áĢĶáĢ¹áĢ¸áĢĻáĢ¬
áĢķáĢ« áĢĢ
ãģ ¤
Ùħ ÙĬ
ĠàªĨàªµ à«ĩ
Ġà®ķ à®Łà¯įà®Ł
×¤ ×¨
Ġw e
ĠÐ¿ Ð°Ð¿
ĠÎĳ ÏĢ
ÏĢÎ· ÏģÎµ
ĠØ§ ÛĮØ±
ÑģÑĤ ÑĮ
Ġà´µ à´²
ìĹ °
ĠØ¯ Ø³Øª
åıĳ çĶŁ
à¤°à¥įà¤ ¥
ĠÎ² Î±
ĠáĥĻáĥĿáĥĽ áĥŀ
ìĿ Į
à±ģà°Ĥà° ¡
ĠáĢħ áĢ®áĢĻ
Ð» Ñĥ
áĢĻáĢºáĢ³áĢŃ áĢ¸áĢŀ
áĢ±áĢĳ áĢ¬áĢĢáĢ¹áĢ
áĢķáĢº áĢĻ
Ġà°¨ à°¾
ĠáĢĴáĢ® áĢ¡
Ġáĥł áĥĶ
áĢŃáĢ³ áĢ¸
£ áĢº
áĢ±áĢĲáĢ¼ áĢĻáĢ½áĢ¬
áģ¾áĢĢ áĢŀáĢĬáĢ¹
áĢĨ áĢĢáĢº
Ġàªľ àª¾àª£
Ġà°ķà±ĭ à°¸à°Ĥ
ang _
àµģà´ ·
Ġ Ïİ
Ġà¤¦ à¥ĩà¤ĸ
ĠÑģÑĤ Ð°Ð½
Ġà´İà´¨àµįà´¨ àµį
±áĢĢáĢº áĢ¬áĢ¹áĢ
áģ £áĢº
ĠPost ed
áĢĻ áĢ®áĢ¸
áĢĦáĢ¹áĢľ áĢĬáĢ¹áĢ¸
ĠáĢ±áĢ »áĢĸ
áĢĢ áĢ²áĢ·
ĠáĥĽ áĥĿáĥķ
Ġà®Ĩ à®ķ
ĠìĦ ł
Ùħ Ø±
· à«įàªŁ
Ïĥ Î¿ÏħÎ¼Îµ
Ġáĥ¨áĥĶ áĥĺáĥ«áĥļ
áĢ¾ áĢĦáĢº
Ġà°Ĩ à°°
à§ĩà¦¨ à§įà¦Ł
ĠÎ¿ Î¼Î¬
ĠÐ½ Ð°ÑģÑĤ
Ð°Ñģ Ð¸Ð½Ð¸Ð½Ð³
Ð°Ð² Ð¸Ð¹
ĠÐ¼Ð°ÒĽ Ñģ
à¥įà¤ ¡
ĠÐºÐ°Ð¼ Ð¿
àµĢ à´¸
Ùħ Ûģ
es s
ĠÎ³ Î½Ïī
Ð³Ð¾ Ò³
à±ĭ à°¦
Ø§Ùħ Ùĩ
áĢķ áĢŃáĢ¯áĢĦáĢ¹áĢ¸
ĠáĢľ áĢĬáĢ¹áĢ¸
Ġ áĤĢáĢĢ
áĢŃáĢ³ áĢĦáĢ¹áĢ
ĠáĢģ áĢ²áĢ·
Ł áĢ¬áĢĦáĢ¹áĢ¸
áĢ±áĢĲáĢ¬ áĢĦáĢ¹
áĢ¬áĢĶ áĢŃáĢ¯áĢĦáĢºáĢĦáĢ¶
ĠN ews
áĢħ áĢ¥áĢ¹
áĢĳ áĢ¬áĢ¸áĢĽ
Ġ×ĳ ×ŀ×
ĠÐ¿Ð¾Ð» ÑĥÑĩ
ĠÑ Ĺ
à· Ģ
Ġà¤¹à¥ģà¤ ı
ĠÐ¡ Ð¿
ĠÐ±Ñĭ Ð»Ð°
ĠáĢĢ áĢľ
Ù °
Ġl ang_
Ġà´µ àµĩ
Ġà¤¨ à¤¿à¤µ
Ïģ ÏīÎ½
Ġàª°à«Ģàª¤ à«ĩ
à°¾à° ļ
áĥ ©
ãĤ ¿
êµ Ĳ
à§įà¦¤ à§ģ
ĠØ¨ ÙĦ
ĠáĢŀáĢ° áĢ·
è®° èĢħ
æĶ¯ æĮģ
ĠE 0
è ¼
æĿ ¯
m m
Ġ2 åĪĨå¿«3
æŃ Į
·à¹Ī à¸Ńà¸Ļ
Ġå¾ Ī
éĢ Ļ
oker star
E R
Ġçİ¯äºļ çĶµæ¸¸
Ġà¸ªà¸ ³à¸«
Ġï¼ī ï¼Į
æĥ ł
åĭ ķ
ķ à¹Įà¸
à¤¿à¤¤ à¥įà¤°
Î¯Î½ ÎµÏĦÎ±Î¹
ĠÑĪ Ð°ÑħÑģ
Ġáĥ£áĥ Ľ
Ġà®¨ à®¾à®©à¯į
Ġà°ķ à°¾à°²
Ð°Ð² Ð°Ð»Ñĸ
áĢ¸áĢ±áĢ ĲáĢ¬
ĠáĢ±áĢĨ áĢ¼áĢ¸áĢ±áĤı
áĢħ áĢ¬áĢ¸áĢŀ
à®¿à®² à¯ģà®®à¯į
Ġà¦¹ à¦²
Ġà´ħ à´±à´¿à´¯
ĠÑĤ Ð°Ð³Ð¾
ĠÐ¶Ð°Ð¼ Ð¾
ĠÒĽ Ð°Ð´
ĠØ¯Ø§ÙĨ ÙĦÙĪØ¯
ĠØ¯ ÛĮØ§
ĠÎ± ÏĨ
ĠÚ© Ø´
áĢĲ áĢķáĢ¹áĢ
ĠáĢĶ áĢ¬
è Ń
å· Ŀ
æ±½ è½¦
åĪ ·
ä¸ ´
Ġà¤Ĩ à¤¯
ĠÑĤ Ð¾Ð»ÑĮÐºÐ¾
ĠáĢĲ áĢĬáĢ¹áĢ
ê ¨
ĠáĢ±áĢĻ áĢ¬áĢĦáĢ¹áĢ
áĢĽ áĢĦáĢ¹áĢ¸áĢŀ
ĠáĢĺ áĢ¬áĢŀáĢ¬
u re
ĠÏĦ ÏģÏĮ
Ġê ´Ģ
Øª ÙĬ
ĠÐµ ÑĢ
ĠÐ°Ð¹ ÑĤ
ĠÑĤÐ°ÑĢ ÑĤÐ¸Ð±
Ð°ÑĤ Ð¾
à´¤àµįà´¤ à´¿
Ð°Ñģ Ð¸Ð½Ð¸
ĠÒĽ Ð¸Ð·
Ðº ÐµÐ½ÑĤ
ĠÐºÑĥÐ½ Ð¸
ĠÐ± ÐµÐ»
ĠÐ¼ Ð¾
ĠáĢ±áĢ ģáģļ
ĠP M
áĢ³áĢŃ áĤķ
ģáĢ²áĢ· áĢķáĢ«áĢĲáĢļáĢ¹
ĠáĢĶ áĢ¬áĢĻ
Ġà¤¹à¥ĭà¤¤ à¤¾
ĠáĥĲáĥķ áĥ¢
áĢĳáĢ² áĢĢ
Î³ Î·
áģ¾áĢĢ áĢĬáĢ¹
ĠáĢĢ áĢĻáģ»
ĠáĢ±áĢ »áĢķáĢ¬áĢĦáĢ¹áĢ¸
áĢ±áĢ¬ áĢĤáĢ«
Ġà´ª àµĤ
Ġà°¤ à°°
ĠÑģ ÐµÑĢ
à¯ģà®³à¯įà®³ à®¤à¯ģ
Ġàª° à«Ĥ
ĠØ¨ Ø¹Ø¯
Ġáĥ¡áĥĲáĥ ĺ
áĢ¬áĢ¸áĢĻ áĢ½
áĢ· áĢľáĢ¬
áĢĲ áĢŃáĢ¯áĢĦáĢº
Ð»Ð¸ Ñĩ
à´Ĺ àµįà´°
ĠÑģ ÑĥÑĢ
Ïħ Ïĩ
à«ģàªľ àª°àª¾àª¤
Ġàªķàª° àªµàª¾àª®àª¾àªĤ
áĥĺáĥĵ áĥĲ
×ŀ ×Ķ
Ġà´® àµĨ
Ġà¦¹à§Ł à§ĩ
ÏĦ ÎµÎ¹
ĠáĢ¡áĢŀ áĢŃ
í ĽĦ
ar t
æĦ ¿
ªà¸ ĩà¸
ç³» åĪĹ
p c
r t
ķà¸²à¸ ¡
äº¿ åħĥ
ŀà¸ ±à¸
Ġà¤ ĳ
áĥĶáĥĳ áĥĹ
à´¦ àµĩà´¶
áĢĻ áĢŁáĢ¯áĢĲáĢ¹áĢ
ĠC h
ĠÐ¶ Ðµ
áĢģáĢ²áĢ· áĢķáĢ«áĢĲáĢļáĢ¹
áĢĶáĢ¹áĢ Ĩ
Ġ' '
ĠáĢĬ áĢ®
áĢķáĢ¼ áĢ®
à¯įà® ¨
ĠÐ¼Ñĥ Ð²
áĢ¯ áĢĲ
ĠÑĩ Ð°ÑģÑĤ
áĢŃáĢ¯áĢĦáĢ¹áĢ ĦáĢ¶
áĢĦ áĢ«
áĥĹ áĥ®áĥķ
ë² ķ
à®¤à¯įà®¤ à®¿à®©à¯į
ĠáĢ¡ áĢĸ
Î Ĵ
Îº ÎŃ
Ð¾Ñı ÑĤÐ¸
ĠÐ¨ ÑĥÐ½
ĠÒĽÐ¸Ð» Ð³Ð°Ð½
ĠÐ¸ÑĪ ÑĤÐ¸ÑĢ
à§ĭ à¦®
áĢģáĢº áĢ¬
ĠáĢŀ áĢĲ
Ġ Ð°Ñħ
ĠØ¨ Úĳ
Ġà°¸ à±įà°Ł
à´ªàµįà´ªàµĭ à´³àµįâĢį
Ð¸Ðº ÑĢ
Ġà´ Ĳ
Î´ ÎµÎ¹
Ġàª¥ àª¾àª¯
áĢĳ áĢ¯áĢĲáĢº
³ Û
Ø¯ ÛĮØ¯
à¹Ĥà¸ Ķà¸¢à¸
à¤Ĥà¤¤ à¥įà¤°
ĠÒĽÐ°Ð± ÑĥÐ»
ĠØ¹ ÙĦÙĬ
Ð¾Ð»ÑĮ Ð·
Ġà´ķ à´¾à´²
áĥĿáĥľ áĥĺáĥ¡
Î¾ ÎµÎ¹
Ð ħ
Ðł Ñķ
ĠÑĢ Ð¾
íĺ ¸
áĢ¡ áĢĸáĢ½áĢ²áĢ·
Î¶ Î¯
×ķ× Ľ
Ġà¦¦ à¦¿à¦¨
Ġà¤ķ à¥Ī
áĢ¾áĢĲáĢº áĢĲáĢ±áĢ¬áĢº
å¹ ¸è¿Ĳ
al l
à¸£à¸±à¸ ģà¸©
¨à¸ ¶à¸ģà¸©
ä¸Ń å¤®
ĠçĽ ¸
è» Ĭ
à¹Ģà¸ Ĺà¸µà¹Īà¸
ļ à¥Ģ
ĠÐ½ Ð¸Ð·
Ġà´¤ àµĭ
áĢ¯áĢŃ áĢ¸áĢĽ
áĢģ áĢĦáĢ¹áĢ
áĢ¼ áĢĶáĢ¹
ĠáĢŀ áĢ¬
ÙĨ Øª
ÏĥÎµ ÏĦÎµ
Ġàª¹ à«ĭ
Ñģ ÑĨÑĮ
±áĢĶ áĢĲáĢ¬
áĢĢáĢ¹ áģ¿áĢķáĢ®áĢ¸
ĠáĢĲ áĢ²áĢ·
ĠáĢ¥ áĢ®áĢ¸
ĠáĢĲáĢ½ áĢ±áĢ·
Ø± ÛĮÚ©
Ð°Ñģ Ñģ
Ġáĥ§ áĥĿáĥķ
Ġê° ľ
Ġà°ļ à°¿à°¤à±įà°°
à¦¸ à§įà¦¯
Ġà´ķàµįà´ °
à®° à¯Ī
à°¿à° ¡
ĠÐ³ ÑĥÐ»ÑĮ
áĢ±áĢĲáĢ¼ áĤĶ
ĠáĢŀ áĢĲáĢ¹áĢ
áĢĺ áĢĢáĢº
áĥĵ áĥĶáĥ¡
Ġ ÛĮØ§
æ¥ ¼
ļà¸²à¸ ĩà¸
ä¸ ĥ
Ġå Ģ
æľĢ ä½³
å®Į æĪĲ
Ġ7 8
ä¼ Ł
Ġåı °
é¢Ĩ å¯¼
è± ¹
Ġà¸ ģà¸£à¸
çĽ Ī
Ġç ®
èµĮ åľº
à¸Ļà¸ ³à¸
Ġç¦ ı
à¹īà¸²à¸ ¢à¸
à¹ģà¸Ļà¸ °
é ¹
Ġç ²
èĤ ī
à¸²à¸ ¡
ä¸Ģ äºĽ
ä¸» ä¹ī
Ķà¸ ±à¸ļà¸
Ġà¤Ĩ à¤µ
à±Ĥà° ¨
Ġà´¯ à´¿
Ġà´ħ à´§
ÑĦ Ð¾ÑĢÐ¼
Ġà®® à®ķà¯įà®ķ
Ġà¦¬à¦¿à¦ ·
ĠÑĪ ÑĥÐ´
ĠÐº Ð°Ð»
ĠÐ¾ Ñĩ
ĠáĥĻ áĥĲáĥłáĥĴ
ĠÐ³ Ð°Ð»
ìŀ ¬
ĠÎ½ Îµ
àªķ à«įàª¤
à±Ĩ à°Ĥà°Ł
à´°àµįâĢį à´·
ĠØ§ÙĦØ ·
à´¾à´¨ àµģà´Ĥ
áĢģáĢº áĢ³áĢķáĢ¹áĢ
áĢĦáĢ¹áĢ ķ
áĢĳ áĢ¯áĢĲáĢ¹áĢ
ĠáĢķ áĢĽáĢŃáĢŀ
áĢ¬áĢ¡ áĢ¯áĢķáĢ¹áĢ
ĠáģĤáģĢ áģĢ
áĥĲáĥĵ áĥĺ
à¯Ĩ à®¯
Ñĸ Ñŀ
ãĤ ·
à¦¾à¦® à§Ģ
ĠÏĩÏģÏĮ Î½Î¹Î±
Ġà¤ļ à¤¾à¤¹
à§ĭ à¦Ł
áĢģáĢ» áĢĦáĢº
ĠÐ¿ÑĢ Ð¾Ð²
íĨ ł
a re
áĥĿáĥ ¥
æľ ĭ
å¤ ı
0 5
à¹Ħà¸§ à¹ī
¢à¸ ¸à¸
åĵģ çīĮ
® à¸
Ġéķ ¿
ä» į
ķà¹Īà¸²à¸ ĩà¸
Ġåį ³
Ġ201 5
é ½
çĶ³ è¯·
æĢ ¥
à¸£à¸µà¸ ¢à¸
Ġk8 å½©ç¥¨
«à¸¥à¸²à¸ ¢
ac k
6 5
å¹ ħ
à¤ ·
ĠÐŁ ÐµÑĢ
áĢĽ áĢ¯áĢ¶
ÎĻÎļ ÎĹ
ĠÎ±Î½ ÏĦÎ¯
à´¤àµįà´¤ à´¿à´²àµĨ
ģáĢ²áĢ· áĢŀáĢĬáĢ¹
¡ áĢŀ
áĤ Ĥ
áĢ¬áĢĽ áĢĦáĢ¹áĢ¸
áĢĢáĢ¼ áĢŀáĢĬáĢº
à«Ģ àª®
ÑģÐºÑĸ Ð¼
Î» Î¹Î±
×ľ ×Ĳ
à®Ł à¯ģ
áĥĺáĥ¢ áĥĶáĥ¢
Ġí ĥ
Ġà°ħ à°¤
ĠÐ ®
å¤§åıĳ å½©ç¥ŀ
Ġåī į
ï¼ Ľ
ç½ĳé¡µ çīĪ
³à¸ Ħà¸±à¸
«à¸Ļà¸¶ à¹Īà¸ĩ
k k
éĶ ®
é «
à¹Ī à¸Ńà¸¢
çĽ Ľ
æĶ¹ éĿ©
æĬ¥ éģĵ
Ġà¤ħà¤§ à¤¿à¤ķ
àµģà´ ¸
Ġà®ħ à®´
ĠÐ³ÑįÑĤÑĭ Ð¼
Ġàªķ àª¾àª®
ÑģÐº Ð¸
ÎµÎ¹ ÏĦÎ¿ÏħÏģÎ³
ĠáĥĲáĥ® áĥĲáĥļáĥĺ
ĠÑĥ Ð½Ð¸
ĠÑĳ Ð·
ĠÐ²Ð°Ð· Ð¸ÑĢ
ĠÐ¼ Ð°Ð¼Ð»Ð°ÐºÐ°ÑĤ
Ð¾Ð½ Ó£
Î¼Î² ÏģÎ¯Î¿Ïħ
Î¼Î¹ Î¿ÏħÏģÎ³
àª¤ à«įàª¤
Ġâ Ĥ¬
Ð°Ñŀ Ð»ÐµÐ½
Ġà¦¶ à¦¿à¦ķà§įà¦·
Ġà´² à´Ń
ÙĨ ÙĬ
ÑģÑĮ Ðº
áĢľ áĢ±áĢ¬áĢĢáĢº
áĥĿáĥĳ áĥļ
ÑĮ Ñİ
áĢ½ áĢ¾
ĠÎ¬ Î»Î»
ĠØ§ÙĨ Ûģ
ãĥ Ĺ
Ñĩ Ð°Ð¹
Ġà¦ķà¦¿à¦¨ à§įà¦¤à§ģ
Ġà®ª à¯ĩ
à±ģà° ļ
áĢ®áĢļ áĢ¶
ĠÐľ Ð°ÑĢ
áĥĲáĥĽáĥĵ áĥĶ
Îº ÎµÎ¹
ì Ī
Ġç¥ ŀå½©
è° ±
ŀà¸£ à¹īà¸Ńà¸¡à¸
çŃ Ķ
ç²¾ ç¥ŀ
à¸Ļà¸µ à¹Īà¸
Ġs p
6 åĲĪ
¸ à¸Ļà¸
åħ¨ çĲĥ
à¤¾à¤Ĥà¤ļ à¥ĩ
×ł ×Ķ
ĠÐ¸ Ñĩ
Ð° Ò·
àµĢ à´¯
ĠÙħ Øª
à®¿à®¯ à¯Ī
à°° à°¿
áĢ¸áĢ »áĢĻ
ĨáĢŃáĢ¯ áĢĲáĢ¬
áĢ¶ áĤķ
ĠáĢĴáĢ® áĢĩ
à¦°à§įà¦ ®
Ð» Ð°Ð²
ĠáĢĢáĢº áĢĻ
áĢĦ áĢĶáĢº
ĠÐ±Ñĭ ÑĨÑĮ
à¥Į à¤°
å½©ç¥¨ å¼ĢæĪ·
Ī à¸´à¸
Ġé¦ ĸ
à¹Ģà¸Ľà¹ĩ à¸Ļà¹Ģà¸
à¹Ģà¸Ń à¸²
ç¤ ¼
éģ İ
æĸĩ ä»¶
å¾· å·ŀæīĳåħĭ
44 4
Ġå¸ Ĥ
æľĢæĸ° ç½ĳåĿĢ
Ĭ à¸Ļà¸
áŀ ĵ
Ġçİ¯äºļ çľŁäºº
èµ· æĿ¥
åŃ¦ ä¹ł
åĨ ²
à¹ī à¸Ńà¸Ļ
Ġ9 8
Ġæ¾³éĹ¨ ag
Ġå ¨
ŀà¸ ¹à¸
à¹Ĥà¸ ¢à¸
Ĺà¸µà¹Ī à¹Ģà¸
ģà¸³à¸ ¥à¸±à¸ĩà¸
Ġagçİ¯äºļ çĶµæ¸¸
à¹Ģ à¸Ļ
Ġ! !
Ġe m
Ġæ¢¦ è§ģ
åº Ń
å¤ĩçĶ¨ ç½ĳåĿĢ
Ĥ à¸Ļà¸²à¸
Ġj s
Ġà¤¹ à¥ĭà¤
à±ģà°ķ à±Ĭ
Ġàª¶àªķ à«ĩ
ĠÎ´ ÏħÎ½Î±
áģµ áĢº
ĠáĢŀ áĢĻáģ¼áĢĲ
ĳ áĢ¬áĢ¸
ĠáĢ±áĢ»áĢķáĢ¬ áĢķáĢ«áĢĲáĢļáĢ¹
áĢ¬áĢ¸áĢħ áĢ¼áĢ¬
ĠáĢŀ áĢĺáĢ¬
Ġìĺ Ī
ĠÐ´ ÐµÐ»
Ġà´ħ à´¦àµįà´¦àµĩà´¹
áĥĲáĥłáĥ Ļ
»áĢĸ áĢĲáĢ¹áĢ
áĢľ áĢ¶áĢ¯
áĢĲáĢ¼ áĢĢáĢ¹áĢ
áĢ¸áĢŀ áĢ°
ar y
ĠáĢĢáĢº áĢĦáĢ¹áĢ¸áĢķ
áĢĲ áĢŃáĢ¯áĢĦáĢºáĢ¸áĢ
ĠÐ¼ Ð°Ð·
ĠÐ¯ Ðº
à±ĩà° ¯
ĠÎŃ Îº
à¯ģà®ķ à®¿à®±
Ġà¦ķà¦° à§įà¦®
Ð»Ñİ Ñĩ
Ġ5 åĪĨ
Ġà¤¸ à¤¹
Ùĥ ÙĦ
Î½ Ïİ
à¦¾à¦¨ à§ĩà¦°
ĸ áĢŃáĢ¯áĢ·
áĢħ áĢ¼áĢ¬
áĢ¡áĢħ áĢĬáĢ¹áĢ¸
ĠáĢľ áĢ¼
áģĢ áĢĶáĢ¹áĢ
ĠáĢĽ áĢĢáĢ¹
áĢ±áĢĶ áĢ¬áĢ¹
áĢ¡ áĢģ
Ñĳ Ñŀ
ãģ Ľ
Ġà®¤ à®¾à®©à¯į
áĢ¸áĢĻ áĢ»
áĥĶáĥ ¨
à±ģà°² à°¨à±ģ
Ġê° ķ
à´ªàµįà´ªàµĨà´Ł àµģà´¤àµįà´¤
ĠØªÚ¾ ÛĴ
à®¿à® ³
ÑıÐ´ Ð¾Ð¼
Ġ×Ļ ×©
Î±Ïĥ Î¯Î±
Ñĭ Ð²
¹ Û
ĠØ´ Ø±
æķ ĳ
Ġà¨ °
å¹´ çļĦ
Ġà¤µ à¤¾à¤Ł
Ġàªı àªŁàª²
ÏģÎ¯ ÎµÏĤ
ĠáĥĶ áĥļ
Ñĥ ÑĶ
ĠÐ³ Ð¸ÑĢ
Ġà¦Ĩà¦® à¦¾à¦°
Ġà´® à´°
à¤¢ à¤¼
ëª ¨
Ġà¦ķ à§įà¦·
à¯ĭ à®®à¯į
Ġ% ï¼Į
çĸ ĳ
à¨¾à¨ ²
à¤ª à¥įà¤°
à´± à´¿
Î½ ÏĮ
áĥĶáĥľ áĥĺ
ĠìĹ °
ĠÐ³Ð°Ð´ Ð¾Ñŀ
à¯ģà®ķ à®¿à®±à®¤à¯ģ
Ġàª¦àª¿àªµ àª¸
Ðº Ð¾Ð¹
à°¾à°¨ à°¿
áĢĲáĢ²áĢ·áĢ¡ áĢģáĢ«
±áĢĲáĢ¼ áĢĢ
áĢ Į
éĽ Ħ
éľ ²
æĹ §
åĬł æĭ¿å¤§
è¾ħ åĬ©
å§ Ĳ
à¤¿à¤ ¦
ĠÎ¼ Î¯Î±
Ø§ÛĮ Øª
Ġà´ķ àµĪ
Ð°Ñ ĥ
ĠáĢĶ áĢ²áĢ·
áĢĿ áĢĶáĢ¹áĢ
ĳáĢ¬áĢ¸áĢ ĲáĢ¬
ĠáĢĽ áĢĶáĢº
Ġáĥ¨áĥĶáĥĺáĥ«áĥļ áĥĶáĥĳáĥĲ
ĠáĢģáĢ¯ áĤıáĢ½áĢħáĢ¹
áĢŀ áĢ±áĢ¬áĢº
Î±Î¹ Î¿
Ġàªµàª§ à«ģ
Ð°ÑĪ Ñĭ
ĠÎ± Î¾
Ġ×Ľ ×ľ
e ct
Ġà´¨à´¿à´ Ļàµįà´Ļ
ĠÙĪ Ø²
ĠÑĢ ÑĥÐ±
ĠÐ³ ÑĢ
Ïĥ Î¼Î±
Ġà¦¨à¦¿à¦ ľ
q q
äº¤ éĢļ
åĶ ¯
y y
Ķà¸ ³
4 3
à¤¾à¤¸ à¥Ĥà¤¨
à°°à±įà° ª
ÙĪ Ø¬
ìļ ´
ĠÎµÏĢ Î±
à¤¿à¤ ĸ
ĠÑĦÐ¾Ð¹ Ð´
ĠÑĪ ÑĥÐ¼
Ð½ Ð°Ðº
áĥĿáĥĳ áĥĺáĥĹ
à°° à°Ĥ
ÏĨ ÏĮ
à¦Ĺ à§ģà¦²
ÙĨØ¯ Ùĩ
áĥĹáĥ®áĥķ áĥĶáĥķ
ĠØ¬ Ø§ÙĨ
ÏĦ Ïĥ
ĠáĢĿ áĢĶáĢº
Ð¸ ÑĩÐµÑģÐº
é«ĺ æ¸ħ
à¤¾à¤ ģ
à®² à®¾à®®à¯į
ĠÐ² ÐµÐ´
Ġàª° àª¾àªĸ
´ ĳ
ĠÎºÏĮ Ïĥ
ãĤ £
Ķ áĢĬáĢ¹áĢ¸
ĠáĢĨáĢŃáĢ¯ áĢĲáĢ¬
áĢĶ áĢ±áĢ¬áĢº
áĢ±áĢ¡áĢ¬áĢĦáĢ¹áĢ ĨáĢĶáĢ¹áĢ¸
áĢ½áĢ±áĢ¸áĢ Ķ
ÑĤ ÑįÑĢ
ĠÎµ Î¹Ïĥ
Ġh ave
áģ¾áĢĢ áĢĲáĢļáĢ¹
áĢķ áĢŃáĢ¯áĢĦáĢº
Ùĥ Ø±
ÑĥÐ² Ð°Ð½Ð½Ñı
áĥĶáĥłáĥ ĵ
åŁº ç¡Ģ
Ĺà¸²à¸ ĩà¹Ģà¸
æ¨¡ å¼ı
èĥ½ å¤Ł
à¹Ħà¸ Łà¸
ªà¸ ³à¸Ħà¸±à¸
Ġà¤ķà¥ĩà¤² à¤¾
Ġ×Ķ ×¨
í İ
à°¾à° Ĥ
à±Ģ à°ķ
ĠÎ ŀ
ĠÛ ²
Ú© ÙĨ
ĠÏĥÏĩ ÎŃ
Ġáĥĵáĥ¦ áĥĶáĥ¡
áĢĨ áĢ¶áĢ¯áĢ¸
áĤı áĢŃáĢ¯áĢĦáĢ¹
áĢ±áĢ »áĢĸ
áĢĨ áĢ¯áĢ¶áĢ¸
ĠÐļ Ð°Ðº
Ġàªķàª° à«ĩ
Ð¾Ñģ ÑĮ
Ġà®ķà¯Ĥ à®±
ĠÎ£ ÏĦÎ·
ÐºÑĸ Ð¼
Ø® Ø±
à¨ µ
_ app
Ġå¹ ´
å¸ ®
iv e
2 åĪĨå½©
å°±æĺ¯ åįļ
Ġà¤ķà¤°à¤£ à¥įà¤¯à¤¾à¤¤
áĥ¬ áĥ§
Ġà´µ à´³
áĢĲ áĢĢáĢ¬
à°¾à°Ĥà° Ĺ
Ġ Ã
Î½Î¿ Î´Î¿
Ð² ÑıÑĢ
ëł ¥
ĠáĢ±áĢķ áģļ
ĠáĢŀ áĢĢáĢº
áĥķ áĥĶáĥķ
ÑĥÐ½ Ñĳ
ĠÎ» ÎŃ
à°¾à°ķ à±ģ
ĠÐ»Ñİ Ð±
ĠÑĢ Ð¾Ò³
Ð°ÑĨ ÑĸÑĹ
O S
åĽ¾ çīĩ
ŀà¸ ·à¹īà¸Ļà¸
ªà¸ °à¸
Ħ à¹Įà¸
ç«ŀ çĮľ
ĠåĲ İ
Ġè® °
Ġà¤¦ à¥ĭà¤¨
Ġà°µà°¿à° µ
ĠØ ¶
Ġà® Ĭ
Ð¶ Ð´
ãĤ ı
ĠáĢĲ áĢŃáĢ¯áĢĢáĢº
ĠáĥĹ áĥĲáĥĽ
àµĭ à´·
ĠÎł Î¡
Î»ÎµÏħ ÏĦÎ±
Ñı Ð¼
Ġà°ªà±įà°° à°ķ
à´Ł à´¿
ä»ĭ ç»į
Ġæĺ İ
Ġç¥ŀå½© äºīéľ¸
Ġå¤ ĸ
ķ à¸²
çĪ Ĩ
Ġ4 3
Ġà¤¯à¥ĩà¤ ¥
Î¯Î¶ ÎµÎ¹
Ġàª¸à«ģàª §à«Ģ
Ġ×Ķ× ŀ
ĠáĥĴ áĥĲáĥ¡
í ŀ
Ð¾ Ñĺ
Ġà® ¹
à´¿à´¨ àµģ
Î» Î¯Î±
à¤¿à¤ ª
à´¸ à´Ĥ
Ð½ Ð°Ð»
áĢĻáĢºáĢŃáĢ³ áĢ¸
ĠáĢĻáĢ¼áĢĶáĢºáĢĻ áĢ¬áĢĶáĢŃáĢ¯áĢĦáĢºáĢĦáĢ¶
ĠáĢ¡áĢ¬ áĢı
Îµ Î²
à±ĭ à°¡
Ð°Ð²Ð°Ð½ Ð½Ðµ
ĠáĢĢáģ½áĢ¼ áĢĶáĢ¹áĢĻ
áĢ¶ áĢĲ
ĠÑį Ð½Ð³
Ð¾Ð¸ Ð¹
ĠÒĽÐ°ÑĢ Ð¾ÑĢ
Ïĥ ÏĥÎ±
à´Ļàµįà´Ļà´³ àµģà´ŁàµĨ
ģáĢ» áĢ¯áĢķáĢº
Ð¸ ÑĤÐ¸
Ú© Ø±
áĥłáĥ£áĥ ľ
ĠáĢħáĢ®áĢ¸áĢķ áĢ¼áĢ¬áĢ¸áĢ
áĢ¡ áĢĬáĢ®
à±ģà° ¸à±įà°¤
ĠÐ±ÑĥÐ´ ÐµÑĤ
è§£ åĨ³
Ġ ä¹
Ġà¤¦ à¥ĩà¤£
ÎŁÎ ľ
ĠÎµÎº ÎµÎ¯
.... ....
áĢħ áĢ½áĢ¬
¨ à¥ĩ
à«ģ àª®
l d
Ð¼ Ð°Ð´
ĠÑħ Ð¾Ð½
à´¯ àµįà´¯
Ġâ Ħĸ
Ð» ÐµÐ¼
Ġáĥĺ áĥĴ
Ġà°ī à°¦
Î¸ ÏģÏī
ĠÚ©Ø± ØªÛĴ
Ø§Ø± Ø©
ķ Į
Ġà®İà®¤ à®¿à®°
Ġàª® àª¾àª°
Ġà´¸ à´¾à´§
Ġà¦¸à¦° à¦ķà¦¾à¦°
à¤ķ à¥ĭ
ĠáĢĹ áĢ¯áĢĴ
Î¸ Î±
ĠÐ²Ð° ÒĽ
áģ¿áĢĸ áĢŃáĢ³
áĢ±áĢĨ áĢ¬áĢĦáĢ¹
ĠáĢľáĢĢáĢ¹áĢ ĽáĢ½áĢŃ
áĢĶ áĢ®áĢ¸áĢ
ĠáĥĴ áĥĲáĥ®
à±ĩà° ľ
à¦¿à¦ ī
ĠÏĩÏī ÏģÎ¯ÏĤ
ĠÑģ Ð°
áĢĦ áĢ»
áĢ±áĢĢáĢº áĢ¬áĢĦáĢ¹áĢ¸
ĠáĢ±áĢĢáĢº áĢ¬áĢ¹áĢ
áĢħ áĢ¯áĢ¶
à¤¿à¤ §
ãģ ¿
ĠÐ½ Ð°Ñĩ
Ġà¦®à¦¾à¦¨ à§ģà¦·
Î³ Î¼Î±
àª¿àª ¶
áĢĻ áģ¸
Ġáģģáģ ģ
Ġà°® à±ģà°Ĥà°¦
à®¤ à®¾à®ķ
ĠáĥĲáĥ¥ áĥķáĥ¡
ĠáĢ»áĢķáĢĬáĢ¹áĢ ±áĢĳáĢ¬áĢĦáĢ¹áĢħáĢ¯
Ġáģģáģ ĥ
Ġ×ŀ× Ĳ
áĢĶáĢ¹áĢ¸ áĢĻ
ĠáĢ¡áĢŀ áĢĢáĢ¹
ĠáĢŁ áĢŃáĢ¯
ĠÑģÐ² Ð°Ñĸ
ĠÏĮ Î»Î±
ĠÐ² Ð¸Ðº
ĠÐ¸ Ñħ
ĠáĢģáĢ¯ áĤıáĢ½áĢħáĢ¹áĢ
ĠáĢĻáĢŃ áĢŀáĢ¬áĢ¸áĢħáĢ¯
ÑĨ ÐµÐ¹
ĠÎµÏĢ Î¹Îº
Ġæī ĵ
Ġå°Ĭé¾Ļ äººçĶŁ
å¥ ¥
à¹Ħà¸¡à¹Ī à¹Ħà¸Ķà¹ī
ä½ľ çĶ¨
è´£ ä»»
«à¸ į
æĿ ¾
Ġà¸ ļà¸
Ġ4 1
åħ¬ åĳĬ
Ġ le
łà¸²à¸ ¢
à¹Ģ à¸Ńà¸ĩà¸
ĠãĢ ı
Ġà¤®à¤¾à¤ Ŀ
áĥĲáĥ¬ áĥĺáĥļ
Ġà´Ĵ à´¨àµįà´¨
ģáĢº áĢ³áĢķáĢ¹
ĠáĢŀáĢ° áĤķ
Ġáģģáģ Ī
Ġà¦ ¢
éĺ ¿
à¸£à¸±à¸ Ĳ
ĠåĨ į
çª į
å¼ Ĥ
åªĴ ä½ĵ
t er
ç Ĵ
ĺ à¸£à¸£à¸¡à¸
¸ à¹Īà¸¡à¸
Ī à¹īà¸²à¸
Ġ _
à¹ģà¸ ¥à¸°à¹Ģà¸
Ġ4 2
ç»Ł æĪĺ
æľĢæĸ°çĻ»å½ķ åľ°åĿĢ
Ġé Ĵ
Ġà¸ ¡
Ġà¤Ĩ à¤°
Ø³ ÙĬ
Ú© Øª
Ġà°° à°¾à°·à±įà°Łà±įà°°
ĠR e
Ġp ost
áĢĨáĢŃáĢ¯ áĢĽáĢĦáĢº
ĠáĢ±áĢ »áĢķ
ĠáĢĴáĢ® áĢĢ
à§ĩà¦ ¡
ģáĢº áĢĦáĢ¹áĢ
ĠáĢķáĢ¼ áĢ¯
Ġà° ĸ
ĠÑĤÐ°ÑĬ Ð»Ð¸Ð¼
ĠÐ´ Ð¾Ð±
Ġà´ª àµĩà´°
ĠÒĽÐ¸Ð» Ð¸Ð±
ĠÑİ Ð·
ĠÐ³ ÑĥÐ·
à«įàª¯ àª¾àªĤ
ì ¡
Ġà¤ľ à¤¬
ĠÚ©ÙĪ Ø¦ÛĮ
ÏĨÎ¿ Ïģ
ĠÐĲ Ð»Ñı
ãģĦ ãĤĭ
Ġáĥ¨áĥĶáĥĽ áĥĹáĥ®áĥķáĥĶáĥķ
Ñĥ ÑĢÑĭ
åį ł
ĠåĽł ä¸º
à¸µ à¹īà¸
æĭ ¾
ç» ĥ
à¸Ļà¸ ±à¸ģà¸
à¥įà¤¯à¤¾à¤ ª
Ġà´¨ àµĩà´°
Ø¯ Ø©
Ïĥ Î¹Î¿
Ġà°ª à°¦
ĠÏĢÎµÏģÎ¹ÏĥÏĥÏĮÏĦÎµ ÏģÎ±
áģ¾áĢĢ áĢķáĢ«
áĢ¡ áĢŃáĢĻáĢ¹áĢ
ĠáĢ»áĢķáĢ³ áĢľáĢ¯áĢķáĢ¹áĢ
ĠáĢĲ áĤĲ
ĠáĢ¡áĢŀ áĢ¯áĢ¶áĢ¸áĢ
Ð»Ð¸ Ð²
ĠØ¯ ÙĨ
Ġàª¸ à«įàªŁ
Ġà¦ĺ à¦Ł
Ġà´ª à´²
à®¾à®® à®²à¯į
ÏĢÎ¿ ÏĤ
áĥĹ áĥĲáĥķ
Ð¾Ð² Ð¾ÑĢ
ĠâĢĿ .
ĠÐ¿ Ð°Ð²Ñĸ
à±Ĩ à°°
ĠÚ¯ Ø±
à®¾à® ľ
ĠÐº ÐµÐ¹
ĠÐĳ Ð¸ÑĢ
ĠÐ¢Ð¾ÑĪ ÐºÐµÐ½ÑĤ
ĠÑģ Ð¸Ñĳ
Ġá¼ Ĳ
ĠÎµ Î»Î»Î·Î½
Ġà¦¸ à¦Ļà§įà¦Ĺà§ĩ
ĠÎĿ Î±
Ģ áĢ¬
ĠáĢĢáĢ»áĢ½áĢĶáĢº áĢĲáĢ±áĢ¬áĢº
ì¹´ ì§Ģëħ¸
ì² ´
ÑĢ Ð°Ñģ
áĥł áĥĿáĥĽ
Ġà®ª à®£
Ġ×Ķ× ĳ
èģ ļ
æ¶ ²
à¹ģà¸ ªà¸Ķà¸
à¸Ļ à¸²
ģà¸¥à¸ ±à¸ļà¸
à¥Ģ à¤°
áĢģáĢ¼ áĢ²
ĠáĢĽáĢĶáĢ¹áĢĢáĢ¯ áĢĶáĢ¹
ĠáĢĻáĢ¼ áĢŃáĢ¯áĢ·
ĠÐ¾ÑĢ Ð³Ð°Ð½
Î¼ ÏİÎ½
à§ģà¦ ĸ
Ø° Ùĩ
áĥĽ áĥĶáĥĵ
P age
à´¿à´ ³
ĠÑĪ Ð¼Ð°ÑĤ
à°¿à°Ĥà°ļ à±ĩ
àª°à«įàª µ
ĠÎĳ ÎĿ
Î½ Î¬
à¯ģà® ©
à´¯ à´¿à´²àµĨ
å® ĩ
Ġå ķ
ç¬ ĳ
à¹Ģà¸£à¸´ à¹Īà¸¡à¸
Ġà¤®à¥įà¤¹à¤£ à¥Ĥà¤¨
ĠáĢ±áĢĶáĢ¬áĢĢáĢ¹áĢ Ĩ
áĢľáĢŃáĢ¯ áĤķ
ĠáĢħ áĢ¬áĢ¸áĢ
áĢĢáģł áĢŀ
ħ áĢ®áĢ¸áĢ
ĠÎĳ ÏģÏĩ
Ñĥ ÑīÐµ
à¦° à¦£
áĢ® áĢĲ
ÏĦ Î¶
ĠáĥĴáĥĲáĥľ áĥ¡
Ġà¤ľ à¤¾
ĠÐ¼Ð°ÑĢ ÐºÐ°Ð·
ĠÑĤÑĢÑį Ð±Ð°
Ġà°ļà°¾à°² à°¾
Ð½Ð¾ÑģÑĤ Ñĸ
Ġ {
ĳ Ĳ
áĢ°áĢ¸áĢ±áĢ ķáĢ«
ĠáĢļ áĢĦáĢ¹áĢ¸
áĢ±áĢ¬áĢº áĢĻ
ĠÑĤÐµ Ñħ
ĠÐ± Ð°Ð¹
Ġà®ī à®°
Î» Î¹Î¿
áĢŃ áĤĪ
áĢ±áĢ¡áĢ¬áĢĦáĢ¹áĢĨáĢĶáĢ¹áĢ¸ áĢħáĢ¯
ĠáĢ¡ áĢŃáĢķáĢ¹áĢ
ĠáĢĽ áĢ½áĢ¬
áĤĥ áĤĪ
áĢŃ áĢļ
Ġ. ,
àµĭ à´ķàµįà´ķ
ĠÎ³ ÏģÎ±
Ġàª¦à«įàªµ àª¾àª°àª¾
Ð°ÑĤ ÑĥÑĢ
Ġ... .
áĢĲáĢ¹áĢ Ľ
áĢ±áĢ ĦáĢ¼
ĠáĢ±áĢĢáĢº áĢ¬áĢĢáĢ¹áĢ
áĢŀ áĢĦáĢº
Ġag ä½ĵèĤ²
ĠæŀģéĢŁ å¿«3
Ġà¨ ī
Ġà¤ķ à¤¿à¤Ĥà¤
ĠÚ© Ú¾
ÙĪ Ø¹
ãĤ ³
áĥĲáĥľ áĥ¢
Ð°ÑĢ ÑĤ
ĠÎ£ Ïį
à¥Ĥà¤ ²
à´¿à´ ľ
Ð°Ð² Ð¾Ð±
Ïĩ ÏģÎ¹
à§įà¦ ŀ
ĠÑĢ Ñŀ
Ð» Ð¾ÒĽ
ĠÑĤ ÐµÐ¼
ĠáĥĲáĥ¡ áĥĶáĥķáĥĶ
Ġà´Ĩ à´¶
áĢĲáĢļáĢº áĢľáĢŃáĢ¯áĢ·
Ðµ ÑĬ
áģ¾áĢĢ áĢĲáĢ¬
ĠáĢĽ áĢ²áĤķ
áĢ¸áĢľ áĢŃáĢ¯áĢĢáĢ¹áĢ
áĢķ áĢĦáĢ¹
áĢĢáĢ¹áĢ Ķ
áĢ±áĢĳ áĢ¼
áĢ±áĢ« áĢĢáĢº
Ïī Î¼Î±
ĠÐ´ Ð°Ð»
à¯ĭ à®¤
Ġ×¢ ×Ŀ
Ð¾Ð²Ñĭ Ðµ
ÐºÐ¾ ÑĹ
Î´ Î¯
Ñĩ Ð°Ñģ
Ġë Ķ
Ġà´¸à´Ĥ à´ĺ
ĠÙĥ ÙĦ
Ġc an
Î¼ Î¯
ĠàªĹ à«ģàªľàª°àª¾àª¤
Ġàª¹ à«ģàªĤ
áĢĦáĢºáĢ¸áĢ Ĩ
à´¤ àµįà´¥
Ð» ÐµÐ½Ð¸Ðµ
Ġàªķàª° àªµàª¾
Ñģ Ð¸Ð½
Ġà¤²à¥ĩà¤ķ à¤¿à¤¨
ĠÑĤ ÐµÑĢ
ĠÐ¹ Ð¸
ĠÐ¸Ðº ÐºÐ¸
ĠÑĤÑŀÒĵÑĢÐ¸ ÑģÐ¸Ð´Ð°
ĠÑģ Ð¸ÑĦ
Ø§Ø± Ø¯
ment s
áĢ¸áĢ ĶáĢ²áĤĶ
ĠáĢĽáĢĢáĢº áĢĶáĢ±áĢ·
Ò ²
ÏĦÎµ Ïį
ÑĥÐ½ Ð¸Ð½
áĥª áĥĺ
à°¿à°¯ à°¾
à¦¡ à¦¼
ãĥĥ ãĥĪ
ĠáĢĽáĢ½áĢŃ áĢ±áĢĶ
ĠáĢĦ áĢº
Ġà®® à®°
ĠÐ³ÑįÑĤ Ð°Ð³Ð°
ĠáĥĽ áĥĺáĥĸ
Ïģ Ïį
ĠØ³ Ø¨
Ð¿ Ð¾Ð²
Ġà®ķ à®¾à®°
ÐµÑģ ÑĮ
Ġà´ª àµĩ
Ġà°¤ à°®
ĳ ľ
á¿ ¦
Î¾ ÎµÎ¹ÏĤ
Ġàª¬ àª¹
áĥĲáĥĵ áĥĿ
Ġà¤¥ à¥ĩ
Î¸Î· ÎºÎ±Î½
Ð¿ Ð°Ð²
à´¯ àµĭà´Ĺ
áĥłáĥĺáĥķ áĥĺ
Ùģ ÙĬ
à±ĩ à°Ĥà°¦à±įà°°
ľ Ðµ
ÒĽ Ð¸Ð½
Ð» Ð°ÑĤÐ¸
ĠÙħ Ø³
× £
Ġãģ Ŀ
ĠÑĥ Ð´
à°°à±įà° ®
ĠÐ½Ð°ÑĦ Ð°ÑĢ
ĠÐ¿ ÑĭÑĤ
Î´ Ïİ
àª° à«ĩ
Ġìķ Ĭ
Ġáĥĺáĥľ áĥ¢
Ð°Ð½ Ð½Ñĸ
ĠÎ£ Î¤
ĠÎ¬ Î»
Ġà¦¬à¦² à§ĩ
Ġà®¤à¯Ĭà®Ł à®°
Ġ3 80
ĠÑĨ Ðµ
ä¹ĭ åĲİ
äº¤æµģ ç¾¤
ï º
áŁ Ĩ
ĺà¸ ¸
ç¬ Ķ
Ġà¹ģà¸¥ à¹īà¸§à¸
åĽ °
ľà¸ ¡
à¹Ģ à¸Ńà¸²à¸
Ġçİ¯äºļ åĽ½éĻħ
Ġä¸ ĩ
Ġà¨¹ à©Ī
Ġà¤¤ à¥Ģ
Ð± Ð¾ÑĪ
i es
ĠÐĲ Ð½
ĠáĥĲáĥ® áĥļ
Ïĩ ÎµÎ¯
Ðº ÑĢÑĭ
à°¿à°ª à±ĭà°¯
Ġà¦ª à§ľ
àª¨à«įàª ¸
ĠÐ´ Ð°Ñģ
Ġáĥ¡áĥĲáĥ®áĥĶáĥļ áĥĽ
ĠæŀģéĢŁ æĹ¶æĹ¶å½©
çĭ Ĥ
ĠåĲ Ħ
è Ĩ
æ´ ¾
Į æľĽ
Ġè Ļ
Ĥ à¹īà¸Ńà¸¡à¸¹à¸
ķ à¸Ńà¸Ļ
ĠåĮ ħ
Ġåº Ķ
Ġè Ī
Ġâ ĻĢâĻĢâ
æİ ª
à¥ §
æĸ¹ æ¡Ī
Ġå½© ç»ıå½©ç¥¨
Ĭà¹Īà¸§à¸ ¢à¸
åĳ ¢
áŁ ģ
Ġà¤¦ à¥ĩà¤¶
ĠÏĢ ÏģÎ¬
à´¿à´¨ à´¿à´®
Ġà¦Ĩ à¦ĩ
ĠØ¬ Ø§Øª
áĥĲáĥ¡ áĥĺ
à°°à±įà° ¥
à´¿à´° àµģà´¨àµįà´¨
Ð² Ð»Ñı
ÑĨ ÑĨÑĳ
ĠÏĢÏģÎ¿ Î²
ĠÐ² ÑĬ
Ġà®ª à®¾à®¤
ĠØ§ÙĦÙĦ Ùĩ
ĠÙĦ Ùħ
Ñį Ñŀ
ĠáĥĽáĥĿáĥ ®
Ġàª¸ à«įàª¥
ÏĦÎµ Ïħ
Ø§ÛĮ Ø¯
Ġà¦ķà¦¿à¦Ľ à§ģ
Ġà´ķ àµĭà´Ł
Ð°Ñİ ÑĤÑĮ
Ļ áĢļáĢ¹
ĸ áĢ¯áĢŃáĤĶ
áĢ±áĢĢ áĢ¬áĢĦáĢ¹áĢ
ĠáĢ±áĢĸ áĢ¬áĢ¹áĢ»áĢķ
ĠáĢ¡ áĢĦáĢº
Ġà°ªà±įà°° à°ľ
à´¸àµįà´¥ à´¾à´¨
×ĳ ×ľ
Ð°Ðµ Ð¼
ÎŁÎ ĵ
Î¼ÎŃÎ½ ÏīÎ½
¦ ¬
åĵª éĩĮ
à¹Ħà¸ ĭà¸
ĠçĪ ±
èĩªå·± çļĦ
æĸ ¼
ä¹Ł æĺ¯
µ à¤¾
Ġà´®àµģà´ ĸ
ĠÑĤ Ð¾Ðµ
Ġà´¦ à´¿à´µ
Ġà¤¯ à¥ĩ
ãĥĥ ãĤ¯
ÎŁÎ ¡
ĠÎ» ÎµÎ¹ÏĦÎ¿ÏħÏģÎ³
áĥ¬ áĥĺáĥ¤
Ġà®µ à®¿à®°
Ġà°¸à°¿à°¨à°¿à°® à°¾
à°¿à°ķ à°¾à°°
a in
ÑĦ Ð°ÑĢÐ¼
à´ İ
áĢ»áĢģ áĢ¬áĢ¸áĢ
áĤĲ áĢ¶áĢ¯
ĠáĢĸáĢ¼áĢħáĢº áĢķáĢ«áĢĲáĢļáĢº
ĠÎľ Î±Ïģ
áĥĺáĥ¡ áĥĹáĥķáĥĺáĥ¡
áĢĲ áĢĲáĢº
ĠÙĩ Ø°Ø§
Ñĥ Ð²Ð°
ÐµÐ» ÐµÐ¹
Î¸ Î¿
Ġà¤Ńà¤¾à¤° à¤¤
Ġì Ļ
Ġà¤¦ à¥Ģ
ĠÐ¿ÑĢ Ð°Ð·
à´¿à´¤ àµįà´¤
áĢ±áģ¾áĢĢ áĢ¬áĢĦáĢ·áĢ¹
áĢ¯ áĢıáĢ¹áĢ
ĠáĢ¡ áĢĲáĢ¼áĢĦáĢ¹áĢ¸
ĠáĢ»áĢķáĢĶáĢ¹áĢľ áĢĬáĢ¹áĢ
ĻáĢº áĢ¬áĢ¸áĢ¡
áĢģáĢ²áĢ· áĢĲáĢ¬
áĢĲ áĢŃáĢ¯áĤķ
áĢĢ áĢ¬áĢ¸
Ø§ÛĮ Ø´
áĢĺ áĢ¬áĢŀáĢ¬
ĠÎ³ ÎµÎ½
ĠÐ¼Ñĥ Ð½Ð¾
¸ à±įà°¥
ĠÐºÐ°ÑĢ Ð´
à¤¾à¤ «
Ġà´ĩ à´°
Ġ×ĸ ×Ķ
ĠÎ´Î· Î¼Î¹Î¿ÏħÏģÎ³
Ð¸Ð· Ð²
à¦¿à¦ ¡
Ġàª¬ àª§
Ø® Øª
Ð°ÑĤ Ð°ÑĢ
áĥĲáĥłáĥ ©
Ð¿ÑĢ Ð°Ð²
ãĥ Ĩ
Ġà®ĩà®¨à¯įà®¤ à®¿à®¯
ÑģÐºÑĸ Ñı
à´¤ àµįà´¯
ĠáĢĨ áĢĢáĢ¹áĢľ
em ber
ĠáĢĨáĢŃáĢ¯ áĢĲáĢ²áĢ·
±áĢĢáĢº áĢ¬áĢĦáĢ¹áĢ¸
áĢħ áĢ¬áĢ¸áĢľ
ĠÎ¼ÎŃ ÏĩÏģÎ¹
Ġà®ĩ à®¯
áĢĢ áĢ½áĢļáĢº
à±įà°° à±Ĩ
á½ ¸
ĠÎ¼ Î¿
à¦ ·à§įà¦Ł
Ġàª® à«ĭàªŁ
Ð¸Ð½ Ñĭ
Ð°Ñħ Ð¾Ð´Ð·Ñĸ
áĢ¡áĢ±áĢĶ áĢĶáĢ²áĤĶ
áĢĶáĢ¹áĢĳ áĢĻáĢ¹áĢ¸
ĠáĢĸ áĢ¯áĢĶáĢ¹áĢ¸
ĠáĢ»áĢĸáĢħáĢ¹áĢ ŀáĢĬáĢ¹
ĠáĢ¡ áĢĢáĢ¼
Ġà¤° à¤¹à¥Ģ
Ġ íķ´
ĠáĥĲáĥ Ĵ
ĠÑī Ðµ
áĢ¬ áĢı
à®¾à®² à¯ģà®®à¯į
Ġà°ļà±ĩà°¸ à°¿à°¨
Ø¨ ÙĦ
Î¿Ïį Î¼Îµ
Ġà¤ħ à¤¬
áĢģáĢ» áĢŃáĢ¯áĢ·
Ð°ÑĤÑĮ ÑģÑı
ĠÐĳ Ð°ÑĢ
áĥ£ áĥĲáĥļ
Ġ×ľ ×ŀ×
ĠÎº Î¿Î¹Î½ÏīÎ½
ÎŁÎ ļ
Î» ÏĮÎ³
Ġà´Ł àµĨ
à§Ł à§ĩ
Ġà¤¬ à¥Ī
ĠÎºÏħ Î²
Ġà¦¬ à§ĩà¦¶
Ġà° Ĳ
ĠáĥĽ áĥĲáĥĽ
ĠÐ£ÐºÑĢÐ°ÑĹ Ð½Ð¸
ÐºÐ¸ Ñħ
àµĭ à´¯
Ð¸Ñı Ð¸
ĠÏĩ ÏİÏģÎ±
ÑĤ ÑĥÑĢ
Ġth is
ĠáĥĹ áĥ£áĥĽ
ĠØ§ Ø¯
ì¹ ´ëĿ¼
ë° ©
àª¾àª¤ à«įàª°
èĢģ èĻİ
i b
Ġà¸ Īà¸°à¸
Ġçİ¯äºļ å¹³åı°
Ġ ç½ĳ
åĤ ¨
à¹ģà¸ Ľà¸
ĠçŃ ī
ï¼ ģ
æ° ¸
1 åĪĨå½©
áŀ ı
à¸Ļà¸µ à¸
ģà¸´à¸ Īà¸
à¹ģà¸ ľ
à¥įà¤¯à¤¾à¤ ¯
Ġf ig
àµģà´¦ àµįà´§
ĠáĢ±áĢĨáĢ¬áĢĦáĢ¹áĢ ĽáĢ¼áĢĢáĢ¹áĢ
áĢľ áĢŃáĢĻáĢ¹áĢ·
ĠáĢĻ áĢĽáĢ¾áĢŃ
ÑģÐ¿ ÑĥÐ±Ð»Ñĸ
ãĤ «
ĠØ³ Ùħ
Ġà¤¦ à¤¿à¤¨
ĠÐ¼ Ð°ÑģÑĤ
Ġà°ľ à°¨
ĠÐ¾Ð½ Ò³Ð¾
Ð· Ð½Ð°Ñĩ
è®¤ ä¸º
å¤§ å®¶
ä¸ļ åĬ¡
èĦ ±
åĪ ¸
«à¸Ļà¸¶ à¹Īà¸ĩà¸
åĪ ļ
ä¸¾ è¡Į
Ġà¤ķà¤° à¥Ĥà¤¨
ê± ´
ĠáĢ±áĢ»áĢķáĢ¬ áĢŀáĢĬáĢ¹
áĢĶáĢ¹ áĤķ
Ġ áĤıáĢ½áĢħáĢ¹
áĢĲ áĢĶáĢ¹áĢ¸
ĠA M
áĢŁ áĢŃáĢ¯
Ġà®ª à®¿à®±
ĠÎ¼ Î¬
ĠØª ØŃ
áĢ»áĢĸáĢħáĢ¹áĢ ŀáĢĬáĢ¹
±áģ¾áĢĢ áĢ¬áĢĦáĢ¹áĢ·
ĠáĢĴáĢ® áĢĻáĢŃáĢ¯
áĢ¶ áĤĶ
ľ áĢŃáĢ¯
à¤¦à¥įà¤ ¦
áĢĽ áĢŀáĢĬáĢ¹
ĳ áĢ¯áĢĲáĢ¹áĢ
áĢĨáĢŃáĢ¯áĢĦáĢº áĢĽáĢ¬
áĥķ áĥĺáĥļ
Ġà°¦ à±ĩà°¶
ĠÑģÑĤ ÑĥÐ´
Ġì µľ
ĠÏĢ Î¯
Ġà¤ľ à¤¾à¤¨
Ð°Ð²Ð°Ð½ Ñĭ
à«įàª ¡
Ð¾ ÑģÐº
Ġà´ı à´±àµįà´±
ĠáĢ¡áĢŀ áĢĢáĢº
ĠÐ¼Ðµ ÑģÑĤ
ĠáĥĻ áĥĺáĥĵ
Ġ×Ķ× ¤
ĠÎĳ Î³
áĥĲáĥ Ń
ĠâĢ ¢
ÑģÑĸ Ñħ
áĢĳ áĢĢáĢ¹
áĢĲ áĢ¯áĢŃáĢĦáĢ¹áĢ¸
áĢĦáĢļáĢ¹áĢ ģáĢºáĢĦáĢ¹áĢ¸
Ļ áĢ»
Ġà®¨ à¯ĩà®°
Î´ ÎŃ
Ġà¦ħà¦¨ à§ĩà¦ķ
ag æĹĹèĪ°åİħ
Ġ *
à¹ ĭ
Ī à¸Ļà¸
à¹Īà¸ ¡à¹Ģà¸
à¹ Ĭ
à¥ĩà¤Ĥà¤ ¦
ĠØ³ ÙĪ
ĠÑĤ Ð°Ð¼Ñĥ
Ġfr om
ĠáĥĽ áĥĻ
11 1
Ġor g
åľ ³
ŀ à¸´
Ġè Ĭ
èģĶ ç½ĳ
à¸Ńà¸µà¸ ģ
à¤ķ à¥įà¤ķ
ĠÏĥÏħ Î³
ĠìĹ Ĩ
à«Ģàª Ł
Ġà¤ķà¤° à¤¤à¥ĩ
áĥĶáĥłáĥ ķ
Ð½Ð¸ ÑĤÐµ
ãģ¾ ãģĹãģŁ
à°¬ à±įà°¬
Î¼ Î±Î¹
àµĢ à´ķàµįà´·
ĠÐĲ ÑĢ
ĠÎ¿Î¹ÎºÎ¿ Î½Î¿Î¼
ÛĮÚ© ÙĨ
å¾ Į
å¼ ¹
à¸£à¸ ´
ª à¹Īà¸ĩà¸
éľĢ æ±Ĥ
é¡ º
è¿Ļ äºĽ
ä¸ĩ åħĥ
å§Ķ ç»ŁæĪĺ
ĠãĢĤ âĢľ
ç§ Ł
«à¸ ¢à¸
æ¯ Ľ
åı£ è¯Ģ
à©Ĥ à©°
æ ¦Ĥ
à¸£à¸ ĸà¸
çĿ £
«à¹ĩ à¸Ļ
Ħ à¹Į
å «
à¸Ńà¸²à¸« à¸²à¸£à¸
åľ° æĸ¹
¶à¸ ģ
6 7
æĭ Ł
Ġà¸ Ľà¸
é¡ ¶
Ġ2 66
éĽ ¶
è® ¨
ą ĆĈ
ĭà¸ ·à¹īà¸Ń
å® Ī
5 9
à¥įà¤¯ à¤Ĥà¤¤
Ġàªľ à«Ģàªµ
áĥĶáĥĳ áĥĶáĥĳáĥĺ
ĠáĢĨ áĢ±áĢ¬áĢĦáĢºáĢĽáĢ½áĢĢáĢº
Ø¹ Ø±
ĠáĢ¡ áĢĳáĢŃ
à°¾à°¦ à±ģ
ÑĥÐ² Ð°ÑĤÐ¸
Ð± Ð¾Ð»
à¦¤ à§ĭ
áĢ¬áĢ¸áĢ ĲáĢ²áĢ·
ĠH ome
áĢĽáĢ®áĢ¸áĢ ļ
Ð³ Ð¸Ð»
ĠÐ² Ð°Ðº
áĢĻ áĢľáĢ²
áĢĢáĢº áĢĦáĢ¹áĢ
ĠáĢ±áĢĴáģļ áĢ±áĢ¡áĢ¬áĢĦáĢ¹áĢĨáĢĶáĢ¹áĢ¸áĢħáĢ¯
áĢĻ áĢ¹
id e
áĢĽ áĢĢáĢº
ĠÐ³ ÑĥÑĢ
ÏģÎ· ÏĤ
Ġà´ķ àµģà´Ł
ĠØ® ÙĪ
áĥ¥ áĥĿáĥľ
ÏĢ Î±Î¹
Ġàª® à«ĭàª
à®¾à® Ļà¯įà®ķ
Ġà°® à±ģà°
àª Ŀ
ĠÐ³ÑĸÑģÑĤ Ð¾ÑĢÑĭ
ĠÏĨ Ïī
Ð¾ÑĪ ÑĤ
Ġìĥ Ŀ
Ñĥ ÐµÑĤ
Ġà¤® à¤¨
Ġà´¨à´¿à´¨àµįà´¨ àµį
Ġ×ŀ× ª
ç§ ĺ
ģà¸²à¸£ à¹Ģà¸
Ġà¸ Ħà¸§à¸²à¸¡à¸
Ġè¢ «
æĹ¥ æľ¬
ai l
Ġå¹ ³
æĽ´ å¤ļ
äº¤ æĺĵ
à¤Ĥà¤ §
áĢĢ áĢĲáĢ±áĢ¬áĢ·
à±ģà° ¬
ĳáĢ² áĢĢ
ÙĪ Ø§
Ð½ÑĸÑĨ ÑĤÐ²Ð°
±áĢĽ áĢ¬áĢĢáĢ¹
áĢŃáĢ¯áĢ¸áĢ ¡
Ġà®ķ à®µ
ĠáĥĽáĥĺáĥĽ áĥĲáĥłáĥĹ
àª¨ à«įàªŁ
ĠÏĥ Î®Î¼ÎµÏģÎ±
áĢ¸áĢĲ áĢħáĢ¹áĢ
áĢĤ áĢ»
ĠÐº Ð¾Ð¶
Ġà°® à±Ĥà°
Ġà¦® à¦¹
ĠÏĢ Î»Î±
Ð°Ñĩ Ðµ
ĠÐ²ÑĭÐº Ð°ÑĢÑĭÑģÑĤ
Î½Î¿ Î¹
ìĤ¬ ìĿ´íĬ¸
Ġà°µ à°¸à±įà°¤
áĥľ áĥĺáĥ¨áĥķ
à¯ģà®³ à¯į
Ð¼ Ð¾ÑĤÑĢ
å° į
łà¸²à¸ ©
ĸà¸ ·à¸Ń
à¸£à¹Īà¸§à¸ ¡à¸
Ĺà¸ ±
Ġï¼Į ãĢĬ
Ġå¾ ®
åŁº æľ¬
Ķà¸ ±à¸ļ
ĠãĢĳ ,
æ´ ĭ
Ġçİ¯äºļag å¹³åı°
Īà¸ ³
Ġà¤ħ à¤Ń
Ð²Ð°Ð½ Ð½Ñı
ĠÏĢ ÎŃ
ĠÙħ Ø¬
Ġà¦ķà¦¥ à¦¾
íĥ Ģ
à°¬ à°¡
Ġà´ŀ à´¾à´¨àµįâĢį
Ġà´İà´¨àµįà´¨ à´¿à´µ
Ð¾Ð² Ð°ÑĢ
ç¨ĭ åºı
æİ¨ èįĲ
à¹īà¸Ńà¸ ¡
è´ ´
à¤¾à¤¸ à¥įà¤¤
Ġàª¤à«įàª¯ àª¾àª°à«ĩ
Ġáĥ¡áĥĲáĥ ¤
à®¿à®© à¯įà®©
à¦¾à¦° à§ĩ
ĠÙĪØ² ÛĮØ±
ĠÏĮ ÏĩÎ¹
áĢĺ áĢ°áĢ¸áĢľ
Ð°Ð¹ Ð½
áĢ±áĢĲáĢ¬ áĢĦáĢ¹áĢ¸
áĢ¯áĢ¶ áĢ¸áĢħ
ĠØ§Ù¾ ÙĨÛĮ
Î´ ÏģÎ¿
ĠÐŀ Ð±
ĠáĢ¦ áĢ¸áĢ
ÑģÑĤÐ°Ð½ Ð¾Ð²
ĠÑı Ð½Ð°
×ª ×Ļ
áĤĨ áĢĶáĢ¬
Ķ áĢ¬
Ĳ áĢ¯áĢŃáĤĶ
ģáĢº áĢĢáĢ¹
ĠáĢľ áĢ¾
à¤Ĥà¤ Ł
ĠìĦ ¸
à´¿à´Ĥ à´Ĺ
ĠÙĥ Ø§ÙĨ
à¦¾à¦ «
Ø§Ø¯ ÛĮ
Î¶ ÏĮ
Ð½Ðµ Ð¹
à«Ģ àª¨àª¾
áĥ£áĥłáĥ ¡
ĠÎ±Ïħ ÏĦÎ¬
à®¿à®Ł à®®à¯į
áĥĿáĥĳ áĥĲáĥ¨áĥĺ
Ð¸Ð» Ð¸ÑĪ
ĠÐ¼ Ð°ÑĪ
ĠáĢĶáĢ¾ áĢĦáĢ·áĢº
ĠâĢĿ ,
ĠÐŁ Ð°Ð´
Ġà®ļ à®¿à®²
Ġà¦¬ à¦¾
ĠÎŃ Î½
ÑĤ Ñį
áĥĶáĥ¥ áĥ¡
Ð¸ÑĢ Ð¾
Ð½Ð¸ Ð¼
Ġw as
ÏĢ ÏĦÏħ
×Ļ× ¦
áĥĲáĥĹ áĥķáĥĺáĥ¡
àª¾àª Ł
ĠÎ² ÏģÎ¯
ĠáĥĽ áĥĿáĥĴ
Ð² Ð°ÑİÑĨÑĮ
à´¿à´Łàµįà´Ł àµģà´£àµįà´Łàµį
Ġà¤ª à¥Ģ
Ø¨ Ùĩ
ĠÑ ĺ
Ġà°¸ à±įà°ª
Ð¸ Ñĩ
ĠÙħ Ø·
Ġåı Ī
ĠåĽ ¾
å° ģ
ä¼ ¼
Ġåħ ±
à¸´à¹Ģà¸ ¨à¸
éĩį åºĨæĹ¶æĹ¶å½©
à ²
Ĺà¸ ±à¸
Ġå ¢
ç« ¥
Ġag ç½ĳä¸Ĭ
åħ· æľī
©à¸ ±à¸
_ å¤§åıĳ
ar d
æ¯ Ĵ
Ġåħ¶ ä¸Ń
Ġà¤Ĺ à¥ĭà¤
àª¾àª ī
ĠáĢ¡áĢ±áĢ»áĢģ áĢ¡áĢ±áĢĶ
áĢ¸ áĢ¸
áĢŃ áĢĶáĢ¹
áĢĻ áĢŁáĢ¯áĢĲáĢ¹
ed ia
áĢĲ áĢŃáĢ¯áĢĢáĢº
ĠÐ¿ÑĢ Ð°Ð¿
Ġí ĸ
Ġ à¬
Ġà¤µà¤¿à¤ ¶
à´µ à´°àµįâĢį
à´« àµį
Ġà°ħ à°Ĥà°Ł
ÑĥÐ¿ Ð¸ÑĤÑĮ
ĠÐł Ð¾ÑģÑģÐ¸
Ġï¿½ï¿½ï¿½ï¿½ï¿½ï¿½ ï¿½
ÏĢ ÏĦ
Ð¼ Ð¾Ð¶
áĥĵ áĥĿáĥĽ
áĢĢáĢŃáĢ¯ áĢĦáĢº
Ġà´¸à´Ĥ à´Ń
ĠÚ© Ø§Ùħ
Ñģ ÑĨ
à±ĩ à°¨
ĠÑģÑŀ Ð·
ĠÐ¸ ÒĽÑĤÐ¸Ñģ
àª¾àª ı
ĠáĢĻ áĢĶ
ĠP h
ĠáĢ±áĢĳ áĢ¬áĢĢáĢ¹áĢ
áĢĻáĢ½áĢ¬ áĢķáĢ«
áĢ¬áĢ¸áĢ ±áĢĶ
ĠáĢĲáĢĽ áĢ¯áĢĲáĢº
à®° à¯įà®µ
Îº Î·ÏĤ
á½ ¶
Îķ Î¤
ĠÎĶ Î¹
ÑģÐ¸ ÑĤ
×Ļ× Ĺ
Ġáĥŀ áĥĲáĥ¢
áĢ¸áĢ±áĢ Ĩ
áĢĶáĢº áĢ·
ĠÎķ ÎĽ
ÏĨ Î¬Î»
Ïĩ Ïī
Ġà´µàµįà´¯ à´ķàµįà´¤
Ġà°® à°¾à°¤à±įà°°
ĠÐ³ Ð°Ð¿
ÙĪ ÙĬ
Ġâķ §
ĠÐĲÐ»Ñı ÐºÑģ
Ġà¤¬ à¤¾à¤¤
Ð´Ð¸ Ðº
ĠÎ¬ ÏģÎ¸
ĠØ± ÙĪØ²
àª ł
ĠÐ¼Ð°Ð³ ÑĩÑĭ
Ïģ Î¿ÏħÏĤ
Ġáĥ¢ áĥł
ĠÐŀ ÑĤ
ĠÐ´ Ð¾Ð¼
à§įà¦¬ à¦°
Ġêµ Ń
ĠÐ± Ð°Ò³
±áĢĽ áĢ¸áĢ¡
Ġáģģáģ Ħ
Ġàª¬ à«Ģàªľ
Î» Î¹Îº
à´¨ à´¿
Ð¸ÑĢ Ð¾Ð²Ð°Ð½
Ġà¤¹ à¥ĭà¤Ĺ
å§Ķç»ŁæĪĺ éĥ¨
Ġè¯ ´
áŁĴáŀ ļáŀ
ĠçĽ® åīį
åŃ© åŃĲ
å¼Ģå¥ĸ åİĨåı²
è¿ĺ æĺ¯
ĠãĢĳ, ãĢĲ
æľĭ åıĭ
Ġé ľ
Ġç Ĳ
Ġé© ¬
å° ļ
5 00
Ġ6 8
çº¢ é»ĳå¤§æĪĺ
à¸²à¸£ à¹Įà¸
Ķ à¹Į
Ġag çİ°éĩĳ
à¸£à¸ ĸ
Ġà¤¤ à¤¸
áĢļáĢ· áĢ¹
áĢĢáĢ¹áĢ ĻáĢ½áĢ¬
áĢĽ áĢ½áĢ¬
ķáĢ¼ áĢĬáĢº
Ø¬ Ûģ
Ġà°ľ à°°
à®² à®ķ
áĢ ĮáĢ¬áĢĶ
ĠÑĢ Ð¾Ð±
à¦¾à¦° à¦£
ĠÎ² Î¿
áĢľ áĢ¯áĢŃáĤĶ
áĢĸáĢ¼áĢħáĢº áĢķáĢ«áĢĲáĢļáĢº
áĢģáĢ²áĢ· áĢŀáĢĬáĢ¹
áĢ±áĢĻ áĢ¾áĢ¬
ĠáĢĢ áĢ°áĢĬáĢ®
ĠáĥĹáĥ£áĥĽ áĥªáĥĲ
Ð°ÑĨÑĭÑı Ð½Ð°Ð»ÑĮ
ĠÐŁ Ð¾
áĢģ áĢ½áĢĦáĢ·áĢº
ĠÙĨ Ø¸
Ġà°®à±Ĭ à°¦
Ġà´® àµĭ
ĠÎ³Î¹Î± ÏĦÎ¯
×¨ ×Ļ×Ŀ
Ġå± ±
Ġç ĥ
å®ŀ æĸ½
à¥įà¤ §
Ð°Ñ į
ĠÎĳ Îł
ÏĢÎ¿Î¹ Î®
Ðł Âµ
Ð½Ñĸ ÑģÑĤÑĮ
Ð»ÐµÑĤ ÐºÑĸ
ĠÑıÐ½ Ð³Ð¸
i y
ĠÐº ÑĥÑĩ
ÑĦ Ð¸
ĠÑĤ ÑĥÑĤ
ĠáĢĲ áĢ¼áĢĦáĢ¹
áĢŀáĢĬáĢº áĢ·
à«ĩàªµ àª¾
ĠØ§ÙĦØ «
ĠÎ¼ ÏĢ
áĢĽáĢ½ áĢļáĢº
à´¯ à´¿à´²
Ġëı Ħ
ĠÐ¿ÐµÑĢ Ð°Ð´
ĠÙĤ Ø±
áĥĲáĥķ áĥĲáĥĵ
ÐµÐ» Ð¾Ð²
ÏģÎ¹ Î¬
Ġà¤ķ à¥įà¤¯à¤¾
Ġà®ķà¯Ĥ à®Ł
Ġà°µà°¿à° ľ
Ð°Ð½Ð´ Ð°Ð¹
ĠÐ¼ÐµÑĪÐ°Ð² Ð°Ð´
Î½Î¿Î½ ÏĦÎ±Î¹
à´¿à´ ¦
à§Ĥ à¦²
áĢķáĢ¹áĢ ŀ
Ķ áĢ²áĤķ
ĠáĢ¡ áĢĲáĢ°
à¤¿à¤ ľ
ħ áĢ¥áĢ¹áĢ
áĢĻáĢ½ áĢĲáĢ¹áĢ
áĢĢáĢ¹áĢ ķ
áĢĢáĢ¹áĢ ĽáĢ½áĢŃ
áĢ± áĢĢáĢ¼
±áĢĢáĢ¬áĢĢáĢ¹áĢ ķáĢ¼áĢ²
ģáĢ» áĢĢáĢº
Ð ģ
ĠÐ¿ Ð°Ð»
ÑĨÑĸ ÑĹ
ãĥ £
à°µ à±įà°µ
ĠÐ¼ Ð°ÑĤ
à«Ģàª §
áĢĽáĢĦáĢ¹áĢ ±áĢĲáĢ¬áĢ·
ĠáĢ¡ áĢŃáĢĻáĢº
ĠÎł ÏģÏĮ
Ġà´ļ à´¿à´²
u st
ĠØ® Ø§ÙĨ
Ð½ Ð°ÑĤÐ°
ĭà¸ ·à¹īà¸Ńà¸
Ġç ģ
ļ à¹īà¸²à¸Ļà¸
Ġà¸ ľà¸¹à¹īà¸
æ ¦
åı ³
å¢ŀ åĬł
à¤¾à¤¸ à¤¾à¤łà¥Ģ
Î²Î¬ ÏĥÏĦÎµ
ĠÏĢÎ± ÏģÎ¿Ïħ
Ġà°ªà°¾à°°à±įà°Ł à±Ģ
Ð¾ Ð»Ñĸ
Ġáĥĳ áĥĲáĥķáĥ¨
Ġà°¨à±ĩ à°¨à±ģ
ĠÐ¿ÑĢ Ð¾ÑģÑĤ
áĢļáĢ¹áĢľ áĢ¯áĢŃáĤĶ
áĢĶáĢ¹áĢ Ľ
ĠáĢŀ áĢħáĢ¹áĢ
áĢ¡ áĢ±áĢķáģļ
ĠS h
Ġáģ¾áĢĢ áĢĬáĢ¹áĢ·
ĠáĢ±áĢĽ áĢ¬
áĢ±áĢŀ áĢ¸áĢ
ĠáĢķ áĢĶáĢ¹áĢ¸
áĢĢáĢ¼ áĢĬáĢ·áĢº
à®² à¯įà®µ
Ġà°ľ à°°à°¿à°Ĺ
Øµ Ø±
ÎĻÎ ¤
Î´ Î¬
Ġ) ;
àª¤ à«įàª¯
Ġà¤° à¥Ĥà¤ª
ë§Į ëĤ¨
ìĺ Ī
Ġáĥ¨áĥĶáĥ £áĥ
ĠÐµ ÑģÐ»Ð¸
Ġë° ©
Ġà¦¸ à¦¾à¦®
ĠÏħ ÏĢÎµ
ĠÐ±ÑŀÐ» ÑģÐ°
Ð¶ Ð°ÑĤ
Ð¾Ð· Ð¸Ð¼
ĠØª Ú¾ÛĮ
Ø¯ ÙĬ
hen g
ļà¸£à¸´à¸ ģà¸²à¸£à¸
è¡ Ĺ
à¹ĥà¸ ģà¸¥
äºĨ è§£
ig ht
i x
à¨ Ł
Ġà¸ «à¸²à¸
áī µ
Ġ8 0
±à¸ ĩà¹Ģà¸
1 88
ç© ¿
å© ļ
Ġä¸Ĭ æµ·
åģ¥ åº·
īà¸ ±à¸Ļà¸
ï¼ Ł
à¹Ī à¸Ń
è±¹ åŃĲ
Ġ ä¿Ŀ
Ĥà¸²à¸ ¢à¸
ªà¸ ¡à¸±à¸
åįģ åĪĨ
Ġà¤µà¤¿à¤ ¦
Ġà®ķ à¯ģà®Ł
Ġ×Ķ× ł
Î³Î³ ÎµÎ»
à±įà°¯ à±Ĥà°
ĠØ´ ÙĪØ¯
ĠáĢģ áĢĦáĢ¹áĢ
ĠáĢ¡áĢľ áĢ½
ĠáĢĲ áĢĢáĢ¹áĢ
áĢ±áĢ¸áĢ ħ
ĠÑĩ Ñĭ
Ġàªķ à«ĭ
Î¹ ÏİÎ½
áĥĺáĥĻ áĥĲ
ĠÐĲ Ð·
ĵà¸ °à¸
à¹ĩà¸ Ķà¸
Ġéļ ı
à¥įà¤¯ à¤µ
à§ģ à¦¦à§įà¦§
Ġàªľ à«ĩàª®
ĠÎºÎ±Î» ÏįÏĦÎµ
áĥĶáĥĳ áĥĲáĥ¨áĥĺ
ÐµÐ½Ð¸ Ñİ
ÑĤ ÑĢÑĭÐ¼
±áĢ ļáĢ¬áĢĢáĢ¹
ĠáĢĳ áĢĦáĢ¹áĢ
ĠáĢħ áĢĢáĢº
ÑĤ Ñı
Î¼ÏĨÏīÎ½ Î±
ĠÑŀ Ð¶Ð¾
Ġà´® à´±
áĥ£áĥłáĥ ľ
à°² à±įà°²à±ĭ
ĠÐ°Ñģ Ð¾Ñģ
ĠáĢĻ áĢĬáĢ¹áĢ
ĠáĢ¡ áĢ¬áĢ¸áĢ
Ġáģĥ áģĢ
Ĺà¸ ±à¹īà¸ĩ
èĪ ĩ
è§ Ī
çĽ´ æİ¥
ç¬¬ äºĮ
à¥įà¤ ŀ
áĥĿáĥĵ áĥĶáĥ¡
à® ·
ĠÐĴ Ñĸ
àµĢ à´¤
ĠÑģ ÑĮ
ĠÐº Ð°Ð·
áĢľ áĢ¯áĢķáĢ¹
ĠáĢĵ áĢ¬áĢĲáĢ¹áĢ
áĢĸ áĢĢáĢº
ÑĩÑĭ Ð½
ĠÎł Î±Î½
à±ĩà°¦ à±ģ
ĠÐ´ Ð°Ðº
ĠÚ© Ø³ÛĮ
ĠÐ¼Ð¸Ð» Ð»Ð¸
Ø³ Ùħ
Î¼Î± ÏĥÏĦÎµ
ĠáĢĲ áĢĦáĢº
Ġà¦ļ à¦²
Î½ Îµ
ìľ ł
Ġà®ª à®ķ
áĢ¸áĢľ áĢ¯áĢķáĢ¹áĢ
ĠáĢĢ áĢĻáĢ¹áĢĺ
Ñĥ Ðµ
ãĥ ¡
à°² à°ķà±ģ
à´ ł
ĠÏĢ Î±Î½
à«įàª ¦
ĠÐ¾Ð± ÑĬ
ĠØ§ÛĮØ± Ø§ÙĨ
Ġå· ²
Ġà¤Ĩ à¤¤à¤¾
×¨ ×Ľ
à¦ķ à§įà¦°
Ø ¢
ÏĢÎ¿ Ïį
Ð¼ Ð°Ð¹
ĠÐº Ð°ÑĤ
áĥ£áĥ ¢
à¹Īà¸²à¸ ĩ
ç½ ²
Ġagçİ¯äºļ æīĭæľºå®¢æĪ·ç«¯
à¸£à¸¹à¹īà¸ ªà¸
å· ¨
ä½ĵ ç³»
ä¸Ģ æ¬¡
ĠæĹ¥ æľ¬
Ġæ Ĳ
à¥įà¤¯ à¤®
à°¾à° Ĺà°¾
ĠÐĶ Ð°Ð²
à« ī
ĠÐ¾ Ð¹
Î¼ÎŃÎ½ Î¿Ïħ
ĠÐºÐ¸ ÑĤÐ¾Ð±
Ġà¸ Ħà¸¸à¸ĵà¸
çīĪ æľ¬
æĬ¥ åĳĬ
§à¹ĩà¸ ļ
Ħà¸ ¥à¸
åŃĺ åľ¨
Ġ à¹ĥà¸Ļ
é² ľ
æıĲ åįĩ
Ġæ¬ §
Ġà¤ķà¤° à¤¤
ĠÐ°Ð´ Ð±Ñĭ
Ġáĥĵ áĥłáĥĿáĥ¡
ĠÑĢÐ¸Ð² Ð¾Ð¶
ĠÐ¼Ð°ÑĬÐ»ÑĥÐ¼ Ð¾ÑĤ
Ñĸ ÑĪ
à´® à´¾à´£
ëĭ ¨
Ð¾Ð· Ð¸ÑĢ
Ġà°ħà°¯ à°¿à°¤à±ĩ
Ð¸Ð» Ð°
à´¨àµįà´ ®
à®¿à®ļ à¯įà®ļ
áĢ¡áĢħ áĢŃáĢ¯áĢ¸áĢĽ
Ð¸Ð¼ Ð°
ĠÏĢ ÏģÎ¹Î½
áĢ¥ áĢ®áĢ¸
áĢĳáĢ¬áĢ¸áĢ ĲáĢ¬
ĠáĢĲ áĢŃáĢ¯áĢĦáĢºáĢ¸áĢ
ĠÐ· Ð¸Ñĳ
áģ¿áĢĻáĢŃáĢ³áĤķ áĢĶáĢļáĢ¹
áĢ± áĢ¸áĢĢáĢŃáĢ¯
Ġà¦¯ à¦¾à§Ł
ĠÐ½ Ð°Ð¹
Ġn ot
ÙĪ ÙĤ
Ġà´® à´¾
ëĲ ľ
ä¸» ç®¡
en d
ĠM ar
æ¶ ī
¥à¸ ¢à¸
j s
ç¾İ åħĥ
ä¼ ¦
à¥ĩà¤ ¡
áĢ¬áĢŀ áĢ®
ĠáĥĽ áĥĺáĥĶáĥł
àµĤà´Ł àµĨ
à®¿à®Łà¯įà®Ł à¯ģ
ÎµÎ¹ Î±ÏĤ
ĠÐ²Ñĭ Ð´
am il
Ġà®® à¯ģà®±
à°§ à±įà°¯
ãģ® ãģ§
ÛĮ Ø³Øª
ĠÐ¿ÑĢ Ð¸Ð½
ÎŁÎ ¤
ĠÎ¤ Î¹
ĠÏĥÏħ Î³Îº
Ġàª¹ àªµà«ĩ
ĠáĢĽ áĢĽáĢ½áĢŃ
ĠáĢĴáĢ«áĢ±áĢķáĢĻ áĢļáĢ¹áĢ·
áĢ¬áĢ¸áĢĲ áĢ½áĢĦáĢº
ĠÐ°Ñģ Ð°Ð±
Ġáĥĳ áĥł
Ø´ Ø±
àªĤàª¤ à«ģ
ĠÎķ Î¯Î½Î±Î¹
ÑĨÐ¸ Ð°Ð»ÑĮ
Ġà®® à®Łà¯įà®Ł
à´Ļàµįà´Ļà´³ à´¿à´²àµįâĢį
à¦¿à¦ Ń
Ġà´ħ à´¤àµį
ĠÐ±ÑŀÐ» Ð°Ð´Ð¸
ÑĤ Ð°Ð±
Ġà°ª à°¡
ÏģÎ· ÏĥÎ·
Ġç ł
æľª æĿ¥
à¸Ńà¸ ·à¹Īà¸Ļ
Ġà¨ Ĺ
æŁ ĵ
Ġèĭ ±
èģĶ ç³»
æĵį ä½ľ
Ġ à¹Ħà¸Ķà¹īà¸
Ġå Ń¦
Ġà¤ ĵ
ÑģÐº Ð°
×Ļ× ļ
ĠÐ¸ÑģÐ¿ Ð¾Ð»ÑĮÐ·
ĠÐĳ ÑĥÐ½
Ð°Ð» Ð»
ĠØ±Ûģ ÛĴ
Ð°Ð½ ÑĭÑı
Î¸ ÏģÏİ
Ø´ ÙĨ
ĠáĥĶáĥłáĥĹ áĥĲáĥĵ
Ġà°ķ à±įà°°
ĠÐ¿Ð°Ñģ Ð»Ñı
ĠÎµ ÏĨ
Ġ×ĳ ×©
à«ĭàª ª
Ġë¬ ¸
Ġà®ĩ à®¤à¯ģ
à¦¬ à¦¾à¦¦
à´ļàµįà´ļ àµį
ĠØ «
ĠÒ³ Ð°Ñĳ
áĥľáĥĺáĥ¨áĥķ áĥľáĥĶáĥļ
ĠÏĦ ÏģÎ¿
ĠåĲ Ī
æĬ Ĺ
Ġà¤µ à¤¾à¤¢
ĠÐ´ Ð¾Ð´
à°¿à°¸à±įà°¤ à±ģà°¨à±įà°¨
à¦ ¯
ÐµÐ¹ ÑģÑĤÐ²
ĠÎŃ ÏģÎ³
ãĥ ŀ
æ¯Ķ è¾ĥ
éĻ Ħ
ç¼ ©
6 1
æį Ł
ä¸Ģ å®ļ
ĠçľŁ äºº
Ġ ä¼ļ
Ġç ĭ
çŃ ĳ
ä¸ Ŀ
Ġà¹ģà¸ ¡
é© °
ĠæĬ Ĭ
Ġà¸ ģà¹ĩ
é¢Ĩ åŁŁ
ç® ±
à¤¶ à¥Ģ
à´¿à´ķ àµ¾
ĠÐĿ Ðµ
ÏĪ Îµ
Ġáĥ¡áĥĲáĥĶ áĥłáĥĹ
ĠáĢ±áĢ ģáĢº
±áĢķáĢ« áĢĦáĢ¹áĢ¸
áĤĲ áĢ¯áĢ¶
ur m
ĠáĢ¡ áĢĸáĢ½áĢ²áĢ·
Ð «
Ð°ÑĨ Ðµ
Ġà°ħ à°¸
Ġà¸ª à¹Īà¸§
Ġà¤ªà¥įà¤° à¤¶
Ġàª¸ à«Į
áĢľ áĢ¯áĢŃáĢĢáĢ¹áĢ
ĠáĢĲ áĢħáĢ¹
ħ áĢ¬
ĠÎ¿ÏĢÎ¿ Î¯Î¿
±áĢ »áĢķ
áĢģáĢ¶ áĢ³
ĠáĢ±áĢĲáĢ¬ áĢĦáĢ¹áĢ
áĢģáĢº áĢħáĢ¹áĢ
ģáĢ²áĢ· áĢĲáĢ¬
ĠÐº Ð°ÑĤÐ¾
ķáĢ« áĢĲáĢļáĢº
áĢ ĥ
áĢļáĢ¹áĢ Ģ
ĠáĢ¡ áĢĻáĢºáĢ³áĢŃáĢ¸áĢŀ
ĠáĢŀ áĢĦáĢ¹áĢ·
ĠáĢĳ áĢŃáĢ¯áĢĦáĢ¹áĢ¸
Ľ áĢķáĢ¹áĢ
áĢĻáģ¸ áĢıáĢ®
áĢĲ áĢĢáĢº
à¦ ı
Ø¬ Ùĩ
áĥĶáĥĽ áĥĳ
ĠÑĤ ÐµÐ»
ĠìĦ ±
ç» ©
æī ĳ
Ġà¤¤ à¤¿à¤
Ġà¦Ń à¦¾à¦°
ĠÂ ©
ĠÐº Ð½Ñĸ
Ġà®Ĩà®© à®¾à®²à¯į
Ñį Ñģ
ĠÙħ ÙĤ
áĥĲáĥĹ áĥĲ
ĠáĢĻáĢ½ áĢĲáĢ¹áĢ
áĢĳ áĢ¶
Î» Î¹Ïĥ
à· ı
à¤°à¥įà¤ ¤
Ð´Ð·Ðµ Ð»ÑĮ
Ġà°ķà°¾à°¨ à±Ģ
Ð°ÑĨ Ñĸ
áĢ¸áĢĻáĢº áĢ¬áĢ¸
ĠáĢľáĢŃáĢ¯ áĢ¡áĢķáĢ¹áĢ
áĢĤ áĢ¹áĢĤ
á½ °
ÎĻÎ Ķ
ÏģÎ³ Î±Î½
áĥĵ áĥĶáĥľ
ĠÑĩ ÐµÑĢ
Ġà¦¹ à¦¾à¦¸
Ġà¦ķà¦° à¦¾à¦°
ëĭ ¹
Ġ×ķ ×Ĳ
ĠÐºÐ¸ÑĪ Ð²Ð°ÑĢ
Ġw ill
Ġà¤ªà¥įà¤° à¤¦
áĢķ áĢĲáĢ¹áĢŀ
ĠáĢĽáĢģ áĢŃáĢ¯áĢĦáĢ¹áĢ
áĢĶ áĢ½
Ð°ÑĩÑĭ ÑĨÑĮ
àª¨à«įàª ¡
ĲáĢ²áĢ·áĢ¡ áĢģáĢ«
áĢģáĢº áĢĢáĢ¹
áĢ±áĢĢáĢº áĢ¬áĢ¹áĢ
Ġv ar
ĠáĢ»áĢĻáĢĶáĢ¹áĢĻáĢ¬ áĢ·
ĠáĢĨ áĤıáģµ
áĢĹ áĢº
áĢħáĢ¹áĢ Ļ
ĠáĢĢáĢºáĢ±áĢĶáĢ¬áĢ¹áĢ ĲáĢŃáĢ¯áĤĶ
áĢ»áĢķ áĢ®áĢ¸áĢ
áĢħ áĢ®áĢ¸áĢ
ĠÑĤÐ°Ðº Ð¶Ðµ
Ġãģ ĵ
ÎĹ Î¤
Î³ ÎµÎ¹
à±ĭ à°µ
Ø§Ø± Ø§Øª
Ġáĥ¡áĥĲáĥ®áĥĶáĥļáĥĽ áĥ¬áĥĺáĥ¤
Ġà´µ à´¿à´²
ÎŁÎ ł
ĠÏĦÎµ Î»ÎµÏħÏĦÎ±
ĠáĢ¡áĢ±áĢ»áĢģ áĢģáĢ¶
ĠáĢ±áĢ ľáĢ¬
áĢĽ áĢŃáĢ¯
Ġà®İ à®²à¯įà®²
Ð°ÑĪ ÑįÐ½
ĠÐ¼ Ð°Ðµ
Î¼ Î¯Î±
ĠáĥĽ áĥĶáĥĿ
Ġn b
éĶ ĭ
Ġç ´
åħŃåĲĪ å½©
äºĶ åĪĨå½©
Ġæ ¹
à¥ĩà¤ ¬
Ð°Ñģ ÑģÐ¸
ĠÎ´ Î¿
à´¯àµįà´ķàµįà´ķ àµį
Ġà®ķ à®£
Ġàªľ àª£
Ġâ Ĺ
íŀ Ī
±áĢĨ áĢ¬áĢĦáĢ¹
áĢģ áĢĦáĢ¹
ĠáĢĻ áĢŀ
ĠÐ¸ÑĪ Ð»Ð°Ð±
ĠÒ³ ÑĥÐ´
ÑģÐ» Ð¾Ð¼
Ð¸Ð» Ð¸Ðº
ĠÑŀÑĢ Ð¸Ð½
Ñĥ Ð¹
Ġà°µà°¿à° ¦
ĠÐ´Ðµ Ð³Ð°Ð½
ĠÐ´Ð°Ð² Ð¾Ð¼
ĠÎ± ÏĢÎ±
Ġ×Ĳ ×ľ
áĢŃáĢĻ áĢ·áĢº
Ð ¦
Ġà¸ Ĥà¸Ńà¸ĩ
ĸà¸ ¹à¸ģ
Ġ 888
éĸ ĭ
å¤§ å¸Ī
æĶ¿ æ²»
åĶ¯ ä¸Ģ
åĵª ä¸ª
z h
Ġç ĸ
è· Į
ç ·
åı ¬
äºĭ ä¸ļ
7 9
·à¹Ī à¸Ļà¸
10 åĪĨå½©
åĽ º
â ĸ
Ġå°Ĭé¾ĻäººçĶŁ å°±æĺ¯åįļ
à¥įà¤¯à¤¾à¤ļ à¥įà¤¯à¤¾
Ð´Ð·Ðµ Ð¹
ĠÐ¸ Ò·
Ġà¤Ĺ à¤Ī
ĠØ§ÙĨ Øª
àª¾àª£ à«Ģ
à§ĩà¦ ª
áĥłáĥĴ áĥĲáĥľ
Ġà´® àµģà´¨àµįà´¨
ĠÐ¾Ð± ÑĢÐ°Ð·
Ġt r
Ø§Ø± ÙĬ
ĠÎķ Îł
ĠÎº Î¿Ïħ
à®¾à® ª
Ð½ ÑĮ
àµįâĢĮ à´¸
Ġ Ó¯
à«ĭ àª®àª¾àªĤ
ÏĦÎ¿ ÏįÎ½
áĢģáĢº áĢŃáĢ³áĤķ
áĢ±áĢľ áĢ¬áĢĢáĢ¹
áĢ¬áĢ¹áĢĻ áĢĲáĢ®
áĢĽ áĢĲáĢļáĢ¹
áĢĢáĢ» áĢ±áĢ¬áĢº
à±Ģ à°ľ
Ġà§¦ à§
Ġáĥ¡ áĥĺáĥĽ
Ġà¦Ĩà¦® à¦¾à¦¦à§ĩà¦°
ĠÐ³ Ð¾
ÑįÐ½ ÑĤÑĢ
Ġà¤ķà¥ĭà¤ Ī
Û ķ
ĠÚ¯ ÙģØª
ĠØ¨ Ø§Øª
à®±à¯įà®ķ à¯ģ
ĠÐ²ÑĢÐµÐ¼ Ñı
Ġà´ļ àµĭà´¦
à¥įà¤ ļ
ĠÐļ Ð°ÑĢ
ĠÎµÏħ ÏģÏİ
ĠáĢķ áĢĲáĢº
Ġà¦¨à¦¿ à¦°à§įà¦¬
ĠÎºÎ¬Î½ ÎµÎ¹
à°² à°¨à±ģ
Ġë ¨
ĠáĥĻ áĥĲáĥľ
àµĩ à´±àµįà´±
ĠÙĪ Ùħ
Ġà¦¹ à¦ļ
ÏģÏī ÏĥÎ·
ÑĤÑĥ ÑĢÑĭ
áĢ¶áĢ¯áĢ¸áĢ »áĢķáĢ³
áĢ±áĢŀ áĢ¬áĢ¹áĢľáĢĬáĢ¹áĢ¸
áĢĢ áĢ¬áĢľ
ĠÑĪÐº Ð¾Ð»
Ġ×ŀ× Ĺ
áĢ· áĢ²
áĢ ¿
ĠØ³ ÛĮ
ĠÏĦ ÎµÎ»
Ġì§ Ħ
Ġà¦ªà§įà¦° à¦§à¦¾à¦¨
ĠÑĤ Ð²Ð¾ÑĢ
ÑĤ Ð°Ñŀ
Ñĥ Ò·
ĠáĥĲáĥ® áĥĲáĥļ
ÎĳÎ ľ
ĠÎĳ ÏĢÎ¿
ÏĥÏĦÎ· Î¼Î±
Ġàªīàªª àª°
Ñĸ Ð±
à¤¾à¤² à¥Ģ
Ġà´¨à´¿à´¨àµįà´¨ àµģà´Ĥ
áĥĵ áĥľáĥĶáĥľ
ĠìĹ Ĳ
Ġà¦ªà¦° à¦¿à¦¬
ĠáĢŀ áĢĬáĢº
ÏĢÎ¿Î¯ Î·ÏĥÎ·
Ø¨ Ø¯
Î³ÏģÎ± Î¼Î¼Î±
à´¶ àµįà´¯
ĠÐ¼ Ð¾Ð³
Î»Îµ Îº
à±ģà°¤ à±ģà°Ĥà°¦à°¿
à®¿à®±à¯įà®ķ à¯ģ
àª¿àª ª
Îº Î¿Ïħ
Ø¨ ÛĮ
Ġà¤ªà¤¹ à¤²à¥ĩ
Ĭà¸ ±à¸
Ġå® ¶
Ġè¿ ĳ
4 2
Ġ6 0
Ġ Z
çĬ ¯
à¸£à¸¹ à¹ī
ļà¸²à¸Ħà¸²à¸£ à¹Īà¸²
ç¿ »
áŀ ·
ķà¸ ģà¸
Ġè¡ Į
æ°´ å¹³
à¹Ģà¸ŀà¸ ·à¹Īà¸Ńà¸
Ġà¤µ à¤¿à¤ķ
áĥĺáĥĽ áĥĶ
à§ĭ à¦§
ĠÏĥÎ· Î¼Îµ
Ð½Ñĸ Ð¹
ÙĦ Ø§ÙĦ
àµĤ à´°àµįâĢį
Ġà´µ àµĩà´£àµįà´Ł
Ġìŀ ¥
à¸µà¸¢ à¸Ļ
Ć ãĢĤ
æıĲ é«ĺ
Ġà¤ķà¥ĭ à¤£
×Ľ ×ľ
ĠÐ²Ð¸Ð» Ð¾ÑıÑĤ
ĠÐ½ Ð¸
Ġw or
ĠÎ¶ Î·
Ġà¦ĩ à¦ī
Ġ) áģĬ
àµįà´ ¦
áĢ±áĢ¸áĢ ķ
ÎŃÏģ Î½Î·
ĠáĥĴ áĥĲáĥ£áĥ
ĠÐ´ Ð·Ñĸ
Ġàª¬ à«ĩàª
à°ªà±įà°ª à°Ł
ĠÂ ¤
ĠÐ½Ð°Ð² Ð°ÑĤ
ĠÎĶÎ¹Î± Î²Î¬ÏĥÏĦÎµ
ĠÏĮ ÏĢÎ¿Ïħ
à®µ à¯Ī
àµĩà´· à´Ĥ
ĠÐ¼ Ð¸Ð½
Ġáĥł áĥĲáĥĽáĥĵ
ĠáĢĻáĢŃ áĢĺ
áĢĻáĢº áĢ¸áĢĲ
à«ģàª ĸ
ĠØ¯ Ø§Ø´
Î³ Î¬
Ġà¦Ĩ à¦ľ
Ïĥ Î¹Î¬
Ġí Ĭ
Ð°Ð³ Ð¾Ð´
Ġà¤®à¤¹ à¤¾à¤°
ļ à¥ĩ
áĢħ áĢŃáĢĲáĢº
Ø¯ ÙĬØ¯
ĠØ§ ØŃ
Ġà´¸ à´¿à´¨à´¿à´®
ÑĤÐ¸ ÒĽ
ÏīÎ½ Î¹Ïĥ
à§ĭ à¦¸
à«ĩàªµ à«Ģ
Ġà´µ à´¨àµįà´¨
Î´ ÎµÏħ
ĀĀĀĀ ĀĀĀĀ
ãģ¨ ãģĦ
áĥĶáĥ ¨áĥĺ
áĢ±áĢŀ áĢĬáĢº
ĠÑ ľÐµ
à´¾à´° à´Ĥ
ĠÏĥÏĩ Î¿Î»
à°¿à°Ĥà°ļ à°¿à°Ĥà°¦à°¿
ĠÐ¼Ñĥ ÑĤ
Ðł Ñĳ
ÑģÑĮÐº Ð¾Ð³Ð¾
Ð°Ð² ÐµÐº
å» ¶
ĠåĪ ĺ
Ġåį Ĺ
Ġ36 5
æ´ ¥
Ġ9 0
Ġå Ķ
èĭ¹æŀľ çīĪ
æĸ° çļĦ
åŁ¹ è®Ń
ĠB 8
ľà¸ ¥
ĠéĿ Ĵ
ĩ à¹Īà¸²à¸¢
à¤ ·à¥įà¤Ł
i al
ĠÎ£ ÎµÏĢ
áĢħ áĢ¶áĢ¯
ĠáĢĸ áĢŃ
ĠÑĤ ÑĥÐ¼Ð°Ð½
Ð»Ð°ÑĪ ÑĤÐ¸ÑĢÐ¸ÑĪ
Ð¾ Òĵ
ĠØ§ Ø¹
ÏģÎ± Î½
Ġ×ŀ× ¢
ĠÑħ Ð°ÑĢ
áĢĺ áĢ¬áĢľ
Ġàªªàª° àªĤàª¤à«ģ
ÐµÑĤ Ðµ
à¦°à§įà¦ £
Ġà´ļ àµĩ
áĤĶ áĢ¡
áĢ±áĢľ áĢ¬
áĥĲáĥĽ áĥĺáĥ¡
áģļ áĢº
áĢĲ áĢķáĢº
à®© à¯įà®ª
Ð°Ñħ ÑĤ
Ġà°ª à±Ī
ĠÎļ Î¿
Ġà´® àµģà´¤
à¤Ĺ à¤°
ĠÙģ ÛĮ
íģ ¬
ÑĢÑĭ ÐµÐ¼
ĠÎĶ Î®
ĠÑģ ÑĢÐµÐ´
Î¼ Î¼
Ð½Ð°Ñģ ÑĮ
Ð°Ð¼ Ð¿
ĠáĥĲáĥĽ áĥĳ
ĠáĢĲ áĢķáĢ¹áĢ
ĠáĢ¡ áĢĸáĢ¼áĢ²áĤķ
áĢĶ áĢ¶
áĢĦáĢ¹áĢĲ áĢĶáĢ¹áĢ¸
±áĢ ģáĢº
±áĢ ĳ
ĠáĢ±áĢĲáĢ¬ áĢ·
ĠáĢĺ áĢĿ
ĠÐĲÐ± Ð´
ĠÐ±ÐµÐ» Ð³Ð¸Ð»
ĠÐ²Ð°ÒĽ ÑĤ
Ñı Ñģ
ĠáĢĶ áĢ¬áĢ¸áĢľ
c k
ªà¸¹à¸ ĩà¸
ªà¸ ³
ç ¹
à¸£à¸¹à¸ Ľ
«à¸ķà¸ ¸à¸
è¡Į ä¸º
ç¼ º
Ġäºļæ¸¸éĽĨåĽ¢ ag
à¸£à¸±à¸ ģ
Ġà¤µ à¥ĩà¤³
Ġà´ªàµįà´° à´¸
ĠÐ°Ñģ Ð¾Ð±
áĢ±áĢĶ áĢĲáĢ¬
áĢŀ áĢ¬áĢ¸áĢ
àª°à«įàª ®
áĢĢ áĢľ
ĠÐ¼ ÑĸÑģ
Ġà¤ľà¤¾à¤¤ à¤¾
áĥĶáĥłáĥ Ľ
à°Ĥà° ľ
Ùĥ Øª
à´ķàµįà´ Ł
ÐµÐ½ Ñĭ
Î¼Î¿ Ïģ
Î¯Îº Î·
áĢ¸áĢĽ áĢ¬
áĢŀ áĢħáĢº
ĠØ± Ú©Ú¾
à¦¤ à§įà¦°
Ġå¤§åıĳ ç§ĴéĢŁ
à¤¾à¤ª à¤°
à°¾à°¨ à±ĩ
ãģĦ ãģ¾ãģĻ
Ġà´¨ à´®àµįà´®
à®Łà¯įà®Ł à¯ģ
Î»Î· Î¼Î±
Ð°ÑĬ Ð·
ĠÑģÐº Ð°Ð·
×¨ ×Ķ
Ġà°ªà±ĭ à°²
àµĢ à´·
Ġáĥľ áĥĲáĥ®
Ġíı ¬
Ġà®µ à¯Īà®¤à¯įà®¤
á ¼
Î±Î½ Î¬
ĠÐ· Ð°Ñŀ
ĠáĢĲ áĢļáĢ¹
Ġáģģáģ Ĩ
Ð»Ð°ÑĢÐ¸ Ð´Ð°Ð½
Ð¸Ð½ Ð¾
à§įà¦¯ à¦®
e ar
Î»Î± Î¼Î²
Ġáģ ¾
áĢ»áĢĸ áĢĦáĢ·áĢ¹
áĢ¸áĢŀ áĢ¼áĢ¬áĢ¸áĢ
±áĢĨ áĢ¬áĢĢáĢ¹áĢ
Ġáģĭ âĢĿ
Ġàª² àªĹ
ĠáĢ¡ áĢŃ
áĢ¬áĢ¸áĢĻ áĢ¾áĢ¯
Ð°Ð¼ Ð°Ð½
à®¾à® ªà¯įà®ª
à±ĭ à°°
ĠÑĪÐ°ÑĢ ÑĤ
áĥĴ áĥĿáĥĽ
ĠÐ¸Ð¼ ÐºÐ¾Ð½
ĠÙĪ Ùĩ
à´Łàµįà´Ł àµį
ĠÑħ ÑĤÐ¾
ëŀ ĺ
Ġà¤¦ à¥įà¤µ
Ð¾ÑģÑĤ ÑĮ
Î¸ ÎµÎ¹Î±
Ġà¦ı à¦ĸà¦¨
ĠÏĦ Î¯
ĠÐ¿ÑĢÐ°Ð´ ÑģÑĤÐ°Ñŀ
Ð²Ð°Ð½ Ðµ
ÙĪØ± Øª
Î¾ Ïį
Ġà®® à®¿à®ķ
»áĢĻ áĢĦáĢ¹áĢ
ĠáĢ¡ áĢ¯áĢķáĢ¹áĢ
Ĵ áĢ±áĢŀ
Ð¾Ð» Ð°ÑĤ
áĢ¬áĢ¸áĢĻ áĢ¾áĢ¬
Ġà´¸ àµįà´±àµįà´±
ĠÑģÐ¿ ÑĢ
ĠÐ²Ð¸Ð» Ð¾ÑıÑĤÐ¸
ĠÒ³ Ð¾Ðº
ĠÒĽ Ð°Ð½Ð´Ð°Ð¹
ĠÐ´ ÐµÐ¹
ÐĲÐ Ŀ
ĠÐĲÐ» Ð»Ð¾Ò³
ĠÐ¼Ñĥ Ð´
à±Ĥà°° à±įà°¤
áĥĲáĥĽ áĥĶáĥľáĥ¢
áĥĲáĥłáĥ ¯
ĠÎ¤ Î¿Ïħ
ÑĥÑİ Ñī
àª¾àª ļ
Ġć ć
Ġå½© ç¥¨
ĠH G
Ġäºļæ¸¸éĽĨåĽ¢ æīĭæľº
åŃ ¸
ĠéĢļ è¿ĩ
è®° å½ķ
ä¸į ä¼ļ
à¹Ģà¸ ļ
à¸Ńà¸° à¹Ħà¸£
Ġà¤®à¥ĭà¤ ł
Ġà¦¸ à§įà¦¥
ĠÐ¿ Ð°Ð³
ĠÐ´Ðµ ÐºÐ°
Ġà°ĩ à°Ĥà°Ł
ĠÑģ Ð°Ð»
ĠØ§ÙĦÙħ Øª
ë¹Ħ ìĬ¤
áĤĲ áĢ½áĢŃ
áĢ¬áĢ¸áĢľ áĢ¬
Î¶ Î·
ĠØ´ ÙħØ§
ĠÐ½ Ð°ÑĤÐ¸
×ĵ ×Ļ
Ïĥ Î®
Ġáĥķ áĥĺáĥľ
ÐµÐ½ Ð°
ĠØ¬ Ø§Ø¦ÛĴ
Ġp l
ì Ķ
ĠáĢķáĢ¼ áĢĦáĢº
Ġà¤¸ à¤¾à¤®
Ð°Ð»Ñĸ Ð·
ĠÑĦÐ¾Ð¹Ð´ Ð°Ð»Ð°Ð½
ĠÐ± ÐµÑĪ
à«ĩàª ª
Ġà°Ĩ à°®à±Ĩ
ÏģÎ¹ Î¸
áĥĶáĥĳ áĥĽáĥĲ
Ġíĺ ¸
Ġà°² à°ķà±įà°·
ĠÑĩÐ°Ð» Ð°Ð²Ðµ
ĠÐ°Ð´Ð·Ñĸ Ð½
ĠÑģÑĤ ÑĢ
àµįà´ ľ
ĠØŃÚ© ÙĪÙħ
ĠÙĪ ÛĮ
ĠÎļ ÎĳÎĻ
Î¼Î¿ Î½
à°°à±įà° ¸
áĢĲ áĢ±áĢ¬áĢĦáĢº
àªµàª¾àª¨ à«ģàªĤ
Ġáĥ¨ áĥĿáĥłáĥĺáĥ¡
ÐµÑĢ Ð°
Ġà®ķ à¯ģà®´
à¶ º
Ġà¤ľ à¤¾à¤ı
ĠÙĩ Ø±
ĠáĢ±áĢ»áĢĻ áĢ¬áĢĢáĢ¹áĢ
áĢĻáĢº áĢ¸áĢŀ
à´¾à´¯à´¿à´° àµģà´¨àµįà´¨
ĠÎ» Î¿
à±įà°Ł à±į
Ð» Ð¾Ð½
Ġà¦¦ à¦²
Ġê² Į
ĠÎŃÎ½Î± Î½
Ġàª¬àª¨ àª¾àªµ
áĥĶáĥĳáĥ£áĥļáĥĺ áĥĲ
Ġà´ķ àµģà´Łàµįà´Ł
à¦Ń à¦¾à¦¬à§ĩ
ĠÒ³ÑĥÐ¶ Ð¶Ð°ÑĤ
Ð± Ð¸
ÙĦ Ùħ
ëł ¤
±áĢĶ áĤĶ
áĢ¡ áĢĢáĢ¼
ou ld
ãĥ ī
Ġà¤ľ à¤¨
Ġà´¨àµĩ à´¤
Ð°Ð½ Ð¸Ðµ
Î´ Î¿ÏĤ
à´¨àµįà´¤àµįà´° à´¿
Ġà´² àµĭà´ķ
ĠáĥĽ áĥ¨
ĠÐ³ ÐĤ
ĠÐ· Ð°Ð´
Ġà®ħà®µ à®°à¯į
à¹ģà¸£à¸ ĩà¸
ĠåĽ½ å®¶
à¥ģà¤ ¢
áĢĨ áĢ¯
ķ áĢ¯áĢ¶
Ġà°¶ à±įà°°à±Ģ
à°ķà±įà°ķ à±ģà°µ
Ð°Ð»Ð°ÑĢ Ð½Ð¸
ĠÑĤ Ð°Ð¼
àª¾àª ¥
Ġà¤ķà¤¿à¤¸ à¥Ģ
ĠÎĿ ÎŃ
ĠáĢľ áĤĬáĢĲáĢ¹áĢ±áĢĲáĢ¬áĢ¹áĢ
áĢĳ áĢĢáĢº
áĥĲáĥł áĥĲ
ĠÙĪØ§ÙĦ ÛĴ
Øµ ÙĦ
ĠÏĥÏĦÎ¿ Î¹
éĽ ¨
Ġçİ¯äºļ app
Ġ5 00
à¹īà¸ ¡
æĺ¯çľŁ çļĦåĲĹ
d a
ĠagçľŁäºº åľ¨çº¿
æĽ ²
à¤°à¥įà¤ ľ
Ð½Ð¾Ð¼ Ñĥ
ĠÐ¿ÑĢÐ°ÑĨ ÑıÐ³
u j
àª¤ à«įàª°
à´¿à´ ¡
ĠáĢĨ áĢ¯
áĢĲ áĢŃáĢ¯áĢĢáĢ¹áĢ
áĢĶ áĢ±áĢĽ
Ġà®ħà®µ à®°
Î³Ïī Î³
ĠÐºÑŀÑĢ Ð°
Ð°Ð½ Ð¸Ð½Ð³
ĠÐĴ Ð°Ð·
Ġáĥ¬ áĥĶáĥļáĥ¡
ĠÐ´ Ð·
Ð¸Ð· Ð¸
Ġà¦¸ à§ģ
Ġ un
ÏĨ ÏīÎ½
à«Ĥ àª°
Ĭà¸²à¸ ķà¸´
Ġà¸Ľ à¸µ
à¹Ĥà¸¥à¸ ģ
Ġà¸ ¡à¸²à¸
ä¹ İ
ļ à¤¾à¤°
àµĨà´Ł àµģà´ķàµįà´ķ
Ġà®ħ à®³
Ġ×Ķ ×ķ×Ĳ
ë¥ ´
ĠÐ´ ÐµÑĤ
ĠÐ½ Ð°ÑĢÐ¾Ð´
Ġà¦Ń à¦¾à¦²
áĤ Ħ
áĢ¼ áĢŃáĢ¯áĢ·
âĢĮ ÙĩØ§
Î»ÎŃ Î¿Î½
áĢĶáĢ¹áĢ ĸ
áĢĶáĢ¹áĢ Ķ
áĢºáĢ¬ áĢ·
Ļ áĢĬáĢ¹áĢ
ĠáĢ¡ áĢģáĢ»áĢŃáĢĶáĢº
Ùĭ Ø§
ĠÑĤ Ð¸Ð·
ĠÐľ Ð°Ò³
ĠÐ²Ñĭ Ñģ
ÐµÐº Ð¸Ð½
ãĥ ¥
ĠÑĢ Ó¯Ð·
ÏĨ Î±Î»
àª¨ àª¾àªĤ
ķ à¹īà¸Ļ
éĿŀ åĲĮ
çĶµ ç«ŀ
Ġæ ģ
ç§ĳ åŃ¦
èį £
å° ½
Ġä¸ ĵ
ªà¸ ļà¸
Ġæ° ´
åĲ ī
Ġé» Ħ
à¤¡ à¥Ĥà¤¨
ĠáĥĽ áĥª
à´² à´Ĥ
ĠÐ² Ð°Ð¹
à§Ģ à¦¦à§ĩà¦°
ÑģÑĮ ÐºÐ¾ÑĹ
áĢ¸áĢħ áĢ®áĢ¸áĢ
áĢĻáĢºáĢ¬áĢ¸ áĢĢ
áĢ±áĢĶ áĢ¬áĢĢáĢ¹áĢ
ĠáĢľ áĢŃáĢ¯áĢ·
ÏĨ Î¹
áĢħ áĢĻáĢ¹áĢ¸
áĢĺ áĢĿ
ç²¾ åĵģ
Ġà¤ħà¤ª à¤¨à¥Ģ
ÑģÐ» ÐµÐ´
ĠáĢĻ áĢ¯
ĠáĢĺáĢļáĢ¹áĢ ŀáĢ°
ĠáĢ»áĢĸáĢħáĢ¹áĢ ±áĢĶ
áĢĶ áĢ±áĢĽáĢ¬
çľĭ åĪ°
ªà¸³à¸« à¸£à¸±à¸ļ
ç² ī
åĬ ³
okerstar s
è®¡ ç®Ĺ
å· ¦
Ġæķ °
Ġæ Ĥ
Ġà¤® à¤¾à¤¤à¥įà¤°
à´Ł àµģà´¤àµįà´¤
à®µ à®¿à®²à¯įà®²à¯Ī
Ġàªķ àªĤàª
à°¨ à°Ĥ
Ġ ä¸ª
çĶµåŃĲ æ¸¸æĪı
Ġà¤Ĩ à¤²à¥ĩ
ÏģÏī ÏĢÎ±
ĠÐ² Ð°ÑĢ
à´¿à´ķàµįà´ķ àµģà´ķà´¯
Ġp r
ĠØª Ùħ
ĠÎ£ ÏĦÎ¿
Ġáĥ¨áĥĶáĥ¡ áĥĲáĥ«áĥļ
àª° àª®àª¾àªĤ
Ġà¦Ĩ à¦¹
à±Ĩ à°¡
ĠÏĢÏģÏĮ Ïĥ
à§Ģ à¦¤
ĠÐ°Ð´ Ð½Ð¾
Ð»ÐµÐ½ Ð½Ñı
ĠÐºÐ¾ÑĤÐ¾ÑĢÑĭ Ðµ
Î´ Ïī
Ġà® Ĳ
Îķ Î¥
ÏĢÎ¿Î¹ Î·
Ġà´ķàµįà´ ·
ĠÑĤÐ°Ð¹ ÑĳÑĢ
à«ĩàª ¬
åģ ·
à¤Ĥà¤¬ à¤Ī
Ġå¤§åıĳä¸Ģ åĪĨéĴŁå¿«ä¸ī
ç½ ª
à¤¾à¤¯ à¤²à¤¾
Ð´ Ð°ÑĤ
ow n
áĤ ħ
áĢĿ áĢĲáĢ®
áĢ±áĢ ģáĢ»
Ð»Ð°Ð½ ÑĤÐ¸ÑĢÐ¸ÑĪ
ĠÐ¸ÑĪÑĤÐ¸ÑĢ Ð¾Ðº
ÏĦÎ¹Îº Î¿
í ĭ
à°¡à±įà°¡ à°¿
à±Ī à°¤
Ġà¤° à¤ĸ
Î¹Î½ Î®
ĠÑĦ ÑĥÒĽ
ĠÐº Ð¸Ð¼
Ð°ÑĤÐ¸ Ð´Ð°
ÐĺÐ Ŀ
ĠÐ±ÑŀÐ» Ð´Ð¸
Ð¾Ð· Ð¸
« à¸£
Ĺ à¸´à¸
Ġà¤®à¥įà¤¹à¤£ à¤ľ
àµįà´ ¡
ĠT elugu
à°¾à°° à±į
¯ à§
Ġ×ŀ× ¡
áĢŃ áĢħáĢ¹áĢħ
Ø§ÙĦ ÛĮ
Ġàª¸ àª¹
áĥĲáĥł áĥĶáĥĳáĥĺáĥ¡
Ð¾ÑģÑĤ Ñĸ
ĠÏĢÏģÎ¿Ïĥ Ïī
áĤĥ áĤĩ
ĠáĢĴáĢ«áĢ±áĢķáĢĻ áĢ²áĢ·
áĢķ áĢ½
à´¾à´´ àµįà´ļ
à±ĭ à°¨
Ñŀ ÑĢ
ÒĽ Ð°
ĠÐ´Ð¾ Ð¸ÑĢ
ãĤ µ
Ñİ ÑĤ
Ġà®® à®ķ
à¦¿à¦ ĵ
ĠÎµ ÏĦÎ±Î¹
áĥĶáĥ £áĥļáĥĺ
ÑĢ Ð°ÑĪ
Ð¾Ñı Ð´
çı ¾
ĠagèµĮ åŁİ
è§Ħ å®ļ
ŀ à¸´à¹Ģà¸¨à¸
ļà¸£à¸´à¸ ©à¸±à¸
ĠåĽł æŃ¤
à¸² à¸Ļà¹Ģà¸
à¹Īà¸²à¸ §
à¥Ģà¤ļ à¥ĩ
Ļ áĢ°
áĢĢáĢ¹áĢ ĳ
áĢĨ áĢ²
Ġà®ı à®±à¯įà®ª
ĠáĢĽáĢ½ áĢĦáĢ¹áĢ¸
Ġáģģáģ ĩ
Ġà°ªà±įà°° à°¯
ĠÙĦÙĪ Ú¯
Ñĥ Ð»Ñĸ
ar at
Ġl i
àªķ à«ĩ
à´¿à´ļàµįà´ļ à´¤
Ġí ģ
áĢĲ áĢĻáĢ¹áĢ¸
ĠáĢ¡áĢ±áĢĻáĢĽáĢŃáĢĢ áĢĶáĢ¹
ĠáĢĹáĢ¯áĢĴ áģ¶
ĠáĢķáĢ¼áĢĬáĢº áĢŀáĢ°
áĢĨ áĢ¯áĢ¶áĢ¸áĢ
Ð½ Ð°Ñŀ
ÎµÎ¯ Î¿Ïħ
áĥĲáĥľ áĥĴ
ĠÎ½ ÏĮ
ĠáĢĸ áĢ½
ÐłÑķ Ðł
Ð¾Ð» Ð¾Ð²
Ġà¤ª à¥Ĥ
ĠÐ· ÑĢÐ°Ð±
Ġà´¸ àµģà´
ĠÐµ ÑģÑĤÑĮ
Ø³ Ø¨
ĠÐ³Ñĵ Ñĺ
ÑĤÑĭ Ð¼
Ġa b
Ġà´µ à´¾à´¯
Ġà®ī à®¯
ĠÎ´ Î¹Î¿
ĠáĢ±áĢĲáĢ¬ áĢĦáĢ¹áĢ¸
áĢĲáĢĬáĢ¹áĢ¸ áĢĢ
ĠáĢ§ áĢĽáĢ¬
áĢ±áĢķáĢĻ áĢļáĢ¹áĢ·
ĠáĢķáĢŃáĢ¯ áĢĻáĢŃáĢ¯
Ñĥ ÑĤÑĮ
Î³ Î¹
ĠÑĳ ÑģÑĨÑĮ
ĠÐ± Ð°Ð½
Ġà´µ à´´
ĠíĨ µ
ĠÐº ÐµÐ½Ð³
Ð³ Ð°ÑĩÐ°
Ð± ÑĥÑĢ
ĠáĥĿ áĥłáĥĴáĥĲáĥľ
Ġà¦° à¦¾à¦ĸ
Î½ ÎµÎ¹
à«ĩàª ¦
< /
æĿ¡ ä»¶
å¼Ģ æĶ¾
ļà¸£à¸´à¸ ģà¸²à¸£
Ĺà¸³ à¹ĥà¸«à¹ī
à¹Ĥà¸ Ľà¸£
åħ³ äºİ
ä¹ĭ éĹ´
Ġé¦ Ļ
à¹Ģà¸Ķ à¸´à¸Ļà¸
à¤° à¥ĩ
ĠáĢĴáĢ¯ áĢĢáģ¡
¡ áĢ¬áĢ¸
Ð² Ð°ÑĤ
Î² Îµ
Ġà¸ Ĥà¸
à¨ ª
à¹Ħà¸§ à¹īà¸
éĽ ª
à¹īà¸²à¸ ¢
à¹ĥà¸Ĭ à¹Ī
Ġà¤Ĩà¤ª à¤²à¥įà¤¯à¤¾
áĢĲ áĢģáĢ¯
à±Ĭ à°ķà±įà°ķ
Ġà´ħ à´±
áĢ±áĢ ĸáĢ¼
ĠáĢ±áĢĴáĢ« áĢĢáĢ¹áĢĲáĢ¬
Ľ áĢĦáĢ¹áĢ¸
áĢĦáĢ¹áĢĺ áĢ¬
áĤıáģ ¶
ľ áĢº
Ġàª¨ à«Ģ
à®® à¯ģà®®à¯į
Ġåı Į
pk æĭ¾
¸ à¹Īà¸¡
ķ à¹īà¸Ļà¸
¡à¸µà¸ Ħà¸§à¸²à¸¡à¸
çģ µ
è´ ·
Ġà¤® à¤¾à¤¹
ĠáĥĶ áĥķáĥł
ĠáĢŀ áĢ½
ĠÎ² Î±Ïĥ
Ġà®¨ à®¾à®Ł
ĠÐ¢ ÑĥÑĢ
ĠÐ½Ð°Ð· Ð°ÑĢ
ĠÙĦ ÛĮÚ©ÙĨ
Ġà´ĩ à´¤àµį
Ġà¦¦ à¦¿à§Łà§ĩ
ãĥ Ĳ
ÐµÑĢ Ð¸
Ġáĥ¡áĥĲáĥ Ĵ
Ġì Ĥ
e re
ÑģÑĤ ÑĥÐ¿
ä½ĵ éªĮ
èīº æľ¯
à¹Ģà¸£à¸µà¸ ¢à¸Ļà¸
èĤ ĸ
åħ¬ å¼ı
à¹Īà¸ °
è ¸
1 68
Ġäºļæ¸¸ ä¼ļ
à¹Ģà¸ Ķà¸
à¥Ģà¤ļ à¤¾
Ġà¤ħ à¤²
Ġ×Ķ× §
ĠáĢĢáĢ¼áģ½ áĢĶáĢ¹áĢ±áĢĲáĢ¬áĢ¹áĢ
áĢĳ áĢŃáĢ¯áĢĦáĢ¹áĢ
áĢ¡ áĢĢáĢº
Ġàªļ àª¾àª²
Ø§ÙĨ ÙĬ
ĠÐ°Ð´ ÐºÐ°Ð·
ÏĦÎ¹ÎºÏĮ ÏĤ
ÑĥÐ² Ð°ÑļÐµ
Ġà¦® à¦¾à¦°
ë¬ ´
ĠÂ ¬
ĠÐĲÐ»ÑıÐºÑģ Ð°Ð½Ð´
áĢļ áĢŃáĢ¯
áĥĲáĥ£áĥ ł
ĠÑģÐ¿ Ðµ
áĢĻáĢ¼ áĢ±áĢ¬áĢĢáĢº
Ġ Ïī
ĠÐ³ ÑĢÑĥ
Ġàªª àª¾àª¸
ìļ ¸
Ùĥ Ùħ
Ġà®ĩ à®²
ĠÚ¯ ÛĴ
à¦¾à¦ ¡
áĢ¯áĢķáĢ¹áĢ ĽáĢ½
ĠáĢ¡ áĢĤáģ¤
áĢ¡ áĢ±áģ¾áĢĢáĢ¬áĢĦáĢ¹áĢ¸
ĠáĢĳ áĢ°áĢ¸áĢ
Ġà´¸ à´°àµįâĢįà´ķàµįà´ķ
ĠâĢĭâĢĭâĢĭ âĢĭâĢĭ
Ġà´¨à´Ł à´¤àµįà´¤
ÐĨ Ðĵ
ĠÑĩÐ°Ð» Ð°Ð²ÐµÐº
Ð°Ò³ Ð¾
Î¹Ïĥ Îµ
Ð¸ÑģÑĤ ÐµÐ¼
è· ĳ
ãĢ į
áł¦ áł
å°ı æĹ¶
¶à¸ ĩ
à¹Ģà¸ «à¹ĩà¸Ļà¸
Ķ à¸Ļà¸
è§ ¦
Ġè Ĳ
Ġç ¡
Ġ9 7
à¹ ĭà¸
Ġag æīĭæľºçīĪ
à¤¿à¤ķ à¥įà¤·
ĠáĢ±áĢĶ áĢ¬áĢĢáĢ¹
áģĢ áĢĦáĢ¹áĢ¸
ĠáĢĻ áĢĬáĢº
ĠáĥŀáĥĿáĥļ áĥĺáĥ¢
à´Ļàµįà´Ļà´³ àµĨ
à¯ģà®ķ à®¿à®©à¯įà®±
Ùĥ ÙĪÙĨ
à«ĭàª ¸
Î¸ ÏħÎ½
áĥĲáĥ« áĥĶ
ĠáĥĲáĥ ĺ
Ġì ¶Ķ
Ð°ÑĨÑĭ Ñİ
ä¸Ĭ æµ·
Ġ à¸Ńà¸²à¸
à¹ģà¸« à¹Īà¸ĩà¸
Ġ201 4
Ġà¹Ģà¸ ª
¸ à¹Īà¸Ļà¸
Ġà¤ħà¤¨ à¥ĩà¤ķ
ĠT h
Ø¹ Ùĩ
ĠÐ» ÐµÑĤ
ï ½
ãĥ ģ
ĠÙĦ Ú¯
ĠÏĩÏģÎ· ÏĥÎ¹Î¼Î¿
áĢĨáĢŃáĢ¯ áĢĽáĢĦáĢ¹
áĢħ áĢĬáĢº
ĠáĥĲáĥ £áĥ
Ġà´ħ à´ª
Ñİ ÑĨÑĮ
ĠáĥĲáĥ Ļ
à«Ģàª ¡
Ġà°Ńà°¾à°° à°¤
áĢ¬áĢ¸áĢĲ áĢļáĢ¹
áĢľ áĢ½áĢºáĢĦáĢ¹
ĠáĢĲ áĢŃáĢ¯áĢ·
ĠÛ±Û ³Û
ĠÙ¾ ÛĮØ´
´ Ī
Ġ×ľ ×¢
ĠÑĥ ÑģÐ»
à°¨à±įà°¨ à°¿
ĠÎ´ ÎµÎ¯
à¥Ĥà¤ ¸
ĠáĥĻ áĥļ
Ġà´Ł àµįà´°
ĠáĢ»áĢĻáĢĶáĢ¹áĢĻáĢ¬ áĤıáĢ¯áĢŃáĢĦáĢ¹áĢĦáĢ¶
áĢ±áĢ¬áĢº áĢķáĢ¼
Ġu s
ĠÐ´Ð·ÑıÑĢÐ¶ Ð°Ñŀ
Ġà®µà®¿à® ³
ĠÐ· Ð°Ñģ
à¦¿à¦ Ĺ
ãģĤ ãĤĭ
Î² Î¬Î»
ĠÐ¼Ð°Ñģ ÑĬ
ĠÐ´ Ð°Ð½
Ġàªľà«ĭàª Ī
Ð¸ÑĪ Ð´Ð°
Ð»Ð°Ð½ Ð°Ð´Ð¸
Ð½ Ð´
Ġáģģáģ ī
ĠÏĥÏħÎ¼ Î¼Îµ
Ġë ©
ĠáĢĸ áĢĻáĢ¹áĢ¸áĢĨ
»áĢķ áĢ®áĢ¸áĢ
áĤ ĤáĢº
¡ áĢĽ
ĠØ Ł
áĥĲáĥł áĥĶáĥĿáĥĳ
ÑĤÐ¸ ÑĩÐµÑģÐº
Ġà¤¤à¥įà¤¯à¤¾à¤ ®à¥ģà¤³à¥ĩ
áĢĻáĢ½áĢ¬ áĢ±áĢĲáĢ¬áĢ·
áĢ¶áĢ¯ áĢ¸áĢħ
áĢģ áĢ¼áĢ¬áĢ¸áĢ
âĢ ĺ
Ú© ÛĴ
ÏĦ ÏģÎŃ
Ð¾Ð² Ñĸ
Ġà´Ł àµįà´Ł
àµĭ à´ª
Ľà¸ ģà¸
Ġp j
à¥įà¤ £
à°¾à° ¸à±įà°¤
ÐºÑĢ Ð°Ñĸ
ĠÑĢÐ°Ð· Ð²Ñĸ
Ùģ Ø±
ĠÐ½ ÑĥÐ¶
Ġàªª à«ĭàª²
ĠáĢĽáĢ¬ áĢģ
à¦¿à¦¨ à§įà¦¨
ĠÏħÏĢÎ¬ÏģÏĩ ÎµÎ¹
áĢŀáĢŃ áĢĻáĢ¹áĢ¸
ic e
áĢ¶áĢ¯ áĢ¸áĢ¡
ĠáģĤ áĢĿ
áĢ±áĢĲ áĢº
Ġit em
Ġë ķĮ
ĠÑģÐ² Ð°Ñĳ
Ð¸ÑĪ Ð½Ð¸
Ñŀ Ð¶
Ð¼ Ð¸Ð·
ĠÑĢ Ð°ÒĽ
ĠçĽ ´
à¤¾à¤° à¥ĩ
Ð°ÑİÑĤ ÑģÑı
Ġà®®à¯ĩ à®²
ĠÐºÑĸÑĢ Ð°Ñŀ
Ġáĥĺáĥľáĥ¤ áĥĿáĥłáĥĽ
ĠÑĨÑı Ð¿ÐµÑĢ
à«įàª ¬
Ġ×ĳ ×ª
ĠÎłÎµ ÏģÎ¹
ĠÎ± Î¹
ĲáĢħáĢ¹áĢ ģáĢ¯
áĢ±áĢŀáĢ¬ áĢ¹
áĢľ áĢ»
Ġà°ĩ à°¦à°¿
ĠÐ¿ÑĢ Ð°ÑĦ
à´¾à´¨ àµģà´³àµįà´³
Ð¾Ð» Ð¾Ð³
ĠÑıÑŀÐ»Ñı ÐµÑĨÑĨÐ°
áĥ£áĥł áĥĺáĥ¡
Ó¯ Ò³
ĠÎµÏģÎ³ Î±Ïĥ
Ġà¤¸à¤ķ à¤¤à¥ĩ
Ð°ÑĶ ÑĤÑĮÑģÑı
ÏģÎµ Ïħ
Ġà¦Ĩà¦® à¦°à¦¾
áĢ¼ áĢŃáĢĻáĢº
Ġà´İ à´¨àµįà´±àµĨ
ĠÙĩ Ø³Øª
Ġà´¬ à´¨àµįà´§
ĠÏĢ Î¹
Ġàª¨àª¹ à«ĢàªĤ
áĢĸ áĢ°áĢ¸áĢ
áĢ ¢
ĠáĢķáĢ¼ áĢ²
ĠáĢ±áĢĢáĢº áĢ¸áĢĩ
áģ¾áĢĢ áĢĬáĢ·áĢ¹áĢ
áĤĪáĢķáĢ¹áĢ ĽáĢ½
ĠáĢ¡ áĢ¬áĢ¸
Ġcom p
Ġà¦ľ à¦¾à¦¤
áĢ±áĢŀ áĢ¸áĢĲáĢļáĢ¹
ĠáĢ¡ áĢĢáĢ»
ÛĮØ§ Úº
ĠÑĤ Ð¾Ð²Ð°
ĠÑĩÑĤÐ¾ Ð±Ñĭ
Ġáĥª áĥ®áĥĿáĥķáĥł
ĠÐ³ Ð¸
ĠÑĩ ÑĭÐ¼
Ġ×Ķ× ¡
Ġà®ļ à¯ĩà®°
Ġ @
æĪĲ åĬŁ
±à¸ģà¸ ©à¸
ç»ĵ æŀĦ
¥à¸ ¢
èİ· å¾Ĺ
áŀ ĵáŀ
à¹Ģà¸¥ à¹Īà¸Ļ
ŀà¸±à¸ Ĵ
Īà¸ ¸à¸
ĠèĢĮ ä¸Ķ
Ġà¤® à¤°
ĠÐºÐ¸ÑĢ Ð¸ÑĤ
Ð» Ð°Ð³Ð°Ð½
ĠÐĲ Ð²
ĠáĢ¡áĢģáĢ¯ áĢľáĢŃáĢ¯
ģ áĢ²áĤĶ
ĠáĢ¡áĢŀ áĢ¶
ĠØ§ÙĦ ÙĬ
à¦¾à¦¥ à§ĩ
ĠÏĩÎ± ÏģÎ±Îº
ĠáĥĽ áĥĲáĥłáĥ¢
àªµ à«ĭ
àµĩà´ ľ
áĢģ áĢ½áĢ²
ãģ Ŀ
Î³ Î¿Î½
ë§ ¤
īà¸ ±à¸Ļ
Ġ à¹ĥà¸«à¹īà¸
Ġäºļæ¸¸å®ĺç½ĳ çĻ»å½ķ
å¦ ĩ
Ġ à¸£à¸µà¸§à¸´à¸§
y u
è¯Ģ çªį
l l
æ´ Ĺ
à¹ĥà¸Ļà¸ ģà¸²à¸£
èĩª åĬ¨
ªà¸ĸ à¸²à¸Ļà¸
·à¹Ī à¸Ńà¸Ļà¸
Ġà¸ Ĥà¸Ńà¸ĩà¸
çīĽ çīĽ
æ¶Ī æģ¯
«à¸¡à¸²à¸ ¢à¸
Ġä»ĸ ä»¬
çļĦ å¤§
à¹Īà¸² à¸Ļ
ĠéĻ ¤
Ġç ¼
åħ¨ éĿ¢
ä¼ Ĭ
à¸Ńà¸ ±à¸Ļà¸
a z
Ġ6 5
åĪ© çĶ¨
æİ¨ è¿Ľ
à¹Ĥà¸ ķ
Ġ ä¸ĭè½½
uu å¿«3
· à¸Ļà¸
åı «
Ġà¨¦ à©Ģ
a f
Ġà¤µ à¥įà¤¹
ĠÐł Âµ
ĠÐ¹ Ð¾Ð³Ð¾
ëł Ī
ĠØ¹ ÙĦÛĮ
ĠÐ´Ð·Ðµ Ð¹
áĢĢáĢ¹áĢ ĻáĢ½
ĠáĢĿ áĢ«
ĠÙħÙĦ Ú©
áĥĲáĥĵ áĥĲáĥ¡
à®Ļà¯įà®ķà®³ à¯Ī
Ð¸Ð½Ð³ Ð´ÐµÐº
ÐµÐº ÑĤ
ĠÎłÎ± ÏģÎ±
ÏĦÎ· Î³Î¿
ĠÐ³Ð¸ÑĢ Ð¸ÑĦ
Ġà¤¹à¥ĭ à¤¨à¥ĩ
ĠáĢĽáĢĶáĢº áĢĢáĢ¯áĢĶáĢº
ĠáĢĢáĢ¯ áĢľ
áĢľ áĢŃ
Ġà´® à´¾à´±àµįà´±
à«ĩàª¶ àª¨
ĠáĢĲ áĢ±áĢ¬áĢĦáĢº
ÑĢ Ð°ÑĨÑĮ
ØŃ Ø©
ĠÎ¿ÏĢÎ¿ Î¯
à¤Ĥà¤ ª
à°¸ à±įâĢĮ
à±ģà° £
ÑģÐº Ð°Ðµ
ĠØ³ Ø§Ø²
Ġà´ª à´¿à´Ł
áĥ£áĥłáĥ Ĺ
à®¨à¯įà®¤ à¯ģ
ÑĢÑĭ Ñĩ
ë Ķ
Ġ Ð°ÑĦ
Î© Î£
ÏĦÎµ ÏģÎ±
à°¾à°¬ à±ģ
Ġà°Ĺà±įà°° à°¾à°®
áĢ¯áĢ¶ áĢ¸áĢ¡
Ġà´ª àµģà´¤à´¿à´¯
à±Ģà° İ
à±įà° ľ
ÙĪ Ù¹
Ø§Ø ©
ĠáĥĶ áĥł
ĠáĢĻ áĢŁáĢ¬
ac t
Ġàªķ àª²
ĠØ¨Ø§Ø´ Ø¯
áĢ±áĢ ŁáĢ¬
ĠáĢħ áĢĬáĢ¹áĢ¸
áĢĶ áĢĬáĢº
Ġà¦¤ à¦¬à§ĩ
ĠÐł Ñĳ
Ð¿Ð¾Ð² ÑĸÐ´
ĠÑĥ Ð¶Ðµ
ãģ °
×ķ× ĺ
à´¾à´· àµįà´Ł
ĠÐº ÑĬ
áĥĺáĥĻ áĥĺáĥ¡
åħ¨ éĥ¨
Ġç ©
Ġåı ¦
åĪĨ é£ŀèīĩ
à¥ĩà¤ ª
Ġà®ª à¯ģà®¤
Ð°Ð»Ñĸ ÑģÑı
ĠÎº Îµ
Ġ Ïį
Ġë Ħ
Ġà´Ĩ à´£
ĠÐ¾ Òĵ
ĠÐ¿ Ð¾ÑĢ
áĢ±áĢ ģáĢ¶
ĠÎ± Î³Î¿
ĠÐ· Ð°Ð²
âĢĮ âĢĮ
à°¿à°¨ à°¾
àª° àª£
à¥Ĥà¤ ķ
ĠÏĥÎ· Î¼Î±Î½
à¯įà®¨à¯įà®¤ à¯ģ
ĠØ§ÙĦÙħ ÙĪ
à±Ģ à°Ł
Ð´ Ñį
ĠáĥĲáĥ¦ áĥĽ
ĠáĢ¡áĢħáĢ® áĢ¡áĢħ
ĠÐľ Ñĭ
Ġà´ķàµĤà´Ł àµģà´¤
el l
Ġà¦ķà¦¾à¦° à¦£
Ñı ÑĨÑĮ
Ð³ÑĥÐ· Ð¾ÑĢ
áĤı áĢ¼
áĢ¡ áĢĲáĢ½áĢĦáĢºáĢ¸
ÎĻ ÎĳÎ£
ĠÎ¾ ÎµÎº
à®µ à®°
ĠÐ¿ÑĢ Ð°Ð±
Ġçİ ©
Ġà¹Ģà¸ŀà¸ ·à¹Īà¸Ńà¸
éĺ ¶
çĶ ²
æįķ é±¼
à¹ĥà¸«à¸¡ à¹Īà¸
4 1
éĻ Ī
ä¼ł ç»Ł
ä¼ ´
ĠåĨ ħ
à¹ĥà¸«à¸į à¹Īà¸
Ġà¤ª à¥ģ
Ø§Ø¯ Ûģ
Ú© Ùĩ
uj arat
Ġàª°àª¹ à«Ģ
ĠëĤ ¨
æĴŃ æĶ¾
Ġà¤¸à¤° à¤ķà¤¾à¤°
Ġà°ī à°ª
ĠÐ¿ÑĢÐ¾ Ð¸Ð·Ð²
ĠÑĪÐ°Ò³ ÑĢ
Ùĳ Ùİ
Ĺ à¥ĩ
Ġàª¦ à«ĩàª¶
Î¼ÎŃÎ½ ÎµÏĤ
áĥĿáĥļ áĥĿáĥĴ
à¸Ńà¸° à¹Ħà¸£à¸
à¤¿à¤ ¹
ĠÑĩ ÐµÐ»Ð¾Ð²
áĥľ áĥĺ
Ø¯ Ùħ
ÑĨÑĸ Ð¹
áĢĶ áĢ±áĢĲ
ĠÂ ±
ĠÐ¶ Ð°Ð½
Ñĺ Ð°ÑĤÐ°
áĢ½áĢ±áĢ¸áĢĶ áĢ½áĢ±áĢ¸áĢ
ĠÐ¿ÑĢ Ð°Ðµ
ĠáĢĺ áĢ¬áĢľ
à®® à¯įà®®
áĢĶáĢ¹áĢ ķ
áĢĬáĢ¹áĢ ¡
ĠáĢ±áĢ ĳáĢ¬áĢĦáĢ¹áĢ
±áĢ»áĢĻ áĢ¬áĢĢáĢ¹áĢ
áĢĢ áĢŃáĢħáģ¥
ĠáĢĸáĢ¼áĢħáĢº áĢŀáĢĬáĢº
Ġáĥ¨áĥĶáĥ ®
ĠÐ¾Ñĩ ÐµÐ½ÑĮ
Ð» Ñĳ
Ġè¿Ļ æĺ¯
Ġè ı
łà¸±à¸ ĵà¸ĳ
Ġ= '
¢à¸ ĩ
å¤§åıĳ å¿«3
Ġà¸ ĭ
é¡ ¾
Ġ25 9
ç¶ ²
åħ¨ å¤©
ä»» ä½ķ
à¥ĩà¤² à¥įà¤¯à¤¾
Ġà¦¤ à¦¾
Ġd o
ë¡ Ŀ
à¯ģà® Ļà¯įà®ķ
Î¿Ïħ Î»
Ġà´¸ àµįâĢĮ
Ġáĥ§áĥķáĥĶáĥļ áĥĲáĥĸáĥĶ
ĠÑĤÐ°ÑĪÐºÐ¸Ð» Ð¾ÑĤ
ĠÐ¿Ð°Ð²Ñĸ Ð½
ĠÎµÎ¹ Î´
ĠÐ¾ ÑĪ
Ð¾ÑĢÐ¸ ÑģÑĤ
ãĥ ĭ
à´¾à´ Ļàµįà´ķ
ÑģÐ¸ Ð¹
ÑĢÐ¸ ÑĦ
Ġà®¤ à®°
Ïģ Î¯Î±ÏĤ
à¤ķ à¥įà¤¤
áĢĲ áĢ¶
ĠÐ² Ð¾Ð±
Ġ×Ķ× Ľ
ĠáĢĻ áĢŃáĢ¯áĢ¸áĢ
ÑıÑĢ Ð¾Ð´
áĢ°áĢ¸áĢ±áĢķáĢ« áĢĦáĢ¹áĢ¸
ĠáĢ¡ áĢĸáĢ¼áĢ²áĤĶ
áĢ¸áĢĢ áĢ¯áĢŃ
áĢ»áĢĻ áĢĦáĢ¹áĢ·
áĢ±áĢ ĩ
Ġà°ª à°¾à°²
áĢŃáĢ¯áĢĦáĢº áĢĽáĢ¬
ĠÏĥÏħÎ½ ÎµÏĩ
Ġà´Ĺ àµįà´°
ĠÐ´Ð¾Ð» Ð¶
Ø¨ Ø§Ø±
à§Ģ à¦Ĺ
à¦² à§įà¦ª
Î¼Îµ Î½Î±
àª¾àª¨ à«ģàªĤ
æĹł çłģ
Ġà¤¬ à¥Ģ
ou g
áĥĵ áĥĶ
ĠÐ°Ð½ Ð¸ÒĽ
ĠÐ¼Ð°Ò³ ÑģÑĥÐ»
ĠÐŁ Ð°Ñģ
à®Ł à¯įà®ļ
Î¶ Îµ
áĢ¡ áĢ±áĢ»áĢģ
un g
ĠáģĤáģ ħ
à°¾à°¨ à±į
áĢ±áĢĽ áĤĬ
ĠáĢĻ áĢŁáĢ¯áĢĲáĢº
ªà¸´à¸ Ĺà¸ĺ
äºĴ èģĶç½ĳ
Ġà¨¨ à©Ĥà©°
Ġà¨ ļ
ĠåĪĨ åĪĨæĹ¶æĹ¶å½©
Ġà¤® à¤¾à¤¨
Ò ĳ
Ġà´İ à´´
Ġà®® à®¾à®¤
ĠÐº Ð¾Ð¸
Ïĥ Ïį
áĥĽ áĥĺ
àµģà´µ à´°
áĢĢáĢŃáĢ¯ áĢľáĢĬáĢ¹áĢ¸
áĢ® áĢĲáĢ¬
Ð¸Ñĳ ÑĤ
Ðł Ðħ
ĠÑı Ð·
Ð°Ð¸ ÑģÐ¸
ĠÎ±Î½ Î¸ÏģÏİ
íĨ µ
ĠØ§ Ø¬
áĢŃ áĢĲáĢŃ
Ð°ÒĽ Ð°ÑĤ
ÑĢ Ð¸Ð¼
à«Ģàª ª
ĠÑĸÐ½ ÑĦÐ°ÑĢÐ¼
ĠÑģÐ°Ð± Ð°Ð±
à¦¨à§įà¦ ¨
ĠØ¥ ÙĨ
áĢĻ áĢļáĢ¹áĢ
áĢ±áĢ ļáĢ¬áĢĢáĢ¹áĢ
áĢĶáĢ¹ áĤĢáĢĢáĢ®áĢ¸
áĢĬáĢ¹áĢ ķ
áĢĸáĢ¼áĢħáĢº áĢŀáĢĬáĢº
ÏĦ Î¯Î±
ÐµÑĤ Ð°
à¸£à¸±à¸ ģà¸
ª à¸µ
Ġäºļæ¸¸éĽĨåĽ¢ ç½ĳç«Ļ
çĥ Ī
åĪĨæİĴåĪĹ 3
é« Ķ
Ġåĩ¯åıĳ ä½ĵèĤ²
æľī åħ³
q u
æĿĲ æĸĻ
åĽ½éĻħ å®ĺç½ĳ
ä¸Ń å¥ĸ
Ġ ä½ľ
à¤µ à¤£
à®µ à®°à¯į
Ð»Ð¸ ÑĦ
ĠáĥĽ áĥľáĥĺáĥ¨áĥķáĥľáĥĶáĥļ
Ġà´² à´ķàµįà´·
ĠØ¯ Ùĩ
ĠÑģ Ð°ÑĦ
Ð°Ð»Ðµ Ð¶
åĽ½ äº§
Ġà¤µà¤¾à¤² à¥ĩ
à¦¿à¦ ĸ
Ġàªľ àª¾àª¯
ãģĦ ãģŁ
ĠÏĢ Î¹Ïĥ
Ġà´ķàµĬ à´£àµįà´Ł
à¯Īà® ®
Ġ×ĳ ×Ķ
ĠÑģÐ² Ð¾Ð¸
Ġà°¤ à°ªà±įà°ª
Ġáĥ§áĥĿáĥķ áĥĶáĥļ
ĠÐ±ÐµÐ»Ð°ÑĢÑĥ ÑģÐºÐ°Ð¹
Ð°Ð³ ÑĸÑĩ
ĠÏĥÏĦÎ¹ Î³
í Ĥ
Ġà´®à´² à´¯à´¾à´³
al ay
Ġà´¨à´¿à´¯ à´®
ĠÐ³ÑĥÑĦ ÑĤ
à¦¾à¦¨ à¦¾
à¤° à¤¾à¤¤
àªµ àª¾àª°
à±Ĩ à°Łà±įà°Ł
ĠÑģÑı Ð±Ðµ
à®µ à®°à¯įà®ķà®³
ĠÎ´Î¹ Îµ
à¦¿à¦ ı
áĥĲáĥľ áĥĺáĥĲ
Ġà°ª à°¨
Ġà¤ī à¤¤
ĠÐ¶ Ð°ÑĢ
ĠÑĤ Ð¸Ð»
ĠàªŁ à«įàª°
ĠÐ¼Ñĥ Ñģ
ĠØŃÚ©ÙĪÙħ Øª
Ø§Ø¯ Ø©
ÑĢÐ°ÑĨ Ð¾Ñŀ
à§Ł à§ĩà¦°
áĢĳáĢ±áĢ¬áĢĦáĢº áĢħáĢ¯
ÐµÐ½Ð¸ ÐµÐ¼
Ġáĥŀáĥł áĥĿáĥª
ÎºÎµ ÎºÏģÎ¹
ĠØ¯ ÙĪØ±
ĠÑĤ Ð¾Ð¹
áĢĻáĢº áĢ¸áĢ¡
Ġà´ħ à´²àµįà´²
ãĤĪ ãģĨ
Ġà¦¸ à§ĩà¦ĩ
Ġà°¸ à°°
ĠáĥĴáĥĲáĥľ áĥĽ
Ð°ÑģÐ¸ Ð´Ð°Ð½
ÏĦÎ® ÏĥÎµÎ¹ÏĤ
à®² à®¿à®²à¯į
Ð»Ð°Ñģ ÑĤÐ¸
ĠÐ°Ð² Ð²Ð°Ð»
áĢ¥áĢķ áĢ±áĢĴ
ĠáĢĲ áĢĬáĢº
ļà¸ ¸à¸
«à¸±à¸ §
Ġå ĸ
Ġäºļæ¸¸ æ¸¸æĪı
Ġ5 55
Ġè¯ Ħ
åĪĨ å¿«ä¹Ĳ
åĪ¶ åº¦
éĩĳ èŀį
E N
à¤Ĺ à¥įà¤°
Ñī Ð¾
×ķ ×Ļ
ĠáĥĲáĥĵáĥĴ áĥĺáĥļ
ĠÐ°Ð´ Ð½
ĠàªĨ àªĹ
à¹Ģà¸ īà¸
Ġè ĥ
æĹ¥ æĬ¥
Ġ266 96
Ġ2018 å¹´
å¼Ģ åı·
à¹ģà¸ ŀà¸
à¸Ńà¸¢à¹Īà¸²à¸ ĩà¹Ģà¸
E D
éĿ Ļ
Ġèħ¾è®¯ åĪĨåĪĨå½©
æ¯ ķ
å¹² éĥ¨
à¨ ¼
g g
Ħà¸£à¸ ·à¹Īà¸Ńà¸ĩ
Ġè½ ¬
çļĦ æĹ¶åĢĻ
Ġà¤¤à¥įà¤¯à¤¾à¤Ĥà¤ ¨à¥Ģ
ÑģÐº Ð¸Ðµ
ĠÎľ Î·
ĠÎµ Î¼ÏĢ
Ġëį Ķ
à°ļà±įà°ļ à±ģ
Ġà¦ªà¦° à§įà¦¯
ĠØ¬ Ùĩ
ĠÐĳ ÐµÐ»Ð°ÑĢÑĥ
ĠÑģ ÑĥÐ¼
Ðµ ÑĨ
ĠÎ´ Î®
à®ļ à¯į
å½ Ĵ
æĹĹèĪ°åİħ ä¸ĭè½½
æĮģ ç»Ń
æ¼ «
å² ¸
äº Ī
7 2
Ġé ħ
Ġà¥¨ à¥¦
áĢĢáĢ¹áĢ ±áĢĲáĢ¼
Ġcom ments
áĢĶ áĢ±áĢ¬áĢĢáĢº
al ly
Ġàª¬ à«ĩ
ĠÚĨ Ø§Ûģ
ĠÒ³Ð¾Ð» Ð°ÑĤ
ĠÙĩ Ø°Ùĩ
çĶ °
à¤ ±
Ġr u
ĠÐŁ ÑĢÐ¸
ĠÐ· Ð±
ĠáĢĳ áĢŃáĢĶáĢ¹áĢ¸
áĢĦáĢ¹áĢ ±áĢĶ
ĳ áĢ¼áĢĢáĢ¹áĢ
áĢ±áĢĲáĢ¼ áĢŁáĢ¬
áĢģ áĢŃáĢ¯áĢĢáĢº
Ġà¤¸à¤® à¤¯
ĠÑģÑĤ ÑĢÐ°Ð½
Ð´Ð¸ ÒĽ
ÑĢ Ð°Ð´
Ġà´ħ à´®
Ġàª¤à«ĩ àª¨à«ĩ
ĠÐ· Ð°Ð³
ĠáĥĲáĥłáĥ ª
Î´ Î¿Ïħ
ĠÐ¸ Ñİ
Ġ×Ķ× Ĵ
ĠáĥĽáĥĿáĥ ¥
ĠØ± Ø³
Ġà¦ķ à§ĩà¦¨
à®¿à®¯ à¯ĩ
æļ ´
ä¼ Ļ
ĠæĢ »
ç» ¿
à¹īà¸²à¸ ĩà¸
ä¼ ĳ
Ġ pk10
åĩº äºĨ
± à¹Īà¸Ļ
Ĺà¹Īà¸² à¸Ļà¸
é¦Ļ æ¸¯
à¹īà¸ ³
Ġç Ŀ
à¥ģà¤ ·
ĠÐ¼Ð°ÑĢ Ð´
ĠÐ°Ð´ ÑĥÐº
àµĢ à´ª
ĠÎ±ÎºÏĮ Î¼Î±
áĢĳ áĢ½áĢĢáĢº
ĠÑĦÐ°Ð¾Ð»Ð¸ ÑıÑĤ
Ð¸Ð½ Ð´
ĠÐ¼ ÐµÑĢ
Ġäºº æ°ĳ
ĠĈ ï¼Į
Ġà¤ľ à¤¾à¤£
áĥ£áĥł áĥĲáĥĵ
Ġìĸ ´ë
ĠÎł Î¿
Ġàª¨ à«ĭ
ĠØ§Ø³ ÙĦØ§Ùħ
Ġà¦¶ à§ģà¦°à§ģ
à±Ģ à°¤
Îº ÏİÎ½
ĠÐģ Ð½
Ú¾ ÛĴ
ÙĬØ± Ø©
áĢ¯áĢ¶ áĢ¸áĢĻ
Ġh as
Ġà®ħ à®ªà¯įà®ª
à°¾à°Ĥà° ¡
ĠÏĦÏĮ ÏĥÎ¿
à´Ļàµįà´Ļ à´¨àµĨ
Ġà®ļ à®¨à¯įà®¤
ĠÙħ ÛĮØ±
Ġáĥ¡ áĥĻ
Ġà´ķ àµģà´
Ð´ Ñĥ
Ùĩ ÙĨÚ¯
Ø³ Ø±
Ġà¦¹ à¦¿à¦¸
Ġà¤¸ à¥įà¤Ł
Î» Ïį
àªµàª¾àª¨ à«ĭ
áĢľáĢŃáĢ¯ áĢĢáĢ¹
ĠáĢĽ áĢ²áĢ·
áĢ°áĢ¸áĢ ļ
áĥĲáĥ¡ áĥĹáĥĲáĥľ
Ġà´¤àµįà´¤ à´¿
Ġà´¨ à´²àµįà´²
áĢ¼ áĢĶáĢ¹áĤĶ
Ġáģ¿ áĢĦáĢŃáĢĻáĢ¹áĢ¸áĢģáĢºáĢĻáĢ¹áĢ¸
ĠáĢľáĢ° áĢĻáĤĪ
áĢ±áĢĽ áĢŃáĢĢ
ĠÐ»Ñĸ ÑĤÐ°ÑĢ
Ġà®İà®© à¯į
à¯Ĥ à®°
Ġë° ľ
ĠÐł Ñķ
ĠÐ² Ð¸ÑĢ
Î³ÏģÎ¬ ÏĨ
à´¿à´¯ à´¤àµį
ĠÐ³ Ð°ÑĢ
ĠÎº ÏģÎ±
Ġà´ķ àµĤà´Łàµįà´Ł
Ġáĥ¨ áĥĶáĥķ
ãģ« ãģª
Ðµ Ð»Ñı
ĠØ¨ Ø¯
Ð² ÐµÐ´
Ġà´µà´¿à´ ľ
áĢ° áĢľ
ĠÎ¼ÎµÎ³ Î±Î»
áĥĿáĥ¤ áĥļ
Ġà®ī à®±
Ġ×© ×Ĳ
áĢĽáĢ½áĢŃ áĢĲáĢ²áĢ·
áĢĢáĢ¹áĢĨ áĢ¶
ĠáĢľ áĢ¶áĢ¯
ĠáĢĲáĢķáĢ¹áĢĻ áĢ±áĢĲáĢ¬áĢ¹áĢ
áĢľáĢ»áĢ¾ áĢĦáĢº
ç¬ ¦
à¤¾à¤µ à¥ĩ
ab le
Ð Ħ
ĠÐ³ÑįÑĤ Ð°Ð¹
Ġà°ª à°Łà±įà°Ł
àª°à«įàª £
ÑģÑĮ ÐºÐ¸Ð¹
Ġà¤¬à¤¹ à¥ģà¤¤
ĠÐ¸ Ð³ÑĢ
Ġà´¤ àµĢà´°
Ġà¦ı à¦²
Î¿Ïħ Ïĥ
Ġà°¦ à±įà°µ
alay al
à´ķàµįà´ķ àµģà´¨àµįà´¨
áĢĲ áĢĢ
ÑĢÐµ Ð±
à§ģà¦ §
Ð³ Ð»ÑıÐ´
ÎŃ ÏģÎ³
áĥĲáĥľ áĥĲ
ĠÙħ Ø³ÙĦ
Ø§Ø¨ ÙĤ
à¯Ĭ à®°
áĢ¡ áĢĸáĢ¼áĢħáĢº
àµĬ à´´
ĠÐ¿ ÑĸÑģ
ĠÐĵÐ ģ
ĠÐ¿ÑĢ Ð°Ðº
am e
Ġà¤ª à¤¡
Ġ×ľ ×©
íķ Ń
ĠÑı ÑĪ
ĠÐºÐµÐ¹ Ð¸Ð½
ÑĢ Ð¾ÒĽ
Ġàª¤ à«įàª°
Ġáĥ©áĥĶáĥĽ áĥĺ
à´¿à´ İ
ãĥ¼ ãĤ¹
Îº Î¹Î±
Ġáĥ© áĥĲáĥĽ
ÒĽ Ð°ÑĢ
à¦¾à¦ ī
àµĨà´Ļàµįà´ķ à´¿à´²àµįâĢį
ĠÎ¹ ÏĥÏĩ
ĠÐ¿ÑĢÐ°Ð³ ÑĢÐ°Ð¼
àµĩà´ ¦
ĠØ§ Ú¯Ø±
ĠáĢĻ áĢ¾áĢ¬
áĢģáĢº áĢ³áĢķáĢ¹
ĠáĢĶ áĢ½
à¥ĭà¤Ĥà¤ ¨à¥ĩ
ĠÑģ Ð¸ÑģÑĤÐµÐ¼
à«Ģ àª¨à«Ģ
ë ¯¼
ÏĪ ÎµÎ¹
Ġà´Ł à´¿
Ġà´¶ à´°
® à¤§à¥įà¤¯à¥ĩ
áĢĢáĢº áĢĦáĢ¹áĢ·
ĠáĢ±áĢĽ áĢ¬áĢĦáĢ¹áĢ¸
ĠáĢľ áĢ¯áĢ¶
ĠÐĳ ÐµÐ»
Ġà¦® à§ģ
ĠÐ¼ Ð¾Ð²
áĥł áĥĿáĥĳ
ĠáĢķ áĢ»
à®¿à®¯ à®¿à®©à¯į
ĠÎķ Î½
ĠÐ´ ÑĥÐ½Ñĳ
Ġà¦¤à¦¾à¦° à¦¾
ĠÐ¿ÑĢ Ð¾Ð³
à°¿à°Ĥà° ª
à«ģ àª¸
ãĥ¼ãĥ «
ĠÑħ Ð¾Ð´Ð¸
ĠÑĪÐ°Ò³ Ð°ÑĢ
Ð»Ð°Ð½ Ð´Ð¸
Ġal l
Ø· Ø©
ÐµÐ½ Ñı
àµĬ à´ķàµįà´ķàµĨ
Ġâ ľ
Ġë° ı
Î¼ ÏĢÎ¿
à¤°à¥įà¤ Ł
Ġ1 99
áĤıáĢŃáĢ¯áĢĦáĢ¹áĢ ķáĢ«áĢĲáĢļáĢ¹
áĢĴ áĢ¹áĢ
áĢ±áĢ¸áĢ ģáĢ»
Ð½ Ñĳ
Ġà´ķ à´³
áĥł áĥĲáĥ¤
ĠÐ³ Ð°ÑĢÐ´Ð¸
ĠáĢķáĢ« áĢĿáĢĦáĢº
ÏģÎ¿ ÏĨÎ¿
à´ķàµįà´ķ àµģ
×ŀ ×¨
ĠÚĨ Ú¾
ĠÑģÐ² Ñı
à´¿à´¯ à´¿àµ½
à°¾à°Ĥà°Ł à°¿
Ð´Ð¸ Ò³
ĠÏĨ Î±
Ġà¤²à¥ĭà¤Ĺ à¥ĭà¤Ĥ
Ùģ ÛĮ
áĥ¦ áĥķ
Ñ Ĵ
ĠÐ¼Ñı Ð½Ðµ
Ġà®ħ à®²à¯įà®²
ĠìĽ Ĳ
Ġs u
ĠØ³ ÙĬ
ĠÐ°Ñŀ ÑĤÐ°Ð¼
Ġà¦ª à§ģà¦²
ĠÐ°Ð² ÑĤÐ¾Ð¼
Ġàª¤à«ĩ àª¨àª¾
áĢħáĢ¹áĢ Ģ
ĠáĢĤáĢº áĢķ
áĢ¸áĢĲ áĢŃáĢ¯áĢ·
Ġà°¹ à±Ī
à§ĩà¦² à§ĩ
ãģķ ãĤĮ
ĠÐ»Ñİ Ð´Ð·ÐµÐ¹
ÏģÎ¿ Î¹
ĠÑįÑĤ Ð¾Ð¼
ĠáĥĵáĥĲáĥ £áĥ
à°ª à°¡
Ø® Øµ
ÑĨÐ¸ Ð¾Ð½
Ð¡ ÐĤ
ĠÑĢÐ¾ ÐºÑĥ
à¦ķ à§ĩà¦°
S T
Ġàªķàª¹ à«įàª¯à«ģàªĤ
ĠÏĥ ÎºÎ¿
ĠáĥłáĥĲáĥĽáĥĵ áĥĶáĥľ
Ġagçİ¯äºļ æīĭæľºçĻ»å½ķ
Ġà¸ Īà¸²à¸ģà¸
ä¿Ŀ éļľ
Ĭà¸ ·à¹Īà¸Ń
Ġà¤¤ à¤°à¥Ģ
ĠÑģ Ñĩ
ĠÐ½ Ð°Ðº
à´¿à´¨àµįà´ ¤
ì² Ń
ion s
ĠÎľ ÎŃ
Ð°Ò³ Ð¾Ð½
ĠÐºÐ°Ðº Ð¾
à±ĩà° ¸à±įà°¤
ĠÐľ ÐµÐ½
à¦ŀ à§įà¦ľ
ì§Ģ ë§Į
ÑĢ Ð¾Ð±
ĠÎ±ÏĢÎ¿ ÏĨ
ĠØ§ ÙĨØ¯
à¥ĭà¤¡ à¤¼
Ġà´ª à´ķàµįà´·
Ð¿ÑĢ Ð¾Ñģ
Ġàª® à«Ĥ
ĠÐ¼ Ð°ÑĤÑį
ĠÐ¾ÑĢÐ³Ð°Ð½ Ð¸Ð·
Ġà¦¨ à§ĩà¦¤
ÎĳÎ ĵ
ĠÏħ ÏĢÎ·ÏģÎµ
¨à¸ ±à¸
ä¹ ±
h y
æŃ£ åľ¨
çİ° åľ¨
à¥ĩà¤Ĥà¤¦ à¥įà¤°
ÒĲ Ðĵ
ĠÐłÑį ÑģÐ¿ÑĥÐ±Ð»Ñĸ
ĠáĥĵáĥĲáĥ ĳ
Ð°ÑĤ ÐºÑĥ
à°ª à±ģ
Ñģ Ð°Ð±
Ġà¦¹à¦ļ à§įà¦Ľà§ĩ
Ø§Ø® Øª
ÑĥÑĤ Ð±Ð¾Ð»
ĠÑĪ Ð°Ðº
à´§ à´¾à´¨
ÏĬ ÏĮÎ½
à¸² à¹Ģà¸
åį ±
O N
Ħà¸£à¸ ±à¹īà¸ĩà¸
ç©º éĹ´
à¥ĩà¤ ·
Ġ×Ĳ ×ķ
â Ħĸ
ĠÐ½ÐµÐº Ð°Ð»ÑĮ
ÏģÏīÏĢÎ± ÏĬ
ĠÐºÐ¾Ð¸ ÑĤÐ¾
ĠÑĩ ÐµÐ¼
Ġà¦¸ à¦¾à¦¥à§ĩ
ĠÐ¾ Ð²
ĠÎĺ Î±
ĠÐ²Ð°Ð· Ð¸ÑĦ
ÐµÑĢ Ñĸ
ĠáĢĲ áĢ°
à«Ģ àª®àª¾àªĤ
áĥĺáĥ ¬
ĠÑŀÐ· Ð³Ð°ÑĢ
ÒĽ Ð°ÑĤ
á¿ ¶
Î»Î¿Î³ Î¯Î±
ĠÐ· Ð°ÑģÑĤ
ĠØ¨ ÙĬÙĨ
Ġà¤ķà¤¿à¤Ĥà¤ µà¤¾
A A
áĢŀ áĢ¼áĢ¬áĢ¸
ĠáĢ¡ áĢĻáĤĪ
áģ¾áĢĢ áĢĲáĢ²áĢ·
ĠáĢľ áĢŃ
à°¦ à±ģ
ĠÐ±Ð¾ Òĵ
Î» ÏİÎ½
áĢľáĢ¬ áĢĲáĢ²áĢ·
áĢĭ áĢ¹áĢ
áĢ¸áĢĽ áĢ½
âĢ¦ âĢ¦
áĢĶáĢºáĢ¸áĢĻ áĢ¬áĢĽ
Ġu p
Ð±Ð¾ÑĢ Ð¾ÑĤ
ĠÐ¨ Ñĥ
ĠÐ¸ÒĽÑĤÐ¸Ñģ Ð¾Ð´Ð¸
ĠØ¯Ø§ÙĨ Ø´
Ġà´µà´¿à´¦ àµįà´¯
ĠáĢĳ áĢŃáĢ¯áĢ·
ÑĤÐ¸ Ñĩ
Ġà®¤ à¯ĭ
ĠÐ Ļ
ĠÏĨ ÏħÏĥ
ĠÐ´ ÑĥÐ¼
àªĹ àª°
Ð¾ÑĦ Ð¸ÒĽ
áĥĶáĥł áĥĶáĥ¡
Ġà¤¤à¤° à¤¹
Ð°ÑĨÐ¸ Ð¾Ð½
Ð½Ñĸ Ñı
áĢľ áĢ¼
ĠáĢĢáĢ»áĢ½áĢĶáĢº áĢĻ
áĢŀáĢ½ áĢļáĢº
àª°à«įàª ¸
Ġáĥ Ł
à´ªàµįà´ªàµĭ à´´
ì° ¨
Ð¿ Ñĭ
à±Ģà° Ĩ
Ġà°µà°¿à° ¶
ĠÐ¼ Ð°Ð¶
ĠÑĤ Ð¸Ð±
Î Ĳ
ĠÛģÙĪ ÙĨÛĴ
áĥĿ áĥĲ
ĠÏĥ ÏĦÏĮ
Ġà®ª à¯ĩà®ļ
Ð°Ð²Ðµ ÑĨ
Ġd e
ĠÒ² Ð°Ð¼
ÑĩÑĭ ÑĨÑĮ
à°Ĥà° ¡à±ģ
Ð² Ð°ÑĤÐ¸
ĠáĢĺáĢ¬ áĢĻáĢ½
ĠáĢ¡áĢ²áĢ· áĢĴáĢ®
ĸ áĢº
ĠáĢĦ áĢ½
ĠÎº Ïį
Ġàª¶ à«ģàªĤ
ĠØ¢Ùħ ÙĪØ²
ĠÙĪ ÙĬ
ĠáĢľ áĢ»áĢ¾
Ġà¦¸ à¦¦
Ġà®ķ à®¿à®Ł
àª¾àªĤ àªļ
ĠÑı Ð²Ð»Ñı
Ð» Ð°Ð´Ð¸
Ð´ Ð¾
à¦¨à§įà¦¤à§įà¦° à§Ģ
ŀ áĢ¬áĢ¸
ĠáĢĢáĢ¬ áĢĢáĢ¼áĢļáĢ¹áĢ
ĠC om
ĠÛ °
ĠÚ©Ø´ ÙĪØ±
áĢĻ áĢļáĢ¹áĢĨáĢŃáĢ¯
áĢĻáĢº áĢ¸áĢĽ
ÑĢÑĭ Ñĸ
à¤° à¤¾
à´¾à´£ àµįâĢĮ
à¦¾à¦° à§įà¦¥
Ġà®Ĩ à®°
Ġàª¨ àª¾àª®
Ġà°ķà°¾à°° à±įà°¯
áĥĶáĥł áĥĲ
ĠÐ¼Ñĥ ÑĪ
Ġìĭ ¤
ÏģÎ± ÏĢÎµ
ĠÏĥÏħ Î½Î¿
áĢķáĢ±áĢ« áĢ·
Ø´ Øª
ĠÐ¿ÑĢ Ð°ÑĨÑĭ
Ġà°¤ à±ĭ
ĠáĢ¡ áĢĻáĢºáĢ¬áĢ¸
v i
áĢ½ áĢĲáĢº
ĠÎķ Î»Î»Î·Î½
ĠÎ» Î¹
Ġà´ª à´¤
ĠÐ½Ð°Ð² ÑĥÐº
Ġà¦¸ à¦Ń
Ġáĥ¡ áĥ£áĥļ
àª° à«ĭ
Ġáĥ©áĥķáĥĶáĥľ áĥĺ
ĠØ§ÙĦØ° ÙĬ
à¦¥ à¦®
à¤® à¥ĩà¤Ĥ
áĥĶáĥĳáĥĺáĥ¡ áĥĲ
ĠØ§ Ûģ
à¯Īà®ķà¯įà®ķ à¯ģ
Îº Î®ÏĤ
áĢ® áĢ¡
Ð¾Ð»ÑĮ Ðº
ĠÑĹ Ñħ
âĢĮ à°°
Ġà°ķ à°°
ĠáĢĻáĢº áĢ¬áĢ¸
áĢŀáĢĬáĢ¹áĢ ŁáĢ¯
Ŀ áĢĶáĢº
ot her
Ġê± °
Ġà´ ļàµįà´ļ
Ġà´İ à´¸àµį
Î³ ÏĮ
à´Ĥ à´¬
Ġà°ľ à±Ģà°µ
Ġàª® àª¨
Ġáĥ¡áĥĲáĥĻ áĥ£áĥĹ
ĠÑĤ Ð¾Ò·
ĠÑħ Ð¾Ò³
×ŀ× ª
ĠáĢĦáĢ« áĢ·
áĢĻáĢ¹áĢ ķ
Ġà®ħà®µ à®°à¯įà®ķà®³
ĠÎµÏĢÎ¹ ÏĩÎµÎ¹
àª° àª¸
Ð¸ÑĤ ÐµÐ»
ãĤ ¦
Î¼Î¿Ïį ÏĤ
ĠáĢĲáĢĢ áĢļáĢ¹áĢ
áĢĲ áĢŃáĢ¯áĢĦáĢºáĢ¸
Ġà´ ĸ
Ð¾Ð²Ñĭ Ð¹
Ġà°ļà±ĩà°¶ à°¾à°°à±ģ
ĠÚ¯ Ø¦ÛĮ
Ġà¦¬ à¦¿à¦°
Ġà´ªàµģà´± à´¤àµįà´¤
Ð¸ÑĢ Ð¾Ð²
Ð°Ð½ Ñĸ
à«įàª¯ àª¾àª°à«ĩ
áĥĺáĥľ áĥĴ
áĢıáĢ¹áĢ į
à®Ł à¯į
à¤¸ à¤¾
ĠÑģÑŀ Ð½Ð³
ĠÐ´ Ñĥ
Ġà°® à°Ĥà°ļ
ĠÎ¯ Î´Î¹Î¿
à´³ àµģà´ŁàµĨ
ĠÙĩ ÙĪ
ĠÎºÎ¬ ÏĦÎ¹
áĢĬáĢ¹áĢ Ľ
áĢŀ áĢľáĢ²
áĢ¡ áĢĸáĢ¼áĢ²áĤķ
ĠáĢŀ áĢĻáĢ®áĢ¸áĢ
áĢħáĢ¹áĢħ áĢĬáĢº
Ð³ Ñĥ
à¦¾à¦ Ń
Î´ ÏīÎ½
N o
ìĸ ´ë
Ġ' >
Ķ é©°
Ġà¸ Ĺ
Ġà¥ ©
ĠÑĤÑį Ñħ
à¤Ĥà¤¤ à¥įà¤°à¥Ģ
ÏĦ Î¿ÏħÏĤ
ĠÐ³ Ð°Ñģ
ĠÒ³ Ð°Ð»
Ġà¤® à¥Į
×ĳ ×¢
ĠÑģ ÑĤÐ¾
áĥĲáĥ¢ áĥĺ
ĠÙ¾ Úĳ
áĢģáĢ²áĢ· áĢķáĢ«áĢĲáĢļáĢº
ĠáĢĲáĢ¬ áĢĿáĢĶáĢº
Ġä¸ ĸ
æł ĳ
Ħ à¹Īà¸²
Ġè®° èĢħ
è¾ ĳ
½ çĦ¶
ļ à¸£
Ġé» ĳ
æīĭæľºçīĪ å®ĺç½ĳ
åĩ Ģ
¡à¸²à¸ģà¸ ¡à¸²à¸
è ķ
èı ²
à¸£à¸§à¸ Īà¸
ç«ŀ å½©
ä¸į æĸŃ
Ġè¿Ļ ä¸ª
éĴ Ī
B ET
à¨ Ĺ
Ĺà¸ ¢à¸
ä¸Ģ èµ·
p r
Ġé Ķ
Ġéĺ ħè¯»
ĠåĪ Ľ
o o
Ġà¤® à¤¾à¤Ĺ
Ġáĥ£áĥĻ áĥķáĥĶ
ĠÑıÑħ ÑĪÐ¸
Ð¼ ÑĥÐ½
ÙĦ Ùĩ
ĠáĢŀáĢ° áĢĲáĢ¯áĢŃáĤĶ
ĠáĢ¡áĢĽ áĢĻáĢ¹áĢ¸
ou s
à°¿à°¤ à±ĭ
Ñħ Ð¸
ĠáĢĢáĢ¯ áĢŀ
Ġà®ļ à®°
ĠÐ½Ðµ Ð°Ð±
ĠÎŃÎ½Î± ÏĤ
ĸáĢ¼ áĢ²áĤķ
áĢ¬áĢ¸áĢ ĲáĢ¬
ĠáĢĲáĢħáĢ¹áĢ ±áĢļáĢ¬áĢĢáĢ¹áĢ
áĢĦáĢºáĢ¸áĢ ĳ
¦ à«įàª°
ĠáĥĻáĥĺáĥĵ áĥĶáĥķ
à´ķ àµ¾
Ġà§ §
à¥ĭà¤ ¸
ĠáĥĲáĥ ŀ
ãģ¨ãģĦ ãģĨ
ĠÑĪÑĥÐ¼ Ð¾
Ġà¦ķ à¦²
Ùģ Ø©
Ġàª¬ à«ĭàª²
ĠáĢŀ áĢĶáĢ¹áĢ¸
ĠáĢŀ áĢĽ
ĠÏĢÎ±Î¹ Î´Î¹Î¬
áģ¾áĢĢ áĢŃáĢ³
ĠáĢŁ áĢ¯áĢĲáĢ¹áĢ
ĠáĢĢáĢ» áĢ±áĢ¬áĢĦáĢºáĢ¸áĢ
Ð¾ ÑĤÑĭ
à®ªà¯įà®ªà®Ł à®¿
Ġà°ħ à°®à±įà°®
Ùģ Ø§Ø¯Ùĩ
Ġà°®à±Ģ à°¦
áĥķ áĥļáĥĺáĥ¡
ĠÐľ Ð¾ÑģÐº
ĠÐ½Ðµ Ð¾Ð±
ĠÑģ ÑĥÐ´
Ġà¦ªà§ģà¦² à¦¿à¦¶
ĠÏĥ ÏįÎ½
à®± à¯ģ
Ð ¯
Ð°Ð²Ñĸ Ñĩ
ĠÑĤÐ°Ðº Ñĸ
ĠØ¨Ûģ Øª
Ġà¦ªà§įà¦° à¦¶
Ġàª° àª®
à¹ģ à¸Ńà¸
Ġà¤Ĺ à¥įà¤°
Ġáĥ« áĥĲáĥļ
áĢķáĢ¼ áĢ±áĢ¬áĢĦáĢºáĢ¸áĢ
Ġà°ªà±Ĩ à°¦à±įà°¦
Î¸ Î¿ÏĤ
×ĵ ×¨
ĠÐ´ ÐµÐ½ÑĮ
ÑĮ Ð½Ñĸ
ĠÐĶ Ð·Ñı
ìĹ Ī
á¿ Ĩ
ĠÎ´Î¹Î± Î´Î¹Îº
Ġà§§à§ ¦
Ð½Ñı Ð¹
ĠáĥĲáĥ ĸ
ĠÐ¿ÑĢ Ð¸Ð¼
à« §
Ġàªķ à«ĩàªŁàª²
áĢŃáĢĲáĢ¹áĢ Ĩ
áĢħáĢ¹áĢ Ĳ
áĢĢáĢ¼áĢ±áĢ¬áĢĦáĢº áĢ·
ï »
· à¸Ńà¸ĩà¸
Ġà¹Ģà¸ Ķ
Ġà¤¸à¤Ĥà¤ ª
Ġà¦Ĩ à¦Ľà§ĩ
áĢĨ áĢ±áĢ¸áĢ
Ġà°ķ à°¿
Îµ ÏģÎ¿
æ° Ĺ
Ðµ Ñŀ
áĢĦáĢº áĢ¸áĢĢ
Ġà´¸ àµĤ
Ø£ ÙĨ
ĠÐ· Ð½Ð°Ñĩ
à®¿à®ķà¯įà®ķ à¯ģ
Ú¯ Ø§ÙĨ
áĥĲáĥ¡ áĥ£áĥ®
ak e
ĠáĥĵáĥĲáĥ Ĵ
à±Īà°¨ à°¾
à¦¤ à¦¾à¦°
áĢ±áĢ ģáĢ«áĢĦáĢ¹áĢ¸
áĢħáĢ¬áĢ¸áĢŀ áĢĻ
Ġà¤® à¥ģà¤
ĠÏĥÏĦ ÏģÎ±
ÑģÐ¸ Ñĩ
ĠagæĹĹèĪ°åİħ ä¸ĭè½½
è° ģ
å§Ķåĳĺ ä¼ļ
à¤¾à¤± à¥įà¤¯à¤¾
ĠÑĢÐµ ÑĪ
àµĨ à´²àµįà´²
ĠáĢĻáĢº áĢĢáĢ¹áĤıáĢ½áĢ¬
Ĺ áĢºáĢ¬
áĢĶ áĢħáĢ¹
áĢ¬áĢ¸áĢĽ áĢ½áĢŃ
ĠáĢĴ áĢ±áĢŀ
ĠÑģ Ñĸ
ĠáĥĴáĥĲáĥľ áĥª
Ļ à¯įà®ķà®³à¯į
ĠÐ¸ Ð³
Ġàª¤à«ĩ àª¨à«Ģ
à¤ļà¥įà¤ Ľ
áĥ®áĥķ áĥĲ
à´¨ àµģà´Ĥ
ãĥ ĸ
ĠÑģ Ð°Ðº
Ġà°¸ à°¾à°§
ĠÑĥ ÑĪÐ±Ñĥ
ĠÐ¼Ñĥ ÑģÑĤ
Î¹Î± Ïĥ
Ġà´® àµĩ
Ġ×ľ ×¤
ĠØ§Ù ı
Ð½Ð¸ ÐºÐ¸
ĠÎ± ÏĢÎµ
ĠÐ² Ð°Ð»
à¦¬ à¦°
Ø¹ Ùħ
ĠÐĲÐ¼ Ð¼Ð¾
Ġm e
Ð°Ð· Ð²
ĠØ§Ø³Øª ÙģØ§Ø¯Ùĩ
áĢ±áĢĶ áĢĽ
ĠáĢ»áĢķáĢĬáĢ¹áĢ ĲáĢ¼áĢĦáĢ¹áĢ¸
áĢķáĢºáĢĻ áĢĲáĢ±áĢ¬áĢº
Ġà´ª àµįà´ª
Ġà´ķ à´¥
áĢ³ áĢ¶
¡áĢħ áĢŃáĢ¯áĢ¸áĢĽ
Ġ áĤĶ
Ģ áĢ¯
ĠáĢ¦ áĢ¸
áģ º
áĢ±áĢĽ áĢ¬áĢĦáĢ¹áĢ
áĢ¬áĢĽ áĢ½áĢŃ
áĢ¸áĢ ģáĢ¼
ĠÑĢ ÐµÐ·
ĠÏĥÏħÎ½ ÎµÏģÎ³
ĠÎµ Î¼ÏĨ
Ġà´İà´¨àµįà´¨ à´¾à´²àµįâĢį
Ġë§ Ĳ
Ġà´ķ à´²
áĥ¡ áĥĲáĥª
áĢĶáĢ±áĢ ĲáĢ²áĢ·
Ģ áĢŃáĢ¯áĢĦáĢ¹áĢ
áĢĲáĢ¹áĢ Ĩ
áĢĦáĢ¹áĢ ĢáĢŃáĢ¯
Ġáģ¾ áĢŀ
áĤıáĢ½ áĢ¶
ĠáĢĴ áĢ±áĢ«áĢº
áĤĪ áĢŃ
áĢĽ áĢ®áĢľ
à¯ĩ à®¯
ĠáĢĢ áĢŃáĢħáģ¥
áĢ»áĢĸáĢħáĢ¹ áģ¿áĢķáĢ®áĢ¸
±áĢĲáĢ¬ áĢĦáĢ¹
ĠI n
Î¹Îº Î·
áĢĻ áĢĽáĢ¾áĢŃ
à¦¾à¦® à¦²
ÏĥÏĦÎ· ÎºÎµ
à¶ »
åķ ª
Ġæ¬§ ç¾İ
Ġà¤ľ à¥Ī
Ð¾ÑĢ Ð°ÑĤÐ¸
Ġà´ªàµĭ à´¯
Ø§Ø «
àªª à«įàª°
ĠÐ°Ð´ ÐºÑĢÑĭ
Ġà¦ķ à§įà¦°
ĠÐ±Ð°ÑĢ ÑĩÐ°
is h
Ð°Ð»Ð°ÑĢ Ð¸Ð½Ð¸
ĠÐĶÐ°Ð² Ð»Ð°ÑĤ
Ñħ Ð¸ÑĢ
ª áĥ®
Ð¾Ð± Ñī
Ġà´ħà´µ à´¸
à¯Īà®¯ à®¾à®ķ
Ħ ¢
ĠÐ´ Ð²
Ĥà¸²à¸ ¢
è°ĥ æŁ¥
åĵ Ī
s b
Ġæ² ³
Ġà¤ª à¥ģà¤°
ÎŁ ÎĻ
ĠÎµ Î½Î·
ĠÎ½ÎŃ Î±
ĠáĢĽ áĢŁ
áĢ¶áĢĢ áĢŃáĢĶáĢ¹áĢ¸
i le
ĠáĢľáĢ° áĢĳáĢ¯
áĢħ áĢ±
Ġà°ľ à°¿à°²à±įà°²
ĠÐ² ÑĥÑĩ
ÏĮÏĦÎ· ÏĦÎ±ÏĤ
Ġàª« àª¿àª²
ĠÐ½ Ð¸Ñģ
Ġà°µà°¿à° §
åł ´
ĠëĤ ´
Ð°Ð½ ÑĤ
áĢĢáģł áĤĴ
ĠáĢĻ áĢ»áĢĢáĢº
à«įàª¯ à«ģàª
Ġáĥĳ áĥĶáĥķ
Ġà´® à´£
à§ģà¦ ľ
ĠÎŁ Îº
ĠØ® Ø±
ĠÎ²Î± Î¸
Ñı Ñĩ
×ł ×Ļ×Ŀ
Ġ5 åĪĨæĹ¶æĹ¶å½©
çĶµ è¯Ŀ
åĨ °
i e
æĮ ¥
Ġåģ ļ
Ġà¤®à¥ģ à¤Ĥà¤¬à¤Ī
Ġp c
Ġagäºļ å®ĺç½ĳ
é£İ éĻ©
æĬ ĵ
åĿ Ĳ
Ĺà¸µà¸ ¡à¸
Ġè¶ ħ
äºĭ ä»¶
ĠåĽ ŀ
Ġåİ »
Ġag ç½ĳç«Ļ
Ġå §
æµĭ è¯ķ
ª à¸Ńà¸ĩà¸
_ å®ĺæĸ¹
Ġè¯ ·
èĮĥ åĽ´
Ġà¤Ŀà¤¾à¤² à¥Ģ
Ġà¦ªà§įà¦° à¦¥à¦®
áĢĻáĢ¬ áģ»
ĠáĢĳ áĢ¯áĢŃ
ĠáĢ¡ áĢ±áĢĢáĢ¬áĢĦáĢ¹áĢ¸
áĢŀ áĢĲáĢĦáĢ¹áĢ¸
áĢĶ áĢĢáĢ¹
áĢĻáĢº áĢ¸áĢĨ
ĠÐĨ Ð½
ĠÙħ Ø±Ø¯
ìŀ ĳ
Ġà¤¹à¥ģà¤ Ĩ
ĠÑĺ Ð°
ÏģÏĮ ÏĤ
Ñĥ Ð½Ð¾
ĠàªĨàªľ à«ĩ
ĠØ§ÙĦ Ø§
Î½Î¿Î½ ÏĦÎ±ÏĤ
à°¨à±įà°¨ à°¾à°°à±ģ
Ġà´īà´ª à´¯àµĭà´Ĺ
à® ľ
ĠáĢ±áĢĽ áĢ½áĤķ
áĢĨ áĢĦáĢ¹áĢ¸
áĢ¡ áĢģáĢ»áĢŃáĢĶáĢº
ĠÐķ ÑģÐ»Ð¸
Ð½Ð¸ Ñı
ĠáĥĽ áĥĺáĥľ
ŀà¸ ¢à¸²à¸
æİ Ī
æĽ °
æĪĳ çļĦ
èĮ ¶
ª à¹Įà¸
Ġå® ĺ
è± ª
ªà¸ ¡à¸²à¸
Ġà¤¶ à¥ĩà¤¤
Ġç ¤
ķà¸ ģ
Ġèģ Ķ
Ġæł ¹
Ġå® Į
Ġà¸ Ķ
Ġà¤µà¤¿à¤ ļà¤¾à¤°
Ġà°ķ à±ĩà°¸
ĠÎ ©
ĠÛ±Û³Û ¹Û
Ø§ÙĨ Ø¯
at a
Ġàª¤à«ĩàª ĵ
Ġà°ķ à°¥
Ð»Ð°Ð´ Ð·Ñĸ
ĠÑĸ Ð·
ĠÑħ ÑĥÑĤ
Îł Îĳ
Ġà°ħ à°¡
áĥĲáĥļ áĥĲáĥ¥
áĢ»áĢģ áĢ¬áĢ¸
áĢĸ áĢ¯áĢŃáĤĶ
ĠáĢ±áĢķ áĢºáĢ¬áĢ¹áĢ
áĢķáĢ¼áĢĬáĢº áĢĶáĢļáĢº
Ġà®®à¯ģà®© à¯įà®©
ĠÑħ Ð¾ÑĢÐ¸
à§ĩà¦¬ à§ĩ
ĠÎ· Î¼ÎŃ
í Ŀ
áĢ¯áĢŃ áĢĢáĢ¹
áĢ¡ áĢĻ
ĠÐŃ ÑĤÐ¾
ëĤ ´
ĠÛģ Ø±
Ġà¤ĩà¤¸ à¤ķà¥ĩ
éĸ ĵ
à¸£à¸²à¸ ¢
Ĥ à¹īà¸Ńà¸
ç ¦ģ
à¹ģà¸ Ķà¸
è®¡åĪĴ ç½ĳ
à¥Ģà¤² à¤¾
Ġà°ªà±įà°° à°¤
ÏģÎ¹ Î¿ÏĤ
ŀ áĢ¼áĢ¬áĢ¸
ĠáĢŀ áĢ¯
ĠÑĥÐ¼ ÑĥÐ¼
Âµ Î±
ĠÏĢÏģÎ¿ÏĥÏī ÏĢ
áĥķ áĥĶáĥĵ
áĢķáĢ±áĢĻ áĢļáĢ·áĢº
ĠáĢĶ áĢļáĢ¹áĢ
±áĢľ áĢ¸áĢ±áĢĲáĢ¼
ħ áĢĽáĢ¬
áĢĶáĢ¹áĢĻ áĢ¬
áĢĨ áĢĦáĢ¹áĢ·
áĢ½ áĢĦáĢºáĢ·
ĠáĢĳ áĢŃáĢ¯áĤĶ
ĠáĢĲ áĢ®
ÙĨ Ø©
Ġà¦¬ à¦¾à§ľ
ĠÎ¼ÎµÏĦÎ± Î¾Ïį
Ġâķ ķ
ĠÐ± Ðµ
áģ¢ áĢº
áĢĶáĢ¾ áĢ¯áĢĶáĢº
ĠÐ½Ðµ Ð·
Ġà¦Ĺ à¦¤
áĥ¢ áĥł
Ġà¹Ģà¸ Ľ
æī ©
à¸´à¸ ĩ
à¥Ģà¤ļ à¥Ģ
ê· ¸
ĠØ·Ø± ØŃ
ĠÎ¼Î± Î¶Î¯
à®Ļà¯įà®ķà®³ à®¿à®²à¯į
Ġà¤¦à¥įà¤µ à¤¾à¤°à¤¾
Ð°Ð´ Ñį
Ġà°²à±ĩà°¦ à±ģ
ĠáĥĽáĥĺáĥ ¦
ĠÑĥ Ð»Ð°ÑĢÐ½Ð¸Ð½Ð³
ĠÑģ Ð°Ò³
Ġâķ ĳ
ĠÑĤ ÑĢÑĭ
ê¸ ī
à´¨àµįà´± àµį
8 5
Ġå¤§åıĳ å¤§åıĳå½©ç¥ŀ
áŀ ¾
Ġà¤®à¥įà¤¹à¤£à¤ľ à¥ĩ
à°¾à°° à°¨à°¿
ÎŃ Î²
ÐºÐ¾ÑĢ Ð»Ð¸Ðº
ĠÒ³Ð°ÑĢ Ð°ÐºÐ°ÑĤ
Ġà¦ªà¦¾à¦° à§ĩ
àª£ àª¾
ĠáĢ¡ áĢĲáĢ½áĢĢáĢº
Ġà°ļ à°Ĥà°¦à±įà°°
ĠÐ±Ñĭ ÑĤÑĮ
Ñĩ Ð½ÑĭÑħ
áģ¿ áĢĸáĢħáĢ¹áĢ
¡ áĢĲáĢ¼áĢĢáĢ¹
ĠáĢĢ áĢ¯áĢĶáĢº
ĠØ£ ÙĬ
ĠÑĨ ÑĮ
Ġáĥĵ áĥĶáĥĵ
Ġ×ĳ ×¨
à°¿à° ³
ĠÐ» Ð¾Ð¹
ĠÑĦ Ð°ÑĬ
Ġà´¸à´Ĥà´Ń à´µ
ÙĦØ§ Ùģ
Ð»Ñı Ñħ
ĠÎ£ Î±
à°ķ à°°
Ġà¤¨ à¤¸
ÏĦÎŃ Î»Îµ
Ñ ľ
Ð°Ð½ Ðµ
ĠØ¯Ø§Ø± Ø¯
Ġin t
áĢĦáĢ¹áĢ±áĢ »áĢķ
ĠáĢĽáĢ½ áĢĻáĢ¹áĢ¸
ĠáĢķáĢ¼áĢĶáĢº áĢľáĢĬáĢº
Ñĩ Ð½Ð°Ð¹
áĥĺáĥļáĥĺ áĥĲ
Ġà¤Ĺ à¤ı
ë¬ ¼
ĠÐ¼ Ð°Ð±
ĠÎ£ÏĦÎ· Î½
ĠØ¯ ÛĮÚ©
= =
Ġ' ).
ĠàªĨ àª°
Ġà®ªà®¾à®° à¯įà®¤à¯įà®¤
à´¤à´¿à´° àµĨ
ĠÎ£ ÏĦÎ±
Ġà®ªà¯ĭ à®²
Ġà° Ĺà°¾
ĠÐºÐ°ÑĤ ÑĤÐ°
Ð°ÑģÑģÐ¸ Ñģ
à´ķàµįà´ķ àµģà´±
ĠÐĿ Ð°Ð²
ÎµÎ¯ ÏĦÎ±Î¹
áĢ±áĢĽáĢŃáĢĢ áĢĶáĢº
ŀ à¸£à¸°à¸
Ġà¤® à¤²à¤¾
ÐµÑĢÐ¶ Ð°Ð²
Ġáĥ¨ áĥĶáĥĴ
Ð¶ Ð¾Ð½
Ġà¤Ĩà¤ª à¤£
ĠÐľ Ð¸ÑĢ
Ð¾Ñģ ÑģÐ¸Ñı
ĠÐ¶ Ð°Ð²Ð¾Ð±
ĠÒĽÐ¸Ð» Ð¸Ð½Ð³Ð°Ð½
ĠÐºÑŀ Ð·
ĠÐ± ÑĥÐ·
Ġàª¬ àª¾àª³
Ġà°ķ à±ĩà°Ĥà°¦à±įà°°
ĠØ² ÛĮ
ĠÎļ Î¬
àµģà´®àµįà´ªàµĭ à´³àµįâĢį
Ġà´ª à´ł
»áĢĸáĢħáĢ¹áĢ ŀáĢĬáĢ¹
áĢĲáĢ° áĢĬáĢ®
ÑĢÐµ Ð´Ð¸
à®¿à® ¸
à¶ Ń
Ġà¤¹ à¤°
à±Ĩà°² à±įà°²
Ð½Ð¸ Ð¼Ð¸
ĠÐ¼Ð°ÑģÑĤ Ð°ÑĨ
ĠáĥĴ áĥĸ
×ľ ×Ļ
à«ĭàª §
i re
ÑĤ Ð¾Ñŀ
ð Ł
åŃ¦ æł¡
çĽ® æłĩ
ä½į ç½®
à¸Ńà¸¢ à¸²à¸ģà¸
éģ Ń
ľà¸¥à¸´à¸ ķà¸
Ġà¸ªà¸ ¡à¸±à¸
Ġà¤¦ à¤¿à¤µà¤¸
à°¾à°¨ à°Ĥ
ĠÐĲ Ð³Ð°ÑĢ
Ð²Ñı Ð·
ĠÏĥ Î¿
Ð ¤
Ð½Ð¸Ðº Ð¾Ð²
A V
Ġà¤¨ à¤¾à¤®
¥ ¼
ĠØ§ÙĦÙħ ÙĨ
±áĢĶ áĢĽáĢ¬
ĠáĢĵ áĢ«
ĠáĢĲ áĢĶ
ĠÐ± ÑıÑģÐ¿
ĠÎµÏĨ Î±Ïģ
à°¯ à°Ĥà°²à±ĭ
Ð¾Ð² Ðµ
áĥľ áĥĺáĥ¨áĥľ
ĠáĢ±áĢĻ áĢ¬áĢ¹áĢ
áĢĢáĢ¹áĢŀ áĢ¼áĢļáĢ¹áĢ
áĢĳáĢ¬áĢ¸áĢ ķáĢ«áĢĲáĢļáĢ¹
áĢĦáĢ¹áĢ¸ áĢĢ
in k
Ġà¦īà¦ª à¦ľ
àµĩ à´µ
¥ áĢķ
Ġà¦¨ à¦¿à§Ł
è´Ł è´£
è¯ į
Ġà¤¸ à¥įà¤ª
ÏĢ Î±Î½
áĢ±áĢ¸áĢ Ĩ
ÑģÐº Ð¸Ñħ
ĠÐ±ÐµÑĢ Ð¸ÑĪ
ĠÐ¼ Ð¸Ð½Ð³
ĠÐ± Ð°ÑĬ
ĠÐ½Ð°Ð² ÑĥÑĩ
ÑĩÑĭ Ð½Ñĭ
ĠÎµÏĢÎ¯ ÏĥÎ·ÏĤ
Ġà´ªàµįà´°à´µ à´°àµįâĢįà´¤àµįà´¤
à®¿à®¯ à®²à¯į
à´¯ à´¾à´£àµį
±áĢķáĢ« áĢ·
±áĢĢ áĢ¬áĢĦáĢ¹áĢ
áĢħ áĢķáĢº
ãģĤ ãĤĬ
Ġà¦ªà§įà¦°à¦ķ à¦¾à¦¶
Ð°Ð´ Ñĥ
Ġàª¬ àª¾àª¦
à°¦ à±ĩà°¶
Ø±ÙĪ Ø´
ĠÐ± ÑĥÐ»
áĥĶáĥĳ áĥĹáĥĲáĥľ
èķ ī
Ġà¤īà¤¨à¥įà¤¹ à¥ĭà¤Ĥà¤¨à¥ĩ
ĠáĢĿ áĢĦáĢº
àµĭ à´£
Ġà¦¤ à¦¾à¦ģ
Ð¶ Ð½
Ø§ÙĦ ÙĬ
ĠÙĨ Ø´
Ġàª® àª¾àª¨
Ġà®ĩ à®±
æ± ł
Ī à¸µ
à¹Ģà¸ģà¸ µà¹Īà¸¢à¸§à¸
à¤¿à¤² à¤¾
ĠÎĵ Î¹
Ġ201 3
ĠÎµÎ½ ÏĮÏĤ
áĢĢáĢ¹áĢ ľáĢ¬
áĢĻáĢ¾áĢ¯ áĢĢáĢŃáĢ¯
×ķ×ł ×Ķ
Ð¾Ð² Ð¸
Ð°ÑĢ Ð¾Ñŀ
Ġà°ķ à°¾à°µ
ì ¸
Ġag å®ĺæĸ¹ç½ĳç«Ļ
Ġà¨ Ĩ
Ġ äºĳ
Ġ app
æ §
Ġà¤¦ à¤¿à¤¸
Ð¿ Ð¸
àª² à«Ģ
áĥĶáĥĹ áĥĲ
Ġà¦¸ à§ĩ
ĠÐŁ Ð¾Ð´
Ð°ÑĢ Ð°
à®¿à®°à¯ģà®¨à¯įà®¤ à¯ģ
Ġà¤¸à¤ķ à¤¤à¤¾
Ġà´Ń à´¾à´Ĺ
à±ĭ à°ª
Ġàªķàª° à«ĭ
ÑĪ Ð°
ĠáĥĽ áĥĶáĥł
Ħà¸£à¸ ĩà¸
æ¯Ķ èµĽ
Ġà¤ł à¥ĩà¤µ
Ð¼ ÐµÑĢ
ĠÐº Ó¯
íĻĶ ìĿ´íĬ¸
íĶĦ íĻĶìĿ´íĬ¸
Ġíĺ Ħ
ÏĢ Ïī
Ġáĥĺáĥ¥ áĥľáĥĶáĥĳáĥĲ
ĠØ¨ Ø®
ÑĳÐ½ Ð½Ñı
Ġï¿½ï¿½ï¿½ï¿½ ï¿½ï¿½ï¿½ï¿½
ĠÎ² Î¹Î²
ĠÐ²Ð¾Ð· Ð¼Ð¾Ð¶
ic h
Ġà§© à§
Î¼ Î¹Î±
áĥĲáĥłáĥ ļ
à§ģ à¦Ł
ĠáĢ±áĢľ áĢ·áĢľáĢ¬
ĠáĢĲ áĢ¯áĢŃáĢĦáĢ¹áĢ¸
Ļ áĢ¾áĢ¬
ĠáĢħ áĢĲ
Ġàªªà«ĭàª² à«Ģàª¸
ÙĪ Ø§Ùħ
ĠÐ²ÑĬ Ð·
ÑĢ Ð¾Ñŀ
àµģà´Ĥ à´¬
åķ Ĭ
Ġè į
Ġåį ķ
Ġåħ³ äºİ
Ġà¸ ¡à¸²
å¯¼ èĪª
æĳ Ħ
«à¸ §
Ġagçİ¯äºļ ç½ĳç«Ļ
Ġ7 0
à¹Īà¸² à¸Ļà¸
ç¨³ å®ļ
Ĭà¸ ¡à¸
éĩĩ çĶ¨
¸à¸ Ľà¸
çĶµ è§Ĩ
à¤¿à¤ķ à¤¾
áĥłáĥ ª
Ïĥ Î¼Î±ÏĦÎ±
Ġàª® àª¨à«ĩ
Ġ% ãĢĤ
áŀ ¸
y s
ä¸Ģ ä¸ĭ
à¹Ģà¸ Ĺà¸
ļ à¸£à¸£à¸
ĠéĻ Ī
Ġæĥ ³
Ġà¤ľ à¤¿à¤²
ÏĨÎŃÏģ ÎµÎ¹
à¦°à§įà¦ ķ
Ð°Ð» Ð¸Ð·
à±ģà°ķ à±ģà°¨à°¿
Ġà´ķà´¾à´° àµįà´¯
æĮ ĳ
à¥ĩà¤ķ à¥įà¤·
ĠÑĥ Ð²
áĢħ áĢŃ
Î»Îµ Ïį
àª¾àªĤ àª¤
à°¾à°Ĥà° ķ
ĠÛģ ÙĪÚº
Ġáĥ¡áĥĲáĥĸ áĥĿáĥĴ
ÙĤ ÙĦ
×© ×Ķ
áĢľ áĢ±áĢ¸áĢĲ
L D
áĢĲáĢħáĢ¹áĢ ±áĢļáĢ¬áĢĢáĢ¹áĢ
áĢ¡ áĢ»áĢĸáĢħáĢ¹
áĢĶáĢ¹áĤĢáĢĢáĢ®áĢ¸áĢ ĮáĢ¬áĢĶ
ĠáĢ¡ áĢ±áĢ¬áĢĢáĢº
ĠÐ´ Ð·ÐµÐ½ÑĮ
áĥĶáĥĳáĥļ áĥĲáĥĵ
Î¸ ÎµÎ½
Ġí ĽĦ
ÑģÑĸ Ð¼
à°Ĥà°Ĺ à°¾à°£
à°Ĥà°Ł à°¿
Î´ ÏģÎ±
à´¾à´Ł àµį
ĠÐ¿Ð¾ Ð·
áĢĽ áĢ¯
ÛĮØ± ÛĮ
áĢĨ áĢ¶áĢ¯áĢ¸áĢ
ĠáĢ¡ áĢ®
ĠÐ¿ÑĢÐ°Ð¿ Ð°Ð½
à´¿à´ §
ĠÐ¾ ÒĽ
àªļ à«įàªļ
ĠÎ¶Ïī Î®
ĠÐ¼Ðµ Ð±Ð¾ÑĪ
Ġà®® à®¤
Î»Î¿ ÏįÎ½
ĠÐ² Ñģ
à´¾à´ ¬
¬ áĥĽ
ï Ĥ
ĠáĢ±áĢ Ŀ
lo ad
ĠáĢ¡ áĢ±áĢ¬áĢĦáĢº
Ġà¤ª à¥Ī
Ġà¦ĩ à¦¸à¦²
à°°à±įà°µ à°¾à°¤
Ġà¦ķ à¦¿
Ġ our
Ð¾ÑĢ Ð¾ÑĪ
Ġ. )
Ð² Ñĥ
Ġà¦¶ à§ĩà¦·
Ø§ÙĦ Ùħ
Ġë°Ķ ì¹´ëĿ¼
ì ¤ĳ
Ġà´®à´¨ à´¸àµįà´¸
Ġ out
ĠP re
Ĳ áĢļáĢ¹áĢľáĢŃáĢ¯áĤĶ
áĢĦ áĢļáĢ¹
ĠáĢĩ áĢ¬
Ġàªħ àª¹
áĢ±áĢĽáĢ¸áĢ ļáĢ°
±áĢŀ áĢ¬áĢĢáĢ¹áĢ
ĠáĢľáĢĢáĢ¹áĢ Ķ
ĠáĢľáĢ¼ áĢĲáĢ¹áĢľ
ĠáĢŀáĢ° áĢĦáĢļáĢ¹áĢģáĢºáĢĦáĢ¹áĢ¸
ĠáĢ¡ áĢĻáĢ¼
ĠØ¬ Ùħ
ĠáĥĴáĥĲáĥľ áĥķáĥĺáĥĹ
ÑįÐ½ Ð½Ñĸ
Ġà°µ à°¿à°¨
à®¿à®ķà¯įà®ķ à¯ģà®®à¯į
Ġà¤ķà¤° à¤¨à¤¾
à¥Ģ à¤¸
ĠÏĦ ÎµÏĩ
Ġáĥ§áĥķáĥĶáĥļ áĥĲáĥ¤
à¦¬ à§ĩà¦¨
à´ªàµįà´ª à´Ĥ
à°¤ à±įà°°
ĠÙĪ ÙĤØª
ĠÐ¿ÑĢÐµÐ´ ÑģÑĤÐ°Ð²
Ġàª¥ àªĩ
Ð¿ Ñĥ
Ïĩ Î®ÏĤ
§ áĥķ
×ķ× Ķ
ĠàªĹ à«įàª°
Ġáĥ¡áĥĲáĥĸáĥĿáĥĴ áĥĲáĥĵáĥĿ
ìĨ į
ç»§ ç»Ń
ķà¹Īà¸²à¸ĩ à¹Ĩ
y l
± à¹īà¸Ļ
Ĭà¸µà¸§à¸´à¸ ķà¸
Ġà¸ ¢à¸
à¹Ħà¸¡à¹Ī à¹Ħà¸Ķà¹īà¸
Ķà¸ §à¸
è¾ Ĩ
Ġà¸ ļà¸²à¸Ĺ
Ġ ä¹Ĳ
æľĢ é«ĺ
æ³¨åĨĮ ç½ĳåĿĢ
à¹ī à¸Ńà¸Ļà¸
ç¡ ¬
æĿ Ł
Īà¸°à¹Ģà¸ Ľà¹ĩà¸Ļà¸
Ħ à¸Ļà¹Ģà¸
Ġäºļæ¸¸å®ĺç½ĳ ç½ĳç«Ļ
c l
78 9
ĠåĪĨ åĪĨå¿«3
ç¶ ĵ
à¤¾à¤ Ĭ
ĠáĢŀáĢĺáĢ¬ áĢĿ
áĥķ áĥĺ
Ġà°¨à°¿à°° à±įà°®
ĠÐ²Ñĭ Ð¿Ð°Ð´
ĠÎº ÏģÎ¹
Ġà¦Ĩ à¦¦
ĠáģĤáģĢáģģáģ Ī
áĢ¦ áĢ¸
ÎĳÎ ł
ĠÎ¸Îµ Ïī
áĥĶáĥĳáĥĺáĥ¡ áĥĹáĥķáĥĺáĥ¡
áĢ»áĢĸ áĢ´
áĢŀ áĢĬáĢ·áĢ¹
ĠáĢŀáĢŃáĢ¯áĢ· áĢĻáĢŁáĢ¯áĢĲáĢº
Ġà¦¸ à¦ķ
à¯įà®ļ à¯įà®ļ
ĠçĻ ½
Ġå¯¹ äºİ
èµĦ éĩĳ
æ± ¡
éĽ ·
à¥ĩà¤ļ à¥įà¤¯à¤¾
àµĪ à´µ
Ð½Ð¾ ÑĤÐ¾
ÙĪ Øª
ind i
à· Ķ
Ġà¤ª à¤¾à¤°
Ġà°® à°§à±įà°¯
Ïĥ ÏĦÎ¹
Ġà¦¨à¦¿à¦°à§įà¦¬ à¦¾à¦ļ
àª¡ à«Ģ
ĠÐº Ð°ÑĩÐµ
¶ Į
Ġà´¤ à´¿
Ġà´İ à´¨
Ġàªħ àªŃ
à´ķ à´Ĥ
à¦¾à¦ ł
ÏĢÎ¿ ÏĦÎµ
Ðº Ð°Ð²
ĠÑģÐ» ÑĥÑĩ
áĥĲáĥłáĥĵ áĥĲ
×ķ× ŀ×
Ð½Ð¾ Ñİ
Ġg o
Ð°Ñŀ ÑģÑı
à®Ł à¯ģà®ķà¯įà®ķ
à¦ ĥ
ĠI ST
Ġàª Ĭ
Ð»Ñĸ Ð·
ãĤ į
Ġà´µà´¿à´ ³
à±ģà°Ł à±įà°Ł
ĠÏĢÎ¬Î½ Ïī
à¤¯ à¥ĭà¤Ĺ
ìĻ ¸
Ġà¦¬à¦¿à¦ ¦
ĠÐ´ Ð¾ÑģÑĤ
Ø§Ø¦ ÙĨ
Ġáĥ¡áĥĲáĥ¨ áĥ£áĥĲáĥļ
ì µľ
ĠÐ²Ð¾ ÑģÐ¸ÑĤ
à®µ à®°à¯įà®ķà®³à¯į
æİ ī
è «
å¡ Ķ
áŀ Ļ
Ġå¤§åıĳäºĶ åĪĨéĴŁå¿«ä¸ī
Ġà¤Ń à¤¾à¤ľ
çĪ ¶
æĪĺ çķ¥
åŁº éĩĳ
à¹Ī à¸Ńà¸Ļ
ĠéĿ ¢
çī¹ èī²
Ġą ĆĈ
Ġà¤¨à¤¿à¤µ à¤¡
Ġë Ĭ
à°ª à±įà°°
à´® àµģà´³àµįà´³
Ø² ÛĮ
Ġà§ ¬
Ġà¤ħ à¤®
ĠÐ¸ÑģÑĤ Ð¸ÑĦ
àª¯ à«ĭàªĹ
ĠÏĢÏģÎ±Î³ Î¼Î±
Ġà¦¬à¦Ľ à¦°
áĥĲáĥ Ł
Ġà°¤à±Ĩà°² à°Ĥà°Ĺà°¾à°£
Ġà°ĩ à°ļà±įà°ļ
Ñĩ Ð½Ñĭ
Ġà®¤ à¯ĩà®°
ĠÎµ Î´Ïİ
Ġp re
ĠÙĪØ§ÙĦ Ùħ
ĠÐ± ÐµÑģÐ¿
à°¿à°² à±į
ĠÏĥ Î±Î½
áĥĶáĥľ áĥĲ
ãĥ ĩ
Ġà´¸à´Ĥ à´¸àµįà´¥à´¾à´¨
Ð²Ðµ ÑģÑĤ
Ġà´¤ à´²
ĠÐ²Ñĭ Ð±Ð°ÑĢ
çģ ¯
8 6
Ġà¤ħà¤¸ à¥Ĥà¤¨
Ġ×Ķ ×Ķ
ĠÐ» ÐµÐ¿
Ġà¦ª à§Ĥ
Ġu u
à¥ģ à¤¦à¥įà¤§
à¯įà®¸ à¯į
ÙģØª Ùĩ
ÏĦÎ· ÏĦÎ±ÏĤ
Ġì ¶
Ġà°® à±Ĩ
ĠÐŁ ÑĢÐ¾
à´¾à´® àµįà´ª
ÑĤ Ñĸ
ĠÐº Ð°Ð¶
áĥĵ áĥĺáĥ¡
Î¼ÎŃÎ½Î¿ ÏĤ
Ġà°¦ à±Ģ
ĠàªıàªŁàª² à«ĩ
Ð´ ÑįÐ½
í Ĺ
Ø¬ Ùħ
Ġï ½
Ġà¤ķà¤° à¥ĩà¤Ĥ
ÑĢ Ð¸Ð±
Ġà¦ıà¦® à¦¨
Ð½Ð¸ Ð¾ÑĤ
Î¼ ÏīÎ½
Ġàªī àª¤
Ð³ ÐĤ
Ð°ÑĤ Ð¾ÑĢÑĭ
áĢŀ áĢĦáĢ¹áĢ·
ĠáĢ¡ áĢĻáĢŃ
Ĭà¸²à¸ ¢à¸
Ġà¤Ŀà¤¾à¤² à¥ĩ
at ed
ĠÐ¸ Ð¼Ðµ
ĠáĢ»áĢĻáĢĶáĢ¹áĢĻáĢ¬ áĢ»áĢķáĢĬáĢ¹áĢ
áĢ¡ áĢģáĢ¼
à´¾à´ķàµįà´ķ à´¿
Ġáĥ¨áĥĶáĥĵ áĥĶáĥĴ
ĠÎĻ Î±Î½
ãģĦ ãģ¦
ĠÎºÏħÎ² ÎŃÏģÎ½Î·
à°¾à°² à°ķà±ģ
Ø§Ø ¤
Ġà®ªà¯Ĩ à®°
à¤Ĥà¤ ¸
Î¼ ÎµÎ¹
Ġàªľ à«įàª¯àª¾àª°à«ĩ
áĢ±áĢķáģļ áĢĻáĢ½áĢ¬
ĠáĢĳ áĢ²
áĢľ áĢ¬áĢĽ
Ġ380 9
ÑĸÐ»ÑĮ ÑĪ
ÑĬÐ» Ð³Ð°ÑĢ
Ġà´µà´² à´¿à´¯
ĠÑģÐ» ÐµÐ´
Ġ×ŀ× §
ÙĪ Ùĩ
ĠÐº Ð°Ð»Ñı
Ĩ áĢŃáĢ¯áĢĦáĢ¹áĢ
áĢĿáĢº áĤĪ
áĢļáĢ¹áĢħ áĢ¬áĢ¸áĢľáĢ½
áĢļáĢ· áĢ¹áĢ
áĢĲáĢ½ áĢ±áĢ¡
ĠáģĤáģ ģ
ĠáĥłáĥĿáĥĽ áĥļáĥĶáĥĳ
Ø¦ ÙĬØ³
ĠÎ¤ ÎŁÎ¥
ĠÎ±ÏĢÎ¿ Îº
ĠáĢĲ áĢŃáĢ¯áĢ¸áĢĲ
Ġà¤®à¥Ī à¤Ĥ
Ġà¤¸ à¤¾à¤²
or y
Ġà¦Ł à§įà¦°
áģ¢ áĤĨ
áĢ¬áĢ¸áĢĻ áĢŃ
Ġà°² à±ĩà°ķ
Ð°Ð» Ó£
Ġà´ªàµĭ à´ķ
ä¸Ģ ç¯ĩ
à¤¾à¤µ à¤¾
ëŀ Į
ÏģÎµ Î¯Î±
ØªØ± ÛĮÙĨ
ĠáĢħáĢħáĢ¹áĢ ±áĢĨ
áĢĬáĢº áĢ·
ĠâĢ¦ áģĭ
áĢĺ áĢĢáĢ¹áĢĢ
áĢĨ áĢĶáĢº
ĠÑıÐºÑĸ Ñħ
ĠÐ¿ Ð¾Ð½
ĠÑĢ Ð°Ð²
ÙĪ Ø³
ãĤ Ń
áĢħ áĢĢáĢº
45 6
¹ à¹īà¸
æķ £
é ŀ
çĽ´ èĲ¥
Ġæķ Ļ
èĪ ŀ
æ£ ®
· à¸Ļ
à¥ĩà¤² à¤¾
Î¼Îµ Î¯
áĥĿáĥ¡ áĥ¢
Ġàªļ à«Ĥ
Ġà°¤ à°¿à°°
Î± ÏģÎ¯Î¿Ïħ
ĠáĢĢ áĢ¬áĢľ
áĢħ áĢŃáĢ¯áĢ¸áĢĽ
ÏĦ Ïį
Ġàªľàª£ àª¾àªµ
àµĤ à´¹
áĢ±áĢ ļáĢ¬
ĠÐ¿ÑĢ Ð°Ð²Ñĸ
Ġà¦ķà§ĭà¦¨ à§ĭ
Ð¾ Ñī
ĠÐĳ Ð°
Ġà´ªàµįà´° à´§à´¾à´¨
áĥĸ áĥĲáĥĵ
Îķ Îļ
ĠÏĢÏģÏİ ÏĦÎ·
Ġ×ľ ×ĳ
à®ķ à®°
p h
áĢŃáĢ³ áĢ¸áĢ
áĢ¯áĢ¶ áĢ¸áĢĽ
Ġà¦ħà¦Ń à¦¿à¦
Ġ **
à¸´ à¹Īà¸ĩ
ľ à¸´à¸Ķà¸
Ġè¿ ĩ
ĠAGçİ¯äºļ å®ĺç½ĳ
éĩ İ
Ġà¤ªà¥įà¤° à¤ķ
¶ àª¨
Ñģ Ñĭ
ĠÐµ Ð´
Ġáĥĵ áĥłáĥĿ
ĠáĢ¡áĢ²áĢĴáĢ® áĢľáĢŃáĢ¯
áĢ¸áĢĢáĢ» áĢĦáĢº
ĠÎ» Î¬
ĠÐ½ Ð¾Ò³
ÑģÑĮ ÐºÐ°
ÙĦ Ø¨
Ð¾Ð»ÑĮ ÑĪ
Ġà¦¬ à¦¾à¦¸
Ġàªķ à«įàª°
Ġà°®à±ģà° ĸà±įà°¯
Ġu z
ĠÐº ÐµÑĩ
Ð°Ð½ Ð±Ðµ
»áĢķáĢĬáĢ¹áĢ ĶáĢļáĢ¹áĢ
áĢ¾ áĢĦáĢ·áĢº
à´° àµģà´ŁàµĨ
¥à¸²à¸ ¢à¸
å¯ ¦
Ġg 22
å® ľ
ä¸ĵ å®¶
åĮħ æĭ¬
æħ ¢
éĿł è°±
ä¸Ģ çĽ´
ļ èĩ³
Ġà¤¡ à¥ī
ĠÎºÎ± á½¶
ĠÎ¿ Î´Î·
ĠÐ¡ Ð
Ð½Ð¸ ÐºÑĸÐ²
Ġthe ir
Ġáĥł áĥĶáĥĴ
Ð´ Ð¸Ð»Ð°ÑĢ
Ð°Ð½ Ð´Ð°
ä»¥ æĿ¥
éĢ Ĳ
äº ¡
ä¸» å¸Ń
Ħ à¸²à¸
Ġáł ª
Ġà¹Ģà¸ Ľà¹ĩà¸Ļ
_ å½©ç¥¨
ĠãĢģ ï¼Į
à¹ģà¸Ļ à¹Īà¸Ļ
Ġà¤ħà¤¶ à¥Ģ
Ð½Ñĥ ÑĨÑĮ
à°¾à°³ à±įà°³
Î ŀ
ĠÏİ ÏĥÏĦÎµ
à¤Ĥà¤ ľ
Ġ×Ķ× ĵ
áĢ¸áĢŀ áĢĬáĢ¹
ĠáĢľáĢ¯áĢķáĢ¹áĢ ±áĢĨáĢ¬áĢĦáĢ¹áĢ
ĠáĢĶ áĢĬáĢº
ĠÐ±Ð¾Ð» ÐµÐµ
· à«įàª
Ġà°µà°¿à°¦ à±įà°¯
à¦¬ à§įà¦¯
ĠÐ± ÑĬ
Ġà®® à®±
ÑĤÑĭ ÐºÑĥ
ĠÐ¾Ñģ Ð¾Ð±
Ð¶Ð½ Ð°ÑĢÐ¾Ð´
ê° ģ
ĠáĥĶ áĥľ
ĠØ¨ ÚĨ
ĠÐ¼ÑĥÐ² Ð¾ÑĦÐ¸ÒĽ
áĢĽ áĢ±áĢ¬
ªà¸¸à¸ Ĥà¸
201 7
ĠãĢģï¼Į ãĢģ
Ġà¸£à¸ ¸à¹Īà¸Ļ
åĽŀ è¡Ģ
à¹Ĥ à¸Ń
å¨±ä¹Ĳ å®ĺç½ĳ
ä¸¤ ä¸ª
Ġà¸ŀà¸£ à¹īà¸Ńà¸¡à¸
çĮ ®
æľī æķĪ
Ġåĩ¯åıĳ å®ĺç½ĳ
åĪ ĺ
Ġà¤ķ à¤¾à¤³
Î¯Î½ Î¿ÏħÎ½
Ġà´ª à´Ļàµįà´ķ
à¦¾à¦² à§ĩà¦°
ÙĦ Ø³
ĠÐ°Ð¿ Ð¾ÑĪ
Ġà¤ķ à¥įà¤·
ĠÑĪÑĥÐ´Ð° Ð°ÑģÑĤ
à¯ģà®¤ à¯į
Ġà°®à±Ģ à°°à±ģ
Ġàª¤ àª°
è¦ ĭ
à´® àµĩ
ĠÏĨ Î¿Ïģ
Ġà¦¬ à§ĥ
Ġn e
ĠÐ¶ Ð°
áĢĲáĢº áĢĻáĢ¾áĢĲáĢº
Ùģ Ø³
Ð°ÑĨ ÑĸÑı
Ġáĥª áĥĶáĥľáĥ¢
à¯Ĩ à®²à¯įà®²
ÑĢ Ð°ÑĦ
áĢ°áĢ¸áĢ ķ
ĠÏĦ Î¬
ì¶Ķ ì²ľ
¤ Ģ
àµĬ à´¨àµįà´¨
Ġà¦¦ à§ĩà§Ł
Ġàªķàª¾àª° à«įàª¯
ĠáĢĻ áĢ¬
ĠÑģ Ð¾Ð·
ĠÙĨ ÙĪ
Ġà®ªà¯Ĩ à®±à¯įà®±
áĥĵ áĥĺáĥľ
ĠÐ»Ñİ Ð´
×¨ ×ª
áĢĻáĢ¼áĢŃáĢ¯áĢ· áĢĶáĢļáĢº
ĠáĢĲáĢĽ áĢ¬áĢ¸áĢħ
ÏĢÏĦ ÏīÏĥÎ·
Ð°Ð²Ñĸ ÐºÐ°
à´¿à´¯ à´¾à´£àµį
áĢĽ áĢķáĢ«
ĠÐ¿ ÑĥÐ»
à¦Ľ à§ĩà¦¨
Ġà¤¸à¤¬ à¤¸à¥ĩ
ĠÐĲ Ð¿
æ³ °
Ġà¤®à¥ģ à¤²
Ġ Ð°Ñĳ
Ø¯ Ø±
Ġà´Ĩ à´¦
ĠáĢľ áĢ¯áĢķáĢ¹
ĠáĢĢáĢ¼áĢº áĢĶáĢ¹áĢ±áĢĲáĢ¬áĢ¹áĢ
ĠáĢĢ áĢ¶
ĠÑĤ Ñĥ
ĠÎ Ħ
áĢ¬áĢ¸áĢĲ áĢ½
áĢĺ áĢ®
ĠÑħ ÑĥÑģ
à«ģ àªµ
ëĬ ¥
Î½ Î¹
ĠÐ² ÑıÐ´Ð¾Ð¼
ĠÐ¼ Ð½Ð¾Ð³Ð¾
ou nd
Ġà¦¶ à§įà¦°
çĦ ¡
Ġà®ħ à®£
Ġà´¸ àµįà´¤
à¦°à§įà¦ ·
ĠÎŃ ÏīÏĤ
ĠÒ³Ð¾Ðº Ð¸Ð¼
ĠÑģ Ð°ÒĽ
ĠÑĦÑĥÒĽ Ð°ÑĢÐ¾
ĠÐºÐ¾ÑĢ ÑħÐ¾Ð½
áĢĽ áĢķáĢ¹áĢ
áĢ¬áĢ¸áĢĲ áĢħáĢ¹áĢ
ĠáĢĽ áĢ¯áĢķáĢº
ĠÒĽÐ¸Ð» Ð´Ð¸
Ð¾ÑĢ Ð¸Ð¹
g an
____ ____
ĠÐĲ Ñģ
Ġáĥ¡ áĥĺáĥ¢
Ġà´°à´¾à´ľ àµįà´¯
ĠÛģÙĪ Ø§
ãģ Ķ
à¨ Ī
Ġç§Ĵ ç§Ĵ
Ġà¤¦ à¤°
Ġàª«àª¿àª² à«įàª®
ĠÎĳ Î¸Î®
Ð· Ð¾Ð´
ÎĳÎ Ķ
ÎµÏħ ÏĥÎ·
ĠÐ¼ÐµÐºÑĥÐ½ Ð°Ð´
Ñļ Ðµ
Ð°ÑĨ ÑĸÐ¹
ĠÎ´ Ïħ
àªĤàª Ł
ĠáĢĴáĢ« áĢ±áģ¾áĢĢáĢ¬áĢĦáĢ¹áĢ·
áĢĻáĢ» áĢĢáĢº
à±ģà°¤ à±Ĥ
Ð²Ð°Ð½ Ð½Ðµ
áĥĺáĥ Ń
Ġ×ľ ×Ĺ
ĠáĢļ áĢ¯áĢ¶
ĠÎ¸ÎŃ ÏĥÎ·
ãģ ĺ
à«ĭàª°à«įàª Ł
Ġë¶ Ħ
ĠÑĤ Ð¸
à¦ ģ
ĠÚĨ Ùĩ
æ¤ į
Ġï¼ī ãĢĤ
ĠéĢ Ļ
Ġ ç½ĳä¸Ĭ
ª à¸²à¸£à¸
ĠĈ ą
Ġà¤Ń à¤¾à¤Ĺ
ĠØ¬ Ø§
ÙĪÙĦ Ø©
Ð»Ñĸ Ðº
ĠáĥĻ áĥł
Ġ201 2
ĠÎ¬Î½ Î¸ÏģÏī
Ġà°¬ à±įà°°
áĢĻáĢ» áĢ¬áĢ¸áĢĢ
à®¾à®£ à¯įà®Ł
ÐµÑĤ Ñĭ
Ġàª¸àª¾àª® à«ĩ
áĥĲáĥľ áĥĺáĥ¡
Ïĩ ÏģÎ¿
à´°àµįâĢį à´¶
àµįà´¯ à´¾à´ª
Ñį Ðº
ÏĦÏħ Ïĩ
Ø² Ø´
ÑĸÑģÑĤ Ñį
ĠÐł Ðħ
ĠÐ´ Ñĸ
ĠÐ´Ð°Ð² Ð»Ð°ÑĤÐ¸
àª¾àª Ń
Ġí İ
Ġm ore
Ġà°¤ à±Ĭ
ĠÎĳÏħ ÏĦÏĮ
Ġà¦¦ à§ģà¦ĩ
àµĤ à´±
ĠÐ¾ Ð¸Ð´
Ġà¦Ĩà¦Ĺ à§ĩ
Ð¿ÑĢ ÐµÐ´
ÑĤ Ð°ÑĢÑĭ
ĠÐ¼Ð°Ðº ÑĤÐ°Ð±
áĪ Ń
Ġà¤® à¥ģà¤ĸ
áĥĲáĥł áĥĿ
à°°à±įà° ķ
ÛĶ ÛĶ
ãĤ ¸
ĠÐ½ Ð°Ñĺ
ĠÙĨ Ø§Ùħ
Ð²Ñĸ ÑĤ
Ĭ áĢ®
ĠÐ·Ð°ÑĢ ÑĥÑĢ
Ġ×Ĵ ×Ŀ
áģ¿áĢĻ áĢ²
áĢĨ áĢ¶
ĠáĥĲáĥĽ áĥĺáĥ¡
Ð İ
Ðº Ð¾Ð²Ð°
áĢĻáĢ»áĢ¬áĢ¸áĢ ĶáĢ¾áĢĦáĢ·áĢº
ĠÎ´ÏħÎ½Î± ÏĦÏĮ
Ð¾Ñģ Ð¾Ð±
Ġàª°à«Ĥ àªª
Ñŀ Ð·
ĠÒĽÐ°ÑĢ ÑĪÐ¸
ĠÑĤ Ð°Ð±
Ġáĥ¡áĥĲáĥ¥áĥĲáĥłáĥĹáĥķáĥĶáĥļ áĥĿáĥ¨áĥĺ
Ġáĥĺ áĥª
çº ¸
à¹Ģà¸ ĺ
è¡Į åĬ¨
à¸£à¸²à¸ Ĭà¸
à©ĭ à¨Ĥ
æ¡ ¥
Ġà¤ª à¥ģà¤¢
à¦¾à¦¨ à§ĭ
Ġà¤Ĩà¤ª à¤ķà¥ĭ
à¯Īà®ļ à¯į
ĠàªĽ à«ĭ
ÙĤ Ø±
ĠÎ¤ Î·Î½
áĥĺáĥľ áĥĺáĥ¡
Ġêµ Ĳ
Î¼Îµ Î½Î·
ĠÑĪ Ð°Ð²
Ð²Ñĭ ÑĩÐ°Ð¹
Ġà´ľàµĢà´µ à´¿à´¤
à± ĸ
à´¾à´¨àµįà´ ¤
æŁ¥ è¯¢
à¤¦ à¤¾
áĥĺáĥ£áĥ ļ
Ġà°İà°¨à±įà°¨ à°¿à°ķ
Ġb ut
ĠÏĥ ÏĦÎµ
Ġà°ħ à°®
ĠÙĪ Ø¨
ĠÐ²ÑĸÐ´ Ð¿Ð¾Ð²ÑĸÐ´
ĠÐĿ Ð¾
âĢ Ļ
ĠÚ¯ ÛĮ
à´µà´¿à´ §
à¦¾à¦§ à§įà¦¯à¦®
ĠÎ£ Ïĩ
Ð» Ð°Ð¹Ð½
Ïģ Î¹Îº
ĠáĥĹáĥĲáĥľ áĥĲáĥĽ
Ð³ Ð¾Ð´
à°µ à°¿
íĺ ķ
Ġ×¤ ×¨
ĠàªŃ àª¾àªĹ
àµģà´® à´¾à´¯
à®² à®®à¯į
ÏĪ ÎµÎ¹ÏĤ
Ġà¤ļ à¤²
ĠÐ¼Ð¾Ð¶ Ðµ
ãĥ³ãĤ °
áĥ£áĥ ª
Îķ ÎĻÎ£
Î® ÏĦÎ·
ĠÐ¾ Ð½Ð¸
ĠÚ© ÚĨÚ¾
æľ «
æī ¶
áŁ Ĥ
çĶŁ æĢģ
à¤¾à¤¤ à¥Ĥà¤¨
à§ĭ à¦°à§įà¦
ÙĬ Øª
áĥ£áĥ Ļ
áĢĢáĢ° áĢ¡áĢĬáĢ®
ĠÐ¾Ð» Ð³Ð°Ð½
Ð´Ð¸ Ð¹
Ð¾ Ð¸Ð·
ĠÎº Î¿Î¹
áĥĶáĥł áĥĺáĥ¡
áĢ®áĢ¸áĢ ħ
Ðŀ ÐĿ
Ð¾Ð½ Ð¸ÑĪ
ĠØª ÙĪØ§ÙĨ
Ġà´¨ àµĭà´ķàµįà´ķ
à®¾à®¤ à¯įà®¤
p er
ĠÑŀ ÑģÐµ
áĢĽáĢ½ áĢĦáĢ¹áĢ
u ary
ĠáĢĽ áĢĦáĢ¹áĢ
ĠáĢħ áĢŃáĢ¯áĢ¸áĢĽ
Ĺà¸µà¹Īà¸ Ķà¸µà¸
é» ŀ
Ġåħ¬ åı¸
æĲ ı
åº Ĭ
ĠæĮ ī
Ġæ° ĳ
áŀ ļáŀ
à¤¾à¤Ĥà¤ ¸
à±ĩà° ¦à°¿
ì½ Ķ
áĢ¬áĢ¸áĢ ķáĢ¼
ĠÎłÎ¿Î» Î¹
à´¿à´¸ àµįà´±àµįà´±
à§ģ à¦¦
áĥ£áĥļ áĥĲáĥĵ
ĠÑĢ Ñĭ
ĠÏĮ ÏĥÎ¿
ĠØª Øµ
Ð¹ Ñħ
à«ĩàª¨ à«įàªŁ
áĢ¡ áĢ±áĢĽ
áĢ¡ áĢĸáĢ¼áĢ²áĤĶ
áĢ¼áĢĶáĢ¹áĢ ľ
ĠáĢ± áģĢ
áĢļáĢº áĢľáĢŃáĢ¯áĢ·
áĢģ áĢı
à¯Ĩ à®©
áĥł áĥĶáĥĳáĥĺ
ĠÐ¹Ð¸ Òĵ
ÐµÑĢ Ð¾
Ð°Ð¿ ÑĢÐ°Ñŀ
ĠãĤ ¹
áĢ±áĢķáĢ« áĢĲáĢļáĢº
±áĢ ģáģļ
Ġáģ ¸
ĠáĢķ áĢ°
Ġ×Ľ ×Ļ
Ïĥ Ïĥ
ìĶ ¨
áĢģ áĢĶáĢ¹áĤĶ
ĠáĢľ áĢ½áĢº
ĠáĢŀ áĢĢáĢ¹áĢ
ĠáĢĻ áĢ±áĢľ
Ġà¤¸ à¤Ńà¥Ģ
Ġà¦ħ à¦¸
áĥĺáĥ¢ áĥĿáĥĽ
áģĢáģĢ áģĢ
íĥ Ŀ
Ġà´¯ àµģ
ÐµÐ½ Ñĸ
à´¿à´ ¶
áĢĲáĢļáĢ¹áĢ ĨáĢŃáĢ¯
ĠáĢģ áĢĶáĢ¹áĤĶ
áĢ®áĢ¸áĢ Ķ
Ġc l
Ġáĥŀáĥĺáĥłáĥķ áĥĶáĥļáĥĺ
Ġå¿ ĥ
çĽ ĸ
åĽ½ åĨħ
åĩº çļĦ
à¤¾à¤Ĥà¤ ¡
ÛĮÙħ Øª
Ġà°°à±Ĩ à°Ĥà°¡à±ģ
ì ¶
ĠÐ² Ñĳ
ĠÙĦ Øª
Ġàª« àª°
àµ½ à´ķ
ĠÐĲ Ðº
ĠÎ³ Î¯Î½ÎµÎ¹
ÛĮ Ùĩ
Ð°Ð¶ Ðµ
ĠÐ´Ð¾ÑĢ Ð°Ð´
áĢŃáĢ¯ áĢ¸áĢĢ
ãĥ ł
Ġä»Ĭ å¹´
å¦ ¹
à¨ ľ
«à¸ §à¹Īà¸²à¸
à¹ĥà¸ Ħà¸£à¸
as h
å½©ç¥¨ å¨±ä¹Ĳ
Ġà¨ķ à¨°
à¹Ģà¸ ģ
Ľà¸£à¸°à¹Ģà¸Ĺà¸ ¨à¸
Ġ äºİ
éĢ ²
Ħ à¸£à¸±à¸
èĪ ¹
èĲ ¨
å ´
in a
Ġà¤Ŀà¤¾à¤² à¤¾
Ðµ ÑĩÐµ
à§įà¦ §
ĠáĢĢáĢŃáĢ¯áĢļáĢ¹áĢ ħ
ĠáĢħ áĢ¥áĢ¹áĢ¸
ĠáĢ±áĢĴáĢŀ áĢģáĢ¶
áĢŀ áĢ¯áĢ¶áĢ¸áĢ
ĠáĥĹ áĥĺáĥĹ
à¤µ à¤¾à¤°
á½ ´
Î¬Î½ Ïī
Ġà°µà±įà°¯ à°ķà±įà°¤
I d
ëį ĺ
ĠÐ¿ÐµÑĢ Ðµ
Ġà®ħ à®¤à¯ģ
Ù¹ Ú¾
Ġàªħ àªª
ĠØ¢ÙħÙĪØ² Ø´
Î¡ Îĵ
Î¬Î½ ÎµÎ¹
áĥĺ áĥĶáĥłáĥĹ
Ġ×ķ ×ŀ×
áĢĲ áĢĬáĢ¹áĢ
ĠáĢĨ áĢ®
Ġà¦ħà¦¨ à§įà¦¯
Ġ ä¹ħä¹ħ
à¤¤ à¤¿
ÑĤ ÑįÑĤ
áĢģáĢºáĢŃ áĢĶáĢ¹áĢĻáĢ½áĢ¬
áĢĽ áĢŃáĢ¯áĢĢáĢº
ĠØ¯ Ø§Ø¯
Â »
ĠÎº Î¿Î¹Î½
àªĤàªĹ à«įàª°
ÙĦØ§ ÙĤ
ĠÏĦÏģÏĮ ÏĢÎ¿
Ġà¹ģà¸ ¥à¸°à¹Ģà¸
åĭ Ļ
à¥įà¤ Ĺ
ÐµÐ¼ Ñĥ
Ð½Ñĸ ÐºÑĥ
Ġ àµ»
à´¾à´³ àµįâĢį
àµįà´µ à´¾à´¸
Î» Î¼
Ġàª¬ à«įàª°
Ġë ¦¬
à¯įà®ķ à®¿à®±
ĠÑĤÐ°Ðº Ð¾Ð¶
à´¨ àµį
Ġà°¤ à°°à±įà°µà°¾à°¤
áĢŀ áĢĶ
ĠÑģ Ð´ÐµÐ»
ĠáĥĽ áĥĺáĥķ
ĠáĢŁ áĢ°
Ġ Ð°Ð¶
ĠÑı ÑĢÐ°ÑĤ
ĠÒ³ Ð¸Ð¼
ĠÒ³ Ð°Ð²
Î¿Ïħ Î»Î¯Î¿Ïħ
áĥ£áĥļ áĥ¢
à´¿à´¨àµįà´ ±
Ġt im
ĠÐ² ÑģÐ¸Ñĩ
Ġ×Ĳ ×ķ×ª
Ø« Ø±
Î³ Î½Ïī
áĢĻ áĢĬáĢ¹áĢ·
es e
áĢľ áĢ¯áĢ¶áĢ¸
Ġà¦ħ à¦°à§įà¦¥
à®ķ à®®à¯į
Ñı Ð²
ë° ľ
ĠÑĢ Ñĥ
à¥ĩà¤Ĥà¤ Ł
à°¿à° §
ÏĢÎ±Î¹ Î´ÎµÏħ
áĢ¸áĢ±áĢ ¡
ĠáĢĽ áĢ±áĢ¬áĢĢáĢº
ĠÎ¤ Îµ
áĥķ áĥĺáĥĵ
ĠÏĢ Î¿Î¹
à«ĩàª Ĥ
ĠâĢļ âĦĸ
ĠÐ¿ÑĢÑĭ Ñģ
à®±à¯įà®± à®¿
ÎĻÎ ©
ĠÏĢÎ± ÏģÎŃ
áĢ¸áĢ±áĢ ŀ
ĠáĢ¡áĢĻ áĢ±áĢĽáĢŃáĢĢáĢĶáĢº
ĠÐ· Ð°Ñı
Ġà´¬ à´¿
ĠÐ± Ð¸Ð´
à´Ł àµģà´ķàµįà´ķ
Ġ×ķ ×ĳ
® áĥĶáĥĵ
Ġà¦Ł à¦¾à¦ķà¦¾
Ġà¦¹ à¦¾à¦ľà¦¾à¦°
íķľ ëĭ¤
ĠÎ¼ Î¿Î½
ĠÑģÐ² ÐµÑĤ
à®¿à®µ à¯ģ
Ġà´° à´¿
Ġà´ħ à´®àµįà´®
à±Ģ à°²à±ĭ
Ġà´ĩ à´²àµįà´²
áĢļáĢ¹áĢ Ľ
ĠáĢħ áĢ¬áĢĽ
ĠÐ¾Ð» Ð´Ð¸
Ð° Ð°ÑĤ
ĠÐł Ð¾ÑģÑģÐ¸Ñı
ĠÎ§ Î±
ĠÒ Ĵ
àªľ à«Ģ
à¦¨à§įà¦ ¡
Ð»Ð°ÑĢ Ð¸Ð¼Ð¸Ð·
ĠÐľ ÑĥÒ³
çī Ļ
åī Ĥ
à¤¤ à¥įà¤¨
o ok
à°Ĥà°¤à±įà°° à°¿
ÑĨ ÐºÑĸ
áĢĨáĢŃáĢ¯ áĢ±áĢĲáĢ¬áĢ·
ĠáĢ¡ áĤıáĢ¯
áĢĽ áĢĬáĢº
ĠÐĲ Ð¹
Ø¨ Ø§Ø¯
ĠÎ± ÏģÎ¹Î¸
à°¿à° ¶
æľ¬ éģĵ
¦ à¥Ģ
ĠÑĦ Ð°Ðº
ãĥ §
ĠÒ³ ÐµÑĩ
ĠÐ¼Ð°Ñģ Ð°Ð»
ĠÑħ Ð°Ð²
Ġà¤¬ à¤¤
Ġà´® àµģ
Ñı Ð±ÑĢ
ĠÐĴ ÑıÐ»Ñĸ
ëĵ¤ ìĿ´
à°¿à° ¬
ĠÚ¯ Ø¦ÛĴ
Ġàªľ àª°à«Ĥ
Ġà®ķ à®¿à®°
Ġâķ Ľ
Ð°ÑĦ ÑĤ
Ġà¦° à¦¹
áĢĲáĢ½ áĢ±áĢĽ
à¦¾à¦° à§Ģ
ĠÎ» ÎµÏĢ
ĠáĢĳ áĢĬáĢ¹áĢ·
ĠáĢ»áĢķ áĢĦáĢ¹áĢĨ
áĢĸ áĢĲáĢ¹áĢ
áĢ±áĢľ áĢ¸áĢĢáĢŃáĢ¯
ĠM edia
áĢŀ áĢĦáĢ·áĢº
ÙĪ Ø§Øª
ĠÐº Ð»Ð°Ñģ
Ġà¤« à¤¿à¤²
×ł ×ķ×ª
Ġà¤ª à¥ģà¤²
áĥĲáĥļ áĥ®
ĠÐ´Ð¾ Ð¿
Ġ en
¡à¸ ·à¸Ń
Ġæ¾³éĹ¨ æĸ°
èª ª
áŀ ĳ
ķà¸±à¸ Ķà¸
à¤°à¥įà¤ ¶
Î»Î» Î¹
à±ģà°² à±įà°²à±ĭ
ĠÐ¿Ð°Ðº Ð°Ð·
Ġà¦¨ à§ĩà¦ĩ
ĠØ® Ø¨Ø±
Ùħ ÛĮÙĨ
ĠÑģÐ¿Ðµ ÑĨÑĭÑı
Ð¾Ð²Ð°Ð½ Ð¸Ðµ
Ġà´° àµģ
à´¡ à´¿à´¯
áĤĬáĢĲáĢ¹áĢ ±áĢĲáĢ¬áĢ¹
ĠáĢĲ áĢ½áĢĦáĢº
Ġà°¸ à°¹
ĠÏĢ Î»Î®
áĥĶáĥļ áĥĺáĥ¡
Ð Ń
Ð°Ð½ ÑĭÑħ
ãģ§ ãģį
Î³ ÎµÎ½
Ġà¦Ĩà¦ª à¦¨à¦¾à¦°
ĠÐ¿Ð¾Ñģ Ð»Ðµ
ÏģÎ¬ ÏĤ
à´°àµįâĢį à´ļàµįà´ļ
Ġà´ħà´¦àµįà´¦àµĩà´¹ à´Ĥ
Ĺ à¹Į
èµĦ æĸĻ
æī§ è¡Į
èģĶ åĲĪ
çĸ «
äº§ çĶŁ
Ġà¤ħà¤¸ à¤¤
ÑĥÑİ ÑĤÑĮ
ĠØ§ÙĦ Ùĩ
ĠÏĩ ÎµÎ¹
áĥł áĥĲáĥĵ
ĠÐ¾ÑĢ ÒĽ
ĠÑį Ð³Ð°
Ġ Ð°ÑĬÐ·
Ð¸Ð» Ð¸Ð±
ĠÑŀÑĢ ÑĤ
ĠÐ±Ð¾ÑĢ Ð°Ð¸
à®¾à®µ à®¤à¯ģ
Ð¾Ð² Ð°Ð¹
Ġàª¤àª® àª¾àª°àª¾
à¥ĩà¤Ĺ à¤¾
áĢŀáĢ° áĢĻáĢºáĢ¬áĢ¸
áĢŀ áĢĦáĢ¹áĢ¸
ĠáĢĲáĢĦáĢ¹áĢ »áĢķ
áĢķáĢ±áĢ« áĢĦáĢºáĢ¸
Ġà°ı à°®
Ġcon t
ĠÎ¿Î¼Î¬ Î´Î±
Ġ" ).
Ġáĥ£áĥ ¡
Ð´Ð·Ðµ Ð»
Ġ×Ķ× ¦
ÑĥÐ»ÑĮ ÑĤ
áĢĲ áĢĶáĢ¬
áĢ»áĢķ áĢĬáĢ¹áĢ·
ĠáĢ±áĢħ áĢ¬áĢĦáĢ¹áĢ·
ĠáĢ±áĢ»áĢķáĢ¬ áĢĨáĢŃáĢ¯
it e
ĠÎ¼ÏĢÎ¿ ÏģÎ¿Ïį
áĢĽáĢ±áĢ¸áĢ ¡
Ġà°ħà°§ à°¿à°ķà°¾à°°
ľà¸´à¸ §à¸
Ġå¥ ³
ç« Ł
å·ŀ å¸Ĥ
3 æľĪ
å°¼ æĸ¯
èĴ Ļ
ªà¹Īà¸§ à¸Ļ
Ĉ ï¼Į
à¥ģà¤ Ĺ
ĠáĥĲáĥ¡ áĥĶ
Ġàªµ àª¾àª°
Ġà´ªàµįà´° à´¶
Ðº Ð°ÑĤÐ°
ĠáĥĴáĥĲáĥĽ áĥĿáĥª
ìĦ ¤
ĠÐł Ð°Ò³
ĠÒĽ ÑĥÐ²
Îº Ïħ
ĠÐ¿ÑĢÐ°Ð± Ð»ÐµÐ¼
à¤° à¤£
áĤĲ áĢ½
ŀ áĢľáĢŃáĢ¯
ĠáĢ¡áĢŀ áĢĦáĢ¹áĢ¸
áĢģ áĢ²áĤĶ
Ĳ áĢĲáĢ¹áĢ
áĢ»áĢķ áĢĦáĢ¹áĢ
»áĢķáĢĬáĢ¹áĢ ĶáĢļáĢ¹
ĠáĢŀ áĢĦáĢ¹áĢ
áĢĻáĢ¹áĢ¸ áĢŀáĢ¬
ĠáĢľ áĢŃáĢ¯áĢĢáĢº
à¯Īà® ª
ĠÎ±ÎºÏĮ Î¼Î·
áĢĢ áĢĽ
ĠØ´ ÙĩØ±
áĢĲáĢŃáĢ¯áĢ· áĢĢáĢŃáĢ¯
ĠÐ´Ð¾ Ð´Ð°
ĠáĢĲ áĢĢáĢº
Ð¾Ð² Ð¾Ð¹
à°Ĥà° Ń
ĠáĥĴáĥĲáĥľáĥª áĥ®áĥĲáĥĵ
Ġà¦¬à¦¿à¦Ń à¦¿à¦¨à§įà¦¨
ĠØ±Ûģ Ø§
Ġëª¨ íħĶ
Ġë° °
ĠáĢķáĢ« áĢĲáĢļáĢ¹
áĢĨ áĢŃáĢ¯áĢĦáĢ¹áĢĽáĢ¬
áĢ¸áĢ ĺ
Ġáĥľ áĥĲáĥĻ
Ĺà¸ĩà¸ ļà¸Ńà¸¥
ĠåŁ º
ĠäºĶ åĪĨå½©
è´Ń å½©
çĨ Ł
à¤¾à¤ Ń
áĢ¸áĢĽ áĢ¼áĢ¬
áĢ¬áĢ¸áĢħ áĢ½áĢ¬
Ġà´ıà´±àµįà´± à´µàµģà´Ĥ
ÎĻ ÎŁ
ĠÎµ ÎºÎ±
ÑĪ Ð¾Ñŀ
Ð°Ð½ Ð¸Ð¸
Ð¡ Ðĥ
ĠÐ Ħ
ÙĬ Ø«
Ġà¤¸à¤Ĥà¤ ¸
ÛĮØ´ ÙĨ
àª¥ àª¾
ÐµÐ» Ð°
Ġà®ļ à¯Ĥ
Ġà°Ĵ à°ķà±įà°ķ
Ġà¦° à§Ł
ãĤ °
Î» ÏīÎ½
ĠØ®ÙĪ Ø§Ùĩ
Ġàª¤à«įàª¯ àª¾àªĤ
áĥłáĥĹ áĥ®
ĠÑħ Ð¾ÑĤ
Ġthe y
Ġë ĺ
ÑĨ Ñį
à°¾à°µ à±ģ
ĠÎ¾Îµ Î½Î¿Î´Î¿
à°°à±įà° Ĺ
ÑģÑĮ ÐºÑĸ
ĠÐ¤ Ð°ÑĢ
Ġ" ,
ÑĥÑģÑĤ ÑĢÑį
áĤı áĢ½áĢŃ
áĢĤáģ¢ áĢŃáĢ³
áĢĻáĢ½áĢ¬ áĢľáĢĬáĢ¹áĢ¸
áĢĲáĢº áĢľ
×ķ× ĸ
Ïħ ÏĦÏĮ
à· ĥ
Ġà¤¸ à¤¿à¤Ĥà¤
ĠÐ²Ñĭ ÐºÐ°Ð½
à°° à±įà°²
à¶ ¸
à¤¾à¤ ī
ÑĬ ÑĢÐ¶
à§ĩà§Ł à§ĩ
ĠÐ¼ Ð½Ð¾
Ø± Ùģ
ĠÏĦ ÏİÏģÎ±
ĠÑĤÐ¾Ò· Ð¸Ðº
ĠÑĤÐ°Ñģ Ð´Ð¸ÒĽ
àª¤ àª¿àª
áĥłáĥ £áĥļáĥĺ
ĻáĢ½ áĢºáĢ¬áĢ¹áĢ
±áĢĲáĢ¼ áĢĶáĢ²áĤĶ
ĠáĢĲáĢ¬ áĢĿáĢĶáĢ¹áĢ
áĢ¬áĢ¸áĢĻ áĢ¾
à´¾à´² àµģà´Ĥ
ĠÎĽ Î±
ĠÎ´ Ïī
ĠãĤ ¢
à®¿à®ªà¯įà®ª à¯ģ
Ð¾Ð´ Ð¸ÑĢ
Ñĥ ÑģÐ¸Ñı
Ġà¦ķà¦° à§ĩà¦Ľà§ĩ
ĠÏĥÏħÎ³ ÎºÎµÎºÏģÎ¹
áĥĶáĥĳ áĥĶáĥĳáĥĺáĥ¡
Ġà¤« à¤¿à¤°
ÙĪØ± Ø©
ÑģÐº ÑĥÑİ
ĠÐ¼Ð°Ð± Ð»Ð°
Ġà°ħà°¨ à±ĩ
æĿ Ĥ
ŀà¸§à¸ ģà¹Ģà¸
é½ Ĳ
Ġ Ćą
èĤ¡ ä»½
æ¶ ¦
æ¢ °
è¿ Ķ
«à¸¥à¸ ±à¸ģà¸
æľº åĪ¶
åĲĮ æĹ¶
5 7
Ħ à¸Ń
Ġæ³ ¨
Ħ à¹Īà¸²à¸
à¹Ģà¸ Ħà¸£à¸·à¹Īà¸Ńà¸ĩà¸
8 9
áŀ »
ĠéĿ ŀ
Ġà¸Ħà¸ ·à¸Ń
A R
åĲĪ æ³ķ
à¨¿ à©±à¨
Ĭà¸µà¸§à¸´à¸ ķ
æĢİ æł·
ä¸ĭè½½ _
æĢ Ģ
ĠagèµĮåľº åİħ
¢à¸ ¡
Ġb j
å± ı
0 2
à¹Ĩ à¹Ĩ
Ġà¤Ĩ à¤²à¥Ģ
×ŀ ×ķ
ĠØ¬ Ø¯ÛĮØ¯
à®£ à®®à¯į
Ð¿ ÑĤÐ¸
Ð»Ð°ÑĪ ÑĤÐ¸ÑĢ
ĠÐ´Ð°ÑģÑĤ ÑĥÑĢ
ĠÑį Ò³
Ïĥ ÎºÎ¿
» áĢĦ
±áĢ »áĢģ
ĠáĢ¥áĢķ áĢĴ
Ð¶ ÐµÐ½Ð½Ñı
ĠÐ½Ñı Ð¼Ð°
ìŀħ ëĭĪëĭ¤
ĠåĨ Ľ
Ġh u
Ġ/ /
é© ¾
Ľà¹ĩ à¸Ļà¹Ģà¸
à¸Ļà¸ °
i ao
B O
Ġæ±Łèĭı å¿«3
2019 å¹´
çĶµèĦĳ çīĪ
ä»¥ ä¸Ĭ
à¹ģà¸ Ł
Ġç ¨
çľŁ åģĩ
?? ??
0 4
Ġà¹ģà¸ ļà¸
¨à¸²à¸ ªà¸
Ġå¿ ħ
æĤ £
Ġà¤®à¤¹à¤¾à¤° à¤¾à¤·à¥įà¤Łà¥įà¤°
ä¹ĭ ä¸Ģ
à¹Ħà¸¡à¹Īà¸ ¡à¸µà¸
à¸£à¸°à¸ļà¸ ļà¸
è¶ £
Ġæ ĳ
Ġ- -
Ġèī ²
è´ ¥
à¹Ī à¸Ńà¸ĩà¸
Ġçİ° åľ¨
Ġà¸ĸ à¹īà¸²à¸
Ġéĺ ¿
å¤§å¸Ī èµĽ
ä¹ ĺ
ĠagåĽ½éĻħäºļæ¸¸ çĻ»å½ķ
æĶ¶ åħ¥
ļ à¸Ļ
Ġà¤ļ à¤¾à¤²
Ġà´¸ àµĹ
àª¿àª¤ à«įàª°
ķ áĢŃáĢ¯áĢĦáĢ¹áĢ
ĲáĢ¬ áĢķáĢ«
áĤĲ áĢ¯áĢķáĢ¹áĢ
áģ¿áĢĻáĢŃáĢ³áĤķ áĢĶáĢļáĢ¹áĢ
ĠáĢľ áĢ¬áĢĻ
áĢ®áĢ¸áĢ ¡
ĠáĥĽ áĥĲáĥ¦
à°¾à°² à±įà°¸
ĠÙ¾ Ú¾Ø±
Ġà¦¬ à¦¿à¦ķ
Î¸ Î±Î½
áĢĢáĢŃáĢ¯ áĢļáĢ¹áĢ
áģĢ áĢĶáĢ¹áĢ¸
áģ¼áĢº áĢ¸
áĢ¯áĢŃ áĢ¸
áĢ±áĢĲáĢ¼ áĢĢáĢ¯áĢŃ
áĢĲáĢ½ áĢ±áĢĶáĢ²áĢ·
ĠÑĨ Ñĭ
ĠáĢ±áĢĽáĢ¬ áĢĤáĢ«
áĢ½áĢ¾ áĢĶáĢº
Ġà¤ķ à¤Ī
ĠØ´ Ùĩ
Ø§Ø± Øª
Ġàªĺ àªŁ
Ġà®¨ à®²à¯įà®²
ĠÐ¿Ð¾ Ñĩ
Ġon e
Ð³ ÑĸÑı
Ġà¦ī à¦¦
Ġà°ķà±Ĭ à°¤à±įà°¤
áĥĺáĥ¡ áĥ£áĥ¤
áĢ¬ áĢĦáĢ·áĢ¹áĢ
ĠáĢ ĮáĢ¬áĢĶ
Ġà´ķà´´ à´¿à´¯
æ³¨ æĦı
æ¡ £
à¹Ĥà¸Ńà¸ ģà¸²à¸
Ġà¤ıà¤ķ à¤¾
áĢ¶áĢ¯ áĢ¸áĢĢ
er n
ĠáĢĲ áĢ¯áĢŃáĢĢáĢ¹áĢ
ĠáĢ¡áĢħ áĢ¬áĢ¸áĢ¡
Î³ ÎŃÎ½
ĠáĥĽ áĥĲáĥ¨
áĢ¬áĢ¸áĢ ĸ
ĠÑħÐ¾Ð´Ð¸ Ð¼
ÑĤÐ¸Ð¼ Ð¾Ð¸Ð¹
ĠÑģ Ð¸Ð·
Ð»Ð¸ Ñģ
ĠØ§ÙĦÙħ ØŃ
à§ģà¦· à§įà¦ł
à®³ à¯įà®µ
áĢĸ áĢº
à°ķà±įà° ¸
ĠÐ» Ñĳ
Î¹Î½ Îµ
áĥĲáĥ¨áĥķ áĥĺáĥļáĥĺ
áĥĶáĥĽ áĥĲ
ÙĦ Ø¦ÛĴ
Ġàªª àª¾àª
àµįà´¯ à´¤
ĠÐ¼ Ð¾Ð½
×© ×Ļ×Ŀ
áĢĤáģ¤ áĢľáĢ¬
ģáĢ²áĢ· áĢĽ
ĠØ¨ ÛĮØ´
áĥĲáĥª áĥ®áĥĲáĥĵ
ĠáĢŀ áĢĺáĢ±áĢ¬
Ġà§ Ń
ÐµÐ½ Ð½Ð¾
Ð³ Ð°Ð´
Ġà®ªà¯Ĭ à®°
à±ĥ à°·
ĠÎ ¨
ÎĻÎ£ Î¤
ÏĦÎ± ÏĥÎ·
Ġà¦¨ à¦¤
ĠáĢŀ áĢĦáĢ·áĢº
Ġà°µ à°¾à°Ł
Ġàª¨ àª¿
Ġà¤Ĩ à¤¦
ĠâĢ °
ĠÐ½ Ð°Ð±
ĠÏĦ ÏĮÏĦÎµ
àµ¼ à´ķàµįà´ķ
ĠÎº Î¿Î½
à¥ĭà¤ ¹
Ġà¦¬à¦¿à¦ ľ
ÐµÐ½ Ð¾
Ġà¤Ł à¥Ģ
Ġáĥ¡áĥĲáĥ®áĥĶáĥļáĥĽáĥ¬áĥĺáĥ¤ áĥĿ
ãĥ¼ãĥ Ī
ĠáĥĴ áĥ£áĥļ
ÏĦ Î¯Î±ÏĤ
Ġàª¶ à«įàª°
Ð½Ñĸ ÑģÑĤ
à¶ ļ
Ġà¤¦ à¥ĭ
áŁ Ħ
à©į à¨°
ĠæŀģéĢŁ pk10
à¹Ģà¸ §
ªà¸¹à¸ ĩ
5 3
Ġà¹Ģà¸¡à¸ ·à¹Īà¸Ńà¸
è¿Ĳ åĬ¨
ç»ı èĲ¥
åĬ ±
çĶ ¢
å® «
ĺà¸¸ à¸£à¸
ĺ à¸´à¸
éĶĢ åĶ®
åİŁ åĽł
d f
è¿Ļ ç§į
Ġäºļæ¸¸å®ĺæĸ¹ ç½ĳ
å·¥ ä¸ļ
à¸Ļ à¹Īà¸²
éħĴ åºĹ
ķà¸ °à¸
Ġè¿Ļ äºĽ
ç½ ļ
æĪĸ èĢħ
à¹Ģà¸£à¹ĩà¸ §
o y
æīĳåħĭ ä¹ĭæĺŁ
Ĥà¸Ńà¸ĩà¸ Ħà¸¸à¸ĵ
à¹ģà¸£à¸ ģ
à¸£à¸°à¸ «à¸§à¹Īà¸²à¸
Ħà¸ ĩà¸
èĦ ¸
è® ¢
Ĺà¸ ±à¸Ļà¸
Ĳ à¸²à¸Ļà¸
ic le
an s
Ġæ »
Ġä¸Ģ ä¸ª
è¾ĵ éĴ±
å®¢ æľį
è®¾ ç½®
ªà¸´à¸Ļà¸ Ħà¹īà¸²
Ġçİ¯äºļag æĹĹèĪ°åİħ
Ġ ä¹łè¿ĳå¹³
çŁ¥ è¯Ĩ
æķĪ æŀľ
Ġ ç½ĳç»ľ
çĽ® åīį
æĢ§ çļĦ
ç ŀ
åıĤ åĬł
æ³ķ å¾ĭ
Ġåĩ¯åıĳ app
à¤§ à¥Ģ
ĠáĢĽáĢ½ áĢ¾
ĠÐ½ÐµÐ°Ð± ÑħÐ¾Ð´
ĠØ£ Ùħ
à§ĭ à¦ļ
ĠÏĨÎ¿ ÏģÎ¬
áĥĶáĥĳ áĥĵáĥĲ
Ġà°ª à±ĩ
Ġàª¸ àª¾àªĤ
ë ¸
ÑģÑĤ Ð¸ÑĤ
áĢĽáĢ½ áĢĦáĢ¹
áĢĢáĢ¼áĢ®áĢ¸áĢ ĮáĢ¬áĢĶ
Ð¾Ð½Ð¸ Ð¸
ĠáĢķ áĢ°áĢ¸áĢ±áĢķáĢ«áĢĦáĢ¹áĢ¸
ĠáĢľáĢŃáĢ¯ áĢ¡áĢķáĢº
à¦ĵ à§Ł
Ġà®®à¯ģà®Ł à®¿à®¯
à´Ł à´¿à´¯
ĠÎ¦ ÎµÎ²
ĠÎķ Îļ
Î¶ Î±
ĠÐº Ð¾Ð»
ĠØ¯ÛĮÚ© Ú¾
Ġà¦ĩà¦¸à¦² à¦¾à¦®
Ġàªª àª¾àª°
à°² à±įâĢĮ
à¦° à¦¿
à¤ Ĩ
Ġáĥł áĥĲáĥĽ
ĠÚ©ÙĨ ÛĮØ¯
à°Ł à°Ĥ
Ð½ÑĸÐº Ð°Ð¼
ĠÎµÎ¾ Î±
à¯Īà®ļ à¯įà®ļ
Ø± Ø¶
ĠáĥĽáĥ¡ áĥĿáĥ¤áĥļ
ĠÐ¶ Ð¸Ð·
Ġà®¤ à®µ
ĠÐ¼ ÑĸÑģÑĤ
à´¤àµįà´¤ à´°
à¥įà¤ ¬
Ġ×Ķ× ĸ
Ð¾Ð´Ð·Ñĸ ÑĨÑĮ
Ġëħ ¸
ĠÐµ ÑīÐµ
ĠÐĽ Ñİ
ĠÎĶ Îµ
àµģà´Ł àµĨà´¯àµģà´Ĥ
Ġàªľà«Ģàªµ àª¨
Ġà°ķ à°¾à°¦à±ģ
bo ok
ĠáĢķ áĢħáĢ¹áĢ
áĢ±áĢĽ áĢ¬áĢĢáĢ¹
ĠáĢķáĢ¼áĢĬáĢº áĢĳáĢ±áĢ¬áĢĦáĢºáĢħáĢ¯
áĢĦáĢº áĢĻ
Ð¸Ð± Ð¸
ĠÚ©Ø± ÛĮÚº
ĠÏĢÏģÎ¿ ÏĬÏĮÎ½
à«ģ àªª
Ġà®¨ à¯ĭ
ĠÎł ÎŃ
áĢ¬áĢĲáĢ¹áĢ Ģ
áĢķ áĢ±
ë£ Į
ĠÑģÐ¿ Ð°Ð´
ãģ§ ãģ¯
ŀ à¸Ńà¸
æĥ Ĭ
Ġ ä¼ĺ
èĽĭ èĽĭ
à¹Ģà¸ «à¸¡à¸·à¸Ńà¸Ļà¸
5 2
Ġå¤§åıĳä¸ī åĪĨéĴŁå¿«ä¸ī
Ġà¤® à¤¤
áĢ±áĢ ģ
Î¬Î½ Î¹
à°¿à°ķ à±į
Ġàª°àª¹ à«įàª¯àª¾
Ġáĥ£áĥ łáĥ
Ġ×ĳ ×Ĺ
¹ à¸Ļà¸
r y
Ġç ³
åĮº åŁŁ
ĠagåĽ½éĻħåİħ ä¸ĭè½½
è³ ĩ
å½© éĩĳ
à¹ģà¸Ļà¸ §à¸
æ£Ģ æŁ¥
6 4
ç¾¤ ä¼Ĺ
æİª æĸ½
ŀà¸ ļà¸
å¨±ä¹Ĳ åľº
à¹Īà¸Ńà¸ĩ à¹Ģà¸Ĺà¸µà¹Īà¸
æľī ä¸Ģ
à¹ģà¸ķ à¹Īà¸ĩà¸
æľº åħ³
áĪ Ŀ
Ġà¤ħ à¤µ
Ġà´ķ à´£àµįà´£
ĠÎ» Î¿Î¹
ĠÎ¸ÎŃ Î¼Î±
Ġë Ĩ
àµģà´ķ à´¾à´°
Ð°Ñĩ Ð°ÑĤÑĮ
Ðº Ð¾Ð¼
Ø ¡
ÏĢ Î¿ÏħÏĤ
áĥĺáĥľ áĥĿ
ĠÐļ Ð°Ð½
à§İ à¦¸
àªķ à«įàª°
Ġà´¶ àµįà´°àµĢ
à´¾à´ Ń
áĢ®áĢ¸áĢļ áĢ¬áĢ¸
áĥ¬ áĥĲáĥķáĥļ
ĠÎ¼ÎµÎ³Î±Î» ÏįÏĦÎµ
±áĢķ áĢ¸áĢĽ
ĸáĢ¼ áĢĲáĢº
ĠÐ¼Ð°ÑĤÑį ÑĢÑĭÑı
ĠÑĥ Ð»Ð°ÑĢ
Ðº ÑĥÐ½
ĠÑĤ Ð¾Ð³Ð¾
Ġà´ķàµĩ à´¨àµįà´¦àµįà´°
Ð°Ð»ÑĮ Ð½Ñĭ
Ġà®ĩà®²à¯įà®² à¯Ī
ĠÙģ Ø±ÙĪØ´
Ġ áĥĲ
ĠìŀĪ ìĬµëĭĪëĭ¤
Ġà¦¨à¦¤ à§ģà¦¨
ĠÚ© ÙĦ
ĠáģĤáģĢáģģáģ ī
ĠáĢĽ áĢķáĢº
Ġáĥŀáĥł áĥĿ
ĠÑģÑĤ Ð²Ð°ÑĢ
áĥĶáĥ £áĥ
à¥ĩà¤Ĥà¤ Ĺà¥ĩ
áĥĲáĥķ áĥĲáĥļ
Ġà´¨ àµ½à´ķ
çĶ¨ äºİ
à¨¤ à©ĩ
è ľ
åĪ© æĿ¥
Ġ î
à©Ģà¨ Ĩ
¸à¸ ĩà¸
ĠUU å¿«ä¸ī
åĬŀ åħ¬
«à¸¡à¸²à¸ °à¸
Ć ĆĈ
åĪ¶ éĢł
on t
çŁ ¿
åı ¦
à¹Ģà¸ «à¸¥à¸
Ġà¤¬ à¤¸
ĠÏħ ÏĢÎ¿ÏħÏģÎ³
à®µ à¯įà®µ
Ġà°ļà±Ĥà° ¸
Ð³Ñĵ Ñĺ
ĠÐĽ ÑĥÐº
Ð°Ñŀ Ð»Ñı
Î»Î¿Î³ Î¹Ïĥ
áĢģ áĢĽáĢ®áĢ¸áĢ
à¦¦ à¦¿
Ġ$( '
ĠàªŃ àª¾àªµ
ĠÐ¸ Ð¼Ð°
Ġàªªà«ĭàª¤ àª¾àª¨àª¾
×Ļ× Ĵ
éľ ĩ
è£ ģ
å© ·
à¤¾à¤° à¤ĸ
Ġà°µà±įà°¯ à°µ
ĠÑģ Ñĭ
Î¹ÎºÎ¿Ïį ÏĤ
Ġáĥ¡áĥĲáĥĵ áĥĲáĥª
ĠÙģ Ùī
ĠÐ³Ð°Ð» Ð¾Ñŀ
Ùĥ Ø§ÙĨ
Ú© Ø³
ĠÐĶ Ð»Ñı
Ġàªħ àª§
áģĤ áģĢ
áĢ¬áĢĢáĢ¹áĢ ¡
ĠáĢ±áĢ»áĢķáĢ¬ áģ¾áĢĢ
áĢĢáĢ¼ áĢ²
áĢ¬áĢŀ áĢĶáĢ¬
áĢ®áĢ¸áĢ ľ
Î¸ ÎµÎ¹
Ġà°° à°¾à°®
à°° à±įà°¯
ĠÑĦ ÑĥÑĤÐ±Ð¾Ð»
ĠÐ¼Ð°Ð· ÐºÑĥÑĢ
áĢĻáĢ¹áĢĻ áĢĲ
é¦Ļ èķī
Ġà¤ĺ à¤°
ĠÎķ Î¹
ĠÐ¿ÐµÑĢ Ð²
ĠáĢ¡ áĢ¬áĢĽ
ĠÎºÎ± ÏĦÎ·Î³Î¿
Ġà® Ī
ĠØ¨ Ø§ÛĮØ¯
Ñİ ÑĨÑĨÐ°
Ġà¦ªà¦° à¦¿à¦ļ
à´¿à´ £
Ġàªĸ àª°
Ġ ä¹ĭ
æĺ¯ åĲ¦
åİĭ åĬĽ
Ġç ķ
é Ł
à¥įà¤¯à¤ķ à¥įà¤¤
ĠÐºÑĬ Ð¼
Ġáĥ¡áĥĲáĥ Ń
Ġà°§ à°°
Ø§Ø¦ ÛĮÚº
or m
à´¿à´Łàµįà´Ł àµį
ÏĢÎ¿Î¯ Î·
ĠáĢģ áĢ¼áĢ²
ĠE 1
áĢ±áĢľ áĢ·
ĠáĢľáĢĢáĢ¹áĢ ģáĢ¶
ĠáĢĳ áĢ½áĢĢáĢº
à´¨ à´¿à´¨àµįà´¨
Ġ×ķ ×ľ
àª®àª¾àªĤ àª¥à«Ģ
áģ¾áĢĢ áĢĽ
áĢŀ áĢ»áĢĸáĢĦáĢ¹áĢ·
ģáĢ²áĢ· áģ¿áĢķáĢ®áĢ¸
áĢģ áĢ±áĢ«áĢº
à°¾à°¬ à°¾à°¦
à±įà°¸ à±įâĢĮ
ĠÐ¿ÐµÑĢ Ð°Ðº
ĠÐ½ÐµÐ¾Ð± ÑħÐ¾Ð´Ð¸
ĠÎľ Î¬
à¦¾à¦¨ à¦¿
Ġg e
áĥĺ áĥĶáĥļ
ĠÑĥ ÐºÑĢÐ°ÑĹ
ĠÐ¿Ð¾ Ð»Ñĸ
à¯ģà®Ł à¯Īà®¯
à±Ĩà°Ł à±į
à´° àµģà´Ĥ
åħ± åĲĮ
à¹Ģà¸ ŀà¸£à¸²à¸
d c
à¥įâĢį à¤¯
ĠÐ» ÑĥÑĩ
ĠØ· ÙĪØ±
Î» Î¿ÏħÏĤ
Ġà¤¶ à¥ģà¤°
¡ áĢĳ
Ĳ áĢ½
ĠÐ³ Ð°Ð·
Ġà¦¹ à¦¤à§ĩ
«à¸¡à¸²à¸ ¢
Ħ à¸£à¸±à¸ļà¸
æķ° åŃĹ
à¥Ĥà¤ ¤
ĠN LD
áĢ¶ áĢķ
àµĨà´¨àµįà´¨ àµģ
à´¿à´ķàµįà´ķ àµģà´ķ
ĠÏħÏĢÎ¬ÏģÏĩ Î¿ÏħÎ½
ĠáĥĽáĥ¡áĥĿáĥ¤áĥļ áĥĺáĥĿ
à¯įà®¤ à®¾à®©à¯į
Ð°Ð¼Ð¿ Ð°Ð²Ð°ÑĨÑĮ
ĠÐ· Ð°Ð½
ĠÙħ ÙĪØ±Ø¯
àªĤàª¤ à«įàª°
ĠáĢħ áĢŃáĢĲáĢ¹
p l
ĠáĢĺ áģĢ
ĠáĢħáĢħáĢ¹áĢ Ĳ
ĠáĢ¡áĢŀ áĢ¶áĢ¯áĢ¸áĢ»áĢķáĢ³
áĢĲáĢ¼ áĢ²
áĢĶáĢ¹áĢĻ áĢº
áĢ¬áĢľ áĢĬáĢºáĢ¸
à®Ł à®¿à®¯
áĢŃáĢ¯áĢ¸áĢ ľ
ìł Ĳ
Î¬Î½ ÏĦÎ·ÏĥÎ·
Ġà°ľ à°Ĺ
à±ģà° ·
ÙĦ Ùģ
ĠÎĺÎµ ÏĥÏĥÎ±
ĠÎł Î¬
Ġ×ľ ×§
ĠáĢ±áĢĽáĢ¼áĢ¸áĢ ±áĢĢáĢ¬áĢĢáĢ¹áĢķáĢ¼áĢ²
ĠáĢĽ áĢĢáĢ¹áĢ
ĠN o
±áĢ ĦáĢ¼
áĢĦáĢ¹áĢ ±áĢĲáĢ¬áĢ·
áĢĨ áĢ±áĢ¬áĢĢáĢº
ĠÐ· Ð¼Ñĸ
Ġà¹Ģà¸ ģà¸
åĬł çĽŁ
Ĺà¸ ¸à¸ģ
çŃ ¹
æ½ ®
Ġæ ¡
Ġà¸Ķà¸ ¹à¸
Ġà¤¯ à¤¾à¤Ĥà¤ļà¥įà¤¯à¤¾
ĠÐ¿ÐµÑĢ Ð°Ð¼
Î½ Î¿Ïħ
ĠÐ¸ Ð±
Ġà´ī à´±
Ġà°ªà±įà°° à°¤à±įà°¯
Ð°Ðº Ð¸
ãĤ »
áĥłáĥ Ľ
ÏĦÎ¹ Î¬
à¦¦ à¦¿à¦¨
à«ģàª Ń
à¤°à¥įà¤ Ĺ
ĠÑģ ÑĥÐ²
ĠÑĥ Ð»
ĠÐ°Ð» Ð°Ð¹
áĢ¶áĢ¯ áĢ¸áĢĢáĢŃáĢ¯
áĢľ áĤĬ
áĢ±áĢĽ áĢ½áĢ¬
ĠÐ´Ð°ÑĢ Ð°Ð¶
Ð §
ĠÐ¸ ÑĤ
ŀ áĢŃáĢĶáĢ¹áĢ¸
ĠáĢĲ áĢģáĢ¯
ĠáĢ±áĢ»áĢķáĢ¬ áĢ»áĢķ
áĢĦáĢ¹áĢĺ áĢ¬áĢľ
Ġáģ µ
áĢĢáģ ¤
Ġhttp s
áĢĶ áĢ±áĢĲáĢ¬
áĢĻáĢº áĢ¸áĢľ
Ġà¦¬ à¦¾à¦°
Ġà®ªà¯Ĩ à®£
Ġà®¨ à®¿à®©
Ġáĥ¡áĥĲáĥ£áĥ Ļ
er v
ÙĢÙĢ ÙĢÙĢ
ĠÙĬ Øª
Î²Î¿Î» Î®
Ñħ ÑĸÐ´
! !
ĠÎ±Î¾ Î¹Î¿
à°¤ à±įà°¸
Ġâķ ĸ
Ñģ Ñİ
Ġà´ļàµĨà´¯àµįà´¤ àµģ
ìĿ´ ìĬ¤
ĠÐľ Ð°Ðº
ĠÑĤÐ¾ Ð°
ĠÏĥ Ïī
à«ĭ àª®
×ķ× ļ
ĠíĮ Į
Ġæĸ ¹
ĠæĬ ¥
Ġå¤§åıĳ åįģ
èĥ½ æºĲ
æľĢ å¤§
Ġç§ ĳ
æĭ ¥
ģà¸¥à¸ ±à¸ļ
å®Ŀ é©¬
äºº æīį
ģà¸ İ
å® Ĺ
è Ķ
æ» ĳ
à¸Ńà¸¢à¸¹à¹Ī à¹ĥà¸Ļà¸
à¨¾à¨ ¨
ag 88
Ġà¤¶ à¤¹
ĠÐ´ÑĢÑĥ Ð³
à¯ģà® ¨
áĢħáĢ¹áĢ ¡
áĢ±áĢĴáĢŀ áĤĢáĢĢáĢ®áĢ¸
ĠáĢ±áĢĽ áĢ½
ĠáĢ»áĢĸáĢħáĢ¹áĢ ľáĢ¬
Ġ áĤĢáĢĢáĢ®áĢ¸áĢ
áĢĶáĢº áĢ¸áĢĲ
à§ģ à¦¤
Ð»Ð°Ð½ Ð¸ÑĪ
ĠÒ³Ð¾Ð» Ð´Ð°
ĠÐ» Ð¾Ð·Ð¸Ð¼
ĠÎ± Î»Î»Î±
áĢ¯áĢŃáĢĦáĢ¹áĢ ĽáĢ¬
áĢ¶áĢ¯ áģ¾áĢĢáĢĬáĢ¹áĢ
ĠáĢ±áĢĢáĢºáĢ¬áĢĦáĢ¹áĢ¸ áĢŀ
Ĩ áĢ¯áĢ¶áĢ¸
áĥĺáĥĵ áĥĶáĥľáĥ¢
Î»Î¿Î³ Î®
ĠÑįÐº ÑģÐ¿
Ġà®ĩà®°à¯ģà®ķà¯įà®ķ à¯ģà®®à¯į
" #
ĠáĥĲáĥ ĳ
Ġà´µàµĢ à´Łàµįà´Ł
Î¾ Î±
ĠØ¨Ø§Ø² ÛĮ
ĠÑģ Ñĥ
ĠÐº Ð¾Ð¹
áĥĲáĥĽ áĥĲáĥłáĥĹáĥļ
àµįà´ ¬
Î³ Î¿Ïħ
ĠÑħ Ð°ÑĤ
Ĳ áĢŃáĢ¯
áĢļáĢ¬ áĢ¥áĢ¹áĢ
ĠáĢĿ áĢĦáĢ¹áĢ
ĠáĢĻ áĢ»áĢĸáĢħáĢ¹áĢ
áĢŃ áĢĽ
Ġs o
à°¿à°Ĥà° Ł
éĢ Ķ
æ ¾³éĹ¨
t v
Ġà¸ªà¸³à¸« à¸£à¸±à¸ļà¸
æģ ©
Ġà¤¤à¥įà¤¯à¤¾à¤Ĥà¤ ¨à¤¾
ĠÎŃ Î³
Ġà´µà´¿à´ ®
Ġà¦® à¦¾à¦¸
Ġáĥ¡áĥĲáĥĻ áĥĺáĥĹáĥ®
í ĳľ
áĤĢáĢĢ áĢŃáĢĻáĢ¹
ĠáĢŀáĢŃáĢĽ áĢŀáĢĬáĢº
Ġàª¸ à«įàªª
ĠÐĳ Ð¾ÑĪ
Ð¸Ð» Ð°ÑĳÑĤÐ³Ð°Ð½
ĠÐºÐµÐ» Ð³Ð°Ð½
ĠÐĶ ÑĥÑĪ
ĠÐ»Ð¾Ð¹ Ð¸Ò³
Ð³Ð¾ Ò³Ð¸
Ð°Ð½Ð´ Ñĭ
ĠÙģ ÛĮÙĦ
Ø¹ Ø¶
ĠáĢĴáĢ®áĢĻáĢŃáĢ¯ áĢĢáĢ±áĢĽáĢħáĢ®
ĠáĢ¡áĢģáĢºáĢŃ áĢĶáĢ¹áĢ
áĢĨáĢŃáĢ¯ áĢĲáĢ²áĢ·
áĢ¸áĢ»áĢĻ áĢĶáĢ¹áĢ¸
»áĢĸ áĢ´
ŀ áĢ¶
áĢĬáĢº áĢ¸áĢ¡
áĥĵ áĥĺáĥļ
ãĥ Ł
à´¸àµįà´±àµįà´± àµį
ĠáĢ¡ áĢ±áĢľ
áģ¿ áĢģ
ĠáģĤáģ Ħ
Ġ×Ĳ ×Ĺ
ĠÎ± Î¯
åľ¨çº¿ è§Ĩé¢ĳ
Ġà¤¹à¥ĭà¤Ĺ à¤¾
ĠÐ¿ÐµÑĢ ÐµÐ´
Ġë ¡
ĠÏĥÎ· Î¼Î±
ĠáĢŀáĢŃáĢĽ áĢķáĢ«áĢĲáĢļáĢ¹
áĢ¯áĢ¶ áĢ¸áĢľ
à¤¾à¤² à¤¯
à¦¿à¦Ł à¦¿
d er
ÙĨ Ø§ÙħÙĩ
Ġà®ī à®²à®ķ
Ġà°¸ à°Ĥà°¦
Ġáĥķ áĥĲáĥł
Ð»ÐµÐ½ Ð½Ðµ
ŀà¸£à¸ °
èĳ £
Ġà¤®à¤¾à¤¹ à¤¿à¤¤à¥Ģ
ĠÐľÐ°Ðº ÐµÐ´
Ð°ÑĨÐ¸ ÑĺÐ°
Ġà´ Ļàµįà´Ļ
à´Ł à´¨
ĠáĢĤ áĢ»
Ġàªķàª¾àª° àª£à«ĩ
ĠÐº ÑĥÑĢ
ÑĢ ÑĬ
áĥĿáĥª áĥĲ
ÐĲÐ ¢
ÑĥÐ² ÑĩÐ¸Ð»Ð°ÑĢ
ĠÑĳ ÑĢÐ´
Ñŀ Ð»
ĠÐ±Ð¸ÑĢ Ð¸Ð½ÑĩÐ¸
ĠÐ¼ Ð°ÑħÑģ
Ġà¤ªà¥ģà¤² à¤¿à¤¸
Ð»Ñĸ Ð´
Ġáĥ¥áĥĲáĥłáĥĹ áĥ£áĥļáĥĺ
áĥĲáĥ¬ áĥ§áĥķ
Î» Î±Î½
à¤² à¥įà¤¯à¤¾à¤
ĠÐ¿ Ð»
ãĥ³ ãĥĪ
Ġà¦¸ à§įà¦Ł
Ú© ÙĦ
§ áĥĶáĥľ
ĠÑħÑĥÐ´ ÑĢÐ¾
à¥įà¤¯ à¥Ĥà¤
Ġìĺ¤ íĶĦíĻĶìĿ´íĬ¸
ĠëĲ ĺ
Ġà´ªà´°à´¿à´ ¶
ĠÐ³ Ð»
Ġà°Ĺà±ģà°° à°¿à°Ĥà°ļà°¿
ĠÑĨ ÑĸÐº
×ĺ ×¨
Ø§Ø± Ùĥ
ĠÐłÐ¾ÑģÑģÐ¸ Ð¸
ĠÐ¿Ð°Ð² ÐµÐ´
ÑĨ ÐµÐ½
à´¤ à´¾à´£àµį
àª³ à«Ģ
à¯Īà®¯ à®¾à®©
oug h
ĠáĥĿáĥłáĥĴáĥĲáĥľ áĥĺáĥĸ
ĠÐĿ Ð¾Ð²
ĠáĢ¡ áĢĦáĢ¹áĢ¸
ĠáĢĢáĢ» áĢ±áĢ¬áĢº
ĠÎĵ Îµ
ĠÏĨ Î¹
ĠÐ¾ Ðº
Ġà°µà°¿à° ¡
ĠÙĬ Ùħ
Ġà« ©
à«įàª¯ à«ģ
Ġà¤ļ à¥ģà¤¨
Ľ à¸µà¸
Ī à¸²à¸£à¸
Ġá į
à¤ ģ
Ġìł Ģ
Ïĩ ÎŃÏĤ
ĠÛ² Û
ĠÙĤØ± Ø§Ø±
ãģ Ń
ĠÑģ ÑĸÑģÑĤÑį
áĥĲáĥĵáĥĴ áĥĲáĥľ
à¦¾à¦ ·à§įà¦Ł
à°¿à°¨ à±į
ĠàªĹàª¯ àª¾
ãĤ §
ĠáĢ¡ áĢģáĢ«
áĤıáĢ½ áĢĦáĢ·áĢ¹áĢ
áĢ¬áĢ¸áĢŀ áĢ±áĢ¬
ĠÑĢ Ó¯
à´ª à´°
ĠÐ´ ÐµÑĢÐ¶Ð°Ð²
Ñı Ñŀ
Ïĩ Î¿ÏĤ
Ġáĥŀáĥĺáĥłáĥķ áĥĶáĥļ
Ð¸Ð· Ð½Ð°Ñĩ
ĠÂ §
ĠÐ¼ Ð½Ðµ
Ġàªķàª° à«įàª¯à«ĭ
Ġ Ð°Ð»ÑĮ
Ð½ ÐµÑĤ
Ø§ÙĨ Ûģ
ĠÎ¬ÏģÎ¸ ÏģÎ¿
Ïĩ Ïİ
à§įà¦ Ń
à±įà°² à°¾à°¡
ĠÎµÏģÎ³ Î±
ì »
Ġà´µà´¿à´ ·
ÏĦÎ¯ Î¿Ïħ
Ġà®ª à¯Ĥ
ĠáĥĿ áĥĹ
ÑģÑĤÐ² Ðµ
ìĹĲ ê²Į
ÏĦÎ® ÏģÎ¹Î¿
ĠØ´Ø± Ú©Øª
Ġà´ī à´¯
Ġàª¸àª° àªķàª¾àª°
d u
Ïħ ÏĥÎ·
à«ĭàª ı
Ð½ Ð°Ð²
Ġáĭ ¨
à¸£à¸±à¸Ĳ à¸
ªà¸ Ķ
Ġ1 åĪĨæĹ¶æĹ¶å½©
æĪĲ æľ¬
±à¸ Ķà¸
Ļ æ±Ł
Ġà¸ľà¸ ¡à¸
éķ ·
áŀ ĸ
ĠçĤ ¹
à¤³ à¥Ģ
Ġ×ŀ× ĵ
ĠáĥĽ áĥĺáĥ£áĥ
áĢľ áĢ±áĢ¬
ÏĦÎŃ ÏģÎ±
à´ļàµįà´ļ àµģ
Ġà°ª à±Ĥà°°à±įà°¤
ĠÑĥÐºÑĢÐ°ÑĹ Ð½
Ð²Ñĸ Ð´
ÏĦ ÏīÏĤ
ĠÚ© ÙĨØ¯
áĢĭáĢ¹áĢ Į
ĠáĢģáĢ» áĢħáĢº
áĢħáĢ¹áĢ ĢáĢŃáĢ¯
ĠáĢĨ áĢŃáĢ¯áĢĦáĢ¹áĢ
áĢĶáĢ¹áĢĲ áĢŃáĢ¯áĢĦáĢ¹áĢ¸
ĠáĢĢáĢ» áĢĶáĢ±áĢ¬áĢº
ex t
ĠáĢļ áĢ±áĢĶáĤĶ
áĢŃáĢ¯áĢĢáĢ¹áĢ ĲáĢ¬
áĢ»áĢĸáĢħáĢ¹áĢ ĲáĢ²áĢ·
áĢŀáĢ° áĢĢ
ĠØ§Ùħ Ø±ÛĮÚ©
à¤¿à¤ Ĺ
Î¼ ÎŃÏĤ
Ġà´ªàµįà´°à´¤ àµįà´¯
Ð¸Ð½ Ðµ
áĢĻáĢ½áĢ¬ áĢķáĢ²
ĠáĢĤ áĢ¯áĢıáĢ¹áĢ
áĢĻáĢ¹áĢķ áĢıáĢ®
Ġà®ªà¯ĭ à®Łà¯įà®Ł
ĠÐ±ÑĥÐ´ ÑĥÑĨÑĮ
ĠÎ»ÏĮÎ³ Ïī
Ø¯ Ø¯
ĠÐ¿ÑĢ Ðµ
Ġà°µ à±ĩà°
Ġíı ī
Ġwor k
Ġà¦Ńà¦¾à¦° à¦¤
ĠÐľ Ð°Ð½
ĠáĢĽ áĢ¼áĢ¬
ĠáĢ¡ áĢķáĢ«áĢ¡
ĠáĢ¡ áĢĢáĢ¯
ĠáĢķ áĢ¯áĢĴ
ŀ áĢŃáĢ¯áĤĶ
ĠáĢ±áĢĽ áĢ¸áĢŀ
áĢħáĢ¹áĢ ±áĢĨ
ĠP ro
àª¾àªĤ àª§
»áĢĸáĢħáĢ¹áĢ ±áģ¾áĢĢáĢ¬áĢĦáĢ¹áĢ¸
ĠáĢľáĢ° áĢĦáĢļáĢ¹áĢ
ĠáĢ¡áĢĶ áĢĬáĢ¹áĢ¸
áĢ¸áĢķáĢ« áĢĲáĢ®
ĠáĢ¡ áĢĶáĢ¬
Ġà®ī à®¤
ĠÛģÙĪ Ú¯
à¦°à§įà¦ ľ
ĠæŃ ¦
Ġà¤ªà¥įà¤° à¤®
áģ¿áĢķáĢ®áĢ¸áĢ ±áĢĶ
ic k
ĠÐ½Ð° ÒĽ
ĠáĢķáĢ¼áĢ¯ áĢľáĢ¯áĢķáĢº
Ð°ÑĩÑĭ Ð½
áĥĶáĥłáĥ ¢
ĠíĶ Ħ
àµĨà´¨àµįà´¨ à´¾à´£àµį
ĠØ§ÙĦÙħ Ø´
Î¿ Î´Î¿
Ġàªµàª¿àª ļ
Ġà¤Ł à¥įà¤°
à´¨àµįà´ ¯
ÑĤÐ¸ Ñı
ÑĥÑĩ Ð°Ñģ
Ġáĥł áĥĲáĥĵáĥĴáĥĲáĥľ
ĠÒ³ Ð°Ð¹
ĠÎº ÏģÎ¯
ĠØ± Ø§Ùĩ
Ġà¦Ĩ à¦¶
Ø± Ûģ
Ġàªµ àª¿àªķ
Ñı ÑĢÑįÐ´
ĠÎ»Î¿ Î³
ĠÑı ÐºÐ¸Ð¹
Ġà®¤à¯Ĩà®° à®¿à®µ
á½ Ĳ
ĠÎŃ ÏĦÏĥÎ¹
ãģķ ãĤĵ
ÙĬ ÙĪ
Ð¼ Ð¾Ð¼
ĠÎ´ ÏģÎ±
Ġà´ħà´¨ àµģà´
ĠÒ³Ð¸Ð¼ Ð¾Ñı
Ð¾Ñı Ð½Ð´
Ġ×ŀ× Ľ
Ġáĥł áĥĲáĥ¡
ĠÐ±Ñĭ Ð»
ãĤ ª
Ġà°ı à°°à±įà°ª
Ġs e
áĢĦáĢºáĢ¸áĢĻ áĢ»
ÑĢÑį Ð±
à¦¹ à¦¾à¦°
ĠØ§Ùģ Ø²
ìĭ ¬
Ġàªª à«įàª²
ĠØ¯ ÛĴ
à®¾à® ¨
áĥĲáĥ¥ áĥķáĥ¡
Ġáĥĺ áĥĹ
Ð² Ð¾
ÎµÎ¯ ÏĦÎµ
Ġàª¨ àªµ
ĠÙĨ ÛĮØ²
Ġà¤¹à¥ģà¤ Ī
à±ĥ à°¤
ÙĬ Ø²
Ġà´µàµĨ à´³àµįà´³
èĥ ŀ
¥à¸ ¥
èµļ éĴ±
è¯ ¯
éĽ ħ
Ġèĩ ³
Ġæ¹ ĸ
Ġ3 åĪĨæĹ¶æĹ¶å½©
è¨ Ń
à¹Ģà¸¥à¸·à¸Ńà¸ ģà¸
Ĭ à¸Ńà¸ļà¸
Ġæ £
éĩį çĤ¹
æİ¥ åıĹ
è°ĥ æķ´
å¿« éĢŁ
ķà¸±à¸§ à¹Ģà¸Ńà¸ĩ
Ġw 66
åı° æ¹¾
¡ à¸Ńà¸ĩà¸
Ľà¸±à¸ Īà¸
èĢ ³
ä¸Ĭ å¸Ĥ
Ĺ à¹Īà¸Ńà¸ĩà¹Ģà¸Ĺà¸µà¹Īà¸
æĿ¥ è¯´
æĲ ľ
åĽ½éĻħ å¹³åı°
å¾Ĺ åĪ°
Ġå¾· æīĳ
ĠI P
ä¸ĭè½½ å®īè£ħ
à¹Ģà¸Ļà¸ ·à¹Īà¸Ńà¸ĩà¸
Ġéĵ ¶
Ġà¹Ģà¸¡à¸ ·à¹Īà¸Ń
Ġà¤ļ à¤¿à¤¤à¥įà¤°
à®ķà¯įà®ķ à®®à¯į
àªĤ àª®
ìĺĪ ìķ½
Ġë¬ ´
ĠáĥĽáĥĲáĥĹ áĥĺ
ÙĪØ± Ù¹
ĠÑĸÐ½ÑĪ ÑĭÑħ
Ġà®Ĩ à®¯
ĠÎ±Î½ Îµ
Ðº Ð°ÑĤ
è´¦ åı·
Ġå¤§åıĳäºĮ åĪĨéĴŁå¿«ä¸ī
ãĢ ĳ
à¥ «
à¤¯ à¥ĩ
Ġà¤µ à¥ĩ
áĢľáĢ¯áĢķáĢ¹áĢ ĦáĢĶáĢ¹áĢ¸
ĠáĢĽ áĢĽáĢ¾áĢŃ
alayal am
àµĪ à´¨
Ġm an
à±Ĩà°ķ à±įà°Ł
ÎĻÎ ¡
ÎµÏĢ Î¹Ïĥ
àªķ à«Ģ
ĠÑįÑĬ ÑĤÐ¸Ð±
ì ¶ľ
ç»ı éªĮ
Ľà¸£à¸ °
Ġp okerstars
è· ¨
ķà¸£ à¹Į
è§Ħ åĪĴ
à¸Ļ à¹īà¸Ńà¸¢
Ġï¼ģ âĢĿ
Ġæ¾³éĹ¨æĸ° èĲĦäº¬
çľŁ å®ŀ
Ġà¸ªà¸ ¹à¸
ä½ł çļĦ
ļà¸²à¸ ¢
Ġà¤ł à¤°
Ġáĥŀáĥł áĥĿáĥĴ
Ø§ÙĦ Ø©
ĠÐº Ð¾
à§ĩà¦ ¹
ĠÙĤ ÛĮÙħØª
Ġà°¹ à±Ģà°°
Ġà°¤à±Ĩà°² à±ģà°Ĺà±ģ
à°¸ à±įà°¸
ĠÐ¼Ð°ÑĢÐ´ ÑĥÐ¼
ĠÐŁ Ð°
ĠÐ¡ Ðĥ
ĠÐ´Ð¾Ð¿ Ð¾Ð¼
à«ĭ àª¨à«Ģ
ÏĢ ÏģÎ¿
Ø¬ ÙĪØ¯
Ġáĥĵ áĥĲáĥª
ÏĮÏĦÎ· ÏĦÎµÏĤ
ÑĤÐ¸Ð¼ Ð¸Ð·
ÑģÐ¸ Ð´Ð°Ð³Ð¸
Ð°ÑĢ ÒĽ
Ġà®İà®´ à¯ģà®¤
Ġáĥķ áĥĺáĥĵ
à§ĩà¦® à§įà¦¬à¦°
ĠáĢĢ áĢĻáĢ¬áģ»
áĢĲ áĢ¯áĢĶáĢ¹áĢ¸
Ġáģ¾áĢĢ áĢŃáĢ³
áĢľ áĢĬáĢ¹áĢ
áĢĲáĢ¹áĢ ±áĢĲáĢ¼
áĢ¸áĢ ģáĢ»
Ġà¤¯ à¥ĩà¤£
à¯Īà®¯ à¯ĩ
Ð» Ð°Ð¹Ð´Ð¸
ĠÐ¸ÑĪ Ð»Ð°ÑĢ
ĠÑį Ð½
Ġà°¨ à°¿à°²
à¦°à§įà¦ ¶
×ĳ ×Ķ
ÏĢÏĮ Î½
ĠÎĶ ÎĹÎľ
Î¿Ïį ÏĤ
Ġà´¬ àµįà´°
Ġìļ° ë¦¬
ĠÑĦÐ°ÑĢ Ð·
áĢ¶ áĢŀ
ĠÐ·Ð°Ð¼ Ð¾Ð½
áĥ£áĥłáĥ ķ
ÑĶ Ñİ
áĢ±áĢĳ áĢ¬áĢĦáĢ¹áĢ
áĢ±áĢĨáĢ¬áĢĦáĢ¹áĢ ĽáĢ¼áĢĢáĢ¹áĢ
Ļ áĢ¾
Ð°Ð»ÑĮ Ð½Ð°Ð¹
Ġàª ¥à«Ģ
ĠÏĨ Î¯
Ġà®ĩ à®©
ĠÐº Ð¾Ð³Ð´Ð°
Ñĳ ÑĤ
Ø±ÛĮ Ùģ
ĠáĢ¡áĢĳ áĢ°áĢ¸áĢŀ
Ġà°¸à°Ĥà° ¬
ä¸ĭ çļĦ
rt icle
Ġå ¦
Ġ) (
åıĤ ä¸İ
.. .
ĠÏĨ Ïį
Ľà¸ ı
æĲ Ń
à¹ģà¸£à¸ ģà¸
à¥ĩà¤¹ à¥Ģ
Ġì Ī
ÑĬ Ðº
ĠØ§ÙĨÛģ ÙĪÚº
ÙĨ Ø³
Ð¿ ÑĸÑģ
áĥĶáĥł áĥĺáĥĿ
g a
Ð¾Ò³ Ð¸
à¦¿à¦¬ à¦¾à¦°
áĢĸáĢ¼áĢħáĢº áĢķáĢ¼áĢ®áĢ¸
ĠÐ¿ Ð»Ð°Ð½
ÏĢÎ¿Ïħ Î»Î¿ÏĤ
Ġm y
ÏĨ Î±Î½
à¯Ĭ à®´
Ġà§ ·
à¦¦à§įà¦ ¦
Ġà´Ĩ à´¦àµįà´¯
s o
ĠÏĢÎ±Î¹ ÏĩÎ½
Ġà¤īà¤¨ à¤ķà¥ĩ
àª¿ àªĤàª
å¦ »
ª à¸Ńà¸ļà¸
¥à¸²à¸ ¢
éĺ µ
«à¸¥à¸ ±à¸ĩ
Ġ259 45
éĹ ľ
åı· çłģ
è¿Ļ ä¸Ģ
è¶ħ è¿ĩ
åºĶ è¯¥
Īà¸°à¸ ¡à¸µà¸
Ġä»Ĭ æĹ¥
åħ¬åĬ¡åĳĺ èĢĥè¯ķ
å»º ç«ĭ
ŀ à¸Ń
Ġà¤® à¤§à¥įà¤¯à¥ĩ
ĠÎ§ ÏģÎ¹Ïĥ
ÏİÎ½ ÏĦÎ±ÏĤ
Ġu l
à«Ģàª ¶
ĠÐ· Ð¼
Ġê³ Ħ
ĠÂµ Îµ
á¿Ĩ ÏĤ
ĠÏĢ Ïħ
à°² à°Ĥ
áĥķ áĥĹ
× ¥
Ġà¦ķà¦° à§ĩà¦Ľà§ĩà¦¨
Ġãģ Ĭ
àª¸ à«įàªŁ
ŀáĢ° áĢ±áĢĲáĢ¼
áĢ¡ áĢĸ
ĠáģĢ áĢĦáĢ¹áĢ
ħ áĢ®
ĠáĢ¡ áģ¾áĢĢáĢĻáĢ¹áĢ¸
ĠáĢ¡ áĢĦáĢ¹áĢĲáĢ¬
áĢ¸áĢ ģ
Ø±Ùĥ Ø©
àµģà´ķàµĬ à´£àµįà´Ł
ĠÙ¾ Ø§ÛĮ
ĠÑĸÐ½ ÑĤÑįÑĢ
ĠÐł ÐĨ
ĠÐ¶ Ð¸ÑĤ
áĢħ áĢģáĢĶáĢ¹áĢ¸
ĠáĢ±áĢĨáĢ¼áĢ¸áĢ±áĤı áĢ¼áĢ¸áĢ
áĢľ áĢ¹
áĢĦáĢ¹ áģ¾áĢĢ
ĠáģĤáģ Ĥ
à¥įà¤Ł à¤°
ãĤ ¨
Ð¾Ð» ÐµÐ¼
ĠÐ¼Ñĥ Ñħ
àµĩ à´ķàµįà´ķ
áĢĳ áĢ¼áĢĶáĢ¹áĢ¸
áĢļáĢ¹áĢ ¡
ĠáĢļáĢ¬ áĢ¥áĢ¹áĢ
áĢ¯áĢ¶ áĢ¸áĢĢ
à§ĭ à¦·
ĠØ¯ ÛĮÙĨ
ĠÐ¿Ð°Ð´ ÑĤÑĢÑĭÐ¼
ĠÐ¸ Ñģ
Ġà°¨à°¿à°° à±įà°µ
ĠÎķ ÏĢÎ¯
ĠáĥĴ áĥĺáĥĿ
ĠáĥĽ áĥ¬
ĠÐ¼ Ð°Ð¹Ð´
ĠáĢ»áĢĻáĢĶáĢ¹áĢĻ áĢ¬áĢ¡
ĠáĢ¡ áĢ±áĢŀ
áĢ±áĢĢáĢº áĢ¬áĢ¹
lo g
ĠáĢĲ áĢķáĢºáĢĻáĢĲáĢ±áĢ¬áĢº
Ġi m
ĠáĢĢ áĢ±áĢľáĢ¸
ĠM ay
ĠáĢĢáĢŃáĢ¯ áĢļáĢ·áĢº
Ġëĺ Ĳ
»áĢĻ áĤĩ
áģ¼áĢº áĤī
±áĢĨ áĢ¼
áĢĲáģ ³
ĠáĢĢáģ½áĢ¼áĢĶáĢ¹áĢ ±áĢĲáĢ¬áĢ¹
áĢĿ áĢĿ
áĢ»áĢĸáĢħáĢ¹áĢ ±áĢĶ
áĤıáĢŃáĢ¯áĢĦáĢ¹áĢ ĲáĢ²áĢ·
ķáĢ² áĢ¼
áĢķáĢ¼áĢ®áĢ¸áĢ Ĳ
ĠÎĻ Î¿ÏħÎ½
à±ĭ à°²
ĠÎµÎ¾ Îµ
Ġàªħ àª²
ĠáĥĽáĥĺ áĥĺáĥ¦
áĢ¶áĢ· áĢĸáĢ¼
ĠÐ±ÐµÐ»Ð³Ð¸Ð» Ð°Ð½
ĠÑı ÒĽÐ¸Ð½
Ð½ Ð½Ñı
à¥ģ à¤¦
ĠÑĪÑĥÐ½ Ð´Ð°Ð¹
ĠÐ¼ Ð¸ÒĽ
ĠÐ¿ Ð°Ð±
ĠÐ¹Ð¸Ð» Ð´Ð°
Ð» ÑĥÐ±
ĠáĢľáĢ° áĢ±áĢĲáĢ¼
ĠáĢĨáĢĽáĢ¬ áĢĻ
áĢĻáĢ» áĢŃáĢ¯áĢ¸
×ľ ×Ļ×Ŀ
à®¤à¯įà®¤ à®¿à®¯
Ïĥ ÏīÏĤ
Ø¸ Ùħ
Ġà¦ ł
Ð» Ð¾Ð³
Ġà´¶àµįà´° à´®
ĠÐºÐµ Ð»Ð¸Ð±
Ð°ÑģÐ¸ Ð´Ð°Ð³Ð¸
ĠÑĪ Ð¸ÑĢ
áĢĦáĢº áĢ¹áĢĤ
ĠÚ©ÛĮ ÙĦØ¦ÛĴ
áĥĿáĥª áĥĺ
áĢ±áĢ¸áĢĽ áĢ½áĢ¬
ĠáģĤáģĢáģģáģ ĩ
Ġáĥ¡ áĥĲáĥľ
áĢĶáĢ¾ áĢ¬
Ñı Ñħ
ĠÏĨÏī ÏĦÎ¿
Ø± Ùħ
Ġà°®à°¾à°Ł à±įà°²à°¾à°¡
ĠÐ²Ñĭ Ñħ
Ġà¦ª à§ģà¦°
Ġà®ĩ à®ªà¯įà®ª
ÑĤÐ°ÑĢ Ð°
å½± éĻ¢
à¥įà¤Ł à¥Ģ
ĠÐ± Ð°ÑĨÑĮ
à´ªàµįà´ª àµį
Ġ" .
Ñĩ Ð½ÑĭÑı
ĠÎ¬Î» Î»Î¿
àªĸ àª¤
áĢ»áĢĸáĢħáĢ¹áĢ ±áģ¾áĢĢáĢ¬áĢĦáĢ¹áĢ¸
áĢ¸áĢ±áĢ ķáĢ«
ĠáĢ±áĢĸ áĢ±áĢĸ
ĲáĢ¼ áĢ²
áĢ¯áĢŃ áĢľáĢ¹áĢ
ĠáĢŀáĢŃ áĢĶáĢ¹áĢ¸
Ļ áĢĬáĢ¹
áĢķáĢ« áĢĲáĢ®
ãģ« ãģ¯
ĠØ§ ÙĪÙĦ
Ġà¤¬ à¤¡à¤¼
áĢ¾ áĢļáĢº
à¯Ĭ à®£à¯įà®Ł
ĠÑĢ Ð¾Ð´
Ġà¦ļ à¦¾à¦²
ĠáĢķáĢĲáĢº áĢŀáĢĢáĢº
Î´ Î·ÏĤ
ĠÎ» Îµ
ĠÐ¿ Ð°Ð¼Ñĸ
Ġà®ª à¯ĩà®°
áĥĲáĥķ áĥĹ
à´¿à´ķà´³ àµģà´ŁàµĨ
ĠÑįÑĤ Ð¸Ð»Ð³Ð°Ð½
ĠÑħ ÑŀÐ¶
Ġ Ð°Ð½Ð´
ìłģ ìĿ¸
Ġà°īà°¨à±įà°¨ à°¾à°¯à°¿
áĢŃáĢ¯áĢ¸áĢ ķ
ÏģÎµ Ïį
Ġàªķàª°à«Ģ àª¨à«ĩ
à´°àµįâĢį à´¨àµįà´¨
à´¾à´µ àµį
à¤°à¥įà¤ ¸
à§ĩà¦ Ĺ
Ġ×ŀ× ĳ
Ġà®® à®£
ĠÑĤ ÑĥÐ·
ĠÐ½Ðµ ÑģÑĤ
ĠI t
ĠÐ½Ð°ÑģÑĤ ÑĥÐ¿
ot el
Îº Î±Î¹
àµĢ à´¨
áĥĶáĥľ áĥĵ
Ð¿Ð°Ð´ Ð°ÑĢ
Ñı Ð±
Î¶ Î¿ÏħÎ½
áĢ¡ áĢķ
ĠØªÙĪ Ø³
Ġáĥĺáĥ§ áĥĿáĥ¡
Ġà´¨àµįà´ ¯
ĠÑĢÑį Ð´
±áĢľ áĢ¬áĢĢáĢ¹
áĢľ áĢ±áĢ·
ĠÐ½ Ð¸ÑĪ
ÑĨÑĸ Ð²
Ġàª¶ àª°à«Ĥ
æĪĲ äºº
Ġà¤«à¤¿à¤² à¥įà¤®
Ġà¤¸à¤¿à¤Ĥà¤ ¹
à¥įà¤² à¥Ģ
à°ªà±įà°ªà°Ł à°¿à°ķ
ĠÐ¼Ñĥ Ð·Ñĭ
ĠÐ· Ð°Ð¹
à®¤ à¯ģà®®à¯į
à¤¨ à¤²
ĠØ§ÙĦØ º
ÎŃ Î»
áĢĢáĢ¹áĢŀ áĢ¬
ķáĢ« áĢ¸
ÑĥÐ²Ð° Ð°ÑĤ
Ġà®ħà®± à®¿à®µ
àµĩ à´¯àµģà´Ĥ
ĠáĢķáĢ¼áĢ±áĢ¬ áĢķáĢ«áĢĲáĢļáĢº
ĠáĢ¥áĢķ áĢĻáĢ¬
ŀ áĢĦáĢ¹áĢ·
Ĩ áĢ¶áĢ¯áĢ¸
ĠáĢ¡áĢŀáĢ¯áĢ¶áĢ¸áĢ ķáĢ¼áĢ¯
à¦¿à¦ ¹
Î½Î¿ Î¯
áĥĿáĥķ áĥĲáĥľáĥĺ
à´ķàµįà´ķ à´Ĥ
ĠÚ©Ø± ÙĨØ§
ĠÐ¼ÐµÑģ ÑĨÐ°
à«ĭ àª¨à«ĩ
Ġà¤ķ à¥įà¤¯
Ġ×ŀ× ¦
à´¤ àµģ
à´¾à´ ªàµįà´ª
ĠÐ°Ñĳ Ð»
ĠÑĦÐ°ÑĬ Ð¾Ð»Ð¸
ĠØ´ Ùħ
ìĹ Īëĭ¤
ĠÎºÎ± Î¸Î·
Ð± Ñı
ÑĶ Ð¼
ĠÐ¿ÑĢ ÐµÐ·
ĠáĥĲáĥ ¤
ĠÎµ Ïį
à´ķ à´¾à´¶
Ð½ÐµÐ½ Ð½Ñı
Ġab out
Ġàªķàª° àª¤àª¾
ĠÑģ Ð¸Ð½
æŀ ª
æĹł æ³ķ
à¥ģà¤ķ à¥įà¤¤
ķ áĢĦáĢ¹áĢ
áĢı áĢ¬
à°¡ à°Ĥà°¤à±ĭ
Ġà®ª à®¾à®Ł
ĠáĢ±áĢŀ áĢ¬
ĠáĢ¡ áĢĿ
Ð¸ÑĢ Ð»Ð°ÑĢ
ĠÐ¼Ð°Ò³ÑģÑĥÐ» Ð¾ÑĤ
Ġà®ĩà®° à¯ģà®ªà¯įà®ª
Ð°Ð» Ð°ÑĪ
ĠÐ± ÐµÐ¼
ĠÑģ Ð¾ÑģÑĤ
ĠÏĢÎµÏģÎ¯ ÏĢÏĦÏīÏĥÎ·
áĢĶáĢ¹áĢĻ áĢ½
ĠáĢŀáĢ® áĢģáĢºáĢĦáĢ¹áĢ¸
ĠáĢĴáĢ« áĢŁáĢ¬
áĢĲáģ± áĢ¬
ĠáĢľ áĢ¯áĢŃ
ĠáĢģáĢ¶ áĢħáĢ¬áĢ¸áĢ
áĤĢáĢĢ áĢ¶
áĢĢáĢ¹áĢ ĲáĢ²áĢ·
ĠáĢģ áĢı
à°¸ à±įà°¥
áĢŃáĢ¯áĢľ áĢ¹
ĠáĢŀáĢĲáĢ¹áĢ ĻáĢ½áĢĲáĢ¹áĢ
áĢĳ áĢ°
áĥķáĥĶáĥļ áĥĺ
ĠÐ² ÑĸÐ½
ĠáĢ¡ áĢĻáĢ¾áĢ¯
à§ĭ à¦ª
áĢ®áĢĴáĢ® áĢļáĢ¬
àµĥ à´·
ĠÎµ ÏĢÎ¿
Ġà´ľ à´¿à´²àµįà´²
Ġà¤ªà¥įà¤° à¤µ
Ð± Ð¾Ð½
±áĢĶ áĢ¬áĢ¹
ĠáĢ¡áĢľáĢ¯áĢķáĢ¹áĢ ŀáĢĻ
áĢĢ áĢĻáĢ¹áĢ¸
áĢ±áĢ¬áĢºáĢĻ áĢĲáĢ®
ĠØ¨ ÛĮÙĨ
ÑĥÑİ ÑĨÑĮ
Ø§ Ùĥ
Ġà´ķàµįà´ ²
ĠáĢ¡áĢĨ áĢĦáĢ¹áĢ·
áĢħáĢ® áĢĻ
Ġàªħ àªµ
×ĵ ×Ļ×Ŀ
own load
ĠáĢĶ áĢļáĢº
ĠáĥŀáĥłáĥĿ áĥĶáĥ¥áĥ¢
ĠÐ¼ Ð°Ð¹
Ġáĥĺáĥ¡ áĥĶ
Ġwh ich
ãĥ ĳ
ĠÎ· Î»ÎµÎº
ĠÐ¾Ð½ Ð»Ð°Ð¹Ð½
à°ķ à°¾à°¶
áĢı áĢ¹
ĠáĢĲ áĢĢáģłáĢŀ
áĢ±áĢĨ áĢ¼áĢ¸áĢ±áĤı
áĢ¬ áĢıáĢ¹áĢ
ĠB urm
áĢĴ áĢº
Ð¸ÑĤ ÑģÑı
áĥ¢ áĥĺ
Ò £
ĠÐ± ÑĥÑĢ
Ġ201 1
ĠÏĢÎ»Î· ÏģÎ¿ÏĨÎ¿
ĠÑģ ÑĥÑģÑĤÑĢÑį
àµģà´ķà´³ àµģà´Ĥ
à¦¾à¦ĩ à¦¨
Ġà¤ķà¤° à¤¤à¤¾
Ġìĸ ĳ
ĠÙĬ Ø¹
Ð¾Ð´ Ð»Ðµ
Ġà°®à°° à±ĭ
Ñĥ Ð³
à¯ģà®® à¯ĩ
ĠÎĴ Î±Ïĥ
ĠáĥĴ áĥĲáĥĴ
ĠÐ¼ÑĥÒ³ Ð¸Ð¼
Ð»Ñĸ Ð½
Ġà°¨ à°Ł
âĢĮ à°¨
Ġà°ĩ à°Ĥà°ķ
ÑĥÑīÐµ ÑģÑĤÐ²
à« «
àª¿àª §
Ľ áĢ²
ĠáĢĹ áĢŁáĢŃáĢ¯
à¦¿à¦ §
ĠÎ¬ Î»Î»Î±
± ħ
ĠáĢĲáĢĽ áĢ¬áĢ¸áĢĻ
ĠÑĤÐ¸Ð· Ð¸Ð¼
ÐºÐ¸ Ð´
Ġáĥł áĥĿáĥĵáĥĶáĥ¡
Ð°Ð²Ð°Ð½ Ð½Ñĸ
ĠØ§Ùħ Ø§
Ŀ áĢĦáĢº
ĠÑĳÑĢÐ´ Ð°Ð¼
ĠÑİ Ð±Ð¾ÑĢ
ĠÐ¾ÑĪÐ¸ÑĢ Ð¸ÑĪ
ĠÐ¼Ð°ÒĽÑģ Ð°Ð´Ð¸
×ķ×¨ ×Ķ
Ġà¤ħ à¤ļà¥įà¤Ľ
ĠÑŀÐ¹ Ð¸Ð½
ĠÐºÐ°Ð± Ð¸
ĠÐ°Ñħ Ð±Ð¾ÑĢÐ¾ÑĤ
ĠÒĽÐ¸Ð» Ð°Ð´Ð¸
Ð³ Ó¯
ĠÐº Ð¾Ð»ÑĮÐº
Î» Î±Î¹
íķ© ëĭĪëĭ¤
Ġ ãģ¨
Î» Î¹Î¬
ĠÐ¸Ð½ ÑĦÐ¾ÑĢÐ¼
ĠÐ±Ð¾ Ñģ
à«Ģàª ¬
Ġà¦® à¦¨à§ĩ
ĠÒļ Ð¾Ð½ÑĥÐ½
ÑĥÑĶ ÑĤÑĮÑģÑı
ĠÙĨ ÛĮ
à¯ĭ à®ķ
ĠÎ±Î½ÏĦÎ¹ Î¼Îµ
ĠÐ½Ð°ÑĤÐ¸ Ð¶
ĠÐ¥ ÑĥÐ´
Ġof f
Ġà´ŀ à´¾àµ»
áĢľáĢ¬ áĢģáĢ¶
ÑĢ Ð¾Ð¸
ĠáĢĨ áĢĦáĢ¹áĢ¸
áĢĽáĢŃ áĢļáĢ¬
çĳ ŀ
äºĭ æĥħ
æĺ¯ åľ¨
z s
ģà¸²à¸ ¨
Ġà¤¹ à¤ľ
Ġ ÏİÏģÎ±
àªĹ à«Ģ
Ø±ÙĬ ÙĤ
Ġà´ķ à´¿à´Łàµįà´Ł
ĠÐºÐµ Ð»Ð¸ÑĪ
ĠÐ´Ð°Ð² ÑĢ
Ġà´µ à´°àµįâĢįà´·
àµĤ à´²
Ðµ ÑĦ
Ġà®µ à®ķ
áĥĶáĥĵ áĥĺ
éĹ Ń
ªà¸ ±à¸ĩà¸
Īà¸ ³à¸Ļà¸
è¾¾ åĪ°
à¹ĥà¸ ķ
éĹ ²
è¿Ĳ èĲ¥
łà¸ ¹à¸
èĦ ļ
à¹Ģ à¸Ńà¸µà¸
Ġà¤Ńà¤¾à¤ľ à¤ª
Ġv ip
áł Ń
±à¸ ģà¹Ģà¸
Ľà¸£à¸°à¸ ģ
Ĺà¸± à¹Īà¸§
Ġ9 18
ç»Ł è®¡
å¿ħ é¡»
å¹´ æĿ¥
à¹Ħà¸ Ĺà¸¢à¸
±à¸Ļà¸ ĺ
I C
Ġà¤ħà¤¸ à¤¾
à´¾à´ Ļàµįà´Ļ
à§įà¦² à¦¾à¦¹
à¤ķ à¥ĭà¤Ĥ
ģ áĢĦáĢ¹áĢ
áĢ¸áĢ±áĢĲáĢ¬ áĢ·
ĳáĢ¬áĢ¸áĢ ķáĢ«áĢĲáĢļáĢ¹
áĢĽáĢ¾ áĢ±áĢ·
à¦¾à¦·à§įà¦Ł à§įà¦°
Ġàªĸ à«Ĥ
ĠÐ¿ÑĢ Ð¾Ð±
ĠÐ²ÑĭÐºÐ°ÑĢÑĭÑģÑĤ Ð¾Ñŀ
Ġà´® à´¾à´±
ĠÎĶ ÎĻ
ĠÎ¯ Î´Î¹Î±
×Ļ×¨ ×ķ×ª
ĠáĥĲáĥłáĥ¡ áĥĶáĥĳ
Ïħ Î¼Î±
Ġâĸ ĳ
ĠÑĦ Ð¸ÐºÑĢ
åĽł ä¸º
¢à¸ ¸
ķà¸ ³
è° ¢
ä¼ļ åĳĺ
Ġà¤¸à¤Ĥà¤ ĺ
à´¾à´ķàµįà´ķ à´¿à´¯
ĠáĢĲáĢħáĢº áĢģáĢ¯
ë¥ ¸
ĠÐ¿Ð¾ ÑģÑĤ
ãĥ Ĭ
Ġà¦ľ à§Ģà¦¬
ĠÎ± Î´
ĠÐ£ Ð»Ð°Ð´Ð·Ñĸ
åĢ Ĵ
Ĺà¹Īà¸² à¸Ļ
Ġä¸į è¿ĩ
Ġà¤µ à¥įà¤¯à¤ķà¥įà¤¤
ĠÑģÑı Ð¼
àª°à«įàª ¥
Ġà°® à°¾
Ð½Ð¾ Ð¼Ð°
ĠØ²ÛĮ Ø§Ø¯Ûģ
Ïģ Î±Î¹
Ġà®ª à¯ģà®°
ĠÑĢ Ð°Ð¸ÑģÐ¸
Ġq u
ĠØ§ÙĦØª Ø¹
Ġà´¨à´Ł à´¤àµįà´¤à´¿à´¯
ĠÐ¼ÐµÑĤ Ð°Ð²Ð¾Ð½
Î¹Î¿ Î½
ĠÐŁ Ð°Ð²
ĠÐ¾Ð± Ð»
ÑģÑĮ ÐºÐ¸Ñħ
áĢĢáĢ²áĢ· áĢŀáĢŃáĢ¯áĢ·
Ġà°° à±Ĥà°ª
ĠáĥĽ áĥ£áĥ¨
Ġà´¸à´¹ à´¾à´¯
ĠÐĵ ÐĨÐĵ
ĠÐ»Ñĸ ÑģÑĤ
ĠÙĪ ÙĤ
Ġà¦ħ à¦§
Ġà°Ł à±įà°°
ĠÑĢÐ°Ñĳ Ð½
ĠÏĢÎ¬Î½ ÏĦÎ±
áĥ¯ áĥĲáĥ®
áĢĢ áĢ½áĢĢáĢº
ĠÐ´ ÐµÐ¹ÑģÑĤÐ²
à¯įà®Ł à¯į
ent s
ĠÐ¼Ñĥ Ð¶
Ġà´ħà´§ à´¿à´ķ
æı Ĵ
Ġà¸Ħ à¸²
åľ¨çº¿ ä¸ĭè½½
åįı è®®
åħ §
à¤¡ à¥Ģ
ĠÐ² Ð°ÑĪ
áĢĻ áĢ¯áĢŃ
áĢĶ áĢŃáĢ¯áĢĦáĢ¹áĢ
áĢľ áĢ¯áĢ¶áĢ¸áĢ
Ġ ÏĪÎ·
ÎĻÎ ĸ
Ïĥ ÏĮ
áĢ±áĢĳ áĢŃáĢ¯áĢĦáĢº
ĠØ° ÙĦÙĥ
ĠáĥłáĥĿáĥĽáĥļáĥĶáĥĳ áĥĺáĥª
ãģ§ ãĤĤ
ªà¸ ·à¹īà¸Ńà¸
Ġà¤¬ à¥ĭà¤²
Ð½Ñı Ðµ
Ġi f
Ġàª¬ àª¦
ÏĢÎ¿ Î½
Ñĸ Ð³
Ġà¦¨à¦¿ à¦°à§įà¦
Ð¾Ð² ÑĭÑħ
Ġà´ī à´³àµįà´³
ĠÎºÎ± Ïģ
Ġà®ķà¯Ĭà®£à¯įà®Ł à¯ģ
Ø§Ø² ÛĮ
Ö ¼
ĠÐ³ Ð°ÑĢÐ°Ð´
×Ļ×¨ ×Ķ
à¤ļà¥įà¤ ļ
Ð°Ð¼ Ðµ
Îº ÎŃÏĤ
áĥĶáĥĹ áĥ¨áĥĺ
Ġp m
Ġàªµà«įàª¯ àªķà«įàª¤
ĠÐ´ Ð°Ð·Ð²
ĠÎ¿ Î»Î¿
Ġà°¦ à±ĩà°µ
ãĥ ĵ
Ġåħ ·
åĮ» éĻ¢
a x
çĥ Ł
¯ çĭĤ
à¹Ģà¸Ļà¸ ·à¹īà¸Ńà¸
Ġäºļæ¸¸éĽĨåĽ¢ app
ä½ľ åĵģ
§à¸±à¸ Ķà¸
Ġè İ
ĠæĢ İ
Ľà¸¥à¸µà¹Īà¸ ¢à¸Ļ
é ĳ
à¹ĥà¸ Ħà¸£
±à¸ Ķ
Ĥà¹īà¸²à¸ ĩà¸
Ġæİ ¥
Ġåķ Ĩ
ŀà¸ ±à¸ģà¸
ç¢ °
à¹Ģà¸īà¸ ŀà¸²à¸
à¹Ģà¸ª à¸µà¸¢à¸
Ġåħ Ī
Ġà¤µ à¤°
Ð¡ Ð
áĢ¸áĢ±áĢ ħ
ĠJ un
áĢĻáĢºáĢ¬áĢ¸ áĤıáĢ½áĢĦáĢ¹áĢ·
ĠáĢĻ áĢ°áĢ¸áĢļ
à¯Īà®¤à¯įà®¤ à¯ģ
Ð¾Ð½ Ñĥ
ĠáĥłáĥĿáĥĵáĥĶáĥ¡ áĥĲáĥª
Ġà°¦à±įà°µ à°¾à°°à°¾
ĠÏĥÏħ Î¼ÏĢ
ĠáĢĲáĢ¬ áģĢáĢĶáĢ¹áĢ
ĲáĢ¬ áĢĢáĢŃáĢ¯
ĠáĢĲ áĢ¶
ĠÐºÐ¾Ð¹ ÑĤÐ¾
Øª ÙĪØ§ÙĨ
ĠÐº Ð¾Ñĺ
Ġà´®àµģà´ ¨
Ġà´ħà´Ł àµģà´¤àµįà´¤
à¤ķà¥įà¤· à¤¾
ĠJ an
áĢ¸áĢĽ áĢ½áĢŃ
ĠáĢ¡ áĢ±áĢĽáĢ¸
áĢĶ áĢķáĢ¹áĢ
ĠáĢ±áĢĢ áĢ¬áĢĦáĢ¹áĢ
ace book
ĠáĢĢ áĢĹáĢºáĢ¬
ĠáĢĽ áĢĦáĢ¹áĢ¸
ĠáĢĲáĢĽ áĢ¬áĢ¸
ĠáĢ±áĢ ļáĢ¬áĢĢáĢ¹áĢ
áĤĨ áĤī
áĢ±áĢ« áĢĦáĢºáĢ¸áĢĨ
Ġìĺ ¨
ĠÏĨ Ïħ
ĠáĢ±áĢŀ áĢ¼
áĢĶáĢ¹áĢ ±áĢĶ
»áĢĻ áĢĦáĢ¹áĢ·
ĠáĢľáĢ° áĢ¡
Ġà§ ®
ĠÑįÑĤÐ¾ Ð³Ð¾
Ġà¤°à¤¾à¤ľ à¥įà¤¯
Ġà®ķà¯Ĭ à®³à¯įà®³
Ð°Ð»ÑĮ Ð½Ð¾Ð³Ð¾
à¦¿à§Ł à¦¾à¦°
à«Ģàª ¦
ĠØ§ÙĦ Ø²
ĠëĮĢ íķľ
Ġàªħ àª¥
ĠÐ¶Ñĭ Ð²
Ġà´¤à´¿à´° à´¿à´ļàµįà´ļ
áĢļ áĢ½
ĠÏĥÏĦÎ¹Î³ Î¼Î®
à¬ ¾
Ġï½ ŀ
à¤ª à¥Ģ
×ķ×ł ×ķ×ª
ĠáĢĻáĢº áĢ¬áĢ¸áĢ
áĢĻ áĢŃáĢ¯áĤĶ
ĻáĢº áĢŃáĢ³
ĠáĢ¡ áĢ±áĢĸ
áĢĻáĢº áĢ¬áĢ¸áĢħáĢ¯
áĢĻáĢ» áĢ¬áĢ¸áĢŀáĢĬáĢº
à¦® à¦¿à¦ķ
Ð¸Ð½ Ñĸ
ĠÐ¼ Ð¾Ð»Ð¸
Ïĩ Î¹Ïĥ
à´® àµĨ
Ġáĥ¡áĥĲáĥ ŀ
ç«ŀå½© è¶³çĲĥæ¯ĶåĪĨ
à¹Ģà¸Ī à¹īà¸²à¸
à¸Ńà¸¢ à¸²à¸ģ
ĺ à¸µ
Ġs b
ļ à¹īà¸²à¸ĩ
å¸ Ŀ
à¹Ģà¸ª à¸Ļ
Ġà¸ ¨
èĲ½ å®ŀ
å®ŀ éĻħ
Ġåľ¨ çº¿
à¥Ĥà¤ ®
ĠÑģ Ð°ÑĨÑĭÑı
Ð°Ð²Ð°Ð½ Ð°
à°¦ à±įà°§
re at
à¦¾à¦ Ľ
ĠÑĢÑŀ Ð¹Ñħ
ĠÐ¼Ð¾Ð´ Ð´Ð°
ĠÑĢ ÑĥÐº
ĠÐ±Ð¾ ÑıÐ´
Ġáĥ¢ áĥĶáĥ¥
à¤ľ à¥Ģ
à´¿à´² àµĤà´ŁàµĨ
ĠÐºÐ¾ ÐµÑĤÐ¾
ĠÐ¼Ð¾Ð³ ÑĥÑĨÑĮ
ÎĻ ÎŁÎ¥
Î¾ Î±Î½
Ġáĥŀáĥł áĥĶáĥĸ
Ð»Ñı ÐµÑĤ
Ġìŀ ħ
Ñİ ÑĤÑĮ
ĠØ´ Ûģ
ĠØ§ÙĦÙĬ ÙĪÙħ
áĥ£áĥłáĥľ áĥĲáĥļ
à®¿à® ªà¯į
áĥĶáĥľ áĥĺáĥ¡
Ð¾Ð½Ð¸ ÑĺÐ°
ĠÎ¿ ÏįÏĦÎµ
Ġà¦ĩ à¦¨
ÑĨÐ¸ ÑĺÐ°
à°ķ à°¾à°²
ÏĥÏĦ Ïħ
an ce
ĠÐ²Ð¾ Ð¿ÑĢÐ¾Ñģ
ãģ ļ
Ø§Ø± Ûģ
à¤ķ à¤¾à¤°à¥Ģ
ÑĢ Ð°Ð¶
à®¾à® ¨à¯įà®¤
à´¿à´¯ à´¾à´¯
æĬ ĺ
5 1
Ī à¤²
×¨ ×Ĵ
Ġà¦¨ à§Ł
Î» Î®ÏĤ
íķĺ ìĹ¬
à¥ĩà¤¨ à¥ĩ
ĠØ® ÙĦØ§ÙĦ
Ġà¦Ĩ à¦¨
à°Łà±įà°Ł à±ģ
ĠáĥĿ áĥłáĥĺ
Ð¾Ð¶ Ð´
Ø¨ Øª
Ġà´¸àµįà´¤ àµįà´°àµĢ
à±ģà°¤ à±ĭ
Ġà´¤àµģà´Łà´Ļàµįà´Ļ à´¿à´¯
ĠÐ¶ ÑĥÐ´Ð°
ĠÐ²Ð°Ð·Ð¸ÑĢ Ð»Ð¸Ð³Ð¸
ĠÐ±ÑŀÐ»Ð¸ÑĪ Ð¸
Ð°ÑĤ Ð°Ð½
Î¶ ÎµÏĦÎ±Î¹
à¦¾à§ľ à¦¾
ÑĢÑĥ Ðº
Ġà°ĩ à°ķ
ĠÐºÑĥÐ»ÑĮ ÑĤÑĥÑĢÑĭ
ĠÏĢÎ¿ Î»Î»
áĥĿáĥ ļáĥĺ
ÙĪ Ûģ
Ġp er
Ġà¦ķà¦¾à¦ Ľà§ĩ
ĠãĢı ãĢİ
ä¸» é¢ĺ
áĭ į
ª à¹Īà¸ĩ
10 æľĪ
ä¾Ľ åºĶ
à¹ĩà¸ Ķ
æ· ·
à¤¾à¤µ à¥Ģ
ĠÐ¾ÑĢ Ð³Ð°Ð½ÑĸÐ·
Ġê³ ¼
Ġà´¶ àµĩà´·à´Ĥ
Ġà°ļà±Ĩ à°Ĥà°¦
ĠÐ¿ÑĢÑĭ Ð¼
ĠÐ¼Ð°Ð³ Ð°Ð·
æĺ¯ åĵª
åı¬ å¼Ģ
åĪĨ 3d
å¤ĸ æĮĤ
§à¸ Ķà¸
ĠåĬ ¨
èµĦ äº§
å¤§ ä¼ļ
Ġå¦Ĥ ä½ķ
Ġà¸ Ĭà¸±
ĸà¸ ·à¸Ńà¸
ģà¸ ¤à¸
Ġà¨µ à¨¿à¨
èĭ ¦
å½©ç¥¨ æ³¨åĨĮ
æľŁ éĹ´
ķà¸ ±à¹īà¸ĩà¸
Ġè¯Ħ è®º
Ġå¤§åıĳ 2åĪĨå½©
è´µ å®¾
Īà¸²à¸ ģà¹Ģà¸
è¿ ª
9 2
ļà¸ ±à¸Ļ
çİ ī
æĦı æĢĿ
à¤¾à¤Ĥà¤ ķ
Ġà®ĩà®°à¯ģà®¨à¯įà®¤ à¯ģ
Ð°Ðµ Ð²
ĠÒĽÐ°ÑĢ Ð¾ÑĢÐ¸
ĠÐ½Ð¸Ñģ Ð±Ð°ÑĤ
Ø¯ ÛĮ
Ġà¦ħ à¦ªà¦°
ĠáĤĢáĢĢáĢŃáĢ³ áĢ¸áĢħ
ĠáĢ ¢
ĠáĢħáĢ®áĢĻ áĢ¶
áĢ¬áĢ¸áĢľ áĢĬáĢ¹áĢ¸
d ay
áĤĤ áĢĢáĢ¼
±áĢ ģáĢ«áĢĦáĢ¹áĢ¸
ĠáĢħ áĢĲáĢĦáĢº
ĠÑĤÑĢ ÑıÐ±
áĥ¡ áĥĺ
ĠÐ²Ð¸Ð´ Ðµ
Ð°Ð¹ ÑĨÐµ
ĠÎŁ Î¹ÎºÎ¿
ĠÏĢÎ¿ Î»Î»Î¬
ÙĬ Ùĩ
Ġà¤¬ à¤¢à¤¼
ĠÑĩ Ð¸
à«ĭ àª¨àª¾
Ġáĥĵ áĥĲáĥ®
Ġs un
Ġ à¸£à¸§à¸¡à¸
é¥ °
n g
Ġå¿« éĢŁ
« à¹Į
7 3
Ķà¸²à¸ §
éĩ Ĭ
æł¸ å¿ĥ
h g
æĢİä¹Ī çİ©
æ¸¸æĪı ç½ĳåĿĢ
im e
Ġà¤µ à¤¾à¤ªà¤°
Ġà´ª à´¾à´°àµįâĢį
à´¿à´Ĥà´Ĺ àµį
Ñĭ Ð»
Ġà°ļ à±ĩà°°
à¦ ĺ
ĠØ¹ ÙĦ
ãĤ ĥ
ÑĪÑĩ Ð°
ĠÏĩ Î»Î¼
×© ×ª
ãĤ ĩ
à®£à¯įà®Ł à¯ģà®®à¯į
ëħ Ģ
ĠÐ· ÑıÐ¼
Ð½Ðµ Ðµ
Ø§Ø¹ Ø©
ÏĢ Î»Î±
àª¸ à«įàª¥
Ġà¤¦ à¥Įà¤°
Ð°Ñļ ÐµÑĤÐ¾
áĥĲáĥł áĥĶáĥĳáĥĲ
ĠáĢ±áĢ»áĢķáĢ¬ áģ¾áĢĢáĢ¬áĢ¸áĢ
ĠD ec
ĠáĢķáĢ« áĢĿáĢĦáĢ¹áĢ
áĢĽáĢ¬ áĢĩ
ì ¢
ÎĻÎļ ÎĹÎ£
ĠÎ±Ïħ ÏĦÎ¿Ïį
Ø§ÙĨ Ø§
Ð¶ Ð°Ð½
ĠáĢħ áĢ¬áĢ¡áĢ¯áĢķáĢ¹áĢ
ĠáĢĢáĢŃáĢ¯ áĢļáĢ¹
áĢ±áĢľ áĢ¸áĢĢ
ĺ áĢ°áĢ¸áĢ
áĢķ áĢĶáĢ¹áĢ¸
áĤĲ áĤĪ
ĠáĢĲáĢŃáĢ¯áĢĦáĢ¹áĢ¸ áĢĽáĢĦáĢ¹áĢ¸áĢŀ
áĢĸáĢ¼ áĢĦáĢ¹áĢ·
áĢĻáĢ¹áĢ¸ áĢŀ
áĢħáĢ¹áĢ Ĩ
à°ķ à°Ĥ
ĠÑĢ Ð¸
ĠÐºÑĥÐ»ÑĮ ÑĤÑĥÑĢ
ĠØ§ ÙĪ
ĠÐĺ Ñģ
ĠÎķÎĽ ÎĽ
ĠÏĩ Î¬
à¦¾à¦¦ à¦ķ
à´¿à´ķàµįà´ķ à´¾àµ»
ĠÎºÎ¹ Î½Î·
ĠÐ¾ÑĢÒĽ Ð°Ð»Ð¸
ĠÐ´Ðµ Ð´Ð¸
ĠÐ¸Ð¶ ÑĤÐ¸Ð¼Ð¾Ð¸Ð¹
ĠÐĶÑĥÑĪ Ð°Ð½Ð±Ðµ
Ð³ Ð¾ÑĢ
áĥ¡áĥĲáĥ® áĥ£áĥł
à§įà¦¯ à¦¾
Ġà°ļ à°¿à°¨à±įà°¨
ĠÐ¼Ð°Ò³ Ð°Ð»
ĠáĢĸáĢ¼ áĢĦáĢ¹áĢ·
áĢħáĢ¬áĢ¸áĢľ áĢ¾áĢļáĢº
à®¿à®ķà¯įà®ķ à®ªà¯įà®ªà®Łà¯įà®Ł
Ġàª ł
Ïĥ Î±Î¹
ĠÐºÐ°Ð¼Ð¿ Ð°Ð½
ĠÏĥ Î±
áĢģáĢ» áĢħáĢº
ĠáĢŀ áĢ¬áĢĻ
Ð°Ð³ Ó£
Ïĥ Î¿Î½
Ø Į
Ġë§ İ
à¤¾à¤¤ à¤¾
Ġáĥ¥áĥĲáĥļ áĥĲáĥ¥
ĠáĢ±áĢ»áĢķáĢ¬áĢĦáĢ¹áĢ¸ áĢľáĢ²
áĢŃáĢ¯áĢĢáĢ¹áĢ Ģ
áĢ±áĢĻ áĢ¼
áĢĶáĢ¹áĢ ĲáĢ²áĢ·
ĻáĢº áĢ¬áĢ¸áĢĢ
ĠáĢľ áĢ¼áĢĶáĢ¹áĢ
ĠáĢŀ áĢ¶áĢ¯
áĤıáĢ½ áĢ®áĢ¸áĢ
áĢ±áĢķ áĢ¸áĢĽ
ĠáĢĲáĢħáĢ¹áĢ ģáĢ«
áĢĨ áĢŃáĢ¯áĢĦáĢ¹áĢ
ĠáĢĢ áĢ±áĢ¬áĢĦáĢºáĢ¸áĢ
à«ĩàª ¥à«Ģ
ĠÐºÐ¾ÑĤÐ¾ÑĢÑĭ Ð¹
Î¼ Î¹Ïĥ
Ġà¦¸ à¦¾à¦§
Ð´ Ð°Ñģ
Ð´Ð°Ñģ Ð´Ð°Ñģ
ĠÐ¼ Ð¸
à¥įà¤ ł
Ġ... áģĭ
ĠG r
ĠáĢĻ áĤıáģ²
áĢľ áĢ¯
Ñĩ Ð°Ð½
×Ļ× ĸ
ĠáĢ±áĢ ĻáĢ½áĢºáĢ¬áĢ¹áĢ
áĢĨáĢ±áĢ¬áĢĦáĢº áĢĽáĢ½áĢĢáĢº
à±Ģ à°®
áĢ»áĢķ áĢĬáĢ¹
áĢ²áĢ¼ áĤĶ
ĠáĢ±áĢħ áĢº
ĠáĢĻ áĢ¾áĢĲáĢº
Ð°Ð³ Ñĥ
Ġàªķàª¾àª° àª£
æļ ĸ
æĽ´ åĬł
ªà¸²à¸ §à¸
æ¬¢ è¿İ
åĢ Ł
ä¿Ŀ æĮģ
ĠĈ ĈĈ
çĶŁ èĤĸ
æ²» çĲĨ
à¹ģà¸ Ħà¹Ī
ķà¸£à¸ ĩà¸
Ġà¸¡à¸ ±à¸Ļà¸
èĻ ĳ
è§Ħ æ¨¡
à¤¾à¤£ à¥ĩ
ĠÎ¼ÏĢÎ¿ ÏģÎ¿ÏįÎ½
ÐµÐ½Ð¸ ÐµÑĤÐ¾
Ġà®µ à®³
Ġà°ĩ à°ªà±įà°ªà±ģà°¡à±ģ
Ð°Ð¹ ÑĢ
ãģª ãģ©
ĠÐº Ð°Ð¼Ñĸ
¦ à¤¾
ĠØ§ÙĨ Ø³
Ġà°¯ à±Ĭà°ķà±įà°ķ
ĠØ¨ Øª
Ð·Ñı ÑĨÑĮ
Ĵ áĢ®
Ġáĥ¬ áĥĶáĥķ
§à¸ ¥à¸²à¸
Ĭà¹Īà¸§à¸ ĩà¸
ç½ĳç«Ļ _
Ġå¤§åıĳ 1åĪĨå½©
Ġà¤ī à¤¦
ĠáĢľáĢĢáĢº áĢĽáĢ¾áĢŃ
Ð¾ Ñħ
ĠáĥĲáĥ¦ áĥľáĥĺáĥ¨áĥľ
ĠáĢ»áĢķ áĢĬáĢ¹áĢ·
ĠáĢĸ áĢº
áĢļáĢ¹áĢ ļáĢ°
áĢķ áĢ®
áģ¿áĢķ áĢŃáĢ³
Ķ áĢŃáĢ¯áĢĦáĢ¹áĢ
ĠáĢĻ áĢĳ
áĢŀ áĢ±áĢĺáĢ¬
±áĢĢáĢº áĢ¬áĢ¹
ĸ áĢŃáĢ¯áĤķ
m an
ĲáĢ¬ áĢĢ
áĢ¸áĢľ áĢ¬
Ġà®İà®©à¯įà®ª à®¤à¯ģ
Ġàª® àª¾àª°à«Ģ
Ġà¦ħà¦¬ à¦¸à§įà¦¥
Ð½Ð¸ ÐºÐ°
ĠáĢķ áĢŃáĢĲáĢ¹áĢ
ĠáĢħ áĢ¶
Ð°Ð² ÑĭÑħ
Î´Î¹Î± Î¯
Ġàª² àªĪ
ĠÙĪØ§ÙĦ Øª
ĠÐ±ÐµÑģÐ¿ Ð»Ð°ÑĤ
ĠÑİ ÒĽ
ĠÑŀ ÑĤÐ³Ð°Ð½
ĠÐ½ Ð¾Ð¼Ð¸
áĢĻáĤĪ áĢ±áĢĲáĢ¼
ĠáĢĴ áĢıáĢ¹áĢ
ĠáĢĲáĤĲ áĢ¯áĢĲáĢ¹áĢ
áĢĻáĢ¹áĢ¸ áĢ¡áĢĶ
ģ áĢŃáĢ¯áĢĢáĢ¹áĢ
áĢĽ áĢļáĢ¹
áĢģáĢº áĢ®
áĤ Ľ
áĢģáĢ²áĢ· áĢķáĢ¼áĢ®áĢ¸
Ġagçİ¯äºļ å¹³åı°
æĪĲ ç«ĭ
æĢĿ æĥ³
å¸ ĮæľĽ
Ġå¤ ª
Ġà¤¸à¥ģà¤° à¥Ĥ
Ú© Ø§
ĠÑħ Ð¾ÑĢÐ¾ÑĪ
ÑĪ Ð»Ñĸ
Î¯ Î´Î¹
ĠG ujarat
Ġàªªàª¾àª¸ à«ĩ
à´¾à´° à´£
ÑģÐº Ð°ÑĤÐ°
Ð°Ñħ ÑĪ
Ġë Ŀ¼
ac h
ĠÐ¿ Ð°Ñį
ĠÑĢÐ°Ñģ Ð¿
è´¸ æĺĵ
¥à¸ Ķà¸
æĳ ©
à¸²à¸£ à¹Į
à¸£à¸¹à¸ Ľà¸
Ġçİ¯äºļag æīĭæľºå®¢æĪ·ç«¯
åĨ³ å®ļ
è¿Ľ ä¸ĢæŃ¥
6 3
Ł à¹īà¸²
Ġè Ħ
æŃ£ å¼ı
ä¸¾ åĬŀ
Ġà¤ħà¤¶ à¤¾
ĠÏĥÏį Î¼ÏĨÏīÎ½Î±
Ø§Ùģ Ø©
ĠØ§ Ø·
ĠÐ² Ð¾Ñģ
Ð¾Ð¼ Ð°ÑĤ
áĥĶáĥĳáĥĶáĥļ áĥĺáĥĲ
áģ¿ áĢģáĢ¶áĢ³
áĢ±áĢĶ áĢ¬áĢĢáĢ¹
±áĢ »áĢĸ
áĢ±áĢŀ áĢ¬áĢĢáĢ¹áĢ
áĢ±áĢ¸áĢ ģ
ÏģÎº ÎµÎ¹Î±
àª² à«ĩ
Ġ×Ķ×ŀ× ©
ĠÐ¼Ðµ ÑģÑı
áĢĲáĢ¹áĢ Ģ
áĢĻáĢº áĢĢáĢ¹áĤıáĢ½áĢ¬
áĢĲáģ ±áĢ
áĢĢáĢ¼ áĢķáĢ«áĢĲáĢļáĢº
ĠáĢĻ áĢ½áĢĶáĢº
ãģĹ ãģĦ
ĠÐ¿ÑĢÐµÐ· Ð¸Ð´
Ġàªªà«įàª° àª®
ĠáĢĢáĢ» áĢĦáĢºáĢ¸áĢķ
ÑĢ Ó¯Ð·
ÐºÐ¾ Ñİ
Ġtim e
Ġà¦¦ à§įà¦¬
Îº ÎµÏĤ
Ġà¤® à¤¾à¤®
ĠÑĨ ÑįÐ½ÑĤÑĢ
Ġ2 28
à¹Ģà¸ Ĺà¹Īà¸²
Ľà¸£à¸°à¸ ªà¸ļà¸
Ġagçİ¯äºļ æīĭæľºçĻ»éĻĨ
§à¸´à¸ Ĺà¸¢
è¿Ļ æł·
æ ¾³
ä»» åĬ¡
ģà¸²à¸£à¸ ĵà¹Įà¸
å½¢ æĪĲ
æķĻ å¸Ī
æķħ äºĭ
ä»· åĢ¼
à¸Ńà¸ ´
ĠçĶ± äºİ
r r
Ľà¸£à¸° à¹Ĥà¸¢à¸
à¹Ģà¸Ńà¸µà¸ ¢à¸
«à¸±à¸ §à¸
¡à¸ ŀ
e y
à¹ĥà¸ģà¸¥ à¹ī
Īà¸£à¸´à¸ĩ à¹Ĩ
è· Ŀ
Ġä»¥ åıĬ
ä¸ĭè½½ app
¥ à¹Īà¸²à¸
èµ ŀ
äºº çīĽçīĽ
5 4
ķ à¸Ńà¸Ļà¸
ģà¸ µà¸
è¿Ĳ è¡Į
ĠçĦ¶ åĲİ
çĦ ¦
à¹Ħà¸ «à¸Ļà¸
9 1
ģà¸²à¸ ¨à¸
é¥ ®
Ġà¤ľ à¤¾à¤Ĺ
ĠØª ÙĨ
àª°à«įàª ļ
áĥĲáĥ¡ áĥ¢
áĢĸ áĢ±áĢ¬áĢº
ĠÐ°Ð´ Ð¿Ð°Ð²
áĥĺáĥ ©
Ġíĺ¸ íħĶ
à´¿à´¨ àµģà´Ĥ
ĠÐ³Ð¾ÑĢ Ð¾Ð´
Ġà®ĩ à®©à¯įà®©
ĠÏĩÎ±ÏģÎ±Îº ÏĦÎ·
áĢľáĢŃáĢĻáĢ¹áĢ· áĢĻáĢļáĢ¹
áĢ¸áĢľáĢ¯áĢķáĢ¹áĢ ĦáĢĶáĢ¹áĢ¸
±áĢĲáĢ¬ áĤĶ
ĠáĢĺ áĢĤáģ¤
ĠJ ul
áģ¿ áĢĦ
ĠáĢ±áĢĲáĢ¬áĢ¹áĢ ±áĢĲáĢ¬áĢ¹áĢ
±áĢĸ áĢ¬áĢ¹áĢ
ĠáĢķ áĢħáģ¥áĢĬáĢ¹áĢ¸
ĠáĢĢ áĢ¬áĢ¸áĢ
à¶± à·Ĭ
Ġà¤ļà¤¾à¤¹ à¤¿à¤ı
ĠáĢĢáĢ¯ áĢĻáģ¸áĢıáĢ®
ĠáĢ¡ áĢŃáĢ¯
ÏĥÎºÎµÏħ Î®
ĠÑģÑĬ Ñģ
Ð¸Ð»Ð°Ð´Ð¸ Ð³Ð°Ð½
ĠÐĳ Ð¸Ð·
Ð»ÐµÐº ÑĤÑĢ
à«įàª ¹
ĠáĢ¡ áĢ¬áĢ¸áĢĢ
ìħ ĺ
Î± Î½Î±
ÙĬ Ø¹
à®Ļà¯įà®ķ à¯ģ
Ġ×© ×ŀ×
ĠÐĲ ÑĦ
áĢĻáĢ½ áĢĶáĢ¹áĢ¸
áĢĶáĢº áĢ¸áĢĢ
à«įàª Ľ
ÏĢ ÏīÎ½
ĠØªØ¹ ÙĦ
Ø¯ Ùī
àµĭ à´¸
ç§ ĭ
åĽ¢ éĺŁ
ä¿ĥ è¿Ľ
ļà¸ ±à¸Ļà¸
ĠT r
æĸĩ ç«ł
à¹Ģà¸ķ à¸Ńà¸£à¹Į
à¹Ģà¸ ĩà¸´à¸Ļ
7 1
Ĥ à¸Ń
à¹Ħà¸ «à¸Ļ
ć ãĢĤ
ä¸Ģ è·¯
¢à¸ ¡à¸
Ġà¸ĭà¸¶ à¹Īà¸ĩ
å¹³åı° _
Ĥà¸Ļà¸²à¸ Ķ
Ġ6up æīĳåħĭä¹ĭæĺŁ
æī ¬
æ¦ ľ
à¤ª à¤Ł
ĠÐ¿ÑĸÐ´ Ð¿
ĠÐĴ Ð¾
Ġáĥł áĥĿáĥªáĥĲ
áĢĦáĢ¹áĢ ķáĢ«
ĻáĤĪ áĢ±áĢĲáĢ¼
ĠáģĤáģ ĥ
ĠáĢŀ áĢĢáĢ¹áĢĨ
ĠáĢĻ áĢľ
Ġà®®à¯ģà®¤ à®²à¯į
ãĤ¤ ãĥĪ
ĠàªŃ à«Ĥ
ģáĢ¼ áĢĦáĢºáĢ¸áĢ
ÑĶ ÑĤÑĮÑģÑı
Ġáĥ¤ áĥĶáĥ®
íķ ¨
Ð¾ Ð°ÑĤ
¥à¸ ±à¸ĩ
Ġéĩį åºĨ
Ġagçİ¯äºļ å®ĺç½ĳçĻ»å½ķ
6 2
Ø¬ ÙĦ
Ġâ Ħ
Ġé¦Ļ æ¸¯
ĭ à¸µ
Ġà¤¤à¥įà¤¯à¤¾à¤Ĥà¤ ļà¥įà¤¯à¤¾
ĠÐº Ð¸ÑĪÐ¸
ĠÒļ ÑĥÑĢ
ÑĢ ÑĤ
ĠÑįÑĬÑĤÐ¸Ð± Ð¾ÑĢ
Î¸ Î»Î·
ĠÙĨØ¸ Ø±
ĠÐ±Ð¾ÑĪÒĽ Ð°ÑĢ
Ð¼ Ð°Ð½Ð´
ĠÑıÐº Ð¾Ð¹
ĠÏĨ ÏĮ
Ġáĥĸ áĥĿáĥĴ
Ġà¤Ĩ à¤Ī
Ġà´¯ à´¾à´¤àµįà´°
ĠÐľ Ð°Ñģ
ãģ¾ ãģĽ
Ġà°ħ à°¦à°¿
à§ ¨
Ġà¤²à¥ĩà¤ķ à¤°
ĠÎŃÏĩ Î¿ÏħÎ¼Îµ
à«ĩàªķ à«įàªŁ
ĠÐ²Ð¸Ðº Ð¾Ð½
ĠÏĢÏģÎ±Î³ Î¼Î±ÏĦÎ¿
ĠØ§ Øµ
ĠÑĤ ÐµÐ·
à§ľ à§ĩ
ÐĺÐ Ķ
ĠÐľÐ°ÑĢ ÐºÐ°Ð·
à¥ĩà¤ ¯
ĠáĢĶáĢŃáĢ¯áĢĦáĢºáĢĦáĢ¶ áĢĲáĢ±áĢ¬áĢº
ĠÒ² Ð°ÑĢ
Ð¸Ð½ Ñĥ
áĢŃáĢ³áĢĦáĢ¹áĢ ķáĢ¼áĢ²
áĢ¸áĢ ĲáĢ²áĢ·
áĢ¬áĢ¸áĢĻ áĢ»áĢ¬áĢ¸
×ľ ×§
ĠÏĢÎµÏģÎ¹Î¿ ÏĩÎ®
à°¾à° ĸ
ĠH indi
Ġà¤¬ à¥įà¤°
Ġà®¤à®®à®¿à®´ à¯į
à¯Īà®ķ à®³à¯Ī
Ġàª®àª³ à«Ģ
ĠâĢĻ âĢĻ
ÙĪ Ø§ÙĦ
Ġà¦¤ à¦¾à¦ĩ
ĠÐ¼ÐµÐ½ Ñı
Ġà°ªà±ĭà°² à±Ģà°¸
ĠØ¶ Ø±
ĠÐľ Ð°Ð»
ÑĨÑĭ Ñİ
Ð½Ð¸ Ðµ
as e
Ġê²Į ìŀĦ
ÑħÐ¾Ð½ Ð°
ĠÒ³ ÑĥÐºÑĥ
à° İ
Ïİ ÏĥÎµÎ¹ÏĤ
Ġàªªà«įàª° àªµ
Ġâ ŀ
Ġìķ Į
Ġà¦¦ à§ĩà¦ĵ
ĠáĢĢáĢ» áĢĶáĢºáĢ¸áĢĻáĢ¬áĢĽ
Ġà°Ĺà±ģà°° à±įà°¤
ĠÚ¯ Ø°
ĠáĢķáĢ¼ áĢ±áĢ¬áĢĦáĢºáĢ¸áĢ
ĠÑĪ Ñĭ
ĠÑĪÐ°ÑĢ Ð¾Ð¸
ÏĦÎ¹ÎºÏĮ ÏĦÎ·ÏĦÎ±
ĠØ£ Ùĥ
Ġà´° à´¾à´·àµįà´Ł
d i
ĠÐŁÑĢÐµÐ·Ð¸Ð´ ÐµÐ½ÑĤÐ¸
ĠÑĤÐ¾Ð¼ Ñĥ
áĥĲáĥļ áĥĵ
à´® à´²àµįà´²
ÑģÐ¸ Ñĳ
ÐĺÐ Ľ
ĠÐ² Ð¾ÒĽ
Î³ ÏīÎ½Î¹Ïĥ
ĠåĽ½ äº§
Ġà¤ª à¤¾à¤¸
Ġà®ħà®µ à®°à¯įà®ķà®³à¯į
ĠÐ½ÐµÐºÐ°Ð»ÑĮ ÐºÑĸ
ĠÎ±Î½ ÏĦÎ¹Îº
ĠáĢħáĢ¯ áĢħáĢ¯
ĠÑģÐ°Ð¼ Ð¾
áĢ¡ áĢĿ
ul t
à¦¾à¦ĩ à¦²
à°¾à°¯ à°ķ
ĠáĥĴáĥĺáĥĿ áĥłáĥĴ
Ġáĥ§ áĥĿáĥ¤
à´¿à´¸ àµįà´¥
Î¼ Î¹Î¿
áĢħ áĢŃáĢ¯áĢĢáĢ¹áĢ
Ķ áĢ®
áĢ±áĢ¬áĢĦáĢº áĢ¸áĢĢ
ÑĭÑħ Ð¾Ð´
ÐµÐ½ Ð´
Ġà°İ à°ķà±įà°ķà±ģà°µ
Ø§ÛĮ ÙĦ
ÙĨ Ø¬
áĢ¡ áĢĲáĢŃáĢ¯áĢĦáĢ¹áĢ¸
ĠáĢľ áĢ²
ĠáĥĴáĥĲáĥľ áĥĲáĥªáĥ®áĥĲáĥĵ
Ġ( "
áģ¢ áģ¼áĢº
ĠS ep
áĢĽ áĢĽáĢ½áĢŃ
áĢ» áĢ¬
ĠÑĩ Ð°ÑĢ
Ð» Ð¾Ð¶
ĠÎ³ ÏģÎ¬
Ġà´®à´¾à´¤àµįà´° à´Ĥ
æı ¡
ä¼ĺ åĬ¿
ªà¸²à¸ ¢à¸
çī¹ åĪ«
Ġå¢ ŀ
à¤¾à¤Ĥà¤ §
Ø§Ø¦ ÙĦ
×¨ ×ĳ
Ġà®µ à®¿à®Łà¯įà®Ł
Ð½ÐµÐ½ Ð½Ðµ
ĠÎ² Î»ÎŃ
ĠáĢ±áĢĴáģļáĢ±áĢ¡áĢ¬áĢĦáĢ¹áĢĨáĢĶáĢ¹áĢ¸áĢħáĢ¯ áģ¾áĢĢáĢĬáĢ¹áĢ
áĢĶ áĢ±áĢķáĢ¼
ÎĻÎļ ÎŁ
ĠÎ¼ÎŃ ÏĥÏī
ĠÐ¸ Ð´Ð¾ÑĢ
ĠÑĹ ÑĹ
à¦Ĺà§ģà¦² à§ĭ
æ¬§ ç¾İ
à¤µ à¤¨
à¯ģà®± à¯Ī
íĭ °
àµĨà´Ł àµģà´ªàµįà´ª
ÐµÐ½ÑĤ Ð¾Ð²
ĠÐ»Ñİ Ð´Ð·Ñĸ
w e
áĢ±áĢĽ áĢ¸áĢĨ
ĠáĢ»áĢķáĢĬáĢ¹áĢŀáĢ° áĤĶ
áĢĻáĢºáĢ¬áĢ¸áĢ ĲáĢ¼áĢĦáĢ¹
áĢ¹áĢ ¸
áĢ±áĢĻ áĢ»
Ġà´¤àµĢà´° àµģà´®
ĠÐ¼ÐµÒ³ Ð½Ð°ÑĤ
ĠÐ¼Ð¾Ð´ Ð´
Ġà¤ľ à¤¾à¤¨à¥ĩ
ãĥ »
ãĥ Ķ
ÑĤ Ð°ÒĽ
Ġà´ħ à´°
Ġàªµàª¿àª ¦
áĥĶáĥłáĥ Ĵ
Īà¸£à¸´à¸ ĩà¸
ĠæĶ ¿
çļĦ å°ı
à¥ģà¤ Ł
Ġà®ļ à¯ĩ
ÐºÑĢ Ð°Ð¸
Ð³Ð¾ ÑĤÐ¾Ð²
ĠÐĽÑĥÐº Ð°ÑĪÑįÐ½
ÑĢÐ¾ Ñħ
àµĢ à´±àµįà´±
ĠØ§ Ø®
Î³ÏģÎ±ÏĨ Î®
Ð¸Ñı ÑĤÐ°
ľ áĢ°
Ġal so
Ġáģı áģĬ
áģ¤ áĢ¬
áĢħáĢº áĢģáĢ¯
Î³ Î¼Î±ÏĦÎ±
Ġé ¾
æĪĳ åĽ½
Ġà¤¨ à¤¾à¤Ĺ
ĠÐ¾Ñģ Ð½Ð¾Ð²
Ġáĥ¨áĥĶáĥĽáĥĹáĥ®áĥķáĥĶáĥķ áĥĲáĥ¨áĥĺ
ãĥ¼ãĥ ī
Ð»Ð°Ð´ Ñĭ
Ú© Ø§Ø±
ĠÎ³ Î¯Î½ÎµÏĦÎ±Î¹
Ġà«¨ à«¦
àª Ĩ
Ġì ¦
à®Łà¯ģà®¤à¯įà®¤ à¯ģ
Ġ à¹Ģà¸£à¸²
Ġà¸Ńà¸ µà¸
Ġà¸Ĺà¸ ±à¹īà¸ĩà¸
Ġ201 0
ç½ĳåĿĢ _
ŀà¸¹à¸ Ķà¸
Ġè Į
è¡Į æĶ¿
Ġà¨¨ à©ĩ
Ġà¤ķ à¥ī
Ð¸Ð½ Ð¾ÑıÑĤ
ĠÐ½ ÐµÑĤ
ĠÐ¾ Ð¸Ð»
à°¸ à±įà°¯
ĠÐ³ Ð°Ð´Ñĭ
àµĩ à´¯
à¦¿à¦· à§įà¦ł
Î¿ ÏĢ
Ġà®¤ à¯Ĩ
Ð¾ÑĤ Ð°
ĠÑģÐ² Ð°Ðµ
Ġáģħ áģĢ
ĠáĢ±áĢ ŁáĢ¬
ĠáĢĢáĢĻáģ» áĢ¬
ĠáĢĢáĢ¯áĢľ áĢŀáĢĻ
ĠáĢľ áĢ±áĢ·
ĠÑĢÐµ Ð¶
ĠÒ³ Ð¾Ð·Ð¸ÑĢ
ĠÐ»ÐµÐ¿ ÑĪ
ĠâĢľ ,
ĠÑī Ð¾Ð±
ĠÙĪ Ø¹
áĢĿáĢ« áĢĴ
ĠÎķ Î¸Î½
Ġàªķ à«ĩàª®
Ø¹ Ûģ
Ġà¦ıà¦ķ à¦Łà¦¾
áĢĳ áĢ¬áĢ¸áĢľ
ĠÏĢÎ¿Î» Ïħ
Ġà´®à´¨ àµģà´·
ÑĢ Ð°Ñī
ĠÑĥ ÑĢ
ĠÑŀÐ· Ð¸
Ð»Ð¸ Ð¼Ð¸
áĢĲáĢ¬ áĢ±áĢĲáĢ¼
áĢ¡ áĢ»áĢķáĢĦáĢ¹
Ġs um
áĢ¡ áĢĲáĢ½
Ïİ ÏĥÎµÎ¹
à°² à°¿
ĠÎ¼ÎµÎ³Î¬ Î»Î·
Ġà¦ľà¦¾à¦¨ à¦¾à¦¨
à°¾à°ķ à±į
à¯ģà®³à¯įà®³ à®¾à®°à¯į
Ð¼ Ð°Ð´Ð¸
Ð´ Ð¾ÑĪ
Ġ, .
Ġàª¬ àª¨à«Ģ
ãĥ¼ãĥ ł
ĠÑĥ ÑģÑĳ
à§ĭ à¦ľ
áĥĲáĥ¡ áĥ¬
Ø¯ Ø§
×ł ×ª
àµĩ à´¤
Ġà¤ª à¤ķà¥įà¤·
ĠÎ¼Î± Î¸Î·
áĢĲ áĢĲáĢ¹
ĸáĢ¼ áĢ²áĤĶ
ĠáĢĻ áģ¾áĢĢáĢ¬
ĠáĢ¡áĢĻáĢºáĢŃáĢ³áĢ¸áĢŀ áĢĻáĢ®áĢ¸áĢ
áĢŃáĢ¯áĢ¸áĢ ĳ
ĠÙĦ Ùĩ
Ġà®ªà¯ĭ à®°
ìĥ ī
Ð½Ñĸ Ð²ÐµÑĢ
Ð°Ð» Ð±
Ġàª¸à«Į àª¥à«Ģ
à¹Ħà¸¡à¹Īà¸ ¡à¸µ
å¹¿ ä¸ľ
åĲĦ ç§į
à¸£à¸´à¸ ¡à¸
Ġ à¸£à¸²à¸Ħà¸²
Ġç² ¾
ćĈ ï¼Į
Ġæ¸ ħ
Ġà¸ŀà¸ ¤à¸
Ġà¤ª à¥ĭà¤²
ik e
íĸ Ī
à´¬ à´¨àµįà´§
áĢŁ áĢ¬áĢĽ
Ġà¦¨ à¦¿à¦°
áĢĲáĢ¹áĢ ¡
ĠáĢ¡áĢħ áĢĬáĢ¹áĢ¸
áĢĻ áĢļáĢ·áĢº
ĠÎ±ÏĨ Î¿Ïį
áĢĴ áĢ±áĢŀ
áĥĺáĥ« áĥĶ
áĥĶáĥķ áĥĲ
à°Łà±įà°Ł à°¿
ĠÐ¡Ð¿ Ð°Ð¼Ð¿Ð°Ð²Ð°ÑĨÑĮ
ÑģÑĮ ÑĨÑĸ
ĠÏĢ Î®
Ð· Ñĥ
Ø§ÙĦ ÙĬØ©
ĠÐµ Ðµ
ĠÐĺ ÑģÐ»Ð¾Ð¼
Ð¾Ð¼ Ð¾ÑĤÐ¸
à§ĩà¦² à¦¾à¦°
ãģ¾ãģĽ ãĤĵ
ĠÒĽ Ð¸ÑĪ
Ïī ÏĥÎ·ÏĤ
ĠÙħØŃ ÙħØ¯
ĠØ¹ ÙħØ±
Ġà´± à´¿à´ªàµįà´ª
áĢŀáĢ±áĢ¬áĢº áĢľáĢĬáĢºáĢ¸
ĠÑĤÐ°ÑĬÐ¼Ð¸Ð½ Ð»Ð°ÑĪ
ĠÐ³ Ð°
ÑĢ Ð¸Ðº
à¥ĩà¤¤ à¤¾
áĥ£áĥ ©
à®© à®®à¯į
Ġà°ªà±įà°° à°®
Ð¾Ð² ÑĭÑı
à¦¿à¦¤ à§įà¦°
ĠØ¯ Ûģ
ĠåĿ ļ
Ġå¹¸è¿Ĳ å¿«3
Ġà¤Ĩ à¤²à¤¾
Î¼ÎŃÎ½Î¿ Î¹
áĥĽ áĥĲáĥľ
Ġan y
ĠÐ² Ð¾Ð´
Ġà®ķà¯Ĥ à®Łà¯įà®Ł
ĠÎĺÎµÏĥÏĥÎ± Î»Î¿Î½
ĠÎĵ ÎµÎ½
ĠØµ ÙĪØ±Øª
ĠÎ²Î¿ Î·
ĠÐ¼Ð°ÑĢ ÑĤÐ°
ĠÒ³ Ð°Ð·
à¥ĩà¤¤ à¥įà¤°
áĥĲáĥłáĥļ áĥĲáĥĽáĥĶáĥľáĥ¢
ĠáĥĴáĥĲáĥĵ áĥĲáĥ¬áĥ§áĥķ
Ġ àµ¾
Ġà´ĩ à´¨àµįà´¨
Ġ] .
ĠÑĩÐ°Ñģ Ñĥ
ĠÎ±Î½ ÎŃ
×ķ×ł ×Ļ×Ŀ
ĠØ§ÙĦØ¹ Ø§Ùħ
Ġàªľ àªµ
ĠÙ¾ Ø§Ø±
Ġà¦¹à¦¿à¦¸ à§ĩà¦¬à§ĩ
Ġà´Ĩà´µ à´¶àµįà´¯
ĠÐ¡ Ð°Ð¼
áĥł áĥĶáĥ¡
ĠÑĢÐ¸Ð²Ð¾Ð¶ Ð»Ð°Ð½ÑĤÐ¸ÑĢÐ¸ÑĪ
ĠÐº Ñĥ
ĠÑĤÐµ Ð³
Ð» Ó£
Ġàª¤àª® àª¨à«ĩ
Ġà°ļ à°¦
ĠTh is
à®¤à¯įà®¤ à¯ģ
ÙĬ Ùĥ
ĠÏĥ ÏĦÎ¬
ĠÑĤÑį ÑĢÑĭ
à§ĩà§Ł à¦¾à¦°
in t
z y
Ħà¸ ³
à¹Ĥ à¸Ļà¸
Ġà¸Ħ à¸Ļ
å· ¡
Ĺà¸µà¹Īà¸ Īà¸°
ĠæĹ¶ æĹ¶å½©
æĻ ĵ
æķ ¸
à¥įà¤¯à¤¾à¤Ĥà¤ ¨à¤¾
Ïģ Î½
ĠáĥĽ áĥĺáĥľáĥĺáĥ¡áĥ¢
Ðµ Ð±
à¦¾à¦ķ à¦¾à¦°
ĠÑĸÐ¼ Ñı
ĠØ§ Øª
Ġáĥ¡ áĥĺáĥ¡áĥ¢
ĠÐ¿ÑĢÐ¾ÑģÑĤ Ð°
à«įàª¯ àª¾àª°
à°² à±ĩà°¦à±ģ
Ġà¦® à¦¾à¦§à§įà¦¯à¦®
ĠáĢķ áĢŃáĢ¯áĤĶ
áĢ±áĢĶ áĢĶáĢ²áĤĶ
áģ «
áĢģáĢºáĢŃ áĢĶáĢ¹áĢ
áĢŀ áĢ¯áĢŃáĤĶ
ģáĢ¼ áĢ²
ĠáĢĺáĢļáĢº áĢľáĢŃáĢ¯
áĢ¸áĢĢ áĢ¯
Ġà¤ Ī
ĠáĢĽ áĢŃáĢ½
ĠáĢ¡áĢ±áĢĻáĢĽáĢŃáĢĢ áĢĶáĢ¹áĢ
ĠáĢ§áĢĽáĢ¬ áĢĿáĢĲáĢ®
ĠáĢ¡ áĢ±áĢķáģļ
áĢŀ áĢĲ
Î»Î± Î´Î®
ĠÐ´Ð°Ð¿Ð°Ð¼ Ð¾Ð³
ĠáĢ»áĢķ áĢĶáĢ¹
ĠáĢľáĢ¯áĢķáĢº áĢĨáĢ±áĢ¬áĢĦáĢº
àµ¼ à´·
ĠÑĢÐµ Ð³Ð¸
Î¯Î¶ ÎµÏĦÎ±Î¹
Ð°Ð¹Ð´ Ð¾
ĠáĥĽáĥĲáĥ¨ áĥĺáĥľ
Ġà®ķ à®£à¯įà®Ł
ĠæĦ Ł
Ġà¤ħ à¤¤
ĠÙħØ· Ø§Ø¨ÙĤ
ĠÐ´Ð·Ñĸ ÑĨÑı
ĠÎ¼ Î®Î½
Ð»ÐµÐ½ Ð°
à°ķ à±ģà°Ĥà°¡à°¾
ct ion
à«Ĥ àªŁ
Ð¾Ñģ ÑĥÐ´
Ġáĥ¬áĥĲáĥłáĥĽ áĥĿ
ĠÑģ Ð°Ð¿ÑĢÐ°Ñŀ
ĠÎĿÎ¿ Îµ
ĠÎµÎ½ Î´Î¹Î±
ĠÙħ Ûģ
ÏĨ ÎµÏģ
à¦¾à¦ĵ à§Łà¦¾
áĢŀ áĢ¼áĢĦáĢ¹áĢ¸
±áĢķ áĢ¸áĢķáĢ«
ĠáĢĢáĢŃáĢ¯áĢļáĢ¹áĢ Ĳ
áĢķ áĢŃáĢ¯áĢ·
ĠÎºÎ± ÏĦÎ¿
Ġà°µ à°¾à°°à±ģ
ÙĨ ÙĬØ©
ĠÐ¿Ð¾ ÑĤ
ĠÒĽÐ¾Ð» Ð³Ð°Ð½
ÐĽ ÐĲÐł
ĠÑĤÐ°ÑĬ Ñģ
×ŀ ×Ļ
ĠÎ³ Î½Ïİ
Ġàª®à«ĩàª ³
ĠÑģÐ² Ð¾Ð¹
ĠØ®Ø± ÛĮØ¯
Ġà¤° à¥ģà¤ª
Ġà¤Ńà¤¾à¤° à¤¤à¥Ģ
ĠáĢģáĢĦáĢ¹áĢ ĹáĢº
ĠáĢ»áĢĸáĢħáĢ¹áĢ ±áģ¾áĢĢáĢ¬áĢĦáĢ¹áĢ¸
ĠáĢ¡ áĢĢáĢ°áĢ¡áĢĬáĢ®
ãĥ³ãĥ ī
ÑįÐ¹ ÑĪ
Ġà¦ħà¦¨ à§ģà¦·à§įà¦ł
ĠØª ÙĪÙĦ
áĢħ áĢ±áĢĽ
à¯ģà®ļ à¯į
à¥įà¤° à¥ĩà¤¸
Ð± Ð°ÑĢÐ¸
à¤® à¤¾à¤¨
Ð¾ÑĢ Ó£
ĠÐ² Ð°Ð¶
Ïģ Î¹ÎºÎ®
ìĹħ ìĨĮ
ìĦľ ë¹ĦìĬ¤
Ġê° Ļ
à´ķàµįà´ ¸
ĠØ·Ø± Ùģ
Ġy ear
ĠØ¨ Ùħ
Ġà¦¦ à¦¿à§Ł
ĠÐ¼Ð°ÑħÑģ ÑĥÑģ
à¤ª à¥ģà¤°
Ġà¤¸ à¥ĭà¤
áĢ¾ áĢº
áĢĻáĢº áĢ¬áĢ¸áĢħáĢ¼áĢ¬
áĢĲáĢ¬ áĢķáĢ²
áĢľ áĢŃáĢķáĢ¹áĢ
áĢ±áĢ¸áĢĻ áĢ¼
ÑĩÑĭ Ñħ
Ġáĥ¬ áĥĲáĥĽ
ÎĹ Î¡
ĠÏĩ ÏģÎ¿Î½
ĠØ§ÙĨ Ø¬
ĠÑĤÑĢÑıÐ± Ð²Ð°
Ġà®µà®´ à®Ļà¯įà®ķ
Ġà¦¬ à¦¨à§įà¦§
ay s
Ð°Ñĳ Ð½
áĢľáĢ° áĢĳáĢ¯
áĢķáĢ¹áĢ ¡
áĢĲáĢ¹áĢĲ áĢĻáĢ¹áĢ¸
ĠáĢģáĢº áĢĢáĢ¹áĢ
áĢĢáĢ¹áĢ ĽáĢ½
ģáĢº áĢŃ
áĢ¬áĢĦáĢ¹áĢ¸ áĢķáĢ«
ĠáĢĨ áĢĢáĢ¹áĢŀáĢ¼áĢļáĢ¹áĢ
ĠáĢģ áĢ«
Ġà°¬ à°¯
ĠÐºÑŀ Ñĩ
ĠÑĢÐ°Ò³ Ð±Ð°ÑĢ
ĠÐ± ÑĥÑİ
ĠÑĤ Ð°ÑĢÐ¸
ĠÑģ ÑĥÑĩÐ°Ñģ
ĠÐºÐ°ÑĢ Ð´Ð°Ð½Ð¸
ĠÎ´Î¹Î± ÏĨÎ¿
ĠáĢ»áĢķ áĤĨáĢĶáĢ¬
ĠáĢĢáĢ»áĢ½áĢĶáĢºáĢĲáĢ±áĢ¬áĢº áĢĲáĢŃáĢ¯áĢ·
àª¤ à«ģàªĤ
ĠØ§ÙĦ Ø§ÙĨ
Ð°Ð· Ñĸ
Ġáĥŀáĥł áĥĿáĥĳáĥļ
ĠN ov
áĢ±áĢ ļ
áĢĲáĢ¹áĢ Ļ
áĢĢáĢ¹áĢ¡ áĢģáĢ²
ĠáĢķáĢ¼áĢĬáĢº áĢĶáĢļáĢº
ĠÑģÐ²Ð°Ñĳ Ð¹
ĠÐ± ÑĢ
Ġ×Ĳ ×Ĺ×¨
Ń à´µ
Ġà¦® à§ģà¦ĸ
áĢĶ áĤĶ
ĠáĢĢáĢ¼ áĢĶáĢ¹áĢ
áĢħ áĢ¬áĢĽ
Ġà¤īà¤¨à¥įà¤¹ à¥ĩà¤Ĥ
íĮ Į
Ġàª§ àª°
ç¼ ĵ
æħ §
å»º çŃĳ
à¹Ī à¸Ńà¸¢à¸
å®¶ åºŃ
ä»Ĭ å¹´
á į
à¥įà¤¯à¤¾à¤¤ à¥Ģà¤²
ĠÐ½Ðµ Ð¿
ĠáĢĻáĢ° áĢľ
Ġà°¬ à°¾à°²
áĢĨ áĢ¬
ĠÙħ Ø²
Ġà¦°à§Ł à§ĩà¦Ľà§ĩ
ĠáĥĶáĥł áĥĿáĥķáĥľ
Ġà°µà±Ĩ à°³à±įà°²
Ïħ Î¼
Ð°Ð»ÑĮ Ð½ÑĭÐ¹
à¤Ł à¥Ģ
àµĤ à´®
ĠÎłÎ± Î½Î±
ĠÎµÎ¯ ÏĩÎ±Î½
ķáĢ« áĢĲáĢ®
ĠáĢĻ áĢľáĢŃáĢ¯
Ġáĥ¥ áĥĲáĥłáĥĹáĥķáĥĶáĥļ
Ġ$( "#
Ġáĥ¡ áĥĿáĥ¤
à®¾à® ¸
ĠÑĩ ÑĭÑĤ
ĠÙģÛĮÙĦ Ùħ
Ġà¤¸à¥įà¤µ à¤¤
Ðµ Ñī
Ùģ Ø¶
ĠáĢķ áĢ±áĢ«
Ø§ Ù¾
ĠÑĩÐ°Ð»Ð°Ð²Ðµ ÐºÐ°
Ġáĥ¯ áĥĶáĥł
à°ªà±įà°ª à±ģà°¡
ĠÐľ ÑĸÐº
ĠÐĵÐģ Ðĵ
Ð½ i
Ð»Ñĸ Ð²Ð°
ĀĀĀĀĀĀĀĀ ĀĀĀĀĀĀĀĀ
ãĤĮ ãĤĭ
ê¹Į ì§Ģ
à§ĩà¦¤ à§ĩ
ÎºÏĮ ÏĤ
Î» Î¹ÎºÎ¬
ĠáĥĿ áĥ¥
ĠÐ± Ð»
Ġàªµ àªĸàª¤
Ġà°¬ à±įà°¯
ÐµÐ´ Ñĭ
ĠÎº ÏģÎ¬
Ġà´İà´²àµįà´² à´¾
ĠF eb
áĢľ áĢ¶áĢ¯áĢ¸
ĠáĢľáĢ½ áĢ¾áĢĲáĢºáĢĲáĢ±áĢ¬áĢº
áĥĿáĥľ áĥĿáĥĽ
áĢģ áĢŃáĢ¯áĢĢáĢ¹áĢ
áĢļáĢ¹áĢ Ļ
áĢĻ áĢŀáĢŃ
ĠÐ²Ð¸Ðº Ð¾ÑĢÐ¸ÑģÑĤ
Ġ other
ĠáĢ¡ áĢľáĢŃáĢ¯
Ð¸ÑĤÑĮ ÑģÑı
Ġà¤ı à¤µ
áĤıáģ ±áĢ
áĢ±áĢĽáĢ¬ áĢĤáĢ«
ĠáĢĲáĢĽ áĢ¯áĢĲáĢ¹áĢ
áĢĢ áĢ²
ĠÐ¸Ð» Ð¼
ĠÐ² ÑıÑĢ
Ġ2016 å¹´
èĥ Ĩ
à¸£ à¹īà¸²à¸Ļ
Ħà¸ §à¸
Ġà¤¦ à¥ĩà¤µ
ŀ áĢ½
Ġà®ª à®¿à®©à¯įà®©
à¤¿à¤¯ à¥ĩ
ĠáĥĵáĥĲáĥ Ķ
Ġà¤¦ à¤¾à¤ĸ
Ð¸Ð¼ Ð½Ð¸
ĠÐ¼Ð°Ð±Ð»Ð° Òĵ
Ø± Øª
àŃ į
à¬ ¿
Ġà¤ķ à¥įà¤°
Ġà°ªà±įà°° à°§
Ġàªķ àª®
s g
ìĺ¤ íĶ¼
Ð¾ ÒĵÐ¸
×ŀ× Ł
Ġìŀ ĳ
Ġà¦® à¦¨
ĠÎ±Ïħ ÏĦÎŃÏĤ
ÑĤÐ¸ Ñħ
ĠØ® ÙĦØ§Ùģ
à´¿à´ķ àµį
áĥĲáĥłáĥ £áĥļáĥĺ
Ð°Ð»ÑĮ Ð½ÑĭÑı
ĠÐľÐ°ÐºÐµÐ´ Ð¾Ð½Ð¸ÑĺÐ°
Ð°Ñ ĵ
ĠÑģÑĥÐ¿ ÑĢÐ°ÑĨÑĮ
ĠÑģÐ°Ð² Ð¾Ð»
ÏĥÎºÎµ ÏĦÎ±Î¹
à«ģàª ¶
n i
ĠÐ°Ò³ Ð¾Ð»Ð¸
Ġà¦¸ à¦¾à¦°
ĠÑį Ð³
ĠÐ³ÑĥÑĢ ÑĥÒ³
Ġà¤ľ à¤°
Ñĩ ÑĥÐ½Ð¸Ð½
Ð¾Ð² Ð¸Ñħ
ĠØ³ ÛĮØ§
à¯ĭ à®Łà¯ģ
Ø¹ Ø¨
Ġà°ķ à°¾à°Ĥà°Ĺ
ÑĢ ÐµÑģ
Ġà®Ĩ à®¤
Ġà°ķ à±ģ
Ġà¦® à§ĥà¦¤
Ġà¤¨ à¤¿à¤ķ
ĠÑģÐ¿ ÑĢÐ°Ð²
áĥľ áĥĺáĥĶáĥł
ĠÙ¾Ûģ ÙĦÛĴ
ĠÑĪ Ð»ÑıÑħ
Îº ÏĦÎ·
à¦¿à¦ķ à¦¾à¦°
ĠÑĦ Ð¾ÑĤÐ¾
Ð¿ Ðµ
íķĺ ê²Į
Ġà®¤ à¯Ģ
ĠØ´ ÙĨ
Ġà´® à´¾à´¸
ou nt
ĠáĢĢ áĢ±áĢĶ
áĢĻáĢ¾áĢ¬ áĢĲáĢ±áĢ¬áĢ·
ĠáĢĻ áĢŃáĢĲáĢ¹áĢ
à¥įà¤°à¥Ģ à¤¯
ĠáĥĲáĥ ¨
àª¹ à«ĩàª°
ãģ¨ æĢĿ
ĠO ct
áĢĶ áĢ¬áĢĻ
Î¼Îµ ÏĥÎ±
ĠÐľ Ð°Ð³
×ķ×ª ×¨
áĢĳ áĢķáĢº
Øª Ùī
Ð¼Ñĸ ÑĢ
Ġà°ķà±ĭ à°°
ÑıÐ´ Ð·ÐµÐ½
Ġà¦Ńà¦¾à¦² à§ĭ
Ġà´¯ àµģà´µ
ĠÐ² Ð·
ãĥ į
Ġà´® à´¹
ĠÎºÎ± Î»Î¬
ĠÐ¿ÑĢ ÐµÑĤ
ĠÑŀ ÑģÑĸÑħ
ĠÚ©Ø± Ø¯Ùĩ
áĢķáĢ±áĢ« áĢĢáĢº
Ð°Ð½ Ð´Ð¸
ĠÏĢ Î¬Ïģ
à¤¾à¤ı à¤Ĥ
à°¾à° «
Ć ãĢģ
æĺ ł
æ°ĳ æĹı
áĪ į
èĵ Ŀ
æĢ» ä»£çĲĨ
à¥ĭ à¤¤
àª¾àª ·à«įàªŁ
áĥĿáĥłáĥª áĥĺáĥĶáĥļ
à´¨ à´¾à´¯
à¦¬ à¦¿
ĠÙģÛĮ Øµ
ĠÐ¿ÑĢÐ°Ð² Ð°
Î¾ Ïī
ë³ ¸
à®¿à®ķà¯įà®ķ à¯Ī
áĢģ áĢĽ
ĠÐ¨ ÑĤÐ¾
áĢ±áĢ¸áĢ Ķ
à¤¿à¤µ à¤¾à¤°
ĠÐļ Ð¾Ð¼
Î´Î¿ ÏĥÎ·
ĠáĥĵáĥĲáĥĻ áĥĲáĥķáĥ¨áĥĺáĥł
Ġà´ķàµĬ à´£àµįà´Łàµį
Ġà¦¤ à§ģà¦²
ĠÏĥÏħ Î½Î±
ÑĢÑį Ñģ
Ġç» ĵ
Ġà¥ «
ĠØµ ØŃ
ĠÐł Ð°Ð·
ĠÎ´ Î¯
Ġà´µà´¿à´ľ à´¯
Ġà¤¤à¥įà¤¯à¤¾à¤ ¤
ĠáĢĽ áĢķáĢ¹áĢ
ĠáĢķáĢ¼áĢĦáĢº áĢĨáĢĦáĢº
Ġà°® à°Ĥà°¦à°¿
Ñİ Ñī
ĠÐ· Ð¼Ñı
éĿ¢ çļĦ
ç ĺ
à¹Ī à¸Ńà¸Ļà¸
¡ à¸´
ŀà¸§à¸ ģ
ĠåĮħ æĭ¬
ĠçĶ ³
éĢ Ĵ
çļĦ æĸ°
Ġà¤ī à¤¤à¥įà¤¤
à®ªà¯įà®ªà®Ł à¯ģà®®à¯į
ĠÙ¹ ÛĮ
ĠÎĳÏħ Î³
à«Ī àª¯
Î¼Îµ ÏĤ
Ġê² °
ÙĪ Ùī
áĢ¬áĢ¸áĢ¡ áĢ¬áĢ¸
Ð°Ð» Ð½Ð¾
ĠÑħÐ°Ð² ÑĦ
à´ªàµįà´ªàµĭ àµ¾
ĠÐ¼ÐµÐºÑĥÐ½ Ð°Ð½Ð´
ĠÑĨÑı Ð¶
áĥ® áĥĶáĥĵ
á¿ ĸ
ÎºÎ± ÏĦÎ±
ĠÐº ÑĥÐ¿Ð¸ÑĤÑĮ
Ġm on
Ĳ áĢĽ
áĢĲ áĢ±áĢ¬
Ñı ÑĤÑĮ
à«į âĢį
à«ĭ àªĤàªļ
à¦¸ à§įà¦ķ
ĠÎ ī
ĠáĢķ áĢĽ
ãĤ¹ ãĥĪ
ĠÐ¿Ð°Ð¼Ñĸ Ð¶
áĥ£áĥ ŀ
ĠÎ¼ Î¹
à«Ģàª ļ
ĠÙħ Ùĩ
ĠáĥĽ áĥĶáĥª
áĢ±áĢľ áĢ¬áĢ·
áĢ¡ áĢĻáĢ½
ĠÑĢ ÐµÐº
à±ģà° Ń
Ø§Ø¹ Øª
---- ----
áĢľ áĢŃáĢĻáĢ·áĢº
Ġà®ĩ à®£
Ġë§ ¤
Ġà¤ªà¥įà¤°à¤¤ à¥įà¤¯
ÏĦÎ® ÏĥÎµÎ¹
ĠÑĦ Ð¾ÑĢ
ĠØ§ ÛĴ
ĠW e
Ġáĥ¤ áĥĺáĥļ
Î¼Î¿ Î¹
Ġà¤ķà¤¾à¤° à¤£
Ð°ÑĤÑĭ Ñŀ
à±Ģà°ª à±Ģ
Ġà°µà°¿à°ľ à°¯
lo w
ĠáĥĲáĥ Ĺ
áĢĻáĢ¬ áĢı
ÙĨ Ù¹
Ø±Ø¨ ÙĬØ©
à´¿à´ķàµįà´ķ à´¾à´¨
ĠÑģÐ¿ Ð¾ÑģÐ¾Ð±
Ġàª¤à«ĩàª® àª¨àª¾
ĠÙĥ ÙħØ§
Ġà°¨ à°¿à°ľ
ĠÐ³ÑĢÐ°Ð¼Ð°Ð´ Ð·Ñı
à¦ª à¦¿
à´µ àµį
áĢ¸áĢĻ áĢŃ
Ġáģ īáģ
Ġà¦¬à¦¿à¦ ı
Ġ×Ķ ×Ļ×Ĳ
Ġà¦¬ à§įà¦°
ĠÐ¿ Ð¾Ñŀ
ĠÐ» Ð²
ÐºÐ¸ ÑĤÐµ
ĠáĢķáĢ¼áĢ±áĢ¬ áĢŀáĢĬáĢº
Î¼Î² Î±
áĢŀ áĢ¯
ĠÏħ ÏĪÎ·
åĨ Ĩ
áĢ¹áĢ ķ
ĠáĢĴáĢ® áĢ±áĢĶáĤĶ
ĠáĢ±áĢŀ áĢģáĢºáĢ¬
áĢģáĢº áĢŃáĢ³
áĤĢáĢĢ áĢŃáĢĻáĢ¹áĢ
áĢ±áĢĽ áĢ¾
Ġà°¸à°Ĥà°¬ à°Ĥà°§
ãĥĥ ãĥĹ
ì° ½
ĠÐ¼Ð¸Ð» Ð»Ð°ÑĤ
Ġáĥĵáĥ¦ áĥĶ
ĠáĢħ áĢ¯áĢ¶
Ġà®®à¯ģà® ´
Ïī Î´
ĠÐ¾ÑĤ ÑĢÐ¸Ð¼
Ñģ Ð¸Ð»
ĠÐ²Ñĭ ÑģÑĤÑĥÐ¿
Ġà¤¦ à¥Ĥà¤¸
Ġà´¨à´¿à´ ±
ÏĥÏĦÏħ Î½Î¿Î¼
ãĥķ ãĤ
ëĤ ľ
Ġ æľª
æĩ ī
« à¹īà¸Ńà¸ĩ
ģà¸£à¸ °
Ġh k
Ġà¤² à¤ķà¥įà¤·
Ò ¯
ĠÒĽ Ð°Ð½
Ð°Ð»Ð°ÑĢ Ð³Ð°
ĠÐ¼ÑĥÐ½Ð¾ ÑģÐ°Ð±
ĠÑĤÐ°ÑĬ ÐºÐ¸Ð´
ĠÙĤ Ø¯
Ð½Ñĸ Ð¼
ĠáĥĽáĥĶáĥĿ áĥłáĥĶ
áĢĶáĢ¹áĢĢ áĢº
áĢ¡ áĢķáĢ±áĢ«áĢº
ĠÐ± Ð¸
Ġàª® à«ģàªĸ
ĠÒĽ Ð¸Ð¹
ĠÐ¼ÐµÐ±Ð¾ÑĪ Ð°Ð´
à´¿à´ ´
el y
ĠÑĢÐ°Ð± Ð¾ÑĤÑĭ
ĠÎ´ ÏģÎ¬
ÙĪÙĨ Ùĩ
Ġà¦¤ à¦¥
Î¯Î¶ Î¿ÏħÎ½
Ð¼Ðµ ÑģÑĤ
Ġà®ħ à®²
Ġáĥĺáĥ¡ áĥ¢
ĠA pr
áĢ¸áĢ Ŀ
Ġà° Ĭ
Ø§Øª ÛĮ
àµģà´ ĸ
ĠáĢļáĢ° áĢĨ
Ġë ¹
ãĥ Ģ
éģ ¿
æ´ ģ
¹ à¹ī
I P
ķà¸ ¥à¸²à¸
Ġè ĳ
Ġæĺ Ł
ĠæĬ ķ
Ġå¤§åıĳ 5åĪĨå½©
Ġà¹Ģà¸ŀà¸ ·à¹Īà¸Ń
æ¸¸ å®¢
à¸£à¸°à¸ļà¸ ļ
è¯ º
åįģ ä¸Ģ
à¤¾à¤ ·
ĠÎ¹ Î´Î¹
Ġàª¤ àª°à«Ģ
Ļà§įà¦ ķ
ĠáĢĢáĢºáĢĶáĢ¹áĢ¸áĢĻáĢ¬ áĢ±áĢĽáĢ¸
± áģĢ
ĠáĢĵ áĢ¬áĢĲáĢº
ĠÐ¶ ÐµÐ»
àµĭ àµ¼
ĠÐłÑįÑģÐ¿ÑĥÐ±Ð»Ñĸ ÐºÑĸ
ĠÐ¿ÑĢ Ð°Ñģ
Ð°ÑģÑĤ ÑĢÑĭÑĩ
ĠÎ¥ Îł
ÏģÏħ Î¸
Ġà°ķà°¾à°Ĥà°Ĺ à±įà°°à±Ĩ
à°¡ à°¿
Ð°Ð´ Ð»ÐµÑĤÐºÑĸ
Ð°Ð»ÑĮ Ð½Ð°
ÎµÏģ Î¼Î±Î½
áĢĶáĢ¹áĢ ĵ
ĠÐ³ Ð´Ðµ
áĥĲáĥķ áĥĶ
ĠÐ½Ðµ Ð¹
Ĵ áĢıáĢ¹áĢ
ĠáĢĹ áĢĻáĢ¬
ĠáĢ±áĢĻ áĢ¼
áĢģáĢº áĢ³áĢŃáĤķ
áĢĦáĢºáĢ¸áĢĻ áĢ¾áĢ¬
Ġà°ħ à°°
Ġ×ķ ×¢
Ġà¦ī à¦¤à§įà¦¤
ÏĦ ÏģÎ¹
Ġà®İ à®¨à¯įà®¤
p t
Ñĩ Ð½Ð°Ð³Ð°
ĠÐµ Ðº
ĠÙħ Ø§Ùĩ
ĠÎĳÎ¸Î® Î½Î±
áĢĦáĢ¹áĢŀ áĢ¬
áĢĽáĢ¾áĢŃ áĢŀáĢĬáĢº
ĠØ¨ ÛĴ
ĠÎ¼ Ïħ
ĠáĥĶáĥķáĥł áĥĿáĥŀ
íķĺ ê¸°
Î¶ Î¿
à°° à±Ģ
Ġåı į
çı ł
æīĭæľºçīĪ app
å° Ĭ
å®ĺç½ĳ åľ°åĿĢ
5 å¹´
Ġà¤ķ à¤¾à¤¢
ĠØªÙħ Ø§Ùħ
ĠÐµ Ð´Ð¸Ð½
ĠÑĢ ÑĸÐ·
Ġàªªàª¾àª Ľ
Ġáĥ¬ áĥĺáĥľáĥĲ
Ð°Ð²Ñĸ ÑĤÐ°
ĠÎ³ ÏħÎ½Î±
¥à¸° à¹Ģà¸Ńà¸µà¸¢à¸
æı ´
å·¥ åħ·
ľà¹Īà¸² à¸Ļ
Ĭà¸²à¸ ¢
Ġæķ ´
Ĭ à¸Ńà¸ļ
ļ à¸£à¸´
Ġag æ£ĭçīĮ
é² ģ
è´ ¯
çľŁ éĴ±
as s
m e
ķà¹īà¸Ńà¸ĩà¸ ģà¸²à¸£à¸
åĩº æĿ¥
à¤¿à¤Ĥà¤ ¦
à®¾à®± à¯ģ
Ġ×© ×ĳ
áĢĦáĢ¹áĢ ĳ
áĢ¸áĢ±áĢĽ áĢ¸
Ĳ áĢĶáĢ¹áĢ¸
áĢ¸áĢ ĸ
ĠÎ¿ ÏģÎ³Î±Î½
§à¸²à¸ ĩ
Ġà¤ľ à¤Ĺ
Ġà°° à±Ĥ
Ġà°ªà±įà°°à°Ńà±ģà°¤à±įà°µ à°Ĥ
Ð»Ð°Ñģ ÑĨÑĸ
Ġà¦¯ à¦¾
áĢ¯áĢ¶ áĢ¸áĢĢáĢŃáĢ¯
ĠÐ¾ÑĤ Ð½Ð¾
à±ģà°Ĥà° ¬
ÙĬÙĨ Ø©
Ġà®¤à®² à¯Īà®µ
Ðº Ð°Ðµ
ãĤ ±
Ñ ľÐµ
áĢĽáĢ½áĢŃ áĢĲáĢļáĢ¹
ĠáĢĹ áĢŃáĢ¯áĢľáĢº
ĠàªĽ à«ģàªĤ
ĠÛģÙĪ ØªØ§
Ð¾Ð± Ð¸Ð»
ĠÏĦÎ· Î»Îµ
à«ĩàª¸ à«įàªŁ
Ġáĥ¨áĥĶáĥ¡ áĥĲáĥĳ
áĢ®áĢ¸ áĢĢáĢŃáĢ¯
ĠÑģÐ² Ð°Ñİ
Ġà®¤ à¯Ĥ
à°Ĺ à°²
ĠÐ±ÑĥÐ» Ð¾
áĢ¬áĢ¸áĢ ĶáĢ²áĤĶ
ĠáĢĢáĢºáĢ±áĢĶ áĢ¬áĢ¹
áĢŁ áĢ°
áĥļ áĥĶáĥĳáĥĺ
ĠÑģÑĥÐ¿ ÑĢÐ°ÑĨÐ¾Ñŀ
ä¼ °
± à¹Īà¸ĩ
Ķé©° å®Ŀé©¬
Ķ à¸´à¸Ļà¸
åı ¥
åģ ı
à¸Ńà¸Ńà¸Ļà¹Ħà¸¥ à¸Ļà¹Įà¸
à¸£ à¹īà¸²à¸Ļà¸
à¤¾à¤ľ à¥Ģ
áĢģáĢºáĢŃ áĢĶáĢ¹
áĢĻáĢ» áĢ¬áĢ¸áĢĲáĢ½áĢĦáĢº
ĠÐ¼Ð°ÑĤ ÐµÑĢÐ¸
ĠÐ°Ð³ Ð°ÑĢ
Ú© Ø§ÙĨ
à« ¨
ĠàªĨàªª à«Ģ
ĠÑĨ Ð²ÐµÑĤ
Ġê° Ĳ
ĠÐ¼ Ð¸ÑĢ
ĠÐ¶Ñĭ ÑĨÑĨÑĳ
à¤¥ à¤¾
à¤°à¥įà¤ ¦
Ġà´µ à´¯
ĠÑĢÐ°Ð· Ð°Ð¼
ĠÎ±Î½ ÏĦÎ±
Ġàªª à«ģ
à®¿à®¯ à®¤à¯ģ
à´¿à´² àµģà´³àµįà´³
ĠÎµ ÏĢÏĮ
©áĥĶáĥķ áĥľ
Ð°ÑĤ ÐµÐ»
àª° àª¾
êµ °
Ġãĥ ķ
f orm
ĠÒ³ÑĥÐ´ ÑĥÐ´Ð¸
ĠÑĦ Ð°ÒĽÐ°ÑĤ
Ð¸Ð½Ð³ Ð¸
ÑĩÐ¸ ÑģÐ¸
ĠÐ£ Ð¼
Ġu 00
ÏĨ Î±Î¹
Ġ×ĳ ×¡
ĠÐ¼Ñĥ Ð»
ĠÐ¿Ð°Ð´ Ð·Ðµ
áĥļ áĥĶáĥĳáĥĲ
Ġà¤¤à¤¸ à¥ĩà¤ļ
à°¿à°¯ à±ĭ
ĠÐ¼Ñĥ Ð°ÑģÑģ
ÒĽ Ð¸ÒĽ
Ġàªľ àª®
ĠÏĢ Î»ÎŃÎ¿Î½
Ġà¤® à¥ĩà¤°
à¤ı à¤¸
ĠØ§ÙĦØ£ Ùħ
Ġáĥ¨áĥĶáĥ¡áĥĲáĥĳ áĥĲáĥĽáĥĺáĥ¡
ĠÑĪ Ð°Ñħ
ĠâĢļÂ ¤
Ñį Ð¼
Ġà¤¸ à¥įà¤ķ
ÎŃÎ½ ÏĦÏģÎ¿
ĠÑĢ Ð°Ð½
à´°àµįâĢį à´®
Ġà´ª àµģà´°
ĠÎ´ Î¿Ïħ
àªĤàª ¬
Ġáĥŀáĥł áĥĿáĥ¤
os e
ãģł ãģĳ
Ġáĥ£áĥ ĳ
Ïĥ Î¿Ïħ
Ð°ÑĪ Ð¸
ì¡ ±
Ġà°İ à°µà°°
Ï ĭ
ĠØ Ľ
ĠÐ¿ÑĢÐ¾Ð³ ÑĢÐ°Ð¼
ÑĸÐ± Ð»Ñĸ
Ġà´µà´¿à´ §
ĠÐ¿ Ð°Ð¹Ð´Ð¾
Ñį Ð»
á¿¶ Î½
ĠÎ£ÎµÏĢ ÏĦÎµ
Ġà®ļà¯Ĩà®¯ à®²
Ġà°īà°Ĥà°Ł à±ģà°Ĥà°¦à°¿
áĥĲáĥĸ áĥłáĥĵ
ÏİÎ½ ÎµÎ¹
Ð½Ð¾ÑģÑĤÑĮ Ñİ
ÏĥÎ± Î¼Îµ
Î» ÎµÏĤ
àµģà´ Ļàµįà´Ļ
ĸáĢ¼áĢħáĢº áĢŀáĢĬáĢº
Ġâ Ħ¢
Ð± ÑĥÐ´
àª°à«įàª ľ
ĠáĥĺáĥĴ áĥĺ
Ġà´µà´° àµĨ
ĠÏĩ ÏģÎµÎ¹
Ġ ãģ®
à¦¨ à¦¾à§Ł
ĠØ¹ ÙĪØ§Ùħ
ĠØŃ Ø³
ç¦ı åĪ©
Ġà¤Ńà¤¾à¤°à¤¤à¥Ģ à¤¯
Ð½Ð¸ ÑĨ
Ġà¦¦à§ĩà¦¶ à§ĩà¦°
×¨×Ĳ ×ľ
áĥĲáĥĹ áĥĺ
ĠØ¨ Ø³ÛĮ
ĠÑģÑĤ Ð°Ð»Ñĸ
Ġ×ŀ× ł
Ð°Ð»ÑĮ Ð½Ð¾Ð¹
Ġt e
à«ĩàª¤ àª¾
ÙĬ Ø¨
Ġà¤ķ à¥Į
ë° ĺ
µ àµĩà´·
ĠÙĤ ÙĪÙħ
ĠÎ± Î»
Ġb o
ĠÑĥÐ½ Ð³Ð°
Ð¼ Ð¸ÑĤ
à¤¿à¤¤ à¤¾
ĠãĤ ·
Ġà®ķà¯ģà®± à®¿à®ªà¯įà®ª
ÑĢÐ¾ Ð¿
Ġà¦ Ŀ
áĥĶáĥķ áĥ¡
Ġà´®à´¨àµģà´· àµįà´¯
à¥ Ŀ
ĠÐ°Ð³ ÑĥÐ»ÑĮ
à«Ģàª Ŀ
ĠÑįÑĤ Ð³Ð°Ð½
ĠÐ± Ð°Ð¶
Ð»Ð¾Ò³ Ñĥ
ĠÑĥÑĩ ÑĢÐ°ÑĪ
ĠÑģÑŀ Ð¼
ĠÐ´ Ð¾ÑĪÑĤ
ĠØŃ Ø¶
ĠÚĪ ÛĮ
ÎĻÎļ Îĳ
Î±Î¹ ÏģÎµ
ĠÐ½ Ð°ÑĨÑĭÑıÐ½Ð°Ð»ÑĮ
Ġà¤« à¥Ī
Ġà´¤àµĭ à´¨àµįà´¨
ĠáĢĻáĢº áĢŃáĢ³
ĠáĢ¡ áĢ±áĢĽáĢ¸áĢļáĢ°
ĠáĢ¡áĢľ áĢ¼áĢĶáĢ¹áĢ
áĢĳ áĢ¬áĢ¸áĢĲ
Ġáĥ¡áĥĲáĥŃ áĥĺáĥł
áĢ¬áĢĽ áĢ¾áĢŃ
ĠÐ²Ñĭ ÑĤ
àª ĺ
çĻ º
ÏģÎ¹ ÏĥÎ·
Ġà´ħ à´¸
ĠÐ¿ÑĢÐ°Ð´ ÑĥÐº
ĠÑĥ Ð¶Ð¾
à§įà¦¦ à§įà¦°
ÛĮ ÙĪÚº
ĠÎ±Ïģ ÎºÎµ
Ġà¤¦ à¤¿à¤ĸ
ĠÑģÑĤ Ð¾Ð¸
Ð² Ð°ÑİÑĨÑĨÐ°
áĢĨ áĢĦáĢ·áĢº
Ġagçİ¯äºļ æ¸¸æĪı
à¹ĩà¸ ¡à¸
Ġæ¬ ¢
å¥ ¶
ą ãĢĤ
éĺ¶ æ®µ
Ġáł ¤
à¤µ à¤¾à¤¦
Ø· Ø±
×ŀ× ł
ÑĬ Ð½
Ġàª² àªĸ
ĠáĥĿ áĥŀ
Ð¾Ð» Ð¾Ð´
ëĿ¼ ìĿ¸
ig n
Ġà¦¸à¦¦ à¦¸à§įà¦¯
Ġàªªàª¹ à«ĭàªĤàªļ
Ġà®ª à®´
Ġáĥ¡áĥ¬ áĥĿáĥł
Ġà´¤ àµĢ
áĢ±áĢ Ł
ĠáĢŀ áĢ¯áĢ¶áĢ¸áĢ
ë ĳĲ
à¦ª à§įà¦¤
Ġáĥ¤ áĥĲáĥ¥áĥ¢
Ķ à¸µà¸¢à¸§à¸
ĠæĻ º
Ġå¤§åıĳ åĪĨ
Ġa d
ŀà¸´à¹Ģà¸¨à¸ ©
èĤ ¥
ç¬¬ ä¸ī
åį Ģ
Ġè® ¾
æĮ ¯
åĵª äºĽ
ģà¸ ´à¸Ļ
å½ »
à¹Ĥà¸ Ħà¸£à¸ĩà¸
ªà¸³à¸Ħà¸±à¸ įà¸
Ġçº¢ é»ĳå¤§æĪĺ
å¼ Ł
à¹ģà¸Ĥ à¹ĩà¸
u k
Ġäºļæ¸¸ ç½ĳåĿĢ
é£Ł åĵģ
æ¬¢ ä¹Ĳ
Ġå· ´
ä½ Ľ
à¹Ĥà¸ Ķ
à¥ĩà¤ Ĭà¤¨
ĠÐ¿ÑĢÐ°ÑĦ ÐµÑģ
Ġà°İ à°¦
Ġà¤ķà¥įà¤· à¥ĩà¤¤à¥įà¤°
ÏĦÎ® Î¸Î·ÎºÎµ
à«įàª ŀ
ÙĪ ÙĬØ©
ĠÑģ ÑĥÑģ
ĠÎ±Î³ Î±
Ġà´¡ à´¿
áĢĲ áĢŃáĢ¯áĢĦáĢ¹áĢ
áĤĬ áĢĶáĢ¹
áĢ¬áĢ¸áĢ ģ
ÐºÑĥ Ð¿
Ġà´ħà´µ à´°àµįâĢį
àµĨà´¯ àµģà´³àµįà´³
ÎµÎ´ ÏģÎ¿ÏĤ
Ġ= >
Ġáĥĵ áĥĺ
Ð°ÑĤ Ð¾ÑĢ
ĠÎľ ÏĢÎ¿
ÑģÐº Ð¾Ð¼
Ð»Ð¸Ðº ÐºÐ°
ĠÐľÐ¸ÑĢ Ð·
ĠÐ¥ Ð°Ð»ÒĽ
Ð¿ Ð°ÑĢ
áĢĻáĢº áĢ¸áĢķ
à¯Īà®¯ à®¿à®©à¯į
Ġà°ħ à°Ĥà°Łà±ĩ
ĠÐ°Ð¼ Ð¼Ð¾
Ġáĥª áĥľáĥĿáĥĳ
à¦¤ à¦¿à¦ķ
áĢģáĢ²áĢ· áģ¿áĢķáĢ®áĢ¸
áĢĺ áģĢ
áĢĲáĢ²áĢ· áĢŀáĢ°
ĠáĢĽáĢ½áĢŃ áĢķáĢ«áĢĲáĢļáĢ¹
áĢ®áĢĴáĢ® áĢļáĢŃáĢ¯
ĠÎ³Îµ Î³Î¿Î½
ĠÐ Ī
ĠáĢĺ áĢļáĢ¹áĢľ
ĠáĢ±áĢĲáĢ¼ áĢĢáĢŃáĢ¯
ĠáĢ±áĢĢáĢº áĢ¬áĢ¹
»áĢĸáĢħáĢ¹áĢ ŀáĢ°
ĸáĢ¼ áĢĦáĢºáĢ·
ĠáĢĻ áĤĪ
ĠáĢĶ áĢ±áĢ·
ĠØ¬ Ûģ
ĠÑģ ÑĢÐ¾Ð´
à°¦ à°°
Ġè¡ ¨
Ġà¹ģà¸¥ à¹īà¸§
à¹ĩ à¸Ļà¸
à¤¿à¤ ¡
ìĦ Ŀ
à±ģà°ķ à±ģà°¨
ÑĸÑģÑĤ ÑĮ
Î½Î¿ Î¼Î±
Ġàªħàª¥ àªµàª¾
ĠáĢľáĢ¯áĢķáĢº áĢĦáĢĶáĢº
ĠÐ¼Ñı ÑģÑĨ
Ġà¦¬à§ĩà¦¶ à¦¿
à´ļ à´°
à®¿à®² à®¿à®°à¯ģà®¨à¯įà®¤à¯ģ
×ľ ×ķ
áĤĢáĢĢáĢ®áĢ¸ áĢĢ
áĢľ áĢ»áĢĢáĢº
Ġà°ªà±įà°° à°¾à°°
ÙĦ ÙĤ
ĠÐ¿Ð¾Ð¼ Ð¾Ñī
ĠÏĦ ÏģÎ±Î³
ÏĨÎŃ ÏģÎ¿Î½
áĥ£áĥ «
ìĪ ł
áĢĻáĢ¼ áĢĶáĢº
ĠÎķ Î¯
àµĩ à´ķ
ĠØŃ Ø§ÙĦ
ÏĢÎµ ÏģÎ¹
Ġwh o
ĠÐ½Ñı Ðº
Ñı Ñī
ĠÐ´ ÐµÐ½
áĢĲ áĢ²áĤķ
ĠáĢĻáĢŃ áĢĶáĢ¹áĢ¸áĢĢ
ĠáĢĸ áĢ±áĢ¬áĢºáĢķáĢ¼
ĠÐ±Ð¾ÑĪ Ð°Ð´
Ð»Ñĸ Ñĩ
Ġà¤Ń à¤°
áĥĲáĥ¦ áĥĽ
ĠÏĩÏģÏĮ Î½Î¿
ĠíĬ ¹
ĠáĢĩ áĢ°áĢľ
à°¤ à±įà°¨
ĠÑı Ð´
ĠáĢĽ áĢ¬áĢŀáĢ®
ĠÏĩÏģÎ·ÏĥÎ¹Î¼Î¿ ÏĢÎ¿Î¹
ĠÐ² Ð¸Ñģ
ãģª ãģı
à¤Ĺ à¤¾
ĠÐ¿Ð°Ð´ Ð»ÐµÑĤ
Ð°Ð² ÑıÐ·
Ġ1 88
æ¸¸æĪı ä¸ĭè½½
Ħà¸ ¸
Ġà¥ ¥
åĳ ¼
ªà¸²à¸ §
è´Ń ä¹°
çĮ «
çĭ ł
ç¯ ®
æ£Ģ æµĭ
åħ¬ å®ī
ä¿Ŀ éĻ©
à¹Ħà¸ Ĥ
ªà¸Ļ à¹ĥà¸Ī
ļà¸ Ĺà¸
Ĭ à¸Ļ
Ġæŀ Ĺ
Ġäºļæ¸¸ag ç½ĳç«Ļ
åĩ ¯åıĳ
Ġ à¸£à¸±à¸ļà¸
âĢ ķ
Ġç İ¯
å± ĭ
ä½ Ĩ
à¹ģà¸ Ī
Ġäºļæ´² å®ĺæĸ¹ç½ĳç«Ļ
Ġà¤¶ à¥įà¤°à¥Ģ
ĠU n
áĢģ áĢĶáĢ·áĢº
Ġà´± àµįà´±
à´¿à´Łàµįà´Ł à´¿à´²àµįà´²
áĥĲáĥĻ áĥĶáĥĹ
ĠÑıÐ²Ð»Ñı ÐµÑĤÑģÑı
ĠØª Ø¬
Ġà¦§ à¦°
æĸ¹ åĲĳ
ä¸į åĪ°
å®ĺç½ĳ _
åĬł å¼º
å¾ Ħ
à¹ĩà¸ ¡
åĬĽ çļĦ
æİ¨ åĬ¨
åĩ¡ åĵį
Ġæł¹ æį®
ç¨ ®
o od
é į
æł¹ æį®
3 00
à¥įà¤¯à¤¾à¤ µ
ĠÐ³ Ð°Ð²
Ġà°¸ à±Ĩ
ĲáĢ¼ áĢĶáĢ¹áĢ¸
áĢĻ áĢ²
ĠÑģÐ» ÑĥÐ¶
áĢĳ áĢ°áĢ¸áĢ
ĠÎ£ÎµÏĢÏĦÎµ Î¼Î²ÏģÎ¯Î¿Ïħ
ĠáĥĹ áĥķáĥĺáĥĹ
Ġà´² àµĨ
ĠÐ½Ð°Ð¼Ñĥ Ð´Ð°Ð½Ð¸
Ġà¦Ĩà¦ª à¦¨à¦¿
Ġà¤¬à¤¾à¤° à¥ĩ
áĢ±áĢĽ áĢ¬áĢĦáĢ¹áĢ¸
ĺ áĢ¯áĢĽ
ĠÏĢÏģÎ¿Ïĥ ÏĦÎ±
áĢŀ áĢĲáĢ¹áĢ
Ð°Ð²Ñĸ ÑĨÑĮ
áĢķ áĢŃáĢ¯áĢĦáĢºáĢ¸
Ġà°ļà°Ĥà°¦à±įà°° à°¬
Ġà°īà°¦ à±įà°¯
Ø« ÙĦ
U U
Ġà¤ª à¥ģà¤¨
ĠÎ±Î½Î¬ Î³Îº
áĥĶáĥĿáĥĳ áĥĺáĥ¡
Ð°Ð»ÑĮ Ð½Ð¸Ñħ
ĠÑģ ÑĳÐ½Ð½Ñı
ÑģÐºÐ¸ Ð¾ÑĤ
Ó¯ ÑĪ
Ġà°¨ à±Ĩà°²
ĠÏĥ ÏĢÎ¯
Ġìŀ ¬
à®ķ à¯ģ
Ð¿ÑĢ Ð°ÑĨ
Î»Î¬ Î²
ĠÐ´ ÑĸÑı
áĥĺáĥł áĥĶáĥĳáĥĲ
ĠÐĴ ÑĸÐ´
ĠÎµÏĨÎ±Ïģ Î¼Î¿
×Ļ×ł ×ķ
ĠáĢħ áĢ¬áĢ¸áĢŀ
ĠÐºÑĢ Ð°Ñģ
å®£ ä¼ł
ä¸» ä»»
à¹Ģà¸ ¡
à¹ģà¸£à¸ ĩ
i o
à¥Ģ à¤¯
ĠÐ¡ Ð²Ñı
ĠÐ·Ð½ Ð°ÑħÐ¾Ð´Ð·Ñĸ
Ġà°Ń à°¾à°µ
ĠÎ±ÏĢÎ¿ÏĦÎµ Î»ÎµÎ¯
ÑĥÐ½ ÐºÐ¸
à´¿à´ļàµįà´ļ à´¿à´°
áĢĲ áĢ¯áĢĶáĢ¹áĢ¸áĢĢ
ĠáĢĢáĢ» áĢ±áĢ¬áĢĢáĢº
Ø´ ÙĪØ¯
ĠáĥĿ áĥ¯áĥĲáĥ®
ì¦ Ŀ
Ø§Øµ ÙĦ
Ġàª¤àª°à«Ģ àªķà«ĩ
Ð´ Ð¾ÑĢÐ¸
áĢ±áĢ Ĭ
à°¾à°¯ à°Ĥ
ÐµÐ½ Ð½ÑĭÑħ
ÑĸÐ»ÑĮ ÐºÐ¸
Ġe v
àµįà´¯ àµĤ
áĥª áĥĺáĥĲ
Ø§ÙĨ ÙĬØ©
áĥĲáĥłáĥ £áĥļ
Ð° Òĵ
×ł ×¡
à®¯ à¯į
Ħà¸§ à¸£à¸
Ħà¸£ à¸Ńà¸ļà¸
å¯¹ äºİ
à¸Ńà¸Ńà¸ģà¸ ¡à¸²
Ġç¡ ®
à¥ ¨
Ĳ áĢ²áĤĶ
»áĢķ áĢ®
ĠáĢĽ áĢ±áĢ¬áĢĤáĢ«
Ġà¦¬à¦¿à¦· à§Ł
Ġëĭ ¨
Ġà¤ĺ à¥ĩà¤£
Ġà°¤ à±Ĩ
áĥĲáĥ¨ áĥĿáĥłáĥĺáĥ¡
à´Ł àµį
ĠÏĥ Îº
Ġà®¤à¯Ĩà®° à®¿à®¯
à±ĥà°· à±įà°£
Ġà°ļà±ĩà°¸ à°¿
ÑĨÑĸ Ñı
ĠáĢ¡ áĢĻáĢºáĢ¬áĢ¸áĢ
Ġáģ ¼
ĠáĢ±áĢħ áĢºáĢ¸
áĢķáĢ« áģ¿áĢķáĢ®
áĢĢáĢ» áĢĦáĢ·áĢº
Ðµ Ñĺ
ĠÐ¿ÑĢÐ¾ ÑĦ
Ð°Ð¼ Ð¼Ð°Ð´
ÐµÑĢ Ð³
áĥĿáĥļ áĥĺáĥ¡
à¤¾à¤ĩ à¤¨
»áĢĸ áĢĦáĢ·áĢ¹
áĢĦáĢºáĢ¸ áĢĢáĢŃáĢ¯
àµĢ à´²
à¯ģà®¤ à®¾à®©à¯į
Ġà¦ī à¦ł
ÏģÎ¯ Î¶ÎµÎ¹
Ð± Ð¾
à°¿à°Ł à±Ģ
ĠáĢĶ áĢ±áĢĽáĢ¬
Òļ Ð¨
ĠÐ±Ð¸Ð» Ð´Ð¸ÑĢ
Ð»Ð¸Ðº Ð»Ð°ÑĢ
Ð ĸ
Ð½Ð¾ Ð»Ð¾Ð³
ĠÐ±Ð¸ÑĢ Ð¸
ĠÐ¼Ðµ Ð´Ð¸Ò³
Ø° ÙĦÙĥ
Î¹ÎºÎ¿ Î¯
Ġà®¨ à®¿à®°
ĠØ¯ÙĨ ÛĮØ§
Ġà¦¦à§ĩà¦ĸ à¦¾
¹ àª¿àª¤
Ġáĥĺáĥ¡ áĥĺáĥľáĥĺ
ĠÐº ÑĢÑĥ
à´¿à´ķàµįà´ķ àµģà´ķà´¯àµģà´Ĥ
Ġë ¸
Î³ ÎŃÏĤ
à±ĥ à°·à±įà°Ł
ĠâĢ ¹
ĠÐ² Ð¸Ð±
Ġà¦¹ à¦ĵ
ĠáĢ¡ áģ¾áĢĢ
áĢĲáĢĽ áĢ¬áĢ¸
áĢ¡áĢŀ áĢĦáĢ¹áĢ¸
áĢĻáĢº áĢ¸áĢħ
Ġg et
Ġ ãģ¾
ªà¸¡à¸²à¸ Ĭà¸´à¸
9 4
Ġéģ ĵ
Ġå¤§åıĳ 3åĪĨå½©
åıĺ åĮĸ
éĩı çļĦ
éħ ¸
b s
Ġè§ £
Ġà¤¹à¤ľ à¤¾à¤°
Ġà®ļ à¯Ģ
Ġàªħàª® à«ĩ
ĠØ§ ÛĮÙħ
ĠÏĮÎ» ÎµÏĤ
Ġà¤¹ à¤¾à¤²
ÙĪ Ùģ
ĠÐĳ ÑĬÐ»Ð³Ð°ÑĢ
ÑĬ Ñĩ
àª¾àª·à«įàªŁ à«įàª°
áĢĴáĢ« áĢĶáĢ¹áĢ¸
áĢĢ áĢĶáĢ±
ĠÎķÏħ ÏģÏİ
ĠáĢħ áĢĢáĢ¹áĢĲ
ĠáĢĢ áĢ±áĢĲáĢ¬áĢ·
áĢŃ áĢĲ
ĠáĢħ áĢ¬áĢŀ
×Ļ×ł ×Ķ
Ðµ Ñħ
Ġëĭ ¹
Ġáģģ áģĢáģĢ
à±Ī à°Ł
ĠÎ´Îµ ÏįÏĦÎµ
åħĪ çĶŁ
åħ³ éĶ®
áĪ µ
s f
į à¸²
Ġå¸ ¸
Ġà¤µ à¤¿à¤°
Ð¾Ð½ ÑĤ
áĢ±áĢķ áĢ¸áĢķáĢ«
áĢ¬áĢ¸áĢħ áĢĽáĢ¬
Ġáĥŀ áĥĲáĥ¡áĥ£áĥ®
ĠÐ¼Ð°ÒĽÑģ Ð°Ð´
ĠÐļ Ð¸
ĠÑģÐ² Ð¾ÑĹ
ľ áĢ¬áĢ¸
áĢ½áĢº áĢ¬áĢ·
ĠáĢŀáĢ¶ áĢĥ
áĢħ áĢĦáĢº
ÑĢÑį Ð¹
Ġà®µ à®¿à®µ
ĠÐ´Ð°Ñģ Ð»ÐµÐ´
Î¸ Î¬
ĠÐĴ ÑģÐµ
Ġà¤¨ à¤¾à¤µ
ĠÎ¼Î¿Ïħ Ïĥ
ĠáĥĽáĥĶáĥ¢ áĥĺ
Ð°Ð» Ð¾Ð³
Ð¸Ð¼ Ð¾Ð²
[...]
