#version: 0.2
á ĥ
à ¦
à ¤
à ¸
à ®
Ġ Ð
Ð ¾
ã ģ
Ø §
à °
Ð µ
Ð °
Ù Ħ
Ġ Ø
Ð ¸
Ñ Ĥ
Ġ Î
à ¯
Ð ½
Ġ ×
Ġ t
Ñ Ģ
Û Į
Ñ ģ
Ġ à¤
à §
Ð¾ Ð
à ¥
Ù Ĭ
ã Ĥ
Ġ a
ã ĥ
Ø ±
Ġ à¦
Ø§ ÙĦ
Ù ħ
Î ±
áĥ Ĳ
á »
Ù Ĩ
i n
Ï Ħ
h e
Î ¿
Ġ áĥ
Î ¹
Ù Ī
à ¹
Ù ĩ
Ġ Ø§ÙĦ
à¯ į
Ð »
áĥĲ áĥ
à ±
áĥ ĺ
e r
e n
Ø ¯
Î ½
Î µ
× Ļ
Ð º
Ä ±
Ġ s
Ġ à®
a n
× ķ
Ġ o
r e
Ñ ĥ
Ġ .
à¦ ¾
Ġt he
Ġ d
Ø ª
á º
Ï ģ
Ġ ì
Ï ĥ
à¯į à®
Ñ ı
×ķ ×
Ñ ĭ
Ġ w
Ġ ,
o n
Ø ©
É Ļ
a t
Ð° Ð
Ġd e
Ø§ Ø
áĥ Ķ
áĥĶ áĥ
Ġ c
Ðµ Ð
×Ļ ×
à§ ĩ
áĥĺ áĥ
à¤ ¾
Ġ à°
à¦¾ à¦
Ï Ģ
n g
Ã ©
ã Ģ
Ï Ĥ
Ñ Į
o s
ĠÐ ¿
i t
Î ·
e s
Ï ħ
o u
c h
o r
Ġ p
Ġ f
Ù ģ
i s
Ġ b
Ġa n
Ñģ ÑĤ
ĠØ ¨
in g
Ú ©
ĠØ§ÙĦ Ø
Ġ l
à§ į
à§į à¦
a s
Ġ ãĢ
a r
à¯ ģ
Ð ²
à¥ ĩ
e d
ĠÐ ²
Ù Ĥ
Ġ m
Ġ Ùħ
Ù ĥ
Ġt o
à® ¿
a l
Ñ ĩ
à¦ ¿
Î »
áĥ Ŀ
à¤ °
Ã Ń
Ġ ÏĦ
Ðµ Ð½
Ġ Ñģ
Ġan d
Ø§ ÙĨ
Î º
Ġ in
à¸ ²
ä ¸
Ġ ë
Ø ¨
à®¿ à®
à± į
Î ¯
Ø ¹
i e
Ġo f
Ġ ÙĪ
Ġ Ä
Ø§ ÛĮ
à¸ Ļ
Î ¼
Ð ¼
ĠÐ ½
Ġ ï
Ð¾Ð ²
ĠØ ¯
ì Ŀ
Ġ å
à¦ °
áĥĿ áĥ
c i
ĠÐ ¸
à¸ £
× Ķ
à¥ į
ĠÄ ĳ
Ø ³
Ð ´
Ï Į
Ã ¼
× ¨
Ġà¤ ķ
Î ¬
à¤¾ à¤
à±į à°
Ã ł
Ġ h
o m
Î¿ Ïħ
ĠÐ ¾
Ã ¡
à° ¿
à¯ģ à®
i on
a d
Ñ ħ
ãģ ®
Ġ× Ķ
× ľ
à¥ Ģ
n h
Ø§ Ø±
à¤ ¿
Ġt h
ĠÐ º
à¸ Ń
i c
à¦¿ à¦
Ġï ¼
Ġ e
à° ¾
l e
Ø ´
Ġ Ø§Ø
Å Ł
Ðµ ÑĢ
à® ¾
u e
à± ģ
en t
Ð° Ð½
Ġ æ
Ġ Ú©
ŀ ×
Ðµ ÑĤ
Å Ĥ
Ú ¯
Ġ v
à¹ Ģ
à¥į à¤
à¹ Ī
ĠÐ ´
à®¾ à®
Ġ y
à¤ Ĥ
Ġ à¸
à¸² à¸
Ġ ÏĢ
i l
Ð ¿
Ġ S
Ð¾ ÑĢ
à§ĩ à¦
ãģ Ħ
Ġ T
Ġ re
Ð° ÑĤ
£ áĥ
Ġd i
Ï ī
ĠÎ º
Ġ I
Æ °
u n
áĥĺáĥ ¡
à¤¿ à¤
à°¾ à°
áĥĶáĥ ĳ
Ġ Ïĥ
Ð¾Ð »
Î Ń
Ø Ń
ä º
à¸£ à¸
à¹Ģ à¸
ĠÐ¿ ÑĢ
× ª
Ġ n
ĠØ ª
ĠãĢ ģ
ĠÎ ±
o w
Ã ³
Ġ ê
Ġl a
Ġ ÙĦ
Ġ Ùģ
Ð¾Ð ¼
an g
Ñ İ
u s
Ð¸ ÑĤ
Ġ en
Ð½ Ñĭ
Ġy ou
ãĥ ¼
v e
Ð¾Ð ´
Î ³
Î ®
Ġ z
í ķ
ĠÐ ¼
ĠØ £
Ðµ Ð»
Ġ g
Ġ×Ķ ×
Î± Î¹
c t
à¹ ī
Ġï¼ Į
Ð ±
q ue
ĠØ ¹
Ð° Ð»
à¥ ĭ
Ñ Ĩ
Ġ ÑĤ
Ñ Ī
r o
à¸Ļ à¸
¿ ½
à°¿ à°
t e
ãĢ Ĳ
ãģ §
Ø§ Øª
Ù ī
Ä Ľ
Ġ ÑĢ
â Ģ
Ä± n
ł áĥ
Ġ× ľ
Ð ·
à¸Ń à¸
ĳ ãĢĲ
Ġb e
Ð½ Ð¾
Ø ²
Ï ĩ
l y
Ġ× ĳ
Ã £
Ø ¬
Ä Ļ
i j
à¯įà® ķ
Ã §
ĠØ§ÙĦ Ùħ
ÙĬ Ø©
Ġ is
ĠÎ µ
ģ à¸
ãģ Ĺ
i ch
Ġ k
Ġ âĢ
Ġ es
i d
i r
Ä Ł
ãģ «
Ġc h
Ã£ o
Ĥ à°
ĠØ ±
Ġ ÙĨ
Ġ C
å ı
Ð¾Ð ³
Ġ A
Ġf or
Î¹ Îº
Ġ× Ĳ
à¦ ¨
Ġ que
à ´
Ġ Ã
à® °
ĠØ¯ Ø±
i á»
ĠÎ ¼
l l
Ä ħ
× ĳ
Ġ -
à¤ ¨
ãģ ¦
ĠØ ³
× Ĳ
Ġo n
Ġáĥ Ľ
e t
Ġ Ùĩ
a h
Ð ¹
Ġ ãĥ
ĠãĢ ĳãĢĲ
Ġ Â
Ñģ Ðº
à¯ Ī
a k
Ġ ç
u r
Ï į
Ð ³
u t
ãģ ¨
áĥ ķ
ĠØ ´
Ù ¾
un d
ãģ ª
ë ĭ
Ð¾ ÑĤ
ì ŀ
Ġe l
ĠØ Į
å ®
×ķ× ª
à® ¤
o t
Ġà¤ ¸
Î ´
×Ļ× Ŀ
à¯įà® ¤
Îµ Î¹
ĠãĢ Ĥ
Ð¸ Ñı
Ð¾Ð ¹
Ġ× ©
a m
ĠÐ ±
Ġ B
Ġ D
Ġ E
Ø§ Ùħ
e l
Å ¼
a y
ãģ Ł
Ġt r
ļ Ħ
ãģ Ļ
áĥ £áĥ
à¦¾à¦ °
ãĥ ³
Å Ļ
ãģ Į
Ġ nh
Æ° á»
à§ ģ
ãĤ ĭ
c e
ÐµÐ ¼
Ġ '
z y
ĠÐ½ Ð°
Ġ P
Ã³ n
ĩ à¸
Ġc on
Ø ·
à±ģ à°
i m
Ġà¤ ¹
à¤ ķ
u ng
o l
i g
ãģ ¯
ç ļĦ
it h
× ©
Ð° Ðº
à§ Ł
Ð¾ Ð½
× ł
Î¹ Î±
Ã ¤
Ġ ÙĬ
æ ľ
Ð¸ Ð½
Ø µ
Ï Ĩ
áº ¡
ÐµÐ ´
Ġ 1
at ion
Ħ à¸
ĠÙģ ÙĬ
áº ¿
ĠÙħ ÙĨ
Ð° ÑĢ
ĠÐ ·
Ġà¦ ķ
âĢ Į
ĠØ¨ Ùĩ
Ġth at
Ġ un
Ã ´
Î ¸
ÙĨ Ø¯
Ġ ãĤ
er s
Ġw ith
t o
Å ¾
ì Ĺ
Ġáĥ ¡
ãģ ¾
Ġ M
å ħ
l ar
Ġ× ŀ×
áĥĲáĥ ľ
Ġà¤ ®
ĠØ ¢
e m
Ġ und
Ġà¦ ¸
Ġ Ñĥ
Ġ í
Ñ Ħ
ou r
Ġe t
Ñ ī
Ġ 2
à® ©
à¸ µ
å ¤
ĠÏĦ Î·
Ġáĥ ĵ
Ġà¦ ¬
à¤ ¤
Ï İ
ÏĦ Î±
Å Ľ
± à¸
Ð°Ð ²
Ã ¥
Ã ª
a ci
ĠØ ®
ĠâĢ Ļ
ãĤ Ĵ
Ð°Ð ¼
ÙĬ ÙĨ
o v
Ð¸ Ðµ
áĥ ¡
n ÃŃ
Ð°Ð ·
ÉĻ r
Ø§ Ø¯
ÙĪ Ø¯
Ã ½
Ġ è
áĥ ł
Ġ Ãł
Ġ áĥĲáĥ
ÙĪ Ø±
à¦ ²
ä »
à® Ł
® à¯į
Ġs t
q u
ĠT he
c he
Ġl e
× ĵ
Ġk h
áº £
Ġ it
Ġ j
à¦ ķ
i a
Ġ Ù¾
k an
Ġ L
c z
ìĿ ´
Ġe in
Ñģ Ñı
Ġà¤ ª
Ïģ Î¿
Ġ W
Ä į
Ġà¦ ª
Ġs e
Ð ¶
Ð» Ð¸
ä ¹
ĠÐ ³
å Ī
z ion
Ġc om
Ġ :
× ¢
ÏĦ Î¿
ĠÎ ´
Ġà® ª
Ġd er
Ġ he
Ġ Ø§ÛĮ
× Ĺ
Å ¡
à¥ Ī
Ø ®
Õ ¡
en g
Ġ F
à§ĩ à¦°
Ø ¶
Ð¾ Ñģ
i o
t er
ç ½
Ġ× ķ
ĠÎº Î±Î¹
ÛĮ Ø¯
Ġ ng
Ġ K
à® ³
Ġd ie
ï ¿½
Ð¸ Ðº
t en
à§ ĭ
Ġa s
á» Ļ
ãģ ĭ
Ġ Ñĩ
Ġp ro
à¦ ¤
à¤ ¸
u m
Ġ G
ĠØ§Ø ²
à° ¨
t i
il l
Ð¸ Ð¼
ĠÐ Ł
ĠØ§Ø ³
ÑģÑĤ Ð²
ÛĮ ÙĨ
Ïģ Î±
ÙĦ Ùī
à¹Ī à¸
t a
Ð¾Ð ±
ìŀ ¥
Ù İ
áĥ ļ
Ġa re
l er
à¥ ģ
ãģ £
Ġv an
Ġáĥ Ĵ
Ġw h
à¸ ´
áº ¥
à¤ ¹
ÏĦ Î·
à¦ ¬
ëĭ ¤
Ġp h
Ġ i
Ġ r
Ġà® ķ
ç½ ĳ
Ġ Ùĥ
ĠÐ ¡
à° Ĥà°
ê ³
Ð¾Ð³ Ð¾
ÏĦ Îµ
ĠØ¨ Ø±
ar a
Ø³ Øª
à§įà¦ °
ì §
à± ĩ
ãĥ¼ ãĥ
à¯įà® ª
Ġo r
ĠÐ Ĵ
Ã ¶
× §
à¥ ¤
à¦ ®
à¤ ²
Ġ é
ë Ĭ
Ġp r
ķ à¯įà®ķ
o or
Ġp er
ãĤ Ĭ
ä ½
Ġ à¥¤
Ã ¸
à° °
Ã ¢
Ġï ¿½
ÏĢ Î¿
á» ĳ
Ð» Ñı
à® ²
ÐµÐ ¹
Ïĥ Î·
e k
à± ĭ
Ð° Ñı
ĠØ ¥
ĠÙħ ÛĮ
ì Ħ
Ñ į
¡ à¸
× ¤
ĠÐ °
Ġw e
Ã§ Ã£o
ÙĬ Ø±
Ð¸ Ð¸
Ġ H
v er
re s
æ ĸ
ãĤ ¹
× ŀ×
ãĤ Ĥ
Ïī Î½
ĠÏĦ Î¿
ĠØ§ÙĦ Øª
o d
Ġde s
Ã ¨
u k
iá» ĩ
Ø§ Ùĩ
Î¯ Î±
áĥĶáĥ ļ
ĠÏĦ Î¿Ïħ
Ġp or
Ðµ Ðº
à§įà¦ ¯
u f
Ġd o
à¯Ī à®
Ġl os
Ġ ãģ
ê °
áĥĲáĥ Ľ
Ġn a
Ø °
ëĬ Ķ
Î¼ Î±
Ġ |
Õ¡ Õ
Ġ Õ
Ġy ang
Ġl es
äº ļ
Ġ× ¢
¶ ľ
× ŀ
i ÄĻ
ì ł
Ð¾ ÑģÑĤ
Ð°ÑĤ ÑĮ
ad o
à¯įà® Ł
ĠÎ ½
Ð° Ñģ
Ø £
ll a
Ġ Ú¯
å ľ
× Ľ
Ġà¦ Ĩ
Ä ĩ
Ġh a
× Ŀ
æ Ĺ
Ġà® µ
p p
¥ à¸
i k
ĠØ ¬
z e
ì ķ
ÙĪ ÙĦ
å ½
ãģ Ĩ
Ð¾Ð º
ãĥ ĥ
a g
ĠÙĪ Ø§ÙĦ
ĠØ§Ø³ Øª
at e
Ġv e
áĥ ĵ
u l
ãĤ Į
Î½ Î±
Ġ Û
Ð¾Ð ¶
æ Ī
ĠÐ ļ
Ġì Ŀ
Ã ¬
Ġ il
ĠÐ »
ĠØ Ń
à¥ĩ à¤Ĥ
å Ľ
Ð¸ Ð»
Ġyou r
Ãª n
à ¨
Ġf r
à¦¾à¦ ¨
y a
ĠÎ ¿
ãĤ ¤
d o
ĠÐ¾ ÑĤ
à§ Ģ
ãĤ ī
Ġe en
à¤ ®
l d
an t
Ø± Ø¯
à¹ Ħà¸
es s
Ġe m
Ġa t
Ġà® ®
ÑĤ Ð¾
Ïģ Î¹
ĠÐ½ Ðµ
at o
Ġo g
Ġà¦ ®
Ùĩ Ø§
ĠÎ ³
¶ľ ìŀ¥
he r
Ð¸ Ð¹
à¹ ģà¸
Ø «
à¥į à¤°
c k
å ¹
à¤¾ à¤°
à¯ ĩ
ÙĪ ÙĨ
áĥ Ľ
Ġe x
Ġà¤ ¬
es t
Ġde l
Ġà¦ ı
Ø§Ø ²
Ġà¤¹ à¥Ī
Ã´ ng
ÑĢ Ñĥ
Ġà® ħ
Ġ Ã©
Ġ× Ľ
Ġ R
Ð¸ Ð²
ë §
à° ²
Ġ Ñį
ĠØ§ÙĦØ £
Ġà¤ķ à¥ĩ
Ġ â
áĥ ľ
i y
Ġ N
å Ĳ
Æ ¡
å Ĭ
Ġn e
ãĥ Ī
Ġc he
áĥ ¢
zion e
ª à¸
i z
áĥĲáĥ ĵ
Ġ (
Î ²
Ġ um
à µ
ig h
Ú Ĩ
ì§ Ģ
Å ¯
Î ĳ
ĠÐ¾ Ð±
ìĹ Ĳ
ĠÄĳ á»
Ġ Ø§
Ø± ÛĮ
ÐµÐ» ÑĮ
ÙĦ ÙĬ
Ġà® ¤
Ø§Ø ¨
à¹ī à¸
ou s
å į
b le
Ġ V
Ã³ w
Ġs a
Ġp ara
×ķ× ¨
Ġ ä¸
Ġ ÙĤ
h r
¢ à¸
Ø§Ø ¡
Ðµ Ñģ
Ġhe t
áº Ń
Ġà® ļ
an d
íķ ĺ
Ġ )
ĠØ§ÙĦØ ¹
Ġ ÑģÑĤ
à® µ
Ġv á»
á» §
ĠØ§ÛĮ ÙĨ
a p
Ä± r
áĥĲáĥ łáĥ
Ð¸ Ñĩ
ç Ķ
ĠÎ ĳ
Ġà¦ ¨
Ġà¤ ľ
a ar
Ĥ ¬
Ġà¤ ¨
Ġ× Ļ
ç ī
× ĺ
aci Ã³n
ou n
b er
æ ĺ
Ġv Ãł
it y
à¯ģà® ®à¯į
a re
Ã¼ r
Ġáĥ ł
ë ¡
à®¿à® ²
ĠÎ¼ Îµ
i ve
§ à¸
ÉĻ n
à¦ ¸
s t
o re
ĠØ¨ Ø§
a ÅŁ
Ġd a
Ġa l
Ð°Ð ´
ĠÚ© Ùĩ
Ġà¦ ¹
áĥĶáĥ ľ
t h
ï ¼
ìĿ ĺ
ÐµÐ ²
Ġ qu
ì ĭ
ãĤ ĵ
áĥĲáĥ ķ
Î½ Î¿
Ø± ÙĬ
áĥĲáĥ ¡
Ġha ve
à¹ Į
à± Ģ
à¤ Ĺ
Ã ±
Ġì ŀ
Ġc an
g o
à®¿à® ¯
ent e
è ¿
ìĿ Ħ
Ġp our
ÏĦ Î¹Îº
ê ¸
× ¡
Ġd an
ļ áĥĺ
ich t
à¸´ à¸
ãģ ı
Ġà® ĩ
m ent
Ð¾Ð» ÑĮ
áº §
à¤ ª
is t
Ġáĥ ĺ
Ġa g
Ġw as
Ķ à¸
Ġs u
Ġ us
× Ĵ
à¹ ĥ
Ġ O
i v
´ ë
Ġl as
Ġb ir
Ġth is
ĠÎ½ Î±
ĠÐ¿ Ð¾
à° ķ
Ġ× ŀ
Ġfr om
n e
Ġà° ª
o p
ĠØ¹ ÙĦÙī
ĠÎ ķ
ÐµÐ ³
ĠÐ Ŀ
Ġp ar
Ð¸ ÑĢ
ãĥ «
ĠÐ ł
d e
Ġ 0
ĠÐ ľ
Ġa d
æ ¸
ĠÎ ł
äº º
Ġes t
à¯ Ĩ
Ġs h
Î ¾
Î Ł
y ch
ÐµÐ½ Ð¸Ñı
Ø§Ø ³
i er
Î¼ Îµ
Ġ2 0
Î Ļ
Ġ ÛĮ
l Ä±
us t
u x
Ġ "
æ ī
Ġà¦ ¦
Ĺ à¸
e it
w w
ÙĦ ÛĮ
Ġáĥ ¨
ĠÎ Ń
Ð¸ÑĤ ÑĮ
Ġà¤ ħ
a w
Ð¸ Ð·
Ġ x
Ġà¤ ¦
ĠÐ ŀ
Ġd u
al e
Ġb y
å °
è ®
å½ ©
Ð¾Ð ·
ï¿½ ï¿½
Ġm en
Ð°Ð» ÑĮ
i áº¿
ĠØ± Ø§
Ã© s
¨ à¯įà®¤
Ġw ww
a c
áĥĲáĥ ł
åı ĳ
Ġl Ãł
Ã¡ c
Ġw ill
ĠÐ² Ñĭ
ļ à¸
ÏĢ ÏĮ
ì Ĭ
Ø§Ø ¦
ì ¶ľìŀ¥
Ðº Ð¸
Ðº Ð°
Ġà¤ µ
Î» Î¿
Ġ à§
or t
áĥ ®
Ã¼ n
ÛĮ Ø±
Ġà¤ ²
ä ¼
áĥĿáĥ Ľ
Ù Ģ
ÛĮ Ùħ
Ð°Ð ±
ÏĦ Î¹
Ġo p
íķ ľ
Ġì ł
Ġà® ¨
Ġn ot
Ġáĥĵ áĥĲ
ãģ į
ç »
Ð½Ñĭ Ðµ
à§įà¦ ¤
ĠÎº Î±
Ġw y
Ġ à¹Ģà¸
×Ļ× ª
åĪ Ĩ
à¥įà¤ ¯
è ½
ĠÙĦ ÙĦ
Æ°á» Ŀ
ĠÏĦÎ· ÏĤ
Ø§Ø ¹
n ie
r a
ãĤ ¯
Ġà¤® à¥ĩà¤Ĥ
Ø º
é Ĺ
ĠÐ µ
à± Ĩ
Ø§Ø ´
om e
° à¸
ì ļ
Ġth á»
Ö Ģ
i es
Ġà° ķ
ãĥ ©
Ġ /
ª à¯įà®ª
m e
Ġ Ã§
Ġd as
d er
Ġà¤ °
d a
æ¸ ¸
ë ı
Ð½Ñĭ Ñħ
ë¡ ľ
igh t
ê³ ł
Îµ Î¯
Ġt á»
å ·
s e
ĠØ ²
å ¸
Ľ i
ÃŃ a
à¥ Ĥ
Ġà¦ķ à¦°
che n
à±įà° °
p e
è ¯
Îµ ÏĤ
Ġun a
Ð¾Ð ¿
Ġà¦ ¤
ä¸ Ģ
ĠÃ ¨
ÙĬ Ø¯
à® £
Ð¸ Ñħ
Ð°Ð ¹
ÐµÐ ·
d z
ĠØ§ÙĦØ ³
à¤ ¦
æ Ŀ
à¹ Ĥ
ãģ ĵ
à°¾à° °
Ġáĥ¡ áĥĲáĥ
à® ®
Ġun e
ĠÎ £
ãģ¾ ãģĻ
k a
Ġw or
áº¥ t
ĠÎ ļ
Ġp ÅĻ
Î¿ Ïį
Ð½Ñĭ Ð¹
×ķ× ľ
à¦ ¦
ar d
Ġm it
à® ±
ãĥ ª
Æ°á» £
l i
a is
à¯įà® ±
a Ã§Ã£o
u y
Ĺ à¸µ
áĥĺáĥ Ĺ
Ġg e
ĠÏĦÎ· Î½
u p
ĠØ£ ÙĨ
ÑĢ Ð°
Ð¸ Ñģ
ê° Ģ
Ġà° µ
u ch
áº¡ i
Î £
Ġà® İ
ê ²
Ġz u
à±ĩ à°
ãģĹ ãģ¦
Ð½ Ð¾Ð¹
al l
Ä ĥ
å ¼
ë ¦
z a
Ġv on
à¯ ĭ
Ġ×© ×ľ
Î ¶
ĠÐ Ĳ
è µ
ãģ ķ
áĥĿáĥ ĳ
Ġáĥ Ļ
ĠÐ Ķ
Ã© r
k i
i en
s ch
à¤¾à¤ ¨
Ïİ Î½
× ¦
Ġg i
à¤ µ
Ġn ie
Î± Î½
Ġb er
b en
Ġ× ł
Ġn o
i re
æ Ĭ
o k
Ġp l
f f
Ġ ÑĦ
Ġà¦ ħ
ĠÎ ¤
Ġd en
u re
Ġv oor
Ø± ÙĪ
Ä± m
Ġê °
Ġl o
Ġa ll
ãģ£ ãģ¦
Ġo l
ì ĥ
áĥĲáĥ ļ
d en
Ġm em
ou ld
Î¯ Î½
Ð° ÐµÑĤ
Ùĩ Ø§ÛĮ
ĠI n
ou t
Ġc á»§
al ly
Ġ 3
y m
a in
áĥ Ĺ
à§ĩà¦ ¨
Ġc Ã³
Ī ëĭ¤
ìĿ ¼
Ã º
Ġ er
Ð½Ð¾ ÑģÑĤ
Ġcá»§ a
¸ à¸
å® ĺ
à¦ ª
ãģ Ĥ
à¦ Ł
ë ¥
i ci
Ġ Ø§ÙĨ
os t
ij k
ĠÐ¸ Ð·
ĠÄ Ĳ
ãģ§ ãģĻ
Ġáĥ Ĺ
Ġà° ®
Î ķ
Õ ¸
Ġ× Ĺ
à¥ĭ à¤Ĥ
Ġà° ħ
à¯įà®ķ à®³
ì ľ
on g
Ġ U
a b
ĠT h
ÐµÐ½ ÑĤ
Ġs ur
l ÉĻr
Ġà¦ ľ
Ð½ Ð¾Ð³Ð¾
å Ń
Ù ĳ
Ġë °
Ġt e
ÐµÐ½ Ð¸Ðµ
ĠØ§ÙĦØ Ń
id ad
ê¸ °
ar i
Ġ ÏĮ
Ùģ Øª
áĥĶáĥ ¡
áĥ łáĥ
Ġh á»
Ġì ķ
g h
ÙĬ ÙĦ
ĠÎ³ Î¹Î±
Ġs iÄĻ
ĠÎ ľ
ãģ ł
å ¿
n o
ĠÐ´ Ð»Ñı
Ġt il
×Ļ× ¨
Ñĥ ÑĤ
Ġà¤ķ à¥Ģ
Ġd Ã©
Ġà¤ Ĩ
¨ áĥĺ
áĥĺáĥ ľ
ìĦ ľ
in e
Ù ĭ
a i
Ġà° ¸
Ġ Y
ģ à¸²
ad a
ÙĪ Ùħ
Ã¡ s
Ð°Ð ¶
ì Ľ
id e
æ ³
Ġis t
æĺ ¯
å Ĩ
Į Ģ
à¸µ à¸
Ñĥ Ð´
Ġs o
Î» Î»
ĠÎ± ÏĢÏĮ
Ī à¸
é Ģ
Ġ ÚĨ
Ñİ ÑĤ
Ġáĥ Ķ
İ ¯
u d
ãģĹ ãģŁ
Ġf Ã¼r
ê µ
à®¿à® °
ì ĸ
ĠÙĩ Ùħ
à®¤ à¯įà®¤
Ġj e
Øª Ø±
a z
Ġcom p
é ĩ
ç «
ĠØ± ÙĪ
Ġ Z
ĠÎ ·
ë Ĥ
ĠÎ ¸
Ġ !
Ġa uf
Ġ Ïĩ
i f
áĥĶáĥ ł
ĠÐ ¢
ic e
å¤ §
Ġa b
å º
Ġãĥ »
à® ®à¯į
Ġ u
Ø¯ Ùĩ
à®¿à®² à¯į
Ã Ł
ì Ĥ¬
ÑĨ Ð¸
ç Ľ
Ġa v
j Äħ
Ð¾ Ñĩ
ä¸ ĭ
Ø§ Ùģ
n ya
Ð° ÑģÑĤ
à¥ĩ à¤
ĠÐ ¶
ÏĦ Î¬
Ġ J
æĹ ¶
á» ĭ
ì ²
Ġå ¤
Ù Ĳ
à® ķ
ĠÄ °
Ïģ Î¬
Ġv er
ãģ ĳ
n a
Ø ¸
áĥĶáĥĳ áĥĺáĥ¡
Ġp o
ĠÂ »
à®¤ à¯ģ
à¯ Ĭ
× Ł
á Ģ
à¹ĥ à¸
à¤¿à¤ ¯
Ã¬ nh
. .
à¦¿à¦ ķ
İ¯ äºļ
áº ¯
on t
ÉĻ t
à®¿à® ©
an o
ct ion
Ð¸ Ð´
à®¾à® °
àµ į
on es
« à¸
×ķ× ĵ
ë ĵ
Ø§Ø± ÛĮ
à¤° à¥įà¤
Ġh as
ĠÏĥ Ïħ
Ġw he
n ÄĽ
ìĿ Ģ
£ ¼
à° Ĥ
à¤ ¯
å İ
åľ ¨
ãĥ³ ãĥ
ĠÏĢ Î¿Ïħ
Ùĩ Ùħ
ic a
ĠØ¨ Ø§ÙĦ
Ġáĥ ŀ
h o
ĠÙĩ Ø§ÛĮ
ãĤ ¢
ou gh
à¸£à¸ µ
Î¹ Ïĥ
Ðµ ÑģÑĤ
Ä± ÅŁ
Ġ× ª
i ÅŁ
on o
e ar
Õ ¥
Ã© e
åĽ ½
ĠÃ ¥
Ġt er
Ġà¤ķ à¥ĭ
ĠÐ ĺ
Ã¢ n
i h
áĥĲáĥ ª
Ġdan s
ĠÃ ¶
k e
Ð¸ ÑģÑĤ
ÎŃ ÏĤ
×ķ× Ł
ãĥ³ ãĤ
k y
Ġp Ã¥
Ðµ ÑģÐº
ìĬ ¤
Ġ20 1
Ä± k
ĠÑĩ ÑĤÐ¾
Ïģ Î¯
Ù ı
ÉĻ s
Ä °
em ent
à¦¾à¦ ²
Ġ up
×ķ× ĳ
Ġê ²
à¯Īà® ¯
t uk
g e
å ±
Ñĥ Ñİ
Ġ im
Ā Ā
Ġ q
Ġì Ĺ
Ġ× ¨
å Į
ĠÐ¿ Ð¾Ð´
ak e
t her
ãĤ Ī
ë§ Ī
g en
Ġm e
å® ¶
ĠÎ Ķ
ŀ à¸
ĠØ µ
Ø§ ÙĤ
Ġk e
Ġb ut
iá» ģ
Õ ¶
×Ļ× ł
à¤¨ à¥ĩ
ìĿ ¸
à¹Ĥ à¸
Ġa u
×ķ× ł
Ġà¤ ¤
ÏĦ Î±Î¹
à¯ģà® ķà¯įà®ķ
Ä± l
Ñı ÑĤ
ĠS ch
á» ¯
Ñĥ ÑĢ
l ich
Ġo ut
äº Ĩ
ä¹ Ĳ
à® ¯
Ã ²
ķ à¸
á» ±
Ġm et
Ð°Ð ¿
j e
i ent
è ¡
Ŀ ¼
Ġà¦ª à§įà¦°
Ġa ng
Ġï¼ ļ
Ġ ?
Ðµ Ñĩ
Ġà¤¸ à¥ĩ
Ø§Ø Ń
Ġde lla
à±įà° ¨
ĠÑĢ Ð°Ð·
eng an
ij n
Ø± Ø§ÙĨ
ãĥ¼ ãĤ
Ġo ur
Ī ĺ
Î¹ Î¿
ĠÂ «
Å¼ e
Ġg o
ÎŁ Î
áĥĺáĥ ļ
×Ļ× Ķ
à¯ģà® ¤
áĥĶáĥĳ áĥĲ
é Ļ
è §
à¦¿à¦ ¨
Ð¾Ð² Ð°Ð½
Ġ× ¤
ĠØ§ÙĦØ ¬
Ġì ĺ
à° ®
Ä± z
ĠØ§ÙĦØ ¨
al es
Ùħ Ø§
Ġp as
ë¦ ¬
Øª ÛĮ
ĠØ§ÙĦ ÙĤ
d ÉĻ
a ck
ĠÏĢ ÏģÎ¿
Ġà¤ Ĺ
it e
à¦ Ĺ
Ñĥ Ñĩ
å ¥
ãĥ ¬
ÅĽ ci
ĠÐ ĳ
Ġà¦ °
Ð½ Ð¸Ðº
Îµ Î½
a ÅĤ
he n
Æ°á»£ c
ĠÎµ ÏĢ
Ġc u
Ġ×Ĳ ×ª
in d
at a
Ġà° ļ
at ed
ëı Ħ
s o
ç º
Ġà¤ķ à¤°
Ø± Ø¨
ĠÑģ Ð²
ĠS t
Ð°Ð ³
Ïģ ÏĮ
à¦¾à¦ ®
Î® ÏĤ
à° ¤
ì ĺ
Ġ 5
Å Ħ
Ġm eng
on e
ĠÙħ Ø¹
g a
à¤ ¬
Ġthe ir
ĠÐ± Ñĭ
Ġm ore
æĹ ¥
Ġë §
ĠÏĥ ÏĦÎ¿
ä¸ Ń
an do
å ¾
oun d
Ġg r
ÙĨ Ø§
Ã µ
al i
å¹ ³
ÙĪ Ø§ÙĨ
æľ º
Ð½ Ð°Ñı
c c
Ġ 4
× ĸ
ë ħ
Õ «
Ġde t
æľ ī
ĠÐ¿ÑĢ Ð¾
Ġå¤ §
è ´
er e
Î Ĺ
ĠD e
Ġà¤ ī
im e
ÐµÐ ±
en ÃŃ
Ġ Ñħ
Ø³ ÛĮ
Î¿Ïħ Î½
a ch
Ġ Ø§Ùħ
ÙĪ ÛĮ
å ĩ
à°¾à° ²
ãģ Ĭ
Ġà¤ Ń
Ġà¦ ¶
à¦° à§įà¦
Ïģ Î³
á» ¥
ag e
áĥ Ĵ
áĥĶáĥ Ľ
ê ±
Î¼ Î¿
á» ©
Ġun tuk
ent o
ÙĦ Ùĥ
ĠÐ² Ñģ
ç ¥
Ïĥ ÎµÎ¹
Ãµ es
Ġa r
ĠØ§ÙĦ ÙĨ
ìĭ ľ
ĠÐ¿ ÐµÑĢ
Ġà° ¨
ĠØ§ÙĦØ ´
Ġáĥ ¬
à®Ł à¯įà®Ł
Ġthe y
t s
ĠE n
Ġd engan
à®¾à® ©
ĠØ¢ ÙĨ
à ¶
in h
à°¿à° Ĥà°
ow an
p er
×Ļ× ľ
áĥĿáĥ ¡
ç İ
à±įà° ¯
à® Ļ
è ¨
Ø§Ø ¬
Ġì ĭ
Ġi Ã§
p l
Ġc Ã¡c
Îĳ Î
Ġn on
Ġre s
Ġum a
á»Ļ t
ä ¿
áĥĶáĥĳ áĥĺ
à¤ ľ
Ùĩ âĢĮ
Ġon e
åı °
ĠÏĦ Î±
ic o
ÑĢ Ð°Ð½
ãģª ãģĦ
Ġà¤ ĩ
ĠØ¨Ø± Ø§ÛĮ
b re
as i
Ġ× §
ow e
ĠÐŁ ÑĢ
Ð¸Ñĩ ÐµÑģÐº
Ġo d
Ġin i
Ġch o
Ġs om
Ġm y
Ġkh Ã´ng
à¦¾ à§Ł
ĠØ§ÙĦØ ¥
Ġáĥ £áĥ
ë °
ĠÎ ²
è½ ½
Ġà¦ ¯
ãģ£ ãģŁ
or m
à¤ ¡
it Ãł
Ð½ Ð°
áĥĿáĥ ľ
n en
ak an
Ġqu i
Ãł y
ìķ Ī
± Û
í Ĭ
Ġì Ħ
à¦ ¼
i que
Ð½Ñĭ Ð¼
ĠØ§ÙĦ Ø¯
i p
at i
ĠÏĥ ÏĦÎ·
è ¦
à® ¨à¯įà®¤
à¦¿à¦ ¤
Ð ŀ
ë¥ ¼
Î» Î·
à¦¿ à§Ł
o g
b e
ci a
ì ¹
Ù Ĵ
Ġ ÏĨ
á» Ł
ĠE l
íķ ´
à¤ Ł
à¹Ī à¸²à¸
à° µ
ĠÐ ĵ
Ðµ ÑģÑĤÐ²
á ŀ
ç ľ
Ð¿ ÑĢ
ÙĬ Ùħ
Ġm ed
Ġwor k
Ġê ³
Ġn icht
d u
an s
à¸Ńà¸ ĩà¸
0 0
Ã ¹
ï¼ Į
ĠÑĤ Ð°Ðº
ä¸ į
à¦ ¹
áº ·
ĠÐ¿ Ð¾Ð»
áĥ£áĥ ł
ĠW e
ĠÄĳ Æ°á»£c
a u
ä¸ĭ è½½
Ġo s
Ġs i
ÐµÐ ¿
Ġs ch
ĠÏĢ Î±
Ùħ Ø§ÙĨ
Ñĭ Ðµ
à° ¸
id o
Ġå¤§ åıĳ
Î± ÏĤ
à¦¾à¦ ķ
ĠÎ Ł
à ·
Ð½ Ð¸
æ °
ar t
Ġm an
ë ³
ik e
Î¼ ÎŃ
Ġ×ľ ×Ķ
äºļ æ¸¸
éĹ ¨
ĠÚ© ÙĨ
ion s
Ġ× Ĵ
Ġ ro
ÑĨ Ð¸Ð¸
ig n
à¹ ĩ
i Ãªn
Ġf e
Ö Ĥ
ĠÄ į
ç Ļ
an ce
à° Ł
Ø ¦
å Ŀ
Î½ Î·
ĠÏĥ Îµ
è Ĥ
Î¿ Î»
Ġa pp
Ġwh ich
Ġab out
Ġr Ã©
à¤¿à¤ ķ
Ùħ ÙĦ
àµį à´
à° ¦
Ð¾ÑĤ Ð¾ÑĢ
ĠÐº Ð°Ðº
Ġà¤ Ķ
Ġ Ïħ
ci Ã³n
ÙĨ Ú¯
Ġg Ã¶
Æ° Æ¡
Ø¨ ÙĬ
Ġc l
å®ĺ ç½ĳ
r i
Ġin c
ĠÎ »
ĠØ¹ ÙĨ
Ġ à´
6 5
ĠI t
Ġà¦ Ĺ
ë ¶
áº§ n
æĸ ¹
é ĸ
à®¾à® ķ
ie l
áĥ §
Ġof f
ĠØ§ÙĦ ÙĦ
Ġw ir
áĥĺáĥ ĵ
ãģĻ ãĤĭ
Æ°á» Ľ
Ġà¤Ķ à¤°
Å¾ e
å¿ «
a ce
Ø¨ Ø±
ĠÑį ÑĤ
ãģ ©
l ic
à¸Ńà¸ ĩ
ì £¼
it Ã©
ĠÎ± Î½
Ġ×Ķ× ŀ×
à®¿à® ±
ĠÐ¸ Ð½
à¯ Ģ
Ġ× ĵ
re at
Ľ à§ĩ
Ä±n da
Ïī ÏĤ
Ġáĥ ķ
Ð°Ð¼ Ð¸
à®° à¯į
Ġa us
í Ļ
æī ĭ
ĠØ§ÙĦ Ùģ
ĠE s
Ñĭ Ð²
è Ģ
à° ª
a ble
à±įà° ¤
à±įà° ²
Ġcom o
m en
Ð ¡
Ġà¤ ¯
Ġà° ¤
ÐµÐ ¶
íĬ ¸
ĥ ½
à° ¡
Ġáĥ ĳ
Ø¹ Ø¯
ãģ Ī
ÏĦ Î®
Ġ×ľ ×Ĳ
Ġa ve
ãģĭ ãĤī
à¤¾à¤ ²
ÛĮ Øª
ĠÙħ ÙĪ
ë ł
a j
ÙĢ ÙĢ
ĠØ ·
Ġtr ong
as Ä±
æ µ
ç Ĳ
å ¯
Î¬ Î½
ĠS e
r y
lar Ä±
à¯įà® ļ
ãĤ ģ
iá»ĩ n
à§ģ à¦
Æ°á»Ŀ i
Ð ł
Øª Ùħ
æ Ģ
Ð´ Ð°
Ñħ Ð¾Ð´
Ġv ÉĻ
Ġt ime
Ġ Ñı
am e
ĠØ¯ Ø§ÙĨ
á» ĩ
ĠáĥĲáĥ ł
ĠÑģ Ð»
Ġv ous
er v
Ã¸ r
ĠL a
ĠÛ ±Û
as e
áĥĶáĥ ķ
à® ªà¯įà®ª
Îµ Ïħ
ä¸ Ĭ
ÙĬ Ø§
Ġs p
Ġì §
à¦¾à¦ ¦
d i
Ġp u
Ġà¦ ļ
Ġo u
Ø± Ø©
æ ķ
ler i
ation s
ad os
Ġm Ã¡s
ĠÚ© Ø±Ø¯
ÏĦ ÏĮ
Ø° Ø§
s en
ĠÏĦ ÏīÎ½
à® ļ
Ġà¤ ı
ĠØ¥ ÙĦÙī
ãĤ Ħ
in i
Ġà®İ à®©
Ġm ga
à¥ģ à¤
an n
×Ļ× Ł
ĠS ie
áº¡ n
Ġm á»Ļt
à§įà¦ Ł
Ñĥ Ð¿
Ġf a
Ġal so
ow n
à¯ģà® ķ
ur s
ÉĻ k
ĠTh is
Ñĭ Ð¹
Ġà® ī
ĠìĿ ´
å¹ ´
Ġp i
Ġ× ¡
Ġ ÅŁ
Ġvá» Ľi
ĠÐ¿ÑĢ ÐµÐ´
æ Ń
áĥĶáĥ Ĺ
il le
os e
Ïĥ Îµ
as t
×ĳ ×¨
Î¯Î½ Î±Î¹
Ġà¤ķ à¤¾
Ġpl us
Ã¼ z
Ġa an
×ł ×Ļ
Ð Ĳ
áĥĺ áĥĲ
é ģ
æ Ķ
ãĥ ķ
Ġv y
Ġs ich
Ġ×¢ ×ľ
ĠÐ· Ð°
Ġy ear
æ ł
k ie
ĠØ§ÙĦØ ®
ÎĻ Î
áĥĲáĥ ®
Î» Î±
ÙĪ Ø²
Ð¸ÑĤ ÐµÐ»ÑĮ
Ġà¤ª à¤°
ĠÛĮ Ú©
ãģĵ ãģ¨
Ġï¼ ī
à¯ Ĥ
a zione
Ġn Ã£o
n Ã©
Ġd at
ÐµÐº ÑĤ
Ġ ÑĨ
Ġy ap
à°¿à° ¨
à°¾à° ¨
Ġo ther
Ġan y
Ñĥ Ð±
w e
å¹³ åı°
iá» ĥ
ÉĻ l
ung en
ãĥ Ń
¯ à¦¼
à¤ ļ
× ļ
Ġà¦¬ à¦¿à¦
ÛĮ Ø´
ent i
es i
ĠÙħÛĮ âĢĮ
ÙĬ Ø³
Ø± Ùĥ
Ġein e
Ġ à¨
k u
ÙĦ Ùħ
Ġë Ĥ
å¼ Ģ
Ĺà¸µ à¹Īà¸
j i
Ġave c
iá»ģ u
ĠiÃ§ in
Ġ× ĸ
ëĭ Īëĭ¤
ĠÐº Ð¾ÑĤÐ¾ÑĢ
Õ¸ ÖĤ
c ie
Î¿ Î½
idad e
Ùħ ÙĨ
áĥ£áĥ ļ
Ð½Ð¾ Ðµ
Ġs c
Ġà¤ª à¥įà¤°
Ġà¤ ļ
à¦¾à¦ ¤
f orm
Ġa uch
ìŀ Ĳ
áº£ i
à¥įà¤ ¤
Ðº Ð¾
æ ŀ
à§įà¦ ¬
ĠD ie
ĠØ¨ Ø§Ø²
Ġáĥł áĥĿáĥĽ
ve l
à¹Į à¸
Ġd ari
à°¿à° ķ
Ġwh o
à° ¯
Ġï¼ Ī
Æ°á»Ŀ ng
or i
ĠØ§ÙĦ Ùĥ
ãĢ ĳãĢĲ
Ġc e
Æ°Æ¡ ng
áĥĲáĥ Ĺ
Ġo m
Ġe v
áĥĲáĥ ¢
à¹ ĩà¸
al am
ĠãĢ į
×ķ× Ŀ
Ġg et
Ġd is
Ø ¥
ä½ ĵ
ĠA n
ìľ ¼
á» į
l a
à®¿à® Ł
¾ ³
à¸£ à¸²à¸
à¦¿ à¦°
ãģ ¤
ĠÐº Ð¾Ð¼
Ðµ Ðµ
ĠC h
ĠV er
Ä±n Ä±
Ãł ng
Ġë ĭ
å Ĵ
ãĤ ·
ãģ ¡
à¦ ľ
8 8
Ø§Ø± Ø¯
Ã¼ k
Ġng h
Ġl ike
Ã§ Ãµes
ic al
ĠØ§ÙĦØ µ
ìĽ Ĳ
áĥ£áĥ ļáĥĺ
ë Ŀ¼
ãĤ ¿
zion i
ĠÎµ Î¯Î½Î±Î¹
Ġå ĩ
ĠÏĢ Îµ
Ð» ÐµÐ½
×ķ× Ĳ
Ãł nh
à¦ ĩ
æ İ
Ł à¸£à¸µ
áº£ n
Ð° Ñħ
ģà¸² à¸£à¸
t re
ay s
Å¡ ÃŃ
ĠT r
æĸ °
áĥ ĳ
Ïģ Îµ
ÐµÐ³ Ð¾
Ġ à¹ģà¸
ÐµÐ½ ÑĮ
u ly
Ã¡ v
s k
Ġs ome
é Ľ
Ġê ·
à¦¾à¦ ¬
Ð°Ð± Ð¾ÑĤ
ar y
Ñ ĳ
Î ¡
ĠÐ¿ÑĢ Ð¸
Ġj est
à¤ ¼
it o
à®¾à® ²
ent s
Ñĭ Ñħ
à®© à¯į
Ġà¤ ¶
ç §
Ñģ Ð¿
Ġì Ĥ¬
à±įà° Ł
Ġne w
ĠÚ© Ø§Ø±
ĠÐ £
æĿ ¥
å ĳ
ÙĤ Ø¯
a pp
re e
æ ²
u h
´ à¸
à¯įà® ²
Ã½ ch
×Ļ ×ķ×ª
çī Į
ãĥ Ĺ
à± Ĥà°
ÙĦ Ø§
Ú¯ Ø§Ùĩ
áĥĲáĥłáĥ Ĺ
Ľ à¸
áĥĶáĥ łáĥ
ì Ĩ
¹ à¸
Ĥ °
Ñĥ Ð»
Ġng Æ°á»Ŀi
ãģ Ľ
Ġpr ze
ĠL e
y s
à¤ £
Ø¹ Ø©
æīĭ æľº
Ø§ÙĨ ÛĮ
± à¸Ļà¸
Õ¡Õ ¶
à±ģà° ²
ãĤ £
Î¯Î± ÏĤ
n y
æ £
an te
ĠÙħ ØŃ
Ġå ħ
à¦¾à¦ ¸
ĠØ§ÙĦ Ø±
áĥĶáĥ ĵ
Ġz ijn
er o
å¤ ©
o c
Ġáĥ ľ
m er
Ï Ī
i le
Ġde m
Ã ¦
ĠB e
Ã¡ n
ÅĻ ÃŃ
ing s
Ĭ à¸
ĸ áĥĶ
it ion
Ú ĺ
à¦¾à¦ ĩ
à¦ Ĥ
æ ĭ
ä¼ ļ
áĥĿáĥ ķ
á»¯ ng
Ã¡ ch
Ġà¦ ī
ay a
Ãł n
áĥ ª
Å¼ y
t y
¾³ éĹ¨
g i
Ñĥ Ð¶
×Ļ× §
ĠØ® ÙĪØ¯
· à¹Ī
Î¿Ïħ ÏĤ
ÉĻ m
×Ļ× ĳ
ic k
ë ŀ
Ġë ª
ĠÎ ĵ
Ġà¦ ĵ
n i
Ø§Ø¯ Ùĩ
Ġm ais
Ñĥ Ð¼
ç« Ļ
ĠÎ± Ïħ
ë ©
ĠÑģ Ð¿
ÏĥÎ· ÏĤ
Ãł i
Ġj ak
×Ļ× ©
à® ´
Ġê ¸
al ah
ĠÙĨ Ùħ
ĠâĢ ľ
å ¨
ĠâĢ Ķ
Ġne ed
Ġcon t
áº§ u
d an
à ©
ì² ľ
t t
ol o
Ġp od
å Ł
ĠãĢ Į
im uly
ĠÐ Ĺ
ÙĤ Ø©
ĠÐ¼ Ð¾Ð¶
Ġpr zy
Î ¤
Ġì ¹
Ġà° °
áĥ Ļ
à® ķà¯įà®ķ
à®¿à® ķ
Ġà¦ Ń
ĠR e
k en
/ /
m a
à¯įà®ķà®³ à¯į
Ġ: //
Ïģ Î·
áĥ ¥
in de
à¯ģà® µ
åĴ Į
Ġ ÑĪ
res s
Ġp ag
æ ¬
ion e
ÅĤ a
áĥĺáĥ ł
é Ŀ
æ³ ¨
Ġë ³
Ùħ Ø©
à¦ £
Ġh is
ãĤ ı
Ã¨ s
Ø ¤
Ġthe m
ĠÎ ¬
f t
Ïģ Ïī
Ġnh Æ°
ah r
w i
à§ĩà¦ ķ
t Ã©
Ġà® Ĩ
é ¢
³ à¸
à± Ī
Ð¾ Ðµ
Ġi f
ãĤ ³
Ġì Īĺ
á» ĵ
ë ¬
áĥĿáĥ ĵ
tt p
Ġp re
à¤¾à¤ ¤
à§ ľ
ĠÙģ Ø±
Î Ŀ
ãģĦ ãĤĭ
t Ã³
æĪ ı
ÙĦ Ø©
Ġh ttp
å ł
Æ°á»Ľ c
Ð¾ÑĢ Ð¼
ãģ ¿
Ø§Ø µ
á ł
Ġb u
à¸£à¸ ±à¸
ç ¾
on s
à®£ à¯įà®Ł
am p
a ÄŁ
ar k
Ġthe re
à¤¿à¤ ²
Ġç İ¯äºļ
Ú¯ Ø±
à¤¿à¤ ¤
Ġim p
Ġà¤¹ à¥ĭ
Ġæ ¾³éĹ¨
×Ļ× ĵ
ÙĬ Ùģ
el ijk
ig en
en d
Ã¼ m
à¸£à¸ °à¸
Ġáĥ ®
ĠÏĦ Î¹
ĠÎ¸ Î±
Ã¢ y
Ðµ ÑĪ
Ã¨ re
Ġwhe n
å ĵ
Î¹ Î¬
r os
ĠÙĩ Ø§
ÅĻ e
ì Ĥ°
Ġê µ
à®¿à® ¤
ĠâĢ ĵ
ĠÏĦÎ¿ Î½
ÅĤ o
à¹ī à¸²à¸
áºŃ n
ãĥĥ ãĥĪ
Ð¸ ÑĨ
æ¸¸ æĪı
Ġ×Ķ× Ĳ
Ġ äºļæ¸¸
áĥ ¨áĥĺ
Ø§ Ùĭ
Ġ Ø§Ø±
ĠÐ Ľ
Ġh ar
imuly o
à¹Ī à¸²
Ã¡ l
Ġbe en
Ġ ich
u j
ØŃ Ø¯
Ġo ver
ÙĪ ÙĤ
Ġ ent
am a
ĠÄĳ á»Ļ
ĠÏĥÏĦÎ· Î½
in o
Îº Îµ
Ã´ i
Ñĥ Ñģ
at is
Ġ ä»
Ðµ Ñħ
å¸ Ĥ
ĠÙħ Ø§
Ġa p
Ġãģ Ŀ
ìĸ ´
Øª Ùĩ
Ġde ll
Ġin ter
Ø§ÛĮ ÛĮ
ĠÑģ Ð¾
Ġde i
ĠS p
í Ķ
ĠÐº ÑĢ
Ġì ¶ľìŀ¥
çº ¿
à¤¤ à¤¾
Ð° ÑİÑĤ
Ġå ı
Ġp e
à¦¿à¦ ²
ÙĪ Ø´
áº¿ n
qu es
Ġwh at
Ġáĥ ¥
à¹Ħà¸ Ķ
¹ Ħ
á» ķ
ĠÎ Ĺ
áĥķ áĥĶáĥļ
áĥĺáĥ ª
ë§ Į
c zy
Ú¯ ÛĮ
an h
í ĸ
à§ģ à¦²
Ġk n
Ġáĥ ¤
a il
áĥĿáĥ ļ
Ļ Ĥ
c u
iáº¿ t
åħ ¬
å ĭ
è¡ Į
Ġà¤¹à¥Ī à¤Ĥ
Ġk tÃ³
k o
o ok
in a
Ġìŀ Ī
Ġng ud
Ġngud imulyo
w o
Ġnh á»¯ng
×ķ× ¤
ÑĤ ÐµÑĢ
ĠÐº Ð¾Ð½
Ġc z
æ ±
al ar
or s
çĶ ¨
Ã¼ ber
2 0
Ð½Ð¾ÑģÑĤ ÑĮ
l o
¯ ¸
é ĺ
Ġë ĮĢ
w a
Ùĥ ÙĨ
Ġh o
à°Ĥà° ¦
in k
ĠØª ÙĪ
Ġo b
Ġì ĥ
Ø§ÙĨ Ùĩ
i b
il d
r z
à¥įà¤ Ł
Å ©
ung s
à¹ī à¸²
ä½ ľ
Ġáĥ ©
Ġdi es
Î± Ïĥ
Ġj s
Ġth an
c a
Ã¡ nÃŃ
Ġn el
Ġd z
çĶ Ł
Ġu it
Ġ ed
Ð° ÑĪ
ĠÙħ Ø¯
ĠÙĦ Ø§
Î¸ Î·
åľ °
á» Ń
ä¸ ļ
Ð°ÑĢ ÑĤ
ĠØ¢ Ùħ
Ø± Ú©
Ø² Ø§Ø±
Ġw ould
ĠÙĪ Øª
ë ª
c o
Ġï¿½ ï¿½ï¿½
Ġ 7
ç ´
ë ĮĢ
ow a
Ġ Å¼e
Ġs pe
Ġre c
b i
à¤¿à¤ ı
áºŃ t
×ķ× ©
à±į âĢĮ
Ġåĩ ¯
ta in
×Ļ× Ĳ
Ġw er
ê± ¸
Å ŀ
ĠÎ´ Î¹Î±
Ð½ Ð¾Ð¼
Ġd os
à¤¾à¤ Ĥ
Î» Îµ
ãĥĥ ãĤ¯
ĠÙĨ ÛĮ
Ð½Ð¾ÑģÑĤ Ð¸
ĠÏĦÎ¿Ïħ ÏĤ
ìł ķ
áĥĿáĥ ł
à§ĩà¦ ²
Ġi le
à§ĩà¦ ¶
í ĺ
Ú© ÙĨ
í Ĩ
is h
Î¹Îº ÏĮ
Ø¨ Ø©
Ġb ij
ê² Į
à¤¿à¤¯ à¤¾
n ych
it a
ĠØ´ Ø¯
Ġa cc
Ġs er
à¤¹ à¥Ģ
ê³ ¼
ver y
à¤¿à¤ ¸
Ġæ ľ
t ing
et z
Ġë ¶
Ð ĺ
Ġà¤ĩ à¤¸
at er
ĠÄĳ Ã£
×¨ ×Ĳ
ĠØ´ Ø¯Ùĩ
Ġà¤¨ à¥ĩ
ÉĻ y
Ø§Ø ®
Ġà° Ĩ
à±ģà° ¨
ient o
Ġ ut
ìķĪ ë§Ī
Ġqu es
Ġê· ¸
Ġit s
te ll
è ĩ
v en
§ à§
èĤ ²
Ġw ere
as s
Ġc n
ìĦ ±
à± Ĭ
ãĥ Ĩ
er a
ìĹĲ ìĦľ
g r
ĠU n
is s
ÏģÎ¹ Ïĥ
è ª
ĠãĢ ĳ
al s
è ²
c es
ĭ çīĮ
Ħ à¸£à¸
Ġj ust
Äĥ ng
×ķ× ¢
ëĵ ¤
Ð¸Ð» ÑĮ
ĠÐ¿ Ð»
×ķ× §
ir a
ÃŃ nh
Ġ íķ
Ø§Ø ·
à¤¾à¤ ®
áĥ ¬
ç µ
à§ģ à¦°
Ġs ono
à§įà¦ ·
x o
à¦¾à¦ ľ
à¦ ¶
ìľ¼ ë¡ľ
Ĺà¸µ à¹Ī
ä¸ º
ĠY ou
ĠÄĳá» ĥ
lar Ä±n
ÑĢ ÐµÐ¼
Ġb r
ãĤ «
æ ´
a ct
Ġa m
Ġ 6
Ġà¦ª à¦°
Ġp el
Î¿ ÏĤ
ìķ Ħ
ä¸ ĩ
Ġo der
éĽ Ĩ
è ¾
à®¿à®© à¯į
ĠÎ Ŀ
ÅĽ Äĩ
Û °
ĠØ º
åĿ Ģ
ĀĀ ĀĀ
ĠØ¨ ÙĪØ¯
ä¸ ī
id ak
áĥĶáĥĳ áĥ¡
ľ à¸
Ġpro v
es ch
ĠP h
ĠØ§ÙĦØª ÙĬ
Î¸ Îµ
ä¸ ª
à¸Ń à¸Ļ
ĠÐ ķ
Ä± ÄŁ
Ŀ i
ÙĬ Ø¹
ĠâĢ Ŀ
Îº Î±
Ġnie t
à®¿à® ķà¯įà®ķ
Ġh ad
ide os
Ġê° Ģ
Ø§Ø ¶
à±ģà° Ĥà°
ic as
åĩ º
r u
l p
ĠØ§ÙĦØ °
Ġ ;
Î¿ Î¹
çī Ī
ur a
é Ĵ
ÏĥÎµÎ¹ ÏĤ
íĻ Ķ
Ġpr z
ĠØª Ø§
Ðº Ñĥ
à¯įà® ³
er i
ĠÐ¿ Ð¾Ñģ
Ġì ľ
ĠáĥĲáĥ Ľ
s zy
Ð¶ Ðµ
Ġà¦ı à¦ķ
á ½
± ä¹Ĳ
Ġin to
ĠÎ± ÏĢÎ¿
Ġpi Ã¹
r ij
à±ģà° ķ
Ġs erv
æ£ ĭçīĮ
ĠÐ ¤
à¤¨ à¤¾
å ī
Õ¥ Õ
ÑĢ Ð¾Ð²
åĪ °
ĠÐ¸ Ð»Ð¸
ĠE r
Ġth r
Ġbe i
ì ½
ÙĬ Øª
c y
o ir
am os
ÙĬ Ø§Øª
ç½ĳ ç«Ļ
æĸ Ļ
å· ¥
ãĥ £
áº¿ t
ãģ¾ ãģĹãģŁ
Ø¹ ÙĦ
à®¾à® ¤
ĠP or
ĠÙħ Ø´
cz e
Ġthá» ĥ
i ed
j a
Ġm o
à¤¾à¤ ¯
j on
m o
à´ ¿
æ ĥ
ë ²
ÑĢ Ð¾
Î¹Îº Î®
ãĥ ¡
n ik
an ie
s z
ç İ¯äºļ
æĪ ·
à¤ §
Ġï¿½ ï¿½
à¦¤ à§ĩ
ãģ® ãģ§
åĽ ¢
Ġà°ª à±įà°°
Ä± s
Ð½ Ñı
k t
aci ones
Ġhe lp
ãĥ ŀ
ĠØ£ ÙĪ
Ã§ a
á»ĳ i
ad e
ĠÑį ÑĤÐ¾
áĥĿáĥ Ĵ
Ġf ir
a o
Ġse b
ãģ¨ ãģĦ
Ã¶ n
Ø§Ø± Ùĩ
at ie
Ġï¼ ģ
åħ ¨
à® ª
Ïģ Ïĩ
é ¡
ĠÐ¾ Ñģ
u z
Ð Ŀ
æĬ ķ
ÐµÑĤ ÑģÑı
Ĺ à°¾
×ķ× Ĺ
ç Ĥ
Ġãģ ĵ
ç Ħ
áĥĵ áĥĲ
áĥĿáĥ łáĥ
ìĥ µ
er n
ĠÃ ĩ
Ġ. ..
áĥĺáĥ ¢
or d
ì Ļ
Ġáĥĵ áĥĲáĥ
id a
ing en
ĠÙĪ Ø£
à ª
æ ¥
us e
ĠØ§ Ùģ
Ä± y
à¯įà® µ
Ñİ Ñī
ad i
Ã¥ r
Ġà¦ ²
Ġs k
or y
áº ©
Ġà¦ ¥
± à¸Ļ
à¯ģà® ®
ĠØ¨ Ø§Ø´
Ø± Ùģ
ģà¸² à¸£
op le
Ġs z
on d
Ġm ake
Ġà®ļ à¯Ĩ
áĥĺáĥ Ļ
æľ Ī
ÏĢ Î±
ĠÎ ®
te m
ÖĢ Õ
m ak
à®² à¯į
ë¶ Ģ
ĠáĥĴ áĥĲáĥĽ
å¨ ±ä¹Ĳ
à°¿à°Ĥà° ļ
Ð°Ð½ Ð¸Ñı
ĠN h
Ð» Ñİ
ãģĦ ãģ¾ãģĻ
Ð¸ Ñİ
ĠP ro
Ġes ta
ĠØ§ÙĦ ÙĪ
ĠÐ³ Ð¾Ð´
Ð ļ
Ġ Ã¼ber
Ġm ay
×ķ× ¡
ap at
Ġad d
ĠÐ¾ Ð´
Ġt em
Ñĥ Ðº
Ġus e
Æ¡ n
ļ à¸Ńà¸
ie m
s i
ÙĦ ÙĪØ¯
Ð° Ñĩ
ìł ľ
Ġf o
ÙĨ Øª
åľ¨ çº¿
Ð² ÐµÑĤ
ang an
ci al
c er
Ġinc l
Ð¸ Ð»Ð¸
is a
ĠÑĢ Ð°Ñģ
à¥įà¤¯ à¤¾
ìĥ ģ
Ã¹ ng
å½© ç¥
à¦ ļ
à¦ Ń
ìł Ħ
à®¾à® Ł
éĻ ħ
am o
Ġ. .
Ġt ut
Ġs ind
Ġà¤ «
ĠI f
ĠãĢ Ĳ
Ġåĩ¯ åıĳ
an ya
åĵ ģ
£ Â
Õ¸ÖĤ Õ
Ġ 8
ad or
ëĤ ĺ
ãĢ Ĥ
ÙĨ ÛĮ
Ġh at
í ĥ
Ð°ÑĤ ÐµÐ»ÑĮ
Ð ķ
f ter
Ø± Ùħ
ãĥ ¥
Ġ" :
è ģ
ĠÑĤ ÑĢ
ie j
ãĥ ī
ä ¾
ĠG r
Ġv Ã½
ëħ ¸
à¯įà® ©
Ġ Q
à¯ģà®¤ à¯įà®¤
Ġth u
æ ĻĤ
æ Ħ
ĠÑĤ Ð¾
en ce
ë į
äº ĭ
Ð ¢
ÙĨ ÙĬ
u ÅŁ
ul t
Ġì¹ ´
Ġhe r
à¦¨ à§įà¦
° à¹Ģà¸
Ġë ı
Ġd alam
ĠE in
Ġt ak
Ġh ow
Ġ3 65
p t
Ñģ Ð»
à¯ģà® Ł
ĠI l
uj er
ĠÐ §
Ġå ®
ãĤ µ
Ġ× ¦
Ġwer den
a Ã±
à¦ §
Ġm ost
is e
em b
Ġs á»ĳ
Ġc Ã´ng
ĠÐ¸ Ð¼
Ð°Ð» Ð¸
f ul
í ı
Ġà¦¸ à¦®
Î¼ ÏĮ
Ġb áº¡n
Ġa ut
Ġ×Ķ× ©
am ente
Ġp en
ĠØ °
ĠÙĦ Ùħ
éĽĨ åĽ¢
iá»ĩ t
áº ½
åŃ ¦
en za
Ġè ¿
Ġlo ok
Ġìķ Ħ
Ġáĥ Ŀ
Ġp os
r as
en n
ct s
k ke
Ġpro du
Ġpu ed
åĬ ł
te l
ãĥ Ĳ
×Ļ ×Ļ×Ŀ
ĠÎ´ ÎµÎ½
á»Ļ i
Ġal s
è¦ ģ
on n
Ġê¸ °
¡ °
ÑĢÑĥ Ð³
ĠØ¹ ÙĦÙĬ
r Ã©
i ro
Ġà¤ı à¤ķ
Ġcom m
æ Į
ÄŁ i
Ø¯ Ø©
Ð¿ Ð»
iy e
Ġm er
ç Ń
an ia
à®² à¯įà®²
Ġà¤ ¥
Ġà¦¹ à§Ł
Ã¼ l
Ð°ÐµÑĤ ÑģÑı
Ġ1 0
ÙĤ ÙĬ
w er
il ir
ĠÎµ Î½
an a
¡ à¸²à¸
á» ī
¡ Â
ĠÑĢ Ð°Ð±Ð¾ÑĤ
Ġpe ople
à°¾à°° à±ģ
ÙĪØ± Ø¯
en ia
ë Ł
à¤¿à¤ ¨
am i
×Ļ× ¢
ĠØ³ Ø§ÙĦ
Ġà¤ ĸ
ÅĤ y
ĠÐ² Ð¾Ð·
v ÄĽ
r ze
m ek
Ïĥ Î±
ìĨ Į
à°¨ à°¿
Ġkn ow
oun t
ãĥ ģ
ÑĨ Ð¸Ñı
iz z
Ġb aÅŁ
Ġìł Ħ
ë Ĳ
ĠÎµ Îº
Ġna ch
Ġwe ll
Ġk ter
å¤ ļ
u est
ic z
ĠÎ¿ Î¹
in in
ãģĤ ãĤĭ
am ento
ç¾ İ
Ġthr ough
ĠÐ Ń
ĠW h
à¦¾à¦ ¹
Ġa lla
y e
ic es
âĢĮ ÙĩØ§ÛĮ
ĠØ® ÙĪ
ĠÎ Ĵ
Ġt idak
è§ Ĩ
Ø§Ùħ Ùĩ
Ġtá» «
Ġn Ãły
Ð¾Ð»ÑĮ ÐºÐ¾
Ġm á»
Ġà®ĩ à®°
Ġl á»
Ġa o
í ħ
ĸ à¸
ĠC on
Ġon ly
ov Ã©
æľ ¬
ä» ¥
Ã¡ r
áĥłáĥ Ĺ
Î´ Î¿
à§ĩà¦ Ľà§ĩ
áĥĺáĥ ķ
ÑĤ Ð¾ÑĢ
Ġdel le
áĥĶáĥ ¢
Ġà¦ ĩ
ĠØ´ Ùĩ
çĲ Ĩ
ĠÏĦÎ¹ ÏĤ
Ã¡ i
a at
ľ ê±¸
Ġc ol
Ġ íķĺ
Ġv or
ĠG e
Ã© m
ĠÏĥÏħ Î½
ï ½
Ð¸Ð½ Ð°
êµ Ń
is che
Ġ 9
Ø¨ ÛĮ
Î¼ Î¬
ìł ģ
à¹Ħà¸ ¡
å Ģ
Ã¤ t
Ïģ ÎŃ
Ïģ Ïİ
Ġæ Ī
b y
à®Ļ à¯įà®ķ
Ġhá» į
å®ĺ æĸ¹
ĠØ¯ Ø³Øª
Ø§Ø± Ø©
Ġ ÅĽ
ÉĻ d
n ia
êµ ¬
ä½ĵ èĤ²
Ġà¦ «
w n
ĠH e
ĠØ§ÙĦØ ·
Ð¸ Ð±
Ġcom e
ad as
ç ł
è ĥ½
à§ ¦
Ġë ¬
Ùħ Ø±
ĠØª Ø¹
à¤¾à¤ ¦
iy or
à¥įà¤ µ
ÑĢ Ñĭ
Ġå į
ĠÃ º
áĥĺáĥ Ľ
Ã¡ m
Ġfir st
« ĺ
Ġ× ĺ
ĠL es
Äĥ m
à°° à±įà°
ÙĪ Ø¹
çĶ µ
Ġs ont
ĠÎŃ Ïĩ
Ġà° ¬
ot re
Ġì ļ
Ø³ ÙĦ
Ġpar t
³ Û
Ð½ Ð¾Ð²
Ø¨ ÙĦ
Øª ÙĬ
×ķ× ŀ
ÏĢ Îµ
à®± à¯įà®±
ow y
ll o
u al
Ã¡ t
Ä±n a
Ġà¸ ªà¸
Ġå Ī
Ġí Ļ
Ġe very
Ġ×Ķ ×ª
ĠÎ± Î½Î±
ĠÑģ Ð¼
Ø° Ùĩ
ÛĮ Ú©
Ġì ĸ
Ð³ Ð¾
Ġa kan
Ġb isa
åĽ½ éĻħ
Ã¡ ng
ļ Į
ĠØ§ÙĦÙĦ Ùĩ
l ig
Ġ Å¾e
Ã½ m
Ġà° ¦
ä¹ Ī
ãģ Ŀ
ç ®
ë³ ´
ãĥ ĭ
ÏĦ Î¯
ĠÎ¼ ÎŃ
é ĥ
et te
Ġà§ ¨
áĥķ áĥĺáĥ¡
à ¬
Ã© n
Ġ) .
en s
g io
Ġg iá»
Ġcon s
Ġà® Ĵ
ĠA r
Ã± o
Ġà° ĩ
ĠØ¯ ÛĮ
Ġmem b
Ġkh i
ãģ °
ĠÑģ ÑĢ
Ġun s
Ġå °
ĠØ¯Ø§ÙĨ ÙĦÙĪØ¯
ĠÐ° Ð²
Ġáĥ ¢
Ġc o
§ à¸²à¸
Ľ à¹ĩ
Ã¤ n
at es
áĥĶáĥ Ĵ
Ùĥ ÙĦ
Ġ1 9
ãģĦ ãģŁ
Ïĥ Î¹
Ġs us
ÙĨØ¯ Ùĩ
ĠAn da
h l
Ġ =
´ Ģ
Ġìĭ ľ
ĠÑģ Ð°Ð¼
¾ å®¶
Ð°Ð¹ ÑĤ
lÄ± k
×Ĺ ×¨
å® ī
ÏĦÎ± Î½
ìļ Ķ
á»ĳ c
ĠÐ½ Ð¾
ĠÙĩ Ø°Ø§
Ð¾ÑĢ ÑĤ
Ġz a
ĠÄĳ áº¿n
Ġs on
Ġan che
il y
ç½ĳ åĿĢ
çľ Ł
Ġ×ŀ× ©
Ùĥ Ø±
Ð¸ Ð³
ing in
Ġa c
ãĥ¼ ãĤ¹
ÙĪ Ø§
ãĤĪ ãģĨ
Ġ×Ķ× Ĺ
Ġ×ŀ ×Ķ
Ġs ie
l es
ìĹ ħ
ig e
Ġr is
áĥĶáĥļ áĥĺ
ÙĦ Ø§Ùħ
Ġ×ĳ ×Ĳ
Ġthe se
åĲ Ī
z i
Ġbe t
é ķ
áĥ ¨
Ð´ ÐµÐ»
Ã¼ ÅŁ
Ġvá» ģ
r aw
ÃŃ m
ĠÐ± ÑĥÐ´
ĠáĥĴ áĥĲáĥľ
Ġb ack
ĠÎ Ļ
Ġæ ĺ
åŃ Ĳ
ĠØª ØŃ
ĠÚ© Ø´
ãģ« ãģª
ĠØ§ÛĮ Ø±Ø§ÙĨ
ãģ¨ãģĦ ãģĨ
Ġì§ Ģ
à ²
é¢ ĳ
á»© c
×ķ× ¦
, "
Ø³ ÙĬ
i an
æ° Ĺ
ãĤ ¦
ãĥ¼ãĥ «
Ġes te
u ÄŁ
ĠN g
a us
on a
ì§Ģ ëħ¸
áĥĲáĥ Ĵ
áºŃ p
ãģķ ãĤĮ
Å© ng
ct o
in iz
Ġsu pp
à§ ĥ
áĥĺáĥ Ŀ
à¤¤ à¥ĩ
iáº¿ n
à´¿ à´
áĥĺ áĥĲáĥľ
Ġà¦ ĸ
à§ Ĥ
Ã¼ y
² à±ĭ
en ie
Ġr a
u b
Ġ×ķ ×Ķ
à¸Ļà¸ µ
åħ ¥
Ġw ant
Ġo ok
Ġà¤Ń à¥Ģ
Ġí ĺ
à¤ ¶
ãĥ ĸ
ic os
ä¹ ĭ
Ð» Ð¾
it ies
áĥ ŀ
Ġà° ī
e p
Ġà¤ķ à¤¿
ĠÐ» Ñİ
Î Ľ
Ġre p
an no
ĠlÃł m
Î»Î¿ Î³
ìļ ©
à¤ Ī
ĠÑģ Ðº
ĠÑģÐ² Ð¾
et to
ãģĤ ãĤĬ
è ·
Ġex per
éĩ ĳ
¤ ĳ
el d
Ġa ta
ãĥ ĩ
ä¿ ¡
Î ł
i Ãª
ur n
ëı Ļ
Ð¾ÑģÑĤ Ð°Ð²
Ġver y
Ġà° Ĺ
Ø³ Ùħ
Ġp ada
ĠÑĥ Ñĩ
Ø® Ø±
ur ch
Ġ á»Ł
at t
à§ĩà¦ ĩ
Ñĥ Ñī
à¦Ł à¦¿
Ø¯ ÛĮØ¯
Ġdi ff
Ġn os
Ġdas s
Ġd oor
ĠÃ¶ n
ĠÎ ¹
Ġp res
ti v
åł ´
ĠØ¯ Ø§Ø±
×Ļ× ĺ
Ð¾Ñģ Ñģ
à¤¾à¤ ¸
Ġà¦Ĩ à¦®
ch t
at ing
à¸Ļ à¹Ģà¸
o b
Ã¡ o
ĠÙĥ Ø§ÙĨ
×ķ× Ĵ
ÏĨ Î¿
à¹ĥà¸ «
ue v
1 0
at an
¹ Û
áº¥ y
Ð° ÑĨÐ¸Ð¸
ĠpÅĻ ÃŃ
in ess
Ñģ Ð»Ð¸
áĥ ¦
à±įà° ª
×© ×¨
Ġï ½
Ø¬ Ùħ
Ġo t
i Ã³n
æĹ¶ å½©
ãĤ į
áĥĺáĥ ļáĥĺ
Ġ #
ãĤ Ń
ĠÐ¾ Ð½
ãģĦ ãģ¦
ĠÐ´ Ð¾
Ġc áº£
Ġ": "
u kan
çİ °
Ġt áº¡i
ar io
à¥ Į
Ñ Ĭ
ĠÎµÏĢ Î¹
è¦ ĭ
l ik
×Ļ× ŀ
áĥ £
a it
à°¨ à±įà°¨
è§Ĩ é¢ĳ
Ð°Ð½ Ð¸Ðµ
Ã¦ r
Î´ Î±
ĠÙħ Øª
il er
à¦¾à¦ ª
Ġi kke
ĠØ¯ ÙĪ
è Ī
æĪ Ĳ
Ð°Ð½ Ð¾Ð²
Ġáĥ ª
Ġin s
h n
ì Īĺ
Ġa ct
Ðº ÑĤ
Ġ %
à®³ à¯į
æ ¯
Ð¾ÑĤ ÑĢ
ĠØ§ÙĦØ «
ĩ à¹Ģà¸
w ie
Ð¼ Ð¸
Ð°Ð» Ð°
Ġa y
ĠÙħ Ø±
æ ı
iá»ĩ u
Ġ íķľ
Ġà¤² à¤¿à¤ı
Ġë ĵ
Ġpor no
çĻ »
is chen
áĥĲáĥ ĺ
Ġg ia
æĢ Ŀ
Î· ÏĤ
Ġk ar
å½©ç¥ ¨
Ïĥ ÏĦÎµ
lar ak
×ł ×ķ
O M
×Ļ× ¤
Î»Î» Î¬
Ðº Ðµ
ia ÅĤ
Ġìł ľ
å° ı
áº ±
ĠA s
c ess
æĹ¶ æĹ¶å½©
Ġà¦ Ľ
Ġre g
Ġs áº½
Ġå ľ
í Ħ
im a
äº ¬
ë© ´
ÏĦ ÎŃ
Ġb us
ÑĤ Ð¾Ð¼
Ġwir d
ĠÃ ĸ
ÛĮ Ùĩ
Ùģ ÙĬ
Ġt out
in t
Ø¯ ÙĬ
Ġman y
us s
éĸ ĵ
à¤ Ń
Ġb l
áĥĺáĥ £áĥ
u ll
ĠÙĪ Ùħ
áĥļ áĥĺáĥ¡
Æ ı
áĥĲáĥ ¨áĥĺ
Ġ×Ķ× ¢
ĠìĿ ´ë
ãĤ ¸
on al
ìĺ ¤
Ġs he
Ġf l
le ct
ÛĮ ÙĦ
ĠÐ¾ Ð¿
ĠÙĥ ÙĦ
ĠÛ ²
å¥ ½
Ġro z
Ð¾Ð»ÑĮ ÑĪ
ĠÂ Ń
çĦ ¡
Ġæ Ĺ
à¤° à¥Ģ
u g
e b
à§įà¦ ª
ÐµÐ» Ñı
our s
ãĥ³ãĤ °
Ġst ud
åİ ħ
Ġw ie
Ġd á»¥
Ġin d
×Ļ× ¡
Ġm a
ãģ ĺ
ie w
Ġata u
ÑģÑĤÐ² ÐµÐ½
à®¿à® µ
Ġå Ĳ
¶ Ķ
à¯ģà® ±
ĠØ¨ ÙĨ
Ø§ÛĮ Øª
å ģ
Ġç ľ
Ġc re
Ġáĥ §
ãģ Ķ
Ġd la
Ġv otre
en e
r it
ëĭ Ī
Îµ Î»
ot h
Ð½ ÑĥÑİ
Ġo ld
ĠãĤ ¹
à§įà¦ ¥
è® ¡
à° Ĺ
ĠÄĳ Ã³
Ġà¸ ª
Îµ ÏĦÎ±Î¹
è½ ¦
Ð¾Ð»ÑĮ Ð·
Ġo pp
Ġnh Ãł
ÏĢ Î¿Ïħ
ĠC OM
ĠC om
t ÄĽ
à¥ĩà¤ ¶
Î ľ
Ġgo od
Ã² ng
Ġìĺ ¤
ë ¹Ħ
u er
×Ļ× Ľ
en cia
ÏĦÎ¹Îº ÏĮ
e ct
åĪĨ å½©
Ġm Ãł
Ġt wo
Ġëª ¨
iy y
Ġ×© ×Ķ
a v
ÉĻ b
ĠÐ· Ð°Ðº
Ġ Åŀ
æ³ ķ
à¤¾à¤ ļ
ç ¨
ìĿ´ íĬ¸
y ak
ĠØ «
ĠÐ²Ñģ Ðµ
Î¼Î± ÏĦÎ±
Ġ×ĳ ×¢
Ã¡ d
Ã¼ ck
Ġp ers
Ġin v
Ġd al
ment s
áĥĲáĥ Ļ
éĥ ¨
×ľ ×Ķ
ow er
Ġc zy
Ġìł ķ
Ø¨ Ùĩ
ģ à¸£à¸
Ġg reat
ÑĢ Ð°Ð·
å §
Ġein en
Ġc Å©ng
åİ ¿
Ġæ ĸ
Ã± os
à¹Ħà¸Ķ à¹ī
o y
Ġ ä½
Ġà¦¬ à¦²
ÉĻ h
Ġà®ª à¯ĭ
Ġáĥŀ áĥł
Ġg el
Ġç Ķ
Ġà¦ Ł
ãĥ §
à¦¿à§Ł à§ĩ
Ġt ien
ëĤ ¨
Ġw ar
à¤Ĥ à¤Ĺ
ÐµÑģ Ñģ
å® ¢
Ġm as
ì °
Ã¶ r
ãĥ ł
ĠÛĮ Ø§
Îº Î¿
ìĬ µ
Äĥ n
Ġå ½
Ġà¦ħ à¦¨
Ġse e
Ġê² ĥ
Ð¾ÑģÑĤ Ð¾
Ø² ÛĮ
ÑģÐº Ð¾Ð¹
×Ļ ×ķ
Ġi ÅŁ
×¤ ×¨
Ġz um
à¤¾à¤ ľ
ĩà¸ ´
an k
Ġw ay
Ø§Ø± Ø§Øª
Â µ
ÑģÐº Ð¸Ð¹
Ġg er
Ġà° İ
Ø¨ Ø¯
u ga
ĠD as
åĬ ¨
Ġk ann
Ġà§ §à§
à®¾à®° à¯į
à°ķ à±įà°
Ġit u
b eit
çĤ ¹
c ed
Ġst r
» ¿
Ĥ à¸
Ñĥ Ð½
Ħà¸ §à¸²à¸
à°¾à° ¯
ĠÎŃ Î½Î±
g li
ä¹ ħ
Ġi k
ãģ§ ãģį
ÙĦ Ø§ÙĦ
Ġh Ãłng
c ul
ĠØ§ÙĦÙħ ÙĪ
åľ º
á» ģ
å £
Ð Ĵ
Ġì Ĩ
Ø¬ Ùĩ
Ø´ ÙĨ
è ī
à¹ĥ à¸Ļà¸
Î¼ Î²
Î ¥
Ġáĥĺ áĥ¡
ĠÄĳá» ĭ
Ġà®ħ à®µ
Ã¼r k
Ġk an
à¦¿à¦ ¬
Ø§ÛĮ Ø¯
Ø¯ ÙĬØ¯
à®¾à®© à¯į
Ġc as
Ġn ous
Ã Ħ
ĠvÃł o
Ġper o
Ġfr a
à®¿à®¤ à¯įà®¤
Ġk un
à®© à¯įà®±
à¥ ī
ÐµÐ» Ð¸
ĠÙħ Ø³
an y
ÏĦÎ¹Îº Î®
ĠãĤ ¢
at u
or um
ĠÐ´ Ð²
ä¹ Ł
ĠÐ¿ Ð¾Ðº
à¯ģà® ³
Îº ÏĮ
ç ¤
ne j
Ġwhe re
ent es
áº «
¦ à°¿
ol d
Ġes c
è ©
ic he
ĠÏĮ ÏĦÎ¹
Ġà° ľ
Î¹Îº Î¬
ãĤ °
ãĥ¼ãĥ Ī
à¤ķ à¥įà¤
×ŀ ×Ķ
ÏĦÎ¿ ÏĤ
ëĵ ľ
à¤¹à¥Ģ à¤Ĥ
f ore
ÙĪ Ø¨
Ġ×ĳ ×ŀ×
ÐµÑĢ Ð¶
r zy
à¦ ¯à¦¼
ĠQ u
à®¾à®² à¯į
iv o
×ķ× Ľ
éĴ ±
Ġp ow
à¦ ¥
å¿« 3
Ġyear s
å »
el er
ĠH et
Ø§ÛĮ Ø´
äº İ
Ġsh ould
Ġnh iá»ģu
£Â ¬
ãĤ »
Ġa fter
Ġhe b
n ing
Ġ ]
ãģ§ ãģ¯
ì½ ľê±¸
åı ¯
ut as
à¹Ī à¸Ļ
à°Ĥà° Ł
Ġm el
Ġo wn
à¤ķ à¥ĩ
Ġm Ã¼
ãĥ Ł
Ġtr Ãªn
Ġl áº¡i
Ùħ Ø¯
ÃŃ ch
ÑĨÐ¸ Ð¾Ð½
×ľ ×Ĳ
am bi
Ġev en
à§ĩà¦ Ľ
Ġse g
Î· Î½
ĠÐ¸ Ð³
Ùĥ Øª
Ð Ł
Ķ à¸´à¸
ÑģÑĤÐ² Ð°
ang e
¡ à¸µà¸
ag en
· à¸Ńà¸
Ġo larak
áº· t
ĠT e
Ġj uga
Ġa ux
à±ģà°¨ à±įà°¨
íĦ °
Ġc ar
e ft
ãĥ³ ãĥĪ
Ġ×Ļ ×©
×ł ×Ķ
ãģ Ń
Ġso bre
x t
ĠÙĪ Ùĩ
ic t
ĠA l
Ġb est
Ġad alah
á ¼
m es
Ġg j
Ġc ould
Ø± Ø¶
é £
Ð¸ÑĢ Ð¾Ð²
á»ĳ ng
Ġà°ļ à±ĩà°
áº »
é «ĺ
ĠØ§ÙĦÙħ Øª
ier t
ĠN e
g et
Ġz o
Ġs em
Ðº Ð¾Ð²
Ġthe n
ĠÐµ Ð³Ð¾
Øµ Ø±
il i
Ð» Ðµ
d ay
h al
ÑģÑĤ Ð°Ð²
Ø¬ ÙĦ
Î ©
t ir
an z
ĠÙĨ Ø¸
j o
Ø´ Ø±
if e
Ġëĭ ¤
n ym
in dÉĻ
ãĤ §
áĥ£áĥł áĥĺ
Ġh igh
Ð» Ð°
à¤¡ à¤¼
Ġd own
æĸ ĩ
Ġha b
Ġin form
à°¿à° ¤
å¿« ä¸ī
ãĤ ¨
b ih
Ġse in
Ã§ o
Ġ à¹Ĥà¸
as ed
ãĤ ª
Ġà¤µ à¤¿à¤
l am
æľ Ģ
im o
ou ve
áĥĽ áĥĲ
à¤¾à¤ ¹
Ġ &
ÏĦÎ± ÏĤ
Ġincl ud
Ġs et
å¿ ĥ
æ Ļ
Ð¸ ÐµÐ¼
ĠD er
ê ·
ys tem
ĠáĥĽ áĥĿáĥ
ë ¯¸
Ã© es
v ÃŃ
ìĽ Ķ
Ġ×Ľ ×ľ
f er
dz ie
ÑĥÐ» ÑĮ
ĠB u
Ġáĥ ļ
Ġde ÄŁ
ä» ¬
à±įà° µ
ĠÐ¿ Ð¾Ð¼
ãģķ ãĤĵ
Ġf ind
Ġm u
ov er
áĥĲáĥ ļáĥĺ
ĠÎ §
áĥĶáĥ ¥
Ġag çİ¯äºļ
Ġì Ĭ
Ø§Ø¯ ÛĮ
Ð¾Ð± Ñĭ
u je
à¹ī à¸Ńà¸
Î» ÎŃ
Å º
ers ch
ation al
ne go
Ġà®ķ à¯Ĭ
ov Ã¡
áº¥ p
Ùĭ Ø§
Ð¾ ÑĪ
l ad
Ġd ay
Ġf in
à¯ģà® ¨à¯įà®¤
Ð» Ð°Ð´
ac ji
Ġ×Ķ ×¨
ca use
ļà¸Ńà¸ ¥
à¹Īà¸ ĩà¸
ah l
Ġå ¹
Ø³ Ø¨
ĠÎº Î¬
ĠØ³ Ø±
Ġno ch
p o
áº ¹
í ļĮ
en er
Ġ1 2
vel op
ļ à¸²à¸
Ø¯ Ùħ
h ing
Ð¸ÑĤ Ðµ
Ì ģ
Ùĥ Ùħ
Ġk on
i os
à¦¬ à§ĩ
Ùĥ ÙĪÙĨ
a ux
Ñĥ ÑĪ
áĥĺáĥ łáĥ
or o
Ä±n dan
Ġna ar
ĠìĿ ¸
æ Ľ
ĠØ´ ÙĪØ¯
Ġe ff
ĠÄĳ áº§u
iá»ĩ c
Ġà¦ķà¦° à§ĩ
Ãł o
à¦¿à¦ ¸
Ø¨ Ø§Ø±
èµ Ľ
ìĹ ¬
Ġå Ľ
åŁ İ
å½ ķ
t Ä±r
ÙĤ ÛĮ
a ire
y cz
il ity
Î» Î¬
ÎŁÎ ¥
n Ã¡
ol og
Ø ¢
ĠÐ¿ÑĢ Ð°Ð²
Ïį Î½
à¦ķ à§ĩ
Ùĳ Ùİ
Ġsu ch
¸ à±įà°¤
Ġlo c
r ar
áĥĶáĥĳ áĥ£áĥļáĥĺ
ä¸ »
åĲ İ
áº£ o
ãģ« ãģ¯
èĩ ª
åĪ ©
Ġh ome
à¤¸ à¥ĩ
ĠÐ± ÐµÐ·
ØŃ Ø©
Ġãģ Ĭ
d y
Ġgr atis
¥à¸ °à¸
Ð¾Ð» Ð½
Ġb ul
Ġn Ã³
Ġt u
Ã© ho
ĠÃ ª
ĠØ±ÙĪ Ø²
m ente
à¦ ĸ
åĬ Ľ
ç ķ
ãĥ ĳ
ÑĤ ÑĮ
c ar
ĠØ§ÙĦ ÙĬ
Ïĥ Î¿
Ġj ed
àµ ģ
è ¶
Ġein er
ìĤ¬ ì§Ģ
ĠÏĢ Î¿Î»
è °
or k
ÑģÑĤ ÑĢ
¡ à±ģ
å® ļ
çľ ĭ
Ļ à§įà¦
ac ak
Ġg li
Ġn ow
ĠÐ¿ÑĢ Ð¾Ð´
ÙĪ ÙĬ
s kie
Ġ×Ķ× ŀ
ÙĪØ± ÛĮ
Î» Î®
í Į
Ã Ĳ
el f
éĢ Ł
ĭ à¸
te t
Ð» ÐµÐ½Ð¸Ñı
ĠÎµ Î¾
Øµ ÙĦ
oc Ãª
ÙĪ Ùģ
Ġr ight
w ard
à¤ ı
Ġdes ign
åī į
Ïĥ ÏĦ
Ð¸ÑĢ Ð¾Ð²Ð°Ð½
áĥĶáĥĳ áĥĺáĥĹ
Ð¾ÑĢ Ð¾Ð´
ĠâĢ ŀ
ant s
Ġà¤° à¤¹
Ø§Ø³ Øª
ĠÐ² Ð¸Ð´
b et
or a
ĠÐ½ Ð¾Ð²
Ġk Ã¶n
Ïĩ Îµ
Î± Ïģ
Ġre qu
Ġch á»ī
à¯Īà® ķ
ÙĦ Ùģ
ĠØª Ø±
Äį nÃŃ
Ġà¤ħ à¤ª
ĠØ¥ ÙĨ
Ø§Ø± ÙĬ
Ġ×ŀ× Ĳ
±à¸ ĩà¸
íħ Ķ
ĠÐ² ÑĢÐµÐ¼
ĠM it
Ñı Ð·
k er
Ġse c
Û ķ
íķĺ ëĬĶ
Ġ Ĉ
Ġs á»±
è ³
lic he
ur ing
ĠÐ¾ ÑĢ
Ġm aar
Ġìŀ Ĳ
Å¡ e
Ġmen j
Ġgi Ã¡
Ġt y
æĢ §
Î¿Ïħ Î¼Îµ
Ø§ÙĨ ÙĬ
ÎµÎ¹ Î±
ĠØ ¶
ĠA us
èĢ ħ
Ġb á»ĭ
Ġà¤¸ à¤®
ik a
Ġê² ½
Ãªn cia
é Ĥ
ou p
Ġbus iness
ĠØ§ÙĨ Øª
à¤¾à¤ µ
Ãº ng
b o
áĥĶáĥľ áĥ¢
Ä ©
Ġ×Ķ× ĳ
ĠÄĳá» ĵ
ĠÙĩ Ø°Ùĩ
Ġæ Ŀ
à¸£à¸ ´à¸
Ġ {
à°Ĥà° ¤
áĥ£áĥ łáĥ
Ġz e
Ġáĥ¡ áĥĲáĥĽ
ow s
Ġ Å¡
Ī à¸²à¸
Ġnh áº¥t
Ġw aar
ent a
r Ã³
åĮ º
à¦ ĵ
à§ĩà¦ ĸ
Ġz Ã¡
è¿ Ľ
ç¥ ŀ
à¯ģà®ķà¯įà®ķ à¯ģ
ĠAn d
åĽ ¾
is ch
áĥĲáĥ ¨
d f
Î¬ Î»
Ġv ideos
Ø§Ø¯ Ø©
b s
Ġein em
Ġz ur
ĠÙĪ ÛĮ
æ¥ Ń
Ġre l
ĠD E
z o
åį ķ
áĥ® áĥķ
ÙĬØ± Ø©
Ġdiff er
Ġí ı
3 65
Ð¾Ð¿ ÑĢ
Ġn Äĥm
ÎŃ Ïģ
× £
Ġd ÉĻ
áĥĲáĥ ¥
Ġì °
áĥĲáĥ ĸ
Ġp eng
ĠF or
à¤¤ à¥Ģ
sch a
Ïģ Î®
Ð°Ñģ Ñģ
u lar
Ġp df
Ø· Ø©
Ġà¤ ¡
Ġ×¢ ×Ŀ
ĠÎ Ľ
Ð¾ÑģÑĤ Ð¸
ç« ¯
an Ä±
ĠÛ±Û ³Û
Ġm uch
Ø§ÙĦ Ùħ
Ã¡r io
ic s
Ġà°µ à°¿à°
ĠJ e
Ġì ²
Ġpl ay
ĠÙĤ Ø±
Ġ \
Ġm od
ĠÐ¸ ÑģÐ¿
Ġs m
o ol
ĠÚ¯ ÙģØª
o ll
ìĸ ĳ
ut o
Ġë° Ķ
Ġà¤¨ à¤¹à¥Ģà¤Ĥ
ĠØ³ ÛĮ
ay Ä±
åı ¸
ÏĦÎ¹Îº Î¬
Ġd r
Ġh iá»ĩn
ĠÎ ¦
Ġ1 1
Ø³Øª Ø§ÙĨ
ah an
os ti
ìĭ ł
at ive
ĠÄĳá»Ļ ng
Ġd all
ah a
Ġdá»¥ ng
l Ã©
Ġ X
at h
Ġ }
äº Į
æĪ ĳ
ĠØ¨ ÙĬÙĨ
ou w
Ö ģ
Ġm on
Ã¡ nh
ĠÎµ Î¯
Ľ Ħ
à° ļ
in s
ol i
l io
Ġà®İà®© à¯įà®±
ou v
a q
ĠÐ¼Ð¾Ð¶ Ð½Ð¾
Ġm ÄĽ
ĠÄ Į
Ġ ãģ¨
áĥ ĸáĥĶ
ĠÐ¼Ð¾Ð¶ ÐµÑĤ
à´ ¾
ĠØ§ÙĦÙħ ÙĨ
i Äħ
Ġà¤¸ à¤Ĥ
it t
Î¼ Î·
ÙĬ Ø²
à®¾à® µ
Ġm ar
Æ°á»£ ng
d s
Ġol m
as a
er en
f Ã¼
i x
ra v
Õ¸ Õ
Ġæ ī
Ġä¸ Ń
Ġent re
0 4
Ġsu a
Ð» Ð°Ð²
ĠØ¨ Ø¹Ø¯
Ú© Ùĩ
å¯ ¹
Ġng Ãły
ĠD et
ĠÐ´ ÑĢÑĥÐ³
ĠÐ ¥
à¦¨ à§įà¦¤
ĠØ§ÙĦØ° ÙĬ
Ġl ong
Ñı Ð½
å° ±
ujer es
Ġ" ,"
áº¯ c
ĠÎ ĺ
Ġà®ħ à®¤
is i
E R
Ø¹ Ùħ
i u
Ġst art
ĠØ¨ ÛĮ
an ti
ĠÃ§ ok
ĥ n
Ġ×ľ ×ŀ×
Ġn ur
is ta
Ġ×ĸ ×Ķ
áĥĶáĥ Ŀ
Ġa f
ìĬµ ëĭĪëĭ¤
ãĥ Ĭ
åĮ ĸ
Ġre ad
ãģ§ ãĤĤ
ĠÐ´ Ð¾Ð»
×ĳ ×ľ
Ġes p
Ł ¥
ĠÙĩ ÙĪ
Ġas s
ä» £
z ÉĻr
æı Ĳ
Ġà¤ Ł
ĠÚ© Ùħ
Ã² n
æŀ ľ
á»± c
am b
ëħ Ħ
ll er
Ġa ber
Ã¢ u
Ġt ake
Ġm ark
å· ŀ
¥ ¿
2 2
éģ ĵ
èµ °
Ġd on
ÑģÐº Ð¾Ð³Ð¾
áĥĺáĥ ĸ
Ø£ ÙĨ
Î¹ Î½
pe ct
le h
Ġ×Ķ× ¤
ĠK h
h ip
Ġà¦ľ à¦¨
je ct
Ñĥ Ñħ
Ð¾ ÑģÐº
Ã¡ p
âĢ ľ
ĠÏĢÏģÎ¿ Ïĥ
çĲ ĥ
è ĭ
ch i
c Ä±
ĠØ¯ Ø§Ø´
it i
Ġha ben
¥ à¸²à¸
åĨ Į
Ġä¸ Ģ
é ľ
Ġd apat
l an
áº· c
Ġ×ŀ× ª
Ø§ÙĦ ÛĮ
Ġï »¿
×ª ×Ļ
Ø§Ø «
ç» ı
ĠF r
ĠÙħ ÙĤ
Ġph áº£i
Ġì £¼
z Äħ
Ġsa id
ÙĨ Ø©
Ġbe cause
ĠÐ¾ Ñĩ
á» ı
Ġà¤Ĩ à¤ª
m y
g an
é ¦
áĥĺáĥ ¨
æ° ĳ
é Ķ
Ľ à¸£à¸°à¸
as jon
èµ Ħ
Ð¾Ð³ Ð´Ð°
à±ģà° ¤
W W
ĠÙĪ ÙĤ
áĥĿáĥ ¤
å® ŀ
Ġs to
éĿ ¢
Ġv iá»ĩc
à¥įà¤ ®
u jÄħ
Ġë³ ´
Ġon der
l ÉĻ
at z
ier en
Ġpro p
Ġth Ãłnh
Ġ [
×Ļ× ¦
it s
ol a
¦ Ĥ
åĬ ¿
k eit
c ciÃ³n
å ķ
Ð´ Ðµ
j ÄĻ
ħ n
ĠØ£ ÙĬ
Ġà®ļà¯Ĩ à®¯
Ġth Ã¬
Î¼ ÏĢ
Ġre m
ĠT Ã¼rk
Ġáĥ¡áĥĲáĥ ¥
h t
ĠæĪ ĳ
åħ ĥ
à¥ĭ à¤Ĺ
Ġl le
Ðµ Ñī
Ġinform ation
ìĻ Ģ
Ġme hr
Ĺ äº¬
il m
ĠØª Ùħ
Ġ Ô
ag ai
± c
Ð½ÑĭÐ¼ Ð¸
Ġr ic
en a
O N
Ð°ÑĤÑĮ ÑģÑı
Ġ á¼
áº± ng
is mo
Ġd urch
ï¼Į ãĢĳãĢĲ
×Ļ× Ĺ
uy Ãªn
Ġb es
Ġb ien
ĠW WW
è´ ¹
Ġn ÄĽ
Ø¹ Ùĩ
ĠS o
áĥķ áĥĶáĥľ
Ã Ĭ
Ġc or
à§ĭ à¦¨
· à¸Ń
à¯įà® ®
×¨ ×Ļ×Ŀ
ãĥ ĵ
ĠÑį Ðº
Ġto d
Ġs in
Ġprze z
éķ ¿
Ġhá»į c
Ø§ Ú©
ÏĦÎµ ÏĤ
çľŁ äºº
äº §
Ð Ķ
ÑĦ Ð¾ÑĢÐ¼
Ð»Ñİ Ñĩ
Ġm uy
ĠÏĥ ÏĦÎ±
Ġus ed
un u
åį ļ
Ġm ade
ter n
ĠØ´ ÙħØ§
Ġê³ ł
Ġbe l
ģà¸ ±à¸
å®¢ æĪ·
ì¶ľìŀ¥ ìĥµ
Ġ×Ķ× ł
ì¹ ´
âĢĮ ÙĩØ§
Ð°Ðº ÑĤ
µ ľ
Ġçľ Ł
à®¾à® ¯
ÎĻÎ ļ
Ġs im
ĠÎ¤ Î¿
Ġà¦¬ à§įà¦¯
ĠL os
ÐµÐ½ Ð°
Ġde velop
à¸£à¸µ à¸
Ġà¦¨ à¦¾
çĻ» å½ķ
Ġk i
ĠØ§Ø ¹
à§ģ à¦¨
n Äħ
¶ à¸
è »
áĥĲáĥł áĥĺ
u an
Ð°Ð½ ÑĤ
ÉĻ lÉĻr
gr am
ĠÐ½ Ð°Ð¿
Ġde ze
ĠãĢĳãĢĲ ï¼ĮãĢĳãĢĲ
¡ à¸²
ÙĪ Ø³
Ġna j
Ñī Ðµ
Ãº c
ar ch
Ġåľ ¨
ĠÎ¼ Î±ÏĤ
áĥ ĸ
Ġn u
Ġà¤¸ à¤¾à¤
ÐµÐ½ Ð¸Ð¸
al th
Ġf am
ĠgÃ¶ r
ĠÏĢ Î¿
×¨ ×Ľ
ĠáĥĶ áĥłáĥĹ
×Ļ× ļ
Ġin st
Ġm ak
ĠÎ ¾
6 6
ĠÙ¾ ÛĮØ´
Ġm in
çĽ Ł
áº¡ o
ë¬ ¸
u i
Ġ×ĳ ×©
Æ¡ i
ant es
á»ĭ ch
Ñĭ ÑĪ
ĠÙĪØ§ÙĦ Ùħ
ĠÃª tre
æ º
Ð ľ
ĠE st
Ġfo i
ĠÙĩ Ø³Øª
Ġol an
ers t
è¿ Ļ
Ġs ystem
Ã¶ y
Ġ1 5
Ġáĥ¨ áĥĶáĥĽ
Ð¿ÑĢ Ð°Ð²
Ð¸ÑĤ ÑģÑı
Ġ×ķ ×Ĳ
ĠpÅĻ ed
Ġà° ²
Î± Î»
ãģ ļ
Ð¸ Ð¿
Ġexper ien
à¹ī à¸Ļà¸
Ġs v
s ze
à¤¨ à¥Ģ
Ġqu y
à°¨ à±ģ
Ġy a
el t
ll es
à§įà¦ ²
ĠA uf
Ð° ÑİÑī
§ à¸´à¸
Ġ×ŀ× Ĺ
Ġse u
9 9
Ġà¦¬ à¦¾à¦
£ p
ai res
Ġà¤ī à¤¨
ĵ à¸
Ġs al
Ġa Ã§
Ġtr ans
á»ĩ n
l ine
ĠÂ ¿
ãĤ ĥ
Ð°Ð¶ Ð´
Ġb o
Î³ Îº
Ġv ar
s a
ÅĤ ad
ĠÏĥ ÏĦÎ¹
ÙĦ Ø¨
Ġà¦ ¡
Ġ×Ĳ ×ľ
ut z
à§Ģ à¦°
ci ones
ĠÚ¯ Ø±
Ð½Ð° Ñĩ
ĠìĹ ¬
į è´¹
± à¹īà¸
ĠëĤ ĺ
d ir
Ġad a
Ã³ r
iá»ģ n
à°ķ à±ģ
å± ķ
no ÅĽci
æ³¨ åĨĮ
Ã´ n
à¥ģ à¤°
E W
i ad
ĠØ³ Ø§Ø²
Ġk ad
Ġpr Ã©
p res
Ġk al
ÑĢ Ð°ÑĤ
Ġprov id
åħ ³
ĠThe re
ÎµÎ¹ ÏĤ
ì§ Ħ
ĠÑģ Ð¾Ð²
Å Ī
Ã¤ r
Ġì ¤ĳ
à´¾ à´
à±Ĩ à°²
Ġa iad
Ġaiad ingin
ĠÐºÐ¾Ð¼ Ð¿
.. ..
it ed
ĠÏĢÎµ ÏģÎ¹
ãĤ¤ ãĥĪ
Ġë ²
Ġhe re
ÃŃ c
Ġle bih
ust om
ãģª ãģ©
ê³ Ħ
Ġth ink
Ã¢ m
æ´ ²
ä» ¶
a Å¼
Î³ ÏģÎ±
Ġ Å
é ł
ÑģÑĤÐ² Ð¾
ot her
ìķ ¼
ĠÎ ¶
íı ¬
nie j
n ost
åĪ Ĵ
ĠÏĢÎ± ÏģÎ±
Ġ1 3
Ð¾Ð¼ Ñĥ
iá»ĥ m
Ð¸Ðº Ð°
ari os
Ġà¦¤ à¦¾à¦°
Ø¦ ÙĬØ³
×Ľ ×ľ
è¿ ĩ
Ġ äºļ
à§ĩà¦ķ à§ĩ
ĠÐ¾ Ðº
Î¯ Î¿Ïħ
áĥ ¤
Ð² Ð¾Ð´
ĠÄĳ i
Ð½ Ðµ
sch l
åĬ ¡
Ġk om
Ġy er
Ġc all
Ġ×ŀ× ¢
ĠÑģ ÐµÑĢ
å± ±
Ġ) ,
ê° Ħ
å®¢æĪ· ç«¯
ĠÙĩ Ø±
ĠÐł Ð¾ÑģÑģ
ĠÐ· Ð°Ð¿
àµģ à´
ãĤ ĩ
çī ©
Ġbe ing
å» º
Ñĭ Ð¼
à¹ĥà¸ Ĭ
æŃ £
u a
Ð¾ Ñī
ÐµÑĤ ÑĮ
à¦ķ à§įà¦·
Ć Ĉ
Ġques to
Ġwor den
Ġ Ã¼
Ġn Æ°á»Ľc
ĠØ³ ÙĬ
ÙĪ Ùĩ
Ġë¶ Ģ
m s
ow ych
ĠÎºÎ± ÏĦÎ±
E S
ĠØ Ł
×¨ ×Ķ
ĠÙ¾ Ø±
ÑĢ Ñı
Ġdo es
Ġ Å¾
à®Ļ à¯įà®ķà®³
Ġse xo
Ġê ±
Ļà§įà¦ Ĺ
ĠØ¨Ø§Ø´ Ø¯
ess o
ë £
à®¾à® ³
ĠÃ ľ
è Ĭ
è Ĳ
Ø¯ Ø±
ãģĹ ãģĦ
ãģ¾ ãģĽ
ion i
Ġth ose
Ð¾Ð» Ð¾Ð³
en i
ĠØ§Ø ¬
ÙĪ Øª
Ġbe fore
ł à¸²à¸
ĠP er
æ ¶
ÎĹ Î£
×ĵ ×Ļ
he id
Ġ $
Ġk ull
ÐµÑĢ Ð°
é ĵ
Ø§ÙĦ ÙĬ
Ġà®ª à¯Ĩ
g er
à¦ Ľ
an e
ĠN EW
£áĥ ļ
áº¯ t
Ġå Į
Ġê³ µ
à±įà° ļ
ê ¹
Ġdi d
ĠÐ ¯
Ġà¤¯ à¤¹
Ġà® °
P art
å°ı æ¸¸æĪı
Ð³ Ð°Ð½
ÑģÐº Ð°Ñı
Ã¡ y
al iz
Ġs ul
lic hen
à§įà¦ ®
à¸Ń à¸²à¸
çĻ ¾å®¶
ĠÐ± Ð¾Ð»ÑĮÑĪ
ĠÐ´ ÐµÐ»
p at
Ġh and
à¸Ń à¸£
ĠìĿ ¼
ĠÑĤ Ð¾Ð»ÑĮÐºÐ¾
åĳ ĺ
Ġdis c
áº¡ t
ĠÎ± ÏĢ
Ïģ Î¹Î±
ĠØ¬ Ùĩ
ÑĢ Ð°Ð²
5 5
Ġn uev
O S
p r
çī ĩ
ĠÐ² Ð¾
ÐµÐ½ Ð½Ð¾
áĥĺ áĥĺáĥ¡
b a
é ĥ½
ĠP ara
ĠÛ °
ì¹ ĺ
Ġt iáº¿
Ġë§ Ī
ĠØ¯ Ùĩ
Ġv ocÃª
ar an
ĠÎ¼ Î¹Î±
ĠNEW Part
è £
Ġwor ld
Ġìĥ ģ
u ally
ĠÐ¸Ð½ ÑĤÐµÑĢ
ci o
Ïģ Î¿Ïħ
Ġand a
A R
ãĥ »
ĠØ§Ø ®
ĠÎ´ Î·
ÏĦ Ïħ
Ĥ à¸Ńà¸ĩà¸
ÏĦ ÏģÎ¿
Ġc ette
Ġa le
Ä±n Ä±n
Ġor az
ĠÙĬ Ø¹
à®¿à®Ł à¯įà®Ł
è§ Ħ
ĠÛ±Û³Û ¹Û
Ð¸Ðº Ð¸
E N
à§ĩà¦ Ł
à°ª à±įà°ª
âĢ į
Ġâ ĺ
ĠÐ¿Ð¾Ð» ÑĥÑĩ
Ġl ife
Ġà¦ı à¦¬
ÙĤ ÙĦ
y i
al ity
g un
Ð° ÐµÐ¼
ak i
ÙĪØ± Ø©
ÑģÑĤ ÑĮ
Ġes s
Ġç ļĦ
Ġt ers
ãĥ¼ãĥ ī
Õ µ
ĠØ§Ø µ
Ġal t
à°² à±ģ
Ġ×ŀ× ¡
d t
Ġà¦¨ à¦¿à¦
ĠP ar
à®¾à® ®
Ġg Ã¼n
Ġå ¼
Ġ×Ķ ×ķ×Ĳ
ãĥ Ķ
ar dz
åı ĸ
Ġs el
Ġn um
æ ģ
Ġto do
íĶ Ħ
ĠÎ¿ ÏĢÎ¿
ĀĀĀĀ ĀĀĀĀ
Ġa i
ÑĢ Ð°Ð¼
Ġcomp le
Ġc i
Ġne j
ÙĪØ± Øª
åĭ ķ
Ð¸Ð¼ Ð¸
ĠØ¯Ø§ÙĨ Ø´
à¸² à¸Ļà¸
ì¶ľìŀ¥ ìķĪë§Ī
od z
Ø® Øµ
ent ly
Ġb il
Ġï¿½ï¿½ï¿½ ï¿½ï¿½
æĬ ¥
ĠÐ¶ Ðµ
al Ä±
áº© m
Ø§Ø® Øª
Ġwe ek
Ġà®Ĵ à®°
à¦ķ à§įà¦¤
á»ģ n
ìŀ Ħ
Î ļ
- -
ĠØ¨ Ø¯
ÏĮ ÏĦÎµ
iv es
Ġe ach
Ġ×Ķ× §
ce k
Ġal le
ÑĥÐ»ÑĮ ÑĤ
ÏĢÎ¿ Î¹
Ġp a
Ġs áº£n
ic her
b t
à¸Ńà¸ ¢
ĠÐ¿ÑĢ Ð¾Ð²
ĠH o
çŃ ī
ĠØ¢Ùħ ÙĪØ²
el le
Ġt Ã´i
inh a
Ġç »
åĲ į
Ġn uest
âĢ Ŀ
¨ à¸
ĠÃ© ta
Ġ×ľ ×¢
á»Ļ c
ur r
à°² à±ĭ
ãĥ¼ãĥ ł
Ġà®µ à®°
Ġ×ĳ ×ª
ë§Ī ìĤ¬ì§Ģ
Ö Ħ
à¤ «
Ġb is
in ÉĻ
Ð°Ð½ Ð´
Ġf ree
à¥įà¤ ²
ĠN am
à¹ī à¸Ļ
ÃŃ as
n Ã½
u res
Ġje g
ç ¬
à§ĭ à¦Ĺ
¾ Ļ
Ġ Ø§Ø¯
Ì Ģ
Ġde c
åħ¬ åı¸
ĠÐ¿ Ð¾Ð²
Ã ľ
ĠÙħ Ø±Ø¯
Î´ Î¹Î±
éĹ ´
Ð» Ð°ÑģÑĤ
Ľà¹ĩ à¸Ļà¸
ĠÚ©Ø´ ÙĪØ±
Ġv is
ambi Ã©n
b ay
ĠÙĪ Ø¨
Ã Ĵ
à¦¾à¦ Ĺ
Ġpr im
à®³ à¯įà®³
à¤² à¥ĩ
ĠØ§ÙĨ Ø¯
Ġne lla
ĠÎļ Î±
ĠØ§Ø³Øª Ùģ
ĠØ§ÙĦ Ùĩ
è¨ Ģ
à¤ ĸ
Ġb ag
å¾ Ĺ
Ġx u
ĠÙħ Ø·
æ° ´
Ġ×Ķ× ¡
Îµ Ïģ
ãĥ³ãĥ ī
Ġhe eft
ÏĢ Î¬
Ġad v
Î¼ÎŃ Î½
« áĥļ
ĠÙħ Ùĩ
Ġâ Ļ
Ġ à¶
æµ ·
et s
Ġch ÃŃnh
Ġin n
ent os
Ð¸ ÑĪ
Ùĩ ÙĨÚ¯
Ð¸ ÑĢÑĥ
áº¥ n
h re
Ð»Ð¸ Ñĩ
ÙĪ Ø¬
al k
áº« n
Ġe as
m an
ĠÙģ ÛĮ
Ġáĥ ĸ
ĠÎł Î±
ĠÂ ¹
Ġhá» £p
t es
à°¿à°ķ à°¿
l u
bay c
Ġm es
Ġund er
l en
ĠÑģ Ð¾Ð±
áĥĲáĥłáĥĹ áĥķáĥĶáĥļ
ĠB ut
Ø±ÙĪ Ø´
å¤ ĸ
Ġnh Ã¢n
à¥įà¤° à¥Ģ
ãģ¾ãģĽ ãĤĵ
ÙĪÙĦ Ø©
ÙĬ Ø«
Ð Ľ
Ã³ ÅĤ
ÐµÐ½ Ð¸Ð¹
Ġà¸ Ħ
ĠÐĿ Ð°
ç ·
ÐµÐ½ Ñĭ
Ġf az
ĠÑĢ ÑĥÐ±
ĠÙĦ Øª
ìļ °
& #
Ġqu an
ion es
ç Ŀ
Ð¾ÑĤ Ð¾Ð²
Ïĥ ÏĦÎ·
Õ¥ ÖĢ
Ã Ģ
éĩ Į
m os
Ġex p
ar u
ĠÐ»Ñİ Ð±
Îĳ Î£
à®¿à® ªà¯įà®ª
Ġe le
Ã¡ ri
Ġar t
ĠÂ ¡Â
à¦¦ à§ĩà¦°
Ú¯ Ø§ÙĨ
Ð¼ ÐµÑĢ
Ġfa it
id os
à¨ ¾
ĠØ§ÙĦÙħ Ø´
u ro
æ į
Õ¡Õ ¯
ÐµÐ¼ Ñĥ
Ġä¸ į
à¹ Ĩ
Ġd aha
åº ¦
×ķ× ĺ
ĠØ§Ø³ØªÙģ Ø§Ø¯Ùĩ
à°¿à° ¯
Ġag ain
ĩà¸´ à¸Ļà¸
Ġà¦¸ à¦Ĥ
ÙĪ Ø§Øª
ä¿ Ŀ
C I
Ġc os
Ġh v
Ġme er
Ġse k
ĠÐŀ ÑĤ
Ġs am
Ïħ Î½
Ġ20 0
Ġç Ļ
ĠÐŀ Ð±
ĠÚĨ Ùĩ
Ø±Ú© Øª
ĠìĿ ĺ
Ø§ Ùĥ
Ø® Øª
Ġ uy
Ġà®µ à¯ĩ
ĠÐĴ Ñĭ
Ø« Ø±
ãĤĮ ãĤĭ
an yak
èµ° åĬ¿
ĠáĥĶ áĥ¡
ĠkÃ¶n nen
ÑıÑĤ ÑĮ
Î³ Î¿
Ã Ķ
ci on
al Ä±ÅŁ
Ġen d
ìĿ¼ 1
æĬķ æ³¨
ãĤ¹ ãĥĪ
ĠØ¨Ø§Ø² ÛĮ
Ġte ch
ĠØ£ Ùħ
Ġìľ Ħ
Ġà¤¹ à¥Ģ
Ä±ÄŁ Ä±
ìĦ ¸
ç ©
à¯ģà® ªà¯įà®ª
Î¸ ÎµÎ¯
Ġà¦ı à¦ĩ
Ġc al
Ġsupp ort
Ġ×Ķ× Ľ
w ay
ĠÐ¡ ÑĤ
à¦ «
ĠØ¯ Ø§Ø±Ø¯
Ġw ur
ÛĮ Ø³
Ã ĭ
ĠIn d
ĠÄĳá»ĭ nh
ĠÐ² Ð½
Å¾ ÃŃ
p f
r ie
ÎŁ Î£
Æ° a
éĢ ļ
Ïģ ÎµÎ¯
à¸Ļ à¹Į
Ġs Äħ
idad es
å½ ±
Ġpro f
íķĺ ê³ł
Ġà¦¥ à§ĩà¦ķà§ĩ
c r
Ġm Ã©
ies z
à¤¾à¤° à¥Ģ
Ð¾Ð² Ð¾ÑĢ
ĠO n
el en
ãĥ į
Ġp em
ĠØ§ÙĦÙħ ØŃ
æĹ Ĺ
à°¿à° ª
ĠØ¨ Ø®
Ġ×ĳ ×Ķ
à¤¯ à¤¾
ac y
á Ł
on y
ÉĻs i
Ġh Æ¡n
áĥĲáĥ ¤
b r
Ġs inh
ĠÙĪ ÙĬ
áº£ ng
Ã ĸ
Ðµ ÑĨ
Ħà¸ ¸à¸
Ġb ook
áĥĺáĥ¡ áĥ¢
Ġcom me
im iz
zÉĻr bayc
Ø² Ø´
à°Ĥà° ¡
åį Ĺ
ìľ Ħ
ãģ¨ æĢĿ
Ø§ÙĨ Ø¯
Ġsu b
Ġc le
Ø ¡
Ùģ Ø³
Ġk o
Ð¿Ð» Ð°ÑĤ
ĠÐļ Ð°Ðº
Ġz ap
Ġà¸ ŀ
Ð¸ Ð¾Ð½
ĠÐ½Ð° Ñĩ
w y
Ġ Æı
Ã¡ z
ĠØ¨ Ø¹
iv ing
Ġí Į
he d
Ġpro cess
ÙĦ Ùĩ
ĠN o
ar Ä±
Ġon t
amp ai
Ł à¸
ĠÙĬ Øª
ĠÎ¼ Î±
Ġc ustom
ĠÙĨ Ø´
ĠÐ½Ð° ÑĪ
æľ Ł
l ed
A N
Ġà¦Ĩ à¦°
×ķ ×Ļ
ĠÂ £Â¬
Ùĥ Ø§ÙĨ
ij d
Ġfa ire
áĥĲáĥ ĳ
ous e
re i
à±įà° ¸
ĠV iá»ĩt
h a
ion al
Ð¾ÑģÑĤ ÑĮ
Ġwh ile
Ġà¤¤ à¥ĭ
Ġm i
ãĥķ ãĤ
Ġà¸ Ĺà¸
æ¬ ¾
j or
ĠÄĳá» ģ
à¦¾à¦ ¶
à§ĩ à§Ł
ĠÙĬ Ùħ
u es
ĠØª Ùĩ
Î¹Îº Î¿
Ïĥ Îº
Ġess ere
ĠÙģ Ùī
ler in
Ġm Ã¬nh
ĠÑģÑĢ ÐµÐ´
Ġc ao
ll ow
t u
Ġar ound
í Ĵ
ro v
ot os
à¦² à§ĩ
æĬ Ģ
ĠD es
Ġkh o
re d
ĠÑĥ Ð´
i ous
åħ įè´¹
ãĥĥ ãĥĹ
Ġê ¹
åĬł çĽŁ
ĠØ¬ Ùħ
ĠÐº Ð¾Ð»
Ġn as
Ø§Ø± Ùĥ
ÙĨ Ø³
am iento
Ġ×© ×Ĳ
åĽ ŀ
Ġ×Ķ× Ĵ
áĥĿáĥ ª
ĠÐ¸ Ñħ
à¦¾à¦¦ à§ĩà¦°
ÙĤ Ø±
à±įà° ®
à± Ĥ
ĠØ® Ø±
à¤¿ à¤°
in es
ar n
ĠìĦ ľ
Ġ×Ĳ ×ķ
Ġs Ã£o
Ì £
1 1
Î´ Î·
Ãª me
Ġé Ģ
ÐµÑģ ÑĮ
ĠÐ±ÑĥÐ´ ÐµÑĤ
×ŀ ×¨
ê³ µ
äº ¤
Ġ×ľ ×©
ÙģØª Ùĩ
Ġngh iá»ĩ
Ġc are
ìķ ½
Ġz ÅĤ
à° ¹
Ð°Ð¹ Ð½
à¹ī à¸Ńà¸ĩà¸
ct os
à¥įà¤ ¥
á»¥ c
iv ers
à¹Ħà¸ ¥
Ġì¹´ ì§Ģëħ¸
áĥĹ áĥĲáĥľ
Ġë į
Ġge b
Ġoff er
à¸Ļ à¸²à¸
at her
ÎŃ Î½
Ġ; &#
ĠÄĳá»ĵ ng
ê ´Ģ
Ġle ad
lÄ± ÄŁ
ĠØ§ÙĦØª Ø¹
ĠSe xo
èĪ °
ĠT er
áĥĲáĥ ĸáĥĶ
ãĤ ±
ä» ĺ
ģ à¹Ģà¸
à§ĩà¦ ¤
ì ¡°
è®¡ åĪĴ
ĠÐ± Ð¾Ð»
at en
ĠáĥĲáĥ ĵ
ĠÎµ Ïħ
m et
åĨ Ĩ
Ġav ail
æ §
ay an
and e
á»ĳ t
ÄĽ l
et t
Ġà®ĩ à®¨à¯įà®¤
Ġpl ace
Ġæ Ń
Ġm ol
Ġå½ ©
s ta
æīĭæľº çīĪ
Ġ0 9
à¤¾à¤ ĩ
ÐµÐº Ñģ
ÙĢÙĢ ÙĢÙĢ
Ã¶ v
Ä±l m
p s
Ïī ÏĥÎ·
ch o
ĠØ§Ø ¨
ÑĤ Ð¾Ð±Ñĭ
Ĺà¸ ¢
ĠØª Øµ
Ġáĥ «
ones ia
ç¤ ¾
ien do
Ø¯ Ø¯
à° ľ
ÏĮ Î½
ĠV or
ĠØ± Ø³
Ġ201 7
èµĽ è½¦
Ã¡l nÃŃ
Ġk ur
Ð¸ Ð½Ñĭ
Ðº Ð¾Ð¹
ÄĻ p
Õ¡Õ µ
ĠÎ¼ ÏĢÎ¿
åĲ Į
ĠÑĩ Ð°ÑģÑĤ
à¯ĩ à®°
ª à¯į
Î¾ Î·
x x
Ġà¦ªà§įà¦° à¦¤
çĽ ®
éĩ į
h od
re t
à¯Īà® ķà¯įà®ķ
Ġold uÄŁ
Ãº n
s che
at to
Ïİ ÏĤ
é ©
uy á»
Ġlo ve
l ijk
g t
Ġt ym
áĥĿáĥĳ áĥĺáĥ¡
Ð» ÐµÐ½Ð¸Ðµ
_ _
Ġil ÉĻ
Ú© Ø³
p le
eb ut
ç® ¡
Ø§ÙĦ Ø©
Ġì Ľ
Ġm ad
ov at
ãĥ Ģ
Ġg es
ĠØ² ÛĮ
æ ¡
ction s
b b
Ġáĥ¨ áĥĶáĥ
áĥ£áĥ ľ
Ġcomm un
Ġest Ã¡
ĠdÃ© c
æĦ Ł
amb Ã©m
×ĳ ×¢
Ùģ Ø±
le ase
Ï Ĭ
Ġre ally
em os
Ġb ah
Ġtr ab
Ġ ãģ®
Ġla v
Ġch ild
à¥ģ à¤²
ä» ĸ
Ġde f
ĠÐº Ð»
Ð¾Ð²Ð°Ð½ Ð¸Ñı
íĸ ī
Ġthe o
ĠáĥĹ áĥĲáĥķ
Ġà¤ķ à¤¹
ê¸ Ī
d ad
ä½ į
Ġà¦ §
ĠThe y
ĠØ· Ø±
Ġà¤² à¥ĩ
×ŀ× ª
ĠãĤ ·
ĠØª ÙĪØ§ÙĨ
Ø§Ùħ ÙĦ
ØªØ± ÛĮÙĨ
à¦¿à¦ ¶
Ġà¸ ķ
ì ¶Ķ
æĹĹ èĪ°
é ļ
ãģł ãģĳ
d Ä±r
Ġc Ã²n
Ġìķ Ī
ĠM e
íĶ ¼
« à¸Ļ
Ġge Ã§
l and
iv a
Ø±Ùĥ Ø©
Ġg ro
ÏĮ ÏĤ
Ġï¼ Ł
ê² ½
ci p
Ñı Ð²
7 7
á»ĳ n
Ġáĥĺ áĥľ
ĠÎ ¥
Ġà¦ ĺ
re is
Ð² ÐµÑĢ
Ġp ost
Ġdiffer ent
ĠA zÉĻrbayc
to v
×ĵ ×¨
Ġn Ãªn
Ġto t
ĠÂ ½
ÐµÐ» ÐµÐ¹
Ġãĥ ķ
Ú© ÛĮ
ĠÏĥÏĦÎ¹ ÏĤ
Ġáĥĺ áĥĽ
Ġy aÅŁ
ëª ħ
ä½ ¿
Ġpu b
Ġe ller
Ġà¤Ĩ à¤¹
Ġí Ĩ
Ġmá» Ľi
ĠktÃ³ re
Ġtrab aj
ĠØ¢ÙħÙĪØ² Ø´
ÛĮÙħ Øª
Ġ×ľ ×¤
er d
l ia
Ġæĸ °
Ġí Ķ
c ji
à®¿à® ´
Î¯ Î¶
à¯ģà®³ à¯įà®³
íķ Ļ
Ġne bo
à¤¾à¤ Ī
Ġm ag
ĠÏĢ ÏģÏĮ
ĠØ§ÙĦØ º
A S
ue l
è ¥¿
Ġà¦ıà¦¬ à¦Ĥ
é ħ
Î¯ Îº
åı Į
Ġtr a
Ġpel o
Ð¾Ñģ ÑĮ
ĠáĥĴ áĥĲáĥĵ
çī ¹
å¥ ĸ
Ġwor dt
ÐµÐ¶ Ð´
Î¯ ÎµÏĤ
Ø¹ Ø±
Ġ ãģ¾
ied er
à±ģà°² à±ģ
é ¾Ļ
×ł ×Ļ×Ŀ
ĠNe w
Ġpos s
ĠÐ¿ÑĢÐ¾ Ð¸Ð·
å ¢
Ġc Ã¡ch
Ġd it
Õ ¿
à°¾à° Ĥà°
Ġmo Å¼
z za
ĠÃ ´
ĠÎ Ī
ĠM ad
Ø±ÙĬ ÙĤ
íķ ł
Ġà¤ķ à¤¿à¤¯à¤¾
ap i
çĻ º
Ø§Ùĩ Ø¯
t z
Ġs ign
Ø§Ø³ ÛĮ
áĥĶáĥł áĥĺ
Ġfor m
Ġimp ort
ĠÐ³Ð¾Ð´ Ð°
è¡ ¨
iá»ĥ u
Ġs á»Ń
Ġus ing
Ġpro gram
à®ªà¯įà®ª à®Ł
ãģª ãģı
ĠÐ´ ÐµÑĤ
ĠP our
iá»ĥ n
Ġ×ĳ ×¨
Ġth áº¿
è¯ ´
che r
ç ³
ĠÎºÎ± ÏĦÎ¬
è· ¯
w ays
áĥĿáĥĳ áĥĲ
ĭ Ĺ
ĠÐ¼ Ñĭ
a uf
ãĥ ¯
Ð» ÑĮ
Ġæ µ
y on
Ġl l
Ġà¤¹ à¥ģà¤
Æ°á» Ł
à¦ ¡
at ch
is k
Ġte am
Ġë Ĳ
åĨ ħ
Ġd á»±
Ġ1 4
áĥĲáĥ ¦
à¤¾à¤¨ à¥ĩ
as on
Ġk ung
à¦¦ à§įà¦
ëŁ ¬
ìŀ ħ
ĠØ¯ Ø§Ø¯
Ġêµ ¬
ãĤ º
Ġs ol
Ġo leh
Ġì ¡°
ĠÐ° Ð½
à°¿à° ²
im ento
Ġk j
Ġtr Ã¨s
Ð» Ð°Ð³
ä¸ İ
ê² ©
if ic
Ġf un
Ġè¿ Ļ
Ġr Ã©s
Ġprz ed
à°¾à° ¤
ĠØ® Ø¨Ø±
ĠÐ ¨
il ik
Ġç İ
Ġb ÄĻ
Ġv ol
Î¼ Î®
t Ä±
· à§įà¦Ł
ãĢ ģ
±à¸ ģà¸
Ġ áĥĲáĥľ
à¤ķà¥įà¤ ·
Ġpued e
Ð £
on as
ãģ§ãģĻ ãģĮ
ÃŃ s
Ġ1 8
ie le
Ġc Æ¡
à¹ĥà¸« à¹īà¸
à¤ķ à¤°
è® ¾
we en
ĠGr atis
Å¡ tÄĽ
æĶ ¿
Ġl ar
à®¤à¯įà®¤ à®¿à®²à¯į
p or
Ġsom et
Ġh im
ìĹ Ń
ĠÐ¼ ÐµÑģÑĤ
Ã¤ ng
ĠÐº Ð¾ÑĢ
Ġsa u
ĠãĤ ³
Ġwe it
Ġà¤Ĩà¤¹ à¥ĩ
Ġdes de
ĠÐ³ ÑĢ
ĠØ° ÙĦÙĥ
ll i
: :
ì ¦
Ġmu ito
Ġn ov
Ġto p
à¤Ĥ à¤¦
çł ģ
ek a
ãĤĤ ãģ®
ĠØ¬ Ø¯ÛĮØ¯
à°¿à° °
Ġw el
Ġu 04
re ct
ĠÃ§ alÄ±ÅŁ
ĠÕ °
ĠÏħ ÏĢÎ¿
it as
Ġthá» Ŀi
ĠPor no
ĠW ir
im es
Ġì¶ľìŀ¥ ìķĪë§Ī
ĠÐ¿ Ð¾Ð·
ÙĬ ÙĪ
ĠP o
Ġlas t
æĥ ħ
à¦¨ à§ĩ
Ã ĥ
ĠØ¨ ÛĮØ´
×ľ ×Ļ
ĠS h
Ã «
Ġr áº¥t
à¦ķ à¦¾à¦°
ÐµÐ» Ð¾Ð²
b ie
Ġv al
j er
ĠØ§ÙĦÙħ Ø³
g gi
à¸Ń à¸Ńà¸Ļ
szy st
Ã¨ me
s te
ĠÃ© tÃ©
×ķ×ł ×Ķ
à°Ł à±įà°Ł
áº¿ u
Ġbe c
Ġs ame
Ġb oth
Ð± Ð¾ÑĢ
ĠÐ´ Ð¾Ð¼
oor d
u at
ĠáĥĲáĥ ¡
Î¹Îº Î®ÏĤ
Ġh Ã¬nh
Ġa ir
Ġfe el
ÑĥÐ¿ Ð¸ÑĤÑĮ
Ġno g
ÙĦ ÙĤ
Ġtr Æ°á»Ŀng
owe j
ç¨ ĭ
Ġg u
al t
à¸£à¸±à¸ ļà¸
ĠØ§ÙĦØ ²
à° ¬
Æ°á»Ł ng
ÄĽ t
ÙĨ Ø§ÙħÙĩ
ľà¸ ¹
ĠÐ ¦
u Å¼
à®° à¯įà®ķà®³
íĴ Ī
p re
åĪ ¶
á»© ng
Ġv i
ÏĦ ÏīÎ½
Ùħ ÛĮÙĨ
ĠçľŁ äºº
Ġs Ã¥
à¸Ńà¸Ńà¸Ļ à¹Ħà¸¥
Ġserv ice
Ġgi or
ãĤĮ ãģ¦
m in
Ð¼ Ð¾Ð¶
×ķ× Ķ
à°¾à° ®
à¦¿à¦ Ł
à°Ĥà° ²à±ĭ
ĠÙģ Ø±ÙĪØ´
ãĥ Ŀ
Ġthá» ±c
r ag
×© ×Ķ
Ġì ½
Ġth Ã´ng
Ġëĵ ±
×ķ× ŀ×
ĠÚ©ÙĨ ÛĮØ¯
ÑĥÑİ Ñī
à¹ĩ à¸Ńà¸
g g
ĠK Äį
Ġà§¨ à§¦
à¹īà¸ §à¸
Ġáĥ¨ áĥĶáĥ¡
à¹Ħà¸¡ à¹Īà¸
Ġavail able
ĠM ar
ĠØ§Ø ´
áº¡ nh
Õ¡ ÖĢ
al is
Ġa Ã±os
ĠãĤ «
ĠI ch
ĠÐ» ÐµÑĤ
Ġgi bi
ìĿ¼ 2
p ow
Ġt ou
u w
Ġ1 6
ĠB er
Ã ģ
ĠãģĿ ãģ®
ĠA b
Ñı Ñī
Ïĥ ÏĦÎ¿
l os
es z
s p
Ø Į
ªà¸ ¸à¸
èµ°åĬ¿ åĽ¾
Ð¸ ÑģÐº
à¦¨ à§ĩà¦°
ĠÙĪ Ø³
ĠØ¨ Ø§ÛĮØ¯
Ġ×Ķ ×Ķ
ĠÐ¼ ÐµÐ½
ĠØ§ÙĦÙĬ ÙĪÙħ
Ġ +
o ÄŁ
Ġâ Ĥ¬
Ġbet ween
åķ Ĩ
ĠW y
Ġth ough
à¥Ĥ à¤¨
í ģ
ĠA d
Ú© ÙĦ
Ġla in
Ġst ill
à¦¾à¦ ļ
Ã¶ z
à§įà¦ ¨
Î¼ Î¹
ĠÛ² Û
Ġn i
ab ilir
Ð¸Ð» Ð°
Ġà° Ī
Ġop t
Ø§Ùģ Ø©
ÏĦÎ· ÏĦÎ±
ra u
Ġ×ŀ× §
Ġ Ã£
ÙĬ Ùĩ
n er
ĠÎ¸ ÎŃ
ĠÄĳ iá»ģu
Ġ×ľ ×ĳ
en de
ĠØª ÙĨ
Ġà¦ª à¦¾à¦°
Ñģ ÑĮ
Å¯ j
ĠÐ¾ÑĢ Ð³Ð°Ð½
Ð¸ Ð¶
á ¿
Ã ı
Ø§Ø¹ Ø©
ic ally
Ġcu i
à®® à¯įà®ª
d uk
Ġmark et
ÙĪ Ùī
Ġgo ed
k 10
ĠÙħ ÙĪØ±Ø¯
Ġp om
Ġm Ãªme
ĠWh at
ĠØ® ÙĦØ§ÙĦ
à°¾à° Ł
Ġthá» ©
Ħà¸§à¸²à¸ ¡à¸
ÑĨÐ¸ Ð°Ð»ÑĮ
Ġà¦ľ à¦¾à¦¨
ĠØ§ÙĦÙħ Ø¹
à¦¾à¦ Ł
Ã Ĥ
Ñĥ Ð·
Ġso ll
Ġt ambÃ©m
Ġv o
as an
æĺ İ
id up
ë° Ķ
Ġr un
Ð¸Ð½ Ð³
à¹Ī à¸Ļà¸
Ġs te
Ġpel a
ĠØ´ Ø±Ú©Øª
ĠØ¨ Øª
Ø¯ Ø§
à¤Ĥ à¤¤
à¸² à¸£
ĠÑĤ ÐµÐ¼
Ġf ound
è§ Ĥ
ÑĤ Ð¸
Ġun ter
Ð½ ÐµÐ¹
Ä±y or
ĠW o
èī ²
ut ion
Ġm Ã¥
à¦¾ à§ľ
ìĺ ģ
und en
Ð¾Ð± ÑĢ
ĠÐ¼ Ð°ÑĤ
å¾ Į
ĠÎ´ Î¹
ÃŃ n
id ent
å¼ ı
ãĥ ¢
Ġn ost
ãģ ¹
ĠìĬ ¤
Ġw enn
Ġl ot
Ġãģ Ĥ
Ġà¦ī à¦ª
en do
ĠâĢ ĺ
Ïĥ Ïī
Ġl u
áĥĲáĥ ¬
Ġp ol
Ð¸ÑĤÑĮ ÑģÑı
ri b
à¦¿à¦¤ à§ĩ
á»ķ i
a an
ĠÙĪ Ø¹
åı £
áĥł áĥĿ
Ð¸Ð· Ð½
ici o
Ġi hr
Ġâ Ĩ
e y
ĠÙĪØ§ÙĦ Øª
id er
Ġt an
à¦¾à¦ §
å¯ ¾
ĠÐ²ÑĢÐµÐ¼ Ñı
ĠÂ ³
Ġè Ģ
Ġs es
ĠG i
Ġjs em
ur as
ĠÐ¾Ð± ÑĬ
Ġt in
ÃŃ cul
Ġg ut
ç Ī
ç ²
Ġg ener
å° Ĩ
ĠÐ¸ÑģÐ¿ Ð¾Ð»ÑĮÐ·
on ne
ide o
Ġcomp any
Ġtr av
Î³ Î³
Ġâ ĸ
ĠÎ±Ïħ ÏĦÏĮ
æº Ĳ
ÐµÐ¹ ÑģÑĤÐ²
he it
ci os
Ġsh ow
Ø´ Øª
Ġâ Ķ
ÙĬ Ø§ÙĨ
ÐµÑĢ Ð¸
ĠáĥĲáĥ ¦
Ġgo ing
à¥ĩà¤ Ł
il is
ĠÑĥ ÑģÑĤ
at ure
à®° à¯įà®ķà®³à¯į
ĠT o
ĠÂ ·
Ïĥ ÏĦÎ±
Ĥ à¸Ńà¸ĩ
ze it
Ġt ambiÃ©n
ĠÐµ ÑģÐ»Ð¸
ĠB aÅŁ
à¹Īà¸ ĩ
Ġ Ø§Øª
Ġk á»
à¦¿à¦ ®
áĥķ áĥļ
Ġch i
etz t
Ġbe z
an i
ĠÙ¾ ÛĮ
Ġqu al
c el
Ġáĥ ¯
Ġ ide
çİ ©
Ġìŀ Īëĭ¤
à°¾à° ķ
ĠÑĩ ÐµÑĢ
Ġpar te
ĠÙĨÛĮ Ø²
ap a
ĠØ± Ø§Ùĩ
v iew
ĠÐ¾Ð± ÑĢÐ°Ð·
Ľ à¸£à¸
Ïģ ÎµÏĤ
om o
Ġto o
a ir
b ÃŃ
ĠÙ¾ Ø§ÛĮ
ĠÚ© ÙĨØ¯
Ñĥ Ð³
ĠØ£ Ùĥ
Ġmenj adi
ĠÙĤØ± Ø§Ø±
ãĤĬ ãģ¾ãģĻ
ĠãĤ µ
ÑĥÑī ÐµÑģÑĤÐ²
ĠØ§Ùģ Ø²
v ing
ĠÑĤÐ°Ðº Ð¶Ðµ
ung an
ĠØ´Ùĩ Ø±
Ð¸Ñģ ÑĮ
Î´ Î¹
ip o
Ð¾Ð½ ÑĤ
æ¬ ¡
ëĲ ĺ
Ġä» Ĭ
åº Ĺ
Ġäºļ ç¾İ
Ø¬ ÙĪØ¯
Ġdi v
Ø¯ Ùī
ë Ħ
Ġme jor
à° £
à¹Īà¸ §à¸
ãĥ Ļ
ĠÑĥ ÑģÐ»
Ġha cer
Ķ à¹Ģà¸
ª à¸´
und o
ÃŃ t
3 3
Ġw p
O R
Ġc our
æĢ İ
am an
owan ie
Ġkar ena
i kan
Ïħ Ïĥ
ĠìĨ Į
s er
ÉĻ c
d ah
Ð¼ Ð°
Ġmon th
à¹Ħà¸Ķ à¹īà¸
re ad
ill a
ow o
à¸Ļà¸µ à¹ī
c on
à®¾à® ®à¯į
ĠÙĤ ÛĮÙħØª
ed en
Ġ×Ķ× ĵ
ĠØ§ÙĦØ¹ Ø±Ø¨
ç ¦
à¥įà¤ ķ
ĠáĥĲáĥ łáĥ
e ur
à¦ Ļà§įà¦Ĺ
Ġters ebut
Ã Ī
ig li
Ġì Ļ
Ġl ub
ĠÂ ´
ĠN ach
Õ¸ÖĤÕ ´
Ġ Ã¼z
Ã¶ l
t on
Ã ĩ
åı ·
ĠæĹ ¥
è¿ Ĳ
ĠP ol
ĠÎŃÏĩ ÎµÎ¹
èµ Į
ĠÙĨ Ø§Ùħ
ĠÏĥÏĦÎ¿ Î½
ĠÎ± Î»Î»Î¬
Ð» ÐµÐ´
ĠW hen
Ġà¤¸à¤¾à¤ ¥
Ġm ain
Ø± Ø§Ø¡
b ar
Ġìľ ł
×¨ ×ª
ĠÐ· Ð°Ð²
Ġs aya
ĠÐ¿ÐµÑĢ Ð²
? ?
end re
Īà¸ °à¸
ĠãĢ ĭ
«à¸ ¥à¸
à°ķà±įà° ķ
u is
Ġmen y
à¯ģà® °
Ġà¤ķà¤° à¤¨à¥ĩ
owa Äĩ
Ġtien e
Ġrequ ire
ìĥ Ŀ
à¤¾à¤ ķ
r Ã¤
à¸µà¸ ¢
Ġw iÄĻ
Ġp are
Ġ×ľ ×Ĺ
uy á»ĩn
Ġde p
ici Ã³n
nÃŃ m
à§ĩà¦ ĵ
Ġà¤ª à¤¹
Ġke ep
é »
¡ à¹Ģà¸
ĠEs p
ĠåĮ Ĺäº¬
Ġis ang
ê° ķ
Ġãģĵ ãģ®
ĠØ§Ùħ Ø§
Ġw at
ĠÙĦ Ùĩ
ĠÂ ¼
é ª
ģ éĢŁ
ç ģ
Ġaus si
Ġel le
s ka
Ġà¦ķà¦° à¦¾
Ġd ata
ÑĥÑĩ ÑĪ
Î¿Ïį Î½
a ve
ru ik
Ãª u
itt le
à¤¾à¤ ı
il es
Ñĥ ÐµÑĤ
Ġinclud ing
Ġc ent
Ð ĳ
ĠØ§ ÙĪÙĦ
ĠÑĤ ÐµÑħ
f ahr
Ø§ÙĦ ÙĬØ©
ĠØ¨ Ùħ
ÃŁ e
a Ã§Ãµes
ĠÐ½ Ð°Ð·
à¦¾à¦ ģ
íĨ ¡
Ġinc re
Ġà® ı
ĠØ¨ ÙĦ
Ġger ek
Ć ć
p h
ìĭ ¤
Ġt a
ĠÑı Ð²
om b
Ġà° Ń
à§ĩà¦ ®
Ġt ÉĻ
ĠØ¢ Ø¨
Ġhe alth
ķà¸ ±à¸
ĠØªÙĪ Ø³
Ł ³
Ġen c
Ġb anyak
im i
Ġs ou
ÑĨ Ð°
in en
Ð ĵ
ÏĢ Î·
Ġkull an
ĠÐ¼ Ð¸Ð½
Ġf ue
à¤¿à¤ µ
Î¼ ÏĨ
ÙĨ ÙĬØ©
ig er
áº¡ ng
ĠÙģÛĮ ÙĦÙħ
Ġ×Ĵ ×Ŀ
ÐµÑĤ Ð°
Ġbu ild
è ¢
Ġp at
Ġsu dah
owan ia
à¦¾à¦ ĵ
ĠÑģ Ð°Ð¹ÑĤ
Ġäºļæ¸¸ éĽĨåĽ¢
Ġexperien ce
à¥įà¤ ¹
Ġg Ã¼
ĠÐ¿ÑĢ Ð¸Ð½
ìĦ ł
Ġv iÃªn
à¹ ģ
ĠÐŁ Ð¾
Ġnu ov
olog y
Ġse hr
ĠÂ µ
ĠÐ½ Ð°Ð´
Ġha pp
l aÅŁ
æľ į
ìĿ´ ëĭ¤
ÙĬ Ø¨
Ð¼ ÐµÐ½
Ġ×Ľ ×Ļ
lÉĻr i
ãĥ© ãĤ¤
ĠÐºÐ¾ÑĤÐ¾ÑĢ ÑĭÐµ
Ġ×¤ ×¨
scha ft
Ġw ater
ç³ »
Ġk ita
ĠÃ¼ Ã§
ĠØ§ÙĦ Ø§ÙĨ
ar on
á» £
in der
ãģĹ ãģ¾ãģĻ
os ta
ë© °
Ġpe ut
Ġkh Ã¡ch
ĠØ§ ÙĪ
ÛĮ Ùģ
à¦¿à¦ ¦
ce pt
Ø³ Ø±
Ġë ¹Ħ
à¸µà¸ ¢à¸
è§Ĥ çľĭ
¥ à¹ĩà¸Ńà¸
ĠÐµ ÑģÑĤÑĮ
Ø§Ø² ÛĮ
k s
à¸Ń à¸Ļà¸
Ø¹ Ø¨
Ð°Ð½ Ð¸Ð¸
Ġ1 7
á»į n
ang at
Ġor gan
à®¾à®Ł à¯įà®Ł
Ġà¤¸ à¤ķ
Ġé ĩ
ãģ¾ ãģ§
Ġjs ou
ä¸ ľ
ĠÂ ±
ãģĹ ãĤĩ
íķ ©
Ġdan n
Ùħ ÛĮ
åį ģ
¥à¸ °
Ġà¤¹ à¤®
am y
Øª Ùī
Ġy az
ª à¸²à¸
os ten
aci on
ķ à¸´à¸
ĠÃ Ķ
Ġl Ã½
åı Ĭ
Ð°ÑĤ Ð¾ÑĢ
Ġheb ben
Ùĩ Ø±
Ġpr Ã©s
ĠÐ³ Ð¾ÑĢÐ¾Ð´
ÙĨ Ø¬
Ġ0 0
A L
Ã¤ hr
ĠÐ¿ Ð¾ÑĤ
Ø¨ Øª
Ð° ÑĨÐ¸Ñı
T I
Ġ×ķ ×ŀ×
Ġsa ÄŁ
i Ã¨re
ĠØ§Ø ·
à¸£ à¸£à¸
ou ver
à¥įà¤ ¸
at Ä±
ĠA m
Ã ®
Ġå ¯
ÏĪ Î·
Ġfe w
l Ã¼
Ġr en
n ess
Ġà° ¶
Ġè µ
à§įà¦ ķ
èµ ·
ÙĤ Ùĩ
ĠÑĤ ÐµÐ»
ĠI m
Ã¶ g
Ġtech n
ne h
ãģĵãģ¨ ãģĮ
ĠÐ¾ÑĤ Ðº
Ġtrab al
ĠØ§ÙĦØ£ Ùħ
Ùģ Ø¶
ĠÃ§ Ä±k
ê± °
il en
d ÉĻn
le m
al ia
à§ĩà¦ ¬
ĠE x
à¸² à¸Ļ
le ÅŁ
¯ ¼
æ ©
ĠÐ´ Ð°Ð½
Ġvá» ¥
Ġà®µ à¯Ĩ
ad z
ÏģÎ¿ ÏĤ
ĠL as
ĠInd onesia
Ġì ¢
ĠÙĨØ¸ Ø±
à¤ķ à¥Ģ
Ġ×Ĳ ×ķ×ª
Ġà¤¥ à¤¾
Ġ *
Õ« Õ¶
ĠÎ¼ Î¿Ïħ
æķ Ļ
å ²
ĠÐ² ÐµÑĢ
Ġc áº¥p
Õ¥Õ ¬
in ya
Ġpod e
ĠÙĥ ÙħØ§
Ġn Ã¡
ì¶ľìŀ¥ ë§ĪìĤ¬ì§Ģ
æĦ ı
à®Ł à¯ģà®¤à¯įà®¤
Ġà®Ĵà®° à¯ģ
ÏĦ ÏİÎ½
ĠÑĩ ÑĤÐ¾Ð±Ñĭ
ê° ľ
Ġin f
Ø§Ùħ Ø©
ĠÃł s
Ġx e
à±ģà° °
Ġqu a
ÙĬ Ùĥ
è Ń
´ë Ŀ¼
al a
çĽ ´
à®¿à® ļ
ĠÚ¯ Ø°
Ġc ount
c ak
iyy ÉĻt
ĠÚ© ÙĦ
ĠØ¨ ÛĮÙĨ
å£ ²
Ġv iel
ĠØª ÙĪÙĦ
Ġcu ando
Ġtod os
ac ja
Ø± ÙĤ
ĠgÃ¶ re
à¤Ĺ à¤¾
ÏĢ ÎµÎ¹
ãģ¨ ãģĹãģ¦
ÙĪ ÙĬØ©
Ġop en
Ġc Ã¹ng
à°Ĥà° Ĺà°¾
ĠE m
ÃŁ en
Ġ×ķ ×ĳ
Ġëı Ļ
o x
ÙĬÙĨ Ø©
æ Ĵ
à®© à¯įà®©
ado res
Î¸Î· ÎºÎµ
ĠÐ¿ Ð°ÑĢ
Ġs atu
à°° à±į
ĠÐ½ ÐµÐ´
à°¾à°² à±ģ
ìĭ Ŀ
Ġìĭ ł
ĠÑĢ ÐµÐ³
Ã¼ t
ak ukan
ĠÎľ Îµ
Ġserv ices
×ł ×ķ×ª
Ġinter est
ÛĮ Ø§
ĠÑĥ Ð¶Ðµ
Ġå½© ç¥ŀ
ĠâĢ ¦
ĠÙĤ Ø¯
an za
g es
in da
la v
Ø± Ø§ÛĮ
à§įà¦ ļ
Ġà®¨ à®Ł
ÅĻ ed
ÙĤ Øª
à§ĩà¦Ľ à§ĩà¦¨
âĢ ¦
ed er
l ess
id as
§ à¹Īà¸²
ĠE t
Ġp esso
Ġv il
ing k
Ġt ah
Ġà®¤ à¯Ĭ
Î¹Îº Î¿Ïį
ÑĢ Ð¾Ð¼
che s
Ġà° ¹
at y
ĠA G
ĠÐ½ ÑĥÐ¶
Õ« Õ
æ¯ Ķ
åįķ åıĮ
in den
Ð¼ Ð¾ÑĤÑĢ
à¯Īà®¯ à®¿à®²à¯į
ëį °
Ġìĺ ģ
ĠnhÆ° ng
Ġal ways
à®ªà¯įà®ª à®Łà¯įà®Ł
Ġï½ ŀ
ç» ĵ
ĠØ§Ø Ń
Ġ×Ķ× ¦
ĠJ ahr
ĠÑĩ ÐµÐ»Ð¾Ð²
Ø§ÛĮ ÙĦ
ist s
å¥ ³
Ġë§ Į
áº¥ u
×ķ× ĸ
ĠÐ± ÐµÑģ
çĿ Ģ
el i
Ġag åĽ½éĻħ
ÄŁ r
ag em
ãĥ¼ãĤ ¸
Ġseb agai
Ã© g
Î¿Î¹ Î½
Î»Î¿ ÏĤ
à¦°à§įà¦ ¬
×ŀ ×ķ
in as
s ki
à§ °
Ã¦ re
v a
Ġph áº©m
or ia
æĹĹèĪ° åİħ
jÄħ c
Ïį ÏĦÎµ
à¤¾à¤ ª
Ġà¤ ĺ
Ġp ay
à¯Ī à®¤à¯įà®¤
Ġê¹ Ģ
Ïģ Î¯Î±
Ġfr ien
Ð¾Ð½ Ð°
Î¼ Î¿Ïį
Ġë ¯¸
×© ×Ļ×Ŀ
Ġle vel
ĠØ®Ø± ÛĮØ¯
ĠØ§ÙĨ Ø¬
Ġprov ide
ÑĢÑĥ Ð´
ÏĦ Î¿Ïħ
ÑĨÐ¸ Ñİ
ĠÎĳ Î½
ì ħ
Ð» ÐµÐºÑĤ
ot to
Ġc er
Ġå ¥
Ġà¤ķ à¤¾à¤°
w ork
Ġber b
Ġde gli
Ġc urr
Ġs l
us z
á» «
iy et
ilik i
« à¸Ļà¸
ĠÙħ Ø¬
ĠØ´ ÙĨ
Ġjak o
Ġsu re
Ġì¹´ íĨ¡
Ġë ħ
ag es
ĠØ¯ ÙĪØ±
Ø« ÙĦ
ê¹ Į
Ġl Ãªn
Ð°Ñĩ ÐµÑģÑĤÐ²
Ø³ Ø©
à¥įà¤ ª
Ġth ree
å½ ĵ
Ä±m Ä±z
ÏĮ Î³
Ð°Ñģ ÑĮ
Ġb uh
ĠìŀĪ ëĬĶ
ĠW ith
Ġcl ass
ÏĢ Î¹
ãģĭ ãģ£ãģŁ
nÃŃ ch
Ġìļ °
Ġth ings
Î» Î¹
Ġfo llow
Ø° ÙĦÙĥ
Ġc r
ros s
ĠÄĳ ang
Ġtr Ã¬nh
íĨ ł
à® ¸
Ġ×Ķ× ĸ
is te
Ġè ¯
Ġdz ie
ĠnÃ³ i
Ġfam ily
th ing
Ġnum ber
ĠÐ¾Ñĩ ÐµÐ½ÑĮ
Ġà¤ħ à¤¨
er t
Ġkh Ã¡c
per ti
Ġ×ĳ ×Ĺ
Ð¸ÑģÑĤ ÐµÐ¼
Ġc ap
íĸ Īëĭ¤
Ġc ost
Ġh ay
Ġm ujeres
ow ie
ĠÐ½Ð° Ñģ
it z
åĲ Ĺ
Ġâ ĩ
Ã¡ri os
ĠÃ¼Ã§ Ã¼n
ĠØª Øª
Ġà®ķ à¯Ĥ
å¸ Ī
ci as
ĠØ¹ ÙĨØ¯
Ġan ni
ë¶ Ħ
¡ à¸µ
ĠÐ² Ð·
ĠØ§ÙĦÙħ Ø±
ĠG es
Ġb iáº¿t
à®Ļ à¯įà®ķà®³à¯į
æķ °
Ġv z
Ġà¦¤ à¦¿à¦¨
owe ver
×Ļ× Ĵ
ìĿ Į
Ġspe ci
Ġb ardz
ĠâĢ ¬
éĩ ı
Ġs ans
à¥ ĥ
Ĺ à¸²à¸
Ã į
Ġch Ãºng
Õ¡ ÖĢÕ
g ar
lo ck
ç ±
ï¼ Ĳ
Ġãĥ ĸ
à°ļ à±įà°ļ
à¦° à¦¾
ìĹ °
Ð»Ñı ÐµÑĤÑģÑı
Ġ×ķ ×ľ
Ġe ar
o le
ë² ķ
ĠÐ ĸ
ĠØµ ÙĪØ±Øª
Ġan n
Ä±n Ä±z
Ðµ ÑĦ
od y
ĠØ Ľ
Ġh ier
Ġh Ãłnh
it u
r en
ĠÙħ Ø³Øª
ãģĹ ãģ¾
ĠÙħ Ø§Ùĩ
Ġ ers
Ġt ek
Ġst and
ur al
Ġd uring
Ġs Ã©
ĠÐ´Ð¾Ð» Ð¶
Ġwith out
Ġê ´Ģ
Ġor ang
ĠÙĦÙĦ Ùħ
à¹ĥ à¸Ļ
Ã©r ie
Ã¸ y
os z
el n
Ġr u
Ġw szyst
êµ Ĳ
Ġbet ter
à¤² à¤¾
ÙĪÙĨ Ùĩ
á»ĩ nh
ĠA ll
Ġsch ool
ÐµÐ½ Ð´
Ġis s
ĠÐ¾Ð± Ñī
Ġtut ti
Ġå ¾
ĠìĦ ł
ï¼ ĳ
m ÄĽ
g u
ÏģÎ¯ Î¿Ïħ
à¤² à¥Ģ
Ġl ittle
íĺ ¸
Ġãĥ ¬
å®ĺæĸ¹ ç½ĳç«Ļ
r id
å¤ ĩ
Ġê° ľ
í ĽĦ
Ġper form
Ġle ur
Ġà¤¦ à¥ĩ
el ig
Ġj Ã¡
ĠØ§ÙĦØ ¢
ov Ã¡nÃŃ
ãģ »
ĠAzÉĻrbayc an
äºļ æ´²
éĺ ³
ãģ ³
Ġb ased
Ġdall a
Îµ Ïĩ
ĠØ¨ ØŃ
è§ £
ĭĹ ä¸ĩ
ien ia
z n
ãģĹãĤĩ ãģĨ
Ġb lock
Ú© Ø±
Ġm ust
s Ã¥
äº Ķ
ia p
n is
Ġimport ant
Ġres p
Ġm Ã¡y
áº¯ n
é¢ ĺ
Ġph Ã¡t
åł ±
æĢİ ä¹Ī
ÙĪ Ùĥ
Ø§ÙĨ ÙĬØ©
al ement
à®± à¯įà®ķ
à¹Ħà¸ Ĺà¸¢
ĠØŃ Ø³
à®¿à® ®
ĠØª Ø¬
Ġ×ľ ×§
r ap
ãģŁ ãĤģ
ĠÑĥ Ðº
à°¾à° µ
Îµ Îº
ĠÐĿ Ð¾Ð²
ĠÃ© t
Ø§Ø °
á»ĵ i
ì Ī
é ¤
ĠÐĺ Ð½
×ķ× ļ
ĠO ur
ëª ¨
éĻ ¢
æ »
Ġl Æ°á»£ng
Î ĵ
ĠØ¨ Ø³ÛĮ
ìŀ ¬
Ġhas ta
ĠÐ¿ÑĢ Ð¾Ð³
Ġí ĥ
Ä±l an
ĠÐ¼ ÐµÑĤ
Ġà®ħ à®°
it Ã©s
à¦¨ à¦¾
à¯Īà® µ
Ġà¦ľà¦¨ à§įà¦¯
Ġæľ ī
æ± Ł
Ġsu o
áº£ m
ĠÂ» .
owe go
Ú© Ø§ÙĨ
à§ Ī
ÎĻ Îĳ
ĠÙĪ ÙĦ
Ġde ux
§ à¹Īà¸²à¸
ĠÏĥ Î·
à¸Ńà¸Ńà¸Ļà¹Ħà¸¥ à¸Ļà¹Į
ĠÑģÑĤ ÑĢÐ°Ð½
à¤¿à¤¯ à¥ĭà¤Ĥ
Ġcu al
e v
Ã¼ re
m iÅŁ
·à¹Ī à¸Ńà¸
è į
Ġ >
Ġre ce
ĠÃ ½
ek i
ç ĥ
à¹ģà¸ ¥à¸°à¸
æī Ģ
ĠV ideos
ĠÎºÎ± Î¸
Ġh anno
Ġìĺ Ī
Ġ×Ĳ ×Ĺ
Ð¾Ð² Ð°ÑĢ
Î¼ÎŃ Î½Î¿
om bre
å·¥ ä½ľ
d ade
æĭ Ľ
ãĤĮ ãģ°
à¨¾ à¨
Ġ ć
ĠÙĬÙħ ÙĥÙĨ
ÐµÐ½ Ð¸Ñİ
à¦¬ à¦¾à¦°
à¸£à¸±à¸ ļ
Ã¸ l
Ġc áº§n
Ø§Ø± Ø§ÙĨ
ĠÙĩ ÙĬ
20 1
Ð°Ð» Ð¸Ð·
ĠÙĪ Ø¥
ĠØ¹ Ùħ
Ġê° ķ
Î¯ Î¿
ĠØª ÙĤ
ĠØ§ÙĦ Ùī
à¦¸ à§įà¦¥
Ġpe u
und a
Ð°ÑĤ Ð°
Ð°ÑĤ Ñĭ
ĠN ie
Ġo k
ģ à¸²à¸
Ġlá» Ľ
×ĺ ×¨
ĠÑįÑĤ Ð¾Ð¼
Ġan h
Ġà®® à¯ģà®
Ġ×ŀ× ĵ
h ne
f en
Ø´ ÙĪØ¯
ĠÛ° Û
Ġor der
0 9
y r
ĠÐ¾Ð± Ð»Ð°ÑģÑĤ
ed ir
ĠØŃ Ø§ÙĦ
Ã³ a
ĠÑģ Ñĩ
ķ Į
w ar
ĠØ§ÙĦÙħ Ø³Øª
ĠØ§ÙĦØ³ ÙĬ
ãĥ§ ãĥ³
× ¥
à¤¾à¤Ĥ à¤ļ
ĠÐ´ Ð¾ÑģÑĤ
ÐºÐ° Ñĩ
åİ »
m t
Ġtr Æ°á»Ľc
g y
Ø§Ø±ÙĬ Ø®
Ġw ieder
f e
ĠUn ter
Ġ×ŀ× Ľ
Ġd ist
×ľ ×Ļ×Ŀ
æĢ »
ÏĦ ÎŃÏĤ
at ori
ĠãĤ ª
ÑģÐº Ð¸Ðµ
à±ģà° µ
ÑĢÑĥ Ð¿
Ġne ces
à§ĩà¦ ¸
á»ĵ ng
Ġè ®
ĠØ´ Ùħ
le ment
Ð¾Ð± Ñī
Ġsk al
à° ³
×ĳ ×Ķ
j et
ãĥ Ħ
ĠØ³ Ø§ÛĮØª
aci onal
Î² Î±
iÃª u
ç ¶
ĠØ¢ Ø²
ĠÐ¼ Ð¾Ð³
Ĭà¸ ±
Ã »
ãģŁ ãģĦ
ĠÙĪ Ùİ
it eit
ãģ® ãģ¯
Ġà¤ľ à¥ĭ
Ġw on
ķ à¹Ī
Ġn Äĥng
j ÃŃ
Ġn Ãło
Ġsch on
gun akan
Ñĥ ÑģÑĤ
Ã¼y Ã¼k
b ÄĽ
æĸ ¯
ĠìĹ °
Ġj our
Ġcon f
Ġqu est
ĠÐ¿ Ð¾ÑĢ
à¹ĥà¸Ĭ à¹īà¸
à¦¾à¦¬ à§ĩ
it al
Ġque l
ie ld
ĠP r
Ġd Ã¼ÅŁ
sk Ã©
ÙĪ ÙĨØ¯
Ġwur de
å® Ł
ĠÄĳ Ã¢y
Ð°ÑİÑĤ ÑģÑı
ied z
Ġw rit
ãģ Ĵ
Ġà¤Ĺ à¤¯à¤¾
í İ
Ġnh áºŃn
Ïĥ Î¯Î±
Ġkad ar
ĠZ eit
ĠB ir
Ġo y
´ ĳ
ĠÃ ¸
æ Ł
í ŀ
Ġs ay
ĠP l
ìļ ´
Î½ Ïī
ãĤ¹ ãĤ¿
ĠÑĢ ÐµÑĪ
éĴ Ł
ĠS an
n osti
æ ·
çĦ¡ æĸĻ
à±Ī à°¨
Ġon line
p k10
k Å¯
k lad
Ġk l
Ġman ag
ta re
ĠØ§ÙĦØ¬ Ùħ
Ļ à¯įà®ķ
ÑĢÐ° ÑĦ
Ġ à¸Ńà¸
ct or
ĠÐ²Ñĭ Ð¿
n ou
ÑĢ Ð°Ñģ
ÉĻ z
ĠD ies
à¯įà® £
ÏģÎ¿ Ïį
ll en
è© ±
ãĥĩ ãĤ£
s elf
Ġcz as
Ġà¤ķ à¤¿à¤¸
ì ¡
Ð½Ð¸Ðº Ð¾Ð²
che d
Ø· Ø±
Î¬ Ïģ
Ã ĵ
Ġà¤ī à¤¸
ãĤ ¬
os i
éĢ ī
Ġy Ã¶n
b st
ģ à¹ĩà¸
ëł ¥
b l
Ø¨ ØŃ
al an
o i
à¦ Ľà§ĩ
Ġtr y
ãģª ãĤĵ
ãĢ Į
Ġ×ŀ× ĳ
ì² ´
re en
Ġd ur
Ġç ĭĹä¸ĩ
Ġa ble
ĠÙ¾ Ø³
alar Ä±
ĠÐ°Ð² ÑĤÐ¾Ð¼
as Ä±nda
i or
ãģĪ ãĤĭ
Ġgr oup
Ġ2 2
Ġwe bs
ĠØ§ÙĦØ£ Ø³
al u
Ġsm all
app ä¸ĭè½½
Ġqu ality
Ġcom un
Ġwy k
ì¹´ ì§Ģëħ¸
×ĵ ×Ļ×Ŀ
ĠÂ» ,
è® °
Ð½ Ð°Ðº
ĠÐ¿ÑĢ Ð¸Ð¼
à§Ģ à§Ł
à¦¤ à¦¿
Ø§Ø¨ Ø©
Ġcont in
Ġpr aw
Ġb ed
ĠS he
æ ¼
ĠØ¹ÙĦÙĬ Ùĩ
ost it
ĠÎ¼Îµ ÏĦÎ±
Ãª s
Ġm áº·t
om men
f or
Ġå ·
à§ĭ à¦°
Ġp ower
d ed
Ġare a
© à¸
Ġv om
æĹ ©
t ra
Ġ×ŀ× ¦
×ķ×¨ ×Ķ
Ġdi a
ÑĥÑĢ Ñģ
Ġh an
Ġp et
à¯įà®¤ à¯įà®¤
Ñĭ ÑĤ
Ġpro ble
Øª Ø§Ø¨
Ð»Ð¸ Ð²
ĠÐ² Ð¾Ð´
ĠÐ¢ Ð°Ðº
Ġà¸ ģà¸
Ø¹ ÙĪØ¯
Ġà¦ı à¦°
ç ¼
ãģķ ãģĦ
ĳ Ĳ
à¦¾à¦ķ à§ĩ
Ð ¤
Ã İ
Ġt Æ°
ĠÐ¾ÑĢÐ³Ð°Ð½ Ð¸Ð·
×Ļ×¨ ×ķ×ª
å§ Ķ
Ã ķ
Ø§Øª ÛĮ
Ġat Ã©
à° §
Î¿ Ïģ
it ar
Ġne xt
Ġë Ķ
éĸ ¢
à¤° à¥ĩ
è ¼
ãĥ Ľ
Ġs olo
å ĸ
Ġz ak
ĠÃ© v
æ§ ĺ
ĠÐľ Ð¾ÑģÐº
Î³ÏģÎ± ÏĨ
ĠO r
Ġs ig
are t
ĠÎ± Î³
Ð» ÐµÐ¼
Ġpas s
¡à¸ ŀà¸
ĠÙĬ ØŃ
ĠÑģ ÐµÐ±
Ġog sÃ¥
à¯Ĩ à®°
Ö ¼
z en
ÏĢ ÏīÏĤ
ib ile
à¥Ī à¤Ĥ
ãģ« ãĤĪ
çľ Į
Ã§ ek
ato re
Ġ à¹Ģ
ä» Ģ
ak t
iv os
f ic
ĠÏĥ ÏĦ
am es
Ð¾Ð· Ð´
èĢ ģ
w are
ĠI s
ĠÙĪ ØŃ
ta il
à¸£à¸²à¸ Ħ
à¥ģ à¤¨
Ġes pe
Ġ0 1
c ol
ĳ ľ
Ġp ut
Ġl ight
r ic
Õ ¨
m i
à§įà¦ ¡
Ġg ive
Ġim mer
at s
ĠÃ ī
¦ ¬
Ð¾Ð¿ÑĢ Ð¾Ñģ
Ġd ue
æµ ģ
å¼Ģ å¥ĸ
ĠØ¨ Ø´
ĠÐ´ ÐµÐ½ÑĮ
×Ļ×¨ ×Ķ
ÙĦÙĬ Ùħ
Ø® ÙĦ
Ġìķ Ĭ
ë° ©
à°¿à°Ĥà° ¦à°¿
ĠÐ¼ Ð°Ð³
ÏģÎ± Î³
owan e
ĠÂ ¶
ç§ ĳ
Î Ķ
Ġn em
Ø§Ùħ ÛĮ
Ġt ara
or zy
Ġ íķ´
Ġf ull
àµ Ĩ
Ġsomet hing
Ġà¦ķ à¦¾à¦°
ĠÎ ¡
iz ed
Ġà¸ Ħà¸
is hed
Ġch áº¥t
ÏĦÎ¹Îº ÎŃÏĤ
m asÄ±
Ġdon de
Ġt ous
m Ä±ÅŁ
Ġde v
á»¯ a
Ð½Ð¸Ðº Ð¸
ÉĻ f
Ġt el
ĠÕ §
å¸ ĥ
×ķ×ł ×ķ×ª
ÑħÐ¾Ð´ Ð¸Ð¼
j es
Ġb á»Ļ
çĶ »
Ġt en
ĠÑĢÐ°Ð· Ð²
Î² Î¬
Ġä¸ Ĭ
Ġv el
iz i
ĠØ³ ÙĪ
è ĥ
ind i
Ġt iem
ĠåĪ ©
ÑĮ Ñİ
ĠÎº Ïħ
è¨ Ī
el s
ä¾ ¡
ĠÐĿ Ð¾
iy le
Ġacc ess
Ġmen d
Ġmer eka
Ð¾Ð² Ð°ÑĤÑĮ
ĠØ§ Ú¯Ø±
Å¯j Äį
ÙĤ Ùħ
ĠÙĤ Ø§ÙĦ
Ġs angat
ti k
ì¹ ´ëĿ¼
ÃŃ vel
Ø¯ ÛĮ
ĠÐ¿ Ð¾Ð½
Ġm is
ĠÏĥ Î±ÏĤ
ent ion
à®¾à® £
äº ī
à§ģà¦ ·
Ġkun nen
on i
Ġtá» ±
ÉĻ dÉĻ
ĠÙħ Øµ
Î¸ Î®
ĠÙĪ ÙĦØ§
çĽ ¸
à° Ń
ãģ ¸
Ġrep ort
à¥įà¤ ¦
Ġk em
Ġà¦Ĩ à¦²
ĠÐŁ Ð¾Ð´
ĠØº ÙĬØ±
Ð¾ÑĢ Ð¾ÑĪ
ostit utas
à±ģà° Ĺ
Ġxu áº¥t
Ġs wo
Ø¶ ÙĪØ¹
Ġnghiá»ĩ p
äº Ľ
ĠÐ· Ð´
Ħà¸£à¸ Ķà¸´à¸
Ø§ Ø§
Ġå Ĩ
Î¼Î± ÏĦÎ¿ÏĤ
ÛĮ Ø±ÛĮ
ur an
ĠÐ¿ÑĢ Ð¸Ð²
ud ad
×© ×ª
ĠÑĢ ÐµÐ·
l ko
Ġà®ª à®Ł
Å ¥
Ð½ ÐµÑĤ
y n
ch a
Ġl ist
ĠÐ±Ñĭ Ð»Ð¾
Ġz aw
à¹Ħà¸¡ à¹Ī
ą ć
×¨ ×Ĵ
×Ļ× ĸ
ĠÚ©Ø±Ø¯ Ùĩ
ãĤĵ ãģª
ÑĢ ÐµÐ´
å ŀ
à¹Ĥ à¸£à¸
ÙĪ Ø©
à¹Ģà¸ ¥
Ġse x
æİ ¥
Ġwith in
à¦Ł à¦¾
ac ÃŃ
ĠÂ ²
ĠA mer
le ich
er os
iy at
Ð¼ ÐµÐ½ÑĤ
uh an
áº¡ ch
ĠÐ¼ Ð½
Ġ201 9
Ĥ à¦²
ĠÐ²Ð¾Ð· Ð¼Ð¾Ð¶
Ġm us
Ġre f
ul o
Ġd aar
Ġæ ŀ
ĠÑĩÐµÐ»Ð¾Ð² ÐµÐº
Ġìĥ Ŀ
ĠÙĪ Ø±
ÑİÑĤ ÑģÑı
ãģĹãģ¦ ãģĦãĤĭ
Ġæ ²
Ġb ig
Ġ2 5
Ġte go
ik k
Ãº t
ê± ´
ĠìĹ Ĩ
ĠÙĤ Ø¨ÙĦ
º «
ĠÑģÐ» ÑĥÑĩ
Ġç Ľ
Ø¦ Ø©
Ġà§¨à§¦ à§
Ã³ ng
Ġmo et
íĥ Ģ
Ġu w
Ġì µľ
Ġj aar
ĠØ§ÙĦØ¹ Ø§ÙĦÙħ
Ġg em
ĠÐ° ÑĢ
ate ly
ĠÐķ ÑģÐ»Ð¸
ĠØ§ÙĦÙħ Øµ
ĠTÃ¼rk iye
éĸ ĭ
ĠÐ±Ñĭ ÑĤÑĮ
ĠÐĴ Ñģ
ĠØ±ÙĪ ÛĮ
ĠÐº Ð²
ĠÙĦ ÙĬ
ĠÃ ĵ
Æ°á»Ľ ng
cc ess
Ġen g
Ġv ed
ÛĮ Ø²
g os
¥à¸ ĩà¸
áºŃ y
æ° Ķ
Ġv ia
ĠÐ²Ñĭ Ñģ
è® ¯
ĠìĦ ¸
ĠA t
Ã© d
à°° à°¿à°
Ã¤ l
ÏĦ Ïī
à¤ķ à¤¾à¤°
Ð¾Ð² Ð°
Ġ×Ķ×ŀ× ©
ĠØ² ÙħØ§ÙĨ
Ġ3 0
áĥĹ áĥķáĥĺáĥ¡
Ġáĥ£áĥ ľ
Ġáĥ¡áĥĲáĥ ®
Ġáĥ¡áĥĲáĥ¥ áĥĲáĥłáĥĹáĥķáĥĶáĥļ
Ġáĥ¨ áĥĶ
Ġáĥĺ áĥ§
ĠáĥłáĥĿáĥĽ áĥĶáĥļ
ĠáĥĽ áĥĺáĥ¡
áĥł áĥĺ
áĥĲáĥ £áĥ
ĠáĥĲáĥ ®
áĥĲáĥ Ŀ
áĥĺáĥĵ áĥĲáĥľ
áĥĿáĥ Ĺ
áĥļ áĥĶáĥĳ
Ġáĥ§ áĥķáĥĶáĥļ
áĥĶáĥĳ áĥ£áĥļ
áĥ£áĥ Ľ
ĠáĥĲáĥ ¥
áĥĺáĥ Ĵ
áĥĺáĥļ áĥĺáĥ¡
£áĥ ļáĥĺ
áĥķ áĥĶáĥ
áĥĲáĥľ áĥĺ
áĥĲáĥĵ áĥĴ
ĠáĥĽ áĥĲáĥĴ
áĥĶáĥ¥ áĥ¢
áĥ£áĥ Ĺ
Ġáĥł áĥĿáĥĴ
èģ Ķ
Ø²Ø§Ø± Ø´
ĠØ£ Ø¨
c n
ĠN or
Î¿Ïħ Î»
ĠÏĥ Ïĩ
à°¾à° ¦
ĠÙĬ ÙĤ
Ġa ff
ĠÐ¾ ÑģÑĤ
A D
ìĤ¬ ìĿ´íĬ¸
b at
ĠA ng
Ġd Ã¢n
ĠÐ¿ÑĢÐµÐ´ ÑģÑĤÐ°Ð²
Ġapp ro
Ð¸Ð½ Ðµ
ĠÙĨ Ø¯
Ġâ Ĺ
Ġk el
Ġ á
Ħ à¸£
Ġal gun
ĠØ£ Ø³
Ġãĥ Ĳ
à°¨ à±į
Ġkar ÅŁ
çĦ ¶
ĠM aret
áº¹ p
ĠÑĦ Ð¾ÑĢÐ¼
æĪ ¿
ĠÐ¿ Ð¾ÑģÑĤ
u ur
ĠÐ· Ð°Ð´
Ġ×© ×ŀ×
Ġà¤ Ľ
ĠØ§Ø· ÙĦ
ĠÐ±Ð¾Ð» ÐµÐµ
æ© Ł
Ġí ĸ
Ġna g
Ġà¤ §
Ġv Ã¬
Ġsa at
Ġgeb ruik
are d
Ġãĥ ŀ
il itÃł
ĠØªÙĪÙĦ ÛĮØ¯
Ġm ight
ĠÎ¼Îµ Î³
ĠÕ ´
ta g
an as
a ik
Ġdat ing
ĠB l
áĥĲáĥłáĥ ĵ
Ñĥ Ð»Ñı
à¦¦à§įà¦ §
Ø§ ÙĬ
à¯įà® ¯
Ġs ite
ĠÐº Ð°ÑĩÐµÑģÑĤÐ²
Ġut ilis
Ġu 09
Ġå Ń
Ð¸ Ð½Ð¾
ĠÑģ Ð¸ÑģÑĤÐµÐ¼
enti al
im mer
Ġbuh ok
áĥł áĥĲáĥĽ
ĠÑĢ Ðµ
Ã ļ
Ġà¦¬à¦¿à¦ ¶
ĠSp iel
Ġëı Ħ
ĠÃ Ĭ
Ġpers onn
Ġ0 00
one y
Ġan other
à§ Į
Ùģ Ø¹
Î¹Îº ÎŃÏĤ
Ä± ld
ari h
áĥĲáĥłáĥ Ľ
ä» »
Ġà®İà®©à¯įà®± à¯ģ
Ġl ie
ÏģÎ¹ Î½
ë§Į ëĤ¨
Ø§Ø¯ ÙĬ
Ġçİ¯äºļ ag
ĠH er
an j
à¸Ńà¸¢ à¹Īà¸²à¸
á»į i
ĠÎµÏĢ Î¯
Ġs or
Ġmem iliki
ain e
ate ur
ÅĽ cie
Ġe u
Ġà® Ł
Ġn in
Ġdis p
ĠÃ Ĵ
Ġ2 1
Î½Î¿ Î¼
eit e
ĠØ¨ Ø²
ĠÐ· Ð°Ð¼
Ġsec ond
Ġêµ Ń
ëĭ ¨
ĠØ¹ ÙħÙĦ
Ġ365 bet
ĠB ar
Ñı Ð´
ÅĤ u
Ġgi bt
Ãª m
ĠÃ¥ r
Ġà° ı
âĢ¦ âĢ¦
áĥĶáĥ ª
iv i
å± Ģ
ãģª ãĤī
ĠFr ance
ĠÑģÐ» ÐµÐ´
åĪĨ éĴŁ
Ġgi an
Õ¸ÖĤÕ ©
áĥĶáĥĳ áĥļ
ĠÐ¿ÑĢÐ¾ ÑĨ
Ð» Ð°Ð¹Ð½
Ø§ ÙĪØ±
Ġk ami
ãģĤãĤĬ ãģ¾ãģĻ
Ġå ¸
Ġ à¥
Î´ Î®
Ġk inh
te il
Ġ13 9
ĠC hr
Ġà¦¬à¦¾à¦ Ĥà¦²
ov ÄĽ
Ġdi rect
ä¼ ģ
l ing
Ð¼ Ñĭ
ĠÚ¯ Ø²Ø§Ø±Ø´
à¤ķ à¤¾
ce j
à¹ĥà¸« à¹ī
ç ĸ
ĠÃ Ĺ
Â º
Ã Ĩ
Ġë° ©
o res
Ã¨ res
Ð¾Ð² Ð¾Ð¹
ìĺ Ī
é¤ Ĳ
ÙĤ Ø§Øª
I N
áº¯ ng
Ġpr ima
Ġro om
×ľ ×§
Äį ÃŃ
Ð°Ð¶ Ðµ
Ð¾Ð± ÑħÐ¾Ð´Ð¸Ð¼
pl ic
æ² ³
ĠãĤ ¤
ĠÙ¾ Ø±ÙĪ
ìľ ł
Ġà° Ł
ĠØ¨Ø® Ø´
æ´ »
à· Ĭ
à§įà¦ ¸
ÑģÐº Ð¸Ñħ
ĠDe ut
ĠÂ ¾
ĠÄĳ iá»ĥm
Ġå Ĭ
ach t
Ġris p
Ġä» ĸ
ic hen
ĠÑģÑĤ Ð¾
Øª ÙĩØ§
ar se
ĠE en
Ġc es
æ ¹
qu i
Ïİ ÏģÎ±
éĢ ģ
Ġà®ļ à¯Ĭ
ir i
Ġsp raw
Ġáĥ ¦
Ġáĥ¡áĥĲáĥ Ļ
áĥĶáĥĿ áĥĳ
ĠÑĩ ÐµÐ¼
ĠÚ©ÙĨ ÙĨØ¯
à¤¾à¤ Ĺ
on der
Ġk áº¿t
à®¤ à¯į
ëĲ ľ
è¢ «
Īà¸ ±à¸
Ø³ Ùĩ
un t
×ł ×ª
ĠìĦ ±
ĠãģĿ ãĤĮ
e uk
Ġë¬ ¸
èī ¯
ç Ł¥
ĠØ§Ø·ÙĦ Ø§Ø¹
ãģ§ãģį ãĤĭ
Ø« ÙĬØ±
Ġdies e
ard s
ĠÐ¿ÑĢÐ¾Ð¸Ð· Ð²Ð¾Ð´
Ġop er
á» Ĺ
è¨ ĺ
v o
Ġà¦® à¦¾à¦¨
Ãº p
Ġà¤¤ à¥įà¤¯
Ġa k
j Å¡ÃŃ
ĠÑĥ Ð²
×¨ ×ĳ
Ġs ah
ti que
Øª ÙĪØ§ÙĨ
ĠØ ¸
ĠÐ¾ Ð½Ð¸
Ġv l
ÏĦÎ¿ Ïį
ãĥ İ
Ġæ ¶
Ġab euk
å¼Ģ æĪ·
ĠÙĬ ÙĪÙħ
ĠØ¹ Ø¨Ø¯
åħ ĭ
ÐµÑģ Ð¿
×ķ×ł ×Ļ×Ŀ
Ĥ à¸²à¸
h or
áĥĶáĥĳ áĥĲáĥ¡
a ut
u te
ĠÂ ¸
ãĢ ħ
k Ã³w
Ġge en
ÄŁ er
ÑĤ Ðµ
ĠØŃ ÙĬØ«
ĠØ³ Ø§Ø®Øª
Ġspe cial
áº£ nh
ĠØªÙĩ Ø±Ø§ÙĨ
à®¾à® ±
Ġáĥ łáĥ
ĠØ¯Ø§Ø´ Øª
Ø¬ Ø©
wer t
Ð¿ÑĢ ÐµÐ´
ĠÏĥ Ïį
æ ¨
ãģĪ ãģ¦
o ve
ar Ã¡
ëĭ ¹
ig o
ÛĮÙĨ ÛĮ
ort un
à¤¿à¤ ¶
íŀ Ī
Ġcon c
ist as
à¥ ľ
ag gio
å° ĳ
éķ ·
éĹ ®
Ð Ĺ
Ġprof ess
Ġà¦¨ à¦¿
é¡ µ
ĠÙĪ ÙħÙĨ
Ġha be
Ġâ ķ
à¦ĸ à¦¨
Ùĩ Ø¯
ov an
Ġkter Ã©
ov ern
Ġan os
ÐµÐ½ Ð½ÑĭÑħ
æĮ ģ
Ø§Ø± Øª
Ø³ Ø·
Ð°Ð½ Ñģ
Ġse perti
ĠÙĩ ÙĨØ§
ãģ« ãģ¤
ÙĤ Ø·
Ġb áº±ng
Ġb áº£o
×ŀ ×Ļ
ĠãĤ ¯
rz ed
z zo
ĠØ¹ Ø§Ùħ
ÐµÑĤ Ñĭ
ãĥ¼ãĤ º
Ġtara f
ä¸Ń åĽ½
ro l
Ð¸Ñı ÑĤ
Ġæ ±
æ Ĳ
at ti
áĥ ¯
à¦¨à§įà¦ ¦
dz i
am u
Ã§ as
Ñı Ð±
Ġt rov
Î¹Îº ÏİÎ½
æĪ ĺ
Ġãĥ ¡
Ġà¤® à¤¹
à°¿à° µ
Ïĩ Î±
Ġt est
Ġp ot
ĠØ§ÙĨØ¬ Ø§Ùħ
un un
Ġinv est
Ġt ent
ĠÐĲ Ð½
ĠK om
Ġt áº¿
ä¹ħ ä¹ħ
¢ à¸²à¸
å ¦Ĥ
Ġsin ce
si ble
Ġth áº¥y
Ġà¦Ĩ à¦ª
ä¹ ¦
ĠB ras
×ķ×ª ×¨
Ġt iá»ģn
Ġ×Ĳ ×Ĺ×¨
Ġph Ã²ng
Ġì§ Ħ
§à¸ ±à¸
ĠTh at
ĠØª Ø§Ø±ÛĮ
Ġve z
ÑģÑĤ ÑĢÑĥ
ĠãĢ Ĭ
Ġques ta
Ġtiáº¿ p
Ġpor que
Ã§ os
Ġë ¨
p ie
ĠØ¯ÛĮ Ú¯Ø±
Ġg od
ĠO s
Ġà®ķ à®Ł
Ġg en
p ad
c un
ĠìĹ Ĳ
lar a
Ġty lko
ur g
é¦ ĸ
ĠÐ¸Ð¼ Ðµ
áĥĲáĥĽ áĥĵ
Ġt á»ĳt
æ ®
Ġf Ã¸r
ĠáĥĹ áĥ£
Ġk et
Ġtr ain
ĠÑģ Ð´ÐµÐ»
Ġt Ã¢m
t ama
Ġhe ad
Ġch á»§
Ġà¤µ à¤¾à¤²
ĠØ§ÙĦØ¹ ÙħÙĦ
Ġgr ow
Ġ×Ķ ×Ļ×Ĳ
çº §
ĠÎŁ Î¹
Ġìŀ ¥
ĠÙĨÙħ ÛĮ
Ġth iáº¿t
à¤¾à¤¯ à¤¾
íģ ¬
×¨×Ĳ ×ľ
Ġthá» ĭ
ĠÎľ Î±
Øª Ø¨
×ŀ× Ł
ĠB r
Ġà®ĩ à®¤
m ÉĻk
ç¬ ¬
å¯ ¼
Ġto Ãłn
Ġd ays
Ø§Ø¨ ÙĦ
ãĥª ãĥ¼
Ġnot re
ì Ķ
m al
Ġm ir
à¯Īà® ªà¯įà®ª
Ġà¦¹ à¦¬à§ĩ
è Ļ
æł ¼
ÃŃc ÃŃ
Ġí Ĭ
ik asi
Ġhar us
Ïģ Îº
ĠS car
Ġ×ķ ×¢
à¤¸ à¥Ģ
Ä±s Ä±
Ø¹ ÛĮ
Ġç ½
Ġ×© ×ĳ
Ġ×ĳ ×¡
Ġà¦Ĩ à¦¸
Ĭ à¸²à¸
Ġmol to
Ġu Å¾
Ġ×ŀ× ł
à¯Īà®¯ à¯ģà®®à¯į
ou le
Ġg Ã¬
áĥĺ áĥĶáĥł
Ð¾Ð½ Ð¾Ð¼
å¼ ķ
Ġtá» ķ
ĠÄĳ á»ĳi
Ġbr uk
à§įà¦¯ à¦¾à¦¨
à¤¾à¤ ¬
Ġà¤² à¤Ĺ
¥à¹ĩà¸Ńà¸ ķ
Ġmo Å¼e
ç« ĭ
Ġh á»Ļi
ãĥ ı
ĠÐ¿ÑĢ Ð¾ÑĤ
ul a
Ġíı ¬
Ġc ada
Ġex pl
Ġw o
ÅĤ Äħ
Ġíĺ ¸
ÏģÎ¹ Î¿
Ġ Ã¡
Ġà§¨ à§
ëŀ ĺ
Â ¡Â
ë¹Ħ ìĬ¤
b el
à¦§ à§įà¦¯
Î´ Î¹Î¿
ÑĢÑĥ Ð·
U R
ĠÐ¿ Ð¾Ð¿
ĠØ¯ ÛĮØ¯
Ġà¸ Łà¸£à¸µ
is ion
ãģĦ ãģĦ
ĠÄĳ Æ°á»Ŀng
z u
Ġadd ition
×ŀ× ł
à¦ ł
Ð· ÑĭÐ²
le t
Ġgr an
ar ak
ĠU m
ÙĨ ÛĮÙĨ
v es
Î· ÏĥÎ·
Ġvis it
×ľ ×ķ
áĥĲáĥķ áĥļ
Ġv os
Ġh ak
ĠÎ´ Îµ
Ġb as
Ġpo z
ĠØ§ÙĦÙħ Ø¯
Ġre se
×Ļ×ł ×ķ
áĥĺáĥ£áĥ ł
Ġy ar
ãģ« ãĤĤ
áĥĲáĥķ áĥ¡
Î¿Î½ ÏĦÎ±Î¹
ļà¸²à¸ Ĺ
Ġwork ing
Ġhar ga
Î»Î» Î±
ÎĻ Î£
Ð°ÑĢ Ð¸
Â »
Ïĥ Î±Î½
b be
ĠØ¹ ÙĦ
ĠÃ ģ
åģ ļ
Ã§ e
Ġh od
Ġh iá»ĩu
Ġng o
ang g
Ø· ÙĦ
ÙĩâĢĮ ÙĩØ§ÛĮ
Ð¾Ñģ Ð¾Ð±
Ľ à¸£
im ent
ow aÅĤ
Ġâ Ħ
Ġk ay
Ġle g
ig keit
à¦° à§ĩ
ãĤ ½
áº¡ c
Ġlook ing
Î© ÎĿ
×ł ×¡
à®¿à®± à®¤à¯ģ
ĠÐ¿Ð¾Ñģ Ð»Ðµ
ĠÙĪ Ùĥ
Ġb ar
iej s
Ġles s
Ġh ard
Ġà° Ĵ
Ġg ame
Ġà¤ª à¥Ĥ
Ġr ag
ĠØŃ ØªÙī
ig ne
Ġe k
ĠU hr
ÎĳÎ ¤
è¿ ĺ
Ġc am
aj ÃŃ
m ain
ig t
à¹Īà¸ ĩà¹Ģà¸
Ġà°ļ à±Ĩ
Ġà®ħ à®®
å¤§ åıĳ
il ih
Ġlo áº¡i
w ij
ung k
ç¤ º
Ġbe m
un to
Ġal ue
Îº Î±Î½
ĠÙĪ ÙĨ
Ġf ar
Ġp ok
ar beit
Ġy ak
èĢ ĥ
ä»Ģ ä¹Ī
å· ²
Ġtiem po
à¤ļ à¥įà¤
µ à¸
ĠØ± ÛĮ
Ġm ov
Ġm Ã¡
Ġz m
Ġmak ing
ãģ£ãģ¦ ãģĦãĤĭ
Ġcons ider
Ġk es
Ġw in
æł ·
ëł ¤
Ġw sp
erst and
k l
Ġne ver
Ġà®ª à®¿à®°
ĠÐ¸ ÑģÑĤ
Ġt urn
Ġre t
ici os
Ġb Ã¡n
ĠãĤ ¨
Ġáĥ£áĥľ áĥĵáĥĲ
lo ad
Ø§ Ø©
Ġb re
æĹ ł
ë¥ ´
Ġê² Į
è£ ħ
åĪĨ å¿«3
Ð°Ð½ Ð°
Ġí ģ
Ġy Ä±l
« à¸²à¸
ĠÏĢ Î±Î¹
à´ ¤
Ø± Ùĩ
Ġt Ã¡c
ĠÐ½Ðµ Ð¾Ð±ÑħÐ¾Ð´Ð¸Ð¼
ĠÑĤ Ð¾Ð¼
ut i
Ġ Å¼y
ĠÙĩ ÛĮ
×¢ ×ª
Ġk dy
å¤ ī
ĠÑĤ ÐµÑĢ
à®® à®¾à®ķ
ĠçĻ ¾å®¶
ï ¾
Ġáĥĵ áĥĲáĥĽ
åį İ
à «
Ġà¦¸ à§įà¦¬
éĹ »
Ġà¤ħ à¤§
æģ ¯
Ġt Ã¬nh
ĠÐ° Ðº
ĠØªØ§Ø±ÛĮ Ø®
Ġà¦® à§ĭ
Ġh al
ĠíĨ µ
ĠÐłÐ¾ÑģÑģ Ð¸Ð¸
lar Ä±nÄ±
Ġà¦¦ à§ĩà¦ĸ
æĽ ´
ĠÐµ ÑīÐµ
Ã³ b
à¦¨à§įà¦¤ à§įà¦°
¨ àµįà´
Ġmes mo
à§įà¦ ¦
Ġan s
è¯ ·
Īà¸²à¸ ģà¸
it os
Ġ×Ĳ ×ł×Ļ
Ġpro d
il h
Ġfo od
Å¯ Å¾e
Ġà® ľ
ĠÎ¸ Îµ
ãĥ ļ
ĠI k
Ġg ot
Ġt ÃŃnh
Ġp ou
Ġì Ĥ
Î¸ ÎŃ
ind ÉĻn
à¹Ģà¸ ģà¸
è İ
ĠÐĶ Ð»Ñı
Ø§Ùħ Ø¬
ud i
ĠáĥĲáĥł áĥĺáĥ¡
åº Ķ
ĠØ´ Ø¨
Ð¾Ð¶ Ð´
ĠB es
Ġvá» ĭ
Ð² ÐµÑģÑĤ
Ġl et
v ol
Ġä½ Ĩ
Ã¤ ch
ĠØ² ÛĮØ±
à¸£à¸ §à¸
ru ct
Ġà¤ľ à¤¾à¤¤
ı ¾
Ġin t
ĠØ£ ØŃ
à¦° à§įà¦¤
×Ļ×ł ×Ķ
Ð» Ð¾Ð¶
ĠÅŁ ek
Îµ ÏĢ
Ġet ter
in ho
Ġto day
Ġáĥĵ áĥ¦
ĠØ³ ÙĨÚ¯
Ġ×Ĳ ×ł
ie t
å Ļ
Ġinter n
Ïĥ Î¿ÏħÎ½
Ġà¦Ĩ à¦Ĺ
é£ Ł
à¥Ģ à¤¨
ĠS i
ek t
ĠáĥĽ áĥĺáĥ
à¤°à¥įà¤ ®
í ĭ
Ø§Ø² Ùħ
æĽ ¸
ve is
tell en
il idad
ĠC ar
ĠÎ Į
à§ĩà¦ ·
Ġaut res
áĥĲáĥłáĥ Ĵ
Ġ×ľ ×Ľ
Ġe qu
×Ĳ ×ª
Ġà°¸ à°Ĥà°
he t
iem bre
Ġem pres
Ġc áº§u
v ed
ãĥ ľ
Ġre aliz
e g
æİ ¨
Ġç §
ĠÑĤ Ð¾Ð³Ð¾
Õ¡Õ ´
à°¾à° Ĺ
Ġme et
Øµ Ùģ
« à¸£à¸
Ġson ra
ĠIt alia
×ķ× £
Ġph ÃŃ
ĠáĥĽ áĥ®
ĠãĢĳãĢĲ ãĢĤ
ë¬ ´
à¦® à¦¾à¦¨
Î½Î¿ Î½
ĠÎł ÏģÎ¿
ĠÙĥ Ùĩ
Ġpr act
ÐµÐ½ Ð¸
à®ª à¯į
Ġprodu cts
ÏĦÎ· ÏĤ
Ø± Ø³ÛĮ
Ùĥ ÙĬ
Ġge w
T O
) ;
§ à¹ĩà¸
Ġæĺ ¯
ãĤĮ ãģŁ
y w
à¦¾à¦ ¯à¦¼
à¤ ³
á»Ń a
Ġì ¶Ķ
ber apa
Ġsec ara
Ġis so
Ġà¤¬ à¤¨
à¸Ńà¸ ¢à¸
Ġv iew
Ġbul un
´ Ī
ĠåĮĹäº¬ èµĽè½¦
Ñĥ Ð²
T A
Úĺ Ùĩ
ìļ ¸
ĠåĪ© æĿ¥
å Ķ
pp o
ĠÙħ ÙĬ
Ġà®µ à®¾à®
Ø¶ Ø¹
Ġa inda
į à¸
ĠØ§Ø³ ÙĦØ§Ùħ
ver e
Ġsu lla
ÐºÐ°Ñĩ Ð°ÑĤÑĮ
Ġ×Ķ ×Ļ
ĠÙĪ Ø¬ÙĪØ¯
op e
Î¯ Î´
¡ à°¾
ab a
Ġeff ect
Ø® Ø§Ø¨
à¥ĩà¤ ĸ
Ġstud ents
Ġà¤ħ à¤¸
ĠÙĦÙĦ Øª
ĠâĦ ĸ
ĠØ¹ Ø¯Ø¯
un ya
à§ĥ à¦¤
ĠS ampai
Ġc ara
Ġdet te
Ġs it
Ġre al
ãģĭ ãģª
Ġpub lic
Ġpro te
ĠÐ¿Ð¾ Ñĩ
Ã± a
ĠI hr
ÏĦÎ¹Îº Î®ÏĤ
an os
Ö ¸
s ter
Ġke Ã§
Ø±ÛĮ Ú©
à¦¾à¦ ĸ
×ŀ ×Ļ×Ŀ
ĠÄĳ o
Ĭ é¾Ļ
·à¹Ī à¸Ńà¸ĩà¸
Ġsem pre
Ïĩ ÎµÎ¹
ĠÄ ĥn
Ġt áº¡o
Ġen v
ĠÎĳ Ïħ
æ ¢
Ì ī
Ä± lÄ±
ĠR es
Ġst ato
Ġlar ge
der n
Ġ2 3
Ġj uÅ¼
Ķ à¸µ
o ci
Ġpro per
Ġáĥ °
j oy
ÏĨ Î±
ÄŁ ini
nÃŃ ho
ĠØª Ø´
Ġpers on
Ġp op
ĠáĥĹ áĥ¥
Ïħ Î½Î±
ä½ ł
Ġl ang
Ġz d
Ø§Ø¦ ÙĬØ©
à±ĩà° ¦
æ¥ ½
Ð°Ð» Ð¾
Ġ201 6
ç» Ł
æĥ ³
as h
à¤ ¥
in er
è º«
Îµ Ïį
r Ã¨s
à© Ģ
ĠÚ¯ Ø±Ø¯
Ġu04 3
Î³ Î®
and s
ĠÙħØŃ ÙħØ¯
Ġà¤° à¤¾à¤ľ
Ġà®ª à®¾à®°
à¤Ĥ à¤¡
à¹Īà¸ §
à¦¿à¦ Ĥ
áĥĲáĥłáĥ ¢
4 4
ÑĤ ÑĢ
Ġj ob
ĠÃ´ ng
ÐµÐ½ Ð¸ÐµÐ¼
Ġë ©
Ġpres ent
Ġë ķĮ
i ver
à±įà° ¦
Ä± q
ĠÐ¼ Ð¾Ð´
ra ag
g el
à¹ ģà¸£à¸
æīĭæľº å®¢æĪ·ç«¯
è «
ed ad
Ġz na
wi Äħ
a Å¾
ĠØ¨ Ø§Ø±
ĠØ³ Ùĩ
ĠM y
Ġwebs ite
d it
Ø§Ø¹ Øª
Ð½Ð¸Ðº Ð°
áĥ® áĥĿáĥķ
Ġd ÃŃa
Ġà¦ħ à¦¬
áĥķ áĥĲ
p ar
ta ct
Ġà®ĩà®° à¯ģà®ķà¯įà®ķ
å° Ķ
à¥ĩ à¤²
d aki
Ġit em
ĠÐ¿ÐµÑĢ ÐµÐ´
ĠÑģÐ¿ Ðµ
à°Ĥà°¦ à°¿
Ġáĥ© áĥķáĥĶáĥľ
Ġtel ah
è Ħ
Ġb áº£n
ĠÕ ¯
Ġbel ir
Ġà¤ħà¤ª à¤¨à¥ĩ
æİ Ĵ
Ġpu bb
ir on
Ġch ar
Ġind ust
±à¸ ĩ
à§Ł à¦¾à¦°
Ġa z
Ġk er
uyá» ĥn
ë§ ¤
Ð°Ð» Ð¾Ð³
no ÅĽÄĩ
Î»Î¿ Î½
Ð¼ Ñĥ
Ġqu áº£
Ġve el
ĠJ o
ĠÐº Ð°ÑĢÑĤ
ĠD Ã©
ĠThe se
s ten
Ġgi Ãºp
ar ro
Ġ} .
il iz
æī ĵ
ë Ķ
Ġn ay
ĠÎ±Î½ Î¬
Ġz aman
Ġc li
Ġi z
wie t
ĠG o
Ġà°¤ à±Ĩà°²
im os
Ð³ Ð¸
Ġë Ħ
ÙĪÙĨ ÛĮ
ÐµÐ½ Ð½ÑĭÐµ
Ġis e
ad t
ĠÐ¾Ñģ Ð½Ð¾Ð²
ĠS z
Ġke p
iz met
Ġpre v
ent ro
ar ga
Î¼Îµ Î½Î¿
ĠØ¨Ø± ÙĨØ§ÙħÙĩ
åĨ Ľ
k ov
æ Ĥ
ĠÐ± ÑĢ
iv en
Ġpr ostitutas
åĮ Ĺ
Ġ×ĳ ×§
at ter
ĠëĤ ¨
ĠW er
ĠØ¨Ø¹ Ø¶
ion n
Ġ×Ĳ ×Ŀ
Ġb uy
ĠÐ¾Ð½ Ð»Ð°Ð¹Ð½
ĠÑģ Ð¾ÑģÑĤÐ°Ð²
à¤Ń à¥Ģ
ëł Ī
Ġt ro
à§ İ
Ġå ¿
ĠØ¹ÙĨ ÙĪØ§ÙĨ
ĠÎ´ Î¹Î¬
Ġ áł
a zioni
Ġd á»ĭch
ĠÑĥÑĩ Ð°ÑģÑĤ
Ġche ck
Ġb i
ãĥ ¤
Ġag äºļæ´²
Ġï¼ Ľ
s iniz
Ġbu en
Ġhá» ĩ
ĠÐŁ ÐµÑĢ
Ġáĥ£áĥ ¤
ĠÙħÙĨ Øª
f ect
Ġund erstand
à¹ģà¸ ¥
Ġ Ö
ĠÚ© ØªØ§Ø¨
Ġha ce
×¨ ×Ļ
Ġà®ª à¯Ĭ
ĠS el
ed i
es te
ĠÄĳ áº¹p
Ġl oro
Ġbardz o
Ġ Þ
k ou
à°¾à° ľ
nÃ© es
ue go
ĠP a
Õ¸ÖĤÕ© Õµ
Ïĩ Î½
Ġìĸ ´ë
Ġtut to
t ur
Ã ī
ch Ã©
Ġ Ù
ĠÐľÐ¾ÑģÐº Ð²
ÚĨ Ùĩ
ay Ä±n
Ġneed s
à§ĩà¦ ¦
íĨ µ
ĠØ§ÙĦ Ø§Ø³
ãģķãĤĮ ãģ¦
Ġo hne
Ġpr ime
í Ĥ
Ġëį Ķ
Ġas k
ÎĳÎ Ŀ
Ð¾Ñģ ÑĥÐ´
ier ung
Ã¬ m
Ġloc al
ĠÐº Ð¾Ð³Ð´Ð°
Õ ¾
×ķ×ľ ×Ŀ
ë¡ Ŀ
çĶ °
Ã© lÃ©
ĠÐ² Ð¾Ð¿ÑĢÐ¾Ñģ
ĠÐ½Ð° ÑģÑĤ
Ñı Ð¼
Ġ365 ä½ĵèĤ²
Øª Ø±ÛĮ
ĠØ§ÙĦØ¯ ÙĪÙĦ
Ġb en
Ġbah wa
ĠÙĬ Ø¬
Ġve ya
Ġat t
in ed
Ġen f
ie ve
ĠR o
å¾ Ī
é£ İ
ick Ã©
åł´ åĲĪ
ĠÎ® ÏĦÎ±Î½
Ġch ang
ĠÐŃ ÑĤÐ¾
ĠÙĩÙħ ÚĨ
Ġà¦¤à¦¿à¦¨ à¦¿
ĠÑĤ Ñĭ
Î¼Î± Î½
áĥ «
uch t
ä¸Ģ ä¸ª
ĠÐ¸Ð½ ÑĦÐ¾ÑĢÐ¼
ÙĬ ÙĬÙĨ
qu ier
g in
Ġ×Ľ ×Ĳ
Ġà¤Ń à¤¾à¤°
Ã¶g lich
à®¿à®° à¯ģà®¨à¯įà®¤
ek en
ĠÐ»Ñİ Ð´
ĠÃ¼z er
Ġdi b
p x
Ù į
Ķ à¹īà¸§à¸
ĠÕ ¸
ĠÐ° Ð´
Ġle arn
ÅĤ e
ic ol
Ġpro ject
à±Ĥà° °
il di
ãģ£ ãģ¨
áĥĿáĥłáĥ ª
ģà¸±à¸ ļà¸
ĠC l
íķ Ń
Ġd Ã¶n
Ð½ ÐµÐµ
áĥľ áĥĺáĥ¡
ÏģÎ¹Ïĥ Ïĥ
à¹ī à¸Ńà¸ĩ
åħ ¶
æĶ ¶
f ol
Ġë° ľ
ler ini
Ġp emb
ĠãĤ Ĵ
ĠV ers
Ġs ia
ë ¯¼
ÏĥÎµ ÏīÎ½
Ġfa ct
ĠØ® Ø§ÙĨ
à®ļ à¯įà®ļ
Ġprodu ct
Ø± Ú¯
à¤ ł
ãĥĨ ãĤ£
Ùĥ Ø³
ĠÐ´ ÐµÐ¹ÑģÑĤÐ²
Ġph áº§n
Ö °
Ð¾Ð» Ñı
Îķ Î£
l t
Ð¾Ð²Ð°Ð½ Ð¸Ðµ
Ïĩ Î®
à¯įà® ¨à¯įà®¤
ĠÙĩØ³Øª ÙĨØ¯
Æ° u
ĠÛĮÚ© ÛĮ
áĥĲáĥķ áĥ¨
fÃ¼ hr
ci ment
Ġk iÅŁ
Ķà¸´à¸ ¡à¸ŀà¸
ĠØ§Ø³Øª Ø§ÙĨ
p ort
ç ¯
Ã¤n d
ä» ·
ĠØ§ ÙĬÙĨ
il a
is ti
áĥł áĥĺáĥ¡
ff en
2 8
ł à¸
ĠU S
Ġbu de
à§ģ à¦®
á»Ļ ng
Ġcomple te
Ġà®ķ à¯ģà®±
×ĳ ×ķ×ĵ
Ġas ÃŃ
ÑĢÐ° Ñī
m u
iz io
ot a
Ä±m Ä±
Ġun o
ĠáĥĽ áĥĹ
Ġæ Ĭ
ĠHo tel
ia re
Ġhá» ĵ
Ġà°ħ à°¨
Ġth Ã¡ng
æ² ¡
p a
Ġ ÏīÏĤ
Øµ Ø©
ĠC ol
ÏģÎ¿ Î½
Ġs enza
à¥ģ à¤ķ
Ġchild ren
ĠÑįÑĤ Ð¾Ð³Ð¾
×© ×ķ×ª
ĠØ¨ ÛĮÙħ
Ġeas y
çĻ¾å®¶ ä¹Ĳ
è» Ĭ
ĠÎº ÏĮ
ro d
iv id
Ġâ ľ
éĻ Ĳ
Ġpo int
Ġ×ĳ ×ł
ĠÐ» ÑĥÑĩÑĪ
ĠP ost
Ġë° ı
g l
Ġà°ķ à±Ĭ
è® º
ĠÕ ¥
ÏģÎ¹ÏĥÏĥ ÏĮÏĦÎµ
Ġch ange
à§įà¦ ľ
åŁ º
Ø§Øµ Ø©
Ġà®¨ à¯Ģ
Ïģ Î¸
ÑĢ Ðµ
Ġwer k
Ø§ Ù¾
ÙĪÙħ Ø©
ĠØª Ø³
ĠÐ¼Ð°Ð³ Ð°Ð·
v is
Ñĥ ÑģÐº
Ġact iv
ro om
Ã¼ s
y en
5 6
Ġ ä¹
ĠF re
iv ed
Ġag çľŁäºº
a f
Ġm iejs
Ġtah un
Ġc over
u c
Ġ2 4
Ġ0 2
f l
ĠÐ¿ÑĢ Ð¾Ð±
Ġà¦¹à§Ł à§ĩà¦Ľà§ĩ
Ġáĥ® áĥĶáĥļ
ĠÎ Ĩ
Ġè ĩ
Ð½ Ð¸Ð¼
ĠC an
å¼ º
Ġm al
Øµ ÙĪÙĦ
Ġk r
Ġem pl
ĠÐº Ð°Ð¶Ð´
ì² Ń
ĠÐ² Ðº
h nen
à®£ à¯įà®£
Ġæŀ ģéĢŁ
è² ·
çľ ģ
à®¿à®² à¯įà®²
ĠÐ±Ñĭ Ð»
Ġad i
Ġa Ã±o
es k
à±įà°² à±ĭ
Ħà¸¸à¸ ĵà¸
Ġapp lic
Î¾ Îµ
Ġfaz er
à¤¤ à¤¿
Ġev ent
Ġà¦ķ à§ĭà¦¨
ĠÐĲ Ð»
ĠØµ ÙĨ
åıĳ å±ķ
×ĳ ×Ļ×Ŀ
ĠØ¢ÙĨ ÙĩØ§
à°¾à°¨ à°¿à°ķà°¿
ĠÄĳ iá»ĩn
ĠÑħ Ð¾ÑĢÐ¾ÑĪ
Î»Î» Î·Î½
as z
ĠG esch
ÅĻ i
Ùİ ÙĦ
Ġà§¨à§¦à§ §à§
ãģĿ ãģĨ
è¿ ĳ
Ġk ap
ĠÎĶ Î¹Î±
áĥĿáĥ Ļ
Ġé ĺ
ĠBras il
Ø® ÙĪ
à°¿à° ®
neh men
ĠìĽ Ĳ
ĠÎ¤ Î±
å¸ ¸
ĠØ§ÙĦØ± Ø¦ÙĬØ³
ĠH ow
ä¸ ĵ
ĠØ¹ ÙĦÛĮ
ow ym
×¢ ×Ķ
N o
ĠÂ º
æĴ Ń
op en
Ġà®¤ à®®
ĠÐ±ÐµÑģ Ð¿Ð»Ð°ÑĤ
ĠS Ã£o
ĠR edir
ÙĤØ¯ Ùħ
te ment
ĠØ§ÙĨØª Ø®Ø§Ø¨
Ġc reat
à© ĩ
up akan
Ġv ida
à° ·
ĠÎº Î¹
ç² ¾
ï »
ĠÙħØ±Ø¯ Ùħ
ÙĪÙħ Ø§ÙĨ
à°¿à° ¸à±įà°¤
Ġm oney
ÙĦ ÙĬØ©
Ġpr Ã³
Ġch á»©c
ĠØ¢ ÙĩÙĨÚ¯
Î½Î· ÏĤ
æ£ĭçīĮ æ¸¸æĪı
b aar
ãĥĥ ãĥī
åĳ ³
ĠD i
ĠO d
Ġtem ps
ci r
¨ å¤©
Ð¾Ñģ Ð¿
t il
Ã¼k s
à§įà¦ ł
od e
ik t
ÐµÑģÑĤÐ² Ð¾
Ġs ar
é© ¬
æł ĩ
ä¸ ĸ
ou d
Ð° Ñİ
ĠØ¨Ø± Ú¯
Ġáĥ¡ áĥ¢
à¯ĩ à®©à¯į
ĠaÃ§ Ä±k
ul ts
ac aÄŁ
ĠÐ½ ÐµÑĤ
Ġp Å¯jÄį
ier w
t ed
Ġcour se
Ć ą
Ġãģĵ ãĤĮ
ĠÐ´ Ð¾Ðº
ĠÎ¼ ÏĮ
ĠÎ½ ÎŃ
Ġ. "
os a
ì§Ģ ë§Į
f all
Ġà¦ķà¦° à¦¤à§ĩ
Ġê± °
Ġsu ccess
ãĤ Ģ
ÙĬ Ø¬
Ġå¤§åıĳ å¿«ä¸ī
ĠÂ °
ĠC e
ater i
Ġkh u
Ġn ouve
à±Ģ à°¸
ĠØ³ Ø¨
el eri
Ġmay or
Ġh anya
ation en
ĠAr beit
ç Ĭ
Ð¾ Ñħ
ì° ¨
ãĤĭ ãģ¨
Ø§Ø¦ ÙĬ
Ġæ Ľ
Ġth Æ°á»Ŀng
ĠC Ã´ng
çĶ £
áĥĲáĥ ŀ
pow ied
Ġcon st
Ġà®¤ à®¿à®°
Ø´ ØªÙĩ
em y
Ġtá» Ľi
à¸Ńà¸ ļà¸
à¤ ·
get her
Ġro ku
ĠØ§ÙĦÙħ ÙĨØª
\ "
Ġfor ma
Ġpers onas
Ðµ ÑģÑı
ĠÐ· Ð°ÑĢ
ĠÏĩ Î±
ï¼ Ĵ
le p
Ø± Ø§
c ont
Ġh ouse
ĠÙħ ØµØ±
ĠØ¨ ÙĪ
Ġv ÄĽ
Ġprop r
ill ion
Îº Î¹
ĠÙĪ Ø§ØŃ
Ġìĭ ¤
ĠD z
ĠÄĳ áº¡i
ĠÎĶ Î·
ĠÐºÐ¾ÑĤÐ¾ÑĢ ÑĭÐ¹
i ble
it Ã¤t
ĠÐµ Ðµ
ãĤ ¶
Ġë§ Ĳ
ÅĽ li
åĻ ¨
n ak
Ġà¦ıà¦ķ à¦Łà¦¿
Ġt ÄĽ
ĠÙħ Ø¤
Ġb ers
Ġpu Ã²
Ġ×¨ ×Ĳ
Ġb á»ĩnh
ĠÚĨ ÙĨØ¯
ìŀ ĳ
he re
Ġes to
ge b
ad Ä±r
áĥĿáĥłáĥ Ľ
Ġc ase
amp le
æľ ¯
çķ Į
à°¾à°¯ à°¿
ot o
f ach
ï º
à¤¿ à¤Ĥà¤Ĺ
ĠÎ±Î½ ÏĦÎ¹
ur ah
ľà¸¹ à¹īà¸
í Ŀ
ĠC u
à¦¾à¦¦ à§ĩà¦¶
ê· ¸
ĠÐ²Ð¸Ð´ Ðµ
ìĸ ´ë
Ġà°ª à±Ĩ
Ġcon ne
á»Ł i
§à¸ ±à¸Ļ
Ġà¤® à¤¿à¤²
ÐµÑĤ Ðµ
åħ ļ
ÑĥÑĤ ÑĮ
Ġà¤¦ à¥ĭ
ud ah
is ke
Î¯Î½ ÎµÎ¹
ĠáĥĽ áĥĲáĥĹ
à±ģà° ¡à±ģ
i ÃŁ
ìĹ Ī
Âµ ÃĦ
Ã³ j
ĠD o
ill s
ler e
Ġn y
Ġp ain
Ġgi áº£i
åı¯ ä»¥
à°¾à° ¡à±ģ
ĠãĤ Ń
ÙĩâĢĮ Ø§ÛĮ
à®¿à®© à¯įà®±
Ġv Ã¦re
k ad
Ġà§ ©
ÐµÑĢ ÑĤ
Ġz w
Ġa way
ĠëĤ ´
è¾ ¼
ĠM ais
ug ar
×ŀ× ©
eit o
Ġj en
ient os
×Ļ ×ķ×Ł
à§Ł à¦¾
Ġpers onal
åĲ ĳ
Ġse us
Ġu z
à°Ĥà° Ĺ
Ïĥ Î¹Î±
Ġho áº·c
Î» ÎµÎ¹
Ø¨ ÙĬØ±
ĠØ§ÙĦÙħ ÙĤ
ĠÙģ Ø¹
à¸Ļà¸ ±
7 0
ow i
à¦¾à¦ķ à¦¾
Ġ×ľ ×ª
Ġb ene
à¦¿à¦ ľ
Ðº Ð¾Ð¼
ëĤ ´
Ġg ÅĤ
à¹ĥà¸ «à¸
æĸĻ çĦ¡æĸĻ
Ġv Å¡e
Ġb le
ĠÙĨÛĮ Ø³Øª
Ġil s
à¤¾à¤¹ à¥Ģ
åķ ı
Å¾ it
Ġof ten
Ġor t
et ta
Îķ Î¡
ÑıÑĤ ÐµÐ»ÑĮ
Ġn l
et ti
Ġ| --
der e
ÐµÑĢ Ñĭ
×Ĺ ×ª
Ð°Ð»ÑĮ Ð½ÑĭÐ¹
Ïģ Ïħ
Ùģ Ø©
im iento
ê¸ ī
Ġà®® à¯ĩ
as yon
Ð¾ÑĢ Ð¾Ð²
Ġ ãģĦ
ĀĀĀĀĀĀĀĀ ĀĀĀĀĀĀĀĀ
à¦¾à¦¨ à§ĩ
à°¾à° ¸
ĠÎº Î¬Î½
Ġà®ĩà®° à¯ģà®¨à¯įà®¤
áĥĵ áĥĶáĥĳáĥĲ
Ġáĥ¡áĥĲáĥ¥áĥĲáĥłáĥĹáĥķáĥĶáĥļ áĥĿáĥ¡
à¤¾à¤¨ à¥Ģ
Ġgiá» Ľi
Ã Į
Ø§ ÙĬØ©
ĠÅ ł
ĠØŃ Ø¶
à¨ ¿
Ġm uss
Ġph Ã¡p
Ġãĥ ĳ
à¥ĩ à¤¸
ĠØ¬ Ø¯ÙĬØ¯
Ã³ s
Ġpr ix
ĠáĥĻ áĥĿáĥĽ
Î»Î» Î·
iss ion
Ø¨ Ø±ÛĮ
ĠÑĢ ÐµÐº
ĠbÄĻ dzie
Ġcol le
ĠÑĤ Ð¾Ð²Ð°ÑĢ
Ġs Ã¼re
ĠV ous
ivers ity
Ġac qu
Ø¨ ÙĨ
à°ķà±įà° ·
Ġà° «
à¦ľ à¦¨
ĠH and
ç§ į
v y
ç ¡
çķ ª
Ġpos sible
Ġ×Ļ ×ķ×ª×¨
ĠÚ©Ø±Ø¯ ÙĨ
Ġd Ã¹ng
Ġà®ķà¯Ĭ à®£à¯įà®Ł
à±įà°² à±ģ
Ġsa ja
à¦¾à¦¤ à§ĩ
Ø± Ø§Ùĩ
k et
Ġc el
ä¼ ł
Ġal ong
Ø¨ Ø§ÙĦ
Ġtr ang
ãĤĵ ãģ§
ãĥ³ãĤ ¿
iá» ħn
il ÉĻr
Ķà¸ ¥
Ġà¤² à¥ĭà¤Ĺ
áĥĵ áĥĶáĥĴ
ĠÃ©ta it
Ã¤ s
Ġ Ä±n
Ġv ers
å¿ ľ
on te
Û° Û°
ØŃ ÙĬ
à· Ĵ
at or
áº© n
Ġãĥ ª
be id
i ques
Īà¸²à¸ ģ
Î¼ÏĮ ÏĤ
¥ ¼
Ġlá»Ľ n
ĠÎ± Ïĥ
à¹Ģà¸ ¥à¸
y t
ĠE uro
Æ Ĵ
Ġk áº¿
Ø± Ø³
Ġtr á»ĭ
Ġf iles
Ġit o
Ġc ri
Ġà¤¬ à¤¾à¤¦
ãĥ» ãĥ»
à¸² à¸£à¸
ĠS te
à¥ĭ à¤ľ
ë¬ ¼
Ġw ij
ĠÃ ĥ
Ø£ Ø³
ement s
Ð½Ð¾Ð¼ Ñĥ
Î» Ïħ
zion ale
ient es
ÉĻ q
ì ¸
ĠÎµ ÏģÎ³
ĠO p
ÑĮ Ñı
ÙĬ Ø´
ä¾ Ľ
áĥĺáĥľ áĥĲ
on na
ĠÙģ Ø§Ø±
Ġà¤ķà¤¹ à¤¾
ĠØ¯ ÙĪÙĦ
v oor
Ġà° ¯
à¤¾à¤ ĵ
ĠÙĨ ÙĤ
Ġto gether
m eld
Ġ×ŀ× ŀ×
Ùİ Ø§
ĠÅ ļ
ĠØ¯Ø§Ø´ ØªÙĩ
å ĥ
Ġg io
ÑĢÑĭ ÑĤ
ä¼ ĺ
j em
Ġb on
ĠÐĲ Ð²
ãģ¡ ãĤĥ
Ġ. ,
è½ ¯
Ġbe aut
à± ĥ
éģ ¸
ÙĨØ¯ Ú¯ÛĮ
Ġà°ļà±ĩà° ¸
Ġm ich
ĺ à¸
an cia
ou l
ĠÙĪ Ùģ
Ġä» ¥
Ġf Ã¥
à±ĩà° ¶
el ing
×¢ ×ķ×ª
Ġn ame
è¶ ³
Ġb aik
ĠÏĢ ÏģÏİ
ch ter
ãĥķãĤ ©
Ġj us
Ġà¤¸ à¥Ģ
à¦¿à¦ ¯à¦¼
ãĥ¼ ãĤ¯
b or
ĠÐ² Ð°ÑĪ
ar kan
ĠÐļ Ð¾Ð¼
Ġ àª
ĠÎ ¯
Ġse em
Ġà¤°à¤¹ à¥ĩ
ĠØ§ÙĦ Ø§Ø³Øª
Ġa h
Ð» Ð¾Ð²
Ġall ow
ĠÎ± ÏģÏĩ
Ã³ l
ĠC as
Ð¾Ð» Ð¾Ð´
Ġqu ando
Ġå İ
à¸Ńà¸£ à¹Į
à ³
Ġb ro
Ġtr as
Ġst ate
ĠÏĩ ÏģÏĮ
á»į ng
Ġke h
ag a
Ġh indi
ĠÐº ÑĥÐ¿Ð¸ÑĤÑĮ
ĠS ain
k ÄĻ
g ul
ĠCh at
à°¤ à±įà°¤
áº§ m
ĠØªÙĪØ³ Ø·
n ic
à¹Ħà¸ Ľ
ÛĮÙĨ Ùĩ
Ø¨ Ø§ÙĨ
.... ....
Ø±ÙĪ Ø²
Ġà¤¤ à¤ķ
ÏĦÎ· ÏĥÎ·
Ġth o
ĠÑģ Ð¾Ð·Ð´
Ġà¤ķ à¤®
Ø´ Ø¯
ĠãĢĳãĢĲãĢĤ ãĢĳãĢĲ
áĥķ áĥĺáĥĹ
ÙĲ ÙĬ
Ġr Ã³w
Ġèĩ ª
ak Ä±
oc us
ĠV i
ķ àµįà´
on do
×ĳ ×Ļ
Ġãĥ Ī
Ġuns er
à§ģ à¦ķà§įà¦¤
ar ia
ĠO ne
ÉĻ ti
à¦ª à¦°
ar s
ÙĨ Ùĩ
ĠÙĩÙħ Ùĩ
ed e
hal ten
Ġ äºº
Ġnh iÃªn
ä½ ķ
Ġc rÃ©
ĠØ¯Ø§ÙĨØ´ Ú¯Ø§Ùĩ
Ġcol or
lÄ±ÄŁ Ä±
áĥĶáĥ Ļ
r Ã¡
u de
ĠQu á»ĳc
Ø±Ùĥ Ø²
ãģ ĸ
Ġtr ad
Î» Î¿Ïħ
é §
ÑĨ Ñĭ
«à¸ ¡à¸
ĠØ³ Ø§Ø¹Øª
ķ à¸²à¸
is sen
Ø³Øª Ùĩ
ĠÑĦ Ð¾ÑĤ
±à¹īà¸ ĩà¸
Ġpre m
ĠÐĿ Ðµ
Ġde tail
Ġà¤ī à¤ª
ĠØ¨Ø± Ø®
ĠÎ¼ÏĢÎ¿ ÏģÎµÎ¯
ĠÏĢÎ± ÏģÎ¬
Ġl ine
Ġãĥ ©
Ð³ Ð¾ÑĤÐ¾Ð²
v i
ĠáĥĻ áĥĺ
Ġ201 8
±à¹īà¸ ĩ
b ul
un n
Ã¸ p
al Ä±k
Ġha i
áº ³
à±ģà°Ĥà° ¦à°¿
è ±
·à¹Ī à¸Ń
Ġå¼ Ģ
é¡ ¹
Ġfiles _
ge ven
Ð»ÐµÐºÑĤ ÑĢ
Ġíĺ Ħ
ÐµÐ½ Ð½ÑĭÐ¹
Ġh um
ie k
ĠèĢ Į
ĠÏĮ ÏĢÏīÏĤ
æ± Ĥ
Ġé Ķ
×ľ ×ª
Õ¸ÖĤ Õ¶
ÑĦ ÑĦ
Ġà® ¯
äº ĳ
ĠÐ° ÐºÑĤ
Ġf are
a Ã§
åĬ ŀ
Ġpl an
Ġà° ¡
Ø§ØŃ ÛĮ
à¹Ģà¸ Ľà¹ĩà¸Ļà¸
Ġä¸ º
c ja
¥ à¸´à¸
iÄĻ k
Ð¸ÑĩÐµÑģÐº Ð¸Ðµ
eder land
ÃŃ ce
a ber
à¯ģà® ª
Ġwe er
à¦¾à¦ ¥
ĠáĥĽ áĥĲáĥ¡
ĠF l
Ġ×ķ ×Ľ
Æ° ng
ĠØ®ÙĪØ¯ Ø±ÙĪ
Ġáĥ¡ áĥĲáĥ¡
Ġge gen
Ġun til
Ġcáº£ m
íĻĶ ìĿ´íĬ¸
ĠÐ½ ÐµÐ¿
Ġd il
in cip
à¹Ħà¸ Ľà¸
Ð¾ Ð½Ñĭ
Ġà°® à±Ģ
Ø¨ Ø¹
Ġen joy
æ¸ ¯
Ùİ ÙĨ
ĠØ± ÙĤÙħ
Ġt reat
pp ing
Ġï¿½ï¿½ï¿½ ï¿½
ic le
ĠÑĢÐ°Ð±Ð¾ÑĤ Ñĭ
Ø§Ø´ Øª
×¤ ×ª
à¥Ĥ à¤°
à®³ à¯Ī
á»į c
ir os
Ġb Ã¶l
è¯ ķ
ĠØ§ÙĦØ¹ Ø§Ùħ
íĶĦ íĻĶìĿ´íĬ¸
ĠÃ ¢
ĠØ®ÙĪ Ø§ÙĩØ¯
ĠÐ· Ð°Ð±
Ġà®µ à®¿à®
ĠUn d
à¤¿à¤ ®
Ð°ÑĤ Ð¸Ð²
Ġenc ont
Ġà®® à¯ģà®Ł
Ľà¹ĩ à¸Ļ
ĠÛ µ
Ġs ing
é¢ Ĩ
aÃ± a
Ġf uer
ĠØªÙĪ Ø¬Ùĩ
ĠÎ± Îº
os s
Ð¾Ð» Ð¾Ð²
Ġ0 5
Ġc Ã´
Ġà¤ľ à¥Ģ
Ġà¦Ĺ à§įà¦°
Ġc Ã¡i
á» ¹
Ã¸ n
ck en
ĠÐ¾ÑĤ Ð½Ð¾
ãĥª ãĤ¢
ĠáĥĽ áĥĿáĥĽ
Ġcre ate
ãģı ãģł
Ġ×© ×ł
Ã© t
è ĳ
Ġà¸ ļà¸Ńà¸¥
Ġh ij
ÏĦÎ¹ Ïĥ
ãĤ¤ ãĥ³
ĠÙĪ ÙĦÙĥ
ĠØª ÙĦ
p g
ĠÐ¼ÐµÐ½ Ñı
Ġë°Ķ ì¹´ëĿ¼
cz a
Ġwh y
in y
Ð¸ÑĤ ÐµÐ»Ñı
Ġf otos
Ġper met
Ġpar ti
ĠN a
Ġre ci
ìĨ į
åĭ Ļ
ma q
ÐµÐ½ÑĤ Ð¾Ð²
Ø§ØŃ Ø©
ĠéĢ ģ
Ġí ĽĦ
ur y
acy j
ĠÐ¿ÑĢÐ¾Ð³ ÑĢÐ°Ð¼
Ġn et
Ġol un
Ġé Ļ
Ġà®ī à®³à¯įà®³
å¤ ´
in do
Ġæĺ ¨å¤©
åİ Ł
Ġà¦ķ à¦®
à¥ģ à¤¤
³à¸ «
åħ ±
Ġ áº£nh
Ġmu a
Ø§Ø¦ ÙĦ
ut es
ĠÐ¶ ÐµÐ»
ĠÚ© Ø¯
¶ Į
c en
Ġa ma
k om
ì ¤ĳ
Ġke ine
å¾ ·
á» Ľ
uy or
Ġæ °
ĠØ³ Øª
Ġv r
Ġà¤Ĩ à¤£
Ġì ¶
åĪĨ åĪĨå½©
h Ã¶r
Ġmer upakan
ç½ĳ æĬķ
ĠÎ´ Ïį
Ġind ivid
Ġm ismo
Ø§Ø¯ Ø±
Ġog ni
elijk e
c ing
ra z
Ġper fect
Ġdo anh
áĥĲáĥ «
Ð°Ð»ÑĮ Ð½Ð¾Ð³Ð¾
ĠpÅĻ i
ÏģÎŃ ÏĢÎµÎ¹
ap er
Ġfo ll
Ġ1 00
Ġde y
ĠáĥĲáĥ ķ
ĠØ³ Ø±ÛĮ
ĠÐĲ ÑĢ
à¦¨ à¦¿
ar am
ĠåĲ į
Ġx em
èģ ĺ
Þ ¦
Ġbene f
è Į
Ġz ich
j en
Ġs ide
e in
ĠÛ ´
I C
Ġ×Ķ ×Ļ×Ķ
Ġc aÅĤ
ļ à¸£à¸´à¸
ìĻ ¸
ĠAG çİ¯äºļ
Ġh ist
è² ¸
Ġà¦¸à¦® à§įà¦ª
ĠÑĢ ÑĥÐº
à¥ĩà¤ ľ
Ġil g
Ġæ ¯
ll ing
ĠM an
Ġthá»© c
ê° ģ
æ² »
Ġqu Ã¡
Ġon ze
Õ¡Õ ¿
ì µľ
Ġbe berapa
k ol
d ag
Ð¸ÑĤÐµÐ»ÑĮ Ð½Ð¾
Ġà°ķ à±ĭ
Ġdes p
Ġë Ĭ
áĥĺáĥ¨ áĥķ
í Ĺ
à±įà° ķ
ĠÑĢ Ñĭ
Ġj u
ĠØŃ Ø¯
Ġà¦¸ à¦¬
Â ª
Ġà°® à°°
à¤° à¤¾
×ĵ ×Ķ
è¾ ¾
Ġdies er
Ð¸ÑĩÐµÑģÐº Ð¸Ñħ
Ġst y
Ġè ´
Ø® Ø¯
ĠÐ¾ Ð³
Ġch á»įn
Ġto pl
Ġand ere
ĠÃ Ī
Ġt ay
ĠØ³Ø§Ø² ÙħØ§ÙĨ
in al
à Ń
ĠN on
ÐµÑĢ Ð³
Ġf our
as il
e h
N G
iy i
à¦ ·
ar z
ĠÐ³ Ð´Ðµ
p ro
×ŀ× ¦
ÙĪ ÙĪ
à¹īà¸ §
ãģ«ãģ¤ ãģĦãģ¦
ãģĮ ãģĤãĤĭ
u we
Ġw z
ĠPro duk
à¥įà¤ ¨
Ġs ous
Ġv ideo
Ġx xx
Ġv ie
iá»ĩ m
áĥłáĥ «
Ġg anz
Ġha ving
Ġm ateri
Ġà¦¬à¦¾à¦Ĥà¦² à¦¾à¦¦à§ĩà¦¶
l ah
Ã³ c
Ġl ui
ĠÑħ Ð¾ÑĤ
Ġå¤ ©
Ġà®µà¯ĩ à®£à¯įà®Ł
ĠÐ³ Ð¾ÑĢ
Ġs ÅĤ
Ġà®¤à®® à®¿à®´
ĠÏĢÎµ ÏģÎ¯
Ġb Ã¼yÃ¼k
ĠS on
Ġé Ĥ
áĥĲáĥª áĥĺ
ãĥĥãĤ¯ ãĤ¹
ĠÎŃÏĩ Î¿ÏħÎ½
ĠãĤ Ĥ
åĲ Ħ
il idade
t Ãł
ĠH Ãł
ĠÙħ Ùħ
ŀ à¸Ļà¸
ãĤĪãģĨ ãģª
ar ten
Ð°Ð· ÑĭÐ²
id s
Ø¨ÙĬ Ø¹
×Ľ ×ķ×ľ
ä¼ģ ä¸ļ
ëŀ Į
Ġç½ ĳ
Ġà¦¯ à§ĩ
ill es
Ġex c
åħ ī
Ġrese arch
Ġt imes
ä¸ ¤
Ġav oir
ĠÙħÛĮâĢĮ Ø´ÙĪØ¯
Ø¹ Ø§Ø±
ÙĨØ¯ ÛĮ
ĠçĶ µ
ÑĪ Ðµ
Ġa os
Ø³ Ø§ÙĦ
×¨ ×ĺ
un a
ĠÑģÐ² ÑıÐ·
ĠktÃ³ r
om a
ĠUn tuk
ĠP en
uf f
Ġm undo
Ø§Ø º
em me
c as
Ġb aj
ãĤģ ãģ¦
Ùĩ Ùĩ
Ġ Ã¡n
ĠÐ¼Ð°ÑĤ ÐµÑĢÐ¸
éľ ¸
à¦¤ à¦¾
ãģ® ãģĭ
ac es
ĠÐ» Ð¸ÑĨ
è¯ Ŀ
ì¶Ķ ì²ľ
Ġy Ãªu
èĢ Į
Ð¼ ÐµÑģÑĤ
Ġincl ude
Ġg ir
ĠØ§ÙĦØ ¶
ÑĨ ÐµÐ½
Ġtem po
Ġci udad
ĠN ous
ĠÃ į
Ġãĥ Ĺ
ĠÃ§ ox
Ð°Ð»ÑĮ Ð½Ð¾Ð¹
en se
éĽ »
Ġcommun ity
à¯ĩ à®ļ
is tem
ëĬ ¥
à¤¸ à¥įà¤¤
¬ áĥ§
Ġáĥ¡ áĥ®áĥķ
à±įà°¨ à°¿
an c
Ķà¸´à¸¡à¸ŀà¸ ±à¸Ļà¸
Ð½ Ð¸Ð¹
ĠÑĨ Ð²ÐµÑĤ
¤ Ģ
ers te
ĠÐŀ Ð´
Ġä¸Ń åĽ½
à¤Ĺ à¥Ģ
Ð½Ð¾ÑģÑĤÑĮ Ñİ
¯ à§ĭà¦Ĺ
à¸´ à¹Ģà¸
Ġæ ķ
is ter
à¨ °
Ġe lect
ĠÏĢÎµ ÏģÎ¹ÏĥÏĥÏĮÏĦÎµ
v Ã¡
áĥ£áĥ ¡
he s
ad an
Â ¹
ç Ĺ
ll os
æł ¡
ĠÙħÛĮ ÙĦÛĮ
Ø§ÙĤ Ø©
á Ī
à®± à¯įà®ª
ĠTh ank
à°¾à° ¡
Ú¯ÛĮ Ø±ÛĮ
à¹ģà¸ ļà¸
à§ģ à¦¬
it ive
Îº Î®
Ð¼ ÐµÑĤ
ãĤĪãģĨ ãģ«
Ø¬ Ø±
ķ à¹īà¸Ńà¸ĩà¸
ÑĢÑĥ Ð¶
l ung
Ġsa o
Ġí İ
ac je
ll ik
áĥĲáĥļ áĥ£áĥłáĥĺ
æ Ł¥
å· ±
id en
ĠM en
ĠTr ung
Ġé Ŀ
Ġ ÅĻ
Ñ ĸ
æŃ ¤
Ġmemb uat
Ġon s
g od
×Ļ× ŀ×
Ġt áºŃp
Ġd ag
Ġà¦ħ à¦Ń
Ø§Ø¹ Ø¯
Ð¾ÑģÑĤÐ¾ ÑıÐ½
ĠÙĥØ§ÙĨ Øª
ĠØ² ÙĨ
ÎµÎ¯ Î¿
Ġêµ Ĳ
ĠK inder
à¹ī à¸Ń
äº Ī
à¯ģà®® à¯įà®ª
cr ip
om m
Ġl i
ÙĪ Ø§Ø±
ÄĻ t
ÏĦÎ¹Îº ÏİÎ½
à®ķ à¯į
Ġ×ľ ×Ļ
Ġc á»©
cz Äħ
Ð¿ ÐµÑĢ
ÏĦ Ïģ
ĠáĥĽ áĥĿ
å¤ Ħ
Ġde g
ĠU ne
Ġ ÉĻ
æĸ° éĹ»
áĥĺáĥ ¥
ĠÑģÐ¾ Ð¾Ð±Ñī
Ġz osta
ĠC ent
Ġne i
c ent
áĥł áĥĿáĥ¡
à¥įà¤ ·
ç© º
cz nie
Ġt ener
Ã©n Ã©r
Ġger Ã§ek
tell t
ĠØ§ ÙĤØª
ĠÙĨÙħ Ø§ÛĮ
×¤ ×©×¨
ĠÐ¿Ð¾Ð¼ Ð¾Ñī
ĠØ£ÙĨ Ùĩ
un kt
ÐµÐ³ Ð¾Ð´
ĠØ¨Ø§Ø² Ø§Ø±
Ġper m
á» Ŀ
ĠáĥĹ áĥĲáĥľ
¸à¸ ķà¸
à¯įà® °
ĠR Ã©
ĠØ² ÙħÛĮÙĨ
Ġg overn
ou te
Ġë¶ Ħ
ĠÐ¸ ÑģÐº
ÐµÐ½ Ð½Ð¾Ð¹
Ġar r
íĺ ķ
Ġse v
Ð¾ÑģÑĥÐ´ Ð°ÑĢ
Ġp age
Ġhv or
ĠÏĢÎ¿Î» Ïį
ĠCom m
ªà¸¸à¸ Ķ
áĥĶáĥ ĸ
Ġsh o
Ġv áº«n
Ġå° Ĭé¾Ļ
Ø² Ø©
ai x
Ġz elf
ĠBaÅŁ kan
ĠÙĦ Ø£
ÏĢ Î¯
Õ ½
Ġi hre
Ġà¤īà¤¨ à¥įà¤¹
ìĶ ¨
à¸Ńà¸£ à¹Įà¸
ut to
f a
ĠÃ© g
ver al
so ci
×ĸ ×Ķ
Ľà¸ ¥
f r
ãģĹ ãģĭ
à¹Ģà¸ Ĥ
Ġot ros
å¹ ¿
re am
Ġf ocus
à¦¿à¦ ª
ì½ Ķ
ta ctos
Ġwe b
Ġpu j
or ies
Ġmem ber
à¹Ĥà¸ ¡à¸
ÏĦ Ïİ
Ġà¦¸ à¦°
Ġter b
Ġà¦¦ à§ĩà¦¶
Îº Î¬
à¦¿à¦ Ľ
Ġy eni
Ġæľ Ģ
ç¾ ¤
Ġtaraf Ä±ndan
Ġ×ŀ ×Ļ
Ã¶y le
áĥĿáĥ ¢
ĠÐ¡ Ð¿
ĠÙħÙĪ ÙĤ
éĢ ł
à¦¨à§įà¦ §
Ġest Ã¡n
Î´ Îµ
è½¯ ä»¶
Ġà®ļà¯Ĩà®¯ à¯įà®¤
Ãº s
ĠâĢ ª
Ä ŀ
ØŃ Ø±
Ġr ip
ĠÃ¶ z
áĥ£áĥ ¨
t an
Ġå ¦Ĥ
Ġáĥĺáĥ§ áĥĿ
æŀ Ĺ
Ġk m
ÏģÎ¯ Î¶
l Ã¡
ersch ied
Ġt Äĥng
ĩ à¸²à¸Ļà¸
ĠrÃ© p
Ġáĥ£áĥ Ļ
in si
ĠÃ© c
iÅŁ tir
Ġg l
ÐºÐ° Ñħ
Ġh ari
Ġdo ÄŁ
à¹īà¸² à¸Ļà¸
×¡ ×§
ĠScar pe
I A
wer k
Ġz ab
Ľà¸£à¸ °à¹Ģà¸
àµį âĢį
à¸Ńà¸ ģà¸
ÙĦ Øª
Ġre st
à¹Ģ à¸£à¸
ang k
ÏĦÎ¹Îº Î¿Ïį
ĠMad rid
uy á»ģn
ãĥ¼ãĤ ¿
æĿ ĳ
ot t
Ġth á»§
Ġat tiv
×ķ×ł ×Ļ
ĠÑĩÐµÑĢ ÐµÐ·
Ġp es
r ation
Ã³r ia
ÏĦÎµ Î¯
åĪ Ľ
ÐµÐ½ÑĤ Ð°
ĠÑıÐ² Ð»ÑıÐµÑĤÑģÑı
ĠN ederland
ÅĽ l
Ġcont ro
íĥ Ŀ
ciment o
à´ °
ķ à¸£
ĠÙĪÙĩ ÙĪ
ol es
ĠÙħ ÙĩÙħ
Ø¶ Ø§
ĠÄ° ÅŁ
Ġex pect
Ġagain st
ĠØµ Ùģ
Ġi yi
Ġv áºŃy
à±įà° ¥
Ġk le
Ġne ar
ì ¶
ç» Ħ
ĠÐ» Ð¸
L L
Ġen cu
¹à¸ ģà¸
Ġëª¨ íħĶ
ÑĨ Ð¸Ð¹
Ð¸Ð± Ð¾
alam ang
Ã¼ hr
Þ¦ Þ
èĬ ±
vÄĽ t
an bul
ĠÐ´ Ð°Ð¶Ðµ
Ġwork s
Ġë ¦¬
à¤¾à¤° à¤¾
ĠØ§ÙĦÙħ Ø¬
ĠM ujeres
íķľ ëĭ¤
Ġmak en
Ð¿ÑĢÐµÐ´ ÐµÐ»
ÑĥÐ± Ð»Ð¸
Ġà°¸ à°®
çİ ĭ
æĭ į
em Ã¡s
áĥĺáĥ ¤
ÙĬÙĦ Ø©
ÙĪ Øµ
ĠÑģÐ¿ Ð¾ÑģÐ¾Ð±
ëį ĺ
Ġpro duk
Ġpesso as
à¥Ĥ à¤ª
Ġk end
Ġpa ÃŃs
Ġil k
éĺ Ł
u Ã©s
Ġla w
Ġç ī
ĠI hre
áĥĿáĥł áĥĺáĥ¡
ĠáĥĴ áĥķ
à¸´ à¸Ļà¸
Ġdi re
Ã¡ vel
Ġweit er
Ġgiá» ¯
Øµ Ø¯
Ġkter Ã½
Ġpr ac
kad aÅŁ
åĪ ĩ
Ñĭ Ð»
Ġè ²
Ġà¤® à¥ģà¤
Ġt Ãłi
Ð°Ð»ÑĮ Ð½ÑĭÐµ
ÑĢ Ð¾Ñģ
ØŃØ¯ Ø©
à¦¾à¦¨ à§įà¦¤
Ġen s
å± ĭ
à¸µ à¹Īà¸
Ġ×ľ×Ķ ×ª
æĶ ¾
Ġà¤¬ à¥Ģ
Ġn ak
ĠÚ¯ Ø±ÙĪ
ang kan
ĠÎºÎ± Î»
Ú¯ Ùĩ
§ ç¾İ
ìĦ ¤
ĠÐ½ÑĥÐ¶ Ð½Ð¾
ĠÎ£ Ïħ
ĠÐ¿ÑĢÐ¾ ÑĦ
Ġcont rol
omb res
Ø¨ ÙĬØ©
×ľ ×ķ×ª
ien ie
æ ħ
en as
Ġ ãģ¯
s ide
idup an
er w
Ġà¤¬ à¤¾à¤°
Õ¡Õ ½
Ġ ult
Îµ ÏģÎ³
Ġà¦® à¦§à§įà¦¯
ĠÐ¡ Ð
t w
áº¡ m
Ġmu á»ĳn
Ġ, âĢĿ
ëĵ¤ ìĿ´
ov Ã½
åŀ ĭ
r ies
à° ¶
Ġn ight
Ġme ans
Ġinc ont
Ġpr incip
atu res
Ġmak es
áĥł áĥĺáĥķ
ĠØ§ÛĮÙĨ Ú©Ùĩ
æĺ ĵ
ĠÙ¾ Ø±Ø¯
×Ļ×ľ ×Ķ
è¨ Ń
Ġ×Ĳ ×ĳ×ľ
Ġsá»ĳ ng
Ð¸ÑģÑĤ ÑĢÐ°
ĠV oor
ĠgÃ¶ ster
à¥į âĢį
ĠSe x
Ġy ok
gen d
l in
c ora
à¦¾à¦ Ĥ
å Ħ
ÅĦ st
ë ¸
ÙĨ ÙĬÙĨ
iv re
ÙĦÛĮ ÙĦ
Ġbec ome
Ġë° °
ie f
ĠÎ±Ïħ ÏĦÎ®
ĠÙĦ ÙĥÙĨ
ĠÙĬ ÙĨ
Ġ à¸Ļ
ĠG od
ĠåĪ Ĩ
à§ģ à¦ķ
ĠâĢ ı
ĠØ± Ø¦ÙĬØ³
ë° ľ
ab ly
Î¹Î¿ ÏĤ
à° Ĺà°¾
Ġë ĺ
Î³ Îµ
Ġæľ ¬
ĠÐºÑĢ Ð°Ñģ
æĻĤ éĸĵ
à¤ ¢
Â ¼
ĠÐ´ Ð¸
ĠØ¨ÛĮØ´ ØªØ±
ÙĦ Ø§Ø«
ot ti
Ġso ft
im m
Ġk ind
é ¨
Ã ħ
Ãª te
ÄŁ it
Ġdi fer
ÑĨ ÐµÐ²
ĠÐ¾ Ð½Ð°
çĶµ å½±
Ġl im
Ġmo ve
Ø¬ÙĦ Ø³
1 2
Ġch u
áĥĲáĥľ áĥ¡
ÄĻ d
áĥ® áĥĲáĥĵ
ĠÑĤ Ð¾ÑĢ
ĠÙĪØ§ÙĦ Ø£
Ġv ari
Ġcon tact
Ġw om
um p
à®¿à®° à¯ģà®ķà¯įà®ķ
ĠA fter
Ġent er
ĠÏĢ ÏĮ
Ø´ Ø§ÙĨ
ĠØ® ÛĮ
á» Ŀi
Ġkun t
Ġ×ĳ ×Ĵ
Ġ×Ķ× ĺ
ĠdÃ© p
à¦¨ à¦¾à¦°
Ġ0 3
ĠÐŁÑĢ Ð¸
Ġæ ³
ord ing
ĠáĥĻ áĥĿáĥľ
Ø¹ Øª
Ġpr ice
à§ĩà¦ ľ
E T
Ġth ing
ĠÐ£ Ðº
ĠÚ¯ ÙĦ
Õ¶ Õ¥ÖĢ
ĠØ¨ Ø§ÙĨ
Ġëħ ¸
ĠÃ¶n ce
Ġà¤¸ à¤°
Ġm om
ĠÄĳá» ķ
I d
ë£ Į
ul ti
ÏĨ Î®
ìŀħ ëĭĪëĭ¤
ÐµÐ½ Ð¾
ĠE ng
Ġd one
Ø§Ø³ Ø©
ĠÑģ ÑĥÐ´
h and
« a
ĠÙĪ ÙģÙĬ
ãģ Ĳ
ĠãĢ ı
Øº ÙĬØ±
ab e
ãģł ãģ£ãģŁ
Ġtr iá»ĥn
áºŃ u
à®¤à¯įà®¤ à¯Ī
so b
è¯ ģ
Ð¸ÑĤ ÐµÐ»ÐµÐ¹
åĵ ¡
£áĥ ¡
æµ ĭ
ķ à¹Īà¸
ĠìŀĪ ìĬµëĭĪëĭ¤
Ġdur um
áĥĶáĥĳ áĥ¨áĥĺ
skie go
ÐµÑĢ ÑĪ
Ð°Ð»ÑĮ Ð½Ð¾
Ġç§ ģ
Ġopp ortun
ĠÐ¶ ÐµÐ½
Ġap rÃ¨s
ĠÎĳ Î½Î±
ĠØ« Ùħ
ą Ĉ
ĠØ£ Ø®
Ġáĥ¬ áĥļáĥĺáĥ¡
ãģ¨ ãģ¯
and es
áĥķ áĥĲáĥļ
Ġmemb ers
Ġà¤ķ à¥ģà¤
an Ä±n
r on
ĠÃ ĺ
Ġ×ŀ× ¤
Ġmuch o
Ġç µ
à¯įà®ķ à¯įà®ķ
ĠÐ· Ð°Ð½
Ġà¤¥ à¥Ģ
ĠÐ¿Ð¾Ð· Ð²
¢ º
Ġà¹ģà¸ ¥à¸°à¸
ĠSain t
ØªÙħ Ø§Ø¹
Ø³ÙĦ Ø§Ùħ
Ġà¤® à¥ĩ
Ġl iÃªn
Ġqu ick
Ö ·
m as
ch od
Ġm ijn
Ġmeng h
Ġdevelop ment
ort s
ĠØ§ÙĤØª Øµ
ãĤ¤ ãĥ«
k in
à¦¾à¦¤ à§įà¦°
Ġse Ã§
à§įà¦ Ľà§ĩ
à¶ ±
y o
ĠÐ³ Ð»
crip t
Ġdon c
Ġà®ħ à®©
ĠÐł Ð°Ð·
ãģıãģł ãģķãģĦ
um ah
æ¸ ħ
Ã½m i
Ġre view
ĠÃ İ
ĠÐ³Ð¾Ð´ Ñĥ
Ġup ang
ĠÐ¼ Ð¸ÑĢ
Ø´ Ø§Ø±
ĠáĥłáĥĿáĥĽáĥĶáĥļ áĥĺáĥª
Ġsing aw
Ġà¦¨ à¦¿à§Łà§ĩ
ãĤĪ ãĤĬ
ĠØ·Ø± ØŃ
ĠÐ¸ Ñģ
Ġë Ĩ
Ġcle an
hl ed
Ġà¤ Ĳ
ĠS al
Ġà¦Ľ à¦¿à¦²
ĠØ¨Ø³ÛĮ Ø§Ø±
Ġh or
g um
à¤¾à¤ĵ à¤Ĥ
aci as
Ġb Ãłi
ĠH owever
ch te
Ġ×ĳ ×¤
Â ²
ìł Ĳ
æĮ ĩ
ĠíĮ Į
Ġãĥ ı
d Ã¼r
Ð¾Ð± Ð°Ð²
pp ed
×Ĺ ×§
ĠÃº lt
Ġdo po
ÙĪØ± ÙĬ
l ou
ĠÏĢÎ¿Î» Î¹
áĢ ¹
Ø¨ Ø§Ø±Ùĩ
Ġl ow
l ÃŃ
Õ ´
à¦¸ à§įà¦¤
ĠÐĺ Ð·
ĠÑĥÑģÑĤ Ð°Ð½Ð¾Ð²
Ġenc ore
ĠÙģØ¹ Ø§ÙĦ
j our
Ġth Æ°Æ¡ng
×ķ×¨ ×Ļ×Ŀ
ĠÙĬ ÙĥÙĪÙĨ
à°¿à° Ĺ
Ġt Ã¬m
ÏĦ ÏģÎ±
Ġmel hor
ĠÃ¶n em
åĽ Ľ
éĿ ŀ
ĠÏĢ ÏģÏī
Ïĥ Ïĩ
ãĥĥ ãĤ·
ĠÑĢ Ð¾Ð´
ĠÙħØ¯ ÙĦ
ĠØ® Ø¯Ùħ
èĩ ³
ĠëĲ ĺ
ĠÐŁ Ð¾Ñģ
è° ĥ
áĥĹ áĥĲ
ĠÎĵ Î¹Î±
uj ÃŃ
me ye
ure d
ĠÙħ Ø®Øª
Ġby Äĩ
r at
åı Ĺ
ÑĢ Ð°Ð±Ð¾ÑĤ
à±įà° ¡
Ġb ody
ìĿ´ ìĬ¤
Ġed uc
¢ à¸Ļ
Ġt alk
±à¸ ļà¸
ÏĦÎ¿ Î½
ungk in
ç¶ ļ
ĠÏĦ ÎµÎ»
à®¾à® ķà¯įà®ķ
Ġlav oro
Ġb it
Ġà¤µ à¤¹
Ġìł Ģ
Ú© Ø§Ø±
ĠC o
ãĥĥ ãĥģ
Ķà¸¥ à¸Ńà¸ĩ
Ġch a
ĠâĢ ķ
å ¦
oc uk
ĠÐ³ Ð»Ð°Ð²
Ġà¤Ĩà¤£ à¤¿
í ĳľ
ĠÐ¾ÑĤ Ð²ÐµÑĤ
ĠM a
Äį e
áĥĶáĥłáĥ ¡
Ġs w
ut t
Ð¼ Ð¸Ð½
à°° à±ģ
ãĥ³ ãĤ¹
6 8
ç ħ
aj es
ĠÙħ Ø§ÙĨ
çł Ķ
Ġpr om
ÎĳÎ ¡
è® ®
ĠÎķ Ïħ
or so
Î¿Î¹Î½ ÏīÎ½
v r
ä¼ Ĺ
à®©à¯įà®± à¯ģ
Î¹ Î»
åĬ ©
à¤¾à¤¨ à¤¾
id ir
åĩ Ĩ
Ð¿ Ð¾Ð»
ĠåĽ ½
ÑĢ Ð°ÑĤÑĮ
ĠÙħØŃ ØµÙĪÙĦ
Ġs iem
Ùģ ÙĦ
Ġ ÉĻs
à¦¿à¦ķ à§įà¦·
ent al
ĠÏĩ Ïī
Ġë ¡
Ġà¤¬ à¤¹
Ã³ Å¼
Ġæ¶ ĵ
à¥ģ à¤®
ãĥ¼ãĤ ·
ing an
ÙĪ Ø¹Ø©
Ø§ ÙĪ
p is
ÅĽ my
Ġsem ua
Ġáĥĺ áĥ¥
ĠD I
Ġìĺ¤ íĶĦíĻĶìĿ´íĬ¸
±à¸ ļ
Ġà¤¸ à¤¬
Ġf on
Ġjed n
Ġte Å¼
Ġáĥĵ áĥĲáĥ¡
icht ig
Ġst at
Ġl ive
ĠØ§ÙĦ Ø§Øª
Ø¬ Ø¯
Ġe igen
ĠÐ¾Ð±Ð»Ð°ÑģÑĤ Ð¸
Ġà¤¦ à¤¿à¤¯à¤¾
à¯Īà® ªà¯į
ä¿ ®
ar ing
Ð¸Ðº Ð¾Ð²
ĠH a
if ul
ier z
Ã¸ k
Ġsu per
or n
ĠG er
Ġe ing
à¤¿à¤ Ł
Ġ×ĳ ×ĳ
ĠØ¬ ÙĦ
áĥ£áĥ ¤
Ġcer tain
ÉĻ li
×ľ ×ĳ
åº Ĩ
ÑĢ Ð¾Ð¿
¡à¸ ±à¸
ĠmoÅ¼ na
à¹Ģà¸ ª
Ġne ll
ne y
Î¼ Î¼Î±
Ġà¦¬à§įà¦¯ à¦¬
Ã´ tel
read y
Ġíı ī
Ġãĥ ĩ
ãģĦ ãģ¾ãģĹãģŁ
ĠÙģ Ø¥
os to
Ġo cc
Ġt arih
u ÃŁ
ĠÐ¿Ð¾Ñģ Ð»ÐµÐ´
an lar
à¤¤ à¥įà¤¤
Ġà¸ ģà¸²à¸£à¸
ĠÐºÐ» Ð°ÑģÑģ
¡à¸² à¸£à¸
Ġm ÉĻn
ìĹĲ ê²Į
ãģĵ ãĤį
Ġ ä¹Ł
Ġh alamang
if y
æľį åĬ¡
Ġw il
é£ ŀ
ĠØ¹ Ú©Ø³
le y
us am
Ã¸ re
æĭĽ èģĺ
ĠØ¯ Ø§Ø¯Ùĩ
Ġ ÏĪ
Ġtr á»įng
à¥ĭ à¤Ł
Ä° N
Ġç ´
in nen
ÑĤ Ð°
Ø¨ Ø§Øª
Ð°Ð¹ÑĤ Ðµ
ĠÏĦ ÎŃ
à§ĭ à¦²
cz enia
ÃŃ ne
à¹Ĥ à¸Ļ
Ġm Å¯Å¾e
om me
os ed
Ġcz ÄĻ
Ġà¹Ĥà¸ Ľà¸£
ÏĢÎ¬ ÏģÏĩ
Ġa ko
Ġáĥ¬ áĥĲáĥłáĥĽ
ãģ« ãģĬ
un j
áĥĺáĥĲáĥľ áĥĺ
ĠØ§Ø¯ Ø§ÙħÙĩ
Ġw r
Äħ d
Ġ20 20
Ġen ough
ÏĦ Î®ÏĤ
éħ Ĵ
åľ° åĿĢ
aar d
Ġd om
c um
Ø®Ø± Ùī
ÑĢ Ð°Ð´
ĠÑĢ Ð°Ð¹
ĠÎĺ Îµ
ì ¶ľ
à®¿à® ¨à¯įà®¤
ì »
Ġ×ŀ× Ĵ
Â ´
b ilir
Ġd Æ°á»
Ġì Ī
ç´ Ħ
ãģĳ ãĤĭ
Ġb ak
Î»Î¿ Î¹
Ġtan to
as sen
¥à¸ĩà¸ Ĺà¸
Ġs ed
à¹Ģà¸ Ķ
Ġcom es
ĠAmer ic
be i
if ica
Ġf und
um b
Ġpas t
Ġtrabaj o
ä» ķ
Ãĥ O
ĠÎł Îµ
×ķ×ĳ ×Ķ
Ġp ack
o is
ĠÐ¿Ð» Ð°Ð½
em e
ãĥķãĤ ¡
ot s
á»ĵ n
m it
Ġà®İà®© à¯įà®©
ĠíĶ Ħ
Ġìļ° ë¦¬
am enti
ĠáĥĽ áĥĺáĥĽ
i as
ĠØ¬Ùħ ÙĬØ¹
Ġà®ķ à¯ĩ
Ġà° ²à±ĭ
å¿ ħ
å Ĥ
Ġsiem pre
E C
à®¿à®¯ à®¿à®²à¯į
Ġb aÄŁ
ta ble
con om
Ġbe im
Ġà°ķ à±Ĥà°
ĠØ¢ Ø±
res ent
Ġ" ,
Ġà®¤ à¯Ĩà®°
Â ¨
cel ona
ØŃ Ùĩ
ĠÐ²Ñģ ÐµÐ³Ð¾
ìĭ ¬
aj or
ĠP re
ĠktÃ³ ry
Ġ×¢ ×ĵ
Ġë¬ ´
ãģ İ
ĠÙĨ Ùĩ
Ġ ÅĤ
ĠÙĩ ÙĨ
Ġpag k
é¡ Į
Ġ×ľ ×¦
Ð² Ð¾ÑĢ
ĠØ¨ Ø£
ĠÕ ¶
Ġj o
in ter
è² ©
çµ Ĳ
sk ap
áº³ ng
Ġo Ã¹
lÄ± q
ĠJ ak
Ġac ross
Äħ Å¼
cc o
Ġse veral
Ġà®ķ à¯ĭ
Ø³Øª Ùħ
ĠK on
Ġso cial
ĠÐ¿ÑĢ Ð¾ÑģÑĤÐ¾
und e
Ġw iel
áĥĿáĥĳ áĥ¡
Ġother s
Ġç ¬
Ġìĸ ĳ
ÙĪÛĮ ÛĮ
Ú© Ø±Ø¯
re ich
æ¡ Ī
Ġä¸ ĭ
ĠØ¯ ÙĦ
Å¯ m
Ġm ai
Ġpre c
v ers
o on
jo res
m iento
Ġà¹Ģà¸ Ķà¸´à¸¡à¸ŀà¸±à¸Ļà¸
à°¿à° ¸
c j
d ing
ÙĲ ÙĨ
ĠØª Ø·
Ġfo is
Ġle ft
æĥħ åł±
ìĺĪ ìķ½
Ġf ark
Ä±y la
ut ure
Î¬ Î¶
èĲ ¥
áĥĲáĥľ áĥĵ
g gio
ut os
Ġentre pr
ãģĹ ãģı
ĠÎ¿ Î¹ÎºÎ¿
ãĢ İ
ĠÚ¯ ÙĪØ´
ķà¸±à¸ §
ĠJ ah
Ġty p
Ġz n
ĠØ§ÙģØ² Ø§ÛĮØ´
Ġà¸ Īà¸
ĠÎķ Î»Î»Î¬
Ġà¸ ģ
ĠA pp
Ġpart ic
ĠÃľ ber
ìłģ ìĿ¸
ĠØ¯Ø³Øª Ú¯Ø§Ùĩ
Ġ5 0
ãģĳ ãģ¦
Ø¬ ÛĮ
Ġl áº§n
æĹ¶ éĹ´
Ġh ÉĻr
w as
à¦¾à¦ľ à¦¾à¦°
Ġb ao
Ïĥ ÏĦÎ¬
Ġm ind
ĠÙĨ ÙģØ³
ãģ§ ãģĹãģŁ
Ġcon he
Ġden ne
Ñı Ð¶
ĠÙĦ Ùĥ
uk a
end ir
ÛĮØ¯ Ùĩ
ĠâĢĿ ,
is m
åĵ ª
Ġt am
ĠØ¢ Ø®Ø±
ij den
Ġal ready
åħ Ī
ĠØ¬ Ø§Ùħ
åĳ Ĭ
Ġáĥ© áĥĶáĥĽ
Ġ×¢ ×¦
Ġit ali
Ġm og
d Ä±
Ð¾ÑĢ Ð¸Ð¸
Ġbe h
Ġëĺ Ĳ
Ġê³ Ħ
ĠD r
Ø± Ø§Øª
Ġs ent
Ġc itt
Ø´ Ùģ
ĠÑģ ÐµÐ¼
Ġto ol
Ġà®µ à®¨à¯įà®¤
Ġm ang
ĠÄ° n
ĠN Ã£o
p iel
æ¬ ¢
Ñı Ñģ
ĠÐ² Ð°Ð¼
ĠÑĨ ÐµÐ½ÑĤ
ĠÐ± Ð°Ð½
à¹Ģ à¸£
n t
Ġà¤ľ à¤¿à¤¸
ĠÐ²Ñģ ÐµÑħ
Ġå ¨
Ġan ak
à¦ ŀ
Ġb iá»ĩt
à¤Ĺ à¥ĩ
am en
ĠØ¨Ø² Ø±Ú¯
u ales
ìĹ Īëĭ¤
Ġãĥ Ľ
Ïĩ Î±Î½
Ġpr ost
Ġm ula
Łà¸ ¸à¸ķà¸
Ġth á»ĳng
áĥĺáĥ §
Ġret urn
°à¹Ģà¸ ļ
Ġes o
Õ¡Õ ¾
Ø¶ Ø§Ø¡
åľ¨çº¿ è§Ĥçľĭ
ĠF Ã¼r
éĢ £
Ġe ver
Ġaut re
Î½Î¿ ÏĤ
el ser
ĠØ§ÙĦÙħ Ø¤
ĠÄ° l
Ġein es
in ing
Ġà¦¥ à¦¾à¦ķ
Ġalt ri
ĠØ§ÙĦØ³ Ø¹ÙĪØ¯
äºī éľ¸
Ú¯ Ø°
ĠÑĨ ÐµÐ½
ĠÐ ®
ãĥ¬ ãĤ¹
å ©
ÑıÐ± ÑĢÑı
ĠD onna
ãģ® ãģĮ
Ġt et
ÐµÑģÑĤ Ð¸
± ħ
nik a
à¤¾à¤ £
Ġr if
Ġcomp an
u ah
à¥įà¤¯ à¤¾à¤ļ
ĠÐ¼ ÐµÐ´
áĥĺáĥ ŀ
Ġde b
Ġn ad
ï¿½ï¿½ ï¿½ï¿½
il izz
ĠI D
Ø· ÙĤØ©
Î» Î¯
Ġfa v
ĠD it
à¤ķ à¥ĭ
iz za
ãģĳ ãģ©
Ġb Ã¡o
in ation
ĠÐ¿ Ð¾Ð»ÑĮÐ·
nie Å¼
Ġsp ace
Ġch icas
ĠÙ¾ Ø§Ø³
ĠÐ¾Ñģ Ð¾Ð±
×ŀ ×ķ×ª
áĥķ áĥ¡
Ġp urch
ÙģØ¶ ÙĦ
ãĥ³ ãĤ¯
Ġan o
Ø§Ø¨ ÛĮ
Ð°Ðº ÑĤÐµÑĢ
ÏģÎ± Îº
ĠP M
èĤ ¡
Ġt uy
Ġl ink
ãģ¨ ãģª
ut ions
Ġdur ante
ĠK ur
Ġcount ry
Ġth i
Ġ×ľ ×Ĵ
à¥ģ à¤¦
iron ment
ck s
Ĥà¸ ¶
çĶ º
ÐµÐ³Ð¾Ð´ Ð½Ñı
à®µ à¯ģà®®à¯į
en z
Ð¾ÑĤ Ð²ÐµÑĤ
ingk at
ador a
Ø´ Ùħ
Ġ0 6
Ø§Ø³ ÙĬØ©
Ġan al
Ġth Ãªm
at ur
Ġmeng gunakan
Ġn ombre
Î §
Î¸ Î½
st vÃŃ
ĠéĢģ æĸĻçĦ¡æĸĻ
áĥĿáĥł áĥĺ
ÑĢ Ð¾Ðº
Ġde ve
er gy
ĠáĥĽ áĥĶ
Ð¾ÑĢ Ð°
t as
Ġed ir
ãĤĴ è¦ĭ
å ³
íķ© ëĭĪëĭ¤
ãģ® ãģĬ
ÙĦÙĬ ÙĦ
wiÄħ z
ĠáĥĽáĥĲáĥĴ áĥłáĥĲáĥĽ
ĠÃ§ a
Ø±ÙĬ Ø¯
n Ã½ch
r Ã¥
am it
ĠØ¨Ø§ÙĦ Ùħ
iáº¿ u
å¤§ åħ¨
Ġ201 5
Î»Î¿ Ïį
g ang
ĠÐ³ Ð¾Ð²Ð¾ÑĢ
ĠJe g
b ij
à¯Īà® ļ
at ique
Ġbel ow
Ġìĺ ¨
Ġmas k
ÑģÐº Ð¾Ð¼
ĠÏĢ ÏģÎŃÏĢÎµÎ¹
ĠÏĥ Î¿Ïħ
Ġgr atu
à¤¿ à¤Ĥ
Ġj ika
Ġh Ã³a
Ġà¤ĩ à¤¨
ĠÙģØ± ÙĩÙĨÚ¯
ÑĥÑĢ Ñĭ
Ġan cora
ĠØ£Ùĥ Ø«Ø±
end ing
×¨×Ĳ ×©
qu er
Ġk ali
t edir
Ġà®ª à®²
s ung
à¥įà¤ §
es ta
Ġcom ment
Ġngh Ä©
×¤ ×§
Ġget ting
ĠM il
Ð°Ð· Ð°Ð»
Ġh ig
×Ĳ ×Ļ
ward s
Ġqu ier
ĠÎ¼Îµ ÏĦÎ¬
åĢ ¼
Ġnuev o
ĠD om
Ġd Ã¼z
ë¥ ¸
Ġc v
Ġim m
b ang
Ð°Ð»ÑĮ Ð½ÑĭÑħ
Ġà®® à®±à¯įà®±
ÃŃ an
ĠÙĪÙĦÙĥ ÙĨ
íķĺ ìĹ¬
Ð¸ÑĩÐµÑģÐº Ð¾Ð¹
y or
ra f
Ġs Ã³
Ġà¤°à¤¹ à¤¾
Ð¸Ð» ÑģÑı
Ġdes arro
ĠÃ ĭ
Ġl á»±c
ĠØ¥ Ø°Ø§
ĠÐ· Ð½Ð°Ñĩ
Ġde ut
ĠLe ben
Ġt ÃŃch
ou th
) .
Ġsu is
an ces
Ñĭ Ñĩ
ab ile
Ġà¦ķ à§ĭ
es e
Ķ à¸µà¸
ĠØ® Ø§Ø±
ĠUn iversity
Ġd od
ĠØª Ø¯
Ġal cun
Ġw ind
Ġà®µ à®´
ĠÐ¿ÑĢ Ð¾ÑģÑĤ
áº§ y
à±ĩà° ¸
Øª Øµ
Ð¸Ð½ Ñĥ
×ĵ ×Ŀ
Ġe uro
Ġz am
à¦ ī
Ġë§ İ
ĠØ§ÙĦÙĪ Ø·
Ġpuj ck
ĠØ¨Ø± Ø±Ø³ÛĮ
Ġw en
Ġz we
ĠãĢĤ âĢĿ
__ __
çĬ ¶
le j
Ġ×Ĳ ×Ļ×ļ
Ġy Ã¼z
ãģĭ ãĤĬ
mek tedir
Ġê³ ¼
Ð°Ð· Ð°ÑĤÑĮ
ĠÐ· Ð½
ate g
m esi
ĠØŃ ÙĤ
Ġgia o
il s
ĠÄĳ áº¥t
Ġìŀ ħ
à¦¿à¦ķ à§ĩ
Ġr á»ĵi
Ġand re
ĩ à¸²à¸Ļ
Ġme an
ĠØ§ÙĦØ¹Ø±Ø¨ ÙĬØ©
æĶ ¹
Ġf Ã¸l
ĠëĮĢ íķľ
ĠØŃ ÙĪÙĦ
Ġk aÅ¼
à®¿à®ķ à®³à¯į
Ġ×Ĳ ×ĳ
Ġren cont
k on
hl en
ĠØ§Ø³ÙĦØ§Ùħ ÛĮ
Ã ĺ
èª ¿
Ġcu enta
Ġb aru
ak tu
ap e
ç ı
ĠB el
ĠÙĨ Ø¨
ĠÐ½Ðµ ÑģÐº
à°Ĥà° ļ
à¤¤ à¥įà¤°
ì ¢
Î¼ÎŃ Î½Î·
Ġv ai
Ġh un
1 8
Ö ´
is me
áĥłáĥ £áĥļ
Ġtak Å¼e
Ø§Ø± ÙĬØ©
ãĥ¼ ãĥ³
Ġà®İà®© à¯įà®ª
è£ ½
ÄŁr en
Ġà®ħ à®±
ĠÐŁ Ð¾Ð»
ĠÄĳ Æ¡n
à®¾à® ļ
Ġcall ed
Ø± Ø¬
ĠÑĤÐµÑħ Ð½
il itÃ©
Ġáĥ¡ áĥĲ
cz enie
ĠÚ© ÙĦÛĮ
Ð ¯
ëħ Ģ
Ġà¦ķ à¦¿à¦¨
Ġsh are
ĠÐ¾Ð´ Ð¸Ð½
ãģ«ãģª ãĤĭ
Ġch á»ĭ
Ġt ÉĻr
ah kan
Ġà¤¸ à¥įà¤µ
ÙĪØ± ÙĬØ©
v or
à®µ à¯ĩ
åĪ Ĺ
Ġ\ "
ĠÑĥÑģÐ» Ð¾Ð²
Ġíĺ¸ íħĶ
Ġç ¾
Ġan no
ãģ§ ãģĤãĤĭ
aw a
ĠæĹ ©
Ġ Ñİ
Ġf il
å£ «
Ġ0 8
ĠP ers
enn om
I S
Ġà¦¬à¦² à§ĩà¦¨
Ġho áº¡t
ÑĢÑĥÐ¿ Ð¿
Ġç º
ĠÐ½ Ð¸Ðº
ÙĬØ¯ Ø©
Ġnh au
Ġinst all
çİ ĩ
ĠC am
Ġm ÃŃ
ãģ ¶
Ġpa ano
Ħà¸£à¸Ķà¸´à¸ ķ
Ġà¤ķà¥ģà¤ Ľ
áĥĶáĥ ®
lÉĻr in
Ġáĥŀ áĥĺáĥłáĥ
Ã¤l t
Ġà¦ı à¦¸
Ð» ÐµÐ¹
ĠÙĨ ØŃ
Ġbl ir
Â £Â¬
ci ales
n es
Ġ×ĳ ×Ľ
ĠØ± Ø§ÛĮ
c ÃŃ
Ġåħ ¨
z na
Ġt iÃªu
×Ĳ ×Ļ×Ŀ
v od
an Ã§
Ġà°µ à±Ĩ
Ġtr ung
à¤¾à¤ ģ
j as
Ġt Ã¼m
Ġæī ĭ
Ġä¸ ī
in ts
ĠPar is
ĠÃ ķ
Ġtá» ī
h ir
ĸà¸ ¶à¸
ãĤĵ ãģł
Ġr ange
Ġé Ľ
ĠB et
ãĥĶ ãĥ¼
l ay
i q
O L
ģà¸ ±à¸Ļ
ãĥ¼ãĥ Ħ
ĠÐ½ Ð¸
áº¯ m
ÙĪÙħ ÛĮ
Ð¾Ð² ÑĭÐµ
Ġt we
Ġé ¦
l ag
Ġë Ŀ¼
Ġer a
Ġor ig
Ġorgan iz
ĠØ£ Ø¹
v al
Î¼Îµ Î½
at ta
à¸Ńà¸¢à¸ ¹
ÙĪ Ø§ÙĦ
Ġmen os
Ġsh ort
Ä Ĳ
ãĤ ´
à°¾à° ª
èĩª å·±
ĠÏĢ Î»Î·
ur ther
ia ÅĤa
Ġfin den
Ġla gi
el ik
Ġ ident
Ġne u
ìħ ĺ
ĠC z
Ùĥ Ø©
ģà¸ ©
åħ Ń
Ġà¤µ à¥įà¤¯
ä» İ
all eng
ĠÙħ Ø«ÙĦ
ou vel
Ġn ett
Ã¬ n
ĠSt r
il de
Ġáĥł áĥĲ
Î» ÎµÎ¯
à¸µà¸¢ à¸Ļà¸
ĠÚ¯Ø±ÙĪ Ùĩ
sk Ã¡
Ġein fach
Ġ id
Ġd ol
ĠØ³ ÙĦØ§Ùħ
ĠÚ© ÛĮÙģ
Ã¡r ia
ãĥ¼ãĤ «
ĠØª Øº
Ġtiáº¿ ng
Ġb ud
Ġav ant
ĠÐ² ÐµÐ´
Ġqu ed
ĠÐ¸Ð½ÑĤÐµÑĢ Ð½ÐµÑĤ
ĠÎµ Î¹
Ġ Å¼
Ġinform aciÃ³n
ãĢ į
æĺ Ł
Ġê²Į ìŀĦ
ĠáĥĲáĥĵ áĥĲáĥĽ
Ġqu ien
Ġdo ve
ĠÏĥ ÏĩÎµ
ĠÐ¼ Ð½Ð¾Ð³Ð¾
ou den
schl and
ra ct
Ð¸ÑĢÐ¾Ð² Ð°ÑĤÑĮ
ĠÙħ Ø¨
áĥľ áĥĶáĥľ
Ġcle ar
Ã ĳ
ãģĿ ãģ®
zo ek
Ġpod er
íķ ¨
éĩ İ
kie m
ĠØ§ÙĦÙĤ Ø±
Ġâ ŀ
ĠØ§Ø·ÙĦØ§Ø¹ Ø§Øª
li ÄŁi
æĹ ħ
ĠØ§ÙĦ Ø±ÙĬ
Ġindust ry
Ġà¹Ģà¸ ¥
ĠC oun
ier e
×Ĳ ×¨
I D
Ġgiá» Ŀ
ĠCom p
ĠÐ¿ÑĢÐ¾Ð´ ÑĥÐº
ĠÔ ±
Ġqu Ã©
Ġ0 7
ient s
z z
ĠÚ© ÙĪØ¯
ĠU na
ill as
Ġdo ing
Ð¾Ð´ Ð°
wi ad
ĠÏĢ Î¹Î¿
ĠÐ¸Ð½ÑĤÐµÑĢ ÐµÑģ
ĠÎº Î¿
Ãº bl
ĠÑĪ ÑĤ
Ð² Ð°ÑĢ
ĠÙĪ Ø²
ĠÙĦ Ø£ÙĨ
ç» Ļ
am entos
it her
Ġbes ar
Ġm ajor
Ġst ory
eit s
z enÃŃ
Ġæ ¸
×ľ ×ĺ
Ġnel le
Ġre du
ĠÐ¾ÑĤ Ð´
Ġk az
ĠY our
ĠÄ° st
Õ¥ ÖĢÕ
Ġp ierw
aci a
Ġc her
Ġ: #
Ġkeh idupan
Ġjs me
Ġn eden
Ġ ents
à®¿à®± à¯įà®ķ
ĠÙĨÙħ Ø§ÛĮØ´
Ġex ample
ĠáĥĴáĥĲáĥĽ áĥĿáĥ
ba ik
Ġà¦ķà¦° à§ĩà¦¨
ĠØ§Ùħ Ø±ÙĪØ²
Ġìķ Į
Ġv Äĥn
we ise
Ø´ ÛĮ
ĠÐ¼Ð¾Ð³ ÑĥÑĤ
Ġtr á»Ł
ĠÙĤ Ø³Ùħ
ĠÑģÐµÐ± Ñı
am er
ro ve
Ġà°Ĵ à°ķ
ĠÑģÐ»ÑĥÑĩ Ð°
ĠM on
Ġbil g
ĠB us
ĠÑĤÑĢ ÐµÐ±
×ŀ ×ķ×ĵ
Ġf atto
à°¤ à±ĭ
Ġho e
n ah
Ġà¸Ĺà¸ Ķà¸¥à¸Ńà¸ĩ
Ñĭ Ð¼Ð¸
aus s
Ġà®µ à¯Ģ
Ġtrabal ho
Ġval ue
Ġh izmet
g n
Ġl ors
es to
Ð¾Ñĩ Ð½Ð¾
ĠØ¬ ÙĨ
E L
áĥł áĥĶ
cript ion
Ġà®ħ à®Ł
Ġà¸ ĭà¸
ci d
ier no
ig lio
æ¯ Ľ
ĠØ® Ø·
Î³ ÏģÎ¬
Ġ×Ĺ ×©
je cts
Ġbet 365
ĠØ¬Ùĩ Øª
ãĤ¤ ãĤº
it et
æŃ ¥
Î¼ Î¿Ïħ
¼ åĲĪ
ĠC or
Ġc ity
ĠK e
Ġà¦¸à¦® à§Ł
ĠÐ¿ÑĢÐ¾ ÐµÐºÑĤ
Ġ2 8
å¾ ĭ
Ġà¦Ĩ à¦¬
is ten
áĥĿáĥĵ áĥĲ
ĠÙĩÙħ Ø±Ø§Ùĩ
ĠÐ²ÑĭÑģ Ð¾Ðº
or g
Ġbe au
ÅĤ em
Ġmod o
Ġcas o
Ġa ÅŁ
à¹Īà¸ ¡à¸
Ġpartic ular
uÅŁ tur
Ð¸ÑĩÐµÑģÐº Ð¸Ð¹
×ķ×ľ ×Ķ
ur en
ur ity
Ġsp ole
ÏĮ ÏĦÎ·
ÉĻ ÅŁ
à®² à¯Ī
c le
æŁ »
à°¾à° ¬
Ġtr ÃŃ
ĠãĢ İ
Ġà¦° à¦¾à¦ľ
Î¼Î¬ ÏĦÏīÎ½
Ġà¦¦ à§ģ
Ġãĥĸ ãĥ©
Ġì ¦
Ġà¦ªà§įà¦° à¦ķ
Ġmo Å¾
ĠÑĥ Ð³
Ð°Ñı Ð²
ÙĪÙħ Ø§Øª
íĭ °
Ġf uture
Ġj i
Ġw alk
çµ Į
Ġ×Ļ ×Ľ×ķ×ľ
is es
Ð¸ Ñī
Ð´ ÐµÑĢÐ¶
Ġà¤¯ à¤¾
ber g
er de
Ġtak Ã©
Ïĩ Î¿
ØŃ Ùħ
Ġà¤¦ à¥ĩà¤ĸ
ĠØ¨Ùĩ Ø§
Ĭà¸± à¹Īà¸Ļ
Ġè ĭ
Ø® Ø¯Ùħ
Ġåı ¯
ĠØ§ÙĦØª Ø¬
Â ½
Ġdep uis
ing er
ĠT L
Ġd ro
le gg
Ġmel akukan
ĠkeÃ§ ir
ìĹħ ìĨĮ
æ ¤
Ġoff ers
ust r
ĠØ´Ø¯ ÙĨ
Ġnie uwe
åĮ ħ
ĠW enn
w end
æľĢ æĸ°
v oir
ĠM ay
Ġà°ī à°¨à±įà°¨
Ġv áº¥n
Ġà¤¸ à¥įà¤¥
ÐµÐ½ Ð½Ð¾Ð³Ð¾
Ð¾ ÑĦ
ģà¸±à¸ ļ
Î³ Ïī
Ġro dz
ĠÐ´ Ð¾Ð¿
ì° ½
ĠÙħØ· Ø§ÙĦ
5 0
à§ĩà¦Ľ à¦¿à¦²
Ġque llo
ĠD en
Ð² ÐµÐ´
ØŃØ¯ Ø«
Ð¾Ð² ÑĭÑħ
i res
ÎŁÎ Ľ
ut a
ire d
ar ta
ĠçĻ¾å®¶ ä¹Ĳ
Ġmo ins
ìĦľ ë¹ĦìĬ¤
ÙĪÙĤ Ø¹
à¤¢ à¤¼
ĠØ¯ Ú©
Îº ÏģÎ¹
ĠA nh
Ð°Ð´ Ð¸
æĦŁ ãģĺ
Ġcu á»Ļc
Ġc amp
ĠrÃ³w nieÅ¼
Î½ Î¹Î±
à¦¿à¦ ·
ĠÏĢ Î¬Î½
ĠÂ ¡
Î ĺ
Û İ
à°¦ à±įà°¦
Ġ0 4
íĸ Ī
3 0
ÙĨ Ùī
ĠP reis
ķàµįà´ ķ
ÐµÐ· Ð´
à· Ģ
Ġê° Ļ
Ġwy s
Ġæ Ķ
ci ally
Ġs ama
Ø§ÛĮ ÙĨ
ÑĢÑĥ ÑĪ
Ġp utas
Ġà°ª à±ĭ
Ġa insi
ìĥ ī
Ġqu á»ĳc
Ġpr iv
Ġph Æ°Æ¡ng
ĠØ§ÙĦØ¨ ÙĦ
Ġà¸ Ľ
à¤¾à¤ ł
ĠØª Ø£
en cy
Ġv ita
Ġh ours
Ġsel bst
Ġrec ommen
Ġà¸ Ĥ
ul as
ĠÑĩ Ð°Ñģ
Ġìŀ ĳ
íķĺ ê²Į
Ġy ol
Ġb Ã½
ÉĻs indÉĻ
Ø§Ø® ÙĦ
Ĺà¸ ³
k em
à®¾à®° à¯įà®ķà®³à¯į
Ã¼r Ã¼n
ĠÙĨ Ø±Ùħ
åį ĵ
á» ħ
Ĵ áŀ
ä¹ ł
Ġcon se
ĠÙģÙĬ ÙĩØ§
Ġ×¨ ×§
Ġà§ «
ĠrÃ© g
og rap
ĠÙĪ Ø§ÙĤ
Ġn Ä±n
ĠØ¢Ùħ Ø±ÛĮÚ©
Î½Î± ÏĤ
ih at
Ġa Å¾
Ġtá» ¥
ot y
in os
Ġà¤¹à¥ģà¤ ı
2 7
Ġkn own
ÅĤ am
ìĺ¤ íĶ¼
à¹īà¸Ńà¸ ¡à¸
ĠD a
íĮ Į
el se
ÐµÑĢ Ðµ
ĠÃ¶ l
ie ux
à¤°à¥įà¤ µ
éĺ ²
éľ Ģ
ĠÎ¼ Î·
ab ility
un que
Ġà®ħà®° à®ļ
Ġem ail
Ġbr ing
à¹Ģ à¸£à¸µà¸
ĠL o
Ġrec ord
á»ĩ t
e urs
Ġu Å¼y
ir d
à¥ģ à¤ª
f ts
à§ĩà¦² à¦¾
o ÅĽci
Ġbag i
ĠáĥĽ áĥĺ
Î´ Î¹Î¬
Ġy et
Ùĩ Ùı
Ġà¦¬à¦¿à¦¶ à§įà¦¬
ç ĭ
à§įà¦¯ à¦¾à¦²
Ø§ÙĦ Ø§Øª
Ġsp iel
ĠÐ£Ðº ÑĢÐ°
å¸ ¦
ĠÐº Ð°ÑĢ
Ġs owie
éļ Ľ
åķĨ åĵģ
ÑĢ Ð¾Ð±
×ª ×¨
à®¿à®ķ à®³
ç¥ ¨
ëĤ ľ
à¥Ģ à¤²
ĠæĹ¥ æľ¬
m bre
Ð½ Ð¸Ðµ
ÙĨØ¯ Ø§ÙĨ
åĽ Ń
Þ °
Ġle ast
ĠÙħØ®Øª ÙĦÙģ
Ġd ÃŃ
Ġë§ ¤
ĠÚĨÙĩ Ø§Ø±
Ġc ir
ë³ ¸
ĠÙĬ ØªÙħ
ĠEs c
ĠÐ¼ ÐµÐ¶Ð´
Ġp ie
à¸Ńà¸ ļ
ue b
Ġs ido
Ġà¤ļ à¤¾à¤¹
Ġcon tain
ê¹Į ì§Ģ
ion en
Ġê² °
ç Į
ue gos
Ġcompan ies
ĠRe g
Ġdiv ers
ÎŁÎ Ŀ
à¥įà¤ ¡
Ġilg ili
Ø§ÙĨ ÙĪÙĨ
Ġ×§ ×¨
Ġinv ol
anÃ§ ais
ä» Ĭ
ÙĤÙĬ ÙĤ
Ġà®¤à¯Ĭ à®Ł
Ð± Ñĭ
ĠØ¯Ø§Ø± ÙĨØ¯
à¦¤ à§įà¦¤
Ġáĥ¨áĥĶáĥĽ áĥĵáĥĶáĥĴ
è³ ª
Ġë ¹
ĩà¸´ à¸Ļ
ĠØ´ Ø±ÙĥØ©
Ġstud y
at el
ÙĨ Ø§ÙħØ¬
à¸Ļà¸µ à¹īà¸
Î· Î³
×¤ ×Ļ
n et
áĥĶáĥłáĥ Ĺ
b ir
ÅĤ ug
Îº Î»Î·
Ġcas a
an Ã§a
éĤ Ģ
nÃ© ho
ãĤµ ãĤ¤ãĥĪ
Ð¾Ð³ Ð»
Ġd áº«n
Ġãģ ©
Ġ×ĳ ×Ļ×Ł
sta w
ĠÐ³ Ð¾ÑģÑĥÐ´Ð°ÑĢ
ĠØ¨ Ø·
Ġ2 6
Ġbre ak
Ġb Ãªn
Ġj a
Ø§Ø² Ùĩ
ãĤ» ãĥĥãĥĪ
ĠâĢĿ .
ĠP od
ĠÎ½ Î¿
Ġl ugar
ÑģÑĤÑĢ Ð¾Ð¹
er ek
ï¼ ģ
Ġà°µ à±įà°¯
Ø² Ø§ÙĨ
ÑĥÑĢ Ð³
ĠÙĩ Ø²Ø§Ø±
ç ª
áĥķ áĥĲáĥľ
Ġut iliz
ģà¸ ¥
Ġm ot
il eri
ÙĬÙĨ Ø§
ĠØ§Ùģ Ø±
å· Ŀ
Ġê° Ĳ
ĠÐ¶ Ð¸Ð²
æķ ´
åıĸ ãĤĬ
Ġdal Å¡ÃŃ
C J
ÑģÐ» ÐµÐ´
t rag
Ġ" .
ĠTr ong
Ġes per
×Ļ×§ ×Ķ
íķĺ ê¸°
Ġà¦ķ à¦¥
Ġà§ ¦
à¤ķ à¥įà¤¤
Ġn Ã¡s
åĪ ¥
ĠÏĨ Î¿
ĠÄĳá»ģ u
ĠL A
Ġdes en
ĠL ie
áĥĺáĥ¨ áĥľ
Ġon ce
ĠM er
ĠÃ Ĳ
ĠáĥĽ áĥ¡
ĠæĿ ¥
ĠÃ©g alement
l ie
Ġr az
ãģ§ ãģĹãĤĩãģĨ
Ġj etzt
ĠÐ¼Ð½ Ð¾Ð³
Ġåħ ¶
Ġà¸ Ķà¸
Ġseg u
ĠØ¨ÙĪØ¯ Ùĩ
ì¡ ±
ĠÚ¯Ø± ÙģØª
Ġd ar
ĠØ¯ÙĪÙĦ Øª
ara ct
êµ °
ÑĤÐ¾Ð¼ Ñĥ
ÏĢÎ¿ Î¯
Ġmas ih
ĠØ´ ÙĬ
é¨ ĵ
ÙĨ Ø§Ø¡
Ġy o
Ġà®® à¯ģà®¤
ÃŃ st
Ġ×Ļ×© ×¨×Ĳ×ľ
à±ĩ à°ķ
ë° ĺ
Ġå º
Ĺà¸ ³à¸
áĥłáĥ Ĵ
Î¼ÎŃ Î½Î±
åı ¤
Ġ×ľ ×ķ
æī į
áĥ Ń
Ø³ Ø§ÙĨ
mak t
Ġke y
é¦ Ļ
Ã¼ tz
Ú© ÙĨØ¯
atu ur
ĠS erv
Ġot ro
ĠáĥĽ áĥĿáĥ¡
ĠáĥĴáĥĲáĥĽ áĥĿ
Ġé ģ
ĠÑĤ ÐµÐ¿
ĠÄĳá»ĭ a
Ġme ille
Ġtent ang
ç ¢º
Ġbeaut iful
ĠNEWPart 9
Ġper chÃ©
Ġãģ¾ ãģŁ
ĠÐ½ ÐµÐ¼
ĠOn line
ĠÏĢ ÏīÏĤ
ĠÙģÙĬ Ùĩ
Ġà®® à®©
ĠÙĨ ÙĪØ´
à®© à®°à¯į
Ġæ ĻĤ
Ġch Æ°a
æį ®
Ġut ilizz
áĥłáĥ ĵ
ĠÛ ³
Ġd ont
Ġp on
Ġh old
ĠÏĥÏħ Î¼
Ġo re
Ġde al
Ġ2 7
ÎĹ Îľ
ìĪ ł
g ro
áĥĺáĥ «
Ø² Ø¯
auf en
Ġal Ä±n
ÑĢ Ð¸
Ġl Ãºc
Ġb áº¥t
Ġd ov
å³ ¶
ou pe
Î» Ïī
Ġserv i
æĭ ī
Ġal go
áĥĶáĥĹ áĥĺáĥ¡
Ø§ÙĦ Øª
at ura
Ø§ÙĦ Ùĩ
ë ĳĲ
Ú© Øª
Ġth am
Ñĥ ÑĢÐ°
ĠÐ´ Ðµ
Ġact ually
ëĿ¼ ìĿ¸
ļà¸Ńà¸ ¥à¸
ç® Ĺ
cz ÄĻ
ķ à¸£à¸
Ġpued en
à¤¿à¤ ĸ
at os
Ĺ i
Ġc ut
ĠÐĵ Ð»Ð°Ð²
Ġs Ã¼r
ĠØª ÛĮÙħ
Ġdi z
Ġ2 9
t k
à¯ģà®Ł à®©à¯į
ĠÙħÙĪ Ø¶ÙĪØ¹
Îº Î·
Ġsu as
Ġìŀ ¬
ĠÐº Ð½Ð¸
ich te
ĠÙħØ´ Ú©ÙĦ
ĠolduÄŁ u
ÐµÐ½ÑĤ Ñĭ
Ġ ir
Ġag gi
ĠÑĢÐµÐ· ÑĥÐ»ÑĮÑĤ
Ġ à¸£
ĠÎ´Î· Î¼Î¿
áĥłáĥ £áĥ
i Ã§
¨àµįà´ ¨
Ġte cn
ĠE N
ĠK l
ien e
Ġ ÅĻÃŃ
Ġdies em
çĦ¡ ãģĹ
×ŀ ×Ļ×ĵ
ĠC al
Ġæ İ
an to
ĠØ±ÙĪ Ø´
am ot
Ã© tÃ©
Ùģ ÛĮ
Ġm il
ĠÑģÐ¾ Ð¾ÑĤÐ²ÐµÑĤ
apat kan
Ġ áĢ
Ġne cess
ll s
Ġà§ ª
Äį ky
Ð»Ñı ÐµÑĤ
Ġo c
à¤ķ à¤¿à¤¨
om es
Ġ ul
ĠÃ ı
Ġd ost
Õ ¯
Ġproble m
Ú¯ ÙĪ
áĥĺáĥ ¦
ĠÙĩÙĨØ§ Ùĥ
j ours
ĠÐĴÑģ Ðµ
Ġres ults
ĠK r
à¹īà¸² à¸Ļ
Ġz al
Ġh á»Ļ
ver pg
áº¥ m
Ġg esch
ĠÙħ ÙĦ
Ġ$ (
Ġà®ķ à®°
éĤ £
ä¼ļ ç¤¾
ĠÐ±Ñĭ Ð»Ð¸
Õ¡Õ¯ Õ¡Õ¶
Ġãĥ Ń
Ø§Ø± Ø³
us sen
ĠC he
ĠÄĳá»ķ i
ĠvÅ¡e ch
ze llik
ĠG Ã¼n
Ġpo co
Ð½ ÐµÐ²
Ġà¦ķ à¦¾à¦ľ
Ġf ield
sk Ã½
Ġà¦ı à¦®
Ġ Ø§Ùĩ
ĠÑį Ð»ÐµÐºÑĤÑĢ
å· §
Ġà¤¤ à¤°
Ġpropr io
ĠÎ´ Î¹Îº
ĠíĬ ¹
Ġlle v
Ġuy gul
Ġà®ª à®¤
èģ Į
Ġstart ed
Ġes e
Ġon de
à°¾à°¨ à±įà°¨à°¿
en den
k Ã¡
Ð¸ÑĩÐµÑģÐº Ð¾Ð³Ð¾
ie ts
ç ı¾
ÙĪ Ø·
ĠØ®ÙĪ Ø§Ùĩ
ìĦ Ŀ
Ħà¸§à¸²à¸ ¡
Ġmus ic
é į
ĠØ¨ Ø£ÙĨ
ĠN á»Ļi
Ä± x
Ø² ÙĬØ¯
ì¦ Ŀ
Ġáĥĵ áĥĺáĥĵ
Äį et
Ġw ÅĤ
Ġg Ã©nÃ©r
Ġà¹Ģà¸ §à¹ĩà¸
Ġé »
Ġëĭ ¹
Ġs alah
Ġspeci fic
at r
A K
Ġå ±
Ġà¤ľ à¤¬
Ġcont ra
ãģĹ ãģ¾ãģĹãģŁ
raz ie
ĠÐ¾ÑĤ Ð»Ð¸Ñĩ
Ġà¹Ģà¸Ķà¸´à¸¡à¸ŀà¸±à¸Ļà¸ Łà¸£à¸µ
Ġho Ãłn
Ġs um
Ġs Ã¡ng
ĠÑĥ ÑĤ
ĠIn tern
à°¿à° Ł
ĠÐ¾ÑĤ Ð·ÑĭÐ²
Ġë ¸
æĶ ¯
Ġé «ĺ
Ġëĭ ¨
c ado
ÑĢ ÑĭÐ²
tel ah
Ġje j
v ent
ìłģ ìľ¼ë¡ľ
ĳ åħĭ
ĠØ¨Ø§Ø² Ø¯ÛĮØ¯
Ñį ÑĤÐ¾Ð¼Ñĥ
à¦¾à¦ £
Ġstr ong
Ġp ict
Ġt ijd
ĠÙĪ ÙĤØ¯
åº ľ
Ġk at
Ġr app
ÑħÐ¾Ð´ Ð¸ÑĤ
Ġadd ress
a ff
is on
ãģķãĤĮ ãģŁ
Ġbl og
Ġf ic
Ġde j
l ÉĻn
ĠÑĢÐ°Ð·Ð² Ð¸ÑĤ
is iÃ³n
ip s
Ġpo i
ĠÙĩÙħÚĨ ÙĨÛĮÙĨ
Ð°ÑĢ Ð°ÐºÑĤÐµÑĢ
à¦¿à¦ ļ
áĥĿáĥķ áĥľ
áĥ£áĥ ®
ĠÏĦ ÏĮ
ap s
éĵ ¶
Ġ à¬
Ġal gum
Ġmog elijk
ãĥ³ãĤ º
Ġtod as
áŁ Ĵáŀ
Ð¾Ð½ Ðµ
ur so
Ġë¶ Ī
ãĤ¹ ãĥĨ
Ġk w
ĠV al
ka uf
I ON
Ġmem per
áĥĿáĥ ŀ
à¯ģà®ķ à¯į
à¦¾à¦° à¦¾
Ä ı
Ġre cher
Ġcustom ers
Ġab ove
Ġto da
à§ģà¦° à§ģ
Ġ à¸£à¸
×ł ×ĺ
ru ck
ÐµÑĢ ÑĮ
h aus
eng k
al mente
Ġprop os
ig lia
áĥĺáĥĿ áĥľ
à¦¾à¦² à§ĩ
ä» ĭ
Ġj in
Ġn or
Ġk osten
ĠØ§ÙĦØ¨ Ø±
Ġcont ent
åĪĨ æĹ¶æĹ¶å½©
ch ten
Ġà¤ħà¤§ à¤¿à¤ķ
åı ª
ough t
ĠÑĢ ÐµÐ±
æ¶ Ī
Ð¾Ð² Ð¾Ð´
ãģ¨æĢĿ ãģĦãģ¾ãģĻ
à¤¿à¤ ª
Ġ":" "
Ġ á½
Ġs Ä±r
ĠC Ã¡c
Ġpro ces
ĠW ar
Ġtout es
ÐµÐºÑĤ Ð¸Ð²
Î½Î± Î½
Ġre ason
Ġà¦¨ à¦¾à¦®
à°¦ à°¿
Ī à¸£à¸´à¸
u it
ÏĨ ÎŃÏģ
Ġan meld
é«ĺ æ¸ħ
Ð°ÑĤ ÐµÐ»Ñı
ĠÎ± ÎºÏĮ
sche in
ĠP ort
Ð· Ñĭ
Ġcon tre
Ġ ur
Ġse ason
end iri
Ġ ãģĮ
Ġå ī
ÐµÑĢ Ð¾Ð²
×ŀ× ĵ
Ġ×¤ ×¢
à°¸ à±įà°¤
ãĥ¼ãĥ ĳ
ĠØ§ÙĦØª ÙĨ
Ġ6 00
Ġbuild ing
usam men
Ø¬ Ø§Ø¯
Ġå° ı
Ġmon de
Ġty pe
ĠÎµÏĢ Î¹Ïĥ
Î¼ ÏīÏĤ
ÏĥÎº ÎµÏħ
st yr
Ġ ÉĻl
à¦Ļà§įà¦Ĺ à§ĩ
ĠG u
Î´ ÎµÏĤ
ĠëĶ °
ģà¸ ¡à¸
Ġà¤ľ à¤¾
ĠÑĦ Ð¸Ð»ÑĮ
ĠÐ½Ð° ÑĢ
ãģķ ãģĽ
å® ¹
ÏĦ Î¹Î±
Ġfrien d
bi ed
å½©ç¥ ŀ
Â ·
ĠÙĦ ÙĪ
Ġ201 4
Ġad ip
×ŀ× ¢
c m
ĠDe ze
g ed
ëĵ ł
à¦§ à¦¾à¦¨
à®° à®¿à®¯
ì² ĺ
is er
Ġl igne
le me
ĠÙĤØ³Ùħ Øª
Ġge z
ç ļ
éģ ķ
Ġt id
Ø§Ø±Ùĥ Ø©
ĠÕ «
Ġtu do
ct ed
à¯ģà® £
èª į
Ġà¦¤ à¦¾à¦¦à§ĩà¦°
åĸ ľ
cz as
Ġæ Ģ
Ġì¢ ĭ
ĠÐº ÑĤÐ¾
Ġà¤²à¥ĩ à¤ķà¤¿à¤¨
Ã¶v l
ĠÐ¿ÑĢÐ¾ÑĨ ÐµÑģÑģ
Ġmin utes
Ã¡ le
Ġ365ä½ĵèĤ² æĬķæ³¨
ÏĢÎ¿Ïħ ÏģÎ³
Ġfe atures
ĠQ ue
Ġíķľ êµŃ
è ı
Ġet was
Ġm ass
Ġcomp et
Ġg ed
Ġcom b
Ġí ļĮ
ÉĻy ÉĻ
201 9
ÏĨÎ¿ ÏģÎ¬
ĠÚ© Ø§Ùħ
ĠÙĦ ÙĨ
ê°Ģ ê²©
Ġprofess ional
Ø± Ø§ÙĤ
Ġout ros
ç· ļ
à®¿à®²à¯įà®² à¯Ī
åı ĭ
Ġest os
ÑĢ ÐµÑģ
¢ à¸Ļà¸
Ġtechn ology
ĠÐ±ÐµÑģÐ¿Ð»Ð°ÑĤ Ð½Ð¾
iste ma
cze g
Ġ×Ļ ×Ķ
Ġ4 0
Ġcual quier
Ġresp ons
íĤ ¤
Ã² a
ĠÑģÑĤ Ð¾ÑĢ
Ġse a
Ùģ Ø§Ø¹
ĠÙħØ¯ ÛĮØ±
ĠØ± Ø¯
Ġà® ²
le id
ï½ Ĺ
ch io
Ġar kadaÅŁ
ĠÚ© Ø§ÙĦ
ard Ä±m
ĠÐ´ Ð¾ÑĢ
à¤°à¥įà¤ ¤
a um
ĠíĻ ķ
ĠæŃ £
Ġ×ŀ ×¨
m aya
áĥĿáĥ ¨áĥĺ
Ġh Ã¡
ĠP eng
l ama
en da
rij f
ÎĻÎ Ŀ
ĠØ¨Ø´ ÙĥÙĦ
Ġ à¸Ń
Ġà¤ª à¥Ģ
Ġà¦ķ à¦¾à¦
ĠÐ¿ÑĢÐ¾ÑĤ Ð¸Ð²
Ð°Ð½ Ð¸Ð¹
Ġpod r
Ġp lease
ìĹĲ ëĬĶ
ÐµÑĩ ÐµÐ½Ð¸Ðµ
ãĥ³ãĥ Ĩ
ê ¶Į
ĠÐ½ Ð°Ð»
Ġc oun
ç®¡ çĲĨ
Ġfrien ds
Ġth Ã¢n
ĠØ§ÙĦØ£ Ø®
p ly
Ã¤ uf
Ġrem ain
Ġt ipo
Ð° Ñī
è´ ¨
áĥĶáĥĹ áĥĺ
ĠÃ§ ek
ĠPa ulo
ĠØ³ Ù¾
ĠÙħ Ø±Ú©
ãĤ ®
ĠáĥĵáĥĲáĥ ĺ
éħ į
Ġb ile
±à¸ įà¸
æĸ ½
Ġà®®à¯ģà® ©
Ú¯ Ø±ÛĮ
Ã¦r t
Ġà®ħ à®¨à¯įà®¤
Ġg aan
end ant
ĠÐ· Ð°ÑıÐ²
à¥ĭ à¤²
íı ī
áĥĺáĥ¡ áĥĲ
ĠìĤ¬ ëŀĮ
Î½ Î®
Ġíķ ł
ĠÑĢÐ°Ñģ Ñģ
Ġì »
ĠÐ· Ð²
Ġ×Ĳ ×¨
Ġà®¤ à¯ĩ
ÃŃ o
ĠÙĦ ÛĮ
Ġà¦¬à¦¿à¦ Ń
ĠÅŁek ilde
à¥įà¤¯ à¤¾à¤¤
A P
Ø· Ùģ
Ġl iá»ĩu
à¦¸ à¦²
Ġl ib
à¹Īà¸ĩà¹Ģà¸ ĩà¸´à¸Ļà¸
Ġs istem
p ap
å¼ ·
ĠÐ±Ð¾Ð»ÑĮÑĪ Ðµ
ĠD u
ä¿¡ æģ¯
Ġtr áº»
ĠÙħÙĪÙĤ Ø¹
in n
Ġs á»Ł
il t
ç¯ ĩ
Ġch alleng
Â ¸
ãģ® æĸ¹
ëĶ Ķ
ãĥĥ ãĤ°
ĠÑĥ Ð»
à±ĩà° µ
Ġte gen
uk o
s el
Ã£ i
ĠãĤ ¸
áĥĺáĥĹ áĥ®
Ġl at
r ijk
ļà¸²à¸Ĺ à¹Ħà¸Ĺà¸¢
Ġngo Ãłi
Ġãĥ Ģ
Î¯ Ïĥ
Ġcurr ent
à¯Īà®ķ à¯į
ą ĆĈ
Ø§Ø¶ ÙĬ
Ø§Øª Ùģ
èª ī
Ġtou te
Ġevery thing
ÑĨ Ðµ
×ķ ×ķ
ĠØ§ÙĦØŃ Ùĥ
Ġ ãģ¨ãģĦãģĨ
áĥĶáĥļ áĥ¡
ĠÐ¾ ÑĦ
T E
Ġter j
ĠG en
larÄ±n Ä±n
Ġg aat
ĠÃ ·
Ġëª ©
ìķĦ ê°Ģ
Ġì½ ľê±¸
wa Å¼
Ġm iá»ħn
iv as
ĠéĶ Ľ
ĠãĢı ãĢİ
Ø§Ø³ ÙĬ
Ġal an
ĠÙĨ ÙĪ
ĠP em
Īà¸ °
Ġçİ °
Ġ á»©ng
ĠØ§ÙĦØª ØŃ
Ġcl ose
×¤ ×ĺ
Ġs Ã¶z
aÄŁ Ä±
ĠÐļ Ð¾Ð½
Ġìĥ Ī
ĠÐ¼ Ð°Ð»
Ġpor n
Ġ×ľ ×ĵ
Ġje go
ĠDom ain
I E
ar ang
ĠÐ¼ Ð½Ðµ
ch ts
Ġpro ye
Ð¸ÑĤ Ñĥ
à±ģà° ª
é¢ Ħ
Ġw aktu
Ġch aract
ĠØ§ÙĦ Ø§
Ġle urs
Ú¯ Ø±Ø§ÙĨ
ÏĦÏĮ ÏĤ
Ġpet it
æ± º
Î´ Î¹Îº
éĤĢ è¯·
æĿ ¡
Ð¾ÑĤ Ð°
he ten
à¦° à§ĩà¦°
à¸Ļà¸ ´à¸
ı i
Ġst ay
ĠdeÄŁ il
Ø§Ø¦ Ø±
Ġenv ironment
ĠÏħ ÏĢÎ¬ÏģÏĩ
Ġr ac
Ġ ing
u da
Ī ¬
owan y
ĠagåĽ½éĻħ äºļæ¸¸
skie j
Ġy orum
à¦¤ à§įà¦¯
ŀ à¯įà®ļ
èĬ Ĥ
Ġm ulti
Ġse arch
Ġcos Ã¬
Ġser Ã¡
ĠB ild
Ġ×© ×¢
ĠBe i
à±ģà°Ĥà° Ł
ĠÃĸ z
ĠáĥĹáĥ¥ áĥķáĥĶáĥľ
Ð¸ÑĤ Ð°
Ñĩ Ð°Ñģ
Ġm áº¯t
ĠÐ²Ñĭ Ð±
eh ir
Ġch uyÃªn
Ïĩ Î¹
Ġdid n
ur ance
ue la
Ġà¸ª à¹Īà¸ĩà¹Ģà¸ĩà¸´à¸Ļà¸
ĠÃ Ĩ
Ġà¦¸ à¦¹
ĠAl s
ujÄħ c
ĠÐ¸ Ñİ
m ost
ĠÑģÑĤ Ð°ÑĢ
à°® à±įà°®
Ġdisc uss
à¦¾à¦° à§ĩà¦°
ĠáĥłáĥĿáĥĴ áĥĿáĥłáĥª
88 8
ã Ħ
Ġbe gin
Ġv Å¡
×ł ×Ļ×ª
Ġà®® à¯Ĥ
Ġk imi
ĠÐ¿ÑĢÐ¾Ð± Ð»ÐµÐ¼
Õ¥ Õ¶
ouve z
Ġah ora
Ġb ie
ĠØ± ÙģØª
Ġx Ã£
Ġr áº±ng
Ġå° ±
Ġmom ento
Ġpl aat
Ġ2 22
ier on
us u
åĢ Ł
ĠÚ¯ ÛĮ
Ø§Ùģ Ø¸
ç½ ®
Ð¾ÑĤÑĢ ÐµÐ±
¥à¸ĩà¸Ĺà¸ °à¹Ģà¸ļ
s g
ov a
v ik
ĠØº ÛĮØ±
Ð «
Ġãģ ķ
ow Äħ
ĠØ§ÙĦ Ø§Ùħ
Ġdoes n
ãģĵ ãģ®
Ġta x
Ġè §
ĠÎºÎ¬ Î¸Îµ
¢ à¹Ģà¸
Ġ×Ĺ ×ĳ×¨
ã ħ
Ġje ho
ç» ¼åĲĪ
ÐµÑĢ Ð±
ĠÙĬ Ø³Øª
à§Ģ à¦¨
Ġd ÃŃas
ic c
×¨ ×ļ
Ġv ersch
à¦°à§įà¦ ¥
ĠEs te
Ġf re
Ġk il
ĠØ§ÙĦØ¬ Ø¯ÙĬØ¯
ar si
Ġun t
±à¸ ģ
Ġha ar
ĠÐ¸Ð· Ð¼ÐµÐ½
æĬĢ å·§
Ġ Ã¼l
ĠÐ¾ Ð¿ÑĢÐµÐ´ÐµÐ»
Ġë° ĺ
or to
te ur
Ġnet work
at iva
un e
Ġdev am
ĠÃ Ĥ
Ġd ÄĽ
Ġáĥĵ áĥĲáĥķ
åĪ «
ĠgÃ¶r ÉĻ
åĽ ´
Ġà®İ à®¤
áĥĲ áĥĲ
Ġmon do
Ġso it
Ġp in
ì§ ģ
ÎµÎ¯ ÏĤ
Ġof re
áĥĲáĥłáĥ ¡
Ġà¤¯ à¥ĩ
Ø§Ø¬ Ùĩ
ĠÏĢÎµÏģÎ¹ Î¿
Ġand eren
ĠH aber
×ĳ ×ª
ĠÐ» ÐµÐ³
Ġmonth s
Ġà¤¥ à¥ĩ
Ø±ÙĪ Ø¹
ãĥĹ ãĥª
ì ¼
à§ģà¦ ĩ
ĠÐº Ð°ÑĤ
fer ence
if ied
ra cht
à±ģà° ¡
Ġespe cial
our ce
ge ben
à§įà¦ Ľ
íĥ ľ
Ġà¦ķ à¦¿à¦Ľ
ÉĻc ÉĻk
Ã¡ ÅĻ
Ø¯ ÙĨ
Ø±Ùģ Ø©
åı¯ èĥ½
Ø Ł
æµ İ
Ġquan to
ĠAmeric an
å® Į
ill o
ĠØ§ÙĦÙħ Ùħ
os c
áĥķ áĥł
Ùĳ Ø©
ĠØªØŃ Øª
ĠãĤ »
ÏģÎ± ÏĤ
Î¼ÏĨ ÏīÎ½
ê ´ĳ
o f
å® ģ
ĠØªÙħ Ø§Ùħ
ĠÄĳ Ã¡nh
ÏĦÎµ Ïģ
Ġ×ĳ ×ĵ
ĠÑģÑĤ ÑĢÐ¾
id es
ĠM ens
ëĭ ĺ
à®© à¯Ī
ÙĬ Ø·
at ural
Ġm ujer
ĠGe w
Ð°Ð» ÑģÑı
ĠÙħÙĨ Ø°
esz cze
Ġm illion
à¦ª à§ģà¦°
Ġd us
ĠÐľ Ñĭ
Ġjed nak
Ĭ à¹Īà¸§à¸
Î¼Î¿ ÏĤ
Ġ×Ķ× Ŀ
Ð°Ð» Ð¸ÑģÑĤ
Ġà®ĩ à®Ł
Ġprof es
ĠD ans
b ro
id d
Ġch áº¿
åŃ Ĺ
Ġna w
é§ ħ
te k
Ġæ ·
Îĳ ÎĻ
un uz
ier te
ĠÑįÐº ÑģÐ¿
ĠK ar
Ġï¼ļ âĢľ
ĠF rau
Ġno en
æ ļ
Ġet ti
ĠÙħÛĮâĢĮ ØªÙĪØ§ÙĨ
Ġfe ira
Î¼Î± ÏĦÎ¿
Ġmet hod
ÐµÐ² Ð°
Ġm nie
áĥķáĥĶáĥ §
å® Ŀ
Ġz as
Ġ×ľ ×¡
Äį ka
ĠáĥĹáĥĲáĥķ áĥĺáĥ¡
h y
ent er
áĥķ áĥĶ
ĠØ¨Ø¯ ÙĪÙĨ
is ing
lar da
l ish
ĠF ahr
Ġprovid es
ĠÐ´Ð¾Ðº ÑĥÐ¼
ĠØ£ Øµ
Ġt ing
×ľ ×Ĺ
ĠÐ¼ ÑĥÐ¶
Ø±ÙĬ Ø¨
åİ Ĩ
åĳ ¨
Ġg iven
æ²¡ æľī
ĠÑĤ ÑĢÐ°Ð½
Ġre le
ĠÐ½ Ð¸Ñħ
ĠáĥĽ áĥĶáĥ¢
ĠÎ¿ÏĢÎ¿ Î¯Î±
ur os
Ð¡ Ð¢
à§ĭ à¦ķ
our ces
u he
O W
uyá» ħn
Ġa j
m alar
Ã Ĺ
à¤¾à¤ ¶
ĠÑĥÑģÐ» ÑĥÐ³
ãĥ³ãĥ Ĺ
ãģ® ä¸Ń
à®¿à® ª
ĠZ u
ch os
Ġéĩ į
ì¦ Ī
ĠW ie
Ġà¤¦ à¥Ģ
Ġr it
áĥĺáĥ ĳ
Ġpr v
ĠÐŀ Ñģ
å ¡
Ġà¤¨ à¤¿
Ġm igli
Ġmak a
ĠãĤ ¿
ĠW as
Ġmanag ement
Ġà¦®à¦§à§įà¦¯ à§ĩ
ĠgÃ¶ z
ĠÂ §
I tem
Ġk amu
Ġyou ng
ĠH aus
Ġc Ã¡
Ġà°ķà±Ĥà° ¡à°¾
Ġf al
áĢ¹ áĢ
à¥Į à¤°
ll as
Ġs ound
à§Ģ à¦¬
ĠØ± Ø¦
Ġn áº¿u
Ã¼ks ek
is z
ic olo
bi amo
à®® à®¾à®©
Ġ×ŀ×Ĺ ×Ļ×¨
Ùİ ÙĬ
Ġä¸ ĩ
Î½Î¿ Ïį
ªà¸²à¸ ¡à¸²à¸£à¸
ÏĨ Îµ
z zi
Ġgj ennom
æĿ ĥ
ĠÐº Ð»Ð¸
ĠØ¥ ÙĦØ§
ĠG l
ĠØ± ÙĨÚ¯
Ø§Ø¨ Ø·
Ġà¦Ĩà¦® à¦¿
az Ä±
ĠÙħÙĨ Ø§Ø³
Ġdiff Ã©r
Ġcom ent
Ġà¦¬ à¦Ľ
ê »
ãģ¦ ãĤĤ
Ġge ht
k k
en ze
ĠÙĦ ØŃ
ici ones
Ġà®ļ à®¿à®±
Ġch uyá»ĥn
ĠØ§ÛĮ Ø¬Ø§Ø¯
ĠÐº Ð°Ð·
ĠØ¯ ÙĪÙħ
ĠÎ± Ïģ
st ra
ĠÃ Ļ
Ġproper ty
Ð¾Ð» Ð¶
k ÅĤad
ĠM as
Ġ×ķ ×©
Ġà¤° à¤¹à¥Ģ
Ġnuov o
Ġ×ĳ ×Ļ×ª
Ġby l
Ð¸ÑĤ ÐµÐ»Ð¸
à®£à¯įà®Ł à¯ģ
«à¸ ¥
áŀ ¶
íĹ ĺ
ate urs
Ġà¸ ļ
Ġap a
ĠÑĤÐµÐ» ÐµÑĦ
ĠÐ¿ÑĢÐ¸Ð¼ ÐµÐ½
ÄŁit im
Ġthough t
Ġà¤ķ à¥Ī
Ġ×Ľ ×ļ
Ã¶vl ÉĻt
u zione
à¦Ĺ à§įà¦°
ĠÐ³ ÑĢÑĥÐ¿Ð¿
ĠæĿ ±
Ð¾Ð¶ Ðµ
à¦ª à§įà¦°
Ġà¤Ńà¤¾à¤° à¤¤
ĠM á»¹
Ġd Ã¼n
Ġz p
Ġp ress
ĠÄ°st anbul
à¸² à¹Ģà¸
Ġe conom
ÙĩâĢĮ ÛĮ
Ġå¯ ¹
ĠÑĥ ÑĢÐ¾Ð²
ac a
ĠâĢ ¢
Y W
Ġsi ze
áº¯ p
à´ ¯
à¦¿à§Ł à¦¾
Ġna bÃŃ
èµĮ éĴ±
ig ung
Ġsim ple
ĠÑģÑĤ Ð°ÑĤÑĮ
×ķ× ¥
ãĤį ãģĨ
b urg
Ġsar Ãł
Î¯ ÏīÎ½
r ada
Ġ×Ľ ×ŀ×ķ
Ġex tra
ĠÑĪ Ðº
o pp
ãģı ãģª
Ġè ¦
ce ll
Ġquest ions
ÙĬÙģ Ø©
Ġp ur
Ġgovern ment
Ġdz iaÅĤ
ĠÐ±Ñĭ Ð»Ð°
Ġch Æ¡i
t Ã¼
ce ÄŁ
ĠÙĬ Ø§
ĠÎ¼ÏĮ Î½Î¿
Î¸ Î¿ÏįÎ½
Ħà¸£à¸ ·à¹Īà¸Ńà¸ĩà¸
Ġs iz
ĠM Ã¼
ir as
ĠS in
Ġà¤ħ à¤¬
Ġt our
b ook
Ġs at
Ġth ÃŃch
à°ķ à°¿
j os
à®Ł à®¿
Ã¼z el
ĠÐ½ Ð°Ð¼
led ge
æ· ±
Ù Į
¹ æŀľ
ĠÑįÑĤ Ð¾Ð¹
ÙĬÙħ Ø©
à§ĩà¦¨ à§įà¦Ł
Ġp ov
Ð´ Ð¸Ð½
Ġà¦¹ à¦¯à¦¼
ë² Ħ
Ġgi áº£m
Ø§ÛĮ Ùĩ
è§ ģ
à¤® à¥ĩà¤Ĥ
Ġà®ĩ à®²à¯įà®²
Ġv ra
ed ia
Ġ×ĳ ×Ľ×ľ
ĠÙĩ Ø¯
hing ga
op r
Ġà®Ĩ à®©
Ġæ ł
Ġc ung
ĠØ§ÙĦØ£ ÙĪÙĦ
Ġres ult
Ġear ly
à§įà¦¤ à§ģ
Ġà¤¦ à¤¿à¤¨
Ġquy áº¿t
Â ¿
Ð¸ÑĩÐµÑģÐº Ð¸
al en
Ġl id
ĠØª Ø¹Ø¯
Ġs ic
è¶ ħ
Ġan tes
ĠÐºÐ² Ð°ÑĢÑĤ
Ð¼ Ðµ
ãĥ¼ãĥ Ĺ
Ġà¦¹ à¦²
Ġimp rove
d ition
ìł Ģ
ĠÐ½ ÐµÐº
çĻ ¾
à°¡ à°Ĥ
Ġest Ã£o
ac zy
ä¾ ¿
à¤¾à¤ ·
:: ::
ç± »
à¤¾à¤ §
Ġà°¨ à°¿à°°
Ð°Ðº Ñģ
Ġà®® à¯Ģ
Ġact ual
is c
Øª Ùĥ
i i
en en
Ġà¸ ŀà¸
ĠÐŀ Ð½
Î³ Î±
Ġà°ħ à°µ
Ð° ÑĨÐ¸Ð¾Ð½
éĿ Ĵ
è¿Ľ è¡Į
larÄ±n a
Ġser ta
Äį enÃŃ
ĠÙħÙĨ Ø·
el o
ĠS c
Ġ19 9
ĠÚ© ÙĪ
Ðº Ð°Ð¼Ð¸
v ar
cu er
Ø¸ Ø±
Ġ×Ĳ×Ĺ ×ĵ
ter ior
à¯ģà® ²
Ġr im
ĠÙĦ ÙĩØ§
à¤¦ à¥Ģ
ĠØŃØ¶ ÙĪØ±
ĠÙĬ Ø¯
æľī éĻĲ
ĠØ´ ÙĪØ±
Ġéĩ ĳ
jÄħ ce
Ġnuest ro
un k
Ð°Ð» Ð¸ÑģÑĮ
èĭ ±
ĠÙ¾Ø§Ø³ Ø®
ĠT ag
åħĥ æ£ĭçīĮ
Ġà¤® à¥ĭ
ĠÐ² Ð¾Ð»
Ġj p
ÏĮ ÏĦÎ·ÏĦÎ±
Ġsel v
ÑĢÑĥ Ð±
Ġm ange
Ġmais on
ĠF e
Ġà¹Ĥà¸ Ķà¸
d at
Ġap enas
Ø±ÙĬ Ùĥ
Ðº Ð¸Ð¹
Ð°Ð½ Ñĭ
Ġà¤µà¤¿à¤ ¶
iy on
us h
Ġne ue
Ġà¦¹à§Ł à§ĩ
ĠÙħ ÙĦÛĮ
Ġà¤¬ à¤¾à¤¤
ĠØª Ùģ
art ment
ĠØ¯Ø± Ø¨Ø§Ø±Ùĩ
ĠL and
ï¼ ĵ
ì¢ ħ
qu ÃŃ
ìķ ĺ
Ġtrain ing
Ġà¦¦ à¦¿à¦¨
Ġiss ues
£ i
Ġc ame
us o
×ĳ ×ķ×ª
Ġk a
Ġ201 3
ĠÐ± Ð»
Ïĥ ÏĦÎ®
ãģ¨ ãģĭ
asi le
ãĤ¿ ãĤ¤
å¢ ŀ
×Ļ×© ×Ķ
Ġmen c
à§ĭ à¦®
Ø³Øª ÛĮ
Ġgr ande
r Ãł
à¥Ĥ à¤²
Ñĥ ÑİÑĤ
Ġzna j
Ġé ķ
à¦¸ à§įà¦¯
Ġde ci
Ñĥ Ð»Ð¸
Æ°á»£ t
ĠÙĥ Ùħ
àµįà´ ¤
ĠP ero
Ġsing le
Ġtu á»ķi
Ġpr imo
makt adÄ±r
ĠÎķ Îº
ĠÎ±ÏĢÎ¿ ÏĦÎµ
Ø±Ø¨ ÙĬØ©
Øª ÙĦ
Ġtut te
Ġhat te
Ġwho le
Ð¾Ð³ ÑĢÐ°ÑĦ
Ġs ito
çļĦ ãģª
Ġ":"" ,"
ÉĻ x
Ġà¤° à¥Ĥà¤ª
4 0
ĠØª Ø¨
es inde
×ĳ ×ķ×¨
vel opp
Ġn Ã©
ĠÐ½Ð° ÑħÐ¾Ð´
ĠGr und
Ð¼ Ð°ÑĤ
Ġprim er
Ġìļ Ķ
×¨ ×ķ×ª
Ġ201 2
ĠØ§Ø¬ ØªÙħØ§Ø¹
ÏĢ Î®
Ø² Ø§Ø±ÛĮ
ĠÑįÑĤ Ð¾ÑĤ
ĠØª Ø±Ú©
end ita
ä¸Ń å¿ĥ
Y n
ÎĳÎ Ľ
Ġapp ear
à¯ģà®ķ à®³
Ġprim era
ì ¤Ģ
Ġwhe ther
im enti
ÏĨ Î·
ĠÎ» Î±
Ġíķ Ħ
ç¦ ı
Ġdei x
à¤¿à¤ ľ
Ġ ingin
Ġà®ķ à®²
Ġfin an
ĠØ§Ø¹ ÙĦØ§Ùħ
Ġman era
if s
k Äħ
Ġà¤ķà¤° à¤¤à¥ĩ
ĠdeÄŁ er
ĠÏĥÏĦ Î¿ÏħÏĤ
ÏĦ ÏĥÎ¹
Ġc ard
ĠR p
Ø³Ø· ÙĬÙĨ
è® ¤
en ces
ĠÚ©ÙĨ ÙĨØ¯Ùĩ
Ġà¤ľ à¤¾à¤¨
èª ŀ
cz ne
Ġperform ance
ÐµÐ¹ ÑĩÐ°Ñģ
Ġ×Ĺ ×ĵ
ĠØ¨Ø§ÙĦ Øª
ic y
Ġl á»ĭch
Ġtra vel
Ġso bie
Ġç¾ İ
Ġb iz
ĠMens chen
Ĺà¸²à¸ ĩà¸
ek er
ĠØ¨ ÙĤ
i Ã§Ã£o
à°¿à°¨ à°¿
Ġà¸ Ĺà¸µà¹Īà¸
un ci
æĪ ĸ
Ġ ãģŁ
Ġfon ction
ĠÙĦ Ø¥
Ġna p
ä»£ çĲĨ
Ø®Ø¯ Ø§Ùħ
Ġà¦¬à¦¿à¦ ·
ĠÃ¶ ÄŁren
Ïģ ÏİÎ½
à¦¾à¦® à§Ģ
à°² à±įà°²
åı ĺ
z immer
ĠÎ¶ Ïī
z d
áº± m
ĠÐ² ÑĤÐ¾ÑĢ
Ġare as
Ġtou jours
à¯ģà®µ à®¤
á»± a
à±ģà°Ĥà° ¦
à¯ģà®ķ à®³à¯į
ĠØ£ ÙĪÙĦ
è§Ĩ è®¯
li que
di b
ÙĬ ÙĪÙĨ
ĠØ·Ø± Ø§ØŃÛĮ
Ġest ar
Ġvá» «a
ĠT ra
Ġà°¨ à±ģà°Ĥà°
åħ ·
áº· ng
à¸£à¸²à¸ °à¸
Ø¨ Ø±Ø¯
ĠØ¢ ÛĮ
it el
Ġt eng
n ers
Ġ Ã¼rÃ¼n
Ġzwe i
± ¼
ĠÑĥ Ð¿ÑĢÐ°Ð²
Ġen ergy
ç ¿
Ġma chen
ĠN ot
à®¿à®¤à¯įà®¤ à¯ģ
ĠÐ¼ Ð°ÑĪ
Ð Ļ
Ġdi p
ĠÐ¼Ð¾Ð¶ÐµÑĤ Ðµ
Îķ ÎĿ
æķ Ī
ĠÅŁ ey
Ġdown load
Ġme jores
ta ge
Ġà¤ Ŀ
Ġ ~
Ġder e
ĠN ow
ov nÃŃ
et er
Ġm ess
Ġex ten
Ġkh Ã³
ÑĢ Ð¸ÑĤ
ĠÎĿ Î¿
Ġdá»± ng
Ġser a
er ca
Ġ, "
Ġà´ ª
ul ai
Ġy e
à¤¾à¤Ĥ à¤¨à¥Ģ
Ġà®ļà¯Ĩà®¯ à¯įà®¯
Ġalt ro
Ġr ich
Ġf u
ãģª ãģĮ
ĠØ§Ùģ Ø²Ø§Ø±
Ġp al
Ġãĥ» ãĥ»ãĥ»
Ġc a
Ġæ ĭ
ight s
Ġå ĵ
Ġper io
n ung
åĮ »
c am
eit en
Ġgi Ãł
æĪ ¦
ĠØ® Ø§ÙĨÙĩ
Ġn á»Ļi
Ġrequire d
Ġn ÉĻ
ĠA u
ĠÄĳ áº·t
ĠÙģ ÙĦ
v ang
Ġk uko
æ ĳ
Ġto ok
Ġes se
Ġà¤ķà¤° à¥ĩà¤Ĥ
ĠØ¢ ÙĦ
à±ģà°ķ à±ĭ
Ġè ¡
Ġpe que
Ġp ick
Ġk rij
?? ??
à§ĭ à¦Ł
éĤĢè¯· çłģ
æĪĳ ä»¬
Ä° R
Ġà¤ķ à¥įà¤¯à¤¾
à¯Īà®ķ à®³à¯į
Ġà¸ ¥
ĠÙħØ¯ ÛĮØ±ÛĮ
ĠÐ¶ Ð¸Ð·
Ġà¤® à¥Īà¤Ĥ
ĠC um
Ġï¼ ı
vol v
Îµ ÏĦÎµ
s chen
à¯ģà® ļ
Ġà®¨ à®¿à®²
Ġt able
ĠÄĳ áº·c
ov al
×Ļ×ĳ ×Ķ
Ġtien en
Ð¾Ð´ Ð°ÑĢ
çĪ ±
Ġtá»ī nh
ĠØ²ÛĮ Ø¨
it er
Ã³ m
Ġlá» Ŀi
b al
Ø§Ø¨ Ø¹
Ð¾Ð´ ÐµÑĢÐ¶
Ġwon der
Ġå ĳ
ãĤŃ ãĥ£
ÎĳÎ ļ
Ú¯ ÛĮØ±
Ġb esch
ische r
Ã³ g
Ġpers one
Ġvari ous
Ġq ar
à¹Īà¸² à¸Ļà¸
olog ia
Ġh ÉĻm
Ðł Ñ
áº· p
ĠÛ±Û °
en Ã©
i Äĩ
ĠÐ² Ð°Ñģ
Ġa qui
ĠÎ ĸ
un ch
ĠØ³ ÙĦ
Ġun ique
ç´ ł
ĠCh icas
or r
à°¾à° §
Ġp am
Ġà¦¶ à¦¿à¦ķà§įà¦·
Ġspole Äį
Ġ×Ĳ ×Ļ×Ł
Ġt Ã©lÃ©
ĠÐ¿Ð¾Ðº ÑĥÐ¿
ĠÎµÎ½ Ïİ
ĠDeut schland
×Ľ ×Ŀ
z ent
à°¾à° £
Ð¸ÑĨ Ð°
Ġà®ª à®¯
Ġpu is
Ġby ÅĤo
Ġkter Ã¡
Ġà®µà¯Ĩ à®³
Ġå¤§åıĳ æĹ¶æĹ¶å½©
Ġ365bet å®ĺç½ĳ
ãģ® ãģ§ãģĻãģĮ
Ġà¦ķà¦¿à¦¨ à§įà¦¤à§ģ
as se
Ñĥ ÐµÑĤÑģÑı
à¤ļ à¥įà¤¯à¤¾
à¦°à§įà¦ ®
Ã¼ ne
Ġs endiri
Ġdo ch
à¤ļà¥įà¤ ļ
ë£ ¨
Ġh Æ°á»Ľng
è ĸ
ĠØ§ÙĦ ÙĴ
R E
ĠmÃ¼ s
po is
ĠÃ Ģ
ĠT od
ĠÏĢÏģÎ¿ ÏĤ
ĠÙĩÙħ ÛĮÙĨ
ĠP lease
Ġp ang
ĠØ§ÙĦÙħ Øº
is p
ĠØ¨Ùĩ âĢĮ
éĹ® é¢ĺ
Ġt res
ìĺ Ģ
ĠH arga
Ġng ay
×Ĳ ×ķ×ª
Ġà®¤ à®²
Î¹ Ïİ
ĠØ¨ Ø¥
Ġall es
ĠAr tik
Ġche z
Î» ÎµÏħ
Â ±
Ġn Ã¥r
56 bet
ill ed
Ð½ Ð¸Ñħ
å¸Ĥ åľº
7 8
Ġæ ¥
à· ı
ÐµÐ³ Ð´Ð°
éª Į
and a
ĠNg uyá»ħn
çĻ ½
Ġl iving
ë¶ ģ
Ġh ope
Ġsp Ã©
Ġeffect ive
Ġt iáº¿t
Õ¡ Öģ
Ġsah ip
ĠÎ± Î¾
he im
ĠØ« Ø¨Øª
to ff
Ġà¦ķà¦° à§įà¦®
ĠÐ·Ð° Ñī
Ģ ìĿ´
Ùħ ÙĴ
et a
ÙħØ§ÙĨ ÛĮ
1 5
ĠÐ¾Ð± Ð¾ÑĢ
pl ace
ĠÙĨÛĮ Ø§Ø²
×ķ×ŀ ×¨
ĠÑģÐ¾Ð¾ÑĤÐ²ÐµÑĤ ÑģÑĤÐ²
å½ ¢
ĠolduÄŁ unu
åį ĩ
Ġà¤ķà¥ĭ à¤Ī
ëł ¨
Ð° ÑģÐº
à±Ģ à°°
Ġup d
ĠíĻ Ķ
à¤Ĥ à¤Ł
ÑĢ ÐµÐ½
ĠA p
Ġtr ack
Ġne p
è² »
ì£¼ ì¶ľìŀ¥
Ä± ll
Ñĳ ÑĤ
Ġìł ģ
ĠØ¹ ÙĦÙħ
aÅĤ a
c je
ÏĨ ÎŃ
Ġpol ÃŃt
a x
c an
Ġkh á»ı
ĠÙĥ ÙĬÙģ
un ia
Ġay r
p od
à¨¿ à¨
Ġà¤Ĺ à¤Ī
ĠÐ¾Ð± ÑıÐ·
n ement
Ġg dy
ĠB á»Ļ
ĠA k
Ġm iesz
Ġhapp en
à¤Ĥ à¤ļ
Ã¡ Å¡
ĠãĤ ¦
¥à¸ĩà¸Ĺà¸°à¹Ģà¸ļ à¸µà¸¢à¸Ļà¸
ĠÐ´ ÐµÐº
Ġà®ĩ à®µ
à¦¾à¦¨ à§ĩà¦°
ĠØ³ ÙĨ
Ġà¤ªà¥įà¤° à¤¤
ĠÐ°Ð²ÑĤÐ¾Ð¼ Ð¾Ð±
Ġseb uah
ĠÎķ ÏĢÎ¹
Ġfollow ing
Ġd ou
Ġà¤ªà¤¹ à¤²à¥ĩ
à¸Ńà¸ µà¸
Ġhab it
Ġd Ã©s
ÐµÐ´ ÐµÑĢ
ĠI N
ĠWh ile
U tama
ĠÎĶ ÎµÎ½
ĠDomain Utama
Ġw ide
Ġgr up
Ø³Ø¨ Ø¨
à¤¸ à¤¾
à¤¾à¤ł à¥Ģ
åĪ Ŀ
ĠS ome
Ġà¦Ĩà¦® à¦¾à¦°
im ana
ĠØª Ø³Øª
ai ent
Ġgr and
Ġot ra
D F
Ġ×ķ ×ľ×Ĳ
ĠdÃ¼ÅŁ Ã¼n
ĠØ§ÙĦØ¬ Ø²
ĠÐ¼ ÐµÑģÑı
ĠD at
m ber
ģà¸ ´à¸
Ġà¦¨à¦¿à¦ ľ
Ġà®®à®±à¯įà®± à¯ģà®®à¯į
Ġà¦ķ à§įà¦·
h os
×Ĵ ×ĵ
ĠWo hn
Ñĥ Ð¹
Ïģ ÎµÎ¹
Ġì² Ń
Ð½ Ð¸Ñĩ
ĠC zy
Ġå® ī
ĠÐ¼ Ð°ÑĢ
Ð¸Ð¼ Ð¾ÑģÑĤÑĮ
Ġno e
ªà¸ ³à¸«
g esch
ĠD aten
Ġf ilm
Ġk ol
ĠIn form
ĠB il
verpg bel
ac Ä±
ĠE k
Ġl ater
ĠìĤ¬ ìļ©
ĠØ¥ ÙĦÙĬ
Ġb áº¯t
ĠÐ¿ÑĢ Ð¾Ñģ
Î´ ÏĮ
ÛĮÙĨ Ú©
Ġåħ ¬
ĠÐ¿ÑĢÐ¾ ÑĪ
åĽ ł
aÅ¾ d
Ġfor am
à¦Ĺ à§ģà¦²
ĠÃ Ħ
§à¸ ±à¸Ļà¸
ì ´Ī
Ġdo b
m ÉĻt
ĠkarÅŁ Ä±
Ġê ´ĳ
ĠÐ¶Ð¸Ð· Ð½Ð¸
ĠÃ ļ
Ġcomp ut
ãģ«ãģª ãģ£ãģ¦
à¤¾à¤² à¤¾
Ã£ y
Ġì° ¨
Ġhak k
ler de
ÐµÑģÑĤÐ² Ð°
Ġp ays
ĠâĢ İ
Î»Î· ÏĤ
Ġà¦¸à¦° à¦ķà¦¾à¦°
we g
Ġav ait
Ġex am
Ïį ÏĢ
æĿ Ĳ
Ġmo is
à¦¿à¦ ī
ĠÕ ¿
ĠR oma
1 3
ãģ£ ãģ
ĠÐ» Ð¸ÑĪ
×Ĳ ×Ķ
Ġà¸ ¡à¸
å¤ ª
ym i
Ġb innen
Ġlu Ã´n
Ġà°ħ à°Ĥà°¦
à±Ģ à°µ
ãĥ³ãĥ ģ
æĭ ¿
Ø§Ùĩ Ø´
Ġte j
Ġb Ã¬nh
Ġs n
Ġs á»©c
Ġà¦ ¢
èĲ ½
Ġth áºŃt
à´ Ĥ
à±ģà°ķ à±ģ
åĨ ³
Ġch at
tell ung
ĠØµÙģ ØŃÙĩ
Úĺ ÛĮ
ĠÙĨ Ø³
Ġæ Ļ
Ġà¦®à¦¾à¦¨ à§ģà¦·
Î´ Ïħ
ĠÙĪØ§ÙĦ Ø¹
u ciÃ³n
st r
l age
ij s
Ġäºļ æ´²
Ġcomm on
Ġtak ing
em ber
ĠØ³ÛĮ Ø³ØªÙħ
à¤¾à¤ «
Ð°Ð½ Ð¾
Ġå½ ĵ
×ķ ×Ļ×ķ×ª
ĠÃ£ ÆĴ
ĠÐ¿Ð¾ ÑıÐ²
Ð¾Ð² Ð°Ñı
ķ à¸´
ler inin
Ġn ed
Ġ×Ķ ×ľ
ĠÎł Î¿Î»
Ġf ive
lic k
ĠÙģ Ùĩ
Ġquel ques
ĠÙħ ÙĦÙĬ
c oup
ÅĻe j
Ġà¦ĺ à¦Ł
Ġå¹ ¶
à§ĩà¦ ¡
ĠÐ¿ÑĢ Ð¸Ñĩ
ÛĮØ¯ ÛĮ
Ġì° ¸
ãģ¡ ãĤī
c ÉĻ
à±įà°¸ à±į
ow adz
Ġph á»ĳ
ë¡ ł
à¤ª à¥Ģ
ĠÙĪ Ø§Ø±Ø¯
ĠmÃł u
ĠÏĮ Î»
à°¨ à±ĩ
åĮ Ĺäº¬
à® ¨
Ġs ays
Ġc ro
ì§ Ī
ì¸ ł
ĠÃ ¤
Ġf urther
Ġà¹ģà¸ ¥à¸°
ĠÙĪØ± Ø²Ø´
ĠØ§ÙĦ Ø±ÙĪ
Ġre d
çµ Ħ
Ġk ont
aÅĤ o
Ġse lect
Ġwy m
ÅĻ enÃŃ
ĠìĦ ¤
aw ah
id ay
uf act
Ġ×Ĳ ×ĸ
gen s
Ä° L
à¯įà®ļ à®¿
ÅĽ nie
Ġdo en
ore d
Ġä½ ł
é Į
ãĤ ¡
ÎŃ Ïĩ
ĠÑģ Ð½
Ġnuest ra
à¯ģà® ´
ĠÃ Į
ĠM us
ÙĪ Ø¶
à¹Ĥà¸£à¸ ĩ
Ġd amit
ĠÃ¡ re
ãģķãĤĮ ãĤĭ
b au
Ġe ither
ëł ¹
to ire
ĠT H
ĠAs s
Ġy an
ĠSt adt
ĠÐ¼Ð°ÑĤÐµÑĢÐ¸ Ð°Ð»
Ġë¡ ľ
ful ly
nÄĽ jÅ¡ÃŃ
Ġà¤ªà¥įà¤° à¤¦
ķ à¹Į
Ġespe cially
èĪ ª
Ġíķ Ļ
ĠØ§ÙĦ ÙĪÙĤ
ĠM et
Þ ¬
ĠÏĩ ÏģÎ·
ĠJo hn
Ġper cent
ĠÐ¿ Ð¾Ð³
à¯įà®ª à¯įà®ª
Ð¸Ð² Ð°ÑĤÑĮ
é ±¼
è¿ ŀ
ī à¸
ĠÐ´ ÐµÐ²
Ġme as
Ġmed ia
Ġm á»įi
Ġà°ļ à±Ĥà°
o ch
ĠbÃ½ t
Ġinform atie
ãģĶ ãģĸ
áº« u
Ġqu er
Ð°ÑĤÐµÐ»ÑĮ Ð½Ð¾
ĠØ² ÙĨØ¯Ú¯ÛĮ
è ħ
Ġ×© ×Ľ
Ġà¦¸ à¦Ļà§įà¦Ĺà§ĩ
Ġcl a
Ġch iáº¿
ĠEsp aÃ±a
à±ģà° ¦
è¯ Ħ
and en
Î¹ÎºÏĮ ÏĤ
Ġab y
ĠÐĲÐ» ÐµÐºÑģ
ĠA ut
Î² Î¿Î»
Ġp ouv
Ġà¹Ĥà¸Ľà¸£ à¹Ĥà¸¡à¸
Ġho y
à¤Ĺ à¤°
ier a
Ġx Ã¢y
Ġv oir
è½ ¬
à¦° à¦£
Ġdesign ed
Ġåį Ĺ
Ġe au
Ġmen sen
Ð¸Ð¼ ÐµÑĢ
«à¸ ¡à¸²à¸
Ġë³ ´ë
ãĥŃ ãĤ°
ĠÐ·Ð°Ðº Ð¾Ð½
à§ģà¦ ĸ
Ġsty le
ÑĢÐ° Ñħ
Ġtrav ail
ler ine
Ġv iele
ĠØ¯ ÙĪÙĨ
Ġob at
Ġdes ta
Î® Î¼Îµ
ĠÐ¾Ð± ÐµÑģÐ¿
Ð°Ð»ÑĮ Ð½Ð°Ñı
m am
å¿ħ è¦ģ
Ġ ãģª
Ġod powied
à§įà¦ ŀ
ĠÐ¼ Ð¾
Ã¡ g
Ġph ys
ãĤ³ ãĥŁ
ë¶Ģ íĦ°
ĠãĢ ľ
Ð ¬
ad en
Ã °
Ġ×ŀ× ĸ
i O
´ Ŀ
Ġa ud
á» ĥ
Ġide a
ĠÑģÐ»ÑĥÑĩÐ° Ðµ
×Ĺ ×ķ×ª
ĠÐºÐ¾Ð¼Ð¿ Ð°Ð½Ð¸Ð¸
à¯įà® ¸
Ġç¬ ¬
ĠÃ© qu
Ġ ÉĻm
ãĥ¼ãĥ ĸ
Ġfa ut
Ġtá» Ń
ist r
Ġà¸ ¥à¸ĩà¸Ĺà¸°à¹Ģà¸ļà¸µà¸¢à¸Ļà¸
il ar
Î³ Ïĩ
Ġà°ħ à°¯
Ġl ov
gr ound
ĠM eng
ĠØ§ÙĦ Ø§ØŃ
Ġà¸ ľà¸
ĠÐ¡ Ð¾
ĠChr ist
à¦¡ à¦¼
ĠÄĳ áº¡o
ĠD an
Ġag æĹĹèĪ°åİħ
ĠÑħ Ð°ÑĢÐ°ÐºÑĤÐµÑĢ
Ġà¦¬à¦² à§ĩ
Ġ ãģ«
Ġj eszcze
à°¿à°Ĥà° Ĺ
Å¡ t
Ġab b
ä¾¡ æł¼
Ġam ong
Ø¹Ùħ Ø§ÙĦ
ĠìĦľ ìļ¸
Ġæ ¬
à¸²à¸ ģ
Ġà¦ª à§ľ
Ġal ors
ĠÐºÐ¾Ð» Ð¸Ñĩ
à±ģà°¨à±įà°¨ à°¾à°°à±ģ
Ø§Ø¹ Ø¯Ø©
is ed
Ġein z
g est
Ġgr andes
ĠÙĤ Ø·
ÅĤ aw
Ġn á»¯
Ġdesp uÃ©s
çĽ´ æĴŃ
Ġse en
rit to
ib ilitÃł
Ġcom er
ĠÐºÐ¾Ð¼ Ð¿Ð»
Ġav is
à°Ĥà°¤ à±ĭ
Ġparti cip
Ġpro b
ĠÙĨ ÙĪØ¹
iÃª m
Ġà¤ľà¤¾à¤¤ à¤¾
ra in
ĠØ¬Ùĩ Ø§ÙĨ
Ġr Ã³Å¼
ĠF ar
à®¾à®³ à¯į
ĠÐ± Ð»Ð°Ð³
ĠÙĪ Ø¬
åı ²
Ð¸Ð² Ð°ÐµÑĤ
Ø¹ ÙĬØ©
Ð ¥
Ĺà¸ ¸à¸
Ġà¸¥à¸ĩà¸Ĺà¸°à¹Ģà¸ļà¸µà¸¢à¸Ļà¸ Łà¸£à¸µ
ru ction
Ġì ¶ľ
Ġso ci
Ġwszyst k
ĠÑģÐ² Ð¾Ð¹
Ġam ount
Ġha z
ĠÙĨØ´ Ø§ÙĨ
und es
ĠÎ¬ Î½
Ø® Ø§ÙĨÙĩ
cy j
Ġdi as
ent lich
æĹ¥ æľ¬
ç»ĵ æŀľ
Ġpr a
Ġn Ã¥
ÏĢ ÎŃ
à¥ĩà¤ ļ
à¦¿à¦ ¡
ìľ ¡
ÙĪ Ø§Ø¹
ĠJ ust
Ø±Ùĥ Ø§Øª
ĠÐ½ Ð°Ð±
um e
ĠÐ¿ Ð¾Ð±
Ø±Ø¨ ÛĮ
¡à¸²à¸ ģà¸
ĠØª Ø§Ø±ÙĬØ®
ĠÑĢ ÑĥÑģ
Ġà¦Ĩ à¦ĩ
20 20
Ø¬ ÙĬÙĦ
r ing
ÑģÑĤÑĢÑĥ Ðº
ĠÚĨ ÛĮ
Ġb in
à°² à±į
Ġà¦ķà¦¿à¦Ľ à§ģ
à¯Īà®¯ à¯Ī
Ġass im
R A
Ġat ta
c ato
ĠÏĢ ÏģÎ±Î³
ÏĥÎ¹ Î¼Î¿
ac aq
ĠÙģ ÙĤØ·
Ġt as
ĠÐ´ ÑĢ
Ġì½ Ķ
çº ¢
Ġthu áºŃt
ĠØ§Ø± Ø§Ø¦
Ġan t
à¥ĩà¤ ¡
Ġ×ĳ ×¦
Ġnh á»ı
R O
ç» ´
Ġpro jet
up un
Ġhe art
Ġëĵ ¤
Ġback ground
ĠÎ¾ Îµ
Ġsome one
Ġnh anh
Ġse ja
Ġst ata
Ġfr ont
ãģ¨ ãģĵãĤį
ĠÂ ®
Ø² Ùĩ
Ġt i
p en
Ġne Å¾
ĠØ§ÙĦØµ ØŃ
ie urs
Ġhe m
Ġå¹ ¿
he den
Ĺà¸µ à¸
ĠÎ£ ÏħÎ½
ĠØ´ Ø±Ø§ÛĮ
ĠE ine
ãģ ²
å¹ ²
à¯Īà®ķ à®³
Â ¶
Ġhe cho
Ġà¸ªà¹Īà¸ĩà¹Ģà¸ĩà¸´à¸Ļà¸ ļà¸²à¸Ĺà¹Ħà¸Ĺà¸¢
à¦ ·à§įà¦Ł
à¸£à¸²à¸Ħ à¸²à¸
ãĤī ãģĦ
ĠØ¬ Ø§ÛĮ
Ġngh á»ĩ
à¸´à¸ Ķà¸
Ġï¼ ĳ
y st
Ġs Ã¶y
Ġw Ã¼r
ĠØ§ÙĦØ³ ÙĦ
Ġcos a
Ä±ÄŁ Ä±nÄ±
Ġtr at
ÑĥÐ»Ñı ÑĢ
Ð¿ Ð¸Ñģ
ģ à¸£à¸°à¸
ĠM ark
ãģĹãģ¦ ãģĦãģ¾ãģĻ
ŀà¸Ļà¸ ±à¸Ļà¸
Ġr umah
Ġhum an
ĠØ®Ø¯Ùħ Ø§Øª
çĥ Ń
Ġass ist
ĠØ´Ùħ Ø§Ø±Ùĩ
ĠZ o
om en
ĠØ´Ø±Ø§ÛĮ Ø·
ĠØ® Øµ
Ġencu ent
x ico
Ø± ØŃ
Ġs ampai
or u
ĠÑĢÐ°Ð· Ð»Ð¸Ñĩ
à¥ĭ à¤ķ
ç Ł
ĠO ff
ĠÎļ Î±Î¹
ÃŃcul o
ĠãĢģ ãĢĮ
iz aÃ§Ã£o
å®ī åįĵ
li wo
Ã¼n d
ĠÃ§ Ä±x
Ø² ÙĦ
ĠìĹ Ń
Ġë° Ľ
ĠÎ´Ïį Î¿
ä¹ ī
im ate
çĶ ±
åĽ½ å®¶
Ġà¦¬ à§ĩà¦¶
d zy
Ġf aci
ÙĬØ§ Ùĭ
ĠØŃ Ùħ
rÃ³ d
áº¡ y
à¹īà¸²à¸ ĩà¸
Ġadv an
Ġw all
Ð» Ð°Ð¼
Ġde cir
Ġte a
ĠÑĩ Ð¸Ñģ
Ġoff ice
Ġcel a
ä¿¡ èªī
Ġb oy
Ġpro to
ĠÚ¯Ø± ÙģØªÙĩ
ĠÙĨ Øª
íĮ Ĳ
łà¸²à¸ ŀà¸
Ġkdy Å¾
ĠÙĦ Ø¹
Ġv a
ĠÙĪ ÙĦÛĮ
Ħà¸¸à¸ ĵ
Ġh idup
á»« ng
à§Ł à§ĩ
Ġacc ount
ad y
ĠSe g
Ġj ou
Ġnh Ã¬n
Ġa ld
Ġst an
st up
Ġbel ang
å© ļ
ess e
à¤¬ à¤°
ĠØª Ú©
Ġ×ĳ ×ŀ
ĠsÃ³ lo
Ùİ Ø±
r icht
ra zione
Ġà¦ħà¦¨ à§ĩà¦ķ
Ģ â
Ġspe ak
ĠÑģÑĤ Ð¾Ð»
Ġth anh
ĠÑģÐ» ÑĥÐ¶
Ġæīĭ æľº
Ġel a
r ig
ÙĩÙħ Ø§
ãĥ© ãĤ¹
Ġd nia
ĠÙĩ ÙĦ
o Å¾
Ġwom en
Ġbel ieve
Ø± Øª
Ø§Ø¨ ÙĤ
m ann
Ġcon oc
ç İ¯
Ġcho ose
olog ÃŃa
ĠdÃ¼z en
Ġãĥ Ļ
ģà¸ ¥à¸
Ġaut hor
Ġn ive
ç« ŀ
Ġvy s
ĠØ¯Ø± ÛĮØ§
Ġeng ine
Ġse it
à±įà° ³
Ġob jet
ĠØ§ÛĮØ±Ø§ÙĨ ÛĮ
Ø¸ Ùħ
Ġv áºŃt
ĠØ±Ø¦ ÛĮØ³
ãģĵãģ¨ ãĤĴ
×¨ ×ĵ
ĠTe il
us aha
ĠØ§Ùħ Ø§Ùħ
Ġens ure
á»ķ ng
Ġho tel
Ġë¬ ´ë
Ġs zy
Ġà¤¦ à¥įà¤µ
ĠØ§Øµ ÙĦÛĮ
Ġdi ye
ĠÙħØ³ Ø¦
Ãº de
Ġst aff
ĠÎ±Ïħ ÏĦÎ¿
åĦ ¿
ÑĢ ÐµÑĤ
Ã¼ ÄŁ
ĠÙģØ¥ ÙĨ
à¥ĭ à¤¨
á» Ľi
Ġ\ /
Ġf ore
q q
Ġm áº¡nh
ĠE S
ĠÎ£ Îµ
ĠÙħ Ø¬Ùħ
pl aat
res h
Ġph á»¥
j ak
Ġw ent
eng th
ĠÙħ Ø®
Ġà¤¸ à¤¾à¤®
×Ĺ ×ĵ
ÑĥÐ· Ñĭ
Ġa ten
ro du
Ġíķ ¨
Ġf Ã¥r
ÑĢÐ° ÑģÑĤ
lic her
Ġrel ations
el as
Ġg ar
ÐĿ Ðĺ
Ġph Ã¢n
Ġnost ro
Ġph á»¥c
Ġká» ³
ĠÑĥ Ð·
ĠW elt
ĠâĢİ #
Ġo st
æĢ ģ
il ÉĻn
Ð §
Ġs ci
ra ft
Õ¸ÖĤÕ©Õµ Õ¸ÖĤÕ¶
ra it
Ġh g
à¦¤ à§ĭ
ien s
Ø§Øµ ÙĦ
ĠØ¨ ÙĬ
ĠWe b
à®¿à®¯ à®¾à®ķ
Ġto e
r al
ĠdÃ© f
ĠÐķ Ð²
Ġk Ä±s
Ø±Ùģ ÛĮ
èĭ ¹æŀľ
Ġek stra
c Ã³w
ĠÎ¼ÎŃ ÏĥÎ±
Ġqu indi
szy ch
ĠÙģ Øª
ãĥ¼ ãģ®
¸ Û
ĠØ§ÙĨ ÙĪØ§Ø¹
Ġth ay
íİ ¸
à¹ĥà¸Ĭà¹īà¸ Łà¸£à¸µ
i amo
Ġk it
ë² Ī
ĠCom o
id ence
Ġpre cio
Ð³ Ð°
Ġà®µ à®¿à®Ł
uk up
Ġme e
Øº Ø©
aar t
Ġl lam
ouvel le
è® ©
à¤Ĥ à¤§
Ġb amb
åģ ĩ
à¤ķà¥įà¤ ¸
Ġtá»¥ c
åı İ
ĠãĢ Ĺ
Ġ Úĺ
Ġprovid ed
ĠB o
ÐµÐ¼ Ð¾Ð½ÑĤ
Ã¡ ct
Ġquest ion
ĠÐ³ Ð¾ÑĤÐ¾Ð²
à± Į
×Ļ× £
ast ic
ŀ į
ë¦ ½
ÏģÎ¯ ÏĤ
Ġcustom er
ĠS em
à¶ º
is ation
Ġw ÅĤa
Ġj ours
Ġn Æ¡i
re et
à¯Īà® ¨à¯įà®¤
ĠPost Ã©
ur idad
y al
Ġdo cum
ĠwiÄĻ cej
Õ¸ ÖĢ
Ð¸Ð»Ð¸ ÑģÑĮ
Ġt al
ĠMil ano
Ġin de
à¹Īà¸² à¸Ļ
Ġ201 1
ĠØ§ÙĦ Ø§Ø¬
æĬ Ĭ
ĠØ§ÙĦØ¹ Ø±Ø§ÙĤ
ĠÑĥ Ð±
ag gi
id ente
Ġ! !
Ġyap t
Ġà°ķ à°²
ÙĪØ¯ Ø©
Ġby la
Ġdib dib
Ġesp aÃ±
Ġà®ī à®Ł
re bbe
ĠØ¢ÙħØ±ÛĮÚ© Ø§
Ġj adi
Ġex em
ĠØ§Ø±Ø§Ø¦ Ùĩ
Ġà¸Ĺà¸Ķà¸¥à¸Ńà¸ĩ à¹ĥà¸Ĭà¹īà¸Łà¸£à¸µ
Ġda i
íĺ Ħ
ç ¸
ÑĤ Ñĭ
Ã¤ re
ess er
Ġquy á»ģn
ĠÐ¿ÑĢ Ð°ÐºÑĤ
Ã© p
ĠÑģ Ð¾ÑĤ
æ¨ ¡
ber o
à¸£à¸²à¸Ħ à¸²
ÃŃ d
Ġt aÅŁ
Ġkom m
ĠÑĥ Ð¿
êµŃ ìĿ¸
Ġ×ŀ× ĺ
ãĥķ ãĤ£
Ã» t
pl ay
Ġm Ã¶
æ¤ ľ
an nya
ie ty
×ŀ× Ĳ
ka ch
Ġà¤ ĳ
ĠãĤ ±
ĠÏħ ÏĢÏĮ
ro b
Ġneed ed
Ġ×Ľ ×ĵ×Ļ
Ãª t
Ġa ch
à¹ĥà¸ Ī
Ġs an
ÐµÐ½ Ñģ
Ġà¤ľ à¤¨
ãģ§ãģĻ ãģŃ
Ġt es
Ġpersonn es
b ild
ĠØ¯Ùĩ Ø¯
ĠÑģÐ¾Ð± ÑģÑĤÐ²ÐµÐ½
Ġdzie ci
e f
Ġn ada
å¤ ľ
ĠÐ´ Ð°Ð²
æī ¹
Ġ365 æ£ĭçīĮ
Ġpr acy
Ġâĸ ł
th ough
çł ´
Ġof er
Îķ ÎĻ
Ġse ine
ÑĢÐ° Ñĩ
ĠØ§ÙĦÙħÙĪ Ø¶ÙĪØ¹
ĠØ£ Ø¯
ĠØªØº ÛĮ
ĠØ®Øµ ÙĪØµ
×¨ ×Ĺ
Ø£ Ø©
Ïģ ÎµÏħ
à¸Ńà¸ ģ
à¹ĥà¸«à¸ ¡
ĠEuro pe
ich ten
l Ã¨
áŀ¶ áŀ
Ġï¿½ï¿½ï¿½ï¿½ï¿½ ï¿½
Î» Ïİ
Ø§Ø¯ ÙĤ
ĠØ¨ Ùĥ
at ies
Ġha ber
as ing
Ġag å¹³åı°
à¹Ģà¸ ķ
Ġà¤ķà¤¿à¤¸ à¥Ģ
Ġde ter
à°Ĥà° ª
ãģ© ãģĨ
l at
Ġa ra
Ġà¤° à¤ĸ
Ġà¤ľ à¤¾à¤ı
ãĥĸ ãĥ©
Ġà® ĵ
æĬ ¤
ìĿ´ ëĿ¼
ĠS u
Ġge f
Ġc ult
Ġopt ions
ĠT ek
Ð¸Ð·Ð½ ÐµÑģ
ĠP ub
Ġr ze
Ø§ÙĤ Ø¹
Ġbir lik
Ġåı ĳ
Ġb á»Łi
i ya
Õ¸Õ ¾
ig os
à¹ģà¸¥ à¹īà¸§
ÃŃne a
ĠÚ©ÙĨ ÛĮÙħ
Łà¸¸à¸ķà¸ ļà¸Ńà¸¥
Ġd am
Ð» ÐµÐº
Â ³
æĿ ±
Ġcla im
ĠÅ¾ iv
Ġsign ific
×¢ ×Ļ×Ŀ
Ð¸ ÑĦ
æ ĵ
ah n
ab les
Ġfaz la
ĠØ§ÙĦ Ø§ÙĤ
ĠW or
ĠD el
Ġqu ite
å§ ĭ
à´ Ł
ÑĥÐ½ Ðº
Ġç Ħ
ĠØ¬ Ø§ÙĨ
Ġmember ikan
Ġà¤ħà¤ª à¤¨à¥Ģ
sel ves
Ġà¦® à¦¹
ãĤ ©
ĠØ¯ Ø§Ø®ÙĦ
ĠÐ² Ð¾ÑĤ
hal t
Ġque m
Ġseb el
Ġwh ite
ĠØ¹ Ø¨Ø±
ĠÐ· Ð°ÑĤ
Äį ek
ica zione
åºĨ æĹ¶æĹ¶å½©
à¯ĭ à®¤à¯ģ
ĠÐºÐ¾Ð½ ÑĤÑĢ
Ġf ace
Ġs itu
æľīéĻĲ åħ¬åı¸
Ġfun ction
Ġat as
ĠÙĪ Ø§ÙĨ
å°± æĺ¯
Ġsu gg
ĠØ§ÙĦÙħØª ØŃØ¯Ø©
åĬ Ł
ÙĬØ§ Ø©
ÏĦÎ¿Ïħ ÏģÎ³
ç» Ń
Ġi ki
Ġa plic
à¦¾à¦° à§ĩ
Ġm áº¹
g ara
ĠØ£ ØŃØ¯
Ïĥ Î¯
Ø±Ø¨ Ø¹
å»º è®¾
k Ã©
Ġper t
ç²¾ åĵģ
Ġ äºĮ
Ġkon uÅŁ
* *
ac ed
×© ×Ļ
Ð°Ð· Ð°
Ġb Ãłn
ĠiÃ§in de
Ġf ino
Ġme g
ĠB ij
ÐµÐ» Ð¸Ñĩ
it ing
Ġà¦ķà¦¥ à¦¾
¢à¸ §à¸
Î¿Ïħ ÏģÎ³
Ġhal f
Ġc ook
c ome
à¸Ļ à¹īà¸
en di
ĠÐ½ÐµÑģÐº Ð¾Ð»ÑĮÐºÐ¾
ĠØ£ Ø´
Ġg h
Ġd Å¯
è´ Ń
Ġh áº¿t
Ġá¼ Ģ
Ġtr á»£
Ġn enÃŃ
Ġoy un
Ġinclud es
ĠÐ°ÐºÑĤ Ð¸Ð²
1 6
Ġà¦¬ à¦¾
à¦¾à¦ «
se z
Ġï¿½ï¿½ï¿½ï¿½ï¿½ ï¿½ï¿½
Ġst aat
h u
ĠÑĤ Ð°Ð¼
ci do
Ġ×ĳ ×ĺ
Ġent ire
åĸľ æ¬¢
ĠÙĪ Ø´
Ð°Ð» Ðµ
Ġg áº§n
Ġw oll
Ġg odz
ĠØª ÙĪÙħØ§ÙĨ
à¥įà¤¯ à¥Ĥ
or ing
Ã¶ ff
ov Ã½ch
à§įà¦¬ à¦°
ãĤ¤ ãĤ¯
ÑĨÐ¸ Ð¿
Ġsoft ware
ĠÑį ÑĦÑĦ
ãĥ³ãĤ ¸
Ã¢n cia
Ġw ait
el ingen
ĠÏĩ Ïİ
Ġm ach
Ġget ir
ĠU omo
íĿ ¥
ê° Ĳ
Ð¸Ñı Ñħ
Þ ª
ĠT em
Ġbl ack
Ġí Ŀ
èª Ń
æŃ£ è§Ħ
ĠÎ» ÏĮÎ³
Ġ: )
Ġsch ne
om ing
ĠgÃ¼ ven
ĠB Ã¬nh
×Ļ×¢ ×Ķ
ĠUn ited
àµ ĭ
Ġab r
ĠÎ¼ÎµÎ³ Î¬
Ġsugg est
ĠÐ§ ÑĤÐ¾
ĠÄĳ Ã¬nh
Ġyour self
Ġkep ada
Ġme u
Ġcl ick
Ġhist ory
ĠÐ½ Ð¾Ð¼
ĠU r
ģ à¹ĩ
ĠNor ge
ê» ĺ
Ġà¤¦ à¥ĩà¤¶
Ġesc ol
Ø§Ø¹ Ø§Øª
ĠÐº Ð°Ð¼
Ġ×© ×§
à°¾à°° à°Ĥ
Ġo lar
Ã´ t
Ġencont rar
Ġà¹Ĥà¸Ľà¸£à¹Ĥà¸¡à¸ Ĭà¸±à¹Īà¸Ļ
à¸£à¸²à¸ ¢à¸
ĠÚ©ÛĮÙģ ÛĮØª
ĠC ara
war z
åĩº ä¼ļ
Ġb iáº¿n
Ġr i
Ġ à²
Ð°ÑĤ Ð¾Ð²
ĠEs ta
ĠJahr en
çļĦ ãģ«
iÄĻ dzy
Ġ3 56bet
ĠØ§ÙĦØª ÙĪ
ut en
ĠÐ¿ÐµÑĢ ÐµÐ²
hal b
à¯Ģ à®°
ĠÙĩÛĮ ÚĨ
ĠØ³ Ø±Ùħ
Ġab i
ĠÐł Ñ
ÙĩØ§ÛĮ ÛĮ
Ġà®İ à®´
Ġun os
Ġol tre
Ġtrav Ã©s
Ð¾Ðº Ð°
itt ed
ĠÑģ ÐºÐ°ÑĩÐ°ÑĤÑĮ
ĠÐ¼ Ð¾ÑĢ
Ã³ d
l endir
ĠÑı Ð·Ñĭ
ç¨ ®
ĠÎµÎ¯ ÏĩÎµ
Ġå Ĵ
à¸²à¸ ªà¸´
ĠM o
im p
à¦¾à¦° à¦£
Ġe erste
Ġmend apatkan
ĠÐ¡ Ð°Ð¼
Ġà¹Ģà¸ ¡à¸
Ø¯ Ø§Ø±Ø©
z ÃŃ
AP P
ĠA uch
Ġto m
ØŃ Ø§Ø¯
ĠpÅĻ es
il ia
ĠåĬ ł
or no
ik ut
ĠÑĤ Ðµ
Ġl áºŃp
Ġb are
ĠÕ Ģ
Ġlain nya
am m
Ġempres a
ãĥ¼ãĥ ĵ
ãĤ· ãĥ£
ĠØ¨Ùĩ ØªØ±ÛĮÙĨ
ĠÏĩ ÏģÎ®
ĠÃ¶l k
ch ar
Ð¸Ñģ Ñģ
tiv o
-- --
A Y
Ïĥ ÏĦÏĮ
Ġser ies
ĠØ§ÙĦØ´ ÙĬ
ëŀ ĳ
Ġis ti
Ġu ur
Ġya x
h m
æĦ Ľ
Ġ×¦ ×¨
ĠÑįÐº Ð¾Ð½Ð¾Ð¼
ĠÐŁ ÐµÑĤ
Ġà¤¸à¤ķ à¤¤à¥ĩ
Ġt re
Ġes a
Ġf it
ĠÛ ³Û
Ġ Õ¡Õ
ĠÚ© Ø§ÙĩØ´
Ġes sa
I O
Î¿Î½ ÏĦÎ±ÏĤ
å·¥ ç¨ĭ
Ð° ÑĨÐ¸Ñİ
ĠØ¹ Ø±Ø¶
ç§ °
åĽ½ äº§
ĠØµ ØŃ
ÐµÐ´ Ð¸Ð½
ĠÑĢ Ð¾ÑģÑģ
Ġdal le
à®¸ à¯į
ĠÑģÐ´ÐµÐ» Ð°ÑĤÑĮ
ĠA y
ÑıÑĤ ÑģÑı
Ġmai or
Ġver z
à§Ĥ à¦²
Ġà¸ªà¸ ¥à¹ĩà¸Ńà¸ķ
à±ģà°² à±ĭ
ĠW eit
ç» ľ
f ten
Ġen n
ãģŁ ãģ¡
åı Ĥ
ĠÙħØ¯ÛĮØ±ÛĮ Øª
ĠÏĢ Î¬
{ "
à±įà° Ĺ
iss ement
s I
Ġà¦¸ à¦¾à¦®
Ġme in
ç ¹
al ui
ì§ ĳ
àµ ĩ
ĠB y
æĿ ¿
Ġà°ļà±ĩà° ¯
ªà¸ ¹à¸
ĠìľĦ íķ´
ĠV ideo
Ġwer d
ĠØ¨Ø± Ø¯
Ġdo is
ty w
ĠÐºÐ¾Ð½ Ðº
Ġà®ķ à®¾à®²
ĠÑģ ÑĥÐ¼
Ġm akan
Õ¸Õ ²
à¸´à¸ ĩà¸
Ð½ ÐµÐ³Ð¾
s atz
à§ģ à¦¦à§įà¦§
ic ulas
f Ã©r
p io
Ġn atural
Ð¸Ðº Ðµ
ĠÑģÐ» Ð¾Ð²
¶ à¹Īà¸ĩà¸
ĠA M
èµ ¢
ues ta
ĠÙĦÙĦ Ø£
l icht
ĠÅ ģ
ÏĦÎ¿ Î¹
Ġà¤Ĩ à¤ľ
ĠI hnen
Ġà¤ħ à¤²
ap an
e c
Ġm ont
Ġà¦ļ à¦²
æİ §
ĠÑģÐ¼ Ð¾ÑĤÑĢ
Ġsp os
Ġcan n
ĠÑģÑĤ ÑĢ
ÏĥÏĦÎ± ÏĥÎ·
Ġsim ply
ãĤ ²
Ġin tÃ©
ass er
Ġot ras
Ġrel ated
Ġn aman
ĠAng eb
à¥įà¤¯ à¥ĩ
ÉĻn in
Ġà¤¹à¥ĭ à¤¨à¥ĩ
æĻ ¯
ĠØ§ÙĦØ¥ Ø³ÙĦØ§Ùħ
à¤°à¥įà¤ ·
Ġêµ °
j ek
ĠM in
ä½ ı
ĠØª ÙĥÙĪÙĨ
ÐµÑĢ Ðº
Ð¾Ð´ Ñĭ
çģ «
Ġmass as
ĠÃ© lect
ĠÐ½Ð°Ð¿ ÑĢÐ°Ð²
ĠÄ° s
ĠØ§ÙĦØ° ÙĬÙĨ
à¹Ĥà¸ Ķà¸
Ùĥ Ø¯
Ġå »
ãģª ãģĭãģ£ãģŁ
Ġg ÉĻl
Ġpar as
Ġhe el
Ġl and
Ø´ÙĨ Ø¨Ùĩ
Ġpl ann
åŃ ĺ
Ġw et
ĠÙĬ Ø³
Î¯Î½ Î·
Ġde be
ĠÏĮ Î¼ÏīÏĤ
Ġide as
ah il
Ġsam en
Ġattiv itÃł
Ġtr iá»ĩu
f te
ÙĦÙĬ ÙĤØ§Øª
ĠÙĪ ÙĥØ§ÙĨ
Ġn Ã¦r
ĠBar celona
åĪ© çĶ¨
ce p
Ġa unque
Ġbeau coup
Ø¶ Ø§ÛĮ
ĠÐ±ÑĥÐ´ ÑĥÑĤ
åĨ į
ad ÉĻ
ĠÐ¾ÑĤÐ½Ð¾ ÑĪ
Ġà®¨ à®¿à®±
ind eki
Ġdes s
ÏģÎ¿ ÏįÎ½
ĠæĪĳ ä»¬
Ġar asÄ±nda
ãĥ³ãĥ Ģ
ÙĤÛĮ ÙĤ
Â ¾
ĠV y
Ġdiff ic
Ġ erst
ĠØªØºÛĮ ÛĮØ±
ade ce
Õ¥Õ ¿
Ð» ÐµÑĤ
Ġæ ĥ
Ø§ÙĦ Ø¨
Ġp ia
à¦ķ à§įà¦°
Ġs Ã¡ch
ĠÐºÑĢ ÐµÐ´
ĠC ity
ĠÑģ Ð¸Ð»
ç© ¶
en ci
ient ras
Ġan te
ĠÙĬ Ø´
Ġà¦¯ à¦¾à§Ł
Ġmo i
ĠP el
Ġis ÉĻ
Ġk 8
ib ility
Ġag è§Ĩè®¯
Ġh iÃ§
ä¸Ģ ç¯ĩ
åį ¡
ĠãĤ Ħ
Ġtu o
Ġany thing
Ġfoll ando
nik i
ĠØ§Ø¬ØªÙħØ§Ø¹ ÛĮ
ĠÑĥ Ð¼
ĠH ere
Ġc oup
ĠP DF
ç« ł
Â °
ĠØ¢Ø² Ùħ
Ġse Ã±
ĠGe b
Ġà®ļ à®®
ĠpÅĻ e
Ġãĥ Ŀ
ê² ł
ĠÎ¼ Î¹Îº
ĠÎķÎ»Î»Î¬ Î´Î±
ÛĮÙħ ÛĮ
ĠD engan
ĠâĢ ļ
Ġter m
à®ķà¯įà®ķ à¯ģ
Ġann Ã©e
ĠÐļ ÑĥÐ¿Ð¸ÑĤÑĮ
Ġet c
ĠÙĨ ÙģØ±
ĠØ¨Ø±Ø® ÛĮ
ĠS outh
é ¥
ìĸ ¸
ĠÎ³ Îµ
ĠÄį l
Ø§ÙĦ Ùĥ
Ġs amo
¤ à¸
à®¤ à®¿
Ġhad de
Ġde di
Ðº Ð°Ð½
ud as
Ïĥ Î¯Î±ÏĤ
Ð¸Ð» Ð¾
ÙĬØ± Ø§ÙĨ
Ïĩ Î·
à¦¿à¦ Ń
Ġbr and
ĠgÃ¶r Ã¼n
Ġv Ã´
Î¸ Ïħ
Ġvol ta
ĠnÄĽ k
ÐµÑĢ Ñģ
Î¾ Î·ÏĤ
Ġs un
Å¡ enÃŃ
Ġevery one
lig e
Îº ÏģÎ±
be eld
Ġm ill
ªà¸ Ķà¸
ÙĦ ÙĤØ©
ĠÙħØ´ Ø®Øµ
Ġaz ien
æĴŃ æĶ¾
Ġn un
Ġzo als
ĠÐ´Ðµ ÑıÑĤÐµÐ»ÑĮ
Ġque lla
Ġswo je
ĠUnter nehmen
Ġv iáº¿t
ĠÛ² Û°
Ġse hingga
ØªÙħ Ø¹
à¦¬ à¦¾à¦¦
g leich
Ġpag g
Ġn á»¯a
Ġfav or
ÑĤ Ð¾Ð²
ĠÐ²Ñģ ÐµÐ³Ð´Ð°
å£ °
Ð¸Ð» Ð°ÑģÑĮ
Ġber k
á ī
ÑĪ Ð¸Ñħ
d ÄĽ
ÙħÙĦ Ùĩ
Ġgior no
Ġd á»ħ
Ġd ru
ze ug
Ð¾Ð½ Ð¾Ð²
ane iro
è´ £
Ġrequ est
Ġà®µà¯ĩà®£à¯įà®Ł à¯ģà®®à¯į
Ġperio d
ĠÙģ Ø±Ø¯
Îķ ÎĽ
Ġà¤¸à¤° à¤ķà¤¾à¤°
Ġog gi
ªà¸ ¥à¹ĩà¸Ńà¸ķ
ĠP are
Ġwrit ing
Ġberb agai
Ġknow ledge
à±įà°° à±Ģ
ĠØ§ÙĦØ¹ ÙĦ
Ġdi á»ĩn
Ð¾ ÑıÑī
Ġcon oci
h ad
ol z
Ġev ents
ĠÐľ Ð¸Ð½
c ur
1 9
E K
ĠÑģÐ¿Ðµ ÑĨÐ¸
à¥įà¤¯ à¥ĭà¤Ĥ
Ġr ych
à±ĩ à°°
à®° à¯ģà®®à¯į
Ġins an
Ġth ird
ãģĺ ãĤĥ
à¦ ı
à¦ ¯
ant u
Ġ( '
ĠØ´ ÛĮ
Ġnuev a
éĶ Ģ
Ġconc ern
Ġpers ona
Ġà´ ķ
à¯ģà® ªà¯į
Î® Î½
Ġh r
Ġj og
Ġv rij
d Äħ
åĶ ®
Ú¯ Ø±Ø¯
ĠÑĤ ÑĥÑĢ
ãģĵãģ¨ ãģ¯
ÙĨ Ø¹
ig a
å¹ ¶
ĠÚ¯Ø° Ø´ØªÙĩ
ãģªãģĮ ãĤī
Ġp un
ĠM aar
ĠÏĥÏħ Î¼Î²
Ġapplic ation
ÙĪÛĮ Ø³
Ġà®ª à®°
ÏĨ Ïħ
à±Ģ à°
ëĭ¤ ëĬĶ
ĠØ§Ùħ Ú©Ø§ÙĨ
Ġch á»©ng
f aat
Ġpop ular
ê³ ³
Ġà°ķ à°¾à°°
ĠØ³ Ø§ÛĮ
2 4
Ġh ombre
Ġcomp r
Ġ @
Ġrep resent
ĠØ² ÙĬ
Ġdi k
åĩ ł
ĠÐ¿ÑĢÐµÐ´ Ð¿ÑĢ
ĠBel ed
ut styr
pl es
ar Ä±m
as es
à¤¯ à¥ĭà¤Ĺ
Ð¸Ð½ Ð¾Ð²
ĠØµ Ø¯
Ð°Ð± Ð¾Ñĩ
ÎĹ ÎĿ
pp er
åĳ ½
Ġproble ms
Î¸Îµ ÏĥÎ·
Ġãĥ ģ
Ġg Ã¢y
t te
ait u
ĠÂ ¬
Ġå½©ç¥ŀ äºīéľ¸
ist es
Ġgior ni
ĠÙ¾ Ø²Ø´
Ġà®ħà®¤ à®¿à®ķ
Î ¦
ĠP e
or ang
ÙĪ ÙĬØ±
ĠC ome
Ġê° Ħ
×Ļ×ķ×ª ×¨
ëª ©
ÙĪ ÙĬÙĦ
h bet
b ile
Ġà®ļà¯Ĭ à®²à¯įà®²
âĢ¦âĢ¦ âĢ¦âĢ¦
iyor um
éķ ĩ
Ġ ig
Ġãĥ Ł
Û ±Û
ĠÐ¿ÑĢÐ¾ÑĦ ÐµÑģÑģ
Å ģ
×ķ×ľ ×Ļ×Ŀ
ĠÕ ¤
ìĺ ¨
Ġgratu it
ka z
o ye
ĠV an
Ġvá» ±c
Ġadd ed
j Ã¸
Ġa ÄŁ
à®¤ à¯Ī
ĠÙĪÙĤ Ø§ÙĦ
Ġso on
Ġnh áºŃp
Ġsc ar
Ġz or
ĠJah re
à®¿à®ķ à¯į
ĠØ¹ÙĦÙĬ ÙĩØ§
Ø±ÛĮ ÙĤ
à®¾à®¤ à¯ģ
ĠÑģ Ð¾Ð´ÐµÑĢÐ¶
Ġs y
ä¹ °
Ġap resent
Ã´ m
è¯ Ń
Ġdr uh
Ä±n daki
az ing
à¤°à¥įà¤ Ł
Ġalle en
Ġor a
00 0
Ġé ĵ
ĠÙĨ Ø³Ø¨
Ġ01 68
Î¹ Î²
ĠÐ± ÐµÐ»
Ġ à¸Ļà¸
Ġà¦Ń à¦¾à¦°
le x
Ġpe w
Ġzw ischen
Ġw ays
te gr
Ľà¸£à¸°à¹Ģà¸ Ĺà¸
at k
ĠØ³ Ùħ
ê¸ Ģ
Ġà¤¸ à¥įà¤Ł
Ġm iss
an an
z ahl
«à¸£à¸ ·à¸Ń
al ang
j el
Ġà¦¹ à¦¾à¦¸
Ġg ur
at Ã¼r
ĠÙģØ§Ø± Ø³ÛĮ
Ġk Ã¶
u ppo
ê· ¼
Ġben ar
Ġe llos
Îµ Î´
Ġfr anÃ§ais
ĠÃ¶nem li
Ġ×©×ľ ×Ĳ
ÐµÐ½ Ð½Ð°Ñı
Ġpar ty
leÅŁ tir
Ùħ Ø¨Ø±
g etto
Ġà¤ ĵ
à±ģà° ®
Ġà¸ ĸ
ãĤĬ ãģ®
ast ÄĻp
ãĥ¡ ãĥ³ãĥĪ
Ġnie z
Ġfo ot
Ġsystem s
ci miento
ĠÎĳ ÏĢÏĮ
at ic
ĠSch ool
Ġpen s
å¤ į
ÏĢ Î¹Ïĥ
Ð¸ÑĨ Ñĭ
Ġãĥ ī
Ġb an
ub uh
nik Ã³w
ĠÎ¹ ÏĥÏĦÎ¿
Ġcommun ic
Ġb a
Ð°Ð¹ Ð´
Ġ×Ĺ ×Ļ
Ð½Ð°Ðº Ð¾Ð¼
ĠÑģÐº Ð¾ÑĢ
Û ²
ĠÙĪ Ø¯
ĠÛĮ Ø§Ø¯
ĠÐ· Ð°Ð³
Ä© nh
ĠÕ º
Ġà¤¸à¤® à¤¯
ĠØ§Ø´ Ø§Ø±Ùĩ
ÉĻ ll
Ġh ost
Ġà°¸ à°¿à°¨
ÑĮ Ðµ
×Ļ×ª ×Ķ
Ġin iti
Ġfl oor
Ġn ang
ari x
Ö ¹
ÑģÐº Ð¾Ðµ
ÙĤÙĬ ÙĤØ©
ĠdeÄŁ iÅŁ
ĠÙĪØ§ÙĤ Ø¹
Ø¸ Ø§Ùħ
Ġ×ĵ ×ĳ×¨
íĽĦ ê¸°
ĠN áº¿u
ĠÎºÎ± Î½
áº£ y
ĠiÃ§ er
Ġà¤µà¤¾à¤² à¥ĩ
æĹł çłģ
Ġv ic
Ġph one
k ommen
l au
é Ĭ
Ú©ÙĨ ÙĨØ¯
Ġk ab
Õ¸ ÖĢÕ
äº ¿
ĠÐ¿ ÑĥÑĤ
ë©´ ìĦľ
Ġà¹Ģà¸ ĩà¸´à¸Ļà¸
Ġë Ī
ĠÎºÎ±Î¸ ÏİÏĤ
ĠT est
mit tel
Ġ0168 27
Ø¯Ø§ ÙĪÙĦ
ĠÑģÑĩ Ð¸ÑĤ
Ġold u
ç¨ ¿
Ġng uyÃªn
Ġch iáº¿n
×¤ ×Ļ×Ŀ
«à¸Ļ à¹īà¸²à¸
ĠDies e
Ħà¸ ¡
Ġf all
Ð¸ÑĩÐµÑģÐº Ð°Ñı
v gr
em ble
ãĥ¥ ãĥ¼
Ä±r Ä±m
á» ħn
Ġl iv
Ñħ ÑĢÐ°Ð½
à¥ĭà¤Ĥ à¤¨à¥ĩ
Ġê²½ ìļ°
led i
à¤ ģ
g al
à¤¾à¤Ĥ à¤Ĺ
Ġrep r
Ġè ½
×ķ×¨ ×Ļ
in ar
Ġà¦ķà¦° à¦¾à¦°
à¤¸ à¥įà¤¥
Õ¡Õ ®
å¢ ĥ
or z
ŀà¸ ·à¹Īà¸Ńà¸
Ġve h
ang ka
ĠS ta
à§ĩà¦ ª
ĠÐ²Ð½ Ð¸Ð¼
ĠÐ²Ñĭ Ð±Ð¾ÑĢ
Ġvá» ĩ
èī¯ ãģĦ
Ġf ul
Ð¾Ð³ Ð¾Ð²Ð¾ÑĢ
à¤ķ à¤¿
Ù¾ ÛĮ
Ġu omo
le gen
à°¡ à±įà°¡
Ġfaci l
ĠM á»Ļt
ĠF otos
Ġpod em
it es
ĠØ¬ Ø²
Ġà§¦ à§
Ġal most
ĠÎļ Ïħ
Ġk iá»ĩn
Õ ¤
Ġ î
ĠÐ² Ð°Ð¶
Ġdon na
ct eur
æľ ¨
äºº æ°ĳ
Ġp aper
Ġm ungkin
Ġà®¤ à®©
Ø¯ÙĬ Ø«
Ġà® ¸
Ġnew s
ĠÑģ ÑĥÑīÐµÑģÑĤÐ²
ÙĩâĢĮ ÙĩØ§
Î®Î¼Îµ ÏģÎ±
×ĳ×¨ ×Ķ
ĠØ§ÙĦØ³Ø¹ÙĪØ¯ ÙĬØ©
ìķĦê°Ģ ìĶ¨
å° ¼
Ġà¸ ķà¸
ied y
on den
Ġl ung
z ia
ĠÐ¿ Ð¾Ð¶
Ø±ÙĬ ÙĤØ©
×ĺ ×Ļ
ÙĪØ¯ Ùĩ
Ġag e
Ġà°µ à°¾à°°
ĠÄį as
Î¯Î½ ÎµÏĦÎ±Î¹
Ø§Øª Ùĩ
Ġà°ļà±Ĩ à°ªà±įà°ª
Ġro ad
Ġ×ľ×Ĳ ×Ĺ×¨
ĠÄĳ Æ°a
ĠÙĬ Ùı
Ġ×ĳ ×Ļ
Ġpart icol
Ġhor as
Ġpos ition
it en
Ø¬ Ø§
Ġdi ÄŁer
ĠÐ° Ð¿
à±ĭ à°ľ
Ġà¦¨à¦¿ à¦°à§įà¦¬
ĠÎ» Î¯
æĶ¿ åºľ
ĠÐ¸ Ð´
ĠdÃ© m
Ġdu y
×Ļ×ŀ ×Ķ
Ġcre ated
Ð¸Ð¼ Ð¾ÑģÑĤÐ¸
Ġà¦Ĩà¦® à¦¾à¦¦à§ĩà¦°
ĠÎ¼ Î·Î½
ĠÏĥ Îº
Ð°Ð¶Ð´ Ð°Ð½
Ġcal idad
ĠØ¯Ø§Ø± Ø§ÛĮ
ĠÐ½ ÐµÐ²
ë¡ ¯
Ġt iÃªn
id Ã©
à®µ à¯ģ
ÏĩÎµ Î¯Î±
ĠÐ¿ÑĢÐµÐ´ Ð»Ð¾Ð¶
Ġqual quer
Ġcli ents
is en
im bang
Ġà°® à±Ĭ
Ġw atch
Ġà¤¬à¤¹ à¥ģà¤¤
Ġol mak
ĠÙĪØ§ÙĦ Ø¥
Ġà°° à±Ĩ
ģà¸²à¸£ à¹Ģà¸
amb io
ĠM inh
ÛĮØ´ Ùĩ
ĠÏĮ ÏĦÎ±Î½
Ġd raw
Ġs Ä©
ĠÐºÐ¾ÑĤÐ¾ÑĢ Ð°Ñı
à¤¨ à¥ĭà¤Ĥ
ĠÐł Ð¤
×ķ×ľ ×Ļ
auss ures
Ġãģ Ķ
Ġt Ã©
own ik
ĠØ§ÙģØ± Ø§Ø¯
an ol
Ġposs ibile
d em
çħ §
à¤µ à¤¾à¤°
Ġtá» ·
Ø³ Ùĥ
x im
Ġë¬ ¼
Ïģ ÏīÎ½
ê² °
à®¾à®± à¯įà®±
Ùħ ÙĬÙĦ
ĠD aar
ĠÙĤ Ø§Ø¨ÙĦ
Ġd ate
Ġc rit
ĠÎºÎ¬ ÏĢÎ¿
é Ł³
ĠÄĳá» ©
Ġdies es
Ġà¦¹ à¦ļ
ĵ °
Ġh y
Ġg ames
Ġs elf
ÏĢÎ· ÏģÎµ
Ð¾Ð± ÑĢÐ°Ð·
Ġ×ķ ×ł
ul ation
íĻ ©
ĠØ§Ø «
Ġgel en
è¡ ĵ
Ùģ Ùĩ
äºº ãģ®
ĠÑģ ÐµÐ³Ð¾Ð´Ð½Ñı
ĠÐ¼ Ð¼
æ ¿
èģ ŀ
ÉĻl um
Ð°ÑĤ Ðµ
ãģĦ ãģĨ
Ġ×¢ ×ķ×ĵ
ãģ¨ ãĤĤ
Ð°ÑĤ ÐµÐ»ÐµÐ¹
Ġdi á»ħn
Ġdi g
p rav
ĠØ¢Ø² Ø§Ø¯
ÅŁ Ä±
ĠÐ² Ð¾Ñģ
ĠN ational
ing ga
Ïĥ ÎºÎµ
ìķ ł
Ġg lo
·à¹Ī à¸Ńà¸ĩ
Ġz ou
Ġdel iver
Ø§Ø¯ ÙĬØ©
à¤µ à¤¾
ach ing
Ġy aitu
ĠÙħ Ø§Ø´
ĠD ette
Ġà¦ªà§įà¦° à¦§à¦¾à¦¨
ĠÎµ Î³
Ġ×ª ×§
Ġb Ã³ng
ÐµÐº ÑģÑĤ
Ġsebel um
Ġl Ã©
Ġà¦ªà¦° à¦¿à¦¬
æ¹ ĸ
Ġà¤²à¥ĭà¤Ĺ à¥ĭà¤Ĥ
am t
ë ¨
s on
Ġì¶ľìŀ¥ ìĥµ
ĠÐŁÑĢ ÐµÐ´
h old
ĠØ¨Ø§ÙĨ Ú©
ĠÂ ¨
ĠÙĪÙĩ ÙĬ
Ġà®ī à®£
Ġs istema
ĠÐ´ÑĢÑĥÐ³ Ð¸Ñħ
ĠÎĶÎ· Î¼Î¿
à®¿à®¯ à¯ģà®®à¯į
Ġ/ /
Ġ×ľ×Ķ ×Ļ×ķ×ª
unt os
ĠíĨ ł
Ġä¸ ľ
nym i
Ġb á»ı
ĠØ´ Ú©
Ġm or
ĠÙģØ± Ùħ
ãĥ© ãĥ¼
ul ig
Ġber eits
ĠØ§ÙĦ ÙĪØ²
ar ning
è Ĺ
Ĺà¸ ±à¹īà¸ĩà¸
ĠÐºÐ¾ÑĤÐ¾ÑĢ ÑĭÑħ
Ø¬ ÙĨ
Ġch ung
Ġt Æ°á»£ng
ĠÐ¿Ð¾Ð´ Ð´ÐµÑĢÐ¶
×ķ×¨ ×ª
à§ĭ à¦§
³ à¸Ļà¸
Ġh in
à±ĭ à°Ĺ
Ġt w
Î¶ Î¯
æľ ª
ĠÎ³ Î½Ïī
Ġd Ä±ÅŁ
Ġà¦Ĩ à¦ľ
ĠÚ©Ùħ Ú©
ĠÎ± ÏĨ
Ġà¦ĩ à¦ī
ici al
f Ã¸r
å¥½ çļĦ
è¾ ¹
Î³ Î·
Ġman ufact
ver t
os p
à¦°à§įà¦ £
ä¸ĸ çķĮ
y ong
ÉĻd ÉĻn
è²¸ æ¬¾
çµ Ĥ
Ġkh iáº¿n
à¸Ńà¸¢à¹Īà¸²à¸ ĩà¸
c os
Ġv ille
em mes
à§ĭ à¦¸
Ġstr on
Ġà¤¤à¤° à¤¹
Ġa tiv
ĠprÃ© c
ĠdÃ© velopp
Ġrec ens
Ġby lo
ãģª ãģ®ãģ§
Ġad il
à®¾à®¯ à¯į
d ÄĽl
à® ŀà¯įà®ļ
Ġp ed
ĠV Äĥn
à¯ģà®ķà¯įà®ķ à¯ģà®®à¯į
Ġv ind
Ġvl ast
ĠNh á»¯ng
Ġay n
Īà¸£à¸´à¸ ĩ
à¥ģ à¤¸
Ġãĥ Ĩ
ue il
ãĥ³ãĤ ·
Ġpr Ã¡v
Ġà¨ ¦
Ġà®µà®¾à® ´
à¦¤ à§įà¦°
à¥ĭ à¤°
Ġà®¨ à®¾à®©à¯į
ĠR io
à§įà¦¯ à¦®
Ã¡v Ã¡
om p
Ġwy p
Ġnaw et
Ã³r io
ĠCom ment
en h
ĠrÃ© alis
L CJ
ag ens
j m
ÅĽ wiet
ĠP rze
ĠP ÅĻ
Ġwy b
ĠÄį i
Ġne b
Ġk aÅ¾d
uÄŁ u
ĠáĥĽáĥĺáĥ¡ áĥĺ
áĥĲáĥ¨ áĥķ
áĥĺáĥ «áĥļ
áĥĲáĥ Ķ
áĥĶáĥĳ áĥĶáĥļáĥĺ
áĥ§ áĥķ
Ġáĥł áĥĲáĥª
áĥĺáĥ£áĥł áĥĺ
Ġáĥ¨ áĥĶáĥľ
áĥ£áĥ ĵ
Ġáĥ¡áĥĲáĥ® áĥĶáĥļ
áĥĲáĥł áĥĶ
áĥĶáĥ¡ áĥĺ
áĥĲáĥ® áĥļ
áĥĲáĥł áĥĺáĥ¡
ĠáĥĽ áĥĿáĥľ
ĠáĥĶáĥłáĥĹ áĥĺ
Ġáĥŀ áĥĺáĥł
áĥĺáĥľ áĥĺáĥ¡áĥ¢
áĥĲáĥ¥ áĥ¢
áĥĲáĥ §
áĥĽ áĥĺáĥ¡
ĠáĥĴ áĥĲ
áĥĲáĥª áĥĺáĥĲ
Ġáĥ¥ áĥĲáĥłáĥĹ
áĥĺáĥ£áĥ ļáĥĺ
Ġáĥ¥ áĥĲáĥļ
áĥĶáĥ ¤
áĥĲáĥķ áĥĺ
áĥĲáĥ ©
ĠáĥĴ áĥĲáĥĺ
Ġáĥķ áĥĶáĥł
Ġáĥŀáĥĺáĥłáĥ ķ
áĥĲáĥª áĥĺáĥĺáĥ¡
áĥľ áĥĲ
Ġáĥ¡áĥĲáĥ ĳ
áĥľ áĥĿáĥĳ
áĥĲáĥĿ áĥĳ
ĠáĥĽ áĥĵ
áĥľ áĥĶáĥļ
© áĥĶáĥķ
ĠáĥĴ áĥĲáĥķ
Ġáĥłáĥ £áĥ¡
áĥĿáĥłáĥ ¢
Ġáĥŀ áĥĿáĥļ
ĠáĥĲáĥĵáĥĲáĥĽ áĥĺáĥĲáĥľ
áĥĿáĥ ĸ
Ġáĥ¥ áĥķáĥĶáĥ§
áĥľ áĥĶáĥĳáĥĲ
áĥ¡ áĥ¢
áĥĿáĥļ áĥĿ
áĥļ áĥĺ
áĥ¡ áĥĲáĥ®
ĠáĥĹ áĥĳ
áĥ£áĥ ĳ
áĥĶáĥĳ áĥĸáĥĶ
áĥ® áĥĽ
áĥª áĥĲ
Ġáĥ¡ áĥ¬
áĥĲáĥ® áĥĶáĥĳ
Ġáĥ¬ áĥĺáĥľ
ĠáĥĶ áĥĻ
ĠáĥĽ áĥĲáĥľ
ĠáĥĲáĥł áĥĲ
ĠáĥĲáĥłáĥ ¡
Ġreg ard
ĠÙ¾Ø± Ø³
ĠÙĨÙĤ Ø´
ç± ³
Ġr ate
ĠØ§ÛĮÙĨ ØªØ±
ĠÙ¾Ø§ÛĮ Ø§ÙĨ
Ġimp act
å®ī åħ¨
ĠÐ´ Ð¾ÑģÑĤÐ°Ð²
ÙĤ Ø§ÙĦ
ĠÑģÐ°Ð¹ÑĤ Ðµ
Ð» Ð¸Ð½
ĠÑĦÐ¾ÑĤ Ð¾
Ġ Ïİ
ĠÎ¿ Î¼Î¬
ĠÙĩÙħ Ø§ÙĨ
Ð½Ð°Ðº Ð¾
ĠØ¯Ø± ØµØ¯
ien ce
ÐºÐ¸ Ñħ
áĥĲáĥļ áĥ£áĥł
Ġmed io
ĠØ§ ÙĤØ¯
Ð ¦
æĬĢ æľ¯
Ùĩ ÙĲ
Ġè ¾
Ġtem pat
áĥĲáĥłáĥĹ áĥļ
Ġsec ondo
ĠÙĨØ³Ø¨ Øª
ï¼ ķ
ãĥķ ãĥĪ
ĠØ¬ ÙĪ
ÑĥÐ´ Ð°
ãĤ¤ ãĥ³ãĥĪ
ĠÐ´ÐµÑĤ ÐµÐ¹
Ġtil b
Ø¨ ÛĮÙĨ
ĠÎ£ Î¥
áĥ®áĥĿáĥķ áĥł
ë¥ ĺ
Ġlike ly
åħ ´
Ġl Ã²ng
Î´ Î±ÏĤ
ĠãĤ °
ĠÎĳ ÏĢ
Ġg ente
Ġdi per
ĠãĢĳãĢĲ ï¼
ä» ½
à¹Īà¸²à¸ ¢à¸
Ġbo x
ag i
Ġinter es
Î³Î³ ÎµÎ»
Ġè ª
Ġ222 70
Ġdetail s
· °
ëª¨ íħĶ
Ġsignific ant
Ġdis e
Ġf iyat
áĥĲáĥļáĥĺ áĥĲáĥľ
Ġla at
Ġlá» £i
ĠÐ¾Ð±ÐµÑģÐ¿ ÐµÑĩ
ÏĦ ÎµÎ¹
ãĤģ ãĤĭ
ĠæĹ ¶
ĠéĤ £
Ġh owever
Ø² ÛĮÙĨÙĩ
à¸Ńà¸ Ķ
Ġk as
ĠÐ²Ðº Ð»ÑİÑĩ
Ãº m
ĠØª ÙĦÙĥ
Ġaut om
ĠC Ã³
Ø§ÙĦ ØŃ
Ġnghiá»ĩ m
Ġdil akukan
ãģĤ ãģ£ãģŁ
Ð°Ð» Ð¾ÑģÑĮ
ÐµÑĢ Ñħ
Ø±ÙĬ Ùħ
Ġpor t
Ġk im
Ġì¶ ©
Ġest as
Ġle arning
ĠFr om
Î¾ ÎµÎ¹
Ġk iáº¿n
ti f
ĠØ´ ÛĮØ±
ĠØ§ ÙĬ
ĠÐ½ Ð°Ð²
Ġrag az
Ġread y
ak s
Ġ×ĳ ×ľ
Ã¥ l
ĠÎ½ Îµ
Î´ ÎµÎ¹
ik si
ĠØ£ Ø®Ø±Ùī
Ġà°® à°¨
Ġà®ķ à®Łà¯įà®Ł
ÛĮÚ© ÛĮ
Ïĥ Î¿ÏħÎ¼Îµ
em p
Ġc m
ĠÎ² Î±
Ġà®Ĩ à®ķ
ãģ§ ãģ®
ning er
Ġindivid ual
ĠNor th
Ġas soci
ĠÃ§ ocuk
ĠØªÙĨ ÙĩØ§
ĠB uch
ĠÐĶ Ð¶
ĠdÃ© b
ãĥĨ ãĥ«
Ġà¸ŀ à¸Ļà¸
ĠÏĦ ÏģÏĮ
å¤ĩ çĶ¨
at ivo
ĠÐ²Ñģ ÐµÐ¼
Ġho a
Ġfin al
Ġà¤¬ à¤¤
ï¼ Ī
ĠìĬ ¬
Ġfor ward
main an
ĠØªØ¹Ø¯ Ø§Ø¯
ĠÖ ²
Ġrecher che
Ġprofess ionn
ĠÐľ Ð°ÑĢ
ĠØ´ Ø®Øµ
Ġè¦ ģ
Ġt ar
Ġè ¥¿
Â «
Ġiss ue
Ġbl ij
Ġsec urity
U E
Ġg Ã¼zel
ĠÐ´ ÐµÑĢ
am bre
à°° à±įâĢĮ
ĠÐ¼ Ð¾Ð¼
Ġc Äĥn
ĠíĶ ¼
Z H
ģà¸ ±à¸Ļà¸
Ġà°® à°¾à°°
Ġç Ĵ
Ø§Ùģ ÛĮ
Ġà¦ı à¦ĸà¦¨
il o
áĥĺáĥ ®
ĠÃ¶ r
ãĤī ãĤĮ
ç§ ģ
ĠØ§ÙĨ Ú¯
Ġson u
m ÉĻ
Ġu cz
Ġcons um
Ġm inha
ĠÙĪØ§ÙĦ ØŃ
Ġp end
Īà¸±à¸ Ķà¸
g as
Ġç ģ
Ġc ukup
ĠÄĳá» §
×§ ×¨
Ġgi Ã¡o
Ġs icher
Ġhaz Ä±r
Ġdef in
Ã¼n de
Ġda bei
z w
ci l
ê² ĥ
Ùİ Ø¨
Ġqu and
ĠØ¢ Ø³ÛĮ
ip ment
iye v
×¤ ×Ķ
Ġà¹Ģà¸ Ħà¸£à¸Ķà¸´à¸ķ
ãģ¾ ãĤĬ
ĠÐ¿ÑĢ ÐµÐ¿
all a
ĠÛ ¶
g ent
ĠáĥĽ áĥĲáĥĺ
ĠáĥĽáĥĹ áĥĲáĥķ
Ø§ÙĦ Ùī
Ġsa fe
Ġsim ilar
Ø³ÙĦ Ø³ÙĦ
ĠØ§Ø± ØªØ¨
åĢ ¤
ĠE L
ĠÑĦ Ð¸Ð½
Ġt inh
ikt ig
Ġe ben
Ġà¦¸ à§įà¦¥
ĠN gh
Ġtak en
ĠÛ ¹Û
ĠP rzy
il ai
à±ĩà° Ł
åĨ ł
æķĻ èĤ²
ĠØ§Ø±ØªØ¨ Ø§Ø·
Ġqu ale
Ġins p
à¸£à¸ ¹
or en
or f
Ġ×ķ ×Ĺ
æ® µ
Ġà¦¦ à¦²
ľà¸¹ à¹ī
olog i
Ġder ni
ĠãĢĤ ãĢĤ
Ã¹ a
en cias
Ġbu kan
ĠåĲ Į
Ð¾ÑĢ Ð¸Ñı
ĠÎ±Î½ ÏĦÎ¯
Ġnov o
and er
ĠIn i
ĠÙħÙĨØ· ÙĤÙĩ
Ġ <
m b
ĠÙħÙĨ ÙĩØ§
Ġcos as
ĠÑĢÑĥÐ± Ð»ÐµÐ¹
Ġsp o
ª à¸´à¸
à°¿à° ²à±ĭ
Ġà¤¦ à¤¿à¤²
ãģ£ãģ¦ ãĤĤ
Ġs endo
ãģ» ãģ©
Ġ3 9
Ġchang es
m l
ĠÄĮ esk
ä½¿ çĶ¨
Ġh lav
Â ¢
Ä Į
Ġol acak
Î¯Î¶ ÎµÎ¹
pp e
Ñĳ Ð½
é¢ ¨
Ġfinan cial
ë³´ ìŀ¥
ong an
éĮ ²
f on
Ġ×Ļ ×¦
ĠØ§Ø® Ø¨Ø§Ø±
Ġ×ķ ×ª
Ġus ers
un cios
à¦Ń à¦¾à¦¬à§ĩ
ra j
Äį nÄĽ
Ġcon ta
Ġrece ive
ĠH ier
Ġà¦¸ à§ģ
é¡ ŀ
ĠÏĩÏģÏĮ Î½Î¹Î±
me z
Ġby ÅĤ
ĠIn c
Ġ×ĳ×ŀ× §
ĠÄĳ Ã¡
Ġà¤® à¥Į
aÅĤ y
Ġesta ble
Ġ": {"
à¤° à¤£
ĠÑĢÐ°Ñģ ÑģÐº
ĠÎ´ ÏħÎ½Î±
à§Ģ à¦¦à§ĩà¦°
c aya
ĠÃ ¦
Ġà¦Ń à¦¾à¦²
lad Ä±
Ġcon n
Ġc ambi
æ ½
Ġæ ı
ĠN uev
ĠX xx
æĹ© é¤Ĳ
ĠØ² Ø¨Ø§ÙĨ
im entos
al q
Ġé Ĺ
Ġb ank
Ġg ang
Ð¾Ð³Ð» Ð°Ñģ
ìĽ Į
Ã¤t z
Ġà°ħ à°¨à±įà°¨
© ëĭĪëĭ¤
Ġáĥ¨áĥĶáĥ¡ áĥĲáĥ®áĥĶáĥĳ
Ġo il
æľ Ľ
à°¤ à°¿
áĥĿáĥļ áĥĿáĥĵ
ĠS ol
Ġj ro
jem pl
aÅŁ tÄ±r
Î Ĵ
Ġíķĺ ëĬĶ
à´ ®
ĠĈ ć
Î¼Î¹ Î¿ÏħÏģÎ³
Ġk Ã½
à°¿à°Ĥà°ļ à°¿
Ïħ Ïĩ
ĠT P
Îº Î¿Ïį
u ai
Ġesta bl
Ġst ruct
Ġplus ieurs
de j
Ġthrough out
Ð¾Ð»Ð½ Ð¸ÑĤÐµÐ»ÑĮ
à¯ģà®³à¯įà®³ à®¤à¯ģ
ĠÄĳ a
ĠÎ¬ Î»Î»
O U
ãĥ¼ãĥ Ĩ
×ķ×¦ ×Ķ
ç Ł³
èŃ ·
u ck
Ø¶ Ø§ÙģØ©
à®¿à®² à¯ģà®®à¯į
Ġl etz
Ġte xt
Ġtá»« ng
à±ĭ à°¯
Ġsz czeg
ĠA ber
ķ à¹Īà¸²à¸
it ions
il ib
Ð¾Ñĩ ÐºÐ¸
Øº Ùħ
cto res
ç»ı æµİ
ŀ à¸´à¸
ÎµÎ¹ ÏĦÎ¿ÏħÏģÎ³
w ia
ëĭ ¬
ëĵ¤ ìĿĺ
ĠÕ £
· à¹īà¸Ń
Ġb Ã©
Ġtr ze
ĠØ¯ ÙĦÛĮÙĦ
à§Ģ à¦¤
Ġà¦Ĩ à¦¹
ĠArtik el
abilir siniz
ÙĪØ¯ ÛĮ
Ġë¨ ¹
à¤ķ à¥įà¤Ł
L AR
è¶ Ĭ
Ġwur den
Ġà¤ķà¤¾à¤° à¥įà¤¯
ĠáĥĵáĥĲáĥ Ļ
ĠC ette
lo od
Ġv iv
ĠÛ ±
ĠÐ²Ð¾Ð· Ð´
Ġdell o
Ġp otre
ĠÎŃ Îº
Ġlas sen
Ġhab ÃŃa
Ġpur p
Ġste p
Z ION
ĠÄĳ Äĥng
ë³ µ
ÏĥÎµ ÏĦÎµ
Þ ¨
Ġag ar
ÐµÑĢ ÐµÐ´
Ġà¤ķ à¤¾à¤®
al ne
Ġt imbang
ĠÐ» Ð¸Ð±Ð¾
ĠÙħØ¹ Ùħ
è» ¢
ãģ« åħ¥
åł Ĥ
à°¿à°Ĥà° ¦
ĠÆı l
amp il
Ġä» İ
Ġequ ipo
r er
Ã ¯
Ġé ĸ
ĠÎ¼ Î¯Î±
Ġqual itÃ©
Ġincre ase
Ñı Ð»
ĠÐ½Ð° Ðº
ĠMe hr
¯ à§
is ce
è¿ Ķ
Ø®Øµ Øµ
et y
A M
Ġb om
áĥĵ áĥĺ
à¤¾à¤¤ à¥įà¤°
ĠØ§ÙĦÙħ Ùĩ
Ġpr Ã¡
ĠÑĨ ÐµÐ»
ĠÐ½ Ð¾ÑĢÐ¼
an ych
Ð¾Ð¿ Ð°Ñģ
ĠG Ã¶
Ġus ually
Ġb ad
Ġe ÅŁ
Ġs ue
Ġc et
ĠÑĢ Ð°ÑģÑĤ
d as
ä»ĺ ãģį
Ġà¤¹à¥ĭ à¤¤à¤¾
Ġdisp on
ÏģÎ¯ ÎµÏĤ
sk ich
×Ľ ×ª
ĠÑĢÐ°Ð· Ð¼ÐµÑĢ
à¦¿à¦ ĵ
ĠÙħØª ÙĨ
¡ ng
ow ad
Ġë ĳĲ
Ġdat os
Ġd ic
Ġwar en
Ġsto re
Ġbirlik te
Ġnas Ä±l
v re
ìĤ° ì¶ľìŀ¥
Ġa go
Ġpubb l
à¸£ à¹Įà¸
æī ĳåħĭ
ĠA cc
ijk en
Ġ- -
Ķ à¸²à¸
Ġà¦° à¦¾à¦ĸ
ais s
Î½ Ïİ
lÉĻ ÅŁ
åı į
ĠÐ¡ Ðº
ĠM ujer
ÎĻÎļ ÎĹ
ĠÎ² Î¬
Ġpod le
ĠJ ika
¼ åħ¥
w ir
áĥĿáĥĳ áĥĲáĥ¡
Ġam or
à¤Ĥà¤¤ à¥įà¤°à¥Ģ
Ġæ į
Ïĥ Î¼Î±
Ġph im
Ø¶ Ø±
ĠÐ¿ Ð¾ÑģÑĤÐ°Ð²
· à¹īà¸Ńà¸
Å¾ enÃŃ
ä¸ ¾
à¸´ à¸Ļ
Ġtak ie
Ġposs ono
Ġlo g
Ġáĥĺáĥľ áĥ¤
è¼ ī
ĠÚ© Ø§ÙħÙĦ
r or
à¯įà® ¨
æĸ°éĹ» ç½ĳ
ĠB eit
ÙĪØ² ÛĮ
um lah
Ġn ale
ovÃ© ho
Ġv ÃŃce
zÄħ dz
ze go
ĠÐ¸Ð½ Ð´
Ġc á»Ńa
ãĥ¼ãĥ ŀ
Ġà¦¦ à¦¿à§Łà§ĩ
cuer do
Ġb ou
Ġave z
Ġtr uyá»ģn
Ġå §
à¤¸ à¥įà¤Ł
ĠìĥĿ ê°ģ
oles c
ÙĪ ÙĦÙī
ĠØ§ Ú©
ĠÐ» Ð¸Ñĩ
iz aciÃ³n
Ġm at
ĠV Ã½
ĠÙĦ ÙĬØ³
ĠÑĥ ÑģÐ¿
à°Ĥà°¦ à±įà°°
Ùİ Ø©
Ġìĺ¨ ëĿ¼ìĿ¸
Ġmod el
ì» ¤
Ġáĥ¡ áĥĲáĥĵ
×Ļ×ª ×Ļ
à°¾à°¤ à±įà°°
Ãªn cias
è¯ »
Ġ4 8
ĠåĽ ł
ĠÑĤ Ð¸Ð¿
åº ·
ti en
Ġà¤µ à¥ĩ
Ġla y
Ġà¦® à¦¾à¦°
j aw
ak ai
an Ã§as
ab or
n d
áĢ ¬
à°Ĥà°Ł à±ĩ
ÉĻn d
ĠÐ² ÑģÑĤÑĢ
Ġtrad ition
Ġáĥ¨ áĥĶáĥĵ
èģ ·
å¤ļ ãģĦ
Ð¸Ð» Ð¾ÑģÑĮ
å® ¤
Ġmá» Ĺi
åĨ ľ
Ġæ¬ §ç¾İ
à¶ »
éĻ Ĩ
ĠM ed
Ġr ig
ĠktÃ³ ra
ĠØ¬Ùħ Ùĩ
ĠK ad
Ġav ons
à¤¾à¤Ĥ à¤¨à¤¾
ĠNh Ãł
Ñİ Ð´
Ġko lej
aj a
Ġj ual
Ġprev ious
×ĳ×ķ×ĵ ×Ķ
Îº ÎµÎ¹
ĠØ³Ø±ÛĮ Ø§ÙĦ
Ġempl oye
j Ãł
Ġt Ãªn
Î½ ÏĮ
ÙĦ Ø§Øª
ĠÑĤ ÑĢÑĥÐ´
¹ ä»ĭ
à¦¾à¦ ¡
×ĵ ×ķ×ª
Ġæ¾³éĹ¨ çĻ¾å®¶
ĠS eite
ĠÐ³ Ð¾Ð»
an iu
Ġcom ing
Ġris k
Ġmak s
re ib
ĠÙ¾ Ø§Ø±
à°® à±Ĩ
ĠÎ» ÎŃ
Î±Ïĥ Î¯Î±
à¦¿à¦ Ĺ
w iÄĻ
Ġbag ian
Î» ÏĮ
Ġf ine
Ø¸ ÙĬÙħ
ĠC ons
äº§ åĵģ
ãĤ¯ ãĥª
ĠÙħÙĪ Ø§Ø¯
æ² Ļ
k Ã¼
à´¿à´ ²
à¦¿à¦¨ à§įà¦¨
Ġå¥ ½
Ġ3 8
ĠÐ¿Ð¾Ð»ÑĮÐ· Ð¾Ð²
Ð¾ÑĤ Ñĭ
Ġà¤¹à¥ģà¤ Ĩ
Ġp k10
ag ne
Ġ25 6
ä¹ ¡
ĠK Ã¼
g ress
Ġart icle
×Ļ×Ķ ×Ŀ
Ġlle g
ĠÐ½Ð°Ð» Ð¸Ñĩ
Ġloc ated
Î» Î¹Î±
×Ĵ ×ľ
ÎµÏħ ÏĦÎ±
è ķ
à±ģà° Ĺà°¾
Ġà¦Ĩà¦® à¦°à¦¾
Ġb li
×Ļ×ª ×Ł
wi at
ĠÐ²ÑĭÐ¿ Ð¾Ð»Ð½
Ħ à¹īà¸²
am il
Ġsoll te
ĠÑģÐ¿ Ð¾ÑĢÑĤ
Ġo tt
uy áº¿t
à±ĩà° ·
Ġà¸ Ĺà¸µà¹Ī
Ã©rie ur
ĠBaÅŁkan Ä±
ĠØ¨ Ø³
Ġrelations hip
at akan
×¨×Ĳ ×Ķ
à®¤à¯įà®¤ à®¿à®©à¯į
Ġson dern
Ķà¹īà¸§à¸ ¢à¸
¸ è¿Ĳ
ãģ¡ãĤĥ ãĤĵ
Ø¹ ÙĬ
ãĤ¿ ãĥ¼
Äį as
Ġwo od
I L
Ġáĥ« áĥĲáĥļáĥĺáĥĲáĥľ
Ð½ ÐµÐ¼
à¹ĥà¸ Īà¸
it ie
Ġà¤ľ à¥Ī
Ġc ours
k ek
ãģį ãģŁ
ĠÐ² ÐµÑī
ĠÙħØ¬Ùħ ÙĪØ¹
áĥĿáĥľ áĥĺ
urs os
æŃ ©
ĠfÃ¸l ger
à¥Ĥ à¤¸
ĠØª Ø®
al d
l as
Ġex ist
Ġag èµĮ
pp en
ì²ľ ì¶ľìŀ¥
ĠKh Ã´ng
ĠÐ² ÐµÑģ
ĠÐ²ÑĢÐµÐ¼ ÐµÐ½Ð¸
b u
ĠJe an
Ġout side
ĠProduk t
ĠÐ²Ð½ ÑĥÑĤ
Ġì¢ ħ
Ġver dad
Ãĩ ÃĥO
ĠØ§ÙĦÙģ ÙĦ
çĽ ĳ
ãĤı ãģĽ
Ġfe ature
Ġà¦ľ à¦¾à¦¤
ara q
Ġd ot
Ä±z Ä±
ĠS k
ª à¹Īà¸§
Ġd ati
Ġ à¹Ħà¸¡à¹Īà¸
fol g
ĠÐ¼ÐµÐ¶Ð´ Ñĥ
Ġf er
ul is
ĠSt ud
ĠÐ¼ Ð»
ĠY ork
Ġos s
Ġmel alui
Ġy at
ĠÑģÐ»ÐµÐ´ ÑĥÑİÑī
Ã¶glich keit
å¿ Ĺ
ä»¥ ä¸Ĭ
Ġì§ ģ
Ġà°¸à°¿à°¨ à°¿à°®
Ġje Å¡tÄĽ
Ġers ten
Ġë ł
Ġr ather
us es
ĠY ap
ĠÐĺ Ð³
Ġà¤ĩà¤¸ à¤ķà¥ĩ
Ġ ãģ§
ĠÐ¿ÑĢÐ¾Ð² ÐµÐ´
ari as
Ġprzy pad
ĠÑĢÐµÐ± ÐµÐ½
à®° à¯Ī
åľ ĭ
Ġh ombres
åį ĺ
éĢ ²
àª ¾
ĠÐ³ Ð°ÑĢ
×Ļ×ł ×Ļ
Ġm udah
Ġopportun ity
Ġj ug
ĠB akÄ±
ĠáĥĴ áĥĲáĥł
æ¢ ¦
ĠØ± Ùĩ
ĠÎµ Î¹Ïĥ
áĥļ áĥĶáĥĳáĥĺáĥ¡
ë³´ ê¸°
æ¼ Ķ
à¦¾à¦¥ à§ĩ
Ġfark lÄ±
Ġáĥ¡áĥĲáĥ £áĥ
Ġë¨ ¸
Ġà¤ī à¤¤
orzy st
ĠtÉĻr ÉĻf
ĠÙĨ ÙĪØ±
Ðł Ðŀ
Ġà¦¤ à¦¬à§ĩ
Ġeduc ation
à¦² à§įà¦ª
Ġch uyá»ĩn
Ġm atter
Ġp an
Ġcitt Ãł
ed a
áĥĲáĥĵáĥĴ áĥĶáĥľ
à§Ģ à¦Ĺ
à¥ĩ à¤¤
éħĴ åºĹ
à¤µ à¥Ģ
es ar
Ġh iá»ĥu
ĠÎµÏĢ Î±
is to
é¡¹ çĽ®
Ö ¶
à°Ĥà° ķ
Ġà¦¤ à¦¾
à°¿à°Ĥà°ļ à°¿à°¨
Ġim age
Ġl if
qu Ã©
ie Äĩ
Ġte ll
à¶ Ń
Ġà¦ķà¦¾à¦° à¦£
al ler
Ġsk in
Ġqu áº£n
íĮ ħ
ĠÙģ Ø§ÛĮÙĦ
ÙĤ ÙĪÙĦ
Ø§Ùĩ Ø±Ø©
Ġques ti
à¦¨à§įà¦ ¨
io re
Ġkosten los
ĠÙĦ Ø¨
an ken
íİ ĺ
Ãĵ N
Ġå® Ł
Ġë £
Ø± Ø®
ĠâĢ Į
ĠmÃ¼s sen
rzy m
ĠÎ ŀ
Ġus er
Ġcáº£ nh
Ġset iap
ĠÑĩÐµÐ»Ð¾Ð²ÐµÐº Ð°
ouw en
s iÄĻ
èī ĩ
ĠìķĦ ëĭĪ
Ġar beid
ues to
Ġhapp y
ĠÎºÏĮ Ïĥ
Û µ
Ġ ä½ľ
Ġrec og
Ġut en
ĠWor ld
Ġà¤Ĺ à¤ı
ÙĪ Ù¾
ãĤĵ ãģ§ãģĻ
Ġà°¤ à°¨
ĠDe p
ze ich
Ġf ire
à¦¿à¦ ĸ
Ġà¸ §
Ġ3 5
ĠØª Ø±Ùĥ
ĠÐ¿Ð» Ð°ÑĤ
Ġ. âĢĿ
ëĦ ¤
ĠÐºÐ°Ð· Ð¸Ð½Ð¾
Ġprob ably
Ġà¸ §à¸´à¸
Ġtwe e
Ġpag pap
ĠT op
Ġà®® à®ķà¯įà®ķ
ĠÎ£ ÏĦÎ·
ç ¢
äº Ĵ
ĠØ§ÙĦØ±ÙĬ Ø§Ø¶
ģ à¹Ī
Ġà®ħ à®´
ap os
Ġæ± Ł
à¤° à¥ĭ
ãģĤãĤĬ ãģ¾ãģĽãĤĵ
ãĤĤ ãģĹ
Ġìĺ ¬
ìµľ ê³ł
Ġà¤¦à¥įà¤µ à¤¾à¤°à¤¾
ĠØ³ Ùģ
Ġà¤¨ à¤¾à¤®
Ġanmeld elser
éģ Ķ
Ġjej ich
ÑĢ Ð¸Ð¼ÐµÑĢ
Ġí Ĺ
Ġ( "
iÃª ng
ĠH is
áĥĺáĥª áĥĺ
id th
ĠA pr
ÙĪ Ø³Øª
éģ İ
Ģâ Ļ
Ġc um
ÑĢ Ð°Ð¶
à¤¾à¤ ³
Ġà¤ķà¤° à¤£
Ġçİ ĭ
Ġcurr ently
ê°ķ ì¶Ķ
ĠØ§ÙĤØ¯ Ø§Ùħ
Ġèµ Į
ag t
ĠP res
Ġ×Ķ×ŀ× §
ĠØªØ± ÛĮÙĨ
Ġáĥ¡áĥĲáĥ¥ áĥĽ
ĠÙħ Ø«
ë³ Ħ
à¯Ĩ à®¯
ĠÐ¿ÑĢÐ¾Ð² Ð¾Ð´
æĭ¿ å¤§
Ġà¤¸ à¥ĭ
Ġc op
Ġê² Ģ
Ġset t
áĥĶáĥ¡ áĥ¢
Ġreg ular
b ut
ten er
ĠP ark
Ġà¦¸ à§ĩà¦ĩ
ĠSe c
à¸Ńà¸ Ķà¸
Ġk aufen
Ð°Ð· Ð´
ul u
ver age
ĠP art
Ġcre dit
à¦¿à¦ ı
à®Ł à¯ģ
à¦¾à¦¨ à¦¾
Ġ×Ļ ×ĵ
Ġà®ª à¯ĩ
à¤² à¥įà¤¯à¤¾
ĠCon tactos
ĠØŃÙĤ ÙĪÙĤ
ĠÐ´Ð¾ÑģÑĤ ÑĥÐ¿
Ġtreat ment
ĠØ®ÛĮ ÙĦÛĮ
Û Ĩ
u ge
h at
ĠG Ã¼
l uk
à¯ģà®ķ à®¿à®±
ëį Ķ
li ÄŁ
od zi
Ġpr av
ĠK ab
Ġà¦ªà¦° à§įà¦¯
ÏĦ Ïĥ
ĠÏĥÏĩ ÎŃ
Ġæ Į
åĢ ĭ
Ġp Å¯
Ġáĥ§áĥķáĥĶáĥļ áĥĲ
Ġà¹Ģà¸ĩà¸´à¸Ļà¸ Łà¸£à¸µ
×Ļ×ľ ×ķ
ĠÙĨ ÛĮØ±
à¤Ĥ à¤ľ
ĠyÃ¶n et
Ġe ks
ĠSch w
èª ¬
Ġval or
e z
re w
à§Ł à§ĩà¦°
Ø§Ø¦ Ø¯
Ġà¦¶ à§ģà¦°à§ģ
ĠØ¯ÙĪØ± Ùĩ
Ġm no
Ø§Ùģ ÙĬØ©
Ġsk ills
à±įà° §
ÙĤ Ø§Ø¡
à¹ĥà¸Ĭ à¹ī
Ġdr ive
ÏĨÎ¿ Ïģ
Ġà¦ķ à§ĩà¦¨
ĠM Ã¡s
Ġáĥ¡áĥ®áĥķ áĥĲ
é º
ãģ® ãģ«
ç½ĳ ä¸Ĭ
Ġst ar
èį ī
t Ã¼r
ĠÎł Î¡
ĠÎµÎº ÎµÎ¯
Ã¤n der
ĠÐ¶ÐµÐ½ Ñī
ĠÐ½ ÐµÐ±
Ġà°ļà±ĩà° ¸à±įà°¤
s un
ĠáĥĲáĥ ļ
f eit
á ĭ
Ġden n
Ð² Ð¸Ð¶
ĠâĢ »
ĠÐļ ÑĢÐ°Ñģ
ÏĨ ÏĮ
Ø§Ø¦ ÙĬÙĦ
Ġele tt
Ġsam men
Ħ à¸Ļà¸
à¥ĩ à¤¨
×Ķ ×ľ
in ie
ĠO ok
ĠØ§ÙĦÙģ Ø±
ĠÑģÑĤ Ð°Ð²
ĠP ok
¥à¸ ·à¸Ńà¸
ent en
uj ÃŃcÃŃ
Ġk ids
ĠÏĮ Î»Î±
à°® à±Īà°¨
ĠØ´ ÙĪÙĨØ¯
Ġbes te
ag ing
ĠØ¨ÛĮ Ø§ÙĨ
ÙĢÙĢÙĢÙĢ ÙĢÙĢÙĢÙĢ
Ġmag gio
à¹ģà¸ ¥à¸°
d ek
Ġäºļæ¸¸ å®ĺç½ĳ
åĥ ı
c Ã©
ĠìĻ ¸
Ġat ten
« à¹ĩ
Ġà¹ģà¸ Īà¸
Ġd Ãłi
×ķ×ĳ ×¨
Ġp ouvez
à°¿à°² à±įà°²
Ġc á»ķ
Ġà¦¹ à¦¿à¦¸
ĠÐ´Ð¾Ð¼ Ð°
n it
Ġf ond
å¤§ åŃ¦
am in
ÏĨ Î±Î»
Ġthu á»Ļc
åĪ Ļ
Ġng u
en iu
Î¾ Î¹
Ġper lu
le fon
Ïĥ ÏĥÎ±
Ġn ice
ĠÐ¿ÑĢÐµÐ´ Ð¾ÑģÑĤÐ°Ð²
Ġáĥĵ áĥĲáĥľ
ãĤĬ ãģ¾ãģĹãģŁ
he iro
Ġv oy
iÄĻ ki
Î¸ ÏģÏī
ĠØ¢ ÙĤ
ÑĥÑĤ ÑģÑĤÐ²
å¥ ĩ
Ġuns ere
Ġtr á»±c
in iones
ĠÚ© Ø±
ãģĻ ãģĻ
Ġà¦ı à¦²
ĠÎĶ E
Ġk inder
áĥĶáĥķ áĥĶ
Ġà®¤ à®¾à®©à¯į
Ġ×ĳ ×ķ
Ġn am
ĠÑģÐ¿Ðµ ÑĨÐ¸Ð°Ð»ÑĮ
¯ u
Ġtak es
Ġgior n
Ġpre cios
Ġins urance
ĠC ont
Ġë° ķ
Ã©m u
Ġv iene
à®¿à®¯ à¯Ī
ĠcÃ³ mo
ãĤī ãĤĮãĤĭ
Ġm ÉĻs
Ġs ales
ãģĮ ãģĤãĤĬãģ¾ãģĻ
à¦¾à¦ ī
ÙĨ Ø§Ø¯ÙĤ
Ø¬ Ø²
n os
Ġhig her
Ġ×Ľ ×ª
iz ia
Ġ ÅĻe
å½© åĸľæ¬¢
ëĵ ±
ê²Į ìŀĦ
á Ĭ
z ien
Ġå Ł
Ġke in
Ġmo h
Ħ à¸²à¸£
ĠS m
ille t
lijk e
Ġorig inal
Ġg us
Î±Î¹ Î¿
Ġç «
çĶ ·
ãģĦ ãģı
«à¸ ±à¸
Ġf ast
âĢ ı
Ġg an
Ġt ussen
Î¸ Î±
ĠÑģÐ» Ð¾Ð¶
l agen
ÎŁÎ ľ
ĠprÃ©s ent
Ã¨ le
Ã¼y or
ĠåĲį çĦ¡ãģĹ
Ø° ÙĬ
ĠÎµÏĢ Î¹Îº
Ġd ni
Ġpre t
ĠÑĢÑĭ Ð½
Ð»Ñİ Ð´
Ġbes o
åİ Ĥ
Ġìĥģ íĴĪ
Ø§Ø± Ø¬
à§ģà¦ §
ĠÐ½ÐµÐ¾Ð±ÑħÐ¾Ð´Ð¸Ð¼ Ð¾
Ð°Ð½ Ð¸Ñİ
Î½Î¿ Î´Î¿
Ġ×Ĵ ×ĵ
Ã¡t ica
c re
Ð¾Ð² Ð¾Ð³Ð¾
ĠÚ¯ ÙĪ
æĲ ı
Ã¤ d
Ġ×ł ×ķ×¡
Ð½ ÑĥÑĤÑĮ
áĥĺáĥĻ áĥ£áĥłáĥĺ
st ÉĻr
Ġpal ing
ĠCOM å½©åĸľæ¬¢
ici on
ĠÙ¾ Úĺ
Ġcá»© u
ÙİÙĬ ÙĴ
Ġ016827 9
Ġayn Ä±
Ġpo ints
Ġed en
Ġrecommen d
ÐµÑĢ Ð¾
à¯ĭ à®®à¯į
Ġtry ing
ĠÏĩÏī ÏģÎ¯ÏĤ
ĠPub lic
e ll
2 3
è³ ĩ
Ð»Ñı ÑĤÑĮ
y arak
g ing
ĠW at
ÉĻs inin
ar zy
Ġz v
à®¿à® ³
ĠÕ ¢
Ġf lere
Ġà°µ à°ļà±įà°ļ
Ġbu ilt
ÃŃ l
ĠÐ¸Ð· Ð±
Ġìĸ ´
ist ic
Ġber t
Ġ×Ļ ×ķ×Ŀ
ilm esi
ĠÙĦ ÛĮÙĨÚ©
Ä± p
Ġà¤® à¤¨
ĠS uj
Ġíĸ ī
ãģ¨ ãģ®
ÏĦ Î¶
ĠAr t
ĠÙħÛĮâĢĮ Ú©ÙĨØ¯
Ġà¤¸à¤ķ à¤¤à¤¾
Ġhá» ıi
Ġéķ ¿
g no
ìĨĮ ìĿ´ìĬ¤
Ġcontin ue
ĠÎĳ ÎĿ
Ġjus qu
ÑĥÑĤ Ð±
Ġà¦® à§ģ
ÙĪ Ø«
Ġgr ad
à°¸ à±į
Ġê± ´
sta v
Ġs we
ÑģÑĤ ÑĢÐ¾
Ġá¼ Ĳ
Ø¶ Ø©
å¼ ł
r an
Ġà¤¹ à¤°
Ġà¤ķà¤° à¤¨à¤¾
m ing
Ø±ÛĮ Ùħ
åŁ Ł
Ġag ua
Ġactiv ities
ãģĦãģŁ ãģł
Ġni Å¼
Î³ Î¼Î±
Ġå¼Ģ åħĥæ£ĭçīĮ
Ġ×ĸ ×ķ
àµįà´ Ł
ĠPl us
Ġà¤īà¤¨à¥įà¤¹ à¥ĭà¤Ĥà¤¨à¥ĩ
å¯¾ å¿ľ
Ïĥ Î¹Î¿
Ġnouve au
ĠB undes
Ġs yst
Ġpow in
er ing
Ġpriv ate
e e
Ġç ¼
Ñĩ Ð¸Ðº
Ġp ak
AN G
ĠáĥĹáĥĳ áĥĺáĥļáĥĺáĥ¡
×Ļ×ł ×Ļ×Ŀ
ãĥĲ ãĥ¼
ª à¹Į
ÑģÐ¿ Ð¾ÑĢÑĤ
ma al
ĠÐ¶ Ð¸Ð·Ð½
Ã¡ri as
à®² à®¾à®®à¯į
ant ie
ĠE UR
ĠÐ´ Ð¾Ð±Ð°Ð²
Ġà¦¤à¦¾à¦° à¦¾
à¯ģà®ķ à®¿à®±à®¤à¯ģ
Ġcon d
Ùİ Ø¹
ap h
Ġel se
ë ·°
×Ĺ ×Ķ
un an
it re
Ġad ol
rav ers
ØªØ± ÙĪÙĨ
s to
b all
Ġc idade
ess en
ĠÄĳá»Ļ i
é» ĳ
ĀĀĀĀĀĀĀĀĀĀĀĀĀĀĀĀ ĀĀĀĀĀĀĀĀĀĀĀĀĀĀĀĀ
Ġne z
Ġsto p
Ġs otto
å¾ ®
z ie
Ġpol it
Ġà¤® à¥įà¤¹
ĠÙĬØ¬ Ø¨
ë ĳ
is o
ļà¸ ±à¸
ĠØ§Øµ ÙĦ
ent uk
at form
ÙĪ ÙĬØª
ĠÐ¸Ð¼Ðµ ÐµÑĤ
Ð°ÑĤ ÑĥÑĢ
ĠØ§ÙĦØ¹ Ùħ
Ġæ ´
Ġa ang
Ġan i
Ġâĺ ħ
Ġsp rzed
Ġw id
Ġpas ado
z elf
ĠÑģÐ¾Ð² ÐµÑĢÑĪ
ç´ °
ĠØ£Ø¨ ÙĪ
«à¸ ¥à¸²à¸
ĠÙĪ Ø·
Ġà¦ª à§ģà¦²
ÑĤÐ¾ Ñĩ
×¨ ×ķ
ÙĥØª Ø¨
n ut
ĠØ³ Ø·
ĠÎµ Î»Î»Î·Î½
åķ ª
×Ļ×¨ ×Ļ×Ŀ
éģ ĭ
ĠS pe
Ùģ Ø§ÙĤ
ģà¸ ³à¸
à°¾à°¨ à±ģ
ĠáĥĲáĥĵ áĥĴ
Â ¤
Ġ×ľ ×ł
à§ĩà¦² à§ĩ
æħ ĭ
æĥ ł
à¦ŀ à§įà¦ľ
Ġph ong
Ġzur Ã¼ck
Ġtr ouver
ĠÑģÐµÐ± Ðµ
Ġm á»©c
Ġm ÉĻlum
à¹Ģ à¸Ļà¸
it ch
à¤¾à¤° à¥ĩ
Ġà¤¨ à¤¾à¤¹à¥Ģ
à¦ķ à§ĩà¦°
éĸ Ģ
ĠÙħÛĮ Ø§ÙĨ
ĠK unden
ð Ł
ĠÄĲ áº¡i
Ä° M
ãģ® ãģ§ãģĻ
ĠÐºÑĢÐµÐ´ Ð¸ÑĤ
ĠiÅŁ lem
í ļ
Ġà® Ĭ
ess a
ĠÎĿ Î±
Ġhist oria
ĠgÃ¶ n
Ġç ¥
è¨ ¼
Ġ×Ĳ ×Ļ×©
Ġhe l
Ġitem s
ãĤ· ãĥ§
ĠBe wert
Ġwar to
áº¿ p
Ø° ÙĥØ±
Ġb ur
Ã¤ m
k ken
Ġw idth
Ø§ ÙĬØ§Øª
Ġprem ier
v in
åĢ Ļ
Ġì¶Ķ ì²ľ
× ³
ĠØ¹ Ø¨
ĠØ³Ø§Ø² ÛĮ
ĠØªÙĪØ³ Ø¹Ùĩ
aci o
Ġi h
yarak at
Ġkh ai
áĥĴ áĥĲáĥľ
ĠÐ¿Ð¾Ð·Ð² Ð¾Ð»Ñı
ãģ¨ ãģį
ĠC ON
ft ar
Ġd in
Ġmuch os
à¸£ à¹Į
ĠÐ² Ð°ÑĢÐ¸
Ĥà¸¶ à¹īà¸Ļ
Ġve ces
æ¸¸æĪı å¹³åı°
Ø§ ÙĪÙĦ
up t
ib ili
Ġà®ķà¯Ĥ à®±
Ïĩ ÏģÎ¹
ĠÐ¸Ð³ ÑĢÑĭ
ĠÙħÙĩ Ø±
Ø³ Ø§Ø²ÛĮ
anj ut
å· ´
ĠÑģÐ² ÐµÑĤ
f ace
Ġtrad ing
¡ à¸Ļà¸
Ġs ino
Ġdi jo
ĠgÃ¶ stÉĻr
en y
à¤¾à¤ Ł
à°² à°¾
ĠØŃ ÙĪØ²
Ġmain tain
Ġch Ã¢n
Ġ Ø§Ø±Ø¯
Ùĩ ÙĦ
ĠH igh
be c
as Ä±na
Ġ×¨×Ĳ ×©
ÙĨ Ùħ
ª à¸£
ÙĤ Ùī
Ġë³ Ģ
ĠáĥĻ áĥķ
ĠE u
Ġmy e
Ġinform aÃ§Ãµes
r Ã³n
Ġsu ite
ëĵ¤ ìĿĢ
Î½ Î¬
çĻ Ĥ
ĠÎĳ ÏģÏĩ
ul it
Ġsi x
ĠÏĢÎµÏģÎ¹ÏĥÏĥÏĮÏĦÎµ ÏģÎ±
Ġting gi
æ± ½
ĠâĢĿ ï¼Į
Ġl itt
Î¼Î² ÏģÎ¯Î¿Ïħ
si ÄħÅ¼
ãģĹãģŁ ãģĦ
Ġmad uras
et as
ĠSt ate
l us
pl o
Ġì Ĥ°
Ġbil ÉĻr
Ġt us
ĠÐ¾ ÑĨÐµÐ½
Ġs Ã¡t
ir t
Ġmill ones
Ġ×Ĳ×ķ×ª ×ķ
Ø§Ø¨ Ø±
ĠÙĨ Ø®
×Ļ×¤ ×Ķ
ĠØ¬ ÙĪØ§ÙĨ
à¥Ģ à¤¡
Ġa kt
Ùĳ ÙĲ
anh a
Ġkho áº£ng
Ġv erschied
Ġà® ¹
Ġà¦¨ à§ĩà¦¤
ĠÙĪ Ø®
ĠØ¨ Ø§Ø¹
Ġf ile
_ c
Ø± Ùī
ëŁ ī
Ġ×ĺ ×ķ×ĳ
i zione
Ġal c
è ŀį
Ã§ i
ãĥĩãĤ£ ãĥ¼ãĤ¹
Ø§Ø¯ Ø§Øª
ÏĢÎ¿ ÏĤ
n em
Ġà¦¹à¦ļ à§įà¦Ľà§ĩ
end s
Ø§Ø´ Ø¯
Ð¸ Ð»Ñı
Ġy ardÄ±m
ĠÙĪ Ø°ÙĦÙĥ
Ġè ¶
Ġë² Ī
ak u
Ġè ¨
ĠW ill
Ð¼ Ð¾ÑĤ
Ġb ott
å¢ Ĺ
ĠdÃ© jÃł
ë¦ °
Ġè¿ ĺ
Ġed ib
6 0
Â ¯
æ¸ Ī
Ġlav or
ĠÐºÐ¾Ð½ ÑĤ
u do
ĠÐ¼ Ð°ÑģÑģ
ĠØ¯Ø±ÛĮØ§ ÙģØª
ãĥ¼ãĥ ©
ĠØ§ÙĦØµ Ùģ
dz iaÅĤ
ad Ä±
èŃ ¦
Ġe jempl
ter e
Ġk de
Î» Î¹Î¿
áĥ§ áĥĿáĥ¤
ĠØ´Ø¨ Ú©Ùĩ
ÑĪ Ð¸Ð¹
Î¼ ÏİÎ½
Ġpract ice
izz ato
Ð² ÐµÑĢÐ¶
ì¶ľìŀ¥ë§ĪìĤ¬ì§Ģ ìĥµ
à¤ļà¥įà¤ Ľ
Ġest ado
åĨ µ
Ġ×ŀ ×ľ
Ø¶ ÙĬ
ĠÐ¿ÑĢ Ð¸Ñģ
èµĦ æĸĻ
åį ı
áĥĺáĥľ áĥĺ
Ø² ÙĬØ²
áĥĶáĥĳ áĥĶáĥļ
´ë ı
Ġwant ed
Ïī Î¼Î±
Ġbe oord
ĠãĤŃ ãĥ£
Ġh ingga
Î¾ ÎµÎ¹ÏĤ
ĠÅĽ rod
Ġinform azioni
æıĲ ä¾Ľ
Ġme io
u le
ĠÙħØµ Ø±Ùģ
ĠØ§ÙĦÙĨ Ø§Ø³
sch utz
Ã« n
Ø¨ Ø·
ÅĤ at
Ġenf ants
Ġgiá»¯ a
ĠÃ© l
ÚĨ Ø³Ø¨
b an
ĠìĨ į
ĠØ· Ø±ÙĬÙĤ
ĠThe o
ĠØŃ Ø±Ùģ
iniz i
èķ ī
Ġcontin u
åĩ »
Ġimport ante
Ġtr ue
ë¯¸ ëħĢ
ĠP f
Ġcha que
ic aciÃ³n
o ÅĽÄĩ
Ġz ien
æĮģ ãģ¡
ĠÑģ ÐµÑĤ
Ø§Øª Ø¨
Ġa que
ç¤¾ ä¼ļ
Ġaddition al
Ġcomp te
§à¸ ¥
Ġh Ã´tel
Ġex cell
Ġins ide
åĤ Ļ
Ġà´ µ
Ð¸ Ð¾Ð´
Ġt api
Ð°Ðº Ð¾Ð²
b aru
ĠØ§ÙĦØ® Ø·
ĠØ§ÙĦØ¢ ÙĨ
Ġè »
Ġr iv
ĠÑĤ Ð¾Ð¶Ðµ
Ð°Ð· Ñĥ
åŁ ¹
à®¤ à®¾à®ķ
o te
ĠIn ter
Ġf ol
à¤ Ĩ
Ã¼n Ã¼
c ita
ier ten
Î¼ÎŃÎ½ ÏīÎ½
ĠÐ¸Ð· Ð²ÐµÑģÑĤ
re z
ĠØ® Ø±Ø¯
Ġal tre
æŀ ģéĢŁ
Ġwor th
ÑĮ ÑİÑĤ
ĠSuj et
oc a
Ġwyk on
è¿ ľ
Ġab s
ĠTh anh
Ð¡ Ð
Ġvers ion
Ġà¦¸ à¦¾à¦¥à§ĩ
Ġho je
ĠÑģÑĢÐµÐ´ ÑģÑĤÐ²
ĠÎ³ ÏģÎ±
Ġ3 1
Ġåĩ¯ æĹ¶
Ġs vÄĽ
Ġeas ily
Ġj udi
ĠÑģÑĤ Ð°Ð½
Ġpot ential
Ġpret ty
ĠÐ± ÐµÑĢ
Ġhe ight
ĠÅ ½
ÏĦÎµ Ïį
ĠL u
Ġpart ie
Ġchiáº¿ c
Ġkom p
iáº¿ m
Ø¬ Ø§Øª
ĠÑĦ ÑĥÐ½Ðº
á¿ ¦
ors ke
Ġrun ning
Ġas p
Ã¡n d
×ķ ×ķ×ª
Ġk ata
Ä±lm Ä±ÅŁ
Ġcann ot
ãģĻãģĻ ãĤģ
ĠÃ ĳ
ri ed
Ġempl oy
é¡ į
ÙĦ Ø§ÛĮÙĨ
à®¾à® ľ
åĩº æĿ¥
Ġdes c
ĠØ¨Ø§Ø¹ Ø«
ãĥ¼ãĥ Ĳ
ĠØ§ÙĦØ« ÙĦØ§Ø«
Ġà®İà®¤ à®¿à®°
èĮ ĥ
ĠJ an
Ġà¤¸ à¤¾à¤²
le br
é» Ħ
Ġi ci
ĠØ´Ùĩ Ø±ÛĮ
ÐµÑĢ Ð²
Ġlang sung
ĠÐ¾ Ð·
al itÃł
Ø· Ø§Ø±
l iv
ãģ§ãģį ãģ¾ãģĻ
ãĥĹ ãĥ¬
à®¾à®® à®²à¯į
Ġse p
Ã¡ st
Ġà¦¸ à¦¦
Ġs le
ãĥ« ãĥĪ
ë° ķ
«à¸£à¸ ·à¸Ńà¸
Ø§Ø³ Ø·Ø©
Ġz ag
çº ¦
ĠÐ½Ð°Ð´ Ð¾
ĠJak arta
ĠÐŁÑĢ Ð¾
ĠØ± Ùħ
Ġpo is
Ã³ ri
ÐĿ Ðŀ
Ġyap Ä±l
Î¸Î· ÎºÎ±Î½
Þª Þ
æŀ Ħ
Ġà¤ª à¤¾à¤°
ĠÄĳá» Ŀi
h ur
ĠØ¬Ø¯ÙĬØ¯ Ø©
èİ ·
Ġa ction
uf en
Ġæ° ´
æĹ© çĤ¹
Ġalgun os
Ġis n
d am
ĠdÃ¶n em
Ġconoc er
ĠÂ¡Â £
è® Ń
Ġà®ª à®£
ĠÐ»ÑİÐ´ ÐµÐ¹
s ive
Ġm á»¥c
Ġ×ľ×¤ ×ł×Ļ
ÐµÐ» Ð°
éļ ¾
ĠM ont
Ð»ÐµÐ½ Ð¾
Ġkom men
ç¡ ®
Ġáĥ¡ áĥŀ
Ġaut or
it esi
Ðº Ð¸Ðµ
Ä° K
à¹Ĥà¸£à¸ĩ à¹ģà¸£à¸
ĠGr an
Ġkom en
Ġtro p
ĠÐ¡ Ð¾Ð²
Ġà¨ ķ
ĠÐ³ÑĢ Ð°Ð¶Ð´Ð°Ð½
Ġhe ld
Ø¯ ÙħØ©
æĺ ¥
Ġà¤ħ à¤®
Ġy g
ang i
Ġprodu its
à¯ģà® ©
Ġpro jects
Ġprime iro
ĠWar sz
Ġro le
Ġ ä¼
Ġneu en
Ġz it
ĠÎ£ Ïį
à¯ĭ à®¤
¢ à¹Į
Ġa ant
ĠÑĥ Ñģ
Ġáĥ¡áĥĲáĥ ¨
Ġ×ķ ×Ĵ
Ġs ier
ĠÙĨÙħÛĮ âĢĮ
Ġsit us
è« ĩ
ĠÐ± Ð¸Ð·Ð½ÐµÑģ
à°¾à° ³
à¦¨à§įà¦¤à§įà¦° à§Ģ
Ġà¤¸à¤¬ à¤¸à¥ĩ
Ġh on
ĠS ur
Ġhas il
ĠØ§ÙĦØ¹ ÙĦÙħ
à¸Ńà¸¢à¹Īà¸²à¸ ĩ
ĠÎ¼ Î¿
Î´ Ïİ
ĠØ· Ø¨
à°¿à°Ĥà°ļ à°¾à°°à±ģ
ŀ à¸´
le ction
ĠÃ§ ev
Ġacc ording
ç´ ¹ä»ĭ
ĠÐĺÐ½ ÑĤÐµÑĢ
ĠØ§ÙĨØª Ø´Ø§Ø±
ĠÙģØ¹Ø§ÙĦ ÛĮØª
Ġexem ple
Ġà®ī à®°
Ġ ÉĻr
Ã§ Ä±
ĠÚ¯ÙĪØ´ ÛĮ
Ġk ed
Ġserv icio
Ġr ais
à¤¾à¤µ à¤°
Ġber h
à¦¾à¦° à§įà¦¥
ĠÐ¼Ð¸Ð½ ÑĥÑĤ
Ġad emÃ¡s
Ùĥ Ø«Ø±
Ġáĥ£áĥ¤ áĥłáĥĿ
Îµ Î²
æĻ ®
áĥĶáĥ ŀ
Î¶ ÎµÎ¹
ĠçĦ ¡
Ĉ Ĉ
ĠM r
ģ à¸£à¸£à¸
Ġlong er
ë¸ Į
à´¤ àµįà´¤
L ER
ÐµÐ½ Ð½Ð¾ÑģÑĤÐ¸
ãģį ãģ¾ãģĻ
à¥ĩà¤Ĥ à¤¦
b ack
Ġversch ill
ÎŁÎ ĵ
di ÄŁi
Ĭà¸ ¸à¸
æıĲ çİ°
Ġres pect
ÏĦÎµ Ïħ
à¤°à¥įà¤ ľ
ĠZ apat
Ġà¤ķ à¥įà¤·
ãģĹãģ¦ ãĤĤ
Ġpartic ul
Ġé ©
od ig
Ġann on
aj ar
ÙħÙĦ Ø©
Ġà®® à®°
à¤ķ à¥įà¤°
ÐµÑĩ Ð½Ð¾
ĠØ§ÙĦ Ø§Ø®
Ġst esso
ĠØ±Ø³ ÛĮØ¯
Ïĩ ÎµÎ¯
Ø§Ø§ Ø§Ø§
Ġric erca
ĠÎ£ Î¤
il ities
Ġà´ ¸
ĠmÃ© d
ÉĻh s
is piel
à¤¿à¤ ¦
Ġdo g
ĠÏĢÏģÎ¿ Î²
Ġà¦¸ à¦Ń
Ġ ä¹ĭ
ĠÙĥ Ø¨ÙĬØ±
Ġd w
Ġin tegr
er ie
Ġter ug
Ġho tell
Ġhe ute
Äį i
ÎŁÎ ¡
ĠØ¨Ø§ÙĦ Ø§
Ø¨ Ø§ØŃ
ĠA ustr
k lich
ĠáĥĶ áĥ¥
ĠÐĴ Ð°ÑĪ
ar en
ĠEl le
Ġê²ĥ ìĿ´
2 5
à¦¥ à¦®
sk Ã©ho
Ġhe le
ĠáĥłáĥĿáĥĴ áĥĿáĥł
ĠØ± ÙĬ
Ġapp ly
ĠáĥĽáĥ® áĥĿáĥļáĥĿáĥĵ
ëŁ ¼
á½ ¸
Ġpar f
Ñĳ Ð¼
Ġex act
Ġdo it
æŃ Į
Ġtot al
æŀ Ĳ
Ïģ Ïį
ĠM od
ac jÄĻ
Ġà¤ª à¥Ī
ãģĹãģ¦ ãģĬ
ä¸Ĭ ãģĴ
ĠÐ¿Ð¾Ð» Ð¾Ð¶
Ġsa voir
ĠØ¯ ÙĨÛĮ
uj emy
à· Ķ
łà¸ ±à¸
Ġtrabal h
Ġà¤µ à¤¿à¤ķ
Ġgrow th
Ġter baik
à¹Ĥà¸ ¥à¸
Ġgr ound
Ġfa il
Ġle ave
Ø³ Ø§Øª
çĽ ĺ
ÙĬÙĨ ÙĬ
Ġà¦¬ à¦¿à¦°
Ð¾Ð² ÑĭÐ¹
ÑĢ ÑĮ
Ġr ap
l Ã¼k
fÃ¼ g
A CI
ĠÙ¾ ÙĨØ¬
íķĺ ì§Ģ
çĶµ æ¸¸
ĠÐĳ ÐµÐ»
ãĥ¼ãĥĵ ãĤ¹
ick Ã½
äºº æ°Ĺ
s m
Ġè ·
Ð¾Ð» ÐµÐ²
Ġáĥ¡áĥĲáĥ Ķ
à¦¾à¦ Ń
Ùģ ÙĤ
fahr en
ta v
ÑģÑĤÐ² Ðµ
ĠØ£ Øº
Ġëĭ ¬
Ġcho ice
à°¨ à±įâĢĮ
og le
Ġ à¹Ħà¸Ķà¹ī
Ġsa ve
Ġà§ §
ëĬĶ ëį°
ĠÐº Ð¾Ð¶
Ġà¸ ¢
Ð° ÑĦ
A V
Ġpo zy
ll om
Ø¯ Ø§ÙĨ
à°¿à° ¦
ĠÎ¬ Î»
Ã© ro
ien st
Å¡ en
Ġekstra utstyr
ÙĨØ¯ ÙĤ
Ð¾ÑĢ Ñĭ
ĠØ§Ø± Ø³Ø§ÙĦ
ØŃ Øª
e ÅŁ
Ġul aÅŁ
Ġà¦ķ à¦²
ag ed
Ġco ol
éĻ ©
Ġh uis
ĠÎ» ÎµÎ¹ÏĦÎ¿ÏħÏģÎ³
Ġcharact er
ç½ Ĺ
ĠÏĢ ÏģÎ¬
Ġà®ķ à®¾à®°
Ġà¦ªà§įà¦° à¦¶
èĳ ī
A T
à°¾à° ·
Ġãĥ ¢
Ġcon v
è¯ Ĩ
Ġáĥĵáĥĺáĥĵ áĥĺ
Ġà§§à§ ¦
ĠÎ¼ÎŃ ÏĩÏģÎ¹
Ġà¤¸ à¤Ńà¥Ģ
wa Äĩ
ĠÑĢ Ð°Ð½
ĠÐ¡ Ð²
Ã¢ ng
ĠØª ØŃØ¯
h Ã¤lt
ent ing
ªà¸´ à¸Ļà¸
Ġz Ã¡v
Ġa quÃŃ
Ġen k
f ang
ĠN aj
Ġrece ived
åº ĥ
l iy
Ġà¦ªà§ģà¦² à¦¿à¦¶
ÑĢ Ð°Ð»
Ġáĥ¡áĥĲáĥ ĸ
w here
ĠF oll
Ġpro bl
il ang
Ġíķľ ëĭ¤
it ud
Ġp icc
ĠÐŁÑĢ Ð¾Ð´
had ap
Ġam azing
Ġpos ible
åĪ ¤
ĠÙħ Ø¬ÙĦØ³
ĠA re
ĠÐº Ð°Ð¿
Ġd ung
åħ «
ot ros
ĠØ§ÙĦØ¹ Ø§ÙħØ©
Ġquick ly
Ðł ÐĲ
Ġh ÉĻy
×ª ×Ķ
Ġ×Ľ ×©
Ø¨ Ø§Ø¨
à¹ Ĭà¸
Ġê¸ Ī
sp ÄĽ
ĠØ¨Ø± ÙĨØ§ÙħØ¬
ĠÑĢ ÐµÐ¶
Ġà®ª à®¾à®¤
«à¸Ļ à¹īà¸²
åĪĨéĴŁ å¿«ä¸ī
g em
ĠÑģÐ¸ÑģÑĤÐµÐ¼ Ñĭ
1 7
ìĬ¤ íĬ¸
ĠÐ´ Ð¾Ð²
Ġdes cu
f re
Ùİ Ùħ
Ġus o
ĠæĹ ł
Ġyap Ä±lan
Ð»Ñı ÑİÑĤÑģÑı
Ġp Ãºbl
Ġé ļ
un ici
Ġíķĺ ëĤĺ
Ġopt ion
Ġkom mt
ĠæŃ ¤
Ġn á»ķi
ir st
ot ograp
ĠÙĦÙĦ ØŃ
Ġåĩ º
Ġnh iá»ĩm
íĻ ĺ
å¼ µ
az z
ĠØ§ÙĦ ÙĦÙĬ
emb ali
uel le
á»Ń i
ĠF emme
à¤Ĥ à¤ª
Î¿Ïį Î¼Îµ
áĥĺáĥłáĥ ĵ
ĠPro ble
ĠÐ¡ ÐºÐ°ÑĩÐ°ÑĤÑĮ
Ð°ÑĢÑĤ Ð°
Ġà°ħ à°¨à°¿
Ġmarket ing
Ð¸ÑģÑĤÑĢÐ° ÑĨÐ¸Ð¸
à¤¯ à¥ĩ
Ø¨ ÙĬØ±Ø©
ä½ İ
Ġê°Ģ ê²©
Ġq ey
Ġol ur
Ġb Ã¥
è¶³ çĲĥ
ĠíĶĦ ë¡ľ
æľ ĥ
Ġn orm
Ø¹ Ø§
Ġsc reen
Ġl inda
Ġv endita
ĠÐ¿ÑĢ Ð¸Ð´
ĠÎ³ ÎµÎ½
Ġ×Ļ ×ĵ×Ļ
ĠÏĥÏħ Î³
ĠB áº¡n
ĠØ¨ÙĪ Ø§Ø³Ø·Ø©
Ġà¤¸ à¤¹
ĠÚ©Ø§Ø± Øª
Ġå¹ ³
ĠÎ´Î· Î¼Î¹Î¿ÏħÏģÎ³
×¡ ×ĺ
Ø¹ÙĦ Ø§Ùħ
ĠK ont
ĠØ® ÙĪØ´
Ġbook s
Ġæ Ħ
Ġt áº¥t
ìĨ ¡
áĥĲáĥ «áĥļ
Ġëį °
Ġcol lect
b ol
Ġc ur
Ġì° ½
Ġac onte
ãĤĪ ãģŃ
Ġáĥ £
Ġz ach
Ġà°Ĺ à±ģà°°
Ġb arn
çı Ń
r ir
Î¸ Î¿
Ġeff ici
ĠØ¢ Ø°
ĠF all
ĠwiÄĻ c
ãĤĦ ãģĻ
Ġpart ir
Ġb ase
ĠÑģÐ¾Ð² ÑĢÐµÐ¼
Ġvar iety
Ĭ à¸µà¸
Ġ áŀ
Ġbeh ind
un ter
ļ à°¿
ra Ã§Ã£o
ÎŁÎ ļ
1 4
ĠØ¨Ø§Ø´ ÙĨØ¯
æľ¬ éģĵ
Ġpr ior
Ġk onn
r ÉĻ
Ð°Ð»ÑĮ Ð½Ð¾Ðµ
Ġc aus
sk er
Ã¶ s
Ġm Ã¶glich
ĠØ§ÙĤØªØµ Ø§Ø¯ÛĮ
Ġdisc over
å®ī è£ħ
´ ī
ĠÐ²Ñĭ Ð³
Ã¤ h
Ġà¤Ĩà¤ª à¤ķà¥ĭ
Ġé ĥ
Ħà¸£à¸Ķà¸´à¸ ķà¸
Ġì ´Ī
Ġ ãģĹãģĭ
Ġà®¤à¯Ĭà®Ł à®°
áĥ£áĥ ¥
ĠP al
Ġch ÃŃ
Ġà¦Ĩ à¦Ľà§ĩ
ilm ÉĻsi
ĠØ£ ÙģØ¶ÙĦ
Ġm ulig
ick Ã¡
ç´ į
ĠÎĳ Î³
lar dan
ĠÎºÏħ Î²
Ġrencont re
Ġnive l
Î´ Î¯
ÐµÐ¼ Ð°
Ġ Ã¼n
éĿ ł
Ġkom t
t id
Ġstand ard
Ú¯ ÙĪÙĨÙĩ
àµįà´ °
à¦¤ à¦¾à¦°
Ġpag b
ĠÙħÙĨØ§Ø³ Ø¨
v v
Ġs áº¯c
Ġà° ĵ
Ġed er
Ġv in
if ikasi
Ġ×Ĳ ×¤×©×¨
Ġvo it
Ġg ek
æı Ľ
j Ã¸r
à¹ģ à¸Ļà¸
Ġm urah
Ġchu áº©n
à¹īà¸²à¸ ĩ
ĠØ§ÙĦÙĪÙĤ Øª
ĠD alam
ĠØ§ÙĦØ¯ ÙĪÙĦØ©
Ġà¤¬ à¥Ī
ĠÐ´ Ð¾Ð³Ð¾Ð²Ð¾ÑĢ
ĠÙĩØ§ ÙĬ
Ġcont rib
as Ä±nÄ±n
Ġgr acias
ĠØ§ ÙģØª
ĠÑģ ÐµÐ¹ÑĩÐ°Ñģ
ĠN el
Ġgener al
r if
Ġ ÙĢ
Ġà®µ à®¿à®°
ĠÃ ħ
w al
ĠÐ²Ð¸Ð´Ðµ Ð¾
Ð¸Ð»ÑĮ Ð½Ð¾
Ġni ya
Ġà°° à°¾à°ľ
Ã¡ k
ip os
àµģà´ Ĥ
ar o
ĠØ±Ø§ÛĮ Ú¯Ø§ÙĨ
áĥĶáĥĳ áĥĿáĥĵáĥĲ
Ø§Ø¨ Øª
Ġæī Ģ
à±ģà° Ł
ĠÐ¸Ð¼ ÐµÐ½Ð½Ð¾
Ġs adece
ĠP L
Ġlos s
Ġde pois
ĠØµ ÙĪØ±
Ġno i
Ġpre p
ĠÐ¾ÑĤ Ð´ÐµÐ»
ÙĦÙĬ ÙĤ
ĠÂµ ÃĦ
ĵ ľ
è¡¨ ç¤º
ĠØ¯Ø± ÙħØ§ÙĨ
or io
ĠVer b
ï »¿
Ġall ows
Ġm áº¡ng
ĠM Ã©
ĠØª Ùĥ
Ġ ill
ĠÙħØ§Ø´ ÛĮÙĨ
Ġnie uw
ÉĻh ÉĻr
Ð¿Ð¾Ð» Ð¾Ð¶
à¦¬ à¦°
h ib
Ã¡ Å¾
Ġsh ows
ĠÎº Î¿Î¹Î½ÏīÎ½
ĠÐ· ÐµÐ¼
Ġ ãĦ
ĠÙĪ Øµ
Ġza Äį
Ġn ye
Ġans wer
Ġgi ov
ÑĭÐ² Ð°ÑĤÑĮ
Ġnuov a
Ġil iÅŁ
ÄŁ ret
áĥĶáĥĳ áĥĶáĥľ
ĠdÆ°á» Ľi
ijden s
s h
ĠÑĤÐ°Ðº Ð¾Ð¹
Ġout ras
ow iÄħ
Ġos Ã³b
ĠØ§ÙĦØ¯ Ø±
ĠAl le
Ġn ature
ĠÐĹ Ð°Ðº
Ġà¤« à¤¿à¤²
Ã¸ d
ĠPers on
Ø´ ÙĬ
ĠH ar
f ern
Ġmod ern
ÑĢÐ° ÑĪ
ĠØ§ÙĦØ¨ ØŃ
æŀ ģ
Ġa chter
d re
Ø§Ùĩ ÛĮ
ÏģÎ· ÏĤ
×Ĺ ×ł×ķ
l ov
Ġsn el
ent re
Ġalt ijd
Î¼ Î±Î¹
ĠØ§ÙĦØ§ÙĨ Øª
ë¦¬ ê³ł
ĠB akan
Ġ×Ķ×ŀ× Ĺ
ĠÏĩ ÏİÏģÎ±
Ġpre gun
ci u
×ŀ ×ľ
Ñģ ÑĭÐ»
ĠTh u
ĠØ§ÙĦÙĤ Ø¯
Ġd unia
Ġread ing
ÑĨÐ¸ ÐµÐ¹
Ġn ing
ĠB ere
à°¸ à±įà°Ł
ãģį ãģ¾ãģĹãģŁ
k ara
Ġz wiÄħz
ĠÎ¼ Î¬
ĠÙĨ Ø§ÙħÙĩ
ĠÙħ Ùĥ
æİ ¢
ĠèµĮ éĴ±
Ġ ä¹ħä¹ħ
Ġserv icios
Ġáĥ Ń
ÑģÑĤ ÑĥÐ¿
Ġ ÉĻn
) )
ten e
ĠB est
Î½Î¿ Î¹
Ġnost ra
à¦¾à¦® à¦²
Ġle ven
ĠÐ·Ð´ ÐµÑģÑĮ
ĠÑģÑĤÐ¾ Ð¸ÑĤ
é ²
×Ľ ×ł
ĠT uy
ĠÐĴ Ð»Ð°Ð´
res se
ÙĪÛĮ Øª
ÙĨ Ø§ÙĨ
ĠÙĪ ÙĦÙĬ
Ġå ģ
ĠØ§ÙĦØ¥ Ùħ
y la
Ãºm ero
áĥł áĥĲ
äºº ãģĮ
Ġv uel
ĠpÅĻÃŃ pad
Ġag li
Ġa ku
ĠëķĮ ë¬¸
äºĮ æīĭ
Î» ÏĮÎ³
Ġn om
ĠÑĤÐµÑĢ ÑĢÐ¸ÑĤ
9 8
ĠØ®Ø§ÙĨ ÙĪ
Î´ ÎŃ
Ġfam ilia
at ro
Ġcu is
Ġaus ge
y ang
Ġsv Ã©
Ð¸ÑĢÐ¾Ð²Ð°Ð½ Ð¸Ñı
áĥĲáĥķáĥ¨ áĥĺáĥł
Ġpom oc
Ġà¤ª à¥ģà¤²
Ġà¦ªà§įà¦° à¦¥à¦®
Ġpot rze
Ø² Ùħ
ĠA ve
Ġà¦ķ à§įà¦°
ĠØ§ÙĦØª Ø³
à§ģà¦ ľ
à¥ĩ à¤°
ÙĪ ÛĮÙĨ
ĠUn ivers
Ġwy st
aci dad
n ingen
Ġc ode
ÐµÑĪ ÑĮ
ÉĻb ÉĻr
Ġan ti
ĠÑģ Ñĭ
Ġ' ,
c Ã¼
an ita
ed or
Ġ×Ĳ ×Ļ×ł
ĠåĽ Ľ
Ð½ Ñİ
Ġ×ł ×ª
au en
Ø§Ø° Ø§
ĠÐ°Ð² ÑĤÐ¾ÑĢ
à§ĩà¦¬ à§ĩ
ĠA ct
Ġà¤Ĺ à¥įà¤°
Ġà¸ ģà¸²à¸£
é¦ĸ é¡µ
Ġo sob
Ġni Ã±os
à© °
Ð² Ð°ÑĤ
Ġth Æ°
ÐµÐ½ Ð½Ð¾Ðµ
Ġà¦ªà¦¾à¦° à§ĩ
Ġpr os
ĠáĥĽ áĥĿáĥķ
ë¦ ¼
å¤ļ å°ĳ
Ġà¦¬ à¦¾à§ľ
ÉĻn i
ed Ã¬
ł áł
Ġn ouvelle
Ġ×Ķ ×¨×Ĳ×©
Ġà¦Ĺ à¦¤
Ġch á»ĳng
å ª
Ġwe il
Ġà¤Ł à¥Ģ
Ġg á»įi
Î¼ Î¯
Ġå° Ĩ
Õ¡Õ £
Ġà¨ ¸
ĠØ§ÙĨ ÙĤÙĦ
cher s
à¹Ģà¸ Ĺ
ĠÏĨ Ïī
ç¦ »
Ġà°ª à°°à°¿à°
ĠÐ»ÑĥÑĩÑĪ Ðµ
Ġl ower
Ä± b
ĠÑģÐ²Ð¾ ÐµÐ¹
Ġdirect ory
Ġs f
ÙĢÙĢ ÙĢ
Ġam b
Ġc ant
ler inde
à´ ¨
à¤§ à¥įà¤¯à¥ĩ
an ne
Ø§Ø³ Ùħ
Ġmem p
aj o
Ġå¾ ·
ĠÙĪ Ø§
ÎŃ ÏģÎ±
Ġwor ds
Ð°ÐµÑĤ Ðµ
ĠÐ°Ð² ÑĤ
ÙĬØ§ÙĨ Ø©
ĠF in
n ice
Ġë³ ¸
æĸ¹ æ³ķ
Ġl ives
ĠÃ¶z el
owan ych
Ġn Ã¡m
Ġan im
Ġf ac
ĠÐ½ÐµÐº Ð¾ÑĤÐ¾ÑĢ
à¹Īà¸²à¸ ¢
ĠE very
ĠØ¬ Ø¯
éĽĨåĽ¢ å®ĺç½ĳ
Ġpeu vent
Ġà¤ļ à¤²
ĠØ§ÙĦØ¥ ÙĨØ³
il ÉĻ
ãģĦ ãģªãģĦ
Ġëª ħ
ãģį ãģª
ÃŃ lia
Ġ×ŀ×Ĺ×Ļ×¨ ×ķ×Ł
à±ĩà° ®
l le
Ġìŀ ĺ
çŃ ĸ
WW WW
Ħ à¸£à¸±à¸ļ
Ġé £
ĠY eni
Ġtar get
ĠA I
Ġatt ravers
ĠÐ½Ðµ Ñģ
ÑĥÐ¶ Ð´
Ġh ol
ĠÐ³Ð¾ÑģÑĥÐ´Ð°ÑĢ ÑģÑĤÐ²ÐµÐ½
Ġest ud
Ġt iáº¿n
Ġin izi
Ð¸ ÑĨÐ¸Ð°Ð»ÑĮ
ÃŃ veis
ien ne
or do
ĠØ§ÙĦØ§Ø¬ ØªÙħØ§Ø¹
ĠØ³ Ø®
Ġcom mer
ĠÐ³Ð¾ÑĢÐ¾Ð´ Ð°
en der
×ķ×¨ ×ļ
ï½Ĺ ï½Ĺ
Ġq verpgbel
ĠA B
gr ama
Ġnos so
å¨ ģ
Ġprodu ction
ãģ¨ è¨Ģ
Ġd entro
Ġat rav
Ġà®ĩà®¨à¯įà®¤ à®¿à®¯
usaha an
Ã¼t Ã¼n
Ġlat est
Ġup on
Ġm ix
Äį it
Ġà¸ Ī
åħ ħ
Ġ9 0
az ar
ĠÑĢÐµÐ³ Ð¸Ð¾Ð½
Ġspiel en
he ter
Ġk re
Ġm inh
ĠÐºÐ²Ð°ÑĢÑĤ Ð¸ÑĢ
w ick
Ġterj adi
Ġad ik
Ġà®ĩ à®¯
z ug
Ġs lu
us i
ãĤ¤ ãĤ¹
at ica
av ing
Î¬ Îº
×ĺ ×Ļ×Ŀ
a akt
Ġg áº·p
ĠÂ ¢
ĠK le
à¤¹ à¤°
ĠS a
ĠÙģ ÙĤØ¯
ĠD urch
ĠÙħØŃØµÙĪÙĦ Ø§Øª
Ġ201 0
Îº Î¿Î»
è¾ ĵ
Ġl alu
ĠÑį Ð½
à¶ ¸
ĠÎ¿Î¹ÎºÎ¿ Î½Î¿Î¼
Ġà®ª à®¿à®±
ĠC r
Ġà¤« à¤¿à¤°
ĠbaÄŁ lÄ±
à´ ³
è¦ ı
ĠÐ² Ð¾ÑģÐ¿
Ġà¤¸ à¥ģ
à®¾à®² à¯ģà®®à¯į
Ø§Ø¦ ÙħØ©
Ġtr att
ĠÏĢ Î»Î±
ĠQu Ã©
Ġà¦īà¦ª à¦ľ
Ġdes cription
atÃ¼r lich
å® ħ
Ð¸ÑĤ Ñĭ
Î¶ ÏĮ
ific aciÃ³n
Ġg leich
à¤¾à¤· à¥įà¤Ł
Ġà¦¨ à¦¿à§Ł
Ĺà¸µà¹Īà¸ ªà¸¸à¸Ķ
Ġ×ł ×¢
áĥĶáĥ £áĥļ
ãĥ³ ãģ®
ĠÐ½ ÐµÐ³Ð¾
ä¾ Ŀ
Ġt im
Ġto ld
ĠF orm
Ġd ahil
åħ °
Ġè °
Ð¾Ð¹ Ð´
Ġmem ang
ĠD amen
åı Ī
Ġáĥ¬ áĥ§
ak ty
ĠÏĥ Î®Î¼ÎµÏģÎ±
Ġc y
à°¤ à±įà°¯
dit ions
u Ã§Ã£o
ØŃ ÙĤ
Ġà¸ ¢à¸
Ġprodu ctos
ĠÐ¿ÑĢÐ¾Ð² ÐµÑĢ
k je
íĶ Į
ĠÐ± Ð»Ð¸
Ġs ens
Ġáĥł áĥĶ
iÃªn cia
Ġet k
Ð½Ð¾ Ñģ
ĠÄ° Ã§
ĠÙĪØ£ ÙĨ
ik ker
Ġem bar
ĠÏĢ Î¯
à¤¿à¤ ·
Ġd onn
Ġà¦¸ à§ĩ
æĹ ı
Ġà¤ķ à¤Ī
áĥ ©
ĠV e
Ġpl atform
Ġinclud ed
Ġà¦ªà§įà¦°à¦ķ à¦¾à¦¶
Ġ×ĳ ×Ļ×ķ×ª×¨
ç¼ ĸ
çī Ľ
Ġh áº¡n
Ð» Ñĭ
ĠÐ¼ Ð°Ñģ
Ġæµ ·
Ð°Ð· Ð°Ð½
à°¯ à±įà°¯
Ø® Ø´
u ale
Ø§Ø¦ ÙĤ
Øª Ø§ÙĨ
Ð°Ð» Ð°ÑģÑĮ
Ø§ÙĦ Ø«
ier i
Ġà¤Ĩ à¤µ
Ġáĥ£áĥ Ľ
Ġ×ł ×©
èĩª åĪĨ
Ġweek s
ul es
· ¨
ëŀ Ģ
ĠÑģÐ²Ð¾ Ñİ
å¤ ®
ÙĬ Ø§Ø±Ø§Øª
y pe
Ġdis se
is inde
Ġà¦¤ à¦¾à¦ģ
n ings
Ġhá» ¯u
us us
ãĤ¤ ãĥī
ĠÙĪØ§ØŃ Ø¯
Ġsu i
Ġfor s
×ĵ ×ª
owan a
m ie
Ġbes ten
Ġy Ã¼ksek
Ø§Ø¦ Ùħ
Ġsv il
Ø³ ÙĨ
ĠâĻ ª
Ġà§© à§
ìĻ¸ êµŃìĿ¸
Ġpurch ase
Ġéĩį åºĨæĹ¶æĹ¶å½©
Ġrec ent
Ð± Ð°
çµ ¦
Ġc Ã¢u
ĠÐ·Ð°Ð² Ð¸Ñģ
ĠÙģ ØµÙĦ
Ġ6 0
Ð°ÐºÑģ Ð¸Ð¼
ĠtÉĻ ÅŁ
ĠÙ¾Ø±Ø¯ Ø§Ø®Øª
ain es
ãĤ¢ ãĥ«
Ġse telah
Ġper mainan
ĠØ³ Ø§Ùħ
Ġà®¨ à¯ĩà®°
ĠáĥĻáĥĿáĥĽ áĥŀ
å¼Ģå¥ĸ ç»ĵæŀľ
Ġh ui
à¹Ģà¸ Ĭ
à®¾à® Ļà¯įà®ķ
Ġn atuur
Ġm áº¥t
Ġgro ot
Ġentrepr ise
Ñı Ñħ
à±Ĩ à°Ł
uh kan
ĠÐ¼ÐµÑģÑĤ Ð¾
ĠN acional
ĠÐ¿ Ð¾ÑĤÑĢÐµÐ±
×ĸ ×ķ×¨
v ier
ve t
Ġint rodu
Ġt ÃŃm
ĠØ§ÙĦØ´ Ø±
Ġmateri al
ĠØ¹Ùħ ÙĪÙħÛĮ
Ġv n
Ġç Ģ
×Ļ×ł ×ª
Ġmateri als
ĠØ¢ Ø´
Ġà¤Ĩ à¤¦
Ùİ Ø¯
Ġà®ļ à®¿à®²
ÙĬ Ø§Ø±
ild ir
Ġ á»
×Ļ×¨ ×ª
ĠÙĬ ÙĪÙĨ
èī º
Ġkh ÃŃ
Ħà¸ ´à¸
Ġinform asi
Ġloc ation
Ð°ÑĢ Ð¾Ð²
à· ĥ
ĠØ¨Ø± ÚĨØ³Ø¨
ãģĵãģ¨ ãģ§
i w
Ġintern ational
ĠÃľ n
ĠP as
Ġà¤® à¥Ī
ĠØ§ÙĦ ÙģØª
ĠÙħØ§ÙĨ ÙĨØ¯
Ġpagg amot
ĠM ore
ors a
Ġho ch
Î» Î¯Î±
Ø± ÙĬØ©
3 8
ĠR Ã¼ck
Ġan lam
Ġa vere
ãĤī ãģªãģĦ
Ġt ÃŃn
ĠÙħÙĤ Ø§ÙĦÙĩ
f Ã¼r
i ers
Ġris ult
Ġ áº¥y
ç Ĩ
à¥ĩ à¤¦
Īà¸ °à¹Ģà¸
Ġb onne
Ã± as
Ã ¿
ØŃ Ø§Øª
Ġst os
Ġe lla
à© ĭ
ill er
Ġà¦ĩ à¦¸à¦²
ĠÐ¤ ÐµÐ´ÐµÑĢ
Ã´ le
Ġt ych
à¶ ļ
Ġag ora
Ġm ientras
Ø¶ Ùħ
ĠSt and
ãģĿ ãĤĮ
Ġáĥ¨áĥĶ áĥĺáĥ«áĥļ
à§ģ à¦Ł
ãģ¸ ãģ®
Ġlang u
ĠÑģÐ¾ÑĤ ÑĢÑĥÐ´
Ġì§ ĳ
ĠSp ort
ĠÎľ Î±Ïģ
Ġx Ã¡c
Ñĩ ÐµÑĤ
à¯ģà®³ à¯į
lÃ¼ ÄŁ
Ġcomput er
Ġï¼ Ĵ
à¦°à§įà¦ ķ
ĠPr aha
cz ki
os ition
Ø§Ùĩ Ø¯Ø©
à¥Ģ à¤°
Ġel k
å¥³ æĢ§
Ġt ao
ÃŃ cio
ĠÙ¾ÛĮ Ø§Ùħ
ÐµÐ» Ð¸Ðº
ck e
ĠT or
Î´ ÏģÎ¿
Ġwe ight
Ġ×ª ×©
Ġgro te
ĠG ro
Ġà®ķ à®µ
ãģ« è¡Į
Ġáĥ§ áĥĿáĥķ
Ġequ ipment
Ġc Ã¢y
ĠÙĩ ÙģØªÙĩ
ĠSe p
Ġ Ã¡p
Ġexp ress
ic les
Ġcon ditions
Ġå¿ «
b il
lar la
Ġab biamo
Ġme ine
Ġprod otti
Ġprogram s
ĠÙħÙĪ Ø¬ÙĪØ¯
Ġà¤¸ à¤¿à¤Ĥ
Ġspe ed
Ġ×© ×Ŀ
ĠÏĮ ÏĩÎ¹
à¤°à¥įà¤ £
amb ar
Ġprovid ing
Ġz ij
ys is
b ility
Ġà¦¶ à§ĩà¦·
à¨ ¤
uk ha
ĠØ§ÙĦØ® Ø§ØµØ©
Ġprem iÃ¨re
à¥ī à¤²
ien za
Ġserv izio
Ġ ãģĻ
Ġéķ ·
à°¿à° ·
Ġà¦ķ à¦¿
áĥĺáĥ¢ áĥĶáĥ¢
ÑģÐº Ðµ
ĠÑģÑĤÑĢÐ¾ Ð¸ÑĤÐµÐ»ÑĮ
ish ing
à®¿à®© à¯įà®©
Ġbel um
ĠÐ½Ð°ÑģÑĤ Ð¾ÑıÑī
Ġ Ã³
at ors
Ġk iá»ĥm
ìł Ī
Ġ×Ĳ ×©×¨
Ġ×ł ×Ľ
Ġr ound
ĠØ§Ø¨ Øª
Õ¡Õ °
ĠâĹ ı
Ø² Ø¨
Ġmar s
Ġm ata
Ġåı ª
ÙĪ Ø§Ø±Ùĩ
aw ala
Ġm ut
Ú© Ø§Ø±ÛĮ
ri ff
ĠØ¹ÙĨØ¯ ÙħØ§
he ad
Ġann oun
ĠÐļ Ð¾ÑĢ
Ġy en
ĠÑģ Ð¾ÑģÑĤÐ¾
Ġà®ķà¯Ĥ à®Ł
os yal
Ġáĥ¡áĥĲáĥ ĺ
ici as
å± ħ
Ġ ud
Ġf ig
à¥įà¤ ļ
Ġcu c
Ġ×Ĳ ×ļ
à®° à¯įà®µ
t r
à¦¬ à§ĩà¦¨
Ùħ Ø³
é£ŀ èīĩ
ÙĪÙĨ Ø©
Ġpers onne
Ġkel u
ĠÐ¿ÑĢÐµÐ´ Ð»Ð°Ð³
ĠÙħÙĨ Ùĩ
.. .
ĠÐ´Ð² ÑĥÑħ
Ġb Ãł
ÙĦ ÙħØ§ÙĨ
on ych
áĥĵ áĥĶáĥ¡
hl t
Ġm ul
R I
it are
ĠÎ² ÏģÎ¯
lar Ä±nda
Ġ} ,"
Ġç ¦
Ġm á»Ł
Ġto wn
ÙĨØ¯ Ú¯Ø§ÙĨ
ãĤ ¼
Ġdies en
ĠÙĪÛĮ ÚĺÙĩ
ìĦ¸ ìļĶ
ĠØ§ÙĦØª ÙĤ
Ġres te
ë³ ´ë
Ġf Ã©
Ġbo ard
ĠThank s
Ġå¼ ł
gen de
ĠáĥĻ áĥĲáĥłáĥĴ
S I
à¤ķ à¥ĭà¤Ĥ
ug no
Ġ×ĸ ×Ĳ×ª
ĠáĥĲáĥķ áĥ¢
ven ir
Ġcent ro
Å¡ÃŃ m
Ð¾Ð´ Ðµ
ĠÐ²Ñĭ ÑħÐ¾Ð´
ĠÐ´ÐµÐ½ÑĮ Ð³Ð¸
ÐµÐ½ ÐµÑĢ
ÄĽ st
ë° °
ĠGen el
à¥įà¤¯ à¤¾à¤¸
ck er
ĠÐŁÑĢ Ð°Ð²
Ø²Ø§Ø± Øª
à¥įà¤ ¬
Ġg Ã³
åħ »
Ð»Ñı Ð´
ĠíĻ ľ
ĠÐ¾Ñģ ÑĥÑīÐµÑģÑĤÐ²
ÐµÐ½ Ð·
T ype
ĠprÃ³ x
ĠÐ¾Ð±Ð¾ÑĢ ÑĥÐ´
à°¾à° ¹
à®¿à®Ł à®®à¯į
ãģĶãģĸ ãģĦãģ¾ãģĻ
à¤¾à¤ ī
Ð°Ð¶ Ð°
Ġcost s
ĠÐ´Ð² Ð°
Ġå ķ
Ġtr áº£
Ø§Ø¹ Ø¨
Ġein mal
Ġà¦Ĩ à¦¦
Ġnecess ary
ta ur
ĠÙĪØ§ÙĦ ØªÙĬ
å¾ ħ
Ġè ©
åĪĨ pk10
Ġnh u
Ġj ul
ÙĥØª ÙĪØ±
Ġver l
Ø¹ Ø§Ø¯Ø©
ier to
Ùħ ÙĨØ¯
Ġkur ul
è§Ħ å¾ĭ
Ġä¸ »
on da
for der
Ġda zu
Ġtan pa
Ġsem ana
Ġ×ŀ×Ĳ ×ķ×ĵ
ÏĢ ÏĦÏħ
ĠÙĤ Ø¯Ø±
áĥĲáĥĵ áĥĺ
áĥĺáĥĵ áĥĲ
à®² à®ķ
s Ä±z
Ġfl ow
ĠÐ²Ð°ÑĢÐ¸ Ð°Ð½ÑĤ
Ð°ÑĢ Ð°
Ġà®ķ à¯ģà®Ł
Ġà¦¨à¦¿à¦°à§įà¦¬ à¦¾à¦ļ
Ġç Ń
Ġpor te
Ø· Ø¨
g ot
áĥĶáĥĳ áĥĹ
Ġver b
con Ã³m
èĸ ¬
çķ Ļ
ĠApr il
jÄħ cy
Ġaf in
ĠÎŃ Î½
ĠÐ¿ÑĢ Ð¾Ñĩ
ãĢ Ĭ
ë¦ ī
áĥĹ áĥ®áĥķ
or age
ce ed
Ġà¦¸ à¦ķ
à®² à¯įà®µ
ĠÐ¾Ð± ÑĢÐ°ÑĤ
i ÅĤ
Ġin ve
Ġãĥ ¯
Ġm am
×¦ ×ķ×¢
os o
áĥĿáĥľ áĥĺáĥ¡
à°ķ à±įà°¤
ze j
ĠÐ¼ Ð¾Ð»
Ġv ak
Ø§Ùĩ Ùħ
ĠÐ¿ ÐµÑģ
pe z
Ġlook s
Ġcent er
b ab
ar ÃŃa
Ġseg Ãºn
ĠpÅ¯jÄį ka
ĠØ´ÙĪØ± Ø§ÛĮ
Ð Ń
ĠØ§ÙĦØªØ¹ ÙĦÙĬÙħ
ĠÙħØ¯ ÙĬÙĨØ©
Ã¨ ne
Ø§Ø® ØªÙĩ
ĠÄĳ Ãºng
ĠHo ch
Ġpat ients
Ã©r ation
à±Ģ à°¯
Ġhe n
ĠáĥĶ áĥļ
Ġh om
ain s
ÙĦÙĬ Ø§Øª
ÐµÑĢ Ð½
Ġpel ÃŃcul
Ð¼Ð¾ÑĤÑĢ ÐµÑĤÑĮ
ÙĪ Ø§Ø¡
Ġdes t
ľ ëĵľ
d ur
Ġsa f
yak it
ĠI I
ĠA ir
Ġsh op
Ġof ere
ĠN ero
w ikk
æ´» åĬ¨
ĠÙĪ Ø²Ø§Ø±Øª
ï¼ Ķ
a je
ĠK ung
Ġin ten
ĠÐ» ÐµÑĩ
ĠÙħ Ø§ÙĦÛĮ
i al
çłĶ ç©¶
ī ´
ĠÐ·Ð°Ðº Ð°Ð·
Ð°ÑĢ Ð¾Ð´
Ġmed ical
Ħ à¸Ļ
×Ľ ×Ł
Ġà°µ à±Ī
Ġm ily
ĠáĥĲáĥ® áĥĲáĥļáĥĺ
áĥĲáĥłáĥ Ļ
áĥĿáĥĳ áĥĺáĥĹ
ÐµÐ½ Ð½ÑĭÐ¼
ĠP utas
le g
Ġs Ä±k
à¦¾à¦ ł
ĠÐ¿Ð» Ð¾Ñī
Ġh Ã¸y
Ġãĥ ĵ
Ġ à¹ĥà¸Ļà¸
ĠÕ ½
ĠÙĦÙĪ Ø§Ø²Ùħ
Ġet m
ici a
ĠìĿ´ ìļ©
Ġsein er
Ġè ģ
ĠÛ ·
Ġwys ok
ĠÙħ Ú©
ĠÐ¿ Ð¸ÑĤ
à¥ĩ à¤®
×ķ×¨ ×¡
ĠÎĶ Î¹
Ġà¸ ¡
ĠU K
ĠæĪ Ĳ
ĠSt ates
áĥĿáĥĳ áĥļ
Ġu ang
ĠÐ½Ð°Ð· Ð²
Ġter hadap
ĠThe n
Ð¸ÑĢÐ¾Ð²Ð°Ð½ Ð¸Ðµ
åĸ ¶
ãĥ¼ãĤ« ãĥ¼
ĠM ost
ĠS au
Ġthu á»ĳc
ĠÃ¡re a
ĠÎ±Ïħ ÏĦÎ¬
d oor
Ġdi m
à¤¾à¤ļ à¥įà¤¯à¤¾
Ġ à¹Ħà¸
à¹Ģà¸ Ľà¹ĩà¸Ļ
ver o
Z W
Ġz ar
ĠÛ±Û ²
Ġbr asile
4 5
à¸£à¸µà¸ §à¸´à¸
Ĺ à¸£à¸
Ġb ahan
à® ·
ĠØ¢ Øº
ãĥĸ ãĥ«
æ¯ ı
ĠÐ¿ÑĢ ÑıÐ¼
ll ed
Ġs ang
ĠÃ¶ zellik
Ġme llom
Ġv ard
Ġter ms
à¦ ĥ
ĠO f
à¤µ à¤¨
á½ ¶
ĠìķĦ ìĿ´
Îķ Î¤
Ð½Ñı Ñı
Ġsc el
Ġket ika
çĶµ åŃĲ
p ovÄĽ
ÙĪØ³ Ø·
ĠÄĳ áº§y
ĠÙħØ³Ø¦ ÙĪÙĦ
×Ļ×ľ ×ķ×ª
Ġíĥ ľ
ĠÃ¼ st
ĠÙĩØ§ÛĮ ÛĮ
ÙĪ Ø§Ø¬
ke z
Ġab ility
Ġeff et
± Ħ
ĠÐ¿Ð¾Ð» Ð¸ÑĤ
nÄĽ nÃŃ
Ġserv izi
ĠãģĿ ãģĹãģ¦
Ġb ath
łà¸²à¸ ŀ
ĠçĶµ çİ©
Ġ\" :
Ġappro ach
ĠBer lin
Ġà¦¬à¦¿à¦ ¦
ian co
ĠÑĤÐ¾ÑĢ Ð³
è³ ¼åħ¥
ig es
Ġà®ª à®ķ
ê¹ Ģ
Ġproces o
Ġpr Å¯
Ġì ´Ŀ
áĥĶáĥľ áĥĺ
Ġ4 5
Ġpi Ã¨
à®¿à®ļ à¯įà®ļ
ÏĢ ÏĦ
à¤¾à¤Ĥà¤ļ à¥įà¤¯à¤¾
Ġs ort
áĥĲáĥĽáĥĵ áĥĶ
hn ed
å¸ «
×ķ×ĵ ×Ķ
ÙĦØ§ Ùĭ
Ġind ic
ĠØ§ÙĦØ±Ø¦ÙĬØ³ ÙĬØ©
ĠÑĢÐ¾ÑģÑģ Ð¸Ð¹
à© ±
ĠÑģÐ²Ð¾ Ð¸
Ġmom ent
Ġnuest ros
Ġt ÉĻs
Ġs ÃŃ
ĠÃ© conom
ĠÑģ Ð¸ÑĤÑĥ
ĠIn st
Ġæĸ ĩ
§ à¸Ļ
Ä±lm asÄ±
ĠØŃ ØªÛĮ
al o
ĠÙħØ¹ Ø±ÙģÛĮ
áĥĿáĥ ¥
Ġ= "
×¨ ×§
c ÃŃa
ĠÐ²Ð¾Ð·Ð¼Ð¾Ð¶ Ð½Ð¾ÑģÑĤÑĮ
Ġdifer entes
áº ¢
à¸£à¸°à¸ ļà¸
ĠÑĪÐº Ð¾Ð»
Ø¹ ÙĬØ¯
è´ ¢
ĠÐ¿Ð¾Ð² ÑĭÑĪ
Ġimm ag
ĠåĴ Į
us ch
ĠÂ ¯
Ð»ÐµÐ½ Ð¸Ð¸
ĠK ami
ì½ľê±¸ ìĥµ
Ġsit em
E D
×ķ ×ķ×Ķ
Ġsum mer
ç© į
ĠØ²ÙħÛĮÙĨ Ùĩ
Ġëł Ī
dek lar
Ì ĥ
èĩ ´
Ġà°² à±ĩà°¦
Ġìĸ´ë ĸ
er ah
Ġ) ;
ĠÐ¾ ÑģÑĤÐ°Ð²
ÏĢÎ¿Î¹ Î®
in Ã©
Ġany one
Î¹ ÏİÎ½
Ġmet tre
Ġprocess o
Ã¤ ÃŁ
Ġqu ali
ĠÙ¾ ÙĨ
Ġ" ØĮ
åİ ĭ
ÏĢ Î±Î¹
ĠÐ¸Ð³ ÑĢÐ¾Ð²
che id
ĠW est
ĠÐłÐ¾ÑģÑģ Ð¸Ð¹
pf e
ĠÐ·Ð´ Ð¾ÑĢÐ¾Ð²
ov en
ĠØ§ÙĦØ« Ø§ÙĨÙĬ
ĠÅ »
Ġq ur
Ġs lik
Ġà¦¬à¦Ľ à¦°
į ¼
Ġg dzie
Ġà§ ¬
ķà¹Ī à¸Ń
ĠØ§ÙĦØ¬ Ùĩ
ĠíĻ ĺ
Ð°Ð¹ÑĤ Ð¸
Ġc á»±c
Ġca use
Ġ×©×ľ ×Ķ
Ð°ÑĤ ÐµÐ»Ð¸
Ġ×Ķ×ĸ ×Ķ
£ Į
ĠSch ul
ĠØ³ ÛĮÙĨ
ÙĦÙħ Ø©
Ġí Ĵ
iyor uz
Ð°ÑİÑī Ð¸Ñħ
ĠA ÄŁ
Ġne g
Ġ 88
à°µ à°°
ä¾ ĭ
ÑģÑĤ Ð°Ð½Ð¾Ð²
×ŀ× Ĺ
icz ne
Ġfe ed
ĠÙħÛĮÙĦÛĮ ÙĪÙĨ
ah at
ĠGi Ã¡
ĠØ¯ Ø®
íħ Į
Ġay ud
ĠOs lo
Ãł m
Ġc Ã¡o
åģ ·
Ġcas ino
ĠíĨµ íķ´
áĥĶáĥ ¨
i ada
åĦ ª
Ġv ost
j ons
m m
ĠØ¹ Ø¶
E M
ãĥĹ ãĥŃ
ĠáĥĹ áĥĲáĥĽ
ãģ£ãģ¦ ãģĦãģ¾ãģĻ
Ġà¦ª à§Ĥ
ber e
Ġà´ ®
b es
Ġho og
Ġà¤®à¥įà¤¹ à¤£
à¹ģ à¸Ļ
o id
Ġad ire
Ġäºļæ¸¸ åĽ½éĻħ
ĠD on
æĻ º
Ø§Ùĩ Ø¯Ùĩ
Ġm io
ĠÐ½ ÐµÐ·
ch nik
ĠP ag
deklar asjon
ĠØ§ÙģØ² ÙĪØ¯
ĠÎĳ Îł
×¦ ×ľ
ĠÑĢ Ð°Ð±Ð¾Ñĩ
Ġv u
ãģª ãģŁ
g na
Ġ×Ķ×Ĳ ×Ŀ
íĸ ¥
ÏĨ Î¬Î»
ìľ¼ ë©°
ĠÂ ©
ÙĪØ± ÙĬØ§
Ġà¦Ł à§įà¦°
ĠéĢ ļ
Ġh acia
Ġà¦ıà¦® à¦¨
Ġte ÅŁ
åī ¯
Ġdost ÄĻp
Ġdis play
å° Ĥ
Ġhá» Ĺ
if i
ĠV ocÃª
ĠÄĳ áº¥u
he m
Ïĩ Ïī
Ġq ÉĻd
Ġne go
à¸Ļà¸± à¹īà¸Ļ
ĠÐ¼ Ð¾Ð»Ð¾Ð´
Ġtool s
ĠÐºÐ°ÑĩÐµÑģÑĤÐ² Ðµ
ĠM c
áĥĶáĥłáĥ ĵ
Ġà°Ĩ à°¯
Ġdiffic ult
ãģ«ãĤĪ ãģ£ãģ¦
ĠØŃÙĪØ² Ùĩ
ter dam
ĠØ§Ø³ Ùħ
çº¿ ä¸Ĭ
æĸĩ åĮĸ
áĥĹáĥ®áĥķ áĥĶáĥķ
Ġinter v
Ġlead ing
osi zione
Ġà¸ ¥à¸
Ġcoup le
Ġt it
n te
Ð¾Ð½ Ñĥ
ĠØ§Ø± Øª
j az
Ø³ÙĬ Ø·
Ġkad Ä±n
Ġlead ers
H U
Ġ. -
ta i
Ġmed i
ak ing
ĠÚĨ Ø±Ø§
Ø±ÙĬ Ùģ
ĠO m
ig ing
Ġm ies
ir ket
Ġ×ŀ× ŀ
ĠT ak
Ïģ Î¿ÏħÏĤ
ĠÐĿ Ð¸Ðº
Ġà¦ħà¦Ń à¦¿à¦
ĠÙģØ±ÙĩÙĨÚ¯ ÛĮ
che ter
Ø§Ùħ ÛĮÙĨ
Ä° Y
×Ļ×ľ ×Ļ×Ŀ
Ġseem s
ĠÐ° Ð»
ie me
à±Ģ à°ª
Õ £
Ġag re
Ġwork ed
Ġà®® à¯ģà®±
Ð¸ÑģÑĤ ÑĢ
Ġos p
Ġà¦ķà§ĭà¦¨ à§ĭ
Ġíİ ¸
Ġce lebr
is Ã£o
Ġáĥĵáĥ¦ áĥĶáĥ¡
ĠìĪ ľ
Ġkit chen
Ġà¸ Ĭ
ĠUn t
car gar
Ġdi gunakan
ĠâĢ ĭ
ĠgÅĤ Ã³w
Ġge v
ĠÑĤÐµÑħÐ½ Ð¾Ð»Ð¾Ð³
Ġto ch
Ġáĥ¨áĥĶáĥĺáĥ«áĥļ áĥĶáĥĳáĥĲ
ĠÎ¼ ÏĢ
Ø±ÙĪ Ùģ
re ichen
Ñı Ð³
à¦¬ à§įà¦¯
ĠØ§ÙĦØ£ ÙħØ±
è¯ ¥
Ġà¦¬ à¦¾à¦¸
Ġ×© ×Ļ×©
Ġsub ject
ĠáĥĴ áĥĲáĥ¡
ĠÐĿ Ð°Ð¿
Ġà¤¶ à¥ģà¤°
Ġsul le
ĠÐ² Ð¼ÐµÑģÑĤ
Ġnot hing
Ġv ÄĽt
ãģĹãģ¾ ãģĨ
Ġbed rijf
nis se
Ġdu a
Ġmemb antu
Ġc Æ°
Ð¸ÑĤ Ð°ÑĤÑĮ
à¦¾à¦² à§ĩà¦°
Ġsi ya
Ġrec ently
ĠÎºÎ±Î» ÏįÏĦÎµ
à®¿à®Łà¯įà®Ł à¯ģ
Ã¤ng er
íķĺ ëĭ¤
ed s
cc a
Ġcomp aÃ±
à°¿à°¤ à±įà°°
Ġprz ek
Ġrem ember
Ġf emme
Ġpar k
el ho
Ġk up
uy áº¿n
Ġpar ts
t to
ĠA kt
ĠT Ã´i
ĠE le
ĠÐµ Ð¼Ñĥ
Ġat ual
ĠInform ationen
ĠáĥĴ áĥĲáĥ®
Ð¡ Ðļ
ªà¸ ±à¸
ŀ à¸£
Ġà¦¬ à§ĥ
ÅĻe ba
ÑĪ Ð¸Ðµ
Ġà¦¦ à§ĩà§Ł
Ġc ï¼Ĳ
ĠÐ² Ð¾Ð¹
ĠB en
aw at
r ado
×Ľ ×Ķ
×Ļ×Ľ ×Ķ
ive ly
ĠØ§Ø³ Ø§Ø³
åķı é¡Į
ĠMÃ© xico
am ment
ë° ±
Ġ äºĶ
ÙĬ ÙĬ
ot en
Ġì¦ Ŀ
b ed
ãĤı ãģĳ
Ġde ep
Ġpl ant
ãģĵãģ¨ ãĤĤ
Ġop iniones
Ġj un
ĠØ¬ ÙĨÚ¯
Ġp unto
áĥłáĥ£áĥ ľ
ĠÐ´ Ð°
ĠJ ul
r Ã¡v
ĠÏĢÎ± ÏģÎ¿Ïħ
ĠÑĢÐ°Ð· Ð¼
Ġ3 6
ĠA ug
ĠÙħØ±Ú© Ø²
Þ¬ Þ
Ġà¸ Ľà¸£à¸°à¸
a al
ĠÃº Äį
Ġd ÉĻr
Ġt ab
Å¼ a
ĠØ§ÙĦØ¯ ÙĬÙĨ
áĥķ áĥĶáĥķ
Ġuy gun
ãĤ¤ ãĥ¤
ĠÎ¬ ÏģÎ¸
Ġcon dition
Ġhe ar
å¾ Ģ
o int
Ġber main
Ġsu iv
ob a
Æ°Æ¡ i
ĠÎ³Î¹Î± ÏĦÎ¯
Ġëĵ ľ
ìŀ Ī
à¸²à¸ªà¸´ à¹Ĥà¸Ļ
ĠN r
ĠW ij
ì ±ħ
Ġk endi
Ġmas yarakat
Ġbu ena
nah me
Ġ×Ļ ×¢
áĥ¬ áĥ§
à¤¾à¤ ¥
Ġ äºĨ
æŃ ¢
r am
Ð¸ ÐµÐ¹
ĠÑįÑĤ Ð¸
Ġal Ã©m
ĠÐ±ÐµÐ· Ð¾Ð¿Ð°Ñģ
ĠÎł ÏģÏĮ
ĠagåĽ½éĻħ åİħ
Ġju in
ĠáĥĲáĥ¥ áĥķáĥ¡
à¦Ľ à§ĩà¦¨
Ġinvest ig
ĠW ind
ĠÙĥ ÙĨØª
ĠÙĦ Ø§Ø²Ùħ
Ġà¸ Īà¸²à¸ģ
ãĤ¯ ãĥĪ
n u
Äħ c
alt ung
Ġí ħ
ĠÑĢÑĥÐº Ð¾Ð²Ð¾Ð´
ĠØ³Ø· ØŃ
ĠÙĤ Ø¨
ĠAl so
Î½Î¿Î½ ÏĦÎ±Î¹
t Ã³w
ĠÎ² Î¿
Ġstud ent
Ġant ara
ÙĦÙĥ Ø©
iyy at
pl ikasi
à°¿à° ļ
ØŃ ÙĦØ©
ĠÐ´ÑĢÑĥÐ³ Ð¸Ðµ
à¤¡à¤¼ à¤¾
Ġà¹ģà¸ ķà¹Īà¸
Ġí ĳľ
Ġjen is
ĠÐ¿ÑĢÐ¾ÑĦÐµÑģÑģ Ð¸Ð¾Ð½
Ġs ong
is is
Ġnos sa
ĠÑĥÐ´ Ð¾Ð±
Ġè ī
Õ¡Õ ¬
ĠÐ¿Ð¾Ð¼ Ð¾Ð³
à°¿à° ľ
ĠØ§ÙĦØ£ ÙĨ
ìĬ ¹
Ġsu p
e cts
ĠÏĢ ÏģÎ¹Î½
à´ µ
æ² ¹
åĲĪ ä½ľ
Ġel es
ĠÐ¿Ð¾Ðº Ð°Ð·
ĠÂ ª
ĠÙģ ÙĪØª
ĠÕ ¾
ĠCent er
ä¿ Ĥ
Ġtr anh
Ġsol ution
Ġch ia
Ġt ÉĻm
Ġplaat s
Å¾ en
Ã Ļ
Ġb ang
Ġà®ĩ à®¤à¯ģ
Ġbul und
Ã¶y Ã¼k
ĠØ® Ø§Ø·
Ġpres so
ĠÙĩ ÙĪØ§
l s
Ġha ir
Ã¤hr end
Ġp le
¡ à°¿
li Ã©
ĠZ e
à°¾à°² à°¿
ĠV on
Ġse ction
Ġpol icy
×¨ ×¡
ĠÎķ ÎĽ
çĽ Ĭ
ĠÂ £
Ġà®® à®Łà¯įà®Ł
ĠÑĢ Ñĥ
ard en
ÑĢÐ°Ð½ Ð¸Ñĩ
ĠáĥĴáĥĲáĥľ áĥ¡
ĠÐºÑĢ Ð¾Ð²
Ġlevel s
äº ²
ĠM i
Ð¼ Ð°Ð½
pe ÅĤ
ãĥ¼ãĤ· ãĥ§ãĥ³
og raf
é¦Ļ èķī
áĥĹ áĥĲáĥķ
kie go
Ġgrup o
ĠF amil
get ti
ab il
Ġnos s
Ġmoet en
Ġà° §
Ġb ay
åľ¨çº¿ è§Ĩé¢ĳ
Ð² Ð°
è© ¦
Ġká» ¹
Ġz em
Ġa per
ĠØ¨Ø§ÙĦ Ø¥
Ø¤ ÙĪÙĦ
u als
Î²Î¬ ÏĥÏĦÎµ
ï¼ ¿
æ¼ ı
ĠS P
Ġà¦¶ à§įà¦°
Ļ çľŁ
Ġre fer
ĠÐĵÐ»Ð°Ð² Ð½Ð°Ñı
è ¬
ĠÎł Î±Î½
Ġà¤Ł à¥įà¤°
Ġpub l
Ġcir ca
Ġà¹Ģà¸§à¹ĩà¸ ļ
Ġ, .
ĠÎ¤ Î¹
Ġpre zzo
ĠCoun ty
Ŀ à¸²à¸ģ
Ġs uf
Ġus u
èµ ļ
g ua
ĠD oor
ĠNg Æ°á»Ŀi
zy m
ĠÐ¿ÑĢÐ¾Ð´ Ð¾Ð»Ð¶
Ġt Æ°Æ¡ng
........ ........
áĥł áĥĿáĥĽ
Ġà¤¹à¥ĭ à¤Ĺà¤¾
is as
Ġì º
Ġalgun s
ĠØ´ Ú©ÙĨ
Ġroz hod
ĠØ¨Ø±Ú¯ Ø²Ø§Ø±
ist ration
ĠÛ° Û°Û°
à° «
Ġtho áº¡i
Ġv ent
ĠØ§ Ù¾
ãģ¹ ãģ¦
à¦°à§įà¦ ·
oor t
Ġåı °
à¹Ģà¸ ĩà¸´à¸Ļà¸
Ġbaj o
Ġm Ã³w
ĠÏĢ Î±Î½
o z
åĲ §
ĠÐ½ Ð°Ð³
áĥĲáĥ¬ áĥĺáĥļ
ĠÏĦÎµÎ» ÎµÏħÏĦÎ±
à¦ ģ
ĠÎķ Î¯Î½Î±Î¹
ĠTr ang
Ġdev ice
ĠV á»Ľi
Ġ×Ļ ×Ĺ
à¹ĥà¸«à¸¡ à¹Ī
ãĥ ´
b les
ĠÐ·Ð°Ð½ Ð¸Ð¼
Ø§Ø ¸
à±Ģ à°²
áĥª áĥĺ
æ§ ĭ
´ë ¦
ÉĻlÉĻr i
Ġme zi
over no
ĠS ay
ÎŁÎ ¤
à¸Ļ à¹Įà¸
Ġhigh ly
up er
Ġverschill ende
åħ µ
Ġb ied
ak si
Ġste ht
Ġle uk
èŃ °
çķ ¥
Ġempres as
ĠbÄĻ dÄħ
ĠØ° Ø§Øª
Ġà®İ à®²à¯įà®²
Ġãĥ¬ ãĥĩãĤ£ãĥ¼ãĤ¹
à¸Ńà¸¢à¸¹ à¹Ī
ĠÐ´Ð¾ÑĢ Ð¾Ð³
ç Ĵ
ģ à¸£
à°³ à±įà°²
ĠÙĨ Ø¬
ko op
Ñĩ ÐµÑģÐº
ÎĻÎ ¤
Ġl áº¥y
ĠÐ³ Ð°Ð·
Ġáĥĺ áĥĴ
Ã£ ng
Ġà¸ §à¸±à¸Ļ
Î½ Îµ
äº «
×ķ×ŀ ×Ļ
ìĭľ ê°Ħ
æĤ ª
Ġh omme
å¤ ±
ara p
ĠH az
Ġz ona
ç ĳ
ÛĮØ¯ Ø§
áĥĲáĥĵ áĥĿ
Ġsh all
éĵ ģ
ĠÐ¸Ñģ ÑģÐ»ÐµÐ´
Ġæ Ĥ
Ġdan h
Ġnum ero
Ġm ÉĻr
ĠØ¯Ú© ØªØ±
Ö µ
×¨×Ľ ×ĸ
Ġà®Ĩà®© à®¾à®²à¯į
ãģ µ
ĠH ay
Ġout ro
à°°à±įà° µ
Ġà¤Ŀ à¤¾à¤²
ĠH ome
bi or
etz en
à³ į
Ġáĥ¨áĥĶáĥĽ áĥĹáĥ®áĥķáĥĶáĥķ
×Ļ×ĵ ×Ķ
ĠØº Ø°
Ġtu a
w an
Ġjak ie
Ġà®ķ à®£
Ġhv a
Ġì§Ģ ëĤľ
Ġmuch as
åĲ ĥ
Ġgo al
Ø¬ ÙĨØ©
ol u
áĥĲáĥľ áĥ¢
ĠÐ¿Ð¾ ÑįÑĤÐ¾Ð¼Ñĥ
å¯ Į
á»ĵ m
ze igen
Ġæľ Ī
Ġçī ¹
Ġà¦¦ à§ģà¦ĩ
Ġdes e
ĠB Ã¶l
Ġon es
Ġa ver
b ers
Ø§Ø¨ Ø§Øª
Ġmen o
Ġp ilih
Ġs ym
Ġc ab
Ġqual itÃł
ì¶ľìŀ¥ ë§ĮëĤ¨
eng er
Ġë¸ Ķ
Õ ¬
Ġæ Ĳ
an co
Ġtyp es
Ġs ale
ouv ent
ĠÙ¾ ÙĦ
×ĸ ×§
anne er
Ġs che
ag ement
ĠÄĳ áº£m
Ġvel mi
ov ou
ui Ã§Ã£o
Ġe fect
Î¼ÏĨÏīÎ½ Î±
à¦¾à¦¨ à§ĭ
à´ ²
Ġv oll
Ġszy b
Ġj an
jÄħc ych
ĠÙĨØ¯ Ø§Ø±Ø¯
ĠáĥĲáĥ¡ áĥĶáĥķáĥĶ
à¥ ¦
ĠØ§Ø ¶
un st
Ġdi r
Ġà¤ªà¥ģà¤² à¤¿à¤¸
ÙĤØ¯ ÙĬÙħ
ĠáĥĽ áĥĺáĥĸ
Ġd ÉĻy
Ġtro is
Ġj uegos
ĠØ® ÙĪØ§ÙĨ
Ġto ll
Ġkh áº£
Øª ÙĪØ±
Ġde ber
Ć ï¼Į
ÏģÎ· ÏĥÎ·
as Ä±nÄ±
ĠÙĩØ¯ Ùģ
Ġjour n
ud ian
ãĥķãĤ© ãĥ¼ãĥł
ĠÐ¼ ÑĥÐ·Ñĭ
Î¼Î± ÏĥÏĦÎµ
Ĺà¸²à¸ ĩ
il fe
à¸Ńà¸²à¸ «
à®© à¯įà®ª
ĠNam un
Ġet mÉĻk
Ġà¦Ĩà¦Ĺ à§ĩ
um an
szy m
Ġbenef its
ĠØ¬Ø§Ùħ Ø¹Ùĩ
Ġv Ã¦rt
à®¾à® ª
ĠÙĨ ÙģØª
ĠÙĥ Øª
à¦¾à¦§ à§įà¦¯à¦®
Ñģ Ð¸Ñħ
ĳ ìĿ´
Ġm ij
ÏģÎ³ Î±Î½
ç¨ ³
ĠÚ¯ Ø±Ùħ
Ġk ort
ui ente
ĠAI J
Ġ3 2
ãģĻãĤĭ ãģ¨
áĥłáĥĺáĥķ áĥĺ
ĸà¸¶à¸ ĩà¸
ĠÑĢ ÐµÐ¼Ð¾Ð½ÑĤ
Ġin j
ĠÃ ±
b are
Ġíģ ¬
ĠCh aussures
ĠÙĪ ÙħØ§
ľà¸ ¥à¸
à§ģ à¦¦
or te
Ġo ng
à®Łà¯įà®Ł à¯ģ
Ġr om
Ġiz le
ti Ã³n
Ġdon ne
Ġà°ª à°¾à°°
Ġko ÅĦ
Ġ×©×Ķ ×ķ×Ĳ
j ekt
Ġcolle ction
Ø§ ÙĪÙĨ
ĠÎµ ÏĨ
an ze
ØªÙħ Ø±
Ġex tre
á½ °
\ /
Øº ÙĦ
à§įà¦ §
ĠfÃ¸r ste
ĠáĥĲáĥ® áĥļ
r ique
áĥĽ áĥĶáĥĵ
Ġm atch
ĠCas ino
à§ĭ à¦°à§įà¦
Õ¥Õ ½
Î» Î¹Ïĥ
×ķ×¤ ×Ķ
à¤¿à¤ Ĺ
ĠÎ¿ÏĢÎ¿ Î¯Î¿
áĥĲáĥ¡ áĥĺ
Ġji Å¾
Ġå Ģ
ĠÙĦÙĦ Ø¹
ĠU s
Î¸ ÏģÏİ
ĠØ´ÙĨ Ø¨Ùĩ
Ġf resh
ĠtÃ© cn
áĢ¬ áĢ
à¹Ģà¸¥ à¹Īà¸Ļà¸
Ġà¦ħ à¦¸
Ġë© Ķ
Ġï ¾
Ġv Ã¥r
Ð¸ ÐµÐ²
Ġáĥĺáĥľ áĥ¢
ÏĢÎ¿ Ïį
Ġà¤® à¤¾à¤¨
ic iel
Ġr áº»
Ġm ud
ĠÑĥÐ² ÐµÐ»Ð¸Ñĩ
Ø§ÛĮ Ø¹
ĠV ia
is Ã©
Ġprodu it
å·² ç»ı
Ġc and
ĠìĹ ħ
Ġgi áº£
Ġse par
d ic
ĠÐ½Ð°Ñĩ Ð¸Ð½
à®µ à¯Ī
Ġma jÄħ
ĠKh i
èĭ ı
ĠD oÄŁ
Ġprime ira
åľ Ł
st and
ĠÎŃ ÏģÎ³
Ġexper t
æ¯Ķ åĪĨ
Ġmeet ing
Ġl ok
Ġtr ip
ÏģÏī ÏĥÎ·
ĠØ¨Ø§Ø´ ÛĮØ¯
Ġà¦ħà¦¨ à§įà¦¯
ĠÙĤ Ø§ÙĨÙĪÙĨ
ãĥ¼ãĤ ³
Ġm ise
Ġà¤¹à¥ģà¤ Ī
Ġdes n
ĠÑĢ ÐµÐ´
ĠáĥĲáĥ Ĵ
æĹ¥ ãģ®
áº© u
Ġl Æ°u
ĠÐ¿ÑĢÐ¾ Ð¸Ñģ
ys ÅĤ
Ġn ational
Ġask ed
Ġt Ã¼r
gh t
ÅĻe b
èĻ İ
ĠG et
ĠÐ¿ Ð°ÑĢÑĤ
tem bre
bi anas
Ġr ou
Ġum um
ë¦ Ħ
ĠØ§Ø¨ ÙĨ
am ar
ĠÐĲÐ»ÐµÐºÑģ Ð°Ð½Ð´
ur ut
ĠØ§ÙĦ ÙĪÙĦ
ĠÐ¾Ð± ÑĭÑĩ
Ġà¹Ģà¸ ģà¸¡à¸
ĠD ay
pre chen
f ono
Ġà¦¹ à¦¾à¦ľà¦¾à¦°
à®¿à®±à¯įà®ķ à¯ģ
Ġejempl o
Ġg ay
æĸ Ń
ĠÙħÙĪ Ø¨
ĠÎĳ ÏĢÎ¿
ê¸° ë¥¼
ĠM any
à´¿à´ ¯
à®±à¯įà®ķ à¯ģ
Å¼e j
geven s
Ġg razie
ri le
ĠãģĿ ãģĨ
ĠCh ÃŃnh
ÐµÐ» Ñİ
Ð» Ð°Ð½
ĠìĬ¬ ë¡¯
ĠØ· ÙĪÙĦ
b ÉĻt
Ã¼ h
ĠØ¬Ùħ Ø¹
h ol
ĠAve c
é Ń
ĠÙħ Ø±Ø¨
uran Ã§a
ĠØ´ Ú©ÙĦ
Ġcar atter
Ġi hned
ĠÙħØ´ Ø§ÙĩØ¯Ùĩ
Ġäºļæ¸¸ ag
Ġáĥ¡áĥĲáĥ®áĥĶáĥļ áĥĽ
ĠP ÅĻÃŃ
Ġà¦ħ à¦°à§įà¦¥
à¤¿à¤ §
Ġexcell ent
ĠÃº n
Ġor d
ĠThe ma
Ġà¦Ł à¦¾à¦ķà¦¾
ĠãĤ± ãĥ¼ãĤ¹
Z X
áĥĲáĥ Ń
ë§ Ľ
Ø§Ø´ ÛĮ
ĠÐ²Ñģ Ñĳ
Ġre mo
à¦¨à§įà¦ ¡
Î¼ÎŃÎ½ Î¿Ïħ
ve m
ers e
ĠáĥĽ áĥĲáĥĽ
Ġdi kk
Ġ×Ĵ ×ĳ
à¤°à¥įà¤ ¥
Î³ ÎµÎ¹
åľ Ĵ
ĠÑģÐ¾ ÑĨÐ¸Ð°Ð»ÑĮ
ĠÑĢÐ°Ð· Ð´ÐµÐ»
ĠØ¨ ÙħØ§
ë ¹
ler den
ØªØ± Ùĥ
Ġto ho
¡à¸ ·à¸Ńà¸
Ġqu Ã½
at ory
Ġä½ ķ
ĠÚ©Ø±Ø¯ ÙĨØ¯
n ienia
áł łáł
te ad
ë§ Ĳ
Ġs ense
ĠPort ug
ĠÏħ ÏĢÎµ
ĠÙħ Ø±ÙĥØ²
Ø§Ø¦ Ø¨
Ã¶ ÃŁ
Ġåī į
ĠØªØŃ ÙħÙĬÙĦ
Ġpi ano
ĠÏĥÏħ Î³Îº
Ġpu es
Ġk Ã¼
ĠÙ¾Úĺ ÙĪÙĩ
ar ik
Ġad min
Ġcor re
Ġwel che
¹à¸ ģ
éĩĳ ç½ĳ
Ġpare ja
à¥ ħ
ÏĪ Îµ
ĠÕ¸ ÖĤ
æĹ©é¤Ĳ åĬłçĽŁ
ĠM ah
Ġv enta
Ø§ÙĤ Ø§Øª
çĶŁ æ´»
ĠsÃ© cur
Øº Ø·
ĠÙĦ Ø¯ÙĬ
Ġk iedy
æŃ »
à¹Ģà¸ ¡à¸
ĠÎ´ Î¿
Ġng he
ungs i
ÏĦÎ¿ ÏįÎ½
Ġy Ä±ll
Ġres id
Ġwir klich
Ġus ta
à¹ģà¸ļà¸ ļ
N H
ĠØ§ÙĦ ÙĬÙħ
etto re
Ġmes es
Ġdig ital
ĠØ§ÙĦÙĤ ÙĬ
Ġà¤ļ à¥ģà¤¨
Ġig ual
ÐµÐ» ÐµÐ¼
Ġnaj lep
ĠdÃ¼n y
Ġbelang rijk
ant Ã©
ion ale
Ø¨ Ø±Ø§ÙĨ
Ġwrit ten
ri x
zÄħ d
nost ÃŃ
Ġd rei
Ġà´ ¨
à°· à±įà°Ł
ãĥ³ãĤ Ń
ag n
ĠÏĦ Îµ
ĠØ´ ÙĪ
§ à¸Ļà¸
ĠÚĨ Ø´Ùħ
Ġà®ķ à¯ģà®´
ĠØ®ÙĪ Ø¨
Ġz ad
åĩ ¡
Ġpie ce
Ġdes tek
Ġ×ľ×ŀ× ©
h met
éĩį è¦ģ
anj ang
Ġgod t
Ġapp ar
Ġà°¤ à±Ģà°¸
Ġinve ce
Ð¸ÑĩÐµÑģÐº Ð¾Ðµ
Ð» Ð¾Ð¼
li ed
Ġsek ali
ç» ĩ
Ġan nÃ©es
ĠØ²ÛĮ Ø§Ø¯ÛĮ
Ġl á»±a
ĠY ang
Ġà¦° à¦¹
ÙĨ Ø§Ùħ
Ġn ya
ong eng
Ġà¤īà¤¨ à¤ķà¥ĩ
Ð¾Ð² Ð°ÑĤÐµÐ»ÑĮ
äºº åĳĺ
Ġex cept
Ø¨ÙĬ ÙĤ
Ġm ulai
Ġc á»¥
à¤ķà¥įà¤· à¤¾
l ayan
Ġqual che
æĹħ æ¸¸
Ġà®µ à¯Īà®¤à¯įà®¤
Ð½ Ð¸Ð²
ll t
ĠQ ual
ÏĥÏĦÎ· Î¼Î±
idd le
Î¼ Î¯Î±
rij ven
Ġèĩª åĪĨ
ĠJ uan
ur t
Ġg Ã¥r
Ġà®® à®¿à®ķ
Ġtr Æ°á»Łng
Ġå¤© å¤©
ĠØ® Ø§Øµ
Ġg reen
ÎĳÎ ľ
ib les
Ð¾Ð» ÐµÐµ
Ġintern et
Ġsol utions
Ġens emble
p i
Ġkar ar
Ä± t
à¨ ¨
Ġo ct
ÎĻÎ Ķ
Ġtr ait
Ġm áº«u
Ġl ÃŃnea
ĠF irst
ĠÎķ Îł
à¦¾à¦° à§Ģ
w ier
åī ²
ph one
Ġhay at
ĠÑģ Ð¾ÑģÑĤÐ¾ÑıÐ½
er g
Ġost at
ĠQu esto
O D
ĠG ut
Äį en
eh atan
ÙĤ Ø¨ÙĦ
ĠëĶ Ķ
Ġà¦¨ à§ĩà¦ĩ
ar te
ess ion
ÅĽ wiad
ĠM al
Ð¾Ð· Ñı
ÙĨ ØªÛĮ
Ġlu áºŃt
Ġëª »
ãĥķ ãĥ¬
ÑĢ Ð¾Ð¹
à°ªà±įà°ª à±ģà°¡à±ģ
Ġsal ud
id i
Ġdec ision
Ġkan yang
ãģ ¥
à®¾à® ªà¯įà®ª
æ£ Ģ
Û ´
ÎµÎ¹ Î±ÏĤ
z as
Ġt á»ĳi
à±įà° ·
Ġf ix
Ġj uego
Ġatrav Ã©s
ĠØ§ÙĦØ¨ ØªÙĩ
Î»Îµ Îº
Ġê°Ģ ìŀ¥
Ġschne ll
ÐµÐ½ ÐºÐ¾
Ġembar go
Ġnive au
ĠÑı Ð½
n Ã½m
ĠÑĨ ÐµÐ½Ñĭ
å± Ĥ
ist ro
à¤ Ľ
çº ª
Ġë² ł
Ġé ¢
Ġconst ru
ĠÎ± ÏĢÎ±
Ġbulun an
Ø§Ùģ ÙĬ
Ġc Ãłng
olog ie
Ġmer cado
ĠÎ´ Ïħ
×ķ×¨ ×ķ×ª
ĠTh Ãłnh
Î» Î¹Îº
à¤¡à¤¼ à¥ĩ
os iciÃ³n
à° ¥
om et
ĠØ§ÙĦØ³ Ø§Ø¹Ø©
Ġav alia
Ġst Ã¸r
Ð¾Ð¶ ÐµÑĤ
aw an
Ġà®® à®ķ
Ð ĸ
×¤ ×ľ
ĠÐľÐ¾ÑģÐºÐ² Ð°
ĠÐ² Ð¿
ul os
×ł ×§
Ġ×Ļ ×ľ
ĠÐĹ Ð°Ð¿
ĠHe alth
Ġbers ama
Ġà¦Ĩà¦ª à¦¨à¦¾à¦°
volv imento
as ter
ĠÃ© p
ÎŁÎ ł
Ġv it
ĠÄ° z
ÑĢ Ð¾Ð½
Ġà®ħà®µ à®°
ĠÏĦ ÏģÎ¿
Ġ19 8
ĠÙħÙĪ ÙģÙĤ
Ġhas t
Ġï¼ģ ï¼ģ
Ġm ukha
ãĥģ ãĥ£
Ġst oria
ĠÑģÑĩ ÐµÑĤ
ĠÐľÐ¾ÑģÐºÐ² Ðµ
Ġà®ħà®µ à®°à¯į
ĠM arch
Ġfavor ite
Ġjed och
ĠK et
ĠwÃ¼r de
§à¸¥ à¸²
Ġ uff
j ets
Ġcon ten
it Ã¤
ĠÐ¼Ð°Ð³Ð°Ð· Ð¸Ð½
Ġà¦¬à¦¿à¦Ń à¦¿à¦¨à§įà¦¨
à¥įà¤ ŀ
Ġsa v
ON G
ĠH á»ĵ
ĠÎºÎ¬Î½ ÎµÎ¹
ĠJ un
ĠÚ© Ø³Ø¨
ĠÃ©qu ip
ĠÚĨ ÙĪÙĨ
Ġto Ã¡n
ĠÚ©Ø§Ø± Ø´ÙĨ
ĠÐº ÑĥÐ»ÑĮÑĤ
te ch
Ġh ot
to p
w eit
un ft
Ġà°ī à°Ĥà°¡
izz are
ĠØ£Ùħ Ø§Ùħ
k il
ĠL et
à°Ł à°¿
Ġà¨ ¹
×ķ×¤ ×Ł
Ġpr int
Ġteng o
Ġà®ħ à®³
ĠØ§ÙĦØ¬ ÙĨ
Ġpl ans
im mt
Ð°ÑĢ Ñĭ
Ġà¤®à¥ģà¤ ĸ
Ġind ir
Ķà¹īà¸§à¸ ¢
ĠØ§Ø ¸
Ð½Ð¾ÑģÑĤ ÐµÐ¹
Ġp Ã¡g
Ġmeng en
Ġimp lement
ĠÐŁÐ¾Ñģ Ð»Ðµ
å¸ Ń
Ġda v
Ġproye cto
Ġà® Ĳ
ĠÐ» Ð¸Ð½
Ø¸ ÙħØ©
ĠÎµÏħ ÏģÏİ
ĠÐĴ Ð¾
Ġà°ħ à°§
ÑĦ ÐµÑĢ
Î³ÏģÎ± Î¼Î¼Î±
Ġbud ou
ĠØ§ÙĦØ£ ÙĪÙĦÙī
ol le
Î¯Îº Î·
ĠÙħ Ø³ÙĦØ³ÙĦ
à´ ¸
ier re
ĠÎ¶ Î·
ĠÃ¸ n
b ili
ä¸ĩ åĨĨ
ĠÚ© Ø§ÙĨ
ãģ¿ ãģŁãģĦ
ai xo
à°¿à°¤ à±ĩ
ĠÑĨ ÐµÐ½Ð°
cie tÃł
æĪĲ äºº
à¹Ģ à¸£à¸²à¸
à®µ à®¿à®²à¯įà®²à¯Ī
Ġins tead
ĠnghÄ© a
ĠÐĹ Ð°
Ġwor m
ĠÙħÙħ Ú©ÙĨ
Ġs iden
ĠP ada
¨ ÐĲ
Ġv ui
Ġmo bile
Øª ÙĪÙħØ§ÙĨ
å ĺ
Ġenc our
Î¼Î¿ Î½
Ġinter ess
amp u
Ġà¦° à§Ł
r ut
ÎŃÏģ Î½Î·
Ñģ Ð¾Ð½
Ġà¦¬ à¦¿à¦ķ
ÏīÎ½ Î¹Ïĥ
ØŃ ÙĨ
Ġà¦ī à¦¦
Ġinvol ved
kl Ã¤r
ĠÑĢÐ°Ð· ÑĢÐ°Ð±Ð¾ÑĤ
ir it
Ġle y
ĠÙ¾ Ø°
åĵ į
Ġ uk
Äħ t
Ġdem ande
ĠãĤ Ī
Ġ×© ×ŀ
Ġv ÃŃ
Ġtet api
ĠØ§ÙĦØŃÙĥ ÙĪÙħØ©
Ġinter no
Ġt arix
Ġê°Ģ ëĬ¥
Ġtoll deklarasjon
ļ à¸Ļà¸
at Ã©g
ÉĻs inÉĻ
ĠÐŀ Ð¿
è® ²
Ġf Ã¼hr
Ð¾Ð½ Ð´
ÙĤÙĬ ÙĬÙħ
à§ĩà§Ł à§ĩ
à¹Īà¸ ¡
ĠN u
ÎµÎ¯ Î¿Ïħ
Ġà¦ķà¦° à§ĩà¦Ľà§ĩ
ĠØ· Ø¨ÛĮ
ĠB on
Ġmis ma
Ġh ver
Ġkom mer
à§ģà¦· à§įà¦ł
à®® à¯ģà®®à¯į
un ic
TI ON
ij f
ĠØ§Ø¸ Ùĩ
ĠØ¹ ÙĤ
ķà¹Ī à¸Ńà¸
ÙĪØ± Ø´
Ø±Ø¨ Ùĩ
Ġcl os
ĠÏĥÏĩ Î¿Î»
tel le
ĠDe us
Ġhelp s
ãģªãģ© ãģ®
Ġvez es
ĠØ§ÙĦÙħÙĨØª Ø¯Ùī
Ġãģ ¡
j alan
ĠÐļ Ð¾Ð»
gr und
ĠØ§ÙĦØ´ÙĬ Ø®
Ġpros es
ĠÑĥ ÑģÑĤÑĢÐ¾Ð¹
op o
Ġà¹Ģà¸ Ĭ
er int
Î»Î± Î¼Î²
ĠH al
ĠÏĥÎ· Î¼Îµ
Ġph otograp
k ovÃ¡
Ġspos Ã³b
Ġà¦¨ à¦¤
Ġ io
Ġ×Ķ×ŀ× ª
æĻ ļ
Ġà®ı à®±à¯įà®ª
ĠGo ogle
Ø§ÙĦ Ø¯
ĠY orum
Ġac cept
ĠÅ¾ Ã¡d
Ġunser er
ĠD Ã¼n
Ġt iá»ĩn
ãĤ¸ ãĥ£
ç§ĳ æĬĢ
ĠAd emÃ¡s
ĠÐ¼ÐµÑĤ Ð¾Ð´
ì¶ľìŀ¥ìĥµ ìĺĪìķ½
izza zione
áĢ ¯
Ġdi ret
k amer
Î¼ Î¼
åº ķ
Ġpujck a
Ġà®ĩ à®²
Ġ×ŀ×ŀ× ©
ãģ« éĸ¢
Ġà§ Ń
ãģĪ ãģ°
Ġl Ã©g
ãģŁ ãĤĬ
Ð°ÑĤ Ð¾ÑĩÐ½Ð¾
ĠÑģ Ð¸Ð¼
Ġt end
Ġm entre
ĠØ§ÙĨÙĤÙĦ Ø§Ø¨
à°¿à° Ĺà°¾
ĠÚ©ÙĪØ¯ Ú©
Ġhakk Ä±nda
¸ à¹Īà¸Ļ
Ġna v
è´ §
į ng
ĠÐº Ð°Ð½
ĠÑĢ Ð°Ð²
Ġle k
à¤¿à¤ķ à¤¾
Ġwor d
ĠÐ¼ ÐµÑĢ
Ġ×ľ ×¨
à§ĭ à¦ļ
Ġpres t
ãĤĤãģĹ ãĤĮ
f ort
ĠÙħØ· ÙĦØ¨
Ġc oule
ÏĢÎ¿Î¯ Î·ÏĥÎ·
Ġfre m
ĠÙħØ¬Ùħ ÙĪØ¹Ø©
Ġy áº¿u
å½± éĻ¢
éĩ ĩ
Ġ×Ķ×Ĳ ×Ĺ×¨
Ġr ien
Å¯ Å¾
ĠTe ch
ĠÎļ Î¿
ĠOn ce
ĠÙ¾Ø±ÙĪ ÚĺÙĩ
ĠÎĶÎ¹Î± Î²Î¬ÏĥÏĦÎµ
×ŀ× ĳ
Ð»ÐµÐ½ Ð°
zy n
red iksi
Ġ3 4
I jo
à¦ĵ à§Ł
×¤ ×¡
ÎĹ Î¤
ĠØ® Ø§ØµØ©
ĠØ§ÙĦÙħ ÙĦ
Ġb á»ĳ
Ġch ance
Ïĥ Î¹Î¬
ģà¸ §à¹Īà¸²
å¤© æ°Ķ
ĠØŃØ³ Ø§Ø¨
is ata
ĠÙĨ Ú¯
Ġcomm it
Ġits elf
¡ å¸ĥ
ĠÐ´ÐµÑĢ ÐµÐ²
Ïĥ Î®
f ik
éĻ ¤
ille urs
Ġà¦¬à¦¿à¦ ľ
Ġk aÃ§
Ġdu as
à°¾à° ¶
all o
à¤¾à¤ ĸ
Ġsc on
ĠØ£ ÙħØ§
Ð¾Ð¼ ÐµÐ½Ð´
ĠS ant
Î»Î· Î¼Î±
Ġgro ÃŁ
Ġsuo i
Ġalcun i
Ġãĥ į
ĠB Ã¼
Ġad j
ÙĪ ØŃ
Ø³Ø± Ø§Ø¦ÙĬÙĦ
Ġs ource
Ġà®µà®¿à® ³
ĠÙĤ ÙĬ
à¤¿ à¤Ĥà¤¦
Ġcor so
ÛĮ Ø·
ĠG reat
×© ×ĳ
Ġh it
Ġp enting
ĠE y
ber t
Ġsel ama
ĠS icher
ĠØ¨ Ø³Ø¨Ø¨
Ø§Øª Ø±
Ġà®¨ à®¾à®Ł
ÑĢ ÐµÐ²
ite ly
ä¾ Ĩ
ĠØ® Ø¯Ø§
Ġåİ Ł
Ġr Ãµ
Ã¡m ara
ĠØ¢Øº Ø§Ø²
gi Ã£o
el sen
à¤°à¥įà¤ ¸
Ã¸ m
Ġap Ã³s
ĠÃ© Ã©n
Ø¸ ÙĩØ±
ub lik
Ġo v
Ġesta ba
ç¬¬ ä¸Ģ
à§İ à¦¸
Ġà¦ĩà¦¸à¦² à¦¾à¦®
à¤µ à¤Ĥ
à¤µ à¤°
Ġåľ Ł
Ġb ildir
ä¸į æĺ¯
ĠÃ¼ ret
ĠØ´ÙĩØ± Ø³ØªØ§ÙĨ
ĠÐ¿ÑĢ Ð¾Ð¿
à°¯ à°Ĥ
fall s
os so
Ġà®ī à®¯
Ġfor sk
Ġ5 5
ĠwÅĤ as
Ġ×Ľ ×ŀ×Ķ
Ġà¸ ¡à¸µà¸
àª¾ àª
×ª ×Ĺ
çĻ» éĻĨ
ĠÙ¾ ÙĪØ´
ĠØ¯Ø§ÙĨØ´ Ø¬
ĠÙħÛĮ Ø²Ø§ÙĨ
Ġsaf ety
ĠT out
ĠW ork
Ġd y
¥à¸ °à¹Ģà¸
ĠÄĲ á»©c
ĠÙħÙĨØª Ø¯Ùī
ĠÐ¿ ÐµÑĩ
æŃ ¦
ĠÙĪ ÙĦÙħ
eb ilir
Ġcare er
Ġh Æ°á»Łng
ug lio
Ġà°ªà±įà°° à°Ń
ĠPublic ado
Ġèī ²
Ġnov a
u id
ĠW asser
à¦° à¦¿
à¹ģà¸ļà¸ ļà¸
Ġæ ¹
en nen
Ġcon di
Ġparte cip
é ¸
à¹Ī à¸Ńà¸ĩ
×ķ×© ×Ķ
ed y
ro p
Ġh our
Ġz ro
na io
Ġse hen
on Ã¡
Ġ×ľ ×ĺ
Î¾ Ïį
Ġë ģ
Ġãĥ ľ
ĠÐĹ Ð´
in ci
Ġ ą
ĠÃ ¯
æī ¾
Ġå¥ ³
Ġattravers o
ëŁ °
Ùİ ÙĪ
è´ Ł
ÄĽ nÃŃ
ĠE v
Ġdi ri
ÙĪ Ø¨Ø±
ĠmÃŃ st
é ı
Ġtá» ©
ĠØ§ÙĦØ³ ÙĦØ§Ùħ
Ġà®®à¯ĩ à®²
Ġëĭ¤ ë¥¸
Øº Ø±
ĠÙĪÙĩ Ø°Ø§
Ġprod utos
Øª Ø¨Ø±
ĠÎ£ ÏĦÎ¿
ear ch
Ġd ice
Ġgo b
Î¿ Î³
L I
çļĦ ä¸Ģ
ãĤµ ãĤ¤ãĤº
le k
Ã¨ mes
Ġà®ļ à¯ĩà®°
ĠN go
Ġpe ÅĤ
Ġpr endre
Ġav oid
ĠÐĴ Ð°Ñģ
ĠØ£ Ø±
ĠK osten
Õ¶Õ¥ÖĢ Õ«
Ġbe f
åİĨ åı²
Ġthem selves
Ġd ne
ĠÚ©Ø§ÙĦ Ø§
Ġres ources
ĠØ¢ÙĨ ÙĦØ§ÛĮÙĨ
l ier
Ġ×ª ×Ĺ
Ġk osz
Ġd Ã¶vlÉĻt
Ġcont r
ar Ã¡n
ĠCum hur
ĠØ§ÙĦØ¹Ø±Ø¨ ÙĬ
C M
az io
ĠÄĳ Ã¢u
Ġt áº£i
Ġdirect ly
¤ Ħ
ãĤ Ĩ
Ġï½ ľ
ÑĪ ÐµÐ³Ð¾
es en
c ana
éĵ ¾
Ġb ych
×¨×Ľ ×ª
Ġcuis ine
ĠÏĦ Î¯
åĲ ¬
ka it
Ġìļ ©
Ġh uge
â ĺ
ak ah
Ġg ives
Ġgj Ã¸r
åĲĪ ãĤıãģĽ
Ġbe k
cto bre
oun ts
å¤ļ ãģı
Ġà¦¨à¦¤ à§ģà¦¨
Ð» Ð¾Ð½
ĠH á»Ļi
ĠÙĨ ÙĤÙĦ
Ġv ir
es o
it ur
Ġj am
×¦ ×Ķ
ĠÐºÐ¾ÑĤÐ¾ÑĢ Ð¾Ð¹
sze j
ĠÃ¢ m
ĠPok ud
ific ation
ĠØ§ÙĦØ§ÙĤ ØªØµ
ĠDes ign
Ġsor un
ĠÄĳo Ãłn
ĠÐ»Ð¸ÑĪ ÑĮ
Ġ3 3
ĠÑħ Ð¾Ñĩ
ĠÏĮ ÏĢÎ¿Ïħ
à¹ī à¸Ļà¹Ģà¸
Ð°Ð» Ð¾Ð²
ho od
Ġà¤«à¤¿à¤² à¥įà¤®
Ġa um
à±ĭ à°¤
Î¼Î¿ Ïģ
Ġì² ´
ĠÄĳ áº¡t
an Ä±z
à¯ģà®ķ à®¿à®©à¯įà®±
Ġl ate
à¦¦ à¦¿
Ðŀ Ðŀ
ĠÐ¾Ð±ÑĬ ÐµÐºÑĤ
ÏģÎ¹ Î¸
cj al
à¤¾à¤¤ à¤¾
à¥ĩà¤ ·
ÙĪÙĦ ÛĮ
ĠÑģÑĢ Ð¾Ðº
ä¸Ń æĸĩ
Ġm acht
Ġf oto
Ġimm edi
Ð» Ð¸Ñı
æ» ¡
ĠÑĤÑĢÐ°Ð½ ÑģÐ¿Ð¾ÑĢÑĤ
ĠD ire
à¤Ł à¥Ģ
alam an
ujÄħ ce
ê² Ģ
ĠÎŃÎ½Î± Î½
ãģ£ãģ ±
ĠØ¯ ÙĨ
Ġs end
Ġdesarro llo
Ġk ier
à¹ĥà¸«à¸ į
ĠÙĩ Ø§ØªÙģ
Ġè Ĥ
ä¼ Ŀ
¡à¸²à¸ ģ
Ġ à¸Ńà¸Ńà¸Ļà¹Ħà¸¥à¸Ļà¹Į
ĠâĢľ ,
Î´ Î¿ÏĤ
Õ¸ÖĤÕ©Õµ Õ¡Õ¶
Ġa verage
×¤ ×ķ×ª
à®Ļà¯įà®ķà®³ à¯Ī
Ĺà¸¸à¸ ģà¸
ÏĦÎ¹Îº Î¿
ĠÎĿ ÎŃ
n io
Ġrisp etto
Ĺà¸ ĺ
¸ áĢ
ĠÐ¸ Ð´Ðµ
ĠÐ¿Ð¾ Ñħ
C H
Ġ×ª ×Ĵ
ĠÐ²Ð¾Ð· Ð½Ð¸Ðº
Ġl uego
Ġmor ning
Ġb ÄĽ
ĠM ot
± áĢ
ĠÑĢ ÑıÐ´
æĺ ¾
ãĤī ãĤĮãģ¦
Ġmulti ple
Ġi phone
ĠO ut
à±įà°¯ à°Ĥ
ÙĴ Øª
ĠÙĪ Ø²Ø§Ø±
Ġy ox
Ġ iets
ĠÐ¿ÐµÑĢ Ðµ
ĠU ma
es ter
ĠÙĬÙĤ ÙĪÙĦ
èĢĥ ãģĪ
è Ĵ
ãĥ Ĵ
å¤© å¤©
olog ical
ĠÐ¿Ð¾Ð¼Ð¾Ñī ÑĮÑİ
ĠØ® ÙĦ
z et
pe cto
u pp
Ġs opr
à¥įà¤Ł à¥Ģ
ĠEst ado
isten za
ÑģÐº Ð°
ÏĨ ÏīÎ½
Î¸ ÎµÎ¹Î±
Ġq al
Þ¨ Þ
Ġà¤¸à¤¿à¤Ĥ à¤¹
ĠÎ± Î¹
ĠØµ ÙĦÙī
ĠSt ra
Ġequ ip
Ġãģ ł
ke hr
ĠÙĪ Ø¶Ø¹
ĠØ§ÙĦÙħ Ø®
ĠÐ´ Ð½ÐµÐ¹
ĠÏĥÏĦÎ¿ Î¹
Ġolm asÄ±
Ġtou ch
ĠÐ¿ÑĢ Ð¾Ð¼
ard in
et ail
Ġo so
Ġann unci
Ġë² ķ
ĠØ´ Ø±
Ġau cun
ler le
ken d
Ġx ml
ĠØ· ÙĪØ±
ad es
ĠB esch
ĠØ§ÙĦØ¨ ØŃØ±
Ġ à¹
Ġ. [
Ġl ic
ĠÐ´ Ð°Ð»
×ķ×Ĺ ×ķ×ª
à¤¡à¤¼ à¥Ģ
à¤ķ à¤¾à¤°à¥Ģ
ans ke
à¤¾à¤² à¤¯
Ġ×© ×ł×Ļ
Ġpr ices
Ġf Ã¡
Ġà¦ªà¦° à¦¿à¦ļ
Ø¶ ÛĮ
Ġtá»ķ ng
l ak
Ġe cht
ķà¸±à¸ §à¸
ĠB and
Ø±Ø¨ ÙĬ
é Ł
Ġn r
ĠktÃ³r ych
Ġses uai
Ġn Ã¡v
à®® à¯įà®®
Ġà¤¹ à¥ĩ
Ġv Ã¡m
Ġsel on
rie ben
Î³Ïī Î³
Ġn ome
ycz ne
à¸µà¸¢à¸ ĩ
à¥ĥ à¤¤
ĠÙħØ¬ÙħÙĪØ¹ Ùĩ
ĠÙĥ Ø±Ø¯
ĠO b
åŃ £
è¦ ³
im y
Ġì² ľ
Ġem pre
Ġseg uridad
l Ã¡d
r ent
ĠÐ¿ÐµÑĢ Ð¸Ð¾Ð´
ĠgÃ¶re v
à¯ģà® Ļà¯įà®ķ
ĠíĮ Ĳ
Ø·Ùģ Ø§ÙĦ
à¹Ģà¸ ĭ
Î¶ Î·
Ġg iving
ĠÐ¾ÑĤÐº ÑĢÑĭÑĤ
us unda
ĠÐº ÑĥÑĢ
Ġang e
ĠÎļ ÎĳÎĻ
Ġplann ing
ĠÐĲ Ð´
ig heid
Ġ) ØĮ
Ø³ ÙĬÙĨ
ĠÐ½ Ð¸Ñĩ
ÑĢ Ð¸ÑģÑĤ
k ovÃ©
ĠG eld
ab an
à¦¾à¦¨ à¦¿
Îķ Î¥
à®µ à®°
Ġin m
uf t
Ġb iá»ĥu
Æ ¯
ëĭ ´
ĠØ¬Ùĩ Ø§ÙĨÛĮ
Ġinterest ing
ĠæĿ± äº¬
Ġbis og
lÉĻr inin
Ġalle m
Ġpem ain
à¤¨ à¤²
Ġpen y
iss imo
ĠØ¹ÙĦ ÙĪÙħ
engk ap
os pod
Ġà¤® à¤¾à¤°
ĠÎĶ Î®
åį °
ĠÐ¾ÑĢÐ³Ð°Ð½Ð¸Ð· Ð°ÑĨÐ¸Ð¸
çľ ¼
æ¥½ ãģĹ
ì Ĥ
Ġot to
Ġhand s
ĠëĲ ľ
Ġma io
Ġwr ite
Ġa cuerdo
ĠD O
ÑģÑĤÐ² Ð¾Ð¼
Ð¸Ð² Ð°ÐµÑĤÑģÑı
Ġh Ä±z
åĪĨ æŀĲ
×ķ×ĳ ×Ļ×Ŀ
Ġst ati
Ð°ÑİÑī Ð¸Ðµ
Ġsitem ap
Ġg á»ĵm
Ġtr ust
Î´ Ïī
Ġse ek
ĠØ§ÙĦØ£ ØŃ
Ġ Ïī
c ciones
ĠÑĦÐ¸Ð½ Ð°Ð½Ñģ
à¥įà¤² à¥Ģ
Ġol uÅŁ
Ġprote ct
Ħà¸£à¸Ķà¸´à¸ķà¸ Łà¸£à¸µ
ĠB re
äº ķ
à¯įà®¨à¯įà®¤ à¯ģ
Ġà¤ķà¤° à¤¤à¤¾
c jon
Ġm Ã¸
um mer
ĠØ¨ÙĪØ¯ ÙĨ
à¥įà¤° à¥ĩà¤¸
ĠãĤ¹ ãĥ¼ãĥĳ
á» ³
Ġ×Ĳ ×ľ×Ĳ
ĠÏĢÏģÎ¿Ïĥ Ïī
ĠO g
N D
Ġexp Ã©r
Ġt ÉĻl
ĠM art
ĠHo e
Ġpes qu
é Ĳ
ĠÎ¤ Î¿Ïħ
å¿ µ
Ġz aj
Ġà¦¹ à¦¤à§ĩ
he its
Ġtr Ãªs
Ġful ly
ais e
Ñī Ñĳ
Ġåħ ³
æł ¸
ÙĬ ÙĤ
ĠæĽ ´
Ã©r io
sk im
ĠØ· Ø±Ùģ
Ġcon tactos
Ġmog Äħ
ĠØŃ ÙĦ
à®¨à¯įà®¤ à¯ģ
Ð°Ð» Ñĭ
Ø« Ùħ
Ġcer ca
ĠM ann
it ori
ĠÙħØ±Ø¨ ÙĪØ·
ÏĦÎ¹ÎºÏĮ ÏĤ
Ġb Ä±r
ãĥ³ãĥ Ĳ
ĠgÃ¼ Ã§
ÑģÑı Ñĩ
ĠØªÙĪØ§ÙĨ Ø¯
à¹ĩà¸ ģ
Ð»ÐµÐ½ Ñĭ
ªà¸ ¡à¸
ĠÐ¿ Ð¾ÑĢÑĤ
Ġc lar
ict ion
ĠespaÃ± ol
ĠG mb
ĠqÉĻd ÉĻr
ìĸ µ
æİĴ åĪĹ
æ± ī
Ø¯ Ø§Ø´Øª
Ġbie tet
ĠÙĦ Ø¯
ĠÉĻs as
ìĹ Ĩ
áĢ Ń
Ġar ch
eld ig
è± ¡
Ġcount ries
ĠÐŀ ÑĢ
×ĳ×¨ ×Ļ×Ŀ
as is
Ġà®ª à¯ģà®¤
Ġprojet o
ac o
Ġà¤ķ à¥įà¤°
Ġìļ ´
ÄŁ in
Ġç ı¾
ĠØ£ Ùģ
pr Ã¼
ure zza
ĠÙĪØ² ÙĬØ±
I j
ĠÎ½ ÏĮ
u bre
Ġæı Ĳ
Ġbet 3
Ġsed ang
iy ÉĻ
éĿ ©
Ġin nych
rie b
Ġrequire ments
Ġv inden
Ð² Ð¾
ÏĢÎ¿Î¹ Î·
à°¿à°¯ à±ģ
Ġf ot
Ġlie u
Ġà®¤ à®°
Ġco lla
Ġch á»©
ĠÕ¥ Õ¶
åŁİ å¸Ĥ
ĠÙĨÙĪØ´ ØªÙĩ
ĠWh y
ĸà¸ ·à¸Ń
Ġãĥ¡ ãĥ³ãĤº
ĠÃ¼z rÉĻ
ëĵ¤ ìĿĦ
à®Ł à¯įà®ļ
ta ÅĤ
Ġbu at
Ġà¤¤ à¥ĩ
ur uh
ãĥ¼ãĥ ģ
ĠìĿ Ģ
Ñı Ñĩ
Ġt Ã½
à¤¿à¤² à¤¾
Ġpou co
ĠÐ¿ÑĢ Ð¸Ð·Ð½
g Ã¼n
Ġmag gi
ÑĢ ÐµÐ¶Ð´
Ġ×¢ ×ĳ×ķ×¨
ung i
Ġv en
åĢ į
ĠÙĥ ØªØ§Ø¨
×© ×ķ
Ġv od
ÏģÏī ÏĢÎ±
Ø¨ÙĦ Øº
Î¹Î½ Î®
ĠØ£ ÙĤ
ben d
ÄŁ iniz
Ġ×© ×¨
er ien
Î½ ÎµÎ¹
ĠÐ¾ ÑĦÐ¾ÑĢÐ¼
Ġz onder
Ġr ice
à¦¦ à¦¿à¦¨
à¤ı à¤¸
Ġhttp s
w Ã¤
Î»ÎŃ Î¿Î½
Ð°ÑĢ ÑĮ
ãĤĴ ãģĬ
Ġres taur
ĠÐ´ ÐµÐ½
æĤ ¨
à¥ĩà¤ ¬
à±ģà°¤ à±ģà°¨à±įà°¨
Ġeen s
Ġ×Ĳ×ª ×Ķ
Ġjed er
å² Ľ
Ġå¤§åıĳ å½©ç¥ŀ
Ġà¤ ł
ĠnÃ© cess
ĠÏĩÏģÎ· ÏĥÎ¹Î¼Î¿
ÑĢ Ð¸Ð´
Ġda ily
Ĥ à¹īà¸²à¸
ĠØ« ÙĦØ§Ø«
b G
Ð¸Ð½ Ð¾Ð¹
Ġìł Ĳ
all en
ĠÐĿÐ¾Ð² Ð¾ÑģÑĤÐ¸
ĠÙħ ÙħØ§
Ġc ross
Ġs il
v at
Ðº Ð°Ñı
Ġà´ ħ
Ġth áº§n
ĠE ven
ec ut
Ġë¬´ë £Į
if at
Ġà®® à®¾à®¤
Ø§Ø±Ùĥ Ø§Øª
Ġihr er
ĠE du
×ķ×ŀ ×Ķ
est is
å¤§ å°ı
Î² Î¬Î»
D etail
Ġà¦¬ à¦¾à¦°
Ð¸Ð¼ Ð¾
ĠT á»«
×Ĵ ×¨
ãģª ãĤĭ
ĠÎ´ Î¹Î¿
ĠS er
ĠEn tw
ĠgÃ¶n der
à¤¾à¤ ¡
à±įà° ¬
Ġwsp Ã³ÅĤ
ÑĢÑĥ ÐºÑĤ
ardz iej
ĠÐ¡Ð ¨ÐĲ
Ġ200 9
ãģķãĤĮãģ¦ ãģĦãĤĭ
ãģ ŀ
Ġs en
Ð¾Ðº Ñģ
Ġgel iÅŁ
ĠÐº ÑĢÑĥÐ¿
Ġpujck y
E I
ĠØŃ Ú©
Äħ da
Ùģ Ø¸
m az
ĠÙĪØ§ÙĦ Ø¯
ÐµÐ· Ð¸Ð´
à®µ à®°à¯į
ĠØ§ÙĦØ£ ÙħÙĨ
olo j
Ġsch Ã¶n
ĠÐ¿ Ð¾ÑģÑĤÐ¾ÑıÐ½
Ġà¸ªà¸ ¡à¸±à¸
Ġë§ ŀ
sk Ã½ch
Ġg uest
Ġqual idade
ĠØ¹ Ø¯Ùħ
Ġdevelop ed
Ø¨ Ø§Ø´Ø¯
Ø³ Ø§ÙĨÛĮ
sch app
ĠØª ÙĦÙģ
¨à¸ ¶à¸
ĠÐ¾Ð±ÑĬ ÑıÐ²
à§ģ à¦¤
Ã¡ no
ÙĲ ÙĦ
it or
Ġsal le
ĠØ£ØŃ ÙħØ¯
vr ier
ed n
Ġ×ľ ×Ľ×ľ
Ġà¨ ¨
ĠbÃ¥ de
ĠØ¢Ø®Ø± ÛĮÙĨ
u chen
×ĸ ×¨
al jer
w and
ĠÐ± Ð¾Ð»ÑĮ
av a
Ġcas es
à±ģà°ķ à±ģà°Ĥà°Ł
Û ¶
Ġà¦® à¦¾à¦¸
Ġf ut
ĠØ§ÙĦØª Øµ
ĠÐ¼ Ð¾Ð½
é¡ ĺ
ÅĻ en
ĠØ¨Ø³ÛĮ Ø§Ø±ÛĮ
ĠÐ´ÐµÑıÑĤÐµÐ»ÑĮ Ð½Ð¾ÑģÑĤÐ¸
Ġtradition al
Ñĩ Ð°ÑģÑĤ
æķ° æį®
ĠS w
em bre
ĠÙħØ¨ Ø§Ø´
em ente
Ġk ne
ĠzÃ¡ klad
Ġm ention
Ġaant al
Ġe llo
åĭ Ŀ
em ek
ĠØ¯ÙĪ Ø³Øª
Ġwie le
cz ny
Ħ à¹Īà¸
ens a
ĠÐ¿ÑĢ Ðµ
Ðº Ñģ
Ġf ais
ab ili
Ġl aten
ĠÐº ÑĥÑĢÑģ
Ð½ ÑĥÐ»
ĠyaÅŁ am
Ġbamb ini
ķ é±¼
Ġ×© ×ª
ĠG ia
ĠT idak
ĠÐ´ Ð½Ñı
à¦¾à¦ ·à§įà¦Ł
Ø§ÙĪ ÛĮØ±
Ġorganiz ation
ĠÙĨ Øµ
Ġ×§ ×ĺ
Ġprze ci
Ġexperien cia
Ġdro it
Ġà¤ħ à¤ļà¥įà¤Ľ
ĠG ar
à®µ à®°à¯įà®ķà®³
Ġservi Ã§os
Ġhis toire
ra io
æī ¿
Ġe f
ĠØ§ÙĪÙĦ ÛĮÙĨ
ĠìĤ ¼
Ħ à¸£à¸²à¸°à¸
ì¶ľìŀ¥ ìĦľë¹ĦìĬ¤
Ùĳ Ùı
ĸà¸ ¹à¸ģà¸
íĻ ľ
ãģ¨æĢĿ ãģĨ
Ġc abe
à¦¹ à¦¾à¦°
ĠÐµ Ð´Ð¸Ð½
Ġsa w
Ġ ÃŃt
ay on
Ġìŀ Ħ
Ġsu it
à¦¿à¦Ł à¦¿
Ġpal ab
Ġsa ber
å± ŀ
Ġìĭ ¬
ick Ã½ch
ãĤ± ãĥĥãĥĪ
d om
ĠÕ¸ ÖĢ
à§įà¦ Ń
æº Ģ
ãĥ¼ãĥ ĩ
Ġextre me
8 0
ĠÐ¿ÑĢ Ð¸Ðº
Ġje u
ĠÎµ ÏĦÎ±Î¹
Ø§Ø¨ Ø¹Ø©
ar lo
Ġà¸ ģà¸£à¸
iv ity
iss ance
Ġà¦Ĩ à¦¶
Ġíķ¨ ê»ĺ
à¦°à§įà¦ ľ
Ġà¦¸ à§įà¦Ł
ãĥķ ãĤ§
ÄŁ imiz
à±ĩà° ¤
r Ã©e
ĠÐºÐ¾Ð½ ÑĨ
Ġà¦Ńà¦¾à¦° à¦¤
Ġ×ľ ×ŀ
à¤¾à¤² à¥Ģ
ä¸į åı¯
Î¸ ÏħÎ½
Ġstr utt
ĠÑģÐ¿ÐµÑĨÐ¸ Ð°Ð»Ð¸ÑģÑĤ
ĠÐ²ÑģÑĤÑĢ ÐµÑĩ
Ġà°Ń à°¾à°°
tell ing
Ġold uk
ĠO pp
tiv a
ĠIntern et
ĠÑĥ Ð»Ð¸
ĠÏħÏĢÎ¬ÏģÏĩ ÎµÎ¹
ĠØª Ø¬Ùĩ
ĠN utz
ìĿ µ
Ġb all
Ġim ages
áºŃ m
eder al
Ġ×Ķ×ŀ× ¢
à¹ģà¸ ģ
ĠÎ² Î±Ïĥ
åģ ¥
Ġkol ay
à§ĩà¦ ¹
ĠWe bs
ĠÑģ Ð±Ð¾ÑĢ
ķà¸²à¸ ¡à¸
ĠAmer ica
à¤¿à¤ ¹
Ġlu áºŃn
er ne
Î³ Î¹
Ġker ja
Ħà¸£à¸²à¸°à¸ «
Ãº i
à¦°à§įà¦ ¶
Ġon un
éľĢ è¦ģ
Ġà§ ·
Ġc ad
ĠprÃ³ pr
ĠT á»ķng
Ġç Ĳ
Ġglo bal
ĠÐ´ÐµÐ» Ð°ÑĤÑĮ
ĠnÄĽ jak
ab y
ĠAn y
Ġ×Ĺ ×ľ×§
à¦¿à¦¬ à¦¾à¦°
Ġgoed e
ĠSel ain
Ú© ÙĪ
Ġpar ents
Ġngu á»ĵn
ĠGmb H
ĠØ§ÙĦØ¹ ÙĤ
Ġà®ħ à®ªà¯įà®ª
Ġìłľ ê³µ
ant or
Ġx á»Ń
Þ° Þ
d ÄĻ
Ġem er
ĠCh á»§
et tes
Ġn Ãºmero
Ġc asi
Ġà®İà®© à¯į
Ġrep air
à§ĩà¦® à§įà¦¬à¦°
à¥ĩ à¤¹
à®² à®¿à®²à¯į
à´ £
ìĿ´ ëĤĺ
è© ķ
ĠØŃ ÙĬÙĨ
Ġà¸ Ĺ
à¥ĭ à¤§
Ġcu á»ĳi
Ġha qq
Ġplay ers
à°Ĥà° §
Ġng Ãłnh
Ġpel os
åį Ģ
2 9
ĠK em
Ġ×Ľ ×ĳ×¨
oun tain
Ġà¤ĺ à¤°
ĠÐ°Ð´ ÑĢÐµÑģ
Ġà°ķ à°¾à°¨
Ø´ Ùĩ
ãģ«ãģª ãģ£ãģŁ
b aÅŁ
Ġgroup s
ĠÙħÙĪØ¨ Ø§ÛĮÙĦ
ĠR ic
çĹ ħ
Ã§ on
ĠÐ° Ð³
à®ļ à¯į
à±ģà°ķ à±ģà°¨à±įà°¨
Ġé¦ Ļ
Ġb ax
Ġk to
ĠÃ© cr
ä¹ Ŀ
ãĤ¹ ãĤ¯
ĸ à±įà°¯
ĠNg Ãły
ĠìĿ´ë ²
ah ui
Ġìĭľ ê°Ħ
Ć ĆĈ
ļà¸²à¸ Ħà¸²à¸£
Ð» Ñĥ
Ġcon du
ĠØ³ÛĮ Ø§Ø³ÛĮ
äºĨ ä¸Ģ
a ign
ĠÐ¾Ð¿ ÐµÑĢ
ĠÑĤ ÐµÐ±
Ã¸ s
×Ļ×© ×¨×Ĳ×ľ
Ħ à¹īà¸²à¸
Õ º
áĢ º
ÅĦ ski
Ġhe lt
å®ĺç½ĳ ä¸ĭè½½
Ġisti f
ĠÎ´ ÎµÎ¯
à¦¦à§įà¦ ¦
Ġc áº¡nh
Ġ3 7
Ġpubb lic
ĠÏĥÏħÎ¼ Î¼Îµ
çļĦ äºº
it ure
ĠÑģÐ²Ð¾ Ð¸Ñħ
ĠA bs
Ġt Æ°á»Łng
Ġrich ies
er ous
Ġ×ł ×§
ĠØ³ ÙģØ±
ĠT ut
å¯ Ł
Ã¢ ce
Ġà¤ħ à¤µ
Ġxu á»ĳng
Ġr in
Ġleg al
Ø³Øª Ø±
inh os
Ø§Ùħ ÙĦØ©
æ± ĩ
Ġ8 0
Ġatt ention
à®¿à®¯ à¯ĩ
à¯Ĥ à®°
ĠÃĸ n
Ġde ath
Ġmes in
Ġac ordo
ĠÑĦ Ð¸Ð·
Ġn odig
ic amente
ãĤ¿ãĤ¤ ãĥĹ
it ation
ilm iÅŁ
Ġpro getto
ĠNe j
ãĤ± ãĥ¼ãĤ¹
ĠZ immer
ti er
Ġsto ck
ak in
ĠØ¶ Ø¯
Ġpos itive
ĠìĿ Į
Ġph otos
ĠØ§ÙĦÙĥ Ø«ÙĬØ±
om ini
ÙĪ Ø¨Ø©
ĠØ¨Ø± Ø§ÙĬ
ĠØ· Ø±ÛĮÙĤ
ĠDe v
Ġch Æ°Æ¡ng
iá»ĩ p
à¤Ĥà¤¤ à¥įà¤°
cie ty
© ´
Ķ ëĭ¤
Ġcu er
ib ilidad
à¤ Ŀ
à¯Īà® ®
per caya
Ġkinder en
Ħ à¸Ńà¸
ten ir
Øº ÙĬ
Î¹Ïĥ Îµ
çĤ º
ÏĦÎ· Î³Î¿
Ġlos t
Ġ×©×ľ ×ķ
åĿ Ľ
Ġin ici
Ġtem at
ĠÎłÎµ ÏģÎ¹
Ġà¤¬ à¤ļà¥įà¤ļ
Ñģ Ñģ
ya br
ĠÎº Î¿Ïħ
ĠÐ¿ÑĢ Ð¸Ð»
Ġat tra
ĠGesch Ã¤
Ġ×ł ×Ļ×ª×Ł
ĠÑĪ Ð¸ÑĢ
å¯ Ĩ
ĠÐºÐ¾Ð¼ Ð½
te ÅĻÃŃ
and Ä±r
emb ang
Ġno te
es ten
wo hn
qui pe
ë§ Ŀ
Ġsit es
ve mbre
à¬ ¾
æĬķ èµĦ
Ġè Ĭ
è¾ ĥ
al itÃ©
ĠX em
ĠB Ã¼yÃ¼k
Ľà¸£à¸°à¹Ģà¸Ĺà¸ ¨
à©± à¨
ÏĦ ÏģÎŃ
Ġk ob
ç³» ç»Ł
ĠS ek
Ð¾Ð· Ð¼Ð¾Ð¶
ĠÐ¿Ð¾ÑĢ ÑıÐ´
Ġà¹Ģà¸ ŀ
ĠÐ¾ÑĤ Ñģ
à®¿à®¯ à®¿à®©à¯į
Ġm ic
Ġs qu
ÙĩØ§ ÙĬ
Ġg est
ĠØ¬ ÙħÙĦÙĩ
Ġà¤Ĩ à¤¯
ªà¸²à¸¡à¸²à¸£à¸ ĸà¸
Ġpel iculas
v an
Ġb ol
ur der
ag li
Ùİ Ø§ÙĦ
ĠÙ¾ ÛĮØ±
ĠG li
Ġà®ķ à®¿à®Ł
ĠìĦł íĥĿ
ĠU N
å¤§åıĳ å¿«ä¸ī
Ġposs ÃŃvel
Ġvra iment
Ø§Ø· ÙĤ
Ġr á»Ļng
ĠM es
å¦Ĥ ä½ķ
Ġz ahr
Ġge ven
v oll
ĠÐ¾Ð±ÑĢÐ°Ð· Ð¾Ð¼
ãģł ãĤįãģĨ
az o
Ħà¸ ¥
ĠR E
Ø² ÙĬ
Ġà¦ķà¦° à§ĩà¦Ľà§ĩà¦¨
Ó Ļ
Ġwe g
Ġp ad
Ġgo es
Ġåĳ ¨
à¤°à¥įà¤ ¶
ĠÐłÐ¾ÑģÑģ Ð¸Ñı
ow ing
à°¾à°Ĥà° ¤
v ole
p ut
Ġach ieve
Ġä» £
Î© Î£
Ġé© ¬
Ġe conÃ³m
Ġn es
ÅĤo Å¼
ĠB iz
×Ļ× ¥
æķ ħ
Ġheb t
æĸ¹ éĿ¢
Ġæ µľ
ĠÏĩÎ± ÏģÎ±Îº
ĠØ ¦
Ġcho ix
Î¿Ïħ Ïĥ
â Ļ
ĠP u
ĠØª ÙĪØ±
Ġç» ı
ĠÐ³ Ð¾Ð»Ð¾Ð²
ot he
à¹Ħà¸ §
Ġè Ļ
Ġcomplete ly
à§ĭ à¦·
Ġpam am
Î´ ÎµÏħ
ĠÄĳá»Ļ c
cess o
Ġm ieux
ers i
ãģŁãĤģ ãģ«
ĠØ¨ÛĮÙħ Ø§Ø±ÛĮ
Ãł u
åį «
Ġaff ect
à¯Ĭ à®°
Ġdá»¥ c
ĠÙĪÙĤ Øª
Õ¡Õ¶ Õ«
Ġt ubuh
ĠÚ© Ùģ
Ġà¤® à¤¾à¤®
Ø§ ÙĬØ±
Ġà¤¸ à¥Ĥ
ÏĨ Î¹
ĠBl ack
ĠC i
ĠÏĢ Î¹
Ġà®ī à®±
Ġplay ing
Ġkun ne
Ġc at
ĠØ§ÙĦØµ ÙĬÙĨ
Ġlle gar
ĠJ os
Ġà®ļ à®¨à¯įà®¤
Ð¸Ð² Ð°Ð½Ð¸Ñı
Ġfuer on
ĠIntern ational
ed ere
Ġa ura
Ġont wikk
æ´ ¥
ĠÏĥÎ· Î¼Î±Î½
= =
ĠØ§ÙĦØ ¸
Ġwy d
p end
n ier
ÑĢ ÐµÐ·
Ġpued es
ĠØ£ÙĬ Ø¶
ÐłÑ ķ
Ġp m
åį ĥ
ĠPro f
ĠH ouse
Ġà¦ ł
ĠÑĩÐ°ÑģÑĤ ÑĮ
ĠØ§ÙĦØ´ Ø¹Ø¨
w aar
Ġà¦ª à§ģà¦°
Ġus t
Ġà®ħ à®²à¯įà®²
Ġst orage
ĠØ§ÙĨØ¯ Ø±ÙĪ
Ġed ÉĻn
ÑĥÑĢ Ð½
ĠEng lish
) ,
Ġc in
Î±Î½ Î¬
eng ono
ĠØ³ ÙĨØ©
Ġdr ink
Ð½ Ð¾Ð·
ond ers
Ġì² ĺ
ĠNew s
ĠA le
Ã¼ p
ol tre
ĠF ree
ĠìĺĪ ìķ½
Ð¾Ð» Ð¾
ia ble
ĠrÃ© c
Ðŀ ÐĴ
ig u
Ġy ung
å¼ķ ãģį
ĠìĤ ´
Ġà¤¬ à¤¢à¤¼
áº µ
u ary
anie m
Ġd Ã¹
iler in
Ġcor rect
Ġà¤ķ à¥įà¤¯à¥ĭà¤Ĥ
Ð½Ð¸ ÑĨ
ä»ķ äºĭ
ÅŁ ehir
ç½ĳ _
ie ÃŁ
ĠÐ´Ð² Ð¸Ð¶
Ġdu Å¼
Ø¬ Ø±Ø§Ø¡
ĠØ§ ÙĤ
ê° Ŀ
ĠÎłÎ± ÏģÎ±
ÅĤu gi
Ġìĭľ ìŀĳ
Ġà¤ļà¤¾à¤¹ à¤¿à¤ı
ĠÐºÐ¾Ð¼Ð¿ ÑĮÑİÑĤ
ar nya
erst Ã¼tz
ĠSin ce
ĠØª ÛĮØ±
Ùħ ÙĬØ³
ĠÎ± Î³Î¿
Ġaut o
Ġcomple x
Ġà°®à°° à°¿à°¯à±ģ
Ġ ãģĭ
ok e
Ġà°Ĺ à±įà°°
ĠÎµÏģÎ³ Î±Ïĥ
×ł×Ļ ×Ļ×Ł
ĠDÃ© c
Ø§Ø¬ Ø©
à±ģà°ķà±ĭ à°µ
ĠÐ³ Ð¾ÑģÑĤ
Ġà®¤ à¯ĭ
ĠÐ¼Ð¾Ð¼ ÐµÐ½ÑĤ
Ġà¦ļ à¦¾à¦²
Ġë¯¸ êµŃ
ĠH indi
Ġcz ÅĤ
Ħà¸§à¸²à¸ ¡à¹Ģà¸
å®¢æĪ·ç«¯ ä¸ĭè½½
ķ à¹īà¸Ńà¸ĩ
Ã© o
ĠÐ´ Ð°Ð»ÑĮ
ĠÑģ ÐµÐ·
ÏĦÎ® ÏĥÎµÎ¹ÏĤ
æĥħ åĨµ
ĠTh á»§
Ġim agen
ĠÎ¿ÏĢÎ¿ Î¯
ĠØ§Ø± Ø²Ø´
à¯Īà®ķà¯įà®ķ à¯ģ
ĠFrau en
Ġor den
Î³ Î¿Î½
ªà¸³à¸« à¸£à¸±à¸ļà¸
ĠM ai
Ġnicht s
Ġha re
Ġph Ã¹
ĠØµÙĨ Ø¹Øª
à§ĩà¦ Ĺ
as ons
ond on
ĠÄĲ Ã´ng
ĠV iel
Ġrec om
Ġx in
Ġfun cion
ĠÐ´Ð¾Ð»Ð¶ Ð½Ñĭ
ed ding
ãģĹ ãģªãģĦ
ĠØ¯ Ø§Ø®
Ġf urn
Ġë¬¸ ìłľ
Ġsit io
Ġz usammen
Ġprod otto
ĠA g
ĠW he
Ġdocum ent
Ġdin ero
ĠT V
Ð¾ÑĤ Ð¾
è¿ İ
wo od
Ġsur pr
ÏĦÎµ ÏģÎ±
Ġ Ïį
ac ciÃ³n
ç§ Ł
Ġmy self
at ivi
ĠEn de
Ġ×Ķ×ŀ× ĵ
ĠìĿ´ë Ł
uest ra
Ġso hbet
Øµ ÙĪØ±
f ico
Ġm uh
ĠgÃ¶r Ã¼ÅŁ
lerin den
ir im
Ġgem e
ç¢ °
ĠB au
Ġ Ã¡o
ĠÑģ Ð¾Ð³Ð»Ð°Ñģ
à¦¿à¦ ¹
Ġjan vier
ĠØ£ Ø¬ÙĦ
ĠÐ¿Ð¾Ð»ÑĥÑĩ Ð¸ÑĤÑĮ
ĠÙ¾ ÛĮØ¯Ø§
el a
Ð¾Ð¶Ð´ ÐµÐ½Ð¸Ñı
Ġk ons
× ģ
ut an
op f
Ġre ach
Ġap oy
Ġsm art
ub ungan
Ġc ou
ÎºÎµ ÎºÏģÎ¹
ãģ® ãĤĤ
Ã¶ t
ach sen
ĠB rit
à¤°à¥įà¤ ¦
er as
Ġd ados
in ary
ĠÐĴ Ð°Ð¼
ĠØ§ÙĦØª Ø¯
Ġfa ir
ĠìĦľ ë¹ĦìĬ¤
Î¼Îµ Î½Î±
Ġê°Ļ ìĿĢ
Ġpict ure
ĠØ§ÙĦÙģÙĦ Ø³Ø·ÙĬÙĨ
ØªØ± ÙĦ
ini Ã³n
Øª ÙĬÙĨ
Ġà¤Ĩ à¤Ī
ĠØ¨ ÙĨØ¯ÛĮ
Ġdeci ded
è¡Į ä¸ļ
ĠëĬ Ķ
ÐµÑģÐ¿ ÑĥÐ±Ð»Ð¸
Ġà¤²à¥ĩ à¤ķà¤°
ĠwiÄĻ k
ĠÐ¿Ð¾Ð¿ ÑĥÐ»ÑıÑĢ
ĠdÆ°á» ¡ng
ng r
Ġ Ñī
ĠÐº Ð¾
her n
Ġ4 9
ĠM em
ĠæĬ ķ
à¶± à·Ĭ
è¯ į
Ġc iÄħ
Ġterb aru
Ġmel ihat
Î² Îµ
à¤¬ à¥Ģ
Ġà®Ĩ à®°
×Ļ×¤ ×ķ×ľ
Ùĩ ÙĨ
à§ĭ à¦ª
è¡ Ģ
ĠÏĥÏħÎ½ ÎµÏĩ
Ġuz un
ĠÙħØŃ ÛĮØ·
Ġav r
ĠØ£ ÙĩÙħ
Ġom dat
åį Ĭ
ÙĤ ÛĮÙħ
ĠÙħ Ø¨Ø§Ø±
Ġ' ).
Ġí ŀ
à¤® à¤¾à¤¨
ĠØ§ÙĦØ® Ø§Ø±Ø¬
Ġà®ļ à®°
å¥ ¹
Ñİ Ð±
Ġà®ª à¯ĩà®ļ
ĠÐ¿Ð¾Ðº Ð°
à±įà° £
Ġm ia
ĠØ§ÙĦØªØ¹ ÙĦÙĬÙĤØ§Øª
Ġse i
ĠØ§ÙĦÙħ Ø±ÙĥØ²
Õ ¢
ar ter
ĠÙħØ¯ Øª
Ġoy n
Ġf ÉĻ
am at
Ġem ple
ëĳ ĳìĿ´
j u
ĠØ§ÙĦÙħ ÙĦÙĥ
ØµØ± ÙĬØ©
ĠC H
à®Ł à¯į
ĠO ver
æĺ¯ çľŁ
ĠíĬ ¸
Ġgem aakt
Ø§Ùģ Ùĩ
Ġd ry
Ġæ ¾
ãĥ¬ ãĥĵ
ac er
ze ÅĦ
àµįà´ ¯
Ġdel i
lan an
Ġwet en
ë ĥ
åº «
Ġ×Ĳ ×ŀ×¨
Ġper tama
Ø¨Ø¯ Ø£
ĠÙĪØ³ ÙĦÙħ
ìĪ ľ
ĠÐ± Ð¾
Ã¼ b
ÐµÑĢ Ð¾Ð¼
âĢĮ Ø§ÙĦ
à®¿à®ķà¯įà®ķ à¯ģ
und an
×ķ×Ĳ ×¨
Î¼ÎŃÎ½ ÎµÏĤ
ĠÎµÎ¹ Î´
ĠpÅĻ ip
ors i
Ġê¸° ìŀĲ
ĠÙĪØ² ÛĮØ±
ĠB ad
è¦ §
ĠFr ank
Ġà®ħà®µ à®°à¯įà®ķà®³
¶ à¹Īà¸ĩ
à¦¿à¦ §
ĠÐļ Ð°ÑĢ
ĠÎ¾ ÎµÎº
Ġb al
el u
Ð¸Ðº Ñĥ
Ćć ą
Ġinf atti
Ã¨ g
Ġ×Ľ ×Ł
à¦¾à¦ĩ à¦¨
iss Ã£o
Ġpos to
y le
Ġgj Ã¸re
Ġis te
Ġ ia
ĠLe ist
ãĤ³ ãĥ³
ĠãĤ· ãĥ£
ĠÑĨÐµÐ½ÑĤ ÑĢ
ĠI de
ĠãĢĤ ï¼Į
ĠÐ½Ð°Ð· Ð°Ð´
Î³ Î¬
Ġs Ã¸
Ġlim ited
Ġdis fr
Ġg it
ĠâĢĿ ãĢĤ
Ġtrav a
à¤ļ à¥ĩ
Ġè® ©
Ġreg ister
ĠíķĦ ìļĶ
ol ah
cz u
ent Ã³w
Ġt or
Ġé¦ ĸ
ãĤ¦ ãĤ§
è® ¸
Ġser ious
ce mbre
ĠÑĢÐ°Ð·Ð²Ð¸ÑĤ Ð¸Ñı
Ġk siÄħÅ¼
ãĤµ ãĥ¼ãĥĵãĤ¹
ĠÎº ÏģÎ±
Ġt ick
ak es
Ġt ÉĻd
Ġgl ass
Ðº Ð»ÑİÑĩ
ts iz
Ø§ ÙĪØª
å ´
Ã© li
Ġà¤ª à¤¾à¤¸
Ġh ous
Ġd lou
ĠAn kara
ãģ«ãĤĪ ãĤĭ
ĠØ£ÙĬ Ø¶Ø§
Ġd ort
ent y
us an
ÙĦÛĮ Øº
Ġdi f
ĠÐ½Ð° ÑĢÑĥÑĪ
ĠTh á»ĭ
A U
à¥ģà¤ ³
Ġ Ä±
Ġde z
Ġc res
Ġcreat ing
ZION E
Ġf est
f eld
w oord
Ġer halten
Ġarr iv
ÄĻ Å¼
Ġmas alah
×Ĺ ×Ļ×Ŀ
ĠÙ¾ ÙĦÛĮ
um u
c jÄĻ
ĠÎ±Î½ Î¸ÏģÏİ
Ġmad rid
ĠØŃØ¯ ÙĪØ¯
Ġb zw
ĠpÅ¯jÄį ky
Ã§ Ã¼k
ĠRo z
ier ra
ĠÑĤ Ð¾Ñĩ
ĠrÃ©s ult
ĠÑģ ÑģÑĭÐ»
ĠIn n
pl atz
Ã¶ ÃŁe
Ġest udi
ĠMÃ¼ dÃ¼r
íķ ´ë
à¤ª à¥ģà¤°
Ġv Ã©r
Ġpre fer
ÐµÑĢ Ð¼
ĠA c
ĠÐ´ Ð¸Ð·
Ġn ich
×ł ×Ļ×Ķ
Ġihr en
ĠCu ando
å® ³
Ġpe qu
ĠÙĪ Ø¬Ùĩ
Ġkw al
Ġber ikut
Ġn astÄĻp
Ļ à¯įà®ķà®³à¯į
Ġå± ±
§à¸ ĩà¸
Ä± ca
ĠÙħÙĩ ÙĨØ¯
Ø¯ Ø§Ø±
Ġm uer
ĠÙĪØ§ÙĦ ÙĨ
Ġà°¨ à±ĩ
em ukan
ĠÐ¾ ÐºÑĤ
ch s
t ant
ir m
åį ³
Ġsu ll
ÃŃ cia
Ġrec ono
Ġà¦® à¦¨à§ĩ
æīĭæľºå®¢æĪ·ç«¯ ä¸ĭè½½
à§įà¦² à¦¾à¦¹
Ð¾Ð±ÑĢ Ð°Ð¶
pt iembre
éģ ©
Ïģ Î¯Î±ÏĤ
ĠÐ¾ÑĦ Ð¸ÑĨÐ¸Ð°Ð»ÑĮ
Ġwszyst ko
ĠÙħÙĦÙĬ ÙĪÙĨ
ĠmoÅ¼ liwo
Ġt ed
rit t
Ġx ÉĻbÉĻr
ĠÐ¼ Ð¸Ð»
ĠÐ´ ÐµÐ¿
Ùİ Ùī
aix a
Ġ×© ×Ĺ
Ġâ Ŀ
Ġtet ap
Ġw w
ĠÐ¸ ÑĤ
é¦ Ĩ
ÙĪÙĤ Ùģ
Ġí Ī¬
ĠP i
ĠÙħ Ùģ
al aki
Ġà¸ ļà¸
à®Ļà¯įà®ķà®³ à®¿à®²à¯į
×Ľ ×ķ×ª
à°¾à°° à°¿
ĠT ambiÃ©n
à®ªà¯įà®ªà®Ł à®¿
zion ali
ĠU p
ä»ĸ ä»¬
ĠÐ¾Ð¿ Ð¸Ñģ
rov ed
ĠØ¹Ø¨Ø¯ Ø§ÙĦ
à¦¾à¦·à§įà¦Ł à§įà¦°
Û ·
ro j
ÑģÐº Ð¸Ð¼
Ġz ast
ÎĻ ÎĳÎ£
ç§ ¯
ĠD av
Ìģ c
Ġb ent
ta at
et i
ç¢º èªį
Ġanal ysis
Ġright s
ªà¹Īà¸§ à¸Ļà¸
Ġìķ ½
Ġoff re
ĠspÃ© cial
Ġ200 8
ìł ¸
ÃĪ Ãĭ
à¨ Ĥ
Ġg Ã¡i
ĠÏĢÏģÏĮ Ïĥ
Ġr id
ta gli
u gh
h aps
à® ľ
ÑĤ Ñĥ
ĠÎº Îµ
Ð¸ÑĤ ÐµÑĢ
Ïĥ Ïį
ĠìĿ Ħ
ĠÙĬ Ø¤
à¯ĩ à®¯
Î¶ Îµ
Ġre lease
à°¿à°Ĥà°Ĺ à±į
o j
Ø§Ø¦ Ø¹
Ġkho a
ÙĩÙĩ ÙĩÙĩ
Ġprv nÃŃ
Ĉ ć
er c
à¯Īà®¯ à®¾à®ķ
Ġíķ Ń
ĠÐ¿Ð¾ Ð¸ÑģÐº
à¤¾à¤ı à¤Ĥ
Ġet d
Ġk embali
ci onal
Õ¡Õ Ń
ĠS im
ãĥ¼ãĤ Ń
Ġæľ ¨
Ġver dade
ĠæĿ¥ æºĲ
à°Ĥà°¤ à±įà°°
Ġk ek
ek k
Ø· ÙĬØ¹
Ġgr oupe
re if
Ø± ÙĬÙĨ
ĠA v
è²© å£²
Ñĥ ÐµÐ¼
Ġå® ¶
anÄ± t
çĶ ³
ãĤı ãĤĬ
Ð»Ñı ÑİÑī
ĠÙģØ±ÙĪØ´ Ú¯Ø§Ùĩ
z pie
uk u
Ġmod e
ula res
am 8
Ġà¦ľ à§Ģà¦¬
Ġ×¨ ×ĳ
Ġâĺ Ĩ
Ð¿ Ð°ÑĢ
Ġes ter
al ing
Ġdon nÃ©es
Ġ×ĳ×ŀ× ©
zn am
Ġres s
ond isi
Ġas eg
ĠServ ice
Ġà¦¨à¦¿ à¦°à§įà¦
ĠÐ½ ÐµÐ¹
×Ļ×ĳ ×ķ×ª
ĠÂ ¥
ĠãĤ ¬
Ġru im
ĠåĽ½ äº§
ĠÐ¿ÑĢ ÐµÐº
ĠÙģÙĬ ÙħØ§
Ð²ÐµÑĢÐ¶ Ð´
Ġà¤ľ à¤¾à¤¨à¥ĩ
3 5
ĠÑĤÐ°Ðº Ð¸Ðµ
ĠNh Æ°ng
Ġæ¾³éĹ¨ ç½ĳæĬķ
â Ķ
å® £
ì¹´ ìĺ¤
em pio
ĠÛĮ Ùĩ
ĠÐºÐ¾Ð¼ Ð°Ð½Ð´
Ġprop rie
Ġsuccess ful
à¦® à¦¿à¦ķ
Ġthink ing
Ġmar gin
Ġà®®à¯ģà®© à¯įà®©
ë§Ľ ìĤ¬ì§Ģ
Ø§Ùģ ÙĤ
ãģĳ ãĤĮãģ°
ãĥĥãĤ· ãĥ¥
Ġe ÄŁitim
r ow
ĠåĬł æĭ¿å¤§
Ġãĥ ĭ
ĠEs to
ĠC amp
Ġlá»Ľ p
Ġlangu age
s za
à¦¿à§Ł à¦¾à¦°
ĠÎµ Î¼ÏĢ
Ġmiejs ce
Ġus ted
Ġjam ais
ĠÑĤÑĭ ÑģÑıÑĩ
ĠØ§ÙĦ Ø§Ø¹
Ġäºļç¾İ am8
Ġv Ã¹ng
æ¬ §ç¾İ
Ġrecens ioni
åª Ĵ
ì £
in u
Ø³ ÙĬØ©
Ġà¦ħ à¦§
t ak
Ġà§ ®
Ġsp ot
ĠØªÙĦ Ø§Ø´
Ġåķ Ĩ
ĠNh áºŃt
Ġt ur
it an
ĠInd ia
ĠÐ´Ð¾Ð»Ð¶ ÐµÐ½
Ġs Ä±
à®± à¯ģ
à°® à±ĩ
ĠÐ¾ÑĤ Ð¿ÑĢÐ°Ð²
Ġv ente
Ġsomet imes
ëŀ ¨
Ġrapp ort
é¢Ħ æµĭ
Ġnos otros
ous ly
ĠBil der
Ð°ÑĤ Ð¸
Ġob ject
Ġë ¥¼
ĠmÅ¯Å¾e te
ĠÏĢ Î¹Ïĥ
à°¸ à°Ĥ
Ġl á»ĩ
ĠØ¬ Ø´ÙĨ
Ġkon k
ĠØ¬ Ø¯Ø§
ĠJ une
ĠÐ¾Ð± ÑĥÑĩ
at ives
Ġnale Å¼y
Ġà¦¨ à§Ł
r ank
å² ¡
ĺ à¸£à¸£à¸
Ã¤ rz
en Ã§a
Ġspeci f
_c rop
ĠÙħÛĮâĢĮ Ø¯Ùĩ
Ð¾Ð¿ÑĢ Ð¸ÑıÑĤ
Ġr iÃªng
Ġthu Ãª
ens ive
à¦¾à¦ Ľ
ĠÙĦ Ø¨ÙĨ
Ġmach ine
ĠÐ° Ð¿ÑĢ
ĠK as
Ġc oc
Ġv áºŃn
Ġà¦ĩ à¦¨
ãģ£ãģ¦ ãģĦãģŁ
ÙģÙĬ Ø°
Ġ×Ĳ ×ŀ
ĠÏĨ Î±
is se
re cht
ŀ å½©
Ġe arn
Ġà®ªà®¾à®° à¯įà®¤à¯įà®¤
ĠØ¨Ùĩ ØªØ±
Ġcon fer
Ġst a
Ġ9 9
ill ing
íĻ į
à°°à±įà° ¶
Ùİ Ùĳ
Ġinn ov
ĠØ¯Ø® ØªØ±
ti ya
ĠN oir
Ġi yong
ç´ ļ
en ne
ĠSe b
ĠÙĪØ²Ø§Ø± Ø©
onn ement
ĠåĮ Ĺ
ĠØ± Ø´Ø¯
ÐµÐº Ð°
Ġinterest ed
iya ret
ĠB ro
Ġseg undo
Ð¼ÐµÐ½ÑĤ Ð°ÑĢ
ĠL ondon
Ã© is
Ġv iá»ĩn
ĠÙĦÙĦ Ø¥
ĠÑĤ ÐµÐºÑģÑĤ
à¤ ĺ
ol f
ĠÎł Î¿
ali ente
ĠSch we
ti fic
à¹ Ħà¸£
Ġdo k
Ġlie gt
ĠdoÄŁ ru
äºº çļĦ
Ġp ath
Ġwe iÃŁ
Ġan ci
Ġro ce
Ġm ab
Ġcli ent
Ġå¹ ¸è¿Ĳ
ĠC ap
Ġlo ad
Ġincont ri
à¸´à¹Ģà¸ Ħà¸£à¸²à¸°à¸«
åŃ ©
æĮ ī
ĠÙħ Ùı
Ä±l Ä±r
Ġapplic ations
å¹´ 0
Ġweit ere
lÃ© ment
ĠRes p
ì¶ ķ
ĠÎľ Î·
ãģ ģ
ĠÎ´ Î®
Ġà¦Ĩ à¦¨
to h
Ġres ol
ãĥį ãĥ«
ĠÆıl iyev
ĠÑĢ Ð°Ð´
ÙĴ ÙĨ
Ġê· ¼
Ġpouv oir
ĠÃ ®
åŃ ¸
Ġinform ations
Îµ Î¾
ãģĵ ãĤĮ
æĹ¥ ãģ¯
èĲ Ħ
ÏĦ Î¯Î±
Ġc á»ĳ
Ġi hn
Ġä¸Ĭ æµ·
Ð¾ÑĢ Ð¾Ð¶
uy e
à¥ĩà¤ £
ĠØ§ÙĦØŃ Ø±
à¦¾à§ľ à¦¾
ĠÏĥÏĦÎ¹ Î³
ie ke
Ġrag gi
ĠÑĩ ÑĥÐ²
Ġçµ Ĳ
à®¿à® ¸
Ġh uyá»ĩn
Ġh Ã¥
ĠI B
Ġp endant
Ġre a
Ġm au
Ð¾ÑĢ ÑĥÐ¼
ĠÎ¼ÎµÎ³ Î±Î»
Ä±y orum
Ø¢ ÙĨ
à°°à°¿à° Ĺ
ÄŁ an
Ġë ¯¼
ĠÐ¾ÑĤÐ·ÑĭÐ² Ñĭ
Ġvy u
×ķ×ľ ×ķ×Ĵ
ene z
ĠÛ±Û³Û¹Û µ
ÐµÐºÑĤ Ð¾ÑĢ
ĠëĶ° ëĿ¼
ĠR ed
Ġà¤Ńà¤¾à¤° à¤¤à¥Ģ
Ġwer ken
Ġà®ªà¯ĭ à®²
Ãº a
to re
Ġå» º
A C
ĠØ±ÙĪ ØŃ
Ġbusiness es
ãģı ãĤĭ
ØŃ Ø¨
Ġav v
ĠT arih
ç½ĳ ç»ľ
Ġà¦ķà¦¾à¦ Ľà§ĩ
Ġh jel
à´ ±
ĠÐ¿ÑĢÐµÐ´Ð¿ÑĢ Ð¸ÑıÑĤ
ĠÙĦØ¨ Ø§Ø³
ĠØ¹ÙĦÙħ ÛĮ
Ġm ampu
Ġg ain
ĠWe ll
lar Ä±mÄ±z
ĠÙħÙĬ âĢĮ
Ø§ÛĮ Ø¬
ĠØ§ÙĦØ£ ØŃØ¯
ĠÙĨÙħ ÙĪÙĨÙĩ
il ah
Ġpart ners
Ġar tik
ĠÄį esk
kie j
ĠLeben s
à¹īà¸Ńà¸¡à¸ ¹à¸
Ġu Ã§
ĠÄĲ iá»ģu
éĺ ª
ĠKom ment
Ġmo yen
ÉĻx s
Ġk raj
se ign
å¿« ä¹Ĳ
eng ah
Ġder nier
ĠØªØ¨ ÙĦÛĮØº
Ġcom men
Ġhist Ã³ria
Ġth áº¥t
ĠÐ´ ÑĥÐ¼
à¹Ģà¸ Ľ
Ġh ora
ĠSh op
ĠB ur
Îº ÏİÎ½
Ġå £
ĠC ho
Ð´Ð° Ñĩ
Ð°Ð² Ð»Ð¸Ð²
im as
ys te
Ġà¤īà¤¨à¥įà¤¹ à¥ĩà¤Ĥ
ĠAs soci
Ġper usahaan
Ġï¼ ħ
é«ĺ ãģĦ
æĻĤ è¨Ī
à¦ ĺ
cz es
Ġà¦ħ à¦ªà¦°
à°³ à±įà°³
Ġkh usus
Å¡ i
ÑĪ ÐµÐ¹
ãĥ³ãĤ µ
Ñı Ð¼Ð¸
ĠT rav
ĠÐºÐ¾Ð»Ð¸Ñĩ ÐµÑģÑĤÐ²Ð¾
ĠbÃ¶l Ã¼m
ĠF ace
è¿Ļ ä¸ª
ĠÐ¿ÑĢÐ¸Ð½ Ð¸Ð¼
Ġl ig
ĠØ§ÙĤØªØµ Ø§Ø¯
Ġa w
Ġolar aq
cre tsiz
¥à¸ ĩ
Ø³ Ø§Ø¡
z io
ag na
à¤¿à¤¯ à¥ĩ
æĸĻ çĲĨ
att utto
Ġpres idente
Ġm Ã´
ĠÄĳ Ã´
ÏĪ ÎµÎ¹
Ġe ye
I T
ri Ã¨re
ient i
1 00
Ġaj ud
ÑĤ Ð¸Ðº
tel ijk
Ġl isten
æŃ ³
ĠÑĢÐµÐ¶ Ð¸Ð¼
ĠAn s
Ġåį ģ
ĠÏħ ÏĢÎ·ÏģÎµ
ĠÐ·Ð°Ð´ Ð°Ñĩ
à§įà¦¯ à¦¾
Ġprom ot
ĠÙħØ¹ Ø§ÙĪÙĨ
Ä° S
ØªØ± ÙĨØª
ĠëĨ Ĵ
le icht
ãĥ¼ãĥ ķ
à¦¾à¦¦ à¦ķ
e cek
Î³ÏģÎ¬ ÏĨ
Ùİ Øª
¾ è®¯
Ġï¼ İ
ĠS ono
Ġì° ¾
ĠÛ±Û³Û¹Û ¸
ĠÐ¿ÑĢÐ¸ Ð¾Ð±ÑĢ
Ġà¦ħà¦¬ à¦¸à§įà¦¥
Ġì¹ ĺ
Ġrel aciÃ³n
Ġdist rib
Ġcz erw
ĠÐ°Ð´ Ð¼Ð¸Ð½
ØŁ ØŁ
ç» Ī
Ġà¤° à¥ģà¤ª
Ġcommer cial
×ķ×ĳ ×ķ×ª
ĠØ§ÙĦÙĤ Ø·
Ġ×Ķ×ŀ× ¡
Ġbus ca
bo ard
Ġsmart _crop
Ġ×Ĳ ×¡
b li
ĠØ³ ÙĪÛĮ
Ġto wards
ĠÎ±ÎºÏĮ Î¼Î±
os te
Ġall en
ĠCh ar
ãģķãĤĵ ãģ®
Ġà¦¸ à¦¾à¦§
as ion
Ġch w
ÏģÎ¹ Î¬
ĠF eb
Ġçľ ĭ
Ġm ah
Ġà¤¬ à¥įà¤°
ĠØªÙĩ ÛĮÙĩ
Ġà®ĩ à®±
Ġper Ã²
Ġï¼ Ĩ
Ġb iá»ĥn
ĠÙĥ Ø«ÙĬØ±
ist iche
Ġç Ī
ĠÛ±Û ±
ĠCh ina
Ġê²ĥ ìĿ´ëĭ¤
çĽ¸ åħ³
ãĥ¼ãĥ ª
Ġwszyst kie
Ġitem Id
Ġà¤ Ī
Ġp ont
Ġà¦¦ à§įà¦¬
A G
Ġhe ure
à®¿à®°à¯ģà®¨à¯įà®¤ à¯ģ
Ġb Ã¼tÃ¼n
Ġv ac
ĠY Ã¶n
à°ķà±įà°ķ à°¡
ĠÐ¼ Ð¸Ðº
ÐµÐ² Ð¾Ð¹
ĠÐ·Ð°Ðº Ð»ÑİÑĩ
ang s
íı¬ íķŃ
Ġph ÃŃa
Ġ×ŀ ×ķ×¦
ĠÙĩ Ø²ÛĮÙĨÙĩ
ĠìĻ Ħ
ĠØ§ÙĦØ¹ ÙĨ
Ġvers o
Ġge hÃ¶r
Ġol uÅŁtur
Ġce ux
Ġpre ced
Ġsel alu
ĠÐµ Ð²
Ġà¥ §
Ġrig u
Ġå ĭ
Ġl ata
Ġexem plo
Ø§Ø¦ Ùģ
ĠÙħØ´Ú©ÙĦ Ø§Øª
ÐµÑĢÐ± ÑĥÑĢÐ³
ĠJ ual
Ġwonder ful
ti kan
ĠÏĦÏĮ ÏĥÎ¿
ĠS ci
ëıĦ ë¡Ŀ
Ġbud get
ĠÃľn ivers
Ġyak Ä±n
of d
ĠÅ¾iv ot
Ġgel di
á¿ ¶
äº¤ æµģ
Ġë¦¬ ë·°
z icht
Ġqu Ã¢n
ÎŃ ÏģÎ³
íķĺ ë©°
Ġesta va
b ÉĻr
Ú¯ Ø²Ø§Ø±ÛĮ
ĠÎ±ÏĢÎ¿ ÏĨ
Ġ _
Ġhe at
Ġp ul
Ġà°ª à°°
ar do
Ġ×ł ×¤
Ġtem u
Ġret r
Ġla hat
Ġn ÃŃ
à±ģà° ¸
ĠÑĤ Ð¾Ð½
t res
ĠÑģ ÐµÐº
ra Å¼
Ġce pat
Ġcont ract
ĠÐ¡ Ð°Ð½
ed ade
por te
s jon
g j
à§ ¨
ĠØ§ÙĦÙħ Ø·
Ġm Ã´i
ĠãģĹãģĭ ãģĹ
à¥ĩà¤ ¯
la uf
ĠV o
Ġm ilh
¥à¸ ¹à¸ģà¸
ĠØ³ ÛĮÙħ
Ġb ra
è§ ī
åĪ© æĿ¥
ĠÑħÐ¾ÑĢÐ¾ÑĪ Ð¾
Ġl ado
à®Ł à¯ģà®ķà¯įà®ķ
Ð°Ð»ÑĮ Ð½ÑĭÐ¼
m ÉĻn
èĳ ¡
Ġcome Ã§
Ġst or
ĠØ§Ùħ ÙĪØ±
æ¹ ¾
Ġtá»© c
Ø§ÙĦ Ùģ
i ben
ëĦ ·
áº§ ng
Ġl ed
Ġà®® à®¤
à®¿à®¯ à®²à¯į
è®¾ è®¡
ĠG ener
Ġn Ã¤ch
ÅĦst wa
ĠÙħØ´ Ø§ÙĩØ¯Ø©
à³į à²
Ġç ĳ
ĠÐ· Ð°Ñģ
Ġå® ŀ
ĠÃ¼zer inde
wy k
ÙĪØ± ÙĥØ³
ĠÙĥ Ø¨ÙĬØ±Ø©
æĸ Ĺ
ĠÐ¿ ÑıÑĤ
ëĲĺ ëĬĶ
ĠO bat
Õ¥ÖĢÕ ¨
Ġãĥķ ãĤ¡
Ġins ieme
Ġm Ä±
ĠA K
Ġê° ģ
ĠÄĲ á»ĥ
è¡ Ĺ
ĠÎĺ Î±
c ere
Ġsp ille
ĠØ§Ø³Øª Ø®Ø¯Ø§Ùħ
on se
Ġsc u
ĠÑģÑĢ Ð°Ð·Ñĥ
ĠR em
or ÃŃa
ĠÐ¿Ð¾Ð´ Ð³Ð¾ÑĤÐ¾Ð²
____ ____
Ġlo gr
Ġå¤§åıĳ å¿«3
ãĤ¢ ãĥĥãĥĹ
ĠÙĪØ§ØŃ Ø¯Ø©
w ania
Ġm m
Ġfor mer
Ġste hen
íķ´ ìĦľ
à§ľ à§ĩ
m ark
Ġà°ī à°Ĥà°Ł
Ġdire kt
al nya
ac ci
Ġ à¹Ĩ
Ġ×Ķ×Ļ ×ķ×Ŀ
Ġhe av
ĠÐ¿Ð¾Ð¼ ÐµÑī
åĸ Ħ
Ġ Õ¡Õ¶
ospod ar
å½ ¹
amb il
Ġhe s
Ġdes te
×ķ×ŀ ×Ļ×Ŀ
ĠæĹ© é¤Ĳ
Ġpr ijs
n out
æł ¹
Ġsp end
Ġ×ķ ×ľ×Ķ
Ġà¸Ħ à¸²
Ġbo is
à¸Ńà¸ °
ĠB ed
Ġè ħ
Ġà¸ Ľà¸
à®¿à®ķà¯įà®ķ à¯ģà®®à¯į
à¬ ¿
Ġu04 4
ows ki
ÉĻn c
ĠÑįÑĦÑĦ ÐµÐºÑĤÐ¸Ð²
Ġob tain
Ġste j
à¯įà®ļ à¯įà®ļ
Ġ×ŀ×¡ ×¤×¨
ist ica
éĽ £
ĠÎ¹ ÏĥÏĩ
ĠÂ ¦
ĠÐ²ÐµÑĢ Ñģ
Ġinf lu
Ġgen au
ÏĬ ÏĮÎ½
à¹ģà¸¥ à¹īà¸§à¸
ĠResp ublik
Ġà®¤ à¯ĩà®°
ateri al
ĠÎº Ïį
Ø¯ Ø§Ø¡
Ġte le
Ġver der
« à¸²
à´ ¨àµįà´¨
pr owadz
Ġesp a
Ġveh icle
Ġê·¸ ëŁ¬
iy as
ĠÄĲ á»ĵng
Ġz pr
ĠÐº ÑĥÐ¿
ĠÃ¼z ere
ĠvÅ¡ ak
Ġsep tembre
Ġpo le
àŃ į
nh o
Ø® Ùĩ
Ġà¦¤ à¦¾à¦ĩ
ÅĤo ÅĽci
lich keit
ÑĢÑı Ð´
nÃŃ k
Î¼Î¿Ïį ÏĤ
, ãĢĲ
ro t
it aciÃ³n
ãĤĴ ä½¿
Ġëª¨ ëĵł
Ġà¸ŀà¸Ļà¸ ±à¸Ļ
Ã¡t ico
ãĥģ ãĤ§
à®µ à®°à¯įà®ķà®³à¯į
ĠØ§ÙĦØ´ Ø®Øµ
ĠvÃł ng
j ual
ĠÚ¯ÙģØª Ùĩ
Ġgrow ing
Ġkal au
ĠÐ¾Ñĩ ÐµÑĢÐµÐ´
ya z
an st
Ġer g
Ġà¦¦ à§ĩà¦ĵ
Ġn Ã¢ng
ĠO y
ĠÎķ Î½
Ġs emb
Ġass ess
Ġkh Ã¡
íı °
Ġåľ¨ çº¿
len en
à¦¿à¦· à§įà¦ł
Ġc ambio
ÙĦÛĮ Øª
ĠÄį erv
äº§ ä¸ļ
à¤¿à¤µ à¤¾à¤°
ĠÐ»ÑİÐ´ Ð¸
ĠæĻĤ è¨Ī
à¦Ĺà§ģà¦² à§ĭ
Ġemploye es
ÐµÐ» ÐµÐ½
Õ¸ Õ¶
Ġkhá»ı e
j te
ĠÏĥ ÎºÎ¿
Ġcar ry
ĠÎºÎ¬ ÏĦÎ¹
Ð ¨
er er
ÏģÎ¿ ÏĨÎ¿
à¹Ħà¸ ĭà¸
Ġele kt
Ġn atÃ¼rlich
Ġx a
Ġà¤¹à¥ĭ à¤¤à¥Ģ
Ġ×Ķ×Ľ ×ľ
Ġv Ã©
à¦¾à¦ĩ à¦²
Ø§Ø¶ ÙĬØ¹
ªà¸¸à¸ Ķà¸
Ø¸ ÙĬÙģ
ĠÐ¿Ð¾Ð½ Ð¸Ð¼
l iyi
Î¼ ÏĢÎ¿
à¨ ¹
ĠØ± Ø´ØªÙĩ
Ġw ol
ÎµÎ¯ ÏĦÎ±Î¹
æĭ ħ
Ġà°µà°¿à° ·
Ø§Ø¯ Ø±Ø©
Ġr Ã¡p
ĠÙħÙĪ Ø§Ø±Ø¯
Ġter rit
gent ina
ĠØ®Ø§ÙĨÙĪ Ø§Ø¯Ùĩ
6 9
Ø§Ø³ Ø§ÙĨ
Ø§Ø¦ Ø¬
ĠJ adi
Ġad vert
ĠØ§ÙĦØ¹ Ø¯ÙĬØ¯
gram m
ul an
jer om
Ġfriend ly
ÙĪÙĨ Ø§
Ġag äºļæ¸¸
åī ¤
cze j
ĠTe am
ĠØ¹ Ø§ÙĦÙħ
ĠÙħ ÙĲÙĨ
Ġapp e
ĠÃ§ Ã¶z
Ġph áº¡m
ĠÐ¿Ð»Ð¾Ñī Ð°Ð´
ĠæĿ İ
Ġ Õ¡Õµ
Ð ħ
è Ľ
b uch
e ira
×Ļ×Ĳ ×ķ×ª
éĤĢè¯·çłģ _
ĠÐŀÐ´ Ð½Ð°ÐºÐ¾
Ġcent re
Ġà¦ıà¦ķ à¦Łà¦¾
ĠaÃ§Ä±k lam
ĠØªØµ Ø§ÙĪÛĮØ±
âĢ ĭ
ĠN et
Ġr Å¯
åĵģ çīĮ
r ik
Ġnam un
Ġsein en
Ġo ctobre
×ĳ ×ķ×¢
ÃŃ te
ĠÐ´ Ð¸ÑģÐº
Ġc ul
à§ĭ à¦ľ
ĠÐ½Ð°Ð¿ Ð¸Ñģ
ĠØ¢ÙħÙĪØ²Ø´ ÛĮ
ce u
Ø® Ø°
Ġlive llo
Ġne gara
æĪ ¸
Ġà¤¶ à¤¿à¤ķ
est r
Ġà¦ľà¦¾à¦¨ à¦¾à¦¨
ĠÎ£ ÎµÏĢ
ë Ŀ
Îº Î®ÏĤ
æĶ »
Ġtem a
Ġchá»ĭ u
ĠØ¯ÙĨ Ø¨Ø§ÙĦ
Ġ ĆĈ
omo ÅĽci
ĠØ§Ø¬ Ø±Ø§ÛĮ
Ġà¸ ¡à¸µ
ĠE d
Ġpod czas
Ġkomm un
ĠS und
ÏģÎ± Î½
ĠØ£ Ø«
Ġbec ame
un o
ÙĪÙĦ Ùĩ
Ġ×ĳ ×ĸ
ler imiz
ìĹĲìĦľ ëĬĶ
Ġà° ·
Ġç ļ
Ĺà¸ ĩà¸
w ahl
f g
res o
Ġ×Ĳ ×ķ×¨
ĠmÄĽ s
Ġparticol are
ĠÐĶ Ð°
Ġexpect ed
åĬ ¹æŀľ
ĠA an
k Ã½
Ġtr áºŃn
y ond
×Ļ×ŀ ×Ļ×Ŀ
k Ä±
Ġk os
pl at
ĠÙħØŃ ÙĦ
Ġcol oc
Ġes empio
ÏģÎ¿ Î¹
ĠÏĥÏħ Î½Î¿
Ġmas uk
ĠØ¨ Øµ
Ġà¤¨ à¤¿à¤ķ
Ķà¸ ¹
Ġw ish
le tz
å¤© åłĤ
gh i
Ġà¤® à¥ģ
art amento
ĠÎŃÎ½Î± ÏĤ
ĠÙĪÙĤ ØªÛĮ
ĠØ´ Ø§ÙħÙĦ
ol are
Ġsyst Ã¨me
Item Detail
Ġsite No
Ġsal estr
Ġsalestr No
Ùĩ ÙĪØ±
Ġnor sk
Ġn orske
ÛĮÙĨ Ú¯
Ùħ ÙĬÙħ
Ġins er
Ġbil gi
Ġ à¹Ħà¸¡à¹Ī
Ġhvor dan
Ġì¤ĳ êµŃ
ãģ¦ ãģĦãĤĭ
Ġå¸ Ĥ
ĠÎķ Î»Î»Î·Î½
Ġæ· ±
Ð¾Ð± Ð¸Ð»ÑĮ
Ġex pres
lÉĻr ÉĻ
Ġcel ui
mas uk
ĠV ol
´ à¸Ļà¸
Ġb Ã¶yÃ¼k
Î»Î¿Î³ Î¯Î±
Ġprofess ion
ĠéĽ »
Ġindivid uals
Î Ĳ
Ġsi amo
ë¸ Ķ
leid ing
Ġt ijdens
ĠÐ± Ð°Ð»
ĠY o
ä¹¦ è®°
ĠArbeit s
à¥ĩ à¤¤à¥įà¤°
Ġà¦¨ à¦¿à¦°
Ġì ±ħ
ĠØ§ÙĦÙħØ´ Ø§Ø±ÙĥØ©
æ° ¸
Ġ×Ľ ×ķ×ľ
ĠÛ°Û°Û° ØªÙĪÙħØ§ÙĨ
ĠØ¨ ÙĨØ¯
ĠWo chen
ĠØ§ÙĦÙĨ Ø¸Ø§Ùħ
ÏģÏīÏĢÎ± ÏĬ
Ġar ty
ĠÎµÏĢÎ¹ ÏĩÎµÎ¹
ĠÑĢÐ°Ñģ Ð¿Ð¾Ð»Ð¾Ð¶
ĠA Ã§
à´ ª
ãģ«ãģª ãĤĬãģ¾ãģĻ
ĠÐºÐ¾Ð¼Ð¿Ð» ÐµÐºÑģ
à¥Ĥ à¤®
Ġ ãģ§ãĤĤ
ĠÑĩÐ°ÑģÑĤ Ð¸
ĠÐ¶Ð¸Ð·Ð½ ÑĮ
Ġå¤ ļ
à±įà°Ł à±įà°°
Ġfir m
Ð¾Ð» Ð°
åħ ¸
d eki
Ġr und
Ġmov ing
ĠØ§ÙĦØ¨ØŃ Ø«
Ã³ v
or ten
ĠD od
Ø¹ ØªÛĮ
ÛĮØ´ ÙĨ
Ġob s
Ġà®ªà¯Ĩ à®°
à¤ľ à¥Ģ
Ġe lles
ÐµÐ» Ð¾
Ġ×ĳ ×ł×Ļ
Ġho áº¡ch
Ġç Ĥ
Ġà®® à®±
Ġproble mas
ig d
ÎµÏħ ÏĥÎ·
ĠkiÅŁ i
ãģ«ãĤĪ ãĤĬ
K A
Ġf im
æĮ Ĥ
scha fts
ĠÐ½ Ð°Ð¹ÑĤÐ¸
ĠP rediksi
ãģ« å¯¾
Ġbis nis
Ġsmart_crop _
Ã¨ n
Ġg eld
Ġfun k
ĠëĤ ł
ĠB ook
ĠÐ²Ð¾Ð· ÑĢÐ°ÑģÑĤ
ØŃ Ø§Ø¨
èĥ ľ
ĠÙĨ ÛĮÙħ
×ķ×Ĳ ×Ķ
ë³ Ģ
ĠÏĥ ÏįÎ½
Ġsk ÅĤad
ĠÐºÐ°Ð¶Ð´ ÑĭÐ¹
à¯ģà®¤ à¯į
ÅĻÃŃ zenÃŃ
ĠChrist mas
¥ à¹Īà¸²à¸
ĠS am
ĠJ u
Ġze er
à¯įà®¸ à¯į
Ġk open
Ġs Æ¡
Ġ×Ĵ ×¨
ĠØ¹ÙĨ Ùĩ
ĠFr age
Ġte lefon
áº¡ p
ĠÑģÐ¾Ð± Ð¾Ð¹
Ä±ld Ä±
p Ã©
ĠÏĨ ÏħÏĥ
Ġv endre
Ġmigli or
ter a
Ġ×¨ ×Ľ
Ġmar zo
ĠãĢĳ ,ãĢĲ
ĠØ£ÙĨ ÙĩØ§
Ġà¹Ģà¸ Ľà¹ĩà¸Ļà¸
è®¡åĪĴ _
Ø¹ÙĦ ÙĪÙħØ§Øª
ŀ à¸²à¸
Î» ÏİÎ½
Ġnost ri
Ġje ÅĽli
Ġmess age
s ÉĻ
Ġke er
ĠØ³Ø§ÛĮ Ø±
Ġæ² ³
ĠVers and
ĠÑģÐ¾ ÑħÑĢÐ°Ð½
c cion
ĠH Ã¶
ĠÑĩ ÐµÐ³Ð¾
à¤¿à¤¯ à¥ĭ
ĠçĶ Ł
ĠmÉĻlum at
h an
ĠC re
åº §
Ġl etto
ĠìĤ¬ íļĮ
Ġ ãģªãĤĵ
ĠÐ¿ ÑģÐ¸Ñħ
ĠëĤ ´ë
ist an
Ø§ÙģØ¸ Ø©
ĠÙĨØ¸ Ø§Ùħ
ĠZ ahl
ÛĮ Ø¨
ìĿ į
ĠÃ Ŀ
Ġsv ol
ĠØŃ Ø§ÙĦØ©
ÙİÙĨ ÙĴ
ĠØ§ÙĦÙħ Ùģ
à§ĩà¦² à¦¾à¦°
cz nych
Ã® tre
Ġten emos
ĠMer ci
Ġnun ca
us ia
ĠA gen
Ġvan af
ien d
ÑģÑĤÑĢÑĥ Ð¼ÐµÐ½ÑĤ
al ten
ĠÛĮ Ø¹
Ġà¤¦ à¥Ĥà¤¸
à®ķ à®°
ati ques
Ġpr oss
ĠÚ©ÙĪ ÚĨ
ĠprÃ¡ ce
ĠØ§ÙĦØª Ø·
ĠìľĦ íķľ
à¸£à¸±à¸ ģà¸©
Ġà¦¹à¦¿à¦¸ à§ĩà¦¬à§ĩ
Ġwo hl
Ġzd jÄĻ
à¦¿à¦¤ à§įà¦°
ĠÄĳ Ã¡ng
Ġpurp ose
ĠBeit rag
ĠAn tw
ÎĳÎ ĵ
à¤¾à¤ļ à¤¾
×ķ×Ľ ×ľ
Ġch áº¯c
×Ļ×Ĺ ×Ķ
ÙĬØ± Ø§
ĠO ber
Ġopportun ities
ĠdÃ©b ut
ĠØ¯Ø§Ø® ÙĦÛĮ
Ġn ik
ĠGr oup
Ġbe gan
enh um
Ġbelir t
U S
Ġ×§ ×¦
ĠÐ¾Ð¿ ÑĭÑĤ
Ġconne ct
r um
Ġä¸ İ
Ġp ap
ĠO l
Ġà°ķ à°¨
èĤ ĸ
ĠØ¨Ø± Ø§Ø¨Ø±
×¤ ×ķ
ĠØ§Ø³Øª ÙĤ
Ùĥ ÙĬØ©
Ġjed en
for table
ĠØ¢Ø²Ùħ ÙĪÙĨ
Ð¡ ÑĤ
ç§ Ĵ
w ise
Ġpoz w
Ġmin utos
Ġprost ÅĻed
Ġãĥ Ĭ
à¤¤ à¥ĭ
Ġgr unn
Ġpro gress
ĠÎ» Î¹
à¯Ĩ à®²à¯įà®²
h b
Ġne gli
Ġpet ite
Õ¡Õ º
à¹Ģà¸¥à¸ ·à¸Ńà¸
ĠRÃ© p
Īà¸ ¸à¸
Ġam p
ĠÑĤÑĢ Ð¸
ÙĬØ² Ø©
v ious
å³ °
ãģ¨ ãģĨ
Ġm ÃŃs
Ã¡ te
owiÄħ z
âĢ Ļ
Ġpr en
A Åŀ
own load
ĠfÉĻ al
à°ª à±Ī
Ġà°® à°¹
d im
Ġg Ã¥
ĠØ§ÙĦÙħÙĨ Ø·ÙĤØ©
ĠÏĢÎ±Î¹ Î´Î¹Î¬
Ġdefin itely
ĠØ§Ùħ ÛĮØ¯
pt ion
ĠÚ©Ùħ ÛĮ
Ġgir iÅŁ
Ø§Øµ Ø±
ĠìĿ¸ íĦ°
Ĳ à¸
Ġper c
zy ch
Ġtr áº¡ng
Ġn ies
ĠØ§ÙĦØ¨ ÙĬ
ĠØ¸ Ø±Ùģ
Ġë§İ ìĿĢ
Ġphys ical
å¥ Ĺ
ä¸ĵ ä¸ļ
ĠJe ÅĽli
Ġbenef it
ãĥ¼ãĥ Ĭ
ÙĪ Ø¡
Ġà¤ķà¤¾à¤° à¤£
ì½ľê±¸ ë§ĮëĤ¨
Ø´ Ø©
ÏĦ Î¿ÏħÏĤ
Îµ ÏģÎ¿
ka ÅĦ
à¦¾à¦ķ à¦¾à¦°
Ġst av
Ġger ade
Ìģ t
ĠÎ¯ Î´Î¹Î¿
à¸Ńà¸¢à¸¹ à¹Īà¸
ãģŁ ãĤī
åīį ãģ«
Î» Ïį
Ġvol te
ĠÐ¼Ð°Ð³Ð°Ð· Ð¸Ð½Ðµ
Ġè į
Ġà¤ľ à¤°
à±Ģ à°¨
à¤¥ à¤¾
ĠÑĥÐ· Ð½
ff ee
ĠÐ¿ Ð¸Ñģ
è¦ģ æ±Ĥ
ĠÐ¼ÑĥÐ¶ Ñĩ
Ġdec or
à§ĩà§Ł à¦¾à¦°
ĠMe in
åĩºä¼ļ ãģĦ
ĠØ§ÙĦØª Ùģ
áł ¢
Ġkap s
Ġstr ateg
Ġso ir
p ri
Ġce ll
à¦¾à¦ĵ à§Łà¦¾
à¥įà¤°à¥Ģ à¤¯
à¤¾à¤¦ à¤¾
á¿ Ĩ
æ» ļ
Ġle v
Ġìķ ŀ
Ø¬Ùħ Ø¹
ĠPl atz
à¤¾à¤ļ à¥Ģ
Ġpl aces
Ġh Ã£y
×Ļ×¡ ×ĺ
ĠØ¯ÙĪÙĦ Ø§Ø±
ĠØ¢ÙĤ Ø§ÛĮ
ê·¸ ëŀ¨
Ġm id
ëı ħ
ĠPres ident
Ġrec enz
m Ã©
ĠÙħ Ø±Ø©
ĠØ§ÙĦÙĤ Ø§ÙĨÙĪÙĨ
Ġst ra
ëĭ¤ ê³ł
Ø§Ø± Ø¨
ŀà¸ ·à¹Īà¸Ń
Ġcamp aign
Ġon d
ĠØªØ¬Ùĩ ÛĮØ²
om i
Ø±Ø¨ Ø©
im er
Ġb ilm
á»Ĺ i
Ġd v
ãģĭ ãĤĭ
at ik
ĠØ¬ Ø°
Ġimp ress
ĠãĤ ´
å¤ «
Ġé ĥ½
ĠEn t
ĠÎ´Î¹Î± Î´Î¹Îº
Ġï¼ ŀ
Ġ×Ļ ×¨
Ġà¦® à¦¾à¦§à§įà¦¯à¦®
tov Ã¡nÃŃ
ĠÙĤ Ø§Ùħ
ie c
à¹Ī à¸Ļà¹Ģà¸
Ġfu era
ag er
c chi
èĦ ±
ĠÐ¿ÑĢ ÐµÐ²
ļ áŀ
Ġl Ã¢u
ĠEst ados
Ã¡ veis
ar beid
Ġà¦ħà¦¨ à§ģà¦·à§įà¦ł
Ã£ os
ãĤĴ è¡Į
ĠØ®Ø§Ø± Ø¬ÛĮ
àµ Ģ
ische s
Ġpare ce
nut ÃŃ
ŀ à¸£à¸
ĠÐ¾Ð´ Ð½Ð¾Ð¹
Ġczy li
he st
Ġal ta
Ø§Ùĩ Ø§ÛĮ
owan iu
ĠM Ã¶glichkeit
ĠK unst
Ġsopr attutto
Ġa im
ĠÏĥÏĦ ÏģÎ±
Ġla ma
ĠØ± Ø¨
ĠE ach
ĠÐĵ ÑĢ
Ġæ¯ ı
Ġe y
Ġat tem
Ð°Ð½ Ð¸ÐµÐ¼
ih an
ĠÃ¶ÄŁren ci
ĠãĤ ½
Ġsek arang
Ġpro dej
Ã¥ d
Ġt edy
Ġser ie
ÙĥØª ÙĪØ¨Ø±
Ð½ Ñĥ
Ġmay o
Îº ÎŃ
×ķ×ĵ ×Ļ
à±įà°° à°®
s led
ĠÐ½Ð°Ð¿ ÑĢÐ¸Ð¼ÐµÑĢ
Ġm ÅĤ
à¹Ĩ à¸
ĠMas k
ĠvÃ½ rob
Ġà¸§à¸´à¸ ĺ
iz o
Ġà®ªà¯Ĩ à®±à¯įà®±
Ġà°Ĩà°¯ à°¨
ĠJos Ã©
×Ļ×§ ×¨
ĠP rix
ĠÐ¼ Ñĥ
Ġt Ã£o
Ġge ben
Ã£ nh
aÅĤ e
ĠÑĢÐ°Ð±Ð¾ÑĤ Ñĥ
rÃ³ Å¼
Ġrepr Ã©s
¿ ł
Ġà®ħ à®£
ĠØ¨ ÙĲ
Ġà¦¦ à¦¿à§Ł
ì ĵ°
ĠÙħ ØªØ±
Ø¶ ØŃ
ÙĬØ± ÙĬ
Ġìĭ Ŀ
ond re
×¨ ×¥
ĠÙ¾Ø²Ø´ Ú©ÛĮ
Ġprzypad ku
Î¹Î± Ïĥ
Ġ100 00
ĠÙĨ Ø²Ø¯
ĠØ± Ø¬
Ã© qu
Ķà¸ ¹à¸
Î¹Îº Î·
ĠÏĥ ÏĦÏĮ
ĠåĪ °
Ñĩ Ð¸ÑĤ
Ġsus o
Ġà¦¬ à¦¨à§įà¦§
Ġå¦Ĥ æŀľ
ĠÙħ ÛĮØ¯
Ġcomp rar
æ® ĭ
ĠM Ã¼n
ãģĹ ãĤĥ
Ġhealth y
¨à¸¶à¸ ģà¸©
ĠK ay
ĠÐĴ Ð¸Ð´
ãĥ³ãĥ ĳ
Ġconst ruction
à¹ģà¸ ¡
ĠS aya
s s
éª Ĺ
ĠØ± Ø£
am ientos
Ġak hir
ÙĪ ÙĬÙĨ
Ġactiv ity
ĠÑģÐ²ÑıÐ· Ð¸
ĠìĨ Ĳ
ĠØ§Ø« Ø±
ĠÑĦ Ð°ÐºÑĤ
Ġzo ek
Ġmeg lio
Ð¾Ð» ÐµÑĤ
v ano
fe cto
¹ à¹Ī
Ġ×ľ×ŀ× ¢
ĠÎ· Î¼ÎŃ
Ġdesarro ll
ĠØª Ø®ØµØµ
le it
ÐµÑģÑĤ ÑĮ
Ġuit ge
ÎŁ ÎĻ
Ð» ÐµÑĩ
ĠRe c
Ġstart ing
Ġgu te
Ġproble ma
Ġ$( '
Ð¾ÑĢ Ð¾ÑĤ
æĹ¶ åĢĻ
Ð¾Ð· Ð½
b ek
ĢâĻ ĢâĻ
ct er
åĿ ļ
ĠÐ¿Ð¾ÑĤ Ð¾Ð¼Ñĥ
Ġw Ã¤re
ist re
Ġter t
ĠÐ¼ÐµÑĤ Ð°Ð»
Ġwr ong
Ġv iktig
Ġno che
ĠÎľ ÎŃ
and Ä±
Ħà¸£à¸ ±à¹īà¸ĩ
Ġà¦® à§ģà¦ĸ
Ġb lood
Ġu b
à±ģà°¨ à°¿
Ġuygul am
Ġb azÄ±
erint ah
Ġpr ia
ĠÐŁÑĢ Ð¾Ñģ
v ille
Ġsek itar
ĠKar ena
Ġk iáº¿m
m F
res t
ĠÐł Ð°Ñģ
ijk t
ĠÐ¸ÑģÐ¿Ð¾Ð»ÑĮÐ· Ð¾Ð²Ð°ÑĤÑĮ
Ġéĺ ¿
ÏĥÏĦÎ· ÎºÎµ
ÉĻf ÉĻr
Ġé» Ħ
if ier
à®¾à®£ à¯įà®Ł
ĠdÉĻ f
scha ften
en si
Ġlu o
Ð°Ñģ Ð¸Ð±Ð¾
ĠØ§ÙĦØŃ ÙĦÙĤØ©
Ġà¤Ńà¤¾à¤°à¤¤à¥Ģ à¤¯
Ġge le
Ġ Ã¼y
Ġpou ze
ĠØŃ Ùĥ
ĠØª ÛĮ
ĠGr acias
Ġexact ly
kan nt
Ġsupp ly
ĠK auf
ĠMus ik
×ĳ ×ĵ
ä½ Ļ
Ø±ÛĮ Ùģ
Ø§Ø¹ ÙĬ
ãģĮ ãģªãģĦ
×Ĳ ×ľ
ĠktÃ³ rzy
Ġhe Ã§
jour d
ĠØ® Ø¯ÙħØ©
Ġè ³
è· Ł
Ġappro pri
ĠH áº£i
Ġà¤ħ à¤Ń
Ġli ber
ĠØ¹ÙħÙĦ ÙĬØ©
ĠØ§Ø¸Ùĩ Ø§Ø±
ãĢ ĸ
ĠvÉĻ z
Ġå ĸ
Ġreg ion
et ler
ĠK ota
µ à¹Īà¸
Ġmin im
k r
à© ģ
ĠØ§ÙĨ Ø³Ø§ÙĨ
Ġpotrze b
Ð¶ ÐµÑĤ
Ġ ä¼ļ
Ġmer cato
Õ¥Õ ²
ol Ã³g
un es
ĠEn ts
ĠÎµ Î¼ÏĨ
Ġconsider ed
ãĤĩ ãģ£ãģ¨
ĠÄįl Ã¡n
Ġpro grama
×¦ ×Ļ
ar ante
äºº ãģ¯
Ġg ra
ĠØ§ÙĦØŃ Ø¯
Ġu v
à¯Īà®ļ à¯į
ĠØ§ÙĦÙħ Ø²ÙĬØ¯
ĠÐº Ð¾Ñģ
Ġãģ Ĩ
ue ll
Ġver d
Ġprzy got
Ġà¦°à§Ł à§ĩà¦Ľà§ĩ
ve y
à¹ģà¸ Ĥ
ĠÙĨ Ø´Ø±
ä¸ °
nÃ© m
åī §
ĠØ§ÙĦØ¬Ø¯ÙĬØ¯ Ø©
ç ĩ
å¹ ķ
Ð¸Ð½ ÐºÐ¸
Ġà®ħ à®¤à¯ģ
Ġê¸ Ģ
Ø§Ùħ Ù¾
n iÄĻ
Ġfr ame
Ġprod uto
Ġto mu
ë Ĩ
ĠÑģÑĤ Ð°Ð»
Ùĥ ÙĬÙĦ
Ġagçİ¯äºļ éĽĨåĽ¢
Ġãĥ «
à®¾à®¤ à¯įà®¤
×¢ ×¨
b ah
Ġå Ŀ
Î´ Î¿Ïħ
ĠØ§Ø³Øª Ø§ÙĨØ¯
Ġph oto
Ġpubl ished
ĠÛ±Û µ
ĠÐºÐ¾Ð½ Ñģ
ĠÑģ Ð¿ÑĢÐ°Ð²
ãģı ãĤīãģĦ
Ġau jourd
ĠD Æ°Æ¡ng
Ġ7 0
Ġtem per
h oud
Ġpen yakit
ĠSp ie
é¤ ¨
Ġunderstand ing
unici p
Ġavr il
ĠÃ Ł
ĠØ³ Ø±ÙĪ
ÄĽ k
Ġtam am
à¯įà®ķ à®¿à®±
ĠÙħØ´ Ø§ÙĪØ±
Ġà¤µ à¥ĭ
Ġser ing
Ð°Ðº ÑĤÐ¾ÑĢ
am ent
Ġà¸ «
ĠÐŀ ÐŀÐŀ
Î´ Î¬
Ġques te
Ġd ara
ĠÙĨ ØªÛĮ
Ġ×ľ×Ķ ×Ĵ
Ġê²½ ê¸°
ÅĤ Ã³w
ç ĵ
Ġãĥ Ķ
ĠÙĤ Ø§Ø¨
Ã¼ÅŁ ter
èŃ ĺ
Ġm iÄĻdzy
æ ¦
Ġà¤¸ à¥įà¤ķ
ä¹ Ĺ
Ø±ÛĮ Ø§ÙĨ
ĠÎ£ ÏĦÎ±
up a
à®² à®®à¯į
cz one
ĠsaÄŁ lÄ±k
Ġex erc
Ġm ano
tell er
ekk Ã¼r
c in
ĠÐ¾Ð±Ñī ÐµÑģÑĤÐ²
Î½Î¿Î½ ÏĦÎ±ÏĤ
Ã¼n kÃ¼
re g
ĠRe p
Ø¬ ÙĬ
Ġà¦® à¦¨
ĠM ail
Ġpat tern
ĠÃ¼zer ine
Ġsegu ir
te e
Ä±r s
Ġå¤ ĸ
ģà¸ ¥à¸²à¸
Ġë§Į ëĵ¤
ĠÏĥÏħÎ½ ÎµÏģÎ³
åıĹ ãģĳ
ĠÙĤ Øµ
à¥įà¤¯ à¤®
ĠG ob
éł Ĥ
ĠÃ© quipe
r are
ĠØ³ ÙĪÙħ
Ġst ress
uj o
Ġfor me
åĪ° äºĨ
im on
åĩ ¦
ĠÙħ ÙĤØ¯
ĠHo a
Ġkj Ã¸
Ġc áºŃp
ĠÙĪ Ø§Ø³Øª
åĲĮ ãģĺ
Ø§Ø¶ ÛĮ
Ġ×¡ ×¤×¨
Ġmen ingkat
ib ilitÃ©
Ġf ab
Ġ×ĳ ×Ł
ast ica
Ġ à¸Ļà¸²à¸
à§ĩà¦¤ à§ĩ
ĠÐ°Ð²ÑĤÐ¾Ð¼ Ð°ÑĤ
ĠÎ¼ÎµÏĦÎ± Î¾Ïį
Ð¸Ð· Ð¼
ĠÎ½ÎŃ Î±
Ġart icolo
æº ĸ
Ġfre qu
Ġletz ten
t n
kan ia
ÏĦÎŃ Î»Îµ
Ġtrov are
ĠÎ¼Î± Î¶Î¯
Ġadol ang
Ġkh áº©u
ĠÐ½ Ð°Ð»Ð¾Ð³
Ġdikk at
Ġà¦¸ à¦¾à¦°
ãģ« ãģĹãģ¦
ĠØ§ÙĨ Ùĩ
ĠBu en
ÏĮÏĦÎ· ÏĦÎ±ÏĤ
Ġà¤¬ à¤¦
emb ro
Ġà¸ ļà¸²à¸Ĺ
Ġju illet
ita ire
ĠçĽ ¸
res i
Ġg ust
Ä° Z
ÏģÎ¹ Î¿ÏĤ
Ġdo p
Ġà¦® à§ĥà¦¤
à¯Ĩ à®©
ac ch
Ġer ot
Ġt ÉĻk
Ġinter na
Ġotto bre
ite z
Ġvoy age
qu oi
à¥ Ŀ
ve el
ww w
×Ļ×ĳ ×ķ×¨
«à¸¥à¸ ±à¸ĩà¸
Ġn ic
Ã Ŀ
Ġmen ye
łà¸²à¸ ©
Ġpay laÅŁ
ĵ à¹Įà¸
Ġpa a
à¦¿à¦ķ à¦¾à¦°
Ġjo go
à¤ļ à¤¾
Ġf emmes
Ġno vembre
à¤Ł à¤°
ë¬ ´ë
Ġà¤ķ à¥Į
k elijk
à°Ł à±įà°²
ub ro
Ġme v
Ä± cÄ±
g abe
à¤¿à¤¤ à¤¾
tt es
à±ĩà° ª
ac j
Ġà¤ħ à¤Ĥà¤¤
Ġdz iaÅĤa
ĠF ach
ĠA uto
k ow
Ġservi Ã§o
Ġà¤µ à¤°à¥įà¤·
w ort
Ġma aar
Ġ×Ķ×ŀ× ¦
ab i
en iem
ti ques
Ġ×ľ ×ļ
Ġsoci Ã©tÃ©
Õ ©
rei ben
Ġà¦Ńà¦¾à¦² à§ĭ
Ġv Å¯
àµįà´ ª
Ġvy t
à±Ĥà° ª
à´¾à´ ¯
ĠZ um
ci Äħ
al ny
à®¿à®µ à¯ģ
Ġliv ro
kan ie
Ġstr ony
Ġop rav
à¦¸ à§įà¦ķ
à¥ģà¤ ĸ
Ġk li
Ġg Ã©
à¦¬ à¦¿
Ġw i
Ġa ide
ĠJ ed
à¤¬ à¤Ĥà¤§
Õ ¹
Ġà¤¹ à¤¾à¤²
Ġà¦¤ à§ģà¦²
ci ais
ĠÕ Ħ
Ġco ÅĽ
à¦ª à¦¿
ĠktÃ³r ym
Ġconse gu
Ġà¦¬à¦¿à¦ ı
ovan Ã©
Ġà¦¬ à§įà¦°
Ġas i
Ġà¦¤ à¦¥
Ġbardz iej
ÅĽ rÃ³d
Ļà§įà¦ ķ
Ġstr Ã¡n
Ġz mÄĽ
Ã¡l nÄĽ
Ġà¦¯ à¦¾
áĥĺáĥ¡ áĥĹáĥķáĥĺáĥ¡
áĥ¬ áĥĺáĥ¤
áĥ£ áĥĲáĥļ
ĠáĥĹ áĥ£áĥĽ
ĠáĥĻ áĥĺáĥĵ
áĥĲáĥłáĥ ©
ĠáĥĽáĥĿáĥ ®
áĥķ áĥĺáĥļ
ĠáĥĽ áĥĻ
áĥĶáĥłáĥ ķ
áĥĵ áĥĿáĥĽ
áĥ¥ áĥĿáĥľ
áĥĶáĥĳ áĥĶáĥĳáĥĺ
Ġáĥ¡áĥĲáĥ ¤
áĥĶáĥĽ áĥĳ
ĠáĥĽ áĥĿáĥĴ
Ġáĥŀ áĥĲáĥ¢
áĥĿáĥĳ áĥĲáĥ¨áĥĺ
áĥ£áĥłáĥ ¡
ĠáĥĽáĥĺáĥĽ áĥĲáĥłáĥĹ
ĠáĥĹáĥ£áĥĽ áĥªáĥĲ
Ġáĥĳ áĥł
áĥľ áĥĺáĥ¨áĥķ
áĥĺáĥĻ áĥĲ
áĥĲáĥĹ áĥķáĥĺáĥ¡
áĥĶáĥ¥ áĥ¡
áĥĲáĥķ áĥĲáĥĵ
áĥ£áĥ ¢
Ġáĥ¨áĥĶáĥ £áĥ
Ġáĥ¢ áĥł
áĥĵ áĥľáĥĶáĥľ
áĥĲáĥĹ áĥĲ
áĥĶáĥĳ áĥĲáĥ¨áĥĺ
áĥłáĥĴ áĥĲáĥľ
Ġáĥ¡áĥĲáĥĶ áĥłáĥĹ
áĥ£áĥłáĥ ľ
áĥĵ áĥĶáĥľ
Ġáĥĳ áĥĲáĥķáĥ¨
áĥĿáĥĵ áĥĶáĥ¡
Ġáĥĵ áĥłáĥĿáĥ¡
ĠáĥĶáĥłáĥĹ áĥĲáĥĵ
ĠáĥĴ áĥĲáĥ£áĥ
ĠáĥĻ áĥĲáĥľ
ĠáĥĽ áĥĶáĥĿ
Ġáĥ¡ áĥĺáĥĽ
Ġáĥ¡áĥĲáĥ®áĥĶáĥļáĥĽ áĥ¬áĥĺáĥ¤
ĠáĥĽ áĥĺáĥĶáĥł
áĥĶáĥłáĥ Ľ
áĥĶáĥ ¨áĥĺ
Ġáĥ¨ áĥĿáĥłáĥĺáĥ¡
ĠáĥĲáĥ® áĥĲáĥļ
áĥĶáĥĳ áĥĽáĥĲ
áĥľáĥĺáĥ¨áĥķ áĥľáĥĶáĥļ
áĥĲáĥ« áĥĶ
Ġáĥł áĥĲáĥĽáĥĵ
Ġáĥķ áĥĺáĥľ
áĥĺáĥĽ áĥĶ
áĥĲáĥĽ áĥĺáĥ¡
ĠáĥĲáĥĽ áĥĳ
Ġáĥľ áĥĲáĥ®
áĥĲáĥłáĥ ¯
áĥĶáĥĳáĥ£áĥļáĥĺ áĥĲ
ĠáĥĽ áĥ¨
áĥĲáĥĽ áĥĶáĥľáĥ¢
áĥĲáĥł áĥĲ
ĠáĥĿ áĥłáĥĴáĥĲáĥľ
ĠáĥĽ áĥª
áĥĴ áĥĿáĥĽ
Ġáĥ¨áĥĶáĥ¡ áĥĲáĥ«áĥļ
Ġáĥ¬ áĥĶáĥļáĥ¡
áĥĲáĥ£áĥ ł
ĠáĥĲáĥ ĺ
Ġáĥ¡áĥĲáĥ Ĵ
ĠáĥĲáĥ £áĥ
ĠáĥĽ áĥĲáĥłáĥ¢
áĥĶáĥ £áĥļáĥĺ
ĠáĥĶ áĥķáĥł
áĥĲáĥł áĥĶáĥĳáĥĺáĥ¡
ĠáĥĲáĥ Ļ
áĥĲáĥľ áĥĴ
ĠáĥĻ áĥļ
ĠáĥŀáĥĿáĥļ áĥĺáĥ¢
áĥ£áĥłáĥ Ĺ
áĥ£áĥł áĥĺáĥ¡
áĥĲáĥĵ áĥĲáĥ¡
Ġáĥĺáĥľáĥ¤ áĥĿáĥłáĥĽ
áĥľ áĥĺ
Ġáĥª áĥ®áĥĿáĥķáĥł
ĠáĥĶ áĥł
áĥĲáĥł áĥĶáĥĿáĥĳ
áĥĿáĥļ áĥĿáĥĴ
ĠáĥĲáĥ¦ áĥĽ
Ġáĥ§áĥķáĥĶáĥļ áĥĲáĥĸáĥĶ
ĠáĥĲáĥłáĥ ª
áĥĺáĥĻ áĥĺáĥ¡
áĥĽ áĥĺ
Ġáĥ§áĥĿáĥķ áĥĶáĥļ
Ġáĥ¨áĥĶáĥ ®
áĥĵ áĥĶ
Ġáĥŀáĥł áĥĿáĥª
ĠáĥĽáĥĿáĥ ¥
Ġáĥ¡ áĥĻ
áĥĿáĥ¤ áĥļ
áĥ£áĥł áĥĲáĥĵ
ĠáĥĲáĥĵáĥĴ áĥĺáĥļ
ĠáĥĴáĥĲáĥľ áĥĽ
ĠáĥĽ áĥľáĥĺáĥ¨áĥķáĥľáĥĶáĥļ
áĥĲáĥľ áĥĲ
áĥĲáĥľ áĥĺáĥĲ
áĥł áĥĿáĥĳ
áĥĲáĥ¡ áĥĹáĥĲáĥľ
Ġáĥ¨ áĥĶáĥķ
áĥł áĥĲáĥ¤
Ġáĥ©áĥĶáĥĽ áĥĺ
Ġáĥ© áĥĲáĥĽ
ĠáĥĵáĥĲáĥ £áĥ
áĥĶáĥł áĥĶáĥ¡
¬ áĥĽ
áĥ¦ áĥķ
ĠáĥĵáĥĲáĥ ĳ
ĠáĥłáĥĲáĥĽáĥĵ áĥĶáĥľ
áĥķ áĥļáĥĺáĥ¡
Ġáĥ Ł
áĥĿ áĥĲ
ĠáĥĲáĥ ŀ
Ġáĥ©áĥķáĥĶáĥľ áĥĺ
Ġáĥ£áĥĻ áĥķáĥĶ
Ġdru g
ĠJ uly
J I
Ġgo als
Ġåľ °
ĠçĶ ¨
ĠáĥĻáĥĺáĥĵ áĥĶáĥķ
Ùĥ Ø±Ø©
ĠÙĪÙħ Ø¹
Ð½Ð¸ ÑĨÐ°
ĠÑįÑĤ Ð¸Ñħ
Ø·ÙĦ Ø§ÙĤ
Îł Îĳ
Ġreg ul
ĠÐŃ Ðº
Ġal tern
Ġé ¡
ÏģÏĮ ÏĤ
éĻ į
Ð¸Ð² Ð°ÑİÑĤ
Ġåį İ
áĥĶáĥĳáĥĺáĥ¡ áĥĲ
Ð³ ÑĥÑģÑĤ
ĠÑį Ð»ÐµÐ¼
ĠÑĢÐµ Ð°Ð»Ð¸Ð·
Ġáĥ¡ áĥ£áĥļ
Ġsig uiente
Ġa cer
ĠÐº Ð¼
áĥĶáĥł áĥĲ
ĠÐ±Ñĭ Ð²
Ġrecog n
Ġgu id
er ve
ĠÐ¿ Ð°Ð¼
ĠI ng
Ġent ry
ä½ĵèĤ² æĬķæ³¨
ĠØ§ÙĦØ¥ÙĨØ³ Ø§ÙĨ
ar at
ĠØ§ÙĦØ³ Ø§Ø¨ÙĤ
Ġt á»ĳ
ĠíĶ Į
ĠÐ² ÑĢÐ°Ñĩ
Ð» ÐµÐ³
Ġngh á»ĭ
ĠÑģÐ¾Ð² ÐµÑĤ
amb ah
ĠCal if
or an
Ġï¼Į âĢľ
ĠÐŁÐµÑĢ Ð²
ĠÙħØ³Øª ÙĤÛĮÙħ
éĽ Ħ
ĠÏĢÏģÎ¿ÏĥÏī ÏĢ
Ġst age
à¸£à¸ ¹à¸
ĠCol le
oÄŁ raf
Ð°Ð¼ ÐµÑĤ
tem ber
Ð¾Ð± ÑīÐµ
2 6
ĠØ§ÙĦ Ú©
ĠÙĬ Øµ
ÎŃ Î²
ĠØ³ Ø¹Ø±
Ġà¤Ĩà¤¹à¥ĩ à¤¤
ac am
ãģ¯ ãģªãģĦ
Ġå· ¥
ĠU y
ĠÐ¾Ð±Ð»Ð°ÑģÑĤ ÑĮ
Ġà¹Ģà¸¥ à¹Īà¸Ļ
ĠÃ Ľ
ĠØµ ÙĬØ§ÙĨØ©
ĠÎ ©
Ġy Ã¼r
ĠHo Ãłng
Ġv Ã¥
ĠÄĳ Ãłn
Ġtem por
ĠÐ¾Ð± ÑĢÐ°Ñī
ĠNe gro
å¤§ çļĦ
du ÄŁ
larÄ±n dan
Øµ Ø§ÙĦ
iz ation
ĠìĿ´ ìĥģ
ĠP Ã¥
ĠØ´ÙĬ Ø¡
sch ap
áĥĺáĥľ áĥĴ
m ay
ĠÐ¿ÑĢ Ð¸Ñħ
ë¨ ¸
ÑģÑĤ Ð¾
ĠéĿ Ĵ
9 ìĿ¼
ĠÎµ Î½Î·
áĥĲáĥ¢ áĥĺ
ĠÃľ r
Ġd Ãłnh
Ġb aÃ±
Ġph á»§
ĠÐ½ Ð¸Ð·
ĠÙĩ ÙĨÚ¯
åģ ´
ĠÐ¿ÑĢÐ¸Ð¼ ÐµÑĢ
ĠÎ²Î± Î¸
Ġc c
ĠÐ½ Ð¾Ð³
ĠA vr
ch an
od ice
ĠÎĵ Î¹
èĹ ı
ÏĢ Î±Î½
áº© y
Ġet mek
Ġáĥ¡áĥĲáĥĻ áĥ£áĥĹ
íļ į
æĺ ł
l ight
Ġha f
ÙĪ ÛĮØ±
äº¤ æĺĵ
åĮĹäº¬ èµĽè½¦
ĠÙĨ Ú©
ĠÐ° Ð±
ĠG Ã¶r
çŁ¥ éģĵ
ĠAB D
ÑĥÐ½ Ð°ÑĢÐ¾Ð´
à² ¿
Ġs Ã¢n
Ġà°¸ à±įà°µ
ĠØ§ÙĦØª Ø§Ø±ÙĬØ®
ĠÙħÙĨ Ø§Ø¨Ø¹
ĠTr ans
Ġsig u
Ã¸n n
ĠæĹ© çĤ¹
ĠÐ¿ÑĢ Ð°Ð·Ð´
ĠK an
ĠØŃ Ø§Ø¶
Ġj ouw
Ġh jem
à¸´à¸ Ķ
ĠÙĦ ÙĢ
ĠÐ½Ð° ÑĥÑĩ
Âµ Î±
ĠÐ´Ð¾ÑģÑĤ Ð°ÑĤÐ¾ÑĩÐ½Ð¾
Ī à¹īà¸²à¸
ķà¸´à¸ Ķà¸
Ġper nah
ĠL ong
ĠÐ¿Ð¾ÑĤ Ð¾Ð¼
ĠæŃ ¦
ÙĪ ÙĩØ§ÛĮ
ĠÂ ¤
Ġag en
æ¥Ń èĢħ
Ø¶ ÙĦ
Ġíĥ Ģ
è§£ æ¢¦
Ġne igh
Ñį Ð½
ĠÙħØ³ Ø§Ø¡
ãĥļ ãĥ¼ãĤ¸
ĠØ§ÛĮ Ùħ
Īà¸ ³à¸
v ur
ĠP T
ÙĴ Ùħ
ĠØ³ÙĦØ§Ùħ Øª
à¸£à¸µà¸ ¢à¸
Ġal at
ãģł ãģ¨
Ð¸ÑĨ Ð¸Ð½
Ġnh áºŃt
r uk
ĠáĥĲáĥ ĸ
·à¹Ī à¸Ļ
Ġ×ľ ×ľ×Ĳ
Ġmo bil
Ð¸Ð½ Ð°Ð¼
ĠÙĦ ÙĩÙħ
Ġ5 00
Ġma akt
áĥĲáĥ¡ áĥ£áĥ®
Ġlib ro
Ġli bre
ĠÎ£ÏĦÎ· Î½
Ġih tiya
ĠÐº Ð°Ð±
åŃ¦ ä¹ł
â ĸ
Ġse orang
ĠÚ©ÙĨ ØªØ±ÙĦ
alam i
¹ à¹Īà¸
Ġbir i
ÑĢ ÐµÐ¿
Ġen fer
Ġv idÃ©
ĠCh i
Ġsub st
Ġë°© ë²ķ
Ġgi ugno
ĠÐ· Ð°ÑģÑĤ
à´ ķ
· à¹īà¸Ļà¸
ĠÚ© Ø§Ø±ÛĮ
Ã¹ i
ï¼Ĳ ï¼Ĳ
Ġj ud
Ġà°¨à±ģà°Ĥà° ļà°¿
t out
ill age
ĠS aÄŁ
Ĭà¸ ·à¹Īà¸Ńà¸
ĠJan uary
ĠÑĤÐ°Ðº Ð¾Ðµ
Ġd ark
ĠAG äºļæ¸¸
Ġprev ent
Ġà¤ī à¤¤à¥įà¤¤
Ġdiffer ence
Ġst aan
so cia
ĠB ol
à®±à¯įà®± à®¿
Ġ×Ķ×ª ×§
áĥĲáĥļ áĥĲáĥ¥
te ld
Ã¡ b
×ł ×ĵ
Ġse ll
ĠÙģ Ø£
ĠÎļ Î¬
æ³ ¢
Î¸ Î¿ÏĤ
ĠÎµÏĨ Î±Ïģ
ir ing
co le
Ġset tembre
ĠÙĨ Ú¯Ø§Ùĩ
Ġáĥ« áĥĲáĥļ
ge ving
ĠagèµĮ åľº
Ġç ®
ê· ľ
Ð¸ÑĢÑĥ ÐµÑĤ
Ġd áº¡ng
Ġà¤ķà¥įà¤· à¥ĩà¤¤à¥įà¤°
ä¸ Ķ
è§ Ĵ
b ach
ĠFr iday
Ú©ÙĨ ÙĪÙĨ
h us
Ġn da
odz ie
ĠÐºÐ°Ðº Ð¾Ð¹
Ġl icz
Ġn este
Ġà¦ī à¦¤à§įà¦¤
ĠtÉĻÅŁ kil
Ñģ Ð°
Ùħ Øª
ĠÑģ Ð¸Ð½
ãĥ¡ ãĥª
Ġst er
ĠáĥĽ áĥĺáĥľ
áĥ¡ áĥĲáĥª
Ø¨ÙĬ Ø¨
à¹Ģ à¸Ń
le bih
ĠÎµÎ½ ÏĮÏĤ
Ġì§Ģ ìĹŃ
Ġ×Ĳ ×Ļ
x to
Ð°Ð½ Ðº
Ġcon vers
Ġz g
Ð¾Ð¼ Ð½
ĠP ER
Ġm other
ĠSep tember
or me
se hen
av es
ĠØ¹ Ø§ÙĦÛĮ
ĠÙĦÙĦ Ø¨ÙĬØ¹
éĸ¢ ä¿Ĥ
ĠC our
Ġgi ft
Ġà°ħ à°Ń
je ll
Ġort aya
iz en
ist ry
Ġà¸ª à¸´
ĠA z
Ķà¸ ±à¸ļ
Ġs ouvent
ĠV E
Ġà¨ µ
Ġver k
Ø¢ ÙħØ¯
voor beeld
Ġj oven
Ġ ung
Ð¾Ð± Ð¾Ð´
tiv i
yn ku
Ġsitu ation
ĠdÃ©c ouv
ĠÐµ ÑīÑĳ
à¸µà¸ ģ
×ķ×ł ×Ļ×ª
ol ute
Ð½Ð¸Ð² ÐµÑĢÑģ
Ġ×ķ ×§
en zi
ãģ¾ ãģŁ
Ġbe lÉĻ
à¸£à¸¹ à¹īà¸
ĠfÃ© vrier
ç´ ¢
ĠØ§ÙĦØ¯ÙĪÙĦ ÙĬ
ï¼ ĸ
Ġent Ã£o
ĠÐ± ÑĥÐº
Ġpa id
Ġw ichtig
g elijk
Õ¡Õ ¼
Ġinvest ment
Ġhá»ĵ i
í Ī¬
A Z
ĠK o
Ġara Ã§
ĠØ§ÙĦØŃ ÙĬØ§Ø©
Ùİ ÙĤ
Ġgi us
Ġget s
Ġby ÅĤa
ĠÐ± Ð°Ð·
res p
ĠÑĤÐ°Ðº Ð¸Ñħ
· à¸Ńà¸Ļ
ĠÙħ ÙĥØ§ÙĨ
Ġpost ed
ĠÎ£ Î±
Ø³ ÙĥØ±
à®¾à®µ à®¤à¯ģ
ĠÐĲÐ½ Ð´
ĠÙĬÙħÙĥÙĨ Ùĥ
ĠÙĥ ÙĨ
à®ķ à®®à¯į
Ġáĥĵ áĥĶáĥĵ
Ġìĸ ¸
Ø®Øª ÙĦÙģ
is ions
ÙĪÙĪ ÙĪÙĪ
Ġpress ure
ĠáĥĵáĥĲáĥ Ĵ
ate go
Ġsu bs
Ġtrans fer
ed et
Ġn esta
in aciÃ³n
Ġg uy
Ġorgan isme
ĠØ§ÙĦÙħØ¬ ØªÙħØ¹
le up
ĠÐ½ Ð¾Ñĩ
Ġma upun
ĠÐŁÐµÑĤ ÐµÑĢÐ±ÑĥÑĢÐ³
ĠvÅ¡ech ny
Ġwoll en
Ġke cil
Ð° ÑģÑĤÐ²
Ġke z
Ġag åľ¨çº¿
ĠáĥĴáĥĲáĥľ áĥª
Ġar beit
Ġà°ħ à°Ĥà°¤
AL E
Ġà¤¦ à¤¿à¤ĸ
ĠÄĲ Ã¢y
Ġcl ub
m eler
áĥ®áĥķ áĥĲ
ĠÐ½Ð°Ð· ÑĭÐ²
Ġà¦¦à§ĩà¦¶ à§ĩà¦°
Ġda fÃ¼r
ĠTh Ã¡ng
Ġà¤¬à¤¾à¤° à¥ĩ
ĠØ§ÙĦÙħ Ø§Ø¶ÙĬ
Ġt on
áĥ¢ áĥł
ÄŁ lu
à¦¨ à¦¾à§Ł
âĢĭ âĢĭ
Ġe ki
Ġt ai
¥à¸ ±à¸ĩà¸
ĠÐľ Ð°ÑĤ
ĠEntw ick
Ġk teÅĻÃŃ
×Ĳ ×ķ
Ġd ress
ĠØ§Ø¨ Ø²Ø§Ø±
ra um
Ġà®ķ à®¿à®°
ĠÙħÙĨ Ø·ÙĤØ©
Ġä¸Ń åı¤
ĠÐļ Ð°ÑĤ
ĠáĥĽ áĥĶáĥł
Ġáĥĳ áĥĶáĥķ
ĠV oir
Ġeff ort
à¹Ģà¸£ à¸²
Ġê·¸ ë¦¬ê³ł
2 1
ang en
ĠÎµÏĢÎ¯ ÏĥÎ·ÏĤ
Ġ×ª ×ľ
ĠÐ¿Ð¾Ð´ Ð°ÑĢ
Ġà¦ Ŀ
Ġc ateg
ĠbaÅŁ ka
Ġob chod
Ġsa b
Ø¨ ÛĮØ±
à¦ª à§įà¦¤
Ġk Ä±z
Ġro d
Ð¾Ð²Ð°Ð½ Ð¸Ð¸
ĠdÃ© cembre
ĠIB _
áĥłáĥ ª
ÑģÐ» ÑĥÐ¶
à§įà¦¦ à§įà¦°
Ġbeso in
ĠO k
cto ber
aliz aÃ§Ã£o
ĠØ¨Ø¯ ÙĨ
at te
Ġy ayÄ±n
Ġwy gl
áĥľ áĥĺáĥ¨áĥľ
ĠÛĮØ¹ ÙĨÛĮ
Ġmassas jerom
ÙĪÙĦ ÙĪ
ah men
ĠÐ² Ð»Ð°ÑģÑĤ
Ġë ĸ
à¥ģà¤ ·
we is
à¤ı à¤®
Ġre place
b bero
Ġà¤ı à¤µà¤Ĥ
Ġoct ubre
¨ à¸²à¸
on ces
ĠÐºÐ½Ð¸ Ð³
Ġalgum as
ĠØ¬ÙħÙĩ ÙĪØ±ÛĮ
ĠrÃ© du
ĠÛ±Û³Û¹Û ·
d Ã¼
Ġproto Å¾e
Ġcara cter
ck t
schl uss
Ġsol ic
ien da
ĠÙħÙĪ Ø³
Ġbl ue
Ġoffer ing
Ġb un
Ġà¤°à¤¾à¤ľ à¥įà¤¯
ĠØ§ÛĮÙĨØªØ± ÙĨØªÛĮ
Ð¾ÑĢ Ð¾Ð½
æĺ Į
ar asÄ±
Ġgu ide
à¸£ à¹Īà¸§à¸
ĠÑįÐ»ÐµÐºÑĤÑĢ Ð¾Ð½
Ġà¦¸à¦¦ à¦¸à§įà¦¯
ë¡ Ģ
à¤¾à¤¤ à¥ĩ
ĠnabÃŃ d
ess i
¢à¸ ¸à¸
ìĹĲ ëıĦ
ĠÐ±Ñĭ ÑģÑĤÑĢÐ¾
ĠB ay
Î³ ÏĮ
ĠÙģ Ø§ÙĦ
ĠF ol
ĠK ing
ĠØª Ø§Ø«
à°¾à°² à°¨à±ģ
Ġà¦¬à§ĩà¦¶ à¦¿
ĠçĽ ®
Ġm ÉĻh
ë¥´ ëĬĶ
ìķł ìĿ¸
st y
Ġmo o
ĠáĥĽáĥĺáĥ ¦
Ġs atis
k ami
ĠB áº¯c
Ġsa Ãºde
ten ant
ĵ à¹Į
Ú© ÛĮÙĦ
à¯Īà® ª
Ġz eker
Ġpr Ã¡ct
à¸Ļà¹īà¸ ³à¸
ĠGob ierno
ĠØ®ÙĪ Ø§Ø¨
ingk ungan
am az
ç¾İ åĽ½
att le
Ġu á»ĳng
å¤ Ł
Ïĩ Î®ÏĤ
Ġm ail
ĠÏĢÏģÎ±Î³ Î¼Î±
Å¡ Å¥
ĠÙħÙĨØª Ø´Ø±
ĠÙĨØŃ ÙĪ
à°¾à°² à°¨à°¿
Ġd Ã²ng
Ġa Ãºn
og li
à¦¤ à¦¿à¦ķ
×Ļ×ł ×ķ×ª
ãĥª ãĥ¼ãĤº
Ġè¦ ĭ
Ġn p
Ġng á»§
ĠØ§ÙĦØ³ ÙĪØ¯
as anya
Ġáĥ¨ áĥĶáĥĴ
Ġrel aÃ§Ã£o
Ġè Ī
Ð¾ÑĤ Ð¸Ð²
sk o
ĠGo od
cz ka
Ø§ØŃ ÙĬØ©
or ge
æĹ©çĤ¹ åĬłçĽŁ
ĠåķĨ åĵģ
Ġad ap
Ġ4 4
ĠØ¨ÙĪØ¯ ÙĨØ¯
Ġwer eld
çİ° åľº
Ġm Ã¶v
ĠÑĩ Ð¸ÑģÑĤ
ÙĤ ÙĤ
Ġà¤¨ à¥Ģ
Ø§Ø³ Ø§Øª
ãĤĪ ãģı
ĠØ§ÙĦØ¬ Ø§Ùħ
à¤¡ à¥Ģ
Ġexist ing
Ġste eds
Ġh Ã¶
Ïĥ ÏĦÎ¹
c are
ĠÐ° ÑĤ
ĠH ij
Ġà®ļ à¯Ĥ
Ġs iap
Ġol ub
ĠÑģ Ñħ
Ġà¤ľ à¥įà¤¯
Ġk or
Ġbul an
ĠÚ©ÙĨ Ùħ
Ġapp el
itu te
Ġh os
ĠG arten
ĠÑĤ ÑĥÑĤ
ĠØ§ÙĦÙĨ Ùģ
Ġfam ille
char ger
×ķ×ľ ×ķ×ª
Ġ×©×ľ ×Ļ
Ġå¤§åıĳ æŀģéĢŁ
Ġnot amment
O V
ing e
à±ģà°¤ à±įà°µ
éł Ń
ĠØ¢ Ù¾
Ġtut ta
Ġm ajÃŃ
ĠØ§ÙĦÙĪØ· ÙĨÙĬ
ĠÙ¾ ÙĪØ³Øª
S t
Þ §
Ġï ¹
ĠØ§ÙĦÙħ Ø¨
und er
Ġapp re
Ġåĩ¯åıĳ å®ĺç½ĳ
ĠåŃ ¦
Ġbeh av
Ġãģ ¤
iy esi
ĠìŀĲ ìĭł
ĠØ§ÙĦØ´ Ø±ÙĥØ©
ĠÎ¸Îµ Ïī
Ġger ne
Ġincl uso
Å ĵ
à®¿à®ªà¯įà®ª à¯ģ
t schaft
Ġn acional
Ġ) {
ar da
ĠNo ve
ĠØ¨Ø±Ø® ÙĪØ±Ø¯
Ġcon osc
Ġwszystk ich
ĠÐ´Ð¾Ð¿ Ð¾Ð»Ð½Ð¸ÑĤÐµÐ»ÑĮ
ÙĦÙĥ ØªØ±ÙĪÙĨ
Ùĥ Ùİ
ĠR el
Ġà°ī à°Ĥà°¦à°¿
ÄĻ zy
ĠÎº ÏģÎ¹
Ø§Ø¹ ÙĬØ©
r era
Ðł Âµ
ÙĩâĢĮ Ø§ÙĨØ¯
Ġï º
Ġ×¢ ×ķ×ĳ
áĥĶáĥĹ áĥĲ
æ¥ ¼
ĠáĥĴ áĥĸ
ĠPol s
Ġd ream
ĠczÄĻ ÅĽci
ĠO ctober
ĠÐŀ Ð½Ð¸
urs a
Ġter min
ĠØ¢ ÛĮØ§
ëĿ ½
×ª ×ķ
ª áĥ®
Ġ×Ķ ×Ļ×ķ
ak en
áĥĶáĥĳáĥļ áĥĲáĥĵ
Ã£ n
ĠØ§Ø³ Ù¾
Ġf elt
Ġà¦§ à¦°
à¤ļ à¥Ģ
è¾¼ ãģ¿
Î¼ Î¹Î±
Ġpro ti
ĠÚ©ÙĨ Ø§Ø±
Ġst att
ĠØ§ÙĦØ§Øª ØŃØ§Ø¯
ĠÑģÐ¼Ð¾ÑĤÑĢ ÐµÑĤÑĮ
ãģ ¼
Ðķ ÐĿ
iteit en
ĠÏĥ Î¿
ÙĪ Ø¨ÙĬ
ad Ä±ÄŁÄ±
Ġabr il
ĠÐ²Ð½Ð¸Ð¼ Ð°Ð½Ð¸Ðµ
Ġeas ier
iz a
Ð°Ð½Ð´ Ð°ÑĢÑĤ
Ġcas h
Ġsle ep
Ġáĥ¡áĥĲáĥĸ áĥĿáĥĴ
ĠÑĢ Ð¾Ð·
Î¸ ÎµÎ½
ĠS ystem
éĢļ è¿ĩ
Ġexpl ain
iz ado
ÉĻt ic
ĠëĦ ¤
Ġjun io
ĠØ§ÙĨØ¯Ø±ÙĪ ÛĮØ¯
Î¼ ÎµÎ¹
ĠR Ã©s
Î»Îµ Ïį
ÏĨÎŃÏģ ÎµÎ¹
m uÅŁ
ĠJul i
Ø±ÙĬ ÙĦ
zi om
Ġê± ¸
d Ä±ndan
Ø¯ Ùģ
Ġn at
Ġà¤ħ à¤Ĺà¤°
èĲĦ äº¬
ä¸ ¥
ĠÙģ ÙĨØ§
Ø® Ø¨
Ġëı ħ
Ð¿ Ð¸Ð¾Ð½
Ġå¥ ¹
Ġgob ierno
ë¶ Ī
r ary
si Ã³n
Ġk atÄ±
ĠZ usammen
ĠÐ´ÐµÐº Ð°Ð±
ĠìĿ µ
áĥĲáĥłáĥ ļ
ĠÐ¿ÑĢ Ð¸ÑĢ
Ã¤ g
Ġy ay
Ġcum pl
Ġmed ic
ĠÐł ÑĥÑģ
Ïĥ Î¼Î±ÏĦÎ±
æŁ Ĳ
Ġgus ta
Ġm esi
Ġm iaÅĤ
Ã ¾
w est
Ġm oc
Ġ ąć
Ġn de
§ áĥķ
Ġí ļ
ĠÑģÐ²Ð¾ ÐµÐ³Ð¾
ÙĪÙĦ ÙĪØ¬
Ġ×ľ×¢ ×©×ķ×ª
Ġà¤¦à¤¿à¤² à¥įà¤²à¥Ģ
ĠO ther
ĠÎ¿ Î´Î·
Ġp ÅĤy
à¯Īà®ļ à¯įà®ļ
Ġê´Ģ ëł¨
m uz
ĠnÃ³ s
ĠrÃ©s e
ãĥ¼ãĥĨ ãĤ£
Ð¾Ð½ ÑĥÑģ
Ġ2 55
Ġform ation
osi Ã§Ã£o
Ġj alan
Ġh áº¯n
Ġà¤¶à¥ģà¤° à¥Ĥ
à¶ ½
Ġà¦Ĩà¦ª à¦¨à¦¿
ãĥ³ãĥ ĩ
Ġ×Ľ×Ĳ ×©×¨
Ġsim ples
Ġqey d
ĠØ®Ø¨Ø± Ú¯Ø²Ø§Ø±ÛĮ
Ġà°ļ à°¾à°²
åģ ľ
ĠØ§ÙĦØ® Ø§Øµ
ÏĦÎ· ÏĦÎ±ÏĤ
ĠDet aljer
áĥĶáĥĳ áĥĹáĥĲáĥľ
ki ÅŁ
ĠÙĪ ØºÙĬØ±
Ġnh Ã©
à°Ĥà°¡ à°¿
Ġj es
ge hen
ÏĢ Ïī
áĥĺáĥļáĥĺ áĥĲ
ĠØ²ÙħØ§ÙĨ ÛĮ
Ġà¤¦ à¥Įà¤°
åŁ¹ è®Ń
×ª ×Ŀ
åĽ £
er on
ĠÃ ¬
à°¾à°Ĥà° Ł
Ġà¦ī à¦ł
ĳ ng
Ġt ant
ĠÐŀ Ñĩ
ĠÐ¾Ñģ Ð½
Ġc itas
alis ation
áĥĺáĥ ¬
Ġà°ħ à°²
br ero
Ġkil ka
ÏĦ Ïį
ÙĴ Ø±
Ġåį ļ
ĠØªÙħ Ø§Ø³
Ġs Ã©rie
ct ie
Ġáĥ§áĥķáĥĶáĥļ áĥĲáĥ¤
ê² ¬
Ã¶r per
Ġä»Ĭ åĽŀ
Ġãĥ ¦
Î¯Î½ Î¿ÏħÎ½
Ġlov ed
à¤¾à¤¦ à¥Ģ
am s
ä»· æł¼
Ġà®®à¯ģà®Ł à®¿à®¯
Ġr ayon
Ġcon te
ãģĭãĤī ãģ®
ĠG ru
Ġl Ã¡
ia Ã§Ã£o
Ġtr an
ÅĻ Ã¡d
Ġgr Ã¶ÃŁ
áĥķ áĥĺ
ĠÎ¶Ïī Î®
Î¼ ÏīÎ½
il ies
all es
Ġpre Ã§o
Ġç½ĳ ä¸Ĭ
Ġdi ch
Ø´ ØªÛĮ
ÎĳÎ ł
Ġdeli very
à· Ļ
ĠHotel s
Ġpos z
Å ł
ĠÎ±ÏĢÎ¿ Îº
n itt
Ġà¤ªà¤¹ à¥ģ
ĠØ§ÙĦØ¬Ùħ Ø¹Ø©
èĦ ĳ
Ġà¦¬à¦¿à¦· à§Ł
ĠÎºÏħÎ² ÎŃÏģÎ½Î·
Ġun ivers
Ġà®¨ à®²à¯įà®²
ë°Ķ ëĳĳìĿ´
dz iel
ĠÑģÐ»ÐµÐ´ ÑĥÐµÑĤ
Ġus es
è´ ¦
ĠáĥĴáĥĲáĥľ áĥķáĥĺáĥĹ
Ġk ulit
ĠØ§ÙĦØ® ÙħÙĬØ³
ĠJ est
Ġrealiz ar
Ġdob rze
ĠsÃ©cur itÃ©
Ġæ ģ
ĠÎŁ Îº
àµįà´ ļ
sz Äħ
Ġpok ud
ĠÑıÐ½ Ð²Ð°ÑĢ
[ ]
åĲ «
ĠÏĥ Î±Î½
à®£ à®®à¯į
c ast
la f
ĠÄĳo áº¡n
ĠÑģÑĢ Ð°Ð²
Ø§Ø³Øª Ø§ÙĨ
ĠUn idos
ĠÎµ Î´Ïİ
×§ ×Ļ×Ŀ
Ġfeel ing
Ġbu iten
Ġresp onse
Ġser ve
Ġde ver
o it
ÑĥÐ»Ñı ÑĤÐ¾ÑĢ
l atego
ul ing
ÉĻ st
ĠØ§ÙĦØ«ÙĦØ§Ø« Ø§Ø¡
ĠSt ar
Ġret our
ĠØ¨ ÙĢ
Ġv orm
Ð¢ Ðŀ
Ġcoment arios
ĠÐŁ Ð¾Ðº
Ġz de
ru z
æ±½ è½¦
men o
ÑĬ ÐµÐ¼
ĠJ apan
Ġkonn te
ĠÑģÐ°Ð¹ÑĤ Ð°
iedz iaÅĤ
Ġs ÉĻn
Ġm ÉĻq
Ġofre ce
ĠÅŁ ÉĻhÉĻr
ĠU z
od o
ĠÑģÐ²Ð¾ Ð¸Ð¼Ð¸
ĠM ga
IN G
Ġesp anol
Ġ ÃŃ
äº ®
ĠM ic
ĠÐ· Ð½Ð°
Ġpr is
Ġà¦¦à§ĩà¦ĸ à¦¾
ãĥĿ ãĤ¤ãĥ³ãĥĪ
ĠIn f
Ġk val
Ġpotre bbe
å® ¡
Ø¨ ÙĪØ¯
ta j
Ġà¤ĸ à¤¿à¤²
al er
ĠØ§ÙĦØ£ Ø±Ø¨Ø¹
d 88
Ġg as
å¯ Ħ
Ġam igos
ov i
×ķ×¨ ×ĺ
ĠÐ¾ÑĤ Ð¼ÐµÑĤ
Ġà¤ªà¤¹à¥ģ à¤Ĥà¤ļ
ãģ ľ
ĠÙĪ ÛĮØ±
Ġà¸ªà¸ ¹à¸
m ir
ĠÑģÐµÑĢ Ð²
Ġha ute
à¹Ģà¸£ à¹ĩà¸
Ġz org
ĠÑĦ ÐµÐ²
Ðķ Ðł
Ġm ap
Ġsp ill
Ġpict ures
èı ľ
Ġst Ã¡t
ĠÏĦ ÎµÏĩ
Ġbas is
ist razione
Ġáĥ¡áĥĲáĥ¨ áĥ£áĥĲáĥļ
Ø§Ø¯ ÙĦ
ver b
ĠWe g
Ġch á»¯a
ĠFace book
Ð¾ÑĢ ÑĮ
ĠÑĢ ÐµÑģ
st Ã¼ck
Ġa ward
Ġhe mos
ĠCÃ³ mo
ow is
Ġter us
à°¾à°² à±ĭ
ĠÎ² Î¹Î²
Ġà°° à±ĭà°ľ
ĠØ¯Ø³Øª Ùĩ
Ġco le
Ġáĥĺáĥ¥ áĥľáĥĶáĥĳáĥĲ
Ġè £
ĠØ§ÙĦØ« ÙĤ
ĠçĦ ¶
ĠNove mber
Y X
âĢĮ Ù¾
Æ°á» Ľi
Ġ×¤ ×Ļ
ĠV ere
Ġzap e
à¨ ¦
io res
Ġà¤ļ à¥ģ
Î»Î¿ ÏįÎ½
ĠL i
ĠTh Ã´ng
à¤¿à¤¸ à¥įà¤¤
æĽ ²
if t
Ġnap raw
ĠKad Ä±n
Ġso cietÃł
Ġáĥ¡áĥĲáĥĸáĥĿáĥĴ áĥĲáĥĵáĥĿ
n in
áł ¤
ĠÅ ĺ
Ġdam age
Ñĩ Ð¸Ð²
à· ļ
áĥķ áĥĶáĥĵ
à¤² à¥įà¤¯
ãĤĴ æĮģ
Ġkaz an
ĠÏĢÎ¬Î½ Ïī
ĠÙĦ ÙĤ
ĠT ur
Ġká» ĥ
Ġzp Å¯
à§ «
Ð¸Ðº Ð°Ð½
Ġpas o
r ound
ÏģÎµ Î¯Î±
Ġà¦¹ à¦ĵ
Ġà®ªà¯Ĭ à®°
ĠÃ¼l k
ĠØ§ÙĦØ« Ø§ÙĦØ«
ĠØ§ÙĦØ¯ ÙĥØªÙĪØ±
° ¡
Ġr ates
m ayÄ±
Ø´ Ú©
uj eme
at ivas
ÙĪ ØªØ±
ĠV ÃŃce
Ġà®¤ à®µ
Ġà¦Ĺ à§ĩà¦Ľà§ĩ
ĠçĶ ±
ĠÐ´ ÑĥÑĪ
ĠÑĩÐ°ÑģÑĤ Ð¾
Ġpou Å¾ÃŃ
ç¦ı åĪ©
! !
Ġç ĥ
ĠÐ¼ Ð°Ñı
Îķ Îļ
Ġ×ĳ×ª ×Ĺ
ĠH vor
ãĥ ¦
åħįè´¹ è§Ĩé¢ĳ
Ġmigli ori
ĠwÅĤa ÅĽci
ĠÙĨ ÙĪÛĮØ³
Î¼Îµ Î¯
n ict
ate gy
Ġà¦¬ à¦¸
Ġ×Ķ×ŀ× Ĳ
à¹ĥà¸Ļà¸ ģà¸²à¸£à¸
Ġadip ur
ĠÐ¿ÑĢ Ð¾Ðº
ÑĢ ÐµÑĪ
à¸²à¸£ à¹Įà¸
ĠØ° ÙĥØ±
Ġæ° ¸
ĠN is
åº Ħ
æĻĤ ãģ«
Ġcons ist
Ġs ayÄ±
ĠåĪĨ åĪĨå½©
ĠæĬķ ç¨¿
Ġà¤µà¤¿à¤ ¦
Ġ×Ĳ×ł ×Ĺ×ł×ķ
Ġe ig
Ġf ly
ĠÐĶ Ð¾Ð±Ð°Ð²
Ġsp rÃ¡v
Ġv á»ĳn
Ġtr itur
Ø¯ ÙĦ
ĠM ich
Ã¡z ÃŃ
ĠÑģÑĤÐ¾ÑĢ Ð¾Ð½Ñĭ
ĠØ± Ø§Ø¨Ø·
Ġd ow
ĠíĻ į
il ip
Î´ ÏīÎ½
ĠÃ©ta bl
ĠØŃØ§Ø¶ Ø±
ĠV N
Ġà¦ħ à§įà¦¯
ä¸Ĭ ãģĮ
ĠSan ta
Ġà¤¹ à¥Ĥ
ĠÐĺ Ð¼
r io
ĸà¸¶à¸ ĩ
Ġdesc rib
ëĦ Ī
kom st
Ġb Ã¶yle
Ġà¹Ĥà¸Ķà¸ ¢à¸
Ġæ £
i ori
Ġst uff
à¥įà¤ ľ
à®³ à¯įà®µ
Ġtrans port
à¦ŀ à§įà¦ļ
ĠÛ±Û³Û¹Û ¶
ãģłãģĳ ãģ§
Ġs yn
ĠF oto
áĥĲáĥ Ł
Ġæ ¿
ĠÐĴ Ð¾ÑĤ
ĠÑĤ Ð²Ð¾ÑĢ
ĠÑĢÐµÐº Ð»Ð°Ð¼
ĠØ§ÙĦÙĤ Ø§ÙĩØ±Ø©
ÐµÑħ Ð°Ð½
Ġv raag
ĠÃ¡ gua
Ġun it
Ġv arios
z on
Ð¡ Ð¡
æŀ ļ
ĠØ£ ÙĦÙģ
Ġdeg ree
ĠtÉĻrÉĻf indÉĻn
í į¼
ĠkarÅŁ Ä±l
x te
iv nÃŃ
æ¸ ©
ĠZ ap
ĠÙĩ ÙĪØ´
ĠÙĨ Ùģ
liche s
Ġvi ol
lau b
åģ· æĭį
Ġbir th
ĠØ§ÙĦØ¥ ÙĨ
ãĤ¯ ãĤ»
Ġà¤¬à¤¤ à¤¾à¤¯à¤¾
Ġpolit ical
ĠÐ·Ð°Ð± Ð¾Ð»ÐµÐ²
ĠS om
ÐµÐ¹ ÑĤ
Ġwen ig
ĠÙĨØ® Ø³Øª
Ġ à¸£à¸µà¸§à¸´à¸
Ġva ak
ĠA h
Ħà¸ ¥à¸
ĠÙĬ ÙĪÙĦ
ãĤ¢ ãĤ¤
ķ à¹Įà¸
ĠØ®ÙĪ Ø¨ÛĮ
Ġdic iembre
ĠT im
at if
ÄĽ r
ov o
ĠØ¯ ÙĬ
Ġact ive
à¸Ń à¸Ńà¸ģà¸
Ġposs ibilitÃł
ĠDe ce
à§Ģà¦° à¦¾
ĠÕ ©
ĠH ak
ë³ ĳ
à¨ ¸
×Ļ×Ľ ×ķ×ª
Ġown ers
ĠR us
st Ã¸p
Ġl ivre
Ġdom u
ti ve
ãĤĴ ãģĹãģ¦
ador as
ĠSp iele
bi Äĩ
ĠØ§ÙĦØ£Ùħ ÙĬØ±
Ġzm ian
Ġtuy áº¿n
åº ĵ
ĠÄĳ au
à®µ à¯įà®µ
Ġl áº¡nh
Ġä¸ĩ åįļ
Ġà¦¹ à¦¾à¦°
Ġà¦¤ à§ĭ
Ġbag a
Ġle gg
ĠnÄĽ kol
is ir
ch u
ĠØ§ÙĦØ¯ Ùħ
à¦Ĥ à¦¶
ĠTh Ã¡i
Ġein ige
ert as
Î¼ÎŃÎ½Î¿ ÏĤ
Ø¹ÙĦ ÙĨ
Ġà®ĩà®²à¯įà®² à¯Ī
Ġha ut
ation ale
ĠØ· ÛĮ
ĠS Æ¡n
or nia
Ġleg ge
ĠÖ ĩ
ĠÏĦ Î¬
Ġche g
Ø¶ Ø§Ùģ
ÃŃ cias
ĠÏĢÏģÏİ ÏĦÎ·
ĠÄĳ Ã´ng
c ando
ĠÙħØ± ØŃ
à±įâĢĮ à°²à±ĭ
ĠÐ½Ð°ÑĢ Ð¾Ð´
Ġ×¦×¨ ×Ļ×ļ
Ñİ Ð·
æī ķ
ĠØ§ÙĨ Ø§
ĠÐºÐ¾ÑĤÐ¾ÑĢ Ð¾Ð³Ð¾
à±Ĥà° ²
Ġà¦ĵ à¦ĩ
çĶŁ äº§
ĠDes de
à°¡ à°¾à°¨à°¿à°ķà°¿
Ġsic urezza
Ġo czy
ĠÂ £Â
ÑĥÐ½ ÐºÑĤ
Ġ äºĳ
Ġj ong
ĠØ´Ø¯ ÙĨØ¯
Ġch áº¿t
ĠAll ah
Ġwo j
, \"
Ġáĥ¨áĥĶáĥĵ áĥĶáĥĴ
ĠDep artment
Ġistif adÉĻ
Ù ł
Ġn ut
EN T
Ġ ä¹Ĳ
ÃĦ Ãª
Ġkull anÄ±
ľà¸ ¥à¸´à¸
áĥĲáĥłáĥĵ áĥĲ
Ġsk lep
Ġont vang
Ġge hen
ĠEr fahr
ĠØ§ÙĦÙħØµ Ø±ÙĬ
à°Ł à±įà°²à±ģ
Ġh Ã´m
sz taÅĤ
kiÅŁ af
Ùħ Ùĩ
ĠÄĳ Ã´i
de el
Ġop ortun
ãģĮ åĩº
Ø±ÙĪ Ø¶
Ġtr ade
Ã¤n de
à´ ķàµįà´ķ
Ł ģ
ĠÎ Ħ
Ú© ÛĮØ¯
ĠØ§Ø³ Ùģ
Ġà®¨ à¯ĭ
acion ales
ĠWeb cam
Ġà¤° à¤¾à¤·à¥įà¤Ł
ĠNe u
ĠØ´ÙĨ Ø§Ø³
Ġkab ul
ĠÐĴÐ»Ð°Ð´ Ð¸Ð¼
res e
Ø¯ ÙĬØ§Øª
´ à¸Ļ
áĥĶáĥĳáĥĺáĥ¡ áĥĹáĥķáĥĺáĥ¡
Ð°Ð¼ ÐµÐ½
Ġpor ta
s iz
ann i
ce ÄŁi
Ġsl ow
Ġng a
ĠãĤ³ ãĥĶãĥ¼
Ġ×ł ×Ĺ
te ile
à¤® à¥įà¤®
ĠçĻ ¾
Ġëħ ¼
Ġ×Ĳ×Ĺ ×ª
Ġactiv idades
áĥĵ áĥĺáĥ¡
à§ĩà¦ ¯à¦¼
ÙĦÙħ ÙĬÙĨ
ĠAl Ã©m
Ġcomp on
çº ³
Ġà¤Ĩ à¤§
um ps
am ers
oor den
Ġalgun as
ÏĢÏĦ ÏīÏĥÎ·
íĬ Ģ
[...]
