#version: 0.2
á ĥ
á Ģ
à ¦
à ¤
à ¸
à ®
Ġ Ð
à ª
à ´
Ð ¾
ã ģ
Ø §
à °
Ð µ
Ð °
Ù Ħ
Ġ Ø
Ð ¸
Ñ Ĥ
Ġ Î
à ¯
Ð ½
Ġ ×
Ġ t
Ñ Ģ
Ñ ģ
Û Į
Ġ à¤
à §
Ð¾ Ð
à µ
à ¥
Ù Ĭ
ã Ĥ
Ġ a
ã ĥ
Ø ±
Ġ à¦
Ø§ ÙĦ
Ù ħ
Î ±
áĥ Ĳ
á »
à «
Ù Ĩ
i n
Ï Ħ
h e
Î ¿
Ġ áĥ
Ġ àª
Ù Ī
Î ¹
à ¹
Ù ĩ
Ġ Ø§ÙĦ
à¯ į
Ð »
áĥĲ áĥ
à ±
áĥ ĺ
e r
àµ į
e n
Ø ¯
Î ½
Î µ
× Ļ
Ð º
Ä ±
Ġ s
Ġ à®
a n
× ķ
Ġ o
r e
Ñ ĥ
Ñ ĸ
Ġ .
à¦ ¾
Ġt he
Ġ d
Ø ª
á º
Ï ģ
áĢ ¹
áĥ Ķ
Ġ ì
Ï ĥ
Ġ à´
à¯į à®
áĥĶ áĥ
àµį à´
Ñ ı
×ķ ×
Ġ áĢ
Ñ ĭ
Ġ w
Ġ ,
o n
Ø ©
É Ļ
Ã «
a t
Ġd e
Ð° Ð
Ø§ Ø
Ġ c
Ðµ Ð
à§ ĩ
×Ļ ×
áĥĺ áĥ
à¤ ¾
Ġ à°
à¦¾ à¦
Ï Ģ
n g
àª ¾
Ã ©
ã Ģ
Ï Ĥ
o s
Ñ Į
ĠÐ ¿
i t
áĢ¹ áĢ
Î ·
e s
Ï ħ
o u
c h
o r
Ġ p
Ġ f
Ù ģ
Ã ¡
áĢ ¬
i s
Ġ b
Ġa n
Ñģ ÑĤ
in g
ĠØ ¨
Ú ©
ĠØ§ÙĦ Ø
Ġ l
à§ į
Ã ¤
à§į à¦
a s
Ġ ãĢ
a r
à¯ ģ
àª¾ àª
Ð ²
à¥ ĩ
e d
ĠÐ ²
Ù Ĥ
Ġ m
Ġ Ùħ
Ù ĥ
à® ¿
Ġt o
a l
Ñ ĩ
à¦ ¿
áĢ º
Î »
áĢ ¸
áĥ Ŀ
à¤ °
Ã Ń
Ġ ÏĦ
Ðµ Ð½
Ġ Ñģ
à´ ¿
Ġan d
áĢ ¯
Ø§ ÙĨ
Î º
Ġ in
à¸ ²
ä ¸
Ø ¨
Ġ ë
à®¿ à®
à± į
Ø ¹
áĢ Ń
Î ¯
Ġo f
Ġ ÙĪ
i e
Ġ Ä
à« ĩ
Ø§ ÛĮ
Ð ¼
ĠÐ ½
à¸ Ļ
Î ¼
Ġ ï
Ð¾Ð ²
ĠØ ¯
ì Ŀ
Ġ å
à¦ °
áĢ Ģ
áĥĿ áĥ
c i
Û ģ
ĠÐ ¸
à¸ £
à´¿ à´
× Ķ
à¥ į
ĠÄ ĳ
Û Ĵ
Ø ³
Ð ´
Ġ Ú©
Ï Į
± áĢ
Ã ¼
× ¨
áĢ Ħ
Ġà¤ ķ
Î ¬
à¤¾ à¤
à±į à°
Ã ł
Ġ h
o m
Î¿ Ïħ
ĠÐ ¾
á ģ
à¯ģ à®
à° ¿
i on
a d
Ñ ħ
ãģ ®
Ä ĥ
Ġ× Ķ
× ľ
à¥ Ģ
àµ ģ
áĢ¸ áĢ
n h
Ø§ Ø±
à¤ ¿
Ġt h
ĠÐ º
à¸ Ń
i c
Ä ģ
à« į
Ġï ¼
à¦¿ à¦
à«į àª
l e
à° ¾
Ġ e
Ø ´
à« Ģ
Ġ Ø§Ø
Å Ł
Ðµ ÑĢ
à® ¾
u e
à± ģ
en t
Ð° Ð½
Ġ æ
Ðµ ÑĤ
ŀ ×
Å Ĥ
Ú ¯
à´ ¾
Ġ v
à¹ Ģ
à¥į à¤
à¹ Ī
ĠÐ ´
à®¾ à®
Ġ y
Ġ à¸
à¤ Ĥ
à¸² à¸
Ġ ÏĢ
i l
Ð ¿
Ġ S
à§ĩ à¦
Ð¾ ÑĢ
ãģ Ħ
àµģ à´
Ġ T
Ð° ÑĤ
Ġ re
£ áĥ
Ġd i
Ï ī
Æ °
ĠÎ º
Ġ I
â Ģ
à´¾ à´
u n
áĥĺáĥ ¡
à°¾ à°
à¤¿ à¤
áĥĶáĥ ĳ
áĢ Ĳ
áĢŃ áĢ¯
Î Ń
ä º
Ð¾Ð »
Ġ Ïĥ
Ø Ń
à¸£ à¸
à¹Ģ à¸
ĠÐ¿ ÑĢ
àª ¨
Ġ n
× ª
ĠãĢ ģ
ĠØ ª
Ã ³
ĠÎ ±
o w
Ġ ÙĦ
Ġ ê
Ġl a
Ġ Ùģ
Ð¾Ð ¼
an g
Ñ İ
Ġ en
u s
Ð¸ ÑĤ
ãĥ ¼
Ð½ Ñĭ
Ġy ou
v e
Ð¾Ð ´
Î ³
Î ®
Ġ z
í ķ
áĢ ķ
ĠØ £
ĠÐ ¼
Ðµ Ð»
Ġ g
Ġ×Ķ ×
Î± Î¹
c t
à« ĭ
à¹ ī
Ġï¼ Į
Ð ±
q ue
ĠØ ¹
Ã ¥
áĢ ¼
Ð° Ð»
à¥ ĭ
áĢ Ļ
Ñ Ĩ
Ġ ÑĤ
Ñ Ī
r o
à¸Ļ à¸
ãĢ Ĳ
Ø§ Øª
à°¿ à°
àª °
Ù ī
ãģ §
t e
¿ ½
Ä Ľ
Ä± n
Ġ ÑĢ
ł áĥ
ĳ ãĢĲ
Ġ× ľ
Ð ·
à¸Ń à¸
Ġb e
Ð½ Ð¾
Ï ĩ
Ø ²
l y
Ø ¬
i j
Ã £
Ġ× ĳ
Ä Ļ
Ã §
à¯įà® ķ
ÙĬ Ø©
ĠØ§ÙĦ Ùħ
ĠÎ µ
ãģ Ĺ
Ġ is
ģ à¸
Ġ k
i ch
Ġ âĢ
á Ĥ
Ġ es
i d
i r
Ä Ł
ãģ «
Ã ¶
u l
Ġc h
Ã£ o
Ĥ à°
Ġ ÙĨ
ĠØ ±
Ġ C
Ñ Ĭ
å ı
Ð¾Ð ³
Ġ A
Ġf or
Î¹ Îº
Ġ× Ĳ
à¦ ¨
Ġ que
áĢ Ķ
à® °
áĢĦ áĢ¹áĢ
ĠÎ ¼
i á»
áĢ ±áĢ
ĠØ¯ Ø±
Ä ħ
Ġ -
× ĳ
à¤ ¨
ãģ ¦
ĠØ ³
× Ĳ
Ġo n
ĠãĢ ĳãĢĲ
Ġáĥ Ľ
e t
a h
Ġ Ùĩ
Ġ ãĥ
Ð ¹
Ġ áģ
Ñģ Ðº
Ġ ç
Ġe l
à¯ Ī
a k
u r
Ġ Ã
Ġ Â
Ï į
Ð ³
ãģ ¨
áĥ ķ
u t
ĠØ ´
Ú º
ãģ ª
Ġ un
Ù ¾
l l
ë ĭ
Ð¾ ÑĤ
ĠØ Į
ì ŀ
å ®
à® ¤
×ķ× ª
o t
Î ´
Ġà¤ ¸
áĢ ½
à¯įà® ¤
Ð¸ Ñı
×Ļ× Ŀ
Îµ Î¹
ĠãĢ Ĥ
Ð¾Ð ¹
a m
Ġ× ©
Ġ B
Ġ E
ĠÐ ±
Ġ D
g y
e l
a y
Å ¼
Ø§ Ùħ
ãģ Ł
Ġt r
ĠÐ ·
ļ Ħ
ãģ Ļ
ãĥ ³
à¦¾à¦ °
Å Ļ
áĥ £áĥ
ãģ Į
áĢ ·
Æ° á»
Ġ nh
à§ ģ
ãĤ ĭ
c e
ÐµÐ ¼
Ä «
ĠÐ½ Ð°
Ġ '
Ġ P
z y
Ã³ n
Ġc on
ĩ à¸
Ø ·
à±ģ à°
Ã© s
Ð° ÑĢ
i m
àµ Ĩ
Ġà¤ ¹
u ng
à¤ ķ
i g
áĢ ²
o l
ãģ ¯
ç ļĦ
it h
Ð° Ðº
× ©
Ð¾ Ð½
à§ Ł
× ł
Î¹ Î±
Ġ 1
Ġ ÙĬ
Ø µ
æ ľ
Ð¸ Ð½
t a
Ï Ĩ
ÐµÐ ´
Å ĳ
áº ¡
at ion
ĠÙģ ÙĬ
Ħ à¸
áº ¿
àµį âĢ
ĠÙħ ÙĨ
Ġà¦ ķ
ĠØ¨ Ùĩ
Ġth at
âĢ Į
Ã ´
áĢ ħ
Ġ ãĤ
Î ¸
ÙĨ Ø¯
er s
Å ¾
Ġw ith
Ä ĵ
t o
ì Ĺ
ãģ ¾
Ġáĥ ¡
Ġ M
¨ àµįà´
å ħ
áĥĲáĥ ľ
Ġ 2
ĠØ ¢
e m
Ġà¤ ®
Ġ× ŀ×
Ġà¦ ¸
Ġun d
Ġ Ñĥ
àª ¿
Ñ Ħ
ou r
Ġ í
Ġe t
Ñ ī
à® ©
å ¤
à¸ µ
ĠÏĦ Î·
Ġáĥ ĵ
Ġà¦ ¬
à¤ ¤
Ï İ
Ġ Ûģ
áĢ Ľ
ÏĦ Î±
l ar
Å Ľ
à´ ¤
Ð°Ð ²
± à¸
Ã ª
ĠØ ®
áĢ ®
ĠâĢ Ļ
ãĤ Ĵ
o v
ÙĬ ÙĨ
Ð°Ð ¼
Ð¸ Ðµ
à« ģ
áĥ ¡
n ÃŃ
Ð°Ð ·
ÉĻ r
Ø§ Ø¯
Ã ½
àµįâĢ į
ÙĪ Ø¯
áĥ ł
Ġ è
Ġ Ãł
à«ĩ àª
Ġ áĥĲáĥ
ÙĪ Ø±
à¦ ²
a ci
® à¯į
à® Ł
ä »
q u
áĢ Ĭ
ĠT he
c he
Ġl e
áº £
× ĵ
Ġk h
Ñ Ĺ
Ġ it
Ġ j
à¦ ķ
Ġ Ù¾
i a
k an
Ġ L
c z
Ñģ Ñı
Ġe in
ìĿ ´
Ġ W
Ïģ Î¿
Ġà¤ ª
Ã ¦
Ġc om
Ä į
Ġs e
Ġà¦ ª
å Ī
Ð ¶
ķ àµįà´
àª Ĥ
Ð» Ð¸
àª ¤
ĠÐ ³
ä ¹
a re
Ñ ĺ
z ion
× ¢
Ġ :
ĠÎ ´
ÏĦ Î¿
Ġà® ª
Ġs t
Ġd er
Ġ he
Õ ¡
Å ¡
Ġ Ø§ÛĮ
áĢ ±
× Ĺ
Ġàª ķ
Ø ®
à¥ Ī
en g
à§ĩ à¦°
Ġ F
ĠÃ ®
Ø ¶
ç ½
ÛĮ Úº
Ð¾ Ñģ
t er
áĢ ļ
i o
Ġ× ķ
Ñ ŀ
ÛĮ Ø¯
ĠÎº Î±Î¹
Ġt Ã«
Ġ ng
Ġ K
à® ³
Ġd ie
Ð¸ Ðº
à§ ĭ
á» Ļ
Ġa s
ãģ ĭ
t en
àª ķ
Ġ Ñĩ
Ġp ro
à´ °
Ġ G
à¤ ¸
áĢ ŀ
à¦ ¤
ï ¿½
u m
Ú ¾
áĢ ľ
ĠØ§Ø ²
à° ¨
àª ®
il l
ĠáĢ ¡
t i
ĠÐ Ł
Ð¸ Ð¼
ĠØ§Ø ³
ÑģÑĤ Ð²
ÙĦ Ùī
Ã ¸
Ïģ Î±
ÛĮ ÙĨ
àª µ
à¹Ī à¸
ìŀ ¥
Ð¾Ð ±
Ġàª ª
l er
áĥ ļ
Ġa re
à¥ ģ
ãģ £
Ã¡ s
Ù İ
Ġv an
Ġw h
áº ¥
à¸ ´
Ġáĥ Ĵ
à¦ ¬
à¤ ¹
ÏĦ Î·
Ġ i
Ã¶ r
ç½ ĳ
Ġ r
ëĭ ¤
ĠÃ® n
Ġp h
Ġà® ķ
à° Ĥà°
Ð¾Ð³ Ð¾
ÏĦ Îµ
ĠÐ ¡
Ġ Ùĥ
ê ³
à§įà¦ °
ĠØ¨ Ø±
Ø³ Øª
ar a
ãĥ¼ ãĥ
ì §
à± ĩ
Ã¤ r
à¯įà® ª
Ġo r
áĢ¬ áĢ¸áĢ
ĠÐ Ĵ
à¦ ®
à¥ ¤
× §
à¤ ²
Ġ é
ë Ĭ
Ò Ľ
Ġp r
ķ à¯įà®ķ
ãĤ Ĭ
o or
ä ½
Ġ à¥¤
Ġp er
à° °
Ã ¢
Ġï ¿½
ÏĢ Î¿
Ð» Ñı
à® ²
Ã« r
ÐµÐ ¹
á» ĳ
áĢĦ áĢº
à± ĭ
e k
Ïĥ Î·
d o
Ð° Ñı
ĠØ ¥
ĠÙħ ÛĮ
ì Ħ
Ñ į
ĠÐ °
Ð½ Ñı
¡ à¸
ÙĬ Ø±
Ġw e
Ġ Ø§
áĢ ģ
× ¤
Ã§ Ã£o
Ġ H
v er
ãĤ ¹
ķàµįà´ ķ
Ð¸ Ð¸
áĢ «
ĠØ§ÙĦ Øª
× ŀ×
æ ĸ
ãĤ Ĥ
Ġde s
ĠÏĦ Î¿
¨àµįà´ ¨
Ã ¨
Ïī Î½
Ò ³
u k
Ñĸ Ð´
iá» ĩ
Ġàª ¸
Î¯ Î±
Ġp or
áĥĶáĥ ļ
ĠÏĦ Î¿Ïħ
Ðµ Ðº
u f
à§įà¦ ¯
áĢ ¶
Ġ ãģ
à¯Ī à®
Ġl os
Ġs z
Ġd o
Ø °
ê °
áĥĲáĥ Ľ
Ġn a
ëĬ Ķ
Ġ Õ
Õ¡ Õ
Î¼ Î±
Ġy ang
Ġl es
¶ ľ
Ġ |
áĢ »
Ġ× ¢
× ŀ
ad o
Ð¾ ÑģÑĤ
i ÄĻ
Ð°ÑĤ ÑĮ
ì ł
à¯įà® Ł
È Ľ
ĠÎ ½
Ø £
å ľ
Ð° Ñģ
Ġ Ú¯
Ġà¦ Ĩ
× Ľ
t t
æ Ĺ
Ġh a
Ä ĩ
Ġà® µ
p p
ÙĪ ÙĦ
× Ŀ
Ø§ Ùĩ
i k
ì ķ
¥ à¸
Ġo g
ĠØ ¬
æ Ī
ãĥ ĥ
z e
ãģ Ĩ
áĢ °
re s
Ã µ
ĠÙĪ Ø§ÙĦ
Ð¾Ð º
Ġ Û
ĠØ§Ø³ Øª
at e
Ġv e
Ð¾Ð ¶
ãĤ Į
áĥ ĵ
Î½ Î±
Ġì Ŀ
Ñ Ķ
o d
ĠÐ ļ
Ñĸ Ð²
ĠØ Ń
Ã ¬
ĠÐ »
Ġ il
à ¨
ãĤ ¤
Ð¸ Ð»
Ġf r
Ġyou r
à¥ĩ à¤Ĥ
à¦¾à¦ ¨
Ãª n
äº ļ
ĠÎ ¿
y a
à§ Ģ
àª¾àª Ĥ
ĠÐ¾ ÑĤ
å ½
ãĤ ī
l d
Ġe en
Ġàª ®
Ø± Ø¯
à¤ ®
an t
áĢĢ áĢ¹áĢ
à¹ Ħà¸
a g
å Ľ
es s
Ġà® ®
ĠÐ½ Ðµ
ÑĤ Ð¾
Ùĩ Ø§
Ïģ Î¹
¶ľ ìŀ¥
Ġe m
Ġà¦ ®
ĠÎ ³
at o
Ð¸ Ð¹
he r
Ø «
Ã¡ r
à¹ ģà¸
à¥į à¤°
å ¹
c k
ÙĪ ÙĨ
à¯ ĩ
à¤¾ à¤°
Ø§Ø ²
Ġo ch
áĥ Ľ
es t
Ġde l
Ġà¤ ¬
Ġe x
àª¾àª °
i y
Ġà´ ª
Ġà¦ ı
Ã´ ng
Ġà¤¹ à¥Ī
ĠÚ© ÛĮ
Ġà® ħ
Ġ R
ll a
ÑĢ Ñĥ
Ġ Ã©
Ð¸ Ð²
ë §
Ġ× Ľ
ĠØ§ÙĦØ £
à° ²
à´ ¯
Ġ â
Ġ Ñį
Ġà¤ķ à¥ĩ
å Ĳ
å Ĭ
Ġ N
áĥ ľ
Ġ (
Ġáģ ĭ
Æ ¡
Ġn e
ãĥ Ī
i z
ª à¸
áĥ ¢
Î ²
áĥĲáĥ ĵ
Ġc he
zion e
Ġa t
àµįà´ ¤
ig h
Ġ um
Ú Ĩ
w a
ĠÐ¾ Ð±
ĠÚ© ÛĴ
ì§ Ģ
Å ¯
ìĹ Ĳ
Î ĳ
ĠÄĳ á»
i i
ÙĦ ÙĬ
Ø§Ø ¨
áĢĦáĢ¹áĢ ¸
ÐµÐ» ÑĮ
å į
È Ļ
Ø± ÛĮ
Ġà® ¤
ou s
à¹ī à¸
b le
Ġ V
Ã³ w
Ġ ä¸
Ġ Ñĸ
Ġs a
Ġp ara
Ġ )
Ġ ÙĤ
×ķ× ¨
h r
Ø§Ø ¡
¢ à¸
Ġa z
à´ Ĥ
Ðµ Ñģ
r u
áº Ń
Ġà® ļ
Ġhe t
ç ī
ĠØ§ÙĦØ ¹
an d
á» §
íķ ĺ
Ġ ÑģÑĤ
à® µ
Ä± r
Ð¸ Ñĩ
ç Ķ
a p
ĠØ§ÛĮ ÙĨ
áĥĲáĥ łáĥ
Ġv á»
ĠÎ ĳ
Ð½ Ñĸ
s z
àµ ĭ
Ġà¦ ¨
Ġà¤ ¨
Ĥ ¬
Ġà¤ ľ
× ĺ
Ġà´ ķ
Ġ× Ļ
ou n
b er
à¯ģà® ®à¯į
Ġv Ãł
it y
à«ĭ àª
Ã¼ r
áĢ ¡
Ã« s
æ ĺ
Ġáĥ ł
à®¿à® ²
ĠÎ¼ Îµ
ë ¡
i ve
à´ Ł
§ à¸
ÉĻ n
à¦ ¸
s t
o re
Ġa l
a ÅŁ
t h
Ġd a
ĠØ¨ Ø§
Ġà¦ ¹
áĥĶáĥ ľ
ï ¼
Ð°Ð ´
ĠÚ© Ùĩ
Ġàª ľ
ìĿ ĺ
ãĤ ĵ
áĥĲáĥ ķ
ĠâĢ ĭ
ÐµÐ ²
á» į
Ġ qu
aci Ã³n
ì ĭ
Î½ Î¿
Ø± ÙĬ
Ð ł
ÑĨ Ñĸ
áĥĲáĥ ¡
Ġha ve
à¤ Ĺ
à¹ Į
áĢĶ áĢ¹áĢ
àµ ĩ
à± Ģ
Ã ±
è ¿
Ġàª ¤
Ġì ŀ
Ġc an
g o
à«įàª ¯
à®¿à® ¯
ent e
ìĿ Ħ
ÏĦ Î¹Îº
Ġp our
Ġd an
ĠáĢ ±áĢ
ê ¸
ļ áĥĺ
× ¡
à¸´ à¸
ich t
Ġà® ĩ
m ent
áº §
Ð¾Ð» ÑĮ
ãģ ı
à¤ ª
Ġw as
Ġáĥ ĺ
Ķ à¸
is t
Ġs u
Ġ us
Ġl as
× Ĵ
ĠÐ µ
à´¿à´ ²
Ġ O
i v
à¹ ĥ
´ ë
ĠÎ½ Î±
Ã¡ n
ĠÐ¿ Ð¾
Ġb ir
Ġth is
áĢ² áĢ·
à° ķ
Ġfr om
Ġ 0
Ġ× ŀ
ĠØ¹ ÙĦÙī
ĠÎ ķ
Ġà° ª
o p
ãĥ «
ĠÐ Ŀ
ÐµÐ ³
n e
Ġp ar
ĠÐ ł
àµįà´ Ł
Ð¸ ÑĢ
áĤ Ķ
äº º
d e
Ġàª Ĩ
d a
ĠÐ ľ
ĠÎ ł
Ġes t
Ġs h
Ġ2 0
à¯ Ĩ
Ġ "
ÐµÐ½ Ð¸Ñı
y ch
Ð¸ÑĤ Ðµ
àª¿ àª
Ġj a
Î Ł
Ø§Ø ³
Î ¾
åı ĳ
Ã¡ l
Ù ¹
Î Ļ
i er
Ġ ÛĮ
Î¼ Îµ
Ð°ÑĤ Ð°
Ð¸ Ñħ
Ġà¦ ¦
us t
l Ä±
æ ī
e it
u x
Ġàª ħ
Ġáĥ ¨
à«įàª °
Ĺ à¸
áĢ ¾
Ġà¤ ħ
w w
Ġ x
ĠÎ Ń
ÙĦ ÛĮ
Ð¸ÑĤ ÑĮ
áĢĢ áĢº
Ã¤ Ã¤
Ð¸ Ð·
è ®
áĢ± áĢ¬
Ġd u
Ġà¤ ¦
ĠÐ ŀ
àª¨ à«ĩ
Ġb y
à´ ®
Ð¾Ð ·
å °
Ð°Ð» ÑĮ
Ġm en
al e
Ù Ģ
i áº¿
¨ à¯įà®¤
Ã¡ c
ĠØ± Ø§
Ġl Ãł
ĠÐ² Ñĭ
ĠÐ· Ð°
áĥĲáĥ ł
à´ ³
Ġw ill
Ġw ww
Ġa g
ì ¶ľìŀ¥
Ø§Ø ¦
ÏĢ ÏĮ
ļ à¸
Ðº Ð°
Ġ à§
Ã º
r a
Î» Î¿
ì Ĭ
Ġàª µ
Ġa tt
åĪ Ĩ
Ġà¤ µ
Ġà´ µ
ï¿½ ï¿½
Ã¼ n
or t
d en
áĥ ®
d er
Ġà¤ ²
áĥĿáĥ Ľ
å½ ©
ÛĮ Ø±
Ġo p
Ġàª Ľ
Ð°Ð ±
ä ¼
ÏĦ Î¹
íķ ľ
Ġn ot
Ġì ł
Ð½Ñĭ Ðµ
Ġà® ¨
ãģ į
ç »
ĠÙĦ ÙĦ
à§įà¦ ¤
Ġáĥĵ áĥĲ
ĠÛ Ķ
ÛĮ Ùħ
c j
Ġw y
æ ¸
Ġf Ã¶r
×Ļ× ª
à¥įà¤ ¯
ĠÎº Î±
Ġ à¹Ģà¸
àµģà´ Ĥ
Ø§Ø ¹
è ½
Å ¥
áĢ ĸ
Æ°á» Ŀ
Ø º
ĠÏĦÎ· ÏĤ
ãĤ ¯
n ie
é Ĺ
Ġn Ã«
Ġà¤® à¥ĩà¤Ĥ
Ö Ģ
à± Ĩ
om e
Ø§Ø ´
Ðº Ð¸
ãĥ ©
Ã© g
° à¸
k a
ì ļ
Ġ /
i es
Ġd as
Ġ er
Ġà° ķ
Ġt il
m e
Ġ Ã§
Ġth á»
ª à¯įà®ª
Ġ Ã©s
Ġà¤ °
ĠÙħ ÛĮÚº
Ê »
ë ı
ë¡ ľ
Ð½Ñĭ Ñħ
igh t
å ·
Îµ Î¯
ÃŃ a
ê³ ł
s e
ĠØ ²
Ľ i
Ġun a
p e
Ġà¦ķ à¦°
ä¸ Ģ
à±įà° °
à¥ Ĥ
ÙĬ Ø¯
Ġt á»
ĠáĢ Ģ
à´ ¨
che n
å ¸
Îµ ÏĤ
è ¯
Ġà´ ¸
Ð¾Ð ¿
Ġà¦ ¤
Ð°Ð ¹
ÐµÐ ·
à® £
ĠÃ ¨
d z
ĠØ§ÙĦØ ³
ãģ ĵ
à¹ Ĥ
à°¾à° °
à¤ ¦
ĠÎ £
æ Ŀ
Ġun e
à® ®
Ġáĥ¡ áĥĲáĥ
ĠÐ´ Ð°
ãģ¾ ãģĻ
Ġp ÅĻ
Å £
Ġw or
à¦ ¦
áº¥ t
ĠáĢ Ļ
Î¿ Ïį
×ķ× ľ
Ġm it
Ð½Ñĭ Ð¹
ãĥ ª
l i
ĠÎ ļ
à® ±
Æ°á» £
a is
Ġg e
ĠØ£ ÙĨ
à¯įà® ±
à´¤ àµįà´¤
à´ µ
Ĺ à¸µ
ÑĢ Ð°
áĥĺáĥ Ĺ
ent ru
ê° Ģ
ĠÏĦÎ· Î½
Ġà° µ
Ġz u
a Ã§Ã£o
Ġà® İ
áº¡ i
Ð¸ Ñģ
Î £
à±ĩ à°
u i
a ar
ê ²
è µ
Ġà´ ®
al l
Ð½ Ð¾Ð¹
ãģĹ ãģ¦
àµįà´ °
Ġv on
à¯ ĭ
å ¼
à´ ²
Î ¶
Ġ×© ×ľ
ĠÐ Ĳ
Ā Ā
ĠáĢ ŀ
Ã© n
ë ¦
àª¾àª ¨
ãģ ķ
à«ģ àªĤ
z a
Ġáĥ Ļ
u y
ĠÐ Ķ
Ġa f
Ġa d
áĥĿáĥ ĳ
× ¦
Ã© r
Ġy a
s ch
Ïİ Î½
Ġ Ñı
à¤¾à¤ ¨
e g
k i
Ġg i
Ġb er
Ġn ie
Î± Î½
à¤ µ
b en
Ġp l
æ Ĭ
Ġn o
Ġàª ¹
Ġ× ł
u p
Ġ ÑĦ
o k
Ġà´ ¨
Ġd en
Ġàª ¨
Ġà¦ ħ
ar d
u re
ĠÎ ¤
æ¸ ¸
Ä± m
Ġv oor
u ch
Ø± ÙĪ
áĢĬ áĢ¹áĢ
ì ĥ
Ġl o
Ġ 3
ãģ£ ãģ¦
áĢħ áĢ¹áĢ
Ġa ll
Ġm em
áĥĲáĥ ļ
à«Ģ àª
Ġo l
ou ld
Ġê °
Ġc á»§
áĥ Ĺ
a i
ou t
Î¯ Î½
Ùĩ Ø§ÛĮ
Ġà´ ħ
à§ĩà¦ ¨
al ly
ĠI n
y m
i en
Ġcá»§ a
Ġc Ã³
Ī ëĭ¤
ãģ Ĥ
Ð½Ð¾ ÑģÑĤ
¸ à¸
à¦ ª
à¦ Ł
Ġp Ã«r
ë ¥
os t
s a
ĠÐ¸ Ð·
ĠÄ Ĳ
ĠàªĽ à«ĩ
Ġ Ø§ÙĨ
ij k
Ġáĥ Ĺ
Ð° ÐµÑĤ
ÑĤ ÑĮ
Õ ¸
a in
Ġà° ®
ãģ§ ãģĻ
ìĿ ¼
Ġà° ħ
Ġ× Ĺ
à´ £
Ġs ur
à¥ĭ à¤Ĥ
ì ľ
Î ķ
Ġ U
ÐµÐ½ ÑĤ
Ð½ Ð¾Ð³Ð¾
à¯įà®ķ à®³
on g
ĠT h
Ġà¦ ľ
i ci
l ÉĻr
å® ĺ
å Ń
Ġë °
ÐµÐ½ Ð¸Ðµ
Ù ĳ
ĠØ§ÙĦØ Ń
å ¿
ĠÎ ľ
id ad
ê¸ °
ÙĬ ÙĦ
ar i
u d
Ġ ÏĮ
áĥĶáĥ ¡
g h
áĥ łáĥ
Ùģ Øª
ãģ ł
ĠÎ³ Î¹Î±
Ġì ķ
Ġs iÄĻ
áĢ¬ áĢ¸
ĠÐ´ Ð»Ñı
Ġc u
n o
Ù ĭ
áº ¹
Ġà¤ķ à¥Ģ
áĥĺáĥ ľ
×Ļ× ¨
Ġà¤ Ĩ
ìĦ ľ
¨ áĥĺ
Ġàª ¬
Ġà° ¸
ad a
in e
n a
ÙĪ Ùħ
ģ à¸²
i f
Ġ Y
Ð°Ð ¶
. .
ì Ľ
à´¿à´ ¯
Ñĥ Ð´
àªĤ àª
a b
Ġis t
Į Ģ
æĺ ¯
id e
Î» Î»
İ ¯
é Ģ
å Ĩ
Ġs o
æ ³
ĠÎ± ÏĢÏĮ
Ġ ÚĨ
à¸µ à¸
Ī à¸
Ñİ ÑĤ
àª ²
Ġàª °
Ġáĥ Ķ
ç «
Ġf Ã¼r
à®¤ à¯įà®¤
Ġj e
ãģĹ ãģŁ
Ġå ¤
Ġcom p
k e
à®¿à® °
ê µ
ĠÙĩ Ùħ
Øª Ø±
ì ĸ
Ġd Ã©
Ġ Z
ĠÛģ ÛĴ
é ĩ
ÑĮ Ðº
Ġ Ïĩ
ĠØ± ÙĪ
Ġa uf
Ġ !
Ġp o
ĠÎ ·
ë Ĥ
ĠÎ ¸
å¤ §
æĹ ¶
ĠÐ ¢
áĥĶáĥ ł
ic e
å º
à® ®à¯į
Ġãĥ »
Ġa b
à®¿à®² à¯į
Ġ u
Ĳ áĢ¬
Ð» Ð°ÑĢ
Ø¯ Ùĩ
ÑĨ Ð¸
Ð¾ Ñĩ
Ã Ł
ì Ĥ¬
Ġa v
Ġp Ã¥
ç Ľ
Ø§ Ùģ
áĢĢ áĢŃáĢ¯
n ya
ä¸ ĭ
à¤ ¯
àª £
ĠÐ ¶
f f
Ġ J
à´ ¨àµįà´¨
ÙĪ Úº
ÏĦ Î¬
à® ķ
ĠÄ °
ì ²
á» ĭ
Ġv er
àª ¹
Ġt e
Ã¡ t
Ïģ Î¬
Ġs i
ãģ ĳ
İ¯ äºļ
ĠÂ »
áĤ ı
à®¤ à¯ģ
áĥĶáĥĳ áĥĺáĥ¡
Ø ¸
à¯ Ĭ
à´ ±
× Ł
Ù Ĳ
ĠáĢ ľ
Ã¬ nh
à¤¿à¤ ¯
on t
à¹ĥ à¸
ĠÑģ Ðµ
à¦¿à¦ ķ
ur i
à´ ¸
ct ion
áº ¯
à®¿à® ©
Ð¸ Ð´
an o
Ð½ Ð¸
ë ĵ
à®¾à® °
on es
Ø§Ø± ÛĮ
åľ ¨
« à¸
×ķ× ĵ
ãĥ³ ãĥ
Ùĩ Ùħ
Ø ¦
ĠÏĥ Ïħ
à¤° à¥įà¤
Ġw he
j Äħ
ĠØ§ ÙĪØ±
Ġh as
ÃŃ t
h o
ìĿ Ģ
Ã¤ n
Ġm eg
£ ¼
ÉĻ t
à° Ĥ
Ġ Ã¤r
ĠØ¨ Ø§ÙĦ
à¥ĩ à¤
ãĤ ¢
ĠÏĢ Î¿Ïħ
Ñĥ ÑĤ
àµįà´ ¯
Õ ¥
Ġw a
ou gh
ic a
Ġs om
ĠÙĩ Ø§ÛĮ
Ġáĥ ŀ
Ä± ÅŁ
åĽ ½
Ð° ÑģÑĤ
á» ¯
å İ
àµįà´ ª
Î¹ Ïĥ
e ar
on o
Ġ× ª
i ÅŁ
ĠáĢ Ĳ
Ġd he
à¸£à¸ µ
Ã© e
Ġ Ã¥
Ã¢ n
ĠÐ ĺ
Ðµ ÑģÑĤ
Ġt er
áĥĲáĥ ª
ÎŃ ÏĤ
Ġdan s
Ġ20 1
Ġà¤ķ à¥ĭ
Ðµ ÑģÐº
ãĥ³ ãĤ
k y
áĢ® áĢ¸áĢ
Ġ q
×ķ× Ł
Ð¸ ÑģÑĤ
ìĬ ¤
Ä °
Ù ı
ĠÑĩ ÑĤÐ¾
Ïģ Î¯
em ent
à¦¾à¦ ²
å® ¶
à¯Īà® ¯
t uk
Ġ up
ĠÚ© Ø±
Ġê ²
Ġ im
n ÄĽ
as i
Ñĥ Ñİ
Ä± k
à´ ª
×ķ× ĳ
Ġì Ĺ
ÉĻ s
Ñĥ Ð²
å ±
Ġ× ¨
Å «
c c
ĠÐ¿ Ð¾Ð´
ë§ Ī
ak e
t her
ĠÎ Ķ
Ñĸ Ð»
ãĤ Ī
Õ ¶
Ġd in
ŀ à¸
Ø§ ÙĤ
å Į
Ġb ut
Ġm e
iá» ģ
äº Ĩ
à¹Ĥ à¸
Ġa u
×Ļ× ł
Ñĥ ÑĢ
à¯ģà® ķà¯įà®ķ
Ġà¤ ¤
ĠØ µ
h t
Ä± l
ìĿ ¸
Ñĺ Ð°
×ķ× ł
l ich
à¤¨ à¥ĩ
è §
á» ±
Ġï¼ ļ
Ġo ut
ÏĦ Î±Î¹
Ã ²
ĠS ch
ä¹ Ĳ
ÑĬ ÑĢ
Ġm et
Ġàª ı
à® ¯
ĠØ³ ÛĴ
àµ Ģ
Ĳ áĢ¼
Ð°Ð ¿
ķ à¸
Ġà¦ª à§įà¦°
Ŀ ¼
è ¡
Ġa ng
ĠÑĢ Ð°Ð·
Ġ ?
Ġà¤¸ à¥ĩ
ãĥ¼ ãĤ
ij n
eng an
Ø§Ø Ń
àµįà´ ļ
Ġde lla
à´ ķàµįà´ķ
à±įà° ¨
àµģà´ ¨àµįà´¨
ĠÂ «
Î¹ Î¿
Ġo ur
é Ļ
Ðµ Ñĩ
Ġg o
áĢĲ áĢ¹áĢ
áĥĺáĥ ļ
Ø± Ø§ÙĨ
¾ áĢĢ
n ing
ÎŁ Î
à´ ķ
Ī ĺ
ĠØ§ÙĦØ ¬
Å¼ e
à¯ģà® ¤
×Ļ× Ķ
áĢ¯ áĢŃ
à¦¿à¦ ¨
ĠÐ² Ð¾
áĥĶáĥĳ áĥĲ
Ġ× ¤
ĠØ§ÙĦ ÙĤ
à° ®
Ļ àµįà´
Ġì ĺ
Ġ Ã¶
Ð¾Ð² Ð°Ð½
Ùħ Ø§
al es
Øª ÛĮ
Ä± z
Ġm ed
à´¾à´ ¯
Ġp as
Ġå¤ §
ĠØ§ÙĦØ ¨
Ġk e
Ġà´ ¤
Ġà¤ Ĺ
ãĥ ¬
Ñĥ Ñĩ
d ÉĻ
Ð½ Ð¸Ðº
Ġde t
áĢ Ĩ
å ¥
ë¦ ¬
Ġe gy
ĠÏĢ ÏģÎ¿
ĠÐ ĳ
àª ª
it e
à¦ Ĺ
Ġà¦ °
ÅĽ ci
Îµ Î½
he n
ç º
ÑĨ ÑĮ
ÐµÐ½ Ð½Ñı
ĠÎµ ÏĢ
a z
Æ°á»£ c
Ø± Ø¨
at a
Ġ ÒĽ
Ġ×Ĳ ×ª
Ð½ Ð°
s o
i ent
in d
ĠÑģ Ð²
Ġà° ļ
at ed
ëı Ħ
Ġ 5
ĠÚ© ÙĪ
Ġà¤ķ à¤°
à¦¾à¦ ®
àª ¸
Ïģ ÏĮ
ĠS t
Ð°Ð ³
Ġm eng
à° ¤
a ck
Î® ÏĤ
g a
ì ĺ
ĠÐ± Ñĭ
ĠÙħ Ø¹
Å Ħ
Ġthe ir
å¹ ³
è ´
à¤ ¬
on e
Ġ 4
Ġm ore
ë ħ
an do
Ġë §
Õ «
ĠÏĥ ÏĦÎ¿
æĹ ¥
oun d
Ð½ Ð°Ñı
ÙĨ Ø§
Î Ĺ
al i
Ġt ill
å ¾
ä¸ Ń
Ã« n
ĠÐ¿ÑĢ Ð¾
× ĸ
z t
á» ©
en ÃŃ
ÙĪ Ø§ÙĨ
æľ ī
æľ º
ĠD e
ĠS e
áĢķ áĢ«
Ġà¤ ī
er e
im e
Î¿Ïħ Î½
á» ¥
Ġ Ñħ
ÐµÐ ±
Ġ Ø§Ùħ
ãģ Ĭ
ç ¥
à°¾à° ²
Ġà¦ ¶
g e
å ĩ
Ġàªķ àª°
Ø³ ÛĮ
ê ±
Ïģ Î³
Ġà¤ Ń
áĥ Ĵ
áĥĶáĥ Ľ
ÙĪ ÛĮ
à¦° à§įà¦
àª® àª¾àªĤ
Ãµ es
Î¼ Î¿
Ġun tuk
áĢĶ áĢº
ĠÐ² Ñģ
ÙĦ Ùĥ
ent o
Ïĥ ÎµÎ¹
áĢĦ áĢ¹
ĠáĢ ķ
ĠØ§ÙĦØ ´
Ġp entru
ĠÐ² ÑĸÐ´
ĠØ§ÙĦ ÙĨ
Ġa r
ĠÐ¿ ÐµÑĢ
Ġà° ¨
Ġh o
j Ã«
Ġáĥ ¬
ĠE n
ìĭ ľ
Ġd engan
Ġthe y
ÅĤ a
ç İ
à ¶
f or
ĠØ¢ ÙĨ
à®Ł à¯įà®Ł
à®¾à® ©
á» ĩ
t s
à°¿à° Ĥà°
åı °
ow an
áģ ¾áĢĢ
Ð ¡
ä ¿
Ġ ÈĻ
è ¨
p l
b b
Ġi Ã§
Ġc Ã¡c
g en
×Ļ× ľ
Ø§Ø ¬
áĢķ áĢ¹áĢ
p er
Ġc are
Ġì ĭ
à±įà° ¯
áĢļ áĢ¹áĢ
à® Ļ
ul ui
è½ ½
áĥĿáĥ ¡
is h
á»Ļ t
Ġum a
Ġre s
à¤ ľ
Îĳ Î
Ġn on
a j
ĠÏĦ Î±
áĥĶáĥĳ áĥĺ
ic o
áĢļ áĢ¹
Ġon e
ãģª ãģĦ
Ġáģ Ĭ
Ġà¤ ĩ
Ġå¤§ åıĳ
ÑĢ Ð°Ð½
b re
Ä ¾
Ð¸Ñĩ ÐµÑģÐº
ĠØ¨Ø± Ø§ÛĮ
Ùĩ âĢĮ
Ñģ ÑĮÐº
r i
Ð°Ð½ Ð½Ñı
Ġin i
ĠÐŁ ÑĢ
in h
Ġm y
ow e
Ġo d
Ġ× §
ĠÎ ²
à¤ ¡
à¦¾ à§Ł
ĠØ§ÙĦØ ¥
Ġkh Ã´ng
± Û
Ġà¦ ¯
ãģ£ ãģŁ
Ġáĥ £áĥ
ci Ã³n
áĥĿáĥ ľ
ĠÐ¾ Ð´
Ġch o
ag e
ak an
ìķ Ī
Ãł y
ë °
Ġqu i
áĢĬ áĢº
Ġp e
à¦ ¼
it Ãł
àª¨ àª¾
i h
à´¿à´ ķàµįà´ķ
ç ľ
ĠØ§ÙĦ Ø¯
áĢ ³
Ð½Ñĭ Ð¼
n en
ĠáĢ Ľ
Ġì Ħ
í Ĭ
Å Ĩ
Ã¼ l
Ã© k
ĠÚ© Ø§
ļ àµįà´ļ
Ġe ta
at i
à® ¨à¯įà®¤
ĠÏĥ ÏĦÎ·
àª¨ à«Ģ
Ġ Ò³
à¦¿à¦ ¤
ä¸ĭ è½½
Î» Î·
0 0
a ch
á» Ł
ë¥ ¼
ci a
è ¦
à¦¿ à§Ł
ì ¹
ĠE l
ÙĬ Ùħ
Ġ ÏĨ
à¤ Ł
à° µ
íķ ´
Ġwor k
Ðµ ÑģÑĤÐ²
ĠÐ ĵ
Ð¿ ÑĢ
à¹Ī à¸²à¸
Ġg r
Ġê ³
t Ã¤
à¦ ¹
Ġn icht
d u
Ã ¹
ä¸ į
ĠÚ© Ûģ
à¸Ńà¸ ĩà¸
áº ·
Ð ŀ
ï¼ Į
ĠÐ¿ Ð¾Ð»
ĠÑĤ Ð°Ðº
ĠÄĳ Æ°á»£c
Ġo s
ĠW e
áĥ£áĥ ł
Ù Ĵ
àª¾àª ®
a u
ÐµÐ ¿
Î± ÏĤ
id o
áĢ ĳ
Ġs ch
à ·
ĠÏĢ Î±
à¦¾à¦ ķ
ÑĥÐ² Ð°
Ġà´ İ
Ñĭ Ðµ
ĠÎ Ł
ol o
Ġk u
Ùħ Ø§ÙĨ
Ġm an
» áĢķ
à° ¸
u j
éĹ ¨
ar t
ik e
à« Ĥ
e ct
å¿ «
Ñĸ Ð½
Ġ× Ĵ
Ã¸ r
ion s
Ġ×ľ ×Ķ
æ °
ë ³
Î¼ ÎŃ
ĠÚ© ÙĨ
b e
ç Ļ
Ġ ro
ÑĨ Ð¸Ð¸
Ñĸ ÑĤ
Ö Ĥ
Ġf e
à´ Ļàµįà´
à¹ ĩ
an ce
Ġ Ñŀ
Ġc e
ĠÄ į
i Ãªn
Ñ ļ
à° Ł
Î½ Î·
å Ŀ
á ŀ
ĠÏĥ Îµ
Ġa pp
Ġab out
an s
Ø¨ ÙĬ
Î¿ Î»
Ġwh ich
è Ĥ
Ð¾ÑĤ Ð¾ÑĢ
6 5
m en
à° ¦
ĠÐº Ð°Ðº
Ġ Ïħ
Ġà¤ Ķ
à¤¿à¤ ķ
ĠØ¹ ÙĨ
Ð°ÑĤ Ð¸
Æ° Æ¡
Ġ Ñī
ĠÎ »
ĠI t
Ġc l
Ġin c
Ùħ ÙĦ
ÙĨ Ú¯
ÙĢ ÙĢ
ĠÈĻ i
c y
ie l
à®¾à® ķ
Ġà¦ Ĺ
Ġof f
ë ¶
é ĸ
ĠØ§ÙĦ ÙĦ
áº§ n
Ġw ir
æĸ ¹
áĥ §
Å¾ e
áĥĺáĥ ĵ
a an
ãģĻ ãĤĭ
ig n
Ġàª ¦
Ġà¤Ķ à¤°
Æ°á» Ľ
Å ±
a ce
Ø¨ Ø±
à®¿à® ±
Ġ× ĵ
ĠÎ± Î½
ĠSe x
ĠÐ¸ Ð½
ãģ ©
it Ã©
àµ Ĥ
ÐµÑĤ Ð¾
l ic
ì £¼
Ä±n da
Ġ×Ķ× ŀ×
re at
ĠÑį ÑĤ
å®ĺ ç½ĳ
ĠØ§ÙĦ Ùģ
Ð°Ð¼ Ð¸
Ľ à§ĩ
ĠE s
ĠÑı Ðº
Ïī ÏĤ
à¯ Ģ
í Ļ
à¸Ńà¸ ĩ
à®° à¯į
Ġáĥ ķ
Ġm ai
Ġcom o
Ġa us
ie m
Ġà¤ ¯
Ñĭ Ð²
b an
æī ĭ
à° ª
Ä« b
à±įà° ²
è Ģ
Ø¹ Ø¯
à±įà° ¤
ĠÃ®n t
ÐµÐ ¶
ãģ Ī
Ã¡ g
s i
Ġ×ľ ×Ĳ
ÏĦ Î®
Ġk Ã¶
íĬ ¸
à° ¡
Ġa ve
àª° à«įàª
Ġà° ¤
ĥ ½
à¤¾à¤ ²
Ġáĥ ĳ
ãĤ ģ
ĠÙħ ÙĪ
àµįà´ ±
Ġv ÉĻ
ãģĭ ãĤī
ë ł
as Ä±
r y
áĢ® áĢ¸
å ¯
Ġtr ong
a w
Î¬ Î½
d i
à¯įà® ļ
Æ°á»Ŀ i
à§ģ à¦
ĠØ ·
ĠÛ ±Û
Ð´ Ð°
ç Ĳ
iá»ĩ n
Ð³ Ð°
æ Ģ
æ µ
Ñħ Ð¾Ð´
Ġt ime
ÛĮ Øª
ĠáĥĲáĥ ł
áĢĻ áĢº
ĠL a
Øª Ùħ
am e
Ġv ous
ĠÑģ Ð»
ä¸ Ĭ
er v
áĥĶáĥ ķ
Ïģ Îµ
Ġho gy
Ø± Ø©
Ġàª ²
Ġs p
as e
ÙĬ Ø§
æ ķ
à® ªà¯įà®ª
à¦¾à¦ ¦
ler i
Ġp u
Ġì §
Ġs Äĥ
a ble
lar Ä±
ĠáĢ ħ
áĢ½ áĢ¬
Ġà¦ ļ
Ġm Ã¡s
Ø° Ø§
ĠÚ© Ø±Ø¯
ation s
ad os
s en
ÏĦ ÏĮ
ãĤ Ħ
Ġà®İ à®©
Ġà¤ ı
à® ļ
ĠØ¥ ÙĦÙī
Ġp re
ĠÏĦ ÏīÎ½
á» ĵ
ĠØ¯ Ø§ÙĨ
à§įà¦ Ł
Ġm ga
ĠS ie
à¥ģ à¤
×Ļ× Ł
in i
Ġal so
áº¡ n
Ġm á»Ļt
Ñĭ Ð¹
à´° àµįâĢį
Ñı ÑĤ
an n
Ñĥ Ð¿
Ïĥ Îµ
à¯ģà® ķ
ÉĻ k
Ġà® ī
ĠìĿ ´
ĠTh is
ur s
ĠÐ¿ÑĢ ÐµÐ´
ow n
il le
Ġ ÅŁ
å¹ ´
ĠÑģ ÑĬ
Ġp i
os e
Ġvá» Ľi
Ġ× ¡
áĥĶáĥ Ĺ
as t
Ġn u
Î¯Î½ Î±Î¹
Ġpl us
ãĥ ķ
ĠâĢ ĺ
Ġà¤ķ à¤¾
ÅĤ o
à´¾à´ £
æ Ń
×ĳ ×¨
Î» Îµ
å¹³ åı°
é ģ
Ġo u
ent i
×ł ×Ļ
Ã¼ z
æ Ķ
áĥĺ áĥĲ
Ġa an
Ġv y
Ġ×¢ ×ľ
ÎĻ Î
Ġy ear
l ig
áĥĲáĥ ®
Î» Î±
Ġy ap
Ð Ĳ
ĠØ§ÙĦØ ®
Ġs ich
æ ł
Ġï¼ ī
áĤ ķ
Ñĸ Ð¹
à¯ Ĥ
ÙĪ Ø²
Ð¸ÑĤ ÐµÐ»ÑĮ
Ġà¤ª à¤°
Ġan y
ÐµÐº ÑĤ
Ú Ī
ãģĵ ãģ¨
ãĥ Ń
Äģ s
Ġd at
ĠÛĮ Ú©
Ġàª ¶
Ġn Ã£o
ÉĻ l
à°¿à° ¨
n Ã©
à°¾à° ¨
iá» ĥ
Ġo ther
ai re
Ġ ÑĨ
ow a
Ñĥ Ð±
ung en
äºļ æ¸¸
¯ à¦¼
l o
à¤ ļ
es i
ĠÛģ ÙĪ
Ġ à¨
Ġà¦¬ à¦¿à¦
a it
Ġa m
c ie
Ùħ ÙĨ
× ļ
ĠÙħÛĮ âĢĮ
Ø± Ùĥ
ÙĬ Ø³
Ġë Ĥ
Ġein e
Ð¸Ð½ Ð³
Ĺà¸µ à¹Īà¸
ĠiÃ§ in
Ġave c
ÈĽ i
iá»ģ u
å¼ Ģ
ĠÐº Ð¾ÑĤÐ¾ÑĢ
Õ¸ ÖĤ
Ð¸ ÑĪ
ÙĦ Ùħ
Î¿ Î½
idad e
áĥ£áĥ ļ
âĢ ĭ
Ð² Ð°
ÛĮ Ø´
Ġ× ĸ
à¦¾à¦ ¤
ëĭ Īëĭ¤
Ġà¤ª à¥įà¤°
for m
Ġs c
or i
Ð½Ð¾ Ðµ
Ġà¤ ļ
ĠÑĤ Ð°
à¥įà¤ ¤
a zione
ĠØ¨ Ø§Ø²
áº£ i
a ct
ìŀ Ĳ
à§įà¦ ¬
ĠØ§ÙĦ Ùĥ
Ġa uch
ĠD ie
Ġáĥł áĥĿáĥĽ
Ġï¼ Ī
Îº Îµ
à¹Į à¸
à° ¯
s k
8 8
l a
Ġwh o
aci Ã³
à´ ¨àµįà´
ĠÐ £
Æ°á»Ŀ ng
Ġd ari
à°¿à° ķ
c zy
ve l
al am
Ġe v
Æ°Æ¡ ng
u h
æ ŀ
Äĥ r
áĥĲáĥ Ĺ
à¹ ĩà¸
¾ ³
Ġo m
Ġg et
à®¿à® Ł
ãĢ ĳãĢĲ
ĠA n
ĠãĢ į
i p
ä½ ĵ
Ø ¥
çī Į
ãģ ¤
áĥĲáĥ ¢
à´¿à´ °
à¸£ à¸²à¸
ĠÐº Ð¾Ð¼
Ġàª Ĺ
ìľ ¼
×ķ× Ŀ
ĠC h
ãģ ¡
ĠV er
à¦¿ à¦°
à´¿à´ ¨
Ðµ Ðµ
a a
d an
Ä±n Ä±
ç ¾
à¦ ľ
Ðº Ð¾
ãĤ ·
Ã¼ k
å Ĵ
ãĤ ¿
Ġë ĭ
ķ áĢ«
áĢĻ áĢ¹áĢ
ĠØ§ÙĦØ µ
ĠÏĢ Îµ
Ġl ike
Ãł ng
æ İ
Ø§Ø± Ø¯
Ã§ Ãµes
Ġng h
à«ģ àª
ic al
c o
×ķ× Ĳ
ìĽ Ĳ
áĥ£áĥ ļáĥĺ
ë Ŀ¼
ĠÎµ Î¯Î½Î±Î¹
zion i
à¦ ĩ
w i
áĥ ĳ
Ãł nh
ĠÙĨ ÛĴ
áº£ n
Ð» ÐµÐ½
a pp
Ł à¸£à¸µ
æ £
ar y
ģà¸² à¸£à¸
Å¡ ÃŃ
ÐµÐ³ Ð¾
Ã¡ v
Ġ à¹ģà¸
ĀĀ ĀĀ
t re
Ä ¼
Ġê ·
ay s
j e
æĸ °
áĢħ áĢº
à¦¾à¦ ¬
Ġn em
à®¾à® ²
u ly
Ġs ome
Ñĭ Ñħ
Ð°Ð± Ð¾ÑĤ
æ ²
ent s
áĢĶáĢ¹áĢ ¸
ç §
Ñ ĳ
æĿ ¥
à´¾à´ °
Ú¾ ÛĮ
Î ¡
à®© à¯į
à±įà° Ł
Ġj est
Ñģ Ð¿
Ã½ ch
re e
Ġd is
Ġà¤ ¶
ÙĤ Ø¯
it o
à¤ ¼
Ġì Ĥ¬
Å¡ an
ĠÚ© Ø§Ø±
ãĥ Ĺ
Ġa c
à´¾à´ ¨
Ð¾ ÑĹ
à¯įà® ²
×Ļ ×ķ×ª
¥ à«Ģ
Ġne w
Ġr Ã©
å ĳ
Ĥ °
´ à¸
Ľ à¸
g i
à¤ £
ãģ Ľ
Ú¯ Ø§Ùĩ
à± Ĥà°
Ġng Æ°á»Ŀi
ì Ĩ
ÙĦ Ø§
Ñĥ Ð»
Ø¹ Ø©
Õ¡Õ ¶
áĥĶáĥ łáĥ
¹ à¸
à´Ļàµįà´ Ļ
á»į n
áĥĲáĥłáĥ Ĺ
æīĭ æľº
Î¯Î± ÏĤ
Ø§ÙĨ ÛĮ
ãĤ £
± à¸Ļà¸
c a
Ð° Ñŀ
à±ģà° ²
Ġpr ze
ĠØ§ÙĦ Ø±
Ġáĥ ľ
Ġm o
Ġ ir
n y
ĠÐ² Ð°
áĢļ áĢº
Å¼ y
er o
à¦¾à¦ ¸
Ġz ijn
Ġde m
p t
é Ľ
ĠT r
ç« Ļ
an te
Ġå ħ
y s
Ġå ĩ
ĠÙħ ØŃ
áĥĶáĥ ĵ
áĢĢ áĢ¹
Ð³ Ð°Ð½
Ĭ à¸
Ã©s z
æ ĭ
ĸ áĥĶ
Ï Ī
å¤ ©
¾³ éĹ¨
in en
a il
Ð° Ñħ
ĠL e
Ġà¦ ī
à¦ Ĥ
ĠÅŁ i
áĥ ª
Ú ĺ
ĠØ® ÙĪØ¯
à¦¾à¦ ĩ
i le
it ion
á»¯ ng
Î¿Ïħ ÏĤ
áĥĿáĥ ķ
Ã³ l
Ãł n
Ã¡ ch
a gy
ÉĻ m
ic k
×Ļ× §
Ñĥ Ð¶
Ø§Ø¯ Ùĩ
i x
k u
Ð¾Ð¼ Ñĥ
ĠÎ ĵ
æĪ ı
· à¹Ī
ä¼ ļ
ĠÙ¾ Ø±
×Ļ× ĳ
ë ŀ
Ġë ª
à´¿à´² àµįâĢį
Ġà¦ ĵ
àª¾àª µ
ĠÑģ Ð¿
m er
ÅĻ ÃŃ
f t
Ġm ais
ĠÎ± Ïħ
g r
Ñĥ Ð¼
ÏĥÎ· ÏĤ
Ãł i
à® ´
al ah
ÙĤ Ø©
×Ļ× ©
Ġcon t
áº§ u
Ġj ak
Ġne ed
ì² ľ
ĠÙĨ Ùħ
Ġê ¸
ë ©
Ġì ¹
ĠâĢ ľ
ĠÐ¿ÑĢ Ð¸
n i
å Ł
ĠâĢ Ķ
ĠãĢ Į
ĠÐ Ĺ
à® ķà¯įà®ķ
Ġàªħ àª¨à«ĩ
ĠÐ¼ Ð¾Ð¶
à ©
Ġà° °
Î ¤
áĥ Ļ
à®¿à® ķ
à¯ģà® µ
Ġ ÑĪ
áĥ ¥
Ġam b
im uly
in de
Ġpr zy
Ġà¦ Ń
æ ¬
àµįà´ ²
i re
à¯įà®ķà®³ à¯į
åĴ Į
Ïģ Î·
k en
Ġp ag
ãĤ ı
/ /
Ġ: //
å ¨
ÐµÐ½ ÑĮ
áĥĺáĥ ł
Ġà´ ĩ
res s
é Ŀ
é ¢
Ġë ³
ion e
Ġh is
ay a
à¦ £
Ġthe m
æ¸¸ æĪı
Ã¨ s
Ġà® Ĩ
Ġc a
Ã©n y
a cj
Ġq Ã«
ing s
Ø ¤
ĠÎ ¬
ah r
³ à¸
à§ĩà¦ ķ
Ð¾ Ðµ
à± Ī
ãĤ ³
Äĵ j
Ïģ Ïī
Ùħ Ø©
ÙĦ Ø©
ë ¬
à§ ľ
Ġnh Æ°
ãģĦ ãĤĭ
Î Ŀ
Ġì Īĺ
áĥĿáĥ ĵ
Ġi f
å ł
Ø§Ø µ
æ³ ¨
Ġç İ¯äºļ
ie j
à¤¾à¤ ¤
Ð¾ÑĢ Ð¼
ãģ ¿
is ta
tt p
ĠÙģ Ø±
t Ã³
Ġb u
Ð½ Ð¸Ñħ
Æ°á»Ľ c
ar k
l an
Ġh ttp
Ġæ ¾³éĹ¨
à¸£à¸ ±à¸
ÑĸÐ» ÑĮ
Ã¦ r
Ġà´ ļ
à®£ à¯įà®Ł
Ġf o
am p
en d
Ã¥ r
à¤¿à¤ ²
Ú¯ Ø±
àµģà´ Ł
àª ¯
×Ļ× ĵ
Ġim p
Ġthe re
Ã¼ m
w o
w e
à¤¿à¤ ¤
à´¿à´ ļàµįà´ļ
Ġc s
ak o
Ġà¤¹ à¥ĭ
ÅĻ e
Ã¢ y
å ĵ
el ijk
Î¹ Î¬
ĠÏĦ Î¹
Ã¨ re
ĠÎ¸ Î±
Ðµ ÑĪ
Ġáĥ ®
Ġwhe n
à¸£à¸ °à¸
ì Ĥ°
áģ Ģ
Ġê µ
ĠÙĩ Ø§
ãĥĥ ãĥĪ
in o
u ar
ĠÏĦÎ¿ Î½
áģ ¿
à®¿à® ¤
Ã« t
Ð¸ ÑĨ
áĢĦáĢº áĢ¸áĢ
áºŃ n
Ø§ Ùĭ
ĠÐ Ľ
à¹ī à¸²à¸
Ġ×Ķ× Ĳ
áĥ ¨áĥĺ
Ġ ich
ĠB e
ØŃ Ø¯
Ġ ent
ig en
Ġes te
Ġk a
Ġh ar
ĠÄĳ á»Ļ
t y
ĠâĢ ĵ
Ġo ver
ÙĪ ÙĤ
Ġ Ø§Ø±
Äģ r
áĢ¯ áĢ¶
c s
à¹Ī à¸²
ĠÏĥÏĦÎ· Î½
áĢĦáĢ¹áĢ ·
imuly o
Ġbe en
ĠÙħ Ø§
Äģ j
il or
ÙĨ ÛĴ
Ġãģ Ŀ
c ÃŃ
at is
áĢĢ áĢ¼
Ñĥ Ñģ
ĠÃ®nt Ã¢
r os
ÑĤ Ð°
Ã´ i
àµģà´ ķ
Ġ ä»
Ðµ Ñħ
áĢŃáĢ¯ áĤĶ
àµ ½
á ł
í Ķ
ÙĬ Ùģ
ĠS p
Ñĥ Ð½
Øª Ùĩ
Ġde i
Ġin ter
Ġa p
Ġp od
Ġáĥ ¥
Ġel s
ĠÐº ÑĢ
qu es
c er
Ġì ¶ľìŀ¥
áĢĬ áĢ¹
Ã© t
ÛĮ Ø§
á» ķ
ĠÑģ Ð¾
ta in
ÛĮ Ø²
çº ¿
ìĸ ´
Ġde ll
k o
Ġwh at
à¹Ħà¸ Ķ
Ġn jÃ«
à¦¿à¦ ²
àµ ¼
Ġå ı
am a
à¤¤ à¤¾
áº¿ n
áĥĺáĥ ª
¹ Ħ
Ļ Ĥ
áĥķ áĥĶáĥļ
c es
ĠÐº Ð¾Ð½
å ĭ
ĠÎ Ĺ
à§ģ à¦²
ë§ Į
í ĸ
iáº¿ t
ÄŁ Ä±
å¸ Ĥ
Ñ ľ
áĥĿáĥ ļ
Ġk n
åħ ¬
an h
è¡ Į
ÑĤ ÐµÑĢ
Ġi z
Ñļ Ðµ
al ar
¯ ¸
×ķ× ¤
Ġà¤¹à¥Ī à¤Ĥ
Ġáĥ ¤
Ġk tÃ³
2 0
Ø§ÛĮ ÛĮ
ĠÐ´ Ð¾
in a
Ã¤Ã¤ n
Ã¼ ber
Ð½Ð¾ÑģÑĤ ÑĮ
Ùĥ ÙĨ
çĶ ¨
Ġng ud
Ġngud imulyo
Ġnh á»¯ng
ÙĪ Ø´
Ġo b
Ġìŀ Ī
Ð°Ð½ Ðµ
ÅĤ y
Ġà´ Ĩ
Ġc z
Ø§ÙĨ Ùĩ
à°Ĥà° ¦
or s
é ĺ
j on
æ ±
Ġë ĮĢ
Ġc n
ĠØª ÙĪ
il d
çĶ Ł
Ġdi es
ä½ ľ
in k
Ġì ĥ
Î± Ïĥ
ot t
à¥įà¤ Ł
Ġáĥ ©
à¹ī à¸²
áĢ±áĢ Ķ
Å ©
Ġth an
Ã¡ nÃŃ
ĠÙĪ Øª
á» Ń
on s
ĭ çīĮ
Ġu it
Ġn el
ä¸ ļ
ĠØ¢ Ùħ
áĢ¬ áĢĢáĢ¹áĢ
ĠÙĦ Ø§
r z
Î¸ Î·
Ġ ed
ç ´
Ġw ould
m a
ë ĮĢ
Ġd z
Ġs pe
Ø² Ø§Ø±
Ġ 7
åľ °
ĠÃ®ntÃ¢ l
ĠÙħ Ø¯
Ġv Ãµ
×ķ× ©
Å ŀ
à±į âĢĮ
Ñĸ Ð·
Ġ Å¼e
ë ª
ê± ¸
áºŃ t
à¤¿à¤ ı
×Ļ× Ĳ
Ã© p
Ġï¿½ ï¿½ï¿½
àª Ĺ
Ġb o
à¤¾à¤ Ĥ
à«įàª Ł
Ġd os
Ġ ut
ãĥĥ ãĤ¯
Ú© ÙĨ
Ġæ ľ
ĠÏĦÎ¿Ïħ ÏĤ
Ú¯ ÛĮ
áĥĿáĥ ł
à§ĩà¦ ²
Ġw er
ĠÎ´ Î¹Î±
áĢĬáĢ¹áĢ ¸
Ð½Ð¾ÑģÑĤ Ð¸
Ġi le
Ø¨ Ø©
Ġj s
ìł ķ
n ych
à§ĩà¦ ¶
Î¹Îº ÏĮ
Ġb ij
ê² Į
í ĺ
à¤¿à¤¯ à¤¾
à¤¿à¤ ¸
Ġa cc
it a
Ġs er
ìķĪ ë§Ī
Ġt i
Ġë ¶
ĠØ´ Ø¯
Ġà¤ĩ à¤¸
ver y
are a
à¤¹ à¥Ģ
Ġs k
ĠÑī Ð¾
ung s
Ðº Ñĸ
Ġê· ¸
Ø§Ø ®
at er
í Ĩ
ĠØ´ Ø¯Ùĩ
á» £
§ à§
Ġà¤¨ à¥ĩ
×¨ ×Ĳ
ÉĻ y
ê³ ¼
v en
Ø± Ú©
æ£ ĭçīĮ
à±ģà° ¨
te ll
à´Ł àµįà´Ł
Ġà° Ĩ
ĠÄĳ Ã£
ÑĬ Ð»
Ġw ere
è ²
ãĥ Ĩ
Ġf el
è ĩ
à± Ĭ
Ġk wa
Ġqu es
ik a
ÏģÎ¹ Ïĥ
un d
s Ã©g
Ġit s
áĢ¬ áĢĦáĢ¹áĢ¸
èĤ ²
b i
ìĹĲ ìĦľ
u er
ĠãĢ ĳ
ìĦ ±
ĠáĢ Ĩ
Ħ à¸£à¸
ç µ
ad e
ir a
ëĵ ¤
è ª
ÃŃ nh
Ð° ÑİÑĤ
×ķ× §
ä¸ ĩ
Äĥ ng
àµ Ĭ
Ġj ust
Ð ĺ
ĠU n
ãĤ «
ĠÐ¿ Ð»
à§ģ à¦°
áĢĲ áĢļáĢ¹
Ø§Ø ·
àª¾àª ¯
à¤¾à¤ ®
à§įà¦ ·
Î¸ Îµ
Ġ íķ
ĠY ou
k ke
Ġs ono
àª ¦
áĢ±áĢ Ľ
Ĺà¸µ à¹Ī
à¦ ¶
Ð¸Ð» ÑĮ
al s
áĢ¶ áĢ¯
Ä±n a
à´ª àµįà´ª
ìľ¼ ë¡ľ
Ġ 6
à¦¾à¦ ľ
ient o
ĠÄĳá» ĥ
áĥ ¬
ĠÛģ ÛĮÚº
áĢĲ áĢº
ä¸ ī
Ġg Ã¶
×ķ× ¢
ĠÎ Ŀ
ĠØ º
Î¿ ÏĤ
ä¸ º
ç¾ İ
Ð¾ÑĤ Ð¾
le t
ÑĢ ÐµÐ¼
ç½ĳ ç«Ļ
id ak
Ġåĩ ¯
m o
æ ´
è ¾
Ã¡ k
ìķ Ħ
ĠØ§ÙĦØª ÙĬ
åĿ Ģ
à®¿à®© à¯į
Û °
ÅĽ Äĩ
Ġo der
Ġà¦ª à¦°
es ch
Ġp el
áĢ· áĢº
Ġ Ò
Ġ ;
ľ à¸
Ð¾Ð² Ð°
ä¸ ª
ic as
ÙĬ Ø¹
Ġ ud
it at
ĠÐ ķ
Îº Î±
Ġb r
é Ĵ
Ġc o
Ġpro v
ĠØ¨ ÙĪØ¯
à®¿à® ķà¯įà®ķ
Ŀ i
Ø§Ø± Ùĩ
à¸Ń à¸Ļ
Ã¤ l
Ø§Ø ¶
áĥĶáĥĳ áĥ¡
ĠØ§ÙĦØ °
çī Ī
àª ¡
Ġnie t
Ġh ad
ide os
à¯įà® ³
åĩ º
à±ģà° Ĥà°
íĻ Ķ
ÏĥÎµÎ¹ ÏĤ
àª ľ
ĠP h
ĠâĢ Ŀ
Î¿ Î¹
c ak
as s
Õ¥ Õ
à«ĩàª ²
ur a
ĠÐ¿ Ð¾Ñģ
Ġpr z
Ġì ľ
Ġê° Ģ
l p
Ã¡ ll
s zy
Ð¶ Ðµ
ĠÐ ¤
åĪ °
r ij
u z
å· ¥
Ã¥ n
æĸ Ļ
j a
ĠØª Ø§
ĠáĥĲáĥ Ľ
ÙĬ Ø§Øª
ãĥ £
is s
Ġin to
å ī
ĠE r
ĠÎ± ÏĢÎ¿
à±ģà° ķ
Ð¾ Ñĺ
ĠáĢ ģ
Ġbe i
er i
æ ĥ
Ġth r
áĢķ áĢº
o ir
ì ½
ĠÐ¸ Ð»Ð¸
Ø¹ ÙĦ
Ġ äºļæ¸¸
Ġà¦ı à¦ķ
Ġpi Ã¹
ĠP or
Ġs erv
ÙĬ Øª
à®¾à® ¤
Ġk an
á ½
áº¿ t
ç İ¯äºļ
à¤¨ à¤¾
am os
ãĥ ¡
Ð´ Ð¸
áĢ ĺ
Ġthá» ĥ
à¤¾à¤ ¯
ĠÙħ Ø´
ãģ¾ ãģĹãģŁ
ĠØ£ ÙĪ
Î¹Îº Î®
Ġes ta
Äģ k
ãģ® ãģ§
Ġï¿½ ï¿½
ç Ĥ
z et
ÑĤÑĮ ÑģÑı
ÑĢ Ð¾
ĠáĢ Ķ
ë ²
Ġà°ª à±įà°°
ãĥ ŀ
± ä¹Ĳ
Ñĥ Ðº
éĽ Ĩ
æ ¥
ĠÑĢ Ð¾Ð·
ÑĢÐ° ÑĹ
à¤ §
é ¡
à¦¤ à§ĩ
k t
Ø¦ ÛĴ
áĥĿáĥ Ĵ
ĠÑį ÑĤÐ¾
åħ ¨
y or
Ġhe lp
á»ĳ i
Ã§ a
Ġf ir
Ġï¼ ģ
ìĥ µ
ÐµÑĤ ÑģÑı
à® ª
Ïģ Ïĩ
ãģ¨ ãģĦ
áĥĿáĥ łáĥ
Ġãģ ĵ
æĬ ķ
ĠÃ ĩ
ing en
ĠÐ¾ Ñģ
×ķ× Ĺ
Ĺ à°¾
ç Ħ
t ing
ÑĢ Ð¾Ð²
ĠÙĪ Ø£
in t
ĠáĢ Ĵ
áĥĺáĥ ¢
áĥĵ áĥĲ
æľ Ī
Ġ. ..
us e
ov er
ÖĢ Õ
ì Ļ
id a
ĠØ§ Ùģ
Ġà¦ ¥
Ñİ Ñī
m ak
Ġáĥĵ áĥĲáĥ
áĤ Ī
àµĩ à´
à¯įà® µ
Ø± Ùģ
ow i
Ġc Äĥ
or y
± à¸Ļ
op le
Ã¤ y
Ð Ŀ
Ġg j
ĠØ¨ Ø§Ø´
ad i
te m
Ġà¦ ²
ÏĢ Î±
à¯ģà® ®
áº ©
ģà¸² à¸£
on d
ĠÎ ®
Äģ m
à®² à¯į
Ġm ake
Ġàª Ń
Ġà®ļ à¯Ĩ
áĢ Ŀ
ĠáĥĴ áĥĲáĥĽ
áĢĲ áĢ¬
à°¿à°Ĥà° ļ
áĢĻáĢ¹áĢ ¸
Ð» Ñİ
ë¶ Ģ
ÐµÐ½ Ð¸
ĠN h
o c
áĥĺáĥ Ļ
Ġ Ã¼ber
ap at
Ú ĳ
Ðº Ñĥ
Ġt em
Ġus e
ãģĦ ãģ¾ãģĻ
à´¿à´ ķ
Ð°ÑĢ ÑĤ
ĠØ§ÙĦ ÙĪ
ÙĨ Øª
ĠP ro
à´³ àµįâĢį
e p
áĢ± áĢ¸áĢ
Ġad d
ĠÐ³ Ð¾Ð´
Ġm ay
Ġàªª à«įàª°
åĽ ¢
Ġng a
Æ¡ n
Ð°Ð½ Ð¸Ñı
ht Ã«
ang an
áĢŃáĢ¯ áĢ·
Ð ļ
Ġse b
×ķ× ¡
ļ à¸Ńà¸
Ġinc l
à¥įà¤¯ à¤¾
à¦ ļ
åľ¨ çº¿
at ie
Ġ 8
Ã¹ ng
à®¾à® Ł
am o
ci al
à¦ Ń
ìĥ ģ
ìł ľ
Ġs ind
ad or
Ð½ Ð¸Ð¹
Ð² ÐµÑĤ
åĵ ģ
ĠÑĢ Ð°Ñģ
i que
Ġ" :
ãĥ ¥
ĠI f
Õ¸ÖĤ Õ
ĠãĢ Ĳ
Ġà¤ «
Ġb is
ìł Ħ
å¨ ±ä¹Ĳ
Ġt ut
£ Â
àª¾àª ¤
ãĥ ī
áĢŃáĢ¯ áĢĦáĢ¹áĢ
æĪ ·
ëĤ ĺ
ĠÙĨ Ûģ
aci ones
ĠÑĤ ÑĢ
ãĢ Ĥ
Ġh at
à´¾à´£ àµį
an ya
Ð°ÑĤ ÐµÐ»ÑĮ
Ġ. .
æ ĻĤ
Ġs ul
à¯įà® ©
í ĥ
ä ¾
e a
ëħ ¸
r as
àª ³
Ġì¹ ´
ĠÑĤ Ð¾
Ġre c
è ģ
Ġ3 65
à¯ģà®¤ à¯įà®¤
en ce
w á»įn
Ġv Ã½
Ġth u
æ Ħ
Ġ Q
Ġd alam
äº ĭ
Ġhe r
Ð° ÑĶ
à¦¨ à§įà¦
er n
Ð°Ð» Ð¸
ÑĨ Ñĭ
ë į
Ġc Ã´ng
à¯ģà® Ł
ÙĦ ÙĪØ¯
Ġå ®
ãĤ µ
à¦ §
ÙĨ ÙĬ
í ı
Ġë ı
ul t
Ġm ost
Ġh ow
Ñģ Ð»
f ul
Ġt ak
ĠÐ¿ ÑĸÐ´
Ġin te
° à¹Ģà¸
ĠÐ¸ Ð¼
Ð ¢
ĠI l
Ġj ag
uj er
Ġ× ¦
em b
Ã± o
Ġa ut
ĠÐ §
à´ ¦
ĠÙĦ Ùħ
Ġb áº¡n
l es
Ġwer den
Ġ1 0
Ġáĥ Ŀ
Ġh v
Ġp en
Î¼ ÏĮ
ÏĢ Îµ
Ð ķ
Ã¡n y
Ġs á»ĳ
Ġà¦¸ à¦®
åĬ ł
ãĥ Ĳ
áĢĸ áĢħáĢ¹áĢ
Ġè ¿
Ġlo ok
ĠØ °
Ġpu ed
iá»ĩ t
am ente
Ġ×Ķ× ©
åŃ ¦
r ze
áº ½
á»Ļ i
Ø¯ Ø©
á ¹
Ġp os
Ġìķ Ħ
Ġà¤ı à¤ķ
Ġpro du
Ð¿ Ð»
is e
à®² à¯įà®²
ĠÎ´ ÎµÎ½
ĠØ¹ ÙĦÙĬ
Ġm er
Ġal s
×Ļ ×Ļ×Ŀ
¡ °
è¦ ģ
Ġê¸ °
ç Ń
Ġv a
Ð¸ÑĤ Ð¸
ÙĤ ÙĬ
Ġz a
Ġà¦¹ à§Ł
Ġàª¹ àª¤
Ġcom m
Ġà´ °
en n
il ir
ÄŁ i
æ Į
Ġà´ª àµįà´°
en za
Ð° Ñĩ
å¤ ļ
w er
iy e
ĠÎµ Î½
on n
Ġà¤ ¥
Ġpe ople
Ø± Ùħ
Ð°ÐµÑĤ ÑģÑı
¡ à¸²à¸
iy or
ÙĪØ± Ø¯
am i
à°¾à°° à±ģ
u ÅŁ
he t
ÑĨ Ð¸Ñı
i ro
ë Ł
ãĥ ģ
á» ī
áĢ½ áĢŃ
en ia
áĢ² áĤĶ
ĠÐ² Ð¾Ð·
Ð¸ Ð»Ð¸
ta a
ĠÑĢ Ð°Ð±Ð¾ÑĤ
Ã¡ z
×Ļ× ¢
ĠØ³ Ø§ÙĦ
Ġà¤ ĸ
ìĨ Į
ch t
Ġb aÅŁ
Ïĥ Î±
oun t
er a
áĢĲ áĢ²áĢ·
à¤¿à¤ ¨
ĠÑĸ Ð½
Ä± s
Ġìł Ħ
ç¥ ¨
Ġk ter
áĢ±áĢ ĲáĢ¬
ï ½
am ento
à°¨ à°¿
è§ Ĩ
Ġkn ow
ĠÎµ Îº
¡ Â
a v
m ek
ĠÐ¼ Ñĸ
w n
Ġt idak
Ġwe ll
an ia
Ġthr ough
ĠW h
b y
ë Ĳ
ãģĤ ãĤĭ
ÑĬ ÑĤ
ic z
iz z
te l
ĠG r
Ð½Ð¾ ÑĹ
Ġåĩ¯ åıĳ
in in
ĠÎ¿ Î¹
ĠÐ Ń
Ġ 9
ĠÎ Ĵ
ä» ¥
æľ ¬
y e
ic es
âĢĮ ÙĩØ§ÛĮ
Ġv or
Î´ Î¿
ĠP entru
ĠáĢ ĳ
ĠØ® ÙĪ
Ġn Ãły
Ð¾Ð»ÑĮ ÐºÐ¾
ÉĻ d
ov Ã©
an ie
àµģà´ ¤
Ġm á»
à´£ àµįà´Ł
à¦¾à¦ ¹
Ġna ch
Ġà®ĩ à®°
Ġon ly
à§ĩà¦ Ľà§ĩ
Ġa lla
ľ ê±¸
ĠØ´ Ùĩ
ĸ à¸
ĠÏĦÎ¹ ÏĤ
Ġdel le
Ã© m
ÛĮ Ú©
ĠC on
Ġàª ¥
Ġà¦ ĩ
áĢ±áĢ ĲáĢ¼
Ġa o
g an
Ġtá» «
ĠR e
áĥłáĥ Ĺ
is che
Ġi kke
áĥĺáĥ ķ
áĥĶáĥ ¢
ÑĤ Ð¾ÑĢ
Ã¡ i
Ïģ ÎŃ
i ed
Ïģ Ïİ
ç ł
Ġc ol
í ħ
àµĨ à´¯
Ð¸Ð½ Ð°
ĠØ¯ Ø³Øª
éĽĨ åĽ¢
Ġh á»į
Ġë ¬
à¹Ħà¸ ¡
Ġse x
ĠÏĥÏħ Î½
ĠØ§ÙĦØ ·
Ġ íķĺ
Ã¡ m
à§ ¦
à®Ļ à¯įà®ķ
àµģà´ ®
Ø§Ùħ Ùĩ
ìł ģ
Ø§Ø± Ø©
Ġæ Ī
ar en
êµ Ń
Î¼ Î¬
ĠØª Ø¹
éĻ ħ
Ùħ Ø±
ĠA r
Ġ ÅĽ
áĢŃ áĢ³
c ed
å Ģ
àª ¥à«Ģ
an a
êµ ¬
à¥įà¤ µ
Ġcom e
³ Û
Ġå į
à¤¾à¤ ¦
ĠÐº Ð¾
ä½ĵ èĤ²
à«įàª ¤
ĠE in
àµįâĢ Į
ĠÃ º
Ġu z
Ġà¦ «
çĲ Ĩ
Ġs Ã¥
ĠL es
Ġs ont
« ĺ
or d
áĢŃáĢ¯ áĢ¸áĢ
ÑĢ Ñĭ
Ð¸ Ð±
è ĥ½
Øª ÙĬ
g io
çĶ µ
Ã¤ t
ad as
¾ å®¶
Ġà° ¬
u al
Ġfir st
à°° à±įà°
àª ¶
ek o
Ø¨ ÙĦ
Ø³ ÙĦ
ÙĪ Ø¹
Äĥ m
áĥĺáĥ Ľ
v ÄĽ
Ġpar t
Ġå Ī
áĤı áĢ½
ow y
Ġ× ĺ
á¹ £
ĠÎŃ Ïĩ
ot re
×ķ× ŀ
Ø¨ ÛĮ
Ð° ÑĨÑĸ
c u
O M
Ġì ļ
Ġà¸ ªà¸
ĠÑģ Ð¼
à®± à¯įà®±
Ł äºº
Ð¸Ð´ Ð°
Ã½ m
Äĵ t
Ð³ Ð¾
Ġe very
Ø° Ùĩ
ä¹ Ī
à´¤ àµį
Ã¡ ng
ĠØ§ÙĦÙĦ Ùĩ
ãĥ ĭ
é ĥ
ĠÎ± Î½Î±
Ġí Ļ
Ġ×Ķ ×ª
Ã© l
Ġà§ ¨
ÏĦ Î¯
ãģ Ŀ
Ġì ĸ
áĢķ áĢ¼
Ġa kan
Ġ Å¾e
Ðº ÑĢÐ°ÑĹ
w ie
ĠH e
i an
ļ Į
ãģ °
áĥķ áĥĺáĥ¡
Ġv ar
Ġà° ¦
ĠÎ¼ ÎŃ
Ð¾ Ñı
lar Ä±n
Ġbis a
ç ®
i in
Ġ) .
ë³ ´
Ã¶ n
ĠÐ° Ð²
àª¿ àªķ
Ġà° ĩ
áģ¿ áĢķ
et te
Ùĥ ÙĦ
Ġg iá»
ÑĢÑĥ Ð³
Ġk o
Ġet t
áĢĻ áĢ¾
Ġà® Ĵ
áĢĶ áĢ¹
Ġmem b
Ġcon s
áĥĶáĥ Ĵ
Ġ1 9
ÙĨØ¯ Ùĩ
§ à¸²à¸
Ġs us
ÙĨ ÛĮ
Ġàª ļ
ĠÑģ ÑĢ
ĠÃ© t
Ïĥ Î¹
Ġå °
Ġkh i
ãģĦ ãģŁ
ĠÑģ Ð¸
Ñĸ ÑĹ
áĢģ áĢº
ç½ĳ åĿĢ
ĠÙĩ Ø°Ø§
à ¬
Ùĥ Ø±
Ġun s
ĠAn da
Ľ à¹ĩ
il y
å®ĺ æĸ¹
n ak
Ġáĥ ¢
ll o
ÏĦÎ± Î½
at es
a Ã±
ãĥ¼ ãĤ¹
ĠÎ Ļ
h l
ie t
á»ĳ c
×Ĺ ×¨
Ð½ Ð¾Ð¼
ĠÄĳ áº¿n
ÙĪ Ø§
ĠÑģ Ð°Ð¼
Ġan che
ĠÐ° Ð´
Ġìĭ ľ
Ġm a
Ð° ÑĪ
Ġàª® àª¾àª
ìļ Ķ
lÄ± k
´ Ģ
n ia
åĲ Ī
Ñĸ Ñĩ
Ġs on
ĠC OM
ãĤĪ ãģĨ
Ġs ie
ìĹ ħ
àª Ł
Ġthe se
Ġ×ŀ ×Ķ
ĠØ¯ ÛĮ
Ġ×ŀ× ©
Ġbe t
áĥĶáĥļ áĥĺ
Ø¦ ÛĮ
é¢ ĳ
r Ã©
ĠÐ± ÑĥÐ´
ãĥ¼ãĥ «
v at
ing in
Ġb ack
Ġ =
Ġ×Ķ× Ĺ
ãĤ ¦
é ķ
, "
Ġr is
Ø³ ÙĬ
áĥ ¨
ÙĦ Ø§Ùħ
ĠÚ© Ø´
ig e
å® ī
Ġr a
ĠØª ØŃ
Ġ×ĳ ×Ĳ
áĢĽ áĢ¬
Ð´ ÐµÐ»
×ķ× ¦
æĹ¶ å½©
ĠáĥĴ áĥĲáĥľ
ì§Ģ ëħ¸
æ° Ĺ
ãģ« ãģª
Ã¼ ÅŁ
ĠàªĨ àªµ
z en
iáº¿ n
Äģ t
àª §
ãģ¨ãģĦ ãģĨ
åŃ Ĳ
ĠN g
Ġæ ĺ
åĪĨ å½©
á»© c
ãģķ ãĤĮ
à§ ĥ
ic os
áĥĲáĥ Ĵ
c Äĥ
Ġì§ Ģ
Ġsu pp
à§ Ĥ
ãĥ ĸ
áĥĺáĥ Ŀ
in iz
áºŃ p
à¤¤ à¥ĩ
ĠØ§ÛĮ Ø±Ø§ÙĨ
à ²
ĠØ¯Ø§ÙĨ ÙĦÙĪØ¯
1 0
Ã¤ m
Ġvá» ģ
áĥĺ áĥĲáĥľ
Ġo ok
Ġw ant
Ġp res
Ġ %
Ġ×ķ ×Ķ
ä¿ ¡
ç¥ ŀ
Å© ng
² à±ĭ
à¸Ļà¸ µ
Ð¸ ÑĺÐ°
à´ ķàµįà´
åħ ¥
Ġà¦ ĸ
Ġàª «
c Ä±
it ies
n ek
áĢ Ł
o it
à¤ ¶
Î»Î¿ Î³
ĠlÃł m
Ð°ÑĤ Ð¾
el d
ĠÐ» Ñİ
à¤ Ī
Ø³ Ùħ
áĢŃáĢ¯ áĢĦáĢº
Ġàªķ à«ĩ
Ġà¤Ń à¥Ģ
ĠÑģ Ðº
áĥ ŀ
Ġà° ī
Î Ľ
an no
ìļ ©
Ġàªª àª°
ĠpÅĻ ÃŃ
Ñ ķ
Ġre p
Ġí ĺ
ÑĨ Ð°
Ġa ta
Ġà¤ķ à¤¿
ãģĤ ãĤĬ
Ð» Ð¾
z i
éĩ ĳ
è ·
¤ ĳ
ëı Ļ
Ġex per
à¦Ł à¦¿
ãĥ ĩ
Ø¯ ÛĮØ¯
at an
Ò ĵ
Ġver y
Ġp ada
Ġa ct
ĠÑģÐ² Ð¾
Î ł
ĠÑĥ Ñĩ
æĹ¶ æĹ¶å½©
à§ĩà¦ ĩ
Ó £
et to
åł ´
Ð¾ÑģÑĤ Ð°Ð²
Ġn os
à«ĩàª ®
ĠÙĥ Ø§ÙĨ
ue v
us s
c ul
Ġ á»Ł
ÑģÐº Ð¸
Ñĥ Ñī
¹ Û
j ect
ĠáĢ »
Ġà° Ĺ
Ġdas s
ĠÎ ¹
Ġdi ff
ĠØ¯ Ø§Ø±
Ġà¦Ĩ à¦®
Ø¬ Ùħ
à´¿à´ Ł
Ġd oor
à¤¾à¤ ¸
Ø® Ø±
ä¹ ĭ
ĠÃ¶ n
ur ch
×ķ× Ĵ
×Ļ× ĺ
Äĵ r
Ð¾Ñģ Ñģ
áº¥ y
Ð¼ Ð¸
à¸Ļ à¹Ģà¸
in ess
Ġo t
ĠÐ¾ Ð½
×© ×¨
çİ °
Ñģ Ð»Ð¸
ãĤ į
à¹ĥà¸ «
b s
Ã¦ re
Ã¡ o
cz e
ti v
ÛĮ Ø³Øª
at t
áĢ» áĢķ
Ġï ½
à¥ Į
g li
è§Ĩ é¢ĳ
áĥĺáĥ ļáĥĺ
à±įà° ª
ĠÑĩ Ðµ
en s
ÏĨ Î¿
Ð¸Ð½ Ð¸
ãĤ Ń
ãģĦ ãģ¦
Ġc áº£
àµįà´ ³
áĢĲ áĢ½
ĠÎµÏĢ Î¹
áĥ £
×Ļ× ŀ
áĥ ¦
Ġj o
u b
æ ı
Ġç ľ
it ate
u kan
il er
Ġáĥ ª
Ġ": "
ĠÙħ Øª
Ġ Ê»
Î´ Î±
ĠáĢ ĺ
Ġt áº¡i
Ð¾ÑĤ ÑĢ
Ġm Ã«
à¦¾à¦ ª
Ġpor no
åĽ½ éĻħ
è¦ ĭ
Ð°Ð³ Ð°
le ct
à°¨ à±įà°¨
Ð¸ÑĤ ÐµÐ»
ĠØ§ÙĦØ «
l ik
æĪ Ĳ
ĠØ¯ ÙĪ
à®³ à¯į
Ġ #
Ġin s
i Ã³n
ĩ à¹Ģà¸
ĠkÃ¶ z
iá»ĩ u
h n
Ð°Ð½ Ð¸Ðµ
Ġg ia
æ ¯
ĠÙħ Ø±
Ġa y
à´ Ĺ
ì Īĺ
Ġn d
Ġk om
å¥ ½
æĢ Ŀ
Ġ íķľ
Ġë ĵ
ÑĤ Ðµ
Î»Î» Î¬
áĥĲáĥ ĺ
Ġà¤² à¤¿à¤ı
is chen
Ïĥ ÏĦÎµ
Ġf i
Ð°Ð» Ð°
at ing
Ġå ľ
ĠØ¨ Ú¾ÛĮ
on a
Ġà¦ Ľ
ĠA s
Ġre g
Ġàª ĸ
Ġå ½
Ġk ar
×ł ×ķ
áĢ¬ áĢĦáĢ¹áĢ
Ġn i
s h
Ġà´ Ĵ
z Åĳ
im a
n ik
Î· ÏĤ
Ø¯ ÙĬ
å° ı
at Äĥ
Æ ı
å ģ
á» ı
Ðº Ðµ
Ġìł ľ
Ġg y
Ùģ ÙĬ
Ġwir d
Ġb a
×Ļ× ¤
áº ±
Ġt out
í Ħ
ĠÃ ĸ
éĸ ĵ
ÏĦ ÎŃ
ãĤ ¸
c ess
Ġs áº½
Ġb us
ë© ´
Ġman y
ĠÛ ²
ent es
lar ak
on al
à¤ Ń
äº ¬
ĠÐ¾ Ð¿
Ġd á»¥
Ġs he
Ãª u
ĠÙĪ Ùħ
áĢ¯ áĢķáĢ¹áĢ
çĦ ¡
áĢ Ĵ
Ð½ Ð¾Ð²
å¿« 3
à®¿à® µ
áĥļ áĥĺáĥ¡
and e
ĠG e
ĠÂ Ń
Ġst ud
Ġ×Ķ× ¢
áĥĺáĥ £áĥ
ĠÙĥ ÙĦ
as h
ĠìĿ ´ë
à§įà¦ ª
ìĺ ¤
è½ ¦
áĥĲáĥ ¨áĥĺ
Ġw ie
ie w
ãģ ĺ
Ġata u
Ð¾Ð»ÑĮ ÑĪ
×Ļ× ¡
t or
Ġáĥ §
ÑģÑĤÐ² ÐµÐ½
¶ Ķ
ãĥ³ãĤ °
á» ģ
à¯ģà® ±
à¤° à¥Ģ
ia ÅĤ
Ġro z
Ġfr a
Ġf l
our s
ãģ Ķ
ĠÛĮ Ûģ
ed e
ÛĮ Ùĩ
Ġæ Ĺ
Ġå Ĳ
Î ľ
Ġv otre
ĠA z
ot h
è® ¡
Ġàª¤ à«ĩ
Åĳ l
Ġc re
u ÄŁ
ĠØ¨ ÙĨ
ç ¨
Ð½ ÑĥÑİ
à§įà¦ ¥
Ġo pp
i b
e b
Ġ Ã«s
u g
à° Ĺ
Ġsz er
am ent
en cia
ĠÄĳ Ã³
p o
Ð¾Ð»ÑĮ Ð·
ëĭ Ī
àª¿àª ¯
Ø§ÛĮ Øª
Ġin d
Ġo ld
Å Ī
Ġ Åŀ
è Ī
ĠãĤ ¹
ĠC om
Ġìĺ ¤
ĠÐ½ Ð¾
çĻ »
Ġd la
Ġà¸ ª
ÏĢ Î¿Ïħ
Îµ ÏĦÎ±Î¹
un k
ë ¹Ħ
à¥ĩà¤ ¶
r it
ĠÃ«s htÃ«
en e
Ò³ Ð¾
ĠÐ· Ð°Ðº
Ġgo od
Ġt wo
un t
Ġnh Ãł
le h
ãĥ ł
Ġ×ĳ ×¢
éĥ ¨
ÏĦÎ¹Îº ÏĮ
à¤¾à¤ ļ
Ã² ng
ģ à¸£à¸
ĠØ «
Î¼Î± ÏĦÎ±
Ðº ÑĤ
ow er
ĠÐ²Ñģ Ðµ
Ġ×© ×Ķ
æ³ ķ
çĤ ¹
iy y
áĥĲáĥ Ļ
ment s
Ã¼ ck
à´¾à´ ¤
Ġd al
ìĿ´ íĬ¸
Ġp ers
Ġëª ¨
ÑģÑĤ ÑĮ
Ġç Ķ
Ġìł ķ
Ġm Ãł
Ø¨ Ùĩ
Ġin v
×ľ ×Ķ
s er
Ø§Ø± Ø§Øª
Ġc zy
×Ļ× Ľ
Ä« t
Ġein en
Ġg el
Ġ ä½
à¤Ĥ à¤Ĺ
Ñĸ Ñı
Ã± os
à¹Ħà¸Ķ à¹ī
Ġe g
Ġg reat
Ġà¦ Ł
Ġse e
Ġt ien
Ġà¦¬ à¦²
Îº Î¿
ãĥ §
Ġê² ĥ
å §
Â µ
ĠÑģ Ð°
ÐµÑģ Ñģ
Ġc Å©ng
Ġà®ª à¯ĭ
ar io
à¤¾à¤ ľ
ëĤ ¨
Ġáĥŀ áĥł
ÑĢ Ð°Ð·
×Ļ ×ķ
à¦¿à§Ł à§ĩ
Ð Ĩ
ÉĻ h
Ø¨ Ø¯
Ġi ÅŁ
Ġàª ī
ĩà¸ ´
ĠS z
ĠÛĮ Ø§
ÑģÐº Ð¾Ð¹
Ġw ay
×¤ ×¨
Ġà§ §à§
ll Ã¤
Ġà¦ħ à¦¨
b eit
Ġæ ĸ
Ġz um
ì °
Ġa wá»įn
Ã¡ d
Ø¯ ÙĬØ¯
ìĬ µ
Ġit u
Ã¤ tt
u ga
Ġg er
v ÃŃ
ÑģÐº Ð¸Ð¹
è ī
Ġk ann
ãĤ °
åĬ ¨
ÑģÑĤ Ð°Ð²
åİ ¿
ĠØª Ú¾
Ġà° İ
ÈĻ te
áĢ±áĢ¬ áĢĦáĢº
ĠD as
ur n
Ĥ à¸
Ħà¸ §à¸²à¸
ÙĦ Ø§ÙĦ
Ø¬ Ùĩ
à®¾à®° à¯į
àªµ àª¾
y ak
m es
à°ķ à±įà°
ĠØ§ÙĦÙħ ÙĪ
Ġi k
Î¼ Î²
a us
Ã Ħ
Ø´ ÙĨ
âĢĭ âĢĭ
Î ¥
ç ¤
ĠÄĳá» ĭ
Ġl á»
à°¾à° ¯
å £
ĠÎŃ Î½Î±
Ġà®ħ à®µ
z Ã©s
ĠãĤ ¢
Ġáĥĺ áĥ¡
Ø§ÛĮ Ø¯
àµģà´Ł àµĨ
» ¿
Ġ à«
c ciÃ³n
ãģ§ ãģį
Ø§ Ûģ
Ġàªª àª£
Ġì Ĩ
ig t
Ġc as
ÏĦÎ¹Îº Î®
Ġà´ ¬
Ġn ous
à¦¿à¦ ¬
à¯ģà® ³
Ã¼r k
áº «
Ð°Ð½ Ð¾Ð²
Ġper o
à®¿à®¤ à¯įà®¤
àª¨ à«įàª
at u
Äģ d
éĴ ±
ĠvÃł o
ä¹ ħ
ÉĻ b
à®¾à®© à¯į
à¹ĥ à¸Ļà¸
è ©
ĠÐ² ÑĬ
åľ º
à®© à¯įà®±
ä¹ Ł
Ġh Ãłng
ãĥ¼ãĥ Ī
Ġà° ľ
ĠH et
àª ¬
ĠÐ¿ Ð¾Ðº
ĠÙħ Ø³
å »
iv o
áĢ±áĢ ľ
Ã© es
Ġwhe re
Ð° ÑĨÐ¸Ð¸
à¥ ī
à¦ ¥
åı ¯
ÐµÑĢ Ð¶
ÙĪ Ø¨
an y
Ð Ĵ
ol d
ne j
Ġ×ĳ ×ŀ×
Îº ÏĮ
Ð¾ÑĢ ÑĤ
ëĵ ľ
Ġ äºļ
r zy
à®¾à®² à¯į
à¦ ¯à¦¼
à¤¹à¥Ģ à¤Ĥ
ĠÏĮ ÏĦÎ¹
¦ à°¿
Î» ÎŃ
×ŀ ×Ķ
Î¹Îº Î¬
ĠF or
×ķ× Ľ
Ġyear s
Ñľ Ðµ
äº İ
å½© ç¥¨
áĢĻ áĢ½áĢ¬
ãģ§ ãģ¯
ĠØ§ÛĮ Ú©
ir i
ì½ ľê±¸
ĠQ u
ÛĮ ÙĦ
ÏĦÎ¿ ÏĤ
à¤ķ à¥įà¤
å® ¢
ÃŃ ch
Ġsh ould
Ùħ Ø¯
à¹Ī à¸Ļ
el er
Ġnh iá»ģu
f ore
Ùĥ Øª
é £
£Â ¬
j o
Ø§ÛĮ Ø´
Ġm el
à°Ĥà° Ł
ãĤ »
Ø§ Ú©
ÑĨÐ¸ Ð¾Ð½
ãĥ Ł
áĢĲ áĢ¼
Ð¡ Ð
Ġm Ã¼
Ġhe b
Øµ Ø±
Î· Î½
b o
ĠÐ¸ Ð³
Ġl áº¡i
Ġev en
am bi
áĢľ áĢŃáĢ¯
g et
Ġtr Ãªn
f er
ut as
Ġ ]
à§ĩà¦ Ľ
e ft
Ġaf ter
Ġo larak
ÑģÑĤ ÑĢ
×ľ ×Ĳ
ag en
± àµĨ
à¤ķ à¥ĩ
Ġc ould
àª¾àª® àª¾àªĤ
ol t
×ł ×Ķ
å¿« ä¸ī
Ķ à¸´à¸
ÑģÑĤÐ² Ð°
Ġc ar
ãģ Ń
Ġo wn
Ġj uga
Ġso bre
Ġst r
Ġse g
ĠØ§ÙĦÙħ Øª
ĠÙĪ Ùĩ
Ġad alah
Ø´ Ø±
ãĤ §
ãĥ³ ãĥĪ
Ġ×Ļ ×©
íĦ °
Ġes c
Ġz o
· à¸Ńà¸
Ġa ux
Ġ ÑĶ
Ġk tor
ang e
2 2
é «ĺ
¡ à¸µà¸
il i
m ente
à±ģà°¨ à±įà°¨
Ġb est
åİ ħ
áĢ¸áĢ ±áĢ
àµ »
d ay
Ġà°ļ à±ĩà°
Ñĸ Ðº
áº· t
ĠÐµ Ð³Ð¾
Ġ Å¡
Ġthe n
as a
Ø± Ø¶
Ð¾Ð² Ð°ÑĤÑĮ
á ¼
àª¨ à«ĭ
z o
c ar
t Ä±
á»ĳ ng
ë ¯¸
à´ ´
b ih
Ġm u
Ð» Ð°
áº »
Î» Î¬
Ð¸ Ð³
Ð» Ðµ
Î ©
à´¿ àµ½
Ġëĭ ¤
Ġh igh
in dÉĻ
ãĤ ª
uj e
Ġ à¹Ĥà¸
ĠT e
Ø¬ ÙĦ
ier t
ut ta
pe ct
æĸ ĩ
Ġha b
áĥ£áĥł áĥĺ
Ġs em
ãĤ ¨
ĠÙĨ Ø¸
ĠA l
à¤¡ à¤¼
Ġin form
Ġd own
if e
ys tem
dz ie
Ñĭ Ð¼
ĠN e
Ã« m
h al
Ġincl ud
Ã§ o
Ġm Ã©s
å¿ ĥ
Ġà´ ī
ĀĀĀĀ ĀĀĀĀ
áĥĽ áĥĲ
à±įà° µ
ĠáĥĽ áĥĿáĥ
à°¿à° ¤
à¤¾à¤ ¹
ĠØ±ÙĪ Ø²
Ġà¤µ à¤¿à¤
ĠB u
Ġf ind
ìĽ Ķ
Ġ &
ãģķ ãĤĵ
Ġde ÄŁ
Ġáĥ ļ
ic he
ou ve
ĠÂ °
l am
as ed
Ġ×Ľ ×ľ
n ym
ê ·
sz er
at Ã³
æ Ļ
Å º
ĠÐ¿ Ð¾Ð¼
Ġs et
Ġag çİ¯äºļ
ÏĦÎ± ÏĤ
im o
áĥĲáĥ ļáĥĺ
Î» Î®
Ġsa u
áº¥ p
ĠØ³ Ø±
Ð¾Ð± Ñĭ
à¹ī à¸Ńà¸
æľ Ģ
ca use
ers ch
Ð» Ð°Ð´
ation al
ä» ¬
Ùĭ Ø§
éĢ Ł
g er
ÑĥÐ» ÑĮ
ĠD er
an k
Ġà´ ľ
Ġf in
áĥĶáĥ ¥
ne go
Ø³ Ø¨
en er
Ñĥ ÑĪ
Ġì Ĭ
Ġno ch
ĠÄĳ áº§u
Ġå ¹
Ã¡l t
Ġà®ķ à¯Ĭ
Ùĥ Ùħ
Ġ×Ķ ×¨
Ð°Ð½ Ð´
ah l
Ø¯ Ùħ
ĠÎ §
ļ à¸²à¸
à¯ģà® ¨à¯įà®¤
l ad
àª¾àª ¸
Ġd ay
Ø§Ø¯ ÛĮ
ĠÎº Î¬
à¹Īà¸ ĩà¸
d y
iá»ĩ c
vel op
Ø¨ Ø§Ø±
Ä±n dan
í ļĮ
áĤ Ģ
Ġk on
åŁ İ
Ġna ar
ÑĥÐ² Ð°Ð½Ð½Ñı
à´¾à´ ²
Ùĥ ÙĪÙĨ
um s
à¦¬ à§ĩ
Ã© ho
y cz
áĥĺáĥ łáĥ
Ġå Ľ
f Ã¶r
Ì ģ
à¦ķ à§ĩ
Ġgr atis
ļà¸Ńà¸ ¥
ĠØ´ ÙĪØ¯
ĠìĿ ¸
Ġãģ Ĭ
Ġe ff
Ġà¦ķà¦° à§ĩ
ĠÐ± ÐµÐ·
ÎŁÎ ¥
èĩ ª
Ġh ome
Ġb ul
Ġlo c
ØŃ Ø©
èµ Ľ
Ïĩ Îµ
à¤¸ à¥ĩ
åĪ ©
Øª ÛĴ
ĠÐ¿ÑĢ Ð°Ð²
il ity
åĲ İ
à¦¿à¦ ¸
Ãł o
ÑĨ ÑĨÐ°
Ġ1 2
or o
t Ä±r
Ġsu ch
à«įàª µ
Ïį Î½
Ġt u
Ø ¢
ìĹ ¬
áĢĻ áĢ»
æ Ľ
r ar
Ñĸ ÑĢ
¸ à±įà°¤
áĥĶáĥĳ áĥ£áĥļáĥĺ
ÙĪ Ùģ
Ġt y
te k
ĠÐ¿ÑĢ Ð¾Ð´
ÙĤ ÛĮ
nh a
ãĥ ĳ
Ġu pp
t ir
ic t
ãģ« ãģ¯
Ġn ow
ç ķ
b et
åĬ Ľ
àµ ¾
ĠØ§ÙĦ ÙĬ
¥à¸ °à¸
å® ļ
ìĤ¬ ì§Ģ
ä¸ »
ĠÃ© r
Å£ i
Ġn Ã³
Ïĥ Î¿
Ġ {
è °
åį ķ
ĠÐ£ ÐºÑĢÐ°ÑĹ
ĠÏĢ Î¿Î»
ĠáĢ ĸ
Ġj ed
Ġr ight
à¦ ĸ
ĠÃ ª
¡ à±ģ
áº£ o
Ġ×Ķ× ŀ
Ļ à§įà¦
Î± Ïģ
ĠD et
åĽ ¾
w ard
ÙĪ ÙĬ
Ð» ÐµÐ½Ð¸Ñı
è ¶
æ¥ Ń
Ġg li
Ġein er
åī į
çľ ĭ
Øµ ÙĦ
Ð Ł
Îµ Ïħ
à¤ ı
Ø§Ø³ Øª
or k
ĭ à¸
ĠÐ ¹
el f
Ïĥ ÏĦ
te t
Ġà´ ²
ĠâĢ ŀ
n Ã¡
ĠM it
Ġà´µ à´¿à´
áĥĶáĥĳ áĥĺáĥĹ
Ø§Ø± ÙĬ
Ð¾ÑĢ Ð¾Ð´
ĠÎµ Î¾
ur ing
ant s
áĤĢ áĢĢ
í Į
Ð¸ÑĢ Ð¾Ð²Ð°Ð½
Ġà¤° à¤¹
Ø§ÙĨ ÙĬ
Ġs á»±
Ð½ Ð¸Ð½Ð³
oc Ãª
ĠÐ½ Ð¾Ð²
ÙĦ Ùģ
Äį nÃŃ
à¯Īà® ķ
as jon
or a
±à¸ ĩà¸
ÃŃ m
Ġà¤ħ à¤ª
Ùĳ Ùİ
ĠkÃ¶ n
íķĺ ëĬĶ
àµģà´ ³
ie k
ĠÑī Ðµ
Ġa k
ĠÐ´ Ð°ÑĢ
ĠÐ¾ ÑĢ
áĥ£áĥ łáĥ
Ġse c
er en
al Ä±
èĢ ħ
ĠÙĨÛģ ÛĮÚº
x t
Ġre qu
ĠÐ² ÑĢÐµÐ¼
ĠØª Ø±
ĠØ¥ ÙĨ
ÑĤ Ð¸
Ġm aar
Ġb á»ĭ
è ³
Ġch á»ī
lic he
áĥĶáĥľ áĥ¢
Ġ×ŀ× Ĳ
Ã¼ y
ÎµÎ¹ Î±
Å¡ e
ĠÄĳá» ĵ
Ġìŀ Ĳ
à§ĩà¦ ĸ
Ã¥ g
Ī à¸²à¸
æĢ §
Ġbus iness
3 65
àª¿ àª¤
Ġæ Ŀ
ĠÛ±Û ³Û
ĠA us
Ġà¤¸ à¤®
Ġ×Ķ× ĳ
.. ..
à¯ģà®ķà¯įà®ķ à¯ģ
à°Ĥà° ¤
Ġê² ½
íħ Ķ
Ãº ng
Ġn uk
Ã Ĳ
ou p
à¦ ĵ
Ä ©
à¤¾à¤ µ
åı ¸
Ø§Ø¯ Ø©
k er
Î¿Ïħ Î¼Îµ
ĠÙĩ Ø°Ùĩ
Ġáĥ¡ áĥĲáĥĽ
Ġ Ĉ
uk s
ĠD E
ĠØ§ÙĨ Øª
ci Ã³
ĠAn d
Ġdes ign
Ġì °
Ãªn cia
Ġ }
Ġgi Ã¡
Ñı Ð·
à¸£à¸ ´à¸
áĥĲáĥ ¨
Ġv ideos
é Ĥ
is ch
Ġw aar
ĠÐ Ĩ
d f
ÙĬØ± Ø©
Ġd ÉĻ
è¿ Ľ
W W
åĮ º
is en
Ġ1 1
Ġein em
Ġnh áº¥t
Ġz ur
ĠÐ± Ñŀ
å½ ķ
Î¬ Î»
Ġp eng
t ÄĽ
áĥĲáĥ ĸ
Ð¾Ð» Ð½
ic s
Ä«b as
Ġà¤ ¡
ay Ä±
Ð¾ Ñİ
Ġn Äĥm
is sa
Ð°Ñģ Ñģ
ĠÎ ¦
ĠáĢŀ áĢ°
Ġw at
ut o
Ø§ÙĦ Ùħ
áĥĲáĥ ¥
Û ķ
à´± àµįà´±
Ð¾Ð¿ ÑĢ
äº Į
o ol
Ã¥ ng
ent a
Ġ×¢ ×Ŀ
ÎŃ Ïģ
èµ °
áĥ® áĥķ
Ø· Ø©
Ġí ı
ĠÐ¸ ÑģÐ¿
sch a
os ti
Ġp df
Ġmen j
Ïģ Î®
Ð¾ÑģÑĤ Ð¸
à¤¤ à¥Ģ
cj i
en ie
áĢĦ áĢ·áĢº
Ġdá»¥ ng
Ġs m
Ã¡r io
i ÅĨ
ÏĦÎ¹Îº Î¬
g j
Ġt re
Ġpl ay
ĠØ± Ûģ
Ġà°µ à°¿à°
ĠW WW
é ľ
ah an
±áĢ ĲáĢ¬
Ġë° Ķ
Ñį Ð½
i os
ĠÎ Ľ
× £
o ll
Ġà¤¨ à¤¹à¥Ģà¤Ĥ
Ġd r
ĠÙĤ Ø±
Ġm uch
àª° à«Ģ
ģ áĢº
ah a
o g
ĠJ e
ou v
Ġk w
ĠÎµ Î¯
ĠÐ² Ð¸Ð´
Ġh iá»ĩn
à´¾à´¯ à´¿
ĠÄ Į
Î» Î¯
ìĸ ĳ
ìĭ ł
l io
Ġ X
Ġ ãģ¨
à° ļ
Ġa le
Ð½ Ð¸ÑĤÐµ
ĠÐ¼Ð¾Ð¶ ÐµÑĤ
ĠÙĪ ÛĮ
b a
ĠØ¨ ÙĬÙĨ
ĠÄĳá»Ļ ng
Ġfr Ã¥n
Ġà®İà®© à¯įà®±
at h
àª ļ
æĪ ĳ
Ġe i
Ľ Ħ
àµĨ à´¨àµįà´¨
ĠÚ¯ ÙģØª
Ġàªı àªķ
Ġì ²
Ö ģ
Ġd all
à«ĩàª µ
Õ¸ Õ
åĬ ¿
Ġng Ãły
es z
as ta
ãĥ Ĭ
Ġn y
ĠÐ¡ Ð
ĠØ§ÙĦÙħ ÙĨ
Ġm on
Ġre l
ou w
ĠØ§ Ù¾
áĥ ĸáĥĶ
Ġä¸ Ģ
in s
ĠØ¨ Ø¹Ø¯
Ġent re
ĠÐ¼Ð¾Ð¶ Ð½Ð¾
à®¾à® µ
Ġ" ,"
à¦¨ à§įà¦¤
Î¼ Î·
æı Ĳ
ci ones
Ð½ Ð¸Ð¼
ol i
Ġm ÄĽ
Ã¡ nh
à´¨ àµįâĢį
Ġà´İ à´¨àµįà´¨
ÙĬ Ø²
it t
ĠØ§ÙĦØ° ÙĬ
Ġl ong
E R
f Ã¼
à´¿à´ ¨àµįà´
ëħ Ħ
v o
å° ±
Ġà®ħ à®¤
Ġn ur
å¯ ¹
Æ°á»£ ng
Ġol m
ç« ¯
åĮ ĸ
Ġä¸ Ń
Ġm ar
áº¯ c
Ġà¤¸ à¤Ĥ
is i
ĠÐ ¥
Ð» Ð°Ð²
ujer es
m s
Ø¹ Ùħ
Ġst art
Ġsu a
Ł ¥
ĠÎ ĺ
áĥĶáĥ Ŀ
×ĳ ×ľ
ĠÙĩ ÙĪ
çĲ ĥ
ĠÐ´ Ð¾Ð»
Ðº Ð¾Ð²
Ø³Øª Ø§ÙĨ
ãģ§ ãĤĤ
Ġt ake
ĠÃ§ ok
Ġm ark
ÙĪØ± ÛĮ
Ġre ad
á»± c
áĢ±áĢ ŀ
a ux
Ġes p
Ġa ber
ch i
ÑģÐº Ð¾Ð³Ð¾
Ã² n
Ã¢ u
Ġà´ ¯
Ġ×ľ ×ŀ×
Ġd on
å· ŀ
àµģà´¨àµįà´¨ àµģ
¥ à¸²à¸
Ġk ul
Ø£ ÙĨ
¥ ¿
ra v
Ñĥ Ñħ
Ġdiff er
Ġv agy
Ġ×ĸ ×Ķ
áº· c
ĠÚ© Ùħ
a at
Ø§Ø «
ìĬµ ëĭĪëĭ¤
Ġà¦ľ à¦¨
Ġà¤ Ł
ĥ n
áĥĺáĥ ĸ
Ġd apat
Ġha ben
r Ã³
Ã¡ p
at ive
éģ ĵ
×ª ×Ļ
Ġbe cause
ĠÐ± Ð°
áĢ¸áĢ Ļ
ĠØ¯ Ø§Ø´
Î¹ Î½
ÙĨ Ø©
ĠK h
Ð¾Ð³ Ð´Ð°
Ġe z
àµ Ī
Ġï »¿
âĢ ľ
Ġsa id
it i
Ġæ ī
ĠÐ´ Ð²
ĠØ ¶
Ú© Ùĩ
ĠÐ¾ Ñĩ
Ġì £¼
Ġv iá»ĩc
d s
ç» ı
Ġph áº£i
áĥĿáĥ ¤
Ġ×ŀ× ª
m y
èµ Ħ
ol a
Ġ×Ķ× ¤
Ġs to
åĨ Į
Ð¾ Ñŀ
é ¦
ĠÙħ ÙĤ
áĢ±áĢ ķ
àªĤàª Ĺ
s ze
Ġa da
Ġà¤Ĩ à¤ª
ħ n
ĠÙĪ ÙĤ
å® ŀ
es te
Ľ à¸£à¸°à¸
ĠÙĦ ÛĮ
Ġse in
l ÉĻ
ĠÐ¿ Ð¾Ð²
Ġ Ô
Ġpro p
æŀ ľ
Ġth Ãłnh
Ġs unt
ĠØª Ùħ
Ġet tÃ¤
éĿ ¢
as sa
Ġ Ã¼
à¥ĭ à¤Ĺ
ul ar
à¥įà¤ ®
à´¿à´ ¤
ĠØ£ ÙĬ
an ti
Ġë³ ´
Ġon der
à±ģà° ¤
¦ Ĥ
ĠS o
ĠT Ã¼rk
un e
×Ļ× ¦
am b
is mo
áĥĺáĥ ¨
Ġre m
k eit
Î¼ ÏĢ
Ðµ Ñī
Ð¾ ÑĪ
i u
O N
Ñĥ ÑĶ
ag ai
æ° ĳ
ĠÏĢÏģÎ¿ Ïĥ
è ĭ
Ł à«ĩ
Ġàª¸ àª¾àª
ï¼Į ãĢĳãĢĲ
Ġf ost
ĠÃ®ntÃ¢l n
ier en
Ð½ÑĭÐ¼ Ð¸
Ġc or
Ġl le
Ġme hr
Ġinform ation
Ġw ar
Ġà®ļà¯Ĩ à®¯
à´¨àµįà´ ¤
ĠæĪ ĳ
6 6
áĢ¬ áĢ¹áĢ
Ġn ÄĽ
ìĻ Ģ
Ġd urch
Ġr ic
×Ļ× Ĺ
Ġ \
Ġdel s
u an
Ġ [
± c
z Äħ
áĥķ áĥĶáĥľ
Ġáĥ¡áĥĲáĥ ¥
à§ĭ à¦¨
ĠF r
ì¶ľìŀ¥ ìĥµ
ĠS h
Ġth Ã¬
uy Ãªn
Ġ á¼
éķ ¿
ĠÐ´ ÑĢÑĥÐ³
å ķ
ä» £
il m
it s
è´ ¹
±áĢ Ķ
ĠØ´ ÙħØ§
ow s
Ġhá»į c
ãĥ ĵ
Ġb ien
à¯įà® ®
ÎĻÎ ļ
ÑĦ Ð¾ÑĢÐ¼
Ġ×Ķ× ł
åį ļ
áº± ng
äº §
Ġto d
gr am
é Ķ
ĠÑį Ðº
µ ľ
Ġm od
Ġs in
áĢĻ áĢ½
×¨ ×Ļ×Ŀ
Äģ l
Ð»Ñİ Ñĩ
Ĺ äº¬
Ġê³ ł
âĢĮ ÙĩØ§
áĢ±áĢ¬ áĢĢáĢº
Ġ1 5
Ø¹ Ùĩ
Ġa j
áĥĲáĥł áĥĺ
ĠÏĥ ÏĦÎ±
Ġbe l
ģà¸ ±à¸
9 9
un u
· à¸Ń
Ġs im
ĠÐ½ Ð°Ð¿
Ġà´ ¶
ÑĤ Ð¾Ð¼
ÏĦÎµ ÏĤ
h ing
à´² àµįà´²
ì¹ ´
ÐµÐ½ Ð°
ĠL os
ter n
Ġm uy
Ġus ed
Ġm ade
è »
Ġde velop
àµįà´ ŀ
ĠÎ¤ Î¿
Ġà¦¬ à§įà¦¯
u jÄħ
à§ģ à¦¨
àª¾àª ²
ĠÚ©ÛĮ Ø§
àª¾àª ľ
Ġas s
Ãº c
n Äħ
à®¾à® ¯
ĠØ§Ø ¹
áĢŀ áĢĬáĢ¹
ĠãĢĳãĢĲ ï¼ĮãĢĳãĢĲ
Ġàªµ àª¿àª
Ġåľ ¨
ÙĪ Ø³
ĠÎ ¾
Ġà¦¨ à¦¾
k Ã¶
áĢĸ áĢ¼
ģ áģ
m an
Ġf am
j et
¡ à¸²
åħ ĥ
ÉĻ lÉĻr
Ġprze z
Ġk i
ar ch
Ġprodu ct
Ä« g
áĥ ĸ
Ġs al
Ñī Ðµ
Ġna j
Ġde ze
Ã Ĭ
Ã¤ s
çĽ Ł
Ġg Ã¶r
è¿ Ļ
×Ļ× ļ
at ika
Ñĩ Ñĭ
×¨ ×Ľ
ic Äĥ
al th
Ġm in
ĠÎ¼ Î±ÏĤ
ĠÏĢ Î¿
Ġin st
ë¬ ¸
ant es
Ð´ Ðµ
Ġs ystem
ÐµÐ½ Ð¸Ð¸
¶ à¸
Ĳ áĢ²áĢ·
Ġm ak
ĠÙ¾ ÛĮØ´
à¸£à¸µ à¸
ĠÙĪØ§ÙĦ Ùħ
áĢ ¥
Ġäºļ ç¾İ
é ĵ
ãģ ļ
ÅĤ ad
Ġà¤¸ à¤¾à¤
Ð Ķ
Ġqu y
- -
Ð¸ÑĤ ÑģÑı
ãĤ ĥ
Ġol an
ĠáĥĶ áĥłáĥĹ
0 4
k in
ĠáĢĢ áĢŃáĢ¯
á»ĭ ch
Æ¡ i
ÐµÐº Ð°
Ġà¦¬ à¦¾à¦
Äĥ n
Ø§Ø¦ ÛĮ
ov Ã¡
ÑĢ Ñı
Ð¿ÑĢ Ð°Ð²
ĠÙĩ Ø³Øª
à¤¨ à¥Ģ
áº¡ o
ci o
Ġà° ²
Ġfo i
Ġáĥ¨ áĥĶáĥĽ
Ġáģ ı
Ñĭ ÑĪ
Ġexper ien
á»ĩ n
ĠÃª tre
à°¨ à±ģ
áĢ² áĤķ
Ġ ÚĪ
Ð½Ð° Ñĩ
Ġse u
Ġ×ķ ×Ĳ
h d
l ine
p ada
ÙĦ Ø¨
el t
§ à¸´à¸
un n
Ð°Ð» Ñĸ
à¹ī à¸Ļà¸
Ġb at
ĵ à¸
Ġ×ĳ ×©
Ġs am
ĠA uf
ik o
ĠÏĥ ÏĦÎ¹
ĠìĹ ¬
à§Ģ à¦°
æ º
Ġà¦ ¡
àµģà´³ àµįà´³
Ġel ler
à°ķ à±ģ
Ð°Ð¶ Ð´
ĠÚ¯ Ø±
Ã´ n
å®¢ æĪ·
ĠÂ ¿
ì§ Ħ
a ir
Ġ×Ĳ ×ľ
å± ķ
ĠÏĢÎµ ÏģÎ¹
it ed
Ġà¤ī à¤¨
no ÅĽci
ĠØ³ ÙĬ
į è´¹
Ġle bih
íı ¬
ers t
ĠÄĳ i
w y
Ġk ad
à§įà¦ ²
Ð½ Ðµ
ĠØ³ Ø§Ø²
áĢ±áĢ¬ áĢº
ĠëĤ ĺ
Ġ Å
Ġa Ã§
ai res
Ġàª Ł
± à¹īà¸
E W
Ġprov id
æ³¨ åĨĮ
é ł
ĠÑģ Ð¾Ð²
Ñİ ÑĤÑĮ
à¥ģ à¤°
Ġ×ŀ× Ĺ
iá»ģ n
ĠÐºÐ¾Ð¼ Ð¿
ÎµÎ¹ ÏĤ
ĠThe re
Î³ Îº
d ir
Ð¸Ðº Ð°
Ð¸ Ñİ
Ġë ²
ĠÎļ Î±
à«ĩàª ¶
ĠÙĪ Ûģ
Ġv i
ari os
Ã¢ m
nie j
Ġàª° àª¹
Î³ ÏģÎ±
Ġ ÑĹ
áĢ¼ áĢ¬áĢ¸áĢ
åĪ Ĵ
Ġ1 3
Ġì ¤ĳ
Ġv Ã¦re
i ad
çĻ ¾å®¶
ĠÐ¾ Ðº
å» º
Ð² Ð¾Ð´
iá»ĥ m
Ð»Ð¸ Ð²
Ø¦ ÙĬØ³
Ġhe re
ot her
Ġs Ã«
ÑģÑĤÐ² Ð¾
àªµ àª¾àª¨
Ġc all
ĠÏĢÎ± ÏģÎ±
ĠÎ ¶
an e
Ġth ink
ust om
Ð¸ Ð¿
Ġa iad
Ġaiad ingin
áĢŀ áĢĬáĢº
ìķ ¼
n ost
Ñĭ Ñı
ê³ Ħ
ĠÑģ ÐµÑĢ
åĬ ¡
Ġ Ù¹
sch l
p res
à§ĩà¦ķ à§ĩ
k s
ãģª ãģ©
Ð¾ ÑģÐº
ä» ¶
×Ľ ×ľ
ãĤ ĩ
qu est
ĠE st
ĠØ Ł
Ġwor den
b ie
Ġ) ,
çī ©
áĥ ¤
Ð½ Ð°ÑĤÐ°
Ġy er
ŀ àµįà´ŀ
ãĤ¤ ãĥĪ
à±Ĩ à°²
a Å¥
ĠÙĩ Ø±
E S
Ġà¦¤ à¦¾à¦°
Ġbe ing
at z
ÐµÑĤ ÑĮ
å± ±
Ġsex o
áĢģ áĢ²áĢ·
ĠÐł Ð¾ÑģÑģ
ãģĹ ãģĦ
5 5
Ġ +
à¦ķ à§įà¦·
Ã¶ s
Ð ħ
æŃ £
è¿ ĩ
Ġë¶ Ģ
ĠÃ®ntÃ¢ln iri
ê° Ħ
ÎĹ Î£
ess o
çľ Łäºº
Ġbe fore
ĠØ¨ ÛĮ
ãģ¾ ãģĽ
ĠÐ· Ð°Ð¿
u a
E N
Ġques to
Ø§ÙĦ ÙĬ
Ġ Å¾
ĠÃ ľ
ĠÃ ·
Ġ×ŀ× ¢
Ġàª®àª¾àª Łà«ĩ
Ġth ose
Ġê ±
Ġn Æ°á»Ľc
ÉĻr b
è Ĳ
Ļà§įà¦ Ĺ
Ø¯ Ø±
çĻ» å½ķ
ÐµÑĢ Ð°
Ð¾Ð» Ð¾Ð³
ĠØ¨Ø§Ø´ Ø¯
à«ĭ àªķ
Ã© c
à®Ļ à¯įà®ķà®³
Ć Ĉ
al iz
àµįà´ ®
ow ych
ë £
ĠÎºÎ± ÏĦÎ±
à®¾à® ³
à¹ĥà¸ Ĭ
u u
è Ĭ
ãĥ »
en i
Ġ $
Ġà®ª à¯Ĩ
ÑĢ Ð°Ð²
O S
Ġdo es
he id
Ð¾ Ñī
×ĵ ×Ļ
p r
ĠØ§Ø ¬
ł à¸²à¸
æ ¶
åħ ³
ĠÛ °
àª¾àª £
è§ Ħ
Ã¡ y
ĠÐ ¯
ĠÐ´ ÐµÐ»
Ġh and
Ġn uev
è £
ĠÛ±Û³Û ¹Û
áĥĺ áĥĺáĥ¡
at s
àµįà´ µ
ĠÑĤ Ð¾Ð»ÑĮÐºÐ¾
ĠN EW
£áĥ ļ
å°ı æ¸¸æĪı
à¦ Ľ
ĠÐ³ Ð¾
lic hen
à¸Ń à¸²à¸
ĠP er
Ġà¤¯ à¤¹
à±įà° ļ
ÐµÐ½ Ð½Ð¾
Ã©r t
Ä±n Ä±n
Ġdi d
Ð°ÑĤ ÐµÐ»
Ġê³ µ
P art
à§įà¦ ®
ª àµįà´ª
Ùĩ ÙĨÚ¯
ĠìĿ ¼
Ïģ Î¿Ïħ
ĠÐ± Ð¾Ð»ÑĮÑĪ
à´ ¶
Ġà® °
Ġå Į
A R
ul l
áº¯ t
ê ¹
Ã¨ n
ÏĦ ÏģÎ¿
ion i
is Ã«
áº¡ t
ÏĦ Ïħ
p at
ĠÐ¸Ð½ ÑĤÐµÑĢ
Ðł Ñķ
et z
áĢ Ĥ
×¨ ×Ķ
ì¹ ĺ
Ġwor ld
à¸Ń à¸£
àª Ń
ĠP ara
Ġe a
Ġâ ĺ
Ġc ette
ĠÎ¼ Î¹Î±
Ġë§ Ī
à§ĩà¦ Ł
Ïģ Î¹Î±
á»£ p
Ĥ à¸Ńà¸ĩà¸
ĠÐ¿Ð¾Ð» ÑĥÑĩ
ak i
Ġc i
ĠØ¬ Ùĩ
à®¿à®Ł à¯įà®Ł
ĠØ¯ Ùĩ
ĠÙĬ Ø¹
ĠÎ´ Î·
Ġor az
ĠNEW Part
Ð¸Ðº Ð¸
ÑģÐº Ð°Ñı
an z
Ġt iáº¿
ÙĪØ± Ø©
Ġç ļĦ
Ò ·
àª¾àª ¦
ĠP ar
ì¶ľìŀ¥ ìķĪë§Ī
ãĥ¼ãĥ ī
åĳ ĺ
é ĥ½
Ġï¿½ï¿½ï¿½ ï¿½ï¿½
à®¾à® ®
åħ¬ åı¸
s te
ãĥ Ķ
u ally
Ġìĥ ģ
Ġand a
íĶ Ħ
y i
Ġv ocÃª
Ġg Ã¼n
it Ã¤
Ġal t
Ġv is
å®¢æĪ· ç«¯
ci on
Ð» Ñĸ
Ïħ Î½
ĠH o
ci j
Ġz e
Ġà¦ı à¦¬
Õ µ
Ø§ÙĦ ÛĮ
ÙĤ ÙĦ
ĠÎł Î±
Ð»Ð°ÑĢ Ð¸
d t
áĢ¬ áĢĽ
Ġ ÑľÐµ
Ġb il
ĠØ§Ø µ
Ġl ife
Ġp ow
àµģà´ µ
æĬ ¥
al ity
à°ª à±įà°ª
Ġt ers
Ġk al
ar r
Ġs el
ĠÎ¿ ÏĢÎ¿
åĭ ķ
Ð°Ð´ Ð¸
Ġ×Ķ ×ķ×Ĳ
Ġm as
el or
åĲ į
Ø® Øµ
Ġå ¼
id en
±áĢ ĲáĢ¼
åı ĸ
ÙĪØ± Øª
à°² à±ģ
Ø§Ø® Øª
èµ° åĬ¿
à¦¿à¦ ¶
Ö Ħ
Ġ×ŀ× ¡
Ġto do
Ġn um
Ġdis c
ÑĢ Ð°Ð¼
Ġb l
ĠØ§Ø ®
áº© m
à¦ķ à§įà¦¤
ÏĮ ÏĦÎµ
ìŀ Ħ
¾ Ļ
acj i
Ø¯ Ø§
É Ľ
±áĢ Ľ
Ġal le
ÃŃt Ã¡s
ar dz
Ġf ait
Ġ×Ķ× §
à¸² à¸Ļà¸
Ġa i
Ġwe ek
ĠÐ¶ Ðµ
um u
Ã¢n d
à«ĩàª Ł
æ ģ
iv es
Ġà®Ĵ à®°
ent ly
n Ã½
çŃ ī
àª¤ àª¾
ĠÐ¿ÑĢ Ð¾Ð²
Ð°Ðº ÑĤ
Ġk atika
áĢ¸áĢ ŀ
á»ģ n
ĠÐº Ð°ÑĤÐ¾
ic her
áĢ¸ áĢĢ
ĠØ¢Ùħ ÙĪØ²
Ġne j
ãĥ³ãĥ ī
ar Ä±
ĠâĢ ļ
ek s
b t
ess a
Ġs áº£n
çī ĩ
an i
A N
æ į
ĠÃ© ta
á»Ļ c
ë§Ī ìĤ¬ì§Ģ
ĠØ¨ Ø¯
ç ¬
Ġe ach
Ġde c
Î´ Î¹Î±
à¸Ńà¸ ¢
âĢ Ŀ
Ġâ Ļ
à°² à±ĭ
Ġf ree
Ã¶ Ã¶
Ġà®µ à®°
ĠpÅĻ ed
ÏĢ Î¬
Ġnu est
Øª Ø§
Î ļ
à®³ à¯įà®³
ÏĢÎ¿ Î¹
Ð° ÑİÑī
Ġt Ã´i
à¹ī à¸Ļ
áº¥ n
à¤ «
ÑĢ Ð°ÑĤ
áĢ¯ áĢķáĢº
u res
ĠØ§Ø³Øª Ùģ
Ġhe eft
ĠÚ©Ø´ ÙĪØ±
ĠàªĨ àªª
à¥įà¤ ²
Ġj eg
el le
Ġy n
Ġç Ļ
ur r
Ð»Ð¸ Ðº
ÐµÑĤ Ðµ
ĠØ¯Ø§ÙĨ Ø´
Ġç »
Ġb ag
inh a
ãĥ¼ãĥ ł
Ġ×ľ ×¢
Ġ×ĳ ×ª
l en
8 0
è¨ Ģ
Ġ Ø§Ø¯
Ġ à¶
¨ à¸
ĠÙħ Ø±Ø¯
à§ĭ à¦Ĺ
Ġ×Ķ× ¡
ĠØ§ÙĨ Ø¯
ĠÙħ Ùĩ
ĠÐµ Ð´
Ã ľ
à¦¾à¦ Ĺ
ĠØ§ÙĦ Ùĩ
ÈĽ ii
ĠÙĪ Ø¨
éĹ ´
ambi Ã©n
ĠN am
Ġx u
Ġch ÃŃnh
áº« n
Î¼ÎŃ Î½
Ð° Ò³
Ľà¹ĩ à¸Ļà¸
et s
Ã Ĵ
Ð» Ð°ÑģÑĤ
à¤² à¥ĩ
Ì Ģ
m os
ÙĪ Ø¬
à¤ ĸ
Ġund er
ģ áĢ²áĢ·
å¾ Ĺ
Ġáĥ ĸ
in ÉĻ
ĠÙħ Ø·
h te
Ġin n
h re
å¤ ĸ
« áĥļ
à¥įà¤° à¥Ģ
ÐµÐ½ Ð¸Ð¹
ĠÑģ Ð¾Ð±
Ġpr im
ĠáĢ »áĢķ
Ġm es
Ð»Ð¸ Ñĩ
Ø±ÙĪ Ø´
ãģ¾ãģĽ ãĤĵ
ÙĪÙĦ Ø©
æ° ´
Ġe as
Ñĸ Ñģ
ĠÙĦ Øª
ĠÐĿ Ð°
Ġh á»£p
Ġne lla
Ð¸ ÒĽ
à°¿à°ķ à°¿
ay c
C I
à¦¦ à§ĩà¦°
à´² àµįâĢį
Õ¥ ÖĢ
ÑĨÑĸ ÑĹ
æµ ·
Ġqu an
Ġnh Ã¢n
id os
Ð ľ
Ã Ģ
Ġk er
Õ¡Õ ¯
im in
ĠB ut
Ġä¸ į
Ġà¸ Ħ
Ġag ain
ĠÑĪ ÑĤÐ¾
a c
ÃŃ as
à«ĩ àª°
ç Ŀ
Ġex p
ak s
sk ie
Ð½ Ð¸Ñı
el se
à®¿à® ªà¯įà®ª
ĠØ§Ø³ØªÙģ Ø§Ø¯Ùĩ
aren a
ion es
Ã¤ g
à´Ļàµįà´Ļ à´³
im i
ÃŃ v
Ġf az
l u
f e
ìļ °
åº ¦
áĥĲáĥłáĥĹ áĥķáĥĶáĥļ
Ġad v
ar u
æ´ ²
ĠÐ»Ñİ Ð±
Ïĥ ÏĦÎ·
Ġtr ans
éĩ Į
à¨ ¾
Ġd aha
_ _
ç ·
ÙĪ Ø§Øª
Ñı Ð²
Ð¸Ð¼ Ð¸
u ro
ÙĪ Ùĩ
ÙĬ Ø«
Ġs v
Îµ Ïģ
y v
ÑĥÐ²Ð° ÑļÐµ
Ġme er
ĩà¸´ à¸Ļà¸
Ú¯ Ø§ÙĨ
ĠÎ± ÏĢ
Ð¼ ÐµÑĢ
ĠØ§ÙĦÙħ Ø´
Ì £
Ġar t
ar an
Îĳ Î£
ĠØ£ Ùħ
ÐµÐ¼ Ñĥ
ĠÑĢ ÑĥÐ±
à°¿à° ¯
ĠÂ ¹
ĠÐŀ Ð±
Ġ20 0
ä¿ Ŀ
ĠìĿ ĺ
Ġc os
Ġes s
Ġà¦¸ à¦Ĥ
Ġv ir
Ġ uy
ĠÂ ¬
ĠÚĨ Ùĩ
al Ä±ÅŁ
Ġà¦ı à¦ĩ
Ã Ķ
×ķ× ĺ
Î¸ ÎµÎ¯
ll ow
Ġv o
ç ©
Æ° a
Ġìľ Ħ
ĠkÃ¶n nen
Ġc al
æĬķ æ³¨
ÎŁ Î£
áĢĨ áĢŃáĢ¯
Ø±Ú© Øª
Ġà®µ à¯ĩ
od z
j es
Î³ Î¿
Ø® Øª
Ġà¤¹ à¥Ģ
Ù ĵ
w ay
Ø« Ø±
ĠIn d
íķĺ ê³ł
Ð¾Ð² Ð¾ÑĢ
Ñĸ ÑĪ
ĠáĥĶ áĥ¡
ãĤ¹ ãĥĪ
Ġte ch
à¦ «
ÐµÐ½ Ñĭ
b r
Ġsupp ort
ãĤĮ ãĤĭ
ĠÄĳá»ĭ nh
áĥĲáĥ ¤
ĠØ¯ Ø§Ø±Ø¯
Ð°Ð² Ð°
Ïģ ÎµÎ¯
Ġen d
ĠØ§ÙĦÙħ ØŃ
Ġp em
Ã ĭ
ĠÙĪ ÙĬ
Ġw ur
ĠÂ ¡Â
Ð¾ÑĤ Ð¾Ð²
ĠÐŀ ÑĤ
ìĦ ¸
ĠN o
Ä± yor
v a
ãĥ į
Ħà¸ ¸à¸
à¸Ļ à¹Į
à¤¯ à¤¾
Ġ×Ķ× Ľ
Ġà¦¥ à§ĩà¦ķà§ĩ
Ġv u
à¯ģà® ªà¯įà®ª
ĠÐĴ Ñĭ
Ġc le
all a
Ġpro f
áĤı áĢŃáĢ¯áĢĦáĢ¹áĢ
ÉĻs i
Ð¸ÑĤ Ð¾
Ġ Æı
áĢ±áĢĲáĢ¬ áĢ·
ĠÎ¼ Î±
éĢ ļ
re d
à°Ĥà° ¡
Ùģ Ø³
1 1
iv a
ce k
à°¿à° ª
àª¾àª° à«ĩ
ĠO n
à´ ¹
on y
im iz
Ø ¡
Ġ×ĳ ×Ķ
Ġa ko
Ġs Äħ
áĥĺáĥ¡ áĥ¢
idad es
Ġbo ok
ÉĻrb ayc
Ġz ap
àµģà´ £
ĠP o
ìľ Ħ
Ġcom me
Ġs inh
ĠØ¨ Ø®
Ġh Æ¡n
à¤¾à¤° à¥Ģ
ÙĢÙĢ ÙĢÙĢ
j or
Ùĥ Ø§ÙĨ
el en
ĠáĢ ±
ĠØ¨ Ø¹
ÙĦ Ùĩ
Ġkul lan
ij d
Ã¤ ll
Ł à¸
iv ing
ĠÙĨ Ø´
ĠÙģ Ùī
áº£ ng
Ã³ ÅĤ
ãģ¨ æĢĿ
Ġsu b
l ed
ĠØ¨Ø§Ø² ÛĮ
Ġf aire
à¹ Ĩ
Ġwh ile
ĠÒ³ Ð°Ð¼
Ġs Ãº
Ġon t
Ð¾ÑģÑĤ ÑĮ
Ġà¦Ĩ à¦°
Ġà¸ ŀ
ĠÂ £Â¬
ãĥķ ãĤ
åį Ĺ
ĠÐļ Ð°Ðº
×ķ ×Ļ
amp ai
Ġca o
Ġpro cess
Ġpr in
Ġå½ ©
ot os
ĠÐ½Ð° ÑĪ
Ġà¤¤ à¥ĭ
æľ Ł
Ãª m
ÄĽ l
Ġk un
he d
æīĭæľº çīĪ
Ø§ Ùĥ
Ġv al
Ã ĸ
ion al
áĢ¬áĢ¸áĢ Ļ
áĢĽ áĢ¾
à±įà° ¸
ĠÙĬ Ùħ
ĠÑģÑĢ ÐµÐ´
åĬł çĽŁ
ous e
à´ ·
Ġí Į
ĠÙĬ Øª
Ð´ Ð°Ð½
Ġà¸ Ĺà¸
ĠÄĳá» ģ
Ġc ustom
áĥĲáĥ ĳ
Ġar ound
ĠÐ½Ð° Ñĩ
å½ ±
ĠØ¬ Ùħ
Äĵ m
Ð½ Ñĥ
Ø§ÙĨ Ø¯
u es
åĽ ŀ
æ¬ ¾
æĬ Ģ
ĠÐ¡ ÑĤ
áĥĿáĥ ª
Ġm Ã¬nh
Î¹Îº Î¿
à§ĩ à§Ł
ler in
ĠØ® Ø±
ĠV iá»ĩt
åħ įè´¹
Ġess ere
u c
à¦¾à¦ ¶
ĠD es
áĢŀ áĢ°
ist Ã¤
Ġal g
Ġ×Ķ× Ĵ
Ġm i
à¦² à§ĩ
re i
ãĥĥ ãĥĹ
Ð°Ð½ ÑĤ
Ã¶ y
Ġna gy
Ġé Ģ
ÙĤ Ø±
à¤¿ à¤°
ĠSex o
ĠØª Ùĩ
Ġkh o
à± Ĥ
à° ¹
ĠÐº Ð¾Ð»
ĠÐ¸ Ñħ
g un
Ġì¹´ ì§Ģëħ¸
á»¥ c
ĠìĦ ľ
Ġê ¹
Ø§Ø± Ùĥ
ÙĨ Ø³
Ġs Ã£o
åı Į
Î´ Î·
ĠÑĥ Ð´
í Ĵ
am iento
Ġà´Ĵ à´°
áĢ¬áĢ¸áĢ ŀ
Ġngh iá»ĩ
ìķ ½
m et
à¦¾à¦¦ à§ĩà¦°
ĠdÃ© c
Ġ×ľ ×©
ies z
ĠØ§ÙĦØª Ø¹
7 7
à±įà° ®
Ð Ľ
Ġ×© ×Ĳ
Ġ×Ĳ ×ķ
ÙĬ ÙĪ
ãĤ ±
r ie
ç¤ ¾
ay an
áĥĲáĥ ĸáĥĶ
ak a
ra w
à¥įà¤ ¥
Ġoff er
ij as
áĥĹ áĥĲáĥľ
äº ¤
ĠÄĳá»ĵ ng
Ġle ad
à«įàª¯ àª¾
×ŀ ×¨
at her
Ġæ Ń
in es
ĠÃ© c
ÃŃ r
Ġáģ Ĥ
« à¸Ļ
ĠT er
è®¡ åĪĴ
à§ĩà¦ ¤
Ãª me
ĠÎµ Ïħ
ÐµÑģ ÑĮ
Ġge b
à«įàª ²
åĨ Ĩ
Ġà®ĩ à®¨à¯įà®¤
Ġàª ¡
iv ers
ì ¡°
Ġpl ace
ÎŃ Î½
ÙģØª Ùĩ
& #
à¹ī à¸Ńà¸ĩà¸
ÐµÐº Ñģ
Å« t
owi ed
à¹Ħà¸ ¥
Ġàª¤ à«ĭ
Ġt Ã¶
ģ à¹Ģà¸
ĠÐ± Ð¾Ð»
at en
Ï Ĭ
ÑĤ Ð¾Ð±Ñĭ
Õ¡Õ µ
á Ł
Ġz ÅĤ
Ġq il
Ð¸ Ð¾Ð½
à° ľ
à«ĩàª ķ
ê³ µ
à«įàª¯ à«ĭ
çĽ ®
al m
åĲ Į
Ø§Ø³ ÛĮ
ĠáĥĲáĥ ĵ
Ä±l m
Ãº n
ª à¯į
Ø² Ø´
áĥĿáĥĳ áĥĺáĥ¡
ĠÑĩ Ð°ÑģÑĤ
á»ĳ t
Ġë į
ĠÎ¼ ÏĢÎ¿
Ġáĥ «
æ §
Ïī ÏĥÎ·
Ġsk al
áĢĬáĢ¹áĢ ·
ê ´Ģ
à¤¾à¤ ĩ
Ġav ail
ig a
p s
ÏĮ Î½
ä» ĺ
ones ia
x x
Ã¡l nÃŃ
Ĺà¸ ¢
Å« s
Ġn as
Ïħ Ïĥ
ĠÐ² Ð¸Ðº
et t
ction s
à¯ĩ à®°
Ã³ r
aj o
Ò³Ð¾ Ð¸
ll es
Ð°Ð» Ð°ÑĢ
ÄĻ p
ĠØ§Ø ¨
k or
ov at
Ð°Ð¹ Ð½
àª¿ àªµ
Ġ201 7
Ġest Ã¡
Ġ ie
p le
che r
it Äĥ
Ġàª¸ àª®
Ġt ym
Ġáĥ¨ áĥĶáĥ
ĠÙħ ÙĦ
Ġ ãģ®
ĠÐº Ð»
ê¸ Ī
l ijk
Ġà¦ªà§įà¦° à¦¤
áģ¿áĢķ áĢ®áĢ¸
ĠÐ¾ÑĢ Ð³Ð°Ð½
éĩ į
×ŀ× ª
ĠØ± Ø³
Ġtr ab
eb ut
ĠØª Øµ
Ġãĥ ķ
áĢħ áĢ¹
Ð» ÐµÐ½Ð¸Ðµ
Ġold uÄŁ
Ġà´ Ł
à¥ģ à¤²
Î¾ Î·
Ġk ur
Ġlo ve
Ġà¦ §
à´¾à´ µ
Ġil ÉĻ
áĥ£áĥ ľ
à¯Īà® ķà¯įà®ķ
Ùģ Ø±
Ø§ÙĦ Ø©
d ad
Ïİ ÏĤ
Ġà¦¨ à¦¿à¦
ĠâĢĭ âĢĭâĢĭ
Ġk Äģ
ĠÐ½ Ñı
at to
re ct
ä½ į
Ġà¤ķ à¤¹
ĠáĥĹ áĥĲáĥķ
Ġàª¤ àª®
Ġçľ Łäºº
Ġb ah
à´¿à´¨àµįà´ ±àµĨ
Ø² ÛĮ
Ġm ad
Ġà¤² à¥ĩ
Ġcomm un
ãĥ Ģ
Ð¾Ð²Ð°Ð½ Ð¸Ñı
èµĽ è½¦
le ase
ç® ¡
em os
Ġì Ľ
íĶ ¼
Ġï¼ Ł
Ġthe o
Ġre ally
æĦ Ł
ĠThe y
ì ¶Ķ
ØªØ± ÛĮÙĨ
æ ¡
Ġà¸ ķ
ãģł ãģĳ
d Ä±r
×ĳ ×¢
amb Ã©m
ĠÐ´ ÐµÐºÐ°
ÑĥÐ»ÑĮ ÑĤ
Ġch ild
ĠØª ÙĪØ§ÙĨ
Ġdiffer ent
e le
l and
áĢĲ áĢļáĢº
Îµ Î»
Ä ·
á»© ng
is k
ĠãĤ ·
ä» ĸ
é ©
Ġv ed
Ġge Ã§
Ġà¤Ĩ à¤¹
Ðµ ÑĨ
é ļ
à¸Ļ à¸²à¸
Ġà¦ ĺ
A S
Ġc Ã²n
å ¢
Ġtr a
Ø§Ùħ ÙĦ
Ñĸ Ð¼
é ¾Ļ
à¤¾à¤ Ī
Ã¦ s
uy á»
Ð¸ Ð½Ñĭ
lig t
Ġ1 4
Ê» o
Ġìķ Ī
íĸ ī
ĠØ¢ÙħÙĪØ² Ø´
ĭ Ĺ
Ġg ro
ä½ ¿
er d
ci p
Ġp ie
Ø¹ Ø±
p on
Ø±Ùĥ Ø©
ÄĽ t
à´¿à´² àµįà´²
íķ Ļ
ê² ½
h a
ĠÏĥÏĦÎ¹ ÏĤ
Ġe ar
ĠáĢĴ áĢ®
Ġp ost
Ġáĥĺ áĥľ
v ad
Ġáĥĺ áĥĽ
à¯ģà®³ à¯įà®³
Ġy aÅŁ
Ä« v
ĠAz ÉĻrbayc
á»ĳ n
ĠV or
ÛĮÙħ Øª
ĠÑĤ Ð¾Ð²Ð°
è ¥¿
Ġk Ã¤y
o res
áĥĶáĥł áĥĺ
ĠÎ ¥
ĠÏĢ ÏģÏĮ
Ġne bo
ĠT o
Ġs á»Ń
Õ ¿
áĢŃáĢ¯ áĢĦáĢ¹áĢ¸
Ġmá» Ľi
Ġto t
Ġe le
à®¿à® ´
áĢľ áĢ¬
l ia
Ġla v
Ġn Ãªn
ÏĮ ÏĤ
ëª ħ
ÑĥÐ² Ð°ÑĤÐ¸
à´ ¬
à«įàª¯ à«ģàªĤ
×ĵ ×¨
Ġ×ľ ×¤
Ðº Ð¾Ð¹
Ġd it
as z
Ġí Ķ
Ð¾Ñģ ÑĮ
Ð¿Ð» Ð°ÑĤ
ĠØ· Ø±
Ġm Ã¡r
ĠÂ ½
al k
h ip
ĠØ§ÙĦØ º
Ġm ol
à±ģà°² à±ģ
áĢ° áĢ¸áĢ
Ġà¦ıà¦¬ à¦Ĥ
ĠØ§ Ùĵ
ĠÐ¿ÑĢÐ¾ Ð¸Ð·
ĠktÃ³ re
f ter
t u
iá»ĥ u
Ã¶ v
Ġí Ĩ
ĠNe w
Ġ ur
ĠÐ±ÑĥÐ´ ÐµÑĤ
Ġpu b
Ñĸ Ð±
Ġg es
ÐµÐ¶ Ð´
Ġm ag
Ġwor dt
è® ¾
ue l
ĠáĥĴ áĥĲáĥĵ
æĹ Ĺ
ĠÎ Ī
Ġo le
Ġg u
çĻ º
z Ã¡s
ĠM ad
Ú© Ø³
v ing
z za
Ġb es
çī ¹
Ø±ÙĬ ÙĤ
k Ã¤
ĠÃ ´
ill a
ãģª ãģı
ĠÐ´ ÐµÑĤ
Ġpro gram
èµ°åĬ¿ åĽ¾
Ġpel o
Ð¸ ÑĢÑĥ
Ġà¤ķ à¤¿à¤¯à¤¾
áĥĿáĥĳ áĥĲ
il ik
ied er
Ġ ãģ¾
à¦ ¡
y on
Ð°ÑĤÑĮ ÑģÑı
åĨ ħ
Ġd á»±
Ã¡ ban
Ã¡ j
Ġæĸ °
íķ ł
an yak
ĠP our
×ł ×Ļ×Ŀ
im ento
Ġmo Å¼
Ġus ing
iá»ĥ n
at Ã¡s
è· ¯
è¡ ¨
ê² ©
Ġc Ã¡ch
ç ³
Ġfor m
àª¿àª ²
al t
à¦¦ à§įà¦
Ġimp ort
Ġel Åĳ
çł ģ
ĠÐ¼ Ñĭ
ĠM e
à´ ļàµįà´ļ
ÙĪ Øª
Ġqu al
Ġk Ãµ
Ġth áº¿
à´¾à´ ķàµįà´ķ
ĠÎºÎ± ÏĦÎ¬
ien do
Ġche ck
Ġk ung
ĠÐ³Ð¾Ð´ Ð°
Æ°á» Ł
s Ã¡g
á»ĵ i
à°¿à° ²
ek a
à°¾à° Ĥà°
at or
ap i
Î± Î»
Ã ĥ
Ð² ÐµÑĢ
à´ Ń
Ġêµ ¬
Ġà¤¹ à¥ģà¤
ãĥ ¯
å¥ ĸ
Ġl l
Ġk j
à®¤à¯įà®¤ à®¿à®²à¯į
Ġ1 6
b ile
Ġte am
Ġ×ĳ ×¨
Ġæ µ
áĥĲáĥ ¦
p re
ĠãĤ ³
à¤¾à¤¨ à¥ĩ
Ġb ÄĻ
n Ã«
w ays
ÅĤ u
à®ªà¯įà®ª à®Ł
as on
é ħ
im it
we en
ãĤ º
Ġè¿ Ļ
Ġë Ĳ
ll i
s Ã¤
Ġpued e
ëŁ ¬
Ġà¤Ĩà¤¹ à¥ĩ
Ġs ol
am an
or um
ĠÐ¼ ÐµÑģÑĤ
Ġn ov
Ø¯ Ø¯
ĠØ¯ Ø§Ø¯
on as
ìŀ ħ
àª¾àª ³
à«įàª ¸
à°¾à° ¤
áĢĲ áĢ¹
ä¸ İ
à¤ķ à¤°
p or
Ġì ¡°
ĠÙģ ÛĮ
à«ĭàª ²
it as
Ó ¯
· à§įà¦Ł
Ġtr Ã¨s
Î¼ Î®
ãĢ ģ
ĠW y
Ñ ĵ
ĠÕ °
ie le
Ġ áĥĲáĥľ
ch o
Ã¦ n
ĠÐ ¨
Ġa quest
ĠÛģ Ùħ
ĠÏħ ÏĢÎ¿
ÃŃ s
ĠáĢľ áĢ°
Ġw el
im es
Ġl ar
Ġc Æ¡
Ġ0 9
Ġ; &#
Ġr Ã©s
Ġdes de
ãģ§ãģĻ ãģĮ
Ġo leh
æĶ ¿
è¯ ´
±à¸ ģà¸
Ġv olt
ĠGr atis
ç¨ ĭ
à¤ķà¥įà¤ ·
h od
à¹ĥà¸« à¹īà¸
ÉĻ c
Ġsom et
Ġh im
àª Ī
ĠÃ§ alÄ±ÅŁ
ĠØ® Ø¨Ø±
if ic
×ľ ×Ļ
Ġmu ito
u w
un den
Ġwe it
ĠØ¬ Ø¯ÛĮØ¯
i q
Ġto p
à¦ķ à¦¾à¦°
Ä« dz
Ã¤ ng
Ġlas t
Ġno g
ĠØ®ÙĪ Ø§Ùĩ
à¤Ĥ à¤¦
Ġv ol
ì ¦
ÐµÐ½ Ñı
Ġr áº¥t
Ġle g
j t
ĠØ° ÙĦÙĥ
szy st
Ä £
ĠÐ³ ÑĢ
ĠW ir
ĠÐ¿ Ð¾Ð·
àµĨ à´Ł
Å¡ tÄĽ
ĠØ§ÙĦØ ²
cy j
à°Ł à±įà°Ł
Ġf un
os Å¥
à°¿à° °
ĠÐº Ð¾ÑĢ
ĠØ§ÙĦÙħ Ø³
Ã© re
ãĤĤ ãģ®
à¦¨ à§ĩ
Ġì¶ľìŀ¥ ìķĪë§Ī
Ġbe c
à¸£à¸±à¸ ļà¸
áº¿ u
Ġthá» Ŀi
Ġfe el
ìĹ Ń
ĠÐ´ Ð¾Ð¼
Î¹Îº Î®ÏĤ
ĠPor no
×ķ×ł ×Ķ
Ð¸ÑĢ Ð¾Ð²
Ġs ame
Ð» ÑĮ
ĠáĥĲáĥ ¡
ĠÃ©t Ã©
k ov
j er
f en
Äĥ s
Ġse k
Ġb oth
f ect
ç Ī
Ð· Ðµ
Ð¸ÑģÑĤ Ð¾Ð½
à° ¬
oor d
Ġç İ
Ã¨ me
Ġ3 80
Ġtr Æ°á»Ŀng
à¹ĩ à¸Ńà¸
Ð± Ð¾ÑĢ
Ġáĥ¨ áĥĶáĥ¡
à¸Ń à¸Ńà¸Ļ
Ú© ÛĮ
un ÈĽ
Î¯ Îº
æĥ ħ
ĠãĤ «
Ð° ÒĽ
ÙĦ ÙĤ
i ous
ĠØ¨ ÛĮØ´
Æ°á»Ł ng
Ġu nha
Ġà´ ¦
owe j
Ġn Ã¤r
áĢ¬áĢ¸áĢ ľ
Ġp Äģr
Ġa ir
ÑĨÐ¸ ÑĺÐ°
Ð¼ Ð¾Ð¶
Ġa ku
Ġhv or
àª¾àª Ĺ
áĢ± áģ¾áĢĢ
à´ķàµįà´ ·
te a
r ag
Ġh Ã¬nh
Ã¼n k
Ġà§¨ à§¦
Ġed he
Õ¡ ÖĢ
ĠãģĿ ãģ®
à¦¿à¦ Ł
ÏĦ ÏīÎ½
ĠÛ² Û
Ġth Ã´ng
ÑĥÑİ Ñī
áĢĽ áĢ½áĢŃ
×© ×Ķ
åĪ ¶
×ķ× ŀ×
Ġk ui
om o
ľà¸ ¹
ĠÙĪ Ø³
ÐµÐ» Ð¾Ð²
à°Ĥà° ²à±ĭ
Ġk as
ìĿ¼ 1
ĠÙģ Ø±ÙĪØ´
Ġthá» ±c
à°¾à° ®
ĠÚ©ÙĨ ÛĮØ¯
èĪ °
ãĤĮ ãģ¦
Ġt ou
ĠØ§Ø ´
áĢĶáĢ¹áĢ Ļ
à¥Ĥ à¤¨
Ġserv ice
j ÃŃ
Ø§Ø¦ ÛĴ
Ġgi or
à®° à¯įà®ķà®³
Ġàªķàª° à«Ģ
p k
à´¾à´¨ àµįâĢį
à¸Ńà¸Ńà¸Ļ à¹Ħà¸¥
al is
Ġgi bi
ĠK Äį
Ġì ½
ĠáĢ±áĢ Ľ
ãĥ Ŀ
áº¡ nh
Ġ×Ķ ×Ķ
l os
ÛĮÙĨ ÛĮ
Ġbet ween
Ã© d
Ġa Ã±os
à¹īà¸ §à¸
àµģà´ ±
ĠI ch
ÅĤ e
Ð¸Ð» Ð°
à¦¨ à§ĩà¦°
Ġth ough
ĠØª ÙĨ
à¹Ħà¸¡ à¹Īà¸
o ÄŁ
ÑĥÐ¿ Ð¸ÑĤÑĮ
×ķ× Ķ
ĠB er
Ġëĵ ±
ĠÐº ÑĬ
ĠÐ° Ð½
ĠØ¨ Ø§ÛĮØ¯
Ġla in
íĴ Ī
Ġb lo
m Ã©ny
Ġc ui
àª¾àª Ī
Ġà´ħ à´µ
u om
Ġavail able
an Ã«
ĠÐ¿ Ð¾ÑģÑĤ
ab ilir
q ip
ªà¸ ¸à¸
á» Ĺ
Î¯ Î¶
Ø Į
ĠØ§ÙĦÙĬ ÙĪÙħ
m in
Ġå½© ç¥ŀ
iÄĻ k
Ġs ign
à§įà¦ ¨
ĠA d
3 3
çİ ©
Ġâ Ĩ
Ġà° Ī
ĠØ® ÙĦØ§ÙĦ
Ø§Ø¹ Ø©
Ã¤ v
à¦¾à¦ Ł
ÙĬ Ùĩ
àµģà´¤ àµįà´¤
Ġ×ŀ× §
Ġmark et
Ġst ill
ĠÎ¸ ÎŃ
ci os
è¿ Ĳ
ĠG i
ÙĪ Ùī
ĠÙ¾ Ø§ÛĮ
Î¼ Î¹
Ø§Ùģ Ø©
ĠÐ¿ÑĢ Ð¾ÑģÑĤ
à®® à¯įà®ª
Ġâ Ĥ¬
Ġop t
ÑĨÐ¸ Ð°Ð»ÑĮ
í ģ
Ã ģ
Ð½ ÐµÐ¹
ĠÙħ ÙĪØ±Ø¯
to v
Ð° ÐµÐ¼
a q
Ġthá» ©
Ġ×ľ ×ĳ
å¼ ı
Ã¡ ly
àª¾àª° à«Ģ
lar i
à¸² à¸£
à¤Ĥ à¤¤
Ġun ter
Ø¯ Ùī
as an
ĠW o
Ú© ÙĦ
ĠÄĳ iá»ģu
àªĤ àª¤
ĠÑĤ ÐµÐ¼
ic ally
Ð½Ð¾ÑģÑĤ Ñĸ
l Ã¼
ie i
Ħà¸§à¸²à¸ ¡à¸
à°¾à° Ł
ĠÑĢ Ð¾Ðº
Ã¶ z
ĠÂ ·
à¹Ī à¸Ļà¸
ĠÐ ¦
ra u
agy ar
ĠA b
ĠÐ¼ Ð°ÑĤ
à¦¾à¦ ļ
Ġs te
è§ Ĥ
à¦¾ à§ľ
Ġm Ãªme
Ïĥ ÏĦÎ¿
ÏĦÎ· ÏĦÎ±
ut ion
åķ Ĩ
Ġs es
Ġso ll
n er
Ã¤ h
ĠØ¬ ÙĪ
ãģ ¹
id up
Ġà¦ľ à¦¾à¦¨
Ġt an
Ġr en
Ã ı
áĥĲáĥ ¬
ÙĨ Ø§ÙħÙĩ
å¾ Į
Ġt ambÃ©m
Ġp a
Äĵ l
ĠÙĪ Ø¹
ÐµÑĢ Ð¸
Ġà¦ª à¦¾à¦°
it z
ģ éĢŁ
Ġ1 8
áĢģ áĢ»
Ú© Ú¾
ĠÎ´ Î¹
ìĺ ģ
ãĥ ¢
Ġle ar
Ġ id
Ġpel a
Ð¾Ð± ÑĢ
á ¿
ri b
d uk
Ñį ÑĤ
à´ ¡
Ġw enn
ĠØ¨ Øª
æĹĹ èĪ°
ide o
çľ Ł
ve t
he it
i kan
ĠØ´ Ø±Ú©Øª
Ġà¦ī à¦ª
Ð¸ÑĤÑĮ ÑģÑı
ë° Ķ
ĠÐ¾Ð± ÑĬ
Ġãģ Ĥ
il is
Ġf ound
Ġtr av
áĥł áĥĿ
ĠÙĪØ§ÙĦ Øª
Ġl ot
Ġi hr
Ġg ener
Ġw p
Ġhe ly
Ġ Ã£
Ġ0 3
å¯ ¾
à¦¾à¦ §
ĠØ³ ÛĮ
ĠÂ ³
Ð¸ Ð¶
ÃŃ cul
Ġcomp any
Ïĥ Ïī
Ġg ut
ĠWh at
à¦¿à¦¤ à§ĩ
á»ķ i
ĠØ§ÙĦÙħ Ø¹
áĢķáĢ« áĢĲáĢļáĢ¹
ĠÑĥ ÑģÑĤ
Ġt in
»áĢķ áĢ¬
ĠìĬ ¤
ĠÃ İ
Ġâ Ķ
ĠÐ¸ÑģÐ¿ Ð¾Ð»ÑĮÐ·
Ä± ÄŁ
à«įàª ·
ç ²
ze it
Ġs ta
Ġn ost
æĺ İ
a cak
Î³ Î³
Ġsh ow
Ġt ro
Ġp ol
ĠÎ±Ïħ ÏĦÏĮ
ìĿ¼ 2
Ġè Ģ
å° Ĩ
Ð¼ Ð°
s ta
Ġgo ing
Ġm w
àª «
ÐµÐ¹ ÑģÑĤÐ²
ur as
Ġl u
áĥķ áĥļ
eg a
Ġâ ĸ
uj ÃŃ
Ñģ ÑĮ
ĠÐ» ÐµÑĤ
id er
Ø´ Øª
à¹Īà¸ ĩ
ĠÐ²ÑĢÐµÐ¼ Ñı
Ġáĥ ¯
on ne
g g
ÃŃ n
n s
Ġha cer
ĠØ± Ø§Ùĩ
é »
à®° à¯įà®ķà®³à¯į
ÐµÐ´ ÐµÐ»
ap a
à¥ĩà¤ Ł
c el
Ð £
Ã ĩ
à°¾à° ķ
ow o
åı £
ĠÐµ ÑģÐ»Ð¸
Ð¸Ð· Ð½
Ġìŀ Īëĭ¤
ip o
Ġk á»
Ġjs em
ĠÙĤØ± Ø§Ø±
ãĤĬ ãģ¾ãģĻ
Ġt ambiÃ©n
Ġpar te
ĠáĥĲáĥ ¦
ĠÚ© ÙĨØ¯
Ġme jor
s p
v iew
ĠØ§ÙĦØ¹ Ø±Ø¨
ĠØ£ Ùĥ
ung an
ãĥ Ļ
àµģà´£ àµįà´Ł
at ure
Ľ à¸£à¸
æº Ĳ
Ĥ à¸Ńà¸ĩ
Ķ à¹Ģà¸
Å¯ j
ĠÑĤÐ°Ðº Ð¶Ðµ
? ?
Ġto o
à¦¿à¦ ®
Ø§ Úº
Ã Ĥ
Ġku wa
Ïģ ÎµÏĤ
Ġä» Ĭ
åº Ĺ
Ġv il
áĢŃáĢ¯ áĢĢáĢ¹áĢ
ĠãĤ µ
à´¿à´ µ
ĠÑĩ ÐµÑĢ
ÑĥÑī ÐµÑģÑĤÐ²
ce pt
Î´ Î¹
àª¨ à«ģàªĤ
en a
Ġch i
Ġt a
Ïĥ ÏĦÎ±
ĠÐ¾Ð± ÑĢÐ°Ð·
e ur
à° £
Ġp at
Ø¬ ÙĪØ¯
ĠÙĨ ÛĮØ²
Ġsz Ã¡m
Ġdi v
Ġ0 1
ĠØ§Ùģ Ø²
u wa
ëĲ ĺ
ĠÙĤ ÛĮÙħØª
ĠØ´Ùĩ Ø±
ĠÐ° Ð±
Ð¸Ñģ ÑĮ
à¹Ħà¸Ķ à¹īà¸
Ġsh um
É Ķ
ĠÑĥ ÑģÐ»
g ar
æ¬ ¡
Ġk arena
Ġì Ļ
Ġc our
O R
Ð» ÐµÐ´
en de
Õ¸ÖĤÕ ´
Åĳ k
Ø± Ø§Ø¡
ut z
owan ie
ª à¸´
à¸Ļà¸µ à¹ī
à´ķàµįà´ķ àµį
Ġmenj adi
Ġ×Ķ× ĵ
Å¡an as
uri le
Ġmon th
ĠÎ± Î»Î»Î¬
en do
ĠB aÅŁ
Ġ ide
ë Ħ
Ġàª ¯
ĠÙĨ Ø§Ùħ
à¹Īà¸ §à¸
y y
Ġbe z
j nÃ«
à®¾à® ®à¯į
Ġp are
áĥĹ áĥķáĥĺáĥ¡
ĠæĹ ¥
d ah
Ġpro ject
ĠØ² ÛĮ
ig li
æĢ İ
áĢ ı
ĠÐ· Ð°Ð²
à¥įà¤ ķ
Ġp Ã¤Ã¤
ĠN ach
ĠìĨ Į
áĢģ áĢ¼
ru ik
Ġmen y
om b
ĠÐ¿ Ð°Ð´
Ġters ebut
Ġtien e
Î¯ ÎµÏĤ
à¦ Ļà§įà¦Ĺ
Ġde p
Ġaus si
ĠáĥĲáĥ łáĥ
ĠÐºÐ¾ Ð¸ÑĤÐ¾
Ġ Ã¼z
Ġl ub
àµįà´ ¥
u is
èī ²
é ª
ĠÙ¾ ÛĮ
un do
ĠáĢ ļ
s ka
ìĥ Ŀ
Ġin t
Ġ Ø§Øª
ed en
en ye
ĠØ§Ùħ Ø§
ĠÂ ´
end re
Ħ áĢ¶
re ad
ĠÎŃÏĩ ÎµÎ¹
ĠÐ¿ÐµÑĢ Ð²
ê° ķ
Ġìľ ł
ç ģ
Ġinclud ing
ç ¦
à¤¾à¤ ķ
Ġm ain
ĠØ¨ ÙĦ
×¨ ×ª
Ġc ent
nÃŃ m
Ġáĥ£áĥ ľ
ĠÙĦ Ùĩ
íĨ ¡
à¯ģà® °
ÉĻ z
ĠÏĥÏĦÎ¿ Î½
¡ à¹Ģà¸
Īà¸ °à¸
ĠM ar
Ã¡r a
åįķ åıĮ
Ġ×ľ ×Ĺ
Ġapp ro
ĠÑģ Ð°Ð¹
Ġen c
ÑĥÑĩ ÑĪ
Ġke ep
Ġãģĵ ãģ®
Ġ1 7
owa Äĩ
à§ĩà¦ ĵ
ĠW hen
Ø§ÙĦ ÙĬØ©
Ġx e
ĠEs p
Ġà¤¸à¤¾à¤ ¥
Ġb anyak
à¸µà¸ ¢
ĠØ¨ Ùħ
Ġel le
à°ķà±įà° ķ
Ġà¦ķà¦° à¦¾
Î¿Ïį Î½
Ġd ata
Ġcomp le
ĠÑĤ ÐµÑħ
Ġáĥ¡áĥĲáĥ ®
Ġrequ ire
à´¸ àµį
Ä ı
Ġs aya
«à¸ ¥à¸
Ñĥ Ð·
Ġà¤ķà¤° à¤¨à¥ĩ
ĠØ¢ Ø¨
Ġr un
Ġis ang
à¤¾à¤ ı
f ahr
è ¢
ÐµÑĤ Ð°
Î¯ Î¿Ïħ
åħ ĭ
ĠR o
ĠÑı Ð²
à§ĩà¦ ®
Ġ×Ĵ ×Ŀ
à¦¾à¦ ģ
itt le
Ġs ou
Ć ć
Ġprz ed
ÙĨ ÙĬØ©
ÙĬ Ø¨
ĠáĢķ áĢ¼
æľ į
Ġinc re
Ã Ī
ĠØ§ ÙĪÙĦ
ÃŁ e
scha ft
Ġc um
ĠÙ¾ Ø§Ú©
à¥įà¤ ¹
ìĭ ¤
em e
ici Ã³n
åį ģ
Ġà° Ń
Ġà¤ª à¤¹
à¦¾à¦ ĵ
p h
ĠåĮ Ĺäº¬
èµ Į
ĠÐº Ñŀ
Ġt ai
Ġf ue
ãĥ© ãĤ¤
ĠÐ½ Ð°Ð·
¥ à¹ĩà¸Ńà¸
Ã³ k
Ġnu ov
Ø¹ Ø¨
are s
Ġà® ı
s che
Ġbu ild
ig er
Ġexperien ce
Ġhe alth
Ã¶ l
Ġu 04
ÏĢ Î·
Î¼ ÏĨ
ìĦ ł
et zt
ĠÎľ Îµ
ĠãĢ ĭ
ĠáĥłáĥĿáĥĽ áĥĶáĥļ
ìĿ´ ëĭ¤
ĠC a
ĠÐ¿ÑĢ Ð¸Ð½
ĠÐ¿ÑĢ Ð°
ãģĹ ãģ¾ãģĻ
Äĥ t
ĠÂ µ
ta ct
Ġàª §
Ġv iÃªn
áº¡ ng
Ã³ d
Ġse hr
Ġsu dah
olo gy
ĠÐºÐ¾ÑĤÐ¾ÑĢ ÑĭÐµ
Ø³ Ø±
à¤¿à¤ µ
Ġw ater
Ġ×¤ ×¨
Ġpe ut
ç³ »
Ġàª ĺ
Ġn Äģ
Ġha pp
Ø§Ø² ÛĮ
l aÅŁ
ķà¸ ±à¸
lÉĻr i
Ł ³
Ġë ¹Ħ
ĠØªÙĪ Ø³
Ġáĥ¨ áĥĶ
owan ia
Ġg od
Ġac est
¥à¸ °
ĠØ§ÙĦ Ø§ÙĨ
Ã¶ k
v ed
á»ĵ ng
Ġ×Ľ ×Ļ
ĠÃ¼ Ã§
Ġáĥ¡áĥĲáĥ¥ áĥĲáĥłáĥĹáĥķáĥĶáĥļ
at Ä±
ĠÐ½ Ð°Ð´
Ġ0 0
si ble
ang at
ãģĹ ãĤĩ
Ġ á»į
Ð°Ñģ Ð¸
ad es
ãģ¾ ãģ§
Ġl Ã½
Øª Ùī
ĠP ol
Ġjs ou
à¹ ģ
à®¾à®Ł à¯įà®Ł
è§Ĥ çľĭ
Ð³ Ð¸
ĠÂ ¼
ĠÑĤ ÐµÐ»
ÙĬ Ø§ÙĨ
ä¸ ľ
Ġk ita
Ã¤n d
Ð° Ðµ
ĠÃ µ
Ġdan n
re a
az Äĥ
ķ à¸´à¸
Ġáĥĺ áĥ§
Ð ĵ
os ta
T I
ë© °
A L
am y
al a
áĢĶ áĢ²áĤĶ
ĠØªÚ¾ Ø§
à¦¿à¦ ¦
n ess
os ten
à´¿à´Ł àµįà´Ł
à¸µà¸ ¢à¸
íķ ©
i as
Ġpr Ã©s
Ġkh Ã¡ch
ĠØ§ ÙĪ
Ø¨ Øª
Ġ uch
Ġor gan
Ġheb ben
Ġ Ñĳ
ĠÃ Ķ
Ð°ÑĤ Ð¾ÑĢ
Ġg Ã¼
ÄŁ r
ĠE x
ne h
ĠÐµ ÑģÑĤÑĮ
ª à¸²à¸
Ġà¤¹ à¤®
Ġle het
Ġé ĩ
à¸Ń à¸Ļà¸
ou ver
Ùĩ Ø±
Ġà¤¸ à¤ķ
ici o
Õ« Õ¶
Ġàª¤ à«ĩàª®
ĠÐ³ Ð¾ÑĢÐ¾Ð´
Ã ®
à¥įà¤ ¸
åı Ĭ
ĠáĥĽ áĥĺáĥ¡
à«ĭàª ¡
Ã¤ hr
Ġya z
áĢ° áĢ¸
Ġå ¯
Ùģ Ø¶
ĠÐ¾ÑĤ Ðº
Ġc áº¥p
be j
Ġfe w
Ñī Ð¾
ĠÐ£ÐºÑĢÐ°ÑĹ Ð½Ð¸
d d
Ġke pada
Ġ *
unÈĽ uri
j en
Ġtrab al
Ġ×ķ ×ŀ×
ĠØ§ÙĦØ£ Ùħ
ãģĵãģ¨ ãģĮ
ĠÐ´ Ð°Ð½
cj a
æķ Ļ
ĠÚ© ÙĦ
s Ã¥
æĦ ı
uy á»ĩn
ÏģÎ¿ ÏĤ
olo g
Ø± ÙĤ
Ġ×Ĳ ×ķ×ª
Ġà° ¶
re t
Ã¶ g
Õ¥Õ ¬
il en
ì¶ľìŀ¥ ë§ĪìĤ¬ì§Ģ
al ia
Ġsa ÄŁ
ĠÑĨ Ðµ
ĠInd onesia
Ġì ¢
Ġger ek
à§ĩà¦ ¬
å£ ²
à¸£ à¸£à¸
ĠÙĥ ÙħØ§
ĠL as
ÙĬ Ùĥ
à´¾à´° àµįâĢį
ĠÑĩ ÑĤÐ¾Ð±Ñĭ
ĠE m
ÏĪ Î·
à±ģà° °
ÏĦ ÏİÎ½
è Ń
ĠÐ¿ Ð¾ÑĤ
le ÅŁ
ê± °
Ã¡ bb
Ġà®µ à¯Ĩ
à®¿à® ļ
å ĸ
èµ ·
ĠI m
Ġn Ã¥g
Ġc ount
æ ©
ĠÙĨØ¸ Ø±
es ta
à¸² à¸Ļ
à§įà¦ ķ
ĠØ§Ø ·
k ie
Ð» Ð°Ð³
åı ·
à®Ł à¯ģà®¤à¯įà®¤
å ²
¯ ¼
áĥł áĥĺ
Ġs ka
çĽ ´
a ut
Ġà®Ĵà®° à¯ģ
Ġk ap
Î¸Î· ÎºÎµ
ĠA m
Ġpr i
in ya
Ġcu ando
ĠÃł s
in der
Ġv iel
ing k
ÙĬÙĨ Ø©
´ë Ŀ¼
Ġv Ã¤
Ġar Ä«
le m
à°° à±į
Ġëı Ļ
Ø§Ùħ Ø©
ĠÎ¼ Î¿Ïħ
Ã¼ t
âĢ ¦
à®© à¯įà®©
áĢ±áĢ Ļ
Ġqu a
ĠÐ² ÐµÑĢ
Ñĥ ÐµÑĤ
d ÉĻn
ãģ¨ ãģĹãģ¦
Ġber b
Ġpod e
ĠÐŁ Ð¾
áĥĲáĥ £áĥ
ĠÚ¯ Ø°
ĠáĥĲáĥ ®
e y
Ġè µ
à´¾à´ ¸
áĥĲáĥ Ŀ
ĠÑĢ ÐµÐ³
Ġà¤¥ à¤¾
l ess
Ġvá» ¥
ÙĨ Ø¬
ĠØª ÙĪÙĦ
ĠÙĤ Ø¯
jÄħ c
Ġtod os
ĠgÃ¶ re
ĠØ´ Ùħ
ĠâĢ ¦
uf en
is ht
ìĭ Ŀ
Ä« j
à¤ķ à¥Ģ
Ġop en
ish a
ÃŁ en
Ġìĭ ł
ado res
à°Ĥà° Ĺà°¾
Ġà®¨ à®Ł
Ġs atu
iyy ÉĻt
ĠE t
Ð¼ Ð¾ÑĤÑĢ
ê° ľ
ed er
ÏĢ ÎµÎ¹
aj ÃŃ
ĠÂ ±
ÙĪ ÙĬØ©
Ġt ah
à¤Ĺ à¤¾
Ġor ang
à°¾à°² à±ģ
×ĳ ×Ķ
æ Ĵ
ag em
at ud
Ùħ ÛĮ
Ġc Ã¹ng
ÙĤ Ùĩ
Ð³ Ð°ÑĢ
: :
Ġbul un
Ġ Ã¡ll
pk 10
us ta
o x
Ġìĺ ģ
áĢ¯ áĢĲáĢ¹áĢ
à§įà¦ ļ
Ġinter est
§ à¹Īà¸²
Ġå ¥
Ġà´¨ à´¿à´
×ł ×ķ×ª
Ġï½ ŀ
in da
Ġserv ices
Î¹Îº Î¿Ïį
àª ĸ
Ġà´¸ à´Ĥ
à¯Īà®¯ à®¿à®²à¯į
àª¾àª° àª¾
che s
b ÄĽ
ĠÐ³ Ð¸
ra ct
ĠJ ahr
Ġà° ¹
à®ªà¯įà®ª à®Łà¯įà®Ł
Ġp esso
Ð¾Ð½ Ð°
ak ukan
Ø§ÛĮ ÙĦ
an za
g t
ÑĢ Ð¾Ð¼
id as
Ġfr ien
in as
ĠÑĩ ÐµÐ»Ð¾Ð²
à¯Ī à®¤à¯įà®¤
à§ĩà¦Ľ à§ĩà¦¨
Ġà¤ ĺ
Ġt ud
å¥ ³
ĠÑĥ Ð¶Ðµ
ilik i
ëį °
ÏĦ Î¿Ïħ
Ġì¹´ íĨ¡
Ġë§ Į
» áĢģ
Ġà´ ±
Ġa ce
ot to
ĠA G
ĠÐ½ ÑĥÐ¶
áº¥ u
ĠÙħ Ø¬
ĠØ®Ø± ÛĮØ¯
Ġp ay
Î» Î¹
Ġ×Ķ× ¦
ĠÐ± ÐµÑģ
« à¸Ļà¸
at y
Ġà®¤ à¯Ĭ
çĿ Ģ
ÅĻ ed
áĢľ áĢĬáĢ¹áĢ¸
×ķ× ĸ
ãĥ¼ãĤ ¸
b ÃŃ
å¸ Ī
Î¿Î¹ Î½
ar on
Ġmer eka
Î»Î¿ ÏĤ
Ġal ways
áĥĺáĥĵ áĥĲáĥľ
w ork
Ġph áº©m
Õ« Õ
ist s
Ġsu re
iy et
ĠnhÆ° ng
Ú© Ø±
à¤¾à¤ ª
Ð» ÐµÐºÑĤ
el i
áĥĿáĥ Ĺ
Ġth ree
Ġseb agai
Ð ĳ
Ġà¤ķ à¤¾à¤°
Ġë ħ
×ŀ ×ķ
Ġprov ide
æ¯ Ķ
Ġfam ily
ÛĮÙĨ Ùĩ
os h
Ġë ¯¸
Ġê¹ Ģ
ĠÎĳ Î½
Ġl Ãªn
à´¿à´² àµĨ
å½ ĵ
Î¼ Î¿Ïį
i Ã¨re
ĠØ§Ø Ń
Ġh Ã¤r
Ġtr Ã¬nh
ĠØ§ÙĨ Ø¬
Ø° ÙĦÙĥ
Ġjak o
ì ħ
ÙĤ Øª
Ïģ Î¯Î±
Ð½ Ð°Ð¹
à¦°à§įà¦ ¬
Ġc urr
ĠÙģÛĮ ÙĦÙħ
ĠØ¯ ÙĪØ±
à´¿à´ķàµįà´ķ àµģà´¨àµįà´¨
Ġm Ã¥
×© ×Ļ×Ŀ
Ø« ÙĦ
s ki
Ä±n Ä±z
Ġd ar
Ð°Ð½ ÐµÑĤÐ¾
ÑĨÐ¸ Ñİ
ç» ĵ
Ð°Ñĩ ÐµÑģÑĤÐ²
Ø³ Ø©
Ġde f
á» «
ĠÐ´ Ð¾ÑģÑĤ
Ġde gli
Ġog sÃ¥
ĠÐ¾Ñĩ ÐµÐ½ÑĮ
ĠØ´ ÙĨ
Ù¹ ÛĮ
Ïį ÏĦÎµ
Ġcs ak
Ð¸ÑģÑĤ ÐµÐ¼
Ġc ap
Ã¡r ios
Ġfo llow
ĠÐ½Ð° Ñģ
Ġr end
ê¹ Į
à§ °
l ov
ĠÄĳ ang
Ġth ings
ĠnÃ³ i
Ã į
th ing
Ä±m Ä±z
Ġkh Ã¡c
Ġìļ °
ÏĢ Î¹
ãģĭ ãģ£ãģŁ
nÃŃ ch
ĠW ith
Ġà´ Ń
åĲ Ĺ
ĠÐ² Ð·
æķ °
Ġc er
ĠÃ§ Ä±k
ĠØ¨ Ú¾
v is
per ti
Ġp om
ros s
Ġc ost
ĭĹ ä¸ĩ
Ġâ ĩ
Ã¨n cia
à® ¸
íĸ Īëĭ¤
Ġh ay
es c
à¥įà¤ ª
Ġle vel
Ġcl ass
àµĭ à´Ł
Ġb uh
ĠìŀĪ ëĬĶ
Ġè ¯
áĢ¯áĢŃ áĢĦáĢ¹áĢ
Õ¡ ÖĢÕ
Ġspe ci
ÐµÐ» Ð¸
ãģĹ ãģ¾
g es
ÏĮ Î³
ĠÙħ Ø§Ùĩ
Ġeff ect
áĢģ áĢ¯
Ġs l
Ġà¤ħ à¤¨
Ġà´ Ĺ
Ð°Ñģ ÑĮ
Îµ Îº
ĠâĢ ¬
Ðł Âµ
Ġà®ķ à¯Ĥ
0 9
ĠÐ¼ Ð¸Ð½
àª¶ à«ĩ
Ã© ben
Ġnum ber
ç ±
Ġãĥ ĸ
à°ļ à±įà°ļ
Ġ ÑĨÑĸ
Ġh ier
áĤ Ĳ
ĠØ¹ ÙĨØ¯
ĠÐ´Ð¾Ð» Ð¶
ĠØµ ÙĪØ±Øª
Ġ×Ķ× ĸ
ìĹ °
Ġv ai
Ġà¦¤ à¦¿à¦¨
u te
Ġd uring
Ġch Ãºng
is te
ĠØ§ÙĦÙħ Ø±
Ð°Ð½ Ð¸Ð¸
ë¶ Ħ
à«ĩàª ¸
ĠØª Øª
owe ver
Ġs ans
Ġæľ ī
ĠAzÉĻrbayc an
ÏģÎ¯ Î¿Ïħ
à´¾à´ Ł
Ĺ à¸²à¸
¥ à«ĩ
Ġb iáº¿t
Ġan ni
ci as
Ġo li
àª¾àª ķ
ÑĤ Ñı
Ġo k
Ġh Ãłnh
ÅĤ Äħ
à¹ĥ à¸Ļ
ĠÃ¼Ã§ Ã¼n
×Ļ× Ĵ
Ġm und
Ġc r
à¤² à¤¾
Ġb ardz
Ð»Ñı ÐµÑĤÑģÑı
ÐµÐ» Ð°ÑĢ
ï¼ Ĳ
¡ à¸µ
éĩ ı
äº Ķ
Ġm ujeres
Ġw szyst
ĠÙĨ ÛĮ
Ġr u
Ġan n
in te
Ġ×ĳ ×Ĺ
ĠG es
Ð¸ ÑģÐº
à´¿à´ ªàµįà´ª
ĠA ll
áĢ¸áĢ Ľ
Ġt ek
à¦° à¦¾
Ð¸ÑĢ Ð°
à®Ļ à¯įà®ķà®³à¯į
ĠÐ ĸ
Ġst and
u at
ìĿ Į
Ä«b u
el ig
Ġis s
aci on
Ã¸ y
ĠÐ° Ð·
Ġà¤¦ à¥ĩ
ĠØ Ľ
êµ Ĳ
ĠÑĢ Ð¾Ð±
Ã©r ie
Ġper form
Ġbet ter
Ġãĥ ¬
Ġ×ķ ×ľ
ĠÙħ Ø³Øª
20 1
Ġdz ie
Ġsch ool
å¤ ĩ
ĠÐ¿ Ð°ÑĢ
in den
ÙĪ Ùĥ
Î»Îµ Ïħ
ĠØ§ÙĦØ ¢
ĠÙĦÙĦ Ùħ
Ø± Ø§ÛĮ
Ðµ ÑĦ
n ou
ĠÐ¾Ð± Ñī
Ð¾Ð½ ÑĤ
à¥ ĥ
ÙĪÙĨ Ùĩ
em a
Ġ ers
Ġwith out
Ġàª¹ à«ĭàª
Ġle ur
ĠR om
Ġk r
el n
n is
Ġm Ã¡y
ur al
ĠìĦ ł
Ø§ÙĨ ÙĬØ©
Î ĵ
ĠÐĺ Ð½
è§ £
Ġê ´Ģ
ãģĹãĤĩ ãģĨ
ãģ »
ÑĢ Ð¸Ð¼
Ġv ien
Ġtut ti
Îµ Ïĩ
Ġl ittle
Ġ2 2
ÑİÑĤ ÑģÑı
ĠØª Ø¬
à®± à¯įà®ķ
é ¤
ĠÃ© v
Ġ >
r id
ĠÐ± Ð¸Ð»
í ĽĦ
od y
Ġa ti
ien ia
Ġj Ã¡
ĠÐ¿ÑĢ Ñĭ
Ġäºļæ¸¸ éĽĨåĽ¢
ĠÙĪ ÙĦ
äº ī
al ement
ë² ķ
Ġdall a
ia p
ãģŁ ãĤģ
ìŀ ¬
ÑĢÑĥ Ð´
ï¼ ĳ
y ing
ãģ ³
áĢ±áĢ «
à¯Īà® µ
àª¾àª¨ à«Ģ
ĠáĢ±áĢ Ķ
ĠØ¨ ØŃ
Ġimport ant
ĠÑĥ Ðº
Ġ×ľ ×§
íĺ ¸
×ķ× ļ
ĠÃ ½
m ÄĽ
à®¿à® ®
Ġb ased
Ġsu o
à°¾à° µ
Ġê° ľ
éĺ ³
åł ±
áĢģ áĢ¶
éĴ Ł
Ã¦ t
Ø§Ø °
á»ĩ nh
Ġå ¾
Ġpl an
æĢİ ä¹Ī
ĠÐĿ Ð¾Ð²
à¤² à¥Ģ
ĠÛ° Û
Ġà®ħ à®°
Ġà¦ľà¦¨ à§įà¦¯
à¹Ħà¸ Ĺà¸¢
on i
ĠÂ» .
é¢ ĺ
Ġblo ck
ĠØŃ Ø³
m al
Ġf il
áº¯ n
owe go
Ġv Ã¡l
a ve
Ã©s e
Ġde ux
Ġ×Ĳ ×Ĺ
Ġhas ta
j Ã¤l
à¦¨ à¦¾
à´ §
ĠO ur
le ment
ãĤĮ ãģ°
æ »
Ġf act
Ñı Ð¼
Ġy o
Ġí ĥ
à¦¬ à¦¾à¦°
i Å¥
§ à¹Īà¸²à¸
áĢ» áĢĸáĢħáĢ¹áĢ
y r
Ð°Ð½ Ð¸
ÎĻ Îĳ
à§ Ī
à´¾à´ Ĥ
Ú© Ø§ÙĨ
Ú© Ûģ
ĠÙĩ ÙĬ
Ġm ust
un da
ÐµÐ½Ð¸ Ñİ
æī Ģ
Ä±l an
ĠÚ©Ø± ÙĨÛĴ
Ġch a
Ġre ce
it u
è į
Ã© ly
Ġcu al
Ġl Æ°á»£ng
pl o
ĠÑģÑĤ ÑĢÐ°Ð½
in Ã«
ĠÙĪ Ø¥
ÐµÐ½ Ð´
ĠØ§ÙĦ Ùī
íĨ ł
Ġpe u
Ð¾Ð² Ð°ÑĢ
om bre
ik t
ek i
Ġman ag
éĻ ¢
ĠÙĬÙħ ÙĥÙĨ
à¸Ńà¸Ńà¸Ļà¹Ħà¸¥ à¸Ļà¹Į
áº£ m
Ð°Ð» Ð¸Ð·
Ġm Ã©g
å·¥ ä½ľ
æ± Ł
Ġc áº§n
ç ĥ
d ade
ĠØ¨ Ø³ÛĮ
àª¾àª ĩ
ì Ī
à«įàª ®
Ġh anno
à¤¿à¤¯ à¥ĭà¤Ĥ
ĠØŃ Ø§ÙĦ
·à¹Ī à¸Ńà¸
it Ã©s
Ġê° ķ
ģ à¸²à¸
Ã¤ e
im p
×ĺ ×¨
Ġlá» Ľ
Ġìĺ Ī
v es
us z
ĠV ideos
b ar
Ġph Ã¡t
à¦¸ à§įà¦¥
à¹ģà¸ ¥à¸°à¸
ĠÑģ Ñĩ
Î¼ÎŃ Î½Î¿
ĠØª ÙĤ
Ä± ÄŁÄ±
à¸£à¸±à¸ ļ
alar Ä±
Î² Î±
ĠØ§ÙĦØ³ ÙĬ
Ġà®® à¯ģà®
ãĤ¹ ãĤ¿
ëª ¨
à¨¾ à¨
ĠÎºÎ± Î¸
Ð°ÑĤ Ñĭ
ĠÐ¿ÑĢ Ð¾Ð³
Ġ ć
ed ir
Ø§Ø± Ø§ÙĨ
ĠÐ¿ Ð¾ÑĢ
Ġ ÑĺÐ°
Ð´ Ð·
Ġne ces
ĠUn ter
Ø´ ÙĪØ¯
Ã¸ l
ç ¶
ÐºÐ° Ñĩ
ĠãĤ ª
ÏĦ ÎŃÏĤ
Ġtech n
Ġ×ŀ× ĵ
× ¥
ĠÏĥ Î·
æĭ Ľ
Ġke ll
Ġh i
åİ »
ĠØ¹ Ùħ
Ð¾Ð± Ñī
m i
à¤¾à¤Ĥ à¤ļ
Ã³ a
Ĭà¸ ±
Ġt ar
à±ģà° µ
Ġan h
m iÅŁ
Ñĥ ÑģÑĤ
Ġàª¶ àªķ
Ø§Ø±ÙĬ Ø®
Ã¼ re
Ġ×ŀ× Ľ
Ġç ĭĹä¸ĩ
ĠÑįÑĤ Ð¾Ð¼
ĠØ§ÙĦÙħ Ø³Øª
áĢķ áĢ²
Ġ×ķ ×ĳ
sk Ã©
Ġor der
áģ ļ
Ġè ®
ãĥ§ ãĥ³
Ð½Ñĸ ÑģÑĤÑĮ
ãģŁ ãģĦ
áĢĻáĢº áĢ¬áĢ¸
Ġtr Æ°á»Ľc
ãĥ Ħ
Ġt ÉĻ
´ ĳ
ĠÄĳ Ã¢y
ĠÐ¼ ÐµÑĤ
Ġd ist
Ġw on
an j
Ġw ieder
ĠØ¢ Ø²
ÑģÐº Ð¸Ðµ
gun akan
ĠÐ¼ Ð¾Ð³
n osti
er t
Ġp al
ãģ® ãģ¯
r en
ķ Į
ÑĢÑĥ Ð¿
Ã »
b l
Ġque l
ĠÃ ¸
ĠÐ¾Ð± Ð»Ð°ÑģÑĤ
àªĤàª ¦
Ð° ÑĨÐ¸Ñı
×ľ ×Ļ×Ŀ
ĠØ§ÙĦØ¬ Ùħ
Ġà¤Ĺ à¤¯à¤¾
Ġwur de
w ar
Ġs ay
Ñİ Ð²
ķ áĢ¼
è© ±
Ġqu est
ĠZ eit
Ġn Ãło
à´® àµįà´®
it eit
Ġy Ã¶n
Ġmy Ã¶s
ìļ ´
Ġcon o
Ġnh áºŃn
å® Ł
ĠÃ ī
ĠÃİ n
Ã¼y Ã¼k
d ed
à¦¾à¦¬ à§ĩ
Ġcon f
ĠìĹ °
app ä¸ĭè½½
Ġw rit
ĠÙĪ Ùİ
Ġà´Ĵà´° àµģ
à° ³
ÙĪ ÙĨØ¯
ĠØ³ Ø§ÛĮØª
çľ Į
at al
Ïĥ Î¯Î±
Ð½Ñĭ Ñı
à§ĩà¦ ¸
Ģ áĢŃáĢ¯
Ġj our
çĦ¡ æĸĻ
Ø¯ ÛĮ
aci onal
ÑĸÐ»ÑĮ ÑĪ
Ġsch on
it al
áĢ¬áĢ¸áĢ ¡
Ð¼ ÐµÐ½
ÑĢÐ° ÑĦ
æĢ »
æ Ł
ĠÐ°Ð² ÑĤÐ¾Ð¼
Ġn Äĥng
Ļ à¯įà®ķ
Ð°Ð³ Ð¸
Ġo y
à±Ī à°¨
í İ
b st
ie ld
ĠS an
Ġd Ã¼ÅŁ
os i
Ãª s
Ġon line
ãĤ ¬
áĢ¸áĢ Ĳ
Ġm Ãµ
ĠÙ¾ Ø³
s elf
Ã¤ iv
Î½ Ïī
che d
Ġ à¸Ńà¸
æ ·
Ġà¤ľ à¥ĭ
ĠÃ®ntÃ¢l ni
» áĢĻ
ĠÐº Ð¸
re en
ãģ Ĵ
æĹ ©
à¯įà® £
Ġà¤ī à¤¸
p owied
ĠÐ²Ñĭ Ð¿
æĹĹèĪ° åİħ
Ġk l
à¹ĥà¸Ĭ à¹īà¸
Ġà¤ķ à¤¿à¤¸
í ŀ
ĠÑĢ ÐµÑĪ
æĸ ¯
Ġkad ar
ãģª ãĤĵ
ĠAn unÈĽuri
Ã¶ tt
Ø¨ ØŃ
Ø· Ø±
Ġk Ã«t
ÏģÎ¿ Ïį
ĠD ies
© à¸
ĠB ir
à«ĭàª Ł
Î¬ Ïģ
ai x
ëł ¥
Ġ×ŀ× ¦
Ġsm all
ì¹´ ì§Ģëħ¸
Ġp ower
ÑĢ Ð°Ñģ
a Ã§Ãµes
Ø§Øª ÛĮ
ãĥĩ ãĤ£
ĠÐ²ÑĬ Ð·
×ĵ ×Ļ×Ŀ
à«ĭ àª¤
ĠÐ² Ð¾Ð´
ĠP l
Ġwe bs
ÑĥÑĢ Ñģ
ĠÐ² Ð½
à¦¤ à¦¿
ak t
à§ĭ à¦°
as Ä±nda
ĠØ¹ÙĦÙĬ Ùĩ
h ne
Ġv om
c ut
Ġa ble
ĠO r
ģ à¹ĩà¸
Ġàª¸àª¾àª ¥à«ĩ
w are
ãĢ Į
ãģĪ ãĤĭ
as zt
om men
ost it
Ġcz as
Ġh yv
Ġå ·
à¦ Ľà§ĩ
Ã« ve
Ð° Ñĺ
ĠÎ¼Îµ ÏĦÎ±
um a
æ ¼
Ġcont in
ĠÐ¢ Ð°Ðº
à¦¾à¦ķ à§ĩ
ĠÐ¿ÑĢ Ð¸Ð¼
à¤° à¥ĩ
Ġf uer
à° §
Ġp ot
à¯Ĩ à®°
Ġdi a
r ic
Ġt se
éĢ ī
Ñı ÑĢ
Ġqu ality
Ġgr oup
Ø§Øª Ú¾
es ti
Ð½ Ð°Ðº
ĠÂ» ,
Ñĺ Ð°ÑĤÐ°
ho z
Ð¿ Ð¾Ð²
ä» Ģ
è ¼
Ġpro ble
Ġt Æ°
Ø¹ ÙĪØ¯
Ø§Ø¨ Ø©
Ġare a
à¯įà®¤ à¯įà®¤
Ġà¸ ģà¸
Ġb ed
ĠØ§ÙĦØ£ Ø³
Ġ×ŀ× ĳ
è® °
y la
ag es
Ð¸Ñı ÑĤ
Ġs ig
Ã§ ek
Ä±s Ä±
Ġæ ŀ
m t
ĠS he
g gi
t on
Ġpas s
à¤Ĥ à¤¡
ķ à¹Ī
Ġpr ÃŃ
éĸ ¢
Ġne xt
re is
à§Ģ à§Ł
ãģķ ãģĦ
Ġt Ã¤
Ã ĵ
Ġh an
Î³ÏģÎ± ÏĨ
Ġáĥ§ áĥķáĥĶáĥļ
áĥļ áĥĶáĥĳ
áĥĶáĥĳ áĥ£áĥļ
áĥ£áĥ Ľ
ĠáĥĲáĥ ¥
áĥĺáĥļ áĥĺáĥ¡
áĥĺáĥ Ĵ
ì ¡
ì² ´
Ļ áĢº
ĠáĢĢ áĢº
ĳ Ĳ
Ð½Ð¸Ðº Ð¸
ĠÑģ ÐµÐ±
ĠCa ut
f ic
ÙĦÙĬ Ùħ
Ã İ
Ġl ight
Ġp et
áĢĶ áĢ¾
ãĥ Ľ
ĠÏĥ ÏĦ
at v
Ġm at
al an
ĠÐ´ ÐµÐ½ÑĮ
Õ ¨
£áĥ ļáĥĺ
am es
al u
Ġsh k
áĢķ áĢ¹
ĳ ľ
Ġm áº·t
ÑĬÐ» Ð³Ð°ÑĢ
ĠÃ¥ r
ĠÐºÐ°Ðº Ð¾
Øª Ø§Ø¨
×Ļ×¨ ×ķ×ª
Ġà¦ı à¦°
Ġat Ã©
ĠáĢ¡ áĢŀ
Äħ z
Å£ ii
æ§ ĺ
ĠåĪ ©
Ġë Ķ
à¥ģ à¤¨
à¸£à¸²à¸ Ħ
ow ie
ĠÙĪ ØŃ
±áĢ ķ
ĠÐ¾ÑĢÐ³Ð°Ð½ Ð¸Ð·
ÑĨÑĸ Ð¹
ov Ã¡nÃŃ
ĀĀĀĀĀĀĀĀ ĀĀĀĀĀĀĀĀ
å§ Ķ
are t
Ã¸ j
ta il
àªµ àª¾àª®àª¾àªĤ
Ġd ue
Ġg ive
¡à¸ ŀà¸
Ġu 09
ãģ« ãĤĪ
Ġd ur
ĠØ¨ Ø´
ato re
uk sen
àª¾àª ¹
ĠÙĬ ØŃ
ĠÐľ Ð¾ÑģÐº
Ġìķ Ĭ
Ö ¼
ÉĻ f
Ġes pe
ç ¼
ÏģÎ± Î³
Ð½Ð¸Ðº Ð¾Ð²
ÏĢ ÏīÏĤ
Ã ķ
Ġb á»Ļ
ĠÂ ¶
Ġim mer
Î Ķ
Ġmen d
Ġgj ith
t es
Ġ à¹Ģ
Ġs olo
ĠÎ± Î³
à§įà¦ ¡
n Ã¡l
çĶ »
la v
Ð°ÑĢ Ñĭ
ĠN ie
ÑģÑĮÐº Ð¾ÑĹ
e v
×Ļ×¨ ×Ķ
Ġdon de
Ġch áº¥t
ĠÛģ ÛĮ
ĠØ§ Ú¯Ø±
Ø® ÙĦ
Ġà¦ķ à¦¾à¦°
ĠÐ¼ Ð°Ð³
æµ ģ
ill Ã¤
Î² Î¬
ĠáĢ» áĢĻ
àµĩ à´°
Ø³ Ùĩ
èĢ ģ
owan e
Ġm is
Î¿ Ïģ
Ð² Ð°ÑĤ
Ġ íķ´
ĠÙħ Øµ
Ġn ing
Ġu Å¾
ķáĢ« áĢĲáĢļáĢ¹
¦ ¬
áĥĲáĥľ áĥĺ
Ġde v
äºļ æ´²
Ð» ÐµÐ¼
Ġt ara
iv os
Ġt ous
Ġin f
ĠÐ¿ Ð¾Ð½
è¨ Ī
Ġsomet hing
z z
ĠÂ ²
ĠØº ÙĬØ±
ij a
ĠÕ §
r ia
iz ed
ÏĦÎ¹Îº ÎŃÏĤ
àµ ĥ
ĠÏĥ Î±ÏĤ
Ġp ut
Ġà®ª à®Ł
ti k
ch a
ion n
Ġf ull
ãģ ¸
å ŀ
Ġt iem
Ø§Ùħ ÛĮ
Ð¾Ð¿ÑĢ Ð¾Ñģ
×ķ×ł ×ķ×ª
b at
ÑħÐ¾Ð´ Ð¸Ð¼
Ù¹ Ø±
à°¿à°Ĥà° ¦à°¿
ĠÐ°Ð± Ð¾
×ķ×¨ ×Ķ
os sa
Ġ á¹£
Ġag åĽ½éĻħ
Ġä¸ Ĭ
ä¾ ¡
ĠÑĢÐ°Ð· Ð²
ĠN or
Î¸ Î®
Ġà¸ Ħà¸
áĥķ áĥĶáĥ
iy le
Ġs angat
g os
å¸ ĥ
it ar
Ġnghiá»ĩ p
ì¹ ´ëĿ¼
ç§ ĳ
áĥĲáĥĵ áĥĴ
Ġm ul
à§ģà¦ ·
Ġmin den
ĠÎ ¡
Ġkun nen
u Å¼
å¼Ģ å¥ĸ
è ĥ
áĢ¸áĢ ¡
à´¾à´ ®
ĠÙĤ Ø§ÙĦ
à¹Ĥ à¸£à¸
Ġv el
Ïħ Î½Î±
Ġt en
b il
ÑĮ Ñİ
Ġt el
l ko
ÉĻ dÉĻ
Ġ2 5
Ġâ Ĺ
æ² ³
ÙĪ Ø©
Ġå Ĩ
m asÄ±
á»¯ a
Ġtá» ±
ĠÙĪ ÙĦØ§
Ġà¦Ĩ à¦²
ent ion
Ĥ à¦²
ostit utas
Ġacc ess
is hed
m Ä±ÅŁ
ÑĢ ÐµÐ´
uh an
i or
Ġwor d
à´¾à´ ±
iz i
le ich
ik k
Ð¼ ÐµÐ½ÑĤ
áĢŃ áĢĲáĢ¹áĢ
ĠP r
Ġrep ort
Ħà¸£à¸ Ķà¸´à¸
ĠØ§ÙĦÙħ Øµ
åĪĨ éĴŁ
äº Ľ
ĠÐŁ Ð¾Ð´
ĠØ¨ ÛĮÙĨ
Ġãĥ Ĳ
ĠØ³ ÙĪ
ĠÑıÐº Ñĸ
Ġs wo
Äģ cij
ê± ´
ë° ©
çĽ ¸
ĠÙĤ Ø¨ÙĦ
Ġre f
ãĤĵ ãģª
×¨ ×Ĵ
ĠÎº Ïħ
à¥įà¤ ¦
Ġxu áº¥t
ĠÙĪ Ø±
iy at
Ð¾ÑĢ Ð¾ÑĪ
à¹Ħà¸¡ à¹Ī
Ä± ld
áĢĦ áĢ·
ĠÚ©Ø±Ø¯ Ùĩ
un o
ĠvÃµ i
ĠáĢ Ł
itate a
ind i
à®¾à® £
el s
Ġæ ²
Ġwith in
ĠÑĢ ÐµÐ·
ĠÐ° ÑĢ
at ori
Ġmo et
à° Ń
à´Ļàµįà´ ķ
Ġs or
ÛĮ Ø±ÛĮ
ĠÐ¿ÑĢ Ð¸Ð²
Ġl ist
ĠáĥĽ áĥĲáĥĴ
ĠÐķ ÑģÐ»Ð¸
×Ļ× ĸ
Ġç Ľ
Ġì µľ
ĠI s
ur an
Ġáĥł áĥĿáĥĴ
Ġ3 0
Ġ201 9
Ø¶ ÙĪØ¹
Ġte go
º «
ĠÑģÐ» ÐµÐ´
ÃŃ vel
ĠÐ²Ð¾Ð· Ð¼Ð¾Ð¶
ĠÐ¿ Ð°
Æ°á»Ľ ng
ĠÐ±Ñĭ Ð»Ð¾
Ġà§¨à§¦ à§
ĠA mer
à¦Ł à¦¾
×© ×ª
ĠØ§ÙĦØ¹ Ø§ÙĦÙħ
j ÄĻ
Ġb ig
Ġm ere
à±ģà° Ĺ
à«įàª ķ
à¹Ģà¸ ¥
ik ka
áºŃ y
ĠÐ±Ñĭ ÑĤÑĮ
ãģĹãģ¦ ãģĦãĤĭ
ĠTÃ¼rk iye
ro v
ĠÑģÐ» ÑĥÑĩ
ĠOn line
áĥĶáĥ¥ áĥ¢
cc ess
Ð ¤
Ġk em
áº¡ ch
Ġà´ļ àµĨà´¯
ul o
p ie
à°¨ à±į
Ïĥ ÎºÎµ
æİ ¥
Ð½Ð¾ ÑĤÐ¾
Ġz aw
Äĵ c
Ø¦ Ø©
ang g
ĠÐĴ Ñģ
Ġìĥ Ŀ
Ġk el
ĠÐ¿ÑĢÐµÐ´ ÑģÑĤÐ°Ð²
à¤ķ à¤¾à¤°
Ø§ Ø§
o ane
Ġd Ã¢n
ĠØ² ÙħØ§ÙĨ
Ġen g
Î¼Î± ÏĦÎ¿ÏĤ
ĠÐ¼ Ð½
ĠÙĬ ÙĤ
ĠÙĦ ÙĬ
ĠA ng
Ġm us
ate ly
Ġçİ¯äºļ ag
Ġu w
ĠìĹ Ĩ
ĠØ±ÙĪ ÛĮ
Ġbil an
ĠÙ¾ Ûģ
Ġpo z
ĠÐ²Ñĭ Ñģ
Ð¸Ð½ Ð¸Ð½Ð³
ĠÑĦ Ð¾ÑĢÐ¼
A D
sz Ã¡g
Ø²Ø§Ø± Ø´
Ġja ar
Å¡an a
Ġ0 00
Ã³ ng
ĠØ£ Ø¨
à°° à°¿à°
Î¹Îº ÎŃÏĤ
Ġà´ħ à´¤
Ð¸Ð½ Ðµ
áĥĲáĥłáĥ Ľ
h at
ere a
à°¾à° ¦
Ġ×Ķ×ŀ× ©
éĸ ĭ
Å¾ ÃŃ
ĠÏĥ Ïĩ
ĠÃ Ĵ
Ġuch un
Ø¹ ÛĮ
ĠA t
ĠÙĨ Ø¯
à«Ģ àª¤
áĥ£áĥ Ĺ
er os
Ġm ight
h or
Ġe fter
7 0
Ġà¤ Ľ
à§ Į
Ġv z
Ġ×© ×ŀ×
ĠÐ±Ð¾Ð» ÐµÐµ
¥à¸ ĩà¸
Ġv ia
Ġut ilis
Ġà¤ §
à¯įà® ¯
Ġ2 1
ĠÐº Ð²
Ġmem iliki
ą ć
èģ Ķ
ĠÑģ Ð¸ÑģÑĤÐµÐ¼
Ġsa at
Ġna g
Ġí ĸ
ÏĦ Ïī
Ħ à¸£
Ġgo ed
ìĤ¬ ìĿ´íĬ¸
ĠÕ ´
Ġgeb ruik
ĠìĦ ¸
à¦¦à§įà¦ §
çĦ ¶
g elijk
c on
Ġl ie
ĠÐ· Ð°Ð´
Ġv Ã¬
ĠÐº Ð°ÑĩÐµÑģÑĤÐ²
Ġo vat
Ġm ult
æ© Ł
ĠáĢ» áĢĸáĢħáĢ¹áĢ
æĪ ¿
Ġãĥ ŀ
are d
íĥ Ģ
u v
ĠÎ¼Îµ Î³
à«Ģàª ı
ĠM aret
ĠÑĢ Ðµ
im mer
Ġdat ing
Ġà®İà®©à¯įà®± à¯ģ
ĠØ¨ Ø²
Ùģ Ø¹
áĥł áĥĲáĥĽ
ĠH er
Ġ365 bet
Ø³ Ø·
ãģª ãĤī
ä¼ ģ
Ġà® Ł
Ġv et
áĥĲáĥłáĥ ĵ
Ġan other
Ð» Ð°Ð¹Ð½
Ùĩ Ø¯
Î½Î¿ Î¼
Ġàª ĵ
ĠØ¬ Ø³
ĠSp iel
Ġà¦¬à¦¿à¦ ¶
Ġh ul
Ġn ak
ĠØ§Ø· ÙĦ
Ã§ e
Ø§Ø¯ ÙĬ
ĠFr ance
ë§Į ëĤ¨
à«įàª ¥
ĠÐ· Ð°Ð¼
ad z
ĠØªÙĪÙĦ ÛĮØ¯
Ġà¦¬à¦¾à¦ Ĥà¦²
à´¾à´¯ à´¿à´°
ĠÎµÏĢ Î¯
Ġdi rect
Ġd Ã¤r
Ñĥ Ð»Ñı
ti que
áĥĶáĥ ª
ĠÃ¶ s
Ġbuh ok
Ġkar ÅŁ
ìĺ Ī
ĠÃ ĵ
Ġb ru
Ð¾ÑģÑĤ Ñĸ
Ġf ie
Ġn in
áº¹ p
æ° Ķ
à¸Ńà¸¢ à¹Īà¸²à¸
Å¯j Äį
Ġs ite
Ġon s
Ð² ÑĢ
ĠJ o
Ġl i
Ðº ÑĸÐ²
é¤ Ĳ
enti al
te tt
ä» »
Ġàªķ à«ĭàª
á»į i
à¤ķ à¤¾
Ġêµ Ń
Ðł Ñĳ
ç ĸ
àª ¥
àª¾àª¨ àª¾
Ð°ÑİÑĤ ÑģÑı
ĠÐĿ Ð¾
ĠÑģ Ð¾Ð·
ÙĤ Ø§Øª
ÐµÐ½ Ð¾
ÑģÐº Ð¸Ñħ
éĢ ģ
Ġà®ļ à¯Ĭ
çº §
Ð½Ñĸ Ð¹
Ġå ¸
ĠÐ¿ÑĢÐ¾ ÑĨ
Î´ Î®
Ġë° ©
one y
áº¯ ng
Ġsec ond
áĢĦáĢº áĢ¸
ãģĤãĤĬ ãģ¾ãģĻ
è¢ «
te il
ain e
ate ur
Ġpr ima
Ġà° ı
Ã¦ k
Ġgi an
Ãº t
áĥĶáĥĳ áĥļ
Ġk ami
Ġë¬ ¸
ĠC hr
à§įà¦ ¸
Ġëı Ħ
Ġi h
eit e
ìľ ł
Ġpers onn
Ġro om
Ġå Ń
Ġt Ã¶r
ÏģÎ¹ Î½
Ġgi bt
iv i
Ã¨ res
pl ic
ÙĤ Ùħ
Ã ļ
ĠÃ¶ ver
ëĭ ¨
Õ¸ÖĤÕ ©
Øª ÙĩØ§
ĠÚ¯ Ø²Ø§Ø±Ø´
Ġc es
æ´ »
åĪĨ å¿«3
Ð¼ Ñĭ
Ġ Ã¤
Ð¾Ð² Ðµ
ĠÄĳ iá»ĥm
à¹ĥà¸« à¹ī
áĥĶáĥĿ áĥĳ
Ġàªķ àª¾àª°
Ġ à¥
l ing
ic hen
bb e
ĠDe ut
I N
èī ¯
ĠÃ Ĭ
ĠÐ± Ð°ÑĢ
Î¯ Î¿
å± Ģ
ĠãģĿ ãĤĮ
Ð» Ð°ÑĪ
u us
Ð°Ð¶ Ðµ
Ġà° Ł
Ġå Ĭ
ĠáĢ ¥
Ġ13 9
Ð¾Ð± ÑħÐ¾Ð´Ð¸Ð¼
Ġà¤¤ à¥įà¤¯
ĠØ³ Ø§Ø®Øª
Ð¾Ð² Ð¾Ð¹
×ľ ×§
Ġä» ĸ
áĥĶáĥĳ áĥĲáĥ¡
Ø« ÙĬØ±
ĠØ¨Ø® Ø´
à¤¾à¤ Ĺ
ÑģÑĮÐº Ð¾Ð³Ð¾
ĠÐ¿ÑĢÐ¾Ð¸Ð· Ð²Ð¾Ð´
à· Ĭ
ĠÐ½ Ð°Ð²
ĠÐ± Ð¸ÑĢ
Īà¸ ±à¸
b Ã³l
ta re
×ł ×ª
Ġk inh
ÏĨ Î±
ru ct
aj e
ce j
Ġà´ª à´±
dz i
Ä± lÄ±
Ïİ ÏģÎ±
Ġà´ª àµĭ
Ġv l
Ð°Ð¼ Ñĸ
ëĲ ľ
ÏĦÎ¿ Ïį
ĠÎľ Î±
j Å¡ÃŃ
ĠÑĩ ÐµÐ¼
ig o
ĠãĤ ¤
à®¤ à¯į
Ġk áº¿t
Ð¼ Ñĸ
ĠÃ Ĺ
áĢ¸áĢ ľ
n Ã½ch
ĠÂ ¸
Ġæ ¶
Ø§ ÙĬ
Ġáĥ¡áĥĲáĥ Ļ
é¡ µ
å¤§ åıĳ
asi h
ãĥ İ
Ġáĥ ¦
Ġáģ ģáģ
ĠE en
Ø¬ Ø©
Ġge en
å° ĳ
Ġbo leh
à´ ŀàµįà´ŀ
ÄŁ er
Ġe qu
Øª ÙĪØ§ÙĨ
ĠÐ¸ ÑĪ
Ġl ui
ning ar
æ ¨
Å¡ i
z zo
ĠÚ©ÙĨ ÙĨØ¯
ĠÐ¾ Ð½Ð¸
Ã¦ g
Ñı Ð´
ĠìĦ ±
Ġspe cial
Ġk es
2 8
æ ¹
ap h
ç Ł¥
ist as
on der
ãģĪ ãģ¦
e uk
Ġdies e
ĠÙ¾ Ø±ÙĪ
à« ĥ
Ġe u
ĠÑĥ Ð²
Ġop er
ĠÐ¾ ÑģÑĤ
æĪ ĺ
åģ ļ
ar te
×¨ ×ĳ
Ġan os
wer t
ĠØ¹ Ø¨Ø¯
iy o
ÙĤ Ø·
Ĥ à¸²à¸
à¥ ľ
ĠÏĥ Ïį
ãĢ ħ
Ġab euk
ÐµÑģ Ð¿
ãģ§ãģį ãĤĭ
×ķ×ł ×Ļ×Ŀ
áĢ± áĢĢ
ĠØŃ ÙĬØ«
Ġs ah
Äį ÃŃ
à«ģ àª°
éķ ·
Ġâ ķ
Ð°ÑĨÑĸ ÑĹ
an Ä±
ĠÙĪ ÙħÙĨ
Ã Ĩ
ĠÙĬ ÙĪÙħ
è¨ ĺ
à¦¨à§įà¦ ¦
áº£ nh
Ð² Ð¾ÑĢ
ag i
Ġtre b
ĠØ§Ø·ÙĦ Ø§Ø¹
æĮ ģ
Ïĩ Î±
Ġk ok
ĠØ¯Ø§Ø´ Øª
Ġse perti
à®¾à® ±
Ġì§ Ħ
Ġkter Ã©
Ġà¦® à¦¾à¦¨
ari h
ëĭ ¹
Ġáĥ łáĥ
ĠçĻ ¾å®¶
an as
Ġt est
Ġha be
Ġprof ess
ĠØ¹ Ø§Ùħ
Ġt áº¿
ãģ« ãģ¤
p f
ÐµÑĤ Ñĭ
ĠÙĩ ÙĨØ§
±áĢ ľ
ll en
Ġç ½
Ġj ot
Ġàªħ àª®
ag gio
ĠÃº j
o ve
ĠØ ¸
à¤¿à¤ ¶
ĠK om
ãĥª ãĥ¼
Ġb iz
u ur
Ġt ent
éĹ ®
å ¦Ĥ
Ġv Å¡
ãĥ¼ãĤ º
Ãº p
Ã§ os
ç¬ ¬
Ġ×Ĳ ×Ĺ×¨
ÐµÐ½ Ð½ÑĭÑħ
ĠÐ´ Ð·
us k
Ġb áº±ng
ĠTh at
íŀ Ī
æ Ĳ
al Äĥ
áĥ ¯
Ġfo g
ĠãĤ ¯
Ġda ar
é¦ ĸ
Â º
Ġãĥ ¡
âĢ¦ âĢ¦
ĠÃ®ntÃ¢lni re
Ġinv est
à«įàª ª
×ŀ ×Ļ
ä¸Ń åĽ½
ta g
at ti
Ġd uk
Ġth áº¥y
à¦ĸ à¦¨
Ġsin ce
¢ à¸²à¸
ĠØ£ Ø³
Ġà¦Ĩ à¦ª
ĠØ§ÙĨØ¬ Ø§Ùħ
Ġë ¨
Ġt Ã¢m
Ġty lko
ĠÐ· Ð´
ĠÐ¸Ð¼ Ðµ
Ġæ ±
ĠØªÙĩ Ø±Ø§ÙĨ
è® ¯
ĠÐ İ
Ð°Ð½ Ñģ
Ġhe ad
Ġà¤® à¤¹
Ð¸Ð´ Ð°Ð½
Ġre t
è Ļ
Ã§ as
§à¸ ±à¸
å¯ ¼
Ġtara f
b el
Î¹Îº ÏİÎ½
à°¿à° µ
Ã¢ t
Ġm utta
Ġgr ow
Ġk Ã©p
Ġd ays
U R
ard s
un un
ĠB o
ĠR eg
áĢ¬ áĢŀ
Ġà®ķ à®Ł
Ġt iá»ģn
Ø§ÙĨ ÛĴ
ĠØ¹ ÙħÙĦ
Ġpor que
Ġth iáº¿t
Ð² Ð°Ð½Ðµ
Ø§Ø¨ ÙĦ
Ġb áº£o
Ġà¦¨ à¦¿
ĠÐ¼ Ñĥ
m ÉĻk
¥à¹ĩà¸Ńà¸ ķ
Ġnot re
å¼Ģ æĪ·
ĠÙĨÙħ ÛĮ
ÑģÑĤ ÑĢÑĥ
Ġg en
ĠÐ± ÑĬ
à¯Īà®¯ à¯ģà®®à¯į
Ġf Ã¸r
ãĥ ı
Ġtr ain
ĠáĥĹ áĥ£
à¤¸ à¥Ģ
Ð¾ ÒĽ
Ġve z
er ne
Ġí Ĭ
Ġw o
×ŀ× Ł
æł ¼
ĠÄĳ á»ĳi
æ ®
Î» ÎµÎ¹
ç« ĭ
ĠØª Ø§Ø±ÛĮ
Ġà®ĩ à®¤
Ġ×Ķ ×Ļ×Ĳ
ĠÑģ Ð´ÐµÐ»
ĠÐ° Ðº
×ķ×ª ×¨
Øª Ø¨
à¤¾à¤ ¬
Ġph Ã²ng
ĠJ ag
ĠØ¯ÛĮ Ú¯Ø±
t ama
áĢĽáĢ¾ áĢŃ
Ġz na
Ġà¦Ĩ à¦¸
ĠìĹ Ĳ
áĢ¬ áĢĦáĢ¹
Ġk et
Ġt á»ĳt
å¼ ķ
áĥĲáĥĽ áĥĵ
Ġch á»§
Ġtiáº¿ p
ÅĽ cie
ÑĢÑĥ Ð·
ort un
Ñĸ ÑģÑĤÑĮ
Ġques ta
Ġ×ķ ×¢
áĢ¬áĢ¸áĢ Ľ
ĠÎŁ Î¹
Ġà¤µ à¤¾à¤²
Ĭ à¸²à¸
ä¹ħ ä¹ħ
Ġìŀ ¥
Ð°ÑĢ Ð¸
ä¹ ¦
Ïģ Îº
Ġto Ãłn
Ġhar ga
Ġhar us
à¯Īà® ªà¯įà®ª
Îµ ÏĢ
à¤¾à¤¯ à¤¾
aci ons
ĠB ras
Ð¾Ð½ Ð¾Ð¼
ik asi
à§įà¦¯ à¦¾à¦¨
å®ĺæĸ¹ ç½ĳç«Ļ
Ġthá» ĭ
íģ ¬
×¨×Ĳ ×ľ
Ġà¦¹ à¦¬à§ĩ
Ð° Ð¸
Å¡ u
ato k
ä»Ģ ä¹Ī
ar se
à¦§ à§įà¦¯
Ġgr an
Ġà¸ Łà¸£à¸µ
Ġk dy
ĠãĢ Ĭ
ar ak
ë¹Ħ ìĬ¤
Ġalg un
Ġ×ĳ ×¡
Ã¡ ciÃ³
à«Ģàª ĵ
ëŀ ĺ
Ã© z
Ġvis it
ur g
×ŀ× ł
Ġm ir
Ġh iá»ĩu
Ľ à¸£
Ð½Ð¾ Ñİ
ĠO s
ÏģÎ¹ Î¿
k Å¯
Ġmol to
Ġtá» ķ
Â »
ŀ áĢ°
ĠÐĲ Ð½
ĠÂ ¾
ĠP e
Ġà¤² à¤Ĺ
Î»Î» Î±
Î´ Î¹Î¿
èĢ ĥ
Ġp ok
lar a
ãģĦ ãģĦ
ĠØ§ÙĦØ¹ ÙħÙĦ
Î· ÏĥÎ·
áĥĲáĥķ áĥ¡
ent os
ĠÐ¿ Ð¾Ð¿
ì Ķ
Ø· ÙĦ
áĥĲáĥķ áĥļ
Ġà§¨ à§
áĥĺ áĥĶáĥł
Ġpo ate
Ġíı ¬
ĠØ¹ ÙĦ
áº¡ c
è¿ ĺ
ļà¸²à¸ Ĺ
ĠÄĳ Æ°á»Ŀng
ĠB r
ĠU m
m ain
Åĳ s
Ð½ ÑĮ
Ġg Ã¬
Ð· ÑĭÐ²
c ent
ĠØŃ ØªÙī
Ġles s
áĢ¸áĢ ħ
ĠØ¯ ÛĮØ¯
Ġc ada
à¦ ł
ÎĻ Î£
Ġh á»Ļi
Ġ×© ×ĳ
Ð Ĺ
Ġv os
Ġc am
à´¾à´ ³
à¤ļ à¥įà¤
ĠU hr
Ġlook ing
ÐµÐ´ Ð¾Ð½
ãģ« ãĤĤ
àµĤ à´Ł
d h
rz ed
am u
Ġre se
ĠtÃ¶ bb
Ġt imp
Ġpos si
Îº Î±Î½
Ġwork ing
×ľ ×ķ
Ġpr Ã©
Ġàªľ à«ĩ
Î© ÎĿ
Ð½Ð¸ Ð¾ÑĤ
ĠØ§ÙĦÙħ Ø¯
Ġà¤ª à¥Ĥ
à¹Īà¸ ĩà¹Ģà¸
Ġf er
lig a
over n
Ð¾Ñģ Ð¾Ð±
Ġmo Å¼e
Ġà®ħ à®®
Ø§Ø² Ùħ
à¦° à§ĩ
å· ²
ĠÎ´ Îµ
Ð°Ðº ÐµÐ´Ð¾Ð½
ãĤ ½
ãģ£ãģ¦ ãģĦãĤĭ
à§įà¦ ¦
Ġng o
à®¿à®± à®¤à¯ģ
×Ļ×ł ×ķ
Ġv Ã©g
Ġw sp
Ġm Ã¡
un to
Ïĥ Î±Î½
ak se
Ġam a
Ġz aman
ĠãĤ ¨
ĠÐ±Ð¸Ð» Ð°Ð½
Ġne ver
ÙĩâĢĮ ÙĩØ§ÛĮ
ÐłÑķ Ðł
Ġj el
Ġex pl
Ġbe m
Ġr ag
Ġâ Ħ
Ġà° Ĵ
ÙĨ ÛĮÙĨ
Î¿Î½ ÏĦÎ±Î¹
ig keit
Ġadd ition
ĠÐ¿Ð¾Ñģ Ð»Ðµ
Ġ×ŀ× ł
Ġp ou
Ġk ay
ĠÐ¿ÑĢ Ð¾ÑĤ
æĹ ł
Â ¡Â
à¦¨à§įà¦¤ à§įà¦°
Ġíĺ ¸
Ġe k
im ent
ig ne
Ġshum Ã«
Ġlo áº¡i
Ġtiem po
áĥĺáĥ£áĥ ł
Ġh ard
« à¸²à¸
Ġw in
Ġm ov
Ġà¦¸ à§įà¦¬
Ġt Ã¡c
Ġà°ļ à±Ĩ
ë¥ ´
Ġê² Į
d Ã©s
ud ad
ĠÐĶ Ð»Ñı
ĠÃ ģ
Ġb Ã¡n
Ġy ar
Ġh od
×Ļ×ł ×Ķ
Ġmak ing
ï ¾
Ø§Ùħ Ø¬
Ø§Ø± Øª
Ġb as
à®® à®¾à®ķ
me ly
é£ Ł
Ġáĥ£áĥľ áĥĵáĥĲ
il ih
ĠåĪ© æĿ¥
erst and
Ġal ue
ĠS car
Û Ķ
ĠÏĢ Î±Î¹
áĢ¯áĢŃ áĤĶ
ç¤ º
ĠÐµ ÑīÐµ
æł ·
×ł ×¡
Äģ v
Ġg ame
ĠÐ±Ñŀ Ð»
ëł ¤
ov an
ar ro
×¢ ×ª
ar beit
ĠÙĪ Ùĥ
Ġà¦® à§ĭ
µ à¸
Ġcont ro
Å¯ Å¾e
ÑģÐº Ð°
àªµ à«Ģ
Ġmes mo
Ġy ak
æİ Ĵ
Ð» Ð°Ð½
Ġà¤ħ à¤§
Ġà®ª à®¿à®°
Ġm iej
Ġbr uk
Î¸ ÎŃ
ĠÐ½ Ð°Ð¹
4 4
áĢ±áĢ¬ áĢĦáĢºáĢ¸áĢ
Ġà¦¦ à§ĩà¦ĸ
Ġcons ider
ĠÑĤ Ð¾Ð¼
éĹ »
Ġç §
Ð½ Ð¾Ð¼Ñĥ
ÎĳÎ ¤
å¤ ī
Ġy Ä±l
ĠÙĪ ÙĨ
Ġan s
Ñĥ ÑĤÑĮ
Ġ Å¼y
Ġt Ã¬nh
n os
Ġpro d
lo ad
ÑĬ Ðº
Ġáĥĵ áĥĲáĥĽ
ĠÐ½Ðµ Ð¾Ð±ÑħÐ¾Ð´Ð¸Ð¼
à´Ļàµįà´Ļ à´³àµįâĢį
z u
Ġet ter
Ġpr aw
Ġale bo
Ġh al
ning en
Ġvá» ĭ
æĽ ¸
Ġì Ĥ
à¹Ģà¸ ģà¸
in ho
Ġf ar
Ĭ é¾Ļ
Ð¾Ð» Ð¾Ð²
Ð½ ÐµÑĤ
ÑĮ Ñı
ĠÎ¸ Îµ
à¦° à§įà¦¤
æģ ¯
Ġt ÃŃnh
ĠÐ¸ ÑģÑĤ
ind ÉĻn
Ġ×Ĳ ×ł×Ļ
u ut
ĠÑĤ ÐµÑĢ
der n
lar Ä±nÄ±
Ġkom mer
Ġä½ Ĩ
ĠÙĩ ÛĮ
Ġh ak
Ġg ot
í ĭ
k l
Ġz m
áĤ Ĭ
Ġàª® àª¹
ĠIt alia
Ġj anÃ«
æĽ ´
à§ĩà¦ ·
áĢ¬ áĢĢáĢ¹
Īà¸²à¸ ģà¸
ĠÐłÐ¾ÑģÑģ Ð¸Ð¸
Ġh j
ı ¾
Ġc áº§u
Ġph ÃŃ
Ã³ b
ãĥ ļ
à¥Ģ à¤¨
T A
ĠÎĳ Ïħ
ĠØ´ Ø¨
ĠíĨ µ
Ã¸ d
Ġom a
el ser
Ïĥ Î¿ÏħÎ½
ĠI k
Ġ201 6
Ð» Ð¾Ð¶
.... ....
Ã¤ k
ĠØªØ§Ø±ÛĮ Ø®
Ġà¦Ĩ à¦Ĺ
ĠØ£ ØŃ
à¸£à¸ §à¸
áĢ±áĢ ·
Ñĭ ÑĤ
Ġw iÄĻ
ÑĨ Ñı
Õ¡Õ ´
ed a
T O
n Ä«
Ġà°¸ à°Ĥà°
Ġfo od
ber apa
Ġí ģ
ĠÙĦÙĦ Øª
Ð² ÐµÑģÑĤ
Ġ} .
tell en
ãĥ ľ
Ġà¤ľ à¤¾à¤¤
Ġà® ľ
Ġàªµ àª§
ĠÅŁ ek
ach t
Ġto day
ĠF Ã¶r
p ad
è İ
è¯ ·
ut i
iem bre
it os
ve is
ĠØ³ ÙĨÚ¯
ç» Ł
å Ļ
×ķ× £
Ġre aliz
Ġb re
áĢ±áĢ ¡
Ã¡l is
Ġsec ara
6 8
Ġem pres
Øµ Ùģ
ĠØ² ÛĮØ±
ar Ã¡
æİ ¨
ĠãĢĳãĢĲ ãĢĤ
ë¬ ´
åį İ
Ã± a
§ à¹ĩà¸
ĠÎ Į
×Ĳ ×ª
Ñı ÑĤÑĮ
Ġv iew
Ã¤ ch
ĠáĥĲáĥł áĥĺáĥ¡
ĠáĥĽ áĥĺáĥ
Ùĥ ÙĬ
à¦¾à¦ ¯à¦¼
Ġs it
Ġaut res
ĠÐºÐ¾ Ð¸
as ti
à¤°à¥įà¤ ®
à®ª à¯į
áĤıáĢ½ áĢĦáĢ¹áĢ·
op e
Ø¶ Ø¹
ĠÙ¾Ø§Ú© Ø³ØªØ§ÙĨ
Ġà´¨ à´Ł
Ġme et
Ļ áĢ½áĢ¬
åº Ķ
Ġæĺ ¯
ĠS i
un ya
á»Ń a
áĥĲáĥłáĥ Ĵ
ÐºÐ°Ñĩ Ð°ÑĤÑĮ
Ġáĥĵ áĥ¦
ĠÙħ ÙĬ
Ġpro te
Ġproduct s
ÏĦÎ· ÏĤ
ĠÎł ÏģÎ¿
pp o
is ke
Ġpr act
Ġà¤® à¥Ī
ĠÙĥ Ùĩ
ĠØ¨ Ûģ
y o
Ġì ¶Ķ
Ø±ÛĮ Ú©
ĠÑĤ Ð¾Ð³Ð¾
·à¹Ī à¸Ńà¸ĩà¸
à°¾à° Ĺ
Ġsul la
Ġ×ľ ×Ľ
Ġ×Ĳ ×ł
Î½Î¿ Î½
ir j
Ġis so
áĢ» áĢĸ
Ġsp o
Ø§Ø¦ ÙĬØ©
ĠáĥĽ áĥ®
âĢ į
Ã¶ re
à¦® à¦¾à¦¨
Ġ×Ķ ×Ļ
Ġv ara
Ġt art
è£ ħ
Ġà¤ħ à¤¸
Ġson ra
à¥ĩà¤ ĸ
Ġke Ã§
Ġà¤¬ à¤¨
¡ à°¾
ud i
Ð¼ Ñĥ
Ġstud ents
Ġc ara
aj Ãº
æ¥ ½
áĢ¬ áĢľ
Ġlar ge
ãĤĮ ãģŁ
Ġ2 3
Ġp op
à¦¾à¦ ĸ
ÑĤ ÑĢ
ĠÐ¿Ð¾ Ñĩ
Ġa inda
Ġinter n
Ġg ad
ÄŁ ini
Úĺ Ùĩ
ĠáĥĹ áĥ¥
ãģĭ ãģª
Ø® Ø§Ø¨
ĠÙħØŃ ÙħØ¯
Ġà®µ à®¾à®
à§ĥ à¦¤
ĠØ² Ùħ
Ġm olt
ä½ ł
Ġpre d
á Ī
Ø§ ÙĪØ±
Ã©n t
Ïĩ ÎµÎ¹
Ð¿ÑĢ ÐµÐ´ÐµÐ»
ìļ ¸
ĠÐ± ÑĢ
ĠI hr
y n
Îµ Ïį
à¹ ģà¸£à¸
Ġl ang
ĠÄ ĥn
« à¸£à¸
å° Ķ
w ij
ĠâĦ ĸ
´ Ī
àµģà´ ķàµįà´ķ
à±ĩà° ¦
ĠC o
Ķ à¸µ
à¸Ńà¸ ¢à¸
æ£ĭçīĮ æ¸¸æĪı
Ġà¤° à¤¾à¤ľ
Ġl et
áĥĲáĥłáĥ ¢
ĠÑģÐ¿ Ðµ
Ġm int
Å¡ ie
ĠÕ ¯
Ġpers on
ĠS ampai
Ġt áº¡o
à±įà° ¦
à¤ ³
ĠØ§Ø³ ÙĦØ§Ùħ
à¦¿à¦ Ĥ
Ã«n d
Ġj uÅ¼
ĠØ¢ Ù¾
Ġà´ ¹
r Ã¨s
v ol
Ġdu p
v i
Ġsem pre
į à¸
ver e
ÏĦÎ¹Îº Î®ÏĤ
Ġq o
ÐµÑĩ Ðµ
ĠÙħÙĨ Øª
à´ ľ
Ġáĥ °
Ð½Ð¸Ðº Ð°
à´£ à´Ĥ
us h
Ġw an
ĠØª Ø´
ra ag
ĠÎ± Ïĥ
æĥ ³
ĠÙĪ Ø¬ÙĪØ¯
Ä±m Ä±
Ð¾Ð¶ Ð´
ad t
m u
Ġå ¿
è º«
à«Ģ àªķ
×ŀ ×Ļ×Ŀ
Ġà®ª à®¾à®°
Ġsz em
ĠÚ¯ Ø±Ø¯
Ġv end
å Ķ
Ġpub lic
Ã¦ l
ĠÐ¼ Ð¾Ð´
à¤ ¥
àµįà´± àµįà´±
±à¸ ĩ
Ġpres ent
ĠÑĩ Ð°Ñģ
ĠÃ´ ng
Ġdet te
is et
ĠP a
Ġë ©
ĠG o
ĠÄĳ o
Ġï¼ Ľ
v ar
Ö ¸
à© Ģ
ab a
iz met
ÐµÐ½Ð¸ ÐµÐ¼
der e
à¥ĩ à¤²
ĠåĮĹäº¬ èµĽè½¦
ar ang
Ġæŀ ģéĢŁ
Ġqu áº£
Ð°Ð» Ð¾
Ġpro per
Ġà´ «
Ġb ers
Ø§Ø¹ Øª
Ġ| --
Ġk or
ĠØŃ Ú©
p u
çĶ °
Ì ī
Ø± Ø³ÛĮ
ĠÐ¾Ð½ Ð»Ð°Ð¹Ð½
y t
à°Ĥà°¦ à°¿
Ġ Ñĺ
Ġwebs ite
st Ã¤
Ġd ÃŃa
áĥķ áĥĲ
ici os
Ġst ato
nÃŃ ho
Ġà¦ħ à¦¬
ge b
Ġit em
Ġàª¸ àªĤàª
ĠThe se
æ ¢
Ġ ig
l t
and s
Ġbel ir
Ġbu en
Ġve el
Ġ×ĳ ×§
Ġà®ĩà®° à¯ģà®ķà¯įà®ķ
à«ĩ àª¨
Ġt sa
Ġen jo
áĥ® áĥĿáĥķ
or ia
Ġsa v
ĠÐ¼Ð¾Ð¶ Ðµ
ĠÎ±Î½ Î¬
Ġáĥ© áĥķáĥĶáĥľ
in er
à§Ł à¦¾à¦°
Ġq e
Î³ Î®
ĠØ³ Ùĩ
d it
Ļ áĢ½
Ġë ķĮ
Î»Î¿ Î½
Ø§ Ø©
àµįà´ ¸
Ġn ay
ëł Ī
ĠÑģ Ð¾ÑģÑĤÐ°Ð²
ÐµÐ½ Ð½ÑĭÐµ
ik i
ÚĨ Ùĩ
æī ĵ
Ġ×Ĳ ×Ŀ
Ġce le
áĢļáĢ¹áĢ ľ
ë Ķ
Î¼Îµ Î½Î¿
Ġà¤ħà¤ª à¤¨à¥ĩ
ĠL atv
æ Ĥ
Ġre al
no ÅĽÄĩ
ãĥ ¤
è Ħ
ĠÚ¯ ÛĮØ§
Ð°Ð» Ð¾Ð³
ou le
Ġàªķ àª¹
ĠM y
Ġb áº£n
ĠØ¨Ø¹ Ø¶
ĠÒĽ Ð¸Ð»
ĠëĤ ¨
Ġ Ö
ĠØ§ÙĦ Ø§Ø³
Ġpr ostitutas
Ġpre v
ĠÐ½ ÐµÐ´
Ġi es
ĠÐº Ð¾Ð³Ð´Ð°
Ġge w
Ġis e
Ġà´ª à´°
ĠáĢ Ħ
Ġind ust
Ġpu bb
Ġc li
à´¿à´¨ àµį
Ð¾Ð½ Ð¸
Ġtel ah
ĠáĢ Ŀ
ĠÐł Âµ
Ġz d
cc o
ĠÐł Ñĳ
ĠØ¹ÙĨ ÙĪØ§ÙĨ
ti es
ent ro
Ġch ar
ĠÐ²Ñģ Ð¸Ñĩ
Ġgi Ãºp
im os
Ġha ce
ay Ä±n
ĠÐŁ ÐµÑĢ
Ġd á»ĭch
Ġl oro
ë§ ¤
Ġáĥ£áĥ ¤
ĠÎ´ Î¹Î¬
c en
Ù į
Ġh am
ier ung
à¹Īà¸ §
ĠÑĥÑĩ Ð°ÑģÑĤ
ÑĬÑĢ Ð¶
Äĵ s
iv en
à´¿à´ļàµįà´ļ àµģ
Ġà´ķ àµĬ
Ġë Ħ
è «
Ġb uy
à§ĩà¦ ¦
Ġ×Ľ ×Ĳ
c ing
Øª Ø±ÛĮ
Ġ365 ä½ĵèĤ²
Ġneed s
áĥĿáĥłáĥ ª
Ð¾Ñģ ÑĥÐ´
Ġh á»ĩ
Ġtut to
k al
ĠÎ® ÏĦÎ±Î½
Ã¬ m
es k
wie t
Ġund erstand
Ġb le
é£ İ
ĠØ§ÙĦØ¯ ÙĪÙĦ
Ġc il
à±Ĥà° °
×ķ×ľ ×Ŀ
åĨ Ľ
is z
ĠW er
Ã«s h
ek en
ĠdÃ© p
get her
ÈĽ Äĥ
à¤Ń à¥Ģ
Îº Î¹
ĠÐ¸Ð½ ÑĦÐ¾ÑĢÐ¼
à°¾à° ľ
y en
à´¿à´ ¸
à¹ģà¸ ¥
ãģķãĤĮ ãģ¦
à§ İ
ie ve
ĠÐ½Ð° ÑģÑĤ
ï »
ç ¯
Ġà®ª à¯Ĭ
Ġìĸ ´ë
Ġpr ime
Ùĥ Ø³
Ã¡n ak
Ġbah wa
Ġfin ns
Ġas k
Õ ¾
) ;
Ġ Ã¡
Ġb en
Ġve ya
ÅĤ am
Ġk iÅŁ
ĠS el
el eri
ĠÙĬ Ø¬
ÅĤ em
Ġp emb
Ġo hne
à«ĭàª Ĺ
ek et
iz io
ĠÚ© ØªØ§Ø¨
ÎĳÎ Ŀ
æĶ ¶
Ġ Ã¡t
åł´ åĲĪ
Õ¸ÖĤÕ© Õµ
Ġloc al
Ġ0 2
j i
Ġer e
çĻ¾å®¶ ä¹Ĳ
×¨ ×Ļ
ĠV ers
Ġë° ľ
ot o
Ġl uc
åĮ Ĺ
Ã ī
Ġà´ ¡
Ġbardz o
Ġàª¨ àª¥à«Ģ
ed i
Ïĩ Î½
y w
ÏģÎ¹Ïĥ Ïĥ
Ġëį Ķ
Ġch ang
Ġà¦¤à¦¿à¦¨ à¦¿
ĠÕ ¸
ue go
Ġen f
áĥ «
áĥľ áĥĺáĥ¡
ÙĬ ÙĬÙĨ
à´¯ àµģà´Ĥ
ä¸Ģ ä¸ª
íĨ µ
Ġà¤Ń à¤¾à¤°
p x
qu ier
Ķ à¹īà¸§à¸
Ġ Ù
ch Ã©
í Ĥ
ler ini
ģà¸±à¸ ļà¸
in n
ë¡ Ŀ
á»Ļ ng
Ġàª¹à«ĭàª ¯
áĢŁ áĢ¬
ĠÐŃ ÑĤÐ¾
ĠØ§Ù¾ ÙĨÛĴ
Ã¶g lich
ĠÕ ¥
in ing
Ġv Ã¤l
Ð¾Ð² Ð¸
Ġà°¤ à±Ĩà°²
ke z
éĻ Ĳ
uyá» ĥn
ot a
ques ta
in ed
p a
ãģ£ ãģ¨
ĠE gy
Ġà®ķ à¯ģà®±
ĠØ¹ Ø¯Ø¯
acj a
Øµ Ø©
ÑĨÑĭ Ñı
à¤ ł
ĠØ¨ Ø§Ø±
c is
ĠC an
Ġcom un
ĠC l
àª¿àª ¸
ĠÐ¿ÐµÑĢ ÐµÐ´
Ö °
Ġà°ħ à°¨
ĠÐ² Ð¾Ð¿ÑĢÐ¾Ñģ
ĠÄĳ áº¹p
áĥĲáĥķ áĥ¨
Ïĩ Î®
ick Ã©
ĠÐ´ ÐµÐ¹ÑģÑĤÐ²
à§ģ à¦®
ä» ·
Ø§Øµ Ø©
Ð½ ÐµÐµ
à®¿à®° à¯ģà®¨à¯įà®¤
ãĥĨ ãĤ£
Î¼Î± Î½
Ġ×ĳ ×ł
Ġph áº§n
áĥł áĥĺáĥ¡
ĠÑĤ Ñĭ
k Ã³w
Îķ Î£
ĠÐ· Ð²
à®ļ à¯įà®ļ
Ġbu de
Ġd Ã¶n
ĠÃ¼z er
ĠãĤ Ĵ
Ġs ia
ÑĢÐ° Ñī
Æ° u
Ġho Ê»
ĠØ§ ÙĬÙĨ
è» Ĭ
Ġàª¹àª¤ à«Ģ
ĠÐ¹ Ð¾Ð³Ð¾
Ġimp ro
å¾ Ī
Ġth Ã¡ng
Ø± Ú¯
à¹ī à¸Ńà¸ĩ
Ġ ÃŃ
à¤ķ à¥įà¤¤
Ġaz t
ĠáĢ¡ áĢħ
ĠØ¨Ø± ÙĨØ§ÙħÙĩ
åħ ¶
ĳ åħĭ
ĠÙĩØ³Øª ÙĨØ¯
íķ Ń
ł à¸
ĠÑįÑĤ Ð¾Ð³Ð¾
Ġtah un
ĠÐ¼ Ð½Ð¾Ð³Ð¾
Ġæ Ĭ
æ¬ ¢
fÃ¼ hr
ĠÐ¾Ñģ Ð½Ð¾Ð²
æ² ¡
ĠÙĩÙħ ÚĨ
Ïģ Î¸
Ġcomple te
à¯įà® ¨à¯įà®¤
Î¾ Îµ
ĠáĥĽ áĥĹ
ĠÐµ Ðº
Ġaf f
ÏĥÎµ ÏīÎ½
ĠØ® Ø§ÙĨ
d aki
è² ·
Ġpo int
ÏģÎ¹ÏĥÏĥ ÏĮÏĦÎµ
Ġà°ķ à±Ĭ
Ķà¸´à¸ ¡à¸ŀà¸
l Äħ
ĠÎº ÏĮ
Ġas ÃŃ
ë ¯¼
f ol
Ġ ia
Ġc over
iv ed
ĠU S
ĸ áĢ¼
Ġ2 4
×ĳ ×ķ×ĵ
Ġeas y
ia re
Ġf Ã¥
ĠÐ¼Ð°Ð³ Ð°Ð·
æīĭæľº å®¢æĪ·ç«¯
ĠÛĮÚ© ÛĮ
Ð¾Ð²Ð°Ð½ Ð¸Ðµ
ĠÐ» ÑĥÑĩÑĪ
9 2
un i
ĠØ§Ø³Øª Ø§ÙĨ
ĠF re
Ġâ ľ
Ġt ik
ment o
ĠÐ±Ñĭ Ð»
ĠB ar
×© ×ķ×ª
Ġz ak
ĠÑı Ð·
» áĢĸ
Ġè ĩ
ĠØª Ø³
ä¼ ĺ
à«Ģàª ¯
ĠmÃ¡ is
Ġk ama
Ġris p
5 6
ck et
áĢ¥ áĢ¹áĢ
Ġa mely
t il
Ġs enza
ÏģÎ¿ Î½
Ġà¦¹à§Ł à§ĩà¦Ľà§ĩ
Ġun o
Ġ ÏīÏĤ
ĠP ost
iv id
Ġw ak
ĠD o
Ġn Ã¤
ĠØ§ÙĦÙħ ÙĨØª
Ġë° ı
ĠÎ Ĩ
ÅĻ i
Ġà®¨ à¯Ģ
Ã¸ n
åŁ º
ou l
Î»Î» Î·Î½
åıĳ å±ķ
t ur
ĠØ± ÛĮ
Ġem plo
ÙĦ ÙĬØ©
ãĥĥ ãĥī
àª Ľ
ĠáĢĢ áĢ¼
ĠØ¨ ÛĮÙħ
Ġact iv
à« ¦
è® º
i ver
à«Ģ àª¨à«ĩ
à§įà¦ ľ
up akan
Ħà¸¸à¸ ĵà¸
Ø® ÙĪ
Ġchild ren
çľ ģ
Øµ ÙĪÙĦ
ãģĿ ãģĨ
at zen
Ġà§¨à§¦à§ §à§
ĠáĢŀ áĢŃ
Ġ Þ
Ġc el
Ġmiej s
ĠÎ¤ Î±
u ie
el ing
Ġ áł
ow ym
Ġé ĺ
neh men
ol g
Ġev ent
ĠÐ² Ðº
ro om
Ġapp lic
ĠÎº Î¹
Ġwer k
áĥĿáĥ Ļ
å¸ ¸
Ġà®¤ à®®
áĢĻáĢ¾ áĢ¯
ĠÙħ ØµØ±
ĠØ¢ÙĨ ÙĩØ§
am is
Ã¸ re
ĠG esch
ĠÎĶ Î¹Î±
Ġc reat
Ã¡s a
å¼ º
à®£ à¯įà®£
Ġm al
à±įà°² à±ĭ
à°¾à°¨ à°¿à°ķà°¿
Ġch ange
Ġi ar
ÈĽ ie
Ä¾ a
Ġå¤§åıĳ å¿«ä¸ī
c as
×ĳ ×Ļ×Ŀ
Ã¼ s
Ð½ Ð¸Ðµ
Ġl Ä«dz
ç² ¾
uch t
Ġáĥ® áĥĶáĥļ
ĠÑħ Ð¾ÑĢÐ¾ÑĪ
ĠØ§ÙĦØ± Ø¦ÙĬØ³
ĠC ol
×¢ ×Ķ
uno a
à° ·
ci r
à°¿à° ®
ĠÐ¸Ð¼ Ð°
Ġs ar
Ġmay or
Ð½ Ð°Ð³Ð°
ĠÑģÑĤ Ð¾
ÙĪÙħ Ø©
Ġà¦ķ à§ĭà¦¨
Ġdi re
ãĤ ¶
op en
ro d
it et
ĠÏĩ Î±
Ġjo ka
Ġa Ã±o
ä¸ ĵ
ta v
Î½Î· ÏĤ
ĠÄĳ iá»ĩn
ĠH ow
aj d
à®¿à®² à¯įà®²
Ġtá» Ľi
r im
Ġ ä¹
ãĤ Ģ
à§įà¦ ł
ĠV i
æĴ Ń
in Äģ
ĠÐ¿ÑĢ Ð¾Ð±
Ġsi is
åĳ ³
ĠÒ ·
ĠìĽ Ĳ
ĠÐ±ÐµÑģ Ð¿Ð»Ð°ÑĤ
à¯ĩ à®©à¯į
à«ĭ àª°
k ou
ĠØ³ Ø¨
Ġdi g
es h
aj i
à© ĩ
à°¿à° ¸à±įà°¤
ĠÐº Ð°Ð¶Ð´
ĠÐĲ Ð»
áĢĽ áĢ½
ĠR edir
áĢĻ áĢ¼
Ġt ÄĽ
ĠD i
Ġfor ma
éľ ¸
Âµ ÃĦ
Ġlear n
Ġfaz er
Ġke z
Ð¸Ñı ÑĤÐ°
Ġad i
àª¾àª ĵ
ĠØ¨Ø± Ú¯
ÙĤØ¯ Ùħ
i Äħ
ĠÎ½ ÎŃ
ĠÄĳ áº¡i
eg en
Ġãģĵ ãĤĮ
ĠÎ¼ ÏĮ
ĠáĢĴ áĢ«
ÙĬ Ø¬
ĠØ§ÙĨØª Ø®Ø§Ø¨
Ġcol or
¨ å¤©
ĠD en
ĠÐºÑĬ Ð¼
ĠS Ã£o
ĠãĤ Ń
ĠÐºÐ¾ÑĤÐ¾ÑĢ ÑĭÐ¹
ier w
Ġæ Ľ
Ġm oney
à¤¤ à¤¿
Ð¾Ð» Ñı
Ã¼k s
Ġ. "
ĠÐ½ ÐµÑĤ
Ġr Ã©g
Ġol un
Ġpr Ã³
ì² Ń
Ø§Ø¦ ÙĬ
ĠÒ ļ
ĠaÃ§ Ä±k
ill ion
b aar
ç¾ ¤
nÃ© es
n ad
ĠØµ ÙĨ
m Ã¤
ĠAr beit
ãĤĭ ãģ¨
a ÄŁ
Ġh anya
ĠØ¨ ÙĪ
Ġtem ps
ç Ĭ
ĠÐ¸Ð· Ð¿
ĠC e
àµĨ à´Łàµįà´Ł
Ġn ouve
il a
ĠÐ´ Ð¾Ðº
ĠÙħØ±Ø¯ Ùħ
æľ ¯
f all
Ġmu ut
Ġcon st
Ġla gi
ou d
Ø´ ØªÙĩ
Ġà®¤ à®¿à®°
ĠÐº Ð¾Ð¹
ï¼ Ĵ
Ġcour se
áĢ¬ áĢĶ
Ġáĥ¡ áĥ¢
Ġch á»©c
Ġê± °
ĠC ar
à¸Ńà¸ ļà¸
ĠD z
ul ts
2 7
Ġt urn
Ġm il
Ġv ida
çĶ £
k ad
áĥĲáĥ ŀ
æł ĩ
Ġth Æ°á»Ŀng
Ġà¦ķà¦° à¦¤à§ĩ
ĠBras il
à´µ àµģà´Ĥ
Ð¾ Ñħ
ti in
ÚĨ Ú¾
it Ã¤t
à¦¾à¦¦ à§ĩà¦¶
ater i
ĠÐ· Ð°ÑĢ
c ol
Ð¾Ñģ Ð¿
à¤¿ à¤Ĥà¤Ĺ
Ġro ku
ÙĪÙħ Ø§ÙĨ
Ġc ri
ì° ¨
an os
ĠÐ¼ ÐµÐ½Ñı
ä¸ ĸ
§à¸ ±à¸Ļ
áĥĿáĥłáĥ Ľ
Ġpers onas
p os
ĠC Ã´ng
ah i
Å¾ it
á»Ł i
Ġho áº·c
ì§Ģ ë§Į
áĢĴ áĢ®
Ġh u
cz a
ĠÐ½Ð° Ñĺ
åķ ı
N o
Ġìĭ ¤
Ò ĳ
em y
ĠÙĪ Ø§ØŃ
ĠP ers
è¿ ĳ
ation en
ĠÙħ Ø¤
ÑĢ Ðµ
ĠÐ²Ð¸Ð´ Ðµ
àª ı
ÐµÑģÑĤÐ² Ð¾
à¤ ·
ÅĽ li
åĻ ¨
à±Ģ à°¸
Ġl ati
ĠO d
ĠR es
Ðµ ÑģÑı
Ġà°ª à±Ĩ
Ġà¤¦ à¥ĭ
åħ ļ
f ach
Ġsu ccess
ad Ä±r
ĠáĢ¡ áĢľ
Ġà¦ıà¦ķ à¦Łà¦¿
Ġà¤® à¤¿à¤²
ÃŃt Ã©s
í Ŀ
ĠáĥĽ áĥĲáĥĹ
Ø¨ Ø§ÙĦ
ĠÑĸÐ½ ÑĪ
Ġ×¨ ×Ĳ
Ġt Äģ
ess Ã¤
i ÃŁ
Ġf ace
Ġv ÄĽ
æĸĻ çĦ¡æĸĻ
Ġà§ ©
à´¦ àµįà´
iá» ħn
Ġkh u
Ã¦ ng
ler e
Ġc ase
Ġh ouse
lÄ± ÄŁÄ±
ĠÎĶ Î·
ĠëĤ ´
Ġor t
ëĤ ´
ĠØ§ÙĦÙħ ÙĤ
ĠHo tel
c us
ìĸ ´ë
Ġë§ Ĳ
ľà¸¹ à¹īà¸
à±ģà° ¡à±ģ
à¤¾à¤¹ à¥Ģ
ìĹ Ī
ĠÎ±Î½ ÏĦÎ¹
Ðł Ðħ
ĠÚĨ ÙĨØ¯
ĠB l
Ġm Å±
Ġv Å¡e
Ġgi áº£i
àª¾àª ĸ
ìŀ ĳ
áĢ» áĢģ
Ġku in
Ġcon ne
Ġes to
he re
ĠÅ ł
ient os
à¦¾à¦ķ à¦¾
Ġil s
Ġj y
Ġb ene
ãĥ» ãĥ»
ur ah
as yon
Ø¨ ÙĬØ±
Ġp ain
áĢĸáĢ¼ áĢħáĢº
c ont
àª¾àª ¡
os a
Ġv ers
amp le
Ġpu Ã²
åı¯ ä»¥
Ùİ ÙĦ
ĠÙģ Ø¹
Ġof ten
é© ¬
Î¯Î½ ÎµÎ¹
ill s
ĠØ¬ Ø¯ÙĬØ¯
ĠÐº Ð°ÑĢÑĤ
ĠH and
ĠØ¹ ÙĦÛĮ
Ùģ Ø©
à°Ĥà° Ĺ
à°¾à° ¡à±ģ
±áĢ ŀ
áĢĢ áĢ»
Ïĥ Î¹Î±
à¦¾à¦¤ à§ĩ
à¨ ¿
Ġ×ľ ×ª
c ri
çķ ª
à§Ł à¦¾
Ð°Ð»ÑĮ Ð½ÑĭÐ¹
à¸Ļà¸ ±
m eld
åĲ ĳ
à¦¿à¦ ľ
Ġm b
k et
os ov
à°¾à° ¸
Ġa way
áģ ¼
Ġb á»ĩnh
à°¾à°¯ à°¿
áĢķáĢ« áĢĲáĢļáĢº
ĠbÄĻ dzie
Ø¨ ÙĨ
à®¿à®© à¯įà®±
Ġj en
Ġà° «
áĤıáĢ½ áĢħáĢ¹áĢ
eit o
ÑĪ Ðµ
Ø§Ø¯ Ø±
×ŀ× ©
ĠÐµ Ðµ
à¦¾à¦¨ à§ĩ
Īà¸²à¸ ģ
ãģ¡ ãĤĥ
Î» Ïħ
Ġz w
Ġpers onal
iss ion
ug ar
ĠÑĤ Ð¾Ð²Ð°ÑĢ
ĠÃ©ta it
Ãµ h
Ð¿Ð¾Ð² ÑĸÐ´
Ġãĥ ĳ
Ġil g
Ġgiá» Ľi
ĠÙĨ ÛĮØ³Øª
id an
è¾ ¼
à· Ĵ
Ġà´ Ī
à«ģ àªķ
×Ļ ×ķ×Ł
s iniz
ÙĩâĢĮ Ø§ÛĮ
ê· ¸
Ð°Ð½ Ð°
ãĥ³ãĤ ¿
unoa ÈĻte
Ġg ÅĤ
Ġn l
ÑıÑĤ ÐµÐ»ÑĮ
g ul
ĠØ¢ ÙĩÙĨÚ¯
Ä¼ u
à¹ĥà¸ «à¸
on te
Ġfor s
zion ale
ko z
çķ Į
Ġs y
Ã³ s
Î» Î¿Ïħ
Î»Î» Î·
ok at
Ġà®ĩà®° à¯ģà®¨à¯įà®¤
Ġh or
ØŃ ÙĬ
ÐµÑĢ Ñĭ
àµĩà´ ·
áĥĵ áĥĶáĥĳáĥĲ
ck en
Ġãĥ ª
Ġ ãģĦ
ê¸ ī
Ġk áº¿
áĥĵ áĥĶáĥĴ
Ġpr ix
ç ¡
ĠÑĢ ÑĥÐº
ãĤĵ ãģ§
ç§ į
ÙĪÙĨ ÛĮ
ä¼ ł
ÙĬ Ø´
ÑģÑĮÐº Ð¸Ð¹
ÑĥÑĤ Ð¸
Ķà¸ ¥
à´ķ à´°
Ùģ ÛĮ
ĠV ous
Ġm are
ĠC u
ĠÎº Î¬Î½
Ġà®® à¯ĩ
Ã Į
×Ĺ ×ª
à«ĩàª ¤
Ġse us
ÙĨØ¯ Ú¯ÛĮ
ivers ity
Îķ Î¡
Ġac qu
ĠM ais
ë¬ ¼
à¥ĩ à¤¸
Ð¾ÑĢ Ð¾Ð²
à¦ľ à¦¨
ĠÂ º
Ø£ Ø³
Ġàªī àªª
Ġà¤ķà¤¹ à¤¾
à¹Ģà¸ ¥à¸
ĠÚ©Ø±Ø¯ ÙĨ
Û° Û°
ÉĻ q
Ġáĥ¡áĥĲáĥ¥áĥĲáĥłáĥĹáĥķáĥĶáĥļ áĥĿáĥ¡
Ġth o
à¤¾à¤¨ à¥Ģ
ÑĥÐ²Ð° Ð°ÑĤ
áĢĻáĢ¾ áĢ¬
ÑĤ Ð¸ÑĢ
Ġãĥ Ī
Ġtr ang
å¿ ľ
ĠáĥĻ áĥĿáĥĽ
Ġph Ã¡p
Ġu04 3
à°ķà±įà° ·
ĠAG çİ¯äºļ
ĠÅ ļ
Ġal ong
à±ĩà° ¶
Ġ Ä±n
it tÃ¤
Ġà®ķà¯Ĭ à®£à¯įà®Ł
Ġb on
f a
Ġd Ã¹ng
Ġà¤² à¥ĭà¤Ĺ
¥ ¼
n ic
ä¾ Ľ
Ø± Ø§Ùĩ
ĠÙĨ ÙĤ
Ġlá»Ľ n
à¸² à¸£à¸
ch ter
Îº Î®
od e
ĠÐļ Ð¾Ð¼
Ä«b a
Ġt al
×¢ ×ķ×ª
ĠS te
Ġw ij
ĠØŃ Ø¶
ì ¸
Ġ×Ļ ×ķ×ª×¨
Ġpos sible
be id
ĠÎµ ÏģÎ³
Ġm uss
Ïģ Ïħ
ï º
áĢ±áĢ¬ áĢ·
à¹Ħà¸ Ľ
ĠÎ± ÏģÏĩ
Ø´ Ø¯
ĠÙĪ Ùģ
Ġà°ļà±ĩà° ¸
Ġwy k
Ć ą
Ġsa ja
Ú¾ Ø±
sz a
ĠØ¯Ø§Ø´ ØªÙĩ
Ġ×ŀ× ŀ×
Î¼ÏĮ ÏĤ
Ñı Ñī
è¶ ³
áĢŃ áĢĻáĢ¹áĢ
Ġs Ã¼re
ĠÐł Ñķ
éģ ¸
Ġèĩ ª
iss Ã¤
Ġà¤ķ à¤®
ĠCh at
il ÉĻr
Ġdes pre
ÏĢ Î¯
áº§ m
l ah
he z
à± ĥ
Ġit o
ement s
Ġme a
ĠØ³ Ø§ØªÚ¾
à¦¿à¦ ¯à¦¼
ĠÑĢ ÐµÐº
ĠØ§ÙĦ Ø§Ø³Øª
Ġà° ¯
on na
vo j
Ġ. ,
v oor
ĠÎ ¯
ĠÏĩ ÏģÏĮ
à¥ĭ à¤ľ
Ñĥ Ð³
Ġà¤¬ à¤¾à¤¦
ãĥ¼ ãĤ¯
áº© n
ning er
Æ Ĵ
Ġbe aut
Ġba ik
Ġst ate
ic ul
Ġà¤¸ à¥Ģ
Ġv iÅĨ
Ġn ame
ÏĦÎ· ÏĥÎ·
Ġal ap
ĠE uro
áĢ¯ áĢĲáĢº
ĠÃ© g
Ġto gether
Ġtr á»ĭ
àª£ à«ĩ
Ġä¸ º
áĢ¬áĢ¸áĢ Ĳ
áĥĺáĥľ áĥĲ
Ġà¤¤ à¤ķ
ĠS ain
ãĥķãĤ ©
Ġa h
Ø±ÙĪ Ø²
ĠÙĦÛĮ ÛĴ
ĠÏĢ ÏģÏİ
Ġtr as
á»į ng
Ð¾Ð» Ð¾Ð´
à±įà°² à±ģ
é §
Ġà¤°à¤¹ à¥ĩ
Ø± Ø³
Ð» ÐµÐ½Ð½Ñı
åĪĨ åĪĨå½©
Ġprop r
Ġk Ã¼l
áĥĶáĥ Ļ
Ġj us
Ġà¤® à¥ģ
Ġä» ¥
à§ģ à¦ķà§įà¦¤
Ġke h
ĠÐ² Ð¸
Ġiz an
Ð¸ÑĩÐµÑģÐº Ð¸Ðµ
is sen
ĠO ne
l Åĳ
ĠO p
å ĥ
Ġå İ
ä½ ķ
Ġdo ÄŁ
Ã¸ p
g in
ĠØ¯ ÙĪÙĦ
ÐµÑĢ Ñĸ
il di
áĢľ áĢ²
Ñı Ñħ
Ġg io
Ġm ich
Ðº Ð¾Ð¼
Ð³ Ð¾ÑĤÐ¾Ð²
uj Ãº
à¤¾à¤ ĵ
à´® à´¾à´¯
ĠãĢĳãĢĲãĢĤ ãĢĳãĢĲ
ĠáĢĸ áĢ¼
Ġàªħ àª¨
Ð» Ð¾Ð²
à°¤ à±įà°¤
Ġãĥ ©
Ġb ro
àª¤ à«Ģ
ĠØªÙĪØ³ Ø·
ĠÑŀ Ð·
Ð± ÐµÐº
Ġha i
Ã³ j
ĠÐĿ Ðµ
Ġé Ķ
Ġuns er
åĬ ŀ
ort s
×ĳ ×Ļ
Ġp Å¯jÄį
im iento
Ø¨ Ø§ÙĨ
a ber
áĥķ áĥĺáĥĹ
Ġm ot
ĠÐ² Ð¸ÑĢ
ĠÙĩÙħ Ùĩ
ĠÒ ²
Ġcol le
áĢĻ áĤĪ
¥ à¸´à¸
áĢĲáĢ¼ áĢĢáĢ¹
Ġv id
à¸Ńà¸£ à¹Į
ÉĻ ti
Ġv ÃŃ
ÑĢ ÑĬ
us ed
Ġ äºº
à¯ģà® ª
à ³
Ġpre m
Ġan i
Ġl Ã¤
Ġà¤ī à¤ª
ĠØ®ÙĪØ¯ Ø±ÙĪ
ķ à¸²à¸
æ± Ĥ
Ġall ow
se g
Ġse em
ĠáĢĢ áĢ»
íĻĶ ìĿ´íĬ¸
Ø³Øª Ùĩ
ĠÎ¼ÏĢÎ¿ ÏģÎµÎ¯
hal ten
ĠÃ ĥ
Ñį ÑĤÐ°
ĠØ³ Ø§Ø¹Øª
Ġàª® àª³
Ġ201 8
ÙĨ Ùĩ
à¦ª à¦°
Ġde tail
Ġå¼ Ģ
ĠØ³ Ú©
Ð»ÐµÐºÑĤ ÑĢ
ĠÐĲ Ð²
ĠÚ©Ûģ Ø§
id i
Ġh um
Æ° ng
Ġà®µ à®¿à®
uy or
Ġcáº£ m
à¦¾à¦ ¥
h j
Ġbe h
íĶĦ íĻĶìĿ´íĬ¸
is ka
pp ing
ĠUn d
Ġl ine
s ten
ĠÐ± Ð¸Ð´
ĠÐ½ ÐµÐ¿
ĠØªÙĪ Ø¬Ùĩ
ĠØ¨Ø± Ø®
ak Ä±
ie f
Ġ0 5
r Ã¤
Ġà° ¡
ĠÎ± Îº
eder land
Ġun til
le p
è½ ¯
±à¹īà¸ ĩ
Ġw z
Ġh ij
iz za
ãģ ĸ
Ð¸ ÐµÐ¼
Ġf are
«à¸ ¡à¸
u de
ĠÐ± Ð¾ÑĪ
Ø± Ø§
Ð¡Ð Ĥ
amb Ã©
ĠáĥĻ áĥĺ
ĠèĢ Į
Ð¶ ÐµÐ½Ð½Ñı
\ "
ĠÐº ÑĥÐ¿Ð¸ÑĤÑĮ
ĠN a
é¡ ¹
Ġ×ķ ×Ľ
Ġnh iÃªn
ĠÏĢÎ± ÏģÎ¬
Ġï¿½ï¿½ï¿½ ï¿½
æ¸ ¯
à±ģà°Ĥà° ¦à°¿
ĠáĥĽ áĥĲáĥ¡
Ð¾ Ð¸
Ġs ing
Ùİ Ø§
Õ¸ÖĤ Õ¶
Ġqu ando
Ø±Ùĥ Ø²
is ti
±à¹īà¸ ĩà¸
Ġà®ī à®³à¯įà®³
Ġh indi
Ġwe er
Ġge gen
ĠáĥĽ áĥĿáĥĽ
ĠpÅĻ i
b or
ĠÐ¼ Ð°ÑĢ
ĠÐ· Ð°Ð±
áĤĢáĢĢ áĢ®áĢ¸áĢ
ĠQu á»ĳc
à¹Ģà¸ Ľà¹ĩà¸Ļà¸
Ð¾ Ð½Ñĭ
à¤° à¤¾
an cia
ÑĦ ÑĦ
ĠC as
Ġd il
un a
ÐµÐ½ Ð½ÑĭÐ¹
Ġfo ll
Ġr Ã³w
×ľ ×ª
ĠØ§ÙĦØ¹ Ø§Ùħ
Ø¨ Ø±ÛĮ
ĠÃ© qu
Ġà® ¯
on do
al Ä±k
Ġà¦Ĺ à§įà¦°
ur y
ĠÙģ Ø§Ø±
Ġà®® à¯ģà®Ł
ĠÏĮ ÏĢÏīÏĤ
Ġnd Ã«r
Ø¨ Ø¹
á» ¹
Ġka ik
ic le
á» Ľ
ãĤ¤ ãĥ³
ÙĲ ÙĬ
Ð¾ Ò³
à®³ à¯Ī
Ġíĺ Ħ
ĠéĢ ģ
áº ³
×¤ ×ª
è ±
Ġí ĽĦ
Ġre ci
Ľà¹ĩ à¸Ļ
àª¿ àª¨
Ġn Ã¡
èģ ĺ
Ġà°® à±Ģ
Ġper fect
Ã¤m Ã¤
uk o
Ġn et
Ġenc ont
ĠÛ µ
Ġt reat
Ġmer upakan
Ġf otos
Ġper met
het Åĳ
Ġ×© ×ł
·à¹Ī à¸Ń
ì ¤ĳ
Ġæ ¯
áĥĲáĥ «
á»į c
åħ ±
Ġmu a
ÙĨØ¯ ÛĮ
k ÄĻ
ç½ĳ æĬķ
um i
Ġë°Ķ ì¹´ëĿ¼
à¤¿à¤ ®
Ġpr a
ci m
Ġæ °
Ñĥ ÒĽ
lig e
ĠØ¯Ø§ÙĨØ´ Ú¯Ø§Ùĩ
ir os
ÑĬÑĢ Ð²
åĭ Ļ
Ġæĺ ¨å¤©
Ø¨ÙĬ Ø¹
Ø§Ø¦ ÙĦ
Ġc rÃ©
ĠÎ´ Ïį
us te
ãģı ãģł
àª¾àª ª
Ġà¤ľ à¥Ģ
Îº Î¬
à¹Ħà¸ Ľà¸
ar ing
Ã¼ let
ÐµÐ½ÑĤ Ð¾Ð²
ma q
Ã¼l t
à´¤àµįà´¤ à´¿à´²àµįâĢį
Ġke ine
Ġà¦ķ à¦®
c ch
ĺ à¸
ĠM an
Ġç½ ĳ
Ø§Ø´ Øª
iz aÃ§Ã£o
ĠØª ÙĦ
ĠáĥĲáĥ ķ
åİ Ł
³à¸ «
ĠÐ¶ ÐµÐ»
Ã¡v al
Ġc Ã¡i
Ġcre ate
Ġé Ļ
Ġà¸ ļà¸Ńà¸¥
Ġà¤Ĩ à¤£
Ġáĥ¡ áĥĲáĥ¡
à«ģ àª²
ĠÑĢÐ°Ð±Ð¾ÑĤ Ñĭ
ar ia
Â ª
Ùİ ÙĨ
Ġc Ã´
ĠØ®ÙĪØ§Ùĩ Ø¯
ĠÐ´ Ð°Ð²
Ġb Ã¶l
å¤ ´
Ġ áº£nh
Ġwh y
ÏĦÎ¹ Ïĥ
ĠçĶ µ
ì µľ
Ð¸ Ð³Ð°
ĠF l
ov a
h Ã¶r
Ġf our
Ġqu Ã¡
Ø± Ùĩ
ff en
Õ¡Õ ¿
Ø§ØŃ ÛĮ
ìĻ ¸
Ø§ØŃ Ø©
ĠÐ¾ÑĤ Ð½Ð¾
ap er
Ġdies er
ll is
ĠÚ© Ø¯
et an
Ġbe berapa
à¦¨ à¦¿
ÏģÎŃ ÏĢÎµÎ¹
ag a
in Äģt
Ġbene f
Ġz Ã¡
ĠS on
Ãª te
ek t
in do
d ag
à¥Ĥ à¤°
ãĥª ãĤ¢
ä¼ģ ä¸ļ
Ð¸ÑĩÐµÑģÐº Ð¸Ñħ
Ġh ist
Ġs ide
Ġ×Ķ ×Ļ×Ķ
ĠÙĪ ÙĦÙĥ
Ġm ismo
Ġind ivid
ĠåĲ į
ļ à¸£à¸´à¸
Ġè ´
à±įà° ķ
è Į
Ð°Ð»ÑĮ Ð½Ð¾Ð³Ð¾
Ġv ideo
el a
è¾ ¾
ut es
Ġon ze
ĠáĢĨ áĢŃáĢ¯
ĠÛ ´
b ul
Ġo or
ìĨ į
Ġx xx
Ġpos s
àª¾àª ¬
Ġà¦¸à¦® à§įà¦ª
N G
nÃ© ho
as il
Ġ1 00
Ġà¦¬à¦¾à¦Ĥà¦² à¦¾à¦¦à§ĩà¦¶
e h
Ġdi ra
ĠØŃ Ø¯
á»ĵ n
ãģ® ãģĭ
à´¾à´ ķ
il iz
Ġch á»įn
Ġto pl
¶ Į
±áĢ Ĩ
Ġdi b
Ð¼ ÑĸÐ½
Ġm undo
et ti
Ġx em
Ñı Ð±
Ġn iin
Ġdo anh
áĥĺáĥ¨ áĥķ
Ġog ni
Ġthá»© c
p g
Ġs Ãµ
ĠÐ¿ÑĢÐ¾Ð³ ÑĢÐ°Ð¼
ĠÑĢÐ¾Ðº Ñĥ
Ġà¦¸ à¦¬
Ġë Ĭ
äº ĳ
iem pre
áĢ½ áĢĶáĢº
ĠãĤ Ĥ
ĠÐ» Ð¸ÑĨ
Ġde y
åĸ ľ
ĠØ¬ ÙĨ
skie go
ĠÐ¿ÑĢ ÐµÐ·
Ġb ar
Ñį ÑĢ
ĠÃ ¢
à¦ ·
in y
Ġà°ķ à±ĭ
Ġav oir
Ġà®¤à®® à®¿à®´
I C
Ã¥ ll
éĽ »
è² ¸
Ñļ ÐµÑĤÐ¾
àµģà´ °
ĠÑĢ Ñĭ
p ro
Ð°ÑĤ Ð¸Ð²
Â ¹
ill es
em me
×ŀ× ¦
ish i
Ġà°® à°°
iá»ĩ m
he s
ĠÐ° ÐºÑĤ
Ġz ich
Ġt ay
Ġcon tact
ãģ«ãģ¤ ãģĦãģ¦
Äĥ ri
ĠÐ³ Ð´Ðµ
ãĥĥãĤ¯ ãĤ¹
t ar
ĠÑħ Ð¾ÑĤ
iy i
Ġv ie
ĠÐ¾ Ð³
ì¶Ķ ì²ľ
Ġm ateri
à¥ĩà¤ ľ
è ĳ
ĠÐ¼Ð°ÑĤ ÐµÑĢÐ¸
Ġag äºļæ´²
Ġw r
ĠØ§ÙĦÙĦ Ûģ
Ġà®µà¯ĩ à®£à¯įà®Ł
Ġs ous
ĠÐĲ ÑĢ
Ð¸ÑĤÐµÐ»ÑĮ Ð½Ð¾
ik si
æ² »
å¾ ·
ĠH Ãł
Ġst y
uj ck
ir on
ĠN ous
åĲ Ħ
ĠáĢķ áĢ«
×Ľ ×ķ×ľ
ĠÐ´ Ð¸
ii le
Ã³ c
áĥĲáĥª áĥĺ
Ġs is
ĠÙĦ Ø¦ÛĴ
Ġag çľŁäºº
Ø³ Ø§ÙĦ
×¨ ×ĺ
ĠUn tuk
Ġb Ã¼yÃ¼k
Ð°Ð· ÑĭÐ²
à´¿à´ ®
ĠÏĢÎµ ÏģÎ¯
ĠÎŃÏĩ Î¿ÏħÎ½
ra z
Ġduk e
Î´ Îµ
Ġha ving
n osÅ¥
ê° ģ
ãģĮ ãģĤãĤĭ
Ø§Ø º
aÃ± a
k om
ĠN on
è¯ ķ
ÐµÑĢÐ¶ Ð°Ð²
Ġ Ã¡n
ëŀ Į
ä¸ ¤
Ġt imes
ãĤĪãģĨ ãģª
Ã¡ ci
ĠØª Ú©
v Äĵ
Ġtr ad
he der
Ø® Ø¯
Ġãĥ Ĺ
ĠPro duk
ĠÃ Ī
ĠÐ³ Ð¾ÑĢ
Ġl is
Ġå° Ĭé¾Ļ
ĠÙħ Ùħ
ãĤģ ãģ¦
í Ĺ
Ġé Ĥ
ĠÑģÐ² ÑıÐ·
u we
ĠØ³Ø§Ø² ÙħØ§ÙĨ
ke j
Ġrese arch
áĢĻ áĢŃ
Ð°Ð¼ Ðµ
Ġì ¶
om m
ŀ à¸Ļà¸
å· ±
Ġand ere
à¥įà¤ ¨
Ġ2 22
×ĵ ×Ķ
Ġk Ã¶r
Ð¸ÑĢ Ð¾Ð²Ð°ÑĤÑĮ
Ð¸ Ð½Ð¾
uf f
ĠØ§ÙĦØ ¶
à´¿à´² àµģà´Ĥ
Ġ ÅĻ
ĠÙħÛĮâĢĮ Ø´ÙĪØ¯
ĠÏĢÎµ ÏģÎ¹ÏĥÏĥÏĮÏĦÎµ
à Ń
à¸´ à¹Ģà¸
Ġe lect
Ġàªµ àª°à«įàª
l Ã©
Ð½Ð¾ÑģÑĤÑĮ Ñİ
l ung
à« Ī
Ġm Ã´
ĠktÃ³ r
ÐµÑĢ Ð³
à¹īà¸ §
ç Ĺ
Ġa os
Ġse va
rim oni
à¯ĩ à®ļ
ĠÙĦ ÙĪ
ç© º
æ Ł¥
Ġsh o
Ġy Ãªu
ÐµÐ½ Ð½Ð¾Ð¹
èĢ Į
Ð°Ð»ÑĮ Ð½Ð¾Ð¹
ĠØ³ Øª
Ø¹ Ø§Ø±
Ġex pect
å¹ ¿
Ġincl ude
áĢ ĩ
áĥ£áĥ ¡
à¤¸ à¥įà¤¤
b ility
à¯ģà®® à¯įà®ª
Ġsel le
Ġo ck
Ġà¦¯ à§ĩ
Ġt ij
ÑĨÑĭ Ñĸ
à¦¤ à¦¾
s ter
Ġé Ŀ
àµģà´ķ à´³
ĠAll ah
ĠáĢĲ áĢħáĢ¹áĢ
ĠåĪ Ĩ
o are
¯ à§ĭà¦Ĺ
qu i
à¨ °
Ķà¸´à¸¡à¸ŀà¸ ±à¸Ļà¸
¬ áĥ§
àµģà´ ª
áģ ½
à¤Ĺ à¥Ģ
ĠØ£ÙĨ Ùĩ
¤ Ģ
ĠÐ²Ð° ÑĪ
Ġt Ã¶Ã¶
áĥłáĥ «
ou te
ĠØ² ÙĨ
à§ģ à¦¬
Ġë¶ Ħ
Ġáĥ¡ áĥ®áĥķ
Õ ½
Ġc á»©
ĠÙĥØ§ÙĨ Øª
Ġc op
Ġk m
ĠØ³ Ø±ÛĮ
Ġg ir
Ġtem po
Ð¼ ÐµÑģÑĤ
è¯ Ŀ
Ġv r
à¹Ģà¸ Ĥ
áĢŃáĢ¯ áĢĢáĢº
E C
ĠáĥĽ áĥĿ
Ø² Ø©
Ð¼ ÐµÑĤ
Ġm Ã©
ll ik
Ġà¦¸ à¦°
ar Äĥ
Ġí İ
Ð¿ ÐµÑĢ
c are
ĠK osov
à±įà°¨ à°¿
Ðº Ð°ÑĤÐ°
ĠÃ§ ox
Ð¾ÑģÑĥÐ´ Ð°ÑĢ
Ġcommun ity
Ð½Ð¸ ÑĨ
äºī éľ¸
ĠM en
Ġàª ĩ
v iron
ĠáĢĻ áĢŃ
Ġt ener
Ã¡ ro
id s
Ø§ÙĤ Ø©
à¹Ĥà¸ ¡à¸
Þ ¦
Î´ ÎµÏĤ
à¥įà¤ ·
Î» ÎµÎ¯
ĠTr ung
Ø§Ø¹ Ø¯
ÏĦÎ¹Îº ÏİÎ½
ĠØ¨Ø§Ø² Ø§Ø±
Ġt áºŃp
ar ten
or ies
ÑĶ Ð¼
ĠÑģÐ¾ Ð¾Ð±Ñī
Ġse v
it ive
Ġsel v
Ġot ros
Ġå¤ ©
Ġmemb uat
Ġæ ķ
à¹ī à¸Ń
ĠÏĢÎ¿Î» Ïį
ĠU ne
ĠÑĨ Ð²ÐµÑĤ
áĢ¸ áĢĢáĢŃáĢ¯
ers te
åħ ī
äº Ī
ĠÐŀ Ð´
I A
ĠÑĢ Ñį
ķ à¹īà¸Ńà¸ĩà¸
Ġv áº«n
Ġà´ ķàµįà´
×ĸ ×Ķ
ĠTh ank
Ľà¸ ¥
ãĤĪãģĨ ãģ«
z at
æĸ° éĹ»
cz Äħ
Ġà¦ħ à¦Ń
ĠÐ¯ Ðº
æł ¡
g od
Ð¾ÑĢ Ð¸
å¤ Ħ
Ġne i
ªà¸¸à¸ Ķ
ĠC ent
cz nie
Ġsa o
à®ķ à¯į
Ú¯ÛĮ Ø±ÛĮ
áĥĺáĥ ¥
Ġ á
Ä ŀ
à°¾à° ¡
á» Ŀ
Ġêµ Ĳ
Ġde g
tell t
ÛĮ Ø³
±áĢĲáĢ¬ áĢ·
un kt
ÑĢÑĥ Ð¶
à¹ģà¸ ļà¸
Ġä¸Ń åĽ½
à®± à¯įà®ª
ãĥ¼ãĤ ¿
k ol
Ġæľ Ģ
Ġger Ã§ek
Ġ×ľ ×Ļ
à¦¿à¦ ª
ĠÙħÙĪ ÙĤ
×Ļ× ŀ×
Ġd ag
Ġwe b
Ã¡s t
Ġy eni
ÏĦ Ïİ
Ġmem ber
æŃ ¤
so ci
ÑģÐº Ñĸ
ĠÑĹ Ñħ
Î¶ ÎµÎ¹
Ġk ut
Ùģ ÙĦ
áĢĽ áĢŃ
ÄĻ t
Ġáĥ£áĥ Ļ
Ġ ÉĻ
ĠK inder
áĥĶáĥ ĸ
Ġp age
ãģĹ ãģĭ
ëĬ ¥
c n
¸à¸ ķà¸
áĥł áĥĿáĥ¡
áĥĲáĥļ áĥ£áĥłáĥĺ
ct or
Ġz osta
×¤ ×©×¨
re am
Ġar r
Ġc _
ĠÙĨÙħ Ø§ÛĮ
Ġr ip
ĠáĢ Ĺ
ĠÐ¿Ð¾Ð¼ Ð¾Ñī
áĥ£áĥ ¨
ĠÐºÐ¾Ð¹ ÑĤÐ¾
ÑĨ ÑĸÐ²
ĠCom m
Ġi hre
ĠÙĦ Ø£
Ð° Ñİ
ĠÙħÛĮ ÙĦÛĮ
áĢ¬áĢ¸ áĢĢáĢŃáĢ¯
pt ion
ÐµÐ³ Ð¾Ð´
Ġest Ã¡n
ĠÄ ģ
ersch ied
u ir
Ġà¤īà¤¨ à¥įà¤¹
áĢ±áĢ Ĩ
Ġáģ į
Ñĩ Ð¸
ÑĢ Ð¾Ð±
ĠÑĸ Ð·
éĢ ł
à¸Ńà¸£ à¹Įà¸
et ta
à¯įà® °
ad an
Ġà¦¦ à§ĩà¦¶
áĢ ´
Ġex c
Ø¬ Ø±
Ø§ Ù¾
Ġà®ļà¯Ĩà®¯ à¯įà®¤
em Ã¡s
Ġt Äĥng
ĠØ¬ Ø¨
Ġv áºŃy
ĠN ederland
z n
L L
ĠÑĤ Ñŀ
Ġ áº¹
iÅŁ tir
kad aÅŁ
àª ĩ
Ø¶ Ø§
Ġj u
Ľà¸£à¸ °à¹Ģà¸
t an
ĠÃ¶ z
ĠÄ° ÅŁ
itat s
ver al
ĠÑģ Ð¾ÑģÑĤ
Ġm uk
br ie
ÙĬÙĦ Ø©
Ġagain st
ÐµÑĢ ÑĤ
Ġz elf
à¹Ģ à¸£à¸
áĥĿáĥ ¢
Ã©n Ã©r
à«Ģ àªµ
èĬ ±
×ķ×ł ×Ļ
ì½ Ķ
Ġtrab aj
ut to
ĠÐ¡ Ð¿
Ġà¤¬ à¥Ģ
h old
ÐµÐ½ Ñĸ
Ð°Ñģ ÑĨÑĸ
íĺ ķ
ìĶ ¨
ÙĪ ÙĪ
ÐºÐ° Ñħ
ĠØ§ ÙĤØª
ĠØ± ÙĤÙħ
Ú¯ Ùĩ
à¦¨à§įà¦ §
ÏĦÎµ Î¯
ĠÐ´ Ð¾Ð¿
ar am
ĠÐ· Ð±
Ġth á»§
Ġmel hor
Ġh ari
æŀ Ĺ
Ġ×ŀ ×Ļ
ĠáĥĹ áĥĲáĥľ
wer k
Ġres pon
ci ons
ĠBaÅŁ kan
Ġfo cus
ĠÑĤÐ¾ Ð°
alam ang
Ġáĥĺáĥ§ áĥĿ
à¸Ńà¸ ģà¸
f r
ì ¶
à¦¿à¦ Ľ
à¹īà¸² à¸Ļà¸
Ġàª² à«ĭàªķ
Ġtaraf Ä±ndan
Ġàª¤ à«įàª¯
Ð½Ð¸Ð¼ Ð¸
in si
ĠÑıÐ² Ð»ÑıÐµÑĤÑģÑı
ØŃØ¯ Ø©
Ùĩ Ùĩ
Ð½ Ñİ
Ãº s
Ġmak en
ĠÐİ Ð·
ĠN Ã«
Ġex t
ĠM ujeres
v y
Ġf Ã¥r
ÑĨ ÐµÐ½
à´¤àµįà´¤ àµĨ
ÐµÐ½ÑĤ Ð°
ÙĪ Ø§Ø±
à¸´ à¸Ļà¸
Ġå ¦Ĥ
ÏĦ Ïģ
ë° ľ
ç» Ħ
íĥ Ŀ
Ġen cu
r ing
ĠÐ¸ ÑģÐº
ĠM a
à±įà° ¥
×¡ ×§
§ ç¾İ
Ã¼ hr
c or
ĠF t
Î³ Îµ
Ġock sÃ¥
Ä± q
ĩ à¸²à¸Ļà¸
ĠMad rid
é¢ Ĩ
im u
Ġ ÑĨÑĮ
Ã¶y le
Ñĭ Ð»
Ġfr am
Ġat tiv
a f
ta an
Ġ Ã¤n
à´¾ àµ»
åŀ ĭ
è¨ Ń
æµ ĭ
Ð¸Ð» Ð³Ð°Ð½
æĿ ĳ
ĠâĢ ª
Ġ×ľ×Ķ ×ª
Ġk ans
à¤¾à¤° à¤¾
Îµ ÏģÎ³
ch od
Ġè ²
Ã¡ vel
ĠÒĽ Ñŀ
Ġi yi
b ier
Ġp un
Ġen s
Ġla w
p ar
Õ¡Õ ½
ĠâĢ ķ
Ġre st
Ġpesso as
Ġç ī
éĺ Ł
an bul
ÑĢÑĭ ÑĤ
æĻĤ éĸĵ
à¸µ à¹Īà¸
ëį ĺ
ÏĦÎ¹Îº Î¿Ïį
à´¾à´ §
¹à¸ ģà¸
æ ħ
Ġpa ÃŃs
ĠÐ» Ð¸
ÑĨ Ð¸Ð¹
l in
ĠI hre
ÙĪ Øµ
åĪ Ľ
l se
ĠÑģÐ¿ Ð¾ÑģÐ¾Ð±
le Äį
ĠÙĪÙĩ ÙĪ
ĠáĥĴ áĥķ
Ġcontro l
ĠÛģÙĪ Ø¦ÛĴ
Ġy hte
Ļàµįà´ Ļ
Ø¨ ÙĬØ©
ci mento
ts Ã©g
ĠÐ¿ÑĢÐ¾ ÑĦ
atu res
Ġj et
Ð°Ð»ÑĮ Ð½ÑĭÐµ
vÄĽ t
Ġà¤® à¥ģà¤
Ġk le
Ġprin cip
Ġne ar
Ġpro duk
ĠâĢ ı
Ġë ¦¬
áĥĲáĥľ áĥ¡
ĠÑĩÐµÑĢ ÐµÐ·
ov ÄĽ
åĪ ĩ
r ation
t Ã©
ĠÙĦ ÙĥÙĨ
Ġweit er
ĠD om
ĠJ eg
Ġz en
f l
u ale
ĠÐ³ ÑįÑĤ
Â ¼
Ġà°¸ à°®
çİ ĭ
Ġ, âĢĿ
Ġà¤¬ à¤¾à¤°
s ide
ĠÐ´ Ð°Ð¶Ðµ
ĠÙĬ ÙĨ
Ð´ Ð°Ñģ
áĥĿáĥł áĥĺáĥ¡
Ð° ÑİÑĤÑĮ
ĠÐ½ÑĥÐ¶ Ð½Ð¾
Ġgiá» ¯
ĠgÃ¶ ster
íķľ ëĭ¤
z na
Ð´Ð°Ñģ Ð´Ð°Ñģ
Ġmu á»ĳn
ĠÑĤ Ð¾ÑĢ
ning s
Ġent er
ĠÙħ ÙĩÙħ
ĠØµ Ùģ
Ġt Ãłi
Ġà¦® à¦§à§įà¦¯
Ġk end
idup an
áĥĺáĥ ¤
Ġbec ome
ÄŁ it
è½¯ ä»¶
áĤı áĢ¯áĢŃáĢĦáĢ¹áĢ
t w
Ġme ans
áº¡ m
Ġëª¨ íħĶ
Ġter m
ĠÐ± ÑĥÐ»
Ð¸ÑģÑĤ ÑĢÐ°
l ou
ĠM at
ëĵ¤ ìĿ´
ic ol
å± ĭ
Ù °
à¦¾à¦¨ à§įà¦¤
Ġk unt
ĠÐºÑĢ Ð°Ñģ
×ľ ×ķ×ª
ãģ Ĳ
ķ à¸£
áĥł áĥĺáĥķ
áĢ¬ áĢ¡
Ġkter Ã½
Ġth i
en as
Ð°Ð» ÑĸÐ·
ĠÚ¯ Ø§
Ġut il
à° ¶
ĠáĢ±áĢ »áĢķáĢ¬
Ð¸Ð± Ð¾
ang kan
Ġë ĺ
ch te
à° Ĺà°¾
h atÃ³
æ¸ ħ
ĠÎ±Ïħ ÏĦÎ®
áĢŃáĢ¯áĢ¸áĢ Ľ
ĠÐ¾ Ð¿ÑĢÐµÐ´ÐµÐ»
ĠÐºÐ¾ ÐµÑĤÐ¾
Ġ×Ĳ ×ĳ×ľ
ĠB es
r ies
ĠÃ į
Ġk lo
ĠScar pe
à¥į âĢį
Õ ´
ĠÙ¾ Ø±Ø¯
áĥ® áĥĲáĥĵ
ÐµÑĢ ÑĪ
ĠØ§ÙĦÙħ Ø¬
ÙĦ Ø§Ø«
1 2
Ġà´ ı
ØŃ Ø±
Ð¸Ð»Ð¸ ÑĪ
Ġç§ ģ
Ġw om
ll ing
omb res
el Ã©s
iv at
Ġsh qip
m as
Ã¼n Ã¼
Ġà´ ĵ
Ġ ãģ¯
æĺ ĵ
ÙĦÛĮ ÙĦ
à¥Ĥ à¤ª
Ġæľ ¬
Ġso ft
àªķ à«įàª·
Äħ Å¼
ÄĻ d
Ġla i
Ġr Ã©sz
é£ ŀ
áºŃ u
à¦¾à¦ Ĥ
ĠkÃ«t Ã«
Ġsá»ĳ ng
à§ģ à¦ķ
ìĦ ¤
Ġl iÃªn
ĠA fter
le g
à¤¤ à¥įà¤¤
ë ¸
Ġch u
ĠÙĪØ§ÙĦ Ø£
ãģ¨ ãģ¯
Ġ×Ķ× ĺ
Ġ ult
Ġë° °
ĠØ± Ø¦ÙĬØ³
Õ¶ Õ¥ÖĢ
Î¹Î¿ ÏĤ
è¯ ģ
à¤ ¢
ĠÏĢ ÏĮ
I d
ĠâĢĭ âĢĭ
ĠE z
Ġmeg et
Ġper Ã²
Øµ Ø¯
ĠV oor
iv re
Ġmak es
ien ie
á» Ŀi
Ġà¤® à¥ĩ
Ġg overn
c ora
ìŀħ ëĭĪëĭ¤
ĠØ¯ ÙĦ
ĠÐŁÑĢ Ð¸
æĶ ¾
ĠG od
Ġy ok
Ġm om
ĠÐ± Ð¾
ĠÑģ ÑĥÐ´
Ġmo ve
Ø´ Ø§ÙĨ
à®¿à®° à¯ģà®ķà¯įà®ķ
ĠØ® ÛĮ
ĠÐ¾ Ð½Ð°
ãģł ãģ£ãģŁ
Ġb Ãłi
Ġt ul
àªĤàª §
áĥĶáĥĳ áĥ¨áĥĺ
Ø¬ÙĦ Ø³
ÏĨ Î®
áĤıáĢŃáĢ¯áĢĦáĢ¹áĢ ĦáĢ¶
ĠÚ¯ Ø±ÙĪ
ot ti
Ġt eg
×Ļ×ľ ×Ķ
ë£ Į
Ġæ ³
ek si
ĠÑĤÑĢ ÑıÐ±
Ú© Ø§Ø±
__ __
ab ly
æĭ į
ÎµÎ¯ Î¿
Ġopp ortun
ĠE ng
ĠØ£ Ø®
ĠÐ³ Ð»
ah kan
Ġil k
ľ áĢ¬
Ġd om
ĠáĥĻ áĥĿáĥľ
ĠØ§ÛĮÙĨ Ú©Ùĩ
Ġ `
Øº ÙĬØ±
Ġà¹ģà¸ ¥à¸°à¸
ĠSain t
ĠÙĪ ÙģÙĬ
ÅĦ st
Ġd one
ĠCh a
åĵ ¡
à®¤à¯įà®¤ à¯Ī
uf t
¢ º
Ġà¤¸ à¤°
Ġb ra
Ġth ing
Ġëħ ¸
j uk
ĠØ¨ÛĮØ´ ØªØ±
Ð°Ð»ÑĮ Ð½Ð¾
Ġmuch o
Ġk ind
ov aÅ¥
ØªÙħ Ø§Ø¹
ÙĨ ÙĬÙĨ
ÑĨ Ðµ
ÑģÑĮ ÐºÐ°
Ġkan Ã«
Ġap rÃ¨s
ĠH a
à§ĩà¦ ľ
Ġv ari
ĠÐ¶ ÐµÐ½
ĠS uom
ĠÐ¿Ð¾Ð· Ð²
æĺ Ł
Ø³ÙĦ Ø§Ùħ
ĠÐľ Ð°ÐºÐµÐ´Ð¾Ð½
Ġn ight
Ġk Ã©sz
ĠÃ¶n ce
Ġtr iá»ĥn
áĢĲ áĢŃ
ly an
Ġ à¸Ļ
Ġre view
Ġpr ice
Ġdo po
Ġcle an
ÙĦ ÛĴ
ãĥĥ ãĤ·
ĠP en
åĽ Ľ
Ġsing aw
c le
áĢĦáĢº áĢ·
áĥķ áĥĲáĥļ
Ã¡ Å¡
ĠÎĳ Î½Î±
à¦¾à¦¤ à§įà¦°
ĠÎ£ Ïħ
Ġà¤ Ĳ
ĠÑĥÑģÑĤ Ð°Ð½Ð¾Ð²
ĠØ¨ Ø§ÙĨ
ĠC unoaÈĻte
um ah
n Ãº
á»ı i
Ġse Ã§
áĢŃáĢ³ áĤķ
k ed
à¶ ±
à¯įà®ķ à¯įà®ķ
ig in
ĠáĥłáĥĿáĥĽáĥĶáĥļ áĥĺáĥª
Ġ×ĳ ×Ĵ
p Äĵj
Ġna p
Ġrec ord
ĠÚ¯ ÙĦ
Ġmemb ers
áĥĹ áĥĲ
Ã©n ek
Ð¾Ð² Ñĸ
áĢĬ áĢ·áĢº
Ġd ah
£áĥ ¡
aci as
ĠÃ ĺ
ãĥĥ ãĥģ
ĠÙĬ ÙĥÙĪÙĨ
Â ²
ÑĨ ÐµÐ²
Ġë Ĩ
ĠÄĳá» ķ
Ġenc ore
Ġm ijn
Ġ×ŀ× ¤
ung kin
Ð¸ÑĤÐµÐ» ÐµÐ¹
Ġt Ã¬m
Ã¶ j
ìĿ´ ìĬ¤
h ur
Ð¾Ð· Ð¸
Ø§Ø³ Ø©
ĠãĢ ı
Ġf re
Ġup ang
à¦¨ à¦¾à¦°
ĠÑĢ Ð¾Ð´
« a
ĠÐ¼Ñĸ Ñģ
Ġinc ont
h os
ÑĢ Ð°ÑĤÑĮ
Ġqu ick
um p
Å¯ m
Þ¦ Þ
çĶµ å½±
Ġdi fer
Ġth Æ°Æ¡ng
ĠL o
Ø´ Ø§Ø±
Ġà¤¥ à¥Ģ
Ġà¦¨ à¦¿à§Łà§ĩ
um Äģ
Ġà¤ķ à¥ģà¤
ÏĦÎ¿ Î½
ĠH owever
Ġmeng h
ìł Ĳ
ap e
Ã ¯
ĠØ« Ùħ
ĠìŀĪ ìĬµëĭĪëĭ¤
ed ad
ĠØ® Ø¯Ùħ
d Ã¼r
ÙĪØ± ÙĬ
Ġà¦Ľ à¦¿à¦²
ãĤĪ ãĤĬ
ĠÐ£ Ðº
Ġj ou
Ġdevelop ment
åĩ Ĩ
ure d
and es
Ġáĥ¬ áĥļáĥĺáĥ¡
Ã½m i
Ġv ill
áĢ Ĺ
è® ®
ĠÐ· Ð°Ð½
ĠØ¨Ø³ÛĮ Ø§Ø±
Ġn Ã©
ãģıãģł ãģķãģĦ
E T
Ġà®ħ à®©
à§įà¦ Ľà§ĩ
Ļ áĤĪ
Ġg l
åı Ĺ
ĠÐĹ Ð°
ÏĦ ÏģÎ±
ķ à¹Īà¸
Ġæ¶ ĵ
Ġo so
ĠÐ¾ÑĤ Ð²ÐµÑĤ
ĠÐł Ð°Ð·
ĠÐ³Ð¾Ð´ Ñĥ
Ġdon c
Ö ·
me ye
m Ã«
à¤¤ à¥įà¤°
Ġãĥ ĩ
Ġ×ĳ ×¤
ĠD I
Ġà¤µ à¤¹
Ġpod r
àµĭ à´Ĺ
Ġby Äĩ
Ġz ab
ä¿ ®
Ġç µ
Ġna v
ĠS al
ĠÐ¸ Ñģ
st vÃŃ
ck s
Ãĥ O
ĠÙģØ¹ Ø§ÙĦ
Ġb it
Ġter b
Ġvo i
ÑĶ ÑĤÑĮÑģÑı
Ġv Ã¡r
Ġà¤¬ à¤¹
áĢĺ áĢ°áĢ¸
ą Ĉ
áĢĬáĢº áĢ¸
ĠÎĵ Î¹Î±
Ġenjo y
ĠåĽ ½
a Å¼
Ķà¸¥ à¸Ńà¸ĩ
le y
Ã¸ k
æĮ ĩ
Ñĳ ÑĤ
è° ĥ
å Ħ
ĠÐŁ Ð¾Ñģ
Ø¹ Øª
à°° à±ģ
sh me
Ġ, "
Ġr om
ĠÃº lt
Ġáĥĺ áĥ¥
pp ed
àµĨà´¨àµįà´¨ àµį
ati que
hl ed
a zioni
Ġìĺ¤ íĶĦíĻĶìĿ´íĬ¸
ÑĢ Ð°Ð±Ð¾ÑĤ
Ġsem ua
ãĥ¼ãĤ ·
¢ à¸Ļ
ÙĪ Ø¹Ø©
Ð¾Ð± Ð°Ð²
à®¾à® ķà¯įà®ķ
ãĤ¤ ãĥ«
à¦¿à¦ķ à§įà¦·
ç¶ ļ
ce p
à¤¾à¤ĵ à¤Ĥ
à¦¸ à§įà¦¤
ÑĢ Ð¾Ñģ
ĠíĮ Į
m it
ĠÎķ Ïħ
ÎĳÎ ¡
Î¿Î¹Î½ ÏīÎ½
àµįà´ ķàµįà´ķ
Ġl ow
à®©à¯įà®± à¯ģ
Ġa ra
çł Ķ
ĠÐ»Ñİ Ð´
æĭĽ èģĺ
×ķ×¨ ×Ļ×Ŀ
ãĥ³ ãĤ¹
Ø§ÛĮ Ø§
an Ä±n
b ilir
ÅĽ my
Ġà¤Ĩà¤£ à¤¿
Ð¿ Ð¾Ð»
Ã³ Å¼
à±įà° ¡
ĠÐĺ Ð·
Ġed uc
Ïĥ Ïĩ
Ġla ik
im m
ĠØ§ÙĤØª Øµ
ca q
Ã¸ b
í ĳľ
å ¦
res ent
icht ig
Ġsz cz
æľį åĬ¡
Ġmy cket
ain en
at Ã«
à°¿à° Ĺ
ĠF eme
ĠÏĢ ÏģÏī
ĠÐºÐ» Ð°ÑģÑģ
ĠÏĢÎ¿Î» Î¹
ĠÏĦ Îµ
Ġáĥĵ áĥĲáĥ¡
Ø¬ Ø¯
Ġf on
ĠØ¯ Ø§Ø¯Ùĩ
ang k
ĠØ§ÙĦ Ø§Øª
ĠëĲ ĺ
Ġtan to
ĠÙħØŃ ØµÙĪÙĦ
àªķ àª¾àª°
Ġà¸ ģà¸²à¸£à¸
Ġàª¸ à«ģàª
ÈĽ ia
ĠÙħØ¯ ÙĦ
ĠÙħ Ø®Øª
Ġpr om
ĠÐ³ Ð»Ð°Ð²
ĠÏĩ Ïī
é ¨
p iel
Ġh alamang
ãģĦ ãģ¾ãģĹãģŁ
j our
ÑĢ Ð¶
Ã ħ
áĢ¼ áĢĢáĢ¹áĢ
Ð» Ð°ÑĤ
Ø®Ø± Ùī
±à¸ ļà¸
Ġlav oro
ĠÃ¶n em
Å į
Î»Î¿ Î¹
ĠØ¹ Ú©Ø³
Ġà¦¬à§įà¦¯ à¦¬
èĩ ³
Ġë ¡
Ġãĥ ı
Ġç ´
Ġe ing
Ã¸ g
à§ĭ à¦²
Ġ ÉĻs
Ġáĥ¬ áĥĲáĥłáĥĽ
ç´ Ħ
read y
Ã´ tel
ĠØ¨ Úĳ
id ir
Î¼ Î¼Î±
ci d
ov Ã½
Ð¾ÑĢ Ð¸ÑģÑĤ
Ġl ive
Ġìł Ģ
ĠÐ¿Ð¾Ñģ Ð»ÐµÐ´
ĠmoÅ¼ na
if ul
ç ħ
Ø¨ Ø§Ø±Ùĩ
Ġst at
àµĩà´ ¶
ar na
Ġà¹Ĥà¸ Ľà¸£
Ø¨ Ø§Øª
¡à¸ ±à¸
Ĩ áĢŃáĢ¯
ãĥķãĤ ¡
Ġb ody
Ġm Å¯Å¾e
Ġà« §
ĠÐº Ð°ÑĢ
Ġb ak
×ľ ×ĳ
ĠØ·Ø± ØŃ
ĠÙħ Ø§ÙĨ
à¤ķ à¥ĭ
áĥĶáĥłáĥ ¡
us am
d Ä±
am enti
Ġ ä¹Ł
i ble
in nen
ä» ķ
Ġ×ĳ ×ĳ
ĠÐ¾Ð±Ð»Ð°ÑģÑĤ Ð¸
ar kan
Ġs iempre
à¤¾à¤¨ à¤¾
Ġid Åĳ
ĠÅĽ wi
cj e
Ġte Å¼
ÃŃ o
ÏĦ Î®ÏĤ
om me
cz enia
×Ĺ ×§
Ġm ÉĻn
ĠØ¯ ÛĮØ§
Ġf a
áĢ±áģ¾áĢĢ áĢ¬áĢĦáĢ¹áĢ¸
±à¸ ļ
ìĹĲ ê²Į
ì »
ne y
Ä° N
if ica
ÑĥÑİ ÑĤÑĮ
ìĺĪ ìķ½
ÃŃ ne
be i
u ÃŁ
à¤¿à¤ Ł
ÉĻ li
Ġà¤¸ à¤¬
Ġ×ŀ× Ĵ
ĠØ¬ ÙĦ
à°¿à° ¸
áĢ¯áĢ¶ áĢ¸áĢ
áĥ£áĥ ¤
ĠÙģ Ø¥
ãģĵ ãĤį
à®¿à® ¨à¯įà®¤
Ġà®İà®© à¯įà®©
Ġ20 20
Ġtr á»įng
Ġcer tain
j Ã¡k
ÑĬ Ñĩ
¡à¸² à¸£à¸
ĠáĢ Ĥ
à¹Ģà¸ Ķ
ĠÎł Îµ
o le
ab e
åĬ ©
ÏĢÎ¬ ÏģÏĩ
áĢ¬áĢ¸áĢ ħ
ãģ« ãģĬ
Ġà®¤ à¯Ĩà®°
Ġsu per
à«įàª° à«Ģ
à¯Īà® ªà¯į
Ġ" ,
è² ©
um b
à¹Ĥ à¸Ļ
Ġjo b
Ġàª¸ àª°
Ð° ÑĨÑĮ
Ġne ll
àª¿ àª°
Ġd Ã¥
Ġw il
ãģĳ ãĤĭ
èĲ ¥
é¡ Į
Ûģ Ø±
Ð°Ð´ Ð·
å Ĥ
Ġur m
Ġcz ÄĻ
Ġà¤¦ à¤¿à¤¯à¤¾
ĠÎĺ Îµ
ĠÏĦ ÎŃ
ot s
Ġk y
åĳ Ĭ
Ġíı ī
áĥĺáĥĲáĥľ áĥĺ
Ġà´¸ àµįà´µ
ĠÐ²Ñģ ÐµÐ³Ð¾
ÙĪÛĮ ÛĮ
Ġo Ã¹
Ġë¬ ´
Ġhul le
Ġfr an
Ġen ough
oc uk
ĠØ§Ø¯ Ø§ÙħÙĩ
åĵ ª
Ġtrab ajo
Â ´
ĠK on
lÄ± q
ĠAmer ic
çµ Ĳ
aj or
ĠJ ah
Ġba o
ca ÄŁ
Ġac ross
æ¡ Ī
re jt
Ġcom es
as sen
Ġbe im
å¿ ħ
Åĳ r
ĠÐ¾Ñģ Ð¾Ð±
Ġa questa
Ġp ack
Ġother s
ĠØ¬Ùħ ÙĬØ¹
à«ĭàª ľ
Ġç ¬
Ġa ix
an lar
ĠØ¢ Ø±
Ġd Æ°á»
w as
Ġse kÃ¤
re ich
çĶ º
Ġà®ķ à¯ĭ
Ġf und
Ñĸ Ð¶
Ġà®ķ à¯ĩ
Ġfo is
ĠÎķ Î»Î»Î¬
Ġo cc
r at
ĠP re
Ø± Ø§Øª
Ð¸Ðº Ð¾Ð²
Ġentre pr
Ġa ld
ĠíĶ Ħ
ia ÅĤa
ĠâĢĿ ,
ĠØ¨ Ø£
ĠÎºÎ± Î»
Ġ5 0
Ø¶ Ø§Ø¡
Ġk uto
u ales
ãģ§ ãģĹãģŁ
Ġfo arte
Ġjed n
r on
ĠktÃ³ ry
¥à¸ĩà¸ Ĺà¸
áĥĲáĥľ áĥĵ
ĠÎ¿ Î¹ÎºÎ¿
à®¿à®¯ à®¿à®²à¯į
ĠÙĩ ÙĨ
j Ã¡t
×ķ×ĳ ×Ķ
ģ áĢ¼
ĠØ¯Ø³Øª Ú¯Ø§Ùĩ
in ter
ìĭ ¬
un de
es e
ĠH ar
Ġä¸ ĭ
con om
cel ona
ãģ İ
ĠÕ ¶
m aya
ĠØªÚ¾ ÛĴ
sk ap
Ġs ed
ãģĳ ãģ¦
à¹Ģà¸ ª
Ġà¹Ģà¸ Ķà¸´à¸¡à¸ŀà¸±à¸Ļà¸
à¦¾à¦ľ à¦¾à¦°
Ø´ Ùģ
Ġ×ľ ×¦
Ġà°ķ à±Ĥà°
cs ol
Ġìļ° ë¦¬
ØŃ Ùĩ
jo res
gr aph
à«ĩàª² àª¾
Ġt am
Ġk up
az io
ĠÃ ĭ
Ø´ Ùħ
ĠÙĨ Ùĩ
ÑģÐº Ð¾Ð¼
Ã¼ Ã¼
ĠA pp
Ġw iel
Ġso cial
or n
ĠN u
ĠÑĢ Ð°Ð¹
ĠÚ¯ ÙĪØ´
Ġle ft
Ġse veral
Ġto ol
Ġ ÏĪ
ĠØª Ø·
ĠáĥĽ áĥĺáĥĽ
ic ular
v ers
áĢ±áĢ ħ
à¥ģ à¤®
ÑĸÐ»ÑĮ ÐºÐ¸
Ġì Ī
ut os
Ġàª¨ àª¹
ar z
v al
Ġàªª àª¹
ĠØ§ÙĦØ³ Ø¹ÙĪØ¯
ut ure
ĠØ§ÙĨ Ûģ
Ġà° ²à±ĭ
ĠÙĦ Ùĥ
ut t
ik s
Ġes o
Ú© Ø±Ø¯
Ġm ang
zet t
åħ Ī
end ir
gen d
Ġch icas
Ġ×¢ ×ĵ
Ġcon he
Ġ: #
ĠÑģÑĬ Ñģ
áĥĿáĥĳ áĥ¡
Ġm ind
±áĢĲáĢ¬ áĢ¹áĢ
åº Ĩ
éħ Ĵ
Ġz p
Ġden ne
Ġà¸ Īà¸
Ġal ready
Ġan v
áĥĺáĥ §
áº³ ng
ãģ® ãģĬ
à¥ĭ à¤Ł
à¤¾à¤ £
ì ¶ľ
æĥħ åł±
Ã¡ ÅĻ
Ġëĺ Ĳ
Ġb iá»ĩt
ĠØ§ÙģØ² Ø§ÛĮØ´
Õ¡Õ ¾
Ð°Ð² Ð°Ð½
ĠI D
l ÃŃ
Ġê³ Ħ
Ð¾ÑĢ Ð¸Ð¸
ĠØ¨Ø² Ø±Ú¯
áĢ¯ áĢĽ
Ïĥ ÏĦÎ¬
am en
Ġ201 5
Ġk uf
ĠÐĳ ÐµÐ»Ð°ÑĢ
ĠÎµ Î¹
åĪ Ĺ
ãĢ İ
Ġìĸ ĳ
Ġalt ri
c um
Ġj Ã³
Ġà¤ľ à¤¿à¤¸
ÙĲ ÙĨ
Ġt id
Ġãĥ Ľ
ãĥ¬ ãĤ¹
Ġaut re
Ġà´® àµģà´
Ġà®µ à®¨à¯įà®¤
ĠÐ¿ÑĢÐ¾ÑģÑĤ Ð¾
Î½Î¿ ÏĤ
Ã¶ ld
Ġ×¢ ×¦
ĠN Ã£o
ber g
Ġe ver
åľ° åĿĢ
ĠÐ ®
ĠÑģ ÐµÐ¼
æĹ¶ éĹ´
Ġl áº§n
Ġf av
Ġf ark
ĠÐ²Ñģ ÐµÑħ
ìĹ Īëĭ¤
r Ã¥
ĠØ§ÙĦ Ø§
Ñĸ ÑĨÑĮ
ÙģØ¶ ÙĦ
éĢ £
Äį e
ĠÑĤÑĢÑıÐ± Ð²Ð°
ĠØ¬ Ø§Ùħ
Ġba ÄŁ
à¥įà¤¯ à¤¾à¤ļ
ķà¸±à¸ §
ĠÐ² Ð°Ð¼
ĠÙĪ Ø²
ĠéĢģ æĸĻçĦ¡æĸĻ
ĠÏĥ Î¿Ïħ
ãģĹ ãģı
viron ment
uy á»ģn
ĠÐ½ Ð¸
Ð°Ðº ÑĤÐµÑĢ
Ġà¦¥ à¦¾à¦ķ
Ġm ange
ĠáĢ»áĢĻ áĢĶáĢ¹áĢĻ
Ġan ak
Ð² ÑĬÑĢ
Ġs ent
Ú¯ Ø°
ãģ® ãģĮ
Ġit ali
Ġt et
ÐµÑģÑĤ Ð¸
Ã³ lo
ìłģ ìĿ¸
Ð¾Ð» ÐµÐ¼
à¦ ŀ
ĠM il
ÛĮØ¯ Ùĩ
er gy
Łà¸ ¸à¸ķà¸
Ġmul a
Ġcomp an
ĠÐ³ Ð¾Ð²Ð¾ÑĢ
Ġn or
Ïĩ Î±Î½
Ġr if
Ġan o
áĢ±áĢ ķáĢ«
ĠÑĨ ÐµÐ½
à´ ļ
Ø· ÙĤØ©
áĢ¬ áĢĦáĢ¹áĢ·
ĠÐ¼ ÐµÐ´
Ġc itt
å ³
Ġáĥ© áĥĶáĥĽ
ra f
à¤Ĺ à¥ĩ
åľ¨çº¿ è§Ĥçľĭ
Ġb i
à¹Ģ à¸£
°à¹Ģà¸ ļ
is me
å¤§ åħ¨
àª¿àª Ł
Ġm agyar
Ð½Ð¸Ðº ÑĸÐ²
Ġt ÃŃch
×ŀ ×ķ×ª
b ij
Ġktor Ã©
Ġàª¬ àª¨
ãĥ³ ãĤ¯
Ã©t Ã©
è£ ½
Ġcount ry
Ġb Ã¡o
Ġà¸ ģ
ĠD onna
ĠÙĨ ÙģØ³
ÙĦÙĬ ÙĦ
Ð¸Ð½ Ñĥ
qu er
ar s
Ð¸ ÑĦ
ĠÐ¿ Ð¾Ð»ÑĮÐ·
Ġà¦ķ à§ĭ
Ġdur ante
Ø±ÙĬ Ø¯
Ð¾ÑĢ Ð°
åĸľ æ¬¢
å ©
ador a
Ġtr y
Ġà´ ŀ
h nen
iáº¿ u
áĢ±áĢŀ áĢ¬
Øª Øµ
Ġa iz
ĠÑģÐ¾ Ð¾ÑĤ
Ĥà¸ ¶
Ġt arih
Ġpr ost
Ġp urch
Ġ01 68
ÑģÑĤÑĢ Ð¾Ð¹
Ã¶ d
ãģĳ ãģ©
ĠG er
ĠD it
Ñī Ð°
ĠØ§ÙĦÙħ Ø¤
Ġl ink
Ġnuev o
id ent
Ġall t
Ġsp ace
Ġt uy
ĠÙ¾ Ø§Ø³
ĠÑĨ ÐµÐ½ÑĤ
ãĤĴ è¦ĭ
± ħ
Î¸ Î½
ÅĨ em
åħ Ń
áĥķ áĥ¡
Ġth Ãªm
Ġ Ñİ
p ort
ĠÅ¡ t
ĠF Ã¼r
or ang
wi Äħz
Ġal c
Ġmeng gunakan
Ġdes arro
ãģ¨ ãģª
ĠÐ· Ð½Ð°Ñĩ
áĥĺáĥ ŀ
ÙĪ Ø·
Ġà®ª à®²
Ġth á»ĳng
ĠK ur
ÏģÎ± Îº
s ung
Ġkas ut
j u
à¯Īà® ļ
Î §
Ġh ÉĻr
ĠkÃ¤y tt
à¥įà¤ §
ĠáĥĽáĥĲáĥĴ áĥłáĥĲáĥĽ
Ġci udad
Ġn ombre
Ġein es
Ø§Ø¨ ÛĮ
Ð¸ÑĩÐµÑģÐº Ð¾Ð¹
ëħ Ģ
ĠØ§ÙĦØ¹Ø±Ø¨ ÙĬØ©
ÑĥÑĢ Ñĭ
áģ ĭ
b ang
åĢ ¼
Ġà¤°à¤¹ à¤¾
Ġ0168 27
an ces
Ġed ir
ur Äĥ
ĠÃ¤ ven
à®µ à¯ģà®®à¯į
Ġde ve
ĠáĥĽ áĥĶ
Ġà¤ĩ à¤¨
ĠÐł Ðħ
at ur
Ġk ali
ingk at
ĠØ¢ Ø®Ø±
Ġde ut
Ġw en
Ġty p
ÐµÐ³Ð¾Ð´ Ð½Ñı
Ø§Ø³ ÙĬØ©
Ġt Ãµ
Ġz we
ĠØ¨Ø§ÙĦ Ùħ
à¤¿ à¤Ĥ
íķ© ëĭĪëĭ¤
Ø¬ ÛĮ
â Ķ
Ð°Ð»ÑĮ Ð½ÑĭÑħ
ĠØ£Ùĥ Ø«Ø±
Ķ à¸µà¸
s l
Ġne u
ģ áĢ¶
Ġh Ã³a
nie Å¼
Î»Î¿ Ïį
w or
áĢŀ áĢŃ
I S
Ð°Ð· Ð°Ð»
Ġà®µ à®´
ĠP M
áĢ½ áĢ²
Ġngh Ä©
Ġp ujck
Ð°Ð¹ ÑĤÐµ
ĠáĢ¡ áĢ²
ë¥ ¸
Ķ áĢ²áĤĶ
à´ «
Ġbel ow
Ġs Ã¤
ĠÏĢ ÏģÎŃÏĢÎµÎ¹
Ġsu is
ut ions
v r
Ã³r ia
Ġgia o
ĠÐµÐ´ Ð¸Ð½
Ġar bej
Ġe igen
Ġå ¨
Ġap a
×¤ ×§
am it
Ġan al
ĠÃ§ a
ci ales
ĠëĮĢ íķľ
Ġan cora
Ġcall ed
Ġcu enta
Ġy Ã¼z
m esi
u ah
Ġz am
Ð² ÑĸÑĤ
Ġ×ľ ×Ĵ
Îº Î»Î·
ĠÄĳ áº¥t
ab b
ou th
ĠLe ben
l ash
Ġä¸ ī
ÑĤ Ð¾Ð²
Ġ×Ĳ ×Ļ×ļ
áĥĿáĥł áĥĺ
á»£ i
æĶ ¹
Ġê³ ¼
áĢĲ áĢ±áĢ¬áĢº
Ø± Ø¬
Ġj ika
t edir
Ġqu ier
Ġìĺ ¨
ĠØŃ ÙĤ
×Ĳ ×Ļ
Ð¸Ð» ÑģÑı
ĠØ¥ Ø°Ø§
Ġa ur
áº§ y
im et
Ġmas k
Ġf Ã¸l
ĠUn iversity
ĠÄ° l
ĠÃ ķ
ÈĻ ti
çĬ ¶
ĠáĢ¡ áĢĽ
ĠÚ© ÙĦÛĮ
Ġà®® à®±à¯įà®±
Ġgr atu
acj e
Ġb aru
à´¿à´ķ à´³
m Ã¡ny
Ð°Ð· Ð°ÑĤÑĮ
o on
en se
ti cip
Ġme an
Ö ´
Ġpas t
ãģĭ ãĤĬ
×¨×Ĳ ×©
Â ¨
Ġà®ħ à®±
ãĥ¼ ãĥ³
Ø§ ÙĬØ©
ãģ§ ãģĤãĤĭ
ĠáĢ ·
ĠÎ¼Îµ ÏĦÎ¬
Ġàªľ à«ĭ
hl en
ĠD r
éĩ İ
Ġh ig
íķĺ ìĹ¬
j as
Ġtreb uie
ĠÐ³ Ñĵ
ĠØª Ø¯
Ġcom ment
à®¿à®ķ à®³à¯į
ĠæĹ ©
ĠÐ· Ð½
ate g
à±ĩà° ¸
Ġkw enye
ĠÙĨ Ø¨
ĠÐ½ Ð¸Ðº
ĠÐŁ Ð¾Ð»
Ġà®İà®© à¯įà®ª
Ġç ¾
ÙĪ Ø¶
Ġd Ã¼z
Ġe uro
Ġl á»±c
Îº Î·
à¦ ī
å£ «
à¤¾à¤ ģ
Ġget ting
in Äĥ
ç ı
end ing
Ġà¤¸ à¥įà¤µ
mek tedir
Ġim m
ãģ«ãģª ãĤĭ
Ð°Ð» Ð½Ð¾
ĠØŃ ÙĪÙĦ
Ġr á»ĵi
ĠÔ ±
éĿ ŀ
Ġë§ İ
y ect
ĠØ§ÙĦÙĪ Ø·
Ñĭ Ñĩ
Ġç º
ĠÙģØ± ÙĩÙĨÚ¯
ĠÐ¾Ð´ Ð¸Ð½
Ġand re
ĠØ¨Ø± Ø±Ø³ÛĮ
ĠÙĪÙĦÙĥ ÙĨ
ĠØ® Ø§Ø±
à«ĭ àª°à«įàª
ĠÑģÐ°Ð¼ Ð¾
×Ĳ ×Ļ×Ŀ
Ġ Ã¡r
ÈĽ a
el Åĳ
er w
ĠÑĤÐµÑħ Ð½
Ġìŀ ħ
ra it
Ðµ Ñĺ
ÄŁr en
ĠÚ© Ú¾
Ġà¦¬à¦² à§ĩà¦¨
at ta
Ġsh are
er et
æĹ ħ
Ġinst all
Ġem ber
Ġs Ã³
cz enie
Ġï¿½ï¿½ï¿½ï¿½ï¿½ ï¿½ï¿½
ì ¢
ĠÐ½Ðµ ÑģÐº
Ġn Ã¥r
E L
Ã ĳ
is m
Ġ Å¼
Ð¼ Ð¸Ð½
Ø§Ø± ÙĬØ©
Ġch á»ĭ
ĠÄĳ Æ¡n
ĩ à¸²à¸Ļ
ĠÑĢÐ¾Ð± Ð¾ÑĤ
å¾ ĭ
Ġsh ort
Ġti Ãªu
Ġåħ ¨
à¦¿à¦ķ à§ĩ
ãģ ¶
Ġg anz
Ġl en
ÑĬ Ð½
Ġ0 8
Ġs me
ĠÑĤÐ° ÑĪ
èĩª å·±
Ñĥ ÑģÐº
×ĵ ×Ŀ
áĥłáĥ £áĥļ
Ġáģ ¿
ãĥ¼ãĥ Ħ
ãĥĶ ãĥ¼
r if
Î¼ÎŃ Î½Î·
ĠãĢĤ âĢĿ
ãĤĵ ãģł
sk Ã¡
Ġáĥ¡ áĥĲ
ĠÐ± Ð°Ð½
elijk e
Ġs w
Ġ×Ĳ ×ĳ
ud ah
O L
ÙĬØ¯ Ø©
Ġh un
Ġan no
Õ¥ ÖĢÕ
ĠPar is
Ġh ur
ĠÛģ ÙĪÙĨ
à®¾à® ļ
ĠÚ©Ø± ØªÛĴ
Ġve Ä¾
Ã¤l t
am ba
Ġnh au
Ġt we
Ħà¸£à¸Ķà¸´à¸ ķ
Ġà¦ķ à¦¿à¦¨
Ġtr ung
ur ther
Ġtak Å¼e
ter ior
Ġs en
à®µ à¯ĩ
áĢ± áĢ¸
Ġà¦ı à¦¸
Ġàª¹àª¤ à«ĭ
Ä« s
Ġw ind
ward s
Ùĥ Ø©
Ġn ad
v od
ĠØ§Ø³ÙĦØ§Ùħ ÛĮ
Î¼Îµ Î½
à°Ĥà° ļ
Ġka Å¼
es to
èª ¿
ĠÑĪ ÑĤ
Ñı Ñģ
Ġn ett
ĠçĻ¾å®¶ ä¹Ĳ
Ġren cont
t k
à°¾à° ª
ĠÏĢ Î»Î·
ĠØ¬ Ø§ÙĨ
ĠÚ©ÙĪ Ø¦ÛĮ
alm az
c os
Ġpa ano
schl and
Ġmul te
Ã ĺ
áĥĶáĥ ®
ĠÐ² ÐµÐ´
Ġà°µ à±Ĩ
Ġal k
ĠÐ¹ Ð¸Ð»
Ð» ÐµÐ¹
ĠÐ¿ÑĢÐ¾Ð´ ÑĥÐº
áĢ³ áĢŃ
ÑĢ Ð¾Ðº
ãĤ ´
ä¼ Ĺ
ĠØ§ÙĦ Ø±ÙĬ
ĠØ£ Ø¹
c ado
Ġë Ŀ¼
l Ã³
Ø´ ÛĮ
ĠÚ© ÙĪØ¯
Ġqu ien
Ġbl ir
Ġâ ŀ
lÉĻr in
Ġs Ã©
Ġé Ľ
Ġein fach
éĵ ¶
Ä Ĳ
Ġr ange
Ġho áº¡t
Ġíĺ¸ íħĶ
ĠÐ¿Ð» Ð°Ð½
Ġfin den
Ġcle ar
it her
Â £Â¬
Ġáĥŀ áĥĺáĥłáĥ
Ġ0 7
ãĢ į
ĠÙĨ ØŃ
æľĢ æĸ°
Ġmo gelijk
áĢĶ áĢŃáĢ¯áĢĦáĢº
ä» İ
Ð» Ð°Ñģ
íķ ¨
I D
à«Ģàª ľ
is ion
ur ity
Ġtiáº¿ ng
enn om
ĸà¸ ¶à¸
ĠÐ²ÑĸÐ´ Ð¿Ð¾Ð²ÑĸÐ´
ÙĪØ± ÙĬØ©
Ġé ¦
çİ ĩ
Ġfrien d
ĠØª Øº
Ġid ent
ģà¸ ±à¸Ļ
Ġ0 6
Ð¾Ð´ Ð°
h ir
is ter
Ġer a
ĠØ§ÛĮ Ø³
Ġà¦Ĩ à¦¬
Ġmen os
æĭ ¿
Ġà¤ķà¥ģà¤ Ľ
Ġt Ã¼m
ĠØ§ÙĦÙĤ Ø±
Ġàªª àª¡
Ġqu Ã©
am s
Å£ Äĥ
Ġb ud
ĠØ® Ø·
ĠØ± Ø§ÛĮ
k k
e z
ãĥ¼ãĤ «
à¸Ńà¸¢à¸ ¹
à¸µà¸¢ à¸Ļà¸
Ġk ry
io on
ĠC or
Ġc her
ier e
ãĤ¤ ãĤº
ĠÙħ Ø«ÙĦ
Ġv Ã¥r
ĠÐº Ð¾Ñĺ
ĠÑĤÑĢ ÐµÐ±
Ġpod er
×Ĳ ×¨
pu Ã©s
áº¯ m
ient s
Ñĭ Ð¼Ð¸
ĠØ¯ ÙĨ
ìħ ĺ
or g
Ġpre cis
he ly
Ġm ajor
ĠÏĢ Î¹Î¿
Ġê²Į ìŀĦ
ĠÑģÐµÐ± Ñı
à®¿à®± à¯įà®ķ
Ġh izmet
ĠØ¢ ÛĮ
3 0
èĤ ¡
Î¼ Î¿Ïħ
ĠU na
ĠÙĦ Ø£ÙĨ
Ġav ant
ĠØ³ ÙĦØ§Ùħ
àª° à«Ĥ
Ġorgan iz
Ġà¹Ģà¸ ¥
Ġbil g
Ġnel le
Ġæī ĭ
ĠáĥĲáĥĵ áĥĲáĥĽ
Ġgiá» Ŀ
Ġtá» ī
Ġdo ing
ç» Ļ
ÑĢ Ð°Ð´
ĠC oun
ĠC z
ĠáĢĻ áĢ¼
al mente
ĠB et
×ľ ×ĺ
à´¾à´¤ àµįà´°
Ġáĥł áĥĲ
çµ Į
Ĭà¸± à¹Īà¸Ļ
ĠÙħ Ø¨
ĠÑĥÑģÐ» Ð¾Ð²
Ñı Ð½
Ġt ambÃ©
Ð°ÑĶ ÑĤÑĮÑģÑı
Ã¬ n
ig lio
el ik
Ġindust ry
Ġinform aciÃ³n
Ġque llo
ĠÐ¸Ð½ÑĤÐµÑĢ ÐµÑģ
ĠÐ¼ Ð°
uk a
Ġko h
ament os
Ġkeh idupan
Ġjs me
Ê» i
Ġt ÉĻr
os s
Ġk az
ĠØ¯ Ú©
all eng
à«ģàª ľ
ĠØ§Ùħ Ø±ÙĪØ²
Ð¸ÑĩÐµÑģÐº Ð¸Ð¹
ĠØ§Ø·ÙĦØ§Ø¹ Ø§Øª
Ġà´¸ à´®
ĠØ¬Ùĩ Øª
ĠÐ¼Ð¾Ð³ ÑĥÑĤ
Ġj i
áĥľ áĥĶáĥľ
à°¤ à±ĭ
ĠÎº Î¿
Ø§Ø® ÙĦ
Ġcas o
Ġà°Ĵ à°ķ
ĠÙĩÙħ Ø±Ø§Ùĩ
Ġà®ħ à®Ł
íĭ °
áĢĶ áĢ¬
ou den
Ġp ierw
ĠÏĥ ÏĩÎµ
Ġac este
×ŀ ×ķ×ĵ
Ġà¤µ à¥įà¤¯
Ġ×ĳ ×Ľ
ĠÄ° st
Ġho e
Ġà¤¯ à¤¾
ing g
àª£ à«Ģ
à´± à´¿à´¯
Ġst ory
à°¾à° ¬
Ġd ro
Ã¦ ld
ĠÐ¿ ÑĬÑĤ
x e
Î³ ÏģÎ¬
i res
Ġtrabal ho
ient es
Ñı Ð¶
Ġdo ve
Ġbes ar
b ek
Ġval ue
Ãº bl
Ð¡Ð ĥ
Ġtr á»Ł
Ġm ig
ÉĻ ÅŁ
ĠÐ± ÐµÑĢ
it ing
Ġbet 365
ÑĨÑĸ Ñı
am ine
aci a
te en
ĠE N
ĠÐ¿ÑĢÐ¾ ÐµÐºÑĤ
ou vel
Ġàª° àª¾àªľ
Ġtr ÃŃ
ÏĮ ÏĦÎ·
li ÄŁi
Ġn eden
Ġà¦ķà¦° à§ĩà¦¨
Ġà®µ à¯Ģ
Ïĩ Î¿
Ġìķ Į
Ġbe au
eit s
Ġà¸Ĺà¸ Ķà¸¥à¸Ńà¸ĩ
Ġå º
Ġd ol
Ġ ents
Ġv Äĥn
5 0
ĠY our
Ġres p
ĠÚ¯Ø±ÙĪ Ùĩ
áĢĶáĢ¹ áĤĶ
Ã¡r ia
Ð¾Ñĩ Ð½Ð¾
ĠÙĨÙħ Ø§ÛĮØ´
ze a
Ġb ine
Î¼Î¬ ÏĦÏīÎ½
ãģĿ ãģ®
Ġpart icular
Ġ×Ļ ×Ľ×ķ×ľ
g el
ĠÐ» Ð²
ĠsÃº a
ĠE esti
Ð± Ñĭ
ĠT L
ie ct
Ġà¤¦ à¥ĩà¤ĸ
Ġy ol
Ġl ors
Ġre du
Ġak kor
Ġãĥĸ ãĥ©
» áĢĸáĢħáĢ¹áĢ
Ġan meld
ĠáĥĴáĥĲáĥĽ áĥĿáĥ
Ġmo do
æ¯ Ľ
Ġæ ¸
Ġè ĭ
n es
Ġv áº¥n
Ġåı ¯
Ġà¦° à¦¾à¦ľ
ÙĪÙħ Ø§Øª
Ġex ample
ÐµÐ½ Ð½Ð¾Ð³Ð¾
åĪĨ æĹ¶æĹ¶å½©
Ġàª® àª¾àªĤ
we ise
Ġf atto
Ġrec ommen
Ġà¸ ĭà¸
ÙĪÙĤ Ø¹
ĠãĢ İ
Ð°Ñı Ð²
ĠB us
Ð¸ÑĤÐµÐ» Ñı
ĠÐ¾ Ð»
Ġ0 4
ÙĨ Ùī
ar ta
Ã¤s sÃ¤
Ġà¦ªà§įà¦° à¦ķ
áĢĲ áĢŃáĢ¯áĢ·
ĠW enn
Å¾ d
á» ħ
is ten
ģà¸±à¸ ļ
áĢĲ áĢ®
ìĹħ ìĨĮ
Ġà¤¸ à¥įà¤¥
Ã¡s ok
el o
Ð±ÐµÐº Ð¸ÑģÑĤÐ¾Ð½
×ķ×ľ ×Ķ
er na
j Ã¤
ĠM on
Ð² Ð°ÑĢ
áĢ» áĢĻ
áĥĿáĥĵ áĥĲ
Ġszer int
à¹Īà¸ ¡à¸
à°¦ à±įà°¦
ĠÑĥ Ð³
n et
ĠÐ· Ð°Ñģ
Ġ222 70
Ġàªª à«ĭàª¤
ĠA nh
ìĥ ī
ÅĤ os
Ø§ÙĦ Ø§Øª
§ à«Ģ
ĠÐ¾ÑĤ Ð´
ĠkeÃ§ ir
Ġf uture
Ġdep uis
ĠB el
ĠÐ²ÑĭÑģ Ð¾Ðº
Ġfil es
Ġter j
ĠÑĤÐ°Ðº Ð¾Ð¶
àµįà´ £
Ġmo ins
Ġand ra
ìĦľ ë¹ĦìĬ¤
Ø§ÛĮ ÙĨ
ÑĢÑĥ ÑĪ
er de
Ġa ÅŁ
à· Ģ
æŁ »
Ġmel akukan
Ġmo Å¾
ĠSt r
ç ĭ
ĠØ¨Ùĩ Ø§
ill as
æŃ ¥
il de
ĠØ³ Ùħ
Ġbr ing
Ġko le
Ġdo ar
Î ĺ
is es
ĠÐ¼ Ð¸
Å¡an u
am er
Ġì ¦
Ġtak Ã©
Ġnie uwe
Ġoff ers
ĠÃľ ber
Ġ×Ĺ ×©
ĠØ§ÙĦØª Ø¬
Ġà¦¦ à§ģ
Ġv Ã¤r
Ð² ÐµÐ´
Ġà§ «
à§ĩà¦Ľ à¦¿à¦²
ĠMat rimoni
à«įàª ¨
ut a
ĠØ§ÙĦØª ØŃ
ä¹ ł
ĠÐ± ÑĸÐ»ÑĮÑĪ
ed ig
ĠØ§ÙĦØ¨ ÙĦ
Ġà¦¸à¦® à§Ł
ĠM ay
áĥł áĥĶ
Ð½Ñĸ ÑģÑĤ
Ġp ir
Ġber k
ÐµÐ½Ð¸ ÐµÑĤÐ¾
ÐµÐ· Ð´
à®² à¯Ī
ip s
it or
à¦¿à¦ ·
ĠÙĨ Ø±Ùħ
ģà¸ ©
Ġut Ã¡n
Ġn Ã¡s
Ġcu á»Ļc
ÅĤ at
à«Ģàª ¸
Ġc amp
w end
Ġà°ī à°¨à±įà°¨
Ġà¸ Ĥ
Ñħ ÑĸÐ´
Ġc ir
Ã¥ng a
ÙĨ Ø§ÙħØ¬
ÎŁÎ Ľ
ØŃØ¯ Ø«
ĠÑĥÑĩ ÑĥÐ½
ta ble
Ø® Ø¯Ùħ
Åĳ sÃ©g
à¤°à¥įà¤ µ
æĦŁ ãģĺ
n ah
ĠÂ ¡
æ ¤
ĠÙģÙĬ ÙĩØ§
Ø³ Ø§ÙĨ
Ð´ ÐµÑĢÐ¶
Î½ Î¹Î±
à¥įà¤ ¡
à¥ģ à¤¤
Ġz Ã¡k
ĠÏĢ Î¬Î½
íĸ Ī
ĠØ¨ Ø·
Î» Ïī
Ġc ity
ĠÙħØ· Ø§ÙĦ
ä» Ĭ
Ġb Ã½
Ġ2 6
Ġà°ª à±ĭ
Ġph Æ°Æ¡ng
z enÃŃ
Î³ Ïī
ĠØ´Ø¯ ÙĨ
A P
à¥ģ à¤ª
Ġp Ã¤iv
an Ã§a
à¤¢ à¤¼
Ã§ ais
ru h
áĢĳ áĢ¬áĢ¸áĢ
lig en
ĠØ¢Ùħ Ø±ÛĮÚ©
Ġqu á»ĳc
m ark
Ġsp iel
ĠÙĪ Ø§ÙĤ
d ing
l as
ĠD a
Ġ×¨ ×§
Ġà¤ķ à¥Ī
Ġà¸ Ľ
à¤¾à¤ ł
le gg
ĠáĢ±áĢ Ļ
å· Ŀ
áĢĢ áĢ¯áĢŃ
Ġt alk
Ġs ama
Ġo lyan
Ġbag i
Î´ Î¹Î¬
Ġh ours
ìĺ¤ íĶ¼
à¥Ģ à¤²
g ed
Ġìŀ ĳ
Ġà§ ¦
ĠÎ¼ Î·
ÉĻs indÉĻ
Ġp utas
æī ĳåħĭ
ĠÚĨÙĩ Ø§Ø±
ĠæĹ¥ æľ¬
Ġro dz
Ġs ok
Ġcon tain
Ġà¤¹à¥ģà¤ ı
ĠN em
ĠáĢ±áĢ ľ
Ð»Ñı Ð´
éļ Ľ
Ġle ast
Ġà¦ķ à¦¥
éĺ ²
Îº ÏģÎ¹
ÙĨØ¯ Ø§ÙĨ
Ġáĥ¨áĥĶáĥĽ áĥĵáĥĶáĥĴ
æį ®
Ġæ Ķ
Ġtá» ¥
) .
Ġol uÅŁ
Ġj etzt
Ġde b
ci ally
Ġkn own
ĠÐ¼ ÐµÐ¶Ð´
ĠáĢ± áĢĢáĢº
à®¾à®° à¯įà®ķà®³à¯į
ĠÙĤ Ø³Ùħ
ÙĪÙħ ÛĮ
Ġàª® à«ĩàª
ĠEs c
ãģ§ ãģĹãĤĩãģĨ
Ã«s e
×Ļ×§ ×Ķ
Ġ×ĳ ×Ļ×Ł
ÅĤ ug
×¤ ×Ļ
Ġor igin
Ġ <
à´¿à´ ±
ĠÐ³ Ð¾ÑģÑĥÐ´Ð°ÑĢ
ĠáĥĽ áĥĺ
ĠÎ½ Î¿
áĢķáĢ¼ áĢ®áĢ¸
Ġsel bst
Î· Î³
Ñĸ ÑĶ
å¸ ¦
åķĨ åĵģ
Ġa insi
Ġwy s
Ġê° Ļ
Ġv ita
Ġu Å¼y
àµįà´¯ à´Ĥ
ĠÃ¶ l
íĮ Į
Ġ\ "
íķĺ ê²Į
Ġd áº«n
ÐºÐ° Ñŀ
Ġa ast
Ġà®ħà®° à®ļ
ĠØª Ø£
Ġv alam
ÑĬ Ð¶
Ġ2 8
åı ¤
Ġy et
à¦¤ à§įà¦¤
ĠÄ «
ÎŁÎ Ŀ
ĠrÃ³w nieÅ¼
×ª ×¨
Ð½ ÑĸÐ²
Ġk os
1 8
Ġb Ãªn
Ġcas a
Ġcompan ies
ĠÃ® m
Ġà¦¬à¦¿à¦¶ à§įà¦¬
Ġon ce
Ġdiv ers
ĠáĢľ áĢĢáĢ¹áĢ
àª¾àª¨ à«ĩ
ĩà¸´ à¸Ļ
Û İ
Ø§ÙĨ ÙĪÙĨ
ãĤ» ãĥĥãĥĪ
ĠÐ Ħ
un que
Ġdal Å¡ÃŃ
Ġa Å¾
ord ing
Ø§ÙĦ Øª
in os
à§ĩà¦² à¦¾
ÏĢÎ¿ Î¯
à¹īà¸Ńà¸ ¡à¸
ir d
ĠÄĳá»ģ u
Ġn Ä±n
ĠÐĳ ÑĬÐ»Ð³Ð°ÑĢ
Ġé ģ
ĠØ¨ÙĪØ¯ Ùĩ
ĠæĿ ¥
à®¿à®ķ à®³
áĥĺáĥ «
ara ct
Ĺà¸ ³
os ed
ik us
áĥĶáĥłáĥ Ĺ
ÙĤÙĬ ÙĤ
Ġà®¤à¯Ĭ à®Ł
ê¹Į ì§Ģ
ĠÙĪØ² ÛĮØ±
Ġc v
ĠáĥĴáĥĲáĥĽ áĥĿ
mak t
ci es
Ġ ul
Ġilg ili
ĠØ¯Ø§Ø± ÙĨØ¯
Ġà¸ Ķà¸
Ġë§ ¤
ire d
ĠâĢ ¢
ĠáĥĽ áĥ¡
Ġcont ra
Ùĩ Ùı
er ek
å· §
ĠâĢĿ .
l ie
Ġs ido
in ation
Ġinv ol
ĠÃ Ĳ
è³ ª
Ġpr iv
Ġt v
ë³ ¸
ÐµÑĢ Ðµ
à¸Ńà¸ ļ
ÑĢÐ° Ñŀ
á»ĩ t
àµįà´¯ à´®
atu ur
Ġs owie
ĠTr ong
Î¼ÎŃ Î½Î±
ÃŃ st
v or
à¸Ļà¸µ à¹īà¸
Ġë ¹
ÎĹ Îľ
ĠÄĳá»ĭ a
h and
éĤ Ģ
éľ Ģ
Ø§ÙĦ Ùĩ
ĠL ie
Ġà®® à®©
æĭ ī
n ika
áĥłáĥ Ĵ
ëĤ ľ
áĥķ áĥĲáĥľ
sk iej
ĠCom p
Ġret urn
Ġl ugar
à´¾ àµ¼
Ġà¤ļ à¤¾à¤¹
æķ ´
il gan
à´ªàµįà´ª àµĭ
Ġãģ ©
âĶ Ģ
ä¼ļ ç¤¾
Ġm asih
ç ¢º
à« Į
ĠS erv
Ġh á»Ļ
Ġsz ak
o i
Ġ×ľ ×ķ
Ġà®® à¯ģà®¤
Ġtent ang
ĠáģĤ áģĢ
Ġutil izz
ÈĽ e
ĠC atal
ç ª
Ġot ro
Ġbiz t
ĠàªĹ àª¯
Ġb ara
å³ ¶
à§įà¦¯ à¦¾à¦²
ĠÃ©g alement
æī į
Ġê° Ĳ
ÑĢÑĥÐ¿ Ð¿
Ġåħ ¶
ĠÐŁÑĢ Ð¾
Ġê² °
Ġs Ã¼r
ĠÙħØ®Øª ÙĦÙģ
èª ī
ĠØ±ÙĪ Ø´
¼ åĲĪ
Ġdes en
Ġed o
ç Į
Ġpued en
ise en
ĠÙĬ ØªÙħ
ĠÐ¶ Ð¸Ð²
Ø² Ø¯
ÙĨ Ø§Ø¡
Ú© ÙĨØ¯
Ġà°µ à±įà°¯
à®© à®°à¯į
Ġ2 7
Ġes per
Ġr az
ÑģÐ» ÐµÐ´
Ġn ici
cri ption
Ġut iliz
h k
é¦ Ļ
Ġà´ĩ à´¤
ĠJ ak
ĠáĥĽ áĥĿáĥ¡
ĠÙĩ Ø²Ø§Ø±
al d
áĢĻ áĢ¬
il eri
Ġch Æ°a
ut en
ĠÐ£Ðº ÑĢÐ°
íķĺ ê¸°
ĠØ§Ùģ Ø±
åıĸ ãĤĬ
áĥĶáĥĹ áĥĺáĥ¡
ĠØ§Ù¾ ÙĨÛĮ
ģà¸ ¥
Ø§Ø² Ùĩ
ĠM er
Ġ2 9
ou pe
Ġd ont
Ð»Ñı ÐµÑĤ
áĢģ áĢ«
Ġh old
ĠÄį o
à´¨àµįà´ ¦
Ġme ille
ĠÏĨ Î¿
Ġty Ã¶
áĥ Ń
Ġo re
ì¡ ±
ĠvÅ¡ et
Ġem ail
Ġ ÅĻÃŃ
m bre
ÙĬÙĨ Ø§
Äį et
êµ °
Ġfiles _
Ġàªľ à«ĭàª
Ġæ ĻĤ
à¯ģà®Ł à®©à¯į
ru ck
e urs
Ġto ate
Ġo c
ĠÐ¼Ð½ Ð¾Ð³
àµģà´£àµįà´Ł àµį
ļà¸Ńà¸ ¥à¸
ĠÚ¯Ø± ÙģØª
ĠÑĩÐµÐ»Ð¾Ð² ÐµÐº
Ġserv i
Ð ¯
Ġbeaut iful
Ĺ i
à±ĩ à°ķ
ĠØ´ ÙĬ
ĠÙĨ ÙĪØ´
ì° ½
Ġg esch
Ġde al
Ġd ov
ĠØ¨Ø§Ø² Ø¯ÛĮØ¯
ë° ĺ
is esti
Ġ×Ļ×© ×¨×Ĳ×ľ
åĽ Ń
Ð¾Ð² ÑĭÐµ
Ġke y
r ul
ĠÐ´ Ðµ
à¤¿à¤ ĸ
Ð°Ð· Ð¸
Ã¤ Ã¤r
ue b
Õ¡Õ¯ Õ¡Õ¶
am ot
Ġc ut
ÙĦ Øª
ï½ Ĺ
ich te
áĥłáĥ £áĥ
b ir
Ġb áº¥t
ĠÑĤÐ° ÑĬ
Ġeg in
à´¾à´¯à´¿à´° àµģà´¨àµįà´¨àµģ
ĠÙħÙĪ Ø¶ÙĪØ¹
é«ĺ æ¸ħ
or szÃ¡g
ÑĸÐ½ Ð½Ñı
Ä« gi
ĠvÅ¡e ch
ìĦ Ŀ
ĠÙģÙĬ Ùĩ
ent al
Ġà®ª à®¤
ĠÏĥÏħ Î¼
Ġje j
apat kan
Ĺà¸ ³à¸
Õ ¯
Ġsh p
ĠØ´ Ø±ÙĥØ©
ãĥĥ ãĤ°
ĠÏĢ ÏīÏĤ
Ġdin tre
ĠØ¯ÙĪÙĦ Øª
bil itÃł
ĠÎ´Î· Î¼Î¿
Ġne cess
Ø§Ø± Ø³
Ġp on
Ġ×§ ×¨
ÑĢ Ñį
ĠØª ÛĮÙħ
Ġdies em
ĠolduÄŁ u
Ġuy gul
ĠÐº Ð½Ð¸
áĥĿáĥ ŀ
Ġc az
ĠÑģÐ¾Ð¾ÑĤ Ð²ÐµÑĤ
Ġ" .
ëĿ¼ ìĿ¸
al le
Ð¾Ð½ Ðµ
ĠN á»Ļi
Å£ ie
ë ĳĲ
ĠL A
os to
Ġà§ ª
Ġl Ãºc
Ġal go
ĠáĢģ áĢº
ìĪ ł
åĪ ¥
ĠÐ¼Ñĸ ÑģÑĤ
Ġáĥĵ áĥĺáĥĵ
à¤ķ à¤¿à¤¨
b ili
Ġãģ¾ ãģŁ
Ħà¸§à¸²à¸ ¡
ĠíĬ ¹
f ts
ĠÐ±Ñĭ Ð»Ð¸
ãĤµ ãĤ¤ãĥĪ
ç® Ĺ
ĠÑĤ ÐµÐ¿
Ġd ost
Ġag gi
ĠÛ ³
ï¼ ģ
Ġæ İ
Ð½ ÐµÐ²
ĠÐ½ ÐµÐ¼
Ġsu as
ĠÙĩÙĨØ§ Ùĥ
à¹Ģ à¸£à¸µà¸
áº¥ m
Ġper chÃ©
ap s
Ġstr ong
Ġde ur
ot y
Ġl Ãµ
us sen
à°¿à° Ł
Ġà®ķ à®°
s g
Ġà´ªàµįà´° à´¤
ĠÙħØ´ Ú©ÙĦ
ue gos
ÑĸÐ´ Ð¾Ð¼
ze llik
j ours
ĠE k
Ġs alah
ĠÐ´ ÐµÑĢÐ¶Ð°Ð²
çĦ¡ ãģĹ
ĠæŃ £
Ġproble m
Ġà¦ı à¦®
áĥĺáĥ¨ áĥľ
Ġt ijd
Ġpr ac
i amo
ĠÏĦ ÏĮ
cim iento
Ð°ÑĤ Ðµ
Ð¸ Ð¾ÑĤ
ĠØ¨ Ø£ÙĨ
ÃŃt Ã³
Ġl ite
ĠW ar
ĠÑĥ ÐºÑĢÐ°ÑĹ
àª¾àª ¶
at os
Ġt s
à´¾à´² àµįâĢį
A K
áĢ¯ áĢĶáĢº
ì¦ Ŀ
áĥĺáĥ ¦
Ġìŀ ¬
Ġtout es
ĠÐĴÑģ Ðµ
å½© åĸľæ¬¢
Ð¸ÑĤ Ñĥ
Ġàªķà«ĭàª Ī
áĥłáĥ ĵ
ust r
Ġde j
Ġon de
Ġà¹Ģà¸ §à¹ĩà¸
Ġr app
Ġà¤¤ à¤°
sk Ã½
Ġmo g
åº ľ
Ġact ually
in ts
Ġé «ĺ
Ġà¹Ģà¸Ķà¸´à¸¡à¸ŀà¸±à¸Ļà¸ Łà¸£à¸µ
Ġé »
an to
I ON
Ġph oto
Ð¸ÑĩÐµÑģÐº Ð¾Ð³Ð¾
Ġp es
Ġth am
ĠÐĵ Ð»Ð°Ð²
Ġsam t
Ġgen om
Ñģ Ð°
Ø² ÙĬØ¯
ĠÃ¶s sze
Ú¯ ÙĪ
Ġes e
×ł ×ĺ
ĠÎ´ Î¹Îº
Ġres ults
ĠÑį Ð»ÐµÐºÑĤÑĢ
Î¹ Î»
Ġf ac
Ä± x
ãĥ³ãĤ º
v Ã©
Ġmus ic
ÐµÐ½ÑĤ Ñĭ
ç ı¾
Ġs ÅĤ
ĠCOM å½©åĸľæ¬¢
is on
ih in
èģ Į
Ġspeci fic
Ð°ÑĢ Ð°ÐºÑĤÐµÑĢ
± ¼
Ġho Ãłn
Ġ à¸£
Ġtel jes
Ġãĥ Ń
Ġáģ ¾áĢĢ
ÑħÐ¾Ð´ Ð¸ÑĤ
ķ à¸£à¸
Ġpropr io
Ġstart ed
Ġtod as
åį ĵ
c m
ĠÑĢÐµÐ· ÑĥÐ»ÑĮÑĤ
áĢ¼ áĢ¸áĢ
Ġcont ent
à¹īà¸² à¸Ļ
áĥĺáĥĿ áĥľ
ÑĥÑĶ ÑĤÑĮÑģÑı
à¦§ à¦¾à¦¨
Þ °
Ġà¦ķ à¦¾à¦ľ
es en
zo ek
Ġà´¨à´¿à´ ¨àµįà´¨
Ġmem per
Ġpo co
Ġf ield
áĥ£áĥ ®
Ġz al
Ð³ Ñĵ
Ġte cn
à¤¿à¤ ª
ĠØ§ÙĦØ¨ Ø±
Â ¸
Ġàª¥ àª¯
Ġà¦ķ à¦¾à¦
Ñı ÑĤÐ¾
ĠÄĳá»ķ i
ĠÙĪ ÙĤØ¯
Ġ4 0
Ġs Ä±r
Ġz n
ä» ĭ
Ġà¦¨ à¦¾à¦®
ĠIn tern
ĠÐ¾ÑĤ Ð»Ð¸Ñĩ
Ġg Ã©nÃ©r
Ġpo i
áĢŃáĢ¯ áĢĦáĢºáĢ¸áĢ
ÃŃ l
om es
à¦¾à¦° à¦¾
Â ½
Ġë ¸
à´¾à´ ª
à°¾à°¨ à±įà°¨à°¿
ĠØ§ÙĦØª ÙĨ
Ġà´µ à´°
Ġ ÉĻl
àª¸ à«įàª¤
ĠÐ¾ÑĤ Ð·ÑĭÐ²
Ġëĭ ¨
å½© ç¥ŀ
ê°Ģ ê²©
ĠP ort
st yr
Ġëĭ ¹
ÑĢ ÐµÑģ
Ĵ áŀ
áĢļáĢ¹áĢ ·
Ú© Øª
Ġs Ã¡ng
d Åĳ
Ġre cher
Ġre z
Ð¸Ð» Ð°ÑĢ
c ciÃ³
Ġà® ²
Ġ×¤ ×¢
ÑĢ ÑĭÐ²
Ã¡lt al
×ŀ ×Ļ×ĵ
i ques
áĥĿáĥķ áĥľ
ĠÃ ı
usam men
Ġ201 4
Ġble v
m p
Ġcon tre
tel ah
Ġab ove
ìłģ ìľ¼ë¡ľ
Î¯ Ïĥ
ÃŃ an
æĶ ¯
Ø¬ Ø§Ø¯
Ġp ict
ch ten
st s
w eg
áĢ¼ áĢĶáĢ¹áĢ
Ġbuild ing
Ġse ason
ĠÑĢ ÐµÐ±
r Ã«
Ġë¶ Ī
Ġadd ress
ĠvÃµ im
Ñĸ ÑģÑĤ
Ġ365ä½ĵèĤ² æĬķæ³¨
Ġfe atures
Ø¬ Ûģ
ĠÑĤ Ð°ÑĢ
Ġar kadaÅŁ
à¦¾à¦² à§ĩ
éĤ £
end iri
ĠÐ¿ÑĢÐ¾ÑĤ Ð¸Ð²
à®° à®¿à®¯
ÐµÐºÑĤ Ð¸Ð²
ÉĻy ÉĻ
ģà¸ ¡à¸
Ġprop os
l ÉĻn
à§ģà¦° à§ģ
Ġty pe
ĠØ±Ûģ ÛĴ
Ġì¢ ĭ
Ġà¤ľ à¤¾
à°¦ à°¿
éħ į
à°¸ à±įà°¤
Äį ky
Ġet was
Å¡an Äģs
æ¶ Ī
l ama
Ġpro ces
×ŀ× ¢
Ġm iá»ħn
ÐµÑĢ ÑĮ
zen ie
Ġà¤ľ à¤¬
eng k
ĠC Ã¡c
ici a
ĠÐº ÑĤÐ¾
Î¼ ÏīÏĤ
ãĤ¹ ãĥĨ
201 9
à¦¿à¦ ļ
ĠÐ¿ÑĢÐ¾ÑĨ ÐµÑģÑģ
ãģ¨æĢĿ ãģĦãģ¾ãģĻ
he ter
z ie
ĠÐİÐ· Ð±ÐµÐºÐ¸ÑģÑĤÐ¾Ð½
áĥĲ áĥĲ
Ġå ±
ĠÎ± ÎºÏĮ
is er
raz ie
ĠZ u
Ã¡s z
ĠQ ue
à´ªàµįà´ª àµĨà´Ł
ĠÎµÏĢ Î¹Ïĥ
ÑįÑĤ Ð¾Ð¼Ñĥ
Ġis h
Ġh iyo
Î½Î± Î½
Ġto da
Ī à¸£à¸´à¸
Ġ à¸£à¸
ur so
åı ĭ
Ġest os
å® ¹
èª į
Ð¾Ð² Ð¾Ð´
ĠSh qip
à¯ģà® £
ĠÒĽ Ð°ÑĢ
ãĥ¼ãĥ ĳ
Ã¼ le
ÏĨ ÎŃÏģ
ĠÕ «
ãģĹ ãģ¾ãģĹãģŁ
iste ma
Ġà¤ħà¤§ à¤¿à¤ķ
ĠíĻ ķ
é¨ ĵ
ĠÙĦ ÙĨ
Ġj in
Â ·
ĠØ³ ÛĮØ³Øª
Ġtechn ology
Ġh Ã¡
ĠC he
ëĵ ł
ÏĦ Î¹Î±
ver pg
ĠÐ½Ð° ÑĢ
Ġb Ã¶r
ujÃŃ cÃŃ
Ġ ãģĮ
àª¾àª° à«ĭ
Ġles z
à¯ģà®ķ à¯į
Ġà¦¤ à¦¾à¦¦à§ĩà¦°
×ŀ× ĵ
Ġà´ķ àµĭ
ĠÑģÑĤ Ð¾ÑĢ
ãģķãĤĮ ãģŁ
Ġk osten
Ġf ic
ĠK a
à´¿à´¨ àµĨ
Ġà¤²à¥ĩ à¤ķà¤¿à¤¨
Ã² a
àµģà´¨àµįà´¨ à´¤
Ġtu le
Ġs um
ĠÐ´ Ð¾ÑĢ
Ġse a
Ġt ipo
à´¾à´ ľ
u da
éģ ķ
ãĤ ®
áĢ½ áĢº
Ġsis tem
Ø· Ùģ
à¸Ļà¸ ´à¸
ĠÃŃ gy
ul la
cz as
Ġ à¬
Ġp it
Ġ ing
Ġc oun
Ġre ason
ÐµÑĢ Ð¾Ð²
ies nÄ«
Ġdoes n
ĠØ± Ø¯
à¦Ļà§įà¦Ĺ à§ĩ
ul a
ĠP eng
ue la
à´¾à´ Ĺ
ĠÐ¿ Ð¾ÑĤÑĢ
Ġmin utes
ĠØª Ú¾ÛĮ
Ġt as
ĠÙĩÙħÚĨ ÙĨÛĮÙĨ
Ġes et
Ġà¤ª à¥Ģ
à¥ĭ à¤²
Ø± Ø§ÙĤ
ĠM agyar
Ġprofess ional
ĠìĤ¬ ëŀĮ
ĠÚ© Ø§ÙĦ
Ġ á½
ang en
ĠÐ¾ Ð²
Ġap ro
ç¯ ĩ
áĢŀ áĢ¬
Ġcustom ers
bi ed
Ġm ass
ĠDe ze
ì² ĺ
ãģķ ãģĽ
ĠÑĦ Ð¸Ð»ÑĮ
Ġcual quier
Ã¢n Äĥ
Ġãĥ Ģ
Ã¦r t
Ġl igne
Ġå ī
Ġrem ain
à¦¾à¦ £
Ú¯ Ø±ÛĮ
ĠÚ© Ø³ÛĮ
Ġf al
àªĤ àªķ
ĠØ¨Ø´ ÙĥÙĦ
c an
ĠCon tact
ĠÐ±ÐµÑģÐ¿Ð»Ð°ÑĤ Ð½Ð¾
ãĥ³ãĥ Ĩ
ĠÙĦ ØŃ
ĠéĶ Ľ
Ġmon de
t ul
áĥĿáĥ ¨áĥĺ
æĬĢ å·§
ĠK r
Ġæ Ģ
sta w
ĠÐ½ Ð°Ð»
Ġ×ŀ ×¨
íĤ ¤
Ġ á»©ng
id t
is a
Ġcom b
Ġ":" "
ĠáĥłáĥĿáĥĴ áĥĿáĥłáĥª
Ġà®¤ à¯ĩ
Ġ6 00
ĠÑĥ ÑĤ
Ġcomp et
f el
ĠÑĨ ÐµÐ»
Ø§Ø¦ Ø±
ĠÐ±Ð¾Ð»ÑĮÑĪ Ðµ
ç®¡ çĲĨ
ĠáĢ±áĢ Ĩ
Ø§Ø±Ùĥ Ø©
Ġk 8
é į
áĥĶáĥĹ áĥĺ
Ġíķľ êµŃ
Ġtu do
ĠP Ã«r
Ġker ana
ĠØ³ Ù¾
ĠãĤ ¸
âĶĢ âĶĢ
à¤°à¥įà¤ ¤
Ġå° ı
Ġevery thing
ent er
ih at
ik Ã¤
en cy
lar da
é¢ Ħ
à®¿à®²à¯įà®² à¯Ī
ĠØ§ÙĦ Ø§Ùħ
Ġà¦¬à¦¿à¦ Ń
Ġtou te
ĠÙħ Ø±Ú©
ci do
áĥĺáĥĹ áĥ®
Õ¥ Õ¶
ÏĨÎ¿ ÏģÎ¬
Ġty re
Ġh r
Ġl iá»ĩu
ĠÙħÙĪÙĤ Ø¹
Ġíķ ł
Ġg aan
ĠëĶ °
Ġf Ã¶re
Ġ×Ĳ ×¨
ĠÃ§ ek
à¹Īà¸ĩà¹Ģà¸ ĩà¸´à¸Ļà¸
ìĹĲ ëĬĶ
Ġth Ã¢n
íı ī
ĠÚ© Ø§Ùħ
il t
Ġg ru
à±ĩà° µ
ŀ áĢĬáĢ¹
Ø§Ø¶ ÙĬ
Ġp lease
fer ence
Ġà®®à¯ģà® ©
Ġno i
n t
ĠÐ· Ð°ÑıÐ²
Ġdur um
ĠdeÄŁ il
Ġj p
Ġà¦¸ à¦¹
ur ance
ough t
ĠÙĬ Ø³Øª
ie ux
å¼ ·
Ġà®ħ à®¨à¯įà®¤
te le
ĠØ§ÙĦØ¬ Ø¯ÙĬØ¯
æĸ ½
á¹£ áº¹
ä¿¡ æģ¯
ÙĪ ÛĮØ±
Ùģ Ø§Ø¹
Ð½Ñĸ Ðº
Ø§Ø³ ÙĬ
Å£ a
Ġen vironment
Ġout ros
Ġg aat
ĠH aber
à¥įà¤¯ à¤¾à¤¤
ĠÐ¸ Ñİ
ĠÑģÑĤ Ð°ÑĢ
à´¿à´ļàµįà´ļ àµį
Ġí ļĮ
Ġg ed
ĠÅŁek ilde
ĠÚ©ÛĮ Ùģ
ãģ® æĸ¹
Ġp il
Ġcl ose
ÏĢÎ¿Ïħ ÏģÎ³
Ã¶v l
k em
Ġ à¸Ń
è´ ¨
ĠÙħØ¯ ÛĮØ±
ĠØ§ÙĦØ£ Ø®
Ġáģ ģ
ĠØ´Ùħ Ø§Ø±Ùĩ
ç ļ
ĠÑĥÐºÑĢÐ°ÑĹ Ð½
ļà¸²à¸Ĺ à¹Ħà¸Ĺà¸¢
Ġch aract
ĠÐļ Ð¾Ð½
Ġcurr ent
Ġ×Ļ ×Ķ
ĠÑĢÐ°Ñģ Ñģ
ĠP reis
Ã£ i
à´¿à´ ¨àµįà´¨
ÈĻ i
ĠÐĴ Ð¾
iv as
aj a
Ġl ib
rij f
ÙĪ Ø§ÙĦ
±à¸ įà¸
ÐµÑĢ Ð±
ĠC am
he ten
Ġs á»Ł
ate Ä¾
ow Äħ
ĠÐ¾ ÑĦ
ĠÏĢÎµÏģÎ¹ Î¿
Ġp in
Ġì »
Ð¾Ð² ÑĭÑħ
ĠD u
ĠÙĨ ÙĪ
à¯Īà®ķ à¯į
Ġëª ©
Ġv iet
Ð¸Ð· Ð½Ð°Ñĩ
ĠØ¨ Ø§Øª
Ú¯ Ø±Ø§ÙĨ
Ġtro v
ĠÐ¼ Ð°Ð»
Ð² Ð¾
Ġch uyÃªn
à¦¤ à§įà¦¯
Ġeg it
T E
Ġìĥ Ī
Ġs Ã¶z
s on
ĠP em
r ijk
ĠØ§ÙĦØŃ Ùĥ
ĠÑĥ Ð»
ĠáĥĵáĥĲáĥ ĺ
ĠPa ulo
ĠDom ain
owan y
Ġod powied
Ġser Ã¡
åĮ ħ
à±ģà° ª
Ġwak tu
Ġse arch
à¦¸ à¦²
ĠÐ²Ñĭ Ð±
88 8
Ġle urs
ç· ļ
Ġb ile
Ġáģ Ģ
Ġàªı àª®
Ġv ad
ĠÐ· Ð°Ð³
áĥĶáĥļ áĥ¡
en da
Ġx Ã£
Ïĩ Î¹
Ġk Ã©t
Ġch alleng
à«ĭ àª¨
àµģà´¨àµįà´¨ à´¤àµį
Ġcos Ã¬
Ġk at
Īà¸ °
ìķĦ ê°Ģ
Ġad ip
Ã¡ dz
Ñĥ ÑĢÐ°
Ġdu het
ê ¶Į
ëĶ Ķ
ÐµÑĩ ÐµÐ½Ð¸Ðµ
Ġdisc uss
ĠÐ¡Ð ĥ
ĠÏħ ÏĢÎ¬ÏģÏĩ
ĠG en
Ġn ii
Ġàª¸ àª¾àª®
Ġr re
ÏĦÏĮ ÏĤ
Ġge ht
ĠBe i
ĠáĥĹáĥ¥ áĥķáĥĶáĥľ
éĤĢ è¯·
n ung
Ġmon do
Ġd ou
Î´ Î¹Îº
Ġì½ ľê±¸
ĠS lov
Ġmul ti
v Ã©ny
ĠåĬ ł
Ġà®® à¯Ĥ
æ± º
m ost
Ġb Ã¸r
ĠãĢı ãĢİ
Ġà¸ª à¹Īà¸ĩà¹Ģà¸ĩà¸´à¸Ļà¸
Ġ×Ĺ ×ĳ×¨
r ada
åĽ ´
ĠáĢ±áĢ ĲáĢ¼
Ķà¸ ¢
áĥķ áĥł
ĠÐ¼ Ð½Ðµ
Ġngo Ãłi
ĠÐ¼Ð¾Ð¶ Ð½Ð°
à§Ģ à¦¨
ĠG al
Ġ×ľ ×ĵ
Ġàª¹àª¤ àª¾
ÏĥÎºÎµ Ïħ
Ġje go
Ġv Äĥ
wa Å¼
Ġmom ento
ĠEl s
Ġp edig
è ı
ÎĻÎ Ŀ
à¦° à§ĩà¦°
l ish
ÙĬ Ø·
ĠÚ¯ ÛĮ
Ġun t
ŀ à¯įà®ļ
à¦¾à¦° à§ĩà¦°
Ñĩ Ð°Ñģ
ch ts
à±ģà°Ĥà° Ł
ĠÙĤØ³Ùħ Øª
at ura
eh ir
ãģĵ ãģ®
Ġst ay
Ġ ãģ¨ãģĦãģĨ
Ġw alk
ĠÐľÐ°ÐºÐµÐ´Ð¾Ð½ Ð¸ÑĺÐ°
áģ¿ áĢĻ
íĥ ľ
é ±¼
uz i
Î¼Î¿ ÏĤ
Ġmonth s
ĠØ± ÙģØª
Ð¾ÑĤ Ð°
ĠAl s
ĠB ild
Ġvo res
Ġá¹£ e
ã Ħ
ouve z
Ġpet it
ĠÐ²ÑģÐ¸Ñĩ ÐºÐ¸
×ķ ×ķ
ĠØ§ÙĦÙħ Ùħ
Ã¡r s
Ġtr áº»
Ġà¤¥ à¥ĩ
I tem
ÉĻc ÉĻk
sche in
å® ģ
áĢĲ áĢ°
Ġd ÄĽ
aj Äģ
Äĥr ii
Ġáģ ĥ
d ie
Ø¯ ÙĨ
Ġb ie
ĠEs te
áĢĲ áĢŃáĢ¯áĤĶ
Î½Î± ÏĤ
Ġà´µ àµĢ
Ġl at
Ġdid n
Ø±Ùģ Ø©
ĠÃ®nt re
à§ģà¦ ĩ
ç½ ®
Ġd ÃŃas
ov ed
Ġha ar
Ġdu te
Ġah ora
ĠM al
ą ĆĈ
k Äħ
áĢĲ áĢħáĢ¹áĢ
Ġnet work
Ġçİ °
¥à¸ĩà¸Ĺà¸ °à¹Ģà¸ļ
aciÃ³n s
Ġ×© ×¢
ĠÄ ¾
à¦°à§įà¦ ¥
ĠáĥĹáĥĲáĥķ áĥĺáĥ¡
ba ik
Ð°ÑĤ ÑĢ
Ùħ ÙĬÙĦ
ĠÐºÐ¾ ÑıÑĤÐ¾
Ġè §
ì§ ģ
Î¼ÏĨ ÏīÎ½
Ø Ł
Ġk imi
Ġd us
larÄ±n Ä±n
ĠØ± ÙĨÚ¯
ãĥĹ ãĥª
Ġå° ±
Ġà¤¯ à¥ĩ
é§ ħ
ĠgÃ¶r ÉĻ
±à¸ ģ
èĬ Ĥ
Ī ¬
ĠÑıÐº Ð¸Ð¹
Ġk il
áĥĲáĥłáĥ ¡
Ġand eren
ĠØ± Ú©Ú¾
j os
Ġso it
ĠÎºÎ¬ Î¸Îµ
ur os
ĠÃ Ĩ
Ġ×Ķ× Ŀ
ĠÐ» ÐµÐ³
áŁ Ĵáŀ
áĥķ áĥĶ
ĠÐº ÐµÐ»
ic olo
ëĭ ĺ
ĠáĢ»áĢĻáĢĶáĢ¹áĢĻ áĢ¬
×¤ ×ĺ
Ġr áº±ng
Ġal an
Ġáĥĵ áĥĲáĥķ
à¦ª à§ģà¦°
ĠØ¬ Ø§Ø¦ÛĴ
Ã¡ le
ĠÐ· Ð°Ð»
Ġå¤§åıĳ æĹ¶æĹ¶å½©
ash k
Ġàª Ī
ĠD ans
ĠK e
àªµàª¾àª¨ à«Ģ
ĠàªĨàªµ à«Ģ
Ġm illion
áĢĢ áĢ¬
ĠÎ£ Îµ
×ĳ ×ª
Ġë° ĺ
Ġ Ã¼l
ll s
Ġar bet
Ġespe cial
ĠÐ¿ÑĢÐ¾Ð± Ð»ÐµÐ¼
Ġà®ĩ à®Ł
àªµ à«ģàªĤ
Ġt ark
Ġm áº¯t
ie to
Ġjed nak
v ent
ow ad
×¨ ×ļ
Ġta x
v ik
I E
Ġv ersch
Ġpl aat
5 8
×ľ ×Ĺ
Ġo a
Ġje ho
ĠãĤ ¿
ch ing
à§įà¦ Ľ
Ġ$ (
ĠÐł ÐĨ
ĠÃ Ļ
Ġcon cer
Ø±ÙĪ Ø¹
à±ģà° ¡
à°® à±įà°®
Ġdi z
Ġæ ·
ĠØ§ÙĨ Ú¯
Ġag a
Ġ×ĳ ×ĵ
åĢ Ł
un uz
ĠÙħÙĨ Ø§Ø³
ard Ä±m
Ġfe ira
Ġs our
à®© à¯Ī
ĠØªØŃ Øª
ĠØº ÛĮØ±
Ġm igli
ĠAmeric an
end ant
ÅĨ u
ĠÑĤÐµÐ» ÐµÑĦ
ĠÙħÛĮâĢĮ ØªÙĪØ§ÙĨ
Ø§Ø¬ Ùĩ
×ł ×Ļ×ª
te ur
ĠÑĢÐ¾Ð· Ð²
áĢ ī
l ica
ÏģÎ± ÏĤ
ê ´ĳ
Ã Ĺ
ĠØªÙħ Ø§Ùħ
àµĨ à´Ļàµįà´ķ
ãĥ³ãĥ Ĺ
ĠM ens
Ø§ÛĮ Ùĩ
Ġis hte
ill o
Ġãģ ķ
Ġprovid es
Î¯ Î´
ĠkÃ¶ vet
ĠW ie
Ġm ujer
ĠÐ´Ð¾Ð¿ Ð¾Ð¼
Ġ×ľ ×¡
Ġmet hod
Ġno en
ĠãĤ »
ÏĨ Îµ
Ġet ti
li ver
Ġdev am
áĥĺáĥ¡ áĥĲ
Ð»Ð°ÑĢ Ð½Ð¸
Ġà¦ķ à¦¿à¦Ľ
Å£ ia
Ġquan to
à§ĭ à¦ķ
à´³ àµįà´³
Ø§Ùģ Ø¸
ĠÂ §
ĠØ£ Øµ
à®® à®¾à®©
ÎµÎ¯ ÏĤ
ĠS eg
æ²¡ æľī
esz cze
ion en
ĠkÃ¼l Ã¶n
æ ļ
Ġà®İ à®¤
ãģ® ä¸Ń
Ġà¦®à¦§à§įà¦¯ à§ĩ
ĠÑĤ ÑĢÐ°Ð½
Ø² Ø§ÙĨ
Ġfo ly
or to
ĠÐŀ Ñģ
åĪ «
ĠØŃÚ© ÙĪÙħ
ã ħ
Ð¸ÑĤÐµÐ» Ð¸
Ġyou ng
Ĭ à¹Īà¸§à¸
ĠÐ²ÑĢÐµÐ¼ Ðµ
áĢĢ áģ
à´¤àµįà´¤ àµį
åı¯ èĥ½
Ġof re
Ġs ic
ì ¼
ĠÐľ Ñĭ
Ġè ¦
ĠÙħÙĨ Ø°
id d
lÄ± ÄŁ
ĠM Ã¼
at iva
b ro
Ġsar Ãł
ĠÎķ Îº
Ð°Ð» Ð¸ÑģÑĤ
Ð°Ð» ÑģÑı
ĠÎ¿ÏĢÎ¿ Î¯Î±
áĢ¼ áĢ¬
Ġàª¤ à«ĩàª
ĠGe w
t Ã©k
ĠS in
à¥Į à¤°
æµ İ
ÏĦÎµ Ïģ
Äģcij as
st ra
ÙĬ ÙĪÙĨ
Ġwork s
àª¤ à«ĭ
k ÅĤad
p ap
Ùĳ Ø©
ĠÐ¼ ÑĥÐ¶
Ġà®ļ à®¿à®±
Î¼Î± ÏĦÎ¿
s el
ĠÐ° Ð»Ðµ
ak si
Ð¾Ð» Ð¶
Ġg iven
Ù Į
ĠÐº Ð°Ð·
Ð¾Ð¶ Ðµ
Ġà®Ĩ à®©
ĠÑģÐ¾Ð· Ð´
ate urs
Ġun ui
ĠÐ´Ð¾Ðº ÑĥÐ¼
Î½ Î®
à§Ģ à¦¬
èµĮ éĴ±
al ik
ĠÙĦ ÙĩØ§
Ġv ra
at ural
Ġal Ä±n
Ġæ ł
ÐµÐ² Ð°
ĠF ahr
à¤¾à¤ ¶
ĠÐ½ Ð¸Ñħ
ĠÃ®ntÃ¢l ne
Ġà¤¨ à¤¿
Ġs at
ĠF e
ĠØ§ÛĮ Ø¬Ø§Ø¯
Äį i
Î½Î¿ Ïį
à¦ª à§įà¦°
Ġà¦¬ à¦Ľ
Ġhas z
Ġà¦Ĩà¦® à¦¿
áĢĲ áĢ±áĢ¬áĢ·
ãĤį ãģĨ
uyá» ħn
ier te
Ġs ound
Ġs iz
å® Į
ĠÐ± Ð¾ÑĢ
ÑģÑĮÐº Ð¸Ñħ
Ġà¤° à¤¹à¥Ģ
ĠÑįÐº ÑģÐ¿
Ġà¤Ńà¤¾à¤° à¤¤
áĥĺáĥ ĳ
Ġthough t
az Ä±
Ġch áº¿
Ġt our
åŃ Ĺ
Ġà°ķà±Ĥà° ¡à°¾
ĠÎ± Ïģ
ĠÐ±Ñĭ Ð»Ð°
ĠÄĳ Ã¡nh
Ġmak a
Ġä¸ ĩ
Ġà¤¦ à¥Ģ
Ġna w
ÑĥÐ½ Ðº
Ġm nie
Ġp Äĵc
åİ Ĩ
ĠØ¯ ÙĪÙħ
ĠÎĿ Î¿
Ġï¼ļ âĢľ
Ġd k
ce ÄŁ
ĠÑĪ Ðº
o f
ĠF rau
Ľ áĢ½áĢŃ
Ġb un
Ã¢ r
Ġsi ze
Ġà¸ ŀà¸
áĥķáĥĶáĥ §
Ġnuov o
ĠáĥĽ áĥĶáĥ¢
h aus
æľī éĻĲ
Ġquest ions
il ar
à¦¿à§Ł à¦¾
à¦Ĺ à§įà¦°
åĳ ¨
ªà¸²à¸ ¡à¸²à¸£à¸
ãĥ¼ãĥ Ĺ
Ġab b
Ġbre ak
en z
al ais
Ġt Ã©l
Ġalt ro
Ġprof es
Ã¡s i
Ġre le
z zi
Ġquy áº¿t
ĠÄ°st anbul
Îĳ ÎĻ
ujÄħ c
à¤¦ à¥Ģ
ch os
ĠØ¥ ÙĦØ§
Ġmanag ement
Ħà¸£à¸ ·à¹Īà¸Ńà¸ĩà¸
×ķ× ¥
ig ung
Ġmer t
«à¸ ¥
Ġn áº¿u
Ġut an
Ã³ t
Å¾ en
Ġde ix
Ġm ajd
ĠM ai
b urg
à®¿à® ª
Ø±ÙĬ Ø¨
ì¦ Ī
ĠÑģÑĤ ÑĢÐ¾
Ġby l
áĢĢáĢ¹áĢ Ģ
u zione
Ã¼ks ek
àª¿ àªĤàªĹ
åı ª
æĿ ¡
è§ ģ
ĠÙĬ Ø§
Ġdiff Ã©r
Ġ×ķ ×©
ce ll
à®Ł à®¿
¢ à¸Ļà¸
Ġv ast
Ú© ÛĴ
Ø§Ø¨ Ø·
Äģr t
Ġgovern ment
ÙĬÙħ Ø©
ĠÐ¸Ð½ÑĤÐµÑĢ Ð½ÐµÑĤ
áĢĳ áĢŃ
Ġp ress
ĠÐ´ ÐµÐ½
Ġà¸ ļ
ĠÐ¿ÑĢ ÐµÑĤ
àµĨà´¯ àµģà´Ĥ
Äį as
r Åĳl
z eko
led ge
Ġsim p
Î¸ Î¿ÏįÎ½
ä¾ ¿
Ġk amu
Î¬ Î¶
bo ok
à§ĩà¦¨ à§įà¦Ł
Ġear ly
in Äģj
Ð¸Ð½ Ñĸ
ĠÎ¼ÏĮ Î½Î¿
à«ĩ àª¨à«įàª
Ä« m
Ġel len
Ġsk ul
æĿ ĥ
ÙĩâĢĮ ÛĮ
Ġproper ty
Ġsz ab
ĠØ¨Ø¯ ÙĪÙĨ
Ġe conom
ĠK ar
Ġcom ent
à®£à¯įà®Ł à¯ģ
Ġ×Ĳ×Ĺ ×ĵ
Ġact ual
ĠM w
ĠM á»¹
ĠÙĪØ§ÙĦ ÛĴ
Ġà®ĩ à®²à¯įà®²
åħĥ æ£ĭçīĮ
ici Ã³
" "
áº¯ p
áĢĲáĢ¼ áĢĦáĢ¹
ĠáĥĽáĥĺáĥ¡ áĥĺ
ĠS c
Øª Ùĥ
Ġ Ã¼r
ĠÑģÑĤ Ð°ÑĤÑĮ
Ġ×ĳ ×Ļ×ª
Ġsim ple
Ġgj ennom
Ð¸ÑĤ Ð°
Ġà¤ħ à¤¬
Ġam i
h ta
Ġ×Ľ ×ŀ×ķ
m alar
Ġå¯ ¹
Ġà¦¹ à¦²
Ġ×Ľ ×ļ
ĠÑĥ ÑĢÐ¾Ð²
å ¡
ë² Ħ
Ð¾Ð½ Ñĥ
ê »
ĠÙĦÙĪ Ú¯
n d
íĹ ĺ
×ĳ ×ķ×ª
àª¤ àª¾àªĤ
Ġany s
à´¿à´² àµĩ
Ġva ir
d ition
àµįà´° àµĢ
çĻ ¾
ãģ¦ ãĤĤ
Ġch Æ¡i
ed ia
ĠØ§ÙĦØ£ ÙĪÙĦ
à¤® à¥ĩà¤Ĥ
ir as
ĠØª Ø¹Ø¯
Ġres ult
ĠÐ½ Ð°Ð¼
Ġéĩ į
Ġjel ent
jÄħ ce
it el
Ġb ill
à´¨àµįà´ ±àµĨ
ĠH aus
Ġth ÃŃch
ĠÃ©r d
áĥĲáĥ¨ áĥķ
ĠM as
Ġgi áº£m
ç± »
Ð¡ Ð¢
Ø¸ Ø±
ĠÐ Ī
âĢ ĺ
Ġà¦¹ à¦¯à¦¼
Ã¼z el
hing ga
Ð¸ÑĩÐµÑģÐº Ð¸
Äį ka
Ġ×ĳ ×Ľ×ľ
Ġsp raw
Ã¶vl ÉĻt
du ct
Ġà¤® à¥ĭ
O W
Ġàª¹àª¤ à«ģàªĤ
Ġà°¨ à°¿à°°
Ġimpro ve
makt adÄ±r
WW WW
u he
ĠÙĩ Ø¯
Ġà¤¬ à¥Ī
Ð¼ Ðµ
ĠÐ¶ Ð¸ÑĤ
Ġt egen
ĠÐ²Ð¸Ðº Ð¾ÑĢÐ¸ÑģÑĤ
à¸² à¹Ģà¸
Ġd Ã¼n
lar ni
å¢ ŀ
à«Ģ àª¨
ìķ ĺ
Ġs eda
à¤¾à¤ ·
Î³ Î±
Ġp ur
iy on
Ã¡r t
ÙĬÙģ Ø©
ãģı ãģª
Ġstud y
ÑĪ Ñĭ
et h
Ġà®® à¯Ģ
ĠÙĦÛĮ Ú©ÙĨ
Ã«s ht
Ġmais on
Ġnuest ro
Ġperform ance
Ġ016827 9
Ġto im
ĠÐºÐ² Ð°ÑĢÑĤ
à°¡ à°Ĥ
Ñĸ Ñİ
Ê» a
Ä¼ a
ìł Ģ
Ġà¤¦ à¤¿à¤¨
áĢĦáĢ· áĢ¹
ĠØ¨ ÙĤ
ģ áĢ»
ÑĢÑĥ Ð±
à§įà¦¤ à§ģ
Ð¾ ÑĦ
ici ones
áĢľ áĢ¯áĢķáĢ¹áĢ
il idad
Ġna bÃŃ
asi le
Ġc Ã¡
Æ°á»£ t
ĠÑįÑĤ Ð¾Ð¹
Ïĥ ÏĦÎ®
ĠÐ½ ÐµÐº
n u
ĠÐ² ÑĸÐ½
Ġà¦¹à§Ł à§ĩ
Ġwho le
à¯ģà® ²
ĠáĢľ áĢ¯áĢķáĢ¹áĢ
ĠR p
Ġch uyá»ĥn
C J
à¤Ĥ à¤Ł
Ġj os
Ð¸ Ñī
Î¯ ÏīÎ½
ãĤ¿ ãĤ¤
è¿Ľ è¡Į
Ġ ~
Ø±ÙĬ Ùĥ
Ùģ Ùĩ
Ð°Ð» Ð¸ÑģÑĮ
Â ¿
Ġc ung
ĠÐ³Ð¾Ð´ Ð¸Ð½Ð°
Ġan tes
ÎĳÎ Ľ
Ġtrain ing
if ied
ĠÏĥÏĦ Î¿ÏħÏĤ
à°ķ à°¿
ier on
?? ??
ÑĢÐ° Ñħ
Ġiss ues
Ġgr ande
ĠÙ¾Ø§Ø³ Ø®
Ġç¾ İ
Ġà°ħ à°µ
is iÃ³n
art ment
ÑģÐºÐ¸ Ð¾ÑĤ
gr ound
Ġé ķ
à¦¸ à§įà¦¯
Ġ×Ĺ ×ĵ
ĠØŃØ¶ ÙĪØ±
Ð¾Ð³ ÑĢÐ°ÑĦ
Ġà¤ķà¤° à¤¤à¥ĩ
Ð «
Ñĸ Ð³
à¯ģà®µ à®¤
Ġ201 2
ì¢ ħ
Ġd h
ĠØª Ùģ
Ġm ah
ĠÙĬ Ø¯
Ġf Åĳ
áº· ng
est Ã¤
Ġo lla
Ð¾Ð² Ð¸Ñħ
ĠÐ² Ð¾Ð»
us o
ÅĪ a
ĠL and
ãģ¨ ãģĭ
ÏĦ ÏĥÎ¹
Ġser ta
Ø±Ø¨ ÙĬØ©
c ov
± áģ¾áĢĢ
Ð½ ÐµÐ½Ð½Ñı
×¨ ×ķ×ª
ĠÃ Ĥ
qu ÃŃ
èĭ ±
Ġj Äģ
Ġà´ķ à´´
ĠÐ¼Ð¾Ð¶ÐµÑĤ Ðµ
æ· ±
Ðµ ÑļÐµ
ÄŁit im
Ġap enas
ç» ¼åĲĪ
Ġb ain
æķ Ī
ĠÙħ ÙĦÛĮ
à´¿à´ ŀàµįà´ŀ
ĠdeÄŁ er
Ġbeh ar
è® ¤
Ġdar b
Ġhat te
Ã©sz et
ÑĤ Ñĭ
Ġ ingin
Ġãĥ» ãĥ»ãĥ»
Øª ÙĦ
ÏĢ Î®
Ġzwe i
Ġd y
à´¾à´ ¦
ĠP ero
áĢĽ áĢ²áĤķ
ĠMens chen
çļĦ ãģª
ĠT ag
áĢ¯ áĢĶáĢ¹áĢ¸
Ñĩ Ð°
lo pp
×Ļ×© ×Ķ
ĠÙģ ÙĦ
×ĳ ×ķ×¨
n ud
Ä° R
ven s
å® Ŀ
ak in
ĠØ¢ ÙĦ
Ġtut te
ĠÚ©ÙĨ ÙĨØ¯Ùĩ
iek Å¡
ĠÎ±ÏĢÎ¿ ÏĦÎµ
Ġtra vel
eit en
Ġdi p
á»± a
ĠÐ½Ð° ÑħÐ¾Ð´
id es
ì ¤Ģ
Ø®Ø¯ Ø§Ùħ
Ã« z
Ùİ ÙĬ
go k
g s
Ġmen c
à¤¾à¤ §
ĠØ´ ÙĪØ±
Ġdá»± ng
Ġest Ã£o
le id
Ø³Ø· ÙĬÙĨ
Ġne ue
Ġsh t
Ġc ame
ç ¿
Ñļ Ð°
Ø² Ø§Ø±ÛĮ
4 0
ĠØ§Ø¬ ØªÙħØ§Ø¹
à®¿à®¤à¯įà®¤ à¯ģ
çĻ ½
b les
Ĺà¸²à¸ ĩà¸
Ġe ks
æĭ¿ å¤§
Ġsing le
ĠØ§Ø¹ ÙĦØ§Ùħ
Ġà¦¬à¦¿à¦ ·
Ġ201 3
Ġbe gin
à§ĭ à¦®
ÏĮ ÏĦÎ·ÏĦÎ±
Ġà¤µà¤¿à¤ ¶
è¶ ħ
Øª ØŃ
ĠÐŀ Ð½
Ġ ãģŁ
à°² à±įà°²
is ing
Ġ×ŀ×Ĺ ×Ļ×¨
Ġl um
Ġl á»ĭch
æĪ ĸ
ĠØ§Ùģ Ø²Ø§Ø±
ĠÃ¶ ÄŁren
Ġà´¨ à´¿à´°
ic y
ĠØ£ ÙĪÙĦ
Ġà´ķ àµĩ
à¯ģà®ķ à®³
ab ility
Ġtu á»ķi
A H
Ġà¦¦ à¦¿à¦¨
Ġà¤¬ à¤¾à¤¤
Ġz as
Ġpr v
ï¼ ĵ
ĠÎ» Î±
Ġs ito
ĠÚ¯ ÛĴ
ä¸Ń å¿ĥ
ÏĨ Î·
Ġà®ķ à®²
ĠØ²ÛĮ Ø¨
Ġ365bet å®ĺç½ĳ
Ġback ground
Ġkter Ã¡
Äį enÃŃ
áĤĢáĢĢ áĢ®áĢ¸
ĠÐĳÐµÐ»Ð°ÑĢ ÑĥÑģ
Ġíķ Ħ
Ġà°¨ à±ģà°Ĥà°
Ġper io
ãĤŃ ãĥ£
ĠØ® Ø§ÙĨÙĩ
ÐµÐ¹ ÑĩÐ°Ñģ
ar si
z immer
à¯ģà®ķ à®³à¯į
Ġprim era
Ġå ĵ
ĠáĢģ áĢ¯
Ġk uko
Ð¾Ñı Ð½
ĠT ra
à±ģà°ķ à±ĭ
Ġwhe ther
áº· p
Ġìļ Ķ
ĠÅŁ ey
er ca
Ġb esch
éĿ Ĵ
ĠÑĤ Ðµ
ĠØª Ø¨
Ġc ard
Ø§Ø¨ Ø¹
áĢĻáĢº áĢŃáĢ³
hen d
Ġen ergy
áĢ¡ áĢħ
ÉĻ x
à°¿à°¨ à°¿
ĠæĿ ±
Ġfon ction
Ġà¤ľ à¤¾à¤¨
ĠÐ¶ Ð¸Ð·
Ġser a
Ġlá» Ŀi
Ġest ar
ÏģÎ¯ Î¶
Ġman era
Ġprim er
Ġex ten
Ñĥ ÑİÑĤ
Ġà¤ķ à¥įà¤¯à¤¾
à¤¾à¤Ĥ à¤¨à¥Ģ
Ġtou jours
Ïģ ÏİÎ½
Ġà¸ Ĺà¸µà¹Īà¸
Ġme jores
d at
ĠÙĦ Ø¥
ĠW as
Ú¯ ÛĮØ±
ĠÐ¼ Ð°ÑĪ
bier no
ĠÎµÎ½ Ïİ
ĠÎ¶ Ïī
Ġa qui
Ġè ¡
Ġso bie
Ġq ar
olog ia
ĠØª Ø±Ú©
ĠÙĥ Ùħ
ĠrÃ© p
Ġy il
Ġes se
ĠÑįÑĤ Ð¾ÑĤ
es zt
Ġzna j
Ø¨ Ø±Ø¯
áĢ±áĢ« áĢº
à¤¿à¤ ľ
ĠÙħÙĨ Ø·
à¥Ĥ à¤²
Ġp ick
ĠÑĥ Ð¿ÑĢÐ°Ð²
åı ĺ
ta ge
Ġgi Ãł
Ġs Ã³n
Ġapp ear
Ġà®¨ à®¿à®²
à¸£à¸²à¸ °à¸
Ġfre m
ĠP od
Ġfin an
ÐµÑĢ ÐµÐ´
ĠÑĤ Ð¾Ð·Ð¸
Ø§Øª Ùģ
gy an
à§ĭ à¦Ł
áº± m
Ġfrien ds
Ġà®ļà¯Ĩà®¯ à¯įà®¯
Ġàª¸ à«įàªµ
à¯Īà®ķ à®³à¯į
ĠÐ° Ñģ
Ġb liver
ĠG y
ĠØ§ÙĦÙħ Øº
Ġ":"" ,"
v Ã¡r
à¦¾à¦® à§Ģ
le me
Ġkh Ã³
ĠÑģÐº Ð»Ð°Ð´
v Ãµ
Ķ áĢ¾
Ġæ ĭ
à«ĩàª ¡
Ġk Ã©r
åĮ »
and a
ra cht
ische r
æ ĳ
à°¾à° £
Ġr ich
ight s
ve lopp
Ġy orum
ĠÐ² ÑĤÐ¾ÑĢ
Ġà¤° à¥Ĥà¤ª
Ð°Ðº Ñģ
Ġm ess
d ien
éª Į
Ġf ol
åħ ·
ĠÑŀ ÑĤ
ĠáĢĲ áĢĽ
ĠP lease
à¹Īà¸² à¸Ļà¸
k lad
Ġpro yect
áĢ¬ áĢ¹
à¤ļà¥įà¤ ļ
Ġma chen
Ġra cc
Ġh Æ°á»Ľng
ĠCh icas
Ġun ique
Ġh ope
Ã¼ ÄŁ
ÑĬÐ» Ð¶
Ġto ok
Ġpe que
ĠÄĳ áº·c
Ġder e
ĠÐ² Ð°Ñģ
ãģª ãģĮ
Ġå ĳ
ĠÐ°Ð²ÑĤÐ¾Ð¼ Ð¾Ð±
Ġp am
Îķ ÎĿ
zy st
à±ģà°Ĥà° ¦
ĠÑģ Ð¾Ð»
Ġh Ã¤n
l ag
Ġk irj
ĠÐľÐ¾ÑģÐº Ð²
ĠØ¯Ø± Ø¨Ø§Ø±Ùĩ
è ĸ
li que
Ġsz ere
56 bet
Ġvá» «a
7 8
à´¾à´ ¹
à¤ļ à¥įà¤¯à¤¾
ĠSt adt
Ġà¤ Ŀ
Ġ\ /
Ġê ´ĳ
y h
Ðº Ð°Ð¼Ð¸
Ð¾Ð´ Ð°ÑĢ
Ð¸ÑĨ Ð°
ek er
Ġh ÉĻm
èª ŀ
Ġn á»Ļi
ĠGr und
Ġge z
ä¿¡ èªī
1 3
ĠØ§ÙĦØ¬ Ø²
ĠØ³ ÙĦ
Ġspo leÄį
Y n
ĠÄĳ áº·t
Ġt eng
áģ µ
ig lia
Ġare as
Ġà¸ ¥
ë¶ ģ
r Ãł
Ġà¦¶ à¦¿à¦ķà§įà¦·
Ġt res
Ġall es
ãĥ³ãĥ ģ
is c
di b
v an
l age
Ġà¦ķà¦° à§įà¦®
ÑĬ Ð¿
ĠG Ã¼n
Ġà¤®à¥Ī à¤Ĥ
ĠÐ¿Ð¾Ðº ÑĥÐ¿
Ġl iving
ĠB il
ĠØ« Ø¨Øª
×Ľ ×Ŀ
×Ļ×ĳ ×Ķ
éĤĢè¯· çłģ
ÑĥÑĢ Ð³
ĠÏĢÏģÎ¿ ÏĤ
ÑĢ Ð¸
Ġd Ã©s
Ġàª¦ àª°
ĠÐ¾Ð± ÑıÐ·
Ġ380 92
Ø± ØŃ
Ġt iáº¿t
à±Ģ à°°
Ġpr imo
Ñı Ð²Ð°
z d
Ġs op
Ġrequire d
ĠÐ¾Ð± Ð¾ÑĢ
à´¯ à´¿à´²àµįâĢį
×ķ×ŀ ×¨
Ġà¦Ĩà¦® à¦¾à¦°
ier z
ĠB á»Ļ
Ġw ide
os c
Ð¾Ð´ ÐµÑĢÐ¶
Ð°Ð½ ÑĮ
b u
à¦°à§įà¦ ®
Ġt able
ĠDeut schland
à°¾à° §
Ġng ay
Ġsp Ã©
áĢĦ áĢ¶
Ġìł ģ
Ġj Ã¤l
cz ne
ãģ® ãģ§ãģĻãģĮ
ĠM et
åĪ Ŀ
Ø§Ø± ÛĴ
ĠÙħØ¯ ÛĮØ±ÛĮ
ĠÙĩÙħ ÛĮÙĨ
áĢ¶áĢ¯ áĢ¸áĢ
vol v
ĠS ome
un ci
un ia
Ġvari ous
æĪ ¦
ÎĳÎ ļ
Õ¡ Öģ
b al
Ġk Ã¤n
Ġk rij
Ġpu is
ĠÐ´ ÐµÐº
Ã³ g
ed d
Ġ×Ĳ ×Ļ×Ł
Ġtien en
à¯ģà® ļ
Î¹ Ïİ
ĠPers oane
ĠÃ Ģ
Ġpre z
Â ±
Ġche z
Ġà®µà¯Ĩ à®³
Ġp ang
ĠÐ° Ð¼
à¤Ĥ à¤ļ
ÏĨ ÎŃ
ĠÙħÙĦ Ú©
ëł ¨
ÑģÐº Ð°ÑĤÐ°
Ñĥ ÐµÑĤÑģÑı
us u
ĠÑģÐ¾Ð¾ÑĤÐ²ÐµÑĤ ÑģÑĤÐ²
Ġà®ª à®¯
ing an
ĠEs ta
Ġby ÅĤo
ĠÕ ¿
ì£¼ ì¶ľìŀ¥
à· ı
ĠÎķ ÏĢÎ¹
il s
Ġseb uah
áĢ¶áĢ¯ áĢ¸
Ġà¦ķà¦¿à¦¨ à§įà¦¤à§ģ
Ġs endiri
Ïģ ÎµÎ¹
Îµ ÏĦÎµ
ĠAr tik
Ġsah ip
ĠØª Ø³Øª
Ġtr ack
uks et
ĠÐ·Ð° Ñī
ĠØ·Ø± Ø§ØŃÛĮ
l au
Ġdown load
Ġdz iaÅĤ
ĠmÃ¼ s
à¤¸ à¤¾
Ð¼ Ð¾
ÐµÐ³ Ð´Ð°
ĠâĢ İ
è² »
ĠÃ®ntÃ¢lne ÈĻte
Ġà¤ķà¤° à¥ĩà¤Ĥ
à¨¿ à¨
ĠØ¨ Ø¥
pl ace
ik or
Ġéĩ ĳ
Ġpers one
ç´ ł
æĪĳ ä»¬
ç¦ ı
ĀĀĀĀĀĀĀĀĀĀĀĀĀĀĀĀ ĀĀĀĀĀĀĀĀĀĀĀĀĀĀĀĀ
R E
¹ æŀľ
Ġpol ÃŃt
Ġà´ļàµĨà´¯ àµįà´¯
×Ĳ ×ķ×ª
Ġm iesz
ĠÎĶ ÎµÎ½
Ġà´¤ à´¿à´°
ĠÐ²ÑĬ Ð²
ĠHar ga
ĠÐ¶Ð¸Ð· Ð½Ð¸
w an
Ġà®¤ à®²
ĠÐ´ Ð¾Ñģ
Ġas i
áŀ ¶
ĠÎ ĸ
ĠC s
Ġà¤Ĺ à¤Ī
Ġà¦¸à¦° à¦ķà¦¾à¦°
Ä± ll
Ġg dy
Ġì° ¨
ÐµÑģÑĤÐ² Ð°
ĠÐ´ ÑĢ
áĢļ áĢ°
Ġ×ķ ×ľ×Ĳ
ĠÎ± Î¾
ok o
Ġà¤ªà¥įà¤° à¤¤
ler de
Ñĥ Ð¹
àª¿àª¯ àª¾
ays ia
ĠI N
Î´ ÏĮ
ĠØ¥ ÙĦÙĬ
ìĺ Ģ
Ðº Ð¸ÑĤÐµ
ers hip
Ġtá»ī nh
v Ã¦r
ĠØ¨Ùĩ âĢĮ
ĠÊ» O
Ð Ļ
ĠÃ ļ
tell ung
Ġeffect ive
D F
to ff
Ġav ait
ĠÐ³ ÑįÑĤÐ°
à¦¾à¦¨ à§ĩà¦°
Ø§Ùĩ Ø¯
Ġh g
Ġhapp en
Ã¤s ta
Ģ ìĿ´
ĠÐ¿ÑĢÐ¾ ÑĪ
ĠÙĨÛĮ Ø§Ø²
Ġwon der
Ã«n Ã«
Ø³Ø¨ Ø¨
ĠØ³ ÙĨ
ãģ£ ãģ
ĠNg uyá»ħn
ĠWh ile
Ġhab it
m ber
ĠÐº Ð°ÑĤ
ĠD aten
Ġot ra
Ġà´ªà´± à´ŀàµįà´ŀ
Ïį ÏĢ
ĠJ a
§à¸ ±à¸Ļà¸
Ġfollow ing
Ġà¸ ¥à¸ĩà¸Ĺà¸°à¹Ģà¸ļ
Ġl iel
ĠØ§ÙĦ Ø±ÙĪ
ĠáĢ±áĢ ĲáĢ¬
po is
ij s
ĠÙħ ÙĦÙĬ
ÙħØ§ÙĨ ÛĮ
Ïĥ Îº
Ġhv is
Ġàªµ à«įàª¯
Ġth áºŃt
Ġå½©ç¥ŀ äºīéľ¸
ÐµÐ´ ÐµÑĢ
å½ ¢
åĽ ł
ĠÐ´ Ð¾Ð±ÑĢ
àªĽ à«Ģ
ĠÐ¼ ÐµÑģÑı
ĠÃ Ħ
Ùħ ÙĴ
Ð¾Ñı Ñī
Ġgr and
Ġte j
aj es
Ġay r
Ġf ive
à´°àµįâĢį à´¤àµįà´¤
ĠØ³ÛĮØ³Øª Ùħ
ªà¸ ³à¸«
Ġdo ch
ÑĢ Ð¸ÑĤ
im ana
à¤¾à¤ł à¥Ģ
U tama
ĠDomain Utama
he den
Ġch at
Ġì° ¸
Ð½ Ð¸Ñĩ
Ã¼ ne
he im
ĠIn form
ĠÙĥ ÙĬÙģ
Ġse lect
Ġup d
àªŁ àª²
ĠÐ¿ Ð¾Ð³
åį ĩ
ab u
Ġà®ĩ à®µ
åĨ ³
Ġl ater
Ġäºļ æ´²
Ġæ ¥
c Ã³w
Ð¸Ð¼ Ð¾ÑģÑĤÑĮ
à¸Ńà¸ µà¸
ĠÐ³ ÑĢÑĥÐ¿Ð¿
if s
àª¾àª ¥à«Ģ
ĠolduÄŁ unu
à¤¾à¤ «
ĠÛ±Û °
ĠÐ» Ð¸ÑĪ
lic k
Ġà¦ķ à§įà¦·
Ġk ol
ĠN ot
ym i
Ã£ y
Ġà¤ķà¥ĭ à¤Ī
ont os
ãģ¡ ãĤī
Ġï¼ ı
Ġy e
à´Ļàµįà´Ļ àµ¾
Ġv Äĵl
ÑĸÑģ Ð»Ñı
à® ¨
ãĤ ¡
Ġb innen
ĠÙĪ Ø§Ø±Ø¯
m ÉĻt
Ġtak ing
ÑĤ Ñĸ
ĠÐº Ð»Ð¸
Ġhak k
ai ent
ĠgÃ¶ z
ĠØ¹ ÙĦÙħ
ĠWo hn
Ġquel ques
Ġà®®à®±à¯įà®± à¯ģà®®à¯į
ÛĮÙĨ Ú©
ĠíĻ Ķ
à§ĩà¦ ¡
g esch
éĹ® é¢ĺ
ic c
ë£ ¨
ist on
ì ´Ī
ãĥŃ ãĤ°
ĠÐ¿Ð¾ ÑıÐ²
Ä° L
ĠÐ¿ÑĢ Ð¾Ñģ
ĠØ§ÙĦ ÙĴ
Ġà¦¨à¦¿à¦ ľ
áº« u
c oup
Ġno e
ĠÙĪØ± Ø²Ø´
ĠC zy
×Ĵ ×ĵ
à¤Ĺ à¤°
u ciÃ³n
Ġdup Äĥ
ĠáĢĻ áĢº
Ġe ither
Ġå® ī
Ñĭ Ðº
Ġcomp ut
Î»Î· ÏĤ
å¸Ĥ åľº
ĠD at
ler inin
ĠÐ¼Ð°ÑĤÐµÑĢÐ¸ Ð°Ð»
Ġå¹ ¶
Î´ Ïħ
Ġ×Ĳ ×ĸ
Ġà°ħ à°Ĥà°¦
Ġs voj
AP P
ĠØŃÚ©ÙĪÙħ Øª
à±Ģ à°µ
Ġà´¤ àµģà´Ł
Ġy g
Ġcomm on
ĠÙĨ Ø³
Ġb áº¯t
çĪ ±
Ġàª¨ à«ĩ
ĠãĤ ¦
Ġà¹Ĥà¸Ľà¸£ à¹Ĥà¸¡à¸
Ġb osh
ãģ«ãģª ãģ£ãģ¦
ģà¸ ´à¸
à¦¿à¦ ī
ĠmÃł u
R O
ĠÐ¿ÑĢ Ð¸Ñĩ
r Ã³l
ãģķãĤĮ ãĤĭ
å¤ ª
Ð°Ñģ ÑĨÑĮ
è¿ ŀ
Ġà¤ªà¥įà¤° à¤¦
ver t
à¤¾à¤² à¤¾
à±įà°¸ à±į
Ġà¹ģà¸ ¥à¸°
Ġf aut
ĠÏĮ Î»
Ġmo is
Ø§Ø¹ Ø¯Ø©
ĠA k
à¤ª à¥Ģ
Ġs á»©c
Ġfin s
ĠØ¯ ÙĪÙĨ
Ġlu Ã´n
Ġg ar
Ġper cent
ĠN ow
ad en
Ġf urther
áĢī áĢº
1 5
Ġà¦ ¢
Ġë³ ´ë
à±ģà°ķ à±ģ
Ġä½ ł
Ġnuest ra
ĠÙĪØ§ÙĦ Ø¹
Ġb Ã¬nh
Ġob at
ĠáĢ Ĭ
Ġà¸ ¡à¸
æĿ Ĳ
Ġp ays
à´¯ àµģà´ŁàµĨ
ĠØ² ÙĨØ¯Ú¯ÛĮ
ÅĻe j
Ġp ouv
v ien
ĠÐ¾ÑĢÐ³Ð°Ð½ ÑĸÐ·
ij Äģ
Ã¡l ne
Ġà¦®à¦¾à¦¨ à§ģà¦·
ì§ Ī
çµ Ħ
Ġv oir
à±ģà° ¦
à°¨ à±ĩ
×ķ ×Ļ×ķ×ª
Ġæ Ļ
ĠìĤ¬ ìļ©
Ġpro jet
æĢ ģ
c ÉĻ
ĠM o
à¹Ĥà¸£à¸ ĩ
à¦Ĺ à§ģà¦²
áĤ ĩ
ì¸ ł
st r
Ø¹ ÙĬØ©
ier a
ĠÎł Î¿Î»
Ġà¤ªà¤¹ à¤²à¥ĩ
un ea
Ġàªµàª°à«įàª ·
Ġph á»ĳ
Ð°Ð½ Ð¸Ð¹
Ġãĥ Ļ
Ġcom er
Ġà´µ àµĨ
èĲ ½
Ø¬ ÙĬÙĦ
ÎŃ Ïĩ
Ġå½ ĵ
Ġdesign ed
ĠÐ·Ð° Ñħ
ë¡ ł
Å¾ enÃŃ
×Ĳ ×Ķ
Ø§Ùĩ Ø´
Ġs ays
ve zet
ĠGe b
à´¾à´¤ àµįà´¤
Ġg ada
Ġç¬ ¬
ķ à¸´
Ú¾ ÛĴ
Ġn á»¯
{ "
é Į
Ġme as
ĠJo hn
ful ly
Ġåħ ¬
ĠÚĨ Ø§Ûģ
ĠØµÙģ ØŃÙĩ
ra zione
Ġtal Ã¡l
ĠÑħ Ð°ÑĢÐ°ÐºÑĤÐµÑĢ
ĠÙģ Ùĩ
«à¸ ¡à¸²à¸
Ã¡c ie
aar d
ĠÃ Į
Ø§Ø¯ Ûģ
Ġx Ã¢y
ĠBar celona
à¥ģ à¤¦
èĪ ª
Ġab y
ĠØ§ÙĦ ÙĪÙĤ
ĠRom a
ĠS u
nÄĽ jÅ¡ÃŃ
à°¿à°Ĥà° Ĺ
ill ed
Ġk ont
àµĩ à´£àµįà´Ł
ÅĽ nie
è ħ
uf act
ÐµÑĪ Ðµ
à´¿à´ ª
ay o
Ġs n
ĠAs s
Y W
Ã³ m
Ġcl a
ķ à¹Į
Ġdi as
Ġà°ħ à°¯
áĢĲáĢ½ áĢĦáĢº
ĠÐºÐ¾Ð¼Ð¿ Ð°Ð½Ð¸Ð¸
Ġå¾ ·
Ġv iele
ĠÐ¾ Ð»Ð¸
Ġc ro
ka an
ĠG u
Ġíķ Ļ
ĠÐĲÐ» ÐµÐºÑģ
te ik
ÑĥÐ»Ñı ÑĢ
Ġà¦Ĩ à¦ĩ
Ñĥ Ð»Ð¸
to ire
ĠM are
Ġd amit
ore d
àªµ à«ĩ
ÑĢ Ð´
Ġpar ticip
Ġ×ŀ× ĸ
à°² à±į
à¯įà®ļ à®¿
ĠÂ ®
Ð¾Ð½ Ð¾Ð²
Ġa ud
à´® àµįà´ª
Ð°Ð»ÑĮ Ð½Ð°Ñı
Ġ ÉĻm
à¦¡ à¦¼
Ġtrav ail
ĠM eng
ĠbÃ½ t
verpg bel
Ġtá» Ń
Î® Î¼Îµ
Ġmed ia
Ġm á»įi
Ġfor am
Ġàªµ àª¾àª¤
à®¾à®³ à¯į
Ġde z
ÙĪ Ø§Ø¹
em ber
è½ ¬
ãĥ¼ãĥ ĸ
Ġch iáº¿
ĠØ± Ø¦ÛĮ
ler ine
ĠA wá»įn
ĠØ§ÙĦ Ø§ØŃ
Ð°ÑĤÐµÐ»ÑĮ Ð½Ð¾
is zt
Ġal ors
p en
à¯įà®ª à¯įà®ª
à±ģà°¨à±įà°¨ à°¾à°°à±ģ
ÑĪ ÑĤ
Ġj eszcze
Ġpl a
Ġinform atie
ä¾¡ æł¼
ĠÃº gy
àµĢ à´µ
Ġà¦ĺ à¦Ł
ĠÙģ ÙĤØ·
Ġies pÄĵj
Ġespe cially
Ġà¦ª à§ľ
Ġqu er
à¯ģà® ´
ÛĮØ¯ ÛĮ
Ġ×© ×Ľ
ãģĶ ãģĸ
Ø±Ø¨ ÛĮ
Ġe au
åĮ Ĺäº¬
Ġ×Ķ ×ľ
ĠìĦ ¤
y al
Ð¸Ð² Ð°ÑĤÑĮ
ĠÐºÐ¾Ð¼ Ð¿Ð»
ed z
Ġì² Ń
ov al
å¿ħ è¦ģ
ĠÐ¸Ð· Ð¼ÐµÐ½
Ġn Ã¥
Î³ Ïĩ
Ġam ong
Ġeg Ã©sz
ĠS ver
çĽ´ æĴŃ
ÏĢ ÎŃ
Ġà°ļ à±Ĥà°
Ġas t
á» ĥ
Ġav is
Äĥr Äĥ
and en
Ġà¸ ľà¸
ĠEsp aÃ±a
id ay
ĠÐºÐ¾ ÑĺÐ°
Ġkans sa
Ġj Ã¡t
Ġide a
Äħ g
Ġë¡ ľ
Ġdo en
ĠÐ´ ÐµÐ²
à°Ĥà°¤ à±ĭ
à§įà¦ ŀ
ë¶Ģ íĦ°
Ġà¦¸ à¦Ļà§įà¦Ĺà§ĩ
×Ĺ ×ķ×ª
æĹ¥ æľ¬
ģ à¸£à¸°à¸
ĠE ine
Úĺ ÛĮ
uks ia
ÐµÐ» Ñı
us i
à¯įà® ¸
ĠÐ¾Ð± ÐµÑģÐ¿
ess Ã©g
áĢŃáĢ¯ áĤķ
ĠChr ist
Ġà¸¥à¸ĩà¸Ĺà¸°à¹Ģà¸ļ à¸µà¸¢à¸Ļà¸
rit to
Î¹ÎºÏĮ ÏĤ
ìľ ¡
ra ft
ĠÃ£ ÆĴ
áĢ¬áĢ¸ áĢĢ
c at
ÅĽ l
Ġwszyst k
ĠÃ ¦
ĠÎ¾ Îµ
ll er
Ġdes ta
Ġ ãģ«
ĠÐ¿ Ð°Ð²
ĠÏĩ ÏģÎ·
ĠãĢ ľ
áĢĲáĢ½ áĢĢáĢº
ĠO m
è¯ Ħ
ĠÙĨ ÙĪØ¹
ĠD an
ÐµÐº Ð¸
Ġæ ¬
à´£àµįà´Ł àµį
à¦° à¦£
ç» ´
ÙĩÙħ Ø§
Ġhe art
Ġà¤ľà¤¾à¤¤ à¤¾
ie urs
à«ĩàª² à«Ģ
Ġf eme
Ġr Ã³Å¼
ĠT H
áĢģáĢº áĢŃ
Ġch iq
Ġh on
à´¤àµįà´¤ à´¿à´¨àµįà´±àµĨ
Ð¸Ð´ Ð°Ð³Ð¸
Ġnagy on
ī à¸
Ġb Ã«
Ġmen sen
Ġw Ã¼r
Î² Î¿Î»
ing gi
ĠÑģÐ»ÑĥÑĩ Ð°Ðµ
ĠàªŃ àª¾àª°
Ð¸Ð¼ Ð¸Ð·
ĠÐ½ Ð°Ð±
iv yo
à´¨ à´Ĥ
à§ģà¦ ĸ
ĠØ¨Ø§ÙĦ Øª
áĢŀ áĢ±áĢ¬
à´ªàµįà´ª àµĨà´Łàµįà´Ł
q q
¸ Û
Ġse en
f Ã©r
Ġsty le
Ã© le
Ġy an
Ġåį Ĺ
ri que
Åĳ t
ÐµÐ» Ð¸Ðº
ĠØ¬ Ø§ÛĮ
ĠÙĪ Ø¬
ĠG j
Ġthu áºŃt
ĠO ff
Ġha z
Ġà¸¥à¸ĩà¸Ĺà¸°à¹Ģà¸ļà¸µà¸¢à¸Ļà¸ Łà¸£à¸µ
ĠÑģÐ² Ð¾Ð¹
Ã©s i
Ġcel a
ĠÐºÐ¾Ð» Ð¸Ñĩ
Ġne p
Ġï¼ ĳ
à¥ĩà¤ ¡
ĠÑĢÐ°Ð·Ð² Ð¸ÑĤ
ĠÎ£ ÏħÎ½
à¸£à¸²à¸Ħ à¸²à¸
Ġhe m
ĳ áĢ¬áĢ¸áĢ
ist r
ĠØ®Ø¯Ùħ Ø§Øª
Ġo ike
en ze
Ġencu ent
at ge
Ġho y
ĠÎ¬ Î½
Ø® Ø§ÙĨÙĩ
ĠGal icia
æī ¹
Ġst an
ãĤ³ ãĥŁ
ci ais
Ø§Øµ ÙĦ
Ġì½ Ķ
Ã °
áĢŃ áĢĻáĢº
Ġdes puÃ©s
Ġfr ont
x ico
ĠÑĢ ÑĥÑģ
ĠÐ± Ð»
Ġ ãģª
ĠØª Ø§Ø±ÙĬØ®
Ð¿ Ð¸Ñģ
ĠÑĹ ÑĹ
Ġgr andes
Ġass ist
Ġam ount
n ut
Ġt ag
Ø¹Ùħ Ø§ÙĦ
å»º è®¾
Ġein z
b au
Ġà¦¬à¦² à§ĩ
Ġpro b
ĠJ ust
ĠZ o
ÏĥÎ¹ Î¼Î¿
enn em
ĠØ¯Ø± ÛĮØ§
Ġse ja
um e
Ġte a
g n
ĠÑĩ Ð¸
Ġà¸ªà¹Īà¸ĩà¹Ģà¸ĩà¸´à¸Ļà¸ ļà¸²à¸Ĺà¹Ħà¸Ĺà¸¢
Ø±Ùĥ Ø§Øª
Ġde cir
Ð ĥ
Ġn ed
Ġy ake
Ġcos a
ck er
à«Ģ àªĤ
Ġb in
if y
Ø¸ Ùħ
ĠÐ² Ð¸Ñģ
áģ ¥
ÙĬØ§ Ùĭ
* *
Ġne Å¾
ĠÄĳ áº¡o
z Ã³
ĠÎ´Ïį Î¿
ĠØ§Ø± Ø§Ø¦
à¸´à¸ Ķà¸
Ġde ci
Ġngh á»ĩ
ĠÑĤ Ð¾Ð¼Ñĥ
Ħà¸¸à¸ ĵ
ÐµÐ· Ð¸
Ġat ta
çĶ ±
ĠTe il
ĠÐ± Ð»Ð°Ð³
ff ent
à¥ĭ à¤ķ
ĠÙĤ Ø·
ĠØ§ÙĦØµ ØŃ
Ġph á»¥
Ġà¦ķà¦¿à¦Ľ à§ģ
ĠÐ²Ð¸Ðº Ð¾Ð½
up un
Ġkdy Å¾
ĠÐ¿ Ð¾Ð±
ĠØŃ Ùħ
åģ ĩ
áĢ¬ áĢĻ
ĠÐ½Ñı Ð¼Ð°
ru ction
Ġ19 9
à¦ ·à§įà¦Ł
à¥ģ à¤ķ
ĠâĢİ #
å¹ ²
ãģ ²
Ġpor t
Ġàªª à«Ĥ
d et
Ġs Ã¶y
Ã¤g g
Ġk is
Ġdari pada
Ġnh á»ı
Ġsome one
Ġs ampai
ĠÑĢÐ°Ð· Ð»Ð¸Ñĩ
Ð¸Ð² Ð°ÐµÑĤ
ĠWe b
Ġeng ine
ç Ł
ãģ¨ ãģĵãĤį
à¯Īà®¯ à¯Ī
áģ¿áĢķ áĢ®áĢ¸áĢ
Ġhum an
ĠÑģÑĤ Ð¾Ð»
Ĺà¸µ à¸
Ġst ata
ÃŃt ott
Ġt Ã¡
à¯Īà®ķ à®³
Ġwom en
à´° à´Ĥ
à´¨àµįà´¤ àµįà´°
ĠÙĨØ´ Ø§ÙĨ
Ġ×ĳ ×¦
ĠÎ±Ïħ ÏĦÎ¿
à´® à´¾à´¯à´¿
at ik
Ðµ ÑĨÑĨÐ°
ĠØ´ Ø±Ø§ÛĮ
ci ja
Ð¾Ð³ Ð°ÑĤÐ¾
Ġbel ieve
d zy
Ø§Ø¨ ÙĤ
Ġr umah
Ġgod t
áĢ»áĢģ áĢĦáĢ¹áĢ¸
ĠÃ§ Ä±x
Â ¶
ĠØ§ÙĦØ³ ÙĦ
ĠÏĢ ÏģÎ±Î³
Ġs an
ä»£ çĲĨ
ãĤī ãģĦ
rÃ³ d
Ġso ci
ĠÐºÑŀ ÑĢ
ãģĹãģ¦ ãģĦãģ¾ãģĻ
ĠÛģÙĪÙĨ ÛĴ
åı ²
Øº Ø©
Ã© vel
ĠØ¬Ùĩ Ø§ÙĨ
Ã¥ l
lar Ä±na
ĠMil ano
os sz
Ġ äºĮ
ĠÚ¯Ø± ÙģØªÙĩ
in ta
ĠØ® Øµ
c Ã©
Þ ¬
à¦¿à¦ ¡
Ġs un
Ø² ÙĦ
Ġig az
Ġs jÃ¤l
ĠØ§ÙĨ ÙĪØ§Ø¹
ĠÐ¾ ÑīÐµ
Ġskul le
Ġoff ice
Ġacc ount
Õ¸ ÖĢ
ab il
ĠØ´Ø±Ø§ÛĮ Ø·
åĽ½ å®¶
m ann
k Ã¡
à´ķ à´³
Ûģ Ùħ
R A
ĠÚĨ Ú¾
Ġesc ol
h ol
Ġph á»¥c
gen s
Ġà¤¦ à¥įà¤µ
it er
z ent
Ĺà¸ ¸à¸
uj a
ĠÙĪ ÙĦÛĮ
c ato
à«įàª §
ŀà¸Ļà¸ ±à¸Ļà¸
Ġkap csol
olog ÃŃa
Ġpro to
Ġass im
à¹Ģà¸ ķ
Ġàª²à«ĭàªķ à«ĭ
Ġob jet
à¤¬ à¤°
b Åĳl
Ñĸ Ñħ
ung u
ĠagåĽ½éĻħ äºļæ¸¸
ĠÙħØ³ Ø¦
m am
Ġu den
ĠÐ° Ð¹
Ġkun ne
ang o
20 20
¡à¸²à¸ ģà¸
ÃŃcul o
Ġr áº¹
pon ib
łà¸²à¸ ŀà¸
çĥ Ń
k si
k el
Ġek stra
Ġse it
à¥ĩà¤ ļ
Ġg em
Ġs Ã³lo
ĠÑī Ð¾Ð±
ÅĻ enÃŃ
à®¿à®¯ à®¾à®ķ
r icht
à¯Īà® ¨à¯įà®¤
ĠM ark
ĠCom o
j Ã¡n
pl aat
ĠÑĤ Ñį
Ġm asa
Ġm Ã¶
ĠÐ¹ Ñŀ
Ġà®µ à®¿à®Ł
ĠÚ¯ Ø¦ÛĮ
Ġà´ķ àµĤà´Ł
Ġkom m
Ġn om
Ġk Ã¤
Ò· Ð¸Ðº
Ġà°ķ à°²
Ġk v
e f
Ġà® ĵ
Ġh ade
ir ish
ĠS k
Ġdet ta
atz eko
ĠÒ³ Ð°ÑĢ
Ġdib dib
Ġber e
ĠE UR
e za
Ġktor Ã½
Ġm Ã¥nga
Ð¸ÑĪ Ð¸
Ġbu at
Ġw ana
Ġ uk
Ġb este
ĠmÃ´ Å¾e
n om
Ġk uk
ul i
Ġw atu
Ġh art
as un
Ġp olo
Ġh ore
y d
cu te
ĠÊ» o
Ġt l
is o
Ġt la
ĠÐ± Ñĥ
Ġáĥł áĥĲáĥª
Ġáĥ¨ áĥĶáĥľ
áĥĶáĥĳ áĥĶáĥļáĥĺ
áĥ§ áĥķ
áĥĲáĥ Ķ
Ġáĥ¡áĥĲáĥ® áĥĶáĥļ
áĥĺáĥ «áĥļ
áĥ£áĥ ĵ
áĥĶáĥ¡ áĥĺ
áĥĲáĥ® áĥļ
áĥĺáĥ£áĥł áĥĺ
áĥĲáĥł áĥĶ
ĠáĥĽ áĥĿáĥľ
áĥĲáĥł áĥĺáĥ¡
ĠáĥĶáĥłáĥĹ áĥĺ
Ġáĥŀ áĥĺáĥł
áĥĺáĥľ áĥĺáĥ¡áĥ¢
áĥĲáĥ §
áĥĲáĥ¥ áĥ¢
áĥĽ áĥĺáĥ¡
Ġì ¶ľ
Ġë¬ ´ë
ĠìĦľ ìļ¸
´ Ŀ
ĠìĹ Ń
ĠáĥĴ áĥĲ
áĥĲáĥª áĥĺáĥĲ
Ġëĵ ¤
ëł ¹
ĠÎļ Î±Î¹
Ġë° Ľ
Ġadv an
Ġcho ose
ÑģÑĤÑĢÑĥ Ðº
ĠáĢĸáĢ¼ áĢħáĢº
Ġs ci
est s
ĠÐ¼ ÐµÐ½
ĠãĢģ ãĢĮ
ÑĢ ÐµÑĤ
ãĥ© ãĤ¹
ĠØ¯ Ø§Ø®ÙĦ
áģ ¢
im ate
á»« ng
Ã«s i
Î» Ïİ
Ġw all
ĠÙĩ ÙĦ
ĠA p
ur ilor
Ø§Ø¯ ÙĤ
Ġd nia
ÑĢÐ° ÑģÑĤ
ãģĵãģ¨ ãĤĴ
Ð¾Ð³ Ð°
á»ķ ng
Ġíķ ¨
á» Ľi
à¸²à¸ ģ
eng th
ĠLatv ijas
Ð°Ð½ Ñĭ
Ġdo b
Ø§ÙĤ Ø¹
áĥĲáĥķ áĥĺ
ĠÑĥ Ð·
ÙĪ ÙĦÙī
Ġk it
Ġin de
ĠÑģÐ» ÑĥÐ¶
à¸Ļ à¹īà¸
Ġà¦¬ à§ĩà¦¶
ĠØ§Øµ ÙĦÛĮ
Ġens ure
å© ļ
p uri
Ġà¦ħà¦¨ à§ĩà¦ķ
ie ty
Ðµ ÑľÐµ
Ġ×ĳ ×ŀ
àªĤàª ¡
ĠÙħ Ø¬Ùħ
ess e
ÙĪØ¯ Ø©
Ġs zy
ter e
à¹īà¸²à¸ ĩà¸
Ġh idup
Õ¸ÖĤÕ©Õµ Õ¸ÖĤÕ¶
ĠãĢ Ĺ
Ùİ Ø±
Ġhe cho
ĠÙģØ¥ ÙĨ
ĠØ§ÙĦ Ø§Ø¬
Î´ Î±ÏĤ
íĺ Ħ
Ġà¤¸ à¤¾à¤®
i Ã§Ã£o
à§Ł à§ĩ
æľīéĻĲ åħ¬åı¸
ç»ĵ æŀľ
Ġf ore
Ġk Ã«r
Ġ365 æ£ĭçīĮ
r al
Ġå¹ ¿
ĠC um
Ġaut hor
ĠB und
Ġj ours
Ġf aci
Ġnh Ã¬n
1 6
li wo
Ġth anh
Ġâĸ ł
k il
ĠÐºÐ¾Ð½ ÑĤÑĢ
ä¹ ī
szer Å±
ĠÙĦ Ø¹
ãĥ¼ ãģ®
à¦¤ à§ĭ
Ġç Ħ
szy ch
ĠW elt
Ġk ish
ĠãĤ ±
ĠÐ¾ÑĤ ÑĢÐ¸Ð¼
ĠÐĳÑĬÐ»Ð³Ð°ÑĢ Ð¸Ñı
à¸£à¸²à¸Ħ à¸²
ç ¸
th ough
ĠÑģÐ¾Ð± ÑģÑĤÐ²ÐµÐ½
ĠS em
ĠtÃ¶r t
Ġa ten
Ġz gj
id ence
Ġpra cy
Ġac um
×Ļ× £
à¶ º
Ġv áºŃt
à¥ĭ à¤¨
×Ĺ ×ĵ
Ãº de
t as
ŀ į
Ġáĥ¥ áĥĲáĥłáĥĹ
êµŃ ìĿ¸
Ġnost ro
Ġká» ³
æ¨ ¡
Ġconne ct
se z
ĠÑĩ Ð¸Ñģ
ĠL Ã¦s
Ġfe j
Ġtr at
Ġsta ff
áĥĶáĥ ¤
è® ©
ç İ¯
Ġw ent
áº¡ y
Ġpre cio
ģà¸ ¥à¸
×¨ ×ĵ
ĠP f
id ente
Ġnh anh
Ġdi ye
ĠC al
ĠdÃ¼z en
ĠÎ¼ÎŃ ÏĥÎ±
áĥĺáĥ£áĥ ļáĥĺ
íİ ¸
ĠÐ² Ð¾ÑĤ
àª¾àªµ à«Ģ
Ġáĥ¥ áĥĲáĥļ
áĢ¾ áĢŃ
å¤ ľ
Ġ201 1
ĠáĢ ĩ
im enti
ĠÑĢ ÑĸÐ·
as ing
Ãª t
lic her
Ġï¿½ï¿½ï¿½ï¿½ï¿½ ï¿½
Ľ áĢ¬
ik ker
íĮ Ĳ
Ġph Ã¢n
Ġde ter
Ġr ze
ĠØ§ÙĦÙħØª ØŃØ¯Ø©
Ø£ Ø©
Ġ! !
Ġquy á»ģn
ast ic
ĠÐ¿ÑĢ Ð°ÐºÑĤ
å·¥ ç¨ĭ
ĠØ¢ÙħØ±ÛĮÚ© Ø§
ĠÑģ Ð¾ÑĤ
Ð¸Ð½ Ð¾Ð²
ÙĦ ÙĤØ©
ĠW or
Ġwy m
Ġth ay
Ġby la
Ġel a
re et
×¨ ×Ĺ
à´¨àµįà´¨ àµį
ĠØ§ÙĦ Ø§ÙĤ
Ġseg u
ĠÚ©ÙĨ ÛĮÙħ
Ġ Ã¡ltal
ĠÐ±ÑĥÐ» Ð¾
åı İ
Ġm áº¡nh
Ġsu gg
Ġn ive
Ġme ly
es inde
ãģ© ãģĨ
Ġd Å¯
Ġrel ations
j ak
Ġm áº¹
ag gi
Ġà¦ķà¦¥ à¦¾
à± Į
æĬ Ĭ
ĠÑģÐ² ÑĸÑĤ
Õ¸Õ ¾
ĠØ§ÙĦØ¹ Ø±Ø§ÙĤ
Ġto v
Ġha v
Ġà¦® à¦¹
Ñĸ ÑĤÑĮ
Ġn Æ¡i
5 2
ĠØ£ Ø¯
Ġw ÅĤa
Ġcustom er
à¸Ńà¸ ģ
en di
à±įà° ³
ãĥĸ ãĥ©
ãĥķ ãĤ£
Ġopt ions
à´¸ àµįà´¥
Ġæīĭ æľº
Ġb amb
b ud
ĠÑĥ Ð¿
il ÉĻn
ur idad
al om
Ġfaz la
Ġab r
is ation
ãĥ³ãĤ ¸
ĠÏħ ÏĢÏĮ
Ġtá»¥ c
Ã» t
à¹ĥà¸Ĭà¹īà¸ Łà¸£à¸µ
Ġa plic
ĠÙĨ Øª
uk up
àµ Ĺ
ĠK l
Ø± Øª
ĠÄ° n
Ġbij a
ĠØ§Ø±Ø§Ø¦ Ùĩ
ĠØ¨ Ùĥ
ÑĥÐ± Ð»Ð¸
æ ĵ
Ġà´µ àµįà´¯
re pt
ĠPost Ã©
áĢ±áĢĽ áĢ¸
ĠE S
Ġprovid ed
Ġk Ä±
áĢŃáĢ¯ áĢľ
à§įà¦¬ à¦°
Ġ×Ľ ×ĵ×Ļ
ĠØ§ÛĮØ±Ø§ÙĨ ÛĮ
Ġà¤ľ à¤¾à¤ı
à¯ĭ à®¤à¯ģ
ÏģÎ¯ ÏĤ
à¦¾à¦° à§ĩ
ĠÙħ Ø®
×ŀ× Ĳ
in Ã¤
Ġl lam
à¹ĥà¸«à¸ ¡
ë¦ ½
æŃ£ è§Ħ
ap an
ouvel le
æĬ ¤
Ġseb el
Ø±Ùģ ÛĮ
Ġo st
ĠdÃ© f
ĠÑģ Ð½
Ġc at
áĥĲáĥ ©
ĠÙĦ Ú¯
Ġqu ite
Ġneed ed
Ġc ult
ĠÑĤÐ°Ðº Ð°
Ġdo cum
Ġ×ŀ× ĺ
ess er
ÏĦÎ¿Ïħ ÏģÎ³
is ed
Ġj adi
pl ay
Ġas ta
Ġcla im
Ġbir lik
Ġsign ific
ĠF ar
Ġse ine
ĠØ¯Ùĩ Ø¯
ber o
ĠÑĥ Ð±
à¤Ĥ à¤§
ĠÃĸ z
ich ten
Îķ ÎĻ
Ġels Åĳ
Ġfun ction
Â ³
áĥĲáĥª áĥĺáĥĺáĥ¡
×© ×Ļ
Ïĥ Î¯
Ġesp aÃ±
y Ã¶
Ġn ada
ĠÙĪ Ø§ÙĨ
Ġáĥ¡áĥĲáĥ ĳ
Ġåı ĳ
Ġw oll
Ġt aÅŁ
u it
Ġpersonn es
sel ves
àµģà´ķ à´¯
Ġà¤ħà¤ª à¤¨à¥Ģ
c ome
áĢ¼ áĢ²
ĠØ®Øµ ÙĪØµ
æĿ ±
æ¤ ľ
ig os
ĠØ§ÙĦØª ÙĪ
ÃŃ d
ìĿ´ ëĿ¼
à¹ĥà¸ Ī
Ġda i
Ġc Ã¢nd
Ġà¸Ĺà¸Ķà¸¥à¸Ńà¸ĩ à¹ĥà¸Ĭà¹īà¸Łà¸£à¸µ
as Ã¡g
çł ´
Ġb á»Łi
ĠD el
ë² Ī
¢à¸ §à¸
aw ah
Łà¸¸à¸ķà¸ ļà¸Ńà¸¥
Ġof er
Ġat as
Ġà¤ľ à¤¨
Ġ Úĺ
à«įàª ļ
ĠÐ½ Ð¾Ð¼
ÙĬØ§ Ø©
ĠO g
Ġque m
hal t
Ġà¤ķà¤¿à¤¸ à¥Ģ
Ġà¹Ĥà¸Ľà¸£à¹Ĥà¸¡à¸ Ĭà¸±à¹Īà¸Ļ
is to
ÃŃne a
Ð°Ð½ Ð¾
Ġhal f
ĠØ£ Ø´
èª Ń
ĠÐº Ð°Ð¼
Ġsoft ware
ãģ§ãģĻ ãģŃ
Ġdzie ci
ĠÐ³ÑĢ Ð°Ð´
Ġmember ikan
é Ĭ
Ġsch ne
ãĤ ©
ĠØ§Ùħ Ø§Ùħ
å°± æĺ¯
Ġ×© ×§
ĠJahr en
Ã¢n cia
ĠØ£ ØŃØ¯
Ġ Ã³
Ġqu indi
Ġí Ŀ
×¢ ×Ļ×Ŀ
ad y
Ð¸Ð·Ð½ ÐµÑģ
Ġ": {"
ch ar
ĠÙĪ Ø´
Ġáĥķ áĥĶáĥł
ĠiÃ§in de
ĠÑģÑĤ ÑĢ
Ģ â
Ġà¤° à¤ĸ
ãĥ¼ãĥ ĵ
Ġ×ĳ ×ĺ
à´¤àµįà´¤ à´¿à´¨
Ġv it
Ġex em
Ġkon uÅŁ
Ġhist ory
Ġáĥŀáĥĺáĥłáĥ ķ
ÐĿ Ðĺ
Ġwh ite
ur en
ĠØªØº ÛĮ
èµ ¢
à¹Īà¸² à¸Ļ
qu Ã¨
ĠK ui
ĠÅ¾ iv
Ġvil Ã¡g
áĥľ áĥĲ
à°¾à°° à°Ĥ
Î¿Ïħ ÏģÎ³
Ġha ber
Ġdes s
Ġph ys
om ing
ĠÃ®nt r
Ġm ach
à§Ĥ à¦²
ĠEuro pe
war z
áĢ±áĢ Ĵ
áĢĲ áĢĦáĢ¹áĢ¸
íĿ ¥
Ġ3 56bet
Ġa ch
Ġbo y
ĠwiÄĻ cej
Ġà®ī à®Ł
ģ à¹ĩ
ĠØ§ÙĦÙħÙĪ Ø¶ÙĪØ¹
ĠáĥĴ áĥĲáĥĺ
Ġtov Ã¡bb
ãĤ¤ ãĤ¯
Ø±Ø¨ Ø¹
ĠÎµÎ¯ ÏĩÎµ
el ingen
ĠP ub
Ġg áº§n
Ġ enti
Ġl ig
ĠNor ge
ĠÎ¼ÎµÎ³ Î¬
à¹ģà¸¥ à¹īà¸§
ĠÙ¾ Úĳ
w ia
Ð» Ð°Ð¼
çģ «
Ġget ir
ÙĩØ§ÛĮ ÛĮ
ĠÅ ģ
r Äĥ
al ui
Ġenti re
Ġd rejt
Ġå Ĵ
ĠÎ³ Îµ
ĠUn ited
ĠÐ² Ð¸Ð¿
ĠÑģ ÐºÐ°ÑĩÐ°ÑĤÑĮ
I O
å¥½ çļĦ
k on
à¦¾à¦ «
Ġtrav Ã©s
ĠC ara
ĠR ep
an ta
ĠÃ¼r Ã¼n
Ð §
Ġcl ick
an ol
ĠpÅĻ es
ĠkarÅŁ Ä±
à´¯ àµįà´ķàµįà´ķ
Ġqu ed
Ġyour self
ĠØ¹ Ø¨Ø±
Ġ Õ¡Õ
Ġh áº¿t
Ġmend apatkan
Ġr im
ç» Ń
ĠÐ¼ Ð¾ÑĢ
Ġtr á»£
ĠØ¨Ùĩ ØªØ±ÛĮÙĨ
Ġsam en
ĠÑĤ Ð°Ð¼
Ø§Ø¹ Ø§Øª
Ġpre j
à´£ àµįà´£
ĠáĢ±áĢ ŀ
Ġà¦¬ à¦¾
áĥĲáĥĿ áĥĳ
Ð¸Ð² Ð°
Ã¡n o
å§ ĭ
ç²¾ åĵģ
Ġg ÉĻl
ĠÎ» ÏĮÎ³
ÑĬ Ð²
àªķ à«ĭ
áĢĶáĢ¹áĢ Ģ
à¥įà¤¯ à¥Ĥ
Ġbl ack
Ġu ur
Ġg h
ĠB Ã¬nh
Ġn enÃŃ
à¤ķà¥įà¤ ¸
Ġá¼ Ģ
ĠÐ±ÑĬ Ð´Ðµ
Ġ: )
Ġo lar
hal b
Ġà¸ªà¸ ¥à¹ĩà¸Ńà¸ķ
Ġinclud es
ĠB ij
ĠAng eb
Ð°Ð· Ð°
ĠÐ½ÐµÑģÐº Ð¾Ð»ÑĮÐºÐ¾
ç ¹
Ġun os
Ð¸Ðº Ðµ
ĠÐ½Ð°Ð¿ ÑĢÐ°Ð²
Ø§Ø¯ ÙĬØ©
f te
Ġf ino
A Y
du ÄŁ
ĠT ek
ĠáĢ±áĢ Ĵ
ĠÐ§ ÑĤÐ¾
Ġà¤¦ à¥ĩà¤¶
à°Ĥà° ª
Ġval Ã³
cz ÄĻ
ĠÙĩÛĮ ÚĨ
ç¨ ®
it es
à¥įà¤¯ à¥ĩ
k Ã©nt
æĦ Ľ
ĠFr an
ĠØ§ÙĦØ´ ÙĬ
us sa
ĠÏĩ Ïİ
b ild
à¤Ĥ à¤ķ
Ġà« ¨
ÐµÐ» Ð¸Ñĩ
n ement
»áĢģ áĢĦáĢ¹áĢ¸
Ġoy un
Ġsig ui
ĠÄĳ Ã¬nh
Ġr i
ê° Ĳ
itt ed
ĠV ideo
ĠØµ ØŃ
àª° àª¾àª¤
Ġb iáº¿n
åĬ Ł
áĢ¸áĢ±áĢ ĲáĢ¼
ot i
Ð¾Ðº Ð°
ĠW eit
Ġl Ã¡
à¸´à¸ ĩà¸
Ġà¹Ģà¸ ¡à¸
o ch
åı Ĥ
ĠGr atu
ĠÙĦÙĦ Ø£
Ã¶ t
Ġdal le
Ġd am
ĠØ±Ø¦ÛĮ Ø³
Ġàª¨ àª¾
Ġm or
Ġl and
ok s
Ġmai or
Ġol tre
Ġ à²
-- --
l endir
à¦¾à¦° à¦£
iss ement
ĠÐļ Ð¸
æİ §
Ġn ou
Ġb Ãłn
g gio
Ġencont rar
Ġà®İ à®´
Ø¯ Ø§Ø±Ø©
Äĵt u
ĠáĢĽ áĢ½áĢŃ
áĢĦáĢ· áĢ¹áĢ
ĠA uch
al ta
ĠI hnen
áĢ¾ áĢ¬
à¸²à¸ ªà¸´
ik ut
ÑĢ ÐµÐ½
ĠL is
ĠÕ Ģ
ç§ °
ate ix
Ø§ÙĦ Ùĥ
Õ¸Õ ²
é ¥
ĠÐ¿ÐµÑĢ ÐµÐ²
Ġbel ang
h u
pl es
ab ile
Ġj áº¹
Ð ¥
ĠÐºÐ¾Ð½ Ðº
å®ī åįĵ
Ġis ti
z ott
à®¸ à¯į
kÃ¶ z
icul as
Ġe j
ire a
Ġlain nya
à§ģ à¦¦à§įà¦§
ĠÑįÐº Ð¾Ð½Ð¾Ð¼
Ġempres a
tiv o
ê» ĺ
ĠÑĥ Ð¼
ĠÐŁ ÐµÑĤ
×Ļ×¢ ×Ķ
Ġm akan
Ġbeau coup
Ð½ ÐµÐ³Ð¾
çļĦ ãģ«
ĠÙĬ Ø´
Ġg odz
ĠÐ¡ Ð°Ð¼
Ð ¬
Ġà¤ ĳ
Ġi ki
ĠØ§ÙĦØ° ÙĬÙĨ
Õ¥Õ ¿
ues ta
ĠÙĨ ÙģØ±
ĠÑį ÑĦÑĦ
Ġà®ķ à®¾à®²
ĠÑģÐ¼ Ð¾ÑĤÑĢ
Ġya x
ĠÙĬ Ø³
Äģ ka
ãģŁ ãģ¡
ĠÑģÐ´ÐµÐ» Ð°ÑĤÑĮ
Ġé ĵ
Ġn aman
ªà¸ Ķà¸
Ġl áºŃp
Ġmass as
àª¤ àª¿
Ġà¦¸ à¦¾à¦®
ĠgÃ¶r a
Ð½Ð¸ÑĨ ÑĤ
ĠÏĮ Î¼ÏīÏĤ
ĠÐºÑĢ ÐµÐ´
ĠÃ© lect
ãģª ãģĭãģ£ãģŁ
ĠÏĢ Î¬
ÑĢ ÑĪ
il ia
ub a
iÄĻ dzy
m ÉĻ
Ġen n
Ġhe el
ĠV an
Ġfoll ando
åĦ ¿
Ð¸Ñģ Ñģ
it te
ĠÏĩ ÏģÎ®
ì§ ĳ
Ð°Ð»ÑĮ Ð½Ð¸Ñħ
Ġf u
f ten
Ġêµ °
à¸£à¸²à¸ ¢à¸
ĠØ³ Ø§ÛĮ
ÏģÎ¿ ÏįÎ½
Ð°ÑĤÐµÐ» Ñı
Ġquest ion
à´¿à´¯ àµģà´ŁàµĨ
Ġe erste
Ġme u
Ġf it
à®¤ à®¿
ĠÚ© Ø§ÙĩØ´
Ġde be
Ġæ ĥ
Ġà¤ħ à¤²
à«Ģàª ²
Ġà°ļà±ĩà° ¯
ĠU r
Ġwer d
Ùĥ Ø¯
ĠìľĦ íķ´
Ġp Ãµh
Ġe fect
Ġci ut
ass er
ĠØ¨Ø± Ø¯
Î¯Î½ Î·
ĠØ¢Ø² Ùħ
Ġes a
j ek
à¯Ģ à®°
Ġan te
ĠC ity
áĥľ áĥĿáĥĳ
Ġà´ħ à´¨
åºĨ æĹ¶æĹ¶å½©
Ġà¤¹à¥ĭ à¤¨à¥ĩ
Ġn Ã¦r
áĥľ áĥĶáĥļ
ĠÛ ³Û
Ġdi á»ĩn
Ð°ÑĤ Ð¾Ð²
se en
ĠØ³ Ø±Ùħ
Ġb are
Ġà¤Ĩ à¤ľ
ãĤ· ãĥ£
Ġs itu
à±įà° Ĺ
à®¤ à¯Ī
Äį ek
Ġab i
Ġàª° à«Ģàª¤
ĠØ§ÙĦØ¥ Ø³ÙĦØ§Ùħ
Ø§ÙĦ Ø¨
åĩº ä¼ļ
Ø´ÙĨ Ø¨Ùĩ
ĠÃ¶l k
Ġàª¦ àª¿àªµ
ar bej
ÐµÐ´ Ð¸Ð½
ç» ľ
Ġv ain
ij u
¤ à¸
Ġberb agai
è´ Ń
Ġàª¤àª® à«ĩ
åĨ į
Ġà¦ļ à¦²
ĠÙĪ ÙĥØ§ÙĨ
Ġfav or
Ġsimp ly
id th
ä¸Ģ ç¯ĩ
ĠnÄĽ k
ÉĻn in
Ġne g
Ġå »
Ġãĥ Ł
¶ à¹Īà¸ĩà¸
ĠÐ°ÐºÑĤ Ð¸Ð²
ĠÎ¼ Î¹Îº
ĠÐ±ÑĥÐ´ ÑĥÑĤ
E K
ĠB y
Ð¾Ð´ Ñĭ
Î ¦
Ġs Ã¡ch
ĠàªŃàª¾àª° àª¤
Ġes sa
ìĸ ¸
ĠA M
Ġa unque
Ġà®¨ à®¿à®±
un j
l icht
Ġ×¦ ×¨
æĻ ¯
ka a
ka ch
ÙĤÛĮ ÙĤ
ãĤ ²
ÙĦÙĬ ÙĤØ§Øª
ĠUnter nehmen
æĿ ¿
áĢŃ áĢĶáĢº
ad ÉĻ
Ġdo is
à®ķà¯įà®ķ à¯ģ
c l
ÏĥÏĦÎ± ÏĥÎ·
Ġto m
à«Ģ àª°
Ġaz on
Ð» ÐµÑĤ
áĢ¯áĢ¶ áĢ¸
Ð» ÐµÐº
Ġd á»ħ
ģ áĢ«
Ġder es
Ġpar as
à´£ àµįâĢį
am aan
Ð¸Ð» Ð¾
Ġmo i
è§Ĩ è®¯
ĠT em
Ġre d
ĠØ¹ Ø±Ø¶
Ġattiv itÃł
Å ģ
åį ¡
à±ģà°² à±ĭ
à¯ģà® ªà¯į
at ies
Ġa ik
ĠÛ² Û°
Ġà¤¸à¤ķ à¤¤à¥ĩ
ĠÑģ ÑĥÐ¼
Ġann Ã©e
ĠP DF
ĠÐ¼ Ð°Ð¹
Ġh ui
Ġk Ã«
áĢ±áĢĲáĢ¬ áĢ¹áĢ
ÏĦÎ¿ Î¹
Ġda ca
Ġà®ļ à®®
Ã´ t
Ġser ies
ĠØª ÙĥÙĪÙĨ
åĪ© çĶ¨
Ã¤y tt
ĠÙħØ¯ÛĮØ±ÛĮ Øª
ÑĨÐ¸ Ð¿
ind eki
ĠM aar
Ġau g
ªà¸ ¥à¹ĩà¸Ńà¸ķ
Ġáĥłáĥ £áĥ¡
Ġos s
Â °
Ġse Ã±
ĠÑģÐ» Ð¾Ð²
Ġev ents
ÙĪ ÙĬÙĦ
ke en
Ġl Ã¶y
ŀ àµįà´ļ
ãģĺ ãĤĥ
ĠS outh
Ġ erst
à¤°à¥įà¤ ·
ĠØ¨ ÙĬ
ĠØ§ Ùı
Ġl id
Ġar asÄ±nda
Ġot ras
Äģj u
ĠØª ÙĪÙħØ§ÙĨ
© áĥĶáĥķ
ĠÑĢ Ð¾ÑģÑģ
ĠãĤ Ħ
ĠÐ¼ Ð¸ÑĢ
è´ £
åĩ ł
ĠÎķÎ»Î»Î¬ Î´Î±
Ġch iáº¿n
á ī
Ð°Ð± Ð¾Ñĩ
Ġà¦¯ à¦¾à§Ł
Ġnuev a
ĠP are
à§įà¦° à¦®
ëŀ ĳ
ĠáĥĴ áĥĲáĥķ
ĠU omo
áĥĿáĥ ĸ
Ġv iáº¿t
Ġtr iá»ĩu
ãĥ³ãĥ Ģ
ĠV al
Ġãĥ Ŀ
Ġde di
Ġknow ledge
Ġzo als
ĠÐ¿ ÑĬÑĢÐ²
ÙĪ ÙĬØ±
Ġà´¤ à´¨àµįà´¨
i Äĩ
ĠNEWPart 9
ĠP el
Ġm ill
Ġis ÉĻ
Ð¸Ñı Ñħ
ny t
Ġperio d
ĠÑĦ Ð¾ÑĤÐ¾
áĥĿáĥłáĥ ¢
Ġc and
Ð» Ð°Ð±
Ġho zz
Ïĩ Î·
Ġsam men
ÐµÑĢ Ðº
à´Ĥ à´Ĺ
Ġyap tÄ±
g lÄħ
Ø¶ Ø§ÛĮ
Îº ÏģÎ±
Ġins an
ĠÑģÐ¿Ðµ ÑĨÐ¸
ĠâĢ ¹
ĠÑĢ Ð°
Ġany thing
t ara
ĠÐ¾ Ð²Ð°
Ġà®ļà¯Ĭ à®²à¯įà®²
Ġet c
Ġsp os
Ġn atural
m Ã¤n
Î¿Î½ ÏĦÎ±ÏĤ
ç© ¶
Î¸ Ïħ
ê³ ³
ĠÎĳ ÏĢÏĮ
Ïĥ Î¯Î±ÏĤ
Ġda cÄĥ
åĽ½ äº§
ÎĹ ÎĿ
Ġáĥŀ áĥĿáĥļ
:: ::
ĠÑģ Ð¸Ð»
ï¿½ï¿½ ï¿½ï¿½
åŃ ĺ
ĠÐ¾ÑĤÐ½Ð¾ ÑĪ
ĠØ§Ø¬ØªÙħØ§Ø¹ ÛĮ
ĠÕ ¤
ĠáĥĽ áĥĵ
ul ation
ade ce
u un
Ġda u
Ġà¤¸à¤° à¤ķà¤¾à¤°
ĠØªØºÛĮ ÛĮØ±
ĠÑĩ Ð¸ÒĽ
ĠØ¨Ø±Ø® ÛĮ
Ġhad de
à¤¯ à¥ĭà¤Ĺ
pl ica
ĠSch ool
èĭ ¹æŀľ
ĠØ§ÙĦØ¹ ÙĦ
Ú©ÙĨ ÙĨØ¯
ĠS ant
ĠÐ´Ðµ ÑıÑĤÐµÐ»ÑĮ
ä½ ı
à¦¬ à¦¾à¦¦
Ġm ix
àµģà´® àµįà´ª
Ġrel ated
ĠÙħØ´ Ø®Øµ
be eld
ĠJah re
ĠÐ½ Ð¸Ð²
ÙĬØ± Ø§ÙĨ
Ġs amo
g est
Ġd ru
ªà¸ ¹à¸
Ðº Ð¸Ð¹
ëª ©
ĠØ¯ ÛĮÚ©
c am
ĠD engan
à±įà°° à±Ģ
Ġtu o
Ġf ul
ks om
Ġp ia
p io
Ġ3 6
Ġàª¥ àªĪ
ĠIs lam
ĠÏĥÏħ Î¼Î²
ĠÐ¿ÑĢÐ¾ÑĦ ÐµÑģÑģ
Û ±Û
Ġque lla
Ġc oup
Ġàªµàª¿àª ¶
g leich
Ġm ont
Ġh y
Ġn á»¯a
ut styr
Ġevery one
Ð° Ñī
Ġn un
ĠM in
Ĳ áĢļáĢ¹
ze ug
ĠæĪĳ ä»¬
ma al
æĹł çłģ
Â ¾
à«ģàª ¦
ĠÐ·Ð°Ðº Ð¾Ð½
ĠÐľ Ð°ÑĢ
ĠH ere
Ġide as
ĠÐ³ Ð¾Ð»
Ġr ych
Ġco ok
z ÃŃ
at ul
Ä± b
ĠÐ¿ÐµÑĢ ÑĪ
Ġv rij
Ġswo je
Ġrep resent
ĠáĢ»áĢķ áĢĬáĢ¹áĢ
Ġh ombre
ĠÐ²Ñģ ÐµÐ³Ð´Ð°
à¦ ı
ro du
ÙĨ Ø¹
or u
ĠdÃ© b
à¦¿à¦ Ń
Ġse hingga
×ķ×ľ ×Ļ×Ŀ
Ġvol ta
Î¹ Î²
Ġgior no
Ġãĥ ģ
Ġà®ª à®°
Õ¡Õ ®
à®° à¯ģà®®à¯į
h bet
Ġà®ħà®¤ à®¿à®ķ
it en
Ġv Ã´
ing er
ient ras
Ġpop ular
ç« ł
Ïĥ ÏĦÏĮ
am ise
ĠC ome
Î¸Îµ ÏĥÎ·
al en
d Äħ
m Å±
áĥ¡ áĥ¢
ÏĩÎµ Î¯Î±
Ġwrit ing
ãģĵãģ¨ ãģ¯
Ġch á»©ng
Ġgior ni
um us
Ġbu kan
ÑıÑĤ ÑģÑı
ing iz
à±ĩ à°°
Ú¯ Ø±Ø¯
áĢĳ áĢ²
ĠA ut
Ġpr Ã©c
Ġbr and
al ang
ãģªãģĮ ãĤī
áĥľ áĥĶáĥĳáĥĲ
ist es
Ġ @
s atz
ÙħÙĦ Ùĩ
ÛĮÙħ ÛĮ
Ġsystem s
à±Ģ à°
ĠÐ± ÐµÐ»
ĠÐ² ÑĬÑĢ
Ġà®µà¯ĩà®£à¯įà®Ł à¯ģà®®à¯į
Ġd ruh
Ġaz ien
Ġel los
Ľà¸£à¸°à¹Ģà¸ Ĺà¸
Ġol ur
Ġg Ã¢y
Ġhi Ã§
ĠÖ ²
Ġhasz nÃ¡l
Ġáĥ¥ áĥķáĥĶáĥ§
Ġtik ai
áŀ¶ áŀ
ĠØ§Ùħ Ú©Ø§ÙĨ
ĠÐ¢ Ð¾Ð²Ð°
Ġproble ms
Ġth ird
ĠÑģ Ð¾Ð´ÐµÑĢÐ¶
ĠÐ¿ÑĢÐµÐ´ Ð¿ÑĢ
à§ĩà¦ ª
äº ¿
à«ĩàª ĸ
æĴŃ æĶ¾
Î» ÏĮ
¢ à¹Ģà¸
Ġà¤ ĵ
ê² ł
Ġf ler
Ġçľ Ł
éĶ Ģ
Ä±n daki
ĠÚ¯Ø° Ø´ØªÙĩ
ĳ áĢ²
ĠÙģ Ø±Ø¯
åĳ ½
ĠN áº¿u
Ġpre p
ĠáĥĲáĥĵáĥĲáĥĽ áĥĺáĥĲáĥľ
ĠÛģ ÙĪÚº
Îķ ÎĽ
ant u
1 9
Ġpo j
Ð°Ð½ Ñĸ
à±ģà° ®
è¯ Ń
s chen
ĠÃ¶nem li
Ġune i
Ġl or
ak ing
Ķà¸ ¢à¸
nik i
ÑĪ Ð¸Ñħ
Ġho tel
Ġà°¸ à°¿à°¨
Ð¸ÑĨ Ñĭ
ĠÐ² Ð¸Ð±
Ġàªª àªĽà«Ģ
Ġres our
Ð´ Ð¶
à«ĩàª ľ
t Ãł
Ġz or
ê· ¼
Ġn ang
à¦ ¯
ç¨ ¿
Ġà°ķ à°¾à°°
Ġprote ct
ĠÑĢ ÐµÐ¼
ÐµÐ½ Ð½Ð°Ñı
Ġt es
Ø±ÛĮ ÙĤ
àª¾àª¨ à«ĭ
Ġà¦¹ à¦¾à¦¸
ĠÙĨ Ø³Ø¨
à´ ¥
z ia
Ġt iek
ĠáĥĹ áĥĳ
à®¿à®ķ à¯į
ĠcÃ³ mo
Ġet te
00 0
Ġanmeld elser
Ġfran Ã§ais
Þ ª
at Ã¼r
Ø¯Ø§ ÙĪÙĦ
ru pp
ĠÐ½ ÐµÐ²
Ð¸Ð» Ð°ÑģÑĮ
ĠØ¬ Ø§Øª
Å¯ so
ane iro
ĠA u
ĠP ÅĻ
Ġà¤ķà¤¾à¤° à¥įà¤¯
Ġsta at
Ġapplic ation
Ġc ie
h ad
áĥĿáĥļ áĥĿ
Ġnh áºŃp
Ø±ÙĬ ÙĤØ©
Ġadd ed
Î¾ Î·ÏĤ
ĠÐ³ Ð¾ÑĤÐ¾Ð²
Ġcommun ic
ĠÐ½Ð° Ðº
ãĤĬ ãģ®
Ð¸ÑĤÐµÐ» Ð½Ð¾
Ġà¸ ĸ
Ñľ Ð¸
Ġm ungkin
ĠF otos
Ġè ½
Ħà¸ ¡
az ing
×Ļ×ķ×ª ×¨
ĠÙĪÙĤ Ø§ÙĦ
áĢĬ áĢ¬
å£ °
Ġb an
an Ã§
ĠÃ¼ le
àªĤàª ļ
ÙĤÙĬ ÙĤØ©
ĠÙ¾ Ø²Ø´
Ù¾ ÛĮ
Ġpar ty
áĥĶáĥĳ áĥĸáĥĶ
åĶ ®
íĽĦ ê¸°
ĠÑģÑĩ Ð¸ÑĤ
ve m
Ġalle en
ĠÑģÐº Ð¾ÑĢ
le x
ÏĨ Ïħ
Ġog gi
ÑģÐº Ð¾Ðµ
èī¯ ãģĦ
ĠØ´ ÛĮ
à´¨àµįà´ ±
Ġvá» ±c
l ay
Ä© nh
ĠØ§Ø´ Ø§Ø±Ùĩ
ub uh
ĠáĢ¥ áĢ®áĢ¸áĢ
å¤ į
Ùħ Ø¨Ø±
Ġ ÅĻe
Ð¼ Ð°Ñģ
ĠÑĤ ÑĥÑĢ
ëĭ¤ ëĬĶ
×Ļ×ª ×Ķ
Ġà´ħ à´Ł
ĠÐ» ÑĸÐº
Ġkes k
Ð¸ÑĩÐµÑģÐº Ð°Ñı
Ġper t
ĠfÃ¶r s
ov Ã½ch
am m
ĠÎĳ ÏĢ
à®¾à®¤ à¯ģ
Ġv re
Ġà¤µà¤¾à¤² à¥ĩ
ari x
áĥ¡ áĥĲáĥ®
ĠÙĪÙĤ Øª
el m
al itÃł
ĠÐ± ÐµÐ»Ð°ÑĢ
Ġà¤¬à¤¹ à¥ģà¤¤
Ġfo ot
ĠdeÄŁ iÅŁ
ĠØ§ÙĦØ³Ø¹ÙĪØ¯ ÙĬØ©
a o
ĠØ¹ÙĦÙĬ ÙĩØ§
Ä± cÄ±
«à¸Ļ à¹īà¸²à¸
ĠÐ² Ð½Ð¸Ð¼
ĠÙĪ Ø¯
ĠØµ Ø¯
a za
Ġãĥ ī
Ġge f
Ġap resent
Ġà§¦ à§
å¹ ¶
ĠÄĳ Æ°a
iyor um
Ġt av
amb io
«à¸£à¸ ·à¸Ń
ĠÙĪØ§ÙĤ Ø¹
Ġà¹Ģà¸ ĩà¸´à¸Ļà¸
Ð¾Ð³ Ð¾Ð²Ð¾ÑĢ
ĠÐ¿ Ð¾Ð¶
Ġh ost
Ġext ra
Ø§ÙĦ ØŃ
ØªÙħ Ø¹
ĠÕ º
Ġà¦ķà¦° à¦¾à¦°
ĠMatrimoni ale
Ġw idth
Ġv ic
Ġzw ischen
ê¸ Ģ
ĠØ² ÙĬ
ĠÑģÐ² Ð¾ÑĹ
Ã´ m
à´°àµįâĢį à´ķàµįà´ķ
ot Ã«
em ble
Ġso on
Ġol mak
ĠM á»Ļt
et en
ãĥ¥ ãĥ¼
Ġm unk
Ġben ar
it ud
uj emy
Ġal most
Ġor a
áģ ģáģ
ĠÎ» Î¯
Û ²
ĠÐ² Ð°Ð¶
à±ĭ à°ľ
Ġz bek
Ġpe w
Ġu omo
ĠÎ¹ ÏĥÏĦÎ¿
ĠÛĮ Ø§Ø¯
Ġsc ar
ä¹ °
Ġve h
ÐµÑĢ Ñģ
Ġw ays
à¤¸ à¥įà¤¥
g etto
ĠÐ³ÑĢ Ð¾Ð¼
ìĺ ¨
ãĥ¡ ãĥ³ãĥĪ
ĠgÃ¼ ven
Ġin iti
Õ ¤
áĢĲáĢ½ áĢ±
Îº Î¿Ïį
à¤¾à¤Ĥ à¤Ĺ
ÛĮÚ© ÛĮ
Ġfal se
×Ļ×ŀ ×Ķ
ÅĤ as
Ġà°° à±Ĩ
Ľ áĢ½
ied y
Ð°ÑĨÑĸ Ñı
am t
ĠÐļ ÑĥÐ¿Ð¸ÑĤÑĮ
Ġag æĹĹèĪ°åİħ
am bre
Ġold u
Ð½Ð°Ðº Ð¾Ð¼
Î®Î¼Îµ ÏģÎ±
Ġê° Ħ
Ġ×ľ×Ĳ ×Ĺ×¨
ast ÄĻp
Ġà¦ªà§įà¦° à¦§à¦¾à¦¨
is ce
ĠÄį as
Îµ Î´
ĠÑģ Ð¿ÑĢÐ°Ð²
å¢ ĥ
Ä« ga
k ommen
ÉĻ ll
Ġnew s
ĠÃ© n
Ø² Ùĩ
Ġ×ĵ ×ĳ×¨
Ġà¦Ń à¦¾à¦°
ĠáĢ±áĢ ķ
Ġ×Ĺ ×Ļ
Ð» Ð¸Ð½
Ġg an
æĶ¿ åºľ
Ø¸ Ø§Ùħ
áº£ y
Ġrep r
ë©´ ìĦľ
á» ħn
à¥ĭà¤Ĥ à¤¨à¥ĩ
Ã¤e v
ìķĦê°Ģ ìĶ¨
ĠÎ² Î¬
Ġk iá»ĩn
Ø³ Ùĥ
Ġver z
main an
ŀà¸ ·à¹Īà¸Ńà¸
Ġà® ¸
ĠàªĨ àªľ
Ġcal idad
è¡ ĵ
Ã¤ re
Ø¯ÙĬ Ø«
ÏĢ Î¹Ïĥ
Õ¸ ÖĢÕ
Ġol ika
ĲáĢ¼ áĢĦáĢ¹
ÛĮØ´ Ùĩ
ĠÑĸÐ½ ÑĦÐ¾ÑĢÐ¼
×ķ×¨ ×Ļ
Ġ×ĳ ×Ļ
Ð°Ð½ Ð½Ñĸ
Ġ à¸Ļà¸
ĠÐ¿ÑĢÐµÐ´ Ð»Ð¾Ð¶
Ä±r Ä±m
ĠiÃ§ er
Ġà¤¸à¤® à¤¯
ĠØ¬ Ø²
ĠÚ©ÛĮÙģ ÛĮØª
ĠÙħ Ø§Ø´
Ġchi ar
×¤ ×Ļ×Ŀ
Î® Î½
l at
Ġdies es
ÙĪÛĮ Ø³
áĢ ĵ
Ġë Ī
Ġfl oor
ĠÙĤ Ø§Ø¨ÙĦ
Ġqual quer
Ø§Ø ¤
j Ã¼k
ÙĪ Ø³Øª
Ñĭ Ð½
Ø§Øª Ùĩ
ĠÎ¼ Î·Î½
áĢ±áĢĢ áĢ¬áĢĦáĢ¹áĢ¸
Ø¬ Ø§
Ġãģ Ķ
Ġà¸ ķà¸
ĵ °
ĠDies e
im bang
Ġf all
ĠáĥĲáĥł áĥĲ
h je
Ġag e
Ġgel en
Â «
ier b
æľ ¨
Ġ×ķ ×ł
Ġà®ī à®£
Ġblo g
ìķ ł
Ġpar Ã«
o ly
as es
à§ĭ à¦¸
áĥļ áĥĺ
ĠD aar
do b
ÛĶ ÛĶ
ĠÐ´ ÐµÑĢ
ÐµÐ½ Ñģ
ë¡ ¯
ĠÎºÎ± Î½
ĠáĢ ¦
Ġà°® à±Ĭ
leÅŁ tir
Ð½ Ð³
ĠMal aysia
Ã¡ ct
Ġdi ÄŁer
è Ĺ
ĠÐ²Ñĭ Ð±Ð¾ÑĢ
Ġ×©×ľ ×Ĳ
ĠA v
ĠÐł Ð¤
led i
v gr
ach ing
ÏĢÎ· ÏģÎµ
Ġg ames
ag ens
ÑıÐ± ÑĢÑı
Îº Î¿Î»
ĠÎļ Ïħ
Ġáĥ¡ áĥ¬
ĠÐ° ÐºÐ¾
id agi
à®¾à®± à¯įà®±
ãģ¨ ãĤĤ
Ġë¬ ¼
à¤ ģ
à¤°à¥įà¤ Ł
Ġt Ã©
à´ķàµįà´ ¤
r er
ĠÃ© p
ÙĪØ¯ Ùĩ
Ġm ond
Ġpos ition
ĠN ational
ĠÐ±Ñŀ Ð»Ð¸
Ġb ou
ÐµÐº ÑģÑĤ
à®µ à¯ģ
ĠáĢ±áĢ ¡
×ĳ×¨ ×Ķ
Ð¾Ð± ÑĢÐ°Ð·
Ġa ÄŁ
ĠpÅĻ e
ing ga
ĠÙĪØ§ÙĦ ØŃ
à¤¨ à¥ĭà¤Ĥ
Ġt iÃªn
Ġà°µ à°¾à°°
Ġng uyÃªn
et a
Ġya itu
Ġà°ļà±Ĩ à°ªà±įà°ª
à°¡ à±įà°¡
Ġà®¤ à®©
×ķ×ľ ×Ļ
éķ ĩ
Ïĥ Î¿ÏħÎ¼Îµ
à¤µ à¤¾
z ahl
Ġce i
ĠÐºÐ¾ÑĤÐ¾ÑĢ Ð°Ñı
Ġc rit
Ġl iv
Ġalt res
Ġcre ated
ar ii
Ïģ ÏīÎ½
Ġà¤¸ à¥įà¤Ł
ĠÙĪÙĩ ÙĬ
à¸Ńà¸¢à¹Īà¸²à¸ ĩà¸
Ġì¶ľìŀ¥ ìĥµ
áģ ¤
ĠÐ¿ÑĢ Ð¸Ð¹
áĥª áĥĲ
Î»Î¯ Î¿Ïħ
Ġs elf
Ġl ung
Ġ( '
ĠÙĪØ§ÙĦ Ø¥
ĠÙģØ± Ùħ
ĠÐ° Ð¿
ĠS ta
ĠØ¯Ø§Ø± Ø§ÛĮ
Ð°ÑĤÐµÐ» ÐµÐ¹
ig hed
áĢĲáĢ¼ áĢĦáĢ¹áĢ¸
ĠáĥĲáĥłáĥ ¡
Ġd ate
Î¯Î½ ÎµÏĦÎ±Î¹
Ġb Å«t
Ġpart icol
ĠM us
ĠÐ´ÑĢÑĥÐ³ Ð¸Ñħ
uss ures
Ġê²½ ìļ°
¸ è¿Ĳ
Ð»Ð¸ Ð³Ð¸
áĥĲáĥ® áĥĶáĥĳ
Ġs istema
wa Äĩ
Ġà¦¹ à¦ļ
ĠÎµ Î³
ĠÎºÎ¬ ÏĢÎ¿
Ġg ond
em p
ĠØ¨Ûģ Øª
Ġp aper
ty w
ang ka
Ġdel iver
áĢŃ áĢĲáĢº
ÑģÑĤ ÑĢÐ¾
Ġfaci l
íĻ ©
Ġh in
Ġpossi bile
áĥ® áĥĽ
Ġsz olg
ĠM inh
ÉĻl um
ê² °
Ġby lo
ĠÙĬ Ùı
ĠÑģ ÑĥÑīÐµÑģÑĤÐ²
Ġhor as
Ġs Ä©
ĠÐ¼ Ð¼
à´¤ àµįà´°
³ à¸Ļà¸
Ġt Æ°á»£ng
Å¡ t
Ġl Ã¸
ģà¸²à¸£ à¹Ģà¸
mit tel
Ġà¦Ĩ à¦ľ
Ġ×¢ ×ķ×ĵ
Ġpod em
ĠÎºÎ±Î¸ ÏİÏĤ
Ġsp el
ĠÏĮ ÏĦÎ±Î½
ĠØ§ÙģØ± Ø§Ø¯
áĥ£áĥ ĳ
Ġro ad
Ġcon se
ĠÑģÐ°Ð¹ ÑĤÐµ
Ð°Ð» Ð½Ð¸
Ġr ate
ÑĥÐ´ Ð°
ĠCatal unya
ĠÐ² Ð¾Ñģ
Ġdi á»ħn
ĠÎ³ Î½Ïī
Ġm um
f Ã¸r
Ġä¸ ľ
unt os
ĠÐ´ ÑĸÑı
Ñı Ð»
ĠãĤ °
Ã©c n
à«ĩàªŁ àª²
Ñĸ Ð»Ñı
Ġz ou
ĠÑĤ Ð°Ð·Ð¸
k Ã©
Äħ d
x im
3 8
Ġhe ight
ÙĩâĢĮ ÙĩØ§
Ã¡v a
Ġcli ents
çħ §
Ġ î
ë ¨
×ķ×¨ ×ª
Ġáĥ¬ áĥĺáĥľ
Ġw al
Ã¡ Å¾
un s
ĠÎ² Î±
áĢľ áĢ¯áĢķáĢº
Ġà¦Ĩà¦® à¦¾à¦¦à§ĩà¦°
×ĺ ×Ļ
ĠFeme i
Ġg lo
ĠÎĶÎ· Î¼Î¿
Ġsebel um
ĠáĥĽ áĥĲáĥľ
Ġ Ã¶r
Ġd Ä±ÅŁ
Ġ×ª ×§
Ġmed io
Ġp ov
ĠÐ²Ñĭ Ðº
Ġimp act
Ġvl ast
Ġreg ard
æĬĢ æľ¯
äºº ãģ®
ĠØ´ ÛĮØ±
ģ áĢ¯
v Ã¤r
Ġàª² àª¾àªĹ
Ġh jÃ¤l
Ġber eits
Ö ¹
Ġt w
ĠH is
Ġc ur
Ġdi per
Ġpag g
ĠD ette
Ġb á»ı
en ces
d Ã¶
Ġg ur
ĠÄĮ esk
y ong
Ġvy s
ĠÎ± ÏĨ
is kt
Ġ Ïİ
ãĥ© ãĥ¼
Ġph one
Ñħ ÑĢÐ°Ð½
Ġkh iáº¿n
Ġå¥ ½
±áĢ ¡
é¡ ŀ
ici al
Ġlike ly
ĠÙĨÙĤ Ø´
Ã¡l Ã³
Ġv ille
ÉĻd ÉĻn
ÑĨÐ¸ ÑĺÐ°ÑĤÐ°
ĠØª ÙĦÙĥ
Ġà¤²à¥ĭà¤Ĺ à¥ĭà¤Ĥ
Ġman ufact
Ġdis e
ÑĪ Ð¸
é Ł³
äºº æ°ĳ
Ð» ÑĸÐ´
Ġà¦ĩ à¦ī
nym i
u ak
ĠØ§Ø «
Ġè ¾
çµ Ĥ
Ø² ÛĮÙĨÙĩ
ĠÐĶ Ð¶
ĠáĥĶ áĥĻ
ãģª ãģ®ãģ§
ÑĮ Ðµ
at ic
Ġvá» ĩ
ĠÎ£ Î¥
ĠÑģ ÐµÐ³Ð¾Ð´Ð½Ñı
ĠÐ¿Ð¾Ð´ Ð´ÐµÑĢÐ¶
à¥ĭ à¤°
·à¹Ī à¸Ńà¸ĩ
Ġà®Ĩ à®ķ
ĠÎ¿ Î¼Î¬
Ð°Ð» Ðµ
à®¾à®¯ à¯į
Ġè ª
Ġà´ ķàµįà´ķ
èī ĩ
Î¶ Î¯
Î³ Î·
ĠcÄĥ n
ĠNh á»¯ng
áĥĲáĥļ áĥ£áĥł
Å«s u
em mes
Ġb Ã³ng
g ent
de j
Ġàª¸àª® àª¯
Ð¸Ð¼ Ð¾ÑģÑĤÐ¸
Ġà¦ªà¦° à¦¿à¦¬
Ġstr on
Ø¨ ÛĮÙĨ
ĠØ£ Ø®Ø±Ùī
ĠÐºÐ¾ÑĤÐ¾ÑĢ ÑĭÑħ
ĠÐ´ Ð¾ÑģÑĤÐ°Ð²
ç± ³
æĥ ł
Ġread y
ĠÚ©Ùħ Ú©
áĥ®áĥĿáĥķ áĥł
à§įà¦¯ à¦®
áĢĽ áĢĦáĢ¹
ar Ã«
ĠíĨ ł
Ġmuk aan
è¾ ¹
ĠÑģ Ð¾Ð³
àµģà´ķ à´³àµįâĢį
Ġdon na
âĢ¦âĢ¦ âĢ¦âĢ¦
Ġtá» ·
Ïħ Ïĩ
ĠÐ´ÐµÑĤ ÐµÐ¹
Ġk us
f aat
ãģĦ ãģĨ
å®ī åħ¨
Ġa tiv
ĠÐŁÑĢ ÐµÐ´
ÙĤ Ø§ÙĦ
on om
ĠBel ed
Ġund e
Ġk iáº¿n
à¤µ à¤¾à¤°
à±ĭ à°Ĺ
ĠÄĳá» ©
Ġdu y
à´¤àµįà´¤ à´¿à´¯
èģ ŀ
Ġch ung
ï¼ ķ
à®¿à®¯ à¯ģà®®à¯į
à¹Īà¸²à¸ ¢à¸
Ġdetail s
à±ĩà° Ł
Īà¸£à¸´à¸ ĩ
ĠÐ¾Ð±ÐµÑģÐ¿ ÐµÑĩ
áĢĻáĢ» áĢ¬áĢ¸
Ø¬ ÙĨ
il o
U E
áĥĺáĥ ®
ĠØ¨Ø§ÙĨ Ú©
à® ŀà¯įà®ļ
ĠdÃ© velopp
_ c
Ġst or
ĠNor th
Î´ ÎµÎ¹
ĠÙ¾Ø± Ø³
ĠãĢĳãĢĲ ï¼
Ġay n
Ð½Ð°Ðº Ð¾
Ġà®µà®¾à® ´
Ã¼n de
Ð°Ð» Ð¾ÑģÑĮ
è²¸ æ¬¾
èį ī
à§ĭ à¦§
Ġàª¦ à«įàªµ
Ġà¦¨à¦¿ à¦°à§įà¦¬
Ġà«§ à«
Ġà¤¤à¤° à¤¹
ãĤģ ãĤĭ
Ġà¨ ¦
ĠK unden
Ġtak en
çº ¢
Ð»Ð°ÑĢ Ð½Ð¸Ð½Ð³
ĠÐ²Ðº Ð»ÑİÑĩ
ue il
ĠMe hr
Ġbo x
Ġrag az
Ġ×ĳ ×ľ
Ð¸Ð»Ð¸ ÑģÑĮ
Ð¸ Ñĳ
ĠéĤ £
Ġsignific ant
ãģĤ ãģ£ãģŁ
Ġrec ens
ĠFr om
ĠP rze
Ġman a
p Ã«r
ÐµÐ· Ð¿
Ġo ll
ĠCom ment
ĠÐ¼ Ð¾Ð¼
ĠrÃ© alis
áĢħ áģ¥
á»¯ u
ĠØ§ ÙĤØ¯
Ġiss ue
Ġper k
Ġg ente
Ġfor ward
Å¼ a
Ġà¦¸ à§ģ
ãĥķ ãĥĪ
Ġà®¨ à®¾à®©à¯į
Ð°Ð²Ð° ÑĨÑĮ
ØªØ¨ Ø§Ø·
Ġmum kin
ad Ã¡s
áĢ¯áĢŃ áĢĢáĢ¹áĢ
æĹ© é¤Ĳ
Ġp k
Ø§ÙĦ Ùī
ĠÃ© let
Ġnghiá»ĩ m
Ġno get
Ġæ į
à¯ģà®ķà¯įà®ķ à¯ģà®®à¯į
Ġlear ning
ĠÑģ Ð¸ÑĤÐµ
Ġl á»£i
Ġç Ĵ
ĠØ§ ÙĬ
ĠÐ¿ÑĢ ÐµÐ¿
ĠìĬ ¬
æľ ª
ĠpÃ«r f
Ġà´ķ à´¾à´°
nik Ã³w
Ġsim ilar
ĠT op
ie go
ÅŁ Ä±
åħ ´
àª¿ àª®
Îº ÎŃ
ĠÐĴ ÑĸÐ´
Ġ×ľ×Ķ ×Ļ×ķ×ª
Ðº Ð°Ð·
Ġtem pat
Ġsec ondo
Ġas soci
à¦°à§įà¦ £
ĠC Ã³
ç§ ģ
Ġ×ķ ×Ĺ
ĠØ¨ ÚĨ
res h
Ġh owever
ĠØ§ÙĦ ÙĪØ²
Ġm iss
n ot
ĠØªØ¹Ø¯ Ø§Ø¯
ti f
Ġrecher che
ê² ĥ
ĠÛģÙĪ Ø§
Ø±ÙĬ Ùħ
Ġà°® à°¾à°°
áĥĲáĥļáĥĺ áĥĲáĥľ
Ġà¸ŀ à¸Ļà¸
à¸£à¸ ¹
Ĺà¸ ±à¹īà¸ĩà¸
Ġsed an
ĠÎ½ Îµ
Ġindivid ual
ĠØ§ÛĮÙĨ ØªØ±
ĠØ¢ Ø³ÛĮ
Ġh ol
Ġho a
ien ce
Ġe f
Ġbl ij
ĠØ´ Ú©
ë³´ ìŀ¥
Ä¾ ad
Î Ĵ
· °
Ġt jet
ĠØªÙĨ ÙĩØ§
ĠÂ ¨
ĠÏĦ ÏģÏĮ
Ġf iyat
Ð¾Ð² Ð°Ñı
Ġkw amba
ÐµÑĢ Ñħ
Ġl Ã²ng
iz aciÃ³n
ç« ŀ
ĠE usk
Ã¹ a
ÐµÐ½ Ðµ
us es
ãģ§ ãģ®
Ġnaw et
ĠÑŀ ÑĢ
iye v
Ð»Ð°ÑĢ Ð¸Ð½Ð¸
âĢ Ļ
ë¥ ĺ
ĠÙĩÙħ Ø§ÙĨ
ot ies
Ġbizt os
Ġme in
áĢ¯áĢŃ áĢĦáĢ¹áĢ¸
Ġç ģ
ĠæĹ ¶
ÏĦ ÎµÎ¹
Å¡ enÃŃ
Ġins p
ëª¨ íħĶ
Ð´ Ð¸ÑĢ
m b
Ã¶ ve
à¦¤ à§įà¦°
Ġv ind
an an
Ġe ben
· à«įàªŁ
ĠB Äĥr
olo gi
Ø³ÙĦ Ø³ÙĦ
ä½¿ çĶ¨
Īà¸±à¸ Ķà¸
Ġl li
Ãª ng
ĠH ier
Ġ×Ļ ×¦
Ġby ÅĤ
à°¿à° ²à±ĭ
Å¡ en
Ġs icher
Ġl im
Î¾ ÎµÎ¹
Øµ ÛĮ
ĠR a
Ð¼ Ð¾Ð½
ĠáĥĽáĥĹ áĥĲáĥķ
Ġk Ã½
ãģ¾ ãĤĬ
Ġf lere
Ġest as
Î» Î¹Î±
Ġc m
ĠR io
Ġu cz
k iem
ĠÐľ Ð¸Ð½
à§Ģ à¦¦à§ĩà¦°
Ġè¦ ģ
à°° à±įâĢĮ
ãģ» ãģ©
Ġc ambi
Ġcos as
Ġà¹Ģà¸ Ħà¸£à¸Ķà¸´à¸ķ
ĠÛ ¶
ĠÄĳá» §
åĢ ¤
Ł áĢ¬
ĠØ´ Ø®Øµ
Ð°Ð´ Ñĭ
ĠÃ§ ocuk
Ġà°® à°¨
il es
p rav
ĠSe c
ĠáĢ¡áĢ² áĢĴáĢ®
Ġder ni
ĠÙ¾Ø§ÛĮ Ø§ÙĨ
å¤ĩ çĶ¨
Ġprofess ionn
Ġz ir
Ġk ab
ãĥĨ ãĥ«
èŃ ·
ãĥ³ãĤ ·
Ġà¤¦ à¤¿à¤²
en cias
ÅĽ wiet
ĠÚ© ÚĨÚ¾
ĠÕ £
ģà¸ ±à¸Ļà¸
ĠÏĩÏģÏĮ Î½Î¹Î±
r or
ĠÎ±Î½ ÏĦÎ¯
Ġp an
Ġé Ĺ
Ġgi Ã¡o
Ġsec urity
Ġper quÃ¨
ÏĥÎµ ÏĦÎµ
ĠÙģØ§Ø± Ø³ÛĮ
à¤ķ à¤¿
Ġus ers
åĨ ł
Z ION
tt y
ip ment
Ġl lo
l Ã¦g
ĠÐ±ÑĥÐ´ Ðµ
ãĤ¤ ãĥ³ãĥĪ
Ġhab ÃŃa
Ð°ÑĨÑĸ Ð¹
à¸Ńà¸ Ķ
ĠÐ½Ñı Ðº
ĠÎ´ ÏħÎ½Î±
Ġdil akukan
Ġg Ã¼zel
ĠÙħÙĨ ÙĩØ§
ĠIn i
Ġcons um
áĢ±áĢ¬áĢĦáĢº áĢ¸
aÅŁ tÄ±r
Å¡ Ä·
Ġä» İ
ÎĻÎļ ÎĹ
uer do
Ġm inha
ikt ig
Ġ×ķ ×ª
Ãº m
me z
Ġz ile
Ġme e
Ġplus ieurs
ĠM eg
it ions
×ķ×¦ ×Ķ
ãĤī ãĤĮ
æķĻ èĤ²
ĠÐ¢ Ð¾
Ġsub ject
Ġhaz Ä±r
à«ģ àª¨
Ġà¦¸ à§įà¦¥
z w
i O
Ä Į
ĠÐ²Ñģ ÐµÐ¼
L AR
ĠÑģÑĬ Ð¼
Ġchang es
te ko
¯ à§
Ä«b Äģ
áĥĲáĥłáĥĹ áĥļ
il ib
Ùĩ ÙĲ
à¦Ń à¦¾à¦¬à§ĩ
Ð¾ÑĢ Ð¸Ñı
Ð¾Ñĩ ÐºÐ¸
áĢĬ áĢ·
Ġad il
ä¸ĸ çķĮ
Ġà®ķ à®Łà¯įà®Ł
ìĤ° ì¶ľìŀ¥
æ¹ ĸ
à¤Ĥà¤¤ à¥įà¤°à¥Ģ
ÑıÐ² Ð°Ð½Ðµ
ĠÄį i
abilir siniz
Ãĩ ÃĥO
æ ¿
os p
Ġd ic
ĠÎ¬ Î»Î»
ÛĮØ² ÛĮ
Ġ×ĳ×ŀ× §
er ing
Î¼Î¹ Î¿ÏħÏģÎ³
ï¼ Ī
ĠN gh
Ġb esz
å° ¼
Ġqu ale
ĠV Äĥn
ÎµÎ¹ ÏĦÎ¿ÏħÏģÎ³
Ġáĥ¨áĥĶáĥ¡ áĥĲáĥ®áĥĶáĥĳ
Ġs endo
ah n
Ð¾Ð»Ð½ Ð¸ÑĤÐµÐ»ÑĮ
ĠÑŀ Ñģ
Ġda bei
Ġé ĸ
æľ Ľ
ĠP rzy
Ġv ya
Ġn od
amp il
Ġr ak
m l
à®¿à®² à¯ģà®®à¯į
ĠÑĦ Ð¸Ð½
Ġfin al
t at
Ġequ ipo
éĮ ²
Ġg ennem
Ġtr ze
à±ĭ à°¯
ĠØ¢Ø² Ø§Ø¯
×¤ ×Ķ
ĠØ§Ø± ØªØ¨Ø§Ø·
é» Ħ
Ġà¤¬ à¤¤
Ġqu and
Ġt inh
Ġà¦Ĩ à¦¹
ľà¸¹ à¹ī
Ġdef in
Ġf ail
×§ ×¨
al q
Ġà¦ı à¦ĸà¦¨
ĠV Ã½
u bb
Ġcomp r
ol esc
é¢ ¨
ĠN uev
ad Ã³
Ø¶ Ø±
ĠB uch
· à¹īà¸Ń
Ã¤m Ã¤n
Ġà°ħ à°¨à±įà°¨
Ġè ¥¿
Ġàª°à«Ģàª¤ à«ĩ
áĢħ áĢ¯
ÅĤa w
Ñĺ Ð°Ð²
Ġpag k
Ġe ÅŁ
ãģ£ãģ¦ ãĤĤ
Ġà¦¦ à¦²
Ġp end
ĠØ¯Ø± ØµØ¯
Ð ¦
le gen
Ġà¤® à¥Į
Ġdell o
Ġà¤ķ à¤¾à¤®
Ġsp ra
s al
Ġà¦Ń à¦¾à¦²
ÄĽ k
ĠÐ± Ð°Ð³
o is
ĠÆı l
ĠX xx
un cios
ĠÐ¸ Ð´
Ġinter es
ĠáĥĽ áĥĲáĥĺ
ä» ½
Ġe zt
Ġáĥ¨ áĥĶáĥĵ
ëĵ¤ ìĿĺ
ĠÄĳ Äĥng
à¸´ à¸Ļ
Ġà´ķ àµģà´±
Ġpk 10
O U
Ġíķĺ ëĬĶ
Ġle i
Ġag ar
ong an
Øº Ùħ
à´± àµĨ
lad Ä±
A M
ĠT P
ª à¸´à¸
p ont
u ai
Ġag å¹³åı°
Ùĩ ÙĦ
ĠS ol
ĠgÃ¶r Ã¼n
ĠÐ¡ Ð¾
ende le
ĠÄĳ a
© ëĭĪëĭ¤
Ġr ah
Ġest at
ĠØ² Ø¨Ø§ÙĨ
à°¤ à°¿
ĠE L
æ® µ
ille t
Ġc et
Ġrece ive
ãģ¡ãĤĥ ãĤĵ
ĠÙħØ¹ Ùħ
à¤Ĥ à¤ª
ĠåĲ Į
Ġnov o
il ai
Ġë¨ ¹
Ġszcz eg
Ġsto re
Ġc ukup
Ġáĥĺáĥľ áĥ¤
Ġg Ã¥r
ÑĬÐ» Ð½
áĥĵ áĥĺ
ya ge
Ġàªľ àª¾àª£
av n
Ð½Ð¸Ñı ÑĤ
Ġdat os
ĠíĶ ¼
ĠĈ ć
z enia
à§Ģ à¦¤
ĠÐ³Ð¾Ð´ Ð¸Ð½Ð¸
Ġin om
ĠãĢĤ ãĢĤ
×Ļ×ª ×Ļ
Ġp Ã¤r
Ġesta bl
ĠV y
h ar
å¥ ĩ
ĠÑĢÐ°Ð· Ð¼ÐµÑĢ
Ġj ual
u o
ĠÎŃ Îº
ĠÄ ¼
f on
ŀ áĢ¼áĢ¬áĢ¸áĢ
Ġb ad
Ġst ruct
Ġt imbang
Ġb ur
Ġà´ļàµĨà´¯ àµįà´¤
ĠÑģ ÐµÐº
Ġæ ı
åķ ª
Ġà¦° à¦¾à¦ĸ
Ġàª Ŀ
it za
áĥĿáĥļ áĥĿáĥĵ
Z H
Î½ Ïİ
im entos
Ġlle g
Ñĳ Ð½
Ġdau dz
à¥įà¤¯ à¥ĭà¤Ĥ
Ġc ours
Ġk Ã¸
ìĽ Į
ĠÐ½ Ð¾ÑĢÐ¼
Ġtá»« ng
è¼ ī
Ġmah do
Ġãĥ Ĩ
Ġthrough out
Ġincre ase
à´¨àµįà´ §
Ġpod le
ĠÐ²Ð¾Ð· Ð´
Ġz v
am in
áĢ±áĢ ĺ
Ùİ Ø¨
ĠÛ ±
Ġl if
Ø¶ Ø§ÙģØ©
ÑĬÑĢ Ð·
à¦¿à¦ ĵ
c ciones
ŀ à¸´à¸
Ġàª° à«Ĥ
à¤° à¤£
Ã¶ m
ë³ µ
ÙĢÙĢÙĢÙĢ ÙĢÙĢÙĢÙĢ
Ġalg um
Ġw aren
ĠÚ© Ø§ÙħÙĦ
à¯ģà®³à¯įà®³ à®¤à¯ģ
Ùİ Ø©
è¶ Ĭ
è» ¢
ka z
Ġar v
ĠÑĢÑĥÐ± Ð»ÐµÐ¹
Ġave z
Ġpen s
ĠàªĨàªµ à«ĩ
ÙĪØ¯ ÛĮ
Ġo il
ĠB eit
Ġv iv
à°Ĥà°¦ à±įà°°
æ ½
ĠA ber
own ik
à°¿à°Ĥà°ļ à°¿
ĠÑĢÐ°Ñģ ÑģÐº
ì» ¤
ä¸ ¾
Ġesta ble
ĠÙĦ Ø¨
è¿ Ķ
ÛĮØ´ ÙĨ
à¤ķ à¥įà¤Ł
Ġs ue
Ġlas sen
am il
ak ai
ĠÐ¼ Ð°ÑĶ
Ġol acak
ç Ł³
Ġë ĳĲ
um lah
Ġbirlik te
à«ģàªľ àª°àª¾àª¤
áĢ±áĢ ĳ
v Ã¡n
ãģ« åħ¥
Ġt x
ro b
à¥ĩ à¤¤
e in
à°® à±Ĩ
ab or
Ð½Ð¾ÑģÑĤ ÑĤÐ°
é» ĳ
et y
ĠØ¯ ÙĦÛĮÙĦ
ëĭ ¬
ĠÑĤ Ð¸Ð¿
ÙĤ ÙĪÙĦ
d ÄĽl
Ġj Ã¤r
Ġt Ãªn
Ø§Ùĩ Ø±Ø©
Ġam or
Ã¡ll al
Ġte xt
Ñģ Ð¸
ĠArtik el
áĢĬ áĢ®
Ġb Ã«r
Ġson u
à¤¾à¤Ĥ à¤¨à¤¾
Ġp otre
áĢ±áĢ Ĳ
ĠáĥĵáĥĲáĥ Ļ
ĠNh Ãł
Ġnas Ä±l
à¤¾à¤ ³
Ġmak s
j Ãł
ĠÐ½Ð°Ð» Ð¸Ñĩ
Ġå §
ĠÄĳ Ã¡
Ø¹ ÙĬ
d el
ãĤı ãģĽ
at akan
à¦¿à¦ Ĺ
åº ·
· à¹īà¸Ńà¸
Ġloc ated
Ġja u
pr Ã©s
Ġmá» Ĺi
ãĥ¼ãĥ ŀ
ķ à¹Īà¸²à¸
ç»ı æµİ
Ġæ¬ §ç¾İ
áĢĦáĢ¹áĢ ľ
ĠØ´ Ûģ
ĠJ ika
Ġì¶ ©
Ġhe lt
Ġfinan cial
Ġy at
ÏģÎ¯ ÎµÏĤ
sk ich
ĠA cc
à¦¿à¦¨ à§įà¦¨
Ġgratu it
w ir
Ġ- -
æŃ ©
Ġus ually
ia u
Ġà¦® à¦¾à¦°
Ġáĥ¡ áĥĲáĥĵ
Ġd ati
Î±Ïĥ Î¯Î±
Ñı Ð³
Ġdit u
ĠfÃ¸l ger
Ķ à¸²à¸
Äĵj a
Ġart icle
Ġwur den
Ù¹ Ú¾
ãĤ¿ ãĥ¼
Ã©m u
ĠÐ²Ð½ ÑĥÑĤ
Ġposs ono
Ġa w
Ġà´ £
Ð¾Ð¿ Ð°Ñģ
áĥĿáĥĳ áĥĲáĥ¡
Ġm ateix
ĠB ud
ĠÐ² ÐµÑģ
ĠÑĢ Ð°ÑģÑĤ
Ã©rie ur
ĠØ§ÙĦØ±ÙĬ Ø§Ø¶
Ġf ilm
ijk en
è ķ
Ġn ale
Ġ/ /
à¤¾à¤¤ à¥įà¤°
ic ult
Ġ ÃŃr
Ġsu ur
um iem
Ġbag ian
Ġmel alui
Ġsk in
ĠÐ¿ Ð¾ÑģÑĤÐ°Ð²
Ġb ank
j Ã¸
ĠÐ» Ð¸Ñĩ
Ïĥ Î¼Î±
Ġav ons
Ġa go
urs os
Ã§ i
Ġn r
Ġwo od
Îº ÎµÎ¹
ĠØ§ Ú©
Ġla k
Ġj ro
ara q
×Ļ×ª ×Ł
u ed
ĠÑĥ ÑģÐ¿
å¤ļ ãģĦ
ĠÄ° s
à°¾à°¤ à±įà°°
à¦¾à¦ ¡
Ġ3 9
Å¥ a
ĠvÃµ ib
ĠÐ´Ð°Ð² Ð»Ð°ÑĤ
om en
¡ ng
lÉĻ ÅŁ
ĠtÉĻr ÉĻf
b ol
à°¿à°Ĥà° ¦
Ġmod el
Ġà¦¦ à¦¿à§Łà§ĩ
Äį en
ÙĪ Ø«
åĨ ľ
×¨×Ĳ ×Ķ
ĠØ§ÙĦÙģ ÙĦ
èģ ·
zÄħ dz
ĠØ¬Ùħ Ùĩ
ä»ĺ ãģį
Ð¸Ð» Ð¾ÑģÑĮ
Ä±z Ä±
ĠÐ» Ð¸Ð±Ð¾
Äį nÄĽ
ĠÐ² ÐµÑī
Ġer ed
×Ļ×Ķ ×Ŀ
ĠÙħÙĪ Ø§Ø¯
åł Ĥ
à±ģà° Ĺà°¾
Ġhier die
ĠÐ²ÑĢÐµÐ¼ ÐµÐ½Ð¸
ĠM ujer
à¸£ à¹Įà¸
Ġto ts
Ġà¦Ĩà¦® à¦°à¦¾
¹ ä»ĭ
Ġen v
Ð°Ð»ÑĮ Ð½Ñĸ
ĠÙħØª ÙĨ
Ġste p
Ġc á»Ńa
Ġprev ious
×Ľ ×ª
è¯ »
Ġà¤ľ à¥Ī
ÑĥÐ» ÑĤ
¼ åħ¥
br and
Ġb Ã©
Ġqual itÃ©
ĠÙģ Ø§ÛĮÙĦ
r Äģ
ĠvÃŃ ce
Ġë £
à¯įà® ¨
Ġìĺ¨ ëĿ¼ìĿ¸
å® ¤
Ġzu en
Â ¢
Ġim age
à¤¸ à¥įà¤Ł
ĠÛ ¹Û
ĠÛģ Ø±
à¶ »
ĠktÃ³ ra
ĠÚ¯ Ø¦ÛĴ
Î½Î¿ Î´Î¿
Ġver k
ĠÙĨ ÙĪØ±
Ġcom ing
ĠÙĦ ÙĬØ³
Ġà¸ Ĺà¸µà¹Ī
Ġver dad
Ð½ ÐµÐ¼
Ðł ÑĶ
Ġà¤¹à¥ģà¤ Ĩ
kan a
ĠÑı Ð³Ð¾
Ø§Ùģ ÛĮ
ovÃ© ho
Ġtrad ition
Ġopportun ity
á ĭ
×ĵ ×ķ×ª
ut ako
an Ã§as
Ġà°¸à°¿à°¨ à°¿à°®
il u
ĠN agy
à°Ĥà°Ł à±ĩ
Î½ ÏĮ
ĠM ed
Ð¸ÑĢ Ð°Ð½Ðµ
Ġanv Ã¤n
áĢĶáĢ¹áĢ Ĳ
Ġà¤¹à¥ĭ à¤¤à¤¾
Ġn j
ĠÐ² ÑģÑĤÑĢ
ess en
Ġph im
ĠÙħÙĨØ· ÙĤÙĩ
ĠÎ¼ Î¯Î±
Ġex ist
Ġemplo ye
Ġs ana
ĠÐºÐ°Ð· Ð¸Ð½Ð¾
åı į
est as
± áĢĢ
ĠÙĨ ÛĮØ±
×Ĵ ×ľ
g ress
Ġmat ter
ĠÐ¸Ð½ Ð´
Ġsz Ã¡ll
Ġr ather
áĥĲáĥĵáĥĴ áĥĶáĥľ
ari as
ĠP ark
Ġáĥ§áĥķáĥĶáĥļ áĥĲ
ien s
à¹ĥà¸ Īà¸
ĠÑĨÑĮ Ð¾Ð³Ð¾
ĠåĽ ł
ĠÐ¿ÑĢÐ¾Ð² ÐµÐ´
ä»¥ ä¸Ĭ
Ġjej ich
Ġb om
t rag
ve ck
ĠÙĨØ³Ø¨ Øª
Ġd ot
áĥĺáĥª áĥĺ
ĠØ®ÛĮ ÙĦÛĮ
ĠÑĤ ÑĢÑĥÐ´
Ġë¨ ¸
ĠY ork
ĠÙħØ¬Ùħ ÙĪØ¹
ĠÐĺ Ð³
Ġdis ponib
Ġh iá»ĥu
Ġ25 6
ÙĪØ² ÛĮ
Ġp ed
Ð°ÑĢ Ð´
ì²ľ ì¶ľìŀ¥
à¦¾à¦¨ à¦¾
Ġny t
Ġsoll te
Ġcont ract
ĠÑģ Ñŀ
Ġk im
à®¤à¯įà®¤ à®¿à®©à¯į
Ġb li
nie c
ĠÙ¾ Ø§Ø±
åľ ĭ
Ġà´® à´¨
Ķà¹īà¸§à¸ ¢à¸
Ġtr uyá»ģn
Ħ à¹īà¸²
Ã©s t
k ek
Ġre co
Ġprzy pad
I L
×ĳ×ķ×ĵ ×Ķ
Ġkosten los
ag ne
à±ĩà° ·
Äį nÃ©
ĠÑģÐ»ÐµÐ´ ÑĥÑİÑī
ĠBaÅŁkan Ä±
Ġpag pap
it ie
Ãĵ N
à¦¾à¦¥ à§ĩ
Ġà¤ī à¤¤
Ġdr ive
fe le
ĠÐ± ÑĬÐ»Ð³Ð°ÑĢ
ĠB akÄ±
Ġfe ature
à¦¿à¦ ĸ
ĠÎµÏĢ Î±
× ³
ĠØ§ÙĦÙħ Ùĩ
ÅĻ en
Ġà¦ľ à¦¾à¦¤
ĠW at
Ġte ll
uy áº¿t
Ġkur ul
Ġm udah
ä¹ ¡
Ġm no
Ġà¤ĩà¤¸ à¤ķà¥ĩ
Ġson dern
ãĤĤ ãģĹ
ĠØ¯ÙĪØ± Ùĩ
åį ĺ
éģ Ķ
Ġ à¹Ħà¸¡à¹Īà¸
Ġrelations hip
es ar
æ¼ Ķ
ìµľ ê³ł
Ġà¤ķà¤° à¤£
ĠÑĢÐµÐ± ÐµÐ½
Ġà¦ķ à§ĩà¦¨
Ġáĥ« áĥĲáĥļáĥĺáĥĲáĥľ
Ġàª¹ à«ĭ
ĠWor ld
Ġà¦¤ à¦¬à§ĩ
Ġje Å¡tÄĽ
Ġì¢ ħ
Ġcre dit
or f
ĠProduk t
ĠÎºÏĮ Ïĥ
à°¿à°Ĥà°ļ à°¿à°¨
é¡¹ çĽ®
ĠÐ¼ÐµÐ¶Ð´ Ñĥ
ĠC ette
ĠS eite
æĸ°éĹ» ç½ĳ
à°Ĥà° ķ
à¥Ĥ à¤¸
Ø¸ ÙĬÙħ
äº§ åĵģ
ĠA pr
ÐµÐ½ Ð¸ÑĤÐµ
and er
ĠSt ud
ãģĤãĤĬ ãģ¾ãģĽãĤĵ
Ã¤k si
ÙĨ Ø§Ø¯ÙĤ
ĠÐ¼Ñĸ Ð¶
Ġà¤Ĺ à¤ı
wi ad
ĠÎ ŀ
Ø§Ùģ ÙĬØ©
ĠìĥĿ ê°ģ
Ġkole j
çĽ ĳ
áĥĿáĥľ áĥĺ
Ġqu áº£n
Ġ ä½ľ
Ġhapp y
ÉĻn d
ĠØ¨ Ø³
Ġm un
Ãªn cias
un an
Ġà¤¦à¥įà¤µ à¤¾à¤°à¤¾
Ġh Ã¶g
Ġà¦ķà¦¾à¦° à¦£
ãģ® ãģ«
ĠØ³ Ùģ
cÃŃ ch
ĠáģĤ áģ
Ð°Ð¼ Ð°
Ġtwe e
å¿ Ĺ
Ġì§ ģ
ê°ķ ì¶Ķ
áĥļ áĥĶáĥĳáĥĺáĥ¡
Ġab bi
Ġå® Ł
Ġset iap
à¥ĩ à¤¨
Ġàª¥ àª¾àª¯
Ä±ÄŁ Ä±nÄ±
Ġa ang
Ġout side
re w
ÙĪ Ù¾
ĠF in
àª¤ à«įàª¤
ĠÑĩÐµÐ»Ð¾Ð² ÐµÐºÐ°
Ġhv ad
ÑĥÑĤ ÑģÑĤÐ²
ĠÐ´ Ð¾Ð±
A V
qu Ã©
ĠÐ¼ ÑĥÐ·
Ġáĥ¡áĥĲáĥ £áĥ
arte ment
f i
ĠáĥĴ áĥĲáĥł
Ġques ti
Ö ¶
ĠØŃÙĤ ÙĪÙĤ
ad h
Ġh ombres
ĠØª Ø®
à¦¨à§įà¦ ¨
io re
Î¼Î² ÏģÎ¯Î¿Ïħ
den s
Ġar beid
ĠÎµ Î¹Ïĥ
à«Ģ àª®
àªķ à«įàª¤
Ġpr av
Ġo tt
Ð°Ð· Ð´
Ġà¦¸ à§ĩà¦ĩ
æıĲ çİ°
Ġ ãģ§
Ġil i
c re
re ib
Ġí Ĺ
s iÄĻ
à§Ģ à¦Ĺ
ĠContact os
Ġf ine
Ġj ug
Ġz er
ØŃ Ø§Ø¯
Ġà°¤ à°¨
Ġnd ry
Ġb or
Ġàªķàª° àªµàª¾àª®àª¾àªĤ
Îµ Î²
ues to
Ġins urance
Î±Î¹ Î¿
Ġ×Ļ ×ĵ
Ø¬ Ø²
ÏĨ ÏĮ
ĠìķĦ ëĭĪ
ze go
Ġers ten
ãģį ãģŁ
ë³´ ê¸°
Ġ. âĢĿ
Ġc ad
ĠØª Ø±Ùĥ
áĢħ áĢ¬
Ġut en
Ġus er
ĠÎ» ÎŃ
Ġà®ħ à®´
ĠÑģ Ð¿ÑĢ
Ġh lav
Ġê² Ģ
Ġàªķàª° à«ĩ
at ivo
ĠKh Ã´ng
Ã¶glich keit
Ġë ł
éĢ ²
Ġcáº£ nh
Ð°Ð¶Ð´ Ð°Ð½
ç ¢
ver age
ĠÏĥÏĩ ÎŃ
Û µ
ãĤ¯ ãĥª
à¶ Ń
ÏĦ Ïĥ
ĠØ±Ûģ Ø§
Ġà¸ §à¸´à¸
Ġm Ã³d
Ġk op
à¦¿à¦ ı
ĠâĢ Į
ĠJe an
ĠM Ã¡s
áĢĸ áĢ½
ig an
áĢ¡ áĢĲáĢ¼áĢĢáĢ¹
Ġeduc ation
Ġà¹Ģà¸ĩà¸´à¸Ļà¸ Łà¸£à¸µ
Ùħ ÛĮÙĨ
b ut
ĠØ¨ÛĮ Ø§ÙĨ
Ġag ua
ð Ł
ĠÐºÐ°Ðº ÑĤÐ¾
Ġch uyá»ĩn
Ġà¤Ĩ à¤°
à¯ģà®ķ à®¿à®±
is ata
ĠmÃ¼s sen
Ġil let
am 8
Ġàªı àªŁàª²
á Ĭ
Ġìĺ ¬
d ek
×Ķ ×ľ
áĥĶáĥ¡ áĥ¢
×Ļ×ľ ×ķ
owa ÅĤ
ãĤī ãĤĮãĤĭ
ÙĪ Ù¹
Ġcitt Ãł
Â ¤
Ħ à¸²à¸£
Ġb Ã¥
Ģâ Ļ
Ø§Ø± Ø¬
Ġà¦¤ à¦¾
à¹ģà¸ ¥à¸°
ĠÑģÐ¿Ðµ ÑĨÐ¸Ð°Ð»ÑĮ
ãĤĵ ãģ§ãģĻ
à¦² à§įà¦ª
Ġáĥ¡áĥĲáĥ¥ áĥĽ
íİ ĺ
Ġqil ish
Î¾ Î¹
l uk
ĠÎ£ ÏĦÎ·
Ġæ¾³éĹ¨ çĻ¾å®¶
à°¿à°² à±įà°²
l Ã¡
ĠK ab
ãĥ¼ãĥ Ĩ
Ġàªķ àª¾àª®
an Äĥ
in iones
Ġn ye
Ó Ļ
ĠØ± Ùĩ
à¯Ĩ à®¯
ĠÐ´Ð¾ÑģÑĤ ÑĥÐ¿
Ġvien e
ĠØ§ÙĤØ¯ Ø§Ùħ
à§Ł à§ĩà¦°
k sen
ÑĢ Ð°Ð¶
ĠÐ´Ð¾Ð¼ Ð°
Ð° ÑĨÐ¸Ñİ
Ø§Ø¦ Ø¯
ĠY ap
az d
à¸Ńà¸ Ķà¸
ÑĢÐ¸Ð¼ ÐµÑĢ
Ġ Ã¡s
ĠÑģÑĢ ÐµÑī
Ġreg ular
åĪ Ļ
à¤Ĥ à¤ľ
Ġà®® à®ķà¯įà®ķ
ĠØªØ± ÛĮÙĨ
r ig
Ġvet Ã«m
ĠÐ¶ÐµÐ½ Ñī
Ġäºļç¾İ am8
à¦¾à¦ ī
åħ «
iv Ã¤t
on den
à«ģ àª®
ĠK Ã¼
iÄĻ ki
ÅĨ Äĵm
ģ à¹Ī
Ġed en
Ġpers o
Ġnie z
à¤² à¥įà¤¯à¤¾
Ġko g
ĠÐ¿Ð¾Ð² ÐµÑĩÐµ
ĠÐ¿ Ð¸ÑĤ
Ġf ast
Ġd ni
ê²Į ìŀĦ
à´¤ à´¿
ĠÃ ħ
Ġcil vÄĵ
ĠÚ¯ ÙĪ
ĠnÃ¥g ot
Ġag è§Ĩè®¯
Ø± Ø®
ĠáĥĲáĥ ļ
Ð´ Ð°Ð³Ð¸
Ġà¹ģà¸ Īà¸
àµģà´Ł àµįà´Ł
fahr en
ĠÑĩ Ð¾Ð²
ĠShqip Ã«r
Ġà¤¸ à¥ĭ
éģ İ
Ġtr á»±c
Ġrecommen d
æ² Ļ
ĠÐ±ÑĬ Ð´
Ġprob ably
Ġàª¶àªķ à«ĩ
od zi
¥à¸ ·à¸Ńà¸
Ġfark lÄ±
Ġper lu
li puri
Ġæ Į
ĠØ¬ Ø§
ĠÃ© l
f og
ĠØ¢ ÙĤ
ĠìĻ ¸
à§ģà¦ §
íĮ ħ
Ġáĥ¡áĥ®áĥķ áĥĲ
Ġå Ł
ĠâĢ »
Î¯Î¶ ÎµÎ¹
Î»ÎµÏħ ÏĦÎ±
ap os
ĠÐ¼ Ð»
ãģĻ ãģĻ
Ø§Ø¦ ÙĬÙĦ
Ð»Ñİ Ð´
Ïĥ ÏĥÎ±
ìĨĮ ìĿ´ìĬ¤
j an
Ġ ÑģÑĤÐ²
Ġ×Ķ×ŀ× §
Ġr ig
Ġpre cios
ëĦ ¤
Ã¡v Ã¡
ĠÐ¿ÑĢÐ¾Ð² Ð¾Ð´
ÙĪ ØŃ
Ġcurr ently
m ing
p is
Ġa ki
æŀ ģéĢŁ
ĠDan mark
ĠP res
Ġpor n
ĠP art
e ll
Ġvair Äģk
e j
ten er
ÙĦ Ø¦ÛĴ
ÙĦ Ø§Øª
Ð¾ÑĤ Ñĭ
n it
Ġ} ,"
Ġval or
ĠO ok
é º
ze ich
×Ļ×ł ×Ļ
Ġd Ãłi
ĠÐĨ Ð½
à¹ĥà¸Ĭ à¹ī
Ġà¦ı à¦²
ĠÄĳá»Ļ i
ÑĥÐ² Ð°Ð»Ð¸
Ġset t
Ġà¸ §
Ġf ap
Ġcon ta
Ġka ufen
ouw en
Ã¨ le
ĠÎĶ E
ĠØ§ÙĦÙģ Ø±
Ġà®¤ à®¾à®©à¯į
Ġke Äı
æ¢ ¦
Ġsk ills
ĠØ¯ÛĮÚ© Ú¾
Ø° ÙĬ
v as
Ð° ÑļÐµ
ĠFe te
ë³ Ħ
te g
Þ ¨
Ġà¤¹ à¤°
ÑĥÑĤ Ð±
ëį Ķ
Ġæ± Ł
ed ot
è¿ ľ
Ġíĸ ī
à±įà° §
ĠØ§Øµ ÙĦ
à°® à±Īà°¨
ĠáĥĹáĥĳ áĥĺáĥļáĥĺáĥ¡
« à¹ĩ
ÐµÐ½ ÐºÐ¾
y arak
Ġåĩ¯ æĹ¶
Ñĩ Ñĸ
Ħ à¸Ļà¸
Ġàª° àª¾àªĸ
éĻ Ĩ
à®Ł à¯ģ
Ġs ales
end s
Ġà°ļà±ĩà° ¸à±įà°¤
Ã¤n der
áĢľ áĢĬáĢºáĢ¸
Ġke in
am inen
ĠÎµÎº ÎµÎ¯
Ġf et
Î» Î¯Î±
Ġà®ª à¯ĩ
ĠC ons
sh Ã«m
Ð²ÑĢ Ð¸
Ġ×Ĳ ×Ļ×©
Ġf ire
Ġris k
ĠÐļ ÑĢÐ°Ñģ
ĠÐ³ÑĢÐ¾Ð¼ Ð°Ð´
ĠÎł Î¡
Ġtr ouver
Ġest Ãł
ãģĮ ãģĤãĤĬãģ¾ãģĻ
Ġà¦¶ à§ģà¦°à§ģ
Ġå¼Ģ åħĥæ£ĭçīĮ
at form
ĠAr t
Ġres pect
li ÄŁ
Ġl etz
Ġthu á»Ļc
à®¿à® ³
ĠÑģÐµÑĢ ÐµÐ´
æĲ ı
Ġ×ĳ ×ķ
à¤µ à¥Ģ
ĠÐ½ ÐµÐ±
áĢ¸áĢ ķ
ª à¹Īà¸§
Ġt ussen
ĠÑģÑĤ Ð°Ð²
Ġ ÙĢ
ĠS m
te les
cj ÄĻ
àª¿àª ¶
ĠÙħ Ø«
åĢ ĭ
Ġuns ere
Ġk inder
Ġcá»© u
Ġp ouvez
lijk e
ĠÐ½ÐµÐ¾Ð±ÑħÐ¾Ð´Ð¸Ð¼ Ð¾
Ġayn Ä±
m ie
ãģĦãģŁ ãģł
ĠkÃ¶z Ã¶tt
Ðµ Ñĵ
Ġk ids
ĠÑģÐ» Ð¾Ð¶
ĠC ON
ĠprÃ©s ent
Ġç ¼
Ġà¤® à¤¨
«à¸ ±à¸
Ġmo h
Ãµ r
en h
à®¿à®¯ à¯Ī
Ġpas ado
Ġìĸ ´
Ġçİ ĭ
äº Ĵ
he iro
èµĦ æĸĻ
Ġe usk
ĠØ´ ÙĪÙĨØ¯
Ġ×ľ ×ł
ĠÏĮ Î»Î±
Ġà¤¨ à¤¾à¤®
Ġf ond
Ġê± ´
å¤§ åŃ¦
ĠÐ· Ð°ÑĤ
ĠÎµÏĢ Î¹Îº
Î¸ ÏģÏī
ĠÐµÐ´ Ð½Ð°
Ġà¦ªà¦° à§įà¦¯
Ġà´¸ àµįà´¥
Ġà¤® à¥įà¤¹
ãĥ¼ãĥ Ĳ
Ġat ten
ilm esi
Ġmag gio
Ġku j
ĠåĲį çĦ¡ãģĹ
à®° à¯Ī
ÙĤ Ø§Ø¡
Ġob ject
l or
di ÄŁi
Ø· Ø§Ø±
Ġ×Ĵ ×ĵ
n as
Ð½Ð° Ðµ
ĠÑģÐ¾Ð² ÐµÑĢÑĪ
ÎŁÎ ľ
Ġhist oria
éħĴ åºĹ
Ġl Ã©g
ÉĻs inin
Ġorigin al
ĠB ur
Ġn ice
Ġà¦® à§ģ
Ġs we
à´® à´¾à´£àµį
g ang
ĠØ· ÙĪØ±
ģà¸ ³à¸
Ġc á»ķ
ĠgÃ¶ n
Ġtr ying
ÙĥØª Ø¨
æ¸¸æĪı å¹³åı°
Ġà¦ª à§ģà¦²
ĠáĢĻ áĢ½
ĠáĢ¡ áĢĨ
Ġactiv ities
ĠT est
iz o
Ġéķ ¿
Ġáĥĵ áĥĲáĥľ
Ġ×Ľ ×ª
ĠC ont
av ad
çĶ ·
áĥĶáĥķ áĥĶ
Ġtak es
áĥĺáĥĻ áĥ£áĥłáĥĺ
ĠÐ²Ð¸ÑĢ Ð¾Ð±
ĠÙħÛĮâĢĮ Ú©ÙĨØ¯
åŁ Ł
Ġej em
Ġka Å¾d
in ie
Ġs otto
ĠÐ± ÑĥÑĤÐ¸
Ġà¤īà¤¨à¥įà¤¹ à¥ĭà¤Ĥà¤¨à¥ĩ
ĠÚ©Ø± ÛĮÚº
ĠÑĢÑĭ Ð½
Ġh á»ıi
ĠS pe
×Ļ×ł ×Ļ×Ŀ
ĠÐºÐ¾Ð½ ÑĤ
Ġp ak
Å¡ te
ĠØ® Ø±Ø¯
ĠS uj
ĠÙĬØ¬ Ø¨
Ġà´ ¨àµįà´¨
Ġden n
ç´ °
èª ¬
Ġà¤¸à¤ķ à¤¤à¤¾
at ii
Ġpal ing
ĠãĤŃ ãĥ£
ĠS ing
Ð°ÑĤ ÑĥÑĢ
ª à¹Į
ĠÑģÑĬ Ð´
st ÉĻr
Ġjus qu
åĥ ı
Ġáģ Ħ
à°¸ à±į
Ġimport ante
sta v
ÑģÑĤÐ² Ð¾ÑĤÐ¾
Ġnouve au
Û Ĩ
Ġele tt
ĠPl us
z ien
ft ar
åĪĨéĴŁ å¿«ä¸ī
Ġtreat ment
ke zÅĳ
be c
ĠyÃ¶n et
Ġpo ints
Î¸ Î±
Ġà°µ à°ļà±įà°ļ
Ġæ Ħ
×¨ ×ķ
æħ ĭ
Ġç «
ty y
à«įàª¯ àª¾àªĤ
Ã¡t ica
Î³ Î¼Î±
l agen
yarak at
Ġç ¥
m Ã©n
å¯¾ å¿ľ
ĠÏĩÏī ÏģÎ¯ÏĤ
ĠÕ ¢
ab les
Ġsto p
ĠáĥĲáĥĵ áĥĴ
u le
Ġbu ilt
ĠÐºÑĢÐµÐ´ Ð¸ÑĤ
iz ia
Ã¡c s
Ġà¤ķà¤° à¤¨à¤¾
Ø§Ø´ Ø¯
v Ã¤t
à§ĩà¦² à§ĩ
ãĥĲ ãĥ¼
Ġdi jo
Ġbes o
ĠG Ã¼
Ġhig her
ëĵ ±
Ðŀ ÐĴ
Ġà¦¹ à¦¿à¦¸
Ġsy st
à¯ĭ à®®à¯į
ÏĨÎ¿ Ïģ
ĠÐ¡ Ðº
à´¯ à´Ĥ
Ø§Ø¦ ÛĮÚº
ÙĪÙĨ ÙĬ
ĠÐ¸Ð· Ð±
Ġgior n
al vel
à¯ģà®ķ à®¿à®±à®¤à¯ģ
Ġve zet
o j
ic les
ais s
Ġzur Ã¼ck
«à¸ ¥à¸²à¸
ë ĳ
è³ ĩ
Ġch Ã¢n
å¾ ®
1 4
Ġë° ķ
ÙĤ Ùī
ãģĦ ãģı
Ãº l
Ġkh ai
to k
Ñĩ Ð¸Ðº
ĠÛģÙĪ Ú¯
Ð¾Ð² Ð°ÑĤÐµÐ»ÑĮ
Ĥà¸¶ à¹īà¸Ļ
ĠÐ¿ÑĢÐµÐ´ Ð¾ÑģÑĤÐ°Ð²
ent en
Ð»Ð¸ Ð·
æ¸ Ī
Ġ ÅĤ
Ġà® Ĭ
Ùİ Ø¹
ãĥ¼ãĥ ©
ist ic
Ġsa j
ĠÎĳ ÏģÏĩ
Ġbil ÉĻr
Ġt inggi
Ġl ige
èķ ī
à´¨ àµĨ
Ïĥ Î¹Î¿
f ace
Ġá¼ Ĳ
Ġàª® àª¾àª°
ĠÎµ Î»Î»Î·Î½
¡ à¸Ļà¸
áĥĺáĥľ áĥĺ
ĠÙ¾ Úĺ
Ġpriv ate
Ùģ Ø§ÙĤ
Ġpow in
Ġl itt
ĠPub lic
ĠÐ·Ð° ÑģÑĤ
ĠØµ ÙĪØ±
Ġmuch os
ĠØŃ ÙĪØ²
Ġmain tain
Ø³ Ø§Ø²ÛĮ
ĠÃ©rd ek
å· ´
Ġè¿ ĺ
Ġt ie
ĠÙĪ Ø·
ãģ¨ ãģį
Ġm ÉĻlum
×ķ×ĳ ×¨
izz ato
al o
Ġwak ati
ĠÏĢÎµÏģÎ¹ÏĥÏĥÏĮÏĦÎµ ÏģÎ±
Ġtv Ã¥
Ø§Ø¯ Ø§Øª
áĢľ áĢ½
Ġsa fe
ĠÐ¶ Ð¸Ð·Ð½
ĠØ³Ø±ÛĮ Ø§ÙĦ
åİ Ĥ
ĠSt ate
Ġce a
ĠÐ¿Ð» Ð°ÑĤ
Ġ×Ĳ×ķ×ª ×ķ
Ñİ ÑĤÑĮÑģÑı
Ġkaik ki
Ġni Å¼
Ġs ag
ĠÄĲ áº¡i
ãĤĬ ãģ¾ãģĹãģŁ
ĠÎĿ Î±
as Ä±na
Ġsit ten
à¤ Ĩ
ĠáĥĻ áĥķ
anh a
Ġàªµàª§ à«ģ
à¤¾à¤ Ł
ĠGr an
ik u
Ġàª¦àª¿àªµ àª¸
à¦ķ à§ĩà¦°
Ġcon d
ëĵ¤ ìĿĢ
Ð°Ð»ÑĮ Ð½Ð¸Ð¹
Ġà® ¹
ĠÃ ĳ
Ġ×ŀ ×ľ
áĥĴ áĥĲáĥľ
Ġv oit
Ġèµ Į
Ġc Ã¢
ĠÑıÐº ÑĸÑı
ÑģÐº Ð°Ð¹
Ġàª¸à«ģàª §à«Ģ
Ġb ott
ĠiÅŁ lem
ad Ä±
ãģ¨ ãģ®
ç½ĳ ä¸Ĭ
m is
anj ut
ĠÐ¸Ð¼Ðµ ÐµÑĤ
Ġt ur
ĠBe wert
ĠØ¯Ø±ÛĮØ§ ÙģØª
n em
e e
ÑĤÐ¾ Ñĩ
z Äĥ
Ø¶ Ø©
ĠâĢĿ ï¼Į
Ø± Ùī
Ġinform aÃ§Ãµes
s I
à¥Ģ à¤¡
ĠÎĳ ÎĿ
ÙĪ ÙĬØª
Ġcontin ue
Ġtreb all
Ġc idade
éĿ ł
Ġâĺ ħ
Ġcono cer
ĠÐ´ Ð¾Ð±Ð°Ð²
Ġ×ĸ ×ķ
ĠØ§ÙĦØ¹ ÙĦÙħ
ar Ä±m
ļà¸ ±à¸
ĠÐ² Ð°ÑĢÐ¸
ĠÙĦ ÛĮÙĨÚ©
Ġs Ã¡t
ÏĢÎ¿ ÏĤ
Ø° ÙĥØ±
à¤ļà¥įà¤ Ľ
ĠáĢĦ áĢ«
éģ ĭ
æ± ½
Ġg ale
Ġsp rzed
×Ĺ ×Ķ
ici i
ul u
à°¾à°¨ à±ģ
Ġ×ł ×ķ×¡
Ġrun ning
ãĤ· ãĥ§
........ ........
Ð¿ÑĢ Ð¸
ĠáĢ± áĢĢ
à®¤ à®¾à®ķ
aci o
Ġest ado
éĸ Ģ
Ð² Ð¸Ð¶
Ġcon seg
ÐµÑĢ ÑĸÐ²
ĠÙ¾ Ú¾Ø±
ëŁ ī
Ġà¦¤à¦¾à¦° à¦¾
à®² à®¾à®®à¯į
èŃ ¦
Ġprem ier
à´ ĺ
Ġex am
Ġì¶Ķ ì²ľ
ĠÒĽ Ð¸Ð»Ð¸ÑĪ
ë¯¸ ëħĢ
Ġì Ĥ°
Ġve ces
Ġwar to
Ġà¤¨ à¤¾à¤¹à¥Ģ
ÏĦ Î¶
Ġg re
à¸£ à¹Į
ĠÑģÐµÐ± Ðµ
s to
ĠÙĨ Ø®
Ġà¤ª à¥Ī
le tt
ĠÐł ÑĹ
å¼ ł
Ġsi x
ĠØ¬ ÙĪØ§ÙĨ
Ġà¦¨ à§ĩà¦¤
Ã¤t z
ĠÐ¼ Ð°ÑģÑģ
Ø§ ÙĪÙĦ
ant ie
Î½ Î¬
si ÄħÅ¼
Ã© ro
áĢļ áĢ¬
Ġsu ite
Ġp jes
Ġkom en
à¦¨à§įà¦¤à§įà¦° à§Ģ
ĠÐ¿Ð¾Ð·Ð² Ð¾Ð»Ñı
Ġpre tty
ĠÐ¿ÑĢ Ð¸Ñģ
Ġn je
Ġè »
ĠW ill
ies e
Ġad ol
ãģĹãģŁ ãģĦ
ãĥĩãĤ£ ãĥ¼ãĤ¹
bil idade
Ð°Ðº Ð¾Ð²
ÑĪ Ð¸Ð¹
Ã©c ur
ãģ® ãģ§ãģĻ
b all
ĠdÃ© jÃł
ĠBud ap
ĠØ§ÙĦØ¹ Ùħ
åĢ Ļ
ĠH igh
áĢĢáĢ¼ áĢ®áĢ¸áĢ
Ġh os
ent uk
ĠØ¯ ÛĴ
ĠÙĪ Ø®
rav ers
om p
Ø§ ÙĬØ§Øª
ĠØ³Ø§Ø² ÛĮ
ĠØ§Ø® Ø¨Ø§Ø±
Ġn am
Ġbe oord
à¦ŀ à§įà¦ľ
Ġf ile
ĠÑģÑĢÐµÐ´ ÑģÑĤÐ²
Ġhav de
ĠÑī Ð¾Ð´
Ġë³ Ģ
ĠØ§ÙĦØ¢ ÙĨ
wa ar
Ø¨ Ø·
ÑĮ ÑİÑĤ
ĠDe p
Ġ Ø§Ø±Ø¯
Ġvia c
Ġad emÃ¡s
è ŀį
Ġh ingga
ë ·°
×Ļ×¨ ×Ļ×Ŀ
Ġlav or
æıĲ ä¾Ľ
Ġæ ´
Ġt it
Ġcha que
Î¼ ÏİÎ½
ĠÐ¸Ð³ ÑĢÑĭ
Ġsugg est
Ġmill ones
Ġà¦¹à¦ļ à§įà¦Ľà§ĩ
all is
m uÅŁ
àµĨà´¨àµįà´¨ àµģà´Ĥ
ĠÐ½Ð°Ð² Ñĩ
ÙĨØ¯ ÙĤ
Ġmy e
it esi
åĤ Ļ
ĠÑĤ Ð¾Ð¶Ðµ
Ïĩ ÏģÎ¹
Ġap o
Ġë² Ī
ĠÙĪ Ø°ÙĦÙĥ
et er
ni ÈĻ
Ġed ib
Ġìĥģ íĴĪ
ĠÐ³ Ð¾Ð»Ð¾Ð²
ĠÐ¡ Ð¾Ð²
çĻ Ĥ
Ġwant ed
ĠØ³ Ø·
Ã¼n d
Ġkho áº£ng
æĮģ ãģ¡
ĠgÃ¶ stÉĻr
Ã¨ ne
è¨ ¼
ĠØ£Ø¨ ÙĪ
Ġv erschied
Ġw id
Ġl Ã¡t
Ġd rept
up t
í ļ
Î» Î¹Î¿
à´¦àµįà´ ¦
ĠÄ ı
L ER
Ġj udi
re z
Ġwor th
Ġtr ue
ĠÄĳá» Ŀi
Ġel se
ĠØ´Ùĩ Ø±ÛĮ
Ġp este
à´¸ àµįà´±àµįà´±
ĠØ¹ Ø¨
Ð² ÐµÑĢÐ¶
Ġ×¨×Ĳ ×©
Ġla y
Ø¬ Ø§Øª
Ġn ya
Ġa ant
Ø¶ ÙĬ
ãĥ« ãĥĪ
ª à¸£
Ġm á»©c
à¤¾à¤° à¥ĩ
ĠØ§ÙĦÙĨ Ø§Ø³
Ġpart ie
æĺ ¥
Ġr iv
Ð°Ð»ÑĮ Ð½Ð¾ÑĹ
Ġpol it
ãĥĹ ãĥ¬
us ah
Ùħ Ø³
ĠÐł ÑĶ
Ġpo zy
æŀ Ĳ
ĠÙħÛĮ Ø§ÙĨ
ĠÎ£ Ïį
Ø§Ø¦ ÙĨ
Ġng u
ĠM ont
ĠÙħÙĩ Ø±
Ġlang sung
´ë ı
Ġme io
áĥ§ áĥĿáĥ¤
ĠÐ»ÑİÐ´ ÐµÐ¹
ĠTh anh
ag ing
ÅĨ a
Ġitem s
ĠDo am
ĠJak arta
à®¾à® ľ
åĩº æĿ¥
Ġcol lect
Ġis hl
ÙĨ Ùħ
áĥĶáĥĳ áĥĶáĥļ
è® Ń
Ġyap Ä±l
ic aciÃ³n
Ä° M
à¹Ģ à¸Ļà¸
Ġà®ķà¯Ĥ à®±
åŁ ¹
Ġaut om
Ġà¦¸ à¦¾à¦¥à§ĩ
ĠA ct
Ã¡v ÄĽ
Ġa kt
å¢ Ĺ
ak u
Ġà¨ ķ
åĨ µ
ĠE u
Ġa que
ĠR Ã©
ĠØ¨ Ø§Ø¹
ĠÐ¿ÑĢ Ð¾Ð¼
Ġal tre
Ġaut or
ĠÐ· ÐµÐ¼
ãģĻãģĻ ãĤģ
Ð¿ÑĢÐ¸ ÑĶÐ¼
Ġáģ Į
à¹Ĥà¸£à¸ĩ à¹ģà¸£à¸
1 7
c ita
ĠRom Ã¢n
ÙĪØ± Ù¹
ĠÐ¿ÑĢ Ð°Ð´
ĠÐ¸Ð· Ð²ÐµÑģÑĤ
×ķ ×ķ×ª
Ø±ÛĮ Ùħ
Ġmad uras
Ġshqip tar
áĢŀ áĢ½
à°² à°¾
áº¿ p
à´¤àµįà´¤ à´¿àµ½
ide oc
Ð¾Ð² Ð¾Ð³Ð¾
ĠÃ§ ev
ĠSuj et
Ġsit us
Ġs ino
ì¶ľìŀ¥ë§ĪìĤ¬ì§Ģ ìĥµ
ŀ à¸´
Ġins ide
ĠÑĦ ÑĥÐ½Ðº
Ġà¤ª à¤¾à¤°
ĠÐ² Ð¶Ðµ
èİ ·
Ġdag o
Ġph ong
Ġh ii
Ġinform azioni
Ġà§ §
Ġàªķàª° àªµàª¾
áĢı áĢ¹áĢ
Ġà¤ħ à¤®
k Ã©p
Ä±lm Ä±ÅŁ
Ġs le
Ġtrad ing
ive l
Ġgiá»¯ a
ĠØ§ÙĦØ« ÙĦØ§Ø«
Ġm ari
ĠÅĽ rod
Ġh Ã´tel
ĠàªĹ à«ģàªľàª°àª¾àª¤
ĠN eg
Ġex cell
ĠçĦ ¡
Ġà®ª à®£
Ġn ek
à¥ĩ à¤°
ĠW A
Ð¾Ð»ÑĮ ÐºÑĸ
ĠThe o
ĠìĨ į
ĠÑģÐ°Ð¹ ÑĤ
Ġg ay
Ġpers oane
Ġè ¨
Ġà¦¸ à¦¦
Ġ×Ļ ×ķ×Ŀ
Ġ( "
Ġneu en
Î¼ Î¯
Î¾ ÎµÎ¹ÏĤ
Ġenf ants
le fon
ĠJ an
åĩ »
àµĭ à´Łàµįà´Ł
Ġkom men
Ð± Ð°
ë¦ °
Ġhas il
ici on
d am
Ġpract ice
r an
s ive
r ir
l Ã¼k
Ø¹ Ø§
Ġm á»¥c
Ġalgun os
Ġeas ily
Ġprodu its
åĪĨ pk10
ÙİÙĬ ÙĴ
Ġs vÄĽ
é£ŀ èīĩ
Ø§Ø¨ Ø±
ĠÎ£ Î¤
Ø§Ø³ Ø·Ø©
Ġ380 3
w iÄĻ
i Ã¤
ĠØ´Ø¨ Ú©Ùĩ
Ġchiáº¿ c
Ð¼ Ð¾ÑĤ
en den
am bo
b aru
ÏĦÎµ Ïį
Ð»ÐµÐ½ Ð¾
ĠIn ter
ĠvÃ¤l ja
Ġáĥ¡áĥĲáĥ ¨
ãģĹãģ¦ ãĤĤ
ri ed
Ġáĥ¡ áĥŀ
Ġz ien
èĮ ĥ
ang i
ĠdÃ¶n em
Ġæ° ´
Ġàª¦à«įàªµ àª¾àª°àª¾
Ġcan not
à´¾à´ ·
b ack
Ġà¤¸ à¤¾à¤²
Î¸Î· ÎºÎ±Î½
Ġs itÃ¤
Ð¸ Ð»Ñı
à· Ķ
Ðº Ð¸Ñħ
ĠÐ² ÑĢ
k ken
Ġprime iro
Ġtro p
ĠÙģØ¹Ø§ÙĦ ÛĮØª
Î´ Î¯
åį ı
Ġàª¬ àª¹
à¤°à¥įà¤ ľ
Ġ×ĺ ×ķ×ĳ
Ð¸ Ð¾Ð´
ĠØ¢ Ø°
Ġ ä¹ĭ
AN G
à¯ģà® ©
Ġè ¶
f ern
Ġvers ion
Â ¯
Ïī Î¼Î±
Ġho je
ĠÙĦÙĦ ØŃ
àª°à«įàª µ
æĹ© çĤ¹
ik ai
ĠÃº Äį
ç¡ ®
Ġì° ½
us a
ĠÑĢ Ð´
ãģ§ãģį ãģ¾ãģĻ
A CI
b ru
Ġpart icul
Ġcomp te
un ter
ĠØ· Ø±ÙĬÙĤ
ĠM od
ÐµÑĩ Ð½Ð¾
Ġro le
Ð¾Ð² ÑĭÐ¹
Ġàª¬ àª§
iniz i
àª¨à«įàª ¸
Ġà¦ªà§įà¦° à¦¶
é¡ į
à¦¥ à¦®
Ùĥ Ø«Ø±
iáº¿ m
à®¾à®® à®²à¯į
ĠØªÙĪØ³ Ø¹Ùĩ
Ġz it
Ñī Ð¸
Ġpot ential
ÑĳÑĤ Ð³Ð°Ð½
ï½Ĺ ï½Ĺ
âĢ ı
Ġà®® à®°
à¦¾à¦° à§įà¦¥
sk Ã©ho
ĠÑģ ÐµÑĤ
Ø±ÛĮ Ùģ
Ġà´¨ àµĩ
Äĵ d
d ÄĽ
Ġ×ľ×¤ ×ł×Ļ
Ð¾Ð» Ð·
ĠÙħØµ Ø±Ùģ
á¿ ¦
r Ã¡
Î¼ÎŃÎ½ ÏīÎ½
bil itÃ©
Ġáĥ£áĥ¤ áĥłáĥĿ
Ġàª¸ à«įàªŁ
ĠÑģÐ² ÐµÑĤ
Ġpos ible
k lich
ÙħÙĦ Ø©
Ġt us
ĠØ¨Ø§Ø¹ Ø«
ĠÑģÑĤ Ð°Ð½
c ci
Ġk ed
Ġà´ ·
Ġpar f
Ġproject s
à¦¾à¦ Ń
ĠÑĪ Ð°Ò³
à¯ĭ à®¤
àµĬ à´°
ĠØŃ Ø±Ùģ
ĠØ¨Ø§ÙĦ Ø§
æĻ ®
ĠÅ¡ o
Ø² ÙĬØ²
ãĥ¼ãĥĵ ãĤ¹
Ġekstra utstyr
Ġis n
Ġàª¸ à«įàª¥
fol g
Ġric erca
Ġhe ld
à¥ĩà¤Ĥ à¤¦
Øª Ø§ÙĨ
ick Ã½
ĠÐĺÐ½ ÑĤÐµÑĢ
gy e
ĠØ§ÙĨØª Ø´Ø§Ø±
×Ļ×¤ ×Ķ
ĠÙ¾ ÙĨØ¬
Ġgrow th
áģ¿áĢĻ áĢŃáĢ³áĤķ
er ie
Ġse p
ĠØ¬Ø¯ÙĬØ¯ Ø©
Ġpo is
Ġàª® à«ĭàªŁ
Ġà¤ķ à¥įà¤·
ĠÐ¾ Ð·
ë° ķ
Ġlong er
Ġserv icio
ĠÐ± Ð¸Ð·Ð½ÐµÑģ
Ĉ Ĉ
ĠÎ³ ÏģÎ±
Ä° K
ĠØ§ÙĦØµ Ùģ
ĠÐĴ Ð°ÑĪ
íķĺ ì§Ģ
Ġapp ly
Ġm ie
éļ ¾
Ġab s
Ġrend szer
ĠÐ±Ð¸Ð´ Ðµ
Ġoll ut
àª° à«ĩ
Ġst esso
Ġas p
Ġ3 2
éĻ ©
ĠÐ¢Ð¾ Ò·Ð¸Ðº
Ġz ag
Ø¨ Ø§ØŃ
g as
o te
Î´ Ïİ
§à¸ ¥
ĠÙĥ Ø¨ÙĬØ±
Ïĩ ÎµÎ¯
ç´ ¹ä»ĭ
c aya
Ġinte gr
ĠØ±Ø³ ÛĮØ¯
x ect
ĠØ¨Ø± ÙĨØ§ÙħØ¬
Ġi ci
Ġ×ķ ×Ĵ
Ġàª¹ à«ģàªĤ
ÐµÐ½ Ð½Ð¾ÑģÑĤÐ¸
à°¿à°Ĥà°ļ à°¾à°°à±ģ
Ġt ap
Ġho tell
ĠÅ ½
Ùĳ ÙĲ
ĠØ· Ø¨
ĠØ§ÙĦ Ø§Ø®
Ġmir Ã«
ëŁ ¼
ÚĨ Ø³Ø¨
łà¸ ±à¸
Ġc atal
à°¾à° ³
l iv
Ġk ata
ĠtÃ¶rt Ã©n
Ġsz o
Ġa ction
ÑĸÐ¹ ÑģÑĮÐº
Ġà®ª à®¾à®¤
çĶµ æ¸¸
à´ ŀàµįà´ļ
ĠÎľ Î±Ïģ
Ġdi k
Ġrece ived
is piel
çº ¦
Ġà®İà®¤ à®¿à®°
Ïģ Ïį
u do
ç¤¾ ä¼ļ
Ġhe le
à¤¾à¤µ à¤°
ĠÐ¡ Ð¾ÑĦ
Ġà®ī à®°
Ġhe ute
ĠÏĢÏģÎ¿ Î²
áĢĲ áĢħáĢº
ĠÎ¬ Î»
Ġne z
Ġs ier
ÑĨ ÑĭÐ¹
Ġst ar
æ¼ ı
Ġgjith Ã«
Ġpro bl
ten e
Ġl inda
Ġà¦ªà§ģà¦² à¦¿à¦¶
9 8
ra Ã§Ã£o
l s
Ġm Ã©d
ĠÐ¼Ð¸Ð½ ÑĥÑĤ
ĠçĶµ çİ©
Ġ ÈĽ
à¸Ńà¸¢à¹Īà¸²à¸ ĩ
Ġvar iety
Ġacc ording
Ð°Ð· Ñĥ
Ġgr ound
ĠÙĨÙħÛĮ âĢĮ
ĠÐ½Ð°Ð´ Ð¾
Ġku h
é¦ĸ é¡µ
lan c
Ġà¦¸ à¦Ń
Ø§Øª Ø¨
Ġ áŀ
Ġaddition al
ĠM r
ar Ãł
Ġáĥĵáĥĺáĥĵ áĥĺ
äºº æ°Ĺ
Ġà¤¸à¤¬ à¤¸à¥ĩ
ÐµÐ» Ð°
ĠÐ¡ ÑĬ
Ã± e
ĠÐ¿Ð¾Ð» Ð¾Ð¶
Ð¾ÑĢ Ñĭ
he l
Ġsc reen
ë¸ Į
Ġ ÉĻr
cc a
ĠÐ¼Ð¾Ð¶ Ð»Ð¸Ð²
le ction
anz ania
Ġ×Ļ ×ĵ×Ļ
ll om
ÏĦÎµ Ïħ
Ġyap Ä±lan
ĠáĥłáĥĿáĥĴ áĥĿáĥł
à´¿à´¤ àµįà´°
ĠÐ ©
à¤¿à¤ ¦
à¹ Ĭà¸
àª¾àª¤ à«įàª°
Ġ à¹Ħà¸Ķà¹ī
ĠÐ³ÑĢ Ð½
Ġann on
Ġt api
Ġk de
ĠEl le
ik ali
ĠÚ¯ÙĪØ´ ÛĮ
ĠåĬł æĭ¿å¤§
ĠÐ¸Ð·Ð¿ Ð¾Ð»Ð·
áĥĲáĥ «áĥļ
ĠáĢ¡ áĢģáĢ¯
Ġ ä¼
ĠK ad
Ġex act
let es
Ġg ang
ĠÐº Ð¾Ð¶
Ã¡n d
à¸£à¸£à¸ ¡à¸
Ġversch ill
ÑģÑĤÐ² Ðµ
ĠÑĢ ÑĸÐ²
åº ĥ
ĠÏĢ ÏģÎ¬
Ġtot al
Ġq ey
Ġp ola
ÎŁÎ ĵ
à¦² à¦¾
Ġco ol
Ġm ÉĻs
æŀ Ħ
Ġåĩ º
dz iaÅĤ
Ġan a
«à¸£à¸ ·à¸Ńà¸
Ġsav oir
áĥĶáĥ ŀ
à¥ĩ à¤¦
Ġê²ĥ ìĿ´
ĠØ§ÙĨÛģ ÙĪÚº
ĠT or
ĠÚ©Ø± ÙĨØ§
ĠÐ¾ ÑĨÐµÐ½
ĠZ apat
Ð»Ñı ÑİÑĤÑģÑı
à´¿à´± àµįà´±
ĠÎ³ ÎµÎ½
ãĤĦ ãģĻ
ĠáĥĶ áĥ¥
Ġz i
e ÅŁ
Ð°Ð´ Ð°
à¤ķ à¥įà¤°
Ġsa f
ëĬĶ ëį°
ĠíĶĦ ë¡ľ
Ġà®ķ à®¾à®°
Ñĸ Ñŀ
ĠÚ©ÛĮ ÙĦØ¦ÛĴ
´ ī
ll an
ÙĦ Ø§ÛĮÙĨ
ĠP ok
à°¨ à±įâĢĮ
Äħ c
ĠÙħÙĨØ§Ø³ Ø¨
áĢľ áĢ°
Ġam azing
ĠÎ» ÎµÎ¹ÏĦÎ¿ÏħÏģÎ³
Ġà´ªà´± à´¯
à°¿à° ¦
ĠÑĥ Ñģ
Ð°ÑĤÐ¸ ÑģÑı
å®ī è£ħ
ĠØ§Ø± Ø³Ø§ÙĦ
Ġus o
Ġr ais
áĢħ áĢ¬áĢ¸áĢ
uel le
Ġter ug
had ap
Ġëĭ ¬
à´¿à´ķ à´³àµįâĢį
Ø¯ Ø§ÙĨ
l iy
Ġv Ã¥
Ġge v
è¯ Ĩ
ily en
±áĢŀ áĢ¬
Ġle ave
Ġh uis
ĠÐ´ Ð¾Ð²
Ġà´ªàµįà´° à´µ
ĠÐ¡ ÐºÐ°ÑĩÐ°ÑĤÑĮ
Ġé ĥ
ier ten
çĽ ĺ
á½ ¸
ĠR E
ĠØ£ Øº
ãģį ãģ¾ãģĻ
ĠØ£ ÙģØ¶ÙĦ
ĠÂµ ÃĦ
åĪ ¤
æŃ Į
Ġà¦¬ à¦¿à¦°
fÃ¼ g
Ġà¤¸ à¥ģ
ve j
r ÉĻ
st up
ÎŁÎ ¡
Ġda v
un ud
Ġh ana
ĠÑģÐ¸ÑģÑĤÐµÐ¼ Ñĭ
Äĥ se
à¹Ĥà¸ ¥à¸
ĠæŃ ¤
us an
Ġhe n
Ñģ ÑĭÐ»
Ø¨ Ø§Ø¨
Ġcharact er
Ġa quÃŃ
ĠB est
Ġà¤Ĩà¤ª à¤ķà¥ĭ
q a
Ġè ·
ĠØ²ÛĮ Ø§Ø¯Ûģ
al ne
Ġac onte
f re
ãģĹãģ¦ ãģĬ
ĠÎ´Î· Î¼Î¹Î¿ÏħÏģÎ³
áĢĢáĢ¹áĢ ŀ
íĻ ĺ
Ġê°Ģ ê²©
áĢŃáĢ¯ áĢ¸
t al
Ð¸Ñĩ Ð°
ĠS ur
ilm ÉĻsi
Ġpi ed
ĠD Ã©
ĠÐ¡Ð Ĥ
à¤¯ à¥ĩ
ĠSe e
Ġul aÅŁ
ĠÎ¼ÎŃ ÏĩÏģÎ¹
ç´ į
Ġstand ard
å¤ļ å°ĳ
«à¸Ļ à¹īà¸²
Ġpri or
èĳ ī
ck e
te an
Ġáĥ¡áĥĲáĥ Ķ
Ġb ase
ĠØª ØŃØ¯
Ġmarket ing
ªà¸´ à¸Ļà¸
l al
áº¹ lu
ĠF emme
Ð² ÑĸÐ´
à±ģà° Ł
og le
Ð¸ÑģÑĤÑĢÐ° ÑĨÐ¸Ð¸
gr ama
Ġviel Ã¤
ìĬ¤ íĬ¸
Ġæī Ģ
Ð¾ÑĤ Ð¸
Ġk um
ĠD alam
ĠÙħ Ø¬ÙĦØ³
Ġm Ã¶j
Ġ×Ľ ×©
ĠÐŁÑĢ Ð¾Ð´
Ġà°ħ à°¨à°¿
Ġay ud
Ġà°Ĺ à±ģà°°
Ø§Ø§ Ø§Ø§
ĠN el
áĢŃáĢ¯ áĢĦáĢ¹
áĢ³ áĢķáĢ¹áĢ
è§Ħ å¾ĭ
×ĺ ×Ļ×Ŀ
ÙĦ Ûģ
Ġmul ig
Ġdo it
Ġopt ion
Ġé ©
ĠÂ¡Â £
g em
Ã¢ ng
Ã§ Ä±
Ñĺ Ðµ
ÙĬÙĨ ÙĬ
×ª ×Ķ
ĠÑĢ ÐµÐ¶
Ġ9 0
Ġchu áº©n
ĠÐ´ Ð¾Ð³Ð¾Ð²Ð¾ÑĢ
ĠáĢĽ áĢ½
ir st
Ø¨ ÙĬØ±Ø©
æľ ĥ
Ġsa ve
Ġpo le
ĠáĥĽáĥ® áĥĿáĥļáĥĿáĥĵ
ìĨ ¡
Ġnie uw
ĠB akan
sch utz
ÐµÐ·Ð¿ ÐµÑĩ
Ø³ Ø§Øª
ÑĢ ÑĮ
ĠØ§ÙĦØ¨ ØŃ
Ã©l k
ent ing
ÑģÐº Ð¸ÑĤÐµ
Ġnh iá»ĩm
ĠØ± Ùħ
Ø¹ÙĦ Ø§Ùħ
Ġall ows
Ðº Ð¸Ð»
Ġgr acias
ĠØ§ÙĦ ÙĦÙĬ
Ġà§§à§ ¦
ÑĢ Ð°Ð»
Ġpart ir
Ġà¤¸ à¤Ńà¥Ģ
Ġà¸ ¢
Ġcont rib
Ġexem ple
ĠØ¨ÙĪ Ø§Ø³Ø·Ø©
o b
ç½ Ĺ
ÙĦÙĬ ÙĤ
Ĭà¸ ¸à¸
Ġíķľ ëĭ¤
Ġter baik
ĠÐ³ Ð°ÑĢ
v Ã¡
eg e
±áĢ ħ
Ġr ap
ØŃ Ùħ
Ġni ya
Ġquick ly
Î¿Ïį Î¼Îµ
Ġbeh ind
Ġper mainan
ĠÎ¼ Î¿
àµĤ à´Łàµįà´Ł
as Ä±nÄ±n
Ġáĥ¡áĥĲáĥ ĸ
Ġå¹ ³
ĠwiÄĻ c
Ġ ãģĹãģĭ
Ġáĥ £
Ġn á»ķi
Ġå¿ «
ĠV o
á»Ń i
áĢĢáĢ¹áĢ ľ
Ġh ÉĻy
è¶³ çĲĥ
Ġp Ãºbl
Ùİ Ùħ
Ġ Ã¼n
ĠTh u
Ġt Å¡
Ġb g
ti en
ÙĢÙĢ ÙĢ
sp ÄĽ
Ġé ļ
å¼ µ
Ġeff ici
Ġin den
ĠÙħØ§Ø´ ÛĮÙĨ
at ro
ĠÐ²Ñĭ Ð³
Ġy ks
Ġwyk on
Ġse orang
Ġcho ice
ĠPro ble
ĠÐ² Ð°Ð·
ku u
áĥĲáĥķáĥ¨ áĥĺáĥł
Ĭ à¸µà¸
ĠB áº¡n
Ġin tre
Ġàª® à«ĭàª
à´¾à´± àµįà´±
ĠPers on
w here
Ġz ach
ãĤĪ ãģŃ
Ġãĥ ¢
ĠÐ²Ð¸Ð´Ðµ Ð¾
ä½ İ
ĠØ§ÙĦØ¯ ÙĪÙĦØ©
Ġza Äį
Ð¾Ð» ÐµÐ²
Ġt áº¥t
ĠB ere
ÑĨÑĸ Ð¾Ð½
Øª Ø¯
Ġm ÉĻh
ĠF oll
Ð°Ð»ÑĮ Ð½Ð¾Ðµ
à¹īà¸²à¸ ĩ
ļ à°¿
ĠØ± ÙĬ
as se
Ġd ung
ĠØ¨Ø§Ø´ ÙĨØ¯
ĠÏĩ ÏİÏģÎ±
áĢŃ áĢĻáĢ¹áĢ¸
os z
ÑĤ Ð°ÑĢ
Ð¼ Ð¾ÒĽ
ĠÙĬ ÙĪÙĨ
Ġal te
æŀ ģ
i zione
Ġ ãĦ
ÑĹ Ð²
áĥĺáĥłáĥ ĵ
vo le
Ġsh ows
Ġkom t
Ġm Ã¶glich
Ġpot rze
áĥĶáĥĳ áĥĶáĥľ
ĠØ§ ÙģØª
emb ali
ĠØ§ÙĦØ¹ Ø§ÙħØ©
Ħà¸£à¸Ķà¸´à¸ ķà¸
ĠÐ² Ð¾Ð½Ð¸
Ġà®¤à¯Ĭà®Ł à®°
Ġy ardÄ±m
ĠÑģ ÐµÐ¹ÑĩÐ°Ñģ
Ġà¦¸ à¦ķ
à¦¤ à¦¾à¦°
Ġgener al
u ck
Ġwy st
au en
Ã¤y t
Ġbook s
çı Ń
ierb inte
ĠA I
à´µ à´°
ast Äĥ
Î¸ Î¿
z ug
ä¸Ĭ ãģĴ
à«Ģàª Ł
Ùģ ÙĤ
Ġíķĺ ëĤĺ
áĥĶáĥĳ áĥĿáĥĵáĥĲ
ÑĢÐ° ÑĪ
ĠØ® ÙĪØ´
Ð¸Ð»ÑĮ Ð½Ð¾
ĠÐ¸Ð¼ ÐµÐ½Ð½Ð¾
Ġdisc over
Ġ×Ĳ ×¤×©×¨
Ġwe il
ÐµÐ¼ Ð°
n Ã½m
il ÉĻ
Ġs áº¯c
Ġà¤µ à¤¿à¤ķ
ĠÚ©Ø§Ø± Øª
Ġmem p
itz aciÃ³
ĠÎº Î¿Î¹Î½ÏīÎ½
à°¾à° ·
ĠSch w
n Äĥ
áĥ£áĥ ¥
Ġ ill
ĠpÅĻÃŃ pad
Ġaix Ã²
A T
Ġ ÉĻn
Ð° ÑĨÐ¸Ð¾Ð½
Ġà° ĵ
Ġà®µ à®¿à®°
ķáĢ¼ áĢ²
Ġlaik Äģ
×Ľ ×ł
è¾ ĵ
ĠÐ¾ÑĤ Ð´ÐµÐ»
é ²
ĠÏĥÏħ Î³
Ġk onn
áĢº áĢ¬
ĠÐ¿ Ð°Ðº
usah aan
9 0
Ġlos s
ĠF all
Ġmod ern
Ġà¤ª à¥ģà¤²
Ġm urah
Ġat Ã«
ĠÎĳ Î³
Ðł ÐĲ
Ú¯ ÙĪÙĨÙĩ
if ikasi
Ġemplo y
ĠØ§ÙĦØ® Ø·
ÎŁÎ ļ
Ġkom mt
ÉĻn i
Ġdes cu
áģ¿áĢķ áĢ®
à¹ģ à¸Ļà¸
os o
Ġed er
ĠÐ°Ð² ÑĤ
ĠnÃ¥g on
k ara
Ġsc op
ÑĥÐ¶ Ðµ
Ġdirect ory
un ch
Ã¶ ver
Ð¼ Ð°ÑĤ
ĠÐº ÑĥÐ½
Ġd unia
Ġs adece
ĠM Ã©
áĥł áĥĲ
àµĩà´ ¹
Ð¾Ð» ÐºÑĥ
Ġà¦ªà§įà¦° à¦¥à¦®
ãģį ãģª
Ġm inh
lar ini
ĠespaÃ± ol
ĠØ§ÙĦÙĤ Ø¯
czy Äĩ
Ġnuov a
ĠÎºÏħ Î²
ĠÑĤ ÑĸÐ»ÑĮÐºÐ¸
ĠØ§ÙĦÙĪÙĤ Øª
d re
ĠÐº Ð°Ð¿
ĠÑĤÐ°Ðº Ð¾Ð¹
Ġch ÃŃ
s m
ĠÑģÐ¾Ð² ÑĢÐµÐ¼
ĠUn ivers
ct eur
Ø§Ø¦ ÙĤ
Ġave a
ÉĻb ÉĻr
Ġm ida
ĠØ¯Ø± ÙħØ§ÙĨ
ĠdÆ°á» Ľi
ve k
ÑĭÐ² Ð°ÑĤÑĮ
Ġtu ot
Ġt or
ci u
Ġtam Ã©n
h Ã¤lt
Ġå ģ
ĠVer b
ler inde
ĠØ® ÙĦ
ĠÙĪ ÙĦÙĬ
Ġat unci
Ġáĥ Ń
ĠN aj
Ġpers ona
Ġread ing
ĠT il
ĠØ§ÙĦØª Ø³
ãĤ¢ ãĥ«
ĠØ§ÙĦØ¥ Ùħ
Ġê¸ Ī
æı Ľ
ÙĬ Ø§Ø±Ø§Øª
ĠÐĴ Ð»Ð°Ð´
Ġs ense
ĠÙĪ Ø§
ent re
Ġag èµĮ
Ġza idi
Ġà¤¸ à¤¹
ÉĻh ÉĻr
Ø§Ø° Ø§
Ġm p
ĠK ont
¢ à¹Į
lar dan
ak ty
Ġwor ds
Ġà¨ ¸
Ġcom mer
ot ros
Ġf ix
Ġos Ã³b
ĠP L
Õ¡Õ £
Ø§Ø¨ Øª
ÑĢÐ° Ñĩ
ĠP ag
Ġch á»ĳng
áĢŀ áĢ¼áĢ¬áĢ¸áĢ
cher s
ÄŁ ret
ĠÃ¶z el
Ġg áº·p
Ġ3 1
Ġs id
à°¸ à±įà°Ł
is in
äºĮ æīĭ
Ġp icc
ÑĨÐ¸ ÐµÐ¹
he ts
Ø² Ùħ
Ġà¦Ĩ à¦Ľà§ĩ
å ª
n ice
àµĢ à´°
Ġà¤« à¤¿à¤²
Ġout ras
à«įàª ¡
Ġba ie
Ġfol os
h y
ÃŃt Åĳ
à§ģà¦ ľ
ĠÐ² Ð¸Ð³
Ã² ria
è¡¨ ç¤º
Ġà°° à°¾à°ľ
Ġspiel en
à¦¬ à¦°
ĠAl le
ĠÐ·Ð´ ÐµÑģÑĮ
×ŀ ×ľ
Ġàªľ à«Ģàªµ
Î´ ÎŃ
Ñĳ Ð¼
Ġni Ã±os
Ġm áº¡ng
v v
Ġà¦īà¦ª à¦ľ
ĠØ§ÙĤØªØµ Ø§Ø¯ÛĮ
Ġc ant
Ġk iv
ip os
ĠÙĩØ§ ÙĬ
ÐµÐ½ Ð½Ð¾Ðµ
ĠÑģÐ²Ð¾ Ñİ
t ed
Ġvend ita
ĵ ľ
áĢŃ áĢķáĢ¹áĢ
aci dad
ĠÑģÐ¾ÑģÑĤ Ð¾Ñı
ĠÎ¼ Î¬
ĠØ±Ø§ÛĮ Ú¯Ø§ÙĨ
ĠØ§ÙĦØ¯ Ø±
ãģį ãģ¾ãģĹãģŁ
æľ¬ éģĵ
Ġfam ilia
Ġ×Ķ×ŀ× Ĺ
Ġnost ra
Ġb ol
Ø§Ø³ Ùħ
Ġz wiÄħz
Ġl Ã©
ĠáĥĽ áĥĿáĥķ
ĠØª Ùĥ
Ð¸ ÑĨÐ¸Ð°Ð»ÑĮ
Ġv uel
ĠâĹ ı
ĠÐ¢Ð¾Ò·Ð¸Ðº Ð¸ÑģÑĤÐ¾Ð½
ick Ã¡
Ġt iáº¿n
Ġge h
Ġil iÅŁ
Ġoso b
ĠÙĪ Øµ
Ġé £
ÐµÑĪ ÑĮ
Ġrencont re
ÏģÎ· ÏĤ
ĠáĢĶ áĢ¾
ç¦ »
ë¦ ¼
ÅĤo ÅĽci
ema akt
en y
ĠØ§ÙĦØ§Ø¬ ØªÙħØ§Ø¹
Ġà¸ ģà¸²à¸£
Î» ÏĮÎ³
Ġans wer
áĢ±áĢ »áĢķáĢ¬
ĠÐ»ÑĥÑĩÑĪ Ðµ
ĠÏĨ Ïī
k im
ĠØ³ Ø®
Ġc y
Å¾ i
Ġì ´Ī
Ð¿Ð¾Ð» Ð¾Ð¶
ĠÑĤÐµÑĢ ÑĢÐ¸ÑĤ
ÏģÎ¹ ÏĦÎ¹ÎºÎŃÏĤ
ĠÐĹ Ð°Ðº
Ġv asta
Ġpl atform
d ur
c Ã¼
æİ ¢
Ġëį °
ĠÏĢ Î¯
Ġde pois
Ġà¤Ĺ à¥įà¤°
ĠÒ³ Ð°ÒĽ
ag ed
ÙĨ Ø§ÙĨ
Ġalt ijd
ĠÐ½ÐµÐº Ð¾ÑĤÐ¾ÑĢ
Ġ3 5
ë¦¬ ê³ł
Ġà¦¬ à¦¾à§ľ
Î¼ Î±Î¹
at akse
L CJ
Ġsn el
Ġå° Ĩ
ĠØ®Ø§ÙĨ ÙĪ
à¤§ à¥įà¤¯à¥ĩ
Äį it
Ġà¤Ł à¥Ģ
ĠÑģÑĤÐ¾ Ð¸ÑĤ
Ħà¸ ´à¸
Ð¸ÑĢÐ¾Ð²Ð°Ð½ Ð¸Ñı
Ġl uk
àª¨ à«įàªŁ
Ġn Ã¡m
×Ĺ ×ł×ķ
Ġl ower
ĠÐ³Ð¾ÑģÑĥÐ´Ð°ÑĢ ÑģÑĤÐ²ÐµÐ½
ka uf
Ð°Ð´ Ðµ
ĠÎ¿Î¹ÎºÎ¿ Î½Î¿Î¼
áĥ ©
à´¾à´ ´
Ġan im
ĠÑģÑĤ Ð°ÑĤ
à±ĩà° ®
ĠÄ° Ã§
w ick
om Ã¡ny
ĠÙģ ØµÙĦ
Ġpeu vent
r Ã©e
Ġth Æ°
ÑģÑĤ ÑĥÐ¿
åħ ħ
uh kan
Ø§Ø¦ ÙħØ©
j Ã¡r
ĠT uy
Ġëª ħ
o ci
l ike
Ġkok o
å¤ ®
ĠL oc
ĠØ¬ Ø¯
Ġpr os
ors ke
Ø§ÙĦ Ø«
è« ĩ
Ä± y
Ġa chter
Ġh á»ĵ
à±Ĩ à°Ł
ĠÑĢÐµÐ³ Ð¸Ð¾Ð½
Þª Þ
Ø³ ÙĨ
Ġl áº¹
ĠÑĤ ÐµÐ·Ð¸
Ġn ouvelle
çµ ¦
ĠÙħÙĪ Ø¬ÙĪØ¯
t Ã¼
Ġg leich
on to
Ġnive l
Ġse ur
à°¯ à±įà°¯
ĠE very
Ġl ives
Ġl alu
Ġdes cription
Ġkomm un
ĠÐ¿ÑĢ Ð¸Ð´
à© °
Ġà¸ Ī
æĸ¹ æ³ķ
à´¦àµįà´ §
er g
Ä± p
Ø§Ùĩ ÛĮ
ĠåĽ Ľ
Ġup on
ãģĦ ãģªãģĦ
Ø´ ÙĬ
Ġà®¨ à¯ĩà®°
Į áĢ¬áĢĶ
Ð¾Ð´ Ð½Ñĸ
Ġem bar
Ġbar n
Ĺà¸µà¹Īà¸ ªà¸¸à¸Ķ
Ġà®ĩ à®¯
Ġ6 0
Ð¾Ð² Ð¾ÑĹ
Ä«g as
Ã¼t Ã¼n
Ñĭ Ñŀ
áĤıáĢ¯áĢŃáĢĦáĢ¹áĢ ĦáĢ¶
ĠÃ©r tÃ©k
) )
Ġn ature
ĠÑį Ð½
à®¾à®² à¯ģà®®à¯į
Ġat rav
Ġlat est
Ġzir en
Ġáĥ¬ áĥ§
ĠÐ°Ð² ÑĤÐ¾ÑĢ
Ġà¸ ¢à¸
è¦ ı
ÑģÐº Ð°Ð³Ð°
ow adz
Äĵr t
ÑģÐº Ð¸Ñı
ĠA ve
owan ych
à· ĥ
Ġinform asi
ĠèµĮ éĴ±
ll as
ãĥ³ ãģ®
Ġfi ind
ĠY eni
Ġè °
Ġt ÃŃn
à´¨àµįà´¨ àµģ
ĠQu Ã©
· ¨
Î½Î¿ Î¹
Å£ e
unt za
Ġáģ ħ
ãĤ¤ ãĥī
Ġrequ est
à§ĩà¦¬ à§ĩ
Ġà°ª à°°à°¿à°
ĠÙĦÙĪ Ø§Ø²Ùħ
Ã± as
az ar
am me
ĠÐ¿ÑĢÐ¾Ð² ÐµÑĢ
ĠS a
ĠÑı ÐºÐ°
ĠÙĨ Ø§ÙħÙĩ
ĠØ§ÙĨ ÙĤÙĦ
ĠÑģÐ¾ÑĤ ÑĢÑĥÐ´
Ġc ode
à¤¾à¤· à¥įà¤Ł
áĢ¸áĢ Ĩ
à°¤ à±įà°¯
ĠÙ¹ ÛĮ
Ġ×Ķ ×¨×Ĳ×©
ĠÄ« pa
Ġc Ã¢u
Ġ3 8
ÐµÐ³ Ð°
Ġ ä¹ħä¹ħ
Ġ×Ĳ ×Ļ×ł
Ġà¤ķ à¤Ī
áĢ±áģ¾áĢĢ áĢ¬áĢĦáĢ¹áĢ·
ĠD urch
at ter
Ġà¤« à¤¿à¤°
Ġà¦ªà¦¾à¦° à§ĩ
Ġà¦¶ à§ĩà¦·
ĠÐ½Ðµ Ñģ
à¹Ģà¸ Ĺ
Ġë³ ¸
Ġproduct os
Ġg á»įi
Ġà§© à§
ĠbaÄŁ lÄ±
Ġ×ł ×ª
ÅĤo Å¼
ĠÙģ ÙĤØ¯
k je
Ġserv icios
Ġd entro
ĠsjÃ¤l v
ĠÏĥ Î®Î¼ÎµÏģÎ±
áĢĶ áĢ²áĢ·
Ġáĥ£áĥ Ľ
Ġà®ļ à®¿à®²
Ġlo g
Ġnos so
Ø² Ø¨
Ġr it
ĠÙħ Ùĥ
he ds
Ġàª¤à«įàª¯ àª¾àª°à«ĩ
ĠA B
ĠÏĢ Î»Î±
Ġint r
ĠâĢĻ âĢĻ
èĩª åĪĨ
l le
Õ¡Õ °
à¶ ¸
Ġà®ª à®¿à®±
Ġke p
×ķ×¨ ×ļ
ĠÐ½Ðµ Ð¾Ð±
Äĥs Äĥr
ĠÑĤ Ð¾Ð¹
äºº ãģĮ
ĠÐ½ ÐµÐ³Ð¾
b ide
w ania
ar is
Ã¡ cia
ĠÏĢ ÎŃ
à¥Ģ à¤°
Ġloc ation
Ġentrepr ise
ìĻ¸ êµŃìĿ¸
Ãºm ero
Ġà¦Ĺ à¦¤
ĠâĻ ª
ck hol
Î´ ÏģÎ¿
íĶ Į
ing i
ĠÙħØŃØµÙĪÙĦ Ø§Øª
Ð°ÐµÑĤ Ðµ
ĠÐ³Ð¾ÑĢÐ¾Ð´ Ð°
Ġtar get
atÃ¼r lich
Ġà®ĩà®¨à¯įà®¤ à®¿à®¯
ĠëķĮ ë¬¸
ĻáĢº áĢ¬áĢ¸
ķ é±¼
Ġ201 0
Ġà´¤ àµįà´¤
ÃŃ lia
Ġmar rÃ«
à¤¿à¤ ·
Ġà¦¸ à§ĩ
ĠSt and
ÑıÑĤ Ð°
ĠÙĪØ£ ÙĨ
Ġsv Ã©
ĠØ§ÙĦØ® Ø§ØµØ©
os yal
\ /
Ø§Ø¹ Ø¨
lar Ä±nda
Ø§Ùĩ Ø¯Ø©
Ġg Ã¥ng
ãģ¸ ãģ®
Ġìŀ ĺ
ĠÑģÐ²Ð¾ ÐµÐ¹
Ġ×ł ×©
ãĤ¤ ãĤ¹
×Ļ×¨ ×ª
Ġà¤Ĩ à¤µ
ÑĥÐ¶ Ð´
Ġdah il
ĠÐ¿ÑĸÐ´ Ð¿ÑĢÐ¸ÑĶÐ¼
Ð¸ÑĤ Ñĭ
Ġf ig
ãģ¨ è¨Ģ
Ġgro ot
Ġm ut
Ġv in
Ġtr att
Ġvu od
ĠÐ¼ÐµÑģÑĤ Ð¾
ge ben
ĠR Ã¼ck
Ġæµ ·
ĠN acional
Ġà¦ªà§įà¦°à¦ķ à¦¾à¦¶
Ġà¦ķ à¦²
ÑģÐº Ðµ
iÃªn cia
Ġb Äĵr
Ġmem ang
ĠSex uale
ĠÑĤÑĢÐµÐ± Ð°
ãĤ ¼
Ġad ik
Ġmateri als
ĠD amen
Ġy Ã¼ksek
Ġest ud
ik ko
Ġpagg amot
Ġatt ravers
Ġv n
Ġsu i
ild ir
ĠÑģÑĤÐ² Ð¾ÑĢ
ĠG ro
Ġrec ent
Ġw ake
ÃŃ veis
Ġáĥł áĥĶ
ĠtÉĻ ÅŁ
à®¾à® Ļà¯įà®ķ
Ġï¼ Ĵ
åħ °
ĠØ¢ Ø´
Ġwe ight
ĠÐ´ÑĸÑı Ð»ÑĮ
æĹ ı
Ġag li
Ġkh ÃŃ
ļ áĢ°
ĠØ§ÙĦ ÙģØª
à© ĭ
Ġà¦¨ à¦¿à§Ł
ĠÙĪØ§ØŃ Ø¯
sz ak
à¦°à§įà¦ ķ
Ġris ult
Ġz ar
ĠÐ¿Ð¾ÑĤÑĢ ÐµÐ±
Ġp iem
Ġà¤ļ à¤²
éĵ ģ
ĠÂ ©
Ġpurch ase
Ġn atuur
åı Ī
Ġ Ã¡p
ĠÐ´ÐµÐ½ÑĮ Ð³Ð¸
ĠÐ² Ð¾ÑģÐ¿
Î¶ ÏĮ
ĠÐ²ÑĸÐ´ Ð±
Ġprodu ction
ÐµÐ½ ÐµÑĢ
àµģà´ ªàµįà´ª
Ð½Ð¸ ÑĨÐ¸
[ ]
ĠP as
ÙĪÛĮ Øª
Ġj ul
Ġh á»¯u
Ġ' ,
ill er
Ã´ le
çŃ ĸ
Ġ áº¥y
Ġk jo
ĠÐ¿ ÑĸÑģÐ»Ñı
ĠÂ ¢
Ġo se
ied z
ov en
ÏĢ Î±Î¹
à¯ģà®³ à¯į
Ġweek s
ung g
Ġ á»
ĠÐ¿ÑĢÐµÐ´ Ð¸
ĠSp ort
Ø± ÙĬØ©
Ġs lu
Ġt im
Ġli ik
Ġ×ĳ ×Ļ×ķ×ª×¨
ĠÃľ n
Ġq verpgbel
en en
r Ã³n
Ġdies en
ĠÑĤ ÑıÑħ
us us
ëŀ Ģ
Ġmateri al
ĠØ¹Ùħ ÙĪÙħÛĮ
Ġm az
áĥĶáĥ £áĥļ
Ġinclud ed
ĠÑĤ Ð¸
Ġse ll
çī Ľ
Ħ à¸£à¸±à¸ļ
ĠÐ¤ ÐµÐ´ÐµÑĢ
Ġel la
Ġspe ed
Ġber t
Ġprem iÃ¨re
Ġterj adi
Ð°ÐºÑģ Ð¸Ð¼
bor g
Ġ. )
Ġag ora
Ġsa ab
Ġluc r
ĠæĹ ł
ĠvÃ¤ ga
Ġéķ ·
Ø¶ Ùħ
ific aciÃ³n
ht u
Ġt ÃŃm
lÃ¼ ÄŁ
Ġà¤¸ à¤¿à¤Ĥ
Ġsv ilu
Ġz ij
ÑİÐ² Ð°Ð½Ð½Ñı
Ð»Ð°ÑĢ Ð³Ð°
ĠÐĽ Ñİ
Ġà®ķà¯Ĥ à®Ł
ĠÙ¾Ø±Ø¯ Ø§Ø®Øª
à¹Ģà¸ Ĭ
Ð¸Ñı ÑĤÐ¸
Ġx a
an nya
ĠÏĮ ÏĩÎ¹
à¦¬ à§ĩà¦¨
Ġin izi
Ġ×ł ×Ľ
Ġm Ã¤n
å¥³ æĢ§
Ð°Ð» Ð°ÑģÑĮ
ãģĿ ãĤĮ
Ġan lam
ĠÐ´Ð² ÑĥÑħ
r um
Ġabbi amo
res se
áĢķ áĢ±áĢ¸áĢ
Ġ×Ĳ ×©×¨
ï »¿
à¥ī à¤²
ĠSver ige
Ġbes ten
éĽĨåĽ¢ å®ĺç½ĳ
Ġh áº¡n
Ġk iá»ĥm
Ð¼Ð¾ÑĤÑĢ ÐµÑĤÑĮ
er im
Ġer ab
à¤°à¥įà¤ £
Ġthu á»ĳc
ul es
å® ħ
à®¿à®© à¯įà®©
ĠPr aha
Ġexp ress
Ġto ld
×¡ ×ĺ
Ġm áº¥t
Ġà¤Ĩ à¤¦
Ġd onn
Ġt ych
v ier
ici as
×¦ ×ķ×¢
Ġ ãģĻ
f Ã¼r
cz ki
ãģĵãģ¨ ãģ§
Ġac cept
dit ions
Ġm Ã¤Ã¤r
ĠÐ² Ð¾Ð¹
à¤¹ à¤°
c rib
ĠÐ¼Ð½Ð¾Ð³ Ñĥ
Ġè ©
Ġaf in
ti i
Ø±ÙĬ Ùģ
ĠÐ·Ð°Ð² Ð¸Ñģ
Ø±ÙĪ Úº
ĠÙħØ§ÙĨ ÙĨØ¯
Ġse telah
ÑĥÐ² Ð°Ð²
jÄħ cy
Ġla b
Ġdis se
ĠÐ¾Ð±Ð¾ÑĢ ÑĥÐ´
àª¾àª ı
ĠØ§ÙĦØª ÙĤ
Ġcs al
Ġgro te
Ġber h
h ib
Ġb onne
ĠÐ²ÑĭÐ¿ Ð¾Ð»Ð½
ÑĢÑĭ Ð¼
ĠØ§ÙĦØªØ¹ ÙĦÙĬÙħ
6 0
R I
Ġáĥ¡áĥĲáĥ ĺ
ain es
Ġpers onne
ÑĸÐ» Ñĸ
Ġta o
à¤¾à¤ ī
ÙĪÙĨ Ø©
ĠV e
ĠÙĪØ§ÙĦ ØªÙĬ
sk er
Ġs ij
ãģ« è¡Į
Ġom dÃ¶
ãĤī ãģªãģĦ
à«Ģàª §
j Ã¤n
z ik
Ġv iesnÄ«
Ġgr ad
áĢ±áĢĲáĢ¼ áĢĢáĢŃáĢ¯
Ġà¦¤ à¦¾à¦ģ
ĠáĥĻ áĥĲáĥłáĥĴ
Ġk re
ĠØ¨Ø± ÚĨØ³Ø¨
ìł Ī
Ġ×ª ×©
ä¾ Ŀ
åĸ ¶
ĠÐ¼ Ð°Ñģ
áĢĲáĢ¹áĢ ŀ
Ġs ven
Ġprovid ing
ÙĪ ÛĮÙĨ
à¹Īà¸²à¸ ¢
å¨ ģ
ĠÐ´ Ð¾Ð´
ĠÐ±ÑŀÐ» Ð³Ð°Ð½
à¶ ļ
yak it
å·ŀ æīĳåħĭ
Ú© Ø§Ø±ÛĮ
Ã¨ te
ĠM ore
ish ing
ug no
ĠØ§ÙĦØ¥ ÙĨØ³
Ġo ts
Ġdej ting
Ġm ily
Ñĩ ÐµÑĤ
ë³ ´ë
ys is
èī º
Ġpel ÃŃcul
Ġà¦ķ à¦¿
ier i
×ĸ ×ķ×¨
ĠÐ¾Ñģ ÑĥÑīÐµÑģÑĤÐ²
mo q
Ġprogram s
ĠÙħÙĤ Ø§ÙĦÙĩ
ĠBund es
ĠØ³ Ø§Ùħ
Ġlang u
con Ã³m
Ġbo ard
ÙĬ Ø§Ø±
àª¾àª Ł
ig ing
Ð° ÑĦ
à¥įà¤¯ à¤¾à¤¸
al iteit
ĠI I
Ġà®ķ à®µ
Ġconst ru
ĠApr il
ĠØ§ÙĦØ´ Ø±
Ġequ ipment
à°¿à° ·
Ġnh u
u Ã§Ã£o
Ġì§ ĳ
Ġà®ķ à¯ģà®Ł
àª¾àª£ à«Ģ
ÑĪ Ñĩ
æ´» åĬ¨
àµĢ à´ķà´°
is inde
Ġpers ones
Ġáĥ¨áĥĶ áĥĺáĥ«áĥļ
ł áł
Ã¼k sÃ©g
Ã¼ gy
Ð°Ð¶ Ð°
Ġáĥ§ áĥĿáĥķ
ĠØ¹ÙĨØ¯ ÙħØ§
k od
×Ļ×ł ×ª
Ø§Ø® ØªÙĩ
à®° à¯įà®µ
he ad
à§ģ à¦Ł
ar zy
Ġintern ational
Ġszem Ã©ly
Ð°ÑĢ Ð¾Ð´
Ġj Ã¡r
ĠÕ ½
Ø· Ø¨
Ġm iel
av ing
an ud
Ġco a
ĠprÃ³ x
us ch
v Ã¡ny
áĥĿáĥľ áĥĺáĥ¡
áĢ±áĢ »áĢģ
Ġpal vel
Ġto e
Ã¸ de
ÐµÐ½ÑĤ Ð¸
Ġéĩį åºĨæĹ¶æĹ¶å½©
Ø§Ùĩ Ùħ
à®¿à®Ł à®®à¯į
çķ Ļ
Ġ à¹Ħà¸
ĠK ung
Ġcomput er
ĠÎ±Ïħ ÏĦÎ¬
Ġdis p
ĠÐ² Ð»Ð°Ñģ
Ġr ound
Ġc olo
Ø§Ø¦ Ùħ
ĠÐ¿ÑĢ Ð¾Ñĩ
ĠØ§ÙĦØ« Ø§ÙĨÙĬ
Ã¡j em
Ð¸Ð½ Ð°ÑĤÐ°
Ġ4 8
áĥĺáĥ¢ áĥĶáĥ¢
ĠBer lin
r ado
on da
ÙĦ ÙħØ§ÙĨ
Ø²Ø§Ø± Øª
Ġm ata
Ġprod otti
Ġin ve
owan a
áĢľ áĢŃáĢ¯áĢ·
Ð°Ð½ Ð¸Ñİ
à¨ ¤
or ul
ĠÐ³ÑĢ Ð°Ð¶Ð´Ð°Ð½
à¥ĩ à¤®
Ġsein er
Ġpu tea
à®² à®ķ
ĠA ustr
×ĵ ×ª
ĠÐŁÑĢ Ð°Ð²
Īà¸ °à¹Ģà¸
Ä« k
Ġseg Ãºn
Ġç Ń
Ġegy ik
Ġnecess ary
Ġm ientras
ĠS Äĥ
áĢħ áĢ®
áĥĶáĥĳ áĥĹ
ĠSt ates
ĠÐ¿ Ð°Ñģ
ĠáĥĻáĥĿáĥĽ áĥŀ
ĠÎ² ÏģÎ¯
nÃŃ k
àª¾àª ī
à±Ģ à°¯
Ùħ ÙĨØ¯
ĠÙĤ Ø¯Ø±
ÏĢ ÏĦÏħ
ìĦ¸ ìļĶ
ãģĶãģĸ ãģĦãģ¾ãģĻ
hl t
Ġren de
ĠÙ¾ÛĮ Ø§Ùħ
Ġein mal
ĠÐ¿ÑĢ ÑıÐ¼
t te
Ġbr asile
Ġç Ģ
Ġl idt
Ġm á»Ł
ÄĽ st
à¸£à¸µà¸ §à¸´à¸
Ã¸ m
Ġme ine
ĠÙĩ ÙģØªÙĩ
Ð» ÑĸÐ²
Ġcomp let
Ġann oun
Ġkel uar
ĠÑĢÐ¾Ð·Ð² Ð¸ÑĤ
ĠÛ±Û ²
Îº Î·ÏĤ
Ġbel um
Ġà¦ĩ à¦¸à¦²
ĠÑĪÐº Ð¾Ð»
áĥĲáĥłáĥ Ļ
ĠìķĦ ìĿ´
Ġ×ĸ ×Ĳ×ª
à°¾à° ¹
ĠÐļ Ð¾ÑĢ
ĠM ost
g ot
Äĵ ta
ÙĪ Ø§Ø¡
enn us
Ġx Ã¡c
ĠÐ²Ñĭ ÑħÐ¾Ð´
Ã¤ st
å¼Ģå¥ĸ ç»ĵæŀľ
Ã¤h Ã¤n
Ġ×© ×Ŀ
ĠÙħ Ø§ÙĦÛĮ
Ġh Ã¸y
Ġà¦Ĩ à¦¦
ven ir
Ð°Ð½ Ð³
ĠÐ½Ð°ÑģÑĤ Ð¾ÑıÑī
Ġà®ª à®ķ
Ø¹ Ø§Ø¯Ø©
Ġdup a
Ġåı ª
Ġsem ana
àª Ŀ
Ġv ard
at ica
å¾ ħ
Ġres te
Ġy en
åħ »
×ķ×¨ ×¡
à¥įà¤ ļ
Ġcon ditions
g if
Ġho ch
æ¯ ı
Ġfl ow
Ġr Ã¤tt
Ġm am
Ġserv izio
ĠØ¶ Ø±
Ġad ire
.. .
łà¸²à¸ ŀ
Ġl Ã¤ng
amb ar
Ġàª¹ àªµà«ĩ
ĠS Ã¥
Ġes k
3 4
£ Į
Ġh ang
Ø® Ø´
un der
áĢĶáĢ¹áĢ ľ
áĥĵ áĥĶáĥ¡
Ġmed ical
Ġcost s
Ġãĥ ¯
ĠÐ¿Ð¾Ðº Ð°Ð·
ĠáĥĲáĥķ áĥ¢
ãĢ Ĭ
ĠÙĪÛĮ ÚĺÙĩ
ĠØ´ÙĪØ± Ø§ÛĮ
Ġit t
Ġpi Ã¨
ãĥĸ ãĥ«
ĠÐ·Ð°Ðº Ð°Ð·
ÙĥØª ÙĪØ±
Ġ×ŀ×Ĺ×Ļ×¨ ×ķ×Ł
ë¦ ī
Ġ×ł ×¢
à® ·
ĠØ¯ÙĪ Ø³Øª
ÙĪØ³ Ø·
ĠThank s
ĠÙħ Ú©
Ġbl ive
w ikk
ĠÑģÑĤÑĢÐ¾ Ð¸ÑĤÐµÐ»ÑĮ
èĸ ¬
à¥įà¤ ¬
Ġtr áº£
Ð¾Ð´ Ðµ
ÙĪ Ø§Ø±Ùĩ
ĠkÃµ r
ur Ã³
Ġä¸ »
è´ ¢
ĠáĢħ áĢħáĢ¹áĢ
Ġ×ŀ×Ĳ ×ķ×ĵ
ien za
Ð» Ñĭ
y pe
Ġcent er
gen de
ĠÙħÙĨ Ùĩ
ÑĸÐ» ÑĮÐº
ĠÐ» ÐµÑĩ
for der
o ÅĽci
Ð°Ð² Ð°ÑĤ
al de
ĠÙĪ Ø²Ø§Ø±Øª
g u
ī ´
Ġdes t
ÐµÑĤ Ð¸
Ġsh op
ĠSe p
ĠL Ã¤s
Ġa vere
à®² à¯įà®µ
áĢŁ áĢ¯
p ovÄĽ
ë° °
er mek
Ġto wn
áĥĹ áĥ®áĥķ
lar asjon
ĠØ§ÙĦØ±Ø¦ÙĬØ³ ÙĬØ©
ì½ľê±¸ ìĥµ
al nya
áĥĲáĥĵ áĥĺ
ĠÙħØ¯ ÙĬÙĨØ©
h us
Ã¶l t
ver k
ĠÙħØ³Ø¦ ÙĪÙĦ
Ġà´ķ à´¾à´£
Ã©s ek
ĠÄĳ áº§y
à¦ ĥ
ãĥ ´
ä¾ ĭ
alt ung
b ab
Ġs lik
ib il
à¦¾à¦ ł
Ġå ķ
ĠThe n
ï¼ Ķ
ĠÎŃ Î½
åĦ ª
íĸ ¥
ĠÐ¡Ð Ĭ
ĠíĨµ íķ´
ĠÎĶ Î¹
Ġb Ãł
Ġind ic
Ġeff et
Ġver b
à¹Ģà¸ Ľà¹ĩà¸Ļ
Ġter hadap
×Ļ×ľ ×ķ×ª
ÙĪ Ø§Ø¬
ĠíĻ ľ
Ġc á»±c
Ġst os
ĠÐ´ Ð²Ð°
ĠÙħØ¹ Ø±ÙģÛĮ
çłĶ ç©¶
Ġc Ã¢y
d as
Ġnaj lep
Ġpat ients
Ø¹ ÙĬØ¯
Ġj un
on ych
ĠáĢ ĲáĢ¬
Ġs ens
Ġå¼ ł
izza zione
Ġsum mer
ÙĬ ÙĬ
ĠA ÄŁ
Ġpor te
ĠØŃ ØªÛĮ
à°ķ à±įà°¤
Îķ Î¤
Ġh om
ĠD on
Ġtan pa
ĠÐ¼ Ð¾Ð»
áĢ¼ áĢļáĢ¹áĢ
ĠK ami
Ġcent ro
ÙĦÙĬ Ø§Øª
à°µ à°°
Å¡ÃŃ m
Ġ 88
ĠåĴ Į
Ġè ģ
Ġden na
ant z
Ġkuto ka
Ġme llom
ar ul
×ķ ×ķ×Ķ
ĠK Ã¶z
Ġs ort
áĥĲáĥĽáĥĵ áĥĶ
Ġsit em
Ãł m
à© ±
Ġà°µ à±Ī
Ġb ahan
ĠØ§ÙĦØ§ÙĨ Øª
ĠBr atis
ir ket
Ġh Ã¸j
Ð Ń
Ġhyv in
Ġt Ã¼r
ÐµÐ½ Ð½ÑĭÐ¼
lar la
ĠÐ¾ ÑģÑĤÐ°Ð²
ÏĢ ÏĦ
Ħ à¸Ļ
Ġcon c
Ġda zu
ç Ĩ
ĠA ir
ãĥĹ ãĥŃ
ÃŃ cio
Ġace asta
Ð´Ð°ÑģÐ´Ð°Ñģ Ð´Ð°ÑģÐ´Ð°Ñģ
Ùİ Ø¯
ĠSch ul
Ġter ms
Ġdi ri
ĠÙ¾ ÙĨ
Ø³ÙĬ Ø·
á½ ¶
Ġin ten
ĠU K
Ġof ere
Ġf Äĥ
áĢĽ áĢ±áĢ¸áĢ
ØŃ ÙĤ
Ġprocess o
ch s
ĠY A
Ġd w
ĠØ§Ø³ Ùħ
Ġany one
Ġfors ke
dek larasjon
Ġs ÃŃ
Ġ×Ĳ ×ļ
Ġk iin
ĠÐłÐ¾ÑģÑģ Ð¸Ð¹
y ang
ĠÃ¶ zellik
ten i
ĠáĥĲáĥ® áĥĲáĥļáĥĺ
ĠÐº Ð¾Ð³Ð°ÑĤÐ¾
ĠÃ¼ st
f u
ig es
v Åĳ
Ġ×ŀ× ŀ
Ð¸ÑĢÐ¾Ð²Ð°Ð½ Ð¸Ðµ
æĸĩ åĮĸ
Ġdi m
Ġja un
ĠD in
ÙĦØ§ Ùĭ
Ġ= "
Ġket ika
ĠØŃÙĪØ² Ùĩ
Ð¸ÑģÑĤ ÑĢ
àª ł
ĠæĪ Ĳ
×¨ ×§
Ġà¦¬à¦Ľ à¦°
åī ¯
Ġproces o
m m
ĠíĻ ĺ
ver o
Ïĩ Ïī
ĠÑĢ Ð°Ð±Ð¾Ñĩ
ideoc lipuri
k r
Ġc Æ°
ãĤ¤ ãĥ¤
Ġlook s
Ġjo bb
ĠÄĳ Ãºng
Ġ äºĶ
Ã¦n d
Ġmom ent
Ġàª¬ à«Ģàªľ
Ġh acia
ĠáĥĶ áĥļ
áĥĺáĥĵ áĥĲ
ÙĦÙħ Ø©
Ġìĸ´ë ĸ
Ġku iten
ĠØ¯ Ø®
Ġà§ ¬
Ġc Ã¡o
ľ ëĵľ
Ġcas ino
ĠÐ¼ Ð¾Ð»Ð¾Ð´
Ġtool s
Ġiz ango
± Ħ
ĠØ¢ Øº
ÑĶ Ñİ
ce ed
Ã©r ation
ãģ£ãģ¦ ãģĦãģ¾ãģĻ
Ġà¸ ¡
ĠGen el
Ġà¤®à¥įà¤¹ à¤£
ĠRomÃ¢n ia
ĠÐ¦ Ðµ
ull en
Ġsc el
à¤¾à¤Ĥà¤ļ à¥įà¤¯à¤¾
ĠÐ¿ ÐµÑģ
×¦ ×ľ
Ġc ï¼Ĳ
Ġq ur
à¤¾à¤ļ à¥įà¤¯à¤¾
ter dam
Ġpr Å¯
± áĢĢáĢº
aar t
Ġappro ach
ad ors
Ġãĥ ĵ
×Ľ ×Ł
Ġà®® à¯ģà®±
Ġu ang
ÄĽ nÃŃ
Ġf emme
ĠÃ¡ rea
áģ¼ áĢº
Ã³ z
ig ent
Ġv ÄĽt
er ah
Ġà´ªàµĭ à´²
ĠOs lo
åķı é¡Į
ĠÑģ Ð¸ÑĤÑĥ
ĠÐ·Ð´ Ð¾ÑĢÐ¾Ð²
Ġmet tre
ĠÑģÐ²Ð¾ Ð¸
àµģà´® à´¾à´¯à´¿
car gar
amb il
ç¼ ĸ
ĠáĢĢ áģ½
Ġ×©×ľ ×Ķ
ĠáĥĹ áĥĲáĥĽ
Ġàªľ àª£
à´µ à´¿à´
al itas
Ġà°² à±ĩà°¦
ĠW est
ĠØ§ÙĦØ¬ Ùĩ
æŃ ¢
ĠP utas
ĠÐ¿Ð¾Ð² ÑĭÑĪ
į ¼
áĥĶáĥľ áĥĺ
ĠÅ »
à®¿à®ļ à¯įà®ļ
Ð¸ÑĢ Ð¸ÑĪ
à´¾à´Ł àµįà´Ł
áĢ±áĢķ áģļ
re ichen
áĢĦáĢ¹áĢ Ĳ
àµĭ à´¦
Ġ à¹ĥà¸Ļà¸
Ñĥ ÑĨÑĮ
È ĺ
Ġc ier
áĥĿáĥĳ áĥĺáĥĹ
Ġà°Ĩ à°¯
ĠÄĳ áº¥u
Ġm ille
×ŀ× Ĺ
Ġt ÉĻs
he m
áĥĶáĥ ¨
Ĺ à¸£à¸
à«ĩàªµ àª¾
ed s
Ġà¦¬ à¦¾à¦¸
Î» Î¹Îº
Ġet m
×Ļ×ľ ×Ļ×Ŀ
ĠÐ½Ð°Ð· Ð²
áĢŃáĢ¯áĢĦáĢº áĢĦáĢ¶
ĠØ¹ Ø¶
Î¹ ÏİÎ½
×ķ×ĵ ×Ķ
ç© į
ĠìĿ´ ìļ©
ĠV ocÃª
am Ä±
Ġv ost
ĠØ§ÙģØ² ÙĪØ¯
ĠØ¯ Ûģ
ro p
Ġcele br
Ġsul le
Ġà¸ ¥à¸
Ì ĥ
ĠK le
à¤µ à¤¨
ov anie
ĠÛ ·
çº¿ ä¸Ĭ
ĠÙĩØ§ÛĮ ÛĮ
ĠÐ¿Ð¾Ð² ÑĸÐ´Ð¾Ð¼
ien ne
ĠÙĥ ÙĨØª
ĠÃ©c onom
ĠS au
Ġngh i
ĠB en
ĠÐ²Ð¾Ð·Ð¼Ð¾Ð¶ Ð½Ð¾ÑģÑĤÑĮ
ãĥ¼ãĤ« ãĥ¼
Ġmemb antu
Ġà¦¨à¦¿à¦°à§įà¦¬ à¦¾à¦ļ
Ġmas yarakat
Ġà¦ª à§Ĥ
Ġ" ØĮ
Ġsp r
ĠD oor
ÑģÑĤ Ð°Ð½Ð¾Ð²
ĠÑĸ Ñħ
Ġí ĳľ
áº ¢
Ġ×Ļ ×¢
áĥĿáĥĳ áĥļ
ĠÎ³Î¹Î± ÏĦÎ¯
ĠÐ¿Ð» Ð¾Ñī
Ġqu ali
ime ve
h un
Õ £
Ġab ility
§ à¸Ļ
ĠÐłÑķ Ðł
Ġm io
Ġdifer entes
Ġdost ÄĻp
Ġast fel
ãģĹãģ¾ ãģĨ
Ġop iniones
ãģª ãģŁ
Ġv ak
Ð°Ð² Ð°Ð½Ðµ
osi zione
Ġk endi
ber e
ĠIn st
Ġà¸ Ĭ
as cÄĥ
Ġg dzie
ê¹ Ģ
ÙĨØ¯ Ú¯Ø§ÙĨ
jÄħc ych
Ã¤ d
ĠÐºÐ°ÑĩÐµÑģÑĤÐ² Ðµ
Ġimm ag
è³ ¼åħ¥
é¦Ļ èķī
b es
iyor uz
ĠA c
ie me
Ġnot hing
å° Ĥ
Ð»ÐµÐ½ Ð¸Ð¸
Ġca use
ĠÐ¸Ð³ ÑĢÐ¾Ð²
ĠÂ ¯
àª¤ à«įàª¯
å¸ «
ĠÐ½ ÐµÐ·
Ġs Ä±k
ÑĸÐ¹ Ñģ
ĠãģĿ ãģĹãģ¦
Ġq ÉĻd
C H
Ã¼ tt
Ä±lm asÄ±
Ġte ÅŁ
åİ ĭ
ĠÐĲ ÐºÐ¾
Ġto ch
Ġnos s
àª¨à«įàª ¡
Ġà¸ Īà¸²à¸ģ
Ġà¤µ à¥ĩ
o id
ÏĢÎ¿Î¹ Î®
ĠéĢ ļ
ĠM un
ĠÎ² Î¿
à«įàª ¦
áĥĿáĥ ¥
å± ħ
Ġh á»Ĺ
lig i
Ġcir ca
Ġint rodu
Ġç ¦
Ġà¦ħà¦Ń à¦¿à¦
Æ ¯
ĠA kt
Ġdis play
Ġ. -
ï¼ ¿
ÄĥsÄĥr icÄĥ
ÑĪ Ð¸Ðµ
Ġa che
íħ Į
ÏĨ Î¬Î»
Ġà¸ Ľà¸£à¸°à¸
Ð°ÑĤÐµÐ» Ð¸
Ġe e
ive ly
Å¡an ai
Ġdi gunakan
er ar
amis eks
ĠÄģ r
Ġà¦ıà¦® à¦¨
Ġkit chen
ÐµÐ½ Ð·
Ġha ir
Ġwork ed
ÙĪØ± ÙĬØ§
èĩ ´
ĠÎķ ÎĽ
Ġrec ently
za ile
Ġàªľ à«ĩàª®
Ġlead ing
ĠM c
ĠÎĳ Îł
ĠÙĦ Ø§Ø²Ùħ
Ġíİ ¸
à°¿à° ľ
áĥĹ áĥĲáĥķ
st u
Ġëł Ī
nÄĽ nÃŃ
ĠÙĤ Ø¨
Ġ... .
Ġdiff icult
Ġout ro
hn ed
si Ã³
Ġ×Ķ×Ĳ ×Ŀ
Ġho og
ĠdoÄŁ ru
Ġag re
ian co
à®¿à®Łà¯įà®Ł à¯ģ
Ġì ´Ŀ
Ġàªķ à«ĭ
Ġà¦¬ à§ĥ
è¯ ¥
Ġdis a
Ġmar s
Ġæľ Ī
Ġà¦Ł à§įà¦°
Ġb ath
Ġserv izi
Ä° Y
Ġde ep
ar ÃŃa
T ype
áĥĹáĥ®áĥķ áĥĶáĥķ
ĠO f
Ġà¦¦ à§ĩà§Ł
ĠÏĢÎ± ÏģÎ¿Ïħ
äº ²
ĠÐļ Ð°ÑĢ
Ġà¦¬à¦¿à¦ ¦
Ġ×© ×Ļ×©
Ø¯ ÙħØ©
ĠW ind
ļ áĢ¬áĢĢáĢ¹áĢ
p as
Ġor i
Ïģ Î¿ÏħÏĤ
ĠÛ° Û°Û°
×Ľ ×Ķ
ĠÐĿ Ð°Ð¿
oor t
pl ikasi
ĠáĥĴ áĥĲáĥ¡
ÙĦÙĥ Ø©
aj ar
à¸Ļà¸± à¹īà¸Ļ
ĠÑĤÐµÑħÐ½ Ð¾Ð»Ð¾Ð³
ĠÙħØ±Ú© Ø²
Ð¾Ð¹ Ð´
ĠÐ¡ Ð²
Ã¤ uf
Ġcomp aÃ±
çĶµ åŃĲ
Ñĸ Ñĸ
ĠN Ã¤r
Ġber main
3 5
Ú© Ø§
Ġí Ĵ
Øª ÙĪØ±
Õ¡Õ ¬
ĠÐĿ Ð¸Ðº
Ġæĸ ĩ
áĥłáĥ£áĥ ľ
Ġkad Ä±n
ĠÎ¬ ÏģÎ¸
ed or
áĢĦáĢ¹áĢ Ģ
ĠáĥĴ áĥĲáĥ®
Ġal Ã©m
Ġcu is
ĠJ os
Ġëĵ ľ
èĻ İ
ĠìĪ ľ
ĠÑĢÐ°Ð· Ð¼
áĢĲáĢ²áĢ· áĢ¡
ĠÐ² Ð¼ÐµÑģÑĤ
et as
ĠáĢĢ áĢ¯
Ġjot ka
ãĤ¯ ãĥĪ
ĠÐ¿Ð¾Ð» Ð¸ÑĤ
ĠÐº ÑĢÐ°ÑĹ
Ġpres so
ªà¸ ±à¸
ĠKh i
ĠMÃ© xico
am ment
æ² ¹
ĠÄ ĵ
ĠÕ ¾
Ġprz ek
Ġnuest ros
Ð¾ÑģÑĤ Ð¾
Ġíĥ ľ
Ġcon dition
ĠØ§Ø³ Ø§Ø³
Ġ äºĨ
ĠW ij
à°¾à°² à°¿
ÃŃ ce
Ġì¦ Ŀ
ĠÎ¼ ÏĢ
à±Ģ à°ª
Ġsol ution
ĠL u
ĠÙĨ Ø¬
ĠH ol
à¦¾à¦² à§ĩà¦°
Ġmed i
ĠN ero
à´¨àµįà´¤ àµįà´¯
Ġaf fect
ĠF amil
E M
àµįà´ §
ĠÑĥÐ´ Ð¾Ð±
Ġbu ena
ĠÐ¿ÑĢÐ¾ÑĦÐµÑģÑģ Ð¸Ð¾Ð½
Ġp áº¹lu
ÐºÐ¾ Ñİ
Ġà¤¶ à¥ģà¤°
ìľ¼ ë©°
Ġjen is
ãĤı ãģĳ
ĠØ§ÙĦØ£ ÙħØ±
åĲĪ ä½ľ
à¹ģ à¸Ļ
ĠT ak
ĠØ§ÙĦØ£ ÙĨ
Ġm ies
ãģ«ãĤĪ ãģ£ãģ¦
ĠÃ¶s sz
Ġg Ã³
Ġne go
at ors
Ġtrab all
ĠØ²Ùħ ÛĮÙĨÙĩ
ĠÐ¡Ð¾ÑĦ Ð¸Ñı
Ġs ang
Ġ×Ķ×ĸ ×Ķ
ĠAI J
ĠN r
ĠÐ´ ÑĸÑĤ
icz ne
ĠØ¯Ú© ØªØ±
ĠÐ¿ÑĢÐ¾Ð´ Ð¾Ð»Ð¶
ĠInform ationen
Ġp Ã©n
ĠØ§Ø± Øª
ĠUn t
à´¿à´ Ĥ
ĠÑĤÐ¾ÑĢ Ð³
à°¿à° ļ
Ġb ang
Ġà¦ķà§ĭà¦¨ à§ĭ
Ġt ÉĻm
Ġiz le
Ġdes tek
ĠH vis
Ġà¹ģà¸ ķà¹Īà¸
ĠÑĢÐ¾ÑģÑģ Ð¸Ð¹
à´¾à´ ¶
àªĤàª¤ à«ģ
Ø³ Ù¹
Ð Ĥ
ä¿ Ĥ
Ġhe ar
áĥĶáĥłáĥ ĵ
Ġold al
Ġel es
Ġ×Ļ ×Ĺ
ĠØ¬ ÙĨÚ¯
Ġrend el
à¸²à¸ªà¸´ à¹Ĥà¸Ļ
n te
Ġcon v
s ke
Ġnog le
ĠÎł ÏģÏĮ
Ġ4 5
à¸£à¸°à¸ ļà¸
ĠHo ch
Î²Î¬ ÏĥÏĦÎµ
ĠCent er
à« ī
Ġà° §
×¨ ×¡
Ġc_ is
Ġc_is brand
Ðµ Ò³
Ġà¹Ģà¸§à¹ĩà¸ ļ
Ġgru po
da j
are kin
à¦¬ à§įà¦¯
Ġtr anh
Ġal att
Ð½Ð¾ Ñģ
z io
ĠÙ¾ ÙĦ
Ġà´ª àµĬ
Ġà®İ à®²à¯įà®²
â ķ
áĥ¬ áĥ§
Ġcoup le
ĠÐ² Ð¸Ð¼
ĠØ§ÙĦØ¯ ÙĬÙĨ
Ġhe la
ĠÐ´ÑĢÑĥÐ³ Ð¸Ðµ
áĥĲáĥ¬ áĥĺáĥļ
nis se
è ¬
Ġb ay
íķĺ ëĭ¤
Ø§Ùħ ÛĮÙĨ
to bre
Ġstud ent
Ã¶y Ã¼k
Ð¸Ñħ Ð°
r ice
ĠgÅĤ Ã³w
ĠáĢĺ áĢ¯áĢĽ
×Ļ×ĵ ×Ķ
ĠZ e
ĠØ³ ÛĮÙĨ
ÙĤØ¯ ÙĬÙħ
Ġà´Ĩ à´°
ŀ à¸£
ĠÑģÑĬ Ñī
ĠÐµ Ð¼Ñĥ
Î³Î³ ÎµÎ»
Ġkal au
åĲ ĥ
Ġs ong
Ġis mer
Ġos p
ØŃ ÙĦØ©
ÅĻe ba
ra j
Ġ, .
áĢ¸áĢ ķáĢ«
Ġg Ã¥
Ġáĥ¨áĥĶáĥĺáĥ«áĥļ áĥĶáĥĳáĥĲ
Ġm ij
áĢ½ áĢ±
Ġseem s
ĠT Ã´i
Ġká» ¹
ãĥ¼ãĤ· ãĥ§ãĥ³
ĠÂ ª
×Ļ×Ľ ×Ķ
Ġwe es
Î½Î¿Î½ ÏĦÎ±Î¹
å¾ Ģ
Ġà®® à®Łà¯įà®Ł
Ġat ual
Ð¾Ð» Ðº
Ġb ajo
Ġm 2
Ġto ll
Ñĭ ÑĨÑĮ
ĠáĥĲáĥ¥ áĥķáĥ¡
ĠÐ±ÐµÐ· Ð¾Ð¿Ð°Ñģ
Ġt Æ°Æ¡ng
Ø¤ ÙĪÙĦ
ĠáĥĴáĥĲáĥľ áĥ¡
ĠÐ° Ð»
c chi
Ġpre zzo
Ġan tara
Ġin j
ĠÐ¿Ð¾Ð¼ Ð¾Ð³
ĠÐ´ ÑĬÑĢÐ¶
ui Ã§Ã£o
Ġnos sa
Ġbed rijf
à´¾à´ ¨àµįà´
ĠNg Æ°á»Ŀi
à¤¡à¤¼ à¤¾
à¤¾à¤ ¥
Ġdu a
ĠÙħØ· Ø§Ø¨ÙĤ
Ø§Ùĩ Ø¯Ùĩ
ĠB a
Ġpa Å¡
Ŀ à¸²à¸ģ
pe ÅĤ
Ġpl ant
ĠÃ¥ t
ĠØ® Ø§Ø·
Ġáĥĵáĥ¦ áĥĶáĥ¡
ãģĵãģ¨ ãĤĤ
ĠáĢ±áĢĶ áĢ¬áĢĢáĢ¹áĢ
g l
ung si
åģ ·
Ġroz hod
Ġsi ya
ĠÑįÑĤ Ð¸
ÉĻlÉĻr i
Ã¤hr end
ĠÐ½ÐµÐ¾Ð± ÑħÑĸÐ´
ci l
à°°à±įà° µ
ÐµÑĢ Ð²
Ġà®Ĩà®© à®¾à®²à¯į
ĠL eg
Ġà¦ħ à¦¸
áĢŃ áĢĻ
ĠáĢĺ áĢ¬
Ġme llan
ÏģÎ¹ Î¬
Ġí ħ
ĠÎł Î±Î½
×ķ×ŀ ×Ļ
es a
Ġmoet en
al ler
à¦°à§įà¦ ·
ĠjÃ¤l keen
Ġsu iv
à¦ ģ
ers e
ĠÙģ ÙĪØª
Ġm ud
æĻ º
Ġpol icy
Ġrem ember
Ġà¤ªà¥ģà¤² à¤¿à¤¸
Ġà®ĩ à®¤à¯ģ
an ych
Ġmuch as
v Ã¤
ĠáĢħ áĢ¬
Ġgy ak
ĠA ug
ĠÙħÙĨØª Ø¯Ùī
Ġãĥ¬ ãĥĩãĤ£ãĥ¼ãĤ¹
re f
áĥķ áĥĶáĥķ
Ð¡ Ðļ
Ġqual itÃł
Ġf Ã©
áĥª áĥĺ
un ut
Ġpar ts
Ġuy gun
nah me
Ã Ļ
Ġp le
ĠÑĤ ÑĬÑĢ
el ho
ÅĻe b
ct o
Ġp unto
Ġà¦¦ à§ģà¦ĩ
ĠÑīÐ¾Ð´ Ð¾
ìŀ Ī
ĠE le
Ð¾Ð· Ð²
ĠCas ino
on Ã«
Ġæ Ĥ
Ġs uf
Ø±ÙĪ Ùģ
Ġan t
if i
uy áº¿n
ģ à¸£
Ð°ÑĢ Ð¾
åħ µ
Ġch ia
ara p
ØŃ Øª
Ġinvest ig
Ġà¸ §à¸±à¸Ļ
ÙĪ Ûģ
szy m
o int
Ġc ÃŃm
ite Ä¾
ĠÐ½Ð°ÑĢ Ð¾Ð´
ĠS P
get ti
Ġforske ll
ÐµÐ½ ÑĮÐº
ouv ent
à¦Ľ à§ĩà¦¨
à§ģ à¦¦
ar ri
ĠÙħÛĮÙĦÛĮ ÙĪÙĨ
ãģ¹ ãģ¦
Ġ3 4
ĠÐ¿ÑĢÐ° ÑĨ
Ġå Ģ
Ġaus ge
Ġåı °
Ġd ÉĻr
ĠØ¨Ø§ÙĦ Ø¥
ĠÎºÎ±Î» ÏįÏĦÎµ
ì ±ħ
Ġon es
å¤ ±
ĠØº Ø°
Ġà¤Ł à¥įà¤°
ĠAl so
Ġzbek iston
Ġm ÉĻr
ĠÏħ ÏĢÎµ
Ġtho áº¡i
à¹ĥà¸«à¸¡ à¹Ī
ë° ±
Ġhigh ly
Ġn Ãµ
ĠÕ¸ ÖĤ
ĠØ³Ø· ØŃ
Õ ¬
à´¸ àµįà´¸
ìĬ ¹
ĠbÄĻ dÄħ
Ġz em
ck a
Ġre fer
¡ à°¿
Ġà¤¹à¥ĭ à¤Ĺà¤¾
ĠÙģØ±ÙĩÙĨÚ¯ ÛĮ
ĠM ah
Ġme zi
ze j
ĠB Ã¶l
Ġalgun s
ist ration
ny e
ĠV á»Ľi
Ðº Ð¸Ðµ
ĠV on
ä¹ĭ æĺŁ
Ġì º
ĠM i
u als
izz are
æ§ ĭ
à«ĭàª ª
è© ¦
à° «
ÛĮØ¯ Ø§
ľà¸ ¥à¸
ç¨ ³
iyy at
Ġste ht
in Ã©
ÑĢÐ°Ð½ Ð¸Ñĩ
ãģĻãĤĭ ãģ¨
r att
Ġm ÃŃs
Ġju in
ĠÑĢÑĥÐº Ð¾Ð²Ð¾Ð´
ĠÏĢ Î±Î½
áĥł áĥĿáĥĽ
Ġempres as
Ġs ale
ÑģÑĤ Ð¾ÑĢ
Æ°Æ¡ i
èŃ °
Î¼ÏĨÏīÎ½ Î±
li Ã©
Ġtro is
Ġl Æ°u
Ġv Ã¦rt
Ġà¦ķ à§įà¦°
ĠÚ©Ø±Ø¯ ÙĨØ¯
Ļ çľŁ
ly s
a caÄŁ
ĠÎķ Î¯Î½Î±Î¹
à®±à¯įà®ķ à¯ģ
Ġ ular
áĥłáĥĺáĥķ áĥĺ
àª¾àª ļ
Ġà´ī à´ª
à°¿à°¤ à±įà°°
à«ĩàªµ à«Ģ
Ġd raw
Ð°ÑĢ Ð°
im mt
àª¿àª ª
Ġhyv Ã¤
ĠCoun ty
Ð¸ÑĤ Ð°ÑĤÑĮ
Ġdan h
Ġh Ã¡z
Ġg b
ĠÏĢ ÏģÎ¹Î½
E D
à®¾à® ª
est ra
ĠKom m
ĠØ¨Ø±Ú¯ Ø²Ø§Ø±
åĲ §
ĠØ° Ø§Øª
Ġ×©×Ķ ×ķ×Ĳ
ĠTr ang
r ut
à¦¾à¦§ à§įà¦¯à¦®
à±Ģ à°²
Ġs ym
çķ ¥
Ġplaat s
Ġso os
Ġh omme
Ġsz Ã¼ksÃ©g
à¤¿à¤ Ĺ
ĠáĥĲáĥ Ĵ
Ġà´¤ àµĨ
ĠkÃµ ik
Ġà¦Ĩà¦Ĺ à§ĩ
áĥĲáĥĵ áĥĿ
Ġàª¬ à«ĩàª
Õ¥Õ ½
ĠÑıÐº ÑīÐ¾
eng er
Ġt ab
å·² ç»ı
Ġj on
Ġv Ã¤n
Ġsch im
Ðº Ð¸Ð½
ne er
ĠH ome
Ġtr ip
ĠCha ussures
Ã£ ng
ĠÃ ±
ag ement
aw at
à¸Ńà¸¢à¸¹ à¹Ī
Ġáĥ¨áĥĶáĥĽ áĥĹáĥ®áĥķáĥĶáĥķ
ç ĳ
Ġv ent
Ġb ied
b ed
×¨×Ľ ×ĸ
ĠØ´ÙĨ Ø¨Ùĩ
Ġlevel s
Ð²ÑĢ Ð¾Ð¿
Ġmeet ing
Î½ Îµ
ĠfÃ¶r st
gh t
ĠÐ½ Ð°Ð³
at iv
Ġm áº«u
ĠãĤ± ãĥ¼ãĤ¹
Ð°Ð» Ð½Ð°
ĠÐ¿ÑĢÐ¾ Ð¸Ñģ
à¹Ģà¸ ĩà¸´à¸Ļà¸
ig i
äº «
Î´ Î¬
ĳ ìĿ´
Ġä½ ķ
Ġdi r
ĠÐ° ÑģÑĤ
h to
Ġs che
ÎĻÎ ¤
áĢ½ áĢĦáĢº
Ġsm art
Ġp ilih
Z W
ĠØ§ÙĦ ÙĪÙĦ
Ġçī ¹
ĠH ay
Ġsh all
ĠÎ¤ Î¹
Ġji Å¾
à«ģàª ĸ
ĠÙĦ Ø¯ÙĬ
ĸà¸¶à¸ ĩà¸
ĠÐĵÐ»Ð°Ð² Ð½Ð°Ñı
Ġl v
Ġst Ã¸r
Ġvel mi
Ġverschill ende
Ġc ab
à®© à¯įà®ª
Ġex cept
ĠdÃ¼ÅŁ Ã¼n
ĠÐ·Ð°Ð½ Ð¸Ð¼
ĠÎµ ÏĨ
Ġáĥĺ áĥĴ
ĠTe ch
Ġdz Ä«v
æĹ©é¤Ĳ åĬłçĽŁ
it are
à§ĭ à¦°à§įà¦
Ġl áº¥y
ÅĤ Ã³w
Ġejem plo
Ġa ver
ÎŁÎ ¤
ĠÑĢÐ¾Ðº ÑĸÐ²
à°³ à±įà°²
Ð°Ð½ Ð½Ðµ
Þ¬ Þ
Ġm Ã³w
ĠØ´ Ú©ÙĨ
åľ¨çº¿ è§Ĩé¢ĳ
ĠÐ¼ Ð¸Ð»
ĠÙĨ ÙģØª
Ñĩ ÐµÑģÐº
ĠÙĪ ÙħØ§
Ġszer et
Ġnum ero
as Ä±nÄ±
Ø§Ø ¸
çĽ Ĭ
Ġn ÉĻ
ĠÐ¿ Ð°ÑĢÑĤ
ĠM any
Ġn t
à´¿à´¯ àµģà´Ĥ
ĠS ay
ĠGi Ã¡
ĠÙĦÙĦ Ø¹
ny i
Ġàªīàªª àª°
ĠÙĥ Øª
ÏĢÎ¿ Ïį
Ć ï¼Į
ĠÚ¯ Ø±Ùħ
Î¼Î± ÏĥÏĦÎµ
à¸Ńà¸²à¸ «
ĠÐ¾Ð± ÑĢÐ°ÑĤ
ĠÐ½Ð°Ñĩ Ð¸Ð½
Ġjour n
Ġask ed
Ġà¤Ŀ à¤¾à¤²
ĠE v
Ġh ver
ĠKosov Ã«s
Ġà¦ħ à¦°à§įà¦¥
ĠÐ²Ñģ Ñĳ
Ġäºļæ¸¸ å®ĺç½ĳ
Î¼ÎŃÎ½ Î¿Ïħ
Ġs f
´ë ¦
Ġto ho
it Äģ
Ġë¸ Ķ
Ġmen o
ĠØ¨Ø§Ø´ ÛĮØ¯
li ed
Ø§ÙĤ Ø§Øª
Ã¼ h
b are
Ġce ea
Ġg al
bi anas
ĠØ§Ø ¶
Ġdev ice
à³ į
ĠÐ³ Ð°Ð·
Ġà°ª à°¾à°°
Ġa per
rij ven
Ġtu a
en iu
Ġpub l
Ġa asta
Äĥse ÈĻte
Ġàªªàª° àªĤàª¤à«ģ
Ġk ort
ë¦ Ħ
st and
ĠDom niÈĻ
Ġo ct
ĠH az
over no
ÑĢÐ° Ñĺ
æĸ Ń
Ġig ual
Ġàª¬àª¨ àª¾àªµ
ãģ µ
à§įà¦ §
à®¿à®±à¯įà®ķ à¯ģ
ì¶ľìŀ¥ ë§ĮëĤ¨
Ġszy b
ĠT anzania
Ġn ational
Ġcon n
ĠD oÄŁ
ĠØ¯ ÛĮÙĨ
ĠÐ¿ Ð°Ð»
ĠfÃ¶r sta
Ġàª¸ à«Į
à®Łà¯įà®Ł à¯ģ
ê¸° ë¥¼
ĠØ· ÙĪÙĦ
×ķ×¤ ×Ķ
Î¸ ÏģÏİ
r end
ud ian
Ĺà¸²à¸ ĩ
áĢĻ áĢļáĢ¹
ri le
Ð½Ñĥ ÑĤÑĮ
ĠÙ¾Ûģ ÙĦÛĴ
Ġ\" :
Ġde ber
Ñģ Ð¸Ñħ
Ġz ona
ĠÐł ÐµÑģÐ¿
Ø§Ø¨ Ø§Øª
Ġà®ķ à®£
Ġà¤® à¤¾à¤¨
l Ã¡n
g atÃ¡s
ĠÐĲÐ»ÐµÐºÑģ Ð°Ð½Ð´
à«ĩàª ª
Î» Î¹Ïĥ
Ð¸ÑĩÐµÑģÐº Ð¾Ðµ
à´±àµįà´± àµį
ĠÙĨØ¯ Ø§Ø±Ø¯
Ġse par
Ġtyp es
ĠÃ¼ gy
ĠO b
h men
j Ã¶
Ġt Ã©cn
Ġlak ini
ĠØ§Ùħ Ø±ÛĮ
Ġse ction
ĠØ¨ ÙħØ§
à«Ģ àª¨àª¾
ĠÙħÙĪ Ø¨
à¥ ¦
Ġma jÄħ
an iu
Ġd rei
ÏĪ Îµ
ĠÐ´ÐµÑĢ ÐµÐ²
Ġcolle ction
ç Ĵ
Ġo ng
×ĸ ×§
ĠÐ¿Ð¾Ð» ÑĸÑĤ
Ġd ÉĻy
Ġdo dat
Î³ ÎµÎ¹
à¦¾à¦¨ à§ĭ
ĠÎŃ ÏģÎ³
Ġdit uz
§ à¸Ļà¸
ĠÐ² ÐµÑĩÐµ
ĠÐ¿Ð¾ ÑįÑĤÐ¾Ð¼Ñĥ
áĢĻáĢº áĢ¬áĢ¸áĢ
ĠSing ure
Ġà® Ĳ
Øº ÙĦ
Å¼e j
h met
Ġlle gar
Ġì§Ģ ëĤľ
Ġus ta
æĹ¥ ãģ®
ĠØ§ÙĦÙħÙĨØª Ø¯Ùī
Ġà¦Ł à¦¾à¦ķà¦¾
Ġà¦¹ à¦¾à¦ľà¦¾à¦°
ĠìĬ¬ ë¡¯
Ġgo al
Ġh it
ikt igt
ĠÄĳ áº£m
Ġet mÉĻk
Ġèĩª åĪĨ
ĠÐ¸Ñģ ÑģÐ»ÐµÐ´
ĠÐ» ÐµÐº
ÏģÎ· ÏĥÎ·
¡à¸ ·à¸Ńà¸
ĠOd powied
ĠÙĤ Ø§ÙĨÙĪÙĨ
ĠÐ± ÐµÑĪÐµ
ĠØ®ÙĦ Ø§Ùģ
che id
á»ĵ m
Ġà¦ħà¦¨ à§įà¦¯
Ġtr Æ°á»Łng
à¹Ģà¸¥ à¹Īà¸Ļà¸
áĤ Ĩ
ĠCh ÃŃnh
Ġprodu it
zÄħ d
Ð¡ Ñĵ
Ð» ÑĥÑĩ
ĠÎ¿ÏĢÎ¿ Î¯Î¿
Ġprime ira
Ġà¹Ģà¸ ģà¸¡à¸
Ġkh áº£
il ang
ĠØ® ÙĪØ§ÙĨ
Å¾ ÃŃv
Ġprod us
Ġà´ªà´° à´¿à´
ĠÑĢ ÐµÐ´
Ġum um
áĢĽ áĢ²áĢ·
à¦¨à§įà¦ ¡
ĠÏĥÏħ Î³Îº
Ġes im
ĠÏĦÎµ Î»ÎµÏħÏĦÎ±
Ġ) ;
ĠÙħ Ø±Ø¨
Ġàª² àªĹ
at ory
ÑĦ ÐµÑĢ
Ã¶ ÃŁ
ĠØ§Ø¨ ÙĨ
Ġk aw
Ġv Ã¦r
ĠÐ¿Ð¾ÑĤÑĢ ÑĸÐ±
ĠÄ¾ ud
ĠÎ´ Î¿
f ono
ĠØ²ÛĮ Ø§Ø¯ÛĮ
ĠáģĤáģĢ áģģáģ
ë§ Ĳ
ë§ Ľ
Ġ×Ĵ ×ĳ
Ð½ ÑĥÐ»
ke zÃ©s
uu den
or ii
ĠÐ¾Ð± ÑĭÑĩ
Ġs Ã©cur
Ġï ¾
Ġà´¸ àµĨ
å¯ Į
ĠÃº n
Ġr áº»
ĠØªØŃ ÙħÙĬÙĦ
Ġwir klich
ļ à¸Ļà¸
ko op
Ð¸ ÐµÑĤÐ¾
Ġh ati
Ġembar go
Ġz ro
ĠV ia
ĠÙĩ ÙĪØ§
ĠÄ° z
ĠØ§ÙĦÙĤ ÙĬ
Ġj an
Ð¸ÑĤ Ð¾ÑĢ
Ġq y
Ġt ip
Äĥ tor
Ġv enta
Ġt unn
ĠØ¬Ø§Ùħ Ø¹Ùĩ
à¸Ļ à¹Įà¸
ĠØ¬Ùħ Ø¹
Ġdig ital
f ang
ĠÏĦ ÏģÎ¿
Ġng he
Ø§Ø¦ Ø¨
pp er
Ġhv a
Ġdi kk
Ġinve ce
ol u
Ð°Ð¹ Ð´Ð¸
ķà¹Ī à¸Ń
Ġko ÅĦ
èĭ ı
ĠÑĥÐ² ÐµÐ»Ð¸Ñĩ
Ġexper t
Ġwrit ten
Ġor d
Ö µ
Ø§ÛĮ Ø¹
ØªØ± Ùĥ
ĠìĹ ħ
áĢ¼ áĢĶáĢ¹áĢ¸
in na
åľ Ĵ
àª°à«įàª ®
ÏĦÎ¿ ÏįÎ½
ĠNam un
Ġmes es
Ġà¤ļ à¥ģà¤¨
Ġkaz i
Ġbenef its
Ġdec ision
Ġà´¤à´¨àµįà´¨ àµĨ
ĠãģĿ ãģĨ
es o
ĠÑĢÐ°Ð· Ð´ÐµÐ»
æĹħ æ¸¸
ĠÙĩØ¯ Ùģ
ĠG l
ic iel
Ġpi ano
Ġà®® à®¿à®ķ
to re
ĠØ´ Ú©ÙĦ
ar b
Ġjed och
Ġc ul
Ġë© Ķ
æĤ ª
Ġg razie
Ġà´ ³
um ne
pre chen
Ġj am
çĶŁ æ´»
ĠThe ma
Ġqu Ã½
Ġv oll
Ġ×ľ×ŀ× ©
Ġa de
Ð¾ ÑĨÑĸ
Ġad min
Ġre mo
Ġk iedy
ion ale
ç» ĩ
Ġ áĤıáĢ½áĢħáĢ¹áĢ
Ġl á»±a
Ġex tre
Ø¸ ÙħØ©
Ġm ise
Ġà¤¹à¥ģà¤ Ī
ĠdÃ¼n y
Ġtr ait
à¤¡à¤¼ à¥ĩ
Ġker ak
Øº Ø·
ÏģÎ³ Î±Î½
å¿« ä¹Ĳ
á½ °
é Ń
Ã© o
Ġpar k
ìĭľ ê°Ħ
à´²àµįâĢį à´ķ
as ter
à®µ à¯Ī
ĠU s
à«ĭ àª®àª¾àªĤ
ri os
nost ÃŃ
Ð°Ð» ÐµÐ½
Ġæ Ĳ
Ø§Ø´ ÛĮ
p ra
Ġf resh
ĠAve c
ãĥ¼ãĤ ³
Ġgi áº£
å¸ Ń
à¤°à¥įà¤ ¥
zy m
Ġà°ħ à°§
Ġan nÃ©es
er k
Ä« st
Ġk Ã¼
ĠáĢ¡ áĢĶ
ler den
Ġfie care
Ø§ÙĦ Ø¯
Ġé ¢
w eit
è´ §
ĠØ®ÙĪ Ø¨
à¹Ģà¸ ¡à¸
ĠHe alth
áĢŃ áĢĶáĢ¹áĢ¸
ĠÎµÏħ ÏģÏİ
Ġpare ja
åľ Ł
Ġbulun an
ØªÙħ Ø±
ĠëĶ Ķ
_c rop
à¥ ħ
ĠØ§ ÛĴ
×¤ ×ľ
Ġy Ä±ll
Ġbelang rijk
ãĥ³ãĤ Ń
ah t
Ġmul ai
Ġc Ãłng
Ġmeng en
Î¼ Î¯Î±
à´¿à´ķàµįà´ķ àµģà´Ĥ
ÎĻÎ Ķ
Ġc Ã©l
Ġbud ou
ÎµÎ¹ Î±ÏĤ
Ġpie ce
ÑĥÐ± Ð»Ð¸Ðº
Ġexcell ent
ia go
ÅĽ wiad
ĠDe v
ÅĤÄħ cz
eh atan
àµģà´ ¦
Ð½Ð¾ÑģÑĤ ÐµÐ¹
ĠA g
bi or
l ayan
Ġmil h
à°Ł à°¿
am ar
Ġda Å¾
ĠØ® Ø§Øµ
ĠB on
us ega
ĠwÃ¼r de
Ġcon ten
ĠÑģÐ¿ Ð¾ÑĢÑĤ
ĠD ay
Ġà®µ à¯Īà®¤à¯įà®¤
Ġà¤®à¥ģà¤ ĸ
ì¶ľìŀ¥ìĥµ ìĺĪìķ½
Ġschne ll
Û ´
àª¨ àª¾àªĤ
à´¾à´¤ àµĨ
ĠPort ug
Ø§ ÙĪÙĨ
Ġwel che
Ġmel lem
Ġà¦° à¦¹
z as
Ġst oria
Ġce va
à°· à±įà°Ł
Ġmun ka
Ġatrav Ã©s
Ġr ou
is ema
Ġexpl ain
Ġpu es
at lan
Ġà®ħà®µ à®°
äºº åĳĺ
Ķà¹īà¸§à¸ ¢
c ÃŃa
anj ang
ĠÐº Ð¾Ð³Ð°
ĠÐ´ ÑĥÐ¶Ðµ
Ġëª »
Ġg ain
Ġyo ki
ĠÑĤÑĢÐ°Ð½ ÑģÐ¿
Ġ×Ļ ×ľ
Ġc á»¥
Ġres id
W A
å¤© å¤©
Ð¾Ð» ÐµÐµ
Ġtoll deklarasjon
Ġpag ka
uran Ã§a
ĠÑĨ ÐµÐ½Ñĭ
ov ou
u ud
ÏĥÏĦÎ· Î¼Î±
st Ã¤ll
Ġå¥ ³
w ier
Ġåī į
Ġë² ł
ĠmÃ¥ ste
Ġg reen
Øª ÙĪÙħØ§ÙĨ
Ð¸Ñĩ Ð½Ð¸
ĠÎķ Îł
Ġb Ã¡r
Ġn jo
ĠM arch
à¨ ¨
ĠÙ¾Úĺ ÙĪÙĩ
ÎŁÎ ł
Ġkar ar
ĠÐ£ÐºÑĢÐ°ÑĹ Ð½Ñĸ
àªµàª¾àª¨ à«ģàªĤ
Ġsek ali
t am
ur t
ĠÑıÐ· Ñĭ
Ġdis pos
ĠÎºÎ¬Î½ ÎµÎ¹
Ġà¦¬à¦¿à¦Ń à¦¿à¦¨à§įà¦¨
ĠbÃ¥ de
Ġi hned
ĠM ari
ĠÐĹ Ð°Ð¿
åī ²
ĠÏĦ ÎµÎ»
Ġhay at
Ġintern et
Ġà¤īà¤¨ à¤ķà¥ĩ
ess ion
ĠÐºÐ¾Ð» Ð¸
ĠvÃ¦re t
Ð½ Ð¸Ð²
¹à¸ ģ
ÏģÏī ÏĥÎ·
ĠØ· Ø±Ùģ
áº© u
tt Ã¤
ĠØ® Ø§ØµØ©
j ekt
ĠÑĢÐ¾Ð±Ð¾ÑĤ Ð¸
Ġu gyan
Ùĩ ÙĨ
à®¾à® ªà¯įà®ª
Ġíģ ¬
p i
Îº Î¿Ïħ
×ł ×§
ĠØ£ ÙħØ§
çº ª
Ø¨ÙĬ ÙĤ
r ent
Ġl ÃŃnea
è® ²
tem bre
sze j
w á»į
2 5
ĠÎº Î¿Ïħ
if or
Ð¾Ð¶ ÐµÑĤ
áģĢ áģĢ
Ġà®ħà®µ à®°à¯į
amp u
Ġlu áºŃt
Ġens emble
ĠáĢ¡ áĢĳ
ĠÚ©ÙĪØ¯ Ú©
ze igen
er as
éĩį è¦ģ
es ter
à¹Ģ à¸£à¸²à¸
Ø¬ ÙĨØ©
ĠØ§ÙĦØ³ Ø§Ø¹Ø©
Ġsp olo
ĠØ§Ø ¸
Ġà®® à®ķ
à«Ĥ àª°
Ġpr int
etto re
ĠÑģÐ¾ ÑĨÐ¸Ð°Ð»ÑĮ
Ã©p h
àªĹ àª°
Ġt á»ĳi
áĢ¶ áĢ·
ĠØ´ ÙĪ
Ġpl ans
Ġà´® àµĤ
×ķ×¤ ×Ł
Ġdi en
Î»Îµ Îº
ÐĿ Ðŀ
ãĥģ ãĥ£
ta ÅĤ
in ud
ĠÑĤÐ°ÑĪ ÐºÐ¸Ð»
ãģ ¥
Ġà®ķ à¯ģà®´
ir it
¨ ÐĲ
ĠfÃ¸r ste
ĠÃ©qu ip
Ġmer cado
as Äĥ
Ð³ Ð¾Ð²Ð¾ÑĢ
ãĥķãĤ© ãĥ¼ãĥł
ĠÙħ Ø³ÙĦØ³ÙĦ
Ġ io
for d
ĠÚĨ Ø´Ùħ
Ġp ien
Ġo sa
ÙĤÙĬ ÙĬÙħ
ãĤ¸ ãĥ£
ĠÑģÑĩ ÐµÑĤ
ĠÐº Ð°Ð½
ÑĥÐ²Ð° ÑļÐµÑĤÐ¾
ĠÎ± ÏĢÎ±
ĠÙħØ· ÙĦØ¨
all o
ĠØ¨ ÛĴ
ĠØª ÙĪØ±
Ġ03 4
à° ¥
à¥įà¤ ŀ
ØŃ Ø§Øª
ri x
ĠØ§ÙĦ ÙĬÙħ
ph one
Ġfor sk
Ġh ot
æŃ »
olog ie
j em
ĠÎĳ ÏĢÎ¿
ĠP ada
ĠP ÅĻÃŃ
ĠØ· Ø¨ÛĮ
Ã¼ yor
Ġtet api
ĠâĢ º
Ø§Ùģ ÙĬ
ÎĳÎ ľ
Ġpal jon
Ġma cam
Ġv iz
sh ip
ĠÒ³ Ð¾Ð»
à¦¾à¦° à§Ģ
àª¤ à«įàª°
il fe
à¤ķà¥įà¤· à¤¾
Ã¥ d
Ġfavor ite
à¤ Ľ
Ġà®ħ à®³
Ġê°Ģ ìŀ¥
Ġba ada
ĠÑĥ ÑģÑĤÑĢÐ¾Ð¹
ĠØ¹ ÙĤ
Ġdu as
à´£ à´®
Ġku v
ãĤĤãģĹ ãĤĮ
ĠG et
à¤¿à¤ §
Ġcl os
Ġkan yang
r is
à°ªà±įà°ª à±ģà°¡à±ģ
ĠQu esto
Ġhakk Ä±nda
Ġg ra
Ðł Ðŀ
ĠH á»ĵ
Ġj uegos
ĠÐ² Ð¸Ð·Ð½Ð°Ñĩ
Ġav oid
ĠÙħØ´ Ø§ÙĩØ¯Ùĩ
ë ¹
Ã©n Ã©
Ġdon ne
Ġv ui
éĻ ¤
ãģĪ ãģ°
à±įà° ·
à°¿à°¤ à±ĩ
ĠY ang
à§ģà¦· à§įà¦ł
Ġà¦¨ à§ĩà¦ĩ
àª¾àª ¥
ĠÐŁÐ¾Ñģ Ð»Ðµ
ãĤµ ãĤ¤ãĤº
N H
te ad
Ġqu Ã¨
ist ro
ÑģÑĮÐº Ñĸ
ĠØŃØ³ Ø§Ø¨
Ġimp lement
j alan
ĠG ut
r ity
Ð¾Ð· Ñı
Äħ t
im mÃ¤
à«ĩàª ¬
er int
Ġs il
kl Ã¤r
ĠF irst
ĠØ§Ø¸ Ùĩ
à®® à¯ģà®®à¯į
ĠÐ¼ Ð¾
Ġqual che
Ġv en
ĠÃ¼ ret
ãģ¿ ãģŁãģĦ
Ġto Ã¡n
Ġspe ak
Ġind ir
Ġper m
ĠÐŀ Ð¿
Ġsol utions
áĢĿ áĢĦáĢº
æĻ ļ
Ġà°¤ à±Ģà°¸
áĢľ áĢŃáĢ¯áĤĶ
Ġt end
j unt
Ġav alia
w ala
ĠÐ¿ÑĢÐ¾ÑĨ ÐµÑģ
ĠÑĢÐ°Ð· ÑĢÐ°Ð±Ð¾ÑĤ
Ð» Ð¾Ð¼
ĠÐ¿ ÑĥÑĤ
ãĥķ ãĥ¬
Ġt ad
Ġb ildir
Ġet k
Ġg ore
ÏĢÎ¿Î¯ Î·ÏĥÎ·
Ä±r s
Ġcon di
Ð»ÐµÐ½ Ð°
Ġseb ab
Ġsmart _crop
ĠÚĨ ÙĪÙĨ
å± Ĥ
ĠnÃ¥g ra
Î³ÏģÎ± Î¼Î¼Î±
ĠnghÄ© a
ĠÐ² Ð¿
ĠC H
ĠãĤ Ī
un ft
ĠQ ual
Ġà¦¬ à¦¿à¦ķ
Ġà¨ ¹
Ġcont r
L I
Ġf ick
ĠØ§ÙĦØ´ÙĬ Ø®
åĪĨ æŀĲ
Ġ Åĳ
TI ON
Ġl an
cie tÃł
S I
ot en
Ġsal ud
Ð¼ Ð°Ð½
ĠÐľÐ¾ÑģÐº Ð²Ð°
Ġmis ma
bil idad
ĠÐ¼Ð°Ð³Ð°Ð· Ð¸Ð½
Ġb ashk
Ġost at
ÙĨ Ø§Ùħ
Ġsuo i
¡ å¸ĥ
ĠÙħ Ø±ÙĥØ²
2 4
à¤¿à¤ķ à¤¾
éĩĳ ç½ĳ
Ġà¦Ĩà¦ª à¦¨à¦¾à¦°
volv imento
ĠØ§ÙĦØ£ ÙĪÙĦÙī
ÙĪ Ø¨Ø±
à´¤ à´¿à´°
Ġenc our
ĠÚ© Ø§ÙĨ
Ġch ance
Ġl gan
Ġnive au
áĢ¡ áĢŀ
ĠØ§ÙĦØ¹Ø±Ø¨ ÙĬ
ç§ĳ æĬĢ
Ã¡ bÃ³l
åĲĪ ãĤıãģĽ
ĠS icher
Ġ×ľ ×¨
ÙĤ Ø¨ÙĦ
Ġf Ã¼hr
ong eng
ĠJ uan
ĠD Ã©c
Ġw i
Ñı ÑģÑĤ
ĠÙħØ¬Ùħ ÙĪØ¹Ø©
ÐµÑĤ Ñĥ
Ã©p ar
Ġà¦ķà¦° à§ĩà¦Ľà§ĩ
Î³ Î¬
ĠØ® Ø¯Ø§
ĠAd emÃ¡s
Ġjet Ã«
ĠØ¨ Ø³Ø¨Ø¨
Ġh ivyo
= =
ĠÙ¾ Ø°
à¹Īà¸ ¡
wy d
Ġà®µà®¿à® ³
Ġr Å¯
Î¼ Î¼
ĠH al
Ġfe ed
Ġï½ ľ
Ð½ Ð°ÑģÑĨÑĸ
Ġtule e
Ġà´° à´¾à´ľ
ĠÐľÐ¾ÑģÐºÐ² Ðµ
Ġb á»ĳ
Ġ×Ķ×ŀ× ª
Ġinter ess
ĠH á»Ļi
Ð°ÑİÑī Ð¸Ñħ
Ġparte cip
Ġvez es
idd le
Ð ĸ
äº ķ
ĠØ§ÙĦØ¬ ÙĨ
Ġà¦ī à¦¦
ĠØ§ÙĦØ¨ ØªÙĩ
ÎŃÏģ Î½Î·
ĠÑģ Ð¸Ð¼
ãģŁ ãĤĬ
à§ĩà§Ł à§ĩ
aix o
ĠÙ¾ ÙĪØ´
ĠÑĨ ÐµÐ½Ð°
Ġmo bile
Ġ uff
ĠÎ¶ Î·
Ġè ī
Ġp Ã¡g
ĠÂ £
Ġha q
Ġmuk ha
p oved
Ð» Ñĥ
×¤ ×¡
ard in
os so
Ġcor so
Ġc oule
Ġpros es
Ø§ÙĨ Ø§
ĠG ay
×ķ×¨ ×ķ×ª
áĢľ áĢ¬áĢ¸
Ġhelp s
Ġwor m
it Ã«
Ð¸ÑĤÐ¸ ÑģÑı
o bb
Ġm Ã¸
ĠÎĶÎ¹Î± Î²Î¬ÏĥÏĦÎµ
lich keit
¡à¸²à¸ ģ
Ġj uego
áĢ±áĢ ĸ
ille urs
à§ĭ à¦ļ
um an
j al
ĠÐ´ Ð¸ÑĤ
ka it
à´¿à´¯ à´¿à´²àµįâĢį
Ġnov a
Ġà¦° à§Ł
ĠÐº ÑĥÐ»ÑĮÑĤ
Ġàªª à«ĭàª²
Ġit se
à¥ģ à¤¸
Ġdi ret
lep as
red iksi
Ġm entre
ä¸ĩ åĨĨ
ĠÐ¼ÐµÑĤ Ð¾Ð´
Ġre j
Ġãĥ į
Ġàª¸ àª¹
à´¤àµįà´¤ à´¿à´²
ĠÅ¾ Ã¡d
Ġà°ī à°Ĥà°¡
Ġt arix
Î¾ Ïį
ĠÙħÙĪ ÙģÙĤ
ĠÑĢ Ð¾Ñģ
Ġà¹Ģà¸ Ĭ
áĢĽ áĢ®áĢ¸áĢ
ĠØ§ÙĦØ³ ÙĦØ§Ùħ
à¦ĵ à§Ł
Ġà®ĩ à®²
¸ à¹Īà¸Ļ
ĠØ£Ùħ Ø§Ùħ
áĢŁ áĢ¯áĢĲáĢ¹áĢ
ĠA fr
Ġsour ce
ier re
aj t
Ġdem ande
Ã¨ mes
fall s
ĠN go
ĠTh Ãłnh
Ġ×ŀ×ŀ× ©
ĠB eg
ÎĹ Î¤
Ð¾Ð¼ ÐµÐ½Ð´
Ġw á»įn
ãģ£ãģ ±
Ġãģ ¡
àµĭ à´ķ
ä¸Ń æĸĩ
Ġy áº¿u
Ġl ok
Ġso ov
Ġhv il
Ïĥ Î¹Î¬
ÉĻs inÉĻ
ĠÐļ Ð¾Ð»
to p
ĠÐ²ÑĬ Ð¿ÑĢ
Ġk Ã¤s
à¤µ à¤Ĥ
è´ Ł
ĠÐºÐ¾Ð¼ Ð°Ð½Ð´
Ġãĥ ľ
Ġle y
èµ ļ
Ø±Ø¨ Ùĩ
ĠpÅ¯jÄį ka
Ġà´ĩ à´¨àµįà´¤àµįà´¯
åº ķ
Ġt iá»ĩn
ĠÙ¾Ø±ÙĪ ÚĺÙĩ
oun ts
Ġinter no
ÒĽ ÑĤ
è Ĵ
Ø± ÛĴ
ĠÐ¼ ÐµÑĢ
à¤µ à¤°
ëŁ °
ĠÏĥÎ· Î¼Îµ
Ġalc uni
Ð°ÑĤ Ð¾ÑĩÐ½Ð¾
Ġw ÅĤas
â ĺ
ĠL et
ģà¸ §à¹Īà¸²
Ġëĭ¤ ë¥¸
Ġr ien
Ġinter v
gr und
Ñİ ÑĨÑĮ
Ġà´® à´¾à´¤àµįà´°
Ġà´ķ à´£àµįà´Ł
Ã¡m ara
à¤¿ à¤Ĥà¤¦
pp en
Äģk ou
ĠÏĥÏĩ Î¿Î»
ĠÙħÙħ Ú©ÙĨ
ĠGo ogle
ĠB re
ÏģÎ± Î½
×ŀ× ĳ
Ġ×Ķ×Ĳ ×Ĺ×¨
Ġsel ama
Î¯Îº Î·
ÒĽ Ð°
h Ä¾ad
Ã ¿
is as
ÏīÎ½ Î¹Ïĥ
æ£ Ģ
Ġsaf ety
áł łáł
ÛĮ Ø·
Ġs iv
áĢ» áĢ¾
áĢĻ áĢ®áĢ¸áĢ
ĠâĢľ ,
ãģ« éĸ¢
Õ¶Õ¥ÖĢ Õ«
Ġinvol ved
Ġthem selves
ĠG reat
åĵ į
Ġë ģ
ĠÎļ Î¿
Ġàª¨ à«Ģ
à®µ à®¿à®²à¯įà®²à¯Ī
Ġàª¨àª¹ à«ĢàªĤ
ĠPok ud
ÙĨ ØªÛĮ
na io
Ġs ot
ĠØ§ÙĦÙħ ÙĦ
Ġ×© ×ŀ
ĠÙĤ ÙĬ
ĠÃ© Ã©n
ĠDe us
ĠÚ© Ø³Ø¨
ç¬¬ ä¸Ģ
ĠÙħÛĮ Ø²Ø§ÙĨ
Ġpe ÅĤ
ĠOn ce
igt ig
à¹ģà¸ļà¸ ļ
Ãº j
Ġins tead
Ø§Øª Ø±
Ġ×ľ ×ĺ
Ġwszyst kie
èĢĥ ãģĪ
ĠØ§ÙĨÙĤÙĦ Ø§Ø¨
à°¿à° Ĺà°¾
ãģªãģ© ãģ®
ä¸į æĺ¯
Øª Ø¨Ø±
Ġku id
Ġh our
r agen
Ġåİ Ł
Ø³Ø± Ø§Ø¦ÙĬÙĦ
åĲ ¬
f ort
Ġm os
r ap
ĠÐĹ Ð´
Ġterm Ã©k
ĠÑĦ Ð¾ÑĤ
×ķ×© ×Ķ
å¤§ å°ı
Ð¾Ð² Ð¸Ð¹
å ĺ
l ier
Ġj Ãµ
ĠØ¹ ÙĪ
à¤ķ à¥ĭà¤Ĥ
ĠÑı Ð½
Ġprod utos
Ġpro iect
ĠCum hur
it ur
Ġa um
Ġle uk
æĺ ¾
ag n
ĠÏĮ ÏĢÎ¿Ïħ
ĠK osten
Ġs iden
Ã§ on
ĠÙĨ Ú¯
Ġ Ã¼ks
ĠØ§ÙĦÙħ Ø®
ÏģÎ¹ Î¸
Ġb lan
Ġm bi
Î»Î± Î¼Î²
áĢ±áĢ¬ áĢĦáĢ·áĢº
Ġby Å¥
ĠÐ¿ÑĢÐ¸Ð¼ ÐµÐ½
Ġunser er
à°¾à° ¶
Ġk ier
ĠÐº Ð°Ð»Ñĸ
Ø¸ ÙĩØ±
§à¸¥ à¸²
Ġ à¹
re k
Ġàªª àª¾àª¸
Ġï¼ģ ï¼ģ
Ġp enting
el sen
Ġcop ii
¤ Ħ
Ġh Æ°á»Łng
Ġw iÄĻk
as uk
ĠáĢħ áĢŃáĢĲáĢ¹áĢ
æ¥½ ãģĹ
ĠÚ©Ø§ÙĦ Ø§
ĠØ§ÙĦØŃÙĥ ÙĪÙħØ©
Ġt ieto
à«ĭàª ¸
Î»Î· Î¼Î±
à´¿à´° àµģà´¨àµįà´¨àµģ
ĠÐ½ ÐµÐ³
ĠØ§ÙĦØ§ÙĤ ØªØµ
ĠD Ã¼n
ĠT out
à¤°à¥įà¤ ¸
Ġ×ª ×Ĵ
Ġsz ÃŃn
Ġà®ı à®±à¯įà®ª
ÙĪØ± Ø´
Ġà¦¨ à¦¤
Ġt ÉĻl
s Åĳ
Ã¡r om
Ġd ÃŃ
om et
Ġteng o
çļĦ ä¸Ģ
Ġ×© ×ł×Ļ
ĠÃ®n s
ĠÑħ Ð¾Ñĩ
Ġà¦¬à¦¿à¦ ľ
ĸ áĢŃáĢ¯áĤĶ
Ġits elf
ak ah
Ġp Ã¢nÄĥ
Ġegit en
ĠW ork
Ġplan ning
Ġpujck a
ÑĢ ÐµÐ²
cj al
ÑĸÑĪ ÐµÐ½Ð½Ñı
áĢ»áĢĸ áĢħáĢ¹
Ġl uego
ä¾ Ĩ
ĠFor m
ĠEst ado
ĠM Ã¤r
ÑĬ Ð¼
à¹ģà¸ļà¸ ļà¸
ãĤ Ĩ
Ġj at
Ġà§ Ń
ĠÙĬÙĤ ÙĪÙĦ
em ek
Ùİ ÙĪ
Ġse hen
e lla
ans ke
ĠÙĥ ØªØ§Ø¨
à¤¨ à¤²
ĠÐ¿ÑĢ Ð¾Ð¿
Î¼Î¿ Î½
ķà¹Ī à¸Ńà¸
ia i
ĠB Ã¼
ÐłÂµ Ðł
um ia
Ã´ so
Ð»Ð¾ Ò³
à¦° à¦¿
åŃ £
ĠÄĳ áº¡t
ĠØ´ Ø±
Ð° ÑĨ
Ġap Ã³s
ĠÐ´ Ð½ÐµÐ¹
en sk
Ġm ÃŃst
Ġà¦Ĩ à¦ķ
Ġg ives
ĠÑĢ Ð°Ð²
ÑĪ ÐµÐ³Ð¾
ĠK wa
ĠØ¢Øº Ø§Ø²
ĠG ar
n ers
ĠÐºÐ¾ÑĤÐ¾ÑĢ Ð¾Ð¹
à´¾à´¨ à´Ĥ
Ġ×Ľ ×ŀ×Ķ
ĠÛģÙĪ ØªØ§
b ra
ĠO ut
ber t
ĠÐ¿ÐµÑĢ Ðµ
ĠÏĦ Î¯
n io
ê² Ģ
ho od
Ø±Ø¨ ÙĬ
g Ã¥ng
Ġkish te
Ø§Ø± Ûģ
ĠÐ½ Ð¸Ñĩ
å¤ļ ãģı
Ïĥ Î®
Ġle k
en nen
y at
Ġillet ve
Ġà®ī à®¯
Î¸ ÎµÎ¹Î±
à®Ļà¯įà®ķà®³ à¯Ī
Ġm Äĥ
âĢĮ âĢĮ
Ð¾Ð» Ð½Ñı
à¦¦ à¦¿
Ð¸Ð» Ð°Ð´Ð¸
é ¸
ĠT od
Ġà´¨ à´¿à´²
à°¯ à°Ĥ
ĠÙĪÙĩ Ø°Ø§
Ġiz m
ØŃ ÙĨ
ÐµÐ½ Ð¸Ñħ
ke hr
Ġesta ba
ĠÐ»Ð¸ÑĪ ÑĮ
Ġspos Ã³b
Ġd ice
ĠÎĶ Î®
ĠÐº ÑĥÑĢ
Ġcare er
Ġ àµ½
ĠÚ©Ø§Ø± Ø´ÙĨ
ycz ne
ler le
n iÄĻ
à¤¾à¤ ĸ
Ġd ne
ite ly
Ġhand s
Ġgj Ã¸r
Ġsel on
ed y
ĠÄĳ Ã¢u
ĠÐ¾Ð±ÑĬ ÐµÐºÑĤ
Ġpr endre
ĠÑĢ ÑıÐ´
Ġê°Ģ ëĬ¥
ĠÑģ Ñĭ
ru ar
ĠÎĿ ÎŃ
ĠáĢĳ áĢŃáĢ¯
ĠÐ´ÑĢÑĥÐ³ Ð¸
×ª ×Ĺ
Ã¥n d
ĠÐ¿Ð¾ Ñħ
ĠM art
à¥įà¤Ł à¥Ģ
Ġà®¨ à®¾à®Ł
Ġau c
Ġs ik
e cut
Ġdirect ly
æİĴ åĪĹ
Ġas em
Ġst ra
Ġne vo
Ġproyect o
c ation
in ci
Ġl ate
f eit
engk ap
ĠSt ra
Î¼Î¿ Ïģ
Î´ Î¿ÏĤ
tel le
Ġà¸ ¡à¸µà¸
ON G
ĠÚĪ ÛĮ
us unda
ti re
Ġb ych
æŃ ¦
Ġà´µà´¿à´ µ
v oll
Ġf oto
áĢ±áĢĽ áĢ¬
ĠA uto
Ġa verage
ĠÑģÑĢ Ð¾Ðº
ific ation
ĠPublic ado
éĩ ĩ
is Ã©
Ġì² ´
Ġàªļ àª¾àª²
Ġb iá»ĥu
Ð¸ÑĢ Ð°ÑĤ
Ð¾Ð³ Ð°ÑĪ
ĠÎ£ ÎµÏĢ
Ġpujck y
ĠÃ ¯
im me
Ñģ Ð¾Ð½
¥à¸ °à¹Ģà¸
Ġsz Ã¡z
Ġh uom
Ġih an
Ġm acht
Ġresour ces
ĠW asser
Ġx ml
Ġà¤¸à¤¿à¤Ĥ à¤¹
æī ¾
alam an
acj ÄĻ
ĠÐ¿ Ð°Ñĩ
ug lio
ĠÐ¼ Ð¾Ð½
Ġtr ust
ãĥ³ãĥ Ĳ
Ġìļ ©
Ġs asa
Ġsmart_crop _
S Z
å¿ µ
Ġtak ie
Ġpen y
ĠÐ¼ Ð°Ò³
cto bre
Ġl ic
Ã¡ ce
Ġtá» ©
ĠØµ ÙĦÙī
Ġgro ÃŁ
Ġl Ã¦
osp od
×¦ ×Ķ
Ġpem ain
Ġmor ning
ìĿ µ
ĠS ite
ÑĢ Ð¾Ð½
Ġà¤«à¤¿à¤² à¥įà¤®
ĠÐĴ Ð°Ñģ
ĠÐ²Ð¾Ð· Ð½Ð¸Ðº
Ġà®ļ à¯ĩà®°
Ġà°ªà±įà°° à°Ń
iy ÉĻ
or do
Ġn ome
Ġma io
à¥įà¤² à¥Ģ
rie ben
æ» ¡
plica ÈĽii
Ġattravers o
ĠÐ´ Ð°Ð»
Ġiz v
ãĤī ãĤĮãģ¦
ij f
la va
sk im
ĠÐ¿ ÐµÑĩ
am eni
áĢŀ áĢĬáĢ¹áĢ·
Ð°Ð»Ð°ÑĢ Ð¸
Î¶ Î·
Ġz eg
Äģj a
àªķ à«ĩ
ks am
ĠØ¯Ø§ÙĨØ´ Ø¬
à¤¾à¤² à¤¯
p Ã¤
ĠD K
ĠK et
ĠÙĥ Ø±Ø¯
Ð»ÐµÐ½ Ñĭ
à¤¾à¤¤ à¤¾
×© ×ĳ
Ġin im
Ġà¤¹ à¥ĩ
ĠS to
Ġhu ge
àª° àª£
à¥ĩà¤ ·
Ð² Ð°Ð½ÐµÑĤÐ¾
ĠÐ¾ ÑĪ
ĠÐĶ Ð°ÑĢ
ĠÙĪ Ø¶Ø¹
ĠÐ±Ð°ÑĢ Ð¾Ð¸
Ġà¦ĩà¦¸à¦² à¦¾à¦®
Ð» Ð¾Ð½
Ġer b
Ä« ts
ĠÙĪ ÙĦÙħ
Ð¸Ð² Ð°ÐµÑĤÑģÑı
ĠWh y
ªà¸ ¡à¸
ĠF atÄĥ
Ġie ts
Ġsitem ap
N D
Ġãģ ł
ĠÎ» Î¿
Ġ) ØĮ
à¯ģà® Ļà¯įà®ķ
à¹ī à¸Ļà¹Ģà¸
olog ical
C M
ĠÎŃÎ½Î± Î½
i Ã³
Ġih m
Øº Ø±
Ġåľ Ł
ĠK U
ĠØ£ Ø±
ĠdÃ© m
ĠÐĲ Ðº
iss imo
Ġtá»ķ ng
Î±Î½ Î¬
à´ª àµįà´°
ĠD ire
Ġë¬´ë £Į
Ġàªķ àª²
Ġf ÄĥrÄĥ
Ð¸Ñĩ Ð½Ð¸Ñħ
sz Ã¡m
ĠÄĲ á»©c
æĪĲ äºº
ĠktÃ³r ych
ÏĨ ÏīÎ½
ä¼ Ŀ
j ud
çľ ¼
ĠÙĪ Ø²Ø§Ø±
Ġimm edi
Ġr Ãµ
ĠØ§ÙĦØ£ ØŃ
Ġ×ª ×Ĺ
bb ra
Ġz aj
Ġe cht
×¨×Ľ ×ª
Ġ à¸Ńà¸Ńà¸Ļà¹Ħà¸¥à¸Ļà¹Į
áĤ ī
Ã³ gy
à¥ĭ à¤ª
ĠÏĥÏĦÎ¿ Î¹
ĠáĢĲ áĢħáĢº
à¤Ł à¥Ģ
Î´ ÎµÏħ
ĠÐ¸ Ð´Ðµ
Ġë² ķ
Ġ. [
ĠÐ¼ ÐµÑģ
Ĺà¸ ĺ
ĠÐµÐº Ð¾Ð½Ð¾Ð¼
Ġi phone
Ġr Ã¡
ĠB esch
Ġbru g
à§İ à¦¸
ĠÚĨ Ø±Ø§
Ġcontact os
ĠÎ£ ÏĦÎ¿
Ġg iving
ĠÐ¿Ð¾Ð¼Ð¾Ñī ÑĮÑİ
ĠØŃ ÙĦ
ĠvÃ¡l to
Ġs end
ĠÎ¤ Î¿Ïħ
ĠØ´ÙĩØ± Ø³ØªØ§ÙĨ
Ġtr Ãªs
Ġmulti ple
Ġc lar
×¤ ×ķ×ª
į ng
Ġv Ã¡m
Ġà¦¨à¦¤ à§ģà¦¨
ĠÐ¾Ð±Ð»Ð°ÑģÑĤ Ñĸ
Ġk ir
Ġhe l
Û ¶
im y
à¦¾à¦¨ à¦¿
Ġb Ä±r
er ien
è¦ ³
Ġt áº£i
ĠÃ¼z rÉĻ
Ġp y
est is
Ġà®¤ à®°
à®¨à¯įà®¤ à¯ģ
à®Ł à¯įà®ļ
Ġbe k
ken d
Ġt Ã½
Ġbet 3
ĠÙĨ ÙĤÙĦ
ĠØ¹ÙĦ ÙĪÙħ
ĠÕ¥ Õ¶
à±ĭ à°¤
à¹Ī à¸Ńà¸ĩ
×ķ×Ĺ ×ķ×ª
ĠíĮ Ĳ
Ġç ı¾
ĠæĽ ´
Ġful ly
ĠÐ²ÑĬÑĢ Ñħ
lla p
Î³ Î¹
ĠM ot
à´¿à´ķàµįà´ķ àµį
Ġpr ices
ĠáĢŁ áĢ¯
ĠØ£ Ùģ
ĠD O
Ð¸Ð½ Ð¾Ð¹
ÏĦÎ¹Îº Î¿
Ġåħ ³
c cion
Ġà®®à¯ĩ à®²
Ġo v
ãĥ¼ãĥ ĩ
ĠN d
ìĸ µ
ĠÏĢÏģÏĮ Ïĥ
olo j
ĠÄĳo Ãłn
Ġà¤® à¤¾à¤°
æł ¸
ÏĨ Î±Î»
Ġå¤© å¤©
ĠÙħØ¬ÙħÙĪØ¹ Ùĩ
é Ł
Ġin nych
Ġdesarro llo
ĠãĤ¹ ãĥ¼ãĥĳ
ĠjÃ¡t Ã©k
Ġà´¨ à´²àµįâĢįà´ķ
n ed
ĠDes ign
a caq
ĠE ven
Ġrisp etto
ìĹ Ĩ
ÏĨ Î¹
Î»ÎŃ Î¿Î½
áĢ¯ áĢķáĢ¹
à¹ĥà¸«à¸ į
Ġpes qu
åİĨ åı²
é ı
à«ĩàª ¦
lÉĻr inin
à¸µà¸¢à¸ ĩ
ap o
Ġy ox
Ġses uai
Ġà´ľ à´¨
Ġem pre
or te
ĠBudap est
ol le
×ķ×ŀ ×Ķ
ĠØª ÙĦÙģ
ĠÐ·Ð°Ð¿ Ð¾Ñĩ
rie b
ĠSuom en
Ġprojet o
Ø¨ Ø§Ø´Ø¯
j ern
à¯ģà®ķ à®¿à®©à¯įà®±
ĠÃ¢ m
á» ³
w and
sch app
Ġå¤§åıĳ å¿«3
ujÄħ ce
Ġãĥ¡ ãĥ³ãĤº
Ø« Ùħ
u bre
à¹ĩà¸ ģ
ĠÐ¿ÑĢ Ðµ
à«Ģàª ¡
Ġno ast
à¤¡à¤¼ à¥Ģ
isten za
Ġd Ã¶vlÉĻt
ãĥ Ĵ
Ġb ÄĽ
Ġmog Äħ
Ġac uerdo
ĠáĢĨ áĢĽáĢ¬
Ã¸ ger
Ġequ ip
Ġà¤ ł
Ġcount ries
ĠÎļ ÎĳÎĻ
ÑģÑĤÐ² Ð¾Ð¼
Ġar ch
ick Ã½ch
g atÃ³
ĠgÃ¶re v
Ġà¦ªà¦° à¦¿à¦ļ
ch io
±áģ¾áĢĢ áĢ¬áĢĦáĢ¹áĢ¸
ĠÙħØ±Ø¨ ÙĪØ·
à«Ģàª ª
ĠÐĿÐ¾Ð² Ð¾ÑģÑĤÐ¸
ĠK o
ĠÐ´Ð¾ÑĢ Ð¾Ð³
ĠG mb
ì Ĥ
Ħ à¹Īà¸
ĠÐł Ñĺ
Ġolm asÄ±
Ġexp Ã©r
ĠëĲ ľ
å½± éĻ¢
Ġìŀ Ħ
Ġ×Ĳ×ª ×Ķ
ÙĬ ÙĤ
Ġbis og
ab ila
ĸ à±įà°¯
ĠG eld
ĠHo e
Ê» e
Ġæ ¹
Ġhas t
an ken
ĠÐ² Ð»
Ġdes prÃ©s
Ġn Ã©lk
Ġam it
____ ____
Ġy le
ĠÙĦ Ø¯
Ġà¤¤ à¥ĩ
ĠT idak
æĤ ¨
Ġbie tet
Ð¾ÑĢ ÑĤÐ°
Ġ×Ĳ ×ľ×Ĳ
ĠÉĻs as
ĠqÉĻd ÉĻr
ÏģÏī ÏĢÎ±
Õ¸ÖĤÕ©Õµ Õ¡Õ¶
ĠÙĨ Øµ
ix en
Ġbain a
Ġcer ca
ich a
Ġz onder
Ġseg uridad
ĠgÃ¶n der
Ġav ut
ĠØ¬Ùĩ Ø§ÙĨÛĮ
Ġin m
ĠÎ½ ÏĮ
Ġh Ä±z
Ġinterest ing
l ser
Ġaant al
ĠØ¢ÙĨ ÙĦØ§ÛĮÙĨ
er er
áĢĢáĢ¹áĢ Ĳ
Îķ Î¥
ĠgÃ¼ Ã§
áĢĦáĢ¹áĢ Ļ
ĠÐ¿ÑĸÐ´ ÑĤ
an Ä±z
Ġy hd
Ġie g
k amer
Ġk ne
pr Ã¼
uj ar
Ġà¤ķà¤° à¤¤à¤¾
ãĥķ ãĤ§
à«ĩàª¶ àª¨
ĠáĢ¡ áĢģ
Ġgel iÅŁ
j mÃ«
ĠØ¯ÙĨ ÛĮØ§
Ġpriv ind
ãĤĴ ãģĬ
Ø³ Ø§ÙĨÛĮ
Ġj elen
ĠÐ¿ÐµÑĢ Ð¸Ð¾Ð´
ãĥ¼ãĥ ģ
Ġpu ol
Ġjed er
ÏĢÎ¿Î¹ Î·
ĠØ£ ÙĤ
ķà¸±à¸ §à¸
Ġv inden
Ðŀ Ðŀ
à¤ı à¤¸
Ġc ross
di ÄŁ
è± ¡
Ä± t
Ġn Ã¡v
ba ÈĽi
ÑĢ ÐµÐ¶Ð´
ĠY orum
à°Ĥà° §
åį °
b wa
ĠÒ ¶
à´¤àµįà´¤ à´¿à´¨àµį
ant or
ĠD ien
é¡ ĺ
Ġsi itÃ¤
Ġà¤ĺ à¤°
ĠÑĥÐº Ð°Ð·
ĠÐ¡Ð ¨ÐĲ
ĠS up
um mer
à¦¾à¦ ·à§įà¦Ł
ĠÑĦÐ¸Ð½ Ð°Ð½Ñģ
Ġ ą
Ġsa w
×ĸ ×¨
à®ļ à¯į
Ø·Ùģ Ø§ÙĦ
áĢĢáĢ¹áĢ ¡
Ġr ice
å®ĺç½ĳ ä¸ĭè½½
à®® à¯įà®®
Ġmag gi
j el
Ġlie u
ĠØ« ÙĦØ§Ø«
ĠÙĨÙĪØ´ ØªÙĩ
as is
Ġpr en
Ġà®® à®¾à®¤
ĠÐĲ Ð´
àµįà´ ķ
Ġdz i
Ġbe f
Ġdro it
Ħà¸£à¸Ķà¸´à¸ķà¸ Łà¸£à¸µ
ĠâĢ ¡
n ier
ĠÐ² Ð¸Ñħ
à¹Ģà¸ ĭ
Ġà¦® à¦¾à¦¸
Ġhen kil
ĠÑĥ Ð»Ð¸
Ã© ld
Ġalle m
à¥įà¤° à¥ĩà¤¸
à¦¦ à¦¿à¦¨
×ĳ×¨ ×Ļ×Ŀ
ĠÐ± Ð¾Ð»ÑĮ
à¯įà®¨à¯įà®¤ à¯ģ
é¢Ħ æµĭ
Ã©r io
Ġàªķ àªĤàª
ĠU ma
ÑĨÑĸ Ñİ
Ð° Ð°ÑĤ
eld ig
Ġluc ru
Ñģ Ð°Ð¼Ð°
Î´ Ïī
ya br
ett es
Ġforskell ige
Ġg á»ĵm
ĠØ¨ÙĪØ¯ ÙĨ
ÑĢÑĥ ÐºÑĤ
Î¹Î½ Î®
ĠÙħØ¨ Ø§Ø´
à¥ĥ à¤¤
Ġneg ara
Ġ×ľ ×ŀ
à±ĩà° ¤
ãģ ŀ
à«įàª ¬
ÑĢ Ð¸ÑģÑĤ
az h
Ĺà¸¸à¸ ģà¸
Ġç Ĳ
ĠÐ¾ ÑĦÐ¾ÑĢÐ¼
ĸà¸ ·à¸Ń
æķ° æį®
Ġà¤ħ à¤ļà¥įà¤Ľ
è Ľ
Ġcu c
æ± ī
Ġàª°àª¹ à«Ģ
ĠEn tw
åĢ į
ĠO pp
ĠÐłÐµÑģÐ¿ ÑĥÐ±Ð»Ð¸Ðº
ĠE y
ĠÎ´ Î¹Î¿
Ø¨ÙĦ Øº
áĢģáĢ» áĢĢáĢº
Ġservi Ã§os
ĠB and
Ð»Ñı ÑĤÑĮ
ĠØ§ÙĦØ£ ÙħÙĨ
Ġrequire ments
Ĥ à¹īà¸²à¸
en Ã«
ab an
all en
ĠÏĢÏģÎ¿Ïĥ Ïī
Ġmi att
Ġw eng
ĠÐ¾ÑĢÐ³Ð°Ð½Ð¸Ð· Ð°ÑĨÐ¸Ð¸
Ġs ak
Ġà¦¬ à¦¾à¦°
Øµ ÙĪØ±
ĠØ§ÙĦØ¹ ÙĤ
ĠÙħ ÙħØ§
Ġl iet
Ġch á»©
Ġdevelop ed
ĠT á»«
Ø¯ Ø§Ø´Øª
Ġ×© ×¨
ben d
if at
Ġst ati
à¤¿à¤² à¤¾
Î³Ïī Î³
Ġha qq
Ð½ ÑĤ
ĠÙĪØ§ÙĦ Ø¯
Î² Îµ
Ġà®ª à¯ģà®¤
ĠÑģÑĬ Ð±
à¥ĭ à¤§
Ġà¦¹ à¦¤à§ĩ
h Ã¡z
ict ion
i al
amo ja
al jer
ÑĤ ÑĤ
Ġè Ĥ
Ġà¤ķ à¥įà¤°
Ġ3 7
iss ance
c in
Ð¾Ð½ Ð´
Ġihr er
ĠÐ¿Ð¾ÑģÑĤ Ð¾ÑıÐ½
æī ¿
Ġel lo
ĠÙĪØ² ÙĬØ±
Ð¸Ð¼ Ð¾
nÃ© l
ĠÐº ÑĢÑĥÐ¿
Ġà¸ªà¸ ¡à¸±à¸
Ġcuis ine
ĠS er
à¤ķ à¤¾à¤°à¥Ģ
Ġgi ver
ãģª ãĤĭ
ĠØ¹ Ø¯Ùħ
Î² Î¬Î»
Ġwr ite
Ġàªľà«ĭàª Ī
is ia
it ori
Ġsch Ã¶n
ta ur
àªµ à«ĭ
it ty
ĠNe j
ĠÐ¾Ð±ÑĬ ÑıÐ²
ĠÐ²ÑĬÐ· Ð¼Ð¾Ð¶
Ġkol ay
éĿ ©
ĠØª Ø¬Ùĩ
Ġcas es
ļà¸²à¸ Ħà¸²à¸£
ÑĮ Ð²
ç³» ç»Ł
Ġ×¢ ×ĳ×ķ×¨
Ã© char
Ġpar ents
Ġexperien cia
ĠEn t
à§ĩà¦® à§įà¦¬à¦°
Ġæı Ĳ
Ġgi ov
l Äĵ
ur der
ĠÑıÐº Ð¸Ñħ
ĠØªÙĪØ§ÙĨ Ø¯
v ang
Ġ×ľ ×Ľ×ľ
ĠÐł Òĳ
×© ×ķ
ÅŁ ti
ĠCh á»§
je gy
à°¿à°¯ à±ģ
Ġm Äĵ
es ten
ĠØ§ÙĦÙĥ Ø«ÙĬØ±
Ù¹ Ø³
ãģķãĤĮãģ¦ ãģĦãĤĭ
Ġhis toire
Ġå¹ ¸è¿Ĳ
à¦¹ à¦¾à¦°
à®µ à®°à¯į
Ġrec om
åģ ¥
ure zza
à®µ à®°
ÑĨÐ¸Ñı ÑĤÐ°
ĠagåĽ½éĻħ åİħ
pe z
em bre
eder al
Ġwsp Ã³ÅĤ
çĻ» éĻĨ
à±įà° ¬
ĠØ¬ Ûģ
Ġber l
Ġ×Ľ ×ĳ×¨
à¦¿à¦Ł à¦¿
ĠN et
×Ĵ ×¨
Ġcu er
Ġc abe
Ð¾Ð´ Ñĸ
ĠA y
à¥ĩà¤ ¬
Ġ×§ ×ĺ
Ġ×Ķ×ŀ× ¢
Ħ à¸£à¸²à¸°à¸
Ġbamb ini
Ġim ages
ĠáĥĲáĥ¡ áĥĶáĥķáĥĶ
ĠáĥĲáĥ® áĥļ
áĥĲáĥľ áĥ¢
ĠáĥĽ áĥĺáĥĸ
áĥ£ áĥĲáĥļ
ĠáĥĻ áĥĺáĥĵ
ĠáĥĽ áĥĲáĥĽ
áĥĲáĥ Ń
áĥĽ áĥĶáĥĵ
áĥĲáĥ¡ áĥĺ
ĠáĥĽáĥĿáĥ ®
Ġáĥ¡áĥĲáĥ®áĥĶáĥļ áĥĽ
ĠáĥĹ áĥ£áĥĽ
áĥĺáĥ¡ áĥĹáĥķáĥĺáĥ¡
áĥ¬ áĥĺáĥ¤
áĥĶáĥĽ áĥĳ
áĥĲáĥłáĥ ©
Ġáĥĺáĥľ áĥ¢
ĠáĥĽ áĥĻ
áĥĶáĥłáĥ ķ
áĥ¥ áĥĿáĥľ
Ġáĥ¡áĥĲáĥ ¤
áĥĵ áĥĿáĥĽ
áĥ£áĥłáĥ ¡
áĥĶáĥĳ áĥĶáĥĳáĥĺ
áĥķ áĥĺáĥļ
ĠáĥĽ áĥĿáĥĴ
áĥĲáĥĹ áĥĲ
ĠáĥĽáĥĺáĥĽ áĥĲáĥłáĥĹ
áĥĲáĥĹ áĥķáĥĺáĥ¡
ĠáĥĹáĥ£áĥĽ áĥªáĥĲ
áĥľ áĥĺáĥ¨áĥķ
Ġáĥĳ áĥł
Ġáĥ¢ áĥł
áĥĿáĥĳ áĥĲáĥ¨áĥĺ
áĥĲáĥķ áĥĲáĥĵ
ĠáĥĻ áĥĲáĥľ
áĥĶáĥ¥ áĥ¡
Ġáĥŀ áĥĲáĥ¢
áĥ£áĥłáĥ ľ
áĥĶáĥłáĥ Ľ
áĥĺáĥĻ áĥĲ
áĥĿáĥĵ áĥĶáĥ¡
áĥĵ áĥľáĥĶáĥľ
ĠáĥĴ áĥĲáĥ£áĥ
áĥłáĥĴ áĥĲáĥľ
Ġáĥĳ áĥĲáĥķáĥ¨
ĠáĥĽ áĥĺáĥĶáĥł
Ġáĥ¨áĥĶáĥ £áĥ
áĥ£áĥ ¢
áĥĵ áĥĶáĥľ
ĠáĥĶáĥłáĥĹ áĥĲáĥĵ
Ġáĥ¡áĥĲáĥĶ áĥłáĥĹ
áĥĶáĥĳ áĥĲáĥ¨áĥĺ
Ġáĥ¨ áĥĿáĥłáĥĺáĥ¡
áĥĲáĥ« áĥĶ
Ġìł Ĳ
ĠáĥĽ áĥª
áĥĶáĥ ¨áĥĺ
áĥĶáĥĳ áĥĽáĥĲ
ĠìĤ ¼
ëĭ ´
Ġìĭ ¬
ëĵ¤ ìĿĦ
Ġë§ ŀ
ì¶ľìŀ¥ ìĦľë¹ĦìĬ¤
Ġáĥ¡áĥĲáĥ®áĥĶáĥļáĥĽ áĥ¬áĥĺáĥ¤
ĠáĥĲáĥ® áĥĲáĥļ
Ġáĥ¡ áĥĺáĥĽ
Ġáĥĵ áĥłáĥĿáĥ¡
áĥĶáĥĳáĥ£áĥļáĥĺ áĥĲ
Ġì² ľ
et ail
Ġ Ïī
ĠÐ´ÐµÑıÑĤÐµÐ»ÑĮ Ð½Ð¾ÑģÑĤÐ¸
Ġáĥľ áĥĲáĥ®
Ð¾Ð· Ð¼Ð¾Ð¶
D etail
ĠÑģÐ¿ÐµÑĨÐ¸ Ð°Ð»Ð¸ÑģÑĤ
íĻ ľ
oun tain
Î¸ ÏħÎ½
ĠÐº ÑĥÑĢÑģ
Ġph otos
Ġda ily
Ġsu it
Ġáĥ¨áĥĶáĥ¡ áĥĲáĥ«áĥļ
ÏĦÎ¹ÎºÏĮ ÏĤ
áĥľáĥĺáĥ¨áĥķ áĥľáĥĶáĥļ
ous ly
ĠÏħÏĢÎ¬ÏģÏĩ ÎµÎ¹
ĠØŃ ÙĬÙĨ
ÎµÎ¯ Î¿Ïħ
ĠÐ¿ÑĢ Ð¸Ðº
ĠÎµ ÏĦÎ±Î¹
Ø§Ùħ ÙĦØ©
ĠáĥĲáĥĽ áĥĳ
ãģ¨æĢĿ ãģĨ
Ġíķ¨ ê»ĺ
Ġpou co
ĠÐ°Ð´ ÑĢÐµÑģ
Ġres taur
c Å¯
f ik
t Ã¼r
Ġìļ ´
is iin
tiv a
Ġleg al
Ġm ention
ÙĪÙĦ ÛĮ
åĭ Ŀ
ĠÐ¾Ð¿ ÐµÑĢ
Ġstr utt
ĠØ¢Ø®Ø± ÛĮÙĨ
ĠÐ¶Ð¸ÑĤ ÑĤÑı
ÙĲ ÙĦ
Ġà¸ ģà¸£à¸
ĠÐ¯Ðº ÑīÐ¾
ĠzÃ¡k lad
ĠÐ°Ñģ Ð¾Ñģ
ĠØµ Ø±Ùģ
Ġgo ede
Ġå¤§åıĳ å½©ç¥ŀ
×ķ×ĳ ×Ļ×Ŀ
Ùģ Ø¸
Ġwie le
éĵ ¾
ãĤ± ãĥĥãĥĪ
Ġìłľ ê³µ
ÐµÐ½ Ð½Ñĸ
ĠÎ´ ÎµÎ¯
Ġáĥķ áĥĺáĥľ
Ġàªľ àª¾àª¯
Ġcu á»ĳi
ĠÏĩÏģÎ· ÏĥÎ¹Î¼Î¿
ĠÑĦ Ð¸Ð·
z elf
ĠÙħÙĪØ¨ Ø§ÛĮÙĦ
à§įà¦ Ń
ĠU pp
ĠÎ² Î±Ïĥ
ìĿ´ ëĤĺ
é Ĳ
Ħ áĢ¼
à§ģ à¦¤
ë§ Ŀ
Ġ200 9
Î½ ÎµÎ¹
Ġà¦¸ à§įà¦Ł
Ġaut o
à¦¿à¦¬ à¦¾à¦°
ĠØªØµ Ø§
Ġà¤¬ à¤ļà¥įà¤ļ
à§ĩà¦ ¹
à®² à®¿à®²à¯į
áĥĺáĥĽ áĥĶ
Ð½ ÐµÑģ
sz t
ut an
ĠnÃ© cess
ĠGmb H
Ġà¨ ¨
Ñĥ Ð³Ð¸
k ovÃ©
Ġqual idade
l Ã¸
Ġasi ak
å¯ Ĩ
eb ilir
air s
ĠÐ¿Ð¾Ð¿ ÑĥÐ»ÑıÑĢ
Ġ ãģĭ
Ġà´ļ àµĨ
ĠØ¨Ø³ÛĮ Ø§Ø±ÛĮ
re bbe
Ġáĥł áĥĲáĥĽáĥĵ
Ġglo bal
Ġeen s
Ñī Ñĳ
ãģ«ãģª ãģ£ãģŁ
ĠØ£ØŃ ÙħØ¯
Õ º
Ġmit Ã¤
Ġàª¨ à«ĭ
Ġ8 0
Ġtar v
unya i
ãĤ¿ãĤ¤ ãĥĹ
áºŃ m
ĠÑģ Ð±Ð¾ÑĢ
ar ik
cep ut
ĠnÄĽ jak
ĠìĿ Ģ
à¦°à§įà¦ ľ
Ãª re
ik ki
ĸà¸ ¹à¸ģà¸
à¤ Ŀ
ĠÎ± Î¹
æķ ħ
v alt
Øº ÙĬ
Ġcho ix
è¾ ĥ
ÏĦ ÏģÎŃ
à®µ à®°à¯įà®ķà®³
ãģŁãĤģ ãģ«
å¦Ĥ ä½ķ
Ħà¸£à¸²à¸°à¸ «
à¤¿à¤ ¹
Ñĸ Ð¾Ð½
Ġprze ci
ĠÐºÐ¾Ð½ ÑĨ
áĢ¾ áĢ¯
±áĢĽ áĢ¸
emb ang
Ġsed ang
Ġlos t
Ġf ot
Ġ áĤıáĢŃáĢ¯áĢĦáĢ¹áĢĦáĢ¶
Î¹Ïĥ Îµ
ear ch
tell ing
Ø§Ø±Ùĥ Ø§Øª
m az
à¦¦à§įà¦ ¦
ĠT all
ĠÐ±Ñŀ Ð¹
Ġsto ck
æº Ģ
p ut
Ġ×ł ×§
Ġà®İà®© à¯į
ä¸į åı¯
àªµàª¾àª¨ à«ĭ
ĠØ¨Ø± Ø§ÙĬ
Ġder i
Ã¡r Ã³l
à´¿à´ķàµįà´ķ àµģà´¨àµįà´¨àµģ
cyj ne
ĠØ· Ø±ÛĮÙĤ
ĠÐ¾ÑĤ Ñģ
»áĢķ áĢ³
à±ģà°ķ à±ģà°¨à±įà°¨
å² Ľ
Ġpal ab
ĠÐ¿ÑĢ Ð²
Ġ×© ×ª
Ġb all
[...]
