#version: 0.2
Ġ Ð
Ð ¾
Ð µ
Ð °
Ð ¸
Ñ Ĥ
Ð ½
Ñ Ģ
Ñ ģ
Ð¾ Ð
á »
Ð »
Ð º
Ñ ĥ
á º
Ñ ı
ã ģ
Ñ ĭ
n g
Ð° Ð
Ðµ Ð
Ġ d
Ġ t
Ñ Į
ĠÐ ¿
e s
Ñģ ÑĤ
Ġ c
Ġ ,
Ã ©
Ġ Ä
ã Ĥ
o n
n h
e n
ĠÄ ĳ
Ġ l
e r
Ã ł
ã ĥ
i e
Ã ¡
Ġ p
Æ °
Ġ a
Ġt h
Ġ .
ã Ģ
Ġ w
Ġd e
Ġ s
Ġ v
Ġ ãĢ
Å Ĥ
c h
o u
t o
Ġ h
ãģ ®
r e
Ġ Ã
Ġc h
Ġ z
o s
Ġ m
ãģ Ħ
Ġ b
ĠãĢ ģ
a n
i n
i á»
ãĥ ¼
o w
i s
Ġ k
ï ¼
ãģ §
t i
Ġ Â
ãģ Ĺ
Ġ n
a s
ãģ «
q u
Ä Ļ
Ġ S
ãģ ¦
l e
en t
Ġ ãĥ
u n
Ä ħ
ãģ ¨
i ch
ãģ ª
t a
ĠãĢ Ĥ
r z
e t
i t
a r
Ð ²
ĠÐ ²
Ñ ĩ
Ðµ Ð½
Ġ Ñģ
Ð ¼
ĠÐ ½
Ð¾Ð ²
ĠÐ ¸
Ð ´
Ġt r
ĠÐ ¾
Ñ ħ
ĠÐ º
Ġ nh
Ðµ ÑĢ
ãģ Ł
Ð° Ð½
Æ° á»
Ðµ ÑĤ
ĠÐ ´
c z
áº ¡
Ð ¿
Ð¾ ÑĢ
t e
Ð° ÑĤ
áº ¿
Ð¾Ð »
ãģ Ļ
Ġ T
o r
ãģ Į
Ã ´
Ã ³
Ġ g
e in
u r
Ã ª
ãĤ ĭ
Ġd i
Ġk h
Ġ â
ãĥ ³
Å ¼
Ġ -
Ġ '
c i
áº £
Ġ å
Ã ¼
ãģ ¯
Ġ ng
Ġ A
Ġâ Ģ
l i
a d
un d
á» Ļ
Ġ f
Ġ ï¼
ãģ ¾
ti on
o d
áº ¥
Ġl a
Ġ B
Ġ ãĤ
i a
Ġ D
ãĤ Ĵ
Ġp h
i l
Å Ľ
u ng
Ġ C
Ġ æ
ou r
Ġ e
Ã ¢
ãģ ĭ
Ã ¤
Ġn a
ãģ £
Ġ et
á» ĳ
l l
ä ¸
r a
ãĥ¼ ãĥ
iá» ĩ
Ġ j
Ġ M
ãĤ Ĭ
Ġ en
Ã ¬
Ġ und
Ġ o
ãĤ Ĥ
Ãª n
Ġ un
ĠÐ¿ ÑĢ
Ð¾Ð ¼
Ñ İ
Ð¸ ÑĤ
Ð½ Ñĭ
Ð¾Ð ´
ĠÐ ¼
Ðµ Ð»
Ð ±
Ð° Ð»
Ġ i
Ñ Ī
Ġ ÑĤ
Ñ Ĩ
ãĤ ¹
Ġ ÑĢ
Ã´ ng
Ð ·
u s
Ð½ Ð¾
Ð¾Ð ³
Ġ ãģ
Ġ 1
Ð ¹
Ñģ Ðº
k a
Ð ³
ãģ Ĩ
Ð¾ ÑĤ
Æ ¡
t en
Ġ P
ãĤ Į
Ġ 2
i ÄĻ
ĠâĢ Ļ
Ġ N
ãĥ ĥ
á» §
Ġ in
ãĤ ī
Ġ Ãł
qu e
Ä ĩ
áº Ń
ãĤ ¤
r i
ãĥ Ī
Ġ ein
ĠÄĳ á»
Ġ :
ä º
a k
i on
Ġ ç
Ġv á»
r o
rz e
Ġl e
e l
ãĤ ĵ
ãģ ı
Ġv Ãł
a l
z y
Ġd er
Ġ y
ç Ķ
áº §
Ġ L
æ ľ
Ã³ w
o l
Ã Ń
o m
Ġ 0
ãĥ «
Ġ qu
Ġ F
n i
ä »
Ġ x
Ġ E
ãģ į
k i
i áº¿
g o
Ġ è
Ġ K
Ġ /
m ent
z ion
Ġd ie
ãĤ ¯
Ã ¨
Ã¡ c
n e
c a
ãĥ ©
Ġl Ãł
d z
Ð¸ Ñı
ĠÐ ±
Ð¾Ð ¹
ÐµÐ ¼
ĠÐ½ Ð°
Ð° Ðº
Ð¾ Ð½
Ð¸ Ð½
ÐµÐ ´
Ð° ÑĢ
Ġ G
ĠÐ ·
Ġ Ñĥ
Ñ Ħ
ãģ¾ ãģĻ
Ñ ī
Ġp er
Ð°Ð ²
Ġd es
Ð°Ð ¼
Ð¸ Ðµ
ãģ ĵ
Ġ W
Ð°Ð ·
Ñģ Ñı
Ġ H
Ð ¶
å ®
ĠÐ ³
Æ°á» Ŀ
a m
Ġc on
Ġ é
y ch
t er
Ġth á»
c e
æ ĸ
h r
ll a
ãģĹ ãģ¦
Ġd o
r Ã©
u y
Ġ es
ãĥ ª
y m
ãģ ķ
e i
Ġt á»
c j
Ġ (
u f
i o
å ı
Ġl es
Ľ i
Ġ que
t y
Ġ il
ãģ£ ãģ¦
ãģ Ĥ
e it
áº¥ t
Ġp o
s ch
Æ°á» £
ãģ§ ãģĻ
Ġ I
n ie
å ¤
Ġe l
Ġch e
an t
áº¡ i
Ã ¶
ä ½
Ġz a
zion e
ï ¿
ãģ ł
Ä ĥ
Ġ Ã©
å Ī
Ġw y
g e
m a
å ħ
ï¿ ½
ãģĹ ãģŁ
Ġg i
Ã³ n
Ġn ie
Ġ )
Ġ R
Ġde l
Ġc á»§
g en
Ĺ ¥
n a
v e
Ð» Ð¸
Ð¾ Ñģ
Ð¸ Ðº
Ġ Ñĩ
Ð¸ Ð¼
ÑģÑĤ Ð²
ĠÐ Ł
Ð¾Ð ±
Ð¾Ð³ Ð¾
ĠÐ ¡
Ġc Ã³
ĠÐ Ĵ
Ð» Ñı
ÐµÐ ¹
Ġãĥ »
Ð° Ñı
w a
Ñ į
ou s
ĠÐ °
Ð¸ Ð¸
ãģ ĳ
b er
Ðµ Ðº
Ð¾ ÑģÑĤ
Ġd a
Ð°ÑĤ ÑĮ
ãĥ³ ãĥ
Ð° Ñģ
Ġs iÄĻ
Ġa u
Ġcá»§ a
ãĥ³ ãĤ
i d
Ġ V
c o
Ġ u
ãĤ Ī
r es
Ã º
ãĤ ¢
d er
o ÅĽ
z a
ĠÄ Ĳ
ãģ® å
a u
ãĥ¼ ãĤ
Ġs e
c k
Ġh á»
ãĥ ¬
rz y
m e
æ Ĺ¥
Ġa l
Ã £
Ġ2 0
ÅĤ a
l ich
å Ĳ
ãģ Ĭ
Ġp our
Ġs u
j e
o ng
Ã¼ r
è ¨
Ġp ar
Å¼ e
ãģª ãģĦ
ĠT h
Ġz u
d i
á» ĭ
j Äħ
ãģ£ ãģŁ
t re
Ã¬ nh
s i
äº º
an s
áº ¯
è ¦
a t
w i
Ġc om
ï ½
Ã¢ n
å ¹
d en
Ġp rze
á» ¯
é Ģ
ĠÃ ¨
Ġes t
k u
s t
ãģĻ ãĤĭ
ci Ã³n
Ã ²
Ð¾Ð º
ĠÐ ļ
Ð¾Ð ¶
ĠÐ »
Ð¸ Ð»
ĠÐ¾ ÑĤ
ÑĤ Ð¾
ĠÐ½ Ðµ
Ð¸ Ð¹
ÑĢ Ñĥ
i r
Ð¸ Ð²
Ġ Ñį
ĠÐ¾ Ð±
é ĸ
ÐµÐ» ÑĮ
v a
Ðµ Ñģ
iá» ģ
Ġ ÑģÑĤ
Ð¸ Ñĩ
ãģ ©
Å Ħ
Ð°Ð ´
ÐµÐ ²
is t
Ð¾Ð» ÑĮ
ãģĭ ãĤī
ĠÐ¿ Ð¾
á» ±
es t
Ġd u
ãģ Ī
Ġa n
c y
d o
Ġ r
ãĤ ģ
ich t
Ġun e
æ Ģ
Æ°á»£ c
l a
Ġd as
Ġ od
ä ¼
Ġp or
ãĤ Ħ
g li
á» ©
e j
ãģ® æ
g g
s e
é ģ
á» ¥
Ġl os
Ġ re
k o
d e
ãģĵ ãģ¨
ãĥ ķ
á»Ļ t
Ġd Ã©
Ġ O
c ie
n o
Ġï¼ ī
i re
Ġm it
ãĥ Ń
Ġc Ã¡c
Ġ Z
Ġt o
on t
m p
ĠãĢ į
i nh
Ġs p
Ġv on
Ġï¼ Ī
Ġkh Ã´ng
an ie
ãģ ¤
m o
Ġs i
Ãł y
ãģ ¡
s z
å º
an d
k ie
b en
è ¡
Ġs ur
p p
Ġch o
Ġpar a
0 0
Ġ 3
e go
Ð¸ ÑĢ
ÐµÐ ³
ĠÐ ł
ĠÐ Ŀ
ĠÐ ľ
ÐµÐ½ Ð¸Ñı
Ð¸ÑĤ ÑĮ
Ð¸ Ð·
ĠÐ ŀ
Ð¾Ð ·
s o
Ð°Ð» ÑĮ
ĠÐ² Ñĭ
Ðº Ð°
ãĤ ¿
Ðº Ð¸
Ã ¹
Ð½Ñĭ Ðµ
Ġd en
Ð°Ð ±
Ġ "
å ¸
Ġ20 1
ĠÐ µ
Ð½Ñĭ Ñħ
an ia
Ð¸ Ñħ
ãĤ ·
Ð¾Ð ¿
to s
t Ã©
m i
ãģ Ľ
á» Ł
u t
o b
Ġ U
å Ľ
iá»ĩ n
Ġ ro
ãĥ Ĺ
ad o
Ġg e
a is
ĠÄĳ Æ°á»£c
å¹ ´
cz y
ĠãĢ ĳ
u e
Ġ J
a re
ĠãĢ Į
ow a
Ġd ans
Ļ Ĥ
Ġ er
ï¿½ ï¿½
áº ·
Ġm o
Ã ±
ãĤ £
ãĤ ı
an o
Ġp ro
ch en
Æ° Æ¡
en ia
æ °
Ġ rÃ©
i Ãªn
æ ī
r y
Ġ ist
a b
er e
Ġp as
ãģ ¿
áº§ n
n y
Ġj est
ãģĦ ãĤĭ
Ġp l
Æ°á» Ľ
ãĤ ³
ci on
Ġf Ã¼r
Ġ ri
å Ń
ÅĤ o
é ĩ
Ġa uf
on o
it Ã©
å ĵ
Æ°á»Ŀ i
Ġl as
w o
. .
Ġãģ Ŀ
Ã© e
Ã Ł
Ð°Ð ¹
ÐµÐ ·
Ð½Ñĭ Ð¹
Ð¸ Ñģ
ÑĢ Ð°
ĠÐ Ĳ
Ð½ Ð¾Ð¹
ĠÐ Ķ
Ġ ÑĦ
Ð° ÐµÑĤ
Å¼ y
Ð½Ð¾ ÑģÑĤ
ĠÐ¸ Ð·
Ð½ Ð¾Ð³Ð¾
ĩ º
ÐµÐ½ ÑĤ
u l
ÐµÐ½ Ð¸Ðµ
Ġtr ong
ĠÐ´ Ð»Ñı
Ñĥ ÑĤ
ãĥĥ ãĥĪ
a le
Ð°Ð ¶
Ñİ ÑĤ
Ġv er
Ñĥ Ð´
çĶ ¨
ĠÐ ¢
oÅĽ ci
Ġn o
a y
å Ĩ
d y
Ġde lla
Ġqu i
i er
ç ´
Ġm á»Ļt
ĠS ch
æ Ŀ
en to
Ġp od
u x
Ġein e
å ł
Ġun a
Ġ ä¸
Ġ 4
t u
Ġng h
å ĭ
Ġj ak
f f
ãĥĥ ãĤ¯
áº¡ n
a z
a tion
t Ã³
an n
è ª
è ²
in e
ÃŃ a
ĠC h
Ġ ou
a to
ç Ľ
Ġvá» Ľi
Ġi m
ç µ
m y
d ad
it e
Ġp rzy
iá» ĥ
ãĥ Ĩ
Ġn on
ĠV er
Ġ 5
ãĤ «
Ġf a
en ie
å ¾
a ch
Ġa ve
e c
æĸ Ļ
Æ°Æ¡ ng
å ¼
v i
Ġs ch
Ġc z
ãģ¾ ãģĹãģŁ
m en
a ng
Ġv ous
Ã¡ s
è Ģ
it Ãł
iá»ģ u
ÑĨ Ð¸
Ð° ÑģÑĤ
Ð¾ Ñĩ
ĠÐ ¶
ĠÂ »
Ð¸ Ð´
Ðµ ÑģÑĤ
ĠÐ ĺ
Ð¸ ÑģÑĤ
ĠÑĩ ÑĤÐ¾
e m
Ðµ ÑģÐº
Ñĥ Ñİ
ĠÐ¿ Ð¾Ð´
ãĥ ¡
Ñı ÑĤ
i g
Ñĥ ÑĢ
ÅĤ y
Ð°Ð ¿
ĠÂ «
ãģ® ãģ§
ol o
Ðµ Ñĩ
ĠÑĢ Ð°Ð·
Æ°á»Ŀ ng
Ð¾Ð² Ð°Ð½
ç Ħ
ĠÐ ĳ
s en
Ġv o
Ġm a
Ġï¼ ģ
áº£ i
cj i
Ġn icht
ad a
åĪ Ĩ
b i
il le
ãģ¨ ãģĦ
n en
Ãł ng
ur s
Ġp i
Ġãģ ĵ
ci a
ãĥ ŀ
á» ĩ
ie l
Ġpl us
å ¿
á» į
k ow
æľ Ī
in d
Ġl o
ch e
Ġk tÃ³
Ãł nh
ãĥ £
æ ¥
i c
Ġave c
Ġc u
h l
v er
å ĩº
Ġd z
áº£ n
ä¼ ļ
n ych
Ġe x
Ġs ich
i ca
Ġng Æ°á»Ŀi
ãģĦ ãģ¾ãģĻ
Ġc e
Ġ Å¼e
v o
å Ĭ
s te
ment e
ĠãĢ Ĳ
c es
Ãł n
od z
åĵ ģ
Ġw ir
ãĤĴ æ
ĠL e
á»¯ ng
s zy
ä ¿
Ġa us
z za
Ġh a
on s
ãĤ µ
dz ie
l es
Ñĥ Ñĩ
Ð½ Ð¸Ðº
ĠÑģ Ð²
ĠÐ± Ñĭ
Ð°Ð ³
ĠÐ¿ÑĢ Ð¾
ÐµÐ ±
Ġ Ñħ
Ð½ Ð°Ñı
ĠÐ¿ ÐµÑĢ
ĠI n
ĠÐ² Ñģ
Ð¸Ñĩ ÐµÑģÐº
ĠÐŁ ÑĢ
ãĥ ī
Ð½Ñĭ Ð¼
w ie
Ð½ Ð°
Ġp e
ÑĢ Ð°Ð½
Ð ŀ
Ġï¼ ļ
Ã¡ ch
Ð¿ ÑĢ
Ðµ ÑģÑĤÐ²
i en
ĠÐ¿ Ð¾Ð»
äº ĭ
ĠÑĤ Ð°Ðº
f t
Ġb y
a li
ãĥ ¥
Ãł i
ĠS ie
ent e
an ce
å¤ §
cz e
áº§ u
æĸ ¹
ou t
c u
Ġb e
b b
ãĥ Ĳ
ÅĤ u
ç ī
an do
Ã© s
a o
é Ľ
b y
zion i
Ġæ ľ
u m
Ġnh Æ°
Ã¨ s
ung en
p a
ãģĤ ãĤĭ
æľ ¬
á» ĵ
ĠD e
Ġs z
ĠE n
ll o
ãĥ ģ
k t
Æ°á»Ľ c
å ±
Ġj e
c tion
u o
ĠE s
Ġ !
Ġ ä»
Ġp r
ĠD ie
Ã¢ y
å ľ
in a
en d
ãģ Ŀ
n ia
áºŃ n
es z
ãģ °
cion es
ãģĦ ãģŁ
ur a
Ã¨ re
Ġau ch
ãĤĪ ãģĨ
ĠÄĳ á»Ļ
in o
Ġ ÅĽ
t s
å į
Ġn e
al es
ĠÐ ĵ
Ñĭ Ðµ
ÐµÐ ¿
Ð½ Ð¸
ÑĨ Ð¸Ð¸
Ð¾ÑĤ Ð¾ÑĢ
ĠÐº Ð°Ðº
Ð ł
Ð°Ð¼ Ð¸
ĠÑį ÑĤ
Ġb ei
ĠÐ¸ Ð½
Ñĭ Ð²
ÐµÐ ¶
æ ĻĤ
Ð ¡
ow ie
Ñħ Ð¾Ð´
Ġh o
ĠÑģ Ð»
Ð´ Ð°
ãĥ ĭ
in i
Ġ Ñı
Ñĥ Ð¿
l o
ĠÐ¿ÑĢ ÐµÐ´
ãģ¨ãģĦ ãģĨ
Ð Ĳ
u b
Ġs o
ĠE l
å ī
d a
Ã´ i
qu es
m er
å ¯
Ġnh á»¯ng
Ġt ak
ãģķ ãĤĮ
u ch
Ġs ta
ĠL a
ĠA n
ä¸ Ń
Ġa c
ãģ« ãģª
Ġt e
Ġde m
a nh
æ Ħ
Ġo b
áº¿ n
ãģĤ ãĤĬ
ĠS p
b le
an i
b e
or t
åħ ¥
ãĥ¼ ãĤ¹
á» ķ
ĠR e
ĠâĢ ĵ
b re
Ġp ra
åĲ Ī
iáº¿ t
p r
ãĥ¼ãĥ «
Ġs t
Å ©
ĠB e
Ġa r
Ġ ?
ãĤ ¦
an e
á» Ń
Ġ ich
å ½
tion s
p er
è¦ ĭ
a hr
Ġde i
r u
ä ¾
áºŃ t
æ° Ĺ
Ã© r
Ġm i
is e
ãĤ į
Ã¡ n
Ġ. ..
el le
Ġd la
è¡ Į
ĠÄĳ Ã£
Ã£ o
Ñĭ Ð¹
ĠÐ· Ð°
Ñĥ Ð±
Ð¸ÑĤ ÐµÐ»ÑĮ
ÐµÐº ÑĤ
Ġ ÑĨ
ĠÐº Ð¾ÑĤÐ¾ÑĢ
Ðº Ð¾
Ð½Ð¾ Ðµ
ĠÐº Ð¾Ð¼
a ge
Ðµ Ðµ
ÐµÐ½ ÑĮ
ĠÐ¿ÑĢ Ð¸
ãģĦ ãģ¦
Ð» ÐµÐ½
w y
Ñ ĳ
ung s
Ñĭ Ñħ
Ð° Ñħ
ç Ļ
t to
ÐµÐ³ Ð¾
ĠÐ £
ta r
Ñĥ Ð»
ãĥ ĸ
Ð°Ð± Ð¾ÑĤ
t es
Ġ or
Ġdi es
æ ķ
Ġro z
p e
et z
ÃŃ nh
Ġ ï½
Ġqu es
Ġ 6
ç ļ
is s
j a
Ġw ie
Ġm e
ä¸ Ģ
id e
ãĤ Ń
Äĥ ng
Ġcom o
u re
ãĥ ĩ
n ym
os t
çĦ ¡
ĠP h
Ġp rÃ©
Ġm Ã¡s
Ġw er
t ti
æĢ Ŀ
å °
ĠÄĳá» ĥ
s a
ow e
Ġ |
et te
Ġ ;
ĠÃ ¼
os ta
ä¸ Ĭ
Ġs a
Ŀ i
ar a
Ã© es
ion e
éĸ ĵ
ĠS e
oÅĽ Äĩ
g u
é ĥ
áº¿ t
es ch
ãģ ĺ
Ġ 7
on n
Ġes ta
ãĥ³ãĤ °
cz ne
Ġå ¤
gg i
ll en
in s
ãģ Ķ
Ġthá» ĥ
an te
Ġc zy
cj a
æ Ń
er n
s kie
Ñģ Ð¿
Ñĥ Ð¶
ĠâĢ Ķ
ĠÑģ Ð¿
Ñĥ Ð¼
ĠÐ Ĺ
Ġ ÑĪ
ĠÐ¼ Ð¾Ð¶
Ð¾ Ðµ
Ð¾ÑĢ Ð¼
Ġa v
Ðµ ÑĪ
ĠÐ Ľ
Ð° ÑİÑĤ
æ Ī
Ñĥ Ñģ
Ġt od
ĠÑģ Ð¾
ti g
Ðµ Ñħ
ĠÐº ÑĢ
æ ³
Ġt y
Ð¸ ÑĨ
ĠÐº Ð¾Ð½
ĠL es
Ð½Ð¾ÑģÑĤ ÑĮ
ãĤ ¸
ÑĤ ÐµÑĢ
á»ĳ i
Ġs er
Ġod er
ĠãĤ ¹
ie j
z z
r os
Ġs ono
ãĥ ł
ĠT r
ia ÅĤ
ãģ§ ãģį
h en
er o
ĠN g
ow y
ãģ® è
Ġs ont
å Į
id ad
g i
áº ©
å ¥
er t
Ã¹ ng
ãģ§ ãģ¯
Å º
m os
Ġ ent
u je
Ġp re
ãĥ §
ç ¤
ĠN h
ĠÃ¼ ber
Ġa pp
to w
Æ¡ n
ĩ ª
ad or
Ġpi Ã¹
é ¡
m es
Ġu m
t is
a j
Ġ ra
ãĥ¼ãĥ Ī
Ġ res
Ġk o
h e
ĠãĤ ¢
as z
c er
ãģ Ń
w e
Ġm ais
Ġ Q
å ·
r on
åł ´
iá»ĩ t
u j
r as
çĶ Ł
k Ã³w
Ġ 9
te ur
Ġc Ã´ng
ãĤ »
ĠE r
Ġ 8
Ð° ÑĪ
Ð°ÑĢ ÑĤ
Ð½ Ð¾Ð¼
Ð½Ð¾ÑģÑĤ Ð¸
Ð ĺ
ĠÐ¿ Ð»
Ð¸Ð» ÑĮ
ÑĢ ÐµÐ¼
ĠÐ ķ
Ðº Ñĥ
i v
Ð¶ Ðµ
ÑĢ Ð¾Ð²
ĠÐ¿ Ð¾Ñģ
ãģķ ãĤĵ
ĠÐ¸ Ð»Ð¸
s ki
ÑĢ Ð¾
Ġcom p
Ð½ Ñı
ĠÐ ¤
é Ļ
áº ½
ĠÑį ÑĤÐ¾
ĠÐ¾ Ñģ
g a
Ð Ŀ
ãģ® ç
ÐµÑĤ ÑģÑı
ng e
au x
w ia
å £
ĠS t
ad os
l Ã©
á»Ļ i
ãĥ³ ãĥĪ
ĠU n
Ġde ll
« ĺ
s ta
Ġth u
id o
i res
ãĥ Ł
n Äħ
ãģ« ãģ¯
en n
Ġb áº¡n
p o
ãĤ °
Ġ on
Ġ %
çļ Ħ
Ġvo tre
Ġs ind
ra tis
to r
Ġt out
ãĤ ª
ãĤ §
ci o
r Ã³
á»ĳ ng
r an
s ion
Ġãģ Ĭ
Ġh at
our s
å® ļ
á» ī
\ \
am i
Ġs on
ĠG e
ç ľ
Ġ1 9
Ġm ar
Ġs c
ãĥ ĳ
Ġtá» «
ad z
ãĤ ¨
Ġf or
h n
ti que
æĢ §
a ÅĤ
æ¥ Ń
en ti
Ġwer den
ĠP or
èĢ ħ
Ġn Ãły
x o
ide os
e k
ç ķ
Ġ Y
u i
Ñİ Ñī
Ð°Ð½ Ð¸Ñı
Ð¸ Ñİ
ĠÐ³ Ð¾Ð´
ĠÐ¾ Ð´
Ð» Ñİ
Ð° Ñĩ
Ð ļ
ĠÑĢ Ð°Ñģ
Ð¸ Ð»Ð¸
er a
Ðº ÑĤ
Ð°ÑĤ ÐµÐ»ÑĮ
Ð² ÐµÑĤ
Ġ ãģ¨
ĠÑĤ Ð¾
ou v
Ð ¢
ĠP o
ĠÑĤ ÑĢ
Ð ķ
å ĳ
Ġp ue
Ñģ Ð»
Ð°Ð» Ð¸
m ento
ĠÐ¸ Ð¼
ä½ ľ
ÑĢÑĥ Ð³
Ġo p
Ã¶ n
an y
ç Ĳ
Ġt ut
Ġn ous
Ã ½
o is
è ©
os z
ĠI l
ãģ§ ãĤĤ
c ul
Ġal s
Ã¡ i
i Äħ
æ ł
d os
ãĥ Ĭ
£ Â
Ġl á»
Ġa d
æī ĭ
Ġprze z
Ġau x
æ ĺ
z e
ent es
Ġn el
Ġm á»
Ġtr a
è ³
æ Ľ
dz i
Ġv or
c as
ou ve
Ġhá» į
Ġ {
Ġ1 0
ti f
Ġ }
Ġ ï¿½
Ġna j
s er
ar i
Ġna ch
Ġ #
Ġ Å
an a
â Ģ
ãĥ ĵ
ĠÃ ª
uj er
å Ģ
Ã¡ t
a ciÃ³n
jÄħ c
å¸ Ĥ
c ar
ãģ ļ
te l
Ġs us
Ġp os
ãĤ ĥ
ĠA r
á»ĳ c
is ch
Ġp ow
è ¿
p os
Ã¼ n
ĠÐ §
Ð¿ Ð»
Ð°ÐµÑĤ ÑģÑı
ĠÐ Ń
ĠÐ² Ð¾Ð·
Ðº Ð¾Ð²
ĠÑĢ Ð°Ð±Ð¾ÑĤ
Ð¾Ð»ÑĮ ÐºÐ¾
ÑĨ Ð¸Ñı
Ð¸ Ð±
c t
Ð¸Ð½ Ð°
ĠÑģ Ð¼
Ð½ Ð¾Ð²
é ł
Ð³ ÑĢ
ÅĽ ci
ÑĤ Ð¾ÑĢ
Ġa s
ĠÑģ ÑĢ
Ð³ Ð¾
ãģª ãģ©
Äĥ m
ĠÐ° Ð²
ĠÐ½ Ð¾
Ġs ein
Ð°Ð¹ ÑĤ
ãĤ¤ ãĥĪ
ĠÑģ Ð°Ð¼
er s
Ã± o
et to
ãĥ »
n oÅĽci
ant s
c os
on e
ãģĹ ãģĦ
ĠâĢ ľ
b a
çī ©
Ġm on
Ã¡ ng
t ra
nie j
ãĤ ĩ
Ã¤ n
Ġ ]
Ġc as
Ġg iá»
tu re
çĲ Ĩ
ĠC on
Ġs k
Ġå ®
g ar
p h
en i
Ġa lla
Ġa i
ãģ¾ ãģĽ
è »
ĠJ e
c on
Ġs ie
f or
Ġkh i
åı ĸ
ll es
Ġa p
Ġå ħ
ne j
id a
Ã© ra
or es
ÅĤ ad
éĩ ĳ
ĠE in
g es
ĠÄĳ áº¿n
è¨ Ģ
Ġes te
Ġor az
ãĥ Ķ
en za
ĠâĢ Ŀ
Ġc a
é £
en s
ãĥ¼ãĥ ī
ti v
ne go
u est
é Ŀ
re i
ad as
ment s
Ġgi Ã¡
åŃ Ĳ
Ġdel le
g t
ĠÐ± ÑĥÐ´
Ñĭ Ð¼
Ð¾ÑĢ ÑĤ
Ð´ ÐµÐ»
ĠÐ» Ñİ
ĠÑĥ Ñĩ
ĠÑģÐ² Ð¾
Ð» Ð¾
Ñĥ Ñī
Ñĭ ÑĤ
Ġp a
Ð¾ÑģÑĤ Ð°Ð²
ĠÑģ Ðº
Ñģ Ð»Ð¸
ãĥ¼ãĥ ł
ĠÐ¾ Ð½
l is
Ð¾Ñģ Ñģ
á»© c
Ðº Ðµ
Ð° ÑĨÐ¸Ð¸
Ġ [
s ka
Ð¾ÑĤ ÑĢ
Ð°Ð½ Ð¸Ðµ
ur ch
ĠÐ´ Ð¾
è ī
Ð°Ð½ Ð¾Ð²
ĠÃ© ta
ĠW y
u er
ãģ¾ãģĽ ãĤĵ
Ġc o
a us
u d
¡ Â
ãĥ³ãĥ ī
áºŃ p
Ġcom e
ä½ ¿
Ġdas s
Ã© n
od u
Ġk on
è £
Ġp res
ãĤĮ ãĤĭ
Ġvá» ģ
Ġje d
Ã §
Ġ =
Ã± os
Ġ os
åĭ ķ
ch t
u is
Å© ng
ent a
Ġa m
2 0
ç ¨
Ġ us
or s
Ġg ia
Ġb es
Ã³ ÅĤ
åī į
i ta
Ġi mp
ä½ ĵ
Ġs Äħ
Ã¤ t
Ġpor no
s on
iáº¿ n
ãģ¨ æĢĿ
vo ir
ĠC om
ob re
ãĤ¹ ãĥĪ
k e
k on
Ġé Ģ
Ġan che
Ġwir d
Ġent re
é «ĺ
s p
Ġå Ĳ
ĠlÃł m
c or
sz e
åĨ Ĩ
Ġ á»Ł
ĠP ar
Ġb ien
Ġr is
æ ´
h t
ÄĻ p
Ð°Ð» Ð°
Ñ Ĭ
Ð¾Ð»ÑĮ ÑĪ
ÐµÐ» Ñı
ÑģÑĤÐ² ÐµÐ½
ĠÐ¾ Ð¿
Ð¾Ð¼ Ñĥ
Ð¾Ð»ÑĮ Ð·
Ð½ ÑĥÑİ
ÐµÑģ Ñģ
ci os
Ð¸ Ð³
ĠÐ· Ð°Ðº
ĠÐ²Ñģ Ðµ
ãĥĥ ãĥĹ
ÑĢ Ð°Ð·
ab le
ÑģÐº Ð¾Ð¹
i ng
Ð¾ Ñı
Ñĥ Ð½
ãĤ ±
i Ã³n
ÑģÐº Ð¸Ð¹
Ð Ĵ
ur es
Ð Ł
ç ·
ÐµÐ» Ð¸
g er
Ġa le
Ġin ter
ãĥ į
ĠD as
Ġt ym
Ġg r
áº¥ y
ãĥķ ãĤ
z ia
Ã© ri
ãģł ãģĳ
Ġc am
Ġdz ie
ĠA us
Ġt áº¡i
ä» ĺ
Ġz e
æ ¸
en cia
Ã¼ ck
ar d
ç¤ ¾
a Å¼
Ġp ri
åĽ ½
ĠÃª tre
Ġc áº£
is chen
ĠktÃ³ re
ci al
Ġ" :
Ġï¼ Ł
Ġa ll
Ġb ÄĻ
Ġt ien
iá»ĩ u
Ġd is
çĽ ®
cy j
Ġn i
æ µ
Ġw ar
à ²
áº ±
en ce
gg io
çĻ º
ra w
il l
it s
æ Ĭ
cj e
f i
éĥ ¨
Ġein en
Ġs áº½
ĠM ar
ķ ·
a c
ç §
szy st
Ġc ette
w w
ĠãĤ ·
ow ych
or i
ci as
a in
é ļ
b eit
on d
ĠÐ¿ Ð¾Ðº
ÐµÑĢ Ð¶
ĠÐ´ Ð²
ÑģÑĤÐ² Ð°
ÑĨÐ¸ Ð¾Ð½
ÑģÑĤ Ð°Ð²
Ð¸ÑĢ Ð¾Ð²
Ð» Ð°
Ð» Ðµ
ĠÐµ Ð³Ð¾
Ġs am
ÑĥÐ» ÑĮ
Ġ1 2
ĠÐ¿ Ð¾Ð¼
éĢ ļ
Ð¸ ÐµÐ¼
Ġf o
Ð¾ ÑĪ
ĠT e
Ñĥ ÑĪ
Ð¸ÑĤ Ðµ
åĽ ŀ
Ġ20 0
Ð» Ð°Ð´
ĠÐ¿ÑĢ Ð°Ð²
Ġp la
Ġ1 1
ãĥ Ģ
ÑģÑĤ ÑĢ
Ãª u
Ġm Ã©
Ġper o
ãģª ãģı
an no
ĠN ie
u g
Ġfa it
Ġ ãģ¾
Ġd á»¥
u es
åŃ ¦
Ġn as
ĠA l
Ġp om
f er
ä ¹
Ġcom me
ãģ§ãģĻ ãģĮ
Ġk ann
Ġ0 3
Ã² ng
è ĥ
\ "
Ġk om
ç «
ut as
is ta
Ġfa ire
Ġb ar
Ġzu m
ï ¾
ç Ł
ĠÄĳ Ã³
Ġz ÅĤ
Ãª me
Ġs obre
p is
Ġãĥ ķ
p ie
ĠP ro
æ Į
i ent
t ro
Ġbe z
Ġnh Ãł
Ġa b
ãĤĮ ãģ¦
j ÄĻ
Ġl i
Ġm an
ĠãĤ ³
Ġc Å©ng
Ġl ub
æ §
Ġh ab
h al
an ti
ãĥ ¯
Ġm Ãł
ãĥ Ŀ
Ġ ont
us z
h re
ãĤĤ ãģ®
Ġd al
Ġw iÄĻ
Äĥ n
Ġper son
ãĤ º
sch a
ĠN o
Ð¾Ð» Ð½
Ð» ÐµÐ½Ð¸Ñı
ĠÐ¿ÑĢ Ð¾Ð´
ĠÐ± ÐµÐ·
Ð¾ÑĢ Ð¾Ð´
Ð¸ÑĢ Ð¾Ð²Ð°Ð½
ĠÐ² Ð¸Ð´
ĠÐ½ Ð¾Ð²
ĠÐ² ÑĢÐµÐ¼
ĠÐ¾ ÑĢ
ol a
Ñı Ð·
ĠÐ¸ ÑģÐ¿
Ð¾Ð¿ ÑĢ
Ġå ı
Ñĭ ÑĪ
µ Ã
Ð°Ñģ Ñģ
Ġh Ãłng
Ð¾ÑģÑĤ Ð¸
ĠÐ´ ÑĢÑĥÐ³
æ ĥ
Ġa t
ĠÐ ¥
ĠÐ´ Ð¾Ð»
ty cz
ĠÐ¼Ð¾Ð¶ ÐµÑĤ
åº ¦
ĠÐ¼Ð¾Ð¶ Ð½Ð¾
r ar
Ġmo Å¼
z en
ĠãĤ «
us e
ĠQ u
Ġg ratis
or a
æ ŀ
Ġau t
uy á»
ä¸ ĭ
mi ento
Ġp rz
Ġc or
Ã¶ r
æ İ
ni k
ãĢ Ĳ
ou p
ĠvÃł o
Äħ d
1 0
pa Ã±
E S
ãģ ¹
p ar
ĠD er
Ġprze d
Ġt u
g ra
ãĤĬ ãģ¾ãģĻ
Ġãģ Ĥ
Ġc ar
Ġpo z
Ġno ch
Ġ1 5
Ġan n
ãĥ ¢
am os
en er
æ ¯
ĠâĢ ŀ
ta li
ĠÄĳá» ĭ
ĠÃ© tÃ©
Ġc os
å ķ
Ġ &
ut sch
E R
ĠãĤ µ
c l
ow i
Ġæ Ĺ¥
Ġein er
to ri
áº «
: :
p owie
æ ±
ti ca
Ġz na
r ie
åĨ ħ
i to
Ġv ideos
c ciÃ³n
Ġtr Ãªn
Ġä» Ĭ
ĠP ol
u jÄħ
Ð» Ð°Ð²
ĠÐ¾ Ñĩ
Ð°Ð½ ÑĤ
Ñĥ Ñħ
ÑģÐº Ð¾Ð³Ð¾
Ð½ÑĭÐ¼ Ð¸
Ð¾ ÑģÐº
Ð°Ðº ÑĤ
Ð Ķ
Ðµ Ñī
t h
Ð´ Ðµ
Ð¾Ð± Ñĭ
Ð°ÑĤÑĮ ÑģÑı
è ĩª
Ð¾Ð³ Ð´Ð°
m as
ĠÑį Ðº
i que
ĠÑģ Ð¾Ð±
Ð ľ
ãģĹ ãģ¾ãģĻ
Ġk Ã¶n
Ñĥ Ðº
Ð°Ð¶ Ð´
Ā Ā
ÑĦ Ð¾ÑĢÐ¼
æ ı
Ð»Ñİ Ñĩ
es s
Ĥ ¬
on ne
æĦ Ł
Ġs in
ĠP our
Ã¨ me
ow anie
æĿ ¥
Ġg li
Ġe mp
è ¾
Ġl áº¡i
Ġw szyst
ujer es
Ġm ej
åº Ĺ
ar io
ãģ¾ ãģ§
s k
t t
Ġ1 8
å¤ ļ
Ġtr Ã¨s
z ar
ãĥ Ļ
áº· t
Ġeine m
Ġâ Ĥ¬
Ġs es
ĠN a
ç Ń
ãģĵãģ¨ ãģĮ
g os
v en
W W
Ġ0 0
Ġb o
åı ¯
b o
Ġnh iá»ģu
ãĥ© ãĤ¤
Ġpar ti
g l
w er
Ġt ou
u en
æ Ķ
od e
Ġ +
an ych
ãģĹ ãĤĩ
g n
áº »
Ġæ ĸ
on a
k eit
Ġm Ãªme
åľ °
ĠD E
ãģ¨ ãģĹãģ¦
m in
or o
Ãł o
è Ń
e ch
t rz
ub li
ia mo
Ġå¤ §
e b
O N
ĠÐ½ Ð°Ð¿
Ñī Ðµ
ÐµÐ½ Ð°
Ð¼ Ð¸
Ð½ Ðµ
Ð¿ÑĢ Ð°Ð²
ÐµÐ½ Ð¸Ð¸
Ð¸ÑĤ ÑģÑı
ÑĤ ÑĮ
Ð¸ Ð¿
ch er
Ð° ÑİÑī
ĠÑģ Ð¾Ð²
ÑĢ Ð°ÑĤ
Ġth e
ÑĢ Ñı
Ġl le
ĠÐºÐ¾Ð¼ Ð¿
le ment
Ð¸Ðº Ð°
Ð½Ð° Ñĩ
å® ī
et ti
ĠÑģ ÐµÑĢ
ĠÐ· Ð°Ð¿
f Ã¼
ĠÐ¾ Ðº
ãģĭ ãģ£ãģŁ
ÑģÑĤÐ² Ð¾
Ġmo Å¼e
Ġm is
Ġc i
å¯ ¾
ent s
Ġz ur
ow o
Ġp u
ãĥ¼ãĤ ¸
Ġcz as
Ì ģ
Ġï½ ŀ
Ġs á»ĳ
on i
ĠL os
Ġu ti
å£ ²
Ġn ur
èĥ ½
ob ie
Ġun ter
o p
è¦ ģ
t ta
g ne
ãģĹ ãģ¾
s za
áº¥ p
Ġm uy
Ġw i
end re
ç ©
æĸ °
Ġy a
od o
ĠÂ Ń
Ġa ber
dz o
åĬ Ľ
al itÃ©
u Å¼
ï¼ Ĳ
Ġel le
l ko
ĠK h
am bi
m m
ä¸ į
t Ãł
Ġaus si
cz a
ãģ ³
al is
ant es
© Ł
ein e
Ġn Ã³
Ġcom m
å¾ Į
Ġt ego
Ġãĥ ¬
b t
z i
Ġc re
Ġãĥ ĸ
Ġpe ut
Ġm uch
te m
u to
ï¼ ĳ
Ġpe u
iá»ĩ c
Ð¾Ð» Ð¾Ð³
Ð¾ Ñī
ĠÑĤ Ð¾Ð»ÑĮÐºÐ¾
ĠÐł Ð¾ÑģÑģ
ÑģÐº Ð°Ñı
ĠÐ ¯
Ð² Ð¾Ð´
ĠÐ± Ð¾Ð»ÑĮÑĪ
ÐµÑĤ ÑĮ
ÐµÑĢ Ð°
ĠÂ ¿
ĠÐ´ ÐµÐ»
ÑĢ Ð°Ð²
Ð³ Ð°Ð½
ãģŁ ãĤģ
Ð° ÐµÐ¼
ÅĽ Äĩ
ĠÐ² Ð¾
en do
ĠÐ¿Ð¾Ð» ÑĥÑĩ
ÐµÐ½ Ð½Ð¾
ãĤĮ ãģ°
Ġd urch
ÑĤ Ð¾Ð¼
ÑģÑĤ ÑĮ
Ġse xo
Ð» Ð°ÑģÑĤ
ãģŁ ãģĦ
Ð¸Ðº Ð¸
u el
owa Äĩ
Ġn ue
ãģ »
Ġe d
Ġha ben
Ã ®
Ġv e
é ħ
áº ¹
m u
ãģ® ãģ¯
Ġ *
ti c
Ġex p
bi le
å½ ĵ
áº£ o
ãģĹãĤĩ ãģĨ
Ġs wo
Ġme hr
te urs
å® Ł
Ġz ak
g un
Ġb lo
g na
Ġcon s
ĠÄĳ áº§u
Ġ1 3
ce j
ĠãĤ ª
å¤ ĸ
Ġun s
us s
Ġs y
ÅĤ Äħ
Ġques to
ãģ Ĵ
c to
ĠG r
ãĥ Ħ
Ġs ou
A R
O S
Ġtod o
gli o
åł ±
Ã¡ o
er en
Ġse g
çĦ¡ æĸĻ
Ġs Ã©
Ġz as
æ³ ķ
ur o
Ġpr odu
Ġ) .
ãģª ãĤĵ
Ġ1 4
ãĢ Į
m et
ĠH o
g ÅĤ
ãĤ¹ ãĤ¿
ĠP er
ĠM it
Ġr en
£Â ¬
ãģķ ãģĦ
Ä ©
Ġac c
Ð¸Ð¼ Ð¸
ĠÐ¿ÑĢ Ð¾Ð²
ÑĥÐ»ÑĮ ÑĤ
ĠÐ¸Ð½ ÑĤÐµÑĢ
Ð¸ ÑĢÑĥ
ĠÐ¶ Ðµ
ĠÑĢ ÑĥÐ±
ÑĢ Ð°Ð¼
Ð¾Ð² Ð¾ÑĢ
Ð°Ð½ Ð´
ĠP ara
Ð¾ÑĤ Ð¾Ð²
ĠÐ»Ñİ Ð±
ÐµÐ½ Ñĭ
åħ ¨
Ð Ľ
ni ka
Ð»Ð¸ Ñĩ
ĠA uf
ÐµÐ½ Ð¸Ð¹
ĠÐĿ Ð°
ãĥ§ ãĥ³
ec es
Ð¸ ÑĪ
ÐµÐ¼ Ñĥ
Ġt er
ÑıÑĤ ÑĮ
Ġw p
ĠÐĴ Ñĭ
an z
r ance
Ġs ans
ãģĪ ãĤĭ
Ġch á»ī
ĠM e
O M
Ã³ b
éĸ ¢
Ġsu l
Ġ1 7
çĶ »
Ġf il
Ġe ff
Ġn os
Ġn uest
è ¶
ĠM a
è¨ Ī
ti vo
t r
iej s
ãģ« ãĤĪ
Ã¤ r
Ãº ng
æĪ Ĳ
Ġde ux
ÃŃ as
ĠN e
k ÄĻ
E N
æ Ł
è ģ
ambi Ã©n
Ġle ur
ow ej
k en
et ta
æ ²
Ġty lko
Ġs á»±
ãģ ¸
t as
in es
Ġal le
b ie
ch i
ç ¶
ta l
am y
C I
ãĤ ¬
ic as
ÃŃ s
æķ °
ÅĽ cie
ou ver
an to
å® ¶
scha ft
çľ Į
Ġne lla
te ment
r od
æī Ģ
Ġnh áº¥t
Ġg ra
Ã »
le j
è ¼
g lich
Ġw sp
ĠÐŀ ÑĤ
Ð¼ ÐµÑĢ
ĠÐŀ Ð±
ĠÐ² Ð½
Ð¿Ð» Ð°ÑĤ
ĠÐ½Ð° ÑĪ
ĠÐ¡ ÑĤ
ĠÐ¿ Ð¾Ð²
ĠÐļ Ð°Ðº
Ð¸ Ð¾Ð½
Ġ1 6
Ðµ ÑĨ
ĠÐ½Ð° Ñĩ
ĠÑģÑĢ ÐµÐ´
ãĥ Ľ
ĠÐ±ÑĥÐ´ ÐµÑĤ
j et
Ð¾ÑģÑĤ ÑĮ
men ti
ĠÑĥ Ð´
Ð°Ð¹ Ð½
ãĥĩ ãĤ£
w Ã³
ĠÐ¸ Ñħ
ĠÐº Ð¾Ð»
pr Ã¨s
ĠÐ± Ð¾Ð»
ãĤĵ ãģª
ÐµÑģ ÑĮ
ci p
y s
ĠÄĳá» ĵ
åĲ į
ta do
is che
ow ania
t ura
ä» £
c ri
\\ \\
è Ĥ
wi Äħ
Ġn om
Ġb á»ĭ
s ere
ä¾ ¡
a ll
æľ Ģ
p i
p or
Ġ Å¼y
Ġâ Ĺ
h men
cion al
ç Ĥ
mp s
i m
Ġb is
ari os
Ġj our
éĸ ĭ
ä¿ Ŀ
on y
Ã§ Ã£o
Ġo f
Ã Ĳ
Ġn Äĥm
ãģĹãģ¦ ãģĦãĤĭ
h er
Ġ >
æ§ ĺ
a it
Ġsp o
qu i
am ento
ĠbÄĻ dzie
Ġ ãģ®
f e
der e
ĠD es
å¥ ³
Ġz d
Ġpri mer
ãģĤãĤĬ ãģ¾ãģĻ
Ġque l
Ġo k
el t
ãģª ãĤī
Ġpro f
ç ¾
Ġh iá»ĩn
s ent
g ni
ĠãģĿ ãĤĮ
ĠZ a
li dad
wie t
Ġj uÅ¼
éĢ ģ
Ġes sere
Ġm en
ĠÑĩ Ð°ÑģÑĤ
Ð¸ Ð½Ñĭ
0 4
ÑĤ Ð¾Ð±Ñĭ
Ð» ÐµÐ½Ð¸Ðµ
Ð¾Ð²Ð°Ð½ Ð¸Ñı
ÐµÐº Ñģ
Ðº Ð¾Ð¹
ĠÐ³Ð¾Ð´ Ð°
Ð² ÐµÑĢ
z na
ÐµÐ¶ Ð´
ĠÐº Ð»
ÐµÐ» ÐµÐ¹
Ġãĥ ŀ
ĠÐº Ð¾ÑĢ
ĠA b
Ð £
ÃŃ ch
Ð¾Ñģ ÑĮ
ĠÐ³ ÑĢ
Ġblo ck
or d
Ðº ÑĢ
ĠÐ¿ÑĢÐ¾ Ð¸Ð·
g od
Ð» Ð°Ð³
é ķ·
ĠÐ ¦
Ġm ad
Ġtr ab
A N
ãģ§ãģį ãĤĭ
p tion
Ġl u
at z
d u
ĠâĢ ¦
Ġc es
Ġg es
ãĢ ħ
Ġdá»¥ ng
n oÅĽÄĩ
Ġo ff
l os
Ġç Ķ
ym i
è¨ ĺ
Ġz w
Ġpe ti
aj o
Ġãĥ Ĳ
Ġn uo
Ġ X
ãģĪ ãģ¦
Æ°á»£ ng
c ol
on c
Ġest Ã¡
ti k
ãģ« ãģ¤
ãģĦ ãģĦ
li ca
l as
ĠÃ ī
f en
ĠÄĳá»Ļ ng
ĠãĤ ¤
Ġm iejs
Ġm ol
ä» ¥
lich e
Ġf in
k tu
Ġt ous
Ġbar dzo
, "
ani u
Ãº n
i x
åĮ ĸ
t ri
n er
è Ī
ĥ n
kie m
ĠV or
ãģ« ãĤĤ
en e
æľ Ł
a ire
ĠO d
Ġw z
çŁ ¥
ĠSe xo
x x
m b
Ã¢ u
ãĥ İ
f ica
ĠkÃ¶n nen
Ð» ÑĮ
ĠÐ° Ð½
ÑĥÐ¿ Ð¸ÑĤÑĮ
ĠÐ¼ ÐµÑģÑĤ
ĠÐ´ Ð¾Ð¼
Ñı Ð²
ĠÐ¿ Ð¾Ð·
ÐµÐ» Ð¾Ð²
ĠÐ¼ Ñĭ
ĠÐ ¨
Ġ) ,
ĠÐ´ ÐµÑĤ
ĠÐ» ÐµÑĤ
ĠÐ¿ Ð¾ÑģÑĤ
å Ł
Ð± Ð¾ÑĢ
is te
Ð¸ ÑģÐº
w ar
Ð¾Ð± ÑĢ
ÑĨÐ¸ Ð°Ð»ÑĮ
ĠãĤ ¯
l an
ĠÐ¼ ÐµÐ½
Ð¼ Ð¾Ð¶
Ġuti lis
ÑĥÑİ Ñī
Ġãĥ ¡
ĠÐ¼ Ð°ÑĤ
áº¯ c
ĠM ad
as ta
æ ©Ł
to re
l ine
ĠS z
ĠS ta
ãĥ ı
Ã¨ res
Ġm ay
ãĥª ãĥ¼
le p
au t
n ak
Ã¡ nh
è© ±
ti va
æ Ĺ
cz Äħ
ĠdÃ© c
Ġc ol
ä½ ķ
ĠD i
cz enia
ĠãĤ ¨
ti ve
Ã² n
Ġh ay
Ġpre mi
zz o
ãģ£ãģ¦ ãģĦãĤĭ
åĪ ©
odz i
p ri
A S
ali dad
Ġw ur
ı ¾
ow ego
Ġs al
ç ¥
Ġdi ff
ti co
ÅĽ li
em os
on es
å İ
uy Ãªn
Ġg ÅĤ
ĠR Ã©
ãĥ¼ãĤ º
ta re
Ġdi re
å¼ ı
U R
ver s
Ġp ol
å¤ ī
ow adz
é£ Ł
Ġng Ãły
f ec
Ġm od
ãĥ ľ
Ġro ku
ĠD Ã©
le t
Ġper s
ãĤ ½
Ġpue de
g el
Ð¸ Ð¶
Ñģ ÑĮ
ĠÑĤ ÐµÐ¼
ĠÐ¿ÑĢ Ð¾ÑģÑĤ
Ñĥ Ð·
ÐµÐ¹ ÑģÑĤÐ²
Ð¸Ð· Ð½
ĠÐ¾ÑĢ Ð³Ð°Ð½
ĠÐ²ÑĢÐµÐ¼ Ñı
ĠÐ¸ÑģÐ¿ Ð¾Ð»ÑĮÐ·
á»± c
Ð¸Ð» Ð°
Ð¸ÑĤÑĮ ÑģÑı
Ð¸Ñģ ÑĮ
- -
Ð¾Ð½ ÑĤ
Ġe m
ÐµÑĢ Ð¸
Ġno tre
Ð½ ÐµÐ¹
ĠÐ¾Ð± ÑĢÐ°Ð·
ãģĭ ãģª
Ġ2 2
ĠÐµ ÑģÐ»Ð¸
ĠÐ¾Ð± ÑĬ
ĠF rance
ĠÑĥ ÑģÐ»
èĢ ĥ
ĠÑĩ ÐµÑĢ
o i
Ġv os
il d
Ġç §
Ġza p
Ã© d
Ġdes de
b ar
ãĤĮ ãģŁ
k s
ĠÃ© v
éĿ ¢
Ã¡ p
m ie
lich en
iÄĻ k
ãĥ ļ
Ġj u
ç« ĭ
an za
is se
c ado
å¿ ĥ
ti ques
j i
èī ¯
x i
á» ı
Ġa Ã±os
Ġla v
k ÅĤad
Ġ": "
ĠãģĿ ãģ®
p s
Ġch i
ut z
c en
Ġm in
ä¿ ¡
ĠÅ ļ
ĠUn ter
å¼ ķ
li er
Ġv ol
Ġst ron
ĠS o
Ġg o
/ /
áº± ng
ĠD a
an de
æ ®
ÅĤ am
ĠC e
ou n
Ġs te
ier w
Ġm as
æł ¼
ĠPor no
Ġæ Ŀ
c el
c tos
ĠG ratis
Ġå °
for ma
ide o
Ġch a
d es
Ĩ åĵģ
Ġha cer
Ã© lÃ©
ĠÐļ ÑĢ
ÑĤ Ð¸
ĠÑĥ ÑģÑĤ
ĠÑĤÐ°Ðº Ð¶Ðµ
ĠÐ¿ÐµÑĢ Ð²
ÑĥÑī ÐµÑģÑĤÐ²
Ð³ Ð¸
Ð» ÐµÐ´
Ð¼ ÐµÐ½
Ġ \
s ten
Ð ĳ
Ñĥ ÐµÑĤ
ĠÐ· Ð°Ð²
ãģ£ ãģ¨
ĠÐ½ Ð°Ð·
ri d
Ð¼ Ð°
ur as
ÑĥÑĩ ÑĪ
ÐµÑĤ Ð°
ãģķãĤĮ ãģ¦
Ã³ l
ĠÐ¼ Ð¸Ð½
ĠÐºÐ¾ÑĤÐ¾ÑĢ ÑĭÐµ
Ġv is
ĠÐ³ Ð¾ÑĢÐ¾Ð´
ĠãĤ Ĵ
ĠÑĤ ÐµÑħ
p ad
Ġw eit
Ġj us
ãĥ ¤
Ġth Ã¬
Ġgi or
ĠD z
O R
ãģĿ ãģĨ
ĠC as
j o
çĶ °
áº· c
t ros
cz enie
Ġan s
æ¥ ½
ĠP r
è §
g no
Ġr Ã³w
re is
Ġãģĵ ãģ®
Ġaut res
Ġqu al
Ġå į
le ich
Ġt ambiÃ©n
Ġz osta
Ġcu i
Ġw o
è² ·
æ´ »
Ġd os
Ġ3 0
v is
ĠE t
Ġpar t
çĶ £
ĠW ir
Ġtien e
è «
Ġw as
I N
Ġin tÃ©
om b
d ni
Ġãģĵ ãĤĮ
Ġmej or
l and
Ġv iá»ĩc
Ŀ Ģ
gli a
ale ment
1 2
ĠS i
skie go
Ġi hr
ãĥĨ ãĤ£
und o
ãĤĭ ãģ¨
rz Äħ
Ġse mp
l u
ãĤ Ģ
ĠJ ahr
ĠÃ º
Ġw ww
cz nie
ãĥ» ãĥ»
g ie
Ġth Ãłnh
Ð°Ð½ Ð¸Ð¸
ĠÐµ ÑģÑĤÑĮ
ĠÐ¿ÑĢ Ð¸Ð½
ĠÑģ Ð°Ð¹ÑĤ
Ð ĵ
Ð°ÑĤ Ð¾ÑĢ
ÑĨ Ð°
ĠÑı Ð²
ĠÐ½ Ð°Ð´
ĠÑĤ ÐµÐ»
Ġpar te
ĠÐ² ÐµÑĢ
ĠÐ¿ Ð¾ÑĤ
ĠÐ´ Ð°Ð½
å §
ĠÑĩ ÑĤÐ¾Ð±Ñĭ
un e
Ð° ÑĨÐ¸Ñı
ty w
ĠÐŁ Ð¾
Ð¼ Ð¾ÑĤÑĢ
ãĤ ¶
ou le
ĠÐ´ Ð¾ÑģÑĤ
ĠÑĢ ÐµÐ³
Ġp are
_ _
çĽ ¸
ĠÐ¸ Ð³ÑĢ
Ġpers onn
ion es
und en
ãĢ Ĥ
± c
ĠP rze
k Äħ
A L
æĺ İ
ĠL as
ĠW o
ãĥĥ ãĥī
Ġ is
Ġp ubli
Ġa g
el d
è¡ ¨
ÅĤ em
Ġä¸ Ģ
m al
Ġtr o
ĠktÃ³ r
æ ¬
Ġb uen
Ġen f
æĦ ı
Ġhá»į c
ĠI ch
ĠB er
itÃ© s
Ġg io
ï¼ Ĵ
ãĢ ģ
ti t
Ġw enn
on de
z io
ÅĤ e
è¾ ¼
Ġ201 7
Ġm es
Ġãĥ ª
Ġo g
Ġte mps
Ġe le
Ġph áº£i
Ġpro pos
ä» ¶
etz t
cj ÄĻ
Ġ2 5
æĸĻ çĦ¡æĸĻ
ig n
d as
ãģ¡ ãĤĥ
Ġt i
Ġa va
ĠN ach
Ġãĥ ĳ
ĠJ ak
ãĤĵ ãģ§
Ã³ Å¼
on na
ich e
è» Ĭ
Ġv i
Ã³ r
ĠG es
Ġtod os
Ġ ãģĦ
ĠÃ© c
ĠF o
Ð°Ñĩ ÐµÑģÑĤÐ²
ĠÐ½ ÐµÐ´
ĠÑĩ ÐµÐ»Ð¾Ð²
ĠÐ± ÐµÑģ
ĠÑĥ Ð¶Ðµ
ĠÐ¾Ñĩ ÐµÐ½ÑĮ
ĠÐ½ ÑĥÐ¶
ĠÐ° ÑĢ
Ð¾Ð½ Ð°
Ð» ÐµÐºÑĤ
ent ro
Ð°Ñģ ÑĮ
ÑĨÐ¸ Ñİ
ÑĢÑĥ Ð´
¬ ¬
ĠÐ² Ð·
ÅĦ st
Ð¸ÑģÑĤ ÐµÐ¼
Ġv ie
ĠÐ´Ð¾Ð» Ð¶
ĠÐ½Ð° Ñģ
Ġä¸ Ń
Ãº c
ĠÐ¿ Ð°ÑĢ
Ð¸Ð½ Ð³
Ġc er
ÐµÐ½ Ð´
éģ ¸
ĠÐ¾Ð± Ñī
Ġk a
l er
ĠM o
éĽ Ĩ
r it
ĠÄĳ i
Ġcu ando
Ġby Äĩ
Ġè ĩª
Ġn ost
Ġte mp
Ġãĥ ©
Ġdo b
ĠH er
ÅĽ my
ter n
p x
Ġte Å¼
Ġãĥ Ĺ
a ires
Ġse hr
Ġan ni
æĥ ħ
a i
an as
Ġãĥ Ī
Ġcz ÄĻ
Ġres p
Ġre c
ÃŁ e
ĠM ais
åĳ ³
Ġ} .
áº¡ o
b les
Ġv iel
ĠI tali
Ġde gli
ãģı ãģł
Ġw e
Ġg ran
ãĥ³ãĤ ¿
Ġc rÃ©
t ur
Ġil s
£ p
v es
é §
Ġd om
cz ÄĻ
f ahr
æĽ ¸
wi ad
an ta
å ĥ
Ġf ue
á»ĭ ch
Ġtra va
ãĥ¼ ãĤ¯
T I
ãĥķãĤ ©
bi li
in der
Ġos ob
ĠãĤ Ń
u al
Ġs ite
Ġn ouve
u te
ç ½
I E
Ġw iel
ĠÐ¼ ÐµÑĤ
Ġr u
ĠÐ¾Ð± Ð»Ð°ÑģÑĤ
Ð»Ñı ÐµÑĤÑģÑı
ĠÂ» .
ĠÐ ĸ
Ð¾Ð² Ð°ÑĢ
ĠÑģ Ñĩ
ĠÐĿ Ð¾Ð²
ĠÑįÑĤ Ð¾Ð¼
Ġtut ti
Ð°Ð» Ð¸Ð·
ĠÑģÑĤ ÑĢÐ°Ð½
ÐµÐ½ Ð¸Ñİ
å± ±
ĠÐ¿ÑĢ Ð¾Ð³
Ġre g
ĠÑĢ Ðµ
os ten
Ð°ÑĤ Ð°
Ð°ÑĤ Ñĭ
Ġâ ĸ
Ġqu y
ÑģÐº Ð¸Ðµ
ÑĢÑĥ Ð¿
Ġas s
Ð½ Ð°Ðº
ãģ ĸ
ĠÐĺ Ð½
Ġd ann
Ġ2 1
Ġf r
ĠéĢ ģ
Ġb i
ĠÃ©ta it
ĠF ra
Ġn ad
å¿ ľ
ÃŁ en
il la
Ġan d
Ã´ n
co re
Ġda lla
Ġm ujeres
çķ ª
Ġfor ma
Ġ äº
ĠmoÅ¼ na
ation s
t et
ĠåĲ į
Ġpri x
Ġc li
æ º
odz in
ier t
Ġc el
in as
Ġcon o
åĭ Ļ
Ġå Ī
Æ¡ i
v ol
ĠA c
Ġb on
ĠV ous
å ŀ
i gen
Ġwy b
Ġå ľ
Ġb as
ĠktÃ³ ry
l Ã¤
ĠS ain
Ġ2 4
ãģ«ãģ¤ ãģĦãģ¦
Ġin c
Ġz mi
Ġper met
éģ ĵ
er i
ie mp
ãĤ¤ ãĥ³
Ã¢ m
in t
h ne
ĠãĤ Ĥ
wa Äĩ
ãģ® ãģĭ
Ġh anno
Ġd onn
l ie
åĬ ł
Ġes p
Ġm u
.. ..
i or
ãĥĥãĤ¯ ãĤ¹
Ġpo p
uf en
Ð¾Ð± Ñī
Ð°ÑİÑĤ ÑģÑı
ĠÐ¼ Ð¾Ð³
ĠÐ°Ð² ÑĤÐ¾Ð¼
Ñĥ ÑģÑĤ
Ð¾ÑĢ Ð¾ÑĪ
ĠÐ²Ñĭ Ð¿
ÐºÐ° Ñĩ
ĠÑĢ ÐµÑĪ
ĠÂ» ,
ħ n
Ð¾Ð· Ð´
Ð½Ð¸Ðº Ð¾Ð²
ĠÐ¢ Ð°Ðº
ãĤĪãģĨ ãģ«
Ġu 04
ll t
ÑĢÐ° ÑĦ
wiÄħ z
ÑĥÑĢ Ñģ
ĠÐ¿ÑĢ Ð¸Ð¼
ãĤĪãģĨ ãģª
Ġt en
ĠÐ² Ð¾Ð´
ĠÑģ ÐµÐ±
iá»ĥ m
ĠÐľ Ð¾ÑģÐº
ĠÃ Ĺ
ÑĮ Ñİ
ĠrÃ© s
k om
Ġen c
ãĤģ ãģ¦
om o
ia ÅĤa
v el
ĠSp iel
Ġå ¹
Ġre la
Ġk aÅ¼
ãĥª ãĤ¢
Ġgr and
li w
Ġs olo
ng en
ãģĮ ãģĤãĤĭ
ĠT o
Ġæĸ °
Ġser vi
Ã¶ glich
nie Å¼
Ġæ °
ĠÂ °
Ġn Æ°á»Ľc
ãģĹ ãģĭ
Ġk m
ig ne
a Äĩ
Ġa ff
Ġh asta
Ġ: //
Ġæľ Ģ
eni u
ck en
Ġh ier
Ã© g
b ur
åĲ Į
Ã¤ l
d ia
ĠãĢĳ ãĢĲ
Ġt a
a w
Ġpra w
Ġb er
Ġn eces
éĽ »
at to
i le
p uis
1 1
ĠR o
ĠC o
æŀ ľ
al a
er os
Ġd od
ç İ
Ã¡ y
åı £
h eit
om me
Ġtak Å¼e
Ġâ ĺ
Ġs ous
Ġdu e
ia l
el b
Ġæľ ¬
ģ n
Ġw ÅĤ
Ð»Ð¸ Ð²
Ð ¤
ĠÐŁ Ð¾Ð´
ÑħÐ¾Ð´ Ð¸Ð¼
Ð» ÐµÐ¼
ĠÐ´ ÐµÐ½ÑĮ
Ð½Ð¸Ðº Ð¸
ÑİÑĤ ÑģÑı
ĠÐ¿ÑĢ Ð¸Ð²
ĠÐ¾ÑĢÐ³Ð°Ð½ Ð¸Ð·
ĀĀ ĀĀ
Ð¾Ð² Ð°ÑĤÑĮ
ĠÐ±Ñĭ ÑĤÑĮ
ĠÐº Ð²
Ġæ ĺ
ĠÐ¼ Ð°Ð³
Ġ0 8
ĠÑģÐ» ÑĥÑĩ
Ġ it
ĠÐ±Ñĭ Ð»Ð¾
Ð¾Ð¿ÑĢ Ð¾Ñģ
ç Ĭ
Ġb us
ĠÑĢ ÐµÐ·
ĠÐ¿ Ð¾Ð½
Ġv ia
ĠÐ¿ Ð¾ÑĢ
Ġè ²
ĠÐ¿ÑĢÐµÐ´ ÑģÑĤÐ°Ð²
ĠTh e
Ġsch on
Ġf ir
ãĥ¼ãĤ ¿
ĠA u
ost ÄĻp
Ġl ui
tion en
Ġh tt
en ne
ni kÃ³w
æ ¨
f ic
l au
Ġ5 0
Ġf on
ç ³
Ġ Å¼
Ġ ãģ¯
Ã¼ s
c co
ran Ã§
ãģıãģł ãģķãģĦ
it u
as t
Ġ" ,"
Ġ0 9
uy á»ĩ
it as
z o
Ã© tÃ©
è¨ Ń
ãĤĪ ãĤĬ
ll er
an ces
Ġu Å¼y
ĠV ideos
ĠEs ta
çĤ ¹
iá»ģ n
m bre
Ġç µ
Ġpri ma
ĠK a
Ġ201 8
ĠU ne
p u
Ġç§ ģ
Ã Ĭ
áº¯ t
Ġwie der
ãģł ãģ£ãģŁ
ĠZ eit
ĠN ous
åķ ı
Ġh an
it es
bb e
¢ º
Ġa k
Ġå ½
Ġ2 3
ad y
Ġpos i
ĠãĢ ı
Ġso ll
áº¡ t
c ch
t in
é ¨
d zy
Ġa voir
ĠÐº Ð°ÑĩÐµÑģÑĤÐ²
ĠÑĩÐµÐ»Ð¾Ð² ÐµÐº
ĠÐķ ÑģÐ»Ð¸
ĠÐĴ Ñģ
Ð½ ÐµÑĤ
ĠÑĢÐ°Ð· Ð²
ĠÐ²Ð¾Ð· Ð¼Ð¾Ð¶
ĠÐ· Ð°Ð´
ĠÑĦ Ð¾ÑĢÐ¼
Ðµ ÑĦ
is ti
ĠÐ±Ð¾Ð» ÐµÐµ
Ñĥ Ð»Ñı
Ð¸Ð½ Ðµ
åĪ ĩ
ĠÐ¾ ÑģÑĤ
un k
ĠÐ¼ Ð½
pp o
ĠÐ²Ñĭ Ñģ
Ð°Ð¶ Ðµ
ãģ¨ ãģ¯
ĠW ar
ĠÐ· Ð´
Ð¼ ÐµÐ½ÑĤ
Äħ Å¼
Ð¾Ð² Ð°
ç ®
ĠÑģ Ð¸ÑģÑĤÐµÐ¼
an os
em me
mp le
æĸ ĩ
es so
skie j
ĠDi es
ĠV o
åĵ ¡
Ġt iáº¿
m Ã©
Ġãĥ ĩ
ador es
O W
ĠrÃ³w nieÅ¼
Ġh i
ãģ Ĳ
ĠÃ© le
ç ĿĢ
ca to
te k
tit utas
å ĸ
Ġcu al
z u
ãģ« ãģĬ
Ġques ta
in si
dz iaÅĤ
re ich
Ġt iemp
ãģĦ ãģ¾ãģĹãģŁ
é ĺ
ad e
Ġin di
Ġt Ã´i
Ġwur de
wi er
è º
Ġder ni
áº© m
Ġï¼ Į
u dad
u ti
Ġx u
ĠÃ© g
cz nych
ãĥĥ ãĤ·
at ta
ÅĽ l
ar es
ç´ Ħ
Ġmol to
Ġbe au
Ġå Ĩ
ÅĤa t
Ġd onde
ch es
åŀ ĭ
Ġs áº£n
1 5
Ã µ
Ġp ierw
ĠC a
Ġç ´
Ġtr ans
hr en
ĠS car
il itÃł
æ ħ
Ġal gun
Ì Ģ
Ñı Ð´
Ð¾Ð± ÑħÐ¾Ð´Ð¸Ð¼
ÑĤ ÑĢ
Ð¿ÑĢ ÐµÐ´
ÑģÐº Ð¸Ñħ
Ð¸ Ð½Ð¾
Ð» Ð°Ð¹Ð½
ĠÐĿ Ð¾
ĠÑģÐ» ÐµÐ´
ĠÐ· Ð°Ð¼
áº¥ n
ĠÐ¿ÑĢÐ¾ ÑĨ
ĠÐ¾ Ð½Ð¸
Ðº Ð°Ð·
è² ©
Ð Ĺ
ca tion
ĠÐĲ Ð½
Ġin f
Ð¸Ñı ÑĤ
ÐµÑĤ Ñĭ
å± ĭ
ĠP od
ÑĮ Ñı
Ðº ÑĢÐ°
Ġv om
ÑĤ Ðµ
ãģĳ ãĤĭ
ĠÐ¿ÑĢÐ¾Ð¸Ð· Ð²Ð¾Ð´
os e
Ġa prÃ¨s
t rze
ãģĵ ãĤį
A D
ll as
a zione
ĠS te
ãĥ³ ãĤ¹
at ti
ĠB ar
ãĤĴ è¦ĭ
Ġpr os
ĠC ar
m ar
á»Ļ c
ãģĹ ãģı
ĠSain t
ãģ İ
ou te
dzie j
ĠT a
æ° ´
ĠU ni
iv re
Ġãĥ ı
is z
Ġp ay
ÃŃ cul
ĠU m
Ġsp e
çµ Ĳ
ãĥĥ ãĥģ
Ġse x
ist as
Ã¤ ch
Ġu l
r Ã¡
éĢ £
c Ã³w
Ġim mer
è µ
áº« n
u ta
Ġc en
Ġd onc
ÃŃ n
ãģ§ ãģĹãģŁ
Ġl ie
rz ÄĻ
g r
ç¶ ļ
g ia
Ãª te
åľ ¨
ami ento
Ġc aÅĤ
der n
ĠI D
T A
ä» ķ
ĠItali a
z ie
Ġen core
ãģ® ãģĮ
ĠN am
T O
Ġa bb
esz cze
ãĤ¤ ãĥ«
Ġve z
j our
Ð¼ Ñĭ
ĠÑĩ ÐµÐ¼
ĠÐ¸Ð¼ Ðµ
ÐµÑģ Ð¿
Ð°ÑĢ Ð¸
ÐµÐ½ Ð½ÑĭÑħ
ĠÑĥ Ð²
ĠÐ¿ÑĢ Ð¾ÑĤ
Ð¾Ð² Ð¾Ð¹
Ð°Ð½ Ñģ
Ġch ÃŃnh
Ġâ Ħ
ĠÐ¿ Ð¾Ð¿
ĠÑģ Ð´ÐµÐ»
Ġé ĩ
ÑģÑĤ ÑĢÑĥ
Ġod powie
Ñĥ Ð³
Ġsta to
Ð¾Ñģ Ð¾Ð±
Ð¾Ð½ Ð¾Ð¼
ãģĳ ãģ©
cze g
ĠÐ½Ðµ Ð¾Ð±ÑħÐ¾Ð´Ð¸Ð¼
ĠÐ± ÑĢ
Ã´ tel
ĠÐ¿Ð¾Ñģ Ð»Ðµ
ãģĳ ãģ¦
ĠÐ¸ Ð³
el o
Ġp on
ĠÃ© qui
é¡ Į
ĠL o
d io
l Ã¨
Ġre ali
ãģ¨ ãģª
ĠW as
Ġhá» £p
ç Ĺ
Ġc ada
Ġr y
Ã± a
d t
ãĥ¼ãĤ ·
Ġs h
ä¸ ĩ
Ġph o
ĠW WW
z n
Ġj p
Ġpor que
ti cos
ãģ ¶
ĠÃ §
Ġentre pr
Ġs enza
jÄħ ce
Ġcon f
ãģ® ãģĬ
ãģĭ ãĤĬ
Ġ ï¿½ï¿½
Ġqu an
id as
el n
Ġcon c
Ġcol or
cz as
Ġch am
3 0
Ġa h
Ġc our
Ġsemp re
hl en
Ġtiemp o
ãĥķãĤ ¡
Ġsu lla
Ġza w
Ġm al
ĠéĢģ æĸĻçĦ¡æĸĻ
eit e
Ġj ego
ãĥ³ ãĤ¯
de m
Ġo Ã¹
Ġnh Ã¢n
Ł ³
ĠG i
æľ ī
Ġa tti
ur ante
Ġn asz
Ġãĥ Ľ
ĠB es
Ġ \"
ow ym
ou l
¢ ¨
ĠO n
wa Å¼
ĠÐµ ÑīÐµ
ĠÑĤ Ð¾Ð¼
Ð² ÐµÑģÑĤ
Ð· ÑĭÐ²
ĠÐ¸ ÑģÑĤ
ĠÐłÐ¾ÑģÑģ Ð¸Ð¸
ĠâĦ ĸ
Ð» Ð¾Ð¶
ĠÑĤ ÐµÑĢ
Ð¾Ð¶ Ð´
Ġor g
Ð°Ð½ Ð°
ÑĢÑĥ Ð·
Ñı Ð±
æĻĤ éĸĵ
Ð°Ð» Ð¾
f ach
ÐµÐ½ Ð¸
Æ° a
ĠÑĤ Ð¾Ð³Ð¾
ĠÑĥÑĩ Ð°ÑģÑĤ
© ļ
ĠÃ§ a
ĠÐ° Ðº
ĠÐŃ ÑĤÐ¾
ĠP os
ĠÐ¿Ð¾ Ñĩ
çĶ º
ÐºÐ°Ñĩ Ð°ÑĤÑĮ
Ġso ci
Ġg Ã©n
Ġgi bt
ãĥ¼ãĥ Ħ
Ġtut to
ĠC u
Ġl oro
un to
Ġé Ľ
ar ge
Ġz am
å¿ ħ
ĠA d
l ti
Ġcom ment
ĠÄĳá»ĭ nh
ãĢ į
it er
ãĥ¬ ãĤ¹
Ġg en
t kow
Ġcon tra
èª ¿
Ġau tre
C J
1 6
trz ym
ĠÃ ľ
n os
Ġpu bb
ĠC am
æ Ĥ
åı Ĺ
Ġs to
ti cas
Ġs inh
t ant
Ġdies e
ãĥĶ ãĥ¼
Ġs ia
Ġemp res
æ ĭ
t Ã³w
Ġl l
ta g
Ġf ois
Ġh Æ¡n
å° ĳ
ĠK on
Ġf ar
Ġsam o
çµ Į
to ire
ti tu
ãĤĵ ãģł
ĠW e
Ġa y
ri o
ãĥ¼ ãĥ³
w et
ãģ§ ãģĤãĤĭ
c al
ĠK om
ch Ã©
å Ĥ
sch en
el li
cz ny
Ġpros titutas
æĮ ģ
en tos
am o
ĠÑģÐ¿ Ðµ
Ð½Ð¸Ðº Ð°
Ñĥ Ð²
ĠÐĶ Ð»Ñı
ĠÐ¾Ñģ Ð½Ð¾Ð²
ÐµÐ½ Ð¸ÐµÐ¼
Ð¾Ñı Ð½
Ð½ ÐµÐµ
? ?
Ð¾Ñģ ÑĥÐ´
Ġnom bre
ĠÐ»Ñİ Ð´
ÑĢ ÐµÐ´
ĠÐ½Ð° ÑģÑĤ
ãĤ ´
ĠÐ¾Ð½ Ð»Ð°Ð¹Ð½
Ġwy kon
ĠÑģ Ð¾ÑģÑĤÐ°Ð²
Ġst r
ÐµÐ½ Ð½ÑĭÐµ
ĠÐľÐ¾ÑģÐº Ð²
ï¼ ģ
ĠD o
Ð°Ð» Ð¾Ð³
ĠÐ´ ÐµÐ¹ÑģÑĤÐ²
qu ier
ĠÐ¿ÐµÑĢ ÐµÐ´
å ¢
ĠÐ¼ Ð¾Ð´
Ġm nie
áº£ ng
Ġd ru
Ġç Ľ
i co
Ġan der
l ar
Ġs ar
è£ ½
Ġ201 9
rÃ© e
è ±
c tor
Ġc ie
ion s
Ġun o
å ³
ĠM i
å¾ Ĺ
il les
Ġ201 6
j u
åĲ ĳ
za ciÃ³n
c c
ãģ«ãģª ãĤĭ
Ã Ķ
Ġngh iá»ĩ
Ġhab e
ĠJ a
ta to
åł´ åĲĪ
äºº æ°Ĺ
en a
czne j
Ġ0 6
ĠrÃ© p
Ġha ce
å· ¥
Ġm Ã¬nh
m it
ãĤ¤ ãĤº
Ġm et
n el
Ġjed nak
Ġgra tu
Ġav ant
ĠãĢ İ
Ġd ÃŃa
er w
ĠDe utsch
ĠæĹ¥ æľ¬
Ġc ao
ow ane
Ġãĥĸ ãĥ©
al t
Ãµ es
ĠS u
åıĸ ãĤĬ
I S
éĩ İ
Ġh e
Ġk il
Ġin cl
Ġãģ ©
ĠÂ ¹
Ãª m
Ġcom un
us t
Ġé «ĺ
od y
ĠP a
ĠÐŁ ÐµÑĢ
Ð¾Ð» Ñı
ĠÑĤ Ñĭ
ĠÐ° Ð´
ÑĢÐ° Ñī
ĠÐº Ð°Ð¶Ð´
ĠÐ² Ð¾Ð¿ÑĢÐ¾Ñģ
ĠÐº Ð°ÑĢÑĤ
ĠÐ¸Ð½ ÑĦÐ¾ÑĢÐ¼
ĠÑģÑĤ Ð¾
es sion
ĠÐº Ð¾Ð³Ð´Ð°
ĠÑħ Ð¾ÑĢÐ¾ÑĪ
ĠÐ¿ÑĢ Ð¾Ð±
èī ²
ĠÑįÑĤ Ð¾Ð³Ð¾
Ġm at
ĠÐ» ÑĥÑĩÑĪ
Ì £
Ð¼ Ñĥ
Ð° Ñİ
çķ Į
ĠV iá»ĩt
Ð½ Ð¸Ð¼
ĠÐ±ÐµÑģ Ð¿Ð»Ð°ÑĤ
Ġkh o
Ð¾Ð²Ð°Ð½ Ð¸Ðµ
çĦ¡ ãģĹ
Ð¾Ñģ Ð¿
ier en
ka z
il li
5 0
tor ia
Ġpra c
Ġzna j
ĠE x
çī ¹
f in
m an
åħ Ī
v ent
Ġmo g
Ã Ĵ
Ã ĸ
ãĥ¼ãĤ «
Ã ĭ
åı ¤
á»¥ c
Ġas ÃŃ
ĠF or
éļ Ľ
tiv os
t z
å ģ
rzÄħ dz
Ġpu Ã²
ĠÄĳá» ģ
Ġl ors
it y
éĩ į
è¿ ĳ
ce p
d Äħ
ĠP e
is mo
Ġm ir
å· Ŀ
Ġm ein
Ã¤ hr
Ġãĥ Ń
et y
jÄħc ych
Ġe qui
ou pe
Ġes pe
ç³ »
Ġac qu
rÃ³ d
ĠÄĳá»ĵ ng
ãģ§ ãģĹãĤĩãģĨ
ol u
ĠdÃ© p
Ġå Ľ
w ert
sch ie
id os
Ġé ģ
k ich
Ġæ ĻĤ
á»ĳ t
gg ia
ar ro
ä½ į
R E
Ġcomm un
Ġk u
p y
Ĵ Į
Ã©r ie
p f
ĠÐ´ Ð¾Ðº
ĠÐ±Ñĭ Ð»
ĠÐ¼Ð°Ð³ Ð°Ð·
ĠÐ² Ðº
Ñį ÑĤ
ÐµÑģÑĤÐ² Ð¾
ĠÐºÐ¾ÑĤÐ¾ÑĢ ÑĭÐ¹
ĠÐĲ Ð»
ĠÐµ Ðµ
ĠÐ½ ÐµÑĤ
ll os
Ð»ÐµÐºÑĤ ÑĢ
Ð¾ Ñħ
Ñĥ ÑģÐº
å Ļ
ĠÐ· Ð°ÑĢ
h nen
Ðµ ÑģÑı
Ġa insi
ÑĥÑĤ ÑĮ
ÐµÑĤ Ðµ
Ġãģ¾ ãģŁ
Ġc Ã²n
ĠÑĤ Ð¾Ð²Ð°ÑĢ
Ðº Ð¾Ð¼
Ġs obie
Ð°Ð»ÑĮ Ð½ÑĭÐ¹
æ¯ Ľ
Ð¾ÑĢ Ð¾Ð²
z eit
b il
Ġmo ins
ãĤ» ãĥĥãĥĪ
ka ch
Ġcon ta
ich er
Ġme di
ãĤµ ãĤ¤ãĥĪ
Ã¤ ng
Ġsu a
1 8
Ġsp ra
Ġthe o
li o
li c
ä» Ĭ
f a
åĪ ¥
Ġ4 8
Ġ rze
en o
ł ´
m ble
idad es
ãģķãĤĮ ãģŁ
ch et
Ġmay or
cri ption
Ġin forma
z ei
å¥ ½
å® ¹
c teur
ĠS h
Ġn Ã©
ge b
v ia
é¨ ĵ
te go
ĠÃ £
Ġ ãģĮ
ĠÂ ¡Â
á»ĳ n
l in
Ġo hne
Ġg ar
c m
ob a
pp e
Ġt ej
éĻ Ĳ
Ġi d
Ġperson as
ãģĹ ãģ¾ãģĹãģŁ
i ci
Ġla t
Ġn Ãªn
éģ ķ
w ei
äº ¬
aus s
Ġde puis
ĠI m
ç¤ º
ist ra
Ġg dy
Ġd ro
ĠU hr
ä» ĭ
li zza
Ġsu is
ÑıÑĤ ÐµÐ»ÑĮ
Ñı Ñī
ĠÐ²Ð¸Ð´ Ðµ
ĠÑģ Ð¾Ð·Ð´
ĠÐļ Ð¾Ð¼
Ñı Ð¼
Ñĭ Ð»
ÐµÑĢ ÑĤ
ĠÑĢ ÐµÐº
ĠÐĲ Ð²
is sen
Ð¾Ð» Ð¾Ð´
ÐµÑĢ Ñĭ
ÐµÐ½ Ð½ÑĭÐ¹
ä¼ļ ç¤¾
ĠÐº ÑĥÐ¿Ð¸ÑĤÑĮ
is es
Ð½Ð¾Ð¼ Ñĥ
al mente
ĠÐĲ ÑĢ
ĠÐ² Ð°ÑĪ
æĥħ åł±
ction s
ĠÐ° ÐºÑĤ
Ð³ Ð¾ÑĤÐ¾Ð²
Ġmá» Ľi
ÑĦ ÑĦ
Ġå ¥
ĠÑĦ Ð¾ÑĤ
Ġv ida
ĠW er
ĠÃ©g alement
èª į
Ġf are
te il
k ol
Ġb a
¤ ľ
Ġa Ã±o
Ġdz iaÅĤ
ãĥ¼ãĥ ĳ
Ġpos si
szy ch
Ġg er
Ġes to
æŁ »
ci r
äº Ī
ĠÃľ ber
ĠÂ ½
iá»ĥ n
éħ į
p ra
Ãº b
è§ £
ĠC zy
p raw
Ġge w
ĠPar is
ĠCh at
ãģ¨æĢĿ ãģĦãģ¾ãģĻ
ĠJ u
ãģ® ä¸Ń
Ġ0 7
l us
et as
Ġa by
ti r
L E
T E
an is
om bre
å Ħ
ĠR es
ĠL i
Ġf un
å³ ¶
Ã Ģ
Ġth áº¿
Ġin s
ranÃ§ ais
Ġm y
ÃŃ o
ãģķ ãģĽ
er ci
Ġme ille
Ġo fer
ãĥ³ãĤ º
ul o
i tion
ĠS an
ci dad
p od
è³ ª
cor a
Ġi ma
ĠAr beit
iá»ĥ u
Ġg ro
Ġ ãģ¨ãģĦãģĨ
Ġd ont
Ð» Ð¾Ð²
ÑĨ Ñĭ
ĠÐ· Ð°Ð±
Ð°ÑĤ Ð¸Ð²
Ð¾ Ð½Ñĭ
Ð¸ÑĤ ÐµÐ»Ñı
ÐµÐ½ÑĤ Ð¾Ð²
ĠÐ½ ÐµÐ¿
Ð°Ð»ÑĮ Ð½Ð¾Ð³Ð¾
ĠÐ¼ÐµÐ½ Ñı
ãģ® æĸ¹
ĠÐĿ Ðµ
ĠÑĢÐ°Ð±Ð¾ÑĤ Ñĭ
ĠÐ¶ ÐµÐ»
li z
Ð¸ÑĩÐµÑģÐº Ð¸Ñħ
Ġsu o
ĠÐ¾ÑĤ Ð½Ð¾
Ġg ru
Ġ0 1
ĠÐ³ Ð¾ÑĢ
éĩ ı
ĠG esch
ĠÐ¿ÑĢÐ¾Ð³ ÑĢÐ°Ð¼
ĠÐ» Ð¸ÑĨ
Ġre p
ĠÐ¼Ð°ÑĤ ÐµÑĢÐ¸
Ġmi esz
Ð½ Ð¸Ð¹
Ġãĥ Ģ
b res
ç¾ İ
Ġw eb
è ĳ
ĠHo tel
ki m
ra is
j ours
Ġc al
Ġg ut
ĠC z
ãĤ¹ ãĥĨ
ff en
Ġs á»Ń
Ġv ideo
Ġ $
ta tion
Ġr Ã³Å¼
Ġv a
ãĤ ®
Ġu ma
v id
h a
Ġmon de
Ġtr as
é§ ħ
å° ı
it z
Ġj eszcze
Ġfo tos
Ġre ci
elb st
ier z
Ġre cher
zion ale
Ġå Į
Ġf uer
Ġ2 8
Ġ2 7
il s
Ġc Ã¡ch
s ione
åı¯ èĥ½
Ġcer ta
Ġj ej
ĠB ei
v ar
Ġ201 5
ma t
ĠN on
Ã³w i
r Ã¤
Ġpra cy
in cip
èº «
Ġd nia
ne hmen
s to
Ġfo ll
ĠC or
æ Ļ
ech o
Ġo gni
çĬ ¶
ar ia
ĠD ans
ich tig
ĠÃ ´
am a
æŃ £
tic le
ÐµÑĢ Ð³
ĠÐ³ Ð´Ðµ
Ð½Ð¾ÑģÑĤÑĮ Ñİ
Ð¸ÑĤÐµÐ»ÑĮ Ð½Ð¾
Ð¸ÑĩÐµÑģÐº Ð¸Ðµ
ĠÐŀ Ð´
ĠÑĢ Ñĭ
Ð°Ð»ÑĮ Ð½Ð¾Ð¹
ÑĨ ÐµÐ½
Ġ0 5
Ġd y
Ð¾ÑģÑĥÐ´ Ð°ÑĢ
Ð¾Ð» Ð¾Ð²
ĠÑģÐ² ÑıÐ·
Ġun ser
Ġ1 00
Ġma in
ĠÑħ Ð¾ÑĤ
Ġãģ ķ
Ð¼ ÐµÑĤ
ĠÑģÐ¾ Ð¾Ð±Ñī
Ġac tu
f ol
Ð¿ÑĢÐµÐ´ ÐµÐ»
ĠÐ´ Ð°Ð¶Ðµ
Ġw ÅĤa
Ñı Ð½
Ġi tali
ÑĪ Ðµ
Ġè ¦
ggi or
Ġ: )
ĠK o
ec to
Ġpe w
ĠÂ £Â¬
Ã ı
Æ°á» Ł
ĠãĤ ¸
Ġk ar
Ġenc ont
ĠprÃ© s
I j
n ÄĻ
ĠPr odu
om a
ĠB et
es e
ãĥĹ ãĥª
Ġcon tre
ãģ¦ ãĤĤ
Ġm ich
ãĥ³ãĥ Ĩ
Ġs zy
hal ten
Ġd á»±
ÃŃ an
ç ¢º
Ġch er
Ġw ym
Ġtemp o
end ant
di ng
ç ı¾
Ġcon tro
ÅĽ nie
Ġthá» Ŀi
ĠH and
Ġj a
ç½ ®
iÄĻ dzy
ti ge
I C
ĠT ra
Ġpro p
Ġç ī
Ġon line
v ir
w as
os a
ĠÅ ģ
ãĤį ãģĨ
Ġris p
or y
ãģ¨ ãģĭ
èª ŀ
it Ã¤t
áº¿ u
Ġpla ce
ĠwiÄĻ cej
Ġt ener
Ġau to
an k
Ġser a
bur g
as s
2 4
em u
ouve z
Ġmis mo
ĠO r
ÑĥÐ± Ð»Ð¸
ÑĢÑĥ Ð¶
ĠÑĨ Ð²ÐµÑĤ
Ð¿ ÐµÑĢ
ĠÐ¿ÑĢÐ¾ ÑĦ
ÐµÐ½ Ð½Ð¾Ð¹
ÐµÐ³ Ð¾Ð´
ĠÐ¿Ð¾Ð¼ Ð¾Ñī
ĠÑĩÐµÑĢ ÐµÐ·
ĠÑģ ÑĥÐ´
Ġtou te
Ð°Ð»ÑĮ Ð½ÑĭÐµ
ĠÑģ Ð¾ÑģÑĤ
ÑĢ Ðµ
Ġ201 4
ĠÐ¡ Ð
Ġby ÅĤo
ĠÐ¾ Ð½Ð°
an cia
ĠÑĢ Ñĥ
ĠÑģÐ¿ Ð¾ÑģÐ¾Ð±
Ġs au
en di
Ñ ĸ
ÐµÐ½ÑĤ Ð°
Ġdzie ci
Ð¸Ð± Ð¾
Ġdi ver
ĠÐ¡ Ð¿
Y W
Ġst an
çľ Ł
Ġtout es
Ġ2 6
Ġl ong
Ġãĥ» ãĥ»ãĥ»
é ¦
m t
Ġg ener
Ġge gen
ç· ļ
Ġswo je
ĠãĤ ¿
ne ment
áº¡ nh
ãģı ãģª
ni ki
Ġv al
nym i
fÃ¼ hr
Ġp ou
ä¸ ĸ
Ġse con
Ġlu gar
Ġtr Æ°á»Ŀng
ĠEn t
om mes
Ġpom o
Ġn u
uch t
ĠB o
Ġby ÅĤ
Ġl igne
ĠãĤ »
es ta
ä¸ »
Ġle urs
Ġc Æ¡
Ġm undo
ĠC OM
Ã³ j
Ġk eine
Ġpro pri
Ġjak o
Ġx xx
mp re
ta ire
ãĥ³ãĥ Ĺ
Ġde v
el a
d or
Ġso cial
ï½ Ĺ
åĻ ¨
ĠH a
á»© ng
Ġd ar
Ġsp raw
Ġ ãģŁ
Ġp ia
è Ħ
Ġin i
Äħ c
v ier
oun d
Ġå ¾
Ġãĥ Ļ
Ġra pp
Ġr áº¥t
ç´ ł
Ġdies er
Ð¼ ÐµÑģÑĤ
ÐºÐ° Ñħ
ĠÐ¸ ÑģÐº
ÑĨ ÐµÐ²
ĠÐ½ÑĥÐ¶ Ð½Ð¾
ĠÐ» Ð¸
Ð¸ÑģÑĤ ÑĢÐ°
ĠÐ¶ ÐµÐ½
ĠÐ´ Ð¸
ĠÐ³ Ð»
czy Äĩ
ÑĨ Ð¸Ð¹
ÐµÐ½ Ð¾
ÑĢ Ð¾Ñģ
Ġso it
Ð¸ÑĤ ÐµÐ»ÐµÐ¹
Ġo tros
ĠÐ¸ Ñģ
ï¼ ĵ
ĠÐºÑĢ Ð°Ñģ
ĠÐł Ð°Ð·
ãĥĥ ãĤ°
Ġn ei
ĠÐ¿Ð¾Ð· Ð²
Ð¼ Ð¸Ð½
Ġsp os
ĠÑıÐ² Ð»ÑıÐµÑĤÑģÑı
g ung
Ð¿ Ð¾Ð»
Ġc ent
Æ°á»Ł ng
ãĤ¿ ãĤ¤
ste ll
Ġci udad
st ru
ãģª ãģĮ
çļĦ ãģª
sion i
s iÄĻ
gen d
ang e
Ġ, "
rz a
ĠScar pe
Ġda ll
ar beit
Ġc v
Ġ0 4
ra i
Ġt our
l ung
za cji
Ġh er
Ġth Ã´ng
Ġn Ã£o
c un
ãĥ¼ãĥ Ĺ
w ania
ĠK inder
Ġh or
Ġ: #
æ ¼
Ġk li
li a
åĪ Ŀ
ti gen
Å¼ a
vel o
g ÃŃa
ĠM en
I A
ter e
et s
Ġb ud
Ġï¼ ı
ãĤŃ ãĥ£
ĠM ujeres
paÃ± a
Ġfon ction
ni co
Ġh Ã¬nh
ow Äħ
Ġl in
1 9
Ġte ch
Ġc it
å¸ ¸
Ġar ri
Ġest Ã¡n
Ġb ra
Ġtrava il
w iÄĻ
Ġdiff Ã©r
ĠMad rid
g ro
Ġen cu
Ġein fach
Ġthá» ±c
ti vi
Ġmais on
k er
ĠÑĤ Ð¾ÑĢ
ĠÐŁ Ð¾Ñģ
ĠÐ³ Ð»Ð°Ð²
ĠÐ¿Ð» Ð°Ð½
ĠÐ¾Ð±Ð»Ð°ÑģÑĤ Ð¸
Ð°Ð¹ÑĤ Ðµ
ĠÐ¾ÑĤ Ð²ÐµÑĤ
Ð°Ð»ÑĮ Ð½Ð¾
ĠÑĢ Ð¾Ð´
ĠÐŁÑĢ Ð¸
ie dy
ĠÐ· Ð°Ð½
ĠÐ³Ð¾Ð´ Ñĥ
ÐµÑĢ ÑĪ
Ġ0 2
Ġ. ,
t ent
Ð¾Ð± Ð°Ð²
è² »
ĠÐ¿Ð¾Ñģ Ð»ÐµÐ´
ĠÑĢ Ð°Ð¹
ĠUn d
in n
ĠÐĺ Ð·
Ð°Ð´ Ð¸
åĮ º
Ð¸Ðº Ð¾Ð²
k ty
ÑĭÐ¼ Ð¸
am b
ãģ® ãģ§ãģĻãģĮ
ãģ£ ãģ
çŃ ī
Ġt Ã©lÃ©
dem Ã¡s
Ġç Ħ
g s
ãģ«ãģª ãģ£ãģ¦
Ġdo po
å¼ ·
r ÄĻ
ĠF l
ĠæĿ ±
çµ Ħ
men tos
Â µÃ
Ġthá» ©
Ġ2 9
Ġtou jours
v itÃł
rze da
Ġpr incip
al ne
Ġk le
ni ca
Ġæ ¥
ä» ĸ
ĠrÃ© g
Ġk re
Ġal tri
cz ki
ĠS al
Ġpa ÃŃs
in ter
Ġ201 3
æĿ Ĳ
cz u
å ²
d re
ĠF re
je m
é Į
Ġne ll
ĠgÃ©n Ã©ra
ent lich
Ġp owie
ĠI hr
Ġâĸ ł
ãĥ³ãĥ ģ
è ı
Ġlav oro
ĠÂ ·
Ġk á»
ĠZ u
ãĥ¼ãĥ ĸ
Ġmo i
Ġd ou
Ġg u
åħ ¬
cz na
Ġsp Ã©
si mo
Ġi hre
ta ciÃ³n
om e
ĠP re
Ġpr odo
Ġz n
te d
Ġpos s
Ġp uis
Ġ" ,
ÑĢ Ð°Ð±Ð¾ÑĤ
ĠÐ¼ Ð¸ÑĢ
Ð¾ÑĢ Ð°
ĠÐ± Ð°Ð½
ĠÐºÐ» Ð°ÑģÑģ
ĠÑĥÑģÑĤ Ð°Ð½Ð¾Ð²
ĠÐ ®
ĠÐ² Ð°Ð¼
Ð² Ð¾ÑĢ
\\\\ \\\\
Ð°Ð»ÑĮ Ð½ÑĭÑħ
Ð¸Ð» ÑģÑı
ĠÐ¾Ñģ Ð¾Ð±
ÅĽ wiet
Ð¾ÑĢ Ð¸Ð¸
Ġdi fer
ĠÑĨ ÐµÐ½
ĠãĤ ¦
ĠÐ¿ Ð¾Ð»ÑĮÐ·
ĠÑģ ÐµÐ¼
Å ģ
Ġm us
ÑĢ Ð¾Ð¿
ÐµÑģÑĤ Ð¸
ãģķãĤĮ ãĤĭ
Ñı Ð¶
Ġprof ession
ĠÐ¿ÑĢÐ¾ÑģÑĤ Ð¾
Ġmo is
ä¾ Ľ
eit en
Ġo c
czne go
v or
ãģ¡ ãĤī
res s
) ;
ãģĶ ãģĸ
ĠãĢģ ãĢĮ
ĠÄĳ iá»ģu
Ġche z
Ġm ie
ĠI hre
ĠÃ Ģ
ĠÃº lti
Ġ ãģ«
t ras
Ġpo li
1 7
ran k
Ġæ Ń
Ġt in
Ġt rze
ie le
rÃ© s
ĠãĢ ľ
ãĤī ãģĦ
Ġmuch o
as i
ĠG er
p l
Ã Ĥ
ĠÂ ³
ĠÂ ¼
g ht
á»ķ i
1 3
ĠA s
Ġ Ã¡
Ġna wet
Ġå ¼
ouv elle
m mer
Ġk ein
re z
Ġl ÃŃ
æµ ·
çĦ ¶
åĪ ¶
Ġvo ir
Ġ( "
ta j
Ġweit er
Ġsz czeg
Ġs tu
Ġest u
c oup
ãĤ³ ãĥŁ
ĠdÃ© b
ĠL and
Ġj es
Ġa mp
:: ::
Ã ģ
uyá»ĩ n
ĠP rzy
Ġm om
Ġ ãģª
Ġpro je
ol es
Ð» ÐµÐ¹
ĠÑģÐ¾ Ð¾ÑĤ
ĠÐ²Ñģ ÐµÐ³Ð¾
ÐµÐ³Ð¾Ð´ Ð½Ñı
ĠÐ²Ñģ ÐµÑħ
Ð¸ Ñī
ÑģÐº Ð¾Ð¼
ĠÐ¼ ÐµÐ´
Ñĭ Ñĩ
ÑĥÑĢ Ñĭ
Ġb u
ĠÐ· Ð½
ĠÐ½ Ð¸Ðº
Ð°Ðº ÑĤÐµÑĢ
Ġquel ques
ĠÐ¾Ð´ Ð¸Ð½
ca ciÃ³n
ĠÑĥÑģÐ» Ð¾Ð²
å¸ ĥ
Ð¸ÑĩÐµÑģÐº Ð¾Ð¹
ĠÐ¾ÑĤ ÐºÑĢ
ĠktÃ³ ra
ĠSe x
ÑıÐ± ÑĢÑı
ĠÑĪ ÑĤ
ä¾¡ æł¼
ĠÐ½Ðµ ÑģÐº
Ġimp ort
Ð¸Ð½ Ñĥ
is ter
æĹ¥ æľ¬
und e
áº¡ ng
Ġko lej
Ġc an
ä½¿ çĶ¨
Ġm uss
åħ ·
ãĤ ¡
Ġæ Ĭ
D F
O U
Ġc ro
cel ona
si Ã³n
ÅĤu g
ä½ ı
Ġv ita
kom men
j as
Ġava it
Ġtrab ajo
Ġtro va
Ġes o
Ġsu per
ãģ ²
ãĥ© ãĤ¹
Ġna le
ĠH e
Ġf re
Ġv iÃªn
ãģĹãģ¦ ãģĦãģ¾ãģĻ
ĠW ie
n is
Ġ201 2
Ġpro jet
Ġal ors
ĠÅĽ rod
h Ã¶r
tif s
ĠâĢĿ ,
omb res
ci miento
zz i
i O
Ġtak ie
á» £
Ġex e
ĠH aus
æĦŁ ãģĺ
Ġc ab
Ġï¼ ĳ
éĥ ½
Ġul ti
Ġprzy pad
p ro
Ġb ou
v ie
Ġav is
c s
ck e
Ġkh Ã¡ch
ch te
pr owadz
Ġe au
Ġan cora
1 4
Ġtrab aj
ãģ¨ ãģĵãĤį
us am
è£ ħ
ĠÐŁ Ð¾Ð»
ĠÐ³ Ð¾Ð²Ð¾ÑĢ
Ð¸ÑĢÐ¾Ð² Ð°ÑĤÑĮ
ĠÑĨ ÐµÐ½ÑĤ
ÑĢÑĥÐ¿ Ð¿
ÑĢÑĥ Ð±
Ð² Ð°ÑĢ
ĠÐ² ÐµÐ´
ĠÐ· Ð½Ð°Ñĩ
ĠÐ¾ÑĤ Ð´
æĪ ¦
Ġ Ñİ
Ð¸ÑĩÐµÑģÐº Ð¸Ð¹
Ð°Ð» ÑģÑı
Ã³ lo
ĠÐ·Ð°Ðº Ð°Ð·
c ur
ĠÑĤÐµÑħ Ð½
ÄĻ d
ĠÑĤÑĢ ÐµÐ±
Ð ¯
le i
Ã» t
ĠÐ½ Ð¸
ĠÐ¼Ð¾Ð³ ÑĥÑĤ
ces o
Ð¾Ñĩ Ð½Ð¾
h i
Ð¾Ð² ÑĭÑħ
con tre
ri er
v Ã©
Ġbei m
åİ Ł
ĠQ ues
Ġra z
di en
Ġd urante
Ġl Ã½
ra it
Ġd ni
Ġba ck
ãĥĸ ãĥ©
å¤ ©
sk ich
ĠL ie
ãģ§ãģĻ ãģŃ
åı İ
o k
Ġein es
ãĥŃ ãĤ°
Ġcel a
ĠãĤ ±
Ã§ Ãµes
å½ ¢
Ġt anto
kow e
Ġf aut
á»į n
Ġwy so
id Ã©
p t
ãĥ¼ãĥ ĵ
ÅĤa w
Ġcu enta
Ġinc ont
Ġc Ã¹ng
anie m
Ġa nge
Ġå ī
i li
ãģ© ãģĨ
ī ĭ
to wa
O L
Ġm er
Ġb et
Ġch icas
Ġsie mpre
Ġ ur
Ġç Ļ
ĠÂ ´
7 9
Ġx e
å¿ħ è¦ģ
Ġan no
ko rzy
Ġd ist
ei ÃŁ
Ġz ro
ad en
Ġh is
s ter
ĠE uro
ĠF Ã¼r
b ilitÃł
æ± º
n et
Ġqu a
ĠD onna
ti ci
ĠÑģÐ»ÑĥÑĩ Ð°
ĠÐ¼ Ð½Ð¾Ð³Ð¾
ĠÑģÐµÐ± Ñı
ĠÐ³ Ð¾ÑģÑĥÐ´Ð°ÑĢ
Ñı Ñģ
ĠÐ¸Ð½ÑĤÐµÑĢ ÐµÑģ
ĠÑį Ð»ÐµÐºÑĤÑĢ
ĠÐ²ÑĭÑģ Ð¾Ðº
ĠÑĩ Ð°Ñģ
Ġu04 3
iÄĻ ki
Ð¾Ð´ Ð°
ĠÐ¿ÑĢÐ¾ ÐµÐºÑĤ
Ð¾Ð² ÑĭÐµ
tÃ© s
ÐµÐ½ Ð½Ð¾Ð³Ð¾
èª Ń
ĠÐ¸Ð½ÑĤÐµÑĢ Ð½ÐµÑĤ
ta dos
ĠÐ´ Ð¾Ð¿
ÐµÐ· Ð´
ĠLe ben
ãĥ³ãĤ ¸
Ð°ÑĤ ÑĢ
Ð°Ñı Ð²
in di
ĠÑģÑĤ ÑĢ
Ġwy da
Ð´ ÐµÑĢÐ¶
Ġp ues
ist es
çļĦ ãģ«
gu i
Ġo per
qu er
Ġca p
k ar
u ka
osten los
ig er
c ca
ow an
Ġn elle
Ġåħ ¨
ĠS er
å§ ĭ
ar on
Ġj ou
Ã ĥ
Ġc áº¥p
Ġer a
Ġpo zy
k te
ie urs
ãģŁ ãģ¡
Ġdz i
ĠF e
Ã ī
ĠPos tÃ©
uf f
ĠB r
Ġpro b
Ġsy ste
Ġd am
ka mi
ĠÃ Ķ
f all
Ġque llo
Ġnue vo
Ġvá» ¥
Ġf u
Ġk ra
å ĩ
r er
åı ·
h o
Ġg anz
ber g
p iel
ãģª ãģĭãģ£ãģŁ
t res
c an
wi ck
ãģĵãģ¨ ãģ¯
Ã§ a
Ġt an
ĠnhÆ° ng
ĠK ar
di tion
Ń Ĳ
Ġp es
ĠP ers
Ġh ui
ci u
çĽ ´
ich i
gu a
ch ten
k l
Ġpersonn es
Ġpow in
ĠÑģÐº Ð°Ð·
ÑĢ Ð¾Ð±
ĠÐ¼ ÐµÐ¶Ð´
Ð½ Ð¸Ðµ
ÐµÑĢ Ðµ
ÑģÐ» ÐµÐ´
Ð¾ ÑĦ
Ð»Ñı ÐµÑĤ
ÐµÐ½ÑĤ Ñĭ
ĠÐ¿Ð¾Ðº Ð°Ð·
å ©ļ
ĠÐº Ð°ÑĢ
ĠÐĴÑģ Ðµ
ĠÐ¶ Ð¸Ð²
ç ¸
Ð° Ñī
ter ior
ÑĢÑĥ ÑĪ
Ġni Å¼
ĠÑĢÐµÐ· ÑĥÐ»ÑĮÑĤ
ĠÐ½ ÐµÐ¼
Ġãĥ ī
ĠU na
ĠÐ´ Ðµ
Ġ4 0
* *
Ð¸ÑĩÐµÑģÐº Ð¾Ð³Ð¾
Ġdis p
ÑģÑĤÑĢ Ð¾Ð¹
ĠãĤ Ħ
eit s
c Ã©
ĠÂ ±
Ġph áº©m
è ĸ
Ġwar to
ãĥķ ãĤ£
áº¥ u
c is
we ise
Ġãĥ Ŀ
8 0
Ġk ol
ta ble
enie m
åĪ© çĶ¨
Ġdes arro
Ġpay s
Ġwy s
ei m
ion i
g ang
ãĤ ²
t ni
Ġtra v
âĢ ¦
Ã ĩ
Ã ĵ
ĠnÃ³ i
è ĭ
ĠD I
Ġqu ando
i k
ĠB us
Ġf al
ãĤ¤ ãĤ¯
z d
b ei
Ġe je
w is
ãĥ¥ ãĥ¼
Ġfin den
Ġâ Ļ
åı °
Ġinforma ciÃ³n
ĠD am
ç ¯
os i
au m
ãģªãģĮ ãĤī
c le
ĠÄĳ ang
ĠW enn
pu Ã©s
ãģĺ ãĤĥ
é ¤
cj on
ãĤ ©
e z
rz Äħd
Ġm odo
ãĥ³ãĥ Ģ
Ġj ours
r en
ar y
é¡ ŀ
f ten
Ġc oup
d Åº
ci do
Ġin d
ĠÐ£ ÐºÑĢÐ°
ÑĥÑĢ Ð³
ĠÐº Ð½Ð¸
ÐµÐ´ Ð¸ÑĤ
Ð² ÐµÐ´
Ð¾Ð½ Ðµ
Ð°Ð» Ð¸ÑģÑĮ
ĠÑģÐ¾Ð¾ÑĤ Ð²ÐµÑĤ
ÑįÑĤ Ð¾Ð¼Ñĥ
ĠÐ¼Ð½ Ð¾Ð³
Ġl Ãªn
ĠÐ±ÐµÑģÐ¿Ð»Ð°ÑĤ Ð½Ð¾
ÑħÐ¾Ð´ Ð¸ÑĤ
Ð°ÑĤ ÐµÐ»Ñı
ow any
Ð¾Ð³ Ð»
Ġãĥ ģ
ĠÐ¿ÑĢÐ¾ÑĤ Ð¸Ð²
pe ÅĤ
ĠÐ±Ñĭ Ð»Ð¸
ĠÑĤ ÐµÐ¿
Ġs owie
ç¨ ¿
ĠÐ· Ð²
ĠÐ¼ ÑĥÐ¶
è ĩ
Ð½ ÐµÐ²
Ġf e
ĠÑĢÐ°Ñģ Ñģ
ĠP reis
ul ar
Ġqu alitÃ©
gr ound
in en
Ġãģ Ķ
Ġle g
çĻ »
ĠprÃ© sent
Ġtr Ã¬nh
y ste
æĿ ±
e ur
ĠwiÄĻ c
ct ri
Ġe uro
Ġå ¯
Ã¤ h
ĠÃ© tu
Ġc ir
ĠN aj
Ġ osta
Ġsp iel
Ġhtt p
ĠP l
ĠG u
Ġch Ãºng
ĠA m
I D
Ġmen os
æľ ¨
Ã© v
jÄħ cy
Ġth is
Ġc las
Ġuns ere
Ġback ground
ĠD u
li ng
Ġzw ei
Ġbeau coup
Ġãĥ Ł
Ġos Ã³b
ãĥ¡ ãĥ³ãĥĪ
x t
g ue
Ġpro g
ãģ¨ ãĤĤ
gra m
at t
çµ Ĥ
ille t
Ġg esch
ĠCon ta
un que
ãĤ· ãĥ£
åħ ĥ
con om
Ġé Ŀ
w id
Ġkh Ã¡c
ck er
ãģ¾ ãĤĬ
h m
Ġa o
Ġpro ble
å ¡
gi que
Ġann Ã©e
Ġw el
ow iÄħ
Ġs ais
ĠÐ´ Ð¾ÑĢ
ÐµÑĢ ÑĮ
ĠÐ¿ÑĢÐ¾ÑĨ ÐµÑģÑģ
Ñĥ ÑĢÐ°
ĠÐ½Ð° ÑĢ
ÐµÑĢ Ð¾Ð²
ÑĤ Ð°
ĠÐº Ð°Ð·
ĠÑĢ ÐµÐ±
ĠÐ¾ Ð¿ÑĢÐµÐ´ÐµÐ»
Ġes tar
ĠÐĵ Ð»Ð°Ð²
ĠÐ±Ð¾Ð»ÑĮÑĪ Ðµ
ÐµÐºÑĤ Ð¸Ð²
ach t
ĠÐ¾ ÑĦ
Ġå° ı
ĠÑĦ Ð¸Ð»ÑĮ
Ġs ÅĤ
ĠÐ¼ Ð½Ðµ
Ð· Ñĭ
Ġv rai
é ¢¨
ĠÐ¾ÑĤ Ð»Ð¸Ñĩ
ĠÐ½ Ð°Ð»
è Ĭ
Ð°Ð½ Ð¸Ð¹
Ġdo ve
ĠÐ²Ñĭ Ð±
g as
Ġs itu
Ġs elbst
èĤ ²
ĠÅĽ wia
ãĥķ ãĥĪ
Ġres ul
è ·
Ġver s
Ġex per
Ġt ec
Ġcas a
ff e
sta w
æ Ĵ
v ano
O D
Ġza ch
Ġqui en
v re
g leich
ri r
Ġcom pr
Ġh Ãłnh
ãĤģ ãĤĭ
b ra
s I
bi or
Ġj etzt
2 5
ĠãĤ °
Ġdies em
m is
Ġpo trze
ÃŁ er
Ġz wiÄħz
ãģĦ ãģĨ
Ġe ur
Ġpeti t
c ina
á» «
å »
ier ung
Ġå º
Ġ ãģ§
Ġat ten
Ġc ul
ãĤ¿ ãĥ¼
Ġd ÅĤu
is ten
ãģª ãģ®ãģ§
Ã Ī
Ã Ĩ
iá» ħn
Ġu cz
ãĥ© ãĥ¼
éĮ ²
ĠP DF
èŃ ·
l le
Ġn um
j az
ãĥ³ãĤ ·
Ġl Æ°á»£ng
Ġsu pp
Ã© m
ãģĤ ãģ£ãģŁ
Ġpas s
Ġt ych
ĠÂ ¡
Ġcas o
ĠOn line
Ð°ÑĢ Ð°ÐºÑĤÐµÑĢ
ĠÐļ Ð¾Ð½
ĠÑĢÐ°Ð·Ð² Ð¸ÑĤ
Ð¾ÑĤÑĢ ÐµÐ±
Ñĩ Ð°Ñģ
Ð «
ĠÐ½ Ð¸Ñħ
ĠÐ¸Ð· Ð¼ÐµÐ½
ĠÐ¿ÑĢÐ¾Ð± Ð»ÐµÐ¼
ĠÑĥ Ð»
Ġp utas
ĠÐ¾ÑĤ Ð·ÑĭÐ²
Ð¾ÑĤ Ð°
ÐµÑĢ Ð±
Ġy o
ĠÐº ÑĤÐ¾
ï¼ ķ
ĠÐ¼ Ð°Ð»
b el
ÑĢ Ð°Ñģ
ĠÐ· Ð°ÑıÐ²
ar go
èģ ŀ
ĠÑģÑĤ Ð¾ÑĢ
ĠÐº Ð°ÑĤ
è¡ ĵ
ÑĨ Ðµ
Ġf ranÃ§ais
ĠÐ¸ Ñİ
Ġet was
L CJ
ur y
Ġè ª
Ġcon na
åĬ ¹
dad es
ķ Ĩåĵģ
Ġm Ã¡y
h and
t w
Ġo re
Ġpo i
c Äħ
åķ Ĩåĵģ
ĠP f
Ġcon se
us es
ue gos
Ġm am
ÅĦ ski
ĠVer s
Ġb iáº¿t
Ġg us
ï¼ Ī
Ġqu Ã©
ci Äħ
la ge
Ġf atto
ãģ« åħ¥
ķ ç¨¿
Ġg el
ti ng
Ġs ido
Ġf our
ĠM il
l y
ĠÅ »
Ġna u
Ġper chÃ©
c olo
ãĤ¤ ãĥ³ãĥĪ
ue il
Ġæ µ
æ³ ¨
ĠQ ue
Ġde j
Ġé ĸ
Ġ0 00
ab a
åı Ĥ
d f
y age
ĠF r
Ġb ie
Ġãĥ Ĩ
ãģ£ãģ¦ ãĤĤ
ar se
ãģ» ãģ©
Ġph Ã¡t
Ã¶ s
Ġpa g
ãģĵãģ¨ ãĤĴ
li ÅĽmy
ut to
se mble
ĠWar sza
ĠP L
Ġ" )
z pie
ĠrÃ© alis
ĠDeutsch land
Ð¡ Ð¢
Ð¸ÑĤ Ñĥ
ĠÐ´Ð¾Ðº ÑĥÐ¼
Ð± Ñĭ
Ðł Ñ
ĠÑģÑĤ Ð°ÑĢ
ĠÐºÐ² Ð°ÑĢÑĤ
Ðº Ð°Ð¼Ð¸
Ð´ Ð¸Ð½
ĠÐ» ÐµÐ³
ÅĤo Å¼
ĠÑĥ ÑĤ
ĠÑĥ ÑĢÐ¾Ð²
Ð°Ð» Ð¸ÑģÑĤ
Ġte ng
ĠÑĤÐµÐ» ÐµÑĦ
auss ures
ÐµÑĩ ÐµÐ½Ð¸Ðµ
ĠA nge
ĠÑĤ ÑĢÐ°Ð½
ĠÐ½ ÐµÐº
l s
æ ¶
Ð¾Ðº Ð°
ÐµÐ² Ð°
v il
Ð Ļ
Ġbes te
ĠÑģÑĤ Ð°ÑĤÑĮ
Ġqu and
ta ts
ĠçĦ ¡
æĦ Ľ
ãĤī ãĤĮ
y w
g az
cu la
Ġse gu
es en
szy m
ien do
á»ĩ nh
Ġe mb
Ġè ¿
on der
Ġin sta
è¶ Ĭ
I L
ĠâĢ ¢
Ġd ur
æķ Ļ
b au
u he
Ġg dzie
ĠC ol
Ġdes s
ĠM as
ĠL A
Ġpo co
ĠGe w
á»ĵ i
ĠâĢĿ .
bi lidad
el on
Ġpropri o
Ã¤ s
y a
cu er
¼ åħ¥
Ġal go
ĠTe il
ãģ¡ãĤĥ ãĤĵ
ç ²
o t
ĠdÃ© velo
Ġt uo
ãĤ¯ ãĥª
Ġn Ãło
Ġqu anto
Ġo tro
¹ ä»ĭ
ä»¥ ä¸Ĭ
Ġd it
Ġso tto
idad e
t ÄĻp
Ġemp lo
Ġes per
uf t
ĠC ette
Ġs tos
Ġp el
Ġs ab
iss ance
å® ¢
ĠI I
Ġes e
Ġge ht
Ġd ostÄĻp
Ġv ille
Ġc áº§n
Ð°Ð» Ð¾ÑģÑĮ
ĠÑįÐº ÑģÐ¿
ĠÐ± Ð»
ĠÐŀ Ñģ
Ð¾Ð» Ð¶
ĠÐ½ Ð°Ð¼
ĠÐ¿ÑĢÐ¸Ð¼ ÐµÐ½
ĠÐŀ Ð½
ĠÐ³ ÑĢÑĥÐ¿Ð¿
Ð¾Ð¶ Ðµ
ĠSt ra
ĠÐ±Ñĭ Ð»Ð°
ÑĢ ÐµÑģ
ĠÐľ Ñĭ
ne a
ĠÐº Ð»Ð¸
ĠDa ten
ĠÐ² ÑĤÐ¾ÑĢ
ãĤĤ ãģĹ
ĠÑģÑĤ ÑĢÐ¾
Ð¼ Ðµ
ĠB ild
Ġorg ani
ÐµÐ¹ ÑĩÐ°Ñģ
Ð° ÑĨÐ¸Ð¾Ð½
ĠCom ment
Ð°Ðº Ñģ
ĠA k
ĠÐ¼Ð¾Ð¶ÐµÑĤ Ðµ
Ġnouve au
åħ ī
Ġpue den
le ction
Ġrecher che
Ġac tiv
w es
Ġmi es
g io
ti mm
áº£ m
ta le
om i
Ġdis pos
l tre
ĠA uto
em mes
ĠgÅĤ Ã³w
Ġje u
¥ ¿
j Ãł
sz ta
ch at
w ni
áº¯ n
Ġander en
ti er
odz ie
ãģĤãĤĬ ãģ¾ãģĽãĤĵ
ost ra
p es
Ã´ t
ta ch
Ġfo to
Ġlá» Ľ
Ġen vir
Z I
ces so
it t
Ġtod a
ãĥĨ ãĥ«
on ych
ge ben
ob ier
ãģį ãģŁ
ĠR oma
Ġtr atta
c Ãª
Ġse a
ite ment
Ġc et
ĠIn ter
å ĴĮ
a ta
Ġplus ieurs
olo gi
Ã¼ ber
ãĥĲ ãĥ¼
Ġo ko
è¼ ī
Ġa nh
ãģ® ãģ§ãģĻ
z ien
ador a
Ġave z
c ci
Ġtod as
c re
éģ İ
it re
Ġf ami
g esch
ĠÑįÑĤ Ð¾ÑĤ
ÑģÐº Ð°Ð·
Ðº Ð¸Ð¹
Ð°Ð½ Ñĭ
ĠÑĪ Ðº
Ð¸ÑĩÐµÑģÐº Ð¸
ĠÐ² Ð¾Ð»
ĠÐ·Ð° Ñī
ĠÑįÑĤ Ð¾Ð¹
Ñĥ ÑİÑĤ
Ġtr Æ°á»Ľc
Ð¾Ð³ ÑĢÐ°ÑĦ
ĠÐ¼ Ð°ÑĪ
Ð½ Ð¸Ñħ
ta t
ÐµÐ³ Ð´Ð°
Ġpr owadz
Ñĥ ÐµÑĤÑģÑı
Ġcos Ã¬
ĠÐ½Ð° ÑħÐ¾Ð´
ĠÐ² Ð°Ñģ
r ow
li ck
Ð¸ÑĤ ÐµÐ»Ð¸
Ñĥ Ð¹
ĠP as
Ð¸Ð¼ Ð¾ÑģÑĤÑĮ
Ġå® Ł
Ð¾Ð´ Ð°ÑĢ
ĠJe an
und a
od i
en ces
ĠGr und
Ġav ons
Ġmon do
sz ej
Ġar ticle
ĠR a
ä»ĺ ãģį
ãĥ¼ãĥ ŀ
Ã¶ l
r ent
y t
å¤ļ ãģĦ
Ġnaj lep
ĠE ste
Ġne ue
Ġi ng
æ® µ
uje my
ĠbÄĻ dÄħ
ãĤī ãĤĮãĤĭ
ra g
en z
ĠS a
ĠåĲį çĦ¡ãģĹ
ãĤĵ ãģ§ãģĻ
ãĤı ãģĽ
r Ãª
Ġnuo vo
Ġjak ie
ĠÃ ½
Ġmi gli
ãģĿ ãģ®
ab e
ĠMen schen
Ġservi ce
ra z
ta ge
éĢ ²
Ġal tro
iste ma
id ent
Ġsp rzeda
si ÄħÅ¼
res se
Ġszy b
çĶ ·
ĠE st
åĥ ı
m ment
Ġprof es
Ã İ
á»ĵ ng
v as
ãģĦãģŁ ãģł
éĸ Ģ
éģ Ķ
s ÅĤ
Ġn Äĥng
Ġtr ois
åĩº ä¼ļ
u a
è¿ Ķ
Ġte le
ãĤĴæ Į
n ung
la g
Ġorg anis
at ur
Ð ¥
ÑĭÐ² Ð°ÑĤÑĮ
Ð¸ ÑĦ
__ __
ĠÑĥ Ð¿ÑĢÐ°Ð²
Ð° ÑģÐº
ĠÐ¾Ð± ÑıÐ·
Ð¾Ð´ ÐµÑĢÐ¶
ĠÐ´ ÑĢ
ĠÐ¾Ð± Ð¾ÑĢ
èª ¬
ĠÐ´ ÐµÐº
ĠÑģÐ¾Ð¾ÑĤÐ²ÐµÑĤ ÑģÑĤÐ²
ĠÐ¿ÑĢÐ¾ ÑĪ
Ġti po
ĠÐ¿Ð¾Ðº ÑĥÐ¿
wa ÅĤ
ĠÐ¼Ð°ÑĤÐµÑĢÐ¸ Ð°Ð»
¬ ĳ
ĠÐ¼ Ð°ÑĢ
ĠÑģ Ð½
j ou
ru ck
ĠÐ¿ÑĢ Ð¸Ñĩ
ĠÐ¼ ÐµÑģÑı
Ġmo y
ÐµÑģÑĤÐ² Ð°
ãģĻ ãģĻ
ĠÑĥ Ð³
cj al
qu ÃŃ
Ġhat te
Ġbes o
Ġpod r
k re
Ġpremi er
Ã į
Ã³ a
ta ti
ãģ§ãģį ãģ¾ãģĻ
ãģ® ãģ«
dz ia
Ġgran de
l uss
ãĥ¼ãĥ Ĩ
cz ej
ĠV i
ta d
r icht
éģ ĭ
Ġes tos
Ġpho to
æł ¡
Ġus ta
Ġsar Ãł
sch ei
ãĤĬ ãģ¾ãģĹãģŁ
Ġf er
S I
Ġ\" :
Ġt am
Ġsy st
Ġpro y
ĠP ra
os o
Ã³ ng
Ġk iedy
ĠI N
v ere
Ġjus qu
Å¼e j
ich te
ãģĮ ãģĤãĤĬãģ¾ãģĻ
ĠV al
Ġde b
o re
Ġko ÅĦ
qu Ã©
Ġdo ch
m on
ei ra
Ġma chen
Ġm il
Ġtut te
Ġnh áºŃn
v in
ĠL u
Ġgi Ãł
é¡ į
und es
â Ķ
ç¨ ®
tik el
Ġp ouvez
ter ia
ĠÃ ĸ
Ġ201 1
Ã ¯
Ġf Ã¼
Ġs ti
ĠOd powie
7 7
Ñĳ ÑĤ
ÑĥÐ»Ñı ÑĢ
ĠÐ¶ Ð¸Ð·
Ð¾Ñı Ñī
ÑĢ Ð¸ÑĤ
ĠÐ°Ð²ÑĤÐ¾Ð¼ Ð¾Ð±
Ñĥ Ð»Ð¸
ĠÐ¿Ð¾ ÑıÐ²
ĠÐºÐ¾Ð¼Ð¿ Ð°Ð½Ð¸Ð¸
Ġma jÄħ
ĠÐ´ ÐµÐ²
Ġ" .
ĠÑģÐ» ÑĥÐ¶
ta mente
Ð½ Ð¸Ñĩ
Ġcual quier
ĠÑĩ Ð¸Ñģ
ãģĹãģŁ ãģĦ
ÑĭÐ² Ð°ÐµÑĤ
ÐµÐ´ ÐµÑĢ
Ġk osz
äº Į
ĠÐºÐ¾Ð¼ Ð¿Ð»
Ð°Ð½ Ð¾
au te
ĠÐ½ Ð°Ð±
ç§ ģ
ĠÑģÐ»ÑĥÑĩÐ° Ðµ
Ġspos Ã³b
Ġah ora
Ġâĺ ħ
ç´ °
uj et
Ġse u
Ġg leich
ĠE N
Ġd ÃŃas
ãĥ¼ãĥĵ ãĤ¹
Ġm ujer
Ġmom ento
ch ts
ĠÄĳ Ã¢y
Ġnie z
Ġc ours
in ie
ãģĦ ãģı
ĠâĢ »
è¶ ³
ch a
en den
æ ģ
be zpie
éĻ ¢
Ġm áº·t
ĠSta dt
Ġk ier
ca m
Ġan tes
6 0
Ġf am
Ġz ar
bil itÃ©
Ġwszyst kie
na ge
ãģ¨ ãģį
u ales
et e
li que
Ġch at
Ġcomp le
t ki
ĠwiÄĻ k
Ġch áº¥t
Ġc l
ãģĹãģ¦ ãģĬ
Ġnuest ro
ĠS in
Ġa lles
Ġes cri
Ã¨ le
ĠÃ©qui pe
ãģĹãģ¦ ãĤĤ
m ein
Ġpres ent
ze ich
Ġprodu its
Ġt Æ°
4 0
ĠdÃ© jÃł
å£ «
Ġp df
Ġtr op
fi ci
Ġsu ite
Ġå ·
k ry
Ġb á»Ļ
Ġse m
è¨ ¼
h aus
ĠÐ¶Ð¸Ð· Ð½Ð¸
Ð°ÑĤÐµÐ»ÑĮ Ð½Ð¾
ĠÐ·Ð°Ðº Ð¾Ð½
ĠÑĢ ÑĥÑģ
Ð¸Ð¼ ÐµÑĢ
Ð ¬
Â µ
ÑĢÐ° Ñħ
Ð¸Ð² Ð°ÑĤÑĮ
ĠÐ» Ð¸ÑĪ
zi mmer
ĠÐ¡ Ð¾
Ð¾Ð² Ð°Ñı
ÑĢÐ° ÑģÑĤ
rie b
ĠÐ¿ÑĢ Ð¾Ñģ
ĠA pp
ĠÐ¿ Ð¾Ð±
t on
ĠÑģÐ² Ð¾Ð¹
Ñĥ ÐºÑĤ
us o
ĠM an
ĠÐķ Ð²
ĠÐºÐ¾Ð» Ð¸Ñĩ
ç ĻĤ
Ð¿ Ð¸Ñģ
iss ion
Ð¸Ð² Ð°ÐµÑĤ
çĻ ½
¿ Ģ
Ġar t
ãĥ¼ãĥ Ĳ
Ġpro pr
ĠK le
b li
ĠPers on
Ġpe li
ĠP lus
ĠwÅĤ as
Ġpart ie
Ġof re
Ġxu áº¥t
Ġè »
ĠA le
Ġsi to
Ġob ie
ich ten
äº ¤
Ġfa ci
Ġè ¨
Ġtr es
Ġå ĩº
owa ÅĤ
ĠF a
ç§ ĳ
Ġcha que
st Ã¤n
Ġcomp te
Ġnghiá»ĩ p
ä¸ ī
ĠP u
Ġcon di
åĤ Ļ
ĠS ujet
Ġenf ants
Ġtá» ±
Ġprimer a
Ġpers one
Ġsamo ch
Ġm Ã¼s
ç´ ¹ä»ĭ
Ġæ° ´
Ġp Ãºb
ĠS ur
ãģį ãģ¾ãģĻ
ve au
cz ka
ĠD la
ĠM us
åĢ ¤
d ÄĻ
ĠS tar
Ġå ¿
á»¯ a
in y
Ã¡ g
åĪ ¤
ol le
or te
za hl
Ãº t
ĠRo z
ĠÃ ¤
ãģĻãģĻ ãĤģ
æĥ ³
al itÃł
t te
Ġw a
ĠC ons
èģ ·
ĠÐ¿ Ð¾Ð³
ĠÐ¾ Ð³
ĠÐ³ Ð¾ÑĤÐ¾Ð²
ÑĥÑĤ ÑĢ
Ð §
ÐµÐ½ Ñģ
ĠÐĲÐ» ÐµÐºÑģ
Ð°Ð»ÑĮ Ð½Ð°Ñı
ĠÑĥ Ð·
ĠÐ¾Ð± ÐµÑģÐ¿
gl Äħ
ĠÐ± Ð»Ð°Ð³
Ð°ÑĤ Ð¾Ð²
ĠÑħ Ð°ÑĢÐ°ÐºÑĤÐµÑĢ
ãĥĩãĤ£ ãĥ¼ãĤ¹
Ð¸Ñı Ñħ
in os
ĠÑģÐ¾Ð± ÑģÑĤÐ²ÐµÐ½
g Ã©
ÑĢ ÑĭÑĤ
ÐĿ Ðĺ
j m
bi to
ĠÑģÑĤ Ð¾Ð»
ĠÑĥ Ð±
2 2
Ð» ÐµÐº
Ã ķ
Ð³ Ð°
ä¸Ĭ ãģĴ
-- --
áºŃ y
èĳ ī
Ġvie le
elle ment
Ġpri mo
u da
kt Ã³w
Ġi de
obier no
Ġi ci
et tes
ĠP ero
Ġç ¬¬
Ġra p
Ġza le
Ã¤l t
áº¡ ch
èī¯ ãģĦ
ar Ã¡
å¼ µ
Ġm Ã¶glich
Ġé £
ĠrÃ© f
ĠM on
äºº ãģĮ
Ġqu indi
cj Äħ
Ġcom ent
Ġdo it
iv el
¦ ı
ĀĀĀĀ ĀĀĀĀ
ti che
Æ°á»Ľ ng
é Ł³
Ã© ro
ĠmoÅ¼ liw
ĠE ine
en ze
Ġc r
åį ĺ
Ġpe ÅĤ
Ġn ouvelle
ĠktÃ³r ych
åĢ ĭ
tiv as
Ã¨ ne
Ġp un
ĠÂ ¶
Ġv Ã¬
isch er
æ¸ Ī
ĠP ri
Ġna ture
Ġ ãģĹãģĭ
Ġman era
ĠA ve
cyj ne
Ġpol ÃŃ
id er
ĠT i
Ġz ad
Z W
Ġna m
ÅĽ wiad
Ġparti r
Ġm illi
a ti
Ġå ±
ĠRe g
ĠÑĢÐ°Ð· Ð»Ð¸Ñĩ
Ð» Ð°Ð¼
ÐµÐ¼ Ð¾Ð½ÑĤ
ĠÐ½ Ð¾Ð¼
ÑĨÐ¸ Ð¿
Ð¸ÑĤ Ð°
ĠÐł Ñ
Ð¾Ð´ Ñĭ
ÐµÑĤ ÑĢ
ĠÐºÐ¾Ð½ ÑĤÑĢ
ĠEs p
ĠÐ¼ Ð¾ÑĢ
00 0
ĠÐº Ð°Ð¼
ãĤĪ ãģŃ
ÑĥÐ½ Ðº
æŃ ©
ĠÑģ ÑĥÐ¼
ch o
ĠÑģ Ð¾ÑĤ
Ð¸Ð»Ð¸ ÑģÑĮ
Ġcos a
t nie
ÑĥÐ· Ñĭ
Ð¸Ðº Ðµ
ari as
ĠÑĥ Ð¿
å® ħ
ĠÑį ÑĦÑĦ
Ġd Ã¢n
wa rz
Ġf i
z ent
gra ph
ãĥ¼ãĥ ©
Ġch ar
Ġin te
endi ta
Ġri cer
Ġmej ores
wÃ³ j
f ang
Ġp en
è» ¢
Ġe igen
ĠG ra
tow e
Ġob je
Ġãĥ ¢
Ġgi an
ĠT ak
ãĥ« ãĥĪ
Ġse p
lan c
kie j
Ġsa voir
ta mento
æ ¡
ĠIn forma
Ġm ont
zza zione
æĮ ĩ
Ġdam it
res sion
Ġin nych
è¦ ı
Ġpe que
ma g
á»į i
un ter
c itÃ©
Ã§ o
is ir
ãģį ãģª
Ġb ene
Ġvo it
an der
Ġk to
Ġt re
ç¥ ŀ
Ġo tra
Ġn r
f o
ãĤĦ ãģĻ
ck ie
Ġso pra
Ġlo ka
ĠEl le
Ãªn cia
Ġa mi
Ġtien en
Ġæ ł
ĠF ar
ĠU S
æħ ĭ
Ġh Ã´tel
g ur
Ġb in
ĠCh icas
U E
Ġtra ta
Ð°Ð» Ðµ
ÑĢÐ° Ñĩ
ÑıÑĤ ÑģÑı
ĠÐļ ÑĥÐ¿Ð¸ÑĤÑĮ
ĠÐ¿ÑĢ Ð°ÐºÑĤ
ĠÐ½ÐµÑģÐº Ð¾Ð»ÑĮÐºÐ¾
ĠÐ² Ð¾ÑĤ
ĠÑģÐ¼ Ð¾ÑĤÑĢ
ĠÐ¡ Ð°Ð¼
Ð¸Ð½ Ð¾Ð²
ĠWo hn
ĠÐ´Ðµ ÑıÑĤÐµÐ»ÑĮ
ĠÐ¿ÐµÑĢ ÐµÐ²
ĠÐ½Ð°Ð¿ ÑĢÐ°Ð²
so ci
Ð° ÑĨÐ¸Ñİ
ĠÂ ²
ĠÑĤ Ðµ
Ġk inh
ÐµÐ» Ð¸Ñĩ
Ð½Ð°Ðº Ð¾Ð¼
se ment
ĠâĻ ª
Ð°ÑĤ Ðµ
Ð¾Ð½ Ð¾Ð²
ä¼ ģ
ĠÐ²Ñģ ÐµÐ³Ð´Ð°
s ÅĤu
ÐµÐ´ Ð¸Ð½
la ciÃ³n
Ġw Ã¼r
ãģ¨ è¨Ģ
Ġparti cu
Ġsta ta
ph one
è« ĩ
w anie
ãĤ· ãĥ§
ĠÄĳ iá»ĥm
Ġt wo
ãĥĹ ãĥ¬
åĩº æĿ¥
æ ¤ľ
ĠEs paÃ±a
schie den
u la
Ġnuest ra
ra l
è³ ĩ
Ġå½ ĵ
z ji
Ġli b
Ġh in
ti do
m ann
Ġapp ar
Ġwsp Ã³ÅĤ
li g
Ġéĩ ĳ
æı Ľ
9 9
ĠW i
ãģĦ ãģªãģĦ
j os
ĠS tu
Ã¡ rio
Ġ <
Ġexe mple
Ġmog Äħ
ĠâĹ ı
çĶ ±
Ġho y
hal b
Ġentrepr ise
áº¹ p
c cia
Ġcom mer
Ġb áº±ng
le c
è Ĳ
Ġpod er
Ġpeu vent
keit en
ato re
ti o
Ġn ec
Ġcon tent
éĢ ł
Ġde cir
Ġdod at
Ġge f
b an
Ġwie le
å¸ «
æ± Ĥ
Ġm Ã¶
usam men
ĠO b
Ġsu c
Ġencu ent
Ġcz ÅĤ
ĠÑı Ð·Ñĭ
Ð¸Ð·Ð½ ÐµÑģ
ĠÑģ ÐºÐ°ÑĩÐ°ÑĤÑĮ
ĠÐ° Ð¿
ĠÑĥ Ð¼
ĠÐ´ Ð°Ð²
ĠÑĤ Ð°Ð¼
ĠÐ°ÐºÑĤ Ð¸Ð²
ĠÑģ Ð¸Ð»
ÐµÑĢ Ðº
ei ro
ĠÐ¿ ÑĥÑĤ
ĠÑĢ Ð¾ÑģÑģ
ĠÐ¿ÑĢÐ¾ÑĦ ÐµÑģÑģ
Â º
Ð¸Ñģ Ñģ
á» Ĺ
Ð» ÐµÑĤ
ĠÃ© p
Ðº Ð°Ð½
ĠÐ§ ÑĤÐ¾
Ġk obie
ãĥ¼ãĤ« ãĥ¼
Ð°Ð¶Ð´ Ð°Ð½
ĠÐ¾ÑĤÐ½Ð¾ ÑĪ
æ² »
Ð´ Ð¶
ni enia
ĠÐ¾Ðº Ð°Ð·
Ġass ur
Ġda i
ãģį ãģ¾ãģĹãģŁ
am iÄĻ
Ġor ig
Ġk ostenlos
ãģĿ ãĤĮ
Ġs eit
Ã³ d
ãģĵãģ¨ ãģ§
Ġren contre
ĠF emme
Ġcu is
Ġ201 0
Ġdisp oni
Ġk áº¿t
Ġa ura
Ġw ill
Ġh echo
ĠG ar
n ku
ãĤ¤ ãĥī
b et
ç´ į
ĠãģĿ ãģĹãģ¦
Z X
Ġs ty
Ġgrand es
Ġsein e
Ġnost ro
v enti
n iÄĻ
æĸ ½
ĠE S
Ġnue va
Ġmar s
Ġm ui
L L
Ġnec ess
Ġma i
ç ¬¬
en der
Ġm ani
Ġnas tÄĻp
b es
ĠãĤŃ ãĥ£
áº£ nh
ĠK ra
c ka
t ych
å® ¤
çµ ¦
ãģĵ ãģ®
Ġ9 0
cz es
di g
Ġb onne
Ġs ku
ç ¹
Ġr ou
Ã¼ h
Ġh omme
K A
za cja
mi entos
ãĤī ãģªãģĦ
Ġperson ne
Ġæ Ĺ
Ġdu Å¼
Ġf ino
w end
xi co
Ð¸ÑĩÐµÑģÐº Ð°Ñı
ĠÑįÐº Ð¾Ð½Ð¾Ð¼
ĠÑģÐ´ÐµÐ» Ð°ÑĤÑĮ
ĠÐ¿ÑĢÐµÐ´ Ð¿ÑĢ
ĠÐ±ÑĥÐ´ ÑĥÑĤ
ĠÐ± ÐµÐ»
ĠÑģÐ¿Ðµ ÑĨÐ¸
ĠÑģÐ» Ð¾Ð²
ĠÐºÑĢ ÐµÐ´Ð¸ÑĤ
ĠÑĥ ÐºÐ°Ð·
.... ....
Ð½ ÐµÐ³Ð¾
Ð¸Ð» Ð°ÑģÑĮ
ÑĮ Ðµ
cul as
ĠÐºÐ¾ÑĤÐ¾ÑĢ Ð°Ñı
Ġjour n
ÐµÑĢ Ñģ
Ãº p
Ð¸Ð» Ð¾
ĠÐľ Ð¸Ð½
Ġs ol
ãĤ ¼
ĠÑģÑĩ Ð¸ÑĤ
ĠÐŁÑĢ ÐµÐ´
Ġmiejs ce
Ð°Ð² ÑĪ
ï¼ Ķ
Ð¾Ð³ Ð¾Ð²Ð¾ÑĢ
è ħ
Ã¶ ff
Ġï¼ Ĵ
ãģ« è¡Į
Ġdes puÃ©s
ow is
t schaft
Ġs co
å¾ ħ
er ie
Ġnas zy
ĠP R
Ġn ich
z ado
Ġpl an
ĠÃ ĵ
ĠÃ Ĭ
Ġph Ã²ng
Ġãĥ ¯
æ¯ Ķ
k ann
ti en
r Ãł
Ġ äºº
r is
Ġb amb
ÅĤ od
ĠÃ Ĵ
Ġth áº¥y
aj es
Ġpremi Ã¨re
Ġs Ã³lo
Ġm ill
Ġc iÄħ
Ġé ķ·
i ge
ON E
c ere
Ġt emu
ç ¿
Ġju in
Ġcon os
Ġres te
ĠT y
Ġt Ã¢m
rz enia
ĠW eb
b ir
Ã©ra tion
Ġfo i
Ġs enti
ãĤı ãģĳ
Ġwszyst ko
ĠP are
ĠCom o
y d
glÄħ da
Ġå ¸
Ġn ada
R A
ien cia
Ġatti vitÃł
Ã Ħ
áº¯ ng
Ġa fin
ç© º
ĠJahr en
Ġh um
Ġnale Å¼y
Ġg ay
Ġencont rar
ber o
ĠÐ²Ð½ Ð¸Ð¼
ÑģÐº Ð¾Ðµ
Ñħ ÑĢÐ°Ð½
ĠÑģ Ð¾Ð´ÐµÑĢÐ¶
ĠÐ¿ Ð¾Ð¶
Ð½Ð°Ðº Ð¾
Ð¸Ð² ÑĪ
ĠÐºÐ¾ÑĤÐ¾ÑĢ ÑĭÑħ
ĠÐ´ÑĢÑĥÐ³ Ð¸Ñħ
ĠÑĤ ÑĥÑĢ
Ġse ma
Ð°ÑĤ ÐµÐ»ÐµÐ¹
ĠÑģÐº Ð¾ÑĢ
ÑĥÐ´ Ð°
Ġw en
ĠÐ¿ÑĢ ÐµÐ¿
la ce
ĠÐ· Ð°Ð³
Ġdz iaÅĤa
ĠÑĢÑĥÐ± Ð»ÐµÐ¹
ĠÐ½ Ð°Ð²
Ġt om
Ġe k
ĠÐ²Ñĭ Ð±Ð¾ÑĢ
ĠÑĦÐ¾ÑĤ Ð¾
ãĥĹ ãĥŃ
ĠÐ· Ð°ÑĤ
Ġg Ã¬
ĠÐ¿ÑĢÐµÐ´ Ð»Ð¾Ð¶
c ont
la gen
in er
Ġar ty
es sa
Ġes paÃ±
Ġl iv
Ġby ÅĤa
b ild
Ġpre cio
f te
ãģ£ãģ¦ ãģĦãģ¾ãģĻ
Ġfil m
Ġtrav Ã©s
Ġris ul
Ġdes cription
ti Ã¨re
Ġch á»§
ĠA uch
Ã´ le
Ġprze ci
ĠT est
or to
æĸ¹ æ³ķ
Ġj un
Ġsta r
un ci
el s
Ġng o
ĠU omo
Ġa zien
b G
Ġc y
Ġo ltre
ãģĶãģĸ ãģĦãģ¾ãģĻ
å¯¾ å¿ľ
c ki
ÃŃcul o
æ ļ
2 9
Ġspo t
ĠÃ© conom
ĠW a
ues ta
ent Ã³w
v al
Ġn ivel
I i
ĠO p
ãĤ¢ ãĥ«
ÅĦst wa
Ã¤ re
an vier
rit to
.. .
Ġa ni
Ġãĥ ĵ
Ġsch ne
ç© į
Ġinter ne
ve z
Ġ03 9
Ġto Ãłn
Ġll am
ĠCom e
ĠI hnen
æµ ģ
us a
al d
8 8
rz u
Ġn un
ÐµÐ½ Ð½Ð°Ñı
Ð» Ð¸Ð½
ĠÑģ ÑĥÑīÐµÑģÑĤÐ²
ÐµÐº ÑģÑĤ
ĠÐ´ Ð¾ÑģÑĤÐ°Ð²
Ð¸Ð¼ Ð¾ÑģÑĤÐ¸
Ð¸ÑĨ Ñĭ
ÐµÑĢ Ñħ
Ð¾Ð± ÑĢÐ°Ð·
Ð ¦
7 0
ÐºÐ¸ Ñħ
ĠÐ² Ð¾Ñģ
ĠÐ¸ Ð´
ab les
ĠÑģ ÐµÐ³Ð¾Ð´Ð½Ñı
h ol
ĠÐ´ ÐµÑĢ
Ġè ©
Ġo ggi
ĠÑĦ Ð¸Ð½
Ġpi Ã¨
Ġ ãģĻ
Ġb áº£o
ÅĤ Ã³w
ri ng
! !
Ġf emme
na tion
ujÄħ ce
ĠÑģÐ°Ð¹ÑĤ Ðµ
ĠF ran
ãģĹãģ¾ ãģĨ
Ð°Ð» Ð°ÑģÑĮ
ãģĵãģ¨ ãĤĤ
ÑģÑĤÑĢÑĥ Ðº
va to
Ð°Ð± Ð¾Ñĩ
ĠÐ½ ÐµÐ²
Ġdal le
se z
ĠÂ ¸
Ġh iá»ĩu
Ġse Ã±
Ġw id
å¢ Ĺ
mit tel
jÄĻ cia
tic olo
Ġvo cÃª
Ġvol ta
Ġf ile
c ture
Ġthá» ĭ
si ca
ma ty
æ° ĳ
b u
ĠAnge bo
Ġp is
ĠW eit
Ġcon tin
ĠB l
ku je
åº ĥ
ra Å¼
Ġele kt
ech a
r il
Ġ6 0
ãĤ¤ ãĤ¹
ĠB au
Ġp le
Ġque lla
Ġth iáº¿t
Ã¼ t
pod ar
Ġs ouv
ĠDies e
Ġk os
Ġgior no
ä¼ Ŀ
Ġo tras
Ġn ar
æ ·
Ġh á»Ļi
9 0
Ġgior ni
s el
Ġor a
Ġè ¡
k cji
Ġmom ent
Ãº s
Ġsc ar
Ġpod czas
å¹´ 0
ãģª ãģŁ
i es
ä¿ ®
Ġtiáº¿ p
ĠÐł Ð¤
ĠÐ¿Ð¾Ð´ Ð´ÐµÑĢÐ¶
ĠÐ¼ Ð¾Ð¼
ĠÐ² Ð°Ð¶
ĠÐ¼ Ð¼
ĠÐ´ÐµÑĤ ÐµÐ¹
ÐºÐ¾Ð² Ð¾Ð´
Ġ3 5
ĠÐĶ Ð¶
ĠÐ¼ Ð¾
ãģŁ ãĤĬ
ĠÐ²Ñģ ÐµÐ¼
ĠÐ²Ðº Ð»ÑİÑĩ
Ġa ng
Ð¾ÑĢ Ð¸Ñı
ĠBar celona
Ġs ali
ĠG ran
ĠÐ¾Ð±ÐµÑģÐ¿ ÐµÑĩ
ä¾ ¿
ĠU r
ĠÐ² ÐµÑī
g ent
Ġi r
Ġes a
æĮģ ãģ¡
ãģĻãĤĭ ãģ¨
ÐµÑĢ ÐµÐ´
Ġeff et
Ġa unque
Ġzw ischen
ĠÑĨ ÐµÐ»
Ġt or
ĠãģĿ ãģĨ
ĠÐ¼ Ð»
ĠÐ» Ð¸Ñĩ
Ġ20 20
Ġs ÅĤu
Ġpor te
Ġprzypad ku
Ġ ï¾
ä¿ Ĥ
s u
Ġtá» ķ
Ð¸ÑĨ Ð°
ces si
ĠTa g
ĠÐ´Ð¾ÑģÑĤ ÑĥÐ¿
ĠD od
ł Ķ
Ġv en
Ġal so
om oÅĽci
ĠB uch
Ġc Ã´
ä¾ ĭ
ĠMil ano
Ġini zia
Ġje ÅĽli
ĠW elt
Ġ @
Ġc ali
Ġpossi bile
ãģ¹ ãģ¦
Ġprodu it
Ġan te
Ġp age
Ġtech ni
Ġe fec
Ġczy li
Ġmet tre
Ġlo áº¡i
ĠB as
ce ption
l ub
Ġap ro
se ur
Ġcz erw
Ġqu ali
ãĤ¯ ãĥĪ
d s
C H
Ġroz po
ãģ«ãĤĪ ãģ£ãģ¦
Ġv ic
ĠUnter nehmen
Ġp al
un i
wi r
Ġt áº¿
Ġe di
un es
wy k
Ġna tion
ãģ µ
is en
Ġâ Ĩ
Ļ çľŁ
Ġf unk
Ġh ombre
Ġtr ad
ĠÐ²Ð¾Ð· Ð´
ĠÐ¿Ð¾Ð»ÑĮÐ· Ð¾Ð²
ĠÐ²ÑĭÐ¿ Ð¾Ð»Ð½
Ð¾Ð»Ð½ Ð¸ÑĤÐµÐ»ÑĮ
ĠÑĢ Ð°ÑģÑĤ
ĠÐľ Ð°ÑĢ
Ð¾Ð² Ð¾Ð³Ð¾
ĠÐ¸Ð½ Ð´
ĠÑĤ ÑĢÑĥÐ´
ĠÐ½Ð°Ð» Ð¸Ñĩ
Ġg odzin
ĠÐ³ Ð¾Ð»
ãĥķ ãĥ¬
Ġï¼ģ ï¼ģ
èĩª åĪĨ
Ð°ÑĢÐ¸ Ð°Ð½ÑĤ
r ado
Ġs en
Ġw ol
ĠÄĳ Æ°á»Ŀng
è ¢
Ġal cun
Ġ3 1
ill er
Ð¾Ñĩ ÐºÐ¸
Ð»Ñİ Ð´
dz iel
ãĥķãĤ© ãĥ¼ãĥł
Ġçī ¹
Ġin v
Ġsu iv
Ġm ise
ĠM ont
ĠAve c
ni cy
ĠB a
ĠÐ» Ð¸Ð±Ð¾
Ġcor re
åĳ Ĭ
in nen
tiv es
cz ego
sz Äħ
ĠsÃ© cur
Ð¾Ð³Ð» Ð°Ñģ
ĠS ti
Ġf az
Ġa li
Ð°Ð· Ð´
s am
cto bre
æ¬ ¡
ĠÑĢÐ°Ð· Ð¼ÐµÑĢ
re chen
A U
Ð¾Ð¼ Ðµ
ĠÄĳ á»ĳi
is ce
å¿ µ
Ġc ier
ĠJa hre
ĠÐ¼ÐµÐ¶Ð´ Ñĥ
ka ÅĦ
es i
Ġann Ã©es
yste m
ant Ã©
tem bre
ãĥ¼ãĤ ³
ãĤ¤ ãĥ¤
ĠdÃ© f
Ġun os
Ġou ver
ĠâĢ ļ
Ġãĥ¬ ãĥĩãĤ£ãĥ¼ãĤ¹
ï½Ĺ ï½Ĺ
Ġèĩª åĪĨ
ard in
ĠL E
ĠD el
par t
j es
nÄĻ trz
h me
2 3
Ã¡ ri
Ġãģ ¡
ãĥ¼ãĤ· ãĥ§ãĥ³
ĠÃ ģ
Ġre cen
Ġko rzy
Ġb Ã¡n
at s
Ġf ra
ci ta
Ġt á»ĳt
Ġæ Ī
ÅĤÄħ cz
st and
ĠãĤ Ī
ien e
Ð°ÑĤ ÑĥÑĢ
ĠÐ½ Ð¾ÑĢÐ¼
ĠÐ¿Ð» Ð°ÑĤ
ĠÐ² ÐµÑģ
ĠÑģÐ¿Ðµ ÑĨÐ¸Ð°Ð»ÑĮ
ĠÐ¿ÑĢÐ¾Ð² Ð¾Ð´
ĠÑģÐ¿ Ð¾ÑĢÑĤ
Ġm ÄĻ
ĠÐ¿ÑĢÐ¾Ð² ÐµÐ´
k owa
± ãģĦ
ĠBe wert
ĠAr tikel
Ġde utsch
ç ģ
Ġm iÄĻdzy
Ġde be
Ġricer ca
Ã© li
sch utz
ĠÑĤ Ð¸Ð¿
Ġer st
Ġparti col
ski m
Ã ¥
ĠÂ ¾
Ġt Ã¬nh
Ġsoci Ã©tÃ©
ĠÐ½ÐµÐ¾Ð±ÑħÐ¾Ð´Ð¸Ð¼ Ð¾
Ġå Ģ
Ġd onna
Ġat tra
ĠÑĢÐµÐ± ÐµÐ½
ÑĢ Ð¸Ð¼ÐµÑĢ
Ġe llos
ãģ¿ ãģŁãģĦ
åĦ ª
in k
t Äħ
ĠK Ã¼
ille urs
ĠÐ¿ Ð¾ÑģÑĤÐ°Ð²
Ð¾ÑĢ Ñĭ
Ġdies es
ĠÐ¶ÐµÐ½ Ñī
Ñĳ Ð½
è į
Ġpro gra
ĠCh aussures
ma tion
Ġt able
Ã© b
f re
m and
Ġ ä½ķ
ĠV ideo
Ġc ara
ĠFo tos
ic os
Æ Ĵ
uyá» ĥn
ĠJe ÅĽli
ato ri
Ġg an
åĸ ¶
ra ge
ĠCh am
ãģ ¥
li ce
is on
Ġc alidad
ĠA ng
ĠÐ²ÑĢÐµÐ¼ ÐµÐ½Ð¸
at ro
âĢ ĭ
èµ ·
w od
Ġl ung
Ġt iá»ģn
Ġber eits
Ġdes e
ĠÑĥ ÑģÐ¿
Ġ3 3
s es
Ð°Ð½ Ð¸Ñİ
é Ń
ow n
Ġe ben
u p
te z
Ġt Ã¡c
Ġbar dziej
TI ON
ier re
ãĥ³ãĤ Ń
ãģ« éĸ¢
Ġfoll ando
Ġ\ /
Ã³ mi
ĠB eit
ĠK unden
Ġen semble
Ġl etz
Ð¸Ð» Ð¾ÑģÑĮ
A T
g ÄĻ
Ġf ond
ĠÐ³ Ð°ÑĢ
ÐµÑĢ Ð½
Ġt em
Ġc ost
Ġda bei
è³ ¼åħ¥
Ð² Ð¸Ð¶
Ġp osz
rie ur
Ġan dere
on as
ĠÑģÐ»ÐµÐ´ ÑĥÑİÑī
ãģ®å ł´
Ġc áº§u
Ã§ on
Ġl is
Ġposs ono
ĠÐ´ Ð¾Ð²
Ġhor as
Ġpotrze b
id ente
Ġ4 5
ĠÑģÐµÐ± Ðµ
Ġgratu it
ãĥĸ ãĥ«
Ġcon stru
ĠP ow
ĠczÄĻ ÅĽci
e d
ĠãĤ± ãĥ¼ãĤ¹
æľ Ľ
s atz
Ð¾ÑĤ Ñĭ
ĠÑĩÐµÐ»Ð¾Ð²ÐµÐº Ð°
ä¸ĩ åĨĨ
Ġç ¾
ãĤĤãģĹ ãĤĮ
Ġwur den
ĠÐ½ ÐµÐ±
Ġv uel
Ġni veau
w al
Ġåľ Ł
á»Ń a
f on
Ġsty le
éĻ ¤
Ġri en
ĠÐ² ÑģÑĤÑĢ
Ġty pe
åľ Ĵ
Ġc oÅĽ
Ġsecon do
ĠÐ¸Ð· Ð²ÐµÑģÑĤ
Ġte mat
chet er
c ÃŃa
Ġques tion
C Z
Ġzro bi
èŃ °
Ġvá» ĭ
adz ie
m Ã¡
Ġtr ouver
dad e
gen ce
Ġg ente
Ġes pa
t ung
re k
Ġho tel
Ð¾Ð¿ Ð°Ñģ
ĠAc c
pp en
Ġc oule
áº¡ c
ch ar
ãĥģ ãĥ£
co le
Ð»Ñı ÑĤÑĮ
Ġprzy go
ÑĢ Ð°Ð¶
ud as
v os
Ġlie u
Ġqu ale
ĠB undes
Ã© c
ĠÐ¶ Ð¸Ð·Ð½
éĢ Ł
Ġestu di
f Ã¼r
ĠG io
ĠÐ³ Ð°Ð·
rÃ³ Å¼
ar ie
Ġs ei
Ġhtt ps
Ġsh ort
Ġrap ide
ĠÐ²Ð½ ÑĥÑĤÑĢ
6 6
Ġt ÃŃnh
ves tig
ÑĥÑĤ Ð±
Ã©r ence
Ġc m
ĠÐ´Ð¾Ð¼ Ð°
ĠA ber
Ġcuis ine
Ġæľ Ī
Ġlas sen
ĠÐºÐ¾Ð½ ÑĤ
ĠR i
t our
cor so
æĶ ¯
an ol
Ġt ar
ĠÑģÐ¾Ð² ÐµÑĢÑĪ
k un
Ġæ īĭ
ggi ung
ten ir
ow ana
ĠF rei
ÑģÑĤ ÑĢÐ¾
Ġwym a
g ado
Ġ, .
å° Ĥ
Ġt áº¡o
ĠP ubli
Ġperson a
Ġwar en
è¦ ³
ĠÑģÐ» Ð¾Ð¶
ĠP la
un a
Ġb r
Ġpr endre
Ġwszyst kich
ĠÐļÑĢ Ð°Ñģ
Ð¡ Ð
ĠÐ³ÑĢ Ð°Ð¶Ð´Ð°Ð½
Ġs Ã£o
Ġam or
ĠÐºÐ°Ð· Ð¸Ð½Ð¾
Ġs istema
ĠÐŁ ÐµÑĤ
ĠM er
ÑĥÑĤ ÑģÑĤÐ²
ang er
to p
ĠÐ¢ ÑĢ
ve mbre
Ġna pis
å¤ļ ãģı
Ġc ou
Ã¤t z
ci l
ĠPol s
Ì ī
Ġna y
Ġl ist
ron a
Ġprofession nel
ĠÐ¿Ð¾Ð·Ð² Ð¾Ð»Ñı
ĠB on
ow anych
e x
d nia
ĠWas ser
at h
Ð°Ðº Ð¾Ð²
Ġs our
ta zione
Ã©n Ã©
Ġle p
er on
Ð°Ð¹ Ð´
ĠrÃ©s ul
Ġu omo
ĠÐ¸Ð· Ð±
ron i
Ġæ ķ
Ð² ÐµÑĢÐ¶
Ġequi po
Ġdem ande
Ġkil ka
ten er
Ġmi li
ĠÑĢÑĭ Ð½
è ¬
Ġ Þ
Â »
ĠÄ ĥn
ĠH ier
Ġf ais
ĠM in
ĠÐ¿ÑĢ Ð¸Ñģ
ãĤī ãĤĮãģ¦
Ġfil es
Ġservi ces
ĠS eite
Ġesta ble
ĠT out
4 5
ĠÐ¼ Ð°ÑģÑģ
z w
Ð¾Ð» ÐµÐ²
ĠÄĳ o
ien s
Ġp ie
ĠBer lin
Ð¸ Ð»Ñı
Ã¼ tz
èĸ ¬
Ġcam bi
ab ri
ĠÐ´ Ð¾Ð±Ð°Ð²
ãĤµ ãĤ¤ãĤº
Ġï½ ľ
Ġæ ¯
Ġch ia
fahr en
ce mbre
Ð½ ÐµÐ¼
ĠéĢ ļ
mer o
k anie
ĠktÃ³ rzy
d lich
Ġsi gui
Ġte xt
ãĥ¼ãĥ ģ
Ġb áº£n
ĠÐ¾ÑĤÐºÑĢ ÑĭÑĤ
Ġest as
Ġb en
Ġre mp
pa gne
gl Äħd
ĠÑģÑĤ Ð°Ð²
ĠÐ¸Ð¼Ðµ ÐµÑĤ
Ġw al
ÄĻ zy
æŃ ¢
i mento
cion ales
ĠÑģÑĤ Ð°Ð½
Ġexp Ã©ri
Ġde llo
c Ã©d
å¹ ³
te les
ĠnÃ© ces
Ġoff er
inh a
ĠÑģÑĢÐµÐ´ ÑģÑĤÐ²
Ġall er
ĠÐ¿ÑĢÐµÐ´ Ð¾ÑģÑĤÐ°Ð²
ĠC i
åĲĪ ãĤıãģĽ
Ġhab ÃŃa
Ġd osta
Ġpo tre
t ku
Ġb esch
el h
li Ã¨re
g in
ãģĪ ãģ°
ÑĢ Ñĭ
ãĤĴ ãģĬ
Ġãĥ į
ÑĢ Ð°Ð´
Ġãĥ ľ
ĠÃ´ ng
Ġk ont
ten ant
am t
ĠãĤ¹ ãĥ¼ãĥĳ
le it
Ġo pp
¡ å¸ĥ
æĽ ´
ĠÑģÐ² ÐµÑĤ
ãĤ³ ãĥ³
ĠG o
Ġs elon
si ma
Ġson dern
Äħ ce
Ġä¸ Ĭ
en cias
ÑĤÐ¾ Ñĩ
tra g
Ġj anvier
I O
amb Ã©m
io re
å ¦
ĠÐ¸Ð³ÑĢ Ñĭ
Ġe ing
Ġcho ix
fi ka
it h
ca use
Ġ200 9
Ġe u
A M
ĠN ue
Ð»ÐµÐ½ Ð¾
Ġr ÄĻ
Ð°ÑĢ Ð°
Ġe conom
Ġsoll te
Ġç ·
v Ã©e
ww w
li ka
èĲ ½
æ £
âĢĭ âĢĭ
ÑģÑĤÐ² Ðµ
Ġp osta
Ã ļ
Ġhá» ĩ
Ġãģ ł
ita l
Ã¤n der
olu tion
Ð¾Ð² ÑĭÐ¹
re a
Ġå¥ ³
é¡ ĺ
ier s
ĠÑĦ ÑĥÐ½Ðº
m l
ie m
Ġbe cause
Ġpo int
Ñĩ Ð¸Ðº
Ġf ine
ĠÐ¾ ÑĨÐµÐ½
N E
Ġmie ux
èĢĥ ãģĪ
Ġinter es
un cios
Ġe ng
ĠX xx
Ġme dio
ÐµÐ½ Ð½Ð¾ÑģÑĤÐ¸
â ĺ
ĠÐ»ÑİÐ´ ÐµÐ¹
á» ģn
Ġcos as
va tion
Ġstron y
Ġh u
Ġcol le
b ung
Ġæ Ħ
Ġfun ction
al ny
f ern
ĠCh a
d Ã¬
Ãĵ N
Ġh ombres
åŃ ĺ
ä¹ Ĺ
Ġn p
Ġque d
Ġg ros
Ġra gaz
ä½ İ
ÐµÐ» Ð°
Ġcit tÃł
Ð½ Ñİ
Ġz ei
Ġj am
ĠktÃ³r ym
Ðŀ ÐĴ
ĠÐ¡ Ð¾Ð²
it te
u ÃŁ
ut es
ĠÐ¼Ð¸Ð½ ÑĥÑĤ
Ġ. .
Ġs ino
e ll
2 7
Ðº Ð¸Ðµ
Ġpo le
è± ¡
im mer
al en
Ġp elo
olo gie
Ġdom u
Ġna tur
ĠC an
ÑĭÐ² Ð°ÐµÑĤÑģÑı
ĠF il
Ġf Ã©v
ta ur
» Ĵ
Ã¬ m
Ġdob rze
Ð¸ Ð¾Ð´
Ġç ı¾
Ġgr oupe
ĠÐ¿ÑĢÐ¾Ð´ ÑĥÐºÑĤ
ĠÐ¾ÑĤ Ð´ÐµÐ»
at ter
ĠJ an
Ñĳ Ð¼
owiÄħ z
Ġda tos
st ra
is me
b ia
Ġa f
ãĤ¸ ãĥ£
ĠÐ¾ Ð·
Ġer sten
ĠS k
ĠT wo
æĸ Ń
sz ego
Ġempres a
Ġnuo va
Ġqu áº£
r ada
lÃ© ment
re dni
or ia
Ġaus ge
çİ ĩ
ĠM ujer
ci endo
Ġp ens
Ġgi Ãºp
Ġjak i
ĠÐ± ÐµÑĢ
ãģª ãĤĭ
ĠmÃ¼s sen
ĠÐŁÑĢ Ð¾
Ġp ÅĤy
c ciones
Ġpossi ble
Ðº Ð»ÑİÑĩ
Ġk las
ĠÐ² Ð°ÑĢÐ¸Ð°Ð½ÑĤ
Ġra c
ãĤ± ãĥ¼ãĤ¹
ab ile
ãĤı ãĤĬ
Ġd ise
Ġp ost
ĠÐĳ ÐµÐ»
tÃ© e
ĠÐ¿Ð¾Ð» Ð¾Ð¶
Ġo czy
ãĥ³ãĥ Ĳ
ĠSp e
w u
ĠM Ã¡s
Ġ ãģĭ
Ġhá» ĵ
ĠÃ Ħ
Ġques ti
Ġi phone
ãĤ Ĩ
Ġsal le
ues to
ĠÑģ ÐµÐ¹ÑĩÐ°Ñģ
Ġpro gram
ä¼ ĳ
ãģķãĤĮãģ¦ ãģĦãĤĭ
ĠÐ· ÐµÐ¼
Ã¢ ce
Ġoff re
Ġm iaÅĤ
b r
Ġth Ã¡ng
ĠkÃ¶n n
ĠÐ³Ð¾ÑģÑĥÐ´Ð°ÑĢ ÑģÑĤÐ²ÐµÐ½
ĠZa pa
ãģ¨æĢĿ ãģĨ
oles c
Ġespe cial
ãģ ŀ
ĠÐ± Ð¸Ð·Ð½ÐµÑģ
ÐµÑĢ Ð²
Ġm ob
ãĥ ´
Ġc ad
gra f
ÑģÐ¿ Ð¾ÑĢÑĤ
vi ent
le m
qu il
ĠÑģ ÐµÑĤ
Ġwy korzy
ĠM Ã©
Ġser Ã¡
ĠÐ°Ð² ÑĤ
ãģł ãĤįãģĨ
Ġm ode
Ġtr ouv
åĢ į
ÑģÑĤ ÑĥÐ¿
h b
st ÄĻp
ãĤµ ãĥ¼ãĥĵãĤ¹
te llt
at ri
li co
Ġ200 8
ç ±
Ġdro it
Ġeje mp
Æ° u
ĠÑģÐ¾Ð² ÑĢÐµÐ¼
an co
i zione
dz a
Ġderni er
Ġzur Ã¼ck
ĠÑģÐ¸ÑģÑĤÐµÐ¼ Ñĭ
Ġmui to
Ã©r er
te g
Ġv ente
ä¸į åı¯
Ġp endant
ĠÑģÐ²Ð¾ ÐµÐ¹
Ġma ggio
ãĥ¼ãĤ Ń
ĠwÅĤa ÅĽci
Ġa gua
è¦ §
Å¼ u
to ry
t ÄĻ
ãģ«ãģª ãģ£ãģŁ
ĠÑĥ Ñģ
Ġph áº§n
Ġda ti
k lich
ãĤ± ãĥĥãĥĪ
vil u
) )
Ð»Ñı ÑİÑĤÑģÑı
Ġf ol
in iones
ĠConta ctos
Ġde p
il der
ãģ®æ ĻĤ
ĠÃ© ch
hl t
or u
Ġden n
Ġkom mt
ãĥ¼ãĥ ĩ
ĠÑĤ Ð¾Ð¶Ðµ
ĠÐº Ð¾Ð¶
ĠÐ½Ð°Ð´ Ð¾
ĠrÃ©g ion
ĠÐº Ð°Ð¿
u ali
ĠM Ã¤
Ġfun cion
Ðł ÐĲ
Ð°Ð»ÑĮ Ð½Ð¾Ðµ
ver so
p ol
Ġåī į
ĠÑĢ ÑĥÐº
Ġå Ĭ
ind ow
Ġwy d
ãĤ¿ãĤ¤ ãĥĹ
ĠåĽ ½
us ch
Ð¿Ð¾Ð» Ð¾Ð¶
di ca
i om
Ġinforma tions
Ġkom men
ãĥ Ĵ
Ġver dad
le ge
ĠÄĳ áº¹p
Ġo ctobre
ob y
ãģ ģ
2 6
utsch ein
Ġka ufen
ĠN i
ãĥķ ãĤ§
or ts
ĠÐ´ Ð¾Ð³Ð¾Ð²Ð¾ÑĢ
Ġv iene
ÑĢ Ð¾Ð¼
Ġph ÃŃ
ĠMe hr
cuer do
am e
ÐµÑĩ Ð½Ð¾
od za
ka uf
onne ment
ÑĮ ÑİÑĤ
g te
I T
ĠrÃ© ser
åŁ º
Ġt ambÃ©m
and a
ĠÐĴ Ð°ÑĪ
ĠJ est
ĠÐ½ÐµÐº Ð¾ÑĤÐ¾ÑĢ
Ġznaj d
ãģ® ãĤĤ
ĠÂ º
ĠÄĳ iá»ĩn
Ġs ÃŃ
ãĤĴæĮ ģ
Ġpou voir
zza to
ma to
Ġpar f
z as
Ġlin k
å¼ķ ãģį
Ġm em
Ð¸ÑģÑĤÑĢÐ° ÑĨÐ¸Ð¸
ĠB i
ĠÐĺÐ½ ÑĤÐµÑĢ
Ġza pe
ent as
Ġre f
Ġå ĭ
et er
ĠÐ¡ ÐºÐ°ÑĩÐ°ÑĤÑĮ
ĠÐŁÑĢ Ð¾Ð´
ĠÑį Ð½
Ġsk ÅĤad
å® ³
ĠÃ Ń
Ġhis toire
ck t
kow y
Ġcono cer
Ð Ń
Ð¸ ÑĨÐ¸Ð°Ð»ÑĮ
Ġes c
ãĥ¬ ãĥĵ
Ġann on
cze ÅĦ
Ġd in
ĠÃ ¶
Ġen d
s ty
ĠÑĢ Ð°Ð½
Ġãĥ¡ ãĥ³ãĤº
ãģŁãĤģ ãģ«
b ol
Ġpubb lica
9 5
le ÅĦ
Ġmill ones
Ñĩ ÐµÑĤ
Ġczas u
ĠÑĢ ÐµÐ¶
á»Ļ ng
Ġuti lizza
ĠÐ¡ Ð²
ĠÐ¼ÐµÑģÑĤ Ð¾
un kt
p ond
Ġapp el
szta ÅĤ
tu a
w s
is piel
ĠE L
Ġa que
ĠJe d
Ð² Ð°ÑĤ
o le
m us
åī ²
ĠÐ¸Ð¼ ÐµÐ½Ð½Ð¾
Ġfiles _
te au
Ġk siÄħÅ¼
Ġes ti
Ġinforma zioni
Ġo trzym
ĠAl le
wer k
ĠÑĤÐ°Ðº Ð¾Ð¹
ĠÐºÐ²Ð°ÑĢÑĤ Ð¸ÑĢ
Ġd á»ĭch
stell ung
ãģĳ ãĤĮãģ°
ĠÐŀ ÑĢ
Ġter az
os podar
Ġto tal
kun ft
Ġsc on
ĠÐ¿ÑĢ Ð¸Ð´
Ġv eces
ĠÐ³Ð¾ÑĢÐ¾Ð´ Ð°
Ã¤ u
rz o
Ġzaw sze
Ġp ela
Ġsep tembre
Ġjam ais
Ġ3 4
è© ¦
Ð¸Ð»ÑĮ Ð½Ð¾
ĠP i
ca le
WW W
an Äħ
ĠåĲ Į
ĠC Ã´ng
Ġrze czy
Ġc ur
s etz
Ġas soci
Ġå® ¶
Ġpor n
ĠÐ¿ Ð¾ÑĤÑĢÐµÐ±
Ġn or
Ð¸ÑĢÐ¾Ð²Ð°Ð½ Ð¸Ñı
æĤ ª
Ġtá» Ľi
ĠcÃ³ mo
Ġi f
ãĤĴæ İ
ĠÐ°Ð² ÑĤÐ¾ÑĢ
Ġa demÃ¡s
Ð¾Ð´ Ðµ
ma ch
Ð°ÑĢ Ð¾Ð²
il es
Ġh as
ãĤ¹ ãĤ¯
Ġhe ute
Ġvrai ment
æĿ ¿
Ġv endre
Ġeff ec
ÐµÐ½ ÐµÑĢ
va re
Å¼e li
Ġä» £
Ġb ois
Ġan ci
é«ĺ ãģĦ
Ġch á»©c
ĠÑģÑĤÐ¾ Ð¸ÑĤ
Ġv enta
Ġdi jo
Ġr odzin
ent re
Ġpre cios
ÑĨÐ¸ ÐµÐ¹
ĠE UR
h Ã¤lt
Ġtrab al
æ¥½ ãģĹ
Ġdonn Ã©es
ĠC ON
Ġesta do
gÅĤ osz
es ti
ar t
et t
3 3
Ġun i
Ð¸ÑĤ Ñĭ
ni os
ĠãĤ ¬
lie ÃŁ
ÐµÐ¼ Ð°
Ð¸ ÐµÐ²
ÐµÑĪ ÑĮ
ĠÑĤÐµÑĢ ÑĢÐ¸ÑĤ
Ġo t
ç´ ļ
Ġl Ã©g
ÐµÐ½ Ð½ÑĭÐ¼
Ã¼r lich
Ġdz iÄĻki
è²© å£²
ä»ķ äºĭ
Ġth Æ°á»Ŀng
tis ch
Ġl ine
ãĥĥãĤ· ãĥ¥
ÑĥÐ¶ Ð´
Ġer ste
Ġdo p
ãģ«ãĤĪ ãĤĭ
Ġt al
Ð¼ Ð¾ÑĤ
vo le
ĠÐ²Ð¸Ð´Ðµ Ð¾
ĠuÅ¼y tkow
Ġalgun os
ĠÐ¿ÑĢÐ¾Ð² ÐµÑĢ
ĠNo ir
Ġcom men
ĠÑģÐ²Ð¾ Ñİ
ĠG ro
Ġpoz iom
æ¼ Ķ
Ġver schieden
Ġst esso
ĠÅ¼e by
åħ ±
ĠÐ¿ÑĢ Ð¾Ñĩ
Ġzak res
Ġkre dy
Ġes cu
cas ion
w il
ĠÐ² Ð¾ÑģÐ¿
Ġpod e
oba cz
Ġu wa
in ts
ce d
Ð¾Ð¹ Ð´
Ġme d
Ġne uen
ĠåĮ Ĺ
u ten
ç¨ ĭ
Ġ' ,
Ġpro mo
ĠÑģ Ñĭ
is ation
Ġsk lep
ver o
Ġpo ko
åº «
äº Ĩ
ĠÐ·Ð´ ÐµÑģÑĮ
Ġin for
Ġpop rze
1 00
Ð± Ð°
p ort
Ġal tre
ĠÐ¿Ð¾Ð» Ð¸ÑĤ
æĿ ĳ
Ġfir my
ãģı ãĤĭ
y er
ĠÐĹ Ð°Ðº
ĠÑĢÐµÐ³ Ð¸Ð¾Ð½
r um
f s
Ġæľ ¨
Ġmo je
m io
ãģ£ãģ¦ ãģĦãģŁ
Â ¡Â
Ġkh u
Ġt us
Ġsu b
ĠÐĽ Ñİ
Ġk onn
æŃ ³
o g
7 8
Ġsyst Ã¨me
m F
æĹ¥ ãģ¯
å ´
u chen
Ġtrze ba
ĠÐ¿ÑĢÐµÐ´ Ð»Ð°Ð³
Ġno i
ĠÃ© l
ĠæĻĤ è¨Ī
Ġçµ Ĳ
ĠV ia
, \"
v ento
Ġ ãģ§ãĤĤ
Ġlist _
ĠC H
Ġm Ã³wi
éģ ©
Ġe lles
ĠC al
ĠÐ²Ñĭ Ð³
Ġa gli
Ġmuch os
Ġï¼ Ĩ
ãģĹ ãģªãģĦ
K I
ĠAr t
ÑĦ ÐµÑĢ
Ġce ux
Ð» Ñĭ
gl ie
Ġkom p
Ð°Ð» Ñı
éĽ £
ĠÐ½Ð°Ð· Ð²
Ġhis toria
Ġju illet
und er
Ġob ec
ĠdÃ©velo ppe
ĠÄĳ áº¡i
ĠÐĴ Ð»Ð°Ð´
k ania
ĠT or
ãģĵ ãĤĮ
Ġpoz osta
al nie
ÐµÐ½ Ð½Ð¾Ðµ
an ze
æĸĻ çĲĨ
C E
la is
I G
ĠW iel
Ġnost ra
ter i
Ġapp lica
Ġ. )
Ð½Ð¾ Ñģ
åĭ Ŀ
Ġrep res
Ġ] ,
Ġno ta
ĠF ahr
rÃ© sent
ĠÐ½ ÐµÐ³Ð¾
ĠPols ce
Ġfin al
ĠB uen
Ġimport ante
ĠPro ble
Ġok re
æ ¹
Ð°ÑĢÑĤ Ð°
is tre
Ġå® ī
Ã¡ m
ĠÑĢÐ°Ñģ ÑģÐºÐ°Ð·
ĠN el
Ġpas ado
ĠÑģÐ¾ÑĤ ÑĢÑĥÐ´
ð Ł
Ġå İ
ro m
ĠÐ½Ðµ Ñģ
au l
x te
cz nym
Ġ3 9
ĠCh ar
ĠÐ¿ ÐµÑģ
ĠÐ»ÑĥÑĩÑĪ Ðµ
éĺ ª
å² ¡
å¥³ æĢ§
Ã® tre
ãģ®å Ĳ
ten ciÃ³n
ĠÐ¾Ð±Ð¾ÑĢ ÑĥÐ´
ĠG em
kie go
Ġno vembre
Ð½ ÑĥÑĤÑĮ
Ġp esso
en de
Ġä» ¥
Ġ3 6
Ġpeti te
ka za
ĠF all
Ġna vi
ĠãģĹãģĭ ãģĹ
por te
Ð»Ð¸ Ð·
st wa
ÑģÐº Ðµ
Ġgi áº£i
ĠDam en
ind et
ĠÐºÐ°ÑĩÐµÑģÑĤÐ² Ðµ
end a
Ġcel ui
p rze
ĠÐ²Ñĭ ÑħÐ¾Ð´
Ġsich er
er as
us i
ãģ® äºº
ĠÐ½Ð°ÑģÑĤ Ð¾ÑıÑī
da p
po zy
Ġa quÃŃ
ĠB y
Ġcent re
ĠS am
i fica
ti eren
n es
Ġposi ble
cy d
ĠÐ¼ Ð°Ñģ
ĠÐ·Ð°Ð² Ð¸Ñģ
Ġkon ie
éĺ ²
sch ein
Ġima ge
ĠQu á»ĳc
Ñģ ÑĭÐ»
ĠÐļ Ð¾ÑĢ
Ġs os
Ġhe ure
ĠN r
Ġposi ada
2 8
ÑģÑĤ Ð°Ð½Ð¾Ð²
æ§ ĭ
mo re
as sen
ĠÐ¾Ñģ ÑĥÑīÐµÑģÑĤÐ²
olo re
åį ģ
Ġu rzÄħdz
ĠÃ ¢
ÑĢ Ð°ÑĤÑĮ
Ġbas e
Ġwiel u
Ð° ÑĦ
ĠFo to
ãĤ¦ ãĤ§
ĠSt and
Ġap lica
ci er
Ġho ch
tori o
Ð°ÑĤ ÐµÐ»Ð¸
ĠÃ ĥ
Ã ħ
á»Ł i
p Ã©
ĠÑģ Ð¸ÑĤÑĥ
ĠT er
Ġsz ko
Ġda zu
ÐµÐ½ Ð·
uni cip
Ġmad uras
r ero
ãĤĴ ä½¿
Ġservi cio
ĠÐ²Ð¾Ð·Ð¼Ð¾Ð¶ Ð½Ð¾ÑģÑĤÑĮ
ÅĽ nia
ĠÑģÐ²Ð¾ Ð¸
Ġv endita
ĠN ero
A CI
Ġcom er
ĠwÅĤa ÅĽnie
Ġãĥ ĭ
ra re
ĠD urch
Ġdes cu
ĠM erci
ĠÅĽ wiad
c ine
ĠÐ´ÐµÐ½ÑĮ Ð³Ð¸
ÑĤ Ñĭ
ç® ¡
ĠIn tern
Ð°ÐºÑģ Ð¸Ð¼
ess age
ĠdÃ© cembre
Ġg a
Ġla ng
ĠãĤ· ãĥ£
Ð°ÑĢ Ð¾Ð´
Ġde f
ãĥ¼ãĥ ª
ĠÐ´Ð² ÑĥÑħ
ĠDz ie
ci ales
ĠG l
Ġprz es
ct ura
åį Ĭ
Ġbes ten
ĠÐ¿ÑĢ ÑıÐ¼
ry wa
ĠÃł s
Ġsi ng
Ġk áº¿
Ġsu i
ĠSch ul
Ġus o
åī ¤
ãĥ³ãĤ µ
Ð»ÐµÐ½ Ð¸Ð¸
æĶ ¾
Ġm eine
Ġwe il
Ġk r
Ġhab ita
Ġre tr
Ð°Ð¶ Ð°
Ġsu p
ĠÐĿ Ð°Ð¿
Ġprac ow
Ġkon ta
Ð¸ÑĢÐ¾Ð²Ð°Ð½ Ð¸Ðµ
Ġï¼ ħ
ĠæĿ± äº¬
ãĥ¼ãĥ ķ
n isse
Ġprofes ion
ĠÐ¾ ÑģÑĤÐ°Ð²
ĠÅĽ wie
Ġâĺ Ĩ
Ġãĥķ ãĤ¡
Ã± as
ite z
Ġas p
Ġb á»ĩnh
ĠB ere
Ð¸ÑģÑĤ ÑĢ
ãģ«ãģª ãĤĬãģ¾ãģĻ
te ll
ind a
Ġj o
ĠÐ¿ÑĢÐ¾ÑĦÐµÑģÑģ Ð¸Ð¾Ð½
Ġm Ã¡
Ġd rei
ĠÐ¼ Ð¾Ð»
Ġl it
ĠFo ll
ab or
Ġuti li
ĠÑĢÐ¾ÑģÑģ Ð¸Ð¹
ĠÐ» ÐµÑĩ
ÐµÐ» Ð¸Ðº
jour d
ci Äĩ
Ġservi zio
ãĥģ ãĤ§
Ġ _
ãģ«ãĤĪ ãĤĬ
b ud
Ġho áº·c
c ono
ĠR Ã¼ck
ĠÐ½ ÐµÐ·
Ġvo yage
wa re
Ġna t
ç ĭ
Ġservi cios
kl Ã¤r
b 3
Ġpon ad
ĠÐ¿Ð» Ð¾Ñī
b as
ĠÐ´Ð² Ð°
ãĥ¼ãĥ Ĭ
Ġe lla
Ġein z
Ġsie bie
ĠçĶ Ł
i os
ĠÐ¿Ð¾Ð² ÑĭÑĪ
Ð»Ñı Ð´
Ġni Ã±os
Ġcon si
ĠÐ¾Ð± ÑĢÐ°ÑĤ
Y X
k ro
Ġå £
èŃ ĺ
Ð¾ÑģÑĤ Ð¾
ĠÑĤÐ¾ÑĢ Ð³
Ġspiel en
na hme
i ti
ĠdÃ© ta
za Ã§Ã£o
ĠÐŁÑĢ Ð°Ð²
ica tion
Ġi gu
Ġsy tua
ĠÐĿ Ð¸Ðº
Ġfor me
çŃ ĸ
an den
al noÅĽci
y ba
ãģ®è ©
Ġseg ur
i Äĩ
Ġv Ã©
ĠÐ¤ ÐµÐ´ÐµÑĢ
é º
un ta
Ġdies en
Ġro bi
ãģ¦ ãģĦãĤĭ
c in
ĠÑģÑĤÑĢÐ¾ Ð¸ÑĤÐµÐ»ÑĮ
gen es
ĠÑĪÐº Ð¾Ð»
ĠA ll
Ġï¼ İ
Ð°ÐµÑĤ Ðµ
åĮ Ĺ
Ġal bo
le u
Ġv idÃ©
Ġcomp ar
ĠÐ´ Ð°
sp iel
ĠM od
Ã¼n s
ĠÃ Ī
ãĤĩ ãģ£ãģ¨
ĠãĤ ´
Ã¤hr end
Ġj Ã¡
ĠÑĥÐ´ Ð¾Ð±
Ġn ing
ãģŁ ãĤī
Ġprodu ctos
Ġed u
ĠÑĢÐ°Ð· Ð¼
Ġau jourd
å Ŀ
Ð°Ð· Ñĥ
æº Ģ
olo gÃŃa
ãģ¯ ãģªãģĦ
an ej
Ð½Ñı Ñı
ĠÐ² Ð¾Ð¹
g Ãºn
äº ķ
Ġrapp ort
Ã¡ri os
Ġ ãģªãĤĵ
æĻĤ è¨Ī
Ġwid th
Ġo tti
t out
Ð°ÑİÑī Ð¸Ñħ
Ġpon ie
Ġabb iamo
Ġgra cias
Ġm io
Ġv in
Ġåľ °
Ġlá»Ľ n
ĠE le
au d
Ġa si
m Ã¤
Ġbeso in
ĠÑĢÑĥ ÐºÐ¾Ð²Ð¾Ð´
ãģ« å¯¾
Ġav ere
an ego
Ġmi ent
ãģı ãĤīãģĦ
Ð¾Ð² Ð°ÑĤÐµÐ»ÑĮ
v ille
ĠPri x
Ġav ril
Ð¼Ð¾ÑĤÑĢ ÐµÑĤÑĮ
ĠrÃ© se
c ce
ĠF in
Ġãĥ Ĭ
ãĤĴ è¡Į
Ð¸ ÐµÐ¹
ion y
Ġz god
ter a
ĠÑįÑĤ Ð¸
ĠInforma tionen
qu oi
Ġfir m
Ġspo ÅĤe
ĠÐ´Ð¾ÑĢ Ð¾Ð³
ĠProdu kt
ĠR is
Ġza wi
æĿ ¡
Ġs vilu
Ġpre gun
do ch
Ġmar gin
Ġa ide
Ġ3 8
ĠÑĤÐµÑħÐ½ Ð¾Ð»Ð¾Ð³
ĠQu Ã©
æ Ĳ
Ð°Ð¹ÑĤ Ð¸
st wo
Ġn Ãº
åıĹ ãģĳ
ĠspÃ© cial
ÐµÑĢ Ð¾
Ġa per
dz ier
ven ir
ãĥ¡ ãĥª
Ġj Äħ
ra gen
Ġä¸ į
ĠÐ´ÑĢÑĥÐ³ Ð¸Ðµ
ven tion
m ina
b ier
ma tique
r Ã³w
Ġcas ino
ĠSp ort
ãģ®å ¾
isse ment
Ġd entro
ĠfÃ©v rier
ul es
Ðº Ñģ
Ġd Ã¹ng
ĠHo ch
ug no
ar o
ãģĭ ãĤĭ
ÑĭÐ² Ð°ÑİÑĤ
ĠB ras
Ġdi a
Ã¤ uf
n elle
cyj nych
é¤ ¨
ĠG ay
Ġmient ras
Ġpho tos
Ġqual itÃł
Ġï¼ ŀ
è ¥¿
Ġfa ce
Ġph Ã¡p
c cio
Å ļ
Ġf ak
Ġcham bre
Ġsouv ent
åŁ Ł
vers idad
Ġv ar
rz ym
ĠÐ·Ð´ Ð¾ÑĢÐ¾Ð²
for der
Ð² Ð°
Ġc entro
to wy
ali z
ĠÑĢ ÐµÐ´
ar si
Ġj ÄĻzy
ĠC ont
Ġdes car
Ġa se
ÑĢ ÑĮ
ri ngen
Ġgiá» Ľi
ãģĹ ãĤĥ
Ġä¸ ī
å» º
a Ã§Ã£o
ĠÐ¼ Ð¾Ð»Ð¾Ð´
cul ar
Ġsein er
ĠrÃ©p ond
ub le
Ġcar te
ĠÐ¾Ð± ÑĭÑĩ
Ġnota mment
é ľ
Ġin ve
enn es
Ġsc el
Ġmus i
ĠS E
Ġdis f
ãĥ³ãĥ ĳ
e ich
ĠC Ã³
ĠP res
ä¸ĸ çķĮ
il lo
ĠK re
Ġprodo tti
Ġa tÃ©
b io
Ġim mag
sch e
Ġ ÅĤa
in te
Ð¸ÑĤ Ð°ÑĤÑĮ
ent en
ĠÐ¸Ñģ ÑģÐ»ÐµÐ´
Ġreali zar
Ġw aÅ¼
Ġs etti
ta ires
ĠNa cional
âĢ ľ
ĠÐłÐ¾ÑģÑģ Ð¸Ð¹
ĠÃ©le ctri
ĠÐ¿Ð¾ ÑįÑĤÐ¾Ð¼Ñĥ
Ġæ ±
ie me
ĠktÃ³re j
ta da
ãģł ãģ¨
ĠB ou
Ġfam ille
urs os
x im
ĠA ug
éł Ĥ
Ġoc casion
ĠãĤ ½
Ġs f
z ug
Ġtr ang
ÐµÑĢ Ð¼
Ġbez pie
Ġle y
Ġc ode
Ġm ul
ĠTe ch
ĠsÃ©cur itÃ©
lau b
åĳ ¨
M D
od Ã³w
ie f
ca re
in Ã©
Ġca pa
sta wi
Ġãģ Ĩ
ĠÐµ Ð¼Ñĥ
ĠV on
Ġè ³
Ġin ne
Ġtr á»ĭ
ĠCas ino
li en
åŃ Ĺ
Ġsal ud
ĠÐºÑĢ Ð¾Ð²
ãģĹãģ¦ ãģĦãģŁ
ech os
ĠÐ¿ÑĢÐ¾Ð´ Ð¾Ð»Ð¶
us tr
sa ire
áº© n
Ñı Ñħ
ĠW ei
for m
Ġay ud
Ġste ht
Ġst ra
ç¢º èªį
Ġdifer entes
Ġc la
ĠÐ¿ Ð¸ÑĤ
f ort
ĠB esch
Ġcir ca
Ġs ort
l Äħ
Ġ ÅĤ
Ġb lei
ĠÐ¿ÑĢÐ¾ Ð¸Ñģ
Ã «
Ġpr Ã³
ãģ¨ ãģĨ
ãģ® ä¸Ģ
Ġsem ana
ĠVo ir
Ġf emmes
Ġ= "
Ġtr ouve
ĠH ol
lo ad
ĠThe ma
Ġs Ã©rie
ĠWy ÅĽwiet
ĠNe u
Ġwo j
ĠP utas
Ġop iniones
Ġseg Ãºn
Ġunser er
ĠdÃ© s
Ġnh iÃªn
ĠÐ¸Ð³ ÑĢÐ¾Ð²
ĠB Ã¼
Ġdo v
ĠM ej
Ġin vestig
Ġ8 0
Ġl ivre
?? ??
ĠB re
ĠÐ° Ð»
ãĥļ ãĥ¼ãĤ¸
Ġacc om
ĠÐ¿Ð¾Ð¼ Ð¾Ð³
ãģ¾ ãģŁ
i lidad
Ñĩ ÐµÑģÐº
Ġp unto
EN T
Ġs ens
Ð¾Ð½ Ñĥ
ci d
ĠJ o
° ·
ãģĮ ãģªãģĦ
ĠÑĢ Ð°Ð±Ð¾Ñĩ
Ġprzeci w
lich er
Ġæ ´
Ð¡ Ðļ
ãĥ© ãĥ³
ma ge
ĠÐ·Ð°Ð½ Ð¸Ð¼
ĠC hr
ĠwÃ¼r de
Ġ4 4
il fe
Ġdo cu
rÃ³ t
Ġfre e
Ġwir klich
Ġde ber
ale ur
k oÅĽci
ÑĢÐ°Ð½ Ð¸Ñĩ
ĠH Ãł
ä¼ģ æ¥Ń
Ġver b
Æ° ng
åº §
æĶ ¿
zza re
Ġam bi
Ġbuen a
vi ce
al itÃ¤t
ãĥį ãĥ«
Ñı Ð³
áº§ m
ĠI s
Ġao Ã»t
Ñģ Ð¸Ñħ
ĠÐ¼ ÑĥÐ·Ñĭ
ĠÐ½Ð°Ñĩ Ð¸Ð½
æı Ĳ
Ġservi zi
Ġpo ja
Ġok res
ĠÐ½ Ð°Ð³
con Ã³mi
Ġf ut
ĠÐ±ÐµÐ· Ð¾Ð¿Ð°Ñģ
Ĭ Ģ
om men
Ġstr ut
ous e
wa li
ĠÐĹ Ð°Ð¿
éł Ń
ĠÐº ÑĥÐ»ÑĮÑĤ
Ã© rÃ©
Ġz ÅĤo
Ġdi r
Ã¤ ft
cto res
ĠIl s
Ġt on
Ġsi Ã¨
ve llo
Ġfin ans
ãģ®å ¥
æĪ ¸
åĲĮ ãģĺ
or den
Ġth o
Ġmuch as
Ġmiejs ca
ï¼ ĸ
åı į
Ġre tour
ĠÐ¿ Ð°ÑĢÑĤ
Ġnum ero
ĠÐ²Ñģ Ñĳ
Ġb ajo
\\\\\\\\ \\\\\\\\
ÅĽ ni
Ġãĥ Ķ
Ġpo czÄħ
ĠdÃ©c ouv
nh o
ĠG eld
or gen
char ger
Ġpr Ã¨s
ĠéĽ »
Ġcáº£ m
ÐµÐ» Ñİ
czy n
wi ÅĽcie
Ġha cia
w ort
Ġcon ten
ãģ® ãĤ¢
Ã³ Åº
u le
ĠÑı Ð½
ÃŃ vel
á» ¹
ĠÑĥ ÐºÑĢÐ°
od en
ÐµÐ½ ÐºÐ¾
ĠÐŀ Ð¿
ĠÑģÐ¾ ÑĨÐ¸Ð°Ð»ÑĮ
ÐĿ Ðŀ
Ð¾Ð» ÐµÐµ
es a
Ġdo tycz
Ġä¸Ń åı¤
Ġæ ¬
ke hr
Ġsul le
Ġr ad
ĠÐŁÐ¾Ñģ Ð»Ðµ
Ġæ ³
ĠÅ¼y cia
ĠO ber
á»į ng
c ÄĻ
et en
kow ych
éĿ ŀ
ĠÐ² Ð¼ÐµÑģÑĤ
Ġmen o
Ġresp ons
Ġsi mple
Ġcie ka
ei gne
Ðł Ðŀ
ĠÐĵÐ»Ð°Ð² Ð½Ð°Ñı
kow o
Ġforma tion
Ġv ac
ĠÐ» Ð¸Ð½
ĠÃª tes
Ġm elh
Ġlle gar
Ġein mal
ĠÑĥÐ² ÐµÐ»Ð¸Ñĩ
gl ÄĻ
al ten
c teurs
Ġn ego
Ð¾Ð· Ñı
ĠçĽ ¸
á» Ľ
æķ ´
Ġa dap
Ð¾Ð¶ ÐµÑĤ
uer to
æ¡ Ī
Ġou v
Ġren cont
Ġl etto
Ð» Ñĥ
po li
5 4
rie ben
Ġnuest ros
ĠR E
Ġm niej
Ġãģ ¤
bi anas
Ġempres as
Ġt ant
ĠÑģÑĩ ÐµÑĤ
ĠÐ´ÐµÑĢ ÐµÐ²
Ġpres so
ert as
Ġcom paÃ±
gr und
r ia
çī Ī
Ð¸ÑĩÐµÑģÐº Ð¾Ðµ
Ġmu a
Å ĵ
Ġå ķĨåĵģ
çĶ ³
Ð°ÑĤ Ð¾ÑĩÐ½Ð¾
Ġsi mp
Þ ¦
Ġha i
Ġog r
Ġj uegos
Ġpro ceso
Ġschne ll
ãģ®å Ĩ
Ġsu jet
Ġus u
cor d
ĠÑĨ ÐµÐ½Ñĭ
zy n
Ġwar un
al s
Ġspe ci
Ġby ÅĤy
Ġè¦ ĭ
Ð½Ð¾ÑģÑĤ ÐµÐ¹
ĠMÃ© xico
ãģ ¼
ĠÑħ Ð¾Ñĩ
Ġgener al
ĠÐ¼ÐµÑĤ Ð¾Ð´
Ð» Ð°Ð½
Ġje doch
ge ment
Ð°ÑĢ Ñĭ
fi que
Ġgio v
Ð» Ð¾Ð½
ï¼Ĳ ï¼Ĳ
é Ł
Ġma ja
Ġtu a
Ġsz k
Ġv ue
Ġa ver
Ġwszyst kim
Ãª s
ĠÑģÐ¾ÑģÑĤ Ð¾ÑıÐ½
ak i
Ã¼n d
Ġto i
ĠrÃ© du
Ġw ska
Ġthá»© c
Ġãĥ «
v ant
tto bre
ĠÐļ Ð¾Ð»
Ġpre zzo
z on
ĠR en
Ð ĸ
ĠÐĹ Ð°
den ti
Ġä» ĸ
Ġse ul
Ġa pr
fol g
Ð¾Ðº Ð¸
ol d
ĠÐ½Ð° Ðº
h in
bb lica
Ġni m
gn er
ÑĢ ÐµÐ¶Ð´
ien za
Ġu zy
i ciÃ³n
it Ã¤
éĸ¢ ä¿Ĥ
Ġre gar
y o
ĠÐ² Ð¿
ĠS icher
Ðŀ Ðŀ
Ð¾Ð½ Ð´
fall s
ĠH ome
li ci
ãģĻãĤĭ ãģĵãģ¨ãģĮ
Ġ3 7
Ġ3 2
ĠH omme
Ġre pr
ĠM al
ĠÑģ Ð¸Ð¼
v vero
Ġgru po
ĠwÅĤ os
Ġqu Ã¡
ĠÐĹ Ð´
ĠÐ¼ ÐµÑĢ
Ġf as
ãģ¨ ãģ®
ĠFra uen
au er
S E
Ġb an
ĠÐ¼Ð°Ð³Ð°Ð· Ð¸Ð½
1 æĹ¥
Ġbes onder
tow ej
Ġs uf
Ġa chat
Ġç ¥
Ġmeille ur
w eit
op Ã©
ĠÑĢ ÐµÐ¼Ð¾Ð½ÑĤ
Ń ¦
ro c
Ġo ch
k le
au pt
Ġinter nation
ĠÐľÐ¾ÑģÐºÐ² Ð°
min istra
r ut
Ð»ÐµÐ½ Ð°
Ġgra zie
ĠÑĢ Ð°Ð²
ĠÐ¿ÑĢ Ð¾Ð¿
ĠkaÅ¼ d
Ġa ma
Ð» Ð¾Ð¼
Ġz ona
Ġjed no
ĠÐº Ð°Ð½
Ġper fec
Ġejemp lo
nh a
Ġpor ta
w em
Ġb Ã©nÃ©
Ġc Ã¡i
uo i
Ġn et
ĠÐ¿Ð¾Ð¼Ð¾Ñī ÑĮÑİ
Ġè £
fi co
Ġpoli tique
Ġkol or
ĠczÄĻ sto
åķı é¡Į
Ġh and
i Ã¨me
Ġse hen
ĠÑĢ ÑıÐ´
æİ ¥
Ġ áº£nh
ĠlÃŃ nea
ĠÐľÐ¾ÑģÐºÐ² Ðµ
ÐµÐ² ÑĢ
Ġoper a
Ġese mp
Ġm ÃŃ
ĠD ien
sion s
ĠÑĥÑģÐ» ÑĥÐ³
uel a
ĠÐĲÐ»ÐµÐºÑģ Ð°Ð½Ð´
ç© ¶
c Ã³
ette mbre
w and
Ðº Ð°Ñı
Ġa illeurs
Ġinve ce
b or
è¾¼ ãģ¿
Ġs ommes
Ġqual che
ĠC er
Ð»ÐµÐ½ Ñĭ
cia li
ĠÑĦÐ¸Ð½ Ð°Ð½Ñģ
ĠÐ¿ÑĢ Ð¸Ð·Ð½
æī ķ
ãĤĪ ãģı
o tros
t ru
Ġperson al
ĠH ei
re zza
ica ciÃ³n
ĠæĬ ķç¨¿
ĠÐ¿Ð¾ÑģÑĤ Ð¾ÑıÐ½
± æ¯Ľ
Ġs d
éł ¼
è¦ ĸ
Ġe i
so cia
Ġn ic
ãĥª ãĥ¼ãĤº
ãģłãģĳ ãģ§
ĠÑĥ ÑģÑĤÑĢÐ¾Ð¹
cyj ny
Ġspra wie
Ġa po
f ier
m Ã¶glich
Ġd onne
áº ³
Ġtut ta
ĠÐ¸ Ð´Ðµ
ak ter
Ġsema ine
ãĤ¢ ãĥĥãĥĹ
ãģ§ãģ¯ ãģªãģĦ
Ġdes n
ÐłÑ ķ
ĠÑĨ ÐµÐ½Ð°
Ã¡ b
c ra
Ġsur tout
Ġje der
ãģ« ãģĹãģ¦
Ġ. -
ĠR ec
Ð¾Ð¼ ÐµÐ½Ð´
Ġæ Ķ
vol u
ĠÑĢÐ°Ð· Ð´ÐµÐ»
Ġs za
Ð°ÑİÑī Ð¸Ðµ
Ġy Ãªu
Ġzd r
Ġpare ja
w Ã¤
cie tÃł
Ġan os
ĠJu an
Ġmes es
noÅĽci Äħ
å¯ Ħ
Ġcerta ins
Ġä»Ĭ åĽŀ
ĠÑĢÐ°Ð· ÑĢÐ°Ð±Ð¾ÑĤ
pp a
° ¡
Ġp Ã¡g
sch luss
ĠÐ´ Ð°Ð»
f l
u jÄħc
Ġ uf
Ñģ Ð¾Ð½
Ġc in
å½ ±
Ð½ ÑĥÐ»
Ġg et
f ono
ĠTr ung
¨ ÐĲ
ĠÃ ·
to ra
ĠPro je
Ġd ich
pr Ã¼
c ent
p as
åĩ ¦
Ġper i
Ġdo anh
n ow
00 åĨĨ
ãĥ ¦
on ces
á»į c
Ġch ange
Ġz ami
ĠAl s
ĠÐĴ Ð°Ñģ
ĠÐ¿ÑĢ Ð¾Ð¼
Ġbus ca
Ð» Ð¸Ñı
ãģĮ åĩº
ist ro
éĢ ±
un st
Ã Į
Ġch á»įn
Ġcomp os
Ġj ug
Ġw ichtig
Ġç ľ
Ġlu dzi
Ġch ose
åı ĭ
Ġemb argo
ÐµÐ» ÐµÐ¼
Ġi o
Ġa llo
oun t
ä¸Ĭ ãģĮ
Ġrec om
Ġbie tet
ĠÐĴ Ð¾
Ġor d
ãģ ľ
Ġx em
Ġproy ecto
um mer
ĠD is
åĲ «
ãĥ©ãĤ¤ ãĥ³
l en
Ñī Ñĳ
Ã©ri que
an Ã§a
m ite
Ġz es
ãģĬ ãĤĬ
Ġrisp etto
Ġesp ec
Ġmar chÃ©
Ġli p
Ġalle m
Ġli cz
Ð½ÐµÐ¹ ÑĪ
Ġval or
ÂµÃ Ħ
à ³
Ġt áºŃp
mb H
h Ã¶
Ġtrav aux
ĠprÃ©s ident
Ã³ g
Ġå ģ
v on
Ð½Ð¸ ÑĨ
æ³ ģ
Ġno ir
Ġs antÃ©
Ġrapp res
ĠÐ¿ÐµÑĢ Ðµ
ĠT od
tif ic
ãĥĿ ãĤ¤ãĥ³ãĥĪ
illa ge
ÅĤ ych
Ġje unes
ĠÐ´ÐµÑıÑĤÐµÐ»ÑĮ Ð½Ð¾ÑģÑĤÐ¸
ÑģÐº Ð°
ĠÐĲ Ð´
ÑĢÑĥ ÐºÑĤ
Ġt Ã©c
ĠPh o
ĠAcc ueil
Ġhe ures
Ġje dy
Ġteng o
ĠM ay
ci Ã³
ç Ĩ
Ġt ay
Ġm entre
enn t
Ñĥ ÐµÐ¼
n Ã©
j on
Ð°Ð» Ð¾Ð²
ĠâĢ ĭ
ĠÐ»Ð¸ÑĪ ÑĮ
éļ İ
ĠT ri
åĽ £
Ġs toria
Ġju ego
ÑģÑı Ñĩ
ĠO s
Ġczas ie
ĠAn d
ĠP ue
ki ng
Ġpropos e
ĠA demÃ¡s
ĠÐ¡ Ðº
Ġm acht
Ġc elle
ç ĸ
ĠÐ¿ÑĢ Ð¸Ðº
p on
ng ono
Ġp ad
ĠLeben s
ĠÑĪ Ð¸ÑĢ
iá»ĩ m
Ġe lement
ĠC re
ĠÑĦ Ð¸Ð·
se hen
ĠdÃ©b ut
Ġè ī
Ġï¼ ł
Ġmis ma
å® Į
Z E
Ġp iÄĻk
Ð¸Ð½ Ð¾Ð¹
Ġæ ²
ti cias
ĠPo li
â Ĺ
ãģĭ ãĤĤãģĹãĤĮ
x e
Åº dzier
Ġc á»©
an ni
ĠÐº ÑĢÑĥÐ¿
Ġprogra ma
Ġ5 5
cz nÄħ
ĠQues to
Ġcu er
è Į
âĶ ģ
Ġfal se
åģ ´
ĠâĢľ ,
ĠÐ²Ð¾Ð· Ð½Ð¸Ðº
ku ment
ĠÃ© ner
Ġwp ÅĤy
Ġmo vi
Ġç ¬ĳ
Ġãĥ ¦
ĠÐµ Ð´Ð¸Ð½
ĠZ immer
r ad
ĠC ali
ĠespaÃ± ol
Ġweit ere
Ġa ir
Ġç ¨
è© ķ
ĠÐ¾Ð±ÑĬ ÑıÐ²
Ġt end
N G
Ã³ c
Ġsp az
Ġb lan
ĠG mbH
sta g
á» Ŀ
Ġp Ã©ri
çŁ ³
Ã¡m ara
Ð¸Ð² Ð°Ð½Ð¸Ñı
lo g
Ġde ve
bar dziej
min ar
Ġer halten
er ÃŃa
Ġcad re
Ð¸Ð² Ð°ÐµÑĤÑģÑı
Ġk ul
ĠÐºÐ¾Ð½ Ðº
Ġa ca
ãģ§ ãģ®
Ð´ Ð¸
ĠÅ ĵ
an zia
Ġ Ã¡n
Ġsu oi
Ġcli ents
é£Ł ãģ¹
Ġha ber
Ġnicht s
A C
Ġseu lement
ding s
ĠÐ¿ÐµÑĢ Ð¸Ð¾Ð´
ãĤ¯ ãĤ»
Ġk ons
ÑĢ ÐµÑĤ
ĠÃ ĺ
Þ¦ Þ
âĢ¦ âĢ¦
Ġs ao
Ġsou ha
Ġkon k
na io
Ñģ Ñģ
ãģı ãĤĮãĤĭ
ĠdÃ© cl
Ġtr ud
ti os
Ġpi ano
Ġinter no
æŀ ļ
ĠÑģÐ²Ð¾ Ð¸Ñħ
ĠWeb s
Ġsegur idad
ãĥĩ ãĥ«
d nie
Ġ( )
łĶ ç©¶
Ġï¿½ï¿½ ï¿½ï¿½
Ġv áº«n
ĠÐ¿Ð¾ Ñħ
Ġap ri
Ġtr i
ĠSh op
h rze
ĠÐ½ Ð¸Ñĩ
ierz ch
ãģ« ãģĭ
tif ica
ĠÐ¿ Ð¾ÑĢÑĤ
ĠÐ¿Ð¾Ð¿ ÑĥÐ»ÑıÑĢ
ĠD ar
äºº ãģ¯
zion ali
Ġconta ctos
Ġex tra
f eld
ĠPar t
ĠÑĤÑĢÐ°Ð½ ÑģÐ¿Ð¾ÑĢÑĤ
Ġs tycz
scha ften
ÑģÑĤÐ² Ð¾Ð¼
c ow
å½ ¹
Ġce le
nÄħ Äĩ
le gen
ÑĢ ÐµÐ²
Ġesta ba
Ġdi ce
ĠãĤ³ ãĥĶãĥ¼
ãģ£ãģ¦ ãĤĭ
ãĥ³ãĥ ĩ
Â ª
Ġv áºŃy
\ /
Ġlle g
Ġihr er
Ġresp ec
ĠÐ¿Ð¾ÑĢ ÑıÐ´
Ä ĺ
w iÄĻk
ĠÐºÐ¾Ð½ ÑĨ
ãģ® ãģ¿
Ġpubli c
Ġp m
ĠPubli cado
Ġparti ci
Ã¤ng er
Ġs ym
ĠÐ´ Ð½ÐµÐ¹
Ã§ os
Ġ08 15
Ġl et
Ð°Ð» Ñĭ
çĹ ħ
est is
Ġv iv
ĠÐ¾Ð±ÑĬ ÐµÐºÑĤ
Ġg as
ĠÐ¼ Ð¾Ð½
s icht
å¢ ĥ
Ġt Ãłi
ĠE ng
Ġau tor
ĠÐºÐ¾ÑĤÐ¾ÑĢ Ð¾Ð¹
ãĥ ¨
tow ych
Ġa cuerdo
ĠD en
Ġ) ;
æĹ ©
na cional
ĠÐº ÑĥÑĢ
åĮ »
or ten
ĠÐ¾ÑĢÐ³Ð°Ð½Ð¸Ð· Ð°ÑĨÐ¸Ð¸
Ġgr Ã¢ce
ĠCh i
Ġso li
ãģĭ ãģ«
uyá» ģn
ĠÐ¾Ð¿ ÑĭÑĤ
Ġzosta ÅĤ
Ġbe g
Ġfuer on
Ġv Ã©ri
Ã§ as
Ð¾Ðº Ñģ
ĠÐ¿ ÐµÑĩ
is er
ty czne
è °·
ÃŃ t
Ġet c
Ġattra verso
ĠÑĤ ÐµÐ±
ĠâĹ ĭ
Ĵ °
ĠÑĩÐ°ÑģÑĤ ÑĮ
Ġ19 9
Ġv ou
gra mm
Ġemplo i
Ġcer ca
ÅĦst wo
Ġd ort
Ġun ique
è¼ ĥ
Ġg odz
ĠT Ã©lÃ©
alitÃ© s
Ġsta ti
ãĤ· ãĥ§ãĥ³
Ġ], [
ĠC es
Ġ ^
ãĥĽ ãĥĨãĥ«
ĠF rank
ÑĢ Ð¸Ð´
Ġp yt
ĠMa i
Ġcen a
ni ct
Ġsch Ã¶n
ĠÐ¾Ð¿ ÐµÑĢ
ma cht
ĠPol ski
Ġpod ob
ï¼ ī
æı ´
ste llen
ĠÑģÐ¿ÐµÑĨÐ¸ Ð°Ð»Ð¸ÑģÑĤ
Ġdes p
Ñı Ñĩ
h eim
Ġwel che
ĠA prÃ¨s
Ð°ÑĢ ÑĮ
u ale
ĠåĲįçĦ¡ãģĹ ãģķãĤĵ
ãģª ãģĹ
Ġth i
cie l
ĠÐ± Ð¾Ð»ÑĮ
ĠÐĿÐ¾Ð² Ð¾ÑģÑĤÐ¸
ĠÐ¸ ÑĤ
Ġt ur
ĠIn s
æ¥Ń èĢħ
åº ľ
Ã©d ia
Ġt Äĥng
Ġ Ñī
ĠÐ´ ÐµÐ½
Ġf ont
Ñĥ Ð³Ð¸
Ã¶ ÃŁe
ĠÐ¾ ÑĦÐ¾ÑĢÐ¼
kt ue
ĠÑģ Ð±Ð¾ÑĢ
ĠK am
ĠM Ã¶glich
Ġç ¶
Ġp an
Ġæ Ģ
ĠÐ²ÑģÑĤÑĢ ÐµÑĩ
á» Ŀi
l Ã¨me
Ġzaw od
Ġå¹ ´
Ġproble m
ãģĻ ãģİ
Ġcas i
Ð½ Ð¸Ð²
ici le
we g
ÐµÐ· Ð¸Ð´
ãģı ãĤĬ
om mer
ĠÂ ¬
ÅĤ ow
æ° ı
Ð¾Ð» Ð¾
d it
Ġw od
E L
3 5
Ġc at
ĠS tre
Ġap ar
Ġcons ul
olo gia
Ġai me
ĠIntern et
ĠÐ¿ÑĢ Ð¸Ð»
Ð¼ Ð°Ð½
Ġentrepr ises
Ġlie gt
ĠÐºÐ¾Ð¼ Ð½
Ġalcun i
alis ation
ĠÐ¿ÑĢ Ðµ
ĠPol ska
Ġpod at
Ġsa ber
ĠM ein
ĠCom m
Ġcon tr
Ġgiá» ¯
Ġe llo
ĠLe ist
Ġpro ces
zei gen
w alt
é¡ Ķ
g et
ĠâĹ Ĩ
æº ĸ
Ġ) {
ĠÐ¿Ð¾Ðº Ð°
Ġs il
Ġc ri
Ġosob y
ĠV iel
ĠdÃ©veloppe ment
ĠÐº ÑĥÑĢÑģ
ä» »
ĠU N
tu bre
g rÃ©
Ġdin ero
ĠE ins
ÑĤ Ð¸Ðº
Ġo kaz
ĠÑĤ Ð¾Ñĩ
Ġd anych
uj o
Ġpop ula
ĠÐ¡Ð ¨ÐĲ
åĥ į
Ġbis o
Ġnat Ã¼rlich
ÅĤu ma
Ġri c
ĠÐº Ð¾
ÐµÑģÐ¿ ÑĥÐ±Ð»Ð¸
ĠÐ´ÐµÐ» Ð°ÑĤÑĮ
ill as
Ġb zw
Ġè ĭ
Ġch u
Ġg ospodar
ĠI de
Ð¿ Ð°ÑĢ
ĠEn de
ĠR Ã©s
ĠÐ°Ð´ ÑĢÐµÑģ
ran no
cie mbre
ĠD ire
ie mbre
Ġcom pa
æ¶ Ī
ç ħ
ĠprÃ³ xi
ÑģÐº Ð¸Ð¼
ĠW szyst
Ġdesarro llo
m niej
æ¬ ²
ĠãģĿ ãĤĵãģª
ãĥ¼ãĥ Ģ
ĠB ilder
Ġpeli culas
Ġlu ego
ĠBere ich
ç® Ĺ
ĠÐ± Ð°Ð·
Ġgen au
è¨ĺ äºĭ
Ġeur os
ãģ¤ ãĤĤ
Ã¨ g
Ġi hn
Ñĩ Ð°ÑģÑĤ
ĠÃ į
Ġs á»ĳng
bb ra
la y
Ġy ou
å¤§ ãģį
Ġb elle
ind re
owi ada
Ġr ichi
Ġd wa
g abe
Ð»Ñı ÑİÑī
Ġæ¥ ½
Ġpue des
Ġe conÃ³mi
ier te
si que
æ® ĭ
Ġg Ã©
ch ÄĻ
Ð¸Ð¼ Ð¾
ÅĽ rÃ³d
isten za
Ġw ith
ve is
Ġp s
Ġpro te
p nia
ri ff
åĬ¹ æŀľ
Ġå¤ ĸ
Ġcor so
æĽ ¿
ãĤī ãĤĮãģŁ
Ġjus te
dzie Äĩ
Ġexper iencia
{ "
ĠÐ³ Ð¾ÑģÑĤ
Ġth á»§
Ġszczeg Ã³l
ĠÃ©c rit
ĠP al
Ð¸ Ð³ÑĢ
Ġigu al
Ġch arge
Ġs cu
mi er
éĽ ¢
Ð¾ÑĤ Ð¾
ĠÐ´Ð¾Ð»Ð¶ Ð½Ñĭ
ost rar
Ġor den
Ġutilis ation
Ġele tt
ti ert
Ġr odza
mp li
ri que
T R
Ġre d
Ġis so
Ã¶r per
Ġcz e
« a
dz e
éĻ º
a je
Ġri ce
Ġapp ro
ĠPL N
le k
ĠÐ´ Ð¸Ð·
Ġsz kol
ĠJ os
res o
Ġ9 9
ow aniu
Ġconc ern
Ð ħ
ĠÐĴ Ð°Ð¼
ÅĤ ada
iss ant
ĠÐ¾ÑĦ Ð¸ÑĨÐ¸Ð°Ð»ÑĮ
Ġmes mo
ej o
vie mbre
ĠB ad
ĠH Ã¶
Ġmu á»ĳn
Ġf eb
sen ce
ĠÐ¼Ð¾Ð¼ ÐµÐ½ÑĤ
Ġpar la
Ġihr en
ĠTr ans
è¦ ļ
Ġenf ant
Ġemp le
par ation
Ġtak i
or ie
Ð½ Ð¾Ð·
Ð¾Ð¶Ð´ ÐµÐ½Ð¸Ñı
Â ¹
áº¡ m
Ġna praw
ĠãģŁ ãģł
ĠcÃ´ tÃ©
at ura
Ġc iÄĻ
ç´ ¢
ĠÐ¿Ð¾ Ð¸ÑģÐº
c ours
Ġ08 1
Ġtec n
ãĤĬ ãģĮ
el Ã©
ÑĥÑĢ Ð½
Ġn Ã¤ch
es to
Ð°Ð½ Ð¸ÐµÐ¼
lla tion
Ġb em
ãĥ³ãĤŃ ãĥ³ãĤ°
ãģ®åł´ åĲĪ
Ġcom b
cz one
Ġf est
ĠÐ¿ÑĢ ÐµÐº
ĠC V
Ġf abri
Ġbamb ini
ĠÐ¿Ð¾Ð»ÑĥÑĩ Ð¸ÑĤÑĮ
f ek
åīį ãģ«
Ġg ouver
Ġe j
tig t
Ġ") ,
Z G
Ġsz tu
ĠÑĢÐ°Ð· ÑĢ
Ġtak ich
Ġtr iá»ĥn
ĠCu ando
Ġprogram ma
Ã¼n f
ra in
Ġdo bre
ĠEuro pe
Ġãģĵ ãģĵ
Ġç ©
ĠÐ¾ ÐºÑĤ
ka l
Ġz usammen
t ina
ĠÐ´ Ð½Ñı
ãĥ³ãĤ »
Ġpri m
Ġ4 3
6 5
Ġutilis er
Ġmad rid
u tos
Ð²ÐµÑĢÐ¶ Ð´
ãģĺãĤĥ ãģªãģĦ
ãģł ãģĭãĤī
ãģĵ ãģĨ
ãĥ¼ãĤ³ ãĥĶãĥ¼
ï¼ ĺ
æł ¹
Ġl iÃªn
nh eit
z ja
c ura
è« ĸ
jaz d
ec tos
Ġf is
ĠÐ¾ÑĤ Ñģ
pt iembre
mÃ¤ ÃŁ
rais on
Ġan al
ãģĪ ãģŁ
Ġ200 7
Ġob jet
Å¼y Äĩ
Ġsi gni
ãĥ¼ãĥĨ ãĤ£
ĠÐ¾Ð±ÑĢÐ°Ð· Ð¾Ð¼
Ġu p
era us
ãģ£ ãģĭãĤĬ
å± ķ
uy e
es ten
C OM
ĠE ur
ĠÐ· Ð°Ñģ
ãĤĬ ãģ«
Ġrec ono
Ġt Ã¬m
Ġp amiÄĻ
ĠÐ³ Ð¾Ð»Ð¾Ð²
a mente
Ġv u
å± Ģ
ĠÐ¾Ð¿ Ð¸Ñģ
ĠÐ± Ñİ
ĠÐłÐ¾ÑģÑģ Ð¸Ñı
ĠÐ´Ð¾Ð»Ð¶ ÐµÐ½
ĠÅĽ wiet
Ġges tion
ĠnÃº mero
mp f
Ġch or
I R
Ġcomp Ã©
ub e
æĸ¹ ãģĮ
le icht
ol tre
Ġcel u
ĠÐ´Ð² Ð¸Ð¶
Ġf ran
Ġå¹ ³
é Ĥ
Ġar tis
ĠC our
ĠÐ»ÑİÐ´ Ð¸
t tes
å¥½ ãģį
c tÃ©
Ġmer cado
Ġåħ Ī
Ġprz est
ĠT op
bo ok
Ġh aut
by wa
Ġm Ãº
Ġste hen
uest ra
Ġnos otros
ta rio
ÐµÑĢ Ð¾Ð¼
áºŃ u
ud io
ĠÐºÐ¾Ð¼ Ð°Ð½Ð´
Ġei nge
é¡ĺ ãģĦ
ãģ®å ŃĲ
Ġres taur
Ġz ost
Ġth Æ°Æ¡ng
cie dad
Ġa llen
è²· åıĸ
Ġim mo
ĠÐ¿Ð¾Ð¼ ÐµÑī
ini Ã³n
O UR
Ġr end
ĠÐ²Ð¾Ð· ÑĢÐ°ÑģÑĤ
Ġh ora
æĹ ı
Ġro k
n itt
ĠTe am
Ġgior na
} ,
Ġpoz w
ba ll
ĠÐļ Ð°ÑĢ
la uf
Ġm ini
Ġfami li
ĠÐ¿ÑĢÐ¸ Ð¾Ð±ÑĢ
Äħ t
ãĤĴ ãģĻãĤĭ
ĠÄĳá» ķ
ĠspÃ© ci
ĠB est
ĠKom ment
g ione
ĠÐ¼ Ð¸Ð»
z er
³ ç´°
kt ur
ãĤ¶ ãĤ¤ãĥ³
Ġes s
Ġç¾ İ
ãģ¾ ãģ¾
m Ã³
ä¸ İ
ter s
tiv en
ia le
ÐµÐº Ð°
Ġou ti
Ġop is
ãģĮ ãģĤãĤĬ
Ġle gg
Ġarty ku
ĠD om
Ġj ardin
ne k
ĠMais on
Ġvoit ure
ĠÐºÐ°Ð¶Ð´ ÑĭÐ¹
Ġw eiÃŁ
ĠÐ´ ÐµÐ¿
Ġma teria
ĠÃ İ
Ġb ao
Ġsein en
Ġprze pis
Î ¿
ĠÐ¼ÑĥÐ¶ Ñĩ
am enti
Ð¾Ð±ÑĢ Ð°Ð¶
ĠM ann
ĠkaÅ¼ de
æĢĿ ãģĦ
Ġprodo tto
Ġk ro
ÅĽ niej
Ġpal ab
Ġm m
ĠÐ¾ÑĤ Ð¿ÑĢÐ°Ð²
7 5
u vre
Ġin ten
å¤ «
Ġge hÃ¶r
ä¹ ³
Ð¾Ð· Ð¼Ð¾Ð¶
ma in
ãĥ¼ ãģ®
ĠÐ¿ÑĢÐµÐ´Ð¿ÑĢ Ð¸ÑıÑĤ
ĠÐ³Ð» Ð°Ð·
tic les
un o
Ġ7 0
Ġprob lÃ¨me
ĠÑģ ÐµÐ·
Ġb Ãłi
è²· ãģĦ
ç ª
il t
b lis
Ġa inda
Ġc res
ĠWarsza wa
Ġwi ad
Ġd Æ°á»
ĠR ou
Ġcon fer
ĠDÃ© c
M E
Ġmat Ã©r
Ġorig in
wa hl
00 3
Ġobje c
Ð¾Ð¿ÑĢ Ð¸ÑıÑĤ
Ġje den
Ġcomp ro
Ġsi tio
Ġde cis
Ð°ÑĤ Ð¸
Ġdire kt
Ġ äººæ°Ĺ
ãģĭ ãģĳ
Ġmar ca
ĠÐ´ Ð°Ð»ÑĮ
Ġser ont
Ġter ri
Ð½ Ñĥ
ĠJu li
Ġsu ll
I I
å½ĵ ãģ«
ĠA pr
ãĤĴ ãģĹãģ¦
Ġger ade
Ġm l
min y
Ġkom enta
ãĤ¯ ãĥ©
Ġr und
Ġmin utes
gen cia
ÐµÑĤ Ð¾Ð²
Ġch ce
ĠÑģ ÐµÐº
Ġdo ÅĽwiad
schei d
ĠÃ© lÃ©
Ġlav or
ĠÑĤ Ð¾Ð½
Ġæ° Ĺ
Ġl áº§n
Ġpres idente
ĠÑĤÑĭ ÑģÑıÑĩ
Ġmes ure
è¶Ĭ ãģĹ
æ ¢
çĽ¸ è«ĩ
ĠY o
u do
Ġwo hl
Ġãģ© ãģĨ
åħ¥ ãĤĮ
c ando
st Ã¼ck
mi ast
ĠÐļ Ð°Ð·
ĠÑħÐ¾ÑĢÐ¾ÑĪ Ð¾
ãĥĪ ãĥ©
ment ation
ie u
wo hn
ta mos
ĠEs to
Ġspe cjal
ab il
ĠÐĵ ÑĢ
ĠT ut
Ġa do
uj ÄĻ
ĠprÃ© f
Ġpar ce
wÃ³ r
Ġdzie ÅĦ
ĠÐºÐ¾Ð¼Ð¿Ð» ÐµÐºÑģ
ĠÑĤ ÐµÐºÑģÑĤ
es te
Ġãĥĸãĥ© ãĥ³ãĥī
ãģķãģĽ ãģ¦
Ġfa Ã§on
ĠÂ µÃ
á»ĵ n
ĠR ei
ĠçĶ ·
ÑĤ Ñĥ
æ¨ ©
Ġm amy
j est
own load
ĠF eb
ĠÐ°Ð´ Ð¼Ð¸Ð½
tar beit
Ð°Ð² Ð»Ð¸Ð²
m el
Ġbez p
çĶŁ æ´»
ĠAn tw
Ġcul ture
ĠÑĢ Ð°Ð´
ĠM Ã¼n
ĠF ach
ÑĢ Ð¾Ð½
è· ¯
gi i
ĠTe le
ĠÐºÐ¾Ð¼Ð¿ ÑĮÑİÑĤ
Ġm ang
Ġli ber
Ð¼ÐµÐ½ÑĤ Ð°ÑĢ
ĠÑģ Ð¾Ð³Ð»Ð°Ñģ
å¸ ¯
b uch
ĠWo chen
v illa
ĠÐ° Ð¿ÑĢ
Ã¡ vel
pi Äĩ
gent ina
Ġal ta
ans tal
Ñı Ð»
Ġcon ne
tycz nie
Ġfami lia
Ġl ado
ĠT ambiÃ©n
ĠÐºÐ¾Ð»Ð¸Ñĩ ÐµÑģÑĤÐ²Ð¾
ZI ONE
ĠB or
etto re
Ġinforma cji
ff re
ĠâĢ ĺ
Ġrela ciÃ³n
ĠC os
ãģ§ãģį ãģªãģĦ
Ġe ux
Ġent sp
ĠÐ¾Ð± ÑĥÑĩ
Ĺ ¤
Ġsetti m
Ġen er
ĠS to
ĠãĤ¢ ãĤ¤
ä»ĺ ãģĳ
b ach
we is
ĠÐ½Ð° ÑĢÑĥÑĪ
Ġpas ser
rei ben
Â ´
Ġngh Ä©
ĠÑĥ Ð»Ð¸
Ġcon ver
ĠÐ½Ð°Ð¿ Ð¸Ñģ
Ġqu oi
w nÄĻtrz
ĠKa uf
los sen
ĠÂ ©
Ġvac ances
Ġen vo
Ġsi er
ç¿ Ĵ
Ġge ben
ĠEs tado
Ġm or
ĠÐ´ ÑĥÐ¼
Ġdi f
ĠÑĨÐµÐ½ÑĤ ÑĢ
Ġsk Ã³
Ġcz ar
ĠH al
Ġnombre ux
Ġp Ã³ÅĤ
Ġs or
Ġer o
ri g
ĠÐ¿Ð¾Ð½ Ð¸Ð¼
Ġé£ Ł
ĠGra cias
ĠG li
ĠS ol
ï¼ Ĺ
åĢ Ł
ãģ® ãĤĪãģĨãģª
ÃŃ cula
ĠÐ¼ Ð¸Ðº
Ġtr á»įng
it ur
Ġr Ã¡p
ĠFra ge
Ġfol gen
Ġda fÃ¼r
ĠÐŀÐ´ Ð½Ð°ÐºÐ¾
Ġso i
ene z
ãģ« ãģĤãĤĭ
ÅĤ oÅĽci
Ġg ute
Ġan ti
ere z
pr asz
Ġw rze
let z
Ð¸ÑĤ ÐµÑĢ
un ku
ĠO u
Ġele ct
ĠÐĺ Ð³
ĠÐ·Ð°Ð´ Ð°Ñĩ
ĠÑĢÐµÐ¶ Ð¸Ð¼
Ġt itre
6 4
Ġlle var
id s
ĠÑģÐ¾ ÑħÑĢÐ°Ð½
Ã¶ ÃŁ
Ġan terior
ĠÃ©ta t
Ġjak oÅĽci
Ġinf atti
Â ²
ĠÄĳ áº¥t
ti l
ĠÑĦ Ð°ÐºÑĤ
odz enia
ãĤī ãģĹãģĦ
Ġcam bio
ĠÐ½Ð°Ð· Ð°Ð´
Ġæµ ·
Ġprog etto
er y
ĠÐ½ ÐµÐ¹
Ġm ia
gu ar
ĠM ich
ti ent
Ġco lla
tar ia
Ġpas se
Ġæ İ
Ġbes ser
Ð² Ð¾
c ta
Ġd ara
G E
Ã¨ te
Ġ ä¿Ŀ
ĠexpÃ©ri ence
ĠÑĤÐ°Ðº Ð¸Ðµ
Ġczy m
Ġmay o
ĠãģĵãĤĮ ãģ¯
Ġin ser
Ġletz ten
Ġdist in
Ġle k
Ġper Ã²
zn es
4 4
Ġb Ã¡o
il o
cz ych
ĠÐ°Ð²ÑĤÐ¾Ð¼ Ð°ÑĤ
ĠPl atz
ÐµÐ» ÐµÐ½
Ð°Ð»ÑĮ Ð½ÑĭÐ¼
Ġnouve lles
Ġpos to
ll te
ĠS Ã£o
è» ½
ĠÑĩ ÑĥÐ²
Ij oi
Ġk wiet
Ġacc Ã¨s
ty ka
Ġbe kann
Ġcompr ar
Ġmin utos
ĠÑĢÐ°Ð·Ð²Ð¸ÑĤ Ð¸Ñı
bbra io
ĠÐº ÑĥÐ¿
ĠÑĢÐ°Ñģ Ð¿Ð¾Ð»Ð¾Ð¶
Ġda ta
ãĥĪ ãĥ¬
Ġf rais
Ġs ob
Ġå ŃĲ
ure au
ï¼ Ł
æĢ ¥
cion ado
Ġcol lec
Ġter m
Ġte ma
Ġlo g
æĬ Ģ
Ġth á»ĳng
ÑĢÑı Ð´
li ers
Ġeff ica
Ġda te
est ety
czy na
ãĤ¸ ãĤ§
ÐµÐºÑĤ Ð¾ÑĢ
Z Y
Ġ5 3
te dy
ĠK unst
Ġb ut
ĠÐ¾Ñĩ ÐµÑĢÐµÐ´
ĠSe p
Ġch yba
ĠÑģÑĢ Ð°Ð·Ñĥ
Ġcontin u
r ich
ĠN utz
Ð¾Ð· Ð½
Ġw ymi
å´ İ
Ġãĥĸãĥ© ãĥĥãĤ¯
ti cia
Ġrecen sioni
ãģĵ ãģ¡ãĤī
è¦ ª
om ini
Ġpo Å¼y
b ym
Ġfin an
ÅĦ ska
am il
Ð´Ð° Ñĩ
Ġsp or
wick lung
ĠÐº Ð¼
å¤§ åŃ¦
Ġb iá»ĩt
Ġ ung
ei to
ier a
Ġmar que
k ten
iel le
Ġr in
u ki
Ġh ommes
Ġæ¥ Ń
ei ght
ãĤĵ ãģ©
ort un
ĠG ener
gos to
Ġas sez
ÐµÐ² Ð¾Ð¹
Ġpare ce
ĠÐ¿Ð¾Ð´ Ð³Ð¾ÑĤÐ¾Ð²
Ġma rzo
ter iaÅĤ
mer y
ĠS ac
ĠP ierre
Ġeur opÃ©
ĠSer vi
on nen
ĠÐ¿ ÑıÑĤ
Ġre fer
Ġh Ã³a
Ġs iamo
ĠN uo
ĠL ei
ĠÐł Ð°Ñģ
k us
Ġp Ã©
ĠÑįÑĦÑĦ ÐµÐºÑĤÐ¸Ð²
dos e
ĠK u
ĠÑĢÐ°Ð±Ð¾ÑĤ Ñĥ
ĠÐ¼ Ñĥ
ens ione
ĠBras il
Ġjed n
ĠÐ¿ÑĢÐ¸Ð½ Ð¸Ð¼
Ġvo ll
Ġpropr ie
e ux
ĠÑĩÐ°ÑģÑĤ Ð¸
Ġ ÅĤat
er es
Ġdes ta
iss ent
Ġnun ca
Ġproble mas
ãĤĴ ãģĶ
Ĭ ±
Ġbe f
Ġmus ica
åį °
AL E
ver no
Ñĩ Ð¸ÑĤ
Ġnaj bardziej
åĨ į
e urs
Ġd r
Ð¾ÑĢ Ð¾Ð¶
Ġdire c
Ġwz glÄĻ
áº³ ng
ĠÑĥÐ· Ð½
Ġw Ã¤re
ab ilidad
çķ °
Ġsais on
ĠS ono
Ġno che
le ist
ĠÐ¶Ð¸Ð·Ð½ ÑĮ
ĠÐµ Ð²
Ġs ci
ach e
ĠC ie
SI 6
k oÅĽÄĩ
iáº¿ u
Ġfu era
ol f
ĠÐ·Ð°Ðº Ð»ÑİÑĩ
re cht
Ġfaz er
ĠÑģÐ¾Ð± Ð¾Ð¹
Ġon ly
â ĸ
ãĥŃ ãĥ³
ĠVers and
Ġku rz
by t
é¦ ¬
pl atz
Ġwo llen
åĽ ²
v ista
Ġpo ch
Ġcontro l
Ġfe u
ĠD r
Ġser ie
áº§ y
ĠHotel s
Ġderni Ã¨re
Ð¸Ð² Ð°ÑİÑĤ
ĠktÃ³re go
Ġver so
Ġå½ ¼
Ġf Ã¡
Ġpo ints
ĠBeit rag
ut zen
ĠÑģ ÑģÑĭÐ»
ĠÑĢÐµ Ð°Ð»Ð¸Ð·
ÐµÑĢÐ± ÑĥÑĢÐ³
Ð¾Ð± Ð¸Ð»ÑĮ
cze ÅĽniej
ti llas
U N
r ÃŃa
Ðł Âµ
Ġ": {"
ĠÐ¾Ð±Ð»Ð°ÑģÑĤ ÑĮ
Ġse us
Ġgia o
Ġpar ten
Ð¸Ðº Ñĥ
la ck
Ġth Ã©
ĠÐ¾ÑĤÐ·ÑĭÐ² Ñĭ
Ġa tra
ch s
ĠÐ¿Ð»Ð¾Ñī Ð°Ð´
ĠÑĤÑĢ Ð¸
Ġd Ã¨s
Ġein ige
Ġins ieme
Ð» ÐµÑĩ
Ġinforma tion
ãĥ¼ãĥĸ ãĥ«
Ġen s
Ġtá» ī
¿Ģ å®ī
ä¹ ħ
os es
ĠÐ° Ð±
ar od
çµĲ æŀľ
Ġm ano
Ġth Ãªm
Ġo ft
æĻĤ ãģ«
Ġjourn Ã©e
c itÃł
p el
Ð¾ÑĢ ÑĥÐ¼
Â ¼
Ġr á»ĵi
ĠJos Ã©
ĠI ni
ĠÐ± Ð°Ð»
Ġstycz nia
Ġ$ (
ãģ® ãģĤãĤĭ
ĠÐ¿ ÑģÐ¸Ñħ
ier ra
Ġtr ung
op ej
le il
çĻ» éĮ²
h mer
æĺ ł
ĠÑĩ ÐµÐ³Ð¾
ĠÐ¿ Ð°Ð¼
ĠA h
ĠGesch Ã¤ft
Ġta ille
Ġmu zy
Ġdo kument
en nen
Ġs vol
Ã³ s
ĠÐ¾Ð± ÑĢÐ°Ñī
Ġn ier
a teur
ĠÐ¿ÑĢ ÐµÐ²
Ġstron ie
ĠãĤ¯ ãĥŃ
Ġuti liz
ãģ£ãģŁ ãĤĬ
Ġc ade
ĠS y
Ġv ais
Ġcor ps
Ġcons ider
Ġmo c
Ġl á»±c
hl er
ĠczÅĤ owie
la ng
ãĤĬ ãģŁãģĦ
Ġãģ ¿
ãĥĭ ãĥĥãĤ¯
Ġob owiÄħz
ï¼ ļ
ĠÐ¾Ð±Ñī ÐµÑģÑĤÐ²
ï¼ Ļ
é£ ²
Ġproble ma
Ġ4 9
ĠF er
Ġ1 er
a ter
ĠÐ½Ð° ÑĥÑĩ
ÐµÐ» Ð¾
ĠÐŀ ÐŀÐŀ
ĠÐĴ Ð¸Ð´
Ġtemp or
Ġau g
çµĮ é¨ĵ
Ġs el
ĠÐ²ÐµÑĢ Ñģ
ĠÐ¿ÑĢ Ð°Ð·Ð´
iej ÄĻ
ĠÐ½Ð°Ð¿ ÑĢÐ¸Ð¼ÐµÑĢ
Ġmain tenant
ĠZ um
Ġsc or
ĠÐ±Ñĭ Ð²
p unkt
Ġcen y
Ġt ÃŃch
su ite
Ð°Ñģ Ð¸Ð±Ð¾
Ġc lar
ĠÐ¼Ð°Ð³Ð°Ð· Ð¸Ð½Ðµ
Ð ¨
Ġann unci
ĠÑģ Ð¿ÑĢÐ°Ð²
éĥ¨ åĪĨ
Ġjun io
Ġpa Åºdzier
us to
æĹ¥ ãģ®
au en
a g
ĠÐŃ Ðº
Ġch odzi
Ġab ril
tt utto
is iÃ³n
de z
Ġjes tem
y ÅĤ
ãģĮ ãģĤ
°¡ åįĺ
ĠÐ¼ÐµÑĤ Ð°Ð»
Ġh Ã¶
Ġ7 5
Ġlo i
ª å¼ı
ĠÐ¿ÑĢÐ¸Ð¼ ÐµÑĢ
ãĥª ãĤ¹
Ġho áº¡t
Ġli bre
ĠÐ½ Ð°Ð¹ÑĤÐ¸
Ġwie m
y j
m Ã©e
U S
ĠNe gro
Ġe ig
Ġreali z
Ð» ÐµÐ³
ĠL in
u di
Ġsyste m
ĠArbeit s
ĠGem ein
ĠÐ¡ Ð°Ð½
n ich
Ġu bi
ãĤĦãģĻ ãģĦ
ĠRe ise
Ġt ito
ĠCh er
Ã©ri ca
ĠR os
Ð°Ðº ÑĤÐ¾ÑĢ
gli ere
èĪ Ĺ
ãģ®å ī
ĠÐĶ Ð°
Ġs ca
æ² ¢
æİ ¢
Ġk am
Ġdisf ru
Ġpl u
ãģ®æ Ħ
Ġcab e
Ġbud ow
Ġãģ »
ri ca
Ġti Ãªu
Ġin wes
Ð½Ð¸ ÑĨÐ°
Ġd or
Äħc ych
ĠSicher heit
Ġzna le
m eld
Ġdesarro ll
ck s
Ð¾Ð» Ð°
ĠÐ½ Ð¸Ð·
ĠÐ´ Ð¸ÑģÐº
ĠÐ´Ð¾ÑģÑĤ Ð°ÑĤÐ¾ÑĩÐ½Ð¾
Ġa ktu
ãģ© ãĤĤ
Ġkonn te
Ġï¼ ĵ
æ¸ ©
Ġs are
ent y
ĠH am
ĠÐ² Ð»Ð°ÑģÑĤ
é ī
Ġar beit
çĲ ĥ
Ġtiáº¿ ng
Ġimp e
Ġk ry
Ã¨ tres
Ð³ ÑĥÑģÑĤ
ĠS ec
Ġten emos
ĠE mp
v ado
ĠÐ¿ Ð¸Ñģ
Ġn owo
Ð°Ð½ Ð½ÑĭÐµ
b ro
Ġth at
ĠÐ½ Ð°Ð»Ð¾Ð³
ĠO k
Ġlib ro
tem ber
Ġexp res
Ñģ Ð°
gn Ã©
Ġni es
è¿ ½
ru ppe
Ġnasz ej
ĠdÅĤu go
alidad e
ĠÐºÐ¾Ð½ Ñģ
ben d
Ġdonn er
ul os
ĠEn tre
p le
Ð° ÑģÑĤÐ²
g ation
Ġæ ¨
it to
en en
ar Ã³w
Ð¸Ð· Ð¼
ãĤ¢ ãĥĹãĥª
Ġ4 2
ĠÃ©ta ient
Ġesemp io
èĪ ¬
Ġde ta
ĠH ay
ut ter
ĠS anta
ĠG obierno
Ġa fec
ĠÐŁÑĢ Ð¾Ñģ
Ġch á»ĭ
Ġb el
ĠÐ¿ÑĢ Ð¸Ñħ
Ġnost ri
ĠE m
ĠÐº Ð°Ð±
ĠS P
wi Äĩ
Ġparticol are
Ġsemp lice
ãģĦ ãĤį
ĠÄĳ Æ¡n
ÑĥÐ½ Ð°ÑĢÐ¾Ð´
Ġãĥ ļ
Ġger ne
Ġwer s
ĠEsta dos
f il
Ġse mb
Ġmies iÄħ
ãĥ ¶
ãģĦ ãģĳ
reich en
Ġme glio
ÑĤ Ð¾Ð²
Ġnu it
Ġd ow
Ġh t
éĢļ è²©
ãĤı ãĤĮãģ¦
Ġv Äĥn
Ġes ter
ĠSch warz
ĠF unk
Ġç§ģ ãģ¯
Ġv ÃŃ
ĠÑįÑĤ Ð¸Ñħ
vie w
Ġé ĥ
ĠpiÃ¨ ces
ĠR ic
men o
Ä Ħ
ĠÅ¼y cie
Ġè Ĥ
ĠGr and
ãĥĻ ãĥ«
ĠBewert ungen
ze u
b lo
Ġver sion
ĠE T
ri Ã¨re
ant as
3 8
Ġser ait
ãĥ³ãĥ Ħ
k tion
ĠÐ¸ÑģÐ¿Ð¾Ð»ÑĮÐ· Ð¾Ð²Ð°ÑĤÑĮ
Ġa Å¼
Ġcara c
Ġg obierno
it ti
is Ã©
Ġver fÃ¼
Ġs Ã»
ĠÑĤÐ°Ðº Ð¾Ðµ
ĠSt rona
jÄħ ca
ãģĬ ãĤĬãģ¾ãģĻ
å¸ °
ĠÐº Ð¾Ñģ
Ġl uo
Ġsigui ente
us iÃ³n
ko ÅĦ
Ġrep rÃ©sent
dzi Äĩ
ĠåĨ ħ
Ġper mi
ĠÐ¿Ð¾ÑĤ Ð¾Ð¼Ñĥ
Ġima ges
Ġnavi gation
å± Ĭ
ĠFl ug
ãĤī ãģ«
ĠP age
ĠH Ã´tel
Ġb lanc
Ġau tori
rÃª t
ĠÑĩÐ°ÑģÑĤ Ð¾
rzy sz
Ġnh au
Ġl iste
on ej
âĶģ âĶģ
æĽ ²
Ġa cheter
Ġ4 6
ĠÃ©tu di
Ġra mach
ĠI mp
Ġo l
al o
Ġques te
cze k
it zen
t wo
Ġdi ciembre
Ġcu atro
è² ł
ĠÐ¿Ð¾ÑĤ Ð¾Ð¼
Ġofer ty
Ġç ģ
Ġw sz
ĠÐ¾Ð´ Ð½Ð¾Ð¹
Ġty god
Ġprodu cto
Ġl arge
Ð¸ÑĢÑĥ ÐµÑĤ
å¡ Ĺ
ãģ§ãģĹãĤĩãģĨ ãģĭ
T Y
CI 6
an ym
Ġpres enta
ĠEr fahr
éł ĥ
ç· ¨
ãģ®å ĩº
ĠÑĩ Ð¸ÑģÑĤ
7 4
ĠÑģÐ²ÑıÐ· Ð¸
r era
ç Ī
Ġa os
Ġczy n
Ġmer cato
ĠZ d
re g
ĠÐŁÐµÑĢ Ð²
Ġwy glÄħda
ä½¿ ãģĦ
Ġb ol
Ġli vello
ĠMad uras
Ġoc tubre
Ġus ÅĤug
ĠGar ten
Ġå¤ ©
ĠÐµ ÑīÑĳ
ãĥ¯ ãĤ¤ãĥĪ
áº¯ m
Ġac er
½ ¢
ra t
a ine
Ġ5 9
Ġespa ce
Ġnie j
ãģ¾ ãģĹãģ¦
ta ta
Ġszczeg Ã³ÅĤ
ĠP rÃ©
Ġprogram me
ÑģÑĤÑĢÑĥ Ð¼ÐµÐ½ÑĤ
Ġviel en
ĠZ ak
I n
ãģª ãģĳãĤĮãģ°
Ġb out
Ġm unicip
ĠE du
ĠÐ¿ÑĢ Ð¾Ðº
Ġc itas
Ġraz em
ien tos
Ġza ba
Ġt Ãªte
ĠÐ¿ÑĢ Ð¸ÑĢ
Ġinter na
Ã¬ n
Ġoff i
ĠãĤ¹ ãĤ¿
c om
ĠPubli Ã©
Ġdev ant
ĠÐ´ ÑĥÑĪ
ĠÑģÑĢ Ð°Ð²
odi ce
ĠWe g
co li
Ġw pis
ci mento
ãģ¾ ãģł
Ġla ta
or ta
2 00
Ð¾Ð± Ð¾Ð´
Ġtr á»Ł
Ġpeti ts
Ġlis top
Ġwen ig
Ġsitu aciÃ³n
Ġcar atter
ĠÑĥ ÑĢ
Ġczerw ca
Ġsi m
li k
äºº ãģ®
ri gen
Ġs ites
Ġne gli
Ġus t
Ñİ Ð·
Ġty pu
Ġne u
Ġser wis
d ruck
to res
Ġsegu ir
ĠÑĢ Ð°Ð´Ð¸
Ġres s
ien i
ĠÅ¼ ad
p re
Ġprop re
ĠÑĤÐ°Ðº Ð¸Ñħ
Ľ ¸
Ġpr Ã¡c
ĠOr t
Ġmilli ons
Ġsopra ttutto
Ġpod staw
ãģ§ ãģĬ
ãģĻ ãģĲ
Ñį Ð½
Ġpom i
i ra
s cy
ĠC ono
èĢĥ ãģĪãģ¦
x to
ĠHer ren
la f
ĠNo tre
Ġv it
Ð¾Ð¼ Ð½
Ĭ ãģ³
æ°Ĺ ãģĮ
Ġp in
ĠJ uni
ĠÑģÐ»ÐµÐ´ ÑĥÐµÑĤ
siÄĻ bior
ãĥ³ãĤ¿ ãĥ¼
ĠÃ ĭ
Ġqu á»ĳc
Ġami gos
à ¸
å¤ ª
Å »
Ġincl uso
ĠF uÃŁ
ki er
) .
Ð¾Ð²Ð°Ð½ Ð¸Ð¸
Ġactiv itÃ©s
H o
ĠP ER
Ġmigli or
Ġæ ¸
ĠÐºÐ°Ðº Ð¾Ð¹
ãĥ¼ãĥ« ãĥī
Ġsta tt
Ġ5 4
Ãª t
Ġroz wiÄħz
ÐµÐ¹ ÑĤ
ÑģÐ» ÑĥÐ¶
us za
Ġmani Ã¨re
Ðķ ÐĿ
Ð¾ÑĢ Ð¾Ð½
Ġï½ ¥
ĠåĪ Ŀ
Ġgus ta
Ġalgun a
Ġde tta
Ġpesso as
ĠA L
cri p
a te
ãĥ ĺ
Ġkwiet nia
Ġmi asta
ĠÑį Ð»ÐµÐ¼
ci da
Ġra ison
Ġge hen
ĠÐ±Ñĭ ÑģÑĤÑĢÐ¾
Ġåı £
ãĤģ ãģŁ
Ġqu o
Ġpon er
niej sze
de p
und heit
ĠÑįÐ»ÐµÐºÑĤÑĢ Ð¾Ð½
Ġacqu a
Ġzd jÄĻ
Ġh Ã¤t
ĠÑģÐ¼Ð¾ÑĤÑĢ ÐµÑĤÑĮ
æľ Ŀ
ĠÂ ¦
ĠÐ¾Ñģ Ð½
vis iÃ³n
d W
sI m
li cz
Ã¼ hr
Ġtu taj
k tÃ³
ãĥĬ ãĥ¼
Ġpr is
Ñĩ Ð¸Ð²
© ĭ
ĠMÃ¤ rz
ĠÐŁ Ð¾Ðº
en sa
Ð³ÑĢ Ð¾Ð¼
ãĤĴ ä½ľ
Ġa re
Ġmul ti
Ġte il
U L
gu ir
Ġj ue
ard s
Ð¢ Ðŀ
Ð°Ð½Ð´ Ð°ÑĢÑĤ
Ġr it
Þ °
Ġgiá» Ŀ
Ġalgun as
ãĤ¢ ãĤ¤
äºĭ æ¥Ń
ĠgÃ©nÃ©ra l
ãģ§ ãģĤ
r Ã¤n
ĠÐ° ÑĤ
Ġtrova re
åŁ İ
Ġfa vor
ĠPrze d
Ġsi cu
ĠãĤĤ ãģĨ
ber t
Ġmie Äĩ
æ¸ Ľ
Ġm ach
vers itÃ©
uest as
Ð¾Ð± ÑīÐµ
ÑĢ ÐµÐ·
ĠY a
Ġjo ven
Ġvol te
èĤ ī
Ġch ica
ĠUni versidad
ä¸ĭ ãģķãģĦ
ŀ į
Ġgro ÃŁ
Ġf ich
ĠCom me
ĠÐ·Ð°Ð± Ð¾Ð»ÐµÐ²
Ġin ver
ĠVer b
Ðķ Ðł
Ð¸Ðº Ð°Ð½
Ġc anti
ĠCon se
Ġlo cation
p endant
èĬ ±
ĠÅĽwia t
ãĤ¹ãĥĨ ãĥł
Ġtr ÃŃ
å£ ģ
ĠBe ispiel
Ġar ticolo
ell schaft
ãģłãģĳ ãģ©
åľ Ł
ĠÐºÐ½Ð¸ Ð³
ra to
ĠSp iele
Ġw Ã¤hrend
Ġse ptiembre
Ñı Ð¼Ð¸
ä¼ ¼
Ġofre ce
3 4
Ġr ue
ola zione
w ane
Ġje ux
Ã³r ia
Ġenvir on
Â ¨
Ġv áº¥n
éģķ ãģĦ
Ġj unto
ÑĬ ÐµÐ¼
Ġpol ity
ĠÐŀ Ð½Ð¸
Ġcam bia
æľ į
iO i
ĠÅĽ ci
ĠCÃ³ mo
Ġ q
ti Ã³n
ĠæŃ £
ĠpÃºb lico
an owi
r ÃŃ
Ã¶ff entlich
Ġincont ri
ur i
bra uch
ĠM illi
ĠkaÅ¼ dy
ãģªãĤĵ ãģ¦
: .
Ġno viembre
ãĤĬ ãģ®
Ġg ry
ĠNe w
age m
Ġele g
ĠvidÃ© o
ĠÐ´ÐµÐº Ð°Ð±
Ð¸Ð½ ÐºÐ¸
ÑģÑĤ Ð°Ð½
å¤ ľ
Ġsoci ales
ĠA ma
ÑĢÐ° ÑĪ
ĠÐ½ Ð¾Ð³
Ġo ttobre
Ġh eight
ĠÑģÐ²Ð¾ ÐµÐ³Ð¾
Ġen ero
Ġchar akter
Ġaut our
Ġcomun ica
ãģ¹ ãģį
ĠÐŀ Ñĩ
Ð¡ Ð¡
ĠÐºÑĢÐ°Ñģ Ð¸Ð²
is to
di r
Ġ48 5
ch y
ĠÐ² ÑĢÐ°Ñĩ
ĠP el
Ġju lio
ĠÐ½Ð°ÑĢ Ð¾Ð´
ĠÑĢ ÐµÑģ
ĠÐ¿ÑĢÐµÐ¿ Ð°ÑĢ
ĠdiffÃ©r ents
Ġd áº«n
isten cia
Ġpi cc
Ġæ¬ ¡
ÐµÐ½ Ð´Ð°
rz enie
ĠR ad
ĠÑıÐ½ Ð²Ð°ÑĢ
ĠP au
ãĥª ãĥ³ãĤ°
ĠÑģÑĤ Ð°Ð»
Ġan o
åį ´
åį Ĺ
ĠDes ign
ĠDe z
ta kt
Ġag it
Ġv arios
Ġ Åº
res so
isch es
Ġcu á»Ļc
Ð½ Ð¸ÑĤ
ĠOdpowie dzi
Ġbu dy
Ġlin ks
ãĥĸ ãĥŃãĤ°
ĠÐ´Ð¾Ð¿ Ð¾Ð»Ð½Ð¸ÑĤÐµÐ»ÑĮ
ara ciÃ³n
è¡¨ ç¤º
M A
Ġter ra
ï¼ ¡
ãĤ¦ ãĥ³
Ġf l
Ġtele fon
ãĤ ¾
Ġactiv itÃ©
Ã¤ ter
Ġpas o
ãĥį ãĥĥãĥĪ
ĠÐ½ Ð¾Ñĩ
pa gna
ir s
Ġst anie
Ġht ml
Ġç´ Ħ
Ġh emos
les s
ãģŁ ãģı
Ð¸ÑĨ Ð¸Ð½
ni cas
ãĥĿ ãĥ¼ãĥĪ
Ġt as
to ber
Ġ( '
le gt
Ġcli ent
Ġad ministra
Ġme dia
ĠsÃ© jour
å¤ī ãĤı
p om
ãģĮ ãģĬ
Ġno t
ĠF ir
ca li
ĠN etz
Ġh y
ĠF ol
ĠÐ¿Ð¾Ð´ Ð°ÑĢ
ĠÑħ Ð¾Ð·Ñı
ĠÐł ÑĥÑģ
Ġb or
ĠEr geb
ĠEn er
ĠÐ²Ð½Ð¸Ð¼ Ð°Ð½Ð¸Ðµ
ĠÑģ Ñħ
I ER
ĠÑĢ Ð¾Ð·
ĠÐŁÐµÑĤ ÐµÑĢÐ±ÑĥÑĢÐ³
Ġm erci
ce ll
Ġklas y
ĠA nh
ä½ľ åĵģ
ĠÐ· Ð°ÑģÑĤ
ÑĥÐ»Ñı ÑĤÐ¾ÑĢ
Ð¸Ð½ Ð°Ð¼
ĠDes de
Ġag rÃ©
as to
enn ent
ĠÐ¼ Ð°Ñı
hal t
Ho tel
ĠÑģÐ°Ð¹ÑĤ Ð°
ÑĢ Ð¸ÑģÑĤ
Ð¾Ð½ ÑĥÑģ
Ġmes i
Ġmelh or
ÃŃcul as
kow i
ĠãģĿ ãģĵ
ĠÐ¾ÑĤÐ´ ÐµÐ»ÑĮ
Ġsitu ation
ĠGro ÃŁ
Ð¼ Ð°ÑĤ
Ġz da
æĬ ľ
ĠAs ÃŃ
ĠB ien
Ġå¥³ æĢ§
Ġå¼ ķ
Ð¸Ð´ Ñĥ
il ar
en dere
Ġden en
ÃŃcul os
Ġpod sta
Ġph Æ°Æ¡ng
mp a
m ber
ĠÑģÑĤÐ¾ÑĢ Ð¾Ð½Ñĭ
Ġdi v
b m
çĦ ¼
Ġï¼ į
Ð¾ÑĢ ÑĮ
Ġu da
èª¬ æĺİ
cor ts
Ġcuer po
åĭ Ł
ãĥĥ ãĤŃ
ri ft
vis ion
ãĤ« ãĥ¼ãĥī
z ÅĤ
Y 2
Ġ\": \"
ĠãĢį ãĢĮ
ĠÐ¾Ðº Ð¾Ð»Ð¾
Ġz de
Ġgro ÃŁe
Ġs Ã³
æĶ ¹
Ġå± ±
Ġzak o
Ġap are
Ġur l
Ġge macht
Ġgi ugno
ç¾ ©
ĠDE L
Ġesp anol
åı£ ãĤ³ãĥŁ
Ġre al
ĠMa il
und i
ĠÑģ ÑĥÐ±
Ġge mein
ï¼ ³
ĠprÃ© cis
ãģ®å °
ãĥĬ ãĥ«
ĠMit glie
Ġrepres ent
ĠMit tel
og le
Ġpen se
ÑĪ Ð¸Ð±
Ġna z
Ġp ein
Ĵ° å¢ĥ
Ð°Ð½ Ðº
ch io
Ð¾Ð½ Ñĩ
Ġa ggior
Ġvis ita
ra um
Ġm essage
Ġla iss
schie d
li cy
Ð² Ð¸Ð½
Ġè ¶
i ques
Ġs olu
ĠN á»Ļi
Ġch Æ°a
ub o
Ġun as
Ġcham bres
Å¼ Äħ
ĠG dy
Ġde ter
Ġje une
ĠMar kt
la tion
Ġpr ue
Ġbei den
Ð½Ð¸Ð² ÐµÑĢÑģ
Ġencuent ra
ãĥ³ãĤ· ãĥ§ãĥ³
ste ller
ĠÃ ķ
7 6
Ã ĳ
Ġl Ãºc
Ġ ðŁ
ĠT age
ro y
æĴ ĥ
Ġãĥ İ
ĠAug ust
Ġapp are
Ġr isch
ĠN Ã£o
ĠPro zent
ĠÐ· Ð½Ð°
Ġwrze ÅĽnia
ro id
d is
ĠÐº ÑĢÑĥÐ³
b bero
to waÄĩ
ãĥ³ãĥ Ķ
ãĤī ãģļ
amil ie
ge m
or ÃŃa
åĩºä¼ļ ãģĦ
ro ng
ĠÐĳ Ð¾Ð»ÑĮÑĪ
Ġb al
ãģ¾ ãģ¨
Ġ ãģ£ãģ¦
æľ «
Ġry nku
tive ment
Ġw issen
Ġprzy sz
ĠãģĤ ãģªãģŁ
ĠP AR
Ġfr ente
pu ter
ãģ« ãģ¨
ais e
Ð¿ Ð¸Ð¾Ð½
Ġa Ãºn
ÐĽ Ð¬
ÐºÐ¸ Ð´
Ġokre ÅĽl
f rei
b l
ĠÑģ Ð¸Ð½
Ġp elle
ãĤ² ãĥ¼ãĥł
ĠÐ¾ÑĤ Ð¼ÐµÑĤ
iss ione
as e
Ðº Ð¾Ð³Ð¾
å°ĳ ãģĹ
Ġb aj
Ġparti cip
ãĤ¹ãĤ¿ ãĥ¼
Ġla nge
ĠÐĶ Ð¾Ð±Ð°Ð²
ĠÐºÐ¾ÑĤÐ¾ÑĢ Ð¾Ð³Ð¾
Ä Ĳ
Ġb Ãªn
Ġcondi tions
on ego
Ġbor der
Ġç ¦ı
æ »
Ġs ettembre
Ġb ad
ĠÐ¿Ð¾Ð·Ð²Ð¾Ð»Ñı ÐµÑĤ
Ġsicu rezza
Ġet wa
Ġod p
Ġen fer
Ġpra tique
ÑĥÐ½ ÐºÑĤ
Ġjes te
Ġfun zion
t ne
Ġne gro
Ġmen sa
jou ter
Ð¾ÑĤ Ð¸Ð²
c ter
Ġpour rait
Ġl argo
ĠÑĤ Ð²Ð¾ÑĢ
ĠÐĺ Ð¼
ĠãĤ¢ ãĥ«
Ġlip ca
ÑģÐº ÑĥÑİ
en as
Ġz do
at te
ĠÄĳá»ģ u
ãĥĥ ãĤ«
ĠS Ã©
ªå¼ı ä¼ļç¤¾
ç§ »
ĠFra u
se mb
Ġi hm
ĠÐĴÐ»Ð°Ð´ Ð¸Ð¼
ĠÐ¿Ð¾Ð´ ÑħÐ¾Ð´
fi cial
Ġtra vers
ft ware
Ġso gar
ĠÐ§ ÐµÑĢ
ĠÑĩÐ°Ñģ Ð¾Ð²
ig lie
t ante
Ġar gent
ĠÐĲÐ½ Ð´
ur t
ĠÐ¼ Ð°ÑģÑĤ
ĠKom m
Ġl ire
Ġ... .
Ġ! !
Ã® t
V y
ĠduÅ¼ o
ĠUni dos
ãĥ© ãĥ³ãĤ¹
ĠÑģÐ¾Ð² ÐµÑĤ
Ã¨ mes
li gen
ĠsÃ© lection
ux e
Ġso cietÃł
Ġdem and
Ġwy p
age ment
ĠG ia
an ten
Ã« l
ty n
Ġent ra
Ġla bor
Ð¼ Ð°ÑĤÑĢ
ĠMi tarbeit
ĠÐ²ÑĭÐ¿ ÑĥÑģÐº
ĠÐ¢Ð°Ðº Ð¶Ðµ
ti to
è¨Ģ ãģĨ
éĥ ¡
ÑĢÑĥ ÑĤ
ĠâĨ Ĵ
è¾ º
ĠÑĤÐµÐ¿ ÐµÑĢÑĮ
áº¥ m
uni ka
ÐµÑħ Ð°Ð½
si co
ous el
ãģ® ãģł
ãĥ© ãĥł
ĠL ou
ĠÐºÐ» ÑĥÐ±
æĬ ŀ
u elle
ĠM ode
de ut
ĠÐ² ÐµÑģÑĮ
Ġa ction
Ġnuo vi
Ġw ido
ĠRes p
d ra
ĀĀĀĀĀĀĀĀ ĀĀĀĀĀĀĀĀ
Ġpotre bbe
Ġå¤ ļ
Ġnue vos
ĠÐ¿Ð¾Ð´ Ð¾Ð±
ĠA ir
olesc ente
Ġse ctor
a W
Ġde cy
ĠÐļ Ð¾Ð³Ð´Ð°
g Ã³w
i ble
tycz nych
á» ħ
ĠA ut
Ġfeb rero
ĠA t
Ġå Ł
ĠÐ½Ð¸Ðº Ð°Ðº
ãģĹãģŁ ãĤī
Ġparti do
Ġleg ge
O K
ãĤª ãĥ³
Ġnie go
Ġcoment arios
Ġvis ite
ng er
Ð°Ð¼ ÐµÐ½
zia l
qu is
ne hmer
ĠMo Å¼
ĠOk tober
Ð¼Ð¾ÑĤ ÑĢÐ¾Ð²
Ð°Ðº Ð°
ãģį ãģ¦
ge mein
Ġho Ãłn
ĠS ystem
ĠÐ½Ð¸Ñĩ ÐµÐ³Ð¾
Ġv ai
Ġwsp Ã³l
Ġprz et
å· ®
Ġ Î
y on
for me
Ġr Ã¨g
ĠN icht
pos aÅ¼
ĠÐ¸ÑģÑĤ Ð¾ÑĢ
Ġ0815 30
Ġmigli ori
elÃ© fono
ster reich
ĠkÃ¶nn te
3 9
ĠT ous
us ion
Ġ5 30
Ġci Ã²
24 80
Ġlistop ada
ãĤĦ ãģ£ãģ¦
Ġåº Ĺ
Ġè Ħ
Ġdes a
Ġcz ego
Ġsp esso
Ġa ider
Ġdla tego
ãģ¸ ãģ®
Ġay uda
ĠS Ã¼
ĠÃ£ ÆĴ
ĠÃ Ĩ
Ġtá» ¥
E T
cu p
ĠÑĢÐµÐº Ð»Ð°Ð¼
ĠÐ²Ð½ ÐµÑĪ
Ġtra itement
Ġenvir onnement
ĠÐ¿ÑĢÐ¾Ð´ Ð°Ð¶
ĠÐļ Ð°ÑĤ
ĠÃ©ta blis
ĠÐ½ÐµÐ± Ð¾Ð»ÑĮÑĪ
ĠF u
ĠCi udad
ĠL ub
ni enie
å Ĥ¬
ĠH ombre
Ġactiv idades
Ġat te
Ġpre cis
Ġkra j
ĠApr il
Ġth am
sch uhe
ĠÐ³ ÑĢÐ°Ð½
es sen
Ã¼ns tig
ĠRe gel
ĠÐ¿ÑĢÐ¾Ð³ÑĢÐ°Ð¼ Ð¼
Ġay ant
ĠåĲį åīį
ãĤĴ ãģ¤
ĠÐ²ÐµÐ´ ÑĮ
ÐµÐ» Ðµ
cion ar
Ġl Ã¤s
ĠÃºlti mo
ĠÑģÐµÑĢ Ð²
ĠPare ja
it ud
ĠÐ²Ð¾Ð´ Ñĭ
ĠrÃ©sul tats
éĻĲ å®ļ
ĠWyÅĽwiet leÅĦ
ÅĤ ÄĻ
Ġch cia
ĠWer k
ãĤĭ ãģĵãģ¨ãģĮ
Ã¤ us
inh o
wÃ³ dz
Ġex pos
Ġ485 2480
Ġgru dnia
ra ca
O V
Ġv ista
z ÄĻ
Ġdara uf
åĳ ½
Ġs uff
ĠÐ¼ Ð°ÐºÑģÐ¸Ð¼
Ġb áº¥t
ĠÐ± ÑĥÐº
va ti
ĠÐ¸ÑģÐº Ð»ÑİÑĩ
Ġucz est
ĠMus ik
Ġp Ã³Åº
Ġimp res
te ile
ĠÐ¸Ð³ ÑĢÐ°
cch ia
Ġï¼ī ãĢģ
Ġkann st
ĠI nh
Ġm uer
å® ®
Ġåħ ¥
ĠÑĤ ÑĥÑĤ
ber eich
ĠV ente
Ġu 003
Ġaut ant
Ð¾Ð´Ð°ÑĢ Ñı
Ġcost ru
Ãĥ O
si m
al na
Ġe uch
olo g
ãĥĸãĥ© ãĥ³ãĥī
** **
mi Ã¨re
ĠÐĴ Ð¾ÑĤ
ãĥ¼ãĤ¿ ãĥ¼
ĠÐ¿ÑĢÐ¸ ÑĪ
u dos
c 3
ĠC ent
Ð»ÐµÐ½ Ð¸ÐµÐ¼
wÃ³ ch
ãĤ¸ ãĥ¥
Ĺ i
Ġac om
ĠM or
Ġpro pie
ãĤĴ èªŃ
Ðµ Ñı
ãģĭãģª ãĤĬ
wa ch
ĠÑģÑĢ Ð¾Ðº
ĠA f
ĠÐ²Ð¾Ð» Ð¾Ñģ
ĠÑģÐ²Ð¾ Ð¸Ð¼Ð¸
ãĥ¼ãĥ ĭ
c ada
ĠÐŁÐ¾ ÑįÑĤÐ¾Ð¼Ñĥ
ĠÑģÑĤ Ð°ÑĤ
åĳ ¼
ĠÄĳá»ĭ a
a ciones
liÃ¨re ment
ĠDi os
sta tt
ĠÑĢÐ°Ð¹ Ð¾Ð½
omb ia
ÃŃs ticas
las sen
ĠÐºÐ¾Ð¼Ð¿ Ð°Ð½Ð¸Ñı
h ic
Ġper f
ra le
Ð°ÑİÑī Ð¸Ð¹
ta mi
Ġpun tos
ig h
Ġre ce
ĠBe g
ĠÐŃ ÑĤ
Ġpossi bilitÃł
ĠW iÄĻ
dz enia
va it
ter ial
u che
ĠK ul
ora zione
ĠCh e
our g
ĠÐ¡Ð¾ Ð¾Ð±Ñī
ĠÐ¿ÑĢÐ¾Ð´ ÑĥÐº
Ġre du
Ġri fer
ĠDz iÄĻki
ãĥ« ãĥķ
Ġmod Ã¨le
ãģ» ãģĨ
ãĤĮ ãģªãģĦ
ĥ ħ
Ġac cord
Ġv elo
ĠÐ» Ð¸ÑģÑĤ
ad za
ĠÐ§ ÑĤÐ¾Ð±Ñĭ
Ġè» Ĭ
ĠÑĥÑĩ ÐµÐ±
ĠK ir
t he
u k
Ġnapraw dÄĻ
ĠL ire
ĠÐĲÐ² ÑĤÐ¾ÑĢ
Ġquel que
Ġprzygo tow
ei o
åĽ ł
ĠSep tember
mas ch
Ġch wil
ĠÐ°Ð½ Ð³
mo Å¼
Ġre alidad
Ġda von
Ġani ma
ĠÑĤ Ð¾ÑĤ
Ġpodr ÃŃa
ãģªãģı ãģª
b n
Ġz esta
ej m
use ment
ãĥ¡ãĥª ãĤ«
Â £Â¬
ĠÃ Ĥ
Ð¸Ð± Ð¾Ð»ÐµÐµ
or k
ĠÐ½Ð°Ð· Ð½Ð°Ñĩ
ous se
Ġdes ign
Ġblo g
Ġapplica tion
Ġam Ã©li
ĠÐ²Ðº ÑĥÑģ
Ġmol ti
Ġre cht
åİ »
Ġre con
Ġcho Äĩ
ĠÑĥ Ð¶
ĠmÃ¶ chte
ge ber
ÑĦ Ð¸Ðº
ĠPor n
ĠÐ¿Ð» Ð°ÑģÑĤ
Ð¸Ñģ Ð°
ri os
ĠL un
ĠÐ¿Ð¾Ð» Ð½Ð¾ÑģÑĤÑĮÑİ
Ġques tions
ĠS ommer
ĠamÃ©li or
ÑģÑĤÐ² Ñĥ
çĶ¨ åĵģ
Ġesper ienza
ĠwspÃ³ÅĤ pra
ãģĹãģ¦ ãģ¿
ĠÐ±Ñİ Ð´Ð¶
g ani
Ġ5 6
ĠÑĤ Ð°Ð±
Ġs Ã¡ng
Ġmem bres
åĽ ³
ĠÐ¼ÐµÐ½ ÐµÐµ
g an
gi co
Ġdisp lay
ãģĨ ãģ¡
es se
Ġpod emos
Ġop ortun
ĠN atur
ĠÐĺ ÑģÑĤ
Ġid Ã©e
Ġfal ta
c ados
= =
ãĤĤ ãģ®ãģ§
r ont
Ġdi cembre
ĠÐ´Ð¾Ð» Ð³
Ġr os
st Ã¼tz
ĠÐº ÑĥÑħ
ten ti
Ġch au
Ġswo ich
Ġbus car
pa ciÃ³n
Ġot ten
Ġver sch
Ġsz uka
Ð¸ÑĢ Ð°
Ġau cun
Ð» ÐµÐ¶
wy Å¼
ĠÐ¸Ð½ÑĦÐ¾ÑĢÐ¼ Ð°ÑĨÐ¸Ð¸
ãģ® ãĤ³
Ġart ÃŃculo
Ġcre o
Ġr ichtig
Ġv an
ĠÐ¶Ð¸Ð² Ð¾ÑĤ
Ġind ustr
Ġtrabal ho
ĠVer fÃ¼
Ġpr end
onn es
Ġab ord
ĠãĤ ı
Ġpo ÅĽ
ĠT rong
i tos
Ġcar ousel
ĠçĻ ½
Ġ4 7
ĠÑĩÐ¸Ñģ Ð»Ðµ
h na
ĠRe chts
ĠÑħ Ð¾Ð´
ãģ®å¾ Į
Ġpr ise
Ġgen naio
Ã¡ ria
Ġw nios
Ġsch warz
Ġcoule ur
ĠÐĿ Ð°ÑĪ
Ġimport ant
Ġcu cina
ĠfÃ¡ cil
ĠVer ein
Ġri con
le Å¼
ĠÑĢ Ð°Ð¼
o c
bi lier
ÅĽ la
ç· Ĵ
ina ire
Ġè ħ
ues tos
Ġb ain
Ġlors que
ĠÐ¿ÑĢÐ¸ Ð³
å¹ ħ
Ġpi en
ĠÑĥÑģÐ»Ð¾Ð² Ð¸ÑıÑħ
ĠE ro
ĠL uis
Ġde cl
al nych
ãģ£ãģŁ ãĤī
Ðº Ð°Ð¼
si mi
ste hen
Ġapri le
âĺ ħ
ãģ® ãĤĪãģĨãģ«
qu ad
uy áº¿n
Ġw ych
st Äħ
ĠFre e
Ġnue vas
iv ent
ĠÑĢ Ð¾ÑģÑĤ
Ð¾ÑĢ Ð¾ÑĤ
ï¼ Į
ç¯ Ģ
Ġad ul
ĠL at
Ġv ir
Ð¾Ð» ÐµÑĤ
æ ½
d G
Ġda lej
p en
ÑĭÑĪ Ð»ÐµÐ½
Ġc ura
Ġes cl
å¸¸ ãģ«
ĠH ab
Ġl ig
je wÃ³dz
Ġpomo c
ĠÑĤÐµÐ¼ Ð¿ÐµÑĢ
ĠWeb cam
Ġus ted
g h
ĠÐĲ Ðº
ÐµÑĢ Ð¸Ð½
w ki
ĠÑĢÐ°Ñģ Ð¿ÑĢ
ĠS eiten
Ġat tu
met y
ion a
Ã¤n d
Ġpass Ã©
ĠÐŁ Ð¾Ñĩ
Ð¸ ÑĨÐ¸Ð¸
Ġma ior
ci ÄĻ
Ġsy n
Ġdi men
us Ã¤tz
c une
Ġna cional
Ð½Ð¸ ÑĨÐ¸Ð¿
ĠÑįÐ½ ÐµÑĢÐ³
Ġcu mpli
ent al
Ġbie ten
ĠmÃ© di
Ġosta tni
ãĥ© ãĤ¤ãĥĪ
Ġçģ «
Ġu dziaÅĤ
ĠVer gleich
æİ ²
Ġbuen o
Ġa tenciÃ³n
å° İ
Ġcons om
Ġat ta
Ð°Ð´ Ð°
Ġd wÃ³ch
Â ½
ĠC Ã¡c
uf e
und ial
m s
ie b
Ġt es
c us
Ġcon te
Ġ5 8
ut Ã´t
ĠÐ¼ Ð¾Ñī
ãģį ãģŁãģĦ
è¨ ³
ÐµÐ½Ð¸Ñı Ñħ
Ġf ort
ĠÑĢÐµÐ³ Ð¸ÑģÑĤÑĢÐ°ÑĨÐ¸Ð¸
ĠÐŁ Ðŀ
ĠÐ½Ð¾Ð¼ ÐµÑĢ
Ġç Ł
ãĥ¢ ãĥĩãĥ«
on se
å½ ¼
Ġw ÅĽrÃ³d
ig keit
ĠrÃ©se au
ĠÐ² ÐµÑĩ
ces s
Ġpo za
Ġä¸ ĸ
mi ca
Ã§ u
ĠÐ¾Ð³ ÑĢÐ°Ð½Ð¸Ñĩ
Ġgr ado
ador as
Ġseg unda
ein ander
Ġs w
Ġf ast
Ġre m
ãģªãģı ãģ¦
Ġlo ca
Ġzape w
ãģ®å Ľ
Ġpas ar
ĠT ro
ĠintÃ© rieur
ĠÐŀÐ± Ñī
ĠÃ Ĳ
ĠÃ ı
Ġc Ã¡
ĠÑģÑĢÐ°Ð² Ð½
Ġwyma ga
gg etti
ĠFra gen
Ġa ktue
qu ent
ĠÑģ ÐµÐ½ÑĤ
Ġl iá»ĩu
f as
Ġinter net
ÑĢ Ð¾Ð¹
pp er
ĠÑģÑĢÐµÐ´ ÑģÑĤÐ²Ð°
å± ŀ
Ġtr am
czy ÅĤ
ĠÐľ Ð°ÑĤ
ĠÐ²Ð½ÑĥÑĤÑĢ ÐµÐ½
Ġobje tivo
Ð¸ÑĨ Ðµ
Ġa more
Ġg ens
Ġbesonder s
ĠÑģÑĤ Ð°Ð½Ð¾Ð²
Ġdire tta
ãģĿãģĨ ãģ§ãģĻ
ĠÄĳá»ķ i
ï½ ¥
éĻ į
am es
Ġan zeigen
Ġde ine
ĠT as
Ġqu asi
b ÄĻ
ĠÐ°Ð½ ÑĤ
ÑĭÐ² Ð°ÐµÐ¼
ç± ³
Ġeigen en
Ġres er
ec ta
Ġm asz
ĠÐ»ÑİÐ± Ð¾Ð¹
ier ten
Ġad resse
ĠÐ¸Ð½ ÑĦ
Ġcit tad
ia ge
Ġ! !!
k ra
ãģ« åĩº
âĢ Ŀ
Ġespa cio
ĠCom p
th Ã¨
va mente
ĠS A
Ġmoy en
Ġder echo
ta ri
o ÅĤ
ĠÐºÐ¾ÑĢ Ð¿
" ,"
Ġç¥ ŀ
ĠÑħÐ¾ÑĤ Ñı
Ã ¦
Ġch uyÃªn
Ġesto y
Ġcor res
ve mber
Ġcon du
Ġdo kon
ĠG Ã¤
ÑĥÐ½ Ð´
ĠB u
Ġdiver si
Ġãģ ²
Ġä¸ ĭ
Ð»ÐµÐ½ Ð¸Ð¹
ĠV ol
åıĤ åĬł
Ã² a
ĠI hren
ĠÐ°Ð½ Ð°Ð»Ð¸Ð·
Ð°Ð¼ Ð¿
Ġon e
nh aus
Ġa gosto
em ber
Ġbes timm
Å¼ czy
ĠÐµ Ñĳ
ĠCh ica
ĠpolÃŃ tica
fa ce
cz eniu
ãĥģ ãĥ¥
Ġmod elo
Ġincl u
Ġo zna
r ou
ĠÐ¾Ð±ÑĢÐ°Ð· Ð¾Ð²Ð°Ð½Ð¸Ñı
ãĢ ĳ
ãĥĵ ãĥ¥ãĥ¼
çŃ Ķ
ãĤĴæ Ħ
Ġvi vi
ie ux
ĠÐ¿Ð¾Ð´ ÑĤ
Ġtech n
Ġid Ã©
Ġeffec tu
ç¥ Ŀ
Ã³ vil
ĠSch wei
Ġes tre
ou re
æ ©ĭ
ĠJu gend
ĠÐļÑĢ Ð¾Ð¼Ðµ
ãģĵãģ¨ ãģ«
Ġh á»Ļ
ĠJan u
ĠdÃ©couv rir
Ġple in
Ð»Ñı ÐµÐ¼
c chi
ĠZ iel
Ġima gen
ĠÐ¿Ð¾Ð» ÐµÐ·
ĠãĥĹ ãĥŃ
Ġw raz
Ġf ix
ĠÑĦÐ¸Ð»ÑĮ Ð¼
Ġé ĺ
Ã¤t ze
çĹ ĩ
ĠÑĥÐ¿ÑĢÐ°Ð² Ð»ÐµÐ½Ð¸Ñı
Ġnuo ve
Ġent onces
Ġv aleur
Ġdes tin
ĠÐ¸ÑģÐ¿ Ð¾Ð»Ð½
Ġ ă
Ã³w no
Ðļ ÐĲ
ĠÐļ Ð¸ÐµÐ²
ĠÐºÐ¾ÑĤÐ¾ÑĢ Ð¾Ðµ
Ġpre zzi
Ġngo Ãłi
åĨħ å®¹
ĠW el
Ġlo in
Ġprodu ktu
Ġswo jÄħ
ãĤ¤ ãĥ¬
ĠSu per
Ġsu e
ãĥ³ãĥ ķ
Ġpas sa
Ġka teg
dor f
ĠB ra
Ã¼r ger
Ġpour quoi
ĠÐºÐ°ÑĤ ÐµÐ³
Ġal um
Ġquel li
Ġex tÃ©
ĠÐ¾Ð´ Ð½Ð¾Ð³Ð¾
ow ski
Ġku p
ĵ ģ
ĠãĤ¸ ãĥ£
Ġmedi ante
Ġn owe
w elt
Ġgro ÃŁen
i fic
Ġam Ã©rica
ĠÐ² ÑħÐ¾Ð´
r or
ĠmoÅ¼liw oÅĽci
Ġ ãģĹ
åĬ ©
Ġc ine
ÐµÑģÑĤ ÑĮ
Ġdz is
Ã± ana
va ta
ãĥ³ãĤ ³
ĠÃ¶ ff
Ġinforma cje
ĠÑĢÐµÐ±ÐµÐ½ ÐºÐ°
ÑĮ ÑĤÐµ
ãģ®æ ķ
le cciÃ³n
Ġsi endo
Ġ á»©ng
Ġdisponi ble
ĠpaÅºdzier nika
m Ã©dia
Ġpow ierzch
ant wort
åĩº ãģĹ
ĠCas a
Ġprimer o
Ġch oses
ĠB en
ĠÑĤÐµÐ»ÐµÑĦ Ð¾Ð½
ĠZ ug
Ġlu glio
çİ ī
ãĥ¡ ãĥ¼ãĥ«
Ġseg undo
8 2
Ġtr áº»
Ġitali ano
ch ter
Åĵ ur
ĠÐ¼ Ð°ÑĢÑĤÐ°
ĠMe di
å°Ĥ éĸĢ
ĠWeit er
ab ili
Ġj s
ä¼ļ ãģĦ
ãĥĲ ãĥĥãĤ¯
ut lich
Ġava is
c our
ĠÐ± Ð¾
t wa
å®¢ æ§ĺ
t ente
ãĥĿ ãĥ¼ãĥĦ
ĠÐ·Ð°Ð¿ Ð¸Ñģ
vin cia
Ġmes e
Ġnouve aux
ĠÐ²Ñĭ ÑģÑĤÑĥÐ¿
Ġwy na
Ġsein em
åħ Ĳ
Ġresul tados
Ġkil ku
Ġf le
æĸ¹ ãģ¯
3 6
Ġcho is
Ġch ie
Ġtien es
Ġins titu
Ġkle ine
ç¯ ī
ĠT our
Ġgouver nement
Ð¾Ðº Ð¾
Ġve dere
ĠÃ ³
Ġw prowadz
Ġs á»Ł
Ġ/ /
ãĤī ãģĽ
ĠÐķÐ² ÑĢÐ¾Ð¿
Ġtr an
æ©Ł èĥ½
ĠC entro
Ġprzy kÅĤad
Ġop iniÃ³n
Ġc ru
id es
Ġr uch
Ġå ĳ
Ġ} ,"
ÐµÐ´ Ð¶
Ġami ci
Ġch uyá»ĥn
ĠÐ¾ÑĤ ÐºÐ°Ð·
Ġéĸ ¢
Ġsc ri
Ġprodu ction
ĠÑģÐ°Ð¼ ÑĭÑħ
Ġvis to
ãģ£ãģ ±
ãĥ¼ãĤ ¶
ĠDes n
z os
Ġl an
Ġwy sz
Ġb est
ĠÐłÐ¾ÑģÑģÐ¸Ð¹ ÑģÐºÐ¾Ð¹
ĠÐ¿ÑĢÐ°Ð² Ð¾
ĠÐ¾ÑĤ Ðº
cz aj
Ġle ft
ï¾ ŀ
a uf
et es
ĠC uis
Ġfor um
Ġfaci le
Ġprincip al
Ð¾Ð¼ Ð¸Ð½
ĠHol z
æĴ ®
ĠLie fer
ĠSt Ã¼ck
Ġzawi era
Ã¶r der
vo ll
ĠF R
Ġ9 5
ãĥ¼ãĤ °
Ġæ Į
fica tion
p lan
Ġdos kon
Ġpropr ia
gu ien
gu es
ges tellt
ta Äĩ
éŁ ¿
4 6
uyá» ħn
ı i
ĠR ob
graph ie
di Ã³
li we
ĠÑĤ Ð¾Ð³Ð´Ð°
ĠV ille
Ġt est
Ġayud ar
ĠpÃ¡g ina
ĠÑĤÐµÑĢÑĢÐ¸ÑĤ Ð¾ÑĢÐ¸Ð¸
ĠGr Ã¶ÃŁe
az z
Ġfor ni
on en
ĠÐ³Ð¾ÑĢÐ¾Ð´ Ðµ
ãĥŀ ãĥĽ
ĠÃ© tra
ãĤĮ ãģ¾ãģĻ
ĠÐ³ ÑĢÑĥÐ·
Ġr áº±ng
ĠÑĦ ÐµÐ²ÑĢ
ĠH ombres
ri bu
ĠÐ½ÐµÐ¿ ÑĢ
ĠA y
w ers
ing o
Ġt etas
graf ÃŃa
ĠÐ¡ ÑĢÐµÐ´
çĬ¶ æħĭ
is simo
ĠdÃ©cl ar
Ġa de
Ġal tra
ĠÑģÑĤ ÑĢÐ°Ñħ
cj ach
f lÃ¤
Ġna g
Ġcal le
Ġcanti dad
éħ Ĵ
ĠÐ² ÑģÑı
ĠÐ¿ÑĢ Ð¸Ð·
se gna
Ġap res
ĠÐ¸Ð½ ÑĤ
Ġpo tra
ĠÐ´Ð°Ð½ Ð½ÑĭÑħ
b lick
Ð¾Ñĩ Ð½Ð¸Ðº
ĭ äºº
Ġsoll ten
Ġe li
Ġobie tti
ĠÐ£ÐºÑĢÐ° Ð¸Ð½Ñĭ
ĠÑĤ ÐµÑĩÐµÐ½Ð¸Ðµ
Ġloka li
Ġlo gos
Ĵ æŃ©
Ġsu as
Ġè² ·
mi ar
Ġè¿ Ķ
æµ· éģĵ
ãģ«ãģĬ ãģĦãģ¦
Ġase gur
Ġ5 00
Ġè µ
ÑĪ Ð¸Ñħ
åľ §
Ġtr ak
Ġoc ur
Ð°ÑĢ Ð´
Ġde tto
M j
Ġzosta ÅĤa
ãģ¾ãģĽãĤĵ ãģĮ
Ġac cep
ĠÐ²Ñĭ ÑĪ
Ġave va
Ġon de
Ġro l
ãĥĥ ãĥķ
ĠA ff
Ġimp os
Ð¾Ð² Ð¾
ĠÐ¼Ð¸ÑĢ Ð°
Ġir gend
æĽ ľ
ste in
Ġw czeÅĽniej
Ġli mp
de x
Ġtr itur
ĠNo vember
Ġpla isir
Ġcas os
la ire
Ġau ÃŁer
ri mer
Ġre v
ĠC rÃ©
ĠD ou
od es
ĠÐ¾Ð¿ ÑĤ
el os
Ġser r
O T
ĠprÃ©s ente
ÐµÑĨ ÐµÐ¿
Ġsp rzÄĻ
Ġob ra
ĠRe p
ãĤį ãĤĵ
Ð»Ñı ÑİÑĤ
ĠB el
Ġãĥĩ ãĤ£
ca ciones
ĠÐ²Ð¾ Ð¾Ð±ÑīÐµ
Ġth ÃŃch
ĠÐ· Ð½Ð°ÐºÐ¾Ð¼
ĠPa g
ĠMar t
ĠÑħÐ°ÑĢÐ°ÐºÑĤÐµÑĢ Ð¸ÑģÑĤ
Ġt it
ĠseÃ± al
ãĥĭ ãĥ¥
ĠL iv
si er
ĠÐ¸Ð· Ð´ÐµÐ»
ĠdÃ©c is
as tica
ĠFran ces
ĠPu bblica
ĠGra zie
ĠÐ½Ð°ÑĪ ÐµÐ¹
Ġsar anno
lace ment
Ġ4 1
Ġpl utÃ´t
C A
ĠA p
Ð½ Ð¾Ð³
ĠÐ¾ Ð¶
ĠA N
Ġreg istra
Ġth Ã¢n
Ġdej ar
ĠÑĤ ÐµÑģÑĤ
Z SI6
ki en
ĠP on
Ġde ci
ĠãģĿãģ® ä»ĸ
ĠBes te
ĠÐ¤ÐµÐ´ÐµÑĢ Ð°ÑĨÐ¸Ð¸
Ð¾Ñĩ Ð½ÑĭÐµ
ie ÅĦ
ĠAb s
ĠÐ¿ÑĢÐ¾Ð³ÑĢÐ°Ð¼ Ð¼Ñĭ
Ġè² ¡å¸ĥ
Ġæľ ª
åĲĪ ãģĦ
ÃŃt ulo
ĠÑĢÐ°Ð±Ð¾ÑĤ Ð°
ãģ®å¥ ³
ãģĪ ãģªãģĦ
v ÃŃa
Ġgru ppo
sk Äħ
Ġä» ķ
Ġåİ Ł
ĠÐ ¹
Ġm áº¯t
ĠlÃ¤s st
m men
[ ]
p ia
Ġlong ue
____ ____
Ð¸ÑĤ ÑĢ
d ro
Ġ) :
Ġad el
ĠR et
ĠC ela
ĠÑģ Ð±
Ġmin uti
Ġc ount
ãĤ· ãĥªãĥ¼ãĤº
éĢ Ķ
x ic
Ġvi ol
Ġsie ci
ĠÐ²Ð¼ÐµÑģÑĤ Ðµ
M P
Ġvia j
ĠV á»
éħ ¸
å® ¿
g Äħ
Ġb re
isti che
d el
ĠAl ter
ĠÑĢÐµÐº Ð¾Ð¼ÐµÐ½Ð´
Ġcher che
ĠmoÅ¼liw oÅĽÄĩ
Ã£ i
Ã¶ ne
ĠÐĺ Ð²
ĠK e
k or
g hi
Ġåħ ¬
ĠÐ¿Ð¾Ð± ÐµÐ´
jÄħce go
c Ã©e
ĠZa hl
ĠÐ¿ÐµÑĢ ÑģÐ¾Ð½
ç łĶç©¶
Ð¾Ð» Ð½Ñı
Ġse mble
ĠdiffÃ©r entes
Ð± Ð¸Ð½
æī ĵ
bild ung
Ġunser en
ĠDo ch
Ġ. âĢľ
ĠÐ´Ð² Ð¸Ð³
ĠÃ Ļ
Ġx Ã£
ĠAr gentina
Ġcapa cidad
Ġ0 16
Â ¸
Ġn áº¿u
ÑıÑģ Ð½
ĠãĤµ ãĤ¤ãĤº
å£ °
Ġg l
ĠãĥĢ ãĤ¤
Ð¾ÑģÑĤ ÑĢÐ°Ð½
Ġto p
ãģ® ãģŁãĤģ
Ġar ticles
Ġob tenir
ni ku
Ġprodu ct
Ġs ettore
ĠÑı ÑĢ
ic ol
Ð¾Ð² Ð°Ð»
ãģĹãģ¾ ãģ£ãģŁ
dzi esz
ĠMar ÃŃa
Ġmayor ÃŃa
tor en
Ġh au
ĠAl ors
ãģı ãģ¦
Ġæ ģ
ãĥĥãĤ· ãĥ§ãĥ³
ine ment
Ġn adz
æ į
ĠT re
Ġlo gi
ĠF emmes
Ġannon ce
in do
ĠBe au
Ð¾Ð»ÑĮ Ð½Ð¾
Ġt un
Ġsegu ito
Ġãģĵ ãģ¡ãĤī
Ġ ï
å· ŀ
Ġqu ar
ĠÃ ĩ
Ġc ung
ĠM y
Ġt rzy
ch nik
ĠK li
Ġindi vid
ÐµÐ½ÑĮ ÑĪ
Ġorgani z
ĠC ode
tif i
mar t
Ð¼ Ð¾
ĠÐ³ÑĢ Ð½
ĠÑĢ Ð¸Ñģ
ĠÐ¿ÑĢÐ¸Ñħ Ð¾Ð´
ĠAm or
Ġcu anto
ĠÑĥÑģÐ» ÑĥÐ³Ð¸
ĠW inter
Ġaura it
Ġw tedy
ĠÐ· ÑĢ
ĠM á»¹
Ġder echos
ion ych
or n
Ġãĥ ´
Ġsenti do
ÑģÑĤÐ²ÐµÐ½ Ð½Ð¾
Ġoch ron
è Ĺ¤
Ġl ista
ĠS elbst
Ġå¤§ éĺª
ãĥĥ ãĥĶ
ĠF ern
éĩĳ ãĤĴ
f es
ĠP an
ĠÐ½Ð¾Ð² ÑĭÐµ
us zy
Ð°Ðº Ð¸
ãģªãģ© ãģ®
Ġpre zent
O P
Q UE
ch arge
Ġ200 6
ist ance
ĠÑıÐ² Ð»ÑıÑİÑĤÑģÑı
è ŀį
Ġrela cion
Ġess ay
Ġmiejs cu
áº¯ p
rz t
be ding
Ġsuc cessi
Ġäº Į
ç· ı
ĠBes uch
ab an
Ð¸Ñģ Ð»
ãģĹ ãĤĪãģĨ
ÑģÑı ÑĤ
Ġw h
at ure
Ġv ient
on ym
ĠÑĦ Ð°Ð¹
Ð¾ Ñĥ
Ġgran di
i ro
ie z
ĠProdu kte
ck o
Ġpow sta
Ã¤ te
èµ °
it en
ĠÂ §
Ġch áº¿
wi cz
Ġp iÄĻ
om os
uer re
Ġæ Ł
Ð¸Ð² Ð°Ð½Ð¸Ðµ
æİ Ľ
ãĥĩ ãĤ¶ãĤ¤ãĥ³
ĠÐ¸ÑĤ Ð¾Ð³
iv os
ç ¦ı
Ġter min
ĠÐ¦ ÐµÐ½Ð°
ÑĢ Ð¸
Ġæ Ļ
at ten
ãģĻ ãĤĮãģ°
li on
fÃ¼hr ung
åĭķ çĶ£
è¶ ħ
Ġpubb lico
Ġh Ã¡
Ġzam Ã³wi
tur n
ĠT om
ĠÐ¿Ð¾Ð´ ÑĢÐ¾Ð±
ĠR y
ĠÐ¡ ÐµÑĢÐ³
ĠÐ¿ ÑĥÐ½ÐºÑĤ
c 2
Ġpozw ala
ãģ®å į
Ġre turn
ni u
ĠNe ws
ze ug
is i
az o
t an
ĠÐ±Ñĭ ÑģÑĤÑĢ
Ġcos e
ĠÄĳ Ã¡nh
zo gen
Ġscar pe
tycz ny
ãģ¡ ãĤįãĤĵ
Ã¤ nge
ĠÑģÐµÑĢ Ð´
Ġa cu
Ġpad ding
ï¼ £
ı Ĳ
wia m
cie m
8 5
ĠcrÃ© ation
ĠÐºÐ°Ðº Ð¸Ðµ
Ġfe bbraio
ej os
z ul
Ġt et
ente mente
ĠB lanc
ien ne
Ġconta cto
ĠÑģ Ð¾Ð¿
Ġn ess
Ġzw ar
ãģ® ãĥĲ
ĠdÃ© si
ĠÑĢ Ð°ÑģÐº
Ġa tto
Ġkont ro
ãģ«ãģª ãĤĬ
Ġdi man
Ġesta mos
v io
Ġtechni que
ĠintÃ© ress
Ġå£ ²
å¤ ±
etz en
Ġsa p
Â ·
Ġvá» «a
ĠEin z
Ġri cor
ĠAn n
si ble
ĠÐ¡ Ð¼
Ġtrad u
ĠÑģÑĢÐµÐ´ Ð¸
£ i
w iel
ĠGesch ichte
Ġgio co
ĠÐ¿ Ð°
ãģ®å ¯
ra mi
Ġzar Ã³wno
Ġappar tement
Ġstrut tura
Ġcli entes
Ġcham p
Ð½Ð¸ Ð¶
ti ene
ĠÐ¼ÐµÑĢ Ð¾Ð¿ÑĢÐ¸ÑıÑĤ
Ġperson ale
Ġob sÅĤu
cre di
en vol
Ġquy áº¿t
pp ia
ĠçĻ º
ä½ľ æ¥Ń
lich t
D E
ĠÃ© cole
D I
Ġquel le
Ġ ÅĤad
ä»¥ å¤ĸ
Ġper mite
ĠÐĺ ÑģÐ¿
ĠGe gen
Ġtro chÄĻ
owa ÅĤa
ĠÐļÐ¾Ð¼ Ð¿
Ġpr on
Ġãģ¾ ãģļ
ĠÐ² ÐµÑĤ
k w
ĠãĥĹ ãĥ¬
ãģĭ ãģªãģĦ
Ã °
ĠÄĳ áº·t
Ġazien da
ĠBet rieb
hr t
ĠPe li
l Ã©s
Ġob lig
ta zioni
ini i
çİ ĭ
ĠDez ember
on dere
Ġso ir
ĠÑĤ Ð¾Ð»
Ġqui ere
Ġve ut
Ġph y
ĠÐ¼Ð¸Ð» Ð»Ð¸
Ġswo im
Ġmein er
ĠJanu ar
Ġtu do
ĠR ela
ĠVi vo
ci dos
Ġba gno
Ġsigni fica
Ġgr Ã¶ÃŁ
ie ur
Ġc and
Ġrapide ment
Ġponie waÅ¼
Ġæ Ĥ
á»± a
ãģ§ãģĻ ãģĭ
åŃ¦ æł¡
Ġind Ã©
ca ti
ĠãĤ ®
ĠÑģÑĤÐ¾ Ð¸Ð¼Ð¾ÑģÑĤÑĮ
çĶ· æĢ§
Ġre cu
Ġbe kommen
å ©
ĠÐĿ Ñĥ
ĠÐĴ Ð¾Ð»
Ġnor ma
ujÄħ cy
:::: ::::
Ġâ Ī
éł ħ
æĬ ķ
ĠÐ´ÑĢÑĥÐ³ Ð¾Ð¹
Ġl á»ĭch
mÃ¡ tica
ĥħ åł±
Ġ5 2
Ġhab it
Ð¾Ð² ÐµÑĢ
Ġsier pnia
Ð¸ÑĩÐµÑģÐº Ð¸Ð¼
ãĥĻ ãĥ³ãĥĪ
Ġnaj wiÄĻk
ĠEle kt
er nen
ci ale
ãģ® ãĤ¹
ĠÐ± Ð¾Ð½ÑĥÑģ
ĠÐ°Ð² Ð³ÑĥÑģÑĤ
ras se
Ġmod i
ĠÐ¾ Ð¿Ð»Ð°ÑĤ
Ð¾Ñĩ Ð½ÑĭÐ¹
Ð¸Ð½ Ð¸Ð¼
Ġdro its
Ġmod el
ĠLe y
am me
ĠÐ½Ð¾Ð² ÑĭÐ¹
Ġpre z
ĠÐ¸Ð³ÑĢ Ð°ÑĤÑĮ
ĠÐ¾ ÑĪÐ¸Ð±
Ġmili oni
---- ----
ãĤı ãĤĮãĤĭ
ĠpaÃŃs es
ch u
Ðº Ð¸Ð¼
ÅĤu gi
Ġo e
Ġt ari
æŁ» å®ļ
ãĤ¹ ãĥ¡
ĠSch ne
Ġof ert
ãĤĴ éģ¸
ĠÃ© to
Ð¸Ð³ Ð¸Ð½
ãģ®å Ĭ
ĠAu tor
Ġre kl
Ġqua tre
ĠÐ¸Ð½ ÑģÑĤÑĢÑĥÐ¼ÐµÐ½ÑĤ
Ġpom ys
Ġmiesz kaÅĦ
èĦ ±æ¯Ľ
ĠÐ´ÐµÐ» Ð¾
Ġunsere m
Ġdi p
Ġme isten
æ ¿
au che
ĠÐ½Ð°ÑĪ ÐµÐ¼
Ġme to
Ð°Ð½ Ð½ÑĭÑħ
u il
Ġou i
Ġinsta llation
ĠG ru
ĠZ obacz
M z
Ġu d
Ñģ ÐµÐ¼
ven ue
Ġam ministra
Ġri p
Ġex iste
ĠrÃ³Å¼ nych
Ġfami glia
Ġnom e
Ġdise Ã±o
olo gique
Ġgi áº£m
æľ ª
Ġy our
ç´ Ļ
Ġé ł
Ġcon t
Ġnaszy ch
ãĤ¶ ãĥ¼
Ð¾Ð»Ð¾Ð³ Ð¸Ð¸
Ġç ļ
ĠA v
re ur
Ġç «
ĠÐł Âµ
ĠÐ±ÑĥÐ´ ÑĥÑī
Ġwie ku
Ġ5 7
åĭ ¤
ãģ®å ķĨåĵģ
2 1
é¦ Ļ
ĠÑģÑĤ ÑĥÐ´
Ġh aute
Ġen vi
ä¸ ¡
Ġf os
Ġri es
ĠÐ¼Ð¸Ð½ Ð¸Ð¼
ĠFr Ã¼h
Ġu04 4
å¾ ´
Ġch Æ¡i
8 6
Ã¨ ge
Ġqu er
å¾ ¡
ĠÐŁ Ð°ÑĢ
Ð¾Ñĩ ÐºÐ°
Ġf echa
ĠGe b
Ð°ÑĤ Ñĥ
ĠÐ¼Ñĥ Ð½Ð¸ÑĨÐ¸Ð¿
ĠÐ³Ð°ÑĢ Ð°Ð½ÑĤ
Ġoko ÅĤo
Ġ6 5
Ġdocu ment
Ġdess us
ĠÐ² Ð´
Ġn ero
ĠÐ¶ Ð´
Ð¾Ð» Ð¾ÑĤ
Ġsp ie
w it
å± ħ
Ġes cen
Ġpres ente
ĠÐĶ ÐµÑĤ
ĠAn s
our d
ĠPerson en
İ æĹ¥
å¯ Į
ĠPau lo
Ġou tros
å® Ī
cri re
ĠÐ´ ÑĥÑħ
è² ¸
Ġsu bito
di to
Ġn á»Ļi
ĠÐ¿ÐµÑĢÐ² ÑĭÐ¹
c les
f el
ãĥĻ ãĥĥãĥī
ÑĪ Ð¸Ð¹
que l
ĠmoÅ¼e my
Ġre un
Ġ- -
Ġdzi ÅĽ
Ġsa gen
ĠÑĩ ÐµÑĤ
Ġrac con
Ġcu ar
Ã ĺ
Ġdá»± ng
Ġha ve
ĠdÃ© mar
pr it
ĠÑįÑĤ Ñĥ
Ġda vvero
ĠAngebo te
Ġcom une
tig keit
ĠÐ¿ÑĢÐ¸Ð» Ð¾Ð¶
Ġad res
Ã¤ glich
ve ux
ous s
Ġv uo
ĠZapa tos
ãģ®è ³
ĠRe al
Ġç ¤
ï¼ ı
meld ung
Ġd v
ãĥį ãĤ¹
ĠÐ´ Ð»
ãģ® å¤§
lich es
Ġcam po
éī Ħ
ĠUn is
Ġlu tego
Ġzrobi Äĩ
9 1
ãĥĭ ãĥ¼
Ġzakres ie
k an
on do
wie k
ĠH ola
fi cio
ĠÐ½ Ð¾Ñģ
Â ¿
ĠNg uyá»ħn
Æ°á»£ t
ni cos
Ġuwa gÄĻ
æ Ĩ
ĠÐ¾ÐºÑĤ ÑıÐ±ÑĢÑı
zeich net
ĠÐ¾ Ð³ÑĢÐ¾Ð¼
Ġes sent
åį Ķ
Ġdzie w
Ġz im
Ġso y
Ġest ra
Ġent rada
ĠÑĥÐ² Ð¸Ð´
Ġactiv idad
Ġgrand s
ĠãĤ· ãĥ§
ĠãĥĲ ãĥĥãĤ°
ãĥ¡ ãĥ¼ãĤ¸
Ġãĥ ĺ
s ku
Ġposi bilidad
Ġf ille
Ġprofessionnel s
m ission
åº ·
ÐĿ ÐĲ
Ð¾Ð³ ÑĢÐ°Ð¼
ĠÐ´ÐµÐºÐ°Ð± ÑĢÑı
ĠÐ¿Ð¾Ð² ÐµÑĢÑħ
Ġpierw szy
........ ........
Ġhi zo
ĠSch uhe
Ġr ich
ãĢ İ
çµ ¶
ca Ã§Ã£o
ĠB á»Ļ
ini ng
ħ è¡Į
ĠÐ¾ÑĤÐ½Ð¾ Ñģ
Ġg utschein
or f
Ġdiman che
h os
áº± m
CI ON
Ġlu z
ow er
Ġrou ge
Ġo cen
ĠH in
Ġconc ours
ti ce
ĠÐ½Ð°ÑħÐ¾Ð´ Ð¸ÑĤÑģÑı
Ġfunk cjon
b are
Ġoff res
ĠcrÃ© er
Ġak tyw
Ġmod ifica
ĠB lick
Ġper form
Ġpa ar
cz ni
ĠK op
Ġs olution
ĠÑĦÐ¾ÑĤ Ð¾Ð³ÑĢÐ°ÑĦ
ti re
Ġtá»ī nh
Ġpel ÃŃcula
Ġcon n
Ġpa pel
ĠmÃ¡ xi
Ġt iáº¿t
sto ff
Ġzde cyd
ĠÐ²Ð¾Ð¿ÑĢÐ¾Ñģ Ñĭ
Ġe fek
ri do
ÑĪ ÑĤ
Ðĵ Ðŀ
ĠÑĤ Ð¾Ð¿
Ġogr ani
ĠK at
ÑĢ ÐµÐ½ÑĤ
Ð¾Ð»Ð¾Ð³ Ð¸Ñı
ĠÑĢÐµÑĪ ÐµÐ½Ð¸Ðµ
Ġperson ali
ĠPho to
Ġmus ique
ĠÑıÐ½Ð²Ð°ÑĢ Ñı
ĠFeb ru
Ġentsp rechen
ĠWir tschaft
ĠN ouve
ĠÑĩ Ð¸ÑĤ
ĠÐŀÑĤ Ð²ÐµÑĤ
Ð¾ÑĢ Ð´
Ġf eira
Ġter cer
y se
Ġulti mo
Ġini ti
A G
ĠGio v
g ato
mm t
ĠT u
ĠA U
ĠmÃ© th
qu ina
ĠCom un
Ġmes sa
Ġca teg
Ġmon dia
ĠÑĢÐ°Ð±Ð¾ÑĤ Ðµ
ĠÐº Ð¾Ð´
ÅĦ skiego
ĠÑĤÐ¾Ð²Ð°ÑĢ Ð°
ĠFor um
ĠD ann
ãģ¾ ãģĹãĤĩãģĨ
Ġng ay
ĠSer vice
ĠB ay
ĠÐ¾ÑĤÐ´ ÑĭÑħ
ÑģÐº Ð¸
vi lion
Ġv ier
nos i
ĠÐ´ÐµÐ² ÑĥÑĪ
ĠÐ¿Ð¾Ñĩ ÐµÐ¼Ñĥ
Ġest Ã£o
ĠS on
Ġm ak
ĠB lan
fÃ¼hr t
Ġ") .
ç Į
ĠCar los
ĠÐĶ Ð¾Ð¼
Ġest udio
{ \"
le gÅĤ
ãĥĭ ãĤ¢
Ġlá» Ŀi
va ciÃ³n
ro l
ina ciÃ³n
Ġapp r
r ichten
ve ment
Ġcon fi
Ġacc ue
ĠÐº Ð¾ÑĤ
ff er
Ġma g
Ġst essa
i Ã§Ã£o
ĠFor m
Ġnh anh
Ġt ÄĻ
Ġso ciedad
Ġa ire
Ġaller dings
Ġquo ti
ĠÃ© tant
Ð¸ÑĤÐµÐ»ÑĮ Ð½ÑĭÐµ
ç®¡ çĲĨ
Ġincont ro
Ġp rywa
na hmen
Ġreal tÃł
Ġmie mb
Ġé ħ
tur y
® éĢļ
ĠÐ·Ð°Ð½ ÑıÑĤ
Ġtu á»ķi
Ġa qui
Ð» ÐµÑĢ
ĠÐ¿Ð¾Ñĩ ÑĤÐ¸
ĠÐł Ñĳ
Ġãģĵ ãģĨ
ĠEins atz
ĠÑįÑĤ Ð¸Ð¼
ĠÑħ Ð¾Ð»Ð¾Ð´
u ma
ĠÑģ ÑĥÐ¿
Ġlle v
ta tions
vers itÃł
Ġse cteur
Ġma teriaÅĤ
ĠD U
Ġmal ad
ĠÑģÑĤ Ð°Ð»Ð¸
ven es
t ym
b and
ÐµÐ½Ð¸Ñı Ð¼Ð¸
ï¼ ¯
èĤ Į
èį ·
ĠG en
Ġha ciendo
ind ung
ĠÐĶ Ð°ÑĤÐ°
ĠÐ· Ð°Ð»
Ġa ggi
vi tar
m ak
Ġzako ÅĦ
Ġin st
ç¨ İ
Ġkh á»ı
Ð²ÐµÑĢ Ð´
ĠÐ¾Ð´ Ð½Ð¾
Ġes se
Ġpro xim
ĠÐ¸Ñİ Ð½Ñı
ĠJ uegos
an ke
est ra
ge hen
par tement
ĠÑģÐ² Ð¾Ðµ
ĠMar ie
Ġg az
ĠÐ´ Ð¾Ð±
Ġcon j
ĠC itas
Ġa cep
ĠQues ta
Ð· Ñı
Ġï¼ī ãĢĤ
ĠGener al
Ġho teles
ĠÐ² Ð»Ð°Ð´
Ġma tiÃ¨re
ta Ã§Ã£o
te le
ĠÐ¸Ð· ÑĥÑĩ
Ġoc cas
Ġen ti
æµ ľ
è£ ľ
indow s
Ġsam e
ĠR od
Ġfinan ci
Ġpros tu
Ġinte gra
Ġst wo
ĠCuis ine
Ð¸Ð² Ð¸Ð´Ñĥ
Ġris que
Ġgiov ani
Ġap enas
Ġh el
ãģ¨ ãģĹãģŁ
áº· ng
ĠW issen
id era
rze j
as za
Ġb Ã¢
N A
ÐµÑģÑģ Ñĥ
kow ej
ãĥ¼ãĥ ¡
ĠÃºlti ma
o o
Ġtar de
Ġcor az
ro it
ãĥ³ãĤ ¬
Ġk or
ÑĪ Ð¸ÑĢ
Ġb Ã¬nh
ura ciÃ³n
ĠÐ¶ ÑĥÑĢÐ½
ĠÐ°ÑĢ Ñħ
Ð¾Ð²Ð°Ð½ Ð¸Ð¹
Ġch ac
Ġr il
ÐµÑĩ Ð°ÑĤ
ÐµÐ½ Ð½Ð¾Ð¼
ist rz
Ð°Ð½ Ð½ÑĭÐ¹
Ġal gÃºn
Ġh inter
Ġäº Ī
Ġt aux
Ġkto ÅĽ
Ġeig entlich
ĠPa vilion
Ð¾Ð· Ð°
ĠK osten
Ġcomm ande
Ġconse ils
Ð°Ð± Ð°ÑĤ
po is
ĠM ona
ig dy
Ġcomp lÃ¨
Ġpr od
ãģ«éĸ¢ ãģĻãĤĭ
ĠÐ¸Ð¼Ðµ ÑİÑĤ
Ġcon tri
kow ego
ĠT ur
Ġè Ģ
le ben
ĠP ie
Ġproduct _
ĠS and
Ġtratta mento
di zione
ãģķãĤĵ ãģ®
ãģ®å ¹
ĠÄĳ áº·c
ron e
Ð¾Ðº Ð¾Ð²
ĠÐĺ ÑĤ
si asi
P S
Ġtr y
ãĥ¬ ãĥ³ãĤ¸
ĠT able
Ġdom aine
czÄĻ ÅĽcie
æĭ ħ
Ġcondi ciones
ola ire
ĠÐ¸Ð½ Ð²ÐµÑģÑĤ
ĠÐ· Ð¸Ð¼
ãĤĤ ãģĤãĤĭ
8 9
Ġnombre uses
Ġma ggior
ĠBer uf
ur en
ãĤĴæ Ĭ
j us
ĠÐ¼ÐµÐ´ Ð¸ÑĨÐ¸Ð½
ĠW sp
Ã¡n d
Ġszyb ko
ĠProje kt
Ġfor am
ãģ®æ °
Ġph á»ĳ
Ġelect rÃ³
ĠK Ã¶
ĠÑĢÐ°Ñģ Ð¿
ĠMo Å¼e
ĠÐºÐ¾Ð½ ÐµÑĩÐ½Ð¾
ĠÐ¡ ÐµÐ³Ð¾Ð´Ð½Ñı
D O
ĠDes car
me dia
ãĥĲ ãĥĥãĤ°
Ġé ¦
Ġcorres pond
Ġca use
ĠN A
ĠmoÅ¼ esz
ar do
ni mo
li car
Ġclar o
éģ £
Ġå ĴĮ
ĠæĬķç¨¿ æĹ¥
è¿ İ
ĠÐ¾ÑĤÑģ ÑĥÑĤÑģÑĤÐ²
ĠDo po
çĨ ±
Ġneces ita
Ġb ord
ĠProble m
ĠÐ»Ð¸ÑĨ Ð°
Ġpra wa
ĠÑĥÐ´ Ð°Ð»
rit ti
Ġau ment
ĠMin uten
Ġes os
Ġacc ueil
Ġl ien
ĠÐ´Ð¾Ð¼ Ð°ÑĪ
Ġkier ow
Ġac ceso
qu et
Ð¸Ñı Ð¼Ð¸
åı ²
Ð»ÐµÐ½ Ð¸Ñİ
u ve
l Ã¼s
Ij p
Ġpew no
Ġs á»©c
Ġ> <
c ales
Ġwykorzy st
d ar
ga ben
p ier
Ġam our
Ġgu ida
gn et
Ð¸Ð² Ð°ÐµÐ¼
ĠL ors
ĠÑħ ÑĢÐ°Ð½
ĠV e
ĠQ ui
ves ti
Ġterri torio
Ġf rom
lÃ¤ s
ĠÐ¸Ñİ Ð»Ñı
Ġs tori
stru k
t wier
os p
ĠÐ²Ñĭ ÑĪÐµ
éĽ ĳ
ĠÑģ Ð°Ð´
ĠIhr er
Ġlung o
d ÅĤug
Ġorig ine
ĠÐºÐ¾Ð¼Ð¿Ð» ÐµÐºÑĤ
gi Ã³n
ĠÑĨÐµÐ½ Ðµ
ĠGr Ã¼n
ĠÑģ Ð¾Ñĩ
Ġlu Ã´n
ĠÑĤ ÑıÐ¶
ãĤ¯ ãĥŃ
ãĥ³ãĥ Ń
Ġf indet
ita tion
Ġaff aires
Ġher m
ĠÐ¾ÑĤ Ð²
åł´ æīĢ
Ġngh á»ĩ
ĠCa p
ĠAngebo t
ÐµÐ½ Ð½ÑĥÑİ
Ġon a
fa llen
Ġha cen
ĠÐ¿Ð¾ÑģÑĤ ÑĥÐ¿
Ġf ic
Ġv ite
Ġh Æ°á»Ľng
ĠW roc
Ġinc re
jÄħc ym
Ġang lais
ÑĪ Ð¸Ðµ
m ado
ig i
sch lieÃŁ
ĠÑĦ ÑĥÑĤÐ±
ĠÐ½Ð°Ñģ ÐµÐ»
Ġri us
Ġs an
cie Å¼
é ½¢
Ġdi rig
rÃ© es
äºĪ å®ļ
ĠFil m
Åº Äĩ
ĠÐŀ Ð½Ð°
Ġpues to
Ġri guar
ind est
Ġvia ggio
lÃ¨ mes
Ġrze cz
ter o
R O
Ġlo cal
ĠÐ±Ð¾Ð»ÑĮÑĪ Ð¾Ð¹
ĠE U
h ung
wyk le
Ġkh Ã³
ÑĥÐ¹ ÑĤÐµ
ĠÐ¸Ð· Ð³Ð¾ÑĤÐ¾Ð²
äºĭ åĭĻ
ÐµÐ½ÑĤ ÑĢ
icht ung
ĠÐ¼ ÐµÐ»
Ġtom ar
æľŁ éĸĵ
Ġi le
Ġ ÅĤÄħ
æķ ħ
hn t
Ġdou ble
la i
Ġot war
Ġlas ci
at is
Ġin sp
ãģķãĤĵ ãģĮ
è² ¨
Ð¸ÑģÑĤ ÑĢÐ°ÑĤ
Ġh Ã£
Ñĥ ÐºÐ°
ĠGes undheit
ĠãĤ¹ãĥ¼ãĥĳ ãĥ¼ãĤ³ãĥĶãĥ¼
ç °¡åįĺ
Ġprzed siÄĻbior
Ġl Ã©
Ġda w
ĠÐŀÑģ Ð½Ð¾Ð²
Ã¤ d
Ġseu le
Ġpes o
Ġperi odo
Ñĩ Ð°ÑĤ
Ġwska z
ĠÑģÑĤ ÐµÐº
æĺ Ł
Ġbar celona
Ġresp ecto
ic ro
ĠÐ½ Ð¸Ð¼
Ġkonk urs
ĠÐ± Ð¾Ð³
Ġt ow
ÑĢ ÑĭÐ²
h Ã¤ng
8 4
Ġpis cine
Ġst ru
od a
Ġprzed stawi
ĠÐ¸Ð· Ð´
Ġcomment aire
Ġte xte
ĠczÄĻ ÅĽÄĩ
te ar
fi cios
3 2
Ġimp ression
ĠnÃ©ces saire
ĠÐ²Ð¾Ð· Ð²
Ġconse il
Ġconf ron
Ġwsp om
A B
ter os
ĠWeit ere
é »Ĵ
Â ±
ĠÃ Į
Ã Ĺ
á» ĥ
Ġide a
Ġwen iger
Ġprz esz
Ġten ÃŃa
a teurs
ĠÐ¼ ÑĭÑĪ
Ġå¾ Į
Ġseg uro
Ġprote ction
ĠV oi
ar s
ãĤ¼ ãĥ³ãĥĪ
Į æľĽ
Ġac cor
I mage
ãģ®å ¼
ĠÑģ Ð°Ð»
Ð¸Ð± Ð¸ÑĢ
Ð½ Ð¾Ð¿
Ġpa ci
ĠÑģ ÑĥÑĤ
Ġm ÅĤ
áº· p
wa ÅĤa
Ã¤ llt
k ces
ĠÐ¾Ð± Ð»Ð°Ð´
Ġstu dio
ãģ¨ ãģ¦ãĤĤ
ãģĦãģ¦ ãģĦãĤĭ
ĠK ind
Ġf rei
ĠÃ© lÃ¨
Ġãĥ Ĵ
Ġweb cam
Ġej erci
ĠEs c
Ġma Ã±ana
ĠT Ã¼r
ĠÐľ ÐµÑĤ
Ġar ch
ĠQu el
Ġdz ien
ĠÑģ Ð¿ÑĢ
Ġmin istre
Ġf ÃŃ
ÅĤ asz
por to
å· »
ĠÐ½ Ð°Ð¹Ð´
j ahr
ĠÃ©le ct
Ġsto p
ÐµÐ´ Ð¸
Ġpare jas
Ġdescar gar
Ġal to
Ġi den
ÑĮ ÐµÑĢ
Ġb Ã³ng
ĠReg ion
cz ym
ÑĢÐ¾ ÑĦ
Ġh Ã´
ãĥ© ãĥ³ãĤŃãĥ³ãĤ°
ãģ§ãģ¯ ãģªãģı
ĠÑģÐ¾Ð± ÑĭÑĤ
Ġza war
T ER
Ġulti ma
Ġzas tos
ĠdziaÅĤ ania
bi Ã³
ĠBar dzo
Ġcam era
k ung
ta te
j cie
Ġdo ivent
ĠkaÅ¼de go
éļĽ ãģ«
Ġm usz
va zione
Ġsi ti
ĠFebru ar
Ġsie ht
ĠÑĥÑĩ ÑĢÐµÐ¶Ð´
Ġcon he
ĠZ e
ä¸ Ī
Ġãģ į
åĭ ¢
Ġvia je
ĠÃ©ner gie
Ġs quad
Ð ®
Ð² Ñĭ
ĠÑģ Ð¸Ð»ÑĮ
Ġk i
Ã¤ hlen
Ġpun ti
½ çī©
ãģ«ãģ¤ãģĦãģ¦ ãģ¯
Ġr odz
ĠGeschÃ¤ft s
ĠC entre
tori as
ĠÃ©v Ã©
Ġmies iÄĻ
sch nitt
Ġè ĸ
Ġå° ĳ
ĠWa hl
ĠÐ½Ð¾ ÑıÐ±ÑĢÑı
te j
Ġbas tante
Ġth anh
ĠÐ¾ Ñħ
pp s
æŃ »
ĠQu alitÃ¤t
Ġco ll
ia j
ĠUni vers
er ÃŃo
Ġc uy
Ġx Ã¢y
c r
Ġka p
Ġm ÅĤod
ÑĢ ÐµÐ¹
Ð½Ð¸ ÑĨÑĭ
Ġatten d
id i
ve ur
ĠÐ¿ÐµÑĢ ÐµÐ¿
ĠgÅĤ os
æ´ Ĺ
è³ ŀ
Ġcons titu
ĠW and
ĠÐ¡ ÐµÐ²
ĠC ena
cz o
Ġv ost
r Ã¼
Ġwy jÄħ
çĹ Ľ
ĠrÃ©p onse
ĠP ia
at tro
Ñī Ð¸Ðº
çµĲ å©ļ
ĠF ranÃ§ais
ĠAs s
è¡ Ĺ
Ð· Ð¾ÑĢ
ĠpÃ©ri ode
Ã³ venes
ĠÑģÑĤÑĢÐ°Ð½ Ñĭ
kol wiek
Ġb áº¯t
em bro
Ġri f
Ġsi ze
ãĤĤ ãģĨ
S O
Ġe dad
h le
Ġprojet s
ĠD ES
Ġt Ã©
Ġswoje j
Ġdi as
Ġf ron
ãĥ¼ãĥ Ŀ
ãģĦ ãģ§
ĠW ert
cz ba
Ġåı ĸ
Ġpas sen
f Ã¤l
ãĤ· ãĤ¹ãĥĨãĥł
æī ¿
Ġdiver se
ci ÄħÅ¼
Ġau prÃ¨s
ãĤ¦ ãĥĪ
p reis
Ġhat ten
è Ķ
Ġa ten
Ġodpowie dz
are k
Ġd re
owa rzy
Ġgen re
Ġph p
ta ger
Ġd ichi
ãĥ¥ ãĥ¼ãĤº
ãģ®è ī
Ġcarac ter
ĠL ig
Ġmedi os
Ġpour ra
Ð¸ÑĤÐµÐ»ÑĮ Ð½ÑĭÐ¹
inter es
Ġjed nym
} .
ķ ı
ĠÐ¿ÑĢÐ¸ Ð±
Ġi Å¼
Ġco cina
ras es
qu etas
Ġv arias
Ġconcern ant
ĠC las
Ġr endre
ĠciÄĻ Å¼
ÃŃ cio
Ġquien es
Ġent wick
Ġpe ux
on Äħ
Ġç¨ İ
ĠÐ² Ð»Ð¸Ñı
ĠL ong
ãģ®å º
Ġauf ge
Ãº de
Ġwy stÄĻp
Ġsour ce
Ġsame di
Ġparticu lier
ĠÄĳ áº¡o
ï¼ ¥
ĠRe view
ãģĤãĤĬ ãģĮ
Ġcade au
Ġel a
ur so
Ġas es
b s
Ð»Ð¸ Ð¶
ĠÐ°Ð¿ÑĢ ÐµÐ»Ñı
ĠÐ¢ ÐµÐ¿
ãģĭ ãĤı
Ġproxim itÃ©
Ã¡ genes
Ð² Ð¸
Ġu omini
Ġra zy
ĠCham bre
ur ent
ĠRa hmen
ĠÐ¿Ð¾Ð¼Ð¾Ñī Ð¸
Ġpro tÃ©
glio re
ãģ®å ľ
Ðº Ð°ÑĤ
Ð¸Ð³ Ð½
gen s
Ġreg ist
15 0
Ġwy posaÅ¼
Ð¾Ð¶ Ð½Ð¾
Ġm á»įi
ĠÑĢÐ°Ð±Ð¾ÑĤ Ð°ÐµÑĤ
Ġpersonn el
Ġen reg
C O
Ġsettim ana
ĠD y
tiv idad
Ġdob r
Ġgemein sam
ĠSt unden
Ð¸ÑĤ ÐµÑĤ
Ġa gu
oul d
Ġna p
Ġis titu
Ġsa gt
v Ã©s
Ð¿ Ð¾ÑĢÑĤ
Ġkle inen
Ġpra wo
Ġab ier
b ri
çĽ¸ æīĭ
ĠÐ¼ ÐµÑħÐ°Ð½
ĠÐ¾Ñģ Ð²
Ġfu ori
h op
k ur
ãĤ» ãĥĥãĤ¯ãĤ¹
Ġkein en
ĵ åĽ½
wy czaj
ĠAc tu
Ġå Ń¦
mal s
ĠÐ¡Ð°Ð½ ÐºÑĤ
d an
ĠvÃ© hic
ĠÑĢÐ°ÑģÐ¿ÑĢ Ð¾ÑģÑĤÑĢÐ°Ð½
Ġneces ario
Ġty tu
Ġ ~
me m
Ġth áºŃt
Ġer klÃ¤r
ĠConse il
Ã¨ les
ĠÑģÐ¸ÑģÑĤÐµÐ¼ Ð°
Ġs ce
un ek
è²» çĶ¨
ul ares
our ces
x ion
Ñĳ ÑĢ
Ġfon da
ãĥ¼ãĥ ľ
ng th
N 0
e ÅĦ
ĠT H
Þ ¬
Ġnh á»ı
ation en
Ġwarto ÅĽci
Ġwy pad
åĨ ĻçľŁ
Ġpue do
Ġusu arios
ĠB lack
Ġsal on
Ġpie d
ri gio
Ġstr ada
ãĥª ãĥķãĤ©ãĥ¼ãĥł
çµ ±
Ġdo vre
Ġes col
ca ch
ti ers
Ġk l
Ð»Ð¸ Ð¹
Ġcho isir
ori i
Ġg ilt
Ġvendre di
Ġnum Ã©ro
ĠAh ora
g um
ĠÐ¼Ð°Ð» ÐµÐ½ÑĮ
ĠM E
Ġob ser
ĠI st
Ġle icht
Ġsemb ra
ä½ĵ é¨ĵ
en zia
Ġw indow
Ġp ier
ĠN Ã¤
Ġm Ã³
éĽ» è©±
ta ura
ĠÐ¼ÐµÑģÑĤ Ð°
Ġhay a
Ġpers Ã¶n
ĠA R
Ġ' '
ais on
ni kiem
iáº¿ m
et ro
ä½ Ļ
d ido
ãĥ³ ãģ®
ay s
am ientos
V E
Ġli m
Ġdo ty
ĠÐ¿Ð°Ð¼ ÑıÑĤ
Ġse le
ĠÐ´Ð¾ÐºÑĥÐ¼ ÐµÐ½ÑĤ
tor no
Ġty le
Ð Ĩ
Ð½ Ð°Ð·
Ġpo k
ĠmÃº sica
ĠÐ± Ð°ÑĢ
Ġa Ã±
ama Ã±o
N I
ãģ¾ ãĤĭ
è± Ĭ
Ġd Ã¼r
ĠMo tor
Ð¾Ð» Ð¸ÑĤ
Ñı ÐµÑĤÑģÑı
æ¯Ķ è¼ĥ
ĠF amilie
Ġp at
Ġza interes
ÐµÐ¹ Ñģ
Ġprze de
dien st
âĢĭâĢĭ âĢĭâĢĭ
6 æľĪ
Ġh ast
g bar
Ġt ÅĤuma
ãĥī ãĥ¬ãĤ¹
Ã ¸
áº« u
Ġg ab
çµ ¡
Ġpo ten
æ¥ µ
Ġn á»¯
ĠF ranÃ§
Ġcoule urs
Ġcon for
anta ge
ĠmÃł u
ĠÑģÐ²Ð¾ Ð¸Ð¼
ĠÐ½Ð¾Ð² ÑĭÑħ
Ġnum er
ĠÄĳ Ã¡
zza ta
Ġserr ur
Ġcl ub
ĠÑĢÐ°Ð·Ð»Ð¸Ñĩ Ð½ÑĭÑħ
ĠpoczÄħ tku
ĠÐ¿ÑĢ ÐµÐ·Ð¸Ð´
ãģĮ ãģĤãģ£ãģŁ
Ã© ctri
Ġab s
èĪ Ī
ĠÐ¡ ÐµÑĢ
ĠCon si
Ġinter ess
cze ÅĽnie
ĠãģĿãĤĮ ãģ¯
Ġtá» Ń
Ġnecess ario
Ġ ãģ§ãģĻ
ÑĦ Ð¾ÑĢÑĤ
Ġapp rÃ©
Ġdo kÅĤad
Ġal guien
ĠNie der
ĠBas k
ĠfranÃ§ais e
ãģķãĤĮãģ¦ ãģĦãģ¾ãģĻ
ĠÐ¼Ð°ÑĤ Ñĩ
Ġcin co
Ġau cune
tel le
icher ung
sta dt
Ġk sztaÅĤ
Ġse cre
Ġcier to
Ii wi
Ġz oba
I EN
un cio
ĠÐº Ð¾Ð¿
Ġde ben
ĠCan ada
ĠFar be
ĠTwo je
ĠPart ner
K S
Ġsku te
Ã¤n de
mi que
ĠÐ¿ÑĢÐ¸ ÐµÐ¼
Ð¸Ñħ ÑģÑı
uch omoÅĽci
Ġe mo
Ġprze prowadz
ter na
Ġl undi
ãĤ¦ ãĤ¹
ĠN O
Ġp iel
Ġlle va
Ġh Ã©
Ġm áº¡nh
ta les
Ðł Ðĺ
Ð¼ÐµÑĢ Ð¸ÐºÐ°Ð½
Ġse ja
Ġæ ¶
ig ung
Ġpue blo
icht s
Ġscel ta
ä¸ ģ
th er
ãĥ¡ ãĥ©
Ġg ol
ĠÐ½Ð° Ð¸Ð±Ð¾Ð»ÐµÐµ
Ġinwes ty
c G
Ġprodu k
Ġ rz
ãģ®æ Ń
Ġdi vers
ĠSo ftware
Ġin ner
ĠT odo
Ġacom paÃ±
ĠIni cio
Ġdich o
ven u
Ġcu ad
ĠO ri
ĠÐºÐ¾Ð½Ðº ÑĥÑĢÑģ
Ð¸Ðº Ñģ
ĠL Ã¶s
ÐµÐ² Ð¸Ñĩ
ĠÐ¸ÑģÐº ÑĥÑģ
ze pt
cz ony
áº¡ y
Ġpi cco
mar kt
ĠK las
¤ ĩ
Ġcze ka
it el
ckie go
rit t
Ġter re
ĠMej or
ĠÐł ÐµÑģÐ¿ÑĥÐ±Ð»Ð¸
sI n
Ġw ody
ra u
ĠÑĤ ÑĢÑĥÐ±
g al
ĠÐ´ Ð¸ÑĢ
ĠÐ´ Ð¾Ð±ÑĢ
ãĤĮãģ¦ ãģĦãĤĭ
r ant
ĠKÃ¼ che
ï½ į
ãĤĪãĤĬ ãĤĤ
AD O
z in
id ence
Ġ3 00
ĠÑģ Ð¾Ðº
Ġauto ma
ada mente
Ġthu áºŃt
Ġve ngono
va is
ĠÐĳ ÑĢ
ĠTa ille
tar ÃŃa
Ã¡n dose
c rÃ©
Ġbi znes
Ġpre par
re as
Ġmat in
ĠÐ¿ÑĢÐµÐº ÑĢÐ°Ñģ
ĠK Ã¶rper
w ski
moÅ¼ li
t ures
ĠÐ¾Ð¿ Ð°Ñģ
I M
ĠIn f
icht et
Ġcerta ines
Ġzost anie
ĠS ter
Ġde di
Ġqual siasi
Ġhab lar
ãģ² ãģ¨
èĮ ¶
Ġesti lo
Ġaplica ciÃ³n
ãģĭãĤī ãģªãģĦ
ĠÂ ®
Ġnh Ã¬n
a go
Ġde li
ĠS pa
ĠPar k
ãģ¨ãģĦ ãģ£ãģŁ
Ð¾Ð» Ð¸
Ðº Ð¾ÑģÑĤÑĮ
Ġos iÄħ
ĠB ol
Ð¾ÑģÑĤÐ¾ ÑıÑĤÐµÐ»ÑĮ
ÐµÐ½ Ð½Ð¾ÑģÑĤÑĮ
é Ĺ
Ġpla ta
Ġsa gte
ãĤĴæİ ¢
Ġcand id
c tez
ĠsÃ» r
ĠÐ½Ð°Ð»Ð¸Ñĩ Ð¸Ð¸
ãģ®å ĭ
Ð¸ÑĤ Ð°Ð¹
Ġcomun que
Ġm ort
ĠP ros
r Ã¡s
ĠÐ»ÐµÐ³ ÐºÐ¾
Ġcam p
Ġv áºŃt
å «
Ġzmi an
ãģ®æ Ķ
Ġpalab ras
cos a
ĠÑħ ÑĥÐ´
Ġus ar
ere m
zy d
Ġdisponi bles
ĠÑĤ ÑĢÑĥ
ÑĪ ÐµÐ³Ð¾
Ġsecon da
Q iO
N l
Ġmy ÅĽl
Ġexp lo
Ġm Ãª
ÑĮ Ð¸
ĠsiÃ¨ cle
Ġ ãģªãģ©
ĠBe z
Ġnasz ego
zy ka
Ġ; )
Ġps ych
m owy
ãĥĭ ãĥ³ãĤ°
Ġre co
Ð» Ð¾Ð¿
Ġle ben
Ð± ÑĥÑĢÐ³
ÅĽwiet l
ãĤ¹ ãĥļ
i LCJ
Ġw ier
Ġnu ll
par tamento
Ġex cel
Ġrisul tati
z j
Ð¾Ð»ÑĮ ÐºÑĥ
ĠZ usammen
ĠD ank
Ġbe b
ĠSu che
Ġas socia
gra fi
Ã¨ de
Ġpro por
Ġuti l
« ª
ä½ Ĳ
Ġzw iÄĻk
Ġnie ktÃ³
ĠDien st
5 5
Ġfor m
ĠÐ³Ð» ÑĥÐ±
Ġæľ ī
ĠÐ¿ Ð°Ð½
Ġent rÃ©e
ĠÐ¾ÑĤÐ²ÐµÑĤ ÑģÑĤÐ²ÐµÐ½
ĠÐŁ Ð¾ÑģÑĤ
_ c
Ñı Ð»Ð¸
ch Ã¨
Ġtram ite
å ¨
ĠSp ra
ĠVo tre
ĠÑĢÐµÑģ ÑĥÑĢÑģ
Ġla que
sion es
tar on
Ġa bi
á»« ng
ãģ® ãģĶ
ĠÐ» ÐµÐº
Ñĥ ÑİÑĤÑģÑı
ĠV is
ĠAn che
ĠÐ¾Ð±ÑĬ ÐµÐ¼
ãģĪ ãģ¾ãģĻ
ÑĥÑģ Ð°
ãģ¨ãģĦãģĨ ãģ®ãģ¯
b os
ĠÃ©v al
ä½ı å®ħ
ĠA M
tu be
ĠÐ¼ÐµÑģÑĤ Ðµ
enez uela
aj as
ĠRÃ© f
tiv itÃ©
ãģĽ ãĤĭ
Ġmad re
Ġle er
Ġter me
ĠktÃ³r Äħ
ber eit
ĠhÃ´tel s
Ġl uch
ĠÐº Ð³
Ġcor po
Ġä¸ »
ĠÐ²Ñģ ÐµÐ¹
L O
ĠQ UE
g les
ĠA G
lich keit
ĠÑĥ Ð½Ð¸Ð²ÐµÑĢÑģ
en ci
ĠD im
Ġparf ois
Ġg áº§n
Ġ8 54
ĠR aum
Ġas sim
è¨Ń å®ļ
ei r
vo li
Ġo cas
ãģ«ãģª ãĤĬãģ¾ãģĹãģŁ
ĠJe u
ĠtÃ©lÃ© phone
Ġu trzym
ĠI B
ĠÑģÐ¼ Ð¾Ð³
Ġne hmen
Ġeff etti
å¾ ©
ĠÑģ Ð¾Ñģ
ĠEner gie
abil itÃ©
Ġher rami
Ġprodu cciÃ³n
ĠCol ombia
ĠS c
Ġra ggiung
isse z
Ġa tu
Å¼ enia
ĠCas erÃŃo
ĠFa ce
gn es
Ĳ Ĩ
Ġposi tion
Ġperson ales
ĠÐ¿ÑĢÐ¸Ð½ ÑĨÐ¸Ð¿
ÐµÐ² ÑĭÐµ
ĠÐĳ Ð¾Ð³
ĠÐ¾ÑĤ Ð¼
Ġop ie
Ġkorzy sta
ĠD ia
on te
S t
um s
Ð¾Ð´ Ð°ÑĤÐµÐ»ÑĮ
Ġé »Ĵ
ãģ®æ īĭ
ĠpiÃ¨ ce
ĠÑģÑĤ Ð°Ð½Ð´Ð°ÑĢÑĤ
Ġparte cip
re m
Â ¶
á»ķ ng
ĠWo che
Ġsort ie
i i
ãĤĵ ãģ¨
Ġtempor ada
ng o
æĹ¥ ãģ«
ĠÐĺÐ½ÑĤÐµÑĢ Ð½ÐµÑĤ
Ġká» ³
Ġso leil
Ġliv res
Ð¾Ð¼ Ð°ÑĤ
Ġse zon
Ġso fort
Ġzei gt
b esch
Ð°Ð»ÑĮ Ð½ÑĥÑİ
Ã¡ r
gg etto
ĠVer anstal
Ġsi tios
ĠS us
ĠrÃ© un
Ġas si
ãģĦ ãģ¤
Ġcre ar
Ġcomp ra
schei den
ol or
cz noÅĽci
ĠReview Image
åį ĥ
Ġmeille urs
ĠÐĽÑİ Ð±
Ġsimp lement
33 5
Ġph Ã¢n
Ġrecu per
Ñĭ ÑģÐ»
Ġprzed mio
Ð» Ð°Ð¶
Ġl ing
ĠÑĢÐµÐ·ÑĥÐ»ÑĮÑĤ Ð°ÑĤ
ng ua
e hen
ĠH is
ãĢħ ãģª
i tions
ĠæľĢ è¿ĳ
Ġnaszy m
ç² ¾
ĠÑĢÐ°Ð· Ð³
Ġznajd uje
za ciones
Ġcons Ã©
end u
Ġé Ļ
ĠGl Ã¼ck
ĠÐ°Ð²ÑĤÐ¾Ð¼ Ð°ÑĤÑĭ
ĠÐ± ÑĥÐ¼
Ġqui ero
Ġutili zar
ĠF est
ĠJ our
Ġ6 4
é ³
ise z
ĠÐ± Ð¸
ĠÃ©lectri que
Ð¸Ð· Ð²Ð¾Ð´
ĠÑĢ Ð¸ÑģÐº
Ġresp uesta
Ġdei x
Ġpodsta wie
æŃ Į
Þ ª
Ġn Æ¡i
ĠA g
åĪĩ ãĤĬ
Ġtrata miento
Ġr oute
åĬ ´
ur os
ĠÐµ Ð¶
am in
å¤ī æĽ´
ãĥ¼ãĥ Ń
mi esz
Ð°Ð² Ð°ÑĤÑĮ
ĠT V
Ġw orden
Ġ5 1
Ġen suite
uer ra
Ġzes po
Ġcon cas
iss on
ĠÐ´ÐµÐ¹ÑģÑĤÐ² Ð¸Ñı
Ð°ÑĢ ÑĥÐ¶
ĠO ff
pr ise
Ġe g
Ġb ureau
Ġsz ero
Ġ our
æŁ ĵ
Ġpr Ã³b
ĠHo y
Ġmo re
Ð¾Ð» Ñİ
ĠrÃ© gu
fic os
Ġwe gen
Ð¿Ð¾Ð» Ð°Ð³
ĠZ am
ĠczÅĤ on
on da
ÅĤ ka
ãģĳ ãģŁ
Ġprzez na
Ġcat Ã©g
Ġle ider
ĠH ilfe
Ġdi vent
Ġrecen zji
ĠO sta
Ġse k
ĠÐĺ ÑĢ
ãĤ° ãĥ©
Ġque m
u me
ĠÑĢ ÐµÑĩ
ĠÐ¿Ð¾Ð½ ÑıÑĤ
Ġen se
unk te
ĠÐ²Ñĭ Ð´ÐµÐ»
Ġv ari
Ò ĳ
ĠÐ¸Ð½Ð´ Ð¸Ð²Ð¸Ð´Ñĥ
Ð± Ñĥ
Ġlep iej
00 00
Ġali gn
ï¼ ´
Ġç¶ ļ
é£ Ľ
ĠÐ¾Ð± Ð½
Ġwyb ra
Ġtá» ·
Ġani m
ãĤ¤ ãĥ³ãĥģ
r Ã¼ck
Ġdes envol
W U
Ġodpowie dni
æĿ ¾
ãģĦãģŁ ãģĹãģ¾ãģĻ
Ġå ²
ãģ¿ ãģ«
Ġè ±
f ois
æĻ ¯
Ġk an
Ġa di
ĠZ ur
ĠÐ¡ Ð»
æľĢ å¤§
Ġquy á»ģn
ĠJ etzt
ĠP lan
Ð¢ ÐĲ
ĠÑĢÐ°Ð¹ Ð¾Ð½Ð°
Ġb iaÅĤ
wo ju
Ãºb lica
å¸Ĥ åł´
ĠÐ¼ ÐµÐ±
Ġn owych
Ġcon st
ĠÐ´Ð¾ ÑħÐ¾Ð´
ãĥ¼ãĥ į
let te
Ġinv est
tÃ© es
ĠNue va
Ġog Ã³l
ĠÐ°Ð¿ Ð¿Ð°ÑĢ
k osten
Ġd ane
ÐĽ ÐĲ
ĠÑįÑĦÑĦ ÐµÐºÑĤ
hand lung
Ġviel leicht
Ġsup Ã©rie
Ð³ ÐµÐ½ÑĤ
Ġpoprze z
Ġal cune
Ġes sa
ãĤĴ ãĤĤ
Ġorigin al
Ġph á»¥c
Ġdi gi
dz enie
ãģ« ãģ¦
éĥ İ
ĠC r
Ġï¼ģ ãĢį
Ġinter ior
ÑģÐº Ð¾Ð¼Ñĥ
ĠÐ¼Ð» Ð½
ĠÐ¶ÐµÐ» ÐµÐ·
ĠP io
cie li
v res
ĠMitarbeit er
Ġzmi any
ĠÐ³Ð¾Ð» Ð¾Ñģ
Ġist nie
or ter
ãģ®å ½
Ġv iej
Ġdispos i
ĠRes taur
ĠN os
ĠprÃ© cÃ©d
Ġb á»Łi
Ġmed ida
ĠL icht
ĠÐ³ÑĢÑĥÐ¿Ð¿ Ñĭ
ãģ¨ãģª ãĤĭ
Ġla tach
Ġpag ina
ĠÑĤÐ¾ÑĢ ÑĢÐµÐ½ÑĤ
Ðł Ñĳ
Ġm Ã³vil
Ġcon ser
ĠÑģÐ² Ð¾Ð±Ð¾Ð´
ĠwiÄĻk sz
ÐµÐ¹ÑĤ Ð¸Ð½Ð³
ĠÑģÐµÑĤ Ð¸
ĠÐ½ÐµÐ´ Ð¾ÑģÑĤ
Ġth eir
è Ĩ
ãģĮ è¦ĭ
æĪ ¿
å¸ Ń
n as
Ġne ben
Ð² Ð°Ð»
Ġam is
ç¨ĭ åº¦
ĠM uch
Ġno ti
or ien
Ġvo is
ĠçĽ ®
ĠKa teg
ãĤĦ ãĤĬ
çĶ³ ãģĹ
Ġcon cep
éĸĭ çĻº
fÃ¼hr er
Ġscu ola
ar am
ĠI ng
Ġe her
ĠÐ±ÐµÐ·Ð¾Ð¿Ð°Ñģ Ð½Ð¾ÑģÑĤÐ¸
Ġuni vers
lis is
Ġma gas
Ġnuest ras
ĠÐ¿ÑĢÐ¾ÑĨ ÐµÐ´
ĠÐ·Ð°ÑĢ Ð°Ð±Ð¾ÑĤ
Ġassur ance
Ġcos titu
ãĤĴæ ±
Ġal c
ĠÐ´ ÐµÑģÑı
uff age
Ġcontr Ã´le
Ġh áº¿t
Ġab ge
Ð°ÑĤÑĮ Ñı
Ġcie p
10 æľĪ
Ġå ĥ
ï¼ ²
ĠÑĢÐ°Ð·Ð¼ ÐµÑī
§ ĺ
ãģ¯ ãģļ
ĠÐŁ Ð¾Ð¼
or ma
Ġwer de
er ne
ĠÑĢÐ°Ñģ ÑħÐ¾Ð´
ĠmÄĻ Å¼czy
am er
3 7
T S
åĢŁ ãĤĬ
ĠÃ© dition
ĠB leu
Ġtechni ques
ro p
èĭ ¦
Ġre cor
Ġle ngth
A K
Ġu kÅĤad
ĠÑĢÐµÑĪ ÐµÐ½Ð¸Ñı
Ñĭ Ð½
è¨Ģ èĳī
Ġconsi gli
ch odzi
ĠD enn
Ġz usÃ¤tz
Ġpar fa
Ð°Ð»ÑĮ Ð½Ð¾Ð¼
us se
ĠÃºlti mos
I jo
Ġo gÅĤosz
qu ant
ĠÐ´ ÐµÐ¼
ab ilitÃł
Ġwsz el
Ġste llen
Ġin dex
Ġca ÅĤy
Ð°ÑĤÐ¾ÑĢ Ð°
è¢ ĭ
Ġactu al
ãģ®åī į
ĠÐ£ Ñĩ
ĠÐºÑĢ ÐµÐ¿
ti Ã³
ĠSch laf
Ġbeso ins
Ġfar ma
ĠV ene
ne ak
ĠNa poli
Ġsvilu ppo
Ġzak up
ĠJe Å¼eli
Ġconstru ction
æŁ Ħ
ĠãĤ¹ ãĥĨ
ĠÐºÐ¾ÑĤÐ¾ÑĢ Ð¾Ð¼
ada ÅĦ
ãģ¨ãģĹãģ¦ ãģ¯
Ġb Ãłn
Ġfut uro
ĠS il
Ġa pos
s us
teil ung
Ã¼ l
ãģ° ãģĭãĤĬ
äºĭ ãģĮ
ĠM am
odz ien
ãģĹãĤĥ ãĤĮ
æĸĻ éĩĳ
ĠEsp anol
Ã³g ica
Ġb itte
ĠAma zon
ĠKon takt
ĠprÃ© v
ĠÅĽwie cie
Ġacqu ista
éģķ ãģĨ
Ġinvestig aciÃ³n
ĠAr ch
Ġm ouve
ãĥĲ ãĤ¤
Ð½Ð¸Ðº Ð¾Ð¼
Ġoffer te
ma re
leit ung
Ġihre m
Ġcommun au
ĠÃ ¥
Ġb iáº¿n
Ġpo b
ãģĹãģ¦ãģĬ ãĤĬãģ¾ãģĻ
Ġçı¾ åľ¨
ĠÐ²Ñĭ Ð´
c rit
ĠÃº nico
Ġstra tÃ©
Ġh il
ire ment
ĠÐ´Ð¾Ð»Ð¶ Ð½Ð°
Ġsare bbe
é ĬĢ
ar en
Ġpar is
ĠMich el
Ã® ne
u ille
Ġbezpie cze
ĠC at
ĠdÃ© cor
ÐĲ ÐĹ
ÐµÐ³ Ð¸ÑģÑĤÑĢ
Ġin ici
ĠÑĢÐ°Ð±Ð¾ÑĤ Ð°ÑĤÑĮ
Ġgestion e
åı¯èĥ½ æĢ§
ĠMar ke
t ten
ĠC et
ĠWiÄĻ cej
ĠCz ÄĻ
ĠS ing
Ã¶ffentlich t
ze p
Ðº Ð¾Ð²Ð°Ð½
ĠÐ²Ñĭ Ð²Ð¾Ð´
Ð½Ð¾Ð² Ð°
t anto
om it
Ġlaque lle
ĠB Ã¬nh
Ð¸ÑĤÐµÐ»ÑĮ Ð½ÑĭÑħ
pp i
Ġkra ju
ĠÑģÐ» Ð¾Ð²Ð°
Ġade cu
f ar
ĠÃ ¦
76 7
44 7
Ġtá»¥ c
er mo
ĠÐ¿ÑĢ Ð¸ÑıÑĤ
ÑİÑī Ð¸Ðµ
Ġge b
ĠÑĦÐµÐ²ÑĢ Ð°Ð»Ñı
ĠÑģÑĤ ÐµÐ½
Ġm ostra
ĠÐłÐ°Ð· Ð¼ÐµÑĢ
Ð¸Ð· Ð°ÑĨÐ¸Ð¸
ĠÐ³ ÑĢÐ°ÑĦ
Ġdo is
Ġcondi zioni
Ġou t
ĠC Ã¡mara
Ġe vitar
Ġsu cc
ĠÐ´Ð°Ð½ Ð½ÑĭÐµ
ĠÑĤÑĢ ÐµÐ½
Ġf unda
tiva mente
ãĥ¬ ãĥ¼
Ġph á»¥
ĠSpiel er
Ġf ig
Ġcompr is
ĠÑĤ Ð¾Ð¼Ñĥ
; ;
ä¾ Ŀ
Ġter rain
Ġcam ino
Ġpar ler
Ãªte ments
is tica
Ġeben falls
ologi i
Ġp ostÄĻp
Ġfunk tion
ĠdÃ©c ouver
ãģĻãĤĭ ãģĵãģ¨
Ġprop ia
ĠAn uncios
Ġpue da
ĠÐ¼Ð½Ð¾Ð³ Ð¸Ðµ
ĠR u
Ġe ks
Ġpre fer
79 66
Ġth ay
èª¿ æŁ»
ĠÃ©conom ique
or en
Ġp y
Ġk uch
ÐµÐ² Ð¾
Ġpa ges
Ġdeux iÃ¨me
ĠEuro pa
Ġstan owi
er st
ĠÑĦ Ð¾ÑĢÑĥÐ¼
ï½ ŀ
çĬ¶ æ³ģ
an ca
Ġver o
ill os
Ġest ru
ãģĹãģŁ ãĤĬ
Ã©b Ã©
mo ire
Ã¢n cia
ĠÑĢÐ°Ð· Ð±
ĠÑĨ ÐµÐ»ÑĮ
Ġ| --
ĠdÃ©ta il
Ġproble mi
ĠPre ise
na ire
oule ur
le b
Ġ ğ
Ġnie za
Ġtr iá»ĩu
ĠJ es
ĠÐ¿ÑĢÐ¾Ð±Ð»ÐµÐ¼ Ñĭ
Ġprofesion al
ĠM ob
cesso ires
ĠO ui
ĠD ec
de dor
z ess
Ġag ri
R l
Ġd w
ĠQu and
Ġv ont
ĠMÃ¼n chen
ĠD ab
ĠÐ¢ ÐµÐ»
ĠÑĩ ÐµÑĤÑĭ
Ġda re
Ġsp Ã¤ter
wi li
Ġmat ri
wit ter
ç ¬ĳ
3 æľĪ
Ġthe y
ãĥ¶ æľĪ
ãģ¦ ãĤĭ
di ta
¥ åº·
en ica
Â ³
ĠÄĳ Ã¬nh
Ġblan co
Ġprob lÃ¨mes
Ġaf ir
ĠÑĥ Ð²ÐµÑĢ
Ġes erci
åĢ Ĵ
ĠÐŁ Ð»
ĠÐ²Ð¾Ð·Ð´ ÑĥÑħ
ier o
f urt
ĠDe ta
ĠG el
ĠP ierw
Ġne uf
ãģĹãģ¦ ãģĦ
ga ciÃ³n
Ġconta ct
Ġwys tar
cu encia
Ġsen so
Ġch á»©ng
Ġda to
Ġh eraus
M ENT
ĠBon jour
x y
ĠÐļ Ð»
ãĥ¬ ãĤ¤
ĠVoi ci
ĠAus wahl
Ð°Ð¼ Ð¸Ð½
c ano
Ġpoz na
ĠÐ´Ð¸Ð· Ð°Ð¹Ð½
äºĪ ç´Ħ
Ġc ouver
ĠMÃ¶glich keit
ĠÑĢÐ°Ð· Ð½ÑĭÑħ
Ġzmi eni
Ġpo ter
ĠS ud
n ent
Ġh ist
ĠNa pis
jÄħc Äħ
cu pa
åħ ħ
ĠHer z
ãĥ¬ ãĥĥãĥĪ
ãģ£ãģ ±ãģĦ
¸ ı
ĠS eit
ĠÐ¾Ð± Ð½Ð¾Ð²
Ġra is
Ġenf in
ĠÑģÐµÐ½ÑĤ ÑıÐ±ÑĢÑı
Ġäº ¤
78 46
ĠÃ©c ran
Ġtr á»£
A P
Ġeffet tu
Ġimmo bilier
Ġkos mety
Ġproje ktu
ç Ĵ°å¢ĥ
Ġcon cer
ĠÑģÑĤ ÑĢÑĥÐºÑĤ
Ġsprzeda Å¼
ty tu
å ¬
åħ¥ ãĤĬ
çĶ» åĥı
ĠDies er
çĤ º
Ġgi udi
IN E
Ġmar ch
ĠDab ei
ĠÑģÐ¾Ð² ÑģÐµÐ¼
Ġz m
Ġsu chen
Ð¸Ð± Ð»Ð¸
ĠK aÅ¼
Ġw ahr
ĠÑĥÑĩÐ°ÑģÑĤ Ð¸Ðµ
te zza
Ġl ou
ãģ¡ ãĤĩãģ£ãģ¨
ina teur
Ġç Ĺ
ĠÑĢÐ°Ð·ÑĢ ÐµÑĪ
çµĦ ãģ¿
Ġ03 7846
Ġ07 7966
335 17
Ġ039 767
Ġ016 82
Ġ039 447
Ġ03 33517
Ġs Ã¡ch
Ġliv raison
ru re
Ġricon os
res a
Ã³w ki
Ġprop io
Z S
Ġod by
ä¸Ģ çķª
Ġæ ¿Ģå®ī
1 æľĪ
Ġe dy
ĠVerfÃ¼ gung
ouv el
Ġme u
rz es
Ġr ent
ĳ ç´Ħ
ra m
Ġusta wy
Ġprofesion ales
Ġwy nika
Ġãĥķ ãĤ£
Ġex cell
Ġche f
Ġ ä¾¡æł¼
ced ente
ãģ¨ãģĦãģĨ ãģĵãģ¨
ĠÑĩ ÑĤ
Ġning Ãºn
Ð¿ Ð¾Ð½
Ġman tener
Ã¤ch st
ĠGÃ¤ ste
Ġm áº¹
ar ma
9 4
Ġemplo y
um n
Ġl áºŃp
Ġnation al
Ġsi gue
ĠLa ge
s y
Ġs osten
ÐµÐ½ Ð½ÑĭÐ¼Ð¸
éĢļ ãĤĬ
Ġcomm une
liw oÅĽci
Ġda her
Ġ000 åĨĨ
ĠãĥĽ ãĥ¯ãĤ¤ãĥĪ
ï¼ ¤
Ġdirec tement
Ġpro ce
pr uch
ĠæĦ Ľ
Ġ7 7
9 6
ĠJed nak
Ġmo t
tis che
ĠÃ¢ ge
ĠÐ£ Ð´
Ð¿Ð¸Ñģ Ð°Ð½Ð¸Ðµ
ãĥ© ãĥ«
ĠÑĢÐµÐ·ÑĥÐ»ÑĮÑĤ Ð°ÑĤÐµ
cri zione
Ġdef ini
Ġo ficial
ĠãģĤ ãĤĭ
ãĤĴ åĩº
ãģĵ ãģĿ
ge w
åł´åĲĪ ãģ¯
Ġa ur
c endo
ien cias
ĠDie u
ĠN ord
res z
ĠÐ¾Ð± ÑģÐ»ÑĥÐ¶
ĠJ un
di go
ĠNo ticias
Ð°Ð½ ÑĮ
ara go
Ġz one
ãĥª ãĤ¨
Ġs ent
Ġç´ ł
ĠpÃ³Åº niej
å¥ Ī
Ġa ta
ĠÑģÐ¼ Ð¾Ð¶
Ġ01682 79
iáº¿ c
ĠÑĥÐ´ Ð¾Ð²
Ġt ard
Ġs mart
ĠÑģÐ¾Ð¾ÑĤÐ²ÐµÑĤÑģÑĤÐ² Ð¸Ð¸
ube hÃ¶r
me ister
ĠÐºÐ¾Ð½ ÑĦ
ĠÐºÐ°ÑĩÐµÑģÑĤÐ² Ð°
ĠÑĤ ÐºÐ°Ð½
ĠÑģ ÐµÐ»ÑĮ
bie ter
ĠÑįÑĤ Ð°Ð¿
ãĤĪãģĨ ãģ§ãģĻ
ãģ§ ãģĤãĤĬ
ĠÐĲÐ»ÐµÐºÑģÐ°Ð½Ð´ ÑĢ
usam me
ĠÐ½Ð°Ñĩ Ð°Ð»Ð°
Ġwh ich
Ġa rea
iel s
ĠÐ¼ Ð¾Ð±Ð¸Ð»ÑĮ
Ġsch le
ĠÐ¿ÑĢÐµÐ´ ÑĥÑģ
Ġcomple to
Ġpro che
Ġpro cÃ©d
ĠNi ke
ĠG re
Ġpre vis
uer ta
ĠKop f
Ġdisfru tar
ĠÐ¾Ð´ Ð½Ð°
Ġconse guir
ĠÐ²ÑĭÐ± ÑĢÐ°ÑĤÑĮ
ĠSe villa
Ġcam ere
Ġpoli tica
tow ego
il a
ĠEn cu
ACI ON
ĠBus ca
ĠE di
Ġcommun ication
Ġles bianas
ĠG utschein
ff t
Ġar rÃª
ĠÐ±Ð¾Ð» ÐµÐ·
Ġsch wer
Ġme dy
Ġtor na
Ġc Åĵur
Ġhand l
å®ī å¿ĥ
sch lag
Ġclas si
Ġe llas
ĠAr ticle
ÅĽ cia
ãģ£ ãģ¡
l d
9 æľĪ
Ġä»¥ ä¸ĭ
ãģ§ãģĻ ãĤĪãģŃ
ãģķãģĽ ãĤĭ
ĠÐ¼Ð¸ÑĢ Ðµ
ĠÐ°Ð² Ð¸
ar ch
ãģ¨ ãĤĵãģ©
Ġr Ãª
Ġdeta lles
Ġin tent
am entos
ĠFa hrze
ĠW indows
aul t
Ġcomment aires
ÐĿ Ð«
szy scy
Ġdeb ido
ĠP elle
Ġgio ca
qu Ã©e
ĠÐł Ð°Ð±Ð¾ÑĤ
en ir
Ġc ois
Ġm iá»ħn
Ñĭ Ð´
Ġk Ã¼
Ġdire ction
Ġprze j
Ġhabita ciones
ĠV ie
Ġma ÅĤ
Ġdi m
ill on
ĠÑģÐºÐ°Ð· Ð°Ð»
Ġn á»¯a
dep endi
ci en
ĠDer ni
fi Ã©
Ġpl anta
wend ung
ĠI L
Ġvic ino
Ġin dy
Ġprincip ales
ĠF le
k el
ĠCom une
Ġer ano
et ter
Ġpod em
ĠTra b
Ġu bezpie
Ġv Ã´
Ġvi vo
Ġr oul
ĠÐ¼ Ð¸ÑĢÐ¾Ð²
ĠM Ã¤n
ĠT en
quil er
ĠdÃ© part
ĠV in
ĠC D
Ġzak u
ato r
Ġnatur al
Ã¼t zen
t Ã¡
ĠÐ¿ÑĢ ÐµÑģÑĤ
t noÅĽci
ĠÐ¼ Ð°Ð¼
ĠÑģÐµÑĢ ÑĮ
ãĥ« ãĥĢ
Ġd á»ħ
mon io
Ġder en
cyj nego
Ġf ff
æĪ »
ĠV enta
Ġnation ale
Ġp ul
Ġapo yo
ĠkaÅ¼d ym
Ġmo ts
ĠÐ» ÐµÑģ
ĠThe men
sch ule
Ġk lar
Ã¢ teau
Ġparti re
ĠÑĤÑĢ Ð°Ð²
Ġb lis
Ġl ar
ab el
h Ã©
Ġcomun idad
h ein
ĠA S
ĠIhre m
ãĥ¼ãĥ ¬
Ġpro pi
Ð°Ð´ ÑĮ
Ġå· ¥
èı ľ
ĠRe cher
çļ ®
ĠL ES
ãģıãģª ãĤĭ
ĠÐ¾Ð± Ñģ
odz Äħ
Ġeje cu
Ġg uerre
Ġcon sta
ĠÐ¿ÑĢÐ¾Ð¸Ð·Ð²Ð¾Ð´ ÑģÑĤÐ²Ð°
Ġ à²
Ġd iá»ĩn
ĠÃ©lÃ© ments
Ð¾Ñĩ Ð½Ð¾Ð¹
Ġne ues
it ze
12 æľĪ
Ġåı£ ãĤ³ãĥŁ
ãĥ¼ãĤ µ
fica ciÃ³n
Ġ200 5
ch ain
Ġgiorna ta
Ġrencont res
Ġum owy
ĠPare jas
ci mientos
Ġverschieden en
ĠS ite
Q U
Ġsz e
ĠÄĳ Æ°a
Ġm au
Ġfor te
ĠçµĲ å©ļ
ãĥ³ãĥĹ ãĥ«
ç ĩ
ĠÐ¸ÑģÑĤ Ð¾ÑĢÐ¸Ð¸
Ġ2016 å¹´
ĠZapa tillas
arago za
ĠTod os
Ł ãģĺ
Ġdev rait
åĭŁ éĽĨ
ar Ã¡n
si g
Z A
f iche
Ġsamoch od
ãĤĴè¦ĭ ãĤĭ
Ġpas a
ĠD ob
owie m
ĠãĥĽ ãĥĨãĥ«
ĠLand es
ĠÐ¿ Ð¾Ð¿ÑĢ
Ġline a
Ġre des
Ġmin ut
èĩ ´
æ´ ¾
pe ti
n Ã©e
cul o
ÑģÑĤÑĢÑĥÐº ÑĨÐ¸Ñı
ÐµÑħ Ð½
ĠÐļ ÑĥÑĢ
ĠÐ¿ÑĢÐ°ÐºÑĤ Ð¸ÑĩÐµÑģÐºÐ¸
ĠV illa
Ġrec ursos
ĠÅĵ uvre
Ġkom puter
Ġinter Ã©s
Ġconf ir
us ione
8 æľĪ
ĠÐ¾ÑģÐ½Ð¾Ð² Ðµ
å© ¦
ĠÐ½Ð¾Ð² Ð¾ÑģÑĤÐ¸
Ġcu ales
s weise
ĠE tat
Ġ2017 å¹´
ĠB ois
Ġhu ma
Ġz wier
Ġdu da
Ã¡ lisis
ĠÐº ÑĢÐ°
ÃŃs tica
ĠSch utz
ĠS tiva
LL A
Ġdisponi bile
Ġvá» ±c
ãģ® ä¸Ĭ
ĠPro f
ÑģÑĤ Ð°
ãģ® æĹ¥
Ġè ĥ
ĠÑĢ ÐµÑĨÐµÐ¿
ãĥĩ ãĥ¼ãĤ¿
z iert
Ġæ ®
Ġpar le
ta gne
ĠÐ° Ð»ÑĮ
d ida
mp o
ĠM ig
Ãºs que
ol are
ÑĥÑİÑī Ð¸Ðµ
dz ÄĻ
Ġjeu di
oup es
éĽ ¨
ut t
ĠHer r
v estis
ĠÑĦ Ð¸ÑĢ
ĠÅĽwia ta
ĠÑĥÑĤ Ð²ÐµÑĢÐ¶Ð´
Ġcomp les
èĭ ¥
Ġs ir
Ġdif ÃŃ
ĠÐ²Ñĭ Ð·
Ġmi gliore
Ġver w
ctÃ© ris
w in
» çĻĤ
Ġobjec tif
Ġar te
n ess
å® ĺ
ĠNe ben
ĠÑĥÑģÐ»Ð¾Ð² Ð¸Ñı
Ġvol ver
Ġna zionale
ĠH i
Ġj Ã³venes
ĠE d
8 7
Ġsp ecta
ĠÐ¼ Ð°Ð½
ĠÐ¸Ð½ÑĦÐ¾ÑĢÐ¼ Ð°ÑĨÐ¸Ñİ
Ġu ch
Ġs wÃ³j
ĠÑħÐ¾Ð·Ñı Ð¹
ĠR om
ĠÐ»ÑİÐ± Ð¸Ð¼
ay a
ĠO ut
Ð¾ÑĢ Ðµ
ich en
Ġp az
ĠRe d
ni ng
ĠÑģÐº Ð»Ð°Ð´
ç ł´
ĠC ul
Ġgratu ite
Ġcap ital
Ġ ÑĨÐ¸
Ð»ÐµÐ½ Ð½ÑĭÐµ
Ġeffica ce
onc Ã©
kow ie
czy k
ĠCh ile
ĠÑģ Ð½Ð¸Ð¶
Ġma cch
ĠÐ¼Ð¾Ð´ ÐµÐ»Ð¸
ier i
ru z
val u
Ð¸Ð½ Ð°ÑĢ
Ð°Ð· Ð°ÑĤÑĮ
Ġsen ci
ĠÃ©tu de
ĠãģĬ ãģĻãģĻãĤģ
ç« ¯
Ġv iáº¿t
Ġfor ce
Ġluo go
ĠhÃ¤t te
ar u
ĠÐ²Ð· Ð°
c te
ab y
ĠF rie
ãģĳ ãĤĮ
Ġng uyÃªn
Ġtro tz
èĶ µ
Ġanci en
ĠÐŀÑĩ ÐµÐ½ÑĮ
Ġenfer me
ĠG ast
Ð¸ÑĢÑĥ ÐµÑĤÑģÑı
æīķ ãģĦ
æº Ĳ
Ġz g
Ġopp ure
Ã¤r en
ĠÐ² Ð°Ð½
Ġlet tre
Ġa na
Ġindustr ia
le g
ãĥĥ ãĤ»
Ð¸Ð¼ ÑĥÑīÐµÑģÑĤÐ²
Ġ8 5
pond re
fi ques
ãĥ¼ãĤ ±
Ġn Ã¤
Ġ ite
Ġri ght
Ðº Ð¸Ð½
çľ ģ
ĠÑģÐ¾ÑģÑĤ Ð¾
la ciones
ĠAn ton
Ġemp e
ier on
Ð¾Ð· Ð¸ÑĤ
tig ung
ãģ£ãģ¦ ãģ¿
bo ten
Ġt ale
Ġus ÅĤugi
Ġç¤ ¾
Ġ: "
5 æľĪ
Ġw under
ãĥ© ãĤ¯
ĠÐŁÑĢÐ¾Ñģ Ð¼Ð¾ÑĤÑĢÐ¾Ð²
Ġnh áºŃp
ĠNach t
Ġindi ri
w z
crip ciÃ³n
est Ã£o
Ġhabita ciÃ³n
ĠÐĿ Ð°Ð´
ĠÑĦ ÑĢ
Ġde fen
Ġbut ton
ÐµÐ»ÑĮ Ð·Ñı
Ġcol umn
ĠÐ¶ Ð¸Ð»
èĲ½ ãģ¡
ĠT etas
ĠÐ½ Ð°Ð½
ĠTra vestis
ment al
Ġent ren
Ġqu est
ĠÐ¢ ÐµÐ¼
su ÅĦ
N j
cz ona
Ġ& &
Ñı ÐµÑĤ
Ð° ÑĨÐ¸Ð¹
Ġjedy nie
lie gen
Ġpar ents
Ġval ore
ere mos
ĠÑĤÑĢ ÐµÑħ
Ġob tener
è² ¡å¸ĥ
ãģĮ å¤ļãģĦ
ĠTech n
ĠVer sion
ĠRo y
Ġbra k
ĠÐ¥ Ð¾ÑĤ
ĠR ab
åĸ Ħ
Ġbiso gno
ĠdziaÅĤ alnoÅĽci
Ġzapew nia
b ank
Ġs atis
Ġhis tori
Ġm are
ĠStar t
äºº ãĤĤ
Ġaccom pa
ord in
ance ment
Ä© nh
ens ter
Ġdi rei
Ġso ggior
Ġdesn udas
ĠPAR A
Ġpor nos
ter as
Ġt el
ÑĨ Ð¾Ð²
ĠÑģÐ°Ð¼ Ð¾ÑģÑĤÐ¾ÑıÑĤÐµÐ»ÑĮ
ĠÑģ ÑĦ
éļ ľ
ĠM inh
ĠmÃ© de
Ġg Ã¢y
Ġmein en
ĠÐºÐ¾Ð½ÑĤ Ð°ÐºÑĤ
Ġnasz e
itÃ¤ ten
ow ymi
anti ago
åĲ Ħ
ĠÃº nica
ad es
ĠÐº Ð»ÑİÑĩ
Ġbekann t
Ġ( );
ĭ èŃ·
ĠãĤ ²
ĠÐ²ÑĤÐ¾ÑĢ Ð¾Ð¹
Ġpo ids
ti es
ĠÐ±Ð¾Ð»ÑĮÑĪ Ð¸Ð½
OR E
Ġpia ce
Ġï½ ¤
Ġï¼ Ķ
Ġä¸ĸ çķĮ
Ġpar mi
Ġm iÄĻ
Ġz nak
Ã³ gico
Ġpro v
ĠB lu
Ġs tre
ĠPh ili
ĠDe puis
ĠN áº¿u
Ġz iel
Ġpres enti
ĠP C
Ġclas se
gr ani
Ġm inha
Ġer folg
Ãªn cias
ãģĦãģŁ ãģłãģĳ
Ġges tiÃ³n
ĠD re
Ġspe ÅĤ
ãģ®æ µ
Ġequi pos
Ġro bo
ĠF ami
Ġf en
Ġst and
ĠÑĤÐ¾Ð²Ð°ÑĢ Ð¾Ð²
ĠÐ´Ð¾Ð» Ð»
Ġåį ĺ
ver a
ãĥĥ ãĥĳ
Ġza pa
Ġcol abor
ĠÐ°Ðº Ðº
Ġdire cciÃ³n
ĠW al
stra ÃŁe
ais se
Ġau teur
_c rop
ÑıÑĤÑĮ ÑģÑı
Ġnghiá»ĩ m
Ġso llen
ĠÐ¿Ð°ÑĢÑĤ Ð½
ĠÐ°Ð²Ð³ÑĥÑģÑĤ Ð°
Ġqual quer
ĠD ownload
ĠB Ã¼rger
Ġtrad ition
Ñĳ Ð»
Ġfoll ar
Ġrela ciones
iste mas
ĠA C
ĠA mi
Ġdem Ã¡s
ĠgÅĤÃ³w na
gn iÄĻ
ĠÐ´Ð¸ Ð°Ð³
ãĥ© ãĥĥãĤ¯
æ³ ¢
I B
ĠÐ¾ÑģÐ¾Ð± ÐµÐ½Ð½Ð¾
Ġmay ores
m ette
ĠagrÃ© able
wia jÄħ
u men
ri ge
ãģ« ãģĻãĤĭ
Ġun ico
ĠFin anz
éĥ¨ å±ĭ
at es
rze ÅĦ
Ġca usa
ĠÂ µ
Ġt iÃªn
Ġpr in
Ð² Ðµ
ä½ľ ãĤĬ
Ġcons id
Ġis to
ĠÐķ ÑģÑĤÑĮ
ï¼ °
ãĥ³ãĤ° ãĥ«
ĠÐ¿ Ð¸ÑĪ
ĠÐ²Ð¾Ð·Ð¼Ð¾Ð¶ Ð½Ð¾
ĠIn d
éĸĵ ãģ«
Ġg al
Ġex cl
Ġt Ã©r
ĠPro gramm
ĠÐ¼ÐµÐ¶Ð´ ÑĥÐ½Ð°ÑĢÐ¾Ð´
ĠB al
ÅĤ on
p he
çħ §
Ġpr Ã¤
ĠÑįÐºÑģÐ¿ Ð»Ñĥ
rÃ³ b
ĠÐ¾Ðº ÑĢÑĥÐ¶
Ġprodu zione
arbeit en
Ġme uble
ĠM at
Ġsp ort
s os
æ¯ į
Ð¼ ÑĥÐ½
ãģĮ å¿ħè¦ģ
ĠM AR
Ġouver ture
Ġno vo
cyj na
tag s
ÑģÑĤÑĢÑĥ ÐºÑĤ
ĠFoll ando
Ġing lÃ©s
ĠÐĳ ÐµÐ·
Ñĥ ÐºÐ¸
Ġspe cj
ara zione
l ungs
as se
Ġfuer te
ĠÑĢÑĥÐº Ð°Ð¼Ð¸
ĠÐĳ Ð»Ð°Ð³
N z
Ġus z
wa gen
Ġdonn Ã©
ĠR io
Ð¸Ð» Ðµ
Ġosta t
ven ciÃ³n
Ġs endo
Ġproy ectos
Ġmejor ar
Ġblei bt
Ġqual cosa
den cia
ĠÑģÐµÐ· Ð¾Ð½
áº£ y
Ġne g
ĠF i
ĠH aupt
b ano
Ġc io
Ġm 2
Ġser ÃŃa
rze w
Ġini zio
Ġop Ã©ra
Ġd oute
b ourg
Ðķ ÐĿÐĺ
Ð¾Ð² Ð°Ð»Ð¸
Ġg war
ĠGew inn
ãģļ ãģ«
Ġca us
Ġna to
ãģ¨ ãģĻãĤĭ
Ã¼ ge
ĠÑįÐºÑģÐ¿ ÐµÑĢÑĤ
Ġr Ã´le
h am
ĠÐ¿ÐµÑĢ ÐµÐ¼
Ġå¯ ¾
Ġsprzeda Å¼y
ç¸ Ħ
Ġæĺ ¨
Ġbis her
Ġkom unika
ma ten
Ġsitu Ã©
ĠÐ¿ÑĢÐ°Ð² Ð°
ĠÐ¸Ð· Ð¾Ð±ÑĢÐ°Ð¶
ãģķ ãģ¾
V A
Ġcab o
ĠPf lege
ĠKul tur
ĠX X
Ġre tra
ĠÐŁÐ¾Ð´ ÑĢÐ¾Ð±
ĠÐºÐ¾ÑĤÐ¾ÑĢ ÑĥÑİ
ciÄħ g
ä¸ ¦
Ã©b ec
ĠmÃ© dica
ĠintÃ© rÃªt
ĠrÃ©alis er
Ġouti ls
å¯ Ł
letz t
Ġmer credi
Ġp ouv
Ġin oltre
cyj nej
Ð¸Ñģ Ð¾Ðº
au to
ĠH ar
ĠÐ¿ÑĢÐ°Ð² Ð¸Ð»ÑĮÐ½Ð¾
no vation
ĠQu Ã©bec
ĠÃ©tu des
Ġsp Ã³ÅĤ
Ġde utlich
ĠÐ¾ Ð²
ĠIns titu
ĠSo cial
est as
ub les
ĠÐľÐ¾ÑģÐº Ð¾Ð²
Ð°Ñĩ Ð¸
ti ble
ĠEur opej
Ġal gum
ĠnÃ¤ch sten
Ġte k
ĠÂ ¨
Ġch iáº¿n
ic al
ron ique
ĠÑģÐºÐ°Ð· Ð°ÑĤÑĮ
ĠÐĽ ÐµÐ½
Ġ. "
ãĥĢ ãĤ¤
Ġra zie
Ġpomo cy
our ce
Ġé ¢¨
Ġc ulo
Ġpre o
ĠÐ¿Ð¾Ñģ ÐµÑĤ
Ġbu on
c enia
ĠçĦ¡ æĸĻ
Ġå¹ ħ
Ġitali ana
çĦ¡ ãģĦ
Ġãĥķ ãĤ©
ard ia
Ġk urs
ak e
ãģ«ãģ¨ ãģ£ãģ¦
ĠÐ¤ ÑĢÐ°Ð½
Ġoccas ione
ĠÅĽ wiÄĻ
E C
Ġemb ar
Ġc olore
ĠÃ© du
Ġatten tion
Ġmo teur
ĠSe gur
Ġs ola
é¤ Ĭ
Ġresul tado
Ġnau czy
Ġçī¹ ãģ«
Ġal ma
Ð°ÑĤÐ¾ÑĢ Ñĭ
Ġgi us
ĠL ÃŃ
Ġh Ã©s
Ġsuiv ant
Ġv ec
ĠÑĥÑĢÐ¾Ð² ÐµÐ½ÑĮ
Ġzas ad
Ġsmart _crop
Ð»ÐµÐ½ Ð½ÑĭÑħ
ĠFe der
Ġman ten
Ġconten ido
ĠSal le
ĠÑĥÐ» ÑĥÑĩÑĪ
Ġproje k
Ġcali ente
ĠâĢľ .
ãĤ·ãĥ£ ãĥĦ
Ġæĸ ĩ
ĠÐļ Ð°Ð»
Ġv as
Ġdispos ition
Ġesc ort
Ġen car
ĠÐĴ ÐµÐ´
Ġnato miast
Ġc ra
re t
ue lles
Ġv ivre
iss ions
ĠG ior
ĠÐ´ Ð¸Ñģ
it ure
Ġtrouv Ã©
ĠÐ²Ð¾Ð·Ð¼Ð¾Ð¶ Ð½Ð¾ÑģÑĤÐ¸
Ġsti le
Ġblei ben
ĠÐļ ÑĥÑĢÑģ
Ð°ÑĤ Ð°ÑĢ
Ð°ÑĤ ÑĥÑĢÑĭ
ĠV en
Ġorganis ation
ko j
ãĥ¬ ãĥĥãĤ¯ãĤ¹
Ġnon e
ãģ¯ ãģĬ
Ġc olo
Ġinter nacional
Ġdiff icile
a ÅĤa
Ġèī ²
ãģĺ ãĤģ
ĠÑĤÐ¸Ð¿ Ð°
Ġï¼ ķ
æ¬² ãģĹãģĦ
åıİ ç´į
åĭķ çĶ»
Ġgar anti
ĠÐ¿ÑĢÐ¾ ÑħÐ¾Ð´
ãĤĤ ãģĤãĤĬãģ¾ãģĻ
ĠKa p
ĠL OS
ĠRÃ© p
Ð¾ÑĤ Ñĥ
Ġda gli
ĠdÃ©f ini
Ġsa c
Ġter enie
Ġch ung
Ġre almente
Ġcu ir
Ġcomun icaciÃ³n
au p
Ġn is
ĠÐºÐ½Ð¸ Ð³Ð¸
ĠÐ²ÑĭÐ³ Ð¾Ð´
ĠÐ² Ð°Ð»
ĠÐ¼ Ð¾Ð¹
ÑĥÐ´ ÑĮ
ãģ®å ¿
Ġ ä¼ļ
æ¨ ¡
ĠV Äĥn
rzy Äĩ
Ġb á»ı
fin den
Ġtrabaj ar
Ġincl uy
ĠÑģÑĩ Ð°ÑģÑĤ
ĠG Ã©n
l Ã©e
Ġmar di
Ġque da
Ġse lec
m ini
Ã© is
Ġforma zione
Ġal meno
m ir
Ġ7 9
ä¸Ģ ç·Ĵ
Ġba Ã±o
ĠS ans
Ġche min
Ġv ent
ĠÑĢ ÑĥÑĩ
ãĤ¿ ãĥ³
ĠÐ´Ð² Ðµ
ĠÐ½ ÑĢÐ°Ð²
æ±Ĥ äºº
ãĤ³ ãĥ¡ãĥ³ãĥĪ
wi enia
Ġconfi ance
ĠÐ° ÑģÑģ
ãĤī ãģĹ
Â °
ĠM á»Ļt
Ġzosta ÅĤy
» çĶ¨
ĠS ig
te ca
Ġali ment
ãģ®å £
ĠAn al
Ġcu id
ÐµÐ¹ Ð½
au me
Ġmeille ure
Ġmil ieu
Ġsupp lÃ©ment
ķ æĻĤè¨Ī
res as
ri co
Ð°ÑĤ ÑĥÑĢÐ°
Ġo bb
un sch
Ġo ben
ĠÐĹÐ´ ÐµÑģÑĮ
ĠÑģÑĤ ÐµÐ¿
er ia
Ġspaz io
ter min
Ġpes ar
Ġver wend
Ġãģķ ãĤīãģ«
å§ Ķ
Ġy eux
Ġin no
Ġu waÅ¼
ãĤī ãģĭ
Ġval uta
Ġcompr endre
ĠÐ¾Ð±ÑıÐ· Ð°ÑĤÐµÐ»ÑĮ
Ð°Ñı ÑģÑĮ
AL I
Ġcli enti
Ð¡ ÑĤ
ĠÐ¡ Ð¾Ð±
ĠS co
Ðľ Ðĺ
å¾Į ãģ«
Ġf amos
ĠWei hna
ĠS itz
ĠÑģ ÐºÐ¸Ð´
ĠN or
Ġab out
ien ti
Ġsoci ale
Ġdess ous
ĠM u
ãĥ¼ ãģĮ
Ġv amos
ĠNue vo
ĠM Ã¶
ĠÐ² Ð¾Ðº
Ġj em
Ġb l
Ġor dre
ĠÐľ Ð¸Ñħ
ĠÐ¸Ð½ÑĦÐ¾ÑĢÐ¼ Ð°ÑĨÐ¸Ñı
ĠÐ¿Ð¾Ð´ ÐºÐ»ÑİÑĩ
ĠÐ±Ð» Ð¾Ðº
si Äħ
es zy
ct ures
Ġvo ix
ĠGrand es
tar Ã¡
Ð¾Ñĩ Ð½ÑĭÑħ
Ġen vie
Ġche veux
Ġes prit
graf ia
ver si
b uj
ĠW ien
kle id
ĠH inter
Ġoportun idad
ĠÐ·Ð°Ð¼ ÐµÑĤ
usz cz
æ°Ĺ æĮģãģ¡
ãĥŀ ãĥ³
Ġnad ie
ĠFranÃ§ ois
ĠÐĳ Ð°ÑĢ
par er
Ñĥ ÐºÐ¾Ð²
ĠÑĤÐµÐ± Ñı
Ġs Ä©
ĠG old
æ ĳ
Ġah ÃŃ
Ðķ Ð¢
ne o
Ġre te
Ġwy k
ĠM ie
éĿ ©
ust rie
Ġli mi
æĻĤ ä»£
Ġelekt ry
te li
7 æľĪ
ĠÑĤÑĢÐµÐ± Ð¾Ð²Ð°Ð½Ð¸Ñı
Ġproces sus
Ġinner halb
æľĢ é«ĺ
Ġd iá»ħn
Ġp anta
tor Ã³w
ĠFace book
ĠÐ° Ð¼
tor ial
Ġal re
ĠL eit
Ð¾Ñħ ÑĢÐ°Ð½
ĠÐĴ ÐµÐ»Ð¸Ðº
Ã¤ hlt
Ġdur Ã©e
ĠWy da
n owa
ĠAl so
x is
Ġindi ca
om oÅĽÄĩ
sch ul
Ġb ras
N D
ĠII I
Ġk rÃ³
Ð»Ð¸ ÑĪ
ĠÐ´ ÐµÑĢÐ¶
å¸ ³
å¤ ı
ĠÑĪÐ¸ÑĢ Ð¾Ðº
ĠÑįÑĤ Ð°
Ġ7 6
Ġf rÃ©
ei ros
ĠB and
ĠÐŁ Ð¾ÑĤ
Ġcolla b
è£½ åĵģ
ĠÐľ Ð¾Ð¶Ð½Ð¾
tto re
cess ori
Ġsuc cesso
pp el
¹ æŀľ
ĠW eiÃŁ
sp ra
Ġ5 C
Ġid Ã©es
ĠÐĴÐ»Ð°Ð´Ð¸Ð¼ Ð¸ÑĢ
Ġsp etta
Â ¾
Ġk iá»ĩn
Ð¾Ð¹ ÑĤÐ¸
ĠÑĥÑĩ ÐµÑĤ
ja ja
d ores
ĠÐ¢ ÑĥÑĢ
éĢģ æĸĻçĦ¡æĸĻ
ãģĭ ãĤĤ
åı ¸
Ġf Ã©
ma il
Ġpar ole
Ġhi jos
Ġcabe za
ĠwzglÄĻ du
ãĥ³ãĤ «
Ġtet onas
Ġman os
Ġf ru
ĠM es
Ġarri ve
Ġsta gione
Ġ6 9
ĠcompÃ© ten
r Ã¡n
ann t
Ġch anger
Ð¾ Ð¸
Ð½ Ð¾Ðº
Ġt elÃ©fono
Ġpeti tes
Ġpro c
f y
ãĥ¼ãĥĩ ãĤ£
Ġsmart_crop _
ĠÐ¿ Ð¸ÑģÑĮ
Ġza jm
ãĤŃ ãĥ¥
ĠÐ½ÐµÐ´ Ð²Ð¸Ð¶
Ġsali r
ĠÐ¿ Ð¸Ñī
:. :.
èģ ´
äº¤ æıĽ
Ġm uestra
Ġcon cl
Ġposi zione
Ġè ģ
Ġv illage
Ġæ ī
ĠM undo
rÃ¤ ge
rei bung
ĠmÃ¶ chten
Ġcommer ce
Ñģ ÐµÐ´
anti l
Ġro m
ll y
ĠStu d
ãĥ´ ãĤ£
Ġje Å¼eli
ĠåĪ ©
onn er
ĠÑį Ð¿
te llo
Ġéĺ ²
ï¿ £
æ¸ ¯
ĠÐµ Ð¹
Ġg auche
ÑĢÑĥ Ñĩ
h ar
ĠÑĤÐ°Ðº Ð¾Ð³Ð¾
ĠSal ud
Ġsi g
va ge
Ġan ty
Ġprodu ktÃ³w
o z
Ã ľ
ĠJahr es
ĠÐ¡Ð¾Ð¾Ð±Ñī ÐµÐ½Ð¸Ðµ
Ð¾Ñĩ ÑĮ
Ġï¼Ł ãĢį
æ ¿Ģ
Ġt Æ°á»£ng
Ġlegg ere
ri m
Ġchac un
Ġsi mi
Ġpod rÃ³Å¼
arbeit ung
ĠÑĥÑĢÐ¾Ð² Ð½Ñı
ĠPor te
Ġrecon na
ãĤ« ãĥ«
ĠIn nen
Ġava ient
ĠçĽ ´
Ġer war
ĠÐĲ Ð·
Ġtro ppo
an Ã§as
ãĤĴ åıĹãģĳ
Ġco in
op Ã¤
ĠÐ² Ð¸Ð·
ti quetas
uy áº¿t
Ġvo y
Ġreci bir
Ġdiff er
Ġve h
Ñĭ Ñģ
ĠÐ¼ÐµÑģÑı ÑĨ
ĠÐ²ÐµÑĢ Ñħ
ãģĦ ãģ¯
ma i
Ġe vid
ãģ ¬
b st
åĲį çĦ¡ãģĹ
Ġè ¥¿
Ñİ ÑĢ
Ġqu attro
re iche
ĠrÃ©pond re
ĠP aul
Ã¨ tre
ĠDÃ©c ouv
il Ãł
Ð¾Ð¿ Ð¾Ð»
Ġam Ã©
Ġ\": [
t ka
ãĤĪ ãģĦ
en cji
ãģĦ ãģ«
tu al
ĠTr Ã¨s
f ie
tar se
Ð¸Ð½Ð³ Ð°
Ġlu ce
g anis
ĠÐ²Ñĭ ÑģÑĤÐ°Ð²
Ġgay s
Ã¡n dez
ĠprÃ¡c tica
Ġpop ular
ĠÐ¼ÐµÑģÑı ÑĨÐµÐ²
ĠÐ± Ð»Ð¸Ð·
Ġå ĵģ
çª ģ
ĠÐ´ ÑĢÑĥÐ·
Ġo v
Ġvá» ĩ
orma is
ĠÐ´ ÐµÑĪ
Ġk siÄĻ
Ġan uncios
Ġhel fen
ĠG a
ĠGo ogle
Ã® te
Ġb om
ĠÐ²Ð¾Ñģ ÑģÑĤÐ°Ð½Ð¾Ð²
ãģ®å ·
Ġh al
Ġm ur
Ġassoci ation
Ġal b
ĠÐ° Ð·
cch io
Ġãĥ Ħ
ĠS ar
Ġman que
ĠÑģÐ¾Ð± Ð¸ÑĢ
Ġsch e
Ġn owy
do ba
Ġma terial
ĠãĥĿ ãĤ¤ãĥ³ãĥĪ
éł Ĩ
Ġac ciÃ³n
ĠCono cer
ich ter
Ġpres enza
Ã¢ te
ato ire
Ġh om
Ġt inh
ĠÐ½Ð°Ð¿ ÑĢÑı
ĠÐºÐ°Ð¿ Ð¸ÑĤ
ĠÐ· Ð°Ð¹
ĠÐ¾Ð¶ Ð¸Ð´
Ġap lika
éĸĭ åĤ¬
I CI
Ġener gÃŃa
ĠdÃ© partement
ne lles
Ġznale ÅºÄĩ
m ia
ÐµÐ½ ÑĨÐ¸Ð¸
ĠÑģÐµÑĢÐ² Ð¸Ñģ
Ġu tenti
ĠÐ± Ð¸Ð»
Ġer z
Ãª tes
Ġav re
ru p
è¨ ±
M T
Ġle ka
Ġj as
ĠLie be
Ġn utzen
Ġlá» £i
ÐºÐ¾ Ðµ
zy j
Ġv es
Ġhi jo
ĠÐ¾ Ñī
teri ores
Ð¿ÑĢÐµÐ´ ÐµÐ»Ñı
ni Äĩ
Ġper mis
ĠgehÃ¶r t
Ġho je
Ð» Ð¾Ðº
ä¼ Ĭ
ĠÐ° ÑĥÐ´
ãĤĴèªŃ ãĤĢ
f Ã©
ĠAc qu
va te
Ġè¿ ĳ
Ġkh iáº¿n
Ġsema ines
c n
Ġzd jÄĻcia
çģ «
ĠÐµ Ð´
ĠEnt wicklung
Ġg amme
ur re
Ġdar f
cie j
Ġg Ã¼nstig
Ġex ten
I RE
Ġgar ant
us si
Ð½ ÐµÑģ
ĠÅĽrod owis
Ġho a
Ġges am
ie ment
ĠJ ac
ĠÑĩÑĥÐ² ÑģÑĤÐ²
N Y
Ġsam ym
Ġle cture
Ġcontra t
Ġtr ou
Ġpyt anie
ĸ ç¸Ħ
ãģ®ä¸Ń ãģ§
Ð°Ð½ Ð°Ð²Ð»Ð¸Ð²
Ġa gen
Ġl Ã²ng
Ġpor Ã³w
Ġk ennen
æ¨ Ļ
ĠTr as
Ð¸ ÑĨÐ¸
ĠE u
Ġpo is
Ġgen era
ĠÐ¯ Ð½
ĠÐ¼Ð½ Ð¾Ð¶
ĠÄĳ á»§
Ġsu ivre
Ġentre tien
ĠLo cation
L e
zza ti
ãĤĵãģ§ ãģĦãĤĭ
F F
Ġma gni
di gen
ber to
Ġlib ros
Ġd ado
Ġass ol
Ġdzie cka
dz Äħ
ĠZ wei
ĠÐ» Ð¾Ð³
Ġdisponi bili
H Ã´tel
AN D
æ´» åĭķ
ĠÄĳá» ©
ĠÐ² ÑĢ
Ð³ Ð¾ÑĢÐ¾Ð´
ĠÐ¿ÑĢ ÐµÑģÑģ
Ġcontro llo
ĠJ ob
ĠJ us
ĠÐ¿ÑĢÐ¸Ð¾Ð±ÑĢ ÐµÑĤ
Ġc idade
ĠStra ÃŁe
Ġac ciones
ĠS Äħ
ĠÑģÐ°Ð¼ ÑĭÐµ
Ġries go
ie g
ĠÐ¿ÐµÑĢ ÐµÐº
ĠOdpowie dz
Ġzak ÅĤad
ie gel
et h
æ³ Ĭ
Ġsi ano
Ġfi zy
Ġconstru cciÃ³n
Ġhi ver
ĠÐ¾Ð±ÑıÐ· Ð°ÑĤÐµÐ»ÑĮÐ½Ð¾
ĠPeli culas
ord as
ad i
Ð°Ð± Ð¾ÑĢ
ĠÐ¿ÑĢÐ¾Ð¸Ñģ ÑħÐ¾Ð´Ð¸ÑĤ
b lio
ĠW ita
R p
al az
Ġn igdy
ori es
ÃŃ amos
Ġgef unden
ĠC l
ĠPros titutas
iv il
Ġgra ph
ãģª ãģ®ãģĭ
Ġim Ã¡genes
ĠÐ´ Ð¶
Ġdni u
® ®
na ges
Ã© ment
ten u
èĢħ ãģĮ
ĠT P
Ġph im
ĠÑĤÐµÐ» ÐµÐ²
Ġmob ile
de aux
b ÄĻd
Ġedu caciÃ³n
at u
Ġma il
an nage
Ġmoy enne
ister io
Ġes as
setz ung
ĠÑģÐ°Ð¼ Ð¾Ð¼
et ten
Ġsytua cji
Ġcele b
Ġsch a
ĠÐ¡ Ð»ÐµÐ´
Ã¹ a
Ð¾Ð² Ð¾Ðµ
en cial
ĠS ym
ãĥĳ ãĥ¼ãĥĪ
ĠSt r
ĠÑĤÐ°Ðº Ð¸Ð¼
ĠA ktu
Ġjou er
ĠmÃª mes
ĠRÃ© pondre
Ġpl as
lie ÃŁen
Ġp li
Ġma j
Ġa chet
è¨ º
blo ck
Ġtr ady
ĠV ill
Ġcambi ar
è¬ Ŀ
Ġmuch a
ga zione
ni o
ĠÐŀÑģ Ð¾Ð±
ĠÃ©v iter
Ġplu part
Ġw ei
Ġdi ritto
ãĥª ãĥ³ãĤ¯
ãģ®ãģ§ ãģĹãĤĩãģĨ
Ġtu vo
Ð¸ÑĤÐµÐ»ÑĮ Ð½Ð¾Ð¹
olo gna
n arod
Ġi hnen
ĠÐ¡ ÑĤÐ¾
Ġinforma Ã§Ãµes
Ġcontin ua
ĠÐ½ÐµÐ¼ Ð½Ð¾Ð³Ð¾
éĩį è¦ģ
ĠM uy
z ca
ĠD al
ĠSe e
ÃŃ tica
ĠÐ·Ð° Ñħ
Ġbu ona
te i
Ġorgani za
pr Ã¤
Ġj ur
ÐĽ Ðĺ
ĠÑĤÑĭ Ñģ
ĠSe gÃºn
ĠÐ½Ð°Ð´ ÐµÐ¶
ÑĥÐ±Ð»Ð¸ ÐºÐ¾Ð²Ð°Ð½
ĠÑĤÑĢÑĥ Ð´Ð°
ĠÐ¿ÑĢÐ¾Ð¼ ÑĭÑĪÐ»ÐµÐ½
c ente
ĠPubblica to
Ġvuo le
Ġk wo
Ġdru gi
ĠÑģÐ¾Ð² Ð¼ÐµÑģÑĤ
Ġper corso
mit t
ĠÐºÐ¾Ð¼ Ð¼ÐµÐ½ÑĤÐ°ÑĢ
ĠEro ticos
Ġmuer te
ĠÐĴÑĭ Ñģ
ĠÐ¿ÑĢÐ¾ ÑıÐ²
åħ ¸
ĠN ur
ĠÐºÐ¾Ð¼Ð¿ÑĮÑİÑĤ ÐµÑĢ
k lus
c ode
AN O
Ġazien de
ess ione
ÅĤ oÅĽÄĩ
tow ania
Ð± Ðµ
Ġprim eiro
ĠfÃ¼ hren
YW x
jÄħ cej
Ã¡ tico
Ġåı İ
Ġf at
Ġb Ã©
ĠâĢ¦ âĢ¦
èĭ ±
Ġsuper ior
Ð¸ÑĤ ÐµÑģÑĮ
Ġte x
ĠNh á»¯ng
Ġsoci aux
Ġpas sion
ĠÑĢÐ°Ð¹ Ð¾Ð½Ðµ
Ġe vent
Ġz byt
Ã© cu
iss ons
ĠÐŀÑĤ Ð·ÑĭÐ²
Ġatten zione
ĠÐ¿ÑĢÐ¸ Ð³Ð¾ÑĤÐ¾Ð²
ha ft
ĠK iedy
ĠszczegÃ³ÅĤ owo
wid ual
ĠÃ©tablis sement
Ġco che
ãĥª ãĥĥãĤ¯
ĠV enezuela
ĠO fer
ĠFran cis
ãģ£ ãģıãĤĬ
Ġäº ¬
Ġtit le
ãĤĤãģ® ãģ§ãģĻ
bli Å¼
Ġb Ã¡
f rage
ĠNÃ¤ he
ĠÐ¿ ÑĭÑĤ
r ons
ĠP om
ast ÄĻp
ĠM ur
olesc entes
di miento
Ġimp i
bb iamo
Ġpres se
ÑĢÐ¾Ñģ Ð»
ĠTor ino
ĠÐ¿ÑĢ ÐµÐ¶
Ġbi anco
c ola
Ġbezp oÅĽ
ĠEs sen
ç¤¾ ä¼ļ
ne ments
ãĥĥ ãĤº
è©ķ ä¾¡
Ġju gar
ĠÐ¿Ð¾Ð· Ð´
Ã¡ri as
ĠCh o
l ado
ach sen
ĠÐ¿Ð» Ð¾Ñħ
ĠDies es
åħĪ çĶŁ
ãģªãĤī ãģªãģĦ
Ã¤ f
ĠI t
ĠA vis
Ġpro chain
Ġm and
Ġa men
ĠÐºÐ»Ð¸ ÐµÐ½ÑĤ
ĠS neak
les e
ges amt
fe hl
Ġpe au
Ġfour ni
ĠÐ¸ÑģÐ¿Ð¾Ð»ÑĮÐ· Ð¾Ð²Ð°Ð½Ð¸Ñı
Ġex ception
ĠdÃ©cis ion
ĠB itte
h inder
ÐµÐ´ ÐµÐ½Ð¸Ñı
æĸ½ è¨Ń
Ġh ors
ĠÐ² Ð¿ÐµÑĢ
Ġfor se
x ito
Ġ' ).
æĿ± äº¬
æĦı åĳ³
ĠHÃ¶ he
Ġcomp let
ĠP O
ko ÅĤa
î Ģ
p end
Ðł Ðħ
ĠÐŁÐ¾Ñģ Ð»ÐµÐ´
ĠÐľ Ð¾Ð´
w Äħ
Ð½Ð°Ð· Ð½Ð°Ñĩ
ort es
Ġje dem
Ġwy ÅĤÄħ
Ġrac col
Ġesta d
ĠZu kunft
Ð°Ð½ Ðµ
Ġrappres ent
ĠEinz el
ta cji
ĠA cheter
Ã³ rio
ãģ¯ ãĤĬ
ãģĬ ãģĻãģĻãĤģ
è¨ İ
Ġrela tion
Ġuf fici
Ġer fol
ĠÐ½Ð° ÑĨÐ¸Ð¾Ð½
ãĥª ãĤ¹ãĥĪ
\\\\\\\\\\\\\\\\ \\\\\\\\\\\\\\\\
ce m
Ġk iáº¿n
Ã¡ l
ĠLe hr
Ġnature l
zei tig
ĠÃĸ sterreich
ĠB ur
Ġeuro pe
er zy
Ġãģ µ
åĮ ħ
Ġda ÃŁ
ass ung
Ġsui vi
Ġrecom mand
ķı é¡Į
Ġmach ine
x es
Ð¾Ð² Ð°ÑĤÑĮÑģÑı
to ÅĽci
ĠÃ© po
Ġent fern
ĠÐ¿ ÐµÐ½Ñģ
ĠÐ´Ð¾ÐºÑĥÐ¼ ÐµÐ½ÑĤÐ¾Ð²
ĠBar dziej
Ġw ej
Ġe mer
u 04
Ġin stru
ĠÐ¿ Ð°Ð»
Ġmode llo
Ġæ¨ ª
ĠåĲ Ħ
ĠUr laub
Ġrapp orto
ĠKu rz
ãĤı ãģªãģĦ
ĠgiÃ¡ o
ĠÐºÐ¾ÑĢ ÑĢ
ĠÐĳ ÐµÑģ
Ġterm ine
å¯¾ çŃĸ
ĠÐ¾ÑĢ Ð¸Ð³Ð¸Ð½
Ġ5C u04
AN T
ãĤ·ãĥ§ ãĥĥãĥĹ
Ġb leu
ãģ«ãģĬ ãģĳãĤĭ
ĠGes ellschaft
prasz amy
Ġpow odu
Ġti me
Ã´ me
es tiv
ĠÐ¼Ð°ÑĤÐµÑĢÐ¸Ð°Ð» Ð¾Ð²
ĠÐ²Ð»Ð°ÑģÑĤ Ð¸
ĠW est
Ġæ¥Ń åĭĻ
ãĤ¤ ãĥĹ
iss u
Ġre qu
ite ur
Ġrela ted
è¨ ª
ĠTele fon
ĠS lo
ĠAu gen
ĠÐĿ ÐĲ
ĠÐ¿ÑĢ Ð¸ÑģÑĤ
Ġapp li
ĠÐ¼Ð½Ð¾Ð³ Ð¸Ñħ
Ġedu ca
iv es
Ġlo gement
ni j
ĠUS A
Ġe cce
ĠBus car
ĠAnton io
Ġpel ÃŃculas
ĠS onn
d ale
ĠBewert ung
ĠWebs ite
Ġqu ad
Ġin nymi
Ġmet ros
ĠÐ² ÐµÐ»
ĠÐ°Ð²ÑĤÐ¾Ð¼Ð¾Ð± Ð¸Ð»Ñı
Ġderni Ã¨res
ãĥģãĤ§ ãĥĥãĤ¯
æĬ ķç¨¿
ãģĹãģ¦ ãģıãģłãģķãģĦ
Ġ. :
tÃ© ra
Ð°Ð¼ ÐµÑĤÑĢ
ĠÐŁ ÑĥÑĤ
Ġforma ciÃ³n
ĠC ub
al le
Ãĵ W
ĠCz as
it an
Ð¾Ð·Ð¼Ð¾Ð¶ Ð½Ð¾
... ]
Ġza hl
zz e
ãģŁãģı ãģķãĤĵ
ĠÑģÐº Ð¾Ð»ÑĮÐºÐ¾
ĠÑģÐ¼Ð¾Ð¶ ÐµÑĤÐµ
1 l
Ġpra kty
åº Ń
Ġnego cio
h 00
ad er
ÑĤÐ¸Ðº ÑĥÐ»
ĠprÃ© sence
Ġcol lection
Ð¾Ð¹Ð´ ÐµÑĤ
ãģ¾ ãģ£ãģŁ
8 3
Ġ ost
Ġtá»« ng
amer ic
k reis
ĠWohn ung
ĠÐ¾Ð±ÑĢÐ°Ð· Ð¾Ð²Ð°ÑĤÐµÐ»ÑĮ
Ġregar d
re ment
Ġcu ore
Ġop ciones
ãģ® ãģĵãģ¨
ĠÐ°Ð² ÑĤÐ¾
Ñĩ Ð¸ÐºÐ°
il en
Ġgener ale
d l
Ġfa j
ĠÐ´ÐµÐ½ ÐµÐ³
wi ce
c ych
Ġ15 0
ĠÐĶ Ð¸
ĠL yon
Ġpossi bilitÃ©
ie za
era it
Ġin vi
Ġm eio
æĤ ©
ãģ®åĲ į
Ġk lu
Ġg re
Ġdro ite
ĠÐ½Ð°Ð± Ð»ÑİÐ´
Ġpa go
L A
Ġob ras
ĠÐĽ ÑĥÑĩÑĪ
rie ure
Ġforma t
¡ ng
ĠA si
ĠP OR
Ġ2 F
Ġres to
ĠApp ar
ĠÐ² Ð¾ÑģÑĤ
Ġæľ Ŀ
h 30
Ġcur so
Ġgru pos
Ġco eur
ĠNouve au
ãģª ãĤĬ
Ġd wie
Þ ¨
ĠNh Ãł
Ġba ja
ĠD ach
z us
ĠÐ¿ ÑĥÐ±Ð»Ð¸
ĠÐłÑ ķ
tu je
ĠA unque
ĠD ruck
Ġpri mi
Ð°Ð» ÑĥÐ¹
ĠÑģ Ð¸Ð´
Ġpermet tre
Ġw ÄĻ
Ġch uyá»ĩn
Ġswoje go
Ð°ÑİÑī ÐµÐ¹
Ġmar iage
Ð°Ð½ Ð´Ð°
ĠAntw ort
Ã¤ mp
Ð¾Ð²Ð°Ð½ Ð¸ÐµÐ¼
ÃŃ lia
o j
lla re
Ãĩ ÃĥO
Ġdis se
ĠdÃ© li
sze ch
ãģ¤ ãģĭ
ĠW or
åį ³
éģİ ãģİ
Ð° ÑīÐµ
Ġben Ã¶
ãģŀ ãĤĮ
Ġmed idas
ri c
ĠrÃ©f Ã©rence
Ġzdo by
Ġmar che
ĠdÃ© mo
Â ¢
á» ģ
ĠW h
ĠÐĿ Ð°Ð·
ĠÐľ Ð°Ð³
ĠÑĤÐ¾ÑĢÐ³ Ð¾Ð²
Ġéĸ ĭ
ĠÐ·Ð°ÑĤ ÐµÐ¼
ãĤ ħ
ĠgÃ©nÃ©ra le
Ġ[ ...]
Ġãĥķ ãĤ§
Ġest Ã©
ĠA less
ĠÑĥ Ð¿ÑĢ
ãĥŀ ãĥĥãĥĪ
ĠÑģÐ¾ÑģÑĤÐ°Ð² Ð»ÑıÐµÑĤ
ÐµÐ½ÑĮ ÑĪÐµ
ĠD ir
ĠEnt scheid
ĠMar ia
az zo
tel li
ĠçĶ· æĢ§
ãģ¨ãģª ãĤĬãģ¾ãģĻ
Ġpubli que
Ġpres que
tr odu
ĠrÃ© gi
ID AD
Ġama teur
Ġacer ca
Ġc Äĥn
Ġatra k
ĠM A
Ġdur ant
Ġãģ¡ ãĤĩãģ£ãģ¨
ãĥĽ ãĥ¼ãĥł
Ġå¸ Ĥ
wir tschaft
es si
Ġno te
Ġ20 00
vi mento
Ġ `
è¦ĭ ãģ¦
Ġpres tamos
Ġnor mal
m ont
ãĥ¼ ãĤĴ
ch os
Ġconten u
b ao
volu ciÃ³n
ĠCh ine
ĠÐ¾Ð±Ð½ Ð°ÑĢÑĥÐ¶
Ġin cor
ãĥ³ãĥĨ ãĤ£
te mps
tow anie
Ġragaz zi
Ġs od
ĠQu ando
ĠY ou
ista d
al u
ĠMig uel
Ġan unci
Ð½Ð¾ ÑĪ
Ġc á»Ńa
Ġbe kom
ĠB lo
çļĦ ãģ«ãģ¯
col es
ĠÑĥÑĩ ÐµÐ½
Ġpierw sze
ĠL uft
Ġre mar
Ġor y
Ġvier nes
Ġco le
ĠÑĥ ÑħÐ¾Ð´
ĠÐ¿ÑĢ Ð¾Ð¶
Ġen or
er z
å¤ ®
Ġm icro
ACI ÃĵN
Ġrichi esta
Ġucz ni
ĠÃ¼ b
ĠÄĳ Äĥng
ĠÐĴÐ¸Ð´ Ðµ
ĠÐ¿Ð¾ÑģÑĤ ÑĢÐ¾
Ġpr eno
ĠprÃ³xi mo
Ġsou ff
Ġlaiss er
åĽ °
ĠG R
Ġop ti
Ġk rÃ³t
Ġæµ· å¤ĸ
is Ã©s
ĠUn sere
Ġ{ "
ãĥ¯ ãĥ¼ãĤ¯
ge gen
Ġaus ges
ĠÑĢÐ°Ð¼ ÐºÐ°Ñħ
Ġ] .
ti me
Ġ48 95
pe z
owanie m
Ġjed nej
ĠÄĳ a
ĠS onnen
Ð¸Ð» ÐµÐ¹
ãģ®æ Ī
Ġweit eren
Ġav uto
ĠÐ´Ð¾Ð² Ð¾Ð»ÑĮÐ½Ð¾
Ġprze my
Ġdeutsch en
bilidad e
Ġparticu liÃ¨rement
je un
Ġse an
Ġexp li
Ġor o
ĠPri mer
am or
ĠH el
ĠEx per
Ġ6 6
ct ur
Ġlie gen
Ġpra wie
Ġh iá»ĥu
Ðļ Ðŀ
Ð¡Ð Ĥ
Ġven ir
Ġnu its
ĠÑģ Ð½Ð¸Ð¼
Ã¼ ler
Ġou tras
Ġes f
Ġero ticos
Ġfilm s
Ġw raÅ¼
Ġclas e
Ġutilis Ã©
ĠK ran
Ð¸Ð´ ÐµÑĤ
ĠS zy
ĠR ady
ĠTa ges
om ma
Ġtito lo
ÅĤa ty
ow ano
Ġå »
Ã¡b ado
ta das
ĠÑģÐ°Ð¼ ÑĭÐ¹
Ġsen si
ri Ã³
Ġsc Ã¨ne
Ġat tes
â Ī
Ġg rid
_ id
Ġåģ ½çī©
çĽ ¤
Ð¾Ð´ ÐµÐ¹ÑģÑĤÐ²
ãģ»ãģĨ ãģĮ
ãģĭãĤī ãģ®
Ð¸ÑĤÐµÐ»ÑĮ Ð½Ð¾Ð³Ð¾
Ġsta te
ĠB oden
Ġmat ch
k Ã³ÅĤ
ãĤ¸ ãĥįãĤ¹
ĠAn fang
Ð°Ð½ Ð³
ĠãĤ³ ãĥ¡ãĥ³ãĥĪ
Ġèµ ¤
utz t
Ġt ierra
Ġc Ã©
æ¤ľ ç´¢
Ġwy j
ak Ã³w
Ġâ Ķ
æ³¨ æĦı
Ġt Ãªn
Ġzgod nie
tag on
Ġappar tamento
b W
Ġsyste mu
Ġ) )
Ð¾Ð´ Ñĥ
ĠCam p
ãģ¯ ãģĵãģ¡ãĤī
è¬ Ľ
g he
Ġprac ÄĻ
Ġdo ÅĽÄĩ
ãģĬ é¡ĺãģĦ
ãģ®æ ´
is Ã©e
or itÃ©
èª ²
ĠCu ir
ĠA insi
ÑĥÑĪ ÐºÐ¸
ÑĥÑİÑī Ð¸Ñħ
Ġoffer ta
tre ten
Ġ4895 150
Ġrodza ju
Ġjp g
Ġcompr end
Ġdem asi
ãĥª ãĥ³
ĠÑģÐ¼ ÑĭÑģÐ»
ĠPri ma
ow od
Ġtr uyá»ģn
Ġpla te
ĠÐŁÑĢ Ð¸Ð¼
ĠÐ¿Ð° ÑĨÐ¸
ent lichen
Ġf rance
Ġdire ct
Ġfaci lement
ĠI T
Ġvo i
Ġwy ra
ĠSe g
ĠÐºÐ°ÑĩÐµÑģÑĤÐ² Ð¾
ĠÑģÐ¿Ð¾ÑĢÑĤ Ð¸Ð²
ĠÑģÐµÑĢ Ð¸Ð¸
ĠÐ¸Ð¼ ÑĥÑīÐµÑģÑĤÐ²
ĠH D
ÑİÑī Ð¸Ñħ
vis o
Ġmein em
çĻº è¡¨
Ã¼n st
ĠÑĥÐºÑĢÐ° Ð¸Ð½
ĠÑĥÐ·Ð½ Ð°ÑĤÑĮ
Ġpeque Ã±o
Ġulti mi
ĠMi esz
Ġauto matique
ĠÐ¾Ð´ Ð½Ð°ÐºÐ¾
dzia ÅĤu
Ġn etto
Ġten ido
Ġens eigne
Ġchange ment
ĠÄ ĩ
ĠD ig
wach sen
ĠD O
t nych
ĠÐ° Ð¼ÐµÑĢÐ¸ÐºÐ°Ð½
ac ciÃ³n
ĠHam burg
ĠS mart
Ġre cord
ĠMilli onen
Ġnowo czes
Ġãĥĸ ãĥ«
Ġpo chi
owa li
å¡Ĺ è£ħ
Ġbef ore
éĿ Ĵ
ÐµÐ¼ Ð°ÑĤ
Ġac onte
gl ise
ĠÐº Ð¾ÑģÑĤ
ãģĤãĤĬãģĮ ãģ¨ãģĨ
åĽ Ľ
ĠHa ce
lic ÃŃa
Ð¾Ð³ ÑĢÐ°Ð´
ĠÐ¿Ð¾ÑĤ ÐµÑĢ
Ġis ol
Ġassur er
Ġæ Ľ
ç¹ Ķ
Ġimmag ini
Ġ7 4
Ġm Ã¨re
ou x
or Ã³w
Ġmes ures
ĠÃ¡ rea
ĠÐ¿Ð¾ ÑĪ
ĠÐ³ Ð¸Ð¿
Ġprod ut
ĠBi anco
Â «
Ãª ng
Ġzei gen
Ġno tte
Ġeinz el
k niÄĻ
ubli que
ç«ĭ ãģ¡
, ,
si to
ou d
Ð¶ ÐµÐ½Ð¸Ñı
ĠÐ¿ÑĢÐ¾Ð²ÐµÐ´ ÐµÐ½Ð¸Ñı
ami ng
Ġpro cha
h ei
h aupt
ĠH aute
IL LE
Ġcr is
Ġelekt roni
ĠÐ¿Ð¾ ÑģÐº
Ġlu dzie
ĠL ang
ĠFre und
7 3
ĠÐ¾Ð´ Ð½Ð¸Ð¼
r ano
Ġl Ã¤
ĠM ain
Ġi P
ites se
ĠãĤ¯ ãĥ©
Ġsigui entes
Ġof ertas
Ġbus cando
Ġrecom end
Ġconse gu
ei le
ç Ŀ
ĠciÄħ gu
Ġcar go
Ġbo ok
ĠSte uer
v an
æĮ ¯
ĠH igh
ĠÐ·Ð°Ð¿ ÑĢÐ¾Ñģ
Ġsitu azione
ĠBo ok
ĠE ing
ĠM ac
ÐµÐ² ÑĭÑħ
Ġï¼ ľ
tif ication
Ġæĸ Ļ
ĠÃ© d
Ġcal me
ĠãĤ·ãĥ£ ãĥįãĥ«
ãģĦãģŁ ãģĦ
ãĤ· ãĤ¢
Ġc á»ķ
f r
Ġord ine
de ck
ĠÐ¦ Ð²ÐµÑĤ
ĠÐľ ÐµÐ´
Ġneces idad
ĠÐ¿ÑĢ ÐµÐ¼
Ġp ur
Ġfuer za
Ġp uoi
Ġprof ission
ĠOri gin
ĠÐ´Ð°Ð» ÐµÐµ
ar di
Äħd Åº
ere ch
s Ã©
ĠB is
Ð°Ð½ Ð¸
z Ã¡
ti ma
ĠU p
ter y
ãģ®è© ±
ĠvÃ©ri table
Ġpoli tiques
ĠI S
ĠZ ent
ĠÐ½ ÐµÐ»ÑĮÐ·Ñı
Ġfait es
Ġrespons able
cie ux
ĠÐºÐ¾Ð¼ ÑĦÐ¾ÑĢÑĤ
le y
ĠÑĤÑĢÐ°Ð½ Ñģ
è« ĭ
alis i
ĠNe lla
Ġtem as
ĠÐ¿ÑĢÐ¸Ð² Ð¾Ð´
ĠKh Ã´ng
richt ung
Ġpla ya
Ġedi ciÃ³n
ĠÐ³Ð¾Ð²Ð¾ÑĢ Ð¸ÑĤ
ic ul
li eren
na j
ĠÐ¡ Ð²ÐµÑĤ
Ġpos te
ĠÐ¼Ð¾Ð´ ÐµÐ»ÑĮ
Ðº ÐµÑĤ
Ġce lles
Ġc inÃ©
ĠT ec
Ġimport antes
ĠAf rique
ĠÑĨÐ¸ ÑĦ
g ry
s ung
ĠÐ½Ð°ÑĪ ÐµÐ³Ð¾
ĠÐºÐ¾Ð¼ Ð¸ÑģÑģ
IC A
+ []
ĠE cco
ĠãĤĪ ãĤĬ
geb ung
ĠÐºÐ°Ð¶Ð´ Ð¾Ð³Ð¾
c enza
ĠÐ¸ÑģÐ¿ ÑĭÑĤ
Ġpad re
Ġd ys
met ros
ĠÐ¿ÑĢÑıÐ¼ Ð¾
ãģ¤ ãģ®
Ġmá» Ĺi
ĠVer kehr
te lier
Ġress ources
Ãª che
Ġwe ek
Ġso ient
Ġencu entro
ĠzwiÄħz ku
Ġv arie
ãĥ³ãĥ ĵ
at ung
ĠD ort
rit ten
ĠÐ¿Ð¾Ñģ ÐµÐ»
Ġgan ze
ĠÐ»ÐµÐº Ð°ÑĢ
ä¸Ģ è¦§
ãĥĳ ãĥ³
ãĥ« ãĥ¡
ĠDa ta
è§ Ĵ
ĠT ar
a ga
f ung
Ġa tiv
ĠÄĳá»Ļ i
ĠGe bur
Ġch ance
ĠÐĿ ÐµÑĤ
ĠÐ¼Ð°ÑģÑĤ ÐµÑĢ
ĠskÃ³ ry
ĠÐļ Ð¾Ð½ÑĤ
ĠO g
Ġcorres pon
Ġsex ual
Ġconj unto
Ġc ita
ĠÐ°Ð²ÑĤÐ¾Ð¼Ð¾Ð± Ð¸Ð»ÑĮ
il bao
Ġusu ario
ĠMa terial
åħ ļ
Ġprimer os
ring t
ĠS elon
ĠÐŃÑĤ Ð¾ÑĤ
Ġpra tica
ĠK reis
owan ej
bar en
Ġty s
Ġg Ã³r
ĠåĮĹ æµ·éģĵ
éģ ł
Ġdi o
ir t
G B
ĠP ost
o ir
ĠC ro
Ã´ ne
ĠÐ² Ð¸ÑĤ
Ñĭ Ð¿
Ã¨ ce
Ġb ringen
Ġes sen
ĠÐĵ Ð¾ÑĢ
Ġarri vÃ©e
ĠÐ³ ÑĥÐ±
åĪ Ĺ
Ġele mentos
ĠM Ã¼
ĠKomment are
Ġy e
w Ã¼r
ĠÐ¾ Ð½Ð¾
Ġambi ente
ĠV ic
Ġel Ã©ctri
Ġ9 4
Ġpremi ers
z m
æĽ¿ ãģĪ
ãĤĴæĦ Łãģĺ
Ġãĥģ ãĤ§
ãĥ¢ ãĥ³
ãĤ¹ ãĥ¼ãĥĳ
© æŁ»
Ġa go
Ġop Ã©ration
f le
ĠÐº Ð½Ð¾Ð¿
ĠÐ¸Ð³ÑĢÐ¾Ð² ÑĭÐµ
ĠÐ² Ð¸Ð½
ÐºÑĢ ÐµÑĤ
Ġqu áº£n
Ġpos sa
çĽ Ľ
ĠInter nacional
ĠHer steller
ĠG las
ĠN ouvelle
OW E
wa ÅĤy
çķ ¥
Ġpl ante
ĠA bend
ÐµÑĪ ÐµÑģÑĤÐ²
Ġe vento
Ġpraw dzi
ãģĻ ãģĶ
ĠFami lien
Ġchi co
Ġadul tos
Ãºsque da
Ġhabit ants
Ġreg ion
ãģĹãģ¦ ãĤĭ
ãģķãĤĵ ãģ¯
Ġcá»© u
Ġcon to
ĠFrances co
Ġco o
Ġãģ¾ ãģł
Ġdispos izione
ar lo
ĠÃ© xito
itÃ¤ ts
Ġmod Ã¨les
Ġcos to
èµ· ãģĵ
ĠrÃ©sul tat
da ten
Ġsu d
æ´ ¥
ãģı ãģ¨
ĠRe cht
Ġnos so
ãģ®å ĳ
Ġdist ribu
Ġkli entÃ³w
Ġste llt
ĠCh ina
Ġoczy wiÅĽcie
Ġd Ãłi
Ġtakie go
ver saire
Ġpowin ien
Ġç· ¨
èĢĥ ãģĪãĤĭ
Ġobie ktu
Ġm Ã³w
ĠTÃ©lÃ© charger
Ġou b
ĠÐ¿ÐµÑĢ ÐµÑģ
çĽ¸ åł´
çļ Ĩ
ura ta
uj esz
tur al
ĠdÃ©s ormais
Ġwo llte
ĠPla y
se e
Ġpos e
Ġmob il
Ġanal yse
r ados
is mus
Ġgl ob
å¹ ¸
Ġde vis
ĠÃ©val u
Ġp ierre
ĠÐ¾Ð± ÑĢÐ°Ð±Ð¾ÑĤ
ĠÐ¼ Ð¾ÑģÐº
uel s
ĠÑĢ ÐµÑģÑĤ
mes so
ĠS amo
Ġs ang
Ġsz ans
ĠCent rum
äº ī
an Ã³w
ĠP S
Ã¨ ve
ĠÐ·Ð°Ñī Ð¸ÑĤ
ĠÐ²Ð· Ð³
ĠÑįÐº ÑĢÐ°Ð½
E U
¹ ¿
Ġä»£ å¼ķ
Ġï¼ ½
ĠãĥĹ ãĥ©
re f
ĠÐ¿ÑĢÐ¾ÐµÐºÑĤ Ð°
ZX J
Ġpomo cÄħ
ãĤ¿ ãĥ«
Ġh ina
ĠÐ¿Ð¾Ð» Ð¾Ð²
ĠD ur
ãĤ¹ãĤ¿ ãĥĥãĥķ
r Ã³n
ĠÐ¿ÑĢÐ°Ð² Ð¸Ð»ÑĮ
Ġde pois
Ġkorzy st
Ġscon to
Ġme zzo
ãĥĹ ãĥ©
p Z
Ġch ÄĻ
éģ¸ æĬŀ
Ġex tre
Ġmiejs c
Ġinter vention
ĠÐ´Ð¾Ð»Ð¶ Ð½Ð¾
Ġh alten
é Ĭ
Ġall ora
Ġph ong
ĠC ab
ĠÐ½Ð¾Ð² Ð¾Ð³Ð¾
å¯ Ĩ
ba hn
ĠÐ¿ ÐµÐ´
ĠÐ²Ð·Ð° Ð¸Ð¼
Ġrappres enta
Ġaug ment
c cion
Ġres id
Ġsa it
ĠÑĢÑĭ Ð±
Ã¨ rent
ĠD zi
si ert
ĠÐ¿Ð¾ÑģÑĤÐ¾ÑıÐ½ Ð½Ð¾
ĠMich a
tr Ã¤
fahr t
ãģ«å¯¾ ãģĹãģ¦
ÑĢ Ð¾Ðº
ĠÐ°Ð½ Ð°Ð»Ð¾Ð³
ĠÐ¡Ð¿ Ð°ÑģÐ¸Ð±Ð¾
ĠVo ll
ĠFor sch
Ġpropri Ã©tÃ©
ĠÐ½Ð°ÑĪ Ð¸Ñħ
å¼ ģ
Ġk Ã½
wia Äĩ
ĠpÃºb li
Ġlie ux
Ġge ei
ĠÑģ Ð¾ÑĢ
ĠbÃ¢ ti
Ġæ¥½ å¤©
ãģ© ãģĵ
Ġdise Ã±
Ġop inie
Ġ uro
ĠV ors
Ġag ora
ãĤ¨ ãĥĥãĥĪ
ãĤ» ãĥ³ãĤ¿ãĥ¼
Ġçµ Į
æ ¤
ĠTh is
Ġcar rera
c ts
ĠA by
Ġhá» ıi
ka uft
ĠÃ©to iles
ĠÑĢÐ°Ñģ ÑĪÐ¸ÑĢ
ÑĢÐ°ÑĤ ÐµÐ³
ĠS C
ĠÑĦ Ð»
is cono
Ġre gi
ĠPag inas
ĠEdu caciÃ³n
Ġini cia
Ġgu ten
ĠS T
ĠB our
Ġlu miÃ¨re
ĠÐ¾Ð¿ ÐµÑĢÐ°
ĠÐ½ÐµÑģÐº Ð¾Ð»ÑĮ
çĲĨ çĶ±
ar te
Ġtecn ologÃŃa
Ġestra te
ac to
ig es
ĠÐ·Ð°Ð¼ ÐµÐ½
Ġprze kon
æķ µ
ĠÐ·Ð°ÐºÐ¾Ð½ Ð¾Ð´Ð°ÑĤÐµÐ»ÑĮ
Ġob raz
Ġ2018 å¹´
Ĭ ¶
ĠÐ¦ ÐµÐ½ÑĤÑĢ
Ġtr á»±c
Ġcoment ario
ĠEs per
s s
Ð½ ÐµÐ½Ð¸Ñı
Ñı ÑİÑĤ
bo t
Ġza rzÄħdz
Ġpeque Ã±a
ĠPoli zei
Ġde dica
ia ÅĤy
ĠextÃ© rieur
ĠÅļ wiÄĻ
ÑĪ ÐµÐ¹
Ġo fi
t one
ä¿Ŀ è¨¼
ãĤ« ãĥ©ãĥ¼
ãģ®æ İ
ĠÐ¾ÑĤ Ð¿
Ġderni ers
Ġco per
ÑģÐº Ð°Ð¶
Ð¾Ðº Ð¾Ð¹
Ġé §
èĢħ ãģ®
ĠB ank
a zioni
Ġacqu isto
ĠÐ² ÐµÐ»Ð¸Ðº
ĠGra tu
Ġty pes
ĠAr ticolo
ĠÑħÑĥÐ´ Ð¾Ð¶
um in
ĠÃ ĳ
Ġcáº£ nh
Ãºt bol
ĠÐ¿Ð¾Ð´ Ð¿Ð¸Ñģ
Ġprue ba
ĠÑģÐ» ÑĥÑĪ
Ġparte ci
Ġrich ie
Ġf und
Ñĭ ÑģÐº
ãģ§ãģĻ ãģĹ
è¼ ª
Ġgi ng
æķ £
Ġdeter min
U B
an ne
ĠâĢ º
Ġlong temps
ĠÑĥÐ´ Ð¸Ð²
» ¿
ĠNaj lep
Ġpop ra
gles ia
ĠPr Ã¤
zahl ung
fe hlen
gen ommen
Ġpob laciÃ³n
Ġc odzien
ãĥ¼ ãĥ¼
ä¹ Ŀ
Ġfil s
tycz na
Ġcam pagne
çĭ ¬
ĠÑĤÑĢ ÐµÑĤÑĮ
ĠÐĴ Ð¸Ðº
ĠLa uf
ĠÐ²Ñĭ Ð¸Ð³ÑĢ
Ġarch ite
Ġconc re
Ġcomp et
Ġta ka
Ġ- ,
ĠPoli tik
Ġpo tem
Ġme xic
ĠG on
Ð¸ÑĢÐ¾Ð² ÐºÐ¸
ĠÑĨÐ²ÐµÑĤ Ð°
Ġtritur adora
ĠPe dro
Ġprincip io
ĠIn sta
Ġen v
it ten
ĠÑİ ÑĢÐ¸Ð´
Ġmon tre
Ġè Ĭ±
ĠvÃŃ de
åĲ Ľ
ãĤı ãĤĮ
li d
Ġcre a
ĠÑģÐµÑĢ Ð¸
Ġop ciÃ³n
Ġpropri Ã©
ĠC li
cid ent
ĠÐ¾Ðº Ð¾Ð½Ñĩ
ĠG da
wo li
çĻ» åł´
li ge
Ġcent rum
Ð½Ð¸Ðº Ð°Ð¼Ð¸
ãģ¾ ãģĦ
Ġpag inas
Ġfor o
Ġes pos
ĠK od
Ġog rom
ãģ£ãģ± ãĤĬ
Ġãĥ ¤
Ġbeste ht
ĠVo cÃª
an ka
Ġb rz
Ġ osz
ï¼ Ń
å° Ħ
ĠÐł Ð¾ÑģÑĤ
ĠÐ²Ð¾Ð·Ð´ ÐµÐ¹ÑģÑĤÐ²
¯ u
uf fe
ni c
ãģ£ ãģ¡ãĤĥ
çŃ ĭ
Ġh ref
ÑĢÐµÐ¼ ÐµÐ½Ð½Ð¾
l am
ãĥĥãĥĶ ãĥ³ãĤ°
CI ÃĵN
Ġapres ent
Ġmen or
äºº ãģ«
cour t
in et
ãģĭãĤī ãģ¯
k Ã¼
åł Ĥ
ĠãĤª ãĥ³
Ġs ome
Ġex am
ĠÐ½Ð¸Ðº Ð¾Ð³Ð´Ð°
I 6
ĠLi czba
ĠÄĲ áº¡i
Ġ ä½ĵ
Ġo cze
ei er
ĠÐ»ÐµÑĩ ÐµÐ½Ð¸Ñı
Ð¸Ð³ Ð¸
Ġmani f
ĠDam it
Ġu moÅ¼li
ãģ®è ĩª
re ch
ard ino
ĠÑĥ ÐºÑĢ
Ġverschieden e
Ġâĸ ¼
ä¾¿ åĪ©
ĠÐ·Ð½Ð°Ñĩ Ð¸ÑĤ
l mente
Ġk as
Ġpa cj
Ġå® ļ
ĠÐł ÐµÐ³
Ġch Ã¢n
Ġ200 4
Ġre li
ĠÐ¿ Ð°Ð¿
ĠÐº Ð¾ÑĪ
ÑģÑĤÐ² Ð¸Ðµ
Ñĩ Ð¸ÐºÐ¾Ð²
ĠÐºÐ¾ÑĢ Ð·
Ġsta mpa
Þª Þ
ÐĲ ÐĿ
Ð¸ÑĤ ÑĥÑĤ
Ġthu á»Ļc
Ġh Ã¤uf
va in
l or
Ġd ol
h ait
Ð¸ÑĢÑĥ ÑİÑĤ
Ġsc rit
ãģ®ãģ§ ãģ¯ãģªãģĦ
Ġter rasse
Ġ2019 å¹´
ï½ °
and onn
Ġsind a
ĠÑĤ Ð°Ð½
V s
Ġp oni
Ġescl usi
Ġof ere
Ð¸Ð· Ð¼Ð°
Y S
Ġod wie
æ³¨ æĸĩ
ga ti
3 1
Ð°ÑĢÑĤ ÑĦ
æ³ ī
Ġtra in
Ġinternation al
cor r
Ġinsta la
ĠIB _
å¯ º
ãĤĪ ãģ³
i miento
mer ic
ĠWy sÅĤ
ka Äĩ
ĠcompaÃ± ÃŃa
Ġï¼ ĭ
Ġãĥ© ãĤ¤
ĠÑģÑĤ Ð¸Ñħ
ĠÐľÐ¾ÑģÐºÐ² Ñĭ
Ġf Ã¼nf
Ġpo ÅĤoÅ¼
áº¿ p
ãģĭãģª ãģĭ
æĬĢ è¡ĵ
ĠÐ¾ÑĤÐ¼ ÐµÑĩ
ĠÐ¿Ð¾ÑģÐº Ð¾Ð»ÑĮÐºÑĥ
Ġa ctions
ãĤĴ åıĹ
ĠW Ã¼r
ach ten
ĠGar cÃŃa
çµĤ ãĤı
Ġsi gn
ÃŃ os
ãĥĥ ãĤ¸
Ġl y
tto m
æ¸ ¡
Ġcha uffage
P E
Ð¸ÑģÑĤ ÐµÑĢ
Ġin via
ĠNe ue
Ġimp orte
ãģ£ãģ¦ ãģĹãģ¾
ĠFe uer
Ġcin q
ÐµÐ¶ Ð´Ð°
Ð¸Ð· Ð°ÑĨÐ¸Ñı
Ġfin ale
Ġtrad i
ĠWszyst kie
ĠãĤµ ãĥŀ
ÅĤu Å¼
Ġm á»©c
ĠÐº Ð°Ñģ
Ġdom in
èµ ¤
ãĥī ãĥ©
ĠÐ´ÐµÐ» Ð°
ĠLe der
ĠD ein
ta ll
ĠåĪ Ĩ
ĠÑģÐ¾ÑģÑĤ Ð¾Ñı
Ġj az
Ġvor h
owo hl
ĠÐ¿Ð¾Ðº ÑĢÑĭÑĤ
ĠÐº Ð¾Ð³Ð¾
ĠÐ¿ÑĢÐµÐ´ Ð½Ð°Ð·Ð½Ð°Ñĩ
ĠÐ¾ÑĢ Ð³
Ð¼ Ð¼
ÅĽ rod
ĠC lub
ĠÐ½Ð¸ Ð¶Ðµ
ĠÐ³Ð¾Ð´ Ñĭ
Ġtrav estis
Ġaque llos
ir ie
L I
Ġrifer imento
ej a
czenie m
mu la
ãģ®è £
6 9
çĽ Ĭ
åı¯ æĦĽ
Ġen tiÃ¨re
ĠÐ±Ð»Ð°Ð³ Ð¾Ð´Ð°ÑĢÑı
i ad
ĠLou is
Ġsucc Ã¨s
C B
al noÅĽÄĩ
ÐĲ Ðŀ
ĠÐ¤ Ð¾ÑĤÐ¾
Ġe cc
éĸĭ å§ĭ
Ġj an
Ġpo ÅĤÄħ
Ð¸ÑĢÑĥ Ñģ
çĻº çĶŁ
Ġpro vincia
Ġmoy ens
Ġand are
uyá»ĩ t
le ts
Ġretr ouver
re mos
ow nie
v olo
Ġparti cular
Ġren for
cia Å¼
ä¿Ŀ éĻº
rei fen
ĠÑģÑĤÐ°ÑĤÑĮ Ð¸
ĠÐ¼ ÐµÐ½ÑĮÑĪÐµ
Ġse de
Ġentfern t
ve ill
Ġcar ta
âĺ Ĩ
ãģ£ãģ¦ ãģĦ
ĠTh anh
Ġkh ai
Ġcontri b
é ®®
ãĥķ ãĥ«
ãĤ¹ ãĤ¹ãĥ¡
11 æľĪ
ĠÐ§ ÐµÐ¼
Ġpowierzch ni
ĠÐŁÐ¾Ñĩ ÐµÐ¼Ñĥ
åĲĳ ãģĳ
Ġutili zzo
rei b
Ġfour nisse
ĠNg h
ĠÐº Ð°Ð»
Ġpa ese
ĠS et
l isch
Ġend roit
ari co
çĲĨ è§£
ĠÑĦÑĥÐ½Ðº ÑĨÐ¸Ð¾Ð½
ĠÐ½ÐµÐºÐ¾ÑĤÐ¾ÑĢ ÑĭÐµ
Ġmol te
Ġel es
Ġd ung
bie t
uj ourd
b ido
k m
Ġver t
Ġp Ã¨re
Ġ owo
Ġnum Ã©rique
Ġang iel
Ġanima ux
Ġs Ã¡t
Ġfun ciÃ³n
an ach
ĠÐ»ÑİÐ± Ð¾Ð²
ÐµÐ· Ð´Ð°
æıĲ ä¾Ľ
Ġmensa je
Ġde por
vo ca
ĠH il
Ġsz p
ãģ§ãģĻ ãģĭãĤī
Ġsex y
Ġper man
Ġpod ej
çŁ Ń
ĠB ran
Ġeigen e
ĠÐķ ÐºÐ°ÑĤ
ĠÑĢÐµÐ³ ÑĥÐ»Ð¸
ĠÐĿ Ð¸Ð¶
ĠÐ²Ñģ Ñİ
ĠÃī tats
Ġz ie
ĠÑįÑĤ Ð¾Ð¼Ñĥ
Ġfron te
ãĥª ãĥĨãĤ£
åĿ ĩ
ãģĤ ãģªãģŁ
æľŁ å¾ħ
ĠÐ·Ð°Ð²Ð¸Ñģ Ð¸Ð¼Ð¾ÑģÑĤÐ¸
Ġw ho
Ġar re
ãĥĨ ãĥ¬ãĥĵ
ĠMen sa
ĠÃ ļ
Ġv ig
Ġw elt
Ð°Ð² Ð¸Ñģ
Ġviv ir
Ġpro cesso
Ġsuf ici
z uf
ª ¨
Ġsch ein
Ġber eit
ĠÐ¾Ð± Ð»
ĠGi u
Ġe venti
w oÅĽci
è» į
Ġso lic
Ġdar Ã¼ber
ĠmatÃ©r iel
ĠrÃ©se aux
ÑĥÑĪ ÐºÐ°
Ð¸ÑĨ Ñĥ
ĠAn ne
Ġim mÃ©dia
Ġsig lo
A d
ĠtÃ© mo
p Ã³ÅĤ
Ġex erci
Ġphy sique
Ġpre ve
Ġgiá»¯ a
ĠÐºÐ¾Ð¶ Ð¸
Ġ1 20
ĠÑģÑĤ Ð°Ð»Ð¾
od aw
an ki
row ia
u h
5 1
rz wi
ĠMode ll
Ġdom icile
Ġza ÅĽ
Ġproje kt
ĠE igen
ĠÑģ Ð°Ð¼Ð¸
rÃ³ ci
Ġpopula tion
ĠÑĥÑģÐ¿ ÐµÑĪ
Ã¤ch lich
Ġor ient
Ðŀ Ðł
Ð½Ð¾ÑģÑĤ ÑĢÐ°Ð½
Ġt owarzy
ĠZ ubehÃ¶r
en zen
Ġdos sier
Ġa j
ĠBask ets
ami que
Ġpr Ãªt
Ġutilis ateurs
Ġsz t
Ġkobie t
Ġing res
Ġh eiÃŁ
ĠÃ ®
Ð¸ÑĪ ÑĮ
ĠÑĦ Ð°ÐºÑĤÐ¾ÑĢ
Ġprzy jem
ĠÐ¿Ð¾Ð½ ÑĢÐ°Ð²
ÐµÐ½ Ð½
ĠC ia
Ġcre are
Ġmog ÄĻ
Ġlokali zacji
Ġan y
ĠF Ã¼hr
å¸ ĮæľĽ
ĠS ty
Ġindy widual
çĻº å£²
ĠKom p
ĠÐ¾Ð¿ÑĤ Ð¸Ð¼
ĠÐ¸Ð½ÑĦÐ¾ÑĢÐ¼ Ð°ÑĨÐ¸Ð¾Ð½
ĠÐ²Ð· ÑĢÐ¾ÑģÐ»
ĠÐ±ÐµÑĢ ÐµÐ¼
fÃ¼ hl
d ono
ĠÐ¡ ÐµÐ¹ÑĩÐ°Ñģ
å¿ «
mp er
Ġodpowiedz ial
ĠWar to
Ġm á»¥c
Ð¸ÑģÑĤ Ð¾Ð²
ĠTa gen
ÃŃ veis
Ġsab e
ĠMa ÃŁ
wer b
ces z
ãĥĭ ãĥ¡
Ġsolu tions
Ġpubli Ã©
ĠZ o
ĠM ul
ĠÐ¿ÑĢÐ¸Ð² Ð»ÐµÐº
gu ay
Ġactu ali
Ġpu di
ãģĤ ãģĴ
ç«ĭ ãģ¦
ĠÐ¼Ð°ÑĤÐµÑĢÐ¸Ð°Ð» Ñĭ
ÅĦst w
è³ Ģ
Ġent ro
å± ¤
Ġprofession nelle
ĠÃ©po que
ĠÐ°Ð± Ñģ
ĠVer kauf
qu Ã©s
r t
ĠÐļ Ð°Ð¶Ð´
Ġa jus
Ġapro ve
we ÅĤ
Ġpour rez
ĠFir enze
pi ti
an cias
ĠK ri
ä¿ º
ç´ł æĿĲ
g iej
Ġkho áº£ng
Ġun ica
Ġå¿ ħ
ĠdifÃŃ cil
ĠIde en
Ġlogi ciel
ĠdÃ© termin
all y
ĠEl tern
Ðŀ ÐĿ
çī¹ å¾´
ĠProble me
Ð¸Ñĩ Ð½Ð¾
Ġfo rza
ãģĵ ãģĵ
ĠPour quoi
Ġk wia
Ġcris is
alis er
Ġsou hait
Ġstron ÄĻ
Ġãģĵ ãĤĵãģª
åķ Ĩ
Ġma xim
Ð» Ð¾ÑģÑĮ
ĠTout es
ĠDe ux
ĠA na
cion ais
Ġte xto
Ġprofes jon
ĠåŃĲ ä¾Ľ
ĠÐĸ ÐµÐ½
ĠÐ» Ð¸ÑĤÐµÑĢ
Ġper chÃ¨
Ġaggior n
is sima
Ġpo twier
Ġoff en
\/ \/
ĠEs paÃ±
ĠÃ©lÃ¨ ves
Ġappare il
ĠAn dre
Ġf anno
æĲ º
ĠArt ÃŃculo
Ġpro ve
Ġer hÃ¤lt
ĠÐ°Ð½Ð³ Ð»Ð¸Ð¹
ãģ®æĸ¹ ãģĮ
ĠA ujourd
ãģ® ãĥŀ
Ġent scheiden
czeg Ã³l
ĠÐ¢ Ð¸Ð¿
ra tion
Ð¾Ð· Ð²
Ð¸ÑĤÐµÐ»ÑĮ Ð½Ð¾ÑģÑĤÑĮ
o li
Ġpar tes
Ġcon sen
ujÄħce go
æ´ ĭ
Ġen qu
ĠÑĩÐµÐ»Ð¾Ð² ÐµÑĩ
ĠÐº Ð¸ÑģÐ»
ĠR ein
arbeit et
w Ã¤r
Ð¸ÑģÑĤÑĢÐ° ÑĨÐ¸Ñı
I m
G O
Ġza jÄĻ
ÐµÑĤ ÐºÐ¸
Ġver sione
ON I
Ġt anti
ĠC it
Ġa ce
ĠÐ¿Ð¾Ð¼Ð¾Ñī ÑĮ
ÅĤ owa
Ġcre cimiento
ĠT ener
ĠAd idas
ri to
Ã¶ sen
Ġpre cedente
ĠP ays
Ġprof iter
Ġm ission
Ġg Ã³
ĠDes puÃ©s
ĠÑĦÑĥÑĤÐ± Ð¾Ð»
ĠÐ¾ÑĩÐµÑĢÐµÐ´ ÑĮ
ÐµÑĤ ÑĢÐ¾Ð²
æ¶ ²
Ġpra tiques
Ġek sp
Ġf ini
ĠDÃ©couv rez
ĠComment aires
Ġpu issance
ĠæĻĤ éĸĵ
Ã¼ hren
Ġitali ani
Ġcerta in
Ġmod er
ĠÑĢÐ°Ð· Ð°
itÃ© e
ĠÐ¡ÑĤ ÑĢÐ°Ð½
le ga
or ge
ĠÐ½Ðµ Ðµ
Ġd Ã³l
timm ung
f Ã¤h
we gen
ĠÐ³ Ð¾
ĠÐ¢ Ð°Ð¼
ÑĥÐ¼ ÑĥÐ»ÑıÑĤÐ¾ÑĢ
tico li
Ġac cesso
ĠæĹ ©
Ġ> >
ÑĥÐ» ÐºÐ°Ð½
è ´
ãĥ¼ãĥĭ ãĥ³ãĤ°
Ġkonie c
ĠÄĳá» Ŀi
Ġsquad ra
Ġå¿ ĥ
Ġt amaÃ±o
Ð¾Ð² ÑĭÐ¼
ĠÐºÐ¾Ð½Ñģ ÑĥÐ»ÑĮÑĤ
ĠRou ge
ĠC ou
ãĤĴ å®Ł
volu tion
cz or
res si
ÅĽ le
Ġåħ ĥ
iss age
Ġpoja wi
Ġnier uchomoÅĽci
Ġé Ł
uch te
Ġaff er
eni ng
ĠÑĢÑıÐ´ Ð¾Ð¼
ĠãģĬ ãģĹãĤĥãĤĮ
ãģ®åĨ ħ
Ġher mos
ĠB áº¡n
ĠA ni
ĠÐ¿Ð¾Ð´ Ñģ
ãĥ©ãĤ¤ ãĥĸ
ĠÐ¿Ð»Ð°Ð½ ÑĪ
Ð¸Ð² Ð°ÑĤÑĮÑģÑı
Ġp owy
Ġestudi antes
ãĤ¹ ãĤŃ
es ter
Ġle quel
z je
ĠÐĹ Ð°ÑĢ
ĠÐ¿Ð¾Ð² ÑĤÐ¾ÑĢ
cj ami
Ġå® Į
Ġen ci
ĠÐ½Ð°ÑģÑĤ ÑĢÐ¾
Ġw or
ãģĤ ãģ£ãģ¦
Ġles en
ĠÐķ ÑīÐµ
é į
u mo
ta ciones
Ġstar k
HÃ´tel s
Ñİ Ñģ
Ġsouha itez
iss Ã£o
Ġra czej
ãģ®æ Į
ue ll
á»Ń i
ĠK ur
lis ation
Ġopp os
AR E
Ġor mai
Ġz eit
ÐµÑģÑģÑĥ Ð°ÑĢÑĭ
Ð°Ð³ Ð¾Ð³
ĠÐĲ Ð»ÑĮ
Ġlo cali
ĠéĿ Ĵ
Ġç Ń
åĲ ¹
åĬĽ ãĤĴ
ĠSte llen
Ġcommer cial
I H
Ġza bezpie
Ġz re
ĠPe tit
Ġa gence
ĠÐ¾ÑĦ Ð¸Ñģ
ĠmÃ© tal
ĠÐºÐ¾Ð½ ÐºÑĢÐµÑĤ
Ġt esta
ãĥ© ãĥ³ãĥī
ĠÐ² ÑĢÐµÐ´
Ġch iáº¿c
Ġbe w
Ġren dez
ĠmÃ© c
ĠÐ¿ÐµÑģ Ð½Ð¸
ĠÐºÐ² Ð°Ð»Ð¸
Ð¸Ð¼ ÐµÐ½ÑĤ
an che
Ġning una
Ġbras ile
ĠR ue
ĠÐ¾ Ð¿ÑĢÐµÐ´ÐµÐ»Ñı
ta it
Ġsk rzy
Ġpra cu
ĠBer g
cun o
f ia
ale za
ĠÐ¼ ÐµÑĩ
Ð½Ð¸Ðº Ð°Ð¼
titu de
ĠGiov anni
ĠI o
ĠpÃºb lica
di tions
ĠD io
ĠintÃ© gra
met tre
ĠT isch
ste lle
ĠTut ti
Ġdire ctor
ĠÃ© n
ĠD etta
Ġcoin vol
ĠÐĵ ÐµÑĢÐ¼
Ġstan owis
ĠK Ã¶l
ĠA o
nel s
m Ã¶
ÑģÑĤ ÐµÑģÑĤÐ²
Ġsob Äħ
Ð»Ð¸Ñĩ ÐµÑģÐº
ĠÐļ Ð¾Ð´
en Ã§a
Ġtoda vÃŃa
ĠM ol
Ġz uf
ito y
º å®ļ
ĠÐ¿ÐµÑĢÐµ ÑħÐ¾Ð´
Ġ4 00
Ġtre ÅĽci
Ġlog rar
Ġãĥ ½
ĠÑĢÐ°Ð· Ð½Ð¾
è¼ ¸
Ġal Ã©m
Ġposta ci
ĠÐ½Ð°ÑĪ Ð¸
Ġkomp le
Ġsal ute
Ġestudi os
ĠKra ft
Ġord inateur
ĠÐ²Ñģ Ð¿
Ġdem ander
Ġnie p
Ġense Ã±
Ġrisch io
Ġbe ge
Ġè£ ½
æ°Ĺ ãģ«åħ¥
s age
g nie
ĠThe o
cion a
v at
ÑģÑĤ ÑĢÐ°
ÑİÑī Ð¸Ð¹
Ð¸ÑĤ ÐµÑĤÐ°
ä¸Ń ãģ«
Ġm ala
Ġcambi os
Ġkateg orii
Ã¡ tica
bo x
Ġhui le
ĠBon us
ĠMe dien
Ġpu li
tiva tion
Ġ< /
Ġsod dis
Ġco Ã»
ob ec
Ġpro va
Ġli ke
el as
Ð¢ Ðķ
ĠÑģ Ð¾Ð»Ð½
ĠFrancis co
ĠÐ¿ÑĢÐ¾Ð´ÑĥÐº ÑĨÐ¸Ð¸
ĠÐ¢ÐµÐ¿ ÐµÑĢÑĮ
ÑĢÐµÐ¼ Ñı
c la
Ġpol y
ĠH u
Ġre jo
Ġk aum
Ð»Ñı Ð½
ĠÐķ Ð³Ð¾
Ġjaki ÅĽ
Ã³n de
we isen
inn astica
Ġna tura
Ġ: :
ĠC ze
ĠDla tego
ĠrÃ¡p ida
ä¸ ¸
è ¯
§ ĭ
Â ¤
Ġch ÃŃ
Ġperi od
Ġmin ist
Ġlang ue
Ġfonda ment
Ġwa ka
Ġorgani zaciÃ³n
Ġsz cz
Ġge bra
ĠÐ´ÐµÐ¹ÑģÑĤÐ² Ð¸ÑĤÐµÐ»ÑĮÐ½Ð¾
ÑĢ ÐµÐ¿
ĠÐ·Ð°Ð²Ð¸Ñģ Ð¸ÑĤ
Ġdop iero
Ġtemp i
dy n
ĠH y
ĠÐ²Ð¾ÑģÐ¿ Ð¸ÑĤ
Ġin media
ĠÐ¾ ÑħÑĢÐ°Ð½
Ðº Ð¾Ð³
ĠK an
Ġedi zione
Ġru olo
Ġcas e
Ġlav ori
Ġdi z
ĠÐ¿ÑĢÐ¾Ð³ Ð½Ð¾Ð·
ĠÐ½ Ð¸Ð±
Ġo jos
Ġæ ·
lo go
Ġpres encia
ĠA chat
~ ~
Ġmeille ures
et ri
ĠAu ÃŁer
Ġd ra
Ð¸Ð¼ ÑģÑı
ĠdÆ°á» Ľi
åŃĺ åľ¨
Ġall ÃŃ
Ġimport anti
Ġrep as
Ã¤s ident
Ġprim eira
Ġexe mp
ĠÐ¿Ð¾Ð´ Ñĩ
Ġnaj waÅ¼
ãģķãĤĮ ãģ¾ãģĻ
Ġmod erne
ĠÐ¿Ð¸ÑĤ Ð°Ð½Ð¸Ñı
ÄĻ b
Ġs et
Ð¢ Ðĺ
ĠÐ· ÑĥÐ±
ÑģÑĤÑĢÑĥÐº ÑĨÐ¸Ð¸
odz e
ĠU l
Ã¼ gen
ĠC y
Ġ' :
Ġr ens
Ġmas ajes
Ġpa gar
Ġaff ich
Ġinte gr
Ġtrava iller
Ãº a
Ġdiretta mente
Ġza g
Ġvis i
stell ungen
Ġdob ry
ĠrÃ© ussi
Ð¾Ð»Ð½ Ðµ
ĠÑĥ Ðº
ad urch
ĠÐ¾ÑģÑĤ Ð°Ð½Ð¾Ð²
Ñĭ Ð±
Ð¾Ð½ ÐµÑĨ
se ille
Ġs orte
Ġ9 7
ch ani
Ġp ÅĤat
ĠÐ·Ð°Ð² ÐµÑĢÑĪ
ty ki
ĠÑĩÐµÐ¼ Ð¿Ð¸Ð¾Ð½
ĠS ci
ĠGay s
Ġcli ente
ĠEs cu
Ġam bito
a a
ĠMej ores
ĠH um
ĠD ere
Ġneces idades
po co
ĠL Ã©
oule z
ĠãĤ¢ ãĥ¡ãĥªãĤ«
Ġw eni
Ġver siÃ³n
Ġza bie
Ġwyso koÅĽci
Ġcon ec
Ġet Ãł
Ġwy god
ĠÑĢ Ð¾Ð¼
ĠÐŃ Ð»ÐµÐºÑĤÑĢ
ĠÐ¿Ð¾Ð´ Ð²
ï¼ ¼
2 æľĪ
éģ¸ æīĭ
Ġx Ã¡c
ĠÑĢÐ°Ð· Ð´
p ones
ĠÐºÐ°ÑĤ Ð°Ð»Ð¾Ð³
ĠÐº Ð¸Ð½Ð¾
Ãª tre
Ġtak im
Ġm ind
m un
T C
IN G
ĠÐ´Ð°Ð² Ð½Ð¾
ĠÐĳ Ñĭ
ter ÃŃa
Ġt eren
ara tos
Ġentre ga
ĠrÃ© alitÃ©
m oni
Ġde vient
Ġris er
ĠPre zzo
vi le
ĠÐ¶ ÐµÑģÑĤ
Ġle cz
v anti
Ġver ano
Ġunter schied
ĠMar co
ost ante
Ġw hen
Ġpermet tant
ĠÐ¿ÑĢÐµÐ´ Ð¼ÐµÑĤ
ãĤĴè¦ĭ ãģ¦
Ġb Ã©bÃ©
Ġre ven
Ñĥ ÑĢÑĥ
R L
ĠãĤ Ĩ
u jÄħcych
ï¼ĳ ï¼Ĳ
Ġæĺ İ
Ã¶ nen
k Ã¼n
Ġop tion
Ġalgun s
ï¼ ©
ãģĽ ãģ¦
Ġpanta lla
lic ante
â Ĩ
min ist
¡ çĶ¨
ĠCont rol
ĠÐ±ÑİÐ´Ð¶ ÐµÑĤ
ĠæĿ±äº¬ éĥ½
I V
Ġgratu itement
Ġv illes
ĠÑģÐ¸ÑĤÑĥ Ð°ÑĨÐ¸Ð¸
æŃ ´
Ġn á»ķi
ĠT itel
Ð¾Ð» ÑİÑĤ
Ġchia ma
ĠMÃ¤n ner
ĠM ini
Ġmouve ment
ĠK ont
Ġinf o
Ġsto ck
mi enia
ãģ®æĦ ı
Ð¸Ð² Ð°ÑİÑĤÑģÑı
Ġai mer
ĠDescar gar
Ġer an
cto ra
ĠRen contre
Ġpla zo
Ġmiemb ros
ti lla
Ġcon ven
Ġv ali
ĠÐ¿ÑĢÐµ Ð¸Ð¼ÑĥÑīÐµÑģÑĤÐ²
ĠÐ¿ÐµÑĢÐµÐ² Ð¾Ð´
ĥ è²¸
ãģ« è¦ĭ
ka ufen
era pie
ĠSch i
Ġpass age
ÑģÑĤ Ð¾
enta i
or as
Ð¸Ð»Ð¸ Ð·
kow ane
Ġuzy ska
Ġsh are
æľ¬ å½ĵãģ«
ãĤī ãģı
CI A
Ġdifer encia
ĠLo ire
eri es
ĠÐ¼Ð°ÑĪ Ð¸Ð½
Ġcal cul
ãĥķãĤ© ãĥ³
Ð¾Ñģ Ð½
p ens
jeun er
Ġnh iá»ĩm
ĠMas ajes
atter ie
ĠBuen os
åĨ ·
socia ciÃ³n
Ð¸ÑĤÐµÐ»ÑĮ ÑģÑĤÐ²Ð°
Ġve ux
Ġlugar es
ĠbÃ©nÃ© fici
ĠB ro
Ġãĥ¡ ãĥ¼ãĤ«ãĥ¼
å±Ĭ ãģĳ
Ġvost ro
ĠB ade
nho f
Ġr and
ĠÃ¤ hn
Ð¸ÑĤ Ð¾ÑĢ
Ġing resso
Ġst wier
ĠA P
ĠÐºÑĢ Ð°Ð¹
ãĥĨ ãĥł
Ġpa pier
Ġcl Ã©s
Ġa ggiung
ï¿ ¥
æĻ ´
Ġpro tagon
ç¥Ŀ ãģĦ
Ġç ķ
Ġval ori
i ÅĤ
ĠEn fin
Ġchu áº©n
ĠÐ½Ð¸Ð± ÑĥÐ´ÑĮ
Ġgen ere
Ġbuen as
Ġotten ere
Ġd olor
ĠÑģÐ¾ ÐµÐ´Ð¸Ð½
Ġad block
kow ania
Ġou tro
Ġãģ¨ æĢĿ
Ġbo ttom
Ġtemp Ã©ra
ti tion
Ġçľ Ł
4 8
ÅĤo p
Ġcol ores
ĠFoll ar
t ran
Ġgio chi
ĠSta to
a ct
Ġ ãģĭãĤī
Ġde vez
s ko
Ġre gel
Ġåº ĥ
å¥³ åŃĲ
Ġåĥ ķ
ĠÐ²Ñĭ Ð·ÑĭÐ²
Ġa st
ĠÑĩ Ð»ÐµÐ½
ĠN ation
Ġt ent
ĠSp raw
ĠÐ¿Ð¾ ÐµÐ·Ð´
Ġle ngua
Ġre pos
Ġop ra
ĠkoÅĦ ca
ä¹ ¾
Ġ( .
ĠT ien
Ġespecial mente
Ġam bos
Ġav ent
Ġmar ki
Ġloka l
Ġc Ã¢u
z quier
Ġenc anta
ĠServi cio
ãĥĬ ãĥł
é¦ ĸ
ãģĹ ãģªãģĮãĤī
ĠÐ¼ ÑıÐ³
Ġsc ritto
n Ã©s
ĠnÃ©ces s
Ġvelo cidad
Ġfas e
ĠÑģ Ð´
ĠÐ¼Ð°ÑĪ Ð¸Ð½Ñĭ
Ġç© º
ts eite
fe kt
ĠR at
col are
ĠPerson al
Ð¾ÑĢ ÑĥÐ¶
æ² ¹
ĠZ w
Ġng u
Ġo ver
Ġcontri bu
ĠÑģÐ»ÑĥÑĩ Ð°Ñı
Ġsoggior no
ĠÐĿ Ð°Ñĩ
P ri
Ġrestaur ant
tig er
ĠÐ¾ÑĤ ÑĤ
Ġpa ti
Ġpicc olo
Ġjed nego
ĠD urante
Ð· Ð´
ãģ¤ ãģĳ
Ġla ut
Ġmehr ere
ĠdÃ© cid
ÐµÑĢÐ¸ Ð°Ð»
ĠÐ½ Ð°ÑĤÑĥÑĢ
ĠÐĳ ÑĥÐ´
Ġé ¡
Ġpor t
ĠH aut
Ġfin de
Ġeing es
éĢ Ģ
Ġb ac
Ð»Ð¸ Ð¼
ow ska
Ġed uka
Ġg á»įi
Ġcapa citÃ©
ĠEr n
ãĥŃ ãĥ¼
flÃ¤ che
d no
ĠPa olo
Ġdom ingo
Ġdev ono
ãĤ¤ ãĥĻãĥ³ãĥĪ
Ġc Ã¡mara
Ġcommen ce
or ÃŃas
Ġaff ir
ĠÐ¡ ÐŁ
Ð¾ÑĢ Ð³
æĺ ¥
Ġco lec
ĠC ong
Ġdo ble
ne as
dar f
Ð¼ Ð¾Ñģ
ãĥ³ãĥ ĸ
bili en
Ġf antas
ĠLa v
Ġcons idera
ĠSch n
Ġun ver
Ġal oj
Ġer mÃ¶glich
ĠÐ¾Ð±ÑĭÑĩ Ð½Ð¾
ĠB ud
je k
ãģĹ ãģ£ãģĭãĤĬ
å¥½ ãģįãģª
åĩºæĿ¥ ãĤĭ
æī ±
Ġg wia
å¾Į ãģ®
ĠE tats
ĠÃī tat
Ġver de
ĠD ru
Ġåı Ĺ
Ġo lej
Ġno cle
or ti
é «ª
Ġåĭ ķ
Ġnu lla
Ġch aussures
Ġfos se
on ia
ĠÐł ÐµÑĪ
ĠÐ¿Ð¾Ð»ÑĥÑĩ ÐµÐ½Ð¸Ñı
å¯ Ŀ
ma ges
Ġgar de
Ġza pis
Ġcara ctÃ©ris
ti go
Ġannon ces
Ġi con
åı Ĭãģ³
å¤§ ãģįãģª
ir os
Ġpi Äħ
gra ma
Ġmis mos
ĠSch w
ĠS ou
ul er
ĠKÃ¶ ni
Ð½ ÑĥÑĤ
Ġszko ÅĤy
Ġmul her
ĠPo zna
Ġprodu kty
Ġlors qu
Ġac or
Ġdzie cko
cie le
Ġbas so
ĠÅĽ lub
Ġç¶ļ ãģį
ãĤ¯ ãĤ·ãĥ§ãĥ³
çķª åı·
ĠÐ¾Ð±Ð¾ÑĢÑĥÐ´ Ð¾Ð²Ð°Ð½Ð¸Ñı
Ġn iÄħ
ĠkoÅĦ cu
Ġch á»ĳng
Ġth em
ĠÐ¼Ð°ÑĢ ÑĪ
ĠlÃŃ der
ãĤ« ãĥĲãĥ¼
èı ¯
to m
li zar
ĠS antiago
gu en
Ġpar c
Ġbe lla
æ²» çĻĤ
ĠConsi glio
Ġreg ol
ĠÐľ Ð½Ðµ
Ð¸ÑĩÐµÑģÐº ÑĥÑİ
ab lo
ãģ£ ãģį
v ideos
Ġefec to
Ġouver t
Ġv itesse
Ġcul tur
Ġpr osz
ãĥ³ãĥĩ ãĤ£
ĠN astÄĻp
esten s
Ð°Ð¶ ÐµÑĤÑģÑı
ï¿½ï¿½ ï¿½ï¿½
Ġm áº¥t
ĠÑĤÐ¾Ð²Ð°ÑĢ Ñĭ
é£ ¯
ĠÑĤÑĢ Ð°Ð´Ð¸
Ġfir ma
Ġm ud
Ġe ta
er Ãł
ĠÐĺÐ½ ÑĦÐ¾ÑĢÐ¼
ĠÐĴ ÑĤÐ¾ÑĢ
Ġmas tur
ĠSec re
ak ie
Ġroz wi
ãĤĴ ä½¿çĶ¨
ãģ®å ±
Ġofer ta
Ġhand elt
Ġcap ita
Ġpracow nikÃ³w
ãĤĴ åıĸãĤĬ
Ġsali da
Ġth Æ°
Ġcomun ic
ĠÐ¿ÑĢÐ¸Ð½ ÑıÑĤ
Ġpo bli
Ġpor tal
Ġozna cza
Ġje de
Ġalb um
ĠEn f
éĩ Į
âĶ Ģ
ĠæĪ Ĳ
Ġth ere
Ġsoi rÃ©e
ĠÐ£ÐºÑĢÐ° Ð¸Ð½Ðµ
Ð¾Ñĩ Ð½Ð°Ñı
Ġä¸Ń åĽ½
kar te
ĠÐ¿ÑĢÐ¾Ð¸Ð· Ð²ÐµÐ´
Ġhacer lo
u z
ĠT oute
ĠNam en
ĠÐ¾Ð´ ÐµÐ¶Ð´
ãĤ¹ãĤ¿ ãĤ¤ãĥ«
om in
ĠÐ²ÑĭÐ± Ð¸ÑĢ
ĠãĤ¨ ãĤ¢
ĠSo ci
Ġ7 8
ĠÃ©conom ie
ĠÐ§ Ð°ÑģÑĤ
ãĤ« ãĥ©
ĠG et
ĠUni versitÃł
Ġnos sa
ĠPor tu
Ġno va
å¹´ ãģ®
Ġt iáº¿n
ĠÑĢÐ°ÑģÑģ Ð¼Ð¾ÑĤÑĢ
ĠK la
ĠÅº rÃ³d
Ġcer to
Ġhina us
Ġso ins
ĠdÃ© g
Ñĩ Ð¸Ñģ
Ġlib ri
Ġunique ment
Ġqu anti
ĠwyjÄħ tkow
Ġmod elos
ĠMan uel
ven tos
ust and
ĠÐ¿ Ð°ÑĤ
Ġin se
Ġorigin ale
éº Ĺ
æķ Ĺ
ĠS au
Ġcollab orazione
Ġrespec t
ĠÐ¼Ð¾Ð³ Ñĥ
Ð¾Ðº Ð¾Ð»
fica zione
Ġhau teur
Ġdiff icul
Ġinterna zionale
ãģ¾ãģĹãģŁ ãģĮ
Ġmiejs cow
cep ciÃ³n
Ð¸ÑĩÐµÑģÐº Ð¾Ð¼
asz e
Ġzape wni
Ġtotal mente
estiv al
ar ki
he ma
Ġdou ce
ĠEx p
AR D
Ġro man
Ġactu ellement
Ð°Ð´ Ñĭ
ĠA D
el es
ĠÐ´ÑĢ ÐµÐ²
Ġ ä¾ĭ
5 6
Ġodp owiada
ĠVal encia
ce der
w ka
stÄħ pi
ĠÐ±ÑĥÐ¼ Ð°Ð³
Ġparf ait
ĠÐ¾Ðº ÑĢÑĥÐ³
ĠÐ¸Ð·Ð¼ÐµÐ½ ÐµÐ½Ð¸Ñı
éŃ ħ
Ġsu gg
ĠÃ ħ
Ġt áº¥t
ĠB ologna
Ġsam a
ĠÐ¢ Ð¾Ð»ÑĮÐºÐ¾
ec u
ou ch
Ġobjet s
Ġda je
ti da
ĠÑıÐ·Ñĭ Ðº
§ £
ĠE dition
mÃ¤ÃŁ ig
Ġm q
g om
ĠC odice
Ġriguar da
Ġri le
Ġl anz
Ã§ ons
Ġto tale
åħ¬ éĸĭ
gel d
we hr
Ġatra vÃ©s
Ġdy sk
Ġl um
Ġå ĸ
Ġf aud
ĠÑĦ ÐµÐ´ÐµÑĢ
Ġcol ori
ter Ãł
ĠTer az
ĠksiÄħÅ¼ ki
äº Ķ
ãĤĴæ Ķ
ĠIm mo
Ġdis co
to ires
Ġtemp er
ĠEr folg
ĠÐ¿Ð¾Ð¼ Ð¾Ð¶ÐµÑĤ
Ñį Ðº
wo hl
ĠszczegÃ³l nie
qu ette
ĠGran de
Ð½Ð¸Ðº Ñĥ
ÐµÐ¿ ÑĢ
ĠÐ¿ÐµÑĢ ÐµÑĩ
ĠÐºÑĥÐ»ÑĮÑĤ ÑĥÑĢ
ons es
N O
Ġcapa citÃł
Ġg or
éĻ ½
Ġcam paÃ±a
Ġap Ã³s
Ġc ob
rze d
Ġk iá»ĥm
Ġsci enti
Ġh id
ni Äħ
Ġide as
Ġd uro
r l
ĠD on
Ġapo y
ĠÑģÐµÑĢ Ð¸Ñı
ĠÑĤ Ñĥ
ĠÐ¼ÐµÐ½ ÐµÐ´Ð¶
vi ng
ĠÐ³ Ð¸Ð´
ĠÑģÐ¼ ÐµÑĢ
Ġpar tager
ĠDetta gli
Ġobietti vo
b ado
Ġg ui
ĠB an
5 9
ti Ã©
ãĥĩãĤ£ ãĤ¢
l ent
Ġrisp osta
Ġcor ri
Ã¶ hn
ĠÐºÐ¾Ð½ ÑĨÐµ
Ġ(" .
Ġseg ment
le z
Ġhist Ã³
Ġdiv enta
ĠPio tr
Ġp ani
Y m
A W
Ġs mak
Ġprz er
Ġnapis aÅĤ
ĠC zar
Ġcom Ãºn
d Ã©
ĠÑĢÑĭÐ½ ÐºÐµ
ĠÐ¼ ÑĥÐ»ÑĮÑĤ
wi enie
è¡ Ģ
Ġt els
ĠTech nik
ĠÐ³ ÐµÐ½ÐµÑĢ
Ġprincip ali
f unk
ĠTra ining
å®ī åħ¨
Ġinst ant
Ġtr wa
Ġwe g
Ð¾Ð¶Ð´ ÐµÐ½Ð¸Ðµ
Ġrec ensione
anz o
si me
ue bles
C om
Ġamp li
Ġexp lica
ul as
Ġan sehen
Ġde venir
Ġâ ĳ
Ġæ ©Ł
ãģĮ ãģĭ
setz en
ĠÑħ Ð¸Ð¼
Ġv anta
Ġtar get
O i
Ġjak im
Ġæ¥ŃåĭĻ çĶ¨
± ³
ĠÐ¿ÑĢÐ¾ÑĪ Ð»
ber icht
ĠP rÃ©s
ung e
Ġga gner
fer encia
at as
bes ondere
n Ã©es
ÑĭÐ² Ð°ÑİÑĤÑģÑı
redni o
ĠN um
able ment
Ġm inh
Ġos p
ĠÑģ Ñĥ
Ġander s
ient ÃŃ
ĠÐĶ Ð¼
ĠÑģÐ»ÑĥÐ¶ Ð±Ñĭ
ĠÅļ lÄħ
st w
Ġ) ))
Ñĩ Ð¸ÐºÐ¸
77 27
ĠÐ¿ÐµÑĢ ÐµÐ½
Ġpo kaz
Ġo ther
å· ±
Ġï »¿
ĠÑģÐµÑĢÑĮ ÐµÐ·
ãĤĴ çŁ¥
ĠF our
ĠC E
ĠÃ© qu
Ġm iaÅĤa
Ġfor mas
ĠÑĢ Ð¾Ð¶Ð´ÐµÐ½Ð¸Ñı
fas st
Ġpour su
ÑıÐ± ÑĢÑĮ
" >
ĠÐ¿ÑĢÐ°Ð² Ð¸Ð»
ÅĤ os
den za
çī© ä»¶
æŃ ¦
Ġah or
Ġmini m
ĠÑģÐ»ÑĥÑĩ Ð°Ð¹
owan ego
ãģı ãĤĮ
ĠNo Ã«l
Ġsur face
Ġparteci pa
å¹´ ãģ«
Ġna ve
Ġh ol
ÅĤ ym
les en
al te
in ner
az io
Ġri vol
Ġpar cours
ĠÑģÐµÐ¼ ÐµÐ¹
Ð° ÑĨÐ¸ÐµÐ¹
st an
Ġprzy ja
Ġpobli Å¼u
Ġfich ier
Ġexp lique
Ġpermet tent
Ġdotycz Äħce
ĠTh u
v ada
Ġk ur
ĠSÃ¼ d
Ġbad ania
ĠJac ques
era i
and es
ĠÑģ Ð¸Ð³Ð½
Ġg am
Ġm áº¡ng
ÑĦ ÑĤ
O G
Ġris pos
cz onych
Ġparti es
Ġfon do
ĠP atri
in ess
Ġ9 11
ĠÐĳ ÐµÑĢ
tw endi
Ġdom anda
ggia re
a ben
Ġbe ispiel
ch n
ĠÐºÐ²Ð°ÑĢÑĤÐ¸ÑĢ Ñĭ
ĠW etter
ĠJu in
Ġna rzÄĻ
p les
je ta
Ġsi cura
åĵģ è³ª
Ġb ons
ÐµÐ» Ð¸ÑĤÑĮÑģÑı
EN TO
ri mÃ©
sa ires
Ġver ifica
ĠT ym
ĠÑģ Ð¾Ð»
èª °
Ã¢ ng
ĠÐ¡ÐµÑĢÐ³ ÐµÐ¹
Ġ05 7727
Ġspos ob
ĠA lles
Ð¦ Ðĺ
ĠÐ³ ÑĢÐ°Ð¼
ĠÐ·Ð² Ð¾Ð½
ĠÐ¡ ÐµÐ¼
ĠA ller
Ġcom en
ĠçĶ »
ĠÑĤÐ°Ðº Ð°Ñı
ĠÑĤ Ð¾ÑĩÐ½Ð¾
Ġs áº¯c
ĠSal on
ĠcompÃ©ten ces
ĠC Ã´
ä¼ ¸
Ġmil h
ĠÐ² Ð°Ðº
Ġc iaÅĤa
ĠMe uble
ĠÐ°ÑĢ ÐµÐ½Ð´
ĠÑĪÐº Ð¾Ð»ÑĮ
ĠÐ´Ð°Ð½ Ð½Ð¾Ð¹
ãĥ¼ ãģ¯
ĠAntw orten
Ġcres cita
ĠD A
ar da
te ments
Ð°ÑĤ ÐµÐ»ÐµÐ¼
Ġuti le
la re
Ġquar tier
Ġn our
Ġg ara
ĠCom ent
Ġb Ãºsqueda
ĠEr k
Ġg lau
Ġ3 90
Ġapp ena
ãģı ãģªãģĦ
Ġãĥį ãĥĥãĥĪ
Ġhá» ¯u
Ġarri Ã¨re
ĠÑĤÐµÐ¿ Ð»
ĠÐ¿ÑĢÐ¾Ð¸Ð· Ð¾ÑĪ
æ¹ ¯
ĠåĨ ĻçľŁ
ĠSex y
ĠPhili ppe
Ġquoti dien
ĠLi ber
ãĥªãĥ¼ ãĥ³
Ġsos titu
ĠC U
I P
Ġqui eres
ĠInforma ciÃ³n
osp ital
Ġs r
N v
Ġdru giej
ex ual
Ġco Ã±o
ar ÃŃa
Ġdy n
ĠÐĲÑĢ ÑĤÐ¸ÐºÑĥÐ»
ĠÐ¿Ð¾Ñģ Ð²
Ġper mette
Ġling ua
Ġcommun i
sch t
um es
Ð¸Ð¿ ÐµÐ´
se ments
Ġ á»
E n
Ġdire cteur
Ġj orn
b aciÃ³n
Ñĥ Ñı
ĠÃĸ ff
f ond
ãĥ³ãĥ ¬
ec t
Ġmovi miento
M S
ĠurzÄħdz enia
Ġrequ ire
ĠÑģÐ°Ð¼ Ð¾Ðµ
Ġob u
ãģ§ãģĻ ãĤĪ
ï½Ĺï½Ĺ ï½Ĺï½Ĺ
åı ³
pr odu
ĠÐ·Ð°Ð¼ ÐµÑĩ
Ġhab itu
Ġe valu
Ð¾Ð±Ñĭ Ñĩ
ĠÐ¿ÐµÑĢ ÐµÐ³
Ġobec nie
ĠPre cio
Ð¸ÑĢÑĥ ÐµÐ¼
Ð¸ÑĤÐµÐ»ÑĮ Ð½Ð¾Ðµ
ĠA li
tori os
Ġcr ise
ĳ å¼µ
Ġãĥ ¨
gue z
Ġpartici par
ĠTi pps
ĠÐĿ Ð°ÑģÑĤ
ĠPres ario
ft ung
Ð°Ð´ Ð»ÐµÐ¶
ĠF on
ĠB ri
ĠC iÄĻ
mF t
Å¼ d
ist ant
ĠÐĲ Ð±
Ð¾ÑĢ Ð¸
Ġpla ge
ĠDeta ils
t ungen
Ġpuis que
å¤§ å¤ī
ãĥ« ãĥ¼ãĥĹ
åŃ¦ çĶŁ
Ġcul tura
Ġ áº¥y
ĠH ommes
ĠDa te
Ġcour se
åľ° åŁŁ
Ġhistori i
h end
Ġarbeit en
ÐµÐº Ð¸
Ð¾ÑĢ Ð°ÑĤÐ¸Ð²
Ġespec ÃŃ
Ð°Ðº ÐµÑĤ
Ġb io
< /
ĠÐºÐ¾ÑĤÐ¾ÑĢ ÑĭÐ¼
ĠÐĿÐ°Ð¿ ÑĢÐ¸Ð¼ÐµÑĢ
Ġes igen
ĠÐ¶ÐµÐ½Ñī Ð¸Ð½
Ġroul ant
Ġsou tien
Ġnh u
Ġlo cale
ãģĭãĤĤãģĹãĤĮ ãģ¾ãģĽãĤĵ
ĠP ani
g ania
Ġcompar tir
Ġcaracter ÃŃsticas
cul ta
Ġre giÃ³n
ĠAk tiv
Ġc Ã¢y
Ġreali zacji
Ġdoty czy
ãģł ãģĹ
Ġessent iel
ĠÑĤÐµÐ± Ðµ
ĠÐ±Ð°Ð½ ÐºÐ¾Ð²
çģ ½
wy ciÄĻ
ä¿® çĲĨ
ĠåĢ ĭäºº
ĠcatÃ©g orie
ĠÐ¿ÑĢÐ°Ð² Ð¸Ð»Ð¾
ĠB amb
Ġa gg
ĠãĤ¹ ãĥĪ
ĠEsc ort
ng a
ĠPe ti
Ð¸ÑĤÐµÐ»Ñı Ð¼
ĠGr is
ma tiques
å¬ ī
Ġé ļ
Ġtrans port
ĠMicha el
ĠK olle
ĠFer ien
ĠÐ½ ÐµÐ¶
l aden
Ġnum eros
W y
Ġres taura
ungs ver
ÑĭÑĤ ÑĮ
ĠéĢļ è²©
Ġãĥ¦ ãĥĭ
ĠÑĥÐ¼ ÐµÐ½ÑĮÑĪ
Ñģ Ðµ
ãĤ¤ ãĥ¡ãĥ¼ãĤ¸
Ġgegen Ã¼ber
Ġm anger
Ġèĭ ±
ĠÐ¿ÑĢÐµÐ´Ð¿ÑĢ Ð¸Ð½Ð¸Ð¼
Ġ Ã¡p
Ġcar tes
ĠÐ¾Ð´ Ð½Ð¾Ð¼
ĠDe us
ĠB log
ĠKa ufen
Ġverwend et
Ð» Ð°ÑĪ
Ġnos tre
Ġma ÅĤo
ĠÐ´ÐµÐ» Ðµ
ĠZ as
Ġj ul
Ġcittad ini
ÅĤe ÅĽ
ĠWysÅĤ any
Ġprogra mu
ĠÑģÐ² ÐµÐ¶
Ð¸ÑĩÐµÑģÐº Ð¸Ð¼Ð¸
Ġbe en
èĬ ¸
Ġus age
Ġh ar
Ġ6 2
fen se
Ġteng a
Ġ8 4
Ġsim il
Ġwy ro
Ġvorh anden
Ġver gleich
Ġso le
an na
Ġb ran
hb WU
ĠÐĵ Ðŀ
ĠÑĥÑģ Ð¸Ð»
Ġprzy pom
ĠÐ¿ÐµÑĢÐ² ÑĭÑħ
Ġkh ÃŃ
ĠÐ·Ð°Ð¿Ð¸Ñģ Ð¸
ĠÐ·Ð°Ðº ÑĢÑĭÑĤ
ĠÑħÐ°ÑĢÐ°ÐºÑĤÐµÑĢÐ¸ÑģÑĤ Ð¸ÐºÐ¸
ãģ®ç Ĥ
ĠÑģÑĤÐ°Ð½ ÐµÑĤ
Ã¼ck en
Ġins cription
ĠRÃ©p ublique
ing er
che ment
Ġmal grÃ©
teri ori
Ġvez es
ĠKomment ar
ĠR und
Ġges tal
a gt
ãģ®æ Ŀ
cul ture
Ġex Ã©cu
Ġcara ct
iOi J
Ð¸Ð±Ð»Ð¸ Ð¾ÑĤ
ĠÐ» Ð¸Ð´
Ġs ter
Ġcorre o
Ġver m
Ġrius ci
ĠÅļ wia
ĠâĪ Ĵ
éĢ£ çµ¡
ĠÐ¸ Ð½Ð¾ÑģÑĤÑĢÐ°Ð½
m ande
T 00
èĢ ģ
gi es
ãĥŁ ãĥ¥
Ġ iss
è© ³ç´°
ra ciÃ³n
ĠT ier
ma gne
ãģ¨ãģĹãģ¦ ãĤĤ
pie le
li ert
Ġce ll
Ġb owiem
ĠN au
Ġraz Ã³n
ĠÐĴ Ð°Ð»
ãĥ³ãĥ ļ
Â ¯
Ġg áº·p
ro ffen
ĠÐ¼ Ð¾Ð½ÑĤ
ĠÐ¼ Ð°Ð»Ð¾
ãģĦ ãģĭ
Ġpad res
Ð¼Ð¾ÑĤÑĢ Ñı
Ġcont rar
ne z
dzie ÅĦ
Ġs omos
Ġmo vil
Ġpres id
Ġdos tar
Ġroz woju
Ġcono cimiento
Ġr ower
Ġp unk
Ġå° Ĥ
ĠH Ã¼
ãģ®è ¿
ĠG miny
nict wa
Ġk Äħ
ĠÐ½ÐµÐ´ Ð¾ÑĢ
ĠFar ben
id en
ĠZ ab
ĠO czy
Ġå® ®
ãĥĲ ãĤ¤ãĥĪ
ãĤ³ ãĥ¼ãĤ¹
Ġin kl
si v
ĠD onne
Ġindiri zzo
Ġjed nÄħ
ĠÐº Ð°Ð´
ĠÐ´Ð°Ð½ Ð½ÑĭÐ¹
Ġw es
Ġconf ort
ora Ã§Ã£o
ĠW ald
ĠB aum
ho f
Ã© l
ign es
d am
è¦ĭ ç©į
Ġb Ãł
Ġos ser
ãĤı ãĤĮãģŁ
Ġv n
Ġh áº¡n
Ġkle in
ĠÐºÐ» Ð¸Ð½
ĠÑĥ Ð½Ð¸Ðº
ĠCie bie
K O
ĠS uch
ÑĭÐ´ ÑĥÑī
ĠmÃ³ gÅĤ
ÅĦ skiej
ç ¦
an lage
ĠWe ise
rÃ© al
ci de
ta ine
ĠÐ¿ÑĢÐµÐ´ Ð¿
ÑĤ ÐµÑģÑĮ
ãĥ³ãĥ Ĭ
ĠMon te
Ġni estety
Ġre jest
ãĤ» ãĥķãĥ¬
Ġãĥĭ ãĥ¥
Ð³ Ð¾ÑĢ
Ġscor so
ĠM az
ĠÅĽrod kÃ³w
Ð² Ð¸Ð´
Ġvor her
Ġoff rir
mi co
Ġav an
ĠÑĦÐ¾ÑĢÐ¼ Ñĭ
Ã©r os
ĠÐľ Ð°Ð»
Ġpod rÃ¡
ĠÐĶ ÑĢÑĥÐ³
Ġsp ia
ĠeuropÃ© enne
º «
ĠS U
Ġczas em
ka Å¼
ĠDire cciÃ³n
Ġal terna
ĠUnter stÃ¼tz
Ġç Ĩ
ĠJes Ãºs
Ġconta cter
ĠUni versitÃ©
æ· ±
ci eron
Ã¢ tre
Ġjou eurs
Ġinteres se
Ãł m
Ġwy Å¼
Ġpas e
b Ã¼
S ch
Ġku piÄĩ
Ġk g
ĠÑģÐ¾Ð·Ð´ Ð°Ð½Ð¸Ñı
ĠKo lej
J l
ĠÐ¿ÑĢÐµÐ´Ð»Ð°Ð³ Ð°ÐµÑĤ
ãģĺ ãģ¦
Ã¤n dern
kuje my
Ġza tru
al er
I X
ĠKh i
ĠrÃ¨g les
Ġstu di
ãģ¨ åĲĮãģĺ
Ð¸Ð² Ð°
ĠÑģ ÑĥÑħ
ĠÐ²Ñĭ ÑĢÐ°Ð¶
Ġhab l
Ġris ques
ÑĨ Ñĥ
ei ras
ĠS eine
qu ence
Ġjak Äħ
ĠIn oltre
Ġm Ã¨tres
ãĥĪ ãĥ³
Ġâ ī
ãĤĴæ ķ
ĠÑģÐ°Ð¼ ÑĭÐ¼
niej szych
Ġne llo
Ġå ¡
Ġesf uer
æ¨ ª
Ġc ere
Ġfonction nement
de d
Ġinsta ll
Ġaff aire
ĠÐ²Ð°Ð¶ Ð½Ð¾
ĠU ma
ãģł ãģĮ
i fe
g ada
Ġing lese
ĠÅĽ w
ãĥĲ ãĤ¹
ĠÐ° Ð³ÐµÐ½ÑĤ
Ġwsp ar
ĠServi cios
ĠT R
ini que
g y
Ð¸ÑĤ ÐµÐ»ÐµÐ¼
ãģĦãģ¾ãģĻ ãģĮ
ĠÃ ±
ĠÄĳ áº§y
Ġel abor
ĠR ze
Ġt wa
Ġprz ych
ĠÐĹ Ð°Ð¼
rzÄħd u
qu ite
gli amento
Ġse gna
ĠÑĦ Ð¸Ð³
Ġfais ant
Ġefec tos
ĠF Ã©v
ĠÐĵ Ð¾Ð»
b us
åĩ¦ çĲĨ
ĠÐ¿ÑĢÐ¸Ñģ ÑĥÑĤÑģÑĤÐ²
Ġè¨ ĺ
Ġngh i
Ġdi pl
ĠÐ¼Ð°Ð» ÑĭÑĪ
ĠÑĪ Ð°Ð³
ãģł ãģª
ãģ¾ãģ¨ ãĤģ
Ġéģ ĭ
ĠÑĦ Ð¾Ð½
ĠÐ¼ÑĥÐ·Ñĭ Ðº
ĠÐ¸Ð´ ÐµÑĤ
ĠÑģÑĤ Ð°Ð»Ð°
ĠS cra
c ou
ĠKra kÃ³w
Ġty p
Ġ9 2
nage ment
å« Į
ÃŃ do
ãĥŀ ãĤ¹
Ġinter vento
Ġay er
Ġcon tar
zi p
Ġne w
æĪ ĳ
Ġimpres e
Ġgo verno
ĠHa llo
ĠÐĺ Ð³ÑĢ
ĠÑģÐ² Ð¸Ð´ÐµÑĤ
Ġtek st
Ġä»ĬåĽŀ ãģ¯
Ġfor mu
Ġexper t
ãĤĴ éĢļ
Ġb ru
us st
ĠÐł ÐµÐº
e f
ĠÐº ÑĥÐ´Ð°
ĠÐ± Ð¾ÑĢÑĮ
Ġami go
ĠConta ctez
Ð²ÐµÑĢ Ð³
Ġro ÅĽl
Ġfond s
Ġfo ot
vel a
Ġpregun ta
ra nge
Ġper der
Ġc ic
Ġt ÃŃn
n der
] ,
OW Y
Ġza pr
vier on
ĠÐ½ Ð°Ð¶
ÄĻ dz
alis te
Ġå¹³ æĪĲ
Ġ6 8
a ges
ãģĳ ãģ°
ĠÐ³ Ðµ
Ġp ÅĤ
Ì ĥ
Ġtr áº£
l ungen
éĸ¢ éĢ£
om as
d amento
owan ym
Ġè Ī
Ġterri toire
Ġres ter
Ġsupp ort
tig i
Ġmis ura
ĠSonn tag
Ð½Ð¾ Ñĩ
Ġac co
min ister
Ġmaggio re
Ġt ab
Ġser Ã¡n
ÐµÑĢ Ð°Ð¼
Ã© p
Ġho gar
ĠÑģÐº ÑĢ
al nego
Ġmem bre
ĠÑģÑĤÐ¾ÑĢ Ð¾Ð½
Ġconsom mation
ç® ±
g Ã©e
è Ļ
ĠE X
ĠAd ministra
Ġposi ciÃ³n
Ġu003 e
ĠsÅĤu Å¼
ĠP resse
ĠÅĤa zien
ĠNie m
ãģĻ ãģ¹ãģ¦
ĠÐ³ ÐµÑĢ
ĠÐ¤ Ð¾ÑĢÐ¼
ĠM eine
ĠG ruppe
ĠidÃ© al
Ġconn u
ĠÑģÐ¸Ð¼ Ð¿
ĠCh ico
ĠamÃ©lior er
r ine
Ġd an
Ġcons um
chi vo
Ġse is
k ungen
ĠÐºÐ°ÑĢÑĤ Ñĭ
Ġa zione
i my
Ġza po
ĠHa cer
ber n
ĠÑģÐ¸Ð» Ñĥ
ĠÑģÐ¿ Ð°Ñģ
Ġper dere
ĠLe ggi
Ġdom enica
Ġpropos er
Ġh yd
Ġre gu
Ġac cessi
Ġç·¨ éĽĨ
ãĥ³ãĤ ±
ãĤ· ãĤ§
ĠÑģÐ¾Ð²ÐµÑĢÑĪ ÐµÐ½Ð½Ð¾
ĠÐļÑĢ ÑĭÐ¼
Ð¸Ñĩ Ð½ÑĭÐ¹
Ġver re
0 7
Ġãĥı ãĤ¤
Ġl ut
Ġcro is
Ġsap ere
we k
Ġmar ques
ĠE tiquetas
Ġrespons abilidad
Ġcl Ã¡
D A
ĠW ill
h el
bo te
ĠÐ° Ñį
Ġris or
ica re
Ġth er
Ġquoti di
Ġchau di
Ġc ong
æľ Ń
ãģ® ãĤª
sch rift
Ġs lo
ĠP eter
ĠKle in
ĠAn bieter
ane k
Ġs omit
u ern
ĠÐļ ÑĤÐ¾
Ġ6 7
ur er
uis se
ĠÐ·Ð°Ñī Ð¸ÑĤÑĭ
Ġgru py
ç¥ Ń
vis or
cul ares
Ġti pos
ĠÐ³ ÑĢÑĥÐ´
ĠÐ°ÑĢ Ð¼
ĠU RL
å¹´ åº¦
Ġpartici paciÃ³n
ti mento
ãĥª ãĤ¸
èĩª åĭķ
Ġpor tes
ĠÄĩ wi
Ġmagni fique
Ġpass ato
Ġgr oupes
Ġwi zy
ĠÐºÐ°ÑĤÐµÐ³ Ð¾ÑĢÐ¸Ð¸
æ¸ ¬
ĠLÃŃ nea
um Ã©
Ġm ec
Ġper u
ĠCom er
it ter
Ð°Ð± Ð¸Ð»
áº ¢
ca mb
ĠD V
ot he
Ġpie ds
ĠH au
di ge
ĠÐ±ÑĢ Ð¾Ð½
Ġma Ã®
ten tion
ĠÂµÃ Ħ
ĠÄĳ Ãºng
Ġl unes
Ġri m
Ġprze p
ta dt
ķ çĶŁ
fic ado
Ġpen si
ĠT Ã´i
Ġkon kre
Ġjakie ÅĽ
rze Äĩ
¯ ãģĦ
Ġtrabaj adores
ÐµÐº Ð¾
Ġsal ari
Ġcon dition
Ġus un
I d
Ġava lia
Ġc Ã¡o
Ġof ic
ĠW ett
Ġpou co
Ġk wes
Ġv oulez
b 2
ĠzamÃ³wi enia
Ġv ien
Ġfaci l
Ġzami esz
ãĤīãĤĮ ãģªãģĦ
ĠL ond
ãĤ¤ ãĥ³ãĤ¿
ĠÐ¼ Ð°Ð»ÑĮ
ĠHaus e
Ġaff ron
ÐłÑķ Ðł
ĠÐĿÐ¾Ð² ÑĭÐ¹
ĠÐ´ÑĥÑħ Ð¾Ð²
Ġabs ol
ÑĤ Ð¾Ð½
Ġm ale
Ġpro ches
ĠçŁ ¥
ĠÃ©tra ng
Ð»Ð¸ÑĪ ÐºÐ¾Ð¼
ãģ« åĲĳ
mi eren
Ġma ins
ĠÐ¸Ð¼ ÐµÑĤÑĮ
tes i
ĠRe y
Ġf ica
Ġconos cere
ĠkaÅ¼d ej
un tos
Ġalre dedor
l ad
ĠT oul
thÃ¨ que
ing en
Ġmagas in
Ġpra ca
Ġodpowie dzi
den do
ĠÐ» ÐµÑĩÐµÐ½Ð¸Ðµ
Ðº Ð¾ÑģÑĤÐ¸
ĠÐ¢ Ð¾
Ġp kt
Ġsk ÅĤada
bur ger
Ġs owohl
Ġ100 0
Ð°Ð»ÑĮ Ð½ÑĭÐ¼Ð¸
ologi es
ter iore
la in
Ġwh at
Ġpour tant
ÐµÐ¹ Ð´
A r
ĠÑįÐºÑģÐ¿Ð»Ñĥ Ð°ÑĤ
iste mi
Ġutilis ateur
ĀĀĀĀĀĀĀĀĀĀĀĀĀĀĀĀ ĀĀĀĀĀĀĀĀĀĀĀĀĀĀĀĀ
ĠNuo vo
cia lizza
ĠÑģ Ñİ
ĠÐĵ Ð´Ðµ
ĠÐ¾Ð± ÑĥÐ²
ĠVá» Ľi
Ġg anh
ÑĢ Ð´
Ġutil ise
Ġbe lles
Ġpos ti
ĠÐ°Ð´Ð¼Ð¸Ð½ Ð¸ÑģÑĤÑĢÐ°ÑĤ
v Ã©es
ç ı
ãĥĭ ãĥ¥ãĥ¼
ãģ®è »
5 3
Ġsolu zione
Ġt esti
Ġjedn ost
ĠAm Ã©rica
Ġdemasi ado
Ġm á»Ł
zia le
ĠÅ» y
Ġzmi enia
Ġesper a
Ġbe deut
Ġpre ten
Ð¾Ð²Ð°Ð½ Ð¸Ñİ
en ant
Ġrec ru
Ġæł ªå¼ıä¼ļç¤¾
ĠMe ille
Ġä»£å¼ķ ä¸įåı¯
Ġåľ ¨
ĠS ab
ch as
å¯Ħ ãģĽ
Ġï¼ Ŀ
ti Ã¨res
Ġï¼ ¼
ĠåĨ į
ĠAppar tement
Ġur gence
éĿ¢ çĻ½
èª Į
Ġpe ur
ãĤĤãģ® ãģ®
ĠÐ´ Ð»Ð¸Ð½
Ġw ould
tor ie
ĠÑģÐ¼ Ð°ÑĢÑĤÑĦ
ĠÑģÑĤÐ°Ð½Ð¾Ð² Ð¸ÑĤÑģÑı
ĠÑģ Ð½Ð¾Ð²Ð°
Ġo kaza
Ġa fi
titu d
ĠA F
ãģ®æ ĺ
ur r
ĠÐ´Ð²Ð¸Ð¶ ÐµÐ½Ð¸Ñı
Ġvis uali
Ġrisul tato
Ġconna Ã®tre
ãĤĤ ãĤĬ
ãĤ½ ãĥ³
ĠmiesiÄĻ cy
ĠÂ ¢
ĠÂ ¯
Ġthu á»ĳc
Ġc á»±c
ĠB io
d chen
ĠLE D
un Ã¤chst
ĠMa x
statt ung
Ġc itoy
ĠÐ°ÐºÑĤ Ñĥ
Ġri por
do b
Ġgan ar
ĠÑħÐ¾ÑĢÐ¾ÑĪ ÐµÐ¼
ĠÑĢÐ°Ð·Ð²Ð¸ÑĤ Ð¸Ðµ
ĠÐºÑĢ ÑĭÑĪ
Ñİ Ð½
Ġgru p
ãģ£ãģ¦ ãģįãģŁ
nh eim
ĠK al
ĠÐł Ðħ
ĠÐ¿ÑĢÐµÑģÑĤ ÑĥÐ¿
Ġt Ã¤glich
Ġado p
ĠÐ½ÐµÐºÐ¾ÑĤÐ¾ÑĢ ÑĭÑħ
Ġè ĳ
Ġgratu ita
tis chen
Ġdetta gli
å§Ķ åĵ¡
ĠÂ¡Â £
ĠÄĳ áº¥u
ĠJ ardin
Ġth Ã¨me
Ġz y
um ento
Ġprodu tos
ĠS ant
Ġad olescente
Ġinter pre
Ġtr Ãªs
ï¼ ¦
Ġ2015 å¹´
ä»ķ æ§ĺ
Ġimport ancia
mo ine
ãģ®æ ¥
ĠverfÃ¼ gbar
ÑĭÐ² Ð°Ñı
je ch
IL L
ĠdÃ© jeuner
ĠãģĦ ãĤį
Ġsvilu pp
ĠÐ± Ð»Ð¸Ð¶
n ers
ĠÑĥÑģÐ¿ ÐµÑħ
Ġcommen cer
ph on
ow ol
ĠR olle
Ġenreg ist
ãģ¹ ãĤĭ
YW 1l
ãģ®å¯ ¾
ali zacja
è§ ¦
ĠÐ¿ÑĢÐ¾ÑģÑĤ ÑĢÐ°Ð½
Ġpag amento
ggi ori
Ġpue dan
ĠfÃ¼ hrt
cz nik
Ġw Ã¼n
Ġal t
Ġni Ã±o
Ð¸ÑĤ Ð¾Ð²
Ġtele wi
ĠK l
ĠStu di
æĬ ĺ
g keit
ÑģÑĤÐ²ÐµÐ½ Ð½ÑĭÑħ
ver y
Ġlle ga
ĠÐľ ÐµÐ¶Ð´
iÃªn cia
Ã Ļ
Ġc Æ°
Ġdist ance
ĠelectrÃ³ nico
Ġcoup le
na to
Ġseg re
Ġutilizza re
m ant
ĠÐ½ÐµÐ´Ð¾ÑģÑĤ Ð°ÑĤ
Ġcompro mis
Ġjourn al
ina zione
Ġh ue
Ġdigi tal
Ġin dependi
ĠÐºÑĥÐ»ÑĮÑĤ ÑĥÑĢÑĭ
Ġrozpo czÄĻ
ãĤĴ åĪ©çĶ¨
ĠO li
ĠL am
auss ure
Ġgu ide
ĠUn ion
ĠÐŀÑĤ Ð¿ÑĢÐ°Ð²
Ð¾Ð³Ð» Ð°ÑĪ
ĠS istema
ĠS em
Ġres pe
Ġtien da
Ġtend rÃ¡
Ġhá» Ĺ
tal ie
uch ten
ĠÐ²Ð¾Ñģ Ð¿ÑĢ
Ġnie co
èĢħ ãģ¯
Ġpie dra
Ġstru cture
ĠÑĢ Ð°ÑģÑĤÐ²
ĠÐľ Ð°Ð¹
Ġt Æ°Æ¡ng
ĠÐ½ Ñĥ
ĠÐ²Ð¿ Ð¾Ð»Ð½Ðµ
ĠL ink
ĠGes etz
ÑģÑĤ Ð¸ÑĤÑĥÑĤ
ĠÐ´ÐµÑĤ Ð¸
Ġb lu
ci ato
Ġpes quis
w nÄħ
Ġmalad ie
lla zione
Ġespe cia
Ġsp a
ĠÐ²Ð¾Ð¹ Ð½Ñĭ
ĠHis toire
bb le
Ġpl at
ĠPro fes
Ġmateria les
ĠC L
owa Å¼
Ġ200 3
Ġn ord
unta miento
Ġme z
Ġdu as
ĠResp onder
Ġref le
re ise
å¾ ĭ
Ð¸Ð½ ÑĤÐµÑĢ
ĠÑĤ ÐµÐ¼Ñĥ
Ġr áº»
ĠÐ¡Ð¾Ð² ÐµÑĤ
Ġil oÅĽci
ki r
ÑģÑĤÐ²ÐµÐ½ Ð½Ð¾Ð¹
ĠG as
t us
çĽ® çļĦ
Ġpowie dziaÅĤ
ĠMin isterio
ĠÐ¿Ð¾Ñģ Ð¼Ð¾ÑĤÑĢÐµÑĤÑĮ
l li
ĠÐ´ÐµÐ¿ ÑĥÑĤ
Ġperf etta
ĠEs corts
ĠÐ°ÑĢ ÑĤ
Ġse gn
Ġservi Ã§os
Ġtho áº¡i
ĠFunk tion
ĠN un
ĠÐ£ ÑĢ
Ġfour n
Ġcomple ta
ĠÑĦÐ¾ÑĢÐ¼ Ðµ
ĠSe hr
Ġverw enden
ĠBl ue
Ġ8 6
Ġsex uales
Ġp ilo
è¡ £
ãĥĥãĥģ ãĥ³
Ġéĩ İ
Ġw ere
ĠÐ¶ Ð°Ð»
Ġm undial
ĠVer tra
tes ten
ĠBlan co
si cos
Ġch icos
ĠÑģÑĤ ÑĢÐ°ÑĤÐµÐ³
Ġil lus
ĠG al
Ġu k
Ġé Ł³
Ġjed es
ĠCas inos
ĠNi estety
Ð°Ð½ Ð½Ð°Ñı
ĠÐľ Ð½Ð¾Ð³
z ada
Ġcom enz
me dio
O B
Ġg uerra
Ġremp la
ta m
kow ski
Ġsr c
ĠwaÅ¼ ne
ri eren
Ġspot kania
Ġpubli cs
ĠÐ·Ð°Ð±Ð¾Ð»ÐµÐ² Ð°Ð½Ð¸Ñı
ãģ®å Ģ
Ġsuff it
Ġconna issance
ĠÐ· Ð½Ð°Ðº
ĠM aj
Ġko le
ĠW Y
ka li
Ġtr anh
w issen
ling s
Ð¾Ñĩ ÐµÐº
ÐµÐ· Ð¶
ı ¡
Ġp ÅĤa
Ġencuent ran
Ġsp iele
Ġfr Ã¼h
Ð°Ð² Ð½Ð¾
Ġc lÃ©
Ġdu Å¼e
ĠrÃ©du ction
Ġpoli ce
Ð»Ð¸ ÑģÑĮ
czy ny
Ġroz p
ä¸į åĭķçĶ£
ĠãĥĪ ãĥĥãĥĹ
è ®
U C
Ġenf rent
Ġw ich
Ð¸Ð½ ÑģÐºÐ¸Ð¹
Ð± Ð¸ÑĢ
ĠÐĹ Ð°ÑĤ
ĠWy kon
ĠãĤ¹ ãĥŀãĥĽ
t ny
Ġãģ ı
Ġå Ĥ
ãģĻãĤĭ ãģŁãĤģ
n oÅĽ
ĠsÅĤ owa
Ð°ÑģÑģ Ð°Ð¶
ĠZ us
Ġdovre bbe
ku jÄĻ
itel ist
ĠP uerto
Ġre cl
ur Ã©
h one
cula tion
ĠÑģÑĤÑĢÐ°Ð½ Ðµ
ĠB lau
was ser
Æ°Æ¡ i
ĠK ostenlos
Ġkonn ten
ä» ²
ĠÃ©v olution
ĠÃ©tudi ants
ci ente
èº į
ĠAless and
di entes
ĠM unicip
ĠAd ul
r eno
s tre
Ġsu elo
¦ Ĥ
ĠÐ¿ÑĥÑĤ Ð¸
h ilfe
ga ta
èĩª èº«
ĠT uy
ĠInter nation
Ġim media
Ġle i
pr ow
ĠAs socia
c enti
ä»£ è¡¨
ani i
ãģĵ ãĤĵãģª
ĠãĢ ĭ
ãģ®ç ¨
Ġpres up
Ġb onnes
hand el
Ġsce gliere
al ter
Ġza u
w any
Ġs korzy
ĠÐ´ÐµÐ½ ÐµÐ¶
Ð¾ÑģÑĤÐ°Ð² ÐºÐ°
ÐµÑī ÐµÐ½Ð¸Ðµ
wa j
id ores
ĠL ivre
lo gue
S S
Ġmar i
Ġprogra mas
ĠKar te
Ã¤uf er
Ġmas sa
etta re
ru zione
ĠC lau
Ġouti l
ĠÐŁÑĢ Ð¾Ð³ÑĢÐ°Ð¼
ĠÐºÐ»Ð¸ ÐµÐ½ÑĤÐ¾Ð²
ĠWarsza wie
Ġmo im
ow ÄĻ
ĠLes bianas
Ġcoraz Ã³n
Ġf lo
ÐµÑĩ ÐµÑģÑĤÐ²
Ġèª ¿
ĠP s
tig es
ĠBÃ¼ cher
ĠÐĹ Ð°Ð³
ĠGr Ã¼
ĠB aby
z ieren
Ð¸ÑĨ Ð¸Ñı
ãĥŀ ãĤ¤
Ġprze wod
ĠR ose
om ie
Ġens ei
ç· ´
ĠHo teles
Ġmin er
b un
ĠÐ¶ Ð¸Ð´
ä¸Ń ãģ§
Ġli ve
ĠDes arro
Ġlo cales
ĠReg ione
vis ione
ĠSch Ã¼ler
Ð°ÑĢÐ¸ ÐµÐ²
Ġu a
ĠÐ¾ÑĢÐ³ Ð°Ð½Ð¾Ð²
Ġcro issance
ener dÃ¬
u tare
v am
Ġåı Ĥ
ĠP Ã¡g
ĠAd olescente
Ġide al
ra cht
Ġpop raw
Ġbuen os
Ġconcas seur
bor ation
Ġpan ne
åĪ °
ĠConta cto
v idad
di ente
Ġsu el
ĠÐ²Ð½ ÐµÑģ
Ġb ay
ĠGes chen
k unden
di mento
ck iej
Ġcontin ue
ient Ã´t
Ġparten aires
Ġconcer ne
di tos
ĠprÃ© sta
Ġher vor
ges sen
ĠÐ°Ð±Ñģ Ð¾Ð»ÑİÑĤ
Ġj et
éĿŀ å¸¸ãģ«
Ġcap ire
Ġbre ve
Ġpens ar
Ġtra fi
ĠBe handlung
ĠD anke
ĠU lti
sp iele
bi gliamento
Ġe vi
ÑĥÐ¼ Ð°
Ġdob ra
ĠT rze
pf lich
Ġp uerta
Ġ8 9
ge ments
ĠÐ¿ÑĥÑĤ ÐµÑĪÐµÑģÑĤÐ²
Ġak tiv
ĠCol or
Ġw szyscy
ci pe
ĠCont in
Ġpie di
j Ã¤h
Ġprodu c
Ġde k
Ġm idi
Ġcom mento
Ġin fer
ĠS ource
ti le
or ca
A J
ak tion
) ,
Ġtable au
Ġmont ant
ĠKar ten
je my
Ġfa ible
ĠG ÅĤÃ³w
Ġzw eiten
ãģ« ãģı
Ġfre qu
Ġnie mie
ĠStar tseite
Ġdar an
Ġc ouv
Ġz bior
ł çĶ»
pe dia
ba te
Ġsem anas
Ġs ani
ï¼ ®
Ġdecis iÃ³n
ĠM Ã¡
ci to
ãĤ¤ ãĥ¼ãĥ«
ĠJo hn
ãģĿãģĨ ãģª
ãģĮ ãģĦ
ĠÐ¿ÑĢÐ¾Ð³ÑĢÐ°Ð¼ Ð¼Ð°
ĠÐ¾Ð±ÑĬ ÐµÐ´Ð¸Ð½
ãģĮ ãģ¤
ä¾Ŀ éł¼
Ð°Ð´ ÑĨ
ĠDz iaÅĤ
Ġstron a
Ġprote cciÃ³n
Ġn orte
Å¼e k
4 æľĪ
Ġstand ard
ãģĭ ãģĦ
je kt
Ġh Ã¶r
ĠSchwei z
Ġåį Ĺ
ĠLa ger
ĠErgeb nisse
p an
ue ur
Ġgi áº£
ĠtÃ©lÃ© charger
Ġm ent
Ġesp Ã¨re
Ġpar i
ĠL et
ĠÐ¾Ð¿Ð¸Ñģ Ð°Ð½Ð¸Ðµ
ĠÐ¼ÐµÑģÑı ÑĨÐ°
de ment
ĠdÃ© pos
Ġsoddis f
Ġnatur ale
Ġpod z
åİ ļ
ĠF ond
Ġv end
ĠzwiÄħz ane
ãģ§ãģĹãģŁ ãģĮ
ĠâĢ ķ
Ġbeispiel sweise
Ð¾Ñĩ Ð½Ð¾Ð³Ð¾
Ġc Ãłng
ĠW ind
Ġmas simo
Ġtuo i
Ġabb ia
Ġmon ta
ĠBay ern
Ã¤n dig
ĠÐĶ Ð¾
Ġgdy Å¼
ãĤ¹ ãĤ«
Ġbef indet
Ġ', '
Ġser rure
Ġf aute
ãĤ¦ ãĤ©
ĠÐ·Ð°Ð´ ÐµÑĢÐ¶
Ġex tr
è² ¬
ĠLe ute
ãĤ ¥
ĠwÅĤos Ã³w
Ġt zw
ĠL igne
Ð°Ð» Ð»
Ġc á»¥
inte mps
Ġconte mp
Ġdru gie
Ġ its
ĠP es
ne y
ĠÐŀÑĤÐ·ÑĭÐ² Ñĭ
ĠÐĺÐ½ Ð´
Ġpein ture
Ġdispos e
Ġes ser
Ġes corts
Ġdist ancia
l Ã¶s
ĠcrÃ© dit
ĠTe mat
ha ter
Z hb
ĠK ato
Ġwy po
n ant
Ġprodu kt
f ter
forder ungen
ĠÐ¿Ð»Ð°ÑĤ ÐµÐ¶
Ðº Ð¾Ð½
Ġza czyna
åĪĿ ãĤģãģ¦
Ã©r coles
ĠÐĲÑĢ ÑĤ
Ġph arma
Ġwe dÅĤug
90 11
Ġfin anzia
Ġfre uen
Ġdes halb
ĠS olo
ĠOrigin al
ĠÐ±Ð¸Ð·Ð½ÐµÑģ Ð°
ÐµÐº ÑĥÑī
ann ten
ĠÐ¾ÑĤÐ² ÐµÑĩ
ĠP in
tran j
ĠÐ´Ð¾Ð¿ Ð¾Ð»Ð½
ĠÐºÐ¾Ð½ÑĤÑĢ Ð¾Ð»ÑĮ
ãĥĥ ãĤµ
á»ĵ m
Ġros so
Ġmet ri
odz enie
Ġer reichen
Ġdes tina
ĠrÃ©gi me
Ġç ®
ph ie
Ġpres sion
it ant
çķ Ļ
Ġre mb
ĠSegur idad
Ġ3 D
Ġpersonn alis
Ġdocu ments
ta rios
ĠÐ·Ð½Ð° Ñİ
Ð°Ð» Ð¾Ð¼
Ġprodu kcji
ĠT al
ç į
ĠÑģÑĤ ÑĢÐµÐ¼
odz iel
Ġofre cer
Ġl iter
Ġstru menti
Ġbel ieb
ãģ®æ ¯
ĠÐŀ Ðĳ
ĠÐ¿ÐµÑĢÐ² Ð¾Ð¹
å¼· ãģĦ
åħ «
pos ts
Ġ":" .
è¨Ī çĶ»
Ġtras fer
Ġcomer cial
Ġka ta
m Ã©s
Ġvoyage urs
Ġ6 3
Ġze wnÄĻtrz
Ġc ia
Ġvo let
Ġag rad
Ġm ara
Ġcom ida
Ġob sz
ĠÐ²Ñĭ ÑıÐ²
Ġsouha ite
Ġmet tere
ĠV endita
Ġe aux
Ã¨ se
zz ando
ĠSch ule
ãĥŀ ãĥ¼ãĥĪ
cie ls
ĠSe Ã±
ĠÑįÐº Ð·
a ient
Ġ390 9011
Ġcon tes
Ġs istemas
Ġs Ã¡bado
ĠSta ti
ãģ«ãģª ãģ£ãģ¦ãģĦãĤĭ
Ġnatur aleza
ĠÐļ Ð½Ð¸
ĠÐĶÐ¼ Ð¸ÑĤÑĢ
ĠÐ¡Ð ĥ
Ðľ ÐĲ
ĠÐºÑĢ Ð¾Ð¼Ðµ
ÑģÑĤÐ²ÐµÐ½ Ð½ÑĭÐ¹
éŃ Ķ
ãĤĴ åĲ«
Ġmad era
Ġescu ela
Ġge m
Ġgr und
Þ¬ Þ
ĠÄĳ áº£m
ĠÑĤ Ð°
Ġum iejÄĻ
ãģĭãģ£ãģŁ ãģ§ãģĻ
æĭ ł
Ġde ja
ain es
ĠÐĲÐ² ÑĤ
Ġali mentos
ĠTe xt
ĠÐ½ Ð¾Ð¶
ĠÑģÐ¸Ð¼ Ð²
ĠFrei tag
ĠRab att
Ġvo ya
Ġsch Ã¶ne
ĠFrank furt
st Ã¤r
ÐĴ ÐĲ
ĠÐŁ Ð¾Ð²
Ġz ÅĤoÅ¼
Ð¸ÑĢÐ¾Ð² Ð°Ð»
ĠAl gun
ief el
Ġæķ °
Ġimmo bili
ĠnghÄ© a
be wert
ĠL iter
ĠÑģÐ²Ð¾ ÐµÐ¼
Ġesta te
r uf
Ġer hÃ¶
Ġnaj mniej
æĺł çĶ»
Ġp eine
ĠÑģÐ°Ð¼ Ð¾Ð³Ð¾
ãĤīãĤĮ ãģ¾ãģĻ
ĠV iele
ĠÐĴ ÐµÑģ
Ġimmag ine
ĠÐ¾ÑĤÐ½Ð¾ÑĪ ÐµÐ½Ð¸Ñı
Ġth an
ĠmÃ© to
Ã©ra l
Ġde mo
Ġincl uye
kar ten
ĠÐ¾Ð±Ð¾ÑĢÑĥÐ´ Ð¾Ð²Ð°Ð½Ð¸Ðµ
Ġav enir
ĠÐ·Ð°ÑĢ ÐµÐ³Ð¸ÑģÑĤÑĢ
Ġdi ritti
ãĤ¨ ãĤ¢
Ġåı ¤
Ġpromo tion
Ġaper to
ix a
ĠdÃ³l ares
ĠmatÃ©r ia
Ġåį ĥ
Ġâ ľ
Ġrece voir
Ġr ose
ĠprÃ© c
Ġ3 A
ologi ques
tal y
Ġan alisi
ĠÑĢÐ°ÑģÑģ Ð¼Ð°ÑĤÑĢ
Ġpro ced
ãĤ± ãĤ¢
Ġä¸Ģ èĪ¬
ĠF it
# #
d et
Ġbra ucht
Ġz onas
Ġas col
ĠapprÃ© ci
ĠÐ¾Ñī ÑĥÑī
ĠO f
ĠAle x
ãģĮ ãģ§ãģįãĤĭ
ĠO ggi
ĠDz iÄĻ
ĠrÃ³Å¼ ne
ĠåŁ º
a ction
Ð°Ð½ ÐºÐ°
ÑĥÑģ Ð¾Ð²
Ð¾Ñģ Ð¸Ð±Ð¸ÑĢ
ĠÐŁÐ¾Ð» ÑĥÑĩ
ĠÑĢÐ°Ð² Ð½Ð¾
Ġmaxim um
Ġra y
ĠÐĿ ÐµÐ´
ç§ °
Ġun be
ĠV a
ĠS ÃŃ
Ġc odice
f assen
ĠÐ½Ð°Ð³ ÑĢÑĥÐ·
ĠP ort
ĠBel gique
un ti
Ø §
Ã³ pez
ĠÐ²ÑĭÐ¿ Ð¾Ð»Ð½Ñı
di co
ĠÃ ¸
Ġqu Ã½
Ã©ro port
Ðł Ðķ
ĠÑħ Ð²Ð°ÑĤ
Ġimp ul
Ġer forder
ãģĹãģ¦ãĤĤ ãĤī
Ġkh áº£
ĠÑģÐ¿ Ð¸ÑģÐ¾Ðº
ï¼ ¿
ãģ®æ ±
ĠÐ½ ÐµÐ³
Ġme chani
ia t
åĪ »
Ġs ÅĤa
Ġproje to
b w
Ġci ento
ĠprÃ©sent ation
pri re
åĩº ãģĻ
Ġacor do
che z
Ġt are
Ġconna iss
Ġokres ie
ĠÐ¿ÑĢÐµÐ´ÑģÑĤÐ°Ð² Ð»ÑıÐµÑĤ
Ġcateg oria
Ġbene ficios
ĠUn ser
Ġson st
w ent
ĠWo j
ĠSoci Ã©tÃ©
ĠN uest
Ġmod alitÃł
Ġniez bÄĻd
ĠéŁ ĵåĽ½
Ġ25 0
Ġb ur
Ġan Ã¡lisis
mina ciÃ³n
ĠS ub
ĠÎ Ķ
Ġcomunica zione
Ġsu kces
Ġä»Ĭ æĹ¥ãģ¯
ĠCer ta
Ġæ³ ¨
Ġngh e
ĠV ir
ç¶ Ļ
Ð¸Ð² Ð°Ñı
ĠGru po
Ġfi esta
Ġfe men
Ġcaratter istiche
Ġti pi
ĠÐ¿ÑĢÐ¸Ð½ Ð°Ð´Ð»ÐµÐ¶
Ġtak iej
ĠÑĢÑĥ ÐºÐ¸
Ġda nh
ĠDod at
Ġqu alidade
ãĥĥ ãĥĦ
Ġper ten
Ġk osten
Ġge geben
ĠÐ²Ð°ÑĪ ÐµÐ³Ð¾
ÅĤo Å¼y
Ġbe gr
t ons
ä¸Ń å¿ĥ
tow ane
ĠÑģ Ð»Ð¸ÑĪÐºÐ¾Ð¼
Ġfinan zi
ĠÐł ÐµÐ¼Ð¾Ð½ÑĤ
ĠÐ¸ÑģÑģÐ»ÐµÐ´ Ð¾Ð²Ð°Ð½Ð¸Ñı
Ġ ãģ§ãģ¯
Ġpar tage
Ġãĥķ ãĥŃ
Ġco Ã»t
ĠG leich
Ġu dziel
éł ĺ
ÑĥÐ» Ð°
Ġar ia
Ġini cio
ĠCom pr
pa nh
W x
Ġzna cznie
Ġaktue llen
Ġtend ance
Ġb á»ĳ
Ġr od
ĠCons ul
ĠGes amt
Ġt oma
Ġf ro
Ġeff ets
ĠGe h
Ð°Ð½ ÐµÐµ
Ġb ÄħdÅº
Ġcali entes
Ġav vi
w ÄĻ
Ġ" -
ro ir
Ġcour t
os en
Ġz ob
ĠÅ¼y ciu
ĠD onc
ĠÐļ Ð°Ð¼
Ġn ow
ons ieur
Ġap re
camb io
6 7
5 7
Ġoffi ciel
ĠSz cz
Ġt all
Ġno ticias
Ġpod pis
Ġal ten
ĠÐĲÐ½ Ð³
Ġç ¢º
ĠS obre
Ġjur id
ãĥī ãĤ¢
ĠÐ¿ÑĢÐµÐ¿ Ð¾Ð´
Ġeff etto
5 hbWU
r adas
Ġwe wnÄĻtrz
li ga
Ġt ats
ãģı ãĤĮãģŁ
Ġparti dos
Ġliber tad
Ġjem and
ĠMitglie der
Ġnadz iejÄĻ
ros o
æ£ ļ
äºĭ æķħ
Ġcele bra
Ġemp fehlen
ĠDeutsch e
u ter
ĠÃ¼ber haupt
ÑĤ ÑĢÐ°
Ġdzis iaj
Ġtrans porte
Ġander em
Ġcon ception
ĠÑĤÐ°Ðº Ð¸
Ġl á»±a
Ġer sch
ĠÑģÐ¾Ð¾ÑĤÐ²ÐµÑĤÑģÑĤÐ² ÑĥÑİÑī
ĠK oÅĽci
ĠPr Ã¼
Ġrekl am
ĠC ara
Ġt Ãº
Ġac ces
ĠO ption
ĠÑĢ ÐµÐ»
Å¼ enie
ãĤ³ ãĥĶãĥ¼
lan de
ĠæĪ ĳ
ãģĦ ãģ£ãģŁ
ĠL Ã³pez
Ġlie be
mper atur
Ġpel os
wers y
åĪĨ ãģĳ
Ġmind estens
Ġbe ll
Ġris tor
Ã§ ar
Ġä»Ĭ æĹ¥
ĠÐŁÑĢÐ¾ Ð¸Ð·Ð²Ð¾Ð´
ĠÐ½Ð°ÑģÐµÐ» ÐµÐ½Ð¸Ñı
Ġmad ura
ti les
ĠF enster
ĠdÃ©p end
Ġch wili
ç¤ ¼
Ġme ta
Ġuffici ale
buj os
ma ciÃ³n
Ġ^ )
Ġapr ender
æŀ Ĳ
Ġéĥ ¨
æ¸ ħ
ãĥŀ ãĥ³ãĤ·ãĥ§ãĥ³
æļ ®
uel o
Ġl áº¥y
ĠÐ¼ ÑıÑģ
Ð» ÐµÐ²
Ġjus t
ver gleich
Ġk rzy
ãģ® ãĤ«
z ig
ĠÑģÐ¾Ð± ÑĢÐ°Ð½
Ġprincip ale
ĠÐĴÐ¸Ðº ÑĤÐ¾ÑĢ
y J
Ġcontinu aciÃ³n
ato rio
ie d
ĠÐ²Ñĭ Ð¿Ð»Ð°ÑĤ
Ðº Ð¸Ð¼Ð¸
Ġt Äħ
ĠC ruz
Ã¡ fico
pa ck
æ ĵ
ĠCom puter
Ġl Æ°u
ĠmÃ¡xi mo
pis ode
Ð°ÑİÑī Ð°Ñı
Ġwy nosi
ale urs
Ġrelated posts
Ġent rar
Ġ) ãĢģ
ç¤º æĿ¿
ĠÃ©ta is
ãĥĵ ãĥ¼
Ġcla ve
AD A
Ġserrur ier
Ġcompa gnie
ĠÑĥÑģÑĤ Ð°Ð½Ð°Ð²Ð»Ð¸Ð²
Ġmod a
" #
ãģ» ãģ¨ãĤĵãģ©
j ar
ĠÐ¿Ð¾ÑĢÑıÐ´ ÐºÐµ
Ġpierw szej
ĠUm gebung
ĠÐ´Ð¾ÑģÑĤ Ð¸Ð³
Ġin vesti
vo re
Ġencont ra
we gs
Ġorgani zza
Ġtur ys
lÃ¼s sel
Ð¾ ÐµÐ²
ĠSam stag
ĠBei m
Ġtrois iÃ¨me
ĠE mi
ĠeconÃ³mi ca
Ġhum anos
Ġexcel ente
g ge
ĠTa gs
Ġ7 2
R e
Ġm g
ĠdÃ© n
ĠÐ¿ÑĢÐµÐ´ÑĥÑģ Ð¼Ð¾ÑĤÑĢ
Ġdescu ento
Ñı ÐµÐ¼
ĠGi Ã¡
ĠÂ £
ĠNg Æ°á»Ŀi
Ġc oupe
Ġsor tir
ĠÐ¼ÐµÐ± ÐµÐ»ÑĮ
ĠÑģÐ¾Ñĩ ÐµÑĤ
ier ungs
Ġenvo y
ĠÐŀ Ð¿Ð¸ÑģÐ°Ð½Ð¸Ðµ
ĠÐ¿ÑĢÐ¸ Ð±Ñĭ
ĠJ ue
AL ES
Ġf em
ĠÐ¿Ð¾ÑģÑĤ Ð°Ð½Ð¾Ð²
ĠÐ¿Ð» Ð¾ÑĤ
ĠÑģÐ¿ÑĢ Ð¾Ñģ
v ola
ĠJo h
Ġempe zar
c ador
sch rank
Ġsenti r
ĠSpiel othe
ĠOr ganis
ĠÑģÐ°Ð¼ Ð¾Ð¹
ãĥĭãĥ¥ ãĥ¼ãĤ¹
ĠG rigio
Ġre cuer
Ġstori co
w na
pe k
Ġbudow l
Ġcommunau tÃ©
ÑģÐº Ð¸Ð¼Ð¸
ct wo
Ġwybra Äĩ
ãģķãģĽãģ¦ ãģĦãģŁãģł
éģ ħ
Ġos piti
lic itÃł
Ġapr endi
Ġejerci cio
ĠS UR
ta lement
Ġsp er
Ġrela tions
tif icaciÃ³n
Ġh d
Ġel en
çĽ £
Ġnajlep iej
ri re
Ġespe ci
Ġæ ¼
ãĥ¼ãĤ¹ ãĥĪ
Ġper te
Ð½Ñİ Ñİ
Ġv aria
ĠcÃ³ m
Ġmi mo
Ġká» ¹
Ã©r ant
ĠÐ¿ Ð°Ñģ
Ġmom entos
Ġi zquier
ãģ® å®Ł
ãģ£ãģ ½
æŃ ¯
ici lio
ãĤ¸ ãĤ¢
ĠÃ© li
ĠEs pe
rei bt
Ġf era
Ġsol che
ĠÐº Ð¾ÑĢÐ¼
Ð± ÐµÑĢ
ĠÐ¾ ÑĢÑĥÐ¶
un cia
ĠÐ¥ Ð¾ÑĢÐ¾ÑĪ
ĠÐ¡Ð Ĭ
ĠÐ°Ðº Ñģ
Ñİ Ð¼
Ð¿ÑĢ ÐµÑģÑģ
Ġh ad
Ġdes sen
ĠDa vid
Ġè¡ Į
Ġhab la
ci ar
ĠP ablo
ĠA V
I TE
Ġav ance
ãĥī ãĥ«
Ġde z
Ġlav ora
ĠÑħÐ¾ÑĤ ÐµÐ»
Ġpropie dad
ĠÑĢÐ°Ð·Ð½Ð¾ Ð¾Ð±ÑĢÐ°Ð·
Ġd ados
áº© u
ĠWie der
ĠSu pp
f ait
Ð¸ÑĤÐµÐ»Ñı Ð¼Ð¸
ĠÑĨÐµÐ½ÑĤ ÑĢÐµ
ci uto
Ġkobie ty
Ġjed na
ĠKle id
id or
Ġpeque Ã±os
Ġsyst Ã¨mes
Ġcla ir
ĠMar seille
ĠComm un
ĠlÃ©g Ã¨re
Ð¾ÑĢ Ð¾Ð¼
Ġad qui
ĠErfahr ung
ĠÑĥÑĢÐ¾Ð² Ð½Ðµ
ĠÐºÐ»Ð°ÑģÑģ Ð°
Ġcos ti
Ġn em
do pod
Ġéĩ į
ĠÄĲ á»©c
Ġclas sique
ĠbÃ©nÃ© fi
ĠåĪ ¥
ĠSi tios
Ġro pa
ĠrÃ© c
Ð¾Ð¹ ÑĩÐ¸Ð²
Ġposs ÃŃvel
Ð°Ð»ÑĥÐ¹ ÑģÑĤÐ°
Ð½Ð¸ÑĨ Ñĥ
ĠÐŃ Ð½
ĠVene zia
da zione
Ġs ost
Ġol vid
ĠHÃ´tel s
ure usement
ĠHa ar
Ġinforma tique
ĠErfahr ungen
Ġn owego
f Ã³
ta tt
ĠCam era
ï¾ Ŀ
ãģĦ ãģ¾ãģĽãĤĵ
Ġw nÄĻtrz
ĠKÃ¶l n
Ġa jouter
ĠÐ²ÑĭÐ³ Ð»ÑıÐ´
Ġle gno
Ġan zi
Ġdecl ar
Ġmit tel
ĠMar tin
ĠÐ½Ð¸Ðº ÑĤÐ¾
ist rut
Ġzn alaz
Ġauf grund
Ġbamb ino
ĠczÅĤowie ka
c H
Ġpod kre
ĠÎĶ E
Ġb at
ĠKa ta
Ġper d
Ġmiejscow oÅĽci
ĠÐ²Ð·Ð³ Ð»ÑıÐ´
ÑĭÐ² Ð°Ð½Ð¸Ñı
Ġæ ļ
ÑĥÑģ ÑĮ
Ġdru Å¼y
Ġt iá»ĩn
Ð°ÑİÑī ÐµÐ³Ð¾
Ġcons umo
Ġex isten
Ġstu denti
ida Äĩ
Ġl iens
ĠU Å¼y
ãĥĪ ãĥĬãĥł
ĠJ este
9 3
ĠindÃ© pend
mi i
ĠÑģÐ¾Ð·Ð´ Ð°ÑĤÑĮ
Ġprof il
Ġmen tion
ĠÐŁÐµÑĢ ÐµÐ´
Ġ] [
ä¾¡ åĢ¤
ĠTra ng
ĠE ben
ala xy
ÅĤasz cza
ĠCh ÃŃnh
si f
Ġind is
Ð°Ð» Ð¸ÑĤ
Ð°Ð´ ÐµÐ¼
ĠÐ²Ð· ÑıÑĤÑĮ
Ġaplica ciones
ĠWohn zimmer
par k
va Ã§Ã£o
ĠSand ales
ĠE lles
Ġconse gna
rod y
Ġæľ¬ å½ĵãģ«
Ġtr Æ°á»Łng
ĠG ir
Ġall Ã¡
ĠCons ejo
ĠT E
v ador
Ġo ggetti
ĠFuÃŁ ball
Ã¤us er
ĠPow er
ĠF C
zie hen
Ð¸ÑĨ ÐµÐ¹
çµ µ
Ġsal a
on er
ãĥĪ ãĥ«
Ġeleg ir
Ġzw ro
utt gar
Ġhoch wer
ic ÃŃ
Ġposi ad
ĠA ires
olu ciÃ³n
Ġb ist
ĠK or
Ġind ustrie
Ġhist Ã³ria
Ġe cco
ac co
ĠEs tos
Ñĥ ÑģÑĤÑĮ
Ñĥ Ð¿ÑĢ
Ġcomple tamente
re d
Ð¸ÑĢÐ¾Ð²Ð°Ð½ Ð½ÑĭÐµ
Ġob ro
f est
ĠFe hler
ĠLeist ung
na le
Ġpros simo
Ġarri va
I TA
Ġacquista re
åĸ ľ
ĠÐ· ÐµÑĢÐº
Ġti p
k g
Ð¾Ð» Ñĭ
Ġg oÅĽci
ĠH aup
ĠN E
use ppe
Ġvelo ce
æ± Ł
ãģ¨æĢĿ ãģ£ãģ¦
ãĥ¯ ãĥ¼
ãĥ³ãĥ ŀ
Ġt á»ĳi
Ġbou tique
Ġac cessoires
ĠC A
Ġvis ion
ĠÐĶ ÐµÐ½ÑĮ
ĠÐ¿ÐµÑĢÐ² ÑĥÑİ
t ut
çĹħ éĻ¢
ĠãĤ¦ ãĤ§
Ġwsp ania
Ġhum ano
R o
Ġwy cie
Ġcon vi
ĠÐ» ÑĮ
Ġvo gli
ĠMa ggio
Ġdim ostra
Ġautori dades
L a
AN CE
Ġrem ise
åĩº ãģ¦
ãĥ¬ ãĥĻãĥ«
Ġsel ber
de cken
Ġ^ ^
he ur
Ġpermet tra
li ngen
Ġwel ches
Ġè² ©
Ġè¿Ķ ä¿¡
ty pe
æĿ¡ ä»¶
Ġt esto
ĠTh Ãłnh
por ts
ĠÐ¸Ñģ ÑħÐ¾Ð´
da ta
Ġpozy tyw
ĠÑĢ Ð¾Ð»ÑĮ
ĠÑĤÐµÑħÐ½Ð¾Ð»Ð¾Ð³ Ð¸Ð¸
ĠÐ¿ ÑĤ
Ġ Ĉ
æĤª ãģĦ
åĪ º
Ġgr is
ĠdÃ©mo cra
tif ier
Ġm ostrar
ĠRep Ãºblica
Ġsolu ciÃ³n
inn t
Ġll ama
U M
ill ant
Ġokaz ji
Ġç ĿĢ
tiv itÃł
éļ Ĭ
Ġbeste llen
ĠRis i
Ġpr endere
Ġkwes ti
Ġon et
Ġrodzin y
ĠÂ ª
Ġr Ãµ
Ġart ÃŃculos
ĠSpa ÃŁ
Ġinternation ale
ĠÑĢÐµÑģÑĤ Ð¾ÑĢ
ma ti
Ġprze czy
Ġpo cz
z co
ĠE je
Ġal quiler
Ġb ro
gra phe
Ġide ale
Ġmanif esta
Ġd unque
Ġparla re
Ġg os
Ġdes te
Ġge h
ĠÐłÐµÑģÐ¿ÑĥÐ±Ð»Ð¸ ÐºÐ¸
ĠÐ½ÐµÑģÐºÐ¾Ð»ÑĮ ÐºÐ¸Ñħ
Ġf id
ĠT utto
ines e
Ġpe qu
ĠR ichtung
Ġto Ã¡n
Ġgu ard
Ġl á»ĩ
ĠrÃ©f le
ĠÐºÐ¾Ð» Ð»ÐµÐº
ĠÐ´Ð°Ð»ÑĮ ÑĪÐµ
Ġac teurs
Ã¨ nes
ÅĤ ego
ÑĦ Ð°
ĠÐ¶ Ð¸Ð»ÑĮ
Ġg eni
Ġelett ron
ĠGebur ts
Ġrela zione
Ã³ le
ĠEn cont
g rÃ¡
teil en
ĠO ra
Ġv ui
Ġin to
fic ar
Ġmus ste
b on
ĠÐ² ÐµÐºÐ°
Ġener gia
Ġu003 c
Ġsecon de
Ġd on
Ġc ientÃŃ
ĠD az
y n
Ġentra Ã®
ç £
ord nung
ĠH á»ĵ
ta us
Ð°Ðº Ð¾Ð½
Ġç ²
æĺ ĵ
ĠÐºÐ¾Ð»Ð¸Ñĩ ÐµÑģÑĤÐ²
Ġs telle
åı¯èĥ½ ãģ§ãģĻ
iá»ĩ p
ĠCe pendant
Ġk al
ĠZ aragoza
Ġjue ves
ĠM ala
ĠC AR
mar as
Ġri cord
ĠWroc ÅĤaw
Ġzu peÅĤ
Ġbien es
Ġprzy zna
ãģĿ ãĤĵãģª
ãģ«å¯¾ ãģĻãĤĭ
ĠSt rom
Ġt ess
Ġso ftware
Ġapplica zione
in ar
ĠW ein
ĠStiva li
ĠErgeb nis
ĠD em
Ġ% .
ÑģÑĤ Ð°ÑĤÐ¸
ĠÐºÐ¾Ð¼Ð¿ Ð°Ð½Ð¸Ð¹
ĠSand ali
ĠÐ¸Ð½ Ð¾Ð³Ð´Ð°
ĠK osz
ĠB iaÅĤ
ãĥ³ãĥ ľ
Ġlu áºŃt
Ġenci ma
is ji
ĠAndre a
Ġnaj wyÅ¼
ĠD ise
ti dos
hal ts
Ġp atri
Ġ ć
ãĤĴ åıĸ
Ġsco per
Ġt ÃŃtulo
ĠKomm unika
Ñĭ Ðº
ĠÑĩ Ð°ÑīÐµ
Ġles que
ãģ® æĸ°
ĠCa tal
T OR
Ġva caciones
g ine
ĠTri p
Ġfabri c
p lay
Ġver gang
Ġco llo
ĠSp o
or gani
ĠÑĢÐ°Ð½ ÐµÐµ
ç¸ ¾
Ġdi rige
Ġau tore
yste me
Ġde in
ĠStand ard
ãĤ¦ãĤ§ ãĤ¢
ãģ®å İ
ĠÐĺÐ¼ ÐµÐ½Ð½Ð¾
ĠÐ¿Ð¾ÑģÐ² ÑıÑī
Ġvo ce
re o
mp e
le iter
ĠN at
ĠÐ´Ð¾Ð¼ Ðµ
ĠCa teg
ĠD ÃŃa
ti ere
al nej
ĠLiv raison
Ġ= >
ten d
ĠÐĵ Ð°ÑĢ
bi ana
Ġreali za
ãĥ¬ ãĥĥãĥī
Ġy áº¿u
ĠÐ¿ÐµÐ´ Ð°Ð³Ð¾Ð³
ĠÐ²Ð¸Ð´ Ð¾Ð²
k owaÄĩ
ĠO der
D R
ĠheiÃŁ t
c ro
lan zen
Ġrapp el
Ġw ork
ĠÐ·Ð°Ð² Ð¾Ð´
Ð¸ÑĤÐµÐ»ÑĮ ÑģÑĤÐ²Ð¾
Ġaj ud
Ġç ±³
ĠM ostrar
ĠD os
ĠrÃ¡p ido
ĠR am
lej o
ĠÃ©qui pes
ia re
Ġ8 8
ori os
bi en
ve ille
Ġsta tion
Ġtrak cie
ci are
rz eni
ĠÐ¦ ÐµÐ½Ñĭ
O C
ĠÑģ Ð°Ð½
a ten
Ã³w ka
Ġpol ski
ÑģÑĤÐ² Ð¸Ñı
Ġnad al
ĠÃ ¯
Ġm áº«u
ĠPres idente
Ġcom in
Ġcal cio
ĠVe di
Ġproprie tÃł
Ġvo z
Ġ6 1
tit ut
ĠÐĹ Ð²
Ġor igen
Ġsa car
o x
į ng
ĠdÃ©cid Ã©
ĠÐ¿ÑĢÐµÐ´Ð¿ÑĢÐ¸ÑıÑĤ Ð¸Ñı
ĠÐ¼ ÑĥÐ·
Ġen e
Ð³ÑĢ Ð°Ð´
ãģ® ãģªãģĦ
Ġc ach
ĠÑģ Ð¸Ð»ÑĮÐ½Ð¾
Ġd rzwi
Ġper mit
ĠInstitu to
ĠS ala
Ġa meric
ĠAle m
Ġ9 6
Ġtari fs
ĠM aÅĤ
U suÅĦ
ari usz
Ġtr ening
Ġç Ī
er te
ĠmÅĤ odzie
ĠrÃ©p onses
kt ury
Ġdev ra
ĠÐµ ÑģÑĤÐµÑģÑĤÐ²
ff i
Ġwy peÅĤ
Ġch á»©
e le
çĶŁ ãģ¾
Ġval ores
Ġperfec to
ĠÐ» Ð¾Ð¶
ĠÐ° Ð³ÑĢ
Ġges ehen
Ġin t
Ġde te
ĠS itu
Ġexpos ition
Ð³ Ð°Ð»
iel t
Ġpubblica to
ĠR z
ĠÑģÐ»Ð¾Ð² Ð°Ð¼
Ġsab ato
sta Äĩ
ç¶ļ ãģį
ĠD ist
de ur
Ġre le
Ġmode le
ĠN icol
ĠÐĴÐµÐ´ ÑĮ
Ð¾Ñģ Ð¸Ð¿ÐµÐ´
it ano
ĠAn ti
Ġmo gli
Ð» ÑĥÑĪ
Ð¸ÑĢÐ¾Ð² Ð°ÑĤÑĮÑģÑı
Ġtá» ©
Ġsor pr
Ġcomen zar
ãģ®å ¸
Ã©ri o
ĠN owy
r Äħ
is ant
Ð¼ Ð¾Ð½
anta ges
Ġbi ur
Ġl ic
ma tis
ĠÃ©vÃ© nement
ãģ® ãĥĳ
ĠÑģÐ°Ð¼Ð¾ÑģÑĤÐ¾ÑıÑĤÐµÐ»ÑĮ Ð½Ð¾
ĠÑģÐ°Ð¼ Ð¾
Ġb ringt
ĠK r
Ġcieka w
Ġsk ar
ĠB all
ĠÐ´ÐµÑģÑı ÑĤ
Ġad d
Ġaccor do
Ġcz war
Ġç İ
une hmen
ãģ ĩ
ãĥ¼ãĥª ãĥ³ãĤ°
ãģĮ é«ĺ
Ġconc ent
ĠN go
Ġml n
e ta
å Ķ
at um
ĠÑģÐ¾ÑģÑĤÐ¾ÑıÐ½ Ð¸Ðµ
di gt
Ġam ar
Ġalum nos
ĠJ uÅ¼
Ġkolej ne
Ġ" >
m ne
Ġrep rÃ©s
Ġgew esen
ĠAut res
Ġl un
ĠÑĥÐ¿ Ð°ÐºÐ¾Ð²
ĠÑģÐ¾ÑģÑĤÐ¾ÑıÐ½ Ð¸Ð¸
ĠM utter
rze m
Ã³ m
gn os
ĠÐ¾ÑĢÐ³Ð°Ð½Ð¸Ð· Ð°ÑĨÐ¸Ñı
ãĥ¼ãĥį ãĥĥãĥĪ
Ġhistori que
Ġoc cupa
op le
ĠTh omas
ĠwÃ¼r den
ĠC ada
ĠÐ°Ð» ÐºÐ¾Ð³
ĠF abri
ĠC ouleur
i bile
Ġutili za
ĠÑĥÐºÑĢÐ° ÑĪ
Ġlu bi
ĠÐºÐ¾Ð½ÑĤÑĢ Ð¾Ð»
Ġop ere
Ġtrans por
Ġpol it
ĠÐºÐ¾ÑĢ Ð¾ÑĤ
il er
c uro
si ve
æĻĤ ãģ¯
ãĥŃ ãĥ¼ãĥ³
ĠÃ©qui p
haus en
ĠAuÃŁer dem
tri ce
Ġv ostra
Ġfamili as
Ñ ĵ
ĠÐ´Ð¾ÐºÑĥÐ¼ ÐµÐ½ÑĤÑĭ
ll s
Ð¾Ñĩ ÐºÑĥ
ĠvÃ©hic ule
Ġesta va
Ġil oÅĽÄĩ
âĢ ķ
Ġ= =
æ°Ĺ ãģ«
ĠÑģÐ»ÑĥÑĩÐ°Ñı Ñħ
Ġh Æ°á»Łng
ig t
ĠÐĳÐµÑģ Ð¿Ð»Ð°ÑĤ
ĠÐ½ Ð¸Ð¶
Ġrice v
ãĥ¼ãĥ Ļ
ãĤīãĤĮãģ¦ ãģĦãĤĭ
ĠR em
ĠvidÃ© os
ĠEr st
und ert
Ġpiel ÄĻ
Ġre Ã§u
Ġwo jewÃ³dz
Ġprze cieÅ¼
en cie
ĠÐ¿ÐµÑĢ ÐµÑĢ
è¢ «
ÃŃs tico
Ð¶ Ð¸
ar mente
ĠEsta mos
ÐµÐº Ðµ
Ġzapa tos
Ġtras forma
Ġma qu
Ġsimple mente
Ġpodr Ã¡s
Ġest Ã¡s
Ġdes c
Ġpicco li
ä½į ç½®
Ġsp ad
Ġanim ales
ĠCh em
ĠAlle magne
illi g
ku l
ĠÐĴ Ð½
ĠÐ¸Ð¼ Ñı
Ġa zul
EN TE
Ġpresent aciÃ³n
ba ck
mm el
Ġer es
ĠLi ve
ĠP en
Ġm ost
Ġdi ario
a ger
Ðº ÑĥÑĤ
ĠZ eich
Ð¸Ð² Ð½ÑĭÐµ
ĠÐ· ÐµÐ»ÐµÐ½
Ð½Ð¸Ðº Ðµ
ĠÑĩ ÑĥÑĤÑĮ
Ġæ² ĸç¸Ħ
Ġim g
éģ ¿
Ã¡c ter
za hlen
Ġparfa itement
ĠÐ´Ð°Ð»ÑĮ Ð½ÐµÐ¹ÑĪ
Ġm orte
k rÃ¤
Ġs ÅĤy
Ñİ ÑģÑĮ
à³ į
C M
ĠH á»Ļi
ĠEncu ent
ĠÑĥÑĩ Ð¸ÑĤ
Ġse par
Ġi denti
Ġdou che
Ġvo ie
ĠÐŁÐ¾Ð´ÑĢÐ¾Ð± Ð½ÐµÐµ
ĠÐ³Ð¾ÑĢ ÑıÑĩ
to ff
ĠC R
Ġus ine
Ġaff ec
æĶ »
ĠÃ¢ m
or g
ĠGemein de
Ġin nym
los s
ĠJu lio
ĠÑģÐ¾ÑĤÑĢÑĥÐ´ Ð½Ð¸Ñĩ
ĠÑĢ ÐµÐ²
pi ra
Ð» ÑĥÐ¶
Ġd wu
Ġver ein
Ġvo ici
Ġpor ter
Ġcr isi
ti enten
Ð² ÑĭÐµ
Ġop tions
ĠZ ach
Ġtwa rzy
Ġpom iÄĻdzy
4 3
ga te
åĸ¶ æ¥Ń
Ġãĥģ ãĥ£
Ġpa iement
Ġla isse
Ġpremi Ã¨res
???? ????
Ðļ Ðĺ
Ġt Ã£o
Ġassol uta
via mente
ÑĨ Ð²ÐµÑĤ
ie fer
ĠGran ada
Ġâ Ĥ
ma le
Ġpr ensa
ĠÐ²ÐµÐ´ ÑĥÑī
Ġh ub
u mi
Ġl ujo
Ġde cor
ĠC ulo
ĠM undial
Ġãĥŀ ãĤ¤
Ġãģ¨ è¨Ģ
Þ° Þ
ĠÄĳ Ã¢u
ĠMÃ¤ dchen
ĠL Ã¶
Ġsta bili
ãĤ¢ ãĤ¯ãĤ»
ĠdÃ©ta ils
ĠÑĩ Ð¸ÑĤÐ°ÑĤÑĮ
ĠÐŁÑĢ Ð¸Ñĩ
ĠV ari
Ġchi ff
Ġsecon d
Ã© t
ĠL AS
Ġa co
Ġpart out
° ãĤĬ
ĠAmi gos
ta urante
ver stÃ¤n
Ð½Ð°Ñĩ Ð°Ð»Ð°
Ġst essi
ĠÐ·Ð² ÐµÐ·Ð´
ÐµÑĢ Ð½Ð¾Ðµ
ĠÐĹ Ð°Ð²
ĠÐºÑĢ Ð°Ñı
n osz
schaft s
Ġper dita
Ġincor por
Ġoc cu
f ano
Ġregion ale
Ġfam iglie
ĠSer ie
Ð¸ÑģÑĤ ÐµÐ¼Ñĥ
Ġf im
åĦ Ħ
able mente
ĠdÃ¼r fen
ka zy
Ġpowie trz
ĠNach richten
ĠmÃ© moire
Ð¸Ð½ ÐºÐ°
ÐµÑĢÐ¸Ð½ Ð±ÑĥÑĢÐ³
Ð¡Ð¡ Ðł
ĠÐĸ ÐµÐ»
Ġf ou
Ġcons ci
ĠÃŃ t
dan ken
Ġsele zion
ĩ Ĵ
ãģĶãģĸ ãģĦãģ¾ãģĹãģŁ
æ± ł
Ġæ £
ĠPho tos
ĠM essage
Ð°ÑĤÐ¾ÑĢ Ð¾Ð²
ĠÐºÑĢÑĥÐ³ Ð»
Ġs omme
ĠÐ´ Ð°ÐµÑĤ
is a
ãģ§ãģį ãģŁ
Ġra ff
Ã¡ veis
Ġtrabaj os
ĠTe x
Ð¾Ð³ Ð¸
Ġk lub
Ġæ ¡
ãĥŃ ãĥĥãĤ¯
ãĥĨãĤ£ ãĥ³ãĤ°
zei gt
Ġcap elli
Ġcin que
Ġè¶ ħ
ãģ¯ ãģĤãĤĬãģ¾ãģĽãĤĵ
ĠK rie
Ġcateg orÃŃa
ÐµÑī ÐµÐ½Ð¸Ñı
ĠÐļÐ¾Ð¼Ð¿ Ð°Ð½Ð¸Ñı
ĠrÃ© uss
Ġprop res
Ġcomb at
ĠÐ¸Ð³ ÑĢÑĥ
ce u
Ġch aleur
ĠÐ¿Ð¾Ð¿ ÑĭÑĤ
ÄĻ dzie
ãĤĵãģ§ãģĻ ãģĳãģ©
ĠæĢ Ŀ
2 æĹ¥
å§ ¿
ĠGu a
ĠT ru
ta dor
ĠÐ¾Ð´ Ð½Ñĥ
Ġoc chi
Ã©r ences
Ġcom erci
Ã¨ ces
Ġass ure
Ġman iera
Ġæ® ĭ
Ġo to
è¨Ń ç½®
ĠÐ²Ð¾Ð·Ð² ÑĢÐ°Ñī
Ġgratu ito
s tar
ĠY ork
Ġm ou
ĠA lla
rz aÅĤ
ãģ©ãģĨ ãģĭ
ĠM ON
Ġme ubles
Ġ8 3
Ġloca ux
Ð¼ÐµÐ½ÑĤ Ð°ÑĢÐ¸ÐµÐ²
Ġpre p
ĠÐ¿ÑĢÐµÐ´Ð»Ð¾Ð¶ ÐµÐ½Ð¸Ñı
ces oria
Ġpozy cje
éĢģ ãĤĬ
ĠÐ¿Ð¾Ð¿ Ð°Ð´
Ġlu dz
kow ym
ĠB R
c ino
roy eur
ĠÐ·Ð°ÐºÐ°Ð· Ð°ÑĤÑĮ
ĠÑħÐ¾Ñĩ Ñĥ
ĠÑģÐ¿ Ð°ÑģÐ¸Ð±Ð¾
áºŃ m
Ð¾ÑĤ Ð²Ð¾ÑĢ
no ch
Ġpro pozy
O d
Ġk oÅĽci
Ġmes a
Ġsimi li
åĪĨ é¡ŀ
Ġtrans f
ÑĨÐ¸Ð¾Ð½ Ð½Ð¾Ð¹
ĠÐ¿ÑĢÐµÐ·Ð¸Ð´ ÐµÐ½ÑĤ
ÑĬ ÐµÐºÑĤ
ÐĶ ÐĲ
ĠprÃ©sent er
cyj nym
Ġèħ ķæĻĤè¨Ī
Ġæĸ° åĵģ
Ġex terior
åĪ¤ æĸŃ
Ġtiemp os
el ho
ĠMart ÃŃn
em as
ĠEnt wick
ĠÑĥÑģÑĤÑĢÐ¾Ð¹ ÑģÑĤÐ²Ð°
Ġ7 3
Ã©g Ã©
ĠScra bble
ĠS ous
ĠÐ¿ÑĢÐ¸ Ð±Ð¾ÑĢ
wnÄħ trz
» å®ļ
Ġæ¶ Ī
Ġvuel ta
ĠÐľ Ð¸ÑĢ
Ġprog etti
ĠGi useppe
tu to
klÃ¤r ung
Ð´ Ñĥ
Ħ ª
Ġcu á»ĳi
Ã£ os
Ġbudy nku
Ġp ill
Ġdirec tamente
ĠÑĤÐµÐ» Ð°
ĠQu al
ĠM onde
ĠChar les
Ġa it
rzysz to
Ġklu cz
çĿ £
ĠÑĢÐµÐ°Ð»Ð¸Ð· Ð°ÑĨÐ¸Ð¸
ĠÐł Ð¾Ð´
Ġk na
f Ã¤
enden ti
Ġza czÄĻ
ãĥ¡ ãĥ¼ãĤ«ãĥ¼
cu le
ĠÐĲ ÐºÑĤ
Ð»ÐµÐ½ Ð½ÑĭÐ¹
Ġli bero
Ġviv ere
Ġal cal
Ġac tri
li minar
åĪ ¸
Ġviol encia
Ġllam ado
Ġpo tr
ÑģÑĤÐ² ÑĥÐµÑĤ
sta hl
m lung
Ġsupp orto
ĠrÃ©alis ation
Ġstra te
Ġus tal
Ġbud get
od ni
Ġfunktion iert
is l
ĠNicol as
ĠÐ¾Ð±ÑıÐ· Ð°Ð½
ĠChr is
ĠÑĤÐµÐ»ÐµÐ² Ð¸Ð·
ill y
b ec
Ġrad io
ĠÑģÑĥÐ´ ÐµÐ±
âĢ Ķ
ãĥĥãĤ« ãĥ¼
è¿½ åĬł
Ġexemp lo
Ġb iá»ĥu
ĠLie b
Ġfil les
Ġb ientÃ´t
l ant
ech as
ĠvÃŃ c
ĠÃ©v ent
ĠÐ¿Ð°Ð¼ÑıÑĤ Ð¸
Ġord in
ãĤ½ ãĥķãĥĪ
te llen
ĠÐ¿ ÑıÑĤÑĮ
âĸ ł
ç¨® é¡ŀ
Ġent Ã£o
Ġv ÃŃa
Ġa un
Ġjo li
Ġjus tice
Ð¸ÑģÑĤ Ñĭ
Ġtec nico
Ġprofession ale
t ano
å°Ĥ çĶ¨
ks am
Ġroz m
ĠPo le
ĠV AT
Ġod kry
ĠRÃ©s ul
ĠJe ux
ãģĦãģ¦ ãĤĤ
ç¾İ åĳ³
ç± į
Ġgu a
Ġdifer ente
ĠhÃ¤uf ig
Ð¸ÑĢÐ¾Ð²Ð°Ð½ Ð½ÑĭÑħ
ĠÐ¿ÑĢÐ¾ÑĨÐµÑģÑģ Ðµ
ĠÐ¿ÐµÑĢÐµÐ² Ð¾Ð·
ãĥĪ ãĥĥãĥĹ
ĠA st
Ġv entas
Ġproces os
iss ante
ÐµÑģÑĤ Ð¸Ð²
ĠDesn udas
Ġtam poco
ĠEsp ana
Ġpalab ra
Ġver a
èĪ ŀ
Ġtá»ķ ng
ÐµÐ² Ð¾Ð³Ð¾
Ð´Ð° ÑİÑĤ
Ġsicura mente
ĠLe er
Ġde fin
Ġr ub
ĠMont rÃ©al
u tion
F A
ĠJ ego
Ð¾Ñģ ÑĢÐµÐ´
èį ī
Ġgarant ie
w ork
ãĤ· ãĥ¥
gen za
um ie
Ġcre aciÃ³n
ĠF ue
ãģĭ ãģ£ãģ¦
ĠÄĳ áº¡t
Ġfun ciones
ĠÐĳ Ð°Ð»
Ġrefer encia
Ġver rÃł
m lich
Ġnatur ales
ÐĽ Ðŀ
ĠdÃ© fin
ÐºÐ¾Ð² Ð°
ĠÑģÑĦ ÐµÑĢÐµ
ĠB E
Ġo vvero
c enie
ĠÐ¼Ð½Ð¾Ð¶ ÐµÑģÑĤÐ²Ð¾
ol ie
Ġwy ja
ĠC O
ãģªãģı ãģ¦ãĤĤ
ir er
Ġb all
Ġt elle
A n
u de
Ġ( -
ÅĤ ki
ĠS aison
ãĤĤãģ® ãģĮ
rzÄĻ d
Ġsou li
ĠrÃ©alis Ã©
ĠdÃ©velo pper
ãģĤ ãģ¾ãĤĬ
ar nos
Ġbeau tÃ©
Ġex tranj
Ġnecess itÃł
Ġreg ul
å£ Ĭ
Æ ¯
á» ³
ĠÐŁ Ð¾Ð½
ĠÐĿ Ð°ÑĤ
ĠÐ¸Ð¼ ÐµÐ½Ð¸
Ġconten uti
ĠV este
Ġ200 2
Ġcho ciaÅ¼
ĠKre dit
ĠÐ¡ÑĤ Ð°ÑĢ
ala v
ĠKa ffe
Ġdi c
Ġtec nica
ĠA gen
use o
g are
OU S
Ġtechn ologie
Ġpowin no
ĠA quÃŃ
ĠhÃ¶ ch
ãĤ· ãĥ¼
Ġt ambi
sa ciÃ³n
Ð²ÐµÑģÑĤ Ð¸
ĠÐĵ Ð¾ÑĢÐ¾Ð´
at Ã³w
ĠÐ¢ Ñĭ
Ð¹ ÑĤÐµ
Ġgi ardino
Ġsup uesto
Ġmodi fier
Ã¤t zen
ĠÐ³ ÐµÑĢÐ¾
ÐµÑĢ Ñĥ
ĠPo z
Ġdesa p
ĠSec ondo
Ġpien iÄħ
çĸ ĳ
Ġcontrar io
Ġb anda
Ġme cz
ĠÑģÐ» Ð°Ð±
Ġmak e
ino is
9 2
ĠcomplÃ¨ te
5 8
Ġdeutsch e
ĠÃ©po ca
Ġory gin
Ġprin cipe
Ġno twendi
ĠÐ¿ÐµÑĢÐ² Ð¾Ð³Ð¾
se m
l ak
g ruppe
åº ķ
ĠÑĢ ÐµÐ¿
Ġg á»ĵm
Ġauto mÃ¡tica
sch lÃ¤
Ġpom aga
ĠÐľ Ð¾ÑĢ
gi as
ci das
ich ert
Ġ9 3
Ġsta ra
c Ã³n
na t
ĠÑģ Ð°Ñħ
ĠÐ½Ð¾Ð² Ð¾Ð¹
ĠÐ¸Ð³ ÑĢÑĥÑĪ
Ġv entes
Ð°Ñİ ÑģÑĮ
Ġquel qu
Ð°Ð· Ð°
Ġcomp lÃ©ment
que z
ĠÃ© t
ĠÐŁ Ð°Ð²
ÑĢÐ¾ Ð¸Ð´
å¤§ åĪĩ
Ġk w
ãģĶ ãģ¨
Ġau mento
rit te
Ġli Ã©s
ĠCon f
ĠC C
ĠEn tr
ĠG ente
ĠÃ©ta pe
ĠF und
ĠP M
Ġbus can
ĠV all
ĠP is
ï¼ ¾
ĠÐ· Ð¾Ð»Ð¾ÑĤ
ĠÐºÐ¾Ð» Ð»ÐµÐºÑĤ
Ð¼ÐµÑĢ ÑĩÐµÑģÐº
Ġæ ¤ľ
ĠS uisse
ĠPro v
ĠãģĿ ãģ®å¾Į
Ġwar um
ĠÑģÑħ ÐµÐ¼
Ġm Ã³j
ĠPon ad
es tion
ve d
Ġaff id
Ġposs iamo
pon di
ĠMar s
Ã© tique
va cy
an cio
Ġnivel es
Ġmateria le
Ġjo go
s ym
ĠÐĹ ÐµÐ¼
ãģ» ãģĹãģĦ
æŀ Ĺ
ĠMur cia
ut ri
op y
Ġpo cos
iss es
J v
ĠMoÅ¼ na
Ġre chts
ĠÐ¿ Ð°Ð»ÑĮ
cul os
Ġele menti
Z T
Ġgodzin y
ãģªãģ© ãĤĴ
ĠHe ute
Ġ1 px
ĠãģĿãģĨ ãģĦãģĨ
ãģł ãģ¨æĢĿãģĦãģ¾ãģĻ
Ġtrouv erez
Ġfam illes
ti enne
cula ire
Ġãģł ãģĭãĤī
Ġå¤ ı
ĠP ues
ĠÃ©du cation
Ġamp lia
ĠbÄĻdzie my
rÃ³ ciÄĩ
ĠDaz u
ĠÐ´Ð¾ÑģÑĤÐ°Ð² ÐºÐ¾Ð¹
ĠÐ²Ðº Ð»Ð°Ð´
ÑĢÐ¾Ð¿ ÐµÐ¹
Ġcaratter i
ĠdokÅĤad nie
N H
Þ¨ Þ
ĠÄĳo Ãłn
Ã¶ st
åºĹ èĪĹ
bi as
Ġrec ette
Ġmar cha
ĠFran cia
Ġado re
g re
ãĥªãĤ¸ ãĥĬãĥ«
ãĤ¦ ãĥ³ãĥī
ĠGr oupe
Ġchcia ÅĤ
ĠA vant
wer ten
sa c
4 2
Ġdo ll
Z m
Ġza gro
ver ein
ger Ã¤te
Ġal gu
å·¥ äºĭ
èĩ Ń
Ġde mi
æİ¢ ãģĹ
ãģ§ãģ¯ ãģĤãĤĬãģ¾ãģĽãĤĵ
Ġatten dre
Ð¾Ðº Ðµ
ĠÃŃ n
Ġfre und
Ġein igen
ĠAs soci
onn Ã©es
mb ro
iel o
Ð¸ÑĤÐµÐ»ÑĮ Ð½Ð°Ñı
Ð² Ð¸Ð³
Ġprze ch
Ġg Ã¡i
let tes
is h
Ġngu á»ĵn
ĠÐºÐ¾Ð½Ðº ÑĥÑĢ
Ġliv ro
owa ÅĦ
ãģ« æĿ¥
m adz
ĠÐļ Ð°Ð½
IN O
Ġsing le
Ġpre ce
IN T
Ġp au
Ġåı ¯
Ġsa Ãºde
blio te
ĠãĤĤ ãģ£ãģ¨
sz eit
Ġjedno czeÅĽnie
å¥ ĳç´Ħ
ĠÐ´Ð¾ÑĢ Ð¾Ð¶
Ġit p
ĠãĤ¯ ãĥª
U NG
ĠW Ã¤hrend
Ġu tente
ĠdÃ©velo pp
cidad e
ãģĦãģ¾ãģĹãģŁ ãģĮ
Ġp si
Ġmas aje
Ġeconom ÃŃa
ĠÑĩ ÑĥÐ´
Ġtrova to
g ety
ĠÐĲ Ð¼
czÄĻÅĽcie j
ĠÐ´Ð¾Ð» Ð³Ð¾
Ġf atti
ãģ® ãģŁãĤģãģ«
Ġapp elle
ĠRÃ© g
o ks
Ġpri vÃ©e
Ġt áº£i
ĠÐ§ Ð¸ÑĤÐ°ÑĤÑĮ
ĠÐ¢Ð°Ðº Ð¸Ð¼
Ġce pendant
Ġn esta
Ġsimp les
Ġcon ex
Ñģ Ñĭ
ĠS cu
Ġng Ãłnh
ĠM ostra
ĠScar pa
ĠIs titu
Ġpri me
Ð¾Ð² ÑĥÑİ
une dÃ¬
Ð°Ð¹ÑĤ ÐµÑģÑĮ
L 2
Ġzd rowia
ĠB onne
ero p
Ġmie i
ad Ã©
Ġspe dizione
Ġdecis o
Ġåıİ ç´į
Ġou tre
è± Ĩ
Ġmais ons
å¯¾ è±¡
Ġinter ro
ĠA jouter
Ġsi x
ĠAus bildung
auto maten
Ġge d
ĠSch lag
ĠMas ch
las s
Ġme ist
Ġpr Ãª
ĠwyÅĤÄħ cznie
Ġgeei gnet
Ġbedeut et
s as
( ^
ä¿Ŀ èŃ·
Ġple ine
ĠÐ¿ÑĢÐ¸Ñĩ Ð¸Ð½
pu bblica
Ġfor mes
Ð¸Ðº Ð¾Ð¼
an ismo
ĠCar te
Ð¸ Ð°Ð½
Ġrep rez
ĠMar c
Ġ6 00
Ġal ko
ç´ Ķ
Ġlu áºŃn
IN I
Ġpicc ola
ĠO l
owie c
Ð°ÑĤ Ð¾Ð¼
ãģ®åĽ ½
ĠÑĥÑĩ Ð°ÑģÑĤÐ²
Ġsur pr
Ġfa ite
Ġzas t
ĠÑģ Ð¸ÑģÑĤÐµÐ¼Ñĥ
sz cz
Å ĥ
bier a
Ġes ca
Ġ\":\" ^
}, {\"
sz k
ĠÑĩÐµÑĢ Ð½ÑĭÐ¹
ĠÐ¿Ð¾ÑģÐ»ÐµÐ´ Ð½Ð¸Ðµ
r ych
Ġrin no
âĢ¦ ]
Ġi po
h as
Ġten iendo
Ġsh ow
Ġmar tes
Ġaut on
ĠÄĲ Ã´ng
Ð°ÑĤÐµÐ»ÑĮ Ð½ÑĭÐ¹
al tet
ĠÐ·Ð½ Ð°ÑĤÑĮ
Ġraggiung ere
Ġdistin tos
Ġth áº§n
Ã¨ che
P ro
Ġrais ons
Ġn ouvel
ĠÐ±Ð°Ð½ Ðº
åŃĲ ä¾Ľ
er ung
ĠMod Ã¨le
fÃ¼ hren
ĠÑĪÐºÐ¾Ð» Ñĭ
end as
Ġzoba czyÄĩ
Ġen ca
we ils
ĠÑħ Ð¾Ð´Ðµ
ĠF echa
be x
Ġlleg Ã³
Ġgen ug
Ġeconom ico
mFt ZSI6
cz noÅĽÄĩ
ãģķ ãģ«
ont Ã©
ĠÑĩÐ°Ñģ Ð°
Ġab and
Ġpos er
om et
Ġemple o
ĠÐºÐ½Ð¸Ð³ Ñĥ
ĠF aire
ãģĲ ãĤīãģĦ
Ġ9 8
äºº éĸĵ
Ġf Ãªte
ĠM ic
ĠA B
ãģ®ç ¾
ãģ§ãģį ãģ¾ãģĽãĤĵ
Ġadel ante
ĠOp tima
ĠÑĦ ÑĢÐ°Ð½
Ġfun zione
Ġc áº¡nh
ĠhÃ©s itez
ĠPue de
Ġav anti
os c
Ġsuper iore
å¦ »
Ġãĥ ł
Ġa jou
Ãį A
Ġf rases
Ġla it
r ador
Ã³ sito
Ġexplo itation
ĠMen sch
ãĤĴ å¾Ĺ
ĠdÃ© di
C h
Ġent ender
ĠÑĤÐµÑħ Ð½Ð¸ÐºÐ¸
ĠÑĢÐ°Ð·Ð»Ð¸Ñĩ Ð½ÑĭÐµ
Ġr á»Ļng
Ġins gesamt
Ġfr Ã¼
Ġass istenza
Ġpoziom ie
ĠIn cont
Ġfa vore
ĠRob e
ĠM me
f icas
Ġe mail
Ġterm ini
Ġob ja
Ġdam skie
ec er
Ġzale Å¼
ĠBes tell
ĠS icht
ĠÐºÐ°ÑĢÑĤ Ñĥ
ä¼ģ çĶ»
ĠÑģÐ¾Ð¾Ð±Ñī Ð°ÐµÑĤ
ĠÐ·Ð°Ñī Ð¸Ñī
ĠI talie
Ġopp ortun
ĠãĤªãĥ³ ãĥ©ãĤ¤ãĥ³
Ð± Ð¸
Ġpas so
ĠHand y
sch au
Ġdiff icol
éĩĳ é¡į
åĬ Ł
Ã¼nst ler
U rl
Ġp Ã©r
ĠÐ²ÐµÑĢ Ð¾
v et
c Ã©s
Ġr as
Ġpri vÃ©
ten za
Ġavre bbe
Ġjaz dy
Ġchois i
ĠS telle
Ġma ga
b3 V
Ġch cesz
ãĤĴè¡Į ãģĨ
Ġç Ł³
ll ten
ge Ar
geAr tis
ĠÐŀÑĢ Ð³Ð°Ð½
Ġch Æ°Æ¡ng
b sp
ĠÐł Òĳ
ĠÐ¿ÑĢÐ¸Ð¼ÐµÐ½ ÐµÐ½Ð¸Ñı
Ġè Į
li m
æģ ¯
Ġcons ejos
Ġca fÃ©
ĠÐ½Ðµ Ð¸Ð·
lla to
° åĽ²
Ġb ande
g ri
F R
ĠÐ·Ð´Ð¾ÑĢÐ¾Ð² ÑĮÑı
0 1
Ġdess in
Ġcour ant
Ġocze ki
æİ ¨
ci lia
EN TI
G I
tica mente
w no
Ġanni versaire
w ne
ĠP unkte
ĠÐ´Ð°Ð½ Ð½ÑĭÐ¼
ãģĭ ãģ¨
ĠI f
Ġre par
Ġpor table
Ð½ Ð¾Ð´Ð°ÑĢ
ĠÑĥÐ¿ Ð¾ÑĤÑĢÐµÐ±
Ġalle z
Ġinver siÃ³n
Ġestre llas
ĠB elle
æİ² è¼ī
na ch
T T
Ġregar der
Ġst anno
ĠãĤ¦ ãĤ©
Ġd ownload
ĠW ahr
o ÅĤa
çµĤ äºĨ
Ġcom peti
ĠCo Ã±o
z an
Ġu043 e
ĠcinÃ© ma
ĠiP hone
ãģ®ç ·
Ð¸ ÐµÐ½ÑĤ
ĠBen utz
Ġwers ji
Ġmem oria
Ġpole ga
Ġnego cios
tr itt
ĠÐļ Ð²
ĠÐ¿Ð¾Ñħ Ð¾Ð¶
ti endo
Ġin da
ä¹Ĺ ãĤĬ
ĠUS B
ĠÐ½Ð°Ñĩ Ð°Ð»Ðµ
Ġpron to
Ã¤nder t
Ġdá»¥ c
t ler
ken nen
Ġin nego
Ġcono cido
ĠÐ´ÐµÑıÑĤÐµÐ»ÑĮ Ð½Ð¾ÑģÑĤÑĮ
Ð°ÑĤÐµÐ»ÑĮ Ð½Ð¾Ð¹
Ġ() {
gie m
Ð°Ð¼ ÐµÐ½ÑĤ
ĠP uis
Ġur ba
ĠmÃ©th ode
Ġmessa ges
ĠSal z
ĠÑģÐ¸ÑĤÑĥ Ð°ÑĨÐ¸Ñı
Ġza trzym
Ġenseigne ment
Ġjet pack
Ġ ãģĦãģĦ
å¤ ¢
Ġrepres enta
ĠB in
Ã¤ hl
ĠÐ´Ð¾Ð² ÐµÑĢ
Ġris par
ĠÐ²Ð°Ð» ÑİÑĤ
ĠÐŁ Ð¾Ð¿
ĠF ab
ĠCh ies
ĠnÃ³ s
Ġmar co
P A
Ġ[ âĢ¦]
ĠÐ² Ð²ÐµÐ´
ĠBor sa
Ã©r itÃ©
Ġs istemi
Ġamp io
ron y
v aux
Ġxu á»ĳng
ann es
Ġherrami entas
6 8
Ġpay er
Ġobjec tifs
Ð¾Ð² Ð¸Ñĩ
Ð°Ð½ Ð½Ð¾Ð¹
ĠÐ± Ð¸Ð±Ð»Ð¸Ð¾ÑĤ
res e
is tico
ãĤĴ çĽ®
Ð¾Ðº Ð¾Ð¼
ĠdÃ©couver te
k enn
Ġcr ia
Ġtr ue
ãĤ¢ ãĥ¼
leist ungen
Ġè¡ ¨
ĠChr ist
ĠÐ¿Ð¾ÑĤ ÐµÐ½
Ġener gii
pp ing
ĠçĽ¸ åł´
ç¸ ®
Ġt ellement
ĠÐ¾Ð±ÑĥÑĩ ÐµÐ½Ð¸Ñı
Ġpubb lici
Ġsi gna
ĠR h
Ġcor r
Ġå¾ ĴæŃ©
åĢ «
ĠCom par
ĠAy untamiento
ãĤ³ ãĥ¼ãĥī
ãģķãĤĮ ãģ¾ãģĹãģŁ
Ġvis it
sp l
ie fe
ta bles
4 9
Ã¼s s
itz er
Ġ8 00
ÐµÐºÑĤ Ð¾ÑĢÐ°
ĠÐ¿ÑĢÐµÐ´Ð¿ Ð¾Ñĩ
tet e
ÅĤ adzie
Ð°ÑİÑī Ð¸Ð¼
ĠÑĨÐµÐ½ÑĤ ÑĢÐ°
ĠS iamo
con i
Ġrit ro
ĠR us
Ġmis es
ĠÐ¸Ð·Ð´ÐµÐ» Ð¸Ñı
ĠD 0
Ġarri vo
b H
CJ A
ĠcaÅĤ ej
ĠUm welt
Ġs etzen
ĠÑĢÑĭÐ½ ÐºÐ°
ĠÐ¿ ÑĥÑģÑĤ
ĠDaten schutz
rank heit
Ġb az
Ġliber tÃ©
ĠCha que
Ġ9 78
Ġv aleurs
Ġconfi anza
ÑĬ ÑıÐ²
Ġn este
Ġele ctri
ĠZ es
ĠT á»ķng
ist Ãªncia
Ġfi gli
Ġde pos
ÅĽ mie
áº µ
ĠCali ente
i va
Ð¾ÑĢ Ð¸Ð¹
z jÄĻ
czy ÅĤa
fang en
ĠÐŀ ÑģÑĤ
ĠprÃ¤ sen
Ġartis an
Ġpre Ã§o
Ġservi Ã§o
ĠTy pe
ĠP raw
alidad es
Ġgew orden
ti mes
ĠÐ¿Ð¾Ð´ ÑĢÐ°Ð·
Ġsa int
Ġw Äħ
Ġba ins
Ġb ri
Ġlit tÃ©ra
Ġâĺ ı
ĠwspÃ³ÅĤpra cy
Ġpl ane
lieÃŁ lich
ĠP ic
ĠÐ¿Ð» Ð¸ÑĤ
ĠÐºÐ¾Ñģ Ð¼ÐµÑĤ
Ġca ta
ÐµÐ´ ÑĢ
ĠÑħ Ð¾Ð»
ĠNa zionale
v amo
Ġod legÅĤ
u ge
ĠM Ãªme
ĠÐºÐ¾Ð¼Ð¿ Ð¾Ð½
ĠÐ¶ÐµÐ½Ñī Ð¸Ð½Ñĭ
ĠDerni Ã¨re
IN A
ĠÐ´ÑĢÑĥÐ· ÑĮÑı
ĠtempÃ©ra ture
ĠA bbiamo
Ġdimen sioni
Ġouv rir
Ġin tel
ĠW olf
ĠAd resse
ĠX em
ĠTh á»§
wi esen
kra ft
Ð¾Ð· Ñĭ
ãģª ãģ®
Ġè²© å£²
ãĥĨ ãĥ¼ãĥĸãĥ«
Ġauto mo
ĠNo v
ãģĦ åĲĪãĤıãģĽ
ĠCh á»§
ãĤ¦ ãĤ£
ĠÑĢÐ°Ð· Ð½ÑĭÐµ
Ġalgum as
Ġç¶ļãģį ãĤĴèªŃãĤĢ
åı¤ å±ĭ
ãĥ¼ãĥĢ ãĥ¼
ĠãĥĻ ãĥĪãĥĬãĥł
æīĭ ãģ«
beding ungen
Ġkredy t
Ã³ ÅĤy
ĠÃ© mo
Ġ\" ,\"
ck ich
ĠåĬ ł
æĮ Ļ
ĠT á»«
Ġh ow
ĠF ak
ĠÐľ ÐµÐ½
ĠÐĳ Ð¾ÑĢ
zza te
Ġvaluta zione
ĠÐ±Ð»Ð¸Ð¶ Ð°Ð¹
ĠA pri
Ġgar der
p rÃ©
g on
7 2
ĠI ma
ti llo
ĠÑģÐµÐ¼ ÑĮÐ¸
Ġna issance
Ġpra kt
ĠNg Ãły
per a
ist ente
Ġp one
Ġjug adores
ĠÐ¾ÑĤ ÑĩÐµÑĤ
Ð¡ ÐŁ
ĠÐĲÐ² ÑĤÐ¾Ð¼
Ġn bsp
Ñı ÑĢ
ĠP ad
D AD
ĠtÃ©c nica
Ġcompromis o
Ġder riÃ¨re
ĠMein ung
ĠÐ¸ÑģÐ¿Ð¾Ð»ÑĮÐ· ÑĥÐµÑĤÑģÑı
P R
Ġcam a
ĠÐ´Ð¾ÑģÑĤÐ°Ð² ÐºÐ°
ĠMona te
ĠnÃ©ces saires
ĠÑį Ð¼Ð¾
Ġadministra tion
cor si
ĠPrÃ©s ident
ĠOff i
ĠF ait
èħ ¹
Ġx á»Ń
Ġcar Ã¡cter
Ġpotr Ãł
ãģĮ åħ¥
ĠÑĤÑĢÐµÐ± ÑĥÐµÑĤÑģÑı
ĠS en
ĠÃ©c r
Ġpl antas
ä¸Ģ åº¦
masch ine
rie f
ĠG I
t ino
Ġsta ge
ãģ®æ ĥħåł±
ĠÐł ÐµÐ·
Ġpar am
ÑĢ ÐµÑģÑģ
Ġw obec
Ġch ien
ĠãĤ· ãĥ«
ãģ§ è¦ĭ
Ġapplica tions
Ã© der
ak et
Ġerfolg reich
Ġpia tta
ĠW ort
ç« ł
Ġt Æ°á»Łng
Ġparti ta
ãģ¨ãĤĤ ãģ«
Ġpe ople
ĠÐ¸ÑģÑĤ Ð¾ÑĢÐ¸Ñı
Ġse pt
Î ±
ĠpeÅĤ ni
ãĤĤãģ® ãģ¯
ĠNa tale
ten do
ia li
ī å¼·
ĠE so
Ð¾Ð³ Ð¾Ð´
Ġri fi
tow ym
Ġé¦ Ļ
ĠCub a
Ġeben so
Ġen tier
åī¤ å¸«
ãģ®å Ł
ĠÐ ©
ĠÑĢ ÑĥÐ»
ĠÐŁ Ð¾Ð±
ĠmieszkaÅĦ cÃ³w
ĠPr in
ĠÐ½Ð°Ð·Ð² Ð°Ð½Ð¸Ðµ
ĠPa ese
Ã¡n do
Ġpaci entes
Ġbe vor
Ġkonta kt
ĠcÃ© lÃ¨
Ġappr endre
Ġal li
Ã© nie
Ð¡Ð ĥ
ĠÐ³Ð»Ð°Ð² Ð½Ð¾Ðµ
ĠÐ±Ð¾Ð»ÑĮÑĪ Ð¾Ðµ
Ġcha p
Ġæķ Ļ
Ãł u
ur al
Ð¾ÑĤ Ðµ
t Ã³n
Ġb ÅĤ
ni cze
ĠÑģÐµÐº ÑĢÐµÑĤ
Ġperfec ta
Ġiden tific
ĠÐ¾ÑĤÐ½Ð¾ÑĪ ÐµÐ½Ð¸Ð¸
Ġéģ ¸
kow any
ĠCha tear
Ġac to
Ġapp ara
Ġma est
lÃ© m
ĠÃ©ta bli
rÃŃ guez
mÃ¡ tico
Ð¸ Ð¾
Ġinter ven
å¿ Ĺ
Ġdi x
ãģ®åľ °
Ġbi blio
Ġali mentation
p in
Ã¤u de
ĠÑħÐ¾ÑĤ Ð¸ÑĤÐµ
Ġpoz woli
Ġznaj dzie
Ġmo tor
Ġcz emu
ĠCong reso
Ġeffectu er
ĠÑĤÐµÐ¼ Ðµ
ĠK siÄħÅ¼
bi es
ĠWo jewÃ³dz
Ġpost anowi
i as
Ġanci enne
Ġhab ÃŃan
ĠÐĴÐ¸Ð´Ðµ Ð¾
ĠEs pagne
Ð¾ÑģÑĤÑĮ Ñİ
ĠG Ã³
ĠBor deaux
Ġins besondere
Ġnie wiel
ĠAl pes
7 1
ĠK rzyszto
p li
YW1l Ijoi
Ġuzy sk
ĠUnterstÃ¼tz ung
Ð»Ð¸ Ðº
ĠÑģ Ð¾Ð¶
Ġæ´ Ĺ
Ġå®Ł éļĽ
ĠE is
ĠtÃ©lÃ© charge
Ġtari f
ĠÐ£ÐºÑĢÐ° Ð¸Ð½Ð°
ĠÑįÐº ÑģÐº
Ġpowin na
ĠÐĲÑĢ Ñħ
ĠTor re
Ġvia jes
t ania
ÐĴ Ðŀ
Ġfran ces
ĠDeutsch en
Ġde ver
Ġl ud
da te
Ġper dre
Ġer ne
ĠãĤ¹ãĥ¼ãĥĳ ãĥ¼
Ð¿Ð» Ð°Ñĩ
ÑģÑĤÐ²ÐµÐ½ Ð½Ð¾Ð³Ð¾
Ð¸ÑĢÐ¾Ð² ÐºÐ°
ç© ´
pr Ã³
ĠÐ¿Ð¾ÑĢ Ð°Ð¶
ĠE del
ĠBes onder
ĠA lÃ©m
Ġãĥ´ ãĤ£
ges etz
Ġfonction ne
Ġcommun es
ĠBo ttes
ĠTh Ã©
Ñİ Ñĩ
ĠÑģÑĥÐ¼ Ð¼Ñĥ
ĠÑģÐ¾Ð± Ð»ÑİÐ´
in tes
ck el
Ġmo tivo
id ÅĤ
ĠÐ² Ð¾Ð²
ĠãĤ¸ ãĤ§
Ġth rou
ĠInd ustrie
ĠnastÄĻp nie
ĠÐ£ ÑģÐ»
Ġni mi
Ġ/ ">
Ġgan zen
di ti
Ġni ente
tta re
P ar
çĻº éĢģ
ãģĭãĤī ãĤĤ
Ġrespons abilitÃ©
Ġå ¦
å£² åį´
Ðµ Ð¸
ta il
ãĥĥ ãĤ±
Ġretr ouve
ãĥ¼ãĤ ¬
Ġer reur
aria t
Ġch ans
ĠdostÄĻp ne
ĠÐ·Ð°Ð¿ ÑĢ
º éºĹ
000 åĨĨ
Ġï¼ Ĳ
éģ Ĭ
ĠdÆ°á» ¡ng
Ġappro che
ĠSch o
ĠÐ¿ÐµÑĢ ÐµÑģÑĤ
Ġv id
Ġso ggetti
ãģĤãĤĬãģ¾ãģĻ ãģĮ
ãģ£ãģ¦ ãģĬ
Ġvis iter
Ġob st
ĠÐ½Ð°Ð»Ð¸Ñĩ Ð¸Ðµ
ĠdiffÃ©r ence
ĠÐ¸Ð·Ð²ÐµÑģÑĤ Ð½Ð¾
Ġpol skich
ĠgÃ©nÃ©ra lement
Ġno c
ĠåĲ Ī
AN S
ĠÃ©n or
Ġph Ã¹
ĠPra xis
Ġèª °
Ġ" );
ĠO st
ĠÐ½ Ð¸Ð¼Ð¸
esso re
ç¾ ¤
Ġrice vere
Ã¶ff net
ĠP y
Ġro y
Ġri du
Ġi eri
Ġgiov ane
s ei
ĠÐ²ÑĢÐµÐ¼ ÐµÐ½
Ġo ggetto
li za
Ġmiesz kania
ta ment
Ġg ame
Ġcent rale
X B
Ġpyt ania
illi r
æĹ ħè¡Į
Ġje weils
Ġod d
Ã ¿
Ġv Ã¹ng
ĠÐ£ Ð¿ÑĢÐ°Ð²
Ñĥ ÑĤÐ¾Ñĩ
mÃ¶glich keiten
ĠMÃ¶glich keiten
ĠÑĤ Ð°Ð¹
Ġbo a
kow anie
ion o
Ġto talement
ĠrÃ© el
ĠLors que
Ġgesch rieben
Ġcomp ter
ĠÑĢ ÐµÐ¹ÑĤÐ¸Ð½Ð³
Le geArtis
on ce
ĠÑĤ ÐµÐºÑĥÑī
ĠFir men
ĠE ig
ĠÑĢÐ°ÑģÑģ ÑĩÐ¸ÑĤ
ĠWar um
ĠÐĲ ÑĦ
Ġin nen
ĠSicherheit s
Ġrela Ã§Ã£o
ĠPa tienten
Ġcompos to
ĠAssocia zione
Ġinter essa
Ġzale Å¼y
T TI
ke ting
Ġda vanti
ĠFahrze ug
Ġsa uf
ĠUS D
ana ger
Ġent halten
Ġminim um
ent ino
ĠH en
Ġdist anza
ein ture
Ġs om
ĠamÃ©rica in
te chnik
ĠSch ritt
ĠLÃ¶s ung
dzie la
ĳ ĳ
Ġéħ į
ãģĭ ãĤĬãģ¾ãģĻ
Ġmo tivation
k as
ĠÐ½ÐµÐ´ ÐµÐ»Ñİ
Ġel se
Ġå¥ ¥
Ġãĥ¬ ãĥĵãĥ¥ãĥ¼
Ġv m
n om
Ġ Ï
æĺ ¯
Ġma je
ãĤ¦ ãĥł
ÑĮ ÑĪÐµ
ĠhÃ© ber
Ð°Ð» Ð¸Ñı
Ġdla czego
Ġro ot
èĦ Ĥ
ãĥĹãĥ¬ ãĤ¼ãĥ³ãĥĪ
ä»¥ ä¸ĭ
gang en
ĠÐĴ Ð¸ÑĤ
ĠÐ Ļ
ãĤĴæ ıĲ
Ġb our
Ġ9 1
Ð¼ Ð°ÑĢ
Ġassi cura
tu de
Ġde lika
ĠM ir
Ġt ir
ĠPer Ãº
Ġcomun i
ĠD ol
Ã¡ logo
Ġcent ral
ĠÐºÑĢ ÐµÑģÑĤ
Ġho he
ĠSte in
Ð¸ÑĢÐ¾Ð²Ð°Ð½ Ð½ÑĭÐ¹
ĠO ffer
Ġri pr
ĠÑģÑĤ Ð¸Ð»ÑĮ
ĠÐ¤ Ð¸Ð»ÑĮ
Ð¸ÑĤ Ð°ÑĢ
ĠÑģ Ð¾Ð³Ð»Ð°ÑĪ
ĠRo t
ĠNutz ung
Ġentra m
Ġwar szta
Ġsu kien
Ġmoje j
Ġeks per
ĠÄĳá»Ļ c
rar se
Ġcon d
Ġdzie dz
sa zione
Ġé«ĺ ãģķ
Ġ ï¿¥
ç² §
ãĥ¼ãĥĲ ãĥ¼
ĠÐĶ ÐµÐº
ĠÐ¾ÑĢÐ³Ð°Ð½Ð¸Ð· Ð°ÑĨÐ¸Ð¹
ane a
ĠSter ne
n al
Ġpo tent
ĠÐł Ñĥ
ĠÐĵ Ð¾ÑģÑĥÐ´Ð°ÑĢ
ĠÐºÑĢÐ¾Ð² Ð¸
ÑĢÑĥ Ð½
am ica
Ġl ont
ĠR hein
ĠKli ma
ãģ® ãĤµ
ãģĹãģ¦ ãģ¯
Ġt Ãªm
ca mi
Ġcaract Ã¨re
Ð³ Ð¾ÑĤ
m ania
i p
ĠÐ¿Ð¾Ð»ÑĮÐ·Ð¾Ð² Ð°ÑĤÐµÐ»Ñı
ĠIde e
re icht
Ġaccom pagne
Ġrec onn
Ġtak Äħ
Ġi ba
ĠW il
ĠBo x
ali zar
t rieb
Ġbekom mt
ch ia
ãĤ½ ãĤ³ãĥ³
ãģ®æ ³
Ġåħ¨ åĽ½
Ġpew nie
ĠWy b
ĠÐ¿ ÐµÑĤ
æ® º
ãĥ¦ ãĥĭ
Ã³ z
ãĤ« ãĥ¡ãĥ©
ĠVerb indung
Ġmilli ards
Ġthu Ãª
Ġresul ta
Ġcio Ã¨
ĠÐ¼ Ð³
Ġpia zza
ĠÐ´Ð¸Ð°Ð³ Ð½Ð¾ÑģÑĤ
Ġthrou gh
Ġcontra tto
ier ze
Ġfaci li
éŁ³ æ¥½
åħ¨ ãģ¦
Ñģ Ð¼
ĠÑĢ ÐµÐ¼
ãģĮ å¢Ĺ
c tar
ĠbÄĻ dÄĻ
ĠÐĿÐ¸Ðº Ð¾Ð»
Å¼y w
Ġz mniej
Ġal can
f ragen
Ġpla ces
ĠChies a
Ġd Ã¹
ãģ® ãĤ¨
ĠentiÃ¨re ment
Ġma ggiori
ĠÐ¿ÑĢÐ¸Ð¼ÐµÑĢ Ð½Ð¾
cion ados
ĠSchlaf zimmer
ĠSpielothe k
ĠSpiel en
ĠmÃ© tier
Ġc rit
Ġ8 2
and is
ĠÐ²Ð¸Ð´ Ñĭ
Ġjeste ÅĽmy
Ġdar mo
Ġwys yÅĤ
Ġinfor me
Ġob ejm
ĠÐ²ÐµÑĢÐ¾ ÑıÑĤ
ita to
Ġcol om
le o
ĠCham p
Ĵ ®
ĠFrÃ¼h stÃ¼ck
ong e
8 1
ĠÃ© lÃ©ment
ĠÐ¡ Ð¸Ð¼
å¹´ éĸĵ
Ġla ufen
Ġstr umento
ĠUnternehmen s
ĠEn d
ĠBeit rÃ¤ge
Ġper fek
Ġfin anz
ĠÑĨÐµÐ» Ð¾Ð¼
Ġrend u
ĠÑģÐ¼ ÐµÑĪ
Ġimp osta
Ġsp an
Ġin trodu
ĠÑģ Ð¾Ð·
Ġmie ÅĽcie
are mos
Ġprocha ine
Ġar ticoli
ãĥı ãĤ¤
ĠPal ermo
Ġpen ser
ĠÐ¿Ð¾Ð¿ÑĢ Ð¾Ð±
ĠeconÃ³mi co
ĠWeihna chts
y l
ĠW unsch
ĠF Ã¶rder
i ve
Ġsu cht
zz ano
ĠJahr h
ĠÐ¼ Ð¾Ð·
Ġevi tare
Ġwysz uki
ÅĤu dni
ĠRod rÃŃguez
Ġinteres ante
Ġh echos
ĠstratÃ© gie
ãĥ« ãĤ³
Ġmondia le
Ġesta ban
Ð² ÐµÐ¹
b rir
ĠF oro
ĠÑĨÐµÐ»ÑĮ Ñİ
Ġluch a
ĠCom isiÃ³n
Ġapro xim
Ġclas s
Ġessay er
Ġç§ ĭ
èĸ Ħ
Ð² Ð¾Ð¹
Ġpr osta
Ġcom menti
ĠR au
ĠÐºÐ¾Ð¼Ð°Ð½Ð´ Ñĭ
æĻ ®éĢļ
ĠTh á»ĭ
os as
ĠdÃ©clar Ã©
Ġsp ese
æģ ĭ
ãĤı ãģļ
Ã¤ um
Ġses iÃ³n
Ġpro vo
Ġt wÃ³r
s ie
Ñį ÑĦÑĦ
Ð» Ð°Ð½Ð´
Ġfolgen den
ĠPs ych
Ġ Ã¡o
Ġwe ll
ĠK urs
si bile
Ġè²· åıĸ
ĠæĤ ª
çĶ¨ æĦı
ĠImmo bilien
Ġvia ggia
cie la
Ìģ c
ĠNh áºŃt
st anden
åį Ĵ
Ġimp osi
Ġwar sza
ĠobsÅĤu gi
Ġak cji
å®¶ æĹı
ĠMe d
ĠgÅĤÃ³w nie
los e
ĠC Ã¡
Ġun idad
ĠÑĢÐµÐ¶Ð¸Ð¼ Ðµ
Ġsie dzi
ĠEst as
st ieg
Ð¸ÑģÑĤ Ð°Ð½
masch inen
let ter
Ġges agt
Ġse ks
Ġw ita
ãģĬ ãĤĪãģ³
Ġl Ã¡
ĠP rz
ĠéĿ ŀ
Ġpis o
lis te
ĠPro zess
Ġinsta laciones
Ġdro g
Ġpo lla
ĠÐĿÐ¾Ð² Ð¾ÑģÐ¸Ð±Ð¸ÑĢ
ĠÐ¾Ð±Ñģ ÑĥÐ¶Ð´
ĠÐ´Ð°Ð½ Ð½Ð¾Ð³Ð¾
ĠTom asz
Ġz wyciÄĻ
ĠTra vesti
ĠEr satz
ĠFran z
ãģĮ é«ĺãģĦ
ÃŃ cias
Ġkho a
ĠM om
Ġmod elli
Ġquestion e
ĠIn n
Ð» ÐµÐ±
ĠÐ»ÑĥÑĩÑĪ Ð¸Ñħ
Ġk now
ĠTe ma
ĠpolÃŃ tico
Ġj ard
ar m
Ġå¤ ľ
w ald
Ġfe li
Ð´ ÐµÑĢ
Ġprop uesta
Ġmar cas
Ġcomp on
sp ort
ĠOczy wiÅĽcie
Ġblo que
Ġimpe gno
ãģ®æ Ĺ
ĠÐ¼Ð°ÑĤÐµÑĢÐ¸ Ð°Ð»Ð°
ÐµÐ² Ð°Ñı
ĠPia zza
ĠIn di
ĠÑĤ Ð¾Ð¹
Ġren dere
ĠTeil nehmer
Ġestru ctura
ĠÐĴ Ð¾ÑģÑĤ
Ġester no
f eito
Ġul ub
ĠÐ²Ð¾Ðº ÑĢÑĥÐ³
ci ano
ĠStra ÃŁen
ĠÃ© vo
min os
c ount
am p
Ġrecher ches
ei ta
ĠRestaur ant
ob ei
Ġro b
Ð°ÑĤÐµÐ»ÑĮ Ð½ÑĭÑħ
ĠÐŁ Ð¾ÑĢ
ĠÐļÐ¾Ð¼ Ð¼ÐµÐ½ÑĤÐ°ÑĢ
ĠÐ½ÐµÐ· Ð°Ð²Ð¸Ñģ
Ġk od
ĠPod czas
ex uales
Ġcas as
Ġespe ciales
ĠL etz
Ġb oule
g ere
Ġv áºŃn
ĠRecher che
ang es
Ġv illa
ĠL ux
ãģ® é«ĺ
Ġse zione
Ġmo to
Ġlas cia
le tti
V I
æ· ·
schein lich
ĠÐ¼ Ð°Ð¹
ĠÐº Ð¾ÑĦ
Ġreali zzazione
æĬ ¼
ĠUni ti
ĠÐ²ÐµÑī ÐµÑģÑĤÐ²
æľī åĲį
Ġw Äħt
Ġcar ga
mi en
ĠL it
Ġz ones
ĠÐ±Ñĭ ÑĤ
ĠÑħÐ¾ÑĤ ÑĮ
ĠÐ£ Ð·
uri as
esti Ã³n
Ġconver tir
ÑĨÐ¸Ð¾Ð½ Ð½ÑĭÑħ
Ð³ Ð°ÑĢ
Ġjak oÅĽÄĩ
ĠaÃ± ad
Ġcas ero
Ġpes os
Ġmol ino
ct uras
ĠÐ²ÑĭÐ· Ð²
ei tos
Ġdr odze
Ġperform ance
k las
ĠfÃ© min
ĠAu teur
na ires
Ġob ej
Ġklas s
ĠÃ¡ m
Ġqui Ã©n
Ġdi ab
Ġen dlich
ĠStr and
ĠFir ma
ĠP P
Ġde me
Ġpregun tas
ten ido
ĠÑģÐ²Ð¸Ð´ÐµÑĤ ÐµÐ»ÑĮ
ãģ®æ Ĭ
ĠEs pa
Ġobje to
ĠF ort
ĠÐ½Ð¾ ÑĥÑĤÐ±
ĠÐ³Ð¾ÑģÑĥÐ´Ð°ÑĢ ÑģÑĤÐ²Ð°
ï¼ «
ãĥ³ãĥ Ŀ
ĠÐ² Ð°Ð¼Ð¸
Ġno vitÃł
ãģª ãģģ
Ġãģ¨ ãģ¦ãĤĤ
Ġcent ros
Ġ7 1
y e
ch ant
ĠÃ® le
ĠÐ¢ Ð¾Ð¼
tu ale
Ġjeste ÅĽ
ï¼ ¬
ĠRad io
Ġè² »çĶ¨
åĪ¶ åº¦
Ġter zo
Ġx in
Ð¸Ðº Ð¾Ð¹
re x
ch mal
Ġop ar
Ġzosta ÅĤo
å¤ī åĮĸ
Ġtele fono
Ġlo c
ĠÐĶ Ð¾Ð¿
mis iÃ³n
IC O
Ġsu erte
ĠÐ¿ÑĢÐ¸ÑĢ Ð¾Ð´
ĠDi nge
semb lÃ©e
se urs
Ġdi min
ĠÐ¼ ÐµÐ¶
ĠÐ²Ð¿ ÐµÑĩÐ°ÑĤ
ĠÐ¡ Ð¡Ð¡Ðł
Ð¾Ð² Ð¾Ð´
prÃ³ cz
á ½
ani que
ãĥĪ ãĥŃ
Ġlet ter
ĠP ass
fika cji
ĠÑģ ÐºÐ°Ñĩ
ĠÐ½Ð°ÑĢ Ðº
Ġbei de
Ġrens eigne
Ġlá»Ľ p
ĠÐ´ Ð¸Ð²
ĠP rÃ©sent
Ã§ ant
ĠpolÃŃ ticas
Ġemp re
ĠLeist ungs
st r
ĠÐĿ ÐµÐº
ĠD ra
Ġf ab
Ġobje tivos
Ġviaj eros
Ġper fil
Ġes ecu
ĠuÅ¼ytkow nikÃ³w
ku m
ĠL le
ĠDesarro llo
ĠEncont rar
ĠA zul
Ġse lecciÃ³n
ĠM eth
Ġtecn ologia
Ġs fo
Ġus e
Ġfich iers
Ġau rez
ĠÄĲ á»ĵng
Ġprote zione
Ġesigen ze
ĠãĢį ï¼Ī
ĠJ orge
Ġp ena
Ġcom ien
ãĥ¼ãĥĬ ãĥ¼
Ġåį ³
åī Ĭ
ta in
la nge
Ġbi z
Ġat tri
Ġth áº¥t
Ġacc ro
organi z
è ¤ĩ
b ou
Ġen torno
ĠCas as
Ġo tor
uttgar t
rie den
ĠÃ¡ gua
ĠPr odo
Ġo lio
Ġfa cendo
ĠRÃ©f Ã©rence
ro om
UR E
ĠrÃ© par
ĠKinder n
ãģĹãģ¾ ãģĹãĤĩãģĨ
O f
ĠCzy taj
ĠB ry
ĠÑĥ ÑĪ
ĠA tti
ra ti
Ã¡n chez
bex _
rer as
ito lo
gen to
Ġb iá»ĥn
ĠMon at
ĠÐ½ÐµÐ´ ÐµÐ»Ð¸
Ġredu ction
et tura
ĠÑģÑĥÑīÐµÑģÑĤÐ² ÑĥÐµÑĤ
r ando
port es
Ġenferme dad
hn ung
Ġconf ig
ĠGu ide
gn on
Ġt ante
Ġpor tare
d H
cz kÄĻ
Ġz unÃ¤chst
Ġfru its
u vres
ĠPro gram
ä¸Ģç·Ĵ ãģ«
vol le
ãģ®ç Ĭ¶
Ġzesta w
Ġmas zyn
u ty
CH E
ĠÑģÑĤ Ð°Ð´
Ġad idas
Ġent end
Ġch ale
Ġdor mi
prow adza
ig ar
ĠÐĹ Ð°Ð´
Ġtecn iche
na jm
ĠÐ·Ð½Ð°Ñĩ ÐµÐ½Ð¸Ðµ
Ġdire cto
ĠN Ãº
ĠC osta
Ġsch reiben
res sione
ĠMa g
Ġcon ci
ĠTrab ajo
qu ete
Ġdistin tas
ĠAn na
je dno
Ġb lau
ĠUnter kunft
ãģ® æľĢ
ĠU ti
pa ge
ĠNam e
Ġspeci ale
Ġrisor se
Ġca po
Ġcar re
ĠÐ¿Ð¾Ð²ÑĭÑĪ ÐµÐ½Ð¸Ñı
ĠÐ½Ð°ÑģÑĤÐ¾ÑıÑī ÐµÐµ
ĠNh Æ°ng
Ã¼ cht
si eren
ĠRet our
col at
ĠÃ©valu ation
Ġconsom ma
ri ften
ĠB ern
Ġna he
ï¼ ¢
t ie
éŃ ļ
ĠvÃł ng
ĠespaÃ± ola
é ª¨
Ġfir st
Ġcu estion
ĠN U
Ġdifficol tÃł
Ġpesso a
ĠÃ©vÃ© nements
Ġann oncÃ©
ĠPar ti
tiv itÃ©s
ĠÐ²Ð»Ð°Ð´ ÐµÐ»ÑĮ
å®ī ãģĦ
Ġl Ã£
ĠSch wa
ĠâĢ¦ ãĢĤ
éĻĲ ãĤĬ
ĠMon tag
Ñģ Ð¸
Ġcon tras
ĠSex uales
p Ã³n
fi z
Ġpreve de
ĠÑį Ð¼
ĠÑĤÑıÐ¶ ÐµÐ»
ĠÐĲÐ½Ð´ ÑĢÐµÐ¹
jou x
ĠÐ¿ Ð°Ð´
Ġl ernen
wa jÄħ
» Ħ
Ġçī ©
ĠÄĲ iá»ģu
Ġinsta ller
il an
Ġref us
ĠÐ¾ÑģÑĤ ÑĢÐ¾Ð²
Ġprecis a
Ġmi tad
ĠæĿ ¾
å°ĳ ãģªãģĦ
Ġex er
Ġd Ã»
Ġpos so
Ġsettim ane
éĢ± éĸĵ
Ġcono ce
ĠgehÃ¶r en
Ġconos cenza
ĠFern ando
Ġcons idÃ©
Ġespa cios
Ad visor
h or
Ġimp act
Ġjorn ada
Ġca ja
ĠMas tur
ĠSing les
ãģĭ ãģĹ
ĠLin ks
ĠD onner
fi cie
Ġv Ã¶l
Ġä»Ĭ å¹´
ei gen
Ġs ow
Ġprodu to
Ġz al
Ġdirei to
ĠjÄĻzy ka
åĤ ·
ĠKateg orie
Ġm Ã´i
s uch
Ġp ais
w ska
Ġ200 1
Ġpubli cation
rei ber
er in
ĠM use
Ġni kt
ĠP K
Ġtá»© c
ĠKir che
ĠÐ½ÐµÐ¾Ð±ÑħÐ¾Ð´Ð¸Ð¼ Ð¾ÑģÑĤÐ¸
ãģ¿ãģŁãģĦ ãģª
è¿Ķ ä¿¡
Ġli qu
Ġdur able
l it
ĠÃ©c oute
éŃħ åĬĽ
Ġretr ouv
ĠBl ut
ÅĤo ÅĦ
Ġoe uvre
Ġexper i
ĠÐ·ÐµÐ¼ ÐµÐ»ÑĮ
ĠÐ´Ð¾Ð³Ð¾Ð²Ð¾ÑĢ Ð°
ĠÐ» ÐµÐ¶
ĠPla ta
ĠEst udi
met ro
T U
Ġcumpli r
Ġa cier
ĠsiÃ¨ ge
Ġbas se
velo ppe
ĠBus iness
ĠSta ats
ĠÐĲ Ð¿
ãĥģ ãĥ¼ãĥł
Ġcl ara
Ġfamili ar
ĠÐ²Ð½ÑĥÑĤÑĢ Ð¸
Ġcon vin
ÑĢ Ð³
Ã¡ ticos
Ġz obacz
wiÄħ za
ieni u
Ġï¿½ï¿½ ï¿½
ĠÂ ¥
ĠÄĳ Ã´
Ġf iche
ĠÐŁÑĢ Ð¸Ð²
ĠÐ´ÑĢÑĥÐ³ Ð¸Ð¼Ð¸
Ġspe cial
titu ciÃ³n
ĠW ild
ĠC ina
Ġenqu Ãªte
ĠAff icher
Ġcar riÃ¨re
ia m
Ġjak by
Ġag r
Ġwyb ran
Ġ} ,
Ġpouv ons
Ġexcell ent
ãĤĦ ãĤĭ
ãģ« ãģĹãģŁ
Ġwarun ki
ĠT witter
Ŀ éĽ¢
ĠI r
enez ol
Ġcir cu
Ñı ÑİÑĤÑģÑı
Ġs ale
Ġter mes
Ġinf os
Ġreali zado
Ġfu ente
Ġm iej
Ð¸Ð¼ Ð°
ĠÐ¿ÑĢÐµÐ´ Ð²Ð°ÑĢ
Ġm Ã´
ĠHoch zeit
ĠE inh
Ìģ t
Ġc á»ĳ
Ġarri ba
ĠKaÅ¼ dy
Ġåĩº ä¼ļãģĦ
ãĤĴ ãģĹãģŁ
ĠEs cri
ĠÑĦÐ¸Ð»ÑĮ Ð¼Ñĭ
ĠÐĶ Ð¾ÑģÑĤÐ°Ð²ÐºÐ°
ĠÐºÐ²Ð°ÑĢÑĤ Ð¸ÑĢÑĥ
ÑĦÐ¸Ðº Ð°ÑĨÐ¸Ð¸
ĠÐ°ÐºÐº ÑĥÐ¼ÑĥÐ»ÑıÑĤÐ¾ÑĢ
ĠÑįÐºÑģÐ¿Ð»ÑĥÐ°ÑĤ Ð°ÑĨÐ¸Ð¸
ĠÑģÐµÑĢ ÑĤÐ¸
Ġav antage
ĠN ombre
ĠÐĽ Ñĥ
ãģ¨ãģį ãģ«
Ġau di
Ġer fahren
Ġprue bas
Ġgus to
ĠFrie d
ĠAn zahl
Ġopportun itÃł
nict wo
tar d
Ġv Ãªtements
Ġtrava ille
Ġau dio
Ġusz k
Ġacqu is
ĠåĨ Ĩ
ĠãĤ¢ ãĤ¯ãĤ»
ve aux
Ġconse cu
ï½¥ ï½¥
çµĮ æ¸Ī
Ġroz miar
Ġestable cimiento
ĠT iene
ĠM ient
ĠÐ³Ð»Ð°Ð· Ð°
ĠÐľ Ð°ÐºÑģÐ¸Ð¼
Ġmod ern
uille z
Ġiniti a
ĠB ain
ÑĪ ÐµÐµ
Ġop in
ĠÐļÐ°Ð· Ð°Ñħ
ĠÐ¾Ð± Ð¼ÐµÐ½
ĠÐº Ð°ÑĦ
ve m
Ġpierw szym
Ġclas es
Ã¤n z
ĠÐ¡ÐµÐ² ÐµÑĢ
Ġbe ein
Ġspaz i
S A
Ġmateria li
Ġaccom pagna
Ġre ale
ul ent
Ġzar az
ĠB ilbao
und os
ãĥĹãĥ¬ ãĤ¤
Ġãĥ» ãĥ»
é£ ¾
is tique
b Ã©
Ġpati ents
ĠW ander
Ð¾Ðº ÑĢÐ°ÑĤ
Ð¾ÑģÑĤ ÐµÐ¹
Ġz wyk
Ġri Ãªng
Ġlut te
ĠcrÃ© Ã©
ÐºÐ° ÑĦ
Ġreg istro
ĠH ans
roso ft
Ġosob a
ĠÃ¼ber zeu
ĠS onder
vi ennent
Ð°Ðº Ð¾Ð¼
Ġcor sa
ãģ®åł´åĲĪ ãģ¯
ĠFol ge
zeich en
ĠP omo
t na
æĶ¯ æı´
Ġf Ãºtbol
Ġcer c
s ystem
graph ique
ĠprÃ³ pri
ĠrÃ© cup
ĠG Ã³r
äºº ãģ§
Ġpres iÃ³n
ĠAnn unci
Ġimpe gna
rÄĻ cz
B ay
[...]
