#version: 0.2
Ġ Ð
e r
Ġ d
e n
Ġ a
Ġ t
Ġ .
Ð ¾
Ġ ,
ã ģ
i n
e s
Ġ c
Ġ s
o n
Ð µ
Ġ p
Ð °
Ð ¸
Ñ Ĥ
a n
o r
a r
Ð ½
Ġ l
Ñ Ģ
Ñ ģ
Ġ m
Ð¾ Ð
r e
a t
i s
ã Ĥ
Ġd e
i t
a l
Ġ n
a s
o s
ã ĥ
c h
Ġt h
Ġ e
á »
Ġ b
u n
Ġ w
Ġ f
Ġ -
Ġ o
en t
Ð »
i c
r o
Ġ h
i e
l e
Ġ S
Ġ v
u r
o m
Ġ 1
Ġ C
q u
Ġ in
Ġ 2
Ð º
i l
a d
i on
Ġ A
Ġ â
e l
Ñ ĥ
Ã ©
Ġ g
Ġth e
Ġ P
u s
á º
Ġ :
Ġâ Ģ
Ġ T
a m
Ġa n
t e
Ġ M
Ñ ı
Ñ ĭ
o l
in g
i d
Ð° Ð
e d
Ðµ Ð
Ġ D
i m
u t
r a
Ġt o
Ġ qu
Ġ B
e t
Ñ Į
ĠÐ ¿
Ġ un
Ġ I
i a
Ġ L
es t
Ã ³
Ġ E
Ġ (
ã Ģ
a c
Ã ł
n g
Ñģ ÑĤ
Ã ¡
Ġ )
Ġ y
Ġ ãĢ
e m
i g
Ġ k
Ġc on
o t
Ġl a
Ð ²
Ġan d
Ġ r
ĠÐ ²
i v
Ġ re
Ġo f
Ġ2 0
Ġc h
Ñ ĩ
u l
i r
Ðµ Ð½
Ġ Ñģ
Ġ 0
Ġ F
o w
Ġ N
Ġ R
Ġc om
Ġ /
e c
Ġ G
Ġ Â
Ġ en
Ġ Ä
Ð ¼
ĠÐ ½
Ð¾Ð ²
Ġ H
u m
a g
Ġa l
t er
Ġ W
ĠÐ ¸
Ġ Ã
Ġ z
Ġd i
ĠÄ ĳ
Ð ´
s t
Ġ 3
Ġ "
o d
Ġ '
Ġp ro
i ch
an d
o u
ĠÐ ¾
Ġ V
Ġqu e
is t
Ġs e
Ñ ħ
Ġp ar
ãģ ®
Ġ j
ĠâĢ Ļ
es s
a b
i o
er s
Ġt r
ĠÐ º
Ġ20 1
Ġp r
o c
Ã Ń
an t
Ðµ ÑĢ
Ġ O
a y
o ur
Ð° Ð½
Ġs t
Ðµ ÑĤ
c e
Å Ĥ
Ġf or
at ion
ĠÐ ´
Ġl e
Ġ K
Ð ¿
en d
Ð¾ ÑĢ
ãģ Ħ
Ð° ÑĤ
ĠT h
Æ °
Ġ 4
Ġ 5
Ã £
Ġ on
Ð¾Ð »
Ġ ï
c i
t o
Ġs u
ĠÐ¿ ÑĢ
ĠãĢ ģ
Ġb e
l a
t a
Ġd o
0 0
Ñ İ
Ð¾Ð ¼
Ð¸ ÑĤ
. .
Ġ is
Ġde l
Ð½ Ñĭ
Ġ J
Ð¾Ð ´
e g
Ġ U
ĠÐ ¼
c t
ãĥ ¼
Ðµ Ð»
i z
Ð ±
i f
Ġ es
Ð° Ð»
Ġ ÑĤ
Ñ Ī
Ñ Ĩ
i er
ãģ §
Ġ ÑĢ
p p
or t
Ġd es
v e
Ġe l
Ð ·
o g
Ð½ Ð¾
u d
Ã ª
Ä Ļ
in e
a k
ãģ Ĺ
un g
Ġa s
i b
Ã£ o
Ã §
ãģ «
er e
Ġ est
Ġp er
l y
Ð¾Ð ³
ent e
i á»
Ä ħ
v er
ãģ ¦
n e
Ã ¼
Ġ or
Ð ¹
Ñģ Ðº
il l
a p
Ġ ãĥ
Ġn o
Ġe x
Ġ !
Ġ i
Ð ³
ãģ ¨
t r
Ġ ?
p r
ãģ ª
Ð¾ ÑĤ
it h
ĠãĢ Ĥ
ĠI n
Ã ´
Ð¸ Ñı
i en
Ð¾Ð ¹
ĠÐ ±
Ġ im
o p
n h
ãģ Ł
Ġ å
Å ¼
Ã³ n
ãģ Ļ
a z
ãģ Į
el l
Ġn h
Æ° á»
ãĤ ĭ
z y
ÐµÐ ¼
ĠÐ½ Ð°
Ġa t
ãĥ ³
Ġ 6
Ġun d
Ġe t
Ġw h
i p
os t
Ã ¤
en s
ãģ ¯
as s
a ch
f f
o b
Ð° Ðº
u b
Ð¾ Ð½
Ġd a
Ġ Ãł
Ġw ith
Ð¸ Ð½
Ġy ou
ad o
áº ¡
ÐµÐ ´
Ġth at
i k
ar e
Ġ it
Ġe m
Ġï ¼
at e
áº ¿
u p
ĠÐ ·
Ð° ÑĢ
z e
Ġh a
Ġp or
Ġp l
Ġpar a
an s
ĠC h
Ġ 7
ãģ ¾
ar d
m ent
¿ ½
un d
Ġ ãĤ
Ġp h
in d
i al
Ġ Ñĥ
Ñ ī
Ñ Ħ
Ġs p
an g
Ġ ;
t h
Ġ 8
Ġa u
or e
Ġ Ã©
u e
Å Ľ
n o
Ð°Ð ²
Ġn e
Ð°Ð ¼
Ð¸ Ðµ
ãĤ Ĵ
Ġ 9
u g
Ġn a
Ð°Ð ·
Ġm a
l i
ic a
Ġd er
ĠTh e
or m
Ġm e
id e
Ġa b
i es
Ġk h
Ġ il
Ā Ā
áº £
ĠâĢ ĵ
Ġ. ..
o k
Ġ æ
Ñģ Ñı
Ġd ie
Ã ¢
Ð ¶
ĠÐ ³
t en
Ð» Ð¸
p er
Ġ1 0
Ġ |
a u
e b
i re
d u
Ġs er
Ġs i
Ġa c
p l
Ġa re
Ð¾ Ñģ
Ġa d
al l
Ġn g
Ġ1 9
Ġ us
ãģ ĭ
qu e
on d
á» Ļ
Ġg r
Ð¸ Ðº
ar t
Ġ Z
Ġ Ñĩ
z a
Ã ¨
on t
on g
ent o
iv e
Ġa r
Ð¸ Ð¼
it e
ä ¸
u re
ĠÐ Ł
ig h
Ġa m
ÑģÑĤ Ð²
s e
Ð¾Ð ±
ion e
Ãª n
ãģ £
Ġcom p
al e
ro m
Ġ um
ĠâĢ ľ
áº ¥
ag e
Ã º
Ð¾Ð³ Ð¾
ĠA n
ĠÐ ¡
h r
as t
Ġl o
ad a
i Ã³n
ĠÐ Ĵ
ch e
b er
Ġc o
Ġl es
Ġl os
Ġs h
ec t
ãĥ¼ ãĥ
n a
ãĤ Ĭ
i an
Ġp re
at o
Ġs o
Ġt e
ĠS t
Ġ %
Ð» Ñı
ÐµÐ ¹
á» ĳ
Ġ x
Ð° Ñı
Ñ į
ĠÐ °
Ã§ Ã£o
i le
Ã ¬
ul t
id ad
Ð¸ Ð¸
Ġb y
ĠÂ »
Ġun a
ãĤ Ĥ
iá» ĩ
Ġe in
Ġw e
Ðµ Ðº
Ġa v
it y
Ġ ro
Ġ ãģ
ãĤ ¹
u al
ic e
Ġch e
g r
on e
Ð¾ ÑģÑĤ
us t
Ð°ÑĤ ÑĮ
Ġ1 2
d e
Ð° Ñģ
Ä ĩ
Ġ ent
u y
ĠA l
Ġy our
m e
Ġr es
g e
ĠD e
a v
c o
ic o
ãģ Ĩ
Ġal l
Ð¾Ð º
Ġcon t
or d
ãĤ Į
Ġv er
Ð¾Ð ¶
Ã ¶
Ġc an
ĠÐ ļ
ĠÐ »
ãĥ ĥ
and o
Ð¸ Ð»
f orm
ĠâĢ Ŀ
Ġd is
ĠÐ¾ ÑĤ
o us
ãĤ ī
Ġ Y
Ġt ra
Ġn ot
ĠÐ½ Ðµ
Ð¸ Ð¹
ÑĤ Ð¾
Ġ Q
ãĤ ¤
Ġd u
om e
Ã´ ng
c ia
Ġ1 1
ie l
ÑĢ Ñĥ
Ð¸ Ð²
Ġ Ñį
ĠE n
ä º
s o
Ġin ter
Ġm an
Ġw as
Ġ ç
Æ ¡
Ã© s
Ġh e
t s
ĠL a
Ġ #
Ġ20 0
in a
Ġp o
r es
ãĥ Ī
ab le
ĠÐ¾ Ð±
ie d
ÐµÐ» ÑĮ
Ġ ra
á» §
Ġth is
u ch
o ut
ac k
Ã³ w
em ent
o v
m a
ĠU n
at a
f er
r an
áº Ń
Ðµ Ñģ
te d
Ġ =
e it
Ã ±
Ġ1 5
Ġ ÑģÑĤ
Ġv á»
r i
ĠÄĳ á»
Ġ er
Ġï ¿½
k t
Ð¸ Ñĩ
t t
Ã¼ r
l o
Ġha ve
Ġv Ãł
c a
ig n
c z
ï ¼
Ġf rom
ion s
Ġp os
Ġl as
is s
y s
Ð°Ð ´
a j
l ich
ĠR e
ĠT r
ÐµÐ ²
ãĤ ĵ
Ġpar t
n y
u j
Ġp our
e w
ĠÂ «
Ġg i
Ġc l
p ort
Ð¾Ð» ÑĮ
Ã¡ c
ãģ ı
igh t
ĠP ro
on s
ĠL e
c l
ac iÃ³n
Ġ) .
áº §
p e
Ġa pp
ĠÐ¿ Ð¾
Ġo b
Ġw ill
æ ľ
ĠC om
an te
ç Ķ
ĠS e
ÐµÐ ³
Ð¸ ÑĢ
ĠÐ Ŀ
Ġm ar
ĠÐ ł
m er
Ġ1 8
ä »
Ġs ur
Ã© r
ĠÐ ľ
in h
ï ¿½
ĠA r
Ġl Ãł
ĠM ar
ÐµÐ½ Ð¸Ñı
k i
ol l
ãĥ «
2 0
it o
h er
r u
Ġ [
n i
Ð¸ÑĤ ÑĮ
d er
im e
Ð¾Ð ·
Ġ) ,
Ð¸ Ð·
â Ģ
n ie
ĀĀ ĀĀ
ĠÐ ŀ
Ġcon s
Ð°Ð» ÑĮ
ur a
k s
Ġ &
ĠÐ² Ñĭ
ich t
Ġ u
Ðº Ð°
i áº¿
l ic
Ã ¹
k a
Ġg o
Ġ è
er t
Ðº Ð¸
Ð°Ð ±
Ġ" :
ãģ į
p t
v el
Ð½Ñĭ Ðµ
ÃŃ a
Æ°á» Ŀ
Ġ0 0
Ġ1 6
Ġ1 3
ĠÐ µ
Ġ ]
Ġa g
et t
an n
Ġre c
te m
Ġc u
in o
E R
Ġ1 4
m o
Ġth á»
Ġp e
Ġc ar
Ġd en
Ġo ut
Ġa ut
ĠÃ ¨
ãĤ ¯
Ð½Ñĭ Ñħ
Ġd as
f t
eg o
id o
Ġt á»
Ġm it
i ent
as e
Ġc Ã³
e ar
ãĥ ©
p os
Ġun e
Ľ i
in t
ac e
Ġ é
ad os
am b
an ce
å ®
ion al
i os
Ð¾Ð ¿
Ġs a
æ ĸ
is e
an o
Ð¸ Ñħ
Ġh as
Ð°Ð ¹
p o
ÐµÐ ·
l es
ãģ¾ ãģĻ
ãģ ĵ
c es
ul d
r y
or s
ĠE s
Æ°á» £
Ġc ol
áº¥ t
Ġt er
Ġn ie
a us
Ġp od
Ð½Ñĭ Ð¹
Ġw y
h e
Ġs on
Ġv on
ãģĹ ãģ¦
in s
ÑĢ Ð°
Ð¸ Ñģ
er n
áº¡ i
or es
Ä ĥ
Ð½ Ð¾Ð¹
c k
Ġz u
ãĥ ª
Ã ²
ãģ ķ
Ġp ers
ĠÐ Ĳ
Ġ os
Ã¡ s
Ġs c
Ġt em
Ġ1 7
å ı
am e
ĠÐ Ķ
ct ion
Ġm od
Ġ ist
ĠQ u
Ġ ÑĦ
ãģ£ ãģ¦
r os
Ġ3 0
g o
Ġ +
Ġcom o
å ¤
Ġd Ã©
Ġw or
ĠS ch
Ġs ch
Ð° ÐµÑĤ
c c
ation s
ĠP ar
Ġc á»§
ĠâĢ ¦
ãģ Ĥ
Ġb l
Ð½Ð¾ ÑģÑĤ
or a
ä ½
Ġs ol
ur s
Ġcá»§ a
ĠE l
ac t
j a
ĠÐ¸ Ð·
ĠÄ Ĳ
Ġ up
ad e
ãģ§ ãģĻ
Ġ X
v en
r it
Ð½ Ð¾Ð³Ð¾
a is
es e
Ġc as
ÐµÐ½ Ð¸Ðµ
Ã¢ n
ÐµÐ½ ÑĤ
Ġo u
Ġch o
å ħ
o y
at er
Ġsi ÄĻ
if ic
c on
ãģ ł
Ġh á»
O N
å Ī
w o
ĠÐ´ Ð»Ñı
ch en
Ġpro du
Ġin d
Ã¡ n
Ñĥ ÑĤ
am ente
p s
Ġp as
y m
Ã Ł
Ð°Ð ¶
ĠC on
Ñĥ Ð´
w w
er a
Ñİ ÑĤ
id a
ol og
ãģĹ ãģŁ
w e
Ġf Ã¼r
i x
ĠI t
ie m
ĠG r
ĠP r
it a
Ġb ut
ĠÐ ¢
p h
ÑĨ Ð¸
Ġm o
os e
u ro
Ġn on
Ġau f
A N
b le
Ġser v
ic k
ak e
am p
Ġto d
Ð¾ Ñĩ
Ĺ ¥
Ð° ÑģÑĤ
Ġ2 1
Ġde m
Ġ" ,
ĠÐ ¶
b re
Ġ2 2
Ġre g
Ġf in
er o
ion es
Ġãĥ »
Ġ201 7
Ġ2 5
á» ĭ
p ar
r as
E S
ãģ ĳ
el le
z i
ic al
at i
t i
a w
Ġ \
Ġre al
u x
z ie
Ã µ
ĠA s
Ã¬ nh
Ġf a
Ġ >
Ð¸ Ð´
áº ¯
at ed
Ġb o
ï¿½ ï¿½
Ġas s
Ã© e
s ch
Ġac c
y ch
v a
Ġpr es
ow n
E N
Ġm in
Ġd ans
Ðµ ÑģÑĤ
Ġc or
/ /
A R
i or
j e
an a
Ġ $
- -
ĠâĢ Ķ
ĠÐ ĺ
Ð¸ ÑģÑĤ
d en
ãĥ³ ãĥ
v ent
Ġ201 8
Ðµ ÑģÐº
ãĤ ¢
Ġma is
Ġpers on
Ñĥ Ñİ
ĠÑĩ ÑĤÐ¾
Ġc re
m in
Ġa us
il le
d it
ĠÐ¿ Ð¾Ð´
at iv
ãĥ³ ãĤ
ãĤ Ī
Ġh ab
Ñı ÑĤ
ĠS p
Ġf e
ik e
en ce
ĠW e
Ñĥ ÑĢ
Ġh tt
Ġ2 4
å Ĳ
Ġo ur
Ġm ore
en er
iá» ģ
Ġw ww
á» ¯
is h
Ġdel la
Ð°Ð ¿
Ġ: //
1 0
I N
ĠÑĢ Ð°Ð·
Ġin form
a in
á» ±
Ġe le
Ðµ Ñĩ
b e
Ġp u
Ġm y
er v
Ð¾Ð² Ð°Ð½
l ine
Ġin s
ĠV er
z en
un t
Ġh o
Ġp ol
Ġar t
n er
Ñĥ Ñĩ
ãĥ¼ ãĤ
re e
iv ers
Ġo d
in k
ĠÐ ĳ
Æ°á»£ c
az ione
Ġf o
t re
Ġon e
h o
Ð½ Ð¸Ðº
Ġthe ir
Ġ201 6
Ġo p
am ento
Ġqu i
Ġa ct
ion i
Ġst r
ãģ® å
ĠÑģ Ð²
Ð°Ð ³
Å Ħ
ãĥ ¬
en e
Ġ2 3
ĠÐ± Ñĭ
Ġes p
o uld
g an
Ġm ed
Ġ201 9
il d
Å¼ e
oc k
ay s
a i
Ġb r
ÐµÐ ±
est a
ĠT e
Ð½ Ð°Ñı
æ Ĺ¥
ar y
Ġthe y
Ġj e
Ġ Ñħ
Ġ0 9
ĠÐ¿ÑĢ Ð¾
an e
ĠB e
c y
ci Ã³n
p re
ot el
á» ¥
ĠP h
i Ãªn
ĠÐ² Ñģ
ãģ Ĭ
ĠÐ¿ ÐµÑĢ
pr es
ow e
i as
Ãµ es
Ġs em
á» ©
Ġv e
Ĥ ¬
Ġof f
i ÄĻ
Ġd os
it t
ent s
ter n
ĠA d
end o
Ġc Ã¡c
ĠP l
á»Ļ t
h l
Ġum a
O R
w a
è ¨
ÅĽ ci
u te
Ġc e
z o
äº º
at t
Ġr Ã©
ãģª ãģĦ
u a
i que
Ġd ur
Ġ0 1
ist a
Ġpro f
m en
Ð¸Ñĩ ÐµÑģÐº
Ġkh Ã´ng
ĠÐŁ ÑĢ
im a
Ð½ Ð°
it Ãł
ãģ£ ãģŁ
ĠI l
Ġin v
al i
Ð½Ñĭ Ð¼
5 0
le t
ĠW h
Ãł y
è ¦
Ġ *
Ġse g
ĠÂ Ń
Ġre l
ing s
at is
th er
ÑĢ Ð°Ð½
h n
Ġab out
Ġdi re
á» Ł
Ġ1 00
Ð¿ ÑĢ
p or
Ġwh ich
an h
ess o
ĠÐ ĵ
Ð ŀ
g en
c r
ĠÄĳ Æ°á»£c
al es
ĠÑĤ Ð°Ðº
ĠÐ¿ Ð¾Ð»
Ġal so
Ġn os
Ðµ ÑģÑĤÐ²
ie t
ÐµÐ ¿
Ġin t
Ġâ Ĥ¬
Ġ5 0
u er
Ã© n
Ġent re
ro w
gr am
Ġt ime
Ð½ Ð¸
å ¹
ĠB l
Ġs oc
.. ..
áº ·
Ñĭ Ðµ
ul ar
Ġw ir
m ente
an ia
Ġc a
é Ģ
Ġf il
ÑĨ Ð¸Ð¸
Ġ0 7
Ġne w
1 1
Ġpl us
Ġf r
Ġ0 00
_ _
Ð¾ÑĤ Ð¾ÑĢ
Ġin st
Ġv is
u f
Ġs ich
ĠÐº Ð°Ðº
en n
A L
Ġt y
Ġ if
Ġde c
on a
v o
Ġin c
é ĸ
Ġn icht
i ra
it Ã©
O M
Ġs ob
Æ° Æ¡
Ġf un
áº§ n
ĠA m
Ġt u
ĠTh is
ãģĻ ãĤĭ
ic i
am i
x t
Ġ }
ĠãĢ ĳ
ar io
p le
ĠD ie
ãģ ©
or y
ĠN o
O S
Ġfor m
ĠÑį ÑĤ
Æ°á» Ľ
ro l
ĠÐ¸ Ð½
u c
ĀĀĀĀ ĀĀĀĀ
Ñĭ Ð²
ib le
Ð°Ð¼ Ð¸
Ġp ra
ad as
idad e
iv o
am os
iá»ĩ n
ÐµÐ ¶
æ Ģ
Ġ ut
ĠC o
á» ĩ
Ġp i
Ġpro v
Ġtr ans
u i
Ġqu al
Ġtr ong
Ġwor k
Ã¡ t
ãģĭ ãĤī
ãĤ ģ
Ġl oc
Ġd on
at ur
ãģ Ī
Ġv ous
Ġ Ñı
Ġp ass
us s
Ġ0 8
z ione
b l
Ð ł
el y
ĠÑģ Ð»
Ñħ Ð¾Ð´
Æ°á»Ŀ i
ĠE st
ĠS ie
Ġ201 5
I C
el a
A S
ĠP or
Ð´ Ð°
Ġin cl
Ġm Ã¡s
a il
Ġs al
Ġc r
s k
Ġy ear
j i
Ġc ap
Ġm ay
Ġres p
ic as
ä ¼
Ġg et
Ġs ec
Ð ¡
g h
Ġh er
Ñĥ Ð¿
it s
Ġat t
Ġ ess
Ġpos s
Ġp ub
Ġan y
Ġb u
Ġm á»Ļt
in i
er c
ãĤ Ħ
an ie
Ġn Ã£o
áº¡ n
ĠH e
ug h
ar g
ie w
Ġin f
Ġvá» Ľi
il i
ar i
ĠÐ¿ÑĢ ÐµÐ´
é ģ
Ġcom m
3 0
Ġï¼ ī
ÅĤ a
im o
Ñĭ Ð¹
ÐµÐº ÑĤ
ãģ® æ
Ð¸ÑĤ ÐµÐ»ÑĮ
ĠÐ· Ð°
ãĥ ķ
Ġ2 6
A T
Ġ ÑĨ
Ġt ro
Ġc al
ãģĵ ãģ¨
Ñĥ Ð±
Ð Ĳ
Ġwh o
iá» ĥ
qu es
k o
ung en
le g
Ġm on
Ġe ine
ist r
Ġf ir
Ġs im
Ġav ec
Ġa f
1 2
Ġ0 5
a Ã§Ã£o
or i
Ġg e
l d
Ġn el
Ġv ide
Ġ2 8
ĠD E
Ġm et
ĠÐº Ð¾ÑĤÐ¾ÑĢ
ad or
Ġ2 7
Ġqu est
Ġv al
Ġau ch
Ġ ich
is te
Ð½Ð¾ Ðµ
è ¡
Ġcom e
Ġ0 2
iá»ģ u
Ðº Ð¾
ĠC ar
re at
Ġï¼ Ī
p ro
ow a
ĠE x
an y
Æ°á»Ŀ ng
Ġ201 4
ãĥ Ń
Ġ0 3
ĠD es
á» į
Ġt ak
ĠO r
ĠM e
áº£ i
Ġk e
Ãł ng
ĠãĢ į
ãģ ¤
an k
h a
Ðµ Ðµ
Æ°Æ¡ ng
Ġ0 6
b r
re d
å º
b o
Ġpro c
Ġcon f
Ġs ome
Ġ0 4
ãģ ¡
Ġd r
Ġdi ff
ĠÐº Ð¾Ð¼
Ġng h
g g
å Ľ
ent i
ĠAn d
er g
Ġs k
ĠÐ¿ÑĢ Ð¸
áº£ n
ÐµÐ½ ÑĮ
Ã§ Ãµes
Ð° Ñħ
en a
p a
Ãł nh
Ð» ÐµÐ½
ÐµÐ³ Ð¾
ãĤ ·
an c
Ġ201 3
ÅĤ o
Ġ4 0
Ñĭ Ñħ
å ¸
Ġe ff
Ġm as
ãĤ ¿
Ġw ar
ĠP re
om m
ĠO n
ĠS h
Ļ Ĥ
Ñ ĳ
ĠÐ £
Ð°Ð± Ð¾ÑĤ
et te
Ġj est
m i
ant o
on o
Ġm u
f e
ãģ Ľ
Ġb us
Ñĥ Ð»
Ġne ed
Ġ2 9
ul l
id er
n ow
ent es
Ñģ Ð¿
ĠE r
å¹ ´
Ġng Æ°á»Ŀi
Ġh el
Ġl ike
Ġhtt p
ãĥ Ĺ
Ġc ent
Ġj ust
Ġo ver
am o
Ġh is
Ãł n
Ġp a
or n
Ã¡ ch
Ġv ers
Ġn u
Å¼ y
k u
I S
ig en
Ġthe m
it ion
á»¯ ng
Ġo ther
Ñĥ Ð¶
ic es
ta in
ĠC l
Ġv ol
Ġ201 2
ĠS o
Ñĥ Ð¼
ĠÑģ Ð¿
æ ī
Ġj ak
ĠI m
Ãł i
ar a
Ġth ere
Ġ {
Ã¨ s
w i
r en
Ġpr zy
Ġsu b
id ent
ĠãĢ Į
U R
Ġf am
áº§ u
Ġim port
ãĤ £
ic os
ĠF ran
ĠÐ Ĺ
ĠÐ¼ Ð¾Ð¶
Ġ ÑĪ
æ °
t y
ic t
c ie
Ġwh en
Ġnh Æ°
Ġpr ze
Ã³ r
Ã© m
Ð¾ Ðµ
and e
ol a
1 6
ãĤ ı
Ġg u
Ġf l
Ġr is
at h
á» ĵ
Ġbe en
å Ń
Ġex per
ĠA b
a hr
ag es
Ġwh at
ĠF or
Ġs it
Ġsob re
Ð¾ÑĢ Ð¼
ol d
Ã¨ re
ãģ ¿
ãģĦ ãĤĭ
Æ°á»Ľ c
ut o
ãĤ ³
et s
Ġes c
Ġm uch
ĠP ol
é ĩ
ang e
Ã¢ y
c ul
Ġc am
el o
it al
ĠÂ °
ch n
ec ial
us tr
Ðµ ÑĪ
l and
ĠY ou
t ra
Ġp ot
ot o
i ro
Ġ", "
Ġpart ic
ed e
Ġcon c
ant s
áºŃ n
Ġor gan
å ĵ
ĠÄĳ á»Ļ
Ġb ec
ar s
ĩ º
Ġk t
Ñĥ Ñģ
Ġp ow
ant es
Ġen c
at es
ent a
end e
Ġe d
Ġt a
ĠÐ Ľ
k e
ur n
ver y
Ġde i
Ġm i
ĠÃ ¼
Ġs in
Ġw eb
Ã´ i
å Ĩ
1 5
Ġãģ Ŀ
ãĥĥ ãĥĪ
ĠÑģ Ð¾
Ġt en
Ð° ÑİÑĤ
Ðµ Ñħ
ĠP er
Ġse x
Ã© t
el s
1 9
ĠU S
Ġ ä¸
ĠÐº ÑĢ
ĠâĢ ŀ
Ġp ost
Ġb as
çĶ ¨
at ing
Ġs us
Ġut il
z t
Ġw ould
Ġon line
I T
ĠB r
8 0
Ġs m
Ġd al
Ġa i
our s
im ento
áº¿ n
e k
le d
Ġnh á»¯ng
Ġt ut
ĠÐº Ð¾Ð½
g er
2 2
Ġs ie
Ġg ra
Ġn um
Ð½Ð¾ÑģÑĤ ÑĮ
Ġpro gram
ot h
á» ķ
Ġb et
ĠM a
ys tem
Ġes te
4 0
ung s
Ð¸ ÑĨ
j Äħ
Å ©
ow s
Ġm en
Ġst ud
ÑĤ ÐµÑĢ
Ġw ere
Ġm es
Ġc z
Ġb est
ny ch
v is
du c
ar n
æ Ŀ
Ġw er
Ġc er
Ġ": "
ou gh
ç ´
ÅĤ y
Ġit s
á» Ń
iáº¿ t
Ð½Ð¾ÑģÑĤ Ð¸
Ġth an
Ð° ÑĪ
Ġm us
Ð°ÑĢ ÑĤ
ol o
Ð½ Ð¾Ð¼
Ġf ind
u es
v ers
Ġde f
áºŃ t
ch a
ç Ľ
n en
ig e
ĠE m
pp ort
å ĭ
or ia
w n
å ł
Ã§ a
ro ugh
ro und
aus e
j ect
ĠL es
Ġc i
Ġb ack
ãĥĥ ãĤ¯
iz z
ur es
ec k
en za
Ġpr z
ie j
Ġh ad
v ol
Ġf ac
Ġv o
Ġm ost
Ġ, "
Ġex p
ĠB o
Ġin to
è ª
å ¾
ation al
ĠÄĳ Ã£
Ð¸Ð» ÑĮ
Ð ĺ
è ²
ÅĽ Äĩ
6 0
ĠÐ¿ Ð»
ÃŃ nh
1 3
Ġo der
Ġson o
al s
ç µ
Ġs ind
Ġper m
Ġ201 1
Äĥ ng
op le
ÑĢ ÐµÐ¼
od e
y n
at ive
ab il
Ġm at
ĠÄĳá» ĥ
t es
ĠÐ ķ
os s
b a
Ġj ed
ch er
Ġbe i
å ¼
ĠJ e
e p
E L
ãĥ Ĩ
c io
Ġus e
Ġw ie
Ġa p
Ġv ar
Ġinter n
Ðº Ñĥ
áº¿ t
Ġ19 9
ãĤ «
Ã¡ r
Ŀ i
Ġdel l
1 7
t on
ir es
ment s
d o
im ent
Ġm ake
Ġpi Ã¹
ÑĢ Ð¾
Ġlo ok
è Ģ
s p
Ð¶ Ðµ
r on
at eg
ar m
Ġ Å¼e
f ul
ãģ¾ ãģĹãģŁ
ĠÐ ¤
at s
1 4
ĠT o
es ch
ĠÐ¸ Ð»Ð¸
p on
ÑĢ Ð¾Ð²
Ã© es
Ġthá» ĥ
ĠN e
is mo
Ġm al
Ġm il
ãģ® ãģ§
Ġv ot
Ġal le
Ġkt Ã³
ĠT ra
le ct
á»ĳ i
ĠÐ¿ Ð¾Ñģ
å ¿
æĸ Ļ
Ġon ly
6 6
Ġl u
Ġc ur
âĢ Ŀ
ãĥ ¡
Ð½ Ñı
1 8
å Ĭ
ĠM an
c ar
Ġl ong
ãģ¨ ãģĦ
ĠÑį ÑĤÐ¾
Ã© d
Ġl ib
ç Ħ
âĢ ¦
ĠI f
Ġh at
um ent
Ġh ow
Ġa o
ãĥ £
Ñİ Ñī
Ã© c
C I
r ic
ĠÐ¾ Ñģ
ÐµÑĤ ÑģÑı
ĠN ew
Ġï¼ ģ
åĪ Ĩ
ess e
A D
Ġãģ ĵ
Ġd om
ĠC as
in es
ci p
Ð» Ñİ
Ġcon tr
Ġincl ud
Ġcon st
Ð Ŀ
l t
Ġc os
Ġ ide
ĠG o
ãĥ ŀ
es te
Ã¶ n
å ĩº
Ġg ener
ä¼ ļ
Ġpro ble
áº ©
Ð°Ð½ Ð¸Ñı
ĠS a
ĠE uro
il y
ĠC ol
æľ Ī
ĠÐ³ Ð¾Ð´
E T
ãģĦ ãģ¾ãģĻ
ĠÐ¾ Ð´
ĠÃ¼ ber
Ġh igh
å ľ
it er
ĠR eg
Ġ <
ÐµÐ½ Ð¸
id os
Ġre t
h en
Æ¡ n
Ġd iv
Ġ. .
g l
Ġd oc
em os
ci al
ĠÃ© t
en cia
z Äħ
Ġb ien
ãĤĴ æ
Ð² ÐµÑĤ
in ess
idad es
Ð° Ñĩ
7 0
ĠÑĢ Ð°Ñģ
ĠâĢ ¢
Ġj u
Ðº ÑĤ
Ġim p
n ia
Ð ļ
if e
A M
Ã¹ ng
ĠR es
an i
ĠB ar
Ð°ÑĤ ÐµÐ»ÑĮ
ich e
ag g
Ġpe ople
Ġ @
8 8
k et
å¤ §
Ġ20 20
an z
ĠãĢ Ĳ
uj er
Ġn ow
ä ¿
j o
ac iones
Ġun s
ĠF l
j et
b i
ĠÑĤ ÑĢ
Ġprodu ct
Ġ Ã¡
ĠÑĤ Ð¾
iv er
Ġw ell
O L
iv a
Ġhel p
c zy
ĠÂ ·
Ġv or
äº ĭ
b ar
Ġc Ã´ng
Ġal s
d a
Ġsoc ial
Ñģ Ð»
Ð ķ
Ð°Ð» Ð¸
Ġk now
un ic
ç ī
Ġ6 0
9 0
åĵ ģ
Ġv ia
Ġfir st
Ġwer den
n ik
æĸ ¹
ĠÐ §
Ð¸ Ð»Ð¸
ĠÐ¸ Ð¼
Ġsu per
Ġï¼ ļ
ib il
Ð ¢
or k
4 3
Ġpr in
ĠN h
Ġn as
Ġh ist
ĠP a
Ġg ro
Ġp at
Ġ. ,
Ġg l
Ġth rough
áº ½
Ã± o
! !
Ġm om
al t
ãĥ ¥
Ġal la
ãĥ ī
2 5
ot os
á»Ļ i
Ġs á»ĳ
ãĤ µ
Ġ201 0
Ġpar te
Ġn ach
Ġe qu
Ġl iv
ĠÐ² Ð¾Ð·
Ġb áº¡n
or o
Ð¿ Ð»
ÑĢÑĥ Ð³
iá»ĩ t
ĠÃ ī
ell o
Ð°ÐµÑĤ ÑģÑı
Ġt amb
Ġcl ass
en g
re t
s zy
Ġ3 5
Ġæ ľ
om b
á» ī
er m
ãĥ Ĳ
Ġsu a
Ġs ign
ĠÐ Ń
Ġe very
ic s
Ġn ec
Ġm ot
ç ļ
ci as
é Ľ
ĠÑĢ Ð°Ð±Ð¾ÑĤ
æľ ¬
Ġth u
ĠH otel
Ġk m
Ġal g
00 0
Ġz a
å ±
ï ½
ÑĨ Ð¸Ñı
g et
in al
Ġs z
Ðº Ð¾Ð²
Ġb ar
Ġ ä»
Ġs ul
Ð¾Ð»ÑĮ ÐºÐ¾
am a
Ġest Ã¡
ãĥ ģ
Ġre qu
Ġm á»
ãģĤ ãĤĭ
ĠL o
at or
it ies
Ġver y
it ar
ien e
iz e
ra f
Ġtá» «
Ġg en
Ð¸ Ð±
ra w
f r
Ġp ort
Ġn Ãły
Ġ ÅĽ
Ġl á»
Ġdel le
am ent
Ð¸Ð½ Ð°
ĠC ont
ÄĻ d
au x
Ġ3 1
id as
Ġre m
Ã ½
Ã¤ t
æ ¥
Ã¡ ng
as h
Ġa ff
ĠC OM
R E
ĠN g
Ġ Å
el f
at ure
ĠAr t
ier t
Ġm em
pr ess
al a
Ġle g
Ã¡ i
ra g
ĠI s
c er
Ġhá» į
å į
Ġd own
Ð³ ÑĢ
Ġ4 5
Ġ3 6
ãģĦ ãģŁ
Ġdes ign
Ġs ont
im i
Ġdi es
ãģ Ŀ
it i
l er
ĠÑģ Ð¼
a ut
Ġund er
ĠÂ ¿
Ġad d
Ð³ Ð¾
Ġp op
ĠP o
Ð½ Ð¾Ð²
Ã¤ n
p u
Ã¼ n
Äĥ m
ÑĤ Ð¾ÑĢ
Ġcont in
-- --
Ġtra b
Ġe v
Ġth ese
ĠÐ° Ð²
v i
á»ĳ c
Ġs et
Ġgo od
ĠÑģ ÑĢ
ĠS u
z ia
æ ĻĤ
ãģ °
ĠÃ º
¡ Â
2 4
å ī
å ¯
Ġg iá»
Ġan che
Ġkh i
å ½
b y
ĠÐ½ Ð¾
Ð°Ð¹ ÑĤ
Ġh and
Ġtr ad
ond e
ĠÄĳ áº¿n
W W
£ Â
ãĤĪ ãģĨ
Ġpl ay
Ġv i
on es
Ġs te
le x
ĠÐ± ÑĥÐ´
ĠÑģ Ð°Ð¼
Ñĭ Ð¼
ä¸ Ń
Ã ĥ
ic z
Ġest a
9 9
I L
ãĥ ĭ
Ġb el
Ġgi Ã¡
æ Ħ
Ð¾ÑĢ ÑĤ
Ġvá» ģ
ãģ¨ãģĦ ãģĨ
Ð´ ÐµÐ»
I D
åĲ Ī
E D
ãģ« ãģª
Ġl l
un e
is ch
Ġan n
à ²
ãģķ ãĤĮ
und o
áºŃ p
3 3
Ġo per
ĠÐ» Ñİ
au f
ĠD o
Å© ng
al iz
åħ ¥
á»© c
iáº¿ n
Ġc li
R O
Ġh ay
Ġb a
ĠIn tern
ãĥ¼ ãĤ¹
) .
is ter
Â µ
ãģĤ ãĤĬ
ĠÑĥ Ñĩ
b en
Ġen d
Ġg ia
Ġ á»Ł
om et
7 7
ä¸ Ģ
Ġt wo
Ġn eg
ĠH o
Ġ9 0
Ġo pt
w ard
ce pt
Ġar r
ĠC ent
ä ¾
Ġ" .
Ġgr atis
ĠâĢĿ .
r ist
Ġd ass
ĠlÃł m
Ñĭ ÑĤ
ab e
Ġd ata
ĠÑģÐ² Ð¾
Ð» Ð¾
ar ia
è¡ Į
A C
Ñĥ Ñī
ç Ļ
ãĤ ¦
ĠPar a
å °
ĠÑģ Ðº
Ð¾ÑģÑĤ Ð°Ð²
Ġ ur
an no
w ar
Ð¾Ñģ Ñģ
ãĥ¼ãĥ «
Ã± os
ĠA pp
Ñģ Ð»Ð¸
u le
el t
ãĤ į
ĠSe x
æ Ī
æ ķ
Ġse e
Ð° ÑĨÐ¸Ð¸
Ġd ar
ÃŃ t
æ° Ĺ
ÃŃ n
Ð¾ÑĤ ÑĢ
ĠÐ´ Ð¾
ĀĀĀĀĀĀĀĀ ĀĀĀĀĀĀĀĀ
è¦ ĭ
ĠG u
Ġ3 2
Ñ Ĭ
t al
áº¥ y
a f
ĠM on
Ġt áº¡i
ĠâĢĿ ,
ãĥ ĩ
Ġn i
Ġman y
iá»ĩ u
l os
Ð°Ð½ Ð¸Ðµ
ãģĦ ãģ¦
end er
ĠD er
f ore
Ð°Ð» Ð°
Ðº Ðµ
Ġpub lic
ut ion
çļ Ħ
ot t
ĠJ o
ĠÐ¾ Ð½
il la
Ġc áº£
Ð°Ð½ Ð¾Ð²
ch t
ĠA t
ä¸ Ĭ
æĢ Ŀ
Ġpor no
ãĥ ĸ
éĸ ĵ
é ĥ
Ġl og
ãĤ Ń
Ġï ½
Ġh ac
ow y
ĠC or
ĠS al
is chen
Ġå ¤
Ġf al
æ ³
áº ±
Ġs ite
Ì ģ
Ð¾Ð»ÑĮ ÑĪ
o ol
Ġl et
4 4
on y
c el
s s
Ġro z
æ Ń
Ġwir d
Ġs áº½
Ġf ree
Ġw ay
lo ad
ens e
us e
ãģ ĺ
ĠÐ¾ Ð¿
ĠS i
ĠM in
Ġn et
ad y
ÑģÑĤÐ² ÐµÐ½
Ġ8 0
Ġn Ã³
Ġd á»¥
Ð½ ÑĥÑİ
Ġs ystem
ian o
I A
Ġto ut
Ã§ o
ĠV ide
io us
Ġ3 3
çĦ ¡
w er
ĠD as
ãĥ³ãĤ °
Ġch i
en z
Ġvot re
Ġau x
ĠA ut
ÐµÐ» Ñı
on n
Ð¾Ð¼ Ñĥ
Ãª u
ous e
Ġl ist
s i
ãģ Ķ
Ð¸ Ð³
Ð¾Ð»ÑĮ Ð·
Ġres ult
Ġd ay
T E
Ġto p
ĠÃ ª
v iew
Ġaf ter
Ġo c
ĠR o
est o
å ¥
u el
Ġdiff er
ĠM od
ãĢ Ĳ
ol i
pl ic
Ã² ng
Ġh ome
ĠÐ· Ð°Ðº
2 3
ĠE in
os a
7 9
Ġz um
ãĤ ¸
al k
Ġm Ãł
ĠÄĳ Ã³
ĠM ed
Ġwh ere
Ġnh Ãł
ut as
l io
m s
Ġd ia
ĠÐ²Ñģ Ðµ
ĠAl l
j or
Ġde v
y l
vel op
Ġc zy
Ġc Å©ng
y cz
al ia
ÑĢ Ð°Ð·
ĠI N
ter s
Ġyear s
Ġein en
Äĥ n
Ġv oc
ĠIn d
Ġg ar
Ġe ven
ĠM o
Ã´ n
Ġf oll
Ð¾ Ñı
Ġexper ien
Ġhtt ps
Ġk ann
Ġ200 9
h or
ãĥ §
ÑģÐº Ð¾Ð¹
Ġpr im
5 5
ÐµÑģ Ñģ
ÑģÐº Ð¸Ð¹
ÃŃ s
ad r
c is
od y
å Į
ad ores
il s
.... ....
* *
b eit
Ñĥ Ð½
Ġprof ess
Ġper o
ãģ§ ãģį
ĠãĤ ¹
con om
Ġvide os
v es
Ġco uld
Ã¢ m
at ch
u en
ĠG i
Ġh Ãłng
ãģ® è
a it
Ð Ĵ
ĩ ª
ĠF r
Ġh um
á» ģ
Ġre f
ie g
Ġm ater
ne j
Ġno us
ç ¤
con tr
ip o
Ġbec ause
Ġb is
Ġl im
Ġd la
å ·
Ġ ir
ãĥ¼ãĥ Ī
ÐµÐ» Ð¸
ĠL u
om p
ĠvÃł o
ĠÄĳá» ĭ
m y
Ġc ou
Ġg reat
Ãª m
ãģ§ ãģ¯
ĠÐ´ Ð²
Ġm ag
é Ļ
ĠÐ¿ Ð¾Ðº
p end
ÐµÑĢ Ð¶
áº «
am s
) ;
Ġm ov
Ġth en
ÑĨÐ¸ Ð¾Ð½
Ġsu ch
ig o
m l
Ġc ost
o i
ĠC al
h re
Ġinv est
çĶ Ł
ÑģÑĤÐ² Ð°
Ġpl an
Ġse in
w are
Â º
Ġnh iá»ģu
c u
2 9
p art
Ġtr Ãªn
2 7
ĠAs s
Ġl áº¡i
Ġr u
Ð Ł
ãĤ °
Ġno ch
U S
ãĥ ł
Ġno v
ãģ Ń
oc i
Ġbo ok
ĠS er
Ġsh ould
le c
é ¡
ĠÐµ Ð³Ð¾
Ġbus iness
Ġs ent
ĠãĤ ¢
x x
ĠS te
ãĤ »
? ?
ãĥ³ ãĥĪ
Ġw p
áº »
Ð¸ÑĢ Ð¾Ð²
c ed
h t
ul o
az ioni
ÑģÑĤ Ð°Ð²
Ġ3 4
ãĥ Ł
Ġtod o
Ġ3 8
Ð» Ð°
åł ´
ĠUn ivers
Ð» Ðµ
ãģķ ãĤĵ
at u
áº· t
Ð» Ð°Ð´
ier en
Ġinform ation
Ġe vent
å £
ĠK h
ç ľ
ac ional
ĠÐ¿ Ð¾Ð¼
Ġs l
ip t
Ġpl ace
in n
Ġim m
ÑĥÐ» ÑĮ
Ġgr and
á»ĳ ng
h ip
ĠW WW
ĠM as
Ãł o
Ġact iv
eb o
Ã¡ p
z u
ĠA us
ĠG e
Ġf re
Ġsh e
y t
ĠâĢ ĺ
ĠL os
m an
ĠA ng
ag en
Ġd ist
« ĺ
un to
te t
Ġsh ow
ç Ĳ
Ġ3 9
ch i
ãģ« ãģ¯
Ġd est
ÑģÑĤ ÑĢ
Ġof fer
2 8
áº ¹
Ġre ce
7 8
Ð¾ ÑĪ
Ð¸ÑĤ Ðµ
Ġor ig
Ġprin cip
Ġpr iv
t ro
Ġt i
T A
ĠD r
ur ch
áº¥ p
Ð¾Ð» Ð½
ant i
ãĤ ª
ĠÐ¿ÑĢ Ð°Ð²
Ġm ak
Ġm is
ç ķ
Ġtod os
Ġcom pr
iá»ĩ c
r Ã³
at os
Ġt est
Ġm Ã¡
Ġh om
Ġbl og
Ã ĵ
ĠH er
ĠÐ± ÐµÐ·
Ġdis c
Ñĥ ÑĪ
h al
å ĳ
m ar
el la
ĠN ov
Ġproc ess
ãĤ §
ĠA g
ĠS an
Ġper f
Ã Ħ
Ġsp ec
ï¿½ï¿½ ï¿½ï¿½
2 6
ãĥ ĳ
Ġein er
Ã¶ r
ud e
Ġg li
end a
E C
v ed
Ġk Ã¶n
ch o
Ġo wn
Ð¸ÑĢ Ð¾Ð²Ð°Ð½
áº£ o
å® ļ
Ġw ant
Ð» ÐµÐ½Ð¸Ñı
Ð¾ÑĢ Ð¾Ð´
Ã© l
Ġc our
Ġvide o
ĠÐ¿ÑĢ Ð¾Ð´
al ly
y le
al th
o le
ĠÐ² Ð¸Ð´
Ġ7 0
Ġpro te
Ġãģ Ĭ
ĠÄĳ áº§u
os p
ac ji
__ __
Ġcol or
Ġm ade
it ed
Ġch á»ī
f ic
Ġreal iz
ĠÐ½ Ð¾Ð²
Ġcomp le
æ ĺ
æĢ §
Ġsol o
ĠÐ² ÑĢÐµÐ¼
Ġb á»ĭ
ĠC an
ãĤ ¨
ar ge
Ġz ur
Ġn ur
Ġr ight
is c
y w
Ġsec ond
ec e
uj Äħ
4 5
ed er
Ġt re
ĠC am
uj e
ĠV al
Ġab er
Ġh otel
Ã¼ ck
Ġein em
Ä ©
end en
ĠÐ¾ ÑĢ
Ãº ng
ul a
Ã© g
èĢ ħ
om o
ĠW o
Ġ id
Ã¡r io
k eit
Ġnh áº¥t
Ġart ic
Ġs á»±
Ġpres ent
Ñı Ð·
Ġsa id
Ġ200 8
ĠÄĳá» ĵ
am es
Ġm ol
k l
ub e
Ġy a
ĠD on
ur g
Ġh iá»ĩn
ust om
ier e
Ġ ãģ¨
ant a
ä½ ľ
Ð¾Ð¿ ÑĢ
Ġma in
or r
f l
Ã ®
iv id
Ġ5 5
æ ł
et er
Ð¾ÑģÑĤ Ð¸
Ñĭ ÑĪ
Ġa qu
ĠS erv
ĠA c
ĠP ub
æī ĭ
T O
Ð°Ñģ Ñģ
is che
ĠÐ¸ ÑģÐ¿
ass e
Ġt ake
Ġ4 8
d y
ĠÃ Ĺ
Ġm ach
Ġn Äĥm
Ġdá»¥ ng
ujer es
ĠÄĳá»Ļ ng
ar es
Å º
ĠIn st
Ġ3 7
Ġorgan iz
Æ°á»£ ng
Ġpro m
h ing
ÃŃ ch
or te
f Ã¼
Ġapp ro
Ġn orm
ĠÐ¼Ð¾Ð¶ Ð½Ð¾
el d
Ġserv ice
ĠI I
£Â ¬
ĠÐ¼Ð¾Ð¶ ÐµÑĤ
Ã¢ u
áº¯ c
ĠB ut
è ©
Ð¾ ÑģÐº
ð Ł
Ġn om
c ze
Ġng Ãły
b ra
Ġh ere
ĠÐ ¥
Ãº c
ĠW eb
ĠÐ´ ÑĢÑĥÐ³
im es
Ð» Ð°Ð²
ĠÐ´ Ð¾Ð»
Ð¸ Ñİ
Ãªn cia
Ã² n
Ġa le
Ã Ĳ
l ia
ĥ n
Ġc ir
Ġw o
Ġb re
Ġus ed
ed i
Ġk on
Ġan t
Ġl at
ĠT er
Ġbe fore
os ta
n ego
Ġfor ma
Ġde velop
at her
Ġp el
Ġr en
ãģ§ ãĤĤ
ig er
Ġp ag
Ġer a
ãģ® ç
w y
Ġd id
w ay
ÑģÐº Ð¾Ð³Ð¾
Ġb on
Ġhab en
ĠG l
Ġte chn
ĠB er
Ð°Ð½ ÑĤ
T I
id es
ĠÐ¾ Ñĩ
ĠÂ» .
Ġve z
s te
Ã ĩ
á» ı
Ñĥ Ñħ
Ã¤ r
Ġb ene
á»± c
Ġo cc
Ġ4 3
æ Ľ
Ġ= "
.. .
uy Ãªn
Ð°Ðº ÑĤ
Ġph áº£i
Ġv iá»ĩc
n es
áº· c
ĠTh ere
Ġme hr
Ð´ Ðµ
Ġm ill
Ġwor ld
ĠN am
ny m
p ut
Ðµ Ñī
Ð½ÑĭÐ¼ Ð¸
it u
m as
Ġm uy
ĠS tr
± c
ot s
al is
ÐµÐ½ Ð°
Ġcont ra
Ð°ÑĤÑĮ ÑģÑı
g a
Ġâ Ĩ
áº± ng
Ð Ķ
Ġth Ã¬
Ġw id
Ġre d
ĠN ot
ab a
Ð¾Ð³ Ð´Ð°
e x
Ð»Ñİ Ñĩ
Ġc ult
Ġ4 9
Ġ4 4
in as
k ow
Ġr ic
j ÄĻ
ĠIn ter
Ð¾Ð± Ñĭ
Ġdur ch
Ġo k
ĠH a
Ġcont rol
Ġth Ãłnh
ĠÑį Ðº
Ġpartic ip
Ġhá»į c
Ġprze z
s z
Ñĥ Ðº
it es
ut t
Ġfo i
Ġla v
Ġp ens
ÑĦ Ð¾ÑĢÐ¼
i Ã©n
Ġcons ider
Ñī Ðµ
çĲ Ĩ
Ġem pres
Ġa pr
Ġd ro
è ³
ĠÑģ Ð¾Ð±
ĠD a
Ġs ens
Ġna j
ow er
ÐµÐ½ Ð¸Ð¸
Ġt it
re en
Ġse u
as on
Ġc le
å Ģ
ĠS c
áº¡ o
n Äħ
ĠÂ» ,
at z
ĠR ec
æ¥ Ń
Ġan s
Ġun ter
ĠÐ½ Ð°Ð¿
ativ a
y d
ãĥ Ĭ
Ð½ Ðµ
Ã Ĭ
å¸ Ĥ
om a
Ġmin ut
Ġen v
Ġz e
Ð¿ÑĢ Ð°Ð²
Ð¸ÑĤ ÑģÑı
á»ĭ ch
ãģ ļ
Ã ģ
ial e
Ð¸ Ð¿
l in
Ð°Ð¶ Ð´
Ġs au
Ġp al
Ã± a
R A
Ð° ÑİÑī
Ġqu y
ab or
Ġsex o
i i
\ "
ãĤ ĥ
á»ĩ n
dit ion
ĠÄĳ i
Ð¼ Ð¸
ãĥ ĵ
Ġsit u
n ess
Ġcon d
st and
Ġl ine
Ġl ife
Ġf ut
c ion
Ġdo es
Ð ľ
ÑĢ Ñı
Ġbe ing
Ġmar ket
Ġg est
Ġre ad
ĠÃª tre
m es
at r
em ber
r ent
ÑĤ ÑĮ
w ie
Ã¡ o
Ġth ink
et to
Ġ5 00
£ p
Ð½Ð° Ñĩ
a Å¼
Ġpro pr
l ish
Ġst and
Ġdes de
Ġl ast
Ġe ach
Ġe as
ĠP art
Ġsu pp
Ġst art
Ġaut om
m m
é ł
Ġo l
iá»ĥ m
lich e
o f
um e
7 5
ĠÑģ Ð¾Ð²
ut s
Æ¡ i
Ã ī
Ġun o
l l
ĠÐºÐ¾Ð¼ Ð¿
Ġr est
Ġde g
it as
o ir
ĠÐ¾ Ðº
Ġn ue
Ġst ar
ual ly
Ġz ap
Ġf av
ĠP ort
Ġl i
Ð¸Ðº Ð°
Ġpro d
nie j
Ġc m
no ÅĽci
ãģª ãģ©
ud o
ĠF re
ver n
ÐµÑĤ ÑĮ
Ġd ivers
Ġå ®
ÑĢ Ð°ÑĤ
ħ n
Ġgr ande
Ã¡ nh
ĠP e
ĠÂ ²
ãģ¾ ãģĽ
Ġle ad
ÑģÐº Ð°Ñı
ÑģÑĤÐ² Ð¾
Ġquest o
Ġloc al
Ġth ose
Ġto tal
çī ©
ãĤ ĩ
b ers
C H
d z
Ġresp ons
ĠÐ· Ð°Ð¿
st en
Ð¾ Ñī
Ġn atur
ĠÐł Ð¾ÑģÑģ
ãĤ¤ ãĥĪ
Ġm Ãª
Ġå ħ
Ġdire ct
cc ess
Ð² Ð¾Ð´
Ġp et
z er
iá»ģ n
ĠÐ± Ð¾Ð»ÑĮÑĪ
Ġ) ;
inh a
ãģĹ ãģĦ
Ġ4 6
ÅĤ ad
Ġ9 9
ĠÑģ ÐµÑĢ
re g
ch es
c m
ĠC ons
Ì Ģ
Ġsu pport
Ġseg u
Ġn Æ°á»Ľc
Ġk om
ĠS up
ĠÐ ¯
Ãº n
ĠD is
cr ipt
k en
Ġvoc Ãª
ĠO s
Ġen s
iss ion
è ¿
Ġd ue
lich en
ÐµÑĢ Ð°
ĠÑĤ Ð¾Ð»ÑĮÐºÐ¾
è »
ĠÐ² Ð¾
ros s
Ġp ap
c ol
Ġp ou
Ġcas a
Ġesp ecial
ir t
E M
un a
Ġb ra
Ġcom b
Ð¾Ð» Ð¾Ð³
Ġgro up
ian a
Ġc amp
og le
ãĥ »
ĠÐ´ ÐµÐ»
ĠL as
áº¯ t
Ð³ Ð°Ð½
ĠB a
é Ŀ
Ġm ult
ĠB us
Ġc ette
ar o
éĩ ĳ
ĠdÃ© c
áº¡ t
åı ĸ
ÃŃ as
ag ement
ar Ã¡
ĠG ra
Ã »
Ġfin al
ot her
, "
is a
aj Äħ
le v
Ð¸Ðº Ð¸
in ing
le ase
Ġapp lic
Ġag ain
g i
ÑĢ Ð°Ð²
ĠO b
p ond
ĠÃ ģ
ĠP ost
it os
ÑĤ Ð¾Ð¼
ÐµÐ½ Ð½Ð¾
Ġnec ess
ĠÐ¿Ð¾Ð» ÑĥÑĩ
Ġt iáº¿
in er
esta ur
oc o
ĠÐ¸Ð½ ÑĤÐµÑĢ
Ġo g
áº© m
åŃ Ĳ
Ð° ÐµÐ¼
Ġor az
Ġc ustom
un ity
ÑģÑĤ ÑĮ
ÑĥÐ»ÑĮ ÑĤ
Ð¸Ð¼ Ð¸
et a
Ġf az
Ġch ild
ur y
ri end
ĠãĢĳ ãĢĲ
Ġp es
ier a
é £
r al
ĠÐ¶ Ðµ
ri os
Ġs áº£n
an ces
Ġind ustr
ol s
pres ent
Ð» Ð°ÑģÑĤ
ie le
ĠU m
e e
Ġnel la
r ess
Ġco un
Ð¾Ð² Ð¾ÑĢ
ac y
ĠD u
ied er
I M
ĠA mer
ä ¹
á»ģ n
ÑĢ Ð°Ð¼
an za
Ġ ident
ÃŃ cul
Ġs ing
Ġt Ã´i
f ort
ĠM il
ãĥ Ķ
ĠÑĢ ÑĥÐ±
Ġch ÃŃnh
áº¥ n
Ġte le
Ġg er
Ġnu est
ãģ¾ãģĽ ãĤĵ
Ġex c
ĠÐ¿ÑĢ Ð¾Ð²
Ġin te
ĠP al
Ġpro p
x im
ist as
v al
Ġqu an
Ġs Ã³
è ī
6 5
ie go
è¨ Ģ
Ġb an
ĠC u
U N
Ð¸ ÑĢÑĥ
ur as
ver t
Ġav ail
Ð»Ð¸ Ñĩ
l ie
Ġan g
ãĥ¼ãĥ ī
Ð¾ÑĤ Ð¾Ð²
Ġpro pos
Ġen g
ĠE t
á»Ļ c
Ġdiffer ent
Ġx u
ÐµÐ½ Ñĭ
n is
ĠM y
3 5
ĠN a
ÐµÐ½ Ð¸Ð¹
it or
Ġb ase
Ã į
Ġwh ile
al d
Ġcas o
id ente
ĠA uf
in ter
od o
áº« n
ĠÐ»Ñİ Ð±
ow ie
ĠÐĿ Ð°
Ġnh Ã¢n
ãĥ¼ãĥ ł
ĠÂ ³
st ell
Ð Ľ
Ġc ada
Ġs es
m os
Ġon t
Ġhá» £p
ä½ ¿
Ð¸ ÑĪ
Ã³ ÅĤ
ĠF e
Ð°Ð½ Ð´
ç ¨
Ġf ran
2 1
ĠÂ ´
ind ows
Ġm er
at to
ä½ ĵ
ĠkÃ¶n nen
ÑıÑĤ ÑĮ
Ġv a
Ġw ur
Ġserv ices
ab les
åī į
ãĤĮ ãĤĭ
ĠÐŀ ÑĤ
Ġde b
ve z
ĠIn form
i Äħ
ĠC ap
L E
Ġind ivid
Ġz w
Ġj our
Ġa round
Ġp elo
Ġen erg
ad es
Ġp on
ãĥ³ãĥ ī
Ġimport ant
un ci
Ð¼ ÐµÑĢ
ĠÐŀ Ð±
ĠÐ¡ ÑĤ
Ġ200 7
ĠÐĴ Ñĭ
Ġreal ly
ec n
åĽ ½
Ġch a
Ġt in
ĠS k
Ġf ar
Ġu 0
ement s
Ġh Æ¡n
ĠÃ £
Ã´ t
Æ° a
iz ione
ar on
Ġs ab
Ġr ad
Ġan al
æ ´
ebo ok
ost en
ĠD i
Ġe uro
f o
ÐµÐ¼ Ñĥ
Ġdis pon
Ġwe ek
Ġe u
at en
åĭ ķ
ĠÄĳá»ĭ nh
Ðµ ÑĨ
ru ct
ami ento
Ġs ame
w it
ĠÐ¿ Ð¾Ð²
i um
ud io
ĠÐ² Ð½
Ġs Äħ
ot og
8 5
Ġcom me
Ġp ay
iel d
Ġtem po
ĠPro du
Ġan im
Ġutil iz
if t
ĠÐļ Ð°Ðº
è £
s er
ag er
z ioni
ĠF il
åĨ Ĩ
ĠA f
Ġl ot
Ġb es
ĠF ac
ĠÑĥ Ð´
Ġsem pre
ãģ¨ æĢĿ
Ġfa ire
olog y
ort h
b ro
i u
Ġs inh
ĠA v
c ent
Ġr un
Ġess ere
eg en
Ġte xt
ic ial
Ġeff ect
ĠJ ul
Ð¿Ð» Ð°ÑĤ
l ing
w ays
iv es
Ġd ig
ĠÑģÑĢ ÐµÐ´
at al
ĠÐ½Ð° ÑĪ
áº£ ng
Ġv ida
Ġ5 9
iv al
Ð¾ÑģÑĤ ÑĮ
Ġå Ĳ
Ġé Ģ
ĠM us
Ġngh iá»ĩ
ãĥķ ãĤ
Ġtr as
ç «
zia ÅĤ
en ia
ĠE ng
Ġam p
ĠO p
Ġj p
Ð¸ Ð¾Ð½
zen ia
ĠÐ½Ð° Ñĩ
Ġ4 2
iv i
ig li
ĠÃ ´
ĠÄĳá» ģ
Ġc are
Ġsp ecial
el n
Ġo tr
ĠÐ¸ Ñħ
ĠÐ±ÑĥÐ´ ÐµÑĤ
Ġv end
en ie
iste ma
ĠJ u
Ġfo und
ĠÂ ±
Ġh im
ĠThe y
and a
Ġlo ve
Ì £
av a
á»¥ c
ac ion
og o
Ġd ir
Ġkh o
Ġca o
ĠÂ ¹
ĠV iá»ĩt
I G
Ġm Ã¬nh
ĠÐ± Ð¾Ð»
ut a
Ġpu ed
ãĤ¹ ãĥĪ
Ã ĸ
ÐµÑģ ÑĮ
ers on
eb en
é «ĺ
ãĥĥ ãĥĹ
imi ento
gg i
Ġz ÅĤ
ãĥ į
t il
Ġp om
we en
Ġs omet
ch Ã©
ĠÑĩ Ð°ÑģÑĤ
ĠS ol
Ġm ent
h men
ĠÐº Ð¾Ð»
d ay
I ON
Ġs Ã£o
Ġcu i
aj o
Ð°Ð¹ Ð½
çĽ ®
s ite
Ã³ l
Ġus ing
Ġbl ock
ç ·
Ġfa it
Ġm el
Ġdes c
æ ¸
Ġ. "
I O
ib t
b or
Ġcom ment
ies z
Ġam b
æ Ĭ
uy á»
Ġop en
er os
ãĤ ±
ÐµÐº Ñģ
ic io
ĠGr atis
cl us
: :
ä» ĺ
éĥ ¨
Ġ5 6
os to
Ġ7 5
ot a
ett i
le ction
ag em
Ġl ug
ãģł ãģĳ
Ġavail able
on te
Ġ\ "
ra c
Ã¡ m
Ġs ou
iv os
Ġper form
á»ĳ t
ĠÄĳá»ĵ ng
8 6
I n
ÑĤ Ð¾Ð±Ñĭ
ro om
Ġb oth
Ġdef in
ĠOn line
Ġcont ent
ĠCom m
ç¤ ¾
Ġpr ost
è ĥ
ĠM it
Ð» ÐµÐ½Ð¸Ðµ
at ura
Ġt ym
ĠE S
ĠCh rist
ra ph
ell i
p ow
Ġh t
Ġgr an
Ġï¼ Ł
ĠH ome
Ġv iew
z za
ĠSex o
ĠÐº Ð»
ĠC H
Ġn Ãªn
Ġm ob
Ġm erc
im m
Ðº Ð¾Ð¹
Ð² ÐµÑĢ
Ġh or
Ġperson al
Ġmo Å¼
Ġrequ ire
aj e
ativ o
Ġg ame
åĽ ŀ
itt le
Â »
ĠP our
ĠT ag
Ġf u
Ġ4 7
ĠÂ ¡Â
æ µ
ĠM ag
ĠD el
ro p
ar ios
Ġacc ess
Ġmá» Ľi
Ð¸ Ð½Ñĭ
ĠãĤ ·
æ Į
Ġes per
Ġfun ction
Ġqu ando
Ġst ill
Ã Ģ
3 6
f a
ĠWh at
á»ĳ n
Ġthe o
Ġf und
4 9
v ing
åŃ ¦
ĠÐ³ ÑĢ
g es
é ļ
ap e
Ġex pl
ĠÐ³Ð¾Ð´ Ð°
Ġpr Ã³
Ġp age
Ġth ough
Ð¾Ð²Ð°Ð½ Ð¸Ñı
Ġc Ã²n
im in
Ġ ãģ¾
Ġc Ã¡ch
Ð £
Ġãĥ ķ
Ġa gr
Ġbet ween
ind a
iá»ĥ n
ç §
Ġm ir
Ġdis pos
ÐµÐ¶ Ð´
Ġth áº¿
çĻ º
ĠktÃ³ re
Ã©r ie
éĢ ļ
is on
ĠE d
ĠUn ter
Ġst at
ĠS ec
Ð¾Ñģ ÑĮ
em a
Æ°á» Ł
ÐµÐ» ÐµÐ¹
ĠJ ahr
ĠW ir
Ðº ÑĢ
ãģª ãģı
âĢ¦ âĢ¦
ĠÐ¿ÑĢÐ¾ Ð¸Ð·
ar ch
Ġpr Ã©
Ã¤ ng
Ġâ Ħ
ÑĥÐ¿ Ð¸ÑĤÑĮ
Ġpor que
Ġz d
O T
Ġs el
iá»ĥ u
ĠI ch
am y
Ġs á»Ń
Ġl ub
Ġem pl
Ã¨ me
A P
ĠA pr
Ġpu ede
Ġtr Ã¨s
Ġd á»±
Ġfil m
8 9
Ð» ÑĮ
ĠÐ° Ð½
Ġle arn
ĠÃ©t Ã©
Ġmon th
ell es
Ġdur ante
Ġbe z
Ġcom un
h eit
ĠS P
ãĥ Ģ
Ð» Ð°Ð³
Ġgr atu
ond o
Ġf act
ard s
Ã Ĵ
ow ych
b lic
Ġsp e
st r
Ð² Ð»Ñı
Ġpro ject
ĠÃ ĸ
Ġå ı
Ġad v
if ica
ol es
Ġsm all
en o
un k
ä¸ ĭ
l as
æ İ
ãģ§ãģĻ ãģĮ
Ã Ķ
ĠA ir
ĠK on
Ġ( "
Ġc Æ¡
Ġare a
ĠÐ´ ÐµÑĤ
Ġt al
ĠÐ ¨
ĠV ers
Ġad min
Ġst a
ķ ·
Ġtr Æ°á»Ŀng
u v
Ġent r
Ð± Ð¾ÑĢ
ud a
Ġin de
Ġb ÄĻd
en c
ĠÐ¿ Ð¾Ð·
im os
Ġi hr
æ ŀ
s a
ç Ł
ĠÐº Ð¾ÑĢ
Ġpod e
Ġmu ito
Ġcomp any
qu er
Æ°á»Ł ng
Ð ĵ
Ġvis it
Ã ĭ
Ġs oll
æ ĥ
szy st
ĠL A
Ġp an
ãĤĮ ãģ¦
Ġe conom
igh ts
7 6
ĠD ec
3 9
ÐµÐ» Ð¾Ð²
ĠÐ ¦
Ġthá» Ŀi
ac z
ĠÐ¼ ÐµÑģÑĤ
ĠR ed
áº¿ u
ĠP res
ĠD ire
Ġmater ial
ĠTr ans
Ġ! !
Ġto o
te ur
ĠÂ ½
ĠS oc
ĠB ras
um p
ĠPro f
ĠA N
Ð¼ Ð¾Ð¶
p ie
áº¡ nh
Ġd am
4 6
Ġ3 00
g n
r am
Ġr áº¥t
Ã Ĥ
ĠM ay
em bre
ĠIntern et
Ġch ar
Ġm ad
ĠÐ¼ Ñĭ
ĠãĤ ³
at ter
ÑĥÑİ Ñī
v est
Ġte am
ĠR ob
Ġa Ã±os
ĠÐ¼ ÐµÐ½
le y
Ġth Ã´ng
æ §
åº ¦
ĠI D
Ġele ct
Ġthá» ±c
á»© ng
Ġ) :
ĠÐ´ Ð¾Ð¼
Ġas p
ĠG ar
ĠÐ» ÐµÑĤ
Ġ! !!
ear ch
l ess
Ġb ig
ĠF ra
ie b
ĠmÃª me
Ġha pp
U L
Ð½ ÐµÐ¹
Ġa ch
Ġinc re
Ġpl ac
Ġh ier
Ġm m
Ġcomp et
s ze
Ð¸ ÑģÐº
re a
{ "
ãĤ º
Ġw ater
Ġet c
ur al
Ġor g
ĠPor no
Ð¸ Ð¶
Ġfav or
Ġn ou
Ġl ink
und en
ut er
ist o
ĠÐ¿ Ð¾ÑģÑĤ
Ġst yle
Ñĥ Ð·
ĠM al
Ġgo ing
ĠCom p
Ġfoll ow
ph one
ÑĨÐ¸ Ð°Ð»ÑĮ
Ġthá» ©
ĠW ith
Ġ ul
Ġh Ã¬nh
Ð¾Ð± ÑĢ
ĠWh en
Ġf riend
O D
ĠÐ¼ Ð°ÑĤ
ate ur
Ġ- -
agg io
ic y
ãĥ ¯
Ġmed ia
Ġex tra
ĠS eg
Ġtamb Ã©m
Ġexperien ce
æ ¯
ĠN ach
ĠÑĤ ÐµÐ¼
ĠS port
id s
Ð¸Ð» Ð°
å ķ
ĠÄĳ iá»ģu
ĠC ON
ãĥ Ŀ
Ġty pe
ĠÐ¿ÑĢ Ð¾ÑģÑĤ
Ġhe alth
owe j
ud i
Ġconst ru
in en
Ġbu ild
Ġ5 3
Ġab s
ĠT V
ĠO ff
Ġp ela
es z
er en
Ġt iene
Ñģ ÑĮ
ĠÐ¾Ð± ÑĬ
Ġa ir
Ġintern et
Ġf ew
il es
ÐµÐ¹ ÑģÑĤÐ²
Ġw enn
Ġtamb iÃ©n
ac ter
ĠÐ¾ÑĢ Ð³Ð°Ð½
Ġc aus
Ġe duc
Ġm or
Ġ' ,
k on
ÑĤ Ð¸
ĠO l
Ġd zie
ãĤĤ ãģ®
ĠEs p
Ġfe el
if f
ĠãĤ «
Ġc all
ãģ ¹
Ð¸Ð· Ð½
Ġis s
ĠÂ £Â¬
Ð¸ÑĤÑĮ ÑģÑı
i j
ĠÐ²ÑĢÐµÐ¼ Ñı
ĠktÃ³ ry
Ġ4 1
ĠÐ¸ÑģÐ¿ Ð¾Ð»ÑĮÐ·
z w
ĠC a
Ġs pr
Ġex t
ĠP os
Ġä» Ĭ
Ġequ ip
en as
ĠÐµ ÑģÐ»Ð¸
ĠÂ ¼
á»ķ i
Ġmom ento
iv en
Ġ5 4
ãĥ ¢
ro d
et z
ĠÐļ ÑĢ
Ġd ann
ie f
Ġpre v
ĠÑĥ ÑģÑĤ
Ġro om
ig a
Ġãģ Ĥ
è ¾
Ġcon n
i pp
Ġk á»
ãĤĬ ãģ¾ãģĻ
Ġf em
I V
Ġcont act
ÐµÑĢ Ð¸
Ġ ðŁ
Ð¸Ñģ ÑĮ
pl ay
Ġæ Ĺ¥
Ġdec is
ĠÑĥ ÑģÐ»
æ ı
ĠP D
ĠÑĩ ÐµÑĢ
in c
è ĩª
il a
u pp
Ġhac er
ĠÐ¾Ð± ÑĢÐ°Ð·
Ñĥ Ð³
Ġs ett
Ġaut or
æ ±
ug e
ĠR a
Ġ ult
ĠÃ ¢
Ġc ual
Ġme jor
Ġcontin u
Ġm undo
p x
ĠÐ¿ÐµÑĢ Ð²
uy á»ĩn
Ġfam ily
åĨ ħ
Ġ5 8
em pl
æĦ Ł
ar te
ĠQ ue
ĠT H
ot to
Ġch ang
ĠS im
is es
Ġfin an
Ġde ter
Ġse hr
ĠãĤ µ
ĠU r
em e
T R
Ġinclud ing
ĠS m
Ġnum ber
Ġf ra
ĠÑĤÐ°Ðº Ð¶Ðµ
Ġc in
Ġ6 5
tr i
Ġdi fer
Ġg io
ĠF orm
ÑĥÑī ÐµÑģÑĤÐ²
ĠJ an
one y
ÄĻ p
at ic
ĠL ib
le ich
I E
th ing
f ahr
Ġel le
op e
Ġprz ed
Ġtr y
Ġ Î
ÅĤ ug
áº¡ ng
Ġf ull
ãģ¾ ãģ§
Ġac qu
Ãº bl
ion ale
ÐµÑĤ Ð°
Ġqu a
Ġcor re
æ Ķ
å¤ ļ
Ð» ÐµÐ´
ĠV ol
Ġ9 5
Ġpol it
ãģĹ ãģ¾ãģĻ
Ġc amb
ĠÐ· Ð°Ð²
ĠÐ¼ Ð¸Ð½
Ġht ml
Ð¾Ð½ ÑĤ
Ġw iÄĻ
ĠÐ½ Ð°Ð·
Ġn ame
Ġf our
am in
Ġ... .
ess a
Ã¶ g
Ġv iel
u k
id en
Ġnu ov
Ġ5 7
Ð¼ Ð°
åľ °
ĠO ne
ĠB as
re am
is m
adr id
A G
ect ion
ĠÑģ Ð°Ð¹ÑĤ
Ð°Ð½ Ð¸Ð¸
Ġd ou
á»į n
Ġsu re
h m
Ñĥ ÐµÑĤ
on i
Ġj a
ib ile
ÑĥÑĩ ÑĪ
ĠÑĤ ÐµÑħ
Ġpo int
ĠM er
Ð ĳ
Ġf ile
åı ¯
Ġal ways
ĠE N
ed a
ĠÐºÐ¾ÑĤÐ¾ÑĢ ÑĭÐµ
co unt
ĠEuro pe
Ġb ro
ÃŁ e
æĿ ¥
Ã Ī
4 8
ft ware
Ġ200 6
Ġsp ort
om en
Ġp ie
em y
ĠÐ¿ÑĢ Ð¸Ð½
ip s
ĀĀĀĀĀĀĀĀĀĀĀĀĀĀĀĀ ĀĀĀĀĀĀĀĀĀĀĀĀĀĀĀĀ
Ġex ist
Ã³ g
ic iÃ³n
Ġle vel
o pp
ĠA M
Ġæ ĸ
ÑĨ Ð°
k c
us h
ĠO ur
ĠVide os
ĠÐ³ Ð¾ÑĢÐ¾Ð´
ĠÃ© ta
owa Äĩ
ĠM et
Ġaus si
Ġal c
Ġb it
ĠV or
ãĤĩ ãģĨ
ä¸ į
Ġor der
á» £
ze it
owe ver
ĠGo ogle
ĠÐ½ Ð°Ð´
ĠÐµ ÑģÑĤÑĮ
Ġpe ut
ĠA L
æĸ °
Ġv iÃªn
Ð°ÑĤ Ð¾ÑĢ
Ġwith out
ic an
ç Ń
Ã¤ hr
y st
Ġy o
ur os
and s
Ġg es
r ze
Ġcon v
ãģĵãģ¨ ãģĮ
Ġkh Ã¡ch
z z
Ġpod er
Ġdoc ument
Ġpr Ã©s
Ġ\ /
Ð¼ Ð¾ÑĤÑĢ
Ġm ust
Ġ5 2
ĠP R
Ġl ittle
ãĥ Ļ
ĠÐŁ Ð¾
Ġt able
in os
Ã³ d
ãĥ© ãĤ¤
ĠÐ´ Ð°Ð½
Ġbas ed
Ġl Ã½
Ġs ans
EN T
Ġan h
ĠÐ² ÐµÑĢ
Ġre fer
Ġo t
Ġke ep
ical ly
Ġsch ool
ac ja
Ġs ig
Ġvá» ¥
Ġs ay
åº Ĺ
Ġor d
Ġth ree
Ġå¤ §
ĠG ro
Ġdur ing
ĠÑĤ ÐµÐ»
è Ń
Ð° ÑĨÐ¸Ñı
Ġcu ando
ĠG er
Ð¸ ÐµÐ¼
Ġth ings
ĠB y
eg u
ĠÃł s
Ġpow er
m et
Ġv en
Ġp esso
Ġbe g
Ġper i
Ġtrab al
f in
ĠÐ¿ Ð¾ÑĤ
Ġp s
Ġm ang
is ation
ĠÂ ®
Ġne xt
Ġc Ã¹ng
å® ī
Ð¸Ð½ Ð³
w or
ĠÑĩ ÑĤÐ¾Ð±Ñĭ
Ġi P
ĠÐ´ Ð¾ÑģÑĤ
Ġh ard
et zt
ec to
ĠnhÆ° ng
ĠÐ¸ Ð³ÑĢ
ĠA ct
Ġqu el
Ġ. )
ĠÑĢ ÐµÐ³
ĠG es
ĠÐ½ ÐµÐ´
at ori
Ã ı
Ġsu ccess
èĥ ½
Ð» ÐµÐºÑĤ
ãģ¨ ãģĹãģ¦
Ġsim ple
ÑĨÐ¸ Ñİ
Ġl ang
Ġph áº©m
Ġc oll
Ġc áº¥p
ind er
ell en
Ð¼ ÐµÐ½
å¯ ¾
ĠÑĥ Ð¶Ðµ
Ġpro per
Ġprov ide
Ġt om
tr y
ï¼ ĳ
I R
Ġf ue
Ġb ud
ar ly
ĠS in
Ġc op
m al
E G
w ork
Ġret urn
le ment
ï¼ Ĳ
Ġt ecn
ÃŁ en
Ġbet ter
Ġm ujeres
i ques
Ãº t
ĠÐ± ÐµÑģ
and er
Ġch eck
ĠK e
ĠC r
ĠÃ ľ
Ġfil es
o ve
Ġg ot
ĠÑĩ ÐµÐ»Ð¾Ð²
I I
Ġc ab
Ġs um
Ġâ Ĺ
Ġd istr
ĠI S
s ki
ar se
Ġï½ ŀ
ĠÂ ©
ĠÐ¾Ñĩ ÐµÐ½ÑĮ
Ġw rit
Ġdeg li
ber g
ĠW indows
ec z
ĠD ies
ow anie
Ġpa ÃŃs
åĬ Ľ
Ġt anto
Ġd ent
ãģĹ ãģ¾
h ne
ĠÃ Ń
áº¥ u
Ã¡ l
ĠÐ½ ÑĥÐ¶
ĠM ich
no v
Ð°Ñģ ÑĮ
Ð¾Ð½ Ð°
ne y
Ġg row
I P
Ġl ie
zen ie
ient es
è¦ ģ
Ġpr ima
ĠM ais
Ġen contr
ÅĤ Äħ
á» «
Ġtr Ã¬nh
åĲ į
Ġsh ort
d f
Ġun ivers
ir m
g eb
ĠÐ´Ð¾Ð» Ð¶
ĠM ad
Ġhe ad
Ġv ac
Ġs istema
ĠÄĳ ang
Ġt ur
Ġb ard
Ġcur rent
Ġj Ã¡
re ich
Ġs am
7 3
Â ª
Ġf ab
ĠBl ack
ĠnÃ³ i
Ġh Ãłnh
Ġind ic
Ġb en
Ð¸ÑģÑĤ ÐµÐ¼
ĠÃ© l
ĠÐ¿ Ð°ÑĢ
Ġop in
Ġãĥ ¬
ĠN ie
ass en
Ġâ ĺ
ÑĢÑĥ Ð´
a ve
ĠFran ce
Ġqu er
Ġpro t
Ġï¼ Į
ãĥ¼ãĤ ¸
Ġdal la
Ġtr at
ĠF in
ĠT or
å¾ Į
Ã¡ rios
it Ã©s
ut en
Ġpre par
un i
Ġs il
Ġf er
ĠS il
Ġle ur
ç ©
h i
Ġb i
Ġo ld
Ġan ni
Ġm Ã©d
Ġl Ãªn
Ð°Ñĩ ÐµÑģÑĤÐ²
Ġãĥ ĸ
ĠÃ ĺ
Ġa y
ĠÂ §
Ġ15 0
ĠÐ² Ð·
ÐµÐ½ Ð´
O W
---- ----
Ġw szyst
ĠÃº lt
ĠF o
Ġ _
ĠM art
Ġt ipo
Ã³ s
Ġb iáº¿t
Ġj o
ĠÃ Ķ
á»ĵ i
ĠÐ° ÑĢ
Ġm ass
ĠÐ¾Ð± Ñī
Ġm ess
ãģĭ ãģ£ãģŁ
cr ib
Ġk o
ĠS he
ĠÐ ĸ
ent ial
ãģ »
é ħ
Ġcons um
ĠO d
ĠSp iel
Ġqual ity
Ġde ux
Ġr Ã©s
Ġv os
ĠP C
Ġkh Ã¡c
ãģŁ ãĤģ
ĠâĢ ļ
ond er
Ġch Ãºng
ien ia
Ġph Ã¡t
ĠÃ §
Ġl Æ°á»£ng
Ġver d
Ġgr up
å£ ²
Ġar g
á»ĩ nh
end re
Ġposs ible
f ol
Ġnec es
Ġhas ta
ĠÐ¼ ÐµÑĤ
Ġw ord
ĠÐ½Ð° Ñģ
ut sch
Ġfal se
ĠA ug
Ġv om
Ġna v
Ġh an
ãģĹ ãĤĩãģĨ
ĠC e
Ġn am
ĠT a
ac i
Ð¾Ð² Ð°ÑĢ
Ġ/ /
áº¯ n
Ġinte gr
ãģ ³
ãģŁ ãģĦ
Ġh anno
cript ion
á»ĵ ng
Ġab le
olog ia
ãģ® ãģ¯
ĠÐ¿ÑĢ Ð¾Ð³
Ð°ÑĤ Ð°
at ore
æ³ ķ
Ġweb site
at y
ĠÐ¾Ð± Ð»Ð°ÑģÑĤ
ĠO ut
Ġt or
Ð°Ð» Ð¸Ð·
áº£ m
f or
Ġpe u
ĠL eg
ĠJ a
ĠH and
Ġp la
ut z
Ġf ig
ord er
ĠÐĿ Ð¾Ð²
å½ ĵ
l u
iv ing
ĠZ eit
os tr
å¤ ĸ
Ġn Ãło
Ġâ ĸ
Ġtut ti
ĠA S
Ġproble m
Ġenv ir
Ġc áº§n
ĠB u
il o
ĠÑĢ Ðµ
ĠmÃ¡ y
ãĤĮ ãģ°
ag a
c ciÃ³n
n al
ĠÐĺ Ð½
j oy
Ġ rom
od z
c om
id ed
Ġc la
ãĥ§ ãĥ³
åħ ¨
O P
Ġpre m
ÐºÐ° Ñĩ
ĠÑģÑĤ ÑĢÐ°Ð½
Ġn Äĥng
ĠÐ²Ñĭ Ð¿
Ġwur de
ÐµÐ½Ð¸ Ñİ
Ð°ÑİÑĤ ÑģÑı
Ġsch on
© Ł
Ġp ok
Ã ļ
Ġs Ã©
oc a
im mer
ĠÑģ Ñĩ
ĠA cc
ĠÄĳ Ã¢y
Ñĥ ÑģÑĤ
Ġb al
Ġcomp let
ÑĢÑĥ Ð¿
Ġfac il
Ð¾Ð± Ñī
os o
ist s
Ð°ÑĤ Ñĭ
ĠW or
Ġa j
Ġalg un
ro id
iet y
out h
Ġlá» Ľ
Ġl ight
ĠSup er
ro t
Ġtr Æ°á»Ľc
Ġl ive
y r
ĠU na
Ġt Æ°
ï ¾
Ñı Ð²
ĠE UR
Ġwith in
Ġmom ent
ĠÂ µ
Ġpos it
iz ed
Ã³ a
ãģ Ĵ
Ġcontr ib
Ġpr ime
ĠÑįÑĤ Ð¾Ð¼
ĠÐ¿ÑĢ Ð¸Ð¼
k ie
s on
Ġw ieder
Ġim age
Ġre la
ĠÐ¼ Ð¾Ð³
ĠãĤ ª
Ġn ost
ÑģÐº Ð¸Ðµ
Ġmod o
ÑĢÐ° ÑĦ
ĠÐ¿ Ð¾ÑĢ
Ġc ase
ir d
Ġan no
Ġc es
Ġg ive
Ġc el
ĠÐ°Ð² ÑĤÐ¾Ð¼
Ġ5 1
ãĢ Į
Ġim mer
ĠÑĢ ÐµÑĪ
æ Ł
ĠÃ ½
our ce
p is
å® Ł
f en
ĠÑģ ÐµÐ±
ĠM ont
Ð»Ð¸ Ð²
Ġx e
8 3
ĠU N
Ġcom mer
ĠÐľ Ð¾ÑģÐº
Ġz ak
U T
Ġter m
ĠÃ Ģ
ĠÃ Ī
Ġcz as
ãģª ãĤĵ
Æ Ĵ
Ġt iem
p es
z ÄĻ
Ġnh áºŃn
ãģķ ãģĦ
ar k
ĠF er
ich er
a ire
Ġins p
Ãº s
ÑĥÑĢ Ñģ
Ġ( )
ĠÂ ¶
Ġsomet hing
Ð» ÐµÐ¼
æ Ĺ
ãĥ Ħ
Ð½ Ð°Ðº
Ð¾Ð· Ð´
Ġb ed
Ã ķ
Ġpre cis
A B
æĪ Ĳ
è ģ
m it
ĠÐ¿ Ð¾Ð½
est er
Ġst or
ĠM i
ow o
Ġat Ã©
åł ±
Ġinst all
ion n
Ġ. âĢĿ
æ ²
il t
if y
Ġd ays
Ġm ight
çĶ »
d ic
Ð ¤
ĠÐ¢ Ð°Ðº
ÑĮ Ñİ
k Ã³w
è Ĥ
Ġpra ct
ãģĪ ãĤĭ
çĦ¡ æĸĻ
pow ied
Ð½Ð¸Ðº Ð¾Ð²
Ġ q
Ġbene f
è ¶
ĠH D
ĠP od
Ġcap ac
ĠÑı Ð²Ð»Ñı
Ġim pro
Ġob jet
Ġpro b
ĠÐ¼ Ð°Ð³
Ġnghiá»ĩ p
ĠFac ebook
ĠN on
al mente
ãĥĩ ãĤ£
f ach
Ġc rit
is er
ĠÐ² Ð¾Ð´
Ġs w
ãĤ¹ ãĤ¿
r at
ĠÂ ¡
ĠH ol
å® ¶
Ġto us
ç Ĥ
æľ Ģ
ÑħÐ¾Ð´ Ð¸Ð¼
ce p
Ġan other
Ġch áº¥t
Ð¾Ð² Ð°ÑĤÑĮ
Ġp ier
éĸ ¢
Ġma i
b st
ĠU s
ãģ ¸
ĠT em
Ġaut o
i endo
Ġl arge
ĠÃ ĵ
Ð¾Ð¿ÑĢ Ð¾Ñģ
r or
ad ora
it utas
ce j
Ġm áº·t
ĠIt alia
ãĤ ¬
Ġn ad
ÃŃ vel
ĠPro gram
ĠÐ¾ÑĢÐ³Ð°Ð½ Ð¸Ð·
in ed
Ġl ig
Ġpart ir
ik a
Ð½ ÐµÑĤ
ed ia
ĠÐ´ ÐµÐ½ÑĮ
ĠH ow
ĠÐŁ Ð¾Ð´
Ġb á»Ļ
ĠâĨ Ĵ
æķ °
ĠB ra
am m
Ġb uy
Ġl ess
ĠB en
ual iz
ĠÐ±Ñĭ Ð»Ð¾
ĠM or
Ð¾ÑĢ Ð¾ÑĪ
Ġs av
Ġl ÃŃ
ĠAn t
an ych
Ġ8 5
áº¡ ch
6 9
ĠÑĢÐ°Ð· Ð²
ĠÐ· Ð´
i Ã§Ã£o
ä» £
ãģ« ãĤĪ
Ġde ta
8 7
n ing
Ġz aw
ĠÐ²Ð¾Ð· Ð¼Ð¾Ð¶
ä¿ Ŀ
ç ¶
ag o
Ġpr ice
ĠD I
ĠS E
Ð½Ð¸Ðº Ð¸
Ġtá» ±
ä¾ ¡
ĠK ar
b ol
Ġcon oc
Ġk n
æī Ģ
ĠM ac
Ñĥ Ð»Ñı
z ent
Ġrec ord
ĠÐķ ÑģÐ»Ð¸
ãĥ Ľ
Ã³ ng
iz i
Ġme et
áºŃ y
Ġhab it
Ġimport ante
á»¯ a
os c
ĠÑĩÐµÐ»Ð¾Ð² ÐµÐº
ĠT op
Ġg ew
ĠÑģÐ» ÑĥÑĩ
ĠW ar
ĠÐ±Ñĭ ÑĤÑĮ
Ġto ur
Ġb em
Ġd onde
ateg or
ÑİÑĤ ÑģÑı
Ġj ob
ĠA u
å¥ ³
ic ult
Ġl ui
Ġa kt
ĠD om
è ¼
Ġxu áº¥t
ĠÐ²Ñĭ Ñģ
ĠW y
Ġdown load
ĠÑĦ Ð¾ÑĢÐ¼
Ġf oc
ĠTh at
Ġorig inal
Ġch at
ãĤĵ ãģª
Ġt ego
z zo
ĠÐ· Ð°Ð´
Ġst ate
Ãº p
ow ania
Ð¼ ÐµÐ½ÑĤ
Ġfo od
p i
ĠÐĴ Ñģ
ĠÐ±Ð¾Ð» ÐµÐµ
in ts
Ġbe aut
Ġãĥ Ĳ
Ġtod as
a Ã§Ãµes
an os
Ðµ ÑĦ
at ely
ent ly
ĠÑĢ ÐµÐ·
éĸ ĭ
Ġar ch
ĠC re
ĠT od
Ã¨ res
em s
Ġp ast
ĠÐº Ð²
et o
Ġre p
ĠÐ¼ Ð½
Ġk l
Ġr estaur
è¨ Ī
Ġç Ķ
Ġv Ã¬
ãģĹãģ¦ ãģĦãĤĭ
Ġk inh
Ġsin ce
c le
ard o
ĠÐ¿ÑĢ Ð¸Ð²
ãģĤãĤĬ ãģ¾ãģĻ
Ġre port
Ġch ange
Ġmod el
et as
ec ted
Ġg ibt
ĠÐ¿ÑĢÐµÐ´ ÑģÑĤÐ°Ð²
ĠCom o
Ġle ft
Ġ200 5
Ġg ian
Ġproduct s
ĠS ant
ĠÑģ Ð¸ÑģÑĤÐµÐ¼
ĠPar k
çľ Į
Ð¸Ð½ Ðµ
ãģª ãĤī
á»į i
et r
is se
Ġc ert
P S
Ġhab e
ĠBras il
Ġt end
Ġem ail
ĠÃ ĥ
ĠVide o
ar am
Ã¶g lich
Ġr i
ĠDes ign
ÃŃ st
h one
it z
ob al
ĠÐ· Ð°Ð¼
ç ¾
á» Ĺ
Ñı Ð´
ĠS car
f on
Ġha i
æ§ ĺ
à ¸
Ġs wo
áº¹ p
Ð¾Ð² Ð°
ĠA C
ĠÐ¾ ÑģÑĤ
Ġc and
Ġmen os
ĠP erson
Ġ ãģ®
ĠãģĿ ãĤĮ
ĠB re
ĠCh e
Ðº Ð°Ð·
un kt
Ġempl oy
ĠJ ust
Ġp ed
Ġd Ã¢n
Ġãĥ ŀ
Ð¾Ð± ÑħÐ¾Ð´Ð¸Ð¼
Ġty l
to p
if ied
Ġne ver
ic ro
ut ions
ĠV is
Ġsign ific
inh o
ĠW est
ĠÑģÐ» ÐµÐ´
ĠB est
ÑģÐº Ð¸Ñħ
U E
ra ct
Ã³ b
ĠL and
ãģ« ãģ¤
Ġf otos
ĠPD F
ĠÐº Ð°ÑĩÐµÑģÑĤÐ²
Ġn un
st o
1 00
Ð¸ Ð½Ð¾
Æ°á»Ľ ng
is p
ig t
Ġn ar
en ces
Ġcom ent
ĠÄĳ iá»ĥm
ÑĤ ÑĢ
Ð¿ÑĢ ÐµÐ´
Ġlook ing
ä» ¥
3 2
Ðº ÑĢÐ°
Ġs ci
IN G
Ġwork ing
ãģ§ãģį ãĤĭ
Ġan os
Ġh al
éĢ ģ
ĠP S
Ġre present
Ġf ol
ç ½
es a
ĠÐ¿ÑĢÐ¾Ð¸Ð· Ð²Ð¾Ð´
Ġ20 00
7 4
Ġser Ã¡
Ð°Ð¶ Ðµ
ur t
Ġp ad
Ġpartic ular
Ġz m
Ġdi ese
Ġnom bre
or g
b all
ĠÐ¾ Ð½Ð¸
or no
Ġ$ (
ĠPub lic
om men
Ã¤ ch
Ġpr est
x y
Ġce le
e j
Ġnatur al
ĠÐ¿ÑĢÐ¾ ÑĨ
ec er
Ġt urn
ÐµÑģ Ð¿
ÑĮ Ñı
Ã¼ t
oc ia
Ð» Ð°Ð¹Ð½
8 4
Ġit al
ĠM ot
Ġcour se
Ġre ci
Ġs om
ÑĤ Ðµ
iej s
Ð Ĺ
ĠJo hn
hl en
Ġter min
æľ Ł
ãģĪ ãģ¦
Ġcer tain
o o
è¨ ĺ
ãĢ ħ
st aw
ĠÑĥ Ð²
ĠI hr
Ġmol to
Ð¼ Ñĭ
hn en
Ð¾Ð² Ð¾Ð¹
å Ł
Ġb áº±ng
Ġe j
ĠPar is
è Ī
Ġg an
ett ing
Ġ4 00
qu ip
ĠÂ ¾
Ġï¿½ ï¿½
Ã¡ g
ra ft
ĠÂ º
Ġgar ant
ĠG ener
ç ¥
Ã§ as
ĠÑĩ ÐµÐ¼
Ġmak ing
b be
O C
Ġv ie
Ġ( '
ĠÐĿ Ð¾
Ġk áº¿t
ci os
ÑģÑĤ ÑĢÑĥ
ÐµÐ½ Ð½ÑĭÑħ
Ã İ
ĠS T
ÐµÑĤ Ñĭ
h ol
Ġthá» ĭ
Ġartic le
åĮ ĸ
Ġsm art
Ġqu esta
Ġt Ã¢m
Ð· ÑĭÐ²
Ġm ont
ud ad
Ġpr ess
ĠÂ ¸
Ġprofess ional
ĠT R
az on
Ġs ar
Ġth áº¥y
å İ
Ġe f
Ġg Ã¬
áº£ nh
Ġch á»§
pl es
Ġw el
Ġa pro
Ġcomp ar
ĠM ens
am en
f all
Ġp ut
Ġnot re
Ġto Ãłn
Ð¾Ð½ Ð¾Ð¼
ĠC D
Ġï¿½ ï¿½ï¿½ï¿½ï¿½
Ġtyl ko
Ð°ÑĢ Ð¸
Ġtiem po
Ġph Ã²ng
Ġw ys
g round
ĠÐĲ Ð½
ad t
ãģĦ ãģĦ
Ġgo vern
ist ra
us z
in ks
Ġass ist
ĠÑģ Ð´ÐµÐ»
ĠÐ¸Ð¼ Ðµ
Ġt áº¿
ÅĤ em
re i
ir l
ter ior
é ķ·
Ġm ie
ÅĽ cie
ĠCh at
ĠB on
ĠPl ay
Ġab r
ĠSa int
Ġt á»ĳt
s en
n et
Ġem p
ĠW er
Ġh iá»ĩu
ĠP L
ĠK l
Ġh ouse
Ð¸Ñı ÑĤ
ãģ« ãĤĤ
Ġo pport
Ġãĥ ¡
áº¯ ng
çŁ ¥
åĪ ©
ou d
ĠS ur
ĠQ ual
ill s
ĠR ad
Ġb áº£o
Ð°Ð½ Ñģ
Ġres earch
ĠEs c
Ġt Ã¡c
Ġtod ay
ĠÐ¿ Ð¾Ð¿
Ġd ot
Ġest ar
ig keit
Ġvi ol
eng th
ĠU hr
Ġ: )
ĠÄĳ á»ĳi
a Ã±
3 4
ĠãĤ ¯
Ġus o
Ġra p
ĠF ir
un ta
Ġindivid ual
Ġma il
i Ã¨re
Ġtiáº¿ p
je kt
Ġç §
ãģ£ãģ¦ ãģĦãĤĭ
ĠC ity
ä½ ķ
Ġchild ren
........ ........
ol f
Ġæ Ŀ
iem bre
Ġob s
è© ±
Ġele ment
Ġc ard
ĠÐ¿ÑĢ Ð¾ÑĤ
Ð¾Ñģ Ð¾Ð±
Ġinter est
Ġco ver
Ġng o
ı ¾
U M
ĠS l
Ġh á»Ļi
Ġass oci
ÅĤ am
éĿ ¢
g ar
Ġp ur
Ã§ os
ĠA R
å¼ ı
ĠÑĤ ÐµÑĢ
um b
er y
ĠÄĳ Æ°á»Ŀng
Ġth iáº¿t
Ŀ Ģ
Ġg ut
Ġs ize
ãĥ¼ãĤ º
Ġmes mo
Ġ6 4
ĠI B
Ġstud ents
ĠÐ¸ Ð³
ÑĢÑĥ Ð·
ĠR om
ĠÐ½Ðµ Ð¾Ð±ÑħÐ¾Ð´Ð¸Ð¼
Ġ Å¼y
un que
Ð» Ð¾Ð¶
è §
ĠPl us
p tem
T ER
ĠÐµ ÑīÐµ
z ed
ãĥ ı
ĠÐłÐ¾ÑģÑģ Ð¸Ð¸
ĠÐ± ÑĢ
Ġtá» ķ
Ġw r
ç« ĭ
Ġre view
ĠCh ar
ĠC ast
Ġc áº§u
ãĥª ãĥ¼
c iones
2 00
j u
ve is
S t
Ġta x
ĠãĤ ¤
amp le
Ġlo áº¡i
atur es
z n
å¿ ĥ
ec ut
Ñı Ð±
Ġ Å¼
Ġ6 9
Ð² ÐµÑģÑĤ
ĠK om
Ġt Ã¬nh
ãĥ İ
ãĤĮ ãģŁ
Ġv iv
Ġpre mi
ĠâĦ ĸ
ĠÑĤ Ð¾Ð¼
ĠÃ ·
Ġn ull
Ġn ay
ig os
èĢ ĥ
ĠM at
od a
al ement
ĠE le
Ġ": {"
á»Ń a
Ġå °
Ġquest ion
ĠS and
Ġval ue
Ġunder stand
um ento
Ġr ich
Ġb Ã¡n
ĠP RO
Ð°Ð½ Ð°
Ġvá» ĭ
áº¡ c
ĠÐ¿Ð¾Ñģ Ð»Ðµ
Ġl arg
Ã Ĩ
Ãª s
v r
Ġmo Å¼e
Ġsul la
ĠÐ¸ ÑģÑĤ
5 9
Ġa h
b ie
Ġas k
Ġeas y
Ġis so
Ġbr ing
Ã³ m
ãĤ ½
el es
et her
te il
Ġd im
as ed
é£ Ł
Ġm oney
ĠÑĤ Ð¾Ð³Ð¾
å¤ ī
ĠTh ese
ĠIn s
Ġt ÃŃnh
Ġp df
c to
Ġt iá»ģn
Ġide a
ir os
ĠD own
ÅĤ u
Ġz n
ĠH ar
we i
ĠSt ud
ĠIt al
N G
Ġa inda
ap t
un o
ÑĢ ÐµÐ´
no ÅĽÄĩ
Ġs ac
Ġs an
Ġaut res
Ġperf ect
Ġneed s
Ð¾Ð¶ Ð´
Ġinst al
Ġen f
end ed
ĠÐĶ Ð»Ñı
ĠA P
Ġcon ten
æ ®
ä¿ ¡
wi Äħ
ĠÐ° Ðº
Ġst ato
er ta
Ã «
Ġg re
h am
iz io
Ġpop ular
em ente
Ġjp g
ÐºÐ°Ñĩ Ð°ÑĤÑĮ
ãģĭ ãģª
s ka
ĠãĤ ¨
Ġl ic
ĠÃ´ ng
ĠÐ¿Ð¾ Ñĩ
pr ise
Ġwid th
Ġt ien
at ro
uyá» ĥn
Ġn ap
ĠÃ Ĭ
Ġbe h
ĠÄĳ o
æ ©Ł
i Ã³
ÐµÐ½Ð¸ ÐµÐ¼
ĠT ur
åľ ¨
AN D
Ġlug ar
gr ess
Ġ Þ
Ġå į
ĠP as
ic ia
Ġv u
Ġd ÃŃa
Ġen joy
Ġf ond
Ñĥ Ð²
ĠÐŁ ÐµÑĢ
unic ip
Ġt áº¡o
ĠÐ»Ñİ Ð´
ig u
Ġp m
Ð°Ð» Ð¾
ĠÃ Ħ
y e
Ġre du
èī ¯
st a
Ġl oro
ific ation
et ta
Ġal t
3 1
Ġempres a
Ġl ow
Ġhá» ĩ
Ð¾Ñı Ð½
Ġb áº£n
Ð½Ð¸Ðº Ð°
n os
il ia
Ġtr ue
Ġju Å¼
Ġs ia
Ì ī
ier ung
Ġe dit
Ġall ow
s h
d ing
ĠÄ ĥn
ĠM adrid
Ġs og
ĠÑģÑĤ Ð¾
na j
Ġrec omm
Ġl leg
ĠÐľÐ¾ÑģÐº Ð²
ĠF eb
Ġprost itutas
h od
ĠC amp
Ð°Ð» Ð¾Ð³
Ġth Ã¡ng
Ġqu áº£
ind o
ĠH om
Ġper d
ĠT est
Ã ¯
ĠÐ¼ Ð¾Ð´
Ġm ich
ÐµÐ½ Ð½ÑĭÐµ
ãĥ ľ
Ġtut to
è «
å¼ ķ
ul es
ĠRe p
i amo
ĠÑģÐ¿ Ðµ
Ġ6 6
ĠÐ¿ÐµÑĢ ÐµÐ´
rol l
ĠÐº Ð°ÑĢÑĤ
Ġpol ÃŃt
m b
Ġj us
ĠB an
æł ¼
Ã©c n
Ð¾Ñģ ÑĥÐ´
th ers
Ġd ate
ĠB el
g ra
æ´ »
ĠÃ Ĵ
at ti
w iet
ãĥ ļ
Ġent er
ĠD ur
v Ã©s
ul ation
Ġ12 0
Ġk il
Ð½ ÐµÐµ
Ġo hne
ĠÐ¾Ñģ Ð½Ð¾Ð²
Ġ ~
ĠÐ½Ð° ÑģÑĤ
Ġacc ord
Ġcor r
as i
wit ter
Ġan tes
ĠÐŃ ÑĤÐ¾
in ar
lic k
Ġal tern
ĠK o
ĠÑĥÑĩ Ð°ÑģÑĤ
Ð¾Ð²Ð°Ð½ Ð¸Ðµ
Ġn ada
ĠS am
ĠãģĿ ãģ®
ãĢ Ĥ
ĠÐ² Ð¾Ð¿ÑĢÐ¾Ñģ
ĠF ree
ĠF am
ib les
Ġminut es
Æ° u
Ġd á»ĭch
Ã¼ ss
Ġenvir on
Ð³ Ð¸
Ġcre ate
ĠEs te
Ġim ages
Ġm iejs
Ġra z
w h
Ġf est
Ġb ody
Ġp oco
abil ity
ĠÐº Ð¾Ð³Ð´Ð°
ĠÑĤ Ñĭ
ãģ£ ãģ¨
Ġv it
ĠL oc
Ġu0 43
Ġgi Ãºp
g est
Ġpro jet
L C
ĠÄĳ iá»ĩn
Ġbard zo
Ã¤n d
Ĩ åĵģ
æ ¬
Â ¡Â
b ack
ill o
ĠS on
ĠÄĳ áº¹p
ĠÑģ Ð¾ÑģÑĤÐ°Ð²
Ġãģĵ ãģ®
ãģķãĤĮ ãģ¦
al er
ĠP an
Ġgrand es
t or
Ġeff ic
Ð¾Ð» Ñı
get her
Ġmay or
ul as
ĠD av
Ġä¸ Ģ
ĠÐ¿ÑĢ Ð¾Ð±
ĠÐ° Ð´
ĠÐ´ ÐµÐ¹ÑģÑĤÐ²
Ã¬ m
Ġw ind
Ð¼ Ñĥ
Ġas ÃŃ
ĠÃ Ļ
Ġph áº§n
ab y
Ġv ai
å §
Ġmus ic
Ġtem ps
Ġc Ã´
ĠP M
ĠÐ¾Ð½ Ð»Ð°Ð¹Ð½
ens ion
ãĥ ¤
ĠãĤ Ĵ
ĠÐ¸Ð½ ÑĦÐ¾ÑĢÐ¼
ĠÃ ¤
Ġa way
Ġfoc us
ĠS en
ãģĿ ãģĨ
un ch
ab r
7 2
ï¼ Ĵ
æĺ İ
ien s
ĠEn t
çĶ °
Ãº mer
y p
ic ios
Ġx xx
ort s
Ġat ra
ie ve
ir s
Ġs ide
ĠK r
if i
Ġsp raw
Ġal ong
g u
ĠUnivers ity
cel ona
in ation
Ġm ant
Ġa Ã±o
ĠÑħ Ð¾ÑĢÐ¾ÑĪ
uch t
Ġs enza
Ġ> <
ÑĢÐ° Ñī
Ñ ĸ
ic ol
Ġm ind
Ġjed n
Ã³ j
3 8
ĠIn t
Ġhá» ĵ
ä» ¶
Ġval or
Ġf ont
ĠG esch
Ġcr Ã©
T C
u ck
ĠÐº Ð°Ð¶Ð´
Ġwe iter
Ġl ik
ĠÐ¼Ð°Ð³ Ð°Ð·
ĠÑįÑĤ Ð¾Ð³Ð¾
ri que
ĠÐ² Ðº
ãĤ Ģ
Ġco ok
Ġ ^
è² ·
Ã ¥
Ġsh are
ãĤĭ ãģ¨
Ġa par
Ð½ Ð¸Ð¼
ĠÐ½ ÐµÑĤ
ĠÂ ¬
ĠG od
Ð»ÐµÐºÑĤ ÑĢ
w as
Ġw sp
6 4
Ġp ic
6 8
fÃ¼ hr
ect or
ÅĽ li
ĠÐ» ÑĥÑĩÑĪ
le m
Ġpu Ã²
i ar
è¡ ¨
ĠAr ch
ĠD an
ch od
ĠÐĲ Ð»
Ñĥ ÑģÐº
ill er
ĠÃ ¶
Ġ äº
Ġil s
Ġh ace
ĠS Ã£o
ĠÐ±Ñĭ Ð»
Ġch á»©c
ow ego
Ðµ ÑģÑı
Ġd ic
Ġtá» Ľi
Ġdistr ib
ien ce
Ġtra va
á»Ļ ng
Ġ ill
c ont
Ñı Ð¼
Ġcon se
) ,
ĠAr beit
Ġqu ot
Ġt imes
Ġph ÃŃ
Ġä¸ Ń
ĠÐ· Ð°ÑĢ
Ñį ÑĤ
Ð¾Ñģ Ð¿
ani u
Ġdeter min
Ġå ľ
it Ã¤t
ĠC Ã´ng
ĠH igh
Ġspec ific
Ġcent ro
Ġtr ang
Ġth o
ĠW ill
Ã©l Ã©
¬ ¬
if ul
ĠÐºÐ¾ÑĤÐ¾ÑĢ ÑĭÐ¹
Ð° Ñİ
Ġto gether
ĠS em
Ð¾ Ñħ
ĠR E
ĠA D
çĶ £
el i
Ġd ess
Ġ ig
Ġ. -
Ġth Æ°á»Ŀng
Ġs ido
Ġgener al
çĽ ¸
il ar
ĠÐµ Ðµ
Ġ200 4
Ġcomm unity
æĦ ı
up t
á»Ł i
op h
ĠÐ±ÐµÑģ Ð¿Ð»Ð°ÑĤ
Ġperson as
Ġpr ix
ĠV ous
i am
Ġf ur
ĠÐº ÑĥÐ¿Ð¸ÑĤÑĮ
Ġn ature
Ġsing le
Ġfaz er
Ġk ind
ra y
ĠÑĤ Ð¾Ð²Ð°ÑĢ
O V
Ġf are
____ ____
Ġp ack
ward s
um a
ament os
Ġg as
ÑıÑĤ ÐµÐ»ÑĮ
por te
ient os
le ge
eit o
ag li
Ġgr ad
ag n
ÐµÑģÑĤÐ² Ð¾
re z
Ġwor ks
ch ni
O G
ĠÐ´ Ð¾Ðº
ĠÑĢ ÐµÐº
Ġqu anto
Ġhe ight
Ġback ground
s ter
Ġse us
ĠÅ ļ
ĠÄĳ áº¡i
ĠÐ²Ð¸Ð´ Ðµ
çķ ª
Ġf lo
Ġãģĵ ãĤĮ
ill es
c ych
ire d
Ðº Ð¾Ð¼
ÐµÑĤ Ðµ
Ġgi áº£i
ĠG en
ĠUn d
ĠT re
Ġfiles _
Ġ} .
ãĥĨ ãĤ£
Ġb á»ĩnh
Ġf ace
Ġro ku
Äħ d
Ġch u
Ġg Ã©n
è¾ ¼
ÅĤ os
Ġan c
L A
Ġd in
I m
us o
Ñı Ñī
k ÄĻ
) )
Ġãĥ ĳ
Ġs ang
ĠrÃ© g
aj a
ĠQu á»ĳc
Ġal go
Ġph Ã¡p
Ġinclud e
Ġof ten
ĠC i
ãĥĥ ãĥī
ĠWor ld
a ires
Ġt an
ĠB ew
3 7
Ġv ent
Ñĭ Ð»
è» Ĭ
ĠC ur
Ġun til
Ġt reat
Ã ĳ
ad en
ĠÃ©ta it
i w
ĠS ystem
Ġc at
ĠD en
Ġcand id
v ere
ĠY ork
ard e
Ð°Ð»ÑĮ Ð½ÑĭÐ¹
Ġinter es
Ġdisc uss
Ð¾ÑĢ Ð¾Ð²
Ġtr á»ĭ
Ġho áº·c
Ġse ver
Ġloc ation
ĠTe chn
ĠÐĲ Ð²
Ġd Ã¹ng
ÐµÑĢ ÑĤ
ab ly
Ġè ĩª
Ġd all
Ġuns er
Ġpro ces
ĠP at
áº© n
ĠbÄĻd zie
Ġp le
Ġgiá» Ľi
urs os
ĠL ond
Ġãĥ ª
éĽ Ĩ
Ġinter ess
o te
ach t
iv ed
ĠR el
M A
Ġg el
ĠS ta
ĠÐļ Ð¾Ð¼
Ġposs ibil
ian te
Ġk áº¿
ãĥķãĤ ©
ãĢ ģ
Ġ8 9
ag s
Ġse a
pp e
ĠâĢ ĭ
ant as
ÑĥÑĤ ÑĮ
ĠAf ter
ow ane
Ð½Ð¾Ð¼ Ñĥ
Ġ ãģĦ
å¿ ľ
Þ ¦
Ġt as
un ter
ĠãĤ Ń
ĠÐ² Ð°ÑĪ
æĥ ħ
ent r
ãĤĵ ãģ§
ãĥ» ãĥ»
r Ã¡
Ġse arch
ĠM en
Ð³ Ð¾ÑĤÐ¾Ð²
Ġein fach
Ġperi od
en ci
ik i
ri as
ãģ¡ ãĤĥ
ĠNew s
ÃŃ o
id ence
ĠZ ap
ĠF ar
Ġav ant
Ġc ode
á»į c
Ġwh y
ÑĦ ÑĦ
ÅĤ Ã³w
ĠH Ãł
ĠÑģ Ð¾Ð·Ð´
à ³
Ġke ine
ãĤ ¶
éģ ¸
ing er
olog ie
Ġf uer
å ĥ
åĲ Į
Ġkh u
is o
ĠÐ½ ÐµÐ¿
ur ance
Ġog ni
Ġa os
Ġf all
Ġsc r
D A
ĠR os
æĸĻ çĦ¡æĸĻ
Ã¤ s
Ġv el
eg a
Ġjak o
Ġnew s
ãģ ĸ
ÐµÑĢ Ñĭ
Ġm uss
Ġa ver
ãĥ³ãĤ ¿
our ces
un es
Ġt ar
å ŀ
ab ile
Ġlá»Ľ n
b urg
Ġcle an
æĽ ¸
Ġ Ã¡n
Ġsu o
Ġmod ern
á» ¹
Ġrec on
ĠU ne
ĠÐĲ ÑĢ
ãĥ¼ ãĤ¯
Ġso ftware
p ad
ĠP AR
Ġm am
Ġin g
Ġbre ak
Ð» Ð¾Ð²
auf en
Ġproc ed
Æ° ng
as z
an cia
aus s
w s
Ġdis co
ĠÐ° ÐºÑĤ
hal ten
ĠÐ¼ÐµÐ½ Ñı
ĠÐ¾ÑĤ Ð½Ð¾
Ġr Ã³w
u est
åĬ ł
åĳ ³
Ġpro mo
ĠDe utsch
Ġpos ition
Ġnh iÃªn
ĠB es
u ff
ĠJ ak
ow i
m itt
é §
g io
zy m
ĠÐ· Ð°Ð±
c in
Ġpre fer
ĠBo ok
Ġha ving
id ing
pu is
Ġx em
ĠA ustr
Ð¾Ð» Ð¾Ð´
Ġar m
ĠÑĦ Ð¾ÑĤ
Ġc art
ple ment
er d
c as
Ġ< /
il ity
á»į ng
Ġde ve
Ġs ym
Ġãĥ ©
Ġm og
Ġc ant
Ġt ay
Ġk le
ĠP et
Ġfr ont
ĠF em
Ġa plic
Ġro b
ãģı ãģł
Ġcáº£ m
ĠÐĿ Ðµ
Ġst op
ÑĨ Ñĭ
Ð°ÑĤ Ð¸Ð²
åĭ Ļ
ãģ«ãģ¤ ãģĦãģ¦
ĠO f
Ð¸ÑĤ ÐµÐ»Ñı
Ġt ener
U B
Ãª te
bo ok
Ġãĥ Ĺ
j on
im on
Ġm ia
Ġb ere
áº§ m
Ġm ua
ill as
Ġï¿½ ï¿½ï¿½
ĠR Ã©
Ġå ¹
Ð¾ Ð½Ñĭ
Ġãĥ Ī
Ġadmin istr
ĠIn f
ĠÐ¶ ÐµÐ»
Ġ25 0
ÐµÐ½ÑĤ Ð¾Ð²
ic le
Ġquest ions
Ġch á»įn
è µ
k er
v in
Ġthá»© c
Ġstr ateg
ãģ® ãģĭ
Ġcons ult
ĠEs pa
ĠW as
= =
ĠD em
Ġc Ã¡i
C E
Ġ, âĢĿ
ĠL ong
or zy
ÃŃ an
Ð°Ð»ÑĮ Ð½Ð¾Ð³Ð¾
Ġbl ack
Ġp Ãºbl
ÐµÐ½ Ð½ÑĭÐ¹
áº ³
ĠA nh
i ÃŁ
y pe
ul s
Ð¸ÑĤÐµÐ»ÑĮ Ð½Ð¾
» ¿
Ġc ell
i qu
Ġæ ĺ
Ġdo anh
á» Ľ
Ã´ m
Ġinvest ig
ut i
ĠJ es
ĠÐ¿ÑĢÐ¾Ð³ ÑĢÐ°Ð¼
Ġpres idente
ĠÑĢÐ°Ð±Ð¾ÑĤ Ñĭ
re et
v ia
Ġc ity
Ġdies er
Ġte ach
Ġt áºŃp
Ġhum an
an Ã§a
u ent
Ġdis e
Ġra pp
m p
ĠZ a
ĠÐ³ Ð¾ÑĢ
Ð¾Ð» Ð¾Ð²
ç İ
y a
ou p
Ð¸ÑĩÐµÑģÐº Ð¸Ðµ
ĠÃ© g
d zie
Ġm ismo
Ġd one
r Ã©
et h
em p
ĠTe le
Ã© o
b um
j our
Ġ áº£nh
æ º
M S
ĠA p
Ġke y
Ġ6 00
otog raf
u z
c os
Ġc y
or ge
ĠN ous
u elle
** **
éģ ĵ
Ġre v
ãĤ¤ ãĥ³
ĠTr ung
n ic
er ca
Ġfir m
u zione
Ġma jor
ÐµÑĢ Ð³
Ġbo x
Ġqu Ã¡
Ġso us
ĠéĢ ģ
Ġ Ã³
8 2
v il
Ġg ente
Ġde dic
Þ¦ Þ
Ð¸ÑĩÐµÑģÐº Ð¸Ñħ
Ã¼ hr
Ġ ud
en en
å± ±
ens ive
ĠS ub
iá»ĩ m
op er
s el
ãģĮ ãģĤãĤĭ
ĠÑĢ Ñĭ
ĠÐ³ Ð´Ðµ
ett re
ĠY our
ĠB ro
Ġæĸ °
Ġy Ãªu
h os
ĠF a
Ġm ens
ation en
ad er
ĠåĲ į
Ġag o
Ġ8 00
Ð¿ ÐµÑĢ
ist en
æŀ ľ
Ġcomp an
on to
Ġc Ã¡
Ġw atch
agg i
ĠÑħ Ð¾ÑĤ
ĠSch ool
ĠÐ¼Ð°ÑĤ ÐµÑĢÐ¸
Ġ7 9
Ñı Ð½
Ġb in
omb res
ÑĪ Ðµ
z d
Ġav oir
ĠÐ» Ð¸ÑĨ
ãĤĪãģĨ ãģª
ĠÑģÐ² ÑıÐ·
Ġinf o
ĠBl og
Ġcont ro
ure d
Ġstud y
Ġb er
h and
Ġal iment
ĠÐ¿Ð¾Ð¼ Ð¾Ñī
ĠI ng
ÑĢÑĥ Ð¶
Ġagain st
æ¥ ½
Ġth ing
Ġact ual
ĠI P
åı £
cha ft
Ð°Ð»ÑĮ Ð½Ð¾Ð¹
iem pre
zi ÄĻ
Ġdevelop ment
éĽ »
Ġg egen
Ġob ject
\ /
ar ing
ãĤĪãģĨ ãģ«
ic ros
C O
Ġser a
Ġim ag
Ġsa o
ist ro
uts che
ĠSt ar
Ð¼ ÐµÑģÑĤ
ĠãĤ Ĥ
ĠÑĨ Ð²ÐµÑĤ
ĠGr and
ãĤģ ãģ¦
Ġt uy
Ġå ½
Ð¼ ÐµÑĤ
Ġæľ Ģ
ur ity
ĠÐŀ Ð´
Â ´
Ġim pos
ãĥª ãĤ¢
ra p
Ð¾ÑģÑĥÐ´ Ð°ÑĢ
Ġme ans
Ġf ix
Ġabs ol
b an
ĠÃ į
Ġdig ital
ĠAmer ican
ÐµÐ½ Ð½Ð¾Ð¹
ĠÑģ Ð¾ÑģÑĤ
Ġm iss
ist i
ĠF est
ĠF eder
Ġse par
Ġpat ient
Ġotr os
Ġå Ī
Ġam o
Ġc ro
und a
n ers
Ã³r ia
ãģĹ ãģĭ
S I
Ġp ob
Ġv áºŃy
Ġtod a
Ġocc as
Ã³ Å¼
Ð½Ð¾ÑģÑĤÑĮ Ñİ
ÐµÐ³ Ð¾Ð´
is ing
ier o
ers e
ap s
Ġf ast
Ð¿ÑĢÐµÐ´ ÐµÐ»
ĠH owever
Ð½ Ð¸Ð¹
ĠÐ¸ ÑģÐº
ĠI T
æĸ ĩ
ct or
st ru
é ĺ
Ġj ug
Ġæ °
Ġqu ick
Ã¡ vel
Ġb ad
âĢ ĭ
ãĥĥãĤ¯ ãĤ¹
Ġdis play
ĠiP hone
Ġâ Ļ
Ġo pp
ion en
ins i
ĠÑĢ Ñĥ
it ure
zÄħ d
id ay
Ġmak es
Ġ100 0
Ġa ud
Ġinv ol
ĠI de
ent lich
Ġsp ace
ĠE L
Ġf it
Ð¸Ð± Ð¾
ç ®
ac je
Ġth á»§
ĠPl an
is tem
6 7
ĠA kt
k te
Ġs en
Ġz ona
79 66
Ġh ot
ĠP ap
ob il
Ġmarket ing
Ġf ine
Ġt Äĥng
ac a
ĠãĢ ı
Ġv ec
if s
ĠCl ass
ier on
Ã¡t ica
ĠS z
Ġac count
ĠÃ Ĳ
v as
g in
Ġinst it
ĠInst it
w ick
Ġm igli
ĠCh ina
Ġdent ro
ĠÑģÐ¾ Ð¾Ð±Ñī
Ġ07 7966
Ġv áº«n
Ġi hre
ÐµÐ½ÑĤ Ð°
Ġfun cion
Ġt Ãłi
ars i
ÑĥÐ± Ð»Ð¸
Ġpesso as
Ġqu ar
Ġmem bers
ĠM ujeres
Ġne i
ÑĨ Ð¸Ð¹
ver no
re ady
ÐµÐ½ÑĤ ÑĢ
Ġc á»©
0 1
ĠJ os
tr on
ol or
Ġdel iver
çĤ ¹
åķ ı
em Ã¡s
Ġstr ong
IC A
Ġest Ã¡n
Ġç§ ģ
Ġmob ile
Ġur l
und e
Ġhor as
acy j
osp ital
ĠÑıÐ²Ð»Ñı ÐµÑĤÑģÑı
Ġph p
Ġin nov
Ġ ãģ¯
Ġz osta
Ġcon fer
ĠC Ã³
Ġh on
ĠÃ© c
ĠÑģÐ¿ Ð¾ÑģÐ¾Ð±
Ġsá»ĳ ng
ed es
ĠÐ¿ÑĢÐ¾ ÑĦ
Ġmel hor
âĢ ľ
ĠÐ¾ Ð½Ð°
ĠRe al
ĠA uto
Ġt on
Ġel se
á» Ŀ
Ã ĺ
ĠI hre
al o
Ġsu gg
ĠÐ´ Ð°Ð¶Ðµ
og n
Ġtem per
oc z
ĠÐ´ Ð¸
Ġbec ome
ĠN ow
Ġmuch o
ĠÑĩÐµÑĢ ÐµÐ·
Ġtr iá»ĥn
I F
æľ ī
ĠÐ» Ð¸
Ġprof es
uy á»ģn
ot ti
Ġf ield
ĠÐ¡ Ð¿
ç Ĭ
ĠE U
ç ³
ĠÂ £
if est
b ed
s elf
v ille
Ġ200 3
Ġp urch
ĠS pe
ag ne
Ġæľ ¬
Ġal m
ÐºÐ° Ñħ
è¨ Ń
Ð°Ð»ÑĮ Ð½Ð¾
Ġbe k
Ġs ort
ÑĨ ÐµÐ½
Ġgiá» ¯
r ich
ent ion
ien ie
Ġcl ick
b el
é ¨
« a
ĠT our
¢ º
ĠScar pe
ĠCl ub
Ġcas ino
Ð°Ð»ÑĮ Ð½ÑĭÐµ
Ġo thers
az z
Ġmu á»ĳn
Ġconc ern
Ġ] .
ãĤĪ ãĤĬ
ĠÐ½ÑĥÐ¶ Ð½Ð¾
qu ier
il er
Ġs or
Ġgi Ãł
ãģ¨ ãģ¯
ĠN eg
or ial
Ġf on
Ġde t
ÑĨ ÐµÐ²
ach e
Ġresp ect
ãģ Ĳ
Ġnorm al
x ico
Ġle v
ãĥ¼ãĤ ¿
ç ĿĢ
ĠÑĤ Ð¾ÑĢ
ÑĢ Ð¾Ñģ
Ġj un
Ġè ²
ĠÐŁÑĢ Ð¸
Ġcom pl
pp er
Ġsz cz
ĠÐ¡ Ð
Ġstand ard
P R
A A
ĠÐºÑĢ Ð°Ñģ
ĠÃ Ĥ
å ĸ
ell ing
ĠÑģ ÑĥÐ´
ĠS anta
O B
ãģł ãģ£ãģŁ
Ġen ough
ĠA B
in y
c za
Ġth i
l ig
Ġperform ance
Ġc iv
f ace
á» Ŀi
Ġus er
n d
O K
Ġcl ub
Ð¸ÑģÑĤ ÑĢÐ°
åĵ ¡
ãĥĥ ãĥģ
Ġn ight
ĠÃ İ
en ne
Ġm id
ĠP u
è º
Ġç µ
ac o
åŀ ĭ
5 4
ĠÐ¶ ÐµÐ½
Ġst ory
Ġn ell
Ġn at
o ft
ĠDown load
Ġk os
ia b
ĠÐ¸ Ñģ
Ġter ra
Ġor e
ÐµÑĢ ÑĪ
ĠÐ³ Ð»
Ġest ado
ĠD V
Ġe ver
Ġfut ure
ĠT ro
sk iego
i ers
ãģıãģł ãģķãģĦ
áºŃ u
Ð¾Ð± Ð°Ð²
åĪ ĩ
å± ĭ
Ġenc ore
æ° ´
Ġm ac
h op
Ġos ob
ass er
ing u
dit ional
ĠÐ· Ð°Ð½
Ġcli ents
áº¡ m
Ġtrans form
Ġapr Ã¨s
Ġl iÃªn
ĠÐ¿Ð¾Ð· Ð²
ĠJ ap
æ ¨
Ġst ay
ÅĦ st
ĠÐ³Ð¾Ð´ Ñĥ
ĠÐł Ð°Ð·
Ġcom es
em ble
ĠM c
ĠCom ment
Ġby Äĩ
Ã Į
Ġtro u
Ġå Ĩ
Ġdon c
Ġd Æ°á»
ĠR em
Ġcomp os
ĠS ing
Ġal ready
ĠÐ¾ÑĤ Ð²ÐµÑĤ
Ġj ul
Ġan o
Ã ¦
ne a
ĠAnd roid
Ã³ c
Ġç ´
Ð¸ÑĤ ÐµÐ»ÐµÐ¹
6 3
et y
ĠÐĺ Ð·
Ġph ys
om as
Ð¸Ðº Ð¾Ð²
as es
ĠAm azon
Ġh ol
ang er
Ġp en
ĠIn c
Ġex tre
ĠÑĢ Ð°Ð¹
Ġte Å¼
sk ie
A V
Ġam or
Ġ3 D
ĠÐ¼ Ð¸ÑĢ
Ġr ange
Ġcoun try
Ġth Æ°Æ¡ng
Ġsever al
Ð¼ Ð¸Ð½
b on
ord in
Ġac ross
Ġdo po
ĠÐ²Ñģ ÐµÐ³Ð¾
ĠSt and
ĠG ran
ell er
ĠN ational
Ġw z
ä¸ ĩ
ra b
Ġch er
aj es
Ġapp ear
Ġcap ital
g od
ĠÄĳá» ķ
ÑĢ Ð°Ð±Ð¾ÑĤ
Ġlav oro
Ġcl os
Ġapplic ation
ak t
icht ig
Ð¾Ð´ Ð°
ĠmoÅ¼ na
ig ur
Ġtit le
Ġb ie
Ð¿ Ð¾Ð»
ãģĳ ãĤĭ
Ġtrab ajo
S E
ĠÐŁ Ð¾Ñģ
ĠS w
ĠI r
ĠAn n
Ġint ro
ÅĽ my
h ib
ÐµÐ½ Ð¾
pl ac
ith er
Ġw alk
ãģ« ãģĬ
ff ic
Ġt Ã¬m
ĠN Ã£o
Ġa ction
Ġba o
ãĥĥ ãĤ·
ĠÐ¾Ð±Ð»Ð°ÑģÑĤ Ð¸
Ġw iel
lish ed
Ġãĥ ı
end s
z ec
ĠO k
a ft
[ ]
Ġn ut
Ð°Ð´ Ð¸
Ġde pend
Ġvers ion
ne hmen
æ ĭ
Ġcos a
U D
?? ??
Ãĥ O
bo x
ams ung
Ġw in
Ġda v
ãĤĴ è¦ĭ
Q U
ual es
iá» ħn
Ġbeaut iful
Ġad ult
ç´ Ħ
per t
ier te
Ġme an
ĠÑĥÑģÑĤ Ð°Ð½Ð¾Ð²
ĠApp le
ãģĵ ãĤį
Ġé ĩ
Ġp unto
Ġst ra
Ġcal led
æ ħ
Ġbel ow
l ass
ĠApr il
Ġbe im
ĠC op
ĠA G
Ġfo is
Ġb Ãłi
Ġ\" :
ãģĦ ãģ¾ãģĹãģŁ
li que
ĠDE L
u ar
Ġc itt
ĠF otos
Ġt w
h ar
Ġch icas
is ed
Ġcon ven
Ġo Ã¹
ab l
Ġproble ma
è² ©
ru ck
ÑģÐº Ð¾Ð¼
I Z
Ġr it
te ment
an as
Ġcz ÄĻ
Ġaut hor
Ð² Ð¾ÑĢ
empl o
Ġpo z
Ġp ict
é¡ Į
I B
S T
ĠÐ¿Ð¾Ñģ Ð»ÐµÐ´
ĠÐ³ Ð»Ð°Ð²
Ġcom unic
ĠServ ice
ãģ§ ãģĹãģŁ
Ð°Ð¹ÑĤ Ðµ
ow ym
ä» ķ
Â ¿
ĠF Ã¼r
9 5
Ġdr ug
iz ar
Ġres ol
Ġmin im
ĠG ew
Ġc ad
Ġh ours
4 7
Ġv ari
ir as
j ores
l ung
N E
re ib
Ġph oto
U P
Ãºmer o
Ġdes ar
ĠOr gan
Ġqu Ã©
ch te
Ġh Ã¡
r ad
ĠÐ² Ð°Ð¼
us ta
Ġn ich
ĠÐºÐ» Ð°ÑģÑģ
Ġes o
ç Ĺ
Ġg etting
ĠN et
k m
Ð¾ÑĢ Ð¸Ð¸
Ġl ater
ãģĹ ãģı
Ġm ix
Ġal ta
éĢ £
Ġs iempre
arg et
Ġc it
ut to
Ġal tri
ãĥ³ ãĤ¹
ac to
Ġ ib
ÑĭÐ¼ Ð¸
ĠM ess
dit ions
ãĥķãĤ ¡
og raf
Ð¾ÑĢ Ð°
4 2
Ġse ason
Ġoff ers
h aus
a el
ob ile
Ġtrab aj
Ġaut re
ĠÑĨ ÐµÐ½
ĠM erc
x imo
ĠÐ¿Ð» Ð°Ð½
ĠL E
am men
ĠP ra
Ġtr á»įng
ĠAr g
Ġt alk
Ġpr ior
ÑĢ Ð¾Ð¿
á»ĵ n
ãĥ¼ãĤ ·
Ġãĥ ĩ
Ð¸Ð» ÑģÑı
çµ Ĳ
ter e
Ġlim it
ãģ® ãģĮ
ĠÃ§ a
ĠÑģ ÐµÐ¼
ĠCont act
Ġsp ot
ĠÐ¾Ñģ Ð¾Ð±
ĠÐ± Ð°Ð½
Ġr á»ĵi
Ġun ique
Ġfab ric
Ġon ce
Ġf ic
Ġci udad
Ð°Ð»ÑĮ Ð½ÑĭÑħ
Ġ} ,
Ġup d
Ġex ample
Ġgia o
ar beit
ĠÐ²Ñģ ÐµÑħ
ĠâĢ º
press ion
Ġz am
ĠDon na
ÐµÑģÑĤ Ð¸
Ġk it
in te
Ġtra ck
ĠÐ¿ Ð¾Ð»ÑĮÐ·
ĠN ike
wi ad
ãģ¨ ãģª
Ġwy k
é Ł
Ġl áº§n
ãģĳ ãģ©
n ot
Ġt Ã©cn
Ġk aÅ¼
Ġter r
Ġein es
ç¶ ļ
ãģĳ ãģ¦
Ñĭ Ñĩ
8 1
Ġdec or
ĠCas a
ÐµÐ³Ð¾Ð´ Ð½Ñı
h ec
Ġreg ard
o x
ĠM A
ĠU p
áº³ ng
cl ar
N A
Ġanc ora
ãģ İ
Ð¸ Ñī
ĠN av
Ġwy d
ĠS et
Ġtra vel
Ġph otos
it ions
ĠH ist
çĶ º
ãĤ¤ ãĥ«
k ing
il der
Ġz as
Ġseg ur
ĠSoc ial
Ñı Ð¶
ãģĭ ãĤĬ
Ġve h
Ġf oto
ĠP i
ĠÃ© p
z em
ĠÑģÐ¾ Ð¾ÑĤ
F F
iáº¿ u
Ġh old
Ġ ÅĤ
Âµ ÃĦ
ess ion
ĠM el
Ġg anz
Ġde p
Ġr end
ĠW ie
re m
zie j
im er
S S
Ġresult s
nie Å¼
ĠÐ ®
Ġtá» ī
Ġbe au
Ġcu enta
ĠMa x
Ġb Ã¡o
z ion
Ĵ Į
ãģ® ãģĬ
Ġenc uent
Ġb iá»ĩt
ig r
ÑıÐ± ÑĢÑı
Ġopt ion
Ġcompan ies
å ¢
Ġopt ions
ĠR et
Ð°Ðº ÑĤÐµÑĢ
ĠV ia
ĠÐŁ Ð¾Ð»
Ġse i
ĠIntern ational
ĠÐ¼ ÐµÐ´
Ġman agement
ff en
Ġr ip
Ġtem por
ĠT u
Ġh Ã³a
Ġvers ch
ĠR oma
Â «
ĠS pr
ob ier
Ġé Ľ
å¾ Ĺ
å Ĥ
ast ic
Ġide al
æ Ĥ
ĠPa ul
j os
åĲ ĳ
Ġcon tain
Ã© p
Ġsem ana
Ġh ost
Ġdi f
Ġb ag
Äħ Å¼
ĠG R
w ort
Ð» ÐµÐ¹
Ġvol ta
Ġth á»ĳng
Ġth Ãªm
w iÄĻ
ĠÐ· Ð½
is i
ĠÎ Ķ
ad em
ĠÐ· Ð½Ð°Ñĩ
Ġngh Ä©
or to
ĠÐ¿ÑĢÐ¾ÑģÑĤ Ð¾
Ġm Ã£
æĻĤ éĸĵ
Ñı Ñģ
ĠB al
s ide
Ġmod er
ĠB R
i ente
Ġreg ul
Ġd ont
A d
Ġf res
Ġç Ľ
Ġs ic
ãģ ¶
å ģ
Ġsit es
Ġ, .
Ġãĥ Ľ
ÑĥÑĢ Ñĭ
ĠMar ia
Ġl á»±c
Ġf arm
tr ib
ĠEuro pa
c an
pu Ã©s
Ġtr á»Ł
Ð°Ð» ÑģÑı
ĠFl or
eg os
Ġ ers
ĠÑĤÐµÑħ Ð½
w end
G B
Ġadd ress
um in
åı Ĺ
Ã ħ
ĠÐ½Ðµ ÑģÐº
ĠF oto
Ġnue vo
ĠÐ³ Ð¾Ð²Ð¾ÑĢ
Ġfind en
Ġde j
ĠãĢ İ
ãĤĵ ãģł
© ļ
it te
ic ion
ĠEn tre
Ġl and
Ġempres as
ĠÄĳ áº¥t
Ġdo ve
Ġå Ľ
ãĥ³ ãĤ¯
ĠÑĪ ÑĤ
ĠÑĥÑģÐ» Ð¾Ð²
å¿ ħ
ĠN acional
ĠK le
Ġreg ular
äº ¬
ĠUn ited
_ c
is l
Ġfriend s
Â ¹
Ð¸ÑĩÐµÑģÐº Ð¾Ð¹
Ġv ita
Ġqu ant
ĠÑį Ð»ÐµÐºÑĤÑĢ
4 1
Ġm icro
ĠéĢģ æĸĻçĦ¡æĸĻ
Ġti Ãªu
ind i
ĠÐ¾Ð´ Ð¸Ð½
Þ °
Ġe ing
Ġ, ,
Ġcer ca
it ud
Ġch á»ĭ
æĮ ģ
áº¯ m
ok o
al u
p f
Ġch all
z as
ĠÑģÐµÐ± Ñı
k Äħ
Ġtr ÃŃ
ãĢ į
Ð² Ð°ÑĢ
Ġc ru
ak er
ĠÐ² ÐµÐ´
Ġ Ñİ
icros oft
Ġdo ing
ĠP ass
ĠD ig
Ġpra c
å° ĳ
Ã¤ lt
Ġcon vers
ĠCh o
ĠÐ½ Ð¸Ðº
ÑĢÑĥÐ¿ Ð¿
ĠÐ¾ÑĤ ÐºÑĢ
ent ar
Ã¡r ia
Ð¸Ð½ Ñĥ
Ġbr and
èª ¿
ord o
å ³
Ġintern ational
Ġ: :
ĠL iv
ĠÑģÐ»ÑĥÑĩ Ð°
Ġn elle
ãģ«ãģª ãĤĭ
b and
IN E
Ġv áº¥n
iel en
Ġg ay
ĠÄĳ Æ¡n
Ã¬ n
est r
Ġem bar
c il
ĠæĹ¥ æľ¬
ĠÐ¼ Ð½Ð¾Ð³Ð¾
Ġsh op
Ġmet hod
¢ ¨
Ġãĥĸ ãĥ©
Ġindustr y
war z
as ter
Ġv Äĥn
en ze
Ġgiá» Ŀ
ãĥ¬ ãĤ¹
ĠÎĶ E
Ġt ip
Ġho áº¡t
áº§ y
Ġc um
Ġs qu
Ð¾Ð² ÑĭÐµ
Ġqu ien
Ġle ast
Ð´ ÐµÑĢÐ¶
ens a
ĠÑĤÑĢ ÐµÐ±
ãģ§ ãģĤãĤĭ
Ġinform aciÃ³n
ãĥ¼ãĥ Ħ
Ġv an
Ġu Å¼y
Ġrel ig
Ġ7 2
Ġest o
Ġserv i
Ġtak Å¼e
Ġex pos
è ±
Ð¾Ñĩ Ð½Ð¾
Ġv oy
Ġso und
å· ¥
Ġkn own
Ġd z
Ġc v
ĠS ci
Ð¸ÑĢÐ¾Ð² Ð°ÑĤÑĮ
Ġcomm unic
Ġv ir
çµ Į
Ġra g
c am
Ġ6 3
to bre
Ġcon te
row n
Ġb ott
Ð°ÑĤ ÑĢ
Â ½
Ġest r
ĠÐ¿ÑĢÐ¾ ÐµÐºÑĤ
Ġt ÃŃch
Ġ6 7
ãĥ¼ãĤ «
Ġhist or
Ġesp ec
Ġtr ung
ÃŃ d
ag ue
Ġsim p
Ġ8 8
ãĥĶ ãĥ¼
oc ol
bi ente
5 6
Ġevery thing
ãĤ ´
Ġv ÃŃ
Ġencontr ar
p ect
k ar
ĠÐ¸Ð½ÑĤÐµÑĢ Ð½ÐµÑĤ
Ġqu á»ĳc
Ġmult ip
Ġb lo
ic amente
ĠM u
Ġw en
ĠG re
Ġde al
ĠÐ²ÑĭÑģ Ð¾Ðº
Ġmerc ado
Ð¸ÑĩÐµÑģÐº Ð¸Ð¹
ac es
Ġv ista
ÐµÐ½ Ð½Ð¾Ð³Ð¾
ĠP el
e z
Ġs owie
Ġcom er
Ġde puis
Ġnh au
Ġmar ca
ra it
ĠS C
Ġ9 7
h es
Ġp lease
Ġdes en
Ð½ Ð¸Ðµ
ÑģÐ» ÐµÐ´
Ġcar r
cy j
ĠÐ¼Ð¾Ð³ ÑĥÑĤ
ĠJ ack
ãĤ¤ ãĤº
Ð ¯
ÃŃ f
Ġtiáº¿ ng
ĠL at
us es
Ġpo ints
ati que
Ġz ar
ĠPa ulo
çī ¹
ä½ į
us ammen
Ġfe atures
I d
è¿ ĳ
Ġper cent
Ġp utas
ĠW enn
äºº æ°Ĺ
Ġs ale
Ġor ient
abe i
Ã¤ l
åħ Ī
end ing
ĠUS A
Ġï »¿
we ise
ut h
ĠÐ¿Ð¾Ðº Ð°Ð·
Ġla bor
åł´ åĲĪ
ÅĤÄħ cz
om i
Ġl ors
Ġqu ello
Ġmo ins
iv itÃł
est s
ard en
Ġcre dit
ĠÑĢ Ð¾Ð´
Ġsu is
j as
ĠU K
ĠC O
ell t
Ġs atis
Ġon de
Ġ7 6
ĠÐ´ Ð¾Ð¿
ĠM P
re f
Ġcu á»Ļc
Ġgl obal
Ð¾ ÑĦ
ĠÐ¸Ð½ÑĤÐµÑĢ ÐµÑģ
Ġide as
ĠN á»Ļi
am enti
ĠÐ¾ÑĤ Ð´
Ġpod r
Ġap enas
Ġact ually
Ð¾Ð² ÑĭÑħ
å¥ ½
Ġpl at
k ÅĤad
ĠÃ£ ÆĴ
ĠSe ptem
Ġn az
Ġexp ect
åıĸ ãĤĬ
ÅĤ e
ÑĢÑĥ ÑĪ
ĠÐ·Ð°Ðº Ð°Ð·
ĠÃ©g alement
Ġre ason
Ġma ior
Ġg em
Ġd ziaÅĤ
ĠA lex
ĠEst ado
Ġa insi
Ġperm an
Ġno te
ÐµÑĢ Ðµ
led ge
Ð° Ñī
ĠC L
ĠL ie
Ġv ic
ãĥ¼ ãĥ³
Ġap art
Ð± Ñĭ
ch os
á» ħ
ĠÑģÑĤ ÑĢ
pr i
ario us
ÅĽ l
Ġhe art
ĠF ern
Ġb Ãªn
iss en
éĩ İ
ile d
Ġnou ve
h Ã¶r
ĠCent er
Ġtro v
Ġ6 8
uch en
Ġãģ ©
ĠÐ½ Ð¸
Ġph Æ°Æ¡ng
ia c
ĠÃ© quip
Â ²
Ġmat ch
ÑĥÑĢ Ð³
Ġf el
ĠEst a
èī ²
g t
Ġ200 2
Ġc ast
ĠMar ket
éļ Ľ
Ġmill ion
ĠÄĳá»ģ u
ĠG eb
ĠN E
v an
ĠÐ³ Ð¾ÑģÑĥÐ´Ð°ÑĢ
Ġtrabal ho
ĠÑĩ Ð°Ñģ
Ġ7 7
ĠBar celona
wiÄħ z
ĠrÃ³w nieÅ¼
ĠT om
Ġ9 6
or so
ff e
is en
ĠM r
Ġsel bst
ĠL et
Ð² ÐµÐ´
ĠÐ¼ ÐµÐ¶Ð´
Ġs yn
ĠV o
ich te
ĠM ore
ãģ§ ãģĹãĤĩãģĨ
c ted
Ġd áº«n
ĠIB _
Ġcon ta
vol v
Ġ> >
Ġãģ¾ ãģŁ
Ġf atto
Ġtrans port
Ġstar ted
ÅĤ aw
ĠM ult
ĠÐº Ð°ÑĢ
Ġ) {
h alt
ĠD ans
w ia
á»ĩ t
Ġan te
ma il
ir it
ä» Ĭ
ĠÃľ ber
Ġp ac
ĠI d
ĠA T
Ġcl ose
sch aft
Ġå ¥
Ġreg istr
Ġfo ot
Ġch Æ°a
ĠT it
ĠB ay
ĠR io
Ġcomple te
ĀĀĀĀĀĀĀĀĀĀĀĀĀĀĀĀĀĀĀĀĀĀĀĀĀĀĀĀĀĀĀĀ ĀĀĀĀĀĀĀĀĀĀĀĀĀĀĀĀĀĀĀĀĀĀĀĀĀĀĀĀĀĀĀĀ
ĠÑģÐº Ð°Ð·
ĠT en
ĠD O
re ad
Ġb ras
Ġv irt
Ġwh ite
Ġ" ).
ł ´
çķ Į
ĠC Ã¡c
Ġ9 8
Ġl lev
ĠN r
iv el
Ġmonth s
ĠR od
ĠÐ£ ÐºÑĢÐ°
Ġd od
oles c
ĠCh i
b al
ĠT P
ĠB or
ÐµÐ· Ð´
Ġrel ations
Ġdid n
ï¼ ģ
Ġtá» ¥
Ä Ĳ
Ġcons egu
Ġes e
er to
å Ļ
er as
Ġproper ty
Ġl it
ãĤ» ãĥĥãĥĪ
Ġpropr io
Ġsab er
é¨ ĵ
ĠM AR
iet Ãł
Ġenviron ment
ĠR uss
Ġtechn ology
Ġpo i
Â ¨
Ġne ar
Ġmed ic
Ġo tro
Ġk ole
Ð¾Ð³ Ð»
ro u
Ġb le
Ġw on
00 00
ag on
Ġme ille
Ġbuild ing
Ġ11 0
Ġj etzt
Ġtr es
Ġé ģ
ĠB et
ĠÂ ¦
ÑģÑĤÑĢ Ð¾Ð¹
Ġpued en
Ġ% .
Ġsu as
ĠP ed
Ġm and
Ġg ames
Ġser ies
ate urs
ES T
Ġoff ice
ĠCh a
Ġk osten
Ġl Ãºc
Ġab ove
Ġr if
ied ad
ĠÐ¶ Ð¸Ð²
ĠAn al
ç³ »
Ġperson a
ç¤ º
Ġcele br
er ing
Ġb áº¥t
ÃŃcul o
ĠÐ´ Ðµ
ãĥĥ ãĤ°
Ġé «ĺ
C M
ien ne
ĠTr ong
ĠC R
ĠÐ¾ÑĤ Ð·ÑĭÐ²
éģ ķ
ĠC ome
ĠÐº Ð½Ð¸
æŁ »
ĠS outh
éĩ į
ter i
b it
te urs
Ġcustom ers
Ð¾Ð½ Ðµ
ĠF i
ut os
ze k
iz a
ĠL ED
Ġinde x
ov a
Ġcle ar
ÑįÑĤ Ð¾Ð¼Ñĥ
ĠN O
ãģķãĤĮ ãģŁ
ib r
Ġsta ff
ĠAug ust
Ġper chÃ©
ãĤµ ãĤ¤ãĥĪ
is k
Ġre cher
ĠÑĢÐ°Ð·Ð² Ð¸ÑĤ
çľ Ł
åı ¤
Ġpres ente
Ġm onde
iv amente
ch an
Ġe c
ĠJ un
Ġt am
Ġof ert
ÐµÑĢ ÑĮ
Ġl an
b s
ĠÐĴÑģ Ðµ
Ġte chni
ĠC our
iz ia
ĠÑĤ ÐµÐ¿
ĠÐ¼Ð½ Ð¾Ð³
ĠÐ· Ð²
Ġex erc
Ġ' :
ch io
C A
Ġy et
áº¥ m
Ġre ma
ĠÑģÐ¾Ð¾ÑĤ Ð²ÐµÑĤ
ĠÐ´ ÑĢ
Ġsol id
ĠEn erg
Ĺ i
ãģ¨æĢĿ ãģĦãģ¾ãģĻ
Ð· Ñĭ
Ġro d
Ġag osto
Ġdies em
ÐµÐ½ÑĤ Ñĭ
Ġh á»Ļ
ia is
Ġst ruct
Ð¸ÑĩÐµÑģÐº Ð¾Ð³Ð¾
ĠGro up
çĦ¡ ãģĹ
ĠAn ton
Ġs ays
Ġth am
Ġ ub
å· Ŀ
y c
omm es
e ja
Ġ6 2
ud as
ĠZ e
ĠÐ±Ñĭ Ð»Ð¸
Ġte j
u he
Ñĥ ÑĢÐ°
Ġus u
ĠM ai
Ġp ul
im as
ĠÑĢ ÐµÐ±
Ġho Ãłn
ol are
ÐµÐ´ Ð¸ÑĤ
Ð°Ñı Ð²
äº Ī
im ate
ES S
ĠÐĵ Ð»Ð°Ð²
Ġpre vent
Ġexc ell
Ġesc ol
i ad
ãģĹ ãģ¾ãģĹãģŁ
Ġgrup o
B N
ĠCent ro
Ġg eb
Ã¶ s
Â ¼
ÑĤ Ð°
or ies
éĻ Ĳ
Ġt udo
Ġdoes n
ĠF oll
r ig
ing en
Ġs Ã¡ng
Ð°Ð» Ð¸ÑģÑĮ
z zi
Ġ( );
Ġhist ory
k le
ĠA qu
åĪ ¥
ĠÐ¾ÑĤ Ð»Ð¸Ñĩ
Ġc ours
ĠÃ ĩ
ĠÑĢÐ°Ñģ Ñģ
Ġ ost
az a
ĠA tt
ak ing
Ġst ock
ä¼ļ ç¤¾
v or
Ġe p
Ġcol lect
Ġav is
end ant
Ġf Ã©
ĠD oc
f ord
ond a
ĠÑĢÐµÐ· ÑĥÐ»ÑĮÑĤ
Ã©t Ã©
pp o
ĠC rist
Ġh u
Ġim pr
ÑħÐ¾Ð´ Ð¸ÑĤ
Ġcor res
ĠÐ½ ÐµÐ¼
Ġter rit
ĠUS B
ĠP ower
ĠP lease
ĠG erm
ĠJe an
ÐµÐºÑĤ Ð¸Ð²
ÐµÑĢ Ð¾Ð²
èª į
ze ug
Ġm ap
ativ as
Ð°Ð½ Ð¸Ð¹
ĠF ahr
ĠC at
ĠÐ´ Ð¾ÑĢ
Ġex clus
ĠÃº n
ÑĢ ÐµÑģ
Ġ8 3
u ciÃ³n
m ann
Ã¤ d
ĠÑĦ Ð¸Ð»ÑĮ
Ġt ab
Ġcoll abor
cz as
Ġout ros
Ġg iven
Ġcont re
ĠÐ¿ÑĢÐ¾ÑĨ ÐµÑģÑģ
w id
Ġl iá»ĩu
Ġet was
ĠI M
æ¯ Ľ
Ġleg al
Ã© ment
Ġãĥ Ń
la ub
a h
Ġlig ne
ĠBe i
ĠB ild
ĠÐ¿ÑĢÐ¾Ð± Ð»ÐµÐ¼
ĠÐº Ð°Ð·
Ġtra ining
Ġs ÅĤ
ĠÄĳá»ĭ a
Ġk r
vo ir
ĠM use
act ion
uf act
i Äĩ
ĠN orth
Ġ200 1
ĠÃ ķ
ol le
ĠD ay
z ial
ı i
Ġdon n
Ġre ach
Ġ18 0
¤ ľ
og a
å° ı
ĠÐ±Ð¾Ð»ÑĮÑĪ Ðµ
C h
ĠH el
pp ing
Ġprov ides
Ð°ÑĤ ÐµÐ»Ñı
èº «
ier i
id ge
ĠA le
ĠÄĳá»ķ i
Ġ Ø
ĠÐ²Ñĭ Ð±
ĠSeptem ber
Ð°ÑĢ Ð°ÐºÑĤÐµÑĢ
H otel
Ġperson n
Ġest os
ĠK re
å³ ¶
ĠÐ¼ Ð½Ðµ
Ġpor n
ãĤ¹ ãĥĨ
ĠÑģÑĤ Ð¾ÑĢ
Ġn ational
Ġc od
ĠW ars
ĠAd min
ä» ĭ
å Ħ
Ġl iter
Ġz ab
l age
æ Ļ
Ġan ti
Ġãģ ķ
ĠÐ½Ð° ÑĢ
ĠÐ½ Ð°Ð»
Ð½ ÐµÐ²
ĠF all
5 7
è§ £
Ġiss ues
Ġ ãģĮ
T S
Ġf eb
ĠÐ¼ Ð°Ð»
Ġra cc
Ġliv ing
Ġfin ish
Ġthough t
ĠC la
ãģķ ãģĽ
ĠÐ±ÐµÑģÐ¿Ð»Ð°ÑĤ Ð½Ð¾
ĠF u
Ñĩ Ð°Ñģ
ER S
Ġus ers
Ġst an
Ġc res
ĠL in
ict ion
Ġ' ).
Ġess e
Ġç ī
Ġw all
Ġcon du
ç¾ İ
Ġdi as
ãģ® æĸ¹
us a
Ġe arly
est ra
ĠÐ¿ÑĢÐ¾ÑĤ Ð¸Ð²
u ir
Ġå ¾
Ð¾ÑĤ Ð°
Ġnum er
ĠÐļ Ð¾Ð½
Ġdem and
Ġh ora
on as
Ġs ource
ĠE X
it en
åı¯ èĥ½
sk iej
ul os
Ġod powied
å® ¹
ĠN ord
or io
Ġob ra
ag ed
ĠÐ¾ Ð¿ÑĢÐµÐ´ÐµÐ»
Ġdefin it
Ġw onder
Ġæ ĻĤ
ĠSt art
ĠDeutsch land
ĠÐ½ Ð¸Ñħ
éħ į
Ġr áº±ng
Ġå Į
ĠÐ» ÐµÐ³
unt os
k iem
Ġinf l
ãĤ ®
Ġj ego
Ġcli ent
Ġcos Ã¬
ĠBl u
s che
ac zy
Ġto ute
Ġenerg y
ĠM ater
ÑĨ Ðµ
Ġa ge
Ġess a
ãĥ¼ãĥ ĳ
ĠH um
Ġto uch
Ġd ÃŃas
wa Å¼
ĠS el
Ġs elf
Ġle urs
wo od
Ġtem a
ĠÄĳ Ã¡
Â £Â¬
al le
Ð¾ÑĤÑĢ ÐµÐ±
éĩ ı
è³ ª
Â °
Ġprodu ction
ĠPre is
Ġ8 6
g ang
ç½ ®
Ġa po
ĠÃ ĭ
Ġtr áº»
ĠOr ig
Ġfor um
ĠTr ip
Ġsh o
Ġrel ated
ĠÑĥ Ð»
Ġ8 2
Ġ ãģ¨ãģĦãģĨ
5 3
Ġv iene
Ġpro y
izz azione
ala xy
ess er
ĠII I
ativ es
Ġopt im
ĠH all
Ġso it
ãĥĹ ãĥª
iv as
ĠB und
w est
Ġk g
Ġc ame
Ġser ie
ĠCon f
re bbe
Ġth Ã¢n
ãģ® ä¸Ń
Ġw omen
Ġdiff icult
æĥħ åł±
ĠÐº Ð°ÑĤ
Ġs á»Ł
ĠÐº ÑĤÐ¾
Ġpr imo
ĠÃ ı
Ġgovern ment
ĠUS D
ens ioni
ĠgÃ©n Ã©r
Â ·
Y W
Ġcent er
Ð´ Ð¸Ð½
omm t
ĠO pt
Ġ8 4
Ġch uyÃªn
f ts
Ġres ist
ĠP ier
ual mente
Ġp ays
Ġm ondo
ĠC ong
r ar
Ġb om
on ie
ille d
Ġre mo
Ð»Ñı ÐµÑĤ
z immer
Ġm nie
Ġd an
ĠãĤ ¸
Ġngo Ãłi
Ġyo ung
tr u
l ag
n t
Ġte x
Ġob ten
Ġfe ira
Ġp Ã¡g
ÑĢ Ð°Ñģ
esz cze
Ġt el
ĠÃ© v
ÑĢ Ðµ
it ur
æŃ £
ĠTe il
ÐµÑĢ Ð±
ĠÑģÑĤ ÑĢÐ¾
Ġdes cription
ot er
Ġnav ig
Ġah ora
Ġãĥ Ģ
Ġch uyá»ĥn
ÐµÑĩ ÐµÐ½Ð¸Ðµ
Ã² a
ä¸ »
Ġè ¦
tr es
Ġand eren
Ġb Ã³ng
ĠGr und
vis or
Ġp ain
Ġcon tem
Ġb amb
Ġde ix
Ġcomm on
ta kt
Ġb ank
Ġd ost
Ġ' '
ash ion
is ion
Ġaqu i
Ġc ause
us to
Ġrequire d
Ġv in
ĠM ass
ç ¢º
ĠB ank
ç ı¾
e le
ĠÐ¿ÑĢÐ¸Ð¼ ÐµÐ½
ue b
op t
Ġ" ]
Ġcom fort
é§ ħ
l ik
ĠF rom
at ors
ĠÐ¸ Ñİ
Ġest ab
ien za
Ġquy áº¿t
Ġl ado
Ġfollow ing
ĠC E
ag ing
a a
Ġx Ã£
Ð° ÑĨÐ¸Ð¾Ð½
ĠF R
ĠÐ¾ ÑĦ
Ġmes es
Ġ á»©ng
ĠÑĤ ÑĢÐ°Ð½
Ġm áº¯t
on ia
Ġm Ã©t
ÐµÐ² Ð°
ĠÑĥÑģÐ» ÑĥÐ³
è ĳ
ĠÐ¼ ÑĥÐ¶
Ġim plement
ĠBus iness
ĠWh ite
ãĥ³ãĤ º
Ġla w
Ġp oc
Ġc ri
s et
ĠÑģÑĤ Ð°ÑĢ
Ġres erv
inn ing
è£ ½
Ġâ Ī
Ġm ujer
Ġst ore
Ġgu ard
Ġtout es
Ġsub st
ze j
çĬ ¶
Ġg uer
ĠM ost
Ġb ill
Ð°Ð» Ð¾ÑģÑĮ
Ġprov in
Ġcon ditions
ĠH y
ere ich
5 1
Ġn Ãºmero
Ġjedn ak
Ġpier w
æ ¼
iz ioni
as ing
Ġla y
é ¦
f re
ĠÐ± Ð»
ãģ¦ ãĤĤ
ĠÑģÑĤ Ð°ÑĤÑĮ
Ġf ive
Ġnet work
Ġdo ch
M T
Ġorig in
Ġnuov o
c ome
:: ::
ĠS ho
ĠæĿ ±
Ġna w
ãĤį ãģĨ
ĠÑĥ ÑĢÐ¾Ð²
Ġpriv ate
Ð¸ÑĤ Ñĥ
ĠS amsung
ĠH aus
Ġof re
ĠB ed
ĠÄĳ Ã¡nh
Ġdifer entes
Ġ% ,
Ð «
ĠR estaur
Ġth ÃŃch
Ã Ĺ
èª ŀ
Ġarr iv
Ġwind ow
Ġch áº¿
Ġl ed
ĠÑĥ ÑĤ
ä¸ ĸ
Ġmais on
Ġge ht
ĠM icrosoft
ĠÐľ Ñĭ
Ġobs erv
Ġv eg
ĠNov ember
ĠH ouse
ç· ļ
P A
Ġp ick
ĠÐ´Ð¾Ðº ÑĥÐ¼
Ġal tro
ĠP ero
ãģ¨ ãģĭ
Ġh ope
ille t
Ġ `
Ġsar Ãł
áº¯ p
nik a
ĠM á»¹
um ents
i Ã£o
Ġn áº¿u
ĠI V
ing ton
u ale
ĠÐŀ Ñģ
uyá» ħn
ier z
ĠS au
ect os
c ks
b au
Ġprem ier
Ġare as
iz aÃ§Ã£o
Ñ ķ
Ġz naj
Ð¸ÑĩÐµÑģÐº Ð¸
ï¼ ĵ
Ã¤n der
ĠÑĪ Ðº
en h
ĠX X
Ġ7 8
Ð°Ðº Ñģ
r ont
ent al
ĠSh op
ĠS ome
Ġv ra
Ð°Ð» Ð¸ÑģÑĤ
Ġl ud
ur er
Ġmar zo
ĠÐ¸Ð· Ð¼ÐµÐ½
Ġw ent
it ude
ĠÑįÐº ÑģÐ¿
ig ung
è Ħ
Ġwho le
Ġpre cio
Ġele g
ĠK inder
ãĥ³ãĥ Ĺ
Ġwh ether
az u
ĠÐº Ð»Ð¸
Ġcomp on
bi amo
ĠÐ½ Ð°Ð¼
ĠU l
Ġp ied
ĠK ind
Ð¼ Ðµ
Ġc ung
Ġass im
ĠPos ted
ĠÐ² Ð¾Ð»
part ment
li es
Ð¾Ðº Ð°
Ġt im
Ġh Ã£
or ni
Ġvá» «a
Ð¾Ð³ ÑĢÐ°ÑĦ
Ð¡ Ð¢
Ġn ome
ĠAut or
Ð¾Ð¶ Ðµ
çļĦ ãģª
am er
Ġs ito
ĠS om
ĠÐ³ ÑĢÑĥÐ¿Ð¿
Ġ ic
åĻ ¨
Ġpr os
al la
ãĥ³ãĥ Ĩ
is cher
ĠÐ· Ð°ÑıÐ²
Ġsol d
Ðº Ð°Ð¼Ð¸
im enti
ĠÐŀ Ð½
Ġsc ar
á»± a
Ġe uros
ĠT witter
Ġsp o
or f
an ks
Ġtr an
Ġch Æ¡i
ĠÑįÑĤ Ð¾Ð¹
ĠÐ½Ð° ÑħÐ¾Ð´
Ġtr ip
ic iones
ĠÐ±Ñĭ Ð»Ð°
ĠBer lin
ÐµÐ¹ ÑĩÐ°Ñģ
ĠÐ¼Ð¾Ð¶ÐµÑĤ Ðµ
eg n
Ã©r ica
Ġd ere
Ġco unt
Ġe ar
Ġcam era
ur r
ãģı ãģª
ĠWo hn
is ine
Ġto ok
Ġï¼ ı
ĠPort ug
Ġma x
Ġhapp en
Ġnuest ro
vel opp
ful ly
ĠMens chen
Ġdá»± ng
or ed
ï½ Ĺ
Ñĥ ÑİÑĤ
Ġsatis f
ÑĢ Ð¸ÑĤ
Ġdo is
Ġad apt
7 1
ĠÑĥ Ð¿ÑĢÐ°Ð²
Ġcam po
we et
ĠDV D
ĠSt adt
Ġv arious
Ġgi áº£m
b b
Ġdiff Ã©r
Ġl á»ĭch
iel le
Ġb and
obier no
Ġtá»ī nh
Ġfam ili
ĠÐºÐ² Ð°ÑĢÑĤ
Æ°á»£ t
Ġeng ine
ĠB ad
Ġãĥ» ãĥ»ãĥ»
Ðº Ð¸Ð¹
ĠÃ ļ
Ġtak ing
9 6
Ġinclud es
ĠN atur
j al
ĠÑĤÐµÐ» ÐµÑĦ
ĠPro ble
ĠP H
ĠGener al
ĠÐ½ ÐµÐº
Ġmach en
Ġfon ction
Ġprim era
Ġche z
£ i
ĠM Ã©
i O
b et
ĠÑįÑĤ Ð¾ÑĤ
ĠO R
ĠDav id
Ġd it
ĠAl so
Ġtut te
Ġhat te
Ġmed io
Ġch em
ĠÐ¼ Ð°ÑĪ
Ġutil is
Ð¾Ð» Ð¶
ĠÄĳ áº·t
å¸ ¸
is me
Ġfre qu
Ġcomm un
iment os
Ġtien en
ĠY o
Ġz wei
ĠE M
ĠJos Ã©
ĠÂ ¨
ĠP op
ÑģÐº Ð°Ð·
Ġsu ite
ig lia
form a
l ier
ĠÐ² ÑĤÐ¾ÑĢ
Ġob ie
ian as
Ġf i
Ġa ve
ĠN ap
Ã¡ b
ĠWh ile
Ġt ell
Ġinde pend
ze ich
Ġm ys
Ġ: #
Ġtro p
Ġqu em
Ġpers one
ĠE duc
il h
Ġfor t
o ch
Ġme as
ĠÐ¿ÑĢ Ð¾Ñģ
Ġdon ne
ĠD A
ĠãĤ ¿
Ġcontin ue
Ã ľ
unicip al
Ġest Ã£o
Ġ19 0
Ġatt ra
otog raph
ĠG old
áº± m
Ġim g
Ġsch n
ab en
ĠL og
t k
an ze
Ġappro ach
ĠdÃ© b
Ġ7 4
Ð¸Ð¼ Ð¾ÑģÑĤÑĮ
ou v
Ġto uj
er w
ĠL im
re to
ÑĢÑĥ Ð±
Ġgratu it
ãģ«ãģª ãģ£ãģ¦
Ġda i
an ol
ĠÐ°Ð²ÑĤÐ¾Ð¼ Ð¾Ð±
Ġwszyst k
ĠC ult
Ġmo is
è² »
ĠP rom
ill age
Ġæ Ń
Ġt iáº¿t
Ġpe que
ĠN um
Ġfur ther
Ġs ag
Ġ9 4
Ã³ p
ann ing
Ġcir c
ÐµÐ³ Ð´Ð°
åĪ Ŀ
Ġam ong
Ġtouj ours
ica Ã§Ã£o
Ġwy m
Ġad dition
ãĥ¼ãĥ Ĺ
D E
Ġman era
Ã ¸
ĠC ond
Ġal to
ab el
Ġtu á»ķi
Ġne ue
Ġexper t
Ġb all
Ġsob ie
ct ions
Ġu 00
Ġ6 1
Ġall es
ĠO per
om in
ĠÐ¶ Ð¸Ð·
Ġg ol
Ġpart y
Ġr ate
Ġme jores
Ġkh Ã³
Ġe ither
cept ion
Ġkh á»ı
Ġsp Ã©
Ġf an
ç´ ł
ÑĥÐ»Ñı ÑĢ
Ġsim ilar
ĠÐ² Ð°Ñģ
Ġmar k
Ġfa ut
5 8
ĠãĤ »
Ð¾Ð´ Ð°ÑĢ
Ġ ãģŁ
ĠP s
Ġprincip al
Ġd Ã©s
åħ ¬
Ġj og
Ġç Ħ
Ġamo unt
ãĤ¿ ãĤ¤
ÑĭÐ² Ð°ÑĤÑĮ
he im
ĠCas ino
ãģª ãģĮ
Ġn á»Ļi
ĠS A
Ġimp act
ĠQ U
po is
ing o
ĠÑģÐ¾Ð¾ÑĤÐ²ÐµÑĤ ÑģÑĤÐ²
anc ed
Ġneed ed
ä» ĸ
áº· p
ÃŃ cio
Ġm ort
ĠV en
ok e
is ce
Ġc en
za hl
Â ±
ens o
ĠÐ¼ Ð°ÑĢ
Ġb Ã©
ent ina
ĠTe am
Ð½ Ð¸Ñħ
row ad
Ġng ay
ãĤŃ ãĥ£
ĠÐ´ ÐµÐº
ĠM ill
Ġr id
} ,
iv ely
Ġfor n
çµ Ħ
ĠÐ¿ÑĢÐ¾ ÑĪ
Ġf otograf
Ð°Ð½ Ñĭ
Ġlu Ã´n
ĠÐ¿Ð¾Ðº ÑĥÐ¿
ĠProdu kt
ĠK ing
ĠM em
ĠD ata
Ñĳ ÑĤ
ÃŃ p
k r
Ġapp ar
ĠEspa Ã±a
ta il
vent ion
Ġå ¼
Ġpl ant
Ġob lig
ĠB á»Ļ
st ra
og raph
b ild
Ġsp os
Ð°Ð½ Ð¾
Ġsome one
ian i
Ġav ait
Ġof er
Ġm ostr
a o
Ġo m
Ġab y
ĠA z
Ġb ran
Ð¾Ð´ ÐµÑĢÐ¶
Ġquel ques
Ð¾Ñı Ñī
ik el
Ġmess age
ĠR en
Ġsp an
Ġdis p
ĠÃ Ĩ
ĠÐ¾Ð± ÑıÐ·
Ġæ ¥
Ġsol ution
Ġb Ã¬nh
Ġdes p
âĢ¦ ]
ĠFor um
ĠÐ½ Ð°Ð±
Ġwe it
Ġph one
ĠQu Ã©
os se
Ġad ditional
est re
az ing
ĠÐ¼ ÐµÑģÑı
Ġdam it
ãģ® ãģ§ãģĻãģĮ
Ġl inks
Ġcho ose
bo ard
Ñĥ Ð¹
Ġdesign ed
Ġest as
Ñĥ Ð»Ð¸
Ð¸ ÑĦ
I K
ĠÐ·Ð° Ñī
g leich
U C
Ġh in
Ġâĸ ł
Ġit em
è ı
r is
Ġnh anh
ard i
Ñĥ ÐµÑĤÑģÑı
ÐµÑģÑĤÐ² Ð°
Ġl ung
ĠG reen
ÅĽ nie
Ð¸ÑĤ ÐµÐ»Ð¸
Ã¼n st
Ġe au
f il
ĠA ber
Ġlá» Ŀi
ĠNg uyá»ħn
ãģķãĤĮ ãĤĭ
Ġqu ite
ist es
áº· ng
ĠÐ¶Ð¸Ð· Ð½Ð¸
Ġtrava il
Ġsa f
Ġmot or
Ġo tra
Ġes a
Ð° ÑģÐº
ĠÐ¾Ð± Ð¾ÑĢ
ri x
ĠÃ¡ rea
Ġf ino
ĠÑģ Ð½
Ġv iele
Ġtrans fer
Ġ16 0
ä½ ı
å¤ ©
Ġse en
es i
Ġf ul
é Į
is z
ĠÐºÐ¾Ð¼Ð¿ Ð°Ð½Ð¸Ð¸
vel le
Ġpra w
Ġespecial ly
Ð Ļ
Ġm iesz
Ã °
çŃ ī
ĠÑĥ Ð³
Ġpap er
Ġm á»įi
Ġhal f
ia ble
Ġ[ âĢ¦]
Ð°ÑĤÐµÐ»ÑĮ Ð½Ð¾
Ġmo i
Ġd ice
åĪ ¶
er ia
ĠÑģÐ² Ð¾Ð¹
ãģĶ ãģĸ
Ġj an
Ġr iv
ĠD ar
it ive
c oup
ĠÐ¾ Ð³
ĠSt ra
y o
te k
ĠÐ¿ÑĢ Ð¸Ñĩ
Ġdeta ils
Ġ7 3
Ġl ength
ter a
ist ic
ĠÄĳ áº·c
Ġs ong
Ġb áº¯t
ĠPr in
ĠCh icas
ĠR ic
ĠB rit
ĠÐ´ ÐµÐ²
è£ ħ
Ġres id
Ġh Æ°á»Ľng
ĠC P
ĠÐ» Ð¸ÑĪ
Ġx Ã¢y
im s
ĠmÃł u
ĠÑģÐ»ÑĥÑĩÐ° Ðµ
li wo
Ã¼n d
ĠCon c
5 2
ĠInd ustr
a ine
ĠÐ¿ Ð¾Ð³
Ġfor am
ar lo
Ġnov embre
å¼ ·
Ġprz ec
or re
an iem
ĠÄĳ áº¡o
ÐµÐ´ ÐµÑĢ
Ãª t
Ġseg undo
ĠC ou
Ġtá» Ń
it ect
Ġm Ãºs
ĠF ab
á» ĥ
ĠãĤ ¦
æĿ Ĳ
Ġprov ided
ut es
ur ing
Ġvo ir
Ð ¬
Ġpot ential
Ġj eszcze
Ġbu en
åĮ º
ul ta
Ġje j
un st
Ġro t
Ġf at
Ġb ast
Ġv est
Ġqu ed
ĠCol or
Ġs ond
Ġprodu kt
Ġesp aÃ±
ĠM ov
Ð¸Ð² Ð°ÑĤÑĮ
g esch
ett es
6 2
Ġsimp ly
áº« u
iss ance
Ġph á»ĳ
ĠAr m
d le
es o
ĠW a
Ġngh á»ĩ
ap er
ĠÐ·Ð°Ðº Ð¾Ð½
å¸ ĥ
it able
Ġris p
Ġp ew
ãĥ³ãĥ ģ
Ã¡ y
P r
ĠG io
ãĤ³ ãĥŁ
oll en
Ġro ad
ĠE ine
Ġty p
ä¾ Ľ
Ġh oy
ĠPr iv
ãģ£ ãģ
Ġdes puÃ©s
ãĥ¼ãĥ ĸ
Ġsu ff
Ð°Ð»ÑĮ Ð½Ð°Ñı
ĠD et
Ġs á»©c
ä½¿ çĶ¨
Ð½ Ð¸Ñĩ
ĠÐ¡ Ð¾
ÑĭÐ² Ð°ÐµÑĤ
Ġm áº¡nh
ag ram
Ġtá» ·
Ġn á»¯
Ġd nia
Ġst ata
Ã» t
te z
ĠLond on
Ġa k
Ġnh á»ı
Ġc ateg
æĹ¥ æľ¬
Ġr im
Ð¸Ð² Ð°ÐµÑĤ
ĠGr ande
g ior
Ġv id
Ġcustom er
ĠFeb ru
ä¾¡ æł¼
Â ¸
Þ ¬
Ãº de
Ġfe ed
Ġc ela
Ġnuest ra
Ġevent s
y es
iáº¿ m
ĠR ock
um en
ĠÐºÐ¾Ð¼ Ð¿Ð»
Ġt inh
Ġcual quier
ass o
Ġg dy
w ier
Ń Ĳ
Ġconn ect
ĠÐ¿ Ð¾Ð±
Ġpar l
zy c
Ġab b
Ð¿ Ð¸Ñģ
ĠÐĲÐ» ÐµÐºÑģ
v ier
Þ ª
Ġw Ã¼r
Ġal ors
ĠE lect
çĦ ¶
ĠFil m
ĠBl ue
Ġse it
Ġ" >
ie urs
Ġmo ve
Ġ] ,
Ġw ide
Ġp il
ĠH ere
åħ ·
pl ace
Ġse ine
ĠIm m
Ġ14 0
th ough
B A
ĠpÃºbl ico
ĠSm art
ĠÐ¼Ð°ÑĤÐµÑĢÐ¸ Ð°Ð»
Ġps ych
Ġm Ã¶
ĠÑģÐ» ÑĥÐ¶
f ono
Ġthu áºŃt
Ġj ou
Ġin gr
ĠD iv
æĦŁ ãģĺ
pro du
ĠEng lish
Ġcou ple
Ð¸Ð¼ ÐµÑĢ
Ġse ja
Ġr Ã³Å¼
ta ch
ĠãĢģ ãĢĮ
Ġwrit ing
Ġperm it
ĠÑĢÐ°Ð· Ð»Ð¸Ñĩ
ĠMar c
Ġj ur
ĠL ou
ĠD Ã©
it ation
Ġdo g
ĠTag s
ional es
Ġ9 2
is is
Ġ ãģ«
å ²
ãģ¡ ãĤī
ĠÑħ Ð°ÑĢÐ°ÐºÑĤÐµÑĢ
ÑĥÑĤ ÑĢ
ĠB uch
Ġj ud
Ġproc esso
ibil ity
Ġdec ir
ĠÃ© lect
Ã¼ ber
ol Ã³g
ĠÑĢ ÑĥÑģ
ĠCan ada
Ġc ob
Ġfe ature
ĠMar ch
Ġr os
ĠB L
Ġpro gress
Ġnun ca
amb re
Ġd at
Ġbel ieve
éĥ ½
ãĤ ¡
ĠS ign
Ġká» ³
å ĩ
9 3
Ġmain ten
b es
åı °
ĠÑĩ Ð¸Ñģ
ĠÐ¾Ð± ÐµÑģÐ¿
ow any
ĠÃ ¥
Ġinter pre
Ġcomp lex
ãģ¨ ãģĵãĤį
le ur
olog ÃŃa
ĠA V
Ġæ ī
á»« ng
vol ution
ĠãĢ ľ
Ġrel acion
ãģĹãģ¦ ãģĦãģ¾ãģĻ
âĢ¦âĢ¦ âĢ¦âĢ¦
Ġe la
ĠP ot
atal og
ĠÐ± Ð»Ð°Ð³
Ġnost ro
Ġcent r
Ġï¼ ĳ
Ġens ure
Ġcorres pond
izz are
ĠT ar
æµ ·
ãģ ²
z el
Ð» Ð°Ð¼
åı ·
T V
Ġå ī
z na
Ġf lex
ĠSt ate
Ġo il
ĠR ich
ĠV i
ĠÐ¿ÐµÑĢ ÐµÐ²
l Ã¤
Ġlearn ing
Ġhe cho
g ot
yn am
Ġv s
Ġ9 3
eit en
ĠF und
ÑĢ Ð¾Ð±
ĠÐķ Ð²
pp ed
ud ar
ci pl
ĠF ort
Ġch ance
Ġw ÅĤa
Ġsi x
ĠA k
ĠÑĤ Ð°Ð¼
ĠU R
Ġnh Ã¬n
ad ing
ÑĢÐ° Ñħ
Ġn Æ¡i
Ġfam il
Ġr ub
â Ķ
ĠPost Ã©
ÑĢ ÑĭÑĤ
Ġprogram a
á» Ľi
Ġex act
Ġb elle
Ġc ut
ĠMar k
Ġæ Ĭ
Ġcompr ar
ĠÃ ¦
Ġt Ã©lÃ©
Ġre ady
Ġk ur
izz ato
lec ted
ÑĢÐ° ÑģÑĤ
P L
Ġpre d
ÐµÑĤ ÑĢ
ip e
ĠFran k
ĠÑģÐ¾Ð± ÑģÑĤÐ²ÐµÐ½
Ð°ÑĤ Ð¾Ð²
Ġth ird
ĠC le
Ġqu indi
ĠF el
Ġam er
ãĥŃ ãĤ°
ãĥ© ãĤ¹
ĠMil ano
I X
ĠT O
Ġv Ã´
Ġocc up
Ġdest in
Ġcomp uter
ĠL ink
Ð¸ÑĤ Ð°
Ġr Ã¡p
os i
Ġv áºŃt
ĠÐ³ Ð¾ÑĤÐ¾Ð²
çĻ »
ĠÐ¿ÑĢ Ð°ÐºÑĤ
Ġre pr
ĠFran cis
qu is
Ġph á»¥c
ĠAl le
Ġ ãģª
ĠÐºÐ¾Ð» Ð¸Ñĩ
Ġma xim
ob e
Ġpra cy
Ã¤ re
Ġv isto
r ie
pres a
Ð¾Ð² Ð°Ñı
Ġw ait
Ġph á»¥
ĠC er
g el
Ġcol lection
orzy st
hal b
Ġch arg
Ġcent ral
Ġb á»Łi
Ġs n
ĠS H
åı İ
Ġe con
ur so
Ġth áºŃt
Ġperson nes
ãģ© ãģĨ
Ġn acional
ob a
áº¡ y
P ro
Ġg esch
Ġc erc
Ġiss ue
ĠA uch
Ġh y
Ð ¥
Ġm l
á»ķ ng
Ġyour self
Ġtá»¥ c
Ġquy á»ģn
ÑĥÐ· Ñĭ
c Ã³w
Ð¾Ð´ Ñĭ
Ġcult ure
ÑĨÐ¸ Ð¿
ĠwiÄĻ cej
Ġa z
Ġent ire
er al
Ġsub ject
S A
ÑĥÐ½ Ðº
Ġlat est
ane iro
Ġor a
ĠC zy
ĠÑĥ Ð·
ĠÐ² Ð¾ÑĤ
Ġeuro pe
ĠÐ¾Ðº Ð°Ð·
Ġs zy
iÄĻ d
Ġv ale
ĠT able
iÃªn cia
è ĭ
ay a
6 1
Ġcre ated
ÑĢÐ° Ñĩ
ĠC ab
Ġlib ro
Ġsu c
å½ ¢
Ġco ol
çĽ ´
nis se
Ġver t
Ġ8 1
" ,"
ĠÐº Ð°Ð¼
ien st
Ġev ento
Ñĥ ÐºÑĤ
l am
Ġph Ã¢n
Ġseg unda
åİ Ł
ÐĿ Ðĺ
f ra
ĠH ier
Ġsc reen
ĠB ig
Ð° ÑĨÐ¸Ñİ
Ġth anh
Ġb io
Ã© is
an ted
ĠÑı Ð·Ñĭ
ĠW elt
Ġcon j
ĠÑį ÑĦÑĦ
ĠÑģÑĤ Ð¾Ð»
Ġby ÅĤo
Ġby ÅĤ
ĠC ru
çļĦ ãģ«
Ġt arget
ĠAmer ica
æĪ ¦
Ð» ÐµÐº
ic ulas
Ġtr iá»ĩu
Ġh i
Ġ à²
ed or
Ġknow ledge
iss ement
ĠÑģ Ð¾ÑĤ
ĠÐ¡ Ð°Ð¼
Ġfinan cial
Ġpub blic
Ġch arge
Ġse Ã±
Ġt ent
ĠÐ°ÐºÑĤ Ð¸Ð²
Ġ8 7
ãĤī ãģĦ
Ã¶ ff
ĠH ot
Ġprim er
e ks
Ġv ig
ĠAut om
w eg
ÐµÐ½ Ñģ
Ġpor te
Ġp un
Ġll am
Ġb iáº¿n
ãģ§ãģĻ ãģŃ
ĠB ur
Ġg áº§n
ĠIn vest
at ory
ĠÐ½ÐµÑģÐº Ð¾Ð»ÑĮÐºÐ¾
Ġhom bre
Ġanal ys
Ð°Ð» Ðµ
Ġdo v
ĠÐºÐ¾Ð½ ÑĤÑĢ
ĠsÃ³ lo
Ġj ours
ĠÐ½ Ð¾Ð¼
Ġo ggi
Ġch ia
w ert
ĠW eit
m ed
Ġany thing
f te
ĠB Ã¬nh
Ġb ou
ãģŁ ãģ¡
ĠÐļ ÑĥÐ¿Ð¸ÑĤÑĮ
ĠS ab
æ³ ¨
Î ¿
èª Ń
Ġh áº¿t
ĠÑĥ Ð¼
ĠÑģÐ¼ Ð¾ÑĤÑĢ
ĠE xt
ãĥĸ ãĥ©
Ġcon dition
Ġer st
ĠE u
Ð³ Ð°
ĠÅ ģ
Ġk omp
rol lo
ĠÑįÐº Ð¾Ð½Ð¾Ð¼
Ġin j
Ġfoll ando
ib ili
Ġadd ed
c ing
ĠT wo
ĠJahr en
l en
Ġtr á»£
ÑıÑĤ ÑģÑı
Ġu cz
ib a
Ġb ur
ĠOp en
ĠM inh
ĠI hnen
Ġproble ms
ĠT ut
æ± º
Ġal bum
ĠL eb
ĠÑĥ Ð±
ĠÑģ ÑĥÐ¼
T M
Ã³r io
Ġa unque
è ĸ
Ġotr as
Ġman ufact
ĠT amb
ĠÐ¼ Ð¾ÑĢ
Ġmot iv
Ġun os
Ġm Ã©
Ġam biente
Ġsystem s
ĠT el
å§ ĭ
9 1
Ġit ems
rÃ³ d
Ð¸Ñģ Ñģ
Ð §
ens ione
Ġoff re
ĠHotel s
Ð¸Ñı Ñħ
Ġsoc i
Ġproble mas
k re
in ta
Ġmach ine
Ġo w
LC J
ĠM S
Ġvel oc
er i
ĠProf ess
I ER
ĠÑĨ ÐµÐ½ÑĤÑĢ
Ã¶ l
Â ¶
ĠÃ ĳ
Ġåħ ¨
ĠÐ´ Ð°Ð²
Ġdal le
ÐµÐ» Ð¸Ñĩ
Ġ13 0
Ġpes o
Ġalm ost
ĠC A
Ġse lect
Ġv as
Ġevery one
ĠB i
ĠW i
ian e
Ġgi orni
Ġb Ãłn
Ð¸Ð·Ð½ ÐµÑģ
k ol
Ġrec ent
Ġç Ļ
ĠÑģÐ» Ð¾Ð²
ious ly
ĠC N
Ð¸Ðº Ðµ
ĠÑģ ÐºÐ°ÑĩÐ°ÑĤÑĮ
Ã¢n cia
ĠÑģ Ð¸Ð»
Ġtu o
amp a
Ġris k
Ġme u
ec u
tt y
Ġty pes
ãĤ ©
na h
m ie
èĤ ²
ĠãĤ ±
Ġf ire
Ã§ ais
ow Äħ
re l
ĠÑĥ Ð¿
ĠÐ¾ÑĤÐ½Ð¾ ÑĪ
iÄĻd zy
Ġpart ner
ĠIn n
Ġinsp ir
Ġf ant
Ġm áº¹
ĠL ive
Ġel imin
Ġminut os
ĠÐ²Ñģ ÐµÐ³Ð´Ð°
Ġcap t
Ġdr ive
am t
AN T
Ġbeau coup
å¿ħ è¦ģ
Ġh owever
Ġâĺ ħ
ĠprÃ©s ent
Ġann Ã©e
å ĴĮ
Ġg leich
Ġn ice
Ġth ay
è Ĭ
ãģĵãģ¨ ãģ¯
Ġc ie
ĠU omo
ĠÐ½Ð°Ð¿ ÑĢÐ°Ð²
ĠÐ´Ðµ ÑıÑĤÐµÐ»ÑĮ
ĠE D
å ¡
ĠR oy
ak i
Ġso on
Ġå ¯
Ġtra vÃ©s
Ð¸Ð» Ð°ÑģÑĮ
ĠS un
G E
ĠC V
ĠÐ±ÑĥÐ´ ÑĥÑĤ
Ġhapp y
Ġc ul
id or
Ġrad io
åĪ© çĶ¨
ĠP ER
u age
und er
ãĥ¡ ãĥ³ãĥĪ
v os
ĠÄĳ Ã¬nh
uj emy
Ġjed en
Ġg odz
Ġsu iv
port un
Ġs amo
z cz
¥ ¿
Ġatt ivitÃł
Ð´ Ð¶
ãĥķ ãĤ£
Ġpet it
re as
Ġloc ated
Ġ" )
ĠRe view
è ĩ
Ġw ays
Ġol tre
Ġj am
er ve
Ġprofess ionn
jÄħ c
ard in
ied y
Ġin ici
ĠCo un
ĠS O
ĠM id
ĠG et
ãĤ¤ ãĤ¯
ÐµÐ´ Ð¸Ð½
Ġste p
Ġex press
ĠãĤ Ħ
Ġt orn
ro g
Ġbook s
out ube
l uss
f ang
Ð¾Ð³ Ð¾Ð²Ð¾ÑĢ
ãĥ¼ãĥ ĵ
ru it
Ġcas i
ĠP are
ãĤ ²
ĠP ag
ãģĺ ãĤĥ
Ġar te
ĠG est
ff ee
ĠN ue
ran k
Ġ7 00
em b
Ġb or
Ġdispos it
Ġch á»©ng
Ġex plic
Ġt ant
ãĥ³ãĤ ¸
Ġcent re
å ©ļ
Ġj ov
Ġa zi
ãĤ· ãĥ£
_ id
Ð¸Ð² ÑĪ
Ð½ ÐµÐ³Ð¾
og en
iáº¿ c
ĠN at
ny mi
ug g
e y
Ġl ista
è ·
ĠâĹ ı
ĠÑĤ Ðµ
ĠSt reet
z ug
Ġtr ib
Ġl áºŃp
Ġman o
Ġi phone
Ġse le
ĠÐ· Ð°Ð³
Ġs Ã¡ch
Ġl Ã¡
ÐµÑĢ Ñģ
ient ras
ĠV ir
ĠS S
Ðº Ð°Ð½
Ġsk in
Ġãĥ Ŀ
Ġ9 1
ç ¸
ĠÐ§ ÑĤÐ¾
ĠÄĳ Æ°a
Ġgi orno
Ġmin i
Ġfor ward
Ġde be
Ġb ot
Ð¸Ð»Ð¸ ÑģÑĮ
ĠÑĢ Ð¾ÑģÑģ
Ġo tt
Ġd á»ħ
Ġc et
Ġman ifest
é ¤
OR T
Ġd ol
ĠÑĤ ÑĥÑĢ
Ġchang es
ĠMich ael
Ð¾Ð½ Ð¾Ð²
Â ³
Ġé Ŀ
Ġsitu ation
Ġc ot
b t
an che
Ġa present
Ġs un
ĠF ol
fol g
Ġvá» ±c
ĠX xx
A Z
ĠE v
Ġv ed
ĠCo unt
em ple
p m
ch ts
æ Ĵ
ÐµÑĢ Ðº
Ġfinan ci
Ġpu is
Ġbes o
ĠH or
Ġv iáº¿t
ç ¯
ĠÑģÐ´ÐµÐ» Ð°ÑĤÑĮ
Ġhist oria
Ð½Ð°Ðº Ð¾Ð¼
ac io
Ġå º
ÑĮ Ðµ
Ġm inh
Ġg irl
Ġs ales
Ġeduc ation
ãĥ¥ ãĥ¼
Ġsec urity
Ġposs ibile
á» ħn
R e
Ġv ille
Ġm Ã¼ss
Ġsec ret
ĠN u
f Ã©r
Ġ} ,"
ĠA ff
B o
Ġqual quer
ific ar
Ġrecomm end
Ġpr Ã©c
Ġqu ella
Ġs ÃŃ
ç¨ ¿
ĠPro te
ÑģÐº Ð¾Ðµ
Ġrun ning
ĠÐ¿ Ð¾Ð¶
Ġnh áºŃp
Ð¾Ð± ÑĢÐ°Ð·
Ã¡t ico
Ġ7 1
cont re
Ð°Ð² ÑĪ
ĠÐºÑĢ ÐµÐ´Ð¸ÑĤ
ob y
Ġn em
ĠV oc
ul her
Ġmater ia
Ġdi á»ĩn
l or
ĠA gr
auss ures
C C
ĠÐºÐ¾ÑĤÐ¾ÑĢ Ð°Ñı
Ġopport un
Ġmon itor
Ġpod em
ĠAd d
ĠN os
ĠÑĥ ÐºÐ°Ð·
ĠCal if
Ð» ÐµÑĤ
iz aciÃ³n
ess en
Ġest im
ĠD ia
ĠB ot
ãģª ãģĭãģ£ãģŁ
rom e
Ġu k
ĠÐ¿ÑĢÐµÐ´ Ð¿ÑĢ
ĠMas ter
Ñħ ÑĢÐ°Ð½
ĠE very
ens ch
Ġdi á»ħn
åħ ĥ
zy ch
Ġbus ca
p ons
ast ÄĻp
Ġãĥ Ł
Ġre lev
Ð¸ÑĩÐµÑģÐº Ð°Ñı
ib lio
ĠÐ¿ÑĢÐ¾ÑĦ ÐµÑģÑģ
ãĥ³ãĥ Ģ
Ġimm edi
ĠPre m
ÅĤ od
Ä© nh
ÐµÐ½ Ð½Ð°Ñı
ĠÐľ Ð¸Ð½
ĠÐºÐ¾ÑĤÐ¾ÑĢ ÑĭÑħ
ÐµÐ¼ Ð¾Ð½ÑĤ
ĠV Äĥn
ãģĦ ãģĨ
Ġa ument
ativ os
Ġw ed
Ġn á»¯a
ub le
Ġs ector
Ġrece ive
Ġcal idad
ãĥ© ãĥ¼
ãģªãģĮ ãĤī
ue il
C lass
Ġperm et
us ion
ĠÐ¿ÑĢÐµÐ´ Ð»Ð¾Ð¶
Ġs istem
AL E
Ġâ ľ
ĠÐ° Ð¿
Ġlik ely
pe z
he ad
Ġrelations hip
Ġdia gn
ĠK at
on om
ĠÐ¿Ð¾Ð´ Ð´ÐµÑĢÐ¶
Ġser ve
Ġnue va
ĠH il
Ġfut uro
Ġp iano
Ġdon na
ĠI st
Ġs ino
Ġb ath
Ġw ra
ĠAss oci
ĠPublic ado
Ð¸Ð½ Ð¾Ð²
Ð°Ð¶Ð´ Ð°Ð½
Ġsa ve
vis ion
Ġpre g
ĠÑģ Ð¾Ð´ÐµÑĢÐ¶
ĠTe x
ĠN gh
ĠÐ¼ Ð¼
Ġu omo
Ġpar ents
ãĤ¿ ãĥ¼
Ġr at
å »
as a
Ġrespons abil
ĠC AR
Ġsignific ant
ĠO N
Ġ] [
Ġãĥ ī
Ġest ud
Ġzw ischen
ĠM itt
ro b
ĠÐ¸ Ð´
Ġp ath
ĠÑģÐ¿Ðµ ÑĨÐ¸
Ġk iá»ĩn
ĠH is
Ġp ages
Ġg Ã¢y
Ġfr ente
re w
ĠÐ· Ð°ÑĤ
ĠP f
ĠÐ²Ñĭ Ð±Ð¾ÑĢ
ĠTh anks
ĠJes us
Ġãĥ Ļ
ãģ¨ ãĤĤ
Ġinst r
ĠV in
Ġexcell ent
ĠDies e
Ġå° ı
Ġvia j
Ġng uyÃªn
ĠM ujer
Ġæ µ
Ġm iá»ħn
ï¼ ķ
Ġconf irm
Ġcon na
ĠG al
ÐµÐº ÑģÑĤ
Ð°Ð± Ð¾Ñĩ
Ġwo od
Ġs Ä©
Ġãģ Ķ
Ġse pt
æ ¶
upp o
in nen
ĠÐ² Ð°Ð¶
Ġel los
I EN
ĠÐ´ÑĢÑĥÐ³ Ð¸Ñħ
ym i
Ġdzie ci
Ġcar acter
áº£ y
Ġt Æ°á»£ng
Â ¾
Ġdom in
Ġro le
ung e
ĠÐ²Ð½ Ð¸Ð¼
Ġm g
ãģ¾ ãĤĬ
ĠÑģÐº Ð¾ÑĢ
ĠÐł Ð¤
Ġopport unity
ĠJ our
w ad
Ġdies es
ĠÐŁÑĢ ÐµÐ´
Ġch ung
ĠH P
ge w
ĠÑģ ÑĥÑīÐµÑģÑĤÐ²
Ġsol utions
Ġãĥ ģ
ĠN áº¿u
ÑģÑĤÑĢÑĥ Ðº
Ð°ÑĤ ÐµÐ»ÐµÐ¹
ĠÐ½ ÐµÐ²
ob ili
g em
ĠÑģ ÐµÐ³Ð¾Ð´Ð½Ñı
ĠÐ²Ñģ ÐµÐ¼
ĠE conom
ĠM á»Ļt
-------- --------
Ð¸Ð» Ð¾
ch ten
ĠÂ ¢
Ġpur pos
Ġc ra
Ð¸Ð¼ Ð¾ÑģÑĤÐ¸
ont ro
l ar
ĠÐ¿ÑĢ ÐµÐ¿
ĠÐ¼ Ð¾Ð¼
Ġ9 00
ĠBe ach
EL L
Ġb atter
ĠÑĢÑĥÐ± Ð»ÐµÐ¹
ĠÐ¿ ÑĥÑĤ
ĠÐ²Ðº Ð»ÑİÑĩ
Ġv ict
ĠÐ± ÐµÐ»
Ġk ids
ĠTh u
unci os
Ġse em
und ial
Ġt iÃªn
Ġcon hec
ÐµÑĢ Ñħ
Ġpat r
Ġcons erv
ĠÐ² Ð¾Ñģ
Ġtak en
Ġh ar
ĠE dit
ĠW ell
ãĥķ ãĥĪ
u che
ĠãĤ °
è¡ ĵ
Ġno vo
ãĥĨ ãĥ«
Ġacc omp
Ġmat ter
ĠDig ital
Ġcaus a
Ġqu and
Ġj s
ier ten
Ġdou ble
Ġk iáº¿n
Ġb ay
Ġextre m
çµ Ĥ
Ġread ing
Ġnghiá»ĩ m
Ġam azing
uer do
Ġm Ã¶glich
Ġc oc
Ð°ÑĤ Ðµ
Ġge f
ĠMe hr
Ð ¦
ĠÑģÑĩ Ð¸ÑĤ
Ġcor por
Ġch iáº¿n
Ġan ci
ÑĥÐ´ Ð°
Ġszcz eg
Ġg reen
i at
ĠdÃ© velopp
éĮ ²
Ġtreat ment
Ġè ª
ĠÐ´ Ð¾ÑģÑĤÐ°Ð²
ĠÐ²Ð¾Ð· Ð´
é ¢¨
ord s
Ġd ra
Ġt un
Ġvis ual
Ġbere its
Ġch eg
ĠJa hre
Ġm ec
Ġvá» ĩ
Ġoff icial
å® ¢
ĠÑĢ Ð°ÑģÑĤ
åĬ ¹
it ional
Ġinf lu
Ġ ãģ§
Ġme in
Ġb á»ı
Ġï ¾
Ð¸ÑĨ Ñĭ
Ġl Ã²ng
ãĤģ ãĤĭ
ĠÑģÐ°Ð¹ÑĤ Ðµ
Ġsh ows
Ġlá» £i
Ġint Ã©r
Ġcon form
ï¼ Ī
¡ ng
ĠÐ´ÐµÑĤ ÐµÐ¹
Ð» Ð¸Ð½
um n
Ġc Äĥn
a pp
Ġãĥ Ĩ
Ġcommer cial
Å ģ
Ġabr il
ĠD am
Ġst ars
ĠÃ Į
èģ ŀ
Ġlog o
ial i
Ġho a
Ġand ere
eb ot
Ġus ually
Ġinter ior
æľ ¨
Ġo portun
Ð½Ð°Ðº Ð¾
ĠA h
j Ãł
Ġatt ention
Ġincre ase
ĠIs ra
Ã¡c il
ĠW ed
Ġp ien
ou ch
Ġrecher che
Ġorgan is
ĠB M
ĠD im
ĠÐ²ÑĭÐ¿ Ð¾Ð»Ð½
Ġsecond o
Ġh ospital
C om
Ġk aufen
ĠC ette
ÅĽ wiet
ĠK Ã¼
p as
ÐºÐ¸ Ñħ
r Ã¤
Ġwur den
Ġr am
m el
Ġout side
åı Ĥ
ĠÑĦÐ¾ÑĤ Ð¾
ĠÐ½ Ð°Ð²
ĠM Ã¡s
Ġg am
ĠS ac
ĠNo te
ĠE ins
ĠB ud
Ġsk ills
ĠÐ¸Ð½ Ð´
ĠrÃ© alis
ãģĤ ãģ£ãģŁ
Ġs le
Ġcom ing
ĠInd ia
Ġins urance
Ġs Ã©rie
Ġm inha
Ġthrough out
own ik
Ġtak es
Ġmem ber
wi at
Ġr ather
Ġkh iáº¿n
iz es
ĠS ul
do or
ak ers
ãĤ¤ ãĥ³ãĥĪ
B O
Ġl assen
Ġcurrent ly
Ġchar acter
ĠFir st
ĠD ou
Ð¾Ð¿ Ð°Ñģ
Ġc ategor
ÅĤ as
Ã© ro
Ġwe ight
Ġwar en
Ġest able
Ġmag n
Ð°Ð» Ð°ÑģÑĮ
ing e
ĠÐ¼ Ð¾
Ġpatient s
Ġint ens
éģ İ
Ð¾ÑĢ Ð¸Ñı
Ãĵ N
æ® µ
æĿ ±
Ð¾Ð³Ð» Ð°Ñģ
Ġre duc
Ġprom ot
åķ Ĩåĵģ
ĠÄĳ á»§
Ġad m
ĠP ok
ĠMin ister
ÐºÐ¾Ð² Ð¾Ð´
ĠÐ» Ð¸Ð±Ð¾
ķ ç¨¿
ĠâĢ¦ .
Ġalg um
ãĥ³ãĤ ·
ĠÑĦ Ð¸Ð½
ĠL uc
Ġsond ern
Ġobjet ivo
ĠÐľ Ð°ÑĢ
Ġm 2
èŃ ·
ç ²
ãģ» ãģ©
Ġt Ãªn
Ġrap id
Ġcos as
Ġactiv ities
ĠSch w
ĠB eit
éĢ ²
Ġconstru ction
ãģĿ ãģ®
ĠÐĶ Ð¶
C D
Ð¾Ð¼ Ðµ
Ġé ĸ
Ġm oy
Ġde te
Ġqual itÃ©
Ġposs ono
Ġkosten los
ĠÐ¾Ð±ÐµÑģÐ¿ ÐµÑĩ
Ġhab ÃŃa
Ð¾Ð»Ð½ Ð¸ÑĤÐµÐ»ÑĮ
Ġdes crib
ãģ« åħ¥
Ġver b
ĠW al
ĠO ver
Ġad j
om an
Ġequ ipo
Ġd atos
ĠF OR
ĠEst ados
ĠD eb
ot y
Ġs endo
Ġph im
pos ta
ĠR ou
âĢ Ķ
Ġd abei
Ġplus ieurs
ĠMart in
Ġt us
Ġflo or
Ġcli entes
um s
um mer
Ãª ng
â ĺ
Ð°ÑĤ ÑĥÑĢ
Ġele v
ĠL av
ķ Ĩåĵģ
åħ ī
Ġder ni
ĠÄĳá» ©
ĠÄĳ a
ĠH ay
Ġp isc
Ġt ag
ĠM ir
Ġag ua
ĠN orm
Ġpract ice
Ġb il
ãĤī ãĤĮ
Ã¼ h
Ġ% )
Ġb este
Ġa udio
ĠTH E
ĠFeder al
Ã³ t
ific aciÃ³n
ĠP ers
ãĤĵ ãģ§ãģĻ
Ġh Ã´t
r il
ĠHe alth
om s
it to
ĠÐ» Ð¸Ñĩ
Ġf la
Ġdel lo
æķ Ļ
Ġplat form
ĠÐ¼ Ð»
Ġs ant
ãģª ãģ®ãģ§
Ġro ck
Ġbu ilt
Ð¾Ñĩ ÐºÐ¸
Ġd w
u ary
Þ ¨
Ġa vez
l agen
iz ation
Ġin contr
Ġcamp a
n am
ch arg
D R
Ġp ia
ix o
Ġc á»Ńa
Ġac onte
f ten
ale Å¼y
Ġresult ados
Ġnaw et
Ġsu cc
Ġex iste
ĠSec ret
ĠG ame
ĠçĦ ¡
è¶ Ĭ
çĶ ·
s c
ro c
get to
Ġtá»« ng
Ġins ide
ĠÑĤ Ð¸Ð¿
ĠÐ¿Ð» Ð°ÑĤ
ĠNh á»¯ng
ĠB eg
Ã©rie ur
ac er
Ġs r
ĠE T
ãģĵãģ¨ ãĤĴ
ĠÐ½ ÐµÐ±
9 2
Ġex am
ĠBund es
ãĤı ãģĽ
kt ion
ãĥ¼ãĥ ŀ
ex _
ĠÐ² ÑģÑĤÑĢ
ĠCont in
wa Äĩ
ĠM ach
ĠT ak
kc ji
9 8
Ġautom at
ĠEn d
Ġc ier
ĠÐ² ÐµÑģ
Ġstud ent
ĠÑģÐ¿ Ð¾ÑĢÑĤ
Ġa ura
ĠKh Ã´ng
ĠM ond
ĠÐ¿ Ð¾ÑģÑĤÐ°Ð²
r Ãł
oc y
ĠÐ´ ÐµÑĢ
Ġcho ice
Ã¹ a
ĠÑģÐ»ÐµÐ´ ÑĥÑİÑī
Ġf eder
ãģĤãĤĬ ãģ¾ãģĽãĤĵ
Ġqu ale
Ġstud io
ab an
ĠÐ² ÐµÑī
Ġh ombres
Ġfac ile
Ġe ig
Ð»Ñİ Ð´
w ir
ĠContact os
yt u
av es
Ġs ection
ig es
ĠÑĢÐ°Ð· Ð¼ÐµÑĢ
ĠS us
ÐµÑĢ ÐµÐ´
Ð¾ÑĤ Ñĭ
ĠÑĢÐµÐ± ÐµÐ½
ãģ£ãģ¦ ãĤĤ
ive au
Ð°ÑĢÐ¸ Ð°Ð½ÑĤ
ig ne
Ġat en
ãģį ãģŁ
ĠP A
ĠV ene
ven ir
enn en
B C
Ġprob ably
Ġkole j
Ġesc rit
ic ip
ĠÑĨ ÐµÐ»
ĠÐ²ÑĢÐµÐ¼ ÐµÐ½Ð¸
Ġeas ily
Ġå ·
ĠktÃ³ ra
ic ias
ard a
Ġnie z
ĠD aten
æł ¡
Ġsuper ior
el er
ĠJap an
ĠS uj
Ġå® Ł
Ġvec es
ĠÐ³ Ð¾Ð»
Ġpor ta
Ġcomp art
Ġqu art
ĠÑĩÐµÐ»Ð¾Ð²ÐµÐº Ð°
Ġs at
ĠDes c
æ ģ
F OR
Ġph ong
Ð¾Ð² Ð¾Ð³Ð¾
å¤ļ ãģĦ
E A
Ġno i
Ġch uyá»ĩn
ĠB ack
ãģĮ ãģĤãĤĬãģ¾ãģĻ
ĠÐ½ Ð¾ÑĢÐ¼
a ult
Ġè ¿
Ġpo is
ĠâĢ »
Ġhigh er
Ġh id
ĠCh amp
Ġc ort
on c
Ġem b
ĠTr ump
ĠOff ice
Â ¢
éģ Ķ
Ġav ons
Ġdir ig
Ãº a
z es
Ġtry ing
Ñĳ Ð½
s u
ol it
ĠCont rol
ĠBew ert
ĠÐ¿Ð¾Ð»ÑĮÐ· Ð¾Ð²
Ġlong er
äº ¤
Ð¾ÑĢ Ñĭ
Ġh iá»ĥu
¼ åħ¥
ĠÐ½Ð°Ð» Ð¸Ñĩ
Ġmad uras
Ġis n
Þª Þ
ĠT uy
ĠNh Ãł
ĠD istr
Ġspe ed
ĠÐ³ Ð°Ð·
Ġaccord ing
ĠSe ite
i ada
ĠgiÃ¡ o
Ġconst it
ĠB au
æĥ ³
ic iel
Ġsu d
Ġcomp rom
ĠÐ´ Ð¾Ð²
Ġcitt Ãł
ÃŁ er
ĠÐ³ Ð°ÑĢ
ĠC os
Ġam pl
Ġmen u
Ġall er
ĠF un
A r
Ġsegu ir
Ġer h
Ġd ni
æĦ Ľ
Ð½ ÐµÐ¼
ĠÑĤ ÑĢÑĥÐ´
Ġmá» Ĺi
ãĥĲ ãĥ¼
ãģ® ãģ«
z iel
Ġt ua
ĠM ini
Ġtr uyá»ģn
Ġf as
ĠÐ¼ÐµÐ¶Ð´ Ñĥ
Ġmet al
ĠÐ´Ð¾ÑģÑĤ ÑĥÐ¿
Ġh ref
Ãĩ ÃĥO
on se
ĠÄĳ Äĥng
ub re
Ġin ner
Ġcer ta
Ġw anted
Ġb ol
Ġtechn olog
ä»ĺ ãģį
Ġlos s
Ġcl im
Ġha ir
ãĤĤ ãģĹ
owa ÅĤ
f s
ag ens
ĠÑģÐµÐ± Ðµ
Ġcons id
ä¼ļ ãģĦ
Ð² Ð¸Ð¶
ann t
Ġro dz
Ġall en
ãģĦãģŁ ãģł
ic l
ĠÑģÐ¿Ðµ ÑĨÐ¸Ð°Ð»ÑĮ
ç¨ ®
Ð¸ Ð»Ñı
Ġrealiz ar
Ġlav or
Ġpr int
Ġdes e
ĠArt ikel
Ã¨ le
Ġstr ess
ĠmÃ¼ss en
i Ã§Ãµes
ĠV illa
Ġmill ones
ĠServ ices
ww w
Ġpre tty
Ġhá» ıi
Ġfund ament
Ġeffect ive
Ġs yst
ĠF inal
ĠÐ²Ð½ ÑĥÑĤÑĢ
ĠK it
Ġ199 9
b ach
Ġproject s
ĠÐ½ÐµÐ¾Ð±ÑħÐ¾Ð´Ð¸Ð¼ Ð¾
ĠT al
¬ ĳ
wh ere
ĠA re
cz enia
Ġr ies
hl t
ĠM ur
ãģ¡ãĤĥ ãĤĵ
Ġp oll
Ġmar s
Ġg round
ĠM ain
ĠJ une
Ġr ess
ĠGo od
ors a
Ġam igos
Ġsci ent
Ġt es
Ġro und
è Ĳ
ÃŃt ulo
Ð¸Ð» Ð¾ÑģÑĮ
Ġr ice
Ġn ied
Ġcan not
ĠPr zy
Ġt v
Ġbut ton
Ġra pport
ĠcÃ³ mo
Ġsol ic
ĠMed ia
¹ ä»ĭ
Ġtr att
c are
Ġapp ly
Ġs otto
Ġcáº£ nh
ĠCh eck
ĠÑģÐ» Ð¾Ð¶
Ġrec up
Ġd Ãłi
ä»¥ ä¸Ĭ
n ung
Ġpou vez
Ġrece ived
Ġhel d
Ð°Ð· Ð´
Ġw orth
or ation
n ier
ec a
Ġl ok
Ġbo ard
ĠCon se
ÅĤ at
ib e
ub o
9 4
Ġmod e
ÑĥÑĤ ÑģÑĤÐ²
Ġpl ans
Ġdev ice
ãĤī ãĤĮãĤĭ
Ġnum ero
ios o
e ur
ĠCent ral
un ts
ĠG ru
äº Į
d i
ĠR is
Ġquest i
Ġle ave
ĠT ot
lich er
ĠÐ¿ÑĢÐ¾Ð² ÐµÐ´
Ġw ish
Ð°Ð½ Ð¸Ñİ
Ġalle m
9 7
ĠdÃ© jÃł
Ã¶ t
Ġig ual
h in
en cy
Ġng u
ĠE du
ze w
Ġke in
Ġgrow th
Ã¨ ne
Ġa w
ĠÐ¿ÑĢÐµÐ´ Ð¾ÑģÑĤÐ°Ð²
Ġdem on
Ġlib re
Ġgu ide
Ġd raw
Ġch Ã¢n
ujÄħ c
ĠÐ´ Ð¾Ð±Ð°Ð²
è¿ Ķ
H A
Ġsoll te
Ġs end
Ġsub s
Ġdis se
nik Ã³w
Ġpol ic
ÐµÐ½ Ð½Ð¾ÑģÑĤÐ¸
int age
Ãªn cias
ver o
Ġv ier
Ġpar ece
orn ia
is iÃ³n
Ġcol oc
ĠÐ¶ÐµÐ½ Ñī
Ġtr á»±c
ĠC iv
è¼ ī
ĠO S
op o
Ġpos ted
Ġper c
åĥ ı
ÑģÑĤ ÑĢÐ¾
Ġden n
orn ing
ĠÐ¿ÑĢÐ¾Ð² Ð¾Ð´
r ia
qu Ã©
Ġmod elo
ĠÐ»ÑİÐ´ ÐµÐ¹
ĠÐ¸Ð¼Ðµ ÐµÑĤ
ãģĦ ãģı
ziÄĻ ki
ãģ® ãģ§ãģĻ
Ġprodu its
Ġm ur
èª ¬
ĠÐ± ÐµÑĢ
ĠÄĳá»Ļ i
ĠSt ates
ub a
ĠEl le
0 2
us ch
Ġlead ers
ĠCar los
ce ed
ar ed
Ġk Ã½
Ġdi jo
zi Äĩ
w al
ĠJu an
éĻ ¢
Ġnouve au
Ð¡ Ð
Ġcha que
ind en
h old
Ġqu áº£n
ãĤĬ ãģ¾ãģĹãģŁ
ib er
Ġf isc
éĸ Ģ
Ad visor
Ġç ¬¬
ãģĹãģŁ ãģĦ
ĠÄĲ áº¡i
Ġkt Ã³r
ĠCount y
Ġme io
Ġ? ?
ens es
ĠÐ¶ Ð¸Ð·Ð½
ĠÐ¸Ð· Ð²ÐµÑģÑĤ
ĠÐ°Ð² ÑĤ
ĠD ate
Ġn ation
ç´ °
ç ¿
is ted
Ġinter no
Ġfl ow
Ġag re
ĠM ail
ĠÑģÐ¾Ð² ÐµÑĢÑĪ
Ġmem b
ĠN aj
E x
ĠÐ¸Ð· Ð±
v ista
ãĥ¼ãĥ Ĩ
im ientos
ĠAn s
Ġp in
st ar
è« ĩ
ch ange
Ġenc our
ĠI g
ÑĢ Ð¸Ð¼ÐµÑĢ
t u
ĠV ert
ĠB all
ãģĻ ãģĻ
ÑĤÐ¾ Ñĩ
ĠÐºÐ°Ð· Ð¸Ð½Ð¾
Ġentre pr
ect s
ĠÑĥ ÑģÐ¿
Ġm io
Ġg h
Ġa er
ãĤĴæ Į
Ġsch ed
ĠSe e
Ġmar gin
ĠPh il
le p
ap a
Ġmuch os
Ġf Ã¡cil
Ġlook s
Ġkh ai
Ġer sten
ĠPro c
Ã¶glich keit
Ġwe eks
Ġto wn
Ġbras ile
ĠH al
id ores
Ġenf ants
ĠÑĢÑĭ Ð½
ĠAl ber
Ġresp ond
Ġjus qu
ãĥĩãĤ£ ãĥ¼ãĤ¹
Ã Ļ
IS T
ĠÃ ®
Ã©c ur
v id
ua Ã§Ã£o
s iÄĻ
Ġfal ta
Ġess ay
ãģ§ãģį ãģ¾ãģĻ
c ast
ĠN el
Ã© ra
at te
Ġpow in
Ġs Ã¡t
k lich
Ġå ĩº
Ġpro por
ĠThe o
ĠÐ¢ ÑĢ
å£ «
ur en
ĠÐļÑĢ Ð°Ñģ
Z W
ĠåĲį çĦ¡ãģĹ
Ġm á»¥c
Ġin m
æŃ ©
Ġg ust
Ġrec om
Ġæ Ī
Ġcontra ct
Ġ. :
ĠÑģÑĢÐµÐ´ ÑģÑĤÐ²
Ġpas ado
Ã¡ rias
Ġans wer
ç§ ģ
ĠÐ¼ Ð°ÑģÑģ
Ġserv icio
ĠJ ed
ãĤ¯ ãĥª
Ġni Å¼
Ġst esso
Ã¡n d
Ġuns ere
Ġtem pl
Ġac ab
Ġè »
Ð°Ð¹ Ð´
ven ue
tr ies
if ier
ĠÐŁ ÐµÑĤ
Ġcult ura
¯ u
Ġs ap
ĠK unden
Ġword s
Ġd ati
ĠG reat
ors ch
Ġinform azioni
Ġcorre ct
Ġconoc er
ĠR ub
ÑģÐ¿ Ð¾ÑĢÑĤ
ĠÂ ¤
Ġren contre
Ġ ici
ĠÐ¸Ð³ÑĢ Ñĭ
Ġph otograph
Ġinclud ed
ĠFest ival
Ġz ag
Ġcá»© u
ĠC in
ĠQu ando
Ġgi orn
æĮ ĩ
ÑĢ Ð°Ð¶
ĠW ash
ãģĹãģ¦ ãĤĤ
Ġwar to
Ġm eg
Ġè ¨
ur b
Ġac cept
ĠZ u
ĠC ir
çĻ ½
Ð½ ÑĥÑĤÑĮ
Ġpol icy
Ð¾Ð² ÑĭÐ¹
att le
áº¿ p
Ġup on
é¡ į
åį ĺ
Ġne uen
Ġim pl
åĤ Ļ
Ġs op
Z A
Ġsum mer
è¨ ¼
Ġprzy pad
Ġbott om
l oss
Ðŀ ÐĴ
en Ã§a
en cial
av ing
Ġcres c
ĠB áº¡n
sch ied
Ġpar ts
Ġthu á»Ļc
Ġass ess
Ġa pos
Ġre le
Ġad emÃ¡s
anh a
Ã¢ ng
ĠIn de
E X
ãĥ« ãĥĪ
ÐµÐ» Ð°
ÅĤo Å¼
Ġform at
ĠS U
Ġso le
è¶ ³
en ge
ĠAnton io
pa ir
ĠÐ´Ð¾Ð¼ Ð°
Ġem er
isp iel
Ġintro du
ĠMan agement
ĠHo ch
Ġinc or
Ġgiá»¯ a
Ġal ter
up e
ick ets
0 4
Ġle gg
ĠÑĦ ÑĥÐ½Ðº
ÑĥÑĤ Ð±
ĠSuj et
ĠP la
Ð»ÐµÐ½ Ð¾
D O
Ġim press
ĠTh anh
ĠK ur
ĠE vent
CI ON
Ġw al
Ġo v
ĠL ang
ĠâĻ ª
ĠÐ¼Ð¸Ð½ ÑĥÑĤ
Ġverd ad
ĠD ES
ĠG all
Ġto ols
Ġrela x
in et
ÐµÑĢ Ð²
ĠÑĢ Ð°Ð½
Ġc idade
ĠO cto
Ġk ommt
¿ Ģ
Ġd oll
ĠK ra
Ġå ¿
ĠÐ¿Ð¾Ð·Ð² Ð¾Ð»Ñı
ĠÄĳá» Ŀi
ĠFem me
Ġbeh ind
Ð¾Ð» ÐµÐ²
ĠÑģÑĤ Ð°Ð½
Ġc á»ķ
Ðº Ð¸Ðµ
ĠEx per
Ġpart ie
ĠÐ¾ÑĤÐºÑĢ ÑĭÑĤ
ĠprÃ³ pr
Ġni Ã±os
æ ¡
Ġæ° ´
ĠN ero
Ġå ±
ĠÐ² Ð°ÑĢÐ¸Ð°Ð½ÑĤ
ĠSo ftware
b ew
Ġca ÅĤ
ãģį ãģ¾ãģĻ
¦ ı
ĠâĦ ¢
T r
Ġinform aÃ§Ãµes
ell ow
ag na
Ñĩ Ð¸Ðº
qu et
ĠEs s
Ġwy b
Ġl ower
ud es
ĠÐ³ÑĢ Ð°Ð¶Ð´Ð°Ð½
Ġall ows
Ġdec id
ĠL an
ç ĻĤ
Ã¤t z
r ero
Ġt old
Ġliv re
ĠÑģ ÐµÑĤ
Ġrag az
é¡ ŀ
ãĤ· ãĥ§
ĠT ab
Ġel la
0 7
ĠÐ¿ÑĢ Ð¸Ñģ
Ġm á»©c
ĠG alaxy
ĠÐ¡ Ð¾Ð²
Ġpurch ase
Ð¸ Ð¾Ð´
h an
ora Ã§Ã£o
Ġæ Ĺ
ĠÐ¾ÑĤ Ð´ÐµÐ»
Ġ3 60
èģ ·
ir th
Ġtra v
ĠÑĥ Ñģ
Ġk ra
Ġcomp te
Ġdo it
ĠS ob
Ð½ Ñİ
st Ã¤nd
lie ÃŁ
ĠÐ´ Ð¾Ð³Ð¾Ð²Ð¾ÑĢ
Ġris ult
Ġcli ente
Ġch iáº¿c
ĠW el
Ġal ign
ĠB ol
Ġsu p
ycz ne
Ġview s
stell ung
Ã± as
è» ¢
Ġpic c
ÃŃst icas
Ġn ic
ĠE c
ut ter
b our
fahr en
ĠÑģÐ² ÐµÑĤ
b ur
Ġvar iety
ĠTh ank
ĠG ia
Ð» Ñĭ
Ġkho áº£ng
Ġversch ied
ul g
Ġsu e
Ġquick ly
ĠÑģÑĤÐ¾ Ð¸ÑĤ
Ġmil it
Ġest re
ĠM ol
kt or
Ð² ÐµÑĢÐ¶
Ġl ate
ot ros
Ġp az
ĠTr ib
sk ich
f it
ĠRad io
åĢ ¤
Ã¼r lich
ĠÐ½Ð°Ð´ Ð¾
Ġreg ion
Ġ: -
ĠÐ± Ð¸Ð·Ð½ÐµÑģ
Ġd or
Ġch am
Ġaqu ÃŃ
ĠH am
ĠB io
ãģĻãģĻ ãĤģ
Ġsp l
ador as
Ġapplic ations
èī¯ ãģĦ
vo le
fe kt
M E
ĠAb s
ĠW ord
ied ade
ÃŃ lia
Ġprime iro
ĠT i
Ġpie ce
ĠÐ¿Ð¾Ð» Ð¾Ð¶
Ġk onn
Ġfac ebook
Ġé £
Ġsav oir
Ġpro bl
Ġpos ible
ĠR u
ĠPr ess
ĠL ight
Ġn ivel
wit ch
ĠMÃ© xico
Ð² Ð°ÑĤ
ĠÐºÐ¾Ð½ ÑĤ
ãģ¨ ãģį
ÑĭÐ² Ð°ÐµÑĤÑģÑı
Ġm áº¡ng
fr ica
Ġl ec
Ġsu i
Ġp ont
Ġ12 5
ional i
ĠÑĢ ÑĥÐº
ĠÐº Ð¾Ð¶
Ġa st
m on
Ġv n
Ġhe ute
Ġhe av
od es
Ġs f
Ġd orm
G R
éŁ ³
ic ks
ĠÑģÑĤ Ð°Ð²
Ġkit chen
Ġb order
çĶ ±
æı Ľ
ãĤĪ ãģŃ
Ã©r ation
is ir
åĪ ¤
ä¸ ī
d r
Ġprogram s
ĠÐ³Ð¾ÑģÑĥÐ´Ð°ÑĢ ÑģÑĤÐ²ÐµÐ½
Ġtele fon
Ġnh iá»ĩm
ian co
ĠA y
Ġins er
Ġ3 50
Ġ ì
Ġ ãģĹãģĭ
Ġrem ov
Ġan terior
Ġus ar
Ġpropr i
Ð¸Ð»ÑĮ Ð½Ð¾
n ÄĻ
w in
ĠP av
Ġalgun os
ĠJ ose
Ġchu áº©n
l og
ane j
gg io
Ġj unto
ĠFam il
Ñĳ Ð¼
Ð°ÑĢ Ð°
Ġwy kon
Ġ äºº
Ġpr end
Ġent ry
Ġcas os
fÃ¼ g
ĠR un
ve y
ci u
ÑĮ ÑİÑĤ
ĠH u
ÃŃ veis
ĠF ig
éģ ĭ
tr z
ĠÐŁÑĢ Ð¾
Ġn á»ķi
Ġmaterial s
ĠG B
Ġzur Ã¼ck
Ġentre prise
ĠpolÃŃt ica
red i
Ġl um
ÑģÑĤÐ² Ðµ
ĠV iew
ĠM B
Ġho je
Ġad olesc
ĠB uen
Ġde ep
ãģĹãģ¦ ãģĬ
ĠÐ¡ ÐºÐ°ÑĩÐ°ÑĤÑĮ
Ġd ung
to ut
at ica
ap ter
Ġsus p
d om
ĠIs land
Ġk iá»ĥm
Ġal tre
Ġto ol
Ġex cel
ãĥ¼ãĤ« ãĥ¼
ĠTh en
Ġvend ita
ĠNe xt
ÐµÐ¼ Ð°
ÑĨÐ¸ ÐµÐ¹
Ġmin ist
Ġin it
ãĥ¼ãĥ ©
ĠÑģÐ¸ÑģÑĤÐµÐ¼ Ñĭ
ĠÐ¸Ð¼ ÐµÐ½Ð½Ð¾
Ġprote ct
Ġbe ach
OS T
ĠdÆ°á» Ľi
é Ń
Ð¿Ð¾Ð» Ð¾Ð¶
ĠÐ¡ Ð²
Ġl ux
æ¸ Ī
g os
g as
ĠÐº Ð°Ð¿
Ġos Ã³b
Ġe du
å¼ µ
Ġnou velle
ĠC ode
ç´ ¹ä»ĭ
Ġt áº¥t
Ġl y
Ġl ar
vers o
ĠÐĺÐ½ ÑĤÐµÑĢ
Ġb esch
Ġag li
ãĥĹ ãĥ¬
Ġanno un
Ġ= =
z on
ĠÐĳ ÐµÐ»
ĠÐ¾ Ð·
ĠJ ac
ï¼ Ķ
Ġæ ł
Ġserv icios
z pie
ĠÑĤ Ð¾Ð¶Ðµ
Ġpot rze
ĠÐ¿Ð¾ ÑıÐ²
ĠÑģ ÐµÐ¹ÑĩÐ°Ñģ
Ġz ach
aw a
Ġho ch
ĠV on
ĠÐĴ Ð°ÑĪ
Ġdo or
ãĥ¼ãĥĵ ãĤ¹
ĠÑģÐ¾Ð² ÑĢÐµÐ¼
Ġprote ction
Ġ io
ãģį ãģª
zy Äĩ
ÑģÑĤ ÑĥÐ¿
Ġtr i
Ġgo al
ĠAd idas
Ġh ui
Ðº Ð»ÑİÑĩ
ow l
Ġnuov a
Ġlib ert
ĠC S
èĳ ī
Ġwe il
ĠÑĤÐµÑĢ ÑĢÐ¸ÑĤ
ĠLo ve
Ġth Æ°
Ġsugg est
ĠV an
ĠV it
il ing
ĠÐ²Ñĭ Ð³
Ġ199 8
ãĥ¼ãĥ Ĳ
Ã¡ st
O U
ç§ ĳ
d es
ĠãĤŃ ãĥ£
iz ado
Ġnost ra
ent emente
Ġ| --
iz er
Ġpre ced
Ġlet z
n io
Ġric erca
ĠCon st
Ġkh ÃŃ
Ì ĥ
ĠÐ¿ÑĢ Ð¸Ð´
Ġpartic ul
Ġer r
Ġse ule
Ġbl ue
itt ing
Ġcir ca
ĠM iss
Ġex cept
r icht
Ġcu c
ĠÐ·Ð´ ÐµÑģÑĮ
am ment
ak es
ĠÐ¿ÑĢÐ¾Ð´ ÑĥÐºÑĤ
Ġr ent
ĠCalif ornia
Ġtran qu
Ġnecess ary
ĠLo ok
Ġcon cl
ÐµÑĩ Ð½Ð¾
ac jÄĻ
ĠG as
ä¸Ĭ ãģĴ
Ġb Ãł
Â ¯
Ġl ect
Ġc ross
or ie
Ġå½ ĵ
ĠÐ¿ Ð¾ÑĤÑĢÐµÐ±
ĠSh ow
Ġ Ï
ell ig
Ġen se
æ° ĳ
æħ ĭ
ĠÐ· ÐµÐ¼
ĠO t
ÑĦ ÐµÑĢ
Ã¡ ct
Ġdi al
ĠC C
Ãº blic
ĠK ir
Ġmain tain
ow iÄħ
Ġcom ments
A Y
ç´ į
ç¥ ŀ
ĠwiÄĻ c
Ġpart ners
Ġst os
Ġm p
Ð¸ÑģÑĤ ÑĢ
Ġsal ud
r esse
Ġan ge
äº Ĩ
ãĤ¢ ãĥ«
ÑĢ Ð°Ð´
et ic
å® ħ
ĠâĢľ ,
en cias
Ġequip ment
ni ÄĻ
Ġh it
ĠB ern
Ġwr ite
Ġost at
Ġelect r
Ġag ora
Ġl Ã£
ĠS ER
Ġposit ive
ĠF it
Ð¾Ð¹ Ð´
er te
ãĤĦ ãģĻ
ĠÐ²Ð¸Ð´Ðµ Ð¾
c s
Ġpro jekt
ĠD amen
IN A
ĠP age
åĢ ĭ
arg ar
ĠO h
Ã³ i
ĠÐ¾ ÑĨÐµÐ½
Ġgra cias
ĠÐ³Ð¾ÑĢÐ¾Ð´ Ð°
Ġcomple to
ĠA st
Ġu00 3
Ġpeu vent
Ġwork ed
è¦ ı
Ġprov iding
Ġatt end
ĠP ack
ix a
Ġch ÃŃ
ÅĤo ÅĽci
Z X
ĠÑĢ ÐµÐ¶
Ġc Ã¢y
ĠH en
Ġact ive
ÑĥÐ¶ Ð´
Ð¸ÑĢÐ¾Ð²Ð°Ð½ Ð¸Ñı
Ġ} );
Ġf en
ĠRep ub
ÐµÑĪ ÑĮ
ÑģÐº Ðµ
iÄĻ k
Ġter ms
Ġfor te
Ã¡ f
le ps
Ġc Ã¢u
ÐµÐ½ ÐµÑĢ
Ġsal a
Ġciv il
wer k
f Ã¼r
Ġliv es
Ð°ÑĢÑĤ Ð°
ov o
ĠÃºlt imo
Ġt arde
Ġn ing
å® ¤
Ġt iáº¿n
ĠÐ°Ð² ÑĤÐ¾ÑĢ
Ġmed ical
Ġfres h
Ġen vi
Ġdes n
Ġcur so
ĠUn idos
Ġg á»įi
Ġbon ne
Ġat iv
ãģĦ ãģªãģĦ
ÐµÐ½ Ð½Ð¾Ðµ
Ġse ems
Ġpre oc
Ġpre f
ĠP ay
ĠJul y
nik i
Ġsh opp
ç ¬¬
Ġrel ativ
f ield
ar ÃŃa
AT ION
Ġcost s
ĠJ ames
Ã´ le
æĸ ½
b ior
Ġs áº¯c
Ġ2 20
Ġaf in
Ġst ream
ĠW ork
g ed
Ġsp ielen
Ġde clar
äºº ãģĮ
Ġrec ogn
Ð¸ÑģÑĤÑĢÐ° ÑĨÐ¸Ð¸
era Ã§Ã£o
Ġev alu
ĠO P
Ġéĩ ĳ
ĠÐĽ Ñİ
uy áº¿t
ĠÐ»ÑĥÑĩÑĪ Ðµ
Ġar qu
ĠZ w
qu ina
ow an
ĠÑĤÐ°Ðº Ð¾Ð¹
Ġpel ÃŃcul
Ġimpro ve
ĠK n
Ġãĥ ¢
ĠP atr
ĠL ux
ĠÑģÐ²Ð¾ ÐµÐ¹
ĠÐ½ÐµÐº Ð¾ÑĤÐ¾ÑĢ
æ¯ Ķ
pos it
Ġproduct os
ĠdÃ© p
Ġany one
ĠÑģÐ²Ð¾ Ñİ
Ġx Ã¡c
Ġav ere
ĠL ine
ĠÐ¼ÐµÑģÑĤ Ð¾
Ġro l
Ġa tr
Ġnh u
Ð°ÑĢ Ð¾Ð²
Ð°ÐºÑģ Ð¸Ð¼
Ġcar te
çµ ¦
Ð¼ Ð¾ÑĤ
ĠÐ± Ð»Ð¸
ĠV ict
ĠÅ »
Ġex emple
ĠY a
ĠS ud
æ² »
ĠK im
æĸ¹ æ³ķ
F A
ĠÅĽ rod
Ġpremi Ã¨re
Ð°Ðº Ð¾Ð²
ĠÐŀ ÑĢ
ĠÐĴ Ð»Ð°Ð´
Ġgu ar
Ġdo b
Ġfem me
Ġapp re
ĠSp a
Ñģ ÑĭÐ»
Ð°Ð»ÑĮ Ð½Ð¾Ðµ
Ġmat r
ug no
Ġli qu
Ġon es
Ðł ÐĲ
on ces
ĠMater ial
ab ili
ĠÐ» ÐµÑĩ
Ġgo verno
E E
ĠÃ ±
ĠÐ½Ð°ÑģÑĤ Ð¾ÑıÑī
ĠÐ½ ÐµÐ³Ð¾
Ġserv izio
Ġb out
id i
ĠÃ¡ p
Ġpos to
Ð¸ÑĨ Ð°
k ommen
ĠÑĢÐµÐ³ Ð¸Ð¾Ð½
ĠÐŁÑĢ Ð¾Ð´
ĠÐ¿ÑĢ ÑıÐ¼
Ġv Ã©
Ð¸ ÑĨÐ¸Ð°Ð»ÑĮ
Ġå ¸
Ġg áº·p
ĠPol it
Ġcon vert
an co
mar k
Ġdies en
ĠG el
Ġnos so
ĠWars za
ent y
ĠBo x
ĠAt l
3 00
Ġ$( '
á»Ń i
h b
V A
ĠC up
ĠÐ´Ð² ÑĥÑħ
Ġde pois
Ġa pl
icz ne
Ġeff et
Ġs ost
ĠMus ic
ĠÑģ Ñĭ
Ã¨ n
AD O
ĠÐ¿ÑĢÐ¾Ð² ÐµÑĢ
ĠÐ¼ Ð¾Ð»
Ġmeet ing
en i
Ġl Ã©g
ug u
o j
Ġnot hing
ĠPre mi
ĠD urch
vers e
Ð½Ð¾ Ñģ
cc iones
ĠÐ¾Ñģ ÑĥÑīÐµÑģÑĤÐ²
Ġre por
Ġo ct
Ġchall eng
Ġ á»
Ġcr ist
Ġ ign
æ ļ
Ġplac es
ol ar
Ġpro wad
Ġcert ific
Ġn r
te c
à ¤
ie me
Ġch á»ĳng
ĠAss ist
ãģ¨ è¨Ģ
Ġel es
si ÄħÅ¼
rit t
ĠÐ½Ðµ Ñģ
Ġout ras
ĠÑį Ð½
Ġk ar
Ġg all
ĠÐ·Ð°Ð² Ð¸Ñģ
ãģĹãģ¾ ãģĨ
ik er
ator io
ĠpÃ¡g ina
ieg t
Ð¾ÑģÑĤ Ð¾
IC O
Ġz usammen
Ġlead ing
Ġal um
Ġdire t
ĠÑģÐ¾ÑĤ ÑĢÑĥÐ´
ĠÄĳ Ãºng
ãģĿ ãĤĮ
ĠÐ¿ÑĢ Ð¾Ñĩ
Ġment ion
Ñĩ ÐµÑĤ
Ġup load
Ġmob il
Ġk up
Ġh áº¡n
ãģĶãģĸ ãģĦãģ¾ãģĻ
Ġcons ist
0 5
Ġreg ister
æ ¤ľ
Ð± Ð°
Ġt ir
Ġsa fe
Ġe vol
ĠS ar
ĠKh i
Ð¾Ð´ Ðµ
ĠG mb
ĠÐĹ Ð°Ðº
Ġprod otti
ĠV I
åĩº æĿ¥
ĠÐ¿ÑĢÐµÐ´ Ð»Ð°Ð³
Ġmultip le
le it
Ġrec ently
Ġen orm
ĠA ch
ĠÃ ħ
Ġst ation
ĠÐŁÑĢ Ð°Ð²
con o
co le
Ġv uel
Ġcal cul
us te
Ġamb ient
ĠÐ´Ð² Ð°
Ġm ientras
Ġlang uage
ce go
Ġrec ursos
Ġord in
Ġesp a
Ð»Ñı Ð´
ÐµÐ½ Ð·
ION E
ãģĵãģ¨ ãģ§
Ġcor po
ãģį ãģ¾ãģĹãģŁ
cc ion
ĠÑģÑĤÑĢÐ¾ Ð¸ÑĤÐµÐ»ÑĮ
Ġbud get
Ġos p
li ent
ĠÑĢÐ°Ñģ ÑģÐºÐ°Ð·
ier ra
Ġr y
Ġme ine
Ġ áº¥y
K A
ĠC es
Ð»Ñı ÑĤÑĮ
0 3
ĠdÃ© f
Ð°Ð» Ñı
Ġp ant
Ġlo ad
Ġhá» ¯u
Ġ= >
ibil idad
ĠvÃŃ de
Ġpi Ã¨
ãĤī ãģªãģĦ
Ġp is
Ġab biamo
ÑĢ ÑĮ
t Ãł
ĠÐ¾Ð±Ð¾ÑĢ ÑĥÐ´
Ġï¼ Ĵ
Ġsc en
Ġch amp
Ġa per
ĠChrist ian
Ġsich er
Ġfor ce
ĠÐ¿Ð¾Ð² ÑĭÑĪ
å¢ Ĺ
ĠAl s
N H
us c
ic ile
ĠÐ¿Ð¾Ð» Ð¸ÑĤ
æ¬ ¡
ÃŃcul os
Ġlevel s
â ĸ
ien cia
Ġpa int
Ġca f
st ag
k y
Ġma jÄħ
Ġcon cept
A l
Ġs vil
Ð°ÑĢ Ð¾Ð´
ac ia
ĠÐ² Ð¾ÑģÐ¿
Ġhigh ly
Ġcap it
Ġopp os
Ãł m
Ã§ on
m 2
l ers
j az
Ð¸ÑĤ Ñĭ
her n
ĠP en
Ġ$( "
ĠpaÃŃs es
Ġstr utt
å¹ ³
Ð½Ñı Ñı
è³ ĩ
è ħ
ãģ« è¡Į
ĠÐºÐ²Ð°ÑĢÑĤ Ð¸ÑĢ
ĠO ct
oc r
Ġpre cios
Ġz ad
ĠRo ad
æ ·
h as
ĠW all
ĠM any
å¯¾ å¿ľ
ĠÐ¼ Ð°Ñģ
ĠÐ¾Ð± ÑĢÐ°ÑĤ
Ġt ych
Ġrem ember
ĠL ast
ÐµÐ» Ð¸Ðº
Ġd esta
Ġcl in
Ġm ies
Ġl á»ĩ
Ġjo in
æµ ģ
åĳ Ĭ
Ġpod emos
Ġbast ante
ĠP eter
ĠDan iel
Ġtra in
ĠC ard
Ġhac ia
Ð¼Ð¾ÑĤÑĢ ÐµÑĤÑĮ
Ġu w
ÑĢ Ð°ÑĤÑĮ
Ð° ÑĦ
å¾ ħ
Ġpap el
ĠMarket ing
ĠÑĤÐ¾ÑĢ Ð³
ĠS L
Ġimm ag
èµ ·
k ach
Ġres te
l at
ho od
ca Ã§Ã£o
CI A
Ġproces o
Ġcamb io
å¸ «
Ġsal v
Ġm ise
Ġtrans m
Ġsh all
ĠP om
E B
Ġein mal
ãģĵ ãģ®
Ġab ility
ĠSt at
I AN
Ġs ess
è į
Ð¸ ÐµÐ²
y f
Ġseg Ãºn
Ġtr itur
Ġserv izi
Ġh our
ÑĤ Ñĭ
Ġtr áº£
ĠC amb
ç ¹
Ġindustr ial
ĠOr d
ĠÐ½Ð°Ð· Ð²
Ġm áº¥t
Ġdu Å¼
ç© º
Ð¸ ÐµÐ¹
N D
Ġthu á»ĳc
ĠFrancis co
ĠB and
ĠðŁ ĺ
ĠN ar
um ps
Ġfavor ite
Ġt ÃŃn
Ġs ense
Ġtr am
end as
Äħ g
Ġc Ã¡o
hr en
ãģ£ãģ¦ ãģĦãģ¾ãģĻ
Ġremo ve
ĠTrip Advisor
ÐµÑĢ Ð½
Â ¤
ĠÐ¾ ÑģÑĤÐ°Ð²
iss imo
ĠÐ¿ ÐµÑģ
let te
ic ana
!! !!
ĠÐ´ÐµÐ½ÑĮ Ð³Ð¸
ĠÐļ Ð¾ÑĢ
Ġvol ume
Ġcu isine
¸ ı
p iel
Ð°ÑĤ ÐµÐ»Ð¸
Ġé ķ·
ĠJan uary
x ima
ĠP utas
ÐµÐ½ Ð½ÑĭÐ¼
Ġer ot
Ã¤hr end
Ġgu id
Ġqu ali
Ġag gi
ĠÐ±ÐµÐ· Ð¾Ð¿Ð°Ñģ
ĠÐ¤ ÐµÐ´ÐµÑĢ
ĠÂ ¯
ĠãģĿ ãģĹãģ¦
Ġexp la
Ġ[ "
Ġsc el
Ġhom me
l ight
u Ã§Ã£o
ĠD S
Ġfor me
Ġf ÃŃs
ond ers
im y
ĠÑĪÐº Ð¾Ð»
ĠB Ã¼
Ð°ÑİÑī Ð¸Ñħ
pond er
Ġsent ido
ĠGmb H
all es
ĠÐ¿ Ð¸ÑĤ
Ġpre zzo
Ġpl anning
ĠD C
ĠÐ²Ñĭ ÑħÐ¾Ð´
ĠÐµ Ð¼Ñĥ
ĠÑģÐ²Ð¾ Ð¸
ĠÐ¿Ð» Ð¾Ñī
Ġt ap
ĠÑģ Ð¸ÑĤÑĥ
Ġe g
Ð² Ð°
or en
_ s
ĠÐĿ Ð¸Ðº
ĠB it
at ar
Ġartic les
ä¿ ®
Ġnuest ros
ant age
P E
Ġdesen volv
Ġbec om
ĠE ast
Ġswo je
Ġm s
ĠW in
ĠOcto ber
ĠH ab
ĠÐ²Ð¾Ð·Ð¼Ð¾Ð¶ Ð½Ð¾ÑģÑĤÑĮ
ĠÃ ¯
ĠP ant
Ð¸ÑĢÐ¾Ð²Ð°Ð½ Ð¸Ðµ
Ð Ń
Ġm ut
Ġintern acional
Ġfa ir
ĠProdu ct
Ġv enta
Ġconc entr
Ġc abe
ĠL y
ĠF C
ä¼ Ŀ
ÑģÑĤ Ð°Ð½Ð¾Ð²
r ir
ber o
ĠÐ·Ð´ Ð¾ÑĢÐ¾Ð²
Ġs ed
Ġg a
ĠAv ec
fall s
pt ion
Ġou v
ĠTe xt
ĠÐ¸Ñģ ÑģÐ»ÐµÐ´
Ġcommunic ation
áº ¢
ĠÐºÐ°ÑĩÐµÑģÑĤÐ² Ðµ
Ð°Ð¹ÑĤ Ð¸
ĠÑĢÐ°Ð· Ð¼
Ġfl u
stell en
ĠRe f
ãĥĹ ãĥŃ
0 9
Ġdivers e
ĠB ill
I jo
ĠN A
ĠD Ã©c
ere z
Ġwrit ten
Ġm á»Ł
Ġg dzie
Ġcomp aÃ±
Ġ ãģĻ
li Ã©
ĠÑĥÐ´ Ð¾Ð±
ĠÑĢ Ð°Ð±Ð¾Ñĩ
ĠÄĳ áº¥u
Ġï¿½ï¿½ï¿½ ï¿½
ĠF ull
Ġhá» Ĺ
szy ch
ĠbÄĻd Äħ
ĠUnter nehmen
Ġc up
Ġveg et
ĠT Ã´i
ĠRob ert
Ġãĥ¬ ãĥĩãĤ£ãĥ¼ãĤ¹
Ġg old
Å ĵ
ĠÃ© conom
Ġst age
ä¾ ĭ
Ġco ach
Ġask ed
Ġãĥ ĵ
ĠV e
Ġex tr
az io
Ġsul le
v io
c ando
Ġnos s
Ġda ily
Ġer ror
ãĤ ¼
I j
ĠN H
un ft
t ar
ĠX V
k g
ĠÐºÑĢ Ð¾Ð²
Ġest amos
Ġl ip
ĠB ien
ãĤ¤ ãĤ¹
ĠÑĢÐ¾ÑģÑģ Ð¸Ð¹
ãĤ¤ ãĥī
Ð¸ÑĤ Ð°ÑĤÑĮ
te ad
è ¢
Ġens emble
Ð¼ Ð°Ð½
Ð»ÐµÐ½ Ð¸Ð¸
re dit
Ġz wiÄħz
Ġcoun tries
Ġb ajo
ĠH i
ĠÐłÐ¾ÑģÑģ Ð¸Ð¹
Ġqual itÃł
r ary
Ġgo ogle
ĠdÃ©c ou
ĠÑĤÐµÑħÐ½ Ð¾Ð»Ð¾Ð³
Ġstat us
Ġindivid u
ĠÐ´ Ð°
ĠCom un
ows ki
or er
Ġst yl
au er
t d
Ġac ces
Ġprodu it
Ġd azu
ĠV á»Ľi
Ð°Ð¶ Ð°
o z
ł Ķ
Ġngh i
æ± Ĥ
Æ°Æ¡ i
Ġwar m
Ġju egos
Ġgra ph
ĠÐ½ ÐµÐ·
Ġè ©
ĠÑĢÑĥ ÐºÐ¾Ð²Ð¾Ð´
Ġtrad itional
Ġju in
Ġszy b
Ġdi z
ĠWh y
at re
Ġweek end
ä¸ĩ åĨĨ
Ð¡ Ðļ
w is
j ets
Ġj ew
ĠM obile
Ġè ¡
ĠOn ce
Ġpar ec
................ ................
ĠÐĿ Ð°Ð¿
ĠÐ² Ð¼ÐµÑģÑĤ
Ġbenef its
it ing
Ġen qu
ãģ µ
part amento
Ġw a
ĠAustr alia
Ġout ro
ÐµÑĢ Ð¾
Ġsim ples
Ġm ettre
ãģĵãģ¨ ãĤĤ
Ġdo k
Ġc Æ°
ĠÐ¾Ð± ÑĭÑĩ
ĠÐ´Ð¾ÑĢ Ð¾Ð³
ĠG li
ajÄħ c
Ġpr esso
Ġent ra
ãģŁ ãĤĬ
Ã¤ng er
Ġcomp ut
ãģª ãģŁ
ĠW eg
ÑĢ Ñĭ
Ġdis cipl
ĠT im
Ġmuch as
Ġau g
H z
is as
ac ie
Ġsein er
ĠC ert
Ġla p
Ġt Æ°Æ¡ng
ç© į
iz za
Ġsur face
Ġdisco ver
Ġ= \"
c al
at ta
ĠÄĳ áº§y
Ġe pis
Ġg ÅĤÃ³w
Ġc Ãłng
ĠAn im
G V
Ġinvol ved
w ania
Ġopin iones
ĠUR L
ĠCent re
ĠInform ationen
ä¿ Ĥ
Ġqual che
Ġdecis ion
ĠDe f
ÑĢ Ð¾Ð¼
Ġpod staw
ĠS atur
ur re
Ġinv ece
Ġest ate
ĠD od
ç ģ
ĠM ake
ãĤ¤ ãĥ¤
Ġincl u
Ġs ell
Ġdirect or
ĠC AS
ãģ¹ ãģ¦
ici ente
i us
èĩª åĪĨ
alt ung
od ar
l im
Ġg ain
Ġbu ena
er ap
ĠC oll
ÐµÐ» Ñİ
sel ves
b n
Ġa im
ant en
Ġmen o
ĠF L
ĠRe ad
Ġãĥ ¯
Ġk am
ĠR S
ÑĢÐ°Ð½ Ð¸Ñĩ
Ġstor age
Ġc á»±c
ĠN as
ĠI L
AR D
Ġste ht
Ð¾Ð½ Ñĥ
ĠÑģÐ¾ÑģÑĤ Ð¾ÑıÐ½
ĠÐ¿Ð¾ ÑįÑĤÐ¾Ð¼Ñĥ
Þ¬ Þ
tem bre
c ional
Ġschn ell
Ġatra vÃ©s
ĠV ar
ĠG ol
ĠÐ¿Ð¾Ð¼ Ð¾Ð³
Ġplay ers
Ð» Ð°Ð½
AL L
ĠãģĿ ãģĨ
Ġko ÅĦ
ĠÐ·Ð°Ð½ Ð¸Ð¼
Ġr ig
Ġincl us
Ġ? âĢĿ
Ġne u
ãģĻãĤĭ ãģ¨
z io
ub er
Ġçī ¹
Ġe arn
am ar
ãĥ¼ãĤ· ãĥ§ãĥ³
Ġal Ã©m
Ġor den
ĠF ire
Ġh ous
Ġgi áº£
ĠÐ½ Ð°Ð³
ĠÄĳ áº£m
Ġr ights
ĠC y
ĠÑįÑĤ Ð¸
ĠÐ¼ ÑĥÐ·Ñĭ
Ġb anc
ui Ã§Ã£o
ere in
Ġpub bl
Ġnos sa
ui ente
Ġl á»±a
Ð°ÐµÑĤ Ðµ
ĠN or
Ġèĩª åĪĨ
ĠL ife
v d
nah me
Ġembar go
ãģ¿ ãģŁãģĦ
ĠCh aussures
Ġart ist
Ġprodu ce
ĠlÃŃ nea
ĠTr ang
ä¾ ¿
ĠÐ° Ð»
Ġbene fic
on ta
e es
ĠLeb ens
ĠÐ¿ÑĢÐ¾ÑĦÐµÑģÑģ Ð¸Ð¾Ð½
Ñı Ñħ
Ġå Ĭ
Ġcon clus
Ġav o
ĠÐĵÐ»Ð°Ð² Ð½Ð°Ñı
Ñĩ ÐµÑģÐº
ĠmÃºs ica
cz enie
Ġs Ã©cur
ĠrÃ© c
Ã¤ h
as ons
Ġc ub
ĠGi Ã¡
ĠAl g
Ġm ulher
ãĤı ãģĳ
Ġsp end
Ġin izi
Ġqu elle
Ġcar atter
Ġhist o
ÐĿ Ðŀ
d ate
Ġpar eja
Ġof icial
Ġl Æ°u
åº ĥ
Ġs and
Ġl áº¥y
Ġappro pri
it Ã¤
0 6
ĠE ven
éĢ ł
Ð¾Ð² Ð°ÑĤÐµÐ»ÑĮ
ot he
ic ano
ĠT ime
Ġab ord
ĠVoc Ãª
Ġtr anh
at em
Ġso pr
Ġresult ado
Ġcour t
Ġcas es
Ļ çľŁ
ĠÐ² Ð¾Ð¹
Ã¤ ÃŁ
Ġstr ing
ÐµÐ» ÐµÐ¼
Ġæ ķ
Ġhel ps
æĮģ ãģ¡
h u
Ġalgun s
ĠCom put
Ġtro is
ï½Ĺ ï½Ĺ
C OM
ĠprÃ³ ximo
Ġbest en
Ġaver age
or al
Ġæľ Ī
ĠÑĨ ÐµÐ½Ð°
Ġperm ite
Ġm orning
ĠDe us
Ġåľ Ł
Ġká» ¹
p ack
Ġvis ita
Ġem pre
à³ į
ãĤ³ ãĥ³
0 8
ĠÐ´ÑĢÑĥÐ³ Ð¸Ðµ
Ġb row
ãģ«ãĤĪ ãģ£ãģ¦
ÐµÐ½ ÐºÐ¾
ĠÑģÐ¾ ÑĨÐ¸Ð°Ð»ÑĮ
Ġt á»ĳi
ĠÑĥÐ² ÐµÐ»Ð¸Ñĩ
} ,"
un al
eme ins
A n
æľ Ľ
ãĥķãĤ© ãĥ¼ãĥł
ter y
Ġpre t
Ġits elf
ĠNg Æ°á»Ŀi
Å¼e j
utt ing
ie u
å ¦
ĠÑĢÐ°Ð· Ð´ÐµÐ»
Ġwir klich
Ġn iveau
ĠÐľÐ¾ÑģÐºÐ² Ð°
Ġf urn
, \"
ĠÑĢ ÐµÐ´
Ġgroup s
IL L
ĠC ro
Ġd rei
Ġ& &
éĢ Ł
Ġde ber
< /
Ġc ore
ĠO F
ol id
Ð°Ð· Ñĥ
Ġprime ira
Ð¸ÑĩÐµÑģÐº Ð¾Ðµ
uch a
Ġcare er
uj ÄĻ
ĠÐ¿ÑĢÐ¾ Ð¸Ñģ
ĠÐ¼ Ð¾Ð»Ð¾Ð´
ĠÐº ÑĥÐ»ÑĮÑĤ
ãģ®å ł´
Ð°ÑĢ Ñĭ
Ġm ud
ĠkÃ¶n n
ĠB A
Ġcomm it
ig lio
Ġæ ¯
in to
ÑĭÐ² Ð°ÑİÑĤ
el ine
anc er
Ġsou ha
ĠÑĨ ÐµÐ½Ñĭ
Ġtho áº¡i
Ġlu z
Ġd anh
ĠÂ¡Â £
Ġpr ices
ĠW asser
ĠBr and
ĠÐ½Ð°Ñĩ Ð¸Ð½
Ġim per
Ġæī ĭ
ĠV ill
Ġsu oi
Ġecon Ã³m
ĠTh ema
åľ Ĵ
Ġ>< /
Ġ Ù
ĠespaÃ± ol
ĠW ind
ĠG eld
ron ic
p Ã©
Ġg iving
ĠS ite
Ġh arm
Ġdirect ly
Ġch ose
ĠB O
Ġunser er
Ġ' );
Ñı Ð³
ough t
ir Ã¡
Ġpict ure
Ġabsol ut
Ðº Ñģ
Ġpu es
ĠG a
å¿ µ
ich ts
Ġinstall ation
ĠFr iday
Ġå Ģ
ĠÑı Ð½
Ġme chan
ĠÑĥ ÐºÑĢÐ°
v ide
st al
Ġins tead
ãģ ¥
ĠComp any
Ġb ul
Ð½ Ð¸Ð²
Ġten go
Ġreal mente
Ġau c
Ġ ä½ķ
Ġsaf ety
Ġno va
Ġdire c
ĠÐ¿ÑĢÐ¾Ð´ Ð¾Ð»Ð¶
Ġdel ic
B L
ĠÐ²Ñģ Ñĳ
Ġh Æ°á»Łng
Ġfriend ly
Ãºbl ica
Ġres ources
Ġm áº«u
Ġej emplo
Ġy áº¿u
Ġto Ã¡n
Ġr áº»
Ġprot agon
ĠM es
Ġen fer
ĠWash ington
se ite
P C
ĠÑĢ ÐµÐ¼Ð¾Ð½ÑĤ
Ġpers pect
un ik
Ġf amos
Ġcontact os
Ġãģ ¡
ĠÐ¸Ð³ ÑĢÐ¾Ð²
Ġlet ter
ÅĽ wiad
ĠTh omas
Ġm Ã³w
Ġcomp ra
k an
Ġrequ est
Ġaltern ative
Ġdire ction
ĠE dition
Ð½ÐµÐ¹ ÑĪ
Ġf Ã¼hr
Ġe ta
j em
ĠÂ ¥
Ġr ien
Ġkh áº£
ĠA F
ze ÅĦ
ĠB la
Ġ) )
ĠG T
ĠB ilder
Ġç ¾
Ġanalys is
ĠS K
ĠÐ¼Ð°Ð³Ð°Ð· Ð¸Ð½
ĠS und
ĠLe ague
r ing
Ġthem selves
Ġd ys
ĠH ard
uer to
Ġgr ado
iz o
Ġtr Æ°á»Łng
Ð½Ð¾ÑģÑĤ ÐµÐ¹
l an
z one
Ġfor mer
ĠT as
ĠC all
ors i
ĠTh Ãłnh
Ġl le
ies te
Ðł Ðŀ
pre ch
ĠÑĥ ÑģÑĤÑĢÐ¾Ð¹
Ġg ives
ĠÃºlt ima
Ġst oria
eg ur
Ġn Ã©
er va
v ious
ĠÐĹ Ð°
Ġplay er
Ġcla im
ĠS M
Ġk ier
Ġann Ã©es
Ġw ÅĤas
st Ã¼t
Ġ{ "
æŃ ¢
ãĥķ ãĥ¬
Ġtr ze
Ġgra zie
Ġex ecut
Ġb á»ĳ
ĠO st
ĠC lick
ĠÐ½Ð° Ðº
Ġreci b
ĠÐ¿Ð¾Ð¼Ð¾Ñī ÑĮÑİ
ĠwÃ¼r de
ĠW ater
men o
Ġin tr
Ġdest ac
Ð¾Ð¶ ÐµÑĤ
ĠE g
åĸ ¶
T T
Ġz one
Ġju ego
Ġhand s
ĠÐ¿ÑĢ Ð¾Ð¿
Ġqu Ã½
Ġmach t
Ġap Ã³s
Ð ĸ
uj o
ĠÐ² Ð¿
Ġkon k
ĠM Ã¤r
em at
E n
ĠÐ¿ÑĢ Ð¾Ð¼
Ġr Ãµ
Ġl ost
Ġful ly
Ġre lease
Ġn oc
Ġmed iante
Ñģ Ð¸Ñħ
Ã¨ mes
ĠEn ter
ĠÑģÑĩ ÐµÑĤ
Ġcin co
ĠÐ¿ÐµÑĢ Ðµ
Ġk iedy
ĠMot or
l ad
Ġng he
yr ight
Ġnavig ation
Ġess ential
èĲ ½
Ġjour n
az ionale
5 00
ĠÑħ Ð¾Ñĩ
Ġinterest ing
Ġ199 7
Ġ- ,
Ġlie u
Ġcomp at
ãĤ¯ ãĥĪ
Ġr in
åĦ ª
âĢĭ âĢĭ
Ġd ÅĤug
Ð°ÑĤ Ð¾ÑĩÐ½Ð¾
ĠÐĲÐ»ÐµÐºÑģ Ð°Ð½Ð´
Ġv ui
Ġd ry
ĠQu esto
imm t
ik o
Ġcom plic
oc ks
ĠÑĢ Ð°Ð²
ĠO ther
Ġcr ian
Ġus ta
ç¨ ĭ
ut y
Ġä¸ Ĭ
Ġform ation
Ġc á»¥
ĠChrist mas
un tain
ĠÑĢ ÑıÐ´
Ġperm ett
ãĥ¼ãĤ ³
ãģ« éĸ¢
ĠÐ¡ Ðº
Ġv ivo
ĠF ind
á»ĵ m
ast ro
Ñģ Ð¾Ð½
Ð¾Ð· Ñı
ĠÂ ª
Ġtut ta
Ð¾Ð» ÐµÐµ
Ġï¼ģ ï¼ģ
ĠÐŀ Ð¿
ĠEurope an
ĠCh ÃŃnh
èŃ °
ain es
Ġproy ecto
Ð» Ð¾Ð½
Ġde ath
ĠO ber
en ing
Ġc ena
ĠU ma
Ġis ol
Ġh ip
Ġpel os
ĠAN D
ĠS ym
ĠN i
Ġh yd
Ġspos Ã³b
Ġdem ande
è ¬
la uf
Ġâĺ Ĩ
Ġplay ing
Ġoccas ion
åŃ ĺ
ĠR Ã¼ck
ers ch
ĠÐ¿ Ð°ÑĢÑĤ
ĠC B
un te
f eld
ĠÐŁÐ¾Ñģ Ð»Ðµ
ĠÄĳ Ã¢u
Ġment re
ãĥĸ ãĥ«
Ġver de
Ġpop ul
ĠSp ecial
Þ° Þ
į ng
Ġbe f
ĠSal v
tt i
ann er
Ġæ Ħ
Ġprodu c
Ġ/ >
Ġcl aro
ien en
ĠÐ» Ð¸Ð½
Ġdr ess
ĠP ac
ĠãĤ Ī
r io
ĠÐĹ Ð°Ð¿
h ouse
ĠF ren
± ãģĦ
ĠÐ¼ ÐµÑĢ
ĠL un
Ġh Ã¶
åĲĪ ãĤıãģĽ
ãĤĤãģĹ ãĤĮ
gr und
ĠÑĢÐ°Ð· ÑĢÐ°Ð±Ð¾ÑĤ
æĶ ¯
ĠÐľÐ¾ÑģÐºÐ² Ðµ
ĠÃī t
Ġm ission
Ġentr ada
ĠPres ident
el ho
ied z
cl es
g ing
Ġhe ar
ĠInst agram
Ġï½ ľ
um es
ie c
g ua
Ġmis ma
ĠC ore
b ec
ĠOd powied
Ġrequire ments
Ġf ase
Ã©r io
ke hr
Ġ& #
g end
Ġç ·
Ġst abil
it ori
æ £
olog ical
_ gr
éĻ ¤
ow anych
Ġcol le
ä¼ ģ
Ġno vel
Ġav alia
Ð» Ð¾Ð¼
G A
Ġmas ter
k n
Ġdi ch
Ð»ÐµÐ½ Ñĭ
op f
Ġele k
ĠZ ar
ĠK a
ĠæĿ± äº¬
ĠÐ²Ð¾Ð· Ð½Ð¸Ðº
Ġå¥ ³
ĠF al
ol ina
Ġac uerdo
uy áº¿n
ar ias
Ġu0 4
Ġe ben
Ġdesar rollo
ĠÐº Ð°Ð½
Ġt iá»ĩn
Ġto t
Ġg al
ard ziej
ĠAd emÃ¡s
ÑģÑĤÐ² Ð¾Ð¼
Ġãĥ į
ia ÅĤ
Ġz aj
Ġv oll
Ġmus ical
Ġleg isl
pp a
Ġm Ã³
Ġalg u
ĠÑģÑĢ Ð¾Ðº
ĠÐļ Ð¾Ð»
Ġem ot
il os
Ġw indows
ĠÐ¿ ÐµÑĩ
Ġg ab
Ġcomp re
ĠE C
ĠÐ´ Ð½ÐµÐ¹
Ġpost s
Ġperson ne
Ġlu áºŃt
Ġpar am
ĠT ecn
ĠnghÄ© a
Ġf ot
zec zy
ĠPor n
ãĥ³ãĤ Ń
Ġresp onse
Ġred es
Ġr ang
ĠãĤ± ãĥ¼ãĤ¹
ĠH á»ĵ
ĠT out
ĠB ec
Ð¾Ð½ Ð´
ĠÐµ Ð´Ð¸Ð½
Ġprogram me
ĠG ay
Ġh uge
Ġmog Äħ
ĠDes de
Ġin iti
Ġdo br
ĠCh in
Ġjed och
ĠP ad
li ance
Ġmod a
áº© u
c ell
Bo ok
vr ier
e f
ĠÄĲ á»©c
Ġn Ã©c
Ġing red
ĠIn te
Ġz ro
Ġest aba
Ã¤ g
Ġin vent
Ð¸Ð² Ð°ÐµÑĤÑģÑı
Ġrapp res
Ġincor por
Ġconf igur
ĠJ er
ile t
èĸ ¬
ik ip
IC E
Ġj orn
ĠJ ug
on ne
ĠÐ¾ ÑĦÐ¾ÑĢÐ¼
Ġf ish
ãĥģ ãĥ£
ãģĪ ãģ°
o ver
Ġe igen
Ġkom men
Ġdu as
Ġaut h
ĠÑģ Ð¸Ð¼
Ġexperien cia
è³ ¼åħ¥
ĠR am
d d
at if
Ġst ati
Ġjam ais
ãĤµ ãĤ¤ãĤº
za jÄħ
ĠÐ´ Ð°Ð»
Ġtá» ©
Ġstruct ure
Ġpro ven
ĠDec ember
Ġpr endre
ĠA br
Ġin nych
Ġib ex_
ĠCon n
fer t
e ign
Ġrec ensioni
Ġlu ego
ios a
enn t
ch s
ad amente
ĠÐ¼ Ð¾Ð½
Ġtechni ques
Ġatt ack
on ce
Ġmys elf
Ġla unch
Ġje u
Ð¾Ð¼ ÐµÐ½Ð´
Ġcas h
ĠS D
¨ ÐĲ
ure zza
Ġele t
Ġdiv ert
ille urs
K I
ĠÐ¼ÐµÑĤ Ð¾Ð´
Ġein z
ĠIm age
ãĤĮãģ¦ ãģĦãĤĭ
M I
ÑģÐº Ð°
Ġfam ilia
æĿ ¿
ãĥ³ãĥ Ĳ
Ð¾Ðº Ñģ
ĠÐ´ ÐµÐ½
Ġh op
ĠZ immer
ĠÐ¿Ð¾ Ñħ
ur i
Ġorganiz ation
ĠkaÅ¼ d
Ø §
re te
ra ch
o om
eck en
ĠN go
ĠÐĴ Ð¾
ĠPor to
Ã©n Ã©
pr Ã¼
ĠåĽ ½
ĠÐ¾Ð±ÑĬ ÐµÐºÑĤ
Ġp Ã©
ĠQu est
¡ å¸ĥ
p ot
inh e
S O
ĠwiÄĻ ks
Ġprod utos
che id
Ġwonder ful
Ġvez es
c rit
Ġexper iment
ĠS to
und s
ue z
ow ana
Ġa umento
è¦ ³
ĠJ ob
ĠArg entina
ac c
ĠéĢ ļ
al ing
ID E
ĠÐºÐ¾ÑĤÐ¾ÑĢ Ð¾Ð¹
Ġtem at
ĠEn de
ĠW inter
å¤ļ ãģı
m ine
Ġk ne
ĠK osten
az ine
ĠC osta
iblio te
ebo te
Ġdin ero
end ar
ap ia
Ġun it
Ġsett im
ĠktÃ³ry ch
Ġel lo
ÃŃ m
Ġsa w
Ġc n
ĠN ut
na io
d is
ak a
Ġstr ength
ĠS icher
Ġãģ ł
ĠÃ¢ m
Ġcor so
Ġ9 78
ĠÐº ÑĥÑĢ
ĠÐ¸ Ð´Ðµ
Ġre un
it are
Ġsegur idad
Ðº Ð°Ñı
so le
ÑĢ ÐµÐ¶Ð´
Ð°Ð» Ñĭ
Ġtrou ver
Ġd ating
ÄĻ Å¼
Ġtr ata
ĠGr up
ĠÐ¿ÐµÑĢ Ð¸Ð¾Ð´
ĠÐºÐ¾Ð½ Ðº
Ġgo es
ĠÐĴ Ð°Ñģ
Ġinter view
Ġattra verso
ĠÑģ Ð±Ð¾ÑĢ
Ġp endant
Ġng Ãłnh
Ġlim ited
al en
Ġat mos
ĠO c
ĠM am
ĠÐ¿ Ð¾ÑĢÑĤ
Ġdost ÄĻp
Ġprojet o
T 00
ĠB erg
åŁ º
Ġill ustr
Ġd ados
n ienia
ic ie
Ġse hen
ĠS ony
... ]
ĠÐ²ÑģÑĤÑĢ ÐµÑĩ
Ġqual idade
ĠS ne
è± ¡
Ð°ÑİÑī Ð¸Ðµ
Ġp Ãºblic
Ġdo p
ĠSin ce
Ġwie le
ĠÐ± Ð¾Ð»ÑĮ
Ð» Ð¸Ñı
imon io
ick et
Ġesc ort
Ġbo is
ĠMon te
ĠMar y
Ġjed er
Ã¡t icas
Ġç ı¾
ĠÑĤÑĢÐ°Ð½ ÑģÐ¿Ð¾ÑĢÑĤ
Ã¡m ara
v illa
Ġus ÅĤug
M O
Ġservi Ã§os
Ġm adrid
Ġalc uni
ĠN ou
Ð»ÐµÐ½ Ð°
H E
Ġgroup e
ĠH á»Ļi
ĠS it
r z
Ġthink ing
Ġb iá»ĥu
Ġ\": \"
Þ¨ Þ
Ġk ont
ĠX em
Ð°ÑĢ ÑĮ
w agen
est as
ĠÐ¿ÑĢ Ð¸Ð·Ð½
ĠÐº ÑĥÑĢÑģ
Ġgrad u
Ġdef ault
áºŃ m
Ġsel on
Ġdevelop ed
ÑĢÑĥ ÐºÑĤ
ĠÑĦÐ¸Ð½ Ð°Ð½Ñģ
Ġrisp etto
ĠM E
vest is
ĠÐĹ Ð´
ĠÄĲ Ã´ng
on ym
f i
ãĥ ´
Ġbie tet
ĠTod os
Ġ" );
uy e
b ianas
Ġin fer
á» ³
_gr id
Ġso ft
ĠUn der
ĠÑĦ Ð¸Ð·
ĠÐ¿Ð¾Ð¿ ÑĥÐ»ÑıÑĢ
ĠÐ´ÐµÑıÑĤÐµÐ»ÑĮ Ð½Ð¾ÑģÑĤÐ¸
Ġmil es
ĠNe u
ish ed
d s
ĠÐ»Ð¸ÑĪ ÑĮ
Ġy outube
Ġper ÃŃ
Ġm ond
f ast
Ġpe ÅĤ
Ġexp Ã©r
Ã§ ar
ill ing
Ġtr Ãªs
Ġcomple ta
ĠDe velop
Ñĩ Ð°ÑģÑĤ
Ġãĥ ľ
ĠA gen
od en
Ġloc aliz
ul y
osp odar
Ã ¿
II I
æĽ ´
Ð¸Ð½ Ð¾Ð¹
ãģ«ãģª ãģ£ãģŁ
ugh t
ĠÐ¾Ð¿ ÑĭÑĤ
Ġv Ã©r
ãĤ¸ ãĥ£
Ġmod al
ĠNo ir
ĠArbeit s
ĠPortug al
ĠTr ad
ĠC ost
or ing
ĠÄĳ áº¡t
Ġre vis
Ġr ank
ĠSch n
z ar
el ess
ipp ing
Ġgl ass
ÑģÑı Ñĩ
F L
ĠD ank
EN TO
ĠÐ¿ÑĢ Ð¸Ðº
Ġth áº§n
ĠO ri
ĠÐ½ Ð¸Ñĩ
ĠÐ´ÐµÑĢ ÐµÐ²
Ġpou co
Ġâ Ĥ
Ġ- --
ÐµÐ² ÑĢ
Ġinform ations
Ġdec ided
ĠCo ok
Ð» Ñĥ
AT O
ĠÐº ÑĢÑĥÐ¿
ĠÂµ ÃĦ
Ġs zt
Ñī Ñĳ
ĠR y
Ãº i
EN D
Ġfuer on
Ġ( +
iá»ĩ p
Ġmant en
ĠdÆ°á» ¡ng
Ġch or
Ġbeg in
ĠÐºÐ¾Ð½ ÑĨ
ig i
pl an
ers i
ant il
Ġv ou
» Ĵ
ĠÐ¾ÑĢÐ³Ð°Ð½Ð¸Ð· Ð°ÑĨÐ¸Ð¸
ĠÐ³ Ð¾ÑģÑĤ
Ġfran Ã§ais
Ġdá»¥ c
ĠV iet
å° Ĥ
ä»ķ äºĭ
if er
ĠÑĪ Ð¸ÑĢ
Ġsal le
ĠSch ul
pp y
Ġin qu
ĠF A
Ð½Ð¸ ÑĨ
Ġsign ifica
Ġnich ts
ĠCol lege
Ġshopp ing
Ġpel iculas
v ement
Ġpart ido
Ġ ä¹
as y
ãĤ Ĩ
ĠK am
Ðł Ñķ
y ond
ale Å¼
Ġdar k
Ġwo j
Ġtempor ada
Ġmil h
Ġcu á»ĳi
ĠCh á»§
Ġcomplet ely
Ġbe b
ĠR ot
ĠEn ts
el m
N ame
Ġihr er
Ġbamb ini
b 3
N O
ĠÐ°Ð´ ÑĢÐµÑģ
Ġpro getto
Ġparte cip
Ġdig it
Ġch Æ°Æ¡ng
od zi
Ġpal ab
ĠÐ¼Ð¾Ð¼ ÐµÐ½ÑĤ
Ġpat tern
ĠT á»«
Ġac ordo
ĠL ab
Ñĥ ÐµÐ¼
ÑĢ ÐµÐ²
Ġj ap
Ġarg ent
Ġcu er
ĠFebru ary
u ed
ĠÅ ĵ
ĠãĤ¹ ãĥ¼ãĥĳ
ĠM ann
è ¯
it ch
ĠRes earch
L e
Ð°Ð» Ð¾Ð²
ĠÐ¿Ð¾ÑģÑĤ Ð¾ÑıÐ½
Ðŀ Ðŀ
Ġg az
ç ±
ĠÐł Ñ
Ġf ais
ĠCol omb
ĠÐ¾Ð±ÑĢÐ°Ð· Ð¾Ð¼
Ġf ich
ĠAn y
Ġsocial es
ãģ¨æĢĿ ãģĨ
h aps
Ġåī į
Ġb aby
au te
ĠâĨ ĳ
Ġr z
Ġinc ome
ĠFra uen
Ð½ Ð¾Ð·
er es
C o
ĠÐº Ð¾
Ġf ashion
Ġch á»©
uy en
Ġä» ¥
room _grid
Ġmel h
Ġ[ ...]
Ãł u
ĠÐĿÐ¾Ð² Ð¾ÑģÑĤÐ¸
l ied
Ġ( $
Ġk ob
Ġc áº¡nh
ĠIS BN
Ġhe at
Ġpass e
ä¸į åı¯
oss a
g ie
TI ON
ĠÐ¿ÑĢ Ðµ
ist or
Ġcon duc
Ñģ Ñģ
Ã¨ g
èĢĥ ãģĪ
H O
Ġsr c
ãģ®æ ĻĤ
Ã¢ ce
ĠPr im
ãĤ¹ ãĤ¯
ãģŁãĤģ ãģ«
ÐµÐ· Ð¸Ð´
ĠÐĲ Ð´
ot te
as o
ĠÃ¡ o
Ġcho ix
Ġå ĭ
Ġdod at
Ġcomp ort
le b
ular es
ien i
Ġwsp Ã³ÅĤ
Ġcz ÅĤ
Ġtak ie
Ġsuccess ful
ĠA o
z k
it ement
Ġn one
Ġinterpre t
ĠT á»ķng
Ġãĥ ĭ
ĠÃŃ t
ÐµÑģÐ¿ ÑĥÐ±Ð»Ð¸
ion a
Ð¸Ð² Ð°Ð½Ð¸Ñı
r zy
ĠåĲ Į
ĠL eben
Ġ ãģĭ
Ġ Ñī
Ġtex to
Ġpub lished
Ġcult ural
é¡ ĺ
ãĤ± ãĥ¼ãĤ¹
ĠPro jekt
c ji
Ġs od
Ġpued es
ĠV ie
ĠÄĳo Ãłn
ãģª ãĤĭ
Æ ¯
á»§ y
Ġn astÄĻp
ĠNg Ãły
ÃŃt ica
Ġpl ate
Ġm art
ĠF ore
b c
ĠâĨ Ĳ
Ġt Æ°á»Łng
ĠSer ies
ĠÐļ Ð°ÑĢ
Ġmie ux
ĠÐ´ Ð½Ñı
ĠP rix
Ġd zi
áº µ
åĢ į
ä½ İ
ãĤ± ãĥĥãĥĪ
Ġd ynam
Ġcre d
ĠOr t
ud os
ail s
Ġpe qu
ĠLe ist
Ð½ ÑĥÐ»
r um
ifica Ã§Ã£o
Ġå® ī
ĠOrig inal
ãĤı ãĤĬ
Ġser ver
Ġch ocol
ĠM os
pp en
Ġman e
Ġatt ract
ãĥ Ĵ
Ð¸Ð¼ Ð¾
Ã¶ ÃŁe
è²© å£²
AD A
ĠÐ¿ÑĢ Ð¸Ð»
ãĤĴ ãģĬ
Ð ħ
Ã¼ l
ĠÑĩÐ°ÑģÑĤ ÑĮ
Ġx á»Ń
Ġtá»ķ ng
Ñı Ñĩ
Ġpop ulation
Ġbis og
Ð¿ Ð°ÑĢ
p oc
Ġprof it
Ġngu á»ĵn
Y S
ĠÐ´Ð¾Ð»Ð¶ Ð½Ñĭ
Ġem ple
ĠD ol
f as
ĠP O
ĠD at
Ġle i
ĠLu is
Ð´ Ð¸
ĠAm b
ç® ¡
Ġto wards
Ġtem p
ÑĢ ÐµÐ·
Ġhisto ire
Ġd re
Ġ2 F
æ¼ Ķ
kl Ã¤r
ĠNh áºŃt
ãģ£ãģ¦ ãģĦãģŁ
om ini
Ġä¸ į
Ġdispon ible
Ġcre ating
Ð¾Ð· Ð¼Ð¾Ð¶
çİ ĩ
ãģ ŀ
eb y
Ġr á»Ļng
ĠPAR A
ĠIsra el
ĠGesch Ã¤
ĠÐłÐ¾ÑģÑģ Ð¸Ñı
ĠÐ¸ ÑĤ
Ġpar k
Ġ199 5
Ġ199 0
ãĥķ ãĤ§
ãĥ¼ãĥ ĩ
ĠÐ¾ÑĤ Ñģ
ĠÐ´ Ð°Ð»ÑĮ
Ġeff ort
Ð°Ð½ Ð¸ÐµÐ¼
ĠÑĤ ÐµÐ±
ĠÐ¾Ð¿ ÐµÑĢ
inh os
Ġfamili ar
ĠB esch
ia go
Ġre co
Ġposs ÃŃvel
Ð°ÑĤ Ð¸
Ġwszyst ko
Ġnos otros
ĠP RE
ãĥ¼ãĥ ģ
Ð¸ÑĤ ÐµÑĢ
Ġå İ
Ġvra iment
Ġqu asi
ÑĢ ÐµÑĤ
Ġrestaur ant
ĠK ap
ĠÐ¾Ð¿ Ð¸Ñģ
ĠO K
ĠES T
Ġ10 5
Ġd ort
ĠFran ces
ãģł ãĤįãģĨ
Ġpar ten
Ġp ush
Ġb aj
ãģķãĤĮãģ¦ ãģĦãĤĭ
ff er
Ġincl uso
ĠMin ist
Ġlu áºŃn
ĠPro vin
ĠAssoci ation
âĢ Ļ
h ow
ĠCh er
ĀĀĀĀĀĀĀĀĀĀĀĀĀĀĀĀĀĀĀĀĀĀĀĀĀĀĀĀĀĀĀĀĀĀĀĀĀĀĀĀĀĀĀĀĀĀĀĀĀĀĀĀĀĀĀĀĀĀĀĀĀĀĀĀ ĀĀĀĀĀĀĀĀĀĀĀĀĀĀĀĀĀĀĀĀĀĀĀĀĀĀĀĀĀĀĀĀĀĀĀĀĀĀĀĀĀĀĀĀĀĀĀĀĀĀĀĀĀĀĀĀĀĀĀĀĀĀĀĀ
Ġg á»ĵm
Ġer halten
ä¼ ĳ
ĠM unicipal
th e
ient s
ĠÐ´Ð¾Ð»Ð¶ ÐµÐ½
Ġtrans par
Ġinteres ted
emp io
Ġc ade
ĠrÃ©s ult
ĠP es
IT E
Ġsit io
Ġro ll
un s
ĠB B
Ë Ĩ
ĠSt udio
éĺ ª
cz ne
Ġthu Ãª
Ġs abe
Ġbl anc
æĸ Ń
ĠÑģ Ð¾Ð³Ð»Ð°Ñģ
ĠÐ¡Ð ¨ÐĲ
Ġp iel
ess i
Ġseg ment
Ġsomet imes
Ġconsegu ir
ĠP in
ÅĤ ÄĻ
Ġp elle
Ġdro it
ÅĤu Å¼
å Ŀ
Ġim agen
ĠAdmin istr
ĠÐ³ Ð¾Ð»Ð¾Ð²
Ġfig ure
qu el
ĠÐ¼ Ð¸Ð»
Ġxu á»ĳng
Ġs d
Ġinf atti
ĠÐ¿Ð¾ÑĢ ÑıÐ´
ĠÐ´ÐµÐ» Ð°ÑĤÑĮ
ĠZ um
a ug
ĠÐ¿Ð¾ Ð¸ÑģÐº
ĠÐ½Ð° ÑĢÑĥÑĪ
Ġse ek
Ġph Ã¹
ĠMed ic
ĠFr ont
ĠB ereich
un cio
ol tre
ol ine
k om
agg ior
ĠÐĴ Ð°Ð¼
Ġital iano
ian y
ar Ã¡n
Ġval id
ys ÅĤ
ĠåĮ Ĺ
Ġdis s
Ġd Ã¹
Ġpict ures
Ġest ilo
ÃŃ cia
te chn
Ġclass e
r ift
ind e
ĠÑģÐ¿ÐµÑĨÐ¸ Ð°Ð»Ð¸ÑģÑĤ
Ġder nier
å® ³
ibil itÃł
ĠÑģÐ²Ð¾ Ð¸Ñħ
Ġa ce
ord en
ĠÐ¿Ð¾Ð»ÑĥÑĩ Ð¸ÑĤÑĮ
ĠAm or
æĶ ¾
Ġwe iÃŁ
Ġch os
ĠF ord
ÐµÑĢ Ð¼
Ġdefinit ely
ĠStand ard
ç´ ļ
Ð°Ð² Ð»Ð¸Ð²
ci er
ĠÐ± Ð°Ð·
Ġhigh est
Ġexp ected
Ġcontem por
ĠNeg ro
ãĤ¿ãĤ¤ ãĥĹ
ou te
D e
Ġlead er
Ġem oc
Ġann unci
ĠÑĢÐ°Ð·Ð²Ð¸ÑĤ Ð¸Ñı
Ġgio v
ĠS ono
Ġmult i
Ġm Ã´
Ġfeder al
P T
ĠPed ro
Ġr and
Ġg Ã¡i
ta ÅĤ
eto oth
Ġw ol
æĤ ª
Ġinter act
åħ ±
Ð¸ Ð³ÑĢ
le gen
ÑĢ Ð¸Ð´
Ð½ Ñĥ
pl atz
ĠÐ¾Ð±ÑĬ ÑıÐ²
Ġvol te
h ab
ĠspÃ© cial
Ð¾Ð» Ð¾
Ġpar ce
Ġal co
Ġä» £
Ġvers o
ãĤµ ãĥ¼ãĥĵãĤ¹
ir se
Ġne igh
Ġle y
ts chaft
l s
e o
d zi
Ġf osse
Ð»Ñı ÐµÑĤÑģÑı
ĠÐ¿Ð¾Ðº Ð°
Ġst o
Â Ń
Ġlib er
s za
ãģĳ ãĤĮãģ°
ann el
ĠÐ· Ð°Ñģ
Ġveh icle
ĠLou is
ĠB E
vr ir
ĠÐ½Ð°Ð· Ð°Ð´
Ġi hn
Ġbus car
ib ly
Ġr und
ĠUn ion
Ñı Ð»
ÑĤ Ð¸Ðº
ol is
b u
ĠÐºÐ¾Ð¼ Ð½
Ġdif ÃŃ
ĠE ach
ÐµÐ² Ð¾Ð¹
ĠÐ¾ ÐºÑĤ
ĠÑĥ Ð»Ð¸
Ġcon qu
ĠMan ager
Ð¾ÑĤ Ð¾
arg a
ag as
ĠÐ³Ð» Ð°Ð·
Ġnot a
ĠO g
am iÄĻ
ĠiP ad
w ach
all o
è ¥¿
Ġre plac
ĠH Ã¶
ast os
Ġanim al
Ġ? ??
Ã¡ veis
Ġpl ug
ĠEx p
Ã¨ te
in ie
cul o
________ ________
Ġãĥ¡ ãĥ³ãĤº
ĠÐ´Ð² Ð¸Ð¶
Ġx in
Ġprod otto
ĠY es
ÐµÐº Ð°
Ġv ul
ĠmoÅ¼ liwo
Ġmar c
ĠT y
ali ente
Ġinit ial
Ġstart ing
Ġprogram m
te in
Ġlá»Ľ p
Ġ4 50
mitt el
ĠÐ¿ÑĢ ÐµÐº
ĠÄĳá»Ļ c
ĠÄĲ á»ĵng
Ġri Ãªng
Ġcir cu
Ð¾Ð± Ð¸Ð»ÑĮ
ÅĦ ski
Ġf is
Ġdes te
Â ¡
Ġhist Ã³ria
ĠV N
ĠQ UE
d em
Ġsl ow
Ġelect ric
ãģĹ ãģªãģĦ
kow o
Ġl iegt
Ġexp and
ãĥ¼ãĤ Ń
ver a
ita ire
Ġpet ite
r ado
ĠÑĤÐ°Ðº Ð¸Ðµ
Ġse ptem
Ġpart ies
Ġlist _
ĠJour nal
20 16
ĠÐ½ ÐµÐ¹
ĠÐ´ ÐµÐ¿
Ġro ute
ÐµÑĢ Ð¾Ð¼
Ġpro ve
ĠR iver
ĠÃ ¸
Ġent end
eg na
Ġwel che
Ġpr oss
ãĤĴæĮ ģ
en k
y er
T e
Ġjan vier
az o
Ġbec ame
ĠR ab
æĿ ĳ
Ġra ggi
Ġr esto
Ġ199 6
Ġg eg
ĠÐºÐ¾Ð¼Ð¿ ÑĮÑİÑĤ
Ġverd ade
Ġgl ob
Ġb ac
çī Ī
Ġs ull
ãĥ¬ ãĥĵ
co in
Ġprev ious
ĠPro ject
ĠB il
ĠÐ¿ÑĢÐ¸ Ð¾Ð±ÑĢ
Ġp ure
Ġdemon str
åī ²
U G
ĠÑĩ ÑĥÐ²
Ġbe gan
Ġf im
Ġcz erw
Ġcomer cial
Ð¼ÐµÐ½ÑĤ Ð°ÑĢ
st adt
ĠDire ct
ie ved
Ġå® ¶
ĠÑĤ ÐµÐºÑģÑĤ
ĠÐ·Ð°Ðº Ð»ÑİÑĩ
Ġsu jet
Ġpol ice
l ist
Ġsupp ly
ãģ«ãĤĪ ãĤĭ
Ġemploy ees
iss ens
Ġæľ ¨
Ġperi odo
Ġnat Ã¼rlich
ĠPres idente
Ġw ied
ĠC M
æ Ĳ
u esta
ĠÑģ ÐµÐ·
Ġn aleÅ¼y
Ġg ift
Ġb zw
åŁ Ł
Ð¾Ð¶Ð´ ÐµÐ½Ð¸Ñı
y se
sk im
_c rop
Ġc av
Ð²ÐµÑĢÐ¶ Ð´
Ġeff ett
Ġagr ad
æĹ¥ ãģ¯
v ano
fr ut
Ġcar ry
Ġcampa ign
åĭ Ŀ
ãģĵ ãĤĮ
ĠãĤ· ãĥ£
ĠâĪ Ĵ
Ġhab er
ĠK unst
Ìģ t
k k
Ġredu ce
at amente
ĠÃ Ľ
Ġv og
ĠTamb iÃ©n
Ġment al
ĠTh á»ĭ
ĠÃºlt imos
ĠSt ore
reich en
Ġf ib
ĠV end
ĠD isc
ĠT am
ĠÐ´ Ð¸Ð·
Ġcl ar
Ġweit ere
Ġm Ã´i
Ġarch itect
ĠAl t
Ġemer gen
ĠGl obal
ĠÑħÐ¾ÑĢÐ¾ÑĪ Ð¾
ĠG on
k ami
ĠÑģ ÐµÐº
ãģı ãĤĭ
le urs
ĠF ach
Ġn Ã¤ch
Ġmov ie
æĿ ¡
Ġsp irit
Ġmay o
Ġj es
ID AD
è© ¦
ĠÐ¼ Ð¸Ðº
Ġter ror
Ġser r
Ġest ava
Ġad vert
Ð¾ÑĢ ÑĥÐ¼
Ð¾Ð¿ÑĢ Ð¸ÑıÑĤ
iss Ã£o
ĠÐ¾ÑĤÐ·ÑĭÐ² Ñĭ
ĠCom pr
va il
Ġs ede
ĠP OR
Ġwszyst kie
ĠFren ch
ÑģÐº Ð¸Ð¼
ĠÑĤ Ð¾Ñĩ
ĠÑĤ Ð¾Ð½
Ġs ust
Ġhealth y
ĠEn v
ĠÑĤÑĭ ÑģÑıÑĩ
Ġv áºŃn
ĠB ran
Ã£ i
ĠÐ¿Ð¾Ð´ Ð³Ð¾ÑĤÐ¾Ð²
ĠU E
ĠÐ° Ð¿ÑĢ
Ġgrow ing
Ġconf ort
ãģ ģ
ent os
an cy
IT A
ĠCu ando
o int
ĠÑĢ Ð°Ð´
Ġc á»ĳ
Ð¾Ð±ÑĢ Ð°Ð¶
ĠÐŁÐµÑĢ Ð²
ĠGo vern
ĠBar b
Ġï¼ Ĩ
ĠÐ¾ÑĤ Ð¿ÑĢÐ°Ð²
Ġpra kt
Ġpag ina
Ġihr en
Ġdes con
Ġ* *
Ġoc tobre
a x
ĠçĶ Ł
ãģ® äºº
ick en
Ġs co
ĠU se
etr ieb
Ġpr is
Ġkho a
Ġcamb i
uc le
Ġh d
ÑĥÑĢ Ð½
Ġmov ing
ÐµÑĢÐ± ÑĥÑĢÐ³
Ġph ÃŃa
ĠM icro
ĠE P
ĠWeb site
ĠArt ic
Ġv Ã¹ng
Ġv ost
ĠPerson al
Ã©s ent
ĠãģĹãģĭ ãģĹ
ĠÐ¿Ð¾Ð½ Ð¸Ð¼
Ġpo pr
Ġ11 5
ĠU til
åº «
ĠÑĢÐ°Ñģ Ð¿Ð¾Ð»Ð¾Ð¶
éĺ ²
å¼ķ ãģį
ãĥĥãĤ· ãĥ¥
w eit
ĠÐ»ÑİÐ´ Ð¸
Ã© qu
ras tru
es p
ĠãĤ ¬
ĠÃºn ico
åĮ Ĺ
Ġpurpos e
ÐµÐºÑĤ Ð¾ÑĢ
ran no
ĠÑģ ÑģÑĭÐ»
éģ ©
land s
ÑĢ Ð¾Ðº
Ìģ c
Ġmat Ã©r
ĠVer b
ĠÐļ Ð°Ð·
Ġexact ly
Ġes empio
ĠS n
utsche in
Ġï¼ İ
Ġz g
Ġob tain
ãĤĴ è¡Į
Ġv eng
Ġren ov
Ġre in
ch ron
Ġï¼ ħ
ĠÐĵ ÑĢ
Ġsein en
Ġmin ute
Ġqu Ã¢n
Ġvis ion
áº¡ p
ing t
ĠÐ± Ñİ
Ġbusiness es
ĠAr r
Ġtá»© c
Ġab and
ĠNh Æ°ng
ÄĻ t
ĠÐ¾Ð± ÑĥÑĩ
æĸĻ çĲĨ
ãĥ³ãĤ µ
OR E
ĠÐ¿Ð¾Ð¼ ÐµÑī
Ġv amos
Ġnos tri
Ġactiv ity
ÃŃst ica
Ġsc ale
lich keit
Ġk to
å ´
re cht
F C
ĠB ag
Ð¸Ðº Ñĥ
em bro
ĠÐ¾ÑĦ Ð¸ÑĨÐ¸Ð°Ð»ÑĮ
Ġzd jÄĻ
é ľ
ãĤĴæ İ
ist an
il io
Ġsmart _crop
Ġguer ra
ãģ® ãĤĤ
Ġwo hl
ĠWo chen
w and
Ġb rit
ĠS or
Ġfin ance
Ġsc u
Ġconsider ed
ĠGra cias
Ã¡b ado
ke y
ĠÐ¿ ÑıÑĤ
Ġz ob
Ġimport antes
ĠÐºÐ¾Ð»Ð¸Ñĩ ÐµÑģÑĤÐ²Ð¾
Ġwr ong
Ġla b
Ġapr end
ĠKom ment
ãĤ¦ ãĤ§
Ġsocial e
Ġper Ã²
Ġchá»ĭ u
ĠB ell
ĠÑģÐ¾ ÑħÑĢÐ°Ð½
Ġjak ie
äº ķ
ri Ã¨re
onn ement
Ġce ux
Ġr um
Ġcor az
ĠE ar
Ġtem u
Ġsyst Ã¨me
ĠPremi um
Ġv iá»ĩn
Ġmerc ato
ĠP V
ual i
att utto
Ġbal ance
ÐµÐ» ÐµÐ½
CI ÃĵN
Ġm ist
Ġapp art
ĠK ult
ck en
bra io
arte ment
T ube
ĠA ccess
Ġ7 50
ĠÑįÑĦÑĦ ÐµÐºÑĤÐ¸Ð²
AS S
= >
ĠÐ²ÐµÑĢ Ñģ
ĠRo z
\/ \/
EN TE
ĠÐºÐ¾Ð¼Ð¿Ð» ÐµÐºÑģ
Ġel les
ĠVers and
k auf
Ġdesar roll
ĠT in
ĠPro d
rough t
b ank
Ġå £
Ġsi amo
åį Ĭ
ÅĦst wa
ĠÐ´ Ð¸ÑģÐº
ĠSund ay
im p
ati ques
ci ale
Ġpod czas
Ġl ots
Ġneg oc
Ġan Ã¡l
ig ar
ak s
ĠÑĦ Ð°ÐºÑĤ
Ġseptem bre
ĠH aut
Ġch urch
ras es
Ġblo od
ĠMod el
Ġmed ida
Ġins ieme
ï¼ Į
ti qu
is Ã©
c n
Ġdonn Ã©es
unt as
omm od
Ġtr áºŃn
é«ĺ ãģĦ
port s
Ġp ng
Ġf rag
åĳ ¨
ãĥ¼ãĥ ķ
å¥³ æĢ§
ãĤĴ ä½¿
ren o
Ġçµ Ĳ
ĠEm p
ativ i
Ġcon osc
ĠS at
ak ter
Ġes crib
Ġch w
Ġ! âĢĿ
è¦ §
on ych
eit a
Ġvoy age
ĠÑĩÐ°ÑģÑĤ Ð¸
ĠÐ²Ð¾Ð· ÑĢÐ°ÑģÑĤ
ĠÄĲ iá»ģu
Ġquot id
y g
ĠM ang
Ġth áº¥t
ÑĤ Ñĥ
ĠÐ½Ð°Ð¿ Ð¸Ñģ
ĠÄĳ Ã´
ĠP ow
an ne
U X
å² ¡
ĠÐº ÑĥÐ¿
am ientos
ĠÐ·Ð°Ð´ Ð°Ñĩ
ĠÄĲ á»ĥ
Ġv ente
Ġb iá»ĥn
jour d
Ġr igu
Ġno che
Ġ ãģªãĤĵ
ç ĭ
ãģĹãģ¦ ãģĦãģŁ
+ []
ãĢ ĳ
Ġ10 1
ĠInt el
ĠJ uni
ib en
Ġphys ical
Ġkhá»ı e
Ġenerg ia
Ġde tal
ĠSt an
ĠR osa
er ie
Ġç Ł
Ġimpos s
Ġoc up
ĠLa w
iz ing
ag i
Ġopportun ities
ĠMer ci
ĠDire ctor
Ġinc red
ĠLe on
Ġ ãģ§ãĤĤ
Ġlo ved
Ġfem mes
ĠC it
Ð¾ÑĢ Ð¾Ð¶
g eme
S P
ig ue
Ġdire kt
çŃ ĸ
Ġunderstand ing
Ġget s
Ġex emplo
Ġau jourd
fo is
AT E
ĠvÃł ng
Ġt á»ĳ
Ġt áº£i
Ġpl ata
Ġb at
ĠG ames
ĠD ub
ĠCh ic
IN O
Ġat tem
zi om
Ġdi am
Ġcontain er
ĠT w
ĠÐ¿ÑĢÐ¸Ð½ Ð¸Ð¼
ĠÐ¼ÑĥÐ¶ Ñĩ
ĠÐºÐ°Ð¶Ð´ ÑĭÐ¹
Ġterrit orio
Ġbon us
æ§ ĭ
l ang
Ġh uyá»ĩn
Ġcl ic
Ġst ag
ĠV ent
ĠC od
á»Ĺ i
Ð¾Ð» Ð°
ÃŃ do
Ġb irth
Ġad idas
æ ¹
Ð¾Ð· Ð½
ĠâĢ ł
ĠÑĩ ÐµÐ³Ð¾
ĠÐ¾Ð´ Ð½Ð¾Ð¹
ch as
ĠÐµ Ð²
Ġp ull
å» º
ĠÐ°Ð´ Ð¼Ð¸Ð½
ĠÃ Ŀ
ĠÐ¶Ð¸Ð·Ð½ ÑĮ
ĠEx pl
é Ĭ
Ð´Ð° Ñĩ
ta j
an ca
ãĤ¢ ãĥĥãĥĹ
zia ÅĤa
Ġãĥķ ãĤ¡
ĠÑĤÑĢ Ð¸
Ġra y
Ġinter v
Ġent s
Ġg arden
ĠDe z
Ġ... ..
èŃ ĺ
åī ¤
Ġtr ade
Ġs Æ¡
Ġpo zw
Ġmus ica
ãĥį ãĥ«
Ġd ow
Ġcar a
ĠÐŀÐ´ Ð½Ð°ÐºÐ¾
Ġbas ic
Ġconf ian
ĠAd v
Ð°Ð»ÑĮ Ð½ÑĭÐ¼
B ay
Ġen h
ĠMe in
ÑĢ Ð¾Ð½
Ġ- >
m g
k owe
ĠPl atz
ãģ«ãĤĪ ãĤĬ
Ð» ÐµÑĩ
ĠÐ¾Ð±Ð»Ð°ÑģÑĤ ÑĮ
ĠÄĳ Ã¡ng
à³į à²
Ġsci ence
Ġindividual s
Ġg uy
Ġcon cep
Ġcar ta
éĽ £
ĠS av
Ġ17 0
ãĥ¼ãĥ ª
Ã® tre
ond s
ĠA ud
ãģ¨ ãģĨ
el as
Ġsem pl
ĠI R
â Ĺ
Ġe cc
Ġåľ °
Ġgest ion
ãģ¦ ãģĦãĤĭ
ÑĢÑı Ð´
Ġeffect s
Ġx a
ĠN G
ĠFo und
Ġus ted
Ġof erta
Ġliv ello
ĠV est
ĠD os
Ġsmart_crop _
Ġ, ...
ãĥģ ãĤ§
Ġqual c
Ġp int
Ġel abor
Ġe ye
ĠEng ine
åį ģ
f order
ĠC el
if en
P l
wa hl
Ġex hib
ure au
Ġpartic olare
åı į
ãģ«ãģª ãĤĬãģ¾ãģĻ
Ġinter ven
Ġcol umn
Ġ ë
ãģ« å¯¾
k ten
fer ence
enn is
Ġm aggior
h em
ÑģÑĤÑĢÑĥ Ð¼ÐµÐ½ÑĤ
z os
D I
Ġus es
Ġtr áº¡ng
Ġten emos
r l
Ġæ ¬
Ġch áº¯c
Ġt um
Ġje ÅĽli
Ġin put
Ġczy li
ĠP ic
Ð² Ð¾
Ð°Ñģ Ð¸Ð±Ð¾
4 00
ĠÐŃ Ðº
ĠÐ¾Ñĩ ÐµÑĢÐµÐ´
Ġmeg lio
ĠR ay
ter o
ĠÐ½ Ð°Ð¹ÑĤÐ¸
ĠPh ili
ĠI C
ent en
ĠW omen
ich ten
ĠhÃ£ y
ĠÑģÐ¾Ð± Ð¾Ð¹
Ġl Ã¢u
ĠT oy
ist iche
et en
cr ip
Ġc ord
Ġbenef it
é º
ãĥ³ãĥ ĳ
ĠÑĥÐ· Ð½
ĠÐ½ Ð¸Ð·
Ġlar go
Ġev itar
Ġ" ),
ç¢º èªį
ãģ¾ ãģŁ
Ġprecis a
ĠÑĢÐ°Ð±Ð¾ÑĤ Ñĥ
Ð¸Ð² Ð°ÑİÑĤ
Ġst uff
Ġhe ure
kt ur
ĠÐĶ Ð°
ĠÐ°Ð²ÑĤÐ¾Ð¼ Ð°ÑĤ
Ġscr ipt
ãģŁ ãĤī
Þ §
ĠBeit rag
ĠÑĢÐµÐ¶ Ð¸Ð¼
ĠÐ´ ÑĥÐ¼
Ġgo als
ĠM Ã¼n
ĠAnt wort
æı Ĳ
Ġz al
Ġdist ance
Ġæ ±
ĠÑģÑĢ Ð°Ð·Ñĥ
ĠÐ¼ Ñĥ
Ġgr Ã¶
Ġ24 0
p ra
Ġjun io
Ġju illet
charg er
b ere
Ġupd ate
Ġrel aciÃ³n
Ġc ry
ĠM ig
æİ ¥
ĠÐ¿ Ð¸Ñģ
ĠÐ± Ð°Ð»
æŃ ³
Ñĩ Ð¸ÑĤ
ite z
Ġprovin cia
Ġliv ro
ĠS istema
ĠÐ¿Ð»Ð¾Ñī Ð°Ð´
Ġrec enz
Ġho áº¡ch
ĠJe ÅĽli
ĠB aby
Ġä» ĸ
r if
ific ado
ĠÐ¼Ð°Ð³Ð°Ð· Ð¸Ð½Ðµ
Ġsur pr
Ġs ect
Ġpar king
Ġl in
Ġpa id
Ġco ffee
ĠRoy al
e qu
V E
ĠÑģÑĤ Ð°Ð»
Ġinst ruct
Ġãĥ Ķ
Ġjour nal
ä¸ĸ çķĮ
ãĥ¼ãĥ Ĭ
ÃŃ cias
por ta
isch es
AT A
uts chen
Ġwed ding
f ar
Ġsch Ã¶
uf en
ic ional
ĠÐºÐ¾Ð¼ Ð°Ð½Ð´
at as
ĠÐ¿ Ð°Ð¼
Ġf elt
Ð³ ÑĥÑģÑĤ
rag on
ĠÑģ Ð¿ÑĢÐ°Ð²
Ġtrans l
ĠÐ¿ÑĢÐ¸Ð¼ ÐµÑĢ
ĠTod ay
â Ī
Ġg if
Ġfu era
ast ica
Ġkh Ã¡
Ã© li
Ġ3 A
Ð½Ð¸ ÑĨÐ°
ous el
Ń ¦
ch ar
ĠV eg
ĠL i
ĠB ang
éł Ĥ
pres enta
AR T
Ġacc ur
ï¼ ĸ
éĿ ŀ
Ġg ute
ĠJ aneiro
ï¼Ĳ ï¼Ĳ
ra ge
Ġdeliver y
Ġcomfort able
åŃ Ĺ
Pr ice
ĠÐ¡ Ð°Ð½
Ġmigli or
ĠTh Ã¡ng
ist ics
ĠÐºÐ¾Ð½ Ñģ
Ġic on
ĠRes ort
ãģ®è ©
P O
Ġpreoc up
Ġn Ã¢ng
Ġminim um
ĠAn na
Ġ12 8
ÐµÐ» Ð¾
ĠÐ¾Ð±Ñī ÐµÑģÑĤÐ²
ĠÐ½Ð° ÑĥÑĩ
Ġseg uro
Ġinst ant
ar to
Ġmill ions
Ġt ai
Ġpar c
ĠSer ie
Ġ( -
6 70
ĠÐ¿ÑĢÐµÐ´Ð¿ÑĢ Ð¸ÑıÑĤ
Ġinvest ment
Ġes pr
Ġcomb in
ĠH áº£i
ĠdÃ©c embre
Ġartic olo
ĠTr as
Ð¾Ð± ÑīÐµ
J A
au en
ĠSci ence
ĠC OL
Ġ ×
ĠÐŁÑĢ Ð¾Ñģ
ĠÐº Ð¼
ĠK al
ĠBM W
it ario
Ġä¸ ī
Ġãģ ¤
Ġmad re
os ci
B S
ĠfÃ© vrier
Ġbath room
m od
Ġmiejs ce
Ġbed room
Ġtrad ition
Ġnot ice
ĠÐ´Ð¾ÑģÑĤ Ð°ÑĤÐ¾ÑĩÐ½Ð¾
Ġsopr attutto
Ġbeh av
Ġa ta
ĠZ iel
Ġs vol
Ġ? "
æĻĤ è¨Ī
ä¹ Ĺ
qu oi
Ġç ¥
ĠÑįÑĤ Ð¸Ñħ
ĠC art
å½ ±
Ġãĥ Ĭ
ãģĮ ãģªãģĦ
ĠÑį Ð»ÐµÐ¼
Ġsur v
ĠU k
Ã©t ica
raw d
Ġent Ã£o
Ġc Ã´t
p et
ĠÑĤÐ°Ðº Ð¸Ñħ
ãģĭ ãĤĭ
ÐµÑĤ Ð¾Ð²
Ġdoc uments
Ġac om
ka ÅĦ
ĠÐĴ Ð¸Ð´
Ġcons ent
ĠR oll
ĠHo Ãłng
Ã¤ u
Ġaff ord
l ines
Ġæ ³
ĠÐ¼ÐµÑĤ Ð°Ð»
Ġk iáº¿m
Ġg ard
Ġes pos
Ġthan ks
Ġneg li
Ġm iÄĻdzy
ĠInform ation
ĠHo a
Ġ* **
Ġpolit ical
ĠÑįÐ»ÐµÐºÑĤÑĢ Ð¾Ð½
ĠÐ¿ÑĢ ÐµÐ²
Ġn p
Ġcu id
ĠL is
ĠH ospital
ĠD al
ĠD R
gior n
ĠÑģÐ²ÑıÐ· Ð¸
Ġt et
op s
id ers
Ġt Ã£o
Ġn ess
ĠT erm
ĠE p
ĠD ip
Ġk las
ĠH erm
Ġj ogo
ãģ¨ ãģ®
zy ma
Ġlleg ar
Ġl ack
ãģĹ ãĤĥ
Ġtr ust
ĠD ir
ĠCons ult
Ġpotrze b
Ġoffer ing
Ġmost ra
Ġg eben
Ġact ions
ĠB os
Ġw ichtig
Ġde cl
Ġappre ci
ĠBo ard
ie z
em u
20 17
Ġtrad ing
Ġcel ui
ĠÐ° Ð±
Ġqu este
Ñį Ð½
Ð°Ðº ÑĤÐ¾ÑĢ
ĠÐ¾Ð± ÑĢÐ°Ñī
Ġprzypad ku
Ġhá»ĵ i
Ġdiffer ence
B R
ĠÐĺ Ð³
Ġger ade
ĠM ode
æ¡ Ī
Ġfeel ing
ĠÑģÐ¼Ð¾ÑĤÑĢ ÐµÑĤÑĮ
ĠÑĢÐ°Ð· ÑĢ
Ġeconom ic
ĠH as
Ġæ ´
Ġte il
Ġrecom end
ĠktÃ³r zy
Ġoff ic
Y X
ĠÐ½Ð°Ð¿ ÑĢÐ¸Ð¼ÐµÑĢ
Ġw Ã¤re
c imiento
ĠSer ver
Ñģ Ð°
Ð¾Ð± Ð¾Ð´
i ÅĤ
ĠÃ©quip e
ĠÐ±Ñĭ Ð²
Ġapro ve
ĠProble m
åıĹ ãģĳ
ist ica
e a
UR A
Ġint ellig
ĠBe aut
, ,
Ġs int
Ġm aggio
ĠEs per
æĶ ¿
b uch
ĠB áº¯c
ãĤĩ ãģ£ãģ¨
ikip edia
ÃŃ r
ĠC are
A K
Ġche ap
ĠX u
Ã© tr
ĠÐ´ÐµÐº Ð°Ð±
Ġwy gl
Ġprzy got
Ð½Ð¸Ð² ÐµÑĢÑģ
gen es
ĠÐ² ÑĢÐ°Ñĩ
Ġn este
Ġãģ Ĩ
Ù Ħ
Ġdire tt
ĠM aj
ĠG obierno
Ġ; )
le z
ĠÐ½ Ð°Ð»Ð¾Ð³
Ġco ordin
ĠY ear
ãģ®å ¥
Ġl am
ĠX L
ĠP E
ãģ¯ ãģªãģĦ
er ne
Ġpar ent
åĲĮ ãģĺ
Ġç ľ
Ġst re
Ġassoci ated
ĠE R
åķı é¡Į
Ġè ³
ĠC ustom
ag u
Ġre vel
Ġbard ziej
on na
hl er
éĢ ±
sto ff
ĠÐł Ð°Ñģ
ĠCom ple
Ðł Âµ
Ġph á»§
ĠD Æ°Æ¡ng
ad ow
ĠÄĳ Ãłn
Ġb orn
ĠU lt
æķ ´
Ð¾ÑĢ Ð¾Ð½
ĠÐ¿ ÑģÐ¸Ñħ
Ġinstr ument
Ġkil ka
Ġinv ers
Ġgra v
ĠT S
ĠM Ã¶glichkeit
ĠÐ¸ÑģÐ¿Ð¾Ð»ÑĮÐ· Ð¾Ð²Ð°ÑĤÑĮ
ĠktÃ³ry m
Ġcook ies
Ġa ide
ĠS ach
ĠHer ren
ĠÐ¿Ð¾ÑĤ Ð¾Ð¼Ñĥ
Ġm ÃŃn
Ġin n
Ġfam ille
Ġbeso in
ãĥ© ãĥ³
ãģ®å ¾
Ġesp anol
ident ial
Ġp t
itte e
ĠÐ¿ÑĢ Ð¸ÑĢ
Ġtop ic
Ġth ank
Ġger ne
ĠçĽ ¸
Ġspr zed
Ġco oper
b bero
ad ra
Ġha ute
Ð°Ð½ Ð½ÑĭÐµ
Ġrecup er
s erv
Ġcateg ory
Ġcan cer
ĠãĤ ½
ĠMuse um
ĠDe partment
æĪ ¸
Ġstor ies
æº Ģ
ãģĮ åĩº
Ġset tembre
Ġdist int
ĠÑĢÐµ Ð°Ð»Ð¸Ð·
Ġsle ep
Ġpropos e
ĠR O
ĠMar co
ĠD ienst
Ã¹ i
ĠM T
yn ku
omo ÅĽci
Ġw it
Ġsa Ãºde
ĠPh oto
ial is
AC K
Ġn esta
ĠPier re
d os
Ġh Ã´m
Ġdev ices
ĠS qu
Ġlet to
ĠÐºÐ°Ðº Ð¾Ð¹
ÅĽ c
ze pt
iv ity
ĠL iter
zu ela
ĠÐ· Ð°ÑģÑĤ
Ġ. ).
ãģ® ä¸Ģ
ÑĥÐ½ Ð°ÑĢÐ¾Ð´
D S
Ġsoci Ã©tÃ©
Ġr ates
F R
Ġco in
ĠYou Tube
1 20
Ġsh aring
Ġfamil ies
Ġda fÃ¼r
ĠSatur day
ĠK os
Ġleg ge
Ġdam age
Ġav ril
Ġass um
Ġï¼ ŀ
Ġsig uiente
ĠL ug
ĠéĽ »
ĠÐº Ð¾Ñģ
ĠW atch
Ġnot amment
Ġcer to
ĠPe ople
Ð¸Ð½ Ð°Ð¼
Ã³ ry
Ġen fr
Ġc atch
Ð» ÐµÐ³
Ġtechni que
Ġtar if
Ġcal le
é¤ ¨
h s
ect ac
Ġu á»ĳng
Ġf id
ĠSe p
Ġsch Ã¶n
ĠãĤ ´
Ġse lected
Ġoct ubre
Ġad opt
Ð¸ÑĢÑĥ ÐµÑĤ
la f
ĠÐ¿ÑĢ Ð¸Ñħ
Ġuse ful
Ġsport s
Ġservi Ã§o
Ġd áº¡ng
ĠV oir
ĠPart y
Ġâ ī
Ġdic iembre
Ġdeg ree
Ġat tr
Ð¼ Ð°ÑĤ
Ġman ual
ĠIntern acional
Ġser ia
Ġreview s
Ġincontr i
Ð ¨
ĠÐŀ ÐŀÐŀ
Ġs ott
Ġpre Ã§o
ĠMus ik
Ġï ¸ı
Ġsmart phone
ĠW ho
ĠDur ante
ĠÐ±Ñĭ ÑģÑĤÑĢÐ¾
Ġnaj leps
Ġde le
or b
ig io
ĠÐ° ÑĤ
Ġoffer ed
à² ¿
rie ben
ĠÐ² Ð»Ð°ÑģÑĤ
Ġprom oc
Ġneg ro
å® Į
sze j
m F
ĠÄĳ au
ãģł ãģ¨
ãģ®å Ĩ
Ġtom ar
Ġsur round
Ġph áº¡m
Ġco ÅĽ
áº§ ng
Ġp ena
Ð¸Ð½ ÐºÐ¸
us er
ĠÐ½ Ð¾Ð³
Ġstr on
Ġsh ared
em o
Ġst y
Ġc itas
ĠP P
ĠB le
ct ure
Ġs are
Ġret our
Ġexper ts
ĠK auf
ĠÐ¾Ñģ Ð½
ĠTer ra
ĠE V
ÅĽ rÃ³d
la is
ad ro
Ġw ollen
Ġub ic
Ġsett ing
Ġwe ather
Ġroom s
Ġse qu
ĠJul i
est ro
Ġsupp or
Ġacqu a
h Ã¤ng
et ter
zu ki
Ġa ward
mo oth
ĠÑĩ Ð¸ÑģÑĤ
Ġsoc ietÃł
Ġsal on
ĠM ON
ç© ¶
at ten
M C
Ġactiv idades
Ġå ķĨåĵģ
Ġngh á»ĭ
Ġalgum as
éĸ¢ ä¿Ĥ
Ñı Ð²Ð»Ñı
ĠÑıÐ½ Ð²Ð°ÑĢ
Ġg ave
ĠSch warz
çĶ ³
ĳ ng
Ġinst ru
ãģłãģĳ ãģ§
ÑĥÐ½ ÐºÑĤ
Ġä»Ĭ åĽŀ
ĠÐ¿ÑĢ Ð°Ð·Ð´
Ġpr Ã¡ct
Ġde ad
ĠÐŁ Ð¾Ðº
Ġbas is
Ġtro uv
Ġpot rebbe
ĠM O
ãĥĿ ãĤ¤ãĥ³ãĥĪ
ãĥļ ãĥ¼ãĤ¸
ĠÐµ ÑīÑĳ
ĠpÃºbl ica
Ġp ÅĤy
ĠIl l
ient i
an ci
H T
Ġk siÄħÅ¼
Ġh áº¯n
m us
ĠÐ½ Ð¾Ñĩ
Ġwh e
Ġn ag
ĠCÃ³ mo
ãģı ãĤīãģĦ
ĠÑĤÐ°Ðº Ð¾Ðµ
ĠFra ge
and ro
Ġs ession
Ġdispon ibles
Ġspec jal
Ġpas o
S e
ĠÐŁÐµÑĤ ÐµÑĢÐ±ÑĥÑĢÐ³
ĠS yn
ĠHe ad
ĠG I
ĠCh em
AR E
åĲ «
Ðķ ÐĿ
ĠÑģÐ»ÐµÐ´ ÑĥÐµÑĤ
ĠÑĢ ÐµÑģ
ĠÄĲ Ã¢y
ĠÃª tes
ĠS Æ¡n
Ð¾ÑĢ ÑĮ
eg no
ĠCiv il
ĠAcc ord
Ġcon ce
ĠLe arn
Ġstr ony
Ġè¦ ĭ
Ġe k
ĠN om
Ġï¿½ï¿½ï¿½ï¿½ï¿½ ï¿½ï¿½
Ġnh Ã©
ĠL ake
ĠG uer
Ġ36 00
Ġgi ugno
W S
F E
ĠGe orge
ÑĢ Ð¸ÑģÑĤ
ÑĬ ÐµÐ¼
Ġexist ing
Ġch ambre
r up
ot ta
g raf
Ġu0 44
Ġse lection
Ġd Ãłnh
ĠsÃ©cur itÃ©
Ġof t
Ġk olor
ne o
ed s
Ġc áºŃp
Ġp ense
ĠÑģÑĢ Ð°Ð²
Ġcou p
Ġ199 4
Ġob ras
Ġfa il
Ġre par
ç Ĩ
ãģ§ãģ¯ ãģªãģĦ
áº© y
ec o
amb res
Ġmot ivo
Ġg obierno
Ġby ÅĤa
è¾¼ ãģ¿
Æ°á» Ľi
ĠÐ· Ð½Ð°
Ġprze k
ĠÐº Ð°Ð±
ĠMad uras
Ġun as
ĠO u
ĠH on
ic ed
c Äħ
Ġso ir
Im age
Ġhand le
Ð¾Ð¼ Ð½
y ing
ar zy
ĠÑģÐ²Ð¾ ÐµÐ³Ð¾
ĠÐ¿Ð¾ÑĤ Ð¾Ð¼
Ġsex ual
Ġot ten
ĠL iga
ĠHom me
Ġtrov are
n ict
12 3
Ġd Ã²ng
ĠS ala
ĠE ff
t el
sch n
_ n
Ġs Ã¢n
ĠperÃŃ odo
Ġf um
Ã¤s st
C L
Ġnh áºŃt
Ġur g
Ġpr on
Ġclass es
Ġk a
ÑİÑī Ð¸Ñħ
Ġadv ice
ĠLe i
atr ice
Ġv ue
ãģ« åĩº
âĶ ģ
rÃ³ Å¼
ir ma
H e
B I
j m
ĠæĻĤ è¨Ī
Ġwszystk ich
Ġsl ot
Ð° ÑģÑĤÐ²
izz ata
ass a
Ġãĥ «
Ġex tern
ĠC AM
ĠB is
p unkt
Ġgr id
ĠGar ten
et es
Ġæ Ģ
ĠÐºÐ½Ð¸ Ð³
Ġl ock
Ġconj unto
æī ķ
ãģ ¼
end es
ĠÑĢÐµÐº Ð»Ð°Ð¼
Ġsic urezza
Ġall o
è °
w art
Ġste hen
ĠPol s
pa Ã±
lich t
ĠV ic
éł Ń
if ique
de z
Ġ| |
Ġgro ÃŁ
v oll
szy m
ind re
Ġen able
ĠP ie
ÑĥÐ»Ñı ÑĤÐ¾ÑĢ
an na
Ġä¸Ń åı¤
ĠrÃ© du
ĠP ul
åº §
Ã© gr
reib en
Ġkonn te
ĠM ade
åģ ´
au ff
ĠÐŀ Ð½Ð¸
Ġs osten
Ġown ers
Ġdec ide
ãĥ¡ ãĥª
ãģĻãĤĭ ãģĵãģ¨ãģĮ
l ock
ho o
ad i
ac co
ĠG h
Ġpag amento
åı ĭ
Ġç ¨
Ġcar go
k ur
P ER
ĠÑģÐ°Ð¹ÑĤ Ð°
ĠÐ¿ÑĢ Ð¾Ðº
Ġmaxim um
Ġf ondo
Ġ00 Z
ãĥ ¦
ãģ§ ãģ®
Ð°Ð¼ ÐµÐ½
ze igen
ĠM Ã¡y
ĠAs ÃŃ
æŀ ļ
Ð¾Ð²Ð°Ð½ Ð¸Ð¸
Ġsou vent
Ġar beit
ĠTer min
ĠMais on
ĠEx cel
uc iones
ĠÄĳá» į
Ġk ol
ä¸Ĭ ãģĮ
em on
Ġpom oc
ĠV el
Ġr ÄĻ
un os
Ġæ Ķ
Ġeas ier
ti que
Ġvis ite
Ġsept iembre
Ġencuent ra
è Į
ĠÐŀ Ñĩ
Ġprofess ion
ĠhÃ´t el
Ġc ic
Ġ12 3
ãģ ľ
Ðº Ð¾Ð³Ð¾
ens ions
Ġest udi
Ġcontr at
Ġc ach
Ġ, '
ÑĤ Ð¾Ð²
ass i
Ġká» ĥ
ĠSt re
ĠS ens
ĠC av
ĠÐ´Ð¾Ð¿ Ð¾Ð»Ð½Ð¸ÑĤÐµÐ»ÑĮ
Ġreg ional
ĠB ou
ar r
Ġenc ont
Ġe yes
wick lung
ed y
ĠÐ´ ÑĥÑĪ
Ġot tobre
cz nie
ĠÑģÑĤÐ¾ÑĢ Ð¾Ð½Ñĭ
Ġtele vis
Ġpass ion
ĠÐ¼ Ð°ÐºÑģÐ¸Ð¼
ĠA udio
é Ĺ
it ore
Ġsk ÅĤad
Ġmean ing
ĠFer r
Ñı Ð¼Ð¸
Ġæ ²
ĠÐºÐ¾ÑĤÐ¾ÑĢ Ð¾Ð³Ð¾
Ġcol leg
Ġc ura
Ġb Æ°á»Ľc
è¦ ĸ
ut or
Ġod d
ĠF ur
Ñĩ Ð¸Ð²
Ġmiesz k
Ġde ver
ĠA frica
Ð² Ð¸Ð½
Ġè ī
ĠÐł ÑĥÑģ
Ġrela Ã§Ã£o
Ġng á»§
ĠÑģ Ð¸Ð½
Ġchall enge
ç ĸ
ĠÐ¿Ð¾Ð´ Ð°ÑĢ
Ġh und
ĠH amb
Ð¸Ð· Ð¼
ĠÑĤ ÑĥÑĤ
ĠÑĢ Ð¾Ð·
Ġprin ci
Ġcomplet amente
ĠJ est
ãĤĪ ãģı
Ġrecon oc
Ġao Ã»t
_ t
Ġren contr
Ġm unicip
ĠFo od
Ð°Ð½ Ðº
ÄĻ zy
Ã¼ cks
r d
Ġwy st
Ġnaj b
Ġb Ã¡s
ĠUnivers idad
Ġ! )
p are
Q UE
ĠÄĳo áº¡n
Ġs áº»
Ġmiejs c
Ġ13 5
ĠrÃ© se
Ġguar ante
Ġam en
ãĥĽ ãĥĨãĥ«
ber t
Ġtotal mente
éł ¼
Ġen ero
ra i
Ġwen ig
Ġsa i
Ġpossibil itÃł
ĠH ill
ial es
Ġdi pl
ĠL ist
° ¡
Ġt witter
Ġsh own
ĠC ort
ĠÐ·Ð°Ð± Ð¾Ð»ÐµÐ²
ĠdÃ©b ut
ĠEr fahr
Ð¾ÑĤ Ð¸Ð²
Ġa pre
ot i
Ġpou voir
Ġcu atro
Ġcre ative
ĠSu pp
Ġ uy
ĠÐºÐ» ÑĥÐ±
Ġtempl ate
Ġkh áº©u
n el
ĠÑĢ Ð°Ð´Ð¸
ĠÐ½ÐµÐ± Ð¾Ð»ÑĮÑĪ
Ġdoc umento
Ġe fic
Ã³ rios
Ġpr osp
Ġp ec
Ġgen au
Ġdom u
Ġa Ãºn
ĠSp an
Ġ2 C
Ġmp 3
Ã¨ o
Ġcoment arios
ĠSk y
os te
it aciÃ³n
L a
Ð¡ Ð¡
g abe
Ġpress ure
ĠAl c
ãģĭ ãģ«
og ue
Ġs ir
Ġpo ol
Ð¸Ðº Ð°Ð½
X X
Ġge hen
Ġfe et
Ġdie t
ĠCour t
Ġ" ;
Ð°ÑİÑī Ð¸Ð¹
Ġb esser
ern en
ang es
Ġoc as
Ġdoc tor
ĠSch we
ĠR ES
ob by
Ġan unci
Ð°Ð½Ð´ Ð°ÑĢÑĤ
ĠM Ã©d
ĠHom bre
Ġ! "
il ion
Ġschool s
Ġregard ing
ĠnÃ³ s
ĠczÄĻ ÅĽci
ÑģÐ» ÑĥÐ¶
um enti
to ber
Ġmar chÃ©
Ġch á»¯a
ĠÐ¾ Ð³ÑĢ
Ġ[ /
ĠS um
ÐĽ Ð¬
ire ment
ĠÐ¾ÑĤ Ð¼ÐµÑĤ
Ġcad re
ĠW ild
ĠTex as
æĹ ©
inh as
Ġposs a
Ġd uy
ĠEx press
Ã©r er
Ġst im
ĠVers ion
ĠG irl
Ġå ģ
ĠÐ²Ð½Ð¸Ð¼ Ð°Ð½Ð¸Ðµ
" >
ĠNov a
Ã¶r der
h mer
ĠM az
T h
Ġtuy áº¿n
ĠT on
ĠM AN
Ġ. ;
ĠÑģ Ñħ
Ġexperien ced
Ġa id
Ã¤n de
ĠÑĤ Ð²Ð¾ÑĢ
Ġ}, {"
ĠL G
Ðķ Ðł
ÅĤ ych
yf ik
itar beit
Ġsp ent
Ġp eg
ĠCor por
Ġdr ink
tra g
or gan
ĠÐĴ Ð¾ÑĤ
ĠR ose
ĠÐĶ Ð¾Ð±Ð°Ð²
ĠÃ ¬
Ġeffic ient
ĠÐ¸ÑģÐº Ð»ÑİÑĩ
Ġpro va
Ġcl oth
ĠTra vel
H R
C ont
Ġm ias
é Ĥ
Ġacc esso
ĠAl though
ç ħ
Ġm oc
ĠC ra
Ġrepor ted
Ġgr os
Ġavo id
Ġapp el
ĠO ld
åĽ £
or ar
inhe iro
ĠÑĩÐ°ÑģÑĤ Ð¾
ĠÑĢ Ð°Ð¼
Ġtr ied
ĠHa ve
å± Ģ
Ġalg una
ĠS ir
ĠLoc al
un cia
ostr ar
ĠÐĺ Ð¼
Ġre ve
Ġmigli ori
ĠO m
ĠIn sp
ãģ® ãĤ¢
ly mp
ĠÐºÑĢÐ°Ñģ Ð¸Ð²
Ġre pair
Ġdobr ze
Ġ: "
ol er
Ġvar ios
Ġjul io
ÑĢÐ° ÑĪ
Ġra ce
ĠPr ime
ÑģÑĤ Ð°Ð½
Ġï¼ ł
ĠM undo
ĠD 0
ĠC OR
Ã¤ ter
ĠÑĥÑĩ ÐµÐ±
ĠÑģÐ²Ð¾ Ð¸Ð¼Ð¸
Ġalgun as
Ð¢ Ðŀ
ĠæĬ ķç¨¿
ĠÐĳ Ð¾Ð»ÑĮÑĪ
Ġviel en
ĠV Ã¬
ãĤ¯ ãĤ»
ĠÐ¼ Ð°ÑĢÑĤÐ°
Ġci Ã²
ĠP OL
ent iel
Ġm ale
Ġg usta
ol ic
Ġv á»ĳn
eit os
ĠÐ¿ÑĢÐµÐ¿ Ð°ÑĢ
Ġf ans
ãĥª ãĥ¼ãĤº
ro v
leg t
Ġv illage
Ġt ub
Ġst att
Ġein ige
Ġb Ã¡c
çĹ ħ
ç® Ĺ
Ð¿ Ð¸Ð¾Ð½
u ela
Ġpro g
ĠWo od
ãģĬ ãĤĬ
Ġw est
ĠMich el
ĠIl s
N S
Ġt ÅĤ
Ġs v
åĮ »
le o
ĠâĹ ĭ
Ġbe yond
ĠC ant
anc ing
EN S
ĠÐ½Ð°ÑĢ Ð¾Ð´
Ġwas n
Ġnh á»Ľ
ĠM ath
ĠEn tr
y k
ond ere
ne hm
Ġnue vos
Ġs Æ°
Ġman ager
ĠÃ¡ gua
ĠSicher heit
ĠN ame
Ġver g
Ġpad ding
æ³ ģ
er mo
ĠâĢĻ ,
ĠÐ± ÑĥÐº
Ġsub mit
Ġç ¬ĳ
ĠÄĳ Ã´i
ÑĭÑĪ Ð»ÐµÐ½
ÐµÐ¹ ÑĤ
Ġre de
Ġdro p
ĠCi udad
ais on
ĠÐ¼ Ð°Ñı
Ġtr uly
Ġcol lege
im ents
ill i
K S
Ġg á»Ńi
ĠS eb
Ð¾Ð½ ÑĥÑģ
Ġesper ienza
Ġe at
Ġat end
ĠD or
ub ro
r ier
lo ok
_ m
łĶ ç©¶
ĠG S
ãĤ· ãĥ§ãĥ³
ãĥ³ãĥ ĩ
ÅĤ ecz
r ant
lat ego
± æ¯Ľ
Ġc ose
ãĥ©ãĤ¤ ãĥ³
Ġpro xim
ĠR ap
Ġl un
ĠW and
ĠT Ã¢y
åĥ į
C R
Ġãĥ ¦
ĠK omm
ĠFlor ida
Ð¸Ð´ Ñĥ
ĠP ros
ĠCom mer
Ġcar re
Ã¢ te
ĠÐ²ÐµÐ´ ÑĮ
Ġstud ies
ãĥĩ ãĥ«
iÃ¨re ment
Ġsi Ã¨
Ġdom ingo
ĠÑģÐµÑĢ Ð²
Ġers te
Ã¼ s
Ġz wy
Ġg ent
Ġat trib
j s
ĠÐ¡Ð¾ Ð¾Ð±Ñī
Ġpr Ã¨s
Ġmes i
ĠÑĥ Ð¶
ĠÐļ Ð°ÑĤ
Ġzak up
ĠBrit ish
ĠA j
u it
Ġac adem
ĠJ ud
zÄħ t
r ica
ow is
agg ed
Ġsur tout
ĠAl Ã©m
es is
Ġk red
Ġeff orts
Ġcl oud
ĠB rown
ĠÃ Ł
ĠMÃ¤r z
ĠE rot
ĠB Ãłi
r s
ĠlÃŃ der
Ġf ight
Ġdistrib u
Ġc atalog
ĠSte f
ĠF arm
ÑģÐº ÑĥÑİ
w anie
ed o
ĠÑħ Ð¾Ð·Ñı
ĠÐŁÐ¾ ÑįÑĤÐ¾Ð¼Ñĥ
ĠD ios
icz nych
_ p
Ġcitt ad
ĠP il
ÐµÑħ Ð°Ð½
6 00
ĠÐĴÐ»Ð°Ð´ Ð¸Ð¼
Ð¸ÑĢ Ð°
ĠDis ney
Ð°Ðº Ð°
Ġprodu cto
Ġrele ased
Ġi hm
Ġam ore
Ġla o
Ð½ Ð¸ÑĤ
I OS
Ġc ards
ĠS R
1 50
ĠÐ³ ÑĢÐ°Ð½
Ġk ons
Ġjob s
Ġed ific
ĠDom in
x is
ĠÑĤÐµÐ¿ ÐµÑĢÑĮ
Ġus t
Ġr zeczy
Ġno ir
Ġas i
ĠBe ispiel
Ð¼Ð¾ÑĤ ÑĢÐ¾Ð²
rit to
ĠÐ¸Ð³ ÑĢÐ°
ĠD ob
ĠBa h
ï¼ ĺ
pon se
ĠÐ¢Ð°Ðº Ð¶Ðµ
Ġsitu aciÃ³n
Ġo czy
ãģ¤ ãĤĤ
Ġtrou ve
ER O
Ġem erg
ly ing
ĠÐ°Ð½ Ð³
Ġd imin
Ã¼ d
ver te
Ġfeb rero
Ð¸ÑĨ Ð¸Ð½
ÃĪ Ãĭ
_ d
ĠÐ¿ÑĢÐ¾Ð³ÑĢÐ°Ð¼ Ð¼
Ġt ard
ĠIm p
Ġob ser
Ġdise ase
Ġ' .
Ñİ Ð·
Ġpre c
éļ İ
å¯ Ħ
Ġpesso a
ä» »
Z E
Ġsem aine
Ġplay ed
Ġnuov i
Ġin gl
Ġdiff icile
Ġcons ci
al ne
Ġz ug
Ġb ord
ĠTh Ã¡i
ĠS W
ĠM and
Ġsamo chod
Ð¾Ð½ Ñĩ
Ðµ Ñı
ou vern
M P
Ġre tr
ir us
ĠÄĳá»į c
Ġint el
Ġch ica
ĠR on
ĠÐ¾Ðº Ð¾Ð»Ð¾
ĠÐ½Ð°Ð· Ð½Ð°Ñĩ
ĠÐ¼ Ð°ÑģÑĤ
ĠD ra
ĠÐ¾ÑĤÐ´ ÐµÐ»ÑĮ
Ġover all
Ġmod els
Ġat tach
ĠM is
ĠL am
os ter
Ġwys ok
ĠC Ã´
es en
Ġæ İ
Ġnov iembre
Ġcontin ua
oc c
äºº ãģ¯
h tt
ed ores
an al
Ġrich i
Ġrespons ible
Ġ10 2
stell er
ĠÐºÐ¾Ð¼Ð¿ Ð°Ð½Ð¸Ñı
Ġmen or
Ġmeille ur
Ġcar ro
Ġbo a
ĠD U
è© ķ
ÑĢÑĥ ÑĤ
Ġtal ent
ĠEr geb
Ì£ c
Ġh il
Ġcuc ina
ĠSp iele
ĠGro ÃŁ
ĠG abr
Ġh emos
Ġcont acto
éĽ ¢
ĠDe v
ce an
Ġp ill
Ġc elle
ĠW iel
we is
em en
ĠdifÃŃ cil
p al
ĠÐ²ÑĭÐ¿ ÑĥÑģÐº
Ġso ul
Ġline a
Ġl ines
ang el
ĠÑĤ Ð¾ÑĤ
Ġpar ole
y j
iz ada
ert ura
Ġl áº¡nh
um ul
Ġcir cul
Ġparticular ly
ÐºÐ¸ Ð´
Ġtr Ã¡i
Ġcol abor
Ð¾Ð´Ð°ÑĢ Ñı
Ġcuer po
Ġch áº¿t
ĠMar kt
Ġpar f
ĠmÃ¶ chte
Ġbeg inning
iss ions
ĠÐ¿ÑĢÐ¾Ð´ Ð°Ð¶
ĠÐ¿Ð¾Ð·Ð²Ð¾Ð»Ñı ÐµÑĤ
ĠÐ½Ð¸Ðº Ð°Ðº
wor ks
istra zione
Ġgratu ito
Ġd ziÄĻki
ĠSm ith
Ġb rought
Ġas se
è¼ ĥ
iz zo
b sp
Ġval ores
Ġt Ãªm
Ġpay ment
ĠPer f
é£Ł ãģ¹
Ã¶r per
h Ã¶
ĠÐŃ ÑĤ
Ġzaw sze
Ġm ente
ĠTh Ã´ng
ĠR Ã©s
Ġfin ale
Ġfest ival
Ġdes k
ãģ® ãģ¿
Ð»ÐµÐ½ Ð¸Ð¹
itar ia
ĠÐ¿Ð¾Ð´ ÑħÐ¾Ð´
pond re
izz ati
Ġprincip almente
ĠG L
ĠBewert ungen
b m
**** ****
ĠÑģ ÑĥÐ±
ĠÐĲÐ½ Ð´
ĠÐ¼ÐµÐ½ ÐµÐµ
Ġs ommes
Ġprze p
ĠCon tr
est aw
ĠÐĲÐ² ÑĤÐ¾ÑĢ
Ġlug lio
Ġdic embre
ell schaft
ĠãĤ³ ãĥĶãĥ¼
ĠÑĥÐ¿ÑĢÐ°Ð² Ð»ÐµÐ½Ð¸Ñı
Ġur ban
Ġmod ific
ĠZ ug
c en
Ġzaw od
Ġs weet
Ġmeas ure
Ġh Ã¤t
ãģı ãĤĮãĤĭ
Ã¶ff entlich
ias i
Ġsegur anÃ§a
Ġor o
Ġintro duc
ĠT ype
æ¶ Ī
ãģĭ ãĤĤãģĹãĤĮ
ÑĢ Ð¾Ð¹
Ġth Æ¡
Ġb ols
Ð¾ÑĢ Ð¾ÑĤ
if orm
ĠÐ§ ÐµÑĢ
Ġw ild
Ġgrup os
Ġgro ÃŁe
Ġ11 2
Â ¬
ĠÐ²Ð½ ÐµÑĪ
ĠÐ§ ÑĤÐ¾Ð±Ñĭ
ĠB áº£n
ä¸ İ
ij os
Ġt ips
Ġann ual
çķ °
åĩ ¦
Ã¤ uf
Ġlarg est
ĠV ivo
ni os
ĠÐ¿Ð¾Ð´ Ð¾Ð±
Ġy e
Ġw Ã¤hrend
Ġnh i
Ġmid dle
Ġj ardin
ĠPare ja
H D
E l
Ġmelh ores
Ġcons ul
ind ex
U A
Ġzap ew
Ġincre ased
ĠPr ze
ĠMond ay
ĠEn s
Ġwe ar
iss ant
bild ung
Ġcomp ag
Ġb att
ĠHer r
ĠC ase
Ġsant Ã©
ĠCh urch
ãģ£ãģ¦ ãĤĭ
ÑİÑī Ð¸Ðµ
ÐµÑĢ Ð¸Ð½
Ġè ĭ
Ġv enda
Ġp untos
Ġnatur ale
ĠD z
Å¼ eli
w ise
ĠÑģÑĤ Ð°ÑĤ
åĬ¹ æŀľ
zem bro
8 00
Ġtrze ba
Ġ Æ°u
pl oy
Ġè £
ĠÐ¸ÑģÑĤ Ð¾ÑĢ
Ġmed idas
Ġapr ile
Ġp ais
Ġv Ã²ng
Ġl ands
ĠÑģ ÐµÐ½ÑĤ
Ġletz ten
Ġincre asing
Ġgiá» ĳng
ãģ®åł´ åĲĪ
ien n
Ġv ice
Ġre b
Ã¤ m
ĠÐ¿ÑĢÐ¾Ð´ ÑĥÐº
Ġinter esse
Ġhotel s
Ġconsum o
Ġczas u
m ont
1 10
ĠÑģÑĢÐµÐ´ ÑģÑĤÐ²Ð°
Ġz b
Ġr ide
Ġest oy
Ġcertain ly
å¤§ ãģį
Ġh ub
Ġgen naio
ĠPro zent
ĠAcc ueil
ÐµÐ½ Ð´Ð°
it ter
er b
ĠâĹ Ĩ
Ġrif er
Ġreg iÃ£o
Ġcontrib u
Ġappropri ate
ãĥ³ãĤ »
ãģ« ãģĹãģ¦
Ġfundament al
Ġd v
ĠN ik
cr ito
Ġpass er
çĲ ĥ
Ġph Ãºt
Ġp p
Ġm orte
Ġ. âĢľ
ĠG olf
ar ily
ĠÑĩÐ°Ñģ Ð¾Ð²
im inal
ĠÑĤ Ð¾Ð³Ð´Ð°
ĠÐ½Ð¸Ñĩ ÐµÐ³Ð¾
Ġs witch
Ġ199 2
ro it
ĠÑģÐ¾Ð² ÐµÑĤ
æı ´
ĠÐ³ ÑĢÑĥÐ·
ĠS ig
t ies
Ġprz es
Ġde leg
ĠBec ause
Ġpad re
Ġident ify
Ġ10 3
Ã Ŀ
Ġãģĵ ãģĵ
Ġx Ã©t
Ġal one
å¢ ĥ
ÑĪ Ð¸Ð±
A pp
Ġart ÃŃculo
ous ly
ill on
ĠÐ¸Ð½ ÑĦ
ĠÅĽ wie
Ġvol t
Ġtá» ĭ
Ġin ch
Ġa illeurs
ĠSp ec
Ġr ing
Ġha ut
Ġch iá»ģu
Ã¡ u
Ġn Âº
ol ta
ĠÐ²Ð¾Ð» Ð¾Ñģ
ĠÐ²Ð½ÑĥÑĤÑĢ ÐµÐ½
us ed
unic ÃŃp
Ġcerta ins
ĠZ usammen
ster reich
let ter
ĠÅĽ wiat
Ġvo te
Ġn Ãłng
ĠCru z
Q L
Ĵ °
Ġå¤ ĸ
ĠL td
éĻ º
ç ª
sp ot
h Ã¤lt
UR E
ĠÐ¿ÑĢÐ¸ ÑĪ
ĠkÃ¶nn te
Ð¼ Ð°ÑĤÑĢ
ran ce
ĠÐļÑĢ Ð¾Ð¼Ðµ
Ġt inha
Î ±
Ġth iá»ĩn
Ġmot her
ĠV ER
ĠÐ°Ð½ Ð°Ð»Ð¸Ð·
Ġde tt
ĠS anto
ĠR A
ĠÑĤÐµÐ¼ Ð¿ÐµÑĢ
Ġso y
Ð½Ð¸ Ð¶
le ts
Ġpres enta
Ġdiv ent
Ġdeta il
Ġag giorn
arn os
ĠÐ²Ðº ÑĥÑģ
Ġw inter
Ġhe ures
Ġh ang
ç¿ Ĵ
g ets
ĠÐ¡ ÑĢÐµÐ´
Ġv ont
Ġsent ir
Ġfir my
lec ciÃ³n
ĠR oss
Ã© fono
Ġnu ove
Ġf ica
è²· åıĸ
ĠvÃŃde o
Ġult imo
Ġex pres
Ġay uda
åº ľ
á»ĭ p
ÐµÐ» Ðµ
Ġstrateg y
ĠB lo
æł ¹
ĠB ru
or z
ĠÑĤ ÑĢÑĥ
Ġm ese
ç½ ĳ
Ġter az
Ġmay be
Ġf antas
« ng
Ġl ange
ĠFu ÃŁ
se hen
k el
Ġx anh
Ġst ick
Ġdr iver
ç Ī
å½ ¹
ion y
ĠÐ´Ð¾Ð» Ð³
Ġznaj du
ï¼ ļ
è· ¯
out er
ĠÐº ÑĥÑħ
Ġlas ci
Ġi OS
ãĥ¼ãĥĨ ãĤ£
ãĥ¼ ãģ®
Ð¾Ð» ÐµÑĤ
Ð» ÐµÐ¶
Ġå¹ ´
Ã¤ ft
tem bro
es ome
ĠÑĢ Ð¾ÑģÑĤ
ĠÐ²Ð¾Ð´ Ñĭ
ĠÃ©c rit
Ġdire ito
ĠInstit ute
è¦ ļ
zen iu
ĠZ ur
ãģĵ ãģĨ
gr ad
Ġutil isation
ĠOk tober
ĠG U
áº ¤
Ġpie ces
ĠGra zie
ĠÐļ Ð¾Ð³Ð´Ð°
ãģĺãĤĥ ãģªãģĦ
ãģª ãģĹ
an st
Ġ199 3
Ð°Ð¼ Ð¿
Ð°Ð´ Ð°
ĠÑģÐ°Ð¼ ÑĭÑħ
Ġag it
Ġtecn ologia
Ġk ÃŃch
çŁ ³
ĠÑĢÐ°Ð¹ Ð¾Ð½
Ġw oman
ĠMar ie
ãģ« ãģĭ
Ġprov oc
Ġan alis
Ã¤ hlen
iz ie
ĠÑĢÐ°Ð±Ð¾ÑĤ Ð°
Ġth ous
Ġal though
ãĤĬ ãģĮ
ĠÑĩÐ¸Ñģ Ð»Ðµ
Ġfurn iture
Ġdis frut
Ġdi fic
ĠJ im
P N
Ġc Æ°á»£c
Ġart igo
ĠS itu
ĠFra gen
ĠÃŃ ch
Ġtr áº¯ng
Ġn áº±m
t ag
Ġtable t
Ġet wa
Ġdis so
ĠS ou
ç º
sch af
ĠâĢ ¹
ĠÅ¼ eby
Ġr ules
ĠInte gr
âĺ ħ
ÃŃ da
Ġvir us
Ġextrem ely
val u
Ġgem acht
Ġc Ã¢n
Ġh Ãºt
Ð½Ð¸ ÑĨÐ¸Ð¿
ĠÐĲ Ðº
ĠÐ² ÐµÑģÑĮ
Ġmu itos
Ġhe ard
ĠSport s
å¥½ ãģį
ycz nych
ĠÐ¿ÑĢÐ°Ð² Ð¾
Ġnum bers
ĠL O
æ® ĭ
ĠÐ¾Ð³ ÑĢÐ°Ð½Ð¸Ñĩ
ĠE mail
é¡ Ķ
ka w
ĠÐº ÑĢÑĥÐ³
Ġtr Ã²
Ġr us
ĠTr áº§n
f el
ĠÐºÐ°ÑĤ ÐµÐ³
Ð»ÐµÐ½ Ð¸ÐµÐ¼
x i
ĠÐ·Ð°Ð¿ Ð¸Ñģ
Ġch áº¡y
Ġbe iden
ĠÐ¿Ð¾Ð» Ð½Ð¾ÑģÑĤÑĮÑİ
ĠÐ¼ Ð¾Ñī
ĠÐ³ÑĢ Ð½
è« ĸ
ãĥ¼ãĥ Ģ
o ÅĽci
Ġqu elli
Ġph Ã©p
Ġef ect
è¨ĺ äºĭ
æ¥Ń èĢħ
ĠÐ²Ñĭ ÑĪ
Ġpan el
Ġk W
Ġimmedi ately
Ġchang ed
Ġcaf Ã©
Ġå¹ ³
ĠRe chts
çĶŁ æ´»
Ġst reet
Ġprod uto
le ÅĦ
ĠÑħ Ð¾Ð´
ĠÐ¾ÑĤ ÐºÐ°Ð·
Ġmu itas
Ġam ar
ĠPols ce
ĠD J
Ð¸Ñģ Ð°
amp f
ĠÐĿ Ð°ÑĪ
ĠB at
æ° ı
ãĤī ãĤĮãģŁ
ÐµÐ½Ð¸Ñı Ñħ
Äħ da
ula ire
ĠÑĤ Ð°Ð±
Ġf erm
Ġbu eno
ĠL abor
ãĤ¯ ãĥ©
ĠâĢ¦ âĢ¦
Ġtra ffic
Ġpr en
ĠT odo
Ġ() {
r iff
G O
ĠprÃ©s ident
ch at
Ġcom enz
ãģ£ ãģĭãĤĬ
et ro
Ġpow od
ap ar
ĠÐ¿Ð» Ð°ÑģÑĤ
ĠS uch
Äħ t
ul la
k st
Ġå ŃĲ
Ġmed ium
T ype
Ġåħ Ī
ĠÐ¸Ð½ÑĦÐ¾ÑĢÐ¼ Ð°ÑĨÐ¸Ð¸
Ġtrabal h
ĠL ÃŃ
Ġper der
ĠCh ild
ÅĤo ÅĽÄĩ
it et
ien iu
ĠN ad
ÑĮ ÑĤÐµ
qu isa
f est
Z Y
Ġm Ã³n
ĠP T
ĠCom ments
å¤§ åŃ¦
ich en
ĠÐŁ Ð¾Ñĩ
Ġtu áº§n
Ġhom es
h 30
ch ester
ĠÐ±Ñİ Ð´Ð¶
Ġsog ar
Ġpre zzi
ĠP on
tain ment
o ff
Ġgr Ã¢ce
ĠM itarbeit
ĠAm Ã©rica
orm ente
er on
Ġæ¥ ½
ĠÐ²Ð¾ Ð¾Ð±ÑīÐµ
ĠÂ £Â
Ġch á»ĵng
Ġb ell
ĠB Ã¡n
ci ales
Ġngo áº¡i
ĠÐ»ÑİÐ± Ð¾Ð¹
å± ķ
Ġãĥĸãĥ© ãĥ³ãĥī
Ġl ett
Ġfinan zi
ĠPl at
Ġ+ +
G F
Ġph Ã¡
Ġcomple ted
ĠAng ebot
Ġ3 000
ï¼ Ĺ
ï¼ ī
æº ĸ
g ia
ag og
ĠPr ima
ten zione
ia Ã§Ã£o
ĠÑĤ ÐµÑĩÐµÐ½Ð¸Ðµ
Ġb iz
ĠMit gl
ĠE th
AN O
ĠÐºÐ¾ÑĤÐ¾ÑĢ Ð¾Ðµ
Ġsp read
ĠPart ner
li Å¼
ch ia
ĠçĶ ·
Ġg ig
Ġfin ally
Ġer g
Ġch Ãº
ĠF our
Ã³ st
Ðº Ð°Ð¼
Ġre cl
Ġ3 20
Ġ10 4
Ð¸Ðº Ñģ
r ied
n s
Ġç¾ İ
Ã ¾
che z
ĠåĲįçĦ¡ãģĹ ãģķãĤĵ
ĠÐ¾Ð´ Ð½Ð¾Ð³Ð¾
Ġpolit ique
Ð¸ÑĨ Ðµ
ic ar
Ġï ¿
Ġsec ure
Ġacc ommod
ĠComm unity
å¤ «
Ġav ent
ĠÐŀÐ± Ñī
Ġl iste
ĠB uy
ç´ ¢
ãĤ¶ ãĤ¤ãĥ³
ÅĽ nia
w an
Ġsp ieg
Ġp ud
Ġaf irm
ĠÑįÐ½ ÐµÑĢÐ³
Ġempl oi
ĠPr ost
æĽ ¿
ĠÐ± Ð¾
Ġtr end
ĠPs ych
ĠFra u
ãĥ ¨
Ġm im
Ġb Ã©nÃ©
ĠR ac
ĠGu ard
rat Ã©g
p ir
Ġzro bi
ĠN etz
ãģ®æ ī
ĠÐĺ ÑģÑĤ
ĠÐ°Ð½ ÑĤ
Ġs Ã¡bado
Ġcom men
iss er
Ġste el
Ġg Ã¼nst
ĠM uch
ÑıÑģ Ð½
Ð¾Ñĩ Ð½Ð¸Ðº
Ã§ u
ĠÑģÑĤ Ð°Ð½Ð¾Ð²
ĠZ d
ĠLe y
ĠÑħÐ¾ÑĤ Ñı
Ġentre ga
Ð¸Ð± Ð¾Ð»ÐµÐµ
ĠÑĢÐµÐ³ Ð¸ÑģÑĤÑĢÐ°ÑĨÐ¸Ð¸
Ġfl at
Ġbl u
ĠE qu
ĠCom b
Ð¾ Ñĥ
Ġper ce
ĠE quip
æĽ ²
j ack
Ġmethod s
Ġm Ã´n
Ġim pres
ĠApr Ã¨s
ĠÑĤÐµÑĢÑĢÐ¸ÑĤ Ð¾ÑĢÐ¸Ð¸
Ġto war
Ġout ra
Ġsi endo
Ġr ar
Ġprim ary
Ġbes onders
ĠÐ¶Ð¸Ð² Ð¾ÑĤ
Ġved ere
Ġden en
æ¬ ²
ĠÐ¾ Ð¶
Ġm Ã¹a
Ð± Ð¸Ð½
ere i
Ġpo ziom
Ġfol g
Ã³n ico
iss ional
Ġte ams
Ġret ro
Ġmet od
Ġaff ect
ãģĪ ãģŁ
Ġopin iÃ³n
Ġjov en
ĠJug end
Ġtrav aux
Ġhelp ing
Ġfil me
ĠC ross
T o
ĠÐ¿ÑĢÐ¸ Ð³
Ġs orte
Ġlan Ã§
ĠSE O
ĠEduc ation
ĠAc ad
åĨ į
ÐµÑģÑĤ ÑĮ
ĠÐ² ÑħÐ¾Ð´
und heit
ic ing
ĠÑĦÐ¸Ð»ÑĮ Ð¼
Ġstra ight
Ġacqu is
ĠL ic
ĠD re
at illas
Ġaten ciÃ³n
le ist
Ġcre o
ĠL ike
ĠC and
e v
cz ki
Ġzak res
Ġt etas
Ġpropor cion
Ġnas c
Ġg olf
Ġan teri
Ġal bo
ĠInst all
ĠAl b
ĠãģĿ ãĤĵãģª
zy n
ĠT ake
ãģķãģĽ ãģ¦
ĠM om
Ã¤t ze
ri Ã§Ã£o
Ġscar pe
Ġpon ad
Ġow ner
ĠComm ission
çĽ¸ è«ĩ
æĹ ı
ipp ed
ens iÃ³n
at oria
ĠÑĢÐ°Ñģ Ð¿ÑĢ
Ġv ivi
Ġej erc
ĠL iÃªn
ĠH ai
ra um
Ġç ¶
Ġent onces
Ġæµ ·
ĠÑĢÐµÐ±ÐµÐ½ ÐºÐ°
Ġcompar ed
Ã©t ico
uc ion
ew s
er k
ec ido
Ġv áº»
iss ima
Ġwiel u
Ġsuper fic
Ġob ec
Ġtas k
ĠL en
s ites
m u
ene z
Ġste ps
ĠP elle
Ġ iz
ate ver
Ġoper a
Ġnue vas
Ġallow ed
ĠRes ponder
ĠChar les
k es
Ġcent ury
Ġave va
Ġobie tt
Ġf ill
ag ner
Ġvirt ual
Ġseule ment
Ġpart i
Ġcr isis
Ġbie ten
æĢĿ ãģĦ
ÑģÑĤÐ² Ñĥ
ĠÃ©t abl
Ġt áº§ng
ON E
Ġg anh
æĸ¹ ãģĮ
åīį ãģ«
Ð¼ Ð¾
ĠÐłÐ¾ÑģÑģÐ¸Ð¹ ÑģÐºÐ¾Ð¹
ĠÐ½ÐµÐ¿ ÑĢ
Ġgre ater
Ġcomple ment
Ġac cep
or ama
c ja
b ia
ĠÐ» Ð¸ÑģÑĤ
Ġval ues
Ġpodr ÃŃa
Ġl ac
ĠH in
ãģı ãĤĬ
ÅĤ ow
or as
atic amente
Ġp unt
Ġl ou
Ġal tra
ĠC ad
m eld
Ġhelp ed
Ġdivers i
Ã© ct
³ ç´°
x e
Ġperson aliz
ĠS ong
etz ung
Ġkann st
ï¼ Ł
Ðļ ÐĲ
em bl
ãģĭ ãģĳ
ÐµÐ´ Ð¶
k in
Ġjak i
Ġakt u
Ġ7 20
qu ir
ĠÐ¿ÐµÑĢ ÑģÐ¾Ð½
Ġmilh Ãµes
Ġf iz
ĠBlu etooth
os ed
ĠâĢľ .
Ġref lect
H N
ĠÐĶ Ð¾Ð¼
ĠR af
Ġæ Ł
ĠÐ¿Ð¾Ð´ ÑĤ
ĠÄĳ Ã´ng
Ġper t
Ġkhá»ı i
ĠS ara
ĠF unkt
ĠÑħÐ°ÑĢÐ°ÐºÑĤÐµÑĢ Ð¸ÑģÑĤ
Ġng uy
ãģł ãģĭãĤī
ÑĢ Ð¸
ĠÑĦ Ð°Ð¹
ĠÑģÑĢÐ°Ð² Ð½
ĠÐ²Ð¼ÐµÑģÑĤ Ðµ
Ġestab lished
ĠKon takt
og l
Ġpubbl ico
Ġach ieve
c 3
Ġgrand i
é¡ĺ ãģĦ
st Ã¼ck
ĠwÅĤa ÅĽnie
Ġconn ection
Ġ10 6
ĠÃĶ ng
Ġutiliz ar
Ġp Ã³
Ġim pression
Ġcum pl
ar me
Ġtr á»Ŀi
Ġde port
Ġserv ed
ĠJ Ã¡
ãģ¾ ãģ¾
ugh ter
ģ m
Ġmet ros
Ġdifer ente
Ġcomp ens
ĠTr Æ°á»Ŀng
ĠÐ¸ÑģÐ¿ Ð¾Ð»Ð½
Ġs che
Ġconf lic
Ġt all
Ð¸ ÑĨÐ¸Ð¸
Ġãĥĸãĥ© ãĥĥãĤ¯
ĠÐ¿ ÑĥÐ½ÐºÑĤ
Ġutil iser
Ġt Ã´
ĠBl anc
ĠÑĥÑģÐ»ÑĥÐ³ Ð¸
ĠÐ¼Ð¸Ð½ Ð¸Ð¼
Ġh áºŃu
Ġcol d
ĠClass ic
Ðł Ñ
ct ional
Ġre asons
ĠdÃ©velopp ement
Ġ10 8
uer te
ĠÐ² ÐµÑĩ
Ġur zÄħd
Ġreal idad
ĠS olo
ĠG MT
Ã£ y
ĠÑĥÑģÐ»Ð¾Ð² Ð¸ÑıÑħ
Ġenf ant
Ġdis par
ĠSec urity
ĠPav ilion
inter est
ĠÐ¾ÑĤ Ðº
Ġtip os
Ġrel ative
ĠDur ing
ÑĪ Ð¸Ñħ
uv re
br ig
Ġturn ed
Ġ^ ^
ĠCh Ãºng
ĠCh ap
ãģ®å ŃĲ
room_grid _
ĠÐ¼Ð¸ÑĢ Ð°
Ġperson ale
Ġm are
ĠK en
ãģĻ ãģİ
ne hmer
ĠãģŁ ãģł
ĠItal y
ĠCoun cil
ĠCh ile
ill os
Ġrappres ent
Ġdar auf
cc io
ĠãĤ¢ ãĤ¤
Ġrequ is
Ġn im
ori i
ĠÅĽ wiad
Ġo gr
Ġnoss os
Ġl he
ab ase
ĠÐķÐ² ÑĢÐ¾Ð¿
Ġcomm and
Ġch ap
Ġa ime
ãĥ³ãĤŃ ãĥ³ãĤ°
h y
Ġtien es
Ġok re
Ġh Ã²a
Ġest ad
iá» ħ
ĠÐĺ Ð²
ĠÃ¡ reas
ĠL ub
é£ ²
æĢ ¥
Ġsc ore
ĠTh á»©
ĠA uss
ĠÐ£ÐºÑĢÐ° Ð¸Ð½Ñĭ
Ġre pe
Ġd ream
Ġbenef ici
Ġtrat ta
Ġou vert
Ġ äººæ°Ĺ
Ġsay ing
Ġesp acio
è¦ ª
sch luss
ĠÐ´Ð°Ð½ Ð½ÑĭÑħ
ĠUl tra
ĠÃ© ner
ãĤĴ ãģĻãĤĭ
ãģ« ãģĤãĤĭ
Ð¾Ð»ÑĮ Ð½Ð¾
Ð¸Ð³ Ð¸Ð½
Q u
ĠÑģÑĤ ÑĥÐ´
Ġsp esso
ĠSt ock
ĠChamp ions
ãģ®å ī
Ġprogram ma
Ġd ato
ĠSt Ã¼ck
iss ent
F T
Ġãģ© ãģĨ
ĠÐľ Ð°ÑĤ
ĠÐ½Ð¾Ð¼ ÐµÑĢ
Ġsar anno
Ġpe ace
Ġadj ust
ĠEr n
fer n
Ġtuy á»ĩt
Ġma qu
ãĤī ãģĹãģĦ
owiÄħ z
mi ar
I s
Ġè Ĥ
ĠÐ¸Ð½ ÑģÑĤÑĢÑĥÐ¼ÐµÐ½ÑĤ
Ġval ut
Ġpre zent
Ġconst ant
ãĥĪ ãĥ©
us i
ĠÐµ Ñĳ
ĠÄĳÃ³ ng
Ġre gr
Ġlarg er
Ġfl ash
Ġé ĥ
ĠÐ¾Ð¿ ÑĤ
ĠÃºn ica
Ġe uch
ĠÃ©p oca
Ġvá» £
Ġo gg
äºº ãģ®
Ð¾Ð» Ð½Ñı
Ã©d ito
ER A
ĠÑĥÐ² Ð¸Ð´
Ġcateg oria
ĠD ist
ĠÑģÑĤÐ¾ Ð¸Ð¼Ð¾ÑģÑĤÑĮ
Ġe b
ĠÑĤÐµÐ»ÐµÑĦ Ð¾Ð½
ĠÐ´Ð² Ð¸Ð³
Ġr ichtig
ĠA li
s b
_ M
Ġing les
æĬ Ģ
ÑĭÐ² Ð°ÐµÐ¼
Ġan aliz
Ġad el
te o
Ġé£ Ł
ĠÐºÐ¾ÑĢ Ð¿
Ġco isa
ãĥĪ ãĥ¬
us ter
lich es
Ġkho áº£n
ĠPort al
Ġ: .
Ġç ģ
Ġæ¥ Ń
Ġsu f
Ġpob l
Ã¢ t
ĠÐ¦ ÐµÐ½Ð°
Ġsol ar
ĠF ut
åħ¥ ãĤĮ
ÑģÐº Ð¸
Ġtemper atura
Ġmol ti
Ġcoun ter
Ġ19 80
Â ©
Ġzd row
åĢ Ł
ĠÑģ Ð±
ĠR iv
ĠP ak
å¸ ¯
Å ļ
ÃŃ amos
ueb lo
Ġç ©
Ġjus te
Ġcop y
u ve
n as
Ġn ero
Ġdet to
Ġa ire
ĠWe i
ĠSant os
ĠÐĺ ÑģÐ¿
ãĥ¼ãĤ³ ãĥĶãĥ¼
ÌĢ ng
Ġth iáº¿u
Ġfun kc
ĠRestaur ant
ĠProgram m
Ġkh Ã³a
j an
en iu
R es
ĠÃ °
Ġint Ã©gr
Ġe Bay
ĠÄĲ á»ĭ
Ġmainten ance
Ġint ent
Ġam igo
Ġn ord
ĠWest ern
ĠR C
ĠMod a
Ġmar que
z ir
ch Ã¨
ĠÃ© ch
Ġid Ã©
st wa
noÅĽci Äħ
Ġpropr ia
Ġbre ve
ĠPer form
ot es
Ġvo iture
Ġsá»Ń a
Ġsus tain
Ġpub l
ĠWeb cam
ãģ® ãģĤãĤĭ
zie h
e in
L ist
Ijo i
ub les
ier es
Ġdesenvolv imento
ĠPar te
ĠMar io
ig an
id em
Ġtra vers
Ġre cht
ĠMerc edes
sch lieÃŁ
Ð¸Ð½ Ð¸Ð¼
Ġm ÃŃ
Ġl uc
Ġas c
ĠÐ ¹
Ġre form
Ġmin or
Åº dz
ĠÐ´ÐµÐ» Ð¾
Ġdr am
Ð» Ð¾Ðº
Ġprim ero
Ġgro ÃŁen
ĠÑı ÑĢ
Ġro ot
Ġche f
æ ¢
Ð°ÑĢ Ð´
k or
ĠÐ³Ð¾ÑĢÐ¾Ð´ Ðµ
Ġtrans porte
Ġth reat
Ġsa is
Ġlo an
ĠWy ÅĽwiet
ÑĥÐ½ Ð´
ĠÄĳá»© ng
Ġaccomp agn
ir ing
Ġwel come
Ġsex y
Ġpoz osta
ĠâĢĻ .
Ġm undial
Ġant icip
ĠW olf
ĠÐ² Ð»Ð°Ð´
Ġth áº¯ng
Ġst ates
Ġro w
Ġc ia
Ġu ff
Ġstand ards
Ġe ks
Ġcommer ce
ĠSel bst
èĬ ±
Ð°ÑĤ Ñĥ
v et
ie de
Ġmodel os
ĠktÃ³re j
ĠCon stru
Ġs ources
Ġnh iá»ĩt
ĠV id
ĠO x
ĠJ ord
ĠColomb ia
ĠÐ¶ Ð´
par k
ens Ã£o
P G
ĠÐ¡ ÐµÑĢÐ³
ĠMig uel
ĠMan uel
Ġw ÅĤos
is co
Ġg hi
ĠPh Ã²ng
ro y
Ġne arly
Ġdere cho
ĠTer r
Ġh all
ĠN Y
Ã¡t icos
zen i
pe kt
Ġsp iel
Ġbro ad
ĠD zie
ĠÐ¸ÑĤ Ð¾Ð³
Ġthe me
w ide
ne z
ie ux
TM L
Ġopen ing
Ġrad i
Ġj Äħ
ĠP ut
Ġç ļ
ĠÐ¤ÐµÐ´ÐµÑĢ Ð°ÑĨÐ¸Ð¸
ĠÃ¶ ff
ĠNgo Ãłi
Ġ15 00
Ð¸ÑĤ ÑĢ
Ã¤ ren
y ba
Ġdist in
ĠW alk
ĠSeg ur
ãĤĴ ãģĶ
hn t
Ġï¼ ĵ
Ġv ant
ĠÑĢÐµÐº Ð¾Ð¼ÐµÐ½Ð´
f ass
ĠH Ãłn
ãĤĬ ãģ«
Ġh Ã´
Ġdav on
ĠM I
ĠAl tern
Ġofert as
Ġn á»ģn
Ġgra f
ĠC anc
è²· ãģĦ
ant wort
== ==
ĠTh iÃªn
ita Ã§Ã£o
Ġeigen en
ĠcÃ´t Ã©
ÅĤy w
es ted
Ġprzed staw
ª å¼ı
und i
int es
Ġvac ances
Ġl Ã¤sst
ĠIS O
ãĤĴ ãģĹãģ¦
ien cy
b ody
ĠÐ½Ð°ÑĪ ÐµÐ¹
Ġne ut
ĠT ri
ĠJ ava
Ġ23 0
ãģĮ ãģĤãĤĬ
ĠDi am
ãģ§ãģį ãģªãģĦ
{ \"
um i
iss ione
Ġé Ł
Ġsistem as
AS T
ĠseÃ± al
Ġarr ang
ĠIN TER
ĠHa upt
i ore
Ġå½ ¼
Ġin aug
Ġdis put
ĠV ista
ĠCop yright
ĠÐ¿Ð¾Ð» ÐµÐ·
Ġin ne
Ġhist Ã³r
Ġgio co
Ġc ient
ĠAccord ing
ent ic
Ġso ut
Ġpower ful
Ġm ong
Ġentrepr ises
ĠT Ã©lÃ©
ĠGeschÃ¤ fts
IS S
ĠÑĢ Ð¸Ñģ
ĠÑĢ Ð°ÑģÐº
ĠÐļ Ð¸ÐµÐ²
ĠW il
ĠEng land
ĠDo ch
é¦ ¬
ÐµÑĨ ÐµÐ¿
in form
Ġs ter
Ġes qu
ĠMar ÃŃa
ĠGerm any
è¶Ĭ ãģĹ
Ġt ale
ĠÑĢÐ°Ð±Ð¾ÑĤ Ðµ
Ġk rÃ³
Ġj ÄĻzy
Ġfam iglia
ĠT ay
abil idade
UL T
Ġreport s
ĠD ic
alis ation
ĠÐ¸Ð· Ð´ÐµÐ»
Ġro ut
ĠS onn
ĠPub blic
ĠAs ia
ãģ®æ Ħ
Ġur b
ĠE lement
ĠC Ã³d
ĠB ib
Ġãģ ¿
ĠÐĺ ÑĤ
Ġult ima
ĠCom ent
Ĺ ¤
Ġc á»Ļng
Ġadv antage
us Ã¤tz
ĠAn a
Ġç§ģ ãģ¯
Ġse is
Ġpens ar
Ġof ic
ĠÑģÑĤ ÑĢÐ°Ñħ
Ġs mooth
Ġrequ ires
Ġmem ory
Ġheav y
Ġh us
ĠLe e
æ¥½ ãģĹ
Ĭ ±
Ġæ Ľ
ĠÐ¼Ð¸Ð» Ð»Ð¸
Ġinfl uen
Ġev idence
Ġar en
ĠD est
ĠBu ild
ej as
ĠÐ±Ð» Ð¾Ðº
Ġok res
ĠAustr al
te te
ĠÐĴ Ð¾Ð»
ĠÐ±Ñĭ ÑģÑĤÑĢ
ĠÐ²Ð¾Ð¿ÑĢÐ¾Ñģ Ñĭ
Ġpro l
Ġpos ta
Ġminut i
Ġcor ps
ãĥĭ ãĥĥãĤ¯
ãĤ¢ ãĥĹãĥª
Ġkne w
Ġexcel ente
ĠTot al
Ð²ÐµÑĢ Ð´
ĠÐ¿ÑĢÐ¸Ñħ Ð¾Ð´
Ġco isas
Ġactiv idad
ĠCan ad
ert as
B l
ĠÐ¾Ð±ÑĢÐ°Ð· Ð¾Ð²Ð°Ð½Ð¸Ñı
Ġ} }
Ġarr ive
ĠWo j
Ð¸ÑĩÐµÑģÐº Ð¸Ð¼
k iego
ĠÑĤÐ¾Ð²Ð°ÑĢ Ð°
ĠvÃł i
Ġpl anta
¿Ģ å®ī
ar ies
ĠÑĤ Ð¾Ð»
ĠÐ°Ð² Ð³ÑĥÑģÑĤ
Ġhom em
ĠT T
ĠB ols
è» ½
ER E
Ġmin istro
Ġm unicipal
Ġazi enda
ĠHer z
æĺ ł
ãģ® ãĤĪãģĨãģª
u ka
ĠÐ³Ð°ÑĢ Ð°Ð½ÑĤ
Ġw ine
ĠB C
Ġ199 1
å´ İ
Ġsie bie
Ġpont os
ĠpelÃŃcul a
Ġsp ons
Ġclass ic
ĠS eiten
ĠM ix
ÑģÑĤÐ²ÐµÐ½ Ð½Ð¾
ran e
ll en
ĠÐ¿Ð¾Ð´ ÑĢÐ¾Ð±
ĠS ic
ãģĮ ãģĤ
j ar
abil idad
ĠÐ· ÑĢ
Ġsz ko
Ġofre ce
Ġaus ge
ĠL eit
u h
Ġb od
ĠWeit er
ĠG PS
°¡ åįĺ
g ere
Ġric on
Ġph á»ĳi
Ġmer ci
ĠNot re
è° ·
z ego
å± Ĭ
ãĤī ãĤĮãģ¦
Ã ŀ
ĠÐ¸Ð½ ÑĤ
Ð½ Ð¾Ð³
in st
ĠÑĦ ÐµÐ²ÑĢ
ĠÐ½Ð°ÑĪ ÐµÐ¼
Ġtrack ing
Ġd ado
ĠB ach
L INE
ĠÑĤ ÐµÑģÑĤ
Ġprobl Ã¨me
Ġgr uppo
Ġg od
ĠMod ern
ĠInd ian
ow aniu
Ġæ ¸
ĠÑģ Ð¾Ð¿
Ġorig ine
Ġer k
ĠRe v
U rl
ĠÐŁ Ð°ÑĢ
Ġch áº³ng
ant ic
Ġmil itar
Ġd áº§u
Ġcont est
ĠZa hl
ãģĵ ãģ¡ãĤī
ch ine
ĠÑıÐ²Ð»Ñı ÑİÑĤÑģÑı
ĠÑįÑĤ Ñĥ
Ġth Ã´i
Ġsein em
Ġsegu ito
Ġgi áº£n
ĠSil ver
å¡ Ĺ
Ð°Ð½ Ð½ÑĭÑħ
ĠÐº Ð¾ÑĤ
Ġtechn ical
Ġac omp
Ġprodu Ã§Ã£o
Ġfin ans
ĠS I
ĠG em
æİ ¢
iz ados
am ing
2 50
ĠÑįÑĤ Ð¸Ð¼
Ġm niej
ĠIhr en
æĹ¥ ãģ®
Ð· Ñı
Ġw ire
Ġro of
Ġc ine
ä»ĺ ãģĳ
m at
er ÃŃa
Ġåı £
ĠÐ² ÑģÑı
Ġprof ile
Ġout door
Ġentr ar
ĠPol ski
éł ĥ
f ond
ĠÐ¿ÑĢÐ¾Ð³ÑĢÐ°Ð¼ Ð¼Ñĭ
ĠnÃ©c essa
ĠVer fÃ¼g
ĠV iv
ĠMa ur
ãģ®å ĩº
aj as
D C
ĠÄĳ Ã¡p
ĠP Ã¡g
ĠAn ti
èĪ ¬
ÑĪ Ð¸Ð¹
ec ta
Ġw ants
Ġser ont
Ġclean ing
ÅĤ n
c ement
ĠÑĩ Ð¸ÑĤ
Ġric ord
Ġqu iere
Ġm igr
Ġhol iday
ĠCon oc
ç· ¨
ãģĦ ãĤį
Å¼ a
ock et
CI 6
ĠÐ¾Ð´ Ð½Ð¾
Ġpo or
Ġhab il
Ġass ign
ĠF O
åį Ĺ
ycz ny
po ol
k w
ĠÐ´ÐµÐºÐ°Ð± ÑĢÑı
Ġrelev ant
Ġnot es
Ġacc ident
æľ Ŀ
uc ks
ac ts
Ġapp r
ĠN un
le i
av or
Ġpo ja
Ġbez pie
ï¼ Ļ
ĠÐ¾ Ð¿Ð»Ð°ÑĤ
Ġgi ud
ĠT age
7 00
ĠÐ¿ÐµÑĢÐ² ÑĭÐ¹
ĠrÃ©g ion
om pl
h il
b io
ãĤĵ ãģ©
ãĤĬ ãģŁãģĦ
Ð¾ÑģÑĤ ÑĢÐ°Ð½
Ġr an
ĠR eb
ĠNet work
å¤ ª
Ð¾Ð² Ð¾
ut lich
ram ient
ina Ã§Ã£o
S p
Ġãĥ ļ
ĠÐ¼ÐµÑĢ Ð¾Ð¿ÑĢÐ¸ÑıÑĤ
Ġqu áºŃn
Ð¾Ñĩ Ð½ÑĭÐ¹
og er
ĠÐ²Ñĭ ÑģÑĤÑĥÐ¿
Ġl icz
Ġg ord
Ġespec ÃŃf
Ġb la
ĠL ar
ãĥ¼ãĥĸ ãĥ«
ÐµÐ½ Ð½ÑĥÑİ
ro te
ĠÑģÐµÑĢ Ð´
ĠÅ¼y cia
Ġobie kt
Ġexpl ore
Ġbar celona
z ÅĤ
ĠÐ½ Ð¾Ñģ
Ġdos ta
Ġsh irt
ĠW it
ĠTechn ology
ĠDes n
æĻĤ ãģ«
on ato
Ġsa ison
ãĥ³ãĤ¿ ãĥ¼
ĠId ent
Ð»Ñı ÐµÐ¼
ujÄħ ce
oc ra
ĠÐ¿ Ð°
ĠÐº Ð¾Ð´
ĠÐ´ÑĢÑĥÐ³ Ð¾Ð¹
Ġ":" ","
ujÄħ cy
ĠÐł Âµ
ĠÐ´ Ð»
Ġtemper ature
ĠUn s
ĠAn other
ÑģÑı ÑĤ
n icy
ĠB om
Ġ î
re c
ia ux
Ġa head
ĠChin ese
od os
Ġsu áº¥t
çĻ» éĮ²
ob o
i ans
ĠÑģÐ² Ð¾Ðµ
ĠÐ¿ÑĢÐ¸Ð» Ð¾Ð¶
ĠÐ¿Ð¾Ð² ÐµÑĢÑħ
ĠÐ½Ð¾Ð² ÑĭÐ¹
Ġv ive
åį °
ÃŃ g
Ġs ytu
Ġmet a
Ġbeaut y
ĠSil va
ĠAng el
Ã¤ng e
d own
ĠÑĦÐ¾ÑĤ Ð¾Ð³ÑĢÐ°ÑĦ
Ġman age
ĠP ur
j ach
f urt
ĠÐļÐ¾Ð¼ Ð¿
Ġstud i
Ġespa Ã§o
Ġagr icult
ãģ§ãģĹãĤĩãģĨ ãģĭ
w ers
pr end
ĠÑģ ÑĥÐ¿
Ġv ital
ĠC T
ĠÐ¿ÑĢ Ð¸Ð·
ĠÐ¾ÑĤÐ½Ð¾ Ñģ
Ġform as
ĠU V
Ġ"] =>
Ġz iem
ĠEsp ecial
Ðº Ð¸Ð¼
ix el
_ index
ĠÑıÐ½Ð²Ð°ÑĢ Ñı
Ġt wor
Ġh izo
Ġdok ument
ĠP ia
ĠApp lic
ãĥŃ ãĥ³
av am
Ġæ ¨
ĠÐ¾ÑĤÑģ ÑĥÑĤÑģÑĤÐ²
ĠÃ© m
Ġw aÅ¼
èĢĥ ãģĪãģ¦
Ð¾Ð²Ð°Ð½ Ð¸Ð¹
it el
ĠÑģÑĢÐµÐ´ Ð¸
Ġfe cha
ĠSom mer
ĠHum an
ĠGr Ã¶ÃŁe
Ġ08 670
ãĤĬ ãģ®
at Ã³rio
ar la
Ġneg Ã³
Ġgr oss
ĠSa Ãºde
ĠQu áºŃn
Ð» ÐµÑĢ
z ÄĻd
Ġcant idad
ĠM C
hip s
Ġs now
Ġmá» ģm
iá»ģ m
ĠÐ´ÐµÐ² ÑĥÑĪ
Ġt iss
Ġsh ot
Ġob st
Ġgener ally
Ġd up
ĠSe arch
ĠH ombres
ĠåĨ ħ
Ġdav vero
Ġconst itu
Ġcons eg
ĠIn fo
ãĤī ãģ«
Ġï¿½ï¿½ï¿½ï¿½ï¿½ ï¿½
Ġz ost
Ġsp ir
Ġmayor ÃŃa
Ġdere chos
Ġas egur
ĠN icht
e ver
al itÃ©
Ġtr ial
Ġm áº¡i
ĠæŃ £
ĠÐ¼Ñĥ Ð½Ð¸ÑĨÐ¸Ð¿
Ġok az
Ġequip e
ĠEst o
att ro
Ġwszystk im
Ġqu eda
Ġcover ed
ĠH R
ĠCh Æ°Æ¡ng
Ð¾Ð² ÐµÑĢ
ik t
Ġper g
al ed
Ġz god
Ġreal ity
Ġjour ney
Ġc Ã¡n
Ġadmin istra
ĠÐŁ Ðŀ
Ġg ospodar
Ġfeb braio
ãĤģ ãģŁ
Ð¸ÑĤÐµÐ»ÑĮ Ð½ÑĭÐµ
Ġpal av
Ġex ig
çĦ ¼
ĠÐ· Ð½Ð°ÐºÐ¾Ð¼
ĠT Ã¼r
Ðĵ Ðŀ
Ð¸Ð± Ð¸ÑĢ
Ã± ana
Ġstrutt ura
Ġret rou
Ġkle ine
Ġbill ion
ĠM ons
ĠB Ã¼r
Ð¾ÑĢ Ð´
vi amente
Ġpersonn el
og li
Ġsett ore
Ð¾Ñĩ Ð½ÑĭÐµ
ĠÐ½Ð°ÑħÐ¾Ð´ Ð¸ÑĤÑģÑı
ĠTele fon
ĠCult ura
éģķ ãģĦ
Ð¸Ð² Ð°Ð½Ð¸Ðµ
Z SI
Ġ. /
çµĮ é¨ĵ
ãĤĦãģĻ ãģĦ
ÑĢ ÐµÐ½ÑĤ
al ten
ĠÐ±ÑĥÐ´ ÑĥÑī
Ġtr im
Ġn erv
Ġimport ance
Ġem pez
ĠL or
ĠTrans port
è² ł
Ð¾Ð»Ð¾Ð³ Ð¸Ð¸
g li
d io
ĠÑĤ Ð¾Ð¿
ĠÐºÐ°Ðº Ð¸Ðµ
ĠÐ² ÐµÑĤ
ĠÃ©t at
Ġra b
ĠGio van
ÑĪ ÑĤ
Ġr as
Ġfic ar
ĠSch uhe
ran o
Ġtra i
Ġnou v
Ġdeter mine
ĠC AN
ou x
B y
åĽ ²
Ã® t
IN I
ĠãĥĲ ãĥĥãĤ°
Ġczas ie
ĠVal ley
Þ§ Þ
ĠÐ¿Ð¾Ð± ÐµÐ´
Ġn ucle
Ġdise Ã±o
ĠQu esta
ĠInstit uto
Ġ10 9
Ù Ĭ
Ð¾Ñĩ ÐºÐ°
ic les
I i
C on
Ġãģ »
ĠÐ¿Ð¾Ñĩ ÑĤÐ¸
Ġse ul
Ġd ale
Ġconf ront
Ġbag no
ĠLie fer
çµĲ æŀľ
ä¸ĭ ãģķãģĦ
Ġelement os
Ġdot ycz
Ġby ÅĤy
Ãĸ ÃĲ
ĠÐĶ Ð°ÑĤÐ°
Ġw ife
Ġsched ule
Ġn ames
Ġdr iving
Ġb ater
ĠHol z
Ġ$(" #
le icht
Ġest abe
Ġach at
ĠWill iam
ĠTe ch
Ð¾Ð¼ Ð¸Ð½
s iasi
rÃ¡ f
ĠÐ¾ÑĤÐ´ ÑĭÑħ
Ġk w
ĠÄĳ Ãªm
Ġpr onto
ĠS V
ĠH ola
iem y
IT O
ĠÐ± Ð¾Ð½ÑĥÑģ
Ġdivers os
Ġag ree
ĠVer gleich
ĠG P
Ġ; -
ÐµÑĩ Ð°ÑĤ
Ġequ il
Ġdete ct
Ġcu anto
ĠSu pport
ĠCam era
è¡¨ ç¤º
è ¿½
æ² ¢
Ġth erap
Ġfir ma
ĠReg ional
Ġac esso
ĠW H
ell os
Ġvo ice
Ġtá»ĭ ch
Ġj oy
ici ans
ĠãĤ¯ ãĥŃ
Ġinter c
ĠSt yle
éĥ¨ åĪĨ
ĠÐ½Ð¾Ð² ÑĭÐµ
Ġpart es
Ġinter na
ãģĻ ãģĲ
ÐµÐ½ÑĮ ÑĪ
ET A
Ġst essa
Ġprincip ales
Ġorganiz ations
Ġg Ã³p
ĠPl ace
ĠL ord
é ī
h h
ĠÐ² Ð´
ĠSob re
Ä ĺ
ĠÐĶ ÐµÑĤ
Ġinv it
Ġacces o
ĠComput er
Ġæ¬ ¡
Ġå¤ ©
Ġfinish ed
ĠProdu kte
ĠO fic
ãĤ¸ ãĤ§
Ã« l
ĠÐ¡ Ð¼
Ġuns eren
Ġtele f
Ġchalleng es
Ã¤ che
j am
Ġvá» įng
Ġtit re
Ġsoll ten
Ġgi Ã¡c
Ġaud ience
Ġarg ument
ĠPost ado
ãĥ³ãĥ Ħ
Ð· Ð¾ÑĢ
Ã¤ te
Ġprogram as
ĠZap atos
å¤ ľ
Ð¾Ð² Ð°Ð»
æ¸ ©
ãģ§ ãģĬ
EC T
ĠÐ¸Ð· Ð´
ĠBer uf
ÃĦ Ãª
c ular
Ġnouv elles
Ġl á»Ļ
èĪ Ĺ
a ient
Ġz war
Ġpisc ina
ĠSc ott
ĠL ow
ĠC Ã¡ch
ĠA part
ÑĮ ÐµÑĢ
Ñģ ÐµÐ¼
ber ry
an es
ĠãģĵãĤĮ ãģ¯
ĠDevelop ment
ãĤ¹ãĥĨ ãĥł
ãģ© ãĤĤ
k ich
ism us
ĠÐŀÑģ Ð½Ð¾Ð²
ĠmÃª s
vere iro
M D
Ġsl ight
ĠI o
ä¼ģ æ¥Ń
ĠÐĿ Ñĥ
Ġp c
ĠV Ãł
ograf ia
el os
ĠÐ±Ð¾Ð»ÑĮÑĪ Ð¾Ð¹
Ġmil ioni
ĠPre vious
ĠArt icle
Ġ; &
_ S
ĠÐ¸Ð· Ð³Ð¾ÑĤÐ¾Ð²
Ġcond iciones
åŁ İ
åı£ ãĤ³ãĥŁ
âĶģ âĶģ
ari amente
ac in
IL E
ĠL Ãª
Ġ ä¿Ŀ
Ġd are
Ġcel ular
ĠAl m
ĠA rab
Ð ®
ĠÑĪÐ¸ÑĢ Ð¾Ðº
ĠnÃ³ ng
Ġele ments
å½ĵ ãģ«
ujÄħ cych
ied ades
M B
Ġworks hop
Ġten ho
Ġcab o
Ġ) (
æĶ ¹
pres as
Ġpres ident
ĠM D
ĠCol lection
s d
Ġmes ma
Ġinf rastru
ĠC itas
ie ur
Ġser ious
Ġpo zyc
Ġlu ck
Ġb omb
u u
ĠÑĥÐ´ Ð°Ð»
ĠÐ½Ð¾ ÑıÐ±ÑĢÑı
ĠL inks
u ais
Ġproc ur
Ġmoment os
Ġlo i
ĠD IS
Ð¸Ñģ Ð»
ĠÐ·Ð°Ð½ ÑıÑĤ
Ġpass o
Ġfa Ã§on
Ġdesign s
Ð¸Ñı Ð¼Ð¸
ĠÑģÑĤÑĢÐ°Ð½ Ñĭ
ãĥĻ ãĥ«
ĠÐ´ Ð¾Ð±
Ġtechnolog ies
Ġpon er
Ġhelp ful
Ġgar age
Ġex terior
Ġde ma
Ġcondu ct
Ġfil ms
ul i
ic on
ĠÐŀÑĤ Ð²ÐµÑĤ
ĠÐ¿Ð¾Ñĩ ÐµÐ¼Ñĥ
Ġnh Ã³m
Ġfacil it
æ°Ĺ ãģĮ
ãĥĸ ãĥŃãĤ°
Åºdz ier
ĠÑĥ Ð½Ð¸Ð²ÐµÑĢÑģ
Ġquar ter
Ġexperien ces
Ġb reat
ĠGerm an
Ð°Ðº Ð¸
elle ment
ĠÐ´Ð¾Ð¼ Ð°ÑĪ
Ġus a
Ġmov ement
ĠO lymp
ĠG ior
Ġ9 11
Ġ1 er
½ ¢
pp el
I RE
Ġon to
Ġmes ure
ĠcÃ³ d
Ġat te
ĠAut hor
cze ÅĦ
ĠÐ¾ÑĤ Ð²
Ġital iana
Ġcaracter ÃŃsticas
ke a
Ġph arm
Ġan z
ĠPL N
ĠChic ago
ĠÑģÐ¾Ð± ÑĭÑĤ
Ġps ic
Ġl if
Ġconta ins
ĠG Ã¤
f ia
Ġgi áº¥y
b ereich
Ġkon takt
Ġk im
ĠD ann
igkeit en
ĠÐ²Ñĭ ÑĪÐµ
Ġu zy
Ġhund red
ĠBras ile
ĠAr ts
obil ier
ation ale
Ġæ° Ĺ
Ġsur f
G U
ĠãĢį ãĢĮ
ĠgrÃ¶ ÃŁ
Ġam min
ãģĬ ãĤĬãģ¾ãģĻ
Ã£ este
© ĭ
wi ÅĽcie
ĠhÃ£ ng
Ġb á»ķ
ch ter
Ġasse z
wa ÅĤ
pu esto
ar en
Ġå Ł
ĠÐ¸ÑģÐº ÑĥÑģ
Ġfeed back
ĠS OL
ĠKe y
ĠAl f
p ub
ĠÐ¾ ÑĪÐ¸Ð±
Ġest er
Ġ11 6
ÐµÐ½Ð¸Ñı Ð¼Ð¸
f rei
ĠÑĩ ÐµÑĤ
ĠÐŀ Ð½Ð°
ĠR EG
Ð¸Ð² Ð¸Ð´Ñĥ
col es
ŀ į
Ġnombre ux
Ġchocol ate
ĠO L
ĠGu ide
ĠAnd rea
Ġ21 0
Ġ19 89
æ¨ ©
å£ ģ
ont i
Ġterm ine
Ġqu ay
ĠprÃ³ xim
Ġmov ed
ĠVene zuela
ĠK ol
ĠIm per
Ã³n ica
ese hen
ĠÐ¸Ð· ÑĥÑĩ
Ġh ide
Ġdotycz Äħ
ĠD io
Ġut ile
Ġdia bet
Ġconfer ence
Ġannoun ced
ĠT áº¡i
n der
in ted
g raph
ãģ¹ ãģį
ÑĥÑĤÐ± Ð¾Ð»
_ C
ĠÐł Ñĳ
ĠG aler
ĠÑģ ÑĥÑĤ
Ġper haps
Ġform ato
ĠRe port
á» Ĩ
eg gi
Ġwyk orzyst
Ġvia ggio
Ġtr ud
Ġsp er
Ġsh ip
Ġm ine
Ġb oy
ĠEx ecut
Ð² Ð¸
ocia Ã§Ã£o
com ing
WW W
Ġsoc iedad
Ġrestaur ants
æľ į
åı Ĭ
Ã© st
IN T
Ġt ree
Ġrepr Ã©sent
Ġadv anced
ĠGesch ichte
P ress
Ġteach ing
Ġproper ties
Ð»Ð¸ Ð¹
Ġcours es
Ġassist ance
ĠR T
ĠÑħ Ð¾Ð»Ð¾Ð´
ĠÐ¾ÐºÑĤ ÑıÐ±ÑĢÑı
Ġth umb
ĠS co
ĠRe fer
ĠÐºÐ¾Ð¼Ð¿Ð» ÐµÐºÑĤ
Ġthu áºŃn
Ġqu ais
fer a
er st
Ġth r
Ġt Ã©r
Ġespecial mente
czy Äĩ
ĠL ot
ÐĿ ÐĲ
M AN
Ġz ain
Ġhon or
Ġh ast
Ġe ux
Ġpow ied
Ġlook ed
åİ »
ĠÐ¸Ð³ÑĢ Ð°ÑĤÑĮ
ĠÐ°ÑĢ Ñħ
Ġgr ade
Ġd ad
Ġc d
Ġav v
ĠFa ir
ĠAd olesc
Ġop ini
Ġeuro pÃ©
Ġdom est
Ġc Æ°á»Ŀi
ĠÑħ ÑĢÐ°Ð½
Ġnar r
Ġcrian Ã§as
ĠT urn
ĠS AN
Ì£ t
ĠÐ¼ ÐµÐ»
Ġre place
ĠC F
if ik
ĠÑĨÐµÐ½ Ðµ
ĠÐ¾ Ñħ
ĠÐ· Ð°Ð»
Ġn bsp
ĠWh ere
ĠR us
ĠR est
ot r
og os
Ġcult ur
ĠH S
Â £
ĠÐ»Ð¸ÑĨ Ð°
Ġpol y
Ġcrit ical
ĠT ipp
ãĥ¼ãĥ« ãĥī
Ñī Ð¸Ðº
Ġph áº£n
ĠD id
ãģ§ ãģĤ
y ku
Ġcont ar
ug a
blic k
ĠÐ¾Ð± Ð»Ð°Ð´
Ġw od
ĠÐ²Ð¾Ð· Ð²
Ġestab lish
ĠPrem ier
ĠAr te
por to
ch ain
ĠÐ¾Ð³ÑĢ Ð¾Ð¼
Ġser Ã£o
Ġme x
ĠN orte
h le
ĠÐ½ Ð¸Ð¼
Ġr il
ĠB amb
ar ten
ĠÑĤ ÑıÐ¶
Ġb anda
ĠL T
ĠG arden
èĤ ī
åĭ Ł
ãĥ ĺ
á» ¡
in ner
Ġear lier
ĠMin uten
cha fts
Ġfollow ed
Ġaband on
ĠQu i
vent ure
ĠâĢ ¡
ĠJo Ã£o
Ġtrad u
Ð¾Ð· Ð°
w czy
Ġhim self
Ġh uy
ãģ¾ ãģĹãģ¦
Ð¾Ð» Ð¾ÑĤ
ĠRom an
ĠDie go
æ »
ĠÐºÐ¾Ð½ ÐµÑĩÐ½Ð¾
ĠA th
ven es
ag ers
ĠÐĽÑİ Ð±
Ġw oll
Ġw i
ĠFr ied
n ement
AC H
# #
Ġg ouvern
ãĥ¯ ãĤ¤ãĥĪ
ie v
Ġt are
Ġpos e
Ġmar ch
ĠToy ota
ĠPh Ãº
ĠP U
ĠCh ÃŃ
ãģ£ãģŁ ãĤĬ
fort un
ĠÐ¡ ÐµÐ³Ð¾Ð´Ð½Ñı
Ġv em
Ġs we
Ġpas ar
Ġlog os
Ġloc ale
Ġest udio
Ġdevelop ing
Ġd ziaÅĤa
Ġconte x
ĠT E
ĠIhr er
ÑĪ Ð¸Ðµ
ut ura
au ft
ĠÑĢÐµÑĪ ÐµÐ½Ð¸Ðµ
Ġtem as
Ġreal tÃł
Ġim pre
Ġcon g
Ġamp li
ĠCl oud
ãĤ¢ ãĤ¤
Ñĥ ÐºÐ°
Ġpag ar
ĠMe xico
Ġ11 4
Ä ĳ
ra ison
kc ja
d am
Ġr ue
ĠT OP
ĠJan uar
ĠGe org
ĠBes uch
Ð¾Ð» Ð¸ÑĤ
Ð¸Ð³ Ð½
b Ã©
ĠexpÃ©r ience
ĠGrup o
us her
Ġthere fore
Ġprofessional s
Ġprincip io
Ġma ja
Ġj ack
ĠC atal
ĠÐ¸Ñİ Ð½Ñı
ĠÐ´ ÑĥÑħ
Ġadministr ation
ĠWe ek
ãĥ ¶
ãĤ¹ ãĥŀ
ÐµÐ¹ Ñģ
Ġus ando
Ġta ille
Ġmod ule
Ġg ost
ãĥį ãĥĥãĥĪ
j ego
Ġkh Äĥn
ĠSing le
ĠCh ica
Ìģ n
w elt
ĠÑĢÐ°Ñģ Ð¿
Ġm iem
Ġh ommes
Ġg ir
ĠDis pon
Ġh inter
Ġderni Ã¨re
Ġcos to
w el
ĠÐ¸Ñİ Ð»Ñı
Ġvia je
Ġt ÃŃtulo
ĠJu egos
ĠÐ¸Ð½ Ð²ÐµÑģÑĤ
Ġs ce
Ġform s
ĠNap oli
ĠGr ad
ãģª ãģĳãĤĮãģ°
Ð¾Ð³ ÑĢÐ°Ð¼
Ġvol ont
Ġlá» ħ
al do
ĠÑĢÐ°Ð·Ð»Ð¸Ñĩ Ð½ÑĭÑħ
ĠÐ´Ð¾ÐºÑĥÐ¼ ÐµÐ½ÑĤ
Ġav en
ĠFam ily
ÅĽ cia
ĠU b
ĠF RE
w ord
ĠÐ· Ð¸Ð¼
Ġtratt amento
Ġs agen
Ġman ip
ĠdÃ© m
Ġch Ãºt
ãĥĬ ãĥ¼
ĠÑĢÐ°Ð±Ð¾ÑĤ Ð°ÐµÑĤ
Ġde utsch
ĠN ight
ĠMil an
Ġå¼ ķ
Ġsepar ate
Ġnecess ario
na hmen
Ġkeep ing
Ġal leg
ĠN OT
ÑĪ Ð¸ÑĢ
ĠM att
ĠA U
Ġç´ Ħ
ĠâĢ ķ
ĠÐľ ÐµÑĤ
Ġthá»§ y
Ġjourn Ã©e
ĠVol ks
ĠAl ess
Ġativ idades
ĠVer de
ĠH CM
Ã¤l lt
ne k
2 V
ĠÑģ Ð¾Ðº
Ġpl ast
Ġn orte
Ġinc ontro
ĠT ok
ĠF M
ĠÐ¼ÐµÐ´ Ð¸ÑĨÐ¸Ð½
Ġwy p
Ġsecond a
Ġplac ed
ĠT imes
á»£ i
ĠÑģ Ð°Ð´
ĠM OD
ĠH Ã´t
Ġ10 7
ĠB og
V ER
Ġprepar ed
Ġcam ino
ĠT Ã¢n
z ung
Ġqu oi
Ġprodu ced
Ġk ult
Ġc iel
ĠMP 3
ĠFound ation
ĠEins atz
ar ie
ĠÑģÑĤ Ð°Ð»Ð¸
ĠÑģ Ð¾Ñĩ
Ġm Ãłn
éĢļ è²©
ĠÐº Ð¾Ð¿
Ġfact or
ĠN ur
æľ «
ãģ¾ ãģł
Ð¾ÑģÑĤÐ¾ ÑıÑĤÐµÐ»ÑĮ
Ġeven ing
u o
Ġsu it
Ġpar ejas
æ¸ Ľ
ÑĢ ÑĭÐ²
ras z
ĠÑģÐ¸ÑģÑĤÐµÐ¼ Ð°
Ġs ier
Ġrespons able
Ġlung o
Ġhac iendo
Ġd Ãłng
ĠM undial
Ð¿ Ð¾ÑĢÑĤ
Ġunter schied
Ġpod ob
Ġma io
Ġm oto
Ġfield s
ĠW yd
ĠC ov
ĠC ategor
Â §
t ime
ch em
UN G
Ġï¿½ï¿½ï¿½ï¿½ï¿½ ï¿½ï¿½ï¿½ï¿½
Ġpos iada
Ġch á»Ĺ
Ð½ Ð¾Ð¿
w ell
ent ra
ĠãĤ¹ ãĤ¿
ĠÐ¿Ð¾Ð¼Ð¾Ñī Ð¸
ĠtÃ©cn ica
Ġsub ito
Ġd y
Ġaut onom
åľ Ł
ÃŃ cios
que z
Ġn atura
Ġm ati
Ġform al
ĠÐ¡Ð°Ð½ ÐºÑĤ
Ġprofes ional
Ġp av
ãģ¾ ãģ¨
ĠÐ¿ÑĢÐ¸ Ð±
Ġpon to
Ġab it
ãĥª ãĥ³ãĤ°
ĠS ind
ĠC ass
åį ´
ÐµÐ½ Ð½Ð¾ÑģÑĤÑĮ
kow ych
erse y
ĠãĤĤ ãģĨ
Ġsch warz
ĠD ruck
ãĤ¦ ãĥ³
ang en
Ġsom os
Ġmed i
Ġle er
av en
ĠÑģ Ð¿ÑĢ
Ġorgan isation
Ġd Ã¨s
ĠW r
ĠSeg undo
ãģŁ ãģı
ok u
loss en
Ġtalk ing
Ġsen ior
Ġngh iÃªn
Ġedit or
ĠPro t
u esto
ĠÑģ Ð¸Ð»ÑĮ
Ġfe u
Ġdisposit ivo
ĠWh ether
ĠAd am
ownik Ã³w
at us
Ġj ard
O O
Ġgr ud
ĠGr atu
Ġ? !
ãģªãĤĵ ãģ¦
s l
it r
Ġdon ner
Ġag ent
ĠFo ot
ĠDis co
ĠAng ebote
ãĥĥ ãĤ«
o ÅĽÄĩ
Ġhor iz
Ġde cy
ĠTh áº¿
Ñĩ Ð°ÑĤ
~ ~
iÄĻ ks
ĠÐ¢ ÐµÐ¿
Ġf ear
ĠB etrieb
Ð¸ÑĤ ÐµÑĤ
ĠâĢ¦ âĢ¦âĢ¦âĢ¦âĢ¦
Ġwas te
Ġfel iz
Ġcell s
Ġpl ants
Ġnie j
Ġkom ple
Ġen l
Ġer re
Ġaer op
ĠZ ak
Ġå± ±
ĠÐ»ÐµÐ³ ÐºÐ¾
Ġfl or
Ġes os
Ġspe ak
Ġsal t
Ġl ider
â Ħ
Ã© rique
vel y
Ġvia gra
Ġtest s
Ġt uyá»ĥn
Ġay ud
ĠIn icio
ãģłãģĳ ãģ©
ar f
Ġtro va
Ġple in
Ġalg Ãºn
Ġacqu ist
ĠC ot
ĠB in
ĠuÅ¼y tk
Ġfran c
ĠZ am
Ġs áº¡ch
Ġqu ote
ĠK ho
ĠD ark
Ã¡ genes
ĠÑģÑĤ ÐµÐº
Ġnh áº¡c
Ġmainten ant
Ġk ÃŃnh
Ġfra is
ĠTh á»§
Ġsh ape
Ġl amp
Ġh Æ¡i
èª¬ æĺİ
ĠãģĿ ãģĵ
ĠÄĳá» ı
Ġtra g
Ġtr Ã¡ch
Ġp Ã©r
ĠPr ice
ç¾ ©
w od
it ti
at ico
Ġveng ono
Ġgio c
ĠWa hl
ĠSex y
at ers
ĠÐ¿Ð¾Ð½ ÑıÑĤ
Ġc ust
ĠStr ateg
Ġst ret
Ġreg istro
Ġhotel es
ĠN icol
åĩº ä¼ļãģĦ
Ġmus e
Ġd anger
ä¼ ¼
ÐµÐ½ Ð½Ð¾Ð¼
red o
Ġunser em
Ġpod at
Ġ!!! !
æĬ ľ
Ð¼ÐµÑĢ Ð¸ÐºÐ°Ð½
b are
Ġnov os
amb io
Ġlug ares
ĠT ues
ĠD opo
ĠÐ¡ Ð»
Ġliqu id
Ġassoci ation
ĠR AM
ãģ« ãģ¨
Ð¾Ð»Ð¾Ð³ Ð¸Ñı
Ġresp ecto
Ġcar s
ĠPo int
ĠÐ¼ ÐµÑħÐ°Ð½
Ġla ws
ãĤĴ ä½ľ
ĠÐ¿Ð¾ÑģÑĤ ÑĥÐ¿
ĠÐ·Ð°ÑĢ Ð°Ð±Ð¾ÑĤ
ĠÐ¶ ÑĥÑĢÐ½
Ġrealiz ado
Ġparticip ants
ĠSa f
ĠCap ital
ĠB lick
ãģªãģı ãģª
orr er
Ġå¥³ æĢ§
ĠÐł ÐµÑģÐ¿ÑĥÐ±Ð»Ð¸
Ġr ende
Ġcomun que
ĠMar s
ĠH aw
Ð»Ñı ÑİÑĤ
ĠÐ¼Ð°ÑĤ Ñĩ
Ġall erd
ĠH ans
Ã ·
P re
ĠðŁ ĻĤ
ĠÐ± ÑĥÐ¼
Ġspr ing
Ġfun zion
Ġ ÅĽci
ission ais
???? ????
Ġw inning
Ġsem bra
Ġrema in
Ġeig entlich
Ġacc Ã¨s
ĠT un
ĠReg ion
Ð¸Ð² Ð°ÐµÐ¼
ĠÐ±ÐµÐ·Ð¾Ð¿Ð°Ñģ Ð½Ð¾ÑģÑĤÐ¸
Ġneces ario
ĠTh urs
å°ĳ ãģĹ
Ð½Ð¸ ÑĨÑĭ
ra is
icht ung
ĠÐ°Ð¿ÑĢ ÐµÐ»Ñı
Ġs Ã»
Ġpa ar
ĠCl ar
Ġ ice
ĠÐ± Ð¾Ð³
Ġsz er
Ġre produ
Ġallerd ings
ĠSt ad
å¸ °
Ð»ÐµÐ½ Ð¸Ñİ
ĠÐºÐ¾Ð½Ðº ÑĥÑĢÑģ
Ġprecis o
ĠH oy
ĠG ard
Ðº Ð°ÑĤ
ÅĦst wo
k unft
ÐµÐ² Ð¸Ñĩ
Ð² Ñĭ
re y
ac ciÃ³n
Ġdedic ated
Ġblog spot
ĠG iá»
ĠFran cia
ãĥĥ ãĤŃ
ux e
uch ar
el ves
ĠÐ¼ ÑĭÑĪ
Ġh iá»ĥm
Ġc Ã©l
ĠR ome
ĠF an
ĠDez ember
Ð°Ð½ Ð½ÑĭÐ¹
Ġh áº¡i
Ġfor a
ä½ľ åĵģ
un ku
Ġl isted
Ġfisc al
ĠPh Ã¡p
ÑĥÐ¹ ÑĤÐµ
Ð¸ÑģÑĤ ÑĢÐ°ÑĤ
Ġsee ing
Ġocc ur
Ġcol ors
Ġbuy ing
ĠÐ¶ÐµÐ» ÐµÐ·
Ġtram ite
Ġfam ÃŃlia
Ġed ge
ra gen
ĠåĪ Ŀ
Ġgra ve
å¤ī ãĤı
å Ĥ¬
ost as
ĠÐ½Ð°Ñģ ÐµÐ»
Ġex amin
Ñı ÐµÑĤÑģÑı
Ġwork ers
Ġp yt
Ġag u
ĠOn ly
ĠK inh
ĠFl ash
hn ung
ĠÑģ Ð°Ð»
ĠÐ¿ÑĢÐ¸ ÐµÐ¼
ĠF le
ue ba
en ess
Ġqual siasi
ĠSe villa
te xt
ĠÐ¿ÐµÑĢ ÐµÐ¿
Ġsho ot
ĠB ab
pr im
Ġoffer te
Ġach eter
ãģĹãģ¦ ãģ¿
Ġnh áº¹
Ġng Ã¢n
Ġm ÅĤod
ĠReg istr
ĠC ry
ãģ¸ ãģ®
Ð± ÑĥÑĢÐ³
ĠVir gin
ĠEn c
ä½¿ ãģĦ
ãĥ³ãĥ Ķ
ÅĽ niej
Ġå¤ ļ
ĠÐ± Ð°ÑĢ
Ġv intage
Ġeconom ia
ĠS Ã©
ĠF ashion
ãĥĿ ãĥ¼ãĥĪ
ãĤ² ãĥ¼ãĥł
est os
Ġtr Ã¡nh
Ġrap ide
Ġatr Ã¡s
ĠPh otos
ĠFern ando
ÅĤ ada
res h
Ġpued o
Ġher m
ĠV as
ĠRod r
ãģ®å °
Ñĳ ÑĢ
Ð¸Ð± Ð»Ð¸
Ġwz gl
Ġsim pl
Ġp iÄĻk
Ġfe z
Ġè µ
Ġszczeg Ã³l
Ġsop ra
ĠGr Ã¼n
N o
Ġspot k
Ġol der
ĠgÃ©nÃ©r al
Ġamb os
Ð¾Ð» Ñİ
:::: ::::
ĠlÃ£ nh
Ġeng agement
Ġdivers as
Ð¾Ð¶ Ð½Ð¾
4 50
ĠÑĥÑĩ ÑĢÐµÐ¶Ð´
Ġpresent ed
ĠLa ur
ĠrÃ¡p ido
ÐµÑģÑģ Ñĥ
Ġzosta ÅĤ
Ġnam ed
Ġf ather
ĠM G
ãĥ³ãĤ· ãĥ§ãĥ³
ĠÐ² Ð»Ð¸Ñı
Ġt ys
Ġs Ã¢u
ĠK ong
Ġevent os
Ġcompet it
ĠRob erto
Ð¾Ð»ÑĮ ÐºÑĥ
Ð¾Ð´ Ð°ÑĤÐµÐ»ÑĮ
Ġpack age
Ġngh á»ī
ĠMitt el
ly wood
Ġï½ ¥
ĠÑģÐ²Ð¾ Ð¸Ð¼
Ġtest ing
ĠpiÃ¨ ces
Ġl er
Ġes clus
ĠNot icias
ĠAd ult
ï¼ ¡
ph ones
it ura
ise x
ad ies
Ġç ¦ı
Ġosob y
ĠRe ise
ĠFore x
ĠC reat
Ġ9 99
Ã¨ tres
ang o
Ġnu it
Ġle icht
Ġent ender
ĠRes ult
ĠB our
åĳ ½
ÑĦ Ð¾ÑĢÑĤ
s m
ĠÐ¿ÑĢ ÐµÐ·Ð¸Ð´
ĠmÃ¡ ximo
Ġj aneiro
ĠU TC
Ð½ Ð°Ð·
h 00
Ġam m
ra cht
ay er
Ġupd ated
ĠR and
ĠD if
b 2
ĠÑĢÐµÑģ ÑĥÑĢÑģ
ĠÐ¾ÑĤ Ð¼
ĠÐ½ Ð°Ð¹Ð´
Ġwid get
Ġusu arios
Ġc uy
Ġapp are
ãģĮ ãģĬ
Ġp og
ĠÐ¼Ð°Ð» ÐµÐ½ÑĮ
Ġsit i
Ġret ir
Ġhum anos
ĠS AL
ĠRich ard
Ñı Ð»Ð¸
Ð Ĩ
fÃ¼hr ung
Ġto urn
Ġexpert ise
Ġam Ã©li
Ġeffett u
Ġdes cu
ĠS ter
å ¨
us ement
ĠÑģÑĤ ÐµÐ½
Ġstream ing
Ġpropos ta
Ġcom une
iO i
Ġpu esto
Ġbek ommen
ĠB ett
Ð¸ÑĤÐµÐ»ÑĮ Ð½ÑĭÐ¹
ĠãģĤ ãģªãģŁ
Ġchang ing
Ġcar ousel
ĠR ena
ãĤī ãģļ
Ã³ venes
Ã± ad
z an
ĠÐ²Ð¾Ð·Ð´ ÑĥÑħ
Ġvar ias
Ġn enh
ªå¼ı ä¼ļç¤¾
k iej
j est
Ġver k
Ġun ico
Ġno ite
Ġdro g
ĠL ap
ĠI G
ĠÐ¾Ð¿ Ð°Ñģ
Ġpro pre
Ġc c
ï¼ ³
ieg el
ic ur
Ġcapac ity
ĠI ran
ĠCh ris
zie Äĩ
Ġud ziaÅĤ
ĠT own
ç§ »
ÅĤ op
E UR
ĠÐ´ Ð¾Ð±ÑĢ
Ġme iner
Ġg ilt
Ġconc ert
Ġand er
ĠA er
ĠÑħ ÑĥÐ´
Ġprocess ing
ĠAh ora
à² ¾
ina ire
E lement
ĠÐ´ ÐµÑģÑı
Ġth iÃªn
Ġprzec iw
Ġa pert
u ki
ĠâĢ İ
Ġscel ta
Ġro bi
Ġp ÅĤ
ãģį ãģ¦
fÃ¼hr t
ĠÑĦ Ð¾ÑĢÑĥÐ¼
Ġjew e
ĠL ud
Ðº Ð¾ÑģÑĤÑĮ
ad s
AD OR
ĠÑĢÐ°Ñģ ÑħÐ¾Ð´
ĠÐĺÐ½ÑĤÐµÑĢ Ð½ÐµÑĤ
Ġz ero
Ġf att
ĠG ian
ĠB ul
ĠAn che
par ation
Ġh ors
ĠWor ks
ĠSte ph
ĠÑĢÐ°Ð¹ Ð¾Ð½Ð°
Ġquar to
Ġl inh
Ġfact ors
Ġexp ans
ĠAng eles
è¾ º
à ¹
Ð¸ÑĤ Ð°Ð¹
ess age
az zo
a W
ĠÐ¸Ð³ÑĢ Ð¾Ðº
Ġse ven
ĠV intage
Ġ ãģ£ãģ¦
ck er
Ġw sk
Ġappro xim
Ġpow ie
ĠM L
Ġthough ts
Ġquien es
Ġgu ests
Ì£ n
owa ÅĤa
ach en
S erv
AN A
ĠÐ¿ Ð°Ð½
ĠÐ¡ ÐµÐ²
Ġsz kol
Ġp unkt
Ġfit ness
ãĤĦ ãģ£ãģ¦
qu ent
icht ige
ĠÐĳ Ð¾Ð³
Ġo urs
Ġd anych
ĠViet nam
ĠT ER
äºĭ æ¥Ń
en ger
ch y
ĠÐ¿ÑĢÐµÐº ÑĢÐ°Ñģ
Ġpers Ã¶n
Ġdesc argar
Ġav anz
å· ®
ÑĥÑģ Ð°
um enta
our t
Ġr osa
Ġd inheiro
Ġcor te
ĠVer d
ĠD ok
p ass
IC H
1 000
ĠÑĢÐ°Ð· Ð³
ĠÐ½Ð¾Ð² ÑĭÑħ
ĠÐ¡ ÐµÑĢ
Ġver l
Ġgall ery
Ġfind ing
Ġdom ic
ĠÐ¸Ð¼Ðµ ÑİÑĤ
Ġmá» ¹
Ġher aus
ĠVal ent
Ġr Ã¨g
Ġact ualiz
ĠS Ã³
ĠH ost
ĠÐ¿Ð°Ð¼ ÑıÑĤ
Ġv illa
Ġd il
Ġactiv itÃ©
ĠTra bal
ĠSing ap
ĠK ategor
ĠG O
åĬ ©
å¯ Į
Ã£ n
ig lie
ann es
Ġm ath
Ġfacil ities
Ġex port
ĠÐ¾Ð±ÑĬ ÐµÐ¼
Ġg emeins
ĠW szyst
Ġwen iger
Ġsi Ãªu
Ġob t
ĠM eg
ãģĹãģŁ ãĤī
Ġweb cam
Ġs ets
æĴ ĥ
ĠÐ¾Ñģ Ð²
Ġst ycz
Ġser ait
Ġinte gra
Ġdev ant
ĠK er
as te
M ar
Ġc iÄĻ
Ġè Ħ
Ġstat ement
Ġloc ations
ĠTra b
ãĤĴ ãģ¤
Ġv inc
Ġge hÃ¶r
Ġdiscuss ion
ĠRa hmen
ĠC 3
Ð°Ð± Ð°ÑĤ
onn es
ie ÅĦ
Ġçģ «
Ġfu ori
Ġfig ura
Ġdes af
è¨ ³
ow ano
b us
Ġs our
Ġpremi um
Ġk ap
Ġfran ces
ĠO cc
ĠCas er
Ġ5 000
ann ed
ac za
ac ters
Ġple as
Ġhand lers
az ar
ĠÑģÐ¼ Ð¾Ð³
Ġv eter
Ġch ambres
Å¼y Äĩ
le j
ik es
Ġwh ose
Ġhac en
Ġdi chi
Ġapro xim
ĠÐ¿ÑĢÐ¸Ð½ ÑĨÐ¸Ð¿
Ġrefer ence
Ġfa ith
Ġ": [
ind ung
er Ãł
ec ie
Ġpalab ras
Ġk Ãª
Ġhat ten
ĠCom me
ĠCE O
ĠB ob
Ġten ÃŃa
Ġh ack
Ġd l
ãĤ« ãĥ¼ãĥī
ĠÐº Ð³
Ġadult os
ĠW ay
Ġpap ier
p age
ifest yle
ĠÑĢÐ°ÑģÐ¿ÑĢ Ð¾ÑģÑĤÑĢÐ°Ð½
ĠÑĢ ÐµÑĩ
Ġu omini
Ġmar av
Ġcin ema
ĠNue va
â Ĥ¬
T U
Ġst one
Ġnature l
Ġal te
ĠPol ska
ĠG D
ÑĪ ÐµÐ³Ð¾
Ìģ i
rol og
que le
Ġç¥ ŀ
ĠB este
ĠA udi
nÄħ Äĩ
ĠÐ³ ÑĢÐ°ÑĦ
Ġto i
Ġpl enty
ĠMet al
ĠK ore
Ġf ff
ĠCor te
Ð°ÑĤÑĮ Ñı
Ġra ison
Ġopin ion
Ġac id
ĠU ser
Ġ12 00
ÑĢ ÐµÐ¹
Ġsing les
Ġn ac
Ġb ought
Ġapr ender
ĠGrand es
erd em
ĠÑģ Ð¾Ñģ
Ġe gg
ĠPub liÃ©
ĠM U
ĠL ag
ãĥĸãĥ© ãĥ³ãĥī
Ĵ° å¢ĥ
Ġger al
Ġest ratÃ©g
Ġd Ã¢y
ãĤª ãĥ³
90 4
ĠÐ¿ÑĢÐ¾Ð±Ð»ÐµÐ¼ Ñĭ
Ġt Ãªte
Ġf le
ĠPro v
Ġsh ipping
Ġfe e
Ġc ialis
ĠSo und
ĠÑģÐµÑĤ Ð¸
ĠÐŁ Ð¾ÑģÑĤ
Ġ22 5
ific azione
ĠÞ ĩ
ĠÐ°Ð¿ Ð¿Ð°ÑĢ
Ġst opp
Ġchi am
ĠCh á»ī
à²¿ à²
cr izione
Ġcome Ã§
ĠG ed
Ġ ãģĹ
ĠÑģÐ² Ð¾Ð±Ð¾Ð´
ĠÑĢÐ°Ð· Ð±
Ġhum ano
Ġhab l
Ġf esta
ĠRep Ãºblica
ĠFar be
ãĥ« ãĥķ
ãģ» ãģĨ
ÄĻ cz
stand ing
ag t
Ġtem os
Ġso fort
ĠOb ama
z ess
Ġpar e
Ġk art
Ġfoot ball
Ġb urn
x p
jon al
ar p
Ġm ira
Ġk ry
Ġdie ta
ĠPre f
æ į
s atz
ies a
er ci
ĠÐºÐ¾ÑĤÐ¾ÑĢ Ð¾Ð¼
Ġsz k
Ġscu ola
Ġgest ione
Ġ' )
å® ĺ
Ð°ÑĢ ÑĥÐ¶
rit ten
Ġoper ating
Ġf ru
ĠP ast
chod zi
Ġmess ages
ĠL ac
ĠK an
ĠC AP
ÐĽ ÐĲ
y al
ous se
ir on
Ġtro t
Ġcar act
ĠRepub lic
ĠL ittle
éĻĲ å®ļ
Ġè ¶
Ġlud zi
Ġinflu ence
Ġfind et
Ġact u
ãĥ© ãĥł
Ġsu k
Ġnet to
ĠH an
ãĤĴ èªŃ
ud em
IC I
ĠÐ¾Ð± Ð½
Ġgirl s
Ð°Ð»ÑĮ Ð½Ð¾Ð¼
la v
em as
ĠÑģ Ð½Ð¸Ð¶
ĠÐ´Ð¾Ð»Ð¶ Ð½Ð°
Ġob rig
ĠmÃ¡ u
om at
Ñĥ ÑİÑĤÑģÑı
er ts
Ġed ad
ir am
Ġre tail
Ġdo ÅĽwiad
ĠG ast
ÐµÐ² ÑĭÐµ
r t
Ġde zembro
ĠTues day
ĠJ ard
ĠC AL
st y
ĠÐ¼ÐµÑģÑĤ Ð°
ĠÐµ Ð¶
Ġvo i
Ġk Ã©o
Ġdeb ate
Ġab a
ĠPerson en
Ã£ os
Ġver o
Ġtot ale
Ġha ven
Ġent wick
Ġcha ir
Ġc able
âĢ ¢
ÐµÐ´ Ð¸
an ic
ĠÐ²Ñĭ Ð´ÐµÐ»
Ġl ire
ĠF lo
åĽ ł
ãĤ¸ ãĥ¥
ĠÐ³Ð» ÑĥÐ±
Ġpun ti
Ġprodu cciÃ³n
ĠA ction
ĠÑįÑĦÑĦ ÐµÐºÑĤ
Ġr ib
uc ional
meld ung
k op
ĠÑĢÐ°Ð·Ð¼ ÐµÑī
Ġdiv ulg
Ġdi zer
iv ent
G l
Ġä¸ ĭ
Ġex ter
Ġb ab
ĠNg á»įc
icher ung
ĠÐ¾ÑĤÐ²ÐµÑĤ ÑģÑĤÐ²ÐµÐ½
Ġpet its
Ġhay a
Ġcel u
Ġam ateur
ãĤĮ ãģªãģĦ
pu esta
ian os
gest ellt
Ġfam ous
Ġent fer
ĠdiffÃ©r ents
ĠExt ra
ĠAc qu
Ġt ort
éĥ ¡
ĠÐĺ ÑĢ
ĠÐ½Ð°Ð»Ð¸Ñĩ Ð¸Ð¸
ĠÐ²Ñģ ÐµÐ¹
Ġnaz ionale
Å¼ li
ÃĶ Ãļ
i Ã§a
Ġå ĳ
Ġãĥ İ
ĠÐ¼Ð¸ÑĢ Ðµ
Ġport al
Ġear th
Ġaf ect
form e
Ġnh áº±m
Ġlands c
Ġje ux
Ġdo bre
Ġ á»ķ
ÐµÐ¹ÑĤ Ð¸Ð½Ð³
um o
ire ct
ĠÐ´ÐµÐ¹ÑģÑĤÐ² Ð¸Ñı
Ġprof issional
Ġp amiÄĻ
Ġaut ob
ĠV ÃŃ
ç· Ĵ
ÑĢÐ¾ ÑĦ
z il
am or
ĠãĤ¸ ãĥ£
ĠÐ´ Ð¸ÑĢ
ĠsÃ© jour
Ġd Ã¡
Ġjun ho
Ġcompet ition
ĠSpr ing
od el
ĠÐ²Ñĭ Ð²Ð¾Ð´
Ġcol on
im at
ĠÐ³Ð¾Ð» Ð¾Ñģ
Ġsempl ice
ĠC af
á» ·
cz ÄĻ
16 0
ĠÐłÐ°Ð· Ð¼ÐµÑĢ
Ġman iÃ¨re
Ġest ou
ĠT C
ĠL Ã¶s
ĠFebru ar
Ñĭ Ð½
ÌĢ n
cha ften
ĠÐ¼Ð» Ð½
Ġf ert
Ġdi b
ĠThurs day
ĠRa um
ĠNg uyÃªn
Ġ Ã³r
ĠÐ¼ÐµÑģÑĤ Ðµ
ĠÃ©ta ient
Ġtak ich
ĠrÃ© fÃ©r
Ð°Ð»Ð¸ ÑĦ
olog na
Ġoper ation
Ġlearn ed
ĠCh Ã¢u
åıĤ åĬł
issens chaft
Ġsare bbe
ĠProfess ional
ĠJahr es
v ar
h ou
br ica
Ġalgu ien
Ġadd ing
ĠH onda
áº ł
tr os
ol ari
ĠÐ³ÑĢÑĥÐ¿Ð¿ Ñĭ
Ġpolit ica
Ġindepend ent
Ġg one
Ġd Ã¼r
æī ĵ
ÑģÐº Ð¾Ð¼Ñĥ
ÅĽ red
sp iel
ĠrÃ©s erv
å° İ
po zyc
ix e
Ġï¼ į
Ġæ Į
Ġleaders hip
Ġd ru
Ġcon h
ĠBus ca
ĠÐ´ ÐµÐ¼
Ġmon ta
Ġinform acji
Ġexpl o
Ġcu est
ĠA lem
çĶ¨ åĵģ
uch s
l ose
ik en
ĠÐ½Ð° Ð¸Ð±Ð¾Ð»ÐµÐµ
Ġs ung
Ġbig gest
ĠSt unden
_ 1
W id
L O
Ġè» Ĭ
Ġl t
Ġde ben
Ġcier to
Ġcal end
Ġactiv itÃ©s
Ġpe le
Ġmem oria
Ġcommun ities
ĠIn tro
O n
ĠÑĢÐ°Ð·ÑĢ ÐµÑĪ
Ġw egen
Ġkom entar
Ġdesc ub
ama Ã±o
Ġacom paÃ±
åĲĪ ãģĦ
Ġï¼ī ãĢģ
ĠåĲį åīį
Ġos c
Ġkh áº£o
ãģĿãģĨ ãģ§ãģĻ
Ðł Ðĺ
Ð½Ð¾Ð² Ð°
enn es
ĠÑģÐµÑĢ ÑĮ
Ġth ai
Ġsag t
ĠT ous
ĠLoc ation
ĠB row
Ã¨ ve
is cono
ha ft
Ġsettim ana
Ġjul ho
ĠRo om
ãģ®å¾ Į
Ġsp ett
Ġpub lish
Ġje unes
Ġan zeigen
ĠJ etzt
ĠCas ual
ĠÐŁ Ð¾Ð¼
ĠÄĳ Ãło
Ġqu iero
Ġlo vely
Ġf als
ĠI b
ĠC Ã¡
æĬ ŀ
y ÅĤ
sch uhe
20 19
ĠÂ¡Â ¢
Ġesp ace
Ġas es
Ġsie ht
Ġrisult ati
Ġkle inen
Ġk i
Ġc io
ĠRuss ia
ĠJ on
w _
Ġf ruit
ĠN Âº
ĠIn nov
Ġ áº¢
k cyj
ck e
Ġpel as
Ġinst ance
Ġasp ects
Ġ00 1
ÐµÐ½ÑĤ ÑĢÐ°
h ic
Ġåº Ĺ
ĠÅĽ wiet
ĠÐ¼ Ð¾Ð±Ð¸Ð»ÑĮ
ĠÐºÑĢ ÐµÐ¿
Ġg Ã©
Ġcan al
ãĤ ¾
Ð» Ð°Ð¶
Ã¨ m
cze j
Ġir gend
ĠM ik
Ã Ľ
h d
ĠÑĤ Ð¾Ð¼Ñĥ
ĠPh im
Ġ', '
on av
iv ement
F i
ĠpÃ© ri
Ġke inen
Ġalc une
è¡ Ĺ
ãĤĤ ãģ®ãģ§
Ðº Ð¾Ð²Ð°Ð½
tem ps
ĠÐ± Ð¸
Ġtra itement
Ġsvil uppo
Ġinteress ante
Ġdiagn ost
Ġcould n
ar em
Ġaplic aciÃ³n
éħ Ĵ
ĠÐº ÑĢÐ°
Ġch Ã³ng
Ġcar bon
Ġbra in
Ġad equ
ĠG uy
æİ ²
ãģ® ãĤĪãģĨãģ«
Ġfocus ed
ĠK il
Ġ13 2
ĠÐļ Ð»
ĠÃ¡ nh
ĠF ond
ĠC ord
ĠA ra
tron om
ĠÄĲ Ãł
Ġth áº¥p
Ġrod za
Ġn or
Ġla bel
Ġconn ected
ĠOrig in
Ġ11 9
uc ci
ia o
Ġlas er
Ġcoc ina
Ġcapac idad
ĠSch l
Ġw rze
ĠQual itÃ¤t
Ġ09 8
Ð°ÑĤÐ¾ÑĢ Ð°
} }
av ier
art s
ĠÑĤÐ¾ÑĢ ÑĢÐµÐ½ÑĤ
ĠÑģÐµÐ½ÑĤ ÑıÐ±ÑĢÑı
Ġt Ãº
Ġra c
Ġconte xt
ĠFin an
ĠC Ã¢m
Ġ15 5
ãĥ¼ãĤ¿ ãĥ¼
ÑİÑī Ð¸Ð¹
r ico
b les
Ġpre Ã§os
Ġneg ative
Ġjako ÅĽci
Ġh am
Ġexerc ise
ĠX P
ãĥĬ ãĥ«
ãģĭãģª ãĤĬ
Ð»Ð¸ Ð·
ÃŃn io
em ia
Ġsit ios
Ġcre am
Ġco leg
ion o
if iche
Ġin kl
Ġfr ame
Ġcap az
Ġcam pe
ĠV ac
ĠL um
us iÃ³n
m ier
ateg oria
ĠÐ¸Ð½Ð´ Ð¸Ð²Ð¸Ð´Ñĥ
Ġprze pis
sz ego
os of
orr ent
ocia zione
ĠÑģÑĤ Ð°Ð½Ð´Ð°ÑĢÑĤ
ĠÐ´Ð¾ ÑħÐ¾Ð´
Ġsens o
Ġpract ices
Ġir on
Ġhus band
ãģį ãģŁãģĦ
ÑĮ Ð¸
ĠÐŁ Ð»
Ġp Ã³ÅĤ
Ġc ss
Ġac co
Ã³w ki
Ġè Ģ
ĠÑĥ Ð²ÐµÑĢ
ĠtÃ©cn ico
Ġt áº·ng
Ġsk lep
Ġeconom y
ç± ³
ãģĨ ãģ¡
te le
gg ia
enc ji
Ġåħ ¥
ĠÑĨ ÐµÐ»ÑĮ
Ġlist en
Ð¸Ð· Ð°ÑĨÐ¸Ð¸
ĠÐ£ Ñĩ
Ġmov imento
Ġma Ã±ana
Ġconse qu
Ġ19 70
ãĥ© ãĥ³ãĤ¹
it is
Ġsym pt
Ġn Ã´ng
ĠP ri
ĠN S
ĠMult i
Ġ17 5
æĺ ¯
ãĤ¹ãĤ¿ ãĥ¼
á»¥ ng
Ð± Ñĥ
ung ere
r ÃŃa
ĠÑģÑĤ ÑĢÑĥÐºÑĤ
Ġspraw ie
Ġmed ios
Ġer folg
ĠWarsza wa
Ġ11 8
ãĥ¢ ãĥĩãĥ«
od er
iz ion
ĠÂ¡Â £Â
Ġv ay
Ġsem anas
n ica
ĠÐ°Ð² Ð¸
Ġviel leicht
Ġaug ment
ĠV ila
Ñĭ ÑģÐ»
ja hr
E I
ĠÑįÑĤ Ð°Ð¿
ĠSant iago
Ã© ta
act ions
ĠÑģÐº Ð»Ð°Ð´
Ġus age
Ġin ÃŃcio
ĠE b
å£ °
pp ia
im en
Ġnum a
Ġchar acters
ãĤĭ ãģĵãģ¨ãģĮ
Ġpriv acy
Ġfun ctional
å® ®
ÐµÐ³ Ð¸ÑģÑĤÑĢ
gr upp
an Äħ
all as
ĠÐ¸Ð½ÑĦÐ¾ÑĢÐ¼ Ð°ÑĨÐ¸Ñİ
Ġra in
Ġfond ament
ĠConst it
ÅĦ cz
x 2
ter os
Ġro k
Ġf illed
Ġd wa
ĠL ady
Ð¾Ð¼ Ð°ÑĤ
zu k
g s
Ġè ħ
Ġäº Į
ĠÑĢ Ð¸ÑģÐº
ĠÐ»ÑİÐ± Ð¸Ð¼
Ġre cip
Ġr ose
Ġl ien
å¸¸ ãģ«
rich ten
Ġm amy
Ġe fekt
ĠAct iv
ãĥ¼ãĥ ĭ
Ã©rie ure
ĠÑģÐ» Ð¾Ð²Ð°
Ġvic ino
Ġthá» Ń
Ġl ut
Ġ11 3
ãģĵãģ¨ ãģ«
iss on
ia ge
H S
Ġvid Ã©o
Ġsoc iais
Ġmulher es
Ġl anz
Ðķ Ð¢
Ð¸Ð· Ð²Ð¾Ð´
tr Ã¤
ĠÐ²Ð¾Ð·Ð¼Ð¾Ð¶ Ð½Ð¾
ĠÐ° Ð³
Ġke pt
ĠHamb urg
Ð¾Ð» Ð¸
ĠÐ½Ð¾Ð² Ð¾ÑģÑĤÐ¸
Ġs elling
Ġbrow ser
ĠPh ong
Ð½Ð¸Ðº Ð¾Ð¼
Ġg ather
Ġdi cho
Ġcook ie
ĠSt ation
ĠE j
en ch
Ġth Æ°á»Łng
Ġte ve
Ġincre ment
ĠT A
ĠS N
æ ½
Ġsoc iety
Ġkh Ã¡m
Ġch yba
ĠO FF
ĠCo ver
Ġ Ë
u ite
ne x
ĠÐ¿ÑĢ Ð¸ÑıÑĤ
Ġenqu anto
Ġcon ect
ĠMe jor
ĠKÃ¼ che
G r
ĠÑĥÑĩÐ°ÑģÑĤ Ð¸Ðµ
ĠÑĤÑĢ Ð°Ð²
Ġz eit
Ġver w
Ġs ki
Ġgen re
ĠJ orge
ĠFoll ow
ç¯ Ģ
Ġh áº¡
ĠV all
ip end
Ġqu ase
Ġprodu zione
Ġpag o
Ġmilit ary
Ġlist op
Ġk wiet
Ġcol our
Ġapp oint
h ang
ĠãĤ¢ ãĥ«
ĠÑĢÑĥÐº Ð°Ð¼Ð¸
ĠÐ¼ Ð°Ð¼
ĠÐ» ÐµÐº
ĠÐ±Ð¾Ð»ÑĮÑĪ Ð¸Ð½
Ġcompre h
å½ ¼
ãģ® ãģł
u il
ĠÐº Ð»ÑİÑĩ
Ġwp rowad
Ġsu y
Ġgiorn ata
ĠÐ½ÐµÐ´ Ð¾ÑģÑĤ
Ġf eito
ĠLand es
r upt
ĠÐ¿ÑĢÐ¾Ð¸Ð·Ð²Ð¾Ð´ ÑģÑĤÐ²Ð°
Ġin ten
Ġc ere
ÐµÐ»ÑĮ Ð·Ñı
gr ade
Ġus c
Ġsag te
Ġorigin ale
Ġin con
Ġczy m
Ġcre ar
çĹ ĩ
ãĥ© ãĤ¤ãĥĪ
p at
ik ing
i Ã¨me
Ġpart ire
ĠcrÃ© dit
ĠK omp
Ð» Ð¾Ð¿
is ia
Ġresp uesta
Ġmach ines
Ġdzie ÅĦ
ĠE tiqu
éĻ į
Ð¿Ð¾Ð» Ð°Ð³
un er
ĠÑĢÐµÑĪ ÐµÐ½Ð¸Ñı
Ġun g
Ġprof issionais
ĠN Ã¤
åĽ ³
ãģªãģ© ãģ®
ãģ£ãģŁ ãĤī
tt es
ĠÑģÐ¾Ð¾ÑĤÐ²ÐµÑĤÑģÑĤÐ² Ð¸Ð¸
ĠÐ¸ÑģÑĤ Ð¾ÑĢÐ¸Ð¸
ĠÐ²ÑĭÐ± ÑĢÐ°ÑĤÑĮ
Ġfil ter
Ġdispon ibil
ĠB enz
pl o
ab o
Ġesper a
Ġattem pt
Ġal ert
ĠNatur al
jaz d
g ers
ĠÐ±Ð¾Ð» ÐµÐ·
ĠÐ¢ ÐµÐ»
Ġwait ing
Ġh orm
ĠÑģÐ°Ð¼ Ð¾ÑģÑĤÐ¾ÑıÑĤÐµÐ»ÑĮ
Ġph ase
Ġn ier
Ġas ist
Ġ ÑĨÐ¸
åĳ ¼
ZSI 6
ĠãĤ ı
ĠÐ¾Ð± Ð½Ð¾Ð²
Ġvol unte
Ġte ch
Ġexper iÃªncia
ĠProgram a
ĠF otograf
æ ©ĭ
Ð°Ð² Ð°ÑĤÑĮ
uelle ment
n ienie
ĠÐ¼Ð¾Ð´ ÐµÐ»Ð¸
Ġje une
Ġcond izioni
ĠS UP
ĠB AR
ãĥĲ ãĥĥãĤ¯
pre is
M j
Ġrel ation
Ġcost itu
Ġc áº£i
Ð°Ð»ÑĮ Ð½ÑĥÑİ
Ġsym bol
Ġinnov ative
Ġinc om
Ġhard ware
ĠS eit
Ġé ĺ
ĠÄĳ áº£o
Ġm att
Ġch Äĥm
Ġc atal
ĠCom une
è ®
icion ado
ĠÑĢÐ°Ð· Ð½ÑĭÑħ
Ġn ego
Ġmit t
Ġjed y
Ġdep th
ĠCON S
and ra
Ġå¤§ éĺª
Ġu ro
Ġt áºŃn
ĠV a
ĠT Ã©cn
ĠBan co
cio us
\ \
Ġæ ģ
ĠÑĤÐ¾Ð²Ð°ÑĢ Ð¾Ð²
ĠÐ£ Ð´
Ġ3 d
ÑĢÑĥ Ñĩ
ant ar
Ġstag ione
Ġspo ÅĤecz
Ġsmall er
Ġs ad
Ġnajb ardziej
Ġaliment os
å¹ ħ
p ol
T Y
Ġu003 e
Ġg á»Ĺ
Ġcomb ination
Ġapp s
Ġad quir
ĠWed nes
ĠRes erv
ĠLe v
ĠBon us
Ã©r Ã©
ist iques
h ire
ĠÑģÐ¾Ð¾ÑĤÐ²ÐµÑĤÑģÑĤÐ² ÑĥÑİÑī
Ġg ear
ĠW ol
ĠGol den
Ø ±
ph a
N Y
ĠÑģÐ¾ÑģÑĤ Ð¾
Ġpa Åºdzier
Ġdej ar
Ġaut our
re mo
G H
Ġa ware
ĠMan ual
ĠÐł Ð°Ð±Ð¾ÑĤ
Ġngh á»ģ
Ġcam ere
ĠWeit ere
ĠTh á»Ŀi
ĠG ord
Ð¿ Ð¾Ð½
ĠÑĥÑģÐ»Ð¾Ð² Ð¸Ñı
ĠÐ° Ð»ÑĮ
Ġkur z
Ġb ird
Ġac ess
ĠT yp
ied o
el ier
ĠçĻ ½
Ġneigh bor
Ġgratu ita
Ġd ub
ĠW ert
ĠLin ux
ĠEdu caÃ§Ã£o
ĠAb out
ree k
ĠTor ino
ĠSoc iety
ĠÐ½Ð°Ñĩ Ð°Ð»Ð°
Ġsp a
b ros
Ġvo z
Ġaconte ce
ĠFin anz
Ġp ueblo
Ġdistrib ution
Ġcol ore
ĠN AS
ÐµÐ½ Ð½ÑĭÐ¼Ð¸
qu iler
ibliote ca
es ar
ĠÑģÐ¼ Ð¾Ð¶
ĠÑĢÐ°Ð±Ð¾ÑĤ Ð°ÑĤÑĮ
Ġer ano
Ġ6 50
re bbero
n ich
ĠÑĢÐµÐ·ÑĥÐ»ÑĮÑĤ Ð°ÑĤ
Ġval ore
Ġt d
Ġda her
Ð¾ÑĢ Ðµ
Ĵ æŃ©
Ġso uth
ĠSec ond
ĠCr Ã©
ĠAl to
á»§ ng
Ġe her
Ġ( {
ÐĿ Ð«
Ġze igt
Ġpl ut
Ġg mail
Ġsch wer
Ġin icial
Ġgu itar
èµ °
ĠÑĥÐ´ Ð¾Ð²
ĠÐ¾Ðº ÑĢÑĥÐ¶
ĠÐ¼Ð½Ð¾Ð³ Ð¸Ðµ
Ġmu zy
Ġcer te
w ater
ni u
ang ers
G S
Ġâ Ķ
Ġw ahr
Ġh orr
Ġenorm e
Ġchá»ī nh
Ġbr ight
n Ã©
ma i
Ġnas zej
ĠOr ange
ĠN uest
Ġ11 1
ÐµÑħ Ð½
ĠÑģÐ¾Ð² ÑģÐµÐ¼
ĠãĥĢ ãĤ¤
Ġvisit ors
Ġk iá»ĥu
Ġg t
Ġaw esome
Ð¸ÑĤÐµÐ»ÑĮ Ð½ÑĭÑħ
Ġth erm
ĠL age
ĠL EG
ĠGi ang
ĠCaser ÃŃo
ãģ® ãĤ³
Ġmor al
pro gram
U n
Ġwy nik
ĠsÃ© lection
Ġszczeg Ã³ÅĤ
ĠZap atillas
ĠGon z
Ð¾Ð² Ð°Ð»Ð¸
Ġoper ations
Ġenjoy ed
ĠDec or
éħ ¸
ÑģÑĤÑĢÑĥÐº ÑĨÐ¸Ñı
Ã¤ hlt
fr ont
ĠÑĤ ÐºÐ°Ð½
Ġw eg
Ġt Ã¹
Ġproble mi
Ġout ubro
Ġagre ement
ĠWo che
ĠTra ining
Ñĭ Ð´
b ud
Ġbreak fast
Ġbe w
ĠWill i
Ã¼ g
Â ¦
k cie
Ġsch le
Ġa Ã§Ã£o
ĠFamil ie
Ġ ä½
re al
K E
ĠÑĩ ÑĤ
ĠÐķ ÑģÑĤÑĮ
ĠÐ¼ Ð¸ÑĢÐ¾Ð²
Ġpour rait
Ġalt ura
ĠEar th
iv ia
F S
ĠÑĦÐµÐ²ÑĢ Ð°Ð»Ñı
ĠÐ¾ÑģÐ¾Ð± ÐµÐ½Ð½Ð¾
Ġwalk ing
Ġw issen
Ġprofes ionales
Ġimm obili
Ġh áº¥p
ul in
k us
: .
ĠÐĲÐ»ÐµÐºÑģÐ°Ð½Ð´ ÑĢ
ĠÐ¾Ð´ Ð½Ð°
Ġpass ed
ä¹ ³
ĠÑĤÐ¸Ð¿ Ð°
ĠÐĳ ÑĢ
ĠÐ¿ÑĢÐ°ÐºÑĤ Ð¸ÑĩÐµÑģÐºÐ¸
Ġmemb res
ĠTrib unal
Ġfor ex
ĠSu che
ĠG il
Ġ21 00
ÑĨ Ð¾Ð²
la in
ci Äĩ
bl og
Ġprocess es
Ġb ic
ĠH ong
åĨħ å®¹
ãĥĥãĤ· ãĥ§ãĥ³
Ð² Ð°Ð»
um er
Ġtrat amiento
Ġal meno
ĠSh are
ĠP unk
ĠFer ien
Ð¾Ñĩ Ð½Ð¾Ð¹
ÃŁ erdem
Ġprofess or
Ġl ing
ĠczÄĻ sto
ĠPh Æ°Æ¡ng
ĠJose ph
ĠHil fe
ĠEnerg y
Ð°ÑĤ ÑĥÑĢÐ°
w alt
ul er
id ents
ge h
Ġstr onie
Ġe ight
Ġbu on
Ġbl ess
Ð°Ð´ ÑĮ
st wo
ĠÐºÐ¾Ð½ ÑĦ
ĠÐ²Ñĭ Ð´
Ġlay er
Ġin izio
Ġconst ante
Ġaz ul
Ġ10 80
ãĥĲ ãĥĥãĤ°
Ð¿Ð¸Ñģ Ð°Ð½Ð¸Ðµ
ÐµÐ² Ð¾
z inha
o e
ert os
ed om
F l
Ġprob able
ĠV irt
ĠR at
Ġ19 88
g ado
for ce
ĠÑģ ÑĦ
Ġopen ed
Ġfund s
Ã¤ hl
g eg
a ÅĤ
ĠÑĦ Ð¸ÑĢ
Ġprzy sz
Ġoccas ione
ĠS ize
ĠI ts
à²¾ à²
Ä Ħ
st att
ĠÐºÐ°ÑĩÐµÑģÑĤÐ² Ð°
Ġw sz
Ġsound s
Ġprop io
Ġin west
Ġcl Ã¡s
Ġc row
Ġref lex
Ġmoder ne
Ġcons igli
Ġb ike
ĠV ot
ĠEsc ort
ãĥĵ ãĥ¥ãĥ¼
AN S
ĠPant al
ĠIng l
ĠE ig
ÃĲ ÃĲ
ĠãĥĹ ãĥŃ
Ġgener ation
ĠS á»ĳ
ĠGiovan ni
ãĤĴæ Ħ
Ãª me
if ico
N 0
Ġæľ ª
ĠÃľ bers
Ġt ube
Ġcal or
G L
ĠÐŁÑĢÐ¾Ñģ Ð¼Ð¾ÑĤÑĢÐ¾Ð²
Ġprincip ais
Ġg ens
ĠS ource
ĠS IM
éĢ Ķ
ãĥģ ãĥ¥
or ta
Ġne ben
Ġfr onte
Ġbus cando
ĠL ire
ov en
it an
IN S
Ġweb sites
Ġkos zt
Ġcon ver
ĠCrist o
z ionale
bl ock
ĠÐ¼ ÐµÐ±
Ġst ellen
Ġsl ots
Ġinc ent
Ġfant astic
ĠC U
Ã¤ mp
9 00
Ġpos so
ĠKe ep
å± ŀ
ãģªãģı ãģ¦
Ã¡nd ose
ger y
ĠÐ¿ÑĢÐ°Ð² Ð¸Ð»ÑĮÐ½Ð¾
ĠÐ²Ð· Ð°
ĠL ed
ãĥ³ãĥ ķ
ann ten
ĠÐ¼ Ð°Ð½
Ġt Æ°á»Ľng
Ġher ramient
Ġexp ensive
Ġdin ner
el ly
Ġg amb
Ġd ining
Ġcr ise
Ġalco hol
ĠCÃ³d igo
ç łĶç©¶
d as
Ġmention ed
ĠOp in
ĠEsp anol
çŃ Ķ
ato ire
ate ar
Ġãģ ²
Ġval u
Ġcas as
ĠMe x
Ġshow ing
Ġne hmen
ĠV ille
Ġim plic
Ġd Ã³l
Ġacc ompl
ĠE ra
Ġ5 50
li x
ie la
F O
ĠÃº til
ĠW ien
ĠInvest ig
m ore
ci es
Y 2
ĠÐ°Ð²Ð³ÑĥÑģÑĤ Ð°
Ġv Ã¡rios
Ġsu gar
Ġsho es
Ġder iv
ĠB áº£o
ï¾ ŀ
ago za
Ġæ Ļ
ĠÑĩ ÐµÑĤÑĭ
Ġeben falls
ĠdÃ© fin
Ġcompr end
Ġauc un
Ġ36 5
ãĤī ãģĽ
Ðº Ð¸Ð½
ch ÄĻ
S h
Ġä¸ ĸ
Ġbl anco
ĠRes pons
å¤ ±
w iz
Ġd uda
ĠM Ã£
ĠK B
ĠBuen os
v ida
ig te
W A
ĵ ģ
Ġdeta iled
ĠR i
á»« a
Ðķ ÐĿÐĺ
icz ny
ic are
Ġmes a
ĠNach t
ir urg
Ġtr uth
Ġcli enti
ĠAn uncios
Ġ3 90
å®¢ æ§ĺ
Ġph i
Ġl ingu
Ġgiov ani
Ġdis count
Ġbisog no
c d
I ES
ĠÐ°Ð²ÑĤÐ¾Ð¼ Ð°ÑĤÑĭ
Ġram ach
Ġoc en
Ġl Æ°á»£t
Ġk ia
ĠczÅĤ owie
Ġapp e
Ġad vis
ĠT Æ°
ĠSch laf
Ã¤s ent
le ben
Ġx áº£y
Ġsl ide
Ġinf in
Ġdecis ions
Ð¸Ð½ Ð°ÑĢ
Ð°Ñĩ Ð¸
ÃĬ Ãĩ
ĠÐ² Ð°Ð»
Ġw rote
Ġs enc
ĠV ente
ĠÑı Ð²
ĠÑģÐºÐ°Ð· Ð°Ð»
ĠÐĳ ÐµÐ·
ĠÐ²Ñĭ Ð·
Ġregister ed
Ġrece ber
Ġform azione
Ġart yku
ĠRe i
Ġword en
æĴ ®
åħ Ĳ
Ġvol unt
Ġv iej
Ġm áº¯c
Ġm Ã¡i
Ġfer ro
Ġcor ner
éŁ ¿
å· ŀ
ãĥ³ãĤ ³
p y
ĠÑĢ ÐµÑĨÐµÐ¿
ĠÐĿ Ð°Ð´
ĠÐ¼ÐµÐ¶Ð´ ÑĥÐ½Ð°ÑĢÐ¾Ð´
Ġihre m
Ġch arm
ĠLib ert
æĽ ľ
ãĤ¤ ãĥ¬
Ð¼ ÑĥÐ½
rawd ÄĻ
ho f
cze ÅĽniej
ĠÐĴ ÐµÐ´
Ġpass age
Ġmod Ã¨le
Ġmo je
yw at
iss a
en os
P art
EN A
Ġart ific
Ġa Å¼
ĠX box
ĠB ianco
Ġstr at
Ġmar Ã§o
ĠPr est
ĠÐ¿ÑĢÐµÐ´ ÑĥÑģ
Ġsp Ã¤ter
Ġre te
Ġd ust
Ġcur ios
ĠPr zed
ĠD og
Ã© tique
ĠÐ¿ÑĢ ÐµÑģÑĤ
Ġw ers
Ġother wise
Ġhid den
Ð°Ð½ ÑĮ
ĠÐ´Ð¸Ð· Ð°Ð¹Ð½
Ġrecord s
Ġpl astic
Ġnumer ous
ĠYo ung
ĠWord Press
ĠJo h
ĠF lex
ĠÑĥÑĤ Ð²ÐµÑĢÐ¶Ð´
ĠÑģÐºÐ°Ð· Ð°ÑĤÑĮ
Ġtro ppo
Ġex cl
Ġdoll ars
ĠN utz
ĠFit ness
Ġ" -
ç¯ ī
l oc
ific ados
Ġra ff
Ġpro ud
Ġcover age
Ġconf ig
ĠNot ÃŃcias
æĬ ķ
Ġpo zy
Ġconform e
Ġapp lied
Ġa ider
ĠPh ys
ĠGes undheit
ĠB elle
åľ §
Ġwy bor
Ġdiabet es
ĠVal encia
ĠTe atro
iáº¿ p
ic ato
ĥ ħ
Ġteach ers
Ġcall s
Ġa rom
l ungs
ik an
; ;
Ġsqu are
Ġrob ot
ĠN ic
ĠHa ppy
eng u
Ġwh atever
Ġt iá»ĥu
Ġo e
ĠB atter
ard ino
ĠÅĤ at
Ġse tembro
Ġqu atro
ĠB oth
ina is
acion ais
ĠÐ½Ð°Ð¿ ÑĢÑı
Ġth us
Ġpre ven
Ġpl ano
ĠintÃ©r ess
ĠSch m
ĠK as
ĠCop a
ter es
M e
Ġprote cted
Ġenfer med
ĠK la
ĠAL L
Ãģ Ãĭ
ĠãĤµ ãĤ¤ãĤº
ĠÐ¿ÑĢÐ¾ÑĨ ÐµÐ´
Ġprov ider
Ġnov embro
Ġles bianas
Ġbecom es
if iz
hn ach
P H
Ġwer de
Ġsit uaÃ§Ã£o
Ġrecomm ended
Ġdispon ibile
Ġdeb ido
ĠUk ra
ĠC Ã¡mara
ĠÐ¿Ð¾Ñģ ÐµÑĤ
ĠÐ´Ð°Ð½ Ð½ÑĭÐµ
Ġcen y
ĠV enta
ĠT ouch
Ġ2016 å¹´
Ð¾Ð² Ð¾Ðµ
Ġsch w
Ġhon est
Ġconv oc
Ġ" "
ÑģÑĤ Ð°
iá»ħ m
20 2
ĠÑįÐºÑģÐ¿ Ð»Ñĥ
Ġr ural
Ġproced ure
Ġpass a
Ġn ies
ĠL OS
ĠDet ails
ä½ĵ é¨ĵ
ent ro
Ġsp ed
Ġapp li
wiÄĻ ks
rit er
P I
ĠÐ¼ Ð¾Ð¹
Ġmar cas
Ġind ir
Ġdir itto
Ġc Ã¢
Ġam Ã©rica
ĠSeb ast
ak ty
Ġm áºŃt
Ġdet alles
ĠB ody
ãģ®æ ķ
ig ten
ĠÐ²ÑĭÐ³ Ð¾Ð´
Ġsh ap
Ġpok er
Ġd áº¥u
ĠM ike
á»Ľ m
met ros
Ġpued a
Ġnum eros
ĠServ i
ĠPerform ance
ĠD enn
Å »
Ġlu ogo
Ġcor ret
Ġcan cel
Ġacomp anh
ĠS omet
ĠH iá»ĩn
Ð° ÑĨÐ¸Ð¹
ug s
iáº¿ ng
ais se
V O
Ġnuest ras
Ġczerw ca
ĠSo ft
Ñı ÐµÑĤ
Ġmov il
Ġm áº¥y
Ġents prech
Ġbit te
Ġ3 30
ãĥ¡ ãĥ¼ãĥ«
Ġè¿ Ķ
Ġnom in
Ġmen cion
Ġinvestig aciÃ³n
Ġdob ry
Ġdo ors
ĠWednes day
ĠP ir
ĠI ra
ĠBe fore
è¶ ħ
å® ¿
Ðł Ñĳ
ĠÐĳ Ð°ÑĢ
Ġde posit
Ġcou leur
Ġand roid
ĠR ol
ãĥĥ ãĥķ
Ð»ÐµÐ½ Ð½ÑĭÑħ
oo oo
Ġ( ...
Ġtak i
Ġstrateg ies
ĠpolÃŃt icas
Ġhapp ens
ĠMitarbeit er
æİ Ľ
ĠÐºÐ½Ð¸ Ð³Ð¸
Ġse at
Ġre put
Ġparticip ar
Ġex pression
Ġåħ ¬
Ġp urs
Ġabsolut ely
ãģ®å ¯
ÑıÑĤÑĮ ÑģÑı
sche in
k owa
P M
ĠÐ¦ ÐµÐ½ÑĤÑĢ
Ġdev em
Ġay ant
Ġ/ ?
åĩº ãģĹ
áº· n
Ð¾Ð· Ð¸ÑĤ
m niej
geb er
erc io
Ġéĸ ¢
Ġllev ar
ĠReg el
ĠEn cu
æ©Ł èĥ½
ãĤĮ ãģ¾ãģĻ
e urs
Ġvia ggi
Ġdis cr
ini um
c kt
ı Ĳ
Ġth Ã¡i
Ġp ian
Ġl Ä©nh
Ġeffic ace
ĠNue vo
cz ka
Ġth áº©m
Ġperson ales
Ġcontr ast
ĠG ot
leit ung
ĠÐ½ Ð°Ð½
Ġult ra
Ġm ast
Ġexc ited
Ġb ede
ĠP K
ĠB ene
ãģ¾ãģĽãĤĵ ãģĮ
T H
ĠÐ¶ Ð¸Ð»
Ġten ha
Ġquel que
Ġpot er
Ġn á»ĳi
Ġmigli ore
Ġde vo
Ġann ivers
è ´
çĬ¶ æħĭ
ĠÐľÐ¾ÑģÐº Ð¾Ð²
ĠÐ²Ð¾Ð·Ð¼Ð¾Ð¶ Ð½Ð¾ÑģÑĤÐ¸
Ġprz em
Ġl iá»ģn
Ġch ron
Ġcele bra
j es
acyj ne
Ġopp ure
Ġequ ival
Ġc ursos
ĠJe ans
Ġ2017 å¹´
å°Ĥ éĸĢ
ig as
d ed
ĠÐ¿ Ð°Ð»
Ġw iad
Ġsp azio
Ġense ign
Ã¶ffentlich t
b il
Ġt ast
Ġpo Å¼y
Ġch áº¥p
Ġban co
çĶ· æĢ§
ÑģÑĤÑĢÑĥ ÐºÑĤ
h abil
ĠÐ°Ðº Ðº
Ġverschied enen
Ġpropr iet
Ġjes tem
Ġdu ro
za Äĩ
oc e
ali ÅĽmy
Ġj em
Ġc Å©
ĠUnivers idade
ĠThe ir
ç ¦ı
ãģ£ãģ ±
ĠÐĳ Ð»Ð°Ð³
Ġmane ira
Ġd ando
Ġcr ime
ĠUp date
ĠU no
Î ¹
am ew
ĠÑģÑĤ ÐµÐ¿
ĠÐ¾Ð± Ñģ
Ġty god
Ġth Ã©
Ġm áº·c
Ġfix ed
ĠIn v
ç¥ Ŀ
ãģĪ ãģªãģĦ
ier to
88 8
ĠÑģÐµÐ· Ð¾Ð½
ĠÐ² ÑĢ
Ġter reno
Ġod by
Ð°ÑĤ Ð°ÑĢ
Ġè² ·
ĠÑĤÑĢ ÐµÑħ
Ġstr ada
ĠU BN
ãĤį ãĤĵ
Ð¾Ñħ ÑĢÐ°Ð½
it ado
Ġqu anh
Ġpos izione
ĠC uba
è ŀį
Ãºs qu
schn itt
ł Ģ
ĠÑĤÑĢ ÐµÐ½
ĠÐ¿ Ð¸ÑģÑĮ
ĠÄĳ u
Ġmin ister
Ġlos e
Ġfel ic
Ġdat abase
ĠS ale
ĠG eg
ico le
ĠVict oria
ĠM all
ĠJ ur
ĠBit coin
zen iem
Ġâ Ŀ
ĠÐ» ÐµÑģ
Ġzam Ã³w
Ġvis ible
Ġprincip ale
Ġclos ed
Ù Ĩ
ist ry
im enta
Ġãĥ ´
ĠÐĴ ÐµÐ»Ð¸Ðº
Ġtas te
Ġle ider
Ġcon to
ĠM au
ĠHist or
Ò ĳ
Ð¸Ð» Ðµ
r ies
ĠÑįÐºÑģÐ¿ ÐµÑĢÑĤ
Ġenvir onnement
Ġam ici
Ġafford able
ĠAl ta
å± ħ
ä½ľ æ¥Ń
Ð»ÐµÐ½ Ð½ÑĭÐµ
ifi Ã©
Ġprodu z
Ġdiv id
Ġ28 0
æĸ¹ ãģ¯
åĭ ¤
ãģ®å Ĭ
ãĢ İ
Ã§a ise
ĠÐ¾ÑģÐ½Ð¾Ð² Ðµ
ĠÐ¤ ÑĢÐ°Ð½
ĠÃ ¾
Ġlib rary
ĠdziaÅĤ al
ĠMar ina
an j
ĠÐ¾Ð± ÑģÐ»ÑĥÐ¶
ĠW ald
ĠC ath
_ L
ĠÃ© cr
Ġunter stÃ¼t
Ġhab lar
Ġbas ta
Ġb ow
ĠP uerto
ph ere
ĠÐ¿ÑĢÐ°Ð² Ð°
Ġfem in
Ġ... "
ÑĥÐ´ ÑĮ
Ð°ÑĤ ÑĥÑĢÑĭ
az y
Ġsig ue
ãĥĩ ãĤ¶ãĤ¤ãĥ³
Ñģ ÐµÐ´
teil ung
Ġpia ce
Ġdescrib ed
ĠN ok
ĠK opf
Ġv ite
Ġparf ait
Ġcient ÃŃf
Ġch á»¯
ĠUBN D
ĠMe et
D es
ĠÐ¿ Ð¾Ð¿ÑĢ
ĠÐ¡Ð¾Ð¾Ð±Ñī ÐµÐ½Ð¸Ðµ
Ġgra b
Ġequip os
Ġbecom ing
ĠM AT
ĠEst amos
Ġlong o
ĠkaÅ¼ dy
ĠSen ior
ĠM Ã¤n
Ð¾Ñĩ ÑĮ
Ã³s ito
ict ions
htt p
ed as
ag ÄĻ
ĠÑįÑĤ Ð°
ĠÐ·Ð°Ð¼ ÐµÑĤ
ĠÐ´ Ð¸Ñģ
Ġsp ectac
Ġrema ins
Ġmies iÄħ
Ġm unicÃŃp
ĠR h
ĠO C
Ð°Ð¼ Ð¸Ð½
ro up
c ka
ĠÅ¼ ad
Ġst ile
Ġfun ktion
Ġaut ant
ï½ ¥
çİ ī
Ð°Ð½ Ð½Ð¾Ð¹
ver b
ra wi
ĠÃ© qu
Ġsoll en
ĠN C
ĠGÃ¤ ste
ç »
let as
era i
Ġminim al
Ġfor get
ãģ®å į
Ñĥ ÐºÐ¾Ð²
l iga
k owy
Ġç «
ĠÐ´Ð¸ Ð°Ð³
Ġv ibr
Ġt ail
Ġb ons
ĠA i
vest i
ps on
Ġqualc osa
Ġl ata
Ġb ib
ãĥ¡ãĥª ãĤ«
ãģ®è ³
Ð¸Ð¼ ÑĥÑīÐµÑģÑĤÐ²
uj a
se y
ĠÐ´Ð¾Ð» Ð»
ĠrÃ©sult ats
ĠXu Ã¢n
Ð°Ð½ Ð°Ð²Ð»Ð¸Ð²
on ic
Ġvert ical
Ġcons olid
ind et
ess es
Ġw iz
Ġc Æ°á»Ŀng
ĠM ED
ĠA vis
ted y
ec i
Ġpol ity
Ġcomb at
ĠVer y
ĠR EC
ĠM un
ï¼ £
ra z
ĠÐ¿Ð°ÑĢÑĤ Ð½
Ġtre es
ĠrÃ© uss
Ġa Ã§Ãµes
ĠDies er
se x
Ġåİ Ł
Ġf ro
Ġd agli
ĠPol y
ĠB oy
x ic
ish ing
U U
Ġstycz nia
Ġman h
Ġm iá»ģn
Ġdest ru
Ġcomm ission
Ġaccess ible
ĠB ear
ib o
fall en
ĠÐ¼ÐµÑģÑı ÑĨÐµÐ²
ĠSch utz
ĠNE W
Ġ7 30
Ġ12 7
éĩĳ ãĤĴ
ä¹ ħ
od i
hand lung
an ho
45 6
ĠÐ¿Ð¾Ð´ ÐºÐ»ÑİÑĩ
ĠÐ² Ð¸Ð·
Ġ14 5
æĺ Ł
åı ²
t ure
ĠÐ¿ Ð¸ÑĪ
Ġteach er
Ġt áº¥n
Ġsim ul
Ġmie Äĩ
Ġhappen ed
ĠCOM P
ãĥ¼ãĤ ¶
ÅĦ ska
Ġw iem
Ġlá» Ĺi
Ġdesn udas
ĠV ale
ĠP ink
Ð³ Ð¾ÑĢÐ¾Ð´
ous s
og ar
ĠãĥĹ ãĥ¬
ĠÐŀÑĩ ÐµÐ½ÑĮ
Ġc áºŃu
ãģ®å¥ ³
Ġt oll
ĠhÃ¤t te
Ġh yp
Ġd ura
ĠMed ical
è¨Ģ ãģĨ
Ġãĥĩ ãĤ£
ĠSz cz
ĠEspa Ã±
w ic
id el
Ġè² ¡å¸ĥ
Ġs áº¡n
Ġpres enza
Ġde d
Ð°Ð· Ð°ÑĤÑĮ
Åº niej
p en
ich i
Ġx Ãºc
Ġne uro
ĠUr laub
ĠC ena
ĠãĤ¹ ãĥŀ
Ġsign al
Ġres ource
ĠSh irt
ĠG eme
ãģ¯ ãģĦ
Ð¾Ð¹ ÑĤÐ¸
Ġå£ ²
ĠÑĥÑĢÐ¾Ð² ÐµÐ½ÑĮ
ĠÐ¢ ÐµÐ¼
Ġz we
Ġdem asi
ĠHar ry
ãĥ¼ãĤ °
ĠÐ¥ Ð¾ÑĤ
Ġo x
Ġbek annt
Ð¾Ð²Ð°Ð½ Ð¸ÐµÐ¼
ak u
ĠÐ¾Ð¶ Ð¸Ð´
Ġy es
ĠprÃ³ xima
Ġk id
Ġinter face
Ġfor ces
Ġfe es
Ġczy n
Ġcharg es
ĠGre y
ÐµÐ½ ÑĨÐ¸Ð¸
ba o
77 7
ĠÐļ Ð°Ð»
Ġin oltre
Ġcons omm
ĠVerfÃ¼g ung
ĠSystem s
ĠK Ã¶n
Ġ,, ,
ard ia
Ġlap top
ĠTh rough
is her
he in
Ġrel aciones
ĠS out
ĠPare jas
ĠKle in
á»Ļ n
ÃŃ c
g aben
ĠÑĢÐµÐ·ÑĥÐ»ÑĮÑĤ Ð°ÑĤÐµ
ĠÄĲ áº§u
Ġprz et
Ġid Ã©e
Ġbu á»ķi
ĠOdpowied zi
ĠAus wahl
ĠAn ne
ãģ§ãģĻ ãģĭ
po int
et ten
Ġz usÃ¤tz
Ġapart ment
ĠS yr
ĠJ ew
l ub
V er
Ġre pos
Ġout put
Ġelet tr
ĠWe iÃŁ
ĠStr ona
ĠQu áº£ng
ĠMo Å¼
Ð² Ðµ
ni Äĩ
IV E
ĠÑĤÑĭ Ñģ
ĠÐ° Ð·
Ġzm ian
Ġpes ar
Ġform ul
çİ ĭ
ãĥĿ ãĥ¼ãĥĦ
Ð½ ÐµÑģ
ĠÑĩÑĥÐ² ÑģÑĤÐ²
ĠÐ²ÑĤÐ¾ÑĢ Ð¾Ð¹
Ġth Ãº
Ġmov ies
Ġentre t
Ġde part
Ġcontr ato
ĠPre ise
ĠJun ior
p ath
ĠÐŁ Ð¾ÑĤ
Ġre vol
Ġpour quoi
Ġpass Ã©
Ġk lient
ĭ äºº
Ġraz em
Ġmark ets
ĠMÃ¼n chen
ĠDI Y
ĠB S
ienn ent
ci ano
ĠÐ± Ð¸Ð»
Ġt Ã³c
Ġo ko
ĠDistr ict
ĠAl ors
ãģ®å Ľ
st re
ili ar
ens ter
ĠÐ¿ÑĢ ÐµÐ¶
ĠÐ´Ð² Ðµ
Ġpres enti
Ġibex_ room_grid_
ĠK m
ĠD in
ĠAn th
ãģĭ ãģªãģĦ
Ð¾Ð² Ð°ÑĤÑĮÑģÑı
roc ÅĤaw
itu ciÃ³n
Ġthous ands
Ġsoc io
Ġreci pe
Ġp end
ãģ«ãģĬ ãģĦãģ¦
ĠÐ¢ ÑĥÑĢ
Ġpass ado
Ġgr am
ni Äħ
k im
ind ing
ĠÐ¿ÐµÑĢ ÐµÐ¼
Ġsc ene
Ġofert y
Ġer m
Ġdire cciÃ³n
Ġb ain
ĠT RA
ĠN ature
Ġé ħ
ĠÑĥÐ» ÑĥÑĩÑĪ
ĠÐ» Ð¾Ð³
Ġpublic z
Ġning Ãºn
Ġag ency
w ear
Ġv ient
Ġlo in
Ġel las
Ġa cept
ĠW Ã¼r
è Ĺ¤
m als
ab lo
ĠãĤ¯ ãĥª
Ġcy cle
ĠSpe ed
enz iale
ĠÑħÐ¾Ð·Ñı Ð¹
ĠÐľ Ð¾Ð¶Ð½Ð¾
ĠÃ© tr
Ġde in
Ġcol omb
ĠK or
Ġ16 5
åº ·
áº ¾
Ð¸Ñģ Ð¾Ðº
ĠÐ±Ð»Ð¸ Ð·
Ġass ol
Ġad s
ãģı ãģ¦
ot as
Ġx o
Ġr are
Ġnav eg
Ġav ais
Ð¾Ñĩ Ð½ÑĭÑħ
Ð¸ ÑĨÐ¸
Ġrapp orto
Ġpr atique
Ġo ub
Ġcomp are
Ġcl ip
Ġapo yo
Ġad ecu
ĠN Äĥm
ĠB ard
æ Ĩ
ĠÑĤÐµÐ± Ñı
Ġt ickets
ĠCar r
ï½ į
Ðľ Ðĺ
b est
B B
ĠÑĤÐ°Ðº Ð¾Ð³Ð¾
ĠÑĤÐ°Ðº Ð¸Ð¼
Ġor al
ĠdÃ©cou vrir
Ġc ass
ĠIhre m
ãģ¡ ãĤįãĤĵ
es po
Ġç ¤
Ġpes quisa
Ġnh a
ĠPrin cip
âĢ ĵ
Þ¦Þ ĩ
cul os
ach er
Ġé ł
Ġ2018 å¹´
ãĥĥ ãĥĶ
ãĤ· ãĥªãĥ¼ãĤº
ĠÑĢ ÑĥÑĩ
ĠÐ´ ÐµÑĢÐ¶
Ġst ores
ĠRe is
ĠPol ic
ĠK á»³
ĠDe fin
è¿ İ
cz ny
_ P
ĠÐ¿ÑĢÐ¾Ð¼ ÑĭÑĪÐ»ÐµÐ½
ĠÐ· Ð°Ð¹
Ġadult s
ĠP ont
ĠM ak
ĠItal ian
ĠIs lam
ĠCar olina
ĠA ward
crip ciÃ³n
ĠÐ² Ð¾Ðº
Ġbl oc
Ġakt ual
ĠWilli ams
ĠO fer
ĠH Ã²a
æµ· éģĵ
r ada
m ina
ieste ty
enci es
ĠÐ¿ÑĢÐ¾ ÑħÐ¾Ð´
ĠÐ²Ñĭ ÑģÑĤÐ°Ð²
Ġser wis
Ġmoy en
ãĥĭ ãĥ¥
se a
G I
ĠÐĹÐ´ ÐµÑģÑĮ
Ġpolic ies
ĠGl as
ĠFir ma
ĠF riend
åĭķ çĶ£
Ð¾Ð·Ð¼Ð¾Ð¶ Ð½Ð¾
Ãº do
ycz nie
p ia
Ġnov as
ĠktÃ³re go
Ġencont ra
Ġch im
ĠAR T
â Ĩ
jÄħ ce
int ure
ĠÐ½ÐµÐ´ Ð²Ð¸Ð¶
Ġped ido
Ġfor eign
Ġcons iste
ĠSm all
Ã¼n f
CI AL
ĠÑĥÑĢÐ¾Ð² Ð½Ñı
Ġkwiet nia
Ġj Ã³venes
Ġest ruct
Ġd Ãº
ĠT ipo
ĠL ip
ĠK H
Ġ12 9
é¦ Ļ
ap or
Ġroz wiÄħz
Ġcomun idad
Ġbel la
Ġ) -
å½ ©
iv ali
Ġáº¢ nh
ĠÐºÐ¾ÑĤÐ¾ÑĢ ÑĥÑİ
Ġresid ents
ĠSch ne
ĠR OM
ĠÐ° Ð¼
ĠÅĽ red
ĠÃ ²
Ġsvil upp
Ġposs ui
Ġn ÃŃvel
Ġlim ite
ĠEnts cheid
ĠC ada
Ġ( @
ãģ® ãģŁãĤģ
p Ã¤
an cias
Ġop is
Ġcoment Ã¡rio
ĠSER V
ĠA rea
ÌĢ i
ic ante
ĠÐ¸Ð· Ð¾Ð±ÑĢÐ°Ð¶
Ġty pu
Ġpres erv
Ġlu ce
è£ ľ
ÐĲ ÐĹ
Ð¾ Ð¸
itÃ¤ ten
ĠÑģÐµÑĢÐ² Ð¸Ñģ
Ġcz ar
Ġb Ã¡nh
ĠF ot
ĠÐŀÑĤ Ð·ÑĭÐ²
Ġsig u
Ġsem i
åŃ¦ æł¡
ãģĻ ãĤĮãģ°
Ð¸ÑĢÑĥ ÐµÑĤÑģÑı
ric ul
ĠÐ¾ÑĢ Ð¸Ð³Ð¸Ð½
ĠÐ´ Ð¶
Ġnu Ã´i
Ġf ille
ÑĢÐ¾Ñģ Ð»
ute t
IT Y
Ġãģĵ ãģ¡ãĤī
ĠÑĢÐ°Ð¹ Ð¾Ð½Ðµ
Ġx uyÃªn
Ġto ward
Ġprev isto
Ġn ike
Ġis land
Ġent ren
ÐµÐ² Ð¸Ð·
ĠÐ½ ÑĢÐ°Ð²
Ġwsp Ã³l
Ġtet onas
Ġqu áº§n
ĠmÃ©d ico
Ġcorpor ate
Ġcont ato
p in
orzy sta
ĠÐ¿ Ð¸Ñī
Ġwrze ÅĽnia
Ġl anc
Ġex change
Ġde partment
ĠTh iáº¿t
ĠR as
ĠFrances co
ug o
isse z
id ung
ĠÑģ ÐµÐ»ÑĮ
ĠP oss
ĠM ind
ĠCle an
AM A
ĠÃ© x
Ġsucc esso
Ġperc orso
Ġobten er
Ġat ta
ĠInde pend
ãģĹãģ¾ ãģ£ãģŁ
Ð°Ð½ Ð´Ð°
zeich net
ĠJ ones
ist ico
ĠâĢ ³
ĠÐ¾ Ð²
Ġth ao
Ġch annel
Ġart ists
ute bol
Ġbis her
ĠG ab
å «
un ted
Ġqu attro
ĠCo ach
Ġ" /
å¾ ¡
å® Ī
te ile
it age
Q iO
ĠÑĥÑĩ ÐµÐ½
ĠSu ite
ãĤı ãĤĮãĤĭ
Ġpr ise
ĠPr int
ĠCam pe
aw ia
ĠÐ¾Ð±ÑıÐ· Ð°ÑĤÐµÐ»ÑĮ
ĠwÅĤa ÅĽci
Ġth row
Ġng á»ĵi
ĠM ostrar
ua wei
gior no
ĠÂ¡Â °
Ġv ill
ĠSe a
Ð»Ð¸ ÑĪ
ID A
1 30
Ġm os
Ġbr ings
ĠIn cl
t own
Ġun iform
Ġbl ind
ĠQu er
ĠL it
ĠDr ive
ĠD ort
ĠCh u
ĠC ela
ĠÐµ Ð´
Ġprzy p
ĠGo verno
ãģ«ãģª ãĤĬ
ir ro
Ġproper ly
ĠE E
ĠCor re
æŃ Į
ycz nej
ĠÐºÐ°Ð¿ Ð¸ÑĤ
Ġsp ending
Ġsol a
Ġpres ence
Ġfac ult
ĠcÃ³d igo
ĠTor re
ĠJo e
Ġå Ń¦
ĠÐºÐ¾Ð¼ Ð¼ÐµÐ½ÑĤÐ°ÑĢ
Ġgu ess
Ġgener ale
ĠWh ats
ĠD abei
Ð¸Ð» ÐµÐ¹
Ġnh á»Ŀ
Ġme ant
Ġman aged
Ġdi o
Ġand are
ĠH á»
ĠBl ock
Ġ12 2
ĠÐ´ÐµÐ½ ÐµÐ³
Ġv itt
Ġtre m
Ġperf il
Ġliv res
Ġhum or
Ġdesign er
ĠEnerg ie
ĠDon ald
wend ung
ĠÑĦ ÑĢ
Ġgouvern ement
W U
Ġfor se
ĠMod ell
ĠL ew
ĠG ir
âĦ ¢
li ÅĽmy
ĠÐ¼Ð½ Ð¾Ð¶
Ġdest ination
ĠQu el
ĠN iem
ĠF act
æľ ª
Ġsu itable
Ġinter Ã©s
Ġen gl
Ġcaus ed
ï¼ ¯
siÄĻ bior
as is
Ġun its
ĠpÃºblic os
Ġexc iting
Ġdest ino
ãĤ¹ ãĥ¡
Ã¤ch st
ĠÐľ Ð¾Ð´
Ġsim il
Ġdec re
ãĥĭ ãĤ¢
Ġsol u
Ġpas a
Ġpa ir
Ġinclus ive
Ġf ato
ĠN ick
ĠB ere
est i
F or
ĠÐ½Ð°Ð´ ÐµÐ¶
ĠSpiel er
ÐµÐ¹ Ð½
Ġpr w_
Ġencour age
ĠWer k
Ã¼ ge
par tement
ĠÐ¡ ÑĤÐ¾
Ġng on
ĠLu ft
æŁ» å®ļ
Î º
y z
ĠÐ¿Ð¾ÑģÑĤ ÑĢÐ¾
Ġvol ver
Ġsu chen
èĤ Į
â Ļ
Ð± Ðµ
ĠÐľ Ð¸Ñħ
ĠÐ¿ ÑĭÑĤ
Ġperform ed
Ġnot te
Ġem pr
Ġcontin ues
Ġcon ci
ÐµÐ´ ÐµÐ½Ð¸Ñı
ies en
gl iere
ĠÑį Ð¿
ĠÑĤÑĢÐµÐ± Ð¾Ð²Ð°Ð½Ð¸Ñı
Ġvul ner
Ġtrans ition
ÐºÐ¾ Ðµ
Ð¸Ð½Ð³ Ð°
Â¡Â £
Ġãģ¾ ãģļ
Ġod w
ĠM oto
ĠAb b
Ġ Æ¡n
ÐĲ ÐĿ
ent as
ı a
ĠÑģ Ð¸Ð´
ĠÐĴÐ»Ð°Ð´Ð¸Ð¼ Ð¸ÑĢ
Ġz atr
Ġ3 33
å¾ ´
å ©
ä¸ ¡
Ð°Ñı ÑģÑĮ
un ning
ĠÑĤÐ¾ÑĢÐ³ Ð¾Ð²
Ġterra in
Ġrun s
Ġrelationship s
Ġinstal led
Ġd olor
Ġconqu ist
ĠCam po
ç¨ İ
ĠÐ° ÑĥÐ´
Ġser ÃŃa
Ġam azon
ãģķãĤĵ ãģ®
Ð°ÑİÑī ÐµÐ¹
a e
ĠÐ¿Ð» Ð¾Ñħ
ĠÐ¾ Ñī
ĠÐ¸Ð½ÑĦÐ¾ÑĢÐ¼ Ð°ÑĨÐ¸Ñı
Ġth áº£o
Ġlegg ere
Ġd ance
ĠPar l
èį ·
Ð°ÑĤÐ¾ÑĢ Ñĭ
hold ers
c op
Ġpac ientes
ĠduÅ¼ o
ĠR U
ĠFor ce
be k
ĠÐŁÐ¾Ð´ ÑĢÐ¾Ð±
ĠÄĳ em
Ġper ten
Ġown ed
Ġk ro
ĠUn is
qu o
Ġtut aj
Ġfacil ity
Ġd áº¡y
Ġcontro le
Ġav uto
ocia ciÃ³n
Ġcar ne
ĠLa ura
ĠH Ã£y
æĭ ħ
Ġj ump
ĠD ach
ob acz
art i
W E
ĠÐ½ÐµÐ¼ Ð½Ð¾Ð³Ð¾
ĠÐ²Ð¾Ñģ ÑģÑĤÐ°Ð½Ð¾Ð²
Ġter re
ĠN ort
ĠE asy
Ġ á
Ã¡f ico
bar en
ĠÐºÐ¾Ð½ÑĤ Ð°ÐºÑĤ
ĠÄĲ Äĥng
Ġrom an
Ġn orth
Ġint Ã©rieur
Ġcap able
ĠB ase
ç®¡ çĲĨ
ãģĹ ãĤĪãģĨ
Ñĭ Ñģ
uch te
ot ion
Ġtrabaj ar
Ġprop ia
Ġe ating
ĠE leg
ÐĽ Ðĺ
ab ol
ĠÐĿ Ð°Ð·
Ġph iÃªn
Ġph ilos
Ġfav our
Ġapp artement
ĠRe cher
ĠK now
ĠGovern ment
y ki
ie ta
fl ow
bie ter
ĠÐ´ ÑĢÑĥÐ·
Ġjog os
ï¼ ı
ãĤĤ ãģĤãĤĭ
ÑĥÐ±Ð»Ð¸ ÐºÐ¾Ð²Ð°Ð½
Ġæľ ī
Ġs á»Ľm
Ġk ing
Ġcontr ario
Ġann once
Ġanim als
ĠAlber to
Ðł Ðħ
ost ante
im al
ast re
ĠÐ°Ð²ÑĤÐ¾Ð¼Ð¾Ð± Ð¸Ð»Ñı
ĠÐ° ÑģÑģ
ĠÂ¡Â ±
Ġmia ÅĤ
Ġkh á»Łi
Ġac us
ost on
Ġãģĵ ãģĨ
Ġupload s
ĠtÅĤ um
Ġtur ismo
Ġh ijos
Ġg ays
ĠCom par
ĠBre ak
Ð½ Ð¾Ðº
ĠÄĳ en
Ġt amp
Ġpriv ile
Ġal i
ĠV erein
ĠSte ve
ĠL ima
ĠEr folg
qu elle
ķ ı
ĠÑģÐ¾Ð² Ð¼ÐµÑģÑĤ
ĠÐ¡ Ð¾Ð±
Ġucz est
Ġtr Ã¬
Ġsi ano
Ġc if
ĠF la
ãģ¨ ãģĹãģŁ
ĠÐļ ÑĥÑĢ
ĠÃĸ sterreich
Ġoportun idad
ĠmÃ£ i
Ġg ara
Ġdem Ã¡s
ĠDies es
Ñĥ ÐºÐ¸
ÃŃst ico
itud es
ĠÑģÐ¾Ð± Ð¸ÑĢ
ĠÐ¼Ð½Ð¾Ð³ Ð¸Ñħ
Ġsal ir
Ġpre pare
Ġmin eral
Ġcompon ents
ĠW iÄĻ
ĠPubblic ato
ĠH it
ĠC orn
çĲĨ çĶ±
N I
Ġmiejs ca
ĠT ickets
ĠFoll ando
Ð° ÑīÐµ
up a
la z
ĠãĤ· ãĥ§
ĠÑĢÐ°Ð¼ ÐºÐ°Ñħ
Ġt á»ĳc
Ġqu inta
Ġp adr
Ġder en
ĠSp ot
ĠPla za
ĠH ub
Ġj et
Ġfinal mente
Ġend ed
ĠTra vestis
ĠL icht
Ġ... ...
ier ungs
ĠÑĥÑĩ ÐµÑĤ
Ġvu ole
Ġprev iously
Ġnouve aux
Ġnecess Ã¡rio
Ġg ov
ĠNh Ã¢n
å· »
OR D
ĠÐŁÐ¾Ñģ Ð»ÐµÐ´
Ġr ynku
Ġem o
ĠM R
ĠD oll
Ñĳ Ð»
z ig
mi ot
Ġä» ķ
Ġwsp om
Ġtr áº£i
Ġspl it
ĠO M
ĠJed n
est ens
aggi ore
ĠçĻ º
ĠÑģÐ°Ð¼ Ð¾Ð¼
ĠÐ² Ð¾ÑģÑĤ
ĠÐ¡ Ð»ÐµÐ´
Ġjust ice
ĠT ap
ĠS ans
ãĤĴæ Ĭ
ÅĦ czy
ad io
ĠgehÃ¶r t
Ġexc ess
ãĤ¯ ãĥŃ
Ð¾ÑĤ Ñĥ
othe k
İ æĹ¥
ĠÐ³ Ð¸Ð¿
Ġt icket
Ġch áº¯n
Ġcam a
ĠDou ble
is an
ĠnÃ¤ch sten
Ġimag in
Ġe y
Ġcit iz
ĠWohn ung
ĠJ am
gen ommen
en co
Ġb ÅĤ
Ġaba ixo
ĠN inh
ĠChar l
Åĵ ur
Į æľĽ
Ġd esse
Ġd ates
Ġchos es
ĠZ uk
Ġ uch
âĢĶ âĢĶ
icht igen
Ġå° ĳ
Ġter Ã¡
Ġg aler
ĠAdmin istra
çµ ¶
r Ã¤n
Ġtit olo
Ġme inen
Ġknow s
Ġj este
Ġcr Ã©dito
Ġcomunic aciÃ³n
Ġcamb iar
ĠAf ric
Ð¶ ÐµÐ½Ð¸Ñı
und os
ĠÐ²ÐµÑĢ Ñħ
Ġserv ing
Ġf ly
Ġc ias
ãĥ¥ ãĥ¼ãĤº
id io
AR I
Ġå ĴĮ
Ġor ange
ĠN ET
èĦ ±æ¯Ľ
ãĥĻ ãĥ³ãĥĪ
Ã¶ bel
ys z
Ġãģ į
ĠÐ¿ÑĢ Ð¾Ð¶
ĠÐ¿ÑĢ ÐµÐ¼
Ġph a
Ġesc re
Ġdichi ar
Ġch odzi
ĠW C
ĠH A
Ð¸ÑĤÐµÐ»ÑĮ Ð½Ð¾Ð¹
Ġdom ain
Ġasp ect
Ġad resse
ĠB Ã¡o
Ã¨ ge
ta ils
ĠpolÃŃt ico
Ġl em
Ġf uel
Ġde utlich
Ġan uncios
ĠB art
ĠÐ¾Ð±ÑıÐ· Ð°ÑĤÐµÐ»ÑĮÐ½Ð¾
Ġwor ry
Ġtecn olog
Ġlors que
Ġent sche
Ġdispon ibili
ĠTem per
ĠN eben
ĠFre und
ç´ Ļ
Ð°Ð½ Ðµ
ing ungen
Ġt ela
Ġesc al
ĠReg ul
ä»¥ å¤ĸ
20 15
ĠÑģÑĩ Ð°ÑģÑĤ
Ġriv ol
Ġobten ir
Ġinter m
ĠJ orn
Ð¾Ðº Ð¾
ĠÐ¿ÑĢÐ¸Ð¾Ð±ÑĢ ÐµÑĤ
ĠÐ¿ÑĢÐ¸ Ð³Ð¾ÑĤÐ¾Ð²
Ġw es
æķ ħ
ãĥĻ ãĥĥãĥī
ãģ® å¤§
ran ken
ĠT etas
ç· ı
ĠÐ¿Ð¾Ð· Ð´
Ġzn ale
Ġinter vent
s Im
me ister
Ġé Ļ
ĠãĤ ®
ĠÐ´Ð¾Ð² Ð¾Ð»ÑĮÐ½Ð¾
Ġsyn th
Ġsecond s
Ġingred ients
ĠX e
Ġ3 80
v iv
ies e
Z Z
ĵ åĽ½
Ġæ Ĥ
Ġvit am
Ġro uge
Ġlog iciel
Ġhabit aciones
Ġgest Ã£o
Ġfal ar
Ġac erca
Ġac ad
ĠAb end
let zt
ch sel
ĠÑģÐº Ð¾Ð»ÑĮÐºÐ¾
Ġut enti
Ġrest r
Ġpl ante
Ġmom ents
Ġlay out
Ġda ughter
ĠÑģÐ¼Ð¾Ð¶ ÐµÑĤÐµ
ĠÐºÐ¾Ð¼Ð¿ÑĮÑİÑĤ ÐµÑĢ
Ġt ables
Ġl inha
Ġcomb ined
Ġbehav ior
ĠJ O
b ÄĻd
ar le
ĠÐ¯ Ð½
Ġven ir
Ġp uls
Ġloc ales
ĠT es
ĠG E
abil ities
Ġqu iet
ĠprÃ©c Ã©d
Ġci Äħ
Ġad mit
ĠAd resse
sch utz
Ġle aves
Ġinv i
ĠT ener
ĠCon ference
Ð¾Ð¿ Ð¾Ð»
idad os
D B
ĠÑģÐ¾ÑģÑĤÐ°Ð² Ð»ÑıÐµÑĤ
ĠÐ½Ð°Ð± Ð»ÑİÐ´
ĠÅ º
Ġtr en
Ġmod ello
ĠS erg
ĠLond res
ĠCo oper
âĺ Ĩ
c ÃŃa
ĠÐº Ð¾ÑģÑĤ
Ġz estaw
Ġdes ider
çĨ ±
Ġãĥ ĺ
ĠÑģ ÐºÐ¸Ð´
Ġqu Ã¡n
Ġhabit aciÃ³n
Ġg ÅĤ
Ġde ine
Ġcandid ato
Ġb ÃŃ
ĠLe hr
ts ch
Ġæ ¶
ĠÐŀÑģ Ð¾Ð±
Ġrep et
Ġnie go
Ġgu ida
Ġgest iÃ³n
ãģ¾ ãģĹãĤĩãģĨ
ãģ®æ °
Ã³w no
ion ar
ĠÐ¿ÑĢÐ¾Ð¸Ñģ ÑħÐ¾Ð´Ð¸ÑĤ
Ġre tra
Ġokre ÅĽl
Ġká» ·
Ġenvironment al
Ġden omin
ç² ¾
| |
amb i
æĪ ¿
ãĤĴ éģ¸
Ð¾Ð¹Ð´ ÐµÑĤ
Â ¥
C ON
Ġs b
Ġrespons ibility
Ġproduct _
Ġpar is
Ġnap rawdÄĻ
Ġmin er
Ġintel ig
ĠAl la
ter as
r ost
e ps
ĠÑĥ ÑĢ
ĠÐĽ ÑĥÑĩÑĪ
ĠÐ´ ÐµÑĪ
ĠÐ°Ð²ÑĤÐ¾Ð¼Ð¾Ð± Ð¸Ð»ÑĮ
Ġl unch
Ġgrud nia
ĠQu art
ĠPel iculas
ĠIs so
ĠFran Ã§o
ãĤ¹ ãĥļ
Ã² i
tr as
ou re
ank en
ĠÐ°Ð² ÑĤÐ¾
Ġst anie
Ġso f
Ġord ine
Ġid i
ĠS her
ĠPÃ¡g ina
ĠNe ue
ĠN R
qu al
fe hl
ĠÐ² Ð¿ÐµÑĢ
Ġes as
ĠO tt
ĠL ov
ĠJohn son
ĠH inter
çµ ±
ä¸ Ī
ãĥį ãĤ¹
ĠÑģÐ°Ð¼ ÑĭÐ¹
ĠÐĲ Ð·
ĠÐ½ ÐµÐ»ÑĮÐ·Ñı
ĠÐ·Ð° Ñħ
Ġv Ã£o
Ġpoder Ã¡
Ġme isten
Ġch ac
ĠAd r
Ñİ ÑĢ
ÅĽ la
Ġé ¦
Ġredu ction
Ġragaz zi
Ġconcern s
ĠS ummer
ĠEst Ã¡
Ġ: \/\/
çº ¿
eck er
ĠÑĤÑĢÑĥ Ð´Ð°
ĠÐ¾ Ð½Ð¾
Ġmas cul
Ġcu ore
ĠWyÅĽwiet leÅĦ
ĠTra in
ĠOri ent
ĠAg osto
ãģĤãĤĬ ãģĮ
ost i
Ġmost ly
Ġc aliente
ĠU P
ĠLe ia
ĠL au
Ġ= '
åĲ Ħ
Ã¡st ico
Ġfuncion a
Ġenc ant
ĠMc C
ĠCur so
ĠB itte
ni j
isp ens
du re
M z
Ġwatch ing
Ġpr imi
Ġba Ã±o
Ġay udar
ĠS itz
ĠMet all
ĠK ids
ĠH oll
ç« ¯
pl ant
Ġmus i
ĠS MS
ĠL inh
ĠJe ff
Ġ19 86
æī ¿
ec es
Ġlong ue
ĠD la
éł ħ
ug i
pr Ã¨s
Ġå¾ Į
Ġun idades
Ġshow ed
ĠprÃ© v
Ġnut rit
Ġabr ir
éī Ħ
imm ing
fol io
an zen
ĠÐ¿ÐµÑĢ ÐµÐº
ĠÐ¸ÑģÐ¿Ð¾Ð»ÑĮÐ· Ð¾Ð²Ð°Ð½Ð¸Ñı
ĠÐ´Ð°Ð» ÐµÐµ
Ġplut Ã´t
na ire
D D
Ġle aving
ĠSol id
Ð½Ð°Ð· Ð½Ð°Ñĩ
Ð¸ÑĤ ÐµÑģÑĮ
un sch
c raft
ĠÐ¼ÐµÑģÑı ÑĨ
Ġwys oko
Ġnad ie
Ġimp i
Ġhel fen
Ġcz ego
ycz na
tt el
U Y
ĠÅ¼y cie
Ġfund ing
Ġcas ual
Ġad op
ĠD ere
Ġ... ....
ãĤ· ãĤ¹ãĥĨãĥł
reib ung
f Ã¤h
Ġç¨ İ
Ġsp ac
Ġbu ona
Ð°Ð± Ð¾ÑĢ
Ì£ i
f u
er ver
M L
ĠÃ ¹
Ġpo chi
ĠmÃ¡ quina
ĠPr Ã©
ĠGew inn
ĠBus car
Ġ19 85
è²» çĶ¨
æ ¿
stra ÃŁe
os ing
Z IONE
ĠÃ¼ bers
Ġutiliz zo
Ġpon ie
Ġob bl
ĠP ens
ĠGi Ã¡o
ĠCar l
Ġ: \
Ð¿ÑĢÐµÐ´ ÐµÐ»Ñı
ier ta
ab eth
ĠÑĨÐ²ÐµÑĤ Ð°
ĠÐ¼Ð¾Ð´ ÐµÐ»ÑĮ
Ġto c
Ġre ch
Ġr Äĥng
Ġquar ta
Ġlistop ada
Ġbatter y
Ġacc ue
ĠH yd
ĠF ast
ĠE ink
ĠA ires
ze uge
i est
Ġson st
Ġsier p
Ġdispos izione
Ġconf l
ãģ®å ķĨåĵģ
Ã¡l ogo
ĠÐ¡ Ð²ÐµÑĤ
Ġp ir
ĠPro duc
æ´ Ĺ
Ñĩ Ð¸ÐºÐ°
Ð¾Ð´ Ñĥ
our d
ir ts
T ON
1 80
ĠÐµ Ð¹
ĠpÃ¡g inas
Ġpreced ente
ĠLib rary
Ġ$(' #
è³ ŀ
ÃĬ N
jÄħ cy
Ġvale ur
ĠH O
ĠAcad emy
è² ¸
ri ques
ĠÐĽ ÐµÐ½
Ġre ct
Ġpract ical
Ġmajor ity
Ġapproxim ately
Ġalc anz
Ġaj ust
ĠP I
ĠH Ã¡
Ġ2 x
zÄħ c
qu ia
Ġo zn
Ġat ac
ĠDis play
åĭ ¢
Ð°Ð½ Ð³
ad d
S H
Ġqu en
Ġelek tr
Ġar bit
Ġ' ;
® éĢļ
aliz acji
Ġv Æ°á»£t
Ġcoment Ã¡rios
Ġcirc um
Ġat tenzione
Ġai ut
ĠD á»±
ĠConn ect
ĠAr c
Ñĩ Ð¸ÐºÐ¾Ð²
ows ka
niej sze
b ung
ĠÐ° Ð¼ÐµÑĢÐ¸ÐºÐ°Ð½
Ġslight ly
Ġim Ã¡genes
ĠEtiqu etas
ĠÐ¿Ð¾ ÑģÐº
Ġco che
Ġcle arly
ĠSal ud
ĠA ven
ail y
ĠÃ© cole
Ġmu estra
Ġgrand s
ube hÃ¶r
m ond
ĠÑĥ Ð¿ÑĢ
Ġt Ã©
Ġroz poc
Ġkl ar
ĠTa ille
Ġwill ing
Ġdie d
Ġb rown
ĠD H
ĠB out
Ðº ÐµÑĤ
Î ½
ĠÐ·Ð°ÑĤ ÐµÐ¼
Ġmond iale
Ġcontrol lo
p ora
AN G
ĠÐĸ ÐµÐ½
Ġwould n
Ġrichi esta
Ġreg al
Ġp y
Ġobjet o
Ġdale j
ĠM uy
ĠG raf
Ġ12 4
æľŁ éĸĵ
ãĥ³ãĤ ¬
Ã¡n dez
eg gio
b f
ad el
ĠÐ¾Ð± Ð»
ĠsÃ³ c
Ġautomat ically
ĠV iel
ĠSte p
é »Ĵ
qu ement
l ike
l ife
h ua
AG E
ĠÐº Ð¾ÑĪ
Ġge k
Ġfl ight
Ġdepend ing
ĠV oy
ãĥ³ ãģ®
ino is
ify ing
AC E
ĠÑįÐº ÑĢÐ°Ð½
ĠÑģÐ¿Ð¾ÑĢÑĤ Ð¸Ð²
Ġagr Ã©
ĠIN D
Ġ5 x
è Ķ
z eda
t ica
omi ast
Ġw s
Ġth ick
Ġsur prise
Ġprof il
Ġinj ury
Ġdeix ar
Ġart ista
ĠCl in
ĠA ur
Ġpro gr
Ġinnov ation
Ġgood s
Ġcic lo
Ġchem ical
ĠFr Ã¼h
ãĥ¡ ãĥ¼ãĤ¸
10 5
ĠÑĥ ÑħÐ¾Ð´
ĠÐ²Ð»Ð°ÑģÑĤ Ð¸
Ġb ia
ĠF IN
ĠBewert ung
é£ Ľ
á»į t
ÑĤÐ¸Ðº ÑĥÐ»
f al
Ġv oto
ĠcrÃ© er
ĠÐºÐ°Ð¶Ð´ Ð¾Ð³Ð¾
Ġman ner
Ġcar b
O r
ĠÑģÐ°Ð¼ ÑĭÐµ
ĠÑĢ ÐµÑģÑĤ
ĠÐĵ Ð¾ÑĢ
ĠrÃ©se au
Ġdisfrut ar
Ġda ÃŁ
Ġcal c
Ġbel ieb
ĠProfess or
ãĤĤ ãģĨ
ys te
iab ility
ĠÐ¿ÑĢÐ°Ð² Ð¸Ð»ÑĮ
ĠdÃ© clar
ĠV oll
ãĤ¶ ãĥ¼
ÐĲ Ðŀ
Ġresp ir
Ġperspect ive
Ġlle va
Ġl áº½
Ġde z
ĠcrÃ© ation
ĠS á»Ł
ĠM ap
ĠL ec
ĠÄĲ Æ°á»Ŀng
Ġsur vey
Ġrapid ement
Ġf t
Ġcual es
ĠT ier
fra ge
techn ik
K K
Ġc ities
ĠSe le
ins on
T ime
AR A
ĠÐ·Ð°ÐºÐ¾Ð½ Ð¾Ð´Ð°ÑĤÐµÐ»ÑĮ
ĠM ua
ãģ«éĸ¢ ãģĻãĤĭ
ÑĪ ÐµÐ¹
ren cy
ĠÐ¾Ð± ÑĢÐ°Ð±Ð¾ÑĤ
Ġbr ands
ĠEc co
Ġ11 7
éĬ Ģ
Ð¸Ðº Ð°ÑĨÐ¸Ð¸
ÐµÐ½ÑĮ ÑĪÐµ
atur as
ĠÑĨÐ¸ ÑĦ
ĠÑĥÐ·Ð½ Ð°ÑĤÑĮ
Ġman os
Ġl áº¡c
Ġgu est
ĠÐŃÑĤ Ð¾ÑĤ
ĠÐĴÐ¸Ð´ Ðµ
Ġv ais
Ġpu oi
Ġlead s
Ġco i
Ġal unos
ĠB ologna
ãĤ¼ ãĥ³ãĥĪ
ur ies
ib re
ib i
fÃ¼hr er
az i
ĠÐ»ÐµÑĩ ÐµÐ½Ð¸Ñı
Ġresol ution
ĠgiÃ¡ m
ãĤ¦ ãĥĪ
t ico
es ia
cl ing
Ġè ĸ
ĠÑģ Ð½Ð¸Ð¼
Ġre ven
ĠpaÅºdzier nika
Ġmay ores
éļĽ ãģ«
ä¾ Ŀ
ong o
n ar
gh i
Ġobs ÅĤug
Ġall ora
ĠY oga
ĠMi ami
æŃ »
owe en
Ġtrad uc
Ġprz eg
ĠEle k
ãĥĭ ãĥ³ãĤ°
ãĥ¼ãĥ Ŀ
d ruck
Ġsem ble
Ġproy ectos
Ġplata forma
Ġeduc aciÃ³n
ĠD ro
O f
AN TE
Ġth read
Ġpow ierz
Ġplay a
Ġinform aÃ§Ã£o
Ġimp acto
Ġde pos
Ġcuid ado
Ġble ibt
ĠP y
ĠCh ico
è² ¨
ãģ¨ ãģ¦ãĤĤ
or se
able d
Ã¼ hl
ĠÐ¾Ð±Ð½ Ð°ÑĢÑĥÐ¶
ĠÂ² Â»
Ġpor nos
Ġinner halb
Ġfe vereiro
Ġah ÃŃ
ĠEs sa
Ġ> \
ãģ«ãģ¤ãģĦãģ¦ ãģ¯
ha upt
Ġng Ã´i
Ġimp ed
ç °¡åįĺ
ges amt
Ġï¼ī ãĢĤ
ĠÐºÐ¾ÑĢ ÑĢ
Ġvot os
Ġtr uy
ziÄĻ k
ĠÃ©t ant
Ġflow ers
Ġdar f
ĠS y
ĠC et
ian ce
Ġconf idence
ĠComm unic
Ġ) ))
up s
ob s
ĠÐĶ Ð¸
Ġconstru cciÃ³n
ĠNh Æ°
ĠD L
åį Ķ
ica Ã§Ãµes
Ġman uten
ĠNok ia
ĠMat th
Ġ, -
çħ §
ç Į
r er
icz nej
i LCJ
ad ura
ĠÐŁ ÑĥÑĤ
Ġvers te
Ġstart s
Ġr ule
Ġper fe
Ġman c
Ġbr ill
Ġadv ance
ĠF ly
Ñĭ Ð¿
Ð¸Ð´ ÐµÑĤ
ĠÐ½Ð° ÑĨÐ¸Ð¾Ð½
Ġr ating
Ġde als
ĠSne akers
ĠMo untain
Ġãĥ Ĵ
ĠÐĿ ÐµÑĤ
ĠÐ¿ÑĢ Ð¸ÑģÑĤ
Ġvier nes
Ġtritur adora
Ġsuc esso
Ġpen al
Ġcentr ale
Ġazi ende
ĠBay ern
ãģķãĤĵ ãģĮ
y pt
ĠÐ¿ÑĢ ÐµÑģÑģ
Ġn ak
Ġcontinu ed
Ġcl as
Ġbra k
Ġar ts
ĠG egen
ĠE ing
Ġ( .
ç¨ĭ åº¦
ist ad
ĠÐºÐ¾Ð½Ñģ ÑĥÐ»ÑĮÑĤ
ĠÐ² Ð¸Ð½
Ġs á»¯a
Ġgia i
ãĥĭ ãĥ¼
z eg
ur ers
ne as
ich tet
ar ial
Ġoffer ta
Ġk orzyst
Ġang lais
ĠComm ittee
ĠAl ter
ĠAir port
æĹ¥ ãģ«
åł´ æīĢ
Ð¢ ÐĲ
ĠÐºÐ»Ð¸ ÐµÐ½ÑĤ
Ġv Ã¡rias
Ġch Ã¢u
Ġad or
ĠCu isine
ãģ®è ī
vide os
ul to
ol as
Ġå ²
ĠÐ¡Ð¿ Ð°ÑģÐ¸Ð±Ð¾
Ġult imi
Ġmus ique
Ġconstru Ã§Ã£o
Ġc ulo
Ġacqu isto
ĠSt one
ĠChe f
Ġ14 9
çĽ¸ æīĭ
ãģ¨ãģĦ ãģ£ãģŁ
Ð¾Ð² ÑĭÐ¼
olÃ³g ico
ĠæĬķç¨¿ æĹ¥
ĠÐ² Ð¸ÑĤ
Ġpublic ation
Ġpar ad
Ġdesc ob
ĠK enn
ĠD ise
ÐµÐ¼ Ð°ÑĤ
Ä ģ
ul te
che in
Ġzas ad
Ġr ass
Ġflex ible
Ġcon ex
Ġbus y
ĠUs ing
çĹ Ľ
ãĥ¬ ãĥ³ãĤ¸
Ġtyp ically
Ġtrans mit
Ġprop ag
Ġappear s
Ġappart amento
Ġ": []
éĽ ĳ
ãĤĪãĤĬ ãĤĤ
ch ina
ĠÐļ Ð¾Ð½ÑĤ
ĠÐ¿ÑĢÑıÐ¼ Ð¾
ĠtÃ©cn icas
Ġfoll ar
ĠS á»±
ĠL Ã¢m
ĠD ziÄĻki
ÐºÑĢ ÐµÑĤ
Ð°Ð» ÑĥÐ¹
ent er
P ar
Ġäº Ī
Ġst ampa
Ġs ample
Ġprote in
Ġprod utt
Ġ áº¥n
æ¯Ķ è¼ĥ
áºµ n
w ig
ĠÐļ ÑĥÑĢÑģ
ĠÐ´Ð¾Ð»Ð¶ Ð½Ð¾
Ġsuppor ted
Ġjo ined
Ġb aja
ĠBa um
Ġ12 6
ãĥ¼ãĥ ¡
z m
ER T
ĠÑģ Ð¾ÑĢ
ĠÐ±ÐµÑĢ ÐµÐ¼
Ġpla isir
Ġk or
é ½¢
ãģĦ ãģ§
ann te
ĠÐº Ð°Ñģ
Ġve ut
Ġra ised
ĠmÃ¶ chten
Ġi le
ĠPor te
ĠK ont
Ð°Ð¼ ÐµÑĤÑĢ
r ÄĻ
is iert
Ġpos te
Ġins c
Ġform aciÃ³n
Ġcollabor ation
Ġb ianco
ĠBr uno
ãģĮ ãģĤãģ£ãģŁ
uj os
ch inen
ĠÐ¿Ð¾ ÑĪ
Ġtr ig
Ġreturn ed
Ġmap a
Ġfin aliz
ĠTh emen
Ġ13 9
Ġobjet ivos
ĠdÃ© cis
Ġ19 60
Ð¸Ñħ ÑģÑı
zÄħ dz
ĠÐ¿Ð¾ÑĤ ÐµÑĢ
Ġte or
Ġjur ÃŃd
Ġ8 88
éĽ» è©±
Î µ
ÅĤ ym
Â ®
wy Å¼
pos aÅ¼
owo ÅĽci
Ġsitu azione
Ġr uch
Ġqu adr
Ġprem io
Ġacadem ic
ãģ®å º
Ãµ i
k ung
iz in
iss imi
ĠÐŁÑĢ Ð¸Ð¼
Ġpass ar
ĠN U
ty pe
bo a
ĠÐ² ÐµÐ»
Ġo chron
Ġng á»Ŀ
Ġde ten
ĠVer anst
ĠSol ar
ĠN ob
æŁ ĵ
oy er
R o
ĠãģĿãģ® ä»ĸ
ĠÐ·Ð°Ð² ÐµÑĢÑĪ
Ġth iá»ĩu
Ġfor o
ĠSp ace
ĠFl ug
ĠAz ul
ãĤ¤ ãĥ³ãĥģ
d l
be i
ari um
ĠÐ¾ÑĤ Ð¿
ĠÐ¾Ð¿ ÐµÑĢÐ°
ĠÐ·Ð°Ð¿ ÑĢÐ¾Ñģ
Ġsett ings
Ġprofessionn el
Ġm ett
Ġgef unden
Ġerot icos
Ġconhec imento
Ġ26 0
Ġdire itos
ĠP Ã©
ãĤı ãĤĮãģ¦
âĶ Ģ
ÅĦst w
ĠÐĿ ÐĲ
Ġs á»£
Ġper chÃ¨
Ġinter vention
Ġimmag ini
Ġfun ctions
Ġcr iminal
Ġallow ing
Ġadolesc ente
ĠTay lor
ĠSalv ador
ĠAnd rÃ©
Ġsuperfic ie
Ġsc onto
Ġpisc ine
Ġp ies
Ġmuch a
Ġman if
Ġcla ims
ĠKh u
ĠK urs
ĠD ue
atur ing
Ġveh icles
Ġprodukt u
ĠH E
ĠGar ant
Ġ ãģ§ãģĻ
ãĢħ ãģª
00 1
Ġmati Ã¨re
Ġintern al
Ġind ispens
Ġenerg ÃŃa
Ġdim anche
ĠT N
ĠC oc
Ġ) "
ãģ®å ¹
is Ã©s
ĠÑĥÐ´ Ð¸Ð²
Ġinspir ation
ĠPart ners
ĠCol umb
Ġ25 5
OL OG
Ġz ac
Ġw czeÅĽniej
Ġme zzo
Ġkh áº¯c
ĠN ice
Ġ20 21
äºĭ åĭĻ
iqu ement
and es
ĠÐ¦ Ð²ÐµÑĤ
Ġz im
Ġass urance
ĠS B
T P
ĠÐ½Ð°ÑĪ ÐµÐ³Ð¾
ĠÐ°Ð½ Ð°Ð»Ð¾Ð³
Ġn iá»ĩm
ãģ§ãģ¯ ãģªãģı
Ã³ ch
bl ica
OR A
Ġch cia
Ġal oj
Ġ1 Âº
ĠÐĳ ÐµÑģ
ĠIde as
Ġszyb ko
Ġg utschein
Ġcoment ario
ĠLy on
cz Äħ
AM ENTO
ħ è¡Į
ĠÐ²Ð·Ð° Ð¸Ð¼
Ġqu iz
Ġm ÄĻÅ¼
Ġes ist
Ġel Ã©ct
ÃŃ os
zer w
an im
ĥħ åł±
ĠÑĥÐºÑĢÐ° Ð¸Ð½
ĠÐ³ ÑĥÐ±
ĠÐ°Ð½Ð³ Ð»Ð¸Ð¹
Ġv ino
ĠprÃ©s ente
Ġhi jo
Ġgrad ient
ĠdiffÃ©r entes
Ġc ogn
Ġapo io
Ġ19 87
Å¼ Äħ
us ted
ry w
ĠÄĳ áº©y
Ġvo it
Ġsitu ations
Ġne uf
Ġess es
ĠReview Image
et zen
ĠØ §
Ġthu áº¿
ãĥ³ãĥ Ń
ãĥª ãĥķãĤ©ãĥ¼ãĥł
ÅĤo ÅĽ
¤ ĩ
ĠÑĦÑĥÐ½Ðº ÑĨÐ¸Ð¾Ð½
ĠÐ² ÐµÐ»Ð¸Ðº
Ġutil izz
Ġtu vo
Ġt av
Ġinsp ired
Ġblo que
Ġb áºŃt
ĠC áº§n
Ã¼ ler
er ed
ĠÐ¿Ð¾Ð¼Ð¾Ñī ÑĮ
Ġtod av
Ġserv ir
Ġed iÃ§Ã£o
Ġdro its
ĠS EC
ĠHist ory
ãģĦãģ¦ ãģĦãĤĭ
ãģ¾ ãĤĭ
ffic iale
ath an
ĠÐº Ð½Ð¾Ð¿
ĠÐº Ð°Ð»
Ġvisit ing
Ġsolid ar
Ġcom ida
ĠFrank furt
Ġ21 5
å¸ Ń
Ð¸ÑĤÐµÐ»ÑĮ Ð½Ð¾Ð³Ð¾
Ð°Ð¶ ÐµÑĤÑģÑı
sz taÅĤ
il en
ag ine
ĠÑĤÑĢÐ°Ð½ Ñģ
ĠÐºÐ¾Ð¼ ÑĦÐ¾ÑĢÑĤ
ĠÐ² Ð°Ðº
Ġtr iste
Ġspecific ally
Ġmant ener
ĠMach ine
ĠF ile
Ġ4 80
wi ata
J E
ĠÑĢÑĭ Ð±
ĠÐºÐ¾Ð¼ Ð¸ÑģÑģ
Ġter ce
Ġn áº·ng
Ġmostr ar
Ġent ro
Ġdr ivers
ĠAr qu
un ek
ent ai
Ġlip ca
ĠPro jet
ĠNg a
ĠN ella
ĠInter ior
ĠI tem
ĠCh Ãºa
ãģ¨ãģĦãģĨ ãģ®ãģ¯
Ð¸Ð³ Ð¸
d ze
ĠÐ¼Ð°ÑĤÐµÑĢÐ¸Ð°Ð» Ð¾Ð²
Ġswo ich
Ġmejor ar
ĠPhili pp
ĠDes p
ãĤ° ãĥ©
ãģ®å ĭ
20 18
ĠÐ¼ Ð¾ÑģÐº
ĠÄĲ iá»ĩn
Ġspec ies
Ġes f
Ġelement o
Ġ19 84
ve au
at yw
ĠÐ²Ð· Ð³
Ġoff res
Ġconten ido
ĠVeg as
ĠPol ize
Ð½Ð¾ÑģÑĤ ÑĢÐ°Ð½
« ª
rop olit
ĠÑĦ ÑĥÑĤÐ±Ð¾Ð»
ĠÐ¡ ÐµÐ¹ÑĩÐ°Ñģ
Ġpro jets
Ġfuer te
Ġcos tr
Ġat ualiz
Ġ(... )
éģ Ĭ
ãĤ¦ ãĤ¹
ÐµÑĤ ÑĢÐ¾Ð²
ÐµÐ² ÑĭÑħ
uf e
ional ly
id amente
ĠÐ¿ ÐµÐ´
Ġsex ta
Ġchar akter
å¸Ĥ åł´
Ñģ Ðµ
Ã¼ck en
fa ult
ĠÐł Ð¾ÑģÑĤ
Ġte atro
ĠprÃ³pr io
ĠAs h
ãĥ© ãĥ³ãĤŃãĥ³ãĤ°
ÐµÐ· Ð´Ð°
leg al
ic ale
are k
ac idad
K O
Ġany where
ĠL U
Ñģ Ð¾Ð»
os as
ĠçĽ ®
ĠÐ²Ñĭ Ð¸Ð³ÑĢ
Ġu z
Ġsch a
Ġimposs ible
Ġdef ic
Ġcamp us
Ġbr ief
Ġautor idades
Ġ] ;
f lex
ack s
ĠÐľ ÐµÐ´
Ġsec teur
Ġcre are
ĠSpan ish
Ġ, âĢ¦
ter min
i ores
10 1
ĠÐ¿Ð¾Ðº ÑĢÑĭÑĤ
Ġign or
Ġbeste ht
ĠS par
ĠH á»ĵng
ĠFir enze
ate au
Ġè ¥¿
Ġåı ĸ
ĠÐ¿ÐµÑĢÐµ ÑħÐ¾Ð´
ĠÐ» Ð¸ÑĤÐµÑĢ
ĠÐ³Ð¾Ð²Ð¾ÑĢ Ð¸ÑĤ
ĠÐ²Ð¾Ð·Ð´ ÐµÐ¹ÑģÑĤÐ²
Ġl ute
ĠUr ban
ĠK Ã¶rper
çµ ¡
re iche
12 5
Ġd essa
Ġd ens
ĠT EC
ĠSu ites
ĠPa olo
ĠJord an
ĠFo x
ok s
EM ENT
22 3
ĠÐ¿Ð¾Ð´ Ð¿Ð¸Ñģ
Ġsoc iedade
Ġb ond
ĠFamil ien
ãģķãĤĮãģ¦ ãģĦãģ¾ãģĻ
Ð¸ÑĤÐµÐ»ÑĮ Ð½Ð¾ÑģÑĤÑĮ
w ind
book s
b esch
ĠÐ¿ ÐµÐ½Ñģ
Ġperman ent
ĠmÃ© th
Ġguer re
ĠM obil
Ìģ ng
oc rat
Ġä¸ »
ĠÃ© to
ĠprÃ³pr ia
Ġnut zen
Ġdem ocra
ĠProst itutas
ĠNÃ¤ he
Ġ1 st
çµĲ å©ļ
ä¸ ģ
á»¥ p
Ð¸ÑĩÐµÑģÐº ÑĥÑİ
ĠÃ »
Ġcomb ust
Ġb áº¿p
ib us
ensch utz
ĠÐĴÑĭ Ñģ
Ġvra i
Ġver wend
Ġinform acje
èĮ ¶
og i
ĠÐ½Ð¾Ð² Ð¾Ð³Ð¾
Ġu a
Ġsil ver
Ġimpl ant
Ġakt yw
ĠCÃ¢m ara
ï¼ ´
ãģ®å ľ
gr Ã©
78 9
ĠÐ¡ÑĤ ÑĢÐ°Ð½
Ġvis itar
Ġs org
Ġqu atre
Ġjo int
ĠV eja
ĠLie be
ãģ®æī ĭ
Ð¸ÑĤ ÑĥÑĤ
umps ter
ac jÄħ
abil itÃł
ĠÑģÐµÑĢ Ð¸
ĠmÃ©d ia
Ġdess us
Ġcar ga
Ġacco unts
ĠS G
Ġp utting
Ġd latego
ĠR ua
ĠHÃ¶ he
ãģ®æ Ń
om y
ĠÑĥ ÐºÑĢ
ĠÐ¾Ð±ÑĢÐ°Ð· Ð¾Ð²Ð°ÑĤÐµÐ»ÑĮ
ĠÐ½Ð°ÑĪ Ð¸Ñħ
Ġpromot ion
Ġop ciones
Ġble iben
ĠT Ãłi
ĠJapan ese
Ù ĩ
it ando
ĠÑģÐµÑĢ Ð¸Ð¸
ĠÐ¿Ð¾Ð½ ÑĢÐ°Ð²
Ġe dition
ĠM IN
ĠCa o
Ð¾Ðº Ð¾Ð¹
it at
is y
Ġind em
Ġ Õ
ãģ®åī į
ve ill
one j
od ia
ĠÐĴ Ð¸Ðº
ĠÐ¿Ð° ÑĨÐ¸
ĠÃļ lt
Ġvo ul
Ġr ise
Ġcos tru
ĠV iá»ĩc
ĠFem mes
ãģ®æ Ķ
or ca
ĠÑĤ Ð°Ð½
ĠÐł Ñķ
Ġtor na
Ġs y
Ġjem and
ĠW ys
ĠT ai
ãĥĲ ãĤ¤ãĥĪ
Ð¸Ð· Ð¼Ð°
igh ter
19 0
ĠÐ¤ Ð¾ÑĤÐ¾
Ġn áº¡n
Ġk an
Ġingr esso
Ġb ureau
ĠÐľ Ð°Ð³
ĠÐ·Ð½Ð°Ñĩ Ð¸ÑĤ
Ġqu áº£ng
Ġlic ense
Ġinf ra
Ġaj uda
ĠL CD
Ã© v
ĠÐ¿ÑĢÐ¾ÐµÐºÑĤ Ð°
ĠÐºÐ°ÑĩÐµÑģÑĤÐ² Ð¾
Ġun less
Ġi hnen
Ġavalia Ã§Ã£o
Ġaff aires
Ġac ciÃ³n
ĠH á»įc
Ġ19 20
Ð½Ð¾ ÑĪ
¥ åº·
iet ro
ass in
Ġpobl aciÃ³n
Ġde put
Ġb ian
Ã© re
Ã¤ ss
½ çī©
Ġpro pon
Ġle kar
Ġben Ã¶t
Ġau prÃ¨s
Ġan i
ĠGr is
ĠCong ress
ãģ² ãģ¨
re u
om es
hal ts
ĠÐ¾ÑĤÐ¼ ÐµÑĩ
Ġw ÅĽrÃ³d
Ġg ed
Ġevent i
Ġbest imm
ĠE la
ĠDo es
ĠBÃ¼r ger
ĠArtic olo
çĤ º
h ere
L o
Ġacc ueil
ĠQue en
Ð½Ð¸Ðº Ð°Ð¼Ð¸
ot en
de aux
by t
B e
ĠÐ¾Ð¿ÑĤ Ð¸Ð¼
Ġin ox
Ġalg uma
è¨Ń å®ļ
zy d
ass es
Ġte a
it re
Ġtel Ã©fono
Ġl en
Ġb ru
Ġaument ar
äºĪ å®ļ
ãģ®å ½
Ñĭ ÑģÐº
Ð¾ÑĢ ÑĥÐ¶
ĠâĻ ¥
Ġvers ione
Ġsie ci
Ġg usto
Ġcon os
ĠRuss ian
ĠE ver
ĠCh am
al ter
Ġï¼ģ ãĢį
Ġpag inas
Ġconc ours
Ġcho Äĩ
ĠFran co
Ġ% ),
e per
ĠÐ¿ÑĢÐ¾Ð²ÐµÐ´ ÐµÐ½Ð¸Ñı
ĠÐ·Ð°Ñī Ð¸ÑĤ
Ġlib ros
Ġch auff
éĸĭ çĻº
ãģ¯ ãģļ
fr ied
ess ere
Ġw iki
Ġl uyá»ĩn
Ġentrepr ene
Ġarchitect ure
Ġag reg
ĠT I
ãĥī ãĥ¬ãĤ¹
Ð¸Ñĩ Ð½Ð¾
ÐµÐ½ Ð½
olÃ³g ica
ĠÐ±Ð»Ð°Ð³ Ð¾Ð´Ð°ÑĢÑı
Ġp ink
Ġexclus ive
ä½ı å®ħ
bc bc
ar z
Ġn iÃªn
Ġfour n
Ġcabe za
ĠLe ather
ĠL S
ãĤĴæ ±
ĠãĤ¹ãĥ¼ãĥĳ ãĥ¼ãĤ³ãĥĶãĥ¼
ĠÐ¾Ð´ Ð½Ð°ÐºÐ¾
ĠÐºÐ¾Ð¶ Ð¸
Ġnegoc io
ĠL ok
ĠL ogo
ĠA I
åı¯èĥ½ æĢ§
ãĥ¼ãĥ ľ
Ġsigu ientes
Ġmu ita
Ġens uite
ĠE co
ĠB oston
æµ ľ
u vo
or ter
1 40
ĠÑħÑĥÐ´ Ð¾Ð¶
ĠÐ¸Ð¼ ÑĥÑīÐµÑģÑĤÐ²
Ġw elt
Ġsupp l
Ġdom en
Ġam our
ĠP ablo
usz cz
mar kt
ĠÑĢÑıÐ´ Ð¾Ð¼
Ġr endre
Ġaura it
ĠAc count
Ġ ãģªãģ©
iÃªn cias
OR I
ĠÑĦ Ð°ÐºÑĤÐ¾ÑĢ
Ġpro ceed
Ġpl antas
Ġp ne
Ġf anno
Ġelek tron
Ġ\" ,\"
ĠRun ning
ĠE mer
Ġ2019 å¹´
ĠÐ¿Ð¾ÑģÐº Ð¾Ð»ÑĮÐºÑĥ
ĠÐ² ÑĢÐµÐ´
Ġob owiÄħz
Ġestr ateg
Ġedu caÃ§Ã£o
Ġcod es
ĠS ales
ĠCH F
ãģ«ãģª ãĤĬãģ¾ãģĹãģŁ
ig ungs
ĠÐ¼Ð°ÑģÑĤ ÐµÑĢ
Ġm uerte
Ġinstruct ions
ĠWei hnach
Ðŀ ÐĿ
ĠpÃ©ri ode
Ġass icur
ĠF az
ï¼ ¥
u Ã©
ĠÐ·Ð°Ð²Ð¸Ñģ Ð¸ÑĤ
Ġindustr ia
ãĥ« ãĥĢ
Ð°ÑĢÑĤ ÑĦ
uel as
W N
ĠÑĢÐ°Ñģ ÑĪÐ¸ÑĢ
Ġries go
Ġingl Ã©s
ĠB ry
ĀĀĀĀĀĀĀĀĀĀĀĀĀĀĀĀĀĀĀĀĀĀĀĀĀĀĀĀĀĀĀĀĀĀĀĀĀĀĀĀĀĀĀĀĀĀĀĀĀĀĀĀĀĀĀĀĀĀĀĀĀĀĀĀĀĀĀĀĀĀĀĀĀĀĀĀĀĀĀĀĀĀĀĀĀĀĀĀĀĀĀĀĀĀĀĀĀĀĀĀĀĀĀĀĀĀĀĀĀĀĀĀĀĀĀĀĀĀĀĀĀĀĀĀĀĀĀĀ ĀĀĀĀĀĀĀĀĀĀĀĀĀĀĀĀĀĀĀĀĀĀĀĀĀĀĀĀĀĀĀĀĀĀĀĀĀĀĀĀĀĀĀĀĀĀĀĀĀĀĀĀĀĀĀĀĀĀĀĀĀĀĀĀĀĀĀĀĀĀĀĀĀĀĀĀĀĀĀĀĀĀĀĀĀĀĀĀĀĀĀĀĀĀĀĀĀĀĀĀĀĀĀĀĀĀĀĀĀĀĀĀĀĀĀĀĀĀĀĀĀĀĀĀĀĀĀĀ
åĨ ĻçľŁ
ãĥ¬ ãĤ¤
ĠÑĦ Ð»
ĠÑĢÐµÐ³ ÑĥÐ»Ð¸
Ġza hl
Ġx x
Ġline ar
Ġch ain
Ġab ra
Ġ14 4
b ul
G o
Ġå· ¥
ĠÐ¾Ð´ Ð½Ð¸Ð¼
Ġre kl
Ġfic ou
Ġcri ar
Ġb os
ĠW he
ĠL amp
ĠConoc er
ĠÐ¢ÐµÐ¿ ÐµÑĢÑĮ
Ġt Ãłu
Ġre pl
Ġprest amos
Ġimm obilier
Ġeduc ational
ĠA 4
è Ĩ
æ¥ µ
ÑĢÐµÐ¼ Ñı
ze z
op a
ec imento
IC S
Ġdema is
Ġblog s
ĠZ ust
Ġ":[] ,"
Þ ©
s ia
leg a
he iro
P h
Ġé »Ĵ
Ġver m
Ġsav ing
Ġparticip ation
Ġk omm
Ġdw Ã³ch
Ġdelic ious
æ´ ¾
ãģĳ ãģªãģĦ
ÃĪ Ãķ
Ġer war
Ġenerg et
ĠdÃ© part
ĠPap a
ĠDe ad
ãģĭ ãĤı
ĠæľĢ è¿ĳ
ĠÐ¿Ð¾Ñģ ÐµÐ»
ĠÐ½ÐµÑģÐº Ð¾Ð»ÑĮ
Ġshow er
Ġse an
Ġdis h
Ġcarr era
Ġau ÃŁer
æ³ ¢
Ð¾Ð´ ÐµÐ¹ÑģÑĤÐ²
ec yd
cz nych
D ata
A ll
ĠÐ½Ð°ÑģÑĤ ÑĢÐ¾
Ġu003 c
Ġpublic ado
Ġgr at
Ġdirett amente
Ġcl imate
ĠL Ã½
Ġ1 x
um m
r one
Ġg ing
Ġest udo
Ġatt or
Ġass ur
ĠK raft
èĭ ¦
ic ul
av el
ĠÑĤÑĢ ÐµÑĤÑĮ
ĠÐ¾Ðº Ð¾Ð½Ñĩ
ĠÐ´Ð¾ÐºÑĥÐ¼ ÐµÐ½ÑĤÐ¾Ð²
ĠdÃ© mar
Ġdifer encia
ĠL iste
äºĪ ç´Ħ
ãģĦãģŁ ãģĹãģ¾ãģĻ
Ð¸ÑģÑĤ Ð¾Ð²
Ð°Ð½ Ð¸
Ã©d ia
Ġäº ¤
ĠÐ²Ð· ÑĢÐ¾ÑģÐ»
Ġstand ing
Ġprov iders
Ġcos ta
ĠV Å©
ĠQu elle
ĠCoun try
tr Ã©
Ġå ĥ
ĠÑģÐ¼ ÑĭÑģÐ»
ĠÐł ÐµÐ³
Ġy oga
Ġth Äĥm
Ġt ang
Ġre pres
Ġm Æ¡
ĠZ aw
ĠBu ff
ãĥ¬ ãĥĥãĥĪ
les ia
as in
Ġpresent ation
Ġdur able
ĠPar que
ĠJ ersey
ãĤĵ ãģ¨
ãģĹãģ¦ ãģĦ
Ã© ments
oc ze
ĠÑįÑĤ Ð¾Ð¼Ñĥ
ĠÐ¿ÑĢÐ¾Ð´ÑĥÐº ÑĨÐ¸Ð¸
Ġob en
ĠmÃŃn imo
ĠV A
ĠSingap ore
ĠSeg Ãºn
ĠMag n
ĠGi use
Ñİ Ñģ
Ã¨ les
en iem
Ġãĥķ ãĤ£
ĠÐķ ÐºÐ°ÑĤ
ĠÐ¾ÑĢ Ð³
Ġt aux
Ġpas ta
Ġnas zych
Ġdeb t
Ġag ents
ĠIm port
ĠB Y
l Äħ
ĠÐ¿ Ð°Ð¿
Ġir Ã¡
ĠProf es
ĠFe uer
ĠB urg
Ġ12 1
icz na
EN TA
Ġx ong
Ġpren ot
ĠpelÃŃcul as
Ġinaug ur
ĠAss im
æĪ ĳ
åĪ °
$ (
Ġmag azine
Ġl ights
ĠPres ent
ï¼ ¤
ãģ¿ ãģ«
fortun ately
D P
ĠÐ³Ð¾Ð´ Ñĭ
Ġla i
Ġfor est
ĠTut ti
ĠM ate
ĠL Ãłm
ãģ¨ãģª ãĤĭ
pp i
olog ies
l ay
Ġst amp
Ġ27 0
ç ¬ĳ
æĸĻ éĩĳ
Ð¸ÑģÑĤÑĢÐ° ÑĨÐ¸Ñı
it uto
Ġpo le
Ġman ter
Ġbr ut
Ġal red
ĠD á»ĭch
ãĥ¡ ãĥ©
ÑĥÑĪ ÐºÐ¸
os is
ĠÃĸ ÃĲ
Ġwra z
Ġsk ute
Ġn eck
Ġjed em
Ġab re
ĠTh ose
ĠPor que
ï¼ ²
pie za
ocz es
ĠãģĿãĤĮ ãģ¯
ĠÐł ÐµÑĪ
Ġswo jÄħ
Ġsupport s
Ġbo und
ĠGabr iel
æĻ ¯
Ð°Ð² Ð¸Ñģ
amew ork
act ive
ĠÑĢÐ°Ð· Ð½Ð¾
Ġguarante e
ĠJ ar
ĠH TML
Ġ ă
min y
il ly
I EL
ĠÐĿ Ð°Ñĩ
ĠÐľÐ¾ÑģÐºÐ² Ñĭ
ĠÐ¿ÐµÑĢ ÐµÑģ
Ġnh iá»ħm
Ġmeas ures
Ġint elle
Ġasp ectos
ĠMill ionen
ĠFe ed
ĠErot icos
Ðŀ Ðł
bra uch
ĠÐĹ Ð°ÑĢ
ĠÐ¿Ð¾ÑģÑĤÐ¾ÑıÐ½ Ð½Ð¾
Ġg uten
Ġdisc ut
Ġco vers
ĠSal on
ĠH ace
ĠB H
ãģĽ ãĤĭ
Ð¾Ð½ ÐµÑĨ
§ ĺ
ob ern
ir y
aca o
ĠÐĲ Ð»ÑĮ
Ġtem pi
Ġmas z
ĠhÃ´t els
Ġeffic iency
ĠA K
ĠA A
ãģĻãĤĭ ãģĵãģ¨
Ãºmer os
qu iera
g ono
ĠÐļ Ð°Ð¶Ð´
Ġstr ugg
Ġlav ori
Ġdo ivent
ĠK i
ĠAct ual
å¾ ©
us hing
iv idad
ig l
ĠÑĩÐµÐ¼ Ð¿Ð¸Ð¾Ð½
ĠÐºÐ¾Ð½ ÐºÑĢÐµÑĤ
Ġr uss
Ġpeque Ã±o
ĠmoÅ¼liwo ÅĽÄĩ
Ġgodz in
Ġein zel
Ġcaus es
Ġb áº£ng
ĠN ied
éĥ İ
åį ĥ
ãĥ¼ãĥ į
s weise
j ed
ĠÄĳ á»ĳc
ĠÄĲ o
ĠT an
ĠMed ien
Ġ4 x
int endo
ent lichen
ĠÐķ Ð³Ð¾
ĠÐ³ Ð¾
Ġob ej
ĠProc ess
Ġ08670 7
ÑıÐ± ÑĢÑĮ
ue ves
rit te
istr z
ĠÑģÐ¾ÑģÑĤ Ð¾Ñı
ĠÐ¸Ð³ÑĢÐ¾Ð² ÑĭÐµ
ĠÃ©x ito
ĠDe utsche
ı ng
ĠÄĲ áº£ng
Ġrel iable
Ġponie waÅ¼
Ġpoc zÄħt
Ġed izione
Ġdocument os
ĠOl ive
ĠGu ar
ĠC li
ĠAg ora
Ġ? ,
Ġ13 4
ç ł´
sch rift
ed io
du ction
d ar
ĠÐ¸Ð½ÑĦÐ¾ÑĢÐ¼ Ð°ÑĨÐ¸Ð¾Ð½
Ġutiliz ando
Ġt iro
Ġk ick
Ġde utschen
Ġcrit ic
ĠS ort
ĠQu em
ĠD ich
ĠAug en
Ã³ rias
ze p
ion ych
CH E
AA AA
ĠÐ¼ ÐµÐ½ÑĮÑĪÐµ
Ġv ende
Ġre fr
Ġminist re
Ġda w
ĠF Ã¼hr
ĠF antas
ĠCre dit
ĠCan on
Ġ4 000
ien iem
ĠÑģ Ð´
ĠÐ·Ð°Ð²Ð¸Ñģ Ð¸Ð¼Ð¾ÑģÑĤÐ¸
ĠrÃ¡p ida
Ġkred yt
Ġdeliver ed
Ġco inc
ĠQu ang
ãģĭãĤī ãģªãģĦ
Ð½ ÐµÐ½Ð¸Ñı
Ãºsqu eda
uest as
le ta
in ary
ĠÐ§ Ð°ÑģÑĤ
Ġoff r
Ġdef ine
Ð¡Ð Ĥ
w Ã¼r
ier an
Ġçı¾ åľ¨
Ġç´ ł
Ġn owe
Ġentre vista
ĠPlay er
ĠPatr ick
ÑģÑĤÑĢÑĥÐº ÑĨÐ¸Ð¸
itÃ¤ ts
Ġãĥķ ãĤ§
Ġrem ar
Ġpres encia
Ġpra zo
Ġaf irma
ĠEin zel
Ġ( !
ãĥĲ ãĤ¤
Å© i
et i
ĠÑĢÐ°Ð· Ð´
ĠÐ¼ ÑĥÐ»ÑĮÑĤ
Ġt ierra
Ġs ister
ĠT isch
ĠN ag
ĠHen ry
ĠB ac
ãģĮ è¦ĭ
unt ing
ci ato
AN C
Ġours elves
Ġf ell
Ġcl ima
Ġasp ir
Ġacc iones
ÑģÐ¾Ð» ÑİÑĤ
Ġwhe el
Ġtecn ologÃŃa
Ġphilos oph
Ġperman ente
ĠEnt wicklung
ĠC z
ãģ® ãģĶ
ils on
ibil itÃ©
dis f
ĠÐĿ Ð¸Ð¶
Ġzak o
Ġcon sole
Ġcan c
ĠStra ÃŁe
ĠPag inas
ĠM M
æľĢ å¤§
ut ch
r iere
are z
Ġbi olog
ĠLe vel
ĠG iac
Ð¸Ð· Ð°ÑĨÐ¸Ñı
12 12
ĠÐĴ Ð°Ð»
ĠÐ¿ ÑĥÐ±Ð»Ð¸
Ġpromo te
Ġgan ze
Ġencuent ro
ĠSt ato
ĠMan chester
ĠM AS
Ġç¶ ļ
Ġten ido
Ġor mai
Ġbas ket
ĠSte uer
ĠS aison
ĠAlex ander
æŁ Ħ
Ð¾Ð· Ð²
Ð°Ð³ Ð¾Ð³
ÅĦ sk
ĠÑĤ ÑĢÑĥÐ±
ĠÑģÑĤ Ð°Ð»Ð¾
ĠÐ½Ðµ Ðµ
Ġsog giorno
Ġbut ter
ãĥ¼ãĥ ¬
or ios
S ch
ON S
ĠÑģÑĤÐ°ÑĤÑĮ Ð¸
Ġt anti
Ġsty les
Ġri usc
ĠV AL
ĠSo le
ĠH ope
ĠD 1
ĠCh el
ãĤ³ ãĥ¡ãĥ³ãĥĪ
ÑĥÐ» ÐºÐ°Ð½
yt ics
Ġwie ku
Ġspr zÄĻ
Ġequil ibr
Ġc áº¥u
ĠUns ere
Ð¾Ð³ ÑĢÐ°Ð´
Ð¸ÑģÑĤ ÐµÑĢ
Ã³ veis
ste in
omet er
ck o
99 9
ĠÐ¸ÑģÐ¿ ÑĭÑĤ
Ġprofessionn els
Ġport able
Ġmiejs cu
Ġcamb ios
ĠLat ina
è¨Ģ èĳī
} .
ta Äĩ
l ado
h Ã¤
EM A
ĠÐ¢ Ð°Ð¼
Ġrifer imento
Ġg or
ĠSp irit
ĠKult ur
åĪĩ ãĤĬ
d ia
ET R
Ġsur g
Ġh ung
Ġguy s
Ð¸ÑĤ ÐµÑĤÐ°
we j
Ġsom ente
Ġsal ute
Ġp iÄĻ
Ġexpl os
Ġeng age
ĠCast ell
w ich
Ġåľ ¨
Ġzar Ã³wno
Ġs ow
Ġp iso
Ġlect ure
Ġimag ine
Ġestabe lec
Ġcab inet
Ġ/ ">
æĿ ¾
ãģĪ ãģ¾ãģĻ
ÐµÑĪ ÐµÑģÑĤÐ²
lec am
Ġzab aw
Ġswo im
Ġinstit utions
Ġhe iÃŁ
éģķ ãģĨ
ãģ®å ¼
Ð¸Ð¼ ÑģÑı
u an
ĠÃĶ Ãļ
Ġpe ux
Ġcre ation
ĠMon itor
ĠD ett
ÑĥÑİÑī Ð¸Ðµ
BO OK
Ġst ain
Ġph á»ķ
Ġparticul ier
Ġles en
Ġrand om
Ġorgan ic
Ġmol te
âĢ ĺ
Ð°ÑĤ ÐµÐ»ÐµÐ¼
zeit ig
z um
st on
ĠÐ¿ÑĢÐµÐ´ Ð½Ð°Ð·Ð½Ð°Ñĩ
ĠÐº Ð¾Ð³Ð¾
Ġx áº¿p
Ġpa ese
Ġp ase
Ġm ister
Ġhous ing
Ġeta pa
ĠSim on
ĠK y
å®ī å¿ĥ
t est
ac ute
ĠãĥĽ ãĥĨãĥ«
ĠÑĤ Ñĥ
ĠÐ´ÐµÐ¹ÑģÑĤÐ² Ð¸ÑĤÐµÐ»ÑĮÐ½Ð¾
Ġprim eros
ĠmÃ³w i
Ġfig ur
Ġaus tr
Ġ(" .
Ð¸ÑĨ Ñĥ
t as
Ġvost ro
Ġfuer za
Ġcond iÃ§Ãµes
ĠTh ink
ĠS áº£n
ĠDe pois
re ibt
Ġtotal ly
Ġpicc olo
Ġle p
Ġ ä¾¡æł¼
éĢļ ãĤĬ
d orf
c 2
X L
ĠÐ¿Ð¾Ð» Ð¾Ð²
ĠÐ´ÐµÐ» Ð°
Ġwsk az
ĠrÃ© un
ĠrÃ© ponse
Ġcoin vol
ĠVers ch
ĠAm biente
çĶ³ ãģĹ
åĢŁ ãĤĬ
ãģ¯ ãģĬ
u ce
im ar
heit en
ĠÑĩ Ð»ÐµÐ½
Ġt ac
Ġgen ere
Ġg ÅĤos
Ġcl ase
Ġchw il
Ġaff id
ĠTra ck
ĠGar cÃŃa
ĠA ve
z ul
ot ic
G T
ĠÐºÑĢ Ð°Ð¹
Ġhost ing
Ġest arÃ¡
ĠL iving
Ġ19 5
ãĤĴæİ ¢
pos ition
ĠÑģ Ð¸Ð³Ð½
ĠÐ¿ÐµÑĢÐ² ÑĭÑħ
Ġy ellow
Ġl áº¯m
Ġbe at
ĠD ating
ÃŃt ulos
n ight
iss es
ĠâĢ ²
Ġsong s
Ġmat in
ĠVict or
ĠTr Æ°á»Ľc
ĠPre zzo
ĠMa ÃŁ
ĠCON T
åħ¥ ãĤĬ
áºµ ng
y b
qu ant
Ġè ±
ĠÃ³ t
Ġtex te
Ġf aster
Ġdog s
Ġcho ices
Ġal ber
ĠL auf
ĠF ed
Ġ Ã¡r
ĠÐ½ Ð¸Ð±
ĠÐ»ÐµÐº Ð°ÑĢ
ĠÐ±ÑĥÐ¼ Ð°Ð³
Ġmias ta
ĠBe z
Ġ13 1
Ã¨ de
v ie
no on
AD OS
ĠÐĳ Ñĭ
Ġprzy kÅĤad
Ġop ciÃ³n
Ġlow est
Ġcompreh ensive
ĠS ap
ĠEs se
Ġ13 6
Ġ ug
g ate
en zen
ĠÑģ Ð°Ð¼Ð¸
Ġtra vestis
Ġtra il
Ġcoloc ar
ĠL ind
ĠIn nen
è² ¡å¸ĥ
k ets
ĠÐ¼Ð°ÑĪ Ð¸Ð½Ñĭ
Ġn ig
ĠRe in
Ġ3 40
ãģ« ãģ¦
Ð¸ÑĢÑĥ ÑİÑĤ
Ð° ÑĨÐ¸ÐµÐ¹
k urs
ĠÑĤÑĢ Ð°Ð´Ð¸
ĠÑģÐµÑĢÑĮ ÐµÐ·
ĠÐŁÐ¾Ñĩ ÐµÐ¼Ñĥ
ĠÐĶ Ð¼
ĠÐ¿ÑĢÐ¾Ð³ Ð½Ð¾Ð·
Ġwygl Äħda
ĠfÃŃs ica
Ġchá»© a
Ġbu enas
ĠC ell
ÑģÑĤ ÐµÑģÑĤÐ²
st ances
at ung
Ġvi Ãªm
Ġsierp nia
Ġentr Ã©e
Ġed iciÃ³n
å ¬
Ð¸Ð¼ ÐµÐ½ÑĤ
al and
ĠÑĤÐµÐ¿ Ð»
Ġy outh
Ġle ather
ĠEduc aciÃ³n
owo hl
ĠÐ²Ñĭ Ð·ÑĭÐ²
Ġsqu adra
Ġrz ecz
Ġident ific
Ġapar ece
èĪ Ī
èª¿ æŁ»
r in
ĠæĪ ĳ
ĠÐ½ÐµÐºÐ¾ÑĤÐ¾ÑĢ ÑĭÐµ
Ġro ul
Ġk ennen
ĠV illage
ĠS es
è± Ĭ
åĬ ´
ãģĹãĤĥ ãĤĮ
Ð¸ÑĪ ÑĮ
ko hol
geb ung
ec in
ON A
Ġâĸ ¼
ĠÑĥÑģÐ¿ ÐµÑĪ
ĠÐ¶ ÐµÑģÑĤ
Ġm ig
Ġhold ing
Ġcompet itive
ĠCons iglio
Ãºt bol
ita ires
ik u
Ġprot est
Ġdett agli
ĠCo ol
é ³
ãĤĪãģĨ ãģ§ãģĻ
s cy
igh ted
ari at
Ġpeque Ã±a
Ġmein em
Ġcomment aire
ĠStr u
ĠG az
ĠB 00
Ġ:- )
id encia
ĠÐ¿ÐµÑĢÐµÐ² Ð¾Ð´
Ġent anto
ĠVal le
ĠMe jores
ĠH uawei
ĠB Ãªn
17 0
Ġital iani
ï ¿
éĥ¨ å±ĭ
à³ ģ
ÑĢÐµÐ¼ ÐµÐ½Ð½Ð¾
Ð¾Ð»Ð½ Ðµ
Ġoko ÅĤo
Ġlute go
Ġar re
ĠM ira
ĠL AS
ĠJack son
Ð½ ÑĥÑĤ
ĠÐ¾ ÑħÑĢÐ°Ð½
Ġsub t
Ġjorn ada
Ġh Æ°Æ¡ng
Ġb áº¡c
Ġavalia Ã§Ãµes
Ġart es
ĠV R
ĠAd ditional
Å ł
og rÃ¡f
ĠÐ·Ð°Ð¼ ÐµÐ½
å¤ī æĽ´
n ale
it ag
ic ian
ĠÐ¾Ðº ÑĢÑĥÐ³
ĠÃ¡ l
Ġzrobi Äĩ
ĠUnivers itÃł
ĠMuse o
ĠBle u
Ð¾ÑĢ Ð³
cza j
Ar t
ĠÐ½Ð¸Ð± ÑĥÐ´ÑĮ
ĠÐ³ ÑĢÐ°Ð¼
Ġer an
Ġcont amin
ĠTrans fer
ĠSe ine
ãģĹãģŁ ãĤĬ
Ã©t Ã©s
is Ã©e
anz ia
ac ity
ĠÑģÐ¾ ÐµÐ´Ð¸Ð½
ĠÑĢÐ°Ð· Ð°
ĠÐºÐ°ÑĤ Ð°Ð»Ð¾Ð³
Ġkonk urs
Ġgl ad
ĠcompaÃ± ÃŃa
ĠD ell
éģ £
re ja
por ter
W F
Ġãĥķ ãĤ©
Ġdev ono
Ġappro ved
ĠEn contr
æ ĳ
zahl ung
ĠÐļ Ð¾Ð´
ĠÐ¾ÑĦ Ð¸Ñģ
ĠÐ±ÑİÐ´Ð¶ ÐµÑĤ
Ġzosta ÅĤa
Ġv ag
Ġso i
Ġdecy z
Ġconven ient
Ġbe wer
èĲ½ ãģ¡
ãĥĥ ãĤ»
ãģĵ ãģĿ
re es
oter apia
k osten
c ore
Ġpok o
Ġpar ler
Ġk uch
Ġinfrastru cture
Ġch ico
Ġaj udar
Ġa x
ĠW ort
ĠPh áºŃt
ĠD ream
ĠApp art
Ġ000 åĨĨ
åħ ħ
ÑģÐº Ð°Ð¶
ÐµÐ¶ Ð´Ð°
port es
imin ar
c Ã©
b eg
1 l
ĠÐĿ Ð°ÑģÑĤ
ĠÐ¿Ð¸ÑĤ Ð°Ð½Ð¸Ñı
Ġmass age
Ġf ach
Ġdom aine
Ġapp rÃ©
ĠSuper ior
ĠBra zil
äºĭ ãģĮ
zeit en
Ġæĺ ¨
ĠÐ¾Ð´ ÐµÐ¶Ð´
Ġnombre uses
Ġaff ili
ĠOut door
ĠCh rome
âĢĭâĢĭ âĢĭâĢĭ
Ãİ Âª
uss ion
inn astica
ĠÐº Ð¸Ð½Ð¾
Ġf onte
ĠCas as
ĠA unque
åĢ Ĵ
ÑģÑĤÐ² Ð¸Ðµ
Ð¾Ð» Ð´
ie te
crib e
L D
AN CE
Ġl id
ãĤ» ãĥĥãĤ¯ãĤ¹
b d
Ġru olo
Ġpurpos es
Ġproxim itÃ©
Ġou i
Ġkto ÅĽ
ĠV orte
ĠR ing
ĠMinist Ã©rio
ãģıãģª ãĤĭ
Ð¸Ð»Ð¸ Ð·
qu i
Ġimpro v
Ġdemasi ado
Ġauc une
ĠD F
Ð¸ÑĤ Ð¾ÑĢ
10 æľĪ
ĠÑģ Ñĥ
Ġb asso
ĠCom unic
Ġ? .
å¥ Ī
ãĥ¼ãĤ µ
ãģ¦ ãĤĭ
x s
c f
ĠÐŃ Ð»ÐµÐºÑĤÑĢ
ĠÐ¼Ð°ÑĪ Ð¸Ð½
Ġtr zy
Ġs áºµn
Ġkil ku
Ġ3 10
ÑģÑĤ Ð¾
ĠÐ½Ð°ÑĪ Ð¸
ĠÐ´Ð°Ð² Ð½Ð¾
Ġter me
Ġh ero
Ġbuild ings
Ġadvert ising
y ka
ja x
ĠÐ¼Ð°ÑĢ ÑĪ
Ġsuf iciente
Ġh Ã´n
ĠVis it
ĠTur ismo
åĭŁ éĽĨ
ud ia
ct ive
ĠÐ¼ÐµÐ½ ÐµÐ´Ð¶
Ġim agem
Ġext ensive
ĠCh ambre
r ice
h ai
ĠÐ³ ÐµÑĢ
ĠÃ©t udi
Ġmiesz kaÅĦ
Ġall ÃŃ
Ġabs or
ĠJ S
Ġ18 5
o is
ffic ient
ĠÑĥ Ðº
ĠÐ¿ÑĢÐ¸Ð² Ð»ÐµÐº
ĠÐ» Ð¸Ð´
Ġmaior ia
Ġm q
ĠdÃ³l ares
ĠD ragon
ĠãĤ¹ ãĥĨ
Ġspraw d
Ġg á»ĳc
Ġd Ã¡ng
Ġcre ativ
Ġb og
ĠS ent
ĠP interest
Ð°Ð´ Ð»ÐµÐ¶
ci f
Ġpay ing
Ġenfr ent
Ġemploy ee
Ġdecis Ã£o
ĠTele f
ĠPol ÃŃtica
ĠPart icip
ĠG ays
æº Ĳ
vol ver
l ink
ien a
ĠÐ§ ÐµÐ¼
Ġnaj wiÄĻks
Ġme z
Ġd ict
Ġconsum ers
ĠA Z
Ð¾Ðº Ð¾Ð»
C olor
ĠÑģÐ°Ð¼ Ð¾Ðµ
ĠÐ¿ÑĢÐ¸Ð² Ð¾Ð´
ĠÐ¿Ð¾Ð´ Ñģ
Ġpopul aÃ§Ã£o
Ġp and
Ġh em
Ġcade au
ĠL ors
J O
AD E
A t
ĠÐ½Ð¸Ðº Ð¾Ð³Ð´Ð°
ĠÐ¸Ð´ ÐµÑĤ
Ġz ie
Ġris que
Ġmiss ing
Ġar ray
ĠIndustr ial
ãģ¨ãģĹãģ¦ ãģ¯
ãģ§ãģĻ ãĤĪãģŃ
re ment
os so
m art
an Ã§
ĠÄĳ Ã¨n
Ġreg alo
Ġcommun aut
Ġban ca
ĠV ors
ĠM s
Ġ14 3
Ġ' ]
çľ ģ
ãĤĴ ãĤĤ
ãģ° ãģĭãĤĬ
ou ver
acz ego
G u
Ġæ ®
ĠÐºÐ² Ð°Ð»Ð¸ÑĦ
ĠrÃ³Å¼ nych
Ġext ension
ĠIN FOR
ĠG dy
Ġ2 nd
Ġ13 3
ãĤĦ ãĤĬ
ãģĳ ãģŁ
ÑĭÐ² Ð°ÑİÑĤÑģÑı
rÃ¤ ge
ĠÐ¡ÐµÑĢÐ³ ÐµÐ¹
Ġverschied ene
Ġun ica
Ġris chio
Ġreach ed
Ġprotagon ista
Ġemergen cy
Ġdise Ã±
ĠSing les
ĠEl tern
Ġ ğ
ãĥ³ãĥĹ ãĥ«
Ðº Ð¾Ð³
Ð¸ÑĢÐ¾Ð² ÐºÐ¸
vail able
l ica
ĠÑģ Ð¾Ð»Ð½
ĠÐ¸Ð·Ð¼ÐµÐ½ ÐµÐ½Ð¸Ñı
Ġw tedy
ĠmoÅ¼liwo ÅĽci
ĠEst ate
ĠBe h
Ġ ÅĤad
çĬ¶ æ³ģ
ÐµÑĤ ÐºÐ¸
IG N
ĠÐ¾Ð±ÑĭÑĩ Ð½Ð¾
Ġsu ger
Ġpour ra
Ġme al
Ġm ic
ĠRec ord
ĠFab ric
r us
Ġæ ¿Ģå®ī
Ġvers iÃ³n
Ġris ol
Ġp ace
Ġlik es
Ġass ets
ĠV ida
ĠC I
åĲį çĦ¡ãģĹ
Ã¢te au
10 11
ĠÐĹ Ð°Ð¼
ĠÐ¾ÑĩÐµÑĢÐµÐ´ ÑĮ
ĠÐ¾Ð´ Ð½Ð¾Ð¼
ĠÃ©v Ã©n
Ġult im
Ġng Äĥn
ĠT ip
ĠS ed
ĠF oi
èĭ ¥
ãĥ¬ ãĥ¼
Ð»Ñı Ð½
Ð¸ÑĤÐµÐ»ÑĮ ÑģÑĤÐ²Ð°
fÃ¼ hl
ĠÐ¼ ÐµÑĩ
Ġw c
Ġp ip
Ġmar che
Ġintegr al
Ġgr y
Ġb id
ĠR J
ĠG A
ĠDistr ib
Ġåį ĺ
ĠÑĢÐ°ÑģÑģ Ð¼Ð¾ÑĤÑĢ
Ġpierw szy
Ġfran Ã§aise
Ġappreci ate
ĠAn fang
OL A
ĠæĦ Ľ
ĠSal z
ĠA 3
l ights
ĠÐ´ÑĢ ÐµÐ²
ĠÐ³ ÐµÐ½ÐµÑĢ
ĠtÃ©lÃ© phone
Ġparam et
Ġdo ble
Ġag enda
Ġac ima
æ¯ į
ÑĢÐ°ÑĤ ÐµÐ³
Ð»Ð¸ Ð¼
ON G
CI O
Ġåı£ ãĤ³ãĥŁ
Ġposit ivo
Ġog ÅĤos
Ġf and
ĠczÄĻ ÅĽÄĩ
Ġch á»Ŀ
Ñĩ Ð¸Ñģ
sch ule
g y
ĠÑģÐ¸ÑĤÑĥ Ð°ÑĨÐ¸Ð¸
ĠÐºÐ» Ð¸Ð½
ĠÐ· ÑĥÐ±
ĠÐ¢ Ð¸Ð¿
Ġunivers ity
Ġen reg
ĠPh Ã¡t
ĠO ra
ĠBal ance
åł´åĲĪ ãģ¯
Ð»Ð¸Ñĩ ÐµÑģÐº
ec ciÃ³n
Ġá» ŀ
ĠÃĬ Ãĩ
Ġpo ÅĤ
ĠmoÅ¼ emy
Ġadv oc
ĠT ages
ì Ŀ
çµĦ ãģ¿
ãĤĴè¦ĭ ãĤĭ
ĠÐ¸ Ð½Ð¾ÑģÑĤÑĢÐ°Ð½
Ġrece b
Ġpre vis
Ġcan n
ĠS F
ĠDie u
Ġ$(' .
åĸ Ħ
Ð¼ Ð¾Ñģ
Ġå ĩ
ĠÐ¾ Ð¿ÑĢÐµÐ´ÐµÐ»Ñı
ĠÐ± Ð¾ÑĢÑĮ
Ġsac r
Ġr istor
Ġquest Ã£o
Ġfeature d
ĠM ob
ĠG reg
ãģĺ ãĤģ
ÑĭÑĤ ÑĮ
Ð¸Ð¿ ÐµÐ´
ve ux
e te
ĠÐ¾ÑģÑĤ Ð°Ð½Ð¾Ð²
ĠÐ²Ñģ Ð¿
ĠsiÃ¨ cle
Ġperm ette
Ġgratu ite
Ġevent ually
Ġcons ulta
Ġbr on
ĠHer steller
Ð» Ð¾ÑģÑĮ
j ud
eit ura
cer ia
ĠÐ¼Ð°ÑĤÐµÑĢÐ¸Ð°Ð» Ñĭ
Ġotten ere
çļ ®
Ð½Ð¸Ðº Ð°Ð¼
W I
ĠÐ¿ÑĢÐ¸Ð½ ÑıÑĤ
Ġusu ario
Ġpl ane
ĠpiÃ¨ ce
Ġint ended
Ġbeso ins
Ġa Ã±ad
ĠVert rag
ĠSne aker
ĠR ela
wier d
st one
p ost
Ġprof und
Ġpant alla
Ġdesp ite
Ġco ast
ÑĥÐ¼ ÑĥÐ»ÑıÑĤÐ¾ÑĢ
ll ig
g art
ĠÑĤÐ°Ðº Ð°Ñı
ĠÐķ ÑīÐµ
Ġv c
Ġrece be
Ġneces idades
Ġinf antil
Ġapert ura
Ġamb ito
ĠExecut ive
Å¼y w
l us
Ġs izes
Ġf if
ĠSh ort
ĠR ain
ĠPag ina
Ġ20 5
ãģ£ ãģ¡
que te
iss an
is ions
G _
ĠÐº Ð¸ÑģÐ»
Ġpes quis
Ġf Ã¼nf
Ġconse ils
Ġcho isir
Ġaqu ellos
ĠQu ant
ĠPat ient
ĠF S
) [
ĠÑĩÐµÐ»Ð¾Ð² ÐµÑĩ
Ġpart idos
ĠNom bre
ĠKomment are
ãģ®æ µ
Ð¸ÑĢÑĥ Ñģ
Ġtro chÄĻ
Ġsole il
Ġsam edi
ĠprÃ³xim os
Ġpres o
Ġop Ã§Ãµes
Ġgarant ir
Ġa ur
ĠS Ã¼d
Ġ Æ
2 20
Ġwym ag
Ġf oss
Ġestudi antes
Ġch iáº¿u
ĠPap er
å§ Ķ
ãģķ ãģ¾
Ð¸Ð² Ð°ÑĤÑĮÑģÑı
g ens
en ed
ĠÃ© dition
Ġst ellt
Ġnie w
Ġcomp osto
ĠMitgl ied
ĠKur z
ĠI z
ĠB ath
il ha
Ġrequ er
Ġex empl
Ġconvers ation
ĠS ide
ĠÐ¿Ð¾Ð´ Ñĩ
Ġwe ak
Ġth Ãºc
Ġreco very
Ġnation ale
Ġl áº¡
ĠT agen
ĠO il
ĠJ ag
Ñı ÑİÑĤ
Ã¼ gen
j d
10 8
Ł ãģĺ
ĠÐ¾Ð±Ð¾ÑĢÑĥÐ´ Ð¾Ð²Ð°Ð½Ð¸Ñı
Ġris co
Ġpot encial
Ġmem or
Ġconst ruct
èĩ ´
Ñĭ Ð±
oc us
Ġu043 e
Ġgr is
Ġfind e
Ġcheg ar
Ġc áº¯t
Ġ( *
mb ito
Ġread ers
Ġconsum er
ãĥĩ ãĥ¼ãĤ¿
Ð¸Ð±Ð»Ð¸ Ð¾ÑĤ
Ã³g ica
war eness
Ġç¤ ¾
ĠÐ° Ñį
Ġze igen
ĠvÃ© hic
Ġthá»ĭ t
Ġredu z
Ġimport anti
ĠHol lywood
ç¥ ¨
ĠÑĢ ÐµÐ¿
ĠÐ¿ÑĢÐµ Ð¸Ð¼ÑĥÑīÐµÑģÑĤÐ²
Ġtr uck
Ġr ender
Ġfr at
Ġesp ect
èĶ µ
ãģķãģĽ ãĤĭ
Ð¸ÑĩÐµÑģÐº Ð¾Ð¼
ide z
ajÄħ ce
W _
ĠçĽ ´
Ġå¯ ¾
Ġtrat amento
Ġr ust
Ġim porta
Ġh Ãłi
Ġet Ãł
Ġd ank
Ġcollabor azione
ĠL Ãł
ĠC RE
Ñį Ðº
ur u
stell t
ras h
ra in
Ġk al
Ġh Ã¤uf
Ġerh Ã¤lt
Ġbo at
ĠG or
æ ¿Ģ
Ġæĸ ĩ
ĠÐ¿ÑĢÐ¾Ð¸Ð· Ð²ÐµÐ´
ĠÐ²ÑĭÐ± Ð¸ÑĢ
ĠÐ²Ð°Ð¶ Ð½Ð¾
Ġwoll te
Ġvend redi
Ġrecib ir
Ġmy ÅĽl
Ġmag net
Ġintern azionale
ĠEngine ering
ãĥ³ãĤ° ãĥ«
ãģ§ ãģĤãĤĬ
li ers
ĠÑıÐ·Ñĭ Ðº
ĠÑħÐ°ÑĢÐ°ÐºÑĤÐµÑĢÐ¸ÑģÑĤ Ð¸ÐºÐ¸
ĠÐľ Ð½Ðµ
Ġconflic t
Ġconcern ant
ĠIde e
ĠFranÃ§o is
ĠD ual
çĶ» åĥı
c iem
ĠÐºÐ¾Ð½ ÑĨÐµ
ĠÐ°ÑĢ ÐµÐ½Ð´
Ġst wor
Ġneces idad
Ġh ic
ĠCont ent
ĠCh all
Ġ4 60
ãĥ¼ãĥ Ń
ÅĤ on
k it
it ato
ER N
B E
Ġver ific
Ġte en
Ġesp ac
ĠVer kehr
ĠSt elle
ĠS pl
ĠProble me
ĠArg ent
Ñİ Ð¼
_ f
I iw
ĠÑģÑĤÐ°Ð½ ÐµÑĤ
ĠÐ¿ÑĢÐ¾Ð¸Ð· Ð¾ÑĪ
ĠÐ²Ñģ Ñİ
ĠvocÃª s
Ġtop ics
Ġsk y
Ġist itu
ĠS le
Ġ05 77
è¢ ĭ
ll as
ĠÑģÐ» ÑĥÑĪ
Ġent h
ĠSt ream
éĽ ¨
å¤ ı
fo x
ad al
ĠãģĬ ãģĻãģĻãĤģ
ĠÐļÑĢ ÑĭÐ¼
ĠÃ©ner gie
Ġposs ibly
Ġloc ali
Ġhal ten
Ġexam ples
ĠOx ford
ĠDam it
ÑĥÑĪ ÐºÐ°
Ð½Ð¸Ðº Ñĥ
g age
ĠÑĥ Ð½Ð¸Ðº
Ġt Æ°Æ¡i
Ġconf ir
ÑĢ ÐµÐ¿
Ã¤s ident
os os
onav irus
ĠÑİ ÑĢÐ¸Ð´
ĠÐ³ Ð¸Ð´
Ġsign ed
Ġpar fois
Ġmar co
Ġdistr ict
Ġb ang
ĠIde en
ĠChild ren
ĠB D
ĠAd obe
å¾Į ãģ«
ä¸Ģ çķª
Ġè ĥ
ĠÐĵ Ð´Ðµ
Ġtr uc
Ġt á»Ļi
ĠZ ona
ãĥª ãĤ¹
ost ÄĻp
ok i
il de
go ing
F orm
ĠÐ¿ÑĢÐ¾ÑĪ Ð»
ĠÐ¿Ð¾Ð»ÑĥÑĩ ÐµÐ½Ð¸Ñı
ĠÐºÑĥÐ»ÑĮÑĤ ÑĥÑĢ
Ġsc ritto
Ġreg ime
Ġprot ocol
Ġpla zo
Ġmas ajes
Ġkos met
Ġbel ie
ĠSt ory
ĠH id
ãģĳ ãĤĮ
z lich
v eg
us se
c ara
Ġzakres ie
Ġvend re
Ġl undi
Ġinterest s
Ġimp uls
ĠPh Ã³
ĠCompr ar
ãĤ·ãĥ§ ãĥĥãĥĹ
kt ro
ĠãģĤ ãĤĭ
ĠÐ¿Ð¾Ð² ÑĤÐ¾ÑĢ
Ġra ise
Ġmanh Ã£
Ġextern al
Ġan ten
Ġad res
ĠV O
ĠKar l
Ġ ć
wie k
un ki
arbeit en
2 000
ĠÐ»ÑİÐ± Ð¾Ð²
ĠÐ¢ Ð¾Ð»ÑĮÐºÐ¾
Ġtra o
Ġng Æ°Æ¡i
Ġentre g
Ġb owl
í ķ
æ¨ ¡
Ñĥ ÑĢÑĥ
Ġus ado
Ġremov ed
ĠD un
x o
ok a
ĠÑħ Ð¸Ð¼
ĠÑĢ Ð¾Ð¼
ĠÐ½Ð¸ Ð¶Ðµ
ĠÐ¼Ð¾Ð³ Ñĥ
ĠÐ·Ð°Ð¼ ÐµÑĩ
Ġsie te
Ġprost u
Ġdar Ã¼ber
Ġcr on
ĠTra il
ĠP OS
ĠDes cription
Ġ. Â»
æĪ »
å¯ Ł
ä¸Ģ ç·Ĵ
¹ æŀľ
ric s
ol ars
at ifs
ĠãĥĽ ãĥ¯ãĤ¤ãĥĪ
Ġut r
Ġscient ific
Ġp ig
ĠW rocÅĤaw
ĠM ER
Ġ13 8
é¤ Ĭ
Ãª Ìī
ing ers
aci ente
ĠÐ¿ÐµÑģ Ð½Ð¸
Ġide ale
ĠA ten
ãģĹãģ¦ãģĬ ãĤĬãģ¾ãģĻ
ÃĶ ÃĤ
ran te
ican os
Ġé ¢¨
Ġrelacion ados
Ġmonth ly
Ġh erv
Ġfun ciÃ³n
Ġad vers
ï¼ °
ÐµÐº Ð¸
ĠÃ© lev
Ġer klÃ¤r
Ġc utting
ĠZ obacz
ĠS ÃŃ
Â £Â
Ġpos ibilidad
Ġen fin
Ġ\ \
ĠConse il
ãģ«ãģ¨ ãģ£ãģ¦
Ġreduc ed
Ġpop raw
Ġpesso al
Ġpad res
Ġinici ativa
Ġf old
ĠPortug u
ĠL ock
ĠBon jour
le ments
ĠÐ´Ð°Ð½ Ð½Ð¾Ð¹
ĠÃ©lect rique
Ġweiter en
Ġwas h
Ġst elle
Ġposit ions
Ġm áº¡ch
Ġjorn al
ĠW ikipedia
ĠGiuse ppe
ĠEn f
æĻĤ ä»£
ãģĮ å¤ļãģĦ
ÑĨ Ñĥ
Å ¡
Ã¤ ger
3 60
00 000
Ġá»ķ n
ĠÑģÐ»ÑĥÑĩ Ð°Ñı
Ġn esse
Ġimpro ved
Ġeffect ively
ĠWel come
ĠS yl
ĠP ract
ĠBo is
ĠB ott
Ġ19 75
Ġ14 6
åı ¸
tain ing
on ego
au che
C S
ĠÑĢÑĭÐ½ ÐºÐµ
ĠÐºÐ°ÑĢÑĤ Ñĭ
Ġtar jet
Ġmod ifica
ĠF IL
å© ¦
pr ice
---------------- ----------------
Ġzaj ÄĻ
Ġremo te
Ġpr ueba
ĠF onte
ãģĦãģŁ ãģłãģĳ
ãģ¤ ãģ®
Ð°Ð´ Ñĭ
c ido
U V
Ġè ģ
ĠÐĴ ÑĤÐ¾ÑĢ
ĠdÃ© t
Ġcommit ted
Ġc ache
ĠRic ardo
ĠPro p
ĠL eder
ĠC Æ¡
ãĥ© ãĥĥãĤ¯
v idas
ĠÐĳ ÑĥÐ´
Ġsig lo
Ġcou leurs
ĠX IX
ĠTod as
ĠO w
èı ľ
ãĥª ãĥ³ãĤ¯
iss ements
ec ke
ĠÐ¼ ÑıÐ³
Ġentfer nt
Ġcompat ible
Ġa presenta
åĭķ çĶ»
ãĤĤ ãģĤãĤĬãģ¾ãģĻ
or am
Ġtele fono
Ġr ile
Ġmeille urs
Ġfe els
Ġc ze
ĠVot re
ĠTh Æ°Æ¡ng
ĠPac ific
ĠC ob
Ġ19 82
åıİ ç´į
ãģĭãĤī ãģ®
asse ur
ĠÐ£ÐºÑĢÐ° Ð¸Ð½Ðµ
Ġwy jÄħ
Ġvar iab
Ġspr zeda
Ġph Ãª
Ġf akt
ĠY outube
fe hlen
Ġä»¥ ä¸ĭ
ĠÐ¿ Ð°ÑĤ
Ġtra z
Ġph Ãºc
Ġparticip antes
ĠP ict
ãĥ¼ãĥĩ ãĤ£
ãģ¨ãģĦãģĨ ãģĵãģ¨
ĠÑĤ Ð¾ÑĩÐ½Ð¾
ĠÐ¿ÑĢÐµÐ´Ð¿ÑĢ Ð¸Ð½Ð¸Ð¼
Ġrealiz a
ĠSt rom
ĠR oc
ĠAll geme
éĿ ©
ç Ĵ°å¢ĥ
ãĥĢ ãĤ¤
ĠâĤ «
Ġch ances
ĠB Ãł
t ant
ic ans
an ego
ĠÐº ÑĥÐ´Ð°
Ġupd ates
Ġk op
Ġdom anda
Ġconh ecer
Ġautom atis
ĠR ip
ĠFoll ar
ĠCap it
z uf
ibil idade
Ġt amaÃ±o
Ġneces ita
Ġcittad ini
ĠbÃ©nÃ© fic
ĠChe v
ut om
EL A
Ġpres entes
Ġl áº¯p
Ġdes ire
Ġcertain es
ĠOs car
ĠDon ne
ãģ¨ ãĤĵãģ©
ãģ£ãģ ±ãģĦ
ÑģÑĤ ÑĢÐ°
va it
kc je
ass ion
W D
Ġpr ison
Ġconc urso
Ġcomm ande
ĠArch ives
Ð¸ÑĢÑĥ ÐµÐ¼
Ð¸Ð² Ð°ÑİÑĤÑģÑı
ĠÑĦ ÐµÐ´ÐµÑĢ
Ġy Ãªn
Ġprincip ali
Ġk urs
Ġim porte
Ġfr ustr
äº¤ æıĽ
P ub
11 2
ĠÐ¾ÑĤ ÑĤ
Ġk at
Ġaten Ã§Ã£o
Ġabsol ute
ĠS tern
ĠPre cio
ĠMay be
ĠBr on
ĠAn tes
Ð¾Ñģ Ð½
iven ess
H V
ĠçĦ¡ æĸĻ
Ġtherap y
Ġreal ize
Ġprzep rowad
Ġok ol
Ġat ual
ĠHÃ´t el
ec en
ĠÑĪÐº Ð¾Ð»ÑĮ
ĠÐºÐ¾ÑĤÐ¾ÑĢ ÑĭÐ¼
Ġtur no
Ġs itting
Ġess entiel
Ġdiscover ed
ĠM ent
Ġ15 2
te ch
ĠÑĥÑĩ Ð¸ÑĤ
ĠÑĥÑģ Ð¸Ð»
ĠÐ¼ÑĥÐ·Ñĭ Ðº
Ġsur gery
Ġsau ce
ĠWi Fi
ĠRep ly
Ġ __
èĭ ±
Ðº Ð¾ÑģÑĤÐ¸
ĠÐ¿ÑĢÐµÐ´ Ð¼ÐµÑĤ
ĠÐ²Ð¾ÑģÐ¿ Ð¸ÑĤ
Ġz astos
Ġsignificant ly
Ġrealiz ada
© æŁ»
ĠÑģ ÑĥÑħ
Ġelect ronic
Ġask ing
ĠSp ra
Ġ25 6
æ°Ĺ æĮģãģ¡
ãĤ« ãĥ«
ĠÐ¼Ð°Ð» ÑĭÑĪ
Ġning una
Ġfor za
Ġdzi ÅĽ
Ġbo ost
ĠVirgin ia
ç Ŀ
ãģ¡ ãĤĩãģ£ãģ¨
Ñĩ Ð¸ÐºÐ¸
Ãºbl ico
u ille
d ings
Ġviv ir
ĠM oc
ãĥ© ãĤ¯
ec raft
Ġt áº§m
Ġsal ida
Ġna uc
Ġm old
Ġk re
Ġfran ch
Ġab us
ĠDis k
du ct
Ġvalu able
Ġcorre o
ĠR ag
éł Ĩ
ÐµÑĢ Ð°Ð¼
ĠÐ¿Ð¾Ð¼ Ð¾Ð¶ÐµÑĤ
Ġswoje j
Ġra zy
Ġperm is
Ġbring en
ãģ®ãģ§ ãģĹãĤĩãģĨ
ãģ¤ ãģĭ
Ð¸ÑĤÐµÐ»Ñı Ð¼
kre is
an ch
ĠÑĢ Ð¾Ð¶Ð´ÐµÐ½Ð¸Ñı
ĠÐ·Ð² Ð¾Ð½
Ġz ip
Ġint im
Ġdes apar
Ġclin ical
Ġchem in
uest os
EL E
ĠãĤ ²
ĠÐ²Ñĭ ÑĢÐ°Ð¶
Ġth áº³ng
Ġesc ola
ĠRena ult
ĠLÃŃ nea
ĠBl anco
ĠAfric an
N z
IC OS
ĠÑĤÐ¾Ð²Ð°ÑĢ Ñĭ
ĠÄĲ á»ĳi
Ġsort ie
Ġp ump
Ġmiem bros
Ġm ouv
Ġdou bt
Ġb ak
èģ ´
åħ ¸
Ð°Ð½ Ð½Ð°Ñı
va Ã§Ã£o
en ho
b w
ĠÑģÐµÐ¼ ÐµÐ¹
ĠÐ·Ð°Ð¿Ð¸Ñģ Ð¸
Ġzob aczy
Ġorganiz aciÃ³n
Ġcu te
ĠP Ãºblico
ĠN atal
Ġ3 44
éĸĵ ãģ«
Ð¾ÑĢ Ð°ÑĤÐ¸Ð²
el h
ĠÑģÐ² ÐµÐ¶
Ġz onas
Ġconf ron
ĠL ut
ĠD aily
ĠBel g
Ġ19 45
k h
it ime
Ġï¼ Ķ
Ġç Ĺ
Ġtra ined
Ġport ion
Ġesper ar
ĠHist oria
ĠGall ery
ĠEx cell
ãĥĳ ãĥ¼ãĥĪ
ÐµÐº ÑĥÑī
ina us
UL L
Ġãģķ ãĤīãģ«
ĠÐ¿ÑĢÐ°Ð² Ð¸Ð»Ð¾
ĠÐ´ÐµÐ» Ðµ
Ġzain teres
ĠsÃ» r
ĠpolÃŃt icos
Ġcontinu ar
Ġc áº§m
ä½ľ ãĤĬ
ãģ® ä¸Ĭ
Ã© ger
ĠÑĥÐ¼ ÐµÐ½ÑĮÑĪ
[...]
