#version: 0.2
ã ģ
Ġ Ð
Ð ¾
ã Ĥ
Ð µ
ã ĥ
Ð °
á »
Ð ¸
Ñ Ĥ
Ð ½
Ñ Ģ
Ñ ģ
Ð¾ Ð
á º
n g
Ġ t
e n
e r
Ð »
Ġ c
Ġ a
ã Ģ
Ġ d
Ġ ãĢ
c h
Ð º
e s
Ñ ĥ
Ġ Ä
Ã ©
o n
Ġd e
i e
Ġt h
n h
o s
Ñ ı
Ñ ĭ
ĠÄ ĳ
Ġ p
Ð° Ð
Ðµ Ð
Ã ł
Ġ l
Ġ s
e i
a r
Ñ Į
ĠÐ ¿
a s
Ġ .
Ñģ ÑĤ
Ġ i
t o
Ġ ,
t i
Ã ¡
Æ °
Ġth e
o u
Ġ w
Ð ²
ĠÐ ²
Ġ e
Ġ v
Å Ĥ
c i
o r
t a
ãģ ®
ãģ Ħ
Ñ ĩ
ĠãĢ ģ
Ðµ Ð½
Ġ Ñģ
Ġ h
n d
r e
ãĥ ¼
Ġd i
l l
Ð ¼
ĠÐ ½
Ġ Ã
Ð¾Ð ²
ï ¼
ãģ §
Ġ z
l i
Ġc h
Ġ m
ãģ Ĺ
Ġ b
Ġ f
u e
o w
ĠÐ ¸
Ġ n
ãģ «
Ġ k
i á»
Ð ´
a d
ãģ ¦
Ġ o
Ä Ļ
r i
a n
Ġ Â
Ġ ãĥ
ĠÐ ¾
ãģ ¨
t e
Ñ ħ
ãģ ª
Ġ S
ĠãĢ Ĥ
Ġt r
Ä ħ
Ã £
Ġ nh
Æ° á»
ãģ Ł
Ġt o
ĠÐ º
ãģ Ļ
ãģ Į
ãĤ ĭ
Ã£ o
Ġ en
ãĥ ³
c z
Ġ å
Ġa nd
Ðµ ÑĢ
ãģ ¯
áº ¡
Ð° Ð½
áº ¿
Ġl a
Ã ³
Ðµ ÑĤ
Å ¼
Ġ T
Ã ´
Ã §
i s
o m
Ġo f
Ġi n
Ġ ï¼
ĠÐ ´
q ue
ãģ ¾
a l
Ð ¿
Ġ ãĤ
Ġ g
Ð¾ ÑĢ
Ã ª
i ng
u n
Ð° ÑĤ
z i
Ġ y
e d
ãĤ Ĵ
Ð¾Ð »
Ġk h
ei n
áº £
r z
ĠÐ¿ ÑĢ
u r
Ġ es
Ð¾Ð ¼
t h
Ñ İ
en t
Ġ C
Ð¸ ÑĤ
Ġ que
Ð½ Ñĭ
Ð¾Ð ´
Å Ľ
Ġ æ
ĠÐ ¼
Ðµ Ð»
Ġ ng
Ð ±
á» Ļ
Ġ -
Ð° Ð»
Ñ Ī
Ġ ÑĤ
Ġ â
Ñ Ĩ
ãģ ĭ
Ã ¼
Ġ A
u nd
Ġe l
Ġ ÑĢ
áº ¥
a t
Ð ·
Ġp h
Ġ '
Ð½ Ð¾
i n
ãģ £
o l
ä ¸
Ġ B
Ġ D
Ġâ Ģ
o d
i a
Ġ E
Ã ¢
ti on
Ã Ń
á» ĳ
ãĥ¼ ãĥ
Ð¾Ð ³
ãĤ Ĭ
u ng
Ġ P
Ã³ n
Ġc on
Ġc om
iá» ĩ
s t
on e
ãĤ Ĥ
Ã ¤
a m
Ð ¹
Ñģ Ðº
ãĤ ¹
Ġ ãģ
Ð ³
Ġ j
Ġe t
u m
l e
Ġ un
Ð¾ ÑĤ
Ã ¬
Ãª n
ãģ Ĩ
ĠâĢ Ļ
Ġ M
Ð¸ Ñı
Ġ I
ou r
Ġp er
Ġ und
ãĤ Į
r a
ĠÐ ±
Ð¾Ð ¹
Ġ Ãł
Ġn a
ãĥ ĥ
e m
ãĤ ī
Ġ 1
q u
Ġl e
i d
Ã´ ng
r o
i t
ãĤ ¤
Æ ¡
ÐµÐ ¼
ĠÐ½ Ð°
Ġ L
Ġ N
Ġ 2
ll a
Ä ĩ
z y
u s
Ð° Ðº
á» §
Ð¾ Ð½
Ã§ Ã£o
ãĥ Ī
t en
Ġ :
c a
i ÄĻ
Ð¸ Ð½
ä º
áº Ń
k i
ÐµÐ ´
Ġ ein
v e
Ġ ç
ĠÄĳ á»
Ġv á»
Ġd o
k a
Ġs e
Ð° ÑĢ
ĠÐ ·
Ġv Ãł
Ġd er
Ġ F
Ġw i
Ġ re
Ġ K
Ġd ie
Ġ Ñĥ
Ñ Ħ
Ñ ī
n i
ar e
Ġ G
ãĤ ĵ
ci Ã³n
áº §
Ġ W
Ð°Ð ²
Ġe m
Ġi l
Ġi s
ar a
Ġ 0
Ð°Ð ¼
Ã³ w
ãģ ı
Ð¸ Ðµ
s ch
t er
Ð°Ð ·
Ġb e
c e
Ġf or
s i
n e
Ġ qu
ç Ķ
g o
æ ľ
e l
Ġ x
Ġp rz
Ġ um
Ñģ Ñı
a k
ãĥ «
Ã¡ c
Ã ¨
Ġl Ãł
ä »
i áº¿
Ġd es
Ð ¶
Ġch e
i o
ĠÐ ³
r Ã©
zi one
Ġ H
Ð» Ð¸
i ch
Ġl es
h r
Æ°á» Ŀ
ãģ į
Ġd a
Ġth á»
y ch
ĠT h
u y
Ð¾ Ñģ
u f
Ġt á»
Ġ è
Ġp or
Ð¸ Ðº
Ġ Ñĩ
Ľ i
n ie
Ġl os
Ġ /
ãĤ ¯
Ð¸ Ð¼
ãĥ ©
áº¥ t
ÑģÑĤ Ð²
ĠÐ Ł
Ġ ri
Æ°á» £
Ð¾Ð ±
y m
ãģ¾ ãģĻ
áº¡ i
c j
ãģ ĵ
å ®
ï ¿
Ġ é
æ ĸ
c o
Ä ĥ
Ġ Ã©
ï¿ ½
ãģĹ ãģ¦
Ð¾Ð³ Ð¾
Ġg i
ĠÐ ¡
ãĥ ª
Ġp ara
ãģ ķ
Ġ (
ĠÐ Ĵ
Ġp o
Ã ¶
Ġc á»§
Ġc Ã³
z a
Ġcá»§ a
Ã º
ĠÄ Ĳ
å ı
ãģ£ ãģ¦
r es
l y
n o
Ġ R
Ð» Ñı
ÐµÐ ¹
ou s
Ġw h
Ð° Ñı
Ġde l
ãģ Ĥ
Ñ į
t re
ĠÐ °
g en
Ġa u
e t
Ġh á»
Ġ on
m a
ãģ§ ãģĻ
Ġy ou
Ð¸ Ð¸
i en
Ġw y
å ¤
ä ½
Ġn ie
Ġs u
Ġ V
b er
Ġth at
Ðµ Ðº
ãģ ł
t Ã©
Ġwi th
å Ī
n a
å ħ
Ð¾ ÑģÑĤ
Ð°ÑĤ ÑĮ
Ð° Ñģ
o ng
g e
ãģĹ ãģŁ
a u
Ġp our
Ġ )
v er
Ð¾Ð º
á» ĭ
Ĺ ¥
Ġn o
ĠÐ ļ
Ġãĥ »
d o
Ã¬ nh
a y
Ð¾Ð ¶
ĠÐ »
c k
li ch
áº ¯
g h
a ÅĤ
Ð¸ Ð»
ãģ ĳ
ĠÃ ¨
ll e
ĠÐ¾ ÑĤ
al e
Ġa l
Ã¼ r
Ġp ar
Ġ O
ÑĤ Ð¾
ĠÐ½ Ðµ
t y
u l
t s
Ġs iÄĻ
Ð¸ Ð¹
an s
Ġz a
ad o
Ã¢ n
Ã ±
Ġes t
ÑĢ Ñĥ
on i
m e
Ð¸ Ð²
Ġ Ñį
a b
Ġd u
ãĥ³ ãĥ
a i
ãĥ³ ãĤ
Ġl as
á» ¯
g li
ci on
g g
Ã ²
Ġ2 0
iá» ģ
Ġ r
ãĤ Ī
ãĤ ¢
á» ±
ĠÐ¾ Ð±
ÐµÐ» ÑĮ
a is
m en
ãģ® å
Æ°á»£ c
e j
Ðµ Ñģ
j Äħ
ãĥ¼ ãĤ
te d
Ġ ÑģÑĤ
d er
Ð¸ Ñĩ
d z
w i
ãĥ ¬
Ġa s
p p
Ġs i
á» ©
æ Ĺ¥
Ġ u
á» ¥
å Ĳ
v a
Ġun e
i r
Ð°Ð ´
ÐµÐ ²
á»Ļ t
Ġd as
ãģ Ĭ
Ġc Ã¡c
an t
Ġa re
e c
s o
Ġkh Ã´ng
è ¨
ĠTh e
Ãł y
Ġch o
ÃŃ a
Å¼ e
Ð¾Ð» ÑĮ
ãģª ãģĦ
Ġun a
Ġa n
Ġd Ã©
Ġz u
w a
ÅĽ ci
ãģ£ ãģŁ
Ã ¹
á» Ł
ĠÐ¿ Ð¾
l d
äº º
Ġ or
Ġm it
ĠÄĳ Æ°á»£c
è ¦
on o
Ð¸ ÑĢ
ï¿½ ï¿½
ÐµÐ ³
Ġp l
ĠÐ ł
áº ·
ĠÐ Ŀ
Ġv on
Æ° Æ¡
i c
ĠÐ ľ
Å Ħ
Ġh a
Ġi t
ÐµÐ½ Ð¸Ñı
i Ãªn
s e
d en
Ġd en
Ġs ur
áº§ n
ï ½
Ġp ro
a li
Ð¸ÑĤ ÑĮ
Æ°á» Ľ
Ð¸ Ð·
ĠÐ ŀ
Ð¾Ð ·
Ð°Ð» ÑĮ
å ¹
é Ģ
ad e
u t
ãģĻ ãĤĭ
ch en
ĠÐ² Ñĭ
Ġde lla
Ġw e
á» ĩ
é ĸ
iá»ĩ n
Ġo d
Ðº Ð°
es t
Ðº Ð¸
er e
Æ°á»Ŀ i
Ġtr ong
b i
m ent
ãģ ©
an o
k u
em ent
m o
ei t
Ġ U
Ð½Ñĭ Ðµ
Ð°Ð ±
Ġ "
d ad
ãģĭ ãĤī
ãģ Ī
z e
c y
i l
Ġm á»Ļt
ãĤ ģ
Ġ er
ĠÐ µ
Ã µ
æ Ģ
Ġng h
ti ng
áº¡ n
ĠC h
. .
Ġvá» Ľi
k o
j e
Ġ Z
d i
er s
Ð½Ñĭ Ñħ
ä ¼
Ġs p
Ġi st
Ãµ es
ãĤ Ħ
iá» ĥ
ãģ® æ
Æ°Æ¡ ng
Ð¸ Ñħ
Ġ 3
Ð¾Ð ¿
Ġf Ã¼r
Ġy our
Ġum a
Ã¡ s
Ð°Ð ¹
é ģ
ÐµÐ ·
Ġa uf
ãģĵ ãģ¨
a to
ãĥ ķ
Ġï¼ ī
iá»ģ u
Ð½Ñĭ Ð¹
Æ°á»Ŀ ng
Ã Ł
Ġn on
d e
Ġd ans
a ng
áº£ i
Ġa t
Ð¸ Ñģ
Ãł ng
k ie
Ġe x
ou t
ÑĢ Ð°
nd o
ĠÐ Ĳ
Ð½ Ð¾Ð¹
á» į
v i
ãĥ Ń
ad a
ÅĤ a
Ãł nh
ĠãĢ į
ow an
áº£ n
Ġï¼ Ī
Ġ rÃ©
ãģ ¤
c ie
ci a
ĠÐ Ķ
ãģ ¡
å º
Ġ ÑĦ
è ¡
Ġ os
Ġs h
r ei
0 0
Ġ20 1
Ġg e
t r
Ġng Æ°á»Ŀi
m p
ch e
l a
ãĤ ¿
r om
Ð° ÐµÑĤ
Ãł n
Ġ J
á»¯ ng
Ġl o
å ¸
ãĤ ·
Ð½Ð¾ ÑģÑĤ
ĠÐ¸ Ð·
ich t
Ã¡ ch
Ġp as
ãģ Ľ
n y
Ãł i
ĠS ch
å Ľ
ãĥ Ĺ
å¹ ´
i nh
ĠãĢ ĳ
áº§ u
Ð½ Ð¾Ð³Ð¾
Ġi m
an n
a o
Ġn e
ÐµÐ½ ÑĤ
ÐµÐ½ Ð¸Ðµ
cz y
Ġnh Æ°
ĠÐ´ Ð»Ñı
á» ĵ
ĠãĢ Į
Æ°á»Ľ c
Ļ Ĥ
Ñĥ ÑĤ
ol o
en te
Ð°Ð ¶
es s
ãĤ £
o b
ãĤ ı
Ñİ ÑĤ
Ñĥ Ð´
Ã¢ y
áºŃ n
Ġm o
Ġc u
æ °
Ġ ro
æ ī
ĠÄĳ á»Ļ
ãģ ¿
Ġv er
ãģĦ ãĤĭ
Ġh o
Ã´ i
Ġprz e
t Ãł
ch t
ãĤ ³
Ġha ve
a ll
ĠÐ ¢
Ã© e
Ġl i
Ġj est
ÑĨ Ð¸
w o
a nh
å Ń
é ĩ
Ð° ÑģÑĤ
Ġnh á»¯ng
Ġn Ã£o
å ĵ
Ð¾ Ñĩ
Ġqu i
th er
áº¿ n
Ġãģ Ŀ
ĠÐ ¶
Ġc an
Ġp i
Å¼ y
p a
ĠE s
ĠÂ »
á» ķ
u x
ĩ º
om e
b en
ÅĤ o
iáº¿ t
Ġw as
Ġ us
Å ©
ãĥĥ ãĥĪ
á» Ń
Ġf rom
Ġth is
Ð¸ Ð´
e go
i ca
on t
áºŃ t
ĠD e
t os
al es
çĶ ¨
Ġp od
Ġ 4
on s
u re
å Ĩ
Ðµ ÑģÑĤ
Ã¡ n
ĠE n
Ã§ Ãµes
or e
Ġs er
s en
Ġa p
ç ´
ĠÐ ĺ
æ Ŀ
Ġs ch
Ð¸ ÑģÑĤ
d a
t Ã³
v o
n en
å ł
ĠÑĩ ÑĤÐ¾
ĠÄĳ Ã£
Ðµ ÑģÐº
r y
Ġprz y
Ġ ou
Ġ ä¸
c c
b b
Ã¡ ri
cion es
å ĭ
ÃŃ nh
Ñĥ Ñİ
Äĥ ng
zi oni
Ġ 5
ãĥĥ ãĤ¯
ĠP h
ĠÐ¿ Ð¾Ð´
z za
t u
f f
t to
ĠÄĳá» ĥ
Ŀ i
è ª
Ñı ÑĤ
Ġm a
Ġb y
è ²
ç Ľ
ll o
l o
Ġwi ll
Ñĥ ÑĢ
rz e
Ð°Ð ¿
ç µ
er a
ĠÂ «
ãĥ Ĩ
áº¿ t
Ġa ve
ĠT r
ãĤ «
å ¾
Ġthá» ĥ
ĠL a
ĠE l
cj i
Ġm ais
Ðµ Ñĩ
ĠÑĢ Ð°Ð·
tion s
ĠV er
Ġv ous
Ð¾Ð² Ð°Ð½
á»ĳ i
Ġs ich
en ti
h l
æĸ Ļ
Ġn icht
å ¼
ĠÐ ĳ
Ñĥ Ñĩ
ãģ¾ ãģĹãģŁ
Ġwi r
i er
Ġk tÃ³
è Ģ
Ð½ Ð¸Ðº
dz ie
p o
ãĥ ¡
ãģ® ãģ§
ç Ħ
Ġa us
e ar
Ġï¼ ģ
u o
åĪ Ĩ
áº ©
ĠÑģ Ð²
id e
n ych
i g
Ġ Å¼e
Ġj ak
Ã¹ ng
ĠÐ± Ñĭ
ãģ¨ ãģĦ
Ġv o
ur s
w ie
ĠN h
Ġs ta
Ġãģ ĵ
Æ¡ n
Ġc e
Ð°Ð ³
Ġ Q
ãĥ ŀ
k ow
Ġpl us
r as
s z
å ¿
æľ Ī
ĠÐ¿ÑĢ Ð¾
ãĥ £
æ ¥
ÐµÐ ±
Ġcom o
en ia
å ĩº
Ġ Ñħ
Ð½ Ð°Ñı
ĠS ie
ie l
ur a
ä¼ ļ
ãģĦ ãģ¾ãģĻ
Ġc z
n ia
å Ĭ
gh t
Ġc Ã´ng
ĠãĢ Ĳ
áº ½
s zy
Ġave c
ĠÐ¿ ÐµÑĢ
ĠÐ² Ñģ
á»Ļ i
ÅĽ Äĩ
Ġth u
Ġb áº¡n
Ġw or
t ra
á»ĳ ng
åĵ ģ
Ġm Ã¡s
gg i
á» ī
iá»ĩ t
Ġa c
Ġs o
er o
en ie
ĠI n
ãĤĴ æ
ä ¿
Ġde i
cz e
an ia
ãĤ µ
Ã© s
ãĥ ī
Ġï¼ ļ
äº ĭ
d ade
g u
Ð¸Ñĩ ÐµÑģÐº
Ġtá» «
ãĥ ¥
Ġn Ãły
Ġb ei
Ã ½
an ie
ung en
Ã¡ i
a z
£ Â
ĠÐŁ ÑĢ
Ġl á»
å¤ §
Ġ ra
a j
d zi
en to
æĸ ¹
Ð½Ñĭ Ð¼
Ġein e
Ġm á»
Ġno t
Ð½ Ð°
Ġqu es
ÑĢ Ð°Ð½
Ġd os
ãĥ Ĳ
c t
ç ī
Ġhá» į
i re
Ð ŀ
ĠS e
Ð¿ ÑĢ
ĠD ie
â Ģ
Ðµ ÑģÑĤÐ²
Ġau ch
é Ľ
Ġæ ľ
Ġes ta
ĠÐ¿ Ð¾Ð»
Ã¡ t
ãģĤ ãĤĭ
á»ĳ c
Äĥ m
æľ ¬
ĠÑĤ Ð°Ðº
ãĥ ģ
ĠÐ ĵ
Ñĭ Ðµ
å ±
Ã¡ ng
a nd
ti s
ÐµÐ ¿
d y
Ġa ll
Ð½ Ð¸
t ro
es z
Ġg iá»
Ġ ä»
s a
ĠL e
ou ld
Ġkh i
m i
Ġg o
å ľ
b y
ĠÄĳ áº¿n
Ġgi Ã¡
Ġs z
ÑĨ Ð¸Ð¸
Ġm u
ãģ Ŀ
Ġp el
Ð¾ÑĤ Ð¾ÑĢ
Ġs c
Ġp e
Ġa b
á»© c
¡ Â
ÅĤ y
áºŃ p
ĠÐº Ð°Ðº
ad os
Ġvá» ģ
ar d
ãģ °
ãģĦ ãģŁ
Å© ng
ĠN g
Ġs ono
in i
ãĤĪ ãģĨ
a ch
å į
iáº¿ n
Ġg ia
Ġp re
ĠlÃł m
z ie
m er
Ð ł
Ð°Ð¼ Ð¸
Ã¨ s
æ ĻĤ
Ġj e
en ta
ãĥ ĭ
ĠÑį ÑĤ
ow a
Ġ á»Ł
Ġpi Ã¹
ow ie
ãģ¨ãģĦ ãģĨ
å ī
áº¥ y
ĠÐ¸ Ð½
Ġde m
Ã§ a
Ġde ll
Ñĭ Ð²
Ġm e
o k
ÐµÐ ¶
å ¯
ãģķ ãĤĮ
ä¸ Ń
u i
ãģ« ãģª
Ð ¡
Ġt áº¡i
æ Ħ
Ġ !
ãģĤ ãĤĬ
ãĥ¼ ãĤ¹
åħ ¥
Ġc áº£
åĲ Ī
Ñħ Ð¾Ð´
Ġp os
ĠÑģ Ð»
Ð´ Ð°
k t
Ġ Ñı
ãĥ¼ãĥ «
à ²
iá»ĩ u
u b
i nd
ãĤ ¦
Ã¨ re
Ġo b
å ½
r ou
er t
Ġ res
è¦ ĭ
áº ±
in e
ä ¾
æ° Ĺ
s te
Ġt em
ãĤ į
Ġcom p
Ġs áº½
è¡ Į
Ġp r
Ñĥ Ð¿
ãģĦ ãģ¦
qu es
ç Ļ
ãĥ ĸ
æ ķ
Ãª u
Ġ ï½
ç ļ
to ri
Ġ ÅĽ
ä¸ Ģ
Ġd á»¥
ĠÐ¿ÑĢ ÐµÐ´
Ð Ĳ
t ti
Ġa r
ĠâĢ ĵ
Ġh e
Ñĭ Ð¹
ãĤ Ń
ãĥ ĩ
ĠS p
ĠA n
çĦ ¡
Ġ0 3
f t
i ci
Ã² ng
æĢ Ŀ
ĠÐ· Ð°
å °
Ñĥ Ð±
Ġ ;
ä¸ Ĭ
Ġp ra
Ð¸ÑĤ ÐµÐ»ÑĮ
en d
ĠÄĳ Ã³
éĸ ĵ
é ĥ
a hr
Ġi ch
ow n
ÐµÐº ÑĤ
Ġnh Ãł
Ġc Å©ng
ÅĤ u
ãģ ĺ
ai re
Ġm Ãł
ãĥ³ãĤ °
Ġ ÑĨ
er n
d os
Ġå ¤
Äĥ n
ad or
Ġt ut
Ġ ?
men to
er i
Ġh as
Ġt i
ãģ Ķ
Ġh Ãłng
æ Ń
ĠI l
ĠQ u
h o
z z
ĠÐº Ð¾ÑĤÐ¾ÑĢ
æ Ī
men te
a g
æ ³
uy á»
Ã© r
am i
Ġp ri
Ðº Ð¾
Ð½Ð¾ Ðµ
an ce
ãĤ ¸
ĠvÃł o
ĠÄĳá» ĭ
Ġg ra
ĠãĤ ¹
k e
Ġa o
ar i
Ġa d
áº «
ãĥ ł
Ġtr Ãªn
to w
Ġm i
a Ã§Ã£o
c ul
id o
Ġn el
ãģ§ ãģį
ĠÐº Ð¾Ð¼
s ta
Ðµ Ðµ
ãģ® è
å Į
Ġdi es
Ġu p
Ġl áº¡i
áº· t
å ¥
Ġnh iá»ģu
m y
ÐµÐ½ ÑĮ
áº »
ĠÐ¿ÑĢ Ð¸
en za
Ġd la
Ð» ÐµÐ½
ãģ§ ãģ¯
ãĥ §
Ġde lle
r os
ei ra
t es
j er
Ñ ĳ
s ki
Ġa lla
ç ¤
Ġw ie
ung s
ĩ ª
Ñĭ Ñħ
é ¡
Ð° Ñħ
ei ro
ĠâĢ ľ
Ãł o
ãĥ¼ãĥ Ī
ÐµÐ³ Ð¾
Ġb ut
Â µ
Ì ģ
l es
Ġs a
ĠÐ £
e k
Ã Ħ
Ġcom e
u ch
Ġs á»ĳ
Ñĥ Ð»
ĠãĤ ¢
Ã© m
Ð°Ð± Ð¾ÑĤ
ãģ Ń
áº¥ p
Ñģ Ð¿
å ·
Ġc os
ĠÃ ¼
b re
w ei
åł ´
Ġ our
u st
an i
Ġf a
çĶ Ł
b le
ãĤ »
es ch
id ad
Ġw er
ãģķ ãĤĵ
Ġn Ã³
c er
iá»ĩ c
é Ļ
ãģ® ç
å £
áº ¹
f or
Ġc o
ãĥ³ ãĥĪ
« ĺ
ãĥ Ł
l ei
ei r
ĠP or
Ġ Y
ti g
áº£ o
Ñĥ Ð¶
ĠÄĳ áº§u
Ã¡ o
Ġp res
Ġro z
Ġo der
Ġan che
p er
ĠâĢ Ķ
Ġt ak
ve l
Ġ. ..
ĠÑģ Ð¿
£Â ¬
Ä ©
ãģ« ãģ¯
ãĤ °
x o
Ġch á»ī
Ġf o
Ñĥ Ð¼
çļ Ħ
Ġ 6
ien to
ĠÐ Ĺ
n ym
ãĤ ª
Ãº ng
ãĤ §
Ġs á»±
Ġc zy
cz ne
Ġm ore
Ġn os
ch i
an no
r u
b e
Ġãģ Ĭ
ow e
Ġnh áº¥t
ĠÄĳá» ĵ
å® ļ
Ã Ĳ
Ġp rÃ©
Ġi mp
Ġ ÑĪ
ĠÐ¼ Ð¾Ð¶
Ġt e
Ġb á»ĭ
Ġth eir
ĠÃ¼ ber
h en
Ð¾ Ðµ
c es
Ġn Äĥm
ç ľ
it Ãł
it y
ãĥ ĳ
ãĤ ¨
Ġh iá»ĩn
in o
ÃŃ ch
s kie
æĢ §
Ġdá»¥ ng
æ¥ Ń
Ð¾ÑĢ Ð¼
Ġin ter
Ġ X
Ġt y
ide os
ta li
Æ°á»£ ng
ĠÄĳá»Ļ ng
èĢ ħ
ç ķ
Ġ ãģ¨
Ġa v
ĠâĢ Ŀ
ti ve
ĥ n
Ġh ab
s p
Ã¢ u
g i
cj a
Ðµ ÑĪ
å ĳ
ta n
ä½ ľ
w y
ç Ĳ
c tion
áº¯ c
Ã¡ nh
Ġ |
Ġp ue
Ã² n
uy Ãªn
Ġng Ãły
Ġthe y
Ġ out
p e
ĠÐ Ľ
ĠE r
en n
ĠK h
ow y
c u
Ã© es
or i
an te
Ð° ÑİÑĤ
á»± c
t z
Ã¡ p
á» ı
Ġsi nd
v en
Ñĥ Ñģ
j a
è ©
ãģ§ ãĤĤ
ti c
Ġ 7
t ri
æ ł
ĠÑģ Ð¾
Ġ one
áº± ng
on n
Ðµ Ñħ
áº· c
Ġth Ã¬
Å º
Ġs ome
ĠÐº ÑĢ
Ġv iá»ĩc
Ġh at
Ġth Ãłnh
ent es
Ð¸ ÑĨ
er en
on es
Ġm y
ou n
ci o
ãĥ Ĭ
in a
± c
Ġhá»į c
Ġph áº£i
Ġ %
Ãº c
id ade
ĠÐº Ð¾Ð½
h n
Ð½Ð¾ÑģÑĤ ÑĮ
Ġwer den
c or
æī ĭ
æ ĺ
Ġv or
Ã¶ n
Ġj ed
ĠB e
ĠÄĳ i
Ġal s
ÑĤ ÐµÑĢ
è ³
ie j
ĠR e
á»ĩ n
ni k
áº¡ o
ĠE in
te ur
Ġb o
£ p
æ Ľ
Ġa pp
Ġ {
am ento
Ġwor k
á»ĭ ch
Ð° ÑĪ
Ð°ÑĢ ÑĤ
ĠC om
Ġo p
all y
ĠL es
Ġqu y
Ġs ont
Ã´ n
ol a
ll en
Ð½ Ð¾Ð¼
r Ã³
Ð½Ð¾ÑģÑĤ Ð¸
Æ¡ i
Ã¢ m
ĠW e
ĠC on
Ġ }
on a
Ġ #
ħ n
n Äħ
Ġc a
et te
ãĥ ĵ
iá»ĥ m
Ã Ĭ
Ġt er
a ndo
å Ģ
Ð ĺ
Ġna ch
å¸ Ĥ
Ġf e
ãģ ļ
Ã± o
ãĤ ĥ
gg io
c Ãª
p le
m os
ein e
Ġs em
Ġn Æ°á»Ľc
Ã¡ y
ģ n
è ¿
Ġ0 9
p i
ĠÐ¿ Ð»
ei l
te l
iá»ģ n
Ġs us
Ġn as
Ġwh ich
Ġ 8
é ł
qu i
áº¯ t
Ð¸Ð» ÑĮ
an a
Ġab out
áº¡ t
ll es
ãģª ãģ©
ÑĢ ÐµÐ¼
ãĤ¤ ãĥĪ
\ \
Ġ 9
Ġt iáº¿
ãĥ »
ĠÐ ķ
ãģĹ ãģĦ
c on
çī ©
Ġof f
ãĤ ĩ
Ġ ]
çĲ Ĩ
m es
in s
Ġå ®
Ã§ o
ng e
Ġc i
or t
od zi
am e
si on
ãģ¾ ãģĽ
ti v
Ðº Ñĥ
ĠG e
Ġt Ã´i
áº© m
Ġs k
Ð¶ Ðµ
Ġc as
ÑĢ Ð¾Ð²
et to
ĠÐ¿ Ð¾Ñģ
Ġx u
è »
Ā Ā
Ġs áº£n
ĠA r
Ì Ģ
ĠÐ¸ Ð»Ð¸
Ġun s
or es
bi li
áº¥ n
b a
ÑĢ Ð¾
Ġv i
to r
åı ĸ
ent s
á»Ļ c
Ġs ie
Ãªn cia
Ð½ Ñı
ĠP o
áº« n
Ġg li
or o
Ġch ÃŃnh
r an
Ġhá» £p
Ġå ħ
Ġm ak
Ġin c
ĠN am
ĠI t
ĠÐ ¤
éĩ ĳ
Ġti me
et z
ĠÑį ÑĤÐ¾
è¨ Ģ
au x
ab le
Ġprze z
Ġp a
ĠÐ¾ Ñģ
Ð Ŀ
ãĥ Ķ
ÐµÑĤ ÑģÑı
Ġp u
ou ve
ta l
Ġ ï¿½ï¿½
Ġm an
Ġd zi
Ġna j
Ġqu an
é £
rz y
Ã¡ri o
Ġnh Ã¢n
ãĥ¼ãĥ ī
ÅĤ ad
é Ŀ
Ġ ï¿½
åŃ Ĳ
Ñİ Ñī
Æ° a
Ġal so
Ð°Ð½ Ð¸Ñı
Ð¸ Ñİ
Ã Ķ
g ar
ol e
ur ch
ãĥ¼ãĥ ł
ar io
Ġ [
id a
jÄħ c
Ġes te
s er
ow i
ĠÐ³ Ð¾Ð´
ĠÄĳá»ĭ nh
ĠÐ¾ Ð´
Ð» Ñİ
u c
Ġ Å
Ð° Ñĩ
Ġdas s
Ð ļ
Ġh is
è ī
Ġsi nh
t ta
Ġh i
Ġ1 0
Ġsu a
ĠTh is
on y
ãģ¾ãģĽ ãĤĵ
Ġh Æ¡n
Ġs ob
ãĥ³ãĥ ī
Ġvo tre
áº£ ng
ĠÑĢ Ð°Ñģ
ä½ ¿
Ġt out
Ð¸ Ð»Ð¸
Ðº ÑĤ
è £
bi le
d as
no ÅĽci
Ð°ÑĤ ÐµÐ»ÑĮ
Ã ĸ
ãĤĮ ãĤĭ
Ã ĭ
Ð² ÐµÑĤ
ad as
Ġ =
u est
Ġs on
Ã Ģ
åĭ ķ
Ġy ear
Ġa m
t as
Ġngh iá»ĩ
Ġm Ã¬nh
Ġc ao
ĠÂ ¹
a us
ĠÑĤ Ð¾
an e
ti ca
Ãª m
u je
Ì £
nie j
Ġk on
Ġan y
Ġ1 9
Ġm od
Ð ¢
Ã Ĵ
Ð ķ
ĠÑĤ ÑĢ
Ã± os
r Ã¼
u d
ĠV iá»ĩt
Ñģ Ð»
c ar
Ð°Ð» Ð¸
Ġkh o
ia mo
ti que
ĠÐ¸ Ð¼
h e
2 0
Ġm on
ç ¨
åī į
á»¥ c
ÑĢÑĥ Ð³
our s
ä½ ĵ
Ġwir d
ĠÄĳá» ģ
ãģ¨ æĢĿ
ĠÐ §
ãĤ¹ ãĥĪ
ĠÄĳá»ĵ ng
Ġpor no
á»ĳ t
Ġé Ģ
Ġa i
é «ĺ
ne j
Ġn ous
ll i
Ġå Ĳ
Ð¿ Ð»
u it
si one
a Å¼
ĠD as
åĨ Ĩ
Ġc Ã²n
æ ´
Ġe d
s ze
Ġor az
Ð°ÐµÑĤ ÑģÑı
ĠÐ Ń
ãĥĥ ãĥĹ
l Ã©
Ġthe o
s ka
ãĤ ±
or a
p s
ĠÐ² Ð¾Ð·
m s
ne go
Ġg et
ĠÃ £
u to
w ia
ç ·
Ðº Ð¾Ð²
ĠÂ ¡Â
Ã ı
ãĥ į
á»ĳ n
ãĥķ ãĤ
g a
Ġn Ãªn
ĠÑĢ Ð°Ð±Ð¾ÑĤ
p ri
ãģł ãģĳ
Ġmá» Ľi
Ã© ri
ĠÂ ½
ä» ĺ
ar y
iá»ĥ n
æ ¸
t t
Ġau x
Ð¾Ð»ÑĮ ÐºÐ¾
Ġth áº¿
g er
E R
ĠW y
iá»ĥ u
ĠS t
Ġs á»Ń
ch o
ç¤ ¾
Ġse u
Ġw ar
Ġp es
Ġfo i
Ġc Ã¡ch
Ġm as
Ġne w
åĽ ½
Ġ" :
ÑĨ Ð¸Ñı
ĠÃ ´
te t
ĠÂ £Â¬
os e
O N
v ing
Ġz um
Ð¸ Ð±
Ġein en
Ġï¼ Ł
Ġd al
Æ°á» Ł
çĽ ®
re e
an ti
Ġd á»±
Ġk ann
æ µ
çĻ º
Ġm ar
Ġc am
Ġt ien
Ð¸Ð½ Ð°
æ Ĭ
ĠA us
éĥ ¨
ķ ·
zi on
Ġthá» Ŀi
áº¿ u
ç §
am os
Ġs au
ĠÑģ Ð¼
áº¡ nh
Ġtr Æ°á»Ŀng
es e
Ġc Æ¡
á»© ng
ĠãĤ ·
é ļ
ll y
ur o
ri ng
éĢ ļ
Ð½ Ð¾Ð²
åĽ ŀ
Ġp ow
os t
Ð³ ÑĢ
ãĥ Ģ
ãģª ãģı
Ġ ãģ¾
Ġr áº¥t
åŃ ¦
a in
ÑĤ Ð¾ÑĢ
ä ¹
Æ°á»Ł ng
Ġth Ã´ng
ti f
u er
ãģ§ãģĻ ãģĮ
è ĥ
Ġh Ã¬nh
Ġthá» ±c
ĠÑģ ÑĢ
Ġper o
ci as
ç «
Ã³ ÅĤ
ï ¾
ĠP ro
j ÄĻ
Ġthá» ©
Ã Ĥ
ç Ł
sch a
ei ter
Ġvo cÃª
Ð³ Ð¾
am b
ĠÂ ·
Ġs Äħ
ĠU n
Ġques to
Ġãĥ ķ
st en
ĠÐ° Ð²
Ġsob re
ĠÃ ª
æ Į
g t
h i
ĠÐ½ Ð¾
Ã© n
Ġk á»
h re
7 9
Ġl u
ãĤĮ ãģ¦
Ã¶ r
Ġtr a
1 0
ĠãĤ ³
Ã ģ
æ §
Ð°Ð¹ ÑĤ
ut as
ĠÑģ Ð°Ð¼
a ge
Ġper s
Ġne ed
ãĥ ¯
ĠÐ± ÑĥÐ´
as e
Ã ĥ
Ġc or
p res
ĠÄĳ iá»ģu
am ente
Ġt in
is s
ĠP er
Ñĭ Ð¼
Ġn i
it Ã©
ãĥ Ŀ
ãĤĤ ãģ®
Ð¾ÑĢ ÑĤ
r od
Ġs ein
Ġ $
ĠD er
ãĤ º
Ð´ ÐµÐ»
os i
ĠÂ ³
ĠÂ ¼
Ġo ver
ĠÐ» Ñİ
á»ķ i
Ġå ı
æ ĥ
ĠA l
Ġt a
åº ¦
ĠÑĥ Ñĩ
uy á»ĩn
Ġm es
ĠãĤ «
æ ŀ
Ġno ch
nd i
i m
ä¸ ĭ
Ġb es
Ġ &
æ İ
ut sch
Ġwh o
ĠÑģÐ² Ð¾
Ġo ther
Ð» Ð¾
Ġli ke
ãĢ Ĳ
h a
Ġt u
ãģ ¹
ãĤĬ ãģ¾ãģĻ
Ġwh en
ĠJ e
Ġi f
Ġãģ Ĥ
ãĥ ¢
i to
Ġa lle
æ ¯
Ñĥ Ñī
Ñĭ ÑĤ
ĠN o
p f
ÄĻ p
ci os
Ġein er
Ð¾ÑģÑĤ Ð°Ð²
ĠÑģ Ðº
os ta
zi o
å ķ
Ġgra tis
em os
i Ã³n
ĠãĤ µ
Ġt ym
re at
Ġa le
Ġd zie
ĠG ra
p or
Ñģ Ð»Ð¸
ĠÐ¾ Ð½
Ġth ere
áº¡ ng
Ġmo Å¼
Ð¾Ñģ Ñģ
Ðº Ðµ
Ã Ī
u en
Ð° ÑĨÐ¸Ð¸
Ġæ Ĺ¥
Ġne lla
ĠâĢ ŀ
.. ..
: :
l Ã¤
æ ±
åĨ ħ
Ð¾ÑĤ ÑĢ
Ġv iÃªn
á» £
Ð°Ð½ Ð¸Ðµ
ĠÐ´ Ð¾
Ġä» Ĭ
Ġk Ã¶n
è ĩª
ĠM it
Ġz e
O M
w er
ĠktÃ³ re
Ð°Ð½ Ð¾Ð²
Ð°Ð» Ð°
Ġkh Ã¡ch
Ġl Ã½
Ñ Ĭ
ta to
Ġb ÄĻ
g r
pa Ã±
ĠÃ© ta
á»į n
Ġprz ed
zi a
ãģĹ ãģ¾ãģĻ
Ġbe en
Ġc l
Ġc Ã¹ng
ĠÂ ´
æ ı
æĦ Ł
at y
Ġf az
Ġein em
æĿ ¥
Ġqu a
Ġx e
è ¾
on ne
cy j
ĠG i
Ã ĩ
ec t
åº Ĺ
s ere
h t
ver y
Ġc áº¥p
ĠÃ Ķ
Ġwh at
f Ã¼
ãģ¾ ãģ§
z Äħ
Ġvá» ¥
å¤ ļ
Ð¾Ð»ÑĮ ÑĪ
Ġz ur
ãĥ Ļ
z en
ĠâĢ ¦
cj e
Ã ĵ
te ment
ĠnhÆ° ng
ç Ń
szy st
ÐµÐ» Ñı
ĠD E
ĠÂ ±
ÑģÑĤÐ² ÐµÐ½
z ar
ãģĵãģ¨ ãģĮ
Ã¼ ck
ra w
Ġph áº©m
v es
ĠÐ¾ Ð¿
vo ir
Ġh el
b t
et ti
Ġen tre
åı ¯
Ġv ideos
li c
áº¥ u
w w
Ġb ien
ãĥ© ãĤ¤
Ġs Ã£o
Ð¾Ð¼ Ñĥ
âĢ ¦
æ Ķ
ow ych
u g
Ð¾Ð»ÑĮ Ð·
or s
ai l
Ð½ ÑĥÑİ
Ġes sere
ĠS ta
Ġn uo
ĠP ar
ãģĹ ãĤĩ
ÐµÑģ Ñģ
Ġth an
Ð¸ Ð³
ĠnÃ³ i
Ġæ ĸ
ĠN ie
Ġt en
k Ã³w
Ġp om
Ġc ri
ĠÐ· Ð°Ðº
Ġm ed
Ã Ĩ
ĠÄĳ ang
Ġl Ãªn
\ "
ur es
åľ °
Ġk om
gli o
Ġtr Ã¬nh
en s
Ġn ur
ãģ¨ ãģĹãģ¦
ow o
Ġun ter
ras il
ĠÐ²Ñģ Ðµ
jer es
a c
Ġch Ãºng
Ġw ould
è Ń
el h
ĠÂ Ń
Ã į
Ġm ej
Ġkh Ã¡c
ÑĢ Ð°Ð·
Ġa ber
á» «
Ġh Ãłnh
Ġa cc
tion al
Ġb ar
g na
ĠM ar
r ie
ÑģÐº Ð¾Ð¹
ĠÃª tre
Ġå¤ §
Ġm ol
ĠÂ µ
g ni
p is
amb Ã©m
å® ī
Ġk n
Ġl Æ°á»£ng
Ġm Ã¡y
Ð¾ Ñı
Ġv e
Ġs t
Ġd urch
ãģĭ ãģ£ãģŁ
h al
å¯ ¾
Ġb iáº¿t
Ġthe m
p ie
ãĥ¼ãĤ ¸
Ġph Ã¡t
Ġhab en
Ñĥ Ð½
ou nd
Ġï½ ŀ
ÑģÐº Ð¸Ð¹
Ġc ar
at to
á»ĩ nh
Ġme hr
å£ ²
Ã İ
an y
Ð Ĵ
Ġs am
á»ĵ i
Ġz ÅĤ
Ġn Ãło
Ġpel o
a ciÃ³n
Ð Ł
Ġbe z
Ġs in
èĥ ½
è¦ ģ
Ġc áº§n
ti es
ãģĹ ãģ¾
ç ©
æĸ °
áº£ m
Ġ1 2
åĬ Ľ
zz o
ï¼ Ĳ
ä¸ į
áº¯ n
Ġlá» Ľ
Ġa nh
ĠY ou
ÐµÐ» Ð¸
ei ten
ãģ ³
Ġs ou
a tion
© Ł
Ġm is
ĠÐ¿ Ð¾Ðº
Ġl ub
v ed
Ġtr Æ°á»Ľc
ÐµÑĢ Ð¶
ci al
v id
b o
on d
ĠÃ ½
Ġpr od
ĠH o
ĠÐ´ Ð²
å¾ Į
á»ĵ ng
at ti
n er
Ġw iÄĻ
Ġw ere
Ġãĥ ¬
Ġn Äĥng
Ġmu ito
Ġãĥ ĸ
Ġi ts
Ġb is
ï¼ ĳ
ãģŁ ãĤģ
Ġl le
g em
ãĤĮ ãģ°
Ã³ a
ÑģÑĤÐ² Ð°
ÑĨÐ¸ Ð¾Ð½
is chen
li ca
ãģŁ ãģĦ
ãģ »
ei s
ÑģÑĤ Ð°Ð²
Ã³ ng
Ġnh áºŃn
ĠL os
é ħ
Ð¸ÑĢ Ð¾Ð²
Ġm uy
c ri
Ð» Ð°
ãģ® ãģ¯
ĠÄĳ Ã¢y
Ġcon s
å½ ĵ
Ġc ette
Ð» Ðµ
Ġy a
ãģĹãĤĩ ãģĨ
ĠA uf
Ġj ust
ic as
ĠN e
owan ie
Ġdi s
p re
Ġest Ã¡
ta do
Ġ0 1
Ġm áº·t
k en
Ġh ad
å® Ł
Ġb lo
Ġh ay
j o
Ġ20 0
us s
Ġ ei
ĠãĤ ª
å¤ ĸ
t rz
ĠÐµ Ð³Ð¾
a ck
R A
ÑĥÐ» ÑĮ
Ġch i
ãģ Ĵ
ch er
Ġch áº¥t
Ġin to
v is
Ġt Æ°
ãĥ Ħ
p u
t ar
ĠÐ¿ Ð¾Ð¼
åł ±
çĦ¡ æĸĻ
a te
Ð¸ ÐµÐ¼
ĠB er
er w
tan t
æ³ ķ
ãģª ãĤĵ
Ġfa it
Ġla v
ĠÂ ¿
l ie
Ð¾ ÑĪ
ãĢ Į
Ñĥ ÑĪ
ãĤ¹ ãĤ¿
ãģķ ãģĦ
åħ ¨
ãĥ§ ãĥ³
Ġt ambÃ©m
Ġgi or
Ð¸ÑĤ Ðµ
Ð» Ð°Ð´
an ts
Ġb á»Ļ
a ce
Ġsp e
Ã ķ
Ġxu áº¥t
ay s
Ġse xo
Ġpel a
Ġnghiá»ĩ p
ĠÐ¿ÑĢ Ð°Ð²
ei ts
lich e
Ġw p
Ġtá» ±
Ġn ue
lich en
á»¯ a
ÑģÑĤ ÑĢ
ari os
Ġv ol
Ġm Ã©
am bi
Ãº t
Ġc re
Ð¾Ð» Ð½
ãģĪ ãĤĭ
Ð» ÐµÐ½Ð¸Ñı
m iento
ĠÐ¿ÑĢ Ð¾Ð´
éĸ ¢
Ġf ir
am y
ĠÐ± ÐµÐ·
ti k
g un
Ð¾ÑĢ Ð¾Ð´
áºŃ y
çĶ »
Ġcu i
al s
áº¡ ch
ĠA b
Ġv is
p h
Ġsu l
è ¶
ĠA s
m in
è¨ Ī
h men
Ð¸ÑĢ Ð¾Ð²Ð°Ð½
en i
ãģ« ãĤĪ
E S
Æ°á»Ľ ng
æĪ Ĳ
ĠÐ² Ð¸Ð´
el t
f ica
ĠÐ½ Ð¾Ð²
æ Ł
ta in
ti sch
è ģ
en e
li ne
æ ²
und o
ĠÂ ¶
ãģ ¸
ĠÐ² ÑĢÐµÐ¼
ç ¶
o ple
ãĤ ¬
Ġv Ã¬
ti va
Ġm ay
p owie
æķ °
Ã¼ n
å® ¶
Ġmak e
çľ Į
Ġd Ã¢n
æī Ģ
Ġ1 1
Ġgi an
è ¼
Ġtr o
n ing
to re
á»į i
Ġpers on
Ġz d
z u
Ġ1 5
O S
at z
ãĥ Ľ
ãĥĩ ãĤ£
ãĤĵ ãģª
Ġcom me
6 6
ĠÂ ²
r Ã¤
Ġto do
Ġpar te
Ġk inh
åĲ į
us e
ĠÐ¾ ÑĢ
ä» £
Ġex p
Ġw szyst
è Ĥ
ec es
Ġus e
ĠP ara
Ñı Ð·
Ġf aire
Ġ) ,
f e
ä¾ ¡
æľ Ģ
l as
ç Ĥ
Ġâ Ĺ
áº¹ p
ĠÄĳ iá»ĥm
T A
w ar
ĠP ol
Ġb áº±ng
Ã¤ t
j et
nd e
Â º
éĸ ĭ
ti co
ä¿ Ŀ
ĠÐ¸ ÑģÐ¿
Ð¾Ð¿ ÑĢ
f ter
Ñĭ ÑĪ
Ð°Ñģ Ñģ
W W
á» Ĺ
Ġon t
Ġse g
Ġda y
Ġ0 00
ãģĹãģ¦ ãģĦãĤĭ
Ġri s
gli a
te ll
aÅĤ a
Ġ0 0
Ġk áº¿t
ri a
æ§ ĺ
w e
Ġ ãģ®
Ġk o
áº£ nh
å¥ ³
ãģĤãĤĬ ãģ¾ãģĻ
ti vo
Ãº p
Ġn uest
Ġinc l
ĠÃ ĵ
et ta
7 8
ĠI f
ab al
ĠÃ Ĭ
g ne
Ġg io
ĠC OM
Ġph Ã²ng
ĠÃ Ĵ
Ġh ow
c ou
Ġth áº¥y
Ð¾ÑģÑĤ Ð¸
ãģª ãĤī
Ġpar ti
Ġt Ã¢m
ent os
ÃŃ as
ç ¾
ĠÐ´ ÑĢÑĥÐ³
E N
ĠãģĿ ãĤĮ
Ġc ou
áº¯ ng
éĢ ģ
ĠÐ ¥
Ġt ou
Ġtr abal
inh a
Ġng o
m as
ambi Ã©n
Ġg Ã¬
Ġch á»§
Ãª me
Ġãĥ ŀ
Ġblo ck
Ġ +
Ġm ost
k on
ei to
T I
on na
é ķ·
ãģ§ãģį ãĤĭ
f er
Ġ03 9
ĠÃ Ĺ
Ġes p
en ce
Ġto Ãłn
ĠÐ´ Ð¾Ð»
Ġb áº£o
ĠÐ¼Ð¾Ð¶ ÐµÑĤ
Ġpod e
ĠÂ ¸
Ġh iá»ĩu
ĠÐ¼Ð¾Ð¶ Ð½Ð¾
ãĢ ħ
ĠV or
Ġç Ķ
C I
Ġthá» ĭ
Ġth iáº¿t
è¨ ĺ
c as
Ġãĥ Ĳ
Ġh á»Ļi
Ġtiáº¿ p
v re
Ġre c
Ġtá» ķ
Ð» Ð°Ð²
Ġlo áº¡i
Ġpes so
ĠkÃ¶n nen
Ġt áº¿
ãģĪ ãģ¦
ĠÄĳ Æ°á»Ŀng
us z
ĠÐ¾ Ñĩ
th ing
ĠÃł s
ãģ« ãģ¤
Ġlo ok
g l
at en
Ã ļ
ãģĦ ãģĦ
ĠÄĳ á»ĳi
Ġpe ople
f i
Ġh er
Ã ¥
ÃŃ s
ĠÃ ģ
ĠãĤ ¤
Ð°Ð½ ÑĤ
Ġb Ã¡n
te m
Ġt á»ĳt
cz Äħ
Ġw ww
Ġcz as
ei ch
Ñĥ Ñħ
ÑģÐº Ð¾Ð³Ð¾
ä» ¥
Ð½ÑĭÐ¼ Ð¸
ti n
rou gh
Ð¾ ÑģÐº
b ar
in k
, "
8 2
Ð°Ðº ÑĤ
Ġw ur
åĮ ĸ
Ð Ķ
ĠD i
ĠÂ ¾
Ġt Ã¬nh
3 3
os z
Æ Ĵ
uyá» ĥn
at ta
owan ia
è Ī
Ġt iá»ģn
Ġwe ll
ãģ« ãĤĤ
æľ Ł
Ġhi gh
Ġt Ã¡c
Ðµ Ñī
Ġc áº§u
ĠN a
Äħ d
Ġth rough
Ð´ Ðµ
za Ã§Ã£o
çŁ ¥
á»Ń a
f en
n is
u k
Ġj Ã¡
Ġkn ow
ãĥ İ
g el
Ð¾Ð± Ñĭ
å Ł
Ġvá» ĭ
áº¡ c
Ġon ly
Ð°ÑĤÑĮ ÑģÑı
cion al
Ĥ ¬
ĠãĤ ¯
Ð¾Ð³ Ð´Ð°
Ġãĥ ¡
ĠÑį Ðº
æ ©Ł
ãĥ ı
ĠD es
ĠT e
Ġc ol
u Å¼
Ġs tr
dz o
ĠÑģ Ð¾Ð±
Ġan n
Ġk ol
Ã¡ri os
ãĥª ãĥ¼
è© ±
æ Ĺ
Ġt ÃŃnh
z o
ä½ ķ
ĠÃ© tÃ©
ĠãĤ ¨
Ð ľ
Ñĥ Ðº
t ÄĻp
l ko
ãģ£ãģ¦ ãģĦãĤĭ
Ġt áº¡o
ÅĽ cie
Ð°Ð¶ Ð´
ÑĦ Ð¾ÑĢÐ¼
Ì ī
jÄħ ce
ĠP our
Ð»Ñİ Ñĩ
ĠÐ½ Ð°Ð¿
åĪ ©
Ñī Ðµ
ı ¾
Ġna y
ç ¥
Ġan ni
å İ
ĠI tali
ÐµÐ½ Ð°
ãĥ¼ãĤ º
t res
Ð¼ Ð¸
g es
å¼ ı
å¤ ī
T O
Ġfir st
Ġ Þ
Â »
ĠUn ter
as t
Ġtr Ã¨s
ĠÄ ĥn
em y
Ġde gli
ĠÄĳ o
Ġt ego
Ġf in
la nd
é£ Ł
Ð½ Ðµ
Ð¿ÑĢ Ð°Ð²
Ã¨ me
ãĥ ľ
men ti
ĠS o
Ġb áº£n
Ġâ Ĥ¬
at os
ÐµÐ½ Ð¸Ð¸
ĠÃ´ ng
ãĤ ½
- -
Ð¸ÑĤ ÑģÑı
ãģĭ ãģª
èĢ ĥ
Ġe very
Ġç §
ãĤĮ ãģŁ
éĿ ¢
i res
ÑĤ ÑĮ
Ð¸ Ð¿
Ġhá» ĩ
á» ģn
Ġtr ab
Ã¬ m
Ð° ÑİÑī
ãĥ ļ
ĠÑģ Ð¾Ð²
en o
Ġcom m
Ġs es
aj o
ÑĢ Ð°ÑĤ
Ġ0 7
Ġz ak
Ġ1 8
ou gh
Ġm ad
ÑĢ Ñı
z na
ali dad
Ġs wo
ti li
Ġ) .
Ġqu áº£
Ġgi Ãºp
Ġes c
Ġtut ti
Ġg es
d ay
ç« ĭ
p ar
v ol
Ġda lla
Ġhá» ĵ
ut z
ĠÃ ī
x x
ÅĽ li
å¿ ĥ
èī ¯
an z
ĠÐºÐ¾Ð¼ Ð¿
ĠSe xo
g os
en do
Ġth Ã¡ng
Æ° u
Ð¸Ðº Ð°
Ð½Ð° Ñĩ
Ġ": "
h er
ĠãģĿ ãģ®
ä¿ ¡
o ÅĽci
Ġ Ã¡
å¼ ķ
Ġsu o
Ġph áº§n
Ġm Ãªme
ĠÑģ ÐµÑĢ
/ /
for ma
cz a
ĠÄĳ áº¹p
Ġbe t
Ġw o
ĠH e
Ġph ÃŃ
r ow
Ġhel p
ĠÂ º
æ ®
ĠÄĳ iá»ĩn
ĠÃ ĸ
ĠÐ· Ð°Ð¿
g n
N G
ĠÐ¾ Ðº
Ġth ese
ĠÃ Ń
Ãº n
ÑģÑĤÐ² Ð¾
Ġz na
Ð¾Ð» Ð¾Ð³
Ð¾ Ñī
en cia
Ġs y
Ġa tÃ©
ĠÑĤ Ð¾Ð»ÑĮÐºÐ¾
ĠM ad
m m
æł ¼
á»Ļ ng
l os
ind a
iej s
Ġæ Ŀ
ĠÐł Ð¾ÑģÑģ
Ġc er
or zy
ÑģÐº Ð°Ñı
x i
L I
Ġd á»ĭch
Ġå °
ĠÐ ¯
Ĩ åĵģ
Ġh anno
Ġel e
ãģ£ ãģ¨
ĠW WW
Ð² Ð¾Ð´
rou nd
om o
ĠW ir
ĠÐ± Ð¾Ð»ÑĮÑĪ
Ġ1 4
Ġdi a
Ġ1 3
ãģķãĤĮ ãģ¦
scha ft
ĠC Ã´ng
Ġb ack
ÐµÑĤ ÑĮ
Ġj o
rz ed
ÐµÑĢ Ð°
om b
ĠÐ´ ÐµÐ»
ĠãĤ Ĵ
ãĥ ¤
Ã ī
Ġtá» Ľi
Ġi hr
ÑĢ Ð°Ð²
or d
Ġs al
ĠW o
tr os
s za
Ġch á»©c
cz nie
Ð³ Ð°Ð½
Ð° ÐµÐ¼
ãģĿ ãģĨ
Ġth Æ°á»Ŀng
ĠÐ² Ð¾
v ent
Ġty lko
Ġdi sp
und en
çĶ °
Ġsu pp
ta c
k ÄĻ
æ¥ ½
ĠÐ¿Ð¾Ð» ÑĥÑĩ
Â ¡Â
è §
Ġãģĵ ãģ®
Ã ħ
Ġpue de
ÐµÐ½ Ð½Ð¾
ĠJ ahr
Ġs olo
Ġdes de
ÑĤ Ð¾Ð¼
b ie
st er
ÑģÑĤ ÑĮ
Ġkh u
Ġå į
è² ·
æ´ »
ÄĻ d
el d
çĶ £
ÃŃ vel
e p
Ġm elh
ĠÄĳ áº¡i
te urs
Ġdi ff
Ð» Ð°ÑģÑĤ
Ġgi áº£i
ing s
Ð¸Ðº Ð¸
ĠQu á»ĳc
Ð¸Ð¼ Ð¸
Ġa Ã±os
ĠÃ ĥ
Ġs tu
Ġcom un
Ġver y
Ġd ue
è «
5 1
Ġg en
u zione
á»Ł i
Ġ >
Ġm en
Ġf i
ĠPor no
Ġãģĵ ãĤĮ
ĠM e
ĠÂ °
ĠÐ¿ÑĢ Ð¾Ð²
Ŀ Ģ
ÑĥÐ»ÑĮ ÑĤ
R I
ĠÐ¸Ð½ ÑĤÐµÑĢ
A N
ãĥĨ ãĤ£
Ð¸ ÑĢÑĥ
ĠÐ¶ Ðµ
li ng
Ġw sp
ãĤĭ ãģ¨
w Ã³
Ġk áº¿
Ã³ b
ver s
ow ej
ĠÑĢ ÑĥÐ±
ĠI ch
Ġb á»ĩnh
Ġho áº·c
ver e
ãĤ Ģ
ãĥ» ãĥ»
å §
Ġe lle
ĠS i
ĠGra tis
Ġo k
k eit
Ãª s
Ġlá»Ľ n
Ġw enn
\\ \\
Ġz as
Ġd Ã¹ng
Ġth o
4 4
Ġph Ã¡p
rei s
Ġgiá» Ľi
ĠM a
wi Äħ
Ġtr ang
der e
ĀĀ ĀĀ
ÑĢ Ð°Ð¼
ãĤ ¶
k s
çĽ ¸
Ġtr á»ĭ
áº© n
am o
ta Ã§Ã£o
ide o
as i
ãĢ Ĥ
Ġaus si
ta tion
em b
æĺ İ
ãĥĥ ãĥī
Ġnh iÃªn
Ð¾Ð² Ð¾ÑĢ
Ġe u
Ġ Å¼y
Ð°Ð½ Ð´
Ð¾ÑĤ Ð¾Ð²
Ġst ar
ĠÐ»Ñİ Ð±
ÐµÐ½ Ñĭ
end re
g y
Ġa ff
è¡ ¨
Ġä¸ Ģ
Ð Ľ
ĠH Ãł
Ġpe ut
æ ¬
æĦ ı
Ġ0 8
Ġha cer
ï¼ Ĵ
ie le
ĠG r
Ġ1 6
Æ° ng
ĠB rasil
áº§ m
ur as
Ġt an
st y
ri s
Ġpe u
Ġcáº£ m
ãĢ ģ
è¾ ¼
Ġãĥ ª
Ã¤ r
Ġmo Å¼e
ÅĤ Äħ
ä» ¶
ĠM u
Ð»Ð¸ Ñĩ
an Ã§a
á» ¹
æĸĻ çĦ¡æĸĻ
ÐµÐ½ Ð¸Ð¹
Ġch u
ãģ¡ ãĤĥ
Ġãĥ ĳ
g lich
owa Äĩ
ãĤĵ ãģ§
Ã ®
Ġj a
ĠÐĿ Ð°
Ġn ouve
tÃ© s
Ð¸ ÑĪ
f ec
á»į ng
è» Ĭ
ĠA d
Ġv ia
ÃŃ cul
u ta
in ess
Ġ ãģĦ
¬ ¬
ĠbÄĻ dzie
ÐµÐ¼ Ñĥ
es ta
ÑıÑĤ ÑĮ
á» Ľ
Ġt ambiÃ©n
ĠÐĴ Ñĭ
Ġmu a
Ġ *
ĠÐŀ ÑĤ
Ġpri ma
g od
Ġman y
Ð¼ ÐµÑĢ
ab i
k Äħ
1 2
no ÅĽÄĩ
Ġs to
Ġin f
Ġan os
ll as
Ġh ai
Þ ¦
Ġä¸ Ń
éģ ¸
sch en
wie t
g ia
Ġj uÅ¼
Ġb us
l er
a uf
éĽ Ĩ
Ġè ĩª
c al
Ġz osta
Ġãĥ ©
ali tÃł
Ġri sp
Ġthá»© c
p x
ĠÐŀ Ð±
ĠÃ ¢
Ġqu Ã¡
Ã© ra
ie w
Ġc Ã¡i
7 6
Ġsp o
Ã Į
Ġ áº£nh
Ġm iejs
Ġãĥ Ĺ
Ã¡ m
æĥ ħ
ĠÐ² Ð½
Ġtien e
Ġãĥ Ī
Ð¿Ð» Ð°ÑĤ
áº ³
ĠF or
Ġy Ãªu
Ġmej or
ant es
ĠÐ½Ð° ÑĪ
ĠÐ¡ ÑĤ
bb e
åĳ ³
Ġse hr
ĠTr ung
ĠÐ¿ Ð¾Ð²
an Ã§
ul ti
Ġ} .
7 2
ãģı ãģł
Ġc Ã´
ĠÐļ Ð°Ðº
ãĥ³ãĤ ¿
é §
ĠÃ Ī
am a
Ġbar dzo
Ġx em
Ġdo anh
æĽ ¸
is h
r Ã¨s
á»į c
ki ch
Ġch á»įn
ym i
Ġt wo
Âµ ÃĦ
à ³
å ĥ
Ġt áºŃp
ãĥ¼ ãĤ¯
ãĥķãĤ ©
Ġu tili
ĠÃ º
f ahr
Ð¸ Ð¾Ð½
ĠO s
u te
Ġres p
Ðµ ÑĨ
ĠÐ½Ð° Ñĩ
vi ce
ĠãĤ Ń
Ġgo od
ç ½
g no
ĠÑģÑĢ ÐµÐ´
ĠC as
Ġn ad
kie m
Ġt ay
å± ±
ch a
ĠÐ±ÑĥÐ´ ÐµÑĤ
Ġâ ĸ
ÃŁ e
Ð¾ÑģÑĤ ÑĮ
ãģ ĸ
t are
Ġpro pri
iá»ĩ m
ĠéĢ ģ
Ġb uen
Ã¤ nd
Ġf ue
ĠO d
å¿ ľ
ĠÑĥ Ð´
os ten
ti t
Ð°Ð¹ Ð½
an ta
çķ ª
Ġ äº
pp o
Ġg reat
ri d
Ġza p
tion en
u ti
Ġc á»©
ĠD a
Ġques ta
ĠåĲ į
ni ka
ĠÐ¸ Ñħ
æ º
åĭ Ļ
Ġw ay
ÃŁ en
Ġå Ī
ĠÐº Ð¾Ð»
Ã³ c
å ŀ
ĠL as
c os
ĠÐ± Ð¾Ð»
Ġå ľ
ÐµÑģ ÑĮ
Ġs Ã©
ĠÑĩ Ð°ÑģÑĤ
ãģ«ãģ¤ ãģĦãģ¦
idad es
éģ ĵ
ck en
3 0
Ġd ann
Ġs ans
ãĤ¤ ãĥ³
Ã§ os
ar b
ĠF r
ĠãĤ Ĥ
Ġb er
ig n
á» Ŀ
em ber
Ġ Ã¡n
ãģ® ãģĭ
Ġpo z
li a
g ra
ei lle
Ġe ff
on de
åĬ ł
v eis
Ġmol to
ãĥĥãĤ¯ ãĤ¹
ãĤĪãģĨ ãģ«
cz enia
ãĤĪãģĨ ãģª
Ġen t
Ð¸ Ð½Ñĭ
Ġs ao
ĠÃ ĺ
Þ¦ Þ
âĢ¦ âĢ¦
Ġï¿½ï¿½ ï¿½ï¿½
Ġv áº«n
Â ª
ãĤģ ãģ¦
Ġto dos
Ġis so
Ġmes mo
Ġde ux
Ġf al
Ġå ¹
Ġpri m
f ul
ãĥª ãĤ¢
ãģĮ ãģĤãĤĭ
Ġæĸ °
ien do
ĠS car
Ġv áºŃy
Ġle ur
ÑĤ Ð¾Ð±Ñĭ
Ġw eiter
ent ro
Ġt Ãłi
Ð» ÐµÐ½Ð¸Ðµ
uyá» ģn
c un
Ġqu al
k ÅĤad
Ġæ °
tr ar
ãģĹ ãģĭ
n ak
Ġb em
Ġcu ando
Ġth i
Ð¾Ð²Ð°Ð½ Ð¸Ñı
Ġfor ma
ĠF ra
li s
Ġ: //
Ã »
on c
ĠãĢĳ ãĢĲ
ia ÅĤ
ich e
Ġæľ Ģ
á» Ŀi
Ġt Äĥng
u Ã§Ã£o
Ġgiá» ¯
h ne
ĠW h
ÐµÐº Ñģ
Ġro ku
ri o
Ġa k
etz t
åĲ Į
m et
Ðº Ð¾Ð¹
5 0
Ġi nd
éĽ »
al mente
ĠÐ³Ð¾Ð´ Ð°
Ġyear s
Ġe ven
ĠÃ į
Ġs á»ĳng
Ġth á»§
« a
Ð² ÐµÑĢ
Ġem pres
æŀ ľ
A S
ta ciÃ³n
j i
ç İ
Ġa fter
Ġwh ere
ador es
ÐµÐ¶ Ð´
Ġ own
ĠÐº Ð»
åı £
ĠF o
ÐµÐ» ÐµÐ¹
Ġmu á»ĳn
Â ¹
c ciÃ³n
f ore
Ġj our
Ã ĺ
Ġa inda
áº¡ m
si oni
Ġtr iá»ĥn
Ġve z
ĠÐº Ð¾ÑĢ
Ġas s
Ġâ ĺ
4 6
Ð £
ce j
Ġæľ ¬
ow ego
ĠItali a
Ð¾Ñģ ÑĮ
ca to
Ġn om
Ġl iÃªn
ĠÐ³ ÑĢ
p l
Ġg r
Ġæ ĺ
Ġk e
Ġc ould
Ġp are
ta le
Ġex per
Ġb est
ç Ĭ
Ġr en
Ðº ÑĢ
ĠÅ ļ
ic es
Ġso ll
Ġè ²
Ġa bb
ãĥ¼ãĤ ¿
Ġh tt
Ġt Ã¬m
áºŃ u
ĠÐ¿ÑĢÐ¾ Ð¸Ð·
ĠE m
æ ¨
ç ³
Ġth Æ°Æ¡ng
Ġmu jeres
Ð» Ð°Ð³
n os
ĠB ei
R E
an za
Ġ ãģ¯
ĠÄĳá» ķ
p tion
ĠÃ İ
Ġb ao
ãģıãģł ãģķãģĦ
Ġh ier
Ġs te
iá» ħn
Ġb Ãłi
ĠÐ ¦
iÄĻ k
Ġsta to
Ġ" ,"
Ġtra v
Ġcon o
Ġd own
è¨ Ń
Ġs enza
ce l
Ġb as
Ġd Æ°á»
ãĤĪ ãĤĬ
ie mp
Ð» ÑĮ
ĠS z
Ġsem pre
ĠÐ° Ð½
Ġf ind
Ġdi re
Ġf ar
Ġincl ud
Ã³ l
Ġsu lla
Ġo g
ÑĥÐ¿ Ð¸ÑĤÑĮ
çĤ ¹
ĠÐ¼ ÐµÑģÑĤ
Ġç µ
Ġç§ ģ
ãģł ãģ£ãģŁ
1 1
åķ ı
¢ º
es te
Ġl áº§n
Ġf il
Ġsh e
ĠC a
Ġre g
Ġth en
ĠÐ´ Ð¾Ð¼
Ġse e
Ñı Ð²
ĠÐ¿ Ð¾Ð·
Ġs ar
Ġ3 0
ĠC o
cz enie
Ġå ½
ĠãĢ ı
ÐµÐ» Ð¾Ð²
é ¨
Ġsu ch
Ġr Ã³w
ĠÐ¼ Ñĭ
ch Ã©
åĪ ĩ
á»ĵ n
Ã¡ vel
u a
ien ia
Ġm ang
Ġc es
ĠÐ ¨
ĠÐ´ ÐµÑĤ
Ġf r
Ġtut to
ĠÐ» ÐµÑĤ
Ġl oro
ĠÐ¿ Ð¾ÑģÑĤ
Ð± Ð¾ÑĢ
k om
an as
es so
t ure
Ġsch on
ãģ¨ ãģ¯
Ġpu bb
Â ´
Ġp un
ci p
Ġg ÅĤ
ve lo
ali zza
Ġngh Ä©
Ġtr á»įng
Ġs ia
ç ®
æĸ ĩ
åĵ ¡
Ġm at
Ġãĥ ĩ
ãģ Ĳ
Â ²
ç ĿĢ
m u
Ġwie der
ĠÄĳ áº¥t
ur n
for m
Ġt ous
ca use
ter i
å ĸ
7 3
Ð¸ ÑģÐº
cz nych
ãģ« ãģĬ
Ð¾Ð± ÑĢ
ÑĨÐ¸ Ð°Ð»ÑĮ
ãģĦ ãģ¾ãģĹãģŁ
ĠÐ¼ ÐµÐ½
Ġn ow
Ð¼ Ð¾Ð¶
id os
Ġpr Ã³
on ie
é ĺ
è º
ta d
ÑĥÑİ Ñī
f ic
skie go
Ġï¼ Į
ue l
Ġwh i
forma tion
ãĥĥ ãĤ·
m al
ĠÐ¼ Ð°ÑĤ
Ġhas ta
Ġn eces
ç´ Ħ
Ð¸ Ð¶
Ġå Ĩ
åŀ ĭ
Ñģ ÑĮ
as z
ter s
Ġad d
is ch
ĠÑĤ ÐµÐ¼
Ġç ´
Ġsh ould
æ ħ
ĠÐ¿ÑĢ Ð¾ÑģÑĤ
è² ©
å± ĭ
ĠA nd
ĠS Ã£o
Ñĥ Ð·
res s
at es
ti tu
y s
8 8
Ġb Ã¡o
ãģĳ ãĤĭ
un k
Ġp ol
ta g
ãģĵ ãĤį
is te
Ġth á»ĳng
ÐµÐ¹ ÑģÑĤÐ²
Ġb iá»ĩt
Ġfaz er
Ġpro f
Ġh Ã³a
ãĥ³ ãĤ¹
ãĤĴ è¦ĭ
áº³ ng
ãģĹ ãģı
l au
Ð¸Ð· Ð½
c ed
od e
ĠÐ¾ÑĢ Ð³Ð°Ð½
iáº¿ u
ĠÐ²ÑĢÐµÐ¼ Ñı
ãģ İ
æ° ´
Ġãĥ ı
ĠÐ¸ÑģÐ¿ Ð¾Ð»ÑĮÐ·
Ġun o
Ġh ome
Ð¸Ð» Ð°
an ych
çµ Ĳ
ãĥĥ ãĥģ
t ura
éĢ £
ĠP l
áº§ y
Ġwur de
Ġsu i
è µ
is t
ãģ§ ãģĹãģŁ
Ð¸ÑĤÑĮ ÑģÑı
Ġt uy
Ġw z
ĠktÃ³ r
ta ire
Ġgia o
ç¶ ļ
Ð¸Ñģ ÑĮ
åľ ¨
ĠI D
ä» ķ
a w
Ã¨ res
c ch
ãģ® ãģĮ
ãĤ¤ ãĥ«
Ġtá» ī
Ġé ĩ
z ei
Ð¾Ð½ ÑĤ
ÐµÑĢ Ð¸
Ãº b
Ġth Ãªm
Ġv om
ĠG es
Â ¼
Ð½ ÐµÐ¹
ãģĳ ãģ©
Ġr á»ĵi
Ġtr ung
ãģĳ ãģ¦
Ġ201 9
ĠV ideos
Ġv iel
Ġse us
Ġl á»±c
ĠÐ¾Ð± ÑĢÐ°Ð·
ĠÐµ ÑģÐ»Ð¸
Ġ1 7
lei ch
Ġt ÃŃch
Ġpl ay
é¡ Į
ĠÐ¾Ð± ÑĬ
ãģ¨ ãģª
Ġho áº¡t
Ġbus iness
ĠA u
ç Ĺ
b st
aÅĤ o
ĠÑĥ ÑģÐ»
al ement
Ġti Ãªu
ãĥ¼ãĤ ·
ä¸ ĩ
ĠÑĩ ÐµÑĢ
ĠÐļ ÑĢ
ĠV i
ÑĤ Ð¸
Ġtiáº¿ ng
Ġh an
ĠÑĥ ÑģÑĤ
Ġch á»ĭ
ĠÑĤÐ°Ðº Ð¶Ðµ
ĠN ach
ll os
ĠSp iel
Ġpos i
Ġj p
ãģ ¶
ll ow
ali z
ĠÄĳ Æ¡n
cj ÄĻ
Ġpu Ã²
Ã¼ s
Ġim mer
ĠÐ¿ÐµÑĢ Ð²
ãģ® ãģĬ
is e
Ġac qu
Ġcol or
Ġprod uc
ãģĭ ãĤĬ
Ã© d
Ġv Äĥn
ÑĥÑī ÐµÑģÑĤÐ²
Ð³ Ð¸
Ð» ÐµÐ´
r en
tit utas
ãĥķãĤ ¡
ĠH er
ess a
Ġcu al
Ġnh au
ĠéĢģ æĸĻçĦ¡æĸĻ
ãĥ³ ãĤ¯
Ð¼ ÐµÐ½
L E
áº¯ m
Ġ \
Ð ĳ
Ġl ie
ai res
Ã¬ n
Ł ³
Ġque l
æľ ī
Ġtr á»Ł
au t
at er
Ġqu ando
ĠÃ ĭ
f ici
Ġde ci
ad z
Þ °
Ġmu ch
Ñĥ ÐµÑĤ
Ġqu á»ĳc
velo p
Ġãĥ Ľ
ti r
i an
Ġgiá» Ŀ
Ġtr ÃŃ
¢ ¨
Â ¨
Ġm ai
ch od
Ġt iemp
Ã ĳ
hl en
ĠW i
ar ia
Ġv áº¥n
ien te
ar z
ar es
æĻĤ éĸĵ
ĠÐ· Ð°Ð²
© ļ
çĶ º
Ġpar t
ĠÐ½ Ð°Ð·
Ð¼ Ð°
ÑĥÑĩ ÑĪ
Ã³ s
ãĥ¼ãĥ Ħ
Ġé Ľ
Ġ201 8
å¿ ħ
dzi aÅĤ
ÐµÑĤ Ð°
Ġser vi
cz ny
ãĢ į
ĠÐ¼ Ð¸Ð½
ĠW as
ĠÐºÐ¾ÑĤÐ¾ÑĢ ÑĭÐµ
u dad
ĠÐ³ Ð¾ÑĢÐ¾Ð´
ĠÑĤ ÐµÑħ
ki m
cor a
Ã³ r
Ġc li
Ð°Ð½ Ð¸Ð¸
ãĥ¬ ãĤ¹
an os
èª ¿
æ Ĥ
åı Ĺ
ĠC u
Ġd áº«n
ãĥĶ ãĥ¼
æ ĭ
al t
Ġcu á»Ļc
p ad
am iento
ol d
ĠÐµ ÑģÑĤÑĮ
ĠA nh
ali dade
Ġd onde
å° ĳ
Ġal gun
Ġph Æ°Æ¡ng
Ġm Ã¶
çµ Į
ãĤĵ ãģł
ãĥ¼ ãĥ³
ĠN á»Ļi
Ġno tre
Ġch Æ°a
ĠZ eit
Ġre ad
ãģ§ ãģĤãĤĭ
ĠÐ¿ÑĢ Ð¸Ð½
ĠÃ ķ
å Ĥ
le p
Ġpos si
æĮ ģ
ĠÑģ Ð°Ð¹ÑĤ
Ġ2 2
is che
Ð ĵ
ĠFr ance
Ġtak e
ãĤ ´
ï¼ ģ
Ð°ÑĤ Ð¾ÑĢ
å ¢
ÑĨ Ð°
Ġç Ľ
l u
á»ĩ t
ÅĦ st
Ġl Ãºc
ĠÑı Ð²
á» ħ
è£ ½
è ±
å ³
å¾ Ĺ
Ġv os
Ġpo p
Ġpr os
ĠÐ½ Ð°Ð´
åĲ ĳ
ei o
Ġgi bt
ĠC ar
ãģ«ãģª ãĤĭ
ĠÑĤ ÐµÐ»
ĠÐ² ÐµÑĢ
Ä Ĳ
ĠÃ ľ
Ġtr as
Ġen c
Ġv en
Ġl ong
Ġby Äĩ
åł´ åĲĪ
äºº æ°Ĺ
ÅĤ e
Ġb i
Ã³ Å¼
Ġdies e
ta dos
Ġb Ãªn
ch ten
Ã¤ ng
zion ale
ÅĽ my
ĠR Ã©
å· ¥
ĠÄĳá»ģ u
áº¥ m
ĠK om
ãĤ¤ ãĤº
ĠÐ¿ Ð¾ÑĤ
ĠT ro
ĠãĢ İ
Ġse x
Ġa os
ĠÐ´ Ð°Ð½
is ta
ĠæĹ¥ æľ¬
Ġw ant
Ġsh ow
c co
ĠprÃ© s
Ġno v
Ã «
el o
Ġãĥĸ ãĥ©
Ġte Å¼
Ġho Ãłn
Ġ201 7
ement s
ĠÃ£ ÆĴ
Ġcz ÄĻ
gr am
Ġtr ans
Ġf are
Ð° ÑĨÐ¸Ñı
ĠÑĩ ÑĤÐ¾Ð±Ñĭ
Ġdo b
Ġhab e
ien i
l ow
åıĸ ãĤĬ
ĠN on
éĩ İ
ĠÐŁ Ð¾
Ð¼ Ð¾ÑĤÑĢ
ĠÃ Ĩ
Ġtá» ¥
sa tion
ĠM o
en a
c tor
Ġãģ ©
ĠÐ´ Ð¾ÑģÑĤ
Ġth am
ĠD Ã©
Ġb áº¥t
Ġo gni
ei te
ĠK on
Ġé «ĺ
m ie
Ġsa id
Ġi tali
wi ad
v ia
ti ci
Ĺ i
Ġc aÅĤ
ĠÑĢ ÐµÐ³
ĠÄĳá»ĭ a
d ni
ggi or
z zi
Ġp ub
ĠE x
_ _
Â £Â¬
ĠÃ Ĥ
Ġs Ã¡ng
ĠTro ng
om a
çķ Į
èī ²
hr en
çĦ¡ ãģĹ
ĠÐ¸ Ð³ÑĢ
Ġbe cause
Ġm in
Ð°Ñĩ ÐµÑģÑĤÐ²
ĠÐ½ ÐµÐ´
ic al
çī ¹
åħ Ī
Ġre la
ur y
ĠÐ± ÐµÑģ
ãĥ¼ãĤ «
ĠÑĩ ÐµÐ»Ð¾Ð²
Ġpas s
ĠÑĥ Ð¶Ðµ
x t
åı ¤
ĠR o
ĠÐ¾Ñĩ ÐµÐ½ÑĮ
éļ Ľ
ĠU m
å ģ
Ġin formation
Ġc oun
Â ½
en h
Ã ¦
tic os
u j
ĠC Ã¡c
ĠÃ Ĳ
ĠÃ ı
ĠDe utsch
ĠT o
éĩ į
ci mento
è¿ ĳ
ĠK ind
å· Ŀ
Ġãĥ Ń
ç³ »
ãģ§ ãģĹãĤĩãģĨ
ĠP au
Ġå Ľ
Ġtem po
Ġus ed
ĠmoÅ¼ na
Ġos ob
Ġan s
A R
I E
ĠÐ½ ÑĥÐ¶
Ġc Ã¡
Ġa g
Ã© lÃ©
Ġé ģ
ur g
ĠÐ° ÑĢ
Ð¾Ð½ Ð°
Ġpro p
Ġæ ĻĤ
Ð» ÐµÐºÑĤ
Ġau tres
Ð°Ñģ ÑĮ
ĠL o
1 6
Ġm ade
Ġpos s
ĠJ ak
Ġl iá»ĩu
ä½ į
ĠÄĳá»ķ i
ti ques
Ĵ Į
Ġsu b
ÑĨÐ¸ Ñİ
âĢ Ŀ
ment os
Ġch uyÃªn
Ġmelh or
tic as
ĠktÃ³ ry
Ã² a
to u
on te
å Ļ
Ġd om
wa Äĩ
ÑĢÑĥ Ð´
ali tÃ©
Ġh á»Ļ
ãĤ» ãĥĥãĥĪ
Ġãģ¾ ãģŁ
æ¯ Ľ
Ġexper ien
Ġsy ste
ãĤµ ãĤ¤ãĥĪ
ä» Ĭ
el n
ti che
u al
m it
ĠÐ² Ð·
åĪ ¥
ti vi
ł ´
c ess
Ġpesso as
Ġf un
Ð¸ÑģÑĤ ÐµÐ¼
ĠÐ´Ð¾Ð» Ð¶
Ġngo Ãłi
ãģķãĤĮ ãģŁ
Ġin tÃ©
Ã¤ ch
ĠÐ½Ð° Ñģ
us to
Ġc ada
å¥ ½
Ġcon tro
Ġc al
Ġ á»©ng
id as
Ġm ir
ĠÐ¿ Ð°ÑĢ
Ġk aÅ¼
ĠB i
Ġtr áº»
Ð¸Ð½ Ð³
Äħ Å¼
ÅĤ am
å® ¹
Ġs á»Ł
é¨ ĵ
ÐµÐ½ Ð´
bi er
ĠÐ¾Ð± Ñī
Ġmi gli
Ġ ãģĮ
Ã± a
Ġpro vid
Ġch uyá»ĥn
er al
i co
.... ....
c m
éĻ Ĳ
uyá» ħn
ãģĹ ãģ¾ãģĹãģŁ
Ġbei ng
éģ ķ
Ġs ti
nie Å¼
ı i
O R
Ġse con
ĠÃ ·
nik Ã³w
Ġm ein
Ġk l
Ġpod er
Ġr áº±ng
ĠE t
ali ty
äº ¬
ĠÐ¼ ÐµÑĤ
Ġpor que
ĠTh ere
Ã¤ hr
al th
ĠB ar
Ġre p
ç¤ º
i on
is tra
Ġdes ign
Ġb u
c ol
1 5
ll er
ä» ĭ
m bre
ä¼ļ ç¤¾
Ġth ÃŃch
ÃŃ n
en as
ĠÐ¾Ð± Ð»Ð°ÑģÑĤ
Ġj us
Ġr u
æĥħ åł±
ĠIn ter
Ġth Ã¢n
Ġm áº¯t
sch ie
ar on
owan e
Ġå ¥
h nen
Ġpra w
ĠV á»
Ġj ue
èª į
¤ ľ
Ð»Ñı ÐµÑĤÑģÑı
ĠL i
ãĥ¼ãĥ ĳ
ai x
t le
æŁ »
ment s
Ã£ i
äº Ī
ga in
Ġh ere
Ġm il
Ġd od
ĠÂ» .
ĠÐ ĸ
a it
éħ į
Ġli fe
Ġg er
v ices
ĠÃ Ļ
Ð¾Ð² Ð°ÑĢ
è§ £
Ġin i
Ġx Ã£
ur ante
Ġtiemp o
Ġtak Å¼e
ãģ¨æĢĿ ãģĦãģ¾ãģĻ
ĠÑģ Ñĩ
Â ¸
Ġc all
Ġth ink
Ġn ei
ĠÐĿ Ð¾Ð²
ãģ® ä¸Ń
g um
ei ros
ĠÑįÑĤ Ð¾Ð¼
bili tÃł
Ð°Ð» Ð¸Ð·
Ġdi ver
ĠÑģÑĤ ÑĢÐ°Ð½
Ġc it
ÐµÐ½ Ð¸Ñİ
os a
Ġch ang
Ġg ran
qu er
ĠÐ¿ÑĢ Ð¾Ð³
ĠScar pe
f ach
å Ħ
Ġl l
Ġau to
Ġa no
an c
Ġn áº¿u
Ġv al
in t
ĠÃ ĩ
å³ ¶
Ġri ght
ãģķ ãģĽ
ĠÑĢ Ðµ
Ġc ung
ãĥ³ãĤ º
ĠM á»¹
Ġda ll
è³ ª
Ð°ÑĤ Ð°
Ġ ãģ¨ãģĦãģĨ
l ti
ãģ® æĸ¹
ter e
Ġ Å¼
ai r
ĠD I
éĩ ı
nh o
lis h
Ð°ÑĤ Ñĭ
Ġwy k
ÑģÐº Ð¸Ðµ
Ġãĥ Ģ
ç¾ İ
áº¯ p
ÑĢÑĥ Ð¿
tan te
Ð½ Ð°Ðº
Ġen f
ĠV o
ed i
è ĳ
ãĤ¹ ãĥĨ
ĠÂ §
ĠA m
Ġch áº¿
ĠÐĺ Ð½
Ġd on
ĠP od
Ð¾Ð± Ñī
Ġdo es
Ġb a
ãĤ ®
Ð°ÑİÑĤ ÑģÑı
ĠS u
Ġha nd
ĠÄĳ Ã¡nh
ĠÐ¼ Ð¾Ð³
ĠÐ°Ð² ÑĤÐ¾Ð¼
Ġo hne
ĠC e
ÅĽ l
Ñĥ ÑģÑĤ
Ð¾ÑĢ Ð¾ÑĪ
Ġbe fore
ĠÐ²Ñĭ Ð¿
ge b
Ġde velop
ÐºÐ° Ñĩ
é§ ħ
Ġtem ps
ĠI m
Ġs Ã³
Â ·
cz ÄĻ
Ġe qui
ent ly
Ġvá» «a
Ġu Å¼y
å° ı
Ġå Į
Ġse l
ĠN Ã£o
Ġdo po
åı¯ èĥ½
èº «
Ġen d
ĠU hr
Ã °
di ta
ĠW er
si Ã³n
£ i
A L
c olo
æ Ļ
ĠÂ» ,
ĠÑĢ ÐµÑĪ
çĬ ¶
æŃ £
Ġquy áº¿t
ÅĤ em
Ġal tri
Ġne ll
Ġ01 6
or k
Ġãģ ķ
Ġpre ci
Ð¾Ð· Ð´
Ġwe ek
Ġè ¦
ĠãĤ ¸
Ġse t
Ġa y
Ð½Ð¸Ðº Ð¾Ð²
a p
Ġth ose
Ġlav oro
Ġa h
Ġa w
el f
t rze
g ie
ãĥĹ ãĥª
ãģ¦ ãĤĤ
Ġu 0
ĠdÃ© c
ãĥ³ãĥ Ĩ
ĠÐ¢ Ð°Ðº
Ġwor ld
ç ¢º
li n
Ġ2 1
ÑĢÐ° ÑĦ
ç ı¾
ĠW ar
Ġpros titutas
ad y
ar se
ĠÄĳ áº·t
ç½ ®
Ġn um
si mo
u jÄħ
Ġl á»ĭch
ÑĥÑĢ Ñģ
á»± a
Ġgi áº£m
Ġç ī
Ġdi d
ĠÐ¿ÑĢ Ð¸Ð¼
ãĤį ãģĨ
Ġch Æ¡i
ĠF e
ĠM ais
Ġc rÃ©
ar Ã¡
Ġprod o
an k
ĠP re
Ġwe b
Ġn á»Ļi
c en
ĠÐ² Ð¾Ð´
ĠÑģ ÐµÐ±
ĠrÃ³w nieÅ¼
l h
Ġin s
za ciÃ³n
Ġg u
ard s
Ġdá»± ng
Â ¿
ĠÐľ Ð¾ÑģÐº
et s
ÑĮ Ñİ
ãģ¨ ãģĭ
Ġz m
ut os
Ġil s
Ġw iel
èª ŀ
çľ Ł
Ġd ÃŃa
Ã© t
Ġãĥ» ãĥ»ãĥ»
é ¦
wi er
Ð»Ð¸ Ð²
I N
ĠNg uyá»ħn
ĠAr b
ar am
wiÄħ z
er ung
ç· ļ
Æ°á»£ t
o ol
Ġsi te
skie j
Ð ¤
ĠÐŁ Ð¾Ð´
Ġcomp le
ĠãĤ ¿
ĠB á»Ļ
áº± m
s es
ff en
ÑħÐ¾Ð´ Ð¸Ð¼
Ġtá»ī nh
ãģı ãģª
ä¸ ĸ
d u
Ð» ÐµÐ¼
ĠãĤ »
gen d
i que
ces so
er c
ĠÐ´ ÐµÐ½ÑĮ
ĠÃľ ber
Ð½Ð¸Ðº Ð¸
Ġ5 0
Ġe ach
d zy
Ġt iáº¿t
b les
Ġng ay
Ġpi erw
U R
ÑİÑĤ ÑģÑı
Ġlá» Ŀi
T E
te k
ä¸ »
Ġnh anh
Ġz w
ĠÐ¿ÑĢ Ð¸Ð²
ãĥ³ãĥ Ĺ
ĠÐ¾ÑĢÐ³Ð°Ð½ Ð¸Ð·
Ġtu á»ķi
ie d
Ġdiff er
ĠM i
ï½ Ĺ
åĻ ¨
ani u
Ġkh á»ı
Ġso cial
áº· ng
ĠÃ©ta it
Ġb Ã¬nh
Ġ ãģŁ
ĠâĢ ļ
Ġjak o
è Ħ
Ġge w
Ġg ro
Ð¾Ð² Ð°ÑĤÑĮ
ĠÐ±Ñĭ ÑĤÑĮ
Ġas ÃŃ
gg ia
Ġ ulti
ĠG esch
ĠS te
Ġwy b
ĠÐº Ð²
Ġan cora
Ġå ¾
ĠÐ¼ Ð°Ð³
tiv os
ar ro
Ġãĥ Ļ
ĠHo tel
ç´ ł
qu is
1 8
ï¼ ĵ
ĠÑģÐ» ÑĥÑĩ
ãĥĥ ãĤ°
Ã¤ l
Ġv ai
ĠÄĳ áº·c
Ġpri x
Ġph á»ĳ
j our
f all
v ano
ĠÐ±Ñĭ Ð»Ð¾
w ert
ãĤ¿ ãĤ¤
Ð¾Ð¿ÑĢ Ð¾Ñģ
ar t
ĠÑĢ ÐµÐ·
ĠÐ¿ Ð¾Ð½
Ġs á»©c
Ġz wei
ĠÐ¿ Ð¾ÑĢ
Ġg ut
ãģª ãģĮ
d es
Ġlu Ã´n
Ġb on
it s
Ġgra nd
ĠV ous
le ment
ĠÐ¿ÑĢÐµÐ´ ÑģÑĤÐ°Ð²
si m
Ġd ri
ĠÐº Ð°ÑĩÐµÑģÑĤÐ²
çļĦ ãģª
ĠÐķ ÑģÐ»Ð¸
ĠÑĩÐµÐ»Ð¾Ð² ÐµÐº
Ġh Æ°á»Ľng
Ġngh á»ĩ
Ãĥ O
Ġe uro
ĠÐĴ Ñģ
dzie j
A D
Ġkh Ã³
Ġc el
Ġh Ã£
Â ±
es to
ãĥ¼ãĥ Ĺ
esz cze
Ð½ ÐµÑĤ
Ġm al
Ġes pe
gen s
ĠÑĢÐ°Ð· Ð²
ĠâĢĿ ,
ĠÐ²Ð¾Ð· Ð¼Ð¾Ð¶
Ã¡ri a
Ġw ÅĤ
ĠS ain
æ ¼
Ġ: #
Ġv ida
ĠÃ Į
Ġmay or
Ġa gain
åĪ Ŀ
á» ĥ
Ġ2 3
ei a
j u
Ġï¼ ı
ĠÐ· Ð°Ð´
as s
Ġza w
Ġs ol
Ġod powie
ĠÑĦ Ð¾ÑĢÐ¼
Ã Ĺ
ãĤŃ ãĥ£
Ðµ ÑĦ
ne hmen
áº· p
Ñĥ Ð»Ñı
ĠÐ±Ð¾Ð» ÐµÐµ
Ġf ree
cze g
Ð¸Ð½ Ðµ
ĠrÃ© s
å¸ ¸
Ġ201 6
Ġb Ã³ng
Ġr y
ĠÐ¾ ÑģÑĤ
ĠÐ¼ Ð½
Ġth anh
è² »
Ġcon tra
Ġx Ã¢y
c Ã³w
Ġb áº¯t
Ġd onn
åĮ º
ĠÄĳ áº¡o
ĠÐ²Ñĭ Ñģ
cz as
Ġm á»įi
ne t
ãģ® ãģ§ãģĻãģĮ
Ġre qu
Ð°Ð¶ Ðµ
Ġmo g
Ġprod u
ãģ£ ãģ
ĠB ut
Ġin forma
z eit
Ġl ink
ous e
Ġperson as
çŃ ī
li o
Ġ2 5
Ġth áºŃt
ĠÐ· Ð´
ĠT H
Ã ¸
ll s
ou ver
Ð¼ ÐµÐ½ÑĤ
Þ ¬
Ġnh á»ı
Ġz n
i ce
Ġc usto
Ġte ch
ĠP rod
Ġç Ħ
p os
ĠÃ Ģ
iáº¿ m
Ġj ego
Ġan no
el y
Ð¾Ð² Ð°
pu is
ãģ«ãģª ãģ£ãģ¦
ĠÑģ Ð¸ÑģÑĤÐµÐ¼
Ñı Ð´
Ġper met
å¼ ·
Ġ \"
z n
ĠæĿ ±
tori a
Ġimp or
ĠD onna
Ġcon c
Ð¾Ð± ÑħÐ¾Ð´Ð¸Ð¼
ch es
ĠH and
Ġa Ã±o
Ġal cun
Ġv ie
Ġes to
Ġvi ta
Ġm ich
Ġse gu
nh a
ĠS an
çµ Ħ
Ġf ami
Ġtrabal ho
ÑĤ ÑĢ
f ol
Ã© p
Ġæ ¥
áº« u
Ð¿ÑĢ ÐµÐ´
p y
ÑģÐº Ð¸Ñħ
l ed
ä» ĸ
wa Å¼
Ġc le
Ġmai or
Ġre ci
æĿ Ĳ
Ġbo ok
Ġn á»¯
å ²
ĠD o
ĠÄĳ Ã¡
ĠmÃł u
ÅĤ od
Ð¸ Ð½Ð¾
ĠCh at
Ġtá» Ń
Ġm áº¡nh
Ġp ag
Ð» Ð°Ð¹Ð½
C J
áº¡ y
ĠÐĿ Ð¾
Ġuns er
é Į
ĠÑģÐ» ÐµÐ´
ĠC or
Ġthu áºŃt
Ġâĸ ł
Ġl ui
Ġund er
ãĥ³ãĥ ģ
Ġpri n
ĠG ia
ĠÐ· Ð°Ð¼
em bre
è ı
ch tig
Ġs ous
ĠN gh
ĠÐ¿ÑĢÐ¾ ÑĨ
ãĥ¼ãĥ ĸ
ĠÐ¾ Ð½Ð¸
1 9
at ure
ĠO n
Ġha ce
Ðº Ð°Ð·
Ġne lle
åħ ¬
ter n
ĠãĤ ¦
ic os
ãģķãĤĮ ãĤĭ
ĠÃ© qui
Ġpro cess
Ġprod uit
v are
ĠÂ ®
Ġer a
Ð Ĺ
Z I
ä¾ Ľ
ãģ¡ ãĤī
) ;
Ġnh Ã¬n
ãģĶ ãģĸ
ch te
Ġon line
ce p
ĠÐĲ Ð½
ĠãĢģ ãĢĮ
Ġ ãģ«
Ġcomm un
Ġm nie
Ġ2 4
Ġv áºŃt
Ġæ Ń
á»« ng
Ð¸Ñı ÑĤ
Ġd ru
ĠãĢ ľ
Ġg áº§n
Ġque llo
ãĤī ãģĦ
Ġl it
ĠO r
i ta
Ġå ¼
O W
ĠJ o
j ect
ĠÃ Ħ
ÐµÑĤ Ñĭ
ĠS al
Â ¶
Ġdo ve
ÑĮ Ñı
Ðº ÑĢÐ°
á»ķ ng
ĠP a
ÑĤ Ðµ
om bre
Ġká» ³
Ġk m
ĠÂ ¬
ĠN ous
ĠU ne
ĠÐ¿ÑĢÐ¾Ð¸Ð· Ð²Ð¾Ð´
Ġph Ã¢n
Ġwhi le
Þ ª
Ġn Æ¡i
æµ ·
çĦ ¶
Ġa voir
ĠK o
Ġmod o
ÅĤ at
Ð¼ Ñĭ
Ġtá» ·
ĠÑĩ ÐµÐ¼
Ġk u
Ġdzi aÅĤ
w as
Ġoff er
ĠÐ¸Ð¼ Ðµ
åĪ ¶
em me
ãĤ³ ãĥŁ
k ol
ul o
Ġlo ve
:: ::
ĠB es
Ġ ãģª
å¸ ĥ
ÐµÑģ Ð¿
Ġquy á»ģn
Ġw ri
ec to
v ri
ä¾¡ æł¼
czne j
æĹ¥ æľ¬
Ġph á»¥c
Ġf atto
ar zy
Ð°ÑĢ Ð¸
Ġb á»Łi
ä½¿ çĶ¨
hi p
Ġjed nak
ĠÃ© g
t te
ty w
us i
fÃ¼ hr
ra i
Ġle ad
åħ ·
ar ly
Ġh áº¿t
b r
ĠE uro
Ġd ar
Ġap res
ĠC am
ÐµÐ½ Ð½ÑĭÑħ
ma nd
Ġk il
ĠÑĥ Ð²
ĠÃ© le
Ġsu as
Ġb Ãłn
Ġa round
Ġv ideo
ãĤ ¡
ĠÃ ¥
Ġb iáº¿n
Ġstu d
v or
a ta
h eit
ti ge
ĠB Ã¬nh
Ġæ Ĭ
Ġi ndi
ĠÐ¿ÑĢ Ð¾ÑĤ
Ð¾Ð² Ð¾Ð¹
ä½ ı
ĠÃ ¦
Ð°Ð½ Ñģ
cz na
ãģ ²
Ġk eine
ãĥ© ãĤ¹
Ġar ri
in si
Ġfo tos
te z
ĠÃ ¶
Ġâ Ħ
Ġpra c
d t
ãģĹãģ¦ ãģĦãģ¾ãģĻ
Ġav ail
æĦŁ ãģĺ
dad es
Ġï¼ ĳ
Ġtá»¥ c
Ġc ur
Ġph á»¥
79 66
Ġc ie
Ġder ni
om me
ĠThe y
ĠU nd
éĥ ½
n ÄĻ
t ni
ĠÐ¿ Ð¾Ð¿
ĠE st
Ġor g
Ġon de
ãģ¨ ãģĵãĤį
Ġd ou
le ase
te go
Ġth ay
ĠM as
Ġpro g
Ġc ir
ÑģÑĤ ÑĢÑĥ
ĠÑģ Ð´ÐµÐ»
Ġle g
ĠU ni
Ġdies er
Ġre ally
è£ ħ
Ġzna j
Ġbe au
Ġc are
ĠB o
es i
w or
æĪ ¦
Ñĥ Ð³
er os
åİ Ł
Ð¾Ñģ Ð¾Ð±
Ġp ou
w et
Ð¾Ð½ Ð¾Ð¼
78 46
Ġchi ld
Â ³
Ġtr iá»ĩu
tiv itÃł
at ura
ĠÄĳ Ã¬nh
Ġ03 33
v il
in as
Ã´ m
Ġch á»©ng
Ġt ec
ĠÐ½Ðµ Ð¾Ð±ÑħÐ¾Ð´Ð¸Ð¼
Ġdiffer ent
Ġt ri
Ġtr á»£
ãĥĸ ãĥ©
ĠD zi
Ġ016 82
Ġ03 7846
ÃŃ o
Ġ039 44
Ġ07 7966
Ġ039 76
Ġ0333 51
Ġs Ã¡ch
å¤ ©
ãģ§ãģĻ ãģŃ
ĠÐ± ÑĢ
Ġac tu
Ġpro gram
Ġda ta
te ly
jÄħc ych
åı İ
Ġcas a
Ġs it
Ġge gen
is sen
ãĥŃ ãĤ°
Ġm áº¹
Ġl áºŃp
ĠÐ¿Ð¾Ñģ Ð»Ðµ
ĠÐ¸ Ð³
ĠãĤ ±
en vol
v ant
ui ld
al k
Ġh Ã¡
å½ ¢
ãĥ¼ãĥ ĵ
j as
rÃ³ d
Ġå ī
l ung
ĠÐµ ÑīÐµ
ãģ© ãģĨ
ta ti
ĠÑĤ Ð¾Ð¼
ÃŃ an
ien ie
ten za
Ġtu do
ī ĭ
Ð² ÐµÑģÑĤ
Ġg em
Ġ01682 79
Ġç Ļ
ĠPau lo
å¿ħ è¦ģ
Ð· ÑĭÐ²
ĠM en
æ± º
ĠÐ¸ ÑģÑĤ
Ġspe ci
ĠÐłÐ¾ÑģÑģ Ð¸Ð¸
èª Ń
Ġte am
iáº¿ c
Ġpo i
p od
ãĥ³ãĤ ¸
ĠâĦ ĸ
Ð» Ð¾Ð¶
Ã© g
Ġz am
ĠÑĤ ÐµÑĢ
çļĦ ãģ«
Ġm iá»ħn
Ġåħ ¨
Ð¾Ð¶ Ð´
Ġf ound
Ġ rze
sp iel
å§ ĭ
Ġsob ie
4 3
Ġper chÃ©
Ġso ci
Ġn á»¯a
ãģŁ ãģ¡
Ġap rÃ¨s
å ĩ
ent lich
Ġen s
Ġv Ã´
Ġout ros
åı ·
Ġnum ber
Ġal gum
Ġm or
ut to
Ġpl ace
Ġf u
c ci
l Ã¨
Ġsp ra
Ġ à²
Ġd á»ħ
as on
Ð°Ð½ Ð°
Ġm undo
ãģª ãģĭãģ£ãģŁ
ÑĢÑĥ Ð·
ĠM il
Ġ0 2
ĠSain t
Ñı Ð±
a ted
ĠEn t
ec ess
ka ch
ei st
t kow
Ġdi á»ĩn
Ġmis mo
ĠNe w
w ays
Ġl ar
ãģĵãģ¨ ãģ¯
Ġi r
Ń Ĳ
ĠÄĳ Æ°a
Ġd onc
Ġvá» ±c
Ġv iáº¿t
Ġpropri o
ĠI hr
Ġng uyÃªn
Ð°Ð» Ð¾
çĽ ´
å ©ļ
ç ¸
ti gen
Ġt ej
Ġãĥ ī
ĠãĤ Ħ
è ĸ
Ġnh áºŃp
Ġlu gar
Ġenc ore
ÐµÐ½ Ð¸
ĠÑĤ Ð¾Ð³Ð¾
ÅĽ nie
al ne
Ġto o
Ġt or
ĠM inh
ta ires
ãĥķ ãĤ£
Ġpe w
Ä© nh
ĠÑĥÑĩ Ð°ÑģÑĤ
m t
Ġãĥ Ŀ
åĪ© çĶ¨
Ġg Ã¢y
Ġt uo
ĠÐ° Ðº
Ġquan to
Ġus ing
Ġg dy
ãĤ ²
ĠN áº¿u
è ĭ
Ġnghiá»ĩ m
Ã´ tel
Ġx xx
Ġem p
Ġsh o
Ġi hre
ãĤ¤ ãĤ¯
Ġbo th
ĠÐŃ ÑĤÐ¾
ãĥ¥ ãĥ¼
ĠrÃ© p
Ġâ Ļ
Ġt iÃªn
mp re
áº£ y
åı °
aÅĤ y
Ġdi á»
ç ¯
Ġv a
Ġla t
we en
Ġs ame
ĠÂ ¨
emb ro
es si
ĠC zy
ĠR ei
Ġch iáº¿n
in n
Ġs tes
ãģªãģĮ ãĤī
ol es
ãģĺ ãĤĥ
Ġsam o
ĠR es
ĠÐ¿Ð¾ Ñĩ
Ġph o
Ġo tros
ĠJ a
ÐºÐ°Ñĩ Ð°ÑĤÑĮ
Ġch ung
é ¤
Ġj un
Ġser Ã¡
Ġa by
ãĤ ©
Ġr ou
ier t
Ġ4 8
ĠÑģÐ¿ Ðµ
ĠÃ §
ĠT ra
ĠI hre
l tre
tac tos
Ġj u
ãĥ³ãĥ Ģ
ĠV Äĥn
Ġb á»ı
Ġf ic
tr as
1 3
y w
Ġv ed
omb res
i x
Ð½Ð¸Ðº Ð°
Ñĥ Ð²
Ġh or
Ġci udad
ĠÐĶ Ð»Ñı
Ġof er
é¡ ŀ
Ġb an
Ġfo to
ste ll
Â °
ĠÐ¾Ñģ Ð½Ð¾Ð²
ĠM á»Ļt
va it
szy ch
Ġg ru
ran k
Ġmi esz
ul t
ob ie
ei m
ta zione
Ġs Ä©
Ġr Ã³Å¼
Ġdiá» ħn
Ġj eszcze
g ÃŃa
Ġãĥ ģ
paÃ± a
Ġ0 5
ÐµÐ½ Ð¸ÐµÐ¼
Ð¾Ñı Ð½
u es
ĠG er
ĠJ u
Ð½ ÐµÐµ
Ġs ty
? ?
ç¨ ¿
Ð¾Ñģ ÑĥÐ´
Â ¾
Ġtrab aj
Ġk iá»ĩn
Ġra pp
ĠMu jeres
Ġf uer
r on
Ġt Æ°á»£ng
Ġj ej
ĠÐ»Ñİ Ð´
è ĩ
ne l
g round
Ġvá» ĩ
Ġt inh
ÑĢ ÐµÐ´
m is
ĠMad rid
Ġlá» £i
Ġto p
ein en
Ġser vice
k tu
Ġãģ Ķ
em Ã¡s
Ġ201 5
ĠÐ½Ð° ÑģÑĤ
Ġkh iáº¿n
ĠÐ¾Ð½ Ð»Ð°Ð¹Ð½
Ġv ers
in ter
ĠÑģ Ð¾ÑģÑĤÐ°Ð²
Ġl Ã²ng
Ġmar k
Ġho a
g io
Ġn ecess
ĠC Ã³
ÐµÐ½ Ð½ÑĭÐµ
Ġcu enta
çĻ »
ĠS er
ĠÐľÐ¾ÑģÐº Ð²
00 0
Ð°Ð» Ð¾Ð³
ci ng
ĠT P
ob a
Ġi ng
Ġcos Ã¬
ĠÄĳ á»§
d s
ĠÄĳá» ©
Ġf eira
Ġlas t
æĿ ±
Ġsti ll
Ġå ¯
os o
Ġb Ã©
Ġf ran
Ġhtt p
an ces
ĠÐ´ ÐµÐ¹ÑģÑĤÐ²
ĠÐ¿ÐµÑĢ ÐµÐ´
ĠÐ¼ Ð¾Ð´
Ġo Ã¹
b ei
ĠB et
Ã¹ a
f ts
Ġph im
ĠWh at
ar ten
ĠÐŁ ÐµÑĢ
Ð¾Ð» Ñı
æľ ¨
va to
Ġback ground
Ġãĥ Ł
li wo
æľĪ 2
en ne
Ġbe c
Ġavail able
ĠÃ§ a
ãĥ¡ ãĥ³ãĥĪ
ãģ¨ ãĤĤ
çµ Ĥ
ĠLa nd
Ġmon do
ĠNh á»¯ng
Ġpra cy
ãĤ· ãĥ£
ĠA p
g ÅĤ
Ġtr atta
ow ym
Ġest Ã£o
Ġen cu
Ã³ j
ĠÑĤ Ñĭ
Ġbet ween
Ġk iáº¿n
g ung
t Ã³w
åħ ĥ
Ġé Ŀ
ri g
ãģ¾ ãĤĬ
f in
ri end
d Äħ
Ġw ym
ĠgiÃ¡ o
ĠÐ° Ð´
on ych
Ġdi z
Ġd nia
ÑĢÐ° Ñī
ĠÐº Ð°Ð¶Ð´
å ¡
Ġpo li
Ġg Ã©n
Ġå° ı
Ġor e
oun t
und e
è Ĭ
é ¢¨
der n
ĠÐ² Ð¾Ð¿ÑĢÐ¾Ñģ
Ġtá»« ng
èĤ ²
4 0
Ġw ÅĤa
Ġten er
a Äĩ
r Ã¡
Ġpa ÃŃs
Ġso tto
ĠÐº Ð°ÑĢÑĤ
Ġinc ont
ãĥķ ãĥĪ
ĠR a
ĠÐ¸Ð½ ÑĦÐ¾ÑĢÐ¼
I S
y d
Ġle ar
Ġc our
¡ ng
ka z
Ġk li
l an
9 9
Þ ¨
Ġnuo vo
ien e
è ·
Ġein fach
Ġau tre
s to
Ġ: )
ĠÑģÑĤ Ð¾
à ¸
ĠNh Ãł
Ġch uyá»ĩn
Ġfo is
si ve
Ã¡ u
æ Ĵ
ĠEs ta
ãĤģ ãĤĭ
trz ym
ĠÃº lti
Ġsc ri
á» ģ
Ġal tro
Ġmu cho
Â ¢
ĠÐº Ð¾Ð³Ð´Ð°
ĠP os
ci na
Ġnom bre
s Ã£o
Ġc Äĥn
ĠÑħ Ð¾ÑĢÐ¾ÑĪ
ĠãĤ °
ĠÐ¿ÑĢ Ð¾Ð±
ĠÑįÑĤ Ð¾Ð³Ð¾
L A
ĠÐ» ÑĥÑĩÑĪ
ãģĦ ãģĨ
Ð¼ Ñĥ
Ġ037846 2
Ġ03944 72
g ang
g ro
onn es
Ġc á»Ńa
Ġgra nde
å »
Ġr un
Ġå º
v iew
Ġ ãģ§
u cht
ãĤ¿ ãĥ¼
ĠÄĳ Äĥng
ca tion
gi one
Ġs zy
Ġsu is
Ġby ÅĤ
Ġgr at
od z
rÃ© e
Ġf on
Ġp Ãºb
ãģª ãģ®ãģ§
y ta
Ð° Ñİ
ĠÄĳ a
ei ta
ãĥ© ãĥ¼
Ð½ Ð¸Ð¼
m mer
éĮ ²
h and
Ġcon f
èŃ ·
Ġa qui
ãĥ³ãĤ ·
iÄĻ dzy
Ġgo ing
7 0
ãģĤ ãģ£ãģŁ
tr y
h m
ï¼ ķ
Ð¾Ð²Ð°Ð½ Ð¸Ðµ
Ġh iá»ĥu
ĠÐ±ÐµÑģ Ð¿Ð»Ð°ÑĤ
Ã ¯
Ġcon ta
èģ ŀ
Ġt Ãªn
è¡ ĵ
Ġsar Ãł
Ġen con
Ġpri mer
Ġes se
Ġdei x
Ġl ÃŃ
Ð¾Ñģ Ð¿
ĠW ie
ĠÐ´ Ð¾Ðº
p ro
Ġtr uyá»ģn
ĠÐ±Ñĭ Ð»
bili ty
Ġa mp
h Ã¶r
hal ten
c to
Ġcomp any
Ġè ª
ĠÐ¼Ð°Ð³ Ð°Ð·
Ġm om
ĠÐ² Ðº
åĬ ¹
Ġi de
a ct
ĠÅ ģ
Ñį ÑĤ
ÐµÑģÑĤÐ² Ð¾
Â «
Ãª ng
am en
ĠwiÄĻ cej
el a
v Ã©
ĠÐºÐ¾ÑĤÐ¾ÑĢ ÑĭÐ¹
ķ Ĩåĵģ
åķ Ĩåĵģ
Ġprod uk
ĠÐĲ Ð»
ï¼ Ī
ãģ« åħ¥
Ġc á»ķ
ķ ç¨¿
ĠÐµ Ðµ
ĠKh Ã´ng
ĠW hen
p t
ĠÐ½ ÐµÑĤ
Ð»ÐµÐºÑĤ ÑĢ
Ġbei m
inh o
Ġmá» Ĺi
ãĤ¤ ãĥ³ãĥĪ
Ġby ÅĤo
Ġ201 4
ĠSe x
Ġm et
Y W
us am
Ġav ant
Ġcon di
Ġæ µ
æ³ ¨
Ġé ĸ
åı Ĥ
uy áº¿t
Ġãĥ Ĩ
ãģ£ãģ¦ ãĤĤ
Ð¾ Ñħ
ãģ» ãģ©
Ġdzie ci
Ġat ra
ka uf
ãģĵãģ¨ ãĤĴ
ĠÄĳá»Ļ i
cel ona
Ñĥ ÑģÐº
Ġa ten
Ġn am
sch e
p ra
c l
ĠT ag
ca Ã§Ã£o
æ ¶
Ġqu áº£n
zz are
ĠC z
Ġrequ ire
ĠÐ· Ð°ÑĢ
Ðµ ÑģÑı
Ġtut te
v in
ĠçĦ ¡
ch ts
æĦ Ľ
qu ier
Ġap enas
ãĤī ãĤĮ
eit os
v os
ÑĥÑĤ ÑĮ
ck e
Ġest u
ÃŃ cio
Ġtrab ajo
ÐµÑĤ Ðµ
v ar
Ġpom o
Ġinc re
Ġ0 6
Ġh ear
Ġes o
ĠâĢĿ .
ĠÑĤ Ð¾Ð²Ð°ÑĢ
Ġ20 20
Ġè ¿
æķ Ļ
è¶ Ĭ
¼ åħ¥
Ðº Ð¾Ð¼
nym i
Ġapp ro
Ġb re
Ġre ce
Ð°Ð»ÑĮ Ð½ÑĭÐ¹
Ġp en
Ġp ic
ãģ¡ãĤĥ ãĤĵ
Ġfo llow
Ġcá»© u
Ġm er
Ð¾ÑĢ Ð¾Ð²
Ã©r ie
ç ²
Ġsyste m
Ġein es
ãĤ¯ ãĥª
Ġd Ãłi
tic ol
ĠH aus
ni ki
ĠÃ ³
I C
¹ ä»ĭ
Ġgi Ãł
ÑıÑĤ ÐµÐ»ÑĮ
Ġqu er
ci dad
ier en
r ÄĻ
Ġsp raw
es sion
Ġph ong
Ġk Ã½
ä»¥ ä¸Ĭ
Ġi d
Ġhá» ıi
Ġs ma
po is
to ire
ad en
å® ¢
Ġl ors
czy Äĩ
ĠF Ã¼r
owan y
s iÄĻ
ãĤĤ ãģĹ
Ġsp os
ta mento
¥ ¿
åħ ī
Ġfor am
Ġha pp
ãģĤãĤĬ ãģ¾ãģĽãĤĵ
es ti
Ġcon tr
Ã§ as
ec ts
Ġsi to
Ġtr á»±c
ci miento
ĠÃ ĳ
Ġcáº£ nh
re a
Ñı Ñī
ãĥĨ ãĥ«
Ġexperien ce
¯ u
ĠÐ²Ð¸Ð´ Ðµ
ãģį ãģŁ
ãĥĲ ãĥ¼
å ĴĮ
è¼ ī
Ġe j
ĠR i
ĠLe ben
ĠÑģ Ð¾Ð·Ð´
ãģ® ãģ§ãģĻ
Ġ, "
Ġpers one
Ġma in
Ġd urante
ĠÂ ¡
Ġp ia
ĠÐļ Ð¾Ð¼
r Ãł
éģ İ
ent ar
ĠÄĲ áº¡i
ato ri
ĠT i
Ġå® Ł
ä»ĺ ãģį
ãĥ¼ãĥ ŀ
Ġmon th
r ar
bi to
Ġpri mo
Ñĭ Ð»
Ñı Ð¼
Ġa insi
Ġinclud ing
za cji
ato re
ear ch
Ġmo ins
å¹´ 0
Ġtrabal h
Ġch Ã¢n
å¤ļ ãģĦ
Ġtan to
æ® µ
ãĤī ãĤĮãĤĭ
Þª Þ
g s
ÐµÑĢ ÑĤ
ĠåĲį çĦ¡ãģĹ
ĠI N
rei ch
eni u
ãĤĵ ãģ§ãģĻ
con om
Ġthu á»Ļc
Ġch icas
ĠG o
cri ption
Ġor der
ĠÑĢ ÐµÐº
Ġsie mpre
ck s
Ġentre pri
orzy sta
it os
Ġs iste
Ġdi as
Ġn Ã©
n ess
áº¿ p
ãĤı ãģĽ
ĠÐĲ Ð²
aj es
em p
lla ndo
Ġm á»©c
Ã© tÃ©
Ð¾Ð» Ð¾Ð´
ãģĿ ãģ®
ÐµÑĢ Ñĭ
Ġc ab
éĢ ²
ĠL ie
ÐµÐ½ Ð½ÑĭÐ¹
aus s
çĶ ·
abi li
ĠÐº ÑĥÐ¿Ð¸ÑĤÑĮ
åĥ ı
ãģĦãģŁ ãģł
Ġb ud
Ġel a
Ãº de
Ð½Ð¾Ð¼ Ñĥ
Ġde puis
ie mbre
Ġg anz
ĀĀĀĀ ĀĀĀĀ
éĸ Ģ
p anh
ĠÐĲ ÑĢ
an is
v as
Ġm uss
éģ Ķ
am entos
am it
åĩº ä¼ļ
v ide
ĠÐ² Ð°ÑĪ
Ġ0 4
wi ck
Ġcas o
Ġw ater
ĠTh anh
è¿ Ķ
ĠS tra
Ġprin cip
Ġkh ai
ãĤĴæ Į
w iÄĻ
cz ki
ma g
Ġc ent
ĠR oma
èª ¬
¬ ĳ
Ġd ro
Ġhe alth
kom men
ĠÃ©g alement
ĠÐ° ÐºÑĤ
Ð³ Ð¾ÑĤÐ¾Ð²
ĠPar is
p en
Ġco lle
Ġp ed
ie dy
or y
k ar
ãģĻ ãģĻ
d em
ei ÃŁ
Ã§ ais
ãģ§ãģį ãģ¾ãģĻ
Ġch a
it z
Ġcon se
t on
ãģ® ãģ«
ãĥ¼ãĥ Ĩ
l ess
Ġb uild
éģ ĭ
ra is
ĠP ers
æł ¡
Ġop en
ll ing
ber g
ãĤĬ ãģ¾ãģĹãģŁ
ãģĮ ãģĤãĤĬãģ¾ãģĻ
Ġcos a
é¡ į
Ġd ung
Ġesc ol
ÑĦ ÑĦ
ĠÑĦ Ð¾ÑĤ
Ġnue vo
Ġs Ã¡t
Ð» Ð¾Ð²
Ġfe w
Ġgiá»¯ a
â Ķ
ĠP e
u tion
Ġm eille
ÑĨ Ñĭ
ç¨ ®
Ġm á»¥c
ui te
ãģĹãģŁ ãģĦ
Ġall ow
ÄĻ ki
ĠÐ· Ð°Ð±
b el
v enti
äº Į
Ð°ÑĤ Ð¸Ð²
Ġo cc
ç§ ģ
Ġkho áº£ng
Ð¾ Ð½Ñĭ
ĠÄĳá» Ŀi
ç´ °
Ġâĺ ħ
Ð¸ÑĤ ÐµÐ»Ñı
at ch
ĠB áº¡n
Ġpers onne
al a
Ġri cer
ãĥ¼ãĥĵ ãĤ¹
ar ie
ãģĦ ãģı
it as
wei se
ÐµÐ½ÑĤ Ð¾Ð²
vi mento
at ur
ĠâĢ »
Ġs ab
ni ca
ĠÐ½ ÐµÐ¿
Ġfor m
Ð°Ð»ÑĮ Ð½Ð¾Ð³Ð¾
Ġhi m
Ġth ree
teri or
ĠÐ¼ÐµÐ½ Ñı
olo gy
Ġas sim
ĠÐĿ Ðµ
á»Ń i
Ġd ont
d io
ĠKind er
ĠÑĢÐ°Ð±Ð¾ÑĤ Ñĭ
ĠD u
Ġest Ã¡n
Ġse ja
Ġch iáº¿c
ĠU na
è¶ ³
ĠÐ¶ ÐµÐ»
ta mente
Ġ201 3
Ð¸ÑĩÐµÑģÐº Ð¸Ñħ
un e
Ġsi c
ĠThe o
Â ¤
sta n
ĠÐ¾ÑĤ Ð½Ð¾
æ ģ
Ġpe ti
R O
Ġdes arro
Ġp owie
Ġch ÃŃ
Ġre ali
d ed
éĻ ¢
ãģ¨ ãģį
j ours
ãģĹãģ¦ ãģĬ
1 4
ãģĹãģ¦ ãĤĤ
Ġqui ndi
Ġser vices
Ġcon t
å£ «
as si
ta il
Ġfind en
ĠÐ³ Ð¾ÑĢ
Ġal ways
b ra
Ġinforma ciÃ³n
ĠÐ¿ÑĢÐ¾Ð³ ÑĢÐ°Ð¼
pu Ã©s
Ġsta n
Ġå ·
ĠÐ» Ð¸ÑĨ
ĠÐ¼Ð°ÑĤ ÐµÑĢÐ¸
ul ar
gu a
\\\\ \\\\
è¨ ¼
Ð½ Ð¸Ð¹
ÐµÑĢ Ð³
Ġmon de
ç ĻĤ
ci do
ĠS h
ĠW enn
9 0
Ġb ou
ĠdÆ°á» Ľi
Ġf riend
ĠCom o
Ġsi mp
ĠÐ³ Ð´Ðµ
çĻ ½
¿ Ģ
t eil
ad zi
Ð½Ð¾ÑģÑĤÑĮ Ñİ
er on
ãĥ¼ãĥ Ĳ
Ġmed i
äº ¤
Ġè »
Ġs os
ni co
Ð¸ÑĤÐµÐ»ÑĮ Ð½Ð¾
je to
c Äħ
ab e
ÅĽ wiet
Ġre cher
Ġda i
Ġsta ta
Ġè ¨
Ġå ĩº
Ð¸ÑĩÐµÑģÐº Ð¸Ðµ
Ġx Ã¡c
ç§ ĳ
Ġmen os
ä¸ ī
Ġg el
Ġn á»ķi
åĤ Ļ
Å ģ
ma nde
ç´ ¹ä»ĭ
Ġæ° ´
Ġt re
ãģį ãģ¾ãģĻ
ĠÐŀ Ð´
ĠB us
ĠÑĢ Ñĭ
p raw
åĢ ¤
ÅĦ ski
Ð°Ð»ÑĮ Ð½Ð¾Ð¹
ĠT uy
ÑĨ ÐµÐ½
f ten
se z
b s
Ġnh iá»ĩm
Ġå ¿
ll ed
czne go
st ru
åĪ ¤
ãģĻãģĻ ãĤģ
Ġs owie
Ġque m
Ġ2 6
Ġ03976 73
Ġchu áº©n
Ġc Ã¢u
v ir
æĥ ³
èģ ·
un que
Ġcon he
m Ã©
li que
es en
Ġb r
ros s
Ġdes ta
ãĥĩãĤ£ ãĥ¼ãĤ¹
Ġpro vide
w ania
y ste
tic le
Ð¾ÑģÑĥÐ´ Ð°ÑĢ
Ġsu re
owe ver
ĠD ans
Ġna wet
Ð¾Ð» Ð¾Ð²
Ġqu ien
Ġe as
Ġch ar
Ġnos tro
Ġke ep
Ġ( "
ĠQ ue
Ġth ings
ta j
Ġcon tre
Ġsta nd
Ġle vel
ĠC ol
Ġg á»įi
Ġ3 6
ä¸Ĭ ãģĴ
ll ement
Ġch er
Ġch á»ĳng
ĠÑģÐ² ÑıÐ·
-- --
Ã ľ
Ġsu cc
èĳ ī
ï¿½ï¿½ ï¿½ï¿½
li er
Ġb amb
èī¯ ãģĦ
Ġç ¬¬
er ia
ĠÑħ Ð¾ÑĤ
ĠEs p
Ġap ro
Ġsz czeg
Ġm áº¥t
å¼ µ
Ġé £
äºº ãģĮ
Ġdes envol
Ġng u
tto re
Ġg esch
ĠWi th
ĠS au
Ġwith out
¦ ı
é Ł³
Ġf ino
Ġth Æ°
Ð¼ ÐµÑĤ
Ġp utas
ĠÑģÐ¾ Ð¾Ð±Ñī
Ġpre mi
ĠL u
Ð¿ÑĢÐµÐ´ ÐµÐ»
Ġkh ÃŃ
Ġkol ej
Ġy o
Ġt iáº¿n
Ġsp iel
åį ĺ
Ġw el
åĢ ĭ
Ġb ene
ari as
end ant
æ¸ Ī
ĠÐ´ Ð°Ð¶Ðµ
Ġsel bst
ei ras
Ñı Ð½
Ġex am
Ġempres a
ta ble
nge bo
ĠP ri
Ġlit tle
Ġcom men
Ġu cz
Ġ ãģĹãģĭ
Ġbet ter
1 7
ÑĪ Ðµ
Ġr odzi
Ġå ±
ãĤĪ ãģŃ
Ġqu Ã©
I A
Ã¢ ng
ĠÃ ħ
Ġs co
ÑĥÐ± Ð»Ð¸
å® ħ
æŃ ©
Ġt áº¥t
ÑĢÑĥ Ð¶
Ġtou te
ãĥ¼ãĥ ©
ĠÑĨ Ð²ÐµÑĤ
Ð¿ ÐµÑĢ
Ġs ido
è» ¢
ON E
Ġk osten
ĠÐ¿ÑĢÐ¾ ÑĦ
zi en
ak e
Ġres ul
bi ld
Ġes sa
Ġãĥ ¢
Ġcon os
Ġk iá»ĥm
Ġm inh
Ġman ag
ĠF l
c us
ÐµÐ½ Ð½Ð¾Ð¹
Ġm ie
Ġm us
c ere
p es
ãĥ« ãĥĪ
Ġsch ool
y ing
Ġtout es
tic al
Ġm áº¡ng
ta no
ag em
li ci
Ġs áº¯c
ĠP rzy
æ ¡
s as
Ġdo is
æĮ ĩ
ÅĤu g
z ed
Ġfami ly
Ġdu ring
ÐµÐ³ Ð¾Ð´
ĠTh u
Ġhá» ¯u
è¦ ı
Ã Ļ
ĠdÃ© p
ãģį ãģª
i O
ĠP u
ĠktÃ³ ra
ĠF ran
ç¥ ŀ
ale Å¼y
Ġat tivitÃł
ab a
Ġ á»
Ġ áº¥y
ber o
tell t
Ã¢n cia
ãĤĦ ãģĻ
ai lle
Ġæ ł
æħ ĭ
ÅĤa w
ĠÐ¿Ð¾Ð¼ Ð¾Ñī
ĠÑĩÐµÑĢ ÐµÐ·
Ġnh u
c ted
a ve
jÄħ cy
Ġdies em
Ġj etzt
ĠâĻ ª
ĠL A
Ġme u
ti na
ĠÑģ ÑĥÐ´
Ġc Ã¢y
Ġte ng
Ð°Ð»ÑĮ Ð½ÑĭÐµ
ä¼ ģ
ãģ¨ è¨Ģ
ph one
Ġis s
Ġs tra
ÑĢ Ðµ
ĠÑģ Ð¾ÑģÑĤ
ĠU omo
om mes
ĠÐ¡ Ð
Ġb en
Ġbas ed
Ġimpor tant
rÃ© s
Ġli gne
Ġw on
Ġ Ã¡p
Ãª te
ĠÅĽ rod
è« ĩ
Ġle urs
Ġsupp ort
ãĤ· ãĥ§
Ġo ltre
Ġ2 8
Ġli v
ãĥĹ ãĥ¬
Â ¯
Ġpo co
v em
ĠO ur
åĩº æĿ¥
ĠC i
Ġtak ie
ck er
ar si
Ġre f
Ã¤ h
Ġnie z
h aus
ad i
b au
ĠÐ¾ Ð½Ð°
ĠÑĢ Ñĥ
era Ã§Ã£o
æ ¤ľ
ĠC ons
ĠÑģÐ¿ Ð¾ÑģÐ¾Ð±
Ġop ini
Ñ ĸ
ÐµÐ½ÑĤ Ð°
kow e
Ã¼ tz
è³ ĩ
n u
Ġes cri
Ð¸Ð± Ð¾
Ġå½ ĵ
Ġg áº·p
ĠÐ¡ Ð¿
Ġra z
Ġso it
un ci
ÐºÐ° Ñħ
Ð¼ ÐµÑģÑĤ
Ġéĩ ĳ
Ġb Ãł
Ġa f
ĠÐ¸ ÑģÐº
Ġs ay
bili dade
æı Ľ
Ġd ni
Ġal go
Ġs ang
Ġo ggi
id er
ĠC ome
Ġo tro
Ġpro je
Ġra cc
ĠP f
ãģĦ ãģªãģĦ
b urg
ĠâĹ ı
ÑĨ ÐµÐ²
c cia
ĠÐ½ÑĥÐ¶ Ð½Ð¾
ĠÐ» Ð¸
çĶ ±
è Ĳ
est Ã£o
ÃŁ er
ĠOn line
Ġde ve
usam men
Ġc v
Ġwy so
Ġcont ent
ie ld
Ġh áº¡n
Ð¸ÑģÑĤ ÑĢÐ°
éĢ ł
ĠP reis
) .
Ãł m
ĠM an
ĠP rze
at t
ĠÐ¶ ÐµÐ½
Ġqu ali
Ġda lle
vi er
å¸ «
ĠKh i
s I
ĠÐ´ Ð¸
æ± Ĥ
Ġvol ta
ĠÐ³ Ð»
ĠÃ ±
Ġmu st
Ġm ember
ĠM er
is sion
ĠÄĳ áº§y
ÑĨ Ð¸Ð¹
Ġris ul
ãĥ¼ãĤ« ãĥ¼
li cul
ÐµÐ½ Ð¾
Ġg Ã³
Ġhis tÃ³
æ² »
Ġes e
gh ts
Ġque lla
owi Äħ
ãģį ãģ¾ãģĹãģŁ
ĠDi es
ãģĿ ãĤĮ
5 5
od y
ÑĢ Ð¾Ñģ
auf en
rz Äħ
ãģĵãģ¨ ãģ§
Ġngh i
Ġrec ei
Ġv n
Ġet was
u ciÃ³n
Ġpue den
Ì ĥ
Ġt ÃŃn
Ġl ow
Ġtr áº£
Ġto da
Ġco is
Ġe v
Ġqu ar
Ġgior no
ul her
Ð¸ÑĤ ÐµÐ»ÐµÐ¹
ei cht
ãĤ¤ ãĥī
Ġto das
ĠÐ¸ Ñģ
ç´ į
Ġor a
Ġz ro
ĠÐºÑĢ Ð°Ñģ
áº ¢
Ġse a
ĠÂµ ÃĦ
Ã³w i
Ġgior ni
re en
ĠÄĳ Ãºng
æĸ ½
ĠãģĿ ãģĹãģ¦
Ġpod em
2 4
w is
ç ¬¬
e ur
ĠT Ã´i
ĠÐł Ð°Ð·
ĠãĤŃ ãĥ£
Ġni Å¼
an eiro
ĠA k
Ġc Ã¡o
Ġb ra
ĠÐ¿Ð¾Ð· Ð²
at s
Ġpro ble
Ġsp rzed
å® ¤
ĠVá» Ľi
Ġa li
Ð¼ Ð¸Ð½
Ġm á»Ł
ĠÂ ¢
c tu
ĠMil ano
ĠÂ ¯
Ð¿ Ð¾Ð»
ĠÑıÐ² Ð»ÑıÐµÑĤÑģÑı
ĠÑĤ Ð¾ÑĢ
Ġthu á»ĳc
Ġc á»±c
çµ ¦
ĠÂ¡Â £
Ġfon ction
ĠÄĳ áº¥u
Ġab le
Ġqu ality
Ġper form
ĠÐŁ Ð¾Ñģ
Ġare a
ĠÐ³ Ð»Ð°Ð²
Ġri ce
Ġpow er
ĠÐ¿Ð» Ð°Ð½
Ġc ze
Ġprzy pad
ador a
ĠÐ¾Ð±Ð»Ð°ÑģÑĤ Ð¸
Ġch ia
Ġg rou
Ġc Æ°
Ġpo zy
ĠM Ã¤
Ð°Ð¹ÑĤ Ðµ
ch s
ta nd
ĠÐ¾ÑĤ Ð²ÐµÑĤ
Ġpro per
ĠEs te
f eri
Ġ ur
ĠP i
Ð°Ð»ÑĮ Ð½Ð¾
ĠÑĢ Ð¾Ð´
la ge
ĠÐŁÑĢ Ð¸
ĠÐ· Ð°Ð½
Ġhá» Ĺ
Ġdiff Ã©r
Ġb ie
ĠBi ld
Ġt Æ°Æ¡ng
u ales
o t
Ġsc ar
Ġpro ces
Ġser a
ur os
es a
j os
ĠDeutsch land
it Ã©s
ĠÐ³Ð¾Ð´ Ñĥ
ÐµÑĢ ÑĪ
Ġmais on
at Ã³
Ġel ec
Ġ. ,
Ġk re
Ġpossi bile
u he
Ġne xt
ÅĤ ni
Ġpow in
Ð¾Ð± Ð°Ð²
Ġr áº»
ĠÐ¿Ð¾Ñģ Ð»ÐµÐ´
Ġs ÅĤ
ĠÑĢ Ð°Ð¹
ãģĵ ãģ®
ç ¹
ãĤī ãģªãģĦ
Ġæ Ĺ
ãĤ ¼
ï¼ Ķ
è ħ
Ġï¼ Ĵ
ãģ« è¡Į
å¾ ħ
Ġãĥ ¯
æ¯ Ķ
Ġ äºº
Ġé ķ·
Ġ1 00
ĠÐĺ Ð·
k er
ĠC H
Ġtho áº¡i
ç ¿
ãĤı ãģĳ
Ġti po
Ġå ¸
Ġtr anh
ç© º
ue la
Ġprof es
Ġsma ll
Æ°Æ¡ i
ĠT eil
ãĥĹ ãĥŃ
ll ar
ãģ£ãģ¦ ãģĦãģ¾ãģĻ
Ġs en
ci u
æĸ¹ æ³ķ
Ġm inha
ãģĶãģĸ ãģĦãģ¾ãģĻ
Ġcon tin
å¯¾ å¿ľ
Ð°Ð´ Ð¸
Å¼ a
qu ÃŃ
Ð¸Ðº Ð¾Ð²
ÑĭÐ¼ Ð¸
Ġqual quer
Ġtou jours
æ ļ
ĠF rei
anÃ§ as
Ġde j
ãĤ¢ ãĥ«
bi or
Ġwar to
Ġt Ã©lÃ©
ich ts
c teur
Ġ" ,
ch os
s k
Ġacqu is
Ġãĥ ĵ
Ġb ay
ge ben
olo gia
ç© į
velo pp
Ã¶ s
ff e
Ġpu is
æµ ģ
Ġs f
Ġmo i
Ġè ©
Ġ ãģĻ
Ġgi áº£
Ġc Ãłng
ÑĢ Ð°Ð±Ð¾ÑĤ
Ã© c
on der
Ġw id
Ġc á»¥
á»ĵ m
ãģĹãģ¾ ãģĨ
Ġwith in
Þ¬ Þ
ne a
Ġgi ve
Ġpar ticol
Ġge ht
li co
ĠÄĳ áº£m
ĠÐ¼ Ð¸ÑĢ
zi mmer
Ġest os
Ġpro y
Ð¾ÑĢ Ð°
Ġwy d
ĠÐ± Ð°Ð½
cj on
Ġg ar
c ca
Ã¶ glich
et as
us a
z d
at ri
Ġlo t
Ġsp Ã©
li z
Ġat ten
ĠnghÄ© a
ĠZ a
ãģĵãģ¨ ãĤĤ
Ġno vo
ig er
ĠÃ ¸
å¢ Ĺ
Ġd onna
p r
Ġqu Ã½
ouve z
ĠÐºÐ» Ð°ÑģÑģ
Ġkh áº£
Ġah ora
ĠÃ© v
Ġapres enta
ĠÂ ©
r ÃŃa
æ° ĳ
Ġsi gu
ĠÑĥÑģÑĤ Ð°Ð½Ð¾Ð²
Ġda nh
urs os
Ġa ng
åº ĥ
ĠÐ ®
Ġmi li
Ãªn cias
Ġest ar
Ġngh e
is ten
ãĤ¤ ãĤ¹
Ġmo is
Ġb á»ĳ
N H
Ġrec en
Ġl ung
Ġl á»±a
ä¼ Ŀ
Ġl áº¥y
ca ciÃ³n
ĠÐ² Ð°Ð¼
Ġat u
Ġl Æ°u
a zione
ed e
ĠA pp
it er
ĠR io
ĠGi Ã¡
p Ã©
8 0
Ġo pp
Ġfe el
to ry
ĠÂ £
ĠN aj
ĠA mer
æ ·
Ġd ÃŃas
ĠÃ ¤
ĠA uto
Ġè ¡
ec tive
Ġand eren
ĠNg Æ°á»Ŀi
Ġde b
Ð² Ð¾ÑĢ
Ġsome thing
Ð°Ð»ÑĮ Ð½ÑĭÑħ
Ġs endo
Ġká» ¹
Ġmom ento
ãģª ãģŁ
Ġos ta
Ġfu ll
Ġ201 2
Ġh um
tor s
ä¿ ®
Ġof re
o i
ĠA ll
Ð¸Ð» ÑģÑı
Ġche z
Ġa va
Ġe ng
ãģŁ ãĤĬ
Ġposs ono
ĠF re
Ġricer ca
Ġsecon do
ä¾ ¿
g esch
ĠwiÄĻ c
2 2
Ġmu jer
ĠÐ¾Ñģ Ð¾Ð±
æĮģ ãģ¡
Ġho tel
Ġan tes
ver no
Ð¾ÑĢ Ð¸Ð¸
tic olo
Ġtr ze
ĠI s
áº© u
ãģĻãĤĭ ãģ¨
ĠãģĿ ãģĨ
ĠÑĨ ÐµÐ½
Ġop era
ĠGr und
ĠG io
ĠÄĲ á»©c
Ġqu ale
abi le
Ġh om
Ġ ï¾
Ġt iá»ĩn
ĠTra ng
ä¿ Ĥ
Ġes per
m an
ĠCh ÃŃnh
cou p
m ier
ł Ķ
si ca
ĠÐ¿ Ð¾Ð»ÑĮÐ·
Ġprop os
ow Äħ
Ġ2 9
z pie
ĠD aten
ä¾ ĭ
Ġli ve
ĠV ers
j ou
ĠE N
Ġvo ir
ta ch
ãģ¹ ãģ¦
ĠÑģ ÐµÐ¼
Ġsp a
ãĤ¯ ãĥĪ
ĠCh i
Ġre gi
ggi ung
Ġos Ã³b
ĠMen schen
ĠE le
Ġtrav ail
Ġz ar
ÑĢ Ð¾Ð¿
Ġu omo
Ġnuest ro
m ar
ãģ«ãĤĪ ãģ£ãģ¦
ÐµÑģÑĤ Ð¸
ãģ µ
n ung
Ġdisp oni
Ñı Ð¶
ĠÐ¿ÑĢÐ¾ÑģÑĤ Ð¾
ci ta
ĠS in
Ġk ra
ĠF i
ent Ã³w
Ġâ Ĩ
Ġne ue
on en
Ġtr Æ°á»Łng
Ð» ÐµÐ¹
Ġ4 0
ĠÐ²Ñģ ÐµÐ³Ð¾
ĠÑģÐ¾ Ð¾ÑĤ
Ġt á»ĳi
ĠGe w
Ġquel ques
ÐµÐ³Ð¾Ð´ Ð½Ñı
Ļ çľŁ
ĠÐ²Ñģ ÐµÑħ
ãĥķ ãĥ¬
Ã¼ ber
ow aÅĤ
Ð¸ Ñī
D F
Ġï¼ģ ï¼ģ
èĩª åĪĨ
è ¢
Ġprof ession
ãĥķãĤ© ãĥ¼ãĥł
ĠTh em
ĠTh Ãłnh
ÑģÐº Ð¾Ð¼
Ġv enta
Ġin ves
åĳ Ĭ
Ġçī ¹
ĠÐ¼ ÐµÐ´
Ġpol ÃŃ
å¿ µ
æ¬ ¡
Ġm erc
ĠÂ ª
ãĥ¼ãĤ ³
an to
Ġv ui
Ġf Ã¼
Ġr Ãµ
Ġg row
Ġto Ã¡n
C M
Ġl á»ĩ
Ġpo trze
is z
ãĤ¤ ãĥ¤
Ñĭ Ñĩ
Ġcur r
Ġãĥ¬ ãĥĩãĤ£ãĥ¼ãĤ¹
ĠH á»ĵ
Ġac tiv
Ġlu áºŃt
us o
Ġy áº¿u
Ġat tra
t Ã¤t
ï½Ĺ ï½Ĺ
sta w
ĠÃ ¯
ti al
Ġen ts
Ġde llo
si te
Ġm áº«u
Ġb om
į ng
Ġèĩª åĪĨ
ÑĥÑĢ Ñĭ
sch ei
Ġmi ght
ĠS he
v al
Ġa vait
Ġhat te
Ġãģ ¡
Ġc ro
ãĥ¼ãĤ· ãĥ§ãĥ³
Ġæ Ī
Ġ2 7
Ġad di
ĠÐ· Ð½
po li
ĠÐ½ Ð¸Ðº
bili dad
a ting
tif s
Ġal ors
la g
ĠãĤ Ī
Ġch á»©
± ãģĦ
i u
Ð°Ðº ÑĤÐµÑĢ
li ck
ich te
ĠdÃ© b
Ġtá» ©
ç ģ
ĠÐ¾Ð´ Ð¸Ð½
tik el
Ġtr es
c am
Ġå Ģ
m ed
ĠÑĥÑģÐ» Ð¾Ð²
Ġe di
Ð¸ÑĩÐµÑģÐº Ð¾Ð¹
ãģ¿ ãģŁãģĦ
åĦ ª
Ġpr ow
ĠÐ¾ÑĤ ÐºÑĢ
ÑıÐ± ÑĢÑı
Ġder e
k l
è į
uf fici
Ġ ä½ķ
uy áº¿n
åĸ ¶
Ã¡ g
cz u
l uss
bier no
ãģ ¥
ĠÑĪ ÑĤ
ĠÐ½Ðµ ÑģÐº
Ġdo ch
Ġma chen
Ð¸Ð½ Ñĥ
ĠÃ ®
ĠÐŁ Ð¾Ð»
Ġest r
Ã³ m
ĠÐ³ Ð¾Ð²Ð¾ÑĢ
Ð¸ÑĢÐ¾Ð² Ð°ÑĤÑĮ
âĢ ĭ
iá»ĩ p
Ġd ÅĤu
ĠÑĨ ÐµÐ½ÑĤ
Ġprim era
Ġund ers
Ġe conom
èµ ·
ÑĢÑĥÐ¿ Ð¿
ÑĢÑĥ Ð±
k ty
ca li
on as
t ÃŃcul
i ent
é Ń
Ð² Ð°ÑĢ
ĠN go
Ġt ych
Ġav is
s atz
L CJ
ĠÐ² ÐµÐ´
ãĥ³ãĤ Ń
ĠÐ· Ð½Ð°Ñĩ
Ġorg ani
Ġano ther
d re
ĠP ero
Ġe au
j em
ãģ« éĸ¢
Ġ Ñİ
ĠÐ¾ÑĤ Ð´
è³ ¼åħ¥
Ð¸ÑĩÐµÑģÐº Ð¸Ð¹
Ġtra ta
ma ge
Ġh Æ°á»Łng
Ã» t
ãģ®å ł´
à³ į
ãĥĸ ãĥ«
ĠH á»Ļi
w ni
Ġm ani
ĠÃ¢ m
Ġapp ar
Þ° Þ
ĠãĤ± ãĥ¼ãĤ¹
Ġho je
Ġm am
Ġall es
d Åº
a ti
id ente
Ġle t
one y
Ġpro jet
or ia
Ġbe g
ĠÄĳ Ã¢u
æľ Ľ
ĠÅ »
Ġb rasil
ä¸ĩ åĨĨ
Ð°Ð» ÑģÑı
8 6
Ġç ¾
Ġp ut
ski ch
b ri
Ġes ti
Ġ @
ãĤĤãģĹ ãĤĮ
Ġc idade
Ġk ein
tiv as
Ġåľ Ł
ĠÐ·Ð°Ðº Ð°Ð·
Ġw en
ĠÑĤÐµÑħ Ð½
ĠWar sza
Ġcel a
Ġman era
ĠÃŃ t
Ġf aut
Ġsty le
Ġch at
Ġpo is
is ine
Ġcit tÃł
Ġs tre
in es
Ġj ou
áºŃ m
s Ã©
éĻ ¤
O L
åľ Ĵ
Ġwy st
li k
w anie
èŃ °
si ma
Ã¡ri as
Ġc en
ãĥģ ãĥ£
Ġf ine
g as
ĠG u
co li
ĠprÃ³ pri
Ġn or
Ġcu á»ĳi
Ġb iá»ĥu
Ġsiste ma
Ġtá»ķ ng
ĠÑĤÑĢ ÐµÐ±
ĠE u
Ð ¯
ie t
ĠÐ½ Ð¸
eren cia
ĠÐ¼Ð¾Ð³ ÑĥÑĤ
Ġdi f
al en
Ġs tos
es se
Ġli b
éĢ Ł
Ġen tr
ie urs
ĠÄĳ áº¡t
Ð¾Ñĩ Ð½Ð¾
Æ ¯
Ġinforma Ã§Ãµes
á» ³
7 7
Ġæľ Ī
Ġin te
Ġpo tre
Ġques ti
O U
Ð¾Ð² ÑĭÑħ
ĠÑģÐ»ÑĥÑĩ Ð°
ĠÐ¼ Ð½Ð¾Ð³Ð¾
Ġg á»ĵm
Ġdo ty
ĠrÃ© ali
Ġmej ores
Ġm Ã¼s
æĶ ¯
al ny
Ġæ īĭ
ĠÑģÐµÐ± Ñı
ĠPos tÃ©
ĠS a
as ed
Ġp rom
Ġg dzie
Þ¨ Þ
ĠA t
ĠÄĳo Ãłn
Ġprim eiro
Ñı Ñģ
ĠÐ³ Ð¾ÑģÑĥÐ´Ð°ÑĢ
Ġ, .
ĠH a
Ġg Ã¡i
ĠI I
Ġro om
ĠâĢ ¢
olo gi
å° Ĥ
Ãº i
ĠÐ¸Ð½ÑĤÐµÑĢ ÐµÑģ
è¦ ³
å¤ļ ãģı
Ġpe que
ĠÐ²ÑĭÑģ Ð¾Ðº
ĠÑį Ð»ÐµÐºÑĤÑĢ
Ġsc on
ĠÑĩ Ð°Ñģ
Ġngu á»ĵn
Ġch am
Ġna u
ver n
za hl
Ġm eio
Ġt áº£i
Ġng Ãłnh
Ġo tra
Ġdos tÄĻp
ĠS ti
l ar
ĠâĢ ĺ
si ons
Ġlu áºŃn
Ð¾Ð´ Ð°
Ġæ ķ
ĠÐ¿ÑĢÐ¾ ÐµÐºÑĤ
ll et
ch ar
ĠT od
Ġsin ce
c re
Ã¤l t
Ð¾Ð² ÑĭÐµ
ent en
Ġbes te
ĠTh at
Ġtien en
è ¬
Ġda ti
Ġwy kon
ãĤī ãĤĮãģ¦
Ġpro b
ĠCh icas
ÐµÐ½ Ð½Ð¾Ð³Ð¾
ãĤµ ãĤ¤ãĤº
èĸ ¬
na li
ai ent
ĠgÅĤ Ã³w
ĠSe g
ĠÐ¸Ð½ÑĤÐµÑĢ Ð½ÐµÑĤ
u aciÃ³n
ra g
! !
Ã ¿
Ã© o
con tre
vil u
Ġï½ ľ
sz ta
ĠÐ´ Ð¾Ð¿
ĠWo hn
Ġv iele
od o
Ġæ ¯
ÐµÐ· Ð´
Ð°ÑĤ ÑĢ
Ġge f
ue go
lo ad
Ġs enti
ĠÄĲ Ã´ng
Ð°Ñı Ð²
c chi
ĠéĢ ļ
Ġlook ing
ver so
Ġth áº§n
Ġpers onnes
Ġh ui
Ġv iene
Ġte xt
lic ado
U E
* *
ãĥ¼ãĥ ģ
Ġ ul
era z
æŃ ¢
ri os
å¹ ³
ĠÑģÑĤ ÑĢ
Ġp on
Ġc áº¡nh
gh i
Ġo ko
ĠP L
Ġdá»¥ c
Ġr á»Ļng
Ãĩ ÃĥO
ta ta
eit ung
åĲĪ ãĤıãģĽ
Ġinforma zioni
Ġz wiÄħz
Ġd amit
Ð´ ÐµÑĢÐ¶
ÃŃ lia
Ġch Æ°Æ¡ng
ãģĪ ãģ°
ãĤĴ ãģĬ
ra it
Ġw Ã¼r
Ġãĥ į
Ġãĥ ľ
ÑĢ Ð¾Ð±
Ġxu á»ĳng
ĠÑģÐº Ð°Ð·
ĠT á»ķng
ĠãĤ¹ ãĥ¼ãĥĳ
c ce
ĠEs paÃ±a
ĠÐ¼ ÐµÐ¶Ð´
w ork
áº µ
Ð½ Ð¸Ðµ
y e
ÐµÑĢ Ðµ
ĠU S
Ġu0 43
ÑģÐ» ÐµÐ´
ÃŃ ni
szy m
ĠX em
¡ å¸ĥ
Ð¾ ÑĦ
æĽ ´
Ġper mi
Ġpres enta
ĠTh á»§
Ġnuest ra
Äħ c
ãĤ³ ãĥ³
ĠE ine
å ¦
Ġä¸ Ĭ
is ce
ri dad
i te
Ð»Ñı ÐµÑĤ
Ġç ·
æ £
èĲ ½
ent re
ĠCh á»§
schie den
Ġj ours
ĠT á»«
âĢĭ âĢĭ
S I
ti go
v Ã©s
ĠNg Ãły
Ġãģ ł
ti o
Ġå¥ ³
Ġx á»Ń
ÐµÐ½ÑĤ Ñĭ
Ġt Æ°á»Łng
un i
ĠÐ¿Ð¾Ðº Ð°Ð·
Ãł u
ĠÐº Ð°ÑĢ
é¡ ĺ
Äħ g
Ġo ld
Ġho y
ĠbÄĻ dÄħ
ĠdÆ°á» ¡ng
ĠÐ¶ Ð¸Ð²
Ġg ame
Ġa tiv
Ġfun cion
ĠÐĴÑģ Ðµ
Ġph Ã¹
Ġsem p
Ð° Ñī
ĠÃ© tu
ĠT or
ÑĢÑĥ ÑĪ
Ġei gen
Ġjak ie
Ġv Ã¹ng
ĠR is
ul a
ĠÄĳá»Ļ c
ĠÑĢÐµÐ· ÑĥÐ»ÑĮÑĤ
Ġday s
ĠÐ½ ÐµÐ¼
Ġout ras
ĠÐ´ Ðµ
ĠB und
ci ais
Ġstes so
z enia
s ÅĤ
Ġles s
èĢĥ ãģĪ
u ally
Ġd y
Ġac onte
g ue
Ð¸ÑĩÐµÑģÐº Ð¾Ð³Ð¾
ÑģÑĤÑĢ Ð¾Ð¹
si ÄħÅ¼
â ĺ
Ġdeci r
Ġbeau coup
k eiten
Ġæ Ħ
åŃ ĺ
Ġszy b
ci n
ĠM on
Ġhe cho
ä¹ Ĺ
Ġa nge
ä½ İ
Ġz mi
Ġhe ad
Ġgrand es
aj a
ÃŃ veis
è± ¡
Ġh in
» Ĵ
Ġa zien
ĠC al
Ġwork ing
ĠE S
t k
Ġne ver
Ġthu Ãª
ãĤ¸ ãĥ£
Ġç ı¾
æĸ Ń
ver o
g in
ĠÐ£ ÐºÑĢÐ°
Ġno i
ÑĥÑĢ Ð³
Ġal tre
Ġd Ã¹
Ġmak ing
ĠÐº Ð½Ð¸
ru ck
hal b
ÐµÐ´ Ð¸ÑĤ
Ã¤ tz
Ð² ÐµÐ´
b li
Ġprof ission
Ð¾Ð½ Ðµ
Ġm os
ti ce
xi co
çİ ĩ
ãģª ãĤĭ
Ġus ta
mit tel
Ġcual quier
Ġtr ain
Ġs ais
ãĤ± ãĥ¼ãĤ¹
cor so
ab en
Ġann Ã©e
Ġc y
ãĤı ãĤĬ
ãĥ³ãĥ Ĳ
ĠTh á»ĭ
Ġ ãģĭ
Ġi phone
th ers
sz ej
Ìģ c
Ð°Ð» Ð¸ÑģÑĮ
Ġv rai
ãĤ Ĩ
Ġ Ã¡o
j az
ä¼ ĳ
ãģķãĤĮãģ¦ ãģĦãĤĭ
Ġdes puÃ©s
Ġdu Å¼
2 5
Ġk ar
Ġsch ne
Ġcom er
ĠÑģÐ¾Ð¾ÑĤ Ð²ÐµÑĤ
Ġb in
ãģ¨æĢĿ ãģĨ
Ġa gli
Ġfo od
ãģ ŀ
ry w
ĠS tu
ÑįÑĤ Ð¾Ð¼Ñĥ
ĠÐ¼Ð½ Ð¾Ð³
en ze
ĠNh áºŃt
ãĥ ´
ãģł ãĤįãģĨ
Ġkho a
åĢ į
v ole
w ard
ãĤµ ãĥ¼ãĥĵãĤ¹
Ġstar t
Ã¡ tica
ĠÐ±ÐµÑģÐ¿Ð»Ð°ÑĤ Ð½Ð¾
ÑħÐ¾Ð´ Ð¸ÑĤ
Ġv áºŃn
Ġnos tra
ĠrÃ© gi
Ġs eine
Ð°ÑĤ ÐµÐ»Ñı
Ġencon trar
ÄĻ t
ĠsÃ³ lo
ĠN el
mi entos
d ing
N D
ç ±
ä¸į åı¯
Ð¾Ð³ Ð»
m ann
et y
ãĥ¼ãĤ Ń
è¦ §
ãģ«ãģª ãģ£ãģŁ
Ġn ada
Ġx in
ãģ®æ ĻĤ
ãĤ± ãĥĥãĥĪ
Ġl ine
ar o
ĠK Ã¼
u kt
ãĥ¼ãĥ ĩ
ĠÐ±Ñĭ Ð»Ð¸
ĠÐ¿ÑĢÐ¾ÑĤ Ð¸Ð²
ĠÑĤ ÐµÐ¿
la gen
ĠÐ· Ð²
ta ts
Ġlá»Ľ p
g az
Ġåī į
ĠM y
Ġå Ĭ
ãĤ¿ãĤ¤ ãĥĹ
ĠO p
Ã¶ ff
Ġh ard
ĠÐ¼ ÑĥÐ¶
g leich
le ur
Ġnos so
ĠåĽ ½
ãĥ Ĵ
Ð½ ÐµÐ²
cz ej
Ġm Ã´
ĠÑĢÐ°Ñģ Ñģ
ĠÐ´ Ð¾ÑĢ
Ġpe tit
Ġde li
ãģ ģ
ÐµÑĢ ÑĮ
c tions
ĠÐ¿ÑĢÐ¾ÑĨ ÐµÑģÑģ
Ã¤ re
f te
ĠP DF
Ġparti r
ãĥķ ãĤ§
Ñĥ ÑĢÐ°
Ġstud ents
ĠJahr en
åŁ º
ãģ® ãĤĤ
ĠÐ½Ð° ÑĢ
ĠW ei
Ġam b
ÐµÑĢ Ð¾Ð²
ãĤĴæĮ ģ
Ġf is
ri b
ĠÄĲ á»ĵng
Ġproduc ts
Ġth áº¥t
ÑĤ Ð°
ĠZ u
ĠA uch
Ġb iá»ĥn
ĠÐº Ð°Ð·
Ġ\" :
å¼ķ ãģį
Ġdis se
Ġv iew
6 0
Ġå ĭ
å® ³
ent ras
Ġk iedy
ĠNh Æ°ng
ĠvÃł ng
Ġj ob
ĠÑĢ ÐµÐ±
Ġt am
Ġa ni
uf en
Ġb ase
pp e
ãĥ¬ ãĥĵ
Ġb uy
Ġde pois
Ġapp lica
Ġãĥ¡ ãĥ³ãĤº
Ġweb site
Ġfran Ã§ais
ĠÐ¾ Ð¿ÑĢÐµÐ´ÐµÐ»
b an
Ġgo t
al ten
Ġl Ã£
it ar
Ġpre cio
bili tÃ©
Ġes paÃ±
ĠÄĲ iá»ģu
ĠN ero
Ġag ora
ÅĽ wiad
Ġven dita
or to
ãģŁãĤģ ãģ«
Ġres earch
ta t
Ġor ig
åī ²
ãģĳ ãĤĮãģ°
ĠSta dt
ĠÐĵ Ð»Ð°Ð²
Ġtrav Ã©s
Ġs ali
ĠÐ±Ð¾Ð»ÑĮÑĪ Ðµ
vers ity
Ġko ÅĦ
Ġtr ou
ÐµÐºÑĤ Ð¸Ð²
ĠÐ¾ ÑĦ
Ġte le
ĠÑĦ Ð¸Ð»ÑĮ
è© ¦
ci ales
ĠÐ¼ Ð½Ðµ
iÃªn cia
Ġm Ã´i
Ġcon na
Ð· Ñĭ
Ġto day
ĠT er
ĠOd powie
ĠÐ¾ÑĤ Ð»Ð¸Ñĩ
Ġtá»© c
um p
ĠåĲ Į
Ġmark et
Ġå® ¶
ĠÐ½ Ð°Ð»
Ġï¿½ï¿½ ï¿½
Ġnuo va
ĠprÃ³ xi
æĤ ª
Ð°Ð½ Ð¸Ð¹
ãĤĴæ İ
em ble
c an
ĠÂ ¥
Ġf our
am enti
Ġacc ess
Ġ" )
ãĤ¹ ãĤ¯
Ġc in
ĠÄĳ Ã´
æĿ ¿
Ġä» £
Ġb ri
Ġspos Ã³b
é«ĺ ãģĦ
ĠÐ²Ñĭ Ð±
be zpie
æ¥½ ãģĹ
Ġpubb lica
ĠI hnen
Ð°ÑĢ Ð°ÐºÑĤÐµÑĢ
ĠãĤ ¬
ç´ ļ
Ìģ t
Ġswo je
ĠÐļ Ð¾Ð½
Ġk ier
y age
ĠVo cÃª
ĠÑĢÐ°Ð·Ð² Ð¸ÑĤ
i es
Ð¾ÑĤÑĢ ÐµÐ±
ĠH i
Ġs ing
ãĥĥãĤ· ãĥ¥
è²© å£²
ä»ķ äºĭ
cz ka
Ñĩ Ð°Ñģ
Ġse Ã±
Ġen jo
ĠB l
ag a
Ġc á»ĳ
Ð «
Ġa j
ãģ«ãĤĪ ãĤĭ
Ġri Ãªng
åħ ±
æ¼ Ķ
owan ych
ĠåĮ Ĺ
t ur
Ġw ra
al o
Ġtr áºŃn
tori o
Ġma jÄħ
Ġdi ri
Ġkhá»ı e
Ġn un
ĠÐ½ Ð¸Ñħ
ĠÐ¸Ð· Ð¼ÐµÐ½
Ġh uyá»ĩn
ĠÐ¿ÑĢÐ¾Ð± Ð»ÐµÐ¼
zza zione
t tes
m ina
auss ures
Ġqu and
war z
w are
ĠTh ese
Ġo tras
d f
ĠÂ ¦
ĠÑĥ Ð»
ĠÐ¾ÑĤ Ð·ÑĭÐ²
Ġin sta
ĠWe b
ĠBar celona
åº «
ç¨ ĭ
i fica
O D
äº Ĩ
is ti
Ġnaj lep
ĠA le
at ter
Ġas p
ĠwiÄĻ k
Ġes s
ĠP ub
æĿ ĳ
Ġtr áº¡ng
Ġv iá»ĩn
Ġz ÅĤo
ÐµÑĢ Ð±
Ð¾ÑĤ Ð°
ĠÐº ÑĤÐ¾
Ġservi zio
Ãº s
ĠÐ¼ Ð°Ð»
er te
w en
z ent
ĠA ngebo
Ġc olo
er as
ãģı ãĤĭ
us es
Ġcon si
se ur
re d
ÑĢ Ð°Ñģ
Ġdi fer
Ġa unque
Ġes a
Ġwszyst kie
Ġæľ ¨
ĠJ ed
Ġunders tand
ĠÐ· Ð°ÑıÐ²
ãģ£ãģ¦ ãģĦãģŁ
æŃ ³
æĹ¥ ãģ¯
ĠÑģÑĤ Ð¾ÑĢ
den ti
ĠA cc
Ġdes s
å ´
Ġo tti
Ġabb iamo
Ġlo cal
ĠÃ Ŀ
Ġqu Ã¢n
ĠwÅĤ as
ĠæĻĤ è¨Ī
ĠK a
ej a
Ġco ver
ĠÐº Ð°ÑĤ
Ġçµ Ĳ
Ġs eit
f ang
Ġph ÃŃa
Ġan te
ÑĨ Ðµ
Ġob ie
1 00
ess en
ĠP are
al d
Ġc ali
Ġv in
Ġchá»ĭ u
Ġ ãģ§ãĤĤ
Ġle tz
Ġqu alitÃ©
Ġp ays
ĠDi ese
éģ ©
Ġemp lo
ĠdÃ© velopp
Ã¨ n
licul as
áº¡ p
Ġc ara
Ġï¼ Ĩ
ĠÃ¡ rea
Ġdi t
ĠD la
Ġn u
Ġm io
Ġde f
ãģĹ ãģªãģĦ
Ġh ombre
Ġca pa
éĽ £
r Ãª
á»Ĺ i
m l
ãģĵ ãĤĮ
ĠÐ¸ Ñİ
anie m
li ÅĽmy
æĸĻ çĲĨ
åĭ Ŀ
ĠC ette
Ġimp ro
ĠRo z
o is
t ung
ĠP ra
g ado
æ ¹
Ġe k
Ð¡ Ð¢
Ġå® ī
Ð¸ÑĤ Ñĥ
eren ce
ð Ł
Ġel es
ĠÐ´Ð¾Ðº ÑĥÐ¼
ĠK ar
Ġå İ
ĠdÃ© cou
Ġch áº¯c
Ð± Ñĭ
áº§ ng
Ġf ra
Ġe ar
éĺ ª
å² ¡
k ing
ge ther
ĠB uch
Ġa vere
Ġc ier
gr ama
ĠW elt
Ðł Ñ
Ġun os
Ġer st
Ġmi ll
ĠU r
å¥³ æĢ§
Ġx a
iss ance
ãģ®å Ĳ
ĠÑģÑĤ Ð°ÑĢ
gra f
Ġzw ischen
w aÅĤ
Ġind ust
Ġneed s
Ġnouve au
ci l
em ple
Ġvi lle
ĠM in
Ãº a
pp ing
ĠÄĳ Ãłn
ĠÐºÐ² Ð°ÑĢÑĤ
Ġs vilu
Ġrecher che
z ji
A M
Ġä» ¥
Ġim mag
Ġna vi
ur so
ĠãģĹãģĭ ãģĹ
Ġcon ten
tion e
Ġpl an
kie j
lli on
ãģ® äºº
ta ge
cion ais
cj Äħ
Ðº Ð°Ð¼Ð¸
éĺ ²
Ġsecon d
Ġd Ãłnh
el ho
Ð´ Ð¸Ð½
ale Å¼
ĠÐ» ÐµÐ³
ĠktÃ³r ych
æ§ ĭ
Ġkh Ã¡
und a
ĠÑĥ ÑĤ
em mes
am es
Ġc ul
ĠÑĥ ÑĢÐ¾Ð²
to ur
Ð°Ð» Ð¸ÑģÑĤ
ĠV ideo
t ten
Þ §
åį ģ
tra g
Ġl Ã¢u
ãĤ¦ ãĤ§
Ġd ur
Ġph áº¡m
Ġe llos
ĠUnter nehmen
ãĤĴ ä½¿
Ġs ki
ĠÑĤÐµÐ» ÐµÑĦ
d ÄĻ
Ġbus ca
7 5
Ġv ÃŃ
Ġde be
Ġãĥ ĭ
ç® ¡
Ġpar f
ĠãĤ· ãĥ£
ro om
ÐµÑĩ ÐµÐ½Ð¸Ðµ
Ġje u
Ġpro cesso
Ġin ve
Ġe fec
an zi
j Ãł
ãĥ¼ãĥ ª
ĠÐ½ ÐµÐº
ĠÑĤ ÑĢÐ°Ð½
Ġval or
ĠÄĳ Ã¡ng
Ġa que
Ġqu alitÃł
ri cht
Ð¾Ðº Ð°
ec er
Ġll am
Ġchild ren
ÐµÐ² Ð°
åį Ĭ
åī ¤
ĠÄĲ á»ĥ
ãĥ³ãĤ µ
Ġ. "
Ġencu ent
Ã´ t
Z W
Ġs cel
Ð Ļ
æĶ ¾
al nie
Ġc entro
ĠÑģÑĤ Ð°ÑĤÑĮ
Ġprodo tti
Ġg an
Ð°Ð» Ð¾ÑģÑĮ
m on
ĠFo tos
Ġï¼ ħ
ĠD el
wi r
ĠÑįÐº ÑģÐ¿
ĠæĿ± äº¬
am iÄĻ
ug no
Ġe vent
ĠÐ± Ð»
ĠhÃ£ y
ĠHo Ãłng
ĠgÃ©n Ã©r
Ġdi v
kt Ã³w
Ġc alidad
ãĥ¼ãĥ ķ
Ð¾Ð» Ð¶
ĠÐŀ Ñģ
ĠÐ½ Ð°Ð¼
ie me
ĠÐ¿ÑĢÐ¸Ð¼ ÐµÐ½
Ġlear n
Ġâĺ Ĩ
Ġcom ent
ĠÐŀ Ð½
Ġen vir
ãģ«ãģª ãĤĬãģ¾ãģĻ
Ġãĥķ ãĤ¡
ĠÐ³ ÑĢÑĥÐ¿Ð¿
ti l
tow e
wÃ³ j
ãĥģ ãĤ§
Ð¾Ð¶ Ðµ
Ġs Æ¡
Ġ _
Ġh ouse
ãģ«ãĤĪ ãĤĬ
ĠÐ±Ñĭ Ð»Ð°
ĠAs s
w end
Ġin nych
Ġv ici
Ġz ad
r am
ĠÂ ¤
ĠH ow
Ġn r
ĠB a
ÑĢ ÐµÑģ
ç ĭ
tisch e
ĠCh o
cyj ne
ãĥ¼ãĥ Ĭ
ĠW eiter
Ġchang e
ĠÐľ Ñĭ
Ã Ŀ
Ġal Ã©m
Ġpart ie
Ã¤ s
ĠÐº Ð»Ð¸
u da
ĠçĶ Ł
Ġ rz
gl Äħd
Ġc et
Ġk osz
owan a
Ġplus ieurs
ĠÐ² ÑĤÐ¾ÑĢ
Ġcir ca
Ġå £
Ġho áº¡ch
ĠIn forma
ĠJa hre
Ġfo llando
èŃ ĺ
ti er
at ro
ĠH áº£i
ÃĪ Ãĭ
çŃ ĸ
n it
Ġ201 1
Ġave z
ĠÑģÑĤ ÑĢÐ¾
Ð¼ Ðµ
Ġf er
Ġinter ne
ÐµÐ¹ ÑĩÐ°Ñģ
ãģ®è ©
un ter
ĠV ia
iss Ã£o
é º
ĠÃ ¬
ĠD Æ°Æ¡ng
Ġnue va
ĠAr tikel
Ġdo k
ĠJe an
Ð° ÑĨÐ¸Ð¾Ð½
tic s
Ġpun to
ĠspÃ© ci
ãģ¦ ãģĦãĤĭ
Ġ\ /
Ġï¼ İ
ĠC an
Ġt á»ĳ
åĮ Ĺ
Ð°Ðº Ñģ
k ami
ãĤĩ ãģ£ãģ¨
ĠA ng
Ġel et
at Ã¼r
Ġalgun s
Ġhor as
Ġcusto m
ĠãĤ ´
u chen
ĠÐ¼Ð¾Ð¶ÐµÑĤ Ðµ
Ġgrat uit
Ġservi zi
Ġber eits
um e
ĠÑįÑĤ Ð¾ÑĤ
Ġse tti
I D
ÑģÐº Ð°Ð·
ãģŁ ãĤī
or f
å Ŀ
kt ue
jÄĻ cia
Ġlar ge
Ġeas y
æº Ģ
Ðº Ð¸Ð¹
Ġab ri
Ġav ons
ĠmÃ¶ glich
Ð°Ð½ Ñĭ
Ġc áºŃp
Ġstr ut
Ġn Ã¢ng
Ġza ch
ica Ã§Ã£o
Ġcour se
z ing
ĠÑĪ Ðº
ãģ¯ ãģªãģĦ
pp en
Ġap Ã³s
Ð¸ÑĩÐµÑģÐº Ð¸
äº ķ
Ġnum ero
Ġ ãģªãĤĵ
Ġar ticle
æĻĤ è¨Ī
Ġngh á»ĭ
ier z
Ġwid th
ĠN i
Ġa ir
osi zione
Ġcons ider
Ġåľ °
wi at
Ã¹ i
Ġg ente
enie m
Ġsu per
Ġout ro
Ġde utsch
ĠÐ² Ð¾Ð»
Ġso li
ãģ« å¯¾
ãģı ãĤīãģĦ
Ġãĥ Ĭ
ec u
ĠÐ·Ð° Ñī
f ect
Ġwsp Ã³ÅĤ
Ġre aliz
ãĤĴ è¡Į
ĠP as
m b
Ã¤ uf
ĠÑįÑĤ Ð¾Ð¹
Ġsu lle
æĿ ¡
Ñĥ ÑİÑĤ
tan to
Ġm eno
Ġmar gin
sch utz
æ Ĳ
cz one
åıĹ ãģĳ
Ġt ar
ãĥ¡ ãĥª
Ġmerc ado
Ġbe lie
Ġac or
Ġä¸ į
Ġd áº¡ng
ĠHo a
ãģ®å ¾
Ġhá»ĵ i
Ġk iáº¿m
Ġpro ject
Ġm ulher
Ġ. .
Ã¶ l
Ġmog Äħ
ĠD is
zza to
Ġs ei
Ġtem at
Ð¾Ð³ ÑĢÐ°ÑĦ
Ġm oney
Ġdi c
Æ°á» Ľi
Ġche ck
4 5
Ġcon te
Ġdod at
Ġwie le
Ġkh áº©u
ĠÐ¼ Ð°ÑĪ
ĠÄĲ Ã¢y
Ð½ Ð¸Ñħ
ÐµÐ³ Ð´Ð°
a cht
Ġp al
Ġpres so
Ġpers ona
Ġdies es
ãģĭ ãĤĭ
h me
so cia
é¤ ¨
Ġprim eira
Ġtro is
Ġam or
b et
res enta
Ġsit u
Ġorg anis
Ġcz ÅĤ
Ġï¼ ŀ
gra ph
è ¥¿
Ġgio v
Ġd Ã²ng
Ñĥ ÐµÑĤÑģÑı
Ġp is
ĠÐ½Ð° ÑħÐ¾Ð´
Ġnos sa
åŁ Ł
Ã©ra tion
Ġk obie
ãģĹ ãĤĥ
ĠÐ² Ð°Ñģ
Ġä¸ ī
ĠB áº¯c
å» º
Ġm Ã³wi
am t
é ľ
Ð¸ÑĤ ÐµÐ»Ð¸
Ġs Ã¢n
ãĥ³ãĥ ĳ
Ġtu a
8 9
Ġt our
Ġap ri
tto bre
Ġbes o
ä¸ĸ çķĮ
Ġa ver
ĠPor tu
ct ri
Ġspe cj
Ġe ben
Ġei ng
Ġpre mier
à³į à²
Ġprze ci
Ġdis c
Ġpre zzo
Ġcas e
Ġph á»§
ien s
w id
Ġatra vÃ©s
Ġæ ±
an ol
ĠS k
Ñĥ Ð¹
Ġsy st
Ġpho to
Ġjus qu
Ġpos t
ãģł ãģ¨
éł Ĥ
Ġcon ne
Ġg h
Ġh Ã´m
ĠãĤ ½
Ġof ten
Ġká» ĥ
Ð¸Ð¼ Ð¾ÑģÑĤÑĮ
Ð¾Ð´ Ð°ÑĢ
Ġequi po
I jo
st ra
åĳ ¨
qu Ã©
Ġp ay
Ã³ d
uo i
Ġdo c
Ġãģ Ĩ
n ku
mi ci
Z X
Ġè ³
Ġk to
Ð ¥
Ġmo y
vis i
ĠmoÅ¼ liwo
åŃ Ĺ
tt ura
Ġp ouvez
ck t
Ġt ai
ĠTh Ã¡ng
ÑĭÐ² Ð°ÑĤÑĮ
ĠH ome
ĠProd uk
Ġda bei
Ġb ro
Ġand ere
ãģĹãģ¦ ãģĦãģŁ
Ġf re
Ġesta ble
Ġno va
ĠB au
Ð¸ ÑĦ
__ __
ç¢º èªį
ĠS P
Ġwur den
Ġmil h
I O
ãģ¨ ãģĨ
Ġ9 0
ãģ® ä¸Ģ
Ġla ng
ck ie
Ġnh áºŃt
ai xo
bb lica
ĠB eit
ann t
Ġng á»§
ca ted
osi tion
un a
ĠD O
it re
ãĥļ ãĥ¼ãĤ¸
ĠÑĥ Ð¿ÑĢÐ°Ð²
Ð° ÑģÐº
ĠÐ¾Ð± ÑıÐ·
Ġsta te
Ġc ours
Ġl áº¡nh
ur anÃ§a
Ġg l
ato r
Ð¾Ð´ ÐµÑĢÐ¶
w ort
E L
Ġal ong
te les
ãģ¾ ãģŁ
Ġestu di
f Ã¼r
ess er
Ġra gaz
° ·
Ġse em
Ġest as
ãģĮ ãģªãģĦ
Ġu á»ĳng
ĠM Ã¡y
Ġæ ´
ĠTh Ã´ng
Ã¨ le
v vero
a ther
ãĥ© ãĥ³
ä¼ģ æ¥Ń
ĠÐ´ ÑĢ
Ġnas tÄĻp
Ġgi u
Ġri cor
ĠÐ´ ÐµÐº
ĠÐ¾Ð± Ð¾ÑĢ
Ġk os
fahr en
cz nym
k re
Ġhab ÃŃa
ĠK unden
Ã¡ nd
Ġproduit s
ĠA ber
åº §
ĠDe us
Ġs ide
ĠÃ Ł
Ġsu p
ĠL ong
æĶ ¿
cz es
Ġgra zie
ĠÑģÐ¾Ð¾ÑĤÐ²ÐµÑĤ ÑģÑĤÐ²
Ġsucc ess
ĠN ue
Ġj ul
ĠÄĳo áº¡n
K A
ĠÐ¿ÑĢÐ¾ ÑĪ
Ġlas sen
ĠdÃ© jÃł
ãĥį ãĥ«
ien za
Ġp df
ĠÐ¿Ð¾Ðº ÑĥÐ¿
ĠÐ¼Ð°ÑĤÐµÑĢÐ¸ Ð°Ð»
ĠSu jet
æı Ĳ
Ġc m
Ġse le
ĠÐ¼ Ð°ÑĢ
Ĭ Ģ
ĠÐ¿ÑĢ Ð¸Ñĩ
ĠÑģ Ð½
Ġnh Ã©
éł Ń
ãģ®å ¥
ĠÐ¼ ÐµÑģÑı
Ġn ar
Ã¨ o
Ġkosten los
u de
æĪ ¸
åĲĮ ãģĺ
el s
Ġt Ã©c
za cja
un cios
ÐµÑģÑĤÐ² Ð°
ï¼ ĸ
åı į
Ġwar en
Ġãĥ Ķ
ĠÑĥ Ð³
ho p
Ġh áº¯n
z w
ĠÄĳ au
Ġvez es
ãģ® ãĤ¢
ĠéĽ »
si c
ĠX xx
ĠÃ Ľ
Ġtech n
Ġä¸Ń åı¤
Ñĳ ÑĤ
Ġæ ¬
Ġg odzi
Ġb ring
ĠC os
Ġs ÃŃ
Ġsui te
u eil
ÑĥÐ»Ñı ÑĢ
ĠW hi
ĠBe wert
Ð¾Ñı Ñī
ĠÐ¶ Ð¸Ð·
ÑĢ Ð¸ÑĤ
Ãº m
ĳ ng
Ġwh e
ĠÐ°Ð²ÑĤÐ¾Ð¼ Ð¾Ð±
ÅĽ ni
Ġnh á»Ľ
ĠArb eits
ow is
Ñĥ Ð»Ð¸
Ġmed io
ĠPol s
ĠÐ¿Ð¾ ÑıÐ²
na io
pres enta
ĠÐºÐ¾Ð¼Ð¿ Ð°Ð½Ð¸Ð¸
tan ti
por te
s os
Ġæ ³
ĠTh Ã¡i
Ġmu d
Ġnas zy
Ġtro p
li ce
Ġv á»ĳn
éĿ ŀ
Ġun til
ĠÐ´ ÐµÐ²
Ġ" .
ĠH ier
Ġcos as
ĠçĽ ¸
Ġto gether
æķ ´
ĠS eite
ĠT y
en ces
Ġinve ce
au te
ci endo
Ġhtt ps
n ement
Ġqual che
Ġch áº¿t
Ġfun ction
b ung
ĠÄĳ Ã´ng
Ġfin al
ĠÑģÐ» ÑĥÐ¶
æ¡ Ī
ĠS Æ¡n
Ġh ombres
C A
áº© y
ĠÃ© cri
Ġn ich
Ð½ Ð¸Ñĩ
Ġãģ ¤
g ement
ĠU ma
Ġs áº»
Ġdo v
Ġ201 0
Ġg á»Ńi
çī Ī
ĠPl us
ĠÑĩ Ð¸Ñģ
ÑĭÐ² Ð°ÐµÑĤ
pod ar
3 2
Ġla w
ÐµÐ´ ÐµÑĢ
Ġre al
ag no
Ãĵ N
Ġb l
er ie
min istra
ĠÐºÐ¾Ð¼ Ð¿Ð»
cion ales
v ido
e x
ĠEs tado
Ġaw ay
st as
Ġb Ã¡c
Ð°Ð½ Ð¾
Ġn ame
Ġpo int
Ġcha que
Ġå ķĨåĵģ
Ġtem u
c le
Ġpossi ble
ĠF er
çĶ ³
ĠÐ½ Ð°Ð±
Ġd onne
cie tÃł
ĠÑģÐ»ÑĥÑĩÐ° Ðµ
Ġenf ants
Ġs ino
Ð°ÑĤÐµÐ»ÑĮ Ð½Ð¾
Ġsi gn
ĠÐ¶Ð¸Ð· Ð½Ð¸
1 æĹ¥
as ta
wy k
Ġd atos
ĠK ra
us h
ĠÐ·Ð°Ðº Ð¾Ð½
Ġdo p
Ġpou co
Ġwszyst ko
ĠÑĢ ÑĥÑģ
c ale
la ciÃ³n
Ġall er
Ġtut ta
ãģ®å Ĩ
Ġn ome
Ð¸Ð¼ ÐµÑĢ
Ġs om
ĠO ne
E T
n iÄĻ
ve au
pp ed
Ġb esch
Ġè¦ ĭ
Ð ¬
ei le
ãģ ¼
ï¼Ĳ ï¼Ĳ
Ġwh y
ĠMu jer
ian co
Ġi o
é Ł
Ġa llo
Ġfa ci
Ġson dern
Ġn atur
Ã£ n
ĠT est
Ġn aleÅ¼y
Ġãĥ «
Ġdi se
Ġa um
Ġä» ĸ
ng ono
éĸ¢ ä¿Ĥ
to res
u ale
ut es
ĠÄĳ Ã´i
w od
ãģĻãĤĭ ãģĵãģ¨ãģĮ
ĠO ut
Ġsoll te
ÑĢÐ° Ñħ
Ġde tail
Ð¸Ð² Ð°ÑĤÑĮ
Ġar ty
ãģ¨ ãģ®
Ġde v
ei ll
ĠF il
Ġz ei
oles c
ĠÐ» Ð¸ÑĪ
Ġm entre
Ġm Ã¡
b ir
s elf
........ ........
Ġmar s
p ara
ĠÐ¡ Ð¾
or ts
b G
Ġç ¥
ĠÃŃ ch
Ð¾Ð² Ð°Ñı
Ġor d
Ġt urn
ent as
ar da
Ġcomp te
Ġd uy
Ġn et
I i
Ń ¦
Ġresp on
p end
ÑĢÐ° ÑģÑĤ
ĠÄĳá» į
Ġex emp
Ġi ci
Ġs toria
Ġè £
åķı é¡Į
ĠQu esto
ĠÐ¿ÑĢ Ð¾Ñģ
ĠÐ¿ Ð¾Ð±
æİ ¥
Ġph Ã©p
Ġli ght
ç© ¶
v am
Ġ <
z ado
Ġti mes
Ġcommun ity
ÅĦst wa
f ra
è¾¼ ãģ¿
ĠÃ ļ
Ġ uffici
æī ķ
ĠÑģÐ² Ð¾Ð¹
ĠM Ã©
tri b
la ck
row adz
s ÅĤu
ãĤĪ ãģı
f a
ein s
Ġel ek
Ñĥ ÐºÑĤ
Ġindi vid
Ġg anh
ag es
C H
ĠæĬ ķç¨¿
Ġprod utos
za tion
Ġcor re
Ġsuo i
ĠÐķ Ð²
Ġth iá»ĩn
Ġra p
ĠÐºÐ¾Ð» Ð¸Ñĩ
Ġdo it
Ð¸Ð² Ð°ÐµÑĤ
Ð¿ Ð¸Ñģ
Ġpi ano
Ġch á»¯a
± æ¯Ľ
Ġph Ãºt
Ġper i
ĠS ur
b ia
u ÃŁ
f eito
Ġtr Ãªs
g et
Ġth ough
ĠF ar
ĠÐ¿ Ð¾Ð³
id ent
un to
Ã ŀ
z as
ĠÐ¾ Ð³
Ġinter es
Ġinter no
Ġa gua
om i
Ġng uy
Ġs d
Ġs Æ°
in ed
ĠÃ© c
na ta
Ġb Æ°á»Ľc
Ġer sten
Ġfil m
ĠCon tactos
ĠA ve
ÑĥÑĤ ÑĢ
ĠÐ³ Ð¾ÑĤÐ¾Ð²
Ġcre ate
rzÄħ dz
ĠS em
Ð §
ÐµÐ½ Ñģ
ĠmÃ¼s sen
éł ¼
Ġs or
Ġs ag
Ġpes quis
Ġn ature
è¦ ĸ
Ġcam bi
ãģłãģĳ ãģ§
ãĥª ãĥ¼ãĤº
Ġtr Ã¡i
ãĤ¢ ãĥĥãĥĹ
Ġpa ge
à² ¿
Ġdi vers
ãģ§ãģ¯ ãģªãģĦ
Ġrisp etto
ĠÃ °
ĠPar t
ten er
ĠJ an
ãģ« ãģĹãģ¦
ĠÐĲÐ» ÐµÐºÑģ
Ġ ï
Ġuns ere
Ġre alizza
Ð°Ð»ÑĮ Ð½Ð°Ñı
i gen
ig os
h ol
ĠT Ã¢y
Ġver dad
Ġæ Ķ
Ġparti ci
ĠV Ã¬
Ġdu as
Ġcos t
ĠkÃ¶n n
ed eral
ĠÑĥ Ð·
å¯ Ħ
ig i
Ġtuy áº¿n
Ġä»Ĭ åĽŀ
N A
ĠÐ¾Ð± ÐµÑģÐ¿
ĠÐ± Ð»Ð°Ð³
Ð°ÑĤ Ð¾Ð²
ĠrÃ© f
Ġes pa
ĠÑħ Ð°ÑĢÐ°ÐºÑĤÐµÑĢ
° ¡
o ch
us ch
Ġpor n
Ġservi Ã§os
u ten
Ġ08 15
Ġt áº§ng
ĠF a
Ġpro jeto
å½ ±
Ð¸Ñı Ñħ
åĩ ¦
ÐĿ Ðĺ
Ì£ c
ĠÑģÐ¾Ð± ÑģÑĤÐ²ÐµÐ½
ÑĢ ÑĭÑĤ
Ġha ving
Ġque d
Ġsta ti
cu ri
f ern
Ġsa voir
00 åĨĨ
Ġzur Ã¼ck
ma to
k lich
Ġcono cer
Ġi ma
ĠÑģÑĤ Ð¾Ð»
ci dade
cia lly
ĠÑĥ Ð±
ĠX u
zion ali
Ġattra verso
ãĥ ¦
z ÄĻ
Ġnh i
Ġnouve lle
Ġcz erw
Ð» ÐµÐº
wa nd
Å¼ ej
ãģĮ åĩº
Ġacor do
Ð³ Ð°
Ġ Æ°u
w Ã¤
Ġau th
éĢ ±
ĠÑĢÐ°Ð· Ð»Ð¸Ñĩ
Ġç ľ
Ġpod czas
åı ĭ
ka cji
Ġalcun i
Ġvo it
ãģ ľ
ä¸Ĭ ãģĮ
Â Ń
åĲ «
ãģĬ ãĤĬ
ãĥ©ãĤ¤ ãĥ³
Ġtá» ĭ
ĠE lle
tÃ© e
Ġbis o
Ġcom ment
Ġcon stru
d ia
Ġconse gu
Ð» Ð°Ð¼
ÐµÐ¼ Ð¾Ð½ÑĤ
al noÅĽci
Ġh Ã´tel
Ġå ģ
Ġb onne
Ġm Ã´n
r um
Ġem pre
ĠN or
ab les
Ġqu alidade
æ³ ģ
ãĥĿ ãĤ¤ãĥ³ãĥĪ
ĠÂ £Â
ĠDE L
ĠÐ½ Ð¾Ð¼
Ġsz k
titu i
Ġw ol
c ka
ÑĨÐ¸ Ð¿
Ġden n
Ġri chi
is tenza
I j
Ġf ol
ç Ĩ
Ġcor so
éļ İ
Ð¸ÑĤ Ð°
Ġgen er
Ġparti cu
ont os
Ġmod e
åĽ £
os to
ĠÐł Ñ
Ġch iá»ģu
t ent
s y
ç ĸ
al nych
Ġincl ude
Ġs ÅĤu
Ġkom mt
hl t
Ġmill ones
ĠP A
Ġè ī
om oÅĽci
Ġprzypad ku
jour d
ch at
ĠD od
Ġï¼ ł
å® Į
Ð¾Ð´ Ñĭ
ert as
Ġæ ²
Ġm Ã¹a
Ġ08 1
Ġentrepri se
ÐµÑĤ ÑĢ
Ġgrou p
Ġaus ge
Ġkom men
Ġex emple
Ġx anh
an ni
Ġje ÅĽli
Ġ6 0
Ġtu áº§n
ta da
bb ra
Ġpel os
Ġcom mer
âĢ¦âĢ¦ âĢ¦âĢ¦
ĠÐºÐ¾Ð½ ÑĤÑĢ
Ġpeu vent
Ġl is
â Ĺ
ĠÐ¼ Ð¾ÑĢ
ãģĭ ãĤĤãģĹãĤĮ
ĠC er
Ġse p
pp a
è Į
Ã© li
Ġass ur
âĶ ģ
Ġv eces
Ġfal se
Ġczy li
Ġto tal
åģ ´
Ġri n
Ġwork s
9 3
Ġv Ã²ng
M A
á»ĭ p
si cher
ĠÐº Ð°Ð¼
ÑĥÐ½ Ðº
Ġãĥ ¦
Ġç ¬ĳ
ure zza
ti mm
Ġdes c
ĠV al
Ġbamb ini
C O
ĠÑģ ÑĥÐ¼
ec ie
Ġç ¨
Ġs ue
ĠWas ser
Ġk ind
è© ķ
Ġby ÅĤa
om ini
Ġ uy
Ġh Ã²a
Ġren contre
ĠÑģ Ð¾ÑĤ
Ġf Ã©
ĠÄĳá»į c
çŁ ³
Ġdi n
Ð¸Ð»Ð¸ ÑģÑĮ
Ġth áº¯ng
ĠM Ã¡s
ni cy
ÑĥÐ· Ñĭ
ti do
Ġpas sa
Ġgiá» ĳng
Ġwy p
Ġpotrze b
ĠT ak
ĠcÃ³ mo
Ġde z
ãģ§ ãģ®
r ÃŃ
áº ¤
é£Ł ãģ¹
ĠMe hr
Ġagain st
C Z
ãĤ¯ ãĤ»
ÅĤ Ã³w
Ġj ug
Ġk aufen
ĠW a
nÄĻ trz
ãģı ãĤĮãĤĭ
ĠF emme
ÅĤo ÅĽci
Ġf unk
Ð¸Ðº Ðµ
Ġad emÃ¡s
ĠÑĥ Ð¿
Ġap lica
ĠÑį ÑĦÑĦ
Ġper fect
Ð°Ð» Ðµ
Ġch áº¡y
ÑĢÐ° Ñĩ
ÑıÑĤ ÑģÑı
Ġph Ã¡
den te
f o
æŀ ļ
ĠÐļ ÑĥÐ¿Ð¸ÑĤÑĮ
ĠE du
Ġf ond
ĠÐ¿ÑĢ Ð°ÐºÑĤ
Ġn em
rei se
ãĥĩ ãĥ«
il der
Ġsi m
ol tre
cz ego
Â ¡
łĶ ç©¶
i ge
Ġh omme
Ġdi jo
ãģ« ãģĭ
Ġd ados
Ġtro va
ĠC ON
Ġpre cios
Ġch Ãº
is mo
Ġesta do
ĠS tr
äºº ãģ¯
ĠE ng
Ġalgun os
to ut
Ġpri ce
si cht
ĠÐ½ÐµÑģÐº Ð¾Ð»ÑĮÐºÐ¾
Ġmat eri
ĠE L
ĠF all
Ġtr Ã²
as se
ĠÐ² Ð¾ÑĤ
å½ ¹
nd en
ĠG li
ĠÑģÐ¼ Ð¾ÑĤÑĢ
Ġn áº±m
ski m
Ġfo cus
ãģ£ãģ¦ ãĤĭ
ĠãĤ³ ãĥĶãĥ¼
Ġsamo chod
ver al
re dni
Ġm iÄĻdzy
C h
res se
tan tes
Ġla o
ĠÐ¡ Ð°Ð¼
ãĥ³ãĥ ĩ
Ġin ten
in nen
Ġpor ta
Ġngo áº¡i
Ġpub lic
Ð¸Ð½ Ð¾Ð²
Ġle tto
Ġmuch os
ãģ® ãģ¿
Ġcontr ol
om men
ĠG ran
emp io
çĹ ħ
Ġt us
lie ÃŁ
å¢ ĥ
ĠTr áº§n
Ġhe ute
st Ã¤nd
ĠÐ´Ðµ ÑıÑĤÐµÐ»ÑĮ
ĠÐ¿ÐµÑĢ ÐµÐ²
ĠÐ½Ð°Ð¿ ÑĢÐ°Ð²
ĠM od
Ġle gg
Ġca pi
ĠG em
va Ã§Ã£o
nis se
yste m
on u
Ð° ÑĨÐ¸Ñİ
Ġas k
Ġd one
ãĥ ¨
Ġsk ÅĤad
sz Äħ
z ug
Ġposs ÃŃvel
ĠJe ÅĽli
Ġhis toria
wer k
« ng
ÐµÐ» Ð¸Ñĩ
ĠÑĤ Ðµ
æĹ ©
Ġ) ;
Ġed u
ĠB uen
Ð½Ð°Ðº Ð¾Ð¼
Ġpro te
ĠA fter
Ð°ÑĤ Ðµ
Ð¾Ð½ Ð¾Ð²
ĠF ahr
Ġad v
Ġg us
pu esta
åĮ »
Ġter ri
ĠdÃ© f
ĠE UR
Ġprodo tto
ĠB Ã¡n
at ures
ĠÐ²Ñģ ÐµÐ³Ð´Ð°
ÐµÐ´ Ð¸Ð½
Ġmiejs ce
Ġopp ort
ãģĭ ãģ«
Ġm Ã³n
Ġfi le
a ine
Ġimpor tante
Ġpas ado
Ġter m
Ġja ki
è °·
Ġlav or
Ġx Ã©t
Ġm ÄĻ
Ġver schieden
ĠâĹ ĭ
dzie l
ti en
ĠÑı Ð·Ñĭ
Ĵ °
Ð¸Ð·Ð½ ÐµÑģ
Ġa ca
Ġne uen
Ã© ro
Ġd rei
Ġprogram ma
ĠÑģ ÐºÐ°ÑĩÐ°ÑĤÑĮ
Ġbar dziej
un o
Ġpremi Ã¨re
Ġdi rei
è¼ ĥ
Ġa quÃŃ
ãĤ· ãĥ§ãĥ³
le gen
Ġk onn
Ġposi ble
Ġp ie
ĠB or
Ġju in
ĠC oun
Ġtr áº¯ng
Ġso pr
Ãºm ero
ĠÐ° Ð¿
un kt
Ġ ^
ģ m
ĠÐ´ Ð°Ð²
ĠÑĥ Ð¼
Ġk las
ãĥĽ ãĥĨãĥ«
u le
gl Äħ
ï¼ ī
ĠT in
ĠÑĤ Ð°Ð¼
ĠG ro
ic ÃŃ
Ġmak es
gl ÄĻd
Ġth Æ¡
ĠÐ°ÐºÑĤ Ð¸Ð²
Ġenjo y
Ġre cor
Ġresp ons
ĠB an
utsch ein
ÌĢ ng
Ġc res
ĠPro ble
Ġdzi aÅĤa
ĠczÄĻ ÅĽci
ĠÑģ Ð¸Ð»
Ġnas z
ĠTr Æ°á»Ŀng
æı ´
lich er
Ġseg undo
ãģª ãģĹ
ĠåĲįçĦ¡ãģĹ ãģķãĤĵ
ÐµÑĢ Ðº
ia ÅĤa
Ġa fin
ÃĦ Ãª
Ġcl assi
un ici
ĠÐ¿ ÑĥÑĤ
ĠG od
æ¥Ń èĢħ
åº ľ
Ġempres as
Ġsu ll
Ġç ¶
ang e
rÃ³ Å¼
Ġpub li
ĠÑĢ Ð¾ÑģÑģ
Ġte ach
Ã¨ ne
zi om
ĠÐ¿ÑĢÐ¾ÑĦ ÐµÑģÑģ
ĠÄĳÃ³ ng
Ġprodu ct
ZI ONE
Ġmad uras
Ã ¾
Ð¸Ñģ Ñģ
Ġtr á»Ŀi
as sen
Ġgo vern
ie m
Ġv ar
Ġk ÃŃch
Ġz ona
I á»
Ġ, âĢĿ
Ġservi cio
ĠB Ãłi
is ter
Ð» ÐµÑĤ
qu il
Ġco ÅĽ
Ġæ Ģ
ĠÄĲ á»ĭ
uj emy
ÅĽ rÃ³d
Ġt reat
ĠÃĶ ng
w ay
era ciÃ³n
Ġh Ãºt
ĠD amen
Ġch á»ĵng
Ġå¹ ´
ĠP al
Ġn Ãłng
ãģĻ ãģİ
k lÃ¤
ãģı ãĤĬ
æ° ı
Ðº Ð°Ð½
ĠhistÃ³ ria
Ġv ou
ĠT ut
Ġdes cription
Ġho ch
Ġt al
ka li
ien st
é¡ Ķ
aix a
Ġb ig
Ġsetti m
ĠÐ§ ÑĤÐ¾
Ġso ft
ĠâĹ Ĩ
ĠSta nd
Ð°Ð¶Ð´ Ð°Ð½
æº ĸ
ĠprÃ©s ent
c Ã©
Ġpres idente
ä» »
ĠTh á»©
ĠCh Ãºng
Ġsc u
ĠÐ¾ÑĤÐ½Ð¾ ÑĪ
Ġre cu
ĠBund es
Ð´ Ð¶
Ð¸ÑĩÐµÑģÐº Ð°Ñı
ĠÐ¾Ðº Ð°Ð·
Ġinf atti
åĥ į
CI ON
Ġej emp
Ġc á»Ļng
Ġus o
olo gÃŃa
iá» ħ
ĠÃ© conom
Ġprom o
ĠÃ© l
Ġprzy go
Ġè ĭ
Ġre view
æ¶ Ī
Ġres te
ĠÑįÐº Ð¾Ð½Ð¾Ð¼
Ġof ici
Ġzro bi
ç ħ
æ¬ ²
Ġbec ome
ãĥ¼ãĥ Ģ
ĠãģĿ ãĤĵãģª
Ġth iáº¿u
ĠV N
ĠÑģÐ´ÐµÐ» Ð°ÑĤÑĮ
ĠO b
ç® Ĺ
t ki
Ġ3 1
Ġgrat ui
in ie
Ã£ y
vi ous
è¨ĺ äºĭ
cz nÄħ
Ġj an
Ġwszyst kich
Ã¡ veis
.. .
ãģ¤ ãĤĤ
ĠÐ¿ÑĢÐµÐ´ Ð¿ÑĢ
Ġsc or
ĠÐ±ÑĥÐ´ ÑĥÑĤ
Ġcer tain
Ġna pis
Ġprofes ion
Ġre mo
Ġnh iá»ĩt
å¤§ ãģį
ĠÐ± ÐµÐ»
Ġæ¥ ½
ta ndo
æ® ĭ
j emy
ĠH Ãłn
ĠÑģÐ¿Ðµ ÑĨÐ¸
Ġw om
åĬ¹ æŀľ
f ind
Ġle k
Ġå¤ ĸ
Ġob je
ĠÑģÐ» Ð¾Ð²
tÃŃcul o
Ġla nd
æĽ ¿
ãĤī ãĤĮãģŁ
Ġo t
ĠK l
o ÅĽÄĩ
Ġin ici
Ġpi Ã¨
Ġprog etto
ĠFo to
ĠB áº£n
éĽ ¢
éĻ º
Ã± as
Ġsem ana
Ġkil ka
Ġda zu
ĠÐºÑĢ ÐµÐ´Ð¸ÑĤ
ĠÑĥ ÐºÐ°Ð·
Ġu ten
è¦ ļ
ĠktÃ³ rzy
ti Ã¨re
ĠãģŁ ãģł
Ġdes te
Ġj es
Ġen ter
ç´ ¢
I L
ãĤĬ ãģĮ
Ġdos ta
ãĥ³ãĤŃ ãĥ³ãĤ°
ãģ®åł´ åĲĪ
Ġ( )
ll t
ka ÅĦ
åīį ãģ«
Ġth ing
ma is
ĠD urch
Ð½ ÐµÐ³Ð¾
ĠL iÃªn
Ġãģĵ ãģĵ
Ġle ft
Ġf emme
Ġmi lli
ĠÂ¡Â ¢
Ð¸Ð» Ð°ÑģÑĮ
Ã³ ria
Ġqu áºŃn
Ġm ia
Ġç ©
wi l
ãĥ³ãĤ »
c ono
Ġwy da
Ġsa ber
ÑĮ Ðµ
ãģĺãĤĥ ãģªãģĦ
Ġstr on
ãģł ãģĭãĤī
ãģĵ ãģĨ
Ġp yta
ĠÐºÐ¾ÑĤÐ¾ÑĢ Ð°Ñı
ãĥ¼ãĤ³ ãĥĶãĥ¼
ÐµÑĢ Ñģ
ce u
ï¼ ĺ
æł ¹
ĠH owever
atÃ¼r lich
Ð¸Ð» Ð¾
zi ale
Ġper Ã²
ĠÐľ Ð¸Ð½
Ġv áº»
Ġservi cios
è« ĸ
Ġm iaÅĤ
Ġs ci
K I
j ec
Ġe lla
Ġpos to
ven ir
ĠÑģÑĩ Ð¸ÑĤ
ĠT a
j ej
bbra io
ãģĪ ãģŁ
Ġme ans
Ë Ĩ
Ġsá»Ń a
Ġcle an
b ed
Ġw eil
ãĥ¼ãĥĨ ãĤ£
ent y
Ġbes ten
Ġni Ã±os
Ġl ist
ãģ£ ãģĭãĤĬ
ww w
å± ķ
ãĤĬ ãģ«
ĠÐŁÑĢ ÐµÐ´
ĠPh Ã²ng
9 5
Ġpe qu
Ð°Ð² ÑĪ
Ġm eine
os podar
å± Ģ
Ð¾Ð³ Ð¾Ð²Ð¾ÑĢ
Ġprod uto
Ġi gu
æĸ¹ ãģĮ
Ġmember s
ar ch
ct ure
Ġå¹ ³
ĠNgo Ãłi
é Ĥ
Ġl ei
ĠÐ²Ð½ Ð¸Ð¼
å¥½ ãģį
Ġn p
Ġstr ony
ÑģÐº Ð¾Ðµ
ani es
c are
Ġen ough
Ñħ ÑĢÐ°Ð½
it te
Ġg leich
ci tÃł
ĠktÃ³r ym
ĠÑģ Ð¾Ð´ÐµÑĢÐ¶
ĠÐ¿ Ð¾Ð¶
Ġåħ Ī
Ġeff et
Ġprze p
gen es
Ð¸Ð² ÑĪ
Ð½Ð°Ðº Ð¾
ÄĻ zy
Ġn ing
Ġproduc tos
Ġrecen sioni
ĠvÃł i
Ġkol or
é¡ĺ ãģĦ
ĠS ome
Ġtuy á»ĩt
ĠC ou
ĠT u
Ġn á»ģn
ãģ®å ŃĲ
m el
ĠÐºÐ¾ÑĤÐ¾ÑĢ ÑĭÑħ
Ġgra cias
Ġpro c
ct ura
ut ure
id s
Ġdom u
ĠÐ´ÑĢÑĥÐ³ Ð¸Ñħ
è²· åıĸ
ĠV iet
Ġb it
æĹ ı
to p
ĠR Ã¼ck
ĠSch ul
Ġdob rze
Ġo thers
ĠP H
ĠÄĳá»© ng
ĠAmer ic
ĠS E
Ġspiel en
2 3
ãĤĴ ãģĻãĤĭ
Ġcom es
ĠÑĤ ÑĥÑĢ
Ġs tro
³ ç´°
ne y
ĠAr t
Å¼ u
Ġkh Ã³a
is tas
Ġpre gun
ãĤ¶ ãĤ¤ãĥ³
ic s
Ġç¾ İ
ãģ¾ ãģ¾
Ð°ÑĤ ÐµÐ»ÐµÐ¹
Ġli ber
ä¸ İ
Ġs iamo
ĠN uo
Ġni vel
ãģĮ ãģĤãĤĬ
Ġkhá»ı i
ĠA g
æĢĿ ãģĦ
Ġmom ent
ch nik
Ġtech ni
ĠÑģÐº Ð¾ÑĢ
å¤ «
ÑĥÐ´ Ð°
Ġ á»§
ĠQu Ã©
Ġmet tre
ä¹ ³
Ġprop rie
Ã ·
ĠÐ¿ÑĢ ÐµÐ¿
ãĥ¼ ãģ®
Ġp ens
Ã´ le
ĠG rÃ¼
tif ica
è²· ãģĦ
Ġp ÅĤy
Ġvá» £
Ġbe k
Ġt Ã£o
Ġesta va
ç ª
es o
Ġf im
Ġ äººæ°Ĺ
ĠG l
g ÄĻ
an ze
ĠÐ· Ð°Ð³
ãģĭ ãģĳ
å½ĵ ãģ«
ĠÑĢÑĥÐ± Ð»ÐµÐ¹
Ġd entro
ĠÐ½ Ð°Ð²
Ġ= "
ãĤ¯ ãĥ©
ãĤĴ ãģĹãģ¦
ĠS am
Ġza pe
ĠCh Æ°Æ¡ng
Ġæ° Ĺ
è¶Ĭ ãģĹ
Ġo czy
æ ¢
for der
Ġdevelop ment
ĠÐ²Ñĭ Ð±Ð¾ÑĢ
çĽ¸ è«ĩ
ĠÐ· Ð°ÑĤ
ĠÑĦÐ¾ÑĤ Ð¾
åħ¥ ãĤĮ
ÐµÐ½ Ð½Ð°Ñı
Ġãģ© ãģĨ
ĠÐ¿ÑĢÐµÐ´ Ð»Ð¾Ð¶
ãĥĪ ãĥ©
ĠdÃ© ci
unici p
iá»ģ m
Ġac uer
Ġri gu
Ġãĥĸãĥ© ãĥ³ãĥī
ãģķãģĽ ãģ¦
ob y
Ġth Ã´i
Ð» Ð¸Ð½
ĠçĶ ·
Ġmá» ģm
e g
Ġsich er
Ġf und
Ġmi entras
ĠÑģ ÑĥÑīÐµÑģÑĤÐ²
tan ts
æ¨ ©
ti eren
ÐµÐº ÑģÑĤ
t ku
ĠGe b
Ġdies en
zi ona
Ġpor te
çĶŁ æ´»
Ġ0815 30
Ġre d
na tional
b ro
ĠÐ´ Ð¾ÑģÑĤÐ°Ð²
ĠS ono
Ġhab i
ed er
em u
Ġver so
Ġins ieme
Ġw in
Ġdes car
Ð¸Ð¼ Ð¾ÑģÑĤÐ¸
na hme
Ð¸ÑĨ Ñĭ
ÐµÑĢ Ñħ
Ġf am
Ġh áºŃu
Ġespe cial
Ġrapp resenta
Ġkho áº£n
ĠB ra
å¸ ¯
Ġser ie
tisch en
Ġ5 30
è· ¯
ãģ§ãģį ãģªãģĦ
Ð¾Ð± ÑĢÐ°Ð·
enh um
Ĺ ¤
Ð ¦
Ġmis e
Ġaj ud
ĠBer lin
ÐºÐ¸ Ñħ
ĠwÅĤa ÅĽci
ĠãĤ¢ ãĤ¤
Ġf lo
ä»ĺ ãģĳ
g Ã³
Ġs vol
re ady
ç¿ Ĵ
tiv es
ĠAve c
rei chen
ĠÐ² Ð¾Ñģ
Ġr od
c ola
b ud
ui llet
Ġto ol
Ġreali zar
Ġé£ Ł
ï¼ Ĺ
um a
ĠB Ã¼
Ġo cor
and er
ter y
Ġgi áº£n
ĠÐ¸ Ð´
Ġem bar
åĢ Ł
Ġk a
ĠÑģ ÐµÐ³Ð¾Ð´Ð½Ñı
ĠS ich
Ġespe ci
ãģ« ãģĤãĤĭ
ãģ® ãĤĪãģĨãģª
Ã¤hr end
li en
Ġm ind
en de
ãĤī ãģĹãģĦ
b al
di tion
ĠÐ´ ÐµÑĢ
U S
Ġæ İ
Ġ ä¿Ŀ
Ġæµ ·
n Ã©e
Ġt ow
k ry
h os
ard in
ĠÑĦ Ð¸Ð½
cto bre
ãĥĪ ãĥ¬
è» ½
ĠãģĵãĤĮ ãģ¯
att utto
Ġå ŃĲ
ĠTh iÃªn
ĠÑģÐ°Ð¹ÑĤ Ðµ
Ġann Ã©es
tan za
ce ption
Ð°Ð» Ð°ÑģÑĮ
t ych
ï¼ Ł
æĢ ¥
Ġti to
Ġb ody
Ã£ os
ãĤ¸ ãĤ§
æĬ Ģ
Ġsp ace
c ent
ÑģÑĤÑĢÑĥ Ðº
g al
Ġre co
Ġph á»ĳi
ei ght
Ġk Ã©o
Ð°Ð± Ð¾Ñĩ
å´ İ
ĠÐ½ ÐµÐ²
Ġk r
ĠA L
tem bre
Ġexemp lo
Ã¼n s
wa li
ĠJ est
ĠÐł Ð¤
Ġãĥĸãĥ© ãĥĥãĤ¯
ãģĵ ãģ¡ãĤī
Ġcome Ã§
ĠÐ¿Ð¾Ð´ Ð´ÐµÑĢÐ¶
Ġann unci
Ġle p
Ġpos ta
Ġpel ÃŃcul
ti no
und er
v Ã©e
ĠInforma tionen
ĠÐ¼ Ð¾Ð¼
kow y
ni enia
è¦ ª
Ġc Æ°á»Ŀi
er gy
Ġou ver
Ġg hi
Ġse veral
ĠÐ² Ð°Ð¶
ĠÐ¼ Ð¼
Ġcos tr
å¤§ åŃ¦
ĠR os
at u
Ġæ¥ Ń
Ġgi Ã¡c
ou th
Ġcas ino
2 00
Ġpl a
Ġc Æ°á»£c
ãĤĵ ãģ©
Ġm ulti
ĠÄĳ Ã¡p
ãĤĴ ãģĶ
cze ÅĦ
ĠNa cional
ri ch
o y
Ġes empio
Ġd áº§u
Ġac ross
ĠÐ´ÐµÑĤ ÐµÐ¹
ch io
Ġpre ced
ÐºÐ¾Ð² Ð¾Ð´
Ġent Ã£o
Ĭ ±
Ġdes e
åĨ į
åį °
Ġle y
gli ere
ĠIn s
çķ °
Ġch áº³ng
ĠÐĶ Ð¶
ĠUni vers
Ġcomp e
Ġczas u
Ġval ue
â ĸ
sze go
szta ÅĤ
ãĥŃ ãĥ³
par t
l ais
jÄħce go
ĠR ec
Ġsein er
ĠÐ¼ Ð¾
Ġes ter
é¦ ¬
ĠÐ²Ñģ ÐµÐ¼
l ay
ĠCh aussures
åĽ ²
Ġk siÄħÅ¼
Ð¾ÑĢ Ð¸Ñı
ĠÐ²Ðº Ð»ÑİÑĩ
ci tÃ©
ĠN r
ar do
Ġå½ ¼
Ġo trzym
Ġnos tri
Ġt able
Ġsal ud
h b
Ġparticol are
ĠÐ² ÐµÑī
ãĥ¼ãĥĸ ãĥ«
ĠÐ¾Ð±ÐµÑģÐ¿ ÐµÑĩ
Ġ4 5
ĠHo ch
¿Ģ å®ī
ĠgÃ³ p
Åº dzi
Ġapp ear
ä¹ ħ
z enie
Ġjo go
Ġal ready
cul ar
ÐµÑĢ ÐµÐ´
ala v
Ġt eraz
un ch
ĠÃ© p
ie f
ĠSp ort
Ġme glio
ant os
Ġdifer entes
çµĲ æŀľ
t nie
ali tÃ¤t
æĻĤ ãģ«
ĠÑĨ ÐµÐ»
Ġzaw sze
WW W
o ve
ãģ® ãģĤãĤĭ
Ġ$ (
Ġm Ãº
Þ§ Þ
ĠI mp
Ġl uo
Ġnh áº¡c
ab ly
Ġsh ort
çĻ» éĮ²
E I
ÃĲ ÃĲ
ĠP utas
Å¼e li
æĺ ł
Ġrze czy
fol g
Ġopini ones
Ġ) {
Ġch Ãºt
ĠÐ¼ Ð»
ĠÐ» Ð¸Ñĩ
ĠãĤ¯ ãĥŃ
Ġseg Ãºn
Ð¸ÑĨ Ð°
Ġinves tig
ĠM ej
ãģ£ãģŁ ãĤĬ
Ġt Ã´
Ġzaw od
ãĤĬ ãģŁãģĦ
ĠÐ´Ð¾ÑģÑĤ ÑĥÐ¿
ĠUni versity
Ġp urch
ĠÐ²Ð¾Ð· Ð´
i ones
Ġãģ ¿
ĠN H
Ġw al
ãĥĭ ãĥĥãĤ¯
lish ed
ĠÐ¿Ð¾Ð»ÑĮÐ· Ð¾Ð²
TI ON
ï¼ ļ
ĠG en
b es
ï¼ Ļ
Ġques te
âĢ ľ
é£ ²
çµĮ é¨ĵ
Ġsu áº¥t
Ġtr ai
éĥ¨ åĪĨ
ª å¼ı
ĠÐ²ÑĭÐ¿ Ð¾Ð»Ð½
ãģĮ ãģĤ
°¡ åįĺ
Ġmer cato
æĹ¥ ãģ®
ãĥª ãĤ¹
á»£ i
Ġens emble
ni os
ãĤĦãģĻ ãģĦ
èĪ Ĺ
Ġtá»ĭ ch
ĠG ar
che ter
Ġdzi ÄĻki
ra ge
ãģ®å ī
Ġlive llo
Ġngh iÃªn
Ġe ver
æ² ¢
æİ ¢
Ð¾Ð»Ð½ Ð¸ÑĤÐµÐ»ÑĮ
ãģ®æ Ħ
Ġl ado
Ġãģ »
Ġde ber
Ġimp res
c cio
ĠL Ãª
ĠÑĢ Ð°ÑģÑĤ
ser va
Ġf ica
ur ther
ga tion
Ġg as
st s
ãģ© ãĤĤ
rie ur
Ġus u
Ã¤ ÃŁ
d ung
Ġm áº¡i
ĠnÃ³ ng
Ġf l
Ġï¼ ĵ
æ¸ ©
é ī
çĲ ĥ
Ġlle gar
ĠÐľ Ð°ÑĢ
Ġpoz osta
Ġliv ro
Ġbuen a
è¿ ½
ĠÅ¼e by
Ġb lei
Ġma j
Ġæ ¨
Ġpo ziom
Ð¾Ð² Ð¾Ð³Ð¾
di mento
Ġsh are
Ġzak res
ĠÐ¸Ð½ Ð´
ĠV on
ĠL E
s ement
Ġmuch as
ĠÑĤ ÑĢÑĥÐ´
Ġkre dy
tu a
gr ani
ãĤ¢ ãĥĹãĥª
ĠV Ãł
èĪ ¬
Ġ3 5
Ġra nge
en da
od ice
ĠÐ½Ð°Ð» Ð¸Ñĩ
Ġc Ã¢n
ãģĦ ãĤį
Ġsa Ãºde
rÃ¼ h
ĠCas ino
Ġ ÅĽci
Ġb ajo
kie go
w u
ĠCh ÃŃ
li Ã¨re
ck ing
Ġãĥ ļ
Ġcl ass
ĠT em
ĠÐ³ Ð¾Ð»
Ġni veau
Ġnas ze
ĠA c
Ġha cia
Ð°ÑĢÐ¸ Ð°Ð½ÑĤ
Ġn esta
Ġri en
Ð¾Ñĩ ÐºÐ¸
Ġste ht
Ġty pe
Ð»Ñİ Ð´
ãĥ ¶
ab ri
ĠÐ» Ð¸Ð±Ð¾
z eich
ãģĦ ãģĳ
Ġthu áºŃn
Ġques tion
Ġzak u
Ġne go
Ġma ggio
Ġget ting
Ð°Ð· Ð´
oba cz
Ð¾Ð³Ð» Ð°Ñģ
ĠÑĢÐ°Ð· Ð¼ÐµÑĢ
Ã³ i
Ġsimp les
ĠB esch
ĠTh áº¿
Ġne gli
Ġnuest ros
Ġtr ouver
Ġh t
ãĤı ãĤĮãģ¦
éĢļ è²©
Ġu wa
d is
Ġwi nd
ĠhÃ£ ng
Ġprac ow
Ð¾Ð¼ Ðµ
Ġal ter
ĠA lle
ĠPh Ãº
Ġspe cial
Ġç§ģ ãģ¯
H o
r er
ctor s
Ġtr y
ĠÐ¼ÐµÐ¶Ð´ Ñĥ
men o
Ġmigli or
bi anas
ĠS ol
Ġsopr attutto
Ġf uture
Ġd z
Ġé ĥ
Ġmiesz k
Ġè Ĥ
Ġfir my
Ð°ÑĤ ÑĥÑĢ
ĠÐ½ Ð¾ÑĢÐ¼
Ġconta ct
ãĥĻ ãĥ«
s u
tac to
at te
Ġcom paÃ±
Ġperson al
c om
Ġt as
ĠP rz
ĠÐ¿Ð» Ð°ÑĤ
ĠÐ² ÐµÑģ
vri er
ãĥ³ãĥ Ħ
Ġjue gos
Ġse ason
Ġproces o
Ãģ Ãĭ
Ġcoun try
ĠP ER
V A
Ġra is
ĠÑģÐ¿Ðµ ÑĨÐ¸Ð°Ð»ÑĮ
m F
ĠÐ¿ÑĢÐ¾Ð² Ð¾Ð´
2 6
Ġcomp ar
, \"
ãģĬ ãĤĬãģ¾ãģĻ
Ġtrze ba
Ġnh Ã³m
å¸ °
Ġsto ry
Ġay ud
Ġb ed
ĠMÃ© xico
ĠÑģÐ¿ Ð¾ÑĢÑĤ
ĠÐ¿ÑĢÐ¾Ð² ÐµÐ´
ĠåĨ ħ
Ġunser er
ĠÑĤ Ð¸Ð¿
ĠÐ½ÐµÐ¾Ð±ÑħÐ¾Ð´Ð¸Ð¼ Ð¾
Ġ3 9
x to
ĠY our
Ġaf ir
ĠÑĢÐµÐ± ÐµÐ½
ÑĢ Ð¸Ð¼ÐµÑĢ
ĠT áº¡i
ĠÄĳ Ãªm
ĠThem a
2 9
Ġa si
te g
er y
od en
å± Ĭ
sta nd
Ġnavi gation
ĠÐ¿ Ð¾ÑģÑĤÐ°Ð²
Ġcall ed
Ġv ir
Ġme an
c ÃŃa
osi Ã§Ã£o
ãĤī ãģ«
âĶģ âĶģ
Ġng Ã¢n
ĠK ol
im mer
ĠnÃ³ s
Ġob ec
Ð¾ÑĢ Ñĭ
ĠÐ¶ÐµÐ½ Ñī
æĽ ²
Ġt uyá»ĥn
f l
Ġqui ck
è² ł
Ñĳ Ð½
Ġoff ers
Ġç ģ
Ġm ÅĤod
Ġqu o
Ġqu ay
ĠÐ²ÑĢÐµÐ¼ ÐµÐ½Ð¸
Ġinter na
Ġincont ri
å¡ Ĺ
Ġn este
Ġbe low
ist Ãªncia
Ġco lla
Ġroz po
b bero
curi tÃ©
Ġk ÃŃnh
ĠM ay
Ãª Ì£
ĠÑĥ ÑģÐ¿
Ð°Ð½ Ð¸Ñİ
Ð¸Ð» Ð¾ÑģÑĮ
ãģ§ãģĹãĤĩãģĨ ãģĭ
Ġcu isine
ĠR E
a th
ll ig
Ġcomp anies
Ġgi áº¥y
éł ĥ
ç· ¨
Ġvá» įng
ãģ®å ĩº
Ġpu es
vis ta
ç Ī
ĠÐ³ Ð°ÑĢ
ĠG eld
ÐµÑĢ Ð½
Ġproble m
ĠwÃ¼r de
Ð² Ð¸Ð¶
it are
ne lle
Ġph áº£n
ä½¿ ãģĦ
Ġenvir on
ĠÐ´ Ð¾Ð²
Ġå¤ ©
ĠÑģÐ»ÐµÐ´ ÑĥÑİÑī
Ġacqu a
ue lle
th od
Ġpr endre
Ġgen eral
Ġde tta
ĠÑģÐµÐ± Ðµ
Ġan al
Ġdi st
Ġdo ing
ãĥ¯ ãĤ¤ãĥĪ
ĠM ai
m ment
Ð¾ÑĤ Ñĭ
Ġer h
st wa
g re
ub ro
ĠPols ce
½ ¢
j ects
Ġpre Ã§o
ãģ¾ ãģĹãģ¦
ĠB ou
Ġservi Ã§o
ĠÐ½ ÐµÐ±
ĠÐ² ÑģÑĤÑĢ
ĠÑĩÐµÐ»Ð¾Ð²ÐµÐº Ð°
Ġtro vare
Ġgru po
ĠH au
ãģª ãģĳãĤĮãģ°
Ġwir klich
ne k
t urn
ĠÐ¸Ð· Ð²ÐµÑģÑĤ
ãģ¾ ãģł
ĠãĤ¹ ãĤ¿
Ġok re
äºº ãģ®
Ġalgum as
Ġprofession nel
Ľ ¸
Ð¾Ð¿ Ð°Ñģ
ãģ§ ãģĬ
Ð»Ñı ÑĤÑĮ
ãģĻ ãģĲ
Ġli k
ÑĢ Ð°Ð¶
Ġpa ti
ĠCh á»ī
ĠR ic
glÄħ da
Ġvis i
Ġun i
Ġs Ã¢u
Ã¤ n
gi que
Ġc ole
j m
ĠÐ¶ Ð¸Ð·Ð½
on do
w es
pa ti
Ġdi r
èĢĥ ãģĪãģ¦
Ġver b
un ity
Ġ. âĢĿ
ĠÐ³ Ð°Ð·
Ġh uy
ĠÐ²Ð½ ÑĥÑĤÑĢ
ka za
Ġvol te
v io
Ġar ticolo
Ĭ ãģ³
ĠPh Ã¡p
ord ing
æ°Ĺ ãģĮ
Ġau cun
Ġs uf
ÑĥÑĤ Ð±
Ġenc ont
Ġstu dy
Ġnh áº¹
Ġv id
ãĥ³ãĤ¿ ãĥ¼
il fe
ĠÐ´Ð¾Ð¼ Ð°
gos to
å¤ ª
Ġlie u
al na
ĠÐºÐ¾Ð½ ÑĤ
Ġde ver
Ġæ ¸
Ġf ais
Ġa ura
ÑģÑĤ ÑĢÐ¾
ĠÑģÐ¾Ð² ÐµÑĢÑĪ
Ġni ght
Ġde mande
ĠÑģÐ» Ð¾Ð¶
Ġz god
Ġfil es
ãĥ¼ãĥ« ãĥī
Ġpreci sa
ÅĽ nia
Ġï½ ¥
po zy
ĠT R
ĠåĪ Ŀ
eit ura
Ġlle v
m io
ĠÐļÑĢ Ð°Ñģ
b u
Ġejemp lo
ãĥ ĺ
gen ce
ke hr
ĠrÃ©s ul
Ġpo ko
Ð¡ Ð
p as
Ġon ce
ĠB on
Ġcer ca
ĠB y
ĠÐ³ÑĢ Ð°Ð¶Ð´Ð°Ð½
Ġo ttobre
ĠPo li
Ġl á»Ļ
fi co
ĠT out
Ġåı £
Ġou ts
Ġter ra
ĠlÃŃ nea
ãĤģ ãģŁ
Ġlá» ħ
Ġkon ie
ĠÐºÐ°Ð· Ð¸Ð½Ð¾
æľ Ŀ
ĠT wo
ra to
Ġbene f
ĠH CM
ĠO ber
ĠQu áºŃn
ei ster
Ġre mp
Ġsi Ãªu
Ġcou p
Ġexp Ã©ri
ĠP res
Ã³ g
© ĭ
ãĥĬ ãĥ¼
Ġein mal
olo gie
ir d
ĠÐŁ ÐµÑĤ
ãĤ¢ ãĤ¤
ãĤĴ ä½ľ
äºĭ æ¥Ń
Ġmiejs c
osi ciÃ³n
ĠFra uen
v ie
Ġkh Äĥn
ĠArb eit
ĠD zie
Ġr ÄĻ
N E
ÑĥÑĤ ÑģÑĤÐ²
ãģ§ ãģĤ
un ft
åŁ İ
Ġschne ll
ĠÐ¢ ÑĢ
gr und
Ġsel on
o tros
Ġjan vier
ĠSt ar
ĠAl Ã©m
ĠÐ¿Ð¾Ð·Ð² Ð¾Ð»Ñı
æ¸ Ľ
ĠãĤĤ ãģĨ
Ġb á»ķ
Ġkn own
èĤ ī
Ġwiel u
pa gna
Ð°Ðº Ð¾Ð²
Ġcho ix
il a
ÃĶ Ãļ
ä¸ĭ ãģķãģĦ
ŀ į
ĠK inh
en z
for t
ese ll
Ġresul ts
Ð°Ð¹ Ð´
nd er
èĬ ±
ãĤ¹ãĥĨ ãĥł
ĠÐ¸Ð· Ð±
ĠwÅĤa ÅĽnie
Ġ. -
Ġd Ãłng
å£ ģ
un st
Ã§ on
Ġcom b
Ho tel
Ġmes i
Ġï¿½ï¿½ï¿½ï¿½ ï¿½ï¿½
Ð² ÐµÑĢÐ¶
Ġ200 9
Ġjed och
ĠÐ¿ÑĢ Ð¸Ñģ
si ones
ĠÑĢÑĭ Ð½
ab or
em o
ti re
Ġm aÅĤ
Ġm ong
Ġcho is
Ġn uit
Ġindust ry
m oni
or der
ĠÐ¼ Ð°ÑģÑģ
Ġke y
Ġgi ugno
Ġdoc um
Ġmaj or
Ġpare ja
tow y
Ġa ggior
Ġexam ple
owan iu
Ð¸ Ð»Ñı
Ð¾Ð» ÐµÐ²
Ġmes es
Ġp Ã¡g
ng th
Ð½ ÐµÐ¼
and a
Ġh Æ¡i
ĠÐ´ Ð¾Ð±Ð°Ð²
ĠÐ¾ÑĤÐºÑĢ ÑĭÑĤ
á» ¡
ãģłãģĳ ãģ©
g lie
ĠÑģÑĤ Ð°Ð²
Ġm Ãłn
ĠJu an
Ġri sch
Ġprz es
ĠÐ¸Ð¼Ðµ ÐµÑĤ
Ġjed no
ck ed
ĠÑģÑĤ Ð°Ð½
r al
ä¼ ¼
li ght
åľ Ł
ou ght
Ġkon ta
ĠÑģÑĢÐµÐ´ ÑģÑĤÐ²
éģķ ãģĦ
in ts
ĠÅĽ wie
ĠK ho
ta ins
Ġmie ux
Ġava li
æľ į
b io
Ġleg ge
ĠP ow
Ġse arch
Ä ĳ
Ġs ku
ĠÅĽ wiad
ĠT en
ĠÐ¿ÑĢÐµÐ´ Ð¾ÑģÑĤÐ°Ð²
ĠæŃ £
Ġf ield
Ġrela Ã§Ã£o
ci Äĩ
Ġs áº¡ch
Ġu rzÄħdz
ãģªãĤĵ ãģ¦
Ġmar zo
: .
qu anto
ãĤĬ ãģ®
Ġh ours
Ġdis f
s on
ÑĢ Ñĭ
å¤ ľ
ca ti
fall s
f ono
Ġin v
ÑĢ Ð°Ð´
Ġorig in
b 3
ãģ¹ ãģį
Ġmed ia
Ġznaj d
Ġbre ak
Ġpon ad
sta wi
Ġt Ãªm
Ġtr Ã¡ch
Ġv ari
ÃŃ cias
Ġæ¬ ¡
ĠÑģÐ² ÐµÑĤ
ÑĤÐ¾ Ñĩ
Ġf Ã¡
ĠG iá»
Ġngh á»ī
ĠÐ¸Ð³ÑĢ Ñĭ
ĠC Ã¡ch
Ð»ÐµÐ½ Ð¾
on ces
f ied
Ìģ i
ĠNg uyÃªn
zÄħ d
Ð°ÑĢ Ð°
li es
Ġbes onder
Y X
Ġsh i
Ġg ay
Ġrec om
Ġin vol
Ġsie bie
g ato
Ġf ont
Ġbo a
Ġcon fer
ãĥª ãĥ³ãĤ°
åį ´
Ġset tembre
ÑģÑĤÐ² Ðµ
Ð¾Ð² ÑĭÐ¹
åį Ĺ
vri r
Ġseg unda
g le
D I
ĠÑĦ ÑĥÐ½Ðº
Ñĩ Ð¸Ðº
Ġsic urezza
Ġembar go
Ġsy tua
Ġcas i
Ġlink s
ĠÐ¾ ÑĨÐµÐ½
ci Ã³
Ġre turn
ãĥĸ ãĥŃãĤ°
ĠM al
ĠH is
Ġse hen
ÐµÐ½ Ð½Ð¾ÑģÑĤÐ¸
Ġsp or
Ġproy ecto
c ki
Ġso cietÃł
Ġsa p
ĠÂ¡Â £Â
è¡¨ ç¤º
ĠÐ»ÑİÐ´ ÐµÐ¹
ï¼ ¡
ĠT ou
Ġper fec
4 8
Ġnuo vi
ĀĀĀĀĀĀĀĀ ĀĀĀĀĀĀĀĀ
ãĤ¦ ãĥ³
am ais
ãĤ ¾
ÐµÐ» Ð°
Ġall em
lla ge
ãĥį ãĥĥãĥĪ
ma tion
Ð½ Ñİ
ĠH ol
Ġc ity
is tro
Ġh iá»ĥm
Ġpe ÅĤ
Ġoff re
Ġç´ Ħ
ĠC l
Ġal bo
Ðŀ ÐĴ
ĠC ent
ãģŁ ãģı
zi n
áº ł
um mer
ĠCom ment
uc ciÃ³n
Ġpotre bbe
ĠÐ¡ Ð¾Ð²
ãĥĿ ãĥ¼ãĥĪ
ta zioni
ĠÐ¼Ð¸Ð½ ÑĥÑĤ
Ġ( '
Ã©n Ã©
ta mos
ĠÃ¡ gua
ãģĮ ãģĬ
å¤ī ãĤı
Ġv uel
Ġjed er
Ðº Ð¸Ðµ
om panh
ÑĭÐ² Ð°ÐµÑĤÑģÑı
od u
Ġpesso a
sch ein
Ġrec ommen
Ð¸ Ð¾Ð´
bo ok
Ġteng o
Ġht ml
Ġt end
ä½ľ åĵģ
Ġstr u
tif ul
ĠÐ¾ÑĤ Ð´ÐµÐ»
ĠÐ¿ÑĢÐ¾Ð´ ÑĥÐºÑĤ
ĠãģĿ ãģĵ
Ñĳ Ð¼
æĬ ľ
ĠÐ¾ Ð·
Ġp onie
t ter
Ġå¥³ æĢ§
le u
Ã¢ ce
Å¼ enia
ic are
x te
ĠB as
ĠE mp
ĠlÃ£ nh
b all
Ġch á»Ĺ
Ġmigli ori
Ġbra nd
Ġsa lle
y ba
Ġspo ÅĤe
Ġw od
z er
Ġj Äħ
Ġfir m
Ġtor n
ĠÐ± ÐµÑĢ
Ġci Ã²
Ġå¼ ķ
ĠÄĳá» ı
çĦ ¼
ĠH á»
kow a
tif ic
Ġre por
Ġle ast
u lly
ĠpÃºb lico
Ġd ol
ten ir
ĠÐŁÑĢ Ð¾
st wo
Ðº Ð»ÑİÑĩ
Ġcl os
au er
g Ã©
Ġï¼ į
åĭ Ł
èª¬ æĺİ
ara c
ĠÐ² Ð°ÑĢÐ¸Ð°Ð½ÑĤ
Ġde di
Ġc ad
ĠÐĳ ÐµÐ»
Ġsta mp
ĠÐ¿Ð¾Ð» Ð¾Ð¶
ãĥĥ ãĤŃ
Ġl anÃ§
Ġind ica
Ġur l
ĠV en
ĠÑģ ÐµÐ¹ÑĩÐ°Ñģ
ĠÐ· ÐµÐ¼
ĠW iel
ãĤ« ãĥ¼ãĥī
Ġ3 3
ec ted
Ġ Ã¡nh
ĠãĢį ãĢĮ
ĠN as
Ġp ad
Ġth áº¥p
Ġdirei to
ko ÅĽci
Ġutili zza
ĠP ue
ĠK osten
Ġjue go
Ġo tten
Å ļ
h eits
Ġt ÅĤ
Ġvis ta
Ġwi chtig
ĠÐ³Ð¾ÑģÑĥÐ´Ð°ÑĢ ÑģÑĤÐ²ÐµÐ½
ÐµÑĢ Ð²
ĠÐ± Ð¸Ð·Ð½ÐµÑģ
ti to
ÑģÐ¿ Ð¾ÑĢÑĤ
ĠAl s
æĶ ¹
cyj nych
ate g
Ġt alk
sch luss
ç¾ ©
ĠAd emÃ¡s
Ġå± ±
9 6
ĠÑģ ÐµÑĤ
Ġto i
ĠÐ°Ð² ÑĤ
Ġdro it
ÑģÑĤ ÑĥÐ¿
åı£ ãĤ³ãĥŁ
Ġfe atures
ï¼ ³
ĠC ali
ãģ®å °
ti cias
Ġfor ni
Ġmis ma
t schaft
ur en
Ġn Ãºmero
Ġf ut
ãĥĬ ãĥ«
ÃĬ Ãĩ
A T
Ġ' ,
Ġbie tet
Ġth iÃªn
Ġcu er
as tica
Ã¡ li
Ġre presenta
Ġs tri
Ġj ÄĻzy
mb H
Ġr am
un ta
Ġza wi
Ġper f
Ĵ° å¢ĥ
vi ent
ĠÑģÐ²Ð¾ ÐµÐ¹
ĠÑģÐ¾Ð² ÑĢÐµÐ¼
Ġr os
ĠÑģÐ¸ÑģÑĤÐµÐ¼ Ñĭ
ĠS il
Ġactu ally
Ġd Ã¢y
ĠÑĥ Ñģ
ĠProd ukt
Ġprzeci w
Ġè ¶
Ġdi men
un icÃŃ
ĠL an
enta l
ve z
Ã´ ni
en Ã§a
Ð»Ñı ÑİÑĤÑģÑı
ĠJ ue
Ġcustom ers
Ġw aÅ¼
ĠktÃ³re j
k te
k ro
Ġpossi bilitÃł
Â £
Ġre ma
ora zione
Ġbez pie
Ġstr um
ãĥ³ãĤ· ãĥ§ãĥ³
ĠÑĤ Ð¾Ð¶Ðµ
Ġ ðŁ
ĠÐº Ð¾Ð¶
Ġ á»ķ
Ġp an
Ġc ura
ĠÄĳ áº£o
enn t
ÃŃ t
I G
ust ra
Ġstar ted
æĴ ĥ
ĠN G
Ġpas t
ĠÐ½Ð°Ð´ Ð¾
Ġv elo
Ġtr Ã¡nh
ĠÐº Ð°Ð¿
Ã¡m ara
v on
Ġãĥ İ
Ġe con
Ġma cht
Ġ200 8
Ġgo verno
Ðł ÐĲ
ĠespaÃ± ol
ãĥ³ãĥ Ķ
Ġderni er
Ġmá» ¹
ĠLeben s
w orzy
Ġcu cina
Ġtr u
Ġmol ti
ta m
ãĤī ãģļ
Ġini zia
Ġha ber
ÌĢ n
ĠK u
ĠÞ ĩ
ri l
b ol
Ġro bi
åĩºä¼ļ ãģĦ
Ġmelh ores
Ġosta tni
Ð°Ð»ÑĮ Ð½Ð¾Ðµ
Ġnh áº±m
Ġstro ng
ãģ¾ ãģ¨
Ġf ak
Ġ ãģ£ãģ¦
Ġ áº¢
Ġa ktue
æľ «
se hen
D O
ĠWy ÅĽwiet
Ġesper ienza
Ġv ente
ĠâĢľ ,
owiÄħ z
Ġwo j
Ġsegu ridad
Ġdic embre
Ġca p
Ã©r ence
ĠÑĢ ÑĥÐº
ĠT ri
ĠãģĤ ãģªãģŁ
ãģ« ãģ¨
ãĤ² ãĥ¼ãĥł
min ar
Ġp endant
st Ã¼tz
Ð¿Ð¾Ð» Ð¾Ð¶
Ġcon tactos
c ÄĻ
å°ĳ ãģĹ
Ġok res
u ali
f rei
Ġap oy
Ġgen naio
ĠÐ´ Ð¾Ð³Ð¾Ð²Ð¾ÑĢ
Ġl inh
ÑĢ Ð¾Ð¼
scha fts
m aty
ti dad
be le
Ġpo ja
ĠC ri
ĠCh ar
stell ung
Ġmin utes
ÐµÑĩ Ð½Ð¾
ĠD en
ze k
Ġfriend s
Ã¨ m
Ġpe lle
ĠÄĳ Ãło
Ġk rÃ³
ĠJ os
Ġinforma tions
ÑĮ ÑİÑĤ
ĠrÃ©gi on
N O
Ġdi ce
Ġat tu
Ġposi ada
Ġce le
w em
Ġm usi
Ġre ason
Ġbuild ing
Ġem ail
l usi
Ġb lan
b or
ĠT Ã¢n
ĠÐĴ Ð°ÑĪ
Ġadd ress
Ġkh áº£o
Ġesta ba
ĠÐ½ÐµÐº Ð¾ÑĤÐ¾ÑĢ
Ġri con
Ã¤ng er
si mi
x im
ãĤ¹ãĤ¿ ãĥ¼
f Ã¤
Ġen ten
Ġapri le
ĠS anta
Ġregi Ã£o
Ġb order
\ /
Ġt Æ°á»Ľng
Ġven da
Ġfin ans
w al
ta les
Ġo ctobre
ĠÄĲ Ãł
vi lle
Ð¸ÑģÑĤÑĢÐ° ÑĨÐ¸Ð¸
ĠM ed
ĠNe u
Ġp m
pe ÅĤ
Ġl Ã¡
\\\\\\\\ \\\\\\\\
qu ad
ĠD A
asi on
in ing
ĠÐĺÐ½ ÑĤÐµÑĢ
ĠÐ¡ ÐºÐ°ÑĩÐ°ÑĤÑĮ
Ġç ¦ı
Ġ ÅĤa
ĠÐŁÑĢ Ð¾Ð´
Ġpo czÄħ
Ġevery thing
Ġmus ic
ĠPub licado
Ġtr zy
Ġdes nu
æ »
ĠÑį Ð½
Ġmo vi
Ġapp el
Ð Ń
Ġtechn ology
Ġg ros
ter a
Ġpou voir
Ġm Ã¡u
Ġar qui
Ð¸ ÑĨÐ¸Ð°Ð»ÑĮ
nd a
ĠG mbH
ĠÑĢ Ð°Ð½
ĠãĤ¢ ãĥ«
m us
Ġpa in
Ġp lease
Ġo lh
Ġin ne
Ġhis toire
Ġde in
ĠAn t
Ġcurr ent
Ġmilh Ãµes
ow s
Ġs are
ãĥĥ ãĤ«
kow ych
Ġk Ãª
wi ÅĽcie
Ñĩ ÐµÑĤ
Ġacuer do
r ad
ĠÑĢ ÐµÐ¶
à² ¾
ĠÐ¡ Ð²
Ġn ichts
Ġh áº¥p
ta te
Ġcha lle
Ã³ Åº
Ġgr ado
ªå¼ı ä¼ļç¤¾
ĠÐ¼ÐµÑģÑĤ Ð¾
kow o
Ġgrou pe
ec tos
Ġmu itos
Ð² Ð°ÑĤ
ĠÐ¸Ð¼ ÐµÐ½Ð½Ð¾
Ġfuer on
ĠÃ ²
ĠÑĤÐ°Ðº Ð¾Ð¹
Ġchá»ī nh
ĠCh Ã¢u
iáº¿ ng
ĠÅ¼y cia
et t
ĠÐºÐ²Ð°ÑĢÑĤ Ð¸ÑĢ
r ale
ç§ »
ãĥ© ãĥ³ãĤ¹
Ġer halten
Ġfiles _
ĠÐŀ ÑĢ
è¨Ģ ãģĨ
Ġde ta
ĠÐ¿ÑĢ Ð¸Ð´
Ġcie ka
ri st
zÄħ dz
ĠÐ³Ð¾ÑĢÐ¾Ð´ Ð°
éĥ ¡
Ð¸Ð»ÑĮ Ð½Ð¾
abili ty
Ġsep tembre
Ġj amais
ĠâĨ Ĵ
Ġtele f
Ġprz ej
è¾ º
ÄĻ dzi
Ð¸ÑĢÐ¾Ð²Ð°Ð½ Ð¸Ñı
Ġvrai ment
ĠÐ¿ Ð¾ÑĤÑĢÐµÐ±
x e
Ġan ci
Ġv endre
Ġbo is
ĠkaÅ¼ d
Ã© rÃ©
Ġm niej
ãģ® ãģł
Ġseg uranÃ§a
ãĥ© ãĥł
Ġdoes n
ci r
ci er
ous el
Ġmu itas
z es
Ġdonn Ã©es
Ġn Ã´ng
æĬ ŀ
ĠÐ°Ð² ÑĤÐ¾ÑĢ
Ð¾Ð´ Ðµ
Ġå¤ ļ
ul aÃ§Ã£o
v ida
ti os
g an
c ur
era us
Ð°ÑĢ Ð¾Ð²
Ġer ste
f eld
Ġå Ł
ub e
Ġdire tta
p io
Ġt áºŃn
ĠNo ir
re z
n ow
ĠD ar
ol f
ÐµÐ½ ÐµÑĢ
ãģĹãģŁ ãĤī
Ġlu dzi
ÑĨÐ¸ ÐµÐ¹
ĠÑģÑĤÐ¾ Ð¸ÑĤ
Ġinter ess
Ġex tra
Ġrela cion
Ð¸ÑĤ Ñĭ
ÐµÐ¼ Ð°
b l
Ġ ÅĤ
ãģį ãģ¦
ãĤª ãĥ³
Ġem pf
ves tis
Ġproble ma
ĠJ aneiro
Ġe llo
Ġam ore
Ð¸ ÐµÐ²
Ġsch Ã¶n
å· ®
Ġcam p
ÐµÑĪ ÑĮ
n es
Ġt Ã¹
scha ften
Ġby ÅĤy
Ġihr er
Ġqu asi
ĠS á»ĳ
Ġma ja
ctu bre
ãĤĦ ãģ£ãģ¦
ÐµÐ½ Ð½ÑĭÐ¼
ĠÑĤÐµÑĢ ÑĢÐ¸ÑĤ
Ġmanag ement
ÑĥÐ¶ Ð´
Ġåº Ĺ
osta do
Ġè Ħ
ãģ¸ ãģ®
ĠL ei
na ge
Ġdin ero
ĠSich er
Ġh u
Ġw ska
Ð¼ Ð¾ÑĤ
Ġwszyst kim
te li
r ut
uf f
ĠÐ²Ð¸Ð´Ðµ Ð¾
ĠB ed
Ġcit tad
á» ·
Ġh áº¡i
Ġm ess
Ġde mand
Ġar tigo
tor no
ti ert
ĠÐ¿ÑĢÐ¾Ð² ÐµÑĢ
å Ĥ¬
ĠTh á»Ŀi
zei gen
) )
Ġap ar
ĠåĲį åīį
ãĤĴ ãģ¤
Ġa bi
Ġni m
Ġr om
ĠPers on
Â ©
ĠÑģÐ²Ð¾ Ñİ
ãĤĭ ãģĵãģ¨ãģĮ
éĻĲ å®ļ
Ġsit ua
åĳ ½
ĠÐ¿ÑĢ Ð¾Ñĩ
Ġimp e
Ġab ove
å® ®
Ġï¼ī ãĢģ
Ġdesarro llo
Ġde ter
Ġu zy
Ġåħ ¥
ãĥ¼ãĤ¿ ãĥ¼
g ri
ãĥĸãĥ© ãĥ³ãĥī
Ġcontin ue
ĠPro je
uf t
ĠwÅĤ os
Ġh áº¡
czy n
Å¼ enie
eri or
Ġl uego
Ġnos sos
ĠD ire
ãĤ¸ ãĥ¥
Ġz usammen
Ġsyst Ã¨me
Ġlist _
Ġt áº·ng
Ġmonth s
ĠGesch Ã¤
ãĤĴ èªŃ
Ġdis so
Ġpe liculas
Ġpue des
ĠÐ² Ð¾ÑģÐ¿
Ð¾Ð¹ Ð´
Ġv it
ãģĭãģª ãĤĬ
M D
ĠÑģ Ñĭ
tow ej
ĠÐ·Ð´ ÐµÑģÑĮ
ĠN os
ĠS ul
ĠQu ando
Ð± Ð°
Ġ8 0
Ġt áº¥n
ĠP ed
ĠM ode
schie d
ĠF ederal
ĠCh am
tement s
Ġkh Ã¡m
Ġe lles
ãĥ¼ãĥ ĭ
ĠÐ¿Ð¾Ð» Ð¸ÑĤ
Ġth Æ°á»Łng
Ġdiver si
ãĥ« ãĥķ
Ġce ux
åĳ ¼
p ol
ire d
Ġout ra
Ġdoty czÄħ
tem bro
ĠÐĹ Ð°Ðº
Ġexperien cia
le urs
ro c
ãģ» ãģĨ
ĠÑĢÐµÐ³ Ð¸Ð¾Ð½
Ġj uillet
ĠÐĽ Ñİ
r Ã¡s
Ġnuo ve
Ġdid n
v ado
Ġch arac
Ġv Ã©ri
Ġch Ã³ng
ĠÐ¿ÑĢÐµÐ´ Ð»Ð°Ð³
ĠF in
ci ne
Ġin sp
Ġthá»§ y
ãĤĮ ãģªãģĦ
Ġpre zzi
g abe
Ð» Ñĭ
ĠÐ²Ñĭ Ð³
ÑĦ ÐµÑĢ
ĥ ħ
Ã©r er
h in
Ġch Äĥm
Ġigu al
w h
Ġor den
Ġè» Ĭ
ei gn
m ing
Ð°Ð» Ñı
Ġfor me
Ġn ic
åĽ ł
gg etti
ĠÐ½Ð°Ð· Ð²
di g
Ġtec n
ĠÐĴ Ð»Ð°Ð´
ĠW or
Ġs our
Ġthá» Ń
Ġde cy
ĠPh ong
p hi
Ġmiejs ca
p ond
Ġc áº£i
Ġm áºŃt
ÐµÐ½ Ð½Ð¾Ðµ
ant as
ãģªãģı ãģª
id era
y a
ĠQu áº£ng
Ġwel che
ãĥ¡ãĥª ãĤ«
Ġlu glio
Ġw all
ier ung
åİ »
Ġque lli
Ġh old
Ġdisp lay
ĠPh im
á»« a
Ġw alk
ĠF rank
Ð½Ð¾ Ñģ
Ġgar anti
ãģĹãģ¦ ãģ¿
çĶ¨ åĵģ
ĠÐ½ ÐµÐ³Ð¾
Ġm ini
Ġ] ,
Ġitali ano
r ado
Ð°ÑĢÑĤ Ð°
Ġprovid es
åĽ ³
ĠAmeric an
Ġme thod
Ġz at
Ġspra wie
di to
ĠÑĢÐ°Ñģ ÑģÐºÐ°Ð·
is tre
il o
Ġt inha
= =
ĠÐ½Ðµ Ñģ
ting s
ãģĨ ãģ¡
ĠÑģÐ¾ÑĤ ÑĢÑĥÐ´
ĠÐ¿ ÐµÑģ
ĠczÄĻ sto
Ġfa ct
Ã¶ ÃŁe
ĠÐ»ÑĥÑĩÑĪ Ðµ
R Z
Ġy et
ãģ® ãĤ³
ãĤĤ ãģ®ãģ§
Ġcle ar
es ten
cor t
ĠÐ¾Ð±Ð¾ÑĢ ÑĥÐ´
und i
ĠÃ© lÃ©
Ġb or
Ġa ma
Ð½ ÑĥÑĤÑĮ
Ġprof ess
ĠãĤ ı
Ð»Ð¸ Ð·
lau b
Ġfa ce
Ġgi ven
Ġcar ousel
ĠçĻ ½
Ġper ÃŃ
ÑģÐº Ðµ
p ed
Ġu dziaÅĤ
Ġlo ca
ĠÐºÐ°ÑĩÐµÑģÑĤÐ² Ðµ
ãģ®å¾ Į
el Ã©
Ġpri va
m 2
ç· Ĵ
ĠNg á»įc
Ġm ou
Ġre tr
CI ÃĵN
klÃ¤ r
Ġè ħ
Ġg á»Ĺ
å¹ ħ
Ġm ese
vin cia
Ġa ci
ĠÐ²Ñĭ ÑħÐ¾Ð´
Ãĸ ÃĲ
ers tell
ĠÐ½Ð°ÑģÑĤ Ð¾ÑıÑī
Ġa mici
à²¿ à²
ãģ£ãģŁ ãĤī
en nen
âĺ ħ
b as
Ġlie gt
Ġpod ob
ci Äħ
ĠÐ¼ Ð°Ñģ
ãģ® ãĤĪãģĨãģ«
ï¼ Į
Ġma ggi
ç¯ Ģ
æ ½
Ã® tre
ĠÐ·Ð°Ð² Ð¸Ñģ
Ġved ere
Ġnov embre
x a
ĠS el
iáº¿ p
ĠL eist
Ñģ ÑĭÐ»
cyj ny
Ġpeti te
A U
ĠPh Æ°Æ¡ng
Ġ8 5
ãĥ© ãĤ¤ãĥĪ
á»Ľ m
Ġcel ui
å¸¸ ãģ«
d ings
Ġmi llion
4 2
Ġre ach
ĠZ immer
an ego
Ġk iá»ĥu
w alt
ĠÐļ Ð¾ÑĢ
f s
áº· n
Ġar t
iá»ħ m
Ġf it
Ġth Ã¡i
Ġem ple
Ġcent re
Ġçģ «
æİ ²
Ġas eg
Ġfin an
Ġx áº£y
Ġpar l
å° İ
Ġsh ar
a je
C E
Ġtr uy
Ġb zw
nÄħ Äĩ
Ġwar un
Ġfin ish
Ġi mage
ĠB ilder
unicip al
ĠI de
ĠTr ans
ÑģÑĤ Ð°Ð½Ð¾Ð²
ĠCu ando
ãģį ãģŁãģĦ
ĠÐ¾Ñģ ÑĥÑīÐµÑģÑĤÐ²
è¨ ³
Ġhe ure
onn ement
Ġs an
we g
ĠH u
ÑĢ Ð°ÑĤÑĮ
Ġd áº¥u
Ġngh á»ģ
ĠK am
Ġmad rid
c ement
ti ma
Ġç Ł
Ð° ÑĦ
p ort
ur t
ãĥ¢ ãĥĩãĥ«
Ġen er
å½ ¼
Ð°ÑĤ ÐµÐ»Ð¸
usi k
Ġdesenvol vimento
Ġyou ng
ĠE nde
ÐµÐ½ Ð·
ĠÑģ Ð¸ÑĤÑĥ
ĠÐ²Ð¾Ð·Ð¼Ð¾Ð¶ Ð½Ð¾ÑģÑĤÑĮ
ĠÑģÐ²Ð¾ Ð¸
Ġn owo
Â ¬
Ġä¸ ĸ
Ġph i
Ġre le
f re
ĠprÃ© ci
ri as
Ġâ Ī
Ġal tra
ĠÃ©qui pe
Ġcab e
Ìģ n
ãģªãģı ãģ¦
Ġand er
Ġsi gni
Ġrec ono
r ent
ÑĤ Ñĭ
Ġi hn
Ġvis to
ĠÐ´ÐµÐ½ÑĮ Ð³Ð¸
Ð°ÐºÑģ Ð¸Ð¼
ãģ®å Ľ
Ġli p
Ġprofession al
Ġz es
Ġwon der
Ġaddi tion
Ġtrain ing
ĠCh e
å± ŀ
ãģĿãģĨ ãģ§ãģĻ
h eim
Ð°ÑĢ Ð¾Ð´
ï½ ¥
er ÃŃa
pt iembre
Ġjed y
Ġcur so
Ã Ľ
Ġques tions
ĠÐ´Ð² ÑĥÑħ
ĠÐ¿ÑĢ ÑıÐ¼
ãģ« åĩº
éĻ į
ç± ³
Ġnos otros
Ġth ought
Â¡Â £
Ġcomun ica
Ġç¥ ŀ
Ch Æ°Æ¡ng
Ġm Ã¡i
" ,"
ĠdÃ©c embre
Ġtr ud
Ġnew s
Ġãģ ²
p rÃ¤
Ġczas ie
ĠZ d
Ġä¸ ĭ
Ġodpowie dzi
u ÃŃ
Åºdzi er
Ð»ÐµÐ½ Ð¸Ð¸
t Äħ
ĠuÅ¼y tkow
Ġfin anzi
Ġz ami
Ð°Ð¶ Ð°
ud io
ĠÐĿ Ð°Ð¿
åıĤ åĬł
ĠC re
Ð¸ÑĢÐ¾Ð²Ð°Ð½ Ð¸Ðµ
U A
Ġk am
Ġd ale
Ġc ame
ĠM Ã¶glich
Ġobie tti
ĠK im
ĠÐ¾ ÑģÑĤÐ°Ð²
ĠJ Ã¡
cie dad
Ġap are
Ġs ound
Ġp iÄĻk
br ero
Ġmus ica
Ġf rei
ãĢ ĳ
Ġch or
ãĥģ ãĥ¥
Ð¸ÑģÑĤ ÑĢ
Ġm Ãªs
ĠÐ¿ÑĢÐ¾ÑĦÐµÑģÑģ Ð¸Ð¾Ð½
ej o
gen cia
Ġihr en
ĠÐ¼ Ð¾Ð»
Ġg ospodar
ĠB ad
Ġdire ct
Ġh ora
ĠH Ã¶
Ġch áº¥p
Ġvo yage
on ta
Ġde tto
la Ã§Ã£o
Ġl Æ°á»£t
Ġ3 2
l t
ĠÑĢÐ¾ÑģÑģ Ð¸Ð¹
uy e
Ġave va
ĠÐ» ÐµÑĩ
cz ni
Ġn Ã¤ch
ãĥĵ ãĥ¥ãĥ¼
ÐµÐ» Ð¸Ðº
ãĤĴæ Ħ
çŃ Ķ
an ej
sa ge
da p
Ġpal ab
ĠÐ½ ÐµÐ·
ĠY o
Ġwh ole
ç¥ Ŀ
Ġwp ÅĤy
ãģĵãģ¨ ãģ«
æ ©ĭ
ĠãĥĹ ãĥŃ
on di
Ġsi tio
Ġé ĺ
Ġne ar
bi nd
ĠW ind
çĹ ĩ
bar dziej
Ġno ta
Ġn á»ĳi
Ġd ort
ĠÐ´Ð² Ð°
ĠÐ¿Ð» Ð¾Ñī
åĨħ å®¹
O K
Ġprz et
tr Ã¤
ĠÐ¿Ð¾Ð² ÑĭÑĪ
Ġau jourd
ãĤ¤ ãĥ¬
Ġexp l
le t
Ġs ai
Ġv Ã©
ĠH Ã²a
Ġfami li
Ġkon k
Ġeff ective
Ð»Ñı Ð´
Ġweiter e
00 00
ĠB áº£o
d nia
Ġs tori
ĠÐ¾Ð± ÑĢÐ°ÑĤ
Ð¾ÑģÑĤ Ð¾
Ġs áº¡n
ĠMer ci
Ġsi ze
Ġen ergy
ãĥ³ãĥ ķ
Ġku rz
ĵ ģ
ĠÑĤÐ¾ÑĢ Ð³
is se
Ġfa vor
Ġcomple te
Ġiss ue
Ġh os
ĠãĤ¸ ãĥ£
ãĥ³ãĤ ³
Ġus ted
åĬ ©
ĠÐŁÑĢ Ð°Ð²
noÅĽci Äħ
Ġ ãģĹ
ãģ®æ ķ
tan ce
ĠPri x
Ġcois as
Ġbeso in
ĠB en
le ÅĦ
ĠGra zie
u jÄħc
Ġav ril
il t
á»¥ ng
Ġsp esso
åĩº ãģĹ
Ġrequire d
Ġn atÃ¼rlich
Ġth áº©m
çİ ī
Ġdire c
ĠSa Ãºde
ãĥ¡ ãĥ¼ãĥ«
Ġiss ues
au d
å°Ĥ éĸĢ
ĠÐĿ Ð¸Ðº
Ġsar anno
un es
ĠnÃ© cess
ĠÐ¤ ÐµÐ´ÐµÑĢ
Ġpropri a
ä¼ļ ãģĦ
ĠÑģÑĤÑĢÐ¾ Ð¸ÑĤÐµÐ»ÑĮ
ĠPu bblica
Ġj s
ãĥĲ ãĥĥãĤ¯
Ġt eil
ul es
å®¢ æ§ĺ
Ġtr ad
Ġlo cali
Ġvis it
Ä ĺ
Ð°ÐµÑĤ Ðµ
Ġgru ppo
ĠÑĪÐº Ð¾Ð»
vi lla
ĠrÃ© se
ĠÐ´ Ð°
Ġzosta ÅĤ
ĠÑĥÐ´ Ð¾Ð±
Ġprod uÃ§Ã£o
zy n
g ent
Ġcons eil
ĠU B
ĠÑĢÐ°Ð· Ð¼
ãĥĿ ãĥ¼ãĥĦ
ĠTe am
[ ]
åħ Ĳ
Ġall en
æĸ¹ ãģ¯
ĠM ont
led ge
Ġproper ty
ĠJos Ã©
Ġste hen
Ġbu á»ķi
Ġcon ver
Ð°Ð· Ñĥ
ch r
ic ol
Ð½Ñı Ñı
qu oi
ĠEs to
rie ben
gen tina
Ġs m
ĠK ri
pl atz
ç¯ ī
ĠK li
Ġ/ /
Ġho pe
s etz
à²¾ à²
tow ych
Ġm áº·c
Ġt Ã³c
ÅĦst wo
Ġmin uti
Ġf ato
Ġl Ä©nh
Ġsing le
ĠÐ² Ð¾Ð¹
ãĤī ãģĽ
ĠM ein
Ġa ide
Ġli cz
Ð°ÑİÑī Ð¸Ñħ
Ġc ena
w iÄĻk
Ġx uyÃªn
ĠJ uni
Ġse ttore
Ġm Ã£
ic iel
ras z
Ġl iá»ģn
æ©Ł èĥ½
ĠP ostado
ĠH iá»ĩn
ĠPol ski
Ġprzygo tow
g aÃ§Ã£o
Ġå ĳ
Ġfami lia
T ER
Ġp ontos
ĠÑĢÑĥ ÐºÐ¾Ð²Ð¾Ð´
áº ¾
Ð¾Ð² Ð°ÑĤÐµÐ»ÑĮ
ri er
Ġrapp ort
Ġfor ne
Ð¼Ð¾ÑĤÑĢ ÐµÑĤÑĮ
Ġsegu ito
Ġéĸ ¢
ia m
Ġdown load
Ġm áº¯c
ãģ£ãģ ±
ãĥ¼ãĤ ¶
et ro
ola zione
Ġperi od
ÃŃ cia
Ð¸ ÐµÐ¹
ĠÑįÑĤ Ð¸
ven tion
ÌĢ i
Ġini zi
ĠÐ´Ð¾ÑĢ Ð¾Ð³
ĠfÃ© vrier
ĠÑĤÐµÑħÐ½ Ð¾Ð»Ð¾Ð³
Ġc ra
ï¾ ŀ
Ð°Ð¹ÑĤ Ð¸
Ġex pres
ĠT ambiÃ©n
Ġd ys
Ġbeg in
b ach
ÐµÑĢ Ð¾
ĠGia ng
ĠrÃ©p ond
ĠÐ´ÑĢÑĥÐ³ Ð¸Ðµ
Ġfic ar
ĠN Äĥm
ĠI nd
Ġpho tos
ĠÄĳ em
C OM
c s
Ðº Ñģ
Ġare as
ĠPol ska
Ġsucc essi
Ġblo g
Ġpro grama
ĠM ann
Ġpod at
ÑĭÐ² Ð°ÑİÑĤ
á»Ļ n
ãĥ¼ãĤ °
gram m
Ġrela ciÃ³n
æĴ ®
ĠÐ·Ð´ Ð¾ÑĢÐ¾Ð²
Ð² Ð°
ÑĢ ÑĮ
ĠÑĢ ÐµÐ´
Ġex ten
Ġt iá»ĥu
Ġsein en
Ġgra ndi
Ġw eiÃŁ
Ġespa Ã§o
Ġbeau tiful
ĠÐ¼ Ð¾Ð»Ð¾Ð´
al f
Ġæ Į
ĠÐ¾Ð± ÑĭÑĩ
Ġcham bre
en en
ci da
vis iÃ³n
8 3
Ġsou vent
Ġosob y
Ġw atch
Ð¸ÑĤ Ð°ÑĤÑĮ
Ġal ta
éŁ ¿
Ġer o
Ġb ol
Ġl he
ãĥŀ ãĥĽ
ain es
ĠÐ¸Ñģ ÑģÐ»ÐµÐ´
Ġpubb lico
Ġge hÃ¶r
ĠR ed
ora ciÃ³n
ĠRe g
Ġfi ve
ĠWhi le
ĠÅĽ wia
rei ben
Ġmes ma
Ã¼n f
Ġsoci Ã©tÃ©
Ġperform ance
Ġm áº¥y
ĠÐłÐ¾ÑģÑģ Ð¸Ð¹
ĠJu li
ĠÐ¿Ð¾ ÑįÑĤÐ¾Ð¼Ñĥ
fer Ãªncia
ãĤĮ ãģ¾ãģĻ
Ġcos e
mo bili
Ġd anych
Ġfe bbraio
ĠR ou
Ġob ra
b uch
Ġdire kt
çĬ¶ æħĭ
one j
ĠGra cias
ub le
Ġcar te
éħ Ĵ
Ġscar pe
la uf
Ġn ess
ĭ äºº
mos t
Ġlo gos
Ġe arly
Ġjo g
Ġwhe ther
ĠTe le
Ġè² ·
ÐµÑĢ Ð¼
Ĵ æŃ©
ĠFran ces
v ento
Ġche g
Ġnota mment
ĠCas a
is tr
ar od
bi l
ĠB u
z el
ĠP rzed
Ġc áºŃu
ĠÃ©le ctri
ĠW szyst
ĠP lease
ĠÐµ Ð¼Ñĥ
Ġstrut tura
wa hl
pa gne
Ġè¿ Ķ
pa Ã§Ã£o
ãģ«ãģĬ ãģĦãģ¦
Ġger ade
æµ· éģĵ
Ġa di
ĠÐºÑĢ Ð¾Ð²
ĠXu Ã¢n
Ġgovern ment
Ġè µ
ĠKom ment
Ġcois a
åľ §
cep t
Ġr und
Ġd wa
u tions
v ement
ãģ¾ãģĽãĤĵ ãģĮ
Ġs tore
Ġperson ale
ĠÐ¿ÑĢÐ¾Ð´ Ð¾Ð»Ð¶
Ġun ique
anh o
wo hn
Ġjed en
er ci
ãĥĥ ãĥķ
Ġv ac
el ves
Ġc ard
Ñı Ñħ
Ġáº¢ nh
ĠWo chen
Ġac esso
ali zaÃ§Ã£o
N I
ĠP la
Ġwo hl
Ġgio co
ĠÐ¿ Ð¸ÑĤ
Ġr Ã¡p
to wa
Ġc Å©
Ġres s
r Ã³w
st Ã¼ck
ĠÐ¿ÑĢÐ¾ Ð¸Ñģ
ri es
ĠInter net
Ġque lle
Ġch áº¯n
ĠB r
ig keit
Ġwz glÄĻd
Ġta x
ĠÐ¸Ð³ ÑĢÐ¾Ð²
?? ??
ĠT Æ°
ta tions
æĽ ľ
ĠV is
Ġfami lle
Ġazien da
ene z
ãĤį ãĤĵ
ĠC entro
ch ie
ĠN ow
le tz
Ġãĥĩ ãĤ£
Ġna praw
Ġb agno
ãĥĭ ãĥ¥
ur ance
ĠÐ° Ð»
Ġap er
ĠÐ¿Ð¾Ð¼ Ð¾Ð³
ĠÂ² Â»
ĠãģĿãģ® ä»ĸ
Ñĩ ÐµÑģÐº
Ġæľ ª
Ġè² ¡å¸ĥ
Ġto ok
åĲĪ ãģĦ
Ð¾Ð½ Ñĥ
em a
ĠÑĢ Ð°Ð±Ð¾Ñĩ
Ð¡ Ðļ
Ġfollow ing
Ġhapp en
Ġan terior
Ġsimp le
on ym
au en
i esz
Ġide a
h rze
Ġs ays
T Y
Ġc ode
ĠK auf
ãģ®å¥ ³
ãģĪ ãģªãģĦ
ĠS om
Ġph a
Ġszczeg Ã³l
ĠÐ·Ð°Ð½ Ð¸Ð¼
atÃ³ rio
ĠsÃ© curitÃ©
ÑĢÐ°Ð½ Ð¸Ñĩ
Ġä» ķ
Ġrod za
Ġcam bio
Ñı Ð³
Ġos pi
Ġåİ Ł
ĠÄĲ Æ°á»Ŀng
Ġk ons
Ġdis tin
h as
Ġmay o
ci ale
Ġcomp rar
Ġmili oni
Ġph y
los sen
Ġsz kol
ãĤ· ãĥªãĥ¼ãĤº
Ñģ Ð¸Ñħ
éĢ Ķ
Ġx Ãºc
cz eniu
ĠÐ¼ ÑĥÐ·Ñĭ
ĠâĢ ł
Ġvo ll
ĠÐ½Ð°Ñĩ Ð¸Ð½
Ġlá» Ĺi
éħ ¸
Ġo kaz
8 5
å® ¿
b lo
ĠVo ir
Ġmin utos
ĠÃ ¹
Ġta ki
Ġespe cially
ĠÐ½ Ð°Ð³
Ġspeci fic
Ġnu Ã´i
Ġf urther
ĠÐ±ÐµÐ· Ð¾Ð¿Ð°Ñģ
on nen
cz nia
ĠÐĹ Ð°Ð¿
Ġåħ ¬
Ġap ren
Ġf emmes
ç łĶç©¶
æī ĵ
Ġng á»ĵi
c ych
or n
Ã¶ ÃŁ
ĠÄĳ u
Ġc iÄĻ
Ġfe e
ta is
Ġtr adi
Ġpro ced
ĠãĤµ ãĤ¤ãĤº
ci es
ĠK H
ĠF ach
å£ °
Ġtr ouve
im iento
ĠÐº ÑĥÐ»ÑĮÑĤ
ĠãĥĢ ãĤ¤
t ÄĻ
Ġs Ã©rie
Z G
ĠNo v
Ġ") ,
j on
ĠÐ¿ Ð°ÑĢÑĤ
ãģ® ãģŁãĤģ
Ġs á»Ľm
ÐµÐ» Ñİ
ĠÐ²Ñģ Ñĳ
ica lly
Ġli vre
feri mento
Ġvari ous
ĠÃ »
Ġativ idades
Ġqu anh
Ġta kich
Â ¥
Ġth Ãº
ure d
Ġfami glia
Ġfa v
Ġdo bre
Ġacc om
ãģĹãģ¾ ãģ£ãģŁ
Ġsz tu
ãģı ãģ¦
Ã£ este
w it
ti cia
ĠÑı Ð½
ĠJo hn
Ã³ vil
ÅĽ niej
ĠFe b
Ġf os
Ġæ ģ
ĠH ai
ÐµÐ½ ÐºÐ¾
Ġp ur
Ġequi pe
ĠÑĥ ÐºÑĢÐ°
ĠK á»³
Ġn ero
ans tal
ĠÐŀ Ð¿
ı a
Ġcomp u
ĠÑģÐ¾ ÑĨÐ¸Ð°Ð»ÑĮ
ãĥĥãĤ· ãĥ§ãĥ³
æ į
Ġcri anÃ§as
ĠvÃŃ de
ÐĿ Ðŀ
Ð¾Ð» ÐµÐµ
Ġãģĵ ãģ¡ãĤī
Ġth ai
ĠB lo
Ġcons um
res h
Ġnie j
Ġei ther
Ġnh á»Ŀ
Ġ Æ¡n
Ġp Ã©ri
Ġk ia
res o
ale ur
ten ant
Å¼y Äĩ
ĠÐŁÐ¾Ñģ Ð»Ðµ
ĠPL N
L O
Ġs uy
Ġro k
Ðł Ðŀ
å· ŀ
ĠFra ge
ĠÐ² Ð¼ÐµÑģÑĤ
ĠÃ ¾
Ġge ben
Ġc Æ°á»Ŀng
Ġcel u
Ġnun ca
Ġan ti
ĠC Ã´
Ġpare ce
ĠÐĵÐ»Ð°Ð² Ð½Ð°Ñı
ierz ch
Ġãĥ ´
Ġi nde
Ġ5 5
è Ĺ¤
Ġt á»ĳc
ĠM Ã¼n
Ġc ut
Ġ15 0
ĠÐ» Ð¸Ð½
ãĥĥ ãĥĶ
Ġå¤§ éĺª
j es
Ġfil me
Ġda fÃ¼r
ĠÑĥÐ² ÐµÐ»Ð¸Ñĩ
Ġng on
pp ia
Ġtem a
éĩĳ ãĤĴ
Ġm m
Ġsi l
Ð¾Ð· Ñı
Ġp amiÄĻ
ÄĻ dzie
ĠÅĽ wiet
ãģªãģ© ãģ®
Ġsu bito
ver eiro
Ġg ute
Ġsp ie
Â £Â
è ŀį
Ġproble mas
ĠÄĳ en
jÄħ ca
Ġpres ente
Ġb Ã¡nh
b ado
ĠN ouve
r endre
Ġäº Į
Ġne gÃ³
Ġd ara
Ð¾Ð¶ ÐµÑĤ
Ġsigni fica
Ð» Ñĥ
ni ct
Ġch á»¯
ĠÑģÑĩ ÐµÑĤ
ç· ı
ĠÐ´ÐµÑĢ ÐµÐ²
Ġng Ã´i
vo li
ãģĹ ãĤĪãģĨ
le j
Ġpow sta
Ġd áº¡y
ĠVers and
ĠK e
r anno
p ora
èµ °
Ġac ompanh
Ġno che
Ġten ho
lle urs
Äħ t
Ġh eight
Ġp alav
} ,
Ġli mi
Ġletz ten
Ġæ Ł
Ġnh a
ĠIl s
æİ Ľ
Ġam ministra
Ð¸ÑĩÐµÑģÐº Ð¾Ðµ
ĠS to
Ð°ÑĤ Ð¾ÑĩÐ½Ð¾
ãĥĩ ãĤ¶ãĤ¤ãĥ³
ĠÑĨ ÐµÐ½Ñĭ
Ġfu era
ç ¦ı
Ð½Ð¾ÑģÑĤ ÐµÐ¹
Ġsi Ã¨
Ġæ Ļ
Ġli ving
Ġda vvero
ãģĻ ãĤĮãģ°
ĠUS D
Ġesta bele
ku je
ĠÑħ Ð¾Ñĩ
Ġspo tk
ĠS hop
ĠÐ¼ÐµÑĤ Ð¾Ð´
ĠG arten
åĭķ çĶ£
Ġof ere
Ġh ar
è¶ ħ
cch ia
ãģ®å į
Ð» Ð°Ð½
ãģ¡ ãĤįãĤĵ
ĠB ri
Ġla ter
Ġcam po
Ġpad ding
re cht
Ð°ÑĢ Ñĭ
Å¼ li
vis Ã£o
char ger
Ð» Ð¾Ð½
ier ra
aÅĤ em
ĠÄĲ Äĥng
Ġpr Ã¨s
Ġlo g
ĠS and
Ġop is
Ġdesign ed
Ġm Ã£i
ĠÑģÐ¾ÑģÑĤ Ð¾ÑıÐ½
ĠH Ã£y
ï¼ £
ara k
Ġdiv enta
ı Ĳ
Ġ ung
p nia
ãģ® ãĥĲ
ãģ«ãģª ãĤĬ
wick lung
å¤ ±
p el
Ġå£ ²
Ð ĸ
ĠÐļ Ð¾Ð»
Ġk orzysta
ump li
ĠI ni
i mento
o f
l s
ÅĤ ada
Ġ9 9
ãģ®å ¯
ĠÐĹ Ð°
Ġforma tion
ur al
tÃ© is
ä½ľ æ¥Ń
ĠçĻ º
f ully
ĠSe p
Ġao Ã»t
Ġpres s
Ġprze pis
y er
Ġdisp on
Ġkl ein
Ð¾Ðº Ð¸
Ġm ano
Ġm id
ĠÐ½Ð° Ðº
mi co
Ġtak ing
ĠZ ap
Ġw Ã¤re
ä»¥ å¤ĸ
ÑĢ ÐµÐ¶Ð´
er es
Ðŀ Ðŀ
ĠÐ² Ð¿
ĠA h
Ġth ao
Ð¾Ð½ Ð´
Ġãģ¾ ãģļ
ĠN utz
Ġulti mo
Ġeng ine
ĠÃª tes
ĠãĥĹ ãĥ¬
sI m
Ġde al
ãģĭ ãģªãģĦ
Ġo il
Ġpoz w
tig t
çİ ĭ
Ġne u
ĠÑģ Ð¸Ð¼
ym ent
Ġcli entes
cion ar
Ġæ Ĥ
ãģ§ãģĻ ãģĭ
ĠÐĹ Ð´
tÃ© rio
ĠÐ¼ ÐµÑĢ
in y
åŃ¦ æł¡
ĠãĤ ®
Ġre l
Ġlib ro
Ġpon to
z ja
Ġtem por
ĠÐ¼Ð°Ð³Ð°Ð· Ð¸Ð½
Ì£ i
çĶ· æĢ§
ĠWarsza wa
Ġng á»Ŀ
Ġjun io
ĠGio v
Ġwi ad
un idad
ĠÑĢ ÐµÐ¼Ð¾Ð½ÑĤ
Ġus ar
å ©
Ġappro ach
Ġei nge
ĠÃĶ Ãļ
ĠÐľÐ¾ÑģÐºÐ² Ð°
:::: ::::
Ð»ÐµÐ½ Ð°
Ġmar ca
Ġi den
éł ħ
Ġwo llen
Ġst essa
ĠH ei
Ġincont ro
n as
wei s
ĠÑĢ Ð°Ð²
ĠÐ¿ÑĢ Ð¾Ð¿
Ġli bre
Ġreg istra
Ġdi ch
ul os
ĠHotel s
Ð» Ð¾Ð¼
æĬ ķ
ĠÐº Ð°Ð½
ĠNe gro
Ġre m
Ġx o
pi Äĩ
min y
Ġabri l
Ġreal tÃł
ĠP rÃ©
gh e
Ġd am
ĠBeit rag
ĥħ åł±
ay a
Ġdo ÅĽwiad
D A
ĠÐ¿Ð¾Ð¼Ð¾Ñī ÑĮÑİ
Å ĵ
ÐµÐ² ÑĢ
ĠÑĢ ÑıÐ´
ĠÐľÐ¾ÑģÐºÐ² Ðµ
Ġdok um
Ġqu áº§n
ĠÑĥÑģÐ» ÑĥÐ³
Ġp in
ĠTh iáº¿t
et ri
ĠÐĲÐ»ÐµÐºÑģ Ð°Ð½Ð´
Ðº Ð°Ñı
Ġtr áº£i
ĠV iá»ĩc
ãĥĻ ãĥ³ãĥĪ
Ġof t
ãģ® ãĤ¹
es iÄĻ
Ð»ÐµÐ½ Ñĭ
---- ----
Ġinves ti
ĠNh Ã¢n
on ale
d za
wÃ³ r
ĠQu esta
Ġsome one
ãĤı ãĤĮãĤĭ
Ġcho ose
Ġdzie ÅĦ
Ġocc asi
sch ri
Ġs á»£
Ġsu jet
ãĤ¹ ãĥ¡
Ġm amy
Ġcomm on
æŁ» å®ļ
arb eiter
Þ¦Þ ĩ
l ang
Ġn iá»ĩm
c b
Ġma ggior
ĠÑĦÐ¸Ð½ Ð°Ð½Ñģ
Ġk ro
ĠZ um
Ġten emos
Ġv end
ĠÐ¿ÑĢ Ð¸Ð·Ð½
Ġp s
Ġme as
ĠÐ¿Ð¾ÑģÑĤ Ð¾ÑıÐ½
E M
ãĤĴ éģ¸
Ġgiov ani
ier w
ãģ®å Ĭ
Ġt ant
Ġw sz
Ġam ong
Ġen vol
ĠÑĥ ÑģÑĤÑĢÐ¾Ð¹
fi que
Ġequi p
Ġa ggi
ĠÐ¸ Ð´Ðµ
Ġv ue
Ġex ce
Ġproduct _
Ġr ad
ĠKh u
Ġinforma cji
Ġtratta mento
ÐłÑ ķ
w nÄĻtrz
Ġein ige
æ ¿
Ġpo ten
Ġth áº£o
por to
èĦ ±æ¯Ľ
Ġprz est
Ġspe ak
mi ast
ĠZ usammen
Ġ5 00
ĠÑĨ ÐµÐ½Ð°
Ġsk Ã³
Ð¾Ð¼ ÐµÐ½Ð´
ĠLi v
r at
ĠR en
nh eiro
le ction
n ers
Ġjak oÅĽci
si asi
Ġeffet tu
æľ ª
Ġsi er
Ġw rze
Ġp Ã³ÅĤ
ĠÑĢÐ°Ð· Ð´ÐµÐ»
Ð°ÑİÑī Ð¸Ðµ
Ġv em
za ndo
Ġsta ff
Ġ7 0
Ġkh á»Łi
Ġm essa
Ġam ount
ĠT V
un ku
Ġau tor
ĠDo po
ĠÑĢÐ°Ð· ÑĢÐ°Ð±Ð¾ÑĤ
2 1
p ej
ç´ Ļ
ĠÐ´ Ð°Ð»
ein ig
Ġh Ã¶
ĠA o
p unkt
Ġé ł
ãĤ¶ ãĥ¼
ĠSer vi
Ġcon trib
Ġç ļ
Ġç «
åĭ ¤
w ane
Ġf as
Ġso lici
Ġse en
Ġká» ·
Ġgu ida
Ġterri torio
Ġt on
Ñģ Ð¾Ð½
¨ ÐĲ
Ð½ ÑĥÐ»
ĠM or
is cher
Ġsimp ly
ĠÐĴ Ð°Ñģ
ãģ®å ķĨåĵģ
3 6
Ġs um
j est
ut zen
Ġa chie
ä¸ ¡
Ġse ul
é¦ Ļ
pu esto
Ġlung o
P h
ĠÐ¿ÑĢ Ð¾Ð¼
Ġw ent
Ð» Ð¸Ñı
cz ych
ÐµÐ» ÐµÐ¼
Ġqu en
Ġri us
cze k
Ġesp ec
ĠÐĴ Ð¾
ĠÄĲ áº§u
ĠEn tre
zn es
Ġso pra
3 5
Ã² i
ĠÃ© ch
å¾ ´
Ġvia ggio
ch ÄĻ
ĠGo bierno
zi nha
Ġfor a
å¾ ¡
ze u
Ġpun ti
ĠEs tados
ĠD r
Ġa dap
Ġt es
ĠE M
Ñī Ñĳ
Ð½ÐµÐ¹ ÑĪ
n Ã©
å± ħ
ort un
å® Ī
İ æĹ¥
ĠN inh
å¯ Į
Ġk wiet
ĠH omme
Ġg odz
gi i
ĠO k
è² ¸
ãĥĻ ãĥĥãĥī
Ġ- -
ãģ®è ³
Ġpes o
Ġf ai
Ð½Ð¸ ÑĨ
Ġmeille ur
ĠÐ¿ÐµÑĢ Ðµ
cie dade
ĠEuro pe
y fi
Ġperi odo
ĠÐ´ÐµÑıÑĤÐµÐ»ÑĮ Ð½Ð¾ÑģÑĤÐ¸
Ġkonn te
Ġç ¤
Ġu st
ĠB Ã¡o
Ġarty ku
ï¼ ı
Ġma g
Ġcoun t
Ġ áº¥n
Ġod p
Ġcara c
Ġh alf
ĠFor m
ÑģÐº Ð°
Ġocc asion
ĠÐĲ Ð´
ÑĢÑĥ ÐºÑĤ
ãĥį ãĤ¹
men taires
Ġgo bierno
Ñĥ ÐµÐ¼
Ġczy m
este ty
ĠUB ND
ãģ® å¤§
Ġfe z
Ġsigu iente
Ġwom en
ĠGra nde
éī Ħ
Ġv u
Ġph iÃªn
ko ÅĽÄĩ
ãĥĭ ãĥ¼
æ Ĩ
Ð°Ð» Ð¾Ð²
Ġj aneiro
ĠâĢ ĭ
åį Ķ
Ġcam era
it Ã¤t
Ġn áº·ng
us za
Ġau tori
Ġneed ed
Ġstud io
Ġr Äĥng
rz ym
Ġali gn
Ġres ta
ĠÐ»Ð¸ÑĪ ÑĮ
Ġdi cie
ĠãĤ· ãĥ§
Ġani ma
ÑģÑı Ñĩ
le ge
ĠF unk
ĠãĥĲ ãĥĥãĤ°
ĠÐ¡ Ðº
ÅĦ ska
ll eicht
ted y
Ġr end
Ġv Æ°á»£t
stru k
Ġdicie mbre
f il
ar di
tem ber
Ġ Ë
ĠÐ¿ÑĢ Ð¸Ðº
Ġo per
ãĥ¡ ãĥ¼ãĤ¸
Ġch yba
ĠÑĪ Ð¸ÑĢ
Ġãĥ ĺ
ĠÑĦ Ð¸Ð·
b and
pre chen
Ġsem bra
Ġcu atro
T C
I I
Ġa gr
Ð¸Ð½ Ð¾Ð¹
åº ·
ĠHer ren
Ġbelie ve
Ġm iá»ģn
Ġproduc to
ĠPortu gal
th e
ĠGi Ã¡o
ĠÐº ÑĢÑĥÐ¿
ãĢ İ
ĠÐ²Ð¾Ð· Ð½Ð¸Ðº
Ġwhi te
Ġpoli tique
Ġci Äħ
çµ ¶
ÃĪ Ãķ
ĠMad uras
Ġfr ont
Ġprovid ed
Ġger ne
Ġpo Å¼y
Ġcusto mer
ĠÐµ Ð´Ð¸Ð½
li na
Ġser Ã£o
Ġres ult
Ġai lleurs
one go
Ġw an
ħ è¡Į
ami te
ãģ¾ ãģĹãĤĩãģĨ
ĠÂ¡Â °
on ce
hl er
th ough
ĠÐ¾Ð±ÑĬ ÑıÐ²
Ġs ommes
Ġelec tr
Ġdi nheiro
ç Į
Ġqui te
Ġï¿½ï¿½ï¿½ï¿½ ï¿½
Ġ" ).
Ġfam ÃŃlia
czy na
Ġe cc
f ek
Ð¸Ð² Ð°Ð½Ð¸Ñı
Ġens ure
Ġhis tory
um en
ãĥĭ ãĤ¢
Ð¸Ð² Ð°ÐµÑĤÑģÑı
Ġo ctubre
ĠÐºÐ¾Ð½ Ðº
r era
Ġl áº½
Ġch odzi
Ġre du
ĠS á»Ł
Ð´ Ð¸
ç®¡ çĲĨ
Ġsem aine
Ġqu ais
li dad
ĠS outh
ĠBewert ungen
ĠÐ¿ÐµÑĢ Ð¸Ð¾Ð´
Ġs quad
Ãµ i
Ġcz ar
Ġsi ti
Ġnaj bardziej
ĠWe g
p rÃ¼
t ary
Ġé ħ
® éĢļ
Ġsur tout
Ġcer tains
ï¼ ¯
ĠC ie
Ġn iÃªn
Ġãģĵ ãģĨ
p iel
èĤ Į
Ġmi esi
Ġeff ec
el os
ç¨ İ
cto res
èį ·
res so
ul ation
Ġï¼ī ãĢĤ
ĠM at
Ġnov os
Ġcontin u
ĠdÃ© s
æµ ľ
ÑĢ ÐµÑĤ
Ġ ÅĤat
tiv al
SI 6
ti ven
ju da
ka Äĩ
Ġver fÃ¼
dzie Äĩ
ÅĤ ow
Ñģ Ñģ
Ġsta y
Ġng Äĥn
h ic
ĠNh Æ°
Ġcit as
Ġbud ow
è£ ľ
ĠÑģÐ²Ð¾ Ð¸Ñħ
ĠCh Ãºa
ãģ¨ ãģĹãģŁ
ma tique
Ġs ce
ãĥ¼ãĥ ¡
ãĥ³ãĤ ¬
ĠÐ¿Ð¾ Ñħ
Ġch ose
Ġs Ã³c
Ġprop ose
Ġsit uaciÃ³n
Ġb áºŃt
v amente
ĠktÃ³re go
Ġri f
Ġhum an
cze ÅĽniej
Ã©ri que
Ġmar chÃ©
er ing
Ġ! !!
Ġmo c
Ġäº Ī
Ġtrav aux
ĠÐ½ Ð¸Ñĩ
ch y
Ġsegu ir
er Ãł
c ont
ãģ«éĸ¢ ãģĻãĤĭ
Ġsty cznia
Ġè Ģ
Ġgen au
Ġno ir
ĠC ono
ĠÐ¿ Ð¾ÑĢÑĤ
ĠZ us
Ġpr Ã¡c
ãģķãĤĵ ãģ®
Ġdiver se
ĠprÃ©s ident
Ġviel en
ais e
Ġsan tÃ©
ent are
ĠEr fahr
EN T
ÃŃni o
ĠÐ¿Ð¾Ð¿ ÑĥÐ»ÑıÑĢ
ĠS ec
Ġh Ã©
ĠPl atz
Ġapplica tion
ĠCh rist
áºµ n
Ġet c
ãģ®å ¹
Ġmu zy
Ã¼s s
Ġwri ting
Ġwen ig
Ã¢ te
ĠH ay
h mer
Ġincl uso
Ġam igos
ĠÑĤÑĢÐ°Ð½ ÑģÐ¿Ð¾ÑĢÑĤ
ÑģÑĤÐ² Ð¾Ð¼
ÑĢ ÐµÐ²
Ġch ie
ãĥ¬ ãĥ³ãĤ¸
ĠNa poli
ĠPh o
Ġar tis
em i
it to
Ġdi chi
ãĤĤ ãģĤãĤĭ
Ġstr onie
æĭ ħ
re as
Ġhear t
Ġcomun e
Ġalgun a
ar Ã³w
ĠczÅĤ owie
ãĤĴæ Ĭ
Ġgia i
Ġs á»¯a
Ġarri va
ĠAcc ueil
ãģ®æ °
Ġma io
Ġgen era
7 4
ra tion
Ġinclud es
at ar
ĠÐ¿Ð¾ÑĢ ÑıÐ´
Ġu omini
Ġhe ures
ĠÐºÐ¾Ð½ ÑĨ
Ġf low
ĠâĢ¦ âĢ¦âĢ¦âĢ¦âĢ¦
Â ¦
h es
Ð°Ð» Ñĭ
ĠÐ´ Ð½ÐµÐ¹
ĠJo Ã£o
Ġpre Ã§os
ãĥĲ ãĥĥãĤ°
Ġmat eria
Ġsettim ana
Ġpa Åºdzier
Ġé ¦
éģ £
ĠL inh
cz noÅĽci
cri Ã§Ã£o
aÅĤ am
Ġcen y
ĠÐ¼ Ð¾Ð½
Ġthu áº¿
ĠÐºÐ¾ÑĤÐ¾ÑĢ Ð¾Ð¹
ĠÐ¾Ð±ÑĬ ÐµÐºÑĤ
Ġb áº¿p
Ì£ t
Ġå ĴĮ
ĠÐº ÑĥÑĢ
Ġfaci li
ici le
amb res
Ġk w
Ġpreci s
ch Ã¨
f ier
cri p
ĠC ity
Ġfu ori
ĠÐ¾ÑĢÐ³Ð°Ð½Ð¸Ð· Ð°ÑĨÐ¸Ð¸
ĠæĬķç¨¿ æĹ¥
Ĥ «
at tro
enn es
ĠÐ¾Ð¿ ÑĭÑĤ
Ġrela tions
Ġconc ern
ĠUni ted
Ð¾Ðº Ñģ
Ġpres ent
Ġap lic
ĠK unst
Ġen tire
Ġma ch
ĠÐ¿ ÐµÑĩ
ĠF uÃŁ
Ġjes tem
ĠÑĤ ÐµÐ±
d it
Ġoff ice
Ġa gosto
ien ne
è¿ İ
ĠMar ia
Ġn enhum
Ġprzy sz
Ġwie m
on da
by t
Ġkh áº¯c
Ġcl ai
Ġjo ven
çĨ ±
si ert
Ġge hen
Ġsigni fic
åı ²
ĠNo t
Ġdiz er
gen den
ãĤ¯ ãĥŃ
éĽ ĳ
Ġ q
Ġd or
ãĥ³ãĥ Ń
ÑĢ Ð¸Ð´
Ġacc or
ĠÑĩÐ°ÑģÑĤ ÑĮ
c ado
Ġsegu in
Ġen quanto
st es
ĠÂ¡Â ±
åł´ æīĢ
Ġev ento
nit t
Ġalgun as
Ġser ies
Ġcam bia
Ġb Ã©nÃ©
ĠNg a
ĠÐ¾Ð¿ ÐµÑĢ
Ġay uda
ĠÑģÐ¿ÐµÑĨÐ¸ Ð°Ð»Ð¸ÑģÑĤ
Ġk it
Ñı Ñĩ
Ð°ÑĢ ÑĮ
ta ciones
â Ī
Ġdo vre
ĠperÃŃ odo
ĠCon si
Ġno ite
ĠÅĽ wiat
Ġce lle
Ġem pe
c ts
Ãħ ÃĨ
ĠV ol
Ġsu gg
äºĪ å®ļ
g ada
Ġgus ta
é ½¢
ĠÐ± Ð¾Ð»ÑĮ
ĠÃ© ner
Ġtr Ã¬
äºĭ åĭĻ
Ġpra kty
Ġas socia
ĠUnivers idad
or u
Ġk ry
æľŁ éĸĵ
p om
Ġak tu
ĠÐĿÐ¾Ð² Ð¾ÑģÑĤÐ¸
Ġcad re
Ġch ica
Ġd ow
Ġop tions
Ġsta tt
Ã¶r per
ca ta
ĠÐ¸ ÑĤ
as ing
ĠD á»±
æķ ħ
ãģķãĤĵ ãģĮ
t Ã£o
Ġ Ñī
è² ¨
abili dade
Ġnasz ej
ĠD om
id i
Ġdes con
Ġzn ale
ĠãĤ¹ãĥ¼ãĥĳ ãĥ¼ãĤ³ãĥĶãĥ¼
ĠgiÃ¡ m
ç °¡åįĺ
Ġse ptiembre
ĠÐ´ ÐµÐ½
æĺ Ł
i Ã¨me
Ġw ers
la f
Ġth iá»ĩu
é »Ĵ
M T
ĠÅ ĵ
ÃĶ ÃĤ
Ñĥ Ð³Ð¸
Ġjun to
ĠS á»±
ĠprÃ© sen
ĠC Ã¢m
est ra
Ġcli ents
Ġå¾ Į
I mage
ri gio
ĠCÃ³ mo
ãĤ¼ ãĥ³ãĥĪ
Ã¤ ter
wi Äĩ
ĠY a
ĠÐ¾ ÑĦÐ¾ÑĢÐ¼
Ġis titu
Į æľĽ
è ¯
Ð½ Ð¸Ð²
Ġpl ann
ĠO ff
ĠÑģ Ð±Ð¾ÑĢ
Ġchá»© a
ĠÐ²ÑģÑĤÑĢ ÐµÑĩ
ãģ®å ¼
ÐµÐ· Ð¸Ð´
Ġevery one
g rod
Ġev ents
Ġnh iá»ħm
ãģ¨ ãģ¦ãĤĤ
Ġdef ini
ĠT Ãłi
tad or
Ġseu lement
ĠOr t
ĠRe view
Ġc and
Ġtra vel
Ġqu ase
Ã¡ tico
ĠMÃ¤ rz
te llo
ĠM ail
c ome
Ġdif eren
Z A
no va
Ð¾Ð» Ð¾
Ġod by
ĠBei spiel
ĠÐ¿ÑĢ Ð¸Ð»
g ed
Ġnov iembre
ãģĦãģ¦ ãģĦãĤĭ
Ð¼ Ð°Ð½
Ġãĥ Ĵ
ĠÐºÐ¾Ð¼ Ð½
å· »
ĠDes ign
Ġsoci ales
Ġdez embro
ãĥ© ãĥ³ãĤŃãĥ³ãĤ°
ci ato
ĠÐ¿ÑĢ Ðµ
pp i
ãģ§ãģ¯ ãģªãģı
ru ppe
ä¸ Ī
ĠÐ¿Ð¾Ðº Ð°
Ġf eito
éļĽ ãģ«
Ġgro ÃŁ
Ġnecess ario
Ä Ħ
Ġãģ į
Ġa Å¼
Ġs ym
Ġadd ed
Ġl Ã©g
Ġscel ta
åĭ ¢
ĠÅ¼y cie
Ġauto ma
Ġqu Ã¡n
gu st
½ çī©
i ll
Ġen ero
ÑĤ Ð¸Ðº
ĠÐº ÑĥÑĢÑģ
Ġve ngono
Þ ©
Ġres ol
ke ting
ãģ«ãģ¤ãģĦãģ¦ ãģ¯
Ġju lio
ĠÑĤ Ð¾Ñĩ
Ġqual siasi
ĠÐ¡Ð ¨ÐĲ
ĠStr ona
Ġè ĸ
ĠW and
æŃ »
æ´ Ĺ
Ġå° ĳ
Ġcomun que
è³ ŀ
Ġv arios
çĹ Ľ
çµĲ å©ļ
ĠRes p
Ġg ames
ĠÐº Ð¾
ÐµÑģÐ¿ ÑĥÐ±Ð»Ð¸
isten cia
è¡ Ĺ
Ġh emos
Ġgr Ã¢ce
ĠÐ´ÐµÐ» Ð°ÑĤÑĮ
atter is
Ġw Ã¤hrend
ĠS Ã¼
Ġpa per
ĠM A
ãĤĤ ãģĨ
Ġpas o
Ġni es
Ġg eral
Ð¿ Ð°ÑĢ
ko ÅĦ
ãĥ¼ãĥ Ŀ
ãģĦ ãģ§
Ã¶ff entlich
ĠÐ°Ð´ ÑĢÐµÑģ
Ġram ach
ÑģÐº Ð¸Ð¼
Ġåı ĸ
st Ã¤
Ã¼ hr
Ġemplo i
Ijo i
ãĤ· ãĤ¹ãĥĨãĥł
ĠÐ± Ð°Ð·
æī ¿
ãĤ¦ ãĥĪ
ĠTra bal
olo g
Ġsemp lice
è Ķ
Ġsecon da
ãģ®è ī
ãĥ¥ ãĥ¼ãĤº
Ġofer ty
Ġrisul tati
ĠOdpowie dzi
Ġconsi gli
ig a
ĠL Ã½
Ñĩ Ð°ÑģÑĤ
ĠSp iele
Ã¤h ri
ti Ã³n
ti Ã§a
Ġtem os
Ð»Ñı ÑİÑī
} .
{ "
Ð¸Ð¼ Ð¾
Ġacc ount
Ġtr amite
ĠDes de
ĠÐ³ Ð¾ÑģÑĤ
Ð¸ Ð³ÑĢ
Ġla ta
Ġw ays
ĠAs ÃŃ
vis ion
ķ ı
ãģ®å º
ub o
ĠAn che
Ġmi x
al nego
Ġrela ted
Ð¾ÑĤ Ð¾
Ġç¨ İ
ĠÐ´ Ð¸Ð·
eit as
ĠMu a
ĠÐ´Ð¾Ð»Ð¶ Ð½Ñĭ
rei ra
Ġ4 6
Ġty god
Ġfr ente
Ð ħ
Ġl ing
ĠDe z
Ìģ ng
cor ts
ch n
Ġcuer po
Ġcam pi
Ġyour self
Ã¤ ten
Ġsyste ms
Ġesp anol
ĠÐĴ Ð°Ð¼
h ai
Ð½ Ð¾Ð·
Ġsoft ware
ĠÐ¼Ð¾Ð¼ ÐµÐ½ÑĤ
ĠÐ¾ÑĦ Ð¸ÑĨÐ¸Ð°Ð»ÑĮ
ï¼ ¥
Ġc áº¥u
Ġzd r
Ð¾Ð¶Ð´ ÐµÐ½Ð¸Ñı
Ġrespon si
Ġ], [
ãģĤãĤĬ ãģĮ
CI 6
to ber
ĠF ir
á»į t
ĠÐ¿Ð¾ Ð¸ÑģÐº
ĠAp rÃ¨s
Ġob rig
st ein
Ġun as
ãģĭ ãĤı
Ġca lle
Ġapro v
ãģ®å ľ
ĠZ ak
ÑĥÑĢ Ð½
Ġe jer
çĽ¸ æīĭ
ãĤ» ãĥĥãĤ¯ãĤ¹
abili tÃł
Ġocc u
Ġpr ue
ĠS eiten
Ð°Ð½ Ð¸ÐµÐ¼
Ġl y
ĠÐ¿ÑĢ ÐµÐº
ĵ åĽ½
ĠÐ¿Ð¾Ð»ÑĥÑĩ Ð¸ÑĤÑĮ
Ġw ymi
Ã³ veis
Ġå Ń¦
le gt
or ÃŃa
Ġb esser
Ġde le
ĠÑĢÐ°Ð· ÑĢ
Ġb aj
Ġra ggiung
Ġt Ãłu
ãĥ¼ãĥ ľ
ĠPro f
è²» çĶ¨
Ġencuent ra
Ġwy ra
gg etto
tar ia
ĠÐ´ Ð½Ñı
ĠÐ¾ ÐºÑĤ
Ġdiff ic
Ġulti ma
Ġszczeg Ã³ÅĤ
Ġus ÅĤug
Ġre tour
ĠÄĲ iá»ĩn
mm t
cos a
ĠEr geb
Ð²ÐµÑĢÐ¶ Ð´
lia Ã§Ãµes
Ġa Ãºn
Ġraz em
åĨ ĻçľŁ
ãĥª ãĥķãĤ©ãĥ¼ãĥł
esell schaft
çµ ±
co ver
Ġutili s
ĠT Ã©lÃ©
Ġbene fici
Ġth ird
Ġw pis
ä½ĵ é¨ĵ
Ġpon er
Ġcompe ti
ãģ¾ ãĤĭ
ä½ Ļ
Ġres our
Ġza ba
na to
ãĥ³ ãģ®
Ġl áº¡c
éĽ» è©±
Ġide as
ĠÐ¾ÑĤ Ñģ
ĠGro ÃŁ
Ġ3 4
Ġn ier
niej sze
Ġwsp om
ĠÐ¾Ð±ÑĢÐ°Ð· Ð¾Ð¼
è± Ĭ
Ġentrepri ses
ĠÐ· Ð°Ñģ
Ġden en
ĠÐ³ Ð¾Ð»Ð¾Ð²
ĠL Ãłm
æ¯Ķ è¼ĥ
ĠÐ± Ñİ
ĠÐ¾Ð¿ Ð¸Ñģ
las s
Ġreg ol
Ġpag ina
Ġencon tr
Ġap o
Ġgem acht
ing e
gen te
á»¥ p
e lle
Ġai me
Ġgro ÃŁe
Ġalcun e
âĢĭâĢĭ âĢĭâĢĭ
Ġf est
ĠÐłÐ¾ÑģÑģ Ð¸Ñı
ĠTo p
Ġscu ola
Ġb áº£ng
ĠÃĵ ÃĲ
ĠMo Å¼
ĠÐ´Ð¾Ð»Ð¶ ÐµÐ½
Ġu0 44
ĠdÅĤu go
Ġin form
ĠÐ´Ð² Ð¸Ð¶
Ġcre ated
g or
Ġno ti
uch er
ãĥī ãĥ¬ãĤ¹
ĠÐ»ÑİÐ´ Ð¸
Ġa nali
ĠÄĳ áº©y
Ġqu áº£ng
ÐµÑĢ Ð¾Ð¼
rÃ¤ n
Ġen fer
Ġso on
Ġpel as
Ġcons ul
Ġty pu
ec yd
Ġnatur al
le y
li Ã©
ĠÐºÐ¾Ð¼ Ð°Ð½Ð´
çµ ¡
Ġper gun
ĠR om
am m
Ġe li
æ¥ µ
ti mes
ĠA pri
ĠÐ¿Ð¾Ð¼ ÐµÑī
m Ã¶glich
Ġne gro
Ġdiv ul
Ġgiu di
ĠÐ²Ð¾Ð· ÑĢÐ°ÑģÑĤ
ĠMit glie
z on
ĠÐļ Ð°ÑĢ
Ġp ole
ãģĮ ãģĤãģ£ãģŁ
Ġczerw ca
ĠH ere
uest as
Ġlar go
ĠF ol
ĠV ene
èĪ Ī
ĠH á»įc
Ġknow ledge
ĠUn idos
Ġla bor
ĠãģĿãĤĮ ãģ¯
Ġfar ma
p Ã¤
Ġju nho
bild ung
Ġ ãģ§ãģĻ
ĠBer eich
ãģķãĤĮãģ¦ ãģĦãģ¾ãģĻ
ĠSch warz
Ġvi Ãªm
ĠÐ¿ÑĢÐ¸ Ð¾Ð±ÑĢ
Ġp ied
Ġpod staw
ãĤ¦ ãĤ¹
ĠÅ¼ ad
Ġser wis
ne ak
Ġcl ose
Ġpop ular
Ġobje tivo
Ġca teg
ĠC es
Ġs ung
si co
Ġac t
Ġh Ã¤t
Ġæ ¶
ä¸ ģ
ĠÐ¼ Ð¸Ð»
Ġme et
owi ada
ÐµÐº Ð°
olesc ente
Î ¿
Ġr ol
Ġbei den
ĠÐ´ ÐµÐ¿
Ġc áº§m
ĠÐºÐ°Ð¶Ð´ ÑĭÐ¹
Ġnue vos
ĠdÃ©velopp ement
Ġse curi
ĠrÃ© ser
Ġk im
Ġnum a
ĠD an
siÄĻ bior
Å »
ĠI ng
ãģ®æ Ń
ãĥ¡ ãĥ©
ĠR Ã©s
Ġre con
ĠT age
Ð¾Ð±ÑĢ Ð°Ð¶
ĠÐ¼ÑĥÐ¶ Ñĩ
¤ ĩ
ĠÐ¾ÑĤ Ð¿ÑĢÐ°Ð²
ni u
9 1
Ġn áº¡n
Ġres id
Ġparti do
Ġany thing
Ġsvilu ppo
Ġfe brero
Ġ Ø
ĠV e
er mo
Ġh Ãłi
ãĤĮãģ¦ ãģĦãĤĭ
ĠÄĳ Ã¨n
Ġcoment arios
ï½ į
Ð¾Ð· Ð¼Ð¾Ð¶
ste ad
ĠQu ang
ĠPor n
Ãĵ Ãİ
ãĤĪãĤĬ ãĤĤ
ãģ² ãģ¨
ĠÐ¿ÑĢÐµÐ´Ð¿ÑĢ Ð¸ÑıÑĤ
elÃ© fono
az o
Ġsel f
ĠÐ³Ð» Ð°Ð·
Ġe uros
Ġ. )
Ġrep ort
Ġoffer te
Ġcor po
Ġs osten
èĮ ¶
or ie
Ġpar ty
Ġb out
cie l
Ġestr ut
Ġw ro
ãģĭãĤī ãģªãģĦ
ĠÑģ ÐµÐ·
Ġle v
Ġges tione
Ġsare bbe
ĠAu gust
Ġbe lle
ãģ¨ãģĦ ãģ£ãģŁ
ra um
Ġczy n
ĠNa tional
ĠV Å©
ĠP ier
an ten
Ð¾Ð¿ÑĢ Ð¸ÑıÑĤ
Ġf all
é Ĺ
Ġg á»ĳc
Ġlear ning
Ġal most
Ġx ong
Ð°ÑĤ Ð¸
ĠÄĲ áº£ng
Ġw issen
Ġres er
Ġcondi zioni
Ġp at
ãģ®å ĭ
Ġjus te
Ġin ÃŃcio
ãĤĴæİ ¢
Ð½ Ñĥ
c ra
ĠÐ´ Ð°Ð»ÑĮ
ÐµÑĤ Ð¾Ð²
Ġrec ursos
ĠSp e
ĠÑģ ÐµÐº
ĠDi os
Ġutili sation
å «
pp er
ãģ®æ Ķ
Ġro ad
ĠCi udad
« ª
ed Ã¬
ĠÑĤ Ð¾Ð½
ãĥĭ ãĥ³ãĤ°
Ġ ãģªãģ©
ãĤ¹ ãĥļ
Ġes tou
Ġh owever
jaz d
Ġproble ms
Ġkwiet nia
ĠÑĤÑĭ ÑģÑıÑĩ
ä½ Ĳ
s cy
Ġæľ ī
ĠÐļ Ð°Ð·
ĠH ombre
Ġactiv idades
å ¨
ãģ® ãģĶ
cul o
Ġout ubro
ĠÃĬ Ãĩ
ĠEuro pa
Ġbl anc
ĠÑħÐ¾ÑĢÐ¾ÑĪ Ð¾
ãģĪ ãģ¾ãģĻ
ieni u
ĠÃºlti mo
ĠPare ja
cion ado
ĠÐĵ ÑĢ
Ġmat ri
p la
ĠÐºÐ¾Ð¼Ð¿Ð» ÐµÐºÑģ
ĠP S
ien ti
Ġmo ve
Ġver o
Ġla nge
ãģ¨ãģĦãģĨ ãģ®ãģ¯
ÑĤ Ñĥ
are k
ĠÄĲ á»ĳi
ĠH á»ĵng
Ġproble mi
Ġexper iÃªncia
ĠÑĤ ÐµÐºÑģÑĤ
ı ng
ĠcÃ´ tÃ©
Ð°Ð² Ð»Ð¸Ð²
ĠÐ°Ð´ Ð¼Ð¸Ð½
Ġrece ber
ĠMit tel
Ãª Ìī
Ġcommun ica
ä½ı å®ħ
Ġfinan cial
eri ore
áºµ ng
an ks
ĠRei se
ÑĢ Ð¾Ð½
ĠÑĢ Ð°Ð´
Ġprofission ais
Ġtr ein
Ġsp end
ĠÐºÐ¾Ð¼Ð¿ ÑĮÑİÑĤ
on to
Ġl uyá»ĩn
ãģĽ ãĤĭ
Ð¼ÐµÐ½ÑĤ Ð°ÑĢ
Ġph one
Ġch Ã¢u
Ġsk in
Ġtu taj
Ġdetail s
Ġm Æ¡
oni ca
Ġä¸ »
Ġmie Äĩ
ĠN O
Ġi hm
Ġpo k
r Ã¡n
ĠÑģ Ð¾Ð³Ð»Ð°Ñģ
Ñı Ð»
ĠB Ãł
Ġph á»ķ
ĠÐ° Ð¿ÑĢ
Ġutili ser
è¨Ń å®ļ
Ġmod elo
ĠkaÅ¼ de
ĠPro zent
k tÃ³
at ten
ĠD á»ĭch
graf ia
Ġpro pie
m eld
ãģ«ãģª ãĤĬãģ¾ãģĹãģŁ
Ġresul tados
ĠÐºÐ¾Ð»Ð¸Ñĩ ÐµÑģÑĤÐ²Ð¾
le g
å¾ ©
ĠNo va
Ġpoli ty
Ġ Î
Ĳ Ĩ
ĠB re
Ġqu ad
Ġda to
ĠÐ¾Ð± ÑĥÑĩ
iO i
Ġf abri
nh as
ĠL Ã¢m
ãģ®æ īĭ
Ġé »Ĵ
ĠM usik
ĠI L
ĠÄĲ o
ãĤĵ ãģ¨
Ġroz wiÄħz
b ly
Ġpo tr
Ġde tal
Ġb ad
ãģĦ ãģ¤
Ġch auf
Ġg ouver
Ġch arak
8 7
Ġpo ter
åį ĥ
Ġso gar
ĠkaÅ¼ dy
ĠReview Image
ĠB Ãªn
c ciones
d ic
ãĢħ ãģª
Ġconf ron
rie b
Ġop ortun
Ġ Æ
Ġw a
r one
æĹ¥ ãģ«
di go
cb cb
Ġri vol
ĠæľĢ è¿ĳ
ĠÐ½Ð° ÑĢÑĥÑĪ
Ġch á»Ŀ
ç² ¾
ĠÑĥ Ð»Ð¸
Ġt á»Ļi
é ³
ĠC V
Ġé Ļ
ĠTr Æ°á»Ľc
Ġth Äĥm
ĠÐ½Ð°Ð¿ Ð¸Ñģ
ĠÐ´ ÑĥÐ¼
Ġricon os
Ã¤ us
Ġme e
æŃ Į
mis sion
z ÅĤ
tion ale
åĪĩ ãĤĬ
tivi ties
Ġ48 5
t Ã¡
Ġpor tu
Ġbus car
ÃŃs ticas
ĠHi gh
Ġg ry
Ġele g
Ġpun tos
ĠEdu caÃ§Ã£o
Ġve hic
z m
lla tion
ch ter
omb ia
ĠFra u
ĠSch ool
Ġsta nie
eri to
cri zione
Ġe asi
ĠD ec
åĬ ´
ĠÐ¿Ð¾Ð½ Ð¸Ð¼
rais on
ĠÑĨÐµÐ½ÑĤ ÑĢ
ĠÐ¼ Ð¸Ðº
ĠÄĳ á»ĳc
ĠN atur
Ġlik ely
Ġc áº¯t
Ġbu dy
å¤ī æĽ´
ĠÐŀÐ´ Ð½Ð°ÐºÐ¾
li cy
Ġpr en
Ġre alidad
Ġd Ã¡
Ġ Åº
Ġb lack
ãĥ¼ãĥ Ń
Ġob jet
Ãİ Âª
b lis
Ġokre ÅĽl
Ġat t
an cia
æŁ ĵ
Ġpod rÃŃa
Ġwy sz
ura Ã§Ã£o
ĠNi ke
ĠOk tober
Ð¸ÑĤ ÐµÑĢ
Ġd are
ãģĳ ãģŁ
ĠF rom
Ġ200 7
ien cia
ĠÐĺ Ð³
ta mi
Ġprob l
ĠkÃ¶nn te
ĠQ ui
ãĤ° ãĥ©
Ġ09 3
ĠB lu
ĠKon ta
ci s
ĠM Ã£
Ġfor te
Ġel ement
Ġin vi
Å© i
ĠPh áºŃt
ĠP ag
Ġposi tion
ĠÐ·Ð°Ð´ Ð°Ñĩ
ch as
ï¼ ´
Ġse ctor
Ġprincip ais
sch uhe
gi co
Ġcam ere
Ġpod emos
rie d
æľĪ 0
ĠGi u
re k
il es
Ġç¶ ļ
Ã¼ns tig
ĠÑĢÐµÐ¶ Ð¸Ð¼
do by
ĠPor to
é£ Ľ
Ġjul ho
ĠÑģÐ¾ ÑħÑĢÐ°Ð½
y j
en ica
ĠÑĦ Ð°ÐºÑĤ
ãĤ¤ ãĥ³ãĥģ
ĠApri l
Ġsz ko
Ġges tion
Ġutili z
Ġs áºµn
æĿ ¾
Ġser ia
ãģĦãģŁ ãģĹãģ¾ãģĻ
Ġenf ant
der s
pa ciÃ³n
Ġå ²
ĠÐ½ ÐµÐ¹
ãģ¿ ãģ«
ÃŃ cios
ĠÐ½Ð°Ð· Ð°Ð´
Ġo l
Ġa jou
zi ert
ĠRe gel
Ð² Ð¾
Ġè ±
æĻ ¯
ĠRe chts
re am
u vre
Ġc umpli
Ã¥ ÃħÃĨ
ĠÑĤÐ°Ðº Ð¸Ðµ
ĠÐ°Ð²ÑĤÐ¾Ð¼ Ð°ÑĤ
ÐµÐ» ÐµÐ½
is ts
Ð°Ð»ÑĮ Ð½ÑĭÐ¼
æľĢ å¤§
Ġs za
Ġa ge
Ġpar ce
Ġu d
ĠÑĩ ÑĥÐ²
Ġar tÃŃculo
å¸Ĥ åł´
las sen
ĠÐº ÑĥÐ¿
ĠWer k
ĠÑĢÐ°Ð·Ð²Ð¸ÑĤ Ð¸Ñı
Ġde cor
Ġâ Ĥ«
ãĥ¼ãĥ į
ĠP M
ãĤĴ ãĤĤ
ĠC áº§n
ti di
ĠÑĢÐ°Ñģ Ð¿Ð¾Ð»Ð¾Ð¶
ãģ« ãģ¦
Ġcre o
Ġz us
Ġ\": \"
Ġá»ķ n
ĠSch ri
éĥ İ
ÑĢÑı Ð´
Ġfal ta
ÐµÐºÑĤ Ð¾ÑĢ
Ġpod sta
b m
Ġo c
Ġl Ã¤s
ĠÐ¾Ñĩ ÐµÑĢÐµÐ´
Ġv an
Ð¾Ð· Ð½
Ġac om
ĠÑģÑĢ Ð°Ð·Ñĥ
d W
Ġd Ã¡ng
Y 2
Ð´Ð° Ñĩ
ĠL ub
Ġti m
Ġparte cip
Ġprow adz
Ġemplo ye
Ġmulher es
Ġ3 8
Ġvici no
Ġl áº¡
Ġ! !
top ada
f as
Ġï¼ģ ãĢį
Ġdara uf
Ġin ver
ãģ®å ½
Ġx áº¿p
Ġs ens
T U
ka cja
c tive
ĠP rÃ¤
Ġo cas
osz enia
ĠÐº Ð¼
ÐµÐ² Ð¾Ð¹
Ġ ÅĤÄħ
ãģ¨ãģª ãĤĭ
a Ã§Ãµes
ĠfÃ¡ cil
Ġh Ã¡t
ĠG dy
Ġl áº¯m
Ġc Ã¡n
ĠÐ¿ ÑıÑĤ
ĠÐ¿Ð¾Ð´ Ð³Ð¾ÑĤÐ¾Ð²
è Ĩ
ÅĤ ych
ĠC ao
ãģĮ è¦ĭ
Ġse tz
å¸ Ń
æĪ ¿
ĠM ag
le m
Ġsoci ais
ĠNor th
ul aire
S O
ĠÐł Ð°Ñģ
u zioni
ĠPh i
ç¨ĭ åº¦
wit ter
Ġwrze ÅĽnia
ãĤĦ ãĤĬ
ĠF ree
ĠçĽ ®
Ġde vem
sta g
Ġkann st
Ġh aut
çĶ³ ãģĹ
ãĤĴæ ±
éĸĭ çĻº
jÄħce j
ĠI nh
Ġfun zion
Ġe uch
uest os
ĠCom une
ĠT as
Ġcu id
Ġcon h
ĠÑįÑĦÑĦ ÐµÐºÑĤÐ¸Ð²
§ ĺ
ï¼ ²
Ġå ĥ
Ġ4 4
ĠQu Ã½
ãģ¯ ãģļ
ina tion
ĠÑĢÐ°Ð±Ð¾ÑĤ Ñĥ
ĠÐ¼ Ñĥ
Ġer ano
ob al
Ġtak en
ti lh
åĢŁ ãĤĬ
èĭ ¦
è¨Ģ èĳī
è¢ ĭ
Ġv ier
Ġry nku
ãģ®åī į
Ġsignific ant
Ġcon j
wa ch
Ġcos titu
ĠÐ¿ÑĢÐ¸Ð½ Ð¸Ð¼
æŁ Ħ
ti le
Ġopport unity
ge ber
ur ant
Ġh Æ°Æ¡ng
ĠÑĩÐ°ÑģÑĤ Ð¸
ĠLu is
Ġla i
den cia
Ġparti re
Ġa go
t ty
Ã¼ nd
Ñĩ Ð¸ÑĤ
Ð¾ÑĢ Ð¾Ð¶
ĠMar kt
B I
Ġj este
ĠÑĥÐ· Ð½
Ġvoit ure
Ġlip ca
a W
Ġl um
Ġthrough out
ĠStu d
ĠSep tember
ĠK ir
ĠãĤ¹ ãĥĨ
Ġinter est
ãģ¨ãģĹãģ¦ ãģ¯
d G
ĠB Ã¼r
Ġlo k
Ġus ers
ãģ° ãģĭãĤĬ
ĠPe lle
ĠduÅ¼ o
Ġgior nata
äºĭ ãģĮ
ĠWeb cam
ãģĹãĤĥ ãĤĮ
Ġbo x
Ġnue vas
ĠSeg undo
ĠÐ¶Ð¸Ð·Ð½ ÑĮ
Ġph Ãª
æĸĻ éĩĳ
ĠÐµ Ð²
ie ÅĦ
à³ ģ
z os
Ġfe ature
on Äħ
ĠL ou
ĠÐ·Ð°Ðº Ð»ÑİÑĩ
éģķ ãģĨ
Ġde cl
Ġda von
Ġtr en
Ġcon d
ĠÑģÐ¾Ð± Ð¾Ð¹
pa zione
ĠE ro
Ð¸Ð² Ð°ÑİÑĤ
Ġreg ard
Ġa Ã§Ãµes
ãĥĲ ãĤ¤
ĠMais on
Ġline a
Ġman eira
Ġread y
ĠÑĢÐµ Ð°Ð»Ð¸Ð·
ãģĹãģ¦ãģĬ ãĤĬãģ¾ãģĻ
Ġm unicÃŃ
ĠÑģ ÑģÑĭÐ»
Ġzam Ã³w
Ġçı¾ åľ¨
te j
em in
Æ¯ á»
ÐµÑĢÐ± ÑĥÑĢÐ³
é ĬĢ
Ġt est
te mp
Ġpas ar
ul tos
n am
ĠmÃ¶ chte
Ð¾Ð± Ð¸Ð»ÑĮ
Ġste p
g rÃ©
Ġfor ward
ing en
ci are
Ðł Âµ
ri que
Ġdisponi bile
Ġnet work
Ġng á»¯
tic les
Ġs ort
Ġqu in
pe ÅĤni
Ġca usa
Ġna z
oni que
em ente
ĠPh Ã¡t
pi os
Ġman uf
ei sten
men tation
Ġ": {"
Ġstr ada
Ġbuen o
Ġchang es
Ġf ÃŃ
Ð¸Ðº Ñĥ
lei st
o ÅĦ
ĠÐ¾Ð±Ð»Ð°ÑģÑĤ ÑĮ
Ġmod ifica
Ġj ardin
Ġi ll
ĠA y
Ġda te
Ġo bb
ĠP an
Ġri chtig
Ġaten ciÃ³n
ĠÐ¾ÑĤÐ·ÑĭÐ² Ñĭ
Ġnie go
Ġal to
to ra
Ġch ci
ben d
Ġwsp Ã³l
se gna
ĠÐ¿Ð»Ð¾Ñī Ð°Ð´
ĠÑĤÑĢ Ð¸
24 80
h le
ĠC our
Ġus er
ĠF u
uer to
ĠVer fÃ¼
ĠA ma
ĠS áº£n
Ð» ÐµÑĩ
Ġmigli ore
Ġsa f
Ġcze go
Ġprobl Ã¨me
Ġlis topada
ĠM os
Ġtr az
ĠS im
ÃŃt ulo
Ġar te
Ġav re
Ġdla tego
Ġver sch
gi on
Â¡Â ¢
arb eit
Ġf rais
ĠÐ° Ð±
ĠG ay
Ð¾ÑĢ ÑĥÐ¼
Ġresul tado
Ã¡li se
V O
ĠÐ± Ð°Ð»
Ġmo je
Ġs end
Ġk or
Ġna zionale
Ġl áº¯p
Ġvis ita
Ġragaz zi
ĠprÃ© f
Ġma cch
Ġv arie
Ġkra j
Ġinte gr
ĠWyÅĽwiet leÅĦ
ĠÐ¿ ÑģÐ¸Ñħ
oni c
Ġet wa
Ġw ide
wÃ³ dz
esz k
Ġdeli ver
Ġle a
Ġ485 2480
ĠÑĩ ÐµÐ³Ð¾
Ã³ vel
Ġri m
ĠprÃ³xi mo
V y
Ġsecuri ty
Ġgru dnia
ĠX e
ĠÐ¿ Ð°Ð¼
ĠEn er
Ġcon tato
Ġluo go
dz e
Ġei g
ĠÐ¾Ð± ÑĢÐ°Ñī
Ġas sic
d le
ĠÐ¿ÑĢ ÐµÐ²
ch odzi
ĠÐ¾Ð±Ñī ÐµÑģÑĤÐ²
Ġucz est
Ġp Ã³Åº
ne hmer
ĠÐ½Ð° ÑĥÑĩ
vid as
ÐµÐ» Ð¾
ÃĶ NG
Ġmi m
Ġopp ure
r or
Ġespa cio
o gle
Ġt ale
v ÃŃa
Ġrecei ve
Ġdere cho
an Äħ
Äħ ce
f iche
Ġindi ri
U O
ic ie
Ġpres enti
Ġpoli tica
Ġser ont
part ment
I n
Ġcom ing
Ġa Ã§Ã£o
Ġlong o
Ġprofission al
ĠD ia
Ġu 00
tig os
Ġprzy kÅĤad
Ġval ore
pos aÅ¼
Ġqu est
wÃ³ ch
ĠW iÄĻ
ar ze
ĠDzi ÄĻki
ĠA S
Ġposs ui
Ġmes ure
ĠspÃ©ci ali
ĠO u
Ġin wes
; ;
ãĥ¬ ãĥ¼
åı¯èĥ½ æĢ§
ä¾ Ŀ
ãģĻãĤĭ ãģĵãģ¨
èª¿ æŁ»
ï½ ŀ
çĬ¶ æ³ģ
ãģĹãģŁ ãĤĬ
ç ¬ĳ
ãģ¦ ãĤĭ
¥ åº·
åĢ Ĵ
ãģĹãģ¦ ãģĦ
um n
ãĥ¬ ãĤ¤
ãĥ¶ æľĪ
Ġ5 9
äºĪ ç´Ħ
åħ ħ
ãĥ¬ ãĥĥãĥĪ
ãģ£ãģ ±ãģĦ
¸ ı
Ġäº ¤
å ¬
ç Ĵ°å¢ĥ
åħ¥ ãĤĬ
çĶ» åĥı
çĤ º
ãģ¡ ãĤĩãģ£ãģ¨
Ġç Ĺ
Ġá» ŀ
ĠÐŀ ÐŀÐŀ
2 8
ĠÐĴ Ð¸Ð´
ĠÐ²ÐµÑĢ Ñģ
Ġesto y
Ġt Æ°Æ¡i
çµĦ ãģ¿
ĠÐ¿ÑĢ Ð°Ð·Ð´
ĠÐ½Ð°Ð¿ ÑĢÐ¸Ð¼ÐµÑĢ
ĠÐ±Ñĭ Ð²
Ġcor res
ä¸Ģ çķª
Ð°Ñģ Ð¸Ð±Ð¾
ĠÐ¼Ð°Ð³Ð°Ð· Ð¸Ð½Ðµ
Ġbie ten
Ġæ ¿Ģå®ī
ut lich
il ie
Ġre cht
Ġãĥķ ãĤ£
ĳ ç´Ħ
Ġ ä¾¡æł¼
ster reich
ãģ¨ãģĦãģĨ ãģĵãģ¨
Ð ¨
éĢļ ãĤĬ
gen de
Ġmos tra
ous ly
Ġre de
Ġ000 åĨĨ
ĠÑģ Ð¿ÑĢÐ°Ð²
Ġbiso gno
Ġb ÃŃ
ĠãĥĽ ãĥ¯ãĤ¤ãĥĪ
ï¼ ¤
ĠÐŃ Ðº
no t
Ġa fec
ui to
en ho
Ġda w
ĠÐ¼ÐµÑĤ Ð°Ð»
ĠæĦ Ľ
ĠA N
ãĥ© ãĥ«
ĠÐ¿ÑĢÐ¸Ð¼ ÐµÑĢ
ĠCh ica
ãĤĴ åĩº
ãģĵ ãģĿ
les si
ei chen
ĠãģĤ ãĤĭ
ĠÐ½ Ð°Ð¹ÑĤÐ¸
ador as
Ġnapraw dÄĻ
Ð» ÐµÐ³
Ġpubb lici
Iá» Ĩ
um s
ĠÐ¡ Ð°Ð½
et tes
Ġte ve
Ð°Ðº ÑĤÐ¾ÑĢ
ĠL ink
Ġincre ase
Ġpia ce
ĠÐĶ Ð°
Ġqu atro
Ġh Ã´n
Ġn Âº
Ġso ggior
ru z
Ġjed n
p ia
ut ter
Ġf ast
t wor
Ġt áº§m
ll te
åł´åĲĪ ãģ¯
gen cy
Ã³n ico
Ġt it
Ġv ay
Ġ4 9
ãĥª ãĤ¨
Ð½Ð¸ ÑĨÐ°
o li
Ġamb iente
Ð¾Ð» Ð°
Ġv Ã¡rios
en den
Ġbesonder s
Ġdichi ara
Ġes tre
Ġcho Äĩ
tri es
Ġesta b
Ġç´ ł
Ġski lls
å¥ Ī
Ġthá»ĭ t
ord in
Ġpesquis a
ĠwspÃ³ÅĤ pra
ãĤĪãģĨ ãģ§ãģĻ
Ġg ag
ĠJu gend
Ġan zeigen
ĠÐ½ Ð¸Ð·
un os
Ġswo ich
ĠFra gen
ĠÐ´ Ð¸ÑģÐº
Ġth áº³ng
Ġun ico
ĠMi lli
Ġ36 00
P P
ãģ§ ãģĤãĤĬ
Ġph Ãºc
Ġmar Ã§o
Ġent onces
ĠNa cht
Ġprod uzione
Ġsim il
Ġfa Ã§on
us Ã£o
å®ī å¿ĥ
Ġl emb
h Ã¤ng
ĠÐ´Ð¾ÑģÑĤ Ð°ÑĤÐ¾ÑĩÐ½Ð¾
ie u
ãģ£ ãģ¡
th ek
ĠSo ft
ĠÐ² Ð»Ð°ÑģÑĤ
Ġcul ture
Â ®
ĠO l
Ġche gar
Ġsp rz
Ġima gen
undi al
Ġqual cosa
Ġe ux
Ġpod ej
Ã¶r der
ĠM á»
Ġhapp y
Ġeigen en
Ġä»¥ ä¸ĭ
ĠÅĽ l
Ġpre vis
Ġpo ÅĤÄħ
Ġmedi ante
ag ement
ãģ§ãģĻ ãĤĪãģŃ
Ġdi gi
wy Å¼
Ġz esta
ãģķãģĽ ãĤĭ
Ġra te
ĠÄĲ áº·t
Ð³ ÑĥÑģÑĤ
ue m
Ġris k
Ġindivid ual
Ġw nios
ĠÐ¿ Ð¸Ñģ
Ġob li
ĠSch wei
ãģ¨ ãĤĵãģ©
ing o
Ġf ff
ãĥ« ãĥĢ
Ġus ually
ĠP el
Ġc io
Ġth Æ°á»Ľc
æĪ »
ĠZ ug
Ġn ÃŃvel
Ġmat ter
Ġng Æ°Æ¡i
Ġsou hai
ãĥ¼ãĥ ¬
an ym
Ã± ana
xi mo
Ġå· ¥
Ġqu oi
çļ ®
Ġs iendo
ĠI hren
Ġini zio
èı ľ
Ġnov embro
ĠM unicipal
Ġcand id
Ġw ych
Ġpo ÅĽ
Ġb áº¡c
Ġfal ar
ĠÄĲ á»
ĠÄĲá»ĭ a
Ġob jec
cz aj
Ġprim ero
ãģıãģª ãĤĭ
aliz ado
ĠD ir
Ġvac ances
Ġm are
Ġen vo
Ġpomo c
Ġin oltre
Ġdale j
Ġm l
Ð°Ð½ Ð½ÑĭÐµ
Ġbes timm
Ġåı£ ãĤ³ãĥŁ
je wÃ³dz
ãĥ¼ãĤ µ
Ġlo cated
Ġesc lusi
Ġmod el
Ġayud ar
v y
Ġso i
Ġre v
Ġl ista
ãĥ³ãĥĹ ãĥ«
Ġnombre ux
ĠçµĲ å©ļ
Ġitali ana
ĠC A
ç ĩ
Ñģ Ð°
iá»ĩ ng
czy ÅĤ
Ġter min
ĠÐ½ Ð°Ð»Ð¾Ð³
ĠJan u
ĠB ol
Ġth Ãºc
te ms
f lÃ¤
ardi m
Ġest ud
en k
Ġ4 3
Ġtien es
Ł ãģĺ
Ġsk lep
åĭŁ éĽĨ
ãĤĴè¦ĭ ãĤĭ
Ġt itre
Ġgi us
Ġpu er
Â §
G G
as to
ĠCom p
pi tal
Ġra ther
met y
èĩ ´
ĠãĥĽ ãĥĨãĥ«
Ġinv est
Ð° ÑģÑĤÐ²
ĠÐºÐ¾Ð½ Ñģ
æ´ ¾
ck et
Ġpass ado
Ð¸Ð· Ð¼
Ġse tembro
Ġoccasi one
ĠÐŁÑĢ Ð¾Ñģ
eri al
ĠÄĳ Ã³n
pa ch
Ġten ha
ĠP Ãºb
Ġgro ÃŁen
å© ¦
h ind
ãģ® ä¸Ĭ
ĠÃ¶ ff
Ġda gli
ãģ® æĹ¥
Ġo zna
Ġsti le
Ġopini Ã³n
Ġè ĥ
ĠÐº Ð°Ð±
ĠÐ¿ÑĢ Ð¸Ñħ
vo ll
Ġar chi
Ġte ll
Ġdes cu
ãĥĩ ãĥ¼ãĤ¿
ĠGeschÃ¤ fts
Ġæ ®
ĠG Ã¤
Ġtak es
Ġhom em
Ġpre vious
ĠH erstell
ÑĥÐ½ Ð°ÑĢÐ¾Ð´
Ġfin anc
Ġprob ably
éĽ ¨
Ġforma zione
ÑĤ Ð¾Ð²
Ġcoment Ã¡rio
Ġal meno
Ġd wÃ³ch
Ġs w
èĭ ¥
» çĻĤ
Ġw ÅĽrÃ³d
å® ĺ
ĠZ iel
ta Ã§Ãµes
ĠÃ©ta t
Ġprincip al
V I
owo ÅĽci
ç ł´
ĠÑįÑĤ Ð¸Ñħ
ç« ¯
Ġog ÅĤ
ĠÐ¸ÑģÐ¿Ð¾Ð»ÑĮÐ· Ð¾Ð²Ð°ÑĤÑĮ
ĠãģĬ ãģĻãģĻãĤģ
Ġte xto
Ġouts ide
ute bol
Ġver dade
ãģĳ ãĤĮ
ĠÐº Ð¾Ñģ
ĠÑĤÐ°Ðº Ð¾Ðµ
tiv amente
èĶ µ
Ġs Ã´ng
Ġo v
Ġcol ore
Ġbu on
ãĥ¼ãĤ ±
ãĥĥ ãĤ»
æº Ĳ
med ia
æīķ ãģĦ
Ġa chat
Ġs ales
panh a
Ġsitu aÃ§Ã£o
Ġphy si
Ġpl ein
Ġb á»©c
ĠW el
ĠÐ¿Ð¾ÑĤ Ð¾Ð¼Ñĥ
ĠH ombres
Ġspa zio
çľ ģ
Ġd raw
ãģ£ãģ¦ ãģ¿
Ġ5 3
ĠÑĩÐ°ÑģÑĤ Ð¾
gu ien
ĠexpÃ©ri ence
ĠpÃ¡g ina
Ġ: "
ese hen
u ir
Ġç¤ ¾
Ġac tivities
ãĥ© ãĤ¯
Ġtr an
ĠÐ¿Ð¾ÑĤ Ð¾Ð¼
ĠP R
ĠÐ¾Ð´ Ð½Ð¾Ð¹
Ġcri s
Ð¸ÑĢÑĥ ÐµÑĤ
Ġnouve lles
Ġcolla b
c 3
di Ã³
ĠÑĩ Ð¸ÑģÑĤ
Ġsein em
Ġcli enti
Ġpas se
ĠV iel
ĠÐŁÐµÑĢ Ð²
Ġbut ton
ĠÑģÐ²ÑıÐ· Ð¸
ki en
az z
g ani
ÑģÑĤÑĢÑĥ Ð¼ÐµÐ½ÑĤ
ges tellt
ĠpolÃŃ tica
Ġtar de
ĠÐµ ÑīÑĳ
ĠÐ¿ÑĢ Ð¾Ðº
Ġco i
Ġre te
ag as
ste llen
Ġacc Ã¨s
ĠR ad
ar as
h au
Ġmar que
è² ¡å¸ĥ
èĲ½ ãģ¡
Ġpo ints
f y
ĠÐ¿ÑĢ Ð¸ÑĢ
Ġt á»Ļc
Ġm áº¡ch
ãģĮ å¤ļãģĦ
Ġim mobili
Ġa juda
Ġcol umn
ure au
ĠÐ´ ÑĥÑĪ
åĸ Ħ
ri r
ÅĤo Å¼
us zy
äºº ãĤĤ
ĠÑģÑĢ Ð°Ð²
Ġna cional
Ġl Ã©
Ð¾Ð± Ð¾Ð´
pa gn
Ġsc reen
Ñİ Ð·
ĠA ir
Ġsi mi
ĠÑĥ ÑĢ
éļ ľ
ĠMit arbeiter
åĲ Ħ
Ġt etas
rÃª t
i ti
ĠS co
in en
Ġpas ser
ĠÑĢ Ð°Ð´Ð¸
at re
Ġ( );
ĠÑĤÐ°Ðº Ð¸Ñħ
Ġorgani zza
ĠãĤ ²
Ñį Ð½
cz ony
Ð¾Ð¼ Ð½
Ġeff ica
ĭ èŃ·
Ġmani f
Å¼ czy
Ġï½ ¤
Ġkom pu
b lick
graf ÃŃa
j am
ĠSt Ã¼ck
Ġï¼ Ķ
ĠD ob
Ð¾Ð²Ð°Ð½ Ð¸Ð¸
ĠSta te
ĠÑģÐ»ÐµÐ´ ÑĥÐµÑĤ
ĠWor ld
ĠÐºÐ°Ðº Ð¾Ð¹
tica lly
in os
Ġseg n
er ten
Ġzd jÄĻ
Ġä¸ĸ çķĮ
ÐµÐ¹ ÑĤ
ãģĦãģŁ ãģłãģĳ
Ġbook s
Ġdej ar
Ġcurr ently
Ġcan tidad
ãģ®æ µ
vi li
for me
ÑģÐ» ÑĥÐ¶
Ġh áº¡ng
Ãĵ ÃĲ
ãĥĥ ãĥĳ
Ðķ ÐĿ
Ġåį ĺ
ãĥ© ãĥĥãĤ¯
Ð¾ÑĢ Ð¾Ð½
ãģ« ãģĻãĤĭ
inh os
æ³ ¢
s ing
Ġedu cation
Ġtreat ment
ĠGr Ã¶ÃŁe
ĠT T
ä½ľ ãĤĬ
éĥ¨ å±ĭ
Ġas sez
Ġconte Ãº
Ġiden tif
Ġpar ole
w elt
ĠÑį Ð»ÐµÐ¼
ĠP RO
te zza
ber eich
re ad
ï¼ °
ãĥ³ãĤ° ãĥ«
Ġmas z
Ġsta gione
Ġh ommes
Ġsen so
Ġes erci
Ġ ă
éĸĵ ãģ«
æ¯ į
Ġsoll ten
ãģĮ å¿ħè¦ģ
Ġou til
çħ §
Ġel em
ãģ¨ ãģĻãĤĭ
ĠQ U
Ġtr Ãºc
ãģļ ãģ«
at Ã©g
Ġir gend
Ġna p
titui Ã§Ã£o
Ġpriva te
Ġli mp
ert ura
Ġdisp osi
ĠUnivers idade
ĠÐ±Ñĭ ÑģÑĤÑĢÐ¾
ĠNov ember
Ġcu ar
ĠT áºŃp
ze ug
ĠS ac
Ġcon tain
Ġswo jÄħ
Ġposi zione
ç¸ Ħ
Ġå¯ ¾
Ġproduk tu
Ġk ateg
ãģķ ãģ¾
ien da
ora tion
Ġæĺ ¨
Ġch iáº¿u
Ġrep la
ĠPier re
ĠÑįÐ»ÐµÐºÑĤÑĢ Ð¾Ð½
ĠÑģÐ¼Ð¾ÑĤÑĢ ÐµÑĤÑĮ
Ġo cur
Ġn owe
ryw at
k ra
Ġis n
ui z
Ġeuro pÃ©
ĠmoÅ¼liwo ÅĽci
Ġdz is
Ġ4 2
Ġver sion
Ġcas os
Ġ2017 å¹´
Ġtr ying
b n
Ġg ol
Ġt ek
Ġr ole
ĠÐ¾Ñģ Ð½
an ced
Ġinforma cje
ĠlÃ¤s st
w ers
Ġex ci
ĠPh Ã³
Ñĩ Ð¸Ð²
Ġni ce
Ġtri tur
Ġins urance
is tÃ©rio
on se
Ġtro ppo
Ġau ÃŁer
Ġbu ilt
ä¸ ¦
ĠÐŁ Ð¾Ðº
Ġ... .
Ġdisponi bili
ĠpaÅºdzier nika
es ar
å¯ Ł
ĠN etz
ãĥĢ ãĤ¤
Ġval uta
Ġchar ge
Ġgrow th
ad za
Ġpow ierzch
Ġn one
Ð³ÑĢ Ð¾Ð¼
Ġé ¢¨
Ġins titu
ĠçĦ¡ æĸĻ
Ġcar at
Ġco in
Ġå¹ ħ
Ġv Ã£o
lich es
çĦ¡ ãģĦ
Ġp ien
Ġk áº»
Ð¢ Ðŀ
Ġnov as
Ġm iá»ĩng
f ace
Ġass ol
Ġderni Ã¨re
ĠDes nu
Ġaddi tional
u p
Ġcar ro
Ġãĥķ ãĤ©
Ġnecess Ã¡rio
Ġlegg ere
Ġpar ten
Ġr uch
Ð°Ð½Ð´ Ð°ÑĢÑĤ
Ġgr ad
n osi
s ko
Ġsais on
ãģ«ãģ¨ ãģ£ãģ¦
ĠTh Æ°Æ¡ng
Ġac er
men taire
é¤ Ĭ
ĠseÃ± al
ĠÐ° ÑĤ
Ð¾Ð± ÑīÐµ
Ġtr ao
ÅĤu gi
Ġçī¹ ãģ«
Ġd Ã¨s
ãĤ·ãĥ£ ãĥĦ
Ġlle var
Ġdi pen
Ġorigin al
Ġeasi ly
ÑĢ ÐµÐ·
Ġæĸ ĩ
ig lie
Ġsk le
ue llement
Ġacc ording
ĠÐ·Ð°Ð± Ð¾Ð»ÐµÐ²
x ic
Ðķ Ðł
ãĥ¬ ãĥĥãĤ¯ãĤ¹
ĠZa hl
Ġre li
men taÃ§Ã£o
Ġpro jects
Ð¸Ðº Ð°Ð½
Ġac tion
ĠCh a
Ġ033351 7
ed or
Ġinte gra
Ġad el
Ñı Ð¼Ð¸
ĠÐºÐ½Ð¸ Ð³
ĠC Æ¡
cj ach
ÑĬ ÐµÐ¼
bi era
ĠÐŀ Ð½Ð¸
fica Ã§Ã£o
it es
Ġlo kali
ĠR od
den za
Ġe vid
Ġesc re
Ġpo tra
Ġac ess
Ġuns eren
ĠCh ris
ĠAr gentina
ĠS ar
ãģ¯ ãģĬ
Ð¸Ð½ ÐºÐ¸
li g
ĠÐ´ÐµÐº Ð°Ð±
Ã³w no
áº¹ n
Ġlu ce
ãģĺ ãĤģ
ĠIn f
Ġdos kon
Ġèī ²
Ġjour nÃ©e
Ġï¼ ķ
Ã³w ki
g Ãºn
Ġt un
Ġin tr
åĭķ çĶ»
Ġdri ve
åıİ ç´į
æ¬² ãģĹãģĦ
Ġtr ak
ĠS pa
le ben
Ġcho ice
ĠDo ch
Ġt aille
Ġ. âĢľ
ĠM r
ãģ®å ¿
ÑĢÐ° ÑĪ
ãĤĤ ãģĤãĤĬãģ¾ãģĻ
ÑģÑĤ Ð°Ð½
ĠAm or
Ã¤ te
Ġ ä¼ļ
ĠMar ÃŃa
Ġhigh er
Ġab aixo
ãĤ¿ ãĥ³
Ġpres enza
Ã¼ t
æ¨ ¡
ä¸Ģ ç·Ĵ
ĠSom mer
Ġpa pel
áº ¬
Ġa z
Ġkl eine
Ġins ide
ĠÃ©qui p
ãĤ³ ãĥ¡ãĥ³ãĥĪ
æ±Ĥ äºº
li car
Ġth Ã©
ĠÐ½ Ð¾Ð³
Ġab s
ãĤī ãģĹ
ÌĢ nh
Ġhel d
ĠS y
Ġwra z
Ġuten ti
ĠÑģÐ²Ð¾ ÐµÐ³Ð¾
Ġw czeÅĽniej
ĠÐŀ Ñĩ
Ð¡ Ð¡
sta tt
Ġhá»ĵ ng
» çĶ¨
ãģ®å £
Ġmayor ÃŃa
ĠÐºÑĢÐ°Ñģ Ð¸Ð²
ĠSil va
S E
ãĤī ãģĭ
å§ Ķ
ķ æĻĤè¨Ī
Ġde pend
Ġãģķ ãĤīãģ«
ãĥ¼ ãģĮ
Ġc ade
ei tet
å¾Į ãģ«
Ġpoten tial
9 8
ãĥŀ ãĥ³
Ġm em
ĠY ork
æ°Ĺ æĮģãģ¡
Ġe cce
æ ĳ
Ġwy na
Ġel se
Ġ5 6
Ġar b
Ġdonn er
Ġmi asta
éĿ ©
æĻĤ ä»£
ĠÐ² ÑĢÐ°Ñĩ
Ġqu attro
ĠTh anks
Ġzosta ÅĤa
à³ Ĩ
Ġtec ni
ĠÐ½Ð°ÑĢ Ð¾Ð´
Ġr Ã¨
ĠÑĢ ÐµÑģ
Ġcu anto
ĠÐ¿ÑĢÐµÐ¿ Ð°ÑĢ
ur re
Ġdes co
ĠJ us
ÐµÐ½ Ð´Ð°
Ġcor ps
ĠBer uf
pati llas
Ġ1 er
ĠÑģÑĤ Ð°Ð»
æľĢ é«ĺ
ĠÑıÐ½ Ð²Ð°ÑĢ
M j
ç º
ĠH Ã¬nh
Ġdere chos
Ġprac tice
Z SI6
al nej
ĠM us
Ġsenti do
j ed
ma i
Ġs mo
Ġzm ieni
Ġper cent
Ġportu gu
n ei
Ð½ Ð¸ÑĤ
ĠCo lle
ĠHol z
Ġbas tante
Ġkil ku
Ġrap id
ĠÐ´Ð¾Ð¿ Ð¾Ð»Ð½Ð¸ÑĤÐµÐ»ÑĮ
å¸ ³
Ġï¿½ï¿½ï¿½ï¿½ ï¿½ï¿½ï¿½ï¿½
Ġmain tenant
å¤ ı
de z
Ġs áº¯p
ĠP ia
ĠC Ã²n
è£½ åĵģ
Ġwan ted
Ġv ais
ĠÐ½ Ð¾Ñĩ
Ð¸ÑĨ Ð¸Ð½
¹ æŀľ
ĠS Ã©
Ġy Ãªn
ĠÐ¿Ð¾Ð´ Ð°ÑĢ
Ġso Ã¡t
u che
ĠLie fer
Ġ ~
b Ã©
Ġsi ano
ĠH all
ĠB este
Ġf ire
éĢģ æĸĻçĦ¡æĸĻ
ãģĭ ãĤĤ
Ġnor ma
ĠÑħ Ð¾Ð·Ñı
am ilie
ĠV enta
ĠÐł ÑĥÑģ
Ġzawi era
ĠN áºµng
åı ¸
ĠR y
ãĥ³ãĤ «
Ġcomp Ã©
ci dos
Ġm iss
Ġstra te
Ġdeter min
ãĥ¼ãĥĩ ãĤ£
ga zione
Ġdiri tto
ĠÐ²Ð½Ð¸Ð¼ Ð°Ð½Ð¸Ðµ
ĠÑģ Ñħ
ãĤŃ ãĥ¥
s ed
Ġsab e
Ġsucc esso
Ġelek tr
Ġzape w
ĠÑĢ Ð¾Ð·
er nen
Ġrun ning
ĠmoÅ¼liwo ÅĽÄĩ
bed ing
:. :.
ĠÐŁÐµÑĤ ÐµÑĢÐ±ÑĥÑĢÐ³
ĠÐ· Ð°ÑģÑĤ
èģ ´
ÑĥÐ»Ñı ÑĤÐ¾ÑĢ
äº¤ æıĽ
Ð¸Ð½ Ð°Ð¼
Ġè ģ
Ġlo i
ÅĤo ÅĽÄĩ
Ġæ ī
ri n
ãĥ´ ãĤ£
Ġparti cular
ĠÐ¼ Ð°Ñı
ow ski
Ġesta mos
ĠåĪ ©
Ġmy ÅĽl
fÃ¼hr ung
Ġama zing
olo gna
Ġpoder Ã¡
Ġnum er
ĠN icht
ÑĢ Ð¸ÑģÑĤ
qu ina
Ã©ri ca
ĠÑģÐ°Ð¹ÑĤ Ð°
Ġcon tacto
Ġéĺ ²
Æ°á»Ŀ n
ï¿ £
ĠGra nd
Ġl inha
Ġpro va
en cy
Ð¾Ð½ ÑĥÑģ
ĠBus ca
Ġkh Ã´
Ġes tÃ©
æ¸ ¯
Ġ2016 å¹´
P A
Ã¨ tres
ÅĤ ÄĻ
ĠNew s
Ġw tedy
Ä© a
Ġodpowie dni
row adzi
Ġri d
Ġbu ona
r Ã³n
Ġdes a
Ġinter i
Ġï¼Ł ãĢį
æ ¿Ģ
ãĤ« ãĥ«
Ġpermi te
ãģĦ ãģ¯
l Ã©s
ti ene
ĠçĽ ´
ãĤĴ åıĹãģĳ
Ġuni vers
ĠNot ÃŃcias
ãģ ¬
Ġg round
Ġmiejs cu
ĠÐ¾ÑĤÐ´ ÐµÐ»ÑĮ
ĠPubblica to
Ġau g
ĠÄĳ ÃŃch
Ġz war
ĠH in
Ð¼ Ð°ÑĤ
Ġprzed stawi
Ġvu ole
Ġcan not
Ġp Ã©
Ġen vi
Ð¸Ð´ Ñĥ
m ini
åĲį çĦ¡ãģĹ
Ġper corso
ĠLe y
ĠVi vo
Ġè ¥¿
Ġazien de
ĠÑģÑĤÐ¾ÑĢ Ð¾Ð½Ñĭ
Ġk Ã¨m
Ġcre dit
Ġqui ere
wi cz
Ð¾ÑĢ ÑĮ
ab an
ãĤĪ ãģĦ
ĠRe p
ber to
ãģĦ ãģ«
Ġcontro llo
Ġk ids
Ġp iÄĻ
stan ce
ĠÃ©ta ient
ĠH Ãłng
Ġsa gen
tor en
Ġnghi Ãªm
ĠpiÃ¨ ces
Ġå ĵģ
ĠÐ¾Ðº Ð¾Ð»Ð¾
ĠÄĲ Æ°á»£c
Ġs we
Ġatten zione
ĠGesch ichte
çª ģ
ãģ®å ·
ej os
ĠÑģ ÑĥÐ±
tÃ³ rio
bb iamo
Ġãĥ Ħ
Ġos i
Ġsu cesso
ĠTor ino
li no
ura ta
Ġat tes
éł Ĩ
ĠãĥĿ ãĤ¤ãĥ³ãĥĪ
Ġsi x
ÑĪ Ð¸Ð±
Ð°Ð½ Ðº
Ġb ianco
ĠDez ember
o p
Ð¾Ð½ Ñĩ
ĠpaÃŃs es
éĸĭ åĤ¬
è¨ ±
ri chten
Ġofre ce
Ġdise Ã±o
Ð² Ð¸Ð½
i ri
ĠPers onen
Ã¶ ne
ck o
ä¼ Ĭ
lich t
ĠS antos
ãĤĴèªŃ ãĤĢ
Ð½Ð¸Ð² ÐµÑĢÑģ
ĠÐ· Ð½Ð°
Ġshow s
Ġser ait
Ġè¿ ĳ
rz ej
Ġlong er
ĠProduk te
ĠJanu ar
Ġi tems
ĠÐº ÑĢÑĥÐ³
Ġmein er
ĠÃ©tu di
Ġkh á»ĳi
and e
ĠG el
Ġeff ici
Ġs od
Ġal um
Ġs Ã»
ĠH Ã´tel
Ġbe kommen
ĠdÃ©b ut
çģ «
Ġima ges
Ġpreced ente
Ġbe hind
ori es
ĠP age
on dere
Ġfe cha
ra Ã§Ã£o
Ġregi on
ĠS neak
Ġri es
Ġob ej
Ġup da
ĠÐĳ Ð¾Ð»ÑĮÑĪ
ĠVá» ģ
g Äħ
Ġsoci ale
ĸ ç¸Ħ
Ġ3 7
Ġter Ã¡
on ato
Ð¿ Ð¸Ð¾Ð½
ĠWi ll
Ġhab ita
Ġt et
Ġfor se
ĠGes und
ãģ®ä¸Ń ãģ§
ÐĽ Ð¬
Ġmode llo
Ġsu á»ĳt
Ġracc ol
Ġ Ï
æ¨ Ļ
ult ur
Ġa cheter
o z
as es
Ġauf ge
wia m
ãĤĵãģ§ ãģĦãĤĭ
æ³ Ĭ
æ´» åĭķ
ãģª ãģ®ãģĭ
ĠPh áº¡m
hr t
Ġallow s
® ®
Ġdes se
ÐºÐ¸ Ð´
Ġc lo
h Ã¶
Ġunser em
m Ã¤ÃŁ
ĠZap atos
k k
Ġg ara
m men
èĢħ ãģĮ
Ġva ÌĢ
ll are
Ġc Ã¡nh
ĠH ola
ĠAl ter
Ġauto m
ĠÑģ Ð¸Ð½
c ting
Ġso y
ãĥĳ ãĥ¼ãĥĪ
Ġ ÅĤad
stan t
ĠIs so
h na
Ġeff etti
Ġcar atteris
Ġm eisten
è¨ º
ĠCh er
u alizza
Ġutili sa
Ġrapp orto
ĠB lack
m Ã¶
è¬ Ŀ
Ġop tion
ãģ®ãģ§ ãģĹãĤĩãģĨ
ãĥª ãĥ³ãĤ¯
Ġentr ada
Ġelet tri
ĠFil m
Ġob sÅĤu
Ġzar Ã³wno
ĠÐ¾ÑĤ Ð¼ÐµÑĤ
Ġenviron ment
Ðº Ð¾Ð³Ð¾
Ġacc ord
Ġk iá»ĩm
éĩį è¦ģ
Ġrecei ved
åħ ¸
Ġparte ci
Ġl iste
Ġpar c
ĠÐºÐ¾ÑĤÐ¾ÑĢ Ð¾Ð³Ð¾
us iÃ³n
ĠÐĶ Ð¾Ð±Ð°Ð²
mas ch
ĠAngebo te
Ġtro chÄĻ
Ì£ n
v anti
Ġåı İ
ĠâĢ¦ âĢ¦
Ġsp etta
èĭ ±
ĠSer vice
Ġactiv idad
Ġsch warz
Ġd Ãº
Ġh áº¡t
zi al
ãĥª ãĥĥãĤ¯
Ġterm ine
ãģ£ ãģıãĤĬ
ĠmÃº sica
ĠÐ¿Ð¾Ð·Ð²Ð¾Ð»Ñı ÐµÑĤ
ĠJ ust
ÑĥÐ½ ÐºÑĤ
Ġflo or
Ġgr Ã¶ÃŁ
Ġdes sa
Ġd v
ri Ã¨re
Ġhi zo
zo gen
Ġäº ¬
bier z
Ð¾ÑĤ Ð¸Ð²
ca o
Ġpl u
ĠÐĺ Ð¼
Ġpri s
Ġsie ci
ãĤĤãģ® ãģ§ãģĻ
Ġswo im
pl an
ĠÑĤ Ð²Ð¾ÑĢ
Ġponie waÅ¼
Ġcons idera
ĠSel bst
Ġw ei
les e
Ġbe find
ĠpelÃŃcul a
Ġtit le
ci ÄĻ
Ġt áº¯c
Ġlu z
Ġeuro pe
am enta
Ġgener ale
ÑģÐº ÑĥÑİ
ç¤¾ ä¼ļ
j ar
Ġcu ore
Ġpa zi
ãĥĥ ãĤº
Ġsal a
Ġhai r
Ġb áº§u
Ġsto p
ĠAu tor
Ġprogram me
ĠÂ· Â¢
Ġex act
wh ere
U L
ĠN A
ĠK re
ãģªãĤī ãģªãģĦ
åħĪ çĶŁ
è©ķ ä¾¡
Ġaseg ur
ĠÐ¿Ð¾Ð´ ÑħÐ¾Ð´
ĠÐ§ ÐµÑĢ
nde z
ĠÐĴÐ»Ð°Ð´ Ð¸Ð¼
Ġnaj wiÄĻk
Ġsier pnia
Ġph áºŃn
Ġpri mi
Ġt Ãªte
ar s
ente mente
Ġf ail
Ġind ic
æĸ½ è¨Ń
ĠÑĩÐ°Ñģ Ð¾Ð²
Ġh áº¡nh
w ki
ĠÐĲÐ½ Ð´
ĠSch uhe
m ette
Ã©d ia
oma ine
Ġprogram s
Ġz g
ĠdÃ© tail
Ġ' ).
ĠgÃ³ i
Ġmar keting
Ġde por
Ġad ministra
Ġespa ce
ĠÐ¼ Ð°ÑģÑĤ
ON I
iss ent
re g
Ġklas y
ĠÃ ¿
k us
æĦı åĳ³
æĿ± äº¬
ĠS ystem
Ġal unos
ãģ¯ ãĤĬ
Ġsch ed
ys is
Ġapo io
ĠA R
ĠC las
ty czne
ãģĬ ãģĻãģĻãĤģ
ĠF rÃ¼h
Ġse k
ui Ã§Ã£o
Ġdeix ar
ĠÑģÐ¾Ð² ÐµÑĤ
Ġpom ys
is o
Ġre kl
Ð¼ Ð°ÑĤÑĢ
Ġso ciedade
è¨ İ
ãĥª ãĤ¹ãĥĪ
ĠCar los
ĠÐ¢Ð°Ðº Ð¶Ðµ
ĠÐ²ÑĭÐ¿ ÑĥÑģÐº
Ġg utschein
Ġmiesz kaÅĦ
Ġãģ µ
ÑĢÑĥ ÑĤ
Ġof ert
åĮ ħ
ĠW inter
ĠPub liÃ©
Ġch ce
Ġwor th
ento u
Ġme to
ĠSp ie
Ġinforma Ã§Ã£o
ĠÑĤÐµÐ¿ ÐµÑĢÑĮ
ĠZ obacz
ķı é¡Į
Ġvarie ty
Ġc r
ra te
ÐµÑħ Ð°Ð½
ĠåĲ Ħ
Ġc á»Ń
Ġweek s
Ġde vant
Ġæ¨ ª
ãĤı ãģªãģĦ
Ġm á»ĳi
ĠÐ² ÐµÑģÑĮ
ĠÐºÐ» ÑĥÐ±
Ġpeti ts
å¯¾ çŃĸ
Ġecon Ã³m
Ġest udio
Ġpa ar
ãĤ·ãĥ§ ãĥĥãĥĹ
Ġa gen
Ġpro pre
Ġsit es
Ġcoment Ã¡rios
Ġpre tty
Ġthá» ¥
Ġd Æ°Æ¡ng
ĠÐ¿Ð¾Ð´ Ð¾Ð±
ĠrÃ³Å¼ nych
Ġmilli ons
ĠC ont
er zy
ven es
Ġcli ck
u ais
Ġoko ÅĤo
Ġnaszy ch
Ġfut uro
Ġpo b
Ġwie ku
it zen
ĠÐļ Ð¾Ð³Ð´Ð°
ãģ«ãģĬ ãģĳãĤĭ
ĠÐ½Ð¸Ðº Ð°Ðº
ĠB lick
Ġso ciedad
ÃĵÃİ Ãı
Ġto ld
Ġen tra
ĠNo tre
Ġrichi esta
Ġæ¥Ń åĭĻ
ĠFeb ru
F F
Ġav uto
Ð°Ð¼ ÐµÐ½
Ġpr eno
Ġar ti
Ġa ire
is simo
Ġents prechen
Ġtr ue
Ġdzi ÅĽ
ĠmoÅ¼ emy
ãĤ¤ ãĥĹ
Ð¼Ð¾ÑĤ ÑĢÐ¾Ð²
Ð°Ðº Ð°
Ġg estÃ£o
è¨ ª
Ġa mer
ãĥģãĤ§ ãĥĥãĤ¯
us ed
Ġprodu ction
Ġactiv itÃ©s
Ġavali aÃ§Ã£o
ĠÎ Ķ
ĠD ann
ĠÐ¸ÑģÑĤ Ð¾ÑĢ
Ġmani Ã¨re
Ġmie mb
ĠÐ½Ð¸Ñĩ ÐµÐ³Ð¾
P S
M z
ll ent
ĠA M
ĠÐ²Ð½ ÐµÑĪ
Ġgr Ã¡
ĠÑĢÐµÐº Ð»Ð°Ð¼
ci ty
Ġlo go
Ġcomp os
Ġgio ca
ãģĹãģ¦ ãģıãģłãģķãģĦ
æĬ ķç¨¿
Ġtito lo
Ġf ich
ĠG ru
tic amente
ĠÐ¿ÑĢÐ¾Ð´ Ð°Ð¶
ãģŁãģı ãģķãĤĵ
ĠÐļ Ð°ÑĤ
Ġvid Ã©o
Ġsimil ar
åº Ń
ĠÐ³ ÑĢÐ°Ð½
Ġad res
ta Äĩ
Ġrais on
ĠÐ½ÐµÐ± Ð¾Ð»ÑĮÑĪ
Ġpozw ala
9 4
ĠE T
ãģ¾ ãģ£ãģŁ
Ġpl ais
f el
ĠB lan
ĠÐ¿ÑĢÐ¾Ð³ÑĢÐ°Ð¼ Ð¼
ĠÐ²ÐµÐ´ ÑĮ
Ġfe vereiro
vili on
Ġd á»¯
Ġme ta
Ġpu li
Ġinclud ed
ÐµÐ» Ðµ
Ġha ciendo
temp s
Ġvá» ¯
di co
ãģ® ãģĵãģ¨
n ent
ĠÄĲ áº·c
Ġapp ly
Ġlo gr
az zo
ĠÑģÐµÑĢ Ð²
ĠÐ²Ð¾Ð´ Ñĭ
Ġde c
ier i
sa gem
tag on
fÃ¼hr t
Ġlu tego
ĠC itas
ĠJue gos
ter os
Ġm Ã¡t
Ġ7 5
is tem
ĠÐ± ÑĥÐº
æĤ ©
tiv idade
Ġzrobi Äĩ
ĠÐ¼ Ð°ÐºÑģÐ¸Ð¼
Ġt á»§
ĠH Ã¡
ĠB ay
ĠÐ¸Ð³ ÑĢÐ°
ĠÐ¸ÑģÐº Ð»ÑİÑĩ
ãģ®åĲ į
b are
ãģ¤ ãģĭ
ĠÑĤ ÑĥÑĤ
Ġæľ Ŀ
ãģª ãĤĬ
Ġzakres ie
Ġje unes
ĠA tu
ff t
åį ³
Ġread ing
Ġappar tamento
Ã¨ te
Ġ> <
ĠE very
n al
na hmen
Ġlo cation
Ð¾Ð´Ð°ÑĢ Ñı
Ġho teles
Ġam Ã©li
Ġaller dings
meld ung
wie k
Ġac ce
r Ã£o
a go
éģİ ãģİ
Ġsen si
ãģŀ ãĤĮ
Ġuwa gÄĻ
D E
Ġz im
Ġdzie w
Ġtrav ai
ĠLu áºŃt
ãĤ ħ
vis o
ien ce
Ġéĸ ĭ
ĠEin satz
ĠGen eral
ĠÎĶ E
ãĥŀ ãĥĥãĥĪ
Ġãĥķ ãĤ§
ĠD at
Ġwyk orzysta
ĠV ila
kow ej
Ġsa ve
Ġd á»ĭ
ãģ¨ãģª ãĤĬãģ¾ãģĻ
Ġag it
ĠçĶ· æĢ§
ĠCh u
ĠK Ã¶
ĠGi áº£i
ãĥĽ ãĥ¼ãĥł
Ġmat er
Ġri p
Ġoffer ta
Ġcontr ole
Ġãģ¡ ãĤĩãģ£ãģ¨
Ġ `
P T
Ðµ Ñı
ĠÐĴ Ð¾ÑĤ
wa gen
ĠÐ¿ÑĢÐ¸ ÑĪ
Ð»ÐµÐ½ Ð¸ÐµÐ¼
Ġc um
Ġå¸ Ĥ
ĠÑģÑĢ Ð¾Ðº
ar ÃŃa
Ġpreci so
è¦ĭ ãģ¦
ĠCom me
ĠprÃ³pri o
tre ten
ti me
ĠPh áº§n
ãĥ¼ ãĤĴ
ĠVer gleich
ĠÐ²Ð¾Ð» Ð¾Ñģ
ĠTele f
ĠÑģÐ²Ð¾ Ð¸Ð¼Ð¸
2 7
sa je
Ġter c
Ã¤ nge
Ġch á»£
Ġpro v
ĠPri ma
Ġto m
Ġajud ar
Ġ9 5
Ġmod er
ĠÃĸ ÃĲ
ãĥ³ãĥĨ ãĤ£
Ġpierw szy
å¤ ®
çļĦ ãģ«ãģ¯
Ġb á»ģn
Ġinter net
ĠW issen
Ġal gÃºn
Ġulti mi
Æ°á» ¡ng
Ġcondi ciones
b ec
Ġr ound
fica ciÃ³n
ĠÐŁÐ¾ ÑįÑĤÐ¾Ð¼Ñĥ
ĠÑģÑĤ Ð°ÑĤ
åĽ °
Ġnot te
Ġpo chi
ĠC ris
Ġak tyw
Ġlat est
ĠMin uten
Ġfunk cjon
Ð°ÑİÑī Ð¸Ð¹
ĠÐºÐ¾Ð¼Ð¿ Ð°Ð½Ð¸Ñı
Ġwy ÅĤÄħ
ĠÑĢÐ°Ð¹ Ð¾Ð½
Ġedi Ã§Ã£o
Ġæµ· å¤ĸ
Ġeig entlich
ĠPa vilion
Ġr ue
Ġrec ent
Ġup on
Ġ{ "
ĠÐŃ ÑĤ
ãĥ¯ ãĥ¼ãĤ¯
Ġe fek
Ġimmag ini
ĠÐ¡Ð¾ Ð¾Ð±Ñī
Ġje ux
cz ona
ĠpÃºb lic
ĠÐ» Ð¸ÑģÑĤ
Ġpr Ãª
ĠÐ¿ÑĢÐ¾Ð´ ÑĥÐº
Ġprod ut
ĠÐ§ ÑĤÐ¾Ð±Ñĭ
Ġcons id
ĠSec re
te le
ãģ®æ Ī
Ġauto ur
Ġa cep
Ġo grani
ĠTh á»±c
ĠÑĥÑĩ ÐµÐ±
Ãī Ãı
Ġtu ris
ĠdiffÃ©r ents
ĠB ianco
Ġå »
ti dade
ĠÐ°Ð½ Ð³
Ġh inter
ĠÐĲÐ² ÑĤÐ¾ÑĢ
Ġelet tr
Ġmateri als
ĠProble m
ĠÑĤ Ð¾ÑĤ
{ \"
Ð¸Ð± Ð¾Ð»ÐµÐµ
Z Y
Ġm ail
ĠD on
AN O
Ġg rid
Ġsprzed a
Ġaggior n
Ġh y
_ id
Ġgi Ã³
ĠÃĤ u
Ġb Ãły
çĽ ¤
ãģ»ãģĨ ãģĮ
Ġåģ ½çī©
ãģĭãĤī ãģ®
Ġkom ple
ÅĦ skiego
ĠÐ½Ð°Ð· Ð½Ð°Ñĩ
ĠDes car
Ġactiv itÃ©
Ġh on
ĠsÃ© jour
ĠÐ²Ðº ÑĥÑģ
ãĤ¸ ãĥįãĤ¹
v r
ĠM ich
ĠÑĥ Ð¶
Ġcol ec
Ġcli ent
at Ã©
Ġmater iaÅĤ
lei chen
Ġcons om
ÑĦ Ð¸Ðº
ĠãĤ³ ãĥ¡ãĥ³ãĥĪ
Ġzd ecyd
ĠS Ãłi
za Ã§Ãµes
ĠE U
Ġsitua zione
Ġèµ ¤
Ġzak oÅĦ
g Ã³w
ĠÐ¿Ð» Ð°ÑģÑĤ
rei fen
æ¤ľ ç´¢
Ġfinan ci
Ġâ Ķ
Ð¸Ñģ Ð°
abili dad
ĠP ie
ĠÐ¿Ð¾Ð» Ð½Ð¾ÑģÑĤÑĮÑİ
ĠT re
ÑģÑĤÐ² Ñĥ
Ġans wer
Ġag rÃ©
Ġord ine
Ġex cel
Ġpros tu
æ³¨ æĦı
ãģ¯ ãģĵãģ¡ãĤī
ĠÐ±Ñİ Ð´Ð¶
Æ ł
ur ar
ĠÑĤ Ð°Ð±
Ġes sen
ĠAb s
ĠprÃ³pri a
Ġcl aro
Ġlang u
h ung
ãģ®æ ´
Ġprovid ing
è¬ Ľ
ãģĬ é¡ĺãģĦ
Ġes os
ãĥª ãĥ³
Ġc la
èª ²
kow ego
Ġbo ard
ĠÐ¼ÐµÐ½ ÐµÐµ
is tir
Ġkier ow
Ġem er
ĠTr Ãªn
çĻº è¡¨
Ġri ch
ĠT á»ķ
Ġto mar
Ġcon sen
Ġtra vers
a a
ĠT á»Ń
ĠGi or
Ġãĥĸ ãĥ«
Ġp uoi
sch lieÃŁ
Ġacc eso
d or
Ġng Å©
ring en
to waÄĩ
ĠIhr er
Ġa gu
å¡Ĺ è£ħ
ĠÐĺ ÑģÑĤ
ĠRe al
ĠÐ´Ð¾Ð» Ð³
Ġmer ci
Ġsitu ation
Ġcompu ter
Ġqu Ãł
ĠB ien
Ġpl at
ge hen
ĠÐº ÑĥÑħ
Ġv Ã¡rias
Ġwym aga
ĠNe lla
Âº Ãį
Ġcondi Ã§Ãµes
+ []
Ġjo gos
Ð¸ÑĢ Ð°
ĠFer na
éĿ Ĵ
Ġcor az
stan te
Ġunter schied
ãģĤãĤĬãģĮ ãģ¨ãģĨ
Ġs Ãłn
Ġes ses
åĽ Ľ
Ð» ÐµÐ¶
osi to
Ġrem ember
Ġd áº§n
ĠS po
Ġkon f
ĠÐ¸Ð½ÑĦÐ¾ÑĢÐ¼ Ð°ÑĨÐ¸Ð¸
ĠÐ¶Ð¸Ð² Ð¾ÑĤ
Ġæ Ľ
Ġb iÃªn
Ġt uyÃªn
ç«ĭ ãģ¡
Ġfind et
Ġha cen
Ġvi v
ç¹ Ķ
ĠÑĩÐ¸Ñģ Ð»Ðµ
ĠÃ©ta blis
ig dy
ĠãĤ¯ ãĥ©
Â² Â»
Ġex cl
Ġkto ÅĽ
ber t
ĠV áºŃy
Ġconhe cimento
ç Ŀ
Ġs le
æĮ ¯
ĠE cco
Ġamer ic
p on
Ġpos sa
g ing
Ġk i
Ġï¼ ľ
ĠÑħ Ð¾Ð´
ãģĦãģŁ ãģĦ
ĠÐĿ Ð°ÑĪ
Ġæĸ Ļ
emb res
ĠãĤ·ãĥ£ ãĥįãĥ«
ĠÑĢ Ð°Ð¼
ãĤ· ãĤ¢
ãģ®è© ±
nh os
ĠT om
Ġcon to
tan cia
k an
c teurs
ĠÐ¿ÑĢÐ¸ Ð³
ĠB á»ĩnh
Ġgu ide
Ġpen se
Ġmess age
î Ģ
Ġhá» ©
Ġher m
Ġsub s
czÄĻ ÅĽcie
ĠÑĥÑģÐ»Ð¾Ð² Ð¸ÑıÑħ
Ġpurch ase
Ġdo or
Ðº Ð°Ð¼
è« ĭ
Ġpu esto
Ġszyb ko
Ġima gem
Ġvo i
ĠW sp
hn t
id es
Ġle ave
ĠãĤĪ ãĤĬ
ãģ¤ ãģ®
owi ad
ĠS on
ĠÃºlti ma
ĠFrances co
ĠÑĢ Ð¾ÑģÑĤ
ãĥ³ãĥ ĵ
Ð¾ÑĢ Ð¾ÑĤ
Ġch ambres
Ð¾Ð» ÐµÑĤ
ĠTh en
cz ym
Ġcomp rom
ĠRa um
Ġbar celona
Ġw ish
Ġmain tain
Ġje une
ÑĭÑĪ Ð»ÐµÐ½
Ġresp ecto
Ġnhi Ãªu
ĠKom m
ĠG eral
ĠtÃ¹ y
z us
ard ia
ÐµÑĢ Ð¸Ð½
ĠÐĲ Ðº
ĠCon tr
ĠmoÅ¼ esz
Ġng áº¯n
ĠÑĤÐµÐ¼ Ð¿ÐµÑĢ
g aben
ä¸Ģ è¦§
Ġdisp osizione
ein ander
ãĥ« ãĥ¡
Ġpra wa
ãĥĳ ãĥ³
ĠÑĢÐ°Ñģ Ð¿ÑĢ
Ġpop rze
Ġcondi tions
Ġatra k
ĠH D
åħ ļ
ĠÐŁ Ð¾Ñĩ
ĠA f
è§ Ĵ
od a
Ġco cina
Ġwen iger
ĠT Ã¼r
éģ ł
Ð¸ ÑĨÐ¸Ð¸
Ġscon to
ĠåĮĹ æµ·éģĵ
ĠC in
åĪ Ĺ
ĠNh a
Ġter ms
Ġproje k
Ġcri ar
ĠAngebo t
æĽ¿ ãģĪ
Ġkonk urs
Ġpra tique
Ġpass ar
Ġimp act
ãĤĴæĦ Łãģĺ
is ting
Ġall ora
Ġten ÃŃa
ĠFor um
Ġãĥģ ãĤ§
Ġt ÄĻ
ci ni
en ted
ãĥ¢ ãĥ³
Ġseg uro
ãĤ¹ ãĥ¼ãĥĳ
© æŁ»
Ġweb cam
Ð½Ð¸ ÑĨÐ¸Ð¿
i as
ãģĹãģ¦ ãĤĭ
çĽ Ľ
ãģĻ ãģĶ
ãģķãĤĵ ãģ¯
çķ ¥
iss ant
Ġba th
Ġpew no
ĠÑįÐ½ ÐµÑĢÐ³
men tal
Ġme zzo
Ġalgum a
Ġwy glÄħda
Ġdisc uss
Ġtá» ĵ
m Ã©e
Ġpa ci
Ð°Ð´ Ð°
ĠM ost
Ġãģ¾ ãģł
Ġli ves
ar en
ãģı ãģ¨
ãģ®å ĳ
j ahr
æ´ ¥
edi zione
ed ÅĤug
èµ· ãģĵ
ĠW roc
Ġon a
Ġmod ern
ami entos
ĠÐ¼ Ð¾Ñī
Ġç· ¨
Ġfre qu
I T
ÐµÐ½Ð¸Ñı Ñħ
ĠU K
ĠÄĳo Ã¡n
Ġpour rait
ĠJ es
ĠÐŁ Ðŀ
ard ino
èĢĥ ãģĪãĤĭ
çĽ¸ åł´
Ġmat ch
ĠgÃ©nÃ©r al
ĠÐ½Ð¾Ð¼ ÐµÑĢ
ĠÑĢÐµÐ³ Ð¸ÑģÑĤÑĢÐ°ÑĨÐ¸Ð¸
¹ ¿
äº ī
å¹ ¸
çļ Ĩ
ĠM Ã¼
ĠP O
Ġscri tto
Ġacquis to
ĠAr ticolo
Ġi le
Ġl Æ°Æ¡ng
ĠÐ² ÐµÑĩ
ĠMar t
ĠS A
Ġnecess ary
Ġwor ds
ĠÐ¾Ð³ ÑĢÐ°Ð½Ð¸Ñĩ
Ġä»£ å¼ķ
ĠZ wei
Ġfic ou
Ġcent er
Ġï¼ ½
Ġpo za
Åº Äĩ
rz ÄĻd
ĠM edi
Ġstand ard
Ġani m
visi one
ir s
ãĤ¿ ãĥ«
ĠãĥĹ ãĥ©
z ada
Ġstamp a
Ġo chr
I R
Ġc ine
ina ciÃ³n
Ġhis tori
ĠFebru ar
Ã¨ mes
ĠÐŀÐ± Ñī
Ġ? âĢĿ
Ġpare jas
ãĤ¹ãĤ¿ ãĥĥãĥķ
Ġma Ã±ana
ĠZ e
Ġsie ht
ĠgÅĤ os
Ġdescar gar
ĠSch w
ali ng
ãĥĹ ãĥ©
ĠÑģÑĢÐ°Ð² Ð½
zi ÄĻ
ri ca
é Ĭ
or en
pp s
s ku
ĠÑģ ÐµÐ½ÑĤ
å¯ Ĩ
ui ndo
ãģ«å¯¾ ãģĹãģ¦
wyk le
éģ¸ æĬŀ
ĠO li
ÑĢ Ð¾Ð¹
Ã¤ hlen
ri do
å¼ ģ
Ì£ ng
Ġr á»Ńa
ĠÑģÑĢÐµÐ´ ÑģÑĤÐ²Ð°
ĠsÃ© lection
ĠÐľ Ð°ÑĤ
ãģ© ãģĵ
ig ne
Ġconstru Ã§Ã£o
Ġæ¥½ å¤©
Ã¡ genes
ãĤ¨ ãĥĥãĥĪ
Ð¸ÑĨ Ðµ
Ġvia je
er ÃŃo
Ġde mais
ĠÐ²Ð½ÑĥÑĤÑĢ ÐµÐ½
ti ne
Ġc uy
ĠO f
á»§ ng
Ã¤nd er
ĠRa hmen
pri se
ãĤ» ãĥ³ãĤ¿ãĥ¼
Ã³ venes
ĠN Ã¤
Ġc ob
Ġli re
ĠÑģÑĤ Ð°Ð½Ð¾Ð²
ĠT Ã¬m
Ġa bility
ĠWa hl
Ġot war
Ġprzed siÄĻbior
ÅĤ ki
bi Ã³
ĠÐ°Ð½ ÑĤ
Ġlow er
Ġe dad
Ġcom pa
gne t
ÑĭÐ² Ð°ÐµÐ¼
Ġçµ Į
æ ¤
zi r
Ġfor za
Ã¤ ts
c enza
ĠÐ»ÑİÐ± Ð¾Ð¹
Ġtr á»ĵng
çĲĨ çĶ±
Ġcarac ter
Ġb al
æķ µ
uch a
b esch
ran co
Ġpas sen
Ġf ig
dzi Äĩ
iss ement
tiva li
ĠÐ¸Ð½ ÑĦ
Ġfin ale
Ġri ferimento
Ġs un
Ġho Ãłng
ux e
vo id
ras es
ĠÄĳ áº¥y
Ġmedi os
ÃŃ da
ti mento
ĠÐºÐ¾ÑĢ Ð¿
ĠQu alitÃ¤t
Ĭ ¶
Æ°á»£ u
ãģ®æ İ
Ġag re
ci ali
ãĤ« ãĥ©ãĥ¼
vol ution
ä¿Ŀ è¨¼
Ġv arias
Ġty pes
Ġé §
Ð»ÐµÐ½ Ð¸Ð¹
èĢħ ãģ®
ÑĥÐ½ Ð´
mis sione
Ġent wick
ĠÑħÐ¾ÑĤ Ñı
Ġfo ot
ãģ§ãģĻ ãģĹ
Ġhat ten
gen za
Ġres t
eri co
ĠczÄĻ ÅĽÄĩ
Ġestu do
Ġvá»¯ ng
S A
á»© t
æķ £
ĠQ uy
Ġwork ed
è¼ ª
ĠSt unden
Ġu kÅĤad
Ã« l
ĠL eia
sta dt
Ġequip ment
wie l
Ġpre zent
ãĥ¼ ãĥ¼
RI A
ĠÐ°Ð½ Ð°Ð»Ð¸Ð·
Ġquien es
Ġgem eins
Ð°Ð¼ Ð¿
anh Ã£
ä¹ Ŀ
al noÅĽÄĩ
os si
Ġlead ers
Ġcontin ua
ĠvÃŃde o
Ġper d
ĠM ore
ĠÐµ Ñĳ
ĠQ uel
çĭ ¬
Ġsag t
Ġpro vincia
Ã® t
ĠÐ¾Ð±ÑĢÐ°Ð· Ð¾Ð²Ð°Ð½Ð¸Ñı
us ion
Ġmaior ia
Ġkl einen
Ġcondi tion
ĠA ctu
Ġè Ĭ±
Ġquick ly
c 2
åĲ Ľ
Ġt enta
am in
jÄħc ym
ãĤı ãĤĮ
Ġs ede
ar u
Ġand are
ca ch
a tive
h ing
Ġth áº§y
Ġk einen
çĻ» åł´
Ġkom uni
Ã¡ r
v olo
ĠÐ¿Ð¾Ð´ ÑĤ
ãģ¾ ãģĦ
tiv idad
ãģ£ãģ± ãĤĬ
Ġãĥ ¤
Ð»Ñı ÐµÐ¼
ari co
cz ba
ĠÐļÑĢ Ð¾Ð¼Ðµ
Ġp rywat
ĠÐ¿Ð¾Ð» ÐµÐ·
ad es
ĠT á»
Ġmu ita
ï¼ Ń
ann ten
å° Ħ
ÌĢ u
Ġsa fe
Ġem b
ãģ£ ãģ¡ãĤĥ
ÅĤ asz
Ġgh áº¿
le o
Ġt Ã¡i
ĠÑĦÐ¸Ð»ÑĮ Ð¼
es ts
çŃ ĭ
ĠCent er
Ġde p
ĠS ter
Ġpar la
Ġhe a
id en
Ġgi lt
ãĥĥãĥĶ ãĥ³ãĤ°
äºº ãģ«
cie m
Ã© tri
pe lli
ĠCoun ty
Ġas es
ãģĭãĤī ãģ¯
Ġk Ã©m
Ðļ ÐĲ
ĠÐ¸ÑģÐ¿ Ð¾Ð»Ð½
Ġt Ãºi
ĠÑĥÐ¿ÑĢÐ°Ð² Ð»ÐµÐ½Ð¸Ñı
Ġh it
åł Ĥ
ĠÐºÐ¾ÑĤÐ¾ÑĢ Ð¾Ðµ
Ġstu di
Ġa ider
ĠÐºÐ°ÑĤ ÐµÐ³
ĠÐļ Ð¸ÐµÐ²
ous se
ĠÐ² ÑħÐ¾Ð´
ãģ®è ĩª
ĠÐ¾Ð´ Ð½Ð¾Ð³Ð¾
Ġ ä½ĵ
ĠãĤª ãĥ³
Ġza war
Ġutili zzo
Ġneces ario
ÐµÑģÑĤ ÑĮ
Ġpa ese
Ġâĸ ¼
Ġd Ã¼r
Ġpers Ã¶n
Ġzas tos
ĠS iste
ÑĮ ÑĤÐµ
ĠÑĢÐµÐ±ÐµÐ½ ÐºÐ°
ĠT ous
Ġpue do
Ġkom ent
ä¾¿ åĪ©
ĠÐ¼ Ð°ÑĢÑĤÐ°
ĠÑĤÐµÐ»ÐµÑĦ Ð¾Ð½
ĠÐ± Ð¾
Ġå® ļ
is cono
Ġg ab
Ġhas t
ĠÐ·Ð°Ð¿ Ð¸Ñģ
ĠBar dzo
ĠdziaÅĤ ania
ãģ®ãģ§ ãģ¯ãģªãģĦ
wy czaj
ï½ °
ĠD z
ĠAr chi
Ġmol te
Ġzas ad
Ġp le
ĠÂ¹ Â«
ĠkaÅ¼de go
Ð¾Ðº Ð¾
æ³¨ æĸĩ
Ġtool s
ĠÐ²Ñĭ ÑģÑĤÑĥÐ¿
ĠÃ¡ reas
æ³ ī
Ġann oun
r end
Ġrze cz
Ġge b
Ġkh uyáº¿n
Ġusu arios
ki er
k es
Ġl eicht
ĠÐķÐ² ÑĢÐ¾Ð¿
Ġcos ts
Ġs Ã³ng
Ġt ur
Ġe venti
ĠAh ora
ÐµÐ´ Ð¶
c ano
Ġ4 1
å¯ º
Ġfe ed
ãĤĪ ãģ³
Ġ} ,"
ĠPl ay
Ġmi esiÄĻ
ĠT Ã¬nh
Ġa Ã±
Ġspe ed
ĠÐ¾ÑĤ ÐºÐ°Ð·
Ġï¼ ĭ
Ġn inh
t ario
ĠÑģÐ°Ð¼ ÑĭÑħ
ãģĭãģª ãģĭ
Ġãĥ© ãĤ¤
Ġcli ente
Ġhay a
ĠÐ¿ÑĢÐ°Ð² Ð¾
Ġfr onte
Ġtrai tement
ĠÐłÐ¾ÑģÑģÐ¸Ð¹ ÑģÐºÐ¾Ð¹
ĠV a
Ã¥ÃħÃĨ ÃĵÃİÃı
Ġon es
Ġwy jÄħ
ama Ã±o
ĠC ena
ĠÐ¾ÑĤ Ðº
Ġauth or
Ġk Ã¼
Ð¾Ð¼ Ð¸Ð½
Ġany one
Ġx áº¥u
m als
cch io
Ġay ant
ĠciÄĻ Å¼
lis is
ĠWeiter e
ĠÄĳá» «ng
æĬĢ è¡ĵ
uf e
Ġdzi en
Ġsupp or
ãĤĴ åıĹ
T h
Ġt Ã¤
tto m
ãĥĥ ãĤ¸
Ġm Æ°a
Ġno thing
ĠÑĤ Ð¾Ð³Ð´Ð°
ci ÄħÅ¼
çµĤ ãĤı
Ġrece be
Ġswo jej
ĠrÃ©sul tats
sch nitt
Ġch á»¥p
os es
ĠÄĲ Ã³
hal t
ri to
ves ti
æ¸ ¡
Ġog rod
Ġlead ing
t ka
Ġh uyáº¿t
Ã© ctri
ĠÑĤÐµÑĢÑĢÐ¸ÑĤ Ð¾ÑĢÐ¸Ð¸
ter o
ĠÐ³Ð¾ÑĢÐ¾Ð´ Ðµ
ĠÐ³ ÑĢÑĥÐ·
ĠL Ã¶s
ĠPart ner
Ġcre are
ãģ£ãģ¦ ãģĹãģ¾
Ġneces ita
ĠÑĦ ÐµÐ²ÑĢ
x y
ĠP om
ĠV ente
ĠãĤµ ãĥŀ
Ġau tant
ĠWo j
ĠÐ¡ ÑĢÐµÐ´
ĠÐ½ÐµÐ¿ ÑĢ
** **
Ġu00 3
Ġal guien
ĠÐ² ÑģÑı
ĠÄĲ áº¿n
Ġg áº¯n
Ġimpro ve
ĠÑģÑĤ ÑĢÐ°Ñħ
Ġjed nym
ĠÐ¸Ð½ ÑĤ
ĠÐ¿ÑĢ Ð¸Ð·
èµ ¤
ĠEs c
Ġcin co
Ph one
ter Ãł
ãĥī ãĥ©
ĠÐ´Ð°Ð½ Ð½ÑĭÑħ
u ction
Ġch uyáº¿n
Ġse cre
Ġseem s
ĠJes us
6 5
ch u
Ð¾Ñĩ Ð½Ð¸Ðº
e urs
Ġen tro
Ġcon ven
Ġin ner
ĠåĪ Ĩ
Ġ2018 å¹´
ĠFar be
ãģ®è £
ĠSta tes
vre z
ĠÐ£ÐºÑĢÐ° Ð¸Ð½Ñĭ
Ġcier to
ĠPA RA
Ġi Å¼
Ġrec ently
Ġre pres
ĠV eja
Ġb ir
ĠS ob
çĽ Ĭ
ĠP ros
ad amente
Ġcou ple
ÑĪ Ð¸Ñħ
åı¯ æĦĽ
ĠÑĤ ÐµÑĩÐµÐ½Ð¸Ðµ
Ġmateri al
Ġra zy
Ġje wei
Ġt anti
ĠPar k
D AD
éĸĭ å§ĭ
Ġsom ente
ĠFir enze
ĠS inh
æĹ ¶
lis mo
stan cia
liÃ¨re ment
Ġdir eitos
gra fi
ĠCÃ¢m ara
Ð°ÑĢ Ð´
rei a
ia j
çĻº çĶŁ
Ġmed ical
ä¿Ŀ éĻº
k unft
Ġwy posaÅ¼
Ġpre ved
Ĥ Þ°
ĠÐ²Ñĭ ÑĪ
Ġvá» Ŀi
un cio
Ð¾Ð² Ð¾
ĠTod o
âĺ Ĩ
Ġde ben
ãģ£ãģ¦ ãģĦ
Ġen tanto
ĠÐ¼Ð¸ÑĢ Ð°
Ġá»§ y
ãĥķ ãĥ«
lo go
ĠW ert
Ġt own
ĠÐ¾Ð¿ ÑĤ
ÐµÑĨ ÐµÐ¿
Ġpol ec
é ®®
3 æĹ¥
Ġso f
Ġla ÌĢ
Ð»Ñı ÑİÑĤ
ãĤ¹ ãĤ¹ãĥ¡
tr ie
Ġhá»į a
åĲĳ ãģĳ
ti mo
çĲĨ è§£
Ĥ Þ°Þ
Ij p
Ġedu caÃ§Ã£o
Ġper chÃ¨
G E
ĠW est
ti d
ãģ§ãģĻ ãģĭãĤī
r are
æıĲ ä¾Ľ
Ġener gia
ĠÐ²Ð¾ Ð¾Ð±ÑīÐµ
Ġg ost
çŁ Ń
ãĥª ãĥĨãĤ£
chs el
Ġch wi
ĠSoft ware
un ek
Ġe qu
Ġwyst ÄĻp
åĿ ĩ
Ã© na
Ġf anno
ori te
ãģĤ ãģªãģŁ
ĠM E
Ġem o
ÅĤo ÅĽ
Ġver g
Ġprincip almente
ĠÐ· Ð½Ð°ÐºÐ¾Ð¼
Ġgo al
Ġsz u
Ġty tu
Ġre almente
æľŁ å¾ħ
Ġpue blo
ª ¨
Ġp iel
rÃ³ b
ĠÐ¸Ð· Ð´ÐµÐ»
ãĥĨ ãĥ¬ãĥĵ
Ġmod Ã¨le
ĠÑħÐ°ÑĢÐ°ÐºÑĤÐµÑĢ Ð¸ÑģÑĤ
á»Ļ p
Ġar ra
ĠD own
è» į
ĠÐ½Ð°ÑĪ ÐµÐ¹
Ð½ Ð¾Ð³
our g
ĠL y
ĠÐ¾ Ð¶
c ales
ta das
te lli
Ġs ong
Ġex tre
ĠÑĤ ÐµÑģÑĤ
ĠL ire
Ġdi mos
Ġbenef its
ĠÐ¤ÐµÐ´ÐµÑĢ Ð°ÑĨÐ¸Ð¸
å¸ ĮæľĽ
Ġdiffic ult
Ð¾Ñĩ Ð½ÑĭÐµ
å¿ «
ãĥĭ ãĥ¡
Ġver sione
çĻº å£²
N 0
ĠH ar
ĠF ami
Ġdi cho
ãģĤ ãģĴ
b ÄĻd
ĠÐ¿ÑĢÐ¾Ð³ÑĢÐ°Ð¼ Ð¼Ñĭ
Ġacom paÃ±
Å Ĵ
tive ly
t Ã¡rio
tico li
ç«ĭ ãģ¦
Ġreco gni
ĠIni cio
Ġes que
Ġsh all
è³ Ģ
lica ciÃ³n
Ġel as
ä¿ º
å± ¤
Ġwarto ÅĽci
Ġchalle ng
ĠG et
ĠÑĢÐ°Ð±Ð¾ÑĤ Ð°
Ġcar ta
Ġquel que
ç´ł æĿĲ
Ġpati ents
Ġs ummer
ãģĵ ãģĵ
Ġcu ad
Ġcon fi
li sch
par tamento
Ġå¿ ħ
çī¹ å¾´
ĠÐ ¹
Ġg Ãł
ro id
ĠT iá»ĥu
Ġãģĵ ãĤĵãģª
åķ Ĩ
Ġw eight
us ement
ra zione
Ġpra wo
Ġsind a
ĠG ame
Ġvi ol
ĠÄĳ áº³ng
Ġsag te
ĠMej or
Ġar gent
Ġkit chen
dzi esz
ĠDe pois
ant wort
ÅĤ ka
Ġle ben
Ġty le
Ġca use
ĠD ank
ze p
mi go
Ġco ok
ori i
Ġop Ã§Ãµes
k osten
ĠMo tor
ãģ®æĸ¹ ãģĮ
æĲ º
____ ____
ĠåŃĲ ä¾Ľ
ie z
Ð¸ÑĤ ÑĢ
d el
ãģ® ãĥŀ
Ã³ t
Ġitali ani
Ġser i
Ġesti lo
Ġein zi
Ġ) :
t ym
Ġacc esso
Ġsol ution
ĠM c
ĠÑģ Ð±
Ġt esta
ĠÐ²Ð¼ÐµÑģÑĤ Ðµ
Ġr Ãłng
Ġtou ch
ĠÑĢÐµÐº Ð¾Ð¼ÐµÐ½Ð´
ni ku
ĠÐĺ Ð²
ĠSp ra
Ġthá» «a
Ġpl ata
c tr
Ġ5 4
Ġso ff
æ´ ĭ
ĠSu che
od zie
ĠT iá»ģn
ff re
ĠH Æ°á»Ľng
Ġsen se
ĠÐ¿Ð¾Ð± ÐµÐ´
ĠÐ¿ÐµÑĢ ÑģÐ¾Ð½
Ð± Ð¸Ð½
si to
Ġa ur
Ð¾Ð» Ð½Ñı
æ¶ ²
Ġaplica ciÃ³n
Ġren cont
Ġm Ã³
Ð¾ÑģÑĤ ÑĢÐ°Ð½
Ġcomp ra
tiv ement
ĠÐ´Ð² Ð¸Ð³
Ġ> >
ĠæĻĤ éĸĵ
ĠæĹ ©
ÑıÑģ Ð½
mon io
ĠD ienst
Ġwind ow
Ġs Ã¡
ĠÑı ÑĢ
Ð¾Ð² Ð°Ð»
Ġid Ã©e
ÅĽwiet l
Ġm embres
e z
Ð¾Ð»ÑĮ Ð½Ð¾
ÐµÐ½ÑĮ ÑĪ
ori as
od i
Ġquar to
Ġer folg
è ´
Ð¼ Ð¾
Ġv Å©
i entes
Ġha via
Ġinter national
orzy st
ĠÐ³ÑĢ Ð½
inter es
ãĥ¼ãĥĭ ãĥ³ãĤ°
ĠH amb
ãĤĴ å®Ł
Ġde vice
Ġå¿ ĥ
Ġm ÃŃ
ĠÑĢ Ð¸Ñģ
Ġne hmen
Ġpr end
Ġaff er
ĠÐ¿ÑĢÐ¸Ñħ Ð¾Ð´
Ġen th
Ġ5 2
ĠK áº¿t
he ad
Ġab ord
h Ã¤lt
ĠProje kt
k ur
ĠJe u
Ġchia ma
f eitura
ĠÑĥÑģÐ» ÑĥÐ³Ð¸
_ c
ĠA G
Ġs ale
d an
Ġåħ ĥ
p reis
Ġpa cka
Ġsquad ra
Ġor mai
Ġé Ł
Ġlook s
cun o
Ġpalab ras
ĠF amilie
l en
on ti
ĠÐ· ÑĢ
ont are
ÑģÑĤÐ²ÐµÐ½ Ð½Ð¾
via to
ĠKÃ¼ che
ãģ®åĨ ħ
Ġch wil
Ġdisf rut
ĠãģĬ ãģĹãĤĥãĤĮ
Ġg or
m are
o cu
Ġman ter
Ġdes cri
Ġpar ts
Ð°Ðº Ð¸
ãĥ©ãĤ¤ ãĥĸ
ĠÐ½Ð¾Ð² ÑĭÐµ
Ġde ep
ni enie
Ġmod i
Ġphoto graph
ĠtÅĤ uma
Ġza interes
ĠC ia
o th
ĠNie der
Ġsui v
ze pt
ĠGiov anni
ãĤ¹ ãĤŃ
Ð¸Ñģ Ð»
Ġnu ll
ĠÑıÐ² Ð»ÑıÑİÑĤÑģÑı
ĠpoczÄħ tku
ĠS us
ÑģÑı ÑĤ
ĠD ay
w Äħ
Ð¾ Ñĥ
Ġp ein
ĠÑĦ Ð°Ð¹
Ġhá»į p
Ġth áº»
Ġå® Į
Ð¸Ð² Ð°Ð½Ð¸Ðµ
Ġdo kÅĤad
schei den
Ġcou leur
Ġzei gt
ĠI o
ĠH al
ãģĤ ãģ£ãģ¦
Ġb all
Ġt war
ĠWo che
z cz
cze ÅĽnie
ĠVer anstal
M O
é į
ĠD io
tÃ© es
ÄĻ ku
ãģ®æ Į
u do
Ġç Ń
Ġesc ola
Ġparti cip
ĠSu per
ĠéĿ Ĵ
ĠTut ti
Ġrius ci
åĲ ¹
ui lle
º å®ļ
Ġpro por
åĬĽ ãĤĴ
ĠR ua
fic ar
ãĥ© ãĥ³ãĥī
Ġcolle ction
ĠÃ©cri t
Ġãĥ ½
è¼ ¸
Ġm Ãª
Ġlevel s
ä¸ ¸
ä¸Ń ãģ«
ĠKh Ã¡ch
æ°Ĺ ãģ«åħ¥
Ġhab lar
Ġè£ ½
ĠÐ¸ÑĤ Ð¾Ð³
Ġcoin vol
ĠS tre
ura ciÃ³n
g les
ĠD etta
R L
cz or
ĠL un
Ġb ain
ĠP es
Ġz oba
Ġlors que
Ġrisch io
§ ĭ
Ġc Ãł
Ġth ang
ĠÂ· Â¨
Ġpass Ã©
os te
Ii wi
Ġk sztaÅĤ
Ġæ ·
Ġbec om
enez uela
ty ka
ĠR esta
Ġsal ute
te llen
ĠGl Ã¼ck
ãģķãĤĮ ãģ¾ãģĻ
is iÃ³n
åŃĺ åľ¨
Ġsod dis
ÑĢ Ð¸
las se
ĠÐ¦ ÐµÐ½Ð°
uch omoÅĽci
ĠãĤ¢ ãĥ¡ãĥªãĤ«
ï¼ ¼
Ġpri se
ĠY Ãªn
Ġt áº¯m
ĠÐ¡ ÐµÑĢÐ³
ĠÐ¿Ð¾Ð´ ÑĢÐ¾Ð±
ĠÃ «
ier te
Ġse ction
Ġsku te
ĠÐ¿ ÑĥÐ½ÐºÑĤ
ĠD ou
l ose
ĠHo y
ĠÐ±Ñĭ ÑģÑĤÑĢ
Ġs ed
Ġex ec
Ġf la
ĠÐºÐ°Ðº Ð¸Ðµ
ĠEs pe
g bar
Ġmad re
ĠÑģÐµÑĢ Ð´
éģ¸ æīĭ
ãĤĴè¦ĭ ãģ¦
Ġin nova
Ġinwes ty
ĠÃ µ
ĠãĤ Ĩ
ĠâĢ ¡
ĠÐ¡ Ð¼
ĠÑģ Ð¾Ð¿
ï¼ĳ ï¼Ĳ
Ġca us
ĠÑĢ Ð°ÑģÐº
ĠÐ¿ Ð°
Ġpo te
Ġc áºŃn
Ð½Ð¸ Ð¶
hi ps
ĠÑģÑĢÐµÐ´ Ð¸
Ġt wor
hand lung
Ġelec tri
ĠQ UE
inn astica
ï¼ ©
ĠG Ã²n
Ġæĺ İ
is tad
ĠÐ¼ÐµÑĢ Ð¾Ð¿ÑĢÐ¸ÑıÑĤ
â Ĩ
or den
Ġwor den
ĠÐĺ ÑģÐ¿
ĠK lei
ãģĽ ãģ¦
ma te
Ġwe gen
¡ çĶ¨
Ġtem pi
Ġutili zar
wier dz
Ġcapa cidad
Ġz aÅĤo
Ġn atura
Ġpoli cy
ĠCons eil
Ġw ody
ĠæĿ±äº¬ éĥ½
Ġlei der
r g
ei as
Ġ; )
æŃ ´
Ġprzed e
Ġve ÃŃcul
Ġconf ir
Ġqu estÃ£o
ĠmÃ© dia
Ġbi znes
ĠS ci
ĠI B
ac ciÃ³n
Ġzosta nie
ĠFo i
Ġedi zione
Ġfee ling
c Ã©d
Ġstud ent
ãģ®æĦ ı
cz o
ĠÐ² ÐµÑĤ
à² °
ĠÐļÐ¾Ð¼ Ð¿
Ġzmi an
ĥ è²¸
Ġma nd
ãģ« è¦ĭ
Ġimp ort
Ġfaci le
ĠÑĤ Ð¾Ð»
Ġne ben
Ġproduc ciÃ³n
ut Ã´t
ĠÐ¼Ð¸Ð» Ð»Ð¸
ĠCol ombia
ĠCas erÃŃo
Ġgi r
ĠÐĴ Ð¾Ð»
ĠÐĿ Ñĥ
em ment
ĠEs sa
ol are
ĠÑģÑĤÐ¾ Ð¸Ð¼Ð¾ÑģÑĤÑĮ
æľ¬ å½ĵãģ«
Ġin o
ãĤī ãģı
Ġris ol
Ġcomm it
Ġt áº¥m
Ġru olo
Q iO
ĠrÃ©se au
Ã§ u
Ġhel ps
Ġperson ales
Ġsex ta
Ġang lais
ĠA ustra
Ġdigi tal
Ġs á»ķ
ĠAl so
Ġfi x
ãĥķãĤ© ãĥ³
air ro
Ġtempor ada
åĨ ·
ĠintÃ© rieur
Ã³g ica
Ġtecn ologia
Ġm anhÃ£
ãĥĨ ãĥł
u als
ĠÐ´ÑĢÑĥÐ³ Ð¾Ð¹
ĠJ etzt
Ġãĥ¡ ãĥ¼ãĤ«ãĥ¼
Ġsprzed aÅ¼
å±Ĭ ãģĳ
Ġava liaÃ§Ãµes
ï¿ ¥
Ġch au
Ġlav ori
Ġpra zo
Ġwo od
æĻ ´
ĠCom un
Ã¤tz lich
ĠB el
5 æĹ¥
us so
an zia
Ġimpor tanti
Ġnasze go
ç¥Ŀ ãģĦ
Ġvie lleicht
k m
ar f
Ġç ķ
ĠEs se
Ð¾Ð² ÐµÑĢ
Ã¡nd ose
Ġask ed
Ġdiretta mente
ĠL et
Ġt ir
Ð¸ÑĩÐµÑģÐº Ð¸Ð¼
iÃªn cias
Ġin kl
ĠD al
ĠW et
Ġãģ¨ æĢĿ
Ġg ens
Ġexp la
Ġhigh ly
ĠintÃ© ress
Ġsi tios
ĠFir st
ĠÐ± Ð¾Ð½ÑĥÑģ
Ġbo ttom
ĠV Æ°Æ¡ng
Ġek sp
Ġpie ce
Ġps ych
Ġobb li
ĠÐ°Ð² Ð³ÑĥÑģÑĤ
ĠÄĲ Ã¬nh
Ġ áº¥m
ĠM onte
Ġmee ting
Ġco ll
k ces
Ġl á»Ńa
ĠÐ¾ Ð¿Ð»Ð°ÑĤ
ko j
Ġzd jÄĻcia
2 æĹ¥
Ġ ãģĭãĤī
Ð¾Ñĩ Ð½ÑĭÐ¹
ba ck
Ð¸Ð½ Ð¸Ð¼
ĠPre zzo
Ġam bito
Ġçľ Ł
Ġpi er
ĠÐ½Ð¾Ð² ÑĭÐ¹
ĠC O
ĠÐ¸Ð³ÑĢ Ð°ÑĤÑĮ
Ġb ede
i LCJ
Ġet Ãł
Ġ4 7
ci no
k am
w ski
Ġåº ĥ
å¥³ åŃĲ
Ġzw iÄĻk
g are
Ðº Ð¸Ð¼
vi le
Ġkh á»ķ
4 æľĪ
ä¹ ¾
Ð¸Ð³ Ð¸Ð½
Ġcre ar
Ġmoy en
Ġåĥ ķ
ĠÐ¾ ÑĪÐ¸Ð±
Ġ( .
za ciones
ãĥĬ ãĥł
ĠÐ´ÐµÐ» Ð¾
Ġb ian
OL O
ĠFer ien
ĠK ateg
ĠÐ¸Ð½ ÑģÑĤÑĢÑĥÐ¼ÐµÐ½ÑĤ
Ġest ra
Ġqui ero
Ġim m
ĠD enn
Ġnad zie
ĠktÃ³r Äħ
i lle
é¦ ĸ
fÃ¼hr er
ãģĹ ãģªãģĮãĤī
ow er
Ġh eraus
Ġnie ktÃ³
Ġe her
á»Ľ p
ng ua
Ġn esse
Ġfer ram
Ġç© º
Ġsour ce
Ġeffec tu
ĠD Ã¢n
ĠT áº¿t
ĠM any
æ² ¹
Ġu trzym
lÃ¤ s
ĠÐ½Ð°ÑĪ ÐµÐ¼
Ġpen si
Ġob owiÄħz
Ġcharac ter
Ð°Ð½ Ð½ÑĭÑħ
Ġwer de
Ġ09 0
ĠMar co
Ġval ori
Ñģ ÐµÐ¼
ãģ¤ ãģĳ
Ġres puesta
Ġso fort
Ġé ¡
Ġan zi
w ych
ĠM áº·t
ĠT Ã¢m
Ð¾Ð»Ð¾Ð³ Ð¸Ð¸
Ġtra tamento
Ġes sas
Ġtrata miento
ow ali
éĢ Ģ
ĠR u
ĠÐł Âµ
ury sty
M EN
or er
ãĥŃ ãĥ¼
Ġste llen
ĠBo ok
ãĤ¤ ãĥĻãĥ³ãĥĪ
Ġejer ci
æĺ ¥
ĠBe z
ĠÐ±ÑĥÐ´ ÑĥÑī
ow aÅĤa
ãĥ³ãĥ ĸ
ĠÑģÑĤ ÑĥÐ´
ĠN uest
Ġkon tr
ĠÐ¼Ð¸Ð½ Ð¸Ð¼
Ġvos tro
Ġval ores
ĠH ilfe
Ġing resso
ĠMin istÃ©rio
g rÃ¼
Ġch iáº¿m
bra uch
Ġa ggiung
ĠG ed
ĠÐŁ Ð°ÑĢ
Ġk an
Ð¾Ñĩ ÐºÐ°
ĠAs sim
d orf
ĠdÃ©cou vrir
ãģĹ ãģ£ãģĭãĤĬ
Ġpro tagon
th Ã¨
Ð°ÑĤ Ñĥ
chod zÄħ
å¥½ ãģįãģª
ĠÐ² Ð´
ĠS tan
Ġv ec
Ġcare er
åĩºæĿ¥ ãĤĭ
ĠTod os
Ġb itte
ĠÐ³Ð°ÑĢ Ð°Ð½ÑĤ
Ġsol utions
Ġdis cover
ĠÐ¼Ñĥ Ð½Ð¸ÑĨÐ¸Ð¿
Ð¾Ð» Ð¾ÑĤ
æī ±
ĠÐ¶ Ð´
Ġop ie
uer ra
å¾Į ãģ®
Ġgen ere
Ġmor ning
gu es
Ġåı Ĺ
Ġotten ere
ĠÐĶ ÐµÑĤ
Ġg ust
ĠÐ´ ÑĥÑħ
fic os
Ġid Ã©
Ġv aleur
re w
ĠS tato
Ġnaszy m
ĠKl ein
Ġprzed mio
Ġlo in
Ġti p
Ġdeci sion
é «ª
Ġpodsta wie
Ġle er
Ġass in
ĠÐ¿ÐµÑĢÐ² ÑĭÐ¹
Ġåĭ ķ
Ġaca b
d Ã©
at as
Ġen se
ĠZ ur
Ġex tÃ©
å¯ Ŀ
ĠMar ch
Ġgio chi
Ġpour quoi
Ġam Ã©rica
enti al
ÑĪ Ð¸Ð¹
Ìī a
Ġn áº¯m
Ġn Ã©t
Ġad resse
9 2
ĠÑĩ ÐµÑĤ
Ã¤ mp
Ġpi ck
ĠAn n
ĠO sta
Ġf ase
ĠPa olo
Ġpic colo
ckie go
ĠNue va
åı Ĭãģ³
ĠAma zon
Ġsoggior no
Ġsz ero
ĠÑįÑĤ Ñĥ
å¤§ ãģįãģª
Ġdisponi ble
Ġdev ono
ĠÐ¿ÑĢÐ¸Ð» Ð¾Ð¶
ĠÐ´ Ð»
å¹´ ãģ®
Ġx inh
Ġihre m
Ġcolle c
Ġznajd uje
Ġç¶ļ ãģį
Ġinteri or
Ġch oses
Ġe f
Ġav ais
ĠTh ank
ãĤ¯ ãĤ·ãĥ§ãĥ³
ĠÐ½ Ð¾Ñģ
Ġv iej
tig keit
çķª åı·
ãĤ« ãĥĲãĥ¼
z ess
Ġi con
Ġmo bile
ll adas
Ġmed ida
H CM
Ġm Ã³vil
ĠÐ¾ÐºÑĤ ÑıÐ±ÑĢÑı
Ġdob r
ĠÐ¾ Ð³ÑĢÐ¾Ð¼
Ġe g
ĠT áº¥t
Ġwor d
ÐĿ ÐĲ
Ġh our
Ġcomp ren
Ð¾Ð³ ÑĢÐ°Ð¼
èı ¯
ĠÑĥÐ² Ð¸Ð´
æ²» çĻĤ
Åĵ ur
ĠSch laf
ãģ£ ãģį
Ġh il
Ġ3 00
pre z
Ġnouve aux
Ġfav orite
ãĥ³ãĥĩ ãĤ£
ĠÐ´ÐµÐºÐ°Ð± ÑĢÑı
T V
f ung
ãģ®å ±
tr er
Ġver de
Ġprzez na
é£ ¯
Ġcu á»ĳn
ãĤĴ ä½¿çĶ¨
ĠÐ¾ÑĤÐ½Ð¾ Ñģ
ĠÐ¿Ð¾Ð² ÐµÑĢÑħ
Ġpop ulaÃ§Ã£o
Ġaci ma
ãĤĴ åıĸãĤĬ
Ġrecen zji
ĠÐ½Ð°ÑħÐ¾Ð´ Ð¸ÑĤÑģÑı
W U
ÑĪ ÑĤ
Ġch Ã¡y
ĠAl ess
Ġnuest ras
lich keit
Ġal c
Ðĵ Ðŀ
ĠÐ²Ð¾Ð¿ÑĢÐ¾Ñģ Ñĭ
ĠÑĦÐ¾ÑĤ Ð¾Ð³ÑĢÐ°ÑĦ
Ġsuf f
Ġc Ãłi
m owy
h am
Ġlep iej
Ġfos se
Ġexce llent
Ġl Ã´
ĠÑĤ Ð¾Ð¿
ÑĢ ÐµÐ½ÑĤ
éĩ Į
jer os
Ð¾Ð»Ð¾Ð³ Ð¸Ñı
ar lo
ut are
Ġin con
ĠvocÃª s
Ġbas so
ei gen
ĠÑĢÐµÑĪ ÐµÐ½Ð¸Ðµ
ĠAg ora
ara tion
ĠSpiel er
âĶ Ģ
ĠÑıÐ½Ð²Ð°ÑĢ Ñı
Ð¾ÑĢ Ð´
qu ia
ĠÑĩ Ð¸ÑĤ
ĠA na
ĠÐŀÑĤ Ð²ÐµÑĤ
Ġä¸Ń åĽ½
unk te
ãĤ¹ãĤ¿ ãĤ¤ãĥ«
ĠÃºlti mos
ĠæĪ Ĳ
Ġli bri
ĠU N
Ġg am
ĠÑĢÐ°Ð±Ð¾ÑĤ Ðµ
Ġdeci sÃ£o
ĠÐº Ð¾Ð´
Ġa de
owan ej
Ġ5 8
ãĤ« ãĥ©
ĠãĤ¨ ãĤ¢
Ġv anta
Ã¶ffentlich t
Âµ Ãĺ
ĠKo pf
ĠÑĤÐ¾Ð²Ð°ÑĢ Ð°
ĠEsp anol
Ġfond amenta
Ġbe lla
ÑģÐº Ð¸
ni cas
ni kiem
ĠÐ¾ÑĤÐ´ ÑĭÑħ
Ġnu lla
ãģ¾ãģĹãģŁ ãģĮ
æķ Ĺ
éº Ĺ
ĠConsi glio
§ £
Ġ ä¾ĭ
éŃ ħ
Ġinvestig aciÃ³n
Ġn owych
wo ju
åħ¬ éĸĭ
ĠÐ´ÐµÐ² ÑĥÑĪ
gre ja
N l
Ġque da
ĠNh iá»ģu
on ia
Ġog Ã³l
Ġeben falls
Ġå ĸ
äº Ķ
Ġ áº©m
Ġd ane
Ġactu al
Ġ5 1
ãĤĴæ Ķ
Ġph iáº¿u
ĠÐ¿Ð¾Ñĩ ÐµÐ¼Ñĥ
Ġpoprze z
Ġf le
ra ciÃ³n
3 æľĪ
Ġop ort
Ġdá»± a
ĠL Æ°u
A LE
Ġc Æ°á»Ľi
ĠUnivers itÃł
Ġsaf ety
ĠI st
ĠD ab
ĠÐĶ Ð¾Ð¼
ab el
Ġdi rig
ĠÃº nico
ĠC Ã¡mara
ĠÐº Ð¾ÑĤ
Ð¸ÑĤÐµÐ»ÑĮ Ð½ÑĭÐµ
ba te
Ġcer to
Ã© nd
ĠP io
éĻ ½
enh or
Ð» ÐµÑĢ
au v
Ġc á»©ng
ãĥĩãĤ£ ãĤ¢
ĠÐ·Ð°Ð½ ÑıÑĤ
Ġzmi any
ĠIns titu
Ġla te
è¡ Ģ
å®ī åħ¨
orn al
ĠMÃ¼n chen
Ġâ ĳ
Ġcam ino
Ġits elf
ĠÐ¿Ð¾Ñĩ ÑĤÐ¸
Ġla tach
ĠwiÄĻk sz
Ġconh ecer
er d
á»¥ n
ĠÐł Ñĳ
ran ken
ĠÑįÑĤ Ð¸Ð¼
ĠÑģ ÑĥÐ¿
Ġgi ving
re chen
ĠÑħ Ð¾Ð»Ð¾Ð´
Ġrigu arda
Ġd Ãµi
po ca
Ġæ ©Ł
Ġl áº¯ng
Ġwyb ra
Ġle ngth
f urt
zy ka
ĠA ny
Ġk ont
ĠÑģÑĤ Ð°Ð»Ð¸
ÐµÐ½Ð¸Ñı Ð¼Ð¸
ologi i
Ġsp Ã¤ter
Ġc ultur
ĠSe gu
te hen
ĠÐĶ Ð°ÑĤÐ°
c G
ãģĮ ãģĭ
ĠÐ· Ð°Ð»
ĠÃ© tra
Ġch ance
pp el
z j
å¹´ ãģ«
Ð²ÐµÑĢ Ð´
Ġb lu
Ġprop ia
Ġcon cep
ie ux
Ġpr Ã¡tica
ĠmÄĻ Å¼czy
ĠC áº§u
ĠA ff
Ġpue da
ĠÐ¾Ð´ Ð½Ð¾
c endo
ĠÐ¸Ñİ Ð½Ñı
Ġæ¥ŃåĭĻ çĶ¨
± ³
Â¡Â £Â
Ġtho Ã¡t
Ġquar ta
å· ±
ĠÑģÐ² Ð¾Ðµ
Ã¤ nde
l am
ĠÐ´ Ð¾Ð±
Ã³ rios
Ġinteres ting
Ġorigin ale
Ġlos s
Ġse ek
ãĤĴ çŁ¥
Ġprofesion al
Ġcollab orazione
T T
oun ts
i vent
çī© ä»¶
Ġwri te
Ġinde x
Ð· Ñı
æŃ ¦
ga ti
Ġest ru
ãģı ãĤĮ
Ġg Ã©
ĠÐ² Ð»Ð°Ð´
c ada
ĠcaÅĤ y
ĠAn uncios
ĠB ologna
b ic
ĠÐ¸Ð· ÑĥÑĩ
jÄħc Äħ
Ġin ser
Ġesp era
Ġpr Ã³b
ĠInter na
Ġmulti ple
Ġinterna zionale
ĠEner gie
al te
ĠS ou
Ġri le
ĠÃ© to
Ġist nie
Ġch c
Ġes pres
ĠB ras
Ġn áº¯ng
Ġblan co
Ġs li
Ġx ung
k ung
åĵģ è³ª
Ġinvol ved
Ġsup erior
Ð¸Ð² Ð¸Ð´Ñĥ
ĠLa v
ak ing
ÐµÑģÑģ Ñĥ
lie d
en zi
sI n
ĠJe Å¼eli
ĠMÃ¶glich keit
Ġm q
èª °
ÑĪ Ð¸ÑĢ
Ġg Ã³c
Ġb ank
Ġse para
ĠAus wahl
ĠGÃ¤ ste
ĠDab ei
u il
Ġliv ros
ĠDies er
ãĥ¼ ãģ¯
ãģı ãģªãģĦ
Ġsu chen
ä¼ ¸
ada ÅĦ
ĠçĶ »
ff ici
Ġz doby
Ġw ahr
ĠL Ãł
Ġãĥį ãĥĥãĥĪ
æ¹ ¯
ĠVerfÃ¼ gung
Ġl ou
Ð¾Ð²Ð°Ð½ Ð¸Ð¹
Ġlle va
ĠÐ°ÑĢ Ñħ
ĠåĨ ĻçľŁ
ĠT rib
ĠC odice
ĠÐ¶ ÑĥÑĢÐ½
ĠM am
ĠC rÃ©
ÅĽci a
ÐµÑĩ Ð°ÑĤ
Ġcol ori
Ġprop io
ĠBl anc
ĠÅĽwie cie
Ġbezpie cze
Ġl Æ°á»£c
ĠE la
ÐµÐ½ Ð½Ð¾Ð¼
ãĥªãĥ¼ ãĥ³
ĠHe alth
P E
R l
ãĥ³ãĥ ¬
Ġw eit
Ð°Ð½ Ð½ÑĭÐ¹
ĠLa ge
Ġda her
Ġto tale
Ġcon tac
ãģ§ãģĻ ãĤĪ
Ġprojet os
Ġprofesion ales
Ġning Ãºn
Ġm Å©i
Ġl er
Ã£ ÆĴ
ĠCz ÄĻ
Ġappar eil
ĠWiÄĻ cej
ĠF ri
Ð¾Ð· Ð°
Ð°Ð± Ð°ÑĤ
Ġt Ã´n
ĠB amb
al y
il h
Ġkra ju
ï½Ĺï½Ĺ ï½Ĺï½Ĺ
Ġrap ide
ube hÃ¶r
Ġim media
uy en
åı ³
Ð¾Ðº Ð¾Ð²
ĠG reat
ĠF ace
ĠVi lla
ĠÐ¸Ð¼Ðµ ÑİÑĤ
Ġãĥ ¨
ti ent
icht ung
ĠÐĺ ÑĤ
å¤§ å¤ī
bie ter
ĳ å¼µ
ra gen
Ġaver age
ĠÐ· Ð¸Ð¼
Ġcomp or
10 æľĪ
ãĥ« ãĥ¼ãĥĹ
ĠÐ¸Ð½ Ð²ÐµÑģÑĤ
Ġstan owi
Ġas o
Ġn Ãºi
Ġsi gue
ng o
Ġt Æ°á»Ŀng
Ġk uch
ĠÄĳ Ã¡o
ĠN ord
li ar
p ier
ĠÐ¼ÐµÐ´ Ð¸ÑĨÐ¸Ð½
Ġme us
Ġo cu
åŃ¦ çĶŁ
å¹´ åº¦
Ġbu á»Ļc
åľ° åŁŁ
ãģĭãĤĤãģĹãĤĮ ãģ¾ãģĽãĤĵ
Ġ ğ
ãģł ãģĹ
Ġv ic
ĠÑĢÐ°Ñģ Ð¿
ĠÐ¡ ÐµÐ³Ð¾Ð´Ð½Ñı
Ġwri tten
ĠÐºÐ¾Ð½ ÐµÑĩÐ½Ð¾
am er
fic ul
ĠÐ»Ð¸ÑĨ Ð°
çģ ½
Ġpre para
Ġresour ces
ĠÐ¾ÑĤÑģ ÑĥÑĤÑģÑĤÐ²
g om
Ġpa th
ĠÑĥÐ´ Ð°Ð»
ĠprÃ©s ente
ä¿® çĲĨ
Ġcapa citÃł
Ġg áº¥p
Ġacc u
sp iele
ĠÐ´Ð¾Ð¼ Ð°ÑĪ
ĠTra b
ĠGo ogle
Ġr Æ°á»£u
ĠC it
ĠãĤ¹ ãĥĪ
Ð¸Ñı Ð¼Ð¸
ĠåĢ ĭäºº
å¬ ī
Ġvol ver
Ġbre ve
Ġé ļ
Ð»ÐµÐ½ Ð¸Ñİ
Ġlong ue
Ġrecu er
ara go
gu Ã©m
Ġpo zna
Ġsi g
wend ung
Ġi Phone
Ġquan ti
Ġpos tÄĻp
Ð¸Ð² Ð°ÐµÐ¼
Ġh au
ĠéĢļ è²©
Ġdetta gli
ĠNo ticias
Ġat ta
ĠÑħ ÑĢÐ°Ð½
al nym
Ġoff en
er st
Ġpic ture
ĠÐ¸Ñİ Ð»Ñı
Ġãĥ¦ ãĥĭ
ãĤ¤ ãĥ¡ãĥ¼ãĤ¸
èĬ ¸
ĠÐ²Ñĭ ÑĪÐµ
Ġèĭ ±
to m
ãģ®æ Ŀ
ãģ®ç Ĥ
rie den
l Ãªs
c lu
Ġwyst ar
ĠP ierw
ĠÑģ Ð°Ð´
cie ty
Ġl Ã¡i
ĠNa pis
Ġku p
ĠFl ug
ĠMÃ¤ n
ĠÐºÐ¾Ð¼Ð¿Ð» ÐµÐºÑĤ
Ġes igen
ĠâĪ Ĵ
Ġpl utÃ´t
Ġcomple to
ĠC ela
Ġaten Ã§Ã£o
ĠÑĨÐµÐ½ Ðµ
Ġkos mety
ĠÑģ Ð¾Ñĩ
èĢ ģ
¡Â ¡Â
ãĥŁ ãĥ¥
Ġpesso al
Ġcher che
ĠP reise
éĢ£ çµ¡
ĠDetta gli
Ġder en
ĠÐ¾ÑĤ Ð²
uc ed
ÐµÐ½ Ð½ÑĥÑİ
ãģ¨ãģĹãģ¦ ãĤĤ
ul ares
Ġproje ktu
ĠÑĤ ÑıÐ¶
è© ³ç´°
Ġstre ngth
Ġcoun tries
ĠP C
ãĥ³ãĥ ļ
Ġpl ans
ĠE di
Ġw ido
ãģĦ ãģĭ
Ġsem ble
ĠÐ¿Ð¾ÑģÑĤ ÑĥÐ¿
ĠE is
ãģ®è ¿
ÑĪ Ð¸Ðµ
Ġr Ãºt
Ġå° Ĥ
CI A
b ank
ĠdiffÃ©r entes
Ġwsz el
ĠK aÅ¼
ĠÐ½Ð°Ñģ ÐµÐ»
ĠAs socia
ĠÑĦ ÑĥÑĤÐ±
em en
ĠÐŀ Ð½Ð°
ĠEn cu
ĠÐ±Ð¾Ð»ÑĮÑĪ Ð¾Ð¹
Ġconsegu ir
6 8
ãĥĲ ãĤ¤ãĥĪ
Ġå® ®
ĠK rzy
sch lag
ÑĥÐ¹ ÑĤÐµ
Ġsch le
ate ar
Ġins cri
ĠÐ¸Ð· Ð³Ð¾ÑĤÐ¾Ð²
ÐµÐ½ÑĤ ÑĢ
ĠSe villa
ł Ģ
ĠÐ¼ ÐµÐ»
Ġel ei
ĠR ob
ãĤ³ ãĥ¼ãĤ¹
Ġnie p
Ð¸ÑģÑĤ ÑĢÐ°ÑĤ
ĠIhre m
Ġprincip ali
Ġgrou ps
Ġobietti vo
l ant
Ġrisp osta
Ġenc our
Ġri c
è¦ĭ ç©į
ĠL is
ĠdÃ© si
Ñĥ ÐºÐ°
u jÄĻ
ãĤı ãĤĮãģŁ
u jÄħce
Ġverschieden en
Ġar ticles
ç ¦
ãĥ³ãĥ Ĭ
6 æĹ¥
Ġtr Ã¹ng
Ġe dy
ĠÄĳ iá»ĥn
ĠNe ben
ĠSch utz
Ġvia gem
ãĤ» ãĥķãĥ¬
sch ule
Ġob tenir
ĠC D
Ñĩ Ð°ÑĤ
po ÅĽ
ven do
Ġrecen sione
ĠÐŀÑģ Ð½Ð¾Ð²
Ġdivers as
ich ten
ĠÐ½ Ð¸Ð¼
gh ter
si me
ĠÑģÑĤ ÐµÐº
Ġpl anta
Ġev itar
Ġãĥĭ ãĥ¥
º «
ĠÐ± Ð¾Ð³
Ġper ce
Ġl ic
ÑĢ ÑĭÐ²
Ġe llas
ĠH ouse
tu al
Ġles bianas
Ġç Ĩ
li gen
ĠV in
Ġa do
ãģĺ ãģ¦
ĠAl ors
col are
ĠL Æ°á»£t
ens ajes
æ· ±
Ġusta wy
Ġdeta lles
di os
ĠÐ¸Ð· Ð´
ĠÐ²Ð¾Ð· Ð²
Ġpos z
Ġdeb ido
ãģ¨ åĲĮãģĺ
Ġin stead
ãĥĪ ãĥ³
cz nik
ĠÐ¼ ÑĭÑĪ
Ġre fer
Ġhabita ciones
Ġâ ī
Ġthe ms
ĠÑģ Ð°Ð»
ãĤĴæ ķ
Ð¸Ð± Ð¸ÑĢ
re di
Ġprincip ales
Ã¢ Ìģt
Ġå ¡
ãģł ãģĮ
ab y
Ð½ Ð¾Ð¿
ia ÅĤy
Ġvi vo
lica tion
æ¨ ª
sicher ung
Ġplann ing
ĠS C
ĠÑģ ÑĥÑĤ
ĠF ern
ĠÐ¾Ð± Ð»Ð°Ð´
g lichen
Ġpre z
ĠJed nak
Ġf resh
ĠpÃ³Åº niej
ĠÐľ ÐµÑĤ
ãģĦãģ¾ãģĻ ãģĮ
ãĥĲ ãĤ¹
qu ei
tig ung
ĠÃĪ Ãĭ
air s
Ġhand s
Ġsub ject
ĠEle k
Ġunter stÃ¼tz
ĠJus tiÃ§a
Ġb Ãło
ma Ã§Ã£o
ĠrÃ© du
Ġg reen
ĠS or
ĠÑģ Ð¿ÑĢ
åĩ¦ çĲĨ
ĠÐ½ Ð°Ð¹Ð´
sty tu
ÐµÐ´ Ð¸
ĠRÃ© p
ĠF emmes
Ġn iá»ģm
ãģł ãģª
cie li
Ġè¨ ĺ
ãģ¾ãģ¨ ãĤģ
szy scy
Ġpre ocu
ÑĮ ÐµÑĢ
Ġph u
ãĥŀ ãĤ¹
ÑĢÐ¾ ÑĦ
ga ciÃ³n
Ġtra ck
Ġéģ ĭ
Ġth áºŃm
quil er
å« Į
Ġa void
v ÃŃ
æĪ ĳ
Ġcos to
sp r
Ġgi ves
Ġho t
ãĤĴ éĢļ
Ġä»ĬåĽŀ ãģ¯
Ġthems elves
ĠÄĳ á»Ļt
Ġu bezpie
Ġman tener
ãģĳ ãģ°
tow ego
ĠÑģÐ¾Ð± ÑĭÑĤ
ĠOn ce
ĠAmer ica
Ġå¹³ æĪĲ
Ġd w
Ġco ol
est as
ĠMar s
éĸ¢ éĢ£
Ġn Ã¤
Ġsvilu pp
Ġann once
ĠhÃ¤t te
Ġè Ī
Ġapp or
Ġaura it
Ġapoy o
Ð ®
si g
Ġdu da
Ġtro tz
ĠH Æ°ng
ç® ±
Ã¡ ticas
Ġde fin
ĠÑĥÑĩ ÑĢÐµÐ¶Ð´
o o
Ġun ica
Ġfu lly
Ġfon do
Q UE
ĠFa hrze
è Ļ
Ð² Ñĭ
Ġl Ã£o
odzi en
Ġ200 6
Ġcomun idad
ĠC ode
at Ã³w
z ze
c enia
Ġnh áº¯c
ĠÑģ Ð¸Ð»ÑĮ
Ġplay ers
Ġ3 90
ĠEmp res
4 9
Ġnaj m
ĠÐ½Ð¾ ÑıÐ±ÑĢÑı
ci mientos
Ġdivers os
Ġper mette
ĠD U
ĠT iÃªn
Ġl an
ãģĻ ãģ¹ãģ¦
Ġdom anda
ĠkaÅ¼d ym
qu ent
Ġsu d
Ġra ff
ts eite
Ġac cep
Ġth uyáº¿t
ĠPare jas
Ġtá»ĵ n
Ġç·¨ éĽĨ
m ou
ri Ã³
Ġb Ã¢y
kow ie
Ġthá» ±
ĠQue m
ĠÐ¾ Ñħ
ĠN á»¯
ggi are
g ados
Ìģ p
ĠE ven
cyj nego
yw id
ĠM Ã¶
Ġdirect ly
ĠZa patillas
arago za
Ġk em
Ġum owy
Ġvi ent
stra ÃŁe
Ä Ĥ
ÑĢ ÐµÐ¹
owie m
rei bung
Ġcres cita
Ġtradi tional
ãĥ³ãĤ ±
Ġ5 7
ãĤ· ãĤ§
Ð½Ð¸ ÑĨÑĭ
liwo ÅĽci
atri ce
f ar
ĠÐ¿ÐµÑĢ ÐµÐ¿
n owa
st ÄĻp
Ġa ch
æľ Ń
di ale
tr are
u Ã§Ãµes
ãģ® ãĤª
Ġoff ici
ĠWh y
Ġãĥı ãĤ¤
Ġmin ut
ĠcrÃ© ation
ĠEnt Ã£o
ĠgiÃł u
Ġes cort
ĠconteÃº do
ĠS zy
Ġp ul
uer re
Ġl á»įc
Ġz wier
Ġnecess idade
Ġla unch
Ġu tile
ĠÐ¡ ÐµÐ²
ç¥ Ń
Ġens ino
Ġdi man
Ñī Ð¸Ðº
Ġapp ena
Ġbek annt
Ġling ua
Ð· Ð¾ÑĢ
ĠlÃł n
ann te
l ungs
ĠHer r
Ġre des
Å¼ Äħ
Ġtechni que
ĠÅĽwia ta
ĠU RL
czy k
Ġcu ales
Ġob sz
ãĥª ãĤ¸
Ġinter Ã©s
ĠÑģÑĤÑĢÐ°Ð½ Ñĭ
f ia
wen den
ti Ã³
Ġpas a
æ¸ ¬
èĩª åĭķ
ĠÃģ Ãĭ
ĠSt art
Ġdai ly
ĠO ver
Ð¸ÑĤÐµÐ»ÑĮ Ð½ÑĭÐ¹
ķ çĶŁ
ĠG old
Ġappar tement
Ġs wÃ³j
Ð»Ð¸ Ð¶
ĠÐ¿ÑĢÐ¸ Ð±
ĠM áº¹
k et
ĠDe tail
ĠÐ² Ð»Ð¸Ñı
Ã¡ lisis
ĠIn nen
ch ani
Ġtr uyá»ĩn
Ìī i
¯ ãģĦ
r eno
Ġcul tura
Ġofere ce
» ¿
ĠS ing
ĠL icht
i Ã¨re
r ada
ãĤ¤ ãĥ³ãĤ¿
c ÃŃ
ãĤīãĤĮ ãģªãģĦ
ĠÐ°Ð¿ÑĢ ÐµÐ»Ñı
Ð² Ð¸
ĠD em
st Ã³w
ĠÐ¢ ÐµÐ¿
Ġpri ces
wor ten
ĠmoÅ¼ li
ĠÃ©c ole
es zy
Ġd an
Ġref le
Ġwska z
ĠG ri
Ġfe ch
Ġcas es
ul ho
ĠçŁ ¥
Ġus ÅĤugi
ç ı
Ðº Ð°ÑĤ
Ġsa w
teri ori
ãģ« åĲĳ
ĠÐ¿Ð¾Ð¼Ð¾Ñī Ð¸
Ġplan ej
v eira
Ð¸Ð³ Ð½
Ãį Ã¸
Ġlo cale
ãģ®è »
Ġroz mi
ãĥĭ ãĥ¥ãĥ¼
su ÅĦ
Ġdi ficul
Ġl Ã´ng
Ġno te
ĠR ab
Ġb iá»ĩn
Ġb inh
Ġso ir
Ġnos tre
Ġcon cor
Ġop Ã§Ã£o
Ġmen tion
Ġmein en
Ãºs que
Ġæł ªå¼ıä¼ļç¤¾
Ġcittad ini
Ġä»£å¼ķ ä¸įåı¯
ĠVer sion
ĠD onne
ĠM ac
Ġåľ ¨
Ð¾Ð¶ Ð½Ð¾
å¯Ħ ãģĽ
Ð¸ÑĤ ÐµÑĤ
Ġpri or
ĠÑĢÐ°Ð±Ð¾ÑĤ Ð°ÐµÑĤ
Ã¤ d
Ġdif ÃŃ
Ġens eign
Ġï¼ Ŀ
Ġï¼ ¼
ĠG I
Ġa ting
Ð¿ Ð¾ÑĢÑĤ
ond on
ĠLand es
ka tion
res z
ie ur
Ġve ut
Ġap li
Ġcon tar
ĠåĨ į
Ġatten tion
ĠÄĲo Ãłn
Ġindiri zzo
Ġs ent
èª Į
ĠpÃºb lica
éĿ¢ çĻ½
Ġsen ci
ĠEng lish
Ġri chie
ĠÐ¼ ÐµÑħÐ°Ð½
ĠA U
ãģ®æ ĺ
Ġk urs
Ġt ari
ĠÐ¾Ñģ Ð²
ãĤĤãģ® ãģ®
Ġj Ã³venes
ãĤĤ ãĤĬ
Ġlos t
Ġa gg
ho od
li sta
Ġperson ali
ãĤ½ ãĥ³
Ġen trar
Ġex iste
ãģ£ãģ¦ ãģįãģŁ
Ġin stru
Ġw under
kol wiek
Ġw ed
Ġc á»¥c
Ġna tional
ĠÐ¡Ð°Ð½ ÐºÑĤ
ĠDown load
ĠM ig
Ġl Æ°ng
Ã¤ch st
fall en
ĠChi le
ĠThem en
Ġpartici pa
Ġrapid ement
ĠÑĢÐ°ÑģÐ¿ÑĢ Ð¾ÑģÑĤÑĢÐ°Ð½
Ġdisfrut ar
Ġè ĳ
Ã© ma
ade k
Ġso llen
Ġ& &
Ġmis ura
ĠÑģÐ¸ÑģÑĤÐµÐ¼ Ð°
Ġscor so
å§Ķ åĵ¡
ei ng
Ð»Ð¸ Ð¹
Ġce ll
Ñĳ ÑĢ
Ġpag amento
Ġinter esse
Ġman ten
Ġw ÅĤad
Ġph Ã³ng
Ġbi gg
Ġativ idade
ĠÐ¼Ð°Ð» ÐµÐ½ÑĮ
ï¼ ¦
Ġsch a
ĠCom m
ĠGi Ã¡m
Ġad ecu
Ġjedy nie
ĠBlo g
Ġfaz endo
s Ã©e
ĠÐ¼ÐµÑģÑĤ Ð°
Ġsto rage
ĠG MT
Ġk ne
Ġa bier
Ġdro its
ci Äħg
ĠÐ´Ð¾ÐºÑĥÐ¼ ÐµÐ½ÑĤ
ĠIn oltre
ĠÐ¿Ð°Ð¼ ÑıÑĤ
ĠB and
Ġprow adzi
Ġess ay
ĠmÃ£ e
Ġqu Ãªn
Ġc ic
Ġ Æ°á»Ľc
Ġus ando
g ree
li dade
ĠdziaÅĤ alnoÅĽci
ter as
ras se
gli amento
Ġsta bili
Ġtho áº£i
Ġing lese
ãģ®æ ¥
Ġne llo
ĠH á»į
ä»ķ æ§ĺ
ten te
Ġfe liz
Ġcapa cidade
Ġinter vento
pri t
Ġm iÄĻ
ĠKonta kt
ĠTP HCM
Ġum o
Ġt esti
Ġenfer med
Ġqu atre
Ġzapew nia
Ð Ĩ
Z S
ver a
ĠãģĦ ãĤį
K O
Ð½ Ð°Ð·
Ġd Ãły
ĠZ am
ãģ¹ ãĤĭ
Ġimpres e
N j
Ġz iel
ĠM uch
Ġth ÃŃ
c ole
Ġb iaÅĤ
teri ore
Ġ2019 å¹´
ãģ®å¯ ¾
ĠÐ± Ð°ÑĢ
Ġpl ano
ĠNg Ã¢n
æĬ ĺ
Ġro bo
ni c
è§ ¦
ãĤĴ åĪ©çĶ¨
................ ................
Ġquin ta
á» Ĳ
Ġk Ã¬
Ġan ty
Ġou i
6 æľĪ
èĢħ ãģ¯
Ġdes tina
Ġapplica tions
crip ciÃ³n
Ġplais ir
Ġwe ar
å¾ ĭ
Ġac co
Ġpre par
ĠgÅĤÃ³w na
ĠInter national
Ġhabi taciÃ³n
çº ¿
ĠC E
çĽ® çļĦ
ĠT etas
ng er
Ġfor um
ĠlÃł nh
è¡ £
Ð¾Ð» Ð¸ÑĤ
h ÃŃcul
ãĥĥãĥģ ãĥ³
ĠTra vestis
Ġinsta llation
um i
Ġis to
ÐµÐ¹ Ñģ
ge w
Ñı ÐµÑĤÑģÑı
Ġnh á»±a
ĠÄĲ Ã£
8 æĹ¥
tiv ity
ĠÑģÐ²Ð¾ Ð¸Ð¼
ĠÐ½Ð¾Ð² ÑĭÑħ
Ġforma Ã§Ã£o
Ġéĩ İ
Ġdesnu das
Ġgl obal
Ġs ole
d ine
Ġé Ł³
ĠÐ¡ ÐµÑĢ
Ġreg ul
Ġm Ã¹i
ĠÑĢÐ°Ð·Ð»Ð¸Ñĩ Ð½ÑĭÑħ
ĠÐ¿ÑĢ ÐµÐ·Ð¸Ð´
ãģ®å Ģ
owanie m
in ar
Ġris or
fic are
Ġrequire ments
s weise
Ġmaggi ore
Ġpalav ras
ı ¡
ÑĦ Ð¾ÑĢÑĤ
ĠG á»Ńi
Ġh aute
Ġpyta nie
Ġblei bt
ä¸į åĭķçĶ£
è ®
ĠA C
Ġa zione
Ġd ra
Ġper dere
ĠãĥĪ ãĥĥãĥĹ
Ġob tener
Ġãģ ı
ĠÃ© x
7 æĹ¥
ĠÐº Ð¾Ð¿
ĠI ndi
ĠHo je
ĠÐ¼Ð°ÑĤ Ñĩ
ĠGew inn
ĠãĤ¹ ãĥŀãĥĽ
Ġå Ĥ
h ein
te za
Ð¸Ñħ ÑģÑı
ĠÐ¿ÑĢÐ¸ ÐµÐ¼
ãģĻãĤĭ ãģŁãĤģ
ÃŃs tica
ĠApp ar
uni ties
ä» ²
âĢ ĺ
Ðł Ðĺ
ff er
lo g
Ð¼ÐµÑĢ Ð¸ÐºÐ°Ð½
anti ago
ĠC Ã¢u
ĠA inda
Ġwyb or
ĠR ela
Ġfo llar
Ġdess us
ĠHau pt
ĠA bend
x is
Ġmed ici
u aÃ§Ã£o
Ġdocum ent
Ã³ gico
V N
¦ Ĥ
Ġczy ta
Ġcor ri
èº į
Ġequi pos
ĠÐºÐ¾Ð½Ðº ÑĥÑĢÑģ
Ġges tiÃ³n
ĠÐ½Ð° Ð¸Ð±Ð¾Ð»ÐµÐµ
o c
Ð¸Ðº Ñģ
ag er
ãģĵ ãĤĵãģª
ä»£ è¡¨
Ġwy nika
èĩª èº«
Ġbra k
ĠâĢ¦âĢ¦âĢ¦âĢ¦âĢ¦ .
ĠB is
ĠlÃł ng
ÐµÐ² Ð¸Ñĩ
Ġpe le
ag ed
Ġris co
zei tig
ĠG utschein
ĠãĢ ĭ
Ġc Ã©
Ġm 2
ven ue
LI A
á»Ľ t
ĠÐ¸ÑģÐº ÑĥÑģ
Ġtow arzy
ĠBÃ¼r ger
Ġti ver
Ġdi stan
ĠÐł ÐµÑģÐ¿ÑĥÐ±Ð»Ð¸
Ġlas cia
ãģ®ç ¨
es tival
Ġp t
ĠÐ´ Ð¸ÑĢ
ĠVi lle
Ġèª ¿
ĠÑĤ ÑĢÑĥÐ±
S t
t us
lla zione
Ġho Ã¡
ãĥŀ ãĤ¤
ĠX X
Ġg war
di ca
Ġdire cciÃ³n
Ġentr en
Ġsap ere
Ġde utlich
Ġsprzeda Å¼y
N Y
Ġna to
Ġcom for
ç· ´
ĠMar ie
ĠÐ´ Ð¾Ð±ÑĢ
Ġrela ciones
Ġquo tidi
ĠÄĲ á»Ļ
ä¸Ń ãģ§
k ten
ĠUn is
Ġs low
Ġhu ge
â Ħ
ĠÑģ Ð¾Ðº
ĠÐĳ ÑĢ
Ġsp Ã³ÅĤ
Ġdri n
c em
Ġver kauf
ĠnÃ¤ch sten
ĠEuro pej
ĠÐ¿ÑĢÐµÐº ÑĢÐ°Ñģ
åĪ °
Ã¼ ge
ve ux
ĠâĢľ .
Ð¾Ð» Ð¸
Ġj et
e ux
Ġåı Ĥ
ĠÐ¾Ð¿ Ð°Ñģ
Ðº Ð¾ÑģÑĤÑĮ
lin es
w in
que l
Ġt Ã²a
Ġcie p
Ġtri p
ĠdÃ© mar
Ġspecj ali
Ġmanuf act
ãģ« ãģı
Ġra zie
tor ie
Ġpomo cy
Ġmy self
Ġblei ben
éĿŀ å¸¸ãģ«
Ġth a
ï¼ ®
b ano
ãģĮ ãģ¤
ãģĮ ãģĦ
ãĤ¤ ãĥ¼ãĥ«
ag t
ÐµÐ½ Ð½Ð¾ÑģÑĤÑĮ
ĠS c
ł çĶ»
k el
ãģĿãģĨ ãģª
Ð¾ÑģÑĤÐ¾ ÑıÑĤÐµÐ»ÑĮ
M E
Ã¨ ge
tes i
Ġess ent
ĠÐ½Ð°Ð»Ð¸Ñĩ Ð¸Ð¸
Ġpass ato
Ġgrand s
Ġde u
ĠS m
Ð¸ÑĤ Ð°Ð¹
ĠÅĽ wiÄĻ
ĠJ une
ĠRis p
Ġprofessionnel s
ä¾Ŀ éł¼
ãģĭ ãģĦ
ak Ã³w
wa jÄħ
cyj nej
Ġfil ho
Ġrou ge
Ġnau czy
Ġorgani zation
ĠRe gion
Ġdiman che
Ġh áº§u
Ġdem Ã¡s
Ġde ine
åİ ļ
tu d
Ġåį Ĺ
Ġgar den
ĠÐ»ÐµÐ³ ÐºÐ¾
letz t
ĠA P
un sch
Ġp ais
den do
ĠÑħ ÑĥÐ´
p ose
cyj na
ãģ§ãģĹãģŁ ãģĮ
ĠÑĤ ÑĢÑĥ
Ġcomun icaÃ§Ã£o
la cement
Ġanal ysis
Ġin se
ãĤ¹ ãĤ«
Ġr Æ¡i
ÑĪ ÐµÐ³Ð¾
Ġconc ours
Ġcre a
Ã©ri as
ĠcrÃ© er
ÑĮ Ð¸
Ð» Ð¾Ð¿
Ġoff res
ãĤ¦ ãĤ©
Ġch Ã¡u
Ġconos cere
Ġá» ¦
Ð± ÑĥÑĢÐ³
N z
Ġn is
le z
Ð¾Ð»ÑĮ ÐºÑĥ
ur amente
Ġmay ores
ĠÄĳ Ã¡m
Ġz gÅĤ
Ġorig ine
Ġpartici par
Ġnato miast
ãĤ ¥
Ġj em
ĠW ien
as ons
è² ¬
ĠPl an
Ġtrabaj ar
ĠWei hna
Ġpos zu
z em
Ġe ye
Ġdist rib
ĠS itz
Ġmus ique
Ġde dic
ãĥĥ ãĤµ
Ġmá» Ŀi
Ġter enie
ta menti
gn iÄĻ
åĪĿ ãĤģãģ¦
IC A
ĠAn ton
ĠÐ³Ð» ÑĥÐ±
ĠOb rig
ĀĀĀĀĀĀĀĀĀĀĀĀĀĀĀĀ ĀĀĀĀĀĀĀĀĀĀĀĀĀĀĀĀ
bind ung
ç į
ĠÐ¿ Ð°Ð½
Ġç ®
Ġs ze
ãģ®æ ¯
çķ Ļ
Ġeff ect
ĠMo Å¼e
ĠNuo vo
ĠPho to
5 æľĪ
Ġt Ã©r
ĠGe gen
å¼· ãģĦ
ĠFo llando
ĠÐ¾ÑĤÐ²ÐµÑĤ ÑģÑĤÐ²ÐµÐ½
Ġb rz
åħ «
ĠÐŁ Ð¾ÑģÑĤ
u ire
Ġf ini
Ġfuer te
Ġing lÃ©s
rei che
ĠSe e
ãĥŀ ãĥ¼ãĥĪ
ha ps
è¨Ī çĶ»
ãģ«ãģª ãģ£ãģ¦ãģĦãĤĭ
Ġ":" .
Ġzosta ÅĤy
pos ts
Ã¤ hlt
Ġproy ectos
Ñı Ð»Ð¸
Ġin m
Ġpos ti
p les
ĠE tique
ãģĭãģ£ãģŁ ãģ§ãģĻ
os tante
éŃ Ķ
ãĤĴ åĲ«
V D
ve u
Ġsp ia
æĭ ł
Ġsol uzione
Ġu waÅ¼
Ġleg al
ĠÑĢÐµÑģ ÑĥÑĢÑģ
ĠÄĳá» ¡
ĠV Ã¢n
Ġde ja
es ter
Ġfi lle
Ġmejor ar
ffe e
Ġæķ °
æĺł çĶ»
ĠJ ardim
on os
ei os
ĠÐ» ÐµÐº
Ġser ÃŃa
Ġm atti
Ñĥ ÑİÑĤÑģÑı
ĠNgh á»ĭ
ãĤīãĤĮ ãģ¾ãģĻ
Ġinner halb
ãĤ¨ ãĤ¢
ÑĥÑģ Ð°
ĠÃ© tant
ĠÐ¾Ð±ÑĬ ÐµÐ¼
Ġcomple tely
Ġcab o
re ded
ĠII I
Ġåı ¤
ĠS cri
Ġåį ĥ
ĠÐ¼ÐµÑģÑĤ Ðµ
Ġre lease
Ġse cteur
ĠÐº Ð³
Ġre un
ĠÐ²Ñģ ÐµÐ¹
á»ī nh
ãĤ± ãĤ¢
Ġplay ing
Ġhá»Ļ p
ĠH inter
Ġelek try
Ġocor re
Ġde ath
Ġch Ãłng
ĠÑģÐ¼ Ð¾Ð³
ĠM elh
w aÅĤa
ãģĮ ãģ§ãģįãĤĭ
Ġir Ã¡
Ġaten dimento
Ġä¸Ģ èĪ¬
ĠÑĥ Ð½Ð¸Ð²ÐµÑĢÑģ
ç§ °
Ġc ulo
p rÃ¨s
ãģĹãģ¦ãĤĤ ãĤī
ĠåŁ º
ï¼ ¿
ĠD ÃŃa
Ġmed y
ck ets
Ġan Ã¡lise
Ġin ci
ĠÑģ Ð¾Ñģ
ãģ®æ ±
ÐµÐ² ÑĭÐµ
b ek
omo ÅĽÄĩ
ĠÐ¿ÑĢÐ¸Ð½ ÑĨÐ¸Ð¿
ĠÐĳ Ð¾Ð³
ĠÐ¾ÑĤ Ð¼
ĠL ÃŃ
åĪ »
åĩº ãģĻ
ĠQu Ã¢n
Ð¾Ð´ Ð°ÑĤÐµÐ»ÑĮ
Ġcorres pond
Ġal ma
Ġab ge
rÃ© sen
arb eiten
Ġä»Ĭ æĹ¥ãģ¯
ĠéŁ ĵåĽ½
ãĥĥ ãĥĦ
ç¶ Ļ
Ġæ³ ¨
ĠÐĺÐ½ÑĤÐµÑĢ Ð½ÐµÑĤ
ĠK Ã¶rper
ĠÑģÑĤ Ð°Ð½Ð´Ð°ÑĢÑĤ
ob ra
Ġph áº¡t
Ġv amos
Ð°Ð»ÑĮ Ð½ÑĥÑİ
ä¸Ń å¿ĥ
Ð¾Ð¼ Ð°ÑĤ
Ġp anta
Ġimport Ã¢ncia
Ġdi nh
Ð» Ð°Ð¶
Ġch áº·t
Ġ ãģ§ãģ¯
Ñĭ ÑģÐ»
Ġini cia
Ġinteres ted
Ġfunk tion
ĠÐĽÑİ Ð±
ĠwzglÄĻd u
4 æĹ¥
éł ĺ
Ġãĥķ ãĥŃ
ĠW eiÃŁ
Ġma tiÃ¨re
ĠL ondon
Ġb á»Ļt
Ġim g
Ġver i
ãĥī ãĤ¢
ĠLe hr
ãģı ãĤĮãģŁ
Ġç ¢º
Ġwyk ony
Ġrisul tato
ĠÑĢÐµÐ·ÑĥÐ»ÑĮÑĤ Ð°ÑĤ
ĠO ra
ĠA v
Ġris que
usz cz
9 51
Ġbrasil eiro
Ġrecor d
Ġje Å¼eli
ĠÑĢÐ°Ð· Ð³
Ã©r iel
ãĤ³ ãĥĶãĥ¼
Ġtrabalh os
ĠCu isine
æ£ ļ
Ġconten ido
Ġprodu ktÃ³w
äºĭ æķħ
Ġexcl usi
Ġ6 5
ÃĬ N
12 æľĪ
ĠÐ°Ð²ÑĤÐ¾Ð¼ Ð°ÑĤÑĭ
ĠæĪ ĳ
Ġcali ente
Ġdom enica
ĠN Ã³
ãģĦ ãģ£ãģŁ
ĠÐ± Ð¸
v ador
ĠÐ± ÑĥÐ¼
Ġch ac
Ġdevelop ed
usi one
Ġsos titu
Ġ\": [
Ġpod rÃ³Å¼
Ġchauf f
Ġquo tid
åĪĨ ãģĳ
ĠÅļ l
ĠÄĳá» £i
ç¤ ¼
d ent
wia jÄħ
Ġä»Ĭ æĹ¥
Ġpom i
ĠKu rz
Ġmach ine
Ġt aux
æŀ Ĳ
Ġseg re
Ð¸Ð· Ð²Ð¾Ð´
ĠmÃ¶ chten
Ġ^ )
Ġreg ister
9 7
Q U
Ġ á»ĳng
ĠÑĢ Ð¸ÑģÐº
ĠAu gen
Ġk siÄĻ
Ġéĥ ¨
Ġsome times
Ġlangu age
Ġph Æ°á»Ŀng
Ġra u
eri es
Ġn owy
Ġ8 3
æ¸ ħ
ĠL OS
ãĥŀ ãĥ³ãĤ·ãĥ§ãĥ³
Ġcomunica ciÃ³n
Ġc n
ou re
h em
Ð°Ð² Ð°ÑĤÑĮ
ĠA va
ĠÐµ Ð¶
ãģ® ãĤ«
ĠQu ar
ĠNgh á»ĩ
Ġcomp lÃ¨
Ġri ghts
æļ ®
Ġconseil s
ĠD y
t one
ĠT able
ĠÐ´ÐµÐ¹ÑģÑĤÐ² Ð¸Ñı
Ġhom ens
Ġencont ra
æ ĵ
Ġb Ã¢
pa ck
Ð°ÑĢ ÑĥÐ¶
Ġen car
sto ff
ro it
Ġpartici paÃ§Ã£o
Ġv agas
Ð¾Ð» Ñİ
Ġob ser
Ġis cri
Ġkl ar
Ġutili zzare
ĠGem ei
Ġg Ã¼nstig
Ġznale ÅºÄĩ
" #
Ġv as
zy j
te ca
Ġo ben
Ġpor Ã©m
ãĥĵ ãĥ¼
Ġpar ents
Ġer war
Ġ) ãĢģ
ĠÃķ Ã¢
Ð¿Ð¾Ð» Ð°Ð³
ç¤º æĿ¿
Ġde vido
Ġrelated posts
Ġj as
b ym
la tion
Ġad ver
Ġgi áº£ng
áº³ n
ãģ» ãģ¨ãĤĵãģ©
ĠÐĺ ÑĢ
ta ine
Ġpr Ã¤
Ġwy pad
ãĥĭãĥ¥ ãĥ¼ãĤ¹
Ò ĳ
sch ul
ĠÑĢ ÐµÑĩ
ĠÐ²Ñĭ Ð´ÐµÐ»
Ġb ord
ĠÐ¿Ð¾Ð½ ÑıÑĤ
ãģķãģĽãģ¦ ãģĦãģŁãģł
ĠPed ro
Ġth Ã¡c
ta cji
Ð± Ñĥ
ka cje
Ġdi cas
rze w
Ġpro xim
ĠInd ia
ĠÐ¸Ð½Ð´ Ð¸Ð²Ð¸Ð´Ñĥ
Ġ ì
Ġl ien
éģ ħ
çĽ £
Ġhel fen
a tions
lo i
Ġnombre uses
ĠÅĽrod owis
Ġinterna cional
Ġloca liz
Ġd omaine
Ġæ ¼
ĠÐ¡ Ð»
ĠÐ¾Ð± Ð½
ãĥ¼ãĤ¹ ãĥĪ
Ð¢ ÐĲ
Ãĥ Ãĩ
Ġpl ac
ãģ® å®Ł
teri ores
Ġba Ã±o
Ġpor Ã³w
ĠÐ¼ ÐµÐ±
Ġsam ym
ai gn
ãģ£ãģ ½
Ġr á»«ng
ĠÑĢÐ°Ð¹ Ð¾Ð½Ð°
Ġdzie cka
ei en
ne o
sch er
æŃ ¯
ãĤ¸ ãĤ¢
ĠÐ´Ð¾ ÑħÐ¾Ð´
si cas
ĠAc qu
Ġperf etta
Ġn utzen
ĠÐ°Ð¿ Ð¿Ð°ÑĢ
ĠZ ar
Ġs Æ¡n
ãĥī ãĥ«
Ġè¡ Į
Ġsuccess ful
Ġzes po
8 4
ĠTo Ãłn
g anis
Ġk á»ĭp
ĠgehÃ¶r t
u ve
ti ers
ãģĦ ãģ¾ãģĽãĤĵ
ï¾ Ŀ
ĠåĪ ¥
Ġéĩ į
Ġpo t
ĠVer kauf
Ġdovre bbe
ĠAless and
Ġæ ļ
p he
ĠL ors
Ġten do
bo a
ÐĽ ÐĲ
Ġdar f
ĠAp Ã³s
Ġdifer ente
ĠEnt wicklung
ãĥĪ ãĥĬãĥł
ti ere
Ġh áº£i
Ġam our
fica tion
k reis
za Äĩ
Ġ] [
ĠdÃ© par
Ġfi zy
Ġaff aires
Ġne ues
ä¾¡ åĢ¤
ĠÑįÑĦÑĦ ÐµÐºÑĤ
z ca
ic ro
wo od
çµ µ
Ġvi te
Ġmas sa
ĠZ uk
Ġesc uch
Ġkh áº³ng
Ġthink ing
ĠLie be
ĠczÅĤ on
Ġæľ¬ å½ĵãģ«
R p
ãĥĪ ãĥ«
Ġh Ã¨
ti da
Ġwz ros
olog ical
ie g
ur ent
Ð³ ÐµÐ½ÑĤ
Ġhe at
I EN
åĸ ľ
ĠHer z
n arod
ĠA ni
1 æľĪ
ĠLe ggi
Ġty p
Ġzak ÅĤad
mit t
lÃ¨ mes
Ġsce gliere
Ãº st
Ġgo es
ãģ¨æĢĿ ãģ£ãģ¦
Ãĥ Ã±
æ± Ł
blo ck
Ġtá» ı
it ure
ãĥ¯ ãĥ¼
ÑģÐº Ð¾Ð¼Ñĥ
Ġzd row
Ġresp eito
lici dade
Ġnos sas
Ġdni u
Ġk ennen
Ġn igdy
ĠB om
Ġdou ble
ĠA ktu
ĠRe gione
Ġsytua cji
Ġlimi ted
w Ã¼r
Ġco Ìģ
ĠÐ¶ÐµÐ» ÐµÐ·
ĠFre und
ĠÐ¼Ð» Ð½
ãĥ³ãĥ ŀ
ty pe
Ġk art
ĠÄĳá»© a
ĠNue vo
ĠÐ³Ð¾Ð» Ð¾Ñģ
ĠGrand es
os ed
Ġhab it
Ġpes ar
Ġf amos
ĠG re
ĠE nd
çĹħ éĻ¢
Ġexp ected
Ġlog iciel
k g
Ġsi r
Ġv ali
åĩº ãģ¦
tow ania
Å¼y w
Ġtr ady
ĠãĤ¦ ãĤ§
ĠÐ³ÑĢÑĥÐ¿Ð¿ Ñĭ
Ġestr atÃ©
Ġesta n
Ðł Ñĳ
Ġde fen
Ġg Ã³r
ãĥ¬ ãĥĻãĥ«
ĠÑĤÐ¾ÑĢ ÑĢÐµÐ½ÑĤ
Ġcom um
or ien
ĠJ un
Ġk wo
tt are
t ures
Ġè² ©
Ġgef unden
ĠszczegÃ³ÅĤ owo
ĠÑģÐ² Ð¾Ð±Ð¾Ð´
Ġper to
Ġdru gi
Ġmet ri
YW x
Ġè¿Ķ ä¿¡
ÐµÐ¹ÑĤ Ð¸Ð½Ð³
áº ¦
s Ãµes
ĠÐ½ÐµÐ´ Ð¾ÑģÑĤ
ali zaciÃ³n
Ġcam inho
æĿ¡ ä»¶
Ġmá» «ng
ĠÑģÐµÑĤ Ð¸
erd Ã¬
ĠÄĳ Æ°Æ¡ng
era zione
Ð² Ð°Ð»
ta gem
Ġ Ĉ
ĠS ym
ĠC ab
ĠEs sen
ven ciÃ³n
ĠK iedy
ĠÐ±ÐµÐ·Ð¾Ð¿Ð°Ñģ Ð½Ð¾ÑģÑĤÐ¸
Ġoport unidad
ve y
ta ly
åĪ º
is me
Ġb and
Ġnad ie
Ġjp g
Ġah ÃŃ
Ġseu le
ĠÐ¿ÑĢÐ¾ÑĨ ÐµÐ´
ĠCam p
ĠÐ·Ð°ÑĢ Ð°Ð±Ð¾ÑĤ
ĠStra ÃŁe
Ìĥ ng
æĤª ãģĦ
Ġz byt
um o
Ġlo ja
ĠÐ´ ÐµÑģÑı
Ġpis cine
Ġwonder ful
ç £
Ġk as
Ð°ÑĤÑĮ Ñı
ĠJ ob
Ġth áºŃn
ro p
éļ Ĭ
Ġç ĿĢ
Ġza g
Ġhand l
ĠB ank
wo ÅĽci
Ġev al
ĠA re
Ġç ²
Ġcomp anh
æĺ ĵ
Ġtrabalh ar
Ġcommen taire
ĠÑĢÐ°Ð·Ð¼ ÐµÑī
ĠPro gramm
f Ã©
ĠÐŁ Ð¾Ð¼
ein t
Ġser r
y ond
Ġcapi tal
Ġte xte
Ġgouver nement
ĠFace book
B A
ow ano
tu ale
ĠBe au
ĠÑĢÐ°Ñģ ÑħÐ¾Ð´
T TI
ĠO fer
Ġanal y
Ġcap ire
Ġfor Ã§a
ãģĿ ãĤĵãģª
ĠU lti
åı¯èĥ½ ãģ§ãģĻ
ĠÑĢÐµÑĪ ÐµÐ½Ð¸Ñı
AD O
ãģ«å¯¾ ãģĻãĤĭ
U N
Ñĭ Ð½
ãĥ³ãĥ ľ
ĠL ang
c cion
Ð°Ð»ÑĮ Ð½Ð¾Ð¼
Ġi hnen
Ġid eia
Ġ ć
ĠÐ´ ÐµÐ¼
Ġz ara
w eit
Ð°ÑĤÐ¾ÑĢ Ð°
ĠcaÅĤ kow
Ġc ross
ali s
Ġorgani za
Ġkh á»§ng
Ġer sch
ĠS lo
ãĤĴ åıĸ
Ġph Ãº
Ġresp osta
ĠO rig
Ġbez poÅĽ
ywid ual
bi gliamento
Ġs ca
Ġer z
ĠÐ£ Ñĩ
Ġman os
ãģ® æĸ°
T RA
un ti
tag s
ç¸ ¾
Ġdeci ded
Ġhi jos
ĠnÃ©cess aire
E x
ãģ®å İ
ko ÅĤa
Ġg az
ĠÐºÑĢ ÐµÐ¿
to ÅĽci
mar kt
ãĤ¦ãĤ§ ãĤ¢
Ġcabe za
N Ã£o
ĠÐºÐ¾ÑĤÐ¾ÑĢ Ð¾Ð¼
t ne
ãĥ¬ ãĥĥãĥī
ch ia
ĠPortu gu
Ġprote ction
Ġpie di
Ġla is
ĠB ÃŃ
Ð½Ð¸Ðº Ð¾Ð¼
ĠSin ce
Ġgrow ing
Ġwy sy
Ġç ±³
Ġfor t
ãģ® ãģªãģĦ
ĠÐ²Ñĭ Ð´
Ġcom mento
ĠÃ© lÃ¨
ra c
ni que
ĠChrist mas
Ġtet onas
K S
Ġp li
Ġç Ī
Ġqu ang
ow od
men taciÃ³n
Ġpor nos
ĠÐ´Ð¾Ð»Ð¶ Ð½Ð°
Ġf eita
ĠWe bs
ĠPri m
\\\\\\\\\\\\\\\\ \\\\\\\\\\\\\\\\
Ġmin istre
Ġlo áº¡t
Ã¤r en
Ġvehic le
ãģ®å ¸
ĠG rou
çĶŁ ãģ¾
ãģ® ãĥĳ
Ã¼ l
ç¶ļ ãģį
Ġconte mp
Ġemploye es
U Y
Ġç İ
ll on
Ã©r cio
an zo
Ġpoder ia
ÐĲ ÐĹ
ÐµÐ³ Ð¸ÑģÑĤÑĢ
ãģ ĩ
ĠS Äħ
Ðº Ð¾Ð²Ð°Ð½
ĠÑĢÐ°Ð±Ð¾ÑĤ Ð°ÑĤÑĮ
ĠSal ud
ĠThá»§ y
Ġsali r
Ġdesc ub
Ġt elÃ©fono
Ġsoddis f
ĠSch i
Ġd ry
bb bb
Ġl iá»ĩt
Ð¸ÑĤÐµÐ»ÑĮ Ð½ÑĭÑħ
ãģĮ é«ĺ
Ð½Ð¾Ð² Ð°
Ġn á»£
ĠÐ²Ñĭ Ð²Ð¾Ð´
ãĥ¼ãĥª ãĥ³ãĤ°
å Ķ
owan ego
ĠÑģÐ» Ð¾Ð²Ð°
Ġnatur ale
Ġima gens
te chnik
ãĥ¼ãĥį ãĥĥãĥĪ
Ġdo ivent
â łĢ
Ġqu is
ĠH Æ°Æ¡ng
la ciones
æĻĤ ãģ¯
Ġg ain
ĠM undo
ÑİÑī Ð¸Ðµ
ãĥŃ ãĥ¼ãĥ³
ĠÐ¿ÑĢ Ð¸ÑıÑĤ
ĠfÃ¼ hren
ru p
Ġperson na
Ġmas simo
000 åĨĨ
ĠC entre
ĠÃ©ner gie
ĠÑĦÐµÐ²ÑĢ Ð°Ð»Ñı
Ġtá» Ŀ
Ġw ej
âĢ ķ
Ġter re
Ġnh áº¥n
ĠBar dziej
Ġmu estra
Ġkompu ter
Ġ= =
Ġf ish
Ġh ous
ĠSan to
Ġtuo i
Ġm ÃŃni
ĠNÃ¤ he
ti m
ãĥ¼ãĥ Ļ
ĠÑģÑĤ ÐµÐ½
zza ta
æ°Ĺ ãģ«
hi on
Ġ1 Âº
ãĤīãĤĮãģ¦ ãģĦãĤĭ
Ġcommer cial
Ġbe ll
Ġlo ad
Ġmo ving
ĠC á»Ļng
b uj
Ð¸Ð· Ð°ÑĨÐ¸Ð¸
ĠÐłÐ°Ð· Ð¼ÐµÑĢ
ĠÃ©v Ã©n
è¢ «
ĠEnt schei
fra ge
9 æĹ¥
Ġth áº£i
Ġbe ha
ĠÐ³ ÑĢÐ°ÑĦ
ä½į ç½®
ĠCz as
Ġcre ating
Ġproc ura
m eister
Ġmanif esta
Ġc ru
ga ta
Ġma tin
Ġat ual
ĠDies es
Ġcolo car
Ġreci bir
rasz amy
ĠS onnen
éģ ¿
Ġm áº½
æĶ »
ar at
Ġsto ck
Ġcons titu
ĠFran Ã§ais
Ġl isten
Ġstrum enti
Ġæ² ĸç¸Ħ
Ġpre ten
Ġjed em
ca ciones
ĠÐ´Ð°Ð½ Ð½ÑĭÐµ
to ff
åĸ¶ æ¥Ń
ĠB itte
ĠpÃ©ri ode
ĠrÃ©p onse
ĠS et
Ġãĥģ ãĥ£
Ġdes emp
ges amt
ĠHÃ¶ he
H A
ĠN ur
Ġor ien
Ġtr Äĥm
tow anie
ĠÑĤÑĢ ÐµÐ½
anti l
Ġfaz em
Ãĵ W
Ġg ays
lie ÃŁen
ci mentos
Ġin nymi
Ġprojet s
Ġwy j
Ġb á»¯a
Ġãĥŀ ãĤ¤
ĠCono cer
Ġoportun idade
Ġdom ingo
° ãĤĬ
ni j
ÐµÐ² Ð¾
ri co
Ġãģ¨ è¨Ģ
ta ger
ĠÑĤ Ð¾Ð¼Ñĥ
90 11
Ġvo y
ĠÐ¼Ð½Ð¾Ð³ Ð¸Ðµ
ãĤ¢ ãĤ¯ãĤ»
Ġaplic Ã¡vel
Ġau prÃ¨s
Ġt Ã©
ĠÑĢÐ°Ð· Ð±
Ġth Ã´n
Ġse c
Ġpart ners
ĠÑĦ Ð¾ÑĢÑĥÐ¼
Y S
ĠÑĨ ÐµÐ»ÑĮ
Ġgen re
rid ge
åĦ Ħ
ĠÐ¿ÑĢÐ¾Ð±Ð»ÐµÐ¼ Ñĭ
gra phi
ĩ Ĵ
Ġph p
wi ce
ĠÐ¢ ÐµÐ»
ĠO ggi
Ġf aj
Ġse tor
pri ate
ĠE UA
ĠÐŁ Ð»
gi oni
ĠÑĥ Ð²ÐµÑĢ
ãģĶãģĸ ãģĦãģ¾ãģĹãģŁ
ĠÑĩ ÐµÑĤÑĭ
Ġtow ards
ĠÐ²Ð¾Ð·Ð´ ÑĥÑħ
Ã¡ ndez
Ð°Ð¼ Ð¸Ð½
ĠÐļ Ð»
Ġas so
v ada
Ġcor aÃ§Ã£o
æ± ł
ĠJahr es
Ġco py
Ġedu ca
Ġda ÃŁ
Ġd wie
c emos
Ġcomple x
Ġh Ã´
Ġrodzi n
Ġempf e
6 3
Ġæ £
m ir
Ġac ciÃ³n
rou ght
ãģ§ãģį ãģŁ
Ġk lu
ass ung
Ġswoje go
ĠKho a
ĠÐ´Ð¸Ð· Ð°Ð¹Ð½
Ġcum pri
Ġu bic
Ġæ ¡
ãĥŃ ãĥĥãĤ¯
do ba
Ġhi jo
ãĥĨãĤ£ ãĥ³ãĤ°
Ġbeg an
Ġener gÃŃa
ĠPh an
ĠÑĢÐ°Ð· Ð½ÑĭÑħ
Ġroz p
qui era
d nie
ĠÐ¾Ð± Ð½Ð¾Ð²
Ġabb ia
Ġan uncios
Ġè¶ ħ
Ġconcern ant
áº¥ c
in ia
Ġtr á»¥
Ġtr á»«
bo ard
Ġadv anta
Ġor y
Ġng uyá»ĩn
Ġpierw sze
ãģ¯ ãģĤãĤĬãģ¾ãģĽãĤĵ
ĠUS A
Ġent fern
Ġpe ux
onn er
ĠÃ© cou
Ġr endre
ãĤĵãģ§ãģĻ ãģĳãģ©
ĠÑģÐµÐ½ÑĤ ÑıÐ±ÑĢÑı
Ġmai ores
Ġlib ros
Ġparticu lier
ĠæĢ Ŀ
ĠVen dita
ĠÑģÑĤ ÑĢÑĥÐºÑĤ
Ġd ado
ĠCh ina
Äħ Äĩ
Ð¸Ð± Ð»Ð¸
ĠSta ti
Äħd Åº
Ġd á»ĭp
ĠÑģÐ¾Ð² ÑģÐµÐ¼
Ġal guÃ©m
Ġ390 9011
u ciones
enti na
Ġac ciones
Ġkhu Ã´n
å§ ¿
ĠÑĥÑĩÐ°ÑģÑĤ Ð¸Ðµ
Ġucz ni
ĠÑĢÐ°Ð·ÑĢ ÐµÑĪ
Ġries go
ĠH y
ĠSch ne
ĠÑĩ ÑĤ
Ġsam edi
è¨Ń ç½®
ãģ©ãģĨ ãģĭ
Ġdiri tti
Ġæ® ĭ
Ġcade au
ĠSm art
W A
ĠS Ã³
Ġsp ec
Ġesta te
sze ch
xi on
Ġcro is
Ġconstru cciÃ³n
Ġf antas
Ġanali si
ī nh
Ð¿ Ð¾Ð½
Ġjed nej
gem ein
éĢģ ãĤĬ
na j
ĠPe liculas
jewÃ³dz t
Ġelektr oni
Ġproxim itÃ©
Ġri por
ĠT ambÃ©m
ÐµÐ½ Ð½ÑĭÐ¼Ð¸
Ġprz emy
ujÄħ cy
åĪĨ é¡ŀ
Ġimmag ine
ĠCham bre
Ġsm art
ĠsÃ¡ bado
b W
1 l
ĠA li
áºŃ c
ĠTr as
Ġpra wie
ĠÐ£ Ð´
Ġh áº£o
mes so
ĠR ady
Ġ2015 å¹´
ĠBewert ung
Ð¿Ð¸Ñģ Ð°Ð½Ð¸Ðµ
ĠÄĲá»ĭ nh
Ġèħ ķæĻĤè¨Ī
ĠPros titutas
Ð°Ð½ ÑĮ
Ġpro tÃ©
7 æľĪ
Ġas col
Ġpersonne l
Ġedu caciÃ³n
ĠÑĢÐµÐ·ÑĥÐ»ÑĮÑĤ Ð°ÑĤÐµ
Ġros so
Ġaper to
ĠÐ¾Ð± ÑģÐ»ÑĥÐ¶
Ġen reg
ĠFami lien
V E
Ġes as
ĠC P
Ġz al
Ġt Ã¢n
Ã¨ les
ĠÑģÐ¼ Ð¾Ð¶
ĠGi áº¥y
Ġcar ry
Ġæĸ° åĵģ
Ġf em
ĠWohn ung
ĠvÃ© hic
Ġim Ã¡genes
cc arat
Ġpar i
Ġpl ate
ĠÑĥÐ´ Ð¾Ð²
Ġorgani z
Ġzgod nie
951 50
Ġng ang
Ġdo ÅĽÄĩ
» å®ļ
Ġprac ÄĻ
åĪ¤ æĸŃ
ister io
Ġ48 95150
z Ã¡
ĠÐºÐ¾Ð½ ÑĦ
Ġpow od
ĠÐºÐ°ÑĩÐµÑģÑĤÐ² Ð°
Ã¤ f
ĠÑģÐ¾Ð¾ÑĤÐ²ÐµÑĤÑģÑĤÐ² Ð¸Ð¸
Ġc odice
ĠÄĳ e
Ġob tain
Ġreg ular
Ġquar tos
cia Ã§Ã£o
ĠÑĤ ÐºÐ°Ð½
Ġcele bra
Ġrodza ju
Ġæ¶ Ī
Ħ ª
ĠÑģ ÐµÐ»ÑĮ
ĠWe ll
ĠCon tin
Ġsyste mu
ãĥ¡ ãĥ¼ãĤ«ãĥ¼
ĠB oden
çĿ £
Ġd Æ°
ĠU p
ĠÑįÑĤ Ð°Ð¿
ĠÐ½Ð°Ñĩ Ð°Ð»Ð°
Ġmu cha
ĠWeb site
Ġcres cimento
is tance
ĠÐĲÐ»ÐµÐºÑģÐ°Ð½Ð´ ÑĢ
Ġdefini tely
G O
ĠM uy
Ġza hl
Ġtu vo
si Äħ
Ġespec ÃŃ
ĠÐ¼ Ð¾Ð±Ð¸Ð»ÑĮ
Ġal reded
åĪ ¸
aÅĤ Äħ
ĠS eit
le b
ĠÐ¿ÑĢÐµÐ´ ÑĥÑģ
Ġris tor
Ġmet tere
ĠPoli zei
ĠÄ ĩ
Ġw ÄĻ
rÃ© es
âĢ Ķ
ona w
ĠÐ¾Ð´ Ð½Ð°
T ES
Ġbu á»ĵn
Ġz ale
Ġcateg oria
Ġrecon he
al ter
ĠE ach
Ġfor mer
t ari
Ġn áº¥u
Ġsal on
Ġmod alitÃł
Ġchois ir
ãĥĥãĤ« ãĥ¼
Ġnowo czes
ĠS ig
ĠD im
Ġsco pri
Ġvendre di
Ġ' '
wo li
ther n
Ã©ri a
ĠÐ±Ð¾Ð» ÐµÐ·
è¿½ åĬł
ĠÐ²ÑĭÐ± ÑĢÐ°ÑĤÑĮ
Ġcaratteris tiche
ĠD ach
ĠÐ°Ð² Ð¸
Ġz nak
ãĤ½ ãĥķãĥĪ
ĠÐ¼Ð¸ÑĢ Ðµ
ĠSeg Ãºn
ÐĿ Ð«
âĸ ł
Ġalter na
Ġcomunica zione
ĠEro ticos
ãģĦãģ¦ ãĤĤ
Ġlu dzie
om ma
ç¨® é¡ŀ
å°Ĥ çĶ¨
ĠciÄħ gu
ĠÃ© poca
ÅĤ os
ri re
de u
Ĥ à²
ĠÐł Ð°Ð±Ð¾ÑĤ
Ġco che
ãĥĪ ãĥĥãĥĹ
ç¾İ åĳ³
ç± į
Ġmu erte
Ġngh Ã¨o
ĠV enezuela
er k
Ġa ria
èĪ ŀ
Ġeff etto
Ġtor na
Ġju gar
Ġpo bli
Ġ áº¤
ãģĭ ãģ£ãģ¦
un cia
ir t
ãĤ· ãĥ¥
ãģªãģı ãģ¦ãĤĤ
Ġvers Ã£o
èį ī
Ġb Ã¡
ãĤĤãģ® ãģĮ
ust rie
ÄĻ b
Ġbusiness es
ãģĤ ãģ¾ãĤĬ
ĠzwiÄħz ku
Ġconsider ed
olesc entes
ĠS ty
Ñĭ Ð´
ãĤ· ãĥ¼
cer ia
å£ Ĭ
Ġcl ub
Ġl ed
z uf
åº ķ
ĠS onn
ÃĴ Âµ
Ġg rÃ¼
å¤§ åĪĩ
Ġben Ã¶
ĠÑģÐºÐ°Ð· Ð°Ð»
Ġconstru ction
çĸ ĳ
ĠFran cis
ĠÐ¼ Ð¸ÑĢÐ¾Ð²
ĠBa um
Ġaum ento
Ġcou leurs
Ġdiff icile
Ġapp rÃ©
Ġser vid
Ġuffici ale
Ġdel es
ãģĶ ãģ¨
Ġbe kom
Ġb ag
s s
ĠÐ¼ Ð°Ð¼
ĠÐ¿ÑĢ ÐµÑģÑĤ
ĠÞ ī
Ġprincip ale
gi Ã£o
Ġnum Ã©ro
ĠAnt wort
ï¼ ¾
ge gen
ÅĤ aty
á»³ nh
ĠskÃ³ ry
Ġv iá»ĩt
Ġkh Ã¡ng
Ġroz um
u ation
Ġæ ¤ľ
ĠÄĳá»© c
ĠCan ada
Ġory gin
Ġcom en
ĠÐ» ÐµÑģ
Ġap or
ãģ» ãģĹãģĦ
bar en
ĠÑģÐµÑĢ ÑĮ
Ġfriend ly
Ġre uni
ĠfranÃ§ais e
ĠãģĿ ãģ®å¾Į
Ġal co
Ð°Ð´ ÑĮ
rÃ³ t
ãģªãģ© ãĤĴ
ĠÑĤÑĢ Ð°Ð²
æŀ Ĺ
Ġt áº¡m
Ġb aix
Ġoffer ing
Ġl undi
Ġty s
gen ti
ali tÃ©s
Ġ1 px
ĠBus car
am ental
zi g
gen to
ĠÐ¾Ð± Ñģ
ÅĽ la
Â¡Â °
Ġp ena
ĠãģĿãģĨ ãģĦãģĨ
Ð¾Ñĩ Ð½Ð¾Ð¹
Ã³n ica
r iel
tell ung
ĠDa ta
Ġpraw dzi
ãģł ãģ¨æĢĿãģĦãģ¾ãģĻ
ĠÐ¿ÑĢÐ¾Ð¸Ð·Ð²Ð¾Ð´ ÑģÑĤÐ²Ð°
wend et
Ġex erci
ĠTh Æ°
Ġweiter en
ĠÐ¸ÑģÑĤ Ð¾ÑĢÐ¸Ð¸
Ġkli entÃ³w
Ġãģł ãģĭãĤī
Ġwp rowadz
Ġenvir onnement
ĠAnton io
it ze
9 æľĪ
Ġå¤ ı
Ġcon tes
ra ti
ĠÐ¿ Ð¾Ð¿ÑĢ
ÐµÑħ Ð½
Ġmet ros
Ġrep rÃ©s
ÑģÑĤÑĢÑĥÐº ÑĨÐ¸Ñı
ĠpelÃŃcul as
Ġoczy wiÅĽcie
Ġwro ng
ĠÐº ÑĢÐ°
owan ym
ĠÐļ ÑĥÑĢ
Ġdos si
ãĤ¦ ãĥ³ãĥī
Ġcri a
ĠÐ½Ð¾Ð² Ð¾ÑģÑĤÐ¸
Ġforma ciÃ³n
ĠÐ¾ÑģÐ½Ð¾Ð² Ðµ
Ġpowin ien
Ġdeutsch en
ĠÐ¿ÑĢÐ°ÐºÑĤ Ð¸ÑĩÐµÑģÐºÐ¸
åºĹ èĪĹ
ĠG rigio
ĠTrabal ho
Ġdetal hes
ĠSiste ma
ãĥªãĤ¸ ãĥĬãĥ«
ĠP E
å·¥ äºĭ
ĠJu ly
ĠT aille
Ġtakie go
Ġnego cio
ÑģÑĤ Ð°
ur cia
Ġop ciones
men tazione
èĩ Ń
Ġwym ag
ãģ§ãģ¯ ãģĤãĤĬãģ¾ãģĽãĤĵ
æİ¢ ãģĹ
ĠPf lege
amer ic
ara ciÃ³n
aÅĤ u
gh ting
p ers
ãģ« æĿ¥
Ġfir ma
Ġincl u
c ode
Ġcom mande
ĠÑĢ ÐµÑĨÐµÐ¿
e ver
Ġåı ¯
Ġg á»įn
ĠUn sere
ĠãĤĤ ãģ£ãģ¨
ĠÐ° Ð»ÑĮ
ÑĥÑİÑī Ð¸Ðµ
ment ar
ĠÑĦ Ð¸ÑĢ
Ġbri n
Ġobie ktu
Ġcertain es
Ġstori co
Ġospi ti
ĠÑĥÑĤ Ð²ÐµÑĢÐ¶Ð´
å¥ ĳç´Ħ
Ġve hÃŃcul
Ġcer teza
ĠâĢ °
ĠÐ²Ñĭ Ð·
Ġesta d
u dos
Ġpa go
ĠãĤ¯ ãĥª
ãģĦãģ¾ãģĹãģŁ ãģĮ
Ġag ri
ĠD ruck
ãģ® ãģŁãĤģãģ«
ĠWind ows
Ġopport unities
( ^
ĠÐ¼ Ð°Ð½
Ġac re
è± Ĩ
Ġdisponi bles
å¯¾ è±¡
ĠÑĥÑģÐ»Ð¾Ð² Ð¸Ñı
Ġat rÃ¡s
Ġco zinha
ĠsÃ» r
Ġåıİ ç´į
ĠH á»ĩ
Ġs Ãłng
Ġres to
Ġog rom
ä¿Ŀ èŃ·
ĠAn fang
ĠÐ¸Ð½ÑĦÐ¾ÑĢÐ¼ Ð°ÑĨÐ¸Ñİ
ĠCent rum
G B
ĠH ab
Ġvo gli
Ġsz ans
Ġob ras
ti ally
Ġlav ora
ĠTi Ãªu
Ġacc ueil
ĠÑħÐ¾Ð·Ñı Ð¹
Ġexact ly
Ġ2 F
ç´ Ķ
sp ra
u tet
Ð¾ÑĢ Ðµ
utz t
ĠÐ»ÑİÐ± Ð¸Ð¼
at ury
ZX J
ĠsiÃ¨ cle
ĠFri day
ng en
Ġel en
Ġ ÑĨÐ¸
Ð»ÐµÐ½ Ð½ÑĭÐµ
ĠÑģÐº Ð»Ð°Ð´
ĠP OR
Ġmor te
ãģ®åĽ ½
Ġá»¦ y
ãģķ ãģ«
nis che
Ã¼ ler
åŃĲ ä¾Ľ
ãģĲ ãĤīãģĦ
ĠÐ¼Ð¾Ð´ ÐµÐ»Ð¸
ĠTi tel
Ġpomo cÄħ
ĠÑģ Ð½Ð¸Ð¶
Ð¸Ð½ Ð°ÑĢ
Ã¨ de
r ont
äºº éĸĵ
ãģ®ç ¾
ãģ§ãģį ãģ¾ãģĽãĤĵ
Ġaus ges
ow ymi
Ð°Ð· Ð°ÑĤÑĮ
tÃŃcul os
Ġass unto
ĠL uft
p Z
ĠâĢ ķ
ĠB ro
Ġdo g
ĠT ec
ĠS ub
ci uto
wia Äĩ
Ġmein em
Ġgru pos
å¦ »
Ġãĥ ł
Ġla que
au che
ĠI ta
Ġsus p
Ġaff ord
ut t
ãĤĴ å¾Ĺ
ĠÐ²Ð· Ð°
ĠVo tre
Ġent rÃ©e
Ġin st
Ð¸ÑĢÑĥ ÐµÑĤÑģÑı
Ġdesarro ll
ä¼ģ çĶ»
Ġop inie
ĠmunicÃŃ pio
ĠMilli onen
ĠÐŀÑĩ ÐµÐ½ÑĮ
Ġb ÅĤ
ĠÐ² Ð°Ð½
Ġd rz
our t
ĠÄĳÃ£ i
ĠâĤ¬ ï¿½
at tle
ĠA unque
ĠVene zia
at ung
ck y
Ġch urch
Ð¸Ð¼ ÑĥÑīÐµÑģÑĤÐ²
Ġsol eil
éĩĳ é¡į
Ġunderstand ing
wach sen
ĠãĤªãĥ³ ãĥ©ãĤ¤ãĥ³
ĠM ol
Ġh id
Ðº Ð¸Ð½
åĬ Ł
ĠA by
Ġre ven
tor Ã³w
amb io
ÅĽ rod
ĠH Ã³a
Ġass ess
Ġmed idas
ĠTra in
ĠÃ©v al
Ġactiv ity
Ð¾Ð· Ð¸ÑĤ
ni en
ĠE mi
anta ge
Ġfun Ã§Ã£o
ĠÑģÐ¾ÑģÑĤ Ð¾
ãĤĴè¡Į ãģĨ
Ġb á»¥ng
ĠHamb urg
Ġjem and
Ġ Ù
Ġa ÃŃ
le k
Ġf esta
Ġç Ł³
ĠOrig in
C K
Ġg ed
Ġsa tis
Ì £p
Ġf at
ĠCam era
Ġpres tamos
Ġama teur
Ġumo Å¼li
Ġè Į
Ġor o
by wa
zi eren
Ġter me
ÃĴ ÃĶ
æģ ¯
Ġb aja
° åĽ²
Ġzaku p
ĠC ruz
T S
os s
nd re
ĠÐĿ Ð°Ð´
b ao
ãģĭ ãģ¨
Ġm oun
Ġin cor
æİ ¨
Ġle gno
Ġweek end
ĠÅļ wiÄĻ
ĠhÃ´tel s
ĠÐŁÑĢÐ¾Ñģ Ð¼Ð¾ÑĤÑĢÐ¾Ð²
ĠE ing
zy w
Ġng Æ°á»£c
ĠÑĦ ÑĢ
Ġ] .
Ġstar ting
ĠRÃ© f
ĠAd ministra
æİ² è¼ī
Ġphysi cal
hau pt
ÐµÐ»ÑĮ Ð·Ñı
Ġ Æ°Æ¡ng
ĠÐ¶ Ð¸Ð»
Ġad j
ĠÄĲ Ãło
tiv itÃ©
ĠÐ½ Ð°Ð½
un al
ĠP en
ĠÐ¢ ÐµÐ¼
ãģ®ç ·
Ñı ÐµÑĤ
ĠDÃ© cou
ĠãĤ¦ ãĤ©
ĠO cto
Ġbamb ino
çµĤ äºĨ
bli Å¼
Ġsch wer
Ã¼n st
Ð° ÑĨÐ¸Ð¹
ĠWy sÅĤ
Ġparf ois
Ġzei gen
ĠO g
ĠC ze
ul as
Ãı Ãĸ
ä¹Ĺ ãĤĬ
Ġen h
ĠK od
ĠG da
ĠÑĤÑĢ ÐµÑħ
ĠE d
ĠtÃ©lÃ© phone
Ġcent rum
Ġindivid uals
Ġjet pack
ÑĨ Ð¾Ð²
å¤ ¢
ĠJ our
our ces
ãĤĴ çĽ®
ĠÐ¥ Ð¾ÑĤ
Ġ ãģĦãģĦ
Ġcomp ris
ĠÂ· Â½
ĠH eim
Ġcomple tamente
Ġstu denti
ĠPres ident
Ġvier nes
ĠÑģ ÑĦ
ãĤ¢ ãĥ¼
Ġta ka
ĠÐº Ð»ÑİÑĩ
ĠÐ²ÑĤÐ¾ÑĢ Ð¾Ð¹
ĠÐºÐ¾Ð½ÑĤ Ð°ÐºÑĤ
ĠÑģÐ°Ð¼ Ð¾ÑģÑĤÐ¾ÑıÑĤÐµÐ»ÑĮ
Ġen or
Ġes f
Ġa na
Ġx á»©
Ġpo tem
ĠÐ±Ð¾Ð»ÑĮÑĪ Ð¸Ð½
Ġposi tive
Ġè¡ ¨
richt ung
Ġsp iri
Ġd r
ed ores
ç¸ ®
ĠÑĤÐ¾Ð²Ð°ÑĢ Ð¾Ð²
ĠçĽ¸ åł´
u z
Ã´ nia
åĢ «
Ġcomp lÃ©
uel s
Ġe cco
az zi
Ġå¾ ĴæŃ©
Ġse an
ci ano
na ire
ãĤ³ ãĥ¼ãĥī
ĠÐ´Ð¾Ð» Ð»
ĠÐ°Ðº Ðº
Ġau ton
_c rop
am or
ãģķãĤĮ ãģ¾ãģĹãģŁ
ed a
tad ores
ãģª ãģ®
w ise
Ġpros simo
Ġo cen
Ġv esti
vol uciÃ³n
Ġfre cu
Ġcambi ar
ecie Å¼
urn iture
ĠP is
Ġob ter
ÑıÑĤÑĮ ÑģÑı
Ġbec ame
l eitung
Ġrespons Ã¡vel
Ġero ticos
Ġt ierra
ĠLi czba
Ġè²© å£²
Ġe y
Ġm Ã£o
ĠZ as
ĠG all
Ġcl ase
aty w
Ġacquis tare
ĠÐ¿Ð°ÑĢÑĤ Ð½
Ġcu Ìīa
Ġo cze
Ñĳ Ð»
pe z
Ġa cho
Ġdem asi
ãģĦ åĲĪãĤıãģĽ
Ġdiff erence
ãĥĨ ãĥ¼ãĥĸãĥ«
Ġaucun e
Ġabs ol
ĠÐ°Ð²Ð³ÑĥÑģÑĤ Ð°
ach ten
ãĤ¦ ãĤ£
rÃ³ ci
Ġrequ est
cz onych
ĠÐ´Ð¸ Ð°Ð³
ĠOdpowie dz
Ġpub lished
, ,
at ki
Ġof i
Ġpa cj
åı¤ å±ĭ
Ġang iel
Ġç¶ļãģį ãĤĴèªŃãĤĢ
ĠMig uel
o ÅĤ
Ġhá» ģ
Æ¡ m
Ġpeque Ã±o
ãĥ¼ãĥĢ ãĥ¼
Ġm ale
ĠN Æ°á»Ľc
Ġspo t
ĠÐ¾ÑģÐ¾Ð± ÐµÐ½Ð½Ð¾
use ppe
ĠJanu ary
ĠM es
Ġp oni
ER A
Ġten ido
te c
Ġorgani zaÃ§Ã£o
ĠwyjÄħ tkow
Ð² Ðµ
ĠT O
vo ca
Ġod wie
æīĭ ãģ«
Ġinter pre
i le
Ġch áºŃm
Ġb aixo
ange bo
Ġconj unto
ĠãĥĻ ãĥĪãĥĬãĥł
Ġg ri
ari es
æĮ Ļ
ĠÐķ ÑģÑĤÑĮ
ĠÐ¿ Ð¸ÑĪ
ç½ ĳ
geb ung
si erung
ĠåĬ ł
ĠpiÃ¨ ce
Ġsort ie
r t
ĠrÃ© us
ĠS ach
lic ÃŃa
Ġgo als
ĠÐ²Ð¾Ð·Ð¼Ð¾Ð¶ Ð½Ð¾
èħ ¹
Ġt áº¡p
Ġencont ro
ãģĮ åħ¥
Ġt esto
Ġliv res
Ġwid zi
ĠVer kehr
Ġrecommen d
Ġequip amentos
Ġinvest ment
wei sen
Ġc ores
ä¸Ģ åº¦
Ġw ait
ĠFran Ã§o
ĠÐ¼ÐµÐ¶Ð´ ÑĥÐ½Ð°ÑĢÐ¾Ð´
I 6
lica Ã§Ã£o
Ġblo od
Ġmeille urs
Ã³ mico
ãģ®æ ĥħåł±
âĦ ¢
ĠKh Ã¡nh
Ð¼ ÑĥÐ½
fica zione
Ġcos ti
Ġsimp lement
ĠÐ¾Ðº ÑĢÑĥÐ¶
Ġof ertas
t schafts
ĠÑįÐºÑģÐ¿ Ð»Ñĥ
Ġsigu ientes
Ġal ber
ĠdÃ© cor
Ġapp re
ĠPo p
ĠãĤ· ãĥ«
Ġbez p
Ġcons Ã©
Ġbusca ndo
ĠZ ent
ĠT iáº¿n
ãģ§ è¦ĭ
Ġini ti
ÑģÑĤÑĢÑĥ ÐºÑĤ
ĠOcto ber
Ñĥ ÐºÐ¸
Ġho li
ĠÐĳ ÐµÐ·
ç« ł
Ġcar go
ĠK reis
w ards
ĠCam pe
ãģ¨ãĤĤ ãģ«
Ġpen sa
ator s
ei er
l ado
Ġus ci
ãĤĤãģ® ãģ¯
ĠÑĢÑĥÐº Ð°Ð¼Ð¸
Ġpur pose
Ð¸Ð» Ðµ
Ġg áº¯ng
ĠSo cial
ĠÐĳ Ð»Ð°Ð³
ī å¼·
Ġing res
åī¤ å¸«
Ġé¦ Ļ
ĠÃĸ sterreich
ĠK ing
ãģ®å Ł
ĠV ic
ĠV inh
ĠprÃ© v
Ð¾Ð² Ð°Ð»Ð¸
Ġneces idad
Ġn arz
o tti
Ġide ale
Ġd unque
Ġgan ze
Ðķ ÐĿÐĺ
Ġcl asse
ĠÑģÐµÐ· Ð¾Ð½
ĠP rÃ³
ĠWszyst kie
ĠB est
ĠÐ¿ÐµÑĢ ÐµÐ¼
ar Ã¡n
ĠT utto
Ġfuer za
ra ca
Ġæķ Ļ
ĠÑįÐºÑģÐ¿ ÐµÑĢÑĤ
Ġparl are
ĠÃ©lectri que
ĠD iá»ĩn
Ġj az
ĠQu al
ha ft
ĠÐ¿ÑĢÐ°Ð² Ð°
ĠG ast
czenie m
Ġst ress
Ġéģ ¸
Ġpic coli
ĠÐ¸Ð· Ð¾Ð±ÑĢÐ°Ð¶
ĠDir eito
Ġba ccarat
ĠD ri
ĠA si
se e
å¿ Ĺ
Ġex erc
Ġrou te
ĠÐŁÐ¾Ð´ ÑĢÐ¾Ð±
Ġein zel
I m
Ġtem as
po lis
Ġplay a
Ġinves tis
ĠE igen
ĠRod ri
ura tion
ĠÐºÐ¾ÑĤÐ¾ÑĢ ÑĥÑİ
ien en
Ġcon cas
ĠL in
Ġpop rzed
Ġc áº·p
Ġens uite
ĠM uito
c n
Ġs qu
Ġt ess
od aw
Ġtrans fer
ĠSte uer
kow aÄĩ
Ġwy glÄħd
ãģ®åľ °
Ġrep rÃ©sen
enti no
Ġng Ã´n
ĠW he
Ġsupp ly
11 æľĪ
ub li
Ġå®Ł éļĽ
zen iu
Ġedi ciÃ³n
Ġæ´ Ĺ
Ð¸Ñģ Ð¾Ðº
gr Ã¡
Ġ03976 7
Ġde pen
Ġimpor tantes
Ġb ureau
Ġb anh
ĠD ort
ç© ´
Ġrela zione
ĠãĤ¹ãĥ¼ãĥĳ ãĥ¼
ĠÐ¿ÑĢÐ°Ð² Ð¸Ð»ÑĮÐ½Ð¾
Ġseguin te
ĠNie m
Ġtr Æ°ng
Ã£ ng
Ġpla ces
ãģĭãĤī ãĤĤ
cia Å¼
uch te
çĻº éĢģ
ĠB á»Łi
ĠãĤ¸ ãĤ§
Ġãĥ´ ãĤ£
Ġf utebol
Ġpowierzch ni
il bao
ĠÐ¾ Ð²
Ġf id
ĠV á»ĭ
Ġ owo
red it
Ġ$( '
Ġpad re
Ġc atÃ©g
Ġå ¦
ĠF est
li d
Ð°Ñĩ Ð¸
Ġinf o
ĠÐľÐ¾ÑģÐº Ð¾Ð²
Ġencu entro
uten Ã§Ã£o
å£² åį´
ĠSand ali
Ġdi o
Ġqu Ãª
Ã© is
ĠSch l
ĠAnd rea
ĠÑģÐºÐ°Ð· Ð°ÑĤÑĮ
Ġapplica zione
ĠM á»Ĺi
Ġm unicip
ĠCali for
ĠS tivali
Ġc odzien
ãĥĥ ãĤ±
Ġbring en
Ġplat form
ow nie
ãĥ¼ãĤ ¬
Ġco llo
zie hen
ĠÐĽ ÐµÐ½
ĠÐ¿Ð¾Ñģ ÐµÑĤ
ĠÐ¤ ÑĢÐ°Ð½
Ð°ÑĤÐ¾ÑĢ Ñĭ
Ġprimer os
ĠGo od
Ġsco per
f ois
ĠKomment are
º éºĹ
Ġvo ce
Ãº mer
Ð»ÐµÐ½ Ð½ÑĭÑħ
Ġau tore
ĠÑĥÑĢÐ¾Ð² ÐµÐ½ÑĮ
Ġzape wni
Ġusu ario
Ġelement os
Ġm á»¥n
Ġsmart _crop
Ġï¼ Ĳ
or ed
ĠÐĴ ÐµÐ´
ĠÐļ Ð°Ð»
k Ã¼
ĠDE S
ĠGo verno
ĠÑĥÐ» ÑĥÑĩÑĪ
Ġsup Ã©rie
Ġpren dere
Ġel Ã©ctri
V s
or ar
ãģ£ãģ¦ ãģĬ
éģ Ĭ
ĠÐ´ Ð¸Ñģ
Ġqu ero
tori al
ina zione
ãģĤãĤĬãģ¾ãģĻ ãģĮ
ĠÐ²Ð¾Ð·Ð¼Ð¾Ð¶ Ð½Ð¾ÑģÑĤÐ¸
ĠC ateg
b us
Ð°ÑĤ Ð°ÑĢ
ĠÐļ ÑĥÑĢÑģ
rei b
ĠTelef on
ĠH el
ĠF lu
Ð°ÑĤ ÑĥÑĢÑĭ
Ġbenef it
Ġv Æ°á»Ŀn
ĠP on
eit ar
Ġmo t
ĠÐ¿ÑĢÐ¾ ÑħÐ¾Ð´
ou vel
ona ti
ĠåĲ Ī
Ġget s
u ate
a ciones
ĠÑĤÐ¸Ð¿ Ð°
ĠLis boa
Ð¾ÑĤ Ñĥ
ura zione
Ġpl ante
Ġchi co
arz enia
Ġad ultos
ĠInterna cional
Ġb áºŃc
ĠC Å©ng
t eiro
p Ã³ÅĤ
ĠGia o
Ġhealth y
Ġprze wod
Ġofici al
Ãºsque da
ci ar
Ġre ve
Ġza ÅĽ
ier on
8 æľĪ
ĠM ini
ru it
ĠcÆ¡ m
ç¾ ¤
Ġ" );
Ġèª °
ĠÐºÐ½Ð¸ Ð³Ð¸
æĹ ħè¡Į
ĳ ĳ
Ġv m
Ġthá» ķ
em ic
l Ã©e
ĠPh á»¥
ãģĭ ãĤĬãģ¾ãģĻ
Ġprzy jem
Ġéħ į
ĠÃ©x ito
ĠÐ² Ð°Ð»
ĠI S
Ġal o
g iej
Ġm ort
Ġd á»«ng
f erencia
Ġkobie t
Ġassur ance
ĠPres idente
ĠÐ²ÑĭÐ³ Ð¾Ð´
Ġestrut ura
ãĤ¦ ãĥł
æĺ ¯
Ġl á»ĩnh
Ġpropri Ã©
Ġå¥ ¥
Ġaw ard
Ġmog ÄĻ
Ġstru cture
Ġãĥ¬ ãĥĵãĥ¥ãĥ¼
Ġlokali zacji
Ġcom in
ĠÐ¼ Ð¾Ð¹
Ġn á»Ńa
Ġdi vent
èĦ Ĥ
ara vil
Ġs tellt
Ġro ot
Ġma gas
k niÄĻ
Ġpres enÃ§a
ãĥĹãĥ¬ ãĤ¼ãĥ³ãĥĪ
ĠInstitu to
Ġcamp aign
ĠGrou p
C B
ÑĥÐ´ ÑĮ
ier o
Ġkh Ãºc
cul ares
ĠPol ÃŃcia
Ġpat tern
os as
Ġsa c
ĠPh Ãºc
Ġam is
ä»¥ ä¸ĭ
Ġdes tac
Ġpar ler
ĠWar to
ãĤĴæ ıĲ
Ġwo llte
Ġste lle
ÅĦst w
Ġé«ĺ ãģķ
Ġcal cio
ĠÑģÑĩ Ð°ÑģÑĤ
Ġh alten
Ġu ch
Ġab ra
Ġcas h
Ã¡ ticos
ĠV edi
ç² §
ĠÅĽ mier
Ġo cchi
Ã´ni o
Ġat temp
Ġ ï¿¥
m ia
etz ung
ĠP ost
ĠBo a
ãĥ¼ãĥĲ ãĥ¼
Ġcorre ct
Ġproprie tÃł
Ġprofes jon
Ġex isting
nd ia
ãģ® ãĤµ
Ġan unci
Ġdise Ã±
ĠEdu caciÃ³n
Ġcar rera
ĠPag inas
ãģĹãģ¦ ãģ¯
Ġr ei
ar ante
Ġconc re
Ġi mag
ĠPri n
ĠÃ© dition
Ġho tÃ©is
ãģ®æ ³
ĠÑĢ ÑĥÑĩ
ĠÐ´Ð² Ðµ
ue las
Ġprocess os
Ġle var
ãĤ½ ãĤ³ãĥ³
Ġstron ÄĻ
Ġind ywidual
ÃŃ do
Ġh ina
ĠÐ½ ÑĢÐ°Ð²
Ġne g
Ġtechni ques
Ġo ggetti
Ġtecn ologÃŃa
ĠÐ° ÑģÑģ
Ġest rate
qu ant
ĠTh áº§n
Ġx Æ°Æ¡ng
tig er
ress Ã£o
u jÄħcych
Ġåħ¨ åĽ½
abili tÃ©
ĠA z
ÐµÐ¹ Ð½
Ġsta ge
Ġdem on
Ã©ri o
æ® º
Ð°ÑĤ ÑĥÑĢÐ°
Ġpubblica to
Ġg uy
Ġge ei
b ido
ĠAm b
ĠÃº nica
czeg Ã³l
Ġcoment ario
ãĥ¦ ãĥĭ
ĠÐĹÐ´ ÐµÑģÑĮ
ãĤ« ãĥ¡ãĥ©
ĠHerstell er
ĠÑģÑĤ ÐµÐ¿
Ġcri aÃ§Ã£o
åħ¨ ãģ¦
éŁ³ æ¥½
ed ia
Ġpeque Ã±a
ĠV iá»ĩn
Ð¡ ÑĤ
Ð°Ñı ÑģÑĮ
Ġre alidade
Ġgu ten
Ġsab ato
Ġpoli tical
Ġese gu
ãģĮ å¢Ĺ
ĠÐ¾Ð±ÑıÐ· Ð°ÑĤÐµÐ»ÑĮ
Ãºt bol
ĠP RZ
Ġprue ba
Ġh áº³n
3 4
Ĵ ®
ĠÐ¡ Ð¾Ð±
ãĥ« ãĤ³
å¹´ éĸĵ
ho f
ãģ® ãĤ¨
ur ger
ãĥı ãĤ¤
Ðľ Ðĺ
Ġbeso ins
p top
gles ia
ing er
ĠH áº¡
ĠÐ² Ð¾Ðº
Ġpar is
ãĤı ãģļ
Ġç§ ĭ
cz noÅĽÄĩ
èĸ Ħ
ĠlÃŃ der
æģ ĭ
Ġj uros
æĻ ®éĢļ
Ġme xic
ĠÑģ ÐºÐ¸Ð´
Ġpob laciÃ³n
ĠÐľ Ð¸Ñħ
Ġè²· åıĸ
Ġaccor do
p ut
Ġra nd
alidad es
Ġaff ich
Ġcommun au
ĠÐ¸Ð½ÑĦÐ¾ÑĢÐ¼ Ð°ÑĨÐ¸Ñı
Ġgodzi n
ĠæĤ ª
ĠLa uf
åį Ĵ
ĠV ort
çĶ¨ æĦı
Ġfr ame
Ġeff ects
Ġev entos
å®¶ æĹı
ĠÐ¿Ð¾Ð´ ÐºÐ»ÑİÑĩ
ãģĬ ãĤĪãģ³
Ġse ll
ĠG on
ĠW Ã¼r
Ġop ere
pl ay
ĠéĿ ŀ
ãģĮ é«ĺãģĦ
Ġkonie c
ãģ®æ Ĺ
Ð¾Ñĩ Ð½ÑĭÑħ
Ġå¤ ľ
ãģ® é«ĺ
Ġbe vor
ĠÐ±Ð» Ð¾Ðº
graph ie
gen ommen
Ġza j
ĠÐ·Ð°Ð¼ ÐµÑĤ
Ġappro f
Ġse jam
Ġtritur adora
ĠIB _
Ġ- ,
ĠG as
ĠÐĳ Ð°ÑĢ
Ġvos tra
Ñĥ ÐºÐ¾Ð²
æ· ·
Þ© Þ
Ã¡ l
ba hn
æĬ ¼
Ġi tem
Ġprincip io
ĠPoli tik
ĠGiá» Ľi
ĠÑĤÐµÐ± Ñı
Ġa ta
ãģ®æ Ĭ
ĠNh áº¥t
Ðķ Ð¢
æľī åĲį
Ġpag es
ï¼ «
ãĥ³ãĥ Ŀ
ĠÑĤÑĢÐµÐ± Ð¾Ð²Ð°Ð½Ð¸Ñı
ãģª ãģģ
Ġstr atÃ©
Ġnier uchomoÅĽci
ï¼ ¬
ĠÐ° Ð¼
ri mer
Ġtem per
Ġãģ¨ ãģ¦ãĤĤ
Ð¾Ñħ ÑĢÐ°Ð½
Ġbl ue
or as
rz es
an ka
ia ge
ãĥĪ ãĥŃ
Ġter Ã§a
Ġcri si
å¤ī åĮĸ
åĪ¶ åº¦
ĠTu do
Ġè² »çĶ¨
ĠCalifor nia
us se
Ġp owy
ĠB leu
âłĢ âłĢ
ĠS und
Ð»Ð¸ ÑĪ
cj ami
ĠãĢį ï¼Ī
ãĥ¼ãĥĬ ãĥ¼
ĠÐĴ ÐµÐ»Ð¸Ðº
ĠK ultur
ĠT ar
ve ur
åī Ĭ
era tion
ĠÐ´ ÐµÑĢÐ¶
Ġåį ³
Ġnei gh
ĠBet rie
Ġbeste ht
Ġsimi li
it uation
k lei
Ġsk rzy
ĠVo ll
Ġra czej
ĠÑĪÐ¸ÑĢ Ð¾Ðº
Ġlaque lle
ur ÃŃ
ĠÐŁ Ð¾ÑĤ
ĠÑįÑĤ Ð°
es co
ĠC et
Ãı ÃĤ
ãģĹãģ¾ ãģĹãĤĩãģĨ
Ð¾Ð¹ ÑĤÐ¸
Ġ077966 1
Ġza bezpie
ĠMed ien
è ¤ĩ
ĠÐĴÐ»Ð°Ð´Ð¸Ð¼ Ð¸ÑĢ
ĠÐľ Ð¾Ð¶Ð½Ð¾
H O
ĠS U
Ġla m
in io
ur ato
si eren
Ġop ciÃ³n
ÃĴ Âª
w ienia
ĠD amit
Ġh Ã¤uf
Ġassol uta
ä¸Ģç·Ĵ ãģ«
ĠMich a
ĠTh Ã¡nh
Ġpra cu
Ġsob Äħ
rÃ¤ ge
ãģ® æľĢ
via mente
Ġpag inas
Ġstan owis
Ġterra in
Ãª tements
ãģ®ç Ĭ¶
Ġv c
ï¼ ¢
Ġus es
Ġtre ÅĽci
éŃ ļ
zahl ung
ĠdÃ©cou ver
Ġverschieden e
Ð¾ Ð¸
ĠT ur
Ð½ Ð¾Ðº
ĠC á»
ĠÐ¢ ÑĥÑĢ
ar mente
ĠÑĥÑĩ ÐµÑĤ
å®ī ãģĦ
Ġmen or
Þ¦Þ ģ
Ġinsta la
Ġrespon se
ĠÃ©conom ique
Ġer klÃ¤r
é ª¨
» Ħ
Ġm oni
Ġt áº£
Ġser em
Ġap os
e le
ĠâĢ¦ ãĢĤ
éĻĲ ãĤĬ
Ġkateg orii
åľ¨ çº¿
Ġsmart_crop _
sch ung
ĠæĿ ¾
ĠÐ¿ Ð¸ÑģÑĮ
å°ĳ ãģªãģĦ
Ġprop osta
Ġçī ©
ĠÐ½ÐµÐ´ Ð²Ð¸Ð¶
y o
Ñģ ÐµÐ´
ĠÄĲ a
ĠO ui
Ġer k
Ġper dita
Ġstes si
ĠÐ¿ Ð¸Ñī
Ġopport un
I d
ãģĭ ãģĹ
ĠV Ä©nh
éĢ± éĸĵ
v at
lla to
Ġz ie
Ġä»Ĭ å¹´
Ġ| --
fahr t
Ġresp ec
åĤ ·
ĠcompaÃ± ÃŃa
ĠGar cÃŃa
Ġf Ã¼nf
ÑĢÑĥ Ñĩ
ĠÑį Ð¿
ĠÐµ Ð¹
ĠF az
Ġcome Ã§a
vel mente
ãģ¿ãģŁãģĦ ãģª
Ġjaki ÅĽ
Ġ: :
ĠÑĤÐ°Ðº Ð¾Ð³Ð¾
Ġac tive
owo hl
Ġtra vestis
Ġregi onale
Ġdeux iÃ¨me
Ġfam iglie
ĠÐ¡Ð¾Ð¾Ð±Ñī ÐµÐ½Ð¸Ðµ
Ġfor o
Ġ" >
Ġtr Ãł
Ġg eni
è¿Ķ ä¿¡
ologi que
Ġentfern t
ta de
ob ec
Ð¾Ñĩ ÑĮ
ous and
uch s
ãĥģ ãĥ¼ãĥł
ĠH ace
Ġre k
Ġar rÃª
ĠContr ol
éŃħ åĬĽ
Ġappro priate
ãģ« ãģĹãģŁ
ãĤĦ ãĤĭ
ĠC á»ķ
Ġ} ,
Ġs áº¯t
ÃĲ ÃĤ
Ġwy god
ar te
Ġindi pen
Ġaque llos
ãĤĴ ãģĹãģŁ
Ġp au
Ġv ale
ĠQu and
ĠZ i
Ġsupp lÃ©
ãģ¨ãģį ãģ«
ĠÑĥÑĢÐ¾Ð² Ð½Ñı
Ŀ éĽ¢
Ġåĩº ä¼ļãģĦ
z k
h ei
Ġb li
Ġle va
ĠÐĲ Ð·
ĠC Ã¹ng
v ola
Ġw elt
ĠMe ta
ĠåĨ Ĩ
Ġper man
ĠDla tego
Ġrecom mand
Ñĭ Ñģ
y al
Ġvon t
ĠÐ² Ð¸Ð·
Ġne uf
tu be
Ġl áº«n
ĠNo vo
Ġad vis
mon ia
ĠÂ¾ ÂŃ
ĠResp onder
Ġprob lÃ¨mes
ĠÐ²ÐµÑĢ Ñħ
Ġfun ciÃ³n
kar te
çµĮ æ¸Ī
ãĥĹãĥ¬ ãĤ¤
ĠÐ¼ÐµÑģÑı ÑĨ
ĠãĤ¢ ãĤ¯ãĤ»
ï½¥ ï½¥
Ġdop iero
d om
Ġkh ung
Ġre qui
é£ ¾
Ġtr á»©ng
Ġãĥ» ãĥ»
bie t
s kÄħ
Ñİ ÑĢ
Ġnaj waÅ¼
Ġeconom ia
Ġeigen e
Ġcin que
ãģ®åł´åĲĪ ãģ¯
Ġmen saje
Ġto ma
äºº ãģ§
tri ce
ĠRe cht
Ð¾Ð¿ Ð¾Ð»
Ġsex y
Ð¸Ð½Ð³ Ð°
ĠDes envol
æĶ¯ æı´
ĠãĢ Ĭ
rz t
ĠZ o
ĠZ A
ĠÐ²Ñĭ ÑģÑĤÐ°Ð²
Ġr á»Ŀi
ap an
Ġinter view
Ġthá» ıa
que t
b Ã¼
ĠIn c
ĠJ ack
ĠTh á»ĥ
ĠÃ© cl
Ġvi vir
Ġmani era
ĠÐ¼ÐµÑģÑı ÑĨÐµÐ²
ĠÐ± Ð»Ð¸Ð·
ĠãĤ¹ ãĥĿãĥ¼ãĥĦ
ĠãĤĦ ãģ¯ãĤĬ
ĠÐ° Ð·
Ġsu st
Ġlo áº¡n
ĠÐ´ ÐµÑĪ
Ġ, âĢ¦
ĠéĢģ æĸĻ
u ri
ĠÐ´ ÑĢÑĥÐ·
è»¢ è»Ĭ
Ġsuf ici
ĠÐ²Ð¾Ñģ ÑģÑĤÐ°Ð½Ð¾Ð²
ĠÑģÐ¾Ð± Ð¸ÑĢ
Ġgratui to
ĠMode ll
Ġchci aÅĤ
Ġca pelli
Ġsig lo
Ġé Ń
å¼ ¾
Ġhab la
v itÃł
åİ ³
èı Į
Ġprog etti
an nel
ĠBon jour
ĠdifÃŃ cil
Ġï¼ ĸ
r ere
ãĥĥ ãĥĨ
Ġãĥķ ãĥ©
wer b
tin as
ĠÐ½Ð°Ð¿ ÑĢÑı
Ġcomp uta
Ġdar Ã¼ber
d ruck
d ienst
ĠcomeÃ§ ar
ĠÐºÐ°Ð¿ Ð¸ÑĤ
ĠÐ· Ð°Ð¹
ĠAn al
z um
Ġaff id
ĠVo ici
Ġir m
ĠHis tÃ³
ou d
ĠC U
Ġp ai
ÐµÐ½ ÑĨÐ¸Ð¸
Ġter mos
ãĤ¿ ãĥªãĤ¢
Ġdob ry
ĠCl ub
ĠÐ¾Ð¶ Ð¸Ð´
Ġpo vo
æĢĿ ãģĨ
Ġcou ver
ãĥ³ãĥĨ ãĥªãĤ¢
æł ªå¼ıä¼ļç¤¾
Ġd ream
ĠÑģÐµÑĢÐ² Ð¸Ñģ
ĠÐ± Ð¸Ð»
ãĥ¼ãĤ »
cie j
ãģ® ãĥ¡
gu ay
ÅĤ owa
ÐºÐ¾ Ðµ
ĠS ud
Ġat tac
b lio
Ġp ÅĤat
Ġen try
fas st
ĠGi useppe
Ġg ing
ĠI M
Ġ: .
oni co
Ġimp le
Ġenf in
Ġde pu
Ġapro ve
ĠtÃ©c nica
ĠÐ¾ Ñī
Ġb Äĥng
d et
å° ¾
Ġt eren
Ġposta ci
çĦ¼ ãģį
Ġä»ķ äºĭ
ĠE 3
Ġç ĭ
Ġãģ¨ ãģ¯
Ġkh iá»ĥn
ĠH uyá»ĩn
Ġf atti
Ġza bie
Ġta kim
Ã¤ch lich
Ð¿ÑĢÐµÐ´ ÐµÐ»Ñı
Ð» Ð¾Ðº
ĠH iá»ĩp
å¤§ éĺª
ĠÃ©c ran
Ġæ Ľ¸
Ġwyso koÅĽci
Ġassocia ted
zi ali
Ġcon cer
ĠM Ã¡
Ġãĥķ ãĥ¬
Ġfal a
Ġc rÃŃ
Ġå°ĳ ãģĹ
ĠS O
f ano
ĠÐ° ÑĥÐ´
Ġpra tica
Ġmod a
Ġli bero
Ã¤ llt
ĠÄĳ Ã²i
¾ éģ£
ĠLe g
ĠÐµ Ð´
ä½¿ ãģĨ
Ð½ ÐµÑģ
Ġcris is
clu ir
ä½ľ æĪĲ
ãģ«ãģª ãĤĭãģ¨
Ġvie t
\/ \/
ĠÑĩÑĥÐ² ÑģÑĤÐ²
ĠZ ubehÃ¶r
ĠJ apan
Ġpro ch
ãĥķ ãĥ©
è¡ Ľ
ãĥª ãĥ¼ãĥĪ
i ght
teil ung
Ġsupp orto
Ġord in
Ð°Ð½ Ð°Ð²Ð»Ð¸Ð²
eren ces
æµ ®
åıĤ èĢĥ
Ġh eiÃŁ
Ġtec nico
Ġliv raison
6 9
os c
Ġãģ Ī
ÅĽ le
Ã³w ka
ina teur
ĠãģĿãĤĮ ãģ«
Ġvi vere
Ð¸ ÑĨÐ¸
ĠEs paÃ±
ĠS atur
Ġprofession ale
Ġad block
Ġgi Æ°á»Ŀng
Ġl áº»
Ġco o
ĠTh áº£o
u ki
ĠÐ¯ Ð½
Ġeff ort
Ġkh áº¯p
ĠAr tÃŃculo
ĠnegÃ³ cios
Ġcarat teri
Ġsic uramente
ĠÐ¼Ð½ Ð¾Ð¶
ali zar
ĠF Ã¼hr
Ġbeha vi
ĠÐ² ÑĢ
Ġche f
ĠH um
ĠÐ» Ð¾Ð³
tu to
Ġpar tes
Ð³ Ð¾ÑĢÐ¾Ð´
usi ve
Ġbrasil eira
ent ÃŃ
ĠC le
ĠF A
v res
u Ã©m
ue ll
ĠÐ¿ÑĢ ÐµÑģÑģ
ieni Äħ
Ġpotra fi
g est
g ry
Ġi dade
ĠAd idas
ĠFe uer
Ġcre cimiento
is sima
ĠÐ¿ÑĢÐ¸Ð¾Ð±ÑĢ ÐµÑĤ
t Ã³n
Ð°Ð± Ð¾ÑĢ
ĠÐ¿ÐµÑĢ ÐµÐº
ĠÑģÐ°Ð¼ ÑĭÐµ
ĠÐ¾Ð±ÑıÐ· Ð°ÑĤÐµÐ»ÑĮÐ½Ð¾
Ġv s
ĠÐ´ Ð¶
ta gne
Ġnecess itÃł
Ġver rÃł
Ġconten uti
Ġo vvero
ĠTa gen
ĠÐ¿ÑĢÐ¾Ð¸Ñģ ÑħÐ¾Ð´Ð¸ÑĤ
ĠK an
Ð¾Ð² Ð¾Ðµ
ĠÑģÐ°Ð¼ Ð¾Ð¼
ĠÐ¡ Ð»ÐµÐ´
ĠÑĤÐµÐ» ÐµÐ²
Ġcommun e
Ġoffer ed
ĠDes puÃ©s
ĠÅĽ redni
Ġdirec tement
Ġbir th
Ġade qu
6 4
is er
ĠÑĤÐ°Ðº Ð¸Ð¼
Ð¸ÑĤÐµÐ»ÑĮ Ð½Ð¾Ð¹
ag ue
Ġmo vimento
ĠÐŀÑģ Ð¾Ð±
ult ural
Ġna tion
ĠA lla
Ġng áº¡i
Ġpas so
ind est
h eiten
ĠMa ÃŁ
Ġd Ã³l
ĠÐ¡ ÑĤÐ¾
ĠDie u
Ġcomp on
Ġinc ome
Ġjed nego
Ġmar ki
ĠSp raw
use o
ĠÃ¢ ge
Ġpic tures
Ġen ci
ĠD ien
Ġver a
Ġsz t
ri ce
Ġher mos
Ġposi bilidad
Ġst uff
ĠSec ondo
Ġimmobili er
Ġgi ardino
Ġt amaÃ±o
Ġgo ÅĽci
Ġt ard
Ġpos ted
cion amento
i ties
Äħ tek
ĠÐ½ÐµÐ¼ Ð½Ð¾Ð³Ð¾
Ġestudi antes
Ġfami lies
Ġaccom p
Ġvend as
Ġz one
ĠÐ·Ð° Ñħ
ven Ã§Ã£o
in er
Ġg wia
ÐĽ Ðĺ
ĠQ uyáº¿t
ĠkoÅĦ ca
Ġning una
ĠC li
ĠB al
Ġp si
ĠÄĲ áº¥t
an na
is tes
Ġza pis
ĠÐ½Ð°Ð´ ÐµÐ¶
Ġposs iamo
ĠÑĤÑĭ Ñģ
ĠNor te
ĠColle ge
I H
Ġ Õ
ĠC Äĥn
ĠB ud
ula tions
Ġno cle
Ġprzep rowadz
Ġma xim
Ġense Ã±
Ġde gree
ÑĥÐ±Ð»Ð¸ ÐºÐ¾Ð²Ð°Ð½
ĠcÃ³ m
ĠT ier
ĠB ek
ĠD ru
Ã³ nde
en se
ĠEl tern
cul arly
ĠDec ember
Ġtoda vÃŃa
Ġszu ka
ĠÑĤÑĢÑĥ Ð´Ð°
th Ã©
Ġsp ent
Ġpa id
ĠPo zna
Ġthan ks
esta nd
Ġrice v
Ġc ursos
ĠSicher heit
ĠÐ¿ÑĢÐ¾Ð¼ ÑĭÑĪÐ»ÐµÐ½
ĠPio tr
ĠPro gram
ult ury
Ġeas ier
Ġg ave
ĠÑģÐ¾Ð² Ð¼ÐµÑģÑĤ
Ġestudi os
ĠÐºÐ¾Ð¼ Ð¼ÐµÐ½ÑĤÐ°ÑĢ
Ġszko ÅĤy
ĠG or
ara to
Ġpro che
tan owi
p ing
Ġdire ctor
ĠBus iness
Ġafir ma
Ġcheg ou
mÃ¤ÃŁ ig
ien nent
ur ts
Ġest es
ĠS á»Ń
ĠX in
Ġsa ving
ĠÐĴÑĭ Ñģ
Ġbas is
ĠÐ¿ÑĢÐ¾ ÑıÐ²
Ġer fol
Ġcambi os
Ġmateri ale
Ġproc Ã©d
Ġcompar tilh
Ġelem enti
Ġe ta
Ð± Ðµ
ust er
Ġc Ã¢m
ĠSta mp
Ġf elt
ti endo
Ġ áº©n
Ġproduk ty
ĠProble me
Ġfil hos
Ġcommunica tion
ĠÐºÐ¾Ð¼Ð¿ÑĮÑİÑĤ ÐµÑĢ
Ġdzie cko
ĠÃ©le ctr
ar ki
Ġs air
Ġf air
ĠAr ticle
ĠM ulher
Ġc Åĵur
Ġr Ãª
isch es
Ġerh Ã¤lt
Ġstori es
Ġent scheiden
y ed
ĠÅĽl ub
le za
fi Ã©
ĠSer vices
ĠkoÅĦ cu
ĠnegÃ³ cio
ant ar
Ġni Äħ
Ġpre fer
Ġplay er
Ġde vices
Ġcommen taires
ĠNas tÄĻp
ĠSecre taria
Ġbe yond
qu Ã©e
era it
ag ing
Ġroz wi
Ġuse ful
Ġdire ction
ĠDer ni
ur er
li ers
Ġmar ch
y eur
ĠdÃ© part
Ã¢te au
Ãµ e
å¿ ĺ
Ġå¼ Ĭ
æºĢ è¶³
âĶģâĶģ âĶģâĶģ
ãĥª ãĥ¥
åĢ ī
æħ ®
çĪ ¶
Ġæ ŀ
äºĭ ä»¶
ãĥĥãĤ· ãĥ³ãĤ°
çĶŁ çĶ£
ãĤ³ ãĥ¬
ãĥĳ ãĥĥãĤ¯
ãģ£ãģ¦ ãģĹãģ¾ãģĨ
Ġæ³ ķ
ãĥ¬ãĥĵ ãĥ¥ãĥ¼
åħ¨ ä½ĵ
ãģ« ãģĤ
éĤ £
Ġçļ Ĩ
ãĤĴæ ĭ
Ġm s
åı Ĭ
ãģĮ ãģĶãģĸãģĦãģ¾ãģĻ
æĶ¾ éĢģ
Ķ è¼ĥ
Ġæ º
ĠãĤ« ãĥ«
ãģĪãģ¦ ãģĦãĤĭ
æ£ ®
é³ ¥
æĸĩ åĮĸ
éł ĳå¼µ
Ġæ ĭ
Ġå ł´
çı¾ åľ¨
åł± åĳĬ
è¨ĺ å¿µ
è¢ ĸ
Ġèĸ ¬
ãĥ Į
ãĤĩ ãģĨ
Ġç· ı
ãģ® ãĤĴ
Ġtá» ĩ
Ġå ĩ
ĠÞ Ĩ
Ð¸ÑĤ ÐµÑģÑĮ
Ġ áº¡
Ġè ¾
ĠÐ¿ ÑĭÑĤ
ĠÐŀÑĤ Ð·ÑĭÐ²
ĠÐ¿ÑĢÐ¸ Ð³Ð¾ÑĤÐ¾Ð²
ÑĢÐ¾Ñģ Ð»
æĽ´ æĸ°
ĠÑĢÐ°Ð¹ Ð¾Ð½Ðµ
ĠãĤĤ ãģ¡ãĤįãĤĵ
æı ĥ
Ġpres encia
ĠF en
rei sen
Ġs á»©
ĠÐ¿ÑĢ ÐµÐ¶
ĠÃī Ãº
ĠÐ¿Ð¾Ð· Ð´
ĠÐ¿Ð» Ð¾Ñħ
ĠIde en
ĠFrancis co
Ġç Ĥ
Ã¶ sen
ĠTr á»ĭ
ãĤµ ãĥªãĥ¼
ĠÐ¸ÑģÐ¿Ð¾Ð»ÑĮÐ· Ð¾Ð²Ð°Ð½Ð¸Ñı
Ġge bra
ĠÐºÐ»Ð¸ ÐµÐ½ÑĤ
0 1
ÐµÐ´ ÐµÐ½Ð¸Ñı
éģİ ãģĶ
Ġc ong
R ES
ĠG las
Ġtro vato
ĠÐ² Ð¿ÐµÑĢ
Ġo jos
ĠT NH
Ġorgani zaciÃ³n
Ġuten te
Ġbegin ning
pora te
einig ung
Ġin j
ze ÅĦ
Ġall ÃŃ
Ġad vice
Ġpop ra
Ġprac ti
ãģ§ ãģĶãģĸãģĦãģ¾ãģĻ
Ðł Ðħ
ĠX Ã¢y
ç§ ĭ
ĠTag es
Ġmas ajes
ĠÐŁÐ¾Ñģ Ð»ÐµÐ´
Ġpracow nikÃ³w
ĠDe partment
ĠM is
Ġles en
ĠÐľ Ð¾Ð´
rze Äĩ
ek te
fÃ¼ hl
ar za
fe kt
fi k
æ¥½ãģĹ ãģ¿
Ð½Ð°Ð· Ð½Ð°Ñĩ
Ġpro ve
Ġsp er
Ð°Ð½ Ðµ
ãģĴ ãĤĭ
Ġsan it
ĠBe g
Ġpor tal
ĠÐ½Ð° ÑĨÐ¸Ð¾Ð½
ĠG ays
Ð¾Ð² Ð°ÑĤÑĮÑģÑı
ĠScar pa
st w
Ġå· Ŀ
ĠEs cola
ĠÅº rÃ³d
Ġacer ca
âĶĢ âĶĢ
Ãº y
Ġmo ts
Ġpri me
Ġch Ãło
çľ ł
ä¸Ń åĽ½
ä¹ ±
Ġexp ect
niej szych
ĠprÃ³xi ma
Ġna tionale
O T
C om
or ge
æ¥Ń åĭĻ
Ġmie i
ĠIs titu
Ġdam age
ĠTNH H
ĠÄĳá» ĩ
Ġb Ã¨
ĠEn s
tis h
ĠRe cher
ĠL ES
Ġéģ İ
Ġcom mand
Ġconse gna
Ġé ĬĢ
ĠÐ¿ ÐµÐ½Ñģ
Ġcertain ly
ãģ®å ķıé¡Į
Ġg uerra
Ġpar le
ĠD ere
Ġcontr Ã´le
Ġpow odu
Ġsam a
ma ti
Ġdeci so
Ġschool s
ĠåĲĮ ãģĺ
ĠMej ores
ĠMos tra
Ġsp edizione
ar m
ãģª ãģĬ
Ġat to
åĭ §
li ste
ãĤ¤ ãĤŃ
Ġcon sta
ich tet
en cias
ĠT eraz
ãĢĳ ãĢĲ
å°ĤéĸĢ åºĹ
Ġg uerre
ĠB Ã¡c
Ġg Æ°Æ¡ng
ĠC ub
Ġb á»įn
bo x
Ġch áº£y
ãģª ãģ®ãģ«
åħ¬ åľĴ
ĠÐ´Ð¾ÐºÑĥÐ¼ ÐµÐ½ÑĤÐ¾Ð²
ĠksiÄħÅ¼ ki
Ġpoja wi
ĠÃ©lÃ© ments
å¾ ĴæŃ©
Ġappre cia
ĠÐ¿ Ð°Ð»
ãģŁ ãģĹ
Ġver m
po co
ãĤ¸ ãĤª
Ġth Æ°á»£ng
ĠWy da
ãĤĴ ãģĹãģ¦ãģĦãĤĭ
ĠÐºÐ¾ÑĢ ÑĢ
Ġneces idades
éĽ£ ãģĹãģĦ
ĠszczegÃ³l nie
Ġrelations hip
Ġrencont res
Ġcon ce
ĠÐĳ ÐµÑģ
V ER
ĠNe ue
Ġ200 5
Ġver siÃ³n
Ġex isten
Ġn aleÅ¼
ĠÐ¼Ð°ÑĤÐµÑĢÐ¸Ð°Ð» Ð¾Ð²
Ġpic cola
ĠÐ²Ð»Ð°ÑģÑĤ Ð¸
ĠMat erial
ĠÐ¾ÑĢ Ð¸Ð³Ð¸Ð½
ĠH Ã¼
Ġ) )
Ġser ve
a ction
ç· ł
Ġges am
ĠãĢį ãĢģ
w Ã¤r
Ã® ne
Ġti pos
Ġ(" .
Ġbro ad
Ġnature za
ĠKol ej
æİĽ ãģĳ
Ġng á»įt
Ġz uf
ĠÐ¿ÑĢ Ð¸ÑģÑĤ
Ġthá» Ŀ
ĠÐĿ ÐĲ
Ġcam inh
Ġdev rait
ĠStr om
æĢ ĸ
ĠN gu
Ġentre ga
Ġlo ved
ĠÐ¼Ð½Ð¾Ð³ Ð¸Ñħ
Ġdispon ÃŃveis
ĠÅĵ uvre
Ġ. :
ĠÐ² ÐµÐ»
Ġver ano
Ġi po
Ġp ani
ent lichen
Ġb row
Ġdes ig
ĠSte llen
ĠC lick
ĠE tat
Ð°Ð¼ ÐµÑĤÑĢ
ãĤĴæ Ľ¸
ĠÐ°Ð²ÑĤÐ¾Ð¼Ð¾Ð± Ð¸Ð»Ñı
Ġtran qui
Ġpanta lla
ment are
ĠÐŁ ÑĥÑĤ
Ġvo is
lic ante
Ġinf l
Ð¾Ð·Ð¼Ð¾Ð¶ Ð½Ð¾
Ġcharak ter
ĠV ale
t ze
mo ire
ĠÑģÐº Ð¾Ð»ÑĮÐºÐ¾
Ġsou ha
ĠSi te
Ġraggiung ere
ĠPre feitura
éĽ °åĽ²
Y m
ed s
Ġfun zione
Ġeconom ico
åįģ åĪĨ
Ġparf ai
ĠAl though
á»© a
r ono
ais se
Ġimp ac
pu ter
onc Ã©
ĠTH á»
Ġjeu di
tifica tion
ĠU ffici
ĠÑģÐ¼Ð¾Ð¶ ÐµÑĤÐµ
Ġæ Ĳ
ie lle
Ġch ÅĤo
ĠC Ã¡
enta i
è¿ °
mo bile
ä½¿ ãģĪãĤĭ
Ġplay ed
Ġricor d
ÑĤÐ¸Ðº ÑĥÐ»
ĠãĥŃ ãĥ¬ãĥĥãĤ¯ãĤ¹
ĠDescar gar
O i
ãĤĤ ãģªãģĦ
ous s
ens Ã£o
Ġfi gli
è¾¼ ãĤĢ
Ġsex ual
Ġatten d
iej ÄĻt
ĠK Ã¶l
åį° è±¡
ĠW olf
Ġuzy ska
æĴ® å½±
Ġsle ep
â Ļ
Ġz re
ere z
Ġer an
ll Ã©
Ġav ven
Ġav anti
ãĥĹ ãĥ©ãĤ¤
ĠE ast
m ely
Ġ} );
Ġpre feri
pu bblica
ãģĮåĩº ãģ¦
æ¢ °
Ġanci en
Ð¾Ð¹Ð´ ÐµÑĤ
au lt
Ġobjec tif
ĠMÃ¤n ner
ĠÅļl Äħ
Ġde mo
Ġsp ort
ãĤ« ãĥĥãĥĹ
Ġ uro
ĠÐ°Ð² ÑĤÐ¾
Ñĩ Ð¸ÐºÐ°
Ġocc ur
Ġka um
ĠÐ¾Ð±ÑĢÐ°Ð· Ð¾Ð²Ð°ÑĤÐµÐ»ÑĮ
ĠprÃ© cÃ©d
D U
Ġlo ts
ãģ« ãģĶ
èĪ ¹
Ġv aria
Ġset ting
br ary
Ġæł ª
ab bri
Ġass istenza
Ġsup eriore
Ġcre ative
3 1
u Ã©
Ġpo ka
Ġgrat uite
Ġdes ej
ĠÐ´ÐµÐ½ ÐµÐ³
Ġmiemb ros
lle y
ĠÐĶ Ð¸
Ġv áº¿t
Ġr á»ĳi
âĢ¦ ]
re ch
Âº Ã³
ĠAu ÃŁer
Ġdif erencia
æĲ į
ĠÐ½Ð°Ð± Ð»ÑİÐ´
ç¦ ģ
ĠÐ² Ð¾ÑģÑĤ
wa j
çī ĩ
is tri
Ġthan k
ĠT isch
ĠÐĽ ÑĥÑĩÑĪ
w ienie
ĠÃ©tu de
Ġwe ather
Ġterm ini
Ġch emin
Ġpobli Å¼u
ĠT ym
Ġpl ant
çĻ ¾
Ġcas io
ĠDe por
ĠBon us
Ġdiff icol
ĠG esellschaft
y n
ï¼ Ŀ
ĠS ab
ãĥ¼ãĤ ½
å½ ©
ãģ§ è¡Į
ãĥŁ ãĤ¢
Ġprzy ja
ãĤĤãģ® ãĤĴ
ĠCo pa
ĠÐ¿ ÑĥÐ±Ð»Ð¸
Ġaconte ce
Ġfav ore
Ġle cz
Ġgi ft
ft ung
Ġsh own
ad urch
Ð°Ð» ÑĥÐ¹
ĠÐłÑ ķ
Ġavre bbe
Ġco ffee
ĠÑģ Ð¸Ð´
ĠC zar
Ġhigh est
Ġins eri
Ġlet tre
ãģłãģĳãģ§ ãģªãģı
ci ous
Ã¶ nen
Ð°Ð½ Ð´Ð°
Ð°ÑİÑī ÐµÐ¹
Ġbi ld
Ġped ido
åĳ¨ è¾º
ĠdotyczÄħ ce
Ġwe g
Ġex ig
ãĤĤ ãģĤãĤĬ
ga te
ĠãĤ¹ ãĥļ
ÅĦ skiej
s ung
ĠMas ajes
Ġganh ar
Ġbad ania
flÃ¤ che
ĠW ed
do b
cu te
Ð¾Ð²Ð°Ð½ Ð¸ÐµÐ¼
Ð° ÑīÐµ
Ġp ush
Ġpl azo
Ġl un
Ã¼ gen
ĠÐĿ Ð°Ð·
Ġcomun idade
ais on
u das
Ġa mi
Ġamb ien
ĠBuen os
ĠT iáº¿ng
Ġwed ding
ir am
ĠÐľ Ð°Ð³
kow ski
ow ska
ĠÃ© vid
Ġw eni
c ente
Ġhá»ĵ n
Ġspos ob
ĠFo llar
Ġasp etta
Ġsprz ÄĻ
Ġafir mou
N v
éģ º
Ġma x
ta lly
fi ques
Ġbuen as
Ġlugar es
Ġstan no
Ġesti ver
Ġc iaÅĤa
Ġdol or
ĠÑĤÐ¾ÑĢÐ³ Ð¾Ð²
ãĤĤ ãģ¡ãĤįãĤĵ
éĬĢ è¡Į
Ġdru giej
ĠSatur day
ĠA B
os tos
ĠS cu
trz a
Ġcol ores
Ġbas ic
Ġpe ÅĤni
ĠÐ·Ð°ÑĤ ÐµÐ¼
ĠurzÄħdz enia
Ġ Ê
ĠM ess
ux o
ĠÑĥ Ð¿ÑĢ
v amo
ÐµÐ½ÑĮ ÑĪÐµ
ĠÑģÐ¾ÑģÑĤÐ°Ð² Ð»ÑıÐµÑĤ
ĠBor sa
ĠN E
w us
Ġg est
è² ¡
Ġso t
Ġre gel
Ġamp io
Ð½Ð¾ ÑĪ
éľ ĩ
èª¿ æķ´
Ġbud get
ĠÐ¾Ð±Ð½ Ð°ÑĢÑĥÐ¶
ĠT our
ĠC iÄĻ
Ġthá» Ł
Ġu w
ĠÑĥ ÑħÐ¾Ð´
ami que
ĠP ani
ĠÑĥÑĩ ÐµÐ½
ar ma
ĠãģĿãĤĮ ãģĮ
Ġng á»«ng
mF t
Ġobec nie
ãĤĵ ãģłãģĳãģ©
Ġtru ly
Ġtelef on
Ġle ngua
ei x
Ġt el
ĠÐ¿ÑĢ Ð¾Ð¶
è¿ ·
uc ci
ĠâĹ İ
èī¯ ãģı
Ġl anc
ãģ¨è¨Ģ ãģĨ
Ġamb os
ãģĹãģ¦ ãģıãĤĮãĤĭ
Ġespecial mente
ĠPhi li
ĠZuk unft
z je
ĠY es
ĠmÃ© de
Ġe ks
Ġrisp ar
ĠÐ¿Ð¾ÑģÑĤ ÑĢÐ¾
Ġlá» Ĺ
ĠBo is
ĠÐĴÐ¸Ð´ Ðµ
Ġsur face
Ġhistori i
Ġs r
Ð¸Ð» ÐµÐ¹
Ġng á»±c
Ġcomun i
z quier
Ġescol ha
Ġpo ids
Ġprofess or
ĠåĬ ¹æŀľ
ĠÑĢÐ°Ð¼ ÐºÐ°Ñħ
Ġb rought
ĠM G
ĠL I
Ġtr ade
Ġtr ust
Ðļ Ðŀ
ĠS iamo
Ġreali zacji
ä¼ĳ ãģ¿
Ð¡Ð Ĥ
ĠServi cio
ĠÐ´Ð¾Ð² Ð¾Ð»ÑĮÐ½Ð¾
Ġ ï¿
Ġun ver
Ð¸Ð´ ÐµÑĤ
pi te
Ãĥ ÃĢ
Ġown ers
Ġlie gen
ĠD urante
Ġtr ied
ĠDe puis
ĠÑģ Ð½Ð¸Ð¼
Ġiden tific
ãģ®å Į
ct wo
Ġob u
åĳ Ĥ
ĠEr n
zza ti
Ġexperien ced
Ġè¦ ª
å¾ħ ãģ¡
d l
ĠÄĲ T
ĠCh áº¥t
Ġri tro
ãĥģ ãĥ§
v ons
ĠNam en
ĠÑģÐ°Ð¼ ÑĭÐ¹
Ãķ ÃŁ
Ġenc anta
Ġarri vo
Ġdoty czy
wy ciÄĻ
ara Ã§Ã£o
Ġgi Ãłnh
Ð¸ÑĤÐµÐ»ÑĮ Ð½Ð¾Ð³Ð¾
Ġmehr ere
gel d
Ð¾Ð´ ÐµÐ¹ÑģÑĤÐ²
uj esz
Ġresta ura
äºĨ æī¿
Ġgu arante
Ð°Ð½ Ð³
Ġpar mi
ni cos
ĠNa zionale
ed ere
Ġèĭ ¥
ĠA bbiamo
ĠdÃ© li
ĠÄĳ áº¿
âĢ »
Ġwar m
Ð¾Ð´ Ñĥ
ãģĦ ãģ§ãģĻ
Ã£ es
Ġconsum id
Ġg lass
Ġpa pier
au tom
ãģ¨ ãĤĬ
á»ĭ n
ãģ® ãĥ¬
Ġover all
ĠãĤ« ãĥ¼ãĥī
ÑĥÑĪ ÐºÐ¸
Ġä»£ å¼ķãģį
Ġolh os
ãĥ¼ãĤ¶ ãĥ¼
ĠKÃ¶ ni
ãĤ¢ãĤ¤ ãĥĨãĥł
ĠWysÅĤ any
à ¹
ãģĤ ãģĤ
r us
re f
Ġar ma
uen cia
Ġseg ment
ÑĥÑİÑī Ð¸Ñħ
Ġdar k
Ġprogram u
ĠãĤ« ãĥ©ãĥ¼
Ġdimen sioni
Ġc Ã¡mara
Ġsugg es
Ġaccom pagn
Ġhina us
Ġwy ro
ãĤĴ åħ¥
Ġau teur
Ġcl asi
Ġfind e
Ġhand elt
Ġsiste mi
esten s
Ġç¨İ è¾¼
ĠÑģÐ¼ ÑĭÑģÐ»
re ur
ĠE j
ãģ£ ãģĵ
ĠC ong
Ġwas n
ãģ¾ ãģ§ãģ¯
ä¸į å®ī
Ġc idades
Ã¼ hren
je k
Ġvaluta zione
ãģ®ãģ§ ãģ¯
ien ta
ãģ® åı£ãĤ³ãĥŁ
hb WU
ĠS I
Ġdi ag
Ġdo ble
Ġjed e
ĠBer g
Ġpop raw
Ġãģķ ãĤĵ
Ġeing es
Ġredu ce
Ġprzy pom
iOi J
ĠagrÃ© able
Ġãģ ĺ
ĠB ade
ĠÐŁÑĢ Ð¸Ð¼
ĠÄĲ iá»ĥm
we hr
or ÃŃas
æ©Ł éĸ¢
æ¬ ł
ãģ¨ãģį ãģ¯
æķ´ çĲĨ
Ġaplica Ã§Ã£o
Ġbed room
ĠÐ¿Ð° ÑĨÐ¸
Ġparti cularly
ãģķ ãģĮ
ten do
ãģ®æ ¸
Ġri fi
æ¨ ¹
Ġg lau
ĠÐºÐ°ÑĩÐµÑģÑĤÐ² Ð¾
Ġpotr Ãł
Ġs ter
ĠC ul
ana ge
Ġdos tar
ÑİÑī Ð¸Ñħ
ĠÑģÐµÑĢ Ð¸Ð¸
ĠÐ¸Ð¼ ÑĥÑīÐµÑģÑĤÐ²
ãģŁãģ¡ ãģ¯
Ġpossi bilidade
Ġrice vere
ĠT Ã©c
ĠÑģÐ¿Ð¾ÑĢÑĤ Ð¸Ð²
Ġb owiem
ÐµÐ¼ Ð°ÑĤ
ob o
ato ry
Ġm á»ĩnh
Ġmis mos
Ġsur round
ĠP esso
ãĥĹ ãĥ©ãĥ³
ĠÐ¾Ð´ Ð½Ð°ÐºÐ¾
ĠTe chnik
Ġloca is
ĠÑĥÐºÑĢÐ° Ð¸Ð½
ĠÑĥÐ·Ð½ Ð°ÑĤÑĮ
ĠÐ° Ð¼ÐµÑĢÐ¸ÐºÐ°Ð½
ĠÐº Ð¾ÑģÑĤ
ab lo
dzie ÅĦ
Ġpi atta
ãĥĸãĥ© ãĥĥãĤ¯
ex ual
Ð¾Ð³ ÑĢÐ°Ð´
ĠEurope an
ĠS antiago
ĠE X
ĠÐ¿Ð¾ ÑĪ
Ð¶ ÐµÐ½Ð¸Ñı
sa zione
ãĥĸ ãĥª
v ideos
rÃ¼ ck
ad zÄħ
ĠÐ³ Ð¸Ð¿
ĠÐ¿Ð¾ÑĤ ÐµÑĢ
ãģ¾ãģŁ ãģ¯
Ġtar get
Ġme uble
Ġroz woju
Ġcomfor table
Ġvon tade
tÃ© m
Ġw ai
ĠÐ¿Ð¾ ÑģÐº
Ġcomun ic
ĠÐ¾Ð´ Ð½Ð¸Ð¼
ĠÐ·Ð°Ð¿ ÑĢÐ¾Ñģ
ĠÐ¿ÑĢÐ¾Ð²ÐµÐ´ ÐµÐ½Ð¸Ñı
ĠG miny
Ġmat Ã©riel
sch t
g ere
Ġparti ta
fi ra
ÃŃ li
Ġsu ced
sch l
ãĥ³ãĥĲ ãĥ¼
áºł I
Ġexcel ente
Ġ[ âĢ¦]
Ġk Äħ
em ia
Ġè ¢
ĠR S
h end
ãĥŁ ãĥ³ãĤ°
ur antes
ĠNa tale
Ġdonn Ã©
ĠPa ese
Ġdire cto
Ġmas tur
Ġefec to
Ġouver ture
ĠOli veira
ãĥŁ ãĥĭ
par er
Ġja kim
æĭ ¬
vi eron
Ġmos trar
ĠãģĿãģĵ ãģ§
Ġpress ure
ĠK at
ma il
ĠH Ãłnh
ĠO czy
ÐµÐ² ÑĭÑħ
k ets
Ġdeli very
b 2
Ġpo ol
ãĥ³ãĥ į
ĠCh uyÃªn
Ġjed nÄħ
åĢ Ļ
Ġtem p
ĠÐ¦ Ð²ÐµÑĤ
ĠH aut
col es
Ġspeci ali
Ġz bior
Ġspa zi
Ġr Ã´le
ãĥ¼ãĥĿ ãĥ³
ĠBras ÃŃlia
Ġbe b
Ġpour s
åĲ ¸
ãĤ¯ ãĤ¹
wo hl
w ej
Ġco ach
v idad
ĠB RA
Ġmo tivo
Ġtec nica
Ġsali da
ĠCie bie
Ġarb eiten
L V
C U
tr an
Ġre tra
Ã¶ hn
Ġhacer lo
Ġap art
ãĤ¯ãĥª ãĥ¼ãĥł
al h
ĠNaj lep
Ġsitu Ã©
¯ æĹ¶
ĠmÃ³ gÅĤ
ti an
ĠK or
Ġwy Å¼
ĠN au
les en
tor al
ç¥ ¨
çĬ ¬
aliz ada
cep ciÃ³n
Ġofer ta
ĠMan uel
ĠL eder
Ġmod elos
W y
ĠÐ¿ÑĢ ÐµÐ¼
m ale
ĠÐľ ÐµÐ´
in aÃ§Ã£o
ãģĤ ãĤĮãģ°
Ð°Ð½ Ð¸
èı ĵ
Ġfran ces
Ġhear d
ecu tive
ä¸Ģ èĪ¬
ĠÐ´Ð°Ð» ÐµÐµ
ãģĭ ãģı
ÅĤ ym
åĲ ī
ĠP ic
Ġand ers
ind re
Ġfe et
gn es
l aden
ĠrÃ©ali ser
Ġn á»Ĺi
ĠPro grama
Ġtotal mente
Ġni estety
ĠintÃ© rÃªt
ĠÐ½ ÐµÐ»ÑĮÐ·Ñı
Ġey es
ç ł
¢ Ĺ
en ch
ung e
ĠU l
âĢ Ļ
k eits
Ġrealiz ado
å¤§ãģį ãģı
Æ¡ Ìģi
ĠÐºÐ¾Ð¼ ÑĦÐ¾ÑĢÑĤ
ãģ®æ Ĥ
ãģĹãģ¦ãģĬ ãĤĬ
ĠVal encia
Ġbor n
Ġre jest
Ġoutil s
Ġmerc redi
Ġz au
m ine
ĠÐ¡ Ð²ÐµÑĤ
æĸ° ãģĹãģĦ
ĠÐ¿ÑĢÐ¸Ð² Ð¾Ð´
ĠÅĽrod kÃ³w
ĠÐ³Ð¾Ð²Ð¾ÑĢ Ð¸ÑĤ
ĠÑĤÑĢÐ°Ð½ Ñģ
Ġ000 Äĳ
Ġan sehen
Ġresponsi ble
Ðº ÐµÑĤ
ĠU s
ti ba
Ġbe wer
Ġczas em
ãĤĴ è²·
Ġcri anÃ§a
Ġop Ã©ra
Ġn iente
u ty
ĠMi gli
Ġcam paÃ±a
ĠÐ¼Ð¾Ð´ ÐµÐ»ÑĮ
Ġescol her
Ġeconom ic
ĠQuÃ© bec
åķı ãģĦåĲĪãĤıãģĽ
st Äħ
ĠD Ã¹
Ġdem os
ĠQu áº£n
ãģ¾ ãģļ
Ġd uro
ãĥ¯ ãĤ¤
ĠmÃ© di
ĠÐ½Ð°ÑĪ ÐµÐ³Ð¾
ĠLo ok
å®¶ åħ·
w aÅĤy
stell t
cont ri
Ġdescon to
ĠÑĨÐ¸ ÑĦ
Ġgi Ãły
Ġda je
Ġi eri
ĠÐ¸ÑģÐ¿ ÑĭÑĤ
ãģĹãģı ãģ¯
ĠÐºÐ°Ð¶Ð´ Ð¾Ð³Ð¾
ten cia
ĠÃ©tu des
Ġgiov ane
ĠÐºÐ¾Ð¼ Ð¸ÑģÑģ
ĠTu áº¥n
Ġcompar tir
ab oraciÃ³n
Ġku piÄĩ
Ġincre asing
Ġregard ing
bes ondere
P O
Ġk g
Ġj or
ber icht
c enie
Ġav en
Ġapp o
Ġca po
ĠÐ¿Ð¾Ñģ ÐµÐ»
i anti
Ġtra fi
ãĥķãĤ¡ ãĥ³
ali sation
Ġc ards
Ġrele ased
ĠÐ¿ÑĢÑıÐ¼ Ð¾
Ġo ggetto
ĠÐ»ÐµÐº Ð°ÑĢ
] ,
Ġo j
Ġun it
á»¥ i
ĠI TA
ling en
ĠæľĢ åĪĿ
Ġincre ased
Ġcomp osto
å±ķ éĸĭ
Ġcent rale
Ġozna cza
ĠAssocia zione
ãģŁ ãĤĭ
ĠÐĿ ÐµÑĤ
ï½ ¯
Ġjak Äħ
Ġc Æ¡n
ĠY Ãªu
vid os
ĠmÃ© to
ĠAd d
Ġt Ä©nh
quil o
Ġzat ru
ÃĨ Ã¥ÃħÃĨÃĵÃİÃı
Ġ, #
ĠR ze
ĠD anh
Ġmá» ¡
Ġmo teur
we gen
ol u
ĠTwo je
Ġtradi tion
Ġcon forme
ĠÐ¼Ð°ÑģÑĤ ÐµÑĢ
ĠC ro
ĠH os
Ġprz ych
ĠS ao
æĻĤ æľŁ
Ġro ÅĽli
ĠÐļ Ð¾Ð½ÑĤ
Ġsub mit
f Ã¤h
Ġï¼ģï¼ģ ï¼ģ
ĠÐ°Ð²ÑĤÐ¾Ð¼Ð¾Ð± Ð¸Ð»ÑĮ
ĠC y
ĠÐ² Ð¸ÑĤ
Ġz le
Ġdel a
Ñĭ Ð¿
ï½ Ģ
ĠH il
Ġapp e
Ġvia ggia
Ġsui vant
ĠKra kÃ³w
Ġmean ing
Ġda vanti
ĠÐŃÑĤ Ð¾ÑĤ
C u
ĠâĢ º
ĠF und
ĠÐĵ Ð¾ÑĢ
ĠÐ³ ÑĥÐ±
ub les
ue bles
us ta
åĿ Ĥ
Ġdisp osition
ĠEr folg
Ġt Ã¢y
ĠC Ã¡i
zz ano
Ġt áº¯t
Ġre gar
Ġcom Ãºn
ĠSa lle
é£² ãģ¿
ne as
e za
ĠrÃ© g
Ġæ¯ İ
Ġtrans porte
Ġdistan za
ĠÐ¾ Ð½Ð¾
Ġng Ãłn
Ġf and
Ġwsp ar
Ġæĺ ¥
Ġ9 11
ãģı ãĤī
es p
ĠÄĳ Æ°Æ¡
ĠB Æ°á»Ľc
å· ¦
Ġd ress
ĠTH E
Äħc ych
para tion
ĠthÆ¡ m
ĠÐ¸Ð³ÑĢÐ¾Ð² ÑĭÐµ
ĠÐº Ð½Ð¾Ð¿
om as
ĠÐ² Ð¸Ð½
Ġfor ce
va ta
Ġl á»ĳi
for d
ÐµÑĪ ÐµÑģÑĤÐ²
hi bi
Ġprze k
Ġresp ond
ÐºÑĢ ÐµÑĤ
ĠComp any
w ent
äº Ĵ
Ġ20 00
ĠÐ¿ÐµÑĢ ÐµÑģ
tÃ© ris
ato rio
ãĥĨ ãĤ´
ei ller
ĠÐ¾Ð± ÑĢÐ°Ð±Ð¾ÑĤ
ĠWet ter
J l
Ġer am
pa nd
ue lles
ãĤ¹ ãĥĶ
ĠÐ¼ Ð¾ÑģÐº
ĠtÃ©c nico
Ġinse gn
ĠSund ay
Ġau d
ĠM Ã¬nh
ĠÑĢ ÐµÑģÑĤ
Ġou v
ãĥ¡ ãĤ¬
Ġfor mas
Ãī Ãº
Ġsho p
ĠWhi te
ĠÐ·Ð°Ñī Ð¸ÑĤ
Ġar ticoli
wi nd
ĠÄĳ áº£ng
Ġl á»¥c
ĠÅĽ w
Ġdo kon
Ġsy n
ĠSex y
Ġconse gue
Ġb Ãºsqueda
f es
Ġna ve
ĠK áº¿
ri al
Ãĵ Ãļ
ĠÐ²Ð· Ð³
ĠTh i
ĠIn sta
ĠÑįÐº ÑĢÐ°Ð½
ĠãĥĲ ãĤ¤ãĤ¯
ĠTod ay
éľ ²
Ġqui eres
Ġcio Ã¨
ãĥ¼ãĤ ¼
il an
ãģ¤ ãģ¤
Ġmo ther
ĠÐ¿Ð¾Ð» Ð¾Ð²
Ġfil mes
Ġbei spiel
Ġå®Ł ãģ¯
Ġcab elo
ĠÐ¿ÑĢÐ¾ÐµÐºÑĤ Ð°
ĠInforma ciÃ³n
Ġtoi le
Ġjoven s
ãģĤ ãģį
ãģ¾ãģ§ ãģ®
Ġcom menti
Ġen dere
ĠLi ber
Ġdou te
Ġcontr atto
ãĤĨ ãĤĭ
Ġorganis ation
Ġcele br
ĠTe chn
ãģı ãĤĵ
ĠÄĲ i
ãģĿ ãģĵ
ari ly
é ©ļ
rai ent
Ġgru py
Ġpowie dziaÅĤ
ĠãģĹãģĭ ãĤĤ
ĠChi esa
ĠMich el
ĠK ranken
ĠÄĩ wi
Ġb ur
ĠA ra
Ġwi zy
ĠM az
Ġco Ã±o
Ġpr osta
ĠÐ¿ÑĢÐ°Ð² Ð¸Ð»ÑĮ
ãĥ¼ãĤ· ãĥ§
ĠÐ´Ð¾Ð»Ð¶ Ð½Ð¾
is try
ĠD igi
Ġstrum ento
Ġsm ak
ĠPal ermo
th y
ni es
am ica
ĠÄĲ á»ĵ
ĠÐ½Ð¾Ð² Ð¾Ð³Ð¾
ç¶ Ń
tif ied
Ġedi fici
ĠdÃ©f ini
Ġri serva
ãģ®å¥³ æĢ§
Ġpar ceria
Ġinfl uen
Ġextre mely
ĠÐ¿ ÐµÐ´
Ġcu ir
Ġc Äĥng
Ġt Ãº
al nÄħ
ĠA lles
Å¼ d
Ġvi vre
Ġk ÃŃn
ĠÃ© du
Ġjakie ÅĽ
Ġkon kre
Ġev itare
Ġso ggetti
Ã§ Ã£este
Ġäº¬ éĥ½
ĠÐ²Ð·Ð° Ð¸Ð¼
Ġbe ach
ĠCom ent
ÑĢ Ð¾Ðº
Ġsp ese
ei cher
Ġd áºŃy
Ġcon for
Ġm aÅĤo
å·Ŀ çľĮ
ĠÑĢÑĭ Ð±
Ġrepor ted
Ġmovi miento
ĠÐ¿Ð¾ÑģÑĤÐ¾ÑıÐ½ Ð½Ð¾
Ã¼ss el
Ġarchi te
Ġus un
Ġza po
Ġf ahr
æ² ³
ĠCon f
ĠPre cio
ãĤĬ ãģ¨
ĠS ans
Ġd Æ°á»£c
ãģ®æ ī
ĠM áº·c
Ġmar di
ä¹ ĭ
ãģĭ ãģĳãģ¦
Ġpass ou
ĠÐ°Ð½ Ð°Ð»Ð¾Ð³
orn ada
ĠzamÃ³w ienia
ĠAnt worten
3 8
an ki
ĠK la
ãĤ¹ ãĥĳ
Ġcu a
Ġcons ec
æ±º å®ļ
stell ungen
ye z
Ġtrou vÃ©
Ġdever Ã¡
Ġrecom end
Ġcabe Ã§a
Ġdispon ÃŃvel
Ġãģ¾ãģļ ãģ¯
Ġemb ara
ï¼ §
ĠT E
Ġm á»Ļ
ĠEr k
Ġãĥª ãĥķãĤ©ãĥ¼ãĥł
Ġl ines
Ġrepresenta n
ĠkaÅ¼d ej
Ġcaracter ÃŃsticas
Ġdimos tra
Ġconfi ance
7 1
ãģł ãĤĪ
éĸ ī
Ġen la
Ġ4 00
Ġdis co
Ġtho Ã¡ng
ï¼Ĵ ï¼Ĳ
æķĻ èĤ²
Ġregi Ã³n
ãģĦãģĳ ãģĦ
Ġæīĭ å¸³
ne z
ãĥª ãĥ¼ãĤ¹
ĠRe ad
ç¨ ¼
æ¯ İ
Ġteng a
ĠEs cort
ĠÐ¡Ð¿ Ð°ÑģÐ¸Ð±Ð¾
Ġwy nosi
ĠB A
id ÅĤ
ĠA tÃ©
do or
Ġthu a
Ġp kt
ãĥľ ãĥ¼ãĥ«
ĠÃĸ ff
Ġmeille ure
Ġh Ãłm
Ġcorre o
ĠErgeb nis
Ġlar gest
p to
Ġ6 4
Ġstar k
ĠÐ½Ð°ÑĪ Ð¸Ñħ
Ġcomple ta
Ġraz Ã³n
ĠC urso
Ġques tione
Ġsele ct
Ġpens ar
Ġimpe gno
Ġfabri c
Ġmil ieu
ei g
ĠÑģ Ð¾ÑĢ
c la
Ġmay be
OW E
v ÃŃo
á»§ y
Ãª Ìģ
ĠBl ue
Ġmode lli
Ġpad res
çŁ¥ ãĤīãģĽ
Ġä¾ĭ ãģĪãģ°
ĠÑĢÐ°Ñģ ÑĪÐ¸ÑĢ
e e
Ġex i
Ġl ini
ten ces
ĠG Ã©n
ÑĢÐ°ÑĤ ÐµÐ³
Ġkhu áº©n
Ġr ates
Ġb Ã£i
Ġmo vil
Ġgior nali
Ġsom os
Ġcomp rendre
are jest
ĠTi pps
Ġy eux
Ġdesemp enho
ĠF Ã¤
sz k
Ġm ari
Ġhelp ing
Ġdess ous
ĠPres ario
in te
r oni
åħ¨ åĽ½
Ġester no
Ġcorres p
ĠæĽ ´
ber n
ĠÑĦ Ð»
ĠÐ¾Ð¿ ÐµÑĢÐ°
Ġren dere
Ġsol uÃ§Ã£o
ĠÐ·Ð°Ð¼ ÐµÐ½
ãĤĴ èģŀ
Ġcono cimiento
ĠÐ½ÐµÑģÐº Ð¾Ð»ÑĮ
Ġor dre
Ġmateria li
ĠStre et
Ġm auv
ĠÐ¦ ÐµÐ½ÑĤÑĢ
ĠÐ·Ð°ÐºÐ¾Ð½ Ð¾Ð´Ð°ÑĤÐµÐ»ÑĮ
ĠSonn tag
Ġb áº¡i
Ġm Ãły
Ð½ ÐµÐ½Ð¸Ñı
ĠÄĳ Ãłi
å° ±
ï¾ Ħ
Ġg osta
o ir
ãĤ¢ ãĤ¦ãĥĪ
Ġche veux
Z E
Ñı ÑİÑĤ
m ania
ãģ§ãģį ãģ¦
ungs ver
ãĥ¼ãĤ¸ ãĥ¥
ĠF ound
ni cal
ĠSz cze
ĠW ork
Ġvo ix
Ġpod rÃ¡
Ġen vie
ĠDire cciÃ³n
ĠmiesiÄĻ cy
Ġes prit
ĠFranÃ§o is
ĠP T
Ġper der
ĠM aj
Ġre for
ÑĪ ÐµÐ¹
Ġprocess us
è· ¡
Ġci Äħg
Ġdur Ã©e
æĹ© ãģı
Ġmaggi ori
5 6
te o
ĠM id
c les
Ġ8 2
ãĥķãĤ£ ãĤ¹
Ġpower ful
Ġobra z
ĠJes Ãºs
ĠS ÃŃ
Ġf rÃ©
Ġse zione
ĠR und
Ð¾Ðº Ð¾Ð¹
ĠÐ¾ÑĤ Ð¿
ÑģÐº Ð°Ð¶
Ġes ser
Â¡Â ±
ĠA ller
éĢ ĥ
Ġvi lla
ĠC áº£m
Ãķ Ã¢
Ġchang er
Ġgu ard
Ġcomple ted
ĠKo lle
Ġnumber s
Ġid Ã©es
Ġcolle ge
ĠÐ² ÐµÐ»Ð¸Ðº
nict wa
Ġesf uer
Þ ®
Ġri st
Ġtr áº§n
si v
na ch
ba ciÃ³n
ĠUni ti
ĠServi cios
or ti
ow ol
ĠD re
Ĥ äºº
w nÄħ
Ġx Æ°a
Ġter zo
Ġnov itÃł
IN H
ĠãĤµ ãĥ¼ãĥĵãĤ¹
Ġear n
Ġefec tos
ĠÐ¿Ð¾Ð´ Ð¿Ð¸Ñģ
Ġrealizza zione
ĠsÅĤu Å¼
Ġenten der
ĠÑħÑĥÐ´ Ð¾Ð¶
Ġo e
Ġï¼ »
Ñĭ ÑģÐº
ä¸Ĭ ãģ§
iss on
ĠÑģÐ» ÑĥÑĪ
èĳ Ĺ
Ġlet ter
ĠCons elho
ĠPerson al
Ġè º«
YW 1l
Ġc od
éĽ ª
ĠÑĥÐ´ Ð¸Ð²
Ġvor hand
ĠPe ter
ĠM ake
Ġgegen Ã¼ber
Ġusu Ã¡rios
Ġtele fono
ĠDetail s
ĠÐĴ Ð¸Ðº
Ġcomp res
ãĥª ãĤª
Ð¸ÑĢÐ¾Ð² ÐºÐ¸
Ġãĥŀ ãĥ«
ĠÑĤÑĢ ÐµÑĤÑĮ
ĠÐ²Ñĭ Ð¸Ð³ÑĢ
Ġprov ved
Ġpreved e
Ġnie co
is ty
t ungen
l end
Ġs eis
è¾¼ ãĤĵãģ§
ĠãĤĤ ãģĹ
vol uÃ§Ã£o
ĠS ua
Ġposi ad
Ġmom entos
Ġpeti tes
ĠÑĨÐ²ÐµÑĤ Ð°
ĠS ho
Ġgiá» įng
ĠãģĤ ãĤĬãģĮ
Ġrozpo czÄĻ
Ġr ules
Ġal though
Ġa migo
ĠçĶ» åĥı
en ci
Ð½Ð¸Ðº Ð°Ð¼Ð¸
owa Å¼
p lÃ¤
ĠÑģÐµÑĢ Ð¸
Ġæĸ° ãģĹãģĦ
Ġay er
uit s
ĠK aufen
Ġcommer ce
Ġprote zione
Ġvi llage
ĠÑİ ÑĢÐ¸Ð´
Ġt ÃŃtulo
ĠÐ¾Ðº Ð¾Ð½Ñĩ
Ġstudi es
Ġp ÅĤ
ti dos
Ġza jÄĻ
Ġil oÅĽci
æĽ¸ ãģį
æĸĩ åŃĹ
Ġo kaza
Ġr ower
Ġesigen ze
Ġg auche
c Ã³n
ĠH uy
Ġr ein
ĠÐł Ð¾ÑģÑĤ
Ġus ado
tori os
æı ı
éĢģ æĸĻ
ãģ«ãģ¤ ãģį
ÑĢÐµÐ¼ ÐµÐ½Ð½Ð¾
ĠÄĳ áºŃu
Ġl Ã£i
ĠFl or
ĠÐ²Ð¾Ð·Ð´ ÐµÐ¹ÑģÑĤÐ²
ÃªÌ£ n
Ġh ref
ol et
ĠPor te
ĠãģĤ ãģĻ
Ð¸Ð³ Ð¸
Ġamp li
ĠÐ½Ð¸Ðº Ð¾Ð³Ð´Ð°
Ġvis ite
ĠæĦ Ł
Ġsele ction
Ġpati ent
ĠÐ»ÐµÑĩ ÐµÐ½Ð¸Ñı
ĠNi estety
ĠB iÃªn
ĠÃ© di
Ġser Ã¡n
Ġho gar
ĠÑĥ ÐºÑĢ
Ġg old
ĠEst Ã¡
Ġper mis
ĠÐ·Ð½Ð°Ñĩ Ð¸ÑĤ
Ġg osto
Ġver wendet
ĠÐł ÐµÐ³
ĠU F
ĠÐ¿ Ð°Ð¿
in Ã©
ĠéĢ £
Ġcam pe
ãĥ³ãĤ¿ ãĥ«
ĠBe cause
Ġchac un
Ġsr c
Ġda o
ÑģÑĤÐ² Ð¸Ðµ
ãģ®æ ©Ł
ĠÐº Ð¾ÑĪ
Ġposi ciÃ³n
ĠO fici
Ġli mit
ĠCh ico
Ġo lio
ãģŁãģ¡ ãģĮ
Ġno tice
Ġspotk ania
Ġb airro
ĠR ag
Ġges tal
Ñĩ Ð¸ÐºÐ¾Ð²
Ġav aient
ĠwaÅ¼ ne
ĠUnter stÃ¼tz
Ġb ilh
Ģ ¬
Ð¸ÑĤ ÑĥÑĤ
åį ł
ĠA tti
ãģĪ ãģļ
Ġb ran
ÐĲ ÐĿ
Ð¸ÑĢÑĥ ÑİÑĤ
ĠS amo
ĠÐºÐ¾ÑĢ Ð·
Ġm iaÅĤa
ĠSicher heits
Ġabsol ute
ĠÑĤ Ð°Ð½
Ġt ante
Ġdes p
Ãķ ES
ĠÃī Ãı
Ġpor tare
ologi es
Ġt worzy
ãģ®ãģ§ãģĹãĤĩãģĨ ãģĭ
ĠW Y
Ġz eit
Ġsc ol
Ð°ÑĢÑĤ ÑĦ
ĠÃĭ Ã»
Ð¸Ð· Ð¼Ð°
ĠTag s
is p
Ġaque les
Ġliber tad
ĠrÃ©pond re
ĠSÃ¼ d
ĠCÃ³ digo
$ (
Ã¨ tre
ĠÑģÑĤ Ð¸Ñħ
czy ny
ĠK ons
ĠCon he
Ġspe zie
emb ros
s hip
Ġspeci ale
ĠÐľÐ¾ÑģÐºÐ² Ñĭ
Ġpe Ã§as
Ġblo gs
ĠHa cer
ĠãĥĨ ãĥ¬ãĥĵ
Ġachie ve
Ġrecon na
Ġtecni che
Ġå» º
Ġrisor se
ĠÐ¾ÑĤÐ¼ ÐµÑĩ
Þ® Þ
¡ ¬
Ġm ec
ĠD ic
Ð¸ÑģÑĤ ÐµÑĢ
ÐµÐ¶ Ð´Ð°
ãģªãģ© ãģ§
ĠAr qui
vis or
å¤ļ æķ°
ĠÂ± Â»
Ġï¼ī ãĢį
Ġad idas
Ġved e
b ody
äºĭåĭĻ æīĢ
Ġdiferen Ã§a
ĠÐ¿Ð¾ÑģÐº Ð¾Ð»ÑĮÐºÑĥ
ãģĦ ãģĮ
Ġam bi
um b
lica ciones
Ġh ol
Ð¸Ð· Ð°ÑĨÐ¸Ñı
Ġarri ve
Ġtele wi
ĠEtique tas
ãģ®åİ Ł
Ġdifficol tÃł
Ġè Ĭ
ĠÐº Ð°Ñģ
å¥ ı
wei ter
c Ã³
å£² ãĤĭ
Ġvol un
ĠÐ´ÐµÐ» Ð°
ĠTe xt
ãĤµãĤ¤ãĥĪ ãģ§
Ġah or
ÅĤu Å¼
Ġta xa
ãģ®æ° Ĺ
ĠPel ÃŃcul
Ġde k
ĠÐº Ð¾Ð³Ð¾
il Ãł
ĠTr Ã¨s
ĠÅ Ĵ
å¾Į ãģ¯
Ġç§ģ ãģĮ
Ġprodu ce
ĠDzi aÅĤ
ĠÑģÐ¾ÑģÑĤ Ð¾Ñı
ĠÐ¿Ð¾Ðº ÑĢÑĭÑĤ
ch ange
or mais
Ãºst ria
Ġer r
ĠB all
Ġz os
Ġcl Ã¡
zu jÄħ
ĠÐ¾ÑĢ Ð³
ĠFar ben
å®Į åħ¨
ĠãģĦ ãģ¤ãĤĤ
teli st
ĠÐ¿ÑĢÐµÐ´ Ð½Ð°Ð·Ð½Ð°Ñĩ
ĠA D
ĠLa w
Ð¼ Ð¼
ãģ®ç §
ĠCh uyá»ĥn
ĠSp rzed
Ġenf r
Ġpregun ta
Ġcompar ed
l ungen
ãĥĭ ãĤ¹
Ġpos so
ÐĲ Ðŀ
Ġh Ãło
ĠÐ³Ð¾Ð´ Ñĭ
va ti
ĠÂº Ãį
alizza zione
ĠãĥĽ ãĥ¼ãĥł
Ġpart ner
ĠPau l
Ġè© ķ
ĠÐ½Ð¸ Ð¶Ðµ
ãģ®åĭ ķ
arb eitet
ĠÐ±Ð»Ð°Ð³ Ð¾Ð´Ð°ÑĢÑı
ĠH Ã¹ng
åį ļ
ĠC osta
Ġm áº¯n
ate ly
èĩª çĦ¶
ĠG reen
Ġsettim ane
ĠE E
çĶ ĺ
ĠA i
Ġtr á»¯
Ġdu Å¼e
Ġp ÅĤa
ãĥª ãĥĥãĥĹ
ĠæĿ ¥
Ð¸ÑĢÑĥ Ñģ
Ġcon vin
ĠkrÃ³ t
Ġchalle nge
ĠRÃ© pond
ĠÐ¤ Ð¾ÑĤÐ¾
Ġpartici paciÃ³n
ĠAm Ã©rica
Ġconos cenza
ĠLÃŃ nea
åħ µ
ty n
ĠX Ã£
ĠCom er
ĠÐ§ ÐµÐ¼
Ġle kar
ĠW ald
ĠÑģÑĤÐ°ÑĤÑĮ Ð¸
è¯ ķ
Ġfa cendo
ĠÐ¼ ÐµÐ½ÑĮÑĪÐµ
ĠI T
ĠN et
èª ĺ
ĠNh áºŃn
tis ta
ĠC ina
i bile
Ã® te
ĠÅ» y
Ġassocia tion
ĠÐŁÐ¾Ñĩ ÐµÐ¼Ñĥ
ĠÐº Ð°Ð»
h ia
Ġper u
ĠT á»±
eri fe
èĦ ļ
ĠBet t
ĠWarsza wie
Ġdise ase
ãĤµ ãĥŃãĥ³
ãĤµ ãĥĿãĥ¼ãĥĪ
Ġessen tial
ĠMicha el
Ġopportun itÃł
is tica
ãĤĵ ãģ§ãģĻãģĮ
Ġmo im
ĠB ack
we ÅĤ
Ġind ag
un tos
ç¶ļ ãģĳãģ¦
èªŃ ãģ¿
Ġprote ct
ĠÑĦÑĥÐ½Ðº ÑĨÐ¸Ð¾Ð½
ãģ®å° ı
ĠÐ½ÐµÐºÐ¾ÑĤÐ¾ÑĢ ÑĭÐµ
Ġtelef one
Ġl unes
sa ciÃ³n
ÐµÐ· Ð´Ð°
Ġ1 20
ãĤ¤ ãĥĦ
ĠÐ»ÑİÐ± Ð¾Ð²
Ġtras forma
ĠS en
Ġtrabaj adores
ãģĹãģ¦ ãģĦãģı
ÃŃ rito
Ġ^) ï¼ı
ow ÄĻ
ki r
de ck
ĠMit t
Ġal b
wier dzi
ĠP Ã¡g
ra wiam
ĠÐķ ÐºÐ°ÑĤ
Ġalreded or
Ġincl usive
ãĥ¼ãĥ ¯
ĠD uy
ĠR ein
Ġu da
2 æľĪ
ne lles
eno va
niej szy
ãĥ³ãĥĢ ãĥ¼
ãģ«è¡Į ãģı
ĠÑĢÐµÐ³ ÑĥÐ»Ð¸
f assen
Ġè© ³ç´°
Ġw szyscy
Ġw es
ĠTh Æ°á»Ŀng
ĠÐ²Ñģ Ñİ
gi es
Ġter cer
Ġman que
ĠÐĿ Ð¸Ð¶
ĠÃ¤ hn
ali zacja
Ġimpe gna
Ġtam anho
Ġquan tidade
Ġdemasi ado
Ġth ousand
ĠV iÃªn
Ð°Ð² Ð¸Ñģ
Ġsh a
ĠF ind
ãĤ« ãĤ¦
Ġco per
ÃŃ amos
ĠÑįÑĤ Ð¾Ð¼Ñĥ
Ġgan ar
ĠÐ·Ð°Ð²Ð¸Ñģ Ð¸Ð¼Ð¾ÑģÑĤÐ¸
ĠãĤ® ãĥķãĥĪ
ĠmÃ© dic
Ġstrate gy
zy den
åī ĩ
Ð¸ÑĨ Ñĥ
Ġt ab
ÑĥÑĪ ÐºÐ°
ĠÐ¾Ð± Ð»
ĠåĨ ·
Ġhom es
ĠG ÅĤÃ³w
Ġimmedia tely
ĠãĤ ¼
Ġp one
Ġre ale
nd ern
Ġcor sa
ãģĦ ãģª
Ġa fi
Ġl anz
Ġnie mie
ont ro
Ġragaz ze
Ġad olescente
Ġcorri sp
Ġtr Ã´ng
je ta
la ch
ĠS Ã¡ng
at r
Ġc lic
Ġstr ona
Ġdob ra
Ġwyb ran
ĠWei se
ĠSob re
er z
Å¼e k
å¹ ²
au ght
å¤§ äºĭ
ĠL Ãºc
ĠSp or
åĢĭ äºº
Ġob owiÄħ
wir tschaft
ĠÐºÐ¾Ð¶ Ð¸
Ġsem aines
Ġimpor tancia
ĠAnn unci
Ġgam me
Ġadver tis
P C
ĠR em
ãģĳ ãģªãģĦ
ãĥĥ ãĤ¿
ĠÑģ Ð°Ð¼Ð¸
Ġni Ã±o
Ġlle ga
Ġjo in
Ġsegu enti
ĠãĤ¦ ãĤ£
Ġher vor
ĠÑģÑĤ Ð°Ð»Ð¾
Ġz aleÅ¼
Ġelectr Ã³nico
ãĢ ı
Ġpas si
Ðŀ Ðł
ĠS ici
ten ance
ari usz
Ġgdy Å¼
ĠzwiÄħz ane
Ġani mais
ĠÑĥÑģÐ¿ ÐµÑĪ
Äħt p
Ġmeas ure
Ġpue dan
Ġh ue
Ġri o
ra ta
Ð½Ð¾ÑģÑĤ ÑĢÐ°Ð½
åĲĪ ãģĨ
ä½ķ ãģĭ
Ð¸ÑĪ ÑĮ
Ġrep air
odz enia
Ġinter venti
Ġelet r
Ġt zw
ĠwÅĤos Ã³w
¼ çİī
ĠTrib unal
Ġod d
ÐµÐ½ Ð½
r ente
ĠÐ¿Ð¾Ð½ ÑĢÐ°Ð²
Ġdru gie
Ġvac anza
ĠÑĦ Ð°ÐºÑĤÐ¾ÑĢ
ĠÃ³ rg
st ar
w ym
ie ment
ĠO ther
Ġprz esz
ĠãĤĪ ãģı
ĠÐ¸Ð½ÑĦÐ¾ÑĢÐ¼ Ð°ÑĨÐ¸Ð¾Ð½
Ġle cture
ĠChe ck
Ġin media
ĠÐ¾Ð¿ÑĤ Ð¸Ð¼
gi as
ĠM eine
Ġtri b
ĠLo cation
Ġcontr at
Ġentre tien
æĽľ æĹ¥
Ġapren di
ĠÐ²Ð· ÑĢÐ¾ÑģÐ»
ãģ®æ ł
Ð¸ÑģÑĤ Ð¾Ð²
tu je
tto ri
Ġth era
Ġk rzy
ãģ¨æĢĿ ãģ£ãģŁ
Ġd Ã¡m
ced ores
ĠÐ¡ ÐµÐ¹ÑĩÐ°Ñģ
ĠTem at
ĠÐ±ÐµÑĢ ÐµÐ¼
ĠFebru ary
Ġï¼ ³
åĲ ¬
p ero
Ġp owi
Ġtien da
Ġri las
ç§ģ ãģ¯
ami entas
ĠÐ¿ÑĢÐ¸Ð² Ð»ÐµÐº
Z hb
Ġï¿½ï¿½ï¿½ï¿½ï¿½ï¿½ ï¿½
Ġtend rÃ¡
Ġcan ce
Ġai uto
Ġma gni
ff ic
ĠÐ¼Ð°ÑĤÐµÑĢÐ¸Ð°Ð» Ñĭ
Ġmateri ales
Ġpie ces
Ġluo ghi
Ġmo vie
Ġnoti zie
Ġpied ra
ĠÐ°Ð± Ñģ
M S
Ð¸Ñĩ Ð½Ð¾
ĠK ato
ier ten
Ðŀ ÐĿ
ãĥĦ ãĤ¤
ĠÐļ Ð°Ð¶Ð´
H Ã´tel
Ġmateria is
ĠHall o
ĠPes quis
M I
Ġse z
ç´ Ģ
ar em
n Ã©es
æ¼ ı
Ġprodu kt
Ġconta tto
Ġide e
éģĭ åĸ¶
åıĭ éģĶ
unta miento
Ġpo ÅĤoÅ¼
Ġch á»Ł
ĠrÃ© gu
ĠQu an
Ġtr á»įn
Ġt amb
Ð» Ð¾ÑģÑĮ
Ġgi usto
Ġsk orzysta
Ġjou er
ä¸Ī å¤«
Ġw edÅĤug
Ġex pand
Ġï¼ ¾
Ġs lo
Ġwy po
ig es
ĠSe le
eri i
ÃĬ ÃĲ
Ġv ole
Ġsui vre
ĠÐĸ ÐµÐ½
Ġsegu ire
cc u
ĠcomeÃ§ ou
ĠRec en
çĶŁ ãģį
ãģªãĤĵ ãģ§ãģĻ
ĠÐ¢ Ð¸Ð¿
Ð¾Ð· Ð²
Ġproduk cji
tra gs
ĠT iáº¿p
ĠÐ» Ð¸ÑĤÐµÑĢ
ĠÐ°Ð½Ð³ Ð»Ð¸Ð¹
Ð¸ÑĤÐµÐ»ÑĮ Ð½Ð¾ÑģÑĤÑĮ
éļ ł
ĠS ign
Ġsuf fer
ĠG ruppe
mi que
Ġme z
Ġh ici
Ġå¤ ī
ĠD iá»ħn
ĠÑĩÐµÐ»Ð¾Ð² ÐµÑĩ
ĠÂ² Â¿
ĠCon tac
wit ch
ĠAn bieter
ÐµÑĤ ÐºÐ¸
r ue
si cos
Ð¸ÑģÑĤÑĢÐ° ÑĨÐ¸Ñı
Ġsom it
éĩĳ èŀį
ĠÐº Ð¸ÑģÐ»
ĠbezpoÅĽ redni
g te
ĠMa x
ĠÐ¿Ð¾Ð¼Ð¾Ñī ÑĮ
Ġsoli d
Ġze wnÄĻtrz
ĠMin isterio
é ĳĳ
S ch
ti ch
Ġpro ven
ÐµÑĤ ÑĢÐ¾Ð²
æĪĲ åĪĨ
Ġtre o
Ġasp etto
ãĥ¡ãĥª ãĥĥãĥĪ
Ġu dziel
ĠEs corts
Ġodp owiada
ĠÐ¾ÑĩÐµÑĢÐµÐ´ ÑĮ
ĠÑĦÑĥÑĤÐ± Ð¾Ð»
ãģĤ ãģ¨
ĠÑĢÐ°Ð· Ð°
Ġcas amento
eren cias
ĠÐ¡ÑĤ ÑĢÐ°Ð½
Ġzm ienia
Ġcour t
ĠåºĹ èĪĹ
an ne
va ge
Ġra ggi
ona te
ĠÃİ ÃĴ
Ġne arly
ĠçĻ »
Ġallow ed
f le
è¦³ åħī
an nage
ĠProf es
Ġniez bÄĻd
ĠÐ³ Ð¾
ĠÐ½Ðµ Ðµ
Ġpl as
ĠÐ¢ Ð°Ð¼
it ud
Ð¾Ð² ÑĭÐ¼
Ġacc ura
Ġvol tar
ĠHaus e
Ġsex uales
ÑĥÐ» ÐºÐ°Ð½
Ġcer tifica
Ġshar ing
ãģ®æķ °
mobili en
ÑĥÐ¼ ÑĥÐ»ÑıÑĤÐ¾ÑĢ
ĠBlan co
R U
ä¸Ń ãģ®
Ġpra ca
uch ten
de aux
tow ane
o tto
Ġincre di
ĠÐºÐ¾Ð½Ñģ ÑĥÐ»ÑĮÑĤ
ĠmÃª mes
ãĤ° ãĥ«ãĥ¼ãĥĹ
Ġum iejÄĻt
åį ±
Ġsá»ĳ t
pi ta
ĠM ond
7 72
åĬł å·¥
Ġch áº¥m
Ġzwei ten
Ġch icos
Ġu0 4
ĠéĿ ´
setz en
Ġm aravil
ĠRÃ©pond re
ĠV all
ĠÐ¿Ð¾Ð´ Ñģ
ca pe
ĠO gni
Ð¸Ð² Ð°ÑĤÑĮÑģÑı
åĥ ķ
ĠrÃ³Å¼ ne
Ãºb lica
ĠÐ¿Ð»Ð°Ð½ ÑĪ
ĠÃ©v iter
ãĤ¸ãĤ§ ãĤ¯ãĥĪ
Ġcin ema
ĠÑĢÑıÐ´ Ð¾Ð¼
Ġrespons abilidade
Ġincl uindo
Ġs owohl
ĠK ur
ĠdÃ© ter
äºĭ ãĤĴ
ĠÐĹ Ð°ÑĢ
ona Äĩ
ĠÐ¿Ð¾Ð² ÑĤÐ¾ÑĢ
ĠÐ½Ð°ÑģÑĤ ÑĢÐ¾
schri ft
u h
Ġde ad
ĠB io
ich i
Ġal one
äºº ãģ¨
ĠNg ay
çĦ¡ çĲĨ
ĠDi men
ĠÐķ ÑīÐµ
Ġbis her
Ġencuent ran
Ġv uoi
ä¸ĬãģĮ ãĤĬ
Ġokres ie
Ġparteci pazione
Ġsu kces
Ñİ Ñģ
Ġç ¯
Ð°Ð³ Ð¾Ð³
kow i
Ġser ved
Ġcomun itÃł
f ield
ĠP uerto
Ġplu part
ÐµÑģÑģÑĥ Ð°ÑĢÑĭ
un Ã¤chst
l ad
ĠD ok
Ġj ud
Ġåı ³
TO RE
ĠÐĲ Ð»ÑĮ
Ġsoci aux
ĠÐ¾ÑĦ Ð¸Ñģ
ĠLE D
åĳ¼ ãģ°
ĠÐºÐ¾Ð½ ÐºÑĢÐµÑĤ
Ġe at
éł Ī
ten u
Ã© ment
Ġde vis
Ġtá»ķ n
ĠÐ² ÑĢÐµÐ´
Ġde cre
Ġqual cuno
Ġkne w
st re
Ð¸Ð¼ ÐµÐ½ÑĤ
Ġdi sa
Ġtr Ã²n
Ġpu di
Ġsch w
ĠZ aw
ĠÐºÐ² Ð°Ð»Ð¸
ĠThu áºŃn
ĠCi vil
å¤ĸ å£ģ
Ġcol abor
ĠÐ¿ÐµÑģ Ð½Ð¸
ĠSco pri
ĠÃ©tablis sement
Å ł
W x
ĠÐ¼ ÐµÑĩ
Ð½Ð¸Ðº Ð°Ð¼
Ġtak iej
Ġchu a
Ġf ri
Ġsiste mas
ãģ¨ãģĦãģĨ ãģĵãģ¨ãģ§
Ġt era
Ġcam panha
ĠGru po
ĠverfÃ¼ gbar
ĠÐ¾ Ð¿ÑĢÐµÐ´ÐµÐ»Ñı
Ġus are
Ġkh Ã¡n
ÑģÑĤ ÐµÑģÑĤÐ²
Ġpres se
Ġfi z
Ð»Ð¸Ñĩ ÐµÑģÐº
ÃĮ Ã¢
Ġor dem
âĹ Ĩ
Ġsci ence
ĠÐĵ ÐµÑĢÐ¼
ĠPia zza
Ġcompa g
Ġana lis
ĠÐļ Ð¾Ð´
æĸ¹ ãĤĤ
åī µ
Ġtr end
ÌĢ y
Ġth iá»ĥu
ĠA vis
çŁ¥ çľĮ
ĠMÃ¤ d
ĠFrei tag
Ġmos tr
Ġzar zÄħdz
ĠÐ¿ÐµÑĢÐµ ÑħÐ¾Ð´
ĠS w
rei te
ĠÑĢÐ°Ð· Ð½Ð¾
li ano
éĿ Ļ
Ġzna cznie
ĠÐ½Ð°ÑĪ Ð¸
ãģ¨ãģª ãģ£ãģŁ
ĠæĹ¥æľ¬ è£½
Ġind Ã©p
Ġsue lo
Ġw nÄĻtrz
Ġmid dle
Ġar gom
Ġb ÄħdÅº
Ġa men
ĠÐ²Ñģ Ð¿
il mente
Ġcons ci
â Ĥ¬
ĠTe x
Ã© cu
Ġprogram as
Ġpermi tir
ĠLes bianas
Ġmin istro
Ġza czyna
ãģ®ç ĲĨ
Ġalo j
Ġgi ro
ÑģÑĤ ÑĢÐ°
c ami
Ġg a
Ġc aixa
Ġæ ĥħåł±
ĠfÃ¼ hrt
R o
ec ciÃ³n
Ġt all
Ġpe au
ÑİÑī Ð¸Ð¹
Ð¢ Ðķ
ĠU ms
Ġat tiva
ar nos
Ġsui vi
Ð¸ÑĤ ÐµÑĤÐ°
ĠÅ¼y ciu
ĠHo teles
ĠdÃ©ci sion
Ġmethod s
Ġcoraz Ã³n
ĠBetrie bs
Ġ ã
ci to
cia ciÃ³n
Ġk Ãªu
Ġmi mo
Ġimp ie
ĠRe y
Ġh ors
ĠÑģ Ð¾Ð»Ð½
Ġw Ã¼n
Ġdes tin
Ġth Ã©p
Ġlar ger
ãģ®åĨ ĻçľŁ
Ġland s
Ġestab lished
ĠÐ¿ÑĢÐ¾Ð´ÑĥÐº ÑĨÐ¸Ð¸
ãĥ¼ãĥ Ł
or ca
Ġal t
enn ent
Ġti pi
or ane
Ġpod pis
ĠK oÅĽci
sa gens
Ġzn al
Ġteam s
Ġnhu áºŃn
Ġnor mal
Ġmacch ina
Ġme chani
ĠÐ¢ÐµÐ¿ ÐµÑĢÑĮ
Ġre asons
ĠÄĳá» īnh
5 hbWU
L e
G A
Ð»Ñı Ð½
Ī ãģ¯
Ġsta tes
ĠM ain
ÑĢÐµÐ¼ Ñı
dos tÄĻp
G LI
Ã³ met
Ġdeci d
Ġcomple t
ĠSer ie
Ġdeix a
ĠA cheter
Ġåĳ ¨
Ġwe wnÄĻtrz
Ġagr ad
Ġf emin
ĠTec n
ÑĢ ÐµÐ¿
ĠÐķ Ð³Ð¾
æ± ļ
ĠRo lle
ti nho
ĠÐ´ÐµÐ¹ÑģÑĤÐ² Ð¸ÑĤÐµÐ»ÑĮÐ½Ð¾
Ġclai m
Ġbath room
Ġdzis iaj
Ġnadzie jÄĻ
al ni
Ġse ven
ãĤ¹ãĤ¿ ãĥ¼ãĥĪ
ĠÄĲ á»ģ
ĠÐ²Ð¾ÑģÐ¿ Ð¸ÑĤ
ĠÐ·Ð°Ð²Ð¸Ñģ Ð¸ÑĤ
Ġbudow l
Ġç ĲĨ
s ie
ï¼ ¨
ess ere
ÄĻ dz
Ġfin ally
ma zione
æħ £
ĠãĤ¸ ãĥ§
it ti
Ðº Ð¾Ð³
ĠF al
Ġpi ani
Ġimp re
Ġal tura
Ġrela tion
å³¶ çľĮ
ãĤ® ãĥ¼
ĠDes arro
Ġè» ¢
ĠCol or
ĠÐ¾ ÑħÑĢÐ°Ð½
Ġrekl am
Ġdo ng
ĠA gen
ĠÃ© po
ĠSe hr
Ġsc en
Ġ ä½ľ
ĠÃĶ Âº
ĠMa ggio
Ġ ä¼ļç¤¾
ĠR osa
w issen
å½± éŁ¿
ĠbÃ©nÃ© fici
Ġquotid ien
Ð¸Ð¼ ÑģÑı
g ono
Ġpi u
ãĥĸ ãĥ¬
cul os
ĠÐ½ Ð¸Ð±
ĠJ ac
eni or
ãģ® ãģĭãģª
è³ª åķı
Ġpa esi
Ġb á»ģ
Ġè¨ Ģ
æĮĩ å®ļ
ĠÐ¿ÑĢÐ¾Ð³ Ð½Ð¾Ð·
Ġdigi tale
Ġlo cales
Ġver wenden
Ġsec ure
Ġ5 Cu
Ġ5Cu 0
Ġh Æ°
ĠÐ¿Ð¾Ð´ Ñĩ
Ð¢ Ðĺ
Ġrela x
Ġsos te
Ġé£ ²
ĠÐ¿Ð¸ÑĤ Ð°Ð½Ð¸Ñı
Ġpa yment
ĠAd olescente
Ġchwi li
gg ed
ĠÐ· ÑĥÐ±
Ġå¤ ª
çī© ãĤĴ
pf en
Ð¾Ð»Ð½ Ðµ
Ġbuen os
Ġu k
ÑģÑĤÑĢÑĥÐº ÑĨÐ¸Ð¸
ĠViet nam
ĠL uiz
Ġt Äħ
ãĥ³ ãģ¯
Ìģ ch
tig es
Ġjed es
Ġme tal
Ñĭ Ð±
Ð¾Ð½ ÐµÑĨ
ĠÐ¾ÑģÑĤ Ð°Ð½Ð¾Ð²
ĠÑĥ Ðº
Ġform at
ĠG estÃ£o
Ġvelo cidad
ĠCas inos
Ġm anage
ĠWy k
z an
ul aciÃ³n
éĢļ ä¿¡
RI O
Ġste ps
ĠÐ·Ð°Ð² ÐµÑĢÑĪ
Ġpierw szej
ĠN un
our ce
el es
ut ar
ann er
Ã©m in
ved Ã¬
Ġpo cz
Ġn essa
ĠCu á»Ļc
Ġmet Ãł
Ġpia zza
pend iente
Ġç© į
ĠÑĢ Ð¾Ð¼
Ġap re
ĠQu ali
ĠprÃ© sta
EN TI
ĠH om
Ġè» ½
lo thek
Ġpuer ta
Ġh áº¹n
Ġdom ande
ĠÑĩÐµÐ¼ Ð¿Ð¸Ð¾Ð½
ĠLav oro
Ġm ara
ĠÐ¿Ð¾Ð´ Ð²
ç« ¶
ian to
Ġchang ed
ãĥĹ ãĥ©ãĤ¹
Ġge h
ĠÐŃ Ð»ÐµÐºÑĤÑĢ
Ġlo gement
Ġaff itto
åı¯æĦĽ ãģĦ
Ġwybra Äĩ
ĠNgu á»ĵn
Ġda que
Ġä¸ ¡
ĠÑĢÐ°Ð· Ð´
Ġjed na
Ġsp iele
f ait
Ġderni Ã¨res
do pod
Ġnajlep iej
ĠÐºÐ°ÑĤ Ð°Ð»Ð¾Ð³
Ġaque le
Ġkobie ty
Ġï¼ Ĭ
h 00
Ġe cht
Ġsc om
Ġapp li
di miento
ĠN este
Ġãģ© ãģĵ
ĠÐº Ð¸Ð½Ð¾
Ġ< /
ĠÐ´Ð°Ð² Ð½Ð¾
ĠCon tacto
ĠæĮ ĩ
è²ł æĭħ
ĠæĸĻ éĩĳ
ãģĭ ãģ¤
ut tos
[...]
