{"#": 0, "\u012d": 1, "\u00b7": 2, "\u0106": 3, "H": 4, "\u00f8": 5, "\u00b9": 6, ",": 7, "K": 8, "\u0113": 9, "\u00b3": 10, "\u0137": 11, "\u0140": 12, "\u013f": 13, "s": 14, "\u011e": 15, "\u00d4": 16, "\u00c1": 17, "\u00d8": 18, "\u00be": 19, "A": 20, "\u00b2": 21, "3": 22, "\u0103": 23, "\u0111": 24, "\u0102": 25, "C": 26, "L": 27, "\u00bd": 28, "\u0110": 29, "\u0126": 30, "d": 31, "$": 32, "\u00fd": 33, "\u0124": 34, "Z": 35, "\u00d6": 36, "\\": 37, "\u0131": 38, ">": 39, "\u00c6": 40, "\u0100": 41, "m": 42, "b": 43, "\u0134": 44, "\u00f4": 45, ";": 46, "\u0109": 47, "y": 48, "\u00a6": 49, "\u00c9": 50, "\u011d": 51, "\u0108": 52, "\u00ff": 53, "\u00ee": 54, "\u013e": 55, "\u0135": 56, "\u0130": 57, "/": 58, "\u00c3": 59, "\u010c": 60, "\u0123": 61, "_": 62, "\u012b": 63, "'": 64, "q": 65, "\u00c2": 66, "^": 67, "\u00ac": 68, "@": 69, "Q": 70, "7": 71, "\u00b1": 72, "&": 73, "\u0141": 74, "c": 75, "]": 76, "M": 77, "\u00d9": 78, "X": 79, "B": 80, "\u00e1": 81, "\u00ea": 82, "!": 83, "T": 84, "?": 85, "{": 86, "4": 87, "+": 88, "\u0117": 89, "\u00de": 90, "O": 91, "\u00b5": 92, "\u00f2": 93, "\u00bc": 94, "\u0104": 95, "\u00c7": 96, "\u00d7": 97, "a": 98, "\u00b6": 99, "\u00c4": 100, "k": 101, "\u00ed": 102, "|": 103, "\u00f1": 104, "\u00bf": 105, "\u00eb": 106, "\u0120": 107, "\u00a5": 108, "t": 109, "\u0119": 110, "\u00ba": 111, "\u013d": 112, "\u00fb": 113, "\u0114": 114, "\u0139": 115, "\u0121": 116, "Y": 117, "\u0132": 118, "\u013b": 119, "G": 120, "=": 121, "x": 122, "v": 123, "\u0107": 124, "\u00a8": 125, "\u0136": 126, "e": 127, "o": 128, "\u010f": 129, "\u012a": 130, "\u00ce": 131, "[": 132, "\u00bb": 133, "g": 134, "\u00dd": 135, "\u0105": 136, "\u0125": 137, "~": 138, "U": 139, "\u00cc": 140, "\u00f5": 141, "2": 142, "r": 143, "\u0115": 144, "\u00cf": 145, "R": 146, "6": 147, "\u0118": 148, "\u00d3": 149, "\u00cb": 150, "\u00af": 151, "\u00e0": 152, "n": 153, "9": 154, "\u00c5": 155, "p": 156, "E": 157, "N": 158, "\u00ca": 159, "\u00a7": 160, "\u00a1": 161, ":": 162, "\u010a": 163, "\u00e9": 164, "F": 165, "\u00b4": 166, "\u0138": 167, "\u00a3": 168, "P": 169, "\u0112": 170, "\u00a9": 171, "\u00f6": 172, "h": 173, "\u010d": 174, "V": 175, "\u011f": 176, "\u00c8": 177, "\u00e7": 178, "l": 179, "\u0101": 180, "0": 181, "\u00d1": 182, "5": 183, "\u00cd": 184, "S": 185, "\u00aa": 186, "\u00e8": 187, "\u00fc": 188, "j": 189, "\u00fa": 190, "\u00ef": 191, "\u0116": 192, "\u00db": 193, "\u00f0": 194, "u": 195, "\u00b0": 196, "(": 197, "%": 198, "\u0142": 199, "D": 200, "\u00e6": 201, "\u00ec": 202, ")": 203, "W": 204, ".": 205, "8": 206, "\u013a": 207, "\u00ae": 208, "\u00fe": 209, "\u00f3": 210, "\u00d5": 211, "f": 212, "\u00e4": 213, "-": 214, "\u00df": 215, "\u012c": 216, "\u0129": 217, "\u011b": 218, "J": 219, "\u0127": 220, "\u012f": 221, "\u0128": 222, "z": 223, "<": 224, "\u00d2": 225, "\u0133": 226, "}": 227, "\u012e": 228, "w": 229, "\u00ab": 230, "\u00a4": 231, "\u00c0": 232, "i": 233, "\u011c": 234, "\u011a": 235, "\u010e": 236, "*": 237, "\u010b": 238, "\u00e5": 239, "1": 240, "\u00f7": 241, "\u00e2": 242, "\u00a2": 243, "\u00f9": 244, "\u00b8": 245, "\"": 246, "\u013c": 247, "`": 248, "\u0143": 249, "\u00da": 250, "\u00d0": 251, "\u00e3": 252, "\u0122": 253, "\u00dc": 254, "I": 255, "\u00e1\u0125": 256, "\u00e0\u00b8": 257, "\u00e0\u00ae": 258, "\u00e0\u00a6": 259, "\u00e0\u00a4": 260, "\u00e0\u00b0": 261, "\u00d8\u00a7": 262, "\u0120.": 263, "\u00e0\u00af": 264, "\u0120,": 265, "an": 266, "\u0120\u00d8": 267, "er": 268, "en": 269, "\u0120d": 270, "\u00e1\u0125\u0132": 271, "in": 272, "\u00e0\u00b1": 273, "\u00e0\u00a7": 274, "\u0120\u00e1\u0125": 275, "\u00e0\u00a5": 276, "\u0120\u00d9": 277, "\u0120s": 278, "\u0120\u00e0\u00a4": 279, "\u0120\u00d7": 280, "\u00e0\u00b9": 281, "\u00e3\u0123": 282, "\u00d8\u00a7\u00d9": 283, "\u00e1\u0125\u0132\u00e1\u0125": 284, "\u0120t": 285, "\u00e1\u0125\u013a": 286, "ar": 287, "\u0120p": 288, "\u00e0\u00af\u012f": 289, "\u0120\u00e0\u00a6": 290, "\u0120a": 291, "\u0120c": 292, "\u00d8\u00b1": 293, "on": 294, "es": 295, "\u0120\u00ce": 296, "\u0120m": 297, "\u00e1\u0125\u0136": 298, "\u0120\u00d0": 299, "\u0120\u00e0\u00ae": 300, "\u0120\u00e0\u00b0": 301, "\u0120n": 302, "or": 303, "\u0120-": 304, "\u00e1\u0125\u0136\u00e1\u0125": 305, "\u00db\u012e": 306, "\u0120b": 307, "al": 308, "at": 309, "\u00d8\u00a7\u00d8": 310, "\u00e0\u00af\u012f\u00e0\u00ae": 311, "\u01201": 312, "\u00e1\u0125\u013a\u00e1\u0125": 313, "\u01202": 314, "\u00e3\u0122": 315, "el": 316, "\u00e2\u0122": 317, "\u00d9\u0128": 318, "\u00d9\u012a": 319, "\u00d0\u00be": 320, "\u00d8\u00a7\u00d9\u0126": 321, "\u00d9\u012c": 322, "\u0120l": 323, "is": 324, "\u00e0\u00a6\u00be": 325, "\u00ce\u00b1": 326, "as": 327, "\u0120:": 328, "\u00d7\u013b": 329, "\u0120v": 330, "it": 331, "et": 332, "\u00e3\u0124": 333, "\u00d9\u0127": 334, "\u00cf\u0126": 335, "\u00d7\u0137": 336, "\u00d8\u00af": 337, "\u00d0\u00b5": 338, "\u00c9\u013b": 339, "\u00ce\u00bf": 340, "\u00d9\u0129": 341, "\u00d9\u0126": 342, "\u00e0\u00a4\u00be": 343, "il": 344, "\u0120h": 345, "\u00d8\u00aa": 346, "\u00d0\u00b0": 347, "\u00e3\u0125": 348, "\u00c4\u00b1": 349, "\u00e0\u00b1\u012f": 350, "\u0120o": 351, "\u0120k": 352, "\u00ce\u00b9": 353, "un": 354, "om": 355, "\u00e1\u00bb": 356, "\u00e0\u00a7\u0129": 357, "\u0120\u00ec": 358, "\u0120\u00e2\u0122": 359, "\u0120\u00d8\u00a7\u00d9\u0126": 360, "\u00e1\u0125\u013f": 361, "\u00e0\u00a6\u00be\u00e0\u00a6": 362, "\u0120\u00e3\u0122": 363, "\u0120\u00ef": 364, "\u00e0\u00af\u0123": 365, "re": 366, "ch": 367, "\u00d7\u0137\u00d7": 368, "\u0120S": 369, "\u00d0\u00b8": 370, "\u00e0\u00ae\u00bf": 371, "\u00e4\u00b8": 372, "os": 373, "\u00d1\u0124": 374, "\u00e0\u00b8\u00b2": 375, "\u0120f": 376, "am": 377, "\u00e0\u00b1\u012f\u00e0\u00b0": 378, "\u0120de": 379, "\u00d7\u013b\u00d7": 380, "\u00ce\u00bd": 381, "\u00e0\u00b0\u00bf": 382, "\u0120A": 383, "\u00ce\u00b5": 384, "\u0120\u00e5": 385, "\u0120w": 386, "\u0120g": 387, "\u00e0\u00b8\u013b": 388, "\u00e0\u00ae\u00bf\u00e0\u00ae": 389, "\u00e1\u0125\u013f\u00e1\u0125": 390, "em": 391, "\u0120(": 392, "\u00e0\u00a7\u012f": 393, "\u00e0\u00a7\u012f\u00e0\u00a6": 394, "\u00d0\u00bd": 395, "ad": 396, "\u00e0\u00b0\u00be": 397, "\u0120P": 398, "\u0120\u00d9\u0127": 399, "ed": 400, "\u00e0\u00a4\u00be\u00e0\u00a4": 401, "ur": 402, "ent": 403, "\u00e0\u00b1\u0123": 404, "\u0120M": 405, "\u00d1\u0122": 406, "\u00d1\u0123": 407, "\u0120)": 408, "\u0120C": 409, "ro": 410, "\u00e0\u00b8\u00a3": 411, "\u00e0\u00a6\u00bf": 412, "ic": 413, "\u012020": 414, "\u00cf\u0123": 415, "\u00e0\u00a5\u0129": 416, "\u00d0\u00be\u00d0": 417, "\u00cf\u0125": 418, "\u0120\u00c3": 419, "\u0120T": 420, "\u0120\u00ef\u00bc": 421, "\u00e4\u00ba": 422, "\u01200": 423, "\u0120\u00d8\u00a8": 424, "\u0120B": 425, "\u00e0\u00af\u0123\u00e0\u00ae": 426, "\u00e0\u00b0\u00be\u00e0\u00b0": 427, "\u00e0\u00b8\u0143": 428, "\u0120in": 429, "\u0120D": 430, "\u00e0\u00a5\u012f": 431, "ir": 432, "ol": 433, "\u00e0\u00a5\u012f\u00e0\u00a4": 434, "\u00d8\u00b3": 435, "\u00e1\u00ba": 436, "\u0120th": 437, "\u00d8\u00a8": 438, "\u00e0\u00b9\u012a": 439, "\u00bf\u00bd": 440, "\u00e0\u00a6\u00b0": 441, "\u0120\u00d9\u012a": 442, "ak": 443, "us": 444, "\u0120e": 445, "\u0120/": 446, "\u00d8\u00a9": 447, "ing": 448, "id": 449, "ie": 450, "\u00cf\u0122": 451, "ag": 452, "im": 453, "\u00c3\u00a1": 454, "\u00e0\u00ae\u00be": 455, "ang": 456, "\u00e0\u00b9\u0122": 457, "\u00e0\u00b8\u00b2\u00e0\u00b8": 458, "\u0120\u00eb": 459, "\u00cf\u0124": 460, "\u00a3\u00e1\u0125": 461, "\u00e0\u00b0\u00bf\u00e0\u00b0": 462, "\u00ce\u00b7": 463, "\u0120\u00e6": 464, "\u00e1\u0125\u013a\u00e1\u0125\u00a1": 465, "\u0120\"": 466, "\u00e1\u0125\u0136\u00e1\u0125\u0133": 467, "\u00cf\u0127": 468, "\u00e0\u00ae\u00be\u00e0\u00ae": 469, "\u00d8\u00b9": 470, "\u00c3\u0143": 471, "\u01203": 472, "le": 473, "\u00ec\u013f": 474, "ut": 475, "\u00d8\u00a7\u00d9\u0128": 476, "qu": 477, "\u0120y": 478, "\u00c3\u00a9": 479, "\u0124\u00e0\u00b0": 480, "\u00c3\u00bc": 481, "ion": 482, "\u0120\u00e0\u00b8": 483, "and": 484, "\u00e0\u00b9\u0122\u00e0\u00b8": 485, "\u00e0\u00a5\u0122": 486, "ul": 487, "\u00e0\u00b9\u012b": 488, "\u0120r": 489, "\u0120com": 490, "\u0120\u00c2": 491, "\u00d7\u0136": 492, "\u00e0\u00b8\u00a3\u00e0\u00b8": 493, "\u0120201": 494, "ay": 495, "\u00e0\u00a6\u00bf\u00e0\u00a6": 496, "ac": 497, "\u00d7\u00a8": 498, "\u00da\u00a9": 499, "\u00e0\u00b8\u013b\u00e0\u00b8": 500, "\u0120N": 501, "\u0120L": 502, "\u00d0\u00bb": 503, "\u0142\u00e1\u0125": 504, "ot": 505, "\u00e5\u0131": 506, "\u0120E": 507, "\u00e0\u00a4\u00bf": 508, "\u0120\u00e0\u00a4\u0137": 509, "\u0123\u00e0\u00b8": 510, "\u00e0\u00a4\u00b0": 511, "ng": 512, "ik": 513, "\u0120H": 514, "\u0120I": 515, "ig": 516, "\u00e0\u00b8\u0143\u00e0\u00b8": 517, "\u0120z": 518, "\u00ce\u00bb": 519, "\u0120\u00d7\u0136": 520, "\u00d7\u013e": 521, "\u00d9\u0124": 522, "te": 523, "ap": 524, "\u0120\u00ef\u00bc\u012e": 525, "\u0120j": 526, "\u0120\u00cf\u0126": 527, "\u00e0\u00b1\u0123\u00e0\u00b0": 528, "\u0120R": 529, "\u00d8\u00a7\u00d8\u00b1": 530, "\u0120\u00c4": 531, "\u00e0\u00a7\u0129\u00e0\u00a6": 532, "ia": 533, "\u00e0\u00af\u012f\u00e0\u00ae\u0137": 534, "\u00d8\u00b4": 535, "\u0120K": 536, "\u00ce\u00ba": 537, "\u00c5\u0141": 538, "\u0120\u00e1\u0125\u013d": 539, "\u0120G": 540, "\u00e5\u00ae": 541, "\u01205": 542, "um": 543, "\u0120\u00d8\u00af": 544, "\u00d9\u0123": 545, "\u00e1\u0125\u0137": 546, "est": 547, "\u00ce\u00af": 548, "..": 549, "\u0120\u00e7": 550, "\u00e6\u013e": 551, "\u00e0\u00a4\u00bf\u00e0\u00a4": 552, "\u0120F": 553, "\u0120\u00d8\u00aa": 554, "\u00e0\u00ae\u00b0": 555, "\u01204": 556, "\u0140\u00d7": 557, "st": 558, "\u00ce\u00bc": 559, "ab": 560, "\u00d0\u00ba": 561, "\u00e0\u00af\u012a": 562, "\u0120i": 563, "\u00ef\u00bf\u00bd": 564, "\u00e1\u0125\u00a3\u00e1\u0125": 565, "\u00d1\u0125": 566, "\u0120un": 567, "od": 568, "\u00d8\u00a7\u00db\u012e": 569, "\u0120qu": 570, "\u013c\u0126": 571, "\u00e0\u00a4\u0124": 572, "\u00c3\u00b3": 573, "\u00e0\u00ae\u00a4": 574, "\u0120'": 575, "\u00e0\u00af\u012f\u00e0\u00ae\u00a4": 576, "ra": 577, "\u0120en": 578, "\u0129\u00e0\u00b8": 579, "iv": 580, "\u0120\u00d8\u00a7\u00d8": 581, "00": 582, "\u0120|": 583, "\u0120V": 584, "\u00e5\u00a4": 585, "\u00cf\u012e": 586, "\u00d8\u0143": 587, "\u00e7\u013c\u0126": 588, "ec": 589, "ah": 590, "\u0126\u00e0\u00b8": 591, "\u00e5\u012a": 592, "\u00d7\u00aa": 593, "\u00d9\u0125": 594, "\u0120ch": 595, "\u0120\u00ea": 596, "\u00e3\u0122\u0132": 597, "\u00ce\u00ac": 598, "\u00e5\u0127": 599, "\u00ce\u00bf\u00cf\u0127": 600, "\u00ed\u0137": 601, "\u0120\u00e1\u0125\u00a1": 602, "\u00e0\u00a5\u012d": 603, "\u00e1\u0125\u0132\u00e1\u0125\u013e": 604, "\u0133\u00e3\u0122\u0132": 605, "\u0120W": 606, "\u0120\u00e3\u0122\u0124": 607, "\u0120di": 608, "\u00e0\u00b8\u00b5": 609, "\u00c3\u0142": 610, "\u00d8\u00ac": 611, "\u0120\u00e1\u0125\u0135": 612, "\u0120O": 613, "\u00e0\u00a6\u00a8": 614, "ek": 615, "\u0120\u00d7\u0136\u00d7": 616, "\u00d1\u0131": 617, "\u00b1\u00e0\u00b8": 618, "\u00e0\u00b0\u00a8": 619, "ter": 620, "ow": 621, "\u0120al": 622, "\u0120the": 623, "\u00d1\u012d": 624, "\u00e4\u00bb": 625, "\u00c4\u00b1n": 626, "\u0120\u00e3\u0122\u0123": 627, "\u00c3\u00a7": 628, "\u0120\u00d9\u0123": 629, "\u00e1\u0125\u00a1": 630, "\u0120to": 631, "\u00e1\u0125\u0142": 632, "\u0120\u00e1\u0125\u0132\u00e1\u0125": 633, "eg": 634, "\u0120\u00d7\u013e": 635, "\u00e0\u00b0\u0124\u00e0\u00b0": 636, "\u00e0\u00a4\u00a8": 637, "\u00d8\u00b2": 638, "\u00d0\u00b0\u00d0": 639, "\u0120\u00c4\u0133": 640, "\u00e0\u00b1\u0129": 641, "ist": 642, "\u00e0\u00ae\u00a9": 643, "\u0120\u00e8": 644, "ov": 645, "\u0120\u00d7\u0133": 646, "\u00d0\u00b5\u00d0": 647, "\u0120con": 648, "\u0120na": 649, "\u0120\u00e3\u0122\u0133\u00e3\u0122\u0132": 650, "\u00e0\u00b0\u00b0": 651, "\u0120\u00ef\u00bf\u00bd": 652, "\u00e0\u00b1\u012d": 653, "\u0120re": 654, "\u0120la": 655, "li": 656, "\u0120\u00d8\u00b9": 657, "\u0120\u00d8\u012e": 658, "\u00e7\u00bd": 659, "\u00ae\u00e0\u00af\u012f": 660, "\u00e0\u00ae\u0141": 661, "\u0120\u00d7\u0132": 662, "\u00e0\u00a6\u00be\u00e0\u00a6\u00b0": 663, "\u00e5\u013d": 664, "\u0120pr": 665, "\u00e0\u00b9\u012a\u00e0\u00b8": 666, "\u0120tr": 667, "\u00e0\u00a7\u0123": 668, "ou": 669, "\u00d8\u00a7\u00d8\u00aa": 670, "\u0120se": 671, "\u00d7\u0133": 672, "\u00d8\u00a7\u00d9\u0127": 673, "\u00e4\u00b9": 674, "\u0120?": 675, "iz": 676, "\u00d1\u012e": 677, "\u00e6\u0139": 678, "\u0120\u00e0\u00a5": 679, "ers": 680, "\u0120\u00da\u00a9": 681, "\u0120\u00cf\u0122": 682, "\u0120\u00d0\u00bf": 683, "\u0120st": 684, "\u00d7\u0132": 685, "\u0120ng": 686, "\u00e3\u0123\u00ae": 687, "ant": 688, "\u00da\u00af": 689, "\u0120J": 690, "\u00e6\u0138": 691, "\u0120\u00e0\u00a4\u00b8": 692, "\u00e0\u00a7\u0141": 693, "\u0120\u00e0\u00ae\u00aa": 694, "\u00e7\u00bd\u0133": 695, "\u00eb\u012d": 696, "\u0120pro": 697, "\u0120sa": 698, "\u00e1\u0125\u013c": 699, "\u00ef\u00bf\u00bd\u00ef\u00bf\u00bd": 700, "\u01206": 701, "\u0120\u00d9\u0126": 702, "\u0120\u00e1\u0125\u0134": 703, "\u00cf\u012b": 704, "\u00e0\u00a4\u0137": 705, "\u00e0\u00a4\u00a4": 706, "\u0120\u00ce\u00ba": 707, "\u0120\u00e2\u0122\u013b": 708, "\u0120par": 709, "\u0120\u00e0\u00a5\u00a4": 710, "\u0120\u00d9\u0128": 711, "\u00e0\u00ae\u00b3": 712, "eb": 713, "\u00d7\u0137\u00d7\u00aa": 714, "\u0120\u00d8\u00b3": 715, "\u00e2\u0122\u012e": 716, "\u0120\u00cf\u0125": 717, "\u00ce\u0143": 718, "\u00e0\u00b4": 719, "\u00d7\u013b\u00d7\u013f": 720, "\u0120\u00e0\u00a6\u0137": 721, "end": 722, "\u00e4\u00bd": 723, "\u0120\u00d9\u0129": 724, "\u0120\u00d7\u00a9": 725, "\u00e5\u00bd": 726, "la": 727, "\u00e5\u013e": 728, "\u00e6\u012a": 729, "ri": 730, "\u00d1\u0123\u00d1\u0124": 731, "\u0120\u00d8\u00b1": 732, "\u0120\u00ce\u00b1": 733, "\u00e0\u00b0\u00b2": 734, "\u00ec\u0140": 735, "\u00d8\u00b5": 736, "oc": 737, "\u00a1\u00e0\u00b8": 738, "\u0120\u00e9": 739, "ok": 740, "\u0120\u00e0\u00a6\u00b8": 741, "\u0120of": 742, "\u0120\u00e0\u00ae\u0137": 743, "\u00d8\u00ae": 744, "\u0120\u00e2": 745, "\u0120...": 746, "\u0120!": 747, "\u00e7\u0136": 748, "\u00ce\u00ae": 749, "\u00ce\u00b3": 750, "\u00c4\u0141": 751, "\u0120\u00e0\u00a6\u00ac": 752, "ud": 753, "\u00e1\u0125\u0136\u00e1\u0125\u013c": 754, "\u00a5\u00e0\u00b8": 755, "\u0120and": 756, "\u00e1\u0125\u0132\u00e1\u0125\u013d": 757, "\u00e0\u00af\u012f\u00e0\u00ae\u00aa": 758, "\u01208": 759, "\u01207": 760, "\u00d8\u00b7": 761, "\u0120U": 762, "uk": 763, "\u0120\u00e0\u00a4\u00b9": 764, "\u00d7\u00a9": 765, "lar": 766, "\u00ce\u00b1\u00ce\u00b9": 767, "\u00d7\u0142": 768, "og": 769, "op": 770, "\u0137\u00e0\u00af\u012f\u00e0\u00ae\u0137": 771, "\u0120\u00e0\u00a4\u00ae": 772, "\u01209": 773, "\u00e0\u00a6\u00b2": 774, "\u00e5\u00b9": 775, "\u00e0\u00ae\u00b2": 776, "ess": 777, "\u00d5\u00a1": 778, "\u00e5\u0132": 779, "\u0120\u00e2\u0122\u013e": 780, "\u0120\u00d8\u00a3": 781, "\u00d0\u00b2": 782, "\u0120\u00d8\u00b4": 783, "\u0120for": 784, "\u00c9\u013br": 785, "\u00e0\u00a6\u0137": 786, "\u00c6\u00b0": 787, "up": 788, "ind": 789, "\u00e3\u0123\u0126": 790, "\u00e1\u0125\u0135": 791, "\u0120\u00d0\u00b2": 792, "ost": 793, "\u0120at": 794, "\u00a7\u00e0\u00b8": 795, "\u00e0\u00a4\u00b2": 796, "ung": 797, "\u00b4\u00e0\u00b8": 798, "\u00d9\u012b": 799, "\u0120\u00e0\u00a6\u00aa": 800, "\u00e0\u00b9\u0123\u00e0\u00b8": 801, "\u00e0\u00af\u012a\u00e0\u00ae": 802, "\u00ec\u0139": 803, "\u00cf\u0129": 804, "\u00c3\u00b6": 805, "\u0120;": 806, "\u00e0\u00b1\u0122": 807, "\u00e0\u00b9\u0126\u00e0\u00b8": 808, "\u00d1\u0129": 809, "\u00aa\u00e0\u00b8": 810, "\u0120\u00d7\u0140\u00d7": 811, "\u00c5\u0124": 812, "\u0120\u00ed": 813, "\u0120\u00ce\u00b5": 814, "az": 815, "art": 816, "\u00e0\u00af\u012f\u00e0\u00ae\u0141": 817, "\u0120\u00e0\u00a4\u00aa": 818, "\u00e4\u00ba\u013c": 819, "\u00e1\u0125\u013d": 820, "\u0120on": 821, "\u00e5\u012c": 822, "\u0120\u00e0\u00ae\u00b5": 823, "\u012010": 824, "\u00e0\u00b9\u012b\u00e0\u00b8": 825, "\u00a2\u00e0\u00b8": 826, "\u00e0\u00a7\u0129\u00e0\u00a6\u00b0": 827, "\u00e1\u0125\u013e": 828, "\u0120\u00d1\u0123": 829, "\u00e0\u00b0\u0137": 830, "\u00d0\u00b5\u00d0\u00bd": 831, "\u0120an": 832, "\u00e6\u00b8": 833, "ce": 834, "\u0120\u00e0\u00b0\u00aa": 835, "\u0120\u00d8\u00a7\u00d9\u0126\u00d9\u0127": 836, "\u00e0\u00a7\u012d": 837, "\u00ce\u00b9\u00ce\u00ba": 838, "ub": 839, "\u00e1\u0125\u0132\u00e1\u0125\u0135": 840, "\u00e1\u0125\u00a2": 841, "\u00e0\u00a6\u00a4": 842, "\u00e5\u012f": 843, "\u0120ag": 844, "\u00c4\u013d": 845, "\u0136\u00e0\u00b8": 846, "av": 847, "\u00e0\u00a4\u00b8": 848, "ib": 849, "\u0120\u00ce\u00bc": 850, "\u0120que": 851, "\u0120is": 852, "iy": 853, "\u0120\u00e0\u00ae\u00ae": 854, "\u00e4\u00ba\u00ba": 855, "ort": 856, "ob": 857, "\u00e3\u0125\u00bc": 858, "\u00e0\u00a5\u0123": 859, "\u00e0\u00af\u0129": 860, "\u0120\u00e2\u0122\u013f": 861, "ci": 862, "\u00d8\u00a7\u00d8\u00af": 863, "\u00d7\u0135": 864, "\u00ec\u013f\u00b4": 865, "ine": 866, "\u00e1\u0125\u0132\u00e1\u0125\u0142\u00e1\u0125": 867, "\u00d9\u012c\u00d8\u00a9": 868, "\u0120\u00e0\u00ae\u0127": 869, "\u00e0\u00a6\u00ac": 870, "\u0120\u00d8\u00af\u00d8\u00b1": 871, "\u00e6\u012b": 872, "\u00cf\u012f": 873, "\u00d9\u012a\u00d8\u00b1": 874, "\u00d0\u00bc": 875, "\u0120el": 876, "20": 877, "\u00e0\u00a7\u012f\u00e0\u00a6\u00b0": 878, "\u0120\u00d0\u00bd": 879, "\u0120\u00e1\u0125\u0142": 880, "\u00c3\u00a3": 881, "\u00d0\u00be\u00d0\u00b2": 882, "\u0120\u00e2\u0122\u0135": 883, "\u00d7\u00a2": 884, "\u00e0\u00a6\u00ae": 885, "\u00e1\u0125\u0136\u00e1\u0125\u013e": 886, "\u0120do": 887, "\u00e0\u00b1\u0128": 888, "\u00e7\u012b": 889, "\u0120\u00e0\u00ae\u00a4": 890, "da": 891, "\u00e1\u0125\u0132\u00e1\u0125\u0137": 892, "\u00e3\u0123\u00a7": 893, "\u00d5\u00a1\u00d5": 894, "\u00e1\u0125\u0132\u00e1\u0125\u00a1": 895, "\u0120\u00e0\u00b0\u0137": 896, "\u0120\u00d5": 897, "ne": 898, "\u00d7\u0139": 899, "\u012019": 900, "\u00e6\u013a": 901, "\u00ce\u00b4": 902, "\u00e4\u00b8\u0122": 903, "\u00e0\u00a4\u00b9": 904, "\u00ce\u00b5\u00ce\u00b9": 905, "\u00e0\u00b9\u0125": 906, "\u0120%": 907, "ww": 908, "\u0120\u00e0\u00ae\u013c": 909, "\u0120\u00d7\u0137": 910, "\u00ef\u00bc": 911, "\u00e8\u00bd": 912, "\u00e0\u00b1\u012f\u00e0\u00b0\u00b0": 913, "\u013c\u00e1\u0125\u013a": 914, "\u0120\u00d9\u0127\u00d9\u0128": 915, "ert": 916, "\u00e0\u00ae\u00b5": 917, "\u00d8\u00a3": 918, "\u00e8\u00bf": 919, "\u0120\u00d8\u00ae": 920, "\u00e5\u00b0": 921, "\u0120\u00e1\u0125\u013a": 922, "\u00e0\u00b0\u00be\u00e0\u00b0\u00b0": 923, "\u00e0\u00a5\u012f\u00e0\u00a4\u00af": 924, "\u00e3\u0123\u0139": 925, "ev": 926, "\u0120\u00d0\u00b8": 927, "\u00e0\u00af\u0123\u00e0\u00ae\u00ae\u00e0\u00af\u012f": 928, "\u00e0\u00a7\u012f\u00e0\u00a6\u00af": 929, "\u00e0\u00ae\u00bf\u00e0\u00ae\u00b2": 930, "\u00c3\u00a5": 931, "\u0120u": 932, "\u0120il": 933, "ler": 934, "\u00e4\u00bc": 935, "\u0120\u00e0\u00b0\u00b5": 936, "\u00eb\u012d\u00a4": 937, "\u00e3\u0123\u00ab": 938, "\u00e0\u00b1\u0129\u00e0\u00b0": 939, "io": 940, "ip": 941, "ation": 942, "\u0120www": 943, "\u00d0\u00b4": 944, "\u00c3\u00aa": 945, "\u00d9\u0128\u00d8\u00af": 946, "ong": 947, "i\u00e1\u00bb": 948, "\u00e0\u00ae\u00bf\u00e0\u00ae\u00af": 949, "\u00e6\u00b8\u00b8": 950, "\u0120\u00e1\u0125\u00a8": 951, "\u013c\u00e0\u00b8": 952, "\u00ea\u00b3": 953, "\u0120\u00e0\u00a6\u0128": 954, "de": 955, "ich": 956, "\u00e0\u00a5\u012a": 957, "\u00e5\u0131\u0133": 958, "ij": 959, "\u00e5\u012a\u0128": 960, "\u0120da": 961, "\u00d9\u012a\u00d8\u00af": 962, "\u00eb\u012c": 963, "\u0120\u00e3\u0125": 964, "if": 965, "\u0120Th": 966, "\u0120#": 967, "\u0120et": 968, "\u00ce\u00b9\u00ce\u00b1": 969, "\u0120\u00e0\u00ae\u0129": 970, "our": 971, "\u00e8\u00b5": 972, "\u0120\u00d8\u0143": 973, "\u00ec\u00a7": 974, "\u00e1\u0125\u0132\u00e1\u0125\u0142": 975, "\u012012": 976, "\u00e5\u00bf": 977, "\u0120per": 978, "\u00cf\u0128": 979, "are": 980, "eng": 981, "ct": 982, "\u00d7\u00a7": 983, "\u00e3\u0123\u00a6": 984, "\u00e0\u00b9\u012e": 985, "\u00d8\u00b6": 986, "\u00c4\u013b": 987, "\u0120In": 988, "\u00e1\u0125\u00ae": 989, "\u00e1\u0125\u013f\u00e1\u0125\u013d": 990, "ens": 991, "\u00e0\u00a7\u0122": 992, "\u0120\u00d9\u012c": 993, "\u0120\u00e0\u00b0\u00ae": 994, "\u0120del": 995, "\u00e0\u00a6\u00be\u00e0\u00a6\u00a8": 996, "ere": 997, "\u00ec\u0140\u00a5": 998, "\u0120\u00d0\u00be": 999, "\u0120\u00e1\u0125\u0135\u00e1\u0125\u0132": 1000, "\u00e0\u00a5\u012f\u00e0\u00a4\u00b0": 1001, "\u012011": 1002, "\u0120\u00e0\u00b0\u0127": 1003, "\u00e8\u00ae": 1004, "\u0120\u00d8\u00a8\u00d9\u0129": 1005, "\u00c5\u013b": 1006, "\u0120=": 1007, "\u00d1\u0127": 1008, "\u00e0\u00a8": 1009, "\u00e0\u00a4\u00be\u00e0\u00a4\u00b0": 1010, "\u00b0\u00e0\u00b8": 1011, "\u0120\u00e0\u00a6\u00ae": 1012, "\u00e0\u00af\u0128": 1013, "\u00e0\u00a4\u00ae": 1014, "\u0139\u00e0\u00b8": 1015, "\u00e3\u0123\u00a8": 1016, "\u00ec\u0126": 1017, "\u0120\u00d8\u00a2": 1018, "\u00e5\u00bc": 1019, "\u00ce\u00b8": 1020, "\u00d7\u00a4": 1021, "pl": 1022, "\u00e9\u0122": 1023, "\u00e5\u00bd\u00a9": 1024, "\u0120le": 1025, "\u0120\u00e0\u00a6\u0131": 1026, "\u0124\u00ac": 1027, "\u0120\u00d8\u00ac": 1028, "\u00e3\u0123\u00aa": 1029, "\u0120\u00e0\u00b0\u00b8": 1030, "\u00eb\u012c\u0136": 1031, "\u0120ad": 1032, "\u0139\u00e0\u00b8\u00b5": 1033, "\u00d7\u0140\u00d7": 1034, "nh": 1035, "\u00e7\u00bb": 1036, "\u0120\u00d9\u0123\u00d9\u012c": 1037, "\u00d8\u00a7\u00d8\u00a8": 1038, "\u0120\u00d9\u0124": 1039, "\u00e4\u00b8\u012d": 1040, "\u00a8\u00e0\u00af\u012f\u00e0\u00ae\u00a4": 1041, "ans": 1042, "\u0120ma": 1043, "\u00ea\u00b0": 1044, "\u00e5\u00ae\u013a": 1045, "\u00d8\u00b0": 1046, "\u0120sp": 1047, "\u00d8\u00b3\u00d8\u00aa": 1048, "\u0120\u00e1\u0125\u00a1\u00e1\u0125\u0132\u00e1\u0125": 1049, "\u0120\u00d7\u00a2": 1050, "\u00c3\u00bd": 1051, "\u0120\u00cf\u0126\u00ce\u00b7": 1052, "\u00e7\u00ab": 1053, "\u00d7\u0140": 1054, "\u00cf\u0130": 1055, "\u00c4\u0127": 1056, "\u00c9\u013bn": 1057, "\u00ec\u0142": 1058, "\u0120nh": 1059, "\u00e8\u00a7": 1060, "\u0120\u00e0\u00ae\u00a8": 1061, "\u0120\u00d0\u00ba": 1062, "\u00d9\u012a\u00d9\u0128": 1063, "\u00cf\u0126\u00ce\u00b1": 1064, "ez": 1065, "\u00c3\u00b4": 1066, "\u00c6\u00b0\u00e1\u00bb": 1067, "\u00e1\u0125\u013a\u00e1\u0125\u0139": 1068, "\u00e5\u00b8": 1069, "\u00e3\u0123\u0141": 1070, "\u0120\u00e5\u00a4": 1071, "\u00d7\u013d": 1072, "\u00e3\u0123\u013b": 1073, "\u00c3\u00a3o": 1074, "ont": 1075, "\u00d7\u013f": 1076, "\u0120x": 1077, "ast": 1078, "\u00e3\u0123\u012e": 1079, "ga": 1080, "\u00e6\u013f": 1081, "\u0120\u00e1\u0125\u013b": 1082, "\u00e3\u0125\u00b3": 1083, "\u0120es": 1084, "\u00e1\u0125\u013f\u00e1\u0125\u0133": 1085, "\u0120\u00e4\u00b8": 1086, "\u0120\u00ec\u013f": 1087, "\u00e3\u0124\u012d": 1088, "\u00e5\u00a4\u00a7": 1089, "\u00d9\u012c\u00d9\u0128": 1090, "\u00aa\u00e0\u00af\u012f\u00e0\u00ae\u00aa": 1091, "aw": 1092, "\u00e5\u013d\u00bd": 1093, "\u0120]": 1094, "\u0120op": 1095, "\u00e0\u00b0\u0124": 1096, "\u0120\u00c2\u00bb": 1097, "\u0120Y": 1098, "\u00e5\u0143": 1099, "\u00d0\u00b5\u00d1\u0122": 1100, "\u00c5\u00be": 1101, "\u00e1\u0122": 1102, "\u0120\u00e0\u00a6\u00a8": 1103, "\u0120or": 1104, "\u00e5\u0128": 1105, "\u00ec\u0137": 1106, "\u0120er": 1107, "\u00e5\u00ba": 1108, "\u00e1\u0125\u0132\u00e1\u0125\u013c": 1109, "\u0124\u00e0\u00b8": 1110, "\u00e5\u013e\u00a8": 1111, "\u00b6\u013e": 1112, "\u00e8\u00af": 1113, "\u00e0\u00ae\u00a3": 1114, "\u00e1\u0125\u0139": 1115, "pr": 1116, "\u00e0\u00ae\u00ae": 1117, "\u00e3\u0123\u00af": 1118, "\u00e7\u0130": 1119, "ya": 1120, "\u00d0\u00b0\u00d0\u00bd": 1121, "ass": 1122, "\u00e5\u00b7": 1123, "\u00b3\u00d8\u00aa": 1124, "\u00e0\u00a6\u00b8": 1125, "\u00e1\u00ba\u00a1": 1126, "\u00cf\u0123\u00ce\u00bf": 1127, "\u0120des": 1128, "\u00e9\u013b": 1129, "\u0120\u00e1\u0125\u0139": 1130, "\u00e0\u00ae\u00b1": 1131, "\u0120\u00e0\u00b9\u0122\u00e0\u00b8": 1132, "ell": 1133, "\u00d9\u012a\u00d9\u0126": 1134, "\u00d8\u00a7\u00d9\u0129": 1135, "\u00e0\u00af\u012f\u00e0\u00ae\u00b1": 1136, "\u00e9\u0129": 1137, "\u0120\u00e0\u00a6\u00b9": 1138, "\u00d0\u00b5\u00d1\u0124": 1139, "\u012a\u00e0\u00b8": 1140, "\u0120\u00e0\u00a4\u00ac": 1141, "tt": 1142, "\u00e7\u00ba": 1143, "\u00e1\u00ba\u00bf": 1144, "\u0137\u00e0\u00b8": 1145, "\u00c3\u00b8": 1146, "\u0120av": 1147, "\u012015": 1148, "\u0120para": 1149, "\u0120\u00e0\u00ae\u0130": 1150, "\u0120\u00d7\u013d": 1151, "\u0120\u00e0\u00a4\u00a8": 1152, "ier": 1153, "\u00e0\u00af\u012d": 1154, "\u00c5\u00bc": 1155, "\u0120[": 1156, "\u0120Z": 1157, "\u0120\u00ce\u00b4": 1158, "\u00e1\u0125\u0142\u00e1\u0125": 1159, "\u00e6\u0139\u00b6": 1160, "\u00cf\u0126\u00ce\u00bf": 1161, "\u00e1\u0125\u0136\u00e1\u0125\u00a1": 1162, "zy": 1163, "n\u00c3\u0143": 1164, "ai": 1165, "\u00ec\u0139\u0132": 1166, "\u00d9\u0130": 1167, "\u00e0\u00b1\u012f\u00e0\u00b0\u00a8": 1168, "\u00a8\u00e1\u0125\u013a": 1169, "\u00e1\u0125\u013a\u00e1\u0125\u013e": 1170, "\u0120as": 1171, "ente": 1172, "ard": 1173, "\u0120\u00d9\u0125": 1174, "\u0120\u00d0\u00b4": 1175, "\u00b8\u00e0\u00b8": 1176, "\u0120\u00d9\u00be": 1177, "\u0120\u00e3\u0124": 1178, "\u00e0\u00a5\u0129\u00e0\u00a4": 1179, "\u00e0\u00b0\u00ae": 1180, "ug": 1181, "\u00d0\u00bf": 1182, "\u0120ol": 1183, "\u00eb\u00a7": 1184, "\u0120be": 1185, "\u0120\u00ce\u00ba\u00ce\u00b1\u00ce\u00b9": 1186, "\u0120An": 1187, "\u00e6\u012c": 1188, "\u00e0\u00a5\u0129\u00e0\u00a4\u0124": 1189, "\u00c3\u00bcn": 1190, "\u00d0\u00be\u00d1\u0122": 1191, "ma": 1192, "\u0120\u00e1\u0125\u0136": 1193, "\u0120ph": 1194, "\u00e7\u013e": 1195, "\u00ec\u00a7\u0122": 1196, "to": 1197, "\u0120ver": 1198, "\u0120Ch": 1199, "\u00e3\u0123\u00be": 1200, "\u0120ang": 1201, "\u0120\u00e0\u00a4\u0127": 1202, "\u00ed\u0137\u013a": 1203, "\u00e1\u0125\u0136\u00e1\u0125\u0142": 1204, "\u00b6\u013e\u00ec\u0140\u00a5": 1205, "\u0120\u00e0\u00a4\u013e": 1206, "\u00e0\u00b0\u00a4": 1207, "\u0120\u00e0\u00b0\u013c": 1208, "\u00e0\u00b8\u00b5\u00e0\u00b8": 1209, "ill": 1210, "sk": 1211, "\u00e6\u00b3": 1212, "\u00e0\u00a4\u00aa": 1213, "\u0120im": 1214, "\u00d0\u00b0\u00d1\u0124": 1215, "\u0120og": 1216, "\u00e0\u00b9\u0125\u00e0\u00b8": 1217, "\u00d7\u0137\u00d7\u00a8": 1218, "ada": 1219, "\u0120\u00e0\u00a4\u00b5": 1220, "\u0120200": 1221, "\u00e0\u00af\u012f\u00e0\u00ae\u0137\u00e0\u00ae\u00b3": 1222, "\u00c4\u012f": 1223, "\u00e8\u00a1": 1224, "\u0120est": 1225, "ep": 1226, "\u00d8\u00ab": 1227, "\u00ab\u00e0\u00b8": 1228, "\u0120\u00d8\u00a7\u00db\u012e": 1229, "\u0140\u00e0\u00b8": 1230, "\u0120\u00e0\u00a6\u00a6": 1231, "\u00cf\u0123\u00ce\u00b1": 1232, "\u0120\u00d8\u00a8\u00d8\u00b1": 1233, "\u00c4\u00b1r": 1234, "\u00e7\u013d": 1235, "\u00d6\u0122": 1236, "\u00e1\u0125\u0136\u00e1\u0125\u0133\u00e1\u0125\u013a\u00e1\u0125\u00a1": 1237, "\u00e0\u00b0\u00be\u00e0\u00b0\u00b2": 1238, "\u0120\u00e0\u00a4\u0128": 1239, "\u0120\u00ef\u00bc\u013c": 1240, "\u00d9\u0129\u00d8\u00a7": 1241, "\u00e5\u0130": 1242, "ari": 1243, "\u0120\u00e0\u00a4\u0137\u00e0\u00a5\u0129": 1244, "\u00d7\u013a": 1245, "ff": 1246, "ew": 1247, "\u0120kh": 1248, "\u00eb\u00a1": 1249, "\u0120St": 1250, "\u0120\u00d7\u013b": 1251, "\u0120\u00e0\u00b0\u00a8": 1252, "\u0123\u00e0\u00b8\u00b2": 1253, "ver": 1254, "\u00c5\u00a1": 1255, "\u00d0\u00be\u00d0\u00bb": 1256, "\u00e5\u00a5": 1257, "\u0120it": 1258, "\u00e0\u00b1\u012f\u00e0\u00b0\u00af": 1259, "\u00cf\u0126\u00ce\u00b7": 1260, "\u00e6\u013a\u00af": 1261, "\u00db\u012e\u00d8\u00af": 1262, "\u00e0\u00b0\u00bf\u00e0\u00b0\u0124\u00e0\u00b0": 1263, "all": 1264, "\u012013": 1265, "\u00ec\u013f\u013a": 1266, "\u00e3\u0124\u0134": 1267, "\u012018": 1268, "\u0120si": 1269, "\u0120\u00e1\u0125\u0140": 1270, "\u00e0\u00a5\u0124": 1271, "\u0120no": 1272, "\u0120\u00e0\u00a7": 1273, "\u0120\u00e0\u00a4\u00b9\u00e0\u00a5\u012a": 1274, "\u00e6\u013e\u00ba": 1275, "\u0120\u00d0\u00bf\u00d1\u0122": 1276, "\u0120\u00d8\u00a7\u00d8\u00b2": 1277, "\u00e5\u0129": 1278, "\u00cf\u0126\u00ce\u00b5": 1279, "\u00e0\u00ae\u00a4\u00e0\u00af\u012f\u00e0\u00ae\u00a4": 1280, "\u0120\u00ec\u0140": 1281, "\u00e5\u00be": 1282, "\u00ec\u013f\u0126": 1283, "\u00e0\u00a4\u0139": 1284, "\u00e0\u00ae\u00bf\u00e0\u00ae\u00b0": 1285, "se": 1286, "ien": 1287, "\u00ec\u012d": 1288, "ate": 1289, "\u00e7\u00a5": 1290, "orm": 1291, "der": 1292, "\u00e1\u00ba\u00a3": 1293, "\u00e0\u00a7\u012f\u00e0\u00a6\u00a4": 1294, "\u00e1\u0125\u0132\u00e1\u0125\u00aa": 1295, "\u00db\u012e\u00d9\u0128": 1296, "\u0120\u00d8\u00b9\u00d9\u0126": 1297, "\u00e0\u00ae\u00ae\u00e0\u00af\u012f": 1298, "\u00e0\u00b5": 1299, "\u0120pl": 1300, "\u00e0\u00ae\u00bf\u00e0\u00ae\u00b2\u00e0\u00af\u012f": 1301, "\u00d0\u00be\u00d0\u00bc": 1302, "\u0120\u00e0\u00a4\u00a6": 1303, "\u0120ve": 1304, "emb": 1305, "\u00e5\u012e": 1306, "\u00ea\u00b8": 1307, "\u00d1\u0130": 1308, "\u0120ab": 1309, "\u00d7\u00a1": 1310, "\u00c3\u00a2": 1311, "\u00e0\u00b0\u00b5": 1312, "\u00d0\u00b8\u00d1\u0124": 1313, "\u00e0\u00ae\u0137": 1314, "\u00e4\u00b8\u0143": 1315, "ho": 1316, "\u0120su": 1317, "na": 1318, "\u00d0\u00be\u00d0\u00b4": 1319, "ta": 1320, "\u00d0\u00bd\u00d1\u012d": 1321, "\u00b4\u00eb": 1322, "\u0120\u00d7\u0140": 1323, "\u00cf\u0122\u00ce\u00bf": 1324, "\u00e0\u00af\u012c": 1325, "\u00d7\u0134": 1326, "\u00cf\u0125\u00ce\u00b7": 1327, "\u00e0\u00ae\u00a4\u00e0\u00af\u0123": 1328, "\u012016": 1329, "\u012014": 1330, "\u00e0\u00ae\u00be\u00e0\u00ae\u00b0": 1331, "\u0120\u00e0\u00a6\u0137\u00e0\u00a6\u00b0": 1332, "\u00e0\u00b0\u00b8": 1333, "\u00e0\u00ae\u00bf\u00e0\u00ae\u00a9": 1334, "\u0120\u00d0\u00bc": 1335, "\u00e0\u00a4\u00b5": 1336, "\u00e6\u0138\u00b9": 1337, "\u0120\u00e0\u00a6\u00a4": 1338, "no": 1339, "\u0120te": 1340, "\u00d0\u00b5\u00d0\u00bb": 1341, "\u00c5\u013d": 1342, "\u0120ex": 1343, "\u00e6\u012b\u012d": 1344, "\u00e6\u0122": 1345, "ide": 1346, "\u00e1\u0125\u013a\u00e1\u0125\u013c": 1347, "\u00e1\u0125\u0136\u00e1\u0125\u0133\u00e1\u0125\u0132": 1348, "\u0120am": 1349, "ze": 1350, "\u0120\":": 1351, "\u00e0\u00b0\u00a6": 1352, "\u00e5\u00b1": 1353, "\u00cf\u012b\u00ce\u00bd": 1354, "\u00e0\u00b0\u0141": 1355, "\u00d0\u00b1": 1356, "\u0120\u00d8\u00a7\u00d8\u00b3\u00d8\u00aa": 1357, "\u0120\u00cf\u0126\u00ce\u00bf": 1358, "\u01202019": 1359, "app": 1360, "//": 1361, "\u00c3\u00bcr": 1362, "ial": 1363, "\u00e0\u00a6\u00a6": 1364, "\u00ce\u00af\u00ce\u00b1": 1365, "\u0120\u00cf\u0126\u00ce\u00bf\u00cf\u0127": 1366, "ord": 1367, "\u00d8\u00a7\u00d9\u0123": 1368, "\u0120em": 1369, "\u0120..": 1370, "\u00e8\u00bd\u00bd": 1371, "\u00d0\u00b0\u00d0\u00bb": 1372, "\u0120\u00e5\u00a4\u00a7": 1373, "\u00d1\u012a": 1374, "\u0120\u00d1\u0124": 1375, "\u00d1\u0128": 1376, "\u00e0\u00a4\u00a6": 1377, "\u00ce\u00bc\u00ce\u00b1": 1378, "\u00d8\u00a7\u00d8\u00b2": 1379, "und": 1380, "10": 1381, "ara": 1382, "\u00e9\u0139": 1383, "\u00e1\u00bb\u013b": 1384, "ata": 1385, "\u0120gr": 1386, "\u00d9\u012c\u00d8\u00b1": 1387, "\u0120q": 1388, "\u00e0\u00af\u012a\u00e0\u00ae\u00af": 1389, "\u00d5\u00b8": 1390, "\u0120\u00d8\u00a5": 1391, "\u00e0\u00b1\u012f\u00e0\u00b0\u00b2": 1392, "\u00e8\u00b4": 1393, "\u0120Al": 1394, "\u00e0\u00b1\u012f\u00e0\u00b0\u00a4": 1395, "ust": 1396, "\u0120\u00e0\u00b0\u00a4": 1397, "\u00e0\u00b0\u00aa": 1398, "\u00e0\u00b0\u00a1": 1399, "\u0120\u00d9\u0127\u00db\u012e": 1400, "ian": 1401, "\u00d8\u00b1\u00d8\u00af": 1402, "\u00e4\u00b8\u012d\u00e8\u00bd\u00bd": 1403, "\u012017": 1404, "\u0120Q": 1405, "\u0120\u00ce\u00bd": 1406, "\u012000": 1407, "\u00c9\u013bt": 1408, "\u00e3\u0123\u012d": 1409, "\u00d8\u00a7\u00d8\u00b3": 1410, "\u00d0\u00b7": 1411, "\u00e0\u00b9\u0124\u00e0\u00b8": 1412, "\u00e0\u00ae\u00af": 1413, "\u0120\u00d1\u0122": 1414, "\u0120je": 1415, "\u00ec\u012c": 1416, "\u0120\u00d8\u00a7\u00d9\u0126\u00d8\u00aa": 1417, "ore": 1418, "\u0120\u00e0\u00a6\u0127": 1419, "\u00e0\u00af\u0123\u00e0\u00ae\u0137\u00e0\u00af\u012f\u00e0\u00ae\u0137": 1420, "me": 1421, "\u00ed\u0137\u013e": 1422, "\u0120\u00e0\u00a4\u00b2": 1423, "kan": 1424, "\u0120by": 1425, "ite": 1426, "\u00e1\u0125\u0134": 1427, "\u0120\u00ec\u0142": 1428, "\u0120ro": 1429, "l\u00c4\u00b1": 1430, "ado": 1431, "\u0120\u00c2\u00ab": 1432, "\u00e1\u0125\u0136\u00e1\u0125\u013d": 1433, "\u0120\u00e0\u00a4\u00b0": 1434, "\u0120dan": 1435, "\u00e5\u00b9\u00b3": 1436, "\u00e6\u013e\u012b": 1437, "\u00d0\u00bd\u00d0\u00be": 1438, "\u0120\u00e1\u0125\u00ac": 1439, "\u0120van": 1440, "\u0120\u00c3\u0142": 1441, "ttp": 1442, "\u00e0\u00af\u0123\u00e0\u00ae\u00a4": 1443, "\u00d7\u013b\u00d7\u00aa": 1444, "--": 1445, "\u00e1\u00ba\u00a5": 1446, "\u00e0\u00a7\u0129\u00e0\u00a6\u00a8": 1447, "\u00e0\u00a4\u00be\u00e0\u00a4\u00a8": 1448, "\u0120\u00e2\u0122\u00a6": 1449, "\u00e6\u00b0": 1450, "\u0120\u00e0\u00a4\u00a4": 1451, "\u00ce\u00bd\u00ce\u00b1": 1452, "\u00c3\u00a4": 1453, "du": 1454, "\u00e1\u0125\u0136\u00e1\u0125\u0133\u00e1\u0125\u013a": 1455, "\u00e0\u00a6\u0141": 1456, "\u0120+": 1457, "au": 1458, "\u012025": 1459, "\u00e5\u00b9\u00b4": 1460, "\u00e0\u00a6\u00aa": 1461, "\u00e1\u0125\u013f\u00e1\u0125\u00a1": 1462, "\u0120me": 1463, "\u00e0\u00b9\u012a\u00e0\u00b8\u00b2\u00e0\u00b8": 1464, "\u00e8\u0122": 1465, "\u00ec\u013c": 1466, "\u00d8\u00ba": 1467, "\u0120\u00ce\u00bf": 1468, "\u0120bu": 1469, "\u0120ar": 1470, "\u00e4\u00ba\u0128": 1471, "\u00eb\u00a1\u013e": 1472, "\u0120du": 1473, "\u0120://": 1474, "\u00e3\u0123\u00a3": 1475, "\u00e5\u0131\u00b0": 1476, "\u00c3\u00b3n": 1477, "\u00e4\u00bf": 1478, "\u0120bir": 1479, "\u00c3\u00aan": 1480, "\u00cf\u0123\u00ce\u00b9": 1481, "\u0120\u00e1\u0125\u00a3\u00e1\u0125": 1482, "\u00e1\u0125\u013f\u00e1\u0125\u013e": 1483, "\u00ea\u00b3\u0142": 1484, "ke": 1485, "\u0120\u00da\u00af": 1486, "\u00e0\u00b0\u00be\u00e0\u00b0\u00a8": 1487, "\u0120\u00e0\u00a6\u013e": 1488, "\u00e0\u00b0\u00bf\u00e0\u00b0\u00a8": 1489, "\u0120ap": 1490, "\u00e9\u013d": 1491, "ka": 1492, "\u0120\u00ce\u00b3": 1493, "ett": 1494, "\u00eb\u0131": 1495, "\u00e5\u00ae\u013a\u00e7\u00bd\u0133": 1496, "\u0120http": 1497, "lo": 1498, "\u0120\u00c3\u00a7": 1499, "\u0120\u00c2\u0143": 1500, "\u0120\u00d9\u012a\u00d8\u00a7\u00d9\u0126": 1501, "\u00e7\u013b": 1502, "\u0120por": 1503, "\u0120&": 1504, "88": 1505, "\u00af\u00e4\u00ba\u013c": 1506, "\u00e6\u0137": 1507, "\u00e5\u00bf\u00ab": 1508, "\u00d0\u00be\u00d0\u00b3": 1509, "\u00e0\u00b8\u0143\u00e0\u00b8\u0129\u00e0\u00b8": 1510, "\u00d8\u00a7\u00d8\u00b9": 1511, "\u00d8\u00aa\u00d8\u00b1": 1512, "\u00e3\u0125\u00bc\u00e3\u0125": 1513, "\u0120\u00c3\u00a9": 1514, "\u0120\u00db": 1515, "\u00e0\u00b0\u00af": 1516, "\u00e5\u00af": 1517, "\u00e1\u0125\u00a3\u00e1\u0125\u0142": 1518, "\u00e0\u00b0\u00bf\u00e0\u00b0\u0137": 1519, "aj": 1520, "\u00ec\u00b6\u013e\u00ec\u0140\u00a5": 1521, "\u00e1\u00bb\u0133": 1522, "\u0120ed": 1523, "ica": 1524, "age": 1525, "\u00d7\u0137\u00d7\u013e": 1526, "\u0120ser": 1527, "\u00e0\u00b9\u0129": 1528, "ale": 1529, "\u0120yang": 1530, "uj": 1531, "\u00e4\u00b8\u012f": 1532, "\u00e0\u00ae\u00be\u00e0\u00ae\u00a9": 1533, "\u00e3\u0124\u012c": 1534, "ect": 1535, "\u00ea\u00b0\u0122": 1536, "\u01202017": 1537, "\u012030": 1538, "\u00e0\u00ae\u013b": 1539, "\u00e0\u00ae\u0141\u00e0\u00af\u012f\u00e0\u00ae\u0141": 1540, "\u00c9\u013bl": 1541, "\u00c3\u00ac": 1542, "\u00d5\u00a5": 1543, "ft": 1544, "\u00eb\u00a6": 1545, "\u0120po": 1546, "\u0120\",": 1547, "\u00ea\u00b2": 1548, "\u00e4\u00b8\u012c": 1549, "\u012022": 1550, "\u0120der": 1551, "\u00e4\u00b9\u0132": 1552, "\u00d8\u00b1\u00d9\u012a": 1553, "igh": 1554, "\u00d1\u0123\u00d0\u00ba": 1555, "\u00d0\u00b9": 1556, "\u0120\u00d7\u00a9\u00d7\u013e": 1557, "\u00ce\u00b2": 1558, "\u0125\u00bd": 1559, "\u00d8\u00a7\u00d9\u012a": 1560, "\u00e0\u00b1\u012f\u00e0\u00b0\u0141": 1561, "\u0120um": 1562, "i\u00e1\u00bb\u0129": 1563, "\u0120ter": 1564, "ies": 1565, "\u00e1\u0125\u00a7": 1566, "\u00e1\u0125\u013a\u00e1\u0125\u0135": 1567, "\u00e0\u00b1\u0124\u00e0\u00b0": 1568, "ini": 1569, "th": 1570, "\u0120>": 1571, "\u00e0\u00a4\u00b0\u00e0\u00a5\u012f\u00e0\u00a4": 1572, "\u00ef\u00bc\u012e": 1573, "\u00e0\u00b1\u0123\u00e0\u00b0\u00b2": 1574, "\u0120die": 1575, "\u00d7\u00a6": 1576, "\u00e9\u00a2": 1577, "\u0120ne": 1578, "\u0120\u00d7\u0142": 1579, "ment": 1580, "\u00ce\u0133": 1581, "\u00e0\u00a4\u013c": 1582, "\u012a\u00eb\u012d\u00a4": 1583, "\u00e7\u0132": 1584, "\u00c9\u013bs": 1585, "\u00e6\u0139\u00a5": 1586, "\u0120\u00ef\u00bf\u00bd\u00ef\u00bf\u00bd\u00ef\u00bf\u00bd": 1587, "\u0120\u00d8\u00a7\u00d9\u0126\u00d8\u00a3": 1588, "\u00d0\u00b3": 1589, "\u00e3\u0124\u0124": 1590, "\u0120\u00ea\u00b0": 1591, "\u00e0\u00ae\u00a8\u00e0\u00af\u012f\u00e0\u00ae\u00a4": 1592, "\u0120\u00e1\u0125\u0137": 1593, "\u0120).": 1594, "\u00e5\u013f": 1595, "\u01202018": 1596, "\u00d5\u00b6": 1597, "\u0120men": 1598, "\u0120\u00e1\u0125\u0133": 1599, "\u00e5\u0135": 1600, "\u00e3\u0124\u00b9": 1601, "\u00eb\u00a5": 1602, "\u0120\u00d8\u00b5": 1603, "\u00e0\u00a6\u00bf\u00e0\u00a6\u0137": 1604, "\u0120\u00e0\u00a4\u00ae\u00e0\u00a5\u0129\u00e0\u00a4\u0124": 1605, "\u012021": 1606, "ach": 1607, "\u00c3\u00ba": 1608, "ement": 1609, "\u0120\u00e3\u0123": 1610, "\u00e0\u00b8\u00a3\u00e0\u00b8\u00b5": 1611, "\u0120\u00e1\u0125\u0132\u00e1\u0125\u0142": 1612, "\u0120vo": 1613, "\u00e6\u0136": 1614, "ice": 1615, "\u00e8\u00a6": 1616, "\u00d0\u00be\u00d1\u0124": 1617, "\u0120\u00d8\u00a7\u00d9\u0128": 1618, "\u00e6\u00b4": 1619, "\u0120und": 1620, "ey": 1621, "\u00e1\u0125\u0136\u00e1\u0125\u0137": 1622, "\u013d\u00e0\u00b8": 1623, "\u00e6\u0143": 1624, "\u0120\u00e0\u00b0\u00b0": 1625, "\u00e0\u00b8\u0143\u00e0\u00b8\u0129": 1626, "\u0120mga": 1627, "\u00e6\u00b5": 1628, "ru": 1629, "\u00da\u0128": 1630, "\u0120\u00ce\u0133": 1631, "\u00e9\u0123": 1632, "\u0120\u00d7\u0139": 1633, "\u00ec\u013e": 1634, "\u00ec\u0125": 1635, "\u00e6\u0140": 1636, "\u00e0\u00a4\u00af": 1637, "\u0120\u00ec\u0137": 1638, "ks": 1639, "\u00d8\u00a7\u00d8\u00a1": 1640, "ento": 1641, "\u00e0\u00b1\u012a": 1642, "\u00d9\u012a\u00d9\u0127": 1643, "\u00d0\u00b8\u00d1\u0131": 1644, "\u0139\u00e0\u00b8\u00b5\u00e0\u00b9\u012a\u00e0\u00b8": 1645, "\u0120\u00eb\u00b0": 1646, "\u0120\u00ce\u00bc\u00ce\u00b5": 1647, "\u00e0\u00a6\u00be\u00e0\u00a6\u00b2": 1648, "\u0120pag": 1649, "ina": 1650, "\u00e6\u0142": 1651, "\u00e4\u00bc\u013c": 1652, "\u00ea\u00b8\u00b0": 1653, "\u00d7\u013b\u00d7\u00a8": 1654, "amp": 1655, "\u00e1\u0125\u0136\u00e1\u0125\u0139": 1656, "ult": 1657, "uy": 1658, "za": 1659, "AN": 1660, "\u0120\u00d8\u00a7\u00d9\u0126\u00d8\u00b9": 1661, "\u0120\u00d0\u00b1": 1662, "\u00e6\u0130": 1663, "\u00e7\u00ba\u00bf": 1664, "\u00e0\u00ae\u00be\u00e0\u00ae\u0137": 1665, "che": 1666, "\u0120fr": 1667, "a\u00c5\u0141": 1668, "\u00ec\u0126\u013e": 1669, "ith": 1670, "\u00d0\u00be\u00d0\u00b9": 1671, "\u00d8\u00b8": 1672, "\u0120cont": 1673, "\u0120\u00e4\u00ba\u013c": 1674, "\u00e1\u0125\u013a\u00e1\u0125\u0132": 1675, "\u00d8\u00a7\u00d9\u0124": 1676, "kt": 1677, "\u00c5\u00af": 1678, "\u00e1\u0125\u0132\u00e1\u0125\u00ae": 1679, "\u00e3\u0123\u0128": 1680, "\u00e0\u00af\u0122": 1681, "\u00d8\u00a7\u00d9\u012c": 1682, "\u012024": 1683, "\u00e7\u00a7": 1684, "\u0120),": 1685, "\u00ce\u00bd\u00ce\u00bf": 1686, "\u00e3\u0124\u012e": 1687, "\u0120\u00e5\u00a4\u00a7\u00e5\u0131\u0133": 1688, "\u012023": 1689, "\u00e9\u013f": 1690, "\u00e0\u00ae\u00b0\u00e0\u00af\u012f": 1691, "\u00e0\u00ae\u00bf\u00e0\u00ae\u00b1": 1692, "ione": 1693, "\u00e5\u00b9\u00b3\u00e5\u0131\u00b0": 1694, "ond": 1695, "\u0120ac": 1696, "\u00e3\u0125\u0125": 1697, "\u00e6\u012a\u0131": 1698, "\u00d5\u00ab": 1699, "\u0120\u00d8\u00a7\u00db\u012e\u00d9\u0128": 1700, "\u00d8\u00b1\u00d9\u012c": 1701, "\u00cf\u0126\u00ce\u00b9\u00ce\u00ba": 1702, "\u00d8\u00a7\u00d8\u00a6": 1703, "\u00e0\u00af\u012f\u00e0\u00ae\u013c": 1704, "\u012e\u0122": 1705, "\u00e3\u0124\u00a4": 1706, "\u00e3\u0124\u012b": 1707, "ato": 1708, "\u00ec\u0138": 1709, "\u0120med": 1710, "\u0120\u00e0\u00a6\u00aa\u00e0\u00a7\u012f\u00e0\u00a6\u00b0": 1711, "\u0120au": 1712, "\u00d9\u0122": 1713, "\u00d8\u00b1\u00db\u012e": 1714, "\u00e1\u0125\u00a3\u00e1\u0125\u013c": 1715, "\u00d0\u00b5\u00d0\u00bc": 1716, "\u00e7\u00ab\u013b": 1717, "\u0120\u00d0\u00bd\u00d0\u00b0": 1718, "ue": 1719, "\u00e5\u0133": 1720, "\u0120ob": 1721, "ly": 1722, "\u0120De": 1723, "\u0120\u00e1\u0125\u0142\u00e1\u0125\u013f\u00e1\u0125\u013d": 1724, "\u00c3\u00b4ng": 1725, "gr": 1726, "\u00e1\u0125\u0132\u00e1\u0125\u00a2": 1727, "\u00d8\u00a7\u00d8\u00b4": 1728, "\u0120\u00d8\u00b2": 1729, "\u00ec\u013d": 1730, "\u00ec\u013f\u00bc": 1731, "ive": 1732, "\u00e6\u00b8\u00b8\u00e6\u012a\u0131": 1733, "\u00e0\u00a6\u00bf\u00e0\u00a6\u00a8": 1734, "\u0120\u00c3\u00bc": 1735, "\u00e7\u0136\u00a8": 1736, "\u00ea\u00b5": 1737, "\u00e1\u0125\u0132\u00e1\u0125\u0139": 1738, "\u00e5\u00a4\u00a9": 1739, "\u00e5\u00ae\u00b6": 1740, "\u00e0\u00ae\u00aa\u00e0\u00af\u012f\u00e0\u00ae\u00aa": 1741, "ER": 1742, "\u0120Ar": 1743, "\u00eb\u0124": 1744, "\u0120\u00ce\u00bd\u00ce\u00b1": 1745, "\u00c3\u00a8": 1746, "\u00e5\u00bc\u0122": 1747, "\u00e0\u00ae\u013c": 1748, "\u00e0\u00a4\u00a3": 1749, "\u00e6\u012b\u012d\u00e6\u013e\u00ba": 1750, "\u0120\u00da\u00a9\u00d9\u0129": 1751, "\u0120\u00ce\u0137": 1752, "\u00e0\u00a6\u0139": 1753, "\u00c6\u00a1": 1754, "ny": 1755, "ack": 1756, "\u012001": 1757, "\u0120\u00e0\u00ae\u0130\u00e0\u00ae\u00a9": 1758, "\u00e5\u0134": 1759, "\u0120\u00e0\u00a6\u00b0": 1760, "\u00e0\u00b0\u0124\u00e0\u00b0\u00a6": 1761, "mi": 1762, "\u00e1\u0125\u00a3\u00e1\u0125\u013c\u00e1\u0125\u013a": 1763, "\u00e0\u00af\u0123\u00e0\u00ae\u0137": 1764, "\u0120\u00ce\u0142": 1765, "\u00d0\u00b0\u00d0\u00ba": 1766, "\u00e6\u012d": 1767, "\u00ec\u013f\u0122": 1768, "\u0120\\": 1769, "\u0120\u00e0\u00ae\u012b": 1770, "\u0120een": 1771, "\u012c\u00e0\u00b8": 1772, "emp": 1773, "\u00e0\u00b9\u0129\u00e0\u00b8": 1774, "\u00eb\u0135": 1775, "he": 1776, "\u00e0\u00b1\u012f\u00e2\u0122\u012e": 1777, "\u00c4\u0129": 1778, "\u00e1\u0125\u0133": 1779, "\u00d7\u0141": 1780, "\u00ce\u00be": 1781, "\u00d7\u0137\u00d7\u0135": 1782, "\u00e1\u0125\u0132\u00e1\u0125\u0142\u00e1\u0125\u0139": 1783, "\u00d0\u00be\u00d0\u00bd": 1784, "\u00e0\u00a6\u00be\u00e0\u00a6\u00ae": 1785, "\u00e0\u00a4\u00a1": 1786, "\u00e0\u00a5\u012d\u00e0\u00a4\u0124": 1787, "\u00e6\u0138\u00b0": 1788, "\u00ec\u0124\u00ac": 1789, "one": 1790, "\u00d0\u00b8\u00d0\u00bd": 1791, "\u00ce\u00bc\u00ce\u00b5": 1792, "\u0120The": 1793, "\u00e8\u0124": 1794, "\u00e1\u00bb\u00a7": 1795, "\u00e0\u00af\u0124": 1796, "\u0120\u00e7\u0130": 1797, "\u00d0\u00b5\u00d0\u00b4": 1798, "\u0120\u00d7\u00aa": 1799, "ry": 1800, "\u0120\u00e0\u00b9\u0123\u00e0\u00b8": 1801, "\u00e1\u0125\u0136\u00e1\u0125\u0142\u00e1\u0125": 1802, "\u0120man": 1803, "\u00e3\u0125\u012a": 1804, "65": 1805, "\u00c3\u00a7\u00c3\u00a3o": 1806, "\u0120dis": 1807, "\u00ce\u0141": 1808, "\u012a\u013a": 1809, "\u00e0\u00a4\u00be\u00e0\u00a4\u00a4": 1810, "\u00ce\u013b": 1811, "\u00ec\u00b2": 1812, "\u00b7\u00e0\u00b9\u012a": 1813, "\u00d7\u0137\u00d7\u0141": 1814, "\u0120Pro": 1815, "\u0120\u00c4\u00b0": 1816, "\u0120\u00d8\u00a8\u00d8\u00a7": 1817, "\u00e1\u0125\u0136\u00e1\u0125\u0135": 1818, "\u0120\u00e0\u00a6\u00b6": 1819, "\u0120\u00e0\u00b0\u0128": 1820, "\u0120\u00ce\u0143": 1821, "sp": 1822, "\u00e0\u00a6\u00b0\u00e0\u00a7\u012f\u00e0\u00a6": 1823, "ran": 1824, "\u00d0\u00b0\u00d1\u0122": 1825, "\u0138\u00e1\u0125\u0136": 1826, "\u0120\u00e0\u00a4\u0137\u00e0\u00a5\u0122": 1827, "\u0120\u00e0\u00a4\u00af": 1828, "\u0120\u00d8\u00b9\u00d9\u0126\u00d9\u012b": 1829, "\u00e0\u00b1\u012c": 1830, "11": 1831, "\u00e0\u00a4\u00be\u00e0\u00a4\u0124": 1832, "\u00e0\u00b1\u0123\u00e0\u00b0\u00a8": 1833, "\u0120\u00c3\u00b6": 1834, "ih": 1835, "\u00b9\u00e0\u00b8": 1836, "\u00e1\u0125\u00aa": 1837, "\u0120\u00e1\u0125\u013e": 1838, "\u00e1\u0125\u013f\u00e1\u0125\u0137": 1839, "\u0120\u00e0\u00a4\u0139": 1840, "\u00e1\u00ba\u0143": 1841, "\u0120X": 1842, "\u0120}": 1843, "\u00a3\u00bc": 1844, "\u00e8\u00a1\u012e": 1845, "\u0120\u00d0\u00b7": 1846, "\u0120det": 1847, "\u00cf\u0122\u00cf\u012e": 1848, "\u0120som": 1849, "\u0120pre": 1850, "\u0120ay": 1851, "\u0120Mar": 1852, "ure": 1853, "\u00e0\u00b8\u00a3\u00e0\u00b8\u00b2\u00e0\u00b8": 1854, "\u0120\u00ec\u0139": 1855, "que": 1856, "\u0120co": 1857, "\u0120\u00c4\u0133\u00e1\u00bb": 1858, "\u00e1\u0125\u013b": 1859, "\u0120us": 1860, "\u0120\u00ea\u00b2": 1861, "\u00e0\u00b9\u012e\u00e0\u00b8": 1862, "\u0120v\u00e1\u00bb": 1863, "\u00d7\u0137\u00d7\u0133": 1864, "\u00ce\u00bb\u00ce\u00bf": 1865, "\u00e0\u00ae\u00bf\u00e0\u00ae\u0141": 1866, "form": 1867, "\u00ec\u012c\u00a4": 1868, "\u00e1\u0125\u00a5": 1869, "ual": 1870, "\u0120\u00d7\u00a8": 1871, "\u00d6\u0124": 1872, "\u0120den": 1873, "\u00e1\u0125\u013a\u00e1\u0125\u0142": 1874, "\u00cf\u0126\u00ce\u00b9": 1875, "\u00e0\u00a4\u00bf\u00e0\u00a4\u00af": 1876, "\u00e0\u00a6\u00be\u00e0\u00a7\u0141": 1877, "\u00e7\u00be": 1878, "\u0120\u00db\u012e": 1879, "\u0120En": 1880, "iel": 1881, "\u0120gi": 1882, "\u0123\u00e0\u00b8\u00b2\u00e0\u00b8\u00a3\u00e0\u00b8": 1883, "\u00e5\u0134\u012e": 1884, "\u0120$": 1885, "\u0120\u00ce\u00ba\u00ce\u00b1": 1886, "\u0120\u00e0\u00a6\u00af": 1887, "\u00e0\u00b1\u0123\u00e0\u00b0\u0124\u00e0\u00b0": 1888, "res": 1889, "\u012009": 1890, "\u0120\u00e5\u0127": 1891, "\u0120het": 1892, "\u00d7\u013b\u00d7\u0142": 1893, "di": 1894, "\u0120\u00e0\u00a4\u0137\u00e0\u00a4\u00b0": 1895, "\u0120\u00d1": 1896, "\u0120v\u00c3\u0142": 1897, "\u00e0\u00b1\u0123\u00e0\u00b0\u0137": 1898, "\u00e0\u00a4\u00ac": 1899, "\u00d9\u0126\u00d9\u012c": 1900, "ity": 1901, "\u00e0\u00a6\u00bc": 1902, "\u00e4\u00b8\u012b": 1903, "ten": 1904, "ile": 1905, "\u0120\u00e4\u00bb": 1906, "\u00e0\u00b9\u012b\u00e0\u00b8\u00b2\u00e0\u00b8": 1907, "\u0120\u00e2\u0122\u013a": 1908, "\u0120res": 1909, "\u0120he": 1910, "\u00e0\u00a4\u013e": 1911, "\u01202016": 1912, "\u00e1\u0125\u013f\u00e1\u0125\u0135": 1913, "\u00e0\u00b8\u00a3\u00e0\u00b8\u00b1\u00e0\u00b8": 1914, "\u00d7\u0137\u00d7\u0142": 1915, "\u00ec\u013f\u00b8": 1916, "\u00e0\u00ae\u00be\u00e0\u00ae\u00b2": 1917, "\u00e7\u0136\u0141": 1918, "\u0120\u00cf\u0126\u00ce\u00b7\u00cf\u0124": 1919, "\u0120\u00e0\u00b0\u00aa\u00e0\u00b1\u012f\u00e0\u00b0\u00b0": 1920, "\u0120mo": 1921, "\u00c4\u00b1l": 1922, "ama": 1923, "\u00d8\u00a5": 1924, "\u00e0\u00a6\u00bf\u00e0\u00a7\u0141": 1925, "\u00e0\u00a4\u00be\u00e0\u00a4\u00b2": 1926, "\u013f\u00bc": 1927, "\u0120\u00d1\u0125": 1928, "\u00e0\u00a6\u00bf\u00e0\u00a6\u00a4": 1929, "\u00e0\u00ae\u00a9\u00e0\u00af\u012f": 1930, "\u00e5\u0129\u00ba": 1931, "l\u00c9\u013br": 1932, "\u0120til": 1933, "\u0120\u00e1\u0125\u00ae": 1934, "\u012002": 1935, "\u0120Tr": 1936, "OM": 1937, "\u0120Un": 1938, "\u00b1\u00e0\u00b8\u013b\u00e0\u00b8": 1939, "\u00db\u012e\u00d9\u0127": 1940, "\u00e0\u00b9\u012a\u00e0\u00b8\u00b2": 1941, "\u00b3\u00e0\u00b8": 1942, "\u0120les": 1943, "\u00e0\u00af\u012f\u00e0\u00ae\u00b2": 1944, "\u0120bl": 1945, "\u00d7\u013b\u00d7\u0136": 1946, "\u00e1\u0140": 1947, "\u0120\u00d7\u00a4": 1948, "\u00e7\u00bd\u0133\u00e7\u00ab\u013b": 1949, "\u0120\u00e0\u00a4\u0137\u00e0\u00a5\u012d": 1950, "iss": 1951, "\u00e6\u013f\u00a5": 1952, "\u0139\u00e0\u00b0\u00be": 1953, "\u0120\u00d8\u00b1\u00d8\u00a7": 1954, "\u00eb\u00a6\u00ac": 1955, "\u00e4\u00bd\u0135": 1956, "\u00d1\u012b": 1957, "\u00d9\u012c\u00d8\u00af": 1958, "ana": 1959, "\u0120v\u00c9\u013b": 1960, "\u0120you": 1961, "\u00e8\u0129": 1962, "\u00e0\u00b9\u0126\u00e0\u00b8\u0136": 1963, "\u00e0\u00a6\u00b9": 1964, "\u00d8\u00aa\u00d9\u0129": 1965, "\u00e0\u00b5\u012f": 1966, "idad": 1967, "\u0120\u00ec\u013a": 1968, "\u00e0\u00a6\u00be\u00e0\u00a6\u0137": 1969, "\u00ce\u00b5\u00ce\u00af": 1970, "\u00e0\u00a4\u0141": 1971, "\u00e0\u00a4\u00a8\u00e0\u00a5\u0129": 1972, "int": 1973, "\u00d0\u00b0\u00d0\u00b2": 1974, "\u00e5\u013e\u00b0": 1975, "\u00c3\u00a1c": 1976, "\u012008": 1977, "\u00e1\u0125\u00a8\u00e1\u0125\u013a": 1978, "\u00e3\u0124\u0135": 1979, "ki": 1980, "\u00ce\u00b5\u00cf\u0124": 1981, "ire": 1982, "\u0120inter": 1983, "ito": 1984, "\u00e0\u00b0\u00bf\u00e0\u00b0\u0124\u00e0\u00b0\u013c": 1985, "\u00e8\u012b": 1986, "\u0120so": 1987, "\u00c4\u00b1\u00c5\u0141": 1988, "ita": 1989, "\u00e5\u00a8": 1990, "\u00eb\u0131\u0126": 1991, "mer": 1992, "\u00c4\u00b1m": 1993, "\u0120\u00e6\u013e": 1994, "\u0120che": 1995, "\u00e0\u00ae\u00b4": 1996, "\u0120\u00e0\u00a4\u0143": 1997, "\u0120met": 1998, "ha": 1999, "\u0120with": 2000, "\u00e7\u012b\u012a": 2001, "port": 2002, "\u0120son": 2003, "\u00d0\u00b0\u00d0\u00bc": 2004, "\u0120\u00e0\u00a4\u012b": 2005, "ca": 2006, "\u0120\u00d7\u0132\u00d7\u00aa": 2007, "ick": 2008, "\u00e5\u012b": 2009, "\u0120\u00d9\u0126\u00d9\u0126": 2010, "\u00e1\u0125\u0137\u00e1\u0125\u0136\u00e1\u0125\u013c": 2011, "\u00d0\u00b0\u00d0\u00b7": 2012, "\u00d0\u00b8\u00d0\u00b5": 2013, "\u00eb\u00a7\u012a": 2014, "\u0120\u00eb\u00a7": 2015, "....": 2016, "\u00e1\u00ba\u00a7": 2017, "\u0120\u00e1\u0125\u00a4": 2018, "co": 2019, "\u00e0\u00ae\u00bf\u00e0\u00ae\u0137": 2020, "\u00e1\u0125\u013a\u00e1\u0125\u00aa": 2021, "lu": 2022, "\u00e0\u00af\u012f\u00e0\u00ae\u0137\u00e0\u00ae\u00b3\u00e0\u00af\u012f": 2023, "ons": 2024, "\u00e0\u00af\u0123\u00e0\u00ae\u00b5": 2025, "\u0120\u00d9\u0127\u00d8\u00b9": 2026, "IN": 2027, "\u0120lo": 2028, "\u0120\u00ce\u013c": 2029, "\u00d8\u00a7\u00d8\u0143": 2030, "\u00e6\u00b2": 2031, "\u00e1\u0125\u013f\u00e1\u0125\u013c": 2032, "\u0120\u00e1\u0125\u00a5": 2033, "\u00ce\u00bf\u00cf\u012f": 2034, "\u00e0\u00a4\u00bf\u00e0\u00a4\u0137": 2035, "ni": 2036, "\u00e4\u00bd\u013e": 2037, "\u0120\u00d8\u00b7": 2038, "19": 2039, "\u013e\u00e0\u00b8": 2040, "\u00e0\u00ae\u0137\u00e0\u00af\u012f\u00e0\u00ae\u0137": 2041, "\u0120\u00e0\u00a6\u0139": 2042, "\u0120\u00ce\u00a3": 2043, "ge": 2044, "ve": 2045, "\u00c3\u00b3w": 2046, "\u00e6\u00ac": 2047, "cz": 2048, "\u0120\u00cf\u0126\u00ce\u00b7\u00ce\u00bd": 2049, "\u0120sk": 2050, "\u00e3\u0123\u0131": 2051, "\u0120we": 2052, "\u00d7\u0138": 2053, "ala": 2054, "\u00e5\u0141": 2055, "\u0120\u00ef\u00bc\u012b": 2056, "\u0120\u00e0\u00ae\u0128": 2057, "\u00e0\u00b9\u012b\u00e0\u00b8\u00b2": 2058, "ano": 2059, "\u00e6\u0125": 2060, "\u0139\u00e0\u00b8\u00b5\u00e0\u00b9\u012a": 2061, "\u00e0\u00b8\u00a3\u00e0\u00b8\u00b0\u00e0\u00b8": 2062, "\u0120\u00e1\u0125\u00a9": 2063, "\u00ab\u013a": 2064, "\u00ec\u013a": 2065, "aci": 2066, "bl": 2067, "\u00ce\u00b6": 2068, "\u00e5\u0127\u00ac": 2069, "\u013d\u00e0\u00a7\u0129": 2070, "\u00e0\u00ae\u00a3\u00e0\u00af\u012f\u00e0\u00ae\u0141": 2071, "\u00e4\u00be": 2072, "\u0120una": 2073, "\u0120\u00ec\u012d": 2074, "pe": 2075, "\u00e9\u00a1": 2076, "\u00d9\u0126\u00db\u012e": 2077, "\u00cf\u0130\u00ce\u00bd": 2078, "den": 2079, "\u00d8\u00a8\u00d8\u00b1": 2080, "\u00e1\u0125\u013f\u00e1\u0125\u0142": 2081, "\u0120\u00d8\u00a7\u00d9\u0126\u00d8\u00b3": 2082, "\u00e0\u00a7\u0123\u00e0\u00a6": 2083, "\u0120that": 2084, "ico": 2085, "\u00ce\u00a3": 2086, "\u00e0\u00ae\u00bf\u00e0\u00ae\u00a4": 2087, "ali": 2088, "\u0120\u00e5\u0131": 2089, "\u00e3\u0125\u00ab": 2090, "amb": 2091, "\u0120*": 2092, "\u00d8\u00b1\u00d8\u00a8": 2093, "\u00ce\u00b1\u00ce\u00bd": 2094, "\u00d7\u013b\u00d7\u013e": 2095, "\u0120l\u00c3\u0142": 2096, "\u00e0\u00b0\u00be\u00e0\u00b0\u00b0\u00e0\u00b1\u0123": 2097, "aya": 2098, "\u012005": 2099, "\u00eb\u0127": 2100, "\u0120\u00c3\u00a5": 2101, "\u00ec\u012d\u013e": 2102, "\u00e5\u0132\u012a": 2103, "\u0120Com": 2104, "\u012003": 2105, "\u0120g\u00c3\u00b6": 2106, "\u00d1\u0123\u00d1\u0131": 2107, "\u0120\u00d7\u00a7": 2108, "\u0120Pr": 2109, "\u00d5\u00b8\u00d6\u0124": 2110, "\u0120kan": 2111, "\u0120mas": 2112, "\u0120\u00e0\u00a6\u013c": 2113, "\u0120\u00ce\u00a4": 2114, "ino": 2115, "\u00e0\u00b0\u00a8\u00e0\u00b0\u00bf": 2116, "ando": 2117, "\u00e2\u0122\u013f": 2118, "\u00db\u012e\u00d8\u00b1": 2119, "\u0120pod": 2120, "\u0120wh": 2121, "\u0120100": 2122, "\u00c9\u013bk": 2123, "\u00e0\u00a6\u00be\u00e0\u00a6\u00a6": 2124, "\u0120ent": 2125, "\u00eb\u00a5\u00bc": 2126, "AR": 2127, "\u00d0\u00b6": 2128, "ene": 2129, "\u0120\u00d0\u00b3": 2130, "\u0120ber": 2131, "12": 2132, "\u00ce\u00af\u00ce\u00bd": 2133, "\u00e5\u00b0\u0131": 2134, "\u0120\",\"": 2135, "\u0120{": 2136, "\u012026": 2137, "oss": 2138, "\u012007": 2139, "\u00d0\u00bb\u00d0\u00b8": 2140, "\u00e1\u0125\u00ac": 2141, "\u00e9\u013d\u0128": 2142, "\u0120\u00d8\u00a3\u00d9\u0128": 2143, "eh": 2144, "ight": 2145, "\u00e0\u00a7\u012f\u00e0\u00a6\u0141": 2146, "\u0120\u00ec\u0126": 2147, "\u00e6\u00b3\u00a8": 2148, "\u00e6\u013b": 2149, "\u00e5\u00b8\u0124": 2150, "\u0120sh": 2151, "\u00e6\u00b1": 2152, "\u00d8\u00af\u00d9\u0129": 2153, "\u00d9\u0133": 2154, "\u0120\u00ef\u00bc\u012a": 2155, "ber": 2156, "\u00e1\u0125\u0136\u00e1\u0125\u0133\u00e1\u0125\u00a1": 2157, "\u01202020": 2158, "iet": 2159, "i\u00e1\u00ba\u00bf": 2160, "\u00e8\u00be": 2161, "\u00e0\u00b0\u00b0\u00e0\u00b1\u012f\u00e0\u00b0": 2162, "\u00ea\u00b1": 2163, "\u00eb\u00b0": 2164, "\u00d9\u0127\u00d8\u00a7": 2165, "\u012027": 2166, "\u0120mar": 2167, "EN": 2168, "\u00ed\u0137\u00b4": 2169, "\u00d9\u012a\u00d8\u00b2": 2170, "\u0120\u00e0\u00b0\u00ac": 2171, "\u00d0\u00be\u00d1\u0123": 2172, "\u0120los": 2173, "\u0120\u00e1\u0125\u0132\u00e1\u0125\u013d": 2174, "\u00e6\u012a\u00b7": 2175, "99": 2176, "\u0120\u00ce\u0136": 2177, "\u0120\u00e0\u00a4\u0129": 2178, "\u0120od": 2179, "\u0120ein": 2180, "\u00e8\u012a": 2181, "\u0120\u00e0\u00b0\u00a6": 2182, "\u012050": 2183, "\u0120\u00ea\u00b3": 2184, "\u00ed\u012c": 2185, "50": 2186, "\u00e4\u00b8\u00ba": 2187, "ace": 2188, "\u012004": 2189, "\u00e6\u013e\u00ac": 2190, "\u00e5\u013f\u0122": 2191, "\u0120\u00e0\u00b0\u0129": 2192, "\u00e7\u013e\u0141": 2193, "\u0120ist": 2194, "\u0120\u00c5\u0141": 2195, "\u00ce\u0137": 2196, "\u00e7\u0132\u0128": 2197, "\u00e5\u013e\u00a8\u00e7\u00ba\u00bf": 2198, "\u0120p\u00c5\u013b": 2199, "\u00e6\u012e": 2200, "\u00d9\u0132": 2201, "per": 2202, "\u012028": 2203, "\u0120\u00e0\u00a4\u00b8\u00e0\u00a5\u0129": 2204, "\u00af\u00e0\u00a6\u00bc": 2205, "ON": 2206, "\u012006": 2207, "\u0120tak": 2208, "\u0120p\u00c3\u00a5": 2209, "\u00e0\u00a5\u012f\u00e0\u00a4\u00a4": 2210, "ern": 2211, "\u00e9\u013b\u0127": 2212, "\u00c6\u00b0\u00e1\u00bb\u013f": 2213, "\u00e0\u00b8\u013b\u00e0\u00b9\u0122\u00e0\u00b8": 2214, "\u0120\u00cf\u012e": 2215, "ja": 2216, "ail": 2217, "\u00e7\u0136\u00b5": 2218, "be": 2219, "je": 2220, "\u00e6\u013e\u012a": 2221, "\u00ec\u00b9": 2222, "\u00e7\u00a5\u0140": 2223, "\u0120\u00ce\u00b3\u00ce\u00b9\u00ce\u00b1": 2224, "\u00d5\u00a1\u00d5\u00b6": 2225, "\u00e3\u0123\u012f": 2226, "\u0120\u00e0\u00a6\u00ac\u00e0\u00a6\u00bf\u00e0\u00a6": 2227, "\u00e3\u0122\u0124": 2228, "\u00e1\u0125\u013f\u00e1\u0125\u0134": 2229, "\u00e4\u00b8\u00aa": 2230, "\u0120th\u00e1\u00bb": 2231, "\u0120\u00e0\u00a4\u00aa\u00e0\u00a5\u012f\u00e0\u00a4\u00b0": 2232, "\u0120\u00d7\u0134": 2233, "\u0120om": 2234, "\u00a1\u00e0\u00b8\u00b2\u00e0\u00b8": 2235, "\u0120min": 2236, "\u00e5\u00ae\u013a\u00e6\u0138\u00b9": 2237, "\u0120\u00e1\u0125\u0135\u00e1\u0125\u0132\u00e1\u0125": 2238, "\u0120\":\"": 2239, "\u0120\u00e4\u00ba\u013c\u00e6\u00b8\u00b8": 2240, "\u00e1\u0125\u013a\u00e1\u0125\u00a2": 2241, "cia": 2242, "si": 2243, "\u0120ut": 2244, "\u00e1\u0125\u013f\u00e1\u0125\u0142\u00e1\u0125": 2245, "\u0120\u00d7\u013e\u00d7\u0136": 2246, "\u00e0\u00b6": 2247, "\u00d0\u00b8\u00d0\u00ba": 2248, "\u0120La": 2249, "\u00eb\u00b3": 2250, "line": 2251, "\u0120\u00ce\u013e": 2252, "\u00e0\u00a6\u00be\u00e0\u00a6\u00a4": 2253, "\u0120\u00d1\u0129": 2254, "\u00e0\u00a7\u012f\u00e0\u00a6\u00ac": 2255, "\u00e6\u0126": 2256, "\u0120\u00e0\u00a4\u00b6": 2257, "\u0120har": 2258, "\u00e1\u0125\u0135\u00e1\u0125\u0132": 2259, "\u00d9\u0126\u00d9\u0129": 2260, "ain": 2261, "\u0120var": 2262, "\u0120\u00d0\u0141": 2263, "\u0120\u00e0\u00a8": 2264, "\u0120\u00e0\u00b0\u012b": 2265, "\u0120\u00e1\u0125\u0134\u00e1\u0125\u0132\u00e1\u0125\u013d": 2266, "\u0120Re": 2267, "\u00ce\u00bb\u00ce\u00bb": 2268, "\u00e4\u00b8\u013c": 2269, "\u0120\u00e0\u00b0\u0139": 2270, "\u00e8\u00a6\u0123": 2271, "\u0100\u0100": 2272, "\u0120\u00ce\u00b1\u00cf\u0122\u00cf\u012e": 2273, "\u00e3\u0124\u00af": 2274, "\u00e1\u0125\u013a\u00e1\u0125\u013b": 2275, "\u0120t\u00e1\u00bb": 2276, "\u0120\u00d9\u0127\u00d9\u012a": 2277, "pt": 2278, "\u00e0\u00a6\u00bf\u00e0\u00a6\u00b0": 2279, "\u00d0\u00b8\u00d0\u00bc": 2280, "xt": 2281, "\u00ec\u0137\u012a": 2282, "\u0120\u00d8\u00a7\u00d9\u0126\u00d8\u0143": 2283, "\u00c9\u013bd": 2284, "\u013di": 2285, "\u0120\u00d8\u00a8\u00d8\u00a7\u00d9\u0126": 2286, "18": 2287, "\u00d1\u0123\u00d1\u0124\u00d0\u00b2": 2288, "\u00e3\u0125\u00a9": 2289, "\u0120\u00e7\u0130\u00af\u00e4\u00ba\u013c": 2290, "otel": 2291, "\u00b2\u00e0\u00b1\u012d": 2292, "rat": 2293, "\u00e8\u0125\u00bd": 2294, "\u00eb\u00b6": 2295, "\u00e0\u00a6\u013e": 2296, "\u00e9\u013a": 2297, "\u00e7\u00a5\u00a8": 2298, "\u0120\u00ce\u00b8": 2299, "\u00e0\u00a6\u0129": 2300, "asi": 2301, "nie": 2302, "ky": 2303, "\u0120ho": 2304, "\u00e5\u0122": 2305, "\u00b1\u00e4\u00b9\u0132": 2306, "\u00e6\u012a\u0132": 2307, "lar\u00c4\u00b1n": 2308, "\u0120\u00cf\u0129": 2309, "\u00e0\u00ae\u00bf\u00e0\u00ae\u00a9\u00e0\u00af\u012f": 2310, "\u0120ha": 2311, "\u00d0\u00be\u00d0\u00b1": 2312, "\u00eb\u0142": 2313, "man": 2314, "\u0120\u00e5\u00b0": 2315, "unt": 2316, "\u00e0\u00b1\u012f\u00e0\u00b0\u00aa": 2317, "\u01202015": 2318, "\u0120\u00ce\u00b7": 2319, "ami": 2320, "\u00c4\u00b0": 2321, "ko": 2322, "\u00e0\u00b9\u0126\u00e0\u00b8\u00a1": 2323, "\u0120\u00d7\u0135": 2324, "\u0120br": 2325, "ekt": 2326, "\u00e7\u0143": 2327, "\u0120\u00d7\u0136\u00d7\u0140\u00d7": 2328, "\u00e5\u0143\u0132": 2329, "\u0120\u00e0\u00a4\u0131": 2330, "\u013d\u00e0\u00b9\u0129": 2331, "30": 2332, "ura": 2333, "\u00c6\u00b0\u00e1\u00bb\u00a3": 2334, "\u00e0\u00a6\u00be\u00e0\u00a6\u00ac": 2335, "\u00c4\u00b1z": 2336, "\u00e0\u00b0\u00a8\u00e0\u00b1\u012f\u00e0\u00b0\u00a8": 2337, "\u00e8\u00a7\u0128": 2338, "\u00e0\u00a5\u0123\u00e0\u00a4": 2339, "\u0120\u00e5\u00bd": 2340, "\u0120\u00d0\u00a1": 2341, "fer": 2342, "\u00e7\u0142": 2343, "\u00e1\u00ba\u00a5t": 2344, "\u0120c\u00c3\u00b3": 2345, "\u00d9\u0127\u00d8\u00a7\u00d9\u0128": 2346, "\u0120\u00e0\u00a4\u013c": 2347, "\u00d8\u00a6": 2348, "\u00e0\u00ae\u00bf\u00e0\u00ae\u0137\u00e0\u00af\u012f\u00e0\u00ae\u0137": 2349, "\u00ed\u013b": 2350, "\u00c3\u00b9": 2351, "ilm": 2352, "akt": 2353, "\u012029": 2354, "\u0120\u00d7\u013e\u00d7\u0132": 2355, "\u00e9\u0125": 2356, "\u00c9\u013bm": 2357, "ull": 2358, "\u00e0\u00af\u012f\u00e0\u00ae\u00b3": 2359, "ied": 2360, "22": 2361, "\u0120kom": 2362, "\u00e5\u0127\u00a8": 2363, "\u0120are": 2364, "\u0120ik": 2365, "\u00e5\u0135\u0123": 2366, "\u0120000": 2367, "\u00ed\u012c\u00b8": 2368, "\u00d9\u012c\u00d9\u0126": 2369, "\u0120\u00ec\u00a7": 2370, "\u0120Le": 2371, "\u00e3\u0123\u0135": 2372, "ign": 2373, "\u00e6\u00af": 2374, "\u00c4\u0125": 2375, "\u00e0\u00ae\u00be\u00e0\u00ae\u00a4": 2376, "\u00e4\u00ba\u00ac": 2377, "ili": 2378, "\u00cf\u0126\u00ce\u00ac": 2379, "\u00e3\u0123\u00be\u00e3\u0123\u013b": 2380, "ku": 2381, "\u00e1\u00ba\u00a1i": 2382, "\u0120all": 2383, "\u00cf\u0123\u00ce\u00ac": 2384, "\u00e0\u00a6\u00be\u00e0\u00a6\u00b8": 2385, "rav": 2386, "\u00d9\u0129\u00d8\u00a7\u00db\u012e": 2387, "oy": 2388, "\u0120mod": 2389, "\u00d8\u00b1\u00d9\u0123": 2390, "\u0120wy": 2391, "\u00ec\u00a3\u00bc": 2392, "\u00e4\u00bb\u00a5": 2393, "act": 2394, "\u00d0\u00be\u00d0\u00b3\u00d0\u00be": 2395, "\u00d9\u0131": 2396, "\u0120\u00e1\u0125\u013f": 2397, "\u00e0\u00a6\u00be\u00e0\u00a6\u0129": 2398, "inin": 2399, "\u0120\u00d0\u0134": 2400, "\u0120\u00ec\u013f\u00b4": 2401, "uc": 2402, "\u00e5\u013d\u00a2": 2403, "\u00e5\u00a8\u00b1\u00e4\u00b9\u0132": 2404, "\u00e3\u0125\u00aa": 2405, "\u0120up": 2406, "ction": 2407, "\u0120part": 2408, "\u0123\u00e0\u00b8\u00b2\u00e0\u00b8\u00a3": 2409, "\u0120\u00da\u0128": 2410, "\u00e0\u00b7": 2411, "\u0120dat": 2412, "\u00e7\u0124": 2413, "\u00e0\u00a6\u0124": 2414, "ken": 2415, "\u00e9\u00ab\u013a": 2416, "\u0120\u00e0\u00a6\u012b": 2417, "\u00e0\u00b0\u0139": 2418, "\u00e5\u012a\u00b0": 2419, "\u0120pa": 2420, "\u00e0\u00af\u012f\u00e0\u00ae\u00b5": 2421, "\u00d7\u013b\u00d7\u0141": 2422, "\u00e3\u0123\u0139\u00e3\u0123\u00a6": 2423, "\u0120\u00e0\u00ae\u013c\u00e0\u00af\u0128": 2424, "\u0120\u00cf\u0125\u00cf\u0127": 2425, "\u0120not": 2426, "\u0120\u00d7\u00a1": 2427, "\u00d8\u00a7\u00d8\u00ac": 2428, "as\u00c4\u00b1": 2429, "\u0120\u00e0\u00a6\u0135": 2430, "hr": 2431, "\u00d9\u012a\u00d8\u00a7\u00d9\u0128": 2432, "\u00e0\u00ae\u00b2\u00e0\u00af\u012f": 2433, "\u00e9\u0134": 2434, "\u0126\u00e0\u00b8\u00a3\u00e0\u00b8": 2435, "\u00d7\u0142\u00d7\u013b": 2436, "ss": 2437, "\u0138\u00e0\u00b8": 2438, "\u00e0\u00ae\u00aa": 2439, "\u00e5\u00a4\u013c": 2440, "66": 2441, "__": 2442, "\u00e3\u0122\u0133\u00e3\u0122\u0132": 2443, "\u0120art": 2444, "alam": 2445, "\u00e0\u00af\u0123\u00e0\u00ae\u00ae": 2446, "\u00e1\u0125\u013a\u00e1\u0125\u0137": 2447, "itt": 2448, "\u00d7\u0133\u00d7\u00a8": 2449, "\u00e5\u013d\u00bd\u00e9\u013b\u0127": 2450, "ame": 2451, "\u0120\u00cf\u0122\u00ce\u00bf\u00cf\u0127": 2452, "\u00e3\u0123\u0137": 2453, "\u00c3\u00a9s": 2454, "\u0120\u00e3\u0122\u0133": 2455, "\u0120col": 2456, "\u00eb\u012d\u012a\u00eb\u012d\u00a4": 2457, "\u0120comp": 2458, "ego": 2459, "\u00e1\u0125\u0142\u00e1\u0125\u0139": 2460, "iew": 2461, "\u00e8\u00a8": 2462, "att": 2463, "\u0120\u00d7\u00a2\u00d7\u013e": 2464, "\u00e1\u0125\u0136\u00e1\u0125\u00a2": 2465, "\u0120aut": 2466, "\u0120cn": 2467, "urs": 2468, "\u00ce\u00b9\u00cf\u0125": 2469, "\u0120\u00e0\u00a6\u0143": 2470, "ici": 2471, "\u00e8\u0123": 2472, "\u0120\u00d9\u0129\u00d9\u0127": 2473, "\u0120\u00d9\u0127\u00d8\u0143": 2474, "\u00a7\u00e0\u00b8\u00b2\u00e0\u00b8": 2475, "\u00e7\u00be\u0130": 2476, "\u0120mu": 2477, "\u00e8\u00bd\u00a6": 2478, "\u00e5\u0143\u00a6": 2479, "77": 2480, "\u00e0\u00a4\u00bf\u00e0\u00a4\u00a4": 2481, "\u0120c\u00e1\u00bb\u00a7": 2482, "\u00e0\u00ae\u00be\u00e0\u00ae\u0141": 2483, "\u00e0\u00a6\u00a3": 2484, "ater": 2485, "\u00e0\u00a9": 2486, "\u0120\u00e0\u00b0\u0130": 2487, "\u0120\u00d0\u00b0": 2488, "\u0120ke": 2489, "\u00e1\u0125\u013a\u00e1\u0125\u013d": 2490, "\u0120\u00eb\u0124": 2491, "\u0120\u00c5": 2492, "\u00e0\u00a7\u0129\u00e0\u00a6\u0137": 2493, "out": 2494, "\u0120\u00e5\u00ae": 2495, "\u0120\u00e0\u00b4": 2496, "ES": 2497, "\u00ce\u0143\u00cf\u0124": 2498, "\u0120\u00ef\u00bf\u00bd\u00ef\u00bf\u00bd": 2499, "\u00d0\u00b0\u00d1\u0131": 2500, "\u00e0\u00b5\u012f\u00e0\u00b4": 2501, "\u00c3\u00b2": 2502, "\u00e0\u00b0\u0137\u00e0\u00b1\u012f\u00e0\u00b0": 2503, "\u0120c\u00e1\u00bb\u00a7a": 2504, "ante": 2505, "15": 2506, "\u00d0\u00b5\u00d0\u00b9": 2507, "ime": 2508, "\u0120\u00c2\u00b7": 2509, "\u0120\u00c4\u0132": 2510, "\u00d0\u00bb\u00d1\u0131": 2511, "\u00d7\u013c": 2512, "\u00e0\u00b0\u00be\u00e0\u00b0\u00af": 2513, "\u01202014": 2514, "\u00e0\u00a7\u013e": 2515, "cht": 2516, "\u0120mak": 2517, "\u00e5\u00b7\u00a5": 2518, "\u00e0\u00af\u0123\u00e0\u00ae\u00a4\u00e0\u00af\u012f\u00e0\u00ae\u00a4": 2519, "\u0120\u00e0\u00a4\u0136": 2520, "\u00e3\u0123\u00a3\u00e3\u0123\u00a6": 2521, "\u0120nie": 2522, "\u00cf\u0123\u00ce\u00af": 2523, "\u00e4\u00ba\u012d": 2524, "\u0120\u00d7\u0138": 2525, "\u00e7\u00a8": 2526, "ner": 2527, "\u00e0\u00af\u012f\u00e0\u00ae\u00a9": 2528, "\u00e7\u013b\u00bb": 2529, "\u00a6\u00e0\u00b0\u00bf": 2530, "\u00c3\u00b1": 2531, "\u00ec\u0140\u0132": 2532, "\u00c4\u00b1nda": 2533, "\u00e0\u00a4\u00a7": 2534, "\u0120\u00e0\u00b0\u013e": 2535, "\u00ec\u013e\u00bc": 2536, "\u00d9\u0127\u00d9\u0128": 2537, "\u0120Se": 2538, "\u00e1\u0125\u0136\u00e1\u0125\u0134": 2539, "\u00e0\u00b8\u013b\u00e0\u00b8\u00b5": 2540, "ati": 2541, "\u0120\u00e0\u00a4\u00aa\u00e0\u00a4\u00b0": 2542, "\u0120COM": 2543, "dan": 2544, "\u0120\u00e8\u00bf": 2545, "\u00e0\u00b8\u0143\u00e0\u00b8\u013b": 2546, "\u00d0\u00b8\u00d0\u00b8": 2547, "lik": 2548, "ome": 2549, "\u00c9\u013by": 2550, "\u0120ty": 2551, "ele": 2552, "\u00e0\u00b9\u0125\u00e0\u00b8\u00ab": 2553, "\u00b7\u00b8": 2554, "\u00e0\u00af\u0123\u00e0\u00ae\u0141": 2555, "\u00e3\u0123\u0124": 2556, "\u00e7\u00a4": 2557, "\u00d8\u00a7\u00d8\u00b1\u00db\u012e": 2558, "ende": 2559, "\u00d7\u0137\u00d7\u013f": 2560, "\u0120\u00eb\u012d": 2561, "\u00e0\u00b0\u0124\u00e0\u00b0\u0141": 2562, "\u0120\u00e1\u0125\u00a2": 2563, "\u0120\u00e0\u00a4\u0136\u00e0\u00a4\u00b0": 2564, "\u0141\u00e0\u00b8\u00a3\u00e0\u00b8\u00b5": 2565, "les": 2566, "\u00e1\u0125\u0137\u00e1\u0125\u013a\u00e1\u0125\u00a1": 2567, "\u0120\u00d8\u00a7\u00d9\u0127": 2568, "\u00e5\u00ae\u012b": 2569, "\u0120Sp": 2570, "\u00e5\u013d\u00be": 2571, "\u00e3\u0123\u00a7\u00e3\u0123\u013b": 2572, "\u00b0\u00e0\u00b9\u0122\u00e0\u00b8": 2573, "\u0120\u00e2\u0122\u0140": 2574, "\u00e9\u0139\u00a8": 2575, "\u00eb\u013f\u00bc": 2576, "\u0120\u00e0\u00a4\u00b9\u00e0\u00a5\u012d": 2577, "\u01202013": 2578, "\u00cf\u0126\u00ce\u00b1\u00ce\u00b9": 2579, "icht": 2580, "\u00d8\u00b1\u00d8\u00a7\u00d9\u0128": 2581, "\u00d8\u00b9\u00d8\u00af": 2582, "olog": 2583, "\u00d0\u00b5\u00d0\u00ba": 2584, "\u00d9\u0129\u00d9\u0127": 2585, "\u0120pol": 2586, "\u0120h\u00e1\u00bb": 2587, "\u00c3\u00a2n": 2588, "ors": 2589, "zi": 2590, "\u00e1\u0125\u0136\u00e1\u0125\u013c\u00e1\u0125\u013a": 2591, "\u0120this": 2592, "era": 2593, "\u00e1\u0125\u00a8": 2594, "\u00d9\u0127\u00d9\u0126": 2595, "\u00e9\u0129\u0133": 2596, "zen": 2597, "\u0120\u00e0\u00b0\u013c\u00e0\u00b1\u0129\u00e0\u00b0": 2598, "\u00e0\u00b1\u0123\u00e0\u00b0\u00a8\u00e0\u00b1\u012f\u00e0\u00b0\u00a8": 2599, "\u0120\u00e1\u0125\u0134\u00e1\u0125\u0132\u00e1\u0125\u013e": 2600, "\u0120\u00e6\u012a": 2601, "\u0120m\u00c3\u00bc": 2602, "\u0120\u00d9\u0129\u00d8\u00a7\u00db\u012e": 2603, "\u00e0\u00a5\u012f\u00e0\u00a4\u00af\u00e0\u00a4\u00be": 2604, "\u00e0\u00ae\u00b2\u00e0\u00af\u012f\u00e0\u00ae\u00b2": 2605, "\u00ce\u00b9\u00ce\u00bf": 2606, "\u0120\u00ec\u0124\u00ac": 2607, "\u0120can": 2608, "\u00e6\u00b3\u0137": 2609, "\u0120was": 2610, "\u00e5\u0123": 2611, "\u012040": 2612, "\u00e0\u00b0\u00bf\u00e0\u00b0\u00a4": 2613, "\u00e0\u00a6\u00bf\u00e0\u00a6\u00b2": 2614, "\u00e0\u00a4\u00bf\u00e0\u00a4\u00b2": 2615, "\u00e0\u00b1\u012f\u00e0\u00b0\u00b5": 2616, "\u0120\u00e5\u012a": 2617, "\u00e9\u00a3": 2618, "lar\u00c4\u00b1": 2619, "\u00e1\u0125\u0132\u00e1\u0125\u0134": 2620, "\u00b1\u00e0\u00b8\u013b": 2621, "\u0120sur": 2622, "\u0120\u00e5\u0129": 2623, "ven": 2624, "\u00d7\u0137\u00d7\u0132": 2625, "ook": 2626, "uz": 2627, "\u00e1\u0125\u013a\u00e1\u0125\u0132\u00e1\u0125\u013e": 2628, "\u00e6\u013d": 2629, "\u0120cl": 2630, "\u00d0\u00be\u00d1\u0123\u00d1\u0124": 2631, "\u0120Qu": 2632, "\u0120\u00e1": 2633, "\u0120\u00cf\u0122\u00cf\u0123\u00ce\u00bf": 2634, "\u00e1\u0125\u013a\u00e1\u0125\u013f": 2635, "\u0120\u00e3\u0125\u00bb": 2636, "\u0120\u00e0\u00ae\u0129\u00e0\u00ae\u00b0": 2637, "\u00e7\u00ae": 2638, "\u00e1\u0125\u0140": 2639, "\u00e6\u013e\u0122": 2640, "n\u00c4\u013d": 2641, "\u00d9\u012a\u00db\u012e": 2642, "\u0120os": 2643, "\u00d0\u00b0\u00d1\u0124\u00d1\u012e": 2644, "\u00e0\u00a7\u0123\u00e0\u00a6\u00b2": 2645, "\u00ce\u0141\u00ce": 2646, "\u0120\u00e6\u0139": 2647, "\u00d0\u00b0\u00d1\u0123": 2648, "\u00e3\u0123\u0142": 2649, "nya": 2650, "\u00ec\u013d\u0132": 2651, "i\u00c5\u0141": 2652, "uh": 2653, "\u0120mer": 2654, "ase": 2655, "\u0120voor": 2656, "\u0120sol": 2657, "\u01202012": 2658, "\u0120\u00ce\u00b5\u00cf\u0122": 2659, "\u00e0\u00ae\u013b\u00e0\u00af\u012f\u00e0\u00ae\u0137": 2660, "\u00c3\u00a1t": 2661, "WW": 2662, "\u00d7\u013b\u00d7\u0137\u00d7\u00aa": 2663, "\u0120sc": 2664, "\u0120las": 2665, "\u00ce\u00b5\u00ce\u00bd": 2666, "\u00e9\u0125\u00a8": 2667, "n\u00c3\u00a9": 2668, "\u0120pers": 2669, "able": 2670, "\u00e5\u00bd\u00a9\u00e7\u00a5\u00a8": 2671, "yo": 2672, "\u0120El": 2673, "\u00d9\u00be": 2674, "\u00e1\u0125\u00a6": 2675, "16": 2676, "33": 2677, "\u00e9\u013d\u0128\u00e5\u013d\u00a2": 2678, "\u0120\u00e0\u00a4\u0137\u00e0\u00a4\u00be": 2679, "\u00d8\u00aa\u00d9\u0127": 2680, "\u00c3\u00a1n": 2681, "\u00e1\u0125\u00a3": 2682, "\u0120\u00ef\u00bf\u00bd\u00ef\u00bf\u00bd\u00ef\u00bf\u00bd\u00ef\u00bf\u00bd\u00ef\u00bf\u00bd": 2683, "\u0120rec": 2684, "\u00ce\u00ae\u00cf\u0124": 2685, "\u00e1\u0125\u013a\u00e1\u0125\u013c\u00e1\u0125\u013a": 2686, "\u0120\u00d0\u013c": 2687, "\u00b8\u00e0\u00b1\u012f\u00e0\u00b0\u00a4": 2688, "\u0120\u00e0\u00b8\u00aa\u00e0\u00b8": 2689, "\u0120pour": 2690, "\u00e0\u00ae\u00b1\u00e0\u00af\u012f\u00e0\u00ae\u00b1": 2691, "ave": 2692, "\u00e5\u00ae\u00a2": 2693, "\u00cf\u0123\u00cf\u012e": 2694, "\u00d7\u013b\u00d7\u00a7": 2695, "\u00ec\u0128": 2696, "\u0120\u00c3\u00a8": 2697, "\u00eb\u0140": 2698, "\u00d7\u013b\u00d7\u0133": 2699, "\u00eb\u00a9": 2700, "\u00a1\u00e0\u00b1\u0123": 2701, "\u00e5\u0127\u00a5": 2702, "\u00d9\u0126\u00d9\u012b": 2703, "\u00e5\u0131\u00af": 2704, "\u0120sch": 2705, "\u00e7\u013e\u012d": 2706, "\u00e0\u00a7\u0129\u00e0\u00a6\u00b2": 2707, "\u00e2\u0122\u00a6": 2708, "\u00d5\u00a5\u00d5": 2709, "\u00e3\u0123\u0139\u00e3\u0123\u0141": 2710, "\u0120\u00cf\u0125\u00cf\u0126\u00ce\u00bf": 2711, "\u00e6\u0131": 2712, "net": 2713, "\u00c3\u00a1s": 2714, "\u00e0\u00a4\u00be\u00e0\u00a4\u00ae": 2715, "mo": 2716, "\u00e5\u0142": 2717, "\u0120\u00ea\u00b8": 2718, "af": 2719, "\u00e7\u0137": 2720, "\u0120\u00eb\u00aa": 2721, "\u00e0\u00b0\u0124\u00e0\u00b0\u00a4": 2722, "\u0120go": 2723, "\u00d0\u00be\u00d0\u00ba": 2724, "we": 2725, "eld": 2726, "ise": 2727, "\u00e7\u00bd\u0133\u00e5\u013f\u0122": 2728, "\u00e1\u0125\u0132\u00e1\u0125\u013a": 2729, "\u00e0\u00a7\u0129\u00e0\u00a6\u00b6": 2730, "\u0120\u00d8\u00a7\u00d9\u0126\u00d8\u00ac": 2731, "\u0120\u00e1\u0125\u00aa": 2732, "OR": 2733, "\u0120\u00d8\u00a7\u00d9\u0126\u00d9\u0124": 2734, "\u00d9\u0126\u00d9\u0127": 2735, "\u00d0\u00b8\u00d0\u00bb": 2736, "\u00e7\u00b4": 2737, "\u0120\u00e5\u013e": 2738, "\u0120mag": 2739, "tuk": 2740, "\u0120\u00e0\u00ae\u0134": 2741, "ret": 2742, "\u00d0\u00be\u00d0\u00b6": 2743, "ox": 2744, "\u00e0\u00a5\u012f\u00e0\u00a4\u0141": 2745, "\u00e8\u0129\u00aa": 2746, "\u00d9\u0134": 2747, "\u0120\u00e5\u012f": 2748, "\u00ce\u00bf\u00cf\u0127\u00ce\u00bd": 2749, "\u00e9\u0137": 2750, "aci\u00c3\u00b3n": 2751, "\u00e6\u00a3": 2752, "gi": 2753, "\u00ce\u0139": 2754, "ish": 2755, "\u0120\u00d0\u00bb": 2756, "55": 2757, "\u00e1\u00bb\u012d": 2758, "\u00e1\u0125\u0132\u00e1\u0125\u00a8\u00e1\u0125\u013a": 2759, "\u00e0\u00a4\u00be\u00e0\u00a4\u00af": 2760, "\u00d7\u013b\u00d7\u00a9": 2761, "AL": 2762, "\u0120\u00eb\u00b3": 2763, "\u00cf\u0123\u00ce\u00b3": 2764, "\u0120\u00e5\u0132": 2765, "\u0120bil": 2766, "\u00d1\u0126": 2767, "\u00a7\u00e0\u00a7": 2768, "\u0120\u00d0\u00be\u00d1\u0124": 2769, "ena": 2770, "\u00d0\u00b8\u00d0\u00b9": 2771, "\u00c3\u00acnh": 2772, "\u00e1\u0125\u013a\u00e1\u0125\u00a3\u00e1\u0125": 2773, "\u00cf\u0125\u00ce\u00b5\u00ce\u00b9": 2774, "\u0120\u00d8\u00b9\u00d9\u0128": 2775, "\u00ce\u00bc\u00ce\u00bf": 2776, "\u00b4\u00e0\u00b8\u013b\u00e0\u00b8": 2777, "\u00e8\u00b7": 2778, "\u00e0\u00a7\u0123\u00e0\u00a6\u00b0": 2779, "14": 2780, "\u0120\u00ec\u012a\u013a": 2781, "min": 2782, "\u00e8\u00b6": 2783, "yn": 2784, "\u00d9\u0122\u00d9\u0122": 2785, "\u0120\u00e1\u0125\u00a7": 2786, "\u00d6\u0122\u00d5": 2787, "\u0120\u00e0\u00b0\u00b5\u00e0\u00b0\u00bf\u00e0\u00b0": 2788, "\u00e1\u00ba\u00af": 2789, "\u00e0\u00b9\u0125\u00e0\u00b8\u013b\u00e0\u00b8": 2790, "\u0124\u00b0": 2791, "17": 2792, "els": 2793, "\u00d1\u0124\u00d0\u00be": 2794, "\u00e7\u0130\u00af\u00e4\u00ba\u013c": 2795, "\u00e0\u00a6\u00be\u00e0\u00a6\u013e": 2796, "\u00eb\u00ac": 2797, "\u00e0\u00a6\u00b6": 2798, "\u00e0\u00b0\u013c": 2799, "\u00d8\u00a8\u00d9\u012c": 2800, "\u00e1\u0125\u013c\u00e1\u0125\u013a\u00e1\u0125\u00a1": 2801, "\u00c3\u00b8r": 2802, "\u00d8\u00aa\u00db\u012e": 2803, "gen": 2804, "\u0120\u00d0\u00bd\u00d0\u00b5": 2805, "\u00e0\u00a7\u012f\u00e0\u00a6\u00b7": 2806, "\u0126\u00e0\u00b8\u00a7\u00e0\u00b8\u00b2\u00e0\u00b8": 2807, "\u00e3\u0123\u0133": 2808, "men": 2809, "ade": 2810, "\u00e7\u0126": 2811, "\u00e5\u0137": 2812, "a\u00c4\u0141": 2813, "\u0120ind": 2814, "chen": 2815, "\u0120WWW": 2816, "\u0120\u00e0\u00a6\u00aa\u00e0\u00a6\u00b0": 2817, "\u0120\u00e1\u0125\u0140\u00e1\u0125\u0142": 2818, "AT": 2819, "\u00e8\u00ae\u00a1": 2820, "\u00e6\u0139\u00b6\u00e5\u00bd\u00a9": 2821, "nen": 2822, "\u00e0\u00a4\u00a4\u00e0\u00a4\u00be": 2823, "\u0120inc": 2824, "erv": 2825, "\u00e8\u0124\u00b2": 2826, "\u00e0\u00a4\u00be\u00e0\u00a4\u00b8": 2827, "tr": 2828, "\u0129\u00e0\u00b9\u0122\u00e0\u00b8": 2829, "\u0120\u00e0\u00a6\u0131\u00e0\u00a6\u0137": 2830, "ink": 2831, "ych": 2832, "\u00ec\u0138\u00b4": 2833, "\u00e5\u00ae\u013c": 2834, "\u0120\u00cf\u0126\u00ce\u00b1": 2835, "\u00e1\u0125\u0132\u00e1\u0125\u013b": 2836, "\u00e0\u00b9\u012b\u00e0\u00b8\u0143\u00e0\u00b8": 2837, "\u0120cho": 2838, "\u0120si\u00c4\u013b": 2839, "\u00ce\u0133\u00ce": 2840, "\u0120\u00ce\u00b2": 2841, "\u00e4\u00b9\u012a": 2842, ");": 2843, "\u00d7\u013b\u00d7\u0135": 2844, "\u0120cons": 2845, "\u0120ta": 2846, "\u00d1\u0122\u00d1\u0125": 2847, "\u0120\u00d8\u00a7\u00d9\u0126\u00d9\u0128": 2848, "\u00e5\u0130\u0127": 2849, "\u00d5\u00b8\u00d6\u0124\u00d5": 2850, "\u00e4\u00b9\u012d": 2851, "\u00e5\u00bd\u0137": 2852, "\u00d0\u00b8\u00d0\u00b2": 2853, "own": 2854, "\u00e0\u00ae\u00b3\u00e0\u00af\u012f": 2855, "\u00d8\u00b3\u00db\u012e": 2856, "wa": 2857, "ora": 2858, "\u0120\u00e1\u0125\u013a\u00e1\u0125\u00a1": 2859, "\u0120\u00e4\u00bd": 2860, "\u0120\u00d1\u012f": 2861, "\u0120\u00ec\u00b9": 2862, "engan": 2863, "\u00e8\u0122\u0127": 2864, "\u0120\u00d8\u00a7\u00d9\u0126\u00d8\u00b4": 2865, "\u0120Ad": 2866, "\u0120cu": 2867, "\u0120may": 2868, "\u012d\u00e0\u00b8": 2869, "\u00e0\u00a6\u00a4\u00e0\u00a7\u0129": 2870, "\u00e5\u012b\u012f": 2871, "\u00e5\u013e\u00ba": 2872, "\u0120\u00cf\u0125\u00cf\u0126\u00ce\u00b7": 2873, "ba": 2874, "\u0120\u00e2\u0122\u0136": 2875, "\u0120\u00ec\u0140\u012a": 2876, "\u00ec\u00b2\u013e": 2877, "44": 2878, "\u00e9\u00a6": 2879, "\u0120\u00d7\u0136\u00d7\u0132": 2880, "ning": 2881, "\u00e8\u00b5\u00b0": 2882, "\u00e5\u012c\u0142": 2883, "\u00e5\u012f\u0137": 2884, "\u0120\u00cf\u0128": 2885, "\u00e3\u0125\u00b3\u00e3\u0125": 2886, "ige": 2887, "\u00e0\u00b1\u0123\u00e0\u00b0\u00a4": 2888, "\u0120\u00ea\u00b5": 2889, "\u00e3\u0124\u00a2": 2890, "\u00e0\u00a4\u00bc": 2891, "\u0120\u00d8\u00a2\u00d9\u0128": 2892, "\u00e5\u012c\u013d": 2893, "\u00e0\u00a4\u00be\u00e0\u00a4\u00b5": 2894, "\u00e6\u0138\u0129": 2895, "\u00e4\u00bf\u00a1": 2896, "ej": 2897, "\u00e6\u0139\u00b6\u00e6\u0139\u00b6\u00e5\u00bd\u00a9": 2898, "\u0120\u00e6\u0138": 2899, "inh": 2900, "\u00ce\u00bb\u00ce\u00b7": 2901, "\u0120\u00e5\u013d": 2902, "\u00e5\u012c\u00a8": 2903, "\u00e5\u00a7": 2904, "\u00e0\u00b9\u012a\u00e0\u00b8\u0129\u00e0\u00b8": 2905, "\u00a1\u00e0\u00b8\u00b5\u00e0\u00b8": 2906, "\u00e4\u00b8\u0129": 2907, "\u0120vi": 2908, "\u00e5\u00a5\u00bd": 2909, "\u0120als": 2910, "\u00ed\u0138": 2911, "\u00d8\u00a7\u00d8\u00ae": 2912, "l\u00c9\u013b": 2913, "esi": 2914, "\u013c\u00e0\u00b8\u0143\u00e0\u00b8": 2915, "land": 2916, "\u0120\u00e0\u00a6\u00b2": 2917, "\u00e7\u0130\u00b0": 2918, "ys": 2919, "\u00c3\u00a6": 2920, "\u00b9\u0126": 2921, "\u0120fin": 2922, "\u00d9\u012a\u00d8\u00b9": 2923, "ido": 2924, "\u00e7\u012b\u012e": 2925, ").": 2926, "13": 2927, "\u0120Br": 2928, "\u00e9\u0122\u0141": 2929, "\u00e9\u0138": 2930, "eri": 2931, "60": 2932, "\u00e6\u012c\u0137": 2933, "\u00ce\u00b1\u00cf\u0124": 2934, "\u0120\u00e0\u00a6\u00a5": 2935, "\u00e3\u0125\u00b3\u00e3\u0124": 2936, "\u00e1\u00bb\u00af": 2937, "\u0120das": 2938, "\u0120\u00ce\u0141": 2939, "\u00e0\u00a4\u00a8\u00e0\u00a4\u00be": 2940, "\u00e5\u00bf\u00ab\u00e4\u00b8\u012b": 2941, "\u0120\u00e7\u0136": 2942, "\u00e0\u00ae\u00bf\u00e0\u00ae\u00b5": 2943, "\u0120Ph": 2944, "\u0120\u00d8\u00ba": 2945, "\u00e0\u00af\u0123\u00e0\u00ae\u00b1": 2946, "\u00e5\u00bf\u00ab3": 2947, "\u0120\u00d8\u00a8\u00d8\u00b1\u00d8\u00a7\u00db\u012e": 2948, "\u0120\u00cf\u0122\u00ce\u00b1": 2949, "\u00e3\u0124\u012a": 2950, "\u00d7\u0137\u00d7\u00a4": 2951, "\u00e0\u00aa": 2952, "\u0120\u00ec\u0125": 2953, "\u00e5\u00bf\u0125": 2954, "i\u00e1\u00bb\u0123": 2955, "ary": 2956, "\u00eb\u00a7\u012e": 2957, "ji": 2958, "\u00e6\u00b4\u00b2": 2959, "ST": 2960, "her": 2961, "\u0120meng": 2962, "\u0120fun": 2963, "ti": 2964, "\u0120reg": 2965, "\u00e0\u00a4\u00be\u00e0\u00a4\u00b9": 2966, "\u0120your": 2967, "\u00e0\u00b0\u00a8\u00e0\u00b1\u0123": 2968, "lan": 2969, "\u0120\u00e0\u00b0\u00b2": 2970, "\u00e1\u00bb\u00b1": 2971, "asa": 2972, "\u00af\u00b8": 2973, "\u0120\u00eb\u012e\u0122": 2974, "\u00e0\u00a6\u0143": 2975, "\u00e5\u012d": 2976, "\u0120\u00ef\u00bc\u0123": 2977, "ions": 2978, "\u00e9\u013e": 2979, "\u00ce\u00bc\u00ce\u0143": 2980, "\u00d0\u00b5\u00d0\u00bb\u00d1\u012e": 2981, "\u00e1\u0125\u00a3\u00e1\u0125\u0142\u00e1\u0125\u013a": 2982, "\u0120\u00d0\u00be\u00d0\u00b1": 2983, "\u0120\u00ea\u00b7\u00b8": 2984, "\u0120\u00e5\u00b9": 2985, "ados": 2986, "\u0120\u00e1\u0125\u013d\u00e1\u0125\u013f\u00e1\u0125": 2987, "ars": 2988, "\u0120\u00d8\u00a7\u00d9\u0126\u00d8\u00a5": 2989, "\u0120\u00d8\u00a7\u00d9\u0126\u00d8\u00af": 2990, "\u00a5\u00e0\u00b8\u00b0\u00e0\u00b8": 2991, "\u00e8\u00a3": 2992, "\u00e0\u00b0\u0137\u00e0\u00b1\u0123": 2993, "24": 2994, "alar": 2995, "\u012035": 2996, "isi": 2997, "\u00e8\u00b5\u013d": 2998, "\u0120\u00cf\u0125\u00ce\u00b5": 2999, "wo": 3000, "\u00e1\u0125\u0132\u00e1\u0125\u013c\u00e1\u0125\u013a": 3001, "\u00e4\u00ba\u00a7": 3002, "\u0120over": 3003, "\u00ed\u0136": 3004, "\u00e0\u00a6\u013c": 3005, "\u00ce\u00bd\u00ce\u00b7": 3006, "\u00d8\u00a7\u00d9\u012d": 3007, "\u00e5\u012c\u00bf": 3008, "\u0120\u00e1\u0125\u013c": 3009, "\u0120Gr": 3010, "\u0120\u00d8\u00a7\u00d9\u0126\u00d9\u0123": 3011, "\u00ea\u00b2\u012e": 3012, "akan": 3013, "\u0120\u00e6\u013a": 3014, "\u00ec\u0124\u00b0": 3015, "----": 3016, "\u00e1\u0125\u0136\u00e1\u0125\u00a5": 3017, "28": 3018, "use": 3019, "\u0120\u00cf\u0127": 3020, "\u0120\u00e5\u012e": 3021, "\u00ce\u00bf\u00ce\u00bb": 3022, "\u01202011": 3023, "\u0120On": 3024, "\u0120sel": 3025, "\u0120bel": 3026, "\u00e0\u00a4\u00bf\u00e0\u00a4\u00b8": 3027, "\u0120gen": 3028, "\u0120jak": 3029, "\u0120\u00d9\u0127\u00d8\u00b4": 3030, "\u00d9\u0126\u00d8\u00a7\u00d9\u0127": 3031, "\u00d9\u012a\u00d8\u00a8": 3032, "gan": 3033, "\u00d7\u0137\u00d7\u00a9": 3034, "d\u00c9\u013b": 3035, "\u00e1\u0125\u013d\u00e1\u0125\u0132": 3036, "\u00e0\u00b1\u0128\u00e0\u00b0\u00b2": 3037, "\u00d0\u00b5\u00d1\u0123": 3038, "\u0120\u00ce\u00bb": 3039, "ika": 3040, "\u0120id": 3041, "\u00b1\u00db": 3042, "\u00e1\u0125\u013a\u00e1\u0125\u0142\u00e1\u0125": 3043, "ua": 3044, "\u0120post": 3045, "\u0120pas": 3046, "\u00ea\u00b3\u00bc": 3047, "\u00e0\u00ae\u00be\u00e0\u00ae\u00b0\u00e0\u00af\u012f": 3048, "\u00c6\u00b0\u00e1\u00bb\u00a3c": 3049, "\u00d7\u013b\u00d7\u0132": 3050, "\u0120\u00e4\u00b8\u0122": 3051, "\u0120\u00d1\u0123\u00d1\u0124": 3052, "\u00e0\u00a4\u00b6": 3053, "\u0120\u00e0\u00ae\u00aa\u00e0\u00af\u012d": 3054, "\u00ec\u0139\u0132\u00ec\u0126\u013e": 3055, "\u0120\u00e3\u0122\u0132": 3056, "\u0120\u00eb\u00b6": 3057, "\u00e0\u00a6\u00a8\u00e0\u00a7\u012f\u00e0\u00a6": 3058, "\u0123\u00e0\u00b8\u00a3\u00e0\u00b8": 3059, "\u00eb\u0135\u00a4": 3060, "\u00ed\u013a": 3061, "ance": 3062, "\u00b7\u00e0\u00b8\u0143\u00e0\u00b8": 3063, "\u013b\u0122": 3064, "\u00e4\u00ba\u0130": 3065, "\u00e0\u00b9\u0126\u00e0\u00b8\u0136\u00e0\u00b9\u012b": 3066, "\u00bb\u00bf": 3067, "\u00e4\u00bb\u00a3": 3068, "\u00d9\u0124\u00d8\u00af": 3069, "\u00eb\u012e\u0122": 3070, "\u0120sal": 3071, "\u0120ko": 3072, "ker": 3073, "\u00e5\u00ba\u00a6": 3074, "dir": 3075, "\u0120\u00d9\u0127\u00d8\u00b1": 3076, "\u00eb\u00aa": 3077, "ero": 3078, "\u00ec\u0142\u0137": 3079, "\u00e1\u0125\u0136\u00e1\u0125\u0133\u00e1\u0125\u00a3\u00e1\u0125\u013c\u00e1\u0125\u013a": 3080, "ory": 3081, "\u00d7\u00a8\u00d7\u0132": 3082, "\u0120\u00ed\u0137": 3083, "\u00d0\u00b8\u00d1\u0129": 3084, "\u00e3\u0125\u00bc\u00e3\u0124": 3085, "\u00e9\u0123\u0135": 3086, "ins": 3087, "\u00e5\u00a3": 3088, "ores": 3089, "\u00e0\u00a6\u00a7": 3090, "\u00e0\u00ae\u00bf\u00e0\u00ae\u00a4\u00e0\u00af\u012f\u00e0\u00ae\u00a4": 3091, "\u00e0\u00a4\u00b9\u00e0\u00a5\u0122": 3092, "\u00e0\u00ae\u00a9\u00e0\u00af\u012f\u00e0\u00ae\u00b1": 3093, "\u0120\u00e0\u00ae\u0127\u00e0\u00ae\u00b5": 3094, "\u0120\u00ce\u00b1\u00ce\u00bd": 3095, "\u0120untuk": 3096, "\u00b1\u00e0\u00b8\u0129\u00e0\u00b8": 3097, "\u00c3\u00a9m": 3098, "\u00d9\u0126\u00d9\u0125": 3099, "\u00d9\u012c\u00d9\u0127": 3100, "\u00d8\u00a7\u00d8\u00b7": 3101, "\u00ec\u013e\u00bc\u00eb\u00a1\u013e": 3102, "\u00c4\u00b1k": 3103, "\u00e4\u00b9\u0141": 3104, "\u00cf\u012b\u00cf\u0124": 3105, "\u00e9\u013f\u00a2": 3106, "iya": 3107, "\u00e0\u00ae\u00be\u00e0\u00ae\u00a9\u00e0\u00af\u012f": 3108, "\u0120\u00e0\u00a6\u00b8\u00e0\u00a6\u00ae": 3109, "\u00e0\u00b1\u012f\u00e0\u00b0\u013c": 3110, "\u0120ini": 3111, "ren": 3112, "\u00cf\u0126\u00ce\u00ae": 3113, "\u0120ge": 3114, "ember": 3115, "\u0120dem": 3116, "\u00e4\u00b8\u00bb": 3117, "\u0120from": 3118, "ela": 3119, "\u0120Sch": 3120, "\u00e3\u0125\u00ac": 3121, "\u00e1\u0125\u0136\u00e1\u0125\u0133\u00e1\u0125\u013a\u00e1\u0125\u0139": 3122, "ron": 3123, "\u00e0\u00af\u0123\u00e0\u00ae\u00b3": 3124, "ional": 3125, "\u00d8\u00a7\u00d8\u00b5": 3126, "90": 3127, "\u0120lang": 3128, "\u00e7\u0141": 3129, "\u00d7\u0137\u00d7\u00a7": 3130, "\u0120\u00d8\u00a7\u00d9\u0126\u00d8\u00a8": 3131, "\u00e5\u012a\u00a9": 3132, "\u00e9\u00a2\u0133": 3133, "go": 3134, "\u0120\u00e0\u00a6\u00b9\u00e0\u00a7\u0141": 3135, "any": 3136, "\u00e0\u00b9\u0124": 3137, "\u0120\u00da\u00a9\u00d9\u0128": 3138, "\u00e0\u00ae\u00be\u00e0\u00ae\u00b2\u00e0\u00af\u012f": 3139, "\u0120\u00d8\u00aa\u00d9\u012a": 3140, "\u0120dengan": 3141, "\u0120une": 3142, "\u0120kon": 3143, "\u00ce\u00ac\u00ce\u00bd": 3144, "red": 3145, "\u00e8\u012b\u00b2": 3146, "\u0120\u00ec\u00b6\u013e\u00ec\u0140\u00a5": 3147, "\u0120\u00e5\u00bd\u00a9": 3148, "\u00e0\u00b0\u00b2\u00e0\u00b1\u0123": 3149, "\u0120i\u00c3\u00a7": 3150, "\u00c3\u0143a": 3151, "oh": 3152, "\u00e5\u012e\u0138": 3153, "\u00e0\u00b0\u00aa\u00e0\u00b1\u012f\u00e0\u00b0\u00aa": 3154, "\u00d0\u00b0\u00d0\u00b4": 3155, "ces": 3156, "\u012031": 3157, "\u00e6\u0140\u013e": 3158, "\u00e1\u0125\u0132\u00e1\u0125\u0138": 3159, "80": 3160, "\u0120\u00d9\u0127\u00d8\u00af": 3161, "\u00ec\u0126\u00b1": 3162, "\u0120\u00e2\u0122\u00a2": 3163, "\u00d0\u00b5\u00d0\u00b2": 3164, "\u00e1\u0125\u00a3\u00e1\u0125\u0142\u00e1\u0125": 3165, "\u0120\u00ec\u013e": 3166, "\u0120\u00d8\u00a7\u00d8\u00b1": 3167, "\u00e1\u0125\u0132\u00e1\u0125\u00a8": 3168, "aman": 3169, "\u0120pos": 3170, "ida": 3171, "\u0120seg": 3172, "\u0120Sh": 3173, "25": 3174, "\u00c3\u00b5": 3175, "\u00d9\u0129\u00e2\u0122\u012e": 3176, "ings": 3177, "\u00b6\u00e0\u00b8": 3178, "\u0120prz": 3179, "\u0120ev": 3180, "\u0120\u00e1\u0125\u00a1\u00e1\u0125\u0132\u00e1\u0125\u013d": 3181, "\u00cf\u0123\u00ce\u00b5": 3182, "\u0120\u00e2\u0124\u00ac": 3183, "\u00e1\u0125\u0136\u00e1\u0125\u013e\u00e1\u0125\u00a2": 3184, "\u0120pe": 3185, "abil": 3186, "\u0123\u00e0\u00b8\u00b1\u00e0\u00b8": 3187, "\u00e1\u0125\u00ae\u00e1\u0125\u0137": 3188, "\u00e5\u00a6": 3189, "\u0120\u00ea\u00b0\u0122": 3190, "\u00d7\u0137\u00d7\u00a2": 3191, "ori": 3192, "\u00e0\u00b0\u00b2\u00e0\u00b1\u012d": 3193, "\u0120\u00e0\u00a6\u0129": 3194, "\u0139\u00e4\u00ba\u00ac": 3195, "\u0120kar": 3196, "\u00e7\u0124\u00b9": 3197, "\u00e0\u00a5\u012f\u00e0\u00a4\u00b5": 3198, "\u00ec\u0137\u0126": 3199, "\u00e1\u0125\u0132\u00e1\u0125\u00a5": 3200, "\u00e1\u00bb\u00a5": 3201, "\u0120car": 3202, "\u00ed\u0128": 3203, "\u0120Bu": 3204, "\u00e0\u00a6\u00be\u00e0\u00a6\u00b9": 3205, "ark": 3206, "\u00e5\u00bb": 3207, "\u00e2\u0122\u013e": 3208, "\u00e5\u012e\u00ba": 3209, "\u00e1\u00bb\u00a9": 3210, "\u00cf\u0126\u00cf\u012e": 3211, "ivers": 3212, "\u00d9\u0128\u00da\u00af": 3213, "ank": 3214, "\u00e0\u00b9\u012a\u00e0\u00b8\u013b": 3215, "\u0120\u00e2\u0128": 3216, "\u00e0\u00a7\u0129\u00e0\u00a6\u013d\u00e0\u00a7\u0129": 3217, "\u0120\u00cf\u0126\u00cf\u012b\u00ce\u00bd": 3218, "\u00c9\u013bh": 3219, "esta": 3220, "\u00e1\u0125\u0138\u00e1\u0125\u0136": 3221, "\u00e4\u00bb\u00b6": 3222, "\u0120\u00e0\u00a6\u00ab": 3223, "ijn": 3224, "\u00a1\u00e0\u00b8\u00b2": 3225, "ima": 3226, "\u00e1\u00bb\u013bt": 3227, "\u00e8\u00b2": 3228, "\u012a\u00e0\u00b8\u00b2\u00e0\u00b8": 3229, "\u0120mit": 3230, "\u0120her": 3231, "\u00be\u00b3": 3232, "\u0120\u00e4\u00b8\u0143": 3233, "\u0120\u00e0\u00ae\u0137\u00e0\u00af\u012c": 3234, "oto": 3235, "\u0120\u00e0\u00a4\u00ab": 3236, "\u00d8\u00b0\u00d8\u00a7": 3237, "\u00e0\u00a7\u00a6": 3238, "\u00ed\u013b\u0136": 3239, "\u00d8\u00a7\u00d9\u0125": 3240, "\u0120bar": 3241, "sch": 3242, "\u0120app": 3243, "\u00e3\u0123\u012c": 3244, "\u0120\u00c4\u012f": 3245, "\u0120out": 3246, "\u00cf\u0125\u00ce\u00b5": 3247, "\u00e8\u00b0": 3248, "\u00b7\u00e0\u00b8\u0143": 3249, "\u00e0\u00b0\u00bf\u00e0\u00b0\u0137\u00e0\u00b0\u00bf": 3250, "\u00e8\u00b4\u00b9": 3251, "AS": 3252, "ede": 3253, "ese": 3254, "\u0120bet": 3255, "\u00c9\u013bb": 3256, "\u00e0\u00af\u0123\u00e0\u00ae\u00a8\u00e0\u00af\u012f\u00e0\u00ae\u00a4": 3257, "\u00e9\u00be": 3258, "\u00ce\u00bb\u00ce\u00b5": 3259, "000": 3260, "ux": 3261, "\u0120sup": 3262, "\u0120c\u00c3\u00a1c": 3263, "\u00e0\u00b0\u00bf\u00e0\u00b0\u00af": 3264, "\u00ce\u00af\u00ce\u00bd\u00ce\u00b1\u00ce\u00b9": 3265, "let": 3266, "\u00e5\u00bd\u00b1": 3267, "en\u00c3\u0143": 3268, "ose": 3269, "\u00e0\u00b9\u0128": 3270, "elle": 3271, "\u00d9\u0128\u00d8\u00a7": 3272, "\u0120\u00d8\u00aa\u00d8\u0143": 3273, "\u00ce\u00bb\u00ce\u00b1": 3274, "\u00d0\u00be\u00d0\u00bb\u00d1\u012e": 3275, "\u00e7\u013b\u00bb\u00e5\u00bd\u0137": 3276, "ula": 3277, "!!": 3278, "\u00e1\u0125\u013a\u00e1\u0125\u0138": 3279, "\u0120como": 3280, "\u00e9\u0122\u013c": 3281, "\u00eb\u00b2": 3282, "\u00e1\u0142": 3283, "\u00ac\u00ac": 3284, "ger": 3285, "lam": 3286, "\u00c3\u00a9r": 3287, "\u0120kh\u00c3\u00b4ng": 3288, "\u00ea\u00b1\u00b8": 3289, "\u00d7\u0137\u00d7\u0139": 3290, "\u0120\u00e0\u00a7\u00a8": 3291, "\u0120\u00e0\u00a4\u00b9\u00e0\u00a5\u012a\u00e0\u00a4\u0124": 3292, "\u0120ou": 3293, "\u00e7\u00ab\u00af": 3294, "\u00e1\u0125\u0136\u00e1\u0125\u013f": 3295, "\u00e0\u00b9\u012b\u00e0\u00b8\u013b\u00e0\u00b8": 3296, "EL": 3297, "isa": 3298, "\u0120non": 3299, "amente": 3300, "\u0120@": 3301, "\u00e0\u00b0\u0124\u00e0\u00b0\u00a1": 3302, "40": 3303, "\u00e5\u00af\u00b9": 3304, "\u00e5\u0128\u012e": 3305, "\u00c3\u0142y": 3306, "\u0120\u00d0\u013f": 3307, "\u00c4\u00b1n\u00c4\u00b1": 3308, "\u0120\u00e0\u00a4\u0138": 3309, "27": 3310, "\u0120\u00e1\u0125\u00a1\u00e1\u0125\u0132\u00e1\u0125\u00a5": 3311, "ym": 3312, "\u0120ca": 3313, "\u0120Ver": 3314, "\u0120\u00d9\u0127\u00d8\u00b3": 3315, "\u0120von": 3316, "\u00e0\u00af\u012a\u00e0\u00ae\u0137": 3317, "uss": 3318, "\u00e1\u0125\u013a\u00e1\u0125\u00a8": 3319, "\u0120\u00e3\u0122\u012f": 3320, "\u00d8\u00a7\u00d8\u00b3\u00d8\u00aa": 3321, "\u00e0\u00b8\u00a3\u00e0\u00b8\u00b4\u00e0\u00b8": 3322, "\u00d0\u00b8\u00d1\u0122": 3323, "ock": 3324, "\u0120inform": 3325, "\u0120\u00d8\u00af\u00d8\u00a7\u00d9\u0128": 3326, "\u00e3\u0123\u00aa\u00e3\u0123\u0126": 3327, "\u00e0\u00a4\u00bf\u00e0\u00a4\u00af\u00e0\u00a4\u00be": 3328, "\u00e0\u00b0\u00bf\u00e0\u00b0\u00aa": 3329, "\u0120mi": 3330, "cess": 3331, "\u00ec\u0137\u012a\u00eb\u00a7\u012a": 3332, "\u00ce\u013b\u00ce": 3333, "\u0120if": 3334, "ET": 3335, "\u00bd\u013e": 3336, "\u00d7\u0137\u00d7\u00a1": 3337, "ml": 3338, "\u00e1\u0125\u013f\u00e1\u0125\u00a4": 3339, "\u0120\u00d0\u00bf\u00d0\u00be": 3340, "\u00e1\u0125\u0137\u00e1\u0125\u0136\u00e1\u0125\u013e": 3341, "\u00e5\u0132\u0130": 3342, "\u00d0\u00b5\u00d0\u00b3": 3343, "oll": 3344, "\u0120\u00e0\u00a4\u0131\u00e0\u00a4\u0137": 3345, "\u0120pres": 3346, "\u00a5\u00e0\u00b8\u00b2\u00e0\u00b8": 3347, "\u0120\u00d0\u0142": 3348, "\u00e0\u00b1\u012f\u00e0\u00b0\u00b8": 3349, "\u00c6\u0131": 3350, "\u00e6\u0125\u0127": 3351, "\u00eb\u0124\u013a": 3352, "\u00e4\u00ba\u012e": 3353, "\u00c3\u00bck": 3354, "\u0120\u0108": 3355, "\u0120\u00d0\u013e": 3356, "\u0120\u00e0\u00a4\u00a8\u00e0\u00a5\u0129": 3357, "\u00c3\u00a1v": 3358, "\u00e7\u013e\u0141\u00e4\u00ba\u00ba": 3359, "\u00c5\u0126": 3360, "\u0120Con": 3361, "\u01202010": 3362, "\u00e1\u00bb\u0141": 3363, "\u0120\u00db\u00b1\u00db": 3364, "\u0120\u00d8\u00a5\u00d9\u0126\u00d9\u012b": 3365, "\u00d9\u012a\u00d8\u00b4": 3366, "IC": 3367, "\u00eb\u012f": 3368, "\u0120\u00da\u00a9\u00d8\u00b1\u00d8\u00af": 3369, "\u00ec\u0142\u013e": 3370, "\u00e0\u00a4\u00bf\u00e0\u00a4\u0131": 3371, "\u00eb\u00b6\u0122": 3372, "yst": 3373, "\u0120<": 3374, "\u0120online": 3375, "??": 3376, "\u00e0\u00b1\u012f\u00e0\u00b0\u00ae": 3377, "\u00e3\u0123\u00a3\u00e3\u0123\u0141": 3378, "\u00d8\u00a2": 3379, "\u00ce\u00ba\u00ce\u00b5": 3380, "zie": 3381, "ubl": 3382, "\u00d9\u0129\u00d8\u00b1": 3383, "\u013d\u00e0\u00b9\u0129\u00e0\u00b8\u013b\u00e0\u00b8": 3384, "\u00ec\u0125\u0123": 3385, "\u00e0\u00af\u0123\u00e0\u00ae\u0137\u00e0\u00af\u012f\u00e0\u00ae\u0137\u00e0\u00af\u0123": 3386, "\u00ce\u00bf\u00ce\u00bd": 3387, "\u0120\u00e0\u00a6\u0138": 3388, "\u00e0\u00a7\u0125": 3389, "\u00b1\u00e0\u00b9\u012b\u00e0\u00b8": 3390, "\u0120\u00c4\u0133\u00c6\u00b0\u00e1\u00bb\u00a3c": 3391, "\u00e0\u00b0\u00b9": 3392, "\u00e0\u00b1\u0124": 3393, "\u0120Er": 3394, "jon": 3395, "\u00e8\u012d": 3396, "\u00e7\u00a9": 3397, "\u00e0\u00b0\u013e": 3398, "\u0120\u00e0\u00a4\u0129\u00e0\u00a4\u00b8": 3399, "\u00e5\u00b0\u00b1": 3400, "\u0120Am": 3401, "\u00e0\u00a4\u00bf\u00e0\u00a4\u00a8": 3402, "\u00e1\u00ba\u00b7": 3403, "\u0120\u00e0\u00b9\u0124\u00e0\u00b8": 3404, "\u00e0\u00a4\u00be\u00e0\u00a4\u00a6": 3405, "\u0120zu": 3406, "\u0120\u00d9\u0123\u00d8\u00b1": 3407, "\u00e0\u00a7\u0124": 3408, "\u0120\u00d8\u00a7\u00d8\u00b3": 3409, "23": 3410, "\u00d9\u012c\u00d8\u00b3": 3411, "\u00e1\u0125\u0138": 3412, "\u0120\u00eb\u0131": 3413, "\u00e6\u012a\u0133": 3414, "\u0120ki": 3415, "imi": 3416, "\u00e8\u00aa": 3417, "\u0120inf": 3418, "\u0120\u00d8\u00a7\u00d9\u0126\u00d8\u00ae": 3419, "\u0120\u00e1\u0125\u00a8\u00e1\u0125\u0136\u00e1\u0125\u013d": 3420, "\u0120\u00e1\u0125\u0136\u00e1\u0125\u0142\u00e1\u0125\u0139": 3421, "\u00e5\u00a4\u0138": 3422, "\u012045": 3423, "\u00e0\u00a4\u00be\u00e0\u00a4\u013c": 3424, "\u00e0\u00a6\u0141\u00e0\u00a6\u00bf": 3425, "\u012033": 3426, "\u00d0\u00b5\u00d0\u00bd\u00d0\u00b8\u00d1\u0131": 3427, "\u0124\u00e0\u00b8\u0143\u00e0\u00b8\u0129\u00e0\u00b8": 3428, "\u0120\u00d7\u00a6": 3429, "\u00e6\u0138\u013b": 3430, "bet": 3431, "\u00e8\u0132": 3432, "\u0120No": 3433, "\u0120\u00d9\u0127\u00d8\u00a7": 3434, "\u00e6\u0141": 3435, "\u00ed\u0125": 3436, "\u0120\u00d0\u0140": 3437, "\u00e8\u00bf\u013d": 3438, "\u0120\u00d7\u0136\u00d7\u00a9": 3439, "\u0120ba\u00c5\u0141": 3440, "\u0120\u00ec\u0137\u0126": 3441, "\u0120d\u00c3\u00a9": 3442, "\u00e6\u00b3\u00a8\u00e5\u0128\u012e": 3443, "\u0120dr": 3444, "\u0120ni": 3445, "\u00e1\u0125\u0132\u00e1\u0125\u0142\u00e1\u0125\u013a": 3446, "\u00db\u012e\u00d8\u00aa": 3447, "\u00ec\u0142\u0126": 3448, "led": 3449, "\u0120\u00ce\u00b5\u00ce\u00af\u00ce\u00bd\u00ce\u00b1\u00ce\u00b9": 3450, "\u0120\u00e0\u00a6\u0128\u00e0\u00a6\u00ae": 3451, "\u0120\u00cf\u0122\u00ce\u00b5": 3452, "po": 3453, "ema": 3454, "\u0120\u00ea\u00b8\u00b0": 3455, "\u00e0\u00a7\u0129\u00e0\u00a6\u0129": 3456, "\u00f0\u0141": 3457, "\u00d0\u00b8\u00d1\u0124\u00d1\u012e": 3458, "\u0120af": 3459, "ros": 3460, "\u00eb\u0141": 3461, "\u00e0\u00a4\u00be\u00e0\u00a4\u013e": 3462, "\u00d0\u00b8\u00d0\u00b7": 3463, "\u0120\u00db\u012e\u00da\u00a9": 3464, "\u00e5\u012a\u0128\u00e5\u00bd\u00a9": 3465, "adi": 3466, "\u00e6\u013e\u0141": 3467, "apat": 3468, "\u00e4\u00bb\u00ac": 3469, "\u0120It": 3470, "ays": 3471, "\u00e0\u00a4\u00a4\u00e0\u00a5\u0129": 3472, "\u0120Or": 3473, "\u0120\u00e0\u00ae\u0130\u00e0\u00ae\u00a9\u00e0\u00af\u012f\u00e0\u00ae\u00b1": 3474, "\u00e1\u0125\u00a4": 3475, "\u00e8\u00a7\u0128\u00e9\u00a2\u0133": 3476, "\u00d9\u012a\u00d9\u0124": 3477, "\u00e9\u00be\u013b": 3478, "yt": 3479, "\u00e9\u013c": 3480, "enn": 3481, "\u00e0\u00b1\u0123\u00e0\u00b0\u00b2\u00e0\u00b1\u0123": 3482, "\u00e5\u0131\u00b8": 3483, "rol": 3484, "\u00e0\u00ae\u00be\u00e0\u00ae\u00b5": 3485, "\u00eb\u0132": 3486, "29": 3487, "\u0120\u00e6\u012b": 3488, "\u0120Ma": 3489, "ete": 3490, "\u00d0\u00be\u00d0\u00b7": 3491, "\u0120\u00d9\u0127\u00db\u012e\u00e2\u0122\u012e": 3492, "\u00e8\u00b5\u00b0\u00e5\u012c\u00bf": 3493, "sc": 3494, "\u00d7\u013b\u00d7\u013b\u00d7\u013f": 3495, "\u0120Ap": 3496, "\u00e0\u00a6\u00be\u00e0\u00a6\u00aa": 3497, "ork": 3498, "aha": 3499, "\u0120mal": 3500, "\u0135\u00e0\u00b8": 3501, "\u0120Bl": 3502, "\u00e0\u00b0\u00be\u00e0\u00b0\u0124\u00e0\u00b0": 3503, "ular": 3504, "\u0120person": 3505, "\u00e0\u00b8\u0143\u00e0\u00b8\u00b2\u00e0\u00b8": 3506, "\u0120have": 3507, "\u00d0\u00ba\u00d0\u00b0": 3508, "\u0120\u00e5\u013e\u00a8": 3509, "\u0120\u00ed\u0137\u013a": 3510, "ativ": 3511, "\u00e7\u00bb\u0131": 3512, "\u00db\u012e\u00d8\u00b4": 3513, "\u0120dur": 3514, "\u0120\u00e0\u00ae\u0127\u00e0\u00ae\u00a4": 3515, "zo": 3516, "\u00e5\u012a\u0134": 3517, "\u00d0\u00b0\u00d0\u00bb\u00d1\u012e": 3518, "\u0120Pl": 3519, "\u00ce\u00a1": 3520, "\u00c5\u013dci": 3521, "rit": 3522, "UR": 3523, "azione": 3524, "\u00d7\u013b\u00d7\u00a2": 3525, "\u00e0\u00b4\u00bf": 3526, "\u00e4\u00bf\u013f": 3527, "\u0120\u00d8\u00a7\u00d9\u0126\u00d9\u0125": 3528, "\u013c\u00e0\u00b8\u00b2\u00e0\u00b8": 3529, "\u00c6\u00b0\u00c6\u00a1": 3530, "\u00ec\u0125\u00b5": 3531, "\u00e0\u00b8\u0143\u00e0\u00b8\u00a2": 3532, "\u00e1\u00ba\u00a7n": 3533, "ui": 3534, "\u0120\u00e0\u00ae\u013c\u00e0\u00af\u0128\u00e0\u00ae\u00af": 3535, "\u00d9\u0127\u00d8\u00af": 3536, "\u00be\u00b3\u00e9\u0139\u00a8": 3537, "\u00a1\u00b0": 3538, "\u0120\u00d8\u00a8\u00d8\u00a7\u00d8\u00b2": 3539, "get": 3540, "ike": 3541, "\u0120mais": 3542, "\u00e5\u00be\u0139": 3543, "\u0120\u00e0\u00a6\u013d": 3544, "\u00e0\u00a4\u00b2\u00e0\u00a5\u0129": 3545, "\u013d\u00e0\u00b8\u00a3\u00e0\u00b8\u00b0\u00e0\u00b8": 3546, "\u0120will": 3547, "\u00e0\u00b9\u012b\u00e0\u00b8\u013b": 3548, "\u0120rel": 3549, "\u0120\u00d0\u00b2\u00d1\u012d": 3550, "\u00c3\u00bcm": 3551, "\u00e7\u00b3": 3552, "\u00cf\u012a": 3553, "\u00c3\u00a1ch": 3554, "\u0120str": 3555, "atur": 3556, "\u0120\u00c3\u00ba": 3557, "\u00a3\u00e1\u0125\u013c": 3558, "\u0120serv": 3559, "\u0120za": 3560, "ph": 3561, "\u00e0\u00b0\u00be\u00e0\u00b0\u00a4": 3562, "\u00c6\u00b0\u00e1\u00bb\u013d": 3563, "\u0120js": 3564, "ane": 3565, "\u0120ya": 3566, "\u00e6\u0134": 3567, "\u00ed\u0131": 3568, "ute": 3569, "\u00e6\u00ba": 3570, "\u00e1\u0125\u013a\u00e1\u0125\u013a\u00e1\u0125\u00a1": 3571, "\u0120\u00ec\u0142\u0126": 3572, "\u00ec\u0142\u0123": 3573, "\u00d0\u00ba\u00d0\u00b8": 3574, "\u00e0\u00a4\u0137\u00e0\u00a5\u012f\u00e0\u00a4": 3575, "\u00e0\u00b0\u00bf\u00e0\u00b0\u00b2": 3576, "\u0120,\"": 3577, "\u0120sit": 3578, "\u0120pi": 3579, "\u00ce\u00af\u00ce\u00b1\u00cf\u0124": 3580, "\u00e6\u00b0\u0133": 3581, "\u00e0\u00a4\u00b0\u00e0\u00a5\u0122": 3582, "\u00e5\u012f\u013c": 3583, "\u0120\u00e5\u0129\u00af": 3584, "\u00d0\u00b0\u00d0\u00b1": 3585, "\u0120trong": 3586, "\u00e1\u00bb\u0129": 3587, "leri": 3588, "\u00e5\u0131\u012e": 3589, "\u00e5\u00ae\u0140": 3590, "ole": 3591, "\u00e0\u00af\u012f\u00e0\u00ae\u00ae": 3592, "inde": 3593, "\u0120ju": 3594, "\u0120ba": 3595, "\u0120sam": 3596, "\u00e5\u0132\u012e": 3597, "\u0120\u00d8\u00a7\u00d9\u012a": 3598, "\u0120\u00e5\u00bd\u00a9\u00e7\u00a5\u0140": 3599, "\u0120New": 3600, "\u0120della": 3601, "\u0120bes": 3602, "\u00e0\u00b8\u00a3\u00e0\u00b8\u00b5\u00e0\u00b8": 3603, "\u0120\u00d8\u00a7\u00d9\u0126\u00d8\u00b5": 3604, "aliz": 3605, "\u00d8\u00a7\u00d8\u00b1\u00d8\u00af": 3606, "\u0120ass": 3607, "\u0120\u00eb\u00ac": 3608, "\u00e3\u0123\u013b\u00e3\u0124\u012d": 3609, "\u00eb\u0127\u00b8": 3610, "\u00e0\u00b0\u00bf\u00e0\u00b0\u00b0": 3611, "\u0120\u00ce\u0135": 3612, "\u00ce\u00bf\u00cf\u0127\u00cf\u0124": 3613, "old": 3614, "\u00e5\u0128\u0127": 3615, "\u00e5\u00ae\u00a2\u00e6\u012a\u00b7": 3616, "i\u00e1\u00bb\u0129n": 3617, "\u0120\u00d9\u0128\u00d9\u0127": 3618, "\u0120\u00d0\u00b5": 3619, "\u00e5\u0141\u0130": 3620, "\u00e0\u00a7\u012f\u00e0\u00a6\u00aa": 3621, "\u00c3\u0141": 3622, "\u0120i\u00c5\u0141": 3623, "\u0120\u00d9\u0127\u00d8\u00ac": 3624, "\u012060": 3625, "\u00e5\u0132\u012f": 3626, "\u00e9\u0129\u012f": 3627, "\u00cf\u0125\u00ce\u00b7\u00cf\u0124": 3628, "\u00e0\u00b9\u012b\u00e0\u00b8\u00a7\u00e0\u00b8": 3629, "\u00e0\u00ae\u00be\u00e0\u00ae\u00af": 3630, "\u0120fe": 3631, "\u00e6\u012c\u0122": 3632, "\u00e0\u00a4\u0143": 3633, "\u00e6\u0139\u0139": 3634, "\u00e0\u00b0\u00ac": 3635, "\u00e7\u012b\u00a9": 3636, "\u00e0\u00a7\u012f\u00e0\u00a6\u00a5": 3637, "\u00ec\u0128\u012e": 3638, "\u00d8\u00b1\u00d8\u00a9": 3639, "\u00e6\u00b0\u00b4": 3640, "**": 3641, "\u00e0\u00b0\u0141\u00e0\u00b1\u012f\u00e0\u00b0\u0141": 3642, "imul": 3643, "\u0120\u00ec\u013c": 3644, "\u0120\u00d7\u013a": 3645, "\u0142\u00e0\u00b8\u00b2\u00e0\u00b8": 3646, "\u00d8\u00b1\u00d9\u0125": 3647, "\u0120produ": 3648, "\u00d0\u00bd\u00d1\u012d\u00d0\u00b5": 3649, "\u00e6\u00b6": 3650, "\u0120\u00ce\u00b1\u00cf\u0127": 3651, "\u00d8\u00a8\u00d8\u00a7\u00d8\u00b1": 3652, "d\u00c4\u00b1r": 3653, "\u00c6\u00b0\u00e1\u00bb\u013fi": 3654, "ind\u00c9\u013b": 3655, "\u00ed\u0127": 3656, "\u00ea\u00b5\u0143": 3657, "\u00e3\u0123\u00a9": 3658, "\u0120hab": 3659, "\u0120Pre": 3660, "\u00c4\u00b1\u00c4\u0141": 3661, "\u00e6\u012b\u012d\u00e6\u013e\u00ba\u00e7\u012b\u012a": 3662, "its": 3663, "\u00e7\u0143\u012b": 3664, "\u0120Az": 3665, "yon": 3666, "\u0120\u00ec\u0138": 3667, "ioni": 3668, "ific": 3669, "\u00e8\u00bf\u0129": 3670, "\u00e0\u00b0\u0124\u00e0\u00b0\u00b2\u00e0\u00b1\u012d": 3671, "\u00d8\u00a7\u00d8\u00af\u00d9\u0129": 3672, "\u00e0\u00b0\u00be\u00e0\u00b0\u00ae": 3673, "OS": 3674, "va": 3675, "\u00c4\u00b1na": 3676, "\u0120mem": 3677, "\u013c\u012e": 3678, "\u00d9\u0123\u00d8\u00aa": 3679, "\u00e4\u00bd\u0135\u00e8\u0124\u00b2": 3680, "\u0120my": 3681, "anc": 3682, "\u00e3\u0123\u012d\u00e3\u0124\u012b": 3683, "\u00ab\u00e1\u0125\u013c": 3684, "\u0120Te": 3685, "\u0120\u00ec\u00b9\u00b4": 3686, "eni": 3687, "\u00e6\u00a5": 3688, "\u0120\u00d8\u00aa\u00d8\u00b9": 3689, "\u00ea\u00b5\u00ac": 3690, "\u00e3\u0123\u012a": 3691, "\u0120tod": 3692, "\u00d7\u0137\u00d7\u0140": 3693, "dy": 3694, "pa": 3695, "\u0120web": 3696, "\u0120\u00ef\u00bb\u00bf": 3697, "\u00c5\u00bce": 3698, "AM": 3699, "\u0120mil": 3700, "\u00e8\u012c": 3701, "\u0120tu": 3702, "\u00e0\u00a6\u00bf\u00e0\u00a7\u0141\u00e0\u00a7\u0129": 3703, "\u012034": 3704, "\u00e4\u00b9\u0127": 3705, "\u0120\u00ef\u00bc\u0141": 3706, "\u0120\u00e0\u00a6\u0141": 3707, "\u0120\u00e6\u013f": 3708, "\u00e6\u012f": 3709, "\u0120\u00d7\u0136\u00d7\u00aa": 3710, "\u0120\u00c5\u00be": 3711, "70": 3712, "lad": 3713, "\u00e0\u00b0\u00be\u00e0\u00b0\u0141": 3714, "\u00d8\u00a7\u00d8\u00b6": 3715, "ani": 3716, "\u0120\u00e0\u00a6\u00ac\u00e0\u00a6\u00b2": 3717, "\u00ec\u013c\u0136": 3718, "\u00e8\u00bf\u013b": 3719, "\u0120US": 3720, "\u0120\u00e0\u00b0\u012a": 3721, "\u0120\u00e6\u012a\u0133": 3722, "\u00d9\u0126\u00d8\u00a7": 3723, "\u0120Be": 3724, "\u00e1\u00ba\u00a1n": 3725, "\u0120m\u00e1\u00bb\u013bt": 3726, "\u00e3\u0124\u0123": 3727, "\u00cf\u0123\u00ce\u00b7": 3728, "\u00d8\u00a7\u00d9\u0128\u00db\u012e": 3729, "\u00e9\u0124": 3730, "enti": 3731, "\u00d8\u00a4": 3732, "\u0120\u00e3\u0122\u012d": 3733, "iyy": 3734, "\u00cf\u0123\u00cf\u012b": 3735, "\u00a7\u00e0\u00b8\u00b4\u00e0\u00b8": 3736, "\u0120prof": 3737, "\u00e7\u012b\u0129": 3738, "ations": 3739, "\u0120\u00e0\u00a6\u0127\u00e0\u00a6\u00a8": 3740, "\u0120prop": 3741, "\u0120\u00ce\u00ac": 3742, "\u00b4\u0122": 3743, "eren": 3744, "\u0120\u00ec\u012d\u013e": 3745, "\u0120\u00e0\u00a7\u00a7\u00e0\u00a7": 3746, "\u0120\u00da\u00a9\u00d8\u00a7\u00d8\u00b1": 3747, "\u0120ci": 3748, "\u00da\u00af\u00d8\u00a7\u00d9\u0129": 3749, "\u0120nu": 3750, "\u00a8\u00e0\u00b8": 3751, "hi": 3752, "ingen": 3753, "IT": 3754, "\u0120Post": 3755, "\u0120\u00d7\u0140\u00d7\u00a9": 3756, "\u0120\u00d9\u0127\u00d8\u00aa": 3757, "vo": 3758, "\u00d0\u00bd\u00d1\u012d\u00d1\u0127": 3759, "\u00d8\u00b3\u00d8\u00a8": 3760, "\u00e7\u00b2": 3761, "ree": 3762, "\u00e1\u0125\u0132\u00e1\u0125\u0142\u00e1\u0125\u0139\u00e1\u0125\u0137\u00e1\u0125\u0136\u00e1\u0125\u013c": 3763, "\u0120\u00e0\u00a4\u00a5": 3764, "\u00e5\u00bc\u0131": 3765, "anda": 3766, "ket": 3767, "\u0120\u00c3\u0129": 3768, "\u00e0\u00b8\u00b2\u00e0\u00b8\u013b\u00e0\u00b8": 3769, "\u0120dans": 3770, "\u0120pu": 3771, "\u00ce\u00a4": 3772, "\u0120cz": 3773, "\u0120val": 3774, "\u0120\u00ec\u00a7\u0122": 3775, "\u0120\u00d8\u00a7\u00d9\u0126\u00d8\u00b1": 3776, "\u00e6\u0123": 3777, "\u0120\u00e3\u0122\u012e": 3778, "\u0120has": 3779, "\u00e0\u00a4\u00a4\u00e0\u00a5\u0122": 3780, "\u00e9\u0125\u00bd": 3781, "\u00e0\u00a6\u00bf\u00e0\u00a6\u00ac": 3782, "\u012d\u00e7\u012b\u012e": 3783, "\u0120\u00e1\u0125\u0138": 3784, "\u00e8\u00a1\u00a8": 3785, "\u00e7\u012a": 3786, "\u0120cas": 3787, "\u00d9\u0127\u00d8\u00a9": 3788, "\u0120f\u00c3\u00bcr": 3789, "\u00e6\u0143\u00a3": 3790, "\u00e7\u013f": 3791, "lich": 3792, "\u0120v\u00e1\u00bb\u013di": 3793, "\u00d0\u00b0\u00d0\u00b9": 3794, "raf": 3795, "atu": 3796, "ode": 3797, "\u0120\u00e0\u00a4\u00b5\u00e0\u00a4\u00bf\u00e0\u00a4": 3798, "\u00e0\u00b0\u00a3": 3799, "amil": 3800, "erd": 3801, "\u00e8\u00bf\u0132": 3802, "\u00d0\u00b8\u00d1\u0127": 3803, "\u0120\u00d7\u0140\u00d7\u0136": 3804, "\u0120\u00d7\u0136\u00d7\u0139": 3805, "\u0120ai": 3806, "\u00d1\u0122\u00d0\u00b0": 3807, "ette": 3808, "\u0120vide": 3809, "\u0120cor": 3810, "\u00c5\u00a1\u00c3\u0143": 3811, "\u00d9\u0126\u00d8\u00a9": 3812, "\u00e3\u0124\u0126": 3813, "\u00a5\u00bf": 3814, "\u00e9\u0136": 3815, "\u0120\u00e1\u0125\u0136\u00e1\u0125\u00a1": 3816, "\u0120uma": 3817, "\u0120For": 3818, "\u00e5\u00b1\u0137": 3819, "\u00da\u013a": 3820, "\u00d0\u00be\u00d0\u00bf": 3821, "\u0120\u00cf\u0126\u00ce\u00b9": 3822, "\u00d0\u00b5\u00d0\u00b7": 3823, "\u00eb\u00b3\u00b4": 3824, "\u0120inst": 3825, "\u00e6\u0122\u00a7": 3826, "\u00e6\u0131\u0132": 3827, "\u00d7\u0139\u00d7\u00a8": 3828, "\u00c3\u00b5es": 3829, "\u00e3\u0122\u0123": 3830, "\u0120form": 3831, "\u00c3\u00a1l": 3832, "\u00e0\u00a6\u00af\u00e0\u00a6\u00bc": 3833, "\u00ce\u013f": 3834, "amento": 3835, "\u00e6\u0137\u00b0": 3836, "\u00e0\u00ae\u00be\u00e0\u00ae\u00b3": 3837, "\u0120vol": 3838, "\u0120kl": 3839, "\u0120We": 3840, "26": 3841, "\u0120ins": 3842, "ona": 3843, "\u0120\u00d0\u0132": 3844, "\u0120\u00d7\u0133\u00d7\u0132": 3845, "\u00e0\u00b9\u0125\u00e0\u00b8\u012c": 3846, "\u0120\u00d8\u00ae\u00d9\u012a\u00d8\u00af": 3847, "\u0120\u00ed\u013a": 3848, "ista": 3849, "\u00e0\u00b0\u00be\u00e0\u00b0\u0137": 3850, "\u00d7\u0137\u00d7\u00a6": 3851, "ild": 3852, "\u00e0\u00a5\u0129\u00e0\u00a4\u00b6": 3853, "uch": 3854, "\u0120Hotel": 3855, "\u0120\u00ce\u00b8\u00ce\u00b1": 3856, "\u00e7\u0132\u0125": 3857, "row": 3858, "\u0120\u00e0\u00ae\u00b0": 3859, "\u00e8\u00b5\u0126": 3860, "\u00e0\u00a6\u00a5": 3861, "alt": 3862, "\u00e0\u00ae\u013b\u00e0\u00af\u012f\u00e0\u00ae\u0137\u00e0\u00ae\u00b3": 3863, "\u00c3\u00bdch": 3864, "yl": 3865, "\u0120dal": 3866, "\u0120dos": 3867, "\u00ce\u00b9\u00ce\u00ac": 3868, "\u0120Par": 3869, "\u0120\u00e0\u00b8\u00aa": 3870, "\u00e5\u00ae\u00a2\u00e6\u012a\u00b7\u00e7\u00ab\u00af": 3871, "\u00e3\u0125\u0137": 3872, "\u012036": 3873, "uld": 3874, "\u0120\u00e0\u00ae\u00aa\u00e0\u00af\u0128": 3875, "\u0120new": 3876, "\u00e0\u00a7\u0129\u00e0\u00a6\u013d": 3877, "\u00c4\u00b1n\u00c4\u00b1n": 3878, "\u0120yap": 3879, "\u0120\u00e0\u00a4\u00b8\u00e0\u00a4\u0124": 3880, "\u00ec\u013c\u00a9": 3881, "\u00d0\u00bd\u00d1\u012d\u00d0\u00b9": 3882, "\u00e7\u0142\u0123": 3883, "\u00e0\u00b0\u0137\u00e0\u00b1\u012f\u00e0\u00b0\u0137": 3884, "\u0100\u0100\u0100\u0100": 3885, "\u0120auf": 3886, "\u00e5\u00a2": 3887, "\u00e1\u0125\u013a\u00e1\u0125\u00a1\u00e1\u0125\u00a2": 3888, "\u0126\u00e0\u00b8\u00b8\u00e0\u00b8": 3889, "\u0120\u00d8\u00a7\u00d9\u0123": 3890, "oi": 3891, "\u0120\".": 3892, "\u0120\u00e6\u00be\u00b3\u00e9\u0139\u00a8": 3893, "indi": 3894, "ola": 3895, "i\u00e1\u00bb\u0125": 3896, "\u0120\u00d7\u0137\u00d7\u0136": 3897, "bi": 3898, "\u00e1\u0125\u0132\u00e1\u0125\u00a4": 3899, "\u0120ag\u00e7\u0130\u00af\u00e4\u00ba\u013c": 3900, "\u0120gel": 3901, "\u00e8\u00b5\u00b0\u00e5\u012c\u00bf\u00e5\u013d\u00be": 3902, "\u0120\u00cf\u0125\u00cf\u0126\u00ce\u00b7\u00ce\u00bd": 3903, "\u0120\u00e0\u00b0\u0143": 3904, "\u00e5\u0127\u00b3": 3905, "\u0120ak": 3906, "\u00e9\u0137\u00bf": 3907, "\u0120ur": 3908, "\u00e9\u0127": 3909, "\u00e0\u00ae\u00bf\u00e0\u00ae\u0141\u00e0\u00af\u012f\u00e0\u00ae\u0141": 3910, "\u00d0\u00b8\u00d1\u0123": 3911, "\u0120get": 3912, "\u00a4\u0133": 3913, "\u0120\u00cf\u0126\u00ce\u00bf\u00ce\u00bd": 3914, "\u0120Ang": 3915, "\u00e5\u012c\u00a1": 3916, "\u00d7\u0137\u00d7\u0134": 3917, "\u0120dari": 3918, "\u0120\u00d0\u0136": 3919, "\u0120ant": 3920, "\u00c3\u00bcl": 3921, "\u0120mat": 3922, "\u0120d\u00c9\u013b": 3923, "\u00e3\u0123\u0135\u00e3\u0123\u00a8": 3924, "45": 3925, "duk": 3926, "\u00e0\u00b9\u0125\u00e0\u00b8\u00ab\u00e0\u00b9\u012b\u00e0\u00b8": 3927, "\u0120pot": 3928, "\u012038": 3929, "\u0120aan": 3930, "ras": 3931, "\u00d7\u013b\u00d7\u013a": 3932, "\u0120inv": 3933, "eme": 3934, "\u00c4\u00b1s": 3935, "\u00e1\u0125\u013f\u00e1\u0125\u00aa": 3936, "\u0120\u00e2\u013a": 3937, "\u0120Pol": 3938, "ated": 3939, "\u00ec\u0139\u0127": 3940, "yr": 3941, "can": 3942, "ira": 3943, "\u0120ka": 3944, "\u00d9\u0124\u00d8\u00a9": 3945, "\u00e1\u0125\u0132\u00e1\u0125\u0133": 3946, "........": 3947, "\u00e0\u00a4\u012a": 3948, "\u00d9\u012a\u00d8\u00b3": 3949, "\u00e6\u00a3\u012d\u00e7\u012b\u012e": 3950, "\u0120\u00e7\u013c\u0126": 3951, "\u0120\u00d9\u0128\u00db\u012e": 3952, "\u00bd\u013e\u00ea\u00b1\u00b8": 3953, "\u0120Il": 3954, "\u0120jed": 3955, "\u012055": 3956, "\u00eb\u00a9\u00b4": 3957, "\u0120g\u00c3\u00b6r": 3958, "\u00e5\u00bb\u00ba": 3959, "78": 3960, "\u0120\u00e0\u00b0\u00b6": 3961, "anh": 3962, "\u00c5\u013b\u00c3\u0143": 3963, "\u00e5\u0127\u0125": 3964, "\u00c6\u00b0\u00e1\u00bb\u013fng": 3965, "\u0120sem": 3966, "\u00e1\u00ba\u00a3i": 3967, "\u00e1\u0125\u0139\u00e1\u0125\u0132\u00e1\u0125\u013e": 3968, "\u0120\u00eb\u0135": 3969, "\u00d8\u00b2\u00d8\u00a7\u00d8\u00b1": 3970, "\u0120\u00e0\u00ae\u00b5\u00e0\u00ae\u00b0": 3971, "\u0120Ab": 3972, "\u00e1\u0125\u0132\u00e1\u0125\u0138\u00e1\u0125\u0136": 3973, "\u00d7\u00a9\u00d7\u00a8": 3974, "\u00e0\u00a5\u012b": 3975, "\u0120\u00ce\u0139": 3976, "\u0120Per": 3977, "\u00d7\u013b\u00d7\u0140": 3978, "\u00d8\u00a7\u00d9\u0128\u00d9\u0129": 3979, "\u00d0\u00bd\u00d0\u00be\u00d0\u00b9": 3980, "\u00e8\u00ae\u00a1\u00e5\u012a\u0134": 3981, "\u0120\u00e0\u00ae\u0134\u00e0\u00ae\u00b0": 3982, "\u0120\u00e0\u00a6\u0137\u00e0\u00a6\u00b0\u00e0\u00a7\u0129": 3983, "ove": 3984, "pres": 3985, "\u012032": 3986, "\u00c3\u00a1m": 3987, "\u0120\u00ed\u0137\u013e": 3988, "\u00e3\u0125\u0143": 3989, "ally": 3990, "\u00e8\u00a7\u00a3": 3991, "\u00e7\u00b3\u00bb": 3992, "\u0120trans": 3993, "\u00e1\u00bb\u012f": 3994, "\u00e0\u00b1\u0123\u00e0\u00b0\u00b0": 3995, "\u00d8\u00b1\u00d9\u0127": 3996, "\u0120tut": 3997, "\u00e8\u00a7\u0126": 3998, "\u00e0\u00ae\u00be\u00e0\u00ae\u00ae": 3999, "gram": 4000, "\u00c3\u0142ng": 4001, "i\u00e1\u00bb\u0123u": 4002, "\u00e4\u00bd\u012f": 4003, "\u00c6\u00b0\u00c6\u00a1ng": 4004, "\u00d9\u0128\u00d9\u012c": 4005, "aar": 4006, "\u0120\u00e9\u0129": 4007, "\u00e6\u013a\u0130": 4008, "\u0120\u00e1\u0125\u00ab": 4009, "iones": 4010, "\u0120int": 4011, "\u00e0\u00a6\u00ac\u00e0\u00a7\u0129": 4012, "\u00d7\u013b\u00d7\u00a4": 4013, "\u00c3\u00a5r": 4014, "ste": 4015, "\u00ab\u00e0\u00b8\u013b": 4016, "\u0136\u00e0\u00b8\u00b4\u00e0\u00b8": 4017, "\u00eb\u0131\u013b": 4018, "\u00e7\u013d\u00ae": 4019, "\u0120\u00e1\u0125\u00a8\u00e1\u0125\u0136\u00e1\u0125": 4020, "ix": 4021, "\u0120\u00e5\u0129\u00af\u00e5\u0131\u0133": 4022, "\u0120sec": 4023, "\u0120\u00ec\u0142\u013e": 4024, "\u00d6\u0123": 4025, "\u0120alle": 4026, "\u00ec\u012a\u013a": 4027, "\u00e0\u00a6\u00bf\u00e0\u00a6\u00b8": 4028, "\u0120sv": 4029, "\u0120\u00ed\u013b": 4030, "\u01202009": 4031, "\u0120\u00e1\u0125\u0132\u00e1\u0125\u0135": 4032, "\u0120\u00ec\u013f\u00b4\u00eb": 4033, "\u00e0\u00b8\u0143\u00e0\u00b8\u00a3": 4034, "\u00e8\u012a\u00b0": 4035, "\u00d5\u00b8\u00d5": 4036, "ED": 4037, "\u0120Ind": 4038, "\u0120\u00e0\u00b0\u00b9": 4039, "\u0120bo": 4040, "\u012039": 4041, "\u00e0\u00a6\u0137\u00e0\u00a7\u0129": 4042, "\u00e0\u00ae\u00b3\u00e0\u00af\u012f\u00e0\u00ae\u00b3": 4043, "\u00e0\u00b0\u00b0\u00e0\u00b1\u012f": 4044, "\u0120\u00d1\u0126": 4045, "it\u00c3\u0142": 4046, "\u00ce\u00b1\u00cf\u0125": 4047, "\u00c3\u00bc\u00c5\u0141": 4048, "\u00c3\u00b6n": 4049, "\u0120\u00c2\u00b0": 4050, "\u00ed\u0126": 4051, "\u00e1\u0125\u00a3\u00e1\u0125\u013e": 4052, "\u00e0\u00a6\u0138": 4053, "\u00e5\u012a\u00b6": 4054, "\u0120https": 4055, "\u0123\u00e0\u00b9\u0122\u00e0\u00b8": 4056, "\u012a\u00e0\u00b8\u00b0\u00e0\u00b8": 4057, "\u00e1\u0125\u013f\u00e1\u0125\u0133\u00e1\u0125\u013a\u00e1\u0125\u00a1": 4058, "\u0120off": 4059, "\u00ce\u00b8\u00ce\u00b7": 4060, "\u00e0\u00b0\u00be\u00e0\u00b0\u00b2\u00e0\u00b1\u0123": 4061, "\u00e1\u00ba\u00a3n": 4062, "\u0120\u00e1\u0125\u0139\u00e1\u0125\u0132\u00e1\u0125\u0137": 4063, "\u00e0\u00b0\u0124\u00e0\u00b0\u0139\u00e0\u00b0\u00be": 4064, "\u00e7\u012b\u00b9": 4065, "orn": 4066, "\u00c3\u0142nh": 4067, "\u00e0\u00ae\u00bf\u00e0\u00ae\u00aa\u00e0\u00af\u012f\u00e0\u00ae\u00aa": 4068, "atis": 4069, "ition": 4070, "\u00e0\u00a5\u012e": 4071, "\u0120\u00e4\u00b8\u012f": 4072, "\u0120but": 4073, "\u00d9\u0128\u00d8\u00aa": 4074, "\u00e5\u00b7\u0140": 4075, "\u00e5\u0131\u00a3": 4076, "\u0120kung": 4077, "\u013b\u00e0\u00a7\u012f\u00e0\u00a6": 4078, "ila": 4079, "\u0120\u00d7\u0136\u00d7\u00a2": 4080, "\u00e3\u0123\u00a4": 4081, "\u0120tra": 4082, "\u0120\u00e0\u00ae\u00b5\u00e0\u00af\u0129": 4083, "\u00d7\u0142\u00d7\u0137": 4084, "\u0120kal": 4085, "\u00e0\u00b9\u0126\u00e0\u00b8\u0136\u00e0\u00b9\u012b\u00e0\u00b8": 4086, "omb": 4087, "wi": 4088, "\u00e3\u0123\u00a1": 4089, "\u0120Inter": 4090, "\u0120As": 4091, "\u00e7\u00b5": 4092, "\u00e6\u00b5\u00b7": 4093, "\u0120\u00e1\u0125\u013a\u00e1\u0125\u013e": 4094, "\u00e5\u00a5\u0138": 4095, "\u0120sl": 4096, "\u0120\u00e1\u0125\u0134\u00e1\u0125\u0132\u00e1\u0125\u0135": 4097, "\u00e0\u00b9\u0126\u00e0\u00b8\u00a1\u00e0\u00b9\u012a\u00e0\u00b8": 4098, "\u0120Ex": 4099, "\u00ec\u00a7\u0122\u00eb\u0127\u00b8": 4100, "\u0120\u00ce\u00b4\u00ce\u00b9\u00ce\u00b1": 4101, "\u00ec\u012c\u00b5": 4102, "\u0120\u00ea\u00b2\u0125": 4103, "\u0120\u00e1\u0125\u013a\u00e1\u0125\u013d": 4104, "\u00d7\u013b\u00d7\u00a1": 4105, "\u00e4\u00ba\u0136": 4106, "\u0120\u00d4": 4107, "\u0120soc": 4108, "angan": 4109, "aga": 4110, "\u00e4\u00b8\u0130": 4111, "\u0120dire": 4112, "\u0120tid": 4113, "\u00e9\u0129\u0131": 4114, "\u0120sm": 4115, "ille": 4116, "\u00e0\u00a5\u012f\u00e0\u00a4\u00b9": 4117, "\u00e5\u0133\u013a": 4118, "\u00e3\u0124\u00bf": 4119, "\u0120\u00e6\u0138\u00b0": 4120, "\u0120PM": 4121, "\u00d0\u00b0\u00d0\u00b5\u00d1\u0124": 4122, "bay": 4123, "\u00e1\u0125\u0136\u00e1\u0125\u0142\u00e1\u0125\u013a": 4124, "\u00e5\u0127\u012f": 4125, "\u00e3\u0124\u00b7": 4126, "\u00eb\u012d\u012a": 4127, "\u00e0\u00b9\u012b\u00e0\u00b8\u0143\u00e0\u00b8\u0129\u00e0\u00b8": 4128, "\u012048": 4129, "ence": 4130, "\u0120qui": 4131, "\u0120And": 4132, "\u00e0\u00af\u0123\u00e0\u00ae\u00aa\u00e0\u00af\u012f\u00e0\u00ae\u00aa": 4133, "\u00e1\u0125\u013f\u00e1\u0125\u0133\u00e1\u0125\u0132": 4134, "\u0120Ne": 4135, "\u00e0\u00a4\u00a8\u00e0\u00a5\u0122": 4136, "\u0120\u00d8\u00b0": 4137, "ents": 4138, "\u0120\u00cf\u0126\u00ce\u00bf\u00cf\u0127\u00cf\u0124": 4139, "\u0120\u00e1\u0125\u0132\u00e1\u0125\u013e": 4140, "\u00e4\u00ba\u00a4": 4141, "\u0120\u00c3\u0138": 4142, "tre": 4143, "\u00d0\u00bd\u00d0\u00be\u00d1\u0123\u00d1\u0124": 4144, "\u0120net": 4145, "\u0120Sa": 4146, "\u00b1\u00e0\u00b8\u0123\u00e0\u00b8": 4147, "\u00e6\u012b\u0122": 4148, "\u00ce\u00b9\u00ce\u00ba\u00cf\u012e": 4149, "\u0120Man": 4150, "\u00b6\u0136": 4151, "\u00e1\u0125\u0132\u00e1\u0125\u00a6": 4152, "\u00e9\u0139\u00b4": 4153, "\u00e6\u0139\u0139\u00e8\u012a\u00b0": 4154, "\u0120dec": 4155, "\u0120ng\u00c6\u00b0\u00e1\u00bb\u013fi": 4156, "\u00e6\u0126\u0131": 4157, "\u00e0\u00a6\u0135": 4158, "\u00e0\u00b0\u013c\u00e0\u00b1\u012f\u00e0\u00b0\u013c": 4159, "\u00e5\u013d\u0140": 4160, "endo": 4161, "\u0120\u00d7\u00a9\u00d7\u0136": 4162, "\u0120\u00e9\u0122": 4163, "\u00d9\u0127\u00d8\u00b1": 4164, "\u0120\u00ec\u0142\u0137": 4165, "\u0106\u0108": 4166, "\u00e6\u012c\u00a5": 4167, "\u0120\u00d0\u00b8\u00d0\u00b7": 4168, "\u0124\u00e0\u00b8\u0143\u00e0\u00b8\u0129": 4169, "\u00d8\u00a7\u00db\u012e\u00db\u012e": 4170, "\u0126\u00e0\u00b8\u00a7\u00e0\u00b8\u00b2\u00e0\u00b8\u00a1\u00e0\u00b8": 4171, "\u0141\u00e0\u00b8": 4172, "\u00d7\u013e\u00d7\u0136": 4173, "\u00e0\u00a7\u0129\u00e0\u00a6\u0138": 4174, "ider": 4175, "\u0120sob": 4176, "\u0120\u00d7\u0133\u00d7\u00a2": 4177, "met": 4178, "\u00d8\u00ac\u00d9\u0129": 4179, "olo": 4180, "\u00d8\u00b3\u00d9\u0127": 4181, "\u0120act": 4182, "\u00c3\u0142n": 4183, "ania": 4184, "\u00e7\u00a8\u012d": 4185, "nik": 4186, "\u00d8\u00a8\u00d9\u0126": 4187, "\u00cf\u0123\u00ce\u00b9\u00cf\u0125": 4188, "\u0120He": 4189, "\u00d7\u013b\u00d7\u013d": 4190, "\u0120\u00e5\u00a5": 4191, "\u00e1\u00bb\u00afng": 4192, "35": 4193, "aki": 4194, "\u00da\u00af\u00db\u012e": 4195, "\u0120tem": 4196, "\u00e0\u00a4\u00b9\u00e0\u00a5\u0129": 4197, "\u0120\u00eb\u00aa\u00a8": 4198, "\u012037": 4199, "ize": 4200, "\u00e5\u00b1\u00b1": 4201, "\u00e3\u0123\u013d": 4202, "\u00e7\u013d\u00b4": 4203, "\u012090": 4204, "\u0120\u00e1\u0125\u0132\u00e1\u0125\u00a1": 4205, "\u00d7\u013b\u00d7\u0137": 4206, "\u00e0\u00b8\u013b\u00e0\u00b8\u00b2\u00e0\u00b8": 4207, "\u0120\u00d8\u00ac\u00d8\u00af": 4208, "\u0120\u00ec\u013a\u00a4": 4209, "\u0120\u00d8\u00aa\u00d8\u00b1": 4210, "\u0120mel": 4211, "\u00d0\u00b5\u00d0\u00bd\u00d1\u0124": 4212, "ats": 4213, "\u00eb\u00b9\u0126": 4214, "\u0120\u00ec\u0128": 4215, "\u0120vis": 4216, "\u00e6\u00a1": 4217, "\u00ce\u00bf\u00cf\u0124": 4218, "\u00a7\u00e0\u00b9\u012a\u00e0\u00b8\u00b2": 4219, "\u00ce\u00b8\u00ce\u00b5": 4220, "\u0137\u00e0\u00b8\u00b1\u00e0\u00b8": 4221, "\u00e3\u0125\u0139": 4222, "\u00c2\u00b5": 4223, "IS": 4224, "\u0120fa": 4225, "\u0120\u00d9\u012a\u00d8\u00aa": 4226, "\u012080": 4227, "\u0120roz": 4228, "\u0120don": 4229, "\u00e0\u00b4\u00bf\u00e0\u00b4": 4230, "ov\u00c3\u00a1": 4231, "\u0120temp": 4232, "cc": 4233, "\u00ec\u00b0": 4234, "\u00ab\u00e0\u00b8\u013b\u00e0\u00b8": 4235, "\u00c3\u0142i": 4236, "\u00d9\u0126\u00d9\u0123": 4237, "\u0120$(": 4238, "\u00e0\u00b0\u00be\u00e0\u00b0\u00b5": 4239, "\u00d0\u00bd\u00d0\u00be\u00d0\u00b3\u00d0\u00be": 4240, "\u0120mot": 4241, "\u0120\u00d8\u00b4\u00d8\u00af": 4242, "\u00e5\u0137\u0128": 4243, "\u013c\u00e0\u00b8\u0143\u00e0\u00b8\u00a5": 4244, "\u0120jest": 4245, "\u00e5\u00a5\u00b3": 4246, "u\u00c5\u0141": 4247, "\u00c5\u0124a": 4248, "\u0120\u00c5\u0140": 4249, "\u00e0\u00b8\u00a3\u00e0\u00b8\u00b1\u00e0\u00b8\u013c\u00e0\u00b8": 4250, "pk": 4251, "\u0120aus": 4252, "\u00ec\u013a\u00a4": 4253, "\u0120\u00e0\u00ae\u0129\u00e0\u00ae\u00a8\u00e0\u00af\u012f\u00e0\u00ae\u00a4": 4254, "\u00e5\u0131\u00b7": 4255, "\u0120\u00e2\u0138": 4256, "\u0120sin": 4257, "\u00d0\u00b5\u00d0\u00bd\u00d0\u00b8\u00d0\u00b5": 4258, "\u00e0\u00a4\u00b8\u00e0\u00a5\u0129": 4259, "\u00d7\u00a4\u00d7\u00a8": 4260, "\u0120Res": 4261, "\u0120\u00ce\u013f": 4262, "\u0120199": 4263, "\u00da\u00af\u00d8\u00b1": 4264, "\u0120ra": 4265, "\u00e9\u0129\u012e": 4266, "\u012044": 4267, "AP": 4268, "\u0120dev": 4269, "\u0120\u00e1\u0125\u00a8\u00e1\u0125\u0136\u00e1\u0125\u00a1": 4270, "OL": 4271, "con": 4272, "\u0120\u00e5\u012e\u0139\u00e4\u00ba\u00ac": 4273, "\u00e5\u012f\u0137\u00e5\u0131\u012e": 4274, "\u00e9\u0134\u00b1": 4275, "\u00d8\u00b9\u00d8\u00a9": 4276, "\u00e0\u00b1\u0123\u00e0\u00b0\u00b5": 4277, "\u00e0\u00a4\u00bf\u00e0\u00a4\u0124": 4278, "\u00e8\u00af\u00b4": 4279, "\u00e5\u0127\u00ac\u00e5\u0131\u00b8": 4280, "\u00e8\u012f": 4281, "ayan": 4282, "\u00ce\u00bf\u00ce\u00b9": 4283, "\u0120Des": 4284, "\u00e0\u00a6\u00a8\u00e0\u00a7\u012f\u00e0\u00a6\u00a4": 4285, "\u00e7\u00ae\u00a1": 4286, "\u00d1\u0125\u00d1\u0124": 4287, "ict": 4288, "\u00e0\u00b0\u00b3": 4289, "AD": 4290, "\u00e1\u00ba\u00a7u": 4291, "una": 4292, "\u0120;&": 4293, "\u0120cre": 4294, "\u00d7\u0140\u00d7\u0136": 4295, "\u00ec\u013f\u00b4\u00ed\u012c\u00b8": 4296, "\u00aa\u00e0\u00af\u012f": 4297, "\u00d9\u0126\u00d8\u00a8": 4298, "erk": 4299, "\u00cf\u0125\u00ce\u00b5\u00ce\u00b9\u00cf\u0124": 4300, "\u00e7\u00b1": 4301, "\u00e0\u00af\u012a\u00e0\u00ae\u0137\u00e0\u00af\u012f\u00e0\u00ae\u0137": 4302, "uje": 4303, "\u0120365": 4304, "\u00e0\u00b9\u012a\u00e0\u00b8\u0129": 4305, "\u00d9\u012c\u00d9\u0123": 4306, "\u00d9\u012c\u00d9\u0129": 4307, "\u0120\u00e0\u00a4\u0143\u00e0\u00a5\u0122": 4308, "\u00c3\u00a9e": 4309, "\u00ce\u00ba\u00ce\u00b1": 4310, "idade": 4311, "IL": 4312, "\u00e9\u00bb": 4313, "\u00e0\u00b1\u012a\u00e0\u00b0\u00a8": 4314, "\u00eb\u0135\u013e": 4315, "\u0120\u00ce\u00b1\u00cf\u0122\u00ce\u00bf": 4316, "\u0120nh\u00c6\u00b0": 4317, "\u0120nov": 4318, "\u00da\u00a9\u00d9\u0128": 4319, "\u0120\u00e0\u00a6\u013e\u00e0\u00a6\u00a8": 4320, "len": 4321, "ahan": 4322, "\u00e0\u00b8\u00b5\u00e0\u00b8\u00a2\u00e0\u00b8": 4323, "\u00e0\u00af\u0129\u00e0\u00ae\u00b0": 4324, "\u00e1\u0125\u0132\u00e1\u0125\u00ac": 4325, "\u0120vers": 4326, "oz": 4327, "\u0120);": 4328, "ID": 4329, "\u0120\u00e0\u00a4\u0137\u00e0\u00a4\u00bf": 4330, "\u0120olm": 4331, "\u00d0\u00b0\u00d0\u00b6": 4332, "\u0120\u00d0\u00b4\u00d0\u00bb\u00d1\u0131": 4333, "\u0120\u00d6": 4334, "\u00d8\u00aa\u00d8\u00a8": 4335, "\u00c3\u00b6r": 4336, "\u0120sex": 4337, "\u0120\u00e7\u013e": 4338, "\u0120tro": 4339, "elt": 4340, "ath": 4341, "\u00a7\u00e0\u00b9\u012a\u00e0\u00b8\u00b2\u00e0\u00b8": 4342, "\u0120pass": 4343, "\u00ce\u00b9\u00ce\u00ba\u00ce\u00ae": 4344, "ple": 4345, "\u00e4\u00bb\u0138": 4346, "\u00d7\u0137\u00d7\u013d": 4347, "uf": 4348, "\u00d7\u0142\u00d7\u0136": 4349, "ading": 4350, "\u0120zijn": 4351, "aba": 4352, "ikan": 4353, "\u00e1\u00bb\u0135": 4354, "ical": 4355, "\u0120\u00d8\u00a8\u00d9\u0128": 4356, "\u00d8\u00af\u00d9\u0127": 4357, "\u00e0\u00ae\u00bf\u00e0\u00ae\u00b4": 4358, "\u0120\u00d7\u0133\u00d7\u0140\u00d7": 4359, "owa": 4360, "\u0120i\u00c3\u00a7in": 4361, "\u00ed\u0126\u00b0": 4362, "\u00e8\u00b5\u013d\u00e8\u00bd\u00a6": 4363, "\u0120\u00eb\u012d\u00a4": 4364, "\u0120\u00d7\u013b\u00d7\u00a9": 4365, "\u0137\u00e0\u00b9\u012a": 4366, "\u00c3\u00a7a": 4367, "\u00e3\u0124\u00a3": 4368, "\u00d8\u0143\u00d8\u00af": 4369, "pon": 4370, "ets": 4371, "\u00d1\u0125\u00d0\u00b4": 4372, "\u0120\u00e0\u00b8\u0126": 4373, "\u0120\u00d8\u00b4\u00d8\u00af\u00d9\u0129": 4374, "of": 4375, "pos": 4376, "\u00d7\u013e\u00d7\u0132": 4377, "\u00e7\u00a4\u00be": 4378, "\u0120ger": 4379, "imulyo": 4380, "\u00e0\u00b0\u00a7": 4381, "eder": 4382, "ivo": 4383, "\u00d1\u0130\u00d1\u0124": 4384, "vis": 4385, "\u0120word": 4386, "\u0120\u00e5\u00bc": 4387, "\u0120\u00e1\u0125\u0132\u00e1\u0125\u00a6": 4388, "\u0120Bar": 4389, "\u0120nag": 4390, "\u00c3\u00a2y": 4391, "\u00e1\u0125\u0142\u00e1\u0125\u013f": 4392, "\u00e0\u00b9\u012a\u00e0\u00b8\u00a7\u00e0\u00b8": 4393, "\u0120\u00e1\u0125\u00af": 4394, "\u00e3\u0124\u00b3": 4395, "\u00d9\u0126\u00d8\u00b3": 4396, "\u00aa\u00e0\u00b8\u00b8\u00e0\u00b8": 4397, "\u00e8\u00a2": 4398, "isk": 4399, "\u00e9\u013b\u00a2": 4400, "\u00e9\u00a9": 4401, "\u00db\u00b0": 4402, "\u00e5\u013b": 4403, "\u0120alt": 4404, "\u00d9\u0125\u00d9\u0128": 4405, "by": 4406, "\u0120\u00d0\u00a2": 4407, "\u0120hal": 4408, "liy": 4409, "\u00e0\u00a7\u012d\u00e0\u00a6\u00a8": 4410, "sa": 4411, "mi\u00c5\u0141": 4412, "\u00e1\u0125\u0137\u00e1\u0125\u013c": 4413, "\u00e6\u0122\u013f": 4414, "ash": 4415, "\u013e\u00e0\u00b8\u00b9": 4416, "\u00e0\u00af\u0123\u00e0\u00ae\u00b3\u00e0\u00af\u012f\u00e0\u00ae\u00b3": 4417, "\u0120Co": 4418, "\u012099": 4419, "\u00e3\u0124\u0131": 4420, "\u00c6\u00b0\u00e1\u00bb\u013dc": 4421, "\u0120isang": 4422, "\u0120seb": 4423, "\u00c3\u0143t": 4424, "uw": 4425, "\u00e9\u0135": 4426, "elij": 4427, "\u0120fra": 4428, "\u00e7\u00a6": 4429, "\u0120AM": 4430, "\u00e0\u00a4\u00b2\u00e0\u00a4\u00be": 4431, "\u00e0\u00b0\u00bf\u00e0\u00b0\u0124\u00e0\u00b0\u00a6\u00e0\u00b0\u00bf": 4432, "\u00e4\u00ba\u012b": 4433, "\u00e7\u0125": 4434, "\u00e7\u013d\u00b8": 4435, "for": 4436, "rij": 4437, "\u0120\u00e0\u00a4\u0141": 4438, "\u0120\u00e8\u00bf\u013b": 4439, "ram": 4440, "i\u00c3\u00aan": 4441, "\u00cf\u0123\u00cf\u0129": 4442, "\u0120\u0107": 4443, "\u00e0\u00ae\u00aa\u00e0\u00af\u012f\u00e0\u00ae\u00aa\u00e0\u00ae\u0141": 4444, "\u00d9\u0129\u00d8\u00af": 4445, "\u0120\u00d8\u00ab": 4446, "\u00e3\u0123\u00bf": 4447, "\u00e0\u00a7\u0123\u00e0\u00a6\u00a8": 4448, "\u00e6\u00ac\u00a1": 4449, "\u0120nel": 4450, "arm": 4451, "\u0120\u00e0\u00a6\u00ac\u00e0\u00a7\u012f\u00e0\u00a6\u00af": 4452, "\u0120esc": 4453, "\u00e3\u0123\u0126\u00e3\u0124\u012d": 4454, "\u00e0\u00ae\u00a4\u00e0\u00af\u012f\u00e0\u00ae\u00a4\u00e0\u00ae\u00bf\u00e0\u00ae\u00b2\u00e0\u00af\u012f": 4455, "\u0120\u00d8\u00a8\u00d9\u012a\u00d8\u00af": 4456, "\u00e6\u0136\u00bf": 4457, "\u00e0\u00b8\u0143\u00e0\u00b8\u013b\u00e0\u00b8": 4458, "\u012049": 4459, "\u0120n\u00c3\u00a3o": 4460, "\u0120\u00e0\u00a6\u00a8\u00e0\u00a6\u00be": 4461, "\u0123\u00e0\u00b9\u0129\u00e0\u00b8": 4462, "rib": 4463, "\u0120\u00e1\u0125\u0132\u00e1\u0125\u0142\u00e1\u0125": 4464, "\u0120\u00d7\u0136\u00d7\u00a8": 4465, "\u0120vy": 4466, "\u0120pen": 4467, "\u0120sing": 4468, "\u00b4\u00e0\u00b8\u0136\u00e0\u00b8": 4469, "\u00e6\u00af\u0136": 4470, "\u0120ze": 4471, "\u00a5\u00e0\u00b8\u00b0": 4472, "\u00a1\u00e0\u00b9\u0122\u00e0\u00b8": 4473, "\u0120\u00e0\u00a4\u00b2\u00e0\u00a4\u00bf\u00e0\u00a4\u0131": 4474, "\u0120ngud": 4475, "\u0120ngudimulyo": 4476, "\u0120All": 4477, "\u00e1\u0125\u0139\u00e1\u0125\u0137\u00e1\u0125\u013a\u00e1\u0125\u00a1": 4478, "\u0120\u00c4\u0133\u00e1\u00bb\u013b": 4479, "\u0120cr": 4480, "\u00cf\u0122\u00ce\u00b1": 4481, "\u0120\u00d8\u00a2\u00d9\u0127": 4482, "\u0120km": 4483, "\u00e0\u00b1\u0123\u00e0\u00b0\u0139": 4484, "\u0120organ": 4485, "\u00e6\u013b\u0124": 4486, "\u0120\u00d7\u013d\u00d7\u013e": 4487, "\u00eb\u0124\u00a8": 4488, "imo": 4489, "\u0120\u00d8\u00b1\u00d9\u012a": 4490, "\u00ef\u00bd": 4491, "\u0120\u00d8\u00a7\u00d9\u0126\u00d8\u00b0": 4492, "21": 4493, "\u00e1\u00ba\u0143n": 4494, "\u0120\u00d8\u0141": 4495, "\u00e8\u00b7\u00af": 4496, "\u0120\u00d9\u0129\u00d8\u00a7": 4497, "ann": 4498, "\u0120\u00e1\u0125\u00a3\u00e1\u0125\u013e": 4499, "\u00e8\u00ae\u00be": 4500, "\u0120memb": 4501, "\u00e0\u00b0\u0143": 4502, "\u0120\u00c3\u00a1": 4503, "\u0120ess": 4504, "\u0120ret": 4505, "\u00ed\u013c\u012e": 4506, "\u0120\u00e1\u0125\u00a1\u00e1\u0125\u0132\u00e1\u0125\u00a5\u00e1\u0125\u0132\u00e1\u0125\u0142\u00e1\u0125\u0139\u00e1\u0125\u0137\u00e1\u0125\u0136\u00e1\u0125\u013c": 4507, "\u00c3\u00bcz": 4508, "\u0120ngh": 4509, "\u012070": 4510, "\u00d8\u00aa\u00d9\u012c": 4511, "\u00e6\u00bc": 4512, "\u0120\u00e2\u013b": 4513, "\u0120\u00ec\u013f\u00b8": 4514, "igen": 4515, "\u0120\u00e0\u00a4\u00b8\u00e0\u00a4\u00ae": 4516, "\u0120\u00ce\u00ae": 4517, "\u0120\u00d8\u00a7\u00d9\u0126\u00d8\u00aa\u00d9\u012c": 4518, "\u00d1\u0128\u00d0\u00b8": 4519, "\u0120Est": 4520, "\u0120\u00e1\u0125\u0142\u00e1\u0125\u013f\u00e1\u0125\u013d\u00e1\u0125\u0136\u00e1\u0125\u013c": 4521, "\u00d5\u00b5": 4522, "iler": 4523, "\u00e0\u00ac": 4524, "\u00e0\u00a5\u0123\u00e0\u00a4\u00b0": 4525, "\u0120\u00ec\u012c": 4526, "\u00c3\u00b4i": 4527, "68": 4528, "\u0120\u00e0\u00a4\u00a1": 4529, "\u0120\u00d0\u00b6": 4530, "\u00d0\u00b0\u00d1\u0123\u00d1\u0124": 4531, "\u00d0\u00be\u00d1\u0129": 4532, "\u00e0\u00b0\u00be\u00e0\u00b0\u00a6": 4533, "\u00d8\u00ae\u00d8\u00b1": 4534, "\u0120\u00e0\u00a6\u00ac\u00e0\u00a6\u00be\u00e0\u00a6": 4535, "\u00e0\u00ae\u00b0\u00e0\u00af\u012f\u00e0\u00ae\u0137\u00e0\u00ae\u00b3": 4536, "\u0120\u00e1\u0125\u00a8\u00e1\u0125\u0136": 4537, "\u0120mus": 4538, "\u00d8\u00ae\u00d8\u00b5": 4539, "entes": 4540, "\u00e0\u00b0\u00bf\u00e0\u00b0\u0139": 4541, "df": 4542, "it\u00c3\u00a9": 4543, "\u00ed\u0137\u013a\u00eb\u012c\u0136": 4544, "\u0120\u00e5\u00be": 4545, "\u0120\u00e1\u0125\u00a1\u00e1\u0125\u0132\u00e1\u0125\u00ae": 4546, "\u00d9\u0124\u00d9\u012c": 4547, "\u00e8\u00b5\u012e": 4548, "\u00e0\u00b0\u00a8\u00e0\u00b1\u012f": 4549, "\u00aa\u00e0\u00b8\u00b2\u00e0\u00b8": 4550, "erg": 4551, "\u0120best": 4552, "\u00e0\u00b9\u012a\u00e0\u00b8\u013b\u00e0\u00b8": 4553, "\u00e5\u0130\u00bf": 4554, "ument": 4555, "\u00e0\u00b8\u013b\u00e0\u00b8\u00b5\u00e0\u00b9\u012b": 4556, "\u0120Det": 4557, "\u0120Car": 4558, "\u00e8\u00a7\u0124": 4559, "\u0120Cl": 4560, "\u0120r\u00c3\u00a9": 4561, "\u00e0\u00a7\u0122\u00e0\u00a6\u00b0": 4562, "par": 4563, "over": 4564, "\u00e0\u00a7\u012f\u00e0\u00a6\u00b2": 4565, "iniz": 4566, "\u00e5\u0140": 4567, "agen": 4568, "\u00e5\u00b0\u0128": 4569, "\u00e4\u00ba\u013c\u00e6\u00b8\u00b8": 4570, "\u00e7\u0123": 4571, "eden": 4572, "\u0120\u00ec\u0140\u0132": 4573, "\u0120loc": 4574, "\u0120\u00e1\u0125\u013d\u00e1\u0125\u013a\u00e1\u0125\u00a1": 4575, "\u0120\u00d8\u00aa\u00d9\u0127": 4576, "\u0120han": 4577, "\u00ec\u0139\u00ac": 4578, "\u0120sub": 4579, "\u0120\u00d8\u00a8\u00d8\u00af": 4580, "\u00c5\u0124o": 4581, "\u00e9\u00aa": 4582, "\u0120Ng": 4583, "ye": 4584, "\u0120\u00e1\u0125\u013a\u00e1\u0125\u00a7": 4585, "\u0120\u00e8\u0122": 4586, "\u0120plus": 4587, "\u0120\u00e0\u00a6\u00a1": 4588, "\u012047": 4589, "\u0120;&#": 4590, "in\u00c9\u013b": 4591, "\u0120kat": 4592, "\u00d9\u0123\u00d8\u00b1": 4593, "\u00e1\u00ba\u00bfn": 4594, "\u00e0\u00a7\u0129\u00e0\u00a6\u0137\u00e0\u00a7\u0129": 4595, "\u0120ten": 4596, "\u0120az": 4597, "\u00eb\u00af\u00b8": 4598, "fr": 4599, "\u0120Je": 4600, "\u0120\u00e0\u00b8\u0139\u00e0\u00b8": 4601, "cy": 4602, "\u0120\u00d9\u0126\u00d8\u00a7": 4603, "\u00e5\u0131\u012c": 4604, "\u0120nh\u00e1\u00bb\u00afng": 4605, "\u0120\u00e0\u00b0\u0131": 4606, "\u00e1\u0125\u0132\u00e1\u0125\u013f": 4607, "\u00e1\u0125\u0142\u00e1\u0125\u013a": 4608, "uro": 4609, "\u00d5\u00a5\u00d6\u0122": 4610, "\u0120ul": 4611, "\u0120more": 4612, "\u00e6\u00b4\u00bb": 4613, "irm": 4614, "\u00d0\u00b8\u00d0\u00b4": 4615, "\u00e3\u0125\u0125\u00e3\u0125\u012a": 4616, "anie": 4617, "\u0120//": 4618, "\u0120ale": 4619, "\u00e0\u00a4\u00b2\u00e0\u00a5\u0122": 4620, "\u00e4\u00ba\u013c\u00e6\u00b4\u00b2": 4621, "\u0120\u00e7\u00bb": 4622, "\u012043": 4623, "\u00ab\u00e0\u00b8\u00a5\u00e0\u00b8": 4624, "\u00e0\u00ae\u00ae\u00e0\u00af\u012f\u00e0\u00ae\u00aa": 4625, "\u0120\u00e0\u00a6\u00a4\u00e0\u00a6\u00be\u00e0\u00a6\u00b0": 4626, "\u0120Wh": 4627, "\u0120probl": 4628, "\u0120sus": 4629, "\u0120Go": 4630, "\u0120buh": 4631, "\u00a1\u00e0\u00b8\u00b5": 4632, "\u00e1\u00bb\u0137": 4633, "\u00e0\u00b9\u0126\u00e0\u00b8\u00a1\u00e0\u00b9\u012a": 4634, "\u01202008": 4635, "\u0120nas": 4636, "AC": 4637, "\u0120\u00d7\u0140\u00d7\u0132": 4638, "\u0120\u00d7\u0136\u00d7\u0140": 4639, "\u0120mes": 4640, "\u0120\u00e1\u0125\u0132\u00e1\u0125\u00ae": 4641, "uan": 4642, "\u0120\u00e0\u00a4\u0128\u00e0\u00a4\u00aa": 4643, "\u00e0\u00b8\u00a3\u00e0\u00b8\u00b1\u00e0\u00b8\u013c": 4644, "\u0120\u00e6\u00b5": 4645, "\u0120acc": 4646, "\u00e8\u00a5\u00bf": 4647, "\u00c5\u00a9": 4648, "\u0120esp": 4649, "\u0120Ter": 4650, "\u00e8\u00b5\u00b7": 4651, "\u00e0\u00b8\u00a3\u00e0\u00b8\u00a3\u00e0\u00b8": 4652, "\u0136\u00e0\u00b9\u0122\u00e0\u00b8": 4653, "\u00e5\u00ba\u0139": 4654, "\u00e8\u0122\u0125": 4655, "\u0120\u00d9\u012a\u00d8\u00a3": 4656, "\u0120\u00d8\u00a7\u00d9\u0126\u00d9\u0126\u00d9\u0129": 4657, "load": 4658, "\u00c3\u00a6r": 4659, "\u0120_": 4660, "\u00c3\u0143c": 4661, "\u0120\u00d8\u00b6": 4662, "\u00ed\u012e": 4663, "\u00cf\u0122\u00ce\u00b5": 4664, "\u00d5\u00a1\u00d5\u00af": 4665, "\u0120\u00d9\u0127\u00d9\u0124": 4666, "\u00c4\u00b1l\u00c4\u00b1": 4667, "\u0120rev": 4668, "\u013b\u00e0\u00a7\u012f\u00e0\u00a6\u0139": 4669, "\u00e0\u00b9\u0123": 4670, "\u0120\u00e3\u0123\u013f": 4671, "\u00e7\u0130\u00a9": 4672, "ios": 4673, "\u0120\u00e0\u00b0\u0141": 4674, "\u00e0\u00b8\u00b2\u00e0\u00b8\u013b": 4675, "US": 4676, "ones": 4677, "ange": 4678, "\u0120ek": 4679, "\u0120\u00d7\u0136\u00d7\u0133": 4680, "\u00e0\u00b8\u00b2\u00e0\u00b8\u00a3": 4681, "\u00e1\u0125\u0132\u00e1\u0125\u00a3\u00e1\u0125": 4682, "ck": 4683, "uto": 4684, "\u0120\u00d8\u00a8\u00d8\u00a7\u00d8\u00b4": 4685, "\u00e0\u00ae\u00b0\u00e0\u00af\u012f\u00e0\u00ae\u0137\u00e0\u00ae\u00b3\u00e0\u00af\u012f": 4686, "\u00e0\u00a6\u0137\u00e0\u00a7\u012f\u00e0\u00a6\u00b7": 4687, "fa": 4688, "\u00ce\u00bc\u00cf\u012e": 4689, "\u0120dom": 4690, "\u00b4\u00e0\u00b8\u013b": 4691, "\u00e0\u00a4\u0137\u00e0\u00a5\u0129": 4692, "\u00e7\u00ba\u00a7": 4693, "\u00e7\u013b\u00be": 4694, "\u00e7\u013f\u0122": 4695, "\u00d0\u00b5\u00d1\u0123\u00d1\u0124": 4696, "\u0120set": 4697, "cl": 4698, "\u00d9\u012c\u00d8\u00b9": 4699, "\u00e0\u00b0\u00bf\u00e0\u00b0\u00b5": 4700, "\u0120\u00d0\u013a": 4701, "\u00e1\u00bb\u0143": 4702, "\u0120pel": 4703, "\u00ec\u013d\u0136": 4704, "\u00ec\u012c\u00b5\u00eb\u012d\u012a\u00eb\u012d\u00a4": 4705, "\u00ec\u00bd\u013e\u00ea\u00b1\u00b8": 4706, "\u00c9\u013brbay": 4707, "alan": 4708, "\u00c9\u013bsi": 4709, "\u0120cent": 4710, "adas": 4711, "\u0120\u00ea\u00b2\u00bd": 4712, "\u012046": 4713, "ales": 4714, "\u00c4\u00b1y": 4715, "\u00e4\u00bd\u00bf": 4716, "nost": 4717, "\u00e5\u00ae\u013a\u00e6\u0138\u00b9\u00e7\u00bd\u0133\u00e7\u00ab\u013b": 4718, "\u00e0\u00a6\u013d": 4719, "\u00c3\u00b6v": 4720, "\u00e1\u0125\u013a\u00e1\u0125\u0135\u00e1\u0125\u0132\u00e1\u0125\u013e": 4721, "ps": 4722, "\u00e0\u00a7\u012f\u00e0\u00a6\u00ae": 4723, "\u00e5\u0127\u012f\u00e8\u00b4\u00b9": 4724, "\u00e6\u0139\u0142": 4725, "\u0120Mas": 4726, "\u0120\u00e6\u0139\u00a5": 4727, "\u0120\u00ce\u00b4\u00ce\u00b5\u00ce\u00bd": 4728, "\u00e1\u00ba\u0143t": 4729, "\u00d7\u00a3": 4730, "\u00e5\u0138": 4731, "\u0120\u00e1\u0125\u00a7\u00e1\u0125\u0137\u00e1\u0125\u0136\u00e1\u0125\u013c": 4732, "eli": 4733, "\u0120\u00ec\u00b0": 4734, "\u0120.,": 4735, "i\u00e1\u00ba\u00bft": 4736, "\u0120ikke": 4737, "38": 4738, "\u0120\u00ce\u00b5\u00ce\u00bd": 4739, "\u0120\u00c6\u0131": 4740, "\u00d0\u00b8\u00d1\u0123\u00d1\u0124": 4741, "\u00e1\u0125\u013f\u00e1\u0125\u0139": 4742, "bar": 4743, "2019": 4744, "\u0120przy": 4745, "\u00d9\u012a\u00d8\u00b1\u00d8\u00af": 4746, "\u00e0\u00ae\u00be\u00e0\u00ae\u00ae\u00e0\u00af\u012f": 4747, "\u00e1\u0125\u013c\u00e1\u0125\u0136\u00e1\u0125\u0133": 4748, "\u00e2\u0122\u00a6\u00e2\u0122\u00a6": 4749, "\u0120\u00e6\u0143": 4750, "\u00e0\u00af\u0123\u00e0\u00ae\u00b0": 4751, "\u0120\u00d9\u0127\u00d8\u00b5": 4752, "aire": 4753, "\u00e0\u00a4\u0124\u00e0\u00a4\u00a4": 4754, "\u013d\u00e0\u00b8\u00a3\u00e0\u00b8": 4755, "aran": 4756, "\u00e6\u0122\u0130": 4757, "atan": 4758, "\u0120imp": 4759, "\u00e6\u00a8": 4760, "aq": 4761, "\u0120\u00ed\u0131": 4762, "\u0120pop": 4763, "\u00e6\u013e\u012f": 4764, "\u00ec\u012d\u0142": 4765, "\u0120\u00ec\u00b2": 4766, "ece": 4767, "\u00d0\u00b5\u00d1\u0123\u00d0\u00ba": 4768, "\u00e0\u00a7\u0129\u00e0\u00a6\u0141": 4769, "\u0120\u00d8\u00ac\u00d9\u0127": 4770, "\u00e5\u013b\u00a8": 4771, "\u00e0\u00b8\u0143\u00e0\u00b8\u00a2\u00e0\u00b8": 4772, "\u0120AG": 4773, "\u0120bul": 4774, "\u00c3\u00a7\u00c3\u00b5es": 4775, "\u0120cap": 4776, "urn": 4777, "\u0120\u00e0\u00a6\u0131\u00e0\u00a6\u00ac": 4778, "\u0120fil": 4779, "\u00ed\u0127\u0136": 4780, "\u00e0\u00a5\u012f\u00e0\u00a4\u00ae": 4781, "\u0120\u00d1\u0129\u00d1\u0124\u00d0\u00be": 4782, "\u00e6\u0134\u0143": 4783, "\u00e5\u00bd\u0135": 4784, "\u0120Im": 4785, "\u0120kr": 4786, "\u00e8\u00b3": 4787, "\u0120u0": 4788, "\u0120\u00d7\u00a2\u00d7\u013f": 4789, "\u0120Art": 4790, "\u0120\u00e0\u00a6\u00a8\u00e0\u00a6\u00bf\u00e0\u00a6": 4791, "rio": 4792, "anto": 4793, "\u0120\u00e0\u00b8\u0140": 4794, "awa": 4795, "\u00cf\u0125\u00ce\u00b1": 4796, "\u00d8\u00a7\u00d9\u0127\u00d9\u0129": 4797, "\u0120bag": 4798, "\u00ce\u00b4\u00ce\u00bf": 4799, "\u0120gro": 4800, "\u00e0\u00a4\u0131": 4801, "alah": 4802, "\u00d9\u0126\u00d9\u012a\u00d8\u00af": 4803, "\u00c3\u0143m": 4804, "ukan": 4805, "\u0120\u00e0\u00ae\u0131": 4806, "\u0120olan": 4807, "\u00e9\u0141": 4808, "\u0120uit": 4809, "\u0139\u00e0\u00b8\u00b2\u00e0\u00b8": 4810, "\u00e6\u00b7": 4811, "\u00e2\u0122\u012f": 4812, "\u00ef\u00bc\u012e\u00e3\u0122\u0133\u00e3\u0122\u0132": 4813, "\u0120\u00ce\u00bf\u00ce\u00b9": 4814, "\u0120\u00d8\u00b4\u00d8\u00b1": 4815, "\u00d8\u00a8\u00d8\u00af": 4816, "este": 4817, "\u0120\u00ce\u00b5\u00ce\u00ba": 4818, "\u0120bij": 4819, "ono": 4820, "\u0120\u00cf\u0126\u00ce\u00b9\u00cf\u0124": 4821, "\u0120\u00eb\u00b0\u0136": 4822, "\u0120To": 4823, "lig": 4824, "\u00e5\u0131\u0138": 4825, "\u00c9\u013bl\u00c9\u013br": 4826, "\u00d9\u012c\u00d8\u00a7": 4827, "\u0120\u00d7\u013e\u00d7\u0140\u00d7": 4828, "bo": 4829, "\u0120\u00d8\u00a7\u00d8\u00ae": 4830, "\u0120May": 4831, "\u00e0\u00a6\u0137\u00e0\u00a7\u012f\u00e0\u00a6\u00a4": 4832, "\u00d1\u0125\u00d1\u0130": 4833, "\u0120tot": 4834, "\u0120(\"": 4835, "\u00e0\u00a6\u00be\u00e0\u00a6\u0139": 4836, "\u013d\u0126": 4837, "enta": 4838, "icas": 4839, "ital": 4840, "\u0120sim": 4841, "\u00e5\u012f\u0123": 4842, "\u0120g\u00c3\u00bcn": 4843, "\u00d7\u00aa\u00d7\u013b": 4844, "\u0120att": 4845, "\u00e0\u00b8\u013b\u00e0\u00b9\u012e": 4846, "OT": 4847, "\u0120\u00c4\u0133\u00c3\u00a3": 4848, "iro": 4849, "\u0120ht": 4850, "\u00e0\u00a4\u00b9\u00e0\u00a5\u0122\u00e0\u00a4\u0124": 4851, "yle": 4852, "\u0120entre": 4853, "\u0120fal": 4854, "\u00e0\u00a5\u0124\u00e0\u00a4\u00a8": 4855, "\u0120\u00e0\u00b0\u0134": 4856, "\u00e6\u0126\u0141": 4857, "\u0120\u00d7\u0138\u00d7\u0136": 4858, "\u0120\u00d8\u00a3\u00d9\u012a": 4859, "ld": 4860, "\u00e5\u00b2": 4861, "\u0120\u00e2\u0139": 4862, "\u00e1\u0125\u0136\u00e1\u0125\u0133\u00e1\u0125\u00a3\u00e1\u0125\u013c": 4863, "\u0120\u00d0\u00bf\u00d0\u00be\u00d0\u00b4": 4864, "\u00e6\u0130\u00a5": 4865, "\u0123\u00e9\u0122\u0141": 4866, "\u00d1\u0125\u00d1\u0122": 4867, "\u0120DE": 4868, "\u0120\u00cf\u0125\u00cf\u0127\u00ce\u00bd": 4869, "\u00ec\u013b\u0122": 4870, "\u00e6\u012e\u0123": 4871, "\u00e0\u00a7\u012d\u00e0\u00a6\u0139": 4872, "\u00c4\u0125ng": 4873, "\u0120wir": 4874, "\u00e6\u0142\u00bc": 4875, "\u00e8\u00a3\u0127": 4876, "\u0120nicht": 4877, "\u0120kt": 4878, "\u012059": 4879, "\u0120\u00e0\u00b0\u013c\u00e0\u00b1\u0128": 4880, "\u00d1\u0131\u00d1\u0124": 4881, "\u0120fac": 4882, "\u0120\u00d8\u00aa\u00d8\u00a7": 4883, "\u00d7\u0133\u00d7\u013e": 4884, "\u0120\u00d7\u0140\u00d7\u00aa": 4885, "\u00ce\u00bc\u00ce\u00ac": 4886, "\u0120\u00ce\u0134": 4887, "\u0120\u00f0\u0141": 4888, "\u0120\u00d7\u0136\u00d7\u00a4": 4889, "\u00eb\u0127\u0126": 4890, "\u00e6\u0137\u013b": 4891, "\u00e0\u00a4\u00a1\u00e0\u00a4\u00bc": 4892, "\u0120amp": 4893, "\u0120\u00d8\u00a8\u00d8\u00b9\u00d8\u00af": 4894, "\u00ec\u0124\u00ac\u00ec\u00a7\u0122": 4895, "\u0139\u00e0\u00b8\u00a2": 4896, "\u00d5\u00a1\u00d5\u00b5": 4897, "36": 4898, "\u00e5\u0132\u0139": 4899, "\u00c3\u0143nh": 4900, "\u0120data": 4901, "\u0120\u00d7\u0140\u00d7\u0139": 4902, "\u00cf\u0123\u00ce\u0143": 4903, "mun": 4904, "\u0120tel": 4905, "cie": 4906, "\u0120Fran": 4907, "\u00cf\u0123\u00cf\u0130": 4908, "\u00e0\u00b2": 4909, "\u00e0\u00ae\u00be\u00e0\u00ae\u0141\u00e0\u00af\u012f\u00e0\u00ae\u0141": 4910, "\u0120Ho": 4911, "\u00e0\u00b9\u0123\u00e0\u00b8\u00a5\u00e0\u00b8\u00b0\u00e0\u00b8": 4912, "\u0120\u00e3\u0122\u0133\u00e3\u0122\u0132\u00ef\u00bc\u012e\u00e3\u0122\u0133\u00e3\u0122\u0132": 4913, "\u0120\u00e6\u0140": 4914, "\u00e1\u0125\u00a3\u00e1\u0125\u013d": 4915, "\u00e5\u012f\u0139": 4916, "\u0120qual": 4917, "\u0120\u00ec\u00a3\u00bc": 4918, "\u0120il\u00c9\u013b": 4919, "raw": 4920, "\u00e0\u00a4\u0137\u00e0\u00a5\u012f\u00e0\u00a4\u00b7": 4921, "\u0120poss": 4922, "\u0120\u00eb\u00b3\u00b4": 4923, "...": 4924, "\u00e3\u0125\u0125\u00e3\u0124\u00af": 4925, "\u0120ok": 4926, "\u0120Em": 4927, "\u0120\u00c4\u0133\u00e1\u00bb\u0125": 4928, "\u0120Fr": 4929, "\u00e0\u00b9\u0125\u00e0\u00b8\u013b": 4930, "\u0120enc": 4931, "\u013a\u00e0\u00b8": 4932, "\u00e3\u0125\u0128": 4933, "\u0120ile": 4934, "al\u00c4\u00b1": 4935, "\u0120Av": 4936, "\u0120\u00d9\u0128\u00d8\u00b8": 4937, "\u00d0\u00b0\u00d0\u00bf": 4938, "\u0120niet": 4939, "\u00e1\u00bd": 4940, "\u012054": 4941, "ton": 4942, "\u0120bez": 4943, "\u0120\u00d0\u0133": 4944, "leg": 4945, "\u00e6\u00ba\u0132": 4946, "\u0120Die": 4947, "\u00d7\u013b\u00d7\u00a6": 4948, "\u0120\u00e0\u00a4\u0127\u00e0\u00a4\u00aa": 4949, "\u0120ben": 4950, "\u00e1\u00ba\u00bft": 4951, "\u0120=\"": 4952, "\u0120\u00e1\u0125\u0132\u00e1\u0125\u00a5": 4953, "\u00e0\u00ae\u0141\u00e0\u00af\u0123\u00e0\u00ae\u00a4\u00e0\u00af\u012f\u00e0\u00ae\u00a4": 4954, "\u0120Az\u00c9\u013brbay": 4955, "\u013fi": 4956, "nes": 4957, "\u00ba\u00ab": 4958, "\u0120\u00e0\u00b0\u00b8\u00e0\u00b0\u0124\u00e0\u00b0": 4959, "\u0120\u00ce\u0143\u00cf\u0129": 4960, "\u0120\u00d8\u00b3\u00d8\u00a7\u00d9\u0126": 4961, "\u0120\u00ce\u00b1\u00ce\u00bd\u00ce\u00b1": 4962, "\u00e0\u00a6\u00a6\u00e0\u00a7\u0129\u00e0\u00a6\u00b0": 4963, "\u00e0\u00a4\u0138": 4964, "\u0120function": 4965, "\u0120\u00e0\u00a4\u013a": 4966, ",\"": 4967, "ador": 4968, "\u00b1\u00e0\u00b8\u0129": 4969, "\u00e0\u00b0\u00be\u00e0\u00b0\u0139": 4970, "\u00e6\u0139\u0139\u00e8\u012a\u00b0\u00e5\u0130\u0127": 4971, "\u0120\u00e0\u00ae\u00a4\u00e0\u00af\u012c": 4972, "\u0120mon": 4973, "\u00e0\u00a5\u012d\u00e0\u00a4\u0139": 4974, "\u00e5\u00b0\u0133": 4975, "\u00ef\u00bf\u00bd\u00ef\u00bf\u00bd\u00ef\u00bf\u00bd\u00ef\u00bf\u00bd": 4976, "\u0120\u00d1\u0122\u00d0\u00b0\u00d0\u00b7": 4977, "\u00e2\u0122\u012e\u00d9\u0129\u00d8\u00a7\u00db\u012e": 4978, "\u0120\u00e0\u00ae\u0134\u00e0\u00ae\u00b0\u00e0\u00af\u0123": 4979, "\u00e0\u00b0\u00bf\u00e0\u00b0\u00b8\u00e0\u00b1\u012f\u00e0\u00b0\u00a4": 4980, "iyy\u00c9\u013bt": 4981, "yd": 4982, "iter": 4983, "\u0120\u00e0\u00ae\u00b5\u00e0\u00af\u0128": 4984, "\u012058": 4985, "\u00d0\u00b5\u00d1\u0129": 4986, "\u0120v\u00c3\u00bd": 4987, "\u00ec\u0138\u0133": 4988, "esto": 4989, "\u0120\u00ea\u00b3\u0142": 4990, "\u00d7\u013b\u00d7\u0139": 4991, "br": 4992, "amos": 4993, "\u00d7\u00a8\u00d7\u013b\u00d7\u013f": 4994, "\u00d8\u00a8\u00d9\u0129": 4995, "\u00e1\u0125\u013a\u00e1\u0125\u0134": 4996, "\u0120hel": 4997, "\u0120leg": 4998, "eter": 4999, "\u00e8\u00ae\u00af": 5000, "\u0120\u00e0\u00a6\u00b8\u00e0\u00a6\u0124": 5001, "\u00e0\u00ae\u00bf\u00e0\u00ae\u013c": 5002, "\u0120had": 5003, "\u00e3\u0124\u00ab": 5004, "\u0120\u00ce\u00bc\u00ce\u0143": 5005, "\u00e6\u00b5\u0123": 5006, "\u0120fl": 5007, "\u0120500": 5008, "mas": 5009, "\u00e0\u00af\u012a\u00e0\u00ae\u00af\u00e0\u00ae\u00bf\u00e0\u00ae\u00b2\u00e0\u00af\u012f": 5010, "\u00d9\u0124\u00d9\u0126": 5011, "\u0120\u00e5\u0128": 5012, "\u0120\u00e0\u00ae\u00a8\u00e0\u00ae\u0141": 5013, "\u00d9\u0128\u00db\u012e": 5014, "\u0120\u00e0\u00a6\u00a5\u00e0\u00a7\u0129\u00e0\u00a6\u0137\u00e0\u00a7\u0129": 5015, "\u0120\u00d7\u0136\u00d7\u0142": 5016, "\u0120\u00e0\u00a6\u0131\u00e0\u00a6\u0129": 5017, "\u0120',": 5018, "\u00e0\u00b5\u0123": 5019, "\u0120Nov": 5020, "\u00cf\u0126\u00ce\u00af": 5021, "ht": 5022, "\u00c3\u00a9n": 5023, "\u00e0\u00af\u012a\u00e0\u00ae\u00a4\u00e0\u00af\u012f\u00e0\u00ae\u00a4": 5024, "\u00e7\u00ac\u00ac": 5025, "\u0120\u00e5\u00af": 5026, "\u0120\u00e3\u0122\u012c": 5027, "\u00b7\u00e0\u00b9\u012a\u00e0\u00b8\u0143\u00e0\u00b8": 5028, "\u00e0\u00a5\u012f\u00e0\u00a4\u00a5": 5029, "\u00d5\u00bf": 5030, "\u0120('": 5031, "\u00e0\u00a6\u00ab": 5032, "\u00a1\u00e0\u00b0\u00be": 5033, "\u0120inn": 5034, "app\u00e4\u00b8\u012d\u00e8\u00bd\u00bd": 5035, "pk10": 5036, "\u00d8\u00af\u00d8\u00b1": 5037, "\u00e0\u00a5\u012f\u00e0\u00a4\u00b0\u00e0\u00a5\u0122": 5038, "\u00e0\u00b1\u012f\u00e0\u00b0\u00a6": 5039, "\u00e0\u00a8\u00be": 5040, "\u0120vous": 5041, "\u00d0\u00be\u00d0\u00b2\u00d0\u00b0\u00d0\u00bd": 5042, "\u00cf\u0125\u00ce\u00b9": 5043, "\u00e5\u0130\u00bb": 5044, "\u0120th\u00e1\u00bb\u0125": 5045, "\u00e0\u00b9\u0126\u00e0\u00b8\u00a5": 5046, "\u0120Me": 5047, "\u00e0\u00ae\u00a9\u00e0\u00af\u012f\u00e0\u00ae\u00a9": 5048, "\u0120\u00e0\u00a4\u00b8\u00e0\u00a4\u00be\u00e0\u00a4": 5049, "ude": 5050, "\u00c3\u0143n": 5051, "ande": 5052, "\u00e7\u0141\u00a5": 5053, "\u0120\u00e0\u00b9\u0122": 5054, "\u0123\u00e0\u00b8\u00b2\u00e0\u00b8": 5055, "\u00e0\u00b1\u0129\u00e0\u00b0\u00a6": 5056, "AG": 5057, "\u00d8\u00b0\u00d9\u0129": 5058, "\u00e0\u00ae\u00aa\u00e0\u00af\u012f\u00e0\u00ae\u00aa\u00e0\u00ae\u0141\u00e0\u00af\u012f\u00e0\u00ae\u0141": 5059, "eler": 5060, "34": 5061, "\u00e5\u00a4\u0129": 5062, "\u00da\u00a9\u00db\u012e": 5063, "\u0120olar": 5064, "\u00e0\u00b0\u00be\u00e0\u00b0\u013e": 5065, "esso": 5066, "\u00eb\u00ac\u00b8": 5067, "uer": 5068, "\u0120\u00eb\u0124\u013a": 5069, "\u0120\u00d8\u00a7\u00d9\u0126\u00d8\u00b7": 5070, "\u0120\u00d8\u00a7\u00d8\u00b9": 5071, "\u0120sich": 5072, "\u0120....": 5073, "ral": 5074, "\u0120\u00d8\u00af\u00d8\u00b3\u00d8\u00aa": 5075, "\u00e0\u00a5\u012f\u00e0\u00a4\u00b2": 5076, "\u00c3\u0143ch": 5077, "\u00e0\u00b0\u00bf\u00e0\u00b0\u00ae": 5078, "edi": 5079, "\u0120\u00d7\u0133\u00d7\u00a9": 5080, "\u0120ye": 5081, "\u0120bas": 5082, "\u0120\u00e0\u00a6\u0128\u00e0\u00a6\u00b0": 5083, "\u00e7\u00a4\u00ba": 5084, "\u00d9\u012a\u00d8\u00a7": 5085, "\u00e0\u00ae\u013b\u00e0\u00af\u012f\u00e0\u00ae\u0137\u00e0\u00ae\u00b3\u00e0\u00af\u012f": 5086, "\u00e0\u00a7\u0129\u00e0\u00a7\u0141": 5087, "\u0120\u00c9\u013b": 5088, "\u0120\u00d8\u00af\u00db\u012e": 5089, "\u0120\u00e5\u012c": 5090, "\u00e5\u00bc\u0122\u00e6\u012a\u00b7": 5091, "\u0120Gi": 5092, "\u0120\u00d7\u0132\u00d7\u013e": 5093, "\u0120m\u00c3\u00a1": 5094, "\u0120\u00e7\u00a7": 5095, "\u00ec\u00a7\u0126": 5096, "\u00e8\u0125": 5097, "\u00d7\u00a8\u00d7\u013d": 5098, "\u0120\u00e0\u00b0\u00a4\u00e0\u00b1\u0128\u00e0\u00b0\u00b2": 5099, "\u00e3\u0125\u00a1": 5100, "\u0120Na": 5101, "\u00d9\u012d": 5102, "\u00e0\u00b0\u0124\u00e0\u00b0\u00a6\u00e0\u00b0\u00bf": 5103, "\u00e0\u00a6\u00be\u00e0\u00a6\u00b6": 5104, "ator": 5105, "\u00cf\u0126\u00ce\u00b1\u00ce\u00bd": 5106, "\u00e7\u00bb\u0135": 5107, "\u0120\u00e2\u0122\u013f.": 5108, "\u00e1\u0125\u0132\u00e1\u0125\u013e\u00e1\u0125\u013a": 5109, "\u00e1\u0125\u013a\u00e1\u0125\u013c\u00e1\u0125\u013a\u00e1\u0125\u00a1": 5110, "\u0120\u00d7\u0137\u00d7\u0132": 5111, "\u0120\u00d8\u00af\u00d8\u00a7\u00d8\u00b1": 5112, "75": 5113, "amo": 5114, "\u00e0\u00ae\u00b8": 5115, "\u0120div": 5116, "\u00e6\u0136\u00be": 5117, "\u00e9\u00a2\u013a": 5118, "\u00ec\u0137\u00bc": 5119, "\u00e0\u00a4\u00be\u00e0\u00a4\u0139": 5120, "____": 5121, "\u00e0\u00b1\u0124\u00e0\u00b0\u00b0": 5122, "\u00d1\u0125\u00d1\u0129": 5123, "\u00d0\u00bd\u00d0\u00b8\u00d0\u00ba": 5124, "\u0120\u00d1\u0123\u00d0\u00b2": 5125, "\u0120ce": 5126, "\u00a3\u00e1\u0125\u013c\u00e1\u0125\u013a": 5127, "ben": 5128, "\u00e0\u00a6\u00be\u00e0\u00a6\u00a6\u00e0\u00a7\u0129\u00e0\u00a6\u00b0": 5129, "\u00d0\u00b0\u00d0\u00b3": 5130, "\u00d9\u012c\u00d8\u00aa": 5131, "\u0120gj": 5132, "\u012056": 5133, "\u0120kt\u00c3\u00b3": 5134, "\u00e0\u00a6\u00b2\u00e0\u00a7\u0129": 5135, "\u00e3\u0123\u00be\u00e3\u0123\u0139\u00e3\u0123\u0141": 5136, "\u00e0\u00a4\u00be\u00e0\u00a4\u00b0\u00e0\u00a5\u0122": 5137, "\u00d8\u00b9\u00d9\u0126": 5138, "\u00e0\u00a4\u00be\u00e0\u00a4\u00aa": 5139, "\u00e1\u00bb\u0133i": 5140, "\u00e9\u0122\u012b": 5141, "do": 5142, "\u0120~": 5143, "\u00d8\u00ac\u00d9\u0127": 5144, "eck": 5145, "\u00e0\u00a4\u00bf\u00e0\u00a4\u00b5": 5146, "\u00b5\u013e": 5147, "inci": 5148, "\u0120\u00ec\u0139\u00ac": 5149, "\u00d6\u0126": 5150, "\u0120\u00eb\u00b2": 5151, "\u00d7\u013b\u00d7\u013c": 5152, "\u00e7\u00b2\u00be": 5153, "\u0120\u00e0\u00ae\u0137\u00e0\u00af\u0124": 5154, "\u00e7\u00a7\u0133": 5155, "\u00e7\u00ab\u012d": 5156, "\u00c5\u00bcy": 5157, "\u00e7\u012d": 5158, "\u0120\u00e0\u00b0\u0137\u00e0\u00b1\u012c": 5159, "\u00e3\u0123\u00ae\u00e3\u0123\u00a7": 5160, "\u00e8\u0126": 5161, "oj": 5162, "\u0120\u00ea\u00b1": 5163, "\u0120tim": 5164, "\u00e1\u0125\u0137\u00e1\u0125\u0136\u00e1\u0125": 5165, "\u0120\u00d0\u00b1\u00d1\u012d": 5166, "\u0120At": 5167, "\u00e0\u00b1\u012f\u00e0\u00b0\u00b2\u00e0\u00b1\u012d": 5168, "\u00d8\u00af\u00d9\u012c": 5169, "\u0120\u00d9\u0124\u00d8\u00b1": 5170, "365": 5171, "\u0120din": 5172, "\u0120Dr": 5173, "\u0120kter": 5174, "\u00d9\u0128\u00d8\u00af\u00d9\u0129": 5175, "\u0120\u00d5\u00b0": 5176, "\u00e1\u0125\u0132\u00e1\u0125\u0135\u00e1\u0125\u0134": 5177, "\u0120\u00c3\u00bc\u00c3\u00a7": 5178, "\u0120\u00d1\u0127": 5179, "lt": 5180, "\u0120buhok": 5181, "\u0120\u00e0\u00b0\u0127\u00e0\u00b0\u00a8": 5182, "\u00e1\u00ba\u00a9": 5183, "\u00a2\u00e0\u00b8\u013b\u00e0\u00b8": 5184, "\u0120\u00ec\u00a4\u0133": 5185, "\u0120\u00d8\u00a7\u00d8\u00a8": 5186, "\u00c3\u00bct": 5187, "org": 5188, "\u0120\u00d8\u00aa\u00d9\u0128": 5189, "fe": 5190, "iden": 5191, "\u00e5\u00b8\u0125": 5192, "\u0120come": 5193, "\u00e7\u0126\u00b6": 5194, "\u00ce\u00bb\u00ce\u00bf\u00ce\u00b3": 5195, "\u00d0\u00bd\u00d0\u00b0\u00d1\u0131": 5196, "\u0120\u00d9\u0126\u00d9\u0127": 5197, "\u0120prov": 5198, "\u0120\u00e0\u00a6\u00aa\u00e0\u00a7\u012f\u00e0\u00a6\u00b0\u00e0\u00a6\u00a4": 5199, "\u0120\u00c3\u013e": 5200, "\u0120dalam": 5201, "\u00d8\u00b4\u00d8\u00b1": 5202, "\u00e0\u00ae\u00bf\u00e0\u00ae\u00ae": 5203, "d\u00c4\u00b1": 5204, "\u00d7\u013d\u00d7\u013e": 5205, "\u0120\u00d0\u00bf\u00d1\u0122\u00d0\u00be": 5206, "\u0120\u00e0\u00ae\u0127\u00e0\u00ae\u00b0": 5207, "\u00e3\u0125\u00a3": 5208, "\u0120oldu": 5209, "\u00d0\u00b5\u00d0\u00b1": 5210, "\u00e0\u00a7\u0129\u00e0\u00a6\u00a4": 5211, "\u012042": 5212, "nych": 5213, "\u00e4\u00b8\u013e": 5214, "\u0120\u00ef\u00bf\u00bd\u00ef\u00bf\u00bd\u00ef\u00bf\u00bd\u00ef\u00bf\u00bd": 5215, "\u00e0\u00b4\u00be": 5216, "\u0120ti": 5217, "\u00e3\u0125\u0140": 5218, "\u0120\u00ec\u013f\u00bc": 5219, "ments": 5220, "\u00e0\u00a4\u00be\u00e0\u00a4\u00a8\u00e0\u00a5\u0129": 5221, "\u00ea\u00b3\u0126": 5222, "\u00cf\u0128\u00ce\u00bf": 5223, "\u0120Op": 5224, "\u00e0\u00b9\u0123\u00e0\u00b8\u00a5": 5225, "ote": 5226, "\u0120\u00e7\u013d": 5227, "\u00c3\u00bcrk": 5228, "ay\u00c4\u00b1": 5229, "\u0120kam": 5230, "\u00c9\u013bc": 5231, "\u00e3\u0123\u00a8\u00e3\u0123\u0126": 5232, "\u00e0\u00b0\u00b7": 5233, "\u0120resp": 5234, "\u00ce\u013d": 5235, "\u0120\u00ce\u013b": 5236, "\u0120\u00ce\u00b9": 5237, "\u00e6\u012a\u013a": 5238, "\u00e0\u00ae\u00b1\u00e0\u00af\u012f\u00e0\u00ae\u0137": 5239, "\u00e1\u0125\u0132\u00e1\u0125\u0142\u00e1\u0125\u013d": 5240, "\u00e1\u0125\u0136\u00e1\u0125\u00a5\u00e1\u0125\u00a2": 5241, "\u0120\u00e3\u0123\u0135": 5242, "\u0120Sie": 5243, "\u00e1\u0141": 5244, "\u0120\u00e0\u00a6\u013a": 5245, "car": 5246, "\u0120pan": 5247, "\u00e1\u0125\u0132\u00e1\u0125\u0142\u00e1\u0125\u0135": 5248, "\u00b5\u00e0\u00b8": 5249, "\u00ec\u00b9\u00b4": 5250, "\u0120pdf": 5251, "\u0120stud": 5252, "\u00c3\u00b9ng": 5253, "als": 5254, "\u0120one": 5255, "\u00ce\u0142": 5256, "rop": 5257, "\u00e1\u0125\u00a3\u00e1\u0125\u0139": 5258, "\u00e0\u00b8\u013b\u00e0\u00b8\u00b1": 5259, "iti": 5260, "\u00ea\u00b0\u0126": 5261, "\u0120\u00d7\u0140\u00d7\u00a2": 5262, "\u00e0\u00b9\u0125\u00e0\u00b8\u00ab\u00e0\u00b9\u012b": 5263, "\u0120kap": 5264, "itas": 5265, "\u00d5\u00a1\u00d6\u0122": 5266, "\u00e0\u00b0\u00be\u00e0\u00b0\u00a8\u00e0\u00b0\u00bf\u00e0\u00b0\u0137\u00e0\u00b0\u00bf": 5267, "\u00e5\u00bc\u0122\u00e5\u00a5\u0138": 5268, "\u0120Pa": 5269, "\u00ea\u00b9": 5270, "EC": 5271, "\u00c6\u00a1n": 5272, "\u00b3\u00db": 5273, "\u00e7\u00bc": 5274, "\u0120wer": 5275, "\u00ec\u00b9\u013a": 5276, "\u0120\u00eb\u00b6\u0122": 5277, "\u0120\u00e1\u0125\u00a6": 5278, "\u0120\u00e1\u0125\u013d\u00e1\u0125\u0132\u00e1\u0125\u0134": 5279, "\u0120\u00e0\u00a6\u00a7": 5280, "ci\u00c3\u00b3n": 5281, "\u00e0\u00b1\u0122\u00e0\u00b0\u00b8": 5282, "\u0120lu": 5283, "\u0120yer": 5284, "\u00e9\u00a1\u00b5": 5285, "\u0129\u00e0\u00b8\u00b4\u00e0\u00b8\u013b\u00e0\u00b8": 5286, "\u00e0\u00a6\u00bf\u00e0\u00a6\u00b6": 5287, "\u0120\u00e8\u00af": 5288, "\u0124\u00e0\u00b8\u00b2\u00e0\u00b8": 5289, "rz": 5290, "\u00e0\u00b0\u00be\u00e0\u00b0\u00b8": 5291, "\u0120\u00e1\u0125\u0142\u00e1\u0125\u013f\u00e1\u0125\u0134": 5292, "\u00e5\u00b1\u0122": 5293, "RO": 5294, "\u012057": 5295, "\u0120html": 5296, "\u0120\u00d9\u0129\u00d8\u00b0\u00d8\u00a7": 5297, "ible": 5298, "\u00e9\u0122\u0123": 5299, "\u00e8\u013b": 5300, "\u0120\u00e0\u00ae\u00ae\u00e0\u00af\u0123\u00e0\u00ae": 5301, "\u00e0\u00af\u012a\u00e0\u00ae\u00b5": 5302, "\u012f\u00e0\u00b8": 5303, "\u0120\u00ce\u00b5\u00cf\u0122\u00ce\u00b9": 5304, "\u00e8\u00a9": 5305, "\u00e0\u00a4\u00bf\u00e0\u00a4\u00b0": 5306, "\u0120avec": 5307, "\u0136\u00e0\u00b9\u012b\u00e0\u00b8\u00a7\u00e0\u00b8": 5308, "\u00e6\u013d\u00b4": 5309, "\u00d7\u0135\u00d7\u013b": 5310, "EM": 5311, "orte": 5312, "\u0120dei": 5313, "\u00e0\u00b0\u00be\u00e0\u00b0\u00af\u00e0\u00b0\u00bf": 5314, "\u00d9\u0125\u00d8\u00b1": 5315, "\u0120\u00c3\u00bcz": 5316, "\u0120blog": 5317, "\u012c\u00e9\u00be\u013b": 5318, "\u00d8\u00aa\u00d8\u00b5": 5319, "\u0120top": 5320, "\u00e6\u0124": 5321, "\u0120\u00e4\u00ba\u013c\u00e6\u00b8\u00b8\u00e9\u013d\u0128\u00e5\u013d\u00a2": 5322, "\u00ce\u00b4\u00ce\u00b1": 5323, "vent": 5324, "\u0123\u00e0\u00b8\u00b1\u00e0\u00b8\u013c\u00e0\u00b8": 5325, "\u00e6\u00ae": 5326, "\u0120Cont": 5327, "\u0120ich": 5328, "\u00e6\u0122\u00bb": 5329, "ques": 5330, "\u00d8\u00a7\u00d8\u00b1\u00d8\u00a9": 5331, "\u0120\u00d7\u0140\u00d7\u00a1": 5332, "\u00e1\u0125\u0142\u00e1\u0125\u0132\u00e1\u0125\u013d": 5333, "\u0120ag\u00e5\u013d\u00bd\u00e9\u013b\u0127": 5334, "rem": 5335, "\u00e8\u0122\u0123": 5336, "\u00e1\u0125\u0136\u00e1\u0125\u00aa": 5337, "\u00eb\u00a3": 5338, "px": 5339, "iej": 5340, "ely": 5341, "\u00d7\u00a8\u00d7\u0136": 5342, "\u0120\u00e0\u00a4\u00a8\u00e0\u00a4\u00b9\u00e0\u00a5\u0122\u00e0\u00a4\u0124": 5343, "\u00e1\u0125\u0136\u00e1\u0125\u0133\u00e1\u0125\u0132\u00e1\u0125\u00a1": 5344, "\u0120\u00d0\u00b2\u00d1\u0123": 5345, "\u00e0\u00b0\u00be\u00e0\u00b0\u00a1\u00e0\u00b1\u0123": 5346, "\u0126\u00e0\u00b8\u00a3": 5347, "\u00e1\u0125\u0136\u00e1\u0125\u0133\u00e1\u0125\u013c": 5348, "\u0120nak": 5349, "\u0120Is": 5350, "\u00e3\u0125\u00a5": 5351, "\u012053": 5352, "\u0120m\u00c3\u00a1s": 5353, "\u0120\u00e0\u00b0\u00ab": 5354, "\u0120c\u00c3\u00b4ng": 5355, "\u0120eff": 5356, "\u00ed\u0131\u00ac": 5357, "\u00e8\u0143": 5358, "98": 5359, "\u0120thu": 5360, "eta": 5361, "\u0120\u00d0\u00bf\u00d0\u00b5\u00d1\u0122": 5362, "\u00e3\u0123\u0126\u00e3\u0123\u00be\u00e3\u0123\u013b": 5363, "\u00e0\u00b8\u0143\u00e0\u00b8\u00a2\u00e0\u00b9\u012a\u00e0\u00b8\u00b2\u00e0\u00b8": 5364, "\u0106\u0107": 5365, "\u0120\u00da\u00a9\u00d8\u00b4": 5366, "\u0120\u00ef\u00bd": 5367, "\u0120\u00e0\u00b0\u00af": 5368, "ics": 5369, "\u0120\u00e0\u00a6\u0131\u00e0\u00a6\u00ac\u00e0\u00a6\u0124": 5370, "\u0120\u00d8\u00a7\u00d9\u0126\u00d9\u012a": 5371, "ject": 5372, "\u00cf\u0125\u00cf\u0126\u00ce\u00b5": 5373, "\u00e7\u0137\u012e": 5374, "64": 5375, "\u0120\u00ea\u00b3\u00b5": 5376, "\u0120b\u00e1\u00ba\u00a1n": 5377, "\u00e0\u00b8\u0143\u00e0\u00b8\u0143\u00e0\u00b8\u013b": 5378, "\u00e5\u00b8\u00b8": 5379, "\u0120hand": 5380, "\u00d8\u00a7\u00d9\u0127\u00d9\u0126": 5381, "\u00e0\u00b1\u0129\u00e0\u00b0\u00b6": 5382, "EW": 5383, "unu": 5384, "ior": 5385, "\u00ec\u00b6\u013e\u00ec\u0140\u00a5\u00ec\u0125\u00b5": 5386, "\u0120\u00eb\u00a7\u012a": 5387, "\u00ce\u00b7\u00cf\u0124": 5388, "\u00d8\u00a7\u00d8\u00b1\u00d9\u0129": 5389, "\u0120program": 5390, "\u00e6\u00a2": 5391, "ario": 5392, "\u00d9\u012a\u00d8\u00aa": 5393, "\u0120nam": 5394, "\u00e0\u00b1\u012f\u00e0\u00b0\u00b2\u00e0\u00b1\u0123": 5395, "\u0120\u00ec\u0125\u0123": 5396, "\u0120\u00d8\u00af\u00d8\u00a7\u00d9\u0128\u00d9\u0126\u00d9\u012a\u00d8\u00af": 5397, "\u00e0\u00af\u012f\u00e0\u00ae\u00a3": 5398, "\u0120Po": 5399, "\u0120sz": 5400, "\u0120\u00e0\u00b0\u00aa\u00e0\u00b1\u0128": 5401, "\u0120Reg": 5402, "\u0120s\u00e1\u00bb\u0133": 5403, "\u0120\u00e1\u0125\u00a1\u00e1\u0125\u0132\u00e1\u0125\u013b": 5404, "i\u00e1\u00bb\u0129t": 5405, "\u00c9\u013bz": 5406, "\u00e6\u00bb": 5407, "\u00a9\u00e0\u00b8": 5408, "plic": 5409, "rov": 5410, "\u0120ris": 5411, "\u00ce\u00bb\u00ce\u00bb\u00ce\u00ac": 5412, "\u00e0\u00b0\u0137\u00e0\u00b1\u012f\u00e0\u00b0\u00b7": 5413, "\u00e0\u00b1\u0125": 5414, "mente": 5415, "\u00d8\u00af\u00d8\u00a9": 5416, "ikk": 5417, "\u0120tidak": 5418, "\u00e0\u00af\u012f\u00e0\u00ae\u00a4\u00e0\u00af\u012f\u00e0\u00ae\u00a4": 5419, "\u00e0\u00b8\u0143\u00e0\u00b8\u0143\u00e0\u00b8\u013b\u00e0\u00b9\u0126\u00e0\u00b8\u00a5": 5420, "\u00e0\u00a6\u00a6\u00e0\u00a7\u012f\u00e0\u00a6": 5421, "\u00c5\u013d\u00c4\u0129": 5422, "ther": 5423, "raz": 5424, "\u00e5\u0140\u012d": 5425, "\u0120kn": 5426, "\u00c4\u013dt": 5427, "yk": 5428, "\u00e0\u00b1\u0123\u00e0\u00b0\u00a1\u00e0\u00b1\u0123": 5429, "\u00e6\u0122\u0130\u00e4\u00b9\u012a": 5430, "\u00e0\u00b0\u0124\u00e0\u00b0\u0139": 5431, "\u00e0\u00a6\u00a1": 5432, "\u0120doc": 5433, "\u0120\u00d0\u0135": 5434, "\u00e1\u00ba\u00bd": 5435, "\u0120\u00d7\u013e\u00d7\u00a2": 5436, "\u00e9\u013b\u0132": 5437, "\u0120\u00e5\u00a4\u00a9": 5438, "reat": 5439, "urop": 5440, "\u013b\u00e0\u00af\u012f\u00e0\u00ae\u0137": 5441, "\u00e5\u0132\u0133": 5442, "\u00e0\u00a4\u00ab": 5443, "\u0120\u00d7\u0133\u00d7\u00aa": 5444, "\u00cf\u0126\u00ce\u0143": 5445, "\u0120\u00d8\u00a7\u00db\u012e\u00d8\u00b1\u00d8\u00a7\u00d9\u0128": 5446, "\u00e0\u00b0\u00a4\u00e0\u00b1\u012f\u00e0\u00b0\u00a4": 5447, "\u0120\u00e1\u0125\u0139\u00e1\u0125\u00a3": 5448, "\u00e0\u00a4\u00be\u00e0\u00a4\u0137": 5449, "\u00a2\u00e0\u00b8\u00b2\u00e0\u00b8": 5450, "\u0120ot": 5451, "\u0120\u00d0\u0141\u00d1\u0122": 5452, "\u00d8\u00b2\u00db\u012e": 5453, "\u00e1\u0125\u0136\u00e1\u0125\u013f\u00e1\u0125\u0133": 5454, "ows": 5455, "\u0120hotel": 5456, "\u0120\u00d8\u00aa\u00d8\u00b5": 5457, "\u00d0\u0140": 5458, "IA": 5459, "\u0120tan": 5460, "\u0120\u00d7\u0136\u00d7\u00a7": 5461, "\u00e8\u00ba\u00ab": 5462, "nd": 5463, "\u00e9\u013e\u00b8": 5464, "\u00e0\u00b9\u0126\u00e0\u00b8\u013d": 5465, "\u00c3\u00a9t": 5466, "\u0120our": 5467, "\u00e0\u00b9\u0126\u00e0\u00b8\u013d\u00e0\u00b8": 5468, "\u00d0\u00bd\u00d0\u00b0": 5469, "\u00d0\u00b8\u00d1\u0129\u00d0\u00b5\u00d1\u0123\u00d0\u00ba": 5470, "\u00b7\u00e0\u00a7\u012f\u00e0\u00a6\u0141": 5471, "\u00e1\u0125\u00af": 5472, "\u0120\u00d8\u00a7\u00d9\u0128\u00d8\u00aa": 5473, "\u0120Col": 5474, "\u00e1\u00bb\u013bi": 5475, "\u00e0\u00a6\u0137\u00e0\u00a6\u00be\u00e0\u00a6\u00b0": 5476, "\u00e4\u00b8\u0143\u00e5\u013d\u00bd": 5477, "\u00e3\u0125\u012b": 5478, "\u00e0\u00b0\u00bf\u00e0\u00b0\u00b8": 5479, "iri": 5480, "\u0120\u00e0\u00b0\u013c\u00e0\u00b1\u0129\u00e0\u00b0\u00b8": 5481, "\u00e3\u0124\u00b5": 5482, "\u0120Di": 5483, "\u00e0\u00a6\u00a8\u00e0\u00a7\u0129": 5484, "ott": 5485, "\u0120\u00c3\u00b6z": 5486, "\u0120va": 5487, "\u0120\u00d7\u0136\u00d7\u0137\u00d7\u0132": 5488, "\u0120time": 5489, "\u00e1\u00bb\u012b": 5490, "\u00e4\u00b8\u0138": 5491, "\u0120\u00e0\u00b0\u00a1": 5492, "owe": 5493, "\u0120back": 5494, "\u0120lev": 5495, "\u0120So": 5496, "\u00ec\u013c\u00b0": 5497, "fin": 5498, "\u00e8\u00b1": 5499, "\u0120about": 5500, "\u0120num": 5501, "\u0120\u00e5\u00bf": 5502, "\u00c4\u00b1ndan": 5503, "\u00e8\u00a2\u00ab": 5504, "\u00e1\u0125\u0132\u00e1\u0125\u013d\u00e1\u0125\u0135": 5505, "\u00e5\u00ba\u0136": 5506, "\u00d8\u00b1\u00d8\u00b6": 5507, "apa": 5508, "iver": 5509, "\u0120hay": 5510, "\u0120bal": 5511, "mm": 5512, "\u0120\u00d9\u0125\u00d8\u00a7\u00d9\u0128": 5513, "\u0120\u00d9\u012a\u00d9\u0124": 5514, "\u0120pow": 5515, "\u00e0\u00ae\u00be\u00e0\u00ae\u00a3": 5516, "\u0120\u00e1\u0125\u0142\u00e1\u0125": 5517, "\u00d8\u00b3\u00d9\u012c": 5518, "\u0120Nh": 5519, "\u00cf\u0122\u00ce\u00bf\u00cf\u0127": 5520, "\u00ed\u0136\u0126": 5521, "\u00d5\u00b8\u00d6\u0124\u00d5\u00b4": 5522, "pg": 5523, "\u00e0\u00b1\u0123\u00e0\u00b0\u0124\u00e0\u00b0\u00a6\u00e0\u00b0\u00bf": 5524, "\u0120Do": 5525, "\u00e9\u0138\u0135": 5526, "ages": 5527, "\u00e6\u00ac\u00be": 5528, "val": 5529, "\u00e0\u00af\u0128\u00e0\u00ae\u00b0": 5530, "atie": 5531, "\u00e0\u00b1\u0122\u00e0\u00b0\u00b0": 5532, "ungen": 5533, "\u00ab\u00e0\u00b8\u00b2\u00e0\u00b8": 5534, "\u0120\u00d7\u0136\u00d7\u00a1": 5535, "\u012a\u00e0\u00b8\u00b2\u00e0\u00b8\u0123\u00e0\u00b8": 5536, "\u00e6\u0132": 5537, "\u0120\u00e0\u00b0\u00ae\u00e0\u00b0\u00b0": 5538, "\u0120\u00ec\u013e\u0126": 5539, "ating": 5540, "\u00d1\u0122\u00d0\u00b0\u00d0\u00bd": 5541, "imento": 5542, "\u0120\u00e2\u0122\u013f,": 5543, "\u00c4\u0141i": 5544, "\u00e1\u0125\u013a\u00e1\u0125\u0136\u00e1\u0125\u0142": 5545, "icos": 5546, "\u00e0\u00a6\u00be\u00e0\u00a6\u0141": 5547, "\u0120gratis": 5548, "\u00e7\u0131": 5549, "\u0120Ber": 5550, "95": 5551, "\u0120kun": 5552, "\u0120nos": 5553, "\u00ce\u00b5\u00cf\u0126\u00ce\u00b1\u00ce\u00b9": 5554, "\u00e4\u00bd\u0137": 5555, "\u00e6\u0125\u00b3": 5556, "iste": 5557, "\u0120\u00e5\u013d\u00bd": 5558, "\u00cf\u0126\u00ce\u00b9\u00ce\u00ba\u00cf\u012e": 5559, "\u00ab\u00e0\u00b8\u00a3\u00e0\u00b8": 5560, "\u0120\u00d8\u00a7": 5561, "\u00e9\u00a6\u0138": 5562, "ystem": 5563, "\u00e0\u00a6\u00bf\u00e0\u00a6\u0141": 5564, "\u0120\u00e0\u00a4\u0128\u00e0\u00a4\u00b9\u00e0\u00a5\u0129": 5565, "\u00d0\u00bd\u00d1\u012d\u00d0\u00bc": 5566, "cel": 5567, "ister": 5568, "\u0120Home": 5569, "\u00ce\u00bc\u00ce\u00b1\u00cf\u0126\u00ce\u00b1": 5570, "asan": 5571, "\u00c5\u0124y": 5572, "\u00e5\u0142\u00b4": 5573, "ags": 5574, "\u0120\u00e0\u00a7\u00a8\u00e0\u00a7\u00a6": 5575, "istr": 5576, "\u00e6\u00b8\u0127": 5577, "\u00ce\u013e": 5578, "\u0120\u00e7\u013b": 5579, "\u00e1\u0125\u0132\u00e1\u0125\u0137\u00e1\u0125\u013c": 5580, "\u00c4\u013bd": 5581, "\u00d9\u0126\u00d8\u00a7\u00d9\u0126": 5582, "\u012c\u00e0\u00b8\u00b2\u00e0\u00b8": 5583, "\u00e0\u00a6\u00be\u00e0\u00a6\u013c": 5584, "\u00e1\u0125\u0132\u00e1\u0125\u0137\u00e1\u0125\u00a1": 5585, "\u00ed\u0137\u013a\u00ea\u00b3\u0142": 5586, "\u00e0\u00b1\u012f\u00e0\u00b0\u0137": 5587, "\u00e0\u00a6\u00a8\u00e0\u00a7\u0129\u00e0\u00a6\u00b0": 5588, "\u0120akan": 5589, "chn": 5590, "\u0120\u00e0\u00ae\u00aa\u00e0\u00ae\u0141": 5591, "\u0120eine": 5592, "\u0120war": 5593, "\u00b9\u00db": 5594, "\u0120bisa": 5595, "\u0120n\u00c3\u0142y": 5596, "\u0120\u00ec\u013f\u013a": 5597, "\u0120\u00e5\u00b7": 5598, "\u0120()": 5599, "\u0120m\u00e1\u00bb": 5600, "icz": 5601, "ota": 5602, "\u0120t\u00e1\u00bb\u00ab": 5603, "ake": 5604, "\u0120\u00e8\u00ae": 5605, "\u0120\u00c5\u00bee": 5606, "\u0120\u00e0\u00b0\u0137\u00e0\u00b1\u012d": 5607, "\u0120\u00e0\u00b8\u0123\u00e0\u00b8": 5608, "\u00d7\u0137\u00d7\u013a": 5609, "\u0120\u00c5\u00bce": 5610, "\u0120pal": 5611, "var": 5612, "\u00e5\u0127\u012d": 5613, "\u0120\u00e1\u0125\u0135\u00e1\u0125\u0132\u00e1\u0125\u013d": 5614, "\u0120Her": 5615, "\u0120l\u00e1\u00bb": 5616, "\u0120cal": 5617, "\u0120\u00e0\u00b8\u0126\u00e0\u00b8": 5618, "\u00e8\u00bf\u0133": 5619, "\u00e4\u00ba\u013d": 5620, "\u0120\u00e1\u0125\u0132\u00e1\u0125\u0142\u00e1\u0125\u013a\u00e1\u0125\u00a1": 5621, "\u0120\u00e0\u00a4\u00b9\u00e0\u00a5\u0122": 5622, "\u00d0\u00bf\u00d1\u0122": 5623, "\u00d0\u00b5\u00d1\u0123\u00d1\u0124\u00d0\u00b2": 5624, "\u0120sist": 5625, "\u00e0\u00a6\u00be\u00e0\u00a7\u013e": 5626, "\u0137\u00e0\u00b8\u00b2\u00e0\u00b8": 5627, "48": 5628, "\u00e4\u00bc\u0123": 5629, "\u00e3\u0125\u0132": 5630, "\u0120\u00e4\u00ba\u00ba": 5631, "\u00e7\u0138": 5632, "\u0120\u00e0\u00a6\u00aa\u00e0\u00a6\u00be\u00e0\u00a6\u00b0": 5633, "d\u00c9\u013bn": 5634, "\u0120\u00e6\u013e\u012b": 5635, "\u0120\u00e8\u0129": 5636, "\u00e0\u00b4\u00be\u00e0\u00b4": 5637, "\u0120Anda": 5638, "\u00e1\u0125\u013a\u00e1\u0125\u00a3\u00e1\u0125\u0142": 5639, "\u0120\u00d8\u00b3\u00d8\u00b1": 5640, "\u0120\u00d1\u0124\u00d0\u00b0\u00d0\u00ba": 5641, "\u012041": 5642, "\u00e0\u00a7\u012f\u00e0\u00a6\u00a8": 5643, "\u0120port": 5644, "\u00e9\u0134\u0141": 5645, "\u0120\u00e1\u0125\u00a3\u00e1\u0125\u013e\u00e1\u0125\u0135\u00e1\u0125\u0132": 5646, "\u0120auch": 5647, "\u0120\u00e0\u00ae\u0141": 5648, "\u00e0\u00a6\u00bf\u00e0\u00a6\u00a4\u00e0\u00a7\u0129": 5649, "\u0120import": 5650, "\u0120\u00d7\u0136\u00d7\u013d": 5651, "\u0120\u00e1\u0125\u0139\u00e1\u0125\u00a5": 5652, "\u0120\u00d9\u0129\u00d9\u012a": 5653, "ownload": 5654, "\u00c4\u0127c": 5655, "\u00e0\u00a4\u00be\u00e0\u00a4\u012a": 5656, "\u00e5\u0141\u00ba": 5657, "cio": 5658, "edia": 5659, "\u0120\u00d8\u00a7\u00d9\u0126\u00d8\u00ab": 5660, "\u0120\u00d0\u00bf\u00d0\u00be\u00d0\u00bb": 5661, "\u0120Mod": 5662, "\u00e4\u00bb\u00bb": 5663, "\u00d5\u00ab\u00d5\u00b6": 5664, "\u0120\u00e0\u00a6\u012b\u00e0\u00a6\u00aa": 5665, "\u00e0\u00a4\u0137\u00e0\u00a4\u00b0": 5666, "\u0136\u00e0\u00b8\u00b5": 5667, "\u0137\u00e0\u00b8\u00b4\u00e0\u00b8": 5668, "\u00e0\u00b8\u0143\u00e0\u00b8\u013c\u00e0\u00b8": 5669, "\u0120\u00e0\u00a4\u012b\u00e0\u00a4\u00a8": 5670, "\u00e1\u0125\u0132\u00e1\u0125\u0142\u00e1\u0125\u0134": 5671, "\u00e0\u00a5\u0125": 5672, "iten": 5673, "\u00a2\u00e0\u00b9\u0122\u00e0\u00b8": 5674, "\u00e3\u0125\u0123": 5675, "\u00e5\u00a6\u0124": 5676, "\u00d8\u00ae\u00d8\u00aa": 5677, "\u00d9\u0123\u00d9\u012c": 5678, "\u00ce\u00ba\u00ce\u00bf": 5679, "\u0120tar": 5680, "\u00e0\u00a6\u00bf\u00e0\u00a6\u00ae": 5681, "imiz": 5682, "UN": 5683, "\u00d8\u00a7\u00d8\u00b1\u00d9\u012c": 5684, "\u0120bi": 5685, "\u0120\u00ed\u012e": 5686, "iki": 5687, "\u0120h\u00e1\u00bb\u012f": 5688, "\u00e9\u0142": 5689, "inal": 5690, "\u00e0\u00af\u012f\u00e0\u00ae\u00af": 5691, "\u00d0\u00bd\u00d0\u00b8": 5692, "\u00ec\u0126\u00b8": 5693, "\u00d5\u00ab\u00d5": 5694, "\u00c3\u00a1ng": 5695, "\u00ec\u0140\u0126": 5696, "\u0120\u00e0\u00a6\u013e\u00e0\u00a6\u00be\u00e0\u00a6\u00a8": 5697, "\u00d5\u00a5\u00d5\u00ac": 5698, "\u00e0\u00a6\u00be\u00e0\u00a6\u00a7": 5699, "\u0120Por": 5700, "\u0120\u00e1\u0125\u013d\u00e1\u0125\u00ae": 5701, "\u00d0\u00b5\u00d0\u00bf": 5702, "rist": 5703, "\u00d8\u00a7\u00d8\u00b1\u00d8\u00a7\u00d8\u00aa": 5704, "\u0120\u00ce\u0143\u00ce\u00bd\u00ce\u00b1": 5705, "\u0120\u00c3\u00bc\u00c3\u00a7\u00c3\u00bcn": 5706, "\u00cf\u0126\u00ce\u00b9\u00ce\u00ba\u00ce\u00ae": 5707, "\u0120\u00d7\u0133\u00d7\u0136": 5708, "mas\u00c4\u00b1": 5709, "\u00e5\u00b8\u012a": 5710, "\u00e0\u00a4\u00be\u00e0\u00a4\u0124\u00e0\u00a4\u013c": 5711, "\u00ce\u00b9\u00ce\u00ba\u00ce\u00ac": 5712, "\u00c3\u00a9ho": 5713, "\u012052": 5714, "\u0120Kar": 5715, "\u00e6\u0130\u0134": 5716, "\u00e3\u0123\u0124\u00e3\u0124\u012d": 5717, "\u0120bah": 5718, "\u00c3\u00a8s": 5719, "iye": 5720, "\u00e7\u00bb\u0141": 5721, "\u0120\u00e3\u0122\u0131": 5722, "\u0120add": 5723, "\u0120\u00e1\u0125\u0135\u00e1\u0125\u00a6": 5724, "\u00e0\u00b0\u00be\u00e0\u00b0\u00a1": 5725, "\u00d7\u0137\u00d7\u013b": 5726, "\u00ce\u00ba\u00cf\u012e": 5727, "\u0120IN": 5728, "\u00e8\u0123\u0136": 5729, "\u0120Min": 5730, "\u00e4\u00bc\u0142": 5731, "ulo": 5732, "\u00cf\u0126\u00ce\u00bf\u00cf\u0124": 5733, "\u0120\u00e0\u00ae\u0130\u00e0\u00ae\u00a9\u00e0\u00af\u012f\u00e0\u00ae\u00b1\u00e0\u00af\u0123": 5734, "\u00d1\u012d\u00d0\u00b5": 5735, "\u012a\u00e0\u00b8\u00b1\u00e0\u00b8": 5736, "\u00a3\u00c2": 5737, "\u0120\u00eb\u012f": 5738, "\u00e8\u00a8\u0122": 5739, "iva": 5740, "unda": 5741, "\u0120ide": 5742, "\u0120\u0105": 5743, "\u0120\u00d9\u012a\u00d9\u0127": 5744, "\u0120tal": 5745, "\u0120wo": 5746, "\u00ce\u00b7\u00ce\u00bd": 5747, "\u00ce\u00bb\u00ce\u0143": 5748, "\u00e0\u00b5\u0123\u00e0\u00b4": 5749, "\u00c4\u0125m": 5750, "l\u00c9\u013bri": 5751, "xx": 5752, "\u00e4\u00bd\u0142": 5753, "omm": 5754, "\u00e0\u00b1\u012f\u00e0\u00b0\u00a8\u00e0\u00b0\u00bf": 5755, "\u0120opt": 5756, "\u00ea\u00b3\u00b5": 5757, "ony": 5758, "\u0120\u00cf\u012e\u00cf\u0126\u00ce\u00b9": 5759, "\u0120\u00d9\u0127\u00d8\u00b7": 5760, "\u00c3\u013e": 5761, "\u0120rem": 5762, "\u00ce\u00bc\u00ce\u00b2": 5763, "\u00e0\u00ae\u00a4\u00e0\u00af\u012f": 5764, "lin": 5765, "orum": 5766, "ebook": 5767, "\u00e5\u00b0\u0131\u00e6\u00b8\u00b8\u00e6\u012a\u0131": 5768, "\u0120\u00d7\u0132\u00d7\u0137": 5769, "arch": 5770, "\u00ec\u013e\u0126": 5771, "\u0120site": 5772, "osa": 5773, "\u0120Bel": 5774, "\u0120\u00d7\u00a9\u00d7\u0132": 5775, "\u00e1\u0125\u00ae\u00e1\u0125\u013f\u00e1\u0125\u0137": 5776, "\u0120\u00e0\u00a4\u00a4\u00e0\u00a5\u012d": 5777, "\u0120li": 5778, "\u00d8\u00a7\u00d8\u00ab": 5779, "\u0120gu": 5780, "\u00e0\u00b1\u012f\u00e0\u00b0\u00a5": 5781, "\u00e6\u0142\u00b7": 5782, "\u00e4\u00bb\u0122": 5783, "\u0120plan": 5784, "zt": 5785, "\u0120\u00e1\u0125\u013d\u00e1\u0125\u013a\u00e1\u0125": 5786, "\u0120\u00e1\u0125\u00b0": 5787, "\u0120lib": 5788, "\u00e4\u00ba\u012b\u00e9\u013e\u00b8": 5789, "isch": 5790, "\u0120\u00db\u00b2": 5791, "\u00e0\u00a7\u00b0": 5792, "\u0120!!": 5793, "\u0120\u00e1\u0125\u00a9\u00e1\u0125\u0137\u00e1\u0125\u0136\u00e1\u0125\u013e": 5794, "\u00e1\u0125\u0132\u00e1\u0125\u0142\u00e1\u0125\u00a2": 5795, "\u00d0\u0142": 5796, "\u00ce\u00a5": 5797, "\u0120film": 5798, "\u00d1\u0128\u00d0\u00b8\u00d0\u00b8": 5799, "oth": 5800, "\u0134\u012a": 5801, "\u00e3\u0125\u012d": 5802, "\u00e0\u00a6\u013b\u00e0\u00a7\u012f\u00e0\u00a6\u0139": 5803, "\u00e1\u00bb\u0133c": 5804, "\u00e1\u0125\u0137\u00e1\u0125\u0132": 5805, "\u00d9\u0133\u00d9\u0130": 5806, "\u00e0\u00a5\u0123\u00e0\u00a4\u00b2": 5807, "\u0120Ha": 5808, "ants": 5809, "\u00d8\u00b5\u00d9\u0126": 5810, "\u0120let": 5811, "\u00e0\u00b9\u0122\u00e0\u00b8\u00a5": 5812, "\u00e8\u00bb": 5813, "\u0120gi\u00e1\u00bb": 5814, "\u0120\u00d0\u00ba\u00d0\u00b0\u00d0\u00ba": 5815, "\u00e0\u00ae\u00be\u00e0\u00ae\u00b1": 5816, "IR": 5817, "ational": 5818, "\u00db\u012e\u00d9\u0129": 5819, "vi": 5820, "la\u00c5\u0141": 5821, "\u0120\u00d7\u0136\u00d7\u0134": 5822, "\u0120Az\u00c9\u013brbaycan": 5823, "\u0120\u00ec\u0126\u013e": 5824, "\u0120dit": 5825, "\u0120hindi": 5826, "\u00d7\u0140\u00d7\u00a8": 5827, "\u00d8\u00b1\u00d8\u00b3": 5828, "\u0120\u00e0\u00ae\u0137\u00e0\u00ae\u0141": 5829, "ours": 5830, "\u00e4\u00be\u013d": 5831, "\u00e0\u00b9\u012a\u00e0\u00b8\u00a7": 5832, "\u0120dib": 5833, "\u0120Sam": 5834, "\u0120Jan": 5835, "ique": 5836, "\u0120khi": 5837, "\u01202007": 5838, "\u0120\u00e0\u00ae\u013c\u00e0\u00af\u012c": 5839, "\u0120\u00d8\u00a7\u00d8\u00ac": 5840, "\u0120pada": 5841, "\u0120\u00e5\u0143": 5842, "\u00d0\u00be\u00d1\u0124\u00d0\u00be\u00d1\u0122": 5843, "\u00e3\u0123\u013f": 5844, "oro": 5845, "\u00e5\u00a4\u00a7\u00e5\u0131\u0133": 5846, "\u00e5\u0130\u0141": 5847, "\u00eb\u00a7\u012a\u00ec\u0124\u00ac\u00ec\u00a7\u0122": 5848, "\u0120Les": 5849, "\u00ab\u00e0\u00b8\u00a1\u00e0\u00b8": 5850, "\u0120\u00e0\u00a6\u0137\u00e0\u00a6\u00b0\u00e0\u00a6\u00be": 5851, "\u00e0\u00b9\u0129\u00e0\u00b8\u0143\u00e0\u00b8": 5852, "\u00c3\u00a1p": 5853, "\u0120\u00c4\u0133\u00e1\u00ba\u00bfn": 5854, "\u0120\u00d7\u013e\u00d7\u00a9": 5855, "\u00e0\u00a7\u0129\u00e0\u00a6\u0135": 5856, "\u0120spec": 5857, "\u00e0\u00b9\u0125\u00e0\u00b8\u012c\u00e0\u00b9\u012b\u00e0\u00b8": 5858, "\u00ec\u00b6\u013e\u00ec\u0140\u00a5\u00ec\u0137\u012a\u00eb\u00a7\u012a": 5859, "\u0120Fl": 5860, "\u0120log": 5861, "elijk": 5862, "\u00e0\u00a6\u00be\u00e0\u00a6\u0123": 5863, "press": 5864, "\u013d\u00e0\u00b9\u0129\u00e0\u00b8\u013b": 5865, "\u0120\u00d9\u0125\u00d9\u0126": 5866, "\u0120\u00e0\u00b0\u00b8\u00e0\u00b0\u00ae": 5867, "\u00e5\u0127\u012a": 5868, "inden": 5869, "\u00e5\u00be\u012a": 5870, "\u00e2\u0122\u013b": 5871, "\u00d7\u0133\u00d7\u00a2": 5872, "\u00d5\u00a1\u00d6\u0122\u00d5": 5873, "\u0120pat": 5874, "\u012051": 5875, "esch": 5876, "elen": 5877, "\u00e6\u0138\u00af": 5878, "\u0137\u00e0\u00b9\u012a\u00e0\u00b8": 5879, "kin": 5880, "\u00e7\u0126\u00a1": 5881, "\u00ea\u00b4\u0122": 5882, "\u0120a\u00c3\u00a7": 5883, "\u00e0\u00b0\u00b6": 5884, "\u00e3\u0123\u0126\u00e3\u0123\u0141": 5885, "\u0120kont": 5886, "\u00e8\u00af\u0137": 5887, "\u0120\u00e0\u00b8\u0143\u00e0\u00b8": 5888, "\u00a2\u00e0\u00b8\u013b": 5889, "\u00c3\u00bcy": 5890, "enc": 5891, "\u00e4\u00b8\u0122\u00e4\u00b8\u00aa": 5892, "\u0120sono": 5893, "\u0120\u00ea\u00b9": 5894, "\u00e0\u00b0\u0139\u00e0\u00b0\u00be": 5895, "\u0120\u00e5\u00b8": 5896, "\u00e0\u00a7\u0129\u00e0\u00a6\u00ae": 5897, "\u00e0\u00af\u012a\u00e0\u00ae\u00af\u00e0\u00af\u0123\u00e0\u00ae\u00ae\u00e0\u00af\u012f": 5898, "ava": 5899, "\u00e5\u00a7\u0136": 5900, "ric": 5901, "\u0120say": 5902, "\u00ce\u00a9": 5903, "\u00e8\u00ae\u00b0": 5904, "\u0120bus": 5905, "\u0120\u00d8\u00a7\u00d8\u0143": 5906, "\u00d0\u00a1": 5907, "\u0120publ": 5908, "\u0120\u00d8\u00a7\u00d9\u0126\u00d9\u012c": 5909, "\u0120\u00e0\u00b6": 5910, "\u012075": 5911, "\u0120akt": 5912, "ody": 5913, "\u0120conc": 5914, "\u00e3\u0123\u00b0": 5915, "\u00ce\u00bb\u00ce\u00ac": 5916, "\u00e1\u0125\u00ab": 5917, "\u0120pok": 5918, "\u0120kol": 5919, "\u0120mis": 5920, "\u0120sobre": 5921, "\u0120You": 5922, "\u0120video": 5923, "\u00ea\u00b8\u012a": 5924, "\u00e1\u0125\u0132\u00e1\u0125\u0137\u00e1\u0125\u00a8": 5925, "\u00e5\u0131\u0139": 5926, "\u0120\u00e0\u00ae\u0129\u00e0\u00ae\u00a4": 5927, "\u00a7\u00e0\u00b8\u00b1\u00e0\u00b8": 5928, "--------": 5929, "\u0120\u00e1\u0125\u00ae\u00e1\u0125\u0136\u00e1\u0125\u013c": 5930, "\u00da\u00a9\u00d8\u00aa": 5931, "\u0120daha": 5932, "\u00e0\u00b9\u0122\u00e0\u00b8\u00a3\u00e0\u00b8": 5933, "\u0120\u00ec\u013d": 5934, "\u0120sab": 5935, "nia": 5936, "\u0120ste": 5937, "\u0120v\u00e1\u00bb\u0123": 5938, "\u00c5\u00a9ng": 5939, "\u012c\u00e0\u00b8\u00b1": 5940, "ebru": 5941, "\u0120Ser": 5942, "yg": 5943, "\u00eb\u0141\u00ac": 5944, "\u00e6\u00b1\u0124": 5945, "\u0120\u00eb\u0132": 5946, "\u00e0\u00a6\u00be\u00e0\u00a6\u0135": 5947, "\u00ed\u0137\u0142": 5948, "\u0120\u00ed\u0136": 5949, "\u0120\u00e0\u00a4\u00af\u00e0\u00a4\u00b9": 5950, "\u0120conf": 5951, "une": 5952, "\u00c3\u00a1d": 5953, "ikt": 5954, "\u00e0\u00a4\u00af\u00e0\u00a4\u00be": 5955, "\u00e1\u0125\u013f\u00e1\u0125\u0142\u00e1\u0125\u00aa": 5956, "IM": 5957, "\u00d8\u00a7\u00db\u012e\u00d8\u00aa": 5958, "\u0120\u00e1\u0125\u00a3\u00e1\u0125\u00a4": 5959, "\u0120\u00d8\u00ae\u00d9\u012a": 5960, "\u00c3\u00a1i": 5961, "\u00d7\u0135\u00d7\u00a8": 5962, "\u00e0\u00a7\u012f\u00e0\u00a6\u0137": 5963, "\u00cf\u0126\u00ce\u00b1\u00cf\u0124": 5964, "\u0120\u00d1\u012f\u00d1\u0124": 5965, "\u00e1\u0125\u013e\u00e1\u0125\u013a\u00e1\u0125\u00a1": 5966, "\u0120fo": 5967, "antes": 5968, "\u00e1\u00bb\u00a9c": 5969, "i\u00e1\u00ba\u00bfn": 5970, "\u00e8\u00a6\u012d": 5971, "\u00e1\u00ba\u0143p": 5972, "\u00e0\u00a6\u00bf\u00e0\u00a6\u00a6": 5973, "\u00d7\u0140\u00d7\u00aa": 5974, "\u00e0\u00af\u012a\u00e0\u00ae\u00aa\u00e0\u00af\u012f\u00e0\u00ae\u00aa": 5975, "\u00e5\u00b7\u00a5\u00e4\u00bd\u013e": 5976, "37": 5977, "\u00ec\u0140\u0127": 5978, "\u00db\u012e\u00d9\u0126": 5979, "\u00a1\u00c2": 5980, "\u0120cm": 5981, "\u0120\u00e1\u0125\u00a1\u00e1\u0125\u00a2": 5982, "\u00ec\u00a1\u00b0": 5983, "\u00d1\u012d\u00d0\u00b2": 5984, "\u0120\u00d0\u00b8\u00d0\u00bd": 5985, "67": 5986, "\u00cc\u0123": 5987, "\u00e5\u0127\u00b6": 5988, "\u00e3\u0124\u012a\u00e3\u0123\u0128": 5989, "\u0120\u00ce\u00a7": 5990, "\u0120neg": 5991, "\u00ed\u0138\u012b": 5992, "\u0120their": 5993, "\u00d0\u00b0\u00d0\u00bc\u00d0\u00b8": 5994, "\u0120ir": 5995, "\u0120dig": 5996, "\u00ce\u00bb\u00ce\u00ae": 5997, "\u00e0\u00b9\u012b\u00e0\u00b8\u0143\u00e0\u00b8\u0129": 5998, "\u0120\u00e6\u012c": 5999, "\u0120sek": 6000, "\u00c3\u00a8re": 6001, "\u00d0\u00b5\u00d0\u00b6": 6002, "\u0120\u00d7\u013e\u00d7\u00a4": 6003, "pert": 6004, "\u00d8\u00a7\u00d9\u0128\u00d9\u012c": 6005, "\u00e0\u00a7\u0129\u00e0\u00a6\u00ac": 6006, "\u0120mad": 6007, "ahr": 6008, "\u0120\u00e0\u00ae\u0127\u00e0\u00ae\u00ae": 6009, "lij": 6010, "sh": 6011, "\u0120\u00ce\u00ba\u00ce\u00ac": 6012, "\u00e9\u0139\u00ae": 6013, "\u00e1\u0125\u0142\u00e1\u0125\u013a\u00e1\u0125\u00a1": 6014, "\u00e0\u00b1\u012f\u00e0\u00b0\u00a1": 6015, "\u00e6\u0130\u00a8": 6016, "\u0120Ag": 6017, "97": 6018, "\u0120\u00d1\u0131": 6019, "\u0120\u00c3\u00b6n": 6020, "\u00ec\u0137\u00bd": 6021, "\u00e5\u0125": 6022, "obil": 6023, "\u00e0\u00ae\u00ae\u00e0\u00ae\u00be\u00e0\u00ae\u0137": 6024, "\u00e3\u0124\u00a6": 6025, "\u0120neb": 6026, "\u00d7\u0142\u00d7\u013b\u00d7\u013f": 6027, "\u0120Ge": 6028, "\u00e7\u013d\u0141": 6029, "\u00e6\u00b9": 6030, "\u00d9\u0125\u00d9\u0126": 6031, "\u0120p\u00c5\u013b\u00c3\u0143": 6032, "\u00e0\u00a5\u012f\u00e0\u00a4\u00aa": 6033, "\u00d8\u00a8\u00d8\u00a9": 6034, "\u0120Ac": 6035, "lass": 6036, "\u0120\u00e0\u00ae\u00aa\u00e0\u00ae\u00bf\u00e0\u00ae\u00b0": 6037, "itu": 6038, "\u0120l\u00c3\u0142m": 6039, "\u00e0\u00b8\u00b2\u00e0\u00b8\u00a3\u00e0\u00b8": 6040, "\u0120dell": 6041, "\u0120\u00e1\u00bb\u0141": 6042, "\u00e6\u00a5\u0143": 6043, "\u00c3\u0129": 6044, "\u00e0\u00a4\u00b9\u00e0\u00a4\u00be": 6045, "\u00e6\u00b0\u0139": 6046, "\u00d8\u00b4\u00d9\u0128": 6047, "\u00e5\u00af\u00bc": 6048, "\u00e3\u0125\u00bc\u00e3\u0124\u00b9": 6049, "enza": 6050, "\u00e0\u00b9\u012b\u00e0\u00b8\u00a7": 6051, "\u00e0\u00a5\u0129\u00e0\u00a4\u0141": 6052, "\u00b7\u00e0\u00b9\u012a\u00e0\u00b8\u0143\u00e0\u00b8\u0129\u00e0\u00b8": 6053, "ogle": 6054, "\u00eb\u00aa\u0127": 6055, "\u00e0\u00b8\u00a3\u00e0\u00b8\u00b2\u00e0\u00b8\u0126": 6056, "\u00d9\u012a\u00d9\u012c": 6057, "\u0120\u00c3\u0139": 6058, "\u00d8\u00a8\u00d8\u00aa": 6059, "m\u00c4\u00b1\u00c5\u0141": 6060, "\u0120\u00d1\u0123\u00d0\u00bb": 6061, "\u0120\u00ed\u0128": 6062, "\u00e5\u012a\u0128\u00e5\u00bf\u00ab3": 6063, "\u00e9\u013f\u0140": 6064, "oria": 6065, "\u0120sul": 6066, "\u0120\u00e2\u0136": 6067, "ster": 6068, "\u00e6\u012c\u0137\u00e6\u00b3\u00a8": 6069, "\u0120\u00d9\u012a\u00d9\u0129": 6070, "\u00e7\u00a7\u012f": 6071, "aten": 6072, "\u00e3\u0123\u00a8\u00e3\u0123\u0126\u00e3\u0123\u0128": 6073, "\u00e6\u012b\u0135": 6074, "asjon": 6075, "\u0120\u00ec\u0137\u012a": 6076, "\u0120\u00cf\u0122\u00ce\u00bf\u00ce\u00bb": 6077, "\u00e3\u0123\u00ab\u00e3\u0123\u00aa": 6078, "\u0120News": 6079, "\u00d1\u0127\u00d0\u00be\u00d0\u00b4": 6080, "\u0120Gen": 6081, "\u00e0\u00ae\u00bf\u00e0\u00ae\u00b1\u00e0\u00ae\u00a4\u00e0\u00af\u0123": 6082, "\u00e5\u0127\u012b": 6083, "\u0120\u00e6\u00b2": 6084, "\u00e1\u0125\u013f\u00e1\u0125\u013b": 6085, "\u00d0\u00b4\u00d0\u00b0": 6086, "\u00e0\u00a5\u012f\u00e0\u00a4\u0137": 6087, "\u00d8\u00a7\u00db\u012e\u00d8\u00b4": 6088, "58": 6089, "str": 6090, "\u0120\u00e1\u0125\u013d\u00e1\u0125\u0139": 6091, "\u00e0\u00b9\u0125\u00e0\u00b8\u00ab\u00e0\u00b8": 6092, "\u00e1\u00ba\u00a5y": 6093, "\u0120pi\u00c3\u00b9": 6094, "\u00cf\u0129\u00ce\u00b5": 6095, "\u0120product": 6096, "\u0120vel": 6097, "\u0120\u00d7\u0133\u00d7\u00a8": 6098, "\u0120they": 6099, "\u00d9\u012a\u00d8\u00ac": 6100, "\u00d8\u00b9\u00d9\u0129": 6101, "\u0120\u00e4\u00bd\u0128": 6102, "ateg": 6103, "\u0120\u00d8\u00a7\u00d9\u012c": 6104, "\u00e0\u00a7\u012f\u00e0\u00a6\u013c": 6105, "\u00e1\u0125\u0132\u00e1\u0125\u0140": 6106, "\u00c3\u0125": 6107, "\u0120\u00e4\u00b8\u012c": 6108, "\u00d1\u0125\u00d0\u00bf": 6109, "\u00ed\u0137\u013b": 6110, "\u0120Sup": 6111, "\u00d8\u00a7\u00db\u012e\u00d8\u00af": 6112, "\u0120This": 6113, "\u00a1\u00e0\u00b8\u0140\u00e0\u00b8": 6114, "\u00cf\u012f\u00ce\u00bd": 6115, "\u00ea\u00b2\u00bd": 6116, "\u00e3\u0125\u00bc\u00e3\u0125\u00ab": 6117, "\u00e5\u012a\u0128\u00e9\u0134\u0141": 6118, "\u00e1\u0125\u013f\u00e1\u0125\u0142\u00e1\u0125\u013d": 6119, "\u0120ao": 6120, "\u0120\u00d8\u00a7\u00d9\u0124": 6121, "\u00e0\u00a5\u012f\u00e0\u00a4\u00b8": 6122, "\u00e3\u0123\u0124\u00e3\u0124\u012c": 6123, "\u0120t\u00e1\u00ba\u00a1i": 6124, "\u00d0\u0132": 6125, "ady": 6126, "\u00e0\u00a7\u0129\u00e0\u00a6\u013d\u00e0\u00a7\u0129\u00e0\u00a6\u00a8": 6127, "\u00e3\u0123\u0137\u00e3\u0124\u012e": 6128, "anti": 6129, "\u00d7\u013e\u00d7\u013b": 6130, "ender": 6131, "\u0120\u00d8\u00a7\u00d8\u00aa": 6132, "\u0120Vide": 6133, "\u0120\u00e0\u00ae\u013e": 6134, "\u0120\u00d9\u012a\u00d8\u00a8": 6135, "\u00e8\u00bf\u013a": 6136, "\u00e8\u0133": 6137, "ello": 6138, "\u0126\u00e0\u00b8\u00b8\u00e0\u00b8\u0135\u00e0\u00b8": 6139, "lem": 6140, "elf": 6141, "\u0120Jul": 6142, "\u0120\u00ce\u00b5\u00ce\u00be": 6143, "atch": 6144, "\u00e5\u012a\u0139": 6145, "\u00cf\u0125\u00ce\u00bf": 6146, "\u0120Red": 6147, "\u0120util": 6148, "\u00db\u0137": 6149, "irt": 6150, "\u0120\u00ec\u00a1\u00b0": 6151, "\u0120\u00e1\u0125\u013b\u00e1\u0125\u013f\u00e1\u0125\u013d": 6152, "put": 6153, "\u00a6\u0124": 6154, "\u0120gia": 6155, "\u0120\u00e5\u00b0\u012c\u00e9\u00be\u013b": 6156, "\u00d8\u00a7\u00d9\u0126\u00d9\u0127": 6157, "\u0120\u00e6\u013e\u0122": 6158, "ites": 6159, "\u0120\u00e4\u00bb\u0138": 6160, "itar": 6161, "\u0120ito": 6162, "\u0120\u00e0\u00b0\u00aa\u00e0\u00b0\u00b0": 6163, "\u00e8\u00b6\u00b3": 6164, "\u00e0\u00a4\u0124\u00e0\u00a4\u0139": 6165, "otos": 6166, "\u00e0\u00a6\u00b0\u00e0\u00a7\u012f\u00e0\u00a6\u00ac": 6167, "\u0120Mo": 6168, "\u0120atau": 6169, "omo": 6170, "\u00e0\u00ae\u00aa\u00e0\u00af\u012f": 6171, "\u0120\u00e4\u00bb\u012c": 6172, "\u00e5\u0123\u013c": 6173, "inn": 6174, "\u00e0\u00a4\u00be\u00e0\u00a4\u0129": 6175, "\u0120kur": 6176, "\u00ce\u0141\u00ce\u00a5": 6177, "\u00d7\u0137\u00d7\u0136": 6178, "\u0120ont": 6179, "\u0120air": 6180, "\u00ce\u00bf\u00cf\u0127\u00ce\u00bc\u00ce\u00b5": 6181, "\u00e5\u0126": 6182, "\u0120II": 6183, "szy": 6184, "\u00e7\u013e\u0123": 6185, "ious": 6186, "\u0120c\u00e1\u00ba\u00a3": 6187, "\u00b1\u00e0\u00b9\u012b\u00e0\u00b8\u0129\u00e0\u00b8": 6188, "\u0120\u00e9\u013f": 6189, "udi": 6190, "\u0120ya\u00c5\u0141": 6191, "\u0120bed": 6192, "\u0120tit": 6193, "\u00cf\u0123\u00ce\u00ae": 6194, "\u0120\u00e6\u00b0": 6195, "\u00ef\u00bb": 6196, "\u0120Mon": 6197, "\u0120\u00e0\u00b0\u0137\u00e0\u00b1\u0124\u00e0\u00b0": 6198, "\u00e0\u00b9\u0126\u00e0\u00b8\u0139\u00e0\u00b8\u00a2": 6199, "\u0120\u00e1\u0125\u013d\u00e1\u0125\u0132\u00e1\u0125\u0139": 6200, "\u0120\u00ea\u00b5\u00ac": 6201, "esse": 6202, "\u0120\u00ec\u00b9\u00b4\u00ec\u00a7\u0122\u00eb\u0127\u00b8": 6203, "\u00e0\u00b8\u0143\u00e0\u00b8\u00a2\u00e0\u00b8\u00b9": 6204, "\u00e4\u00bb\u00b7": 6205, "\u0120tek": 6206, "\u0120Kom": 6207, "==": 6208, "\u00ec\u00a6": 6209, "\u0120cel": 6210, "\u00ce\u00b5\u00cf\u0127": 6211, "icle": 6212, "\u00d7\u0137\u00d7\u0140\u00d7": 6213, "\u0120\u00d8\u00ac\u00d9\u0129": 6214, "\u0120bak": 6215, "\u0120Ed": 6216, "\u00cf\u0125\u00cf\u0126": 6217, "iner": 6218, "\u0120\u00d8\u00af\u00d9\u012a": 6219, "\u00c9\u013bf": 6220, "\u00d9\u012d\u00d8\u00a7": 6221, "\u0142\u00e0\u00b8": 6222, "\u00e0\u00b9\u0124\u00e0\u00b8\u00a3\u00e0\u00b8": 6223, "irst": 6224, "\u0120Nam": 6225, "\u0120\u00d9\u012a\u00db\u012e": 6226, "\u00d9\u012c\u00d8\u00b2": 6227, "\u00e1\u0125\u0135\u00e1\u0125\u0136\u00e1\u0125\u0134": 6228, "\u00e6\u0123\u00af": 6229, "\u0120\u00e1\u0125\u00a1\u00e1\u0125\u0132\u00e1\u0125\u00a5\u00e1\u0125\u0132\u00e1\u0125\u0142\u00e1\u0125\u0139\u00e1\u0125\u0137\u00e1\u0125\u0136\u00e1\u0125\u013c\u00e1\u0125\u013f\u00e1\u0125\u00a1": 6230, "\u00d8\u00b3\u00d8\u00aa\u00d8\u00a7\u00d9\u0128": 6231, "lav": 6232, "\u00d8\u00b4\u00d8\u00a7\u00d8\u00b1": 6233, "\u00e0\u00b8\u0143\u00e0\u00b9\u0122\u00e0\u00b8": 6234, "69": 6235, "\u00d8\u0143\u00d8\u00a9": 6236, "\u0120\u00d8\u00a8\u00d9\u0126": 6237, "\u00e1\u0125\u0135\u00e1\u0125\u0136\u00e1\u0125\u0133\u00e1\u0125\u0132": 6238, "\u0120T\u00c3\u00bcrk": 6239, "\u0120Mil": 6240, "\u0120\u00eb\u0135\u00b1": 6241, "\u00e8\u00ae\u00ba": 6242, "\u0120\u00e0\u00a4\u0127\u00e0\u00a4\u00b8": 6243, "\u0120\u00e0\u00ae\u00aa\u00e0\u00ae\u00be\u00e0\u00ae\u00b0": 6244, "\u00e3\u0125\u0138": 6245, "erc": 6246, "\u00d7\u0137\u00d7\u0142\u00d7\u0136": 6247, "\u00ed\u0123": 6248, "\u00e3\u0124\u0143": 6249, "alis": 6250, "\u0120Cent": 6251, "\u0120\u00d7\u013e\u00d7\u0133": 6252, "\u0120\u00e0\u00b0\u00b2\u00e0\u00b1\u012d": 6253, "\u00e0\u00b8\u00a3\u00e0\u00b8\u00a7\u00e0\u00b8": 6254, "ates": 6255, "n\u00c3\u00a1": 6256, "\u0120org": 6257, "39": 6258, "\u0120\u00e0\u00ae\u0129\u00e0\u00ae\u00b0\u00e0\u00af\u0123\u00e0\u00ae\u0137\u00e0\u00af\u012f\u00e0\u00ae\u0137": 6259, "\u00e7\u00a9\u00ba": 6260, "\u00e3\u0123\u0126\u00e3\u0123\u00a6": 6261, "\u0120compl": 6262, "\u0120\u00c2\u00bb.": 6263, "\u0120\u00e0\u00ae\u00b5\u00e0\u00ae\u00be\u00e0\u00ae": 6264, "\u0120\u00e0\u00a6\u00a4\u00e0\u00a6\u00bf\u00e0\u00a6\u00a8": 6265, "\u00e6\u012e\u0129": 6266, "\u0120\u00ef\u00bc\u013d": 6267, "oli": 6268, "\u0120\u00e7\u013e\u0141": 6269, "\u0120hat": 6270, "\u0120300": 6271, "\u0120\u00e8\u00b5": 6272, "dag": 6273, "iment": 6274, "\u00b1\u00e0\u00b9\u012b\u00e0\u00b8\u0129": 6275, "\u00e6\u00b0\u0136": 6276, "\u0120\u00c5\u013d": 6277, "\u0120like": 6278, "\u0120tip": 6279, "\u0120itu": 6280, "\u0120\u00e5\u00a4\u00a7\u00e5\u0131\u0133\u00e5\u00bf\u00ab\u00e4\u00b8\u012b": 6281, "\u0120\u00e5\u012a\u0128": 6282, "\u0120s\u00e1\u00ba\u00bd": 6283, "\u00e0\u00a6\u00b0\u00e0\u00a6\u00be": 6284, "\u00e1\u00ba\u00b1": 6285, "\u00e6\u013e\u00af": 6286, "cm": 6287, "\u00ce\u00b5\u00ce\u00b9\u00ce\u00b1": 6288, "\u00e0\u00b8\u0143\u00e0\u00b8\u0143\u00e0\u00b8": 6289, "\u0120\u00e0\u00ae\u00aa\u00e0\u00af\u012c": 6290, "\u00ec\u0139\u0143": 6291, "lk": 6292, "\u0120dapat": 6293, "\u00e3\u0124\u012f": 6294, "\u00e0\u00b9\u0123\u00e0\u00b8\u00a3\u00e0\u00b8": 6295, "\u0120also": 6296, "\u00d9\u0125\u00d9\u012a\u00d9\u0128": 6297, "owy": 6298, "\u00e3\u0125\u0129": 6299, "\u0120hist": 6300, "ling": 6301, "\u00d1\u012d\u00d0\u00b9": 6302, "\u00c9\u013bq": 6303, "\u0120diff": 6304, "rar": 6305, "\u00e0\u00b9\u0123\u00e0\u00b8\u013c\u00e0\u00b8": 6306, "vert": 6307, "ova": 6308, "\u0120ook": 6309, "\u0120\u00e0\u00a4\u0137\u00e0\u00a4\u00be\u00e0\u00a4\u00b0": 6310, "\u00d7\u00a9\u00d7\u0136": 6311, "\u0120\u00d8\u00a7\u00d9\u0126\u00d9\u0126": 6312, "\u00e5\u0133\u012c": 6313, "\u0120\u00d5\u00a7": 6314, "\u00ed\u0136\u00bc": 6315, "\u00e0\u00a4\u0137\u00e0\u00a5\u0122": 6316, "\u00ce\u0143\u00cf\u0123": 6317, "\u0120ru": 6318, "\u0120\u00d1\u0128": 6319, "\u0120\u00d8\u00b1\u00d9\u012a\u00d8\u00b2": 6320, "\u0120\u00d0\u00b7\u00d0\u00b0": 6321, "\u0120\u00c2\u00b2": 6322, "\u0120gener": 6323, "\u00e7\u00a2": 6324, "\u00e7\u00a1": 6325, "\u0120San": 6326, "\u0120gi\u00c3\u00a1": 6327, "\u00e0\u00b8\u0143\u00e0\u00b8\u0143\u00e0\u00b8\u013b\u00e0\u00b9\u0126\u00e0\u00b8\u00a5\u00e0\u00b8\u013b\u00e0\u00b9\u012e": 6328, "\u0120door": 6329, "\u00c5\u00a1t": 6330, "\u0120problem": 6331, "i\u00e1\u00bb\u0129u": 6332, "\u0120sie": 6333, "\u0120mom": 6334, "\u00d5\u00a8": 6335, "\u00e5\u00bc\u00ba": 6336, "\u00c3\u00aau": 6337, "\u00e1\u0125\u0136\u00e1\u0125\u013b": 6338, "\u0120\u00d7\u0136\u00d7\u0136": 6339, "\u0120pm": 6340, "\u0120\u00ce\u013d": 6341, "\u00e6\u013e\u0122\u00e6\u0138\u00b0": 6342, "\u0120\u00e0\u00a4\u00ae\u00e0\u00a4\u00b9": 6343, "\u0120\u00e0\u00ae\u00a8\u00e0\u00af\u0122": 6344, "\u00e1\u0125\u013a\u00e1\u0125\u013e\u00e1\u0125\u0132": 6345, "\u0120\u00ce\u00a6": 6346, "\u00e0\u00b8\u00b5\u00e0\u00b9\u012a\u00e0\u00b8": 6347, "\u0120\u00d7\u0140\u00d7\u00a7": 6348, "\u0120false": 6349, "ply": 6350, "\u00d1\u0125\u00d0\u00b1": 6351, "\u0120\u00e1\u0125\u013d\u00e1\u0125\u0132\u00e1\u0125\u00a1": 6352, "\u0120yar": 6353, "\u00ce\u00ac\u00ce\u00bb": 6354, "ident": 6355, "\u0120!!!": 6356, "\u0120social": 6357, "\u00e0\u00ae\u013c\u00e0\u00af\u012f\u00e0\u00ae\u013c": 6358, "\u0120\u00d0\u00bf\u00d1\u0122\u00d0\u00b5\u00d0\u00b4": 6359, "\u00d0\u00b8\u00d1\u0124\u00d0\u00b5\u00d0\u00bb\u00d1\u012e": 6360, "\u00e1\u0125\u0137\u00e1\u0125\u013a\u00e1\u0125\u0139": 6361, "ever": 6362, "\u0120dir": 6363, "\u00d8\u00a7\u00d8\u00a9": 6364, "\u00e7\u00be\u00a4": 6365, "\u0120\u00e0\u00a6\u013e\u00e0\u00a6\u00a8\u00e0\u00a7\u012f\u00e0\u00a6\u00af": 6366, "tern": 6367, "\u00ec\u00b6\u0136": 6368, "\u0120\u00e0\u00b8\u0137": 6369, "\u0120beg": 6370, "\u00e0\u00a5\u0129\u00e0\u00a4\u00b5": 6371, "\u0120pin": 6372, "\u0120d\u00e1\u00bb\u00a5": 6373, "\u0120gam": 6374, "czy": 6375, "cha": 6376, "\u00e0\u00a7\u012a": 6377, "\u00e0\u00b1\u0129\u00e0\u00b0\u00b8": 6378, "\u0120\u00e0\u00ae\u0137\u00e0\u00af\u0123\u00e0\u00ae\u00b1": 6379, "\u0120\u00e1\u0125\u013d\u00e1\u0125\u013f\u00e1\u0125\u013d": 6380, "\u00cf\u0126\u00ce\u00b9\u00ce\u00ba\u00ce\u00ac": 6381, "\u0120\u00e1\u0125\u00a1\u00e1\u0125\u0132\u00e1\u0125\u00a1": 6382, "\u00e0\u00ae\u00bf\u00e0\u00ae\u00b0\u00e0\u00af\u0123\u00e0\u00ae\u00a8\u00e0\u00af\u012f\u00e0\u00ae\u00a4": 6383, "Id": 6384, "\u00d9\u0127\u00d8\u00a7\u00d9\u0126": 6385, "\u0120\u00ec\u012c\u00a4": 6386, "\u0120\u00e6\u00b1": 6387, "\u00e0\u00b0\u0124\u00e0\u00b0\u013c": 6388, "\u00e5\u00a9": 6389, "\u00d0\u00b5\u00d0\u00ba\u00d1\u0124": 6390, "an\u00c4\u00b1n": 6391, "\u0120partic": 6392, "\u00e0\u00a6\u00ac\u00e0\u00a6\u00be\u00e0\u00a6\u00b0": 6393, "\u00ea\u00b2\u00a9": 6394, "\u00e8\u00a7\u0124\u00e7\u013e\u012d": 6395, "\u00db\u012e\u00da\u00a9": 6396, "\u00d9\u012a\u00d9\u0123": 6397, "\u0120produk": 6398, "In": 6399, "\u00eb\u0132\u013a": 6400, "\u00ce\u00bb\u00ce\u00af": 6401, "\u00ce\u00b1\u00cf\u0123": 6402, "\u0120n\u00c3\u00b3": 6403, "\u00ec\u013a\u0123": 6404, "\u00e8\u00af\u00b7": 6405, "\u00e4\u00bb\u0122\u00e4\u00b9\u012a": 6406, "\u00ed\u0134\u012a": 6407, "\u0120deg": 6408, "\u0120which": 6409, "\u0120peng": 6410, "\u00e0\u00af\u012f\u00e0\u00ae\u00a8\u00e0\u00af\u012f\u00e0\u00ae\u00a4": 6411, "\u00d9\u0128\u00d9\u0129": 6412, "\u0120\u00d8\u00b4\u00d9\u012a\u00d8\u00af": 6413, "\u00e6\u0136\u00b6": 6414, "ING": 6415, "\u00e5\u00b7\u00b2": 6416, "\u00e0\u00b0\u00be\u00e0\u00b0\u00aa": 6417, "\u0120\u00e1\u0125\u013b\u00e1\u0125\u013a": 6418, "\u0120wid": 6419, "\u00d8\u00aa\u00d8\u00a7\u00d8\u00a8": 6420, "\u0120\u00ec\u0140\u012a\u00eb\u012d\u00a4": 6421, "\u00e6\u012a\u00bf": 6422, "\u00ef\u00ba": 6423, "\u00e0\u00a6\u00a8\u00e0\u00a6\u00be": 6424, "\u0120s\u00c3\u00b6": 6425, "ser": 6426, "\u0120\u00e0\u00ae\u00a4\u00e0\u00ae\u00ae": 6427, "\u013e\u00e0\u00b8\u00b9\u00e0\u00b9\u012b\u00e0\u00b8": 6428, "\u00d8\u00a7\u00d8\u00af\u00db\u012e": 6429, "\u0120\u00d8\u00a8\u00d9\u012c\u00d9\u0128": 6430, "\u00e0\u00a6\u00b8\u00e0\u00a7\u012f\u00e0\u00a6\u00a5": 6431, "\u0120\u00ec\u0128\u012e": 6432, "\u0120tur": 6433, "\u0120\u00e6\u0140\u0123\u00e9\u0122\u0141": 6434, "\u00ce\u00bc\u00ce\u00b7": 6435, "\u00e0\u00a7\u0129\u00e0\u00a6\u00b8": 6436, "\u00e5\u0136": 6437, "\u0120\u00ce\u00b5\u00ce\u00af": 6438, "\u0120Web": 6439, "angg": 6440, "\u0120nh\u00c3\u0142": 6441, "\u00e0\u00a4\u0124\u00e0\u00a4\u00a6": 6442, "\u0120b\u00c3\u00b6": 6443, "\u00e6\u00b1\u0141": 6444, "\u00e6\u00b2\u00bb": 6445, "\u0120\u00d8\u0143\u00d8\u00a7\u00d9\u0126": 6446, "\u00e9\u00a3\u0140": 6447, "\u0120halam": 6448, "n\u00c3\u00bd": 6449, "\u00c3\u00b2ng": 6450, "\u0120\u00c4\u0133\u00c3\u00b3": 6451, "\u0120etm": 6452, "\u012088": 6453, "\u0120\u00e4\u00bb\u00a5": 6454, "\u0120\").": 6455, "\u0120Si": 6456, "\u0120\u00e0\u00b8\u00a5\u00e0\u00b8": 6457, "\u00e1\u00bb\u0123": 6458, "\u00e6\u012d\u013d": 6459, "\u00e7\u0139": 6460, "\u00e1\u0122\u00b9": 6461, "\u00e0\u00b0\u00be\u00e0\u00b0\u00ac": 6462, "\u0120nap": 6463, "\u0120pros": 6464, "\u0120\u00e6\u0137": 6465, "\u0120\u00d9\u012a\u00d8\u00ac": 6466, "urg": 6467, "asil": 6468, "\u0120jeg": 6469, "\u00e6\u00a9": 6470, "\u0120bin": 6471, "ische": 6472, "\u012a\u00e0\u00b8\u00b0": 6473, "\u0120\u00e0\u00b8\u00a7\u00e0\u00b8": 6474, "\u0120\u00ce\u013a": 6475, "\u0120Aut": 6476, "32": 6477, "\u0120\u00e5\u012e\u0139\u00e4\u00ba\u00ac\u00e8\u00b5\u013d\u00e8\u00bd\u00a6": 6478, "\u00e3\u0123\u013a": 6479, "\u00a5\u00e0\u00b9\u0129\u00e0\u00b8\u0143\u00e0\u00b8": 6480, "\u0120iy": 6481, "\u0120\u00e0\u00b0\u012b\u00e0\u00b0\u00a8\u00e0\u00b1\u012f\u00e0\u00b0\u00a8": 6482, "\u0120c\u00c5\u00a9ng": 6483, "\u0120m\u00c3\u0142": 6484, "\u00e0\u00ae\u00bf\u00e0\u00ae\u00b2\u00e0\u00af\u012f\u00e0\u00ae\u00b2": 6485, "\u0120este": 6486, "\u00e0\u00ae\u00a3\u00e0\u00af\u012f\u00e0\u00ae\u00a3": 6487, "\u00e0\u00b0\u00a4\u00e0\u00b1\u012d": 6488, "ENT": 6489, "\u012065": 6490, "lex": 6491, "\u00e0\u00a8\u00be\u00e0\u00a8": 6492, "\u0120\u00e0\u00b0\u00b5\u00e0\u00b1\u0128": 6493, "jet": 6494, "eda": 6495, "\u0120\u00e2\u0122\u012d": 6496, "\u00eb\u0126": 6497, "\u0120\u00e7\u012b": 6498, "\u00e3\u0125\u00b3\u00e3\u0124\u00b0": 6499, "\u0120sind": 6500, "\u00c9\u013bri": 6501, "\u00d6\u00bc": 6502, "vel": 6503, "\u00e0\u00b9\u0122\u00e0\u00b8\u00a3": 6504, "\u0120\u00e3\u0124\u00b9": 6505, "\u00ec\u012d\u00a4": 6506, "\u0120\u00c3\u012b": 6507, "\u0120\u00e0\u00b0\u0134\u00e0\u00b0\u0137": 6508, "\u0120\u00d0\u00ba\u00d0\u00be\u00d1\u0124\u00d0\u00be\u00d1\u0122": 6509, "\u00e9\u0122\u0142": 6510, "ript": 6511, "\u0120\u00d7\u0136\u00d7\u0135": 6512, "\u00d0\u00bd\u00d0\u00be\u00d0\u00b5": 6513, "\u0120\u00d8\u00a7\u00d8\u00af": 6514, "\u00e6\u00b2\u00a1": 6515, "\u0120Online": 6516, "\u00e6\u0142\u0129": 6517, "\u00d0\u00ba\u00d0\u00be": 6518, "\u0124\u00e0\u00b9\u012b\u00e0\u00b8\u00b2\u00e0\u00b8": 6519, "\u0120\u00e6\u013a\u00af": 6520, "\u00d8\u00b1\u00d9\u0129": 6521, "bang": 6522, "RE": 6523, "\u0120adalah": 6524, "egen": 6525, "\u00e1\u0125\u0142\u00e1\u0125\u00ab": 6526, "\u00e0\u00a6\u00be\u00e0\u00a6\u00ac\u00e0\u00a7\u0129": 6527, "\u0120Apr": 6528, "\u0120Har": 6529, "\u0120Es": 6530, "\u00e0\u00a7\u0122\u00e0\u00a7\u0141": 6531, "\u0120\u00e7\u0130\u00af\u00e4\u00ba\u013cag": 6532, "\u00bd\u0136": 6533, "\u00e0\u00a6\u013d\u00e0\u00a7\u0129": 6534, "\u0120juga": 6535, "i\u00c4\u013b": 6536, "\u0120dob": 6537, "\u0120\u00d9\u0129\u00d8\u00b0\u00d9\u0129": 6538, "\u0120tam": 6539, "\u00c9\u013b\u00c5\u0141": 6540, "\u0120\u00e6\u00af": 6541, "ilir": 6542, "\u00e3\u0123\u0136": 6543, "\u00c4\u0125n": 6544, "\u0120Sel": 6545, "\u00e1\u0125\u013a\u00e1\u0125\u00a8\u00e1\u0125\u0137": 6546, "\u00e0\u00a6\u00a4\u00e0\u00a6\u00bf": 6547, "\u00e7\u00b6": 6548, "\u00e0\u00b8\u00b2\u00e0\u00b9\u0122\u00e0\u00b8": 6549, "\u0120Sal": 6550, "\u00e8\u00bd\u00af": 6551, "\u00d9\u012a\u00d9\u0129": 6552, "\u0120tin": 6553, "jem": 6554, "ires": 6555, "\u0120sah": 6556, "\u0120just": 6557, "\u0120\u00ec\u013e\u0142": 6558, "\u00b4\u00e0\u00b9\u0122\u00e0\u00b8": 6559, "aks": 6560, "\u00e3\u0124\u00b8": 6561, "\u0120item": 6562, "\u00e9\u00a4": 6563, "\u00e5\u0131\u00af\u00e4\u00bb\u00a5": 6564, "\u0120\u00d5\u00b4": 6565, "ues": 6566, "\u0120\u00e4\u00b9": 6567, "\u00d8\u00a7\u00d9\u0129\u00d8\u00af": 6568, "\u00e8\u012e": 6569, "\u0120list": 6570, "\u0120\u00e0\u00ae\u00a4\u00e0\u00ae\u00bf\u00e0\u00ae\u00b0": 6571, "\u0120\u00d8\u00b1\u00d8\u00b3": 6572, "elef": 6573, "\u00ed\u0137\u00a9": 6574, "\u00e1\u0125\u0132\u00e1\u0125\u00aa\u00e1\u0125\u013a": 6575, "\u0120kad": 6576, "AB": 6577, "\u00c3\u00a9d": 6578, "\u00e5\u0127\u00b1": 6579, "orld": 6580, "\u0100\u0100\u0100\u0100\u0100\u0100\u0100\u0100": 6581, "\u0120dag": 6582, "\u0120\u00d7\u013e\u00d7\u0139": 6583, "\u0120--": 6584, "eten": 6585, "\u00ce\u00b9\u00ce\u00bd": 6586, "\u00e5\u012d\u0137": 6587, "\u00d9\u0128\u00d8\u00a9": 6588, "\u00e1\u0125\u0132\u00e1\u0125\u013c\u00e1\u0125\u00a3\u00e1\u0125\u0142\u00e1\u0125\u013a": 6589, "\u0120Gu": 6590, "\u00ea\u00b7": 6591, "\u0120Mal": 6592, "\u0120liv": 6593, "49": 6594, "\u0120\u00cf\u0122\u00cf\u0123\u00ce\u00bf\u00cf\u0125": 6595, "\u00d5\u00b8\u00d6\u0124\u00d5\u00a9": 6596, "ices": 6597, "\u0120\u00e1\u00bc": 6598, "\u0120198": 6599, "\u00d8\u00a7\u00d8\u00af\u00d8\u00a9": 6600, "\u00e0\u00af\u0129\u00e0\u00ae\u00a9\u00e0\u00af\u012f": 6601, "\u00e1\u0125\u013a\u00e1\u0125\u00a5": 6602, "acy": 6603, "\u0120\u00d8\u00aa\u00d8\u00ac": 6604, "\u0120\u00d8\u00a7\u00d9\u0126\u00d9\u0127\u00d8\u00aa": 6605, "\u00c3\u0123": 6606, "\u00d9\u012c\u00d8\u00b1\u00d8\u00a9": 6607, "\u00d7\u00a8\u00d7\u00aa": 6608, "\u00e5\u012f\u0130": 6609, "\u00e0\u00a4\u0137\u00e0\u00a4\u00be\u00e0\u00a4\u00b0": 6610, "\u0120\u00c4\u0133\u00e1\u00bb\u012d": 6611, "\u00e5\u0128\u013d": 6612, "\u00eb\u00b0\u0136": 6613, "\u00ac\u00e1\u0125\u00a7": 6614, "\u0120\u00ec\u00b6\u013e\u00ec\u0140\u00a5\u00ec\u0137\u012a\u00eb\u00a7\u012a": 6615, "\u0120alla": 6616, "\u0120\u00e0\u00b8\u013b": 6617, "opp": 6618, "\u0120\u00e0\u00b0\u00b5\u00e0\u00b1\u012f\u00e0\u00b0\u00af": 6619, "\u00d8\u00b7\u00d8\u00a9": 6620, "kat": 6621, "\u00e0\u00a7\u012d\u00e0\u00a6\u00b0": 6622, "UL": 6623, "\u00c3\u00b3r": 6624, "erta": 6625, "unun": 6626, "\u00c3\u0126": 6627, "\u00e8\u0130": 6628, "\u0120\u00d0\u00ba\u00d0\u00be\u00d0\u00bc": 6629, "\u00e9\u00a3\u0130": 6630, "\u0136\u00e0\u00b8\u00b5\u00e0\u00b8": 6631, "\u0120\u00eb\u00b9\u0126": 6632, "\u0120Et": 6633, "\u00d0\u00b5\u00d0\u00b5": 6634, "\u0120\u00e1\u0125\u013d\u00e1\u0125\u013f": 6635, "\u0120h\u00c3\u0142ng": 6636, "\u0120\u00e0\u00b0\u00aa\u00e0\u00b1\u012d": 6637, "ov\u00c3\u00a9": 6638, "\u0120tamb": 6639, "agg": 6640, "\u0137\u00e0\u00b8\u00b1\u00e0\u00b8\u00a7": 6641, "\u00e0\u00a7\u012f\u00e0\u00a6\u00a1": 6642, "\u00e0\u00ae\u00bf\u00e0\u00ae\u00a9\u00e0\u00af\u012f\u00e0\u00ae\u00b1": 6643, "\u0120\u00e2\u0122\u0130": 6644, "\u00e3\u0125\u00a7": 6645, "\u0120\u00e1\u0125\u00a1\u00e1\u0125\u00ae\u00e1\u0125\u0137": 6646, "\u00ec\u013f\u00b4\u00eb\u012d\u00a4": 6647, "adan": 6648, "\u0120\u00d7\u0134\u00d7\u013f": 6649, "\u0120Sep": 6650, "pro": 6651, "\u00ec\u0125\u013f": 6652, "\u00e1\u0125\u00a3\u00e1\u0125\u00a1": 6653, "\u00e1\u0125\u0132\u00e1\u0125\u00ab": 6654, "47": 6655, "aut": 6656, "\u00e4\u00b8\u0135": 6657, "\u00d0\u00b0\u00d1\u0127": 6658, "\u0120\u00e1\u0125\u0132\u00e1\u0125\u0137": 6659, "\u00e0\u00b0\u00a6\u00e0\u00b1\u012f\u00e0\u00b0\u00a6": 6660, "\u0120\u00e0\u00ae\u00ae\u00e0\u00af\u0129": 6661, "ibil": 6662, "ycz": 6663, "\u00e5\u012e\u0139": 6664, "\u00e5\u0142\u0124": 6665, "l\u00c4\u00b1k": 6666, "\u00d9\u012c\u00d8\u00a7\u00d8\u00aa": 6667, "\u0120Port": 6668, "\u00e7\u012a\u00b1": 6669, "\u00c3\u0138": 6670, "\u0120incl": 6671, "\u0120\u00d8\u00a7\u00d8\u00b5": 6672, "\u0120\u00e0\u00a4\u00a7": 6673, "\u00e5\u00ae\u00b9": 6674, "\u013e\u00e0\u00b8\u00a5\u00e0\u00b8": 6675, "\u0120v\u00c3\u0142o": 6676, "\u0120NEW": 6677, "\u00e1\u0125\u0136\u00e1\u0125\u0138": 6678, "AV": 6679, "\u00d1\u0133": 6680, "\u0120end": 6681, "\u00da\u00a9\u00d9\u0129": 6682, "\u0120\u00e7\u00be": 6683, "\u0120\u00e0\u00ae\u0129\u00e0\u00ae\u00b0\u00e0\u00af\u0123\u00e0\u00ae\u00a8\u00e0\u00af\u012f\u00e0\u00ae\u00a4": 6684, "\u00e1\u0125\u00a3\u00e1\u0125\u00a8": 6685, "\u0120heb": 6686, "\u00e0\u00a6\u00be\u00e0\u00a6\u0137\u00e0\u00a7\u0129": 6687, "\u00d8\u00b1\u00d8\u00a7\u00d8\u00aa": 6688, "\u00eb\u00a9\u00b0": 6689, "las": 6690, "\u0120\u00e0\u00a6\u0131\u00e0\u00a6\u00b0": 6691, "\u00ce\u00bc\u00cf\u0122": 6692, "\u0120sil": 6693, "\u0120\u00d7\u013d\u00d7\u013b": 6694, "\u00d9\u0124\u00db\u012e": 6695, "\u00e1\u0125\u0142\u00e1\u0125\u013f\u00e1\u0125\u00a1": 6696, "\u00e1\u0125\u013f\u00e1\u0125\u00a2": 6697, "\u0120wp": 6698, "\u00d0\u00bb\u00d0\u00b5\u00d0\u00bd": 6699, "\u0120\u00e0\u00a4\u00b2\u00e0\u00a5\u0129": 6700, "\u012095": 6701, "\u0120\u00e1\u0125\u0139\u00e1\u0125\u0132\u00e1\u0125\u013e": 6702, "\u00e5\u0131\u00aa": 6703, "\u0120\u00d8\u00b3\u00db\u012e": 6704, "\u0120\u00e1\u0125\u00a3\u00e1\u0125\u013b": 6705, "\u0120gar": 6706, "CH": 6707, "agi": 6708, "umb": 6709, "\u00c4\u012fn\u00c3\u0143": 6710, "\u0120zo": 6711, "ures": 6712, "urt": 6713, "\u00ec\u0126\u0142": 6714, "\u0120cam": 6715, "\u0120ag\u00e4\u00ba\u013c\u00e6\u00b4\u00b2": 6716, "\u0120mask": 6717, "\u0120work": 6718, "\u00e1\u00ba\u00ab": 6719, "com": 6720, "\u00c4\u00b1\u00c4\u0141\u00c4\u00b1": 6721, "\u0138\u00e0\u00b8\u00b6\u00e0\u00b8": 6722, "\u00e6\u013a\u0141": 6723, "\u0120nat": 6724, "\u0124\u00e0\u00b8\u00b6": 6725, "\u0120nec": 6726, "\u0120Ob": 6727, "\u0120\u00ce\u00be": 6728, "\u00e0\u00b1\u0129\u00e0\u00b0\u0137": 6729, "\u0120\u00e0\u00ae\u0137\u00e0\u00af\u012c\u00e0\u00ae\u00a3\u00e0\u00af\u012f\u00e0\u00ae\u0141": 6730, "\u0120Bir": 6731, "\u00ec\u013b": 6732, "\u0120\u00e0\u00a6\u0137\u00e0\u00a6\u00be\u00e0\u00a6\u00b0": 6733, "\u0120\u00e0\u00b9\u0123\u00e0\u00b8\u00a5\u00e0\u00b8\u00b0\u00e0\u00b8": 6734, "\u00d8\u00b3\u00d8\u00b1": 6735, "\u0120\u00d0\u00a3": 6736, "\u0120\u00e7\u00bd": 6737, "\u0120Bo": 6738, "mak": 6739, "\u0120under": 6740, "\u00af\u00bc": 6741, "\u0120oldu\u00c4\u0141": 6742, "\u0120sou": 6743, "\u00c5\u0141\u00c4\u00b1": 6744, "\u00e5\u00ba\u0128": 6745, "\u0120\u00c3\u00a9t": 6746, "\u00e0\u00a5\u0129\u00e0\u00a4\u00b2": 6747, "\u00e0\u00b1\u0129\u00e0\u00b0\u00b0": 6748, "\u00d0\u00b5\u00d0\u00bd\u00d1\u012e": 6749, "\u00e0\u00a4\u00be\u00e0\u00a4\u00ac": 6750, "ump": 6751, "\u0120600": 6752, "\u00e0\u00a6\u0141\u00e0\u00a6\u00be": 6753, "udah": 6754, "\u0120review": 6755, "\u00b1\u00e0\u00b8\u013c\u00e0\u00b8": 6756, "\u00e5\u00be\u012d": 6757, "\u00e6\u00b5\u012d": 6758, "\u00e0\u00b0\u00bf\u00e0\u00b0\u0141": 6759, "\u0120l\u00e1\u00ba\u00a1i": 6760, "\u0120sua": 6761, "\u0120Der": 6762, "\u0120\u00cf\u0125\u00cf\u0126\u00ce\u00b1": 6763, "\u0120\u00d7\u0137\u00d7\u0140\u00d7": 6764, "\u00eb\u012f\u00b0": 6765, "\u00e3\u0123\u00a7\u00e3\u0123\u012f": 6766, "AK": 6767, "\u0120singaw": 6768, "\u00ea\u00b1\u00b0": 6769, "\u00e3\u0125\u00bc\u00e3\u0125\u012a": 6770, "\u00e7\u012c": 6771, "\u00e1\u0125\u013a\u00e1\u0125\u00a4": 6772, "\u0120\u00d7\u00a4\u00d7\u00a8": 6773, "\u00c3\u00a2m": 6774, "\u0120\u00d0\u00bf\u00d1\u0122\u00d0\u00b8": 6775, "\u0120.\"": 6776, "\u0120tr\u00c3\u00aan": 6777, "\u0120\u00e3\u0124\u00a2": 6778, "ia\u00c5\u0124": 6779, "\u0120\u00e0\u00b0\u00ae\u00e0\u00b1\u0122": 6780, "\u0124\u00e0\u00a6\u00b2": 6781, "\u00e8\u0131": 6782, "\u0120\u00ce\u00a4\u00ce\u00bf": 6783, "100": 6784, "ader": 6785, "\u00cf\u0126\u00ce\u00b5\u00cf\u0124": 6786, "\u0120upang": 6787, "\u0120\u00d8\u00aa\u00d9\u0124": 6788, "\u0120pou": 6789, "\u00e7\u00af": 6790, "\u0120\u00db\u00b1\u00db\u00b3\u00db": 6791, "\u0120class": 6792, "\u0120\u00e1\u0125\u0134\u00e1\u0125\u0137": 6793, "\u00e6\u012b\u012d\u00e6\u013e\u00ba\u00e5\u00ae\u00a2\u00e6\u012a\u00b7\u00e7\u00ab\u00af": 6794, "\u00d0\u00b5\u00d0\u00b3\u00d0\u00be": 6795, "\u00e0\u00ae\u00b3\u00e0\u00af\u012a": 6796, "\u00e1\u00ba\u00bb": 6797, "\u0120\u00ce\u00bc\u00ce\u00b1\u00cf\u0124": 6798, "\u0120.\u00e2\u0122\u013f": 6799, "\u00e0\u00a7\u0123\u00e0\u00a6\u00b7": 6800, "IG": 6801, "lag": 6802, "\u0120alg": 6803, "\u0120ag\u00e7\u013e\u0141\u00e4\u00ba\u00ba": 6804, "\u0120\u00e1\u0125\u013a\u00e1\u0125\u00a7\u00e1\u0125\u013f": 6805, "\u00e3\u0125\u0142": 6806, "\u00c3\u00ab": 6807, "\u0120Men": 6808, "\u0120\u00d8\u00a7\u00d9\u0126\u00d8\u00b0\u00d9\u012c": 6809, "\u0120\u00e0\u00a4\u00b9\u00e0\u00a5\u0123\u00e0\u00a4": 6810, "\u00d1\u012d\u00d1\u0127": 6811, "\u0120\u00e0\u00a4\u0127\u00e0\u00a4\u00a8": 6812, "\u00e0\u00a5\u0129\u00e0\u00a4\u00a4": 6813, "\u0137\u012e": 6814, "\u00e7\u0127": 6815, "\u00e1\u00ba\u00b7t": 6816, "\u00e0\u00a5\u0123\u00e0\u00a4\u00a8": 6817, "\u00e7\u00bd\u00ae": 6818, "\u0120\u00ec\u00a2": 6819, "tir": 6820, "ns": 6821, "\u00e5\u0143\u0139": 6822, "\u0120tre": 6823, "\u0120pom": 6824, "\u0120\u00db\u012e\u00d8\u00a7": 6825, "wit": 6826, "ii": 6827,
[...]
